<unk>	0
<s>	0
</s>	0
.	-3.63123
▁جي	-3.64995
ن	-4.10752
ي	-4.16616
▁.	-4.1973
▁آهي	-4.20571
▁۾	-4.23683
▁،	-4.3204
▁کي	-4.34809
▁۽	-4.42814
▁جو	-4.588
▁ته	-4.72126
▁تي	-4.89561
،	-4.96016
و	-4.96717
ه	-5.05162
▁هڪ	-5.12644
ا	-5.16406
▁سان	-5.21046
▁نه	-5.23038
▁کان	-5.24393
▁ان	-5.26246
▁"	-5.28294
▁ڪري	-5.31983
▁هن	-5.33877
▁به	-5.36666
▁	-5.40378
▁آهن	-5.47093
▁هو	-5.47292
▁ٿي	-5.51475
▁و	-5.52042
▁ڪرڻ	-5.52143
:	-5.55648
▁ٿو	-5.57305
▁اسان	-5.57992
▁اهو	-5.60805
▁لاءِ	-5.6227
▁يا	-5.7075
ل	-5.72124
ون	-5.79911
▁توهان	-5.82231
▁ڪيو	-5.82902
▁مان	-5.90004
▁(	-5.90298
▁مون	-5.97451
م	-5.99043
▁جا	-5.99434
س	-6.00336
▁پر	-6.01027
ت	-6.03134
▁ٿا	-6.03872
▁-	-6.07744
▁ئي	-6.08217
ر	-6.08565
▁ن	-6.1569
ءَ	-6.16217
▁پنهنجي	-6.19115
▁لاء	-6.21377
▁ويو	-6.23011
▁انهن	-6.30012
ك	-6.30309
▁ي	-6.30872
▁طور	-6.31963
▁ا	-6.33726
▁:	-6.36257
▁هي	-6.36932
)	-6.3852
ع	-6.38757
▁ت	-6.48951
ز	-6.49955
▁اي	-6.50445
▁وقت	-6.50892
▁م	-6.51991
؟	-6.52916
▁وڌيڪ	-6.53549
ين	-6.5596
▁ڪم	-6.56964
▁هر	-6.58167
▁س	-6.59653
▁ڪو	-6.60502
▁ڇا	-6.61066
ڻ	-6.61645
▁بي	-6.65695
▁ما	-6.66621
ڪ	-6.66975
ـ	-6.67759
▁!	-6.68688
▁جنهن	-6.69034
▁ڪئي	-6.6996
▁ه	-6.7026
▁استعمال	-6.7035
ب	-6.71165
▁آھي	-6.71781
▁اهي	-6.73028
▁هئي	-6.74356
▁ها	-6.75501
▁تائين	-6.76316
▁ڪنهن	-6.7724
▁جيڪو	-6.78315
▁ال	-6.7946
ان	-6.79793
ٽ	-6.80518
▁واري	-6.80795
▁سي	-6.80863
د	-6.81895
▁ههههههههه	-6.81974
ش	-6.82091
▁اها	-6.83823
▁ڪجهه	-6.84384
▁ڪريو	-6.84795
▁)	-6.85942
▁بس	-6.86565
▁سڀ	-6.87517
▁چيو	-6.88148
▁آ	-6.88717
نگ	-6.89799
▁جڏهن	-6.90615
▁من	-6.90749
▁ههههههههههه	-6.91058
▁ڏينهن	-6.91606
▁وڃي	-6.91891
▁ب	-6.93656
▁جيڪي	-6.94032
▁سال	-6.96515
▁ل	-6.9743
▁حاصل	-6.98945
ة	-6.99768
▁پوءِ	-6.99833
▁؟	-7.00395
ف	-7.01309
▁منهنجي	-7.02689
▁از	-7.02957
▁انهي	-7.03307
▁مي	-7.03367
▁سندس	-7.0385
▁پاڻ	-7.04711
ري	-7.06224
▁پي	-7.07008
▁گڏ	-7.07267
▁جيڪڏهن	-7.07306
▁,	-7.07686
▁سگهي	-7.07704
▁تمام	-7.10354
▁لا	-7.1092
ئي	-7.12108
▁الله	-7.13089
▁ناهي	-7.13514
ائي	-7.13633
▁ههههههههههههههه	-7.13754
▁ههههههه	-7.15506
s	-7.16301
ج	-7.16627
ات	-7.16871
▁دنيا	-7.17637
!	-7.17781
▁ع	-7.19079
▁رهيو	-7.20655
▁هههههههههه	-7.20808
▁در	-7.21166
▁ٿيو	-7.22897
▁وئي	-7.23354
▁في	-7.24123
▁ماڻهو	-7.24179
▁تون	-7.24687
▁وڏي	-7.25155
ها	-7.25168
▁تو	-7.26257
▁ڪن	-7.26323
▁او	-7.26908
▁ڪا	-7.27915
▁جن	-7.28523
َ	-7.29059
▁ضرورت	-7.29634
▁ويندو	-7.31327
▁وٽ	-7.31335
▁پڻ	-7.32208
▁صرف	-7.32347
▁هههههههه	-7.33034
▁ٿيڻ	-7.3321
▁اين	-7.34237
▁اچي	-7.35197
▁ويا	-7.35579
▁ڪڏهن	-7.3627
▁اڳ	-7.38261
▁زندگي	-7.39003
ِ	-7.39011
ار	-7.39021
▁'	-7.39532
▁رهي	-7.39978
▁ڪيئن	-7.40499
▁ٽي	-7.40913
ور	-7.41477
▁ڪندو	-7.41672
▁شروع	-7.42515
▁گهر	-7.43174
▁بابت	-7.43342
▁سڀني	-7.43491
▁ماڻهن	-7.43836
▁جيئن	-7.43979
▁ڇو	-7.44252
ــ	-7.45057
▁طرح	-7.45069
▁جون	-7.46285
▁ٻئي	-7.46542
▁ڊي	-7.4673
▁ڪ	-7.47151
▁شامل	-7.4754
▁ههههههههههههه	-7.47726
ک	-7.47926
▁عام	-7.48509
▁پيش	-7.48579
-	-7.48823
▁ز	-7.4935
▁ڪندا	-7.49378
▁مختلف	-7.49595
▁هئا	-7.49909
▁شي	-7.50159
▁دل	-7.50217
ى	-7.5035
▁هههههههههههه	-7.50429
▁غير	-7.50482
▁بر	-7.50814
▁ج	-7.50841
▁وارو	-7.51738
ح	-7.53075
آ	-7.53337
▁ههههه	-7.53819
▁يعني	-7.54465
▁عمل	-7.54594
ڊ	-7.55232
پ	-7.55247
▁ڳالهه	-7.55265
▁نظر	-7.55638
▁/	-7.56016
,	-7.56245
▁آهيان	-7.56554
▁رهيا	-7.56712
▁سو	-7.57165
▁ش	-7.57739
▁ڏانهن	-7.57823
▁ڏيڻ	-7.5797
ههههههههه	-7.58421
▁لي	-7.59068
▁خاص	-7.59111
"	-7.59114
ی	-7.59718
▁گهرجي	-7.60159
▁ون	-7.60722
▁ر	-7.61743
▁ف	-7.6198
▁هوندو	-7.62532
▁s	-7.62947
▁ڪندي	-7.6304
▁اڄ	-7.63478
▁مدد	-7.63918
▁_	-7.64015
▁سبب	-7.6411
▁جيڪا	-7.64359
▁سر	-7.64389
▁گهٽ	-7.64713
▁پ	-7.64716
يل	-7.64881
▁ك	-7.65174
▁2	-7.65248
ڙ	-7.6547
▁1	-7.65933
▁موجود	-7.66005
▁خبر	-7.6617
▁اندر	-7.66263
▁ٻين	-7.66328
▁آن	-7.66416
لي	-7.66523
▁وي	-7.66609
▁آئون	-7.6667
▁مڪمل	-7.67242
▁ايس	-7.67908
هه	-7.67934
▁هوندي	-7.6845
▁ٿيل	-7.68521
▁د	-7.68823
خ	-7.68868
ُ	-7.68902
▁پنهنجو	-7.6911
▁نئين	-7.69309
▁ملڪ	-7.69511
▁3	-7.69514
▁ايم	-7.69594
▁وري	-7.7009
▁ڪر	-7.70232
▁نالو	-7.70285
ال	-7.70399
▁بعد	-7.71148
▁هم	-7.71355
ء	-7.71384
▁قسم	-7.71633
▁وچ	-7.71829
▁نا	-7.72026
يءَ	-7.72082
▁گهڻو	-7.72929
▁ڪي	-7.72962
▁با	-7.73317
▁ِ	-7.73629
▁اهڙي	-7.73683
▁آهيون	-7.74278
▁پهرين	-7.74561
▁ختم	-7.75775
▁5	-7.75911
▁هتي	-7.7632
▁انا	-7.7651
▁هاڻي	-7.76995
▁ڇڏيو	-7.77128
▁ڪتاب	-7.77342
▁کيس	-7.77439
ق	-7.77671
▁سگهو	-7.77797
ھ	-7.78063
2	-7.78228
▁آھن	-7.78421
ـــ	-7.78771
▁تنهن	-7.7924
▁ٿيندو	-7.80001
▁هههههههههههههه	-7.80288
ط	-7.80313
▁پيو	-7.80375
▁اهم	-7.80398
▁شايد	-7.80401
▁هههههه	-7.80565
▁جواب	-7.81174
▁تاريخ	-7.8167
▁ٿئي	-7.82085
▁پيدا	-7.82138
▁ياد	-7.82507
▁ڏئي	-7.82719
▁دوست	-7.82989
▁هٿ	-7.83374
▁مو	-7.83474
▁10	-7.83548
▁انسان	-7.83661
▁لو	-7.83861
▁آيو	-7.83888
ندي	-7.84012
▁وڏو	-7.84021
ندو	-7.84522
▁آئي	-7.84561
▁سالن	-7.84603
▁حل	-7.84634
ول	-7.85732
▁ڪندڙ	-7.85999
▁ڇڏي	-7.86098
▁فون	-7.86998
▁شهر	-7.87365
هههههههه	-7.87572
▁ڏنو	-7.87793
▁را	-7.88618
▁بهترين	-7.88784
▁ڪوشش	-7.88947
چ	-7.89001
▁بند	-7.89678
دي	-7.89687
▁مطلب	-7.90239
▁ائين	-7.90432
▁هجي	-7.90759
▁ٻه	-7.90811
▁وٺي	-7.90819
▁اتي	-7.91764
يو	-7.9181
▁منهنجو	-7.91815
▁خيال	-7.92027
▁رات	-7.92087
جي	-7.92187
اري	-7.92479
▁سنڌ	-7.93064
▁عليه	-7.93199
▁پئي	-7.93217
▁يو	-7.93265
e	-7.93523
يم	-7.93588
▁ويب	-7.93871
▁ٻيو	-7.94267
▁اوهان	-7.94308
▁ـ	-7.94541
▁پوء	-7.94692
▁وانگر	-7.95006
▁ام	-7.95171
▁؛	-7.95335
▁رو	-7.95395
▁ڪيا	-7.95825
▁قيمت	-7.96337
▁ذريعي	-7.9649
رو	-7.96649
▁ڪيل	-7.96947
▁4	-7.97066
ص	-7.98124
▁ٻي	-7.98215
▁ملي	-7.98311
وھان	-7.98689
▁ڏي	-7.98986
▁صحيح	-7.99429
▁سوال	-7.99489
گ	-7.99615
▁S	-7.9982
▁خ	-7.99864
▁اصل	-8.00692
▁ڏسي	-8.00926
▁مع	-8.01473
▁حق	-8.02413
ام	-8.02439
▁ڪيترا	-8.02452
▁حقيقت	-8.02647
ڙي	-8.02815
▁اڃا	-8.02831
▁8	-8.0325
▁ٻاهر	-8.03302
▁أ	-8.03354
▁عمر	-8.03405
▁ادا	-8.03553
▁دور	-8.03579
▁است	-8.0377
▁ٻار	-8.0393
▁مش	-8.0403
يا	-8.04054
▁ترقي	-8.043
i	-8.04441
▁اوھان	-8.0445
ند	-8.04563
t	-8.04565
▁وا	-8.0462
▁جاري	-8.0493
نا	-8.05013
يت	-8.05208
▁والله	-8.05404
ندڙ	-8.05478
▁ور	-8.06155
▁دوران	-8.062
▁خدا	-8.06234
▁طرف	-8.06258
▁بهتر	-8.06266
▁سائيٽ	-8.06541
▁ويندي	-8.06789
يد	-8.07063
▁ڪمپني	-8.07473
▁حڪومت	-8.07607
وا	-8.07624
▁حصو	-8.07746
▁ھن	-8.07872
▁ظاهر	-8.08521
▁ڪيترن	-8.08665
▁چ	-8.08702
▁ح	-8.08887
▁رد	-8.08887
كم	-8.09258
▁ضروري	-8.09298
▁سفر	-8.09651
▁لڳي	-8.09873
1	-8.09944
▁ص	-8.09957
▁مواد	-8.10451
▁اس	-8.10791
▁جتي	-8.11035
▁پاڪستان	-8.11039
y	-8.11127
▁صاحب	-8.11395
▁اسين	-8.11775
سي	-8.11827
يون	-8.11948
▁ري	-8.1198
▁آر	-8.12037
5	-8.12318
ندا	-8.12438
▁آسان	-8.1272
▁رکي	-8.12811
▁سندن	-8.13039
▁مٿي	-8.13582
▁P	-8.14066
▁سا	-8.14161
غ	-8.14268
▁ڏسڻ	-8.14447
ہ	-8.1483
▁بيان	-8.14995
▁هيٺ	-8.1511
▁پهريون	-8.15343
ض	-8.15349
▁محسوس	-8.1556
▁رنگ	-8.15947
▁ڪجھ	-8.16031
a	-8.16191
▁پاڻي	-8.16568
▁ءَ	-8.16791
اب	-8.16952
▁A	-8.17019
er	-8.17273
▁بين	-8.17501
▁7	-8.17757
▁هوندا	-8.17946
▁علي	-8.17999
▁ولا	-8.18012
▁آمريڪا	-8.18025
▁معيار	-8.18097
▁اھو	-8.19001
▁خلاف	-8.19099
▁على	-8.1912
▁رکڻ	-8.19197
▁پيار	-8.19395
3	-8.19703
▁ٻن	-8.20029
▁تان	-8.20325
▁تن	-8.20424
▁صورت	-8.20499
4	-8.20507
▁*	-8.20852
▁ھو	-8.21093
▁6	-8.21119
▁وارا	-8.21525
▁اثر	-8.21805
▁طرفان	-8.22007
▁رڳو	-8.22309
p	-8.22393
▁ڪاروبار	-8.22561
▁مثال	-8.22737
▁ين	-8.22836
▁شو	-8.22906
ئ	-8.23456
▁داخل	-8.23544
▁بال	-8.23626
▁سگهجي	-8.23664
▁تبديل	-8.23942
▁گھر	-8.24001
▁خوش	-8.24255
▁ڏيو	-8.2447
▁پسند	-8.24579
▁تنهنجي	-8.24941
▁حد	-8.25021
▁تيار	-8.25312
▁مشهور	-8.25535
▁چوڻ	-8.25557
▁قانون	-8.25683
▁آخر	-8.25715
را	-8.25775
▁ات	-8.25818
▁واپس	-8.25849
▁لائن	-8.2592
▁آهيو	-8.26117
▁پيداوار	-8.26266
اد	-8.26566
▁ايران	-8.26752
▁دي	-8.27062
▁چين	-8.27093
▁ق	-8.273
▁ٿيون	-8.27389
يه	-8.27455
▁تر	-8.27548
▁گ	-8.27603
▁ڏني	-8.28048
▁ڊيٽا	-8.28099
▁چي	-8.28403
o	-8.28421
▁C	-8.28491
▁جنگ	-8.28682
▁19	-8.28736
تي	-8.28959
▁[	-8.29003
اڻي	-8.29084
ٽي	-8.29174
اني	-8.29266
▁ڇاڪاڻ	-8.29428
▁هنن	-8.29466
▁هوءَ	-8.29852
▁نظام	-8.29952
▁وڃڻ	-8.30017
▁عورت	-8.30082
▁اول	-8.30314
▁َ	-8.30383
▁آيا	-8.30408
ايو	-8.3065
▁قابل	-8.30978
▁ڪار	-8.31116
▁زمين	-8.32374
ٿ	-8.32619
▁20	-8.32967
▁M	-8.33261
▁هميشه	-8.3346
▁ٻنهي	-8.33524
هم	-8.33709
اء	-8.34151
u	-8.34558
▁بار	-8.35018
▁اجازت	-8.35126
▁الم	-8.35372
اس	-8.36001
▁ني	-8.36047
▁هذا	-8.36193
▁تا	-8.36371
مي	-8.36912
▁لفظ	-8.3702
ئن	-8.37027
▁ٿيندي	-8.37324
▁ميل	-8.37379
▁مونکي	-8.37439
ائڻ	-8.3745
▁ھي	-8.37565
▁ڏٺو	-8.37747
▁سٺو	-8.37965
▁موضوع	-8.38079
ير	-8.38162
لا	-8.38575
▁نٿو	-8.38701
▁بنيادي	-8.38708
▁باري	-8.38809
D	-8.38851
▁ڪونه	-8.38913
▁سگھي	-8.38954
▁بل	-8.39037
="	-8.39253
▁ڊ	-8.39451
▁مس	-8.39827
▁جيتوڻيڪ	-8.39903
▁واقعي	-8.40004
▁شروعات	-8.40183
▁محفوظ	-8.40242
ئر	-8.40332
▁اميد	-8.40663
▁كل	-8.40685
▁ڪير	-8.40759
▁توکي	-8.40834
ڪس	-8.41198
بي	-8.4132
7	-8.41441
▁قائم	-8.41664
▁هههه	-8.4213
▁نئون	-8.42133
▁آواز	-8.42554
0	-8.4267
r	-8.42819
▁اپ	-8.43048
▁پير	-8.43096
▁ابو	-8.43186
▁انداز	-8.43647
▁معلومات	-8.43649
▁ک	-8.43727
▁ار	-8.43752
▁مارڪيٽ	-8.43757
بو	-8.43963
▁تعليم	-8.44092
n	-8.44419
▁سخت	-8.44749
▁شين	-8.4479
▁اختيار	-8.44853
▁ھڪ	-8.45102
▁اسلامي	-8.45192
▁کڻي	-8.45335
ٺ	-8.45399
▁پٽ	-8.45403
ڪو	-8.45656
'	-8.4575
▁يه	-8.45797
▁p	-8.45857
▁شيء	-8.4588
▁چه	-8.46047
▁غ	-8.46206
▁محبت	-8.46334
▁خريد	-8.46576
▁آزاد	-8.46656
▁هجڻ	-8.46859
▁مقصد	-8.46968
▁وارن	-8.47291
▁نالي	-8.47381
▁9	-8.4751
▁اسڪول	-8.47562
▁بنياد	-8.47756
ث	-8.47924
▁هيو	-8.48074
▁پنھنجي	-8.48209
▁فراهم	-8.48291
▁مطابق	-8.48416
ڪي	-8.4845
▁اڻ	-8.48568
▁15	-8.48622
اڻ	-8.48727
▁آخري	-8.48902
▁خود	-8.49001
▁B	-8.4918
▁اڪثر	-8.49202
m	-8.49273
بر	-8.49329
g	-8.49372
▁که	-8.49655
▁آه	-8.49763
ar	-8.49976
▁کانپوءِ	-8.50456
▁خان	-8.50732
▁T	-8.50882
▁منهن	-8.51063
▁سن	-8.51134
6	-8.51452
لو	-8.51544
ده	-8.51726
▁چڪو	-8.51765
▁مناسب	-8.5177
▁پيا	-8.5192
▁سيڪڙو	-8.51933
▁<	-8.51946
ڳ	-8.52001
▁دو	-8.52073
▁درخواست	-8.52151
C	-8.52306
▁تحقيق	-8.5242
▁مفت	-8.52676
▁ٻارن	-8.52822
▁آف	-8.52912
▁ڏسو	-8.53108
▁شادي	-8.53542
▁چار	-8.53574
▁ڪيس	-8.53686
▁ويندا	-8.53777
c	-8.53875
▁ٻيهر	-8.5388
▁شخص	-8.54108
▁ٻڌايو	-8.54228
▁ايل	-8.54416
▁فقط	-8.54651
ing	-8.54668
▁سائين	-8.5481
▁انت	-8.54934
▁سڄي	-8.55165
سٽ	-8.55448
اي	-8.55457
▁جسم	-8.55467
▁وس	-8.55524
▁ة	-8.55583
▁مال	-8.55738
▁غلط	-8.55749
▁اچڻ	-8.55765
▁سطح	-8.55775
▁12	-8.55847
▁مل	-8.55889
▁ڪهڙي	-8.56067
ــــ	-8.56078
▁سچ	-8.56334
al	-8.56564
▁باقي	-8.56657
▁هاي	-8.5693
▁سگهن	-8.57035
▁ٽ	-8.57401
▁پن	-8.57478
▁فيصلو	-8.5757
▁سياسي	-8.57706
▁واحد	-8.57795
▁قدم	-8.57894
ڀ	-8.58138
▁پاران	-8.58168
ذ	-8.58282
▁طريقي	-8.58501
▁ڪافي	-8.58553
▁ڄڻ	-8.58719
▁لک	-8.58797
▁فارم	-8.5899
S	-8.59009
▁ڪل	-8.59193
▁پنج	-8.59326
▁ڄاڻ	-8.59597
تا	-8.59973
ود	-8.59985
▁ـــ	-8.60036
تر	-8.60235
▁له	-8.60329
▁ورتو	-8.6033
▁ــ	-8.60345
▁اڳتي	-8.60398
▁G	-8.60405
ست	-8.6046
▁پروگرام	-8.6122
▁جان	-8.6122
▁خط	-8.6196
P	-8.62016
ره	-8.62192
▁پا	-8.62496
▁عالمي	-8.62513
هي	-8.62808
▁نقصان	-8.6296
▁پارٽي	-8.6304
▁پس	-8.63104
an	-8.63131
▁رپورٽ	-8.63136
b	-8.63154
▁ميڊيا	-8.63155
▁ايندڙ	-8.63224
▁پل	-8.63348
▁علم	-8.63589
▁ممڪن	-8.63769
▁دير	-8.63881
▁شيون	-8.63888
8	-8.64353
d	-8.64398
9	-8.64499
▁ضرور	-8.64586
▁آمريڪي	-8.64644
▁روز	-8.64904
▁نن	-8.65008
▁خوبصورت	-8.65423
▁پوري	-8.65544
▁بلڪ	-8.65555
▁حال	-8.65593
▁خراب	-8.65669
▁ڪٿي	-8.65754
▁اڪائونٽ	-8.65861
▁30	-8.65889
بل	-8.65919
▁چاهيو	-8.65969
▁كم	-8.66096
▁ٺ	-8.66106
▁مرد	-8.66129
▁11	-8.66365
▁السلام	-8.66384
▁گهڻي	-8.665
▁ترتيب	-8.66554
دار	-8.66568
▁18	-8.66715
▁سم	-8.66756
▁ذاتي	-8.66764
▁مهرباني	-8.66803
A	-8.67155
▁حڪم	-8.67205
▁ملڪن	-8.67426
▁ڪردار	-8.67554
ٽر	-8.67598
▁ٻولي	-8.67864
▁D	-8.67917
▁جدا	-8.68089
in	-8.68178
▁پري	-8.6857
▁H	-8.68574
▁راند	-8.6869
▁لکڻ	-8.68809
▁ٽيڪنالاجي	-8.68857
▁صدر	-8.68954
وم	-8.6896
▁يقين	-8.69038
ظ	-8.69052
▁>	-8.69118
▁بت	-8.69182
▁اعلان	-8.69246
▁مضمون	-8.69572
▁آءٌ	-8.69737
▁رياست	-8.69795
أ	-8.69932
ڙو	-8.70171
▁پڪ	-8.70282
▁انھن	-8.70357
▁نمبر	-8.70399
▁موت	-8.70516
▁حالت	-8.70746
▁ٿيا	-8.71031
▁جديد	-8.71042
▁مسئلو	-8.71109
▁وار	-8.71135
▁سسٽم	-8.7128
▁تڏهن	-8.71346
▁طاقت	-8.71619
▁بڻجي	-8.71723
▁حقيقي	-8.71746
▁تصوير	-8.71962
▁اسلام	-8.72023
گي	-8.72189
▁ُ	-8.72197
شن	-8.7246
▁مر	-8.72466
▁وڌي	-8.72486
]	-8.72569
▁مت	-8.72667
▁گه	-8.72827
▁روح	-8.73002
▁سٺي	-8.73132
▁گو	-8.7345
▁چئي	-8.73525
ائ	-8.73691
ما	-8.7391
▁خدمت	-8.73943
▁ڊاڪٽر	-8.73983
▁الا	-8.73988
▁اصلي	-8.74168
▁گوگل	-8.74177
▁بن	-8.74188
▁ٽن	-8.74191
▁مين	-8.74255
▁وڌ	-8.74361
▁ڏنل	-8.74724
▁کن	-8.75679
▁عوام	-8.75891
▁ماءُ	-8.76201
ڌ	-8.76324
▁ڪجي	-8.76493
؟"	-8.76497
▁طريقو	-8.76554
▁مشين	-8.76572
▁تعلق	-8.76794
ڏ	-8.76815
▁اعلي	-8.76822
با	-8.76824
▁قومي	-8.7686
▁سامان	-8.76872
تك	-8.76966
▁عورتن	-8.77081
▁وڃن	-8.77506
▁احساس	-8.77581
▁لڳو	-8.77615
▁قبول	-8.77644
▁0	-8.77875
▁ٺاهڻ	-8.77926
▁ڇ	-8.77956
k	-8.7796
▁انساني	-8.78004
▁قوم	-8.78153
▁يونيورسٽي	-8.7821
▁ٽيم	-8.78344
▁پوليس	-8.78406
▁لك	-8.78464
نڊ	-8.78466
▁سماجي	-8.78469
دا	-8.78493
دو	-8.78582
▁مقرر	-8.78638
▁ڏ	-8.7872
▁لوڊ	-8.78984
▁بو	-8.79035
▁واضح	-8.79078
▁ڪيتري	-8.79185
▁صنعت	-8.79197
ed	-8.79318
▁وٺڻ	-8.79555
▁حضرت	-8.79597
▁صحت	-8.7975
مان	-8.79799
▁پورو	-8.79837
▁ڳوٺ	-8.80118
▁14	-8.80248
▁گذريل	-8.80306
ڪا	-8.80354
▁c	-8.80617
ئين	-8.80621
▁پار	-8.80683
▁ٺاهي	-8.8076
▁ايه	-8.80885
▁m	-8.80948
▁علاج	-8.80953
▁رهڻ	-8.811
▁ست	-8.81285
▁سين	-8.8134
▁سج	-8.81535
▁مُ	-8.81985
▁وين	-8.8201
▁صارف	-8.82346
▁صاف	-8.82401
▁نوجوان	-8.82425
▁پوندو	-8.82684
▁نو	-8.82692
▁F	-8.82837
O	-8.83115
▁پو	-8.83131
▁•	-8.83352
▁ڦ	-8.83385
▁فلم	-8.83534
▁start	-8.83761
▁اکين	-8.83862
▁ڀيرو	-8.83865
نٿا	-8.83995
▁دا	-8.8422
▁جلد	-8.84227
▁جمع	-8.84227
it	-8.84262
▁نور	-8.84372
▁حوالي	-8.84448
▁ڪوبه	-8.84455
▁پاسي	-8.84595
▁موجب	-8.84606
▁dur	-8.84674
▁تيز	-8.84731
▁گراهڪن	-8.84748
▁گي	-8.84856
▁ھ	-8.85023
▁صبح	-8.85054
▁فرق	-8.85077
▁خرچ	-8.85223
▁f	-8.8534
▁اُن	-8.85375
▁رقم	-8.85551
▁ٻيا	-8.8581
▁I	-8.85928
وري	-8.86189
▁مٿان	-8.86282
▁موجوده	-8.86379
رن	-8.86394
▁عظيم	-8.86446
▁وش	-8.86469
▁ايپليڪيشن	-8.86501
▁پڙهڻ	-8.86502
▁اوزار	-8.86503
▁مضبوط	-8.86579
▁سيٽ	-8.86802
▁انتظار	-8.86816
▁سون	-8.86829
▁1.	-8.86983
اق	-8.87103
▁گڏيل	-8.87127
▁ڏيندو	-8.87229
▁عملي	-8.87232
▁جه	-8.87279
▁ھڪڙو	-8.87332
▁متاثر	-8.87355
▁بڻائي	-8.874
M	-8.87471
l	-8.87482
▁پوسٽ	-8.87552
▁تعداد	-8.87825
▁محمد	-8.87903
پي	-8.87944
▁تعمير	-8.88128
▁شرح	-8.88203
▁هاڻ	-8.88222
I	-8.88259
▁هزار	-8.88362
▁ذهن	-8.88397
▁13	-8.8847
▁چونڊ	-8.88592
▁عن	-8.88669
؛	-8.88711
▁100	-8.88818
▁نموني	-8.8885
▁هيون	-8.88984
▁a	-8.88987
▁اهڙو	-8.89018
▁گل	-8.89102
▁ايف	-8.89154
▁ولي	-8.89224
▁لازمي	-8.89331
▁الي	-8.89362
ڪر	-8.89429
▁ڪنٽرول	-8.89479
▁نتيج	-8.89593
▁مسافر	-8.8965
جن	-8.89679
▁نسل	-8.8981
▁زي	-8.9003
▁تبديلي	-8.90081
▁منٽ	-8.90365
فر	-8.90454
▁رب	-8.90497
▁ذ	-8.90599
▁يورپ	-8.90618
f	-8.90623
▁مهيا	-8.9063
▁ايڪس	-8.90672
▁سواءِ	-8.90678
▁خواب	-8.90981
▁b	-8.91394
▁ڌيان	-8.91413
▁آزادي	-8.91421
le	-8.91467
▁ههه	-8.91734
▁رکيو	-8.919
در	-8.9205
▁تہ	-8.9214
▁هلي	-8.92233
▁قدر	-8.92394
▁بد	-8.92488
▁وضاحت	-8.92548
ؤ	-8.92714
▁تقريب	-8.92883
▁گر	-8.92939
▁t	-8.93095
▁سنڌي	-8.93102
▁يار	-8.93262
▁عدالت	-8.93288
▁سوچ	-8.93344
▁ذڪر	-8.93384
▁پنهنجن	-8.93454
▁ڪهڙو	-8.93459
▁وڊيو	-8.93472
▁وزير	-8.93538
▁ڪهاڻي	-8.93638
▁ٽر	-8.93686
at	-8.93875
▁پهچي	-8.9406
▁هنڌ	-8.94109
▁17	-8.94115
▁سمجهي	-8.94213
ٻ	-8.94574
يشن	-8.95001
▁اَ	-8.95698
▁ی	-8.95896
▁الع	-8.96119
or	-8.96126
ّ	-8.96304
▁E	-8.96327
▁l	-8.96467
▁حفاظت	-8.96569
▁ڪريان	-8.96719
▁رسائي	-8.96979
▁تنظيم	-8.96991
زي	-8.97141
▁زال	-8.972
▁ٻ	-8.97385
▁هيءَ	-8.97393
▁روشني	-8.97469
▁پڙهي	-8.97669
▁ڌ	-8.97699
ڙا	-8.97716
▁پيام	-8.97782
▁علاوه	-8.97852
▁مليو	-8.9788
▁ط	-8.97898
▁d	-8.97917
▁وال	-8.97972
شي	-8.9809
▁پاڪ	-8.98153
">	-8.98228
٪	-8.9827
▁جنھن	-8.9832
ائن	-8.98465
▁تصديق	-8.98546
▁شاعر	-8.98603
▁وڪرو	-8.98725
▁]	-8.9878
▁شيءِ	-8.9887
▁هه	-8.98964
▁ڏس	-8.99118
▁علائقي	-8.99157
▁زور	-8.99164
▁لل	-8.99218
▁سمجه	-8.99413
▁ڪارڪردگي	-8.99508
▁ده	-8.99671
▁عرب	-8.99763
▁رستو	-8.99787
▁ڪلڪ	-8.99789
▁خير	-8.99831
▁گروپ	-8.99877
▁ڪراچي	-8.99949
▁ندي	-9.00002
▁جلدي	-9.00023
▁مير	-9.00093
▁رفتار	-9.00261
▁جيڪڏھن	-9.00303
▁چو	-9.00334
▁ڏيکاري	-9.00405
▁سگهون	-9.00422
گر	-9.00433
▁هل	-9.00446
▁کا	-9.00477
▁مالي	-9.00521
▁آباد	-9.00553
▁سرڪاري	-9.00591
▁اھي	-9.00643
▁مري	-9.00655
▁50	-9.00696
▁هفتي	-9.00848
▁شر	-9.0087
▁اح	-9.00931
▁g	-9.00951
▁L	-9.01028
تو	-9.01057
▁اش	-9.01061
▁وجود	-9.0111
▁اب	-9.01282
▁حيثيت	-9.01372
▁وڃ	-9.01453
▁پهريان	-9.01467
▁جهاز	-9.01483
▁ــــ	-9.01513
▁صدي	-9.01557
▁تنهنڪري	-9.01577
▁مسلمان	-9.01696
▁ماڊل	-9.01732
▁ڪيون	-9.01771
ے	-9.01792
▁گھٽ	-9.01795
▁ٺهيل	-9.01817
▁ڊالر	-9.01824
▁ڪارڊ	-9.01838
▁25	-9.01879
▁آفيس	-9.02024
في	-9.02071
▁سائنس	-9.02077
▁to	-9.0214
▁تصور	-9.02227
▁سروس	-9.02266
▁16	-9.02329
▁زبان	-9.0238
▁؟"	-9.02423
▁يءَ	-9.02638
▁چاهي	-9.02827
▁گرم	-9.02834
▁تجربو	-9.02906
▁غريب	-9.02908
▁=	-9.02953
▁ماحول	-9.03088
▁قتل	-9.03182
كر	-9.03257
▁مثل	-9.03407
▁ايئر	-9.03633
▁مالڪ	-9.04301
▁موسم	-9.04305
▁خاندان	-9.04322
▁پوي	-9.04511
▁$	-9.04615
▁دين	-9.04738
▁شكرا	-9.04897
▁رس	-9.04976
▁چند	-9.05074
et	-9.05095
▁ڪمپيوٽر	-9.05311
▁حسين	-9.0542
▁ورڪ	-9.05428
▁ڊائون	-9.05434
on	-9.05558
وت	-9.0577
▁ايندو	-9.05803
▁دعا	-9.05827
▁چون	-9.05866
▁جاءِ	-9.05874
▁آءِ	-9.05881
▁درد	-9.05883
▁ھڪڙ	-9.05894
▁آرام	-9.06002
▁ڏک	-9.06072
۔	-9.06121
▁رت	-9.06131
وز	-9.06156
▁صلاح	-9.06377
▁انٽرنيٽ	-9.06423
▁امير	-9.06446
▁پيغام	-9.06518
▁ڏا	-9.06528
▁ڏاڍو	-9.06593
▁لاڳو	-9.06613
▁ٻڌي	-9.06781
▁in	-9.0688
▁نگ	-9.0692
▁i	-9.06924
فت	-9.06926
▁مستقبل	-9.06991
▁بينڪ	-9.07038
▁دار	-9.07132
T	-9.07237
▁بحث	-9.0728
▁گرمي	-9.07283
▁الف	-9.07321
▁ڳولي	-9.07692
▁اف	-9.07776
▁ريت	-9.07784
لم	-9.0779
▁قبل	-9.07792
سين	-9.08027
▁هڪڙي	-9.08248
▁بلاگ	-9.08351
وس	-9.0837
h	-9.08476
▁۔۔۔	-9.08509
▁انگريزي	-9.08542
▁پڇيو	-9.08566
▁وزن	-9.08611
ڪار	-9.08618
ندس	-9.08621
▁امام	-9.08704
▁الس	-9.0877
▁اگر	-9.0881
▁اللي	-9.08869
چي	-9.08878
▁ڳالهيون	-9.08913
▁ڪاميابي	-9.09015
▁کار	-9.0908
▁زين	-9.09129
▁ٿيندا	-9.09198
▁ٻڌائي	-9.09278
▁بخش	-9.09343
▁2.	-9.09412
▁؟؟	-9.0971
سر	-9.0993
▁صح	-9.09943
▁لکيو	-9.09952
re	-9.09982
B	-9.10053
▁ڪونهي	-9.10054
▁ترين	-9.103
▁ويئي	-9.10361
▁پاس	-9.10409
▁ادب	-9.10529
▁ڪين	-9.10717
es	-9.10747
G	-9.10779
▁آس	-9.10937
▁ڪئين	-9.11054
▁ڊگهي	-9.11082
▁اسڪرين	-9.11085
▁پليٽ	-9.11263
▁جانور	-9.11277
▁معلوم	-9.11455
▁نمي	-9.11665
▁نيٽ	-9.1178
▁ساڻ	-9.11848
▁O	-9.11849
▁فر	-9.11886
▁ڳ	-9.11949
▁آل	-9.12173
▁برابر	-9.12217
▁سنگ	-9.12303
▁تفصيل	-9.12306
▁دفعو	-9.12342
▁ٿ	-9.12363
▁ساڳي	-9.12472
▁نوڪري	-9.12547
ِي	-9.12582
▁ڪاري	-9.12595
▁اڳيان	-9.12663
▁تنهنجو	-9.12707
نس	-9.12776
▁ڪوڊ	-9.12811
L	-9.12845
ol	-9.12856
▁نشان	-9.12861
▁رهندو	-9.13087
▁موبائل	-9.13144
▁e	-9.13156
مون	-9.13265
▁شڪل	-9.13303
ic	-9.13308
▁ثابت	-9.13447
▁تع	-9.13457
▁ڏين	-9.13496
▁ٿيندڙ	-9.13624
مل	-9.13658
▁اُ	-9.13676
▁لکي	-9.13795
▁يقيني	-9.14018
▁سور	-9.1404
▁ايترو	-9.1416
▁W	-9.14202
پر	-9.14258
▁N	-9.14326
▁ٿورو	-9.14498
en	-9.14551
▁سوشل	-9.14669
▁انتي	-9.14969
▁بورڊ	-9.14995
▁حصي	-9.1517
▁بهرحال	-9.15283
▁چا	-9.15422
▁گفت	-9.15437
▁نيو	-9.15459
▁خوشي	-9.1546
▁پيءُ	-9.15578
▁مخصوص	-9.15606
▁هيچ	-9.15802
از	-9.15844
▁n	-9.15911
▁24	-9.15935
▁الاقوامي	-9.16006
▁سگهان	-9.16007
▁سگهيو	-9.16194
▁غلطي	-9.16305
▁حتى	-9.16318
▁شام	-9.16341
▁اسم	-9.16366
▁ايپ	-9.16471
▁صورتحال	-9.16532
▁K	-9.1679
▁جيستائين	-9.1684
▁ميدان	-9.16978
▁شاعري	-9.1698
/	-9.17024
▁اڌ	-9.17109
▁ڪامياب	-9.17137
▁#	-9.17189
▁اه	-9.17439
▁گذاري	-9.17539
▁نوٽ	-9.1754
يس	-9.17626
قي	-9.17645
▁اهڙا	-9.17694
▁ماري	-9.17697
▁منهنجا	-9.17754
▁چوي	-9.17793
▁فا	-9.17833
ءِ	-9.17835
▁سُ	-9.1785
▁مقابلي	-9.18122
▁چڪا	-9.18202
▁حساب	-9.18231
▁واٽ	-9.1824
▁چونڊيو	-9.18242
▁وڃو	-9.18336
▁ڌار	-9.18477
▁قانوني	-9.18843
▁گذري	-9.18984
>	-9.18996
▁شاء	-9.19184
▁قديم	-9.19194
▁سلام	-9.19257
▁عرصي	-9.19273
ااا	-9.19483
يڪ	-9.19791
▁ڌرتي	-9.19842
▁سگھن	-9.19995
▁فل	-9.20085
▁هڪڙو	-9.20163
R	-9.20425
▁مَ	-9.20436
▁فيصل	-9.20454
▁مار	-9.20462
▁سمنڊ	-9.20486
▁ڪندڙن	-9.20506
▁وڻ	-9.20584
▁شڪار	-9.20619
▁حلو	-9.20817
▁پنهنجا	-9.20894
رس	-9.20987
▁نيوز	-9.21122
▁ول	-9.21189
ھي	-9.21312
▁بنا	-9.21424
جو	-9.21446
▁ايپل	-9.2152
▁اضافي	-9.21548
▁ڳولا	-9.21555
▁ٻڌ	-9.21566
▁حالتن	-9.21628
▁گم	-9.21669
اج	-9.21871
▁ڪرڻو	-9.219
▁سل	-9.21926
اءِ	-9.21974
▁سوچيو	-9.2201
▁کولڻ	-9.22022
▁ملڻ	-9.22027
▁نڪري	-9.22058
▁انگ	-9.22262
▁مارڪيٽنگ	-9.22319
▁ملاقات	-9.2254
▁استاد	-9.22667
▁منظر	-9.22762
▁شڪ	-9.22786
▁ڪرائي	-9.22839
▁صلاحيت	-9.22892
▁R	-9.22937
▁شاگردن	-9.2305
▁+	-9.23079
▁جهڙوڪ	-9.23273
بت	-9.23319
▁مختصر	-9.23339
▁جڳهه	-9.23343
▁حياتي	-9.23567
▁کل	-9.23639
▁باوجود	-9.23653
▁نٿي	-9.23672
▁فهرست	-9.23877
▁زماني	-9.2395
▁ڪلاڪ	-9.23952
E	-9.24002
ra	-9.24074
اف	-9.24081
▁لائين	-9.24134
▁منتقل	-9.24141
▁ڏاڍي	-9.24205
▁بيماري	-9.24314
▁يوم	-9.24509
▁ى	-9.24604
جه	-9.24723
▁ويجهو	-9.24776
_	-9.24779
ٍ	-9.24781
▁ing	-9.24812
▁2020	-9.24904
▁عالم	-9.24983
▁تم	-9.24987
▁ئ	-9.25067
▁وڏا	-9.2512
گو	-9.25147
▁ٽو	-9.25156
▁لفظن	-9.25278
▁ويل	-9.25279
▁re	-9.25456
▁بود	-9.25561
▁ٺاهيو	-9.25654
▁فائدو	-9.25688
▁).	-9.25779
▁ڪنداسين	-9.258
▁امڪان	-9.25805
لف	-9.25884
▁h	-9.25932
▁ڳالھ	-9.26103
▁دماغ	-9.26146
▁لاڳاپيل	-9.26155
▁هت	-9.26164
▁وڌائڻ	-9.26299
▁هوس	-9.26385
▁وه	-9.26398
▁علائقن	-9.26606
▁چڪي	-9.26609
▁کو	-9.26681
اتي	-9.26856
▁ننڍي	-9.26882
▁ويئر	-9.2696
▁ڪريون	-9.27157
▁چاهيندا	-9.27229
▁جهڙي	-9.27281
هين	-9.27322
▁2019	-9.27422
▁شاندار	-9.27424
▁تح	-9.27557
▁رکو	-9.27612
▁اخبار	-9.27652
▁بابا	-9.2767
x	-9.27718
▁راندين	-9.27722
▁<<	-9.28
▁ايندي	-9.28137
ڇ	-9.28196
▁آپريشن	-9.28233
▁جڏھن	-9.28233
el	-9.28299
رت	-9.28371
▁دوا	-9.28501
▁پريشان	-9.28569
▁موڪل	-9.28632
▁سيل	-9.29012
▁انتهائي	-9.29077
▁روم	-9.29118
▁اعتماد	-9.29293
▁نفس	-9.29336
▁مهينن	-9.29416
▁منزل	-9.29536
▁ملين	-9.2958
▁سپر	-9.29642
▁کانسواءِ	-9.29657
▁غور	-9.29666
▁رستي	-9.29686
▁اصول	-9.29731
▁هندستان	-9.29771
▁روڊ	-9.29887
▁رڪارڊ	-9.30006
▁پرو	-9.30109
اھ	-9.30245
▁واپار	-9.30245
▁اکيون	-9.30277
▁ننڊ	-9.30391
به	-9.30449
▁40	-9.30465
▁فن	-9.3055
▁جئين	-9.30584
▁وغيره	-9.30604
▁سڏ	-9.30606
▁تك	-9.30766
ئو	-9.30778
▁سامهون	-9.30845
▁شعر	-9.30852
▁توانائي	-9.30859
▁لکيل	-9.31102
▁هئڻ	-9.31125
▁know	-9.31205
▁آسمان	-9.31227
▁ڪئ	-9.31236
▁چيزي	-9.31274
اءُ	-9.31313
▁جمهوري	-9.31318
▁بجلي	-9.31342
▁ساٿي	-9.3136
▁سڀئي	-9.31421
▁22	-9.31439
▁منھنج	-9.31467
▁ليکڪ	-9.31536
▁3.	-9.31558
▁اسپتال	-9.31568
▁اهميت	-9.31727
▁مگر	-9.31735
▁فوج	-9.31841
▁مڙس	-9.31882
H	-9.32002
▁ليه	-9.32247
▁برقرار	-9.32298
▁بغير	-9.32305
▁مح	-9.32316
▁رک	-9.32441
▁لڳا	-9.32455
▁موٽي	-9.32459
▁ايتري	-9.32552
▁مقامي	-9.32604
ڪل	-9.32731
يش	-9.32771
▁ڪيائين	-9.32772
▁زمان	-9.32834
ءُ	-9.32934
▁دلچسپ	-9.33024
ur	-9.33066
▁V	-9.33156
ڄ	-9.33345
ri	-9.33361
ې	-9.33402
▁حيرت	-9.33408
▁موقعو	-9.33538
له	-9.33625
▁مسلسل	-9.33649
▁اعليٰ	-9.33657
।	-9.33773
▁آڻڻ	-9.34023
▁ٺيڪ	-9.34048
▁اسٽور	-9.34104
▁پلي	-9.34254
w	-9.34264
▁اچو	-9.34269
F	-9.34313
▁قرض	-9.34422
▁ڀا	-9.34468
ـــــ	-9.34498
▁عنصر	-9.34519
▁آرٽيڪل	-9.34524
▁دلچسپي	-9.34527
▁انتظام	-9.34546
▁صارفين	-9.34553
▁محدود	-9.34649
▁2018	-9.3465
▁دست	-9.34766
▁سميت	-9.34777
▁سَ	-9.3482
▁امن	-9.34824
ch	-9.35105
▁ث	-9.35105
▁پوئتي	-9.3527
text	-9.3527
▁ايڇ	-9.35429
▁رن	-9.3548
▁بڻائڻ	-9.35531
▁فڪر	-9.35626
▁ڪڍي	-9.35639
▁21	-9.35717
▁اسپين	-9.35756
▁ڳالهائڻ	-9.35782
▁باب	-9.35787
عل	-9.35848
▁عشق	-9.35918
▁خلاص	-9.36083
▁مسئل	-9.36085
▁مست	-9.36325
شت	-9.36423
مت	-9.36494
وار	-9.36531
▁امتحان	-9.36535
▁لحاظ	-9.36535
▁خوف	-9.36617
▁ڀ	-9.36643
▁ره	-9.36661
▁يک	-9.36717
▁چپ	-9.36774
▁راه	-9.36803
▁چيائين	-9.36814
▁سمجهيو	-9.36891
▁عجيب	-9.36944
▁ساڳيو	-9.36945
▁شايع	-9.37048
▁هدايت	-9.37121
▁وڏ	-9.37185
▁هُن	-9.37388
▁امان	-9.3743
▁ڏينھن	-9.37439
▁هيءُ	-9.37502
▁ميمبر	-9.37504
▁اجلاس	-9.37697
▁چاهيان	-9.37728
▁منظور	-9.37741
▁دستياب	-9.37817
▁گهڻا	-9.37864
▁هال	-9.38173
▁جهڙو	-9.3818
▁>>	-9.38214
▁وائرس	-9.38243
تون	-9.38305
▁قرآن	-9.38337
▁ڏکڻ	-9.38388
▁شما	-9.38415
▁اک	-9.38513
ً	-9.38521
▁مسئلن	-9.3857
▁J	-9.38577
▁انسٽال	-9.3858
▁شد	-9.38703
▁اڳواڻ	-9.38853
▁ڳولڻ	-9.38853
▁الڳ	-9.38992
▁r	-9.39091
▁تحفظ	-9.3925
▁براي	-9.39284
▁پور	-9.3941
▁بئنڪ	-9.39508
▁ڪنھن	-9.39508
U	-9.39714
▁فرانس	-9.39782
مر	-9.39921
▁ڻ	-9.3997
▁عل	-9.40085
▁سار	-9.40108
▁مقدار	-9.40174
▁مور	-9.40234
▁لنڪ	-9.4025
▁اتر	-9.40355
▁سماج	-9.40368
▁نہ	-9.40399
▁ٽيسٽ	-9.40576
▁شرط	-9.40594
▁پهر	-9.40606
▁اڃان	-9.4063
▁ڏيندي	-9.40648
▁سواء	-9.40957
▁خالي	-9.40991
▁ڀيٽ	-9.41082
▁فيس	-9.41158
▁اني	-9.41246
▁قدرتي	-9.41269
▁ادارن	-9.41303
il	-9.4132
▁يورپي	-9.41329
▁آخرڪار	-9.41397
th	-9.41417
▁خواهش	-9.41433
▁ٽرين	-9.41458
▁فعال	-9.41459
▁ـــــ	-9.41462
▁سڄ	-9.41478
▁ڪندس	-9.41574
▁حب	-9.41625
▁لائسنس	-9.41628
▁سافٽ	-9.41628
▁هجن	-9.41629
▁هوٽل	-9.41646
سل	-9.41688
▁سياست	-9.41789
وب	-9.41819
▁ايمان	-9.41834
▁پوندي	-9.41852
▁مه	-9.41895
▁دشمن	-9.4203
▁تحت	-9.42105
▁پراڻي	-9.42128
ڏي	-9.42203
▁پائي	-9.42205
▁ڇوڪري	-9.42266
▁اٿ	-9.42329
▁بندي	-9.42402
▁اظهار	-9.42435
▁شا	-9.4244
▁مهم	-9.42454
ذا	-9.42725
▁ڪال	-9.42785
▁مذهب	-9.42795
▁عوامي	-9.42847
▁اُه	-9.42934
▁ورتي	-9.42976
▁رابطو	-9.42979
▁قص	-9.4299
جر	-9.43002
▁حڪمت	-9.43077
▁اچن	-9.43106
▁ڪَ	-9.43179
شا	-9.43181
▁ض	-9.43257
▁تصويرون	-9.43333
▁سڌو	-9.43581
▁ماهر	-9.43723
▁شخصيت	-9.43763
▁سڏيو	-9.43793
▁جل	-9.4388
▁ذات	-9.43889
▁ماڻھو	-9.43994
هر	-9.44059
▁2017	-9.44068
کي	-9.44141
▁ھر	-9.44195
▁طيب	-9.4423
▁جسماني	-9.44408
▁هيا	-9.44428
▁~	-9.4447
▁سوچي	-9.44472
▁رھي	-9.44646
▁فصل	-9.4469
▁مهيني	-9.44763
▁ميٽر	-9.44801
▁درست	-9.44891
ڊي	-9.44937
▁ڀلي	-9.44962
▁شهري	-9.45018
▁ــــــــ	-9.45073
▁جنسي	-9.45146
وف	-9.45229
us	-9.45266
▁مرڪز	-9.45301
▁هُو	-9.45376
▁انقلاب	-9.45461
▁ايراني	-9.45487
▁فرد	-9.45494
▁مذهبي	-9.45498
▁ساڳئي	-9.4559
▁آڻي	-9.45715
▁عم	-9.45776
▁فوجي	-9.45827
▁گھرجي	-9.45854
▁سلسلي	-9.45869
▁جاچ	-9.45912
▁ويڊيو	-9.4601
▁مخالف	-9.4605
▁ڳالهائي	-9.46087
▁هين	-9.46119
▁طلب	-9.46194
▁ڀر	-9.46241
▁گڏجي	-9.46269
▁سزا	-9.46287
▁قسمن	-9.46305
▁ڊجيٽل	-9.4643
▁وزيراعظم	-9.46431
▁اع	-9.46557
▁دڪان	-9.46572
▁چنڊ	-9.46653
▁چيڪ	-9.46724
▁ايئن	-9.46746
▁مارچ	-9.46761
V	-9.46826
▁Android	-9.46852
▁ڪيترو	-9.46853
▁پويان	-9.46907
▁ڪورٽ	-9.46919
▁حصن	-9.47011
ٹ	-9.47019
▁k	-9.47028
▁ڪُ	-9.47082
▁ويون	-9.47094
▁گيت	-9.47145
▁چڱي	-9.47156
ايا	-9.47188
▁مجموعي	-9.47213
▁احتجاج	-9.47276
ائل	-9.4733
▁ذميواري	-9.47464
▁جت	-9.47466
am	-9.47483
سم	-9.47496
▁اسٽيشن	-9.47579
▁ٻڌڻ	-9.47613
▁خاصيت	-9.47622
▁رهن	-9.47654
▁مئي	-9.47673
زم	-9.47783
▁منظم	-9.47846
▁لباس	-9.47859
▁مره	-9.47893
▁4.	-9.48014
▁چيز	-9.48028
▁سب	-9.48044
▁کائڻ	-9.48057
▁گرفتار	-9.48058
▁سياحت	-9.48065
▁عمارت	-9.48278
ٽن	-9.48305
▁سٽ	-9.48455
▁واقع	-9.48538
▁وانا	-9.48546
▁تحريڪ	-9.48563
▁ڳنڍي	-9.48563
▁زير	-9.48606
▁يون	-9.48607
▁يس	-9.48648
▁آب	-9.48677
▁اڪيلو	-9.48705
▁موٽ	-9.48727
▁آڪٽوبر	-9.48848
▁بيت	-9.4886
▁حلوه	-9.48898
ْ	-9.48974
▁محنت	-9.49143
▁خيلي	-9.4919
▁ويس	-9.49215
▁قسمت	-9.49236
▁پيٽ	-9.49351
00	-9.49353
مه	-9.49371
▁the	-9.49452
▁فطرت	-9.49557
▁روس	-9.49581
▁ڪنڊ	-9.49612
▁ائ	-9.49649
▁معمولي	-9.49665
▁ٿوري	-9.49716
ئون	-9.49727
▁سک	-9.49774
▁فوت	-9.49817
▁اشارو	-9.49857
▁معنيٰ	-9.49866
▁برانڊ	-9.49906
انه	-9.49944
▁والدين	-9.49988
▁روشن	-9.50223
▁معياري	-9.50224
▁بدران	-9.50335
▁ھئي	-9.50433
▁فقير	-9.50445
▁ممكن	-9.50446
▁نماز	-9.5052
▁مطابقت	-9.5052
z	-9.5053
▁گھ	-9.50578
▁تعريف	-9.50591
▁طريقا	-9.50597
▁واڌ	-9.5062
ڙن	-9.5065
ستان	-9.50698
▁معني	-9.50702
▁جنم	-9.50703
▁فري	-9.50716
▁ادبي	-9.50727
▁پٿر	-9.50758
ولي	-9.50805
▁طبق	-9.50818
▁گراهڪ	-9.50872
▁معامل	-9.50945
▁خطر	-9.5095
▁روي	-9.5095
▁رح	-9.50979
رب	-9.51011
▁لڳ	-9.51184
▁خلي	-9.51236
is	-9.5126
▁ليس	-9.51308
▁ڀي	-9.51322
▁تجزيو	-9.51326
ڪري	-9.51349
▁سينٽر	-9.51459
▁وڌائي	-9.51459
▁مشڪل	-9.51553
▁کليل	-9.51557
▁بحال	-9.51602
▁گهربل	-9.51617
▁اذا	-9.51821
▁دم	-9.51861
▁اج	-9.51875
▁کائي	-9.51877
▁ٿر	-9.52013
جا	-9.52044
▁شب	-9.52089
▁سيريز	-9.52227
▁سنڀال	-9.5228
ڪٽ	-9.52454
▁جز	-9.52499
▁جر	-9.52673
▁هيٺيان	-9.52694
▁سموري	-9.52927
v	-9.52946
خت	-9.52956
▁اسيمبلي	-9.52963
▁ڪاب	-9.53049
▁ليش	-9.53092
▁ساري	-9.53187
▁سيپٽمبر	-9.53264
▁ٽيون	-9.53383
▁كان	-9.53442
N	-9.5353
▁موسيقي	-9.53565
▁ايندا	-9.53611
▁26	-9.53612
▁ويهي	-9.53791
▁ڪاليج	-9.54022
te	-9.54031
▁؟؟؟	-9.54103
ce	-9.54152
شڪ	-9.5417
▁قول	-9.54219
اڻو	-9.54287
▁?	-9.54317
▁w	-9.54321
▁عزت	-9.54452
▁باغ	-9.54501
▁ڪارو	-9.54501
▁پئسا	-9.5452
▁ڳالهين	-9.54547
▁قرار	-9.54552
▁۔	-9.54573
▁فيه	-9.54603
▁ميان	-9.54744
▁طريقن	-9.54764
▁حيران	-9.54781
▁ضحك	-9.54808
▁فوري	-9.54851
000	-9.54892
▁ندا	-9.5495
▁شاهه	-9.55209
▁سفارش	-9.55239
▁شاگرد	-9.55302
▁جد	-9.5541
▁ڌر	-9.55508
▁ڊزائن	-9.55547
▁جھ	-9.55551
▁جنرل	-9.55554
▁بونس	-9.55589
▁جائزو	-9.55594
▁جيترو	-9.55624
▁ڪوڙ	-9.55652
▁ڪرائڻ	-9.55694
▁اتفاق	-9.55701
▁الح	-9.55719
رين	-9.55736
ينئر	-9.55806
ad	-9.55893
▁اڳي	-9.55901
پو	-9.55925
▁حرف	-9.55947
الي	-9.55954
▁انعام	-9.56015
▁ترجمو	-9.56027
▁وات	-9.56108
▁ماپ	-9.56137
▁پول	-9.56178
افي	-9.56198
▁دان	-9.56223
▁U	-9.56295
▁مٽي	-9.563
▁رهندي	-9.56362
ايل	-9.56473
▁شهيد	-9.56509
▁مشتمل	-9.56631
▁تج	-9.56644
▁اون	-9.56647
عت	-9.56659
▁آهنگ	-9.56703
▁2-	-9.56705
as	-9.56718
▁ــــــــــــــ	-9.56728
▁ڪلاس	-9.56736
سا	-9.56805
ro	-9.56927
▁روڪي	-9.57019
▁سگھو	-9.57075
▁ريل	-9.57285
▁ٽيبل	-9.57313
▁تنھن	-9.57391
نداسين	-9.57427
▁نوان	-9.57532
▁إ	-9.57555
▁2016	-9.57576
▁23	-9.57589
سٽر	-9.57611
▁شوي	-9.57625
▁ڪت	-9.57698
▁عليها	-9.5774
▁ڀڳ	-9.57765
▁پاليسي	-9.57774
▁کلي	-9.57846
▁دورو	-9.57872
▁زخمي	-9.57879
▁په	-9.5791
▁تاريخي	-9.57943
▁ڏيئي	-9.57974
ائون	-9.58145
▁راح	-9.58152
▁خي	-9.58237
▁رکندڙ	-9.58239
▁ــــــ	-9.58315
▁چيني	-9.58376
▁سير	-9.58466
▁ڪانه	-9.58498
ووو	-9.58506
▁ڀيرا	-9.58506
▁قومن	-9.58654
▁آرڊر	-9.58675
▁چوندا	-9.58727
▁o	-9.58763
▁ڏه	-9.58853
▁پرين	-9.58891
▁لم	-9.58941
▁انصاف	-9.58994
▁موڪليو	-9.59028
ul	-9.59064
▁جنس	-9.59135
▁ادائيگي	-9.59152
▁تربيت	-9.59153
▁شعور	-9.59155
اڻڻ	-9.59158
▁صور	-9.5923
▁سوچڻ	-9.59251
▁انڪار	-9.59259
▁آگسٽ	-9.59317
▁ھا	-9.59404
▁اضافو	-9.59472
▁پهچائڻ	-9.59487
▁نيست	-9.59547
▁وٺو	-9.5957
▁ڪرايو	-9.5965
▁آبادي	-9.59694
رد	-9.59711
▁سه	-9.59731
▁وجه	-9.59758
▁ميڪ	-9.59855
▁کڻڻ	-9.59879
▁وَ	-9.59922
▁ٻڌو	-9.59949
▁داد	-9.59968
st	-9.60057
▁آفيسر	-9.6012
▁60	-9.60128
ڃ	-9.60274
▁لسٽ	-9.6028
ڪٽر	-9.60352
▁سدائين	-9.60444
ir	-9.60581
▁حمل	-9.60642
▁ونڊوز	-9.60649
يز	-9.6072
▁ملڪيت	-9.60729
▁صفحا	-9.60762
▁اخر	-9.60776
▁ڪمپنين	-9.60804
▁سمجهڻ	-9.60839
▁شوق	-9.60845
▁ايشيا	-9.60848
▁سول	-9.60901
حب	-9.60949
▁سڃاڻپ	-9.61106
▁ڀريل	-9.61129
▁بگ	-9.61268
▁فرض	-9.61333
▁کر	-9.61361
▁اداري	-9.61525
▁حمايت	-9.61576
▁ڊيزائن	-9.61576
▁وٺ	-9.61622
▁قد	-9.6179
اط	-9.61795
▁ڪتابن	-9.61814
▁موٽر	-9.6183
▁فوٽو	-9.6184
▁خاطر	-9.61908
▁چڱو	-9.61958
▁بک	-9.61992
▁ڀلا	-9.62056
▁قال	-9.62152
lo	-9.62189
▁ـــــــــ	-9.62198
▁هع	-9.622
▁هُ	-9.62201
▁سمجھ	-9.623
▁ڇڏ	-9.62319
▁com	-9.62339
▁مزو	-9.62405
▁رابطي	-9.62444
▁بڪ	-9.62492
▁هست	-9.62493
▁اِه	-9.62541
▁زنده	-9.62563
▁سعودي	-9.6257
▁وسيع	-9.62573
▁واپسي	-9.62664
ــــــ	-9.62848
▁اچ	-9.62919
▁فائل	-9.62932
حد	-9.63144
▁28	-9.63178
اح	-9.63194
▁سگھجي	-9.63236
▁نام	-9.63299
▁هليو	-9.63308
▁هفت	-9.63315
▁عجب	-9.63344
▁خل	-9.63367
▁ڪسٽم	-9.63396
▁رهندا	-9.63486
▁جبل	-9.63517
▁كن	-9.63661
▁اك	-9.63677
▁مڇي	-9.63678
▁گزارش	-9.63725
▁عزيز	-9.63731
▁راز	-9.63923
طر	-9.63969
▁کٽ	-9.64007
▁موقعي	-9.64009
▁ڳالهايو	-9.64072
▁مسئلا	-9.64132
▁نس	-9.64145
ارو	-9.64264
▁ڏانھن	-9.64269
▁منجه	-9.64325
نهن	-9.64476
▁نومبر	-9.6457
اً	-9.64641
▁ڄاڻي	-9.64643
▁کات	-9.64652
▁سبق	-9.64669
▁احمد	-9.64682
▁تجويز	-9.64732
زا	-9.64744
▁مکيه	-9.64762
▁گاڏي	-9.64817
▁آساني	-9.64823
▁كيف	-9.64823
▁خصوصي	-9.64852
▁پارڪ	-9.64866
▁ڏيندا	-9.64904
▁افغانستان	-9.64906
▁جوڙي	-9.64943
▁اهل	-9.64957
▁اپڊيٽ	-9.6507
W	-9.65131
▁ناڪام	-9.6518
پا	-9.65275
▁ساد	-9.65328
▁الحال	-9.65356
▁فائلون	-9.65387
▁هوا	-9.65463
▁گھڻو	-9.65581
▁مصنوعات	-9.65605
▁گهڙي	-9.65637
▁ماضي	-9.65719
▁ھل	-9.65723
▁تار	-9.65751
▁اٺ	-9.65822
▁جذب	-9.65868
▁اق	-9.65907
▁27	-9.65917
▁ـــــــ	-9.66071
▁ٻڌل	-9.66075
هاي	-9.6615
▁انه	-9.66192
▁تش	-9.66246
▁ليگ	-9.66259
▁2021	-9.66263
▁تجارت	-9.66267
ٽا	-9.6632
▁جنوري	-9.66431
اڙي	-9.66458
آآ	-9.66506
▁واپاري	-9.66605
▁لنڊن	-9.6661
امي	-9.66672
▁ريم	-9.66796
▁هئس	-9.66841
▁شه	-9.66875
▁جم	-9.6689
▁مِ	-9.67
▁@	-9.67016
▁ڪيم	-9.67025
▁ناهن	-9.67025
▁اقول	-9.67118
▁كنت	-9.67127
▁تق	-9.67132
▁ڪوئي	-9.67164
▁ء	-9.67167
▁سنڏ	-9.67177
▁ٽيڪس	-9.67213
▁ڀري	-9.67268
▁راءِ	-9.67281
▁مٿ	-9.67281
▁پَ	-9.67486
▁الزام	-9.67486
مين	-9.67549
▁آدم	-9.67564
ڱ	-9.67673
▁لانچ	-9.67796
▁هوائي	-9.67891
▁هيٺين	-9.67898
▁هوء	-9.67985
▁مجبور	-9.67992
▁الب	-9.68172
ٽس	-9.68435
▁درجي	-9.68458
▁شده	-9.68477
▁تازو	-9.68521
▁سمجهان	-9.68569
▁مج	-9.68574
▁ڪميشن	-9.68638
▁ناول	-9.68687
▁,,	-9.68822
▁مات	-9.68851
▁كه	-9.68984
▁ذريع	-9.68992
سون	-9.69147
▁ايش	-9.69333
يٽ	-9.69356
تم	-9.69389
▁عورتون	-9.69403
▁قوت	-9.69551
▁حاضر	-9.69576
▁جاء	-9.69578
ھر	-9.69664
▁واقعا	-9.69753
K	-9.69833
دل	-9.69901
▁يمكن	-9.69931
▁اگه	-9.69954
▁زن	-9.69964
▁ندو	-9.69985
▁خوب	-9.69999
▁؟!	-9.70003
▁ڪانهي	-9.70079
▁اسرائيل	-9.70106
▁حس	-9.70124
▁آيل	-9.70145
▁مقابلو	-9.70281
▁واقف	-9.70298
▁مردن	-9.7044
▁ڏکيو	-9.70446
▁X	-9.70447
▁انجام	-9.70467
▁آئين	-9.70506
▁وائي	-9.70632
▁جهان	-9.70658
▁سکڻ	-9.70808
▁امر	-9.70907
▁ڪمزور	-9.71007
▁ڏنا	-9.71079
▁چارج	-9.71122
▁مصر	-9.71134
▁ہ	-9.71153
▁متبادل	-9.7118
▁اوڀر	-9.71181
▁بدلي	-9.71217
ly	-9.71244
▁ابي	-9.71251
▁گول	-9.71331
اسي	-9.7143
▁سائيز	-9.71438
▁چرچ	-9.71452
▁رسول	-9.71452
ٽو	-9.71501
▁رکن	-9.71526
▁تجربي	-9.71541
▁تعاون	-9.71544
▁بش	-9.71583
▁متن	-9.71603
▁رخ	-9.71631
▁مافي	-9.71665
▁ڪٽ	-9.71755
▁هار	-9.71823
▁وفات	-9.7188
▁ڊسمبر	-9.71904
▁ويٺو	-9.71906
▁کرد	-9.71919
▁ڳن	-9.71949
▁لوڪ	-9.71953
▁نظم	-9.72086
داري	-9.72114
▁گڏوگڏ	-9.72266
▁وفاقي	-9.72278
▁تھ	-9.7228
▁پٺيان	-9.72303
▁عقل	-9.72316
▁ارب	-9.72321
▁ھاڻي	-9.72328
▁مزاحمت	-9.7245
بار	-9.72639
▁نالا	-9.72657
▁پيروي	-9.72678
▁۱	-9.7269
▁1-	-9.72714
▁ڊا	-9.72728
▁ڊر	-9.72783
▁باهه	-9.72808
▁ڪائنات	-9.72814
▁يورو	-9.7287
▁رھ	-9.72955
▁ايڊ	-9.73086
▁ميز	-9.73099
▁پچ	-9.7316
▁مريض	-9.73424
▁تخليق	-9.7347
▁دليل	-9.73496
▁شرڪت	-9.73549
▁سگهندا	-9.73587
▁اٿي	-9.73595
▁منصوبي	-9.73676
▁حسن	-9.73677
▁يونٽ	-9.73724
▁هونديون	-9.73749
▁نتيجو	-9.73846
▁ميمبرن	-9.73855
▁خون	-9.73866
▁وزارت	-9.73918
▁سرور	-9.73921
▁فتح	-9.73921
▁2015	-9.73927
▁ووٽ	-9.74185
▁حا	-9.74199
ter	-9.74251
▁ڍ	-9.74284
▁عنوان	-9.74292
▁</	-9.74324
▁تسليم	-9.74336
▁هلائڻ	-9.74339
▁تڪليف	-9.74474
▁عندي	-9.74503
▁لاش	-9.7458
▁علامت	-9.74619
▁ڪورونا	-9.74664
▁ڊوائيس	-9.74698
▁پئج	-9.74746
▁هاءِ	-9.74746
▁اٿم	-9.74807
▁ڇڏڻ	-9.74811
▁پرڏيهي	-9.74847
▁ڄ	-9.74907
▁محل	-9.74928
▁اقتصادي	-9.7496
▁اپريل	-9.75036
▁80	-9.75161
▁ڙي	-9.75215
▁ابتدائي	-9.75251
▁خريداري	-9.75316
▁نبي	-9.75336
▁سلسلو	-9.75409
▁اُهي	-9.75553
▁de	-9.75555
▁نرم	-9.75594
▁توقع	-9.75599
▁موڪلي	-9.75708
▁ٽئي	-9.75744
▁ڀاءُ	-9.75826
▁حر	-9.75879
▁مينهن	-9.75911
▁مخ	-9.76083
قدر	-9.76118
▁ثقافت	-9.76139
▁طاقتور	-9.76145
▁ٽين	-9.7615
▁توڙي	-9.76197
▁مرڪ	-9.76228
▁آم	-9.76231
▁لازم	-9.76258
چو	-9.76263
شر	-9.76512
▁عبدال	-9.76531
▁وجهي	-9.76561
▁قلب	-9.76565
يئر	-9.76602
▁شراب	-9.76627
▁ويچار	-9.76735
▁ڊو	-9.76742
▁بچائڻ	-9.76742
▁آهست	-9.76812
▁رانديون	-9.76835
▁نقل	-9.76922
▁er	-9.76936
▁اسٽيٽ	-9.7701
▁اداڪار	-9.77162
نڊي	-9.77164
▁سيڙپڪاري	-9.77166
▁ٻا	-9.77185
▁نواز	-9.77201
▁پوائنٽ	-9.77305
▁سگهندو	-9.77358
▁مب	-9.77369
▁إن	-9.77433
▁لطف	-9.77538
▁پد	-9.7768
▁امين	-9.77686
▁وطن	-9.77738
▁ناس	-9.77763
li	-9.77794
كل	-9.77834
▁چئن	-9.78053
▁90	-9.78062
▁مها	-9.78065
▁روايت	-9.78081
▁جوابدار	-9.78082
▁الج	-9.78105
▁بيڪ	-9.7823
▁گفتگو	-9.78285
▁هزارين	-9.78294
▁خودڪار	-9.78308
مينٽ	-9.78449
▁ٽرانسپورٽ	-9.7846
▁امداد	-9.78481
▁نگاه	-9.78505
وش	-9.78513
▁انك	-9.78519
▁اڳوڻي	-9.78625
▁آھيان	-9.78659
▁وقف	-9.78811
▁أخ	-9.78831
وع	-9.78833
▁کولي	-9.78834
▁مثبت	-9.7885
▁تازه	-9.78854
▁هلائي	-9.78856
▁يلا	-9.78908
▁ٻيون	-9.78961
▁وسلم	-9.79086
▁فار	-9.79171
▁v	-9.79175
▁منصوبو	-9.79189
▁ڪاپي	-9.79232
اڪ	-9.79237
▁ڪانفرنس	-9.79237
▁سيڪيورٽي	-9.79255
ھن	-9.7931
▁ڊيل	-9.79418
▁ــــــــــ	-9.79457
▁والد	-9.79579
▁گهرجن	-9.7958
▁مهل	-9.79592
▁آمدني	-9.79662
▁لين	-9.79666
▁واريون	-9.79764
▁تف	-9.79768
▁اطلاع	-9.79824
جھ	-9.7984
▁يع	-9.79862
▁طول	-9.79929
رڪ	-9.7995
ڙڻ	-9.79984
▁فٽبال	-9.80022
▁ورلڊ	-9.80046
▁سام	-9.8006
▁وڃائي	-9.80069
▁أنا	-9.80174
▁غلام	-9.80252
نج	-9.80486
▁نفرت	-9.8062
▁جرمني	-9.80767
▁ائي	-9.80904
چر	-9.80922
▁بچائي	-9.80969
▁70	-9.81003
▁أن	-9.81023
▁فخر	-9.81054
▁رُ	-9.81108
▁عربي	-9.81134
▁وڪيل	-9.81217
▁اسپ	-9.81251
▁ماڻھ	-9.81321
▁5.	-9.81404
▁هلندڙ	-9.81478
جان	-9.81625
ia	-9.81632
▁ٻيٽ	-9.81711
حي	-9.81716
▁حج	-9.81727
يائين	-9.8177
بس	-9.81844
▁ـــــــــــ	-9.81941
▁دعوت	-9.82007
▁پابندي	-9.82044
▁ڪپ	-9.82117
▁اصلا	-9.82137
id	-9.82201
▁اميدوار	-9.8225
▁بعض	-9.82279
ڏانهن	-9.82329
▁سڌي	-9.82374
ٿي	-9.82442
▁ڏسندا	-9.82472
▁ڊرائيو	-9.8256
▁خدمتن	-9.8258
▁وينديون	-9.82589
▁برداشت	-9.8261
▁هذه	-9.82613
ئل	-9.82672
▁خدمتون	-9.8272
▁بادشاهه	-9.82766
▁پيل	-9.82774
▁فائيل	-9.82787
▁شهرن	-9.82904
▁ترا	-9.82932
يق	-9.82955
▁شيئر	-9.82992
▁گهڻن	-9.83021
▁مسيح	-9.83023
▁اندروني	-9.83057
▁29	-9.83059
▁فو	-9.83072
▁هيس	-9.83212
▁دستاويز	-9.83214
▁انڊسٽري	-9.83218
▁شور	-9.83225
▁نظري	-9.83252
▁روحاني	-9.83302
▁تعرف	-9.83324
▁(1)	-9.83367
la	-9.83431
▁يونين	-9.83504
▁ذميوار	-9.83558
▁وِ	-9.83575
▁فيبروري	-9.83625
▁ضمانت	-9.83625
▁چيست	-9.83636
▁وساري	-9.83644
▁اسڪ	-9.838
▁انٽرويو	-9.83829
▁ٽڪر	-9.83864
▁وڪيپيڊيا	-9.84033
▁پريس	-9.84034
▁هڪٻئي	-9.84034
▁بيٽري	-9.84119
▁منفرد	-9.84239
▁ڪوٽ	-9.84271
▁پُ	-9.84322
اك	-9.8434
▁لهي	-9.8441
▁طلاق	-9.8445
▁پهتو	-9.84462
ay	-9.84479
ig	-9.84546
▁هڻي	-9.84663
▁قيمتي	-9.84735
ot	-9.84736
▁کوليو	-9.84761
▁اٿس	-9.84803
كه	-9.84827
▁^^	-9.84856
▁بڻايو	-9.84873
▁قر	-9.84875
▁هفته	-9.84885
▁پهچڻ	-9.84967
▁فين	-9.84975
▁نمائش	-9.85062
▁st	-9.85147
▁رھيو	-9.8519
▁اولاد	-9.85201
▁روپ	-9.8526
فه	-9.85382
▁برقي	-9.85385
ڍ	-9.85392
ړ	-9.85455
▁اصطلاح	-9.85476
▁آء	-9.85594
▁اص	-9.85642
▁مد	-9.85675
▁سائيڪل	-9.85691
▁ٻيڙي	-9.85711
▁خاصيتون	-9.85724
▁پڇي	-9.8574
▁ڇڏيا	-9.85786
▁ظ	-9.85804
▁جُ	-9.85879
▁ساهه	-9.85902
▁سادي	-9.85924
▁سازي	-9.85952
▁آيت	-9.85983
ٌ	-9.86064
▁مسجد	-9.86102
▁تحليل	-9.86103
▁قاعد	-9.86109
گاه	-9.86142
▁تهيه	-9.86176
لك	-9.86197
um	-9.86212
▁پاور	-9.86306
▁صفحي	-9.86316
▁ڪس	-9.86384
▁قلم	-9.86385
▁بلند	-9.8641
ate	-9.86438
▁گري	-9.86472
▁يافته	-9.86503
▁افسوس	-9.8652
▁ڪاوڙ	-9.86528
▁آءُ	-9.86535
▁جڳ	-9.86604
un	-9.86649
▁پهچائي	-9.86655
▁مک	-9.86696
يان	-9.8671
▁عاد	-9.86739
▁احد	-9.86792
▁سهولت	-9.869
▁برطانيه	-9.86941
▁متعارف	-9.86941
▁ڪنار	-9.87019
▁معاملو	-9.87077
▁کپي	-9.87149
▁اليڪشن	-9.87193
رز	-9.87273
▁ماني	-9.873
اوي	-9.87332
▁انتخاب	-9.87364
▁چور	-9.87439
جل	-9.87542
▁ڪلي	-9.87647
▁نقش	-9.87672
20	-9.87739
▁کوٽ	-9.87836
▁ڌڪ	-9.87891
▁بحالي	-9.87899
▁معاهدي	-9.87947
▁کاڌي	-9.87972
▁يقول	-9.87973
▁پوزيشن	-9.88
▁پيئڻ	-9.88048
▁ed	-9.88071
ڷ	-9.8809
ازي	-9.88116
▁وڌو	-9.88124
▁مرڪزي	-9.882
▁جوڙجڪ	-9.88214
▁مرمت	-9.88242
▁سند	-9.88289
▁چيه	-9.88336
▁روايتي	-9.88421
▁معاشي	-9.88428
▁محبوب	-9.88431
▁روڪڻ	-9.8847
▁حقن	-9.88671
ھڻ	-9.88844
دم	-9.88991
▁اڳيون	-9.89071
▁رجحان	-9.89071
▁اهڙن	-9.8909
لر	-9.89102
▁عشان	-9.89127
▁دريا	-9.8929
▁انڊيا	-9.89296
▁برو	-9.89357
▁بہ	-9.89413
هار	-9.89453
▁تب	-9.89461
▁ريلوي	-9.89521
▁ننڍڙ	-9.89559
ضي	-9.89561
X	-9.89703
▁ابراهيم	-9.89719
▁نتيجا	-9.89732
عد	-9.8978
▁روسي	-9.89793
▁پيئي	-9.89807
▁زبردست	-9.89936
▁امي	-9.8994
▁ڀارت	-9.89941
ستائين	-9.89962
▁کاڌو	-9.89974
▁ڪام	-9.90052
خر	-9.90098
▁ڏيان	-9.90104
▁حلوة	-9.90125
▁رهيون	-9.90152
▁بيش	-9.90172
▁مني	-9.90235
▁سرڪار	-9.9025
اسان	-9.90271
▁اندازو	-9.90284
▁گھڻي	-9.90378
▁يت	-9.90437
▁حي	-9.90559
▁ڪپڙا	-9.90604
▁نشاني	-9.90619
▁فعل	-9.90625
▁تعليمي	-9.90657
▁اور	-9.90668
▁co	-9.9067
ive	-9.90778
▁تڪرار	-9.90811
▁پڙهندڙ	-9.90819
▁هلڻ	-9.91135
▁لينڊ	-9.91187
▁ذريعو	-9.9122
▁گرد	-9.91282
▁نار	-9.91309
▁بچي	-9.91315
▁شھر	-9.91317
▁درجه	-9.91339
▁بط	-9.91468
▁طرز	-9.91548
▁زهر	-9.91689
▁Re	-9.91696
▁برا	-9.91747
رح	-9.9179
▁غم	-9.91947
▁وڃان	-9.91978
▁خاموش	-9.91992
▁آرٽ	-9.92015
▁بخ	-9.92049
▁اسٽي	-9.92159
▁پرواز	-9.92176
▁سڪ	-9.92191
▁&	-9.92208
▁سونهن	-9.92228
ضح	-9.92313
▁مرڻ	-9.92344
▁اکر	-9.92374
▁گا	-9.92402
▁آڇ	-9.92568
ve	-9.92613
▁يم	-9.92676
▁پتو	-9.9271
▁تعارف	-9.928
▁ٻُڌ	-9.92807
▁ڪهڙا	-9.9281
▁Co	-9.92841
▁راضي	-9.92843
▁شكل	-9.92844
▁چاهيون	-9.92859
▁3-	-9.9288
▁پڇ	-9.93009
قا	-9.93108
▁ڊپ	-9.93118
▁موڊ	-9.93128
▁مسلم	-9.93174
▁رائ	-9.93198
▁رشت	-9.93208
▁سينٽ	-9.93233
▁انٽرنيشنل	-9.93247
▁ڊائريڪٽر	-9.9325
▁ءِ	-9.93356
▁مدت	-9.93358
▁پٽي	-9.93415
▁ذهني	-9.9343
▁وڌڻ	-9.93461
▁واقعن	-9.93538
▁عيد	-9.93565
▁پنڌ	-9.9358
▁ھئا	-9.93593
▁نگراني	-9.93619
▁ڏيندڙ	-9.93698
▁هائوس	-9.93698
▁اوھين	-9.93701
▁زم	-9.93728
▁35	-9.9373
▁ڌاري	-9.93952
▁خر	-9.93963
▁مڃي	-9.94021
ٰ	-9.94044
پل	-9.94105
▁سگھون	-9.94147
▁اوچتو	-9.94149
▁رياضي	-9.94161
▁نڪتو	-9.94164
▁500	-9.94182
▁اكيد	-9.94194
آن	-9.9428
▁ڪائونسل	-9.94376
▁نيشنل	-9.94378
▁ارسال	-9.9443
▁تت	-9.9445
▁الك	-9.94459
est	-9.94476
قر	-9.94532
▁2014	-9.94613
اهو	-9.94614
▁ايو	-9.94659
▁سکيا	-9.94681
▁عالي	-9.94711
▁سيد	-9.94776
▁ماسڪ	-9.94825
▁بلي	-9.94856
▁ڪڍ	-9.94867
▁وهي	-9.94897
▁نڪ	-9.94942
▁بم	-9.9503
?	-9.95067
▁ملا	-9.95107
▁روزاني	-9.95157
▁قل	-9.9525
ow	-9.95251
▁2013	-9.95288
▁پروفيسر	-9.95288
اااا	-9.9534
▁آمد	-9.95344
▁بيل	-9.95383
▁قيد	-9.95411
▁آفريڪا	-9.95455
▁عليكم	-9.95458
▁انجڻ	-9.95482
▁پلاسٽڪ	-9.95518
▁شعبي	-9.95518
▁اينڊ	-9.95619
▁فرم	-9.95666
ڊا	-9.95668
▁يك	-9.95669
▁يڪ	-9.95714
▁آسٽريليا	-9.95751
▁اِ	-9.95765
▁چيف	-9.95765
▁لائق	-9.95773
▁اخت	-9.95785
▁جميل	-9.95902
▁گهرج	-9.95987
▁(1	-9.96039
▁ويڪسين	-9.9621
▁ماهي	-9.96256
▁انھي	-9.96262
▁ڪاٺ	-9.96285
▁بيمار	-9.96341
ذر	-9.96347
▁ڦير	-9.96416
▁ريڊ	-9.96435
▁بررسي	-9.96443
▁ڪميٽي	-9.96461
▁جرمن	-9.96515
▁شڪر	-9.96548
ap	-9.96551
▁سپورٽ	-9.96673
▁بٽڻ	-9.96675
▁بيٺو	-9.96677
▁چيم	-9.96702
▁رسم	-9.96886
قت	-9.9689
▁فورم	-9.96916
▁وير	-9.96922
▁شير	-9.96942
▁رکيل	-9.96961
▁آندو	-9.96973
ent	-9.96981
▁رحم	-9.97048
نڌ	-9.97066
▁تيل	-9.97097
▁ويٺي	-9.97152
▁کم	-9.97172
ائيڊ	-9.97253
▁بازار	-9.97261
▁رجسٽر	-9.97313
▁سرگرمين	-9.97325
▁ملندي	-9.97336
▁ميچ	-9.97337
ــــــــ	-9.97382
▁ظلم	-9.97386
▁انگيز	-9.97397
▁ميوزڪ	-9.97606
▁دفعي	-9.97608
▁رکندو	-9.977
مار	-9.97733
▁ترڪي	-9.97748
▁افغان	-9.97833
▁ڀرسان	-9.97841
▁حرڪت	-9.97841
▁دولت	-9.97847
▁چوري	-9.979
▁ٽا	-9.97975
▁ڌو	-9.97997
▁y	-9.98055
▁احب	-9.98066
ut	-9.98072
▁حملو	-9.98143
▁ٽپ	-9.98232
▁گن	-9.98272
▁پاسو	-9.98315
إ	-9.98343
▁مئ	-9.98399
▁عندك	-9.98439
▁شرم	-9.98526
▁عراق	-9.9855
▁چڙهي	-9.98591
▁اد	-9.98606
▁فور	-9.98635
▁پورٽ	-9.98638
▁چوندو	-9.98695
▁ديو	-9.98707
▁ٽيڪ	-9.98716
▁لطيف	-9.98785
▁قلت	-9.98793
▁يل	-9.98794
▁چشم	-9.98794
▁اٿئي	-9.98926
▁تس	-9.98996
▁ترجيح	-9.99023
▁ڪاغذ	-9.99023
▁تقرير	-9.99023
nd	-9.99066
▁اياز	-9.99153
▁مقام	-9.99241
▁منحصر	-9.99261
▁ڪارروائي	-9.99261
▁وٺندو	-9.99326
▁خيالن	-9.99332
▁مراد	-9.9936
▁فيك	-9.99512
▁رسال	-9.99526
up	-9.99628
ac	-9.99669
▁ٽڪ	-9.99706
▁اسٽيل	-9.9976
گل	-9.99855
▁ايئرپورٽ	-9.99978
▁هيڪ	-9.99985
▁معي	-9.99986
▁خطرو	-10.0003
▁نيڪ	-10.0005
▁چينل	-10.0017
وڪ	-10.0018
▁شن	-10.0019
▁ڀيڻ	-10.002
*	-10.0022
▁طالب	-10.0023
▁کنيو	-10.0024
▁بيهي	-10.0028
▁تاج	-10.0031
▁45	-10.0046
▁مز	-10.0046
▁موثر	-10.0049
▁شيءَ	-10.0051
▁عذاب	-10.007
▁روزانو	-10.0072
▁is	-10.0073
▁هيك	-10.0073
▁خبرون	-10.0077
▁شيخ	-10.0079
▁سئو	-10.0084
▁سائيٽن	-10.0086
ائيٽ	-10.009
۰	-10.0094
▁چوڌاري	-10.0094
mp	-10.0101
▁ملڪي	-10.0101
▁تقول	-10.0102
▁ندڙ	-10.0104
▁مهمان	-10.0107
▁ويڙه	-10.0109
▁موجودگي	-10.0113
▁وڊيوز	-10.0114
▁هندو	-10.0116
▁مطالبو	-10.0118
▁فنڪشن	-10.0119
▁چاهين	-10.012
▁ملازم	-10.0127
▁گراف	-10.0141
▁وڌندڙ	-10.0154
▁هاري	-10.0155
▁فيشن	-10.0163
▁داخلا	-10.0165
▁معيشت	-10.0168
▁عاشق	-10.0171
▁طئي	-10.0173
گا	-10.0177
حق	-10.0177
▁چونڊي	-10.0184
▁تنقيد	-10.0192
▁اخلاقي	-10.0194
▁مقصدن	-10.0197
▁رج	-10.0198
▁قا	-10.0201
▁انجنيئر	-10.0206
▁گهري	-10.0215
▁پراڊڪٽ	-10.0217
▁سِ	-10.022
▁صف	-10.0223
ck	-10.0224
▁خارجي	-10.0233
▁ڀت	-10.0245
رف	-10.025
▁ڏسندي	-10.0252
▁شاخ	-10.0258
▁نھ	-10.0264
▁ارادو	-10.0266
▁زو	-10.0268
om	-10.0273
▁بلا	-10.0274
▁زمرو	-10.0276
▁پهچ	-10.0276
▁مٿين	-10.0277
▁رفت	-10.0279
ab	-10.0279
▁نر	-10.0279
▁سوي	-10.028
▁منظوري	-10.028
▁مرضي	-10.0286
▁سيڪريٽري	-10.029
▁علائقو	-10.029
▁ناقابل	-10.029
▁مادي	-10.029
▁برسات	-10.0291
▁سري	-10.0294
▁وڌايو	-10.03
▁ملازمن	-10.0307
▁ڪلام	-10.0311
▁حوصل	-10.0315
▁رئيس	-10.0316
▁ٽريڪ	-10.0318
▁ڪنڌ	-10.0321
▁Ma	-10.033
▁تخ	-10.0332
قول	-10.0333
▁حرارت	-10.034
▁ڪان	-10.0342
▁آي	-10.0344
▁ڊيم	-10.0345
▁الت	-10.0346
▁شريف	-10.0348
▁رکون	-10.035
▁دوستي	-10.0357
▁ڀرپور	-10.0365
j	-10.0368
▁صنعتي	-10.0369
▁تعجب	-10.0371
▁برادري	-10.0375
▁اصلاح	-10.0383
▁منصوبن	-10.0384
▁خطرناڪ	-10.039
▁ڊائونلوڊ	-10.039
▁الموضوع	-10.0396
▁اخ	-10.0398
▁ڊوڙ	-10.0398
▁عقيد	-10.0403
▁معاملن	-10.0414
▁فائدا	-10.0415
ry	-10.0418
▁مٽ	-10.0421
▁ماڳ	-10.0425
▁سڃاتو	-10.0431
▁کڻ	-10.0435
▁عبادت	-10.044
▁دريافت	-10.0441
▁روئي	-10.0441
▁عرض	-10.0444
صلى	-10.0447
▁داري	-10.0449
▁سڀاڻي	-10.045
تني	-10.0456
▁رسي	-10.0466
▁نڪرڻ	-10.0473
ers	-10.0482
▁جج	-10.0483
▁تري	-10.0483
▁عين	-10.0485
▁ڊڄ	-10.0486
▁متحرڪ	-10.049
▁ڄاڻڻ	-10.0497
رة	-10.0502
▁ڪلاڪن	-10.0502
▁شان	-10.0509
ine	-10.0513
▁اُتي	-10.0515
▁دوري	-10.0517
▁خو	-10.0524
▁هيڊ	-10.0529
▁رساله	-10.0532
▁سرگرمي	-10.0532
▁مآ	-10.0539
▁ڪئميرا	-10.0541
▁تعليق	-10.0541
▁لڪ	-10.0541
▁مرحله	-10.0541
▁اتحاد	-10.0543
▁ساٿ	-10.0554
▁رکندي	-10.0554
▁هيل	-10.0556
▁خوراڪ	-10.0566
▁ڪلو	-10.0572
▁ڪِ	-10.0584
ta	-10.0585
▁مائي	-10.0591
▁ياداشت	-10.0591
▁پذير	-10.0591
▁گير	-10.0602
▁بوٽ	-10.0603
▁فى	-10.0603
▁بري	-10.0606
,000	-10.0607
▁خوا	-10.0616
▁چمڙي	-10.0617
▁الش	-10.0618
▁تحرير	-10.0618
▁نهايت	-10.062
▁هلا	-10.0622
▁اڏام	-10.063
رك	-10.063
▁Z	-10.0639
▁تشدد	-10.0643
▁علمي	-10.0644
▁ڪيئي	-10.0649
▁اعتبار	-10.0668
▁وصول	-10.0668
ذي	-10.0669
no	-10.0673
▁بنت	-10.0686
▁منك	-10.0687
▁ماء	-10.0689
▁قدرت	-10.0693
▁دفعا	-10.0694
▁پائڻ	-10.07
▁نامي	-10.0704
▁حصا	-10.0707
ُو	-10.0711
نڊر	-10.0712
▁قابليت	-10.0714
▁فوٽ	-10.0717
▁آھيو	-10.0718
ژ	-10.0725
▁پنھنجو	-10.0727
▁وارث	-10.0728
▁200	-10.0732
▁شهرين	-10.0738
▁ڊيسڪ	-10.0746
▁تنھنجي	-10.0751
▁گولي	-10.0752
▁بق	-10.0752
▁Y	-10.0762
▁وان	-10.0763
▁ترميم	-10.0771
▁of	-10.0772
▁آڏو	-10.0779
▁اديب	-10.0782
▁هئاسين	-10.0788
▁خد	-10.0792
▁In	-10.0801
▁ڦٽ	-10.0802
▁نج	-10.0806
▁31	-10.0811
▁الص	-10.0817
▁ڊگهو	-10.0819
▁طوفان	-10.0823
▁حضور	-10.0823
▁پڙهو	-10.0824
▁حصيداري	-10.0825
عطي	-10.0827
▁بلڪه	-10.0829
▁جماعت	-10.0835
▁شاه	-10.0836
▁قبضو	-10.0836
▁رز	-10.0839
▁لڳائي	-10.0841
رق	-10.0847
▁هند	-10.0847
▁ير	-10.0847
▁ڊزائين	-10.0849
▁پڙ	-10.0851
▁لان	-10.0854
ائڊ	-10.0856
Y	-10.0857
▁لكن	-10.0859
▁نظارو	-10.0862
▁ناھي	-10.0862
حت	-10.0862
▁رائع	-10.0871
▁·	-10.0877
يٺ	-10.0884
▁يکي	-10.0891
▁كر	-10.0898
▁and	-10.0904
▁اليوم	-10.091
▁مشق	-10.091
ڪاري	-10.0911
▁احس	-10.0913
▁تنگ	-10.0916
▁اختي	-10.0917
▁صدق	-10.0921
▁ننڍڙي	-10.0923
▁x	-10.0926
▁ثبوت	-10.0928
▁دؤر	-10.0928
ٽڪ	-10.093
▁32	-10.094
▁ٽري	-10.094
▁ڏند	-10.0943
▁انسانيت	-10.0945
▁هندي	-10.0962
▁طبي	-10.0963
▁ڪيان	-10.0971
▁عليك	-10.0973
لينڊ	-10.0981
▁يكون	-10.0993
▁ڀو	-10.0995
▁کنڊ	-10.0998
▁گهرن	-10.1
▁مهر	-10.1
▁نون	-10.1003
▁گلي	-10.1006
▁معاشري	-10.1008
▁مزدور	-10.1008
رائي	-10.1015
ترا	-10.1016
▁ٽائيم	-10.1022
▁شمار	-10.1023
▁هستي	-10.1024
▁الخ	-10.1039
▁لڳل	-10.104
▁بچڻ	-10.1042
ۈ	-10.1042
فكر	-10.1051
▁تقريبا	-10.1055
▁ڪمپنيون	-10.1056
▁معصوم	-10.1061
▁سهڻي	-10.1061
▁ڊومين	-10.1062
▁جامع	-10.1063
▁ريڊيو	-10.1066
▁تص	-10.1073
▁باز	-10.1078
▁ٻولين	-10.1081
▁گيري	-10.1082
▁حيات	-10.1085
▁اٽڪل	-10.1088
▁شريڪ	-10.1091
▁پيامبر	-10.1095
يٰ	-10.1096
▁حالا	-10.1096
▁ريس	-10.1097
▁بازي	-10.1111
▁تباهه	-10.1114
▁ڏٺي	-10.1115
▁ويٺا	-10.1116
▁اله	-10.1119
▁اڻي	-10.1131
▁منتقلي	-10.1132
▁سپ	-10.1138
▁بلاڪ	-10.1139
▁ماهرن	-10.1139
▁بص	-10.1144
▁هذي	-10.1155
▁مك	-10.1157
وٽو	-10.1164
▁پاڪستاني	-10.1165
▁مف	-10.1166
▁ساز	-10.1167
▁اشتهار	-10.1167
▁احترام	-10.1168
▁ورهين	-10.1173
▁معك	-10.118
▁هَ	-10.1187
▁واس	-10.1188
▁ملندو	-10.1188
▁آپريٽ	-10.119
▁فائدي	-10.1195
▁سلامت	-10.1198
▁اما	-10.1199
▁مريم	-10.1206
کر	-10.1223
▁ستار	-10.1223
▁اپيل	-10.1224
▁اينڊرائيڊ	-10.1225
▁فيلڊ	-10.123
▁con	-10.1235
▁ـــــــــــــــ	-10.1236
▁فارسي	-10.1239
▁باڪس	-10.1248
انو	-10.1254
▁ٻڌائڻ	-10.1255
▁خارج	-10.1266
▁بور	-10.1268
▁پکي	-10.1268
▁طريق	-10.127
٠	-10.1277
رهندي	-10.1277
▁ماڻي	-10.1279
▁پڙهند	-10.128
▁le	-10.1283
▁لڳندو	-10.1285
▁ــــــــــــ	-10.1297
اص	-10.1304
▁٪	-10.1309
▁كذا	-10.1315
▁تياري	-10.132
▁اختلاف	-10.1331
▁اسٽاڪ	-10.1332
▁وت	-10.1345
▁ٿڪ	-10.1345
▁واه	-10.1347
▁چرا	-10.135
▁ٿورڙ	-10.1353
▁بھ	-10.1355
▁فرانسيسي	-10.1359
▁ڪوٺي	-10.1362
▁تازي	-10.1363
▁اسٽار	-10.1367
▁ديد	-10.1372
and	-10.1373
▁an	-10.1376
▁ڀريو	-10.1378
گار	-10.1378
em	-10.1385
▁اسٽ	-10.1386
زر	-10.1386
▁توسان	-10.1387
▁ريٽ	-10.1388
▁صحافي	-10.1389
▁لڳائڻ	-10.1391
▁شكله	-10.1396
لڊ	-10.1397
▁ديس	-10.1397
▁صفائي	-10.1403
بح	-10.1404
▁گز	-10.1408
▁صفحو	-10.1414
▁چر	-10.1414
▁طب	-10.1419
▁لب	-10.1427
▁ڄڻا	-10.1431
▁پيس	-10.1434
▁سياري	-10.1436
▁ننڍو	-10.1439
▁تقسيم	-10.1442
▁ڏهاڪ	-10.1444
▁سرچ	-10.1445
آل	-10.146
▁كله	-10.1461
▁سگهندي	-10.1461
▁ليڪن	-10.1468
▁بزرگ	-10.147
▁ورزن	-10.1472
▁گُ	-10.1477
وق	-10.1486
▁نم	-10.1492
▁نوجوانن	-10.1495
▁پڙهائي	-10.1498
▁ڪلب	-10.1499
▁تسلم	-10.1499
▁سنه	-10.1501
▁سوا	-10.1503
▁u	-10.1507
▁ڇڏيندو	-10.1508
▁پنجاب	-10.1509
▁ٿينديون	-10.1515
▁نمائندگي	-10.1527
▁ٽائ	-10.1529
▁هُئي	-10.1529
ايد	-10.1537
▁ڊرائيور	-10.1548
▁مددگار	-10.1558
▁گلاب	-10.1564
▁بع	-10.1578
▁سردار	-10.1585
▁پيماني	-10.1586
▁ڪورس	-10.1589
▁تڪڙ	-10.159
▁چٽ	-10.1592
▁مثالي	-10.1594
گن	-10.1604
▁چئو	-10.1604
▁حالتون	-10.1605
▁ڏيکاريو	-10.1606
▁يوٽيوب	-10.161
▁سامونڊي	-10.161
▁مستقل	-10.161
▁ٻوٽ	-10.1613
▁فلٽر	-10.1614
▁آھيون	-10.1614
▁احم	-10.1623
▁پڙهيو	-10.1624
▁al	-10.1625
▁صبر	-10.1626
▁۲	-10.1628
▁جڙي	-10.1635
بة	-10.1637
گري	-10.164
▁ڪور	-10.1641
▁گهرو	-10.1642
▁ڪنديون	-10.1659
▁واقعو	-10.166
▁سوالن	-10.1662
کان	-10.1663
صد	-10.1664
▁غائب	-10.1666
▁گهٽتائي	-10.1666
▁مفيد	-10.167
▁ڊسڪ	-10.1676
▁مارجي	-10.1676
▁ٺاهيل	-10.1679
▁وفا	-10.1682
▁فرا	-10.1682
▁ادري	-10.1689
▁اھڙي	-10.1695
▁شڪايت	-10.1695
▁پسنديده	-10.1695
▁sub	-10.1698
▁خلق	-10.1703
▁قبر	-10.1708
▁ھٿ	-10.1716
▁فني	-10.1725
▁پلس	-10.1726
▁رهو	-10.1727
▁معاف	-10.1727
اگ	-10.1734
▁ڪيميا	-10.1736
▁ـــــــــــــ	-10.1742
▁مرا	-10.1744
▁بُ	-10.1749
▁اُنه	-10.1751
▁نيڻ	-10.1759
▁برف	-10.1774
▁هئو	-10.1781
▁بك	-10.1781
▁الناس	-10.1782
pe	-10.1784
▁پريشاني	-10.1785
▁لئه	-10.1789
▁رهجي	-10.1789
اسين	-10.1792
▁ڪش	-10.1796
▁رانديگرن	-10.1797
ـــــــ	-10.1806
▁نقطي	-10.1808
▁واسطو	-10.1809
▁صفحه	-10.1809
▁بشر	-10.181
▁ڄاڻو	-10.1815
▁ڇڪي	-10.182
ائجي	-10.182
▁يالله	-10.1828
▁اڪثريت	-10.1829
ڪڙ	-10.1834
▁اثرات	-10.1836
▁تضحك	-10.1838
▁جپان	-10.1838
▁ڪارڻ	-10.1844
▁بالغ	-10.1859
▁ڪهاڻيون	-10.1859
10	-10.1866
ڳي	-10.187
جڻ	-10.187
▁کاٻ	-10.1871
▁سائن	-10.1886
▁چوان	-10.1888
▁چڪر	-10.1889
▁be	-10.1892
ist	-10.1895
▁سگھوٿا	-10.1896
ذب	-10.1898
▁كثير	-10.1898
▁نكت	-10.1917
▁ڊرام	-10.1917
آإ	-10.1919
▁نسخ	-10.1923
▁شرطن	-10.1931
▁مارڪ	-10.1933
▁سکر	-10.1941
▁معاهدو	-10.1948
▁يد	-10.1951
کو	-10.1952
▁متعلق	-10.1954
▁هيٺان	-10.1958
ill	-10.1962
پور	-10.1965
▁ِي	-10.1971
▁يقينا	-10.1983
▁مطالعو	-10.1983
▁:)	-10.1984
30	-10.1994
▁حملي	-10.2
▁اسمارٽ	-10.2
▁كده	-10.2008
▁برطانيا	-10.2013
▁(2)	-10.2013
age	-10.2013
▁فهم	-10.2018
▁پوک	-10.2024
▁هلندي	-10.2026
سس	-10.2031
ie	-10.204
▁اتان	-10.2041
▁ورا	-10.2041
▁ڪچهري	-10.2042
▁مهينا	-10.2043
▁2010	-10.2044
▁عطا	-10.2051
%	-10.2054
ment	-10.2056
▁اعرف	-10.2059
▁آپشن	-10.2073
▁انفرادي	-10.2074
▁هاء	-10.208
="3	-10.2084
الله	-10.2088
▁المهم	-10.2089
▁طي	-10.2092
▁مستحڪم	-10.2101
▁اسٽوريج	-10.2101
▁عادي	-10.2102
كس	-10.2107
▁سرحد	-10.211
▁الق	-10.2111
▁اِن	-10.2117
▁جَ	-10.2118
▁دوم	-10.2121
▁حڪمران	-10.2127
▁نيٽورڪ	-10.2131
▁مطالعي	-10.2131
▁ڪه	-10.2134
▁قيام	-10.2139
▁بحران	-10.2141
▁پاپ	-10.2142
▁جائز	-10.2145
▁شك	-10.2146
▁ادي	-10.2146
▁ملن	-10.2147
وحيد	-10.2148
▁شكلك	-10.2157
▁لاهي	-10.2162
▁عادت	-10.2165
▁چڪاس	-10.2172
▁ڏوهه	-10.2174
▁آخرين	-10.2179
▁اجر	-10.2181
▁واچ	-10.2185
▁پيدائش	-10.219
▁حديث	-10.2191
▁ميه	-10.2191
مسنگ	-10.2192
▁2012	-10.2192
▁روزگار	-10.2192
▁پمپ	-10.2194
▁تصويرن	-10.2198
ائو	-10.2198
▁ااا	-10.2198
▁تبي	-10.22
▁مقال	-10.2201
mm	-10.2203
▁هلندو	-10.2203
▁قوي	-10.221
▁جانچ	-10.2212
▁انگريزن	-10.2214
▁ڪٽي	-10.2218
ابي	-10.222
▁پيغمبر	-10.222
▁--	-10.2222
▁صد	-10.2225
▁جمل	-10.2226
▁راڻي	-10.2233
▁لڳايو	-10.2233
▁ووو	-10.2242
▁خام	-10.2243
▁عيسائي	-10.2251
▁2011	-10.2252
▁سومر	-10.2252
▁ثقافتي	-10.2254
▁يادگار	-10.2255
▁چوٽي	-10.2261
▁ساليان	-10.2267
▁غذا	-10.2277
▁پيج	-10.2278
▁درواز	-10.228
▁اڪ	-10.2282
▁كلهم	-10.2293
▁ھيٺ	-10.2296
-19	-10.2302
▁ماهه	-10.2302
▁صار	-10.2305
▁رام	-10.2309
▁فلسفي	-10.2311
▁رسيد	-10.2313
▁اخو	-10.2316
ood	-10.232
▁مسٽر	-10.232
ُر	-10.2321
▁رواج	-10.2324
▁مند	-10.2327
▁ميشه	-10.2327
▁پياري	-10.2332
▁سڏي	-10.2335
▁تبصرو	-10.236
ڇا	-10.237
▁COVID	-10.2371
▁ڪريڊٽ	-10.2372
▁موڪلڻ	-10.2375
▁هارڊ	-10.2381
▁منجھ	-10.2387
▁بقا	-10.2395
تار	-10.2401
▁ٽرئفڪ	-10.2402
▁ايوارڊ	-10.2402
▁کٽي	-10.2405
▁اسٽر	-10.2412
▁ھتي	-10.2413
▁باس	-10.2415
▁پال	-10.2416
▁كلام	-10.2423
ئا	-10.2425
ارڻ	-10.2427
▁مھين	-10.2434
▁خوبي	-10.2437
▁پروسيسنگ	-10.2439
▁راهه	-10.2447
سمارٽ	-10.2457
لق	-10.2463
▁ويه	-10.2463
▁يادگيري	-10.2463
▁مفاد	-10.2466
▁ديوار	-10.2467
▁36	-10.2473
▁4-	-10.2487
ant	-10.2496
▁خالص	-10.2496
▁سڄڻ	-10.2525
▁موبائيل	-10.2525
▁نصب	-10.2535
▁تفصيلي	-10.2536
▁گار	-10.2536
▁كي	-10.2538
▁آخ	-10.2545
▁سروي	-10.2551
▁ماسٽر	-10.2552
▁مصروف	-10.2554
▁مرض	-10.2555
▁ٿڌي	-10.2557
▁لكم	-10.2559
▁روانو	-10.2559
ں	-10.2559
▁ثاني	-10.2561
▁صفا	-10.257
▁چونڊڻ	-10.2577
▁ضحكت	-10.2578
▁شنو	-10.2579
de	-10.2583
ږ	-10.2587
▁جمهوريت	-10.2587
▁انگلينڊ	-10.2588
▁ٽڪيٽ	-10.2589
▁فارميٽ	-10.2592
▁أي	-10.2598
▁ليک	-10.2598
▁نسخو	-10.2598
os	-10.2598
▁ٻاهران	-10.2603
op	-10.2605
دگي	-10.2612
▁رڪاوٽ	-10.2618
▁مبارڪ	-10.2618
▁معنى	-10.2619
عرف	-10.262
▁2:	-10.2621
▁هِن	-10.2621
▁هونئن	-10.2623
▁ٽٽ	-10.2623
▁j	-10.2624
▁الو	-10.2628
▁بقى	-10.2628
▁باش	-10.263
▁رَ	-10.2638
▁همه	-10.2639
▁اھا	-10.2645
▁سيڪشن	-10.2657
▁St	-10.2665
▁سٽي	-10.2669
▁آئ	-10.2669
▁ڳا	-10.2671
▁رول	-10.2672
▁دفاع	-10.268
▁توجيهي	-10.2681
▁يح	-10.2702
▁برگ	-10.2711
▁بدقسمتي	-10.2712
▁هٿيار	-10.2713
▁مليا	-10.2713
▁ڌڻي	-10.2715
▁سهڪار	-10.2716
▁کسي	-10.2716
▁ڪچ	-10.2723
مير	-10.2725
▁عهد	-10.2726
▁ڏياري	-10.2729
▁خشڪ	-10.2732
▁پيء	-10.2732
▁جهڙا	-10.2741
▁صدارت	-10.2745
▁2008	-10.2746
▁بچايو	-10.2748
▁خطي	-10.2751
▁گھڻا	-10.2752
▁گذارڻ	-10.2756
بط	-10.2757
▁گور	-10.276
فق	-10.276
▁ڦر	-10.2761
▁گوشت	-10.2763
يڪل	-10.2766
▁اعتراض	-10.2775
▁علائقا	-10.2775
▁بيٺل	-10.2775
▁ڪشمير	-10.2776
tion	-10.2776
▁وانت	-10.278
▁سيٽنگ	-10.2786
▁ند	-10.2789
▁رڙ	-10.2791
▁لآ	-10.2795
جهه	-10.2796
▁وراڻيو	-10.2799
▁وصل	-10.28
▁اكل	-10.2803
▁لما	-10.2805
▁آري	-10.2806
▁فنڊ	-10.2812
▁سختي	-10.2814
▁بنائڻ	-10.282
▁ديگر	-10.2822
ھا	-10.2824
▁اوهين	-10.2828
▁هلڪ	-10.2832
▁چيئرمين	-10.2839
▁ڪميونٽي	-10.2839
▁مزاج	-10.2841
▁ڊگري	-10.2842
▁نصيب	-10.2847
▁جيتري	-10.285
▁سستي	-10.2855
▁پڇڻ	-10.2857
▁كمان	-10.2858
▁خا	-10.2864
▁آڊيو	-10.2871
▁1:	-10.2872
▁مٺي	-10.2874
▁ڪرڪيٽ	-10.2874
▁آپ	-10.2877
روح	-10.2879
▁عند	-10.288
▁مق	-10.2884
▁گرفت	-10.2887
▁نياڻي	-10.2891
▁6.	-10.2892
ـــــــــ	-10.2899
▁ڊيٽابيس	-10.2903
▁حوالو	-10.2904
▁تعالي	-10.2905
▁ملائي	-10.2908
▁حبيب	-10.2909
▁چُ	-10.2917
▁أم	-10.2917
▁حم	-10.292
▁De	-10.2924
▁نمائند	-10.2933
▁ڪارپوريشن	-10.2936
خص	-10.2939
▁چئب	-10.2946
▁تڪڙو	-10.295
▁تخت	-10.295
ارت	-10.2951
حل	-10.2953
گير	-10.2959
▁ڇوڪرو	-10.2962
وڊ	-10.2964
▁ميٽ	-10.2966
▁ڊسپلي	-10.2967
▁ڪاريگر	-10.2977
▁نالن	-10.2979
▁اڏ	-10.2979
▁منھنجو	-10.2982
تين	-10.2985
▁رکندا	-10.2989
▁سارا	-10.2998
▁احلى	-10.3001
▁صحتمند	-10.3001
▁الل	-10.3005
▁ليزر	-10.3007
▁رهندڙ	-10.3008
ation	-10.3011
▁تخليقي	-10.3015
▁قلع	-10.3024
ack	-10.3028
دام	-10.3031
▁ٽرمينل	-10.3032
▁تلاش	-10.3032
▁سگنل	-10.3032
▁ڊائ	-10.3035
▁پون	-10.3039
▁حادث	-10.3043
▁جذباتي	-10.305
og	-10.3052
▁حرام	-10.3053
▁ڌيءَ	-10.3054
▁چال	-10.3054
▁ڇپ	-10.3055
▁ديگه	-10.3065
▁بول	-10.3066
▁اڄوڪ	-10.3068
▁بيگ	-10.3074
▁بهار	-10.3074
▁بڻ	-10.3076
▁نگار	-10.3077
▁والو	-10.3077
▁موقع	-10.308
▁کپ	-10.3084
hi	-10.3084
▁ٽنگ	-10.3087
▁اخي	-10.3094
ڵ	-10.3097
▁گڏجاڻي	-10.3097
دان	-10.3099
▁نوٽيس	-10.3102
▁شڪست	-10.3103
▁پرنٽ	-10.3116
▁ڪٿان	-10.312
▁;	-10.3121
▁ڀير	-10.3125
▁مداخلت	-10.313
▁گنجائش	-10.313
▁ماحولياتي	-10.313
▁اھم	-10.3131
▁دبئي	-10.3135
▁دون	-10.3137
▁نان	-10.3141
▁بدي	-10.3144
▁خاني	-10.3152
▁چوٿ	-10.316
▁مائڪرو	-10.3163
▁جدوجهد	-10.3163
▁ظاهري	-10.3164
▁33	-10.3164
▁برد	-10.3165
▁قو	-10.3171
▁گان	-10.3172
علام	-10.3175
▁گرين	-10.3177
▁ڪارڪنن	-10.3189
▁ناچ	-10.3193
▁ضلعي	-10.3194
▁احوال	-10.3196
▁كتير	-10.3197
▁فنڪار	-10.3199
NT	-10.32
▁آغاز	-10.3201
▁عدد	-10.3202
مد	-10.3212
▁ويندس	-10.3214
▁پوئي	-10.322
▁سست	-10.322
▁ونڊ	-10.3229
▁ايجنٽ	-10.3229
▁طبيعت	-10.323
▁ڌاتو	-10.323
▁سيڪنڊ	-10.3232
ديد	-10.3246
عليه	-10.3257
▁نيب	-10.326
▁ڊيوائس	-10.3262
▁اقتدار	-10.3262
ma	-10.3276
▁پيچ	-10.3281
طلع	-10.3284
▁پڙھ	-10.3284
▁طا	-10.3285
▁رٿ	-10.3293
▁جشن	-10.3293
▁رجسٽريشن	-10.3297
▁ھجي	-10.3301
▁بجيٽ	-10.3304
▁منفي	-10.3304
▁جنت	-10.331
▁ٽاپ	-10.3325
▁محروم	-10.3329
▁تل	-10.333
▁کيڏڻ	-10.333
▁ڪپڙن	-10.333
▁اغ	-10.3343
▁خوشبو	-10.3347
▁چل	-10.3349
▁اليڪٽرانڪ	-10.3363
▁مطمئن	-10.3363
▁فيڪٽري	-10.3363
▁گروه	-10.3364
▁ڪنگ	-10.3365
▁ّ	-10.3372
▁الر	-10.3372
▁وج	-10.3378
▁وڪي	-10.338
▁جادو	-10.338
ممڪن	-10.3387
▁شوف	-10.3395
▁ايجنسي	-10.3396
▁<<<	-10.3396
▁اجل	-10.3398
وض	-10.3401
▁ربي	-10.3405
▁سمجهو	-10.3413
▁سکي	-10.3416
▁پھچ	-10.3418
▁انگريز	-10.3418
۱	-10.3419
▁ٽيگ	-10.3428
▁پاڙ	-10.3429
▁ملائيشيا	-10.343
▁دعويٰ	-10.343
▁اندوز	-10.3431
▁مرحلي	-10.3433
▁گريڊ	-10.3439
▁گذار	-10.3443
▁ڪانگ	-10.3444
▁ماٺ	-10.3446
▁صوبي	-10.3448
▁بڻج	-10.3451
▁گهٽائڻ	-10.3464
▁مليل	-10.3467
▁فطر	-10.3481
to	-10.3481
▁ڇڏيندا	-10.3482
▁اثاث	-10.3498
▁پيچيده	-10.3498
▁99	-10.3499
صير	-10.3503
▁سوچيند	-10.3504
▁حساس	-10.3504
▁ليڪ	-10.3505
▁احسان	-10.3513
▁ماس	-10.3516
▁ٺهي	-10.3521
▁پيارا	-10.3521
▁بني	-10.3526
▁يضحك	-10.3532
▁پيڪيج	-10.3532
▁شيطان	-10.3532
▁چانهه	-10.3532
▁عضو	-10.3536
▁گهوڙ	-10.3539
ووووو	-10.3545
▁ڇت	-10.3546
ne	-10.3552
ڈ	-10.3562
اااااا	-10.3564
▁پورا	-10.3566
▁نمايان	-10.3567
▁داستان	-10.357
▁قطار	-10.357
ok	-10.3572
ئه	-10.3579
▁صوب	-10.3591
▁سرد	-10.3593
▁گرام	-10.36
▁فلسطين	-10.3601
▁سائنسدان	-10.3602
▁sh	-10.3604
▁اط	-10.3617
▁رش	-10.3617
▁اکرن	-10.3617
▁يب	-10.3635
▁ڪلوميٽر	-10.3635
▁برنامه	-10.3635
▁منعقد	-10.3635
▁قبيل	-10.3637
داد	-10.3637
▁ation	-10.3637
▁ساحل	-10.3639
▁سگهيا	-10.3642
▁طريقيڪار	-10.3642
▁خرابي	-10.3643
▁نفسياتي	-10.3644
▁ايڏو	-10.365
▁هٽ	-10.3654
▁طرفن	-10.3657
▁واهه	-10.3666
▁خبردار	-10.3668
▁مشغول	-10.367
▁حاڪم	-10.367
▁ميڊيڪل	-10.367
▁ڀڃ	-10.3672
▁لأن	-10.3674
▁عرف	-10.3674
▁اعظم	-10.368
ts	-10.3681
ies	-10.3685
▁قطع	-10.3688
▁فيها	-10.3693
▁همين	-10.3694
▁مدل	-10.3694
▁حسب	-10.3697
▁سينيٽ	-10.3697
بان	-10.3701
▁ڪانگريس	-10.3705
▁مطالب	-10.3705
▁پهچايو	-10.3708
▁تعلقات	-10.3709
av	-10.371
▁وڏيون	-10.3712
▁گرو	-10.3713
▁البت	-10.3718
▁روڪيو	-10.3721
▁ويجهي	-10.3726
▁ۈ	-10.3728
▁متان	-10.3733
ډ	-10.3739
▁پارليامينٽ	-10.3739
▁پروجيڪٽ	-10.3739
▁وسيلي	-10.3741
▁ادارو	-10.3743
▁لاگ	-10.3744
▁ٻارڙن	-10.3748
▁اكثر	-10.3749
ٿر	-10.3758
▁ڪيائون	-10.3758
▁ma	-10.3764
▁مم	-10.3768
▁ڪمائي	-10.377
▁بستر	-10.377
▁چمڪ	-10.3773
▁ٻانهن	-10.3774
▁بوتل	-10.3775
▁ارد	-10.3782
▁اشار	-10.3784
▁راس	-10.3787
▁پينل	-10.379
چه	-10.3791
▁روان	-10.3793
▁ناز	-10.3794
▁تڪ	-10.3795
▁صلاحيتن	-10.3797
▁ٻج	-10.3797
ide	-10.3799
▁دخل	-10.3808
▁اولين	-10.3808
▁ڙو	-10.3809
▁ڪروڙ	-10.3811
▁فرمايو	-10.3813
▁بدن	-10.3817
▁پيڪنگ	-10.3817
if	-10.382
▁افزائ	-10.3836
▁مارڻ	-10.3836
▁مط	-10.3839
▁گيم	-10.3839
▁گهمڻ	-10.3845
▁ويٺل	-10.3845
▁لاهور	-10.3846
▁on	-10.3847
▁حقوق	-10.385
▁5-	-10.3852
▁انها	-10.3856
▁un	-10.3856
▁وچولي	-10.3856
▁گند	-10.3875
▁برطانو	-10.388
▁رهنمائي	-10.388
▁>>>	-10.3882
▁ڀارتي	-10.3883
▁نِ	-10.39
▁شم	-10.3902
▁جاپان	-10.3905
▁ذا	-10.3908
▁منافع	-10.3915
▁سوراخ	-10.3915
▁پابند	-10.3923
▁واڌاري	-10.3924
▁وٺندي	-10.3927
ho	-10.3933
▁رهائش	-10.3938
▁ڳاله	-10.3941
▁استحڪام	-10.3951
▁اعزاز	-10.3951
▁تفريح	-10.3951
▁بجاءِ	-10.3952
▁دائم	-10.3954
▁پڌر	-10.3955
tic	-10.3955
▁بادشاه	-10.3959
▁مغ	-10.3962
▁آثار	-10.3987
▁اڪيلي	-10.3987
▁وسيلن	-10.3987
▁سهي	-10.3999
راج	-10.4
▁دُ	-10.4008
▁ڀلو	-10.4009
▁ڏهه	-10.4011
ادي	-10.4023
▁ڏيکارڻ	-10.4023
▁عيسي	-10.4024
▁فريم	-10.4026
▁لله	-10.4031
▁اردو	-10.4033
▁موڙ	-10.4035
ang	-10.4044
▁انگن	-10.4051
حم	-10.4058
▁تجربن	-10.4059
▁مشورو	-10.4059
▁لاڪ	-10.4061
ڏو	-10.4063
ex	-10.4064
ost	-10.4064
▁راڄ	-10.407
▁چاھيو	-10.4071
▁گلن	-10.4073
▁معافي	-10.4073
▁2)	-10.4075
▁ننڍن	-10.4075
▁ڇوڪر	-10.4082
▁چهري	-10.4085
▁نامو	-10.4085
▁لال	-10.4092
▁سڌار	-10.4092
▁سمجهاڻي	-10.4105
▁سنئو	-10.4109
▁پلان	-10.4112
▁ً	-10.4112
▁عملن	-10.4115
▁ٻر	-10.4118
▁ڪيبل	-10.4121
▁خداوند	-10.4134
▁چاپ	-10.4135
▁سُر	-10.4137
▁عس	-10.4139
▁الائي	-10.4143
▁ريو	-10.4143
▁ريز	-10.4144
▁ننڍ	-10.4144
▁بحري	-10.4149
▁پرست	-10.4155
▁واعدو	-10.4158
▁ليٽ	-10.4158
▁لڪي	-10.4158
▁ادارا	-10.416
▁we	-10.4161
्	-10.4167
▁پورهيت	-10.4167
▁مرحلن	-10.4168
▁خزان	-10.4169
▁برآمد	-10.4169
▁ڪتو	-10.4172
▁پولي	-10.4174
▁سولو	-10.4176
▁خانگي	-10.4179
▁نص	-10.4181
▁عرفت	-10.4191
▁منجهان	-10.4193
▁ڪارن	-10.4199
▁چيٽ	-10.42
▁باقاعده	-10.42
links	-10.4204
▁پالڻھار	-10.4204
▁محترم	-10.4204
▁خاتمي	-10.4204
all	-10.4204
سنڌي	-10.4217
▁48	-10.422
راح	-10.4232
▁ڳولهي	-10.4236
▁سچي	-10.4237
▁en	-10.4238
▁XNUMX	-10.4239
▁ننڍپڻ	-10.424
▁ڪنيڪشن	-10.424
▁زخم	-10.4242
▁وڻي	-10.4243
▁95	-10.4245
▁چت	-10.4248
▁دروازو	-10.4251
▁ٻچ	-10.4252
▁مندر	-10.4255
▁هنڌن	-10.4263
▁سروسز	-10.4264
▁قيامت	-10.427
▁ميزبان	-10.4271
▁مگ	-10.4274
▁تهذيب	-10.4277
▁ارتقا	-10.4278
▁امزح	-10.428
▁ڀٽ	-10.4282
▁جوڳي	-10.4284
▁رينج	-10.4287
▁اسٽيج	-10.429
▁سچائي	-10.4291
▁پرت	-10.4297
▁سيشن	-10.4297
▁قلبي	-10.4299
▁لها	-10.4307
▁اچان	-10.4309
▁حافظ	-10.4314
▁((	-10.432
▁مص	-10.4324
▁عيون	-10.4329
▁شاهي	-10.4338
club	-10.4351
▁سرٽيفڪيٽ	-10.4351
▁معتبر	-10.4351
▁today	-10.4352
▁300	-10.4352
▁متفق	-10.4353
▁هيلو	-10.4356
▁الحين	-10.4362
ـــــــــــ	-10.4379
▁شدت	-10.4382
▁يقينن	-10.4386
▁Next	-10.4388
▁مصيبت	-10.4388
▁پيشڪش	-10.4388
ڍي	-10.4389
▁آئوٽ	-10.4389
▁ابد	-10.439
▁افيئر	-10.4391
ct	-10.4396
▁غربت	-10.4397
▁درس	-10.44
▁رڪن	-10.4404
▁mo	-10.4404
ئس	-10.4405
▁سچو	-10.4412
▁درج	-10.4414
▁صوفي	-10.4418
he	-10.442
▁صلي	-10.4423
▁ٿڌو	-10.4427
مند	-10.4428
▁خوشيءَ	-10.4432
▁پُڇ	-10.4439
▁ساه	-10.4447
حك	-10.445
▁ترس	-10.4457
▁وڪري	-10.4457
▁جناب	-10.4457
▁رضا	-10.4462
▁رنگن	-10.4463
▁بيوقوف	-10.4463
▁ڊگھ	-10.4465
▁منتظر	-10.4471
▁سؤ	-10.4478
▁گذر	-10.4478
▁آيس	-10.448
فته	-10.4487
ity	-10.4488
▁ڊاڪٽرن	-10.4493
▁شعبن	-10.4501
▁ڀروسو	-10.4501
▁ڪينسر	-10.4505
جانءِ	-10.4511
▁سارو	-10.4511
▁پائيدار	-10.4512
▁رم	-10.4512
▁{	-10.4514
▁or	-10.4516
▁34	-10.4523
▁ڇهه	-10.4526
▁لکيا	-10.4532
▁سگ	-10.4536
▁احتياط	-10.4538
▁عيسى	-10.4538
▁ڪرسمس	-10.4538
mo	-10.4543
▁قطر	-10.4547
▁ڏسان	-10.4551
▁مغربي	-10.4562
تها	-10.4562
▁شف	-10.4562
▁حادثي	-10.4563
▁بھتري	-10.4564
▁فلو	-10.4569
▁The	-10.4572
▁فراهمي	-10.4576
▁ڊبليو	-10.4579
بير	-10.4583
ect	-10.4585
▁وڳي	-10.4595
▁اختيارن	-10.4596
▁کانئس	-10.4597
▁سٺا	-10.46
▁نڪي	-10.4607
توهان	-10.4608
▁قدمن	-10.4613
▁متحده	-10.4613
▁ڏٺا	-10.4614
▁ايجاد	-10.4614
▁سياحن	-10.4614
▁ڳالهائيندي	-10.4615
▁ٽيڪنيڪ	-10.4617
▁ماڻ	-10.4626
▁شئي	-10.4626
▁دڙ	-10.4627
▁ڏيک	-10.4629
▁ڀڄ	-10.4635
كتب	-10.4639
▁آلو	-10.4642
▁مضحك	-10.4643
ub	-10.4644
▁نقط	-10.4648
▁گئس	-10.4655
▁پايان	-10.4656
▁سائٽ	-10.4657
▁سڌ	-10.4672
▁مول	-10.4673
▁شفت	-10.4676
▁خاموشي	-10.4677
ليٽ	-10.468
▁نظرات	-10.4681
▁پيٽر	-10.4682
گان	-10.4688
ni	-10.4689
▁الز	-10.469
▁ڪھڙي	-10.4691
▁رازداري	-10.4692
▁صنف	-10.4693
▁se	-10.4698
▁ڇڪڻ	-10.4704
▁پت	-10.4704
▁ليل	-10.4705
▁ماريو	-10.4712
▁^	-10.4713
▁it	-10.4717
مپ	-10.4718
▁تبديليون	-10.4718
وط	-10.4719
▁ريزي	-10.4727
▁عرصو	-10.4729
▁عثمان	-10.4729
▁فال	-10.4738
▁عد	-10.4738
▁معنا	-10.4741
▁نازڪ	-10.4744
▁سائي	-10.4749
▁جاڳ	-10.475
▁پراڻو	-10.4753
▁استادن	-10.4755
ha	-10.4767
▁Q	-10.4767
▁ڪڏھن	-10.4768
▁حذف	-10.4768
▁°	-10.477
▁خاڪ	-10.4772
▁ڀٽو	-10.4774
▁نياز	-10.4783
▁ڏور	-10.4783
ٽري	-10.4785
▁زر	-10.4785
▁پاسخ	-10.4786
▁نف	-10.4789
▁طبعا	-10.4791
▁اصولن	-10.4794
▁رشتي	-10.4806
▁افتتاح	-10.4807
ell	-10.4808
▁pro	-10.4809
▁ضد	-10.4816
▁تنهنجا	-10.4818
▁لائيٽ	-10.483
▁فاطمه	-10.4845
▁دفن	-10.4848
▁بز	-10.4848
▁هڪدم	-10.4848
ثر	-10.4849
▁ڪيڏو	-10.485
▁بدل	-10.4851
▁ترسيل	-10.4851
▁me	-10.4855
▁ٽول	-10.4857
▁پئسو	-10.4868
▁as	-10.487
▁شمسي	-10.4876
▁لهر	-10.4879
▁گهڻيون	-10.488
ڑ	-10.4884
▁بلوچ	-10.4884
▁پاسورڊ	-10.4885
▁فائي	-10.4886
▁تيزي	-10.4887
▁ڪمال	-10.4891
▁2000	-10.4892
▁ولد	-10.4893
▁نيل	-10.4894
▁ميرا	-10.4914
▁75	-10.4919
▁●	-10.4931
▁زياد	-10.4936
▁گلاس	-10.4936
▁سدا	-10.4937
▁جاپاني	-10.4937
▁ويزا	-10.494
▁مچ	-10.4944
▁جاني	-10.4945
▁آقا	-10.4946
▁آبي	-10.495
▁كلها	-10.4952
▁شفا	-10.4959
▁رين	-10.496
▁ملازمت	-10.4962
▁نشاندهي	-10.4963
▁تعاليٰ	-10.4964
▁لس	-10.4965
ff	-10.4969
▁سمجھي	-10.497
ئڻ	-10.4976
qu	-10.4976
فل	-10.498
▁سس	-10.4983
▁خانداني	-10.4987
▁ٻڏ	-10.5002
▁ورتا	-10.5003
▁يوسف	-10.5003
▁عيسيٰ	-10.5003
▁رستن	-10.5005
ST	-10.5005
▁جنگي	-10.5006
▁اڀر	-10.5007
▁صحبت	-10.5007
▁عز	-10.5007
di	-10.5008
▁ڳائڻ	-10.5012
▁وٽان	-10.5014
▁جڳھ	-10.5015
▁دٻاء	-10.5018
ڙهي	-10.502
▁ڳوليو	-10.5024
▁منڊي	-10.5032
▁ٽريننگ	-10.5033
sh	-10.5036
▁ذي	-10.5041
▁جستجو	-10.5042
▁العالم	-10.5042
▁مٽائي	-10.5044
▁پليئر	-10.5053
جيب	-10.5054
▁پتي	-10.5057
ear	-10.5061
▁عڪس	-10.5065
▁بقول	-10.5065
▁چن	-10.5068
▁بح	-10.5074
▁سڃاڻي	-10.5078
▁لکين	-10.508
▁تحياتي	-10.5082
▁معروف	-10.5082
▁پکڙي	-10.5085
▁انتظامي	-10.5088
▁ڇڪ	-10.5097
▁سوين	-10.5104
▁ڪڍڻ	-10.5106
▁چهرو	-10.5107
▁ڳڻ	-10.5108
▁ro	-10.511
▁ڳالهائيند	-10.5112
▁فٽ	-10.5114
▁ورد	-10.5118
▁منتخب	-10.5122
▁انچ	-10.5123
▁رپيا	-10.5124
▁ديوان	-10.5126
مبر	-10.5136
▁۳	-10.5138
▁هليا	-10.5138
▁مدير	-10.5143
▁ڄم	-10.5144
▁رياستن	-10.5148
▁گلو	-10.5148
▁ايپس	-10.5151
▁احنا	-10.5153
▁ئون	-10.5155
▁ضايع	-10.5162
▁عارضي	-10.5162
▁فحش	-10.5162
▁نينگر	-10.5166
ting	-10.5168
وح	-10.5168
▁کڙ	-10.5173
▁راحت	-10.5177
▁جريان	-10.5177
▁ٻانه	-10.5179
▁چنين	-10.5183
باب	-10.5187
▁طل	-10.52
انس	-10.5202
▁ظالم	-10.5203
▁مذاق	-10.5203
▁ذر	-10.5211
سلام	-10.5213
▁خواه	-10.5215
▁خطاب	-10.5222
▁شل	-10.5224
▁مرو	-10.5227
ard	-10.523
▁سنگت	-10.5238
▁قيادت	-10.5243
▁پبلڪ	-10.5243
▁طبع	-10.5244
▁مداح	-10.5245
▁ڪوريا	-10.5247
▁انسٽاليشن	-10.5247
▁ايڏي	-10.5249
ــــــــــ	-10.5251
▁at	-10.5254
▁فاهم	-10.5255
▁سود	-10.5258
▁ڏسجي	-10.526
▁ندس	-10.526
▁سبز	-10.5266
▁رسمي	-10.5266
▁پناه	-10.5269
▁حاجي	-10.5269
▁تكون	-10.5272
▁مشكور	-10.5275
▁ماما	-10.5279
▁روزي	-10.528
▁دهشتگرد	-10.5281
▁جدت	-10.5281
▁چونڊيل	-10.5283
▁سنگاپور	-10.5284
▁جلس	-10.5289
▁فعلا	-10.5295
▁نڪر	-10.5296
لام	-10.5303
▁عمران	-10.5305
▁سوار	-10.531
▁مجموعو	-10.5312
na	-10.5312
▁وٺندا	-10.5313
▁تک	-10.5316
▁پيوند	-10.5319
▁موٽڻ	-10.5322
▁ڊن	-10.5322
▁iOS	-10.5325
▁ٽرمپ	-10.5326
▁خوفنا	-10.5327
▁تحقيقات	-10.5328
▁ٿورا	-10.533
▁هيرو	-10.5331
▁ڦري	-10.5334
▁آهي۔	-10.5335
▁تابع	-10.5335
▁ڌيء	-10.5336
▁سوم	-10.5338
▁نفسي	-10.5341
▁خواهي	-10.5346
▁مادر	-10.535
▁ڪيپ	-10.5352
▁١	-10.5352
پس	-10.5353
▁مخالفت	-10.5353
▁هيء	-10.5355
▁نما	-10.5365
▁Twitter	-10.5366
▁لائبريري	-10.5366
▁ڪٽنب	-10.5366
▁سالگره	-10.5367
▁يهمك	-10.5368
▁ڪيف	-10.5372
▁خالد	-10.5376
▁كتب	-10.5378
▁همت	-10.5387
▁پوکي	-10.5387
iv	-10.5388
▁ca	-10.5389
▁منو	-10.539
▁بنجي	-10.539
▁اينٽي	-10.5393
od	-10.5398
▁بخار	-10.5399
▁صدا	-10.5403
منهنجي	-10.5403
▁بلوچستان	-10.5407
▁نمونو	-10.5408
▁بيٺي	-10.5409
▁ٻول	-10.5414
▁اُت	-10.5415
▁رستا	-10.5416
رجع	-10.5424
▁65	-10.5434
▁آٽو	-10.5437
ائيندو	-10.5438
▁44	-10.5442
▁ڊيگهه	-10.5448
▁هرگز	-10.5448
▁قاتل	-10.5448
▁ٻاھر	-10.545
▁لات	-10.5452
▁برائوزر	-10.5454
▁خال	-10.5464
▁لِ	-10.5464
رام	-10.5466
▁شود	-10.547
▁سکو	-10.5476
▁قيمتون	-10.5481
▁do	-10.5482
▁رعايت	-10.549
▁چئلينج	-10.549
▁غالب	-10.549
▁عارف	-10.549
▁قاضي	-10.5491
▁ڪرنسي	-10.5491
▁ڏنائين	-10.5493
▁بلڊ	-10.5498
ee	-10.5504
▁نيم	-10.5506
گھ	-10.5512
دد	-10.5512
▁وفادار	-10.5518
▁پيڊ	-10.5518
▁لَ	-10.5527
ښ	-10.5531
▁پيپلز	-10.5531
▁ڪاميٽي	-10.5531
▁۔۔	-10.5533
▁لق	-10.5538
▁صديق	-10.554
▁ch	-10.5542
▁شديد	-10.5548
▁سنڌو	-10.5549
▁ڏسندو	-10.555
▁رکيا	-10.5553
▁for	-10.5553
▁ڀڄي	-10.5553
▁کني	-10.5556
▁ٻلي	-10.5556
one	-10.5558
▁غر	-10.5569
▁وڄ	-10.5571
▁خلا	-10.5571
▁فائدن	-10.5573
▁وحده	-10.5574
▁2009	-10.5576
▁3:	-10.5576
▁گليڪس	-10.5577
▁قبضي	-10.5577
▁سينگار	-10.5578
▁رويي	-10.5579
▁مڃ	-10.558
▁ڀائرن	-10.5584
▁پيارو	-10.5591
▁سڃاڻ	-10.5607
▁وهم	-10.5607
▁چوندي	-10.5611
▁ظاھر	-10.5615
▁نظرثاني	-10.5615
▁دائري	-10.5615
▁سعيد	-10.5615
ـِ	-10.5617
▁نازل	-10.5617
▁تحف	-10.5618
▁اسٽريٽ	-10.5623
▁بچاء	-10.5625
▁پهلو	-10.5627
▁گادي	-10.5629
▁معمول	-10.563
▁تبصر	-10.5631
ناڊا	-10.5633
▁رهيس	-10.5635
▁گاڏين	-10.5638
ak	-10.5639
▁بدلائي	-10.5646
▁Mo	-10.5649
▁th	-10.5655
▁مظاهرو	-10.5657
▁رولي	-10.5658
▁گلوبل	-10.5659
▁دهشتگردي	-10.566
▁آهه	-10.5663
▁پھري	-10.5663
▁جب	-10.5667
▁فلمون	-10.5667
▁سمورا	-10.5673
lu	-10.5678
▁كا	-10.5679
▁پڪڙي	-10.568
▁هڻ	-10.568
▁گردش	-10.5683
▁ميش	-10.5686
si	-10.5687
▁پوش	-10.5689
▁ڇهن	-10.5694
▁وٺن	-10.5695
ڦ	-10.5696
▁ڪتب	-10.5698
▁آگاهي	-10.57
▁عدم	-10.5702
▁راڳ	-10.5706
▁رقص	-10.5707
▁پھ	-10.5711
▁ارو	-10.5723
▁37	-10.5724
▁Ch	-10.5729
▁ڏٺم	-10.5742
▁ex	-10.5743
▁جڳهن	-10.5744
▁ماشاء	-10.5747
▁اولهه	-10.5748
▁سلامتي	-10.5749
▁بندر	-10.5753
▁پلگ	-10.5766
▁te	-10.5768
▁ڇوڪرين	-10.5768
▁ڏو	-10.5776
▁جس	-10.5776
▁پيپر	-10.5779
▁ڏاڍا	-10.578
▁هيٺيون	-10.5781
▁مقبول	-10.5781
زح	-10.5782
▁بندوبست	-10.5785
▁فروغ	-10.5785
▁غزل	-10.5785
▁ٽرانس	-10.5787
▁ad	-10.5787
▁موقف	-10.5788
ید	-10.579
▁حوا	-10.5795
▁شهرت	-10.5799
▁شفاف	-10.5799
▁ڳوٺاڻ	-10.5804
▁بغ	-10.5807
▁گذريو	-10.5809
▁روپي	-10.581
▁پوندا	-10.5816
▁لاس	-10.5816
▁سٺ	-10.5816
جهي	-10.5822
▁دعوي	-10.5827
▁اجنبي	-10.5828
▁صفحن	-10.5828
▁ميلاپ	-10.5828
▁علام	-10.5831
▁مهارت	-10.5831
▁واشنگ	-10.5833
▁لُ	-10.5834
▁ڪڙ	-10.5834
▁سپاهي	-10.5842
▁ريال	-10.5845
▁ااااا	-10.5848
▁سمور	-10.5851
▁ملندڙ	-10.5852
▁جبر	-10.5853
▁فاصل	-10.5865
▁55	-10.5867
▁پرائمري	-10.5871
▁ناراض	-10.5871
▁بدلجي	-10.5875
▁ڪيريئر	-10.5876
▁ايڪٽ	-10.5876
▁by	-10.5887
▁you	-10.5889
▁ميڙ	-10.589
▁بچت	-10.5894
▁ويندڙ	-10.5895
▁بايد	-10.5899
▁وسري	-10.5901
▁بعدين	-10.5911
▁اوس	-10.5911
ight	-10.5912
▁بنائي	-10.5915
oc	-10.5918
▁ٻڌاءِ	-10.5918
▁ڏنيون	-10.5922
پپ	-10.593
▁چاه	-10.5932
co	-10.5944
▁سمجھڻ	-10.5949
▁نعر	-10.595
▁تصويري	-10.5952
قص	-10.5954
▁محقق	-10.5958
▁يهودي	-10.5959
▁قرب	-10.5959
▁گائيڊ	-10.5962
▁ڪتا	-10.5969
▁جيئرو	-10.5974
▁اڇو	-10.5976
▁ڀائ	-10.5977
▁ای	-10.5981
▁ڪالم	-10.5982
▁الد	-10.5986
▁א	-10.5991
پٽ	-10.5996
▁تكف	-10.5996
▁ملوث	-10.6001
▁(3)	-10.6002
▁عيب	-10.6008
▁مسكين	-10.6012
▁ناڪامي	-10.6017
▁ميڊ	-10.6018
▁انجنيئرنگ	-10.6019
ويب	-10.6029
▁وق	-10.603
▁ضم	-10.6032
▁قرباني	-10.6034
لى	-10.6035
▁مائٽ	-10.6036
▁پوڻ	-10.6038
▁جيئڻ	-10.604
▁منها	-10.6044
▁ھوندو	-10.6044
▁ميونسپل	-10.6045
▁ڳاڙهو	-10.6045
▁يعطيك	-10.6046
▁اهلڪار	-10.6048
▁پئس	-10.6053
ug	-10.6056
▁کول	-10.6057
▁ڪيڏي	-10.606
▁درآمد	-10.6064
▁اونداهي	-10.6067
▁سهڻ	-10.6074
▁جوڙو	-10.6078
آر	-10.6085
▁معرف	-10.6087
▁جذبات	-10.6088
▁اٽلي	-10.6089
▁فضيلت	-10.6089
▁نيويارڪ	-10.6089
▁الضحك	-10.6089
▁اضحك	-10.6089
▁تباهي	-10.6089
▁ڀلائي	-10.6091
▁مرتب	-10.6092
▁بيس	-10.61
▁ڪڙي	-10.6101
وسط	-10.6103
▁پاڙي	-10.6103
▁۴	-10.6114
▁پئسن	-10.6121
▁وربي	-10.6123
▁فائر	-10.6133
▁ادائگي	-10.6134
▁اسٽاپ	-10.6134
ian	-10.6138
▁سراسري	-10.6138
▁دٻاءُ	-10.6139
▁00	-10.6146
▁فرمائي	-10.6166
▁زيور	-10.6171
▁ميري	-10.6172
urname	-10.6178
▁ليڊ	-10.618
▁پنھنج	-10.6184
▁زندگيء	-10.6187
▁فائرنگ	-10.6188
▁مڪي	-10.6189
▁هائي	-10.619
▁مادري	-10.6191
ڪلهه	-10.62
▁انٽر	-10.6202
▁الحل	-10.6202
▁لائٽ	-10.6208
=	-10.6208
آم	-10.6211
▁راج	-10.6212
▁ڪرسي	-10.6222
▁اپليڪيشن	-10.6223
▁حيدرآباد	-10.6223
▁تناسب	-10.6223
▁ايڊيٽر	-10.6223
▁۔۔۔۔۔	-10.6224
طه	-10.6232
▁ڪيڏانهن	-10.6233
▁حجم	-10.6233
▁ڳوليندا	-10.6234
▁پروڊڪٽس	-10.6234
IN	-10.6236
▁ٺاهيندڙن	-10.6241
▁حامي	-10.6247
▁راجا	-10.6247
▁کس	-10.625
▁ويڪر	-10.6251
▁جهلي	-10.6251
▁وک	-10.6254
able	-10.6259
▁همراهه	-10.6259
▁بيحد	-10.6259
ڇو	-10.6265
▁ڪرپشن	-10.6267
▁ڀائيوار	-10.6267
▁پئمان	-10.6269
▁معقول	-10.6273
▁ضرب	-10.6276
▁عزم	-10.6277
▁پاي	-10.6277
▁چورس	-10.628
▁ولو	-10.6282
▁گاهه	-10.6282
▁فلمن	-10.6285
▁پيرس	-10.6298
حط	-10.6312
▁لشڪر	-10.6313
▁2007	-10.6316
▁39	-10.6323
▁ھج	-10.6326
▁سيني	-10.6329
▁ڇڏيندي	-10.6332
▁400	-10.6333
▁صوت	-10.6345
▁پويون	-10.635
▁تيئن	-10.6352
بقى	-10.6353
▁يعين	-10.6354
▁ايسوسيئيشن	-10.6358
▁سوسائٽي	-10.6358
▁هوشيار	-10.6359
▁ڪلچر	-10.6362
ru	-10.6365
▁پهاڪ	-10.6366
▁سرگرم	-10.6368
▁ڏينداسين	-10.637
▁جملو	-10.6374
▁ڙا	-10.6379
عج	-10.638
▁چڙ	-10.6385
▁بِ	-10.6389
▁مجازي	-10.64
▁سكس	-10.6402
▁کی	-10.6403
revious	-10.6403
▁استنبول	-10.6403
▁خودمختيار	-10.6403
▁رمضان	-10.6403
▁اونهاري	-10.6403
▁امارات	-10.6403
▁توازن	-10.6404
▁مجلس	-10.6404
19	-10.6405
▁شئ	-10.6405
ڪشن	-10.6405
شوف	-10.6406
▁چمڪندڙ	-10.6407
▁۔۔۔۔	-10.6407
▁نعمت	-10.6413
▁نگر	-10.6413
▁نشر	-10.6414
▁بچ	-10.6417
▁برش	-10.6418
▁1000	-10.6418
▁هڏ	-10.6421
▁رانديگر	-10.6423
هههه	-10.6432
▁كف	-10.6442
▁چري	-10.6447
ظاهر	-10.6449
▁فائونڊيشن	-10.6449
▁سگهجن	-10.6449
▁سڳور	-10.6449
▁قريب	-10.6451
▁مايوس	-10.646
lin	-10.6461
▁رابطن	-10.6468
▁ابا	-10.6472
▁ڪڍيو	-10.6483
▁نانگ	-10.6486
▁ترڪ	-10.6492
▁بغاوت	-10.6495
ڪيٽ	-10.6495
▁اشتهارن	-10.6496
40	-10.6496
ركب	-10.6501
▁پروسيس	-10.6502
▁بج	-10.6503
▁وهو	-10.6505
▁ديوتا	-10.6508
▁شاهد	-10.6509
ber	-10.651
▁Ro	-10.651
▁نجات	-10.651
▁ra	-10.651
▁ھيو	-10.651
▁توجه	-10.6523
▁جِي	-10.6525
▁چيس	-10.6527
▁موقعا	-10.6528
ماڪ	-10.6531
▁ويز	-10.6534
▁پگهار	-10.6541
▁ڊولپر	-10.6541
▁جسٽس	-10.6542
▁کش	-10.6543
▁نعم	-10.6549
▁زوال	-10.655
▁فنا	-10.6552
▁ذخيرو	-10.6552
▁صوبائي	-10.6553
▁زوج	-10.6553
▁پکيڙ	-10.6558
▁آئيني	-10.6568
▁جعل	-10.657
▁بقي	-10.6572
▁طلع	-10.6573
▁نشي	-10.6576
خير	-10.6581
▁ڏات	-10.6583
▁اڏاوت	-10.6587
ناظر	-10.6588
▁وڻن	-10.659
▁4:	-10.6592
نظير	-10.6594
▁ڇپائي	-10.6598
▁ٻڌاي	-10.6604
▁فيچر	-10.6605
کار	-10.661
▁نظار	-10.6612
▁ويسٽ	-10.6617
▁وَر	-10.6621
▁ٽيپ	-10.6624
▁جواني	-10.6627
طف	-10.6628
ci	-10.663
▁حفاظتي	-10.663
▁ڀرڻ	-10.6632
▁ايراضي	-10.6634
▁قابو	-10.6638
▁اڄڪلهه	-10.6639
▁نَ	-10.6645
▁ابن	-10.6647
▁سندي	-10.6651
▁قم	-10.6652
ast	-10.6659
▁سلي	-10.666
▁150	-10.6675
▁مقدس	-10.668
▁شهزاد	-10.668
▁تعالى	-10.6684
▁ضمير	-10.6685
▁ضابط	-10.6686
▁شاھ	-10.6691
▁منشي	-10.6696
▁سواري	-10.6697
اله	-10.67
▁نظريو	-10.6705
ڙھ	-10.6726
▁برچسب	-10.6727
▁ڀڃڪڙي	-10.6727
▁دوزخ	-10.6727
▁سلطان	-10.6727
▁مهينو	-10.6728
▁شناسي	-10.6729
XNUMX	-10.6729
▁چئجي	-10.673
▁سپن	-10.673
حال	-10.6743
طور	-10.6748
نفس	-10.6751
▁بدون	-10.6752
▁بھتر	-10.6759
▁آآ	-10.6771
ा	-10.6774
▁اطمينان	-10.6774
▁مواصلات	-10.6774
▁امور	-10.6776
11	-10.6776
▁بخشي	-10.6777
▁مديريت	-10.6779
دخل	-10.678
▁قادر	-10.6781
der	-10.6782
▁ڪپڙي	-10.6782
▁آيد	-10.6783
▁ميزباني	-10.6783
راف	-10.6788
▁عنده	-10.6797
▁زلزل	-10.6822
▁دراصل	-10.6822
▁پيروزي	-10.6822
▁محد	-10.6826
▁پيرا	-10.6826
▁ڏوه	-10.6832
▁لائي	-10.6833
▁احسن	-10.6834
▁وحش	-10.6834
▁تأ	-10.6835
▁جبت	-10.6841
▁اسٽاف	-10.6845
▁ورهائي	-10.685
▁47	-10.6856
▁ناري	-10.6857
▁ڪٽڻ	-10.6858
▁قولي	-10.6861
▁پاڻمرادو	-10.6869
▁آڱر	-10.687
▁زد	-10.6872
▁انديش	-10.6874
▁ڀل	-10.6875
▁پِ	-10.688
▁ٽوڙي	-10.6884
▁ريلي	-10.6884
▁حتم	-10.6885
▁98	-10.6893
▁نسبت	-10.69
▁وبا	-10.6906
र	-10.6917
▁صادق	-10.6917
▁فاتح	-10.6917
▁ٺاهيندڙ	-10.6919
▁اغوا	-10.6922
▁تال	-10.6924
▁vi	-10.6925
▁هج	-10.6928
▁ميٽرو	-10.6929
▁اثرائتي	-10.6931
▁بلين	-10.6938
▁اڻو	-10.6941
▁بجي	-10.6941
▁مدري	-10.6956
▁ڊوائيسز	-10.6956
▁عهدي	-10.6959
▁انقلابي	-10.6962
▁سلطنت	-10.6965
▁خوشگوار	-10.6965
▁سگريٽ	-10.6965
▁ٻوڏ	-10.6965
▁برازيل	-10.6966
▁نڪتل	-10.6966
▁معطل	-10.6966
▁سنجيده	-10.6967
▁مرحلو	-10.6967
▁پُر	-10.6968
▁سمي	-10.6969
جيڪڏهن	-10.6969
▁تجربا	-10.6969
▁ماستر	-10.697
▁جھڙو	-10.6971
▁ڳوڙهي	-10.6973
▁تَ	-10.6974
▁راست	-10.698
▁سلو	-10.6989
▁پناهه	-10.6993
▁es	-10.6994
io	-10.6996
▁هيئن	-10.6998
قلب	-10.7004
TC	-10.7013
18	-10.7013
SCL	-10.7014
▁ڪوپن	-10.7019
▁فرار	-10.7021
▁,,,	-10.7028
▁انهيء	-10.7028
▁اختيارين	-10.7029
▁ڀوڳ	-10.7029
▁لڳندي	-10.703
▁بزنس	-10.7036
▁ميس	-10.7036
ge	-10.7036
▁پڇا	-10.7043
▁پروگرامن	-10.7057
▁نديم	-10.7062
▁يعنى	-10.7062
▁وحدت	-10.7063
~	-10.7064
▁بينڪن	-10.7068
يعني	-10.7069
▁قمر	-10.7069
▁ڌرين	-10.7072
▁روئڻ	-10.7074
ec	-10.7075
▁تِ	-10.7077
▁وڻندڙ	-10.708
▁ٽولي	-10.7083
▁الأ	-10.7098
ime	-10.7101
▁dis	-10.7104
▁تاثر	-10.7114
▁ايڊيشن	-10.7115
▁ڄمار	-10.712
▁ڀٽائي	-10.7122
▁آش	-10.7123
▁HD	-10.7128
▁قي	-10.7131
▁ڳوڙها	-10.7132
▁چاهيندو	-10.7135
mi	-10.7137
▁خلص	-10.7145
▁ڏاه	-10.7152
▁نيون	-10.7153
قد	-10.7156
▁ٍ	-10.7159
▁مزي	-10.716
▁WhatsApp	-10.716
▁€	-10.716
▁رڪ	-10.7163
▁ليڊر	-10.7166
▁پيشه	-10.7168
▁شپنگ	-10.7169
▁43	-10.7169
▁ٻُ	-10.7173
▁Al	-10.7179
ائپ	-10.7182
ائز	-10.7183
▁سهولتون	-10.7183
▁سڪي	-10.719
▁ايسٽ	-10.7193
▁ڪرسٽ	-10.7198
▁مٺا	-10.7199
▁فرح	-10.7202
▁انتظاميه	-10.7204
حاول	-10.7205
▁ريڪارڊ	-10.7209
▁سافٽويئر	-10.7209
less	-10.7217
▁پهتي	-10.7219
▁وڙ	-10.7224
▁سکيو	-10.7227
▁موهن	-10.7228
▁شكلها	-10.7228
▁z	-10.7232
▁سڏيند	-10.7232
▁وها	-10.7238
▁غص	-10.7241
▁گناه	-10.7246
▁ڪافر	-10.7255
▁مرة	-10.7255
▁چوٿون	-10.7256
▁ڄائو	-10.726
▁ٻوڙ	-10.7264
▁انڊين	-10.7265
▁بيمارين	-10.7267
▁تجنن	-10.7269
▁تخيل	-10.7272
▁تحفا	-10.7276
▁اينڪس	-10.7279
▁جهيڙ	-10.7282
▁ريڪ	-10.7283
▁ستر	-10.7292
▁اينڊرائيڊس	-10.7303
▁وياسين	-10.7306
▁برباد	-10.7309
▁افسان	-10.731
da	-10.7315
▁ْ	-10.7315
▁ڪائي	-10.7317
▁ساخت	-10.7319
▁گھڙي	-10.732
▁گناهه	-10.7323
▁ادخل	-10.7327
َنِ	-10.733
▁رق	-10.7336
▁جزو	-10.734
▁ابت	-10.7351
▁اخلاق	-10.7353
▁ڪارپوري	-10.7357
▁معجز	-10.7359
▁ٽهڪ	-10.7359
▁عباس	-10.736
▁چالو	-10.7362
AN	-10.7364
▁سگهه	-10.7365
ure	-10.7366
▁پيئند	-10.737
▁ايڪسڪس	-10.7371
▁بلڊنگ	-10.7371
▁ادامه	-10.7372
▁فائلن	-10.7373
▁سرگرميون	-10.7374
▁جمعي	-10.7374
▁اڏي	-10.738
▁الدين	-10.7382
▁معز	-10.7382
▁ڏيکاريل	-10.7391
▁تكم	-10.7392
▁شيشي	-10.7396
▁سربراهه	-10.7396
▁La	-10.7399
ضرب	-10.74
▁پک	-10.7401
،000	-10.7402
▁رحمت	-10.7403
me	-10.7409
▁گيٽ	-10.7411
ظهر	-10.7412
▁مدرس	-10.7413
دري	-10.7414
▁بدر	-10.7421
ييييي	-10.7422
▁پوڙهي	-10.7423
▁فيهم	-10.7427
▁سمر	-10.7432
▁اخذ	-10.7436
▁بحر	-10.7444
▁بيوس	-10.7448
▁لاڳاپا	-10.7451
▁پڌرو	-10.7455
▁Search	-10.7459
▁فائنل	-10.7459
▁پروفائل	-10.746
▁نظرانداز	-10.7462
▁پهتا	-10.7465
▁ڇپيل	-10.7468
▁جمال	-10.7468
▁جملي	-10.7471
▁گذرڻ	-10.7477
▁آمريڪ	-10.7479
▁1)	-10.748
ev	-10.7485
▁آرمي	-10.7486
▁انتها	-10.7493
▁حرك	-10.7497
▁نفسك	-10.7498
▁سويت	-10.7498
▁Ex	-10.7498
▁پوڙه	-10.7499
▁ڪڻ	-10.7502
▁اسٽوڊيو	-10.751
▁اسپيڪر	-10.751
▁ڪئمپ	-10.7512
▁پالتو	-10.7512
▁ڳڻتي	-10.7516
▁گهريلو	-10.7516
▁وٺندڙ	-10.752
▁سك	-10.7521
▁اداس	-10.7523
▁مڃڻ	-10.7526
َرَ	-10.7533
▁ڀائر	-10.7534
▁ائن	-10.7538
▁ارسالي	-10.7549
3">	-10.755
▁ائڻ	-10.7551
▁مافيه	-10.7553
ضر	-10.756
▁***	-10.7562
▁اسڪين	-10.7564
▁رف	-10.7564
▁مئل	-10.7566
J	-10.7567
▁اڙي	-10.7572
▁فلور	-10.7573
▁پيڪ	-10.7579
▁گولڊ	-10.7579
▁زرع	-10.7584
▁بنات	-10.7584
▁ٽيوب	-10.7588
15	-10.7597
▁سائ	-10.7598
▁مصنوع	-10.7605
▁ابتدا	-10.7606
▁سازش	-10.761
۶	-10.7612
▁ٻوٽي	-10.7613
▁شال	-10.7613
▁بڇڙ	-10.7613
▁ورزش	-10.7613
ائج	-10.762
▁کوڙ	-10.762
▁بوڪ	-10.7621
▁أنت	-10.7626
▁سرمائيدار	-10.7628
▁لڳن	-10.7628
br	-10.7629
▁ڳو	-10.763
▁ؤ	-10.7635
▁اخوي	-10.7636
▁ملندا	-10.7639
▁قيدي	-10.7641
▁لائيو	-10.7641
▁مولانا	-10.7642
▁كانت	-10.7644
▁ڪارب	-10.7646
▁نيري	-10.765
▁حص	-10.765
▁لکت	-10.7652
▁چَ	-10.7654
▁اڪيڊمي	-10.7664
▁ضمن	-10.7665
▁بدلائڻ	-10.7667
▁ڪيفيت	-10.7669
▁نقشو	-10.7675
12	-10.768
▁پڄ	-10.7681
▁مكان	-10.7683
پری	-10.7683
▁غلطيون	-10.7694
▁38	-10.7695
▁ڪارخان	-10.77
▁Se	-10.7701
▁مشڪلات	-10.7702
▁ٽوڪ	-10.7704
▁مؤ	-10.7704
sk	-10.7707
▁پھرين	-10.7709
▁انفرا	-10.7713
icrosoft	-10.7716
۷	-10.7716
▁ھوندي	-10.7716
▁زرداري	-10.7717
▁حيوان	-10.7717
▁اوپن	-10.7719
▁رويو	-10.7722
Z	-10.7723
+	-10.7723
▁ڪبو	-10.7725
واضع	-10.7729
▁يوناني	-10.773
قف	-10.7732
▁نوع	-10.7736
▁اسوي	-10.7737
▁ڏاڏ	-10.774
▁امريڪا	-10.7743
▁اوري	-10.7754
▁می	-10.7755
▁طر	-10.7766
▁بادشاھ	-10.7768
▁پاؤڊر	-10.7768
▁نصيحت	-10.7768
▁گھڻن	-10.7769
▁Home	-10.7769
▁سحر	-10.777
ڀرو	-10.7772
▁صلاحڪار	-10.7774
▁ٽرڪ	-10.7779
▁روش	-10.7781
▁لهڻ	-10.7785
▁ڏيندس	-10.7787
▁ڏهاڙ	-10.7787
▁سني	-10.7792
▁۵	-10.7801
▁ٽڪرا	-10.7808
▁سنت	-10.7811
▁لف	-10.7817
▁رٽائر	-10.782
▁دستخط	-10.782
▁زراعت	-10.782
▁معاوض	-10.782
▁اُڀ	-10.7821
▁اڳواڻي	-10.7821
▁ڪونھي	-10.7821
▁سياستدان	-10.7822
▁ضلع	-10.7824
▁he	-10.7828
▁موڪليل	-10.783
▁بهادر	-10.7832
▁ابر	-10.7833
▁190	-10.7834
▁♥	-10.7834
ov	-10.7835
▁الط	-10.7838
▁تحب	-10.784
▁ضابطن	-10.7842
▁نيرو	-10.7854
▁معاه	-10.7859
▁غيرها	-10.786
یں	-10.7866
وڪي	-10.7867
aw	-10.7869
▁انٽرفيس	-10.7873
▁مخلوق	-10.7873
▁ڪمشنر	-10.7873
▁ناصر	-10.7873
▁لأ	-10.788
▁فيصلا	-10.7882
▁چيل	-10.7882
▁ڳجه	-10.7887
▁رليز	-10.7888
▁وووو	-10.7889
▁sp	-10.7891
▁نوڪر	-10.7904
▁سگھ	-10.7913
▁ستن	-10.7919
▁فضا	-10.7925
▁تشخيص	-10.7926
▁هدف	-10.7926
▁گورنر	-10.7926
ll	-10.7933
▁ٌ	-10.7934
▁پايه	-10.7934
▁Pro	-10.7936
▁IP	-10.7938
▁راهي	-10.7939
▁هڻڻ	-10.7944
قط	-10.7946
po	-10.7947
ind	-10.7959
▁گس	-10.7961
▁سهار	-10.7963
ثير	-10.7964
▁مائٽن	-10.7964
▁An	-10.7965
▁شق	-10.7966
our	-10.7972
▁لڪائي	-10.7977
▁خاتمو	-10.7979
▁ڪوڪيز	-10.7979
لائن	-10.7979
▁لڙڪ	-10.7979
مال	-10.7985
▁يآ	-10.7992
▁ٻڌايان	-10.7993
▁كش	-10.7995
▁رلي	-10.7995
▁بوس	-10.7995
اڻون	-10.7997
▁ڪڪڙ	-10.7999
▁جرم	-10.8001
اڻان	-10.8002
▁ليٽر	-10.8003
▁ضابطو	-10.8003
▁ويهڻ	-10.8004
▁ليك	-10.8007
▁ميگي	-10.8013
▁ٻوليون	-10.8027
▁لوڻ	-10.8029
▁مبتلا	-10.8032
▁اسپيڊ	-10.8033
▁سرواڻ	-10.8033
▁دستاويزن	-10.8033
▁رائيٽ	-10.8035
▁3)	-10.8039
▁خوشحالي	-10.804
▁ڳري	-10.8041
▁ترقيات	-10.8042
▁اٿن	-10.8048
▁دٻ	-10.8052
ــــــــــــــــ	-10.8063
▁سمورو	-10.8069
▁ودي	-10.8069
▁بئ	-10.8069
▁پُٽ	-10.807
▁عال	-10.8071
▁di	-10.8079
ka	-10.8084
▁Bibl	-10.8086
▁سپلائر	-10.8086
▁لامحدود	-10.8086
▁مھرباني	-10.8086
▁اعتراف	-10.8086
ob	-10.8087
▁لچڪدار	-10.8087
▁مھل	-10.8087
▁پادري	-10.8089
▁تقريباً	-10.8092
▁سمجهندا	-10.8092
▁مئنيجر	-10.8094
▁بلاول	-10.8096
▁ڄام	-10.8096
▁اڳوڻ	-10.8097
▁85	-10.8098
▁ساڄ	-10.8099
▁زينب	-10.8101
قة	-10.8105
▁))	-10.8108
nt	-10.8118
▁مدار	-10.8119
▁امل	-10.8119
▁رپي	-10.8122
پريم	-10.8124
▁Ad	-10.8124
▁انتظاميا	-10.8126
▁ٽام	-10.8127
▁ٻڌڻي	-10.813
▁ائپ	-10.8135
▁وٽس	-10.8135
▁مٿو	-10.8139
▁اوچائي	-10.814
▁آصف	-10.814
▁مسڪين	-10.8141
ائع	-10.8145
▁مڙ	-10.8149
▁لٽ	-10.816
▁نسيت	-10.816
16	-10.8163
▁نسبتا	-10.8164
▁ترجمان	-10.8165
▁Me	-10.8181
▁نشانيون	-10.8182
▁يونان	-10.8191
▁رياض	-10.8192
▁پاسپورٽ	-10.8195
▁انجمن	-10.8195
▁عبرت	-10.8195
▁🙂	-10.8195
▁غي	-10.8202
ګ	-10.8204
▁اجمل	-10.8207
▁تنها	-10.8216
▁فضل	-10.8221
▁سڪون	-10.8224
▁ځ	-10.8229
▁سوٽ	-10.823
▁پيوست	-10.8234
▁اڀري	-10.8235
▁مليون	-10.8236
ناڪ	-10.8243
waz	-10.8249
▁ريسرچ	-10.8249
▁ماشي	-10.825
▁هُئا	-10.8251
▁بَ	-10.8251
▁اساس	-10.8253
▁ٻولهه	-10.8256
▁مدي	-10.8257
▁والا	-10.8257
▁پيٽرول	-10.8257
ain	-10.826
act	-10.8266
▁نخ	-10.8269
▁ne	-10.8269
▁متع	-10.8277
▁ووڊ	-10.8277
▁زند	-10.828
▁ساڳيا	-10.8282
▁ھُ	-10.8284
▁لڏي	-10.8288
▁سوز	-10.8292
▁ذخير	-10.8292
▁دب	-10.8295
ens	-10.8296
▁گروهه	-10.8298
▁64	-10.8301
▁ٹ	-10.8302
▁پروژه	-10.8304
wami	-10.8304
▁واسطي	-10.8304
▁ڪِي	-10.8306
▁فهد	-10.8306
▁منع	-10.8309
▁ٿِي	-10.8311
اخر	-10.8312
است	-10.8316
▁اُٿي	-10.832
▁عكس	-10.8321
▁رآ	-10.8323
▁يق	-10.8324
ea	-10.8326
▁حالانڪه	-10.8327
▁ڌا	-10.8327
▁قط	-10.8329
صح	-10.8333
▁لکندو	-10.8341
▁am	-10.8342
▁جزا	-10.8342
▁مارو	-10.8342
▁بچه	-10.8345
▁آزمائشي	-10.8345
▁موڙي	-10.8351
▁چونڊون	-10.8356
▁ورڊ	-10.8359
▁ميوزيم	-10.8359
▁پرهيز	-10.836
▁خصوصيت	-10.8364
▁LG	-10.8366
Bet	-10.8369
▁اسڪيم	-10.8371
▁يسلمو	-10.8371
▁la	-10.8371
▁رواني	-10.8378
▁پئ	-10.8383
▁سرخ	-10.8384
▁امڙ	-10.8386
▁دهلي	-10.8404
▁شكر	-10.8409
▁پاڇ	-10.8411
▁مرح	-10.8412
▁ٽور	-10.8414
▁Le	-10.8414
▁تقدير	-10.8415
▁ملهايو	-10.8415
▁هجر	-10.842
▁ورڈ	-10.842
▁موتي	-10.8424
}	-10.8425
▁ديدار	-10.8425
▁جھڙي	-10.8427
▁Sindhi	-10.8433
▁نويس	-10.8433
▁ڀاڙي	-10.8433
▁اُنھ	-10.8436
ندؤ	-10.8439
▁all	-10.8444
▁سليمان	-10.8444
▁پڇو	-10.8444
▁46	-10.8451
▁اُھ	-10.8451
▁هيچي	-10.8453
بند	-10.8456
▁پيسا	-10.8457
▁ڪيڪ	-10.8457
▁ونڊو	-10.8465
▁اسسٽنٽ	-10.8471
▁ٽتوٽ	-10.8471
▁پرواهه	-10.8471
▁ago	-10.8472
▁واڌارو	-10.8473
▁ڪپڙو	-10.8476
▁آزمائش	-10.8485
▁زمر	-10.849
▁باھ	-10.8494
▁دام	-10.8494
▁كرد	-10.8496
▁رومن	-10.85
آئون	-10.8503
▁اعت	-10.8504
▁خصوص	-10.8505
▁برائي	-10.8505
▁im	-10.8512
▁کانپوء	-10.8521
▁تارن	-10.8526
▁انشورنس	-10.8527
▁ماشى	-10.8527
▁بدين	-10.8535
▁يمن	-10.8537
▁برابري	-10.8547
ake	-10.8549
▁رهواسي	-10.855
▁واٽر	-10.8566
▁سهولتن	-10.8568
▁پالي	-10.8574
▁اربع	-10.858
▁انسٽاگرام	-10.8583
▁ھدايت	-10.8583
▁(4)	-10.8584
▁برڪت	-10.8584
▁معاون	-10.8586
▁بيٺا	-10.8587
▁حلق	-10.8589
▁داشت	-10.8591
▁بندوق	-10.8592
رض	-10.8593
ڪالهه	-10.8593
▁ويٽ	-10.8594
▁عذر	-10.8603
OS	-10.8613
▁88	-10.8613
▁ڊچ	-10.8628
▁ڀَ	-10.8629
▁رهبر	-10.8634
▁ميڪسيڪو	-10.864
▁ڊويزن	-10.864
▁حك	-10.8641
▁شوقين	-10.8643
▁ورهي	-10.8643
▁سلم	-10.8654
▁بادل	-10.8656
▁الصور	-10.8657
▁چوڪ	-10.8657
▁سڙي	-10.866
▁لوگو	-10.8662
▁چاندي	-10.8663
▁آآآ	-10.8664
▁ڀُ	-10.8665
▁ڳڙ	-10.8674
▁ڪڇ	-10.8675
▁هِي	-10.8675
ئٽر	-10.8681
▁ڪجو	-10.8682
▁باني	-10.8684
▁42	-10.8692
▁فارس	-10.8692
▁وبعدين	-10.8697
▁اليڪٽرڪ	-10.8697
▁ڪابينا	-10.8698
▁ڪامرس	-10.8701
▁شرٽ	-10.8701
▁مصري	-10.8702
▁نينهن	-10.8706
▁چادر	-10.8708
أإ	-10.8709
▁غذائي	-10.8713
▁دى	-10.8713
▁سگهيس	-10.8716
▁ارت	-10.8722
▁زميندار	-10.8729
▁وڪڻ	-10.8745
▁اُھي	-10.8745
▁سكر	-10.8749
▁بيبي	-10.8753
du	-10.8755
▁تڏھن	-10.8755
▁برعڪس	-10.8755
▁ظهور	-10.8755
ten	-10.8757
▁ورتل	-10.8757
▁ڏِ	-10.876
Q	-10.8768
▁يَ	-10.8772
▁ڪارخانو	-10.8773
▁ڪڪر	-10.878
les	-10.8785
▁جميله	-10.8793
▁توهين	-10.8794
▁فكر	-10.8797
▁گاهي	-10.88
▁No	-10.88
▁گرفتاري	-10.8802
▁رِ	-10.8804
▁ڌنڌ	-10.8805
▁ديگري	-10.8809
▁وصولي	-10.8812
▁جذبي	-10.8813
▁مينيجر	-10.8813
▁مممم	-10.8813
ound	-10.8814
▁دلبر	-10.8816
▁us	-10.8817
▁**	-10.8819
▁2003	-10.8819
▁شپ	-10.882
▁بينڪنگ	-10.8821
▁ent	-10.8832
▁ميخوا	-10.8834
ائتي	-10.884
▁شينهن	-10.8843
▁جهڙ	-10.8845
▁Con	-10.8845
▁چِ	-10.8848
ick	-10.8848
▁man	-10.885
▁عليهم	-10.8855
▁كلامك	-10.8856
َّ	-10.8857
▁پهاڙ	-10.8859
▁فاس	-10.886
▁گد	-10.8861
▁سريع	-10.8862
▁ڄاڻان	-10.8871
▁بيروزگار	-10.8871
▁پرسپوليس	-10.8871
▁تبليغ	-10.8871
لاڙڪاڻي	-10.8872
▁بندرگاه	-10.8872
▁سمهڻ	-10.8872
▁کاڌ	-10.8873
▁پائپ	-10.8881
▁ڪج	-10.8884
▁درياهه	-10.8884
א	-10.8884
▁إل	-10.8885
▁😂	-10.8886
▁ڪارڪن	-10.8886
▁بلاش	-10.8887
▁تشوف	-10.8894
▁حظ	-10.8898
▁کُ	-10.8906
ous	-10.891
▁ويران	-10.8916
▁سستا	-10.8916
▁}	-10.8918
hy	-10.892
▁ٽائم	-10.8922
▁شويه	-10.8927
▁أس	-10.8929
▁پوڊ	-10.8929
▁همٿ	-10.8929
▁ٽيليويزن	-10.8929
▁Play	-10.8929
▁اڳڪٿي	-10.8929
▁تشريح	-10.8929
▁بدترين	-10.893
▁سمجھيو	-10.8932
99	-10.8934
▁حف	-10.8934
▁ڏوهاري	-10.8934
آت	-10.8935
▁رڪنيت	-10.8935
ress	-10.8942
▁بزن	-10.8944
▁ڪارا	-10.8945
▁جاڳي	-10.8954
▁آچر	-10.8959
ويت	-10.8959
▁يارڪ	-10.8971
▁ڪيمپ	-10.8971
▁شاديءَ	-10.8983
▁منسوخ	-10.8988
▁ے	-10.8989
▁وادي	-10.8989
▁پئرس	-10.899
▁نظريات	-10.8991
▁عبدالله	-10.8992
▁پست	-10.8993
▁وڙهي	-10.8993
▁سپا	-10.8993
▁رشيد	-10.8994
▁امکان	-10.8996
ائٽ	-10.8996
▁کلڻ	-10.9
▁حيا	-10.9
▁فليٽ	-10.9001
▁لڪير	-10.9001
▁سگھان	-10.9001
▁bo	-10.9003
▁ڄاڻاي	-10.9008
▁بيشتر	-10.9011
▁بجد	-10.9012
▁ڪرايا	-10.9013
▁گاه	-10.9013
▁ٽوٽ	-10.9022
▁نقطه	-10.9026
▁صبا	-10.9026
50	-10.903
▁ly	-10.9041
▁بنايو	-10.9044
▁ڪميونسٽ	-10.9047
▁وصف	-10.9048
▁وسيلا	-10.9048
▁Mi	-10.9048
▁تلوار	-10.9049
▁مهاجر	-10.905
▁سستو	-10.9055
▁چارٽ	-10.9057
▁جامد	-10.9058
▁اجايو	-10.9059
▁ائون	-10.906
▁رجسٽرڊ	-10.9061
ټ	-10.9062
▁عملدارن	-10.907
▁pl	-10.9071
▁رنگين	-10.9073
▁وارنٽي	-10.9078
▁اااا	-10.909
ئٽ	-10.9091
ائونڊ	-10.9097
▁خوي	-10.9101
▁ڏجي	-10.9102
▁News	-10.9107
▁ليبارٽري	-10.9107
▁تسلسل	-10.9107
▁تقاضا	-10.9107
▁شهادت	-10.9107
▁طراحي	-10.9107
▁آبهوا	-10.9107
▁ملتوي	-10.9108
▁ٽيلي	-10.9109
▁ميمڻ	-10.9109
▁وڙهند	-10.9116
▁وانگي	-10.9117
▁آپريٽر	-10.9119
▁ڀرجي	-10.9123
ER	-10.9123
▁جهنگ	-10.9124
مثال	-10.9124
low	-10.9126
▁خب	-10.9127
▁تقبل	-10.9127
وقت	-10.9131
▁ٽم	-10.9132
per	-10.9133
▁پپ	-10.9149
▁ڏاڏي	-10.9153
▁ion	-10.9161
▁شناخت	-10.9167
▁بضحك	-10.9167
▁مڪاني	-10.9167
▁ڳاڙهي	-10.9167
▁پڇاڙي	-10.9173
vi	-10.9174
▁الاس	-10.9175
▁سوري	-10.9178
بال	-10.9179
▁بدو	-10.918
▁وما	-10.9182
▁ڊبل	-10.9185
▁پڪو	-10.9186
▁ڪٿا	-10.9191
▁اري	-10.9192
▁منصوبا	-10.9202
▁گهٽائي	-10.9203
▁ic	-10.921
▁راء	-10.9211
ated	-10.9217
▁لنڪس	-10.9218
▁ورهائ	-10.9222
▁رڻ	-10.9225
▁جاگرافي	-10.9227
▁ٺاهه	-10.9227
یکس	-10.9228
▁شغل	-10.9228
▁that	-10.9229
▁بائي	-10.923
▁ورائي	-10.9233
▁49	-10.9235
سنواريو	-10.9242
▁هالينڊ	-10.9254
▁لاڙ	-10.9262
▁ملت	-10.9262
▁ژ	-10.9272
خاص	-10.9274
▁سنواريو	-10.9275
▁دة	-10.9276
▁ڊڪ	-10.9276
▁هئائين	-10.9279
▁رئ	-10.928
▁غلامي	-10.928
ڼ	-10.9288
▁لميٽيڊ	-10.9288
▁اشاعت	-10.9288
▁نثار	-10.9288
▁مجنون	-10.929
▁چطور	-10.9292
▁شار	-10.9293
▁لنا	-10.9293
67	-10.9296
oo	-10.9296
▁غسل	-10.9298
▁فلا	-10.9303
▁ٽائون	-10.9303
▁هڻند	-10.9304
▁طريقه	-10.9306
14	-10.9308
▁آله	-10.9309
▁ٽڪرو	-10.9318
▁ايام	-10.9319
قال	-10.932
tain	-10.932
▁ڪمرو	-10.9321
▁ناهيان	-10.9323
ron	-10.9326
unt	-10.933
وووو	-10.9331
▁مشاهدو	-10.9335
ٹر	-10.9339
▁چريو	-10.934
▁سنڀالڻ	-10.9342
▁نامزد	-10.9347
▁منھن	-10.9348
▁اسماعيل	-10.9349
▁مقناطيس	-10.9349
▁صحافت	-10.9349
▁زنجير	-10.9349
[	-10.9351
▁ڀليڪار	-10.9354
▁بيزار	-10.9356
▁منور	-10.9359
▁المر	-10.9363
▁ستي	-10.9363
▁ڊائري	-10.9364
▁ايڊو	-10.9365
▁روٽ	-10.937
▁درجو	-10.9382
▁جيئري	-10.9402
iz	-10.9402
▁سوڀ	-10.9403
ٱ	-10.941
▁اڀياس	-10.941
▁معائنو	-10.941
▁موزون	-10.9411
▁مرحوم	-10.9412
▁ڏياريو	-10.9413
▁تنھنجو	-10.9414
▁مُرڪ	-10.9416
▁مرزا	-10.9417
▁نقشي	-10.9421
▁راني	-10.9425
▁بصري	-10.9429
▁پکين	-10.9429
▁رهائشي	-10.9432
▁ايمانداري	-10.9434
▁مٿاڇري	-10.9437
▁گمان	-10.9437
▁بحب	-10.9439
▁اشوف	-10.9441
▁موج	-10.9442
▁جري	-10.9448
▁آخرت	-10.9452
رررر	-10.9456
▁ګ	-10.9461
سوب	-10.9461
▁سائيٽون	-10.9463
▁ڀاڱي	-10.9471
▁ورهاڱي	-10.9472
▁كبير	-10.9481
▁ڳچي	-10.9481
▁وعد	-10.9481
▁بايو	-10.9488
▁پٺ	-10.9497
▁مروري	-10.9499
▁وڌندي	-10.9508
▁سٽا	-10.9511
▁معاك	-10.9521
▁تحس	-10.9532
▁جهل	-10.9533
▁ايڪسپريس	-10.9534
▁ريسٽورنٽ	-10.9534
▁سرانجام	-10.9534
▁ڪيليفورنيا	-10.9534
▁ڳنڍڻ	-10.9534
article	-10.9534
▁پروفائيل	-10.9534
▁خودڪشي	-10.9534
▁افعال	-10.9534
▁محشش	-10.9534
▁حفظ	-10.9536
ty	-10.9538
▁پرسيد	-10.9538
▁تعبير	-10.9538
▁وهڪري	-10.9539
▁طو	-10.9543
▁کائيندا	-10.9546
▁طالع	-10.9551
;	-10.9551
منهنجو	-10.9551
▁ايڪشن	-10.9555
▁زيد	-10.9568
▁ڄاڻايو	-10.9572
▁؟؟؟؟	-10.9579
▁هاڻوڪ	-10.9581
▁ڪشش	-10.9588
بيا	-10.959
▁بمبئي	-10.9596
▁وهڪرو	-10.9596
▁مؤمن	-10.9597
▁ھميش	-10.9597
▁ملهائي	-10.96
▁مقبوليت	-10.9601
▁ڦاٽ	-10.9602
▁روزانه	-10.9605
▁نوڪريون	-10.9606
تساب	-10.9607
▁×	-10.9609
▁لهج	-10.961
▁ترى	-10.9613
▁ڪيمرا	-10.9613
▁رهبري	-10.9614
▁اسد	-10.9617
▁سوئي	-10.9617
▁مولا	-10.9632
▁پروسيسر	-10.9636
▁سليم	-10.9636
▁فرمان	-10.9639
▁فكره	-10.9641
▁ثق	-10.9641
ton	-10.9643
▁ويجھو	-10.9644
▁حبيبي	-10.9646
ــــــــــــ	-10.9658
▁نامناسب	-10.9659
▁پرائيويٽ	-10.9659
▁ڊپارٽمينٽ	-10.9659
▁شيڊول	-10.9659
▁اوندهه	-10.9659
▁تصدق	-10.966
▁يزيد	-10.966
▁مڙي	-10.9661
▁غني	-10.9661
▁تحر	-10.9662
▁اڪيلائي	-10.9662
▁ذوق	-10.9663
▁نيز	-10.9663
▁←	-10.9664
▁يمه	-10.9667
▁نق	-10.9668
▁تعميراتي	-10.9668
▁آڻيندو	-10.9677
▁ڀاڳ	-10.9681
▁پالڻ	-10.9687
▁مارڪس	-10.9688
▁سڏج	-10.969
▁مرڪي	-10.9692
▁گريه	-10.9694
▁يعرف	-10.9698
▁لوهه	-10.9711
▁مُنهن	-10.9717
▁ايوان	-10.9719
▁پنجم	-10.972
▁small	-10.9722
▁فرنيچر	-10.9722
▁يادداشت	-10.9722
▁پروفيشنل	-10.9722
▁توليد	-10.9723
▁رهيب	-10.9723
▁پارچه	-10.9725
▁پيشينه	-10.9726
▁هٽائڻ	-10.9727
▁دانشور	-10.9727
pa	-10.9734
▁پٺي	-10.9737
▁ورق	-10.9742
▁ha	-10.9744
ـُـ	-10.9753
ٽار	-10.9756
▁حط	-10.9759
▁120	-10.9766
▁عيش	-10.9772
▁ڳل	-10.9777
▁ليپ	-10.9777
▁فيڊ	-10.9786
٥	-10.9786
▁محافظ	-10.9786
▁ٺهرايو	-10.9786
▁اعصاب	-10.9786
▁پيشگيري	-10.9786
▁ڪاسٽ	-10.9787
▁اڇي	-10.9788
▁اوور	-10.9789
▁هٽايو	-10.9791
▁ڊپٽي	-10.9794
▁نڪتا	-10.9796
▁مجيد	-10.98
▁مشكل	-10.98
ue	-10.9806
▁سمو	-10.9807
▁نوٽس	-10.9811
▁ويهه	-10.9812
▁هدايتون	-10.9813
▁الغ	-10.9814
▁عش	-10.9816
حنا	-10.9819
▁ذري	-10.9822
تِ	-10.9825
▁ڏھ	-10.9826
▁نثر	-10.9828
▁ڀاء	-10.9832
▁ڌرم	-10.9834
▁شاٽ	-10.9843
▁ڪنوار	-10.9843
▁بده	-10.9844
▁لوازمات	-10.985
▁عيسوي	-10.985
▁OEM	-10.9851
▁واجب	-10.9852
▁جھاز	-10.9855
▁ٻرندڙ	-10.9856
▁اسٽيڪ	-10.9858
▁هيڏ	-10.9863
▁We	-10.9863
▁سؤال	-10.9867
▁لالا	-10.9867
▁دک	-10.9871
▁پياده	-10.9875
صور	-10.9879
▁//	-10.9882
▁پابنديون	-10.9892
oti	-10.9896
▁پلانٽ	-10.9904
▁نادر	-10.9909
▁محمود	-10.9915
▁معذور	-10.9915
▁عروج	-10.9915
▁وڙهڻ	-10.9915
اطالوي	-10.9915
▁الحمد	-10.9916
▁عجبتني	-10.9916
▁كس	-10.9917
▁فاضي	-10.9918
▁ڪيٽ	-10.9919
▁مردم	-10.992
▁سينسر	-10.9927
▁څ	-10.9932
▁قومون	-10.994
اااااااا	-10.9946
▁هفتا	-10.9954
▁رائي	-10.9961
▁سنگين	-10.9961
▁ااااااا	-10.9963
▁كثر	-10.9966
▁ڊس	-10.9967
▁لڳڻ	-10.9973
وووووووو	-10.9974
▁ليول	-10.9977
▁اُٿ	-10.9979
▁شهنشاه	-10.998
▁عناصر	-10.998
▁مطلوب	-10.998
▁ڪامريڊ	-10.998
▁فرينچ	-10.998
▁ذائق	-10.9981
▁مزيدار	-10.9982
▁مولوي	-10.9985
▁جهت	-10.9986
▁فليش	-10.9986
▁جادوگر	-10.9987
▁are	-10.9991
▁چٽي	-10.9991
مره	-10.9992
▁فهمت	-10.9993
سائين	-10.9997
▁سوس	-10.9998
۸	-11
▁41	-11.0004
▁6-	-11.0006
▁ڪڪ	-11.0008
▁چڪ	-11.001
ڊنٽ	-11.001
▁بڻيو	-11.0013
▁دٻي	-11.0017
▁منطقي	-11.0018
▁روانا	-11.0021
▁سنڀاليند	-11.0023
▁بيڪار	-11.0026
▁250	-11.0028
بيل	-11.0028
▁گوش	-11.0029
▁كدا	-11.0029
▁ٽائي	-11.0031
▁لنگهي	-11.0035
▁چڱا	-11.0037
▁ڳائي	-11.004
▁فئڪٽري	-11.0045
▁ممتاز	-11.0045
▁طبيعي	-11.0046
▁پيشرفت	-11.0046
▁شاپنگ	-11.0051
▁درستگي	-11.0053
▁متحد	-11.0054
▁ذيلي	-11.0055
▁II	-11.0056
▁مُنهنج	-11.0057
▁تعب	-11.0057
▁ڇهي	-11.0059
▁موڪليا	-11.0059
▁سٽون	-11.0062
▁لح	-11.0065
▁برج	-11.0065
انگريزي	-11.0066
ائم	-11.0073
▁منهم	-11.0074
▁ورجا	-11.0075
▁ڦل	-11.0076
▁ٻَ	-11.0079
▁فش	-11.008
▁يبي	-11.0081
▁شش	-11.0081
▁ٺاهيا	-11.0085
▁ترڪيب	-11.009
▁معرفت	-11.0091
▁حرم	-11.0104
▁سيڪنڊن	-11.0105
▁پارسي	-11.0109
▁تاب	-11.011
▁ٽارگيٽ	-11.0111
▁ڍنڍ	-11.0111
▁لعنت	-11.0111
▁صلح	-11.0111
▁روبوٽ	-11.0111
▁هوسٽنگ	-11.0111
▁آزمائي	-11.0116
▁اعمل	-11.0117
▁pre	-11.0122
▁محتا	-11.0123
▁اسٽو	-11.0123
▁فولڊر	-11.0128
▁الرج	-11.0129
▁مڙن	-11.013
▁کاتو	-11.013
▁کائيندو	-11.0132
form	-11.0133
39	-11.0134
▁چؤ	-11.0135
▁سمهي	-11.0146
▁تحفو	-11.0154
▁مينيو	-11.016
▁محتاج	-11.016
tro	-11.0167
▁ولايت	-11.0177
▁Google	-11.0177
▁انسٽيٽيوٽ	-11.0177
▁خخخخخخخ	-11.0177
▁بشمول	-11.0177
▁تُنهنج	-11.0177
▁يخلي	-11.0177
▁مؤثر	-11.0177
▁مقدم	-11.0179
▁لاڳاپو	-11.0179
▁ta	-11.0179
▁دعائون	-11.0183
▁نهاريو	-11.0186
▁؟؟؟؟؟	-11.0193
▁:$	-11.0194
ئِي	-11.0195
١	-11.0199
۲	-11.0199
▁اسف	-11.0205
▁فوڊ	-11.0206
▁آڷ	-11.0209
▁56	-11.021
▁ڍڪ	-11.0214
▁77	-11.0215
▁ټ	-11.0228
▁بجا	-11.0238
▁اختر	-11.0239
▁Sh	-11.024
▁ميڪس	-11.0241
▁فرزند	-11.0244
▁لاڳاپ	-11.0247
▁ٿڌ	-11.0249
▁عدل	-11.0251
▁2005	-11.0251
ID	-11.0253
سنڌ	-11.0254
▁نصاب	-11.0257
▁ويهند	-11.0259
▁سوئچ	-11.026
جڏهن	-11.0266
وڌيڪ	-11.0266
▁باشد	-11.0267
▁شفته	-11.0271
▁رابط	-11.0274
▁پائ	-11.0274
▁دادو	-11.0276
▁اقل	-11.0282
▁گهرائي	-11.0282
▁اڻيو	-11.0283
▁زمانو	-11.0285
▁زياده	-11.0285
▁وائرل	-11.0295
ضيع	-11.0301
▁اتحادي	-11.0305
▁پراڊڪٽس	-11.031
▁اڱڻ	-11.0311
▁اهڙيء	-11.0313
▁انتى	-11.0313
▁نرس	-11.0317
▁ڀاڪر	-11.0318
▁ريپ	-11.0318
▁بچاءُ	-11.032
▁حڪمراني	-11.0321
▁چيائون	-11.0322
▁عق	-11.0324
ark	-11.0325
▁انڌي	-11.033
ion	-11.033
▁53	-11.0338
▁پرستي	-11.0345
▁اسپر	-11.0348
▁خذ	-11.0349
▁[1]	-11.0378
▁ٽيليفون	-11.0378
▁تصميم	-11.0378
▁مفهوم	-11.0378
▁پروٽين	-11.0379
دق	-11.0386
▁هفتو	-11.0387
▁نوعي	-11.0388
▁مدين	-11.0388
▁دانهن	-11.0389
▁صفر	-11.04
▁محب	-11.0402
SA	-11.0406
▁وليد	-11.0408
▁نفع	-11.0409
▁غار	-11.041
▁ڪوڙو	-11.0416
ld	-11.0417
▁ڪوڙي	-11.0421
▁مغل	-11.0422
▁هٽائي	-11.0433
▁وجهڻ	-11.0434
ort	-11.0437
ۍ	-11.0446
▁Bitcoin	-11.0446
▁پائوڊر	-11.0446
▁سفيد	-11.0447
▁بغداد	-11.0447
▁ڊيوٽي	-11.0447
▁پٺتي	-11.045
▁نڪرندو	-11.0453
▁مسڪرا	-11.0458
▁مياد	-11.0463
▁جدول	-11.0465
han	-11.0466
ical	-11.0468
▁واسي	-11.0469
▁عج	-11.047
▁ورجن	-11.0476
▁وساريو	-11.0476
▁قصه	-11.0477
▁گويد	-11.0479
AR	-11.0492
▁عجبني	-11.0493
▁تعين	-11.0495
▁حتي	-11.05
▁اثرائت	-11.0504
▁57	-11.0506
▁نفسيات	-11.0512
▁اپوزيشن	-11.0515
▁باضابطه	-11.0515
▁نمونن	-11.0519
▁سازمان	-11.0519
▁هِت	-11.0521
▁کاڌا	-11.0522
▁هنگام	-11.0523
rd	-11.0525
▁درجا	-11.0527
▁پيسٽ	-11.0528
▁روڪ	-11.0534
▁صورة	-11.0555
▁نداري	-11.0557
▁ڪروم	-11.0571
▁نيڪي	-11.0579
شارك	-11.0579
▁انڪشاف	-11.0584
▁اتوقع	-11.0584
▁فائبر	-11.0584
▁انحصار	-11.0584
▁ڪينيڊا	-11.0584
▁انڊيڪس	-11.0584
▁سرزمين	-11.0584
▁قسط	-11.0584
▁دفتر	-11.0584
خاف	-11.0585
▁ٺهڻ	-11.0585
▁محفل	-11.0586
▁لعب	-11.0587
▁To	-11.0589
▁هفتيوار	-11.0591
نائب	-11.0592
▁خالق	-11.0592
▁عندنا	-11.0593
▁ڌنڌو	-11.0597
▁ھار	-11.0599
▁عملدار	-11.06
▁فونز	-11.0601
ساعد	-11.0602
▁ٽاور	-11.0602
▁مبين	-11.0604
▁لهم	-11.0607
▁اكبر	-11.0609
▁سيف	-11.0616
▁ڳڻپ	-11.062
▁ڏج	-11.0632
▁Ne	-11.0633
كثر	-11.0634
▁اااااااا	-11.0634
▁کنيد	-11.0635
▁رسالت	-11.0635
▁دوستان	-11.0636
▁وارڊ	-11.0639
▁ڀنگ	-11.064
▁مهند	-11.0651
▁گياهي	-11.0653
▁هندوستان	-11.0656
▁زيارت	-11.0657
▁2006	-11.0659
▁وکر	-11.0659
▁مطلق	-11.0661
▁مالياتي	-11.0662
▁جنب	-11.0663
▁پیش	-11.0663
▁مدني	-11.0664
▁Mau	-11.0664
▁نكته	-11.0667
▁آرامده	-11.0668
▁توان	-11.0668
▁دارد	-11.0668
▁[/	-11.067
▁انتظر	-11.0671
▁رچ	-11.0673
vo	-11.0685
نتظر	-11.0692
▁مسوي	-11.0694
37	-11.0703
▁مقابل	-11.0713
▁sa	-11.0715
▁سانچو	-11.072
️	-11.0723
▁اٿارٽي	-11.0723
▁سامعين	-11.0723
▁مشرقي	-11.0723
▁هئم	-11.0724
▁اقليت	-11.0728
▁600	-11.0736
▁گشت	-11.0739
▁ڪاش	-11.0741
۵	-11.0749
▁wh	-11.0749
يريا	-11.0749
▁خش	-11.0753
▁وفي	-11.0756
ile	-11.0759
dy	-11.0759
▁لائنز	-11.0762
▁86	-11.0765
▁ٻيلي	-11.0766
▁اينديون	-11.0771
▁اااااااااا	-11.0776
sion	-11.0776
▁اكس	-11.0779
▁58	-11.0779
port	-11.0782
▁ويجه	-11.0786
ـَـ	-11.0787
ya	-11.0792
▁مشكله	-11.0793
▁پاڙيسري	-11.0794
▁اوٽ	-11.0795
▁تجديد	-11.0795
▁آگهي	-11.0796
▁ٽوڙڻ	-11.0797
▁موسميات	-11.0798
ary	-11.0799
▁باقاعد	-11.0801
$	-11.0802
▁زار	-11.0803
▁وڃايو	-11.0813
▁مهدي	-11.0816
▁ڏيڍ	-11.0822
▁sc	-11.0825
▁تارا	-11.0827
▁fl	-11.0831
▁قربان	-11.0836
▁پنجاه	-11.0838
▁52	-11.0838
▁سرمائي	-11.0844
▁59	-11.0846
ong	-11.0846
▁ڪمانڊ	-11.086
▁گام	-11.086
ि	-11.0865
▁بصراحه	-11.0865
▁بنگلاديش	-11.0865
▁1990	-11.0865
▁برگزاري	-11.0865
▁عظمت	-11.0865
▁ڇرڪ	-11.0871
▁ڏيارڻ	-11.0873
▁can	-11.0874
مثل	-11.0884
▁بخير	-11.0888
▁افق	-11.0902
▁ڏيهه	-11.0903
▁51	-11.0903
▁comp	-11.0905
▁سعد	-11.0917
▁ڪبي	-11.0918
▁جارج	-11.0935
▁Mehm	-11.0936
٤	-11.0936
▁شموليت	-11.0936
▁لاطيني	-11.0936
▁متوقع	-11.0936
▁ڌماڪي	-11.0936
▁صحتيابي	-11.0936
▁پرورش	-11.0938
▁جمهور	-11.094
ish	-11.094
▁گھوڙ	-11.0942
جائز	-11.0943
▁ويهاري	-11.0946
▁تسوي	-11.0946
AT	-11.0948
af	-11.0956
▁بيڊ	-11.0963
▁گھربل	-11.0967
▁اكتب	-11.097
▁ويھ	-11.0975
▁وحي	-11.0975
▁گهڻائي	-11.0982
▁احلام	-11.0984
▁پسر	-11.0986
▁ٽنهي	-11.0987
▁پريم	-11.0989
▁مايوسي	-11.0994
▁دستور	-11.0996
▁66	-11.0997
▁ليبل	-11.0998
▁Li	-11.1
▁جنوب	-11.1002
▁هڙتال	-11.1008
▁ٺاھڻ	-11.1008
منتديات	-11.1008
▁آگاهه	-11.1008
▁البنات	-11.1009
▁پرچم	-11.1009
منصوبابندي	-11.101
تمنى	-11.101
▁روعه	-11.1011
▁تُ	-11.1013
▁ڷ	-11.1016
▁حاجة	-11.1016
ca	-11.1018
▁پيمان	-11.1018
▁ريئل	-11.1018
▁اسئل	-11.1019
▁بڻيل	-11.102
▁ٻٽي	-11.103
▁٢	-11.1035
▁نيت	-11.1035
ځ	-11.1035
▁داغ	-11.1037
▁ملائڻ	-11.1038
▁78	-11.1041
▁مرسي	-11.1041
▁چئ	-11.1049
▁go	-11.1056
▁ھوندا	-11.1062
▁چاھي	-11.1063
▁فرش	-11.1072
▁ريش	-11.1075
▁رومي	-11.1077
▁خار	-11.1078
▁آڌار	-11.1081
▁ڄاتو	-11.1081
▁قرارداد	-11.1082
▁انواع	-11.1083
lana	-11.1084
▁ئه	-11.1085
گرافڪ	-11.1086
▁ڪٺ	-11.1087
▁ڀينر	-11.1087
▁طلعت	-11.1087
▁طويل	-11.1087
▁ڏوھ	-11.1095
▁سيکاري	-11.1098
▁ماعند	-11.1099
▁چمي	-11.1102
▁لکان	-11.1104
▁حنا	-11.1106
▁اڻڻ	-11.1109
▁پَر	-11.1115
▁ڪلهي	-11.1116
▁بدنام	-11.1119
▁ڇانو	-11.1127
▁ايوب	-11.1129
▁محور	-11.1136
▁ويد	-11.114
▁فورس	-11.1144
▁ڪلپ	-11.1147
▁Taj	-11.1153
▁انگليسي	-11.1153
▁اوطاق	-11.1153
▁بائبل	-11.1153
▁ملائڪ	-11.1153
▁Amr	-11.1154
▁يوڪرين	-11.1154
▁آفريق	-11.1154
▁۲۰	-11.1155
▁دعوا	-11.1155
▁وڇوڙ	-11.1155
▁راشد	-11.1155
بغى	-11.1162
▁راتيون	-11.1165
▁زيادتي	-11.1166
▁منصور	-11.1166
▁فيسبو	-11.1169
▁حيدر	-11.1172
▁بيچ	-11.1174
▁گهرايو	-11.118
▁گونج	-11.1183
▁مسك	-11.1183
34	-11.1184
▁بيدار	-11.119
▁فوق	-11.1196
▁ريان	-11.1196
▁واڪ	-11.1196
▁يصير	-11.1196
▁آڻيو	-11.1203
▁مڇ	-11.1204
▁ادو	-11.1205
▁نظريه	-11.1213
▁1,	-11.1216
▁رولر	-11.1222
▁دوک	-11.1226
▁مبارڪون	-11.1227
▁اجتماعي	-11.1227
▁ذهانت	-11.1227
▁فلسفو	-11.1227
▁حڪيم	-11.1227
▁ڌوئڻ	-11.1228
▁ريفري	-11.1228
▁يڪدم	-11.1229
▁>>>>	-11.1229
▁پرسش	-11.1233
▁جوسينو	-11.1233
▁ارادي	-11.1233
▁سگھندا	-11.1239
▁GB	-11.1241
▁اُٺ	-11.1242
▁ers	-11.1242
▁آگ	-11.1244
▁op	-11.1246
لوڊ	-11.1247
▁Sp	-11.1253
▁سلمان	-11.1253
▁بندش	-11.1275
▁سنجي	-11.1281
▁پڇند	-11.1283
▁69	-11.1285
▁آتم	-11.1286
▁ضر	-11.1287
▁آفت	-11.1289
▁الكل	-11.1291
▁ڌمڪي	-11.1301
▁قائد	-11.1301
▁ايپليڪيشنون	-11.1302
▁اللعب	-11.1302
▁ظرف	-11.1303
▁جهنگلي	-11.1307
▁ايڪو	-11.1309
▁مٿاه	-11.1315
▁الخط	-11.1318
▁ڍڪي	-11.1318
▁قصو	-11.1326
▁سيکاريو	-11.1327
▁96	-11.133
▁ميگا	-11.133
▁79	-11.134
▁%	-11.134
▁ربنا	-11.1341
فارميشن	-11.1344
ons	-11.1346
شتر	-11.1347
▁اڇا	-11.1348
▁ريگ	-11.1352
▁حاجه	-11.1362
▁گرل	-11.137
▁ردعمل	-11.1376
▁تعصب	-11.1376
▁عاجز	-11.1376
▁فساد	-11.1376
▁لمحن	-11.1376
▁ڊرائ	-11.1377
▁پنهون	-11.1378
▁ثانيه	-11.1379
يمڪس	-11.1385
▁مث	-11.1386
36	-11.1395
▁ڀاتي	-11.1398
ڪنھن	-11.1407
▁پِر	-11.1415
▁معلم	-11.1416
قعد	-11.1416
▁اُڏ	-11.1417
▁بالله	-11.142
▁اسڪر	-11.1423
fa	-11.1428
▁آلات	-11.1437
▁دروازا	-11.1441
▁چاڙهي	-11.1444
▁گهوٽ	-11.145
▁الوداع	-11.1451
▁پيچيدگي	-11.1451
▁دانلود	-11.1451
▁خخخ	-11.1451
▁able	-11.1451
▁پڇيائين	-11.1453
▁more	-11.1453
▁One	-11.1453
out	-11.1454
▁وڇڙ	-11.1455
▁الشر	-11.1457
▁سخن	-11.1459
▁مض	-11.1462
▁جگر	-11.1462
▁نداره	-11.1462
old	-11.1465
▁رزق	-11.1469
▁مشينري	-11.1469
▁pb	-11.1477
^	-11.1481
▁76	-11.149
▁ڪُل	-11.1495
▁رانديڪ	-11.1497
▁سورج	-11.1507
▁مودي	-11.1515
▁ترجمي	-11.1519
٦	-11.1527
▁اً	-11.1527
▁ڊار	-11.153
▁لپ	-11.1531
▁اڪبر	-11.1532
▁وفاق	-11.1536
▁مشرف	-11.1538
▁كريم	-11.154
▁صفت	-11.1546
▁800	-11.1546
▁راجع	-11.1556
▁ڇوڪريون	-11.1558
▁لقب	-11.1558
▁تعال	-11.1559
▁خليف	-11.1563
▁ڄاڻندا	-11.1565
▁لالچ	-11.157
▁ڪوئل	-11.158
ence	-11.1584
▁كار	-11.1587
▁صلاحيتون	-11.1587
▁شهد	-11.159
▁رھڻ	-11.1599
क	-11.1603
▁الحق	-11.1603
▁اسڪاٽ	-11.1604
▁پراڻا	-11.1605
▁ڏٺائين	-11.1606
▁تاثير	-11.1607
▁دٻايو	-11.1607
▁بيهڻ	-11.1611
▁تعيش	-11.1613
▁وائس	-11.1615
▁54	-11.1618
▁سهڻا	-11.1625
▁اجه	-11.1627
▁بعرف	-11.1628
▁ڳوله	-11.1633
▁بأ	-11.1638
▁سرمايو	-11.1666
▁كلنا	-11.167
▁Lo	-11.1673
▁سوئ	-11.1673
▁فريب	-11.1674
omi	-11.1679
▁مشھور	-11.168
▁سفير	-11.168
▁رهان	-11.1681
ash	-11.1684
▁مجسم	-11.1684
ذآ	-11.1695
▁آفريڪ	-11.1702
▁هلايو	-11.1707
ڪڻڪ	-11.1709
▁يونس	-11.1709
▁الحر	-11.171
ix	-11.1714
▁سوير	-11.1723
▁عقيدت	-11.1724
▁ڇٽ	-11.174
▁سِر	-11.1743
▁ڪجه	-11.1743
▁اسٽينڊ	-11.1746
▁اوليه	-11.1747
▁ٻل	-11.1754
▁عشر	-11.1756
▁سائو	-11.1757
▁محصول	-11.1757
▁ڪسٽمائيز	-11.1757
▁اُميد	-11.1757
land	-11.1757
▁گمراه	-11.1758
▁سجاڳ	-11.1758
▁سگھجن	-11.1759
▁پوڄا	-11.1762
▁وڪڻڻ	-11.1776
▁گھٽائڻ	-11.1777
▁ورڇ	-11.1782
▁زيبا	-11.1784
▁زاد	-11.1789
▁نواب	-11.1789
▁فيض	-11.1801
▁بدلو	-11.1804
▁ڪُجه	-11.1807
▁لڳس	-11.1807
ـــــــــــــ	-11.1809
▁انشاء	-11.1814
au	-11.1815
▁لسه	-11.1815
▁ڄار	-11.1825
▁شارٽ	-11.1825
▁Windows	-11.1836
▁connect	-11.1836
▁فلسفه	-11.1836
▁صغير	-11.1836
▁اڳواٽ	-11.1836
▁لڙائي	-11.1836
▁المللي	-11.1836
▁دقيق	-11.1837
▁ميگه	-11.1839
▁مورد	-11.1841
▁2004	-11.1844
▁بخت	-11.1844
▁سمجهند	-11.185
▁همراه	-11.1851
گرد	-11.1852
▁۹	-11.1856
▁لانه	-11.1856
▁Th	-11.1859
▁نوح	-11.1861
▁پی	-11.1862
▁CO	-11.1864
▁چهر	-11.1866
▁بلبل	-11.1866
▁لکندا	-11.1875
▁سمجھو	-11.1888
ב	-11.1914
▁امتياز	-11.1914
▁ايڊريس	-11.1914
▁جانبدار	-11.1914
ls	-11.1915
▁ويڙهاڪ	-11.1916
▁پڄاڻي	-11.1918
▁ندارد	-11.1918
▁inter	-11.1919
▁خواست	-11.1922
▁ليبر	-11.1922
▁جڙ	-11.1929
▁63	-11.1934
gen	-11.1939
▁چاليه	-11.1943
▁آيه	-11.1943
▁خريدار	-11.1944
▁ٻارڙا	-11.1944
▁وكل	-11.1945
۴	-11.1949
توکي	-11.1957
▁کنيا	-11.1959
▁نقد	-11.1972
▁خطير	-11.1973
▁جدائي	-11.198
▁استقبال	-11.1994
▁گريجوئيشن	-11.1994
▁جرئت	-11.1994
▁يقطع	-11.1994
▁ثواب	-11.1994
▁<<<<	-11.1994
▁هيهيهي	-11.1994
▁ورهايو	-11.1995
▁خواهشمند	-11.1996
▁خيرات	-11.1996
▁آفتاب	-11.1998
▁حبيبتي	-11.2001
▁چيلهه	-11.2001
ator	-11.2005
▁ميٽرڪ	-11.2015
ze	-11.2017
▁حلوين	-11.2042
▁ڏنڊ	-11.2061
▁چڱيء	-11.2062
▁سُور	-11.2068
ڛ	-11.2074
▁السعودي	-11.2074
▁سڪندر	-11.2074
▁اسڪرپٽ	-11.2074
▁ڪراس	-11.2076
▁لبنان	-11.2076
▁ميموري	-11.2078
▁سگهنداسين	-11.2079
▁ناقص	-11.2082
▁ساراهه	-11.2086
▁الصورة	-11.2087
▁tr	-11.2089
▁وسار	-11.2091
▁08	-11.2094
▁مانيٽر	-11.2094
▁67	-11.2096
▁سڃاڻڻ	-11.2099
▁ائپس	-11.2111
▁الاهي	-11.2114
دعي	-11.2116
▁گذاريند	-11.2118
سڪي	-11.2124
▁خدائي	-11.2129
▁لٺ	-11.2137
▁ڪيچ	-11.2137
▁ئِي	-11.2138
ose	-11.2139
▁شاد	-11.2139
خرج	-11.214
پوءِ	-11.2143
▁پيرام	-11.2151
▁مباحث	-11.2154
▁مترجم	-11.2154
="0.1	-11.2154
▁ٺاھيو	-11.2154
▁مبروك	-11.2154
▁پينٽ	-11.2155
▁البنت	-11.2156
▁ٽيڪنڪ	-11.2158
▁ذهب	-11.2161
خدا	-11.2161
:00	-11.2162
▁مجاز	-11.2168
▁زنان	-11.2175
▁سلوڪ	-11.2182
▁وائر	-11.2184
▁97	-11.2189
▁Br	-11.2189
▁ٽئ	-11.2204
▁برادر	-11.2208
▁سيٺ	-11.2213
ah	-11.2219
▁ترجم	-11.222
▁هيرن	-11.222
▁اوپر	-11.2224
▁ڊگه	-11.2227
▁فديت	-11.2232
ba	-11.2233
é	-11.2236
न	-11.2236
▁ايڪسچينج	-11.2236
▁ريپبلڪ	-11.2236
▁اوباما	-11.2236
▁هارڊويئر	-11.2236
▁ڪئلينڊر	-11.2236
▁پرتگال	-11.2236
▁العافيه	-11.2236
▁پائونڊ	-11.2242
▁يوزر	-11.225
▁رڳ	-11.225
▁سياح	-11.2253
▁ver	-11.227
▁ٻڌائيندو	-11.2271
▁شاف	-11.2271
▁7-	-11.2272
•	-11.2273
▁لحظه	-11.2275
▁تعلم	-11.2276
جج	-11.2279
▁پريان	-11.2282
▁bl	-11.2287
▁مريد	-11.2294
▁رنج	-11.2294
▁پروگرامنگ	-11.2297
▁تست	-11.2301
دفع	-11.2304
▁چُڪ	-11.2308
▁per	-11.2309
▁حياتيات	-11.2313
▁سرٽيفڪيشن	-11.2318
▁رومانوي	-11.2318
▁ٿلهي	-11.2318
▁ايٽمي	-11.2318
▁برانچ	-11.2318
▁ببين	-11.2323
▁ڀاڄ	-11.2323
▁Ar	-11.2324
▁پاڻيء	-11.2326
▁مصروفيت	-11.2327
▁جھلي	-11.2346
▁ميگن	-11.2347
▁واش	-11.2353
▁Bo	-11.2369
▁کائو	-11.2375
▁تلاء	-11.2382
صار	-11.2383
▁غيب	-11.2394
صلي	-11.2398
▁ڇڪتاڻ	-11.24
▁ڀاڱو	-11.24
ire	-11.24
▁ابليس	-11.24
▁درٻار	-11.24
▁پندره	-11.2401
▁ٽنڊو	-11.2401
▁(5)	-11.2401
كبر	-11.2404
▁بيض	-11.2406
▁ڇڏيائين	-11.2414
▁ساعت	-11.2419
▁فرشت	-11.242
▁188	-11.2425
▁ٺاهيندا	-11.2432
▁En	-11.2436
▁ڀاڻ	-11.2438
▁رايو	-11.2445
▁ساھ	-11.245
▁جند	-11.2456
▁ايماندار	-11.2466
▁انضمام	-11.2484
▁دارومدار	-11.2484
❤	-11.2484
▁مذمت	-11.2484
▁عيوض	-11.2484
▁اسرار	-11.2484
▁ليڪچر	-11.2485
▁پکسل	-11.2485
▁ڪارائتو	-11.2485
▁ايڪسڪسڪس	-11.2487
wei	-11.2495
▁مباني	-11.2496
▁ٽريڊ	-11.2501
new	-11.2502
▁يارب	-11.2502
▁حاج	-11.2502
طبخ	-11.2506
▁٣	-11.2506
▁پھريان	-11.2507
▁ملاح	-11.2512
▁حلووو	-11.2522
ئنڊ	-11.254
▁Un	-11.2546
▁پروف	-11.2556
▁For	-11.2564
▁سوئٽزرلينڊ	-11.2568
▁ورثي	-11.2568
lt	-11.2569
▁62	-11.2571
01	-11.2571
▁ter	-11.2575
▁آئر	-11.2578
▁2001	-11.258
▁سمعت	-11.258
▁صدم	-11.2582
▁دھ	-11.2584
عجبني	-11.2586
▁سرماي	-11.2587
▁سربراه	-11.2589
▁رايا	-11.2596
▁قار	-11.2604
▁68	-11.2605
▁ملئي	-11.2606
▁قالت	-11.2607
▁ڇپج	-11.261
▁ڳائيند	-11.2611
TE	-11.2614
▁مڙهي	-11.2615
▁ڏاڍ	-11.2616
سوع	-11.2633
▁قلبك	-11.2636
▁مارئي	-11.2636
go	-11.2636
▁سايت	-11.2648
▁مظلوم	-11.2652
▁منتظم	-11.2652
▁اجزاء	-11.2652
▁ڏاڪڻ	-11.2652
▁چاچا	-11.2652
▁ملهائڻ	-11.2653
▁آزمون	-11.2653
▁آلودگي	-11.2653
▁تابعداري	-11.2654
▁پروموشن	-11.2654
▁مارش	-11.2655
▁ٿانو	-11.2657
▁فروش	-11.2659
▁نڪتي	-11.2669
▁سادگي	-11.2669
▁اُج	-11.2687
▁پشت	-11.2688
▁سانوڻ	-11.2692
ائق	-11.2694
▁ڳالهائيندڙ	-11.27
▁دوائون	-11.27
▁ڏکيائي	-11.2706
▁نير	-11.2708
▁ٽيڪسٽ	-11.2714
▁هيڪر	-11.2731
٩	-11.2738
▁اڳڀرائي	-11.2738
▁پروٽوڪول	-11.2738
قرأ	-11.2738
▁مواضيع	-11.2738
▁اسڪوٽر	-11.2738
▁ثانوي	-11.2738
▁پارٽنر	-11.2738
▁ايلومين	-11.2738
▁دائرو	-11.2738
▁درباره	-11.2738
▁مصنف	-11.2738
▁آآآآ	-11.274
مفروض	-11.274
▁ضحكتني	-11.2747
پيٽ	-11.2751
▁افضل	-11.2754
▁الوقت	-11.2756
▁نانءُ	-11.2758
ath	-11.2759
▁گدا	-11.2773
▁ھِ	-11.279
▁ميزان	-11.2796
▁Qu	-11.2806
▁بيٽا	-11.2808
▁گُل	-11.2809
▁مرگ	-11.2812
ance	-11.2817
▁حكم	-11.2821
▁آڪسيجن	-11.2824
▁پوئلڳ	-11.2824
▁آسٽريا	-11.2824
▁لمحو	-11.2824
▁مٺو	-11.2826
▁پيراهن	-11.2826
▁ايدك	-11.2827
▁مميز	-11.2828
ness	-11.283
▁مهربان	-11.2831
▁پرويز	-11.2832
▁پريشر	-11.2834
▁ٽوپي	-11.2836
▁اسپام	-11.2839
▁ناٽڪ	-11.284
▁ڳر	-11.2842
▁ارجو	-11.2842
▁چنيس	-11.2847
▁يحب	-11.2852
ome	-11.2856
▁ھم	-11.2863
اختيار	-11.2866
آءٌ	-11.2866
▁Bu	-11.2873
▁دانش	-11.288
▁سجيل	-11.2888
▁لڄ	-11.2889
▁ميليون	-11.289
▁ترجمه	-11.2892
▁92	-11.2893
▁01	-11.2911
▁نوٽيفڪيشن	-11.2911
▁استعيف	-11.2911
▁بااثر	-11.2911
▁تفسير	-11.2911
▁اينجلس	-11.2911
▁شريعت	-11.2911
▁رابرٽ	-11.2911
▁چوڏه	-11.2911
▁1980	-11.2914
▁Tr	-11.2916
▁مدو	-11.2917
▁سهيل	-11.2919
▁گهاٽ	-11.292
▁Vi	-11.2927
▁پنڊ	-11.2932
▁پريميئ	-11.2932
صيب	-11.2936
▁ڄمڻ	-11.294
ors	-11.2941
▁سنوار	-11.2945
▁وينداسين	-11.2959
▁يطلع	-11.296
▁فاصلو	-11.2962
▁ڇُ	-11.2969
▁۸	-11.2971
man	-11.2972
▁str	-11.2984
▁اريد	-11.2988
▁رابطه	-11.2994
▁اقتباس	-11.2999
▁مائڪروسافٽ	-11.2999
▁ممبئي	-11.2999
▁تعميل	-11.2999
▁آئرلينڊ	-11.2999
▁ڪئپٽ	-11.3001
▁رضاڪار	-11.3001
eng	-11.3005
▁پراڻن	-11.3006
▁نيڪال	-11.3007
▁رڙيون	-11.3009
▁علشا	-11.3009
▁مشاهد	-11.3018
▁ٿڪج	-11.3019
▁سڌري	-11.3025
q	-11.3026
▁روئند	-11.3026
▁پڇيم	-11.303
="6	-11.3036
▁براڊ	-11.3038
▁لنگه	-11.3038
▁ڇپيو	-11.304
▁ملٽي	-11.304
▁ڀرتي	-11.3042
▁189	-11.3044
▁کَ	-11.3046
▁بكل	-11.3052
▁دوائ	-11.3054
▁كلكم	-11.3056
▁سُک	-11.3058
▁نگران	-11.3059
▁ڳولها	-11.3065
▁ٽچ	-11.3065
▁ڪمپنيء	-11.3066
▁توتي	-11.3072
▁موٽائي	-11.3073
▁چی	-11.3086
▁ISO	-11.3087
▁ويجهڙائي	-11.3087
▁زاهد	-11.3087
▁گارنٽي	-11.3087
▁اھڙو	-11.3087
▁گواهي	-11.3087
▁Zone	-11.3088
▁گرائونڊ	-11.3089
▁اسٽائل	-11.309
▁ڏاڙهي	-11.309
▁جميع	-11.3091
▁سائبر	-11.3091
▁100%	-11.3091
▁حامل	-11.3094
▁عندكم	-11.31
▁نواف	-11.3101
we	-11.311
▁قياس	-11.3111
▁كلش	-11.3113
على	-11.312
▁خوار	-11.3122
▁ميوو	-11.3125
مولانا	-11.3131
▁عاش	-11.3155
▁ڇوڙ	-11.3156
ترين	-11.3158
▁سندر	-11.3159
▁معكم	-11.3164
▁کانسواء	-11.317
▁ڪيڏا	-11.3171
day	-11.3173
▁ويژگي	-11.3176
▁1947	-11.3176
▁الثاني	-11.3176
▁دائود	-11.3176
www	-11.3176
▁مرتضي	-11.3176
▁دلڪش	-11.3177
قى	-11.3177
▁ملاحظ	-11.3178
▁بنگال	-11.3179
▁ضبط	-11.3179
▁تصوف	-11.3179
▁وفد	-11.318
اڪت	-11.3185
▁جبهه	-11.3188
أأ	-11.3189
▁ڊوڙندو	-11.3191
▁لڳندا	-11.3197
▁سوچيم	-11.3199
vel	-11.3205
▁exp	-11.3205
▁گال	-11.321
▁فرياد	-11.3212
<	-11.3216
▁ڀور	-11.3227
▁کج	-11.3233
▁Mac	-11.3237
▁تمنا	-11.324
خلص	-11.3254
ڹ	-11.3267
▁آپگهات	-11.3267
▁اسڪالرشپ	-11.3267
▁مخاطب	-11.3267
▁نامعلوم	-11.3267
▁وظيف	-11.3267
▁ويلڊنگ	-11.3267
▁راغب	-11.3267
▁چڙهڻ	-11.3267
▁وحدة	-11.3267
▁ورهايل	-11.3267
▁ھزار	-11.3267
▁روعة	-11.3267
▁هٿياربند	-11.3267
▁لاچار	-11.3267
▁شفقت	-11.3268
▁کڻندا	-11.3268
▁لمحي	-11.327
▁اسكت	-11.3271
▁منصوب	-11.3279
▁حمد	-11.3281
▁جلال	-11.3285
▁افهم	-11.3295
▁شهور	-11.3301
▁جاندار	-11.3302
▁انٽيل	-11.3302
▁حبيت	-11.3303
▁ريشم	-11.3306
ماتحت	-11.3315
▁ويجھ	-11.3315
▁سائز	-11.332
▁رگ	-11.3323
80	-11.3324
فض	-11.3332
پوليٽ	-11.3346
▁حُ	-11.3347
▁ملاك	-11.3349
▁1970	-11.3357
▁Instagram	-11.3357
▁مخدوم	-11.3357
▁ڌاڙيل	-11.3357
▁پيشنهاد	-11.3358
▁کتاب	-11.3358
▁over	-11.3358
▁مهانگو	-11.3358
▁گهيرو	-11.3358
▁فڪس	-11.3359
▁بيٽنگ	-11.3359
▁گھم	-11.336
▁شمس	-11.336
▁آرزو	-11.336
▁ٺهڪ	-11.3364
▁2002	-11.3372
▁نصف	-11.338
▁تدريس	-11.3381
▁عقب	-11.3388
▁1.1	-11.3396
▁ڏنگ	-11.3402
▁ساک	-11.3404
▁ملايو	-11.3417
سوفٽ	-11.3425
ana	-11.3426
▁ذرا	-11.3436
▁سعود	-11.3445
▁استحصال	-11.3449
▁خورشيد	-11.3449
▁ورڪشاپ	-11.3449
▁ڇنڇر	-11.3449
▁ايجنڊا	-11.3449
▁ڊپريشن	-11.3449
▁ڪھڙو	-11.3449
▁چاٻي	-11.3449
▁دختر	-11.345
▁وآله	-11.345
▁طارق	-11.345
▁هيئت	-11.345
▁قبرستان	-11.3452
▁تجسس	-11.3452
▁ابتڙ	-11.3458
▁ولله	-11.346
▁کامل	-11.3462
▁معاهد	-11.3463
▁تاكل	-11.3466
que	-11.347
▁مشعل	-11.3474
▁ڏسندڙ	-11.3483
▁فجر	-11.3484
جاگر	-11.3486
▁ڇڏيندس	-11.3486
▁جناح	-11.3491
▁گيج	-11.3496
ڪشش	-11.3498
▁واعد	-11.3498
▁ميئر	-11.35
▁out	-11.3508
▁SD	-11.3514
▁گفتم	-11.352
▁پروڊڪٽ	-11.3522
▁74	-11.3523
orn	-11.3535
▁جمعيت	-11.3537
▁لينس	-11.3537
▁ٽرانزيڪشن	-11.3542
▁معذرت	-11.3542
rtech	-11.3542
▁تجربه	-11.3542
▁فضول	-11.3542
▁ڍانچ	-11.3542
▁پناهگير	-11.3543
▁لغت	-11.3543
▁بيشمار	-11.3544
▁وٺان	-11.3545
▁اظن	-11.3546
▁لٿو	-11.3547
▁طبقاتي	-11.3549
▁9-	-11.3549
▁ٽائيپ	-11.355
▁گرجا	-11.3551
▁آئس	-11.3565
▁فعاليت	-11.3566
▁قهر	-11.3571
سلط	-11.3582
قانوني	-11.359
لحين	-11.3609
▁نصير	-11.3613
▁جهاد	-11.3614
▁سارنگ	-11.3614
▁مقدر	-11.3618
▁ٽريو	-11.3622
▁ڦڙ	-11.3625
▁نائين	-11.3631
▁سفارت	-11.3635
स	-11.3635
▁😂😂	-11.3635
▁ڪھاڻي	-11.3635
▁ڏٺل	-11.3635
▁تبادل	-11.3636
▁چيومانس	-11.3636
▁مُلڪ	-11.3636
▁٢٠	-11.3636
▁نميشه	-11.3636
▁مزاحيه	-11.3638
▁اخير	-11.3639
▁قاسم	-11.3639
▁مارٽن	-11.3644
▁لقيت	-11.3647
▁خواج	-11.3648
▁مبني	-11.3648
▁ڏڪار	-11.3652
RO	-11.3664
▁سرڪٽ	-11.3666
▁مقا	-11.367
▁چونڊجي	-11.3679
▁ڪوٽنگ	-11.3683
▁مرچ	-11.3686
▁ادم	-11.3691
جوش	-11.3692
▁اچار	-11.3696
▁Hua	-11.37
▁توبه	-11.3715
US	-11.3718
ET	-11.3729
▁ايگزيڪي	-11.373
▁چوڌري	-11.373
▁پورهيو	-11.373
▁آرشيو	-11.373
▁ڏکوئي	-11.373
▁مجرم	-11.3731
▁جرنل	-11.3733
▁ورتائين	-11.3734
▁نقاب	-11.3734
▁وراڻي	-11.3735
▁اسپيس	-11.3736
▁انجيل	-11.3744
▁پهچندي	-11.3745
▁تدري	-11.3745
▁مومن	-11.3747
▁ڪپهه	-11.3753
▁ميٽنگ	-11.3761
ium	-11.3769
▁روئ	-11.377
▁ياليت	-11.3774
▁89	-11.3779
▁اِھ	-11.3779
▁ٿاڻي	-11.3796
▁متى	-11.3809
▁شلون	-11.381
▁93	-11.3816
▁^_^	-11.3825
▁سرپرست	-11.3825
▁بصيرت	-11.3825
▁كدة	-11.3825
▁محرم	-11.3825
▁كأن	-11.3826
▁پلاٽ	-11.3827
▁هولڊر	-11.3827
پاسي	-11.383
▁مٽائڻ	-11.3833
▁ورجائي	-11.3839
▁اقرار	-11.3841
▁ٽِ	-11.3847
▁پڙهائ	-11.3863
▁05	-11.3865
▁فاني	-11.3866
▁نقص	-11.3866
RE	-11.3871
▁ڊرائيونگ	-11.3873
▁180	-11.3883
فضل	-11.3884
▁أهم	-11.3898
ااااااااااا	-11.3899
ally	-11.39
▁جھان	-11.3901
▁آسانيء	-11.3904
▁آغا	-11.3907
هنجي	-11.3917
ڃاڻ	-11.3919
▁شنگھائي	-11.3921
▁ويژه	-11.3921
▁پکڙج	-11.3921
▁جاسوس	-11.3922
▁مركز	-11.3922
▁قافل	-11.3924
▁خيرپور	-11.3925
▁کړ	-11.3931
ررر	-11.3935
▁فضائي	-11.3936
▁فقد	-11.3936
▁راسك	-11.3939
▁ذكر	-11.394
▁برتن	-11.3941
▁آڻيندا	-11.3942
▁وڻند	-11.3947
▁ڀريند	-11.3957
▁03	-11.3959
▁منطق	-11.3961
▁وڌندا	-11.3963
▁مهانگا	-11.3963
▁پنير	-11.3972
ذوب	-11.3982
▁غدار	-11.4004
فيش	-11.401
ۡ	-11.4018
त	-11.4018
▁انڊونيشيا	-11.4018
▁آڪسائيڊ	-11.4018
▁لاڏاڻو	-11.4018
▁موافق	-11.4019
▁رمز	-11.4019
▁هاهاها	-11.4019
▁چانور	-11.4019
▁شڪارپور	-11.4022
▁الكلام	-11.4024
▁تسلي	-11.4025
▁آرٽسٽ	-11.4027
ise	-11.4038
ven	-11.4042
▁تضاد	-11.4048
▁ماعرف	-11.4057
▁مصور	-11.4059
OL	-11.4065
▁شيئرنگ	-11.4067
مونکي	-11.4081
▁سڱ	-11.4095
▁وندر	-11.4101
▁سهر	-11.4105
▁خوشحال	-11.4107
49	-11.411
▁1995	-11.4116
▁صراحه	-11.4116
▁يسعدك	-11.4116
▁سامراج	-11.4118
▁عابد	-11.4119
▁ٻيڻو	-11.4119
▁Xia	-11.4119
▁سوڍ	-11.4123
▁سفرنام	-11.4125
▁جوڳو	-11.4129
▁سِڪ	-11.4136
▁Par	-11.4137
▁مزار	-11.4148
▁ثم	-11.4153
▁ايڊٽ	-11.4155
▁الٽرا	-11.4156
▁نوڪ	-11.4159
▁حقدار	-11.4168
خوان	-11.4175
▁موڪلائي	-11.4183
▁ڍڳ	-11.4184
ase	-11.4184
hu	-11.4186
▁مجموع	-11.4191
▁سكت	-11.4192
آآآ	-11.42
▁چمن	-11.4204
▁Facebook	-11.4215
▁1960	-11.4215
▁1997	-11.4215
▁سويڊن	-11.4216
▁پرچون	-11.422
▁حوالا	-11.4221
▁جارجيا	-11.4221
▁گِ	-11.4223
▁صحرا	-11.4226
▁رکان	-11.4227
▁وسعت	-11.4229
▁ڪهاڻيڪار	-11.4229
▁پهچندو	-11.4231
cha	-11.4231
▁مڃيند	-11.4232
اوٽ	-11.4237
▁رايكم	-11.4238
▁نوازيو	-11.4239
▁آڻيندي	-11.4244
▁ڏِس	-11.4248
▁مومل	-11.4259
▁لفٽ	-11.4278
ox	-11.4288
▁رهياسين	-11.4298
▁پرنٽر	-11.4306
AC	-11.4309
ڪيٿولڪ	-11.4315
▁ارشاد	-11.4315
▁النكت	-11.4315
▁تجزيي	-11.4315
▁اقوام	-11.4315
▁اوترو	-11.4317
▁چاهت	-11.4317
▁تباھ	-11.4319
▁ميرپور	-11.432
▁جاويد	-11.432
▁فنانس	-11.4321
▁XD	-11.4328
تڪميل	-11.4329
▁ملتان	-11.4336
خبري	-11.4338
▁کے	-11.4339
گاھ	-11.434
▁→	-11.4344
▁184	-11.4347
▁کوٽائي	-11.4353
▁مائيڪ	-11.4358
َوَ	-11.4367
▁فيڊر	-11.4372
▁گرڊ	-11.4378
▁بگير	-11.4379
uck	-11.439
▁قدام	-11.4391
▁مذھب	-11.4416
▁گريجوئيٽ	-11.4416
▁پاناما	-11.4416
▁اڻڄات	-11.4416
▁رضامندي	-11.4416
▁ڏُک	-11.4416
▁معبود	-11.4416
▁عاقل	-11.4416
▁ڪيريبي	-11.4417
▁مخزن	-11.4417
▁چارلس	-11.4419
▁ڀانئي	-11.4421
▁سمايل	-11.4428
▁تكلم	-11.443
▁نوشت	-11.443
▁روٽر	-11.4432
▁تخلي	-11.4437
▁رحيم	-11.4445
▁ايريا	-11.445
▁خواهيد	-11.4451
اخد	-11.4452
▁معاكم	-11.4457
▁مغرب	-11.4457
▁ٻڌائيندي	-11.4459
▁تُون	-11.4464
▁شمع	-11.4469
▁غمگ	-11.4502
▁Dis	-11.4511
٨	-11.4518
▁آرڪائيو	-11.4518
▁صالح	-11.4518
▁تجزيه	-11.4518
▁منسلڪ	-11.4518
▁أكيد	-11.4518
▁مرشد	-11.4518
▁ايمرجن	-11.4518
▁طبيب	-11.452
▁ٺهند	-11.4522
▁پتلي	-11.4533
▁حشر	-11.4535
▁غالي	-11.4535
▁سعر	-11.4537
▁گهرواري	-11.4538
▁منهنج	-11.4542
▁ڳالھيون	-11.4549
▁پوٽي	-11.4556
▁1.2	-11.4578
▁الصح	-11.4584
ual	-11.4593
▁فكرت	-11.4593
EC	-11.4595
▁71	-11.4599
▁سمجهائي	-11.4605
▁عرس	-11.4606
▁لحد	-11.4617
جمع	-11.4621
▁1998	-11.4621
▁واکاڻ	-11.4621
▁ٽريفڪ	-11.4621
▁غضب	-11.4621
bility	-11.4621
▁عکس	-11.4622
▁متوجه	-11.4623
▁ڪائونٽ	-11.4624
▁پئدا	-11.4625
▁جزائر	-11.4626
▁ايڪسپور	-11.4626
▁نفيس	-11.4626
▁مهراڻ	-11.463
▁ڊانس	-11.4644
▁06	-11.4651
▁سڃات	-11.4657
▁AM	-11.4659
▁ڪاوش	-11.4671
▁ورزي	-11.4677
▁ڪاروائي	-11.4677
▁گوڙ	-11.4693
▁والاري	-11.4693
har	-11.4702
▁هميش	-11.4709
▁دق	-11.4719
▁Black	-11.4725
▁پيپلزپارٽي	-11.4725
▁اصحاب	-11.4725
▁قوانين	-11.4726
▁آسودو	-11.4726
▁پيگيري	-11.4726
▁فارمولا	-11.4726
▁کِل	-11.4727
▁آتش	-11.4728
ized	-11.4728
▁براعظم	-11.4729
oot	-11.4735
▁گھمڻ	-11.4741
طلب	-11.4745
▁فکر	-11.4748
▁عبير	-11.4748
▁ڊيوڊ	-11.4748
▁سيزن	-11.4753
نيئر	-11.4755
▁ساڍ	-11.4767
▁پوپ	-11.4768
▁اداره	-11.4785
▁عندهم	-11.4788
▁ڍور	-11.4799
اخذ	-11.4808
box	-11.4816
य	-11.4831
▁HTML	-11.4831
▁ڪيبورڊ	-11.4831
▁ايڊمنسٽري	-11.4831
▁ثالث	-11.4831
▁1992	-11.4831
▁غفلت	-11.4831
▁استثنا	-11.4831
▁حُسن	-11.4831
▁رينجرز	-11.4832
▁ٺهراء	-11.4833
قراط	-11.4834
▁org	-11.4837
▁سنسڪ	-11.4838
▁ناروي	-11.484
▁هاشم	-11.4844
▁not	-11.4856
▁09	-11.4857
▁رضي	-11.4858
▁کائيندي	-11.486
▁گذرند	-11.486
▁مظهر	-11.4862
▁ااااااااااااااا	-11.4874
▁ڪاڏي	-11.4886
اشعور	-11.4893
▁مسود	-11.4907
IT	-11.4909
انداز	-11.4916
▁گهمند	-11.4918
انءُ	-11.4934
▁with	-11.4937
ٖ	-11.4937
म	-11.4937
▁آمريکا	-11.4937
▁پراسرار	-11.4937
▁خلوص	-11.4937
▁ويساهه	-11.4937
▁اوارڊ	-11.4937
▁واردات	-11.4938
▁هاسٽل	-11.4938
▁اقبال	-11.4938
▁cryptocurrency	-11.4939
▁آخوند	-11.4939
▁راڻا	-11.4941
▁شاءالله	-11.4941
▁پرديس	-11.4945
▁ذھن	-11.4945
▁ناپسنديد	-11.4946
▁چيمبر	-11.4954
▁مخلص	-11.4954
▁فكرة	-11.4955
ware	-11.496
EN	-11.4966
▁اونڌ	-11.4982
▁اگھ	-11.4984
▁افزا	-11.4992
ٽيڪل	-11.5001
▁حسد	-11.5002
▁امريڪ	-11.5009
▁تخاف	-11.5028
▁El	-11.5028
▁پهلوان	-11.5031
سنسار	-11.5035
▁موڪليندا	-11.5036
▁گوڏ	-11.5044
▁ٽيليگرام	-11.5045
▁اطلاق	-11.5045
▁انفيڪشن	-11.5045
▁موسيٰ	-11.5045
▁app	-11.5045
▁اختتام	-11.5045
▁ضياءَ	-11.5045
▁گیم	-11.5045
▁لياقت	-11.5045
▁ورثو	-11.5045
▁ضحكتيني	-11.5046
▁Name	-11.5046
▁عالمگير	-11.5048
▁مونجهار	-11.5048
▁گناھ	-11.5049
▁بيهاري	-11.5051
▁تحريم	-11.5051
▁وجھي	-11.5052
▁ہے	-11.5052
▁ڊاهي	-11.5063
▁گارڊ	-11.5063
▁انزين	-11.5068
▁وڄائي	-11.5072
▁شباب	-11.5079
▁ڏيکاريندي	-11.5093
▁185	-11.5095
▁مڊل	-11.5098
ذليل	-11.5111
▁ميهار	-11.512
▁آزما	-11.5151
ٔ	-11.5153
▁رٿابندي	-11.5153
▁ناانصافي	-11.5153
▁فرمانبردار	-11.5153
▁مشاورت	-11.5153
▁ڊيڄاري	-11.5153
▁آموزش	-11.5153
just	-11.5153
▁قميص	-11.5153
▁سپلائي	-11.5153
▁خميس	-11.5154
▁پهتس	-11.5154
▁انسپيڪ	-11.5154
▁سوانح	-11.5154
▁(6)	-11.5154
▁لڌو	-11.5154
▁وسيلو	-11.5155
▁شيعه	-11.5159
▁ڇوته	-11.5162
▁پولينڊ	-11.5165
قائل	-11.5165
▁چڱائي	-11.5167
▁وقار	-11.517
▁بعيد	-11.5171
▁فورسز	-11.5176
▁قضا	-11.5177
▁مشكورة	-11.5178
▁ٻِ	-11.5186
غني	-11.5187
سافر	-11.5194
▁پڙھڻ	-11.5199
▁سريال	-11.5202
TA	-11.5206
ina	-11.521
row	-11.521
درآمد	-11.5224
▁ااااااااااااا	-11.5227
▁شرير	-11.5231
ڀروسي	-11.5233
TN	-11.5235
ۅ	-11.5263
े	-11.5263
▁1988	-11.5263
▁اپارٽمنٽ	-11.5263
▁شڪرگذار	-11.5263
▁لاڳيتو	-11.5263
▁ڪولمبيا	-11.5263
▁انحراف	-11.5263
▁مصطفي	-11.5264
▁پھريائين	-11.5264
▁يلعب	-11.5264
▁آجيان	-11.5264
▁اعترف	-11.5265
▁داعي	-11.5267
▁غرب	-11.5267
▁اشرف	-11.527
▁ڌيئر	-11.527
▁آزار	-11.5272
▁خورد	-11.5273
▁فديتك	-11.5274
▁ھائو	-11.5276
▁حميد	-11.5276
▁ماخذ	-11.5279
▁هلائيندڙ	-11.5282
▁فتو	-11.5298
خصوص	-11.5314
▁سيوه	-11.5317
هنوار	-11.5329
SS	-11.5333
▁ڦاڙ	-11.5338
▁work	-11.5374
▁اسپورٽس	-11.5374
▁ڊوائس	-11.5374
▁ميکني	-11.5376
▁فائديمند	-11.5376
▁حراست	-11.5376
▁رومانس	-11.5379
▁1999	-11.5379
▁طاهر	-11.5379
▁صليب	-11.5381
▁اُڃ	-11.5382
▁لساني	-11.5382
▁خمس	-11.5383
▁رهندس	-11.5385
xy	-11.5386
اؤنٽ	-11.539
▁کڻندو	-11.5392
▁che	-11.5392
▁مضحكة	-11.5401
▁سسئي	-11.5402
▁خليجي	-11.5402
▁دوسر	-11.5403
▁گنج	-11.5404
▁اکڙي	-11.5407
▁2.1	-11.5412
▁پيچر	-11.5451
CO	-11.5468
DE	-11.5469
يلٿ	-11.5478
ल	-11.5487
QUOTE	-11.5487
▁crypto	-11.5487
▁قومپرست	-11.5487
▁پزشکي	-11.5487
♪	-11.5487
▁فيسٽيول	-11.5487
▁اسٽريمنگ	-11.5487
▁cover	-11.5487
▁گورنمينٽ	-11.5487
▁تذكر	-11.5487
▁اڇلي	-11.5487
▁مفاصل	-11.5487
▁عنايت	-11.5487
▁حوالن	-11.5488
▁ييييييي	-11.5489
▁نمونا	-11.5489
▁تڙپ	-11.549
SI	-11.549
ach	-11.549
▁هڪجهڙائي	-11.5491
▁هوريان	-11.5492
▁هارمون	-11.5495
▁ڊريس	-11.5498
▁دهشت	-11.5498
▁لڪايو	-11.5499
▁ڪعب	-11.5501
▁هلندا	-11.5505
▁وڌائيندو	-11.5521
LE	-11.5535
ليڪشن	-11.5538
▁ھئ	-11.5543
▁اوائل	-11.5546
گزير	-11.5547
لطاف	-11.5554
ستحق	-11.5563
▁حضر	-11.5564
▁احلا	-11.5569
▁آذربائ	-11.56
▁بدعنواني	-11.56
▁ميگزين	-11.56
♡	-11.56
ۆ	-11.56
▁ائيزيشن	-11.56
▁ٽرانسميشن	-11.56
▁شهباز	-11.56
▁اُداس	-11.5601
▁كتاب	-11.5601
▁دانشگاه	-11.5601
▁بيهوش	-11.5601
▁ولادت	-11.5601
▁ارزش	-11.5602
▁لاٿو	-11.5602
▁حامد	-11.5603
▁ابشر	-11.561
ڪثرت	-11.5612
IA	-11.5614
▁سڀيئي	-11.5614
CE	-11.5617
▁تلخ	-11.5619
▁غرض	-11.5623
▁احيا	-11.5625
▁تجاري	-11.5627
▁رڍ	-11.5627
▁CB	-11.563
▁160	-11.5635
▁شاپ	-11.5637
▁ساگر	-11.5639
▁بنگل	-11.5643
▁پوپٽ	-11.5647
▁tra	-11.5655
۳	-11.567
حزن	-11.5683
▁سنيپ	-11.5702
®	-11.5715
▁المنتدى	-11.5715
▁جراثيم	-11.5715
▁ڪنوينشن	-11.5715
▁گذشت	-11.5715
▁مختيار	-11.5715
▁ڪوارٽر	-11.5715
▁جراحي	-11.5716
▁مزاح	-11.5716
▁نشست	-11.5716
▁فرعون	-11.5716
://	-11.5716
▁this	-11.5717
ینڈ	-11.5717
▁عصر	-11.5718
▁آزمايو	-11.572
IF	-11.5721
▁نڪرندي	-11.5727
بقي	-11.5728
▁علوم	-11.5732
▁سگھندو	-11.5741
▁ارڙه	-11.5744
▁ارسل	-11.5746
▁کڏ	-11.575
▁min	-11.5768
▁رأيك	-11.578
تنهنجي	-11.5787
IM	-11.5806
مڃتا	-11.5813
zz	-11.5817
▁ناپسند	-11.5822
لیس	-11.5831
▁خخخخخ	-11.5831
▁ضعيف	-11.5831
▁لڏپلاڻ	-11.5831
▁چانسلر	-11.5831
▁ڊولپمينٽ	-11.5831
▁افريقي	-11.5832
▁لوڊشيڊ	-11.5832
▁ڪلائنٽ	-11.5832
▁آبادگارن	-11.5832
▁مشروط	-11.5832
▁تغير	-11.5832
▁نااهل	-11.5832
▁موسى	-11.5832
▁ھندستان	-11.5832
▁افراد	-11.5832
▁جاکوڙ	-11.5833
▁Indu	-11.5834
▁منڊل	-11.5834
LED	-11.5835
▁طفل	-11.5838
▁xD	-11.5842
▁ٽوڪيو	-11.5842
▁ڪنڊيشن	-11.5842
▁أقول	-11.5847
▁لعبة	-11.5847
▁قضي	-11.5849
▁رٿيل	-11.585
▁فرسٽ	-11.5854
PA	-11.5864
▁فلڪ	-11.5865
▁شبيه	-11.5883
▁افاد	-11.5891
@	-11.5904
▁فلاڻ	-11.5904
▁رايك	-11.5936
ٴ	-11.5949
ۑ	-11.5949
▁http	-11.5949
▁مذڪور	-11.5949
▁اولمپڪ	-11.5949
▁اسلوب	-11.5949
▁پتلون	-11.595
▁اذيت	-11.595
formation	-11.595
▁بيچيني	-11.595
▁ريگستان	-11.595
مساوات	-11.5951
▁انقره	-11.5951
▁اعمال	-11.5951
▁سلاٽ	-11.5952
▁عرش	-11.5954
▁چرپر	-11.5954
▁خاتون	-11.5954
▁<~	-11.5954
سٽريٽ	-11.5955
▁نڀائي	-11.5955
▁ائيندڙ	-11.5971
ko	-11.5983
▁طئ	-11.6004
▁نرال	-11.6004
▁جماع	-11.6025
ائتو	-11.604
▁پارليام	-11.6068
▁iPad	-11.6068
▁آدمشماري	-11.6068
▁پيراگراف	-11.6068
▁1996	-11.6068
▁متغير	-11.6068
▁1994	-11.6068
▁other	-11.6068
▁ڪارناما	-11.6068
▁منافق	-11.6069
___	-11.6069
▁ھوٽل	-11.6069
▁فرنٽ	-11.6071
▁تمدن	-11.6071
▁گهوٽڪي	-11.6072
حصل	-11.6073
▁معنوي	-11.6073
▁ڏنائون	-11.6074
▁لتاڙ	-11.6077
▁پرستار	-11.6081
▁اُڀري	-11.6089
▁البيت	-11.6093
▁صوف	-11.6125
٢	-11.6144
jack	-11.6144
▁محض	-11.6147
▁سيڙپڪار	-11.6156
ction	-11.6178
ो	-11.6189
ღ	-11.6189
▁USB	-11.6189
▁قیمت	-11.6189
▁1993	-11.6189
▁تائيوان	-11.6189
▁توقيع	-11.6189
▁گھٽتائي	-11.6189
▁سبحان	-11.6189
▁شاگردياڻي	-11.6189
▁مظاهري	-11.6191
▁بروکر	-11.6192
▁ڪوريج	-11.6194
▁ڳجھ	-11.6195
▁جهنم	-11.6198
▁You	-11.6199
▁وضو	-11.6204
▁360	-11.6205
AL	-11.6208
▁سُٺ	-11.6213
تحمس	-11.6227
فيملي	-11.6237
▁Dr	-11.6251
▁ڇنڊ	-11.6255
▁ڏياريند	-11.6257
▁NA	-11.6258
▁وهذ	-11.6278
▁انٽيليجنس	-11.6311
▁متوازن	-11.6311
▁پراجيڪٽ	-11.6311
◄	-11.6311
▁جشنواره	-11.6311
▁سيمينار	-11.6311
▁قاصر	-11.6311
▁ذيشان	-11.6311
▁قصدك	-11.6311
▁ٺيڪيدار	-11.6311
▁سگهندس	-11.6311
▁سرطان	-11.6311
▁under	-11.6311
▁وابستگي	-11.6312
▁well	-11.6314
▁ٽئڪس	-11.6314
▁نقاد	-11.6316
▁گودام	-11.6317
▁ڪلينڪ	-11.6318
▁لنگھ	-11.6319
▁ڪندؤ	-11.6323
▁چراغ	-11.6324
▁فرينڊ	-11.6325
▁Pay	-11.6328
▁يتيم	-11.6337
▁ڊڄند	-11.6353
َلَ	-11.6371
▁بازياب	-11.6384
▁ٽائپ	-11.6384
▁آهي۔۔۔	-11.6434
▁ريفرنس	-11.6434
▁پرداخت	-11.6434
▁محاذ	-11.6434
▁باعث	-11.6434
▁دكتر	-11.6434
یکٹ	-11.6435
▁فاروق	-11.6437
▁رونق	-11.6438
▁پٺاڻ	-11.6438
▁درويش	-11.6442
▁ثبت	-11.6444
▁کُلي	-11.6448
▁سُڌ	-11.6453
▁ياخي	-11.6461
MS	-11.6477
air	-11.6477
ڪيورٽي	-11.6551
▁وابست	-11.6558
٫	-11.6559
▁Netflix	-11.6559
▁بسرعه	-11.6559
▁فروخت	-11.6559
▁جاگيردار	-11.6559
▁شوٽنگ	-11.6559
▁ڦهلائ	-11.6559
▁ماهوار	-11.656
▁ممنون	-11.6561
▁اگهاڙ	-11.6561
▁was	-11.6569
▁ism	-11.657
▁أعرف	-11.6572
▁طوط	-11.6572
▁بتحب	-11.6573
▁وڪام	-11.6574
▁inf	-11.6577
▁تعمل	-11.6578
▁تفهم	-11.6582
يگاس	-11.661
▁فلاح	-11.662
{	-11.664
▁فولڊ	-11.6656
لڪائڻ	-11.6675
ries	-11.6683
Cloud	-11.6686
©	-11.6686
▁تصنيف	-11.6686
▁اسحاق	-11.6686
▁2022	-11.6686
▁ڪنڪريٽ	-11.6686
▁سامھون	-11.6686
▁ٿلهو	-11.6686
▁آکاڻي	-11.6686
▁۱۹	-11.6686
▁مرکز	-11.6686
▁عايز	-11.6686
▁ڦهلي	-11.6687
▁صداقت	-11.6687
load	-11.6691
▁سگهار	-11.6692
▁انڌو	-11.6693
▁مساله	-11.6693
▁حسرت	-11.6694
▁ذلك	-11.6695
▁ڦرند	-11.6697
وبائي	-11.6701
▁ٺھي	-11.6716
صغر	-11.6716
اپٽر	-11.6738
ney	-11.6771
&	-11.6899
٧	-11.6944
प	-11.6944
#	-11.703
ۉ	-11.7075
व	-11.7075
😉	-11.7075
§	-11.7209
🤣	-11.7209
а	-11.7209
ۃ	-11.7761
☺	-11.7903
ڎ	-11.8345
ڸ	-11.865
(	-11.8734
→	-11.8761
द	-11.8806
ۊ	-11.8806
н	-11.9126
څ	-11.9245
٣	-11.9412
è	-11.9457
ü	-11.9457
♥	-11.9581
۹	-11.9738
😂	-11.9753
♫	-11.9799
פ	-11.9974
ु	-12.0153
â	-12.0335
î	-12.0335
ı	-12.0335
ڤ	-12.0335
ڜ	-12.052
ٗ	-12.0708
ह	-12.0708
о	-12.0708
и	-12.0901
İ	-12.1097
ç	-12.1097
ٓ	-12.1097
ग	-12.1297
ट	-12.1297
à	-12.1297
ۓ	-12.1501
💔	-12.1922
😍	-12.1922
★	-12.2139
×	-12.2316
ी	-12.2362
٬	-12.2589
р	-12.2589
ş	-12.2821
̈	-12.2821
ؑ	-12.2821
с	-12.306
ڶ	-12.306
ۀ	-12.306
ێ	-12.306
ब	-12.306
●	-12.3508
😭	-12.3553
е	-12.3553
ڣ	-12.3553
כ	-12.381
ݪ	-12.381
ज	-12.381
ٕ	-12.4073
उ	-12.4073
छ	-12.4343
ࢪ	-12.4621
、	-12.4621
ö	-12.4621
á	-12.5201
ڕ	-12.5201
॥	-12.5201
श	-12.5201
т	-12.5816
ω	-12.5816
м	-12.5816
ै	-12.6139
±	-12.6139
😅	-12.6139
🙁	-12.6139
۽	-12.6427
ּ	-12.6472
у	-12.6472
ۂ	-12.6817
♦	-12.6817
ۧ	-12.6817
̷	-12.7174
ं	-12.7174
√	-12.7545
д	-12.7545
ۄ	-12.7545
ۋ	-12.7545
ٳ	-12.7929
ۿ	-12.7929
ל	-12.7929
ड	-12.7929
ध	-12.7929
Ş	-12.7929
л	-12.7929
٘	-12.8329
‹	-12.8329
≥	-12.8329
😊	-12.8329
؏	-12.8329
ˇ	-12.8746
¤	-12.8746
¢	-12.9181
ؿ	-12.9181
ष	-12.9181
【	-12.9181
ツ	-12.9181
💞	-12.9181
ê	-12.9181
ए	-12.9181
भ	-12.9181
α	-12.9635
٭	-12.9635
¬	-12.9635
ë	-12.9635
✿	-12.9635
】	-12.9635
﴾	-12.9635
﴿	-12.9635
👍	-12.9635
к	-12.9635
☆	-13.0111
ٚ	-13.0111
ە	-13.0111
ई	-13.0111
ā	-13.0111
Ü	-13.0111
¦	-13.0611
ó	-13.0611
û	-13.0611
в	-13.0611
ٲ	-13.0611
⁄	-13.0611
μ	-13.0611
ڝ	-13.0611
ο	-13.0612
ػ	-13.1138
з	-13.1138
ä	-13.1693
अ	-13.1693
⇄	-13.1693
🏻	-13.1693
͜	-13.1693
β	-13.1693
ڒ	-13.1693
च	-13.1693
─	-13.1693
ñ	-13.2282
х	-13.2282
ա	-13.2282
ण	-13.2282
≈	-13.2282
■	-13.2282
😆	-13.2282
←	-13.2861
फ	-13.2907
ž	-13.2907
ы	-13.2907
。	-13.2907
菜	-13.2907
👌	-13.2907
ؽ	-13.2907
ڠ	-13.2907
ࢦ	-13.2907
÷	-13.3573
й	-13.3573
ٛ	-13.3573
🔥	-13.3573
ڂ	-13.3573
ख	-13.3573
Ø	-13.3573
ֿ	-13.3573
आ	-13.3573
⋆	-13.3573
°	-13.4242
·	-13.4242
ğ	-13.4288
\	-13.4288
š	-13.4288
थ	-13.4288
б	-13.4288
ۇ	-13.4288
🌹	-13.4288
̨	-13.4288
г	-13.4288
ृ	-13.4288
ू	-13.5057
̲	-13.5057
ᓄ	-13.5057
▌	-13.5057
✅	-13.5057
✌	-13.5057
💘	-13.5057
í	-13.5057
ô	-13.5057
ե	-13.589
̃	-13.589
ݩ	-13.589
ে	-13.589
❥	-13.589
💙	-13.589
😘	-13.589
Ç	-13.589
͡	-13.6799
̣	-13.6799
я	-13.6799
і	-13.6799
י	-13.6799
נ	-13.6799
↓	-13.6799
☀	-13.6799
✓	-13.6799
💕	-13.6799
🙈	-13.6799
ι	-13.6799
◕	-13.6799
⭐	-13.6799
ζ	-13.6799
п	-13.6799
ï	-13.7799
۫	-13.7799
♀	-13.7799
č	-13.7799
Ґ	-13.7799
ন	-13.7799
✋	-13.7799
🌸	-13.7799
💗	-13.7799
😇	-13.7799
🤔	-13.7799
œ	-13.7799
ξ	-13.7799
ۦ	-13.7799
๑	-13.7799
۩	-13.7799
✨	-13.7799
۾	-13.8865
ː	-13.891
ڨ	-13.891
ρ	-13.891
ँ	-13.891
র	-13.891
া	-13.891
◊	-13.891
♠	-13.891
❣	-13.891
音	-13.891
😔	-13.891
😝	-13.891
😹	-13.891
Š	-13.891
σ	-14.016
ۛ	-14.016
ի	-14.016
ն	-14.016
מ	-14.016
ڭ	-14.016
͠	-14.016
Φ	-14.016
Ω	-14.016
ম	-14.016
্	-14.016
♩	-14.016
」	-14.016
🌷	-14.016
🖤	-14.016
å	-14.016
ם	-14.016
ε	-14.016
น	-14.1588
ˈ	-14.1589
ۗ	-14.1589
ۨ	-14.1589
ɪ	-14.1589
ո	-14.1589
η	-14.1589
ս	-14.1589
ۤ	-14.1589
Ž	-14.1589
ς	-14.1589
ч	-14.1589
ր	-14.1589
ו	-14.1589
ע	-14.1589
ठ	-14.1589
ু	-14.1589
ஐ	-14.1589
ా	-14.1589
▶	-14.1589
▷	-14.1589
◇	-14.1589
☻	-14.1589
♣	-14.1589
❀	-14.1589
❧	-14.1589
⠀	-14.1589
・	-14.1589
🇩	-14.1589
🏃	-14.1589
💜	-14.1589
📷	-14.1589
😎	-14.1589
̤	-14.1589
‿	-14.1589
ш	-14.1589
🥺	-14.1589
า	-14.3255
ɑ	-14.3256
Á	-14.3256
ć	-14.3256
ҳ	-14.3256
ٞ	-14.3256
⇣	-14.3256
🏼	-14.3256
̇	-14.3256
ί	-14.3256
ד	-14.3256
ؓ	-14.3256
ؼ	-14.3256
ٜ	-14.3256
ٟ	-14.3256
ڞ	-14.3256
ܢ	-14.3256
ক	-14.3256
ত	-14.3256
দ	-14.3256
୭	-14.3256
ọ	-14.3256
⏪	-14.3256
♯	-14.3256
⚡	-14.3256
✯	-14.3256
😢	-14.3256
🥇	-14.3256
ō	-14.3256
̶	-14.3256
π	-14.3256
ý	-14.3256
ี	-14.5255
്	-14.5255
ᬼ	-14.5255
ə	-14.5256
✗	-14.5256
♍	-14.5256
̵	-14.5256
ެ	-14.5256
💪	-14.5256
😱	-14.5256
😻	-14.5256
ð	-14.5256
ú	-14.5256
ē	-14.5256
ł	-14.5256
ż	-14.5256
̅	-14.5256
ώ	-14.5256
ж	-14.5256
ц	-14.5256
э	-14.5256
ן	-14.5256
ؒ	-14.5256
ڋ	-14.5256
ڔ	-14.5256
ۏ	-14.5256
झ	-14.5256
న	-14.5256
າ	-14.5256
ị	-14.5256
⃣	-14.5256
−	-14.5256
⊙	-14.5256
╝	-14.5256
▪	-14.5256
◎	-14.5256
◦	-14.5256
✘	-14.5256
✦	-14.5256
『	-14.5256
』	-14.5256
🇮	-14.5256
🌚	-14.5256
🌟	-14.5256
🍼	-14.5256
ٙ	-14.5256
๛	-14.5256
💚	-14.5256
մ	-14.5256
ಿ	-14.5256
ã	-14.5256
τ	-14.5256
💖	-14.5256
ม	-14.7755
ۣ	-14.7755
ン	-14.7755
є	-14.7755
ۜ	-14.7755
̐	-14.7756
հ	-14.7756
ం	-14.7756
𐄒	-14.7756
📚	-14.7756
😠	-14.7756
ø	-14.7756
ę	-14.7756
ʊ	-14.7756
φ	-14.7756
ь	-14.7756
չ	-14.7756
ה	-14.7756
ז	-14.7756
ר	-14.7756
۪	-14.7756
খ	-14.7756
য	-14.7756
়	-14.7756
ো	-14.7756
ં	-14.7756
ම	-14.7756
↯	-14.7756
╫	-14.7756
◀	-14.7756
♂	-14.7756
♬	-14.7756
✖	-14.7756
よ	-14.7756
り	-14.7756
ミ	-14.7756
嘅	-14.7756
的	-14.7756
語	-14.7756
🌿	-14.7756
🏾	-14.7756
👉	-14.7756
💫	-14.7756
🔞	-14.7756
😋	-14.7756
😒	-14.7756
😨	-14.7756
😪	-14.7756
😵	-14.7756
🙊	-14.7756
🤍	-14.7756
🤭	-14.7756
🧸	-14.7756
ٮ	-14.7756
Ğ	-14.7756
Ħ	-14.7756
ν	-14.7756
ौ	-14.7756
∀	-14.7756
Ã	-14.7756
θ	-14.7756
ਾ	-14.7756
🙂	-15.1044
ไ	-15.1088
ด	-15.1089
ለ	-15.1089
ュ	-15.1089
ന	-15.1089
Х	-15.1089
ۙ	-15.1089
ನ	-15.1089
ස	-15.1089
ก	-15.1089
🎀	-15.1089
̊	-15.1089
υ	-15.1089
ט	-15.1089
ব	-15.1089
ો	-15.1089
ి	-15.1089
໑	-15.1089
ე	-15.1089
ი	-15.1089
❦	-15.1089
ノ	-15.1089
ě	-15.1089
Ⴢ	-15.1089
ᭁ	-15.1089
ṣ	-15.1089
ò	-15.1089
Ă	-15.1089
Đ	-15.1089
ħ	-15.1089
ś	-15.1089
ƒ	-15.1089
̀	-15.1089
̯	-15.1089
Я	-15.1089
Ҳ	-15.1089
ש	-15.1089
ڽ	-15.1089
ۼ	-15.1089
ः	-15.1089
ল	-15.1089
ি	-15.1089
క	-15.1089
ల	-15.1089
ు	-15.1089
ው	-15.1089
ᓅ	-15.1089
ṇ	-15.1089
ṭ	-15.1089
ẹ	-15.1089
₥	-15.1089
₪	-15.1089
↔	-15.1089
○	-15.1089
☜	-15.1089
☼	-15.1089
♚	-15.1089
♛	-15.1089
⚫	-15.1089
✍	-15.1089
➢	-15.1089
〗	-15.1089
う	-15.1089
の	-15.1089
を	-15.1089
可	-15.1089
發	-15.1089
🌻	-15.1089
🏿	-15.1089
👀	-15.1089
👈	-15.1089
👤	-15.1089
💋	-15.1089
💐	-15.1089
💛	-15.1089
🔸	-15.1089
😐	-15.1089
🤨	-15.1089
﮼	-15.1089
ą	-15.1089
≧	-15.1089
☑	-15.1089
︎	-15.1089
💻	-15.1089
Ł	-15.1089
ϻ	-15.1089
ݛ	-15.1089
ݦ	-15.1089
ર	-15.1089
వ	-15.1089
్	-15.1089
Ṁ	-15.1089
ɛ	-15.1089
γ	-15.1089
ό	-15.1089
ੀ	-15.1089
ੰ	-15.1089
€	-15.6044
ส	-15.6088
؍	-15.6089
ങ	-15.6089
้	-15.6089
ཻ	-15.6089
࿑	-15.6089
ህ	-15.6089
⃫	-15.6089
コ	-15.6089
タ	-15.6089
ピ	-15.6089
ー	-15.6089
ʒ	-15.6089
խ	-15.6089
ঔ	-15.6089
ย	-15.6089
₩	-15.6089
ռ	-15.6089
স	-15.6089
ક	-15.6089
ટ	-15.6089
ஓ	-15.6089
ಲ	-15.6089
್	-15.6089
ᴗ	-15.6089
ố	-15.6089
◍	-15.6089
✷	-15.6089
̍	-15.6089
ܓ	-15.6089
ᓆ	-15.6089
|	-15.6089
¥	-15.6089
Ù	-15.6089
Ú	-15.6089
Ā	-15.6089
Ė	-15.6089
Į	-15.6089
ť	-15.6089
ů	-15.6089
ƛ	-15.6089
ơ	-15.6089
Ʀ	-15.6089
ʀ	-15.6089
Α	-15.6089
Ξ	-15.6089
Υ	-15.6089
έ	-15.6089
Ϟ	-15.6089
Р	-15.6089
У	-15.6089
Ч	-15.6089
ъ	-15.6089
ю	-15.6089
҉	-15.6089
ґ	-15.6089
ը	-15.6089
լ	-15.6089
պ	-15.6089
ց	-15.6089
ֆ	-15.6089
ך	-15.6089
؋	-15.6089
ڲ	-15.6089
ݖ	-15.6089
ݢ	-15.6089
ݥ	-15.6089
ञ	-15.6089
ॡ	-15.6089
ট	-15.6089
ড	-15.6089
ਂ	-15.6089
ਧ	-15.6089
ਸ	-15.6089
ਿ	-15.6089
ચ	-15.6089
ા	-15.6089
ી	-15.6089
ద	-15.6089
య	-15.6089
ీ	-15.6089
ಈ	-15.6089
ೋ	-15.6089
ි	-15.6089
ๅ	-15.6089
დ	-15.6089
რ	-15.6089
ს	-15.6089
ᄑ	-15.6089
ᄒ	-15.6089
ᅲ	-15.6089
ሂ	-15.6089
ስ	-15.6089
ቅ	-15.6089
ን	-15.6089
ይ	-15.6089
ድ	-15.6089
ᓘ	-15.6089
ន	-15.6089
Ṃ	-15.6089
Ẹ	-15.6089
Ọ	-15.6089
ở	-15.6089
‛	-15.6089
‟	-15.6089
₽	-15.6089
↩	-15.6089
⇡	-15.6089
⇦	-15.6089
∞	-15.6089
≠	-15.6089
≦	-15.6089
╬	-15.6089
▽	-15.6089
◈	-15.6089
◣	-15.6089
◩	-15.6089
◪	-15.6089
☘	-15.6089
♢	-15.6089
⚽	-15.6089
✈	-15.6089
✧	-15.6089
❓	-15.6089
❕	-15.6089
❖	-15.6089
❝	-15.6089
❞	-15.6089
❢	-15.6089
⭕	-15.6089
い	-15.6089
じ	-15.6089
ほ	-15.6089
ㄨ	-15.6089
你	-15.6089
発	-15.6089
者	-15.6089
나	-15.6089
법	-15.6089
𓂅	-15.6089
𖣴	-15.6089
🇸	-15.6089
🌈	-15.6089
🌼	-15.6089
🎈	-15.6089
🎵	-15.6089
🐒	-15.6089
🐢	-15.6089
👆	-15.6089
👎	-15.6089
💅	-15.6089
💍	-15.6089
💓	-15.6089
💮	-15.6089
💰	-15.6089
🔒	-15.6089
🔕	-15.6089
🔫	-15.6089
🔴	-15.6089
🔶	-15.6089
🖕	-15.6089
😃	-15.6089
😏	-15.6089
😤	-15.6089
😬	-15.6089
😮	-15.6089
😯	-15.6089
😳	-15.6089
😿	-15.6089
🙄	-15.6089
🤎	-15.6089
🤐	-15.6089
🤓	-15.6089
🤤	-15.6089
🤧	-15.6089
🥀	-15.6089
🦼	-15.6089
🧐	-15.6089
λ	-15.6089
ؾ	-15.6089
ݨ	-15.6089
િ	-15.6089
ì	-15.6089
Ǝ	-15.6089
ʻ	-15.6089
ۘ	-15.6089
ࡗ	-15.6089
ി	-15.6089
ል	-15.6089
♉	-15.6089
♌	-15.6089
真	-15.6089
ă	-15.6089
✫	-15.6089
직	-15.6089
🛫	-15.6089
ਬ	-15.6089
🥰	-16.5943
🤪	-16.5944
🚶	-16.5945
😕	-16.5946
🔺	-16.5947
🔹	-16.5948
🔱	-16.5949
💡	-16.595
💠	-16.5951
💝	-16.5952
👑	-16.5953
👇	-16.5954
🐠	-16.5955
🎻	-16.5956
🎧	-16.5957
🌆	-16.5958
🇺	-16.5959
🇶	-16.596
🇬	-16.5961
🇨	-16.5962
ꓘ	-16.5963
我	-16.5964
以	-16.5965
上	-16.5966
パ	-16.5967
ト	-16.5968
〖	-16.5969
✴	-16.597
✮	-16.5971
♤	-16.5972
╦	-16.5973
⇠	-16.5974
↴	-16.5975
ỳ	-16.5976
እ	-16.5977
້	-16.5978
่	-16.5979
ท	-16.598
ถ	-16.5981
స	-16.5982
ఉ	-16.5983
ਰ	-16.5984
আ	-16.5985
ढ	-16.5986
۬	-16.5987
կ	-16.5988
է	-16.5989
Կ	-16.599
Ի	-16.5991
ө	-16.5992
П	-16.5993
О	-16.5994
Д	-16.5995
δ	-16.5996
̳	-16.5997
̉	-16.5998
õ	-16.5999
É	-16.6
À	-16.6001
🦦	-16.6002
😽	-16.6003
🐸	-16.6004
🍀	-16.6005
🌤	-16.6006
❗	-16.6007
❌	-16.6008
☂	-16.6009
╚	-16.601
⌘	-16.6011
ุ	-16.6012
ั	-16.6013
ณ	-16.6014
ฉ	-16.6015
ค	-16.6016
්	-16.6017
න	-16.6018
ે	-16.6019
ח	-16.602
տ	-16.6021
Բ	-16.6022
Т	-16.6023
В	-16.6024
Б	-16.6025
̥	-16.6026
ˌ	-16.6027
😦	-16.6028
😌	-16.6029
😈	-16.603
🕘	-16.6031
👩	-16.6032
👨	-16.6033
👊	-16.6034
🎼	-16.6035
发	-16.6036
〇	-16.6037
∫	-16.6038
હ	-16.6039
С	-16.604
М	-16.6041
̄	-16.6042
🦋	-16.6043
💯	-16.6044
🇿	-16.6045
◉	-16.6046
ٝ	-16.6047
ւ	-16.6048
¶	-16.6049
🤩	-16.605
⚘	-16.6051
☝	-16.6052
▲	-16.6053
「	-16.6054
➡	-16.6055
☹	-16.6056
▼	-16.6057
†	-16.6058
۞	-16.6059
※	-16.606
๋	-16.6061
🙏	-16.6062
Ö	-16.6063
😄	-16.6064
इ	-16.6065
ڿ	-16.6066
ؐ	-16.6067
Å	-16.6068
▐	-16.6069
😛	-16.607
✔	-16.6071
̧	-16.6072
‡	-16.6073
¡	-16.6074
😜	-16.6075
ү	-16.6076
‐	-16.6077
¿	-16.6078
ド	-16.6079
シ	-16.608
◆	-16.6081
≤	-16.6082
😀	-16.6083
›	-16.6084
↑	-16.6085
😁	-16.6086
พ	-16.6086
ป	-16.6087
Ô	-16.6087
ิ	-16.6087
บ	-16.6088
′	-16.6088
ห	-16.6088
ທ	-16.6088
ມ	-16.6088
່	-16.6088
ሳ	-16.6088
サ	-16.6088
ћ	-16.6089
փ	-16.6089
ओ	-16.6089
ഉ	-16.6089
ത	-16.6089
പ	-16.6089
ආ	-16.6089
ය	-16.6089
ล	-16.6089
เ	-16.6089
ወ	-16.6089
℘	-16.6089
イ	-16.6089
顯	-16.6089
ŋ	-16.6089
̋	-16.6089
̩	-16.6089
̬	-16.6089
Έ	-16.6089
յ	-16.6089
ڐ	-16.6089
ખ	-16.6089
ડ	-16.6089
પ	-16.6089
ಕ	-16.6089
ქ	-16.6089
Ṧ	-16.6089
♏	-16.6089
ꪆ	-16.6089
🏊	-16.6089
👅	-16.6089
👰	-16.6089
բ	-16.6089
Ṉ	-16.6089
🌓	-16.6089
👋	-16.6089
😩	-16.6089
Â	-16.6089
È	-16.6089
Ð	-16.6089
Ó	-16.6089
Û	-16.6089
ù	-16.6089
þ	-16.6089
Ą	-16.6089
ĉ	-16.6089
Č	-16.6089
Ď	-16.6089
đ	-16.6089
ė	-16.6089
Ę	-16.6089
Ģ	-16.6089
ī	-16.6089
į	-16.6089
ĵ	-16.6089
ĸ	-16.6089
ĺ	-16.6089
ļ	-16.6089
Ň	-16.6089
Ō	-16.6089
ŏ	-16.6089
Ř	-16.6089
ř	-16.6089
Ŝ	-16.6089
ŝ	-16.6089
Ť	-16.6089
ŧ	-16.6089
ŭ	-16.6089
ű	-16.6089
ź	-16.6089
Ż	-16.6089
Ɓ	-16.6089
Ɠ	-16.6089
Ɣ	-16.6089
Ɲ	-16.6089
Ƴ	-16.6089
ƽ	-16.6089
ǟ	-16.6089
ǰ	-16.6089
ȅ	-16.6089
Ȋ	-16.6089
ș	-16.6089
ț	-16.6089
ɞ	-16.6089
ɣ	-16.6089
ɨ	-16.6089
ɴ	-16.6089
ʃ	-16.6089
ʔ	-16.6089
ʚ	-16.6089
ʞ	-16.6089
ˆ	-16.6089
˹	-16.6089
˼	-16.6089
́	-16.6089
̌	-16.6089
̖	-16.6089
̗	-16.6089
̝	-16.6089
̠	-16.6089
̮	-16.6089
̸	-16.6089
͛	-16.6089
ͦ	-16.6089
Ά	-16.6089
ΐ	-16.6089
Η	-16.6089
Θ	-16.6089
Ι	-16.6089
Ρ	-16.6089
Σ	-16.6089
Ψ	-16.6089
Ϋ	-16.6089
ά	-16.6089
κ	-16.6089
χ	-16.6089
Ј	-16.6089
Ћ	-16.6089
А	-16.6089
Г	-16.6089
Й	-16.6089
К	-16.6089
ј	-16.6089
Ѣ	-16.6089
Ҏ	-16.6089
қ	-16.6089
Ҩ	-16.6089
Ұ	-16.6089
ҷ	-16.6089
Ӎ	-16.6089
Պ	-16.6089
ղ	-16.6089
վ	-16.6089
ք	-16.6089
ג	-16.6089
ס	-16.6089
צ	-16.6089
ת	-16.6089
؎	-16.6089
ٯ	-16.6089
ڗ	-16.6089
ڟ	-16.6089
ۚ	-16.6089
ۢ	-16.6089
ۥ	-16.6089
ۺ	-16.6089
܀	-16.6089
ܒ	-16.6089
ܨ	-16.6089
ܪ	-16.6089
ܵ	-16.6089
ݐ	-16.6089
ݒ	-16.6089
ݘ	-16.6089
ݧ	-16.6089
ހ	-16.6089
ވ	-16.6089
ߙ	-16.6089
࣪	-16.6089
घ	-16.6089
ङ	-16.6089
़	-16.6089
ॉ	-16.6089
॒	-16.6089
०	-16.6089
१	-16.6089
८	-16.6089
অ	-16.6089
ই	-16.6089
উ	-16.6089
এ	-16.6089
ঘ	-16.6089
ছ	-16.6089
জ	-16.6089
ধ	-16.6089
ভ	-16.6089
শ	-16.6089
ৌ	-16.6089
ਇ	-16.6089
ਈ	-16.6089
ਕ	-16.6089
ਥ	-16.6089
ਮ	-16.6089
ਲ	-16.6089
ਹ	-16.6089
ੇ	-16.6089
ੈ	-16.6089
ੋ	-16.6089
ੱ	-16.6089
છ	-16.6089
થ	-16.6089
ધ	-16.6089
સ	-16.6089
ુ	-16.6089
୪	-16.6089
ற	-16.6089
ఎ	-16.6089
చ	-16.6089
డ	-16.6089
ధ	-16.6089
ప	-16.6089
ే	-16.6089
ో	-16.6089
ಂ	-16.6089
ಡ	-16.6089
ಧ	-16.6089
ಸ	-16.6089
ധ	-16.6089
ള	-16.6089
උ	-16.6089
ක	-16.6089
ල	-16.6089
ව	-16.6089
ශ	-16.6089
ෑ	-16.6089
ෙ	-16.6089
อ	-16.6089
ฮ	-16.6089
ะ	-16.6089
ກ	-16.6089
ຂ	-16.6089
ຈ	-16.6089
ຖ	-16.6089
ນ	-16.6089
ພ	-16.6089
ຢ	-16.6089
ະ	-16.6089
ົ	-16.6089
ເ	-16.6089
༄	-16.6089
༅	-16.6089
༺	-16.6089
࿅	-16.6089
ა	-16.6089
თ	-16.6089
კ	-16.6089
მ	-16.6089
ნ	-16.6089
უ	-16.6089
ላ	-16.6089
ም	-16.6089
ሩ	-16.6089
ር	-16.6089
በ	-16.6089
ቦ	-16.6089
ታ	-16.6089
ት	-16.6089
ነ	-16.6089
ኔ	-16.6089
ኝ	-16.6089
አ	-16.6089
ዎ	-16.6089
ዘ	-16.6089
ዴ	-16.6089
ጋ	-16.6089
ጎ	-16.6089
ጠ	-16.6089
ጣ	-16.6089
ጥ	-16.6089
ፈ	-16.6089
ፍ	-16.6089
ញ	-16.6089
ព	-16.6089
ភ	-16.6089
េ	-16.6089
ំ	-16.6089
្	-16.6089
᪣	-16.6089
᭄	-16.6089
ᴀ	-16.6089
ᴋ	-16.6089
᷂	-16.6089
ḑ	-16.6089
ḭ	-16.6089
Ḿ	-16.6089
ṛ	-16.6089
Ṝ	-16.6089
ṩ	-16.6089
Ṽ	-16.6089
Ạ	-16.6089
Ể	-16.6089
ệ	-16.6089
Ụ	-16.6089
ụ	-16.6089
ỹ	-16.6089
⁀	-16.6089
₦	-16.6089
₳	-16.6089
₹	-16.6089
₼	-16.6089
⃕	-16.6089
⃟	-16.6089
⃢	-16.6089
↙	-16.6089
↜	-16.6089
↝	-16.6089
↣	-16.6089
↤	-16.6089
↫	-16.6089
↲	-16.6089
↷	-16.6089
⇐	-16.6089
⇜	-16.6089
⇢	-16.6089
∂	-16.6089
∇	-16.6089
∟	-16.6089
∴	-16.6089
≯	-16.6089
⏆	-16.6089
⏩	-16.6089
┇	-16.6089
═	-16.6089
▂	-16.6089
▃	-16.6089
□	-16.6089
▫	-16.6089
◝	-16.6089
◤	-16.6089
◥	-16.6089
◾	-16.6089
☁	-16.6089
☃	-16.6089
☄	-16.6089
☔	-16.6089
☚	-16.6089
☛	-16.6089
☠	-16.6089
☽	-16.6089
☿	-16.6089
♃	-16.6089
♄	-16.6089
♎	-16.6089
♒	-16.6089
♭	-16.6089
⚒	-16.6089
⚠	-16.6089
⛳	-16.6089
⛺	-16.6089
✇	-16.6089
✜	-16.6089
✞	-16.6089
✭	-16.6089
✳	-16.6089
❒	-16.6089
❔	-16.6089
❶	-16.6089
➓	-16.6089
➘	-16.6089
➟	-16.6089
➥	-16.6089
➬	-16.6089
⦿	-16.6089
⬅	-16.6089
⬆	-16.6089
⬸	-16.6089
⸁	-16.6089
⸙	-16.6089
〈	-16.6089
〉	-16.6089
》	-16.6089
あ	-16.6089
え	-16.6089
お	-16.6089
か	-16.6089
が	-16.6089
く	-16.6089
さ	-16.6089
な	-16.6089
へ	-16.6089
ょ	-16.6089
わ	-16.6089
ん	-16.6089
エ	-16.6089
ク	-16.6089
ス	-16.6089
チ	-16.6089
ッ	-16.6089
バ	-16.6089
マ	-16.6089
ム	-16.6089
ヮ	-16.6089
一	-16.6089
了	-16.6089
传	-16.6089
位	-16.6089
何	-16.6089
刀	-16.6089
力	-16.6089
午	-16.6089
南	-16.6089
厩	-16.6089
古	-16.6089
吗	-16.6089
国	-16.6089
场	-16.6089
報	-16.6089
多	-16.6089
夢	-16.6089
如	-16.6089
子	-16.6089
学	-16.6089
它	-16.6089
少	-16.6089
屋	-16.6089
年	-16.6089
庆	-16.6089
彙	-16.6089
彩	-16.6089
很	-16.6089
情	-16.6089
感	-16.6089
打	-16.6089
教	-16.6089
料	-16.6089
斯	-16.6089
於	-16.6089
月	-16.6089
机	-16.6089
機	-16.6089
泊	-16.6089
波	-16.6089
爱	-16.6089
瑞	-16.6089
用	-16.6089
电	-16.6089
着	-16.6089
示	-16.6089
科	-16.6089
端	-16.6089
篇	-16.6089
終	-16.6089
职	-16.6089
背	-16.6089
节	-16.6089
花	-16.6089
葬	-16.6089
藍	-16.6089
蝶	-16.6089
要	-16.6089
詞	-16.6089
謝	-16.6089
话	-16.6089
语	-16.6089
谷	-16.6089
超	-16.6089
辛	-16.6089
迪	-16.6089
邏	-16.6089
钱	-16.6089
际	-16.6089
隨	-16.6089
雨	-16.6089
鲁	-16.6089
ꔫ	-16.6089
ꟽ	-16.6089
ꦿ	-16.6089
ꪝ	-16.6089
ꫀ	-16.6089
ꫛ	-16.6089
각	-16.6089
금	-16.6089
길	-16.6089
는	-16.6089
다	-16.6089
대	-16.6089
래	-16.6089
리	-16.6089
마	-16.6089
만	-16.6089
문	-16.6089
방	-16.6089
서	-16.6089
손	-16.6089
솔	-16.6089
송	-16.6089
시	-16.6089
얼	-16.6089
에	-16.6089
연	-16.6089
요	-16.6089
우	-16.6089
정	-16.6089
져	-16.6089
조	-16.6089
좋	-16.6089
지	-16.6089
평	-16.6089
하	-16.6089
할	-16.6089
해	-16.6089
형	-16.6089
화	-16.6089
효	-16.6089
희	-16.6089
﮶	-16.6089
𐎚	-16.6089
𐭣	-16.6089
𐭦	-16.6089
𐭪	-16.6089
𐭬	-16.6089
𓆩	-16.6089
𖣂	-16.6089
𖤈	-16.6089
𖤍	-16.6089
🅚	-16.6089
🅛	-16.6089
🅜	-16.6089
🅦	-16.6089
🇦	-16.6089
🇧	-16.6089
🇱	-16.6089
🇲	-16.6089
🇵	-16.6089
🇷	-16.6089
🇹	-16.6089
🌍	-16.6089
🌎	-16.6089
🌔	-16.6089
🌙	-16.6089
🌛	-16.6089
🌜	-16.6089
🌝	-16.6089
🌞	-16.6089
🌧	-16.6089
🌱	-16.6089
🌵	-16.6089
🌺	-16.6089
🍂	-16.6089
🍃	-16.6089
🍇	-16.6089
🍉	-16.6089
🍕	-16.6089
🍩	-16.6089
🍰	-16.6089
🍷	-16.6089
🍻	-16.6089
🍾	-16.6089
🍿	-16.6089
🎁	-16.6089
🎃	-16.6089
🎅	-16.6089
🎞	-16.6089
🎥	-16.6089
🎨	-16.6089
🎯	-16.6089
🎶	-16.6089
🏆	-16.6089
🏖	-16.6089
🏣	-16.6089
🏭	-16.6089
🏳	-16.6089
🏹	-16.6089
🏽	-16.6089
🐍	-16.6089
🐕	-16.6089
🐾	-16.6089
👃	-16.6089
👕	-16.6089
👠	-16.6089
👢	-16.6089
👧	-16.6089
👭	-16.6089
👲	-16.6089
👳	-16.6089
👾	-16.6089
💀	-16.6089
💃	-16.6089
💇	-16.6089
💈	-16.6089
💒	-16.6089
💣	-16.6089
💦	-16.6089
💷	-16.6089
📄	-16.6089
📑	-16.6089
📛	-16.6089
📥	-16.6089
📩	-16.6089
📮	-16.6089
📲	-16.6089
📸	-16.6089
📿	-16.6089
🔆	-16.6089
🔈	-16.6089
🔐	-16.6089
🔗	-16.6089
🕊	-16.6089
🕌	-16.6089
🖼	-16.6089
🗯	-16.6089
🗿	-16.6089
😑	-16.6089
😧	-16.6089
😲	-16.6089
😷	-16.6089
🙃	-16.6089
🙅	-16.6089
🙆	-16.6089
🙇	-16.6089
🙋	-16.6089
🙌	-16.6089
🚌	-16.6089
🚓	-16.6089
🚣	-16.6089
🚨	-16.6089
🚫	-16.6089
🚭	-16.6089
🚵	-16.6089
🚷	-16.6089
🛌	-16.6089
🛐	-16.6089
🛒	-16.6089
🛰	-16.6089
🟥	-16.6089
🤒	-16.6089
🤕	-16.6089
🤚	-16.6089
🤟	-16.6089
🤠	-16.6089
🤲	-16.6089
🤸	-16.6089
🤹	-16.6089
🦽	-16.6089
🧑	-16.6089
🧖	-16.6089
🧚	-16.6089
🧝	-16.6089
►	-16.6089
æ	-16.6089
ɕ	-16.6089
ձ	-16.6089
ִ	-16.6089
ڰ	-16.6089
హ	-16.6089
ᑐ	-16.6089
♈	-16.6089
♊	-16.6089
♋	-16.6089
♓	-16.6089
ß	-16.6089
Ĥ	-16.6089
Ǿ	-16.6089
Μ	-16.6089
Ѧ	-16.6089
ҽ	-16.6089
ఇ	-16.6089
സ	-16.6089
ḿ	-16.6089
Ἄ	-16.6089
之	-16.6089
云	-16.6089
惠	-16.6089
纳	-16.6089
ꓤ	-16.6089
양	-16.6089
🦯	-16.6089
ή	-16.6089
ਜ	-16.6089
ਪ	-16.6089
£	-16.609
ꖾ	-16.609
𓆪	-16.609
