<unk>	0
<s>	0
</s>	0
هه	-0
▁ا	-1
▁ج	-2
▁م	-3
ان	-4
▁ڪ	-5
▁ت	-6
▁س	-7
هههه	-8
▁آ	-9
▁ه	-10
▁و	-11
▁جي	-12
ري	-13
هي	-14
▁پ	-15
▁ب	-16
▁ک	-17
ين	-18
هن	-19
ون	-20
▁ن	-21
▁آهي	-22
ار	-23
يو	-24
لا	-25
▁۾	-26
▁ٿ	-27
ئي	-28
▁کي	-29
▁ر	-30
ال	-31
▁ان	-32
▁۽	-33
يا	-34
ــ	-35
هههههههه	-36
▁جو	-37
ور	-38
ند	-39
▁گ	-40
▁ش	-41
لي	-42
▁ته	-43
▁.	-44
▁ع	-45
▁د	-46
▁اس	-47
ائ	-48
نهن	-49
جي	-50
▁ڏ	-51
▁خ	-52
▁لا	-53
▁ح	-54
▁چ	-55
▁تي	-56
▁ف	-57
ام	-58
▁،	-59
▁هڪ	-60
▁ڪري	-61
▁اه	-62
تي	-63
اڻ	-64
▁ٻ	-65
دي	-66
ءِ	-67
▁ل	-68
▁کان	-69
رو	-70
▁هههههههه	-71
▁سان	-72
▁به	-73
اري	-74
▁ق	-75
▁ڪر	-76
▁نه	-77
▁ٿي	-78
▁هن	-79
اب	-80
▁اي	-81
▁ط	-82
دا	-83
▁هو	-84
▁ص	-85
▁تو	-86
ائي	-87
ير	-88
▁آهن	-89
▁ال	-90
▁ڪرڻ	-91
ــــ	-92
يڪ	-93
▁ڇ	-94
▁ٿو	-95
هان	-96
ني	-97
▁اسان	-98
▁"	-99
ست	-100
دو	-101
مي	-102
▁اهو	-103
▁يا	-104
▁جيڪ	-105
▁لاءِ	-106
▁پي	-107
▁ي	-108
هر	-109
ءَ	-110
ول	-111
▁مو	-112
نهنجي	-113
▁ڊ	-114
▁ٽ	-115
را	-116
يل	-117
▁سگ	-118
▁(	-119
سي	-120
▁توهان	-121
▁1	-122
▁ز	-123
▁ڪيو	-124
▁من	-125
▁پر	-126
يت	-127
▁مان	-128
▁جا	-129
▁مون	-130
ڏهن	-131
▁هي	-132
جو	-133
ات	-134
نگ	-135
▁پو	-136
قي	-137
ها	-138
لو	-139
ائين	-140
▁ما	-141
▁ڳ	-142
▁2	-143
قت	-144
▁وا	-145
ھن	-146
▁ڪند	-147
▁ٿا	-148
▁مع	-149
اني	-150
ههه	-151
ھي	-152
هو	-153
اهي	-154
يم	-155
▁ڪو	-156
ڙي	-157
▁رو	-158
▁وڌ	-159
▁ڀ	-160
▁وي	-161
▁ڪم	-162
رين	-163
▁سو	-164
اد	-165
ئن	-166
▁ئي	-167
رف	-168
▁پنهنجي	-169
ڪي	-170
▁لاء	-171
▁او	-172
▁رهي	-173
شن	-174
سٽ	-175
▁ويو	-176
▁بي	-177
ئين	-178
له	-179
▁انهن	-180
▁مي	-181
بر	-182
از	-183
اص	-184
▁هههههههههههه	-185
▁طور	-186
اا	-187
اس	-188
▁است	-189
▁سڀ	-190
ورت	-191
▁وڃ	-192
بي	-193
▁هههه	-194
▁غ	-195
▁ڪي	-196
▁گه	-197
▁ض	-198
ٽي	-199
▁-	-200
اي	-201
اف	-202
گر	-203
اڻي	-204
عم	-205
▁ھ	-206
▁خو	-207
▁ڏين	-208
اڪ	-209
▁ذ	-210
گي	-211
▁سم	-212
▁مل	-213
▁مح	-214
سم	-215
ڏي	-216
▁ماڻ	-217
کي	-218
▁په	-219
▁وين	-220
▁وڌيڪ	-221
ٽر	-222
▁ك	-223
▁هون	-224
▁وقت	-225
ارو	-226
▁بر	-227
مل	-228
الي	-229
▁ڪج	-230
ڙو	-231
▁سي	-232
در	-233
▁في	-234
▁اين	-235
▁سال	-236
چي	-237
مت	-238
▁گهر	-239
▁هر	-240
▁ڇا	-241
▁در	-242
نيا	-243
عي	-244
▁آھي	-245
▁سند	-246
▁اڳ	-247
▁ڏي	-248
نا	-249
خت	-250
عمال	-251
▁ور	-252
صو	-253
▁جنهن	-254
▁استعمال	-255
تو	-256
▁ڪئي	-257
▁ري	-258
▁مش	-259
▁مر	-260
بو	-261
▁سر	-262
▁مس	-263
▁تع	-264
دار	-265
▁تر	-266
▁شي	-267
▁جن	-268
▁اهي	-269
▁20	-270
▁هئي	-271
▁تائين	-272
ــــــــ	-273
▁ڳال	-274
▁واري	-275
▁ام	-276
▁جيڪو	-277
▁گڏ	-278
▁ڪنهن	-279
رن	-280
سو	-281
ائڻ	-282
▁ڪن	-283
اه	-284
▁نظ	-285
ڻي	-286
▁ڪريو	-287
▁ٺ	-288
▁ڪجهه	-289
ڪن	-290
لم	-291
▁سن	-292
وي	-293
فت	-294
ڪو	-295
▁لي	-296
▁چيو	-297
▁ٿين	-298
▁مق	-299
▁اها	-300
ندي	-301
▁سگهي	-302
▁جڏهن	-303
▁ڏينهن	-304
سان	-305
▁رک	-306
▁بس	-307
▁نو	-308
▁وڃي	-309
▁3	-310
هم	-311
زي	-312
▁جيڪي	-313
in	-314
▁سا	-315
▁شا	-316
▁تم	-317
رح	-318
▁ڌ	-319
ارن	-320
ٺي	-321
ئر	-322
جن	-323
اصل	-324
▁مط	-325
▁پوءِ	-326
نهنجو	-327
ئون	-328
▁انهي	-329
▁لڳ	-330
▁حاصل	-331
في	-332
▁منهنجي	-333
جود	-334
▁ٻڌ	-335
▁با	-336
▁ڊي	-337
▁سندس	-338
▁ضر	-339
▁اع	-340
▁ڪيت	-341
▁دو	-342
▁پاڻ	-343
ڪر	-344
ندو	-345
ٿي	-346
▁جيڪڏهن	-347
▁اح	-348
ڻو	-349
روع	-350
▁از	-351
بت	-352
ڪل	-353
00	-354
ايو	-355
▁هئ	-356
▁تح	-357
نو	-358
▁اص	-359
بل	-360
ثر	-361
▁شروع	-362
▁تمام	-363
▁ناهي	-364
من	-365
▁ڄ	-366
اح	-367
er	-368
مين	-369
▁گھ	-370
ڪا	-371
▁پرو	-372
▁علي	-373
▁ها	-374
▁ڇو	-375
▁الله	-376
شي	-377
▁باب	-378
▁پن	-379
ڪار	-380
▁يو	-381
▁ههههههههه	-382
▁ڪار	-383
▁ڪا	-384
▁دنيا	-385
لام	-386
▁ٽي	-387
▁ٿيو	-388
▁فر	-389
ما	-390
ءُ	-391
ـــ	-392
▁رهيو	-393
▁ڇڏ	-394
▁جون	-395
ھان	-396
▁صح	-397
▁سمج	-398
▁انت	-399
مو	-400
▁زند	-401
ائن	-402
ده	-403
▁مت	-404
نڊ	-405
▁مد	-406
مان	-407
▁اُ	-408
▁وئي	-409
▁بهت	-410
وو	-411
امل	-412
پي	-413
وري	-414
▁ههههههههههه	-415
▁دور	-416
▁ٻي	-417
جا	-418
▁ماڻهو	-419
▁وڏي	-420
▁وٽ	-421
▁ههههههه	-422
▁آر	-423
الو	-424
تم	-425
▁لک	-426
دڙ	-427
▁ضرورت	-428
▁يع	-429
▁تون	-430
ڪس	-431
ڪري	-432
▁تب	-433
▁5	-434
▁مخت	-435
▁ويندو	-436
ٺو	-437
امي	-438
انهن	-439
▁سب	-440
اهر	-441
▁دل	-442
▁پيدا	-443
دن	-444
▁نم	-445
كم	-446
لف	-447
▁ويا	-448
▁4	-449
ستان	-450
▁علا	-451
▁پيش	-452
▁اخ	-453
▁صرف	-454
▁مار	-455
▁پار	-456
▁موجود	-457
▁پڻ	-458
عو	-459
▁چون	-460
▁آم	-461
▁آخ	-462
لب	-463
▁خاص	-464
▁ٿيڻ	-465
▁ڪڏهن	-466
يني	-467
▁اچي	-468
ائون	-469
▁عم	-470
▁زندگي	-471
on	-472
ar	-473
▁طرف	-474
▁وڏ	-475
▁نا	-476
▁چي	-477
▁ڏس	-478
▁ڪيئن	-479
ران	-480
ھو	-481
▁ڪندو	-482
▁لو	-483
▁را	-484
عد	-485
▁چو	-486
▁بابت	-487
▁قسم	-488
▁وال	-489
▁چاهي	-490
فا	-491
▁سڀني	-492
▁ماڻهن	-493
ولي	-494
▁أ	-495
▁پڙ	-496
▁ڪه	-497
▁ڪت	-498
▁تن	-499
▁طري	-500
▁ڪمپ	-501
an	-502
▁جيئن	-503
رت	-504
▁طرح	-505
شت	-506
هڻ	-507
سن	-508
▁s	-509
صي	-510
▁عمل	-511
▁201	-512
▁تنهن	-513
▁شامل	-514
وا	-515
ندا	-516
ندڙ	-517
▁ٻئي	-518
▁19	-519
▁؟	-520
▁ني	-521
▁مختلف	-522
▁وان	-523
▁گهٽ	-524
▁عام	-525
▁ڪندا	-526
▁هئا	-527
▁غير	-528
▁وارو	-529
رب	-530
▁بڻ	-531
▁اڄ	-532
▁آهيان	-533
▁هههههههههه	-534
پور	-535
▁اج	-536
▁اڪ	-537
es	-538
▁گذ	-539
اااا	-540
لس	-541
▁خبر	-542
▁ڳالهه	-543
▁تج	-544
▁ههههههههههههه	-545
▁رهيا	-546
سين	-547
▁مڪ	-548
▁مدد	-549
▁يعني	-550
۔۔	-551
ٽن	-552
▁هوندي	-553
▁ظ	-554
▁واق	-555
▁خي	-556
ريون	-557
ارا	-558
▁سائي	-559
قو	-560
طي	-561
وني	-562
▁سنڌ	-563
فر	-564
▁حقي	-565
▁شاي	-566
▁ڏانهن	-567
ٽو	-568
▁ٻن	-569
▁ملڪ	-570
▁گهرجي	-571
دم	-572
▁بل	-573
▁S	-574
▁نن	-575
▁واپ	-576
▁ڪندي	-577
الت	-578
▁اندر	-579
▁نظر	-580
▁قو	-581
▁مث	-582
هين	-583
▁A	-584
▁هوندو	-585
▁آمري	-586
▁دا	-587
اتي	-588
▁ڪتاب	-589
▁آهيون	-590
ڊيو	-591
▁ڏيڻ	-592
بن	-593
at	-594
▁ڪندڙ	-595
▁جيڪا	-596
▁رس	-597
▁اچ	-598
▁نق	-599
اريخ	-600
▁ههههه	-601
▁ذري	-602
ڙا	-603
▁ياد	-604
▁ٻين	-605
▁سيا	-606
ذا	-607
▁ٿيل	-608
ضي	-609
▁آئون	-610
اند	-611
▁وچ	-612
▁ھڪ	-613
▁تاريخ	-614
▁اسٽ	-615
زا	-616
ڳو	-617
▁مڪمل	-618
▁جه	-619
▁پا	-620
▁جواب	-621
رم	-622
▁ڪيا	-623
لن	-624
ڊي	-625
▁عورت	-626
▁پس	-627
▁ادا	-628
رائي	-629
▁پري	-630
▁جم	-631
▁پاڪ	-632
▁کيس	-633
en	-634
▁نالو	-635
▁سبب	-636
▁فائ	-637
▁سگه	-638
▁نئين	-639
▁شهر	-640
زن	-641
▁ايس	-642
شش	-643
بار	-644
▁اد	-645
فظ	-646
▁گهڻو	-647
زار	-648
عت	-649
▁بنيا	-650
▁فو	-651
▁_	-652
به	-653
لاح	-654
ٽا	-655
▁تق	-656
▁يق	-657
▁بين	-658
▁بعد	-659
▁ث	-660
پو	-661
افي	-662
▁قيم	-663
▁پهرين	-664
▁تبدي	-665
▁'	-666
▁بد	-667
▁اهڙي	-668
or	-669
▁ايم	-670
▁انسان	-671
▁آن	-672
▁ختم	-673
▁هتي	-674
▁/	-675
▁اسڪ	-676
با	-677
▁6	-678
▁پيا	-679
لى	-680
ريل	-681
▁!	-682
▁آھن	-683
▁هاڻي	-684
▁پنهنجو	-685
▁انا	-686
al	-687
▁اف	-688
▁وري	-689
▁سگهو	-690
▁ات	-691
▁اڃ	-692
▁ٿيندو	-693
▁سيڪ	-694
يان	-695
▁اپ	-696
▁بند	-697
شه	-698
▁هل	-699
ڪيٽ	-700
▁مسئ	-701
▁سالن	-702
▁ڇڏيو	-703
▁پيو	-704
ضح	-705
▁شايد	-706
سر	-707
ورو	-708
▁ڪون	-709
▁رهن	-710
▁ڏئي	-711
▁t	-712
▁ٿئي	-713
▁اهم	-714
▁خلا	-715
▁هم	-716
▁ههههههههههههههه	-717
▁وٺ	-718
▁وڏو	-719
روري	-720
▁ڏا	-721
▁هيٺ	-722
▁هههههههههههههه	-723
▁c	-724
▁هٿ	-725
▁فون	-726
خل	-727
▁وس	-728
▁ايپ	-729
▁ملا	-730
▁دوست	-731
▁جان	-732
▁هههههه	-733
▁سام	-734
▁بح	-735
▁ملي	-736
▁ڦ	-737
جب	-738
ضو	-739
▁ڏنو	-740
▁انگ	-741
عا	-742
▁C	-743
▁نٿ	-744
▁صورت	-745
▁بهترين	-746
▁خط	-747
مون	-748
▁ڇڏي	-749
▁شو	-750
▁<	-751
▁خر	-752
▁دي	-753
▁آيو	-754
▁الا	-755
▁سگهن	-756
▁قيمت	-757
ارف	-758
▁خيال	-759
▁آئي	-760
▁ٻه	-761
▁M	-762
لوم	-763
▁مطلب	-764
▁وٺي	-765
▁ويب	-766
وار	-767
▁قان	-768
▁ٺاهي	-769
▁هجي	-770
▁ويندي	-771
يح	-772
▁ڀي	-773
▁ڪمپني	-774
▁حق	-775
▁پئي	-776
ههههههههه	-777
فو	-778
▁معي	-779
▁پڇ	-780
▁گو	-781
مد	-782
▁ڪوشش	-783
▁اوهان	-784
▁وانگر	-785
پورٽ	-786
▁منهنجو	-787
▁آهيو	-788
▁سوچ	-789
▁ٻيو	-790
ur	-791
▁پوء	-792
سوس	-793
▁خدا	-794
▁8	-795
يرا	-796
▁ذريعي	-797
▁خوش	-798
▁سوال	-799
▁رات	-800
▁7	-801
▁يون	-802
ليم	-803
▁ڪل	-804
▁عليه	-805
▁10	-806
it	-807
جڻ	-808
▁شر	-809
حد	-810
▁ڄاڻ	-811
▁ڪارو	-812
▁ار	-813
▁توھان	-814
جه	-815
اء	-816
هور	-817
ro	-818
▁ڳو	-819
▁مخ	-820
ھنجي	-821
▁امي	-822
▁صحيح	-823
▁گر	-824
لق	-825
▁d	-826
▁فار	-827
تا	-828
پر	-829
ing	-830
داري	-831
▁ٻار	-832
▁بچ	-833
يور	-834
▁آخر	-835
▁منهن	-836
▁لفظ	-837
▁ٽيڪ	-838
le	-839
▁P	-840
▁ڪيل	-841
▁مال	-842
▁سائيٽ	-843
▁غل	-844
▁پاڻي	-845
▁حقيقت	-846
شان	-847
▁تصو	-848
▁هنن	-849
يد	-850
كن	-851
▁مض	-852
="	-853
▁معلوم	-854
سل	-855
▁ڏسي	-856
▁اوھان	-857
يون	-858
▁بو	-859
زو	-860
▁تص	-861
▁حڪ	-862
▁قاب	-863
▁اڃا	-864
▁ترقي	-865
▁جاري	-866
ڊيا	-867
▁اتي	-868
زم	-869
ورن	-870
▁الم	-871
▁بن	-872
▁دوران	-873
▁فيص	-874
▁اک	-875
▁ننڍ	-876
تن	-877
اهه	-878
صر	-879
▁انتظ	-880
▁ڪان	-881
▁مم	-882
ياتي	-883
▁والله	-884
▁مٿ	-885
اءِ	-886
▁سڄ	-887
▁رنگ	-888
▁ائين	-889
▁حڪو	-890
▁عال	-891
▁ڪيترن	-892
▁ضروري	-893
▁T	-894
▁سين	-895
▁حالت	-896
هههههههههههه	-897
▁منظ	-898
▁9	-899
▁شك	-900
▁صف	-901
▁مواد	-902
▁ظاهر	-903
يي	-904
▁ولا	-905
باد	-906
▁حصو	-907
▁اصل	-908
▁گھر	-909
▁ٻاهر	-910
▁حل	-911
ic	-912
▁صاح	-913
▁علائ	-914
▁جل	-915
▁جتي	-916
▁خد	-917
لين	-918
▁بهتر	-919
▁سندن	-920
▁پاڪستان	-921
كت	-922
▁ساڳ	-923
▁چين	-924
ليل	-925
▁اٿ	-926
▁پون	-927
▁فق	-928
▁اثر	-929
خص	-930
▁مارڪيٽ	-931
▁پنهن	-932
راه	-933
▁ڪام	-934
▁الس	-935
▁محسوس	-936
▁اول	-937
▁حڪومت	-938
ره	-939
ڙن	-940
▁پهريون	-941
▁مٿي	-942
اپ	-943
▁ھن	-944
▁لڳي	-945
ائم	-946
▁آسان	-947
▁خري	-948
▁رکي	-949
▁سفر	-950
▁ڪجھ	-951
▁هوندا	-952
▁بال	-953
is	-954
دين	-955
▁مطاب	-956
▁مهي	-957
▁صلاح	-958
▁ڏسڻ	-959
ڊر	-960
▁اسين	-961
▁,	-962
▁هُ	-963
▁قر	-964
▁مست	-965
ضوع	-966
▁ڏني	-967
▁بيان	-968
▁عمر	-969
▁ٿيون	-970
هههههههههه	-971
▁اسپ	-972
▁B	-973
ed	-974
▁على	-975
لامي	-976
▁آمريڪا	-977
آآ	-978
▁تصوير	-979
قا	-980
ارت	-981
ستي	-982
▁اھو	-983
▁مج	-984
▁سک	-985
▁پهچ	-986
▁جنگ	-987
▁نف	-988
؟"	-989
▁>	-990
انو	-991
ظيم	-992
▁روز	-993
▁طرفان	-994
ههههههههههه	-995
داد	-996
▁جسم	-997
▁خلاف	-998
ِي	-999
يات	-1000
▁معيار	-1001
▁لائن	-1002
▁اندا	-1003
قل	-1004
▁*	-1005
▁صاحب	-1006
ساني	-1007
؟؟	-1008
ڏھن	-1009
▁پئ	-1010
▁ڏک	-1011
صد	-1012
▁شع	-1013
▁وارا	-1014
▁قب	-1015
▁ٿيندي	-1016
▁رڳو	-1017
اج	-1018
▁خدمت	-1019
▁سگهجي	-1020
▁رکڻ	-1021
ميشه	-1022
▁سه	-1023
▁چار	-1024
▁آف	-1025
▁رد	-1026
ڪٽ	-1027
گرام	-1028
پري	-1029
▁حو	-1030
اسين	-1031
ياري	-1032
ٽرو	-1033
▁اختي	-1034
▁مثال	-1035
ڌي	-1036
▁چه	-1037
▁خود	-1038
▁تنهنجي	-1039
▁عو	-1040
لان	-1041
هائي	-1042
▁الح	-1043
▁ڏيک	-1044
▁راند	-1045
ازي	-1046
▁زمين	-1047
▁هوءَ	-1048
▁دست	-1049
▁عر	-1050
هون	-1051
ڪاري	-1052
▁پيار	-1053
ديد	-1054
غير	-1055
ڪرو	-1056
▁تبديل	-1057
▁قانون	-1058
ائل	-1059
▁تيار	-1060
▁اش	-1061
اڪاڻ	-1062
▁شخص	-1063
▁ڊيٽا	-1064
▁واپس	-1065
باني	-1066
▁ايران	-1067
ئڻ	-1068
▁تان	-1069
▁ريا	-1070
▁ڏاڍ	-1071
▁نتي	-1072
▁p	-1073
▁حلو	-1074
▁بخ	-1075
▁ڇاڪاڻ	-1076
▁پيداوار	-1077
▁ھو	-1078
▁پسند	-1079
▁برا	-1080
20	-1081
▁تف	-1082
▁منت	-1083
▁اب	-1084
لائي	-1085
سٽم	-1086
▁I	-1087
▁قدر	-1088
▁چونڊ	-1089
▁مشهور	-1090
re	-1091
▁ڪيترائي	-1092
▁قابل	-1093
رر	-1094
▁سچ	-1095
▁ڏيو	-1096
▁مص	-1097
تل	-1098
▁بلا	-1099
ائو	-1100
▁فرا	-1101
اھ	-1102
▁اعلي	-1103
حي	-1104
انن	-1105
ٽل	-1106
▁انهيءَ	-1107
▁اجاز	-1108
▁نظام	-1109
▁ڪلا	-1110
▁هميشه	-1111
ڌو	-1112
▁تقري	-1113
▁چوڻ	-1114
).	-1115
▁موق	-1116
اسب	-1117
▁دف	-1118
▁صن	-1119
▁ٻنهي	-1120
▁کا	-1121
am	-1122
▁اجازت	-1123
قن	-1124
▁آيا	-1125
▁ڊگ	-1126
مبر	-1127
▁صارف	-1128
تر	-1129
▁آو	-1130
▁نيو	-1131
▁سڏ	-1132
▁مونکي	-1133
▁عن	-1134
▁طا	-1135
▁داخل	-1136
as	-1137
ذه	-1138
ac	-1139
▁ڏٺو	-1140
▁شين	-1141
▁خوب	-1142
▁يقين	-1143
ڻيڪ	-1144
▁باري	-1145
سپ	-1146
▁كل	-1147
توڻيڪ	-1148
دس	-1149
▁سٺو	-1150
▁نٿو	-1151
ڪيشن	-1152
▁الي	-1153
▁مري	-1154
▁پاس	-1155
▁شاع	-1156
▁[	-1157
▁پير	-1158
▁بنيادي	-1159
فوظ	-1160
قيق	-1161
▁ھي	-1162
▁آز	-1163
ائر	-1164
ياب	-1165
ميت	-1166
▁مهر	-1167
▁وارن	-1168
▁هذا	-1169
▁کانپو	-1170
▁وز	-1171
▁سرو	-1172
▁وڃڻ	-1173
▁جيتوڻيڪ	-1174
نت	-1175
▁راب	-1176
▁محفوظ	-1177
▁توکي	-1178
يس	-1179
ريڪ	-1180
▁پلي	-1181
us	-1182
art	-1183
▁لائ	-1184
▁موڪل	-1185
▁طاقت	-1186
▁ڏن	-1187
▁قائم	-1188
ــــــــــــ	-1189
▁حس	-1190
▁ڪونه	-1191
om	-1192
▁گراه	-1193
▁موضوع	-1194
▁بار	-1195
▁پروگرام	-1196
▁آواز	-1197
▁st	-1198
▁يور	-1199
وٽ	-1200
▁b	-1201
بان	-1202
et	-1203
خوا	-1204
▁H	-1205
▁ڳول	-1206
حا	-1207
ٽري	-1208
وه	-1209
▁واقعي	-1210
اريو	-1211
ضحك	-1212
▁مين	-1213
▁ڊو	-1214
▁نئون	-1215
▁مُ	-1216
▁ڄڻ	-1217
▁سمجهي	-1218
▁شه	-1219
ڙهي	-1220
▁N	-1221
▁کڻي	-1222
▁معلومات	-1223
▁ابو	-1224
▁ايت	-1225
ion	-1226
▁شيء	-1227
▁وار	-1228
▁آء	-1229
▁هيو	-1230
▁آه	-1231
▁سگھ	-1232
▁هجڻ	-1233
▁ڪير	-1234
▁تعليم	-1235
▁ويندا	-1236
ليس	-1237
▁اسلامي	-1238
▁D	-1239
يڪل	-1240
▁شادي	-1241
▁حڪم	-1242
▁سخت	-1243
▁خريد	-1244
▁ايڪس	-1245
▁تحقيق	-1246
ريا	-1247
▁مطابق	-1248
سا	-1249
هار	-1250
▁آخري	-1251
خواست	-1252
▁محبت	-1253
▁اڪثر	-1254
▁فراهم	-1255
ارين	-1256
▁مقصد	-1257
▁پنھنجي	-1258
▁منصو	-1259
▁ڪور	-1260
▁خراب	-1261
▁اسڪول	-1262
▁G	-1263
ڻڻ	-1264
ماني	-1265
ٽس	-1266
گل	-1267
ريان	-1268
▁اميد	-1269
▁حد	-1270
▁گرو	-1271
▁کانپوءِ	-1272
▁جڳ	-1273
▁درخواست	-1274
▁حض	-1275
سٽر	-1276
▁تا	-1277
گو	-1278
▁معا	-1279
▁سگھي	-1280
▁نالي	-1281
▁سيڪڙو	-1282
▁L	-1283
▁سط	-1284
▁ٻارن	-1285
صل	-1286
▁چڪو	-1287
▁15	-1288
ريو	-1289
▁آزاد	-1290
▁ڀر	-1291
▁200	-1292
▁غلط	-1293
▁آهين	-1294
بح	-1295
▁اسٽي	-1296
▁سڃ	-1297
مم	-1298
اجي	-1299
رفت	-1300
دگي	-1301
▁گهڻي	-1302
▁18	-1303
ex	-1304
▁ٿيا	-1305
▁ٻيهر	-1306
طو	-1307
▁m	-1308
▁ڊاڪ	-1309
▁ميل	-1310
▁نام	-1311
▁آفي	-1312
▁ميم	-1313
ورا	-1314
▁فقط	-1315
▁ڪمي	-1316
▁مفت	-1317
▁انداز	-1318
id	-1319
▁سڄي	-1320
el	-1321
▁سائين	-1322
يائين	-1323
▁ڪپ	-1324
▁احس	-1325
▁روح	-1326
il	-1327
گار	-1328
ٽنگ	-1329
▁فيصلو	-1330
▁ڳاله	-1331
ليڪيشن	-1332
دان	-1333
▁پنج	-1334
شو	-1335
ائش	-1336
▁فلم	-1337
▁پاران	-1338
كر	-1339
▁اختيار	-1340
▁اض	-1341
."	-1342
▁نقص	-1343
عه	-1344
▁طريقي	-1345
▁خان	-1346
▁ڪهڙي	-1347
▁چڱ	-1348
▁عد	-1349
▁ٻولي	-1350
▁ذهن	-1351
▁ره	-1352
▁ٻڌايو	-1353
▁سائن	-1354
▁سياسي	-1355
▁رج	-1356
▁که	-1357
▁باقي	-1358
▁بنياد	-1359
▁حي	-1360
▁نوجو	-1361
▁کول	-1362
▁ڪڍ	-1363
▁انٽر	-1364
▁ڪافي	-1365
دارن	-1366
▁اڳتي	-1367
ow	-1368
تون	-1369
▁ڀا	-1370
▁مناسب	-1371
▁رست	-1372
▁ورتو	-1373
خخ	-1374
▁جدا	-1375
▁پٽ	-1376
عن	-1377
▁اچڻ	-1378
▁جهڙو	-1379
▁اڳو	-1380
▁مرڪ	-1381
▁انگري	-1382
يندا	-1383
رڪ	-1384
▁مقاب	-1385
▁عالمي	-1386
▁سُ	-1387
▁ڊاڪٽر	-1388
▁اك	-1389
ڊل	-1390
▁ملڪن	-1391
▁سطح	-1392
طن	-1393
لاجي	-1394
▁شيون	-1395
▁رياست	-1396
ورڊ	-1397
▁ايندڙ	-1398
زر	-1399
▁ميڊيا	-1400
▁دلچ	-1401
▁شاگر	-1402
▁اق	-1403
▁نس	-1404
▁ممڪن	-1405
▁اڻ	-1406
سٽي	-1407
▁قدم	-1408
▁تخ	-1409
جر	-1410
شم	-1411
▁ڏسو	-1412
▁نقصان	-1413
▁بيم	-1414
▁خوبص	-1415
▁وڊيو	-1416
▁رق	-1417
▁وج	-1418
▁ڳوٺ	-1419
▁تجر	-1420
يب	-1421
▁اڪائون	-1422
▁ويج	-1423
فتي	-1424
▁کين	-1425
▁سنگ	-1426
▁ڪٿي	-1427
▁فن	-1428
يتن	-1429
▁انج	-1430
▁چاهيو	-1431
▁ضرور	-1432
▁اون	-1433
▁ترتي	-1434
▁ڪاروبار	-1435
▁واحد	-1436
▁مه	-1437
چر	-1438
▁حال	-1439
فته	-1440
▁شروعات	-1441
▁السلام	-1442
هيل	-1443
▁مرح	-1444
▁f	-1445
▁اُن	-1446
▁لاڳ	-1447
نالاجي	-1448
▁ذاتي	-1449
▁مهرباني	-1450
▁(1	-1451
000	-1452
▁R	-1453
▁آمريڪي	-1454
oo	-1455
▁ٽيڪنالاجي	-1456
ad	-1457
▁مز	-1458
▁اعلان	-1459
▁طب	-1460
▁کن	-1461
▁اصلي	-1462
▁مسلم	-1463
اندي	-1464
شل	-1465
▁آءٌ	-1466
ڪشن	-1467
▁فارم	-1468
او	-1469
▁پڪ	-1470
ec	-1471
▁مضمون	-1472
▁صحت	-1473
▁مسئلو	-1474
حت	-1475
▁فع	-1476
▁گهڻ	-1477
▁حا	-1478
▁نمبر	-1479
▁ٽو	-1480
▁ترتيب	-1481
▁F	-1482
▁w	-1483
▁ڊر	-1484
▁E	-1485
▁بڻجي	-1486
گري	-1487
▁0	-1488
▁W	-1489
▁تعلق	-1490
▁تڪ	-1491
▁ماح	-1492
▁سسٽم	-1493
▁علم	-1494
▁مطال	-1495
▁انھن	-1496
▁ڪيون	-1497
اهڻ	-1498
▁12	-1499
زادي	-1500
ay	-1501
▁صدر	-1502
▁نش	-1503
▁تعم	-1504
▁تڏهن	-1505
▁انٽرني	-1506
الر	-1507
فاظ	-1508
▁حير	-1509
ريف	-1510
ئو	-1511
لات	-1512
▁هنڌ	-1513
▁حقيقي	-1514
▁ڊائون	-1515
▁ايئر	-1516
▁ڏنل	-1517
يندو	-1518
▁رپورٽ	-1519
▁لوڊ	-1520
▁ٽيم	-1521
▁وڻ	-1522
صوص	-1523
▁سٺي	-1524
▁گوگل	-1525
▁سون	-1526
▁يونيور	-1527
يه	-1528
انا	-1529
▁عورتن	-1530
ريءَ	-1531
▁صو	-1532
آن	-1533
▁مذه	-1534
دت	-1535
▁سپ	-1536
▁وڃن	-1537
▁طريقو	-1538
اتو	-1539
يلو	-1540
▁وض	-1541
▁ايل	-1542
▁تس	-1543
▁اسلام	-1544
▁ايپليڪيشن	-1545
ريب	-1546
▁موت	-1547
ستائين	-1548
▁انساني	-1549
ديم	-1550
▁ڳن	-1551
▁هين	-1552
▁ڪجي	-1553
اڻو	-1554
▁مشين	-1555
▁ڌر	-1556
▁چئي	-1557
▁سامان	-1558
▁پل	-1559
ڏو	-1560
▁الع	-1561
he	-1562
يابي	-1563
▁لڳو	-1564
▁ماءُ	-1565
▁ڏيکاري	-1566
ڪان	-1567
▁قوم	-1568
nd	-1569
▁1.	-1570
▁اخت	-1571
▁جيت	-1572
لت	-1573
ائيندو	-1574
▁ماحول	-1575
▁ڪردار	-1576
▁تعمير	-1577
هوري	-1578
▁رھ	-1579
▁دير	-1580
ٽرول	-1581
خي	-1582
انه	-1583
▁حفاظ	-1584
▁پورو	-1585
▁اِ	-1586
ou	-1587
▁لکڻ	-1588
▁ٺاهڻ	-1589
▁پيغ	-1590
▁پور	-1591
▁آپري	-1592
">	-1593
▁احساس	-1594
▁خوبصورت	-1595
▁11	-1596
▁اط	-1597
▁رفت	-1598
گه	-1599
▁بت	-1600
▁سماجي	-1601
ظم	-1602
▁نفس	-1603
ادي	-1604
▁موب	-1605
▁نڪ	-1606
▁سروس	-1607
▁پوليس	-1608
ميو	-1609
▁صنعت	-1610
▁متا	-1611
▁جديد	-1612
اط	-1613
▁جذ	-1614
▁ڪيس	-1615
▁30	-1616
▁پوري	-1617
▁پارٽي	-1618
▁هاي	-1619
ol	-1620
هاي	-1621
▁حصي	-1622
▁ڪرا	-1623
▁قومي	-1624
▁ڪهاڻي	-1625
رات	-1626
▁گذريل	-1627
▁حضرت	-1628
▁پوندو	-1629
▁روش	-1630
▁واضح	-1631
▁مساف	-1632
ـــــ	-1633
▁علاج	-1634
▁اڪائونٽ	-1635
بوط	-1636
▁تش	-1637
▁start	-1638
▁وق	-1639
احت	-1640
▁تبديلي	-1641
▁تيز	-1642
▁معني	-1643
▁ڀيرو	-1644
▁ٽن	-1645
▁بلڪل	-1646
مه	-1647
لاس	-1648
▁ده	-1649
ديق	-1650
زمي	-1651
▁نٿا	-1652
▁گراهڪن	-1653
▁حص	-1654
▁خاند	-1655
▁ايه	-1656
▁ٻيا	-1657
▁اکين	-1658
ag	-1659
▁dur	-1660
▁مرد	-1661
▁گفت	-1662
▁حوالي	-1663
ڪڻ	-1664
▁ڪوبه	-1665
<<	-1666
▁سف	-1667
يتون	-1668
▁وڌي	-1669
▁موجب	-1670
▁هيون	-1671
هيون	-1672
▁ميمبر	-1673
ھين	-1674
ot	-1675
كل	-1676
▁پاسي	-1677
▁سلس	-1678
▁عوام	-1679
▁وٺڻ	-1680
▁تاز	-1681
▁اعت	-1682
زائن	-1683
▁يورپ	-1684
حال	-1685
سڪ	-1686
مار	-1687
▁موجوده	-1688
▁آزادي	-1689
پن	-1690
▁هند	-1691
▁يار	-1692
▁قبول	-1693
▁مٿان	-1694
▁100	-1695
▁جها	-1696
▁•	-1697
▁ھڪڙو	-1698
▁ست	-1699
انس	-1700
▁ڪئ	-1701
ائيو	-1702
▁ڍ	-1703
▁پڙهي	-1704
▁ڏيندو	-1705
ڙين	-1706
▁عملي	-1707
ٽڻ	-1708
▁صاف	-1709
حان	-1710
▁گھٽ	-1711
▁عظيم	-1712
▁مقرر	-1713
▁ڪين	-1714
شڪ	-1715
▁آگ	-1716
▁آرٽ	-1717
خو	-1718
وووو	-1719
ارڻ	-1720
▁رح	-1721
▁سرگر	-1722
▁تعداد	-1723
▁گڏيل	-1724
▁رهڻ	-1725
▁لازمي	-1726
رار	-1727
▁نوجوان	-1728
ٺيان	-1729
▁اهڙو	-1730
شيا	-1731
▁باد	-1732
▁ڪيم	-1733
زل	-1734
▁حت	-1735
▁جلد	-1736
▁شرح	-1737
▁خرچ	-1738
الله	-1739
ter	-1740
▁عند	-1741
▁هاڻ	-1742
▁صبح	-1743
▁اھ	-1744
▁O	-1745
▁ڪنٽرول	-1746
▁له	-1747
▁انتظار	-1748
▁سج	-1749
▁ايف	-1750
▁مهيا	-1751
▁راندي	-1752
۔۔۔	-1753
▁سواءِ	-1754
▁رقم	-1755
▁پڙهڻ	-1756
▁نموني	-1757
▁مضبوط	-1758
ٽين	-1759
▁وسي	-1760
ٺا	-1761
▁إ	-1762
▁ترج	-1763
▁ِ	-1764
▁آفيس	-1765
▁انسٽ	-1766
▁پوسٽ	-1767
▁خواب	-1768
▁ڪريان	-1769
شنل	-1770
▁احت	-1771
▁خير	-1772
▁هلا	-1773
▁ڌيان	-1774
▁زندگيءَ	-1775
لع	-1776
▁بع	-1777
▁خوشي	-1778
▁يونيورسٽي	-1779
ته	-1780
▁لن	-1781
▁ڪهڙو	-1782
شق	-1783
مر	-1784
ابر	-1785
▁پنهنجن	-1786
▁لاڳاپ	-1787
ڳي	-1788
▁رکيو	-1789
▁پهچي	-1790
▁بينڪ	-1791
▁محمد	-1792
▁ڪاري	-1793
▁ذميو	-1794
▁شان	-1795
▁سگهون	-1796
خر	-1797
▁مڙ	-1798
▁ڪئين	-1799
▁بج	-1800
▁پرا	-1801
▁چا	-1802
نين	-1803
▁ديو	-1804
ext	-1805
پٽ	-1806
▁تہ	-1807
شر	-1808
دود	-1809
▁k	-1810
▁برط	-1811
▁منج	-1812
▁وزير	-1813
▁ذڪر	-1814
نه	-1815
تان	-1816
ليت	-1817
▁14	-1818
▁اَ	-1819
▁نيٽ	-1820
▁حم	-1821
▁مليو	-1822
▁اوزار	-1823
امو	-1824
▁پھ	-1825
▁وف	-1826
▁فائل	-1827
سٽري	-1828
▁سنڌي	-1829
كي	-1830
ثيت	-1831
▁روشني	-1832
▁فل	-1833
▁ٽر	-1834
▁to	-1835
▁ڪرڻو	-1836
راف	-1837
▁وش	-1838
▁آباد	-1839
▁حفاظت	-1840
▁واڌ	-1841
▁آرام	-1842
افت	-1843
▁فرق	-1844
▁ون	-1845
▁علاوه	-1846
ابت	-1847
قبل	-1848
▁جلدي	-1849
▁متاثر	-1850
▁چم	-1851
▁جنھن	-1852
▁ڪارڪر	-1853
▁جمع	-1854
▁هلي	-1855
▁شيءِ	-1856
▁معام	-1857
▁علائقي	-1858
ڪت	-1859
▁تصديق	-1860
▁ڪريون	-1861
يوٽر	-1862
▁مير	-1863
▁هيءَ	-1864
▁ڪارڪردگي	-1865
افٽ	-1866
ent	-1867
▁جھ	-1868
ائيل	-1869
▁وڪرو	-1870
ارڊ	-1871
▁هفتي	-1872
os	-1873
▁ضح	-1874
▁زال	-1875
قات	-1876
▁جمهوري	-1877
▁سرڪاري	-1878
▁ڪال	-1879
▁استاد	-1880
▁پُ	-1881
▁پيام	-1882
▁حيثيت	-1883
▁هزار	-1884
▁تنظيم	-1885
▁ڪلڪ	-1886
▁پهريان	-1887
▁لان	-1888
▁انق	-1889
▁ايو	-1890
▁ٺهيل	-1891
▁ڪراچي	-1892
▁جيڪڏھن	-1893
▁تنهنڪري	-1894
بد	-1895
مينٽ	-1896
داشت	-1897
اااااااا	-1898
▁گي	-1899
▁رسائي	-1900
▁زين	-1901
ونا	-1902
▁سنڀ	-1903
▁ڪارڊ	-1904
▁سيٽ	-1905
▁عرب	-1906
▁تجربو	-1907
▁؛	-1908
▁لك	-1909
▁انڊ	-1910
تال	-1911
▁مف	-1912
ڪيل	-1913
▁رستو	-1914
▁پڇيو	-1915
▁شكرا	-1916
چو	-1917
ers	-1918
ائيندي	-1919
ab	-1920
اله	-1921
▁ھڪڙي	-1922
ينڊ	-1923
▁يه	-1924
▁نشان	-1925
▁رفتار	-1926
▁ماڊل	-1927
الف	-1928
لاب	-1929
▁ٿيندا	-1930
▁موسم	-1931
ch	-1932
وز	-1933
▁غلطي	-1934
▁13	-1935
▁ايندو	-1936
ليف	-1937
▁in	-1938
ــــــــــــــــ	-1939
ميل	-1940
▁مهم	-1941
▁ڪمپيوٽر	-1942
▁عي	-1943
▁ونڊ	-1944
باري	-1945
▁جائ	-1946
▁2.	-1947
▁مڃ	-1948
▁فط	-1949
-1	-1950
im	-1951
▁25	-1952
ig	-1953
▁ليک	-1954
▁لاڳو	-1955
▁وجود	-1956
▁پال	-1957
شا	-1958
▁نوڪري	-1959
هايو	-1960
▁مالي	-1961
▁ميو	-1962
▁ماهر	-1963
▁شڪ	-1964
▁جاءِ	-1965
▁معاه	-1966
▁وه	-1967
بري	-1968
▁هڪڙي	-1969
▁ڏاڍو	-1970
▁گرفت	-1971
▁پيغام	-1972
▁ـ	-1973
▁وائر	-1974
▁اني	-1975
>>	-1976
گز	-1977
▁عدالت	-1978
▁مائ	-1979
▁ڪونهي	-1980
بلي	-1981
▁سائنس	-1982
ولو	-1983
▁ميز	-1984
▁ادب	-1985
▁مجمو	-1986
▁ڊالر	-1987
▁تصور	-1988
▁آءِ	-1989
▁امت	-1990
يءَ	-1991
▁وضاحت	-1992
▁انٽرنيٽ	-1993
▁انگريزي	-1994
▁اقت	-1995
▁پليٽ	-1996
▁ڳالهيون	-1997
سنگ	-1998
▁گم	-1999
هندي	-2000
▁قتل	-2001
ولت	-2002
▁نمي	-2003
حن	-2004
▁16	-2005
ائيندا	-2006
جون	-2007
▁دٻ	-2008
▁جوڙ	-2009
▁ويئي	-2010
▁گرمي	-2011
▁مستقبل	-2012
َن	-2013
ريم	-2014
ڪارڊ	-2015
▁اصول	-2016
▁رب	-2017
پس	-2018
دري	-2019
▁ول	-2020
▁بحث	-2021
▁پيرو	-2022
رحال	-2023
▁l	-2024
انڊ	-2025
قول	-2026
▁ٽران	-2027
▁نور	-2028
▁$	-2029
حه	-2030
and	-2031
▁17	-2032
▁حر	-2033
ٽيو	-2034
▁سلام	-2035
▁خواه	-2036
▁دفعو	-2037
▁بڻائي	-2038
▁سگهيو	-2039
▁يقيني	-2040
ريز	-2041
▁هدا	-2042
▁اسڪرين	-2043
▁شاء	-2044
▁ٿيندڙ	-2045
غان	-2046
▁گا	-2047
▁اڳيان	-2048
سه	-2049
باس	-2050
▁ويون	-2051
▁ولي	-2052
▁رهندو	-2053
ريت	-2054
ايل	-2055
ــــــ	-2056
▁ٻو	-2057
ئل	-2058
▁انتي	-2059
▁لکيو	-2060
▁=	-2061
▁ڪاميابي	-2062
▁ميڪ	-2063
▁گرم	-2064
▁سڃاڻ	-2065
▁ايمان	-2066
▁حسين	-2067
▁کو	-2068
▁ڪندڙن	-2069
▁ڪامياب	-2070
▁ههه	-2071
▁قيا	-2072
قوامي	-2073
▁ٿورو	-2074
ختي	-2075
لسل	-2076
▁ٻڌي	-2077
▁سگھو	-2078
صيل	-2079
▁انتظام	-2080
▁موبائل	-2081
جيب	-2082
راني	-2083
▁وزن	-2084
▁ايترو	-2085
▁لکي	-2086
▁امير	-2087
▁اظ	-2088
َر	-2089
▁زور	-2090
▁چند	-2091
▁ڪاب	-2092
▁سگهان	-2093
▁بخش	-2094
▁ٽرين	-2095
▁ابت	-2096
▁شڪل	-2097
▁اللي	-2098
ub	-2099
▁بنا	-2100
▁ڊگهي	-2101
▁بهرحال	-2102
▁قانوني	-2103
اڻن	-2104
▁امام	-2105
▁صورتحال	-2106
▁چئ	-2107
▁برابر	-2108
▁الاقوامي	-2109
21	-2110
▁سل	-2111
▁هال	-2112
▁اينڊ	-2113
▁ثابت	-2114
▁مخصوص	-2115
▁پيءُ	-2116
▁ايڊ	-2117
▁اگر	-2118
▁ريت	-2119
▁الن	-2120
ذي	-2121
لاق	-2122
▁قل	-2123
▁نسل	-2124
▁ڪوڊ	-2125
▁کانسو	-2126
▁اھي	-2127
▁برق	-2128
▁متع	-2129
▁شڪار	-2130
iv	-2131
▁ورڪ	-2132
▁U	-2133
▁تك	-2134
▁ناڪ	-2135
▁سوشل	-2136
▁ماري	-2137
▁مقابلي	-2138
▁پاب	-2139
▁هوس	-2140
▁منهنجا	-2141
▁جيستائين	-2142
وجود	-2143
▁ثق	-2144
▁جر	-2145
▁خوف	-2146
▁h	-2147
ڙيل	-2148
▁اڌ	-2149
ايان	-2150
▁ڪُ	-2151
غيره	-2152
▁حتى	-2153
▁مات	-2154
▁بورڊ	-2155
▁ڳولي	-2156
▁وفا	-2157
▁گري	-2158
▁خاندان	-2159
▁چونڊيو	-2160
▁صدي	-2161
▁حالتن	-2162
فه	-2163
▁آب	-2164
▁گل	-2165
▁عرصي	-2166
نٽ	-2167
▁گروپ	-2168
▁دوستن	-2169
▁چڪا	-2170
ation	-2171
▁اهڙا	-2172
▁سافٽ	-2173
▁انف	-2174
now	-2175
▁هڪڙو	-2176
انگ	-2177
▁آڪ	-2178
▁قط	-2179
▁تفصيل	-2180
قع	-2181
▁زمان	-2182
ئس	-2183
▁اڏ	-2184
▁ايندي	-2185
ڀر	-2186
ليق	-2187
▁چر	-2188
▁زي	-2189
▁X	-2190
▁افغان	-2191
▁تنهنجو	-2192
▁هيچ	-2193
زيشن	-2194
كك	-2195
▁سياست	-2196
▁سار	-2197
▁ڌرتي	-2198
مائي	-2199
▁دري	-2200
▁فلس	-2201
.1	-2202
▁زخ	-2203
▁ڳنڍ	-2204
▁لفظن	-2205
▁نگ	-2206
▁نڪري	-2207
▁گذاري	-2208
ڊا	-2209
▁سمنڊ	-2210
ندر	-2211
▁پوي	-2212
ul	-2213
▁ڳولا	-2214
بال	-2215
▁دعا	-2216
▁شم	-2217
▁توان	-2218
▁نص	-2219
▁طبي	-2220
اوي	-2221
▁يم	-2222
▁شاگردن	-2223
▁مارڪيٽنگ	-2224
▁کولڻ	-2225
ائيس	-2226
▁هيا	-2227
ڊڪٽ	-2228
کيون	-2229
▁ڳالھ	-2230
▁ملاقات	-2231
▁50	-2232
▁درو	-2233
ـــــــ	-2234
▁لم	-2235
▁نٿي	-2236
▁جڳهه	-2237
▁اضافي	-2238
▁باوجود	-2239
▁ماني	-2240
▁زماني	-2241
▁سوچيو	-2242
هرست	-2243
▁شام	-2244
▁نوٽ	-2245
تك	-2246
▁199	-2247
▁الف	-2248
▁حساب	-2249
▁بيماري	-2250
▁K	-2251
ap	-2252
▁آئين	-2253
▁اڇ	-2254
لينڊ	-2255
▁ايپل	-2256
ونه	-2257
▁فهرست	-2258
▁ويجهو	-2259
▁صلاحيت	-2260
▁ترين	-2261
▁جهڙوڪ	-2262
لك	-2263
▁اث	-2264
ir	-2265
ارٽ	-2266
▁درد	-2267
▁ملين	-2268
چه	-2269
ماغ	-2270
▁حياتي	-2271
▁#	-2272
سپي	-2273
▁آسم	-2274
▁خار	-2275
▁ٺيڪ	-2276
▁چوي	-2277
عات	-2278
▁هفت	-2279
▁فائدو	-2280
▁ملڻ	-2281
▁بلاگ	-2282
▁لائين	-2283
▁زبان	-2284
▁پنهنجا	-2285
em	-2286
يندي	-2287
عظم	-2288
▁فور	-2289
▁موڪ	-2290
▁منتقل	-2291
▁لاڳاپيل	-2292
▁ڪنداسين	-2293
▁مهين	-2294
▁وڌائڻ	-2295
▁سور	-2296
▁علائقن	-2297
هيه	-2298
▁مب	-2299
ڙيون	-2300
▁بادش	-2301
▁ڇوڪري	-2302
▁جهاز	-2303
▁سمجھ	-2304
▁باز	-2305
▁خال	-2306
▁سنڀال	-2307
▁سگھن	-2308
▁شاندار	-2309
▁ڀلي	-2310
▁ڇپ	-2311
▁فيس	-2312
▁چڪي	-2313
▁مختصر	-2314
▁ڪاروباري	-2315
▁عل	-2316
▁24	-2317
▁چاهيندا	-2318
▁نيوز	-2319
▁ميدان	-2320
ئا	-2321
▁o	-2322
▁عز	-2323
ولين	-2324
▁دماغ	-2325
طا	-2326
▁راندين	-2327
رز	-2328
▁ويڪ	-2329
ايت	-2330
ارتي	-2331
علي	-2332
▁دان	-2333
▁ڪلاڪ	-2334
جان	-2335
انيه	-2336
يز	-2337
ڪٽر	-2338
▁قد	-2339
▁2020	-2340
▁know	-2341
▁موسي	-2342
▁مهينن	-2343
وند	-2344
▁پک	-2345
▁بدر	-2346
▁انتهائي	-2347
هڪ	-2348
ينا	-2349
اما	-2350
▁دع	-2351
▁ٻڌائي	-2352
كه	-2353
ھر	-2354
▁اشت	-2355
عام	-2356
▁وص	-2357
▁درست	-2358
▁پريشان	-2359
ھنجو	-2360
▁رکو	-2361
▁ننڊ	-2362
▁رستي	-2363
▁قديم	-2364
▁پوئ	-2365
تح	-2366
▁تجز	-2367
بير	-2368
▁اٽ	-2369
▁پيڪ	-2370
▁مالڪ	-2371
▁ويئر	-2372
کان	-2373
▁کانسواءِ	-2374
▁مرا	-2375
▁لکيل	-2376
▁گذري	-2377
▁اکيون	-2378
نڊن	-2379
▁هئڻ	-2380
▁سڀئي	-2381
▁سامهون	-2382
▁الز	-2383
▁فعال	-2384
جد	-2385
▁غور	-2386
▁جڏھن	-2387
▁ساڳي	-2388
ئه	-2389
حاظ	-2390
▁بيشڪ	-2391
▁توانائي	-2392
پا	-2393
▁وڃو	-2394
▁وڏا	-2395
▁آپريشن	-2396
▁اهميت	-2397
▁اسپتال	-2398
▁نڪر	-2399
▁بجلي	-2400
▁شاعر	-2401
▁وغيره	-2402
▁راز	-2403
▁مقامي	-2404
▁بابا	-2405
▁چيزي	-2406
ess	-2407
▁نيا	-2408
▁ڌار	-2409
▁2019	-2410
ٽائي	-2411
▁جئين	-2412
▁رت	-2413
▁ڏو	-2414
▁موقعو	-2415
▁آمد	-2416
▁پين	-2417
▁منظر	-2418
▁دلچسپ	-2419
▁بيو	-2420
▁ويل	-2421
▁فض	-2422
▁ڪيائين	-2423
شتي	-2424
▁ساڻ	-2425
ِن	-2426
▁الص	-2427
▁بئن	-2428
ڏانهن	-2429
▁رڪارڊ	-2430
بيت	-2431
لز	-2432
▁g	-2433
▁।	-2434
▁نتيجي	-2435
▁دلچسپي	-2436
un	-2437
▁ڏيندا	-2438
▁بغير	-2439
▁ٺاهيو	-2440
▁برقرار	-2441
▁مگر	-2442
▁V	-2443
▁واپار	-2444
▁تقريبن	-2445
▁ڏاڍي	-2446
▁حيرت	-2447
▁سميت	-2448
▁آساني	-2449
▁صارفين	-2450
▁اعليٰ	-2451
▁بڻائڻ	-2452
▁آڻ	-2453
▁واس	-2454
▁اڃان	-2455
▁ميٽر	-2456
▁پوئتي	-2457
روف	-2458
▁شوي	-2459
سون	-2460
▁ڳالهائڻ	-2461
▁آڻڻ	-2462
▁پڙهن	-2463
▁آرٽيڪل	-2464
th	-2465
وت	-2466
▁بيڪ	-2467
▁لحاظ	-2468
مپ	-2469
▁n	-2470
▁بص	-2471
▁غريب	-2472
▁مسئلن	-2473
▁سمجهيو	-2474
ڙپ	-2475
▁ايڇ	-2476
▁مصنو	-2477
ڄي	-2478
تماد	-2479
ڙڻ	-2480
▁بھ	-2481
▁کل	-2482
▁روڊ	-2483
▁مسلسل	-2484
▁چاهيان	-2485
▁جام	-2486
▁محدود	-2487
▁ٽرانس	-2488
um	-2489
text	-2490
▁آفري	-2491
▁قسمن	-2492
حو	-2493
ٺل	-2494
▁قا	-2495
▁هيءُ	-2496
▁ايتري	-2497
▁ڏينھن	-2498
▁چيائين	-2499
▁اعتماد	-2500
ـــــــــ	-2501
يف	-2502
ايون	-2503
▁دين	-2504
▁2018	-2505
▁كان	-2506
▁سري	-2507
▁قبل	-2508
سس	-2509
▁شايع	-2510
▁3.	-2511
▁الڳ	-2512
▁اجلاس	-2513
ادر	-2514
▁سيل	-2515
دد	-2516
▁ايا	-2517
▁قرار	-2518
طه	-2519
▁قرض	-2520
▁تحفظ	-2521
▁ڪيترا	-2522
all	-2523
▁عا	-2524
▁مغ	-2525
▁ڊپ	-2526
▁تجرب	-2527
سنس	-2528
▁گهڻا	-2529
▁متح	-2530
ڪه	-2531
2.	-2532
ڪيو	-2533
▁کر	-2534
▁مشت	-2535
▁وائرس	-2536
مولي	-2537
كس	-2538
ٿر	-2539
▁يک	-2540
▁شوق	-2541
ائيڊ	-2542
يائي	-2543
▁فوج	-2544
ظر	-2545
▁^	-2546
▁زم	-2547
▁ارس	-2548
▁عبد	-2549
▁فٽ	-2550
▁عالم	-2551
▁بون	-2552
▁ادارن	-2553
▁مسافر	-2554
▁انسٽال	-2555
▁هُن	-2556
▁+	-2557
عودي	-2558
يندڙ	-2559
▁ڪندس	-2560
▁قدرتي	-2561
ينه	-2562
▁ڏکڻ	-2563
▁خالي	-2564
▁ڪنھن	-2565
▁مقدار	-2566
ثي	-2567
ڻن	-2568
▁هز	-2569
▁ڊائ	-2570
▁سواء	-2571
▁آخرڪار	-2572
▁i	-2573
▁جيان	-2574
▁حڪمت	-2575
▁منٽ	-2576
▁پائي	-2577
▁ڳولڻ	-2578
ڊيٽ	-2579
▁And	-2580
▁انص	-2581
▁عاد	-2582
▁ايراني	-2583
ٻي	-2584
▁وح	-2585
▁پوندي	-2586
وم	-2587
ارش	-2588
▁هجن	-2589
▁ويس	-2590
▁پلا	-2591
▁رابطو	-2592
▁عوامي	-2593
▁نظري	-2594
وف	-2595
وره	-2596
▁امان	-2597
ٿا	-2598
▁آس	-2599
▁جاچ	-2600
▁ٽيسٽ	-2601
▁يوم	-2602
▁مزاح	-2603
▁ننڍي	-2604
▁وب	-2605
▁اچو	-2606
▁ساڳيو	-2607
▁سماج	-2608
يراعظم	-2609
ڪم	-2610
▁اچن	-2611
▁مڇ	-2612
▁تصويرون	-2613
الن	-2614
▁جذب	-2615
رل	-2616
▁]	-2617
ااا	-2618
اءُ	-2619
لوي	-2620
▁اڪي	-2621
▁ناز	-2622
▁گڏو	-2623
▁جسماني	-2624
ڙيءَ	-2625
▁ليه	-2626
▁واٽ	-2627
▁امن	-2628
▁تحت	-2629
▁دعو	-2630
▁ذات	-2631
▁ورتي	-2632
ind	-2633
▁دوا	-2634
امه	-2635
▁الو	-2636
▁اظهار	-2637
ابي	-2638
▁يك	-2639
roid	-2640
▁سڏيو	-2641
▁مهيني	-2642
انھن	-2643
▁بق	-2644
▁نہ	-2645
بادي	-2646
▁قرآن	-2647
▁بم	-2648
▁ڳا	-2649
▁ڪسٽم	-2650
▁مذهبي	-2651
▁گھرجي	-2652
گن	-2653
▁سڌو	-2654
اڻڻ	-2655
▁طريق	-2656
▁مڙس	-2657
▁ويڊيو	-2658
▁هيڪ	-2659
▁چيڪ	-2660
▁بئنڪ	-2661
▁بندي	-2662
▁گڏجي	-2663
▁معياري	-2664
ut	-2665
ياد	-2666
▁سائ	-2667
▁عجيب	-2668
▁ساڳئي	-2669
▁ماڻھو	-2670
▁ڊوائيس	-2671
▁براي	-2672
▁واقع	-2673
▁پويان	-2674
▁re	-2675
▁مظ	-2676
جيٽل	-2677
۔۔۔۔	-2678
▁اوچ	-2679
▁حصن	-2680
▁شهري	-2681
▁امتحان	-2682
▁داخ	-2683
▁سلسلي	-2684
▁پروسي	-2685
▁ايجن	-2686
▁وَ	-2687
▁جنسي	-2688
▁ڪيترو	-2689
▁اسٽيشن	-2690
▁لائسنس	-2691
▁چنڊ	-2692
▁ابتدا	-2693
▁پول	-2694
▁ايئن	-2695
▁Android	-2696
▁وزيراعظم	-2697
▁وم	-2698
▁شرط	-2699
▁وات	-2700
▁احتجا	-2701
▁خامو	-2702
▁يس	-2703
▁مئي	-2704
ٽوبر	-2705
▁مارچ	-2706
▁شاگرد	-2707
گا	-2708
▁v	-2709
▁<<	-2710
▁لڪ	-2711
▁ڊيو	-2712
▁ڪرائي	-2713
▁وو	-2714
▁مجموعي	-2715
▁J	-2716
ميم	-2717
▁ارا	-2718
▁عشق	-2719
▁نمائ	-2720
حب	-2721
▁2017	-2722
▁منظم	-2723
▁مخالف	-2724
سته	-2725
گيري	-2726
▁ڏيندي	-2727
جم	-2728
▁بيت	-2729
▁جنم	-2730
▁لباس	-2731
▁21	-2732
▁40	-2733
▁فا	-2734
▁مافي	-2735
▁ملاز	-2736
▁کائڻ	-2737
▁منھنجي	-2738
ٽيءَ	-2739
▁com	-2740
▁ليکڪ	-2741
▁معمولي	-2742
ڊنگ	-2743
▁کار	-2744
▁اشارو	-2745
▁مسئلي	-2746
▁پراڻي	-2747
▁ارب	-2748
▁ڊجيٽل	-2749
▁مسلمان	-2750
ڪش	-2751
▁ساز	-2752
▁چڱي	-2753
▁منظور	-2754
▁مطابقت	-2755
▁ذميواري	-2756
لاد	-2757
▁مَ	-2758
▁ايندا	-2759
▁اڪيلو	-2760
▁بدران	-2761
ستاني	-2762
▁طريقا	-2763
▁شهي	-2764
▁هوا	-2765
▁ڪمري	-2766
oc	-2767
▁صد	-2768
▁ڪلو	-2769
▁پالي	-2770
▁دستياب	-2771
نديون	-2772
▁جهڙي	-2773
▁منزل	-2774
▁ڪورٽ	-2775
▁اسٽور	-2776
▁فرانس	-2777
▁تاريخي	-2778
کو	-2779
▁تجزيو	-2780
پشن	-2781
▁ٻڌڻ	-2782
▁انقلاب	-2783
▁نگر	-2784
▁ڪالي	-2785
▁جز	-2786
▁سَ	-2787
▁فرم	-2788
نج	-2789
▁آزم	-2790
▁ٽائي	-2791
▁آڪٽوبر	-2792
▁مشڪل	-2793
▁فڪر	-2794
▁مرڪز	-2795
▁گهربل	-2796
▁دستاوي	-2797
▁والدين	-2798
▁گرفتار	-2799
عل	-2800
▁خيلي	-2801
▁معنيٰ	-2802
ak	-2803
pt	-2804
▁سڌ	-2805
▁هه	-2806
▁الخ	-2807
▁مشك	-2808
▁اضاف	-2809
▁کليل	-2810
50	-2811
شمن	-2812
▁فري	-2813
st	-2814
رس	-2815
ليٽ	-2816
▁وڪي	-2817
▁سيڙپ	-2818
▁ممكن	-2819
▁ڪتابن	-2820
▁هندستان	-2821
▁آئ	-2822
▁ڪڍي	-2823
▁روشن	-2824
▁وانا	-2825
▁اسپين	-2826
▁سگهندا	-2827
کيه	-2828
پٽمبر	-2829
▁هوٽل	-2830
کر	-2831
▁>>	-2832
▁هيٺيان	-2833
▁ھئي	-2834
▁سيريز	-2835
ڻا	-2836
باب	-2837
▁اتر	-2838
▁حبي	-2839
▁اسيم	-2840
▁ڪابه	-2841
▁موٽي	-2842
▁شاعري	-2843
▁عليها	-2844
گير	-2845
▁جرم	-2846
▁تعريف	-2847
▁يورپي	-2848
▁ڪمپنين	-2849
▁بلو	-2850
▁گراهڪ	-2851
طف	-2852
▁سد	-2853
▁طريقن	-2854
▁يال	-2855
لڊ	-2856
▁ھر	-2857
▁ٿوري	-2858
▁سڪ	-2859
▁مدا	-2860
▁آل	-2861
▁جيئ	-2862
ov	-2863
="1	-2864
اره	-2865
▁پرين	-2866
▁خواهش	-2867
3.	-2868
فرن	-2869
▁ادي	-2870
▁طيب	-2871
▁۔۔۔	-2872
▁نيڪ	-2873
▁سينٽر	-2874
▁سيپٽمبر	-2875
▁فوجي	-2876
▁جائزو	-2877
▁اسم	-2878
▁سڄو	-2879
▁ڳالهين	-2880
▁زن	-2881
هيهي	-2882
▁موسيقي	-2883
▁مئ	-2884
▁رائ	-2885
▁سزا	-2886
▁سوچي	-2887
▁قومن	-2888
▁ڊزائن	-2889
▁ڪرائڻ	-2890
▁(2	-2891
▁باغ	-2892
▁فيه	-2893
▁حلوه	-2894
▁فطرت	-2895
▁پئسا	-2896
▁برو	-2897
▁راه	-2898
وال	-2899
▁چيز	-2900
نى	-2901
▁ٻُ	-2902
▁لنڪ	-2903
▁اتفا	-2904
▁نماز	-2905
▁جيترو	-2906
▁مشتمل	-2907
▁عنصر	-2908
▁انجني	-2909
▁دورو	-2910
▁واپسي	-2911
ندس	-2912
▁عذ	-2913
▁بونس	-2914
▁فوري	-2915
▁؟؟	-2916
▁گول	-2917
▁شاهه	-2918
▁ادائي	-2919
سك	-2920
لاءِ	-2921
▁فوٽو	-2922
▁اسيمبلي	-2923
▁خور	-2924
▁صور	-2925
▁چيني	-2926
if	-2927
امن	-2928
▁,,	-2929
ترين	-2930
▁فوت	-2931
▁ڏيئي	-2932
ائيندڙ	-2933
▁بود	-2934
▁شعر	-2935
▁ڀري	-2936
▁ڀيرا	-2937
▁آبادي	-2938
▁مھ	-2939
راهي	-2940
▁هدايت	-2941
▁چوندا	-2942
▁دائ	-2943
▁مور	-2944
▁محنت	-2945
▁رکندڙ	-2946
▁عه	-2947
▁هُو	-2948
▁خلاص	-2949
▁جنرل	-2950
وڙ	-2951
ائب	-2952
▁حما	-2953
▁نوان	-2954
▁تجو	-2955
▁تيل	-2956
▁روم	-2957
▁بحال	-2958
▁انعام	-2959
چار	-2960
▁چيم	-2961
▁آسمان	-2962
▁ترجمو	-2963
▁پهچائڻ	-2964
▁ساٿ	-2965
▁سست	-2966
▁ڀيٽ	-2967
▁چان	-2968
▁فقير	-2969
▁گيت	-2970
جڪ	-2971
▁ڪانه	-2972
▁اضافو	-2973
▁198	-2974
▁موٽر	-2975
▁المو	-2976
▁اخبار	-2977
ڊو	-2978
عتي	-2979
▁اڳي	-2980
▁مدي	-2981
عة	-2982
▁برطان	-2983
ڙڪ	-2984
▁~	-2985
▁تعا	-2986
▁ھون	-2987
▁رهندا	-2988
ھيو	-2989
▁ڪميون	-2990
▁سدائين	-2991
▁اذا	-2992
▁4.	-2993
▁دشمن	-2994
▁ساري	-2995
▁ميوز	-2996
▁سفارش	-2997
▁هينئر	-2998
▁ڪيتريون	-2999
آمد	-3000
▁وت	-3001
▁راح	-3002
▁وڏن	-3003
▁2016	-3004
▁ڀريل	-3005
گڏ	-3006
ack	-3007
▁آرڊر	-3008
▁ادبي	-3009
▁تنھن	-3010
▁سڃاڻپ	-3011
▁الج	-3012
▁سمجهڻ	-3013
▁تحريڪ	-3014
▁سياحت	-3015
سب	-3016
▁لل	-3017
:1	-3018
ضر	-3019
ُو	-3020
▁the	-3021
▁کڻڻ	-3022
رائيڊ	-3023
▁مذهب	-3024
▁گزار	-3025
ــــــــــ	-3026
بئي	-3027
عرف	-3028
▁رهندي	-3029
▁آگسٽ	-3030
▁قسمت	-3031
▁اداري	-3032
ثير	-3033
▁شما	-3034
▁عيس	-3035
▁ساٿي	-3036
▁صفحا	-3037
▁ڪاليج	-3038
ia	-3039
▁كله	-3040
▁مثل	-3041
▁برانڊ	-3042
▁ناڪام	-3043
يلن	-3044
▁197	-3045
▁پنا	-3046
▁آهنگ	-3047
▁انڪار	-3048
▁سگھجي	-3049
))	-3050
30	-3051
هيو	-3052
▁خاط	-3053
▁طلب	-3054
est	-3055
▁قص	-3056
▁ايشيا	-3057
▁انه	-3058
▁چڱو	-3059
▁رابطي	-3060
▁مسئلا	-3061
▁ونڊوز	-3062
▁سير	-3063
▁دڪان	-3064
▁گهري	-3065
▁حيران	-3066
ايه	-3067
▁ٻڌو	-3068
▁موڪليو	-3069
فيد	-3070
▁طال	-3071
▁ليش	-3072
▁ڊيزائن	-3073
▁انجنيئر	-3074
سمبر	-3075
▁عزت	-3076
▁پرڏي	-3077
▁موقعي	-3078
▁عزي	-3079
▁وسيع	-3080
▁حمايت	-3081
جهه	-3082
▁پَ	-3083
▁روس	-3084
▁مره	-3085
▁سوچڻ	-3086
▁مکيه	-3087
▁پٿر	-3088
▁نيست	-3089
▁ويهي	-3090
▁سموري	-3091
▁پروفي	-3092
pp	-3093
ٻئي	-3094
يورٽي	-3095
▁احتجاج	-3096
▁زر	-3097
▁آسٽ	-3098
▁زير	-3099
▁چور	-3100
▁فائلون	-3101
▁بغ	-3102
▁بک	-3103
▁حرف	-3104
▁ضاب	-3105
▁امڪان	-3106
پان	-3107
▁ائ	-3108
▁كم	-3109
اسان	-3110
▁ٻڌل	-3111
▁هوائي	-3112
▁سرگرمي	-3113
▁رض	-3114
▁سِ	-3115
ليون	-3116
▁هليو	-3117
▁مصنوعات	-3118
ry	-3119
▁۱	-3120
▁رهيون	-3121
▁جيل	-3122
▁تعلي	-3123
▁22	-3124
▁رسي	-3125
▁شيئر	-3126
▁ڪلاس	-3127
▁نومبر	-3128
▁گھڻو	-3129
ندگي	-3130
▁ناهن	-3131
▁ادائيگي	-3132
بول	-3133
صوصي	-3134
▁رين	-3135
▁هئس	-3136
▁هٿن	-3137
▁گاڏي	-3138
▁پکي	-3139
اسي	-3140
▁هار	-3141
▁ڪرو	-3142
▁زخمي	-3143
▁ماضي	-3144
▁جنوري	-3145
▁افغانستان	-3146
▁جبل	-3147
▁لڳا	-3148
▁ميان	-3149
▁ملڪيت	-3150
ٽيف	-3151
▁حاد	-3152
▁ڏها	-3153
▁ٽيون	-3154
▁سعودي	-3155
▁هيٺين	-3156
ib	-3157
▁اگ	-3158
▁؟؟؟	-3159
▁سنڏ	-3160
▁انصاف	-3161
يري	-3162
▁ڀلا	-3163
▁هع	-3164
▁هوء	-3165
▁گهو	-3166
▁ٻيون	-3167
▁ڪميشن	-3168
چا	-3169
▁مردن	-3170
▁سمجهان	-3171
قد	-3172
يڪشن	-3173
▁ڏانھن	-3174
▁عورتون	-3175
رسي	-3176
▁موٽ	-3177
▁درجي	-3178
▁لنڊن	-3179
▁خصوصي	-3180
▁اينڊرائيڊ	-3181
فرنس	-3182
▁	-3183
ي	-3184
ا	-3185
ه	-3186
ن	-3187
و	-3188
ر	-3189
م	-3190
ل	-3191
ت	-3192
س	-3193
ج	-3194
ڪ	-3195
د	-3196
ب	-3197
.	-3198
پ	-3199
آ	-3200
ئ	-3201
ک	-3202
ع	-3203
ڻ	-3204
ف	-3205
گ	-3206
ش	-3207
ق	-3208
،	-3209
ح	-3210
ٽ	-3211
ٿ	-3212
ڏ	-3213
ـ	-3214
ز	-3215
خ	-3216
۾	-3217
ء	-3218
چ	-3219
ص	-3220
۽	-3221
ھ	-3222
ط	-3223
ڊ	-3224
ڙ	-3225
ِ	-3226
ك	-3227
ڳ	-3228
ٻ	-3229
"	-3230
ڌ	-3231
:	-3232
َ	-3233
e	-3234
1	-3235
ض	-3236
ڇ	-3237
0	-3238
ڀ	-3239
a	-3240
ٺ	-3241
ظ	-3242
i	-3243
2	-3244
t	-3245
o	-3246
ذ	-3247
ُ	-3248
r	-3249
n	-3250
غ	-3251
s	-3252
؟	-3253
-	-3254
)	-3255
(	-3256
ث	-3257
ڃ	-3258
l	-3259
!	-3260
ڄ	-3261
3	-3262
5	-3263
d	-3264
c	-3265
9	-3266
u	-3267
4	-3268
,	-3269
ى	-3270
ة	-3271
m	-3272
8	-3273
6	-3274
h	-3275
7	-3276
p	-3277
ڍ	-3278
g	-3279
أ	-3280
S	-3281
y	-3282
ی	-3283
A	-3284
۔	-3285
'	-3286
b	-3287
>	-3288
/	-3289
k	-3290
C	-3291
<	-3292
w	-3293
M	-3294
T	-3295
ہ	-3296
f	-3297
_	-3298
P	-3299
D	-3300
I	-3301
v	-3302
؛	-3303
=	-3304
N	-3305
B	-3306
O	-3307
E	-3308
*	-3309
x	-3310
ڦ	-3311
L	-3312
ؤ	-3313
ڱ	-3314
G	-3315
R	-3316
ٰ	-3317
H	-3318
[	-3319
]	-3320
F	-3321
U	-3322
W	-3323
إ	-3324
ٌ	-3325
X	-3326
ً	-3327
V	-3328
z	-3329
ّ	-3330
K	-3331
^	-3332
٪	-3333
ے	-3334
•	-3335
$	-3336
ژ	-3337
ٍ	-3338
ٹ	-3339
j	-3340
?	-3341
+	-3342
#	-3343
~	-3344
۱	-3345
J	-3346
Y	-3347
ْ	-3348
ې	-3349
।	-3350
Q	-3351
ڷ	-3352
Z	-3353
😂	-3354
@	-3355
ۈ	-3356
۲	-3357
ڈ	-3358
%	-3359
ړ	-3360
q	-3361
۰	-3362
ں	-3363
&	-3364
{	-3365
}	-3366
٠	-3367
;	-3368
۳	-3369
א	-3370
·	-3371
١	-3372
۴	-3373
ګ	-3374
۵	-3375
ډ	-3376
٢	-3377
ځ	-3378
ږ	-3379
ټ	-3380
ڵ	-3381
ڑ	-3382
●	-3383
۹	-3384
ښ	-3385
्	-3386
°	-3387
️	-3388
۸	-3389
£	-3390
ा	-3391
♥	-3392
❤	-3393
र	-3394
څ	-3395
€	-3396
×	-3397
۶	-3398
۷	-3399
🙂	-3400
क	-3401
٣	-3402
←	-3403
ڼ	-3404
→	-3405
ٱ	-3406
٥	-3407
ۍ	-3408
ि	-3409
٤	-3410
ो	-3411
म	-3412
٦	-3413
►	-3414
ב	-3415
ڛ	-3416
′	-3417
é	-3418
न	-3419
٩	-3420
ڹ	-3421
स	-3422
ۡ	-3423
त	-3424
٨	-3425
य	-3426
ٖ	-3427
ּ	-3428
ٔ	-3429
ۅ	-3430
े	-3431
ल	-3432
♪	-3433
ۆ	-3434
♡	-3435
®	-3436
Ô	-3437
ٴ	-3438
ۑ	-3439
ღ	-3440
◄	-3441
٫	-3442
©	-3443
٧	-3444
प	-3445
ۉ	-3446
व	-3447
😉	-3448
§	-3449
а	-3450
🤣	-3451
ह	-3452
ۃ	-3453
☺	-3454
ڎ	-3455
ט	-3456
ڸ	-3457
ۊ	-3458
द	-3459
н	-3460
😁	-3461
è	-3462
ü	-3463
↑	-3464
♫	-3465
פ	-3466
›	-3467
😀	-3468
ु	-3469
â	-3470
î	-3471
ı	-3472
ڤ	-3473
≤	-3474
ڜ	-3475
о	-3476
ٗ	-3477
◆	-3478
и	-3479
ç	-3480
İ	-3481
ٓ	-3482
à	-3483
ग	-3484
ट	-3485
ۓ	-3486
💔	-3487
😍	-3488
★	-3489
ी	-3490
р	-3491
٬	-3492
ş	-3493
̈	-3494
ؑ	-3495
с	-3496
ڶ	-3497
ۀ	-3498
ێ	-3499
ब	-3500
е	-3501
ڣ	-3502
😭	-3503
כ	-3504
ݪ	-3505
ज	-3506
Ş	-3507
ٕ	-3508
उ	-3509
छ	-3510
ö	-3511
ࢪ	-3512
、	-3513
á	-3514
ڕ	-3515
श	-3516
॥	-3517
Ü	-3518
ω	-3519
м	-3520
т	-3521
ू	-3522
±	-3523
ै	-3524
😅	-3525
🙁	-3526
у	-3527
ۂ	-3528
ۧ	-3529
♦	-3530
ン	-3531
語	-3532
̷	-3533
ं	-3534
シ	-3535
д	-3536
ۄ	-3537
ۋ	-3538
√	-3539
л	-3540
ל	-3541
ٳ	-3542
ۿ	-3543
ड	-3544
ध	-3545
ド	-3546
؏	-3547
٘	-3548
‹	-3549
≥	-3550
😊	-3551
¤	-3552
ˇ	-3553
¢	-3554
ê	-3555
ؿ	-3556
ए	-3557
भ	-3558
ष	-3559
【	-3560
ツ	-3561
💞	-3562
¬	-3563
ë	-3564
α	-3565
к	-3566
٭	-3567
✿	-3568
】	-3569
﴾	-3570
﴿	-3571
👍	-3572
ā	-3573
ٚ	-3574
ە	-3575
ई	-3576
☆	-3577
¦	-3578
¿	-3579
ó	-3580
û	-3581
μ	-3582
ο	-3583
в	-3584
ٲ	-3585
ڝ	-3586
‐	-3587
⁄	-3588
з	-3589
ػ	-3590
ä	-3591
͜	-3592
β	-3593
ڒ	-3594
अ	-3595
च	-3596
⇄	-3597
─	-3598
🏻	-3599
ñ	-3600
х	-3601
ү	-3602
ա	-3603
ण	-3604
≈	-3605
■	-3606
😆	-3607
ž	-3608
ы	-3609
ؽ	-3610
ڠ	-3611
ࢦ	-3612
फ	-3613
。	-3614
菜	-3615
👌	-3616
Ø	-3617
÷	-3618
й	-3619
ֿ	-3620
ٛ	-3621
ڂ	-3622
आ	-3623
ख	-3624
⋆	-3625
🔥	-3626
😜	-3627
\	-3628
ğ	-3629
š	-3630
̨	-3631
б	-3632
г	-3633
ۇ	-3634
थ	-3635
ृ	-3636
🌹	-3637
¡	-3638
í	-3639
ô	-3640
̲	-3641
ᓄ	-3642
‡	-3643
▌	-3644
✅	-3645
✌	-3646
💘	-3647
Ç	-3648
̃	-3649
̧	-3650
ե	-3651
ݩ	-3652
ে	-3653
✔	-3654
❥	-3655
💙	-3656
😘	-3657
😛	-3658
̣	-3659
͡	-3660
ζ	-3661
ι	-3662
п	-3663
я	-3664
і	-3665
י	-3666
נ	-3667
↓	-3668
▐	-3669
◕	-3670
☀	-3671
✓	-3672
⭐	-3673
💕	-3674
🙈	-3675
Å	-3676
ï	-3677
č	-3678
œ	-3679
ξ	-3680
Ґ	-3681
ؐ	-3682
ڿ	-3683
ۦ	-3684
۩	-3685
۫	-3686
इ	-3687
ন	-3688
๑	-3689
♀	-3690
✋	-3691
✨	-3692
🌸	-3693
💗	-3694
😄	-3695
😇	-3696
🤔	-3697
Ö	-3698
Š	-3699
ː	-3700
ρ	-3701
ڨ	-3702
ँ	-3703
র	-3704
া	-3705
◊	-3706
♠	-3707
❣	-3708
音	-3709
😔	-3710
😝	-3711
😹	-3712
🙏	-3713
å	-3714
͠	-3715
Φ	-3716
Ω	-3717
ε	-3718
σ	-3719
ի	-3720
ն	-3721
ם	-3722
מ	-3723
ڭ	-3724
ۛ	-3725
ম	-3726
্	-3727
๋	-3728
※	-3729
♩	-3730
」	-3731
🌷	-3732
🖤	-3733
Ž	-3734
ɪ	-3735
ˈ	-3736
̤	-3737
η	-3738
ς	-3739
ч	-3740
ш	-3741
ո	-3742
ս	-3743
ր	-3744
ו	-3745
ע	-3746
ۗ	-3747
۞	-3748
ۤ	-3749
ۨ	-3750
ठ	-3751
ু	-3752
ஐ	-3753
ా	-3754
น	-3755
†	-3756
‿	-3757
▶	-3758
▷	-3759
▼	-3760
◇	-3761
☹	-3762
☻	-3763
♣	-3764
❀	-3765
❧	-3766
➡	-3767
⠀	-3768
「	-3769
・	-3770
🇩	-3771
🏃	-3772
💜	-3773
📷	-3774
😎	-3775
🥺	-3776
Á	-3777
ý	-3778
ć	-3779
ō	-3780
ɑ	-3781
̇	-3782
̶	-3783
ί	-3784
π	-3785
ҳ	-3786
ד	-3787
ؓ	-3788
ؼ	-3789
ٜ	-3790
ٞ	-3791
ٟ	-3792
ڞ	-3793
ܢ	-3794
ক	-3795
ত	-3796
দ	-3797
୭	-3798
า	-3799
ọ	-3800
⇣	-3801
⏪	-3802
▲	-3803
☝	-3804
♯	-3805
⚘	-3806
⚡	-3807
✯	-3808
🏼	-3809
😢	-3810
🤩	-3811
🥇	-3812
¶	-3813
ã	-3814
ð	-3815
ú	-3816
ē	-3817
ł	-3818
ż	-3819
ə	-3820
̅	-3821
̵	-3822
τ	-3823
ώ	-3824
ж	-3825
ц	-3826
э	-3827
մ	-3828
ւ	-3829
ן	-3830
ؒ	-3831
ٙ	-3832
ٝ	-3833
ڋ	-3834
ڔ	-3835
ۏ	-3836
ެ	-3837
झ	-3838
న	-3839
ಿ	-3840
്	-3841
ี	-3842
๛	-3843
າ	-3844
ᬼ	-3845
ị	-3846
⃣	-3847
−	-3848
⊙	-3849
╝	-3850
▪	-3851
◉	-3852
◎	-3853
◦	-3854
♍	-3855
✗	-3856
✘	-3857
✦	-3858
『	-3859
』	-3860
🇮	-3861
🇿	-3862
🌚	-3863
🌟	-3864
🍼	-3865
💖	-3866
💚	-3867
💪	-3868
💯	-3869
😱	-3870
😻	-3871
🦋	-3872
Ã	-3873
ø	-3874
ę	-3875
Ğ	-3876
Ħ	-3877
ʊ	-3878
̄	-3879
̐	-3880
θ	-3881
ν	-3882
φ	-3883
М	-3884
С	-3885
ь	-3886
є	-3887
հ	-3888
չ	-3889
ה	-3890
ז	-3891
ר	-3892
ٮ	-3893
ۜ	-3894
ۣ	-3895
۪	-3896
ौ	-3897
খ	-3898
য	-3899
়	-3900
ো	-3901
ਾ	-3902
ં	-3903
હ	-3904
ం	-3905
ම	-3906
ม	-3907
↯	-3908
∀	-3909
∫	-3910
╫	-3911
◀	-3912
♂	-3913
♬	-3914
✖	-3915
〇	-3916
よ	-3917
り	-3918
ミ	-3919
发	-3920
嘅	-3921
的	-3922
𐄒	-3923
🌿	-3924
🎼	-3925
🏾	-3926
👉	-3927
👊	-3928
👨	-3929
👩	-3930
💫	-3931
📚	-3932
🔞	-3933
🕘	-3934
😈	-3935
😋	-3936
😌	-3937
😒	-3938
😠	-3939
😦	-3940
😨	-3941
😪	-3942
😵	-3943
🙊	-3944
🤍	-3945
🤭	-3946
🧸	-3947
ò	-3948
Ă	-3949
ą	-3950
Đ	-3951
ě	-3952
ħ	-3953
Ł	-3954
ś	-3955
ƒ	-3956
ɛ	-3957
ˌ	-3958
̀	-3959
̊	-3960
̥	-3961
̯	-3962
γ	-3963
υ	-3964
ό	-3965
ϻ	-3966
Б	-3967
В	-3968
Т	-3969
Х	-3970
Я	-3971
Ҳ	-3972
Բ	-3973
տ	-3974
ח	-3975
ש	-3976
ڽ	-3977
ۙ	-3978
ۼ	-3979
ݛ	-3980
ݦ	-3981
ः	-3982
ব	-3983
ল	-3984
ি	-3985
ੀ	-3986
ੰ	-3987
ર	-3988
ે	-3989
ો	-3990
క	-3991
ల	-3992
వ	-3993
ి	-3994
ు	-3995
్	-3996
ನ	-3997
ന	-3998
න	-3999
ස	-4000
්	-4001
ก	-4002
ค	-4003
ฉ	-4004
ณ	-4005
ด	-4006
ั	-4007
ุ	-4008
ไ	-4009
໑	-4010
Ⴢ	-4011
ე	-4012
ი	-4013
ለ	-4014
ው	-4015
ᓅ	-4016
ᭁ	-4017
Ṁ	-4018
ṇ	-4019
ṣ	-4020
ṭ	-4021
ẹ	-4022
₥	-4023
₪	-4024
↔	-4025
≧	-4026
⌘	-4027
╚	-4028
○	-4029
☂	-4030
☑	-4031
☜	-4032
☼	-4033
♚	-4034
♛	-4035
⚫	-4036
✍	-4037
❌	-4038
❗	-4039
❦	-4040
➢	-4041
〗	-4042
う	-4043
の	-4044
を	-4045
ノ	-4046
ュ	-4047
可	-4048
發	-4049
﮼	-4050
︎	-4051
🌤	-4052
🌻	-4053
🍀	-4054
🎀	-4055
🏿	-4056
🐸	-4057
👀	-4058
👈	-4059
👤	-4060
💋	-4061
💐	-4062
💛	-4063
💻	-4064
🔸	-4065
😐	-4066
😽	-4067
🤨	-4068
🦦	-4069
|	-4070
¥	-4071
À	-4072
É	-4073
Ù	-4074
Ú	-4075
ì	-4076
õ	-4077
Ā	-4078
ă	-4079
Ė	-4080
Į	-4081
ť	-4082
ů	-4083
Ǝ	-4084
ƛ	-4085
ơ	-4086
Ʀ	-4087
ʀ	-4088
ʒ	-4089
ʻ	-4090
̉	-4091
̍	-4092
̳	-4093
Α	-4094
Ξ	-4095
Υ	-4096
έ	-4097
δ	-4098
λ	-4099
Ϟ	-4100
Д	-4101
О	-4102
П	-4103
Р	-4104
У	-4105
Ч	-4106
ъ	-4107
ю	-4108
҉	-4109
ґ	-4110
ө	-4111
Ի	-4112
Կ	-4113
է	-4114
ը	-4115
լ	-4116
խ	-4117
կ	-4118
պ	-4119
ռ	-4120
ց	-4121
ֆ	-4122
ך	-4123
؋	-4124
؍	-4125
ؾ	-4126
ڲ	-4127
ۘ	-4128
۬	-4129
ܓ	-4130
ݖ	-4131
ݢ	-4132
ݥ	-4133
ݨ	-4134
ࡗ	-4135
ञ	-4136
ढ	-4137
ॡ	-4138
আ	-4139
ঔ	-4140
ট	-4141
ড	-4142
স	-4143
ਂ	-4144
ਧ	-4145
ਬ	-4146
ਰ	-4147
ਸ	-4148
ਿ	-4149
ક	-4150
ચ	-4151
ટ	-4152
ા	-4153
િ	-4154
ી	-4155
ஓ	-4156
ఉ	-4157
ద	-4158
య	-4159
స	-4160
ీ	-4161
ಈ	-4162
ಲ	-4163
ೋ	-4164
್	-4165
ങ	-4166
ി	-4167
ි	-4168
ถ	-4169
ท	-4170
ย	-4171
ส	-4172
ๅ	-4173
่	-4174
้	-4175
້	-4176
ཻ	-4177
࿑	-4178
დ	-4179
რ	-4180
ს	-4181
ᄑ	-4182
ᄒ	-4183
ᅲ	-4184
ሂ	-4185
ህ	-4186
ል	-4187
ስ	-4188
ቅ	-4189
ን	-4190
እ	-4191
ይ	-4192
ድ	-4193
ᓆ	-4194
ᓘ	-4195
ន	-4196
ᴗ	-4197
Ṃ	-4198
Ẹ	-4199
Ọ	-4200
ố	-4201
ở	-4202
ỳ	-4203
‛	-4204
‟	-4205
₩	-4206
₽	-4207
⃫	-4208
↩	-4209
↴	-4210
⇠	-4211
⇡	-4212
⇦	-4213
∞	-4214
≠	-4215
≦	-4216
╦	-4217
╬	-4218
▽	-4219
◈	-4220
◍	-4221
◣	-4222
◩	-4223
◪	-4224
☘	-4225
♉	-4226
♌	-4227
♢	-4228
♤	-4229
⚽	-4230
✈	-4231
✧	-4232
✫	-4233
✮	-4234
✴	-4235
✷	-4236
❓	-4237
❕	-4238
❖	-4239
❝	-4240
❞	-4241
❢	-4242
⭕	-4243
〖	-4244
い	-4245
じ	-4246
ほ	-4247
コ	-4248
タ	-4249
ト	-4250
パ	-4251
ピ	-4252
ー	-4253
ㄨ	-4254
上	-4255
以	-4256
你	-4257
我	-4258
発	-4259
真	-4260
者	-4261
ꓘ	-4262
나	-4263
법	-4264
직	-4265
𓂅	-4266
𖣴	-4267
🇨	-4268
🇬	-4269
🇶	-4270
🇸	-4271
🇺	-4272
🌆	-4273
🌈	-4274
🌼	-4275
🎈	-4276
🎧	-4277
🎵	-4278
🎻	-4279
🐒	-4280
🐠	-4281
🐢	-4282
👆	-4283
👇	-4284
👎	-4285
👑	-4286
💅	-4287
💍	-4288
💓	-4289
💝	-4290
💠	-4291
💡	-4292
💮	-4293
💰	-4294
🔒	-4295
🔕	-4296
🔫	-4297
🔱	-4298
🔴	-4299
🔶	-4300
🔹	-4301
🔺	-4302
🖕	-4303
😃	-4304
😏	-4305
😕	-4306
😤	-4307
😬	-4308
😮	-4309
😯	-4310
😳	-4311
😿	-4312
🙄	-4313
🚶	-4314
🛫	-4315
🤎	-4316
🤐	-4317
🤓	-4318
🤤	-4319
🤧	-4320
🤪	-4321
🥀	-4322
🥰	-4323
🦼	-4324
🧐	-4325
Â	-4326
È	-4327
Ð	-4328
Ó	-4329
Û	-4330
ß	-4331
æ	-4332
ù	-4333
þ	-4334
Ą	-4335
ĉ	-4336
Č	-4337
Ď	-4338
đ	-4339
ė	-4340
Ę	-4341
Ģ	-4342
Ĥ	-4343
ī	-4344
į	-4345
ĵ	-4346
ĸ	-4347
ĺ	-4348
ļ	-4349
Ň	-4350
ŋ	-4351
Ō	-4352
ŏ	-4353
Ř	-4354
ř	-4355
Ŝ	-4356
ŝ	-4357
Ť	-4358
ŧ	-4359
ŭ	-4360
ű	-4361
ź	-4362
Ż	-4363
Ɓ	-4364
Ɠ	-4365
Ɣ	-4366
Ɲ	-4367
Ƴ	-4368
ƽ	-4369
ǟ	-4370
ǰ	-4371
Ǿ	-4372
ȅ	-4373
Ȋ	-4374
ș	-4375
ț	-4376
ɕ	-4377
ɞ	-4378
ɣ	-4379
ɨ	-4380
ɴ	-4381
ʃ	-4382
ʔ	-4383
ʚ	-4384
ʞ	-4385
ˆ	-4386
˹	-4387
˼	-4388
́	-4389
̋	-4390
̌	-4391
̖	-4392
̗	-4393
̝	-4394
̠	-4395
̩	-4396
̬	-4397
̮	-4398
̸	-4399
͛	-4400
ͦ	-4401
Ά	-4402
Έ	-4403
ΐ	-4404
Η	-4405
Θ	-4406
Ι	-4407
Μ	-4408
Ρ	-4409
Σ	-4410
Ψ	-4411
Ϋ	-4412
ά	-4413
ή	-4414
κ	-4415
χ	-4416
Ј	-4417
Ћ	-4418
А	-4419
Г	-4420
Й	-4421
К	-4422
ј	-4423
ћ	-4424
Ѣ	-4425
Ѧ	-4426
Ҏ	-4427
қ	-4428
Ҩ	-4429
Ұ	-4430
ҷ	-4431
ҽ	-4432
Ӎ	-4433
Պ	-4434
բ	-4435
ձ	-4436
ղ	-4437
յ	-4438
վ	-4439
փ	-4440
ք	-4441
ִ	-4442
ג	-4443
ס	-4444
צ	-4445
ת	-4446
؎	-4447
ٯ	-4448
ڐ	-4449
ڗ	-4450
ڟ	-4451
ڰ	-4452
ۚ	-4453
ۢ	-4454
ۥ	-4455
ۺ	-4456
܀	-4457
ܒ	-4458
ܨ	-4459
ܪ	-4460
ܵ	-4461
ݐ	-4462
ݒ	-4463
ݘ	-4464
ݧ	-4465
ހ	-4466
ވ	-4467
ߙ	-4468
࣪	-4469
ओ	-4470
घ	-4471
ङ	-4472
़	-4473
ॉ	-4474
॒	-4475
०	-4476
१	-4477
८	-4478
অ	-4479
ই	-4480
উ	-4481
এ	-4482
ঘ	-4483
ছ	-4484
জ	-4485
ধ	-4486
ভ	-4487
শ	-4488
ৌ	-4489
ਇ	-4490
ਈ	-4491
ਕ	-4492
ਜ	-4493
ਥ	-4494
ਪ	-4495
ਮ	-4496
ਲ	-4497
ਹ	-4498
ੇ	-4499
ੈ	-4500
ੋ	-4501
ੱ	-4502
ખ	-4503
છ	-4504
ડ	-4505
થ	-4506
ધ	-4507
પ	-4508
સ	-4509
ુ	-4510
୪	-4511
ற	-4512
ఇ	-4513
ఎ	-4514
చ	-4515
డ	-4516
ధ	-4517
ప	-4518
హ	-4519
ే	-4520
ో	-4521
ಂ	-4522
ಕ	-4523
ಡ	-4524
ಧ	-4525
ಸ	-4526
ഉ	-4527
ത	-4528
ധ	-4529
പ	-4530
ള	-4531
സ	-4532
ආ	-4533
උ	-4534
ක	-4535
ය	-4536
ල	-4537
ව	-4538
ශ	-4539
ෑ	-4540
ෙ	-4541
บ	-4542
ป	-4543
พ	-4544
ล	-4545
ห	-4546
อ	-4547
ฮ	-4548
ะ	-4549
ิ	-4550
เ	-4551
ກ	-4552
ຂ	-4553
ຈ	-4554
ຖ	-4555
ທ	-4556
ນ	-4557
ພ	-4558
ມ	-4559
ຢ	-4560
ະ	-4561
ົ	-4562
ເ	-4563
່	-4564
༄	-4565
༅	-4566
༺	-4567
࿅	-4568
ა	-4569
თ	-4570
კ	-4571
მ	-4572
ნ	-4573
უ	-4574
ქ	-4575
ላ	-4576
ም	-4577
ሩ	-4578
ር	-4579
ሳ	-4580
በ	-4581
ቦ	-4582
ታ	-4583
ት	-4584
ነ	-4585
ኔ	-4586
ኝ	-4587
አ	-4588
ወ	-4589
ዎ	-4590
ዘ	-4591
ዴ	-4592
ጋ	-4593
ጎ	-4594
ጠ	-4595
ጣ	-4596
ጥ	-4597
ፈ	-4598
ፍ	-4599
ᑐ	-4600
ញ	-4601
ព	-4602
ភ	-4603
េ	-4604
ំ	-4605
្	-4606
᪣	-4607
᭄	-4608
ᴀ	-4609
ᴋ	-4610
᷂	-4611
ḑ	-4612
ḭ	-4613
Ḿ	-4614
ḿ	-4615
Ṉ	-4616
ṛ	-4617
Ṝ	-4618
Ṧ	-4619
ṩ	-4620
Ṽ	-4621
Ạ	-4622
Ể	-4623
ệ	-4624
Ụ	-4625
ụ	-4626
ỹ	-4627
Ἄ	-4628
⁀	-4629
₦	-4630
₳	-4631
₹	-4632
₼	-4633
⃕	-4634
⃟	-4635
⃢	-4636
℘	-4637
↙	-4638
↜	-4639
↝	-4640
↣	-4641
↤	-4642
↫	-4643
↲	-4644
↷	-4645
⇐	-4646
⇜	-4647
⇢	-4648
∂	-4649
∇	-4650
∟	-4651
∴	-4652
≯	-4653
⏆	-4654
⏩	-4655
┇	-4656
═	-4657
▂	-4658
▃	-4659
□	-4660
▫	-4661
◝	-4662
◤	-4663
◥	-4664
◾	-4665
☁	-4666
☃	-4667
☄	-4668
☔	-4669
☚	-4670
☛	-4671
☠	-4672
☽	-4673
☿	-4674
♃	-4675
♄	-4676
♈	-4677
♊	-4678
♋	-4679
♎	-4680
♏	-4681
♒	-4682
♓	-4683
♭	-4684
⚒	-4685
⚠	-4686
⛳	-4687
⛺	-4688
✇	-4689
✜	-4690
✞	-4691
✭	-4692
✳	-4693
❒	-4694
❔	-4695
❶	-4696
➓	-4697
➘	-4698
➟	-4699
➥	-4700
➬	-4701
⦿	-4702
⬅	-4703
⬆	-4704
⬸	-4705
⸁	-4706
⸙	-4707
〈	-4708
〉	-4709
》	-4710
あ	-4711
え	-4712
お	-4713
か	-4714
が	-4715
く	-4716
さ	-4717
な	-4718
へ	-4719
ょ	-4720
わ	-4721
ん	-4722
イ	-4723
エ	-4724
ク	-4725
サ	-4726
ス	-4727
チ	-4728
ッ	-4729
バ	-4730
マ	-4731
ム	-4732
ヮ	-4733
一	-4734
之	-4735
了	-4736
云	-4737
传	-4738
位	-4739
何	-4740
刀	-4741
力	-4742
午	-4743
南	-4744
厩	-4745
古	-4746
吗	-4747
国	-4748
场	-4749
報	-4750
多	-4751
夢	-4752
如	-4753
子	-4754
学	-4755
它	-4756
少	-4757
屋	-4758
年	-4759
庆	-4760
彙	-4761
彩	-4762
很	-4763
情	-4764
惠	-4765
感	-4766
打	-4767
教	-4768
料	-4769
斯	-4770
於	-4771
月	-4772
机	-4773
機	-4774
泊	-4775
波	-4776
爱	-4777
瑞	-4778
用	-4779
电	-4780
着	-4781
示	-4782
科	-4783
端	-4784
篇	-4785
終	-4786
纳	-4787
职	-4788
背	-4789
节	-4790
花	-4791
葬	-4792
藍	-4793
蝶	-4794
要	-4795
詞	-4796
謝	-4797
话	-4798
语	-4799
谷	-4800
超	-4801
辛	-4802
迪	-4803
邏	-4804
钱	-4805
际	-4806
隨	-4807
雨	-4808
顯	-4809
鲁	-4810
ꓤ	-4811
ꔫ	-4812
ꖾ	-4813
ꟽ	-4814
ꦿ	-4815
ꪆ	-4816
ꪝ	-4817
ꫀ	-4818
ꫛ	-4819
각	-4820
금	-4821
길	-4822
는	-4823
다	-4824
대	-4825
래	-4826
리	-4827
마	-4828
만	-4829
문	-4830
방	-4831
서	-4832
손	-4833
솔	-4834
송	-4835
시	-4836
양	-4837
얼	-4838
에	-4839
연	-4840
요	-4841
우	-4842
정	-4843
져	-4844
조	-4845
좋	-4846
지	-4847
평	-4848
하	-4849
할	-4850
해	-4851
형	-4852
화	-4853
효	-4854
희	-4855
﮶	-4856
𐎚	-4857
𐭣	-4858
𐭦	-4859
𐭪	-4860
𐭬	-4861
𓆩	-4862
𓆪	-4863
𖣂	-4864
𖤈	-4865
𖤍	-4866
🅚	-4867
🅛	-4868
🅜	-4869
🅦	-4870
🇦	-4871
🇧	-4872
🇱	-4873
🇲	-4874
🇵	-4875
🇷	-4876
🇹	-4877
🌍	-4878
🌎	-4879
🌓	-4880
🌔	-4881
🌙	-4882
🌛	-4883
🌜	-4884
🌝	-4885
🌞	-4886
🌧	-4887
🌱	-4888
🌵	-4889
🌺	-4890
🍂	-4891
🍃	-4892
🍇	-4893
🍉	-4894
🍕	-4895
🍩	-4896
🍰	-4897
🍷	-4898
🍻	-4899
🍾	-4900
🍿	-4901
🎁	-4902
🎃	-4903
🎅	-4904
🎞	-4905
🎥	-4906
🎨	-4907
🎯	-4908
🎶	-4909
🏆	-4910
🏊	-4911
🏖	-4912
🏣	-4913
🏭	-4914
🏳	-4915
🏹	-4916
🏽	-4917
🐍	-4918
🐕	-4919
🐾	-4920
👃	-4921
👅	-4922
👋	-4923
👕	-4924
👠	-4925
👢	-4926
👧	-4927
👭	-4928
👰	-4929
👲	-4930
👳	-4931
👾	-4932
💀	-4933
💃	-4934
💇	-4935
💈	-4936
💒	-4937
💣	-4938
💦	-4939
💷	-4940
📄	-4941
📑	-4942
📛	-4943
📥	-4944
📩	-4945
📮	-4946
📲	-4947
📸	-4948
📿	-4949
🔆	-4950
🔈	-4951
🔐	-4952
🔗	-4953
🕊	-4954
🕌	-4955
🖼	-4956
🗯	-4957
🗿	-4958
😑	-4959
😧	-4960
😩	-4961
😲	-4962
😷	-4963
🙃	-4964
🙅	-4965
🙆	-4966
🙇	-4967
🙋	-4968
🙌	-4969
🚌	-4970
🚓	-4971
🚣	-4972
🚨	-4973
🚫	-4974
🚭	-4975
🚵	-4976
🚷	-4977
🛌	-4978
🛐	-4979
🛒	-4980
🛰	-4981
🟥	-4982
🤒	-4983
🤕	-4984
🤚	-4985
🤟	-4986
🤠	-4987
🤲	-4988
🤸	-4989
🤹	-4990
🦯	-4991
🦽	-4992
🧑	-4993
🧖	-4994
🧚	-4995
🧝	-4996
