<unk>	0
<s>	0
</s>	0
هه	-0
▁ا	-1
▁ج	-2
▁م	-3
ان	-4
▁ڪ	-5
▁ت	-6
▁س	-7
▁ه	-8
▁و	-9
هههه	-10
▁آ	-11
▁جي	-12
ري	-13
هي	-14
▁پ	-15
▁ب	-16
▁ک	-17
ين	-18
هن	-19
▁ن	-20
ون	-21
▁آهي	-22
ار	-23
▁ل	-24
يو	-25
▁.	-26
ائ	-27
▁۾	-28
▁ٿ	-29
▁ر	-30
▁،	-31
▁کي	-32
ال	-33
▁ان	-34
▁۽	-35
ــ	-36
يا	-37
▁جو	-38
هههههههه	-39
▁گ	-40
▁ش	-41
ور	-42
ند	-43
ئي	-44
▁د	-45
▁ع	-46
▁ته	-47
▁اس	-48
▁خ	-49
لي	-50
▁ح	-51
▁ف	-52
▁تي	-53
▁ڏ	-54
▁چ	-55
نهن	-56
ام	-57
اء	-58
جي	-59
▁هڪ	-60
▁ڪري	-61
▁اه	-62
▁ٻ	-63
▁هههههههه	-64
اڻ	-65
دي	-66
▁کان	-67
▁لاء	-68
▁ق	-69
▁به	-70
▁سان	-71
تي	-72
▁نه	-73
اري	-74
▁ڪر	-75
▁هن	-76
▁ٿي	-77
رو	-78
▁ي	-79
▁اي	-80
▁"	-81
ائي	-82
اب	-83
▁ط	-84
▁ال	-85
▁ص	-86
▁هو	-87
▁تو	-88
دا	-89
▁آهن	-90
ير	-91
▁ڪرڻ	-92
▁ڇ	-93
لا	-94
يڪ	-95
▁يا	-96
▁ٿو	-97
▁اسان	-98
هان	-99
ــــ	-100
▁اهو	-101
▁پي	-102
ني	-103
دو	-104
▁لاءِ	-105
▁جيڪ	-106
ست	-107
▁ٽ	-108
▁مو	-109
▁ڊ	-110
هر	-111
ءَ	-112
▁1	-113
ول	-114
▁ز	-115
▁ڪي	-116
مي	-117
نهنجي	-118
▁سگ	-119
▁پر	-120
▁(	-121
▁من	-122
▁توهان	-123
▁هي	-124
▁ڪيو	-125
سي	-126
▁مان	-127
▁مون	-128
را	-129
▁2	-130
ائين	-131
ڏهن	-132
▁جا	-133
▁پو	-134
قي	-135
ات	-136
لو	-137
جو	-138
نگ	-139
▁ڳ	-140
▁مي	-141
▁وا	-142
▁ڪند	-143
ھن	-144
▁مع	-145
قت	-146
▁ٿا	-147
▁بي	-148
▁-	-149
▁ما	-150
ڙي	-151
▁رو	-152
▁وي	-153
▁ڪو	-154
ههه	-155
ھي	-156
▁ئي	-157
اني	-158
ڪي	-159
اي	-160
اهي	-161
▁ڀ	-162
▁وڌ	-163
▁سو	-164
▁ڪم	-165
اد	-166
از	-167
هو	-168
رين	-169
▁پنهنجي	-170
▁او	-171
رف	-172
▁رهي	-173
▁ك	-174
▁ويو	-175
له	-176
▁هههه	-177
شن	-178
▁هههههههههههه	-179
ٽي	-180
▁انهن	-181
▁غ	-182
▁:	-183
▁طور	-184
ئن	-185
▁است	-186
اس	-187
▁سڀ	-188
اص	-189
بر	-190
▁ض	-191
▁گه	-192
▁وڃ	-193
ورت	-194
▁سي	-195
بي	-196
▁ھ	-197
ڏي	-198
مت	-199
▁مل	-200
اف	-201
▁خو	-202
اڻي	-203
سٽ	-204
اڪ	-205
▁ذ	-206
گر	-207
▁ڏين	-208
ءِ	-209
اا	-210
▁سم	-211
▁په	-212
▁مح	-213
عم	-214
ئين	-215
کي	-216
▁بر	-217
گي	-218
▁في	-219
▁ماڻ	-220
▁وين	-221
▁وڌيڪ	-222
▁هون	-223
▁وقت	-224
ٽر	-225
▁سال	-226
▁ري	-227
▁ڪج	-228
مل	-229
ارو	-230
ها	-231
▁هر	-232
ڙو	-233
▁اين	-234
سم	-235
▁در	-236
الي	-237
عي	-238
در	-239
▁گهر	-240
چي	-241
▁؟	-242
▁ڇا	-243
▁ور	-244
تر	-245
▁شي	-246
▁ڏي	-247
نيا	-248
▁سند	-249
▁آھي	-250
▁جن	-251
▁اڳ	-252
▁!	-253
▁20	-254
▁جنهن	-255
▁مر	-256
▁سر	-257
عمال	-258
▁تر	-259
▁استعمال	-260
▁مش	-261
▁تع	-262
▁مس	-263
صو	-264
▁ام	-265
ائڻ	-266
▁ڪئي	-267
خت	-268
▁اهي	-269
▁لا	-270
▁ڪن	-271
▁)	-272
▁واري	-273
▁3	-274
▁تائين	-275
دار	-276
▁هئي	-277
▁ڳال	-278
▁ڪنهن	-279
▁جيڪو	-280
▁لي	-281
بو	-282
تو	-283
▁سن	-284
▁نظ	-285
اه	-286
لام	-287
ڻي	-288
▁ٺ	-289
▁ڪريو	-290
وي	-291
▁ٽي	-292
▁ڪجهه	-293
▁اها	-294
▁ڊي	-295
ائن	-296
▁چيو	-297
▁مق	-298
▁ٿين	-299
▁بس	-300
لم	-301
يت	-302
▁ها	-303
▁جڏهن	-304
▁نو	-305
▁سگهي	-306
زي	-307
فت	-308
▁گڏ	-309
▁ڏينهن	-310
ندي	-311
ــــــــ	-312
▁ڌ	-313
▁سا	-314
▁وڃي	-315
▁جيڪي	-316
▁تم	-317
in	-318
سو	-319
ئر	-320
ٺي	-321
▁,	-322
رح	-323
▁مط	-324
▁رک	-325
▁حاص	-326
ڪن	-327
▁پوءِ	-328
▁s	-329
ارن	-330
▁انهي	-331
▁دو	-332
▁لڳ	-333
▁حاصل	-334
نهنجو	-335
▁با	-336
نا	-337
سان	-338
ڪو	-339
▁منهنجي	-340
▁از	-341
▁ضر	-342
▁اع	-343
▁ٻڌ	-344
جود	-345
▁سندس	-346
ڪر	-347
▁اح	-348
في	-349
▁پاڻ	-350
▁شا	-351
▁تح	-352
▁چي	-353
▁يو	-354
جن	-355
▁جيڪڏهن	-356
ثر	-357
▁اص	-358
ايو	-359
ئون	-360
▁5	-361
ٿي	-362
▁ههههههههه	-363
روع	-364
هم	-365
▁هئ	-366
▁پن	-367
▁ڄ	-368
▁تمام	-369
▁شروع	-370
▁4	-371
▁ناهي	-372
ڪل	-373
ندو	-374
▁ڪا	-375
▁علي	-376
▁الله	-377
ڻو	-378
▁گھ	-379
00	-380
ـــ	-381
▁ڪار	-382
بت	-383
اح	-384
پي	-385
▁ڇو	-386
▁فر	-387
بل	-388
▁پرو	-389
▁باب	-390
er	-391
من	-392
▁دنيا	-393
مين	-394
▁ههههههه	-395
▁ههههههههههه	-396
▁صح	-397
شي	-398
▁جون	-399
▁ني	-400
ڪار	-401
▁ٿيو	-402
نو	-403
▁رهيو	-404
▁سمج	-405
▁تون	-406
▁زند	-407
ھان	-408
▁ٻي	-409
▁انت	-410
▁وٽ	-411
▁مد	-412
▁وئي	-413
نڊ	-414
▁اُ	-415
▁آر	-416
▁عل	-417
▁ڇڏ	-418
▁مت	-419
▁دور	-420
▁دل	-421
دڙ	-422
▁وڏي	-423
امل	-424
▁يع	-425
▁ماڻهو	-426
تم	-427
▁اخ	-428
ائون	-429
ده	-430
▁نم	-431
▁ضرورت	-432
▁تب	-433
▁عم	-434
ولي	-435
▁مخت	-436
ڪا	-437
صي	-438
▁ويندو	-439
▁أ	-440
▁سب	-441
الو	-442
▁لو	-443
▁آم	-444
ٺو	-445
▁صرف	-446
▁مار	-447
▁پيدا	-448
▁پار	-449
▁پڻ	-450
▁ويا	-451
▁پيش	-452
اهر	-453
لف	-454
▁موجود	-455
▁a	-456
▁نا	-457
▁چو	-458
انهن	-459
▁چون	-460
▁آخ	-461
ستان	-462
امي	-463
مان	-464
اءِ	-465
ڪس	-466
فر	-467
▁ڪڏهن	-468
▁خاص	-469
▁اچي	-470
▁تن	-471
▁ٿيڻ	-472
▁زندگي	-473
دن	-474
عو	-475
▁وڏ	-476
▁طرف	-477
▁'	-478
▁جه	-479
يني	-480
لب	-481
▁19	-482
▁ڏس	-483
▁ڪيئن	-484
ڪري	-485
on	-486
▁ڪندو	-487
▁را	-488
▁وال	-489
▁201	-490
▁بابت	-491
▁سڀني	-492
▁چاهي	-493
▁ماڻهن	-494
▁ڪه	-495
عد	-496
▁پڙ	-497
جا	-498
ھو	-499
▁ڪت	-500
▁جيئن	-501
▁طري	-502
▁t	-503
▁لک	-504
▁طرح	-505
▁عمل	-506
▁ڪمپ	-507
وري	-508
يم	-509
▁تنهن	-510
▁شامل	-511
▁هل	-512
هڻ	-513
ران	-514
▁ٻئي	-515
وو	-516
▁ههههههههههههه	-517
▁غير	-518
▁هههههههههه	-519
فا	-520
▁مختلف	-521
▁S	-522
▁ڪيتر	-523
▁عام	-524
▁بل	-525
▁ڪندا	-526
▁گهٽ	-527
▁وارو	-528
▁وان	-529
▁خي	-530
▁هئا	-531
ما	-532
ندا	-533
▁A	-534
▁اڄ	-535
▁گذ	-536
▁خبر	-537
▁/	-538
▁ون	-539
▁اج	-540
رن	-541
▁اد	-542
▁ظ	-543
▁6	-544
▁آهيان	-545
ar	-546
شت	-547
▁قسم	-548
▁هم	-549
كم	-550
▁حال	-551
▁يعني	-552
▁تج	-553
▁ههههه	-554
لس	-555
▁ار	-556
▁ڳالهه	-557
ندڙ	-558
▁سائي	-559
لن	-560
▁مڪ	-561
▁بڻ	-562
▁مدد	-563
▁رهيا	-564
▁سنڌ	-565
▁نظر	-566
پور	-567
▁نن	-568
▁واق	-569
▁هوندي	-570
۔۔	-571
▁ڏانهن	-572
▁شاي	-573
▁قو	-574
▁حقي	-575
▁دا	-576
▁رس	-577
▁ٻن	-578
▁ڪندي	-579
▁اندر	-580
▁وار	-581
▁مث	-582
بن	-583
▁گهرجي	-584
▁واپ	-585
▁آمري	-586
▁c	-587
طي	-588
ريون	-589
▁هوندو	-590
▁نق	-591
▁گر	-592
▁ڪتاب	-593
ضي	-594
▁ڪندڙ	-595
قو	-596
▁ياد	-597
▁_	-598
▁تاري	-599
▁پس	-600
▁آهيون	-601
▁ڏيڻ	-602
▁جيڪا	-603
مو	-604
ٽن	-605
▁اچ	-606
▁ِ	-607
▁وچ	-608
▁ذري	-609
سن	-610
▁ٻين	-611
ڊيو	-612
▁پا	-613
▁سيا	-614
ڙا	-615
▁جم	-616
▁تاريخ	-617
وني	-618
▁ھڪ	-619
▁ٿيل	-620
▁آئون	-621
es	-622
ٽو	-623
دم	-624
▁مڪمل	-625
▁عورت	-626
▁جواب	-627
▁8	-628
▁پاڪ	-629
ذا	-630
اند	-631
ترين	-632
▁ــــــــ	-633
▁پري	-634
▁7	-635
▁ث	-636
▁قي	-637
وا	-638
▁وري	-639
▁نئين	-640
▁ايس	-641
▁بين	-642
▁تق	-643
هين	-644
▁آز	-645
ڳو	-646
▁اڪ	-647
▁انا	-648
▁دي	-649
▁سبب	-650
▁فائ	-651
▁نالو	-652
an	-653
▁آن	-654
▁شهر	-655
▁ات	-656
▁کيس	-657
سين	-658
▁فو	-659
▁ايم	-660
ٽا	-661
▁سگه	-662
▁بعد	-663
با	-664
ڊي	-665
فظ	-666
▁ملڪ	-667
▁گهڻو	-668
▁بد	-669
▁يق	-670
▁d	-671
▁بنيا	-672
en	-673
اااا	-674
بار	-675
شش	-676
▁پهرين	-677
تن	-678
▁اهڙي	-679
▁اف	-680
▁تبدي	-681
زار	-682
▁ختم	-683
▁هتي	-684
افي	-685
▁i	-686
▁C	-687
▁هاڻي	-688
▁ههههههههههههههه	-689
لاح	-690
▁هههههه	-691
▁پيا	-692
▁<	-693
▁پنهنجو	-694
or	-695
رت	-696
▁اڃ	-697
▁بند	-698
▁9	-699
▁آھن	-700
▁يون	-701
▁سگهو	-702
▁ٿيندو	-703
▁پيو	-704
▁سيڪ	-705
▁اهم	-706
▁مسئ	-707
▁سالن	-708
▁شايد	-709
▁ڇڏيو	-710
▁M	-711
زن	-712
ڪيٽ	-713
▁ڪل	-714
▁ڏا	-715
▁اپ	-716
▁ڪون	-717
▁جان	-718
▁فون	-719
شه	-720
▁رهن	-721
▁ڇڏي	-722
▁اسڪ	-723
▁شو	-724
▁هههههههههههههه	-725
ريل	-726
▁ڏئي	-727
▁ٿئي	-728
▁ادا	-729
اتي	-730
▁وڏو	-731
▁10	-732
▁شر	-733
▁وٺ	-734
▁ملي	-735
▁اسٽ	-736
▁ڦ	-737
▁انگ	-738
▁انسان	-739
▁هيٺ	-740
مبر	-741
▁خر	-742
▁هٿ	-743
▁خلا	-744
▁دوست	-745
▁عر	-746
روري	-747
▁سام	-748
▁ايپ	-749
▁ائين	-750
▁بح	-751
عت	-752
at	-753
اجي	-754
ضح	-755
▁خط	-756
▁خيال	-757
خل	-758
جب	-759
▁ڏنو	-760
يان	-761
ورو	-762
▁اسلام	-763
▁بهترين	-764
▁صورت	-765
▁آئي	-766
▁نٿ	-767
ضو	-768
▁گو	-769
▁آيو	-770
▁اتي	-771
▁ڀي	-772
▁قيمت	-773
▁سگهن	-774
▁حق	-775
▁ٻه	-776
اءُ	-777
▁مطلب	-778
به	-779
ڍي	-780
پو	-781
قل	-782
▁P	-783
▁هجي	-784
▁وٺي	-785
▁قان	-786
ارف	-787
▁ويب	-788
▁سوال	-789
ءُ	-790
▁رات	-791
لوم	-792
سر	-793
▁ٺاهي	-794
▁ـ	-795
▁معي	-796
▁ڪمپني	-797
▁ويندي	-798
▁پئي	-799
▁پڇ	-800
وار	-801
▁اوهان	-802
▁بو	-803
▁سين	-804
يح	-805
▁ڪوشش	-806
▁منهنجو	-807
▁عليه	-808
▁خوش	-809
▁پوء	-810
▁وانگر	-811
▁قر	-812
▁؛	-813
▁ٻيو	-814
پورٽ	-815
▁آهيو	-816
اج	-817
▁وس	-818
▁مال	-819
▁ذريعي	-820
▁T	-821
▁ڪيا	-822
ro	-823
▁امي	-824
سوس	-825
▁خدا	-826
▁ڪارو	-827
▁ڄاڻ	-828
مد	-829
▁p	-830
▁رکي	-831
ليم	-832
▁حل	-833
▁ٽيڪ	-834
▁مخ	-835
▁فار	-836
ur	-837
▁توھان	-838
مون	-839
▁ڳو	-840
▁ٻار	-841
▁صحيح	-842
▁ڪيل	-843
▁آخر	-844
جڻ	-845
le	-846
فو	-847
▁سوچ	-848
هور	-849
▁رنگ	-850
يرا	-851
ڊر	-852
▁ــــ	-853
ھنجي	-854
حد	-855
▁غل	-856
▁بن	-857
▁پاڻي	-858
ادي	-859
▁لفظ	-860
▁تص	-861
عا	-862
▁سائيٽ	-863
ing	-864
ريد	-865
▁هنن	-866
▁حقيقت	-867
رس	-868
▁منهن	-869
▁تصو	-870
▁ڏسي	-871
al	-872
▁مض	-873
▁جل	-874
▁معلوم	-875
▁جاري	-876
▁اوھان	-877
▁شك	-878
▁قاب	-879
▁اک	-880
▁ترقي	-881
▁بچ	-882
▁ين	-883
▁m	-884
="	-885
▁والله	-886
▁اڃا	-887
صر	-888
اهه	-889
ههههههههه	-890
▁دوران	-891
▁روز	-892
▁فيص	-893
▁انتظ	-894
▁خد	-895
▁مم	-896
▁*	-897
شان	-898
▁ڪان	-899
▁بال	-900
▁حڪو	-901
▁ولا	-902
▁سڄ	-903
▁عال	-904
ڊيا	-905
▁>	-906
▁مٿ	-907
▁اصل	-908
▁ضروري	-909
▁صف	-910
▁ھن	-911
▁ڪيترن	-912
▁حڪ	-913
ساني	-914
▁صاح	-915
▁گھر	-916
▁منظ	-917
▁اثر	-918
▁نس	-919
▁[	-920
▁چين	-921
لق	-922
▁B	-923
▁ظاهر	-924
▁سفر	-925
▁مواد	-926
▁جتي	-927
▁حصو	-928
ورن	-929
▁ٻاهر	-930
▁لڳي	-931
▁پاڪستان	-932
▁اسين	-933
▁اول	-934
▁علائ	-935
▁فق	-936
▁بهتر	-937
▁b	-938
▁سندن	-939
▁علا	-940
▁پون	-941
▁ساڳ	-942
باد	-943
ياتي	-944
▁پيار	-945
▁ءَ	-946
▁عي	-947
it	-948
باني	-949
▁اٿ	-950
▁عمر	-951
▁مارڪيٽ	-952
▁ڪام	-953
▁حڪومت	-954
▁هُ	-955
▁پنهن	-956
كن	-957
▁مٿي	-958
▁ڪيت	-959
▁پهريون	-960
داز	-961
▁محسوس	-962
ائم	-963
▁ڪجھ	-964
خص	-965
▁گرا	-966
▁آسان	-967
re	-968
▁مست	-969
▁مج	-970
▁الس	-971
▁هوندا	-972
▁I	-973
▁مطاب	-974
▁تبديل	-975
▁بيان	-976
▁مهي	-977
▁جنگ	-978
▁صلاح	-979
▁آمريڪا	-980
▁ڏسڻ	-981
ڙن	-982
ليل	-983
▁رد	-984
▁ٿيون	-985
▁ڏني	-986
▁الم	-987
حي	-988
جه	-989
▁حو	-990
▁اھو	-991
▁تصوير	-992
ضوع	-993
▁على	-994
▁سک	-995
▁صاحب	-996
▁مز	-997
▁چار	-998
▁اسپ	-999
▁لائن	-1000
▁فرا	-1001
▁ملا	-1002
▁سه	-1003
▁چه	-1004
▁وارا	-1005
▁خلاف	-1006
▁معيار	-1007
▁پهچ	-1008
▁جسم	-1009
▁طرفان	-1010
▁خريد	-1011
▁پئ	-1012
▁ڳاله	-1013
▁رڳو	-1014
▁خدمت	-1015
▁آف	-1016
لان	-1017
▁خود	-1018
داد	-1019
ڏھن	-1020
ازي	-1021
▁تان	-1022
▁ٿيندي	-1023
▁عو	-1024
▁سگهجي	-1025
ميشه	-1026
▁رکڻ	-1027
▁اختي	-1028
▁َ	-1029
تا	-1030
▁مثال	-1031
▁اش	-1032
▁شع	-1033
يي	-1034
▁اب	-1035
▁راند	-1036
ic	-1037
ائل	-1038
▁زمين	-1039
▁تنهنجي	-1040
▁ھي	-1041
كت	-1042
▁اڻ	-1043
▁ھو	-1044
▁تجر	-1045
▁دست	-1046
رم	-1047
قا	-1048
▁ريا	-1049
دين	-1050
▁حلو	-1051
▁هوءَ	-1052
ٽل	-1053
▁قب	-1054
ارت	-1055
گرام	-1056
▁e	-1057
▁ڏک	-1058
صد	-1059
ڌي	-1060
پر	-1061
▁تيار	-1062
▁ڏيک	-1063
▁قانون	-1064
▁قدر	-1065
▁تف	-1066
▁شخص	-1067
ايت	-1068
ٽرو	-1069
▁ڊيٽا	-1070
▁ايران	-1071
ياري	-1072
▁دف	-1073
▁اسٽي	-1074
▁واپس	-1075
▁الي	-1076
اڪاڻ	-1077
داري	-1078
ديد	-1079
ِي	-1080
▁ڇاڪاڻ	-1081
ڪرو	-1082
ره	-1083
▁انداز	-1084
▁پيداوار	-1085
▁پسند	-1086
▁عن	-1087
▁ڏيو	-1088
ستي	-1089
▁مين	-1090
▁الح	-1091
▁بخ	-1092
▁نتي	-1093
▁برا	-1094
پري	-1095
▁سچ	-1096
▁آيا	-1097
▁قابل	-1098
▁منت	-1099
▁مص	-1100
ڪٽ	-1101
ائو	-1102
▁مشهور	-1103
▁st	-1104
سٽم	-1105
انو	-1106
▁اعلي	-1107
▁ڪيترائي	-1108
▁شين	-1109
تل	-1110
▁شه	-1111
▁انهيءَ	-1112
▁0	-1113
▁نيو	-1114
▁کا	-1115
بان	-1116
▁تا	-1117
ظيم	-1118
▁نظام	-1119
▁هميشه	-1120
▁تقري	-1121
▁اجاز	-1122
▁بلا	-1123
▁صن	-1124
لين	-1125
▁H	-1126
▁داخل	-1127
▁D	-1128
▁چوڻ	-1129
▁موق	-1130
هون	-1131
▁ڊگ	-1132
ڪاري	-1133
يات	-1134
غير	-1135
▁ٻنهي	-1136
▁صارف	-1137
دس	-1138
▁موڪل	-1139
▁N	-1140
▁طا	-1141
▁اجازت	-1142
▁l	-1143
▁بار	-1144
اسب	-1145
▁الا	-1146
▁يقين	-1147
▁پلي	-1148
▁باري	-1149
اسين	-1150
▁G	-1151
▁وز	-1152
▁پاس	-1153
▁خوب	-1154
▁مهر	-1155
▁آو	-1156
▁مونکي	-1157
ههههههههههه	-1158
▁شاع	-1159
▁18	-1160
▁حس	-1161
▁وارن	-1162
▁ڏٺو	-1163
▁15	-1164
▁سٺو	-1165
▁هذا	-1166
ڌو	-1167
▁سڏ	-1168
ڻيڪ	-1169
▁نٿو	-1170
توڻيڪ	-1171
▁بنيادي	-1172
▁L	-1173
▁پير	-1174
قن	-1175
▁واقعي	-1176
▁مري	-1177
ڪيشن	-1178
▁تحقي	-1179
فوظ	-1180
▁ننڍ	-1181
▁وڃڻ	-1182
▁جيتوڻيڪ	-1183
▁راب	-1184
▁محفوظ	-1185
ذه	-1186
زا	-1187
اھ	-1188
▁ڊو	-1189
▁سرو	-1190
▁توکي	-1191
▁آه	-1192
▁نف	-1193
▁کانپو	-1194
▁لائ	-1195
▁موضوع	-1196
▁طاقت	-1197
▁كل	-1198
▁قائم	-1199
▁نگ	-1200
يل	-1201
▁؟؟	-1202
هههههههههه	-1203
▁نئون	-1204
▁ڪلا	-1205
▁آء	-1206
▁ٽيڪن	-1207
رر	-1208
انن	-1209
▁ڪونه	-1210
▁ڏن	-1211
▁يور	-1212
▁آواز	-1213
▁مُ	-1214
▁گراه	-1215
▁چونڊ	-1216
▁ابو	-1217
نت	-1218
▁پروگرام	-1219
▁o	-1220
ريڪ	-1221
▁هيو	-1222
▁ڪاميا	-1223
ميت	-1224
▁200	-1225
▁f	-1226
▁ڄڻ	-1227
us	-1228
▁ڳول	-1229
سپ	-1230
▁حد	-1231
▁اسلامي	-1232
▁يه	-1233
▁کڻي	-1234
آآ	-1235
▁ڪير	-1236
▁سمجهي	-1237
▁معلومات	-1238
▁تعليم	-1239
▁ايڪس	-1240
▁شيء	-1241
صل	-1242
▁ره	-1243
ڙهي	-1244
▁شادي	-1245
▁ايت	-1246
▁هجڻ	-1247
▁حڪم	-1248
▁هاي	-1249
خوا	-1250
▁12	-1251
▁تحقيق	-1252
▁حض	-1253
▁سخت	-1254
▁لکي	-1255
▁ويندا	-1256
▁سگھ	-1257
▁ڪور	-1258
▁محبت	-1259
▁گرو	-1260
▁اميد	-1261
▁اك	-1262
ضحك	-1263
▁آخري	-1264
▁مطابق	-1265
is	-1266
▁خراب	-1267
▁پنھنجي	-1268
هار	-1269
▁مقصد	-1270
▁اسڪول	-1271
▁منصو	-1272
وٽ	-1273
▁اڪثر	-1274
▁w	-1275
▁ڀر	-1276
اريو	-1277
▁فراهم	-1278
▁نالي	-1279
خواست	-1280
▁جڳ	-1281
▁نام	-1282
▁روح	-1283
▁کانپوءِ	-1284
▁درخواست	-1285
om	-1286
ٽري	-1287
▁سط	-1288
▁حالت	-1289
ماني	-1290
▁انساني	-1291
ڻڻ	-1292
▁که	-1293
▁آزاد	-1294
▁حي	-1295
▁معا	-1296
وه	-1297
te	-1298
يڪل	-1299
▁غلط	-1300
▁سگھي	-1301
▁ٻارن	-1302
▁سيڪڙو	-1303
▁لاز	-1304
▁چڪو	-1305
دال	-1306
am	-1307
▁حم	-1308
ليس	-1309
▁E	-1310
▁خان	-1311
▁سڃ	-1312
▁ة	-1313
▁ڊاڪ	-1314
▁آهين	-1315
▁پور	-1316
▁ٻيهر	-1317
▁گهڻي	-1318
▁احس	-1319
▁سڄي	-1320
▁آفي	-1321
▁سائين	-1322
ac	-1323
▁فقط	-1324
▁مفت	-1325
▁ڪمي	-1326
▁ٿيا	-1327
دگي	-1328
▁سون	-1329
▁تس	-1330
nd	-1331
▁پنج	-1332
سٽر	-1333
▁اض	-1334
ارين	-1335
رفت	-1336
▁رج	-1337
گل	-1338
يون	-1339
▁سائن	-1340
▁اختيار	-1341
▁ٻولي	-1342
▁نقص	-1343
حا	-1344
▁انٽر	-1345
▁فيصلو	-1346
هائي	-1347
▁چڱ	-1348
▁فلم	-1349
هههههههههههه	-1350
▁ڪپ	-1351
ريان	-1352
▁سياسي	-1353
▁باقي	-1354
طو	-1355
ائش	-1356
▁۔۔	-1357
▁ڪهڙي	-1358
ليڪيشن	-1359
▁پٽ	-1360
▁پاران	-1361
▁طريقي	-1362
بح	-1363
▁R	-1364
▁ذهن	-1365
▁بنياد	-1366
▁ٻڌايو	-1367
▁سُ	-1368
▁نوجو	-1369
ion	-1370
▁اق	-1371
▁ــ	-1372
▁ڪافي	-1373
مار	-1374
▁کول	-1375
▁F	-1376
▁تخ	-1377
▁ٽو	-1378
▁مناسب	-1379
▁ڊر	-1380
▁رست	-1381
et	-1382
▁ـــ	-1383
▁اڳتي	-1384
▁ورتو	-1385
▁وسي	-1386
▁حر	-1387
▁مرڪ	-1388
▁جهڙو	-1389
▁اچڻ	-1390
▁سنگ	-1391
▁انگري	-1392
▁رق	-1393
▁W	-1394
ريو	-1395
▁اڳو	-1396
▁ڊاڪٽر	-1397
▁11	-1398
▁عالمي	-1399
▁ميل	-1400
art	-1401
▁سطح	-1402
كر	-1403
▁نش	-1404
ٽنگ	-1405
▁ايل	-1406
▁قدم	-1407
▁مقاب	-1408
as	-1409
▁فن	-1410
▁رياست	-1411
▁202	-1412
▁شيون	-1413
▁شاگر	-1414
▁ٽر	-1415
▁ايندڙ	-1416
▁ست	-1417
he	-1418
مه	-1419
▁ميڊيا	-1420
ڳا	-1421
▁ملڪن	-1422
▁کن	-1423
▁ممڪن	-1424
▁دلچ	-1425
▁100	-1426
ow	-1427
▁مه	-1428
▁کين	-1429
▁وڊيو	-1430
▁طب	-1431
ٽس	-1432
▁گي	-1433
▁ڳوٺ	-1434
▁1.	-1435
▁ڏسو	-1436
▁نقصان	-1437
▁اون	-1438
▁k	-1439
▁ده	-1440
▁مرح	-1441
▁خوبص	-1442
▁علم	-1443
▁ويج	-1444
دان	-1445
دارن	-1446
▁ڪٿي	-1447
سل	-1448
▁پل	-1449
▁اڪائون	-1450
ڊل	-1451
طن	-1452
▁ائ	-1453
▁ٽن	-1454
زر	-1455
ورڊ	-1456
▁تش	-1457
▁ڪاروبار	-1458
▁n	-1459
▁ترتي	-1460
▁السلام	-1461
▁ضرور	-1462
▁فع	-1463
▁مهرباني	-1464
الاجي	-1465
▁واحد	-1466
گار	-1467
▁فارم	-1468
▁چاهيو	-1469
▁آمريڪي	-1470
▁30	-1471
▁اُن	-1472
▁جدا	-1473
خخ	-1474
ائيو	-1475
▁ذاتي	-1476
▁مسلم	-1477
جر	-1478
▁له	-1479
▁شروعات	-1480
گو	-1481
▁انج	-1482
▁هين	-1483
▁ڪيون	-1484
▁پڪ	-1485
id	-1486
پيل	-1487
عه	-1488
ڪت	-1489
▁وج	-1490
▁گهڻ	-1491
▁ٽيڪنالاجي	-1492
مم	-1493
▁سلام	-1494
عن	-1495
▁اصلي	-1496
▁ترتيب	-1497
▁مضمون	-1498
il	-1499
▁آءٌ	-1500
ائيل	-1501
فتي	-1502
▁صحت	-1503
▁صدر	-1504
▁ُ	-1505
▁تڪ	-1506
▁انھن	-1507
▁نمبر	-1508
هيل	-1509
ed	-1510
▁اعلان	-1511
▁وڻ	-1512
يد	-1513
▁تعلق	-1514
▁مسئلو	-1515
▁انٽرني	-1516
فته	-1517
▁مطال	-1518
▁تڏهن	-1519
▁بڻجي	-1520
▁O	-1521
▁حقيقي	-1522
▁صو	-1523
▁سسٽم	-1524
ڪشن	-1525
▁in	-1526
▁تعم	-1527
▁موت	-1528
▁ايئر	-1529
شل	-1530
▁وائ	-1531
▁كم	-1532
▁حير	-1533
▁لوڊ	-1534
اهڻ	-1535
اندي	-1536
▁هنڌ	-1537
▁گڏي	-1538
▁رپورٽ	-1539
▁بج	-1540
▁يونيو	-1541
ريا	-1542
▁ڊائون	-1543
فاظ	-1544
▁ڌر	-1545
▁اني	-1546
زو	-1547
▁چا	-1548
▁گوگل	-1549
چر	-1550
▁سٺي	-1551
▁مذه	-1552
▁ماح	-1553
▁عورتن	-1554
ay	-1555
يندا	-1556
▁ڏنل	-1557
▁ڳن	-1558
▁دير	-1559
▁رح	-1560
صوص	-1561
▁تك	-1562
oo	-1563
ريف	-1564
▁فل	-1565
اط	-1566
احت	-1567
▁اڪي	-1568
▁قوم	-1569
▁چئي	-1570
▁ماءُ	-1571
▁گل	-1572
▁ڪجي	-1573
▁وض	-1574
▁وڃن	-1575
▁ايه	-1576
▁پوري	-1577
▁طريقو	-1578
▁نفس	-1579
▁هاڻ	-1580
▁ايپليڪيشن	-1581
▁قل	-1582
▁g	-1583
▁مشين	-1584
▁سامان	-1585
▁شڪ	-1586
▁سپ	-1587
؟"	-1588
ستائين	-1589
▁هيون	-1590
الر	-1591
سا	-1592
▁ڪردار	-1593
▁لك	-1594
▁ڏاڍ	-1595
▁اط	-1596
▁إ	-1597
▁لڳو	-1598
▁14	-1599
▁پوليس	-1600
▁سماجي	-1601
▁لکڻ	-1602
▁تعمير	-1603
▁ماحول	-1604
ارا	-1605
▁رفت	-1606
▁ٺاهڻ	-1607
▁ڏيکاري	-1608
▁اھ	-1609
▁زي	-1610
▁جديد	-1611
ٽرول	-1612
▁پيغ	-1613
▁ڪيس	-1614
ئو	-1615
▁حفاظ	-1616
▁اِ	-1617
ريب	-1618
▁رھ	-1619
▁احساس	-1620
▁آپري	-1621
▁<<	-1622
▁پورو	-1623
الا	-1624
▁موب	-1625
▁حضرت	-1626
هوري	-1627
▁h	-1628
▁قومي	-1629
▁گذريل	-1630
▁جذ	-1631
▁خوبصورت	-1632
حت	-1633
▁سروس	-1634
زم	-1635
▁جيت	-1636
▁ڪين	-1637
ورا	-1638
">	-1639
▁لاڳا	-1640
▁معني	-1641
▁متا	-1642
▁علاج	-1643
▁مرد	-1644
▁ڪهاڻي	-1645
اتو	-1646
▁حصي	-1647
▁يار	-1648
▁واضح	-1649
▁پارٽي	-1650
▁مساف	-1651
ائيڊ	-1652
شم	-1653
▁تيز	-1654
▁بت	-1655
▁تبديلي	-1656
▁الع	-1657
▁اڪائونٽ	-1658
▁پوندو	-1659
▁روش	-1660
ظم	-1661
▁وڌي	-1662
el	-1663
▁گفت	-1664
بوط	-1665
▁•	-1666
▁خاند	-1667
▁پاسي	-1668
▁ڍ	-1669
ڪان	-1670
▁13	-1671
▁نڪ	-1672
▁اخت	-1673
▁بلڪل	-1674
▁حص	-1675
ديق	-1676
▁ڀيرو	-1677
▁آگ	-1678
▁وش	-1679
▁اکين	-1680
▁گراهڪن	-1681
▁ول	-1682
▁ڪرا	-1683
ائيندو	-1684
▁نٿا	-1685
▁ڪاري	-1686
▁تفصي	-1687
▁سج	-1688
ڏو	-1689
▁ڪوبه	-1690
▁start	-1691
▁حوالي	-1692
▁يونيورس	-1693
ديم	-1694
▁موجب	-1695
▁dur	-1696
▁ميمبر	-1697
▁آزادي	-1698
▁صلاحيت	-1699
▁وٺڻ	-1700
▁موجوده	-1701
▁صبح	-1702
▁ٻيا	-1703
▁يورپ	-1704
▁سلس	-1705
▁عوام	-1706
ميو	-1707
000	-1708
▁صاف	-1709
▁مٿان	-1710
▁پڙهي	-1711
▁لن	-1712
▁عظيم	-1713
▁عملي	-1714
▁باد	-1715
▁خير	-1716
▁قبول	-1717
▁ــــــــــــ	-1718
ڳي	-1719
▁(1	-1720
▁ھڪڙو	-1721
▁گڏيل	-1722
وت	-1723
ابي	-1724
▁ڪئ	-1725
▁to	-1726
▁وڪي	-1727
▁گھٽ	-1728
▁ڏيندو	-1729
▁هند	-1730
لڊ	-1731
▁ٽيم	-1732
▁وق	-1733
▁عند	-1734
زائن	-1735
▁مقرر	-1736
زل	-1737
ايل	-1738
▁جلد	-1739
▁تعداد	-1740
يب	-1741
▁محمد	-1742
▁ايف	-1743
▁شرح	-1744
حان	-1745
▁اعت	-1746
▁نوجوان	-1747
ڪڻ	-1748
▁بيش	-1749
▁رقم	-1750
▁يونيورسٽي	-1751
خي	-1752
ٽڻ	-1753
▁لازمي	-1754
▁ضح	-1755
▁25	-1756
▁سرگر	-1757
▁رهڻ	-1758
▁اهڙو	-1759
▁پڙهڻ	-1760
▁آرٽ	-1761
▁ايو	-1762
▁ترج	-1763
▁خرچ	-1764
▁انتظار	-1765
▁حت	-1766
▁ڪنٽرول	-1767
ارڻ	-1768
▁نيٽ	-1769
▁شان	-1770
يندو	-1771
▁لان	-1772
لاس	-1773
▁r	-1774
ٺيان	-1775
▁پوسٽ	-1776
▁سواءِ	-1777
▁زين	-1778
▁2.	-1779
▁ولي	-1780
▁مضبوط	-1781
پن	-1782
رار	-1783
▁مهيا	-1784
▁نموني	-1785
ولت	-1786
▁ديو	-1787
▁مير	-1788
▁ههه	-1789
▁هه	-1790
▁متاثر	-1791
ئڻ	-1792
▁زندگيءَ	-1793
▁تہ	-1794
▁آفيس	-1795
▁راندي	-1796
▁دري	-1797
انس	-1798
▁>>	-1799
ٺا	-1800
▁انسٽ	-1801
▁ڌيان	-1802
▁خوشي	-1803
▁ڪريان	-1804
xt	-1805
▁ی	-1806
لائي	-1807
▁تاز	-1808
لز	-1809
ھين	-1810
رات	-1811
▁صنعت	-1812
▁احت	-1813
▁بع	-1814
▁لين	-1815
▁عدال	-1816
▁ذڪر	-1817
▁هلي	-1818
▁ڪهڙو	-1819
▁پنهنجن	-1820
▁مڙ	-1821
▁وزير	-1822
▁پهچي	-1823
▁ڀا	-1824
▁خواب	-1825
وز	-1826
▁بينڪ	-1827
آن	-1828
▁اَ	-1829
▁جھ	-1830
سڪ	-1831
▁16	-1832
▁17	-1833
▁هيءَ	-1834
▁وه	-1835
▁رکيو	-1836
▁سف	-1837
▁ڪئين	-1838
▁ذميو	-1839
حال	-1840
▁سنڌي	-1841
▁سار	-1842
▁آباد	-1843
گري	-1844
▁برط	-1845
شق	-1846
▁سگهون	-1847
▁ڪال	-1848
▁خاصيت	-1849
ch	-1850
شنل	-1851
دود	-1852
▁براب	-1853
دت	-1854
افت	-1855
▁فائل	-1856
ad	-1857
▁فرق	-1858
▁منج	-1859
▁پھ	-1860
▁زال	-1861
گه	-1862
وڙ	-1863
ent	-1864
▁آرام	-1865
هيون	-1866
▁رب	-1867
▁وف	-1868
▁اوزار	-1869
▁روشني	-1870
▁مليو	-1871
ou	-1872
ائر	-1873
▁يءَ	-1874
▁واڌ	-1875
▁جلدي	-1876
▁استاد	-1877
▁ڪرڻو	-1878
▁حفاظت	-1879
▁]	-1880
▁پُ	-1881
▁ڪريون	-1882
▁جمهوري	-1883
▁جنھن	-1884
ثيت	-1885
▁تصديق	-1886
▁بيم	-1887
▁شيءِ	-1888
▁وڪرو	-1889
▁چم	-1890
▁علاوه	-1891
اڻو	-1892
ol	-1893
▁ڪارڪر	-1894
نس	-1895
نين	-1896
▁وضاحت	-1897
▁علائقي	-1898
لع	-1899
افٽ	-1900
▁معام	-1901
▁هزار	-1902
▁ڪارڪردگي	-1903
▁مهم	-1904
▁گري	-1905
▁ڪلڪ	-1906
▁).	-1907
▁ڪراچي	-1908
▁سرڪاري	-1909
▁هفتي	-1910
▁رسائي	-1911
▁جيڪڏھن	-1912
▁ونڊ	-1913
▁عب	-1914
يوٽر	-1915
سٽري	-1916
دايت	-1917
▁=	-1918
▁حيثيت	-1919
▁؟"	-1920
▁پهريان	-1921
▁تنهنڪري	-1922
شر	-1923
▁نور	-1924
▁ٺهيل	-1925
▁ڪارڊ	-1926
▁مالي	-1927
پٽ	-1928
قبل	-1929
▁هار	-1930
▁50	-1931
▁گا	-1932
داشت	-1933
▁رستو	-1934
▁شكرا	-1935
مينٽ	-1936
▁U	-1937
▁تجربو	-1938
▁فط	-1939
▁مف	-1940
يه	-1941
▁جر	-1942
▁ملڪي	-1943
▁موسم	-1944
▁جهاز	-1945
▁ندي	-1946
▁ماڊل	-1947
▁پال	-1948
▁ھڪڙي	-1949
▁نشان	-1950
▁پڇيو	-1951
▁سنڀ	-1952
▁جمع	-1953
▁رفتار	-1954
تان	-1955
قات	-1956
▁سل	-1957
لى	-1958
▁$	-1959
▁قتل	-1960
▁غلطي	-1961
ابت	-1962
▁گم	-1963
▁وجود	-1964
▁ادب	-1965
▁انڊ	-1966
▁ٿيندا	-1967
تال	-1968
خر	-1969
وف	-1970
▁ميز	-1971
▁ايندو	-1972
▁ڪمپيوٽر	-1973
▁v	-1974
▁شم	-1975
▁جاءِ	-1976
▁پليٽ	-1977
▁آءِ	-1978
▁تصور	-1979
▁يم	-1980
▁نوڪري	-1981
▁جائ	-1982
▁ميو	-1983
▁مڃ	-1984
▁ليک	-1985
▁ماهر	-1986
▁سائنس	-1987
مائي	-1988
▁مائ	-1989
▁معاه	-1990
▁انٽرنيٽ	-1991
▁هڪڙي	-1992
▁ڏاڍو	-1993
▁پيغام	-1994
▁سيٽ	-1995
▁لاڳو	-1996
ڀر	-1997
▁u	-1998
▁گرفت	-1999
▁مستقبل	-2000
امو	-2001
▁لب	-2002
▁اقت	-2003
▁مجمو	-2004
▁انگريزي	-2005
▁بحث	-2006
مر	-2007
▁امت	-2008
شيا	-2009
▁ڪونهي	-2010
ec	-2011
▁شاعري	-2012
▁اھي	-2013
▁اصول	-2014
ااا	-2015
ليف	-2016
▁۔۔۔	-2017
كل	-2018
▁X	-2019
▁ريت	-2020
▁ڊالر	-2021
▁شاء	-2022
▁ڳالهيون	-2023
شا	-2024
▁ترين	-2025
▁ماني	-2026
▁خواه	-2027
▁دان	-2028
▁گرمي	-2029
▁اگر	-2030
ئل	-2031
مپ	-2032
▁چند	-2033
▁زور	-2034
▁امير	-2035
▁24	-2036
▁ويئي	-2037
ھر	-2038
▁دٻ	-2039
رحال	-2040
▁گرم	-2041
ڪارڊ	-2042
▁افغ	-2043
▁ويون	-2044
▁ايمان	-2045
دري	-2046
يور	-2047
▁انتي	-2048
▁ٻڌي	-2049
▁امام	-2050
▁ٽران	-2051
▁لل	-2052
▁حسين	-2053
▁پيرو	-2054
ائيندي	-2055
▁بخش	-2056
▁ٽرين	-2057
باري	-2058
▁يقيني	-2059
الف	-2060
▁چر	-2061
▁وزن	-2062
▁اسڪرين	-2063
ونا	-2064
▁فري	-2065
▁بڻائي	-2066
▁قط	-2067
گز	-2068
▁دفعو	-2069
▁K	-2070
▁ٿيندڙ	-2071
▁نسل	-2072
▁اڳيان	-2073
▁ڪاميابي	-2074
▁سگهيو	-2075
▁ابت	-2076
▁جوڙ	-2077
▁اللي	-2078
▁قيا	-2079
▁معم	-2080
▁خوف	-2081
▁رهندو	-2082
َر	-2083
اله	-2084
▁موبائل	-2085
▁ٿورو	-2086
▁صفح	-2087
لات	-2088
▁ڪامياب	-2089
▁لکيو	-2090
▁ميڪ	-2091
▁بنا	-2092
▁ڪوڊ	-2093
▁آب	-2094
▁ايترو	-2095
▁ورڪ	-2096
▁پيام	-2097
▁ڪندڙن	-2098
▁شڪل	-2099
▁ماري	-2100
▁سوشل	-2101
قوامي	-2102
▁سڃاڻ	-2103
▁ڊگهي	-2104
ter	-2105
▁ڪُ	-2106
▁سگھو	-2107
▁شڪار	-2108
▁انتظام	-2109
ميل	-2110
▁بورڊ	-2111
▁برابر	-2112
▁قانوني	-2113
ig	-2114
▁اظ	-2115
ليت	-2116
لسل	-2117
▁؟؟؟	-2118
▁نمي	-2119
▁بهرحال	-2120
ot	-2121
▁پيءُ	-2122
▁دين	-2123
▁مخصوص	-2124
▁جيستائين	-2125
جيب	-2126
▁199	-2127
▁ثابت	-2128
ياب	-2129
هندي	-2130
▁چئ	-2131
▁سگهان	-2132
▁الاقوامي	-2133
دد	-2134
▁3.	-2135
▁آڪ	-2136
▁حتى	-2137
اوي	-2138
ٽين	-2139
▁مب	-2140
▁صورتحال	-2141
بلي	-2142
▁هيچ	-2143
▁گروپ	-2144
▁ناڪ	-2145
▁ايڊ	-2146
▁ساڻ	-2147
▁#	-2148
ڙين	-2149
▁زمان	-2150
▁کانسو	-2151
▁صدي	-2152
▁ڪاب	-2153
▁ئ	-2154
انڊ	-2155
▁پوي	-2156
▁انقل	-2157
▁اهڙا	-2158
▁منهنجا	-2159
اڊ	-2160
▁متع	-2161
▁ڳولي	-2162
▁مقابلي	-2163
نٽ	-2164
▁سافٽ	-2165
▁عدالت	-2166
كي	-2167
▁اڌ	-2168
▁گذاري	-2169
ريت	-2170
▁پاب	-2171
▁خاندان	-2172
▁چڪا	-2173
▁افغان	-2174
▁عرب	-2175
▁فلس	-2176
▁فور	-2177
ub	-2178
▁re	-2179
▁ڪڍ	-2180
غيره	-2181
▁رت	-2182
▁ٻو	-2183
▁دوستن	-2184
راني	-2185
▁برق	-2186
▁طبي	-2187
▁هدايت	-2188
▁چونڊيو	-2189
ڇي	-2190
▁وو	-2191
▁زبان	-2192
▁حالتن	-2193
▁سياست	-2194
▁هوس	-2195
▁هڪڙو	-2196
▁عرصي	-2197
ارتي	-2198
▁تنهنجو	-2199
▁V	-2200
▁سور	-2201
▁تخلي	-2202
▁خال	-2203
os	-2204
▁ڌرتي	-2205
▁ايندي	-2206
▁بق	-2207
▁ثق	-2208
وجود	-2209
▁دار	-2210
ايان	-2211
لاق	-2212
▁سمنڊ	-2213
لوي	-2214
▁وفا	-2215
▁نص	-2216
ريز	-2217
لها	-2218
▁زخ	-2219
▁درد	-2220
▁دعا	-2221
ذي	-2222
▁لفظن	-2223
▁نڪري	-2224
now	-2225
▁سول	-2226
▁اضافي	-2227
▁لم	-2228
▁توان	-2229
قع	-2230
▁ايپل	-2231
▁شاگردن	-2232
▁شام	-2233
▁کولڻ	-2234
▁ى	-2235
▁مارڪيٽنگ	-2236
ag	-2237
▁خار	-2238
▁ساڳي	-2239
▁ڳولا	-2240
▁تعلي	-2241
▁زماني	-2242
▁ملاقات	-2243
▁نوٽ	-2244
▁ڳالھ	-2245
ائيندا	-2246
▁مَ	-2247
▁حساب	-2248
▁+	-2249
▁حياتي	-2250
پا	-2251
وووو	-2252
▁سوچيو	-2253
▁فيس	-2254
ائيٽ	-2255
▁جڳهه	-2256
▁^	-2257
ختي	-2258
▁نٿي	-2259
▁باوجود	-2260
چو	-2261
▁ing	-2262
▁آسم	-2263
▁فهر	-2264
▁تفصيل	-2265
بري	-2266
▁ڏاڍي	-2267
▁فهرست	-2268
▁بيماري	-2269
ers	-2270
ٽيو	-2271
▁زم	-2272
اض	-2273
▁ملين	-2274
▁اڏ	-2275
▁باز	-2276
▁ملڻ	-2277
▁ٺيڪ	-2278
زيشن	-2279
▁قد	-2280
▁جهڙوڪ	-2281
▁پنهنجا	-2282
تون	-2283
ڙيل	-2284
▁هفت	-2285
▁مختصر	-2286
▁ويجهو	-2287
رڪ	-2288
▁ڀلي	-2289
▁چوي	-2290
▁بلاگ	-2291
تك	-2292
▁2020	-2293
هايو	-2294
▁بادش	-2295
ئس	-2296
▁انف	-2297
خو	-2298
▁يس	-2299
کيون	-2300
انه	-2301
ماغ	-2302
▁هيا	-2303
▁لائين	-2304
▁ڇوڪري	-2305
سنگ	-2306
ولين	-2307
▁فائدو	-2308
▁منتقل	-2309
▁ڪنداسين	-2310
▁کو	-2311
▁درو	-2312
▁چڪي	-2313
انا	-2314
▁دماغ	-2315
▁مهين	-2316
▁لاڳاپيل	-2317
▁مرا	-2318
▁وڌائڻ	-2319
ائيس	-2320
▁آئين	-2321
▁موسي	-2322
▁ويئر	-2323
▁علائقن	-2324
▁ڪاروباري	-2325
▁شوي	-2326
▁پين	-2327
▁دع	-2328
▁سمجھ	-2329
▁ميدان	-2330
اااااااا	-2331
▁بابا	-2332
ندر	-2333
▁شاعر	-2334
▁چاهيندا	-2335
▁سگھن	-2336
▁کل	-2337
▁2019	-2338
▁راندين	-2339
▁شاندار	-2340
▁نڪر	-2341
يف	-2342
▁مالڪ	-2343
▁ڪلاڪ	-2344
سه	-2345
▁هال	-2346
عات	-2347
▁جڏھن	-2348
▁سنڀال	-2349
سپي	-2350
عظم	-2351
▁عا	-2352
▁ڊرائيو	-2353
▁عز	-2354
▁درست	-2355
▁گذري	-2356
▁رکو	-2357
▁know	-2358
▁اعتم	-2359
▁22	-2360
▁پريشان	-2361
▁پک	-2362
▁انتهائي	-2363
رل	-2364
▁ٻڌائي	-2365
رب	-2366
▁ڌار	-2367
▁تنظيم	-2368
▁جهڙي	-2369
▁ميٽر	-2370
▁مهينن	-2371
▁غور	-2372
لينڊ	-2373
▁راز	-2374
▁رستي	-2375
▁کانسواءِ	-2376
▁بدر	-2377
▁اٽ	-2378
▁ليڪ	-2379
▁ننڊ	-2380
▁چيزي	-2381
▁وڏا	-2382
▁ويڪ	-2383
▁حبي	-2384
▁بيشڪ	-2385
▁اکيون	-2386
ارٽ	-2387
▁جئين	-2388
▁سڀئي	-2389
▁يك	-2390
▁روڊ	-2391
▁پوئ	-2392
▁لکيل	-2393
▁وغيره	-2394
هيه	-2395
▁ڏو	-2396
جون	-2397
▁آپريشن	-2398
▁سامهون	-2399
▁توانائي	-2400
▁هئڻ	-2401
▁پيڪ	-2402
▁ننڍي	-2403
▁آمد	-2404
▁سري	-2405
اما	-2406
▁بجلي	-2407
طا	-2408
▁تجز	-2409
▁21	-2410
▁اهميت	-2411
▁اسپتال	-2412
▁40	-2413
▁قا	-2414
▁اشت	-2415
▁منظر	-2416
th	-2417
▁غريب	-2418
▁مقامي	-2419
▁الف	-2420
▁صور	-2421
▁چڱي	-2422
حاظ	-2423
ھنجو	-2424
▁مگر	-2425
▁وڃو	-2426
▁بغير	-2427
▁قبل	-2428
▁الن	-2429
▁بون	-2430
▁ڪيائين	-2431
ئا	-2432
لت	-2433
▁الز	-2434
▁ٽرانس	-2435
▁ڏيندا	-2436
▁کر	-2437
▁دلچسپ	-2438
▁رڪارڊ	-2439
▁موقعو	-2440
▁تقريبن	-2441
▁بئن	-2442
▁سوچي	-2443
▁اعليٰ	-2444
▁।	-2445
ـــــ	-2446
▁پائي	-2447
انگ	-2448
▁منٽ	-2449
▁حيرت	-2450
▁نتيجي	-2451
▁وَ	-2452
▁آڻڻ	-2453
يز	-2454
نڊن	-2455
ڪٽر	-2456
▁واپار	-2457
▁دلچسپي	-2458
▁صارفين	-2459
▁آل	-2460
▁فرم	-2461
▁اڃان	-2462
ve	-2463
شو	-2464
▁بندي	-2465
▁ٺاهيو	-2466
▁آرٽيڪل	-2467
▁كان	-2468
▁2018	-2469
▁سميت	-2470
▁برقرار	-2471
▁بھ	-2472
چه	-2473
انيه	-2474
▁يوم	-2475
▁آساني	-2476
▁ايڇ	-2477
▁پوئتي	-2478
▁بيو	-2479
▁ليه	-2480
▁قديم	-2481
▁بڻائڻ	-2482
▁قس	-2483
وم	-2484
▁وص	-2485
▁سمجهيو	-2486
▁ڳالهائڻ	-2487
▁پڙهن	-2488
▁آس	-2489
▁فٽ	-2490
▁مغ	-2491
▁هُن	-2492
▁ايتري	-2493
▁ڌي	-2494
▁مسلسل	-2495
▁(2	-2496
▁4.	-2497
▁دوا	-2498
▁لحاظ	-2499
▁مصنو	-2500
▁قرض	-2501
▁يال	-2502
▁محدود	-2503
▁مسافر	-2504
▁چيائين	-2505
▁جام	-2506
▁مسئلن	-2507
عام	-2508
▁آڻ	-2509
▁يک	-2510
▁قرار	-2511
▁امن	-2512
▁,,	-2513
▁گن	-2514
▁الص	-2515
▁انه	-2516
▁هيءُ	-2517
▁عاد	-2518
▁مات	-2519
▁قسمن	-2520
▁ڏينھن	-2521
▁اث	-2522
▁ڊپ	-2523
▁اعتماد	-2524
▁چاهيان	-2525
يس	-2526
ul	-2527
ڄي	-2528
بال	-2529
▁بص	-2530
▁شايع	-2531
▁گهڻا	-2532
▁شوق	-2533
جد	-2534
▁ڏکڻ	-2535
▁وائرس	-2536
▁نيا	-2537
▁علام	-2538
▁نيوز	-2539
ڙڻ	-2540
▁J	-2541
▁الڳ	-2542
▁ڪيترا	-2543
▁زن	-2544
ڙپ	-2545
▁ايا	-2546
text	-2547
ٽائي	-2548
▁عالم	-2549
▁اجلاس	-2550
im	-2551
روف	-2552
▁تحفظ	-2553
▁ڪنھن	-2554
ٺل	-2555
▁نہ	-2556
▁نظري	-2557
▁ارس	-2558
▁عيس	-2559
▁ڪڍي	-2560
ess	-2561
▁عوامي	-2562
لك	-2563
▁سَ	-2564
▁فوج	-2565
▁کار	-2566
▁انسٽال	-2567
ِن	-2568
▁واس	-2569
▁آفري	-2570
وند	-2571
▁صد	-2572
▁بيڪ	-2573
▁خالي	-2574
▁سواء	-2575
▁ٽيسٽ	-2576
▁قدرتي	-2577
▁com	-2578
▁مشت	-2579
▁ڳا	-2580
▁متح	-2581
▁واٽ	-2582
اڻن	-2583
▁تحت	-2584
▁هز	-2585
▁اچو	-2586
▁سائ	-2587
▁هجن	-2588
▁ذات	-2589
▁دعو	-2590
▁امان	-2591
▁ادارن	-2592
▁ايراني	-2593
ادر	-2594
▁اڇ	-2595
▁عشق	-2596
▁آخرڪار	-2597
حن	-2598
دائي	-2599
▁And	-2600
▁ڪندس	-2601
▁اسم	-2602
▁ـــــ	-2603
▁لائسن	-2604
▁اچن	-2605
▁موڪ	-2606
▁ڳولڻ	-2607
▁مقدار	-2608
ٿر	-2609
عودي	-2610
▁هوا	-2611
▁ناز	-2612
شتي	-2613
▁لڪ	-2614
▁مزاح	-2615
▁ويس	-2616
pp	-2617
▁جز	-2618
▁اظهار	-2619
▁حڪمت	-2620
▁طريق	-2621
▁پوندي	-2622
▁تصويرون	-2623
▁ورتي	-2624
▁رابطو	-2625
ab	-2626
▁فعال	-2627
▁ساڳيو	-2628
يندي	-2629
▁مڙس	-2630
▁براي	-2631
▁سماج	-2632
▁شهري	-2633
▁عجيب	-2634
▁قرآن	-2635
كه	-2636
▁ادي	-2637
▁انص	-2638
▁جنسي	-2639
▁ڪسٽم	-2640
▁مذهبي	-2641
▁گول	-2642
▁گڏو	-2643
▁2017	-2644
▁بئنڪ	-2645
▁~	-2646
يراعظم	-2647
▁جسماني	-2648
ڊيٽ	-2649
▁سٽ	-2650
▁سڌو	-2651
▁ڪلو	-2652
▁معياري	-2653
ارش	-2654
▁زو	-2655
▁اتر	-2656
▁بدل	-2657
▁شرط	-2658
▁ڊائ	-2659
▁شاگرد	-2660
▁مهيني	-2661
ir	-2662
▁مظ	-2663
▁ارا	-2664
roid	-2665
▁ارب	-2666
▁انقلاب	-2667
▁۱	-2668
▁سڏيو	-2669
▁ھر	-2670
▁مئي	-2671
▁ڏان	-2672
ڏانهن	-2673
▁ڪرائي	-2674
▁ساڳئي	-2675
طه	-2676
▁ماڻھو	-2677
▁گھرجي	-2678
▁امتحان	-2679
ثي	-2680
بير	-2681
بادي	-2682
جيٽل	-2683
▁گڏجي	-2684
▁شخصيت	-2685
▁چيڪ	-2686
▁ويڊيو	-2687
▁ايئن	-2688
▁ايجن	-2689
▁خامو	-2690
▁فرانس	-2691
▁مخالف	-2692
▁جاچ	-2693
▁ڊجيٽل	-2694
▁وزيراعظم	-2695
▁حصن	-2696
▁چنڊ	-2697
▁لائسنس	-2698
▁ڊوائيس	-2699
▁ساز	-2700
▁مارچ	-2701
▁ٽائي	-2702
▁پويان	-2703
▁ڪيترو	-2704
▁Android	-2705
▁نگر	-2706
▁پول	-2707
▁سلسلي	-2708
▁منظور	-2709
▁پراڻي	-2710
▁پروسي	-2711
▁مجموعي	-2712
▁ڪيم	-2713
▁مافي	-2714
▁مسلمان	-2715
▁وات	-2716
▁احتجا	-2717
▁اوچ	-2718
▁رائ	-2719
▁آڪٽو	-2720
▁منزل	-2721
▁پالي	-2722
▁اسٽيشن	-2723
پس	-2724
▁ڪَ	-2725
▁فڪر	-2726
رز	-2727
▁گيت	-2728
▁لباس	-2729
▁منظم	-2730
▁منھنجي	-2731
▁وانا	-2732
▁کائڻ	-2733
▁ڏيندي	-2734
فه	-2735
▁ليکڪ	-2736
▁رين	-2737
▁نيڪ	-2738
كس	-2739
مڻ	-2740
▁ائي	-2741
▁طيب	-2742
▁ڪورٽ	-2743
ايون	-2744
▁اڪيلو	-2745
ظر	-2746
▁عه	-2747
▁جرم	-2748
▁شعر	-2749
▁نمائ	-2750
▁آڪٽوبر	-2751
▁y	-2752
▁ٻڌڻ	-2753
▁الو	-2754
▁جنم	-2755
▁خيلي	-2756
▁ملاز	-2757
▁ٿوري	-2758
▁معمولي	-2759
▁راه	-2760
▁روم	-2761
▁اسٽور	-2762
▁تاريخي	-2763
▁اشارو	-2764
ڻن	-2765
▁شهي	-2766
▁مور	-2767
ئه	-2768
▁معنيٰ	-2769
▁دستياب	-2770
▁مطابقت	-2771
▁والدين	-2772
▁حلوه	-2773
▁ايندا	-2774
▁مسئلي	-2775
▁ذميواري	-2776
▁فيه	-2777
▁پرين	-2778
▁ڪمري	-2779
▁بدران	-2780
▁طريقا	-2781
بيت	-2782
▁بلڪ	-2783
▁ممكن	-2784
▁هندستان	-2785
▁روشن	-2786
▁مرڪز	-2787
▁ٽيون	-2788
امه	-2789
▁ڊيو	-2790
▁موٽي	-2791
▁ڪالي	-2792
▁دستاوي	-2793
▁بلو	-2794
▁کليل	-2795
▁يورپي	-2796
▁اسپين	-2797
▁تجزيو	-2798
▁سينٽر	-2799
▁گهربل	-2800
▁مشڪل	-2801
▁گرفتار	-2802
▁سيڙپ	-2803
▁هوٽل	-2804
▁داخ	-2805
▁بم	-2806
ڙيون	-2807
▁خور	-2808
▁غلام	-2809
▁ڪتابن	-2810
راف	-2811
▁سيريز	-2812
▁an	-2813
▁مشك	-2814
▁سهولت	-2815
▁ھئي	-2816
▁اضاف	-2817
▁تعريف	-2818
▁گراهڪ	-2819
um	-2820
ind	-2821
▁سد	-2822
▁عذ	-2823
▁هيٺيان	-2824
اءَ	-2825
▁ڀري	-2826
▁ڪابه	-2827
▁سگهندا	-2828
پشن	-2829
▁اسيم	-2830
▁سيپٽ	-2831
▁26	-2832
تح	-2833
اڙي	-2834
ياد	-2835
▁سيپٽمبر	-2836
▁23	-2837
▁نماز	-2838
▁ڻ	-2839
کيه	-2840
▁برو	-2841
▁روس	-2842
▁سڄو	-2843
▁پلا	-2844
▁فوري	-2845
▁خواهش	-2846
▁موسيقي	-2847
▁ڪمپنين	-2848
pt	-2849
▁سڌ	-2850
▁سڪ	-2851
▁بيت	-2852
▁كله	-2853
▁ہ	-2854
▁۔	-2855
▁بود	-2856
▁رسي	-2857
▁فوت	-2858
▁هُو	-2859
▁طريقن	-2860
ٻي	-2861
▁?	-2862
شمن	-2863
▁ندا	-2864
▁ٽين	-2865
▁فطرت	-2866
▁فوجي	-2867
ميم	-2868
▁باغ	-2869
▁سزا	-2870
▁پئسا	-2871
▁حج	-2872
▁ٽا	-2873
▁198	-2874
▁ڳالهين	-2875
گيري	-2876
▁دورو	-2877
▁فوٽو	-2878
▁چيني	-2879
▁ٻُ	-2880
▁مدا	-2881
▁شاهه	-2882
▁واپسي	-2883
▁مئ	-2884
▁طلب	-2885
▁مره	-2886
▁چيز	-2887
▁ھون	-2888
▁اتفا	-2889
▁قومن	-2890
▁the	-2891
▁اڳي	-2892
▁جائزو	-2893
▁مدي	-2894
▁تنھن	-2895
ut	-2896
▁قص	-2897
▁شما	-2898
▁لنڪ	-2899
▁هيڪ	-2900
▁بونس	-2901
▁خلاص	-2902
▁جيترو	-2903
▁ڊزائن	-2904
▁ڪرائڻ	-2905
▁اسر	-2906
▁تيل	-2907
▁ليش	-2908
▁راح	-2909
▁خل	-2910
▁رن	-2911
▁اذا	-2912
او	-2913
ڪش	-2914
▁عنصر	-2915
▁آسمان	-2916
ارڊ	-2917
▁2-	-2918
يندڙ	-2919
ستاني	-2920
جان	-2921
▁آبادي	-2922
▁مشتمل	-2923
ليه	-2924
▁ڇپ	-2925
▁عليها	-2926
▁اسيمبلي	-2927
نيئر	-2928
▁سير	-2929
▁سست	-2930
▁فقير	-2931
▁محنت	-2932
▁ترجمو	-2933
▁نوان	-2934
▁آئ	-2935
▁زر	-2936
▁طال	-2937
▁اخبار	-2938
▁2016	-2939
▁جنرل	-2940
▁ساري	-2941
▁ڏيئي	-2942
▁انجنيئر	-2943
▁ضحك	-2944
▁موٽر	-2945
▁چوندا	-2946
▁دائ	-2947
▁ڀيٽ	-2948
oc	-2949
طف	-2950
گن	-2951
▁چان	-2952
حڪ	-2953
▁197	-2954
▁مٽي	-2955
▁ڀيرا	-2956
▁اينڊر	-2957
▁رکندڙ	-2958
▁بحال	-2959
▁انعام	-2960
▁ڪميون	-2961
ٿا	-2962
لاد	-2963
▁عزي	-2964
▁واقع	-2965
▁هينئر	-2966
▁سفارش	-2967
ائب	-2968
▁پَ	-2969
▁تعا	-2970
▁مذهب	-2971
▁ادائي	-2972
▁زير	-2973
▁آگسٽ	-2974
انڪ	-2975
▁بک	-2976
▁رض	-2977
▁عزت	-2978
▁مثل	-2979
▁ڪانه	-2980
▁اضافو	-2981
▁پهچائڻ	-2982
▁اتح	-2983
▁وڏن	-2984
▁ادبي	-2985
▁ــــــ	-2986
ra	-2987
▁تجو	-2988
▁نين	-2989
▁برطان	-2990
ct	-2991
▁لسٽ	-2992
▁Ne	-2993
▁وب	-2994
▁al	-2995
▁جنس	-2996
▁گزار	-2997
الن	-2998
▁فض	-2999
▁گلي	-3000
▁سدائين	-3001
ia	-3002
▁آرڊر	-3003
▁دشمن	-3004
▁قسمت	-3005
▁رهندا	-3006
▁سمجهڻ	-3007
▁ونڊوز	-3008
▁جيئ	-3009
▁خاط	-3010
▁ڀريل	-3011
▁حرف	-3012
▁ساٿ	-3013
▁اداري	-3014
▁پروفي	-3015
▁ڪيتريون	-3016
قول	-3017
▁60	-3018
راهي	-3019
▁چور	-3020
▁تحريڪ	-3021
▁رهندي	-3022
▁سڃاڻپ	-3023
ثير	-3024
▁ڪاليج	-3025
▁آسٽ	-3026
▁فصل	-3027
▁کڻڻ	-3028
▁سياحت	-3029
عل	-3030
ڊا	-3031
▁سِ	-3032
▁گهري	-3033
ونه	-3034
▁28	-3035
▁ويل	-3036
▁چڱو	-3037
▁ٻڌو	-3038
▁دڪان	-3039
▁سيني	-3040
▁رابطي	-3041
آمد	-3042
▁th	-3043
▁روڪ	-3044
▁عجب	-3045
▁صفحا	-3046
▁حيران	-3047
▁سعودي	-3048
▁5.	-3049
▁پٿر	-3050
▁ساٿي	-3051
▁نيست	-3052
جڪ	-3053
▁بغ	-3054
▁وسيع	-3055
▁برانڊ	-3056
▁الج	-3057
▁جيل	-3058
▁رواي	-3059
▁هوائي	-3060
).	-3061
▁پرڏي	-3062
ائيندڙ	-3063
▁صنع	-3064
ريم	-3065
▁سگھجي	-3066
▁موقعي	-3067
نى	-3068
گير	-3069
▁شب	-3070
▁نع	-3071
▁سوچڻ	-3072
▁انڪار	-3073
▁مسئلا	-3074
ry	-3075
▁ناڪام	-3076
st	-3077
▁ريل	-3078
▁پيٽ	-3079
▁پابندي	-3080
▁شيئر	-3081
▁ڪلاس	-3082
▁حمايت	-3083
▁موڪليو	-3084
حه	-3085
بئي	-3086
ليٽ	-3087
▁احتجاج	-3088
▁جبل	-3089
▁سموري	-3090
▁ڏانھن	-3091
▁ڊيزائن	-3092
▁هع	-3093
فيد	-3094
▁قيم	-3095
▁انصاف	-3096
▁نومبر	-3097
گا	-3098
يورٽي	-3099
▁مکيه	-3100
▁ويهي	-3101
▁امڪان	-3102
سمبر	-3103
▁ضاب	-3104
▁هست	-3105
▁هليو	-3106
▁سرگرمي	-3107
▁افغانستان	-3108
▁آهنگ	-3109
▁ميان	-3110
▁فائلون	-3111
▁ء	-3112
▁قال	-3113
ack	-3114
چار	-3115
▁ڪوئي	-3116
▁ٻڌل	-3117
ation	-3118
▁ماضي	-3119
▁گھڻو	-3120
▁مصنوعات	-3121
اڻڻ	-3122
▁27	-3123
▁حاد	-3124
▁قلب	-3125
▁پکي	-3126
▁مردن	-3127
▁رهيون	-3128
ver	-3129
▁دم	-3130
▁المو	-3131
▁ترڪي	-3132
ڻا	-3133
▁ندو	-3134
▁2021	-3135
ــــــ	-3136
▁جنوري	-3137
▁وح	-3138
▁گاڏي	-3139
ly	-3140
▁لنڊن	-3141
▁ڪائن	-3142
▁ادائيگي	-3143
▁غر	-3144
▁هئس	-3145
▁هٿن	-3146
▁@	-3147
▁رُ	-3148
▁هوء	-3149
▁اقول	-3150
▁زخمي	-3151
▁ناهن	-3152
▁آھ	-3153
صوصي	-3154
▁سنڏ	-3155
▁سوي	-3156
▁لڳا	-3157
▁راءِ	-3158
▁خصوصي	-3159
▁هيٺين	-3160
▁ـــــــــ	-3161
▁انك	-3162
▁درجي	-3163
▁ملائي	-3164
▁ملڪيت	-3165
ڙڪ	-3166
▁اٺ	-3167
▁آدم	-3168
▁شده	-3169
▁ٻيون	-3170
▁الزام	-3171
كك	-3172
▁كه	-3173
▁جاء	-3174
▁نفر	-3175
▁اقتص	-3176
▁گهو	-3177
فرنس	-3178
▁احمد	-3179
▁اپڊيٽ	-3180
▁عورتون	-3181
▁موٽ	-3182
▁	-3183
ي	-3184
ا	-3185
ه	-3186
ن	-3187
و	-3188
ر	-3189
م	-3190
ل	-3191
ت	-3192
س	-3193
ج	-3194
ڪ	-3195
د	-3196
ب	-3197
.	-3198
پ	-3199
آ	-3200
ئ	-3201
ک	-3202
ع	-3203
ڻ	-3204
ف	-3205
گ	-3206
ش	-3207
ق	-3208
،	-3209
ح	-3210
ٽ	-3211
ٿ	-3212
ڏ	-3213
ـ	-3214
ز	-3215
خ	-3216
۾	-3217
ء	-3218
چ	-3219
ص	-3220
۽	-3221
ھ	-3222
ط	-3223
ڊ	-3224
ڙ	-3225
ِ	-3226
ك	-3227
ڳ	-3228
ٻ	-3229
"	-3230
ڌ	-3231
:	-3232
َ	-3233
e	-3234
1	-3235
ض	-3236
ڇ	-3237
0	-3238
ڀ	-3239
a	-3240
ٺ	-3241
ظ	-3242
i	-3243
2	-3244
t	-3245
o	-3246
ذ	-3247
ُ	-3248
r	-3249
n	-3250
غ	-3251
s	-3252
؟	-3253
-	-3254
)	-3255
(	-3256
ث	-3257
ڃ	-3258
l	-3259
!	-3260
ڄ	-3261
3	-3262
5	-3263
d	-3264
c	-3265
9	-3266
u	-3267
4	-3268
,	-3269
ى	-3270
ة	-3271
m	-3272
8	-3273
6	-3274
h	-3275
7	-3276
p	-3277
ڍ	-3278
g	-3279
أ	-3280
S	-3281
y	-3282
ی	-3283
A	-3284
۔	-3285
'	-3286
b	-3287
>	-3288
/	-3289
k	-3290
C	-3291
<	-3292
w	-3293
M	-3294
T	-3295
ہ	-3296
f	-3297
_	-3298
P	-3299
D	-3300
I	-3301
v	-3302
؛	-3303
=	-3304
N	-3305
B	-3306
O	-3307
E	-3308
*	-3309
x	-3310
ڦ	-3311
L	-3312
ؤ	-3313
ڱ	-3314
G	-3315
R	-3316
ٰ	-3317
H	-3318
[	-3319
]	-3320
F	-3321
U	-3322
W	-3323
إ	-3324
ٌ	-3325
X	-3326
ً	-3327
V	-3328
z	-3329
ّ	-3330
K	-3331
^	-3332
٪	-3333
ے	-3334
•	-3335
$	-3336
ژ	-3337
ٍ	-3338
ٹ	-3339
j	-3340
?	-3341
+	-3342
#	-3343
~	-3344
۱	-3345
J	-3346
Y	-3347
ْ	-3348
ې	-3349
।	-3350
Q	-3351
ڷ	-3352
Z	-3353
😂	-3354
@	-3355
ۈ	-3356
۲	-3357
ڈ	-3358
%	-3359
ړ	-3360
q	-3361
۰	-3362
ں	-3363
&	-3364
{	-3365
}	-3366
٠	-3367
;	-3368
۳	-3369
א	-3370
·	-3371
١	-3372
۴	-3373
ګ	-3374
۵	-3375
ډ	-3376
٢	-3377
ځ	-3378
ږ	-3379
ټ	-3380
ڵ	-3381
ڑ	-3382
●	-3383
۹	-3384
ښ	-3385
्	-3386
°	-3387
️	-3388
۸	-3389
£	-3390
ा	-3391
♥	-3392
❤	-3393
र	-3394
څ	-3395
€	-3396
×	-3397
۶	-3398
۷	-3399
🙂	-3400
क	-3401
٣	-3402
←	-3403
ڼ	-3404
→	-3405
ٱ	-3406
٥	-3407
ۍ	-3408
ि	-3409
٤	-3410
ो	-3411
म	-3412
٦	-3413
►	-3414
ב	-3415
ڛ	-3416
′	-3417
é	-3418
न	-3419
٩	-3420
ڹ	-3421
स	-3422
ۡ	-3423
त	-3424
٨	-3425
य	-3426
ٖ	-3427
ּ	-3428
ٔ	-3429
ۅ	-3430
े	-3431
ल	-3432
♪	-3433
ۆ	-3434
♡	-3435
®	-3436
Ô	-3437
ٴ	-3438
ۑ	-3439
ღ	-3440
◄	-3441
٫	-3442
©	-3443
٧	-3444
प	-3445
ۉ	-3446
व	-3447
😉	-3448
§	-3449
а	-3450
🤣	-3451
ह	-3452
ۃ	-3453
☺	-3454
ڎ	-3455
ט	-3456
ڸ	-3457
ۊ	-3458
द	-3459
н	-3460
😁	-3461
è	-3462
ü	-3463
↑	-3464
♫	-3465
פ	-3466
›	-3467
😀	-3468
ु	-3469
â	-3470
î	-3471
ı	-3472
ڤ	-3473
≤	-3474
ڜ	-3475
о	-3476
ٗ	-3477
◆	-3478
и	-3479
ç	-3480
İ	-3481
ٓ	-3482
à	-3483
ग	-3484
ट	-3485
ۓ	-3486
💔	-3487
😍	-3488
★	-3489
ी	-3490
р	-3491
٬	-3492
ş	-3493
̈	-3494
ؑ	-3495
с	-3496
ڶ	-3497
ۀ	-3498
ێ	-3499
ब	-3500
е	-3501
ڣ	-3502
😭	-3503
כ	-3504
ݪ	-3505
ज	-3506
Ş	-3507
ٕ	-3508
उ	-3509
छ	-3510
ö	-3511
ࢪ	-3512
、	-3513
á	-3514
ڕ	-3515
श	-3516
॥	-3517
Ü	-3518
ω	-3519
м	-3520
т	-3521
ू	-3522
±	-3523
ै	-3524
😅	-3525
🙁	-3526
у	-3527
ۂ	-3528
ۧ	-3529
♦	-3530
ン	-3531
語	-3532
̷	-3533
ं	-3534
シ	-3535
д	-3536
ۄ	-3537
ۋ	-3538
√	-3539
л	-3540
ל	-3541
ٳ	-3542
ۿ	-3543
ड	-3544
ध	-3545
ド	-3546
؏	-3547
٘	-3548
‹	-3549
≥	-3550
😊	-3551
¤	-3552
ˇ	-3553
¢	-3554
ê	-3555
ؿ	-3556
ए	-3557
भ	-3558
ष	-3559
【	-3560
ツ	-3561
💞	-3562
¬	-3563
ë	-3564
α	-3565
к	-3566
٭	-3567
✿	-3568
】	-3569
﴾	-3570
﴿	-3571
👍	-3572
ā	-3573
ٚ	-3574
ە	-3575
ई	-3576
☆	-3577
¦	-3578
¿	-3579
ó	-3580
û	-3581
μ	-3582
ο	-3583
в	-3584
ٲ	-3585
ڝ	-3586
‐	-3587
⁄	-3588
з	-3589
ػ	-3590
ä	-3591
͜	-3592
β	-3593
ڒ	-3594
अ	-3595
च	-3596
⇄	-3597
─	-3598
🏻	-3599
ñ	-3600
х	-3601
ү	-3602
ա	-3603
ण	-3604
≈	-3605
■	-3606
😆	-3607
ž	-3608
ы	-3609
ؽ	-3610
ڠ	-3611
ࢦ	-3612
फ	-3613
。	-3614
菜	-3615
👌	-3616
Ø	-3617
÷	-3618
й	-3619
ֿ	-3620
ٛ	-3621
ڂ	-3622
आ	-3623
ख	-3624
⋆	-3625
🔥	-3626
😜	-3627
\	-3628
ğ	-3629
š	-3630
̨	-3631
б	-3632
г	-3633
ۇ	-3634
थ	-3635
ृ	-3636
🌹	-3637
¡	-3638
í	-3639
ô	-3640
̲	-3641
ᓄ	-3642
‡	-3643
▌	-3644
✅	-3645
✌	-3646
💘	-3647
Ç	-3648
̃	-3649
̧	-3650
ե	-3651
ݩ	-3652
ে	-3653
✔	-3654
❥	-3655
💙	-3656
😘	-3657
😛	-3658
̣	-3659
͡	-3660
ζ	-3661
ι	-3662
п	-3663
я	-3664
і	-3665
י	-3666
נ	-3667
↓	-3668
▐	-3669
◕	-3670
☀	-3671
✓	-3672
⭐	-3673
💕	-3674
🙈	-3675
Å	-3676
ï	-3677
č	-3678
œ	-3679
ξ	-3680
Ґ	-3681
ؐ	-3682
ڿ	-3683
ۦ	-3684
۩	-3685
۫	-3686
इ	-3687
ন	-3688
๑	-3689
♀	-3690
✋	-3691
✨	-3692
🌸	-3693
💗	-3694
😄	-3695
😇	-3696
🤔	-3697
Ö	-3698
Š	-3699
ː	-3700
ρ	-3701
ڨ	-3702
ँ	-3703
র	-3704
া	-3705
◊	-3706
♠	-3707
❣	-3708
音	-3709
😔	-3710
😝	-3711
😹	-3712
🙏	-3713
å	-3714
͠	-3715
Φ	-3716
Ω	-3717
ε	-3718
σ	-3719
ի	-3720
ն	-3721
ם	-3722
מ	-3723
ڭ	-3724
ۛ	-3725
ম	-3726
্	-3727
๋	-3728
※	-3729
♩	-3730
」	-3731
🌷	-3732
🖤	-3733
Ž	-3734
ɪ	-3735
ˈ	-3736
̤	-3737
η	-3738
ς	-3739
ч	-3740
ш	-3741
ո	-3742
ս	-3743
ր	-3744
ו	-3745
ע	-3746
ۗ	-3747
۞	-3748
ۤ	-3749
ۨ	-3750
ठ	-3751
ু	-3752
ஐ	-3753
ా	-3754
น	-3755
†	-3756
‿	-3757
▶	-3758
▷	-3759
▼	-3760
◇	-3761
☹	-3762
☻	-3763
♣	-3764
❀	-3765
❧	-3766
➡	-3767
⠀	-3768
「	-3769
・	-3770
🇩	-3771
🏃	-3772
💜	-3773
📷	-3774
😎	-3775
🥺	-3776
Á	-3777
ý	-3778
ć	-3779
ō	-3780
ɑ	-3781
̇	-3782
̶	-3783
ί	-3784
π	-3785
ҳ	-3786
ד	-3787
ؓ	-3788
ؼ	-3789
ٜ	-3790
ٞ	-3791
ٟ	-3792
ڞ	-3793
ܢ	-3794
ক	-3795
ত	-3796
দ	-3797
୭	-3798
า	-3799
ọ	-3800
⇣	-3801
⏪	-3802
▲	-3803
☝	-3804
♯	-3805
⚘	-3806
⚡	-3807
✯	-3808
🏼	-3809
😢	-3810
🤩	-3811
🥇	-3812
¶	-3813
ã	-3814
ð	-3815
ú	-3816
ē	-3817
ł	-3818
ż	-3819
ə	-3820
̅	-3821
̵	-3822
τ	-3823
ώ	-3824
ж	-3825
ц	-3826
э	-3827
մ	-3828
ւ	-3829
ן	-3830
ؒ	-3831
ٙ	-3832
ٝ	-3833
ڋ	-3834
ڔ	-3835
ۏ	-3836
ެ	-3837
झ	-3838
న	-3839
ಿ	-3840
്	-3841
ี	-3842
๛	-3843
າ	-3844
ᬼ	-3845
ị	-3846
⃣	-3847
−	-3848
⊙	-3849
╝	-3850
▪	-3851
◉	-3852
◎	-3853
◦	-3854
♍	-3855
✗	-3856
✘	-3857
✦	-3858
『	-3859
』	-3860
🇮	-3861
🇿	-3862
🌚	-3863
🌟	-3864
🍼	-3865
💖	-3866
💚	-3867
💪	-3868
💯	-3869
😱	-3870
😻	-3871
🦋	-3872
Ã	-3873
ø	-3874
ę	-3875
Ğ	-3876
Ħ	-3877
ʊ	-3878
̄	-3879
̐	-3880
θ	-3881
ν	-3882
φ	-3883
М	-3884
С	-3885
ь	-3886
є	-3887
հ	-3888
չ	-3889
ה	-3890
ז	-3891
ר	-3892
ٮ	-3893
ۜ	-3894
ۣ	-3895
۪	-3896
ौ	-3897
খ	-3898
য	-3899
়	-3900
ো	-3901
ਾ	-3902
ં	-3903
હ	-3904
ం	-3905
ම	-3906
ม	-3907
↯	-3908
∀	-3909
∫	-3910
╫	-3911
◀	-3912
♂	-3913
♬	-3914
✖	-3915
〇	-3916
よ	-3917
り	-3918
ミ	-3919
发	-3920
嘅	-3921
的	-3922
𐄒	-3923
🌿	-3924
🎼	-3925
🏾	-3926
👉	-3927
👊	-3928
👨	-3929
👩	-3930
💫	-3931
📚	-3932
🔞	-3933
🕘	-3934
😈	-3935
😋	-3936
😌	-3937
😒	-3938
😠	-3939
😦	-3940
😨	-3941
😪	-3942
😵	-3943
🙊	-3944
🤍	-3945
🤭	-3946
🧸	-3947
ò	-3948
Ă	-3949
ą	-3950
Đ	-3951
ě	-3952
ħ	-3953
Ł	-3954
ś	-3955
ƒ	-3956
ɛ	-3957
ˌ	-3958
̀	-3959
̊	-3960
̥	-3961
̯	-3962
γ	-3963
υ	-3964
ό	-3965
ϻ	-3966
Б	-3967
В	-3968
Т	-3969
Х	-3970
Я	-3971
Ҳ	-3972
Բ	-3973
տ	-3974
ח	-3975
ש	-3976
ڽ	-3977
ۙ	-3978
ۼ	-3979
ݛ	-3980
ݦ	-3981
ः	-3982
ব	-3983
ল	-3984
ি	-3985
ੀ	-3986
ੰ	-3987
ર	-3988
ે	-3989
ો	-3990
క	-3991
ల	-3992
వ	-3993
ి	-3994
ు	-3995
్	-3996
ನ	-3997
ന	-3998
න	-3999
ස	-4000
්	-4001
ก	-4002
ค	-4003
ฉ	-4004
ณ	-4005
ด	-4006
ั	-4007
ุ	-4008
ไ	-4009
໑	-4010
Ⴢ	-4011
ე	-4012
ი	-4013
ለ	-4014
ው	-4015
ᓅ	-4016
ᭁ	-4017
Ṁ	-4018
ṇ	-4019
ṣ	-4020
ṭ	-4021
ẹ	-4022
₥	-4023
₪	-4024
↔	-4025
≧	-4026
⌘	-4027
╚	-4028
○	-4029
☂	-4030
☑	-4031
☜	-4032
☼	-4033
♚	-4034
♛	-4035
⚫	-4036
✍	-4037
❌	-4038
❗	-4039
❦	-4040
➢	-4041
〗	-4042
う	-4043
の	-4044
を	-4045
ノ	-4046
ュ	-4047
可	-4048
發	-4049
﮼	-4050
︎	-4051
🌤	-4052
🌻	-4053
🍀	-4054
🎀	-4055
🏿	-4056
🐸	-4057
👀	-4058
👈	-4059
👤	-4060
💋	-4061
💐	-4062
💛	-4063
💻	-4064
🔸	-4065
😐	-4066
😽	-4067
🤨	-4068
🦦	-4069
|	-4070
¥	-4071
À	-4072
É	-4073
Ù	-4074
Ú	-4075
ì	-4076
õ	-4077
Ā	-4078
ă	-4079
Ė	-4080
Į	-4081
ť	-4082
ů	-4083
Ǝ	-4084
ƛ	-4085
ơ	-4086
Ʀ	-4087
ʀ	-4088
ʒ	-4089
ʻ	-4090
̉	-4091
̍	-4092
̳	-4093
Α	-4094
Ξ	-4095
Υ	-4096
έ	-4097
δ	-4098
λ	-4099
Ϟ	-4100
Д	-4101
О	-4102
П	-4103
Р	-4104
У	-4105
Ч	-4106
ъ	-4107
ю	-4108
҉	-4109
ґ	-4110
ө	-4111
Ի	-4112
Կ	-4113
է	-4114
ը	-4115
լ	-4116
խ	-4117
կ	-4118
պ	-4119
ռ	-4120
ց	-4121
ֆ	-4122
ך	-4123
؋	-4124
؍	-4125
ؾ	-4126
ڲ	-4127
ۘ	-4128
۬	-4129
ܓ	-4130
ݖ	-4131
ݢ	-4132
ݥ	-4133
ݨ	-4134
ࡗ	-4135
ञ	-4136
ढ	-4137
ॡ	-4138
আ	-4139
ঔ	-4140
ট	-4141
ড	-4142
স	-4143
ਂ	-4144
ਧ	-4145
ਬ	-4146
ਰ	-4147
ਸ	-4148
ਿ	-4149
ક	-4150
ચ	-4151
ટ	-4152
ા	-4153
િ	-4154
ી	-4155
ஓ	-4156
ఉ	-4157
ద	-4158
య	-4159
స	-4160
ీ	-4161
ಈ	-4162
ಲ	-4163
ೋ	-4164
್	-4165
ങ	-4166
ി	-4167
ි	-4168
ถ	-4169
ท	-4170
ย	-4171
ส	-4172
ๅ	-4173
่	-4174
้	-4175
້	-4176
ཻ	-4177
࿑	-4178
დ	-4179
რ	-4180
ს	-4181
ᄑ	-4182
ᄒ	-4183
ᅲ	-4184
ሂ	-4185
ህ	-4186
ል	-4187
ስ	-4188
ቅ	-4189
ን	-4190
እ	-4191
ይ	-4192
ድ	-4193
ᓆ	-4194
ᓘ	-4195
ន	-4196
ᴗ	-4197
Ṃ	-4198
Ẹ	-4199
Ọ	-4200
ố	-4201
ở	-4202
ỳ	-4203
‛	-4204
‟	-4205
₩	-4206
₽	-4207
⃫	-4208
↩	-4209
↴	-4210
⇠	-4211
⇡	-4212
⇦	-4213
∞	-4214
≠	-4215
≦	-4216
╦	-4217
╬	-4218
▽	-4219
◈	-4220
◍	-4221
◣	-4222
◩	-4223
◪	-4224
☘	-4225
♉	-4226
♌	-4227
♢	-4228
♤	-4229
⚽	-4230
✈	-4231
✧	-4232
✫	-4233
✮	-4234
✴	-4235
✷	-4236
❓	-4237
❕	-4238
❖	-4239
❝	-4240
❞	-4241
❢	-4242
⭕	-4243
〖	-4244
い	-4245
じ	-4246
ほ	-4247
コ	-4248
タ	-4249
ト	-4250
パ	-4251
ピ	-4252
ー	-4253
ㄨ	-4254
上	-4255
以	-4256
你	-4257
我	-4258
発	-4259
真	-4260
者	-4261
ꓘ	-4262
나	-4263
법	-4264
직	-4265
𓂅	-4266
𖣴	-4267
🇨	-4268
🇬	-4269
🇶	-4270
🇸	-4271
🇺	-4272
🌆	-4273
🌈	-4274
🌼	-4275
🎈	-4276
🎧	-4277
🎵	-4278
🎻	-4279
🐒	-4280
🐠	-4281
🐢	-4282
👆	-4283
👇	-4284
👎	-4285
👑	-4286
💅	-4287
💍	-4288
💓	-4289
💝	-4290
💠	-4291
💡	-4292
💮	-4293
💰	-4294
🔒	-4295
🔕	-4296
🔫	-4297
🔱	-4298
🔴	-4299
🔶	-4300
🔹	-4301
🔺	-4302
🖕	-4303
😃	-4304
😏	-4305
😕	-4306
😤	-4307
😬	-4308
😮	-4309
😯	-4310
😳	-4311
😿	-4312
🙄	-4313
🚶	-4314
🛫	-4315
🤎	-4316
🤐	-4317
🤓	-4318
🤤	-4319
🤧	-4320
🤪	-4321
🥀	-4322
🥰	-4323
🦼	-4324
🧐	-4325
Â	-4326
È	-4327
Ð	-4328
Ó	-4329
Û	-4330
ß	-4331
æ	-4332
ù	-4333
þ	-4334
Ą	-4335
ĉ	-4336
Č	-4337
Ď	-4338
đ	-4339
ė	-4340
Ę	-4341
Ģ	-4342
Ĥ	-4343
ī	-4344
į	-4345
ĵ	-4346
ĸ	-4347
ĺ	-4348
ļ	-4349
Ň	-4350
ŋ	-4351
Ō	-4352
ŏ	-4353
Ř	-4354
ř	-4355
Ŝ	-4356
ŝ	-4357
Ť	-4358
ŧ	-4359
ŭ	-4360
ű	-4361
ź	-4362
Ż	-4363
Ɓ	-4364
Ɠ	-4365
Ɣ	-4366
Ɲ	-4367
Ƴ	-4368
ƽ	-4369
ǟ	-4370
ǰ	-4371
Ǿ	-4372
ȅ	-4373
Ȋ	-4374
ș	-4375
ț	-4376
ɕ	-4377
ɞ	-4378
ɣ	-4379
ɨ	-4380
ɴ	-4381
ʃ	-4382
ʔ	-4383
ʚ	-4384
ʞ	-4385
ˆ	-4386
˹	-4387
˼	-4388
́	-4389
̋	-4390
̌	-4391
̖	-4392
̗	-4393
̝	-4394
̠	-4395
̩	-4396
̬	-4397
̮	-4398
̸	-4399
͛	-4400
ͦ	-4401
Ά	-4402
Έ	-4403
ΐ	-4404
Η	-4405
Θ	-4406
Ι	-4407
Μ	-4408
Ρ	-4409
Σ	-4410
Ψ	-4411
Ϋ	-4412
ά	-4413
ή	-4414
κ	-4415
χ	-4416
Ј	-4417
Ћ	-4418
А	-4419
Г	-4420
Й	-4421
К	-4422
ј	-4423
ћ	-4424
Ѣ	-4425
Ѧ	-4426
Ҏ	-4427
қ	-4428
Ҩ	-4429
Ұ	-4430
ҷ	-4431
ҽ	-4432
Ӎ	-4433
Պ	-4434
բ	-4435
ձ	-4436
ղ	-4437
յ	-4438
վ	-4439
փ	-4440
ք	-4441
ִ	-4442
ג	-4443
ס	-4444
צ	-4445
ת	-4446
؎	-4447
ٯ	-4448
ڐ	-4449
ڗ	-4450
ڟ	-4451
ڰ	-4452
ۚ	-4453
ۢ	-4454
ۥ	-4455
ۺ	-4456
܀	-4457
ܒ	-4458
ܨ	-4459
ܪ	-4460
ܵ	-4461
ݐ	-4462
ݒ	-4463
ݘ	-4464
ݧ	-4465
ހ	-4466
ވ	-4467
ߙ	-4468
࣪	-4469
ओ	-4470
घ	-4471
ङ	-4472
़	-4473
ॉ	-4474
॒	-4475
०	-4476
१	-4477
८	-4478
অ	-4479
ই	-4480
উ	-4481
এ	-4482
ঘ	-4483
ছ	-4484
জ	-4485
ধ	-4486
ভ	-4487
শ	-4488
ৌ	-4489
ਇ	-4490
ਈ	-4491
ਕ	-4492
ਜ	-4493
ਥ	-4494
ਪ	-4495
ਮ	-4496
ਲ	-4497
ਹ	-4498
ੇ	-4499
ੈ	-4500
ੋ	-4501
ੱ	-4502
ખ	-4503
છ	-4504
ડ	-4505
થ	-4506
ધ	-4507
પ	-4508
સ	-4509
ુ	-4510
୪	-4511
ற	-4512
ఇ	-4513
ఎ	-4514
చ	-4515
డ	-4516
ధ	-4517
ప	-4518
హ	-4519
ే	-4520
ో	-4521
ಂ	-4522
ಕ	-4523
ಡ	-4524
ಧ	-4525
ಸ	-4526
ഉ	-4527
ത	-4528
ധ	-4529
പ	-4530
ള	-4531
സ	-4532
ආ	-4533
උ	-4534
ක	-4535
ය	-4536
ල	-4537
ව	-4538
ශ	-4539
ෑ	-4540
ෙ	-4541
บ	-4542
ป	-4543
พ	-4544
ล	-4545
ห	-4546
อ	-4547
ฮ	-4548
ะ	-4549
ิ	-4550
เ	-4551
ກ	-4552
ຂ	-4553
ຈ	-4554
ຖ	-4555
ທ	-4556
ນ	-4557
ພ	-4558
ມ	-4559
ຢ	-4560
ະ	-4561
ົ	-4562
ເ	-4563
່	-4564
༄	-4565
༅	-4566
༺	-4567
࿅	-4568
ა	-4569
თ	-4570
კ	-4571
მ	-4572
ნ	-4573
უ	-4574
ქ	-4575
ላ	-4576
ም	-4577
ሩ	-4578
ር	-4579
ሳ	-4580
በ	-4581
ቦ	-4582
ታ	-4583
ት	-4584
ነ	-4585
ኔ	-4586
ኝ	-4587
አ	-4588
ወ	-4589
ዎ	-4590
ዘ	-4591
ዴ	-4592
ጋ	-4593
ጎ	-4594
ጠ	-4595
ጣ	-4596
ጥ	-4597
ፈ	-4598
ፍ	-4599
ᑐ	-4600
ញ	-4601
ព	-4602
ភ	-4603
េ	-4604
ំ	-4605
្	-4606
᪣	-4607
᭄	-4608
ᴀ	-4609
ᴋ	-4610
᷂	-4611
ḑ	-4612
ḭ	-4613
Ḿ	-4614
ḿ	-4615
Ṉ	-4616
ṛ	-4617
Ṝ	-4618
Ṧ	-4619
ṩ	-4620
Ṽ	-4621
Ạ	-4622
Ể	-4623
ệ	-4624
Ụ	-4625
ụ	-4626
ỹ	-4627
Ἄ	-4628
⁀	-4629
₦	-4630
₳	-4631
₹	-4632
₼	-4633
⃕	-4634
⃟	-4635
⃢	-4636
℘	-4637
↙	-4638
↜	-4639
↝	-4640
↣	-4641
↤	-4642
↫	-4643
↲	-4644
↷	-4645
⇐	-4646
⇜	-4647
⇢	-4648
∂	-4649
∇	-4650
∟	-4651
∴	-4652
≯	-4653
⏆	-4654
⏩	-4655
┇	-4656
═	-4657
▂	-4658
▃	-4659
□	-4660
▫	-4661
◝	-4662
◤	-4663
◥	-4664
◾	-4665
☁	-4666
☃	-4667
☄	-4668
☔	-4669
☚	-4670
☛	-4671
☠	-4672
☽	-4673
☿	-4674
♃	-4675
♄	-4676
♈	-4677
♊	-4678
♋	-4679
♎	-4680
♏	-4681
♒	-4682
♓	-4683
♭	-4684
⚒	-4685
⚠	-4686
⛳	-4687
⛺	-4688
✇	-4689
✜	-4690
✞	-4691
✭	-4692
✳	-4693
❒	-4694
❔	-4695
❶	-4696
➓	-4697
➘	-4698
➟	-4699
➥	-4700
➬	-4701
⦿	-4702
⬅	-4703
⬆	-4704
⬸	-4705
⸁	-4706
⸙	-4707
〈	-4708
〉	-4709
》	-4710
あ	-4711
え	-4712
お	-4713
か	-4714
が	-4715
く	-4716
さ	-4717
な	-4718
へ	-4719
ょ	-4720
わ	-4721
ん	-4722
イ	-4723
エ	-4724
ク	-4725
サ	-4726
ス	-4727
チ	-4728
ッ	-4729
バ	-4730
マ	-4731
ム	-4732
ヮ	-4733
一	-4734
之	-4735
了	-4736
云	-4737
传	-4738
位	-4739
何	-4740
刀	-4741
力	-4742
午	-4743
南	-4744
厩	-4745
古	-4746
吗	-4747
国	-4748
场	-4749
報	-4750
多	-4751
夢	-4752
如	-4753
子	-4754
学	-4755
它	-4756
少	-4757
屋	-4758
年	-4759
庆	-4760
彙	-4761
彩	-4762
很	-4763
情	-4764
惠	-4765
感	-4766
打	-4767
教	-4768
料	-4769
斯	-4770
於	-4771
月	-4772
机	-4773
機	-4774
泊	-4775
波	-4776
爱	-4777
瑞	-4778
用	-4779
电	-4780
着	-4781
示	-4782
科	-4783
端	-4784
篇	-4785
終	-4786
纳	-4787
职	-4788
背	-4789
节	-4790
花	-4791
葬	-4792
藍	-4793
蝶	-4794
要	-4795
詞	-4796
謝	-4797
话	-4798
语	-4799
谷	-4800
超	-4801
辛	-4802
迪	-4803
邏	-4804
钱	-4805
际	-4806
隨	-4807
雨	-4808
顯	-4809
鲁	-4810
ꓤ	-4811
ꔫ	-4812
ꖾ	-4813
ꟽ	-4814
ꦿ	-4815
ꪆ	-4816
ꪝ	-4817
ꫀ	-4818
ꫛ	-4819
각	-4820
금	-4821
길	-4822
는	-4823
다	-4824
대	-4825
래	-4826
리	-4827
마	-4828
만	-4829
문	-4830
방	-4831
서	-4832
손	-4833
솔	-4834
송	-4835
시	-4836
양	-4837
얼	-4838
에	-4839
연	-4840
요	-4841
우	-4842
정	-4843
져	-4844
조	-4845
좋	-4846
지	-4847
평	-4848
하	-4849
할	-4850
해	-4851
형	-4852
화	-4853
효	-4854
희	-4855
﮶	-4856
𐎚	-4857
𐭣	-4858
𐭦	-4859
𐭪	-4860
𐭬	-4861
𓆩	-4862
𓆪	-4863
𖣂	-4864
𖤈	-4865
𖤍	-4866
🅚	-4867
🅛	-4868
🅜	-4869
🅦	-4870
🇦	-4871
🇧	-4872
🇱	-4873
🇲	-4874
🇵	-4875
🇷	-4876
🇹	-4877
🌍	-4878
🌎	-4879
🌓	-4880
🌔	-4881
🌙	-4882
🌛	-4883
🌜	-4884
🌝	-4885
🌞	-4886
🌧	-4887
🌱	-4888
🌵	-4889
🌺	-4890
🍂	-4891
🍃	-4892
🍇	-4893
🍉	-4894
🍕	-4895
🍩	-4896
🍰	-4897
🍷	-4898
🍻	-4899
🍾	-4900
🍿	-4901
🎁	-4902
🎃	-4903
🎅	-4904
🎞	-4905
🎥	-4906
🎨	-4907
🎯	-4908
🎶	-4909
🏆	-4910
🏊	-4911
🏖	-4912
🏣	-4913
🏭	-4914
🏳	-4915
🏹	-4916
🏽	-4917
🐍	-4918
🐕	-4919
🐾	-4920
👃	-4921
👅	-4922
👋	-4923
👕	-4924
👠	-4925
👢	-4926
👧	-4927
👭	-4928
👰	-4929
👲	-4930
👳	-4931
👾	-4932
💀	-4933
💃	-4934
💇	-4935
💈	-4936
💒	-4937
💣	-4938
💦	-4939
💷	-4940
📄	-4941
📑	-4942
📛	-4943
📥	-4944
📩	-4945
📮	-4946
📲	-4947
📸	-4948
📿	-4949
🔆	-4950
🔈	-4951
🔐	-4952
🔗	-4953
🕊	-4954
🕌	-4955
🖼	-4956
🗯	-4957
🗿	-4958
😑	-4959
😧	-4960
😩	-4961
😲	-4962
😷	-4963
🙃	-4964
🙅	-4965
🙆	-4966
🙇	-4967
🙋	-4968
🙌	-4969
🚌	-4970
🚓	-4971
🚣	-4972
🚨	-4973
🚫	-4974
🚭	-4975
🚵	-4976
🚷	-4977
🛌	-4978
🛐	-4979
🛒	-4980
🛰	-4981
🟥	-4982
🤒	-4983
🤕	-4984
🤚	-4985
🤟	-4986
🤠	-4987
🤲	-4988
🤸	-4989
🤹	-4990
🦯	-4991
🦽	-4992
🧑	-4993
🧖	-4994
🧚	-4995
🧝	-4996
