<unk>	0
<s>	0
</s>	0
▁ا	-0
هه	-1
▁ج	-2
▁م	-3
▁و	-4
▁ي	-5
▁ڪ	-6
▁ه	-7
▁ت	-8
▁س	-9
▁ن	-10
ان	-11
▁.	-12
▁آ	-13
▁جي	-14
▁پ	-15
هي	-16
▁ب	-17
ري	-18
▁هه	-19
▁ک	-20
▁ر	-21
هن	-22
▁ل	-23
▁،	-24
ين	-25
▁آهي	-26
ون	-27
▁هههه	-28
▁ٿ	-29
▁۾	-30
ار	-31
▁ان	-32
ئي	-33
▁کي	-34
يو	-35
▁۽	-36
▁د	-37
▁ع	-38
ال	-39
▁ش	-40
▁گ	-41
▁جو	-42
▁خ	-43
▁ف	-44
▁ح	-45
ور	-46
ند	-47
▁ته	-48
▁لا	-49
▁چ	-50
ــ	-51
▁اس	-52
▁ڏ	-53
نهن	-54
▁تي	-55
ائ	-56
▁ههه	-57
ام	-58
▁ق	-59
▁اه	-60
▁ڪري	-61
لي	-62
▁هڪ	-63
▁"	-64
▁ٻ	-65
ءِ	-66
يا	-67
▁ط	-68
▁ص	-69
▁کان	-70
▁ال	-71
▁ڪر	-72
▁سان	-73
▁نه	-74
▁هن	-75
▁ٿي	-76
▁اي	-77
▁:	-78
اڻ	-79
▁به	-80
▁يا	-81
▁هو	-82
▁تو	-83
دي	-84
▁ون	-85
▁1	-86
تي	-87
▁ز	-88
نهنج	-89
▁ٽ	-90
اب	-91
ير	-92
▁آهن	-93
دا	-94
▁ڇ	-95
▁وا	-96
▁ڪرڻ	-97
▁ٿو	-98
▁اسان	-99
▁ك	-100
▁ڊ	-101
▁ههههه	-102
▁اهو	-103
هان	-104
▁لاءِ	-105
رو	-106
▁2	-107
ءَ	-108
هر	-109
يڪ	-110
لا	-111
▁0	-112
▁ڪي	-113
▁ئي	-114
ني	-115
▁هي	-116
دو	-117
▁جا	-118
▁مو	-119
▁ري	-120
▁پر	-121
▁(	-122
▁سگ	-123
ول	-124
▁ين	-125
جي	-126
▁توهان	-127
▁پي	-128
ست	-129
▁-	-130
▁مان	-131
ڪي	-132
▁ڪيو	-133
▁مون	-134
▁؟	-135
▁ما	-136
▁ھ	-137
▁پنهنج	-138
▁ــ	-139
▁رو	-140
ڏهن	-141
▁وي	-142
▁نا	-143
▁پو	-144
▁ڳ	-145
را	-146
▁من	-147
مي	-148
▁)	-149
▁را	-150
▁ڪند	-151
▁ٿا	-152
سي	-153
▁ڀ	-154
▁ڪو	-155
قت	-156
▁مي	-157
▁ور	-158
قي	-159
▁وڌ	-160
ئن	-161
▁ڪم	-162
▁سو	-163
▁بي	-164
▁ض	-165
▁يو	-166
▁s	-167
▁ها	-168
▁او	-169
لو	-170
▁غ	-171
▁ڻ	-172
ھن	-173
ڪو	-174
▁ـ	-175
▁لاء	-176
رف	-177
▁رهي	-178
▁ويو	-179
▁ذ	-180
▁ات	-181
ھي	-182
▁انهن	-183
ڙي	-184
▁طور	-185
▁ار	-186
▁ءَ	-187
▁است	-188
▁!	-189
▁ڪا	-190
▁يڪ	-191
▁خو	-192
▁سڀ	-193
اد	-194
▁مع	-195
▁وڃ	-196
شن	-197
ورت	-198
▁3	-199
▁گه	-200
▁لي	-201
هو	-202
▁ائ	-203
ائين	-204
اص	-205
ها	-206
بر	-207
▁مال	-208
▁ئ	-209
رين	-210
له	-211
▁ڇا	-212
ٽر	-213
ائي	-214
▁9	-215
▁ڏين	-216
▁هر	-217
▁شا	-218
▁سم	-219
▁سي	-220
اري	-221
▁وين	-222
ڏي	-223
▁مح	-224
ٽي	-225
▁ني	-226
مل	-227
▁جن	-228
▁ماڻ	-229
▁در	-230
▁في	-231
▁وقت	-232
ـــ	-233
▁وڌيڪ	-234
▁مل	-235
گر	-236
▁تع	-237
بي	-238
▁5	-239
در	-240
کي	-241
▁ڪج	-242
▁منهنج	-243
▁بر	-244
▁هون	-245
▁i	-246
▁وار	-247
▁گهر	-248
مت	-249
جو	-250
از	-251
▁سال	-252
اني	-253
▁e	-254
اڻي	-255
▁4	-256
▁ڪار	-257
ڪا	-258
▁ام	-259
▁اهي	-260
▁نگ	-261
▁,	-262
▁اين	-263
▁اڳ	-264
▁تر	-265
▁ڏي	-266
▁سند	-267
▁آھي	-268
▁استع	-269
▁سن	-270
▁t	-271
▁جنهن	-272
▁نو	-273
▁ـــــ	-274
▁ڪئي	-275
▁ٺ	-276
▁شي	-277
▁ِ	-278
▁مر	-279
چي	-280
▁سا	-281
سم	-282
▁نظ	-283
ڻي	-284
▁هئي	-285
▁ڳال	-286
گي	-287
▁تائين	-288
▁جيڪو	-289
▁واري	-290
▁پا	-291
▁ٽي	-292
▁ڪنهن	-293
▁پوءِ	-294
▁مش	-295
▁ڌ	-296
▁مس	-297
صو	-298
سٽ	-299
▁ائي	-300
▁8	-301
▁ڊي	-302
▁c	-303
▁ڪريو	-304
▁ڪجهه	-305
▁عل	-306
▁اها	-307
▁6	-308
ڙو	-309
▁با	-310
▁a	-311
خت	-312
▁چيو	-313
▁ڪن	-314
▁ٿين	-315
فت	-316
▁جڏهن	-317
▁7	-318
▁سگهي	-319
▁ڏينهن	-320
نيا	-321
▁بس	-322
▁دو	-323
▁يل	-324
▁گڏ	-325
▁وڃي	-326
▁جيڪي	-327
نگ	-328
اصل	-329
في	-330
نا	-331
▁ُ	-332
▁رک	-333
يت	-334
ڪر	-335
▁ڄ	-336
عي	-337
▁n	-338
▁از	-339
▁تم	-340
▁َ	-341
▁سر	-342
▁يت	-343
▁حاصل	-344
ئين	-345
لام	-346
▁لڳ	-347
▁ضر	-348
اهي	-349
▁ست	-350
▁اع	-351
▁يند	-352
جود	-353
بو	-354
▁سندس	-355
▁وٽ	-356
ئر	-357
▁لو	-358
▁يڪڏهن	-359
▁ڪيت	-360
▁يم	-361
▁ٻڌ	-362
يد	-363
ثر	-364
▁علي	-365
▁هم	-366
▁مق	-367
▁پاڻ	-368
▁هئ	-369
الي	-370
▁شرو	-371
▁الله	-372
ما	-373
▁شروع	-374
▁تمام	-375
▁وٺ	-376
ڪل	-377
اه	-378
▁اص	-379
ڪن	-380
▁تح	-381
▁باب	-382
اا	-383
ٿي	-384
سان	-385
▁ڏس	-386
▁ناهي	-387
▁أ	-388
▁په	-389
▁فر	-390
▁گھ	-391
▁'	-392
ات	-393
▁ة	-394
▁يون	-395
▁دنيا	-396
▁ڇو	-397
▁l	-398
فر	-399
▁دا	-400
رح	-401
▁مط	-402
▁زند	-403
▁دل	-404
▁d	-405
▁صح	-406
▁ٿيو	-407
▁رهيو	-408
ءُ	-409
▁o	-410
▁تون	-411
▁عم	-412
▁عام	-413
▁مري	-414
دار	-415
لم	-416
▁چي	-417
▁/	-418
▁ڇڏ	-419
▁ماڻهو	-420
▁جون	-421
▁تب	-422
▁وئي	-423
بل	-424
ئون	-425
▁نن	-426
▁پن	-427
▁مخت	-428
▁۔	-429
▁وز	-430
▁پڻ	-431
▁m	-432
▁نظر	-433
▁نم	-434
▁وڏي	-435
ڻو	-436
▁زم	-437
▁ضرورت	-438
تو	-439
▁شام	-440
▁دور	-441
▁يع	-442
اهر	-443
▁انهي	-444
▁ڏان	-445
نو	-446
هم	-447
▁ويندو	-448
▁r	-449
ھان	-450
▁>	-451
▁مت	-452
▁قو	-453
▁سب	-454
▁عمل	-455
▁مد	-456
▁اُ	-457
▁صرف	-458
▁اچي	-459
▁خاص	-460
▁ويا	-461
▁ڪندا	-462
▁وڏ	-463
▁پيش	-464
▁زندگي	-465
▁ڙ	-466
▁ظ	-467
▁ٿيڻ	-468
▁ڪڏهن	-469
لف	-470
▁چون	-471
عد	-472
▁طرف	-473
▁نس	-474
▁ٻي	-475
▁طري	-476
▁ڪت	-477
▁ث	-478
▁وال	-479
▁S	-480
▁نق	-481
اح	-482
▁چو	-483
▁هئا	-484
▁ڪيئن	-485
▁بل	-486
▁A	-487
▁اڻ	-488
▁سمج	-489
▁p	-490
بت	-491
▁سين	-492
▁<	-493
▁خت	-494
▁ڪندو	-495
▁اح	-496
▁ند	-497
▁لک	-498
▁پار	-499
▁بابت	-500
لب	-501
▁سڀني	-502
▁جيئن	-503
▁ماڻهن	-504
با	-505
ڪار	-506
ٺو	-507
▁غير	-508
▁رس	-509
▁ڏانهن	-510
عو	-511
▁طرح	-512
▁ڪه	-513
▁بند	-514
▁خي	-515
▁قسم	-516
▁شامل	-517
▁گهٽ	-518
▁آخ	-519
▁قي	-520
زي	-521
▁صورت	-522
▁سنڌ	-523
▁ٻئي	-524
▁دار	-525
▁وري	-526
▁ندا	-527
▁_	-528
▁جه	-529
▁ايم	-530
▁مختلف	-531
▁آر	-532
▁يعني	-533
▁ٽر	-534
اف	-535
▁اد	-536
▁ول	-537
▁ٻار	-538
▁ياد	-539
▁اڄ	-540
▁شو	-541
سو	-542
▁وارو	-543
▁گر	-544
فا	-545
▁هت	-546
▁آهيان	-547
▁وان	-548
ائڻ	-549
▁مڪ	-550
▁مث	-551
▁رهيا	-552
صي	-553
▁تنهن	-554
▁نال	-555
▁واق	-556
▁خبر	-557
▁ڳالهه	-558
▁اسٽ	-559
▁حقي	-560
▁هوندي	-561
▁نت	-562
▁اندر	-563
▁ڪندي	-564
▁اب	-565
ڪس	-566
▁ڏيڻ	-567
تر	-568
▁تن	-569
ھو	-570
▁بڻ	-571
▁پيو	-572
▁حال	-573
▁فو	-574
▁گهرجي	-575
اس	-576
▁وچ	-577
▁هل	-578
▁اڪ	-579
▁بين	-580
لس	-581
▁بعد	-582
▁ڪتاب	-583
▁پس	-584
▁هيٺ	-585
▁ايس	-586
▁هوندو	-587
▁اپ	-588
▁آئون	-589
▁ڪندڙ	-590
▁چاهي	-591
▁واپ	-592
▁تاري	-593
▁يس	-594
▁ٻن	-595
▁آهيون	-596
▁جيڪا	-597
▁پڙ	-598
▁سبب	-599
▁مدد	-600
▁ذري	-601
▁in	-602
▁هري	-603
▁سيا	-604
هند	-605
▁ٻين	-606
▁C	-607
▁تاريخ	-608
▁ادا	-609
ھنج	-610
▁تج	-611
▁خر	-612
▁كم	-613
زا	-614
▁مڪمل	-615
▁موجود	-616
▁عورت	-617
▁=	-618
▁ڳو	-619
▁ھڪ	-620
▁اچ	-621
▁خوش	-622
▁کيس	-623
▁پاڪ	-624
▁شهر	-625
▁اج	-626
▁ٿيل	-627
▁بو	-628
▁ير	-629
▁اتي	-630
وا	-631
▁حس	-632
▁نئين	-633
▁نالو	-634
▁ڪمپ	-635
▁گذ	-636
▁انا	-637
▁خلا	-638
▁مم	-639
▁يه	-640
▁b	-641
▁اهم	-642
فظ	-643
▁ملڪ	-644
▁گهڻو	-645
ديل	-646
نڊ	-647
▁جواب	-648
مد	-649
نس	-650
▁سگه	-651
▁اخ	-652
▁يق	-653
▁هتي	-654
ٽا	-655
▁پور	-656
▁هاڻي	-657
▁ڪمپني	-658
▁پهرين	-659
▁تبديل	-660
▁تق	-661
▁؛	-662
▁ختم	-663
ذا	-664
هڻ	-665
▁قاب	-666
▁دوست	-667
▁M	-668
▁ڪل	-669
▁گي	-670
▁حق	-671
▁يور	-672
▁آن	-673
▁P	-674
▁er	-675
▁f	-676
ندي	-677
▁رد	-678
▁شر	-679
▁ائيٽ	-680
▁تنهنج	-681
طي	-682
▁اڃ	-683
ايو	-684
▁آھن	-685
▁دي	-686
▁سگهو	-687
▁ٿيندو	-688
on	-689
رن	-690
▁خيال	-691
▁شايد	-692
ڳو	-693
شت	-694
▁مسئ	-695
جب	-696
▁سالن	-697
شش	-698
▁u	-699
يان	-700
▁سلام	-701
▁ڇڏيو	-702
▁نٽ	-703
▁فار	-704
▁پيدا	-705
▁ڏا	-706
ar	-707
▁ائين	-708
صر	-709
است	-710
▁عر	-711
▁ڦ	-712
▁ڪون	-713
▁فون	-714
▁چين	-715
▁نيا	-716
▁ڏئي	-717
▁وڏو	-718
▁ٿئي	-719
ڪري	-720
اج	-721
امي	-722
▁ولا	-723
▁فائ	-724
▁ڇڏي	-725
▁T	-726
حد	-727
▁هٿ	-728
▁ی	-729
▁انت	-730
لاح	-731
▁بد	-732
▁ويب	-733
▁اهڙي	-734
دم	-735
شه	-736
▁قر	-737
▁نٿ	-738
▁سوا	-739
▁عليه	-740
▁وو	-741
▁چونڊ	-742
▁قان	-743
▁ڏنو	-744
ضو	-745
دڙ	-746
زار	-747
▁هترين	-748
▁ااا	-749
يم	-750
▁ڪوشش	-751
▁قانون	-752
▁پوء	-753
▁مض	-754
يح	-755
▁*	-756
▁سيڪ	-757
ارت	-758
▁مطلب	-759
▁آيو	-760
ليم	-761
▁قيمت	-762
▁ويندي	-763
▁پري	-764
▁g	-765
▁هجي	-766
▁طريق	-767
▁ايپ	-768
▁اف	-769
روري	-770
▁خدا	-771
▁رات	-772
▁وٺي	-773
▁ٻه	-774
▁اوهان	-775
er	-776
▁ٻيو	-777
▁معي	-778
▁گھر	-779
▁سوال	-780
▁10	-781
▁نش	-782
▁ران	-783
▁پئي	-784
▁مين	-785
لوم	-786
▁امي	-787
▁اري	-788
▁مهي	-789
▁ء	-790
▁st	-791
▁حل	-792
▁آئي	-793
اڪ	-794
▁وانگر	-795
يل	-796
▁آهيو	-797
▁ٽيڪ	-798
▁ملي	-799
▁پڇ	-800
هور	-801
▁انسان	-802
خل	-803
▁ذريعي	-804
▁غل	-805
▁اصل	-806
حك	-807
▁خط	-808
▁B	-809
▁شك	-810
▁وس	-811
▁رج	-812
▁پاڪست	-813
▁نج	-814
▁صحيح	-815
سوس	-816
▁ترقي	-817
▁معلوم	-818
▁يقين	-819
▁يڊ	-820
▁فق	-821
▁ڪيا	-822
وب	-823
▁توھان	-824
▁يان	-825
▁عال	-826
▁حقيقت	-827
ٽو	-828
▁لفظ	-829
مو	-830
ٺي	-831
▁هج	-832
ڪيٽ	-833
▁عمر	-834
ندڙ	-835
▁ڪيل	-836
▁پرو	-837
▁هنن	-838
▁صف	-839
▁يد	-840
تا	-841
▁ڪيترا	-842
صل	-843
▁رکي	-844
▁ڄاڻ	-845
▁قدر	-846
اجي	-847
▁بح	-848
▁[	-849
▁اک	-850
عا	-851
من	-852
▁سفر	-853
▁علا	-854
▁اوھان	-855
ڊيو	-856
▁جاري	-857
▁ڏسي	-858
▁ولي	-859
▁ختي	-860
▁وجود	-861
▁والله	-862
▁اثر	-863
▁اول	-864
▁ظاهر	-865
▁اڃا	-866
▁ارڪيٽ	-867
▁يار	-868
▁ننڍ	-869
▁دوران	-870
▁سوچ	-871
▁حڪو	-872
▁وائ	-873
▁ـــ	-874
▁تصو	-875
▁ڳالها	-876
▁پسند	-877
▁هاي	-878
▁كل	-879
▁پير	-880
▁حڪومت	-881
▁صاح	-882
or	-883
ريب	-884
▁شخ	-885
▁سپ	-886
▁ضروري	-887
▁فرا	-888
▁ڪيترن	-889
ضي	-890
▁تصوير	-891
▁ٻاهر	-892
▁D	-893
▁حڪ	-894
▁صاحب	-895
▁لڳي	-896
▁ئين	-897
جه	-898
▁جل	-899
▁I	-900
▁مٿ	-901
▁راند	-902
▁مريڪا	-903
▁مخ	-904
▁مواد	-905
ورٽ	-906
▁پٽ	-907
ڙا	-908
▁رهن	-909
▁ى	-910
▁جتي	-911
▁گو	-912
▁حصو	-913
▁نهي	-914
▁علائ	-915
▁علائق	-916
ريل	-917
▁ھن	-918
▁بهتر	-919
▁سڄ	-920
پي	-921
▁اسڪ	-922
▁سندن	-923
ران	-924
▁رق	-925
▁تص	-926
▁اند	-927
▁حو	-928
▁عن	-929
فو	-930
▁نتظ	-931
▁وق	-932
▁اني	-933
▁ختيار	-934
▁ڏسڻ	-935
▁خري	-936
in	-937
▁اسين	-938
ڙه	-939
▁]	-940
▁ڀر	-941
▁هريون	-942
▁جان	-943
صد	-944
▁بال	-945
▁هُ	-946
▁ڊيٽا	-947
▁محسوس	-948
▁اٿ	-949
▁ٺاهي	-950
▁ڪجھ	-951
▁يٽ	-952
▁هين	-953
▁صلاح	-954
▁موضو	-955
▁آسان	-956
▁مٿي	-957
▁هوندا	-958
رت	-959
▁چار	-960
▁عو	-961
▁آخر	-962
کار	-963
▁بيان	-964
▁موضوع	-965
▁خلاف	-966
▁اا	-967
▁يدا	-968
▁على	-969
لق	-970
▁نتي	-971
▁پاڻي	-972
ارف	-973
▁اھو	-974
▁وڪ	-975
ائو	-976
▁ڏني	-977
▁فارم	-978
▁زمين	-979
▁ٿيون	-980
▁حد	-981
▁معيار	-982
▁مثال	-983
▁بچ	-984
▁ڏک	-985
▁ساڳ	-986
▁مج	-987
▁پنھنج	-988
▁w	-989
▁چه	-990
▁اش	-991
▁ٿيندي	-992
ظيم	-993
▁ليڪ	-994
▁دف	-995
▁سام	-996
▁رڳو	-997
▁طرفان	-998
▁تعليم	-999
▁حالت	-1000
▁نداز	-1001
▁وارا	-1002
▁ڪاروب	-1003
▁h	-1004
▁منظ	-1005
▁رنگ	-1006
▁شع	-1007
▁يءَ	-1008
▁وسي	-1009
▁رکڻ	-1010
▁دست	-1011
▁پيار	-1012
▁سگهجي	-1013
ولي	-1014
▁ڊائ	-1015
▁لائن	-1016
كم	-1017
▁داخل	-1018
▁آز	-1019
▁خود	-1020
▁تجر	-1021
▁حلو	-1022
▁شخص	-1023
▁مشهور	-1024
▁آب	-1025
▁هوءَ	-1026
▁يشن	-1027
نت	-1028
▁ايپل	-1029
▁يداوا	-1030
سر	-1031
▁H	-1032
▁قوم	-1033
▁ندي	-1034
▁ٺاه	-1035
▁الي	-1036
▁همي	-1037
▁مار	-1038
▁اسپ	-1039
▁قب	-1040
▁سون	-1041
▁ضحك	-1042
▁مقصد	-1043
▁G	-1044
▁نف	-1045
▁پون	-1046
▁تيار	-1047
▁سط	-1048
▁واپس	-1049
▁نهيءَ	-1050
ڪاڻ	-1051
▁ڏاڍ	-1052
بان	-1053
▁ميا	-1054
▁ڀير	-1055
▁N	-1056
▁مرد	-1057
▁ايران	-1058
▁صن	-1059
▁ڇاڪاڻ	-1060
▁ورس	-1061
قل	-1062
▁عد	-1063
▁نظام	-1064
▁وڃڻ	-1065
▁y	-1066
▁نيو	-1067
به	-1068
ڊي	-1069
▁قابل	-1070
▁لين	-1071
▁تا	-1072
سٽم	-1073
▁ing	-1074
ڏھن	-1075
سپ	-1076
▁L	-1077
▁اعلي	-1078
▁لس	-1079
▁لاز	-1080
ندو	-1081
▁مز	-1082
اتي	-1083
▁ندو	-1084
▁مونکي	-1085
▁شه	-1086
▁هذا	-1087
▁تان	-1088
عت	-1089
▁هميشه	-1090
▁ٻنهي	-1091
▁ڏيو	-1092
▁اجاز	-1093
▁چوڻ	-1094
انه	-1095
▁مص	-1096
▁راب	-1097
▁ابو	-1098
▁يندو	-1099
▁شاع	-1100
▁خد	-1101
▁سک	-1102
▁سائ	-1103
▁قدم	-1104
▁توکي	-1105
▁جنگ	-1106
▁اجازت	-1107
▁فراهم	-1108
▁v	-1109
▁پئ	-1110
▁علم	-1111
▁عي	-1112
▁يندا	-1113
جن	-1114
▁جم	-1115
▁جر	-1116
▁ڪير	-1117
▁اميد	-1118
▁ايو	-1119
▁سلم	-1120
كن	-1121
▁مذ	-1122
▁آو	-1123
▁خوب	-1124
▁ڏيکار	-1125
▁رپ	-1126
▁نام	-1127
▁راه	-1128
▁نيادي	-1129
ائم	-1130
اپ	-1131
▁آيا	-1132
▁ره	-1133
▁حت	-1134
▁لم	-1135
ڊيا	-1136
ليل	-1137
▁سٺو	-1138
▁ڏٺو	-1139
▁k	-1140
▁سواءِ	-1141
وي	-1142
▁تعلق	-1143
زن	-1144
▁ھو	-1145
▁صفح	-1146
▁توڻ	-1147
▁آء	-1148
▁ڄڻ	-1149
▁وگر	-1150
▁te	-1151
▁توڻيڪ	-1152
▁نٿو	-1153
▁سلامي	-1154
▁تف	-1155
بار	-1156
انس	-1157
قيق	-1158
▁له	-1159
▁باري	-1160
▁روز	-1161
▁سٽ	-1162
▁تحقيق	-1163
▁انگ	-1164
▁اك	-1165
▁محفو	-1166
▁سگھ	-1167
▁آس	-1168
▁محفوظ	-1169
▁ڪونه	-1170
مبر	-1171
▁ہ	-1172
▁حڪم	-1173
▁ٽيڪن	-1174
▁احس	-1175
▁ڪلا	-1176
▁اگر	-1177
▁حيا	-1178
▁قائم	-1179
▁اڻي	-1180
▁اق	-1181
▁رح	-1182
▁th	-1183
▁حض	-1184
اسب	-1185
▁بار	-1186
▁آواز	-1187
▁مناسب	-1188
صوص	-1189
▁بت	-1190
▁طريقي	-1191
▁وگرام	-1192
يند	-1193
▁نئون	-1194
داد	-1195
▁ايت	-1196
▁ايڪس	-1197
▁واقعي	-1198
▁وش	-1199
لن	-1200
▁قت	-1201
▁يڪي	-1202
re	-1203
▁ھي	-1204
▁کڻي	-1205
▁شادي	-1206
▁مه	-1207
▁خدمت	-1208
▁رب	-1209
▁موق	-1210
▁رڪ	-1211
▁شيء	-1212
en	-1213
ڌو	-1214
▁محبت	-1215
ur	-1216
▁شين	-1217
▁ايل	-1218
شان	-1219
▁حي	-1220
▁طال	-1221
▁وزير	-1222
▁ڳول	-1223
▁خريد	-1224
▁ڊو	-1225
▁گرا	-1226
▁ممڪن	-1227
وري	-1228
▁هجڻ	-1229
▁عا	-1230
▁يست	-1231
▁نالي	-1232
ٽل	-1233
ابق	-1234
▁اسڪول	-1235
▁ويندا	-1236
▁سچ	-1237
▁آخري	-1238
▁سخت	-1239
▁نفس	-1240
▁صب	-1241
▁مطابق	-1242
▁E	-1243
▁رم	-1244
▁هيو	-1245
▁يائين	-1246
▁اڪثر	-1247
▁بنيا	-1248
مير	-1249
▁مهر	-1250
la	-1251
كر	-1252
▁خراب	-1253
▁بنياد	-1254
▁al	-1255
▁هچ	-1256
▁صحت	-1257
▁سگھي	-1258
▁بلا	-1259
▁خواست	-1260
▁ڀا	-1261
وه	-1262
▁R	-1263
لان	-1264
▁سرو	-1265
▁جسم	-1266
▁سه	-1267
▁اھ	-1268
▁آزاد	-1269
▁آه	-1270
▁يڪيشن	-1271
▁وب	-1272
▁روح	-1273
▁خان	-1274
ڻڻ	-1275
▁سڏ	-1276
▁موڪل	-1277
▁گهڻي	-1278
▁واحد	-1279
▁le	-1280
▁وارن	-1281
▁گري	-1282
▁سيڪڙو	-1283
▁پيا	-1284
▁اط	-1285
▁لکي	-1286
▁F	-1287
▁وڊيو	-1288
▁نمون	-1289
▁ٻارن	-1290
▁ميل	-1291
▁منهن	-1292
▁to	-1293
▁چڪو	-1294
▁جڳ	-1295
▁چڱ	-1296
▁ڊاڪ	-1297
▁آهين	-1298
انا	-1299
▁مفت	-1300
▁ٻيهر	-1301
▁طا	-1302
▁ڪمي	-1303
▁W	-1304
ديد	-1305
▁ڪپ	-1306
ڊر	-1307
▁گرو	-1308
▁آف	-1309
▁رت	-1310
▁سڄي	-1311
▁ڪٿي	-1312
▁سڃ	-1313
▁فقط	-1314
▁ٿيا	-1315
▁سائين	-1316
▁رياست	-1317
▁شد	-1318
▁سڪ	-1319
▁آفي	-1320
art	-1321
▁منت	-1322
▁اچڻ	-1323
▁وڪي	-1324
▁باقي	-1325
▁سطح	-1326
▁فت	-1327
▁که	-1328
▁ڪيس	-1329
▁ڊاڪٽر	-1330
جوا	-1331
▁نقص	-1332
▁اض	-1333
▁جهڙو	-1334
▁پولي	-1335
▁فيص	-1336
▁فيصلو	-1337
▁پارٽي	-1338
ra	-1339
▁20	-1340
▁تخ	-1341
▁بغ	-1342
▁ِي	-1343
▁رست	-1344
▁سياسي	-1345
▁ٽو	-1346
ائش	-1347
▁سگهن	-1348
▁ڪافي	-1349
▁پاران	-1350
گل	-1351
▁اڳو	-1352
▁ذهن	-1353
يوا	-1354
▁مير	-1355
▁نوجوا	-1356
▁ٻڌايو	-1357
▁مرڪ	-1358
▁رن	-1359
▁غلط	-1360
▁روم	-1361
▁يندي	-1362
ڪٽ	-1363
▁مُ	-1364
▁يز	-1365
▁عالمي	-1366
▁ڪڍ	-1367
▁ايه	-1368
لع	-1369
▁موت	-1370
▁مريڪي	-1371
▁ڳالهي	-1372
ڪت	-1373
▁بن	-1374
ريڪ	-1375
▁اڳتي	-1376
قا	-1377
▁ورتو	-1378
▁يوني	-1379
▁فع	-1380
▁ئن	-1381
▁زين	-1382
▁پل	-1383
يي	-1384
▁برا	-1385
▁ڌر	-1386
▁ڪهڙي	-1387
ڌي	-1388
▁ڪهاڻي	-1389
▁عت	-1390
مون	-1391
▁إ	-1392
▁سگهند	-1393
▁آءٌ	-1394
▁تس	-1395
▁تيز	-1396
▁ڏسو	-1397
▁کول	-1398
▁نقصان	-1399
ميت	-1400
▁پاس	-1401
▁جديد	-1402
▁ڳوٺ	-1403
▁ايندڙ	-1404
نل	-1405
▁ملڪن	-1406
▁وڙ	-1407
▁انج	-1408
▁ميڊيا	-1409
▁شيون	-1410
▁رپورٽ	-1411
st	-1412
حال	-1413
▁ده	-1414
▁لن	-1415
▁ئون	-1416
▁تاز	-1417
▁دلچ	-1418
▁بخ	-1419
زل	-1420
▁ڙي	-1421
▁دلچسپ	-1422
▁پڪ	-1423
▁ڀي	-1424
▁قا	-1425
▁هند	-1426
▁يندڙ	-1427
ro	-1428
▁لسلام	-1429
▁تڪ	-1430
▁رفت	-1431
▁اِ	-1432
▁پنج	-1433
▁روش	-1434
▁اڪائو	-1435
▁يش	-1436
▁ايڊ	-1437
▁گا	-1438
▁دير	-1439
▁ذاتي	-1440
وو	-1441
تيب	-1442
▁کين	-1443
▁وج	-1444
▁ضرور	-1445
▁مهربا	-1446
▁ترتيب	-1447
▁انه	-1448
▁يلي	-1449
▁O	-1450
▁پوليس	-1451
▁co	-1452
▁صدر	-1453
▁چاهيو	-1454
انگ	-1455
▁مشين	-1456
▁نوٽ	-1457
▁رٽ	-1458
▁فلم	-1459
▁ڪردار	-1460
▁خير	-1461
ڊل	-1462
اي	-1463
▁رسي	-1464
▁ّ	-1465
▁الاجي	-1466
▁اعلان	-1467
▁ترين	-1468
▁نر	-1469
▁رھ	-1470
▁لك	-1471
▁کا	-1472
▁جوڙ	-1473
▁يني	-1474
▁مضمون	-1475
▁مسا	-1476
▁پلي	-1477
▁لائ	-1478
le	-1479
▁گل	-1480
▁مرح	-1481
▁نمبر	-1482
▁جدا	-1483
▁حقيقي	-1484
▁واض	-1485
▁ستان	-1486
▁مسئلو	-1487
رر	-1488
▁انھن	-1489
▁تڏهن	-1490
▁ايئر	-1491
▁سسٽم	-1492
▁اسلام	-1493
▁ندڙ	-1494
▁ڍ	-1495
▁منٽ	-1496
▁طاقت	-1497
▁بڻجي	-1498
▁ڪيون	-1499
▁عرف	-1500
▁حير	-1501
▁لاڳ	-1502
▁هاڻ	-1503
▁گهڻ	-1504
▁رائي	-1505
هيل	-1506
▁حر	-1507
▁گڏي	-1508
ندا	-1509
▁عب	-1510
هار	-1511
▁سنڌي	-1512
▁ڊگ	-1513
▁وض	-1514
▁لح	-1515
▁قول	-1516
رول	-1517
▁نقل	-1518
ارو	-1519
▁ٽن	-1520
▁گوگل	-1521
▁نصو	-1522
▁سلس	-1523
▁نساني	-1524
▁گفت	-1525
▁عورتن	-1526
▁صبح	-1527
▁ٿور	-1528
▁ڏنل	-1529
▁مذه	-1530
▁ماءُ	-1531
nd	-1532
▁ٽيم	-1533
▁سامان	-1534
▁بنا	-1535
▁دش	-1536
▁آباد	-1537
▁ti	-1538
ڊو	-1539
▁تعمير	-1540
▁طريقو	-1541
▁ماح	-1542
▁وڃن	-1543
ڪان	-1544
▁ڳن	-1545
ديق	-1546
▁چئي	-1547
▁ڌار	-1548
▁سُ	-1549
▁ڪجي	-1550
▁ورسٽي	-1551
▁ڪش	-1552
▁ريا	-1553
زائ	-1554
▁عوام	-1555
▁چر	-1556
▁واپار	-1557
▁حضرت	-1558
نٽ	-1559
▁احساس	-1560
▁سماجي	-1561
▁قبول	-1562
▁ٺاهڻ	-1563
▁سٺي	-1564
▁حفا	-1565
▁پيغ	-1566
▁لڳو	-1567
▁سائنس	-1568
▁ماحول	-1569
▁ڪس	-1570
▁حفاظ	-1571
▁مقرر	-1572
الت	-1573
▁ed	-1574
▁ود	-1575
▁ائل	-1576
▁تقريب	-1577
▁ڪيتري	-1578
▁دري	-1579
▁پورو	-1580
ستي	-1581
ٽري	-1582
▁سمجھ	-1583
at	-1584
et	-1585
▁ريس	-1586
▁وٺڻ	-1587
▁حفاظت	-1588
an	-1589
▁•	-1590
▁لوڊ	-1591
▁اصلي	-1592
▁گذريل	-1593
▁شاء	-1594
ظم	-1595
▁en	-1596
▁معني	-1597
▁پاسي	-1598
▁سروس	-1599
▁ترج	-1600
ــــ	-1601
▁جها	-1602
▁صنعت	-1603
▁نين	-1604
▁رهڻ	-1605
▁لاڳاپ	-1606
▁جاءِ	-1607
▁علاج	-1608
▁قط	-1609
▁جمع	-1610
▁قومي	-1611
▁پوري	-1612
▁جذ	-1613
▁سار	-1614
▁فرق	-1615
▁بلڪل	-1616
ow	-1617
▁داري	-1618
▁يستائ	-1619
▁واضح	-1620
▁يك	-1621
▁حصي	-1622
▁طب	-1623
▁باز	-1624
▁نور	-1625
▁صارف	-1626
▁پوندو	-1627
▁صاف	-1628
▁ملا	-1629
▁وڌي	-1630
▁start	-1631
▁ئڻ	-1632
فٽ	-1633
مان	-1634
▁15	-1635
▁اندان	-1636
▁ڪرا	-1637
▁شرح	-1638
▁ٻيا	-1639
▁بخش	-1640
▁هف	-1641
▁مسافر	-1642
▁متا	-1643
▁30	-1644
ولت	-1645
▁تك	-1646
صيل	-1647
▁اکين	-1648
▁راهڪن	-1649
▁وجوده	-1650
▁نٿا	-1651
▁ڀيرو	-1652
سا	-1653
▁يگ	-1654
▁تفصيل	-1655
▁هيون	-1656
▁ڪوبه	-1657
▁نتظار	-1658
▁هذ	-1659
▁تعداد	-1660
▁شان	-1661
▁dur	-1662
▁رقم	-1663
▁موجب	-1664
▁حوالي	-1665
▁حياتي	-1666
▁جلد	-1667
▁عظيم	-1668
ليق	-1669
▁خرچ	-1670
▁وفا	-1671
بوط	-1672
▁گم	-1673
▁بور	-1674
▁لل	-1675
▁عز	-1676
▁هيءَ	-1677
▁ck	-1678
▁شت	-1679
▁ڊر	-1680
▁x	-1681
▁کائ	-1682
▁پڙهي	-1683
افي	-1684
▁اوزار	-1685
ٺا	-1686
▁مضبوط	-1687
▁اُن	-1688
▁پڙهڻ	-1689
▁ايش	-1690
▁ذڪر	-1691
▁جھ	-1692
▁ويئر	-1693
▁ھڪڙو	-1694
▁وت	-1695
▁جذب	-1696
▁گڏيل	-1697
▁$	-1698
▁دان	-1699
▁ناڪ	-1700
▁محمد	-1701
حان	-1702
▁متاثر	-1703
▁سنگ	-1704
▁فا	-1705
▁دعا	-1706
▁پوسٽ	-1707
▁ايف	-1708
▁جائ	-1709
▁لينڊ	-1710
▁ڏيندو	-1711
▁عند	-1712
▁هفتي	-1713
▁لکڻ	-1714
▁دعو	-1715
▁لازمي	-1716
▁آزا	-1717
▁مند	-1718
▁سلمان	-1719
▁هزار	-1720
▁آزادي	-1721
▁هال	-1722
▁اهڙو	-1723
▁re	-1724
▁رز	-1725
▁نموني	-1726
▁نٽرول	-1727
▁U	-1728
▁مٿان	-1729
▁عملي	-1730
▁X	-1731
▁ارا	-1732
▁درج	-1733
▁نيٽ	-1734
▁ارو	-1735
▁مڙ	-1736
▁واقع	-1737
ابر	-1738
▁لع	-1739
▁نسل	-1740
▁اڪي	-1741
▁چم	-1742
احت	-1743
▁خواب	-1744
شق	-1745
▁راح	-1746
▁معا	-1747
▁وٺند	-1748
▁ڌيان	-1749
▁مهيا	-1750
▁مثل	-1751
▁درد	-1752
ri	-1753
▁هفت	-1754
▁سڃاڻ	-1755
▁تہ	-1756
▁ڪهڙو	-1757
▁اَ	-1758
▁رابط	-1759
▁گريزي	-1760
▁ستق	-1761
▁موسم	-1762
▁وڻ	-1763
▁خواه	-1764
▁ڪريان	-1765
▁وضاحت	-1766
▁لڳا	-1767
▁بج	-1768
▁ذم	-1769
▁يک	-1770
▁غلطي	-1771
▁عدالت	-1772
ائل	-1773
▁ليک	-1774
▁سف	-1775
▁مست	-1776
▁آرام	-1777
▁ً	-1778
▁بينڪ	-1779
▁يورپ	-1780
يڪل	-1781
▁ch	-1782
▁نشان	-1783
▁حص	-1784
▁ريشان	-1785
▁پهچي	-1786
▁شم	-1787
▁گرف	-1788
يب	-1789
▁رکيو	-1790
▁ذميوا	-1791
▁كان	-1792
▁روشني	-1793
▁ڪرد	-1794
▁ميد	-1795
▁الد	-1796
▁ڪئين	-1797
▁سگهون	-1798
▁هنڌ	-1799
▁وه	-1800
▁هوا	-1801
▁ڪيم	-1802
▁خاصيت	-1803
▁وف	-1804
▁12	-1805
▁کن	-1806
▁سور	-1807
هين	-1808
▁برابر	-1809
▁هلي	-1810
آن	-1811
شل	-1812
▁عجب	-1813
سڪ	-1814
▁شرط	-1815
▁روسي	-1816
▁پوي	-1817
▁استاد	-1818
▁حسين	-1819
▁يڪشن	-1820
▁منھنج	-1821
▁تنظيم	-1822
▁يپ	-1823
▁ساز	-1824
▁پيام	-1825
▁هيچ	-1826
▁مليو	-1827
▁ڪريون	-1828
▁ڻي	-1829
▁دين	-1830
▁ءِ	-1831
▁تش	-1832
▁ــــ	-1833
▁واڌ	-1834
هڪ	-1835
الر	-1836
وٽ	-1837
▁وغ	-1838
▁هدا	-1839
▁علاوه	-1840
▁جلدي	-1841
▁شكرا	-1842
ريز	-1843
▁اعت	-1844
▁سٽي	-1845
▁ڪرڻو	-1846
▁حيث	-1847
▁وَ	-1848
ti	-1849
▁اهل	-1850
▁قتل	-1851
▁انتي	-1852
▁هار	-1853
▁تصديق	-1854
▁جنھن	-1855
▁شيءِ	-1856
▁وڪرو	-1857
▁نوڪري	-1858
▁ڪردگي	-1859
▁مالي	-1860
▁جهاز	-1861
يه	-1862
▁واٽ	-1863
▁شاعر	-1864
▁پورٽ	-1865
▁حيثيت	-1866
▁سمجها	-1867
▁ng	-1868
▁رستو	-1869
id	-1870
▁زور	-1871
▁گروپ	-1872
▁فرانس	-1873
▁ڪراچي	-1874
▁صدي	-1875
▁ٻولي	-1876
▁لان	-1877
▁پليٽ	-1878
▁رفتار	-1879
▁رڪاري	-1880
▁اسٽور	-1881
▁يڪڏھن	-1882
رس	-1883
شڪ	-1884
▁جائز	-1885
▁عرب	-1886
▁اث	-1887
▁سنڀ	-1888
▁نفر	-1889
▁ڇوڪري	-1890
▁يال	-1891
▁انتها	-1892
▁نمي	-1893
▁هريان	-1894
▁ماني	-1895
▁گھٽ	-1896
▁تصور	-1897
▁دوا	-1898
▁ااااا	-1899
▁خار	-1900
▁زال	-1901
▁ورا	-1902
▁ماڊل	-1903
▁ياتي	-1904
▁ٺهيل	-1905
▁ڪارڊ	-1906
▁پھ	-1907
▁فيصل	-1908
▁ڊالر	-1909
دن	-1910
▁غريب	-1911
▁ذار	-1912
▁مينٽ	-1913
▁يماري	-1914
▁ميٽر	-1915
▁رين	-1916
▁زبان	-1917
▁رسائي	-1918
▁زي	-1919
▁ڪلڪ	-1920
ڀر	-1921
▁ملڪي	-1922
▁آفيس	-1923
▁اصول	-1924
▁كي	-1925
ay	-1926
▁بڻائ	-1927
▁نڪ	-1928
▁سيٽ	-1929
▁امام	-1930
▁بز	-1931
▁فن	-1932
▁موٽ	-1933
▁ڪيائ	-1934
نيٽ	-1935
▁اون	-1936
▁امير	-1937
▁تجربو	-1938
انو	-1939
▁K	-1940
پو	-1941
▁فيس	-1942
▁ٍ	-1943
▁خوف	-1944
▁بلاگ	-1945
▁اٽ	-1946
▁زو	-1947
▁رگر	-1948
▁ھڪڙي	-1949
▁يج	-1950
▁چند	-1951
▁سياح	-1952
▁^	-1953
▁ريت	-1954
▁پڇيو	-1955
▁ستقبل	-1956
▁گرمي	-1957
▁سمجهي	-1958
▁ميابي	-1959
▁پيوٽر	-1960
▁اقت	-1961
▁بحث	-1962
▁ديو	-1963
ابت	-1964
▁طر	-1965
▁ڪيٽ	-1966
لت	-1967
▁50	-1968
▁آئ	-1969
▁ايندو	-1970
گار	-1971
▁زا	-1972
▁ورڪ	-1973
▁ماهر	-1974
▁ويج	-1975
▁اعظم	-1976
▁آءِ	-1977
▁ڪوڙ	-1978
▁پيغام	-1979
▁ٿيندا	-1980
ڏو	-1981
▁اڌ	-1982
ياري	-1983
▁بورڊ	-1984
▁دم	-1985
▁سافٽ	-1986
▁ٽرنيٽ	-1987
▁ڇڏيند	-1988
▁اللي	-1989
▁ڊائون	-1990
▁V	-1991
▁آآ	-1992
▁لاڳو	-1993
▁هڪڙي	-1994
▁ڏاڍو	-1995
▁نص	-1996
دود	-1997
▁يٰ	-1998
▁ٻڌي	-1999
▁ڳالھ	-2000
▁ڪونهي	-2001
▁ريم	-2002
▁وزن	-2003
گو	-2004
▁ڪين	-2005
▁فل	-2006
▁حب	-2007
▁ڪٽ	-2008
▁ڪوڊ	-2009
▁ائن	-2010
غان	-2011
▁خصوص	-2012
▁راج	-2013
▁ءُ	-2014
▁بير	-2015
▁ساڳي	-2016
▁يڪس	-2017
الف	-2018
▁1.	-2019
▁واس	-2020
▁اڳي	-2021
▁شاعري	-2022
▁تاب	-2023
▁تجز	-2024
▁جيت	-2025
▁نيشن	-2026
ائر	-2027
▁نها	-2028
▁علام	-2029
▁رگرمي	-2030
▁خام	-2031
▁يئر	-2032
▁سج	-2033
▁نڊ	-2034
▁قدي	-2035
▁شڪار	-2036
▁ويئي	-2037
ريٽ	-2038
▁افغان	-2039
▁پوئ	-2040
▁صد	-2041
▁قبل	-2042
▁نل	-2043
▁توق	-2044
▁اسٽي	-2045
▁فعال	-2046
ot	-2047
▁كت	-2048
▁ڊگهي	-2049
▁سڪرين	-2050
▁بود	-2051
▁فلس	-2052
▁ياس	-2053
▁ايا	-2054
▁گرم	-2055
▁سنڀال	-2056
▁بيت	-2057
▁دٻ	-2058
▁لاش	-2059
▁on	-2060
▁فض	-2061
▁آمد	-2062
▁يقيني	-2063
▁ادب	-2064
▁شڪل	-2065
▁ic	-2066
▁لاق	-2067
▁ايندي	-2068
▁حم	-2069
▁ھر	-2070
▁جز	-2071
▁عذ	-2072
▁مهم	-2073
▁اڳيان	-2074
▁بڻائي	-2075
▁دفعو	-2076
▁سگهيو	-2077
▁عالم	-2078
▁عه	-2079
▁قص	-2080
▁مڃ	-2081
▁ٿيندڙ	-2082
▁راز	-2083
▁ويون	-2084
▁وبائل	-2085
▁ٿورو	-2086
▁#	-2087
▁رآ	-2088
▁اکي	-2089
▁فيه	-2090
▁رهندو	-2091
ورن	-2092
▁ثابت	-2093
▁سائي	-2094
▁اھي	-2095
▁محدود	-2096
▁داد	-2097
▁خوشي	-2098
▁لکيو	-2099
▁قوامي	-2100
▁هلا	-2101
▁ڳولي	-2102
▁وم	-2103
▁رخ	-2104
▁زمان	-2105
▁ايترو	-2106
▁امن	-2107
▁ڪندڙن	-2108
▁سوشل	-2109
▁فٽ	-2110
▁نك	-2111
▁ادي	-2112
▁نڪر	-2113
سٽر	-2114
▁هرحال	-2115
▁فري	-2116
▁حساب	-2117
▁منظر	-2118
ونس	-2119
▁اڙ	-2120
▁هڙي	-2121
▁قديم	-2122
▁پيءُ	-2123
▁چوي	-2124
▁مخصوص	-2125
▁يري	-2126
▁جت	-2127
▁قابلي	-2128
▁ڪئ	-2129
▁يوم	-2130
▁ڪان	-2131
▁سگهان	-2132
ڪڻ	-2133
▁صورتح	-2134
▁ياب	-2135
▁سگھو	-2136
▁يگر	-2137
▁حتى	-2138
▁اڳواڻ	-2139
قيد	-2140
▁ريف	-2141
▁مخالف	-2142
لڊ	-2143
▁طاب	-2144
▁+	-2145
▁هوس	-2146
مر	-2147
▁ڇپ	-2148
▁يده	-2149
▁؟؟	-2150
▁11	-2151
نن	-2152
▁گير	-2153
▁ميدان	-2154
طر	-2155
▁يافت	-2156
▁زخ	-2157
▁ليه	-2158
▁ٺيڪ	-2159
▁مپ	-2160
▁ليس	-2161
▁اهڙا	-2162
▁فهم	-2163
▁يلا	-2164
▁ينڊ	-2165
▁اينڊ	-2166
▁قرار	-2167
▁ابندي	-2168
▁لط	-2169
▁بابا	-2170
▁ro	-2171
▁sh	-2172
▁نون	-2173
▁جهڙوڪ	-2174
▁عاد	-2175
▁گيري	-2176
▁جمي	-2177
▁پٺ	-2178
▁هدايت	-2179
▁يب	-2180
▁دوستن	-2181
▁سياست	-2182
▁حالتن	-2183
al	-2184
it	-2185
me	-2186
وش	-2187
▁چڪا	-2188
▁مياب	-2189
▁عرصي	-2190
▁درو	-2191
▁امه	-2192
▁ڪام	-2193
▁هڪڙو	-2194
▁?	-2195
▁مَ	-2196
▁ليش	-2197
▁نقلاب	-2198
▁عيد	-2199
▁ماري	-2200
ئڻ	-2201
▁ڌرتي	-2202
▁الدين	-2203
▁آگ	-2204
▁ڀري	-2205
▁ساڻ	-2206
▁تعارف	-2207
▁ليل	-2208
▁سمنڊ	-2209
▁انٽر	-2210
▁مھ	-2211
▁اءِ	-2212
▁وص	-2213
▁kn	-2214
▁مب	-2215
▁مالڪ	-2216
▁نيوز	-2217
يع	-2218
▁نهن	-2219
▁نڪري	-2220
گه	-2221
▁هيا	-2222
▁هير	-2223
▁ڳنڍ	-2224
▁لفظن	-2225
▁گهڻا	-2226
▁اڏ	-2227
▁اور	-2228
▁ڳولا	-2229
▁اضافي	-2230
▁ڪاري	-2231
▁ملڻ	-2232
▁اگردن	-2233
▁ندر	-2234
▁گذر	-2235
▁جد	-2236
▁پک	-2237
▁ويل	-2238
▁لاقات	-2239
▁سَ	-2240
▁نٿي	-2241
رار	-2242
▁سئ	-2243
▁ائون	-2244
▁۱	-2245
▁سعو	-2246
▁رسال	-2247
▁رجسٽر	-2248
▁زماني	-2249
▁سوچيو	-2250
▁دما	-2251
▁راد	-2252
▁توقع	-2253
▁مختصر	-2254
▁جڳهه	-2255
يره	-2256
▁فهر	-2257
▁اوجود	-2258
هيو	-2259
▁ڏاڍي	-2260
xt	-2261
▁فهرست	-2262
▁ٻڌڻ	-2263
▁جيل	-2264
▁ڪنھن	-2265
▁خواهش	-2266
▁نيشنل	-2267
اھ	-2268
▁لهي	-2269
▁ملين	-2270
ونا	-2271
▁اظ	-2272
▁ويجهو	-2273
شي	-2274
▁يف	-2275
▁يات	-2276
▁ڪُ	-2277
▁راڻ	-2278
▁وٽي	-2279
اء	-2280
▁18	-2281
▁ڏنا	-2282
اهه	-2283
▁صل	-2284
▁هيه	-2285
▁سفار	-2286
▁بق	-2287
تال	-2288
▁نسٽ	-2289
▁ڪلاڪ	-2290
▁ٽرانس	-2291
▁انچ	-2292
▁فائدو	-2293
سل	-2294
▁اءُ	-2295
▁شعر	-2296
▁گرفتا	-2297
▁شوف	-2298
▁منتقل	-2299
▁دماغ	-2300
▁شوق	-2301
▁وڌائڻ	-2302
▁زن	-2303
▁مشڪل	-2304
رير	-2305
▁مرحل	-2306
▁اخبار	-2307
▁روڊ	-2308
▁چڪي	-2309
▁ائو	-2310
▁ڀلي	-2311
▁يي	-2312
▁گزار	-2313
▁سل	-2314
▁فڪر	-2315
قافت	-2316
▁بدر	-2317
▁ٽائي	-2318
▁ثقافت	-2319
شر	-2320
▁تجو	-2321
▁لنڪ	-2322
▁ٽڪر	-2323
▁شاندا	-2324
▁انگي	-2325
▁خلاص	-2326
▁سگھن	-2327
▁سواء	-2328
▁اندين	-2329
▁جهڙي	-2330
▁فط	-2331
▁طبي	-2332
▁گذري	-2333
▁سهولت	-2334
▁پريشن	-2335
▁رف	-2336
▁know	-2337
▁جڏھن	-2338
ادل	-2339
▁لائي	-2340
▁تخليق	-2341
▁عين	-2342
▁بدل	-2343
اظ	-2344
چر	-2345
ماد	-2346
▁لق	-2347
▁روپ	-2348
▁سوي	-2349
▁ويز	-2350
▁وڏا	-2351
▁2.	-2352
▁خا	-2353
▁وط	-2354
▁فور	-2355
▁تحت	-2356
▁نسي	-2357
▁عتماد	-2358
▁وح	-2359
▁نع	-2360
▁ايج	-2361
▁پال	-2362
▁مهينن	-2363
▁de	-2364
▁بھ	-2365
▁رستي	-2366
▁منزل	-2367
▁خخ	-2368
▁رڪار	-2369
▁توانا	-2370
▁سماني	-2371
▁z	-2372
▁nd	-2373
▁هندست	-2374
▁چيزي	-2375
▁يٺ	-2376
▁ننڊ	-2377
▁رڪارڊ	-2378
▁وغيره	-2379
▁ٻڌائي	-2380
▁ec	-2381
▁اااا	-2382
▁ْ	-2383
▁بيشڪ	-2384
▁غور	-2385
▁مره	-2386
▁جيان	-2387
▁سڀئي	-2388
جر	-2389
ڇي	-2390
▁لکيل	-2391
▁25	-2392
▁امهون	-2393
▁اکيون	-2394
لاس	-2395
لسل	-2396
▁مگر	-2397
▁سپتال	-2398
▁نقش	-2399
▁گاڏي	-2400
▁مسلسل	-2401
▁هئڻ	-2402
▁وفي	-2403
▁J	-2404
▁~	-2405
▁ريل	-2406
▁بجلي	-2407
▁ليکڪ	-2408
▁حسن	-2409
▁اهميت	-2410
▁يراني	-2411
▁رکو	-2412
▁ولو	-2413
▁يسٽ	-2414
is	-2415
لاق	-2416
▁ڳا	-2417
▁مڙس	-2418
▁جئين	-2419
▁مقامي	-2420
▁شكل	-2421
▁زر	-2422
▁ارف	-2423
▁ايتري	-2424
▁su	-2425
▁لحاظ	-2426
▁ٻڌائ	-2427
▁رقرار	-2428
▁عاه	-2429
▁حبي	-2430
▁قرآن	-2431
▁آپ	-2432
▁وڃو	-2433
▁نار	-2434
▁جرم	-2435
▁طبق	-2436
▁عشق	-2437
رل	-2438
▁اتو	-2439
▁فوج	-2440
▁ارفين	-2441
▁لائين	-2442
▁ارس	-2443
▁موقعو	-2444
▁فكر	-2445
▁حيرت	-2446
▁داشت	-2447
▁آل	-2448
▁انڊ	-2449
▁اچو	-2450
▁ناس	-2451
▁اعليٰ	-2452
▁نتظام	-2453
▁।	-2454
▁نتيجي	-2455
▁شڪ	-2456
▁نِ	-2457
▁هيءُ	-2458
▁فصل	-2459
▁وجه	-2460
▁وقف	-2461
ناه	-2462
▁آڻڻ	-2463
▁اڻڻ	-2464
▁بلڪ	-2465
▁نيڪ	-2466
▁عنصر	-2467
▁رٽيڪل	-2468
▁نہ	-2469
▁اڃان	-2470
▁ناڪام	-2471
▁14	-2472
▁عبد	-2473
▁قرض	-2474
▁يسي	-2475
▁ٺاهيو	-2476
▁ايڇ	-2477
▁قلب	-2478
▁ڏيندا	-2479
▁صو	-2480
▁شڪر	-2481
▁يام	-2482
▁سميت	-2483
▁فائل	-2484
▁وسار	-2485
▁ونڊو	-2486
▁وووو	-2487
▁آساني	-2488
▁پوئتي	-2489
▁راڊ	-2490
▁عجي	-2491
▁هلند	-2492
▁وائرس	-2493
▁حا	-2494
▁ائڻ	-2495
▁ويس	-2496
▁text	-2497
▁بندي	-2498
▁چيني	-2499
▁گراف	-2500
▁اتح	-2501
▁بران	-2502
▁مصنو	-2503
▁قس	-2504
▁اتر	-2505
▁ليٽ	-2506
▁مصنوع	-2507
جا	-2508
▁بئن	-2509
▁ماه	-2510
▁مسي	-2511
▁ڏکڻ	-2512
▁ويه	-2513
▁مجهيو	-2514
▁مسئلن	-2515
▁وره	-2516
▁عجيب	-2517
▁قاعد	-2518
▁هور	-2519
▁ييي	-2520
▁بغير	-2521
▁درست	-2522
▁شايع	-2523
▁اهيان	-2524
▁متحان	-2525
▁يورپي	-2526
▁اً	-2527
▁آسم	-2528
▁ورن	-2529
▁ڏينھن	-2530
▁مئ	-2531
▁ادار	-2532
دير	-2533
▁اجلاس	-2534
▁ايون	-2535
▁نگر	-2536
▁قسمن	-2537
▁انع	-2538
▁امان	-2539
▁نسٽال	-2540
▁٪	-2541
▁ڪٽو	-2542
▁طلع	-2543
▁ورٽ	-2544
▁ھون	-2545
ھر	-2546
▁حوال	-2547
▁رکند	-2548
▁ايمان	-2549
▁منظور	-2550
▁li	-2551
▁الڳ	-2552
▁براي	-2553
▁ميمبر	-2554
▁ذات	-2555
▁ڳولڻ	-2556
▁چور	-2557
▁وانا	-2558
▁شن	-2559
ٿر	-2560
▁ڪَ	-2561
▁تحفظ	-2562
▁ديد	-2563
▁بئنڪ	-2564
▁ائس	-2565
▁عوامي	-2566
el	-2567
زم	-2568
▁مغ	-2569
▁لال	-2570
▁ميو	-2571
▁وهه	-2572
▁كر	-2573
▁اصلا	-2574
▁مقدار	-2575
▁هڻ	-2576
▁وحد	-2577
▁ڪاب	-2578
▁خالي	-2579
▁ٽيسٽ	-2580
▁قدرتي	-2581
▁ضاب	-2582
▁ڀارت	-2583
▁طلب	-2584
▁ينل	-2585
▁يول	-2586
▁جاچ	-2587
▁رهند	-2588
▁And	-2589
▁سير	-2590
▁ضابط	-2591
▁ڊوائ	-2592
▁لب	-2593
▁انص	-2594
▁وزي	-2595
▁ادري	-2596
▁ورتي	-2597
ريف	-2598
▁رڪن	-2599
▁حڪمت	-2600
▁سماج	-2601
▁خرڪار	-2602
▁انو	-2603
▁مهو	-2604
▁ادارن	-2605
▁پراڻي	-2606
▁نھي	-2607
▁دشمن	-2608
▁هوٽل	-2609
▁شخصيت	-2610
▁پوندي	-2611
▁چپ	-2612
▁روس	-2613
▁ڪندس	-2614
▁ڏيندي	-2615
▁ly	-2616
▁صور	-2617
▁ائسنس	-2618
▁ائيند	-2619
▁ماڻھو	-2620
ڌر	-2621
▁ڀيٽ	-2622
▁ننڍي	-2623
▁اظهار	-2624
▁مها	-2625
▁يدار	-2626
▁درواز	-2627
گرد	-2628
▁جار	-2629
▁خور	-2630
▁طيب	-2631
▁پهر	-2632
▁رابطو	-2633
▁عبدال	-2634
باس	-2635
▁هجن	-2636
▁وڪل	-2637
▁اچن	-2638
▁روا	-2639
▁عنو	-2640
▁وسيع	-2641
يز	-2642
▁ساڳيو	-2643
▁سعودي	-2644
▁گن	-2645
▁سول	-2646
▁وات	-2647
▁يهي	-2648
▁شعور	-2649
▁ٿوري	-2650
▁نب	-2651
▁يٽر	-2652
▁اخر	-2653
▁سڌو	-2654
▁حلوه	-2655
▁ڪسٽم	-2656
▁رائ	-2657
▁رض	-2658
▁حما	-2659
▁گڏو	-2660
▁Andr	-2661
▁مذهبي	-2662
▁100	-2663
▁جني	-2664
▁زير	-2665
▁سڏيو	-2666
▁عياري	-2667
▁Ma	-2668
▁مظ	-2669
▁انس	-2670
▁ايد	-2671
▁هست	-2672
▁گرد	-2673
▁فوجي	-2674
▁لڳند	-2675
▁مذهب	-2676
▁ترجم	-2677
▁شاگرد	-2678
ڙپ	-2679
▁وند	-2680
▁مهيني	-2681
▁اسر	-2682
▁ويڊيو	-2683
▁ارن	-2684
▁ss	-2685
▁شاهه	-2686
▁انجام	-2687
ٽڻ	-2688
▁es	-2689
▁شهي	-2690
▁انصاف	-2691
▁oid	-2692
▁تيل	-2693
▁ريڪ	-2694
▁تجرب	-2695
▁خيلي	-2696
▁خل	-2697
▁آسمان	-2698
▁اسپين	-2699
▁ساڳئي	-2700
▁رسم	-2701
▁ريٽ	-2702
▁مرڪز	-2703
▁سلسلي	-2704
▁حتج	-2705
▁گھرجي	-2706
▁أن	-2707
▁جنم	-2708
▁چنڊ	-2709
▁ٽرين	-2710
▁خاموش	-2711
▁In	-2712
▁كن	-2713
▁اذا	-2714
▁ڊجي	-2715
▁آهنگ	-2716
▁لڪ	-2717
▁ڄاڻي	-2718
▁ڊجيٽل	-2719
▁دڪان	-2720
▁گڏجي	-2721
▁حصن	-2722
▁چڱي	-2723
▁مارچ	-2724
▁پويان	-2725
بال	-2726
▁جمو	-2727
▁ايئن	-2728
▁روسيس	-2729
▁ڪيترو	-2730
▁مائ	-2731
▁جموعي	-2732
▁سٽيشن	-2733
بلي	-2734
▁مئي	-2735
▁حتجاج	-2736
▁40	-2737
وڙ	-2738
پر	-2739
▁دستا	-2740
▁ممكن	-2741
▁ڪال	-2742
▁ريشن	-2743
▁منظم	-2744
▁لباس	-2745
فاق	-2746
▁دخل	-2747
▁ردا	-2748
▁روف	-2749
▁عزي	-2750
▁ڪنڊ	-2751
▁فطرت	-2752
▁سياحت	-2753
▁عمارت	-2754
▁تل	-2755
▁لئ	-2756
▁حمل	-2757
▁شما	-2758
▁عيس	-2759
▁راضي	-2760
▁ڪورٽ	-2761
▁مهوري	-2762
▁com	-2763
▁ڪپڙ	-2764
▁هع	-2765
▁ڊپ	-2766
▁چيڪ	-2767
▁ادبي	-2768
▁نمائ	-2769
▁ڙهند	-2770
▁پرس	-2771
▁گاه	-2772
▁اڪيلو	-2773
▁تحريڪ	-2774
▁کر	-2775
▁ڪالي	-2776
▁اشارو	-2777
▁ڪٽوبر	-2778
li	-2779
ut	-2780
▁پشن	-2781
▁جنسي	-2782
▁باغ	-2783
▁ملائ	-2784
▁عط	-2785
▁محنت	-2786
▁13	-2787
▁يمبر	-2788
▁عمولي	-2789
▁ريڊ	-2790
▁سزا	-2791
▁عزت	-2792
▁هُو	-2793
▁يڙ	-2794
▁ورڊ	-2795
▁برانڊ	-2796
ch	-2797
▁هُن	-2798
▁وڏن	-2799
▁ڪور	-2800
▁قسمت	-2801
▁ٽيڪس	-2802
▁طابقت	-2803
▁معنيٰ	-2804
▁موٽر	-2805
▁نماز	-2806
▁مسئلي	-2807
▁هِ	-2808
▁مشت	-2809
▁پٿر	-2810
▁چيز	-2811
▁جميل	-2812
▁فقير	-2813
▁ڪمري	-2814
▁ايندا	-2815
▁بدران	-2816
▁طريقا	-2817
▁ائپ	-2818
▁حرف	-2819
▁عقل	-2820
▁فوت	-2821
▁ماپ	-2822
▁مني	-2823
▁پائ	-2824
▁چڱو	-2825
▁ٽين	-2826
▁تعريف	-2827
▁نشاني	-2828
ده	-2829
▁16	-2830
▁گيت	-2831
لوي	-2832
▁رك	-2833
▁اكل	-2834
▁(1	-2835
▁or	-2836
▁تڪڙ	-2837
▁لنڊ	-2838
▁لوڪ	-2839
▁ويند	-2840
▁تجزيو	-2841
ارٽ	-2842
▁کيڏ	-2843
▁ميان	-2844
▁نڌ	-2845
▁ڪلو	-2846
▁اضاف	-2847
▁ڪرائي	-2848
▁j	-2849
▁روي	-2850
▁صدق	-2851
▁نگن	-2852
▁کليل	-2853
▁گهربل	-2854
▁قد	-2855
▁نءَ	-2856
▁سيڙپ	-2857
▁شهري	-2858
▁pp	-2859
▁كنت	-2860
▁سموري	-2861
▁ڪڍي	-2862
▁پٽمبر	-2863
▁ڪتابن	-2864
▁>>	-2865
▁Ne	-2866
▁سيريز	-2867
رب	-2868
▁نصي	-2869
▁هيڪ	-2870
وم	-2871
▁عزيز	-2872
▁نواز	-2873
▁گراهڪ	-2874
جد	-2875
ٻي	-2876
▁وك	-2877
▁آدم	-2878
▁نسخ	-2879
▁موٽي	-2880
▁واپسي	-2881
▁پهچ	-2882
▁ڪابه	-2883
▁يمبلي	-2884
▁۔۔	-2885
▁مرا	-2886
▁يڪل	-2887
▁ھئي	-2888
▁سمارٽ	-2889
▁3.	-2890
▁راهي	-2891
▁يرا	-2892
▁<<	-2893
▁ادر	-2894
▁ھاڻي	-2895
▁عنوان	-2896
▁الز	-2897
▁سڄو	-2898
▁مکي	-2899
▁بحال	-2900
▁تبادل	-2901
▁ڊيزائ	-2902
▁گذاري	-2903
▁na	-2904
▁بع	-2905
▁آبا	-2906
▁طان	-2907
▁كتب	-2908
▁ميز	-2909
▁خريدا	-2910
▁وسيقي	-2911
ليت	-2912
▁برد	-2913
▁فائي	-2914
▁آبادي	-2915
▁جائزو	-2916
▁عليها	-2917
▁ڪاليج	-2918
▁تار	-2919
▁جاڳ	-2920
▁tion	-2921
▁طريقن	-2922
▁ملازم	-2923
▁ڪميون	-2924
▁وئ	-2925
▁الف	-2926
▁واسط	-2927
▁Co	-2928
▁خخخ	-2929
▁پئسا	-2930
▁ڊزائ	-2931
▁جام	-2932
▁يورو	-2933
▁ارڻ	-2934
▁الص	-2935
▁حيران	-2936
▁سفارش	-2937
بيت	-2938
▁nt	-2939
▁se	-2940
▁وپ	-2941
▁اڙي	-2942
▁تني	-2943
▁شمار	-2944
▁نوان	-2945
▁ٽيلي	-2946
▁ڃ	-2947
▁شوي	-2948
▁سمور	-2949
▁فوري	-2950
▁فوٽو	-2951
▁سخ	-2952
▁ڏانھن	-2953
▁24	-2954
▁تهي	-2955
▁نما	-2956
▁دورو	-2957
▁زخمي	-2958
▁انعام	-2959
▁جنرل	-2960
▁سوچي	-2961
▁اتفاق	-2962
▁جيترو	-2963
▁لاس	-2964
▁مدا	-2965
▁بونس	-2966
▁ائيڪل	-2967
▁ni	-2968
▁ٻُ	-2969
▁دون	-2970
▁پول	-2971
▁تض	-2972
▁ابي	-2973
▁بلو	-2974
▁ميوز	-2975
▁ڪرائڻ	-2976
▁ايان	-2977
▁شهيد	-2978
▁جمل	-2979
▁حبيب	-2980
▁يٽنگ	-2981
▁اِه	-2982
▁لله	-2983
▁ڪلاس	-2984
▁ترجمو	-2985
▁مشتمل	-2986
▁فرد	-2987
▁@	-2988
▁ليا	-2989
▁نيست	-2990
▁ويهي	-2991
▁يها	-2992
▁ارسال	-2993
▁انڪار	-2994
▁چوندا	-2995
▁قيام	-2996
▁اليسي	-2997
▁it	-2998
▁ئٽ	-2999
▁امڪان	-3000
▁جنيئر	-3001
ضر	-3002
▁لعب	-3003
▁واي	-3004
▁فلسف	-3005
▁پرست	-3006
▁حاج	-3007
▁ئس	-3008
▁مک	-3009
▁تعا	-3010
▁كله	-3011
▁مشك	-3012
▁۔۔۔	-3013
▁تنھن	-3014
▁چارج	-3015
▁ڏيئي	-3016
▁خاطر	-3017
▁روشن	-3018
▁وني	-3019
▁ٻڌو	-3020
▁ڀيرا	-3021
▁ڪانه	-3022
▁رکندڙ	-3023
▁انك	-3024
▁وطن	-3025
▁يڊيا	-3026
▁ٽيبل	-3027
▁چئ	-3028
▁اره	-3029
▁هنگ	-3030
▁آرڊر	-3031
▁آگسٽ	-3032
▁ڪِ	-3033
▁وائي	-3034
▁آفيسر	-3035
▁هينئر	-3036
رڪ	-3037
▁ll	-3038
▁رما	-3039
▁ستي	-3040
▁مزد	-3041
▁ثاني	-3042
▁سوچڻ	-3043
▁the	-3044
▁ئيگي	-3045
▁يونٽ	-3046
▁تربيت	-3047
▁سلامت	-3048
▁آڻ	-3049
▁ٿر	-3050
▁قيم	-3051
▁راءِ	-3052
▁اضافو	-3053
▁هچائڻ	-3054
se	-3055
▁کڻڻ	-3056
▁17	-3057
▁ساٿ	-3058
▁دائين	-3059
▁واقف	-3060
▁ٽيون	-3061
▁ملڪيت	-3062
▁وزيشن	-3063
tion	-3064
▁امين	-3065
▁ation	-3066
▁الت	-3067
▁امر	-3068
▁كيف	-3069
▁ڀلا	-3070
▁كلام	-3071
▁ايشيا	-3072
▁جاء	-3073
▁لنگ	-3074
▁ووو	-3075
▁سمجهڻ	-3076
▁سڃاڻپ	-3077
▁ونڊوز	-3078
▁کل	-3079
▁لون	-3080
▁مور	-3081
▁ڀريل	-3082
تل	-3083
▁اڇ	-3084
▁فرض	-3085
▁اما	-3086
▁جنس	-3087
▁قال	-3088
▁دليل	-3089
▁صفحا	-3090
▁وصول	-3091
▁فتح	-3092
▁an	-3093
▁رر	-3094
▁يخ	-3095
▁رئي	-3096
▁آسٽر	-3097
▁حمايت	-3098
▁mi	-3099
▁پُ	-3100
▁حاد	-3101
▁رحم	-3102
▁يٺل	-3103
▁يمكن	-3104
▁رهندا	-3105
▁سبق	-3106
▁ويچ	-3107
▁اخت	-3108
▁بئي	-3109
▁وهي	-3110
▁دريا	-3111
▁رابطي	-3112
نه	-3113
▁ؤ	-3114
▁پَ	-3115
▁عهد	-3116
▁لها	-3117
▁ساٿي	-3118
▁رائيڊ	-3119
▁سيڙپڪ	-3120
▁ect	-3121
▁مڇي	-3122
▁اداري	-3123
▁ma	-3124
▁mp	-3125
▁زنده	-3126
▁رائيو	-3127
▁يرو	-3128
▁روئ	-3129
▁شده	-3130
▁نكت	-3131
▁سگھجي	-3132
▁مسئلا	-3133
يءَ	-3134
▁ترڪي	-3135
▁جنوري	-3136
ڊيٽ	-3137
▁رام	-3138
▁عندي	-3139
▁وسيل	-3140
▁گزارش	-3141
ڳي	-3142
▁وڪليو	-3143
▁يورٽي	-3144
▁ورها	-3145
▁هوائي	-3146
خر	-3147
▁احمد	-3148
▁رآمد	-3149
▁نومبر	-3150
▁ag	-3151
▁رسيد	-3152
▁مکيه	-3153
▁ھوند	-3154
▁تجويز	-3155
▁تنھنج	-3156
▁موقعي	-3157
▁ممم	-3158
▁تعرف	-3159
▁هليو	-3160
▁ائلون	-3161
▁وڊ	-3162
▁تاج	-3163
▁حالا	-3164
▁ماضي	-3165
▁الو	-3166
▁لسٽ	-3167
▁هائو	-3168
▁اپڊيٽ	-3169
ليف	-3170
▁آھ	-3171
▁خون	-3172
▁هوش	-3173
▁شتهار	-3174
▁نز	-3175
▁ٻڌل	-3176
▁پوک	-3177
▁ريان	-3178
▁هلائڻ	-3179
▁ion	-3180
▁اگه	-3181
▁نان	-3182
▁جهان	-3183
▁حادث	-3184
▁گھڻو	-3185
lo	-3186
▁tt	-3187
▁ريد	-3188
▁ليگ	-3189
▁مردن	-3190
▁باد	-3191
▁جلس	-3192
▁رسول	-3193
▁رهيون	-3194
▁اڻو	-3195
▁ولڊ	-3196
▁سازي	-3197
▁طلاق	-3198
▁لنڊن	-3199
▁أنا	-3200
▁ربي	-3201
▁ٻول	-3202
▁ريح	-3203
▁سنڏ	-3204
▁هٿن	-3205
▁ناول	-3206
▁وارڊ	-3207
يوب	-3208
▁نبي	-3209
▁هئس	-3210
▁پيٽ	-3211
صاد	-3212
▁me	-3213
▁دد	-3214
▁تين	-3215
▁شاه	-3216
▁قوت	-3217
▁هوء	-3218
▁ينج	-3219
▁مبار	-3220
▁الزام	-3221
▁بڪ	-3222
▁for	-3223
▁مجب	-3224
▁لانچ	-3225
▁ٻيون	-3226
▁قتصاد	-3227
▁gh	-3228
▁ناهن	-3229
▁مجبور	-3230
▁بک	-3231
▁دهشت	-3232
▁ڇوڪر	-3233
▁اسرائ	-3234
▁دوز	-3235
▁كثر	-3236
▁يائ	-3237
▁هيٺين	-3238
▁ڊزائن	-3239
▁اٺ	-3240
▁حاضر	-3241
▁پرين	-3242
▁ليڪٽر	-3243
ڙن	-3244
▁ڱ	-3245
▁بتد	-3246
▁خات	-3247
▁اولا	-3248
▁ساري	-3249
▁عربي	-3250
▁ڀاءُ	-3251
▁ڪانهي	-3252
▁ڪميشن	-3253
▁آي	-3254
▁يهم	-3255
▁آپريٽ	-3256
▁زارين	-3257
▁کوٽ	-3258
▁سرور	-3259
▁پارڪ	-3260
▁سينٽر	-3261
▁ar	-3262
▁vi	-3263
▁اوڀر	-3264
▁تازو	-3265
ea	-3266
زور	-3267
▁بط	-3268
▁وائنٽ	-3269
us	-3270
▁19	-3271
▁شب	-3272
▁شتي	-3273
▁نيم	-3274
▁پناه	-3275
▁ra	-3276
▁كه	-3277
▁بہ	-3278
▁ارد	-3279
▁سيد	-3280
بن	-3281
▁ٌ	-3282
▁لف	-3283
▁ينس	-3284
▁ڀڳ	-3285
▁الا	-3286
▁ردو	-3287
▁عنى	-3288
▁وير	-3289
▁وفات	-3290
▁الحال	-3291
▁قابلو	-3292
▁بگ	-3293
▁ينا	-3294
▁ذريع	-3295
▁آيل	-3296
▁ضحكت	-3297
▁ويجه	-3298
▁نگران	-3299
گڏ	-3300
▁قل	-3301
▁افي	-3302
▁انڪ	-3303
▁سکڻ	-3304
▁مهور	-3305
وف	-3306
▁is	-3307
▁وِ	-3308
▁اسم	-3309
▁الع	-3310
▁ليو	-3311
▁ڪمزور	-3312
▁دمت	-3313
▁قطع	-3314
▁بنائ	-3315
▁راڊڪٽ	-3316
ريم	-3317
▁lo	-3318
▁نظم	-3319
▁ينه	-3320
▁هندو	-3321
▁انورن	-3322
▁تعاون	-3323
▁سمجهه	-3324
▁ميگ	-3325
▁ڊسم	-3326
▁ڪارو	-3327
▁رش	-3328
▁خوا	-3329
▁رکن	-3330
▁ستر	-3331
▁شير	-3332
▁منس	-3333
▁شهرن	-3334
▁ويٺو	-3335
▁اتحاد	-3336
▁سائيز	-3337
▁واقعا	-3338
▁يمبرن	-3339
▁ڪرايو	-3340
▁يح	-3341
▁ورد	-3342
▁وفاقي	-3343
▁ڊسمبر	-3344
▁زاح	-3345
▁پٺيان	-3346
▁Z	-3347
▁بم	-3348
▁رُ	-3349
▁رون	-3350
▁ميدو	-3351
▁وهين	-3352
▁ٻارڙ	-3353
▁ڏکيو	-3354
▁نتيجو	-3355
▁گڏوگڏ	-3356
ٻئي	-3357
▁حج	-3358
▁يڏو	-3359
▁نسان	-3360
▁ڪانگ	-3361
▁زاحمت	-3362
▁صير	-3363
▁باهه	-3364
▁پيروي	-3365
▁حنا	-3366
▁كون	-3367
▁وٺو	-3368
▁ينٽ	-3369
▁ئنات	-3370
▁نتظر	-3371
▁هد	-3372
▁بقى	-3373
▁وائس	-3374
▁di	-3375
▁بعض	-3376
▁محل	-3377
▁موقع	-3378
▁نگار	-3379
▁ويڙه	-3380
▁ٻانه	-3381
▁گرام	-3382
▁تجربي	-3383
▁بيڪ	-3384
▁اقول	-3385
▁اُهي	-3386
▁دارن	-3387
▁مريض	-3388
▁,,	-3389
▁يلو	-3390
▁شرڪت	-3391
▁هندي	-3392
▁نصوبي	-3393
▁بنت	-3394
▁درس	-3395
▁اهرين	-3396
▁ريڪٽر	-3397
UM	-3398
▁مِ	-3399
▁چڙ	-3400
▁day	-3401
▁برائ	-3402
▁بتدائ	-3403
▁وزارت	-3404
گا	-3405
▁ويد	-3406
▁اپريل	-3407
▁بردار	-3408
▁تسليم	-3409
▁تڪليف	-3410
▁علامت	-3411
▁Y	-3412
▁پئجي	-3413
▁يشه	-3414
▁ڪاس	-3415
▁مشور	-3416
▁وندا	-3417
▁ڪجھه	-3418
پل	-3419
▁ژ	-3420
▁تت	-3421
▁قري	-3422
▁نالا	-3423
▁هاءِ	-3424
▁پارٽ	-3425
ok	-3426
▁۲	-3427
ڏيهي	-3428
▁آڻي	-3429
▁لات	-3430
▁ڪلهه	-3431
▁رڏيهي	-3432
▁Q	-3433
▁ta	-3434
▁ڪٿ	-3435
▁احد	-3436
▁اٿم	-3437
▁مدير	-3438
▁جذبات	-3439
▁مؤ	-3440
▁مزو	-3441
▁تقول	-3442
ce	-3443
▁ظا	-3444
▁واهه	-3445
▁سلسلو	-3446
▁ڏسندا	-3447
▁افت	-3448
▁وڌو	-3449
▁يره	-3450
▁ڇڏيا	-3451
▁قيمتي	-3452
▁Re	-3453
▁ينو	-3454
▁توڙي	-3455
▁عقيد	-3456
▁چائي	-3457
▁اقتور	-3458
▁مينهن	-3459
ve	-3460
▁60	-3461
▁ذا	-3462
▁سِ	-3463
▁صرا	-3464
▁نگاه	-3465
▁کائي	-3466
▁اڳوڻي	-3467
▁داڪار	-3468
▁عاملي	-3469
▁نڊي	-3470
▁آھيان	-3471
ناس	-3472
▁4.	-3473
▁بوٽ	-3474
▁ٽنگ	-3475
▁شراب	-3476
▁ورونا	-3477
▁ويچار	-3478
▁لطف	-3479
▁نڪت	-3480
▁روڪي	-3481
▁کاتي	-3482
▁بچائڻ	-3483
پان	-3484
▁at	-3485
▁خواهي	-3486
ئا	-3487
▁ميڪ	-3488
▁جرمني	-3489
▁اطم	-3490
▁باس	-3491
▁ردي	-3492
▁پکي	-3493
▁جما	-3494
▁q	-3495
▁ڙو	-3496
▁صار	-3497
▁هيس	-3498
▁کار	-3499
▁پريس	-3500
▁اسٽيٽ	-3501
▁😂	-3502
▁ڄم	-3503
▁سنو	-3504
▁يقول	-3505
▁امداد	-3506
▁خدمتن	-3507
▁صط	-3508
▁اڻن	-3509
▁تازه	-3510
▁نفرنس	-3511
▁گهرجن	-3512
▁ab	-3513
▁ترا	-3514
▁ردن	-3515
▁هنا	-3516
▁ووٽ	-3517
▁ڊسٽ	-3518
▁ڊوڙ	-3519
▁ڳوله	-3520
▁گفتگو	-3521
▁اوچ	-3522
▁برر	-3523
▁رنس	-3524
▁ودڪار	-3525
شم	-3526
لاع	-3527
▁سؤ	-3528
▁نَ	-3529
▁فعل	-3530
▁هذه	-3531
▁چوٿ	-3532
▁ياري	-3533
▁ڪاپي	-3534
▁جانور	-3535
▁وڄ	-3536
▁اوي	-3537
▁ٽرو	-3538
▁ڪوٽ	-3539
▁مثبت	-3540
▁فته	-3541
▁لازم	-3542
▁واني	-3543
▁روايت	-3544
ou	-3545
▁زار	-3546
▁قلم	-3547
▁لهه	-3548
▁تهيه	-3549
▁وڪيپ	-3550
▁اعترا	-3551
رات	-3552
▁نھ	-3553
▁هٿي	-3554
▁جج	-3555
▁حقن	-3556
▁سته	-3557
▁شيئر	-3558
▁آمدني	-3559
▁ميدوا	-3560
▁نصوبو	-3561
▁برو	-3562
▁منع	-3563
▁نير	-3564
▁ڪوئي	-3565
▁اطلاع	-3566
▁بروري	-3567
▁ct	-3568
▁وجهي	-3569
▁ورلڊ	-3570
▁فٽبال	-3571
▁ريو	-3572
▁آئين	-3573
▁ڪارپو	-3574
▁ڪچ	-3575
▁بول	-3576
▁ماء	-3577
▁چمڪ	-3578
▁جيڪٽ	-3579
▁ساهه	-3580
▁شكله	-3581
▁نفرت	-3582
▁Mi	-3583
▁فخر	-3584
▁مهل	-3585
▁ڪيلي	-3586
▁يائون	-3587
▁دمتون	-3588
▁ڊسٽري	-3589
▁ارب	-3590
▁انٽ	-3591
▁بيس	-3592
▁وڻي	-3593
▁بلوچ	-3594
▁وڪيل	-3595
▁دشاهه	-3596
ol	-3597
▁ڀڄ	-3598
▁عطي	-3599
▁ولهه	-3600
▁لڊ	-3601
▁ڀڃ	-3602
▁اءَ	-3603
▁نرم	-3604
▁ha	-3605
▁ڏٺ	-3606
▁کٽ	-3607
▁ers	-3608
▁مصر	-3609
▁ڊرائ	-3610
▁ليڪشن	-3611
▁هلندڙ	-3612
UMX	-3613
▁ڀل	-3614
▁درجه	-3615
▁دعوت	-3616
▁سڃات	-3617
▁21	-3618
▁22	-3619
▁we	-3620
▁ديگر	-3621
بوب	-3622
▁ca	-3623
▁آءُ	-3624
▁سڌي	-3625
▁يڪر	-3626
▁ضمان	-3627
▁والد	-3628
▁رچ	-3629
▁گُ	-3630
▁ضلع	-3631
▁قلت	-3632
▁يءُ	-3633
▁ٺاھ	-3634
▁رداشت	-3635
▁صطلاح	-3636
▁XN	-3637
انيه	-3638
▁فاد	-3639
▁رارت	-3640
▁هانگ	-3641
▁يكون	-3642
▁اولاد	-3643
▁فائيل	-3644
راق	-3645
▁حاف	-3646
▁مسيح	-3647
▁گهڻن	-3648
▁si	-3649
▁وتي	-3650
▁گهه	-3651
▁دوستي	-3652
▁ماڻھن	-3653
▁بازي	-3654
▁چيست	-3655
▁ٽرويو	-3656
▁رٿ	-3657
▁رضا	-3658
▁سٽر	-3659
▁متن	-3660
▁يچر	-3661
▁يکي	-3662
▁پئس	-3663
▁ينسر	-3664
▁ضمانت	-3665
▁واڌار	-3666
▁يونين	-3667
▁گهٽائ	-3668
فرد	-3669
▁گز	-3670
▁بلند	-3671
▁منجه	-3672
▁هفته	-3673
▁ڳوڙه	-3674
▁CO	-3675
▁وصل	-3676
▁بيٽري	-3677
▁هڪٻئي	-3678
▁َر	-3679
▁اوت	-3680
▁اٿس	-3681
▁يادت	-3682
▁منفرد	-3683
▁ٹ	-3684
▁پهتو	-3685
▁بحالي	-3686
▁اؤ	-3687
▁ولين	-3688
▁XNUMX	-3689
▁حڪمرا	-3690
▁يزبان	-3691
▁St	-3692
▁ba	-3693
▁سري	-3694
▁شور	-3695
▁پهچڻ	-3696
▁گروه	-3697
▁بڻايو	-3698
▁دهشتگ	-3699
ھين	-3700
▁تھ	-3701
▁غم	-3702
▁نمائش	-3703
▁لآ	-3704
▁انف	-3705
▁چيه	-3706
▁بدلي	-3707
▁غلام	-3708
▁ننڍڙ	-3709
▁ڏيار	-3710
▁ٰ	-3711
▁رهو	-3712
▁هڻي	-3713
▁ُون	-3714
▁چرچ	-3715
▁ٻيڙي	-3716
▁ڄاڻا	-3717
▁Bi	-3718
▁ld	-3719
▁ڳڻ	-3720
▁متح	-3721
▁سوار	-3722
▁ٽئين	-3723
▁رع	-3724
▁نتخ	-3725
▁پڌر	-3726
▁جوان	-3727
▁خاتم	-3728
▁طانيه	-3729
▁عاملو	-3730
▁ڊڄ	-3731
▁دام	-3732
▁مزح	-3733
▁حافظ	-3734
▁دارو	-3735
▁عرفت	-3736
▁مسجد	-3737
▁پاور	-3738
▁ائونڊ	-3739
▁اڻيءَ	-3740
▁تحليل	-3741
▁راهيم	-3742
▁مرڪزي	-3743
▁ce	-3744
▁صفحي	-3745
▁مافي	-3746
▁el	-3747
▁دك	-3748
▁واب	-3749
▁يئي	-3750
▁افسوس	-3751
جڪ	-3752
ڊا	-3753
▁حلوة	-3754
▁عليكم	-3755
▁&	-3756
▁ne	-3757
▁نوع	-3758
▁ٽائ	-3759
▁کپي	-3760
▁انسٽ	-3761
▁نگين	-3762
▁گاهي	-3763
▁نتخاب	-3764
▁sm	-3765
▁نى	-3766
▁ter	-3767
▁هيك	-3768
▁طبيع	-3769
▁مف	-3770
▁طول	-3771
▁لكن	-3772
▁پرائ	-3773
▁ندازو	-3774
▁وايتي	-3775
▁ad	-3776
▁ناق	-3777
▁پرت	-3778
▁ائيڊ	-3779
▁کاڌي	-3780
▁اوھين	-3781
▁خيالن	-3782
▁عاهدي	-3783
▁مبارڪ	-3784
▁مبر	-3785
▁ناز	-3786
▁اكيد	-3787
▁گهڙي	-3788
▁{	-3789
ليا	-3790
ياد	-3791
▁جب	-3792
▁ھڙي	-3793
▁مرمت	-3794
▁نهار	-3795
▁پيئڻ	-3796
▁تياري	-3797
▁ھا	-3798
▁men	-3799
▁مدت	-3800
▁جوڙجڪ	-3801
▁ذريعو	-3802
▁محبوب	-3803
▁نتيجا	-3804
▁روڪ	-3805
▁ڇڏڻ	-3806
▁روڪڻ	-3807
▁وقتي	-3808
▁معاشي	-3809
▁وڌائي	-3810
روف	-3811
▁ارك	-3812
▁صنع	-3813
▁برقي	-3814
▁روزي	-3815
▁بردست	-3816
▁يافته	-3817
▁Th	-3818
▁وک	-3819
▁سادي	-3820
▁اڳيون	-3821
▁رجحان	-3822
▁تڪر	-3823
▁كلم	-3824
▁عشان	-3825
▁پيچي	-3826
▁وحاني	-3827
▁خلص	-3828
▁ودي	-3829
▁جيئر	-3830
▁پيئي	-3831
▁داخ	-3832
▁اهڙن	-3833
▁رھيو	-3834
▁la	-3835
▁شيخ	-3836
▁ڏيان	-3837
▁کاڌو	-3838
▁ريلوي	-3839
▁لائيٽ	-3840
▁الس	-3841
▁اپل	-3842
▁لاسٽ	-3843
▁ڪپڙا	-3844
▁فائدي	-3845
▁پيچيد	-3846
di	-3847
ma	-3848
▁شھر	-3849
▁جادو	-3850
▁دوري	-3851
▁عراق	-3852
▁ائيٽن	-3853
▁تڪرار	-3854
ته	-3855
يوس	-3856
▁اغ	-3857
▁موڙ	-3858
▁گھڻي	-3859
شا	-3860
▁ڷ	-3861
▁ارٽ	-3862
▁برس	-3863
▁تري	-3864
▁طرز	-3865
▁فين	-3866
▁كتي	-3867
▁ميم	-3868
▁ونه	-3869
▁ڙهندڙ	-3870
ذير	-3871
▁سرڪار	-3872
▁وڃائي	-3873
كس	-3874
▁گاهه	-3875
▁گهرن	-3876
▁سيڪنڊ	-3877
▁وڊيوز	-3878
طيف	-3879
▁نجم	-3880
▁هنج	-3881
▁چرا	-3882
▁آھيو	-3883
▁ارين	-3884
▁يڪنگ	-3885
▁جنب	-3886
▁ربت	-3887
▁شفا	-3888
▁مسلم	-3889
▁ڳاڙه	-3890
▁ٽڪ	-3891
▁اڻا	-3892
▁کير	-3893
▁هارڊ	-3894
▁سگھون	-3895
▁واقعن	-3896
بوت	-3897
▁ريج	-3898
▁سپر	-3899
▁لام	-3900
▁ياه	-3901
▁عندك	-3902
▁لائق	-3903
▁ft	-3904
▁جُ	-3905
▁هلڻ	-3906
▁چان	-3907
▁سينٽ	-3908
▁يارو	-3909
▁داخلا	-3910
▁رساله	-3911
▁ولاءِ	-3912
▁پرواز	-3913
▁پپ	-3914
▁يمپ	-3915
▁دولت	-3916
▁لطيف	-3917
▁وڃان	-3918
▁وليءَ	-3919
▁طين	-3920
▁نجھ	-3921
▁يڪٽ	-3922
▁ٽان	-3923
▁80	-3924
▁آآآ	-3925
▁جبل	-3926
▁موڪ	-3927
▁يهه	-3928
▁ٻيٽ	-3929
▁ٻُڌ	-3930
▁کلي	-3931
▁تعجب	-3932
▁جهڙا	-3933
▁ڪهڙا	-3934
▁سونهن	-3935
ڌار	-3936
▁ُر	-3937
▁اٻي	-3938
▁پٽي	-3939
▁ميشه	-3940
▁نصيب	-3941
▁تعليق	-3942
▁سنوار	-3943
▁}	-3944
▁شتر	-3945
▁موڊ	-3946
▁تابع	-3947
▁فائر	-3948
▁يليا	-3949
▁انح	-3950
▁تها	-3951
▁نيد	-3952
▁سکيا	-3953
▁ُنهن	-3954
▁گهرج	-3955
▁رهائش	-3956
▁مصروف	-3957
▁قبر	-3958
▁مول	-3959
▁نفي	-3960
▁هرو	-3961
▁پبل	-3962
▁سارا	-3963
▁هائوس	-3964
هرا	-3965
▁هوم	-3966
▁پنڌ	-3967
▁صراح	-3968
مار	-3969
▁lin	-3970
▁ليب	-3971
▁مٿين	-3972
▁نڪتو	-3973
▁اوچتو	-3974
پور	-3975
▁qu	-3976
▁ڪڻ	-3977
▁con	-3978
▁نعم	-3979
▁نيٺ	-3980
▁ئونسل	-3981
▁ڏيندڙ	-3982
▁اء	-3983
▁ائم	-3984
▁حدي	-3985
▁ديس	-3986
▁نقط	-3987
▁ويڪ	-3988
▁ھئا	-3989
▁انڊيا	-3990
▁بدلائ	-3991
▁رياضي	-3992
▁فريڪا	-3993
▁مقصدن	-3994
▁کوليو	-3995
▁pa	-3996
▁هيل	-3997
▁خاني	-3998
▁فاصل	-3999
▁يوان	-4000
▁انگيز	-4001
si	-4002
▁so	-4003
▁هَ	-4004
▁عاش	-4005
▁يزر	-4006
▁انجڻ	-4007
▁رکيل	-4008
▁ااااي	-4009
▁موڪلي	-4010
▁وفيسر	-4011
ID	-4012
▁اٿي	-4013
▁وڙه	-4014
▁شعبي	-4015
▁لکند	-4016
▁ڀائر	-4017
▁ڪرين	-4018
▁آڻيند	-4019
▁انسٽا	-4020
▁مآ	-4021
▁اکر	-4022
▁منح	-4023
▁ويت	-4024
▁ندگي	-4025
▁روائي	-4026
▁لاسٽڪ	-4027
▁هڙيون	-4028
▁وزاني	-4029
دد	-4030
▁تنگ	-4031
▁چيف	-4032
▁ڦير	-4033
▁گهرا	-4034
ميم	-4035
▁il	-4036
▁انڌ	-4037
▁ڊيم	-4038
▁فورم	-4039
▁منٽن	-4040
▁ئب	-4041
▁لٽي	-4042
▁آندو	-4043
▁اياز	-4044
▁ترجي	-4045
▁پالڻ	-4046
▁گهري	-4047
بول	-4048
▁حسب	-4049
▁ظلم	-4050
▁يتن	-4051
▁استح	-4052
▁بيٺو	-4053
▁بررسي	-4054
▁sp	-4055
▁(1)	-4056
▁بٽڻ	-4057
▁زون	-4058
▁هاڙ	-4059
▁ڊسپ	-4060
▁ڻيو	-4061
▁اڻان	-4062
▁آهستي	-4063
▁ايڪسپ	-4064
▁حصيدا	-4065
▁ڪميٽي	-4066
▁خب	-4067
▁ڇڪ	-4068
▁ميچ	-4069
▁نگي	-4070
▁پنجن	-4071
wa	-4072
▁جھڙ	-4073
▁شنگ	-4074
▁لئه	-4075
▁لڪا	-4076
▁اُهو	-4077
▁سادو	-4078
▁بازار	-4079
▁ملندي	-4080
▁هٿيار	-4081
▁هڙيءَ	-4082
▁يٿ	-4083
▁وسو	-4084
▁حرڪت	-4085
▁حملو	-4086
▁ذهني	-4087
▁پاسو	-4088
▁سپورٽ	-4089
يوم	-4090
▁کرد	-4091
▁ڪاغ	-4092
▁طالب	-4093
▁عباد	-4094
▁فيشن	-4095
▁خبرون	-4096
▁رکندو	-4097
▁ميوزڪ	-4098
مين	-4099
▁آڇ	-4100
▁رار	-4101
▁شڪا	-4102
▁ضرب	-4103
▁عڪس	-4104
▁چينل	-4105
▁ڪيان	-4106
▁ڀرسان	-4107
▁لچ	-4108
▁جنٽ	-4109
▁قاض	-4110
▁ويزن	-4111
▁ائڪ	-4112
▁گول	-4113
▁ھين	-4114
▁دفعي	-4115
▁ياسين	-4116
▁جوڳ	-4117
▁عذاب	-4118
▁يشيا	-4119
▁جارتي	-4120
▁صنعتي	-4121
▁خطرو	-4122
▁زمرو	-4123
▁ترجيح	-4124
▁تقرير	-4125
▁چوندو	-4126
▁;	-4127
▁نوي	-4128
▁ڪاغذ	-4129
▁رڙ	-4130
▁pro	-4131
▁چيم	-4132
▁اٿئي	-4133
▁بيهي	-4134
▁رئيس	-4135
▁ويٺي	-4136
▁سڀاڻي	-4137
▁منحصر	-4138
▁bi	-4139
▁فنڪ	-4140
▁نتق	-4141
▁يلز	-4142
▁ڊيل	-4143
▁دگار	-4144
▁ڳنڍيل	-4145
صوب	-4146
▁دوم	-4147
▁هائ	-4148
▁وڌڻ	-4149
▁پتو	-4150
▁لاهي	-4151
▁مائٽ	-4152
▁متحد	-4153
▁مطال	-4154
▁پائي	-4155
▁فنڪشن	-4156
▁منصوب	-4157
▁نظوري	-4158
▁fi	-4159
▁ڻو	-4160
▁سيم	-4161
▁عرض	-4162
▁ڀيڻ	-4163
▁رکون	-4164
▁قدرت	-4165
▁وارث	-4166
▁رمايو	-4167
▁طالبو	-4168
▁مرڻ	-4169
▁هيم	-4170
▁گار	-4171
▁شيءَ	-4172
▁وزانو	-4173
▁no	-4174
▁حظ	-4175
▁سس	-4176
▁لوب	-4177
▁مٽي	-4178
▁جرمن	-4179
▁مادي	-4180
▁موثر	-4181
▁هفتن	-4182
▁ينٽي	-4183
▁خلاقي	-4184
▁سيکار	-4185
▁چوڌار	-4186
ريت	-4187
▁تُ	-4188
▁شپ	-4189
▁اسي	-4190
▁بشر	-4191
▁جنن	-4192
▁ماهي	-4193
▁مقام	-4194
▁بيمار	-4195
▁ريٽري	-4196
ٽيف	-4197
▁ئج	-4198
▁ذخ	-4199
▁كف	-4200
▁ڪرڻي	-4201
▁اندار	-4202
▁بعدين	-4203
▁عاملن	-4204
ثير	-4205
▁لڙ	-4206
▁نڀ	-4207
▁ڪڙ	-4208
▁شاپ	-4209
▁لمح	-4210
▁لور	-4211
▁عادت	-4212
▁رادري	-4213
▁مظاهر	-4214
▁ضع	-4215
▁مٽ	-4216
▁چا	-4217
▁سيل	-4218
▁ٽوڙ	-4219
▁وئين	-4220
▁اصلاح	-4221
▁سرٽيف	-4222
▁لازمن	-4223
▁وڌندڙ	-4224
▁ڪلاڪن	-4225
ظا	-4226
▁et	-4227
▁هآ	-4228
▁جهه	-4229
▁ريون	-4230
▁عاشق	-4231
▁ڪاوڙ	-4232
▁معيشت	-4233
▁نسانن	-4234
▁طئي	-4235
▁مشق	-4236
▁چئن	-4237
▁نسبت	-4238
▁پذير	-4239
▁ڪلام	-4240
▁تنقيد	-4241
لوڊ	-4242
▁هذي	-4243
▁وپن	-4244
▁زياد	-4245
▁پيرن	-4246
▁قسمتي	-4247
▁۰	-4248
لاف	-4249
▁الح	-4250
▁فضل	-4251
▁ليز	-4252
▁ڀائ	-4253
▁تشدد	-4254
▁هائي	-4255
▁خارجي	-4256
▁ذريعن	-4257
▁رَ	-4258
▁صلى	-4259
▁قيد	-4260
▁حوصل	-4261
▁نامه	-4262
▁وجودگ	-4263
سيم	-4264
▁ميه	-4265
▁وٽو	-4266
▁وڪيو	-4267
▁ارادو	-4268
▁برسات	-4269
▁شهرين	-4270
▁ناقاب	-4271
▁ونلوڊ	-4272
ne	-4273
▁دس	-4274
▁ڇڙ	-4275
▁رائع	-4276
▁علمي	-4277
▁مضحك	-4278
▁يييي	-4279
▁انتظا	-4280
▁لغ	-4281
▁جيب	-4282
▁يوه	-4283
▁گنج	-4284
ؤر	-4285
ناڪ	-4286
▁عث	-4287
▁اُھ	-4288
▁سمه	-4289
▁مزا	-4290
▁هدي	-4291
▁ولد	-4292
▁يارڪ	-4293
▁سوالن	-4294
▁ڀرپور	-4295
▁90	-4296
▁Ch	-4297
▁نچ	-4298
▁ڇل	-4299
▁نجها	-4300
▁تحرير	-4301
▁طرناڪ	-4302
▁مڪاني	-4303
▁نصوبن	-4304
▁ڏسندي	-4305
ڪيل	-4306
▁جوش	-4307
▁خوي	-4308
▁اسٽيل	-4309
▁سڃاتو	-4310
▁فائدا	-4311
▁ٻولين	-4312
▁حلى	-4313
▁اُتي	-4314
▁جامع	-4315
▁دائر	-4316
▁ذخير	-4317
▁پاني	-4318
▁عبادت	-4319
▁ri	-4320
▁فيك	-4321
▁نصب	-4322
▁پڪڙ	-4323
▁ڪنڌ	-4324
▁باڪس	-4325
▁مرضي	-4326
▁نڪرڻ	-4327
▁متحرڪ	-4328
▁(2	-4329
▁بندر	-4330
▁ليڪس	-4331
▁مقبول	-4332
وت	-4333
ميرا	-4334
▁پڙھ	-4335
▁حيات	-4336
▁ڏسند	-4337
▁ئيندي	-4338
▁خوراڪ	-4339
▁نهايت	-4340
▁ورهين	-4341
▁وآ	-4342
▁امل	-4343
▁ٽرڪ	-4344
▁ڪاٺ	-4345
▁آھيون	-4346
▁ئميرا	-4347
▁سانيت	-4348
▁Me	-4349
▁ٿڪ	-4350
▁آرٽ	-4351
▁بلڪه	-4352
▁قريبا	-4353
▁مثالي	-4354
▁مرحله	-4355
▁تبا	-4356
▁ورج	-4357
▁ليون	-4358
▁ترميم	-4359
▁وليون	-4360
▁ماڳ	-4361
▁ڏهه	-4362
▁اڏام	-4363
▁مانس	-4364
▁چمڙي	-4365
▁عتبار	-4366
▁ڪناري	-4367
▁زوج	-4368
▁ارائ	-4369
▁کنيو	-4370
کو	-4371
▁·	-4372
طان	-4373
▁sta	-4374
▁ولپ	-4375
▁اديب	-4376
▁بچائي	-4377
▁ex	-4378
▁ڇر	-4379
▁اخذ	-4380
▁صبر	-4381
▁ڪڙي	-4382
▁ئيشن	-4383
▁هندڙ	-4384
▁ينءَ	-4385
▁ابليت	-4386
▁نتقلي	-4387
▁هلائي	-4388
▁2-	-4389
▁70	-4390
▁ابت	-4391
▁طوف	-4392
▁بالغ	-4393
▁هاري	-4394
▁هتان	-4395
▁ڊيسڪ	-4396
▁of	-4397
▁عض	-4398
▁هٽ	-4399
▁بزر	-4400
▁شرم	-4401
▁وست	-4402
▁وما	-4403
▁يڪا	-4404
▁ٽرم	-4405
▁ڏها	-4406
▁ڪتا	-4407
▁خانو	-4408
▁خطري	-4409
▁دفعا	-4410
▁مغرب	-4411
▁23	-4412
▁ve	-4413
▁بك	-4414
▁ديش	-4415
▁موب	-4416
▁رھيا	-4417
▁مستح	-4418
صوم	-4419
▁ry	-4420
▁سئو	-4421
▁ڊيو	-4422
▁able	-4423
▁حديث	-4424
▁حضور	-4425
▁ساڻس	-4426
▁ڊگهو	-4427
▁نھيءَ	-4428
▁ووووو	-4429
▁وڌايو	-4430
▁du	-4431
▁ph	-4432
▁آم	-4433
▁tor	-4434
▁بيل	-4435
▁زيد	-4436
▁كين	-4437
▁ائتي	-4438
▁اٽڪل	-4439
▁سهڻي	-4440
▁قبضو	-4441
▁اليوم	-4442
▁طوفان	-4443
▁ماهرن	-4444
▁نظارو	-4445
▁يونان	-4446
▁5.	-4447
▁جشن	-4448
▁يتي	-4449
▁بليو	-4450
▁ناھي	-4451
▁حصا	-4452
▁خيل	-4453
▁گند	-4454
▁بنات	-4455
▁جماعت	-4456
▁28	-4457
▁dh	-4458
▁رل	-4459
▁ity	-4460
▁عالي	-4461
▁كثير	-4462
▁معاف	-4463
▁سگهيا	-4464
▁فارسي	-4465
▁^^	-4466
▁كس	-4467
▁الك	-4468
▁حتر	-4469
▁دؤر	-4470
▁فزا	-4471
▁پکڙ	-4472
▁ثبوت	-4473
▁شريڪ	-4474
▁سرهند	-4475
▁شاخ	-4476
▁ڪتي	-4477
▁ٽائيم	-4478
▁ۈ	-4479
▁رڊ	-4480
▁اتل	-4481
▁صنف	-4482
▁لڳل	-4483
▁ڊڪٽ	-4484
▁ڏوه	-4485
▁اندا	-4486
▁تعال	-4487
▁ستار	-4488
▁سختي	-4489
▁ريڊيو	-4490
▁زائين	-4491
▁عاشري	-4492
▁يماني	-4493
▁Su	-4494
▁رأ	-4495
▁لر	-4496
▁اده	-4497
▁لكم	-4498
▁ڪمن	-4499
▁اپيل	-4500
▁باني	-4501
▁خوبي	-4502
▁مزدور	-4503
▁ke	-4504
▁ڪث	-4505
▁معك	-4506
▁ملو	-4507
▁کنڊ	-4508
▁وڌند	-4509
▁وڪري	-4510
▁يارا	-4511
▁معصوم	-4512
▁ڏند	-4513
▁حيدر	-4514
▁خارج	-4515
▁ڊومين	-4516
wi	-4517
▁Ca	-4518
▁ائتو	-4519
▁فيلڊ	-4520
▁مريم	-4521
▁فرادي	-4522
▁يامبر	-4523
ئس	-4524
▁اذ	-4525
▁ذر	-4526
▁ڌم	-4527
▁رمي	-4528
▁بلاڪ	-4529
▁همرا	-4530
▁ويٺا	-4531
▁ڪيئي	-4532
▁ارليا	-4533
▁حترام	-4534
▁جَ	-4535
▁زل	-4536
▁شغ	-4537
▁بچڻ	-4538
▁ڄڻا	-4539
▁تباهه	-4540
▁قربان	-4541
▁پڙهند	-4542
▁نيجر	-4543
▁ملندو	-4544
▁Ho	-4545
▁قق	-4546
▁لٿ	-4547
▁رڪا	-4548
▁همڻ	-4549
▁ڪيج	-4550
▁پائڻ	-4551
▁ٿورڙ	-4552
▁علامه	-4553
▁قاعده	-4554
▁جوا	-4555
▁سمي	-4556
▁ويٽ	-4557
▁آخرين	-4558
▁مجهند	-4559
▁نتيجن	-4560
▁آڏو	-4561
▁ائر	-4562
▁ائش	-4563
▁برن	-4564
▁جڳه	-4565
▁شفت	-4566
▁اختي	-4567
▁رينج	-4568
▁جس	-4569
▁نح	-4570
▁Awa	-4571
▁ارم	-4572
▁جيٽ	-4573
▁خطي	-4574
▁يكم	-4575
▁نامو	-4576
▁ننڍڙي	-4577
ائب	-4578
▁De	-4579
▁آرڪ	-4580
▁ماع	-4581
▁ڏهن	-4582
▁ڏٺا	-4583
▁ڪست	-4584
▁ڪلب	-4585
▁ياني	-4586
▁گهرو	-4587
▁التون	-4588
▁ختلاف	-4589
▁nk	-4590
▁أخ	-4591
▁اڀ	-4592
▁ڊا	-4593
▁ڙڪ	-4594
▁بيا	-4595
▁اسٽر	-4596
▁حالي	-4597
▁اسٽاڪ	-4598
▁نڪرند	-4599
فيد	-4600
▁سح	-4601
▁age	-4602
▁حمد	-4603
▁فاع	-4604
▁بهار	-4605
▁رندڙ	-4606
▁ليڪن	-4607
▁پريم	-4608
▁چايو	-4609
▁اسانج	-4610
▁كك	-4611
▁یک	-4612
▁اڪر	-4613
▁بني	-4614
▁رھي	-4615
▁مئن	-4616
▁يزا	-4617
▁ڏاڏ	-4618
▁ڙها	-4619
▁اعرف	-4620
▁اليه	-4621
▁ورتا	-4622
▁پڙهو	-4623
▁ڀريو	-4624
▁توسان	-4625
▁لڳائڻ	-4626
▁27	-4627
▁ليج	-4628
▁ڀاڱ	-4629
▁ڊسڪ	-4630
▁تازي	-4631
▁تضحك	-4632
▁دانش	-4633
▁ننڍو	-4634
▁ٺهرا	-4635
▁ڏهاڪ	-4636
▁ڪريم	-4637
▁سياري	-4638
▁صحافي	-4639
▁صفائي	-4640
▁ے	-4641
▁."	-4642
▁ڄا	-4643
▁اڀر	-4644
▁سنه	-4645
▁كمل	-4646
▁منك	-4647
▁صفحو	-4648
▁تقسيم	-4649
▁زمائش	-4650
▁آزم	-4651
▁آڪس	-4652
▁سوس	-4653
▁عزم	-4654
▁يبت	-4655
▁انها	-4656
▁بزرگ	-4657
▁ورزن	-4658
▁پنجاب	-4659
mo	-4660
▁فى	-4661
▁Sin	-4662
▁gra	-4663
▁خلق	-4664
▁زهر	-4665
▁منا	-4666
▁نند	-4667
▁نگا	-4668
▁هينا	-4669
▁والو	-4670
▁چانه	-4671
▁روفائ	-4672
▁سردار	-4673
▁مونڊي	-4674
▁26	-4675
▁نيل	-4676
▁ورة	-4677
▁پهت	-4678
▁سرما	-4679
▁مقال	-4680
▁منتد	-4681
▁ومين	-4682
▁ڪورس	-4683
▁ددگار	-4684
▁مايوس	-4685
▁واقعو	-4686
▁۳	-4687
برا	-4688
▁شيد	-4689
▁عليك	-4690
▁ياڻي	-4691
▁وٽيوب	-4692
▁يالله	-4693
▁ٺاهيل	-4694
▁ڪيميا	-4695
▁Pa	-4696
▁iz	-4697
▁تبص	-4698
▁ريگ	-4699
▁مزي	-4700
▁مڪي	-4701
▁يڻو	-4702
▁پلس	-4703
▁ment	-4704
▁ارٽر	-4705
▁تسلم	-4706
▁دارا	-4707
▁شرطن	-4708
▁فلٽر	-4709
▁مفيد	-4710
▁بدي	-4711
▁حيد	-4712
▁هيت	-4713
▁ڙيل	-4714
▁اھڙي	-4715
▁ليئر	-4716
▁وازن	-4717
▁پيپل	-4718
▁ڊرام	-4719
▁مستقل	-4720
▁ِر	-4721
▁sub	-4722
▁تلا	-4723
▁حبت	-4724
▁وول	-4725
▁ريئر	-4726
▁ريال	-4727
▁گهٽتا	-4728
▁آت	-4729
▁تأ	-4730
▁عيش	-4731
▁كذا	-4732
▁غائب	-4733
▁نوار	-4734
▁وهڪر	-4735
▁يگرن	-4736
▁شڪايت	-4737
▁شل	-4738
▁ڏڪ	-4739
▁بنگ	-4740
▁مٿا	-4741
▁نيڻ	-4742
▁انوي	-4743
▁عملن	-4744
▁عيون	-4745
▁نقطي	-4746
▁تبصرو	-4747
▁رهنما	-4748
▁سپريم	-4749
de	-4750
▁٠	-4751
▁ٽا	-4752
▁ارض	-4753
▁زيو	-4754
▁شرف	-4755
▁دارت	-4756
▁فيها	-4757
▁همراه	-4758
موع	-4759
▁عج	-4760
▁per	-4761
▁الم	-4762
▁خلي	-4763
▁شنو	-4764
▁چيئ	-4765
▁مارجي	-4766
▁mo	-4767
▁صري	-4768
▁لما	-4769
▁پيل	-4770
▁چڪر	-4771
▁رهجي	-4772
▁مجاز	-4773
▁پاڙي	-4774
▁اثرات	-4775
▁be	-4776
▁لٽ	-4777
▁ght	-4778
▁اھر	-4779
▁سنئ	-4780
▁حملي	-4781
▁سومر	-4782
▁مشكور	-4783
▁نهاري	-4784
▁نيٽور	-4785
▁هچائي	-4786
▁يدائش	-4787
▁ڪثريت	-4788
▁der	-4789
▁ent	-4790
▁جهل	-4791
▁ناب	-4792
▁ڪيڏ	-4793
▁الناس	-4794
▁سربرا	-4795
▁واسطو	-4796
▁وچيند	-4797
مپ	-4798
▁یس	-4799
▁جنت	-4800
▁ظاه	-4801
▁همه	-4802
▁يڪو	-4803
▁ٽون	-4804
▁ديوا	-4805
▁ناصر	-4806
▁روانو	-4807
▁فرمان	-4808
▁پڙهيو	-4809
▁قلع	-4810
▁ملن	-4811
▁هئو	-4812
▁ڪرس	-4813
▁رڪنن	-4814
▁عادي	-4815
▁كمان	-4816
▁يننگ	-4817
▁چوان	-4818
▁سگھوٿ	-4819
▁طانيا	-4820
▁ظاهري	-4821
▁عاهدو	-4822
▁مجموع	-4823
OS	-4824
▁ڻا	-4825
▁all	-4826
▁دهي	-4827
▁مات	-4828
▁هيز	-4829
▁هيڊ	-4830
▁يڊٽ	-4831
▁مسٽر	-4832
▁وليد	-4833
▁يهار	-4834
▁بقا	-4835
▁فنا	-4836
▁ننگ	-4837
▁گڏج	-4838
▁ريزن	-4839
▁مليا	-4840
▁ونئن	-4841
▁خرابي	-4842
▁طالعو	-4843
▁تَ	-4844
▁طق	-4845
▁وع	-4846
▁rch	-4847
▁سرچ	-4848
▁نڌن	-4849
▁هود	-4850
▁واچ	-4851
▁راحت	-4852
▁لندڙ	-4853
▁ڙهائي	-4854
▁Ta	-4855
▁ئل	-4856
▁؟؟؟	-4857
▁لاگ	-4858
▁لوا	-4859
▁صفحه	-4860
▁پرنٽ	-4861
▁هيٺان	-4862
▁ٺه	-4863
▁COV	-4864
▁جدو	-4865
▁رحد	-4866
▁رده	-4867
▁سما	-4868
▁پيج	-4869
▁ڌڻي	-4870
▁دائي	-4871
▁گورن	-4872
▁وبائي	-4873
▁يسائي	-4874
▁ڦر	-4875
▁لاڪ	-4876
▁حران	-4877
▁رمين	-4878
▁ساله	-4879
▁لمهم	-4880
co	-4881
▁Sa	-4882
▁فني	-4883
▁اتان	-4884
▁رهبر	-4885
▁پچ	-4886
▁مرض	-4887
▁هلو	-4888
▁ورت	-4889
▁رنگي	-4890
▁ڪارڻ	-4891
▁COVID	-4892
▁%	-4893
▁rd	-4894
▁كده	-4895
▁كره	-4896
▁همت	-4897
▁واه	-4898
▁ٽاپ	-4899
▁ائڪرو	-4900
▁روزگا	-4901
▁طالعي	-4902
سيل	-4903
▁ئف	-4904
▁حين	-4905
▁يين	-4906
▁ٽيل	-4907
ul	-4908
▁رڪي	-4909
▁سکر	-4910
▁كبر	-4911
▁جزا	-4912
▁شعب	-4913
▁هان	-4914
▁link	-4915
▁قلبي	-4916
▁يڪٽر	-4917
▁ڙهيل	-4918
▁وخ	-4919
▁بقي	-4920
▁ترم	-4921
▁ثار	-4922
▁غذا	-4923
▁هاء	-4924
▁ينر	-4925
▁ُها	-4926
▁چاھ	-4927
▁35	-4928
▁xt	-4929
▁حش	-4930
▁کم	-4931
▁الى	-4932
▁دلج	-4933
▁رشت	-4934
▁فوٽ	-4935
▁پيئ	-4936
▁ڊين	-4937
▁سيار	-4938
▁1-	-4939
▁ir	-4940
▁مود	-4941
▁هِن	-4942
▁يٽا	-4943
▁ٽيگ	-4944
▁لڳائي	-4945
▁cl	-4946
▁fa	-4947
▁دُ	-4948
▁ئيڊ	-4949
▁اڪو	-4950
▁اھا	-4951
▁بهت	-4952
▁سلط	-4953
▁ڻند	-4954
▁رواج	-4955
▁لانا	-4956
▁يتري	-4957
▁يڪسين	-4958
▁La	-4959
▁يچ	-4960
▁لطا	-4961
▁يتا	-4962
▁ماسڪ	-4963
▁سمجهو	-4964
▁موبائ	-4965
▁ٽري	-4966
▁روان	-4967
▁هڪار	-4968
▁ڪرائ	-4969
▁ابدار	-4970
▁پياري	-4971
▁شش	-4972
▁ڌڪ	-4973
▁ئوٽ	-4974
▁غار	-4975
▁پاپ	-4976
▁انيه	-4977
▁نهنج	-4978
▁کولي	-4979
▁مك	-4980
▁ڌو	-4981
▁داس	-4982
▁يبي	-4983
▁ھتي	-4984
▁مائي	-4985
▁un	-4986
▁کو	-4987
▁and	-4988
▁رتب	-4989
▁عطا	-4990
▁ماس	-4991
▁وشت	-4992
▁نامي	-4993
▁تبر	-4994
▁رسل	-4995
▁چشم	-4996
▁کيو	-4997
▁لامي	-4998
▁وڌائ	-4999
▁ڌيءَ	-5000
▁گرفت	-5001
وس	-5002
▁خلت	-5003
▁سكر	-5004
▁كلك	-5005
▁نشي	-5006
▁وسر	-5007
▁استر	-5008
▁انءِ	-5009
▁راهه	-5010
▁كلهم	-5011
▁بش	-5012
▁جهد	-5013
▁وڏين	-5014
▁يابي	-5015
▁سگھند	-5016
mi	-5017
▁Li	-5018
▁nn	-5019
▁يص	-5020
▁راس	-5021
▁سرد	-5022
▁Ro	-5023
▁ورز	-5024
▁سيلي	-5025
▁ئر	-5026
▁نث	-5027
▁ous	-5028
▁امد	-5029
▁بيه	-5030
▁فيڊ	-5031
▁پيء	-5032
▁ھار	-5033
▁دانه	-5034
▁راڄ	-5035
▁شتو	-5036
▁غاز	-5037
▁يلن	-5038
▁حرام	-5039
▁مارڪ	-5040
▁مناف	-5041
▁وائر	-5042
▁إن	-5043
▁حك	-5044
▁يآ	-5045
▁ook	-5046
▁صلي	-5047
▁وجھ	-5048
▁ينچ	-5049
▁لندا	-5050
▁مزاج	-5051
▁هُئي	-5052
▁يندس	-5053
▁شى	-5054
▁ھٿ	-5055
▁برگ	-5056
▁روج	-5057
▁قبض	-5058
▁نڪس	-5059
▁كتير	-5060
▁چڙهي	-5061
کر	-5062
▁ِڪ	-5063
▁(2)	-5064
▁اهه	-5065
▁لود	-5066
▁راڻو	-5067
▁سائن	-5068
▁لڊنگ	-5069
▁نائي	-5070
▁انداز	-5071
▁ای	-5072
▁حرا	-5073
▁ليت	-5074
▁بينا	-5075
▁us	-5076
▁اُٿ	-5077
▁توک	-5078
▁زاز	-5079
▁اشار	-5080
▁انور	-5081
▁ڪيشن	-5082
▁راڻيو	-5083
▁پرائي	-5084
▁جيئ	-5085
▁سمع	-5086
▁گهم	-5087
▁rn	-5088
▁يگه	-5089
▁يائي	-5090
▁نياڻي	-5091
▁3-	-5092
▁ff	-5093
▁po	-5094
▁wi	-5095
▁توا	-5096
▁وبا	-5097
▁پاڙ	-5098
▁کرن	-5099
▁گره	-5100
▁روئي	-5101
▁ماڻي	-5102
▁ريز	-5103
▁هيء	-5104
▁ونڊ	-5105
▁سڪين	-5106
▁ينيٽ	-5107
▁١	-5108
ore	-5109
▁رڻ	-5110
▁يدي	-5111
▁يسا	-5112
▁ينڪ	-5113
▁گيٽ	-5114
▁راڻي	-5115
▁سٽريٽ	-5116
▁do	-5117
▁ذب	-5118
▁وث	-5119
▁ايع	-5120
▁برف	-5121
▁رتي	-5122
▁عدد	-5123
▁يمن	-5124
▁حساس	-5125
▁استان	-5126
▁هك	-5127
▁بڻج	-5128
▁هاڪ	-5129
▁وءَ	-5130
▁ورو	-5131
▁نڪار	-5132
▁همين	-5133
▁راسر	-5134
▁پلائ	-5135
▁يقينا	-5136
▁ينگ	-5137
▁جاني	-5138
▁والا	-5139
▁راف	-5140
▁ُور	-5141
▁اسٽار	-5142
▁اخي	-5143
▁منه	-5144
▁هوڙ	-5145
▁ڏٺي	-5146
▁هوند	-5147
▁يڪٽري	-5148
▁ow	-5149
▁ُٽ	-5150
▁ٺي	-5151
▁ver	-5152
▁ادش	-5153
▁سچي	-5154
▁ليم	-5155
▁هيڙ	-5156
▁صوبي	-5157
▁نگريز	-5158
▁bo	-5159
▁اڏا	-5160
▁ستا	-5161
▁نجه	-5162
▁نهم	-5163
▁ڊيڪل	-5164
▁Sh	-5165
▁لَ	-5166
▁نيب	-5167
▁واڻ	-5168
▁ٽور	-5169
▁مران	-5170
▁جاپان	-5171
▁رمائي	-5172
▁مهمان	-5173
شو	-5174
▁cu	-5175
▁رِ	-5176
▁Pre	-5177
▁حاڪ	-5178
▁رول	-5179
▁نيس	-5180
▁اندي	-5181
▁لايو	-5182
▁گهار	-5183
▁تعالي	-5184
▁ثر	-5185
▁طل	-5186
▁The	-5187
▁افق	-5188
▁امت	-5189
▁سيت	-5190
▁نجي	-5191
▁احسا	-5192
▁معنا	-5193
▁To	-5194
▁وڇ	-5195
▁پاه	-5196
▁tter	-5197
▁29	-5198
▁Go	-5199
▁جِ	-5200
▁حط	-5201
▁ُل	-5202
▁ٽل	-5203
▁بعا	-5204
▁رزا	-5205
▁قبي	-5206
▁وءِ	-5207
▁يپر	-5208
▁کسي	-5209
▁اڙه	-5210
▁بان	-5211
▁ريپ	-5212
▁سجي	-5213
▁طرا	-5214
▁هتا	-5215
▁وهن	-5216
▁حاڪم	-5217
▁برطان	-5218
▁ورهائ	-5219
▁بوڪ	-5220
▁جاي	-5221
▁هني	-5222
▁ومن	-5223
▁ٿڌي	-5224
▁سندي	-5225
▁قطار	-5226
▁مدار	-5227
▁by	-5228
▁ائز	-5229
▁سست	-5230
▁ٻڌا	-5231
▁اسڪا	-5232
كه	-5233
▁پد	-5234
▁ain	-5235
▁تال	-5236
▁سنج	-5237
▁نڊو	-5238
▁هيرو	-5239
▁يرها	-5240
▁پت	-5241
▁ھم	-5242
▁ive	-5243
▁تقا	-5244
▁فرن	-5245
▁ولر	-5246
▁اسڪي	-5247
▁ٽريڪ	-5248
▁ڄاڻو	-5249
▁الائي	-5250
▁رعي	-5251
▁وها	-5252
▁وور	-5253
▁پڇڻ	-5254
▁پورا	-5255
▁مطالب	-5256
كي	-5257
▁sa	-5258
▁،،	-5259
▁كِ	-5260
▁pre	-5261
▁بائ	-5262
▁لاح	-5263
▁اريو	-5264
▁ڌاري	-5265
ود	-5266
▁حذ	-5267
▁نخ	-5268
▁ڙا	-5269
▁one	-5270
▁آور	-5271
▁ازم	-5272
▁تنا	-5273
▁ملت	-5274
▁يپس	-5275
▁بوتل	-5276
▁ندار	-5277
▁mb	-5278
▁yp	-5279
▁ئبو	-5280
▁بها	-5281
▁حري	-5282
▁رعا	-5283
▁سٽا	-5284
▁فلا	-5285
▁ونج	-5286
▁يلر	-5287
▁ڪتو	-5288
▁گلن	-5289
▁ريزي	-5290
▁ru	-5291
▁تظ	-5292
▁لھ	-5293
▁الب	-5294
▁اعدو	-5295
▁جيون	-5296
▁ستگي	-5297
▁ليشن	-5298
▁انب	-5299
▁مدل	-5300
▁وهر	-5301
▁يڊا	-5302
▁پڙه	-5303
▁ريري	-5304
▁۴	-5305
▁cr	-5306
▁ur	-5307
▁تِ	-5308
▁her	-5309
▁آيت	-5310
▁صدا	-5311
▁عرص	-5312
▁ونا	-5313
▁پھر	-5314
▁شاهي	-5315
▁٢	-5316
▁if	-5317
▁لأ	-5318
▁دول	-5319
▁صفا	-5320
▁نكم	-5321
▁نڪي	-5322
▁بيني	-5323
▁هيلو	-5324
▁ٽت	-5325
▁للي	-5326
▁لڪو	-5327
▁يبل	-5328
▁يرت	-5329
▁هستي	-5330
▁چهري	-5331
▁ia	-5332
▁چن	-5333
▁جبت	-5334
▁وٽن	-5335
▁پمپ	-5336
NT	-5337
▁א	-5338
▁(3	-5339
▁31	-5340
▁زڪ	-5341
▁ine	-5342
▁تير	-5343
▁اڻون	-5344
▁بندو	-5345
ره	-5346
▁ئا	-5347
▁يط	-5348
▁ڀو	-5349
▁اهر	-5350
▁صاب	-5351
▁صاد	-5352
▁ميت	-5353
▁وگو	-5354
▁يسو	-5355
▁ڪئن	-5356
▁گهي	-5357
▁ڪيبل	-5358
▁وشيءَ	-5359
ia	-5360
▁لپ	-5361
▁تاح	-5362
▁بادشا	-5363
▁्	-5364
▁45	-5365
▁od	-5366
▁بُ	-5367
▁شكر	-5368
▁هاا	-5369
▁وتا	-5370
▁يڏي	-5371
▁ٽيڊ	-5372
▁ناسي	-5373
▁ڏيون	-5374
are	-5375
ابند	-5376
▁ame	-5377
▁ديت	-5378
▁سمس	-5379
▁پڇي	-5380
▁ھجي	-5381
▁عيسي	-5382
▁نيون	-5383
▁پابند	-5384
▁دع	-5385
▁ُڇ	-5386
▁ٻا	-5387
▁ڪڪ	-5388
▁500	-5389
▁est	-5390
▁بري	-5391
▁بچي	-5392
▁ناچ	-5393
▁ائبر	-5394
▁صديق	-5395
▁فيئر	-5396
▁ئيندڙ	-5397
▁Ba	-5398
▁شف	-5399
▁اجل	-5400
▁بنج	-5401
▁ڪمال	-5402
▁US	-5403
▁صول	-5404
▁قصد	-5405
▁چاپ	-5406
▁گها	-5407
▁يريا	-5408
▁ub	-5409
▁ری	-5410
▁شار	-5411
▁ميٽ	-5412
▁وڳي	-5413
▁ندڙن	-5414
▁يوند	-5415
▁گرين	-5416
es	-5417
امل	-5418
▁da	-5419
▁زز	-5420
▁وٽا	-5421
▁چاه	-5422
▁●	-5423
▁جڻ	-5424
▁سڳ	-5425
▁200	-5426
▁ايي	-5427
▁مرت	-5428
un	-5429
▁gn	-5430
▁up	-5431
▁enc	-5432
▁man	-5433
▁معم	-5434
▁منو	-5435
▁هره	-5436
▁ڪنگ	-5437
▁احتي	-5438
▁رندي	-5439
▁رغ	-5440
▁hat	-5441
▁اجي	-5442
▁اڊا	-5443
▁رور	-5444
▁زخم	-5445
▁عذر	-5446
▁مسك	-5447
▁نھن	-5448
▁يٽي	-5449
▁ٽيو	-5450
▁عارف	-5451
▁فائد	-5452
▁پيرا	-5453
▁هس	-5454
▁آند	-5455
▁ابا	-5456
▁رند	-5457
▁مشا	-5458
▁هول	-5459
▁هيب	-5460
▁ونٽ	-5461
▁يجي	-5462
▁پرا	-5463
▁ڇهه	-5464
▁سروي	-5465
▁°	-5466
▁nce	-5467
▁ائج	-5468
▁ليك	-5469
▁پين	-5470
▁لمون	-5471
يف	-5472
▁يض	-5473
▁ڄي	-5474
▁out	-5475
▁لڪن	-5476
▁ناهه	-5477
▁گولي	-5478
▁معمول	-5479
ڇا	-5480
▁َس	-5481
▁ٺا	-5482
▁اوا	-5483
▁خشڪ	-5484
▁سئل	-5485
▁ستو	-5486
▁يرس	-5487
▁گوا	-5488
▁نياز	-5489
▁پيون	-5490
▁۵	-5491
▁؟!	-5492
▁يء	-5493
▁اقل	-5494
▁داع	-5495
▁شدت	-5496
▁نيپ	-5497
▁اوند	-5498
▁جنگي	-5499
▁£	-5500
▁Mo	-5501
▁راض	-5502
▁هرا	-5503
▁وزر	-5504
▁يمه	-5505
▁ٽلي	-5506
▁چئو	-5507
▁گهڙ	-5508
▁رمان	-5509
▁ns	-5510
▁هڙ	-5511
▁وأ	-5512
▁ڻن	-5513
▁شنا	-5514
▁فيت	-5515
▁ريڪا	-5516
▁يسين	-5517
▁ڪڏھن	-5518
▁رٽس	-5519
▁لچڪ	-5520
▁هها	-5521
▁واز	-5522
▁اسڪر	-5523
▁غيره	-5524
▁ئيندو	-5525
▁ماريو	-5526
▁۹	-5527
▁طف	-5528
▁بست	-5529
▁جهو	-5530
▁فتو	-5531
▁ميڊ	-5532
▁ِين	-5533
▁ڏور	-5534
▁ڪوٺ	-5535
▁ترسيل	-5536
one	-5537
▁use	-5538
▁انئ	-5539
▁جيد	-5540
▁سرت	-5541
▁موم	-5542
▁رپيا	-5543
▁سنگت	-5544
▁ميٽي	-5545
▁تظامي	-5546
CL	-5547
▁أي	-5548
▁دب	-5549
▁زد	-5550
▁ڌي	-5551
▁کس	-5552
▁ابر	-5553
▁بحر	-5554
▁اااي	-5555
▁رياض	-5556
▁فريق	-5557
▁ميونس	-5558
▁wa	-5559
▁يڏ	-5560
▁درا	-5561
▁ٽار	-5562
▁ڪتب	-5563
▁ڪتن	-5564
▁مادر	-5565
▁وڙهي	-5566
▁ڪوڪي	-5567
ub	-5568
▁36	-5569
▁سمجه	-5570
وز	-5571
▁um	-5572
▁أل	-5573
▁هب	-5574
▁ائد	-5575
▁اوب	-5576
▁رمض	-5577
▁نده	-5578
▁ٿڌو	-5579
▁ڳائڻ	-5580
▁ئيندا	-5581
▁زع	-5582
▁ڀت	-5583
▁Twi	-5584
▁الش	-5585
▁ترڪ	-5586
▁رجع	-5587
▁طبع	-5588
▁نگل	-5589
▁وبل	-5590
▁يئڻ	-5591
▁زوال	-5592
▁ناسب	-5593
▁ٽيءَ	-5594
ll	-5595
▁ure	-5596
▁جاب	-5597
▁زاد	-5598
▁ونگ	-5599
▁نينگر	-5600
▁وی	-5601
▁بلڊ	-5602
▁سچو	-5603
▁قرا	-5604
▁قرب	-5605
▁رستن	-5606
▁ې	-5607
▁ble	-5608
▁تخت	-5609
▁ساه	-5610
▁نڪا	-5611
▁ودا	-5612
▁ياء	-5613
▁ڙڪا	-5614
▁رستا	-5615
▁زيشن	-5616
▁كلها	-5617
▁لنگه	-5618
▁ملائي	-5619
▁Sp	-5620
▁ذي	-5621
▁باش	-5622
▁ربع	-5623
▁سٽس	-5624
▁شئي	-5625
▁وندي	-5626
▁پبلڪ	-5627
▁رگ	-5628
▁نک	-5629
▁يئ	-5630
▁رڪس	-5631
▁سدا	-5632
▁پنگ	-5633
▁ڇڪڻ	-5634
▁رويي	-5635
▁لوج	-5636
▁يوس	-5637
▁پيچ	-5638
▁چيس	-5639
▁مام	-5640
▁نڀا	-5641
▁چيل	-5642
▁ائٽي	-5643
▁نظري	-5644
▁An	-5645
▁نڍ	-5646
▁ڇت	-5647
▁tra	-5648
▁ula	-5649
▁ارڊ	-5650
▁ايز	-5651
▁فرم	-5652
▁لڳن	-5653
▁ميش	-5654
▁گلي	-5655
▁ڏياري	-5656
▁HT	-5657
▁بِ	-5658
▁Pro	-5659
▁منص	-5660
▁ودو	-5661
▁وسٽ	-5662
▁يگز	-5663
▁گان	-5664
▁ادائ	-5665
▁گلاب	-5666
▁ائيءَ	-5667
▁چونڊي	-5668
زر	-5669
▁Sea	-5670
▁اكم	-5671
▁فنڊ	-5672
▁لڪي	-5673
▁هڻو	-5674
▁وٺن	-5675
▁ارون	-5676
▁پِ	-5677
▁ess	-5678
▁اتم	-5679
▁ثير	-5680
▁زيل	-5681
▁سٺا	-5682
▁نتا	-5683
▁ڀٽو	-5684
▁form	-5685
▁انيا	-5686
▁روري	-5687
يني	-5688
▁هپ	-5689
▁آلو	-5690
▁رير	-5691
▁ستن	-5692
▁سود	-5693
▁هوٽ	-5694
▁پيس	-5695
▁ڀلو	-5696
▁چيٽ	-5697
▁ميري	-5698
▁نازل	-5699
sa	-5700
آآ	-5701
ابل	-5702
▁go	-5703
▁وھ	-5704
▁New	-5705
▁حلي	-5706
▁ليف	-5707
▁مشن	-5708
▁يشي	-5709
▁يٺي	-5710
▁ڏجي	-5711
lay	-5712
▁[.	-5713
▁اڍ	-5714
▁رث	-5715
▁تور	-5716
▁راء	-5717
▁اسٽا	-5718
▁مرور	-5719
▁ديوان	-5720
▁لى	-5721
▁شال	-5722
▁لمو	-5723
▁وون	-5724
▁يوٽ	-5725
▁تبصر	-5726
▁pt	-5727
▁ئو	-5728
▁ضد	-5729
▁لت	-5730
▁حفظ	-5731
▁ساني	-5732
يلت	-5733
▁ٻو	-5734
▁جين	-5735
▁رقي	-5736
▁لاٽ	-5737
▁ڪيپ	-5738
▁اڪيل	-5739
▁يرين	-5740
كت	-5741
▁ा	-5742
▁خذ	-5743
▁شئ	-5744
▁فح	-5745
▁ٽپ	-5746
▁ڙھ	-5747
▁احم	-5748
▁اھم	-5749
▁نڊا	-5750
▁گئس	-5751
▁دعوي	-5752
▁يلاپ	-5753
▁رباني	-5754
▁مهارت	-5755
▁32	-5756
▁شک	-5757
▁ظر	-5758
▁غر	-5759
▁َـ	-5760
▁ٻج	-5761
▁کپ	-5762
▁جھو	-5763
▁دلي	-5764
▁سڄڻ	-5765
▁نيت	-5766
▁پلگ	-5767
▁چال	-5768
▁bu	-5769
▁iOS	-5770
▁ted	-5771
▁tin	-5772
▁ئسن	-5773
▁نشا	-5774
▁يران	-5775
▁پروف	-5776
▁شھ	-5777
▁oin	-5778
▁wor	-5779
▁شاھ	-5780
▁لڪل	-5781
▁يوو	-5782
▁ٽول	-5783
▁ڇهن	-5784
▁ڪوئ	-5785
▁اسڪو	-5786
▁هيان	-5787
▁ينهن	-5788
▁اخلاق	-5789
▁❤	-5790
▁ريب	-5791
▁ارات	-5792
▁كد	-5793
▁لج	-5794
▁اسك	-5795
▁بجي	-5796
▁دنا	-5797
▁قوي	-5798
▁لهم	-5799
▁ماٺ	-5800
▁ڏيک	-5801
▁استن	-5802
▁حليل	-5803
▁دلين	-5804
▁زادي	-5805
▁فضيلت	-5806
▁6.	-5807
▁رص	-5808
▁اسه	-5809
▁سوئ	-5810
▁نزل	-5811
▁ورچ	-5812
▁وهو	-5813
▁وليو	-5814
▁ينيو	-5815
▁ينڊر	-5816
▁ڪوٺي	-5817
▁yo	-5818
▁جرا	-5819
▁رجن	-5820
▁لاڙ	-5821
▁يمي	-5822
▁ھلي	-5823
▁دانن	-5824
خا	-5825
▁ِل	-5826
▁برچ	-5827
▁سڪي	-5828
▁معه	-5829
▁وڃائ	-5830
▁رمضان	-5831
▁Na	-5832
▁تک	-5833
▁لُ	-5834
▁ُڪ	-5835
▁چُ	-5836
▁عدم	-5837
▁فال	-5838
▁زيور	-5839
▁ڊڪٽس	-5840
lu	-5841
▁ho	-5842
▁حمت	-5843
▁هنر	-5844
▁التو	-5845
▁جايو	-5846
▁قريب	-5847
▁اريند	-5848
▁بينڪن	-5849
ca	-5850
▁♥	-5851
▁2)	-5852
▁آمر	-5853
▁ابد	-5854
▁ريئ	-5855
▁ويژ	-5856
▁داره	-5857
▁سگهج	-5858
▁ڻندڙ	-5859
▁र	-5860
▁4-	-5861
▁تى	-5862
▁سد	-5863
▁لش	-5864
▁نی	-5865
▁ابن	-5866
▁دني	-5867
▁ساس	-5868
▁نجر	-5869
▁ڏھن	-5870
▁ڪول	-5871
▁ڪڍڻ	-5872
▁الات	-5873
▁امور	-5874
▁اڻيو	-5875
▁راجا	-5876
▁يشنل	-5877
▁ضم	-5878
▁بدن	-5879
▁ساد	-5880
▁محد	-5881
▁نڊل	-5882
▁ينك	-5883
▁ڀڄي	-5884
▁مراد	-5885
▁گناه	-5886
گرم	-5887
▁بَ	-5888
▁اجر	-5889
▁صوف	-5890
▁مٿس	-5891
▁وڻن	-5892
▁کٽي	-5893
▁رولي	-5894
▁سڳور	-5895
▁ديوتا	-5896
▁ُو	-5897
▁احل	-5898
▁اِن	-5899
▁تمي	-5900
▁رهه	-5901
▁ريه	-5902
▁هيڏ	-5903
▁يله	-5904
▁پتي	-5905
▁دٻاء	-5906
▁قيدي	-5907
▁wh	-5908
▁نُ	-5909
▁يَ	-5910
▁احب	-5911
▁فيد	-5912
▁لبر	-5913
▁سنجي	-5914
▁صادق	-5915
▁ٽايو	-5916
▁اهيند	-5917
▁سرگرم	-5918
▁گرافي	-5919
EM	-5920
وق	-5921
▁Ad	-5922
▁تڙ	-5923
▁خلو	-5924
▁فرو	-5925
▁لمي	-5926
▁ناھ	-5927
▁نشر	-5928
▁نجات	-5929
▁ڏيند	-5930
▁rea	-5931
▁تست	-5932
▁جري	-5933
▁شرا	-5934
▁عظم	-5935
▁ھنن	-5936
▁جمعي	-5937
▁جپان	-5938
▁راجع	-5939
▁مهينو	-5940
▁مڻ	-5941
▁می	-5942
▁هاد	-5943
▁يزن	-5944
▁ڪائي	-5945
▁اصلات	-5946
ir	-5947
▁(4	-5948
▁Da	-5949
▁ڏو	-5950
▁ئجي	-5951
▁ادت	-5952
▁تبي	-5953
▁سهي	-5954
▁لنا	-5955
▁وڪا	-5956
▁ڪشن	-5957
▁دوزخ	-5958
ep	-5959
▁fe	-5960
▁سٺ	-5961
▁برت	-5962
▁رسٽ	-5963
▁گال	-5964
▁وريون	-5965
▁(3)	-5966
▁جهي	-5967
▁حذف	-5968
▁سکي	-5969
▁فرما	-5970
▁Fa	-5971
▁tc	-5972
▁تغ	-5973
▁هز	-5974
▁رجي	-5975
▁سسٽ	-5976
▁سکو	-5977
▁منگ	-5978
▁وٽس	-5979
▁ينز	-5980
▁يهن	-5981
▁يڊم	-5982
▁گون	-5983
▁شاهد	-5984
▁ميلي	-5985
ua	-5986
▁اقا	-5987
▁بيع	-5988
▁ساب	-5989
▁محت	-5990
▁ڪلي	-5991
▁هارو	-5992
▁اريون	-5993
▁مقابل	-5994
ڌا	-5995
▁ki	-5996
▁تط	-5997
▁ظه	-5998
▁ٻر	-5999
▁بچت	-6000
▁يگا	-6001
▁اغوا	-6002
▁تاثر	-6003
▁تيون	-6004
▁سلسل	-6005
▁هيئن	-6006
▁ادشاه	-6007
ST	-6008
▁rr	-6009
▁ااي	-6010
▁لهج	-6011
▁هرن	-6012
▁واد	-6013
▁بزنس	-6014
▁نڊين	-6015
▁َل	-6016
▁SCL	-6017
▁tiv	-6018
▁زلز	-6019
▁صوب	-6020
▁لهو	-6021
▁يتو	-6022
▁اڳيا	-6023
▁رويو	-6024
▁نديم	-6025
▁نوڪر	-6026
▁اڱ	-6027
▁وظ	-6028
▁گس	-6029
▁art	-6030
▁اٽي	-6031
▁هيئ	-6032
▁وڪو	-6033
▁پنا	-6034
▁سيون	-6035
▁ليڊر	-6036
▁ميشن	-6037
▁SCLNT	-6038
▁انهيء	-6039
بس	-6040
▁1:	-6041
▁dis	-6042
▁فحش	-6043
▁ڪاش	-6044
▁يتون	-6045
▁يڪار	-6046
▁HD	-6047
▁We	-6048
▁ھت	-6049
▁لکت	-6050
▁ڪٽر	-6051
▁ڪٽڻ	-6052
ڻا	-6053
▁ئپ	-6054
▁ِت	-6055
▁ٽم	-6056
▁اقو	-6057
▁الث	-6058
▁ذائ	-6059
▁رجو	-6060
▁ضيا	-6061
▁پيڪ	-6062
▁ھيٺ	-6063
▁واڻي	-6064
▁ev	-6065
▁ژه	-6066
▁ائڊ	-6067
▁لوم	-6068
▁چائ	-6069
▁راني	-6070
▁Con	-6071
▁الٽ	-6072
▁ونز	-6073
▁اينا	-6074
▁ولاد	-6075
TE	-6076
▁€	-6077
▁لی	-6078
▁الق	-6079
▁زان	-6080
▁غرب	-6081
▁ورک	-6082
▁يوگ	-6083
▁ليءَ	-6084
▁پوره	-6085
▁ڪمائ	-6086
▁۸	-6087
ort	-6088
▁لِ	-6089
▁اوپ	-6090
▁جدت	-6091
▁ڄام	-6092
▁ڊول	-6093
▁ائيز	-6094
▁ائيو	-6095
▁بھتر	-6096
▁ريلي	-6097
▁واسي	-6098
▁يٽرو	-6099
▁انفرا	-6100
صف	-6101
▁IP	-6102
▁he	-6103
▁ol	-6104
▁نآ	-6105
▁سوم	-6106
▁لمن	-6107
▁گين	-6108
▁تقبل	-6109
▁طالع	-6110
▁ٽيوب	-6111
gi	-6112
od	-6113
▁**	-6114
▁يھ	-6115
▁ُن	-6116
▁چٽ	-6117
▁بڻي	-6118
▁جير	-6119
▁دها	-6120
▁راڳ	-6121
▁ساع	-6122
▁لفا	-6123
▁لوس	-6124
▁لوق	-6125
▁ميس	-6126
▁مٺي	-6127
▁ينيم	-6128
▁يوٽي	-6129
▁ئيدار	-6130
▁2:	-6131
▁Ra	-6132
▁op	-6133
▁ايڪ	-6134
▁رڪش	-6135
▁مرس	-6136
▁مزاح	-6137
▁يشان	-6138
▁Al	-6139
▁ga	-6140
▁آإ	-6141
▁وڳ	-6142
▁ئرس	-6143
▁تكم	-6144
▁راي	-6145
▁رسن	-6146
▁كانت	-6147
▁ٽولي	-6148
▁کاري	-6149
▁ڪامر	-6150
▁آمريڪ	-6151
▁Ti	-6152
▁سك	-6153
▁چت	-6154
▁حلا	-6155
▁ريع	-6156
▁ماي	-6157
▁کني	-6158
▁ازما	-6159
▁بيبي	-6160
▁ديده	-6161
▁نانگ	-6162
▁نگلي	-6163
▁ابتدا	-6164
▁ڪارخا	-6165
▁ڪوڪيز	-6166
▁بٽ	-6167
▁الخ	-6168
▁اڇو	-6169
▁اڳئ	-6170
▁جهن	-6171
▁طاق	-6172
▁لوو	-6173
▁دايت	-6174
▁پوڙه	-6175
▁id	-6176
▁ٺو	-6177
▁ٿئ	-6178
▁Bet	-6179
▁آبي	-6180
▁اقي	-6181
▁حجم	-6182
▁روٽ	-6183
▁زمر	-6184
▁طار	-6185
▁فلو	-6186
▁فيڪ	-6187
▁هجو	-6188
▁يدن	-6189
▁افيه	-6190
▁رامي	-6191
▁نيري	-6192
ru	-6193
▁حن	-6194
▁رود	-6195
▁ليڊ	-6196
▁ڀرڻ	-6197
▁ڪيڪ	-6198
▁زينب	-6199
▁So	-6200
▁ادم	-6201
▁بدو	-6202
▁تائ	-6203
▁دفن	-6204
▁شخصي	-6205
▁ينئر	-6206
▁آزمائ	-6207
▁8.	-6208
▁Am	-6209
▁اهن	-6210
▁موز	-6211
▁هڻڻ	-6212
▁يسر	-6213
▁يلون	-6214
▁َه	-6215
▁ياز	-6216
▁يرن	-6217
▁بادل	-6218
▁رندو	-6219
ed	-6220
▁️	-6221
ناط	-6222
▁دن	-6223
▁رڪت	-6224
▁نگھ	-6225
▁ڏات	-6226
▁ڪرو	-6227
▁انشو	-6228
▁سٽنگ	-6229
▁مشكل	-6230
▁ميني	-6231
▁نيئر	-6232
▁ڪريٽ	-6233
▁تقدير	-6234
▁دات	-6235
▁ٽيپ	-6236
▁پان	-6237
▁عاون	-6238
يس	-6239
▁×	-6240
توي	-6241
▁33	-6242
▁ye	-6243
▁ارڪ	-6244
▁راق	-6245
▁شاد	-6246
▁قطر	-6247
▁نيه	-6248
▁يبا	-6249
▁يٺا	-6250
▁ٽرا	-6251
▁گيم	-6252
▁اڳوڻ	-6253
▁عامل	-6254
▁ڳڻتي	-6255
▁ځ	-6256
▁🙂	-6257
▁Ha	-6258
▁ضح	-6259
▁كا	-6260
▁اهت	-6261
▁لهر	-6262
▁ڪيف	-6263
▁ڪٽي	-6264
▁ليها	-6265
▁ړ	-6266
▁Ex	-6267
▁؟"	-6268
▁ارت	-6269
▁اهد	-6270
▁خدم	-6271
▁سڪر	-6272
▁نوب	-6273
▁يٽل	-6274
▁گهن	-6275
▁انيءَ	-6276
em	-6277
هل	-6278
ويه	-6279
▁سڻ	-6280
▁ائق	-6281
▁تعب	-6282
▁عوا	-6283
▁هٽا	-6284
▁ورڈ	-6285
▁ولم	-6286
▁ويي	-6287
▁ڪنن	-6288
▁جميع	-6289
▁نويس	-6290
▁پلان	-6291
▁tu	-6292
▁هڏ	-6293
▁اسن	-6294
▁عنا	-6295
▁لڙڪ	-6296
▁مٿو	-6297
▁ٺهي	-6298
▁ٽام	-6299
▁ڪشا	-6300
▁بچاء	-6301
▁واٽر	-6302
▁ڪارا	-6303
ide	-6304
▁7.	-6305
▁شق	-6306
▁ضي	-6307
▁يث	-6308
▁ڌا	-6309
▁ٻوڏ	-6310
▁ارنٽ	-6311
▁سوني	-6312
▁ليٽر	-6313
▁क	-6314
▁فه	-6315
▁لڏ	-6316
▁اشا	-6317
▁انز	-6318
▁اوٽ	-6319
▁مرة	-6320
▁چپن	-6321
▁ڳائ	-6322
▁آگاه	-6323
▁دهلي	-6324
▁موري	-6325
▁ليمان	-6326
▁LG	-6327
▁ئڊ	-6328
▁عش	-6329
▁ڊچ	-6330
▁und	-6331
▁بيگ	-6332
▁تند	-6333
▁رنٽ	-6334
▁نائ	-6335
▁صحاف	-6336
▁ٿن	-6337
▁ٿڌ	-6338
▁ڻڪ	-6339
▁برش	-6340
▁بيش	-6341
▁حدن	-6342
▁سڪو	-6343
▁لاٿ	-6344
▁نڌي	-6345
▁وضو	-6346
▁ولك	-6347
▁يوب	-6348
▁جولا	-6349
▁سٽيٽ	-6350
▁مارٽ	-6351
▁يروز	-6352
▁ورائي	-6353
▁َن	-6354
▁ڦٽ	-6355
▁ڪھ	-6356
▁are	-6357
▁min	-6358
▁ارج	-6359
▁جيو	-6360
▁جڳھ	-6361
▁قاف	-6362
▁وڌا	-6363
▁وڙي	-6364
▁ٽهڪ	-6365
▁ڀرو	-6366
▁امون	-6367
▁عرفي	-6368
▁ورائ	-6369
▁نينهن	-6370
ليغ	-6371
▁ھڙ	-6372
▁ادل	-6373
▁افر	-6374
▁هڻا	-6375
▁ٽمي	-6376
▁پوڻ	-6377
▁ائيڪ	-6378
▁المن	-6379
▁سليم	-6380
▁ڳائي	-6381
▁دک	-6382
▁ھل	-6383
▁شيو	-6384
▁فات	-6385
▁ليپ	-6386
▁ومو	-6387
▁يکا	-6388
▁فارس	-6389
▁لهايو	-6390
▁وراڻي	-6391
▁يئرنگ	-6392
▁Po	-6393
▁og	-6394
▁تد	-6395
▁ڱي	-6396
▁ies	-6397
▁pla	-6398
▁بلن	-6399
▁يزي	-6400
▁ھيو	-6401
▁Play	-6402
▁دستي	-6403
▁نظار	-6404
▁واهي	-6405
▁ورتل	-6406
▁ڪامل	-6407
▁بهتري	-6408
▁تبليغ	-6409
▁سمجهن	-6410
▁وزگار	-6411
▁ڈ	-6412
▁Ph	-6413
▁sc	-6414
▁بص	-6415
▁عق	-6416
▁مٺ	-6417
▁300	-6418
▁ارش	-6419
▁اير	-6420
▁سچل	-6421
▁عيب	-6422
▁ڦري	-6423
▁ايند	-6424
▁رنٽي	-6425
▁لڪير	-6426
▁رواني	-6427
pe	-6428
ara	-6429
▁AP	-6430
▁ac	-6431
▁كيد	-6432
▁رونا	-6433
▁شويه	-6434
▁معاه	-6435
▁ڪالم	-6436
▁ڪارڪن	-6437
▁75	-6438
▁Ga	-6439
▁mm	-6440
▁سڏي	-6441
▁ورش	-6442
▁يهر	-6443
▁قولي	-6444
▁مقناط	-6445
▁nc	-6446
▁پش	-6447
▁ڀن	-6448
▁ago	-6449
▁احت	-6450
▁اوز	-6451
▁بيو	-6452
▁حتي	-6453
▁حسي	-6454
▁لڏي	-6455
▁ئونڊ	-6456
▁زاري	-6457
▁ھائي	-6458
▁اسڪيم	-6459
▁ملتوي	-6460
ite	-6461
اڻو	-6462
▁48	-6463
▁65	-6464
▁كو	-6465
▁مچ	-6466
▁ڙن	-6467
▁(4)	-6468
▁آصف	-6469
▁آهه	-6470
▁ازن	-6471
▁امس	-6472
▁رلي	-6473
▁ريش	-6474
▁عون	-6475
▁لبت	-6476
▁مرك	-6477
▁وهم	-6478
▁ڊبل	-6479
▁گھي	-6480
▁امري	-6481
دل	-6482
▁5-	-6483
▁fo	-6484
▁أس	-6485
▁طي	-6486
▁اڪن	-6487
▁بون	-6488
▁رحل	-6489
▁سوٽ	-6490
▁سيو	-6491
▁لسي	-6492
▁لير	-6493
▁ماا	-6494
▁مڃڻ	-6495
▁مھل	-6496
▁نئي	-6497
▁يفو	-6498
▁پوپ	-6499
▁ڊيٽ	-6500
▁کٽڻ	-6501
▁ڪڻڪ	-6502
▁مولا	-6503
▁ميدا	-6504
▁روانا	-6505
▁مهاجر	-6506
▁مولوي	-6507
ga	-6508
▁ja	-6509
▁<<<	-6510
▁les	-6511
▁قار	-6512
▁لکن	-6513
▁هدف	-6514
▁المو	-6515
▁الون	-6516
▁اهدو	-6517
▁سيني	-6518
▁نواب	-6519
▁پڙهائ	-6520
ta	-6521
▁Qu	-6522
▁pi	-6523
▁اگ	-6524
▁ذه	-6525
▁مگ	-6526
▁ڊل	-6527
▁ئيٽ	-6528
▁جرب	-6529
▁لاڏ	-6530
▁لقي	-6531
▁لوڻ	-6532
▁مٽا	-6533
▁ويھ	-6534
▁پاي	-6535
▁نهين	-6536
▁--	-6537
▁اٽو	-6538
▁اٿو	-6539
▁بچه	-6540
▁جهڻ	-6541
▁داي	-6542
▁سمو	-6543
▁سٽن	-6544
▁عود	-6545
▁عيو	-6546
▁مرک	-6547
▁واج	-6548
▁ولڪ	-6549
▁ووه	-6550
▁ٺين	-6551
▁ميمڻ	-6552
▁ٽرول	-6553
غا	-6554
▁II	-6555
▁یم	-6556
▁اتا	-6557
▁ووم	-6558
▁کاڌ	-6559
▁کلڻ	-6560
▁اهين	-6561
▁شناس	-6562
▁صوبن	-6563
▁ورين	-6564
▁بنگلا	-6565
▁تجارت	-6566
▁Le	-6567
▁Si	-6568
▁ُک	-6569
▁جهڙ	-6570
▁حول	-6571
▁سرا	-6572
▁وشي	-6573
▁يسن	-6574
▁آزما	-6575
▁ارسي	-6576
▁آچر	-6577
▁اخو	-6578
▁ماڪ	-6579
▁مبا	-6580
▁يما	-6581
▁يڊن	-6582
▁پهل	-6583
▁ڌرم	-6584
▁مٽائ	-6585
▁ناري	-6586
بة	-6587
▁as	-6588
▁ty	-6589
▁اڊ	-6590
▁nti	-6591
▁اچا	-6592
▁بدار	-6593
▁ليسي	-6594
▁نثار	-6595
چا	-6596
▁ئه	-6597
▁ترو	-6598
▁سكس	-6599
▁لهڻ	-6600
▁مدي	-6601
▁يفا	-6602
▁ڏسن	-6603
▁ڙهي	-6604
▁ڪشش	-6605
▁والي	-6606
▁ڊيمو	-6607
▁معاشر	-6608
▁هٽائڻ	-6609
▁ڪيمرا	-6610
ئه	-6611
ڙھ	-6612
▁←	-6613
▁وگ	-6614
▁ڪب	-6615
▁ھج	-6616
▁اسا	-6617
▁انھ	-6618
▁اوه	-6619
▁رقص	-6620
▁رهم	-6621
▁روب	-6622
▁قيق	-6623
▁عمار	-6624
▁ليلي	-6625
▁منھن	-6626
▁ڪسڪس	-6627
سن	-6628
▁٣	-6629
▁GB	-6630
▁لذ	-6631
▁کڻ	-6632
▁OEM	-6633
▁ادو	-6634
▁اڌا	-6635
▁جند	-6636
▁خال	-6637
▁منش	-6638
▁نسر	-6639
▁يجن	-6640
▁ڇڪي	-6641
▁جھاز	-6642
▁IS	-6643
▁ثق	-6644
▁جڪ	-6645
▁ذك	-6646
▁ڇن	-6647
▁gen	-6648
▁اعد	-6649
▁حفو	-6650
▁وئڻ	-6651
▁ومي	-6652
▁ڳري	-6653
▁ting	-6654
▁اهيو	-6655
▁اڻين	-6656
▁دادو	-6657
▁هنيو	-6658
▁يوار	-6659
▁ٽائڻ	-6660
▁ڪٽري	-6661
▁ڻائي	-6662
hm	-6663
op	-6664
آر	-6665
▁بدا	-6666
▁رني	-6667
▁عني	-6668
▁كات	-6669
ark	-6670
▁ew	-6671
هانت	-6672
▁ate	-6673
▁الڪ	-6674
▁تحق	-6675
▁عار	-6676
▁نسن	-6677
▁نيج	-6678
▁واع	-6679
▁ادگي	-6680
▁يونس	-6681
▁پسندي	-6682
ین	-6683
▁3)	-6684
▁SA	-6685
▁era	-6686
▁فير	-6687
▁پڪو	-6688
▁ڀاء	-6689
▁ڪھڙ	-6690
▁ارٽي	-6691
▁بائي	-6692
▁لعنت	-6693
▁ويهن	-6694
طب	-6695
▁۶	-6696
▁Se	-6697
▁نئ	-6698
▁یا	-6699
▁>>>	-6700
▁سوڀ	-6701
▁يوي	-6702
▁ختار	-6703
ِي	-6704
▁ټ	-6705
▁څ	-6706
فيق	-6707
▁3:	-6708
▁99	-6709
▁va	-6710
▁دى	-6711
▁ضا	-6712
▁نذ	-6713
▁سلا	-6714
▁مئل	-6715
▁ندس	-6716
▁گلو	-6717
▁جائي	-6718
▁رهان	-6719
▁سوئچ	-6720
▁ھيءَ	-6721
ھا	-6722
▁تی	-6723
▁زش	-6724
▁سع	-6725
▁سنت	-6726
▁فيش	-6727
▁متي	-6728
▁نڊر	-6729
▁ووڊ	-6730
▁يمو	-6731
▁ٿوڪ	-6732
▁ڻين	-6733
▁سعود	-6734
▁مرڪب	-6735
▁نصاب	-6736
ha	-6737
ید	-6738
▁ڪڇ	-6739
▁ازل	-6740
▁رنا	-6741
▁شرٽ	-6742
▁قاد	-6743
▁نتو	-6744
▁نيز	-6745
▁ڀار	-6746
▁ميرا	-6747
▁زيارت	-6748
▁34	-6749
▁ny	-6750
▁نط	-6751
▁هش	-6752
▁اصر	-6753
▁ڇان	-6754
▁ديني	-6755
▁ربان	-6756
▁ڙيون	-6757
▁گذار	-6758
▁اهڙيء	-6759
oo	-6760
ٽن	-6761
▁No	-6762
▁im	-6763
▁pe	-6764
▁،"	-6765
▁امڙ	-6766
▁اوس	-6767
▁اڇي	-6768
▁بجد	-6769
▁جيا	-6770
▁غزل	-6771
▁لتا	-6772
▁ندن	-6773
▁نڌو	-6774
▁پيڊ	-6775
▁پٺت	-6776
▁گنا	-6777
بط	-6778
سس	-6779
▁أم	-6780
▁عص	-6781
▁Mac	-6782
▁You	-6783
▁روع	-6784
▁علق	-6785
▁مڃي	-6786
▁هٽي	-6787
▁وٽل	-6788
▁ٽجي	-6789
▁الان	-6790
▁جيءَ	-6791
▁رسالي	-6792
▁لياتي	-6793
▁ګ	-6794
▁۷	-6795
▁(5	-6796
▁1)	-6797
▁En	-6798
▁wei	-6799
▁ايٽ	-6800
▁توي	-6801
▁تيم	-6802
▁زني	-6803
▁منج	-6804
▁واھ	-6805
▁وٽر	-6806
▁پٽن	-6807
▁رايو	-6808
▁قليت	-6809
▁وڻند	-6810
▁اقاعد	-6811
نر	-6812
▁ښ	-6813
ائن	-6814
▁فز	-6815
▁ُس	-6816
▁باھ	-6817
▁جدي	-6818
▁غلا	-6819
▁فضا	-6820
▁وپي	-6821
▁ٿار	-6822
▁ڪوڪ	-6823
▁صحاب	-6824
▁مراه	-6825
وڻ	-6826
ضيه	-6827
▁ip	-6828
▁سى	-6829
▁آٽو	-6830
▁اعي	-6831
▁بلي	-6832
▁بيب	-6833
▁نبو	-6834
▁وحي	-6835
▁وشن	-6836
▁وڙا	-6837
▁وکي	-6838
▁يعت	-6839
▁ينن	-6840
▁ڊيز	-6841
▁ڏيڍ	-6842
▁رادي	-6843
▁نجين	-6844
▁ڪنار	-6845
حت	-6846
یش	-6847
all	-6848
▁بئ	-6849
▁سڌ	-6850
▁طع	-6851
▁ٿل	-6852
▁اڏي	-6853
▁رزق	-6854
▁لڳڻ	-6855
▁وئل	-6856
▁وپو	-6857
▁يتر	-6858
▁ڄڻن	-6859
▁ڪبو	-6860
▁ائنٽ	-6861
▁اريا	-6862
▁خطرن	-6863
▁رهين	-6864
▁يرات	-6865
▁وائيس	-6866
اله	-6867
▁ari	-6868
▁اتك	-6869
▁ترى	-6870
▁راع	-6871
▁رڻو	-6872
▁سچا	-6873
▁شيا	-6874
▁غسل	-6875
▁لاك	-6876
▁مسز	-6877
▁وئن	-6878
▁ڏائ	-6879
▁گھا	-6880
▁Mehm	-6881
▁اهدي	-6882
▁هااا	-6883
▁ويها	-6884
▁وچين	-6885
▁يسوع	-6886
ka	-6887
va	-6888
▁iv	-6889
▁قم	-6890
▁وٿ	-6891
▁چل	-6892
▁150	-6893
▁بيڊ	-6894
▁محب	-6895
▁نجو	-6896
▁نهه	-6897
▁کند	-6898
▁اڙهي	-6899
▁بڻيل	-6900
▁ريٽر	-6901
▁يڪري	-6902
▁معامل	-6903
آل	-6904
▁95	-6905
▁Di	-6906
▁خص	-6907
▁رڳ	-6908
▁ضو	-6909
▁گی	-6910
▁Taj	-6911
▁ind	-6912
▁اڱڻ	-6913
▁هشت	-6914
▁هوت	-6915
▁more	-6916
▁عنده	-6917
▁مدني	-6918
▁وريءَ	-6919
کا	-6920
▁Lo	-6921
▁os	-6922
▁داغ	-6923
▁ربن	-6924
▁روڙ	-6925
▁عدن	-6926
▁لقب	-6927
▁هما	-6928
▁ٺهڻ	-6929
▁ٿيند	-6930
▁ذهانت	-6931
پا	-6932
▁ot	-6933
▁pb	-6934
▁ood	-6935
▁بيٽ	-6936
▁عضو	-6937
▁وجن	-6938
▁يئن	-6939
▁ڏٺم	-6940
▁ڪدم	-6941
▁مداح	-6942
▁نداري	-6943
▁وڪرين	-6944
ge	-6945
يات	-6946
ينا	-6947
▁55	-6948
▁ُه	-6949
▁mat	-6950
▁آيد	-6951
▁باا	-6952
▁بته	-6953
▁رتن	-6954
▁لند	-6955
▁لهن	-6956
▁ولف	-6957
▁ڪٿا	-6958
▁لابي	-6959
▁گاري	-6960
ff	-6961
vi	-6962
▁Un	-6963
▁eb	-6964
▁ثم	-6965
▁ین	-6966
▁اپا	-6967
▁رڪو	-6968
▁عاج	-6969
▁لبي	-6970
▁وڙڻ	-6971
▁يجو	-6972
▁يوت	-6973
▁Amro	-6974
▁ديوي	-6975
▁ڪائو	-6976
▁ڪروم	-6977
▁ڳاله	-6978
▁زلزلي	-6979
يش	-6980
▁39	-6981
▁ul	-6982
▁ئت	-6983
▁زب	-6984
▁One	-6985
▁Tra	-6986
▁bil	-6987
▁ترس	-6988
▁لاب	-6989
▁لمس	-6990
▁ٺٽي	-6991
▁ڙهڻ	-6992
▁ڪوچ	-6993
▁ڪڪر	-6994
▁اسرا	-6995
▁وڙيو	-6996
فف	-6997
▁حث	-6998
▁فش	-6999
▁ant	-7000
▁bet	-7001
▁ist	-7002
▁ائب	-7003
▁اجا	-7004
▁ازي	-7005
▁تحف	-7006
▁سحر	-7007
▁صيد	-7008
▁فوا	-7009
▁لول	-7010
▁مشي	-7011
▁ورڇ	-7012
▁ٻلي	-7013
▁رفان	-7014
▁واست	-7015
▁پيٽر	-7016
su	-7017
▁ि	-7018
روك	-7019
▁9.	-7020
▁ut	-7021
▁مة	-7022
▁tic	-7023
▁آري	-7024
▁ئرل	-7025
▁اٽڪ	-7026
▁جهت	-7027
▁فوڊ	-7028
▁لوي	-7029
▁نوا	-7030
▁نوح	-7031
▁ٽوڪ	-7032
▁ڏيئ	-7033
▁ستقب	-7034
▁سوئي	-7035
▁سورج	-7036
▁نيان	-7037
▁هوري	-7038
▁وليا	-7039
▁پڙها	-7040
IN	-7041
حح	-7042
كل	-7043
▁کت	-7044
▁اله	-7045
▁برج	-7046
▁قصه	-7047
▁ميڙ	-7048
▁وبه	-7049
▁وکر	-7050
▁پني	-7051
▁ڪجه	-7052
▁رايا	-7053
▁وفاق	-7054
▁مطالع	-7055
فل	-7056
▁►	-7057
▁43	-7058
▁رئ	-7059
▁ڏن	-7060
▁افس	-7061
▁دال	-7062
▁لاه	-7063
▁مرو	-7064
▁وده	-7065
▁سگھج	-7066
▁نادر	-7067
▁وڪڻڻ	-7068
▁يڪيو	-7069
ED	-7070
عع	-7071
یں	-7072
الا	-7073
▁Te	-7074
▁ov	-7075
▁کڙ	-7076
▁ڪڏ	-7077
▁ھد	-7078
▁اسو	-7079
▁رجا	-7080
▁عكس	-7081
▁غني	-7082
▁كدا	-7083
▁لاڻ	-7084
▁نرس	-7085
▁نوم	-7086
▁هلن	-7087
▁چري	-7088
▁ھڙو	-7089
▁حقيق	-7090
▁منتظ	-7091
▁هندس	-7092
▁پيمان	-7093
بع	-7094
ell	-7095
ينه	-7096
▁اسد	-7097
▁الر	-7098
▁راغ	-7099
▁صال	-7100
▁فتي	-7101
▁يشر	-7102
▁پڇا	-7103
▁اڪبر	-7104
▁جبهه	-7105
▁جماع	-7106
▁هلڪي	-7107
▁يٽرن	-7108
▁ٺيون	-7109
سه	-7110
▁म	-7111
▁44	-7112
▁Pi	-7113
▁ئڪ	-7114
▁اشت	-7115
▁اشي	-7116
▁بطن	-7117
▁دڙي	-7118
▁صفر	-7119
▁معت	-7120
▁نوڪ	-7121
▁پوڊ	-7122
▁ڙيو	-7123
▁کوڙ	-7124
▁ڪچي	-7125
▁دران	-7126
▁ڙائي	-7127
AT	-7128
اط	-7129
ree	-7130
▁Vi	-7131
▁حز	-7132
▁غز	-7133
▁ڍن	-7134
▁400	-7135
▁تما	-7136
▁فيل	-7137
▁هات	-7138
▁ميون	-7139
▁ڻيون	-7140
▁مبروك	-7141
عل	-7142
▁اى	-7143
▁طن	-7144
▁عة	-7145
▁ڌن	-7146
▁ڍڪ	-7147
▁ڏج	-7148
▁جڙي	-7149
▁داز	-7150
▁رڪر	-7151
▁شاٽ	-7152
▁لسه	-7153
▁وسن	-7154
▁يتك	-7155
▁ڀنگ	-7156
▁ريقا	-7157
▁سندو	-7158
▁عترف	-7159
▁لڪيل	-7160
▁نيوي	-7161
▁ٽيشن	-7162
▁چوند	-7163
▁ڏينه	-7164
▁//	-7165
▁Bu	-7166
▁NE	-7167
▁Wi	-7168
▁ڊف	-7169
▁اپي	-7170
▁حضر	-7171
▁خطن	-7172
▁صلح	-7173
▁ڪثر	-7174
▁هيرن	-7175
▁ڪارن	-7176
na	-7177
ڄي	-7178
که	-7179
ari	-7180
▁^_	-7181
▁يغ	-7182
▁mon	-7183
▁ابق	-7184
▁دخت	-7185
▁ضما	-7186
▁ڪرم	-7187
▁ريما	-7188
▁لانگ	-7189
▁نيرو	-7190
AN	-7191
ڇو	-7192
▁PD	-7193
▁ud	-7194
▁ya	-7195
▁دة	-7196
▁ٽئ	-7197
▁اشو	-7198
▁اوج	-7199
▁دٻي	-7200
▁سوز	-7201
▁عدي	-7202
▁لوپ	-7203
▁ناج	-7204
▁داني	-7205
▁رمائ	-7206
▁معاو	-7207
▁ڪاسٽ	-7208
لك	-7209
هج	-7210
▁دت	-7211
▁ُم	-7212
▁کی	-7213
▁Com	-7214
▁ser	-7215
▁اڻپ	-7216
▁خطر	-7217
▁دفع	-7218
▁شمو	-7219
▁عدو	-7220
▁هيج	-7221
▁يٽس	-7222
▁ڪڪڙ	-7223
▁انسپ	-7224
▁رهون	-7225
▁يزان	-7226
أأ	-7227
▁جڙ	-7228
▁ڇي	-7229
▁chi	-7230
▁لڊر	-7231
▁موج	-7232
▁نيش	-7233
▁واک	-7234
▁وبي	-7235
▁ڊيڄ	-7236
▁تاني	-7237
▁سيٽن	-7238
▁ويري	-7239
▁ويلي	-7240
▁يانگ	-7241
▁پيشي	-7242
▁پاڻيء	-7243
tt	-7244
▁न	-7245
ote	-7246
ube	-7247
▁37	-7248
▁اٻ	-7249
▁اجه	-7250
▁ازد	-7251
▁تجي	-7252
▁رھڻ	-7253
▁لمه	-7254
▁پسي	-7255
▁پگه	-7256
▁چڱا	-7257
▁ڊون	-7258
▁ھان	-7259
▁دائو	-7260
▁روين	-7261
▁ريڪٽ	-7262
▁عجبت	-7263
▁مركز	-7264
▁نڊون	-7265
▁هيڪر	-7266
▁لهائڻ	-7267
▁هربان	-7268
ww	-7269
اڄ	-7270
▁٤	-7271
ونه	-7272
▁64	-7273
▁dy	-7274
▁ka	-7275
▁ٽس	-7276
▁ڳر	-7277
▁tur	-7278
▁آله	-7279
▁اضي	-7280
▁اٺن	-7281
▁اڍا	-7282
▁شمس	-7283
▁فرش	-7284
▁وصف	-7285
▁ويم	-7286
▁يڊي	-7287
▁پنن	-7288
▁ڙين	-7289
▁بچائ	-7290
▁ريات	-7291
▁سيءَ	-7292
▁لقيت	-7293
▁يوزر	-7294
▁برادر	-7295
▁عوامل	-7296
آء	-7297
▁Ni	-7298
▁For	-7299
▁اُت	-7300
▁ثبت	-7301
▁جلا	-7302
▁سڙي	-7303
▁عمي	-7304
▁هُئ	-7305
▁وتن	-7306
▁يڙه	-7307
▁ڏکي	-7308
▁ڪيش	-7309
▁الهي	-7310
▁رسائ	-7311
▁ريڪي	-7312
▁ليبل	-7313
▁وڙين	-7314
▁يلين	-7315
▁چاھي	-7316
▁ھيون	-7317
▁ويڪسي	-7318
▁يداري	-7319
ek	-7320
▁٥	-7321
▁ٱ	-7322
▁ثل	-7323
▁دڙ	-7324
▁قض	-7325
▁ISO	-7326
▁fin	-7327
▁جاز	-7328
▁دود	-7329
▁سيب	-7330
▁عمو	-7331
▁قمر	-7332
▁ٽڪي	-7333
▁پلا	-7334
▁ڪنج	-7335
▁خاطب	-7336
▁کانئ	-7337
شد	-7338
ٽس	-7339
▁(6	-7340
▁gu	-7341
▁sy	-7342
▁ئم	-7343
▁وڍ	-7344
▁ڪک	-7345
▁Fac	-7346
▁ارک	-7347
▁روه	-7348
▁شته	-7349
▁لوڏ	-7350
▁نجا	-7351
▁يبر	-7352
▁Mart	-7353
▁رجال	-7354
▁موسي	-7355
▁وريو	-7356
▁42	-7357
▁Fi	-7358
▁َم	-7359
▁ڪف	-7360
▁ort	-7361
▁sti	-7362
▁ااه	-7363
▁امو	-7364
▁اوڙ	-7365
▁تام	-7366
▁سيس	-7367
▁يمس	-7368
▁ٻٽي	-7369
▁Zone	-7370
▁حامل	-7371
▁داسي	-7372
▁لندي	-7373
▁نواف	-7374
▁هادي	-7375
▁دائود	-7376
▁مرتضي	-7377
تم	-7378
▁SD	-7379
▁رڌ	-7380
▁زه	-7381
▁صر	-7382
▁(5)	-7383
▁Pad	-7384
▁int	-7385
▁مٿن	-7386
▁واڳ	-7387
▁وسا	-7388
▁پُٽ	-7389
▁ڪلپ	-7390
▁ايوا	-7391
▁طارق	-7392
▁لاقي	-7393
▁هلون	-7394
▁وريج	-7395
▁يالي	-7396
▁جولاء	-7397
ML	-7398
ly	-7399
ڀي	-7400
▁85	-7401
▁ze	-7402
▁ڀٽ	-7403
▁www	-7404
▁اعل	-7405
▁الج	-7406
▁انم	-7407
▁اوى	-7408
▁ايب	-7409
▁اھڙ	-7410
▁تقد	-7411
▁دوس	-7412
▁شيٽ	-7413
▁يڪن	-7414
▁ٿيس	-7415
▁گيج	-7416
▁ڳڻپ	-7417
▁راغب	-7418
▁رحيم	-7419
▁سڏين	-7420
▁شهور	-7421
▁قويه	-7422
▁لينا	-7423
▁نيءَ	-7424
▁کندڙ	-7425
ER	-7426
▁41	-7427
▁Ja	-7428
▁ٽچ	-7429
▁blo	-7430
▁met	-7431
▁way	-7432
▁جگر	-7433
▁سٺن	-7434
▁شدن	-7435
▁شون	-7436
▁قمي	-7437
▁لفت	-7438
▁نٽر	-7439
▁هاس	-7440
▁ٻيڙ	-7441
▁پست	-7442
▁ڄمڻ	-7443
▁ديري	-7444
▁زنان	-7445
▁سافر	-7446
▁لاٿو	-7447
▁يليون	-7448
▁ڊائري	-7449
آإ	-7450
کس	-7451
▁Ar	-7452
▁ئد	-7453
▁تپ	-7454
▁خن	-7455
▁ُت	-7456
▁ڏھ	-7457
▁کش	-7458
▁Bla	-7459
▁cha	-7460
▁اڇا	-7461
▁خطا	-7462
▁ركب	-7463
▁رنج	-7464
▁لغت	-7465
▁نثر	-7466
▁نگه	-7467
▁ولس	-7468
▁ٻڏي	-7469
▁ھجڻ	-7470
▁انھي	-7471
▁جناح	-7472
▁هيئت	-7473
▁معاهد	-7474
▁ډ	-7475
▁ak	-7476
▁hi	-7477
▁خه	-7478
▁لڄ	-7479
▁چڪ	-7480
▁Hua	-7481
▁cor	-7482
▁أخي	-7483
▁ائع	-7484
▁بيٺ	-7485
▁ترح	-7486
▁تقي	-7487
▁جال	-7488
▁سُر	-7489
▁هڙو	-7490
▁يشو	-7491
▁ڍنڍ	-7492
▁ڪيچ	-7493
▁ئيءَ	-7494
▁دادا	-7495
▁سالگ	-7496
▁لاني	-7497
▁مانن	-7498
▁نوري	-7499
▁هيري	-7500
▁स	-7501
▁IN	-7502
▁بب	-7503
▁انى	-7504
▁ترت	-7505
▁مدن	-7506
▁ووي	-7507
▁يڙي	-7508
▁يڪڙ	-7509
▁ٽال	-7510
▁پڇو	-7511
▁ائنس	-7512
▁جهند	-7513
▁ماند	-7514
▁نهون	-7515
▁يترا	-7516
▁چوڌر	-7517
▁Marte	-7518
um	-7519
او	-7520
▁ڵ	-7521
▁ो	-7522
▁قف	-7523
▁ڊڪ	-7524
▁Net	-7525
▁log	-7526
▁بزن	-7527
▁جوئ	-7528
▁جور	-7529
▁رمو	-7530
▁غال	-7531
▁فقي	-7532
▁قصو	-7533
▁نرو	-7534
▁همٿ	-7535
▁واش	-7536
▁ورق	-7537
▁يگن	-7538
▁سوره	-7539
▁علوم	-7540
▁نقاب	-7541
▁وقار	-7542
▁ترڪيب	-7543
▁نهنجي	-7544
صص	-7545
▁51	-7546
▁gi	-7547
▁لڻ	-7548
▁pri	-7549
▁sin	-7550
▁ارل	-7551
▁اڻه	-7552
▁بكل	-7553
▁رنه	-7554
▁وبس	-7555
▁وجي	-7556
▁وچي	-7557
▁کڙي	-7558
▁ڪفر	-7559
▁گلا	-7560
▁الها	-7561
▁اليا	-7562
▁ميلو	-7563
▁نگري	-7564
▁ٿاڻي	-7565
▁قبيلي	-7566
▁لهائي	-7567
نيف	-7568
▁om	-7569
▁طم	-7570
▁عس	-7571
▁فڪ	-7572
▁Xia	-7573
▁اكت	-7574
▁بغي	-7575
▁رها	-7576
▁لسا	-7577
▁لقا	-7578
▁نوف	-7579
▁وفد	-7580
▁وله	-7581
▁وڪڻ	-7582
▁هنوز	-7583
▁سارنگ	-7584
طس	-7585
ٻڙ	-7586
▁ב	-7587
ڪرت	-7588
▁4:	-7589
▁Lu	-7590
▁ge	-7591
▁مڇ	-7592
▁آغا	-7593
▁بتي	-7594
▁بره	-7595
▁حبه	-7596
▁سمن	-7597
▁فيا	-7598
▁فيض	-7599
▁هيد	-7600
▁يفڪ	-7601
▁ٽٽي	-7602
▁ٿائ	-7603
▁ڪاڻ	-7604
▁انته	-7605
▁مونک	-7606
▁هران	-7607
da	-7608
اش	-7609
oto	-7610
ورا	-7611
ينو	-7612
▁ID	-7613
▁مى	-7614
▁چڻ	-7615
▁shi	-7616
▁آيس	-7617
▁اكس	-7618
▁بكم	-7619
▁تسا	-7620
▁جوز	-7621
▁حكم	-7622
▁لئي	-7623
▁هڪا	-7624
▁يشل	-7625
▁ڊيا	-7626
▁ڪبي	-7627
▁تجار	-7628
▁رينا	-7629
▁فضول	-7630
▁لحين	-7631
▁نديد	-7632
▁هينئ	-7633
▁روپيا	-7634
PS	-7635
ذر	-7636
▁त	-7637
ere	-7638
▁QU	-7639
▁Wo	-7640
▁XD	-7641
▁كش	-7642
▁ِس	-7643
▁ide	-7644
▁iti	-7645
▁اتن	-7646
▁اڍي	-7647
▁سلو	-7648
▁قلي	-7649
▁لٽر	-7650
▁مٺو	-7651
▁نسب	-7652
▁نصف	-7653
▁نچي	-7654
▁وتو	-7655
▁يڊر	-7656
▁ڏٺل	-7657
▁ڪوپ	-7658
▁استي	-7659
▁رواي	-7660
▁مومل	-7661
▁ندين	-7662
▁ويژه	-7663
اٽ	-7664
عة	-7665
▁ۡ	-7666
▁→	-7667
▁Be	-7668
▁Sk	-7669
▁fu	-7670
▁ٽٽ	-7671
▁😂😂	-7672
▁Sta	-7673
▁can	-7674
▁rou	-7675
▁افو	-7676
▁اڌو	-7677
▁باق	-7678
▁حوا	-7679
▁سرن	-7680
▁سلي	-7681
▁ماڊ	-7682
▁متى	-7683
▁ناف	-7684
▁يوز	-7685
▁چٽو	-7686
▁ڙهه	-7687
▁work	-7688
▁اقوام	-7689
bo	-7690
sh	-7691
▁6-	-7692
▁AM	-7693
▁دآ	-7694
▁120	-7695
▁HTC	-7696
▁ايگ	-7697
▁جود	-7698
▁جيس	-7699
▁رجل	-7700
▁رٿي	-7701
▁ٺاڻ	-7702
▁ڀٽي	-7703
▁ڊڄي	-7704
▁ڏنڊ	-7705
▁دختر	-7706
▁مشكو	-7707
▁مظهر	-7708
▁نفيس	-7709
▁يانا	-7710
▁يونا	-7711
▁ٿائي	-7712
▁نائين	-7713
il	-7714
ry	-7715
مه	-7716
▁"،	-7717
▁00	-7718
▁صه	-7719
▁نپ	-7720
▁ڏه	-7721
▁cen	-7722
▁اڪا	-7723
▁سڪا	-7724
▁شري	-7725
▁شرڪ	-7726
▁ظهر	-7727
▁فسا	-7728
▁قرن	-7729
▁ندؤ	-7730
▁نقد	-7731
▁وڙن	-7732
▁ڃاڻ	-7733
▁ھڻي	-7734
▁صباح	-7735
▁مرشد	-7736
▁وياج	-7737
▁مينار	-7738
ؤن	-7739
حب	-7740
▁Ac	-7741
▁Jo	-7742
▁my	-7743
▁ok	-7744
▁فك	-7745
▁لگ	-7746
▁ِن	-7747
▁bon	-7748
▁بات	-7749
▁تول	-7750
▁ذوب	-7751
▁ذوق	-7752
▁ربو	-7753
▁رنڊ	-7754
▁سبز	-7755
▁سني	-7756
▁صيل	-7757
▁نبا	-7758
▁وڀر	-7759
▁کيه	-7760
▁گوي	-7761
▁ايڪو	-7762
▁ترکي	-7763
▁ستون	-7764
▁عاجز	-7765
▁ماسي	-7766
▁هميش	-7767
▁واعد	-7768
▁وليت	-7769
▁ويڪر	-7770
om	-7771
وط	-7772
▁49	-7773
▁52	-7774
▁,,,	-7775
▁ber	-7776
▁أهم	-7777
▁افٽ	-7778
▁بده	-7779
▁تحد	-7780
▁جاج	-7781
▁خفي	-7782
▁ديا	-7783
▁ديم	-7784
▁ديه	-7785
▁سرخ	-7786
▁ماد	-7787
▁هڪڙ	-7788
▁ورب	-7789
▁ونس	-7790
▁ڏکن	-7791
▁ڪنٽ	-7792
▁بوٽن	-7793
▁دريس	-7794
▁شروط	-7795
▁عمال	-7796
▁راعظم	-7797
to	-7798
قر	-7799
▁4)	-7800
▁MA	-7801
▁لٺ	-7802
▁يڻ	-7803
▁ڙپ	-7804
▁***	-7805
▁dia	-7806
▁get	-7807
▁nda	-7808
▁آيه	-7809
▁ائٽ	-7810
▁كدة	-7811
▁نصر	-7812
▁واڪ	-7813
▁HTML	-7814
▁Name	-7815
▁جزائ	-7816
▁حليم	-7817
▁قراط	-7818
▁نسار	-7819
▁والن	-7820
▁يملي	-7821
▁پيرو	-7822
▁چيءَ	-7823
▁ڪاڏي	-7824
▁گارن	-7825
so	-7826
▁47	-7827
▁CA	-7828
▁CB	-7829
▁lt	-7830
▁nu	-7831
▁آج	-7832
▁دخ	-7833
▁ٽڻ	-7834
▁آنا	-7835
▁آهر	-7836
▁بحا	-7837
▁سيٰ	-7838
▁كري	-7839
▁وكل	-7840
▁يلم	-7841
▁ڄار	-7842
▁ڪرن	-7843
▁ware	-7844
▁ائنا	-7845
▁اراد	-7846
▁اندو	-7847
▁انوا	-7848
▁انگل	-7849
▁خلوص	-7850
▁رانه	-7851
▁يٽري	-7852
▁ڀروس	-7853
▁اقبال	-7854
▁سانوڻ	-7855
▁نديءَ	-7856
WS	-7857
▁38	-7858
▁Tu	-7859
▁آڪ	-7860
▁ذو	-7861
▁کے	-7862
▁ہے	-7863
▁PST	-7864
▁آقا	-7865
▁انک	-7866
▁برك	-7867
▁رسا	-7868
▁رٽر	-7869
▁سوپ	-7870
▁شدي	-7871
▁ياا	-7872
▁ياي	-7873
▁پیش	-7874
▁کيا	-7875
▁وينس	-7876
▁تحريم	-7877
▁جزائر	-7878
▁مديني	-7879
أإ	-7880
OTE	-7881
dia	-7882
▁46	-7883
▁Gi	-7884
▁MI	-7885
▁NA	-7886
▁جڏ	-7887
▁دِ	-7888
▁وة	-7889
▁net	-7890
▁اسط	-7891
▁انپ	-7892
▁بصر	-7893
▁جِي	-7894
▁سجد	-7895
▁سخن	-7896
▁سمر	-7897
▁سيئ	-7898
▁قام	-7899
▁لڌو	-7900
▁ناد	-7901
▁نيئ	-7902
▁نٽي	-7903
▁يعي	-7904
▁يھر	-7905
▁گزي	-7906
▁اريل	-7907
▁انجن	-7908
▁رهيل	-7909
▁فارغ	-7910
▁قميص	-7911
▁ليكم	-7912
▁نقره	-7913
▁يانو	-7914
▁يجنس	-7915
▁نسڪرت	-7916
▁يواري	-7917
go	-7918
sp	-7919
▁٩	-7920
▁य	-7921
▁El	-7922
▁حف	-7923
▁سٿ	-7924
▁عف	-7925
▁fli	-7926
▁not	-7927
▁آفت	-7928
▁أنت	-7929
▁اٽل	-7930
▁برٽ	-7931
▁حلم	-7932
▁راث	-7933
▁سطو	-7934
▁شنل	-7935
▁يٽن	-7936
▁ٺڳي	-7937
▁چوڪ	-7938
▁ارڪر	-7939
▁عملد	-7940
▁غالي	-7941
▁لانه	-7942
▁واجه	-7943
▁ولان	-7944
▁اينڊر	-7945
▁ريائي	-7946
OL	-7947
ڊس	-7948
ڳڙ	-7949
▁98	-7950
▁Do	-7951
▁Ge	-7952
▁بى	-7953
▁خف	-7954
▁PDF	-7955
▁اوو	-7956
▁بجا	-7957
▁زائ	-7958
▁ستح	-7959
▁سيٺ	-7960
▁سکن	-7961
▁ضعي	-7962
▁عنه	-7963
▁لڏپ	-7964
▁مشر	-7965
▁ناي	-7966
▁ٽيب	-7967
▁ڀوڳ	-7968
▁ڇال	-7969
▁جزوي	-7970
▁جهون	-7971
▁زاني	-7972
▁ندان	-7973
▁ونيا	-7974
▁ٽيڪل	-7975
▁پروا	-7976
TN	-7977
sk	-7978
▁٦	-7979
يرا	-7980
▁ci	-7981
▁خم	-7982
▁قن	-7983
▁250	-7984
▁Pay	-7985
▁آني	-7986
▁اشن	-7987
▁انش	-7988
▁اوك	-7989
▁درن	-7990
▁عبا	-7991
▁غبي	-7992
▁لحد	-7993
▁مله	-7994
▁ولن	-7995
▁کري	-7996
▁Tube	-7997
▁راهم	-7998
▁هالا	-7999
▁وريا	-8000
▁ڪثرت	-8001
▁گھرج	-8002
▁QUOTE	-8003
▁نوڪيا	-8004
سڀ	-8005
یر	-8006
ttp	-8007
مال	-8008
ندر	-8009
▁My	-8010
▁Op	-8011
▁VI	-8012
▁sk	-8013
▁مڱ	-8014
▁Clo	-8015
▁che	-8016
▁جاد	-8017
▁جزو	-8018
▁رمت	-8019
▁سمت	-8020
▁نڪو	-8021
▁ڊرا	-8022
▁http	-8023
▁خطير	-8024
▁رجعت	-8025
▁زينت	-8026
▁مانت	-8027
▁ويلا	-8028
▁ڪيڏا	-8029
▁راثيم	-8030
BC	-8031
ڱر	-8032
rea	-8033
انت	-8034
▁(9	-8035
▁.:	-8036
▁62	-8037
▁Bo	-8038
▁Ri	-8039
▁رڍ	-8040
▁سآ	-8041
▁Out	-8042
▁ext	-8043
▁اقر	-8044
▁بوط	-8045
▁راش	-8046
▁رزش	-8047
▁زمن	-8048
▁سيز	-8049
▁شود	-8050
▁فله	-8051
▁هنم	-8052
▁وام	-8053
▁ولڻ	-8054
▁يجر	-8055
▁ڙند	-8056
▁گام	-8057
▁اسپا	-8058
▁توان	-8059
▁روپي	-8060
▁سونا	-8061
▁فرين	-8062
▁لوڊش	-8063
▁ليڊي	-8064
▁مرکز	-8065
▁ندست	-8066
▁هنيا	-8067
▁وينا	-8068
▁ٽريٽ	-8069
یق	-8070
lus	-8071
روض	-8072
عيم	-8073
▁OS	-8074
▁fl	-8075
▁حک	-8076
▁رة	-8077
▁ڳي	-8078
▁600	-8079
▁nge	-8080
▁ren	-8081
▁آتم	-8082
▁تسو	-8083
▁ديل	-8084
▁زنگ	-8085
▁سيء	-8086
▁كلي	-8087
▁لجي	-8088
▁ويگ	-8089
▁يوڪ	-8090
▁ڀڄڻ	-8091
▁ڪڙو	-8092
▁ھوا	-8093
▁تسلي	-8094
▁ديرو	-8095
▁رٿيل	-8096
▁سورت	-8097
▁ليٽي	-8098
▁ناڻي	-8099
▁نجوم	-8100
▁وسائ	-8101
▁يوسي	-8102
▁ڪنول	-8103
▁قبيلن	-8104
ON	-8105
RL	-8106
TC	-8107
آت	-8108
ٽڪ	-8109
چو	-8110
یت	-8111
▁ल	-8112
الو	-8113
▁(8	-8114
▁ئش	-8115
▁ٻئ	-8116
▁(6)	-8117
▁امح	-8118
▁اڪس	-8119
▁جات	-8120
▁حرم	-8121
▁ربا	-8122
▁رتا	-8123
▁زعل	-8124
▁زڪو	-8125
▁سجن	-8126
▁سره	-8127
▁سڀن	-8128
▁شمع	-8129
▁ضبط	-8130
▁عکس	-8131
▁قير	-8132
▁مرگ	-8133
▁مڊل	-8134
▁هوي	-8135
▁چمي	-8136
▁چيا	-8137
▁بيلٽ	-8138
▁رطان	-8139
▁يٽون	-8140
▁پارا	-8141
▁چرپر	-8142
▁ڪيٽن	-8143
▁اليان	-8144
CD	-8145
ثي	-8146
ميل	-8147
ميه	-8148
▁5:	-8149
▁hy	-8150
▁صي	-8151
▁غص	-8152
▁ڦا	-8153
▁Ama	-8154
▁tro	-8155
▁آفر	-8156
▁آهو	-8157
▁آڱر	-8158
▁بيح	-8159
▁جبر	-8160
▁جسٽ	-8161
▁حار	-8162
▁حلف	-8163
▁حيل	-8164
▁دعي	-8165
▁شبه	-8166
▁عبي	-8167
▁فوق	-8168
▁متع	-8169
▁هبل	-8170
▁هرب	-8171
▁وتر	-8172
▁وجو	-8173
▁ياڻ	-8174
▁کون	-8175
▁دودي	-8176
▁راڻا	-8177
▁زانو	-8178
▁ضعيف	-8179
▁نائڻ	-8180
▁وائل	-8181
▁ورنا	-8182
▁گران	-8183
▁اديءَ	-8184
▁مائڪر	-8185
▁نواري	-8186
ss	-8187
زو	-8188
▁ּ	-8189
▁1/	-8190
▁IC	-8191
▁Ki	-8192
▁آح	-8193
▁وى	-8194
▁ڌڻ	-8195
▁Ser	-8196
▁USB	-8197
▁dra	-8198
▁ئلي	-8199
▁بدك	-8200
▁ترڻ	-8201
▁ذلك	-8202
▁راك	-8203
▁سٽو	-8204
▁سڪل	-8205
▁عدا	-8206
▁فرح	-8207
▁مشڪ	-8208
▁ياض	-8209
▁يته	-8210
▁پهن	-8211
▁ڦٽي	-8212
▁آڻين	-8213
▁برنا	-8214
▁نقاد	-8215
▁نهاي	-8216
▁وردي	-8217
▁ويجھ	-8218
▁يزائ	-8219
▁ڪرند	-8220
▁ڪلائ	-8221
▁ٽتائي	-8222
10	-8223
ci	-8224
زه	-8225
▁®	-8226
هاڙ	-8227
▁56	-8228
▁=)	-8229
▁SE	-8230
▁ps	-8231
▁خش	-8232
▁USD	-8233
▁ast	-8234
▁wat	-8235
▁اال	-8236
▁ازا	-8237
▁تخا	-8238
▁ذرا	-8239
▁رچو	-8240
▁شمي	-8241
▁عدل	-8242
▁فتن	-8243
▁لفي	-8244
▁پڇن	-8245
▁ڀون	-8246
▁ڃان	-8247
▁ھاڻ	-8248
▁flix	-8249
▁اڪائ	-8250
▁رشتا	-8251
▁رويا	-8252
▁سندا	-8253
▁مهار	-8254
▁نجون	-8255
▁ودام	-8256
▁ونکي	-8257
▁چراغ	-8258
▁ڏائي	-8259
▁گانا	-8260
▁درويش	-8261
▁نهنجو	-8262
DM	-8263
فه	-8264
lor	-8265
▁MP	-8266
▁رژ	-8267
▁سڱ	-8268
▁ٻڏ	-8269
▁gre	-8270
▁lla	-8271
▁اظن	-8272
▁الغ	-8273
▁اوڏ	-8274
▁اٿڻ	-8275
▁بوس	-8276
▁جست	-8277
▁دلا	-8278
▁رڻي	-8279
▁لفٽ	-8280
▁موش	-8281
▁ويٺ	-8282
▁ٿري	-8283
▁ڀاڳ	-8284
▁گور	-8285
▁ڻان	-8286
▁دكتر	-8287
▁سانت	-8288
▁ستائ	-8289
▁مايا	-8290
▁نماي	-8291
▁ونهي	-8292
▁ٽوئر	-8293
▁پاري	-8294
▁ڌوئي	-8295
▁ڪاٿي	-8296
▁اريءَ	-8297
▁تصنيف	-8298
▁فاروق	-8299
گن	-8300
▁े	-8301
▁◄	-8302
▁نژ	-8303
▁Per	-8304
▁^_^	-8305
▁آخه	-8306
▁ئدا	-8307
▁ئني	-8308
▁امك	-8309
▁اُٺ	-8310
▁ذرو	-8311
▁راڪ	-8312
▁رتو	-8313
▁رمز	-8314
▁سيف	-8315
▁عبو	-8316
▁علت	-8317
▁لعل	-8318
▁مٺا	-8319
▁ناا	-8320
▁نجڻ	-8321
▁ومت	-8322
▁ڀاڻ	-8323
▁ڀڃي	-8324
▁ڊنگ	-8325
▁گرل	-8326
▁گيس	-8327
▁انيت	-8328
▁رونق	-8329
▁ستاد	-8330
▁طوري	-8331
▁لعبة	-8332
▁مسئل	-8333
▁واند	-8334
▁ناروي	-8335
th	-8336
آم	-8337
ali	-8338
ard	-8339
تاق	-8340
يير	-8341
▁()	-8342
▁Ap	-8343
▁He	-8344
▁TM	-8345
▁vo	-8346
▁غد	-8347
▁َا	-8348
▁جتن	-8349
▁ربر	-8350
▁صحي	-8351
▁طئه	-8352
▁قهر	-8353
▁كني	-8354
▁نگو	-8355
▁پڪي	-8356
▁ٿڪل	-8357
▁ڇاپ	-8358
▁ڊيڪ	-8359
▁ڏجن	-8360
▁ڏنگ	-8361
▁گوڙ	-8362
▁اهمي	-8363
▁اونه	-8364
▁رافي	-8365
▁لدار	-8366
▁معاش	-8367
▁ملها	-8368
▁ميوا	-8369
▁هيرا	-8370
ni	-8371
te	-8372
▁©	-8373
▁54	-8374
▁آد	-8375
▁ڇه	-8376
▁ڻپ	-8377
▁ian	-8378
▁جئن	-8379
▁رشد	-8380
▁سڀا	-8381
▁عري	-8382
▁مگه	-8383
▁نوو	-8384
▁هوڏ	-8385
▁واء	-8386
▁ونء	-8387
▁وڙج	-8388
▁وڙو	-8389
▁ٽئي	-8390
▁ڏار	-8391
▁ابلو	-8392
▁بيري	-8393
▁ريءَ	-8394
▁زيرو	-8395
▁لحال	-8396
▁نانو	-8397
▁ناني	-8398
▁هجوم	-8399
▁وانگ	-8400
▁پوائ	-8401
NC	-8402
vo	-8403
ژي	-8404
▁ٖ	-8405
▁प	-8406
▁♡	-8407
هري	-8408
▁59	-8409
▁IM	-8410
▁MO	-8411
▁jo	-8412
▁أإ	-8413
▁ئع	-8414
▁ئگ	-8415
▁زح	-8416
▁ُٺ	-8417
▁چؤ	-8418
▁Dis	-8419
▁LED	-8420
▁ئنٽ	-8421
▁سرڪ	-8422
▁قسط	-8423
▁كما	-8424
▁لبو	-8425
▁ميک	-8426
▁ناگ	-8427
▁هام	-8428
▁ڪاڪ	-8429
▁گرڊ	-8430
▁ھند	-8431
▁الهه	-8432
▁انيو	-8433
▁ايسڊ	-8434
▁دودو	-8435
▁فتار	-8436
▁مزور	-8437
▁ندام	-8438
▁نوبل	-8439
▁يوري	-8440
▁ڙهيو	-8441
▁ڪابل	-8442
▁ڻيند	-8443
▁سنگهه	-8444
▁عمودي	-8445
▁يشاني	-8446
QL	-8447
جل	-8448
ضب	-8449
▁ۍ	-8450
ابي	-8451
▁(7	-8452
▁Hi	-8453
▁رط	-8454
▁زپ	-8455
▁ٺڳ	-8456
▁یش	-8457
▁dro	-8458
▁آئس	-8459
▁رضو	-8460
▁سات	-8461
▁سوڍ	-8462
▁عيا	-8463
▁لأن	-8464
▁ليد	-8465
▁نست	-8466
▁ٺٽو	-8467
▁ٽپو	-8468
▁پيد	-8469
▁کيل	-8470
▁ڪجو	-8471
▁ڪُل	-8472
▁انڌو	-8473
▁برٽش	-8474
▁دوکو	-8475
▁لائڻ	-8476
▁نتيج	-8477
▁هديه	-8478
▁هندا	-8479
▁وازي	-8480
▁يرون	-8481
▁پوپٽ	-8482
▁سنڀار	-8483
ju	-8484
orn	-8485
افل	-8486
يرو	-8487
▁53	-8488
▁Im	-8489
▁Ka	-8490
▁أح	-8491
▁غا	-8492
▁َي	-8493
▁ڳئ	-8494
▁Tag	-8495
▁ali	-8496
▁ارڙ	-8497
▁باي	-8498
▁برق	-8499
▁ترك	-8500
▁رنو	-8501
▁زرد	-8502
▁صلا	-8503
▁عطر	-8504
▁فڪس	-8505
▁قصي	-8506
▁قين	-8507
▁لدي	-8508
▁موو	-8509
▁نشو	-8510
▁نهو	-8511
▁وصي	-8512
▁يعق	-8513
▁يفي	-8514
▁ڀنڀ	-8515
▁ڀوت	-8516
▁گدا	-8517
▁ابڙو	-8518
▁بائل	-8519
▁توني	-8520
▁نڪاح	-8521
▁هجري	-8522
▁افواه	-8523
▁ترحيب	-8524
ئو	-8525
ڪڙ	-8526
▁♪	-8527
اصد	-8528
ريو	-8529
صود	-8530
▁63	-8531
▁Du	-8532
▁PC	-8533
▁لد	-8534
▁ية	-8535
▁Off	-8536
▁han	-8537
▁lea	-8538
▁lle	-8539
▁ron	-8540
▁آجو	-8541
▁آره	-8542
▁اطل	-8543
▁الن	-8544
▁بڻا	-8545
▁حسد	-8546
▁شڪي	-8547
▁صبا	-8548
▁عزا	-8549
▁كلش	-8550
▁مدو	-8551
▁پرک	-8552
▁چوڏ	-8553
▁ڊور	-8554
▁NEWS	-8555
▁Time	-8556
▁part	-8557
▁ارلي	-8558
▁انون	-8559
▁عافي	-8560
▁عضون	-8561
▁لتاڙ	-8562
▁مارج	-8563
▁نارا	-8564
▁ورچي	-8565
▁يگري	-8566
▁پيوٽ	-8567
▁ويگاس	-8568
▁پنهان	-8569
TO	-8570
dy	-8571
pa	-8572
ذي	-8573
چن	-8574
ora	-8575
ويس	-8576
▁0.	-8577
▁AC	-8578
▁am	-8579
▁tw	-8580
▁xD	-8581
▁صا	-8582
▁ظم	-8583
▁KTN	-8584
▁SQL	-8585
▁ins	-8586
▁آلي	-8587
▁ئيل	-8588
▁اهڻ	-8589
▁بسس	-8590
▁حيت	-8591
▁سِر	-8592
▁نوش	-8593
▁ولھ	-8594
▁يچي	-8595
▁ٽوٽ	-8596
▁چٽي	-8597
▁ڏيا	-8598
▁انسي	-8599
▁اڌور	-8600
▁دادن	-8601
▁ذاكر	-8602
▁لوني	-8603
▁مينا	-8604
▁مڪان	-8605
▁نشست	-8606
▁ورچو	-8607
حق	-8608
شس	-8609
▁व	-8610
▁ღ	-8611
iss	-8612
▁88	-8613
▁SL	-8614
▁UN	-8615
▁لخ	-8616
▁نغ	-8617
▁هٻ	-8618
▁ڃا	-8619
▁org	-8620
▁ابل	-8621
▁اهش	-8622
▁ترن	-8623
▁جھن	-8624
▁حان	-8625
▁دگي	-8626
▁رٿا	-8627
▁سعد	-8628
▁عنك	-8629
▁فاظ	-8630
▁فهد	-8631
▁مڙي	-8632
▁مکڻ	-8633
▁ورل	-8634
▁ووا	-8635
▁پٺي	-8636
▁چوپ	-8637
▁stra	-8638
▁خاصي	-8639
▁روٽر	-8640
▁زهرا	-8641
▁ناتي	-8642
▁نوشت	-8643
▁هرائ	-8644
▁هيلي	-8645
▁وفائ	-8646
▁ويلن	-8647
▁يمان	-8648
▁يٽور	-8649
▁گيجٽ	-8650
▁مقصود	-8651
تن	-8652
ٻر	-8653
ڑو	-8654
▁§	-8655
▁ह	-8656
ھار	-8657
▁<~	-8658
▁SS	-8659
▁gg	-8660
▁xi	-8661
▁ئڙ	-8662
▁فخ	-8663
▁ڪٺ	-8664
▁800	-8665
▁Met	-8666
▁Pri	-8667
▁آهم	-8668
▁اسب	-8669
▁تلف	-8670
▁تنو	-8671
▁ختص	-8672
▁ذهب	-8673
▁ساھ	-8674
▁غضب	-8675
▁مغل	-8676
▁وچا	-8677
▁يمر	-8678
▁ٿيم	-8679
▁ڏوھ	-8680
▁ڪهڙ	-8681
▁گوش	-8682
▁ذهبي	-8683
▁سونه	-8684
▁ليبر	-8685
▁ليور	-8686
▁ماڻه	-8687
▁هاٿي	-8688
▁هلائ	-8689
▁يارن	-8690
▁ڀائي	-8691
▁سائيٽ	-8692
▁سائيڪ	-8693
▁قلندر	-8694
▁يعقوب	-8695
ET	-8696
آف	-8697
مة	-8698
▁′	-8699
▁😉	-8700
oll	-8701
▁86	-8702
▁ER	-8703
▁NO	-8704
▁ju	-8705
▁ls	-8706
▁صج	-8707
▁هى	-8708
▁ڳچ	-8709
▁CBD	-8710
▁URL	-8711
▁bra	-8712
▁ell	-8713
▁fla	-8714
▁ابط	-8715
▁ارگ	-8716
▁ازو	-8717
▁اسف	-8718
▁برڪ	-8719
▁جيڪ	-8720
▁دنگ	-8721
▁روو	-8722
▁سنة	-8723
▁سٽڪ	-8724
▁عاص	-8725
▁لوگ	-8726
▁ملك	-8727
▁وقع	-8728
▁وڪس	-8729
▁ٻچا	-8730
▁ڌوڙ	-8731
▁ھنڌ	-8732
▁ائقو	-8733
▁انگو	-8734
▁بولي	-8735
▁رژيم	-8736
▁لندو	-8737
▁مينو	-8738
▁نافذ	-8739
▁واءِ	-8740
▁چائڻ	-8741
▁زاويه	-8742
▁ويهين	-8743
▁چوڏهن	-8744
عه	-8745
▁(0	-8746
▁57	-8747
▁92	-8748
▁96	-8749
▁AS	-8750
▁Sc	-8751
▁Sy	-8752
▁ii	-8753
▁دق	-8754
▁دی	-8755
▁ظن	-8756
▁چی	-8757
▁ھُ	-8758
▁،،،	-8759
▁اجن	-8760
▁الل	-8761
▁داب	-8762
▁ديپ	-8763
▁راا	-8764
▁رڌل	-8765
▁شيش	-8766
▁غان	-8767
▁لاج	-8768
▁محض	-8769
▁نءِ	-8770
▁وقا	-8771
▁يپي	-8772
▁ُئي	-8773
▁ٽنڊ	-8774
▁ٽيٽ	-8775
▁ڇوڙ	-8776
▁خفيف	-8777
▁سوئر	-8778
▁طعام	-8779
▁لوئي	-8780
▁نسيم	-8781
▁ينيا	-8782
▁ڙيءَ	-8783
▁ڳاڙھ	-8784
▁اسڪيل	-8785
▁ستحيل	-8786
▁نائيج	-8787
RE	-8788
يق	-8789
ori	-8790
rom	-8791
ائف	-8792
اڻا	-8793
بيل	-8794
▁.)	-8795
▁82	-8796
▁بی	-8797
▁زگ	-8798
▁10.	-8799
▁det	-8800
▁ful	-8801
▁gro	-8802
▁vis	-8803
▁آئل	-8804
▁آتش	-8805
▁انق	-8806
▁بتن	-8807
▁بهي	-8808
▁دكم	-8809
▁عصر	-8810
▁لکو	-8811
▁مرچ	-8812
▁ندى	-8813
▁ونو	-8814
▁پلو	-8815
▁ٿام	-8816
▁ائيل	-8817
▁برون	-8818
▁بودن	-8819
▁حسيت	-8820
▁رسان	-8821
▁زيان	-8822
▁سوئس	-8823
▁نايم	-8824
▁ننگر	-8825
▁ونها	-8826
▁وڪڻي	-8827
▁ينشن	-8828
▁ڊاهي	-8829
▁ڊيوس	-8830
▁شراڪت	-8831
ڳل	-8832
▁PS	-8833
▁TO	-8834
▁لز	-8835
▁يأ	-8836
▁ڦل	-8837
▁360	-8838
▁API	-8839
▁Gra	-8840
▁ica	-8841
▁sse	-8842
▁tri	-8843
▁was	-8844
▁باه	-8845
▁باٿ	-8846
▁بيك	-8847
▁تلو	-8848
▁توڙ	-8849
▁حلق	-8850
▁درش	-8851
▁ستل	-8852
▁سهم	-8853
▁عيل	-8854
▁فجر	-8855
▁قصا	-8856
▁لاا	-8857
▁لذي	-8858
▁ملف	-8859
▁ميں	-8860
▁ندگ	-8861
▁ٺھي	-8862
▁پُر	-8863
▁ڊيڊ	-8864
▁post	-8865
▁ائقي	-8866
▁ائيد	-8867
▁ابدا	-8868
▁ديدي	-8869
▁سامه	-8870
▁سنگي	-8871
▁ليند	-8872
▁ميار	-8873
▁ناتو	-8874
▁نيٽو	-8875
▁هجرت	-8876
▁ينھن	-8877
▁ريندو	-8878
وع	-8879
ڻن	-8880
▁ۃ	-8881
▁(.	-8882
▁58	-8883
▁GT	-8884
▁ig	-8885
▁عآ	-8886
▁چک	-8887
▁کړ	-8888
▁(9)	-8889
▁cra	-8890
▁vol	-8891
▁بيچ	-8892
▁تتر	-8893
▁تحر	-8894
▁جنه	-8895
▁جهٽ	-8896
▁جيه	-8897
▁رعب	-8898
▁شيل	-8899
▁كسي	-8900
▁لاو	-8901
▁لوھ	-8902
▁لھي	-8903
▁نڍي	-8904
▁واص	-8905
▁وبر	-8906
▁پلے	-8907
▁ٿِي	-8908
▁ڌيء	-8909
▁ڍير	-8910
▁Outl	-8911
▁time	-8912
▁تقلي	-8913
▁رفيق	-8914
▁سانگ	-8915
▁عاشت	-8916
▁نعرو	-8917
▁وهان	-8918
▁ڪمار	-8919
▁اسڪور	-8920
▁تغيير	-8921
▁ستاني	-8922
▁لياري	-8923
am	-8924
be	-8925
آح	-8926
سب	-8927
ٹي	-8928
ژن	-8929
كار	-8930
▁68	-8931
▁93	-8932
▁At	-8933
▁EU	-8934
▁RO	-8935
▁SM	-8936
▁جئ	-8937
▁ذن	-8938
▁ٺڪ	-8939
▁چچ	-8940
▁ڊن	-8941
▁اپر	-8942
▁جھي	-8943
▁رٻڙ	-8944
▁شاب	-8945
▁شعا	-8946
▁شغل	-8947
▁عاي	-8948
▁قصر	-8949
▁لڪس	-8950
▁مسن	-8951
▁ونئ	-8952
▁وڪر	-8953
▁ُتي	-8954
▁ٻري	-8955
▁پتا	-8956
▁پسر	-8957
▁چمن	-8958
▁گھو	-8959
▁گھڻ	-8960
▁اختر	-8961
▁انگر	-8962
▁بڻيا	-8963
▁رانٽ	-8964
▁رايح	-8965
▁روپا	-8966
▁ساجد	-8967
▁سوسي	-8968
▁شايف	-8969
▁شركت	-8970
▁مختص	-8971
▁مليح	-8972
▁ڪمرا	-8973
▁ڪيٽي	-8974
▁مشتاق	-8975
▁مفروض	-8976
▁نيڪال	-8977
UI	-8978
mm	-8979
ؤؤ	-8980
بڪ	-8981
خش	-8982
قه	-8983
كة	-8984
پڙ	-8985
یل	-8986
▁ڑ	-8987
ene	-8988
ine	-8989
ڀار	-8990
▁(→	-8991
▁72	-8992
▁Au	-8993
▁FS	-8994
▁UA	-8995
▁Wa	-8996
▁جٽ	-8997
▁دھ	-8998
▁غذ	-8999
▁ُئ	-9000
▁ڍي	-9001
▁کڏ	-9002
▁ھئ	-9003
▁1.1	-9004
▁Fra	-9005
▁ang	-9006
▁آسا	-9007
▁آنآ	-9008
▁اِي	-9009
▁ترد	-9010
▁دلو	-9011
▁سنس	-9012
▁صيت	-9013
▁عائ	-9014
▁مكر	-9015
▁همس	-9016
▁وچن	-9017
▁ياط	-9018
▁يوڊ	-9019
▁يڏا	-9020
▁پنڊ	-9021
▁پوز	-9022
▁ڪرت	-9023
▁ڪوڏ	-9024
▁گشت	-9025
▁remo	-9026
▁انست	-9027
▁ترسي	-9028
▁جرات	-9029
▁جزئي	-9030
▁سينه	-9031
▁شعاع	-9032
▁لينن	-9033
▁مرکب	-9034
▁هناك	-9035
▁يمون	-9036
▁يموٽ	-9037
▁پيڙا	-9038
▁نياپو	-9039
أت	-9040
لة	-9041
مز	-9042
ٻا	-9043
▁ٔ	-9044
ata	-9045
داء	-9046
▁69	-9047
▁71	-9048
▁76	-9049
▁CR	-9050
▁جع	-9051
▁فة	-9052
▁ڊز	-9053
▁ڳت	-9054
▁(8)	-9055
▁Man	-9056
▁Sch	-9057
▁pen	-9058
▁اٿئ	-9059
▁اڻس	-9060
▁بخت	-9061
▁تحب	-9062
▁خيا	-9063
▁زنا	-9064
▁سبت	-9065
▁لاڀ	-9066
▁مكن	-9067
▁نبض	-9068
▁نرا	-9069
▁هرج	-9070
▁واح	-9071
▁ولآ	-9072
▁پيپ	-9073
▁ڪائ	-9074
▁انان	-9075
▁صوبو	-9076
▁لهائ	-9077
▁نايت	-9078
▁هنري	-9079
▁وسين	-9080
▁وليس	-9081
▁ڏيهي	-9082
▁ڳولھ	-9083
▁موسيق	-9084
▁ناڪار	-9085
▁نروار	-9086
▁ٻوليء	-9087
EC	-9088
MI	-9089
كا	-9090
یم	-9091
▁🤣	-9092
eno	-9093
lex	-9094
يور	-9095
▁2،	-9096
▁77	-9097
▁><	-9098
▁AN	-9099
▁فظ	-9100
▁ڪہ	-9101
▁ڻج	-9102
▁ھه	-9103
▁APK	-9104
▁bit	-9105
▁آجي	-9106
▁إذا	-9107
▁ادن	-9108
▁الگ	-9109
▁الھ	-9110
▁بحب	-9111
▁بسي	-9112
▁تقو	-9113
▁راک	-9114
▁ردك	-9115
▁شفٽ	-9116
▁شهو	-9117
▁ضام	-9118
▁لڌا	-9119
▁ننا	-9120
▁هاه	-9121
▁ٻاڦ	-9122
▁پهه	-9123
▁ڇرڪ	-9124
▁Casi	-9125
▁logi	-9126
▁ائجي	-9127
▁ازاي	-9128
▁اكتر	-9129
▁ايما	-9130
▁اڪرم	-9131
▁داعش	-9132
▁زگار	-9133
▁غافل	-9134
▁لاين	-9135
▁ميرو	-9136
▁ناسا	-9137
▁نشور	-9138
▁نعرا	-9139
▁نوره	-9140
▁ياسي	-9141
▁يريز	-9142
▁ينڊو	-9143
▁يويو	-9144
▁ڌندڙ	-9145
▁گيمز	-9146
▁مطهري	-9147
).	-9148
he	-9149
ho	-9150
rd	-9151
حا	-9152
رم	-9153
ڊڪ	-9154
▁٨	-9155
▁द	-9156
era	-9157
ott	-9158
ڏيه	-9159
کوز	-9160
▁""	-9161
▁آڳ	-9162
▁2.1	-9163
▁lar	-9164
▁بشه	-9165
▁ذھن	-9166
▁ساک	-9167
▁قصة	-9168
▁قضا	-9169
▁كند	-9170
▁مبي	-9171
▁هدو	-9172
▁يحي	-9173
▁يدو	-9174
▁يرك	-9175
▁ٺڪر	-9176
▁ڇور	-9177
▁ڙوڪ	-9178
▁ڪمر	-9179
▁ڪٽس	-9180
▁ڪچو	-9181
▁Plus	-9182
▁اھيو	-9183
▁تاڪي	-9184
▁رائڻ	-9185
▁رحال	-9186
▁شكال	-9187
▁عريس	-9188
▁كويس	-9189
▁لذيذ	-9190
▁نيما	-9191
▁وائن	-9192
▁وردة	-9193
▁پنهج	-9194
▁ڀاتي	-9195
▁پرڏيه	-9196
AR	-9197
as	-9198
▁↑	-9199
فاء	-9200
وله	-9201
▁78	-9202
▁CH	-9203
▁[1	-9204
▁lu	-9205
▁حٿ	-9206
▁رى	-9207
▁طو	-9208
▁لڇ	-9209
▁ڊم	-9210
▁dri	-9211
▁sto	-9212
▁امم	-9213
▁امڪ	-9214
▁ثال	-9215
▁ججن	-9216
▁جهر	-9217
▁جھٽ	-9218
▁حيه	-9219
▁ريق	-9220
▁سپا	-9221
▁متل	-9222
▁ويڊ	-9223
▁وٿي	-9224
▁يمز	-9225
▁يهو	-9226
▁پخش	-9227
▁پٽو	-9228
▁ڀال	-9229
▁ڄائ	-9230
▁ڏون	-9231
▁ship	-9232
▁انين	-9233
▁اوري	-9234
▁اوپو	-9235
▁اوچت	-9236
▁تطبي	-9237
▁خليت	-9238
▁دادي	-9239
▁رادو	-9240
▁رامن	-9241
▁رشوت	-9242
▁سٽال	-9243
▁لولي	-9244
▁نديس	-9245
▁نرژي	-9246
▁هرام	-9247
▁ٿيٽر	-9248
▁ڪٻئي	-9249
▁تقليد	-9250
▁سونهر	-9251
▁مرکوز	-9252
cu	-9253
آب	-9254
اڳ	-9255
ضم	-9256
ant	-9257
ise	-9258
▁67	-9259
▁73	-9260
▁8-	-9261
▁SP	-9262
▁zh	-9263
▁ٻل	-9264
▁ٽه	-9265
▁پگ	-9266
▁Blu	-9267
▁cla	-9268
▁اپو	-9269
▁اٿن	-9270
▁بلٽ	-9271
▁بوي	-9272
▁بگو	-9273
▁جزي	-9274
▁حرڪ	-9275
▁خيو	-9276
▁رحت	-9277
▁زلف	-9278
▁سوق	-9279
▁شاي	-9280
▁صيب	-9281
▁فتا	-9282
▁لار	-9283
▁لذت	-9284
▁هسه	-9285
▁يفر	-9286
▁يپٽ	-9287
▁ٻچن	-9288
▁ڀڳت	-9289
▁ڍنگ	-9290
▁ڍور	-9291
▁ڪات	-9292
▁ڪفن	-9293
▁ڪني	-9294
▁ڳڻي	-9295
▁ئيند	-9296
▁ابوي	-9297
▁اران	-9298
▁الاج	-9299
▁تختي	-9300
▁خبار	-9301
▁دوکي	-9302
▁روزا	-9303
▁صارت	-9304
▁علان	-9305
▁لنگر	-9306
▁مائش	-9307
▁نادي	-9308
▁ننهن	-9309
▁هجون	-9310
▁هريا	-9311
▁يٽيڪ	-9312
▁share	-9313
▁تطبيق	-9314
▁نيپال	-9315
▁والوز	-9316
ES	-9317
IF	-9318
gg	-9319
we	-9320
ذآ	-9321
لى	-9322
ڀا	-9323
▁ۅ	-9324
▁ۉ	-9325
قيل	-9326
نگه	-9327
▁61	-9328
▁66	-9329
▁6:	-9330
▁7-	-9331
▁GM	-9332
▁Ju	-9333
▁ST	-9334
▁غب	-9335
▁ڙڻ	-9336
▁گئ	-9337
▁(7)	-9338
▁Nex	-9339
▁Sky	-9340
▁dir	-9341
▁fra	-9342
▁new	-9343
▁ros	-9344
▁sen	-9345
▁sha	-9346
▁دهه	-9347
▁رفي	-9348
▁قطب	-9349
▁كلو	-9350
▁لاد	-9351
▁مرن	-9352
▁موه	-9353
▁يبه	-9354
▁يبو	-9355
▁ٽٽل	-9356
▁چلم	-9357
▁چلي	-9358
▁ڌند	-9359
▁ڏام	-9360
▁ڏنس	-9361
▁ڪجن	-9362
▁ڪوه	-9363
▁reco	-9364
▁ائشي	-9365
▁جاول	-9366
▁درشن	-9367
▁ريڪو	-9368
▁لوهي	-9369
▁مليس	-9370
▁نبوت	-9371
▁يڊنٽ	-9372
▁پاڳل	-9373
▁ڪنڊي	-9374
▁ڳايو	-9375
▁بروکر	-9376
▁جمهور	-9377
▁زاديء	-9378
▁هينري	-9379
▁ويانا	-9380
▁يڏانه	-9381
AS	-9382
HS	-9383
zz	-9384
آه	-9385
حي	-9386
صت	-9387
فة	-9388
eli	-9389
▁CF	-9390
▁DH	-9391
▁PL	-9392
▁SU	-9393
▁ji	-9394
▁xy	-9395
▁za	-9396
▁تڏ	-9397
▁دڳ	-9398
▁سأ	-9399
▁ضب	-9400
▁فس	-9401
▁قع	-9402
▁لص	-9403
▁ssi	-9404
▁tal	-9405
▁ابع	-9406
▁انن	-9407
▁بلب	-9408
▁تفر	-9409
▁ركز	-9410
▁سخي	-9411
▁سعر	-9412
▁سيپ	-9413
▁سڏڻ	-9414
▁صفت	-9415
▁فکر	-9416
▁قزا	-9417
▁لئن	-9418
▁لبى	-9419
▁لزا	-9420
▁لمى	-9421
▁لڌي	-9422
▁نٽس	-9423
▁ٽاڪ	-9424
▁ڀول	-9425
▁ڀڳو	-9426
▁ھري	-9427
▁Game	-9428
▁play	-9429
▁ئنسي	-9430
▁تخلي	-9431
▁تيءَ	-9432
▁رائو	-9433
▁رجوع	-9434
▁علاء	-9435
▁ليان	-9436
▁منهج	-9437
▁ندري	-9438
▁هنئي	-9439
▁يتيم	-9440
▁يليو	-9441
▁يمين	-9442
▁ڌيئر	-9443
▁گيءَ	-9444
▁دوڪان	-9445
▁وڪالت	-9446
▁ڌرتيء	-9447
ht	-9448
اق	-9449
ڈر	-9450
بوع	-9451
صلت	-9452
لاط	-9453
ورة	-9454
▁1,	-9455
▁74	-9456
▁91	-9457
▁Ab	-9458
▁Ed	-9459
▁GP	-9460
▁Is	-9461
▁ap	-9462
▁nf	-9463
▁آٿ	-9464
▁سے	-9465
▁ضه	-9466
▁ڃي	-9467
▁ڳه	-9468
▁180	-9469
▁Bra	-9470
▁box	-9471
▁rat	-9472
▁خاڪ	-9473
▁رسد	-9474
▁سنا	-9475
▁عسل	-9476
▁لاپ	-9477
▁لوز	-9478
▁مبل	-9479
▁موس	-9480
▁ميڻ	-9481
▁نحن	-9482
▁ورڻ	-9483
▁چلو	-9484
▁چڙه	-9485
▁ڦرڻ	-9486
▁ڪاپ	-9487
▁ڻجي	-9488
▁ھيا	-9489
▁ائنڊ	-9490
▁اديء	-9491
▁انڊي	-9492
▁بادي	-9493
▁جنان	-9494
▁دوني	-9495
▁ديون	-9496
▁سويه	-9497
▁قاصد	-9498
▁مساج	-9499
▁نژاد	-9500
▁نھنج	-9501
▁وريء	-9502
▁يورس	-9503
▁ڪنگڻ	-9504
▁ڱريو	-9505
▁تشڪيل	-9506
▁دريسي	-9507
▁رائيل	-9508
▁قبيلا	-9509
▁مھينو	-9510
▁ڀنڀور	-9511
AC	-9512
xi	-9513
ثت	-9514
طف	-9515
قد	-9516
وى	-9517
یز	-9518
یف	-9519
▁٧	-9520
▁≤	-9521
▁😀	-9522
گيل	-9523
▁AD	-9524
▁Cr	-9525
▁Kn	-9526
▁بة	-9527
▁قذ	-9528
▁لہ	-9529
▁نڙ	-9530
▁350	-9531
▁Web	-9532
▁ste	-9533
▁؟؟!	-9534
▁آرا	-9535
▁أبو	-9536
▁احي	-9537
▁بسم	-9538
▁بوب	-9539
▁بيد	-9540
▁توپ	-9541
▁جلي	-9542
▁جوس	-9543
▁جول	-9544
▁جوي	-9545
▁خطأ	-9546
▁سُک	-9547
▁لعن	-9548
▁لٿي	-9549
▁ناه	-9550
▁وچو	-9551
▁يكر	-9552
▁يوا	-9553
▁ڇٽي	-9554
▁کنم	-9555
▁ڪڙڪ	-9556
▁اوسر	-9557
▁بيلا	-9558
▁ريشم	-9559
▁سادا	-9560
▁شريف	-9561
▁صيلي	-9562
▁عاجب	-9563
▁مشرق	-9564
▁معرف	-9565
▁نهاد	-9566
▁هيات	-9567
▁وغير	-9568
▁ڌائي	-9569
▁ڪانٽ	-9570
▁تاڪيد	-9571
▁ترديد	-9572
▁تمرين	-9573
▁روشلم	-9574
ct	-9575
ئل	-9576
ٹر	-9577
پن	-9578
▁â	-9579
▁☺	-9580
ائض	-9581
ارا	-9582
جهر	-9583
▁#1	-9584
▁83	-9585
▁Ke	-9586
▁__	-9587
▁io	-9588
▁؟.	-9589
▁طح	-9590
▁ھِ	-9591
▁ہر	-9592
▁′′	-9593
▁(0)	-9594
▁1.2	-9595
▁1.5	-9596
▁Wor	-9597
▁aro	-9598
▁bre	-9599
▁you	-9600
▁أني	-9601
▁جزء	-9602
▁ركض	-9603
▁رڙي	-9604
▁سوف	-9605
▁شگر	-9606
▁عتي	-9607
▁عرو	-9608
▁عشر	-9609
▁ععع	-9610
▁غرض	-9611
▁غصب	-9612
▁فاج	-9613
▁كار	-9614
▁كرا	-9615
▁لنچ	-9616
▁مئو	-9617
▁محا	-9618
▁مدر	-9619
▁منم	-9620
▁هوه	-9621
▁ٽپي	-9622
▁ڏيل	-9623
▁ڦٽو	-9624
▁ڪسي	-9625
▁ڪلم	-9626
▁desi	-9627
▁حريم	-9628
▁ذكاء	-9629
▁رتون	-9630
▁فاكر	-9631
▁مايو	-9632
▁وريت	-9633
▁ورچی	-9634
▁وصال	-9635
▁پوند	-9636
▁پويا	-9637
▁چرٻي	-9638
▁داريد	-9639
gu	-9640
كو	-9641
▁◆	-9642
▁😁	-9643
att	-9644
uto	-9645
ائت	-9646
وني	-9647
کيپ	-9648
▁'_	-9649
▁79	-9650
▁81	-9651
▁97	-9652
▁hu	-9653
▁lf	-9654
▁،.	-9655
▁آق	-9656
▁سق	-9657
▁شط	-9658
▁لة	-9659
▁ڳل	-9660
▁All	-9661
▁Bit	-9662
▁Blo	-9663
▁Bon	-9664
▁^^"	-9665
▁bri	-9666
▁dow	-9667
▁mer	-9668
▁pot	-9669
▁آٿت	-9670
▁إيه	-9671
▁ابه	-9672
▁اهڙ	-9673
▁تاد	-9674
▁تدو	-9675
▁جاه	-9676
▁جوت	-9677
▁حدا	-9678
▁خاي	-9679
▁رجب	-9680
▁رضي	-9681
▁شمن	-9682
▁ضاي	-9683
▁عقب	-9684
▁غري	-9685
▁فاض	-9686
▁قات	-9687
▁لاي	-9688
▁هِي	-9689
▁هڏن	-9690
▁هڻن	-9691
▁واو	-9692
▁وشش	-9693
▁يپل	-9694
▁پشت	-9695
▁پوش	-9696
▁پکو	-9697
▁ڌاء	-9698
▁ڍڪي	-9699
▁logy	-9700
▁ائوس	-9701
▁ايبل	-9702
▁جراي	-9703
▁رحبا	-9704
▁رعيت	-9705
▁ميلا	-9706
▁هداف	-9707
▁وسٽن	-9708
▁يدان	-9709
▁يسيج	-9710
▁يڊمي	-9711
▁پالي	-9712
▁ڍڪيل	-9713
▁کندا	-9714
▁ڪالا	-9715
▁ڪمان	-9716
▁بنگال	-9717
▁ذوالف	-9718
▁فاضيه	-9719
▁فرائض	-9720
▁هيندڙ	-9721
▁ٽوٽڪا	-9722
RS	-9723
lt	-9724
لد	-9725
پس	-9726
ڊن	-9727
ڊٽ	-9728
▁פ	-9729
ڀير	-9730
▁94	-9731
▁أو	-9732
▁رؤ	-9733
▁سٻ	-9734
▁ضغ	-9735
▁پط	-9736
▁ھڻ	-9737
ندوق	-9738
▁---	-9739
▁2.0	-9740
▁Aff	-9741
▁Pla	-9742
▁Tok	-9743
▁[1]	-9744
▁pol	-9745
▁sis	-9746
▁ارچ	-9747
▁اية	-9748
▁تهه	-9749
▁حقا	-9750
▁دائ	-9751
▁دوج	-9752
▁ذاب	-9753
▁رگز	-9754
▁زود	-9755
▁زيا	-9756
▁ستع	-9757
▁صنم	-9758
▁غيب	-9759
▁مپن	-9760
▁نري	-9761
▁هرڻ	-9762
▁هكر	-9763
▁هٽل	-9764
▁واف	-9765
▁ڪما	-9766
▁ڪوس	-9767
▁ھنج	-9768
▁Rosa	-9769
▁تبار	-9770
▁رويس	-9771
▁ريڊر	-9772
▁قابض	-9773
▁قضيه	-9774
▁لاڪا	-9775
▁لوڏي	-9776
▁يڪسي	-9777
▁پنبه	-9778
▁پنهل	-9779
▁ڊسٽر	-9780
▁ڏاهي	-9781
▁گوتم	-9782
▁افلاط	-9783
▁توفيق	-9784
▁سلهاڙ	-9785
▁صندوق	-9786
▁عائشه	-9787
▁وئيٽر	-9788
▁ويکيپ	-9789
20	-9790
EL	-9791
IA	-9792
OW	-9793
TF	-9794
فع	-9795
قب	-9796
لڪ	-9797
وڪ	-9798
پٽ	-9799
ull	-9800
اره	-9801
▁By	-9802
▁On	-9803
▁Wh	-9804
▁Ya	-9805
▁cy	-9806
▁سڙ	-9807
▁نة	-9808
▁Ver	-9809
▁two	-9810
▁بطي	-9811
▁تهن	-9812
▁جھا	-9813
▁سهر	-9814
▁طبا	-9815
▁ظرف	-9816
▁عما	-9817
▁فقد	-9818
▁لبن	-9819
▁لكي	-9820
▁لوه	-9821
▁لٿو	-9822
▁مدح	-9823
▁مچي	-9824
▁نسا	-9825
▁وضع	-9826
▁چپس	-9827
▁ڊنر	-9828
▁ڙهن	-9829
▁from	-9830
▁ارني	-9831
▁اهيم	-9832
▁رنگا	-9833
▁شيلف	-9834
▁فراد	-9835
▁قصور	-9836
▁قيصر	-9837
▁لامت	-9838
▁نبات	-9839
▁نعري	-9840
▁ونين	-9841
▁ڇاتي	-9842
▁ڪوري	-9843
▁اوپري	-9844
▁بهانو	-9845
▁حتمال	-9846
▁ريشمي	-9847
▁زلزلو	-9848
▁عبارت	-9849
▁نائيٽ	-9850
▁وراثت	-9851
▁ڪستان	-9852
ba	-9853
آي	-9854
ړه	-9855
▁ु	-9856
ent	-9857
uri	-9858
ثيل	-9859
لاء	-9860
يڪا	-9861
ډيا	-9862
▁1،	-9863
▁89	-9864
▁Cu	-9865
▁ES	-9866
▁Sm	-9867
▁بې	-9868
▁ثا	-9869
▁لڱ	-9870
▁پڳ	-9871
▁ٿم	-9872
▁Fin	-9873
▁Tik	-9874
▁cre	-9875
▁end	-9876
▁gin	-9877
▁pit	-9878
▁tte	-9879
▁إلا	-9880
▁اُڀ	-9881
▁بنو	-9882
▁تجا	-9883
▁حجت	-9884
▁حزب	-9885
▁راھ	-9886
▁رضه	-9887
▁رفع	-9888
▁ريخ	-9889
▁رگا	-9890
▁سُڌ	-9891
▁طير	-9892
▁مَن	-9893
▁نئر	-9894
▁چنگ	-9895
▁ڊان	-9896
▁ڊاک	-9897
▁ڊرو	-9898
▁کڄي	-9899
▁More	-9900
▁Serv	-9901
▁find	-9902
▁stri	-9903
▁انڌا	-9904
▁توڻي	-9905
▁جهڳڙ	-9906
▁دراڪ	-9907
▁ريخت	-9908
▁سوسو	-9909
▁سيري	-9910
▁شوڪت	-9911
▁فاقي	-9912
▁فيڪٽ	-9913
▁قزاق	-9914
▁ليلا	-9915
▁مسال	-9916
▁مطرح	-9917
▁نقاش	-9918
▁نيرن	-9919
▁وجيه	-9920
▁ويٽر	-9921
▁يوڪر	-9922
▁ٺھيل	-9923
▁ٽيهن	-9924
▁پطرس	-9925
▁ڙيند	-9926
▁ڪپور	-9927
▁گھوٽ	-9928
▁بيلنس	-9929
▁تدوين	-9930
▁تقييم	-9931
▁سنگيت	-9932
▁صلاحي	-9933
▁هيڪرز	-9934
▁چارئي	-9935
IC	-9936
ضت	-9937
طع	-9938
طق	-9939
عج	-9940
لر	-9941
کت	-9942
ھڪ	-9943
اڻن	-9944
بيه	-9945
فوي	-9946
كير	-9947
▁CM	-9948
▁ko	-9949
▁فد	-9950
▁هے	-9951
▁ٻہ	-9952
▁ڍو	-9953
▁گت	-9954
▁Law	-9955
▁May	-9956
▁ask	-9957
▁mak	-9958
▁mit	-9959
▁mul	-9960
▁ney	-9961
▁اڙو	-9962
▁بگم	-9963
▁تخص	-9964
▁تلخ	-9965
▁جده	-9966
▁جنج	-9967
▁حاس	-9968
▁رال	-9969
▁رحب	-9970
▁ررو	-9971
▁زما	-9972
▁سهڻ	-9973
▁شتم	-9974
▁صوت	-9975
▁عرش	-9976
▁قدا	-9977
▁لپي	-9978
▁نَه	-9979
▁هوب	-9980
▁ويش	-9981
▁يجه	-9982
▁ٽرن	-9983
▁ڀڳل	-9984
▁چوب	-9985
▁ڊيش	-9986
▁ڪشم	-9987
▁گُل	-9988
▁ight	-9989
▁اريم	-9990
▁اليڪ	-9991
▁اهري	-9992
▁اوله	-9993
▁اولھ	-9994
▁جولي	-9995
▁خيار	-9996
▁دانا	-9997
▁طاري	-9998
▁لمان	-9999
▁ملند	-10000
▁ندرو	-10001
▁نعيم	-10002
▁وڪام	-10003
▁يانت	-10004
▁يراث	-10005
▁يٺين	-10006
▁پڙهن	-10007
▁ېډيا	-10008
▁Quote	-10009
▁ترکيب	-10010
▁سوچين	-10011
▁نظارت	-10012
EA	-10013
EN	-10014
IS	-10015
چه	-10016
ڌن	-10017
ڪم	-10018
▁ۆ	-10019
▁ट	-10020
وره	-10021
▁84	-10022
▁AR	-10023
▁DO	-10024
▁Or	-10025
▁Xp	-10026
▁wo	-10027
▁ؤن	-10028
▁ٺھ	-10029
▁700	-10030
▁LCD	-10031
▁ODM	-10032
▁ral	-10033
▁أأأ	-10034
▁تکو	-10035
▁جزن	-10036
▁خلف	-10037
▁سئي	-10038
▁شکل	-10039
▁طمع	-10040
▁عبر	-10041
▁غاد	-10042
▁غصي	-10043
▁فوم	-10044
▁لري	-10045
▁ماڙ	-10046
▁منى	-10047
▁منڊ	-10048
▁هلڪ	-10049
▁يحب	-10050
▁ٻني	-10051
▁پرن	-10052
▁ڄمي	-10053
▁ڇپر	-10054
▁ڊار	-10055
▁کاڄ	-10056
▁ھٿن	-10057
▁Site	-10058
▁vari	-10059
▁بدال	-10060
▁تئين	-10061
▁تركي	-10062
▁خوشب	-10063
▁ذرات	-10064
▁سمير	-10065
▁سپلا	-10066
▁فريڪ	-10067
▁مخفف	-10068
▁نازع	-10069
▁نازي	-10070
▁نثري	-10071
▁نساء	-10072
▁واجد	-10073
▁وضيح	-10074
▁وفاء	-10075
▁وڪيم	-10076
▁يادي	-10077
▁ياپي	-10078
▁يلنگ	-10079
▁يوكن	-10080
▁ائونٽ	-10081
▁انڌير	-10082
▁جهنڊو	-10083
▁نگالي	-10084
▁ٽريشن	-10085
▁ٽيڪنا	-10086
▁ڪنڀار	-10087
إن	-10088
عب	-10089
▁è	-10090
▁ग	-10091
▁9-	-10092
▁AB	-10093
▁CS	-10094
▁DI	-10095
▁FO	-10096
▁Fe	-10097
▁Fo	-10098
▁TH	-10099
▁Up	-10100
▁فص	-10101
▁كب	-10102
▁وړ	-10103
▁ٺل	-10104
▁گج	-10105
▁110	-10106
▁Ali	-10107
▁cho	-10108
▁set	-10109
▁wag	-10110
▁أجل	-10111
▁ئيو	-10112
▁بطل	-10113
▁تنب	-10114
▁حفي	-10115
▁خيز	-10116
▁صرت	-10117
▁عفر	-10118
▁فول	-10119
▁قبا	-10120
▁ملز	-10121
▁نكر	-10122
▁وڊي	-10123
▁ٻٻر	-10124
▁پنه	-10125
▁پيز	-10126
▁ڀان	-10127
▁ڌيا	-10128
▁ڪنز	-10129
▁ڳچي	-10130
▁Blue	-10131
▁port	-10132
▁اظهر	-10133
▁بيطس	-10134
▁تعوي	-10135
▁توري	-10136
▁راڳي	-10137
▁رخصت	-10138
▁زائر	-10139
▁سولف	-10140
▁قذاف	-10141
▁نووا	-10142
▁نڪرن	-10143
▁هيڪل	-10144
▁يميا	-10145
▁پيما	-10146
▁ڪريا	-10147
▁color	-10148
▁اوتار	-10149
▁تحقیق	-10150
▁روپين	-10151
▁زڪوات	-10152
▁پروڊڪ	-10153
آص	-10154
حل	-10155
دة	-10156
ڪش	-10157
▁٫	-10158
▁ڛ	-10159
lea	-10160
سيس	-10161
▁IT	-10162
▁pm	-10163
▁sd	-10164
▁zy	-10165
▁نے	-10166
▁وء	-10167
▁ِه	-10168
▁ڏڻ	-10169
▁ڑھ	-10170
▁گپ	-10171
▁11.	-10172
▁3.1	-10173
▁Pal	-10174
▁Won	-10175
▁pay	-10176
▁sch	-10177
▁ئبر	-10178
▁اتف	-10179
▁اُس	-10180
▁باک	-10181
▁ثنا	-10182
▁خپل	-10183
▁دبي	-10184
▁دلع	-10185
▁رزن	-10186
▁زيب	-10187
▁شطر	-10188
▁عقد	-10189
▁علو	-10190
▁فدا	-10191
▁كام	-10192
▁كسر	-10193
▁لكل	-10194
▁مغز	-10195
▁نهر	-10196
▁وسڻ	-10197
▁ياح	-10198
▁ٽتو	-10199
▁ڀاڄ	-10200
▁ڊني	-10201
▁ڪيئ	-10202
▁ھڻڻ	-10203
▁Post	-10204
▁love	-10205
▁need	-10206
▁wide	-10207
▁ائرن	-10208
▁انوس	-10209
▁اونا	-10210
▁ديان	-10211
▁دڪار	-10212
▁راجل	-10213
▁رينڊ	-10214
▁رييس	-10215
▁سپين	-10216
▁عنود	-10217
▁فاضل	-10218
▁هيبت	-10219
▁هيڪس	-10220
▁وريل	-10221
▁ينسل	-10222
▁ٽالپ	-10223
▁پاتي	-10224
▁ڊراپ	-10225
▁ڊزني	-10226
▁گروھ	-10227
▁اسڪيٽ	-10228
▁تلويز	-10229
▁دارند	-10230
▁گيلان	-10231
bu	-10232
آك	-10233
▁ڜ	-10234
▁ी	-10235
راء	-10236
روز	-10237
▁":	-10238
▁++	-10239
▁-1	-10240
▁3،	-10241
▁EN	-10242
▁Hu	-10243
▁Hy	-10244
▁IV	-10245
▁PA	-10246
▁PM	-10247
▁ea	-10248
▁ءٌ	-10249
▁تز	-10250
▁سٹ	-10251
▁غن	-10252
▁پہ	-10253
▁گد	-10254
▁12.	-10255
▁160	-10256
▁Cha	-10257
▁ome	-10258
▁تکي	-10259
▁ححح	-10260
▁سكي	-10261
▁هوُ	-10262
▁وچڙ	-10263
▁پسڻ	-10264
▁پنو	-10265
▁پڪا	-10266
▁ٿان	-10267
▁ڊڄو	-10268
▁ڍڪڻ	-10269
▁کنه	-10270
▁ڪنا	-10271
▁ڪهي	-10272
▁گنه	-10273
▁ھئڻ	-10274
▁perf	-10275
▁ابوه	-10276
▁افتد	-10277
▁انڊس	-10278
▁تائي	-10279
▁رتاح	-10280
▁سمون	-10281
▁شكست	-10282
▁شوية	-10283
▁عداد	-10284
▁عمان	-10285
▁لبيا	-10286
▁ليلى	-10287
▁ناتا	-10288
▁نوني	-10289
▁هولو	-10290
▁هٽلر	-10291
▁ورسل	-10292
▁ٺهڪي	-10293
▁ٽولو	-10294
▁ڪريل	-10295
▁Skype	-10296
▁ائيٽر	-10297
▁تخصصي	-10298
▁تمثيل	-10299
▁سيڪيو	-10300
▁نيروي	-10301
▁هيفاء	-10302
▁يينوس	-10303
DP	-10304
UB	-10305
ke	-10306
sy	-10307
ةة	-10308
دت	-10309
رة	-10310
يك	-10311
ٻٽ	-10312
▁ٗ	-10313
ona	-10314
ذاء	-10315
▁5)	-10316
▁DA	-10317
▁FA	-10318
▁It	-10319
▁MS	-10320
▁بأ	-10321
▁غي	-10322
▁ڊٽ	-10323
▁25.	-10324
▁Sep	-10325
▁car	-10326
▁آئن	-10327
▁اشك	-10328
▁ايئ	-10329
▁بيج	-10330
▁تعز	-10331
▁تيو	-10332
▁ثري	-10333
▁جرح	-10334
▁حشر	-10335
▁دٻو	-10336
▁ذلت	-10337
▁ربط	-10338
▁رسو	-10339
▁رمن	-10340
▁زده	-10341
▁ساف	-10342
▁طفل	-10343
▁ظفر	-10344
▁عاا	-10345
▁فرج	-10346
▁قصص	-10347
▁كنا	-10348
▁لءِ	-10349
▁نسى	-10350
▁نفا	-10351
▁نيچ	-10352
▁های	-10353
▁هنت	-10354
▁ومش	-10355
▁يلڊ	-10356
▁چوٽ	-10357
▁چُپ	-10358
▁ڇنڊ	-10359
▁ڊڄڻ	-10360
▁ڪاٽ	-10361
▁گني	-10362
▁گنگ	-10363
▁ڻائ	-10364
▁ہیں	-10365
▁Affa	-10366
▁Spot	-10367
▁miss	-10368
▁اسون	-10369
▁اوون	-10370
▁حفيظ	-10371
▁ستطي	-10372
▁لنڈر	-10373
▁لينک	-10374
▁نسور	-10375
▁يئرن	-10376
▁ينين	-10377
▁يٺان	-10378
▁ڪنڀر	-10379
▁ڪوال	-10380
▁اوتري	-10381
▁اڻيون	-10382
▁سنوات	-10383
▁قافلي	-10384
▁واڳون	-10385
▁ينيات	-10386
RO	-10387
ie	-10388
سة	-10389
وك	-10390
ٻه	-10391
ڏا	-10392
ېر	-10393
▁Ô	-10394
▁̈	-10395
▁😍	-10396
box	-10397
ارب	-10398
▁01	-10399
▁05	-10400
▁BI	-10401
▁CC	-10402
▁Dr	-10403
▁Em	-10404
▁Et	-10405
▁Pe	-10406
▁TV	-10407
▁je	-10408
▁mu	-10409
▁اٹ	-10410
▁ڇھ	-10411
▁ڍڳ	-10412
▁ڏُ	-10413
▁Ana	-10414
▁Cla	-10415
▁Gre	-10416
▁bro	-10417
▁sel	-10418
▁vid	-10419
▁wri	-10420
▁آنر	-10421
▁ئنڪ	-10422
▁اكي	-10423
▁تاپ	-10424
▁تحس	-10425
▁تره	-10426
▁تنه	-10427
▁تيا	-10428
▁حلن	-10429
▁داء	-10430
▁رأي	-10431
▁ستگ	-10432
▁سنك	-10433
▁سوڊ	-10434
▁سيج	-10435
▁طنز	-10436
▁فاس	-10437
▁فشل	-10438
▁لغز	-10439
▁محو	-10440
▁ڃري	-10441
▁ڄڻو	-10442
▁ڊاپ	-10443
▁ڊوم	-10444
▁ڪاف	-10445
▁گدڙ	-10446
▁Gemi	-10447
▁Host	-10448
▁Xbox	-10449
▁ular	-10450
▁البا	-10451
▁اليف	-10452
▁اليو	-10453
▁ايڪي	-10454
▁تجلي	-10455
▁حطيت	-10456
▁داده	-10457
▁راڊڪ	-10458
▁روني	-10459
▁زيدي	-10460
▁سٽري	-10461
▁صرار	-10462
▁قرنط	-10463
▁كاري	-10464
▁مزید	-10465
▁وراك	-10466
▁يانڪ	-10467
▁ينما	-10468
▁ينڊي	-10469
▁ٽبال	-10470
▁ٽوڪن	-10471
▁چيئر	-10472
▁ڌارا	-10473
▁ڏوڪڙ	-10474
▁ڪرشن	-10475
▁ڪلين	-10476
▁تبريز	-10477
▁نارمل	-10478
▁ناريل	-10479
▁نديون	-10480
PE	-10481
VC	-10482
WC	-10483
cc	-10484
بڙ	-10485
یک	-10486
▁ט	-10487
▁ؑ	-10488
▁♫	-10489
باط	-10490
سوف	-10491
ٺار	-10492
ڪوز	-10493
▁08	-10494
▁87	-10495
▁DD	-10496
▁ÔÔ	-10497
▁اے	-10498
▁دز	-10499
▁يې	-10500
▁پٿ	-10501
▁څه	-10502
▁2.2	-10503
▁Ber	-10504
▁Her	-10505
▁boa	-10506
▁flu	-10507
▁sur	-10508
▁war	-10509
▁إني	-10510
▁ارث	-10511
▁ارٿ	-10512
▁بقو	-10513
▁بهش	-10514
▁تات	-10515
▁جله	-10516
▁جوک	-10517
▁حاق	-10518
▁خوت	-10519
▁دڙو	-10520
▁سچن	-10521
▁شبي	-10522
▁شکر	-10523
▁ظيم	-10524
▁عرس	-10525
▁فاق	-10526
▁قهو	-10527
▁لست	-10528
▁لقد	-10529
▁نبر	-10530
▁هضم	-10531
▁ودک	-10532
▁ويڳ	-10533
▁ٻير	-10534
▁پدر	-10535
▁ڊاٽ	-10536
▁ڪنس	-10537
▁گفٽ	-10538
▁ڳرو	-10539
▁ھجن	-10540
▁tech	-10541
▁type	-10542
▁انڪم	-10543
▁بولٽ	-10544
▁تمند	-10545
▁جهڪي	-10546
▁خايف	-10547
▁رهاڻ	-10548
▁سنگم	-10549
▁سورٺ	-10550
▁ضامن	-10551
▁عماد	-10552
▁فيشل	-10553
▁لاجي	-10554
▁لڳائ	-10555
▁مائڪ	-10556
▁مهان	-10557
▁موجو	-10558
▁نذير	-10559
▁هديل	-10560
▁هنجي	-10561
▁والٽ	-10562
▁وريٽ	-10563
▁ورھا	-10564
▁وشيء	-10565
▁ويسي	-10566
▁يلنج	-10567
▁يڪسپ	-10568
▁ٽيئي	-10569
▁ٿيار	-10570
▁ڪامي	-10571
▁ڪروز	-10572
▁گلشن	-10573
▁تنوير	-10574
▁جوانن	-10575
▁ينجهر	-10576
▁يڪاني	-10577
30	-10578
آج	-10579
رع	-10580
زس	-10581
ھم	-10582
یب	-10583
▁ں	-10584
▁ڼ	-10585
eni	-10586
ong	-10587
utt	-10588
فيل	-10589
قيه	-10590
ٽيل	-10591
▁02	-10592
▁Ev	-10593
▁Gu	-10594
▁Ru	-10595
▁SH	-10596
▁Us	-10597
▁bl	-10598
▁ml	-10599
▁zo	-10600
▁تئ	-10601
▁خس	-10602
▁هق	-10603
▁ڳڙ	-10604
▁3.0	-10605
▁Bri	-10606
▁EUR	-10607
▁Fru	-10608
▁Gro	-10609
▁cer	-10610
▁fer	-10611
▁mir	-10612
▁آنت	-10613
▁أول	-10614
▁بگي	-10615
▁جڙڻ	-10616
▁حسا	-10617
▁رُخ	-10618
▁رڊر	-10619
▁زام	-10620
▁سهل	-10621
▁شيئ	-10622
▁صدك	-10623
▁فقر	-10624
▁لاک	-10625
▁ناو	-10626
▁هڏي	-10627
▁وبو	-10628
▁ورھ	-10629
▁ومب	-10630
▁وهڻ	-10631
▁ٺھر	-10632
▁ڏيج	-10633
▁ڏڪڻ	-10634
▁ڪآن	-10635
▁ڪشي	-10636
▁ڪُن	-10637
▁گيا	-10638
▁ھلڻ	-10639
▁adju	-10640
▁mark	-10641
▁what	-10642
▁أنقر	-10643
▁افته	-10644
▁الين	-10645
▁بارڪ	-10646
▁بيلي	-10647
▁دورا	-10648
▁ريمو	-10649
▁سپري	-10650
▁مولي	-10651
▁نمول	-10652
▁ننگا	-10653
▁هاتي	-10654
▁وئنگ	-10655
▁وڻيج	-10656
▁يالا	-10657
▁ٽوئي	-10658
▁ڊيزل	-10659
▁ڪولي	-10660
▁ڪوڪو	-10661
▁گاني	-10662
▁انيال	-10663
▁انيون	-10664
▁ايشين	-10665
▁بلوٽو	-10666
▁تصويب	-10667
▁روپيه	-10668
▁نگهار	-10669
▁هنگري	-10670
▁هيڪنگ	-10671
▁والار	-10672
▁وينڊر	-10673
▁ڏونگر	-10674
LE	-10675
sc	-10676
جع	-10677
ٻو	-10678
ڏر	-10679
ڑي	-10680
ژه	-10681
▁ڹ	-10682
ead	-10683
ile	-10684
lot	-10685
اتم	-10686
ولة	-10687
▁03	-10688
▁BT	-10689
▁EC	-10690
▁Ko	-10691
▁Nu	-10692
▁SF	-10693
▁cm	-10694
▁nz	-10695
▁آڏ	-10696
▁عك	-10697
▁غف	-10698
▁يږ	-10699
▁ُج	-10700
▁140	-10701
▁2-3	-10702
▁Car	-10703
▁Cri	-10704
▁Uni	-10705
▁bin	-10706
▁bot	-10707
▁cli	-10708
▁del	-10709
▁mun	-10710
▁ult	-10711
▁ئرن	-10712
▁تنس	-10713
▁تیر	-10714
▁ذره	-10715
▁ضغط	-10716
▁طما	-10717
▁منذ	-10718
▁منٿ	-10719
▁مهن	-10720
▁مُک	-10721
▁هبي	-10722
▁هنئ	-10723
▁هوو	-10724
▁ولت	-10725
▁يرٽ	-10726
▁يهڙ	-10727
▁ٻڌن	-10728
▁ڀڃڻ	-10729
▁ڄڻڪ	-10730
▁چير	-10731
▁ڇاڻ	-10732
▁ڊاه	-10733
▁کره	-10734
▁ھُن	-10735
▁Know	-10736
▁Part	-10737
▁ائير	-10738
▁اسمی	-10739
▁اڻٽر	-10740
▁بزني	-10741
▁تحرڪ	-10742
▁حذاء	-10743
▁دخول	-10744
▁رانڊ	-10745
▁روبي	-10746
▁ستين	-10747
▁سونھ	-10748
▁شبهه	-10749
▁شمال	-10750
▁صوبا	-10751
▁كاتب	-10752
▁لاھي	-10753
▁مداف	-10754
▁مركب	-10755
▁مونو	-10756
▁ميءَ	-10757
▁نقدر	-10758
▁نهال	-10759
▁نورة	-10760
▁هاذا	-10761
▁هالو	-10762
▁هولي	-10763
▁هيند	-10764
▁هينڊ	-10765
▁ونصل	-10766
▁يزيء	-10767
▁ڑھیں	-10768
▁ڪرام	-10769
▁گيان	-10770
▁Photo	-10771
▁short	-10772
▁ادگار	-10773
▁ريٽنگ	-10774
▁نرالي	-10775
▁ڪينڪي	-10776
PA	-10777
آس	-10778
غر	-10779
پڻ	-10780
▁é	-10781
▁ٓ	-10782
▁›	-10783
▁★	-10784
خار	-10785
راف	-10786
زيب	-10787
▁EX	-10788
▁GA	-10789
▁em	-10790
▁شح	-10791
▁15.	-10792
▁19.	-10793
▁Ani	-10794
▁Cli	-10795
▁Tri	-10796
▁Wri	-10797
▁fac	-10798
▁ons	-10799
▁sex	-10800
▁إنك	-10801
▁اتش	-10802
▁اطر	-10803
▁امع	-10804
▁اوم	-10805
▁بله	-10806
▁بُڪ	-10807
▁بڪس	-10808
▁تحي	-10809
▁جئر	-10810
▁حدف	-10811
▁درت	-10812
▁دمن	-10813
▁دهل	-10814
▁زيك	-10815
▁ستم	-10816
▁قيا	-10817
▁ملح	-10818
▁مهه	-10819
▁میں	-10820
▁نکن	-10821
▁هئم	-10822
▁وسل	-10823
▁يكي	-10824
▁ٻڏڻ	-10825
▁ٽاٽ	-10826
▁پڄي	-10827
▁ڳلن	-10828
▁Free	-10829
▁fore	-10830
▁اڪار	-10831
▁بوند	-10832
▁جوزف	-10833
▁خبله	-10834
▁دايم	-10835
▁داڻو	-10836
▁دلير	-10837
▁رخان	-10838
▁ردار	-10839
▁روند	-10840
▁قالو	-10841
▁ليڪٽ	-10842
▁مارت	-10843
▁مخفي	-10844
▁مربع	-10845
▁منبع	-10846
▁مهون	-10847
▁نسري	-10848
▁هاني	-10849
▁هيئي	-10850
▁وايو	-10851
▁وهاب	-10852
▁وينج	-10853
▁يامي	-10854
▁ڪلمي	-10855
▁اونڌو	-10856
▁بنگلي	-10857
▁سيتائ	-10858
▁لانٽڪ	-10859
▁مدينه	-10860
▁مرڪوز	-10861
▁گونگا	-10862
▁ڳنڀير	-10863
ضض	-10864
وة	-10865
َر	-10866
یا	-10867
▁उ	-10868
eld	-10869
ولو	-10870
ڪوس	-10871
▁BO	-10872
▁ds	-10873
▁ys	-10874
▁آأ	-10875
▁آش	-10876
▁رڏ	-10877
▁رڱ	-10878
▁لڀ	-10879
▁نض	-10880
▁يظ	-10881
▁يڇ	-10882
▁ڊس	-10883
▁کد	-10884
▁130	-10885
▁365	-10886
▁Ast	-10887
▁Bly	-10888
▁Sam	-10889
▁^_*	-10890
▁bli	-10891
▁ema	-10892
▁fil	-10893
▁gla	-10894
▁lli	-10895
▁nni	-10896
▁أيه	-10897
▁إنه	-10898
▁ئلو	-10899
▁اعظ	-10900
▁اغي	-10901
▁اڳا	-10902
▁ترک	-10903
▁تنظ	-10904
▁توب	-10905
▁جرد	-10906
▁حصص	-10907
▁خبل	-10908
▁خزا	-10909
▁شات	-10910
▁شفي	-10911
▁صند	-10912
▁عاف	-10913
▁ليٰ	-10914
▁مئچ	-10915
▁مضح	-10916
▁نحو	-10917
▁نوڊ	-10918
▁نچڻ	-10919
▁يرد	-10920
▁يعن	-10921
▁يٽو	-10922
▁ٽرپ	-10923
▁ڊهي	-10924
▁ڌڪي	-10925
▁ڍڳي	-10926
▁کنو	-10927
▁Data	-10928
▁free	-10929
▁posi	-10930
▁stan	-10931
▁stem	-10932
▁tori	-10933
▁ابرا	-10934
▁اجرت	-10935
▁ارسا	-10936
▁اريس	-10937
▁امبر	-10938
▁اموش	-10939
▁انيم	-10940
▁اڳيو	-10941
▁جنبش	-10942
▁حدود	-10943
▁خلوط	-10944
▁راکش	-10945
▁رحله	-10946
▁رزان	-10947
▁سادس	-10948
▁سميه	-10949
▁سٽرڪ	-10950
▁سڪري	-10951
▁شنبه	-10952
▁صحيف	-10953
▁عائل	-10954
▁لاحي	-10955
▁لاکي	-10956
▁ليسا	-10957
▁نتبه	-10958
▁ندير	-10959
▁نقاط	-10960
▁نکنر	-10961
▁وانس	-10962
▁ورتم	-10963
▁وييو	-10964
▁ٽاري	-10965
▁ڀوري	-10966
▁چرچا	-10967
▁ڊيمن	-10968
▁ڌايا	-10969
▁افتكر	-10970
▁افكار	-10971
▁اڀيان	-10972
▁سانول	-10973
▁سوجهر	-10974
▁يندين	-10975
DA	-10976
GB	-10977
RA	-10978
ya	-10979
اع	-10980
حه	-10981
خه	-10982
ٿو	-10983
ڍي	-10984
کن	-10985
▁ज	-10986
ath	-10987
oro	-10988
ڀات	-10989
ڀيا	-10990
▁->	-10991
▁Af	-10992
▁BL	-10993
▁GO	-10994
▁RT	-10995
▁Va	-10996
▁Vo	-10997
▁ob	-10998
▁جک	-10999
▁دڪ	-11000
▁شآ	-11001
▁ظل	-11002
▁ڇٽ	-11003
▁ڪد	-11004
▁گٽ	-11005
▁1.3	-11006
▁450	-11007
▁Bro	-11008
▁Dow	-11009
▁Hol	-11010
▁ICO	-11011
▁Pow	-11012
▁Wat	-11013
▁ZTE	-11014
▁bel	-11015
▁rec	-11016
▁tan	-11017
▁آرڊ	-11018
▁أنك	-11019
▁اضح	-11020
▁افا	-11021
▁بكر	-11022
▁تبع	-11023
▁جيء	-11024
▁حاب	-11025
▁ذيل	-11026
▁شوٽ	-11027
▁شکن	-11028
▁عشا	-11029
▁فطر	-11030
▁فلپ	-11031
▁كتر	-11032
▁لڙي	-11033
▁مِن	-11034
▁نزا	-11035
▁نسپ	-11036
▁هٻڪ	-11037
▁واا	-11038
▁وثر	-11039
▁ورڙ	-11040
▁وزٽ	-11041
▁يبن	-11042
▁ٺري	-11043
▁پنڻ	-11044
▁چمڙ	-11045
▁ڇوٽ	-11046
▁ڏڪي	-11047
▁ڳلي	-11048
▁ڳوڙ	-11049
▁ہوم	-11050
▁Auto	-11051
▁Gala	-11052
▁Live	-11053
▁serv	-11054
▁آمري	-11055
▁ائيء	-11056
▁اريج	-11057
▁اسيا	-11058
▁اميه	-11059
▁ايذا	-11060
▁اٿري	-11061
▁تشوي	-11062
▁حركت	-11063
▁دينا	-11064
▁راسم	-11065
▁راول	-11066
▁رضوي	-11067
▁سميع	-11068
▁شيما	-11069
▁صادر	-11070
▁عضوي	-11071
▁قريت	-11072
▁لوئس	-11073
▁لوما	-11074
▁مندي	-11075
▁نورت	-11076
▁هاشم	-11077
▁ورشن	-11078
▁يترو	-11079
▁ڏيکا	-11080
▁ڪهڪش	-11081
▁Media	-11082
▁اريشس	-11083
▁جهوپڙ	-11084
▁مهاڻن	-11085
▁نيسان	-11086
GH	-11087
IT	-11088
آق	-11089
بى	-11090
دح	-11091
گس	-11092
▁छ	-11093
▁ब	-11094
WTO	-11095
ati	-11096
اطع	-11097
باء	-11098
راڪ	-11099
عون	-11100
عيب	-11101
ماٽ	-11102
ينگ	-11103
▁As	-11104
▁DN	-11105
▁DW	-11106
▁Ea	-11107
▁PH	-11108
▁ey	-11109
▁rg	-11110
▁zz	-11111
▁بڙ	-11112
▁تث	-11113
▁دث	-11114
▁رڇ	-11115
▁زى	-11116
▁زِ	-11117
▁كذ	-11118
▁وژ	-11119
▁يؤ	-11120
▁ڀڻ	-11121
▁ڊش	-11122
▁ڏر	-11123
فويض	-11124
▁1-2	-11125
▁22.	-11126
▁Bea	-11127
▁FSX	-11128
▁Ter	-11129
▁acc	-11130
▁bur	-11131
▁gon	-11132
▁gor	-11133
▁mac	-11134
▁rep	-11135
▁tre	-11136
▁web	-11137
▁win	-11138
▁أحد	-11139
▁ئنس	-11140
▁امز	-11141
▁برک	-11142
▁بنڊ	-11143
▁بهر	-11144
▁جنا	-11145
▁حقك	-11146
▁راو	-11147
▁زري	-11148
▁زوم	-11149
▁زيه	-11150
▁سبي	-11151
▁سبک	-11152
▁سهڪ	-11153
▁سوگ	-11154
▁سيه	-11155
▁صلو	-11156
▁عده	-11157
▁غرق	-11158
▁فلي	-11159
▁لاص	-11160
▁لتي	-11161
▁مبو	-11162
▁متو	-11163
▁موږ	-11164
▁نفت	-11165
▁نني	-11166
▁وعى	-11167
▁يڊس	-11168
▁ٻيل	-11169
▁ٻچي	-11170
▁ٽڙي	-11171
▁پنل	-11172
▁پڙا	-11173
▁چئه	-11174
▁چاڪ	-11175
▁چهل	-11176
▁ڏُک	-11177
▁کيت	-11178
▁ھِن	-11179
▁foll	-11180
▁step	-11181
▁stro	-11182
▁اجرڪ	-11183
▁اوڪي	-11184
▁بيعت	-11185
▁جورو	-11186
▁خزاں	-11187
▁دوئي	-11188
▁رزاق	-11189
▁ريڊي	-11190
▁زالو	-11191
▁زهار	-11192
▁فروض	-11193
▁فضيح	-11194
▁قالي	-11195
▁لغوي	-11196
▁لوري	-11197
▁مرمر	-11198
▁مساء	-11199
▁نانا	-11200
▁ناڻو	-11201
▁نسوا	-11202
▁نصرت	-11203
▁هراس	-11204
▁وبار	-11205
▁وراک	-11206
▁ورسا	-11207
▁ورسٽ	-11208
▁وندر	-11209
▁وينه	-11210
▁ينال	-11211
▁ينڌر	-11212
▁ٽمون	-11213
▁ڪاڪي	-11214
▁ڪمند	-11215
▁گريز	-11216
▁ڻيءَ	-11217
▁UNWTO	-11218
▁ائونس	-11219
▁اونچا	-11220
▁اوپرا	-11221
▁ايڊوب	-11222
▁تفكير	-11223
▁تفويض	-11224
▁تهديد	-11225
▁جهنگل	-11226
▁رقابت	-11227
▁سلوڪي	-11228
▁قريشي	-11229
▁مقاطع	-11230
▁منتشر	-11231
▁منجمد	-11232
▁نرالو	-11233
▁نيلام	-11234
▁نگزيب	-11235
▁ينيما	-11236
RP	-11237
do	-11238
غت	-11239
قع	-11240
كب	-11241
مع	-11242
ية	-11243
پت	-11244
ڈل	-11245
▁٬	-11246
▁、	-11247
lia	-11248
الة	-11249
توب	-11250
جيت	-11251
هيه	-11252
ڑوں	-11253
▁::	-11254
▁AT	-11255
▁MT	-11256
▁Pr	-11257
▁RA	-11258
▁SI	-11259
▁Za	-11260
▁au	-11261
▁pc	-11262
▁ڌڙ	-11263
▁گڻ	-11264
▁000	-11265
▁14.	-11266
▁900	-11267
▁Gen	-11268
▁Han	-11269
▁clo	-11270
▁don	-11271
▁mar	-11272
▁row	-11273
▁too	-11274
▁vel	-11275
▁آڊٽ	-11276
▁اصي	-11277
▁الض	-11278
▁بُک	-11279
▁جمپ	-11280
▁خفت	-11281
▁رآن	-11282
▁رخي	-11283
▁رغم	-11284
▁رڍن	-11285
▁زمي	-11286
▁سعي	-11287
▁سوء	-11288
▁سوڳ	-11289
▁سڻڀ	-11290
▁موع	-11291
▁نفو	-11292
▁نمو	-11293
▁هسٽ	-11294
▁هِت	-11295
▁هڙا	-11296
▁ودر	-11297
▁ورم	-11298
▁ورٿ	-11299
▁وڳا	-11300
▁يرف	-11301
▁يسڪ	-11302
▁يلس	-11303
▁ييا	-11304
▁ٻڏل	-11305
▁ٽوئ	-11306
▁پرچ	-11307
▁چيء	-11308
▁ڊيپ	-11309
▁کهن	-11310
▁ڪسا	-11311
▁گُم	-11312
▁ڳاٽ	-11313
▁Lite	-11314
▁User	-11315
▁manu	-11316
▁ster	-11317
▁volt	-11318
▁اروي	-11319
▁اولي	-11320
▁اويا	-11321
▁ايلس	-11322
▁بزاف	-11323
▁بسين	-11324
▁تباه	-11325
▁رنڊڪ	-11326
▁سالي	-11327
▁سواڙ	-11328
▁شکست	-11329
▁عاصم	-11330
▁عشرت	-11331
▁عطيو	-11332
▁عناد	-11333
▁قارئ	-11334
▁قران	-11335
▁لئنڊ	-11336
▁نبڙي	-11337
▁هايل	-11338
▁وولٹ	-11339
▁ويلو	-11340
▁يچار	-11341
▁چوڏه	-11342
▁ڪاٺي	-11343
▁ڪسين	-11344
▁ھاري	-11345
▁اوپرو	-11346
▁ايشور	-11347
▁جهالت	-11348
▁دينار	-11349
▁رتباط	-11350
▁هاااا	-11351
▁هنگام	-11352
▁هوبهو	-11353
▁ينهون	-11354
▁گهاٽي	-11355
MC	-11356
ME	-11357
MS	-11358
PN	-11359
VA	-11360
dd	-11361
جم	-11362
ٹو	-11363
کل	-11364
یه	-11365
▁श	-11366
▁॥	-11367
ild	-11368
urt	-11369
اتا	-11370
رته	-11371
سار	-11372
ندق	-11373
ينة	-11374
▁(:	-11375
▁GH	-11376
▁GL	-11377
▁MB	-11378
▁PO	-11379
▁~>	-11380
▁آڵ	-11381
▁آڷ	-11382
▁فآ	-11383
▁ٺن	-11384
▁ڄٽ	-11385
▁گڊ	-11386
▁ھٽ	-11387
▁10-	-11388
▁18.	-11389
▁CNC	-11390
▁III	-11391
▁Mon	-11392
▁Red	-11393
▁dog	-11394
▁ise	-11395
▁lau	-11396
▁lev	-11397
▁ref	-11398
▁ret	-11399
▁vib	-11400
▁wal	-11401
▁الپ	-11402
▁اُڃ	-11403
▁بيز	-11404
▁تعد	-11405
▁توك	-11406
▁ذمي	-11407
▁روچ	-11408
▁رچي	-11409
▁زدن	-11410
▁سها	-11411
▁سيح	-11412
▁شوخ	-11413
▁شوز	-11414
▁فضي	-11415
▁قاز	-11416
▁قرر	-11417
▁قرص	-11418
▁قنا	-11419
▁لڪڻ	-11420
▁مسح	-11421
▁منڍ	-11422
▁نڪن	-11423
▁هنآ	-11424
▁ينش	-11425
▁ٽيء	-11426
▁پاك	-11427
▁پَر	-11428
▁ڀيل	-11429
▁ڇني	-11430
▁ڇڻي	-11431
▁ڊنل	-11432
▁کاڻ	-11433
▁کپن	-11434
▁گرن	-11435
▁گهو	-11436
▁یشن	-11437
▁dist	-11438
▁grow	-11439
▁matt	-11440
▁stat	-11441
▁than	-11442
▁ائٽر	-11443
▁اكرم	-11444
▁بسڊي	-11445
▁جايا	-11446
▁رديت	-11447
▁زائن	-11448
▁زيرا	-11449
▁زينم	-11450
▁سبوع	-11451
▁لابس	-11452
▁لوڏا	-11453
▁ليات	-11454
▁مائن	-11455
▁مبلي	-11456
▁مخصص	-11457
▁ميڪر	-11458
▁نبوي	-11459
▁نرمل	-11460
▁هداء	-11461
▁هيڊر	-11462
▁وانن	-11463
▁واهن	-11464
▁وريم	-11465
▁وستن	-11466
▁وستي	-11467
▁يلول	-11468
▁يلوي	-11469
▁ٽنڊي	-11470
▁ڏاهو	-11471
▁ڪرنڊ	-11472
▁disco	-11473
▁جھٽڪو	-11474
▁رومال	-11475
▁سالار	-11476
▁سياڻو	-11477
▁فتخار	-11478
▁ناسور	-11479
▁ويديو	-11480
▁ٽوئيٽ	-11481
po	-11482
شف	-11483
غل	-11484
كش	-11485
چل	-11486
alc	-11487
arm	-11488
ena	-11489
اما	-11490
روت	-11491
روم	-11492
قيب	-11493
▁*_	-11494
▁-.	-11495
▁7:	-11496
▁8:	-11497
▁AI	-11498
▁Ci	-11499
▁تؤ	-11500
▁جپ	-11501
▁ذھ	-11502
▁ڇڻ	-11503
▁ڪڷ	-11504
▁ہو	-11505
▁125	-11506
▁20.	-11507
▁24.	-11508
▁=))	-11509
▁Cra	-11510
▁GPS	-11511
▁Rep	-11512
▁SEO	-11513
▁Sna	-11514
▁Stu	-11515
▁Tit	-11516
▁Tre	-11517
▁Win	-11518
▁bla	-11519
▁mal	-11520
▁sle	-11521
▁sty	-11522
▁اؤس	-11523
▁اغذ	-11524
▁افز	-11525
▁تاك	-11526
▁جرو	-11527
▁جھل	-11528
▁دشا	-11529
▁دهم	-11530
▁دهن	-11531
▁ذكر	-11532
▁زيم	-11533
▁شآء	-11534
▁صلع	-11535
▁صنا	-11536
▁كاس	-11537
▁كرم	-11538
▁لحم	-11539
▁مکن	-11540
▁نعو	-11541
▁همب	-11542
▁يفن	-11543
▁يلف	-11544
▁ٻوڙ	-11545
▁ٽٽڻ	-11546
▁پاٿ	-11547
▁پتڻ	-11548
▁پڻس	-11549
▁ڀرت	-11550
▁چڱن	-11551
▁ڊال	-11552
▁کڙو	-11553
▁ڪنت	-11554
▁ڪوي	-11555
▁ڪيٻ	-11556
▁Sala	-11557
▁Youn	-11558
▁bile	-11559
▁game	-11560
▁peri	-11561
▁talk	-11562
▁week	-11563
▁ابڙي	-11564
▁اريخ	-11565
▁انٽي	-11566
▁اوڌر	-11567
▁اينگ	-11568
▁بدوي	-11569
▁بقره	-11570
▁تنهج	-11571
▁توها	-11572
▁جدان	-11573
▁حليب	-11574
▁زعيم	-11575
▁سانج	-11576
▁عمده	-11577
▁قدير	-11578
▁لكزس	-11579
▁ليفو	-11580
▁ليمن	-11581
▁مكرر	-11582
▁نزدي	-11583
▁نهضت	-11584
▁نيات	-11585
▁نيها	-11586
▁هيأت	-11587
▁هيڪڙ	-11588
▁ورٽل	-11589
▁يچرو	-11590
▁ڀولڙ	-11591
▁ڇهون	-11592
▁ڊونا	-11593
▁گهنڊ	-11594
▁بارود	-11595
▁بيروت	-11596
▁تعزيت	-11597
▁جنجال	-11598
▁ختصار	-11599
▁ليوان	-11600
▁نادان	-11601
▁نيپئر	-11602
▁هيجان	-11603
▁ورتھم	-11604
12	-11605
SI	-11606
hn	-11607
no	-11608
pp	-11609
اك	-11610
اک	-11611
طل	-11612
عن	-11613
ۈن	-11614
▁ü	-11615
ota	-11616
ارة	-11617
ازم	-11618
ديپ	-11619
ريه	-11620
طيم	-11621
ونت	-11622
ٻاڙ	-11623
▁2_	-11624
▁4،	-11625
▁AL	-11626
▁Az	-11627
▁DV	-11628
▁LL	-11629
▁ON	-11630
▁WP	-11631
▁[2	-11632
▁pl	-11633
▁تآ	-11634
▁تگ	-11635
▁حح	-11636
▁دگ	-11637
▁كح	-11638
▁مے	-11639
▁هی	-11640
▁ٻھ	-11641
▁ڀؤ	-11642
▁چھ	-11643
▁2.3	-11644
▁21.	-11645
▁35.	-11646
▁Ang	-11647
▁Eng	-11648
▁Fre	-11649
▁GDP	-11650
▁Hum	-11651
▁Mar	-11652
▁VPN	-11653
▁dev	-11654
▁low	-11655
▁mix	-11656
▁ngu	-11657
▁pop	-11658
▁rti	-11659
▁sol	-11660
▁stu	-11661
▁إنت	-11662
▁اجو	-11663
▁اشر	-11664
▁اَڄ	-11665
▁اڄو	-11666
▁این	-11667
▁برآ	-11668
▁بعت	-11669
▁بهم	-11670
▁تاق	-11671
▁تڪن	-11672
▁جفا	-11673
▁جمن	-11674
▁رجه	-11675
▁رقس	-11676
▁روغ	-11677
▁روى	-11678
▁زيز	-11679
▁سوو	-11680
▁سيڊ	-11681
▁سڻي	-11682
▁شاف	-11683
▁صفن	-11684
▁عوض	-11685
▁غلي	-11686
▁لوح	-11687
▁مطر	-11688
▁ناپ	-11689
▁نسو	-11690
▁نهى	-11691
▁هجر	-11692
▁ورپ	-11693
▁وشو	-11694
▁ونک	-11695
▁ويڄ	-11696
▁وڌن	-11697
▁يجا	-11698
▁يشا	-11699
▁يڻي	-11700
▁ٽھڪ	-11701
▁چرب	-11702
▁ڙهو	-11703
▁کلن	-11704
▁ہرے	-11705
▁Leno	-11706
▁Mark	-11707
▁berg	-11708
▁cent	-11709
▁sdwi	-11710
▁site	-11711
▁ئملي	-11712
▁اهرا	-11713
▁ايده	-11714
▁اينه	-11715
▁برنس	-11716
▁تخصص	-11717
▁توڏي	-11718
▁جبار	-11719
▁درون	-11720
▁ديءَ	-11721
▁دڙڪا	-11722
▁رقيب	-11723
▁ريتم	-11724
▁رپيو	-11725
▁رھيز	-11726
▁فزڪس	-11727
▁لهار	-11728
▁لوسي	-11729
▁لکيت	-11730
▁ماعت	-11731
▁مروز	-11732
▁منال	-11733
▁مهما	-11734
▁نايف	-11735
▁نفسي	-11736
▁نكات	-11737
▁نواڻ	-11738
▁نوبت	-11739
▁نوته	-11740
▁هذول	-11741
▁هسڪي	-11742
▁هيڪا	-11743
▁واجا	-11744
▁واھش	-11745
▁يتزا	-11746
▁يلان	-11747
▁يهان	-11748
▁يپيڊ	-11749
▁يکنه	-11750
▁ڄنگه	-11751
▁ڪئبن	-11752
▁ڪوڪا	-11753
▁ھيڙو	-11754
▁تسوين	-11755
▁جهاتي	-11756
▁ريندي	-11757
▁سوڊان	-11758
▁شرافت	-11759
▁ندرون	-11760
▁هنديه	-11761
▁گهاٽو	-11762
bi	-11763
ee	-11764
fi	-11765
بڻ	-11766
جھ	-11767
حة	-11768
دى	-11769
ِل	-11770
ڏس	-11771
ښت	-11772
یس	-11773
▁±	-11774
▁à	-11775
▁ږ	-11776
▁ू	-11777
old	-11778
ura	-11779
usi	-11780
الم	-11781
تيل	-11782
راح	-11783
نيه	-11784
ورو	-11785
ڀاٽ	-11786
▁06	-11787
▁6)	-11788
▁DC	-11789
▁Fu	-11790
▁MG	-11791
▁Pu	-11792
▁Yo	-11793
▁eu	-11794
▁zi	-11795
▁ِِ	-11796
▁ڍڙ	-11797
▁۱۰	-11798
▁2.5	-11799
▁30.	-11800
▁Day	-11801
▁HGH	-11802
▁Key	-11803
▁Mul	-11804
▁PUB	-11805
▁Pen	-11806
▁Rec	-11807
▁Set	-11808
▁Snd	-11809
▁Top	-11810
▁USA	-11811
▁ara	-11812
▁clu	-11813
▁nna	-11814
▁sea	-11815
▁top	-11816
▁آآه	-11817
▁آنه	-11818
▁اكن	-11819
▁اڇن	-11820
▁اڙد	-11821
▁باڪ	-11822
▁بلد	-11823
▁بيض	-11824
▁توه	-11825
▁ثقل	-11826
▁جلن	-11827
▁حته	-11828
▁حرب	-11829
▁دید	-11830
▁رخن	-11831
▁روض	-11832
▁زيت	-11833
▁سڪن	-11834
▁فيز	-11835
▁كيو	-11836
▁مثب	-11837
▁مرز	-11838
▁موض	-11839
▁ناٽ	-11840
▁نٽن	-11841
▁نڊن	-11842
▁هڪن	-11843
▁وڍي	-11844
▁ٺوس	-11845
▁ٻوٽ	-11846
▁ڀڳا	-11847
▁چني	-11848
▁ڊاس	-11849
▁ڳڻڻ	-11850
▁😂😂😂	-11851
▁HDMI	-11852
▁deco	-11853
▁para	-11854
▁prov	-11855
▁rine	-11856
▁rome	-11857
▁visi	-11858
▁انٽڪ	-11859
▁انڪا	-11860
▁ايرو	-11861
▁براه	-11862
▁بقوه	-11863
▁ثقيل	-11864
▁حفار	-11865
▁خصلت	-11866
▁خطوط	-11867
▁دوام	-11868
▁ذھني	-11869
▁رانا	-11870
▁رجان	-11871
▁رستم	-11872
▁روائ	-11873
▁زبون	-11874
▁سرعت	-11875
▁سونو	-11876
▁شبکه	-11877
▁شيوا	-11878
▁غبار	-11879
▁فقيه	-11880
▁قازق	-11881
▁قبرص	-11882
▁قيات	-11883
▁لالي	-11884
▁نيور	-11885
▁هامي	-11886
▁هيڻا	-11887
▁ورنگ	-11888
▁ورور	-11889
▁ونيو	-11890
▁ويڪس	-11891
▁وڑوں	-11892
▁وڪيٽ	-11893
▁يادل	-11894
▁يزيو	-11895
▁يسٽر	-11896
▁يشين	-11897
▁ينار	-11898
▁پہلو	-11899
▁ڀاڀي	-11900
▁Store	-11901
▁اباڻي	-11902
▁رانيا	-11903
▁رضوان	-11904
▁رومان	-11905
▁منٺار	-11906
▁يلاني	-11907
▁پروفا	-11908
▁چالاڪ	-11909
2:	-11910
OT	-11911
؟"	-11912
ذن	-11913
طه	-11914
مم	-11915
يط	-11916
ٹا	-11917
ٹی	-11918
▁😭	-11919
▁🙁	-11920
داس	-11921
ههه	-11922
▁*.	-11923
▁-2	-11924
▁2,	-11925
▁<-	-11926
▁BS	-11927
▁Cy	-11928
▁IF	-11929
▁UK	-11930
▁pu	-11931
▁sl	-11932
▁حه	-11933
▁سڦ	-11934
▁غش	-11935
▁فج	-11936
▁یه	-11937
ideo	-11938
▁128	-11939
▁13.	-11940
▁Cat	-11941
▁DIY	-11942
▁MAX	-11943
▁Opt	-11944
▁SID	-11945
▁Tur	-11946
▁UAE	-11947
▁VIP	-11948
▁bar	-11949
▁fir	-11950
▁hou	-11951
▁joy	-11952
▁nit	-11953
▁syn	-11954
▁tel	-11955
▁tem	-11956
▁آيم	-11957
▁آڌي	-11958
▁أما	-11959
▁احط	-11960
▁اری	-11961
▁اڄُ	-11962
▁بما	-11963
▁تفا	-11964
▁توم	-11965
▁تڪي	-11966
▁جته	-11967
▁دغا	-11968
▁دمك	-11969
▁دِل	-11970
▁رآح	-11971
▁رفه	-11972
▁ستف	-11973
▁سمٿ	-11974
▁شهد	-11975
▁شٽل	-11976
▁صحن	-11977
▁عصا	-11978
▁كفو	-11979
▁كنك	-11980
▁كور	-11981
▁لوئ	-11982
▁لٿل	-11983
▁لڳس	-11984
▁محم	-11985
▁ميپ	-11986
▁نئن	-11987
▁نات	-11988
▁ناٿ	-11989
▁نعت	-11990
▁وڳو	-11991
▁يسس	-11992
▁ييو	-11993
▁يگي	-11994
▁ٻڪر	-11995
▁ٽير	-11996
▁پات	-11997
▁پاٽ	-11998
▁پاک	-11999
▁پنچ	-12000
▁پٽڻ	-12001
▁پچي	-12002
▁ڄڻي	-12003
▁چاق	-12004
▁چاي	-12005
▁چسب	-12006
▁ڌنڌ	-12007
▁ڌڪڻ	-12008
▁ڏمر	-12009
▁ښتو	-12010
▁کجا	-12011
▁کمک	-12012
▁ڪيڊ	-12013
▁گيه	-12014
▁گڏھ	-12015
▁ھڻو	-12016
▁MIUI	-12017
▁lead	-12018
▁orga	-12019
▁rosa	-12020
▁ابرو	-12021
▁ارپي	-12022
▁ايري	-12023
▁اٺون	-12024
▁بارک	-12025
▁بهين	-12026
▁بکنگ	-12027
▁جوال	-12028
▁دويه	-12029
▁رابع	-12030
▁رزرو	-12031
▁ريٽو	-12032
▁ريکا	-12033
▁ظھار	-12034
▁عياش	-12035
▁لاسک	-12036
▁مهين	-12037
▁نايس	-12038
▁نوعي	-12039
▁نيال	-12040
▁نيوس	-12041
▁هوائ	-12042
▁والپ	-12043
▁ورته	-12044
▁يانس	-12045
▁يانه	-12046
▁يدائ	-12047
▁يچرن	-12048
▁يڊرو	-12049
▁پراڻ	-12050
▁پنڊت	-12051
▁چماٽ	-12052
▁ڊيڊي	-12053
▁کيون	-12054
▁ڪاتي	-12055
▁ڪنور	-12056
▁Samsu	-12057
▁smart	-12058
▁انھيء	-12059
▁اهيون	-12060
▁اونڌا	-12061
▁بېرته	-12062
▁جهوني	-12063
▁دارين	-12064
▁شهداد	-12065
▁نسائي	-12066
▁هيتري	-12067
▁هيڪٽر	-12068
▁پرڀات	-12069
▁ڀوتار	-12070
▁ڏيهاڙ	-12071
▁ڪمدار	-12072
BA	-12073
ec	-12074
im	-12075
ku	-12076
sm	-12077
xa	-12078
آد	-12079
صح	-12080
َي	-12081
▁İ	-12082
▁♦	-12083
ايه	-12084
ياب	-12085
▁CD	-12086
▁CE	-12087
▁CL	-12088
▁NY	-12089
▁gy	-12090
▁uk	-12091
▁آڙ	-12092
▁دپ	-12093
▁دې	-12094
▁رڃ	-12095
▁عع	-12096
▁مڌ	-12097
▁هٺ	-12098
▁وؤ	-12099
▁وې	-12100
▁ڊئ	-12101
▁ڏئ	-12102
▁17.	-12103
▁3-5	-12104
▁4.1	-12105
▁Bar	-12106
▁Cro	-12107
▁Fla	-12108
▁ING	-12109
▁Psy	-12110
▁SOL	-12111
▁She	-12112
▁Tro	-12113
▁but	-12114
▁fri	-12115
▁lay	-12116
▁loc	-12117
▁mel	-12118
▁nne	-12119
▁nom	-12120
▁ray	-12121
▁sho	-12122
▁sor	-12123
▁آكل	-12124
▁بسر	-12125
▁بنز	-12126
▁بنك	-12127
▁بوم	-12128
▁تقل	-12129
▁تپي	-12130
▁جيم	-12131
▁حوض	-12132
▁دلم	-12133
▁رپي	-12134
▁زنج	-12135
▁سڌا	-12136
▁طلا	-12137
▁عسى	-12138
▁فقه	-12139
▁فِي	-12140
▁لقى	-12141
▁لکه	-12142
▁لھج	-12143
▁ماش	-12144
▁مجد	-12145
▁مڪن	-12146
▁نذر	-12147
▁نول	-12148
▁نوڙ	-12149
▁نیک	-12150
▁هاذ	-12151
▁هذآ	-12152
▁هيي	-12153
▁وسط	-12154
▁وعي	-12155
▁وڄي	-12156
▁يجل	-12157
▁يرج	-12158
▁يرل	-12159
▁يسم	-12160
▁پُل	-12161
▁پکن	-12162
▁پڻي	-12163
▁ڏيھ	-12164
▁ڪلھ	-12165
▁ڪمل	-12166
▁گاز	-12167
▁ڱور	-12168
▁ھوش	-12169
▁Conn	-12170
▁Shop	-12171
▁deli	-12172
▁disc	-12173
▁medi	-12174
▁mill	-12175
▁shou	-12176
▁sure	-12177
▁ابين	-12178
▁اقوا	-12179
▁بزدل	-12180
▁تهاس	-12181
▁جريد	-12182
▁جزاك	-12183
▁حاتم	-12184
▁حالة	-12185
▁حراج	-12186
▁حركه	-12187
▁خطيب	-12188
▁خويش	-12189
▁دکتر	-12190
▁راڪا	-12191
▁ربيا	-12192
▁رشين	-12193
▁رضيه	-12194
▁رپور	-12195
▁رڪاش	-12196
▁زائي	-12197
▁ساتر	-12198
▁ستقل	-12199
▁سويا	-12200
▁شركه	-12201
▁ضريب	-12202
▁عاري	-12203
▁فيبر	-12204
▁قهوه	-12205
▁ليري	-12206
▁ناشر	-12207
▁ناڪا	-12208
▁هيام	-12209
▁وبند	-12210
▁وسٽر	-12211
▁ونسل	-12212
▁ونهن	-12213
▁وهيل	-12214
▁وڻيس	-12215
▁يٽرس	-12216
▁پاگل	-12217
▁ڀاري	-12218
▁چائل	-12219
▁ڌاٻي	-12220
▁ڪالر	-12221
▁ڪاٽي	-12222
▁photo	-12223
▁آفريڪ	-12224
▁بلائن	-12225
▁بنگلو	-12226
▁راحيل	-12227
▁ريحان	-12228
▁سياڻا	-12229
▁لقمان	-12230
▁مزاحم	-12231
▁نوران	-12232
▁وهاڻي	-12233
▁ويرون	-12234
▁ٽانڪي	-12235
▁ٽنگون	-12236
▁پنهور	-12237
▁ڊاپٽر	-12238
40	-12239
RI	-12240
زق	-12241
شة	-12242
ٹل	-12243
ٿا	-12244
▁シ	-12245
isi	-12246
ابا	-12247
ديه	-12248
روط	-12249
نيق	-12250
ونة	-12251
ونگ	-12252
ڎهن	-12253
▁(-	-12254
▁8)	-12255
▁DS	-12256
▁NM	-12257
▁Ov	-12258
▁Ub	-12259
▁WT	-12260
▁خآ	-12261
▁ذل	-12262
▁ٻڪ	-12263
▁گڙ	-12264
▁23.	-12265
▁Add	-12266
▁BBC	-12267
▁Ben	-12268
▁Cor	-12269
▁Qui	-12270
▁UCL	-12271
▁Val	-12272
▁bal	-12273
▁cat	-12274
▁dry	-12275
▁gir	-12276
▁let	-12277
▁ner	-12278
▁nta	-12279
▁sky	-12280
▁ssa	-12281
▁ten	-12282
▁twi	-12283
▁whe	-12284
▁آتي	-12285
▁اذن	-12286
▁ارپ	-12287
▁ازش	-12288
▁اوٻ	-12289
▁بصح	-12290
▁بکر	-12291
▁تيپ	-12292
▁جعل	-12293
▁جهم	-12294
▁جهڪ	-12295
▁حاش	-12296
▁حبڪ	-12297
▁خطط	-12298
▁خمس	-12299
▁دوو	-12300
▁روڳ	-12301
▁سكن	-12302
▁سِڪ	-12303
▁شوو	-12304
▁شىء	-12305
▁صدو	-12306
▁ضيف	-12307
▁قوس	-12308
▁متر	-12309
▁مسم	-12310
▁معز	-12311
▁مٽن	-12312
▁ندڻ	-12313
▁هئن	-12314
▁هزا	-12315
▁هڪل	-12316
▁وبن	-12317
▁وجد	-12318
▁ونص	-12319
▁يرم	-12320
▁ينئ	-12321
▁ٽٽو	-12322
▁پرڻ	-12323
▁ڀور	-12324
▁ڀڳي	-12325
▁ڇهي	-12326
▁ڊرگ	-12327
▁ڪسر	-12328
▁گود	-12329
▁ڳهه	-12330
▁Mesh	-12331
▁Meta	-12332
▁Shen	-12333
▁addi	-12334
▁disp	-12335
▁word	-12336
▁ائیں	-12337
▁انيس	-12338
▁اهيا	-12339
▁اونس	-12340
▁اوني	-12341
▁ايدج	-12342
▁تيجي	-12343
▁حجام	-12344
▁خلاق	-12345
▁دادل	-12346
▁دانت	-12347
▁ديول	-12348
▁رفيو	-12349
▁ركبت	-12350
▁روسو	-12351
▁روهڙ	-12352
▁ريسک	-12353
▁ساند	-12354
▁سانن	-12355
▁سهاڳ	-12356
▁سوري	-12357
▁سکور	-12358
▁شعيب	-12359
▁طباع	-12360
▁عتذر	-12361
▁عراب	-12362
▁فتوح	-12363
▁لاري	-12364
▁لاقا	-12365
▁ليوم	-12366
▁نسيت	-12367
▁نفاذ	-12368
▁نيپر	-12369
▁نگیز	-12370
▁ورٽي	-12371
▁وقوع	-12372
▁ونان	-12373
▁وکيل	-12374
▁يداء	-12375
▁يسنگ	-12376
▁ينتر	-12377
▁يندر	-12378
▁يهون	-12379
▁يونخ	-12380
▁يونگ	-12381
▁پهري	-12382
▁پوزل	-12383
▁پيهي	-12384
▁ڏاها	-12385
▁ڏيڏر	-12386
▁ڪامن	-12387
▁ڪلمو	-12388
▁ڪنڊا	-12389
▁relia	-12390
▁الديپ	-12391
▁تخريب	-12392
▁دارال	-12393
▁سونار	-12394
▁سوڀار	-12395
▁غالية	-12396
▁قالين	-12397
▁مستوى	-12398
▁مياڻي	-12399
▁ناگوا	-12400
▁نزاڪت	-12401
▁نماڻي	-12402
▁هيئات	-12403
▁يلسوف	-12404
▁ڊينگي	-12405
▁ڌاٻيج	-12406
GE	-12407
XX	-12408
hi	-12409
tu	-12410
بد	-12411
زة	-12412
طم	-12413
ٽٽ	-12414
ڄڻ	-12415
ڦي	-12416
▁̷	-12417
▁ۧ	-12418
dio	-12419
orm	-12420
ائح	-12421
ائز	-12422
امر	-12423
ساط	-12424
سام	-12425
شين	-12426
ليه	-12427
وند	-12428
ڪات	-12429
ڪوٽ	-12430
▁(*	-12431
▁04	-12432
▁09	-12433
▁1_	-12434
▁AA	-12435
▁DE	-12436
▁Er	-12437
▁HK	-12438
▁Iz	-12439
▁Je	-12440
▁Kh	-12441
▁RS	-12442
▁SC	-12443
▁TP	-12444
▁TÜ	-12445
▁XL	-12446
▁tv	-12447
▁زق	-12448
▁زی	-12449
▁صم	-12450
▁ضن	-12451
▁قه	-12452
▁نې	-12453
▁يہ	-12454
▁ٽب	-12455
▁چك	-12456
▁۱۲	-12457
▁1/2	-12458
▁108	-12459
▁3.5	-12460
▁750	-12461
▁GIF	-12462
▁IBC	-12463
▁Vol	-12464
▁ace	-12465
▁ada	-12466
▁bor	-12467
▁cir	-12468
▁cit	-12469
▁gni	-12470
▁ost	-12471
▁pow	-12472
▁rge	-12473
▁val	-12474
▁إلى	-12475
▁اان	-12476
▁برم	-12477
▁بغض	-12478
▁بلت	-12479
▁بوك	-12480
▁بيٿ	-12481
▁تعي	-12482
▁تقر	-12483
▁جبن	-12484
▁جذي	-12485
▁خبي	-12486
▁خلل	-12487
▁رشی	-12488
▁رضى	-12489
▁رهف	-12490
▁ساح	-12491
▁سرم	-12492
▁سرٽ	-12493
▁سسي	-12494
▁سلڪ	-12495
▁سمى	-12496
▁سوى	-12497
▁شرك	-12498
▁شكم	-12499
▁صاو	-12500
▁ضعف	-12501
▁غوا	-12502
▁فلڪ	-12503
▁كرڻ	-12504
▁لٿا	-12505
▁ناک	-12506
▁نوك	-12507
▁هاپ	-12508
▁ويئ	-12509
▁ٺاڪ	-12510
▁ٽما	-12511
▁پڙي	-12512
▁چرخ	-12513
▁ڇتي	-12514
▁کوي	-12515
▁گاج	-12516
▁گيو	-12517
▁ھدف	-12518
▁Alex	-12519
▁Slot	-12520
▁bert	-12521
▁fall	-12522
▁file	-12523
▁here	-12524
▁most	-12525
▁ndro	-12526
▁pert	-12527
▁resi	-12528
▁room	-12529
▁zhen	-12530
▁ابيه	-12531
▁اسال	-12532
▁اينم	-12533
▁تالي	-12534
▁تڪبر	-12535
▁حكمت	-12536
▁خترت	-12537
▁دالي	-12538
▁ديبل	-12539
▁راجو	-12540
▁راين	-12541
▁راڄن	-12542
▁راڌا	-12543
▁رنگه	-12544
▁رکيم	-12545
▁ستري	-12546
▁سطور	-12547
▁سهله	-12548
▁سونپ	-12549
▁شائر	-12550
▁صداق	-12551
▁صريح	-12552
▁عاطف	-12553
▁عضوا	-12554
▁فاشل	-12555
▁فايل	-12556
▁كرسي	-12557
▁ليڪا	-12558
▁ننگي	-12559
▁نوکو	-12560
▁نيول	-12561
▁نگول	-12562
▁هابي	-12563
▁هاجر	-12564
▁هاڪي	-12565
▁هلال	-12566
▁هنود	-12567
▁هيئر	-12568
▁وائٽ	-12569
▁والم	-12570
▁واژه	-12571
▁واڪا	-12572
▁وصيه	-12573
▁يديد	-12574
▁يگار	-12575
▁ٽولن	-12576
▁ڄاري	-12577
▁چاڙھ	-12578
▁چنبڙ	-12579
▁ڇولي	-12580
▁ڏاهن	-12581
▁ڪارب	-12582
▁ڪاڪا	-12583
▁گرمل	-12584
▁گولو	-12585
▁ڱاري	-12586
▁ڳاري	-12587
▁تابوت	-12588
▁تشويش	-12589
▁تعويذ	-12590
▁عالاد	-12591
▁لوهار	-12592
▁ناويه	-12593
▁وراها	-12594
▁وروثي	-12595
▁ويرين	-12596
▁ويهان	-12597
▁پنجاه	-12598
▁چائلڊ	-12599
11	-12600
3:	-12601
MA	-12602
PO	-12603
US	-12604
hy	-12605
ml	-12606
ms	-12607
ءء	-12608
ءه	-12609
ئی	-12610
تڙ	-12611
دف	-12612
طط	-12613
ظر	-12614
وچ	-12615
کڻ	-12616
ہم	-12617
▁ۂ	-12618
▁√	-12619
ド語	-12620
اتو	-12621
روب	-12622
زيل	-12623
وود	-12624
▁3/	-12625
▁3_	-12626
▁5،	-12627
▁7،	-12628
▁FI	-12629
▁HP	-12630
▁JP	-12631
▁Mc	-12632
▁Mu	-12633
▁TA	-12634
▁UV	-12635
▁Zi	-12636
▁dr	-12637
▁nm	-12638
▁؟'	-12639
▁آغ	-12640
▁حآ	-12641
▁ذآ	-12642
▁رٻ	-12643
▁لؤ	-12644
▁ٺپ	-12645
▁ڌل	-12646
▁ڌپ	-12647
▁ڍل	-12648
▁ڙس	-12649
▁یو	-12650
▁۲۰	-12651
▁••	-12652
▁シン	-12653
▁1.4	-12654
▁106	-12655
▁29.	-12656
▁50%	-12657
▁Bre	-12658
▁Cit	-12659
▁HTT	-12660
▁IDE	-12661
▁LLC	-12662
▁MWC	-12663
▁Sha	-12664
▁[2]	-12665
▁alt	-12666
▁cce	-12667
▁gri	-12668
▁how	-12669
▁ire	-12670
▁nga	-12671
▁non	-12672
▁par	-12673
▁red	-12674
▁swe	-12675
▁vir	-12676
▁yar	-12677
▁آذر	-12678
▁آهك	-12679
▁آهِ	-12680
▁ألف	-12681
▁احه	-12682
▁ايچ	-12683
▁اڏن	-12684
▁اڏو	-12685
▁بسن	-12686
▁تفت	-12687
▁جاگ	-12688
▁جوړ	-12689
▁حجر	-12690
▁حقت	-12691
▁داگ	-12692
▁ديء	-12693
▁دڙن	-12694
▁ذنب	-12695
▁رآآ	-12696
▁راى	-12697
▁رخا	-12698
▁رزي	-12699
▁رهج	-12700
▁رڳن	-12701
▁رھو	-12702
▁زاى	-12703
▁سبك	-12704
▁سوڙ	-12705
▁شجا	-12706
▁صدف	-12707
▁صوص	-12708
▁عجو	-12709
▁علل	-12710
▁قلق	-12711
▁قوه	-12712
▁مرث	-12713
▁مسڪ	-12714
▁مشو	-12715
▁نجن	-12716
▁ندم	-12717
▁نفذ	-12718
▁همن	-12719
▁هِڪ	-12720
▁وسه	-12721
▁وکا	-12722
▁يدم	-12723
▁ٽيج	-12724
▁ٽڪو	-12725
▁پسن	-12726
▁پوڙ	-12727
▁پَٽ	-12728
▁ٿو۔	-12729
▁ڊوز	-12730
▁ڌڪا	-12731
▁ڍيو	-12732
▁کڻو	-12733
▁ڪبا	-12734
▁ڪنو	-12735
▁ڪٺي	-12736
▁ڪپر	-12737
▁ڪپي	-12738
▁گاڏ	-12739
▁ھوس	-12740
▁Face	-12741
▁PUBG	-12742
▁Para	-12743
▁Sale	-12744
▁Sema	-12745
▁Star	-12746
▁Stat	-12747
▁Test	-12748
▁real	-12749
▁scri	-12750
▁show	-12751
▁star	-12752
▁أإأإ	-12753
▁اعري	-12754
▁امتي	-12755
▁انسا	-12756
▁برند	-12757
▁تبون	-12758
▁تجوي	-12759
▁حڪوم	-12760
▁درين	-12761
▁دھات	-12762
▁رسوم	-12763
▁ريام	-12764
▁زندگ	-12765
▁ستني	-12766
▁سٹرڪ	-12767
▁غفار	-12768
▁فاتن	-12769
▁قليم	-12770
▁لاند	-12771
▁لقاف	-12772
▁لڪون	-12773
▁مداد	-12774
▁نفرا	-12775
▁نورا	-12776
▁هذاك	-12777
▁هراب	-12778
▁هلاڪ	-12779
▁هيڻو	-12780
▁واسو	-12781
▁وانو	-12782
▁وران	-12783
▁وقال	-12784
▁ومان	-12785
▁وکون	-12786
▁يديك	-12787
▁ٽولا	-12788
▁ٽوني	-12789
▁پوتر	-12790
▁پڪار	-12791
▁چاڪر	-12792
▁ڊائي	-12793
▁ڍورن	-12794
▁ڏانه	-12795
▁ڪمبو	-12796
▁ڪومل	-12797
▁گھاس	-12798
▁ھيئن	-12799
▁シンド語	-12800
▁prise	-12801
▁الاڪي	-12802
▁الهاي	-12803
▁بزنيس	-12804
▁جهارت	-12805
▁جهونگ	-12806
▁ديانت	-12807
▁رومين	-12808
▁رونال	-12809
▁رونوا	-12810
▁صاوير	-12811
▁مقالب	-12812
▁هنادي	-12813
▁ونجهر	-12814
▁وڊيشل	-12815
▁ينڊنٽ	-12816
▁يونيو	-12817
▁چيڀاٽ	-12818
▁ڪورون	-12819
▁ڪينال	-12820
GS	-12821
NA	-12822
OR	-12823
ja	-12824
رك	-12825
سچ	-12826
فس	-12827
ِڪ	-12828
ځي	-12829
▁؏	-12830
▁ٳ	-12831
▁ۑ	-12832
▁ं	-12833
▁ड	-12834
▁≥	-12835
▁💔	-12836
▁😅	-12837
ano	-12838
ate	-12839
eav	-12840
elc	-12841
ااف	-12842
ارع	-12843
صيح	-12844
هيد	-12845
کيد	-12846
▁1ـ	-12847
▁8،	-12848
▁CI	-12849
▁CT	-12850
▁Es	-12851
▁TS	-12852
▁WW	-12853
▁Ye	-12854
▁aa	-12855
▁oC	-12856
▁py	-12857
▁تذ	-12858
▁جگ	-12859
▁شہ	-12860
▁ڀڙ	-12861
▁ڪع	-12862
▁ېږ	-12863
▁144	-12864
▁28.	-12865
▁33.	-12866
▁39.	-12867
▁Cru	-12868
▁FDA	-12869
▁Har	-12870
▁Hat	-12871
▁Jan	-12872
▁MOQ	-12873
▁SAŞ	-12874
▁SFP	-12875
▁Sni	-12876
▁XDD	-12877
▁boy	-12878
▁cur	-12879
▁fun	-12880
▁gan	-12881
▁mid	-12882
▁plo	-12883
▁res	-12884
▁sil	-12885
▁ski	-12886
▁tak	-12887
▁ton	-12888
▁آرش	-12889
▁اعم	-12890
▁اَن	-12891
▁بصل	-12892
▁جوو	-12893
▁حرص	-12894
▁حور	-12895
▁خصي	-12896
▁درب	-12897
▁ديک	-12898
▁ربه	-12899
▁رحا	-12900
▁رھن	-12901
▁سرس	-12902
▁سلف	-12903
▁سوت	-12904
▁فجي	-12905
▁فيم	-12906
▁قرد	-12907
▁قطط	-12908
▁قوا	-12909
▁لكِ	-12910
▁لوٽ	-12911
▁مقا	-12912
▁موي	-12913
▁مڪر	-12914
▁نته	-12915
▁نشل	-12916
▁نيک	-12917
▁هبة	-12918
▁هدى	-12919
▁هيپ	-12920
▁هڏا	-12921
▁ورك	-12922
▁وسڪ	-12923
▁ونچ	-12924
▁وڻج	-12925
▁ينم	-12926
▁ټول	-12927
▁ٽڪا	-12928
▁پره	-12929
▁پڪن	-12930
▁چرس	-12931
▁چوه	-12932
▁چٽا	-12933
▁چڪن	-12934
▁ڦٽل	-12935
▁ڪاڄ	-12936
▁ڪِي	-12937
▁ڪٽڪ	-12938
▁ڪڙڇ	-12939
▁گيز	-12940
▁ڳوا	-12941
▁ھمت	-12942
▁ھوء	-12943
▁Isla	-12944
▁Note	-12945
▁cont	-12946
▁gori	-12947
▁plus	-12948
▁poly	-12949
▁آهست	-12950
▁ئوري	-12951
▁ابهم	-12952
▁اشوڪ	-12953
▁انپٽ	-12954
▁بوال	-12955
▁تاڻي	-12956
▁تلاف	-12957
▁تنسي	-12958
▁جانو	-12959
▁حالم	-12960
▁حتيا	-12961
▁حكيل	-12962
▁ختلف	-12963
▁رسري	-12964
▁رمزي	-12965
▁رنيم	-12966
▁رنڊم	-12967
▁روما	-12968
▁ريمي	-12969
▁رپئي	-12970
▁رڪوع	-12971
▁زارا	-12972
▁زايد	-12973
▁سكوت	-12974
▁سندم	-12975
▁شارع	-12976
▁شاكر	-12977
▁شهاب	-12978
▁صدار	-12979
▁عالی	-12980
▁عضوو	-12981
▁غاده	-12982
▁غواړ	-12983
▁قاطع	-12984
▁قريش	-12985
▁قساط	-12986
▁قصرت	-12987
▁لجها	-12988
▁لوڙه	-12989
▁ملكه	-12990
▁موذي	-12991
▁نحوس	-12992
▁نهري	-12993
▁نوسي	-12994
▁نيلا	-12995
▁نيلي	-12996
▁هارن	-12997
▁هورا	-12998
▁هيڻي	-12999
▁ورهي	-13000
▁ولوڙ	-13001
▁ونڊي	-13002
▁ويڌن	-13003
▁يريو	-13004
▁يسائ	-13005
▁يسار	-13006
▁يلسي	-13007
▁ينڊس	-13008
▁يورٽ	-13009
▁پوٽر	-13010
▁چربي	-13011
▁کندو	-13012
▁ڪاما	-13013
▁ڪنڊو	-13014
▁pedia	-13015
▁smile	-13016
▁راڪاس	-13017
▁رغمال	-13018
▁ريماس	-13019
▁سياڻي	-13020
▁شيماء	-13021
▁قبيلو	-13022
▁مريوم	-13023
▁نائٽر	-13024
▁نبيرو	-13025
▁نياها	-13026
▁هينڊل	-13027
▁وائلڊ	-13028
▁ووڪيٽ	-13029
▁پارلي	-13030
4:	-13031
OM	-13032
br	-13033
ؤد	-13034
رق	-13035
غي	-13036
نج	-13037
ٻن	-13038
ڇڙ	-13039
ڪڪ	-13040
ڼه	-13041
یع	-13042
▁כ	-13043
▁ٕ	-13044
▁ڕ	-13045
▁ڶ	-13046
▁ۓ	-13047
▁ۿ	-13048
▁ݪ	-13049
▁ध	-13050
HSR	-13051
elv	-13052
isk	-13053
الك	-13054
اهب	-13055
اية	-13056
ايت	-13057
بڻت	-13058
شاف	-13059
عول	-13060
نيم	-13061
ونل	-13062
ووف	-13063
يرة	-13064
ڊوس	-13065
▁,.	-13066
▁CN	-13067
▁GE	-13068
▁GS	-13069
▁Ob	-13070
▁bb	-13071
▁fy	-13072
▁ie	-13073
▁~~	-13074
▁ئِ	-13075
▁جګ	-13076
▁جی	-13077
▁عڷ	-13078
▁قآ	-13079
▁كث	-13080
▁ٻڍ	-13081
▁ٻڙ	-13082
▁کج	-13083
▁1-3	-13084
▁105	-13085
▁36.	-13086
▁45.	-13087
▁Ado	-13088
▁Cen	-13089
▁Gla	-13090
▁Hal	-13091
▁IAT	-13092
▁Pet	-13093
▁amo	-13094
▁apk	-13095
▁mad	-13096
▁mma	-13097
▁pan	-13098
▁pet	-13099
▁she	-13100
▁sia	-13101
▁tar	-13102
▁أحس	-13103
▁ئيڪ	-13104
▁اعر	-13105
▁اهئ	-13106
▁اپن	-13107
▁بُت	-13108
▁بیک	-13109
▁ترش	-13110
▁تڪل	-13111
▁ثمر	-13112
▁جبه	-13113
▁جنڊ	-13114
▁حصر	-13115
▁خدي	-13116
▁خطب	-13117
▁داو	-13118
▁ديق	-13119
▁رآم	-13120
▁ربل	-13121
▁ردت	-13122
▁زئي	-13123
▁زات	-13124
▁زلٽ	-13125
▁ساط	-13126
▁سطر	-13127
▁شبِ	-13128
▁شرب	-13129
▁شرت	-13130
▁صوم	-13131
▁غصو	-13132
▁فرت	-13133
▁قيس	-13134
▁لوچ	-13135
▁لڀي	-13136
▁ملل	-13137
▁نآآ	-13138
▁نطر	-13139
▁نقا	-13140
▁نوک	-13141
▁هتر	-13142
▁وفر	-13143
▁يدر	-13144
▁يوپ	-13145
▁ٽهي	-13146
▁ٽڪن	-13147
▁پنھ	-13148
▁پيه	-13149
▁ٿا۔	-13150
▁ڀرم	-13151
▁چمچ	-13152
▁ڇڙو	-13153
▁ڍول	-13154
▁ڏبا	-13155
▁ڏير	-13156
▁کِل	-13157
▁کٻي	-13158
▁ڪَن	-13159
▁ڪٺو	-13160
▁ڪٻٽ	-13161
▁گرج	-13162
▁ڳيت	-13163
▁ھائ	-13164
▁ھُو	-13165
▁Atla	-13166
▁East	-13167
▁Edit	-13168
▁John	-13169
▁Manu	-13170
▁Plan	-13171
▁Tune	-13172
▁WHSR	-13173
▁Xper	-13174
▁care	-13175
▁cust	-13176
▁door	-13177
▁heat	-13178
▁اؤنڊ	-13179
▁ارسل	-13180
▁ارمي	-13181
▁الاس	-13182
▁المؤ	-13183
▁انڪي	-13184
▁اينج	-13185
▁بريل	-13186
▁رائت	-13187
▁راحل	-13188
▁راما	-13189
▁راوي	-13190
▁رايي	-13191
▁رحيل	-13192
▁رسيا	-13193
▁رسيم	-13194
▁رفاق	-13195
▁رهزن	-13196
▁زرين	-13197
▁سراغ	-13198
▁سنهي	-13199
▁سهان	-13200
▁سيرا	-13201
▁سينڌ	-13202
▁شاكس	-13203
▁طلاب	-13204
▁طلسم	-13205
▁طيور	-13206
▁فقهي	-13207
▁كاين	-13208
▁لقاء	-13209
▁لوڌي	-13210
▁لينو	-13211
▁نارو	-13212
▁ناله	-13213
▁نتبا	-13214
▁نتها	-13215
▁نزول	-13216
▁نظوم	-13217
▁نهبل	-13218
▁نهوڙ	-13219
▁نيهن	-13220
▁نڊيم	-13221
▁هايو	-13222
▁هنيه	-13223
▁وابد	-13224
▁ورڳو	-13225
▁ولول	-13226
▁ويلڊ	-13227
▁يدين	-13228
▁يشرو	-13229
▁يٽيل	-13230
▁ٽيٽو	-13231
▁پوئت	-13232
▁پولا	-13233
▁ڀورا	-13234
▁ڀومي	-13235
▁ڄاول	-13236
▁ڇاڻي	-13237
▁ڙواڳ	-13238
▁ڪانڊ	-13239
▁ڪروڌ	-13240
▁ڪومت	-13241
▁گهان	-13242
▁Share	-13243
▁multi	-13244
▁اڻبڻت	-13245
▁بانيا	-13246
▁ترادف	-13247
▁تردين	-13248
▁دليري	-13249
▁رتيءَ	-13250
▁ستطيل	-13251
▁ملوكه	-13252
▁نذاله	-13253
▁نوكيا	-13254
▁يراڻي	-13255
▁ٽنگيل	-13256
▁پستول	-13257
▁ڀوائت	-13258
▁گهاڻي	-13259
3]	-13260
DS	-13261
fa	-13262
pi	-13263
آع	-13264
رد	-13265
عر	-13266
ُڪ	-13267
ٽز	-13268
په	-13269
ېږ	-13270
▁¤	-13271
▁î	-13272
▁ω	-13273
▁ڤ	-13274
▁भ	-13275
▁ष	-13276
▁‹	-13277
▁ツ	-13278
cra	-13279
ero	-13280
uly	-13281
جهت	-13282
رود	-13283
لين	-13284
يسه	-13285
ٽلٽ	-13286
▁7)	-13287
▁BB	-13288
▁BC	-13289
▁FX	-13290
▁QC	-13291
▁SK	-13292
▁TU	-13293
▁WH	-13294
▁fr	-13295
▁gl	-13296
▁آك	-13297
▁اړ	-13298
▁اڵ	-13299
▁ثن	-13300
▁دئ	-13301
▁سی	-13302
▁صص	-13303
▁قڷ	-13304
▁يذ	-13305
▁١٠	-13306
▁ٺٺ	-13307
▁ٿڙ	-13308
▁ڏڍ	-13309
▁۱۸	-13310
▁❤️	-13311
▁109	-13312
▁127	-13313
▁27.	-13314
▁40.	-13315
▁8.1	-13316
▁ABS	-13317
▁Ada	-13318
▁FAT	-13319
▁Fir	-13320
▁LIN	-13321
▁Max	-13322
▁Not	-13323
▁Pix	-13324
▁Pol	-13325
▁SSD	-13326
▁Tue	-13327
▁cri	-13328
▁cro	-13329
▁dom	-13330
▁ena	-13331
▁eri	-13332
▁exe	-13333
▁hyp	-13334
▁key	-13335
▁mor	-13336
▁nia	-13337
▁nov	-13338
▁ori	-13339
▁ran	-13340
▁sca	-13341
▁son	-13342
▁tit	-13343
▁آلا	-13344
▁احن	-13345
▁ارز	-13346
▁اوف	-13347
▁بوش	-13348
▁تبت	-13349
▁توت	-13350
▁تيج	-13351
▁جدد	-13352
▁جوع	-13353
▁جيپ	-13354
▁حظي	-13355
▁خاف	-13356
▁خرب	-13357
▁دقت	-13358
▁ديك	-13359
▁دکي	-13360
▁راؤ	-13361
▁رجس	-13362
▁رفض	-13363
▁رنز	-13364
▁رٽن	-13365
▁ساڙ	-13366
▁سِٽ	-13367
▁شائ	-13368
▁شيف	-13369
▁ضمن	-13370
▁عسا	-13371
▁فطس	-13372
▁فيو	-13373
▁قمة	-13374
▁كنس	-13375
▁لبس	-13376
▁مسج	-13377
▁مظا	-13378
▁مما	-13379
▁ممل	-13380
▁نتح	-13381
▁نرف	-13382
▁نرڙ	-13383
▁نكس	-13384
▁نمر	-13385
▁نمڪ	-13386
▁نکي	-13387
▁هاج	-13388
▁هاش	-13389
▁همگ	-13390
▁هنس	-13391
▁هنو	-13392
▁هيٿ	-13393
▁وحا	-13394
▁وزو	-13395
▁وكم	-13396
▁يرڪ	-13397
▁ٺار	-13398
▁ٽوپ	-13399
▁پوچ	-13400
▁ځان	-13401
▁ڇهڻ	-13402
▁کام	-13403
▁کمي	-13404
▁کيف	-13405
▁ڪڏه	-13406
▁ڪکن	-13407
▁گاھ	-13408
▁ڳاڙ	-13409
▁ڳرا	-13410
▁ھنگ	-13411
▁Best	-13412
▁File	-13413
▁Stra	-13414
▁Tele	-13415
▁acce	-13416
▁boot	-13417
▁cart	-13418
▁cell	-13419
▁cond	-13420
▁fill	-13421
▁gula	-13422
▁mult	-13423
▁test	-13424
▁ward	-13425
▁آغوش	-13426
▁ائيم	-13427
▁اميل	-13428
▁اوسي	-13429
▁اينو	-13430
▁بارك	-13431
▁باڪو	-13432
▁برات	-13433
▁بيرو	-13434
▁بينه	-13435
▁حصلت	-13436
▁حمزه	-13437
▁دوله	-13438
▁رايش	-13439
▁رايه	-13440
▁راڙي	-13441
▁رقيه	-13442
▁رموز	-13443
▁روغن	-13444
▁ريڪس	-13445
▁زيري	-13446
▁زيلا	-13447
▁زينو	-13448
▁سائر	-13449
▁شابس	-13450
▁شترك	-13451
▁شركة	-13452
▁شيلا	-13453
▁عرفش	-13454
▁عمدي	-13455
▁عميق	-13456
▁فالو	-13457
▁قارچ	-13458
▁قليچ	-13459
▁لهان	-13460
▁ليڪو	-13461
▁مساف	-13462
▁نقدي	-13463
▁نونو	-13464
▁نويد	-13465
▁نيوڪ	-13466
▁نيپچ	-13467
▁هبله	-13468
▁هرڪا	-13469
▁هكار	-13470
▁ورون	-13471
▁وستا	-13472
▁ونگر	-13473
▁يركض	-13474
▁يليس	-13475
▁يڪين	-13476
▁پرڻي	-13477
▁چربی	-13478
▁چٻاڙ	-13479
▁کوکر	-13480
▁ڪملا	-13481
▁ڪوچه	-13482
▁گوشه	-13483
▁build	-13484
▁field	-13485
▁remov	-13486
▁ارٽلٽ	-13487
▁اسٽول	-13488
▁الپڻي	-13489
▁اونها	-13490
▁برانڈ	-13491
▁تبيني	-13492
▁تخنيق	-13493
▁ترانو	-13494
▁تركيه	-13495
▁رائين	-13496
▁رمانڊ	-13497
▁سائمن	-13498
▁ساڀيا	-13499
▁شتراڪ	-13500
▁صندلي	-13501
▁قافلو	-13502
▁مراقب	-13503
▁مفعول	-13504
▁ملعون	-13505
▁نوبيل	-13506
▁نيورو	-13507
▁هنجون	-13508
▁ويلنٽ	-13509
▁وينيا	-13510
▁يڪجهت	-13511
▁ٽوئٽر	-13512
▁پاتال	-13513
95	-13514
CS	-13515
EG	-13516
hu	-13517
ii	-13518
ki	-13519
ko	-13520
آأ	-13521
رج	-13522
ظن	-13523
ڑی	-13524
ہو	-13525
ۈر	-13526
▁¢	-13527
▁с	-13528
▁ڸ	-13529
▁ै	-13530
▁【	-13531
eam	-13532
eap	-13533
ئیے	-13534
انة	-13535
بون	-13536
تيه	-13537
راط	-13538
ريا	-13539
سٽا	-13540
فيه	-13541
قاق	-13542
يڪو	-13543
يڪي	-13544
پوت	-13545
ھيد	-13546
▁((	-13547
▁==	-13548
▁Dy	-13549
▁Eu	-13550
▁IR	-13551
▁Ji	-13552
▁LO	-13553
▁UH	-13554
▁Yu	-13555
▁أه	-13556
▁تڻ	-13557
▁زت	-13558
▁ضل	-13559
▁قز	-13560
▁ٱل	-13561
▁ٽٻ	-13562
▁پژ	-13563
▁چې	-13564
▁کې	-13565
▁ڪآ	-13566
▁ڪڵ	-13567
ائمر	-13568
▁(*)	-13569
▁3-4	-13570
▁4.2	-13571
▁48.	-13572
▁50.	-13573
▁Aft	-13574
▁Cam	-13575
▁Dia	-13576
▁Dra	-13577
▁ION	-13578
▁Ita	-13579
▁NAS	-13580
▁Pin	-13581
▁TOP	-13582
▁Thi	-13583
▁VPS	-13584
▁ana	-13585
▁blu	-13586
▁cet	-13587
▁cru	-13588
▁dit	-13589
▁fre	-13590
▁hot	-13591
▁nch	-13592
▁nde	-13593
▁pap	-13594
▁rmo	-13595
▁ska	-13596
▁آرس	-13597
▁آرو	-13598
▁آفس	-13599
▁آهل	-13600
▁آهٍ	-13601
▁آهک	-13602
▁آوي	-13603
▁آپا	-13604
▁أحب	-13605
▁أخر	-13606
▁اَڻ	-13607
▁اُه	-13608
▁باگ	-13609
▁برٿ	-13610
▁بشي	-13611
▁بلی	-13612
▁تتي	-13613
▁تمر	-13614
▁تپش	-13615
▁جدك	-13616
▁جَي	-13617
▁حبة	-13618
▁حرق	-13619
▁حزن	-13620
▁حصل	-13621
▁حطي	-13622
▁خفا	-13623
▁درك	-13624
▁دهر	-13625
▁ديڳ	-13626
▁دیگ	-13627
▁ذبح	-13628
▁ربى	-13629
▁رسڻ	-13630
▁رشي	-13631
▁رهڙ	-13632
▁روك	-13633
▁رٽي	-13634
▁زلم	-13635
▁سبو	-13636
▁سمٽ	-13637
▁سڌن	-13638
▁شقن	-13639
▁ضدي	-13640
▁ضطر	-13641
▁عمك	-13642
▁فاش	-13643
▁كلب	-13644
▁كنه	-13645
▁ليچ	-13646
▁لین	-13647
▁مخي	-13648
▁منچ	-13649
▁مڪو	-13650
▁نفع	-13651
▁نيٰ	-13652
▁هبه	-13653
▁هَر	-13654
▁هٽڻ	-13655
▁واڙ	-13656
▁ويڙ	-13657
▁يخت	-13658
▁يڊو	-13659
▁ٻاٽ	-13660
▁ٻرڻ	-13661
▁پهڻ	-13662
▁ٿاڦ	-13663
▁ٿاڪ	-13664
▁ٿڌا	-13665
▁چمڻ	-13666
▁چٺي	-13667
▁ڊرم	-13668
▁ڏتڙ	-13669
▁ڦٽا	-13670
▁کاش	-13671
▁کنن	-13672
▁ڪلڀ	-13673
▁ڪڇي	-13674
▁ڪڍو	-13675
▁ھيل	-13676
▁Cent	-13677
▁July	-13678
▁Step	-13679
▁born	-13680
▁lley	-13681
▁mine	-13682
▁poli	-13683
▁prop	-13684
▁seri	-13685
▁shop	-13686
▁tube	-13687
▁ابقت	-13688
▁انكس	-13689
▁اويس	-13690
▁اوپي	-13691
▁ايها	-13692
▁ايڌي	-13693
▁اڻند	-13694
▁بانگ	-13695
▁بطال	-13696
▁بيڪن	-13697
▁جسما	-13698
▁جيڪڏ	-13699
▁خترع	-13700
▁داتا	-13701
▁دارس	-13702
▁دعول	-13703
▁ديهي	-13704
▁رديف	-13705
▁رنيل	-13706
▁رواھ	-13707
▁روبل	-13708
▁رينو	-13709
▁ريٽي	-13710
▁رڍون	-13711
▁سائٽ	-13712
▁سامر	-13713
▁سامو	-13714
▁سمبر	-13715
▁سونڪ	-13716
▁سوڍل	-13717
▁سٽين	-13718
▁شوڀا	-13719
▁شہوت	-13720
▁صرآح	-13721
▁صراط	-13722
▁عتدل	-13723
▁عععع	-13724
▁غباء	-13725
▁قاري	-13726
▁قاسي	-13727
▁قطري	-13728
▁لاکو	-13729
▁لسلا	-13730
▁لهون	-13731
▁مثلث	-13732
▁مذيع	-13733
▁مريح	-13734
▁مزعج	-13735
▁مقاس	-13736
▁منان	-13737
▁موبا	-13738
▁مولو	-13739
▁مينه	-13740
▁نجاح	-13741
▁نديء	-13742
▁نياد	-13743
▁هلڪا	-13744
▁ههاي	-13745
▁هيدا	-13746
▁هڙيو	-13747
▁وائٹ	-13748
▁ورند	-13749
▁ووٽر	-13750
▁ويرا	-13751
▁يالل	-13752
▁يترن	-13753
▁يشبه	-13754
▁يناد	-13755
▁ينٽر	-13756
▁يٽنٽ	-13757
▁ٽائن	-13758
▁ٽپڻي	-13759
▁پولس	-13760
▁ڊينس	-13761
▁ڌوٻي	-13762
▁ڏياچ	-13763
▁ڙوڇڙ	-13764
▁کنگه	-13765
▁ڪانو	-13766
▁ڪريڪ	-13767
▁گراه	-13768
▁گهاٽ	-13769
▁ڳڻيو	-13770
▁ڻايو	-13771
▁white	-13772
▁اعريء	-13773
▁افزود	-13774
▁الئیے	-13775
▁بروهي	-13776
▁بهينه	-13777
▁تانگه	-13778
▁تعقيب	-13779
▁جهونو	-13780
▁جھولي	-13781
▁ستائي	-13782
▁سحالي	-13783
▁قايسه	-13784
▁ميلان	-13785
▁نتباہ	-13786
▁نڊيلا	-13787
▁وسنيا	-13788
▁ويراڳ	-13789
▁ٽائيٽ	-13790
▁پرتاب	-13791
▁پرڻيل	-13792
▁ڪوهلي	-13793
50	-13794
CC	-13795
II	-13796
LL	-13797
RT	-13798
UT	-13799
ye	-13800
zu	-13801
بح	-13802
طا	-13803
قن	-13804
ُل	-13805
ٺل	-13806
ٺڪ	-13807
ګه	-13808
ڳر	-13809
ہن	-13810
▁¬	-13811
▁٘	-13812
▁ۀ	-13813
▁﴿	-13814
▁💞	-13815
oub	-13816
wit	-13817
آنه	-13818
ابة	-13819
ادة	-13820
ادر	-13821
دوي	-13822
عوب	-13823
فوق	-13824
قيت	-13825
ليس	-13826
ليٽ	-13827
هوء	-13828
هير	-13829
يوف	-13830
ڙاٽ	-13831
▁0،	-13832
▁AK	-13833
▁Av	-13834
▁LA	-13835
▁NT	-13836
▁OL	-13837
▁SO	-13838
▁TR	-13839
▁dd	-13840
▁kr	-13841
▁pd	-13842
▁rt	-13843
▁؛؛	-13844
▁أأ	-13845
▁إل	-13846
▁اٴ	-13847
▁ثي	-13848
▁جآ	-13849
▁جح	-13850
▁حة	-13851
▁خز	-13852
▁دح	-13853
▁رښ	-13854
▁ضخ	-13855
▁غو	-13856
▁قش	-13857
▁هې	-13858
▁ٿڃ	-13859
▁چغ	-13860
▁ڙج	-13861
▁گہ	-13862
▁ڳٽ	-13863
▁یڪ	-13864
▁14-	-13865
▁170	-13866
▁206	-13867
▁240	-13868
▁3.2	-13869
▁Ads	-13870
▁BET	-13871
▁Bay	-13872
▁Cou	-13873
▁Geo	-13874
▁Hel	-13875
▁Hen	-13876
▁Mer	-13877
▁NMN	-13878
▁Tru	-13879
▁UTC	-13880
▁ama	-13881
▁bir	-13882
▁bol	-13883
▁did	-13884
▁dor	-13885
▁fit	-13886
▁lia	-13887
▁llo	-13888
▁onl	-13889
▁sim	-13890
▁spi	-13891
▁tag	-13892
▁thi	-13893
▁thu	-13894
▁uth	-13895
▁آأإ	-13896
▁ئِي	-13897
▁ارھ	-13898
▁ازت	-13899
▁اسل	-13900
▁اشق	-13901
▁اوڍ	-13902
▁ايٿ	-13903
▁اٿل	-13904
▁بتا	-13905
▁برڊ	-13906
▁بزم	-13907
▁بلس	-13908
▁بمن	-13909
▁بنى	-13910
▁بوء	-13911
▁تاس	-13912
▁ترق	-13913
▁تنت	-13914
▁توس	-13915
▁جمح	-13916
▁حبش	-13917
▁حبك	-13918
▁حده	-13919
▁خلك	-13920
▁خمل	-13921
▁خول	-13922
▁درى	-13923
▁رُت	-13924
▁رگم	-13925
▁سڳي	-13926
▁شدم	-13927
▁قوة	-13928
▁كنن	-13929
▁كيا	-13930
▁كپي	-13931
▁لاف	-13932
▁لبا	-13933
▁لسى	-13934
▁لطش	-13935
▁لوط	-13936
▁لوڙ	-13937
▁لٽڪ	-13938
▁مبت	-13939
▁مذا	-13940
▁ممي	-13941
▁منز	-13942
▁مِس	-13943
▁مڱڻ	-13944
▁نوس	-13945
▁هاٿ	-13946
▁هنڊ	-13947
▁هيش	-13948
▁ودك	-13949
▁ونل	-13950
▁وهل	-13951
▁وڊو	-13952
▁وڪڙ	-13953
▁يدل	-13954
▁ييل	-13955
▁ٺون	-13956
▁ٻچو	-13957
▁ٻڙي	-13958
▁ٽرز	-13959
▁پخت	-13960
▁چتر	-13961
▁ڊڄن	-13962
▁ڪلف	-13963
▁ڪنم	-13964
▁گيل	-13965
▁ھيڊ	-13966
▁Acce	-13967
▁Adhe	-13968
▁Arti	-13969
▁Crea	-13970
▁Demo	-13971
▁Disk	-13972
▁Find	-13973
▁Kodi	-13974
▁Port	-13975
▁Setp	-13976
▁Wall	-13977
▁bott	-13978
▁dele	-13979
▁diss	-13980
▁gnet	-13981
▁porn	-13982
▁sexy	-13983
▁ائست	-13984
▁اباس	-13985
▁ابتو	-13986
▁احتر	-13987
▁ازال	-13988
▁اسلا	-13989
▁اكشن	-13990
▁انيد	-13991
▁اورن	-13992
▁اڻيل	-13993
▁تحري	-13994
▁تخفي	-13995
▁جزوه	-13996
▁جوري	-13997
▁حقیق	-13998
▁خالف	-13999
▁دراك	-14000
▁دلوع	-14001
▁دوان	-14002
▁دينو	-14003
▁دڙڪو	-14004
▁ذاري	-14005
▁روضه	-14006
▁ريجن	-14007
▁ريست	-14008
▁ريني	-14009
▁رينگ	-14010
▁زعلت	-14011
▁سطوح	-14012
▁سوئم	-14013
▁سوڍا	-14014
▁سياس	-14015
▁شفيق	-14016
▁شموخ	-14017
▁شھيد	-14018
▁طائر	-14019
▁عزوم	-14020
▁عطور	-14021
▁عفري	-14022
▁علاو	-14023
▁عيال	-14024
▁عيان	-14025
▁فاٽا	-14026
▁قرون	-14027
▁قضائ	-14028
▁قندي	-14029
▁لاها	-14030
▁لميس	-14031
▁لمين	-14032
▁لونه	-14033
▁متون	-14034
▁مرحب	-14035
▁مواج	-14036
▁ميڊي	-14037
▁نعرن	-14038
▁نكسر	-14039
▁نمود	-14040
▁نيام	-14041
▁نيدر	-14042
▁نگير	-14043
▁هارس	-14044
▁هناء	-14045
▁هنجا	-14046
▁هوڪي	-14047
▁هيار	-14048
▁هيڊي	-14049
▁واٽن	-14050
▁ورني	-14051
▁وريس	-14052
▁وهيا	-14053
▁وياه	-14054
▁ويهج	-14055
▁يركب	-14056
▁يزعل	-14057
▁يفري	-14058
▁يلاد	-14059
▁يمدح	-14060
▁ينور	-14061
▁پلاس	-14062
▁چونڪ	-14063
▁ڌنار	-14064
▁ڌوڪو	-14065
▁ڌوڻي	-14066
▁ڏانھ	-14067
▁ڏنگي	-14068
▁کاسٽ	-14069
▁ڪاتب	-14070
▁ڪالز	-14071
▁ڪثير	-14072
▁ڪروه	-14073
▁گانگ	-14074
▁گاهن	-14075
▁گاڏو	-14076
▁گراس	-14077
▁گورو	-14078
▁گوله	-14079
▁heart	-14080
▁الموض	-14081
▁اونهو	-14082
▁اونڌي	-14083
▁اڻهوء	-14084
▁تسليت	-14085
▁داراي	-14086
▁ديوال	-14087
▁رويشن	-14088
▁سادات	-14089
▁سرائي	-14090
▁شتھار	-14091
▁مهاڻي	-14092
▁نڌاري	-14093
▁وينها	-14094
▁وينچر	-14095
▁يتيمن	-14096
▁ينجھر	-14097
▁چالان	-14098
▁چوپڙا	-14099
AM	-14100
DC	-14101
EI	-14102
EX	-14103
FI	-14104
GO	-14105
IP	-14106
VI	-14107
fu	-14108
نڪ	-14109
ُر	-14110
ګر	-14111
▁ڣ	-14112
▁😊	-14113
itu	-14114
ssi	-14115
sta	-14116
uro	-14117
تيش	-14118
ضيف	-14119
هات	-14120
ووق	-14121
ھور	-14122
▁$1	-14123
▁'.	-14124
▁($	-14125
▁07	-14126
▁2ـ	-14127
▁8,	-14128
▁HB	-14129
▁If	-14130
▁Oc	-14131
▁PP	-14132
▁PR	-14133
▁ku	-14134
▁sn	-14135
▁؛)	-14136
▁إم	-14137
▁هڳ	-14138
▁وذ	-14139
▁وڀ	-14140
▁يۈ	-14141
▁ڄڀ	-14142
▁څو	-14143
▁102	-14144
▁118	-14145
▁256	-14146
▁26.	-14147
▁32.	-14148
▁38.	-14149
▁4.3	-14150
▁5.1	-14151
▁64.	-14152
▁Bel	-14153
▁Cle	-14154
▁IEC	-14155
▁NAD	-14156
▁PRO	-14157
▁Par	-14158
▁SMS	-14159
▁TCD	-14160
▁[3]	-14161
▁adv	-14162
▁dos	-14163
▁ert	-14164
▁gna	-14165
▁gno	-14166
▁isi	-14167
▁kit	-14168
▁ley	-14169
▁mot	-14170
▁ndo	-14171
▁nno	-14172
▁nte	-14173
▁rub	-14174
▁tab	-14175
▁who	-14176
▁yal	-14177
▁آها	-14178
▁آڇي	-14179
▁إلي	-14180
▁اته	-14181
▁اطي	-14182
▁الک	-14183
▁امب	-14184
▁اڏڻ	-14185
▁بقه	-14186
▁بيم	-14187
▁بٽن	-14188
▁بھي	-14189
▁تاڪ	-14190
▁تشت	-14191
▁تيب	-14192
▁حبا	-14193
▁حبو	-14194
▁حجي	-14195
▁حشى	-14196
▁حفل	-14197
▁حيف	-14198
▁دلِ	-14199
▁ذكي	-14200
▁رشح	-14201
▁رنر	-14202
▁ريچ	-14203
▁سبا	-14204
▁ستت	-14205
▁سرِ	-14206
▁سسم	-14207
▁سمح	-14208
▁سڙڻ	-14209
▁سھي	-14210
▁شمل	-14211
▁صعب	-14212
▁ضرر	-14213
▁طبل	-14214
▁طرق	-14215
▁طيف	-14216
▁عرق	-14217
▁فاز	-14218
▁فرف	-14219
▁قصن	-14220
▁كال	-14221
▁كسب	-14222
▁لعد	-14223
▁لھڻ	-14224
▁معن	-14225
▁منڌ	-14226
▁ميٺ	-14227
▁مُٺ	-14228
▁مٽر	-14229
▁مکس	-14230
▁نمل	-14231
▁هرڪ	-14232
▁ورى	-14233
▁ويک	-14234
▁ویب	-14235
▁يکر	-14236
▁ٺهه	-14237
▁ٻٽو	-14238
▁ٽاس	-14239
▁ٽيچ	-14240
▁پرد	-14241
▁پنٽ	-14242
▁پژو	-14243
▁چرو	-14244
▁چنا	-14245
▁چٽڻ	-14246
▁چکي	-14247
▁ڇپي	-14248
▁ڇڄي	-14249
▁ڌام	-14250
▁ڌني	-14251
▁ڍڳو	-14252
▁ڏبو	-14253
▁ڏنم	-14254
▁ڦڙا	-14255
▁کتل	-14256
▁ڪسٽ	-14257
▁گرڀ	-14258
▁گيگ	-14259
▁ڻاي	-14260
▁ھال	-14261
▁ھلو	-14262
▁ھور	-14263
▁Anti	-14264
▁Lear	-14265
▁Open	-14266
▁Park	-14267
▁Sagi	-14268
▁byte	-14269
▁cert	-14270
▁fire	-14271
▁foot	-14272
▁gory	-14273
▁muni	-14274
▁peop	-14275
▁prot	-14276
▁rist	-14277
▁side	-14278
▁stor	-14279
▁stre	-14280
▁tend	-14281
▁tinu	-14282
▁want	-14283
▁ائزر	-14284
▁اداش	-14285
▁اريء	-14286
▁ارڪي	-14287
▁اسفٽ	-14288
▁اقوم	-14289
▁المر	-14290
▁النا	-14291
▁انجي	-14292
▁اهبل	-14293
▁اوکو	-14294
▁اٺار	-14295
▁بسوط	-14296
▁بسيج	-14297
▁بلاغ	-14298
▁بنيو	-14299
▁تاتي	-14300
▁تولي	-14301
▁جتمع	-14302
▁جروح	-14303
▁حوزه	-14304
▁داهي	-14305
▁درزي	-14306
▁دولا	-14307
▁رآآآ	-14308
▁رافع	-14309
▁ريزم	-14310
▁ريلو	-14311
▁ساكن	-14312
▁سوپر	-14313
▁شووف	-14314
▁شيعا	-14315
▁طيار	-14316
▁عشاء	-14317
▁غادي	-14318
▁فادر	-14319
▁فيلو	-14320
▁قادر	-14321
▁قبلی	-14322
▁لعاب	-14323
▁لوئر	-14324
▁لوشن	-14325
▁لينٽ	-14326
▁مدبر	-14327
▁منتر	-14328
▁موئن	-14329
▁مڪار	-14330
▁مڻيا	-14331
▁نڊيا	-14332
▁نگبو	-14333
▁نگها	-14334
▁هنوف	-14335
▁هيمو	-14336
▁هيمپ	-14337
▁هيني	-14338
▁وائڙ	-14339
▁واڪي	-14340
▁وراء	-14341
▁ورهن	-14342
▁وريك	-14343
▁وريه	-14344
▁ولہو	-14345
▁ونٹی	-14346
▁ويلٽ	-14347
▁وينت	-14348
▁يالن	-14349
▁يزنه	-14350
▁يسٽي	-14351
▁ينوس	-14352
▁يويٽ	-14353
▁يکار	-14354
▁ٺڪيل	-14355
▁ٽوئن	-14356
▁ٽيرر	-14357
▁پورت	-14358
▁چنچل	-14359
▁ڌرڻا	-14360
▁ڪامڻ	-14361
▁ڪاڪو	-14362
▁ڪوڏر	-14363
▁ڪينو	-14364
▁گالا	-14365
▁گالي	-14366
▁گهلي	-14367
▁ڳوڙھ	-14368
▁style	-14369
▁اجپوت	-14370
▁ارچوب	-14371
▁ارڪوس	-14372
▁افروز	-14373
▁امتحا	-14374
▁انائي	-14375
▁انستا	-14376
▁انگهي	-14377
▁اڪرام	-14378
▁تقويت	-14379
▁تمهيد	-14380
▁تندور	-14381
▁تنهين	-14382
▁جهنڊي	-14383
▁روميو	-14384
▁ستطيع	-14385
▁سنڀري	-14386
▁سودان	-14387
▁صاحيه	-14388
▁فضايح	-14389
▁كتيير	-14390
▁نبوهه	-14391
▁نھاري	-14392
▁هاراج	-14393
▁هنجار	-14394
▁يچيلس	-14395
▁ٻاويه	-14396
▁ڪيٽيل	-14397
))	-14398
):	-14399
1:	-14400
CE	-14401
CO	-14402
FO	-14403
RM	-14404
rl	-14405
sn	-14406
جت	-14407
خص	-14408
طت	-14409
ظف	-14410
َل	-14411
ِت	-14412
ټه	-14413
پڪ	-14414
ڀڻ	-14415
ڈا	-14416
ڌڻ	-14417
ړۍ	-14418
کم	-14419
یو	-14420
▁¦	-14421
▁¿	-14422
▁ई	-14423
▁ए	-14424
▁☆	-14425
▁】	-14426
end	-14427
ابس	-14428
توت	-14429
دوه	-14430
سوا	-14431
ضيع	-14432
قيم	-14433
وبت	-14434
وين	-14435
گره	-14436
ھاڙ	-14437
▁#2	-14438
▁(!	-14439
▁1'	-14440
▁5,	-14441
▁6،	-14442
▁FL	-14443
▁Ky	-14444
▁YH	-14445
▁_.	-14446
▁ei	-14447
▁mg	-14448
▁آڛ	-14449
▁بڇ	-14450
▁دَ	-14451
▁مڊ	-14452
▁نڱ	-14453
▁هۈ	-14454
▁يٴ	-14455
▁٢٠	-14456
▁ٽڙ	-14457
▁ښت	-14458
▁ھے	-14459
قايق	-14460
▁*_*	-14461
▁1/3	-14462
▁101	-14463
▁123	-14464
▁190	-14465
▁<--	-14466
▁Bru	-14467
▁CAN	-14468
▁Che	-14469
▁Cre	-14470
▁DVD	-14471
▁Det	-14472
▁Dri	-14473
▁Get	-14474
▁Med	-14475
▁Oly	-14476
▁Onl	-14477
▁PLC	-14478
▁Sel	-14479
▁Sub	-14480
▁THC	-14481
▁UAB	-14482
▁War	-14483
▁ben	-14484
▁cal	-14485
▁cel	-14486
▁def	-14487
▁dex	-14488
▁ela	-14489
▁gne	-14490
▁kon	-14491
▁lly	-14492
▁nar	-14493
▁nel	-14494
▁ngo	-14495
▁nok	-14496
▁now	-14497
▁php	-14498
▁pon	-14499
▁pur	-14500
▁ust	-14501
▁آوا	-14502
▁أنآ	-14503
▁اشک	-14504
▁اوڳ	-14505
▁اڀي	-14506
▁بئر	-14507
▁بسه	-14508
▁بچا	-14509
▁تحط	-14510
▁تڙپ	-14511
▁تڻو	-14512
▁تہه	-14513
▁جاڙ	-14514
▁جنر	-14515
▁حرک	-14516
▁حسو	-14517
▁حظك	-14518
▁حكت	-14519
▁خاط	-14520
▁خاك	-14521
▁خذي	-14522
▁خطو	-14523
▁دبل	-14524
▁دبه	-14525
▁دعم	-14526
▁دمي	-14527
▁دند	-14528
▁دوب	-14529
▁رئو	-14530
▁زبي	-14531
▁زدا	-14532
▁زنم	-14533
▁زيي	-14534
▁زھر	-14535
▁ساڃ	-14536
▁سقف	-14537
▁شفق	-14538
▁شكد	-14539
▁شوم	-14540
▁شيم	-14541
▁شيڪ	-14542
▁شڪن	-14543
▁صفق	-14544
▁عفو	-14545
▁غمن	-14546
▁فإن	-14547
▁فضو	-14548
▁فنگ	-14549
▁فيج	-14550
▁قصف	-14551
▁قله	-14552
▁كرد	-14553
▁لفر	-14554
▁لكه	-14555
▁ماج	-14556
▁منڪ	-14557
▁مهڙ	-14558
▁ميي	-14559
▁نبذ	-14560
▁نتف	-14561
▁نشن	-14562
▁نصح	-14563
▁نڙي	-14564
▁هلأ	-14565
▁هلت	-14566
▁هيگ	-14567
▁وإن	-14568
▁واؤ	-14569
▁وجب	-14570
▁وحش	-14571
▁ومع	-14572
▁ومل	-14573
▁ويپ	-14574
▁ياك	-14575
▁يخي	-14576
▁ٽٻي	-14577
▁پلن	-14578
▁پلڪ	-14579
▁پڦي	-14580
▁پڪل	-14581
▁ٿي۔	-14582
▁څخه	-14583
▁چهن	-14584
▁چٽس	-14585
▁ڏاج	-14586
▁ڦڙو	-14587
▁کوج	-14588
▁کوھ	-14589
▁کيش	-14590
▁کڙا	-14591
▁کیا	-14592
▁ڪرش	-14593
▁ڪسے	-14594
▁ڪلر	-14595
▁ڪهه	-14596
▁ڪَل	-14597
▁گئر	-14598
▁ڳڀا	-14599
▁ڻون	-14600
▁ھلا	-14601
▁ھوم	-14602
▁Amst	-14603
▁Bund	-14604
▁Disp	-14605
▁GDPR	-14606
▁IATA	-14607
▁Last	-14608
▁Poly	-14609
▁Resp	-14610
▁Rose	-14611
▁anot	-14612
▁blog	-14613
▁corn	-14614
▁disk	-14615
▁drop	-14616
▁firm	-14617
▁lone	-14618
▁pora	-14619
▁recy	-14620
▁scre	-14621
▁some	-14622
▁well	-14623
▁when	-14624
▁ائفل	-14625
▁ائيگ	-14626
▁اتلي	-14627
▁ارتي	-14628
▁ازیت	-14629
▁اسهل	-14630
▁اشهر	-14631
▁اعده	-14632
▁الحي	-14633
▁الٽو	-14634
▁اوڏو	-14635
▁اڏار	-14636
▁اڪري	-14637
▁بارز	-14638
▁بالٽ	-14639
▁بدهي	-14640
▁بڻبو	-14641
▁ترائ	-14642
▁ثريت	-14643
▁ثقاف	-14644
▁جھڳڙ	-14645
▁حزين	-14646
▁حمار	-14647
▁حواء	-14648
▁خروط	-14649
▁خصائ	-14650
▁خلآص	-14651
▁خلاء	-14652
▁خندق	-14653
▁داؤد	-14654
▁دادم	-14655
▁دارڪ	-14656
▁داڻي	-14657
▁دروغ	-14658
▁راجي	-14659
▁راڪش	-14660
▁راڪي	-14661
▁ردود	-14662
▁رنڊي	-14663
▁ريڪن	-14664
▁زمير	-14665
▁ستات	-14666
▁سراء	-14667
▁سنبت	-14668
▁سوڀي	-14669
▁سوڍو	-14670
▁سيسي	-14671
▁سيمو	-14672
▁سٽار	-14673
▁صلعم	-14674
▁عمير	-14675
▁غرام	-14676
▁فاسف	-14677
▁فطوم	-14678
▁كرار	-14679
▁كريم	-14680
▁لوله	-14681
▁لومڙ	-14682
▁متلي	-14683
▁مظفر	-14684
▁مليت	-14685
▁منين	-14686
▁مههن	-14687
▁مونڊ	-14688
▁نارن	-14689
▁ناطق	-14690
▁نالت	-14691
▁ناما	-14692
▁ناٺي	-14693
▁نتهى	-14694
▁نراس	-14695
▁نيرا	-14696
▁نيلم	-14697
▁نڪرو	-14698
▁نڪور	-14699
▁هديت	-14700
▁هرات	-14701
▁همير	-14702
▁هنما	-14703
▁هيائ	-14704
▁هيرس	-14705
▁وآحد	-14706
▁وئٽي	-14707
▁واڙي	-14708
▁ورژن	-14709
▁ورڪس	-14710
▁ونچر	-14711
▁ويني	-14712
▁وپڙي	-14713
▁وگرځ	-14714
▁ياسو	-14715
▁يرزق	-14716
▁يزرو	-14717
▁يلاز	-14718
▁يليٽ	-14719
▁ينڪس	-14720
▁ينڪن	-14721
▁يڊيم	-14722
▁يڊيڪ	-14723
▁يکان	-14724
▁پنهن	-14725
▁ڀائٽ	-14726
▁ڊيلي	-14727
▁ڌوڪي	-14728
▁ڪاني	-14729
▁ڪنٽر	-14730
▁ڪهڻي	-14731
▁Phone	-14732
▁Statu	-14733
▁necra	-14734
▁plast	-14735
▁wheel	-14736
▁أأأأأ	-14737
▁ائريڪ	-14738
▁ارسيل	-14739
▁اسيري	-14740
▁اشترا	-14741
▁انقاه	-14742
▁تاريڪ	-14743
▁جرائم	-14744
▁جهرڪي	-14745
▁حاشيه	-14746
▁داران	-14747
▁صنايع	-14748
▁عتياد	-14749
▁قنڌار	-14750
▁مولود	-14751
▁نائيڪ	-14752
▁نهايه	-14753
▁نڊروم	-14754
▁هاريل	-14755
▁هياري	-14756
▁هينگر	-14757
▁هيڊڪو	-14758
▁هيڪلي	-14759
▁ولينا	-14760
▁يٽيڪٽ	-14761
▁يکاني	-14762
▁ڪنهين	-14763
▁ڪونڌر	-14764
▁گهاٽا	-14765
▁گيانا	-14766
▁گھانا	-14767
nc	-14768
za	-14769
أن	-14770
ئم	-14771
ذذ	-14772
فض	-14773
فق	-14774
قى	-14775
مس	-14776
مى	-14777
هڑ	-14778
ڀو	-14779
ہر	-14780
▁͜	-14781
▁ؿ	-14782
▁ࢪ	-14783
▁अ	-14784
▁च	-14785
▁⇄	-14786
▁─	-14787
▁﴾	-14788
elo	-14789
est	-14790
ابه	-14791
ايق	-14792
ثوم	-14793
فير	-14794
قال	-14795
كون	-14796
ميع	-14797
واڙ	-14798
ڌهن	-14799
▁-:	-14800
▁9:	-14801
▁<3	-14802
▁AF	-14803
▁Ag	-14804
▁DB	-14805
▁Gb	-14806
▁Ig	-14807
▁KW	-14808
▁Ku	-14809
▁NI	-14810
▁NS	-14811
▁OR	-14812
▁PE	-14813
▁RE	-14814
▁Tv	-14815
▁br	-14816
▁gt	-14817
▁rb	-14818
▁بض	-14819
▁دج	-14820
▁رې	-14821
▁هک	-14822
▁چَ	-14823
▁ڏِ	-14824
▁ڦڙ	-14825
▁گچ	-14826
▁ڻس	-14827
▁0.5	-14828
▁10%	-14829
▁107	-14830
▁10،	-14831
▁115	-14832
▁18،	-14833
▁280	-14834
▁34.	-14835
▁737	-14836
▁CAD	-14837
▁DOC	-14838
▁Fri	-14839
▁Gam	-14840
▁IOS	-14841
▁Kar	-14842
▁OST	-14843
▁Our	-14844
▁PER	-14845
▁PHP	-14846
▁Ray	-14847
▁SER	-14848
▁Sca	-14849
▁Ste	-14850
▁Sto	-14851
▁Ten	-14852
▁Tia	-14853
▁Tor	-14854
▁Via	-14855
▁Vis	-14856
▁gal	-14857
▁ger	-14858
▁git	-14859
▁hua	-14860
▁lid	-14861
▁lit	-14862
▁ndi	-14863
▁ndy	-14864
▁nla	-14865
▁nua	-14866
▁nyl	-14867
▁ola	-14868
▁pad	-14869
▁put	-14870
▁rac	-14871
▁sum	-14872
▁آبِ	-14873
▁آحد	-14874
▁آنو	-14875
▁آهآ	-14876
▁ايک	-14877
▁ببر	-14878
▁بخل	-14879
▁بوٿ	-14880
▁تاي	-14881
▁تنح	-14882
▁تڏي	-14883
▁جئي	-14884
▁جلو	-14885
▁دشت	-14886
▁دهد	-14887
▁رعد	-14888
▁روی	-14889
▁زرت	-14890
▁زوز	-14891
▁ساڌ	-14892
▁سمك	-14893
▁سهپ	-14894
▁صبو	-14895
▁ضاف	-14896
▁ضيق	-14897
▁طاح	-14898
▁عتر	-14899
▁عله	-14900
▁علڻ	-14901
▁غمي	-14902
▁فرس	-14903
▁قدس	-14904
▁قضي	-14905
▁لِء	-14906
▁ماث	-14907
▁مقت	-14908
▁ملک	-14909
▁مگن	-14910
▁ناہ	-14911
▁نثى	-14912
▁نحس	-14913
▁نخل	-14914
▁نمت	-14915
▁هئه	-14916
▁هاك	-14917
▁هتو	-14918
▁هزر	-14919
▁همچ	-14920
▁ونن	-14921
▁يجب	-14922
▁ينء	-14923
▁ٻرن	-14924
▁پتل	-14925
▁پله	-14926
▁پيم	-14927
▁پُڇ	-14928
▁پچر	-14929
▁پھچ	-14930
▁ٿرا	-14931
▁ٿلڪ	-14932
▁ٿڏي	-14933
▁ڀيد	-14934
▁ڇير	-14935
▁ڇھن	-14936
▁ڌڪو	-14937
▁ڏهي	-14938
▁ڪتر	-14939
▁ڪره	-14940
▁ڪوم	-14941
▁ڪٺن	-14942
▁گھن	-14943
▁ڳرڻ	-14944
▁Adju	-14945
▁Love	-14946
▁Real	-14947
▁Reco	-14948
▁bett	-14949
▁furt	-14950
▁mesh	-14951
▁norm	-14952
▁pend	-14953
▁pull	-14954
▁rela	-14955
▁rono	-14956
▁sale	-14957
▁spre	-14958
▁stop	-14959
▁tell	-14960
▁tide	-14961
▁zhou	-14962
▁ئيٽر	-14963
▁ائني	-14964
▁ائيب	-14965
▁ارڪٽ	-14966
▁اسمو	-14967
▁اسيو	-14968
▁اسٽڪ	-14969
▁اشند	-14970
▁اضمي	-14971
▁اغبى	-14972
▁افسر	-14973
▁اليل	-14974
▁انال	-14975
▁اودا	-14976
▁ايرا	-14977
▁اينٽ	-14978
▁ايڪر	-14979
▁اُنه	-14980
▁اڪاڻ	-14981
▁اڻيا	-14982
▁باشر	-14983
▁تخبل	-14984
▁تعلي	-14985
▁جوئر	-14986
▁جيتر	-14987
▁جھنگ	-14988
▁جھڪي	-14989
▁حبوب	-14990
▁حریف	-14991
▁حليت	-14992
▁خائف	-14993
▁خابر	-14994
▁دهند	-14995
▁راتي	-14996
▁راهب	-14997
▁رخوا	-14998
▁رسيس	-14999
▁رسيل	-15000
▁رهائ	-15001
▁ريبا	-15002
▁ريسي	-15003
▁رينٽ	-15004
▁رچنٽ	-15005
▁زالي	-15006
▁زعلي	-15007
▁ساهر	-15008
▁سنها	-15009
▁سنڊي	-15010
▁سنگر	-15011
▁سوله	-15012
▁سيور	-15013
▁شاني	-15014
▁شراء	-15015
▁شفيع	-15016
▁شوال	-15017
▁شويا	-15018
▁عدال	-15019
▁عشآن	-15020
▁عشره	-15021
▁عليم	-15022
▁غياب	-15023
▁فطور	-15024
▁قراء	-15025
▁قصير	-15026
▁كتوب	-15027
▁لاٿي	-15028
▁لغام	-15029
▁لهين	-15030
▁لوفر	-15031
▁لولا	-15032
▁لونگ	-15033
▁ليلو	-15034
▁ليوس	-15035
▁لڪتي	-15036
▁مروت	-15037
▁مڱڻي	-15038
▁ناشي	-15039
▁نانس	-15040
▁نايب	-15041
▁نروس	-15042
▁نڊلٺ	-15043
▁هربت	-15044
▁هزاع	-15045
▁هووا	-15046
▁هيدر	-15047
▁هيلس	-15048
▁هيلم	-15049
▁هيما	-15050
▁هينه	-15051
▁هييه	-15052
▁واله	-15053
▁وبيك	-15054
▁وتري	-15055
▁وديا	-15056
▁ورھي	-15057
▁وكيل	-15058
▁وندن	-15059
▁ويان	-15060
▁وکرز	-15061
▁يازي	-15062
▁يرفع	-15063
▁يرول	-15064
▁يريس	-15065
▁يريٽ	-15066
▁يزول	-15067
▁يسال	-15068
▁يقلد	-15069
▁يلفي	-15070
▁يليل	-15071
▁ينون	-15072
▁ينيس	-15073
▁ينڊا	-15074
▁يوئي	-15075
▁يويا	-15076
▁يوٽر	-15077
▁ٽانڪ	-15078
▁ٽوٽي	-15079
▁پيلا	-15080
▁ٿاڻو	-15081
▁چهنب	-15082
▁ڊومي	-15083
▁ڌڪار	-15084
▁کالا	-15085
▁ڪالن	-15086
▁ڪامپ	-15087
▁ڪاهل	-15088
▁ڪنان	-15089
▁ڪوني	-15090
▁ڪيمن	-15091
▁گاما	-15092
▁گہرا	-15093
▁Smart	-15094
▁there	-15095
▁ائيٽي	-15096
▁بيونل	-15097
▁تكميل	-15098
▁تنبيه	-15099
▁حبايب	-15100
▁ححححح	-15101
▁راقبت	-15102
▁روپيو	-15103
▁ستائر	-15104
▁شاكسه	-15105
▁ضامين	-15106
▁قنديل	-15107
▁مقاصد	-15108
▁نماڻا	-15109
▁هنجهه	-15110
▁هنگيا	-15111
▁هيوند	-15112
▁هيٿرو	-15113
▁وائسس	-15114
▁واڳيل	-15115
▁ورانا	-15116
▁ويوٽا	-15117
▁ويڳاڻ	-15118
▁ينانگ	-15119
▁ڀاونا	-15120
▁ڪرتوت	-15121
▁ڱورجا	-15122
22	-15123
AI	-15124
TA	-15125
UN	-15126
gy	-15127
jo	-15128
آئ	-15129
أل	-15130
أه	-15131
رز	-15132
عق	-15133
عم	-15134
كى	-15135
هآ	-15136
هة	-15137
وذ	-15138
ىى	-15139
يج	-15140
ڊٿ	-15141
▁ל	-15142
▁ٚ	-15143
▁‐	-15144
▁≈	-15145
TFE	-15146
ang	-15147
arg	-15148
lee	-15149
اصة	-15150
بية	-15151
جان	-15152
عود	-15153
فية	-15154
قاء	-15155
ليث	-15156
ليڪ	-15157
نڊا	-15158
ومة	-15159
ويٽ	-15160
ينت	-15161
ڀيد	-15162
ڊين	-15163
ڍار	-15164
ڪون	-15165
یلی	-15166
▁$$	-15167
▁2/	-15168
▁9،	-15169
▁HI	-15170
▁HR	-15171
▁IA	-15172
▁Id	-15173
▁LI	-15174
▁LY	-15175
▁MK	-15176
▁OF	-15177
▁OP	-15178
▁SR	-15179
▁SW	-15180
▁Zo	-15181
▁ai	-15182
▁ht	-15183
▁oo	-15184
▁tz	-15185
▁vp	-15186
▁أك	-15187
▁بث	-15188
▁جٺ	-15189
▁دغ	-15190
▁سھ	-15191
▁صآ	-15192
▁عِ	-15193
▁فِ	-15194
▁َو	-15195
▁پٻ	-15196
▁ٿس	-15197
▁ڃو	-15198
▁ڄن	-15199
▁ڙت	-15200
▁کہ	-15201
▁1.6	-15202
▁11-	-15203
▁113	-15204
▁114	-15205
▁13-	-15206
▁136	-15207
▁15-	-15208
▁2.4	-15209
▁220	-15210
▁304	-15211
▁31.	-15212
▁43.	-15213
▁52.	-15214
▁80.	-15215
▁Alt	-15216
▁Ava	-15217
▁Cry	-15218
▁Fer	-15219
▁Fli	-15220
▁GPC	-15221
▁IPv	-15222
▁Jin	-15223
▁Now	-15224
▁Pra	-15225
▁Rea	-15226
▁Rev	-15227
▁SAT	-15228
▁See	-15229
▁Shi	-15230
▁VAT	-15231
▁Vir	-15232
▁aga	-15233
▁bea	-15234
▁bio	-15235
▁bru	-15236
▁dea	-15237
▁fau	-15238
▁fru	-15239
▁ile	-15240
▁job	-15241
▁lis	-15242
▁llu	-15243
▁mas	-15244
▁ndl	-15245
▁nho	-15246
▁rop	-15247
▁say	-15248
▁sep	-15249
▁sli	-15250
▁sne	-15251
▁tho	-15252
▁tim	-15253
▁xim	-15254
▁yla	-15255
▁آرد	-15256
▁آين	-15257
▁آپٽ	-15258
▁أبي	-15259
▁اصن	-15260
▁اعز	-15261
▁اكو	-15262
▁انة	-15263
▁اپت	-15264
▁بأي	-15265
▁بفر	-15266
▁بکن	-15267
▁تضح	-15268
▁توو	-15269
▁تڙي	-15270
▁جاك	-15271
▁جيز	-15272
▁جھه	-15273
▁جھڪ	-15274
▁حمي	-15275
▁خاک	-15276
▁خبا	-15277
▁ختا	-15278
▁خرد	-15279
▁ذاك	-15280
▁ذمو	-15281
▁رشا	-15282
▁ركت	-15283
▁روگ	-15284
▁ساؤ	-15285
▁ساق	-15286
▁سرح	-15287
▁سيڻ	-15288
▁سَر	-15289
▁سپس	-15290
▁سگا	-15291
▁شنب	-15292
▁شهه	-15293
▁شيڊ	-15294
▁صحا	-15295
▁غصه	-15296
▁غنا	-15297
▁فرخ	-15298
▁كجا	-15299
▁كنم	-15300
▁لسة	-15301
▁لوك	-15302
▁لوڀ	-15303
▁لوڌ	-15304
▁ليٿ	-15305
▁مرغ	-15306
▁مسو	-15307
▁ملھ	-15308
▁نتب	-15309
▁نحب	-15310
▁نسم	-15311
▁نكن	-15312
▁نوز	-15313
▁هاٽ	-15314
▁هتڙ	-15315
▁هيک	-15316
▁هُل	-15317
▁وفت	-15318
▁ونږ	-15319
▁يقه	-15320
▁يكو	-15321
▁ينت	-15322
▁يوٿ	-15323
▁يپو	-15324
▁يچا	-15325
▁يڙا	-15326
▁ٺٺو	-15327
▁ٻان	-15328
▁ٽپا	-15329
▁پرش	-15330
▁پيت	-15331
▁پيك	-15332
▁ڀٽن	-15333
▁ڄاڙ	-15334
▁چاچ	-15335
▁چست	-15336
▁چيد	-15337
▁ڇتو	-15338
▁ڇند	-15339
▁ڊاگ	-15340
▁ڊير	-15341
▁ڊيگ	-15342
▁ڊکڻ	-15343
▁ڌير	-15344
▁کرو	-15345
▁کسب	-15346
▁کسڻ	-15347
▁کڻن	-15348
▁ڪنب	-15349
▁ڪَر	-15350
▁ڪٺا	-15351
▁ڪچن	-15352
▁گٽر	-15353
▁ڳند	-15354
▁ھيء	-15355
▁ھيم	-15356
▁City	-15357
▁Code	-15358
▁HTTP	-15359
▁Holm	-15360
▁Mega	-15361
▁PTFE	-15362
▁SARS	-15363
▁Snap	-15364
▁Ubun	-15365
▁Work	-15366
▁body	-15367
▁casu	-15368
▁ergo	-15369
▁fone	-15370
▁forc	-15371
▁girl	-15372
▁meta	-15373
▁nnou	-15374
▁seem	-15375
▁stim	-15376
▁tude	-15377
▁ween	-15378
▁ئيور	-15379
▁اريک	-15380
▁اسما	-15381
▁اقام	-15382
▁انيل	-15383
▁انڪل	-15384
▁انڪو	-15385
▁اهيل	-15386
▁اوبر	-15387
▁اودي	-15388
▁اونھ	-15389
▁اوکي	-15390
▁اوڻي	-15391
▁ايبي	-15392
▁اييه	-15393
▁اڻيج	-15394
▁بدوش	-15395
▁تكسر	-15396
▁تيني	-15397
▁تڀيد	-15398
▁تڪيو	-15399
▁جدید	-15400
▁جراء	-15401
▁جګړه	-15402
▁حازم	-15403
▁حكام	-15404
▁حلاج	-15405
▁خبير	-15406
▁دوها	-15407
▁ذاکر	-15408
▁رنسس	-15409
▁ريحت	-15410
▁رينس	-15411
▁ريچر	-15412
▁سارم	-15413
▁سمعي	-15414
▁سنان	-15415
▁سهري	-15416
▁سهلا	-15417
▁سٽسٽ	-15418
▁سٽيل	-15419
▁شانت	-15420
▁شترک	-15421
▁شهوت	-15422
▁عاجل	-15423
▁عاصي	-15424
▁عجوب	-15425
▁عركه	-15426
▁عطاف	-15427
▁فاطس	-15428
▁فطست	-15429
▁فلوٽ	-15430
▁قاله	-15431
▁قايل	-15432
▁كوري	-15433
▁لازا	-15434
▁لاوه	-15435
▁لقيس	-15436
▁لهام	-15437
▁ليئو	-15438
▁ليسن	-15439
▁لينگ	-15440
▁ليپر	-15441
▁لپيٽ	-15442
▁مدعي	-15443
▁نارم	-15444
▁نانڪ	-15445
▁نشون	-15446
▁نعوم	-15447
▁نقوش	-15448
▁نهرو	-15449
▁نونه	-15450
▁نچوڙ	-15451
▁نگيز	-15452
▁نھار	-15453
▁هداي	-15454
▁هرکي	-15455
▁هموس	-15456
▁هوني	-15457
▁وارؤ	-15458
▁وانه	-15459
▁ورٽو	-15460
▁وسان	-15461
▁وسوي	-15462
▁ولوژ	-15463
▁وينٽ	-15464
▁وينڊ	-15465
▁ويهو	-15466
▁ويڇا	-15467
▁وڪلي	-15468
▁يبون	-15469
▁يروس	-15470
▁يروم	-15471
▁يريم	-15472
▁يزنگ	-15473
▁يظهر	-15474
▁ينگر	-15475
▁يوجد	-15476
▁يٽيو	-15477
▁يپڪو	-15478
▁يڪيٽ	-15479
▁يگول	-15480
▁ٽيوٽ	-15481
▁ٽيٽي	-15482
▁پوزي	-15483
▁چرٻٽ	-15484
▁ڊاڪٽ	-15485
▁ڏنڊي	-15486
▁ڏهاڳ	-15487
▁کاهي	-15488
▁کنوڻ	-15489
▁ڪاشي	-15490
▁ڪاهن	-15491
▁ڪينٽ	-15492
▁sleep	-15493
▁stitu	-15494
▁اطراف	-15495
▁الوان	-15496
▁اورنج	-15497
▁اوڙاه	-15498
▁تاکيد	-15499
▁تثليث	-15500
▁جهادي	-15501
▁راسيس	-15502
▁رطوبت	-15503
▁شهداء	-15504
▁عاريف	-15505
▁مارڪي	-15506
▁مقاوم	-15507
▁نرسري	-15508
▁نزديک	-15509
▁نصائح	-15510
▁نيلون	-15511
▁نيپچٽ	-15512
▁نگسار	-15513
▁هنيائ	-15514
▁هيراڪ	-15515
▁هيسيل	-15516
▁هيلري	-15517
▁هيڪلو	-15518
▁ونديل	-15519
▁ينگلس	-15520
▁يوانا	-15521
▁پنجاھ	-15522
▁کانپو	-15523
▁کنگره	-15524
▁ڪريسي	-15525
▁ڪوشان	-15526
5]	-15527
6]	-15528
AY	-15529
CA	-15530
IL	-15531
PM	-15532
WD	-15533
ji	-15534
ny	-15535
pu	-15536
zi	-15537
اڙ	-15538
سف	-15539
شب	-15540
طو	-15541
ـِ	-15542
فن	-15543
لل	-15544
نھ	-15545
وض	-15546
ڈو	-15547
ھل	-15548
ہي	-15549
▁ç	-15550
▁ˇ	-15551
▁β	-15552
▁μ	-15553
▁р	-15554
▁٭	-15555
▁ण	-15556
▁फ	-15557
▁菜	-15558
▁👍	-15559
ING	-15560
asy	-15561
sea	-15562
ush	-15563
آني	-15564
ائد	-15565
سين	-15566
موم	-15567
ووت	-15568
▁(←	-15569
▁3,	-15570
▁6,	-15571
▁DR	-15572
▁Ep	-15573
▁HS	-15574
▁IG	-15575
▁MD	-15576
▁OU	-15577
▁Of	-15578
▁Om	-15579
▁PN	-15580
▁RM	-15581
▁TI	-15582
▁TL	-15583
▁Ty	-15584
▁UL	-15585
▁VE	-15586
▁Yi	-15587
▁tr	-15588
▁؟:	-15589
▁بآ	-15590
▁بٺ	-15591
▁دے	-15592
▁رے	-15593
▁عظ	-15594
▁قح	-15595
▁لڌ	-15596
▁هؤ	-15597
▁وں	-15598
▁ٻِ	-15599
▁ٻٽ	-15600
▁ټر	-15601
▁ڍر	-15602
▁ڙٻ	-15603
▁ڪذ	-15604
▁111	-15605
▁11،	-15606
▁16-	-15607
▁16.	-15608
▁320	-15609
▁41.	-15610
▁44.	-15611
▁46.	-15612
▁51.	-15613
▁550	-15614
▁7.1	-15615
▁><"	-15616
▁Att	-15617
▁BTC	-15618
▁Buy	-15619
▁CRM	-15620
▁Can	-15621
▁Cel	-15622
▁CoV	-15623
▁DHL	-15624
▁DNS	-15625
▁Del	-15626
▁Don	-15627
▁EST	-15628
▁GBP	-15629
▁GMT	-15630
▁HDR	-15631
▁Jet	-15632
▁Kit	-15633
▁Neo	-15634
▁PVC	-15635
▁SUN	-15636
▁Spa	-15637
▁Tha	-15638
▁add	-15639
▁ado	-15640
▁ark	-15641
▁bou	-15642
▁cam	-15643
▁dar	-15644
▁den	-15645
▁ecu	-15646
▁far	-15647
▁gat	-15648
▁ham	-15649
▁har	-15650
▁hel	-15651
▁ite	-15652
▁ken	-15653
▁led	-15654
▁nya	-15655
▁occ	-15656
▁pat	-15657
▁pha	-15658
▁ree	-15659
▁rri	-15660
▁sla	-15661
▁swi	-15662
▁uri	-15663
▁whi	-15664
▁؟؟.	-15665
▁آجا	-15666
▁آجر	-15667
▁آلآ	-15668
▁ئيز	-15669
▁اؤن	-15670
▁افه	-15671
▁انآ	-15672
▁اَي	-15673
▁اَٺ	-15674
▁ایک	-15675
▁بذر	-15676
▁بسك	-15677
▁بوک	-15678
▁بچو	-15679
▁تاء	-15680
▁تاع	-15681
▁تسل	-15682
▁تكر	-15683
▁تهِ	-15684
▁تيه	-15685
▁جدة	-15686
▁حاط	-15687
▁حام	-15688
▁حبس	-15689
▁حره	-15690
▁حيو	-15691
▁خرج	-15692
▁خضر	-15693
▁دره	-15694
▁دمع	-15695
▁ديث	-15696
▁ذيب	-15697
▁ذير	-15698
▁رآك	-15699
▁ربح	-15700
▁ركه	-15701
▁ريء	-15702
▁ریز	-15703
▁زبر	-15704
▁زرق	-15705
▁زيپ	-15706
▁سجل	-15707
▁سحب	-15708
▁سكه	-15709
▁سنن	-15710
▁سوه	-15711
▁سڳو	-15712
▁شتا	-15713
▁ششي	-15714
▁شٽر	-15715
▁صمد	-15716
▁ضضض	-15717
▁فزت	-15718
▁قرف	-15719
▁قند	-15720
▁كشن	-15721
▁كول	-15722
▁لاؤ	-15723
▁لڏڻ	-15724
▁لڱن	-15725
▁ماز	-15726
▁مجه	-15727
▁مجھ	-15728
▁مكه	-15729
▁مڃن	-15730
▁مھي	-15731
▁نبل	-15732
▁نذل	-15733
▁نفل	-15734
▁نقض	-15735
▁نمى	-15736
▁نهج	-15737
▁نوپ	-15738
▁نوگ	-15739
▁نړۍ	-15740
▁هرک	-15741
▁هيڅ	-15742
▁وآه	-15743
▁وسم	-15744
▁ويع	-15745
▁ويك	-15746
▁وَر	-15747
▁يحس	-15748
▁يخص	-15749
▁ٻيڻ	-15750
▁پئو	-15751
▁پلر	-15752
▁پند	-15753
▁پکا	-15754
▁ٿڪڻ	-15755
▁ڀنل	-15756
▁ڀَر	-15757
▁ڃائ	-15758
▁چوم	-15759
▁چيت	-15760
▁چيچ	-15761
▁چین	-15762
▁ڇنڀ	-15763
▁ڇٽو	-15764
▁ڇھي	-15765
▁ڊيف	-15766
▁ڌوئ	-15767
▁ڍال	-15768
▁ڏري	-15769
▁ڏنڀ	-15770
▁کؤن	-15771
▁کجي	-15772
▁کسر	-15773
▁کمر	-15774
▁کنس	-15775
▁کنگ	-15776
▁کيم	-15777
▁ڪنف	-15778
▁گئي	-15779
▁گجگ	-15780
▁گرڻ	-15781
▁گلم	-15782
▁گیم	-15783
▁Blog	-15784
▁DHEA	-15785
▁Easy	-15786
▁Fort	-15787
▁Hall	-15788
▁Remo	-15789
▁WTTC	-15790
▁beli	-15791
▁brea	-15792
▁carb	-15793
▁deta	-15794
▁fast	-15795
▁full	-15796
▁gali	-15797
▁head	-15798
▁hoot	-15799
▁mach	-15800
▁made	-15801
▁mono	-15802
▁pass	-15803
▁pect	-15804
▁prev	-15805
▁roll	-15806
▁surp	-15807
▁whit	-15808
▁آإآإ	-15809
▁آهان	-15810
▁ئونس	-15811
▁ائڪٽ	-15812
▁اربل	-15813
▁ازعج	-15814
▁انٹر	-15815
▁اهوه	-15816
▁اڏري	-15817
▁براء	-15818
▁بردي	-15819
▁برڪس	-15820
▁بقرة	-15821
▁بنوت	-15822
▁بولو	-15823
▁بيتا	-15824
▁تاكد	-15825
▁ترنم	-15826
▁تسوم	-15827
▁تعوب	-15828
▁تقلد	-15829
▁تورو	-15830
▁جانڻ	-15831
▁جهود	-15832
▁جوار	-15833
▁حارب	-15834
▁حداث	-15835
▁حمدا	-15836
▁حنيف	-15837
▁حکمت	-15838
▁خبيث	-15839
▁داوم	-15840
▁دايخ	-15841
▁دراس	-15842
▁دشوا	-15843
▁ديمة	-15844
▁راجن	-15845
▁رايل	-15846
▁رباع	-15847
▁ردوي	-15848
▁ردگي	-15849
▁روجي	-15850
▁روضي	-15851
▁ريجه	-15852
▁ريوس	-15853
▁زاوي	-15854
▁زويا	-15855
▁زوڪي	-15856
▁سرپل	-15857
▁سموح	-15858
▁سهام	-15859
▁صابڻ	-15860
▁ظهري	-15861
▁عااد	-15862
▁عقيل	-15863
▁علاش	-15864
▁غزال	-15865
▁غيور	-15866
▁فالح	-15867
▁فتاة	-15868
▁فران	-15869
▁فظيع	-15870
▁فيوم	-15871
▁قصاص	-15872
▁قليد	-15873
▁لهال	-15874
▁لومي	-15875
▁لوٽو	-15876
▁ليئا	-15877
▁ليبي	-15878
▁لینڈ	-15879
▁ماٿر	-15880
▁معيا	-15881
▁مهدى	-15882
▁مياڻ	-15883
▁نبيل	-15884
▁نجحت	-15885
▁نداء	-15886
▁نذرا	-15887
▁نساج	-15888
▁نسٽر	-15889
▁نشبه	-15890
▁نفاق	-15891
▁ننگز	-15892
▁نهان	-15893
▁نواح	-15894
▁نيزي	-15895
▁نيمه	-15896
▁نيوٽ	-15897
▁هاوش	-15898
▁هجئي	-15899
▁هريم	-15900
▁هنڊا	-15901
▁هنڊي	-15902
▁هوتن	-15903
▁هوتي	-15904
▁هيتر	-15905
▁هيمن	-15906
▁هيوي	-15907
▁هيگل	-15908
▁هٻڪي	-15909
▁هٽيل	-15910
▁واهر	-15911
▁واهل	-15912
▁واهڻ	-15913
▁واڪو	-15914
▁وتني	-15915
▁ورڊن	-15916
▁وشید	-15917
▁ولفن	-15918
▁ياڙي	-15919
▁يذكر	-15920
▁يزين	-15921
▁يسان	-15922
▁ينزو	-15923
▁ينگل	-15924
▁يهمج	-15925
▁يڊيل	-15926
▁ٺارو	-15927
▁ٽيڙو	-15928
▁پوڪو	-15929
▁ڀينگ	-15930
▁چرچي	-15931
▁ڌاڳي	-15932
▁کمان	-15933
▁ڪاڻي	-15934
▁ڪرات	-15935
▁ڪرار	-15936
▁ڪرني	-15937
▁ڪلور	-15938
▁ڪهان	-15939
▁ڪولا	-15940
▁گيرم	-15941
▁ڳڻيا	-15942
▁Adobe	-15943
▁deliv	-15944
▁great	-15945
▁green	-15946
▁احترا	-15947
▁ارانت	-15948
▁اروان	-15949
▁اسڪائ	-15950
▁الالم	-15951
▁الهائ	-15952
▁انقرا	-15953
▁اوڻيه	-15954
▁ايليا	-15955
▁ايليم	-15956
▁اينگل	-15957
▁اڻيٽو	-15958
▁ترسيو	-15959
▁تفتيش	-15960
▁جمانه	-15961
▁دقايق	-15962
▁روميه	-15963
▁ريخته	-15964
▁سرتاج	-15965
▁سنديد	-15966
▁سهميه	-15967
▁شراکت	-15968
▁صباحك	-15969
▁عوافي	-15970
▁فضيحة	-15971
▁قصيره	-15972
▁قليله	-15973
▁قيافه	-15974
▁ليلين	-15975
▁ليمون	-15976
▁لڪيات	-15977
▁مداحي	-15978
▁مرتين	-15979
▁مهارا	-15980
▁نارين	-15981
▁نجلاء	-15982
▁نياپا	-15983
▁واسين	-15984
▁واڻيو	-15985
▁وديرو	-15986
▁وريني	-15987
▁وسڪار	-15988
▁وماسي	-15989
▁ونهان	-15990
▁وڪامج	-15991
▁يابيط	-15992
▁ينڊوچ	-15993
▁يورسٽ	-15994
▁ٻانڀڻ	-15995
▁ٽانڊن	-15996
▁ٽماٽي	-15997
▁ٽولين	-15998
▁چوهاڻ	-15999
▁ڪليري	-16000
▁گهانا	-16001
4]	-16002
FA	-16003
FS	-16004
MO	-16005
OD	-16006
pl	-16007
wo	-16008
تز	-16009
تھ	-16010
سج	-16011
ضع	-16012
ضى	-16013
غو	-16014
قم	-16015
ُڙ	-16016
ٻڻ	-16017
پٹ	-16018
ٿن	-16019
چڪ	-16020
ړو	-16021
ړي	-16022
یح	-16023
▁÷	-16024
▁ֿ	-16025
▁ٲ	-16026
▁ۄ	-16027
▁ۊ	-16028
▁ۋ	-16029
▁आ	-16030
▁ख	-16031
▁⋆	-16032
▁✿	-16033
▁😆	-16034
ett	-16035
بري	-16036
راس	-16037
روا	-16038
رية	-16039
زين	-16040
طيه	-16041
عاء	-16042
كيل	-16043
ووك	-16044
ووم	-16045
ييه	-16046
ینڈ	-16047
▁-_	-16048
▁0-	-16049
▁4_	-16050
▁7,	-16051
▁BE	-16052
▁BY	-16053
▁CV	-16054
▁EL	-16055
▁GR	-16056
▁IQ	-16057
▁KN	-16058
▁LT	-16059
▁MC	-16060
▁MH	-16061
▁ML	-16062
▁Mr	-16063
▁NH	-16064
▁PT	-16065
▁TE	-16066
▁UT	-16067
▁Ve	-16068
▁cc	-16069
▁pr	-16070
▁،'	-16071
▁آص	-16072
▁أر	-16073
▁إس	-16074
▁إي	-16075
▁ئې	-16076
▁اڷ	-16077
▁بڊ	-16078
▁زغ	-16079
▁زف	-16080
▁عَ	-16081
▁مې	-16082
▁نأ	-16083
▁ڀڀ	-16084
▁ڪز	-16085
▁ڱو	-16086
▁۱۳	-16087
▁۱۵	-16088
▁●●	-16089
▁🙂.	-16090
▁'_'	-16091
▁-19	-16092
▁0.1	-16093
▁1/4	-16094
▁10)	-16095
▁103	-16096
▁10:	-16097
▁12-	-16098
▁149	-16099
▁172	-16100
▁184	-16101
▁20%	-16102
▁22,	-16103
▁4.0	-16104
▁5.0	-16105
▁57.	-16106
▁62.	-16107
▁650	-16108
▁75.	-16109
▁98.	-16110
▁ANC	-16111
▁Big	-16112
▁Bot	-16113
▁COM	-16114
▁CSS	-16115
▁Chi	-16116
▁Cho	-16117
▁Fun	-16118
▁GIS	-16119
▁Gib	-16120
▁Gri	-16121
▁HEL	-16122
▁JPY	-16123
▁LTE	-16124
▁Lol	-16125
▁Mat	-16126
▁Por	-16127
▁Pun	-16128
▁Sec	-16129
▁Sho	-16130
▁Tam	-16131
▁Tan	-16132
▁Tin	-16133
▁WHO	-16134
▁WOW	-16135
▁XXX	-16136
▁cin	-16137
▁coa	-16138
▁cry	-16139
▁dal	-16140
▁dem	-16141
▁dio	-16142
▁div	-16143
▁doc	-16144
▁emo	-16145
▁fro	-16146
▁gar	-16147
▁med	-16148
▁phy	-16149
▁plu	-16150
▁rot	-16151
▁see	-16152
▁tha	-16153
▁til	-16154
▁vpn	-16155
▁آإي	-16156
▁آرم	-16157
▁آلن	-16158
▁أنه	-16159
▁ابك	-16160
▁ارخ	-16161
▁اوڪ	-16162
▁ايڏ	-16163
▁اڻت	-16164
▁اڼه	-16165
▁باٽ	-16166
▁بجر	-16167
▁بجه	-16168
▁بسٽ	-16169
▁بغل	-16170
▁بنر	-16171
▁بهن	-16172
▁بٺي	-16173
▁بڪر	-16174
▁بگه	-16175
▁تاڙ	-16176
▁تتل	-16177
▁تخل	-16178
▁ترآ	-16179
▁تھذ	-16180
▁تھي	-16181
▁جفت	-16182
▁جوٽ	-16183
▁جِن	-16184
▁جڳن	-16185
▁حاظ	-16186
▁حدس	-16187
▁حرر	-16188
▁حضي	-16189
▁حله	-16190
▁حنف	-16191
▁حيض	-16192
▁خآل	-16193
▁خدت	-16194
▁خدر	-16195
▁خرف	-16196
▁خرم	-16197
▁درک	-16198
▁دقق	-16199
▁دلت	-16200
▁دوخ	-16201
▁دوي	-16202
▁ديگ	-16203
▁دٻا	-16204
▁ذکر	-16205
▁رؤى	-16206
▁رحه	-16207
▁رفا	-16208
▁ركن	-16209
▁زنه	-16210
▁سئن	-16211
▁سرگ	-16212
▁سلپ	-16213
▁سوك	-16214
▁سڀُ	-16215
▁سڄا	-16216
▁طلي	-16217
▁طمو	-16218
▁عاب	-16219
▁عمد	-16220
▁عنج	-16221
▁غزه	-16222
▁فرز	-16223
▁فهو	-16224
▁قزح	-16225
▁قلك	-16226
▁قوى	-16227
▁كلا	-16228
▁كلف	-16229
▁كوم	-16230
▁لؤي	-16231
▁متت	-16232
▁ملی	-16233
▁ميك	-16234
▁مڙد	-16235
▁نغم	-16236
▁نمی	-16237
▁ننه	-16238
▁نوج	-16239
▁نيگ	-16240
▁نڊڻ	-16241
▁هاف	-16242
▁همم	-16243
▁هيح	-16244
▁هڏڪ	-16245
▁واڍ	-16246
▁ورځ	-16247
▁وعد	-16248
▁وعن	-16249
▁ويڻ	-16250
▁وٺا	-16251
▁وڻو	-16252
▁يءِ	-16253
▁ياو	-16254
▁يحك	-16255
▁يشت	-16256
▁يفت	-16257
▁يهز	-16258
▁ٽسٽ	-16259
▁پام	-16260
▁پرل	-16261
▁پيگ	-16262
▁پيڻ	-16263
▁ڀلن	-16264
▁ڄات	-16265
▁چڙي	-16266
▁چکڻ	-16267
▁ڇلي	-16268
▁ڇيو	-16269
▁ڊنو	-16270
▁ڏول	-16271
▁ڏيٺ	-16272
▁کتا	-16273
▁کتو	-16274
▁کور	-16275
▁کوچ	-16276
▁کوک	-16277
▁کړي	-16278
▁ڪاز	-16279
▁ڪزن	-16280
▁ڪها	-16281
▁ڪهڻ	-16282
▁ڪيز	-16283
▁گاو	-16284
▁گرھ	-16285
▁گوب	-16286
▁ڳجھ	-16287
▁ھلن	-16288
▁Apri	-16289
▁BIOS	-16290
▁Bill	-16291
▁Calc	-16292
▁Cast	-16293
▁Full	-16294
▁Nort	-16295
▁Scan	-16296
▁Syne	-16297
▁Take	-16298
▁Whit	-16299
▁bora	-16300
▁card	-16301
▁dark	-16302
▁dece	-16303
▁demo	-16304
▁disa	-16305
▁fabr	-16306
▁fort	-16307
▁gent	-16308
▁humi	-16309
▁moto	-16310
▁pose	-16311
▁pyri	-16312
▁rise	-16313
▁roma	-16314
▁rona	-16315
▁same	-16316
▁scan	-16317
▁self	-16318
▁sens	-16319
▁thou	-16320
▁volu	-16321
▁welc	-16322
▁were	-16323
▁wise	-16324
▁أأأأ	-16325
▁ابار	-16326
▁اداب	-16327
▁اركت	-16328
▁اریخ	-16329
▁اسيل	-16330
▁اقبل	-16331
▁انبا	-16332
▁انتر	-16333
▁اومد	-16334
▁اوول	-16335
▁اوڙي	-16336
▁ايسر	-16337
▁ايمز	-16338
▁اٹھو	-16339
▁بارح	-16340
▁بروس	-16341
▁بريز	-16342
▁بطاط	-16343
▁بنڊل	-16344
▁تريل	-16345
▁تعار	-16346
▁تكول	-16347
▁تيوب	-16348
▁جتهد	-16349
▁جوكر	-16350
▁خاله	-16351
▁خطاء	-16352
▁دارک	-16353
▁درار	-16354
▁دعاي	-16355
▁ديها	-16356
▁رائم	-16357
▁راجر	-16358
▁راقم	-16359
▁راٺي	-16360
▁رغبت	-16361
▁رمون	-16362
▁رميش	-16363
▁ريسا	-16364
▁ريٽا	-16365
▁زينا	-16366
▁ساسا	-16367
▁ساڻي	-16368
▁سميج	-16369
▁سنهڙ	-16370
▁سوٽي	-16371
▁سيڪڙ	-16372
▁سڀاڻ	-16373
▁شااء	-16374
▁شارت	-16375
▁شتيا	-16376
▁شجاع	-16377
▁شكار	-16378
▁ضارب	-16379
▁طراز	-16380
▁طقطق	-16381
▁عطيا	-16382
▁غادة	-16383
▁فندق	-16384
▁فندي	-16385
▁قدار	-16386
▁قطره	-16387
▁لبور	-16388
▁لونا	-16389
▁معيش	-16390
▁ملحق	-16391
▁مناك	-16392
▁موني	-16393
▁نابر	-16394
▁نامن	-16395
▁نبري	-16396
▁نسيس	-16397
▁نشيط	-16398
▁نغمو	-16399
▁نوال	-16400
▁نودي	-16401
▁نوشه	-16402
▁نوڊس	-16403
▁نوڙت	-16404
▁نينٽ	-16405
▁هادا	-16406
▁هدول	-16407
▁هنجو	-16408
▁هيوف	-16409
▁هيٽر	-16410
▁وائک	-16411
▁وايا	-16412
▁واھپ	-16413
▁وتين	-16414
▁ورٹل	-16415
▁وزان	-16416
▁وزيک	-16417
▁ونود	-16418
▁ونگو	-16419
▁وهار	-16420
▁وولٽ	-16421
▁ويرو	-16422
▁وٿاڻ	-16423
▁وڪار	-16424
▁يانج	-16425
▁يرام	-16426
▁يراپ	-16427
▁يقال	-16428
▁يمنٽ	-16429
▁ينان	-16430
▁ينسي	-16431
▁ينهو	-16432
▁يورا	-16433
▁يونو	-16434
▁يوکر	-16435
▁يينا	-16436
▁يڪڪس	-16437
▁ٺوڪي	-16438
▁ٻانگ	-16439
▁ٽيڪڪ	-16440
▁ٽڪيل	-16441
▁پرٽي	-16442
▁پوتي	-16443
▁پوڙھ	-16444
▁پيتل	-16445
▁ڀلوڙ	-16446
▁چائن	-16447
▁چڪور	-16448
▁چڻنگ	-16449
▁ڏنگو	-16450
▁ڪارم	-16451
▁ڪريس	-16452
▁ڪفرٽ	-16453
▁ڪيبن	-16454
▁ڪيمر	-16455
▁ڪيهر	-16456
▁گانه	-16457
▁Color	-16458
▁Hello	-16459
▁Multi	-16460
▁Video	-16461
▁chara	-16462
▁sweet	-16463
▁video	-16464
▁where	-16465
▁اشتقت	-16466
▁اشندا	-16467
▁ايمول	-16468
▁اينڪر	-16469
▁اڳاري	-16470
▁تجميع	-16471
▁ترڪما	-16472
▁تنسين	-16473
▁جهڪيل	-16474
▁جوکيو	-16475
▁جھنڊو	-16476
▁داريه	-16477
▁روڪيا	-16478
▁ريليم	-16479
▁ريڍار	-16480
▁زنانه	-16481
▁سحليه	-16482
▁سنتين	-16483
▁سوڀيا	-16484
▁شهوان	-16485
▁عاادي	-16486
▁عايشه	-16487
▁كتشاف	-16488
▁لنگها	-16489
▁ليبيا	-16490
▁ماثلت	-16491
▁مباکو	-16492
▁مدونه	-16493
▁نايات	-16494
▁نبيري	-16495
▁نسداد	-16496
▁نهاية	-16497
▁نيانگ	-16498
▁وائيڊ	-16499
▁وارتا	-16500
▁ورجوا	-16501
▁ورونه	-16502
▁وريلا	-16503
▁يستحق	-16504
▁يهانت	-16505
▁يوٽيو	-16506
▁ٺٺولي	-16507
▁ٽينڪر	-16508
▁پوپٽي	-16509
▁ڪلثوم	-16510
▁گهندي	-16511
AL	-16512
AP	-16513
GA	-16514
UD	-16515
pm	-16516
ин	-16517
آڪ	-16518
ئة	-16519
ئت	-16520
تہ	-16521
حف	-16522
خة	-16523
دع	-16524
ضا	-16525
طح	-16526
فش	-16527
فى	-16528
قو	-16529
كد	-16530
يٽ	-16531
ټر	-16532
ٽم	-16533
▁\	-16534
▁ê	-16535
▁α	-16536
▁ृ	-16537
▁■	-16538
esu	-16539
hen	-16540
irt	-16541
ita	-16542
ont	-16543
rdu	-16544
ئنگ	-16545
ائط	-16546
ائٽ	-16547
ائی	-16548
ااج	-16549
تاي	-16550
ثيق	-16551
دان	-16552
ديس	-16553
ديك	-16554
راض	-16555
سوي	-16556
سيب	-16557
طور	-16558
طيع	-16559
كين	-16560
لوع	-16561
نيل	-16562
نڊر	-16563
وية	-16564
ويل	-16565
يري	-16566
ينل	-16567
یاز	-16568
▁+1	-16569
▁5%	-16570
▁9)	-16571
▁BM	-16572
▁CJ	-16573
▁EM	-16574
▁ET	-16575
▁FT	-16576
▁LE	-16577
▁Ol	-16578
▁Ox	-16579
▁UP	-16580
▁^.	-16581
▁js	-16582
▁nj	-16583
▁zu	-16584
▁آٺ	-16585
▁آڹ	-16586
▁أش	-16587
▁بے	-16588
▁رہ	-16589
▁صع	-16590
▁طئ	-16591
▁طط	-16592
▁نځ	-16593
▁هخ	-16594
▁هغ	-16595
▁هگ	-16596
▁هہ	-16597
▁١٦	-16598
▁ٻک	-16599
▁ڊج	-16600
▁ڦي	-16601
▁کڪ	-16602
▁ڷڪ	-16603
▁ۈل	-16604
▁ۈن	-16605
▁۱۱	-16606
اليھ	-16607
▁(10	-16608
▁*_^	-16609
▁-_-	-16610
▁112	-16611
▁154	-16612
▁155	-16613
▁157	-16614
▁185	-16615
▁18:	-16616
▁2-4	-16617
▁2.6	-16618
▁225	-16619
▁29،	-16620
▁37.	-16621
▁4.4	-16622
▁42.	-16623
▁430	-16624
▁55.	-16625
▁6.1	-16626
▁60.	-16627
▁63.	-16628
▁81.	-16629
▁AST	-16630
▁Apg	-16631
▁Asa	-16632
▁Aug	-16633
▁Aut	-16634
▁Cin	-16635
▁Dir	-16636
▁Dot	-16637
▁GPU	-16638
▁Jun	-16639
▁Kin	-16640
▁Lev	-16641
▁MUM	-16642
▁Men	-16643
▁NAB	-16644
▁Nor	-16645
▁Pis	-16646
▁Ram	-16647
▁SUS	-16648
▁TER	-16649
▁Wal	-16650
▁[4]	-16651
▁[5]	-16652
▁[6]	-16653
▁apo	-16654
▁att	-16655
▁bul	-16656
▁ili	-16657
▁loo	-16658
▁mil	-16659
▁ore	-16660
▁pdf	-16661
▁pra	-16662
▁pst	-16663
▁pub	-16664
▁ria	-16665
▁ris	-16666
▁rra	-16667
▁sun	-16668
▁uti	-16669
▁uty	-16670
▁via	-16671
▁ءءء	-16672
▁آخت	-16673
▁آذآ	-16674
▁آمي	-16675
▁آول	-16676
▁أظن	-16677
▁إنو	-16678
▁ائت	-16679
▁ادگ	-16680
▁الڻ	-16681
▁اهى	-16682
▁اوگ	-16683
▁بحس	-16684
▁بقر	-16685
▁بنس	-16686
▁بيک	-16687
▁بڙو	-16688
▁بھر	-16689
▁ةةة	-16690
▁تبو	-16691
▁تقع	-16692
▁تكن	-16693
▁تكو	-16694
▁تِن	-16695
▁ثور	-16696
▁جهج	-16697
▁جڏي	-16698
▁جیک	-16699
▁حقه	-16700
▁حکم	-16701
▁خدو	-16702
▁خشم	-16703
▁خلى	-16704
▁دمه	-16705
▁دکن	-16706
▁دھو	-16707
▁راپ	-16708
▁راڙ	-16709
▁رتش	-16710
▁رمل	-16711
▁روٿ	-16712
▁روڄ	-16713
▁ريک	-16714
▁رڌي	-16715
▁زيڊ	-16716
▁زڪر	-16717
▁سنڱ	-16718
▁سوڻ	-16719
▁سَڀ	-16720
▁سڙڪ	-16721
▁سکس	-16722
▁سڪڻ	-16723
▁شني	-16724
▁شيك	-16725
▁صحح	-16726
▁طرو	-16727
▁عآد	-16728
▁عدت	-16729
▁عدس	-16730
▁غمز	-16731
▁ففف	-16732
▁فكه	-16733
▁قدو	-16734
▁قفل	-16735
▁كذآ	-16736
▁كلن	-16737
▁كيك	-16738
▁كيم	-16739
▁لئٽ	-16740
▁لاڊ	-16741
▁لا۽	-16742
▁لذا	-16743
▁لقط	-16744
▁ليي	-16745
▁لھر	-16746
▁لیک	-16747
▁مآن	-16748
▁معو	-16749
▁ملر	-16750
▁مهڪ	-16751
▁مڇر	-16752
▁مڪس	-16753
▁نجس	-16754
▁نرت	-16755
▁نره	-16756
▁نزن	-16757
▁نسج	-16758
▁نكب	-16759
▁نكد	-16760
▁نوت	-16761
▁نيك	-16762
▁هده	-16763
▁واڇ	-16764
▁واڊ	-16765
▁وخت	-16766
▁ومد	-16767
▁وپا	-16768
▁وچک	-16769
▁وښت	-16770
▁يتم	-16771
▁يغا	-16772
▁يگو	-16773
▁ٻڙڪ	-16774
▁ٽِڪ	-16775
▁پنس	-16776
▁پوٽ	-16777
▁پَل	-16778
▁ٿجي	-16779
▁چهر	-16780
▁چوک	-16781
▁ڇڙي	-16782
▁ډېر	-16783
▁ڊئن	-16784
▁ڊزن	-16785
▁ڌنو	-16786
▁ڌٻڻ	-16787
▁ڌڙو	-16788
▁ڍُڪ	-16789
▁ڦڪو	-16790
▁ڦڪي	-16791
▁کال	-16792
▁کنڀ	-16793
▁کوه	-16794
▁کيک	-16795
▁ڪاڇ	-16796
▁ڪرز	-16797
▁ڪله	-16798
▁ڪِن	-16799
▁ڪپل	-16800
▁ڪڙم	-16801
▁گلڙ	-16802
▁گنڊ	-16803
▁گوگ	-16804
▁گُر	-16805
▁ڳڙي	-16806
▁ڳڻت	-16807
▁ڻيء	-16808
▁ھول	-16809
▁ھيڪ	-16810
▁Adam	-16811
▁Fire	-16812
▁Kara	-16813
▁Long	-16814
▁Mask	-16815
▁Mela	-16816
▁Resi	-16817
▁Tera	-16818
▁Univ	-16819
▁Urdu	-16820
▁Wear	-16821
▁XDDD	-16822
▁atta	-16823
▁blow	-16824
▁circ	-16825
▁cosm	-16826
▁dest	-16827
▁filt	-16828
▁fold	-16829
▁mast	-16830
▁mmad	-16831
▁note	-16832
▁scra	-16833
▁seek	-16834
▁them	-16835
▁watt	-16836
▁yale	-16837
▁اؤزر	-16838
▁ابتر	-16839
▁اجرو	-16840
▁ارجا	-16841
▁ازبڪ	-16842
▁اكوش	-16843
▁انية	-16844
▁اووه	-16845
▁اوڍي	-16846
▁ايلا	-16847
▁ايلي	-16848
▁ايول	-16849
▁ايڪا	-16850
▁بارو	-16851
▁بزار	-16852
▁بزنم	-16853
▁بسٽر	-16854
▁بلون	-16855
▁بنڈل	-16856
▁بڻبي	-16857
▁تنھا	-16858
▁تهیه	-16859
▁توبي	-16860
▁تڪلف	-16861
▁ثريا	-16862
▁جايل	-16863
▁جمال	-16864
▁جننت	-16865
▁جودي	-16866
▁جوکو	-16867
▁جھلڪ	-16868
▁حربي	-16869
▁حركة	-16870
▁حكمة	-16871
▁حياة	-16872
▁خآلد	-16873
▁خطبه	-16874
▁خطبي	-16875
▁خوات	-16876
▁داور	-16877
▁داول	-16878
▁دعيل	-16879
▁ديال	-16880
▁ذكائ	-16881
▁راجس	-16882
▁راسل	-16883
▁راكي	-16884
▁رحبو	-16885
▁رصاص	-16886
▁رمنل	-16887
▁رويه	-16888
▁رڪعت	-16889
▁ساون	-16890
▁ساوڻ	-16891
▁ساڃه	-16892
▁سرون	-16893
▁سفند	-16894
▁سنبل	-16895
▁سينا	-16896
▁شالا	-16897
▁شبهك	-16898
▁شبهو	-16899
▁شرات	-16900
▁شريت	-16901
▁شهود	-16902
▁شوار	-16903
▁شوشو	-16904
▁شوڪي	-16905
▁شڪيل	-16906
▁صابع	-16907
▁صبوح	-16908
▁صندل	-16909
▁طائف	-16910
▁طاحت	-16911
▁ظافر	-16912
▁عارب	-16913
▁عازم	-16914
▁عریف	-16915
▁عشرة	-16916
▁عمدو	-16917
▁غنية	-16918
▁فتون	-16919
▁فنگس	-16920
▁قصان	-16921
▁قلام	-16922
▁كيلو	-16923
▁لاتي	-16924
▁لالو	-16925
▁لاٿا	-16926
▁لفيٽ	-16927
▁لهڻي	-16928
▁لوغت	-16929
▁لوڏو	-16930
▁مارا	-16931
▁مانج	-16932
▁ملحد	-16933
▁منبر	-16934
▁موجن	-16935
▁نجان	-16936
▁نداس	-16937
▁نرسن	-16938
▁نرفز	-16939
▁نسوي	-16940
▁نفره	-16941
▁نفوذ	-16942
▁نندي	-16943
▁نڪشن	-16944
▁نہاد	-16945
▁نیوز	-16946
▁هارٽ	-16947
▁هلين	-16948
▁هواڙ	-16949
▁هورن	-16950
▁هووو	-16951
▁هيلر	-16952
▁هيوك	-16953
▁وائڊ	-16954
▁وادر	-16955
▁ورنو	-16956
▁ورڪي	-16957
▁وسڙو	-16958
▁وضوع	-16959
▁ولوم	-16960
▁ويرس	-16961
▁ويرم	-16962
▁وينو	-16963
▁ويٽي	-16964
▁ياسا	-16965
▁يبسي	-16966
▁يتام	-16967
▁يزڪي	-16968
▁يسور	-16969
▁يكهي	-16970
▁يمير	-16971
▁ينڊل	-16972
▁يهبل	-16973
▁يهوك	-16974
▁يورڊ	-16975
▁يولي	-16976
▁يوون	-16977
▁يووڊ	-16978
▁يٽلي	-16979
▁يڊين	-16980
▁يڪوس	-16981
▁يڪون	-16982
▁ٺڪاڻ	-16983
▁ٽراپ	-16984
▁ٽنگي	-16985
▁پنجه	-16986
▁پهنه	-16987
▁پوڻا	-16988
▁ڀرڳڙ	-16989
▁ڃاڻپ	-16990
▁ڄاتا	-16991
▁ڌوڏي	-16992
▁ڏاتر	-16993
▁ڏنگا	-16994
▁ڏھاڙ	-16995
▁کليپ	-16996
▁ڪاشف	-16997
▁ڪراڙ	-16998
▁ڪرتب	-16999
▁ڪنون	-17000
▁ڪوسي	-17001
▁ڪيلو	-17002
▁ڪينا	-17003
▁ڪيپر	-17004
▁گهيو	-17005
▁گولا	-17006
▁ھيرو	-17007
▁April	-17008
▁Great	-17009
▁stein	-17010
▁strea	-17011
▁ادمان	-17012
▁اروڻي	-17013
▁ارپور	-17014
▁اسٽري	-17015
▁اسڪوپ	-17016
▁انڊاڻ	-17017
▁انڌاڻ	-17018
▁انگري	-17019
▁اوليا	-17020
▁اويلا	-17021
▁ايشون	-17022
▁ايلين	-17023
▁براسي	-17024
▁بيچلر	-17025
▁تشكيل	-17026
▁تقويم	-17027
▁جنتري	-17028
▁جهاڳي	-17029
▁حقارت	-17030
▁ختاور	-17031
▁رائيم	-17032
▁راضيه	-17033
▁رميسا	-17034
▁روزان	-17035
▁ريزين	-17036
▁سارتر	-17037
▁سالاد	-17038
▁سومار	-17039
▁شتياق	-17040
▁شتگرد	-17041
▁طوائف	-17042
▁قافلا	-17043
▁قتراح	-17044
▁لينڊر	-17045
▁متیاز	-17046
▁ملتقى	-17047
▁مهاڻا	-17048
▁مهدوي	-17049
▁مونيا	-17050
▁نانگا	-17051
▁نسنٽر	-17052
▁نماڻو	-17053
▁نهبلت	-17054
▁نوائي	-17055
▁نوبال	-17056
▁نوبيا	-17057
▁نڊوڊٿ	-17058
▁نگھار	-17059
▁هائيٽ	-17060
▁هيڪلا	-17061
▁وارٽز	-17062
▁وانڊا	-17063
▁وداني	-17064
▁يلينا	-17065
▁يلينٽ	-17066
▁ينالي	-17067
▁ينواس	-17068
▁چاليھ	-17069
▁ڪنگال	-17070
."	-17071
25	-17072
aS	-17073
çî	-17074
ен	-17075
اة	-17076
بش	-17077
تب	-17078
ثث	-17079
ثه	-17080
جز	-17081
خن	-17082
عش	-17083
قة	-17084
كك	-17085
مٽ	-17086
نش	-17087
نى	-17088
هٿ	-17089
يں	-17090
ټو	-17091
ٿڪ	-17092
ڳن	-17093
▁Ø	-17094
▁ş	-17095
▁̨	-17096
▁б	-17097
▁з	-17098
▁т	-17099
▁ٛ	-17100
▁ᓄ	-17101
▁‡	-17102
▁✅	-17103
▁。	-17104
▁🏻	-17105
TFS	-17106
ana	-17107
ani	-17108
aro	-17109
eri	-17110
oke	-17111
آيه	-17112
ؤنڪ	-17113
اجر	-17114
اهم	-17115
جهه	-17116
ديت	-17117
راج	-17118
شوك	-17119
ضوم	-17120
قان	-17121
هون	-17122
وئي	-17123
يله	-17124
▁"$	-17125
▁"-	-17126
▁'"	-17127
▁')	-17128
▁('	-17129
▁(؟	-17130
▁,"	-17131
▁-3	-17132
▁1⁄	-17133
▁3ـ	-17134
▁=>	-17135
▁AG	-17136
▁CP	-17137
▁EV	-17138
▁HO	-17139
▁JS	-17140
▁KL	-17141
▁Lt	-17142
▁MX	-17143
▁TC	-17144
▁TY	-17145
▁VR	-17146
▁nx	-17147
▁rs	-17148
▁}~	-17149
▁ئز	-17150
▁بۊ	-17151
▁طغ	-17152
▁طه	-17153
▁قى	-17154
▁مٍ	-17155
▁نء	-17156
▁نګ	-17157
▁نڻ	-17158
▁يژ	-17159
▁پڊ	-17160
▁ځي	-17161
▁ڄڃ	-17162
▁ڇَ	-17163
▁ڊب	-17164
▁یر	-17165
▁یز	-17166
ream	-17167
▁(30	-17168
▁1.8	-17169
▁10,	-17170
▁104	-17171
▁124	-17172
▁129	-17173
▁132	-17174
▁146	-17175
▁165	-17176
▁16:	-17177
▁175	-17178
▁179	-17179
▁189	-17180
▁330	-17181
▁370	-17182
▁4.5	-17183
▁5.5	-17184
▁59.	-17185
▁68.	-17186
▁76.	-17187
▁80%	-17188
▁85.	-17189
▁AWS	-17190
▁Alp	-17191
▁Bio	-17192
▁Bir	-17193
▁Cer	-17194
▁Chu	-17195
▁FAQ	-17196
▁Fox	-17197
▁Gia	-17198
▁Gma	-17199
▁Hub	-17200
▁ITE	-17201
▁Kra	-17202
▁NEW	-17203
▁Nok	-17204
▁Non	-17205
▁OLE	-17206
▁Ora	-17207
▁Ore	-17208
▁PCB	-17209
▁Pea	-17210
▁Qua	-17211
▁Rou	-17212
▁SIZ	-17213
▁SSA	-17214
▁Sen	-17215
▁Spe	-17216
▁Swi	-17217
▁Tab	-17218
▁Tea	-17219
▁XRP	-17220
▁alo	-17221
▁cca	-17222
▁die	-17223
▁dll	-17224
▁dre	-17225
▁emi	-17226
▁glo	-17227
▁gov	-17228
▁hta	-17229
▁kin	-17230
▁mis	-17231
▁neo	-17232
▁our	-17233
▁san	-17234
▁seg	-17235
▁spe	-17236
▁thy	-17237
▁twe	-17238
▁آبو	-17239
▁آشا	-17240
▁آنن	-17241
▁آهئ	-17242
▁آپي	-17243
▁أكل	-17244
▁أمل	-17245
▁أيش	-17246
▁ابخ	-17247
▁ارى	-17248
▁افش	-17249
▁امپ	-17250
▁اوڀ	-17251
▁بدت	-17252
▁بشن	-17253
▁تاڻ	-17254
▁توح	-17255
▁تيغ	-17256
▁تڪڻ	-17257
▁جئه	-17258
▁ججز	-17259
▁جرڪ	-17260
▁جنو	-17261
▁جُڳ	-17262
▁جٿي	-17263
▁جھر	-17264
▁حرج	-17265
▁حظر	-17266
▁حمر	-17267
▁خطف	-17268
▁خله	-17269
▁دعس	-17270
▁ذآآ	-17271
▁ذان	-17272
▁ربّ	-17273
▁رخو	-17274
▁رزر	-17275
▁رشڪ	-17276
▁رفس	-17277
▁رقد	-17278
▁رڙن	-17279
▁رڳي	-17280
▁رڻن	-17281
▁زاڪ	-17282
▁زحل	-17283
▁زرو	-17284
▁زرگ	-17285
▁زول	-17286
▁سؤٽ	-17287
▁ساء	-17288
▁سبع	-17289
▁سرء	-17290
▁سرج	-17291
▁سرڳ	-17292
▁سقا	-17293
▁سڃا	-17294
▁شبر	-17295
▁شرک	-17296
▁شلو	-17297
▁شمر	-17298
▁شيب	-17299
▁شڪو	-17300
▁صحة	-17301
▁طحن	-17302
▁طوا	-17303
▁عآآ	-17304
▁عجز	-17305
▁عمى	-17306
▁غیر	-17307
▁فاح	-17308
▁فتر	-17309
▁فلز	-17310
▁كاش	-17311
▁كذب	-17312
▁كسل	-17313
▁لعو	-17314
▁لهب	-17315
▁لڪر	-17316
▁ماگ	-17317
▁مرل	-17318
▁مسخ	-17319
▁مسڻ	-17320
▁مشى	-17321
▁مقد	-17322
▁مهج	-17323
▁مهد	-17324
▁مَٽ	-17325
▁ناض	-17326
▁نرل	-17327
▁نشد	-17328
▁نشه	-17329
▁نقر	-17330
▁نقي	-17331
▁ننن	-17332
▁نوَ	-17333
▁نڪل	-17334
▁هتل	-17335
▁همش	-17336
▁هية	-17337
▁هُت	-17338
▁هڪُ	-17339
▁هیر	-17340
▁وآل	-17341
▁ورح	-17342
▁ولى	-17343
▁ولی	-17344
▁وَس	-17345
▁وڄڻ	-17346
▁وھي	-17347
▁يرڊ	-17348
▁يزد	-17349
▁يكه	-17350
▁يڙن	-17351
▁ُهي	-17352
▁ٽئڪ	-17353
▁ٽپڙ	-17354
▁ٽڪڻ	-17355
▁ٽین	-17356
▁پنڪ	-17357
▁پپر	-17358
▁پڙل	-17359
▁ٿرڊ	-17360
▁ٿيڙ	-17361
▁ٿڪي	-17362
▁ڀاس	-17363
▁ڀيو	-17364
▁ڀڄن	-17365
▁ڄڻڻ	-17366
▁چٻي	-17367
▁ڇاک	-17368
▁ڊڪي	-17369
▁ڌرت	-17370
▁ڌري	-17371
▁ڌوم	-17372
▁ڍار	-17373
▁ڍرو	-17374
▁ڍيل	-17375
▁ڏبي	-17376
▁ڏِس	-17377
▁ڦاڙ	-17378
▁ڦرن	-17379
▁ڦلي	-17380
▁ڦٽن	-17381
▁ڦڙي	-17382
▁کرم	-17383
▁کٽل	-17384
▁ڪذآ	-17385
▁ڪرب	-17386
▁ڪسم	-17387
▁ڪلچ	-17388
▁ڪڇڻ	-17389
▁گلڊ	-17390
▁گهل	-17391
▁گوپ	-17392
▁ڳلو	-17393
▁ڳهي	-17394
▁ھجو	-17395
▁ھيؤ	-17396
▁ھَي	-17397
▁ہری	-17398
▁یام	-17399
▁ASTM	-17400
▁Babu	-17401
▁Beca	-17402
▁Brit	-17403
▁Cant	-17404
▁Deco	-17405
▁Domi	-17406
▁Fast	-17407
▁Form	-17408
▁Glea	-17409
▁Idea	-17410
▁Jogi	-17411
▁Jose	-17412
▁Leav	-17413
▁NTFS	-17414
▁Need	-17415
▁Orga	-17416
▁Simi	-17417
▁Stor	-17418
▁Stri	-17419
▁West	-17420
▁Yeni	-17421
▁Your	-17422
▁acco	-17423
▁acne	-17424
▁atte	-17425
▁boli	-17426
[...]
