<unk>	0
<s>	0
</s>	0
▁ا	-0
هه	-1
▁ج	-2
▁م	-3
▁و	-4
▁ي	-5
▁ڪ	-6
▁ه	-7
▁ت	-8
▁س	-9
▁ن	-10
ان	-11
▁.	-12
▁آ	-13
▁جي	-14
▁پ	-15
هي	-16
▁ب	-17
ري	-18
▁هه	-19
▁ک	-20
▁ر	-21
هن	-22
▁ل	-23
▁،	-24
ين	-25
▁آهي	-26
ون	-27
▁هههه	-28
▁ٿ	-29
▁۾	-30
ار	-31
▁ان	-32
ئي	-33
▁کي	-34
يو	-35
▁۽	-36
▁د	-37
▁ع	-38
ال	-39
▁ش	-40
▁گ	-41
▁جو	-42
▁خ	-43
▁ف	-44
▁ح	-45
ور	-46
ند	-47
▁ته	-48
▁لا	-49
▁چ	-50
ــ	-51
▁اس	-52
▁ڏ	-53
نهن	-54
▁تي	-55
ائ	-56
▁ههه	-57
ام	-58
▁ق	-59
▁اه	-60
▁ڪري	-61
لي	-62
▁هڪ	-63
▁"	-64
▁ٻ	-65
ءِ	-66
يا	-67
▁ط	-68
▁ص	-69
▁کان	-70
▁ال	-71
▁ڪر	-72
▁سان	-73
▁نه	-74
▁هن	-75
▁ٿي	-76
▁اي	-77
▁:	-78
اڻ	-79
▁به	-80
▁يا	-81
▁هو	-82
▁تو	-83
دي	-84
▁ون	-85
▁1	-86
تي	-87
▁ز	-88
نهنج	-89
▁ٽ	-90
اب	-91
ير	-92
▁آهن	-93
دا	-94
▁ڇ	-95
▁وا	-96
▁ڪرڻ	-97
▁ٿو	-98
▁اسان	-99
▁ك	-100
▁ڊ	-101
▁ههههه	-102
▁اهو	-103
هان	-104
▁لاءِ	-105
رو	-106
▁2	-107
ءَ	-108
هر	-109
يڪ	-110
لا	-111
▁0	-112
▁ڪي	-113
▁ئي	-114
ني	-115
▁هي	-116
دو	-117
▁جا	-118
▁مو	-119
▁ري	-120
▁پر	-121
▁(	-122
▁سگ	-123
ول	-124
▁ين	-125
جي	-126
▁توهان	-127
▁پي	-128
ست	-129
▁-	-130
▁مان	-131
ڪي	-132
▁ڪيو	-133
▁مون	-134
▁؟	-135
▁ما	-136
▁ھ	-137
▁پنهنج	-138
▁ــ	-139
▁رو	-140
ڏهن	-141
▁وي	-142
▁نا	-143
▁پو	-144
▁ڳ	-145
را	-146
▁من	-147
مي	-148
▁)	-149
▁را	-150
▁ڪند	-151
▁ٿا	-152
سي	-153
▁ڀ	-154
▁ڪو	-155
قت	-156
▁مي	-157
▁ور	-158
قي	-159
▁وڌ	-160
ئن	-161
▁ڪم	-162
▁سو	-163
▁بي	-164
▁ض	-165
▁يو	-166
▁s	-167
▁ها	-168
▁او	-169
لو	-170
▁غ	-171
▁ڻ	-172
ھن	-173
ڪو	-174
▁ـ	-175
▁لاء	-176
رف	-177
▁رهي	-178
▁ويو	-179
▁ذ	-180
▁ات	-181
ھي	-182
▁انهن	-183
ڙي	-184
▁طور	-185
▁ار	-186
▁ءَ	-187
▁است	-188
▁!	-189
▁ڪا	-190
▁يڪ	-191
▁خو	-192
▁سڀ	-193
اد	-194
▁مع	-195
▁وڃ	-196
شن	-197
ورت	-198
▁3	-199
▁گه	-200
▁لي	-201
هو	-202
▁ائ	-203
ائين	-204
اص	-205
ها	-206
بر	-207
▁مال	-208
▁ئ	-209
رين	-210
له	-211
▁ڇا	-212
ٽر	-213
ائي	-214
▁9	-215
▁ڏين	-216
▁هر	-217
▁شا	-218
▁سم	-219
▁سي	-220
اري	-221
▁وين	-222
ڏي	-223
▁مح	-224
ٽي	-225
▁ني	-226
مل	-227
▁جن	-228
▁ماڻ	-229
▁در	-230
▁في	-231
▁وقت	-232
ـــ	-233
▁وڌيڪ	-234
▁مل	-235
گر	-236
▁تع	-237
بي	-238
▁5	-239
در	-240
کي	-241
▁ڪج	-242
▁منهنج	-243
▁بر	-244
▁هون	-245
▁i	-246
▁وار	-247
▁گهر	-248
مت	-249
جو	-250
از	-251
▁سال	-252
اني	-253
▁e	-254
اڻي	-255
▁4	-256
▁ڪار	-257
ڪا	-258
▁ام	-259
▁اهي	-260
▁نگ	-261
▁,	-262
▁اين	-263
▁اڳ	-264
▁تر	-265
▁ڏي	-266
▁سند	-267
▁آھي	-268
▁استع	-269
▁سن	-270
▁t	-271
▁جنهن	-272
▁نو	-273
▁ـــــ	-274
▁ڪئي	-275
▁ٺ	-276
▁شي	-277
▁ِ	-278
▁مر	-279
چي	-280
▁سا	-281
سم	-282
▁نظ	-283
ڻي	-284
▁هئي	-285
▁ڳال	-286
گي	-287
▁تائين	-288
▁جيڪو	-289
▁واري	-290
▁پا	-291
▁ٽي	-292
▁ڪنهن	-293
▁پوءِ	-294
▁مش	-295
▁ڌ	-296
▁مس	-297
صو	-298
سٽ	-299
▁ائي	-300
▁8	-301
▁ڊي	-302
▁c	-303
▁ڪريو	-304
▁ڪجهه	-305
▁عل	-306
▁اها	-307
▁6	-308
ڙو	-309
▁با	-310
▁a	-311
خت	-312
▁چيو	-313
▁ڪن	-314
▁ٿين	-315
فت	-316
▁جڏهن	-317
▁7	-318
▁سگهي	-319
▁ڏينهن	-320
نيا	-321
▁بس	-322
▁دو	-323
▁يل	-324
▁گڏ	-325
▁وڃي	-326
▁جيڪي	-327
نگ	-328
اصل	-329
في	-330
نا	-331
▁ُ	-332
▁رک	-333
يت	-334
ڪر	-335
▁ڄ	-336
عي	-337
▁n	-338
▁از	-339
▁تم	-340
▁َ	-341
▁سر	-342
▁يت	-343
▁حاصل	-344
ئين	-345
لام	-346
▁لڳ	-347
▁ضر	-348
اهي	-349
▁ست	-350
▁اع	-351
▁يند	-352
جود	-353
بو	-354
▁سندس	-355
▁وٽ	-356
ئر	-357
▁لو	-358
▁يڪڏهن	-359
▁ڪيت	-360
▁يم	-361
▁ٻڌ	-362
يد	-363
ثر	-364
▁علي	-365
▁هم	-366
▁مق	-367
▁پاڻ	-368
▁هئ	-369
الي	-370
▁شرو	-371
▁الله	-372
ما	-373
▁شروع	-374
▁تمام	-375
▁وٺ	-376
ڪل	-377
اه	-378
▁اص	-379
ڪن	-380
▁تح	-381
▁باب	-382
اا	-383
ٿي	-384
سان	-385
▁ڏس	-386
▁ناهي	-387
▁أ	-388
▁په	-389
▁فر	-390
▁گھ	-391
▁'	-392
ات	-393
▁ة	-394
▁يون	-395
▁دنيا	-396
▁ڇو	-397
▁l	-398
فر	-399
▁دا	-400
رح	-401
▁مط	-402
▁زند	-403
▁دل	-404
▁d	-405
▁صح	-406
▁ٿيو	-407
▁رهيو	-408
ءُ	-409
▁o	-410
▁تون	-411
▁عم	-412
▁عام	-413
▁مري	-414
دار	-415
لم	-416
▁چي	-417
▁/	-418
▁ڇڏ	-419
▁ماڻهو	-420
▁جون	-421
▁تب	-422
▁وئي	-423
بل	-424
ئون	-425
▁نن	-426
▁پن	-427
▁مخت	-428
▁۔	-429
▁وز	-430
▁پڻ	-431
▁m	-432
▁نظر	-433
▁نم	-434
▁وڏي	-435
ڻو	-436
▁زم	-437
▁ضرورت	-438
تو	-439
▁شام	-440
▁دور	-441
▁يع	-442
اهر	-443
▁انهي	-444
▁ڏان	-445
نو	-446
هم	-447
▁ويندو	-448
▁r	-449
ھان	-450
▁>	-451
▁مت	-452
▁قو	-453
▁سب	-454
▁عمل	-455
▁مد	-456
▁اُ	-457
▁صرف	-458
▁اچي	-459
▁خاص	-460
▁ويا	-461
▁ڪندا	-462
▁وڏ	-463
▁پيش	-464
▁زندگي	-465
▁ڙ	-466
▁ظ	-467
▁ٿيڻ	-468
▁ڪڏهن	-469
لف	-470
▁چون	-471
عد	-472
▁طرف	-473
▁نس	-474
▁ٻي	-475
▁طري	-476
▁ڪت	-477
▁ث	-478
▁وال	-479
▁S	-480
▁نق	-481
اح	-482
▁چو	-483
▁هئا	-484
▁ڪيئن	-485
▁بل	-486
▁A	-487
▁اڻ	-488
▁سمج	-489
▁p	-490
بت	-491
▁سين	-492
▁<	-493
▁خت	-494
▁ڪندو	-495
▁اح	-496
▁ند	-497
▁لک	-498
▁پار	-499
▁بابت	-500
لب	-501
▁سڀني	-502
▁جيئن	-503
▁ماڻهن	-504
با	-505
ڪار	-506
ٺو	-507
▁غير	-508
▁رس	-509
▁ڏانهن	-510
عو	-511
▁طرح	-512
▁ڪه	-513
▁بند	-514
▁خي	-515
▁قسم	-516
▁شامل	-517
▁گهٽ	-518
▁آخ	-519
▁قي	-520
زي	-521
▁صورت	-522
▁سنڌ	-523
▁ٻئي	-524
▁دار	-525
▁وري	-526
▁ندا	-527
▁_	-528
▁جه	-529
▁ايم	-530
▁مختلف	-531
▁آر	-532
▁يعني	-533
▁ٽر	-534
اف	-535
▁اد	-536
▁ول	-537
▁ٻار	-538
▁ياد	-539
▁اڄ	-540
▁شو	-541
سو	-542
▁وارو	-543
▁گر	-544
فا	-545
▁هت	-546
▁آهيان	-547
▁وان	-548
ائڻ	-549
▁مڪ	-550
▁مث	-551
▁رهيا	-552
صي	-553
▁تنهن	-554
▁نال	-555
▁واق	-556
▁خبر	-557
▁ڳالهه	-558
▁اسٽ	-559
▁حقي	-560
▁هوندي	-561
▁نت	-562
▁اندر	-563
▁ڪندي	-564
▁اب	-565
ڪس	-566
▁ڏيڻ	-567
تر	-568
▁تن	-569
ھو	-570
▁بڻ	-571
▁پيو	-572
▁حال	-573
▁فو	-574
▁گهرجي	-575
اس	-576
▁وچ	-577
▁هل	-578
▁اڪ	-579
▁بين	-580
لس	-581
▁بعد	-582
▁ڪتاب	-583
▁پس	-584
▁هيٺ	-585
▁ايس	-586
▁هوندو	-587
▁اپ	-588
▁آئون	-589
▁ڪندڙ	-590
▁چاهي	-591
▁واپ	-592
▁تاري	-593
▁يس	-594
▁ٻن	-595
▁آهيون	-596
▁جيڪا	-597
▁پڙ	-598
▁سبب	-599
▁مدد	-600
▁ذري	-601
▁in	-602
▁هري	-603
▁سيا	-604
هند	-605
▁ٻين	-606
▁C	-607
▁تاريخ	-608
▁ادا	-609
ھنج	-610
▁تج	-611
▁خر	-612
▁كم	-613
زا	-614
▁مڪمل	-615
▁موجود	-616
▁عورت	-617
▁=	-618
▁ڳو	-619
▁ھڪ	-620
▁اچ	-621
▁خوش	-622
▁کيس	-623
▁پاڪ	-624
▁شهر	-625
▁اج	-626
▁ٿيل	-627
▁بو	-628
▁ير	-629
▁اتي	-630
وا	-631
▁حس	-632
▁نئين	-633
▁نالو	-634
▁ڪمپ	-635
▁گذ	-636
▁انا	-637
▁خلا	-638
▁مم	-639
▁يه	-640
▁b	-641
▁اهم	-642
فظ	-643
▁ملڪ	-644
▁گهڻو	-645
ديل	-646
نڊ	-647
▁جواب	-648
مد	-649
نس	-650
▁سگه	-651
▁اخ	-652
▁يق	-653
▁هتي	-654
ٽا	-655
▁پور	-656
▁هاڻي	-657
▁ڪمپني	-658
▁پهرين	-659
▁تبديل	-660
▁تق	-661
▁؛	-662
▁ختم	-663
ذا	-664
هڻ	-665
▁قاب	-666
▁دوست	-667
▁M	-668
▁ڪل	-669
▁گي	-670
▁حق	-671
▁يور	-672
▁آن	-673
▁P	-674
▁er	-675
▁f	-676
ندي	-677
▁رد	-678
▁شر	-679
▁ائيٽ	-680
▁تنهنج	-681
طي	-682
▁اڃ	-683
ايو	-684
▁آھن	-685
▁دي	-686
▁سگهو	-687
▁ٿيندو	-688
on	-689
رن	-690
▁خيال	-691
▁شايد	-692
ڳو	-693
شت	-694
▁مسئ	-695
جب	-696
▁سالن	-697
شش	-698
▁u	-699
يان	-700
▁سلام	-701
▁ڇڏيو	-702
▁نٽ	-703
▁فار	-704
▁پيدا	-705
▁ڏا	-706
ar	-707
▁ائين	-708
صر	-709
است	-710
▁عر	-711
▁ڦ	-712
▁ڪون	-713
▁فون	-714
▁چين	-715
▁نيا	-716
▁ڏئي	-717
▁وڏو	-718
▁ٿئي	-719
ڪري	-720
اج	-721
امي	-722
▁ولا	-723
▁فائ	-724
▁ڇڏي	-725
▁T	-726
حد	-727
▁هٿ	-728
▁ی	-729
▁انت	-730
لاح	-731
▁بد	-732
▁ويب	-733
▁اهڙي	-734
دم	-735
شه	-736
▁قر	-737
▁نٿ	-738
▁سوا	-739
▁عليه	-740
▁وو	-741
▁چونڊ	-742
▁قان	-743
▁ڏنو	-744
ضو	-745
دڙ	-746
زار	-747
▁هترين	-748
▁ااا	-749
يم	-750
▁ڪوشش	-751
▁قانون	-752
▁پوء	-753
▁مض	-754
يح	-755
▁*	-756
▁سيڪ	-757
ارت	-758
▁مطلب	-759
▁آيو	-760
ليم	-761
▁قيمت	-762
▁ويندي	-763
▁پري	-764
▁g	-765
▁هجي	-766
▁طريق	-767
▁ايپ	-768
▁اف	-769
روري	-770
▁خدا	-771
▁رات	-772
▁وٺي	-773
▁ٻه	-774
▁اوهان	-775
er	-776
▁ٻيو	-777
▁معي	-778
▁گھر	-779
▁سوال	-780
▁10	-781
▁نش	-782
▁ران	-783
▁پئي	-784
▁مين	-785
لوم	-786
▁امي	-787
▁اري	-788
▁مهي	-789
▁ء	-790
▁st	-791
▁حل	-792
▁آئي	-793
اڪ	-794
▁وانگر	-795
يل	-796
▁آهيو	-797
▁ٽيڪ	-798
▁ملي	-799
▁پڇ	-800
هور	-801
▁انسان	-802
خل	-803
▁ذريعي	-804
▁غل	-805
▁اصل	-806
حك	-807
▁خط	-808
▁B	-809
▁شك	-810
▁وس	-811
▁رج	-812
▁پاڪست	-813
▁نج	-814
▁صحيح	-815
سوس	-816
▁ترقي	-817
▁معلوم	-818
▁يقين	-819
▁يڊ	-820
▁فق	-821
▁ڪيا	-822
وب	-823
▁توھان	-824
▁يان	-825
▁عال	-826
▁حقيقت	-827
ٽو	-828
▁لفظ	-829
مو	-830
ٺي	-831
▁هج	-832
ڪيٽ	-833
▁عمر	-834
ندڙ	-835
▁ڪيل	-836
▁پرو	-837
▁هنن	-838
▁صف	-839
▁يد	-840
تا	-841
▁ڪيترا	-842
صل	-843
▁رکي	-844
▁ڄاڻ	-845
▁قدر	-846
اجي	-847
▁بح	-848
▁[	-849
▁اک	-850
عا	-851
من	-852
▁سفر	-853
▁علا	-854
▁اوھان	-855
ڊيو	-856
▁جاري	-857
▁ڏسي	-858
▁ولي	-859
▁ختي	-860
▁وجود	-861
▁والله	-862
▁اثر	-863
▁اول	-864
▁ظاهر	-865
▁اڃا	-866
▁ارڪيٽ	-867
▁يار	-868
▁ننڍ	-869
▁دوران	-870
▁سوچ	-871
▁حڪو	-872
▁وائ	-873
▁ـــ	-874
▁تصو	-875
▁ڳالها	-876
▁پسند	-877
▁هاي	-878
▁كل	-879
▁پير	-880
▁حڪومت	-881
▁صاح	-882
or	-883
ريب	-884
▁شخ	-885
▁سپ	-886
▁ضروري	-887
▁فرا	-888
▁ڪيترن	-889
ضي	-890
▁تصوير	-891
▁ٻاهر	-892
▁D	-893
▁حڪ	-894
▁صاحب	-895
▁لڳي	-896
▁ئين	-897
جه	-898
▁جل	-899
▁I	-900
▁مٿ	-901
▁راند	-902
▁مريڪا	-903
▁مخ	-904
▁مواد	-905
ورٽ	-906
▁پٽ	-907
ڙا	-908
▁رهن	-909
▁ى	-910
▁جتي	-911
▁گو	-912
▁حصو	-913
▁نهي	-914
▁علائ	-915
▁علائق	-916
ريل	-917
▁ھن	-918
▁بهتر	-919
▁سڄ	-920
پي	-921
▁اسڪ	-922
▁سندن	-923
ران	-924
▁رق	-925
▁تص	-926
▁اند	-927
▁حو	-928
▁عن	-929
فو	-930
▁نتظ	-931
▁وق	-932
▁اني	-933
▁ختيار	-934
▁ڏسڻ	-935
▁خري	-936
in	-937
▁اسين	-938
ڙه	-939
▁]	-940
▁ڀر	-941
▁هريون	-942
▁جان	-943
صد	-944
▁بال	-945
▁هُ	-946
▁ڊيٽا	-947
▁محسوس	-948
▁اٿ	-949
▁ٺاهي	-950
▁ڪجھ	-951
▁يٽ	-952
▁هين	-953
▁صلاح	-954
▁موضو	-955
▁آسان	-956
▁مٿي	-957
▁هوندا	-958
رت	-959
▁چار	-960
▁عو	-961
▁آخر	-962
کار	-963
▁بيان	-964
▁موضوع	-965
▁خلاف	-966
▁اا	-967
▁يدا	-968
▁على	-969
لق	-970
▁نتي	-971
▁پاڻي	-972
ارف	-973
▁اھو	-974
▁وڪ	-975
ائو	-976
▁ڏني	-977
▁فارم	-978
▁زمين	-979
▁ٿيون	-980
▁حد	-981
▁معيار	-982
▁مثال	-983
▁بچ	-984
▁ڏک	-985
▁ساڳ	-986
▁مج	-987
▁پنھنج	-988
▁w	-989
▁چه	-990
▁اش	-991
▁ٿيندي	-992
ظيم	-993
▁ليڪ	-994
▁دف	-995
▁سام	-996
▁رڳو	-997
▁طرفان	-998
▁تعليم	-999
▁حالت	-1000
▁نداز	-1001
▁وارا	-1002
▁ڪاروب	-1003
▁h	-1004
▁منظ	-1005
▁رنگ	-1006
▁شع	-1007
▁يءَ	-1008
▁وسي	-1009
▁رکڻ	-1010
▁دست	-1011
▁پيار	-1012
▁سگهجي	-1013
ولي	-1014
▁ڊائ	-1015
▁لائن	-1016
كم	-1017
▁داخل	-1018
▁آز	-1019
▁خود	-1020
▁تجر	-1021
▁حلو	-1022
▁شخص	-1023
▁مشهور	-1024
▁آب	-1025
▁هوءَ	-1026
▁يشن	-1027
نت	-1028
▁ايپل	-1029
▁يداوا	-1030
سر	-1031
▁H	-1032
▁قوم	-1033
▁ندي	-1034
▁ٺاه	-1035
▁الي	-1036
▁همي	-1037
▁مار	-1038
▁اسپ	-1039
▁قب	-1040
▁سون	-1041
▁ضحك	-1042
▁مقصد	-1043
▁G	-1044
▁نف	-1045
▁پون	-1046
▁تيار	-1047
▁سط	-1048
▁واپس	-1049
▁نهيءَ	-1050
ڪاڻ	-1051
▁ڏاڍ	-1052
بان	-1053
▁ميا	-1054
▁ڀير	-1055
▁N	-1056
▁مرد	-1057
▁ايران	-1058
▁صن	-1059
▁ڇاڪاڻ	-1060
▁ورس	-1061
قل	-1062
▁عد	-1063
▁نظام	-1064
▁وڃڻ	-1065
▁y	-1066
▁نيو	-1067
به	-1068
ڊي	-1069
▁قابل	-1070
▁لين	-1071
▁تا	-1072
سٽم	-1073
▁ing	-1074
ڏھن	-1075
سپ	-1076
▁L	-1077
▁اعلي	-1078
▁لس	-1079
▁لاز	-1080
ندو	-1081
▁مز	-1082
اتي	-1083
▁ندو	-1084
▁مونکي	-1085
▁شه	-1086
▁هذا	-1087
▁تان	-1088
عت	-1089
▁هميشه	-1090
▁ٻنهي	-1091
▁ڏيو	-1092
▁اجاز	-1093
▁چوڻ	-1094
انه	-1095
▁مص	-1096
▁راب	-1097
▁ابو	-1098
▁يندو	-1099
▁شاع	-1100
▁خد	-1101
▁سک	-1102
▁سائ	-1103
▁قدم	-1104
▁توکي	-1105
▁جنگ	-1106
▁اجازت	-1107
▁فراهم	-1108
▁v	-1109
▁پئ	-1110
▁علم	-1111
▁عي	-1112
▁يندا	-1113
جن	-1114
▁جم	-1115
▁جر	-1116
▁ڪير	-1117
▁اميد	-1118
▁ايو	-1119
▁سلم	-1120
كن	-1121
▁مذ	-1122
▁آو	-1123
▁خوب	-1124
▁ڏيکار	-1125
▁رپ	-1126
▁نام	-1127
▁راه	-1128
▁نيادي	-1129
ائم	-1130
اپ	-1131
▁آيا	-1132
▁ره	-1133
▁حت	-1134
▁لم	-1135
ڊيا	-1136
ليل	-1137
▁سٺو	-1138
▁ڏٺو	-1139
▁k	-1140
▁سواءِ	-1141
وي	-1142
▁تعلق	-1143
زن	-1144
▁ھو	-1145
▁صفح	-1146
▁توڻ	-1147
▁آء	-1148
▁ڄڻ	-1149
▁وگر	-1150
▁te	-1151
▁توڻيڪ	-1152
▁نٿو	-1153
▁سلامي	-1154
▁تف	-1155
بار	-1156
انس	-1157
قيق	-1158
▁له	-1159
▁باري	-1160
▁روز	-1161
▁سٽ	-1162
▁تحقيق	-1163
▁انگ	-1164
▁اك	-1165
▁محفو	-1166
▁سگھ	-1167
▁آس	-1168
▁محفوظ	-1169
▁ڪونه	-1170
مبر	-1171
▁ہ	-1172
▁حڪم	-1173
▁ٽيڪن	-1174
▁احس	-1175
▁ڪلا	-1176
▁اگر	-1177
▁حيا	-1178
▁قائم	-1179
▁اڻي	-1180
▁اق	-1181
▁رح	-1182
▁th	-1183
▁حض	-1184
اسب	-1185
▁بار	-1186
▁آواز	-1187
▁مناسب	-1188
صوص	-1189
▁بت	-1190
▁طريقي	-1191
▁وگرام	-1192
يند	-1193
▁نئون	-1194
داد	-1195
▁ايت	-1196
▁ايڪس	-1197
▁واقعي	-1198
▁وش	-1199
لن	-1200
▁قت	-1201
▁يڪي	-1202
re	-1203
▁ھي	-1204
▁کڻي	-1205
▁شادي	-1206
▁مه	-1207
▁خدمت	-1208
▁رب	-1209
▁موق	-1210
▁رڪ	-1211
▁شيء	-1212
en	-1213
ڌو	-1214
▁محبت	-1215
ur	-1216
▁شين	-1217
▁ايل	-1218
شان	-1219
▁حي	-1220
▁طال	-1221
▁وزير	-1222
▁ڳول	-1223
▁خريد	-1224
▁ڊو	-1225
▁گرا	-1226
▁ممڪن	-1227
وري	-1228
▁هجڻ	-1229
▁عا	-1230
▁يست	-1231
▁نالي	-1232
ٽل	-1233
ابق	-1234
▁اسڪول	-1235
▁ويندا	-1236
▁سچ	-1237
▁آخري	-1238
▁سخت	-1239
▁نفس	-1240
▁صب	-1241
▁مطابق	-1242
▁E	-1243
▁رم	-1244
▁هيو	-1245
▁يائين	-1246
▁اڪثر	-1247
▁بنيا	-1248
مير	-1249
▁مهر	-1250
la	-1251
كر	-1252
▁خراب	-1253
▁بنياد	-1254
▁al	-1255
▁هچ	-1256
▁صحت	-1257
▁سگھي	-1258
▁بلا	-1259
▁خواست	-1260
▁ڀا	-1261
وه	-1262
▁R	-1263
لان	-1264
▁سرو	-1265
▁جسم	-1266
▁سه	-1267
▁اھ	-1268
▁آزاد	-1269
▁آه	-1270
▁يڪيشن	-1271
▁وب	-1272
▁روح	-1273
▁خان	-1274
ڻڻ	-1275
▁سڏ	-1276
▁موڪل	-1277
▁گهڻي	-1278
▁واحد	-1279
▁le	-1280
▁وارن	-1281
▁گري	-1282
▁سيڪڙو	-1283
▁پيا	-1284
▁اط	-1285
▁لکي	-1286
▁F	-1287
▁وڊيو	-1288
▁نمون	-1289
▁ٻارن	-1290
▁ميل	-1291
▁منهن	-1292
▁to	-1293
▁چڪو	-1294
▁جڳ	-1295
▁چڱ	-1296
▁ڊاڪ	-1297
▁آهين	-1298
انا	-1299
▁مفت	-1300
▁ٻيهر	-1301
▁طا	-1302
▁ڪمي	-1303
▁W	-1304
ديد	-1305
▁ڪپ	-1306
ڊر	-1307
▁گرو	-1308
▁آف	-1309
▁رت	-1310
▁سڄي	-1311
▁ڪٿي	-1312
▁سڃ	-1313
▁فقط	-1314
▁ٿيا	-1315
▁سائين	-1316
▁رياست	-1317
▁شد	-1318
▁سڪ	-1319
▁آفي	-1320
art	-1321
▁منت	-1322
▁اچڻ	-1323
▁وڪي	-1324
▁باقي	-1325
▁سطح	-1326
▁فت	-1327
▁که	-1328
▁ڪيس	-1329
▁ڊاڪٽر	-1330
جوا	-1331
▁نقص	-1332
▁اض	-1333
▁جهڙو	-1334
▁پولي	-1335
▁فيص	-1336
▁فيصلو	-1337
▁پارٽي	-1338
ra	-1339
▁20	-1340
▁تخ	-1341
▁بغ	-1342
▁ِي	-1343
▁رست	-1344
▁سياسي	-1345
▁ٽو	-1346
ائش	-1347
▁سگهن	-1348
▁ڪافي	-1349
▁پاران	-1350
گل	-1351
▁اڳو	-1352
▁ذهن	-1353
يوا	-1354
▁مير	-1355
▁نوجوا	-1356
▁ٻڌايو	-1357
▁مرڪ	-1358
▁رن	-1359
▁غلط	-1360
▁روم	-1361
▁يندي	-1362
ڪٽ	-1363
▁مُ	-1364
▁يز	-1365
▁عالمي	-1366
▁ڪڍ	-1367
▁ايه	-1368
لع	-1369
▁موت	-1370
▁مريڪي	-1371
▁ڳالهي	-1372
ڪت	-1373
▁بن	-1374
ريڪ	-1375
▁اڳتي	-1376
قا	-1377
▁ورتو	-1378
▁يوني	-1379
▁فع	-1380
▁ئن	-1381
▁زين	-1382
▁پل	-1383
يي	-1384
▁برا	-1385
▁ڌر	-1386
▁ڪهڙي	-1387
ڌي	-1388
▁ڪهاڻي	-1389
▁عت	-1390
مون	-1391
▁إ	-1392
▁سگهند	-1393
▁آءٌ	-1394
▁تس	-1395
▁تيز	-1396
▁ڏسو	-1397
▁کول	-1398
▁نقصان	-1399
ميت	-1400
▁پاس	-1401
▁جديد	-1402
▁ڳوٺ	-1403
▁ايندڙ	-1404
نل	-1405
▁ملڪن	-1406
▁وڙ	-1407
▁انج	-1408
▁ميڊيا	-1409
▁شيون	-1410
▁رپورٽ	-1411
st	-1412
حال	-1413
▁ده	-1414
▁لن	-1415
▁ئون	-1416
▁تاز	-1417
▁دلچ	-1418
▁بخ	-1419
زل	-1420
▁ڙي	-1421
▁دلچسپ	-1422
▁پڪ	-1423
▁ڀي	-1424
▁قا	-1425
▁هند	-1426
▁يندڙ	-1427
ro	-1428
▁لسلام	-1429
▁تڪ	-1430
▁رفت	-1431
▁اِ	-1432
▁پنج	-1433
▁روش	-1434
▁اڪائو	-1435
▁يش	-1436
▁ايڊ	-1437
▁گا	-1438
▁دير	-1439
▁ذاتي	-1440
وو	-1441
تيب	-1442
▁کين	-1443
▁وج	-1444
▁ضرور	-1445
▁مهربا	-1446
▁ترتيب	-1447
▁انه	-1448
▁يلي	-1449
▁O	-1450
▁پوليس	-1451
▁co	-1452
▁صدر	-1453
▁چاهيو	-1454
انگ	-1455
▁مشين	-1456
▁نوٽ	-1457
▁رٽ	-1458
▁فلم	-1459
▁ڪردار	-1460
▁خير	-1461
ڊل	-1462
اي	-1463
▁رسي	-1464
▁ّ	-1465
▁الاجي	-1466
▁اعلان	-1467
▁ترين	-1468
▁نر	-1469
▁رھ	-1470
▁لك	-1471
▁کا	-1472
▁جوڙ	-1473
▁يني	-1474
▁مضمون	-1475
▁مسا	-1476
▁پلي	-1477
▁لائ	-1478
le	-1479
▁گل	-1480
▁مرح	-1481
▁نمبر	-1482
▁جدا	-1483
▁حقيقي	-1484
▁واض	-1485
▁ستان	-1486
▁مسئلو	-1487
رر	-1488
▁انھن	-1489
▁تڏهن	-1490
▁ايئر	-1491
▁سسٽم	-1492
▁اسلام	-1493
▁ندڙ	-1494
▁ڍ	-1495
▁منٽ	-1496
▁طاقت	-1497
▁بڻجي	-1498
▁ڪيون	-1499
▁عرف	-1500
▁حير	-1501
▁لاڳ	-1502
▁هاڻ	-1503
▁گهڻ	-1504
▁رائي	-1505
هيل	-1506
▁حر	-1507
▁گڏي	-1508
ندا	-1509
▁عب	-1510
هار	-1511
▁سنڌي	-1512
▁ڊگ	-1513
▁وض	-1514
▁لح	-1515
▁قول	-1516
رول	-1517
▁نقل	-1518
ارو	-1519
▁ٽن	-1520
▁گوگل	-1521
▁نصو	-1522
▁سلس	-1523
▁نساني	-1524
▁گفت	-1525
▁عورتن	-1526
▁صبح	-1527
▁ٿور	-1528
▁ڏنل	-1529
▁مذه	-1530
▁ماءُ	-1531
nd	-1532
▁ٽيم	-1533
▁سامان	-1534
▁بنا	-1535
▁دش	-1536
▁آباد	-1537
▁ti	-1538
ڊو	-1539
▁تعمير	-1540
▁طريقو	-1541
▁ماح	-1542
▁وڃن	-1543
ڪان	-1544
▁ڳن	-1545
ديق	-1546
▁چئي	-1547
▁ڌار	-1548
▁سُ	-1549
▁ڪجي	-1550
▁ورسٽي	-1551
▁ڪش	-1552
▁ريا	-1553
زائ	-1554
▁عوام	-1555
▁چر	-1556
▁واپار	-1557
▁حضرت	-1558
نٽ	-1559
▁احساس	-1560
▁سماجي	-1561
▁قبول	-1562
▁ٺاهڻ	-1563
▁سٺي	-1564
▁حفا	-1565
▁پيغ	-1566
▁لڳو	-1567
▁سائنس	-1568
▁ماحول	-1569
▁ڪس	-1570
▁حفاظ	-1571
▁مقرر	-1572
الت	-1573
▁ed	-1574
▁ود	-1575
▁ائل	-1576
▁تقريب	-1577
▁ڪيتري	-1578
▁دري	-1579
▁پورو	-1580
ستي	-1581
ٽري	-1582
▁سمجھ	-1583
at	-1584
et	-1585
▁ريس	-1586
▁وٺڻ	-1587
▁حفاظت	-1588
an	-1589
▁•	-1590
▁لوڊ	-1591
▁اصلي	-1592
▁گذريل	-1593
▁شاء	-1594
ظم	-1595
▁en	-1596
▁معني	-1597
▁پاسي	-1598
▁سروس	-1599
▁ترج	-1600
ــــ	-1601
▁جها	-1602
▁صنعت	-1603
▁نين	-1604
▁رهڻ	-1605
▁لاڳاپ	-1606
▁جاءِ	-1607
▁علاج	-1608
▁قط	-1609
▁جمع	-1610
▁قومي	-1611
▁پوري	-1612
▁جذ	-1613
▁سار	-1614
▁فرق	-1615
▁بلڪل	-1616
ow	-1617
▁داري	-1618
▁يستائ	-1619
▁واضح	-1620
▁يك	-1621
▁حصي	-1622
▁طب	-1623
▁باز	-1624
▁نور	-1625
▁صارف	-1626
▁پوندو	-1627
▁صاف	-1628
▁ملا	-1629
▁وڌي	-1630
▁start	-1631
▁ئڻ	-1632
فٽ	-1633
مان	-1634
▁15	-1635
▁اندان	-1636
▁ڪرا	-1637
▁شرح	-1638
▁ٻيا	-1639
▁بخش	-1640
▁هف	-1641
▁مسافر	-1642
▁متا	-1643
▁30	-1644
ولت	-1645
▁تك	-1646
صيل	-1647
▁اکين	-1648
▁راهڪن	-1649
▁وجوده	-1650
▁نٿا	-1651
▁ڀيرو	-1652
سا	-1653
▁يگ	-1654
▁تفصيل	-1655
▁هيون	-1656
▁ڪوبه	-1657
▁نتظار	-1658
▁هذ	-1659
▁تعداد	-1660
▁شان	-1661
▁dur	-1662
▁رقم	-1663
▁موجب	-1664
▁حوالي	-1665
▁حياتي	-1666
▁جلد	-1667
▁عظيم	-1668
ليق	-1669
▁خرچ	-1670
▁وفا	-1671
بوط	-1672
▁گم	-1673
▁بور	-1674
▁لل	-1675
▁عز	-1676
▁هيءَ	-1677
▁ck	-1678
▁شت	-1679
▁ڊر	-1680
▁x	-1681
▁کائ	-1682
▁پڙهي	-1683
افي	-1684
▁اوزار	-1685
ٺا	-1686
▁مضبوط	-1687
▁اُن	-1688
▁پڙهڻ	-1689
▁ايش	-1690
▁ذڪر	-1691
▁جھ	-1692
▁ويئر	-1693
▁ھڪڙو	-1694
▁وت	-1695
▁جذب	-1696
▁گڏيل	-1697
▁$	-1698
▁دان	-1699
▁ناڪ	-1700
▁محمد	-1701
حان	-1702
▁متاثر	-1703
▁سنگ	-1704
▁فا	-1705
▁دعا	-1706
▁پوسٽ	-1707
▁ايف	-1708
▁جائ	-1709
▁لينڊ	-1710
▁ڏيندو	-1711
▁عند	-1712
▁هفتي	-1713
▁لکڻ	-1714
▁دعو	-1715
▁لازمي	-1716
▁آزا	-1717
▁مند	-1718
▁سلمان	-1719
▁هزار	-1720
▁آزادي	-1721
▁هال	-1722
▁اهڙو	-1723
▁re	-1724
▁رز	-1725
▁نموني	-1726
▁نٽرول	-1727
▁U	-1728
▁مٿان	-1729
▁عملي	-1730
▁X	-1731
▁ارا	-1732
▁درج	-1733
▁نيٽ	-1734
▁ارو	-1735
▁مڙ	-1736
▁واقع	-1737
ابر	-1738
▁لع	-1739
▁نسل	-1740
▁اڪي	-1741
▁چم	-1742
احت	-1743
▁خواب	-1744
شق	-1745
▁راح	-1746
▁معا	-1747
▁وٺند	-1748
▁ڌيان	-1749
▁مهيا	-1750
▁مثل	-1751
▁درد	-1752
ri	-1753
▁هفت	-1754
▁سڃاڻ	-1755
▁تہ	-1756
▁ڪهڙو	-1757
▁اَ	-1758
▁رابط	-1759
▁گريزي	-1760
▁ستق	-1761
▁موسم	-1762
▁وڻ	-1763
▁خواه	-1764
▁ڪريان	-1765
▁وضاحت	-1766
▁لڳا	-1767
▁بج	-1768
▁ذم	-1769
▁يک	-1770
▁غلطي	-1771
▁عدالت	-1772
ائل	-1773
▁ليک	-1774
▁سف	-1775
▁مست	-1776
▁آرام	-1777
▁ً	-1778
▁بينڪ	-1779
▁يورپ	-1780
يڪل	-1781
▁ch	-1782
▁نشان	-1783
▁حص	-1784
▁ريشان	-1785
▁پهچي	-1786
▁شم	-1787
▁گرف	-1788
يب	-1789
▁رکيو	-1790
▁ذميوا	-1791
▁كان	-1792
▁روشني	-1793
▁ڪرد	-1794
▁ميد	-1795
▁الد	-1796
▁ڪئين	-1797
▁سگهون	-1798
▁هنڌ	-1799
▁وه	-1800
▁هوا	-1801
▁ڪيم	-1802
▁خاصيت	-1803
▁وف	-1804
▁12	-1805
▁کن	-1806
▁سور	-1807
هين	-1808
▁برابر	-1809
▁هلي	-1810
آن	-1811
شل	-1812
▁عجب	-1813
سڪ	-1814
▁شرط	-1815
▁روسي	-1816
▁پوي	-1817
▁استاد	-1818
▁حسين	-1819
▁يڪشن	-1820
▁منھنج	-1821
▁تنظيم	-1822
▁يپ	-1823
▁ساز	-1824
▁پيام	-1825
▁هيچ	-1826
▁مليو	-1827
▁ڪريون	-1828
▁ڻي	-1829
▁دين	-1830
▁ءِ	-1831
▁تش	-1832
▁ــــ	-1833
▁واڌ	-1834
هڪ	-1835
الر	-1836
وٽ	-1837
▁وغ	-1838
▁هدا	-1839
▁علاوه	-1840
▁جلدي	-1841
▁شكرا	-1842
ريز	-1843
▁اعت	-1844
▁سٽي	-1845
▁ڪرڻو	-1846
▁حيث	-1847
▁وَ	-1848
ti	-1849
▁اهل	-1850
▁قتل	-1851
▁انتي	-1852
▁هار	-1853
▁تصديق	-1854
▁جنھن	-1855
▁شيءِ	-1856
▁وڪرو	-1857
▁نوڪري	-1858
▁ڪردگي	-1859
▁مالي	-1860
▁جهاز	-1861
يه	-1862
▁واٽ	-1863
▁شاعر	-1864
▁پورٽ	-1865
▁حيثيت	-1866
▁سمجها	-1867
▁ng	-1868
▁رستو	-1869
id	-1870
▁زور	-1871
▁گروپ	-1872
▁فرانس	-1873
▁ڪراچي	-1874
▁صدي	-1875
▁ٻولي	-1876
▁لان	-1877
▁پليٽ	-1878
▁رفتار	-1879
▁رڪاري	-1880
▁اسٽور	-1881
▁يڪڏھن	-1882
رس	-1883
شڪ	-1884
▁جائز	-1885
▁عرب	-1886
▁اث	-1887
▁سنڀ	-1888
▁نفر	-1889
▁ڇوڪري	-1890
▁يال	-1891
▁انتها	-1892
▁نمي	-1893
▁هريان	-1894
▁ماني	-1895
▁گھٽ	-1896
▁تصور	-1897
▁دوا	-1898
▁ااااا	-1899
▁خار	-1900
▁زال	-1901
▁ورا	-1902
▁ماڊل	-1903
▁ياتي	-1904
▁ٺهيل	-1905
▁ڪارڊ	-1906
▁پھ	-1907
▁فيصل	-1908
▁ڊالر	-1909
دن	-1910
▁غريب	-1911
▁ذار	-1912
▁مينٽ	-1913
▁يماري	-1914
▁ميٽر	-1915
▁رين	-1916
▁زبان	-1917
▁رسائي	-1918
▁زي	-1919
▁ڪلڪ	-1920
ڀر	-1921
▁ملڪي	-1922
▁آفيس	-1923
▁اصول	-1924
▁كي	-1925
ay	-1926
▁بڻائ	-1927
▁نڪ	-1928
▁سيٽ	-1929
▁امام	-1930
▁بز	-1931
▁فن	-1932
▁موٽ	-1933
▁ڪيائ	-1934
نيٽ	-1935
▁اون	-1936
▁امير	-1937
▁تجربو	-1938
انو	-1939
▁K	-1940
پو	-1941
▁فيس	-1942
▁ٍ	-1943
▁خوف	-1944
▁بلاگ	-1945
▁اٽ	-1946
▁زو	-1947
▁رگر	-1948
▁ھڪڙي	-1949
▁يج	-1950
▁چند	-1951
▁سياح	-1952
▁^	-1953
▁ريت	-1954
▁پڇيو	-1955
▁ستقبل	-1956
▁گرمي	-1957
▁سمجهي	-1958
▁ميابي	-1959
▁پيوٽر	-1960
▁اقت	-1961
▁بحث	-1962
▁ديو	-1963
ابت	-1964
▁طر	-1965
▁ڪيٽ	-1966
لت	-1967
▁50	-1968
▁آئ	-1969
▁ايندو	-1970
گار	-1971
▁زا	-1972
▁ورڪ	-1973
▁ماهر	-1974
▁ويج	-1975
▁اعظم	-1976
▁آءِ	-1977
▁ڪوڙ	-1978
▁پيغام	-1979
▁ٿيندا	-1980
ڏو	-1981
▁اڌ	-1982
ياري	-1983
▁بورڊ	-1984
▁دم	-1985
▁سافٽ	-1986
▁ٽرنيٽ	-1987
▁ڇڏيند	-1988
▁اللي	-1989
▁ڊائون	-1990
▁V	-1991
▁آآ	-1992
▁لاڳو	-1993
▁هڪڙي	-1994
▁ڏاڍو	-1995
▁نص	-1996
دود	-1997
▁يٰ	-1998
▁ٻڌي	-1999
▁ڳالھ	-2000
▁ڪونهي	-2001
▁ريم	-2002
▁وزن	-2003
گو	-2004
▁ڪين	-2005
▁فل	-2006
▁حب	-2007
▁ڪٽ	-2008
▁ڪوڊ	-2009
▁ائن	-2010
غان	-2011
▁خصوص	-2012
▁راج	-2013
▁ءُ	-2014
▁بير	-2015
▁ساڳي	-2016
▁يڪس	-2017
الف	-2018
▁1.	-2019
▁واس	-2020
▁اڳي	-2021
▁شاعري	-2022
▁تاب	-2023
▁تجز	-2024
▁جيت	-2025
▁نيشن	-2026
ائر	-2027
▁نها	-2028
▁علام	-2029
▁رگرمي	-2030
▁خام	-2031
▁يئر	-2032
▁سج	-2033
▁نڊ	-2034
▁قدي	-2035
▁شڪار	-2036
▁ويئي	-2037
ريٽ	-2038
▁افغان	-2039
▁پوئ	-2040
▁صد	-2041
▁قبل	-2042
▁نل	-2043
▁توق	-2044
▁اسٽي	-2045
▁فعال	-2046
ot	-2047
▁كت	-2048
▁ڊگهي	-2049
▁سڪرين	-2050
▁بود	-2051
▁فلس	-2052
▁ياس	-2053
▁ايا	-2054
▁گرم	-2055
▁سنڀال	-2056
▁بيت	-2057
▁دٻ	-2058
▁لاش	-2059
▁on	-2060
▁فض	-2061
▁آمد	-2062
▁يقيني	-2063
▁ادب	-2064
▁شڪل	-2065
▁ic	-2066
▁لاق	-2067
▁ايندي	-2068
▁حم	-2069
▁ھر	-2070
▁جز	-2071
▁عذ	-2072
▁مهم	-2073
▁اڳيان	-2074
▁بڻائي	-2075
▁دفعو	-2076
▁سگهيو	-2077
▁عالم	-2078
▁عه	-2079
▁قص	-2080
▁مڃ	-2081
▁ٿيندڙ	-2082
▁راز	-2083
▁ويون	-2084
▁وبائل	-2085
▁ٿورو	-2086
▁#	-2087
▁رآ	-2088
▁اکي	-2089
▁فيه	-2090
▁رهندو	-2091
ورن	-2092
▁ثابت	-2093
▁سائي	-2094
▁اھي	-2095
▁محدود	-2096
▁داد	-2097
▁خوشي	-2098
▁لکيو	-2099
▁قوامي	-2100
▁هلا	-2101
▁ڳولي	-2102
▁وم	-2103
▁رخ	-2104
▁زمان	-2105
▁ايترو	-2106
▁امن	-2107
▁ڪندڙن	-2108
▁سوشل	-2109
▁فٽ	-2110
▁نك	-2111
▁ادي	-2112
▁نڪر	-2113
سٽر	-2114
▁هرحال	-2115
▁فري	-2116
▁حساب	-2117
▁منظر	-2118
ونس	-2119
▁اڙ	-2120
▁هڙي	-2121
▁قديم	-2122
▁پيءُ	-2123
▁چوي	-2124
▁مخصوص	-2125
▁يري	-2126
▁جت	-2127
▁قابلي	-2128
▁ڪئ	-2129
▁يوم	-2130
▁ڪان	-2131
▁سگهان	-2132
ڪڻ	-2133
▁صورتح	-2134
▁ياب	-2135
▁سگھو	-2136
▁يگر	-2137
▁حتى	-2138
▁اڳواڻ	-2139
قيد	-2140
▁ريف	-2141
▁مخالف	-2142
لڊ	-2143
▁طاب	-2144
▁+	-2145
▁هوس	-2146
مر	-2147
▁ڇپ	-2148
▁يده	-2149
▁؟؟	-2150
▁11	-2151
نن	-2152
▁گير	-2153
▁ميدان	-2154
طر	-2155
▁يافت	-2156
▁زخ	-2157
▁ليه	-2158
▁ٺيڪ	-2159
▁مپ	-2160
▁ليس	-2161
▁اهڙا	-2162
▁فهم	-2163
▁يلا	-2164
▁ينڊ	-2165
▁اينڊ	-2166
▁قرار	-2167
▁ابندي	-2168
▁لط	-2169
▁بابا	-2170
▁ro	-2171
▁sh	-2172
▁نون	-2173
▁جهڙوڪ	-2174
▁عاد	-2175
▁گيري	-2176
▁جمي	-2177
▁پٺ	-2178
▁هدايت	-2179
▁يب	-2180
▁دوستن	-2181
▁سياست	-2182
▁حالتن	-2183
al	-2184
it	-2185
me	-2186
وش	-2187
▁چڪا	-2188
▁مياب	-2189
▁عرصي	-2190
▁درو	-2191
▁امه	-2192
▁ڪام	-2193
▁هڪڙو	-2194
▁?	-2195
▁مَ	-2196
▁ليش	-2197
▁نقلاب	-2198
▁عيد	-2199
▁ماري	-2200
ئڻ	-2201
▁ڌرتي	-2202
▁الدين	-2203
▁آگ	-2204
▁ڀري	-2205
▁ساڻ	-2206
▁تعارف	-2207
▁ليل	-2208
▁سمنڊ	-2209
▁انٽر	-2210
▁مھ	-2211
▁اءِ	-2212
▁وص	-2213
▁kn	-2214
▁مب	-2215
▁مالڪ	-2216
▁نيوز	-2217
يع	-2218
▁نهن	-2219
▁نڪري	-2220
گه	-2221
▁هيا	-2222
▁هير	-2223
▁ڳنڍ	-2224
▁لفظن	-2225
▁گهڻا	-2226
▁اڏ	-2227
▁اور	-2228
▁ڳولا	-2229
▁اضافي	-2230
▁ڪاري	-2231
▁ملڻ	-2232
▁اگردن	-2233
▁ندر	-2234
▁گذر	-2235
▁جد	-2236
▁پک	-2237
▁ويل	-2238
▁لاقات	-2239
▁سَ	-2240
▁نٿي	-2241
رار	-2242
▁سئ	-2243
▁ائون	-2244
▁۱	-2245
▁سعو	-2246
▁رسال	-2247
▁رجسٽر	-2248
▁زماني	-2249
▁سوچيو	-2250
▁دما	-2251
▁راد	-2252
▁توقع	-2253
▁مختصر	-2254
▁جڳهه	-2255
يره	-2256
▁فهر	-2257
▁اوجود	-2258
هيو	-2259
▁ڏاڍي	-2260
xt	-2261
▁فهرست	-2262
▁ٻڌڻ	-2263
▁جيل	-2264
▁ڪنھن	-2265
▁خواهش	-2266
▁نيشنل	-2267
اھ	-2268
▁لهي	-2269
▁ملين	-2270
ونا	-2271
▁اظ	-2272
▁ويجهو	-2273
شي	-2274
▁يف	-2275
▁يات	-2276
▁ڪُ	-2277
▁راڻ	-2278
▁وٽي	-2279
اء	-2280
▁18	-2281
▁ڏنا	-2282
اهه	-2283
▁صل	-2284
▁هيه	-2285
▁سفار	-2286
▁بق	-2287
تال	-2288
▁نسٽ	-2289
▁ڪلاڪ	-2290
▁ٽرانس	-2291
▁انچ	-2292
▁فائدو	-2293
سل	-2294
▁اءُ	-2295
▁شعر	-2296
▁گرفتا	-2297
▁شوف	-2298
▁منتقل	-2299
▁دماغ	-2300
▁شوق	-2301
▁وڌائڻ	-2302
▁زن	-2303
▁مشڪل	-2304
رير	-2305
▁مرحل	-2306
▁اخبار	-2307
▁روڊ	-2308
▁چڪي	-2309
▁ائو	-2310
▁ڀلي	-2311
▁يي	-2312
▁گزار	-2313
▁سل	-2314
▁فڪر	-2315
قافت	-2316
▁بدر	-2317
▁ٽائي	-2318
▁ثقافت	-2319
شر	-2320
▁تجو	-2321
▁لنڪ	-2322
▁ٽڪر	-2323
▁شاندا	-2324
▁انگي	-2325
▁خلاص	-2326
▁سگھن	-2327
▁سواء	-2328
▁اندين	-2329
▁جهڙي	-2330
▁فط	-2331
▁طبي	-2332
▁گذري	-2333
▁سهولت	-2334
▁پريشن	-2335
▁رف	-2336
▁know	-2337
▁جڏھن	-2338
ادل	-2339
▁لائي	-2340
▁تخليق	-2341
▁عين	-2342
▁بدل	-2343
اظ	-2344
چر	-2345
ماد	-2346
▁لق	-2347
▁روپ	-2348
▁سوي	-2349
▁ويز	-2350
▁وڏا	-2351
▁2.	-2352
▁خا	-2353
▁وط	-2354
▁فور	-2355
▁تحت	-2356
▁نسي	-2357
▁عتماد	-2358
▁وح	-2359
▁نع	-2360
▁ايج	-2361
▁پال	-2362
▁مهينن	-2363
▁de	-2364
▁بھ	-2365
▁رستي	-2366
▁منزل	-2367
▁خخ	-2368
▁رڪار	-2369
▁توانا	-2370
▁سماني	-2371
▁z	-2372
▁nd	-2373
▁هندست	-2374
▁چيزي	-2375
▁يٺ	-2376
▁ننڊ	-2377
▁رڪارڊ	-2378
▁وغيره	-2379
▁ٻڌائي	-2380
▁ec	-2381
▁اااا	-2382
▁ْ	-2383
▁بيشڪ	-2384
▁غور	-2385
▁مره	-2386
▁جيان	-2387
▁سڀئي	-2388
جر	-2389
ڇي	-2390
▁لکيل	-2391
▁25	-2392
▁امهون	-2393
▁اکيون	-2394
لاس	-2395
لسل	-2396
▁مگر	-2397
▁سپتال	-2398
▁نقش	-2399
▁گاڏي	-2400
▁مسلسل	-2401
▁هئڻ	-2402
▁وفي	-2403
▁J	-2404
▁~	-2405
▁ريل	-2406
▁بجلي	-2407
▁ليکڪ	-2408
▁حسن	-2409
▁اهميت	-2410
▁يراني	-2411
▁رکو	-2412
▁ولو	-2413
▁يسٽ	-2414
is	-2415
لاق	-2416
▁ڳا	-2417
▁مڙس	-2418
▁جئين	-2419
▁مقامي	-2420
▁شكل	-2421
▁زر	-2422
▁ارف	-2423
▁ايتري	-2424
▁su	-2425
▁لحاظ	-2426
▁ٻڌائ	-2427
▁رقرار	-2428
▁عاه	-2429
▁حبي	-2430
▁قرآن	-2431
▁آپ	-2432
▁وڃو	-2433
▁نار	-2434
▁جرم	-2435
▁طبق	-2436
▁عشق	-2437
رل	-2438
▁اتو	-2439
▁فوج	-2440
▁ارفين	-2441
▁لائين	-2442
▁ارس	-2443
▁موقعو	-2444
▁فكر	-2445
▁حيرت	-2446
▁داشت	-2447
▁آل	-2448
▁انڊ	-2449
▁اچو	-2450
▁ناس	-2451
▁اعليٰ	-2452
▁نتظام	-2453
▁।	-2454
▁نتيجي	-2455
▁شڪ	-2456
▁نِ	-2457
▁هيءُ	-2458
▁فصل	-2459
▁وجه	-2460
▁وقف	-2461
ناه	-2462
▁آڻڻ	-2463
▁اڻڻ	-2464
▁بلڪ	-2465
▁نيڪ	-2466
▁عنصر	-2467
▁رٽيڪل	-2468
▁نہ	-2469
▁اڃان	-2470
▁ناڪام	-2471
▁14	-2472
▁عبد	-2473
▁قرض	-2474
▁يسي	-2475
▁ٺاهيو	-2476
▁ايڇ	-2477
▁قلب	-2478
▁ڏيندا	-2479
▁صو	-2480
▁شڪر	-2481
▁يام	-2482
▁سميت	-2483
▁فائل	-2484
▁وسار	-2485
▁ونڊو	-2486
▁وووو	-2487
▁آساني	-2488
▁پوئتي	-2489
▁راڊ	-2490
▁عجي	-2491
▁هلند	-2492
▁وائرس	-2493
▁حا	-2494
▁ائڻ	-2495
▁ويس	-2496
▁text	-2497
▁بندي	-2498
▁چيني	-2499
▁گراف	-2500
▁اتح	-2501
▁بران	-2502
▁مصنو	-2503
▁قس	-2504
▁اتر	-2505
▁ليٽ	-2506
▁مصنوع	-2507
جا	-2508
▁بئن	-2509
▁ماه	-2510
▁مسي	-2511
▁ڏکڻ	-2512
▁ويه	-2513
▁مجهيو	-2514
▁مسئلن	-2515
▁وره	-2516
▁عجيب	-2517
▁قاعد	-2518
▁هور	-2519
▁ييي	-2520
▁بغير	-2521
▁درست	-2522
▁شايع	-2523
▁اهيان	-2524
▁متحان	-2525
▁يورپي	-2526
▁اً	-2527
▁آسم	-2528
▁ورن	-2529
▁ڏينھن	-2530
▁مئ	-2531
▁ادار	-2532
دير	-2533
▁اجلاس	-2534
▁ايون	-2535
▁نگر	-2536
▁قسمن	-2537
▁انع	-2538
▁امان	-2539
▁نسٽال	-2540
▁٪	-2541
▁ڪٽو	-2542
▁طلع	-2543
▁ورٽ	-2544
▁ھون	-2545
ھر	-2546
▁حوال	-2547
▁رکند	-2548
▁ايمان	-2549
▁منظور	-2550
▁li	-2551
▁الڳ	-2552
▁براي	-2553
▁ميمبر	-2554
▁ذات	-2555
▁ڳولڻ	-2556
▁چور	-2557
▁وانا	-2558
▁شن	-2559
ٿر	-2560
▁ڪَ	-2561
▁تحفظ	-2562
▁ديد	-2563
▁بئنڪ	-2564
▁ائس	-2565
▁عوامي	-2566
el	-2567
زم	-2568
▁مغ	-2569
▁لال	-2570
▁ميو	-2571
▁وهه	-2572
▁كر	-2573
▁اصلا	-2574
▁مقدار	-2575
▁هڻ	-2576
▁وحد	-2577
▁ڪاب	-2578
▁خالي	-2579
▁ٽيسٽ	-2580
▁قدرتي	-2581
▁ضاب	-2582
▁ڀارت	-2583
▁طلب	-2584
▁ينل	-2585
▁يول	-2586
▁جاچ	-2587
▁رهند	-2588
▁And	-2589
▁سير	-2590
▁ضابط	-2591
▁ڊوائ	-2592
▁لب	-2593
▁انص	-2594
▁وزي	-2595
▁ادري	-2596
▁ورتي	-2597
ريف	-2598
▁رڪن	-2599
▁حڪمت	-2600
▁سماج	-2601
▁خرڪار	-2602
▁انو	-2603
▁مهو	-2604
▁ادارن	-2605
▁پراڻي	-2606
▁نھي	-2607
▁دشمن	-2608
▁هوٽل	-2609
▁شخصيت	-2610
▁پوندي	-2611
▁چپ	-2612
▁روس	-2613
▁ڪندس	-2614
▁ڏيندي	-2615
▁ly	-2616
▁صور	-2617
▁ائسنس	-2618
▁ائيند	-2619
▁ماڻھو	-2620
ڌر	-2621
▁ڀيٽ	-2622
▁ننڍي	-2623
▁اظهار	-2624
▁مها	-2625
▁يدار	-2626
▁درواز	-2627
گرد	-2628
▁جار	-2629
▁خور	-2630
▁طيب	-2631
▁پهر	-2632
▁رابطو	-2633
▁عبدال	-2634
باس	-2635
▁هجن	-2636
▁وڪل	-2637
▁اچن	-2638
▁روا	-2639
▁عنو	-2640
▁وسيع	-2641
يز	-2642
▁ساڳيو	-2643
▁سعودي	-2644
▁گن	-2645
▁سول	-2646
▁وات	-2647
▁يهي	-2648
▁شعور	-2649
▁ٿوري	-2650
▁نب	-2651
▁يٽر	-2652
▁اخر	-2653
▁سڌو	-2654
▁حلوه	-2655
▁ڪسٽم	-2656
▁رائ	-2657
▁رض	-2658
▁حما	-2659
▁گڏو	-2660
▁Andr	-2661
▁مذهبي	-2662
▁100	-2663
▁جني	-2664
▁زير	-2665
▁سڏيو	-2666
▁عياري	-2667
▁Ma	-2668
▁مظ	-2669
▁انس	-2670
▁ايد	-2671
▁هست	-2672
▁گرد	-2673
▁فوجي	-2674
▁لڳند	-2675
▁مذهب	-2676
▁ترجم	-2677
▁شاگرد	-2678
ڙپ	-2679
▁وند	-2680
▁مهيني	-2681
▁اسر	-2682
▁ويڊيو	-2683
▁ارن	-2684
▁ss	-2685
▁شاهه	-2686
▁انجام	-2687
ٽڻ	-2688
▁es	-2689
▁شهي	-2690
▁انصاف	-2691
▁oid	-2692
▁تيل	-2693
▁ريڪ	-2694
▁تجرب	-2695
▁خيلي	-2696
▁خل	-2697
▁آسمان	-2698
▁اسپين	-2699
▁ساڳئي	-2700
▁رسم	-2701
▁ريٽ	-2702
▁مرڪز	-2703
▁سلسلي	-2704
▁حتج	-2705
▁گھرجي	-2706
▁أن	-2707
▁جنم	-2708
▁چنڊ	-2709
▁ٽرين	-2710
▁خاموش	-2711
▁In	-2712
▁كن	-2713
▁اذا	-2714
▁ڊجي	-2715
▁آهنگ	-2716
▁لڪ	-2717
▁ڄاڻي	-2718
▁ڊجيٽل	-2719
▁دڪان	-2720
▁گڏجي	-2721
▁حصن	-2722
▁چڱي	-2723
▁مارچ	-2724
▁پويان	-2725
بال	-2726
▁جمو	-2727
▁ايئن	-2728
▁روسيس	-2729
▁ڪيترو	-2730
▁مائ	-2731
▁جموعي	-2732
▁سٽيشن	-2733
بلي	-2734
▁مئي	-2735
▁حتجاج	-2736
▁40	-2737
وڙ	-2738
پر	-2739
▁دستا	-2740
▁ممكن	-2741
▁ڪال	-2742
▁ريشن	-2743
▁منظم	-2744
▁لباس	-2745
فاق	-2746
▁دخل	-2747
▁ردا	-2748
▁روف	-2749
▁عزي	-2750
▁ڪنڊ	-2751
▁فطرت	-2752
▁سياحت	-2753
▁عمارت	-2754
▁تل	-2755
▁لئ	-2756
▁حمل	-2757
▁شما	-2758
▁عيس	-2759
▁راضي	-2760
▁ڪورٽ	-2761
▁مهوري	-2762
▁com	-2763
▁ڪپڙ	-2764
▁هع	-2765
▁ڊپ	-2766
▁چيڪ	-2767
▁ادبي	-2768
▁نمائ	-2769
▁ڙهند	-2770
▁پرس	-2771
▁گاه	-2772
▁اڪيلو	-2773
▁تحريڪ	-2774
▁کر	-2775
▁ڪالي	-2776
▁اشارو	-2777
▁ڪٽوبر	-2778
li	-2779
ut	-2780
▁پشن	-2781
▁جنسي	-2782
▁باغ	-2783
▁ملائ	-2784
▁عط	-2785
▁محنت	-2786
▁13	-2787
▁يمبر	-2788
▁عمولي	-2789
▁ريڊ	-2790
▁سزا	-2791
▁عزت	-2792
▁هُو	-2793
▁يڙ	-2794
▁ورڊ	-2795
▁برانڊ	-2796
ch	-2797
▁هُن	-2798
▁وڏن	-2799
▁ڪور	-2800
▁قسمت	-2801
▁ٽيڪس	-2802
▁طابقت	-2803
▁معنيٰ	-2804
▁موٽر	-2805
▁نماز	-2806
▁مسئلي	-2807
▁هِ	-2808
▁مشت	-2809
▁پٿر	-2810
▁چيز	-2811
▁جميل	-2812
▁فقير	-2813
▁ڪمري	-2814
▁ايندا	-2815
▁بدران	-2816
▁طريقا	-2817
▁ائپ	-2818
▁حرف	-2819
▁عقل	-2820
▁فوت	-2821
▁ماپ	-2822
▁مني	-2823
▁پائ	-2824
▁چڱو	-2825
▁ٽين	-2826
▁تعريف	-2827
▁نشاني	-2828
ده	-2829
▁16	-2830
▁گيت	-2831
لوي	-2832
▁رك	-2833
▁اكل	-2834
▁(1	-2835
▁or	-2836
▁تڪڙ	-2837
▁لنڊ	-2838
▁لوڪ	-2839
▁ويند	-2840
▁تجزيو	-2841
ارٽ	-2842
▁کيڏ	-2843
▁ميان	-2844
▁نڌ	-2845
▁ڪلو	-2846
▁اضاف	-2847
▁ڪرائي	-2848
▁j	-2849
▁روي	-2850
▁صدق	-2851
▁نگن	-2852
▁کليل	-2853
▁گهربل	-2854
▁قد	-2855
▁نءَ	-2856
▁سيڙپ	-2857
▁شهري	-2858
▁pp	-2859
▁كنت	-2860
▁سموري	-2861
▁ڪڍي	-2862
▁پٽمبر	-2863
▁ڪتابن	-2864
▁>>	-2865
▁Ne	-2866
▁سيريز	-2867
رب	-2868
▁نصي	-2869
▁هيڪ	-2870
وم	-2871
▁عزيز	-2872
▁نواز	-2873
▁گراهڪ	-2874
جد	-2875
ٻي	-2876
▁وك	-2877
▁آدم	-2878
▁نسخ	-2879
▁موٽي	-2880
▁واپسي	-2881
▁پهچ	-2882
▁ڪابه	-2883
▁يمبلي	-2884
▁۔۔	-2885
▁مرا	-2886
▁يڪل	-2887
▁ھئي	-2888
▁سمارٽ	-2889
▁3.	-2890
▁راهي	-2891
▁يرا	-2892
▁<<	-2893
▁ادر	-2894
▁ھاڻي	-2895
▁عنوان	-2896
▁الز	-2897
▁سڄو	-2898
▁مکي	-2899
▁بحال	-2900
▁تبادل	-2901
▁ڊيزائ	-2902
▁گذاري	-2903
▁na	-2904
▁بع	-2905
▁آبا	-2906
▁طان	-2907
▁كتب	-2908
▁ميز	-2909
▁خريدا	-2910
▁وسيقي	-2911
ليت	-2912
▁برد	-2913
▁فائي	-2914
▁آبادي	-2915
▁جائزو	-2916
▁عليها	-2917
▁ڪاليج	-2918
▁تار	-2919
▁جاڳ	-2920
▁tion	-2921
▁طريقن	-2922
▁ملازم	-2923
▁ڪميون	-2924
▁وئ	-2925
▁الف	-2926
▁واسط	-2927
▁Co	-2928
▁خخخ	-2929
▁پئسا	-2930
▁ڊزائ	-2931
▁جام	-2932
▁يورو	-2933
▁ارڻ	-2934
▁الص	-2935
▁حيران	-2936
▁سفارش	-2937
بيت	-2938
▁nt	-2939
▁se	-2940
▁وپ	-2941
▁اڙي	-2942
▁تني	-2943
▁شمار	-2944
▁نوان	-2945
▁ٽيلي	-2946
▁ڃ	-2947
▁شوي	-2948
▁سمور	-2949
▁فوري	-2950
▁فوٽو	-2951
▁سخ	-2952
▁ڏانھن	-2953
▁24	-2954
▁تهي	-2955
▁نما	-2956
▁دورو	-2957
▁زخمي	-2958
▁انعام	-2959
▁جنرل	-2960
▁سوچي	-2961
▁اتفاق	-2962
▁جيترو	-2963
▁لاس	-2964
▁مدا	-2965
▁بونس	-2966
▁ائيڪل	-2967
▁ni	-2968
▁ٻُ	-2969
▁دون	-2970
▁پول	-2971
▁تض	-2972
▁ابي	-2973
▁بلو	-2974
▁ميوز	-2975
▁ڪرائڻ	-2976
▁ايان	-2977
▁شهيد	-2978
▁جمل	-2979
▁حبيب	-2980
▁يٽنگ	-2981
▁اِه	-2982
▁لله	-2983
▁ڪلاس	-2984
▁ترجمو	-2985
▁مشتمل	-2986
▁فرد	-2987
▁@	-2988
▁ليا	-2989
▁نيست	-2990
▁ويهي	-2991
▁يها	-2992
▁ارسال	-2993
▁انڪار	-2994
▁چوندا	-2995
▁قيام	-2996
▁اليسي	-2997
▁it	-2998
▁ئٽ	-2999
▁امڪان	-3000
▁جنيئر	-3001
ضر	-3002
▁لعب	-3003
▁واي	-3004
▁فلسف	-3005
▁پرست	-3006
▁حاج	-3007
▁ئس	-3008
▁مک	-3009
▁تعا	-3010
▁كله	-3011
▁مشك	-3012
▁۔۔۔	-3013
▁تنھن	-3014
▁چارج	-3015
▁ڏيئي	-3016
▁خاطر	-3017
▁روشن	-3018
▁وني	-3019
▁ٻڌو	-3020
▁ڀيرا	-3021
▁ڪانه	-3022
▁رکندڙ	-3023
▁انك	-3024
▁وطن	-3025
▁يڊيا	-3026
▁ٽيبل	-3027
▁چئ	-3028
▁اره	-3029
▁هنگ	-3030
▁آرڊر	-3031
▁آگسٽ	-3032
▁ڪِ	-3033
▁وائي	-3034
▁آفيسر	-3035
▁هينئر	-3036
رڪ	-3037
▁ll	-3038
▁رما	-3039
▁ستي	-3040
▁مزد	-3041
▁ثاني	-3042
▁سوچڻ	-3043
▁the	-3044
▁ئيگي	-3045
▁يونٽ	-3046
▁تربيت	-3047
▁سلامت	-3048
▁آڻ	-3049
▁ٿر	-3050
▁قيم	-3051
▁راءِ	-3052
▁اضافو	-3053
▁هچائڻ	-3054
se	-3055
▁کڻڻ	-3056
▁17	-3057
▁ساٿ	-3058
▁دائين	-3059
▁واقف	-3060
▁ٽيون	-3061
▁ملڪيت	-3062
▁وزيشن	-3063
tion	-3064
▁امين	-3065
▁ation	-3066
▁الت	-3067
▁امر	-3068
▁كيف	-3069
▁ڀلا	-3070
▁كلام	-3071
▁ايشيا	-3072
▁جاء	-3073
▁لنگ	-3074
▁ووو	-3075
▁سمجهڻ	-3076
▁سڃاڻپ	-3077
▁ونڊوز	-3078
▁کل	-3079
▁لون	-3080
▁مور	-3081
▁ڀريل	-3082
تل	-3083
▁اڇ	-3084
▁فرض	-3085
▁اما	-3086
▁جنس	-3087
▁قال	-3088
▁دليل	-3089
▁صفحا	-3090
▁وصول	-3091
▁فتح	-3092
▁an	-3093
▁رر	-3094
▁يخ	-3095
▁رئي	-3096
▁آسٽر	-3097
▁حمايت	-3098
▁mi	-3099
▁پُ	-3100
▁حاد	-3101
▁رحم	-3102
▁يٺل	-3103
▁يمكن	-3104
▁رهندا	-3105
▁سبق	-3106
▁ويچ	-3107
▁اخت	-3108
▁بئي	-3109
▁وهي	-3110
▁دريا	-3111
▁رابطي	-3112
نه	-3113
▁ؤ	-3114
▁پَ	-3115
▁عهد	-3116
▁لها	-3117
▁ساٿي	-3118
▁رائيڊ	-3119
▁سيڙپڪ	-3120
▁ect	-3121
▁مڇي	-3122
▁اداري	-3123
▁ma	-3124
▁mp	-3125
▁زنده	-3126
▁رائيو	-3127
▁يرو	-3128
▁روئ	-3129
▁شده	-3130
▁نكت	-3131
▁سگھجي	-3132
▁مسئلا	-3133
يءَ	-3134
▁ترڪي	-3135
▁جنوري	-3136
ڊيٽ	-3137
▁رام	-3138
▁عندي	-3139
▁وسيل	-3140
▁گزارش	-3141
ڳي	-3142
▁وڪليو	-3143
▁يورٽي	-3144
▁ورها	-3145
▁هوائي	-3146
خر	-3147
▁احمد	-3148
▁رآمد	-3149
▁نومبر	-3150
▁ag	-3151
▁رسيد	-3152
▁مکيه	-3153
▁ھوند	-3154
▁تجويز	-3155
▁تنھنج	-3156
▁موقعي	-3157
▁ممم	-3158
▁تعرف	-3159
▁هليو	-3160
▁ائلون	-3161
▁وڊ	-3162
▁تاج	-3163
▁حالا	-3164
▁ماضي	-3165
▁الو	-3166
▁لسٽ	-3167
▁هائو	-3168
▁اپڊيٽ	-3169
ليف	-3170
▁آھ	-3171
▁خون	-3172
▁هوش	-3173
▁شتهار	-3174
▁نز	-3175
▁ٻڌل	-3176
▁پوک	-3177
▁ريان	-3178
▁هلائڻ	-3179
▁ion	-3180
▁اگه	-3181
▁نان	-3182
▁جهان	-3183
▁	-3184
ي	-3185
ا	-3186
ه	-3187
ن	-3188
و	-3189
ر	-3190
م	-3191
ل	-3192
ت	-3193
س	-3194
ج	-3195
ڪ	-3196
د	-3197
ب	-3198
.	-3199
پ	-3200
آ	-3201
ئ	-3202
ک	-3203
ع	-3204
ڻ	-3205
ف	-3206
گ	-3207
ش	-3208
ق	-3209
،	-3210
ح	-3211
ٽ	-3212
ٿ	-3213
ڏ	-3214
ـ	-3215
ز	-3216
خ	-3217
۾	-3218
ء	-3219
چ	-3220
ص	-3221
۽	-3222
ھ	-3223
ط	-3224
ڊ	-3225
ڙ	-3226
ِ	-3227
ك	-3228
ڳ	-3229
ٻ	-3230
"	-3231
ڌ	-3232
:	-3233
َ	-3234
e	-3235
1	-3236
ض	-3237
ڇ	-3238
0	-3239
ڀ	-3240
a	-3241
ٺ	-3242
ظ	-3243
i	-3244
2	-3245
t	-3246
o	-3247
ذ	-3248
ُ	-3249
r	-3250
n	-3251
غ	-3252
s	-3253
؟	-3254
-	-3255
)	-3256
(	-3257
ث	-3258
ڃ	-3259
l	-3260
!	-3261
ڄ	-3262
3	-3263
5	-3264
d	-3265
c	-3266
9	-3267
u	-3268
4	-3269
,	-3270
ى	-3271
ة	-3272
m	-3273
8	-3274
6	-3275
h	-3276
7	-3277
p	-3278
ڍ	-3279
g	-3280
أ	-3281
S	-3282
y	-3283
ی	-3284
A	-3285
۔	-3286
'	-3287
b	-3288
>	-3289
/	-3290
k	-3291
C	-3292
<	-3293
w	-3294
M	-3295
T	-3296
ہ	-3297
f	-3298
_	-3299
P	-3300
D	-3301
I	-3302
v	-3303
؛	-3304
=	-3305
N	-3306
B	-3307
O	-3308
E	-3309
*	-3310
x	-3311
ڦ	-3312
L	-3313
ؤ	-3314
ڱ	-3315
G	-3316
R	-3317
ٰ	-3318
H	-3319
[	-3320
]	-3321
F	-3322
U	-3323
W	-3324
إ	-3325
ٌ	-3326
X	-3327
ً	-3328
V	-3329
z	-3330
ّ	-3331
K	-3332
^	-3333
٪	-3334
ے	-3335
•	-3336
$	-3337
ژ	-3338
ٍ	-3339
ٹ	-3340
j	-3341
?	-3342
+	-3343
#	-3344
~	-3345
۱	-3346
J	-3347
Y	-3348
ْ	-3349
ې	-3350
।	-3351
Q	-3352
ڷ	-3353
Z	-3354
😂	-3355
@	-3356
ۈ	-3357
۲	-3358
ڈ	-3359
%	-3360
ړ	-3361
q	-3362
۰	-3363
ں	-3364
&	-3365
{	-3366
}	-3367
٠	-3368
;	-3369
۳	-3370
א	-3371
·	-3372
١	-3373
۴	-3374
ګ	-3375
۵	-3376
ډ	-3377
٢	-3378
ځ	-3379
ږ	-3380
ټ	-3381
ڵ	-3382
ڑ	-3383
●	-3384
۹	-3385
ښ	-3386
्	-3387
°	-3388
️	-3389
۸	-3390
£	-3391
ा	-3392
♥	-3393
❤	-3394
र	-3395
څ	-3396
€	-3397
×	-3398
۶	-3399
۷	-3400
🙂	-3401
क	-3402
٣	-3403
←	-3404
ڼ	-3405
→	-3406
ٱ	-3407
٥	-3408
ۍ	-3409
ि	-3410
٤	-3411
ो	-3412
म	-3413
٦	-3414
►	-3415
ב	-3416
ڛ	-3417
′	-3418
é	-3419
न	-3420
٩	-3421
ڹ	-3422
स	-3423
ۡ	-3424
त	-3425
٨	-3426
य	-3427
ٖ	-3428
ּ	-3429
ٔ	-3430
ۅ	-3431
े	-3432
ल	-3433
♪	-3434
ۆ	-3435
♡	-3436
®	-3437
Ô	-3438
ٴ	-3439
ۑ	-3440
ღ	-3441
◄	-3442
٫	-3443
©	-3444
٧	-3445
प	-3446
ۉ	-3447
व	-3448
😉	-3449
§	-3450
а	-3451
🤣	-3452
ह	-3453
ۃ	-3454
☺	-3455
ڎ	-3456
ט	-3457
ڸ	-3458
ۊ	-3459
द	-3460
н	-3461
😁	-3462
è	-3463
ü	-3464
↑	-3465
♫	-3466
פ	-3467
›	-3468
😀	-3469
ु	-3470
â	-3471
î	-3472
ı	-3473
ڤ	-3474
≤	-3475
ڜ	-3476
о	-3477
ٗ	-3478
◆	-3479
и	-3480
ç	-3481
İ	-3482
ٓ	-3483
à	-3484
ग	-3485
ट	-3486
ۓ	-3487
💔	-3488
😍	-3489
★	-3490
ी	-3491
р	-3492
٬	-3493
ş	-3494
̈	-3495
ؑ	-3496
с	-3497
ڶ	-3498
ۀ	-3499
ێ	-3500
ब	-3501
е	-3502
ڣ	-3503
😭	-3504
כ	-3505
ݪ	-3506
ज	-3507
Ş	-3508
ٕ	-3509
उ	-3510
छ	-3511
ö	-3512
ࢪ	-3513
、	-3514
á	-3515
ڕ	-3516
श	-3517
॥	-3518
Ü	-3519
ω	-3520
м	-3521
т	-3522
ू	-3523
±	-3524
ै	-3525
😅	-3526
🙁	-3527
у	-3528
ۂ	-3529
ۧ	-3530
♦	-3531
ン	-3532
語	-3533
̷	-3534
ं	-3535
シ	-3536
д	-3537
ۄ	-3538
ۋ	-3539
√	-3540
л	-3541
ל	-3542
ٳ	-3543
ۿ	-3544
ड	-3545
ध	-3546
ド	-3547
؏	-3548
٘	-3549
‹	-3550
≥	-3551
😊	-3552
¤	-3553
ˇ	-3554
¢	-3555
ê	-3556
ؿ	-3557
ए	-3558
भ	-3559
ष	-3560
【	-3561
ツ	-3562
💞	-3563
¬	-3564
ë	-3565
α	-3566
к	-3567
٭	-3568
✿	-3569
】	-3570
﴾	-3571
﴿	-3572
👍	-3573
ā	-3574
ٚ	-3575
ە	-3576
ई	-3577
☆	-3578
¦	-3579
¿	-3580
ó	-3581
û	-3582
μ	-3583
ο	-3584
в	-3585
ٲ	-3586
ڝ	-3587
‐	-3588
⁄	-3589
з	-3590
ػ	-3591
ä	-3592
͜	-3593
β	-3594
ڒ	-3595
अ	-3596
च	-3597
⇄	-3598
─	-3599
🏻	-3600
ñ	-3601
х	-3602
ү	-3603
ա	-3604
ण	-3605
≈	-3606
■	-3607
😆	-3608
ž	-3609
ы	-3610
ؽ	-3611
ڠ	-3612
ࢦ	-3613
फ	-3614
。	-3615
菜	-3616
👌	-3617
Ø	-3618
÷	-3619
й	-3620
ֿ	-3621
ٛ	-3622
ڂ	-3623
आ	-3624
ख	-3625
⋆	-3626
🔥	-3627
😜	-3628
\	-3629
ğ	-3630
š	-3631
̨	-3632
б	-3633
г	-3634
ۇ	-3635
थ	-3636
ृ	-3637
🌹	-3638
¡	-3639
í	-3640
ô	-3641
̲	-3642
ᓄ	-3643
‡	-3644
▌	-3645
✅	-3646
✌	-3647
💘	-3648
Ç	-3649
̃	-3650
̧	-3651
ե	-3652
ݩ	-3653
ে	-3654
✔	-3655
❥	-3656
💙	-3657
😘	-3658
😛	-3659
̣	-3660
͡	-3661
ζ	-3662
ι	-3663
п	-3664
я	-3665
і	-3666
י	-3667
נ	-3668
↓	-3669
▐	-3670
◕	-3671
☀	-3672
✓	-3673
⭐	-3674
💕	-3675
🙈	-3676
Å	-3677
ï	-3678
č	-3679
œ	-3680
ξ	-3681
Ґ	-3682
ؐ	-3683
ڿ	-3684
ۦ	-3685
۩	-3686
۫	-3687
इ	-3688
ন	-3689
๑	-3690
♀	-3691
✋	-3692
✨	-3693
🌸	-3694
💗	-3695
😄	-3696
😇	-3697
🤔	-3698
Ö	-3699
Š	-3700
ː	-3701
ρ	-3702
ڨ	-3703
ँ	-3704
র	-3705
া	-3706
◊	-3707
♠	-3708
❣	-3709
音	-3710
😔	-3711
😝	-3712
😹	-3713
🙏	-3714
å	-3715
͠	-3716
Φ	-3717
Ω	-3718
ε	-3719
σ	-3720
ի	-3721
ն	-3722
ם	-3723
מ	-3724
ڭ	-3725
ۛ	-3726
ম	-3727
্	-3728
๋	-3729
※	-3730
♩	-3731
」	-3732
🌷	-3733
🖤	-3734
Ž	-3735
ɪ	-3736
ˈ	-3737
̤	-3738
η	-3739
ς	-3740
ч	-3741
ш	-3742
ո	-3743
ս	-3744
ր	-3745
ו	-3746
ע	-3747
ۗ	-3748
۞	-3749
ۤ	-3750
ۨ	-3751
ठ	-3752
ু	-3753
ஐ	-3754
ా	-3755
น	-3756
†	-3757
‿	-3758
▶	-3759
▷	-3760
▼	-3761
◇	-3762
☹	-3763
☻	-3764
♣	-3765
❀	-3766
❧	-3767
➡	-3768
⠀	-3769
「	-3770
・	-3771
🇩	-3772
🏃	-3773
💜	-3774
📷	-3775
😎	-3776
🥺	-3777
Á	-3778
ý	-3779
ć	-3780
ō	-3781
ɑ	-3782
̇	-3783
̶	-3784
ί	-3785
π	-3786
ҳ	-3787
ד	-3788
ؓ	-3789
ؼ	-3790
ٜ	-3791
ٞ	-3792
ٟ	-3793
ڞ	-3794
ܢ	-3795
ক	-3796
ত	-3797
দ	-3798
୭	-3799
า	-3800
ọ	-3801
⇣	-3802
⏪	-3803
▲	-3804
☝	-3805
♯	-3806
⚘	-3807
⚡	-3808
✯	-3809
🏼	-3810
😢	-3811
🤩	-3812
🥇	-3813
¶	-3814
ã	-3815
ð	-3816
ú	-3817
ē	-3818
ł	-3819
ż	-3820
ə	-3821
̅	-3822
̵	-3823
τ	-3824
ώ	-3825
ж	-3826
ц	-3827
э	-3828
մ	-3829
ւ	-3830
ן	-3831
ؒ	-3832
ٙ	-3833
ٝ	-3834
ڋ	-3835
ڔ	-3836
ۏ	-3837
ެ	-3838
झ	-3839
న	-3840
ಿ	-3841
്	-3842
ี	-3843
๛	-3844
າ	-3845
ᬼ	-3846
ị	-3847
⃣	-3848
−	-3849
⊙	-3850
╝	-3851
▪	-3852
◉	-3853
◎	-3854
◦	-3855
♍	-3856
✗	-3857
✘	-3858
✦	-3859
『	-3860
』	-3861
🇮	-3862
🇿	-3863
🌚	-3864
🌟	-3865
🍼	-3866
💖	-3867
💚	-3868
💪	-3869
💯	-3870
😱	-3871
😻	-3872
🦋	-3873
Ã	-3874
ø	-3875
ę	-3876
Ğ	-3877
Ħ	-3878
ʊ	-3879
̄	-3880
̐	-3881
θ	-3882
ν	-3883
φ	-3884
М	-3885
С	-3886
ь	-3887
є	-3888
հ	-3889
չ	-3890
ה	-3891
ז	-3892
ר	-3893
ٮ	-3894
ۜ	-3895
ۣ	-3896
۪	-3897
ौ	-3898
খ	-3899
য	-3900
়	-3901
ো	-3902
ਾ	-3903
ં	-3904
હ	-3905
ం	-3906
ම	-3907
ม	-3908
↯	-3909
∀	-3910
∫	-3911
╫	-3912
◀	-3913
♂	-3914
♬	-3915
✖	-3916
〇	-3917
よ	-3918
り	-3919
ミ	-3920
发	-3921
嘅	-3922
的	-3923
𐄒	-3924
🌿	-3925
🎼	-3926
🏾	-3927
👉	-3928
👊	-3929
👨	-3930
👩	-3931
💫	-3932
📚	-3933
🔞	-3934
🕘	-3935
😈	-3936
😋	-3937
😌	-3938
😒	-3939
😠	-3940
😦	-3941
😨	-3942
😪	-3943
😵	-3944
🙊	-3945
🤍	-3946
🤭	-3947
🧸	-3948
ò	-3949
Ă	-3950
ą	-3951
Đ	-3952
ě	-3953
ħ	-3954
Ł	-3955
ś	-3956
ƒ	-3957
ɛ	-3958
ˌ	-3959
̀	-3960
̊	-3961
̥	-3962
̯	-3963
γ	-3964
υ	-3965
ό	-3966
ϻ	-3967
Б	-3968
В	-3969
Т	-3970
Х	-3971
Я	-3972
Ҳ	-3973
Բ	-3974
տ	-3975
ח	-3976
ש	-3977
ڽ	-3978
ۙ	-3979
ۼ	-3980
ݛ	-3981
ݦ	-3982
ः	-3983
ব	-3984
ল	-3985
ি	-3986
ੀ	-3987
ੰ	-3988
ર	-3989
ે	-3990
ો	-3991
క	-3992
ల	-3993
వ	-3994
ి	-3995
ు	-3996
్	-3997
ನ	-3998
ന	-3999
න	-4000
ස	-4001
්	-4002
ก	-4003
ค	-4004
ฉ	-4005
ณ	-4006
ด	-4007
ั	-4008
ุ	-4009
ไ	-4010
໑	-4011
Ⴢ	-4012
ე	-4013
ი	-4014
ለ	-4015
ው	-4016
ᓅ	-4017
ᭁ	-4018
Ṁ	-4019
ṇ	-4020
ṣ	-4021
ṭ	-4022
ẹ	-4023
₥	-4024
₪	-4025
↔	-4026
≧	-4027
⌘	-4028
╚	-4029
○	-4030
☂	-4031
☑	-4032
☜	-4033
☼	-4034
♚	-4035
♛	-4036
⚫	-4037
✍	-4038
❌	-4039
❗	-4040
❦	-4041
➢	-4042
〗	-4043
う	-4044
の	-4045
を	-4046
ノ	-4047
ュ	-4048
可	-4049
發	-4050
﮼	-4051
︎	-4052
🌤	-4053
🌻	-4054
🍀	-4055
🎀	-4056
🏿	-4057
🐸	-4058
👀	-4059
👈	-4060
👤	-4061
💋	-4062
💐	-4063
💛	-4064
💻	-4065
🔸	-4066
😐	-4067
😽	-4068
🤨	-4069
🦦	-4070
|	-4071
¥	-4072
À	-4073
É	-4074
Ù	-4075
Ú	-4076
ì	-4077
õ	-4078
Ā	-4079
ă	-4080
Ė	-4081
Į	-4082
ť	-4083
ů	-4084
Ǝ	-4085
ƛ	-4086
ơ	-4087
Ʀ	-4088
ʀ	-4089
ʒ	-4090
ʻ	-4091
̉	-4092
̍	-4093
̳	-4094
Α	-4095
Ξ	-4096
Υ	-4097
έ	-4098
δ	-4099
λ	-4100
Ϟ	-4101
Д	-4102
О	-4103
П	-4104
Р	-4105
У	-4106
Ч	-4107
ъ	-4108
ю	-4109
҉	-4110
ґ	-4111
ө	-4112
Ի	-4113
Կ	-4114
է	-4115
ը	-4116
լ	-4117
խ	-4118
կ	-4119
պ	-4120
ռ	-4121
ց	-4122
ֆ	-4123
ך	-4124
؋	-4125
؍	-4126
ؾ	-4127
ڲ	-4128
ۘ	-4129
۬	-4130
ܓ	-4131
ݖ	-4132
ݢ	-4133
ݥ	-4134
ݨ	-4135
ࡗ	-4136
ञ	-4137
ढ	-4138
ॡ	-4139
আ	-4140
ঔ	-4141
ট	-4142
ড	-4143
স	-4144
ਂ	-4145
ਧ	-4146
ਬ	-4147
ਰ	-4148
ਸ	-4149
ਿ	-4150
ક	-4151
ચ	-4152
ટ	-4153
ા	-4154
િ	-4155
ી	-4156
ஓ	-4157
ఉ	-4158
ద	-4159
య	-4160
స	-4161
ీ	-4162
ಈ	-4163
ಲ	-4164
ೋ	-4165
್	-4166
ങ	-4167
ി	-4168
ි	-4169
ถ	-4170
ท	-4171
ย	-4172
ส	-4173
ๅ	-4174
่	-4175
้	-4176
້	-4177
ཻ	-4178
࿑	-4179
დ	-4180
რ	-4181
ს	-4182
ᄑ	-4183
ᄒ	-4184
ᅲ	-4185
ሂ	-4186
ህ	-4187
ል	-4188
ስ	-4189
ቅ	-4190
ን	-4191
እ	-4192
ይ	-4193
ድ	-4194
ᓆ	-4195
ᓘ	-4196
ន	-4197
ᴗ	-4198
Ṃ	-4199
Ẹ	-4200
Ọ	-4201
ố	-4202
ở	-4203
ỳ	-4204
‛	-4205
‟	-4206
₩	-4207
₽	-4208
⃫	-4209
↩	-4210
↴	-4211
⇠	-4212
⇡	-4213
⇦	-4214
∞	-4215
≠	-4216
≦	-4217
╦	-4218
╬	-4219
▽	-4220
◈	-4221
◍	-4222
◣	-4223
◩	-4224
◪	-4225
☘	-4226
♉	-4227
♌	-4228
♢	-4229
♤	-4230
⚽	-4231
✈	-4232
✧	-4233
✫	-4234
✮	-4235
✴	-4236
✷	-4237
❓	-4238
❕	-4239
❖	-4240
❝	-4241
❞	-4242
❢	-4243
⭕	-4244
〖	-4245
い	-4246
じ	-4247
ほ	-4248
コ	-4249
タ	-4250
ト	-4251
パ	-4252
ピ	-4253
ー	-4254
ㄨ	-4255
上	-4256
以	-4257
你	-4258
我	-4259
発	-4260
真	-4261
者	-4262
ꓘ	-4263
나	-4264
법	-4265
직	-4266
𓂅	-4267
𖣴	-4268
🇨	-4269
🇬	-4270
🇶	-4271
🇸	-4272
🇺	-4273
🌆	-4274
🌈	-4275
🌼	-4276
🎈	-4277
🎧	-4278
🎵	-4279
🎻	-4280
🐒	-4281
🐠	-4282
🐢	-4283
👆	-4284
👇	-4285
👎	-4286
👑	-4287
💅	-4288
💍	-4289
💓	-4290
💝	-4291
💠	-4292
💡	-4293
💮	-4294
💰	-4295
🔒	-4296
🔕	-4297
🔫	-4298
🔱	-4299
🔴	-4300
🔶	-4301
🔹	-4302
🔺	-4303
🖕	-4304
😃	-4305
😏	-4306
😕	-4307
😤	-4308
😬	-4309
😮	-4310
😯	-4311
😳	-4312
😿	-4313
🙄	-4314
🚶	-4315
🛫	-4316
🤎	-4317
🤐	-4318
🤓	-4319
🤤	-4320
🤧	-4321
🤪	-4322
🥀	-4323
🥰	-4324
🦼	-4325
🧐	-4326
Â	-4327
È	-4328
Ð	-4329
Ó	-4330
Û	-4331
ß	-4332
æ	-4333
ù	-4334
þ	-4335
Ą	-4336
ĉ	-4337
Č	-4338
Ď	-4339
đ	-4340
ė	-4341
Ę	-4342
Ģ	-4343
Ĥ	-4344
ī	-4345
į	-4346
ĵ	-4347
ĸ	-4348
ĺ	-4349
ļ	-4350
Ň	-4351
ŋ	-4352
Ō	-4353
ŏ	-4354
Ř	-4355
ř	-4356
Ŝ	-4357
ŝ	-4358
Ť	-4359
ŧ	-4360
ŭ	-4361
ű	-4362
ź	-4363
Ż	-4364
Ɓ	-4365
Ɠ	-4366
Ɣ	-4367
Ɲ	-4368
Ƴ	-4369
ƽ	-4370
ǟ	-4371
ǰ	-4372
Ǿ	-4373
ȅ	-4374
Ȋ	-4375
ș	-4376
ț	-4377
ɕ	-4378
ɞ	-4379
ɣ	-4380
ɨ	-4381
ɴ	-4382
ʃ	-4383
ʔ	-4384
ʚ	-4385
ʞ	-4386
ˆ	-4387
˹	-4388
˼	-4389
́	-4390
̋	-4391
̌	-4392
̖	-4393
̗	-4394
̝	-4395
̠	-4396
̩	-4397
̬	-4398
̮	-4399
̸	-4400
͛	-4401
ͦ	-4402
Ά	-4403
Έ	-4404
ΐ	-4405
Η	-4406
Θ	-4407
Ι	-4408
Μ	-4409
Ρ	-4410
Σ	-4411
Ψ	-4412
Ϋ	-4413
ά	-4414
ή	-4415
κ	-4416
χ	-4417
Ј	-4418
Ћ	-4419
А	-4420
Г	-4421
Й	-4422
К	-4423
ј	-4424
ћ	-4425
Ѣ	-4426
Ѧ	-4427
Ҏ	-4428
қ	-4429
Ҩ	-4430
Ұ	-4431
ҷ	-4432
ҽ	-4433
Ӎ	-4434
Պ	-4435
բ	-4436
ձ	-4437
ղ	-4438
յ	-4439
վ	-4440
փ	-4441
ք	-4442
ִ	-4443
ג	-4444
ס	-4445
צ	-4446
ת	-4447
؎	-4448
ٯ	-4449
ڐ	-4450
ڗ	-4451
ڟ	-4452
ڰ	-4453
ۚ	-4454
ۢ	-4455
ۥ	-4456
ۺ	-4457
܀	-4458
ܒ	-4459
ܨ	-4460
ܪ	-4461
ܵ	-4462
ݐ	-4463
ݒ	-4464
ݘ	-4465
ݧ	-4466
ހ	-4467
ވ	-4468
ߙ	-4469
࣪	-4470
ओ	-4471
घ	-4472
ङ	-4473
़	-4474
ॉ	-4475
॒	-4476
०	-4477
१	-4478
८	-4479
অ	-4480
ই	-4481
উ	-4482
এ	-4483
ঘ	-4484
ছ	-4485
জ	-4486
ধ	-4487
ভ	-4488
শ	-4489
ৌ	-4490
ਇ	-4491
ਈ	-4492
ਕ	-4493
ਜ	-4494
ਥ	-4495
ਪ	-4496
ਮ	-4497
ਲ	-4498
ਹ	-4499
ੇ	-4500
ੈ	-4501
ੋ	-4502
ੱ	-4503
ખ	-4504
છ	-4505
ડ	-4506
થ	-4507
ધ	-4508
પ	-4509
સ	-4510
ુ	-4511
୪	-4512
ற	-4513
ఇ	-4514
ఎ	-4515
చ	-4516
డ	-4517
ధ	-4518
ప	-4519
హ	-4520
ే	-4521
ో	-4522
ಂ	-4523
ಕ	-4524
ಡ	-4525
ಧ	-4526
ಸ	-4527
ഉ	-4528
ത	-4529
ധ	-4530
പ	-4531
ള	-4532
സ	-4533
ආ	-4534
උ	-4535
ක	-4536
ය	-4537
ල	-4538
ව	-4539
ශ	-4540
ෑ	-4541
ෙ	-4542
บ	-4543
ป	-4544
พ	-4545
ล	-4546
ห	-4547
อ	-4548
ฮ	-4549
ะ	-4550
ิ	-4551
เ	-4552
ກ	-4553
ຂ	-4554
ຈ	-4555
ຖ	-4556
ທ	-4557
ນ	-4558
ພ	-4559
ມ	-4560
ຢ	-4561
ະ	-4562
ົ	-4563
ເ	-4564
່	-4565
༄	-4566
༅	-4567
༺	-4568
࿅	-4569
ა	-4570
თ	-4571
კ	-4572
მ	-4573
ნ	-4574
უ	-4575
ქ	-4576
ላ	-4577
ም	-4578
ሩ	-4579
ር	-4580
ሳ	-4581
በ	-4582
ቦ	-4583
ታ	-4584
ት	-4585
ነ	-4586
ኔ	-4587
ኝ	-4588
አ	-4589
ወ	-4590
ዎ	-4591
ዘ	-4592
ዴ	-4593
ጋ	-4594
ጎ	-4595
ጠ	-4596
ጣ	-4597
ጥ	-4598
ፈ	-4599
ፍ	-4600
ᑐ	-4601
ញ	-4602
ព	-4603
ភ	-4604
េ	-4605
ំ	-4606
្	-4607
᪣	-4608
᭄	-4609
ᴀ	-4610
ᴋ	-4611
᷂	-4612
ḑ	-4613
ḭ	-4614
Ḿ	-4615
ḿ	-4616
Ṉ	-4617
ṛ	-4618
Ṝ	-4619
Ṧ	-4620
ṩ	-4621
Ṽ	-4622
Ạ	-4623
Ể	-4624
ệ	-4625
Ụ	-4626
ụ	-4627
ỹ	-4628
Ἄ	-4629
⁀	-4630
₦	-4631
₳	-4632
₹	-4633
₼	-4634
⃕	-4635
⃟	-4636
⃢	-4637
℘	-4638
↙	-4639
↜	-4640
↝	-4641
↣	-4642
↤	-4643
↫	-4644
↲	-4645
↷	-4646
⇐	-4647
⇜	-4648
⇢	-4649
∂	-4650
∇	-4651
∟	-4652
∴	-4653
≯	-4654
⏆	-4655
⏩	-4656
┇	-4657
═	-4658
▂	-4659
▃	-4660
□	-4661
▫	-4662
◝	-4663
◤	-4664
◥	-4665
◾	-4666
☁	-4667
☃	-4668
☄	-4669
☔	-4670
☚	-4671
☛	-4672
☠	-4673
☽	-4674
☿	-4675
♃	-4676
♄	-4677
♈	-4678
♊	-4679
♋	-4680
♎	-4681
♏	-4682
♒	-4683
♓	-4684
♭	-4685
⚒	-4686
⚠	-4687
⛳	-4688
⛺	-4689
✇	-4690
✜	-4691
✞	-4692
✭	-4693
✳	-4694
❒	-4695
❔	-4696
❶	-4697
➓	-4698
➘	-4699
➟	-4700
➥	-4701
➬	-4702
⦿	-4703
⬅	-4704
⬆	-4705
⬸	-4706
⸁	-4707
⸙	-4708
〈	-4709
〉	-4710
》	-4711
あ	-4712
え	-4713
お	-4714
か	-4715
が	-4716
く	-4717
さ	-4718
な	-4719
へ	-4720
ょ	-4721
わ	-4722
ん	-4723
イ	-4724
エ	-4725
ク	-4726
サ	-4727
ス	-4728
チ	-4729
ッ	-4730
バ	-4731
マ	-4732
ム	-4733
ヮ	-4734
一	-4735
之	-4736
了	-4737
云	-4738
传	-4739
位	-4740
何	-4741
刀	-4742
力	-4743
午	-4744
南	-4745
厩	-4746
古	-4747
吗	-4748
国	-4749
场	-4750
報	-4751
多	-4752
夢	-4753
如	-4754
子	-4755
学	-4756
它	-4757
少	-4758
屋	-4759
年	-4760
庆	-4761
彙	-4762
彩	-4763
很	-4764
情	-4765
惠	-4766
感	-4767
打	-4768
教	-4769
料	-4770
斯	-4771
於	-4772
月	-4773
机	-4774
機	-4775
泊	-4776
波	-4777
爱	-4778
瑞	-4779
用	-4780
电	-4781
着	-4782
示	-4783
科	-4784
端	-4785
篇	-4786
終	-4787
纳	-4788
职	-4789
背	-4790
节	-4791
花	-4792
葬	-4793
藍	-4794
蝶	-4795
要	-4796
詞	-4797
謝	-4798
话	-4799
语	-4800
谷	-4801
超	-4802
辛	-4803
迪	-4804
邏	-4805
钱	-4806
际	-4807
隨	-4808
雨	-4809
顯	-4810
鲁	-4811
ꓤ	-4812
ꔫ	-4813
ꖾ	-4814
ꟽ	-4815
ꦿ	-4816
ꪆ	-4817
ꪝ	-4818
ꫀ	-4819
ꫛ	-4820
각	-4821
금	-4822
길	-4823
는	-4824
다	-4825
대	-4826
래	-4827
리	-4828
마	-4829
만	-4830
문	-4831
방	-4832
서	-4833
손	-4834
솔	-4835
송	-4836
시	-4837
양	-4838
얼	-4839
에	-4840
연	-4841
요	-4842
우	-4843
정	-4844
져	-4845
조	-4846
좋	-4847
지	-4848
평	-4849
하	-4850
할	-4851
해	-4852
형	-4853
화	-4854
효	-4855
희	-4856
﮶	-4857
𐎚	-4858
𐭣	-4859
𐭦	-4860
𐭪	-4861
𐭬	-4862
𓆩	-4863
𓆪	-4864
𖣂	-4865
𖤈	-4866
𖤍	-4867
🅚	-4868
🅛	-4869
🅜	-4870
🅦	-4871
🇦	-4872
🇧	-4873
🇱	-4874
🇲	-4875
🇵	-4876
🇷	-4877
🇹	-4878
🌍	-4879
🌎	-4880
🌓	-4881
🌔	-4882
🌙	-4883
🌛	-4884
🌜	-4885
🌝	-4886
🌞	-4887
🌧	-4888
🌱	-4889
🌵	-4890
🌺	-4891
🍂	-4892
🍃	-4893
🍇	-4894
🍉	-4895
🍕	-4896
🍩	-4897
🍰	-4898
🍷	-4899
🍻	-4900
🍾	-4901
🍿	-4902
🎁	-4903
🎃	-4904
🎅	-4905
🎞	-4906
🎥	-4907
🎨	-4908
🎯	-4909
🎶	-4910
🏆	-4911
🏊	-4912
🏖	-4913
🏣	-4914
🏭	-4915
🏳	-4916
🏹	-4917
🏽	-4918
🐍	-4919
🐕	-4920
🐾	-4921
👃	-4922
👅	-4923
👋	-4924
👕	-4925
👠	-4926
👢	-4927
👧	-4928
👭	-4929
👰	-4930
👲	-4931
👳	-4932
👾	-4933
💀	-4934
💃	-4935
💇	-4936
💈	-4937
💒	-4938
💣	-4939
💦	-4940
💷	-4941
📄	-4942
📑	-4943
📛	-4944
📥	-4945
📩	-4946
📮	-4947
📲	-4948
📸	-4949
📿	-4950
🔆	-4951
🔈	-4952
🔐	-4953
🔗	-4954
🕊	-4955
🕌	-4956
🖼	-4957
🗯	-4958
🗿	-4959
😑	-4960
😧	-4961
😩	-4962
😲	-4963
😷	-4964
🙃	-4965
🙅	-4966
🙆	-4967
🙇	-4968
🙋	-4969
🙌	-4970
🚌	-4971
🚓	-4972
🚣	-4973
🚨	-4974
🚫	-4975
🚭	-4976
🚵	-4977
🚷	-4978
🛌	-4979
🛐	-4980
🛒	-4981
🛰	-4982
🟥	-4983
🤒	-4984
🤕	-4985
🤚	-4986
🤟	-4987
🤠	-4988
🤲	-4989
🤸	-4990
🤹	-4991
🦯	-4992
🦽	-4993
🧑	-4994
🧖	-4995
🧚	-4996
