<unk>	0
<s>	0
</s>	0
.	-3.39857
▁جي	-3.65941
▁آهي	-4.19275
▁۾	-4.2241
،	-4.27056
ن	-4.29959
▁کي	-4.34856
▁۽	-4.41975
ي	-4.44474
▁جو	-4.60118
▁ته	-4.73398
▁.	-4.75126
▁تي	-4.93646
▁،	-5.01713
▁هڪ	-5.12217
:	-5.16639
و	-5.17686
ه	-5.19289
▁سان	-5.20074
▁کان	-5.23601
▁نه	-5.25881
▁ڪري	-5.32038
▁هن	-5.35564
▁به	-5.37243
▁ان	-5.38102
ا	-5.39488
▁آهن	-5.4588
▁هو	-5.49748
▁ڪرڻ	-5.50987
▁ٿي	-5.52749
▁	-5.53916
▁ٿو	-5.55928
▁اسان	-5.57115
▁"	-5.5861
▁اهو	-5.60305
▁لاءِ	-5.62561
ون	-5.70843
▁يا	-5.77608
م	-5.80146
▁توهان	-5.81382
▁ڪيو	-5.82702
▁(	-5.89292
س	-5.90262
)	-5.90281
▁مان	-5.91348
ت	-5.93026
▁مون	-5.98611
ل	-6.00551
▁جا	-6.01481
▁پر	-6.015
▁ٿا	-6.02709
▁و	-6.03025
ر	-6.09201
▁پنهنجي	-6.18365
▁ئي	-6.18869
▁لاء	-6.21045
؟	-6.21713
▁ويو	-6.22781
▁انهن	-6.2937
▁طور	-6.31349
ك	-6.32876
"	-6.33759
ع	-6.37384
▁-	-6.38535
ان	-6.39667
▁هي	-6.41821
!	-6.43478
ين	-6.43665
ز	-6.43949
▁وقت	-6.50391
▁وڌيڪ	-6.52663
ـ	-6.55184
▁اي	-6.56862
ڪ	-6.60076
▁ڇا	-6.60842
▁ڪم	-6.62486
▁هر	-6.64333
ءَ	-6.64629
▁ڪو	-6.66
د	-6.661
ب	-6.67948
▁جنهن	-6.68418
▁ڪئي	-6.69067
▁استعمال	-6.69332
-	-6.70374
▁آھي	-6.70556
,	-6.70981
ش	-6.71635
▁ما	-6.72604
▁هئي	-6.7319
▁اهي	-6.7485
▁تائين	-6.75498
▁بي	-6.76259
▁ڪنهن	-6.77199
▁جيڪو	-6.77724
▁واري	-6.81454
▁ڪريو	-6.83326
▁ڪجهه	-6.83753
▁اها	-6.857
▁من	-6.86764
▁آ	-6.87265
▁چيو	-6.87495
▁بس	-6.876
ها	-6.87744
َ	-6.8809
نگ	-6.88149
▁سڀ	-6.88419
ڻ	-6.89057
▁جڏهن	-6.89669
ري	-6.90378
▁ڏينهن	-6.90555
▁سي	-6.90561
▁وڃي	-6.90575
▁م	-6.92597
▁ا	-6.93515
ج	-6.9383
▁جيڪي	-6.93882
▁ههههههههه	-6.94714
▁مي	-6.97149
ِ	-6.97512
▁حاصل	-6.97897
▁پوءِ	-6.99198
ٽ	-6.99678
جي	-7.00553
▁سال	-7.01183
▁منهنجي	-7.01705
s	-7.02547
▁سندس	-7.02816
▁سگهي	-7.04248
▁ي	-7.05486
ة	-7.05925
▁گڏ	-7.0613
▁جيڪڏهن	-7.06282
▁پاڻ	-7.0664
▁ههههههههههه	-7.07042
▁از	-7.08779
ائي	-7.09223
▁تمام	-7.09872
▁ناهي	-7.10115
▁س	-7.1033
▁ها	-7.10724
ف	-7.1247
ات	-7.13041
▁ههههههه	-7.13475
▁پي	-7.14206
▁الله	-7.1494
▁دنيا	-7.17835
▁رهيو	-7.19842
▁ههههههههههههههه	-7.19933
▁ت	-7.21153
تي	-7.21262
▁ٿيو	-7.21484
▁لا	-7.21713
▁او	-7.21864
يءَ	-7.22928
▁وئي	-7.23613
▁وڏي	-7.249
▁در	-7.25313
پ	-7.25488
ــ	-7.28097
لي	-7.2841
▁ڪن	-7.28939
▁ب	-7.29039
▁في	-7.29171
▁ع	-7.29291
▁ويندو	-7.30081
▁جن	-7.30093
▁تون	-7.30685
▁وٽ	-7.31781
▁ماڻهو	-7.31822
▁ٿيڻ	-7.32083
▁ڪا	-7.32164
▁صرف	-7.32463
ئي	-7.32536
▁ن	-7.32742
ح	-7.32863
▁پڻ	-7.33115
يو	-7.33485
▁انهي	-7.3358
▁تو	-7.33845
ار	-7.34259
▁هههههههههه	-7.34725
▁اچي	-7.348
▁ويا	-7.35192
▁ڪڏهن	-7.36004
▁ضرورت	-7.36218
▁رهي	-7.36374
ُ	-7.36659
ی	-7.36691
▁اين	-7.37174
▁ڇو	-7.39195
▁اڳ	-7.39751
▁ڪيئن	-7.39932
ال	-7.4044
▁ڪندو	-7.41207
▁گهر	-7.41215
▁جون	-7.41375
▁شروع	-7.41736
▁بابت	-7.41933
▁هههههههه	-7.42156
▁سڀني	-7.42676
▁ههههههههههههه	-7.42747
▁ماڻهن	-7.42964
▁پيش	-7.43098
ندي	-7.43961
▁جيئن	-7.44249
ور	-7.4429
▁طرح	-7.45292
يل	-7.45831
يا	-7.45866
ندو	-7.45936
▁ٻئي	-7.46001
▁شامل	-7.46479
ى	-7.47075
آ	-7.48143
ھ	-7.48425
▁عام	-7.48564
▁هئا	-7.48721
▁مختلف	-7.48753
▁ڪندا	-7.49164
ني	-7.49307
▁نظر	-7.49543
▁ل	-7.50153
هه	-7.50998
▁هههههههههههه	-7.51388
▁وارو	-7.51741
▁رهيا	-7.538
ک	-7.54072
ڙ	-7.54224
▁ڳالهه	-7.54493
▁سو	-7.54579
▁1	-7.55354
▁غير	-7.55508
▁ڊي	-7.5558
▁يعني	-7.55607
▁ههههه	-7.5635
▁ڏيڻ	-7.56626
▁آهيان	-7.5682
ـــ	-7.56995
▁شي	-7.57413
رو	-7.57429
▁بر	-7.57568
▁عمل	-7.57861
▁ڏانهن	-7.58224
▁دل	-7.58511
▁خاص	-7.58798
▁گهرجي	-7.58842
نا	-7.59277
▁وي	-7.5934
▁ال	-7.60593
▁ٽي	-7.60643
▁هوندو	-7.61505
▁زندگي	-7.62805
▁اڄ	-7.63001
▁مدد	-7.63005
▁ڪندي	-7.63397
▁3	-7.63447
▁سبب	-7.63519
▁جيڪا	-7.64056
يون	-7.64326
ندا	-7.64545
خ	-7.64944
▁موجود	-7.65245
▁سر	-7.65319
▁آئون	-7.6561
▁پ	-7.65728
▁ٻين	-7.65809
▁خبر	-7.66109
▁اندر	-7.66116
▁ڪ	-7.66656
▁مڪمل	-7.66726
▁ايس	-7.66917
▁ٿيل	-7.67397
▁هوندي	-7.67427
▁گهٽ	-7.68511
▁نالو	-7.69452
▁2	-7.69561
دي	-7.6968
وا	-7.7009
▁نئين	-7.70399
▁ملڪ	-7.70406
▁قسم	-7.71807
▁گهڻو	-7.72159
▁بعد	-7.72362
يه	-7.73066
▁ڪر	-7.73178
سي	-7.73223
ڊ	-7.73298
▁ايم	-7.73352
▁_	-7.73418
▁آن	-7.7374
▁آهيون	-7.73799
▁پهرين	-7.74023
ء	-7.74542
كم	-7.74692
▁'	-7.74893
▁کيس	-7.75023
▁ختم	-7.75253
▁19	-7.75391
▁هتي	-7.75752
▁ڇڏيو	-7.75989
▁لي	-7.7614
▁پنهنجو	-7.76155
ول	-7.76207
چ	-7.76473
▁سگهو	-7.76692
▁ڪتاب	-7.77063
▁آھن	-7.7711
▁هاڻي	-7.7781
▁ف	-7.77902
▁وچ	-7.77978
▁5	-7.78112
بي	-7.78244
▁!	-7.78438
▁تنهن	-7.78767
▁وري	-7.78936
▁ٿيندو	-7.78967
▁هههههههههههههه	-7.79046
▁ج	-7.79068
هم	-7.79205
▁ه	-7.7926
ق	-7.79538
▁/	-7.79721
▁هههههه	-7.79914
اري	-7.8025
▁شايد	-7.80514
'	-7.80715
▁جواب	-7.8088
▁پيو	-7.80903
را	-7.81054
▁اهڙي	-7.81095
▁ٿئي	-7.81147
گ	-7.81173
▁پيدا	-7.81372
يم	-7.81404
▁ڏئي	-7.8152
▁با	-7.81663
▁ياد	-7.81947
▁مو	-7.82287
▁انا	-7.82346
▁تاريخ	-7.82544
▁اهم	-7.82594
▁سالن	-7.83002
▁آيو	-7.83172
ڙي	-7.83552
▁وڏو	-7.83592
▁حل	-7.83834
▁ڇڏي	-7.84019
يت	-7.85072
▁فون	-7.8512
▁آئي	-7.85397
ض	-7.85534
▁ڏنو	-7.86861
▁ڪندڙ	-7.86865
▁ڪي	-7.86991
▁بند	-7.87554
▁ڪوشش	-7.87881
▁شهر	-7.88161
؛	-7.88219
ص	-7.88226
▁بهترين	-7.88297
▁عليه	-7.88696
غ	-7.88811
▁؟	-7.88886
▁مطلب	-7.89794
▁ٻه	-7.90154
▁وٺي	-7.90221
▁هجي	-7.90369
ام	-7.90523
▁منهنجو	-7.90934
▁سا	-7.91023
ڪي	-7.91219
▁4	-7.91703
▁خيال	-7.92297
▁پئي	-7.92395
▁ويب	-7.92819
▁سنڌ	-7.93161
▁ٻيو	-7.93473
▁اوهان	-7.93657
▁وانگر	-7.93738
▁پوء	-7.93985
ندڙ	-7.94216
لا	-7.94461
▁د	-7.94726
y	-7.94739
▁ذريعي	-7.94887
▁رات	-7.95052
2	-7.95209
اني	-7.95434
▁انسان	-7.95463
▁قيمت	-7.95798
ہ	-7.96073
▁ڪيا	-7.96254
ند	-7.96688
▁را	-7.96937
▁ملي	-7.97514
▁10	-7.97725
▁توھان	-7.98327
▁أ	-7.9865
▁هم	-7.98669
مي	-7.98799
هن	-7.99178
▁صحيح	-7.9925
▁ڪيل	-7.9934
▁ڏسي	-7.99708
ط	-7.99945
▁ٻي	-8.0014
▁حق	-8.00149
ٽي	-8.00328
▁سوال	-8.0033
▁لو	-8.00713
اس	-8.00788
▁سائيٽ	-8.0088
▁ادا	-8.01166
يد	-8.0142
هي	-8.01802
▁اصل	-8.01848
▁خدا	-8.01867
▁حقيقت	-8.0241
ئ	-8.02765
▁اڃا	-8.02972
▁ڪمپني	-8.02974
▁ترقي	-8.0317
▁اوھان	-8.0372
▁است	-8.043
▁ڏي	-8.04331
▁S	-8.05064
▁عمر	-8.0507
▁دوران	-8.05079
▁جاري	-8.05378
▁اتي	-8.05501
▁بهتر	-8.05581
▁ويندي	-8.05644
▁دور	-8.05904
e	-8.05918
▁هٿ	-8.06076
▁طرف	-8.06285
▁وا	-8.06407
▁والله	-8.06492
▁ر	-8.06908
▁مش	-8.07016
▁حصو	-8.07028
▁حڪومت	-8.07561
▁ائين	-8.07717
▁ڪيترن	-8.07805
▁ش	-8.08322
▁ام	-8.08431
▁ضروري	-8.08555
اب	-8.0864
▁ظاهر	-8.0864
ڪو	-8.09061
▁لڳي	-8.09159
▁ور	-8.09301
▁سفر	-8.09551
▁مواد	-8.09607
▁ٻار	-8.09759
اڻي	-8.10233
ڪس	-8.10354
1	-8.10548
▁نا	-8.10597
▁رکي	-8.106
▁آسان	-8.10749
t	-8.10772
▁جتي	-8.11098
▁يو	-8.11515
▁دوست	-8.11787
▁پاڪستان	-8.12116
▁سندن	-8.12144
▁ھن	-8.12204
▁مع	-8.1225
لو	-8.12511
▁صاحب	-8.12828
▁ح	-8.13009
▁مٿي	-8.13015
▁رد	-8.13091
▁ڏسڻ	-8.13437
▁آر	-8.13626
▁6	-8.13689
اد	-8.1378
▁هيٺ	-8.13804
▁الم	-8.13955
▁رو	-8.14286
▁محسوس	-8.14357
▁پهريون	-8.14898
▁بيان	-8.15323
▁خ	-8.15434
▁هوندا	-8.17082
اي	-8.1758
▁اسين	-8.17805
▁رکڻ	-8.18017
▁معيار	-8.18196
▁آهيو	-8.1842
▁خلاف	-8.18495
▁على	-8.18615
▁صورت	-8.18632
جو	-8.18789
▁ڪار	-8.18821
▁آمريڪا	-8.18842
▁ٻن	-8.18968
ما	-8.19092
▁چ	-8.19302
▁گ	-8.19376
▁اھو	-8.19412
ير	-8.19771
▁پيار	-8.20186
▁ٻاهر	-8.20207
▁طرفان	-8.20673
▁جنگ	-8.20818
▁ولا	-8.20887
ــــ	-8.21084
▁8	-8.21315
▁لائن	-8.21493
؟"	-8.21598
▁وارا	-8.21657
▁رڳو	-8.21815
▁ھو	-8.21955
▁علي	-8.22046
▁سگهجي	-8.22312
▁A	-8.22336
▁ز	-8.22436
▁تبديل	-8.23134
▁مثال	-8.23202
▁داخل	-8.23681
▁گھر	-8.23884
▁رنگ	-8.24086
▁7	-8.2412
▁تنهنجي	-8.24345
▁پسند	-8.24488
▁هنن	-8.24509
▁واپس	-8.24515
▁مشهور	-8.24647
▁اثر	-8.24659
▁چوڻ	-8.24782
▁تان	-8.24865
▁تيار	-8.2489
اء	-8.24954
▁ڏيو	-8.25303
▁پيداوار	-8.25579
▁قانون	-8.25762
▁بين	-8.25841
وي	-8.25966
▁تن	-8.26102
▁خوش	-8.26104
▁ٿيون	-8.26591
ته	-8.26614
▁پاڻي	-8.26882
D	-8.27026
▁ص	-8.27049
▁ايران	-8.27102
▁ڏني	-8.27231
کي	-8.27653
▁ڊيٽا	-8.27671
پي	-8.27934
بل	-8.28013
دار	-8.28107
▁هوءَ	-8.28122
▁آخر	-8.28235
بو	-8.2845
▁P	-8.28914
▁حد	-8.29065
▁مس	-8.29088
ايو	-8.2933
▁اس	-8.29442
ڙو	-8.29466
ههههههههه	-8.29474
▁نظام	-8.29484
▁ڇاڪاڻ	-8.29484
ئن	-8.30231
ائڻ	-8.30537
ست	-8.30569
▁چين	-8.30569
▁قابل	-8.30693
▁عورت	-8.30994
▁ڪيترائي	-8.31023
جن	-8.31172
ing	-8.31302
گي	-8.31367
▁آيا	-8.3147
رن	-8.32214
▁كل	-8.32373
u	-8.32518
▁ٻنهي	-8.32652
▁انهيءَ	-8.3274
▁شو	-8.32784
▁هميشه	-8.32814
▁ک	-8.33252
▁اول	-8.33286
دو	-8.3332
er	-8.33362
g	-8.33419
▁زمين	-8.33575
p	-8.33764
▁*	-8.33835
ٽر	-8.33877
▁اجازت	-8.33918
تا	-8.34139
C	-8.36083
▁هذا	-8.36184
مان	-8.36324
ٺ	-8.36426
▁ٿيندي	-8.36438
▁مونکي	-8.36659
▁ڏٺو	-8.36688
▁لفظ	-8.37068
شي	-8.37381
▁نٿو	-8.3751
▁سٺو	-8.37604
▁سگھي	-8.37636
ٿ	-8.37676
تر	-8.37755
اڻ	-8.37884
▁بنيادي	-8.37889
ڏ	-8.38036
▁ڪونه	-8.38088
▁وڃڻ	-8.38447
سٽ	-8.38581
▁موضوع	-8.38826
▁بال	-8.38834
▁باري	-8.38913
▁ميل	-8.38934
c	-8.39016
▁جيتوڻيڪ	-8.39638
/	-8.39726
▁چه	-8.39729
▁ھي	-8.39783
▁محفوظ	-8.39973
▁توکي	-8.40076
ده	-8.40111
3	-8.40133
▁بار	-8.4015
▁واقعي	-8.40179
▁چي	-8.40205
▁اميد	-8.4053
▁ري	-8.40562
▁قائم	-8.40864
▁ق	-8.41163
a	-8.4129
▁ڪير	-8.41437
▁آواز	-8.4196
پر	-8.42074
o	-8.42189
▁آف	-8.42513
S	-8.42596
▁مارڪيٽ	-8.42715
▁تر	-8.42789
▁سن	-8.42886
با	-8.43251
تو	-8.43355
▁ڪجھ	-8.43441
▁معلومات	-8.43529
P	-8.43855
▁انداز	-8.43896
▁سخت	-8.43972
▁20	-8.44019
A	-8.44223
ذ	-8.44353
▁تعليم	-8.44365
▁نئون	-8.44381
▁کڻي	-8.44412
▁اختيار	-8.45325
ڪر	-8.45424
▁شيء	-8.45518
▁خريد	-8.45821
▁منهن	-8.45918
▁ابو	-8.46001
▁هجڻ	-8.46063
▁خود	-8.46113
▁محبت	-8.46571
▁مقصد	-8.46618
▁اسلامي	-8.46664
]	-8.46713
▁[	-8.46827
▁ھڪ	-8.46875
بر	-8.4693
دا	-8.4725
▁فراهم	-8.47352
▁نالي	-8.47424
أ	-8.47427
▁بنياد	-8.47523
▁مطابق	-8.47582
▁پنھنجي	-8.47685
▁هيو	-8.47788
ود	-8.47835
i	-8.47914
▁,	-8.48095
▁آخري	-8.48226
▁اڪثر	-8.48279
▁وارن	-8.48441
▁پٽ	-8.48598
al	-8.48694
ث	-8.48824
▁درخواست	-8.49507
▁<	-8.49545
▁کانپوءِ	-8.49572
▁شين	-8.49631
in	-8.49965
▁آزاد	-8.50383
▁تا	-8.50411
▁چڪو	-8.50585
▁سيڪڙو	-8.50594
▁دي	-8.50634
▁ٻارن	-8.50677
▁C	-8.51035
▁هههه	-8.51265
به	-8.51434
▁مناسب	-8.51473
▁اپ	-8.51661
▁تحقيق	-8.52155
▁نن	-8.52473
▁مفت	-8.5254
▁ويندا	-8.52709
ره	-8.52902
▁الا	-8.52917
▁ٻڌايو	-8.53141
▁ٻيهر	-8.53222
▁پروگرام	-8.53557
▁پيا	-8.53627
▁شادي	-8.53631
▁سڄي	-8.53659
له	-8.53801
هههههههه	-8.53809
گر	-8.53949
▁ڏ	-8.53978
▁فقط	-8.54218
في	-8.54309
▁انت	-8.54482
▁که	-8.54603
▁اچڻ	-8.5473
وري	-8.54769
▁پري	-8.54911
▁جسم	-8.55045
▁شخص	-8.551
4	-8.55295
ڪا	-8.5547
▁سائين	-8.55508
▁ڪهڙي	-8.55515
▁سگهن	-8.55583
▁غلط	-8.55667
▁سطح	-8.55754
ئر	-8.56044
▁فيصلو	-8.56105
تك	-8.56273
▁وس	-8.56305
▁B	-8.56401
r	-8.56427
▁18	-8.56624
ِي	-8.56918
▁پاران	-8.5699
▁آه	-8.57035
▁باقي	-8.57068
▁چار	-8.57129
▁طريقي	-8.57195
▁مال	-8.57248
n	-8.57339
d	-8.57742
▁ڪافي	-8.57827
▁سياسي	-8.58058
▁فارم	-8.58253
▁دو	-8.58539
▁بت	-8.58599
▁واحد	-8.58631
سين	-8.5872
▁قدم	-8.59018
▁ڄڻ	-8.59034
▁اڳتي	-8.59702
▁بل	-8.59849
▁ورتو	-8.59907
ar	-8.59987
▁9	-8.60614
▁لک	-8.60741
ائن	-8.60762
m	-8.60889
ظ	-8.61122
▁راند	-8.6115
▁ڄاڻ	-8.61173
▁اسڪول	-8.61354
ڙا	-8.61362
▁ار	-8.6141
ههههههه	-8.61469
▁عالمي	-8.61647
O	-8.61923
ed	-8.62278
▁مل	-8.62735
▁ميڊيا	-8.62787
▁ايندڙ	-8.6282
قي	-8.63006
▁ممڪن	-8.63098
▁موت	-8.63202
▁ڏسو	-8.6326
▁رپورٽ	-8.63344
▁شيون	-8.63353
k	-8.63456
از	-8.63529
نه	-8.63655
▁جان	-8.63803
▁ايل	-8.64017
▁خط	-8.6434
▁ڪاروبار	-8.64374
▁ضرور	-8.64547
▁خوبصورت	-8.64656
▁خراب	-8.6489
▁چاهيو	-8.64911
▁اڪائونٽ	-8.64971
▁ملڪن	-8.65267
▁ڪٿي	-8.65444
▁گهڻي	-8.65537
▁آمريڪي	-8.65541
▁نو	-8.65675
▁وڌ	-8.6572
▁15	-8.65888
▁کن	-8.65899
▁پوري	-8.66097
▁شروعات	-8.66189
▁ذاتي	-8.66332
▁ترتيب	-8.66434
سر	-8.66442
من	-8.66469
▁السلام	-8.66512
جا	-8.66603
هههههههههه	-8.66623
▁ڳ	-8.66717
▁ڪردار	-8.67207
▁دير	-8.67306
▁ٿيا	-8.6743
▁حڪم	-8.67519
شن	-8.67693
▁مهرباني	-8.6772
▁جدا	-8.67785
▁ٽيڪنالاجي	-8.68047
نڊ	-8.68069
▁غ	-8.68113
▁مرد	-8.68207
▁T	-8.68337
▁سچ	-8.68392
▁اعلان	-8.68439
▁حالت	-8.68575
▁نقصان	-8.68631
▁ٻ	-8.68686
▁پڪ	-8.68733
▁لکڻ	-8.68832
▁علم	-8.68833
▁له	-8.69024
ڊي	-8.69051
ڻي	-8.69331
▁خان	-8.6944
▁آءٌ	-8.69459
E	-8.69611
T	-8.69737
وم	-8.69908
▁صدر	-8.69978
▁نمبر	-8.70041
▁G	-8.70114
جه	-8.70146
▁سسٽم	-8.70152
▁رياست	-8.70153
▁بڻجي	-8.70238
▁مسئلو	-8.7024
an	-8.70618
▁گو	-8.7097
نس	-8.71088
▁طاقت	-8.71096
▁M	-8.71143
▁پل	-8.71225
▁انھن	-8.71404
▁جديد	-8.71743
▁اڻ	-8.71968
I	-8.71978
▁ڳوٺ	-8.72028
▁تڏهن	-8.72031
▁سٺي	-8.72057
▁حال	-8.72064
فر	-8.72122
▁پس	-8.72218
M	-8.72239
▁>	-8.72431
▁حقيقي	-8.72524
▁وڌي	-8.72578
l	-8.7271
▁ڪيس	-8.72868
▁مت	-8.7296
▁تصوير	-8.72971
ّ	-8.73208
يڪ	-8.73246
▁اصلي	-8.73389
▁چئي	-8.7339
▁جه	-8.73409
▁سم	-8.73471
▁ڏنل	-8.73536
▁وال	-8.73569
ندس	-8.73582
زي	-8.73594
▁گوگل	-8.74022
▁ڊاڪٽر	-8.74407
▁خدمت	-8.74426
▁بن	-8.7447
▁ست	-8.74933
▁پو	-8.74965
▁پير	-8.74998
▁طريقو	-8.75187
مون	-8.75311
▁اسلام	-8.75359
گو	-8.75368
L	-8.75551
5	-8.75682
▁وڃن	-8.75952
▁عوام	-8.75987
▁مشين	-8.76086
▁سامان	-8.76103
▁ڪجي	-8.76172
ههههههههههه	-8.76295
ـــــ	-8.76403
▁روز	-8.76425
▁عورتن	-8.7646
▁لڳو	-8.76483
f	-8.76798
▁اعلي	-8.76801
▁ٺاهڻ	-8.76889
▁قبول	-8.76973
▁احساس	-8.77114
▁ڪل	-8.77272
▁ماءُ	-8.77404
▁قومي	-8.77482
▁مقرر	-8.77531
▁اُن	-8.77574
▁مر	-8.77619
▁تعلق	-8.7767
▁ڇ	-8.77707
▁انساني	-8.7787
▁ھ	-8.7813
ائين	-8.78145
7	-8.78416
▁12	-8.78562
▁واضح	-8.78699
▁پورو	-8.78755
▁صنعت	-8.78973
الي	-8.79026
▁سماجي	-8.79045
▁وٺڻ	-8.79067
ڀ	-8.79112
▁بد	-8.79158
▁لوڊ	-8.79203
ءِ	-8.79208
▁ك	-8.79215
▁ٺاهي	-8.79471
▁روح	-8.79593
▁صحت	-8.79601
▁پوليس	-8.79613
re	-8.79794
▁قوم	-8.79839
يس	-8.8
▁ٽيم	-8.80003
▁رهڻ	-8.80193
▁s	-8.80261
وس	-8.80489
8	-8.80541
٪	-8.80563
در	-8.80664
_	-8.80709
ڌ	-8.80925
▁حضرت	-8.80971
▁علاج	-8.81129
▁سج	-8.81164
هو	-8.81242
▁گذريل	-8.81355
▁30	-8.81383
چي	-8.81389
▁پوندو	-8.81389
▁تيز	-8.81391
▁يقين	-8.81393
▁مُ	-8.81765
▁صارف	-8.81835
▁start	-8.81993
▁نوجوان	-8.82155
ڪار	-8.82375
▁ڀيرو	-8.82543
▁D	-8.826
▁بلڪل	-8.8274
▁نٿا	-8.82833
▁اکين	-8.8323
▁صاف	-8.83344
▁dur	-8.83351
▁حوالي	-8.83437
▁گراهڪن	-8.83574
▁وار	-8.8364
▁فلم	-8.8366
▁موجب	-8.83822
بت	-8.8399
▁ڪوبه	-8.84066
▁مضمون	-8.84153
▁پار	-8.84344
▁خرچ	-8.84372
اتي	-8.84614
or	-8.84677
▁جلد	-8.84781
اق	-8.84901
▁پاسي	-8.85133
▁ٻيا	-8.85143
▁اوزار	-8.85203
▁مٿان	-8.8522
ے	-8.85316
هر	-8.85452
ؤ	-8.85728
▁فرق	-8.8576
▁هاي	-8.85832
▁•	-8.85858
تون	-8.85873
▁مضبوط	-8.85883
▁پڙهڻ	-8.8592
وار	-8.85944
▁ھڪڙو	-8.85999
▁ڏا	-8.86065
▁رقم	-8.86179
▁متاثر	-8.86195
▁ايه	-8.86199
▁انتظار	-8.86277
▁بڻائي	-8.86327
▁هاڻ	-8.86385
جر	-8.86395
▁موجوده	-8.86418
▁ڏيندو	-8.86659
▁جمع	-8.86684
▁عظيم	-8.86767
▁H	-8.87053
▁تعداد	-8.8714
▁الس	-8.87165
▁تعمير	-8.8744
▁نموني	-8.87534
▁مليو	-8.8765
ئين	-8.87806
▁پوسٽ	-8.87921
سن	-8.87934
▁ذهن	-8.88198
▁گڏيل	-8.88298
▁اهڙو	-8.88342
="	-8.88445
▁صبح	-8.88627
عي	-8.88651
▁لازمي	-8.88665
▁پنج	-8.88703
▁هزار	-8.88718
▁عملي	-8.8881
▁شرح	-8.88882
▁ڪنٽرول	-8.88964
انه	-8.88989
b	-8.89058
▁مهيا	-8.89327
سو	-8.89444
00	-8.89529
▁ايف	-8.89762
▁عن	-8.89899
▁F	-8.90003
▁ٽن	-8.90006
▁ات	-8.90053
6	-8.90084
▁سواءِ	-8.90197
▁ٽ	-8.90284
▁ڌيان	-8.90348
▁گه	-8.9039
▁يونيورسٽي	-8.9045
▁يورپ	-8.90493
▁هل	-8.90609
▁سمجهي	-8.90763
▁ڏيکاري	-8.90835
▁رکيو	-8.91051
يش	-8.91139
es	-8.91151
مر	-8.91178
▁وضاحت	-8.91483
▁نور	-8.91865
▁زندگيءَ	-8.91975
▁محمد	-8.91998
ااا	-8.92264
▁دا	-8.92283
▁وش	-8.92288
">	-8.92348
▁نسل	-8.925
▁ڪهڙو	-8.92567
▁ڦ	-8.92573
▁11	-8.92591
le	-8.92626
▁عدالت	-8.92724
▁پهچي	-8.92761
▁پنهنجن	-8.92891
).	-8.92927
."	-8.93013
G	-8.93036
▁وين	-8.93135
▁ِ	-8.93206
▁سيٽ	-8.93364
▁ذڪر	-8.93414
▁ڪهاڻي	-8.93446
▁سوچ	-8.93709
▁وزير	-8.939
▁وڊيو	-8.94079
▁آباد	-8.94081
▁پن	-8.94358
▁هنڌ	-8.9439
ڪل	-8.94596
▁هيون	-8.94687
▁تہ	-8.94943
▁الع	-8.94996
▁ايپليڪيشن	-8.95124
▁1.	-8.95261
▁ايڪس	-8.95401
▁يه	-8.95402
▁وه	-8.95602
▁لك	-8.95642
▁ڊ	-8.95699
▁لل	-8.95862
▁سنڌي	-8.95883
▁حفاظت	-8.95899
ائ	-8.96035
▁بو	-8.96077
▁برابر	-8.96149
B	-8.96213
ڳ	-8.96435
▁علاوه	-8.96548
▁قدر	-8.96676
▁پارٽي	-8.96712
▁الي	-8.96784
وب	-8.97187
▁ٻولي	-8.97254
▁اَ	-8.97298
▁رسائي	-8.97356
▁ڪريان	-8.97372
R	-8.97391
▁تصديق	-8.97676
▁هلي	-8.97688
ھي	-8.97699
▁جنھن	-8.97736
▁علائقي	-8.97939
▁گل	-8.98031
▁سگهون	-8.98058
en	-8.98246
ڏي	-8.9825
▁شيءِ	-8.98336
▁مالي	-8.9837
▁ڪارڪردگي	-8.98644
يشن	-8.98682
▁پاڪ	-8.98901
▁وڪرو	-8.9909
it	-8.99221
0	-8.99257
▁ڪيون	-8.99271
▁زال	-8.99325
▁گرم	-8.9945
▁هفتي	-8.99513
▁الف	-8.99531
▁جلدي	-8.99592
▁گروپ	-8.99658
▁رفتار	-8.99676
▁عرب	-8.997
▁رستو	-8.99732
▁ڪلڪ	-8.99782
▁نمي	-8.99856
▁ٻڌائي	-8.99868
▁فل	-8.99954
▁حيثيت	-9.00068
مو	-9.00105
▁پهريان	-9.00431
ٽو	-9.00435
▁سرڪاري	-9.0047
▁ڊالر	-9.0052
▁شر	-9.00523
▁هيءَ	-9.00628
▁100	-9.00644
H	-9.00762
▁ماڊل	-9.00839
▁ٺهيل	-9.01042
▁جيڪڏھن	-9.01059
▁تنهنڪري	-9.01089
▁رب	-9.01189
▁آفيس	-9.01237
▁0	-9.01295
▁گھٽ	-9.01491
▁ڪارڊ	-9.01495
20	-9.01517
▁چاهي	-9.01562
▁ماحول	-9.01782
زم	-9.0184
▁ڏس	-9.01885
▁وجود	-9.01887
▁سروس	-9.01968
▁تجربو	-9.02151
▁اح	-9.02172
▁زبان	-9.02346
F	-9.02499
▁زور	-9.0258
▁تصور	-9.02838
▁پڇيو	-9.02872
▁f	-9.03116
▁ھڪڙي	-9.03161
اف	-9.0326
▁مير	-9.03302
ٍ	-9.03348
▁؛	-9.03551
▁پا	-9.03762
وز	-9.03792
▁پوي	-9.03966
▁I	-9.04052
▁خاندان	-9.0406
▁مين	-9.04117
▁يار	-9.0416
▁14	-9.04229
▁موسم	-9.04244
▁ايئر	-9.04303
▁چو	-9.04378
▁خير	-9.04423
▁ڪمپيوٽر	-9.0456
▁p	-9.04575
▁شكرا	-9.05009
▁روم	-9.05009
▁ايندو	-9.05106
▁مالڪ	-9.05113
▁ذ	-9.05195
▁غريب	-9.0522
▁قتل	-9.05448
▁کا	-9.05462
▁لاڳو	-9.05539
▁مري	-9.05596
▁ڊائون	-9.05631
▁صدي	-9.05642
▁صلاح	-9.05815
ولي	-9.05872
▁اب	-9.05875
▁پيغام	-9.05881
▁آرام	-9.06086
▁ٻڌي	-9.06142
▁شاعر	-9.06161
▁چونڊ	-9.06186
▁گذاري	-9.06196
▁ڳولي	-9.06234
▁تع	-9.06412
▁ڏاڍو	-9.06516
▁ههه	-9.0657
▁جاءِ	-9.06577
ــــــ	-9.06601
▁گفت	-9.06611
▁حسين	-9.06629
▁بينڪ	-9.06637
▁آس	-9.06648
مل	-9.06993
▁ني	-9.07051
رين	-9.07124
▁سُ	-9.07136
▁مثل	-9.07313
▁دعا	-9.0748
▁ڪئين	-9.07493
▁بلاگ	-9.07521
سل	-9.07728
▁آءِ	-9.07877
▁انٽرنيٽ	-9.07897
▁مستقبل	-9.07995
▁صلاحيت	-9.08075
ڙن	-9.08156
اج	-9.08161
▁چون	-9.08188
▁ڳالهيون	-9.08202
▁ڪونهي	-9.08302
9	-9.08351
th	-9.08362
مين	-9.08482
ــــــــ	-9.08597
مه	-9.08616
▁گرمي	-9.08864
ذا	-9.09037
▁لکيو	-9.09093
▁ويئي	-9.091
▁ـ	-9.09256
▁لکي	-9.09258
▁زي	-9.09356
▁ٿيندا	-9.0942
▁هڪڙي	-9.09665
▁N	-9.09718
▁بحث	-9.09887
▁مسافر	-9.09925
▁ريت	-9.10039
N	-9.10081
▁چند	-9.10126
▁خواب	-9.10163
ئون	-9.1032
▁تبديلي	-9.10327
▁اسڪرين	-9.1036
▁وزن	-9.10388
at	-9.10466
▁ورڪ	-9.10471
▁اللي	-9.10594
▁$	-9.10626
حب	-9.10644
▁معلوم	-9.10741
▁پيام	-9.10818
سم	-9.10837
▁E	-9.10844
z	-9.10884
▁وڃ	-9.10884
اه	-9.10959
فت	-9.10973
▁ڀ	-9.11052
▁ڊگهي	-9.11065
▁دفعو	-9.11149
▁ڪاميابي	-9.11229
ٻ	-9.11318
▁سوچي	-9.11419
▁پاس	-9.11476
▁آزادي	-9.1152
هاي	-9.11571
شا	-9.11593
▁بخش	-9.11636
▁اڳيان	-9.11732
وه	-9.11934
ً	-9.11978
▁ساڳي	-9.12008
▁رهندو	-9.12011
اءِ	-9.12058
▁پليٽ	-9.12084
▁تفصيل	-9.12106
▁اُ	-9.12125
▁ادب	-9.1218
▁ساڻ	-9.12418
▁ثابت	-9.12459
▁ٿيندڙ	-9.12637
▁نوڪري	-9.12661
▁موبائل	-9.12662
▁يقيني	-9.12695
▁سگھن	-9.12852
▁امام	-9.12865
▁وڻ	-9.12895
▁شڪل	-9.12921
▁ط	-9.12934
▁تنهنجو	-9.13007
▁امير	-9.13102
رس	-9.13139
▁اش	-9.13175
▁مح	-9.1319
ئو	-9.13191
نٽ	-9.13191
▁فر	-9.13214
▁13	-9.13516
▁روشني	-9.13523
▁اگر	-9.13584
▁حصي	-9.13935
▁ولي	-9.13941
▁سگهيو	-9.13986
▁ايترو	-9.14099
▁ڌ	-9.14178
▁ڪامياب	-9.14219
▁ٽو	-9.14227
▁اھي	-9.14344
▁سگهان	-9.14613
▁to	-9.14619
سا	-9.14625
▁درد	-9.14666
▁قبل	-9.1471
▁=	-9.14727
▁آل	-9.14769
پو	-9.14894
▁الاقوامي	-9.15028
▁بهرحال	-9.15029
ٿي	-9.15081
▁مخصوص	-9.15162
ههههه	-9.15239
▁ٿورو	-9.15271
U	-9.15332
▁صورتحال	-9.15352
ic	-9.1541
h	-9.15432
▁آڻي	-9.15567
▁سوشل	-9.15568
>	-9.15622
ـــــــ	-9.15668
▁ڪرڻو	-9.15749
▁پيءُ	-9.15752
▁هيچ	-9.15851
▁گھ	-9.15862
et	-9.15919
▁گم	-9.15925
▁اڌ	-9.16083
▁پڙهي	-9.16226
▁خوشي	-9.16298
▁ڏين	-9.16321
▁جم	-9.16459
▁W	-9.16561
وت	-9.16571
▁ميدان	-9.16662
▁مقابلي	-9.16772
▁بورڊ	-9.16779
▁نوٽ	-9.16847
▁16	-9.16932
▁غلطي	-9.16974
▁چونڊيو	-9.16981
اءُ	-9.16988
▁منهنجا	-9.17062
▁چوي	-9.17102
▁ڪوڊ	-9.17157
وف	-9.17323
▁نيو	-9.17386
▁انتي	-9.17405
▁وڃو	-9.17417
▁چڪا	-9.1745
▁حتى	-9.17461
▁اهڙا	-9.1747
▁جيستائين	-9.17473
us	-9.17477
▁شام	-9.17708
▁قانوني	-9.17742
▁ڪين	-9.1777
▁17	-9.17896
▁ڪندڙن	-9.17904
▁رت	-9.17987
▁عرصي	-9.17987
▁سڏ	-9.18134
▁اف	-9.18542
▁صح	-9.18549
▁اسم	-9.18579
▁ايپل	-9.18729
▁سنگ	-9.18801
▁ايپ	-9.18806
▁ماري	-9.19059
▁هال	-9.19073
▁حساب	-9.19206
▁a	-9.19471
▁قديم	-9.1953
رد	-9.19671
يان	-9.19717
▁ڌار	-9.19749
ووو	-9.19775
▁ڌرتي	-9.19916
ارو	-9.19933
هين	-9.19946
▁حالتن	-9.20007
▁گذري	-9.20008
▁هڪڙو	-9.20019
▁پنهنجا	-9.20171
يف	-9.20209
ri	-9.20247
شت	-9.20381
▁شاء	-9.20451
▁کار	-9.20508
▁سمنڊ	-9.20517
▁نڪري	-9.20518
▁کولڻ	-9.20623
ائون	-9.20671
▁ڳولا	-9.20728
ڇ	-9.209
▁نيٽ	-9.20939
امي	-9.21022
▁جهاز	-9.21076
تن	-9.21091
▁گي	-9.21196
ءُ	-9.21223
▁اضافي	-9.21257
▁ملڻ	-9.21315
▁سون	-9.21361
▁ملاقات	-9.21368
▁بنا	-9.21369
▁وڏا	-9.21372
?	-9.21536
▁سوچيو	-9.2155
۔	-9.21566
▁مارڪيٽنگ	-9.21705
▁شڪار	-9.21793
▁ون	-9.21793
اح	-9.21812
▁50	-9.21894
▁تنظيم	-9.21925
▁پرو	-9.21933
▁دوستن	-9.22019
▁فا	-9.22057
▁نٿي	-9.22115
ْ	-9.22147
چو	-9.22259
▁باوجود	-9.22259
▁جهڙوڪ	-9.22285
▁جڳهه	-9.22289
▁25	-9.22293
▁زين	-9.22389
هههههه	-9.22399
▁شاگردن	-9.22431
▁سين	-9.22447
am	-9.2258
▁نيوز	-9.22665
▁ث	-9.22836
رز	-9.2296
▁رس	-9.23004
▁منتقل	-9.23016
▁منظر	-9.23096
▁رک	-9.23145
▁زماني	-9.23322
▁کل	-9.23342
▁لفظن	-9.23385
ڪن	-9.23447
▁فهرست	-9.23498
▁ويجهو	-9.23498
يٽ	-9.23508
▁ڏک	-9.23518
▁ڏاڍي	-9.23573
دل	-9.23627
رت	-9.23646
▁مختصر	-9.23866
▁ڪلاڪ	-9.23885
مت	-9.23908
▁الب	-9.23963
▁2.	-9.24081
▁هوس	-9.24124
▁#	-9.24248
▁عالم	-9.24253
▁فائدو	-9.243
▁ترين	-9.24318
▁سلام	-9.24325
▁شڪ	-9.24723
▁ڪراچي	-9.24851
▁لاڳاپيل	-9.24982
▁ٺاهيو	-9.25
▁استاد	-9.25115
x	-9.25125
▁ڪنداسين	-9.2514
▁وڌائڻ	-9.25141
▁علائقن	-9.25212
▁بيماري	-9.25236
▁مَ	-9.25397
▁انگريزي	-9.25477
▁ننڍي	-9.25568
وش	-9.25705
▁ٻڌ	-9.25716
▁ڪريون	-9.2599
▁سل	-9.26
▁شاندار	-9.2615
▁چاهيندا	-9.2615
▁چڪي	-9.26214
st	-9.26253
▁دين	-9.26361
▁لائين	-9.26368
ٽا	-9.26516
پا	-9.26613
▁ده	-9.26633
▁سور	-9.26718
000	-9.26779
▁تح	-9.26927
▁دماغ	-9.26956
▁حياتي	-9.2696
el	-9.27155
▁رکو	-9.27199
▁ڪرائي	-9.27238
ايل	-9.27322
▁پريشان	-9.27377
يب	-9.27392
▁راندين	-9.27421
▁بود	-9.275
▁ڪاري	-9.27581
▁مار	-9.27591
وٽ	-9.27684
▁ڀا	-9.27712
▁ڳالھ	-9.27712
▁2020	-9.27927
▁K	-9.28001
▁know	-9.28018
▁مهينن	-9.28021
▁الج	-9.28127
▁انتهائي	-9.28273
▁دوا	-9.28313
گه	-9.28332
▁ڪاروباري	-9.2844
▁آپريشن	-9.28494
on	-9.28687
▁واپار	-9.28692
▁اخبار	-9.28736
▁ايندي	-9.28854
▁ملين	-9.28946
▁وغيره	-9.28972
ـــــــــ	-9.29034
▁اه	-9.29088
ٹ	-9.29155
▁مست	-9.29183
▁اعتماد	-9.2921
▁رڪارڊ	-9.2921
▁رستي	-9.29309
ro	-9.29505
▁ننڊ	-9.2954
▁ويئر	-9.29548
▁غور	-9.2971
▁بابا	-9.29848
حي	-9.29877
▁يوم	-9.30025
▁کانسواءِ	-9.30066
▁جهڙي	-9.30073
w	-9.30091
▁منزل	-9.30111
▁ٽر	-9.30134
▁توانائي	-9.30178
▁هئڻ	-9.30184
▁شا	-9.30198
▁اکيون	-9.30226
▁ايڊ	-9.30238
▁هندستان	-9.30297
▁سامهون	-9.30302
▁انگ	-9.30369
ol	-9.30432
▁جڏھن	-9.30539
▁لکيل	-9.30599
▁بيشڪ	-9.30692
▁اهميت	-9.30848
▁ٿ	-9.30888
▁برقرار	-9.30904
▁فوج	-9.3102
▁سڀئي	-9.31043
▁اصول	-9.31095
▁اسپتال	-9.31149
▁بجلي	-9.31176
▁دلچسپ	-9.31544
▁ليکڪ	-9.31552
رب	-9.31669
▁چيزي	-9.31676
▁ڪڍي	-9.31827
▁نشان	-9.31859
ې	-9.32008
▁مقامي	-9.32013
▁2019	-9.3202
▁مگر	-9.32135
ايا	-9.32159
▁بغير	-9.32183
▁جئين	-9.32243
▁موقعو	-9.32256
لف	-9.32279
il	-9.32297
।	-9.32379
▁مڙس	-9.32382
ur	-9.32501
▁ايتري	-9.32605
▁حيرت	-9.32757
▁ڪيائين	-9.32759
▁آسمان	-9.32911
▁نتيجي	-9.33001
▁موٽي	-9.33047
▁جمهوري	-9.33079
▁آڻڻ	-9.33251
عه	-9.33259
نداسين	-9.3333
▁نفس	-9.33472
▁مسلسل	-9.335
▁عنصر	-9.33511
▁اسٽور	-9.33695
▁انتظام	-9.33698
text	-9.33877
▁دلچسپي	-9.33974
▁ٺيڪ	-9.34032
▁سميت	-9.34035
▁شعر	-9.34095
▁آرٽيڪل	-9.34136
▁اعليٰ	-9.34136
▁بڻائڻ	-9.34138
فا	-9.34145
ch	-9.34154
▁ٺ	-9.34176
حد	-9.34233
▁محدود	-9.3426
▁صارفين	-9.34301
V	-9.34333
اڻو	-9.34417
▁تقريبن	-9.34433
زا	-9.34467
▁پوئتي	-9.34507
▁اج	-9.34735
دن	-9.34817
ٽس	-9.34848
▁فن	-9.34869
▁ڳالهائڻ	-9.34896
▁اچو	-9.3515
بار	-9.35183
▁روڊ	-9.35251
▁لحاظ	-9.35287
▁زمان	-9.35387
▁مسئل	-9.35391
▁ميٽر	-9.35466
▁قرض	-9.35564
▁سمجهيو	-9.35718
▁O	-9.35799
▁اک	-9.35854
▁ايڇ	-9.36088
اڪ	-9.361
▁اسٽ	-9.3621
▁فڪر	-9.36237
▁امتحان	-9.36423
▁شايع	-9.36425
▁اجلاس	-9.36435
▁ساڳيو	-9.36443
▁ڳالهائي	-9.36511
▁چاهيان	-9.3667
▁سار	-9.36726
▁هدايت	-9.36733
▁اسپين	-9.36771
▁ميمبر	-9.36805
اڻڻ	-9.3682
▁ڏينھن	-9.3684
▁چيائين	-9.36856
▁کو	-9.36924
▁دستياب	-9.36941
ستان	-9.36946
▁مسئلن	-9.37003
▁هيءُ	-9.37023
▁ويل	-9.37083
يئر	-9.37106
▁L	-9.3716
▁حلو	-9.37195
▁2018	-9.37214
▁خلاص	-9.37215
10	-9.3728
▁امن	-9.37293
▁عجيب	-9.37333
قول	-9.37392
▁الڳ	-9.37438
▁تم	-9.37505
▁انسٽال	-9.37709
▁ڪيترا	-9.37939
▁سائنس	-9.37952
W	-9.37989
▁ڳولڻ	-9.38007
▁جهڙو	-9.38025
▁منٽ	-9.38044
▁24	-9.3808
▁c	-9.3814
▁گهڻا	-9.38184
▁سه	-9.38233
▁شب	-9.38253
▁تحفظ	-9.38262
كي	-9.38333
▁دست	-9.38338
▁امان	-9.38409
▁منظور	-9.38447
▁سَ	-9.38657
ڪري	-9.38732
▁قرآن	-9.38776
▁وائرس	-9.38777
▁بئنڪ	-9.38905
▁مقدار	-9.38922
▁واٽ	-9.38939
▁يک	-9.39013
زن	-9.39034
▁ليه	-9.39056
آآ	-9.3947
ڻو	-9.39473
▁اڃان	-9.39477
▁براي	-9.39585
كن	-9.39601
يز	-9.39619
ra	-9.39669
▁موڪل	-9.39706
اڙي	-9.39756
▁سماج	-9.39789
▁ڪنھن	-9.39794
▁ڀيٽ	-9.3989
▁لنڪ	-9.39996
▁ول	-9.40137
▁ادارن	-9.40219
▁وت	-9.40267
▁پلي	-9.40348
▁in	-9.40351
▁واڌ	-9.40363
▁خوف	-9.40383
▁شما	-9.40443
▁سواء	-9.40558
▁ڪندس	-9.40598
▁+	-9.40683
▁فرانس	-9.40686
te	-9.40701
▁پوندي	-9.40714
▁h	-9.40754
▁ڏکڻ	-9.40757
▁لائسنس	-9.40906
▁هُن	-9.40911
▁عشق	-9.40924
▁آخرڪار	-9.40952
▁جھ	-9.40963
▁خواهش	-9.40988
▁خالي	-9.41076
▁قدرتي	-9.4108
ڄ	-9.41185
K	-9.41195
سٽر	-9.41362
▁هوٽل	-9.41375
▁وڌائي	-9.41379
وو	-9.41491
▁هجن	-9.4158
▁اظهار	-9.41583
▁سافٽ	-9.41599
▁حڪمت	-9.41601
▁سمجھ	-9.41713
▁رابطو	-9.41719
▁تحت	-9.41791
▁دشمن	-9.41855
▁ويون	-9.4189
▁ڪنڊ	-9.41901
▁ٽيسٽ	-9.41935
سون	-9.41955
▁شرط	-9.42122
▁ڏيندي	-9.42263
▁يورپي	-9.42277
▁re	-9.42372
▁جاچ	-9.42459
▁هيا	-9.42589
▁الح	-9.42665
▁ڀري	-9.4271
▁فيس	-9.42724
يات	-9.42764
▁فعال	-9.42769
▁ماڻھو	-9.42815
▁سياست	-9.42855
▁سڏيو	-9.42859
اع	-9.42896
▁شد	-9.42987
▁باب	-9.43004
▁R	-9.43073
▁شخصيت	-9.4308
▁اچن	-9.4309
*	-9.4314
رڪ	-9.43177
مع	-9.4319
▁راه	-9.43197
ــــــــــــــــ	-9.43314
▁جسماني	-9.43315
▁تصويرون	-9.43489
▁کائي	-9.43507
طي	-9.43523
▁ورتي	-9.43691
▁قسمن	-9.4375
▁عوامي	-9.43885
▁پراڻي	-9.43997
▁سڌو	-9.44049
گاه	-9.441
▁]	-9.44105
▁وٺ	-9.44127
▁ماهر	-9.44155
▁مهيني	-9.44207
▁<<	-9.44228
▁ايمان	-9.44383
▁ايراني	-9.44423
▁جل	-9.44603
▁وم	-9.44604
بن	-9.4464
▁گھرجي	-9.44643
▁مسلمان	-9.44669
دم	-9.44734
li	-9.4474
▁درست	-9.44745
▁نہ	-9.44786
▁مذهب	-9.44792
▁سلسلي	-9.44896
▁شهري	-9.44932
لن	-9.44987
▁ويس	-9.45027
▁ويڊيو	-9.4505
▁كم	-9.45051
▁مه	-9.45108
تم	-9.45164
▁ساڳئي	-9.45177
▁ٽرين	-9.45285
▁مذهبي	-9.45296
خت	-9.4533
▁اتر	-9.45367
ران	-9.45447
▁ڀلي	-9.45448
اط	-9.45455
▁گڏجي	-9.45475
▁مرڪز	-9.45572
▁پويان	-9.45746
▁چنڊ	-9.45837
▁فوجي	-9.45899
ad	-9.45903
▁اون	-9.45907
▁ڪارو	-9.45934
▁حصن	-9.4596
▁سزا	-9.45969
▁چيڪ	-9.45971
اهي	-9.45983
قا	-9.46065
▁ڪيترو	-9.46168
▁دڪان	-9.46169
▁عم	-9.46294
▁اسٽيشن	-9.46328
▁گرفتار	-9.46339
▁وزيراعظم	-9.46452
ter	-9.46461
كر	-9.46477
▁انقلاب	-9.46483
▁Android	-9.46594
as	-9.46699
▁ڪوڙ	-9.46702
▁احتجاج	-9.46737
▁b	-9.46748
▁مارچ	-9.46796
▁ذات	-9.46848
▁رهن	-9.4685
اهو	-9.46858
شو	-9.46867
la	-9.46995
▁ايئن	-9.47057
▁ڪورٽ	-9.471
▁ذميواري	-9.47117
▁فرد	-9.47207
▁مخالف	-9.47257
رم	-9.47271
▁ٻڌڻ	-9.47362
طر	-9.47369
▁جنسي	-9.47372
ڊو	-9.47393
▁ڊجيٽل	-9.47454
▁منظم	-9.47455
▁عمارت	-9.4746
▁مجموعي	-9.47467
▁لباس	-9.47478
▁سياحت	-9.47517
▁مئي	-9.47533
بس	-9.47612
▁منھنجي	-9.47621
هههههههههههه	-9.47786
▁په	-9.47846
▁2017	-9.47899
▁دار	-9.47959
▁تحريڪ	-9.48036
▁۔۔۔	-9.48157
▁محنت	-9.48192
▁چڱي	-9.4824
▁چيز	-9.48346
آن	-9.4837
ڪٽر	-9.48377
▁کائڻ	-9.48404
داري	-9.48627
▁اشارو	-9.48629
▁معمولي	-9.48721
▁ڪُ	-9.48724
▁گيت	-9.48741
▁تج	-9.48743
▁اسپ	-9.48794
▁سک	-9.48853
▁اڪيلو	-9.48906
پل	-9.48929
▁جنم	-9.49045
▁آب	-9.49093
▁بدران	-9.4912
▁برانڊ	-9.49263
▁طريقا	-9.49297
▁3.	-9.49324
▁طيب	-9.49402
▁معياري	-9.49419
▁بحال	-9.49426
▁هُو	-9.49492
ul	-9.49554
▁موٽ	-9.49589
▁واقع	-9.49591
▁مطابقت	-9.49628
▁فري	-9.49824
لت	-9.49824
▁40	-9.49922
▁تجزيو	-9.49933
▁مهم	-9.50037
▁فطرت	-9.50081
▁پٿر	-9.50102
▁وانا	-9.50109
▁چا	-9.50114
▁com	-9.50121
▁>>	-9.50133
▁ھئي	-9.5016
▁گر	-9.50283
▁خيلي	-9.50325
▁تعريف	-9.50377
▁ره	-9.50434
▁مشڪل	-9.5044
▁لڳ	-9.50516
لم	-9.50523
▁آڪٽوبر	-9.50525
ly	-9.50591
▁والدين	-9.50713
▁معنيٰ	-9.50976
▁قسمت	-9.5099
▁گهربل	-9.5103
▁گراهڪ	-9.51128
▁ڪمري	-9.51179
▁ھر	-9.5118
▁فقير	-9.51271
ٌ	-9.51413
▁ممكن	-9.51426
▁کليل	-9.51436
▁مور	-9.51455
▁سيريز	-9.51475
▁فصل	-9.51567
▁m	-9.51669
▁بندي	-9.51747
الله	-9.51827
▁اع	-9.51841
▁نماز	-9.51847
▁فوت	-9.51848
▁هيٺيان	-9.51923
ir	-9.5196
لك	-9.52055
▁سينٽر	-9.5207
▁ادبي	-9.52116
▁وات	-9.52129
گا	-9.52134
▁مب	-9.52194
▁حلوه	-9.52266
▁سب	-9.52301
شر	-9.52303
▁اسيمبلي	-9.52323
ــــــــــ	-9.52326
▁ڪابه	-9.52361
رج	-9.52383
▁معني	-9.52466
▁طلب	-9.52473
ers	-9.52489
▁لڳا	-9.5258
▁سموري	-9.526
▁رح	-9.5273
كه	-9.52776
▁پائي	-9.52947
▁ايندا	-9.53078
[	-9.53133
ائل	-9.5317
▁ڪاليج	-9.53392
▁روشن	-9.53425
▁جر	-9.53461
▁غلام	-9.53468
▁ٿوري	-9.5347
▁طريقن	-9.53473
نج	-9.53493
▁ڪَ	-9.53549
▁زير	-9.53592
پور	-9.53687
▁موسيقي	-9.53846
▁فيه	-9.53969
▁سيپٽمبر	-9.54
▁ڳالهين	-9.54037
▁اذا	-9.5416
▁موڪلي	-9.54219
ڙڻ	-9.54287
▁جائزو	-9.54297
▁ڊزائن	-9.54308
▁سڄو	-9.54308
▁ڀر	-9.54325
▁بونس	-9.5451
▁شاعري	-9.54604
▁پئسا	-9.5462
▁حيران	-9.54623
▁قرار	-9.54706
ڌي	-9.54732
▁مات	-9.54776
▁ڪرائڻ	-9.54784
▁پيٽ	-9.54885
▁مره	-9.54937
▁باغ	-9.54982
▁سفارش	-9.55082
▁the	-9.55157
▁مشتمل	-9.55237
▁ويهي	-9.55254
جل	-9.55424
▁جيترو	-9.55489
▁جنرل	-9.55554
ٽن	-9.5563
▁تاريخي	-9.55681
▁قال	-9.55722
وڪ	-9.5574
▁عزت	-9.55803
▁اتفاق	-9.55861
▁انعام	-9.55903
▁ساٿي	-9.55938
▁عليها	-9.55988
▁سگھو	-9.56004
▁فوري	-9.56011
▁شاگرد	-9.56093
انا	-9.56149
▁خلي	-9.56167
▁بيت	-9.56236
۽	-9.56418
▁ڪانه	-9.56429
▁شاهه	-9.56461
▁امڪان	-9.56492
▁ڏيئي	-9.5651
▁ڪلاس	-9.56616
ta	-9.56625
▁شهيد	-9.56685
ڍ	-9.567
▁روڪي	-9.56702
▁ساري	-9.56735
▁رهندي	-9.56737
▁زخمي	-9.5674
▁g	-9.56752
▁كان	-9.56765
اسان	-9.56811
▁قص	-9.5688
▁ڀيرا	-9.57005
ھن	-9.5701
عت	-9.57035
▁؟؟	-9.57055
▁روي	-9.57077
▁ترجمو	-9.57123
▁رکندڙ	-9.57171
▁اڳي	-9.57194
▁قومن	-9.57216
كت	-9.57304
▁ڀڳ	-9.57368
▁t	-9.57475
▁پاليسي	-9.57528
▁ڪال	-9.57616
▁دورو	-9.57651
▁جز	-9.5774
▁نوان	-9.57817
اها	-9.57868
▁21	-9.57936
▁آهنگ	-9.58005
▁ادائيگي	-9.58079
▁آرڊر	-9.58108
▁روس	-9.5811
▁چوندا	-9.58173
▁انڪار	-9.58184
▁پهچائڻ	-9.58255
▁موڪليو	-9.58415
▁کڻڻ	-9.58496
ژ	-9.5856
▁ڪمپنين	-9.58572
▁ميان	-9.5863
▁مد	-9.58673
▁اضافو	-9.58721
▁تربيت	-9.58723
▁اگه	-9.58785
ارن	-9.58832
▁چيني	-9.58865
▁سپ	-9.5889
▁هه	-9.58908
▁حرف	-9.58976
▁اچ	-9.58981
▁سوچڻ	-9.59046
▁بگ	-9.59164
ـــــــــــ	-9.59166
▁ڪتابن	-9.59327
گل	-9.59335
▁ميز	-9.59355
▁انصاف	-9.59369
ce	-9.59537
▁هست	-9.59571
▁ملڪيت	-9.5962
▁ھل	-9.59634
▁بک	-9.59683
▁سدائين	-9.59699
▁سمجهڻ	-9.59739
▁قيد	-9.5987
▁ڪرايو	-9.60069
▁هينئر	-9.60072
▁نيست	-9.60083
يء	-9.6013
▁ڊيزائن	-9.60182
▁صفحا	-9.60182
▁وڏن	-9.60193
▁2016	-9.60194
▁سڃاڻپ	-9.60209
▁ڪيتريون	-9.60308
▁ماپ	-9.60332
▁الت	-9.60351
▁شوي	-9.60381
▁ڀي	-9.6049
▁ٻڌو	-9.60501
▁شعور	-9.60512
▁پڇ	-9.60537
un	-9.60542
▁ڀريل	-9.60546
▁حمايت	-9.60676
اك	-9.60685
▁سپر	-9.60696
ذر	-9.60788
رك	-9.60814
▁وٺو	-9.60984
▁V	-9.61087
اش	-9.6112
ڃ	-9.61166
▁ڌر	-9.61175
عرف	-9.61242
▁هوا	-9.61303
▁آگسٽ	-9.61334
تها	-9.61379
▁شوق	-9.61428
قدر	-9.61717
▁ناڪام	-9.61741
هڪ	-9.61797
▁اداري	-9.61835
▁سگھجي	-9.61864
ڊر	-9.61914
جان	-9.61939
▁ميڪ	-9.61944
▁موٽر	-9.61955
▁رابطي	-9.61998
▁رهندا	-9.62108
▁موقعي	-9.62164
▁وسيع	-9.62174
▁ڇڏ	-9.62188
▁اسڪ	-9.62237
▁ٿر	-9.6224
▁فرض	-9.62279
▁ڀلا	-9.623
▁وجه	-9.62301
▁ونڊوز	-9.62381
▁چڱو	-9.62386
▁مزو	-9.62452
▁ڊرائيو	-9.62485
ـــــــــــــ	-9.62577
▁ڳالهايو	-9.62691
▁چپ	-9.62781
▁ليش	-9.62792
▁راح	-9.62827
▁لم	-9.62899
▁مسئلا	-9.6292
▁آبادي	-9.62973
▁گزارش	-9.63002
▁ڍ	-9.63011
هون	-9.63026
▁~	-9.63116
X	-9.6312
▁هليو	-9.63323
او	-9.63385
▁ٻا	-9.63458
▁ڪيم	-9.6352
▁مکيه	-9.63552
▁تجويز	-9.63677
▁J	-9.63714
صل	-9.63785
▁خصوصي	-9.63812
▁ليس	-9.63903
▁22	-9.63903
▁پول	-9.63971
▁اپڊيٽ	-9.64016
▁خاطر	-9.64021
▁ڪئ	-9.641
▁هع	-9.64142
▁حب	-9.64211
▁فائلون	-9.64349
ھر	-9.64351
▁پارڪ	-9.64385
▁گاڏي	-9.64415
▁کلي	-9.6444
ٽڪ	-9.64555
افي	-9.64596
ٽل	-9.64598
اً	-9.64621
▁زنده	-9.64649
▁وح	-9.64674
▁مصنوعات	-9.64698
▁إ	-9.64706
▁ٻڌل	-9.64708
30	-9.64747
هڻ	-9.64754
50	-9.64821
▁مڇي	-9.6493
▁سبق	-9.65026
▁اخر	-9.65104
▁فائل	-9.65167
▁ڇوڪري	-9.65212
▁نومبر	-9.65222
▁گھڻو	-9.65227
▁شيئر	-9.65241
▁مخ	-9.6534
▁الحال	-9.65405
▁ڄاڻي	-9.65426
إ	-9.65436
يلي	-9.6545
▁اق	-9.65576
▁گهڙي	-9.65614
▁عزيز	-9.65625
▁حر	-9.65705
▁جبل	-9.65746
▁ناهن	-9.65755
▁هئس	-9.65759
▁اني	-9.6576
▁افغانستان	-9.65909
حق	-9.6596
▁سنڏ	-9.66009
▁راز	-9.66088
▁برا	-9.662
▁ماضي	-9.66209
مس	-9.66243
▁الزام	-9.66274
▁سعودي	-9.66294
me	-9.66311
ــــــــــــ	-9.66318
▁جنوري	-9.66319
قل	-9.66365
▁وَ	-9.66503
▁مج	-9.66503
▁ڏيندا	-9.66518
▁بڪ	-9.66587
▁ض	-9.66629
▁جنس	-9.66638
▁واپسي	-9.66643
▁حس	-9.66651
▁جد	-9.66683
▁لانچ	-9.66759
اسين	-9.66789
▁آئين	-9.669
▁مجبور	-9.66948
▁لنڊن	-9.6695
="1	-9.67069
▁سمجهان	-9.67199
▁ڪميشن	-9.67215
▁هيٺين	-9.67241
حل	-9.67301
▁تق	-9.67306
صر	-9.6731
▁ليگ	-9.67355
▁ڏانھن	-9.67364
قر	-9.67379
▁روپ	-9.67413
لين	-9.67527
▁الن	-9.67751
▁هوء	-9.67762
اپ	-9.67773
▁واپاري	-9.67898
▁آساني	-9.67943
ation	-9.67949
▁كيف	-9.67962
▁درجي	-9.67989
▁پڇي	-9.68088
▁سڌ	-9.68094
▁سام	-9.68136
▁هت	-9.68137
رف	-9.68204
▁احمد	-9.68206
▁بخ	-9.68217
ent	-9.68231
▁جوڙي	-9.68371
لس	-9.68432
▁پور	-9.68467
▁قول	-9.68542
▁واقعا	-9.68554
▁عورتون	-9.68617
▁ڪانهي	-9.68639
▁ضحك	-9.68642
▁لسٽ	-9.68658
ڱ	-9.68701
▁ناول	-9.68786
▁U	-9.68807
▁تازو	-9.68911
▁رن	-9.68923
▁2-	-9.68942
▁ملا	-9.68947
فه	-9.69083
▁شه	-9.69179
ئل	-9.69213
▁مقابلو	-9.69215
▁خوب	-9.6922
▁ٽيون	-9.69226
▁هوائي	-9.69256
ec	-9.69489
▁شده	-9.69498
▁پَ	-9.69583
▁لاش	-9.69594
▁انجام	-9.69614
▁ڏکيو	-9.6963
▁ڪوئي	-9.69655
▁خي	-9.69656
▁متن	-9.69833
▁مافي	-9.69834
▁سکڻ	-9.69881
▁نام	-9.6999
جھ	-9.7002
سس	-9.70117
▁ڏنا	-9.70137
▁2021	-9.7016
▁وفات	-9.70196
▁آدم	-9.70301
▁نالا	-9.7041
▁ڪمزور	-9.70522
▁اٺ	-9.70524
▁ويٺو	-9.70537
ريا	-9.70574
▁ڪپ	-9.70595
▁مردن	-9.70653
▁متبادل	-9.70691
▁رکن	-9.70695
▁واقف	-9.70706
▁بم	-9.70777
▁كنت	-9.7082
▁داد	-9.70835
▁اقول	-9.70881
▁پٺيان	-9.70924
▁سير	-9.70953
▁دم	-9.70993
▁قوت	-9.70995
▁ٽيڪس	-9.71058
▁يمكن	-9.71062
انو	-9.71074
لر	-9.71139
▁4.	-9.71144
▁اٿي	-9.71167
ھو	-9.71205
▁نتيجو	-9.71238
▁تب	-9.71366
▁چارج	-9.71386
▁تجربي	-9.71421
▁سائيز	-9.71487
▁ٿين	-9.71501
▁كن	-9.71539
▁جاء	-9.71734
▁تعاون	-9.7179
▁صور	-9.71842
▁سمجهه	-9.71865
▁آيل	-9.71897
▁گڏوگڏ	-9.71971
▁حاضر	-9.71971
▁اوڀر	-9.72
هههههههههههههههه	-9.72147
▁منصوبي	-9.72155
▁سگهندا	-9.72207
▁ميمبرن	-9.72219
گن	-9.7223
▁گا	-9.72329
▁مزاحمت	-9.72341
▁چرچ	-9.72378
▁پيروي	-9.72468
▁بدلي	-9.72473
▁ڊسمبر	-9.72524
▁هٿن	-9.72541
گار	-9.72682
▁شرڪت	-9.7271
▁تھ	-9.72717
▁سول	-9.72732
▁وفاقي	-9.72824
▁ڪائنات	-9.72896
▁مريض	-9.72973
▁قد	-9.72998
▁وزارت	-9.73082
▁فوٽو	-9.73097
▁مڃي	-9.73108
▁هونديون	-9.73122
im	-9.73278
▁پئجي	-9.73301
▁ڊوائيس	-9.73482
▁سرور	-9.73562
▁علامت	-9.73649
▁ڇڏڻ	-9.73693
▁تسليم	-9.73697
▁رسول	-9.73738
چر	-9.73818
▁اسرائيل	-9.73828
ــــــــــــــ	-9.73898
رة	-9.73908
▁يورو	-9.74053
▁اُهي	-9.74091
گري	-9.7412
▁تڪليف	-9.74203
▁سلسلو	-9.74204
▁اهل	-9.74253
▁نس	-9.7428
▁اٿم	-9.74303
ليل	-9.74342
▁خريداري	-9.74456
▁امر	-9.74458
ضي	-9.74534
وع	-9.74557
▁راءِ	-9.74567
▁باهه	-9.74648
▁يونٽ	-9.74672
▁پچ	-9.74684
▁تار	-9.74786
يڊ	-9.7485
▁تخليق	-9.74853
▁دليل	-9.74861
▁طاقتور	-9.74936
▁معاملي	-9.74959
▁ڪيتري	-9.74989
مينٽ	-9.75103
▁جهان	-9.75103
▁عبدال	-9.75128
بين	-9.75134
ڷ	-9.75136
▁عنوان	-9.75166
▁عل	-9.75172
op	-9.75221
▁ووٽ	-9.75261
▁بچائڻ	-9.75352
سان	-9.75374
شه	-9.75396
ڪاري	-9.75423
▁ريم	-9.75426
کو	-9.75438
▁@	-9.75441
▁توڙي	-9.75459
▁پرڏيهي	-9.75529
▁رانديون	-9.75539
▁نبي	-9.75587
جد	-9.75608
ot	-9.75742
▁ٽيبل	-9.75811
▁رخ	-9.75817
▁نر	-9.75819
▁نظم	-9.75912
▁اداڪار	-9.75946
▁فيصل	-9.7599
▁تف	-9.7602
▁اقتصادي	-9.76084
ڊا	-9.76125
▁کاتي	-9.76135
▁سگهندو	-9.76186
id	-9.76214
▁نيڪ	-9.76256
▁ڪورونا	-9.76299
نڊي	-9.76301
▁رھ	-9.76304
▁2015	-9.76314
قد	-9.76347
▁ايش	-9.76373
قه	-9.76444
▁ثقافت	-9.7648
▁اسٽيٽ	-9.76514
▁والد	-9.7656
ذي	-9.7664
▁اپريل	-9.76697
▁کرد	-9.76721
▁خل	-9.76745
▁کر	-9.7676
▁ڳن	-9.76834
▁وجهي	-9.76837
▁نرم	-9.76857
▁ٻيون	-9.76867
▁دان	-9.76878
▁عندك	-9.76895
▁وع	-9.76904
▁بيڪ	-9.7691
▁هيڪ	-9.76984
▁سيل	-9.77029
is	-9.77046
18	-9.77046
هار	-9.77054
▁گول	-9.7708
ھا	-9.7709
▁ويچار	-9.77111
▁عندي	-9.77135
▁سيڙپڪاري	-9.77159
▁مصر	-9.77193
▁يس	-9.77214
▁پوائنٽ	-9.77263
▁حسن	-9.77272
▁گفتگو	-9.77292
▁ڀاءُ	-9.77315
▁مينهن	-9.77364
▁کولي	-9.77434
▁الص	-9.77529
▁ھاڻي	-9.77552
▁جانور	-9.7758
زين	-9.776
▁ماڻهوءَ	-9.77619
▁n	-9.77637
لينڊ	-9.77637
وان	-9.77671
فو	-9.77729
▁جوابدار	-9.77769
▁وسلم	-9.77777
▁اڳوڻي	-9.77845
▁مِ	-9.77868
▁ابتدائي	-9.77868
ڳو	-9.7787
▁محل	-9.77883
▁هزارين	-9.77884
▁ارب	-9.77978
▁ٽرانسپورٽ	-9.78039
▁گهرجن	-9.78074
▁شراب	-9.78154
▁عقل	-9.78188
▁ھا	-9.78188
▁ڪجھه	-9.782
▁ڪانفرنس	-9.78235
▁لطف	-9.78274
▁نواز	-9.78294
▁هلائڻ	-9.78295
ـــــــــــــــ	-9.78433
▁چئن	-9.78507
۔۔۔	-9.78526
ia	-9.78539
▁منصوبو	-9.78627
▁مثبت	-9.78631
▁تازه	-9.78632
▁آھيان	-9.7879
ههههههههههههه	-9.78795
ate	-9.78849
▁روايت	-9.78861
▁اِ	-9.78873
▁لازم	-9.78942
▁وطن	-9.79043
▁آمدني	-9.79109
▁توقع	-9.79143
▁شهرن	-9.7915
▁وڃائي	-9.79202
▁ناس	-9.79265
▁e	-9.7939
▁پد	-9.79416
▁واس	-9.79521
دان	-9.79528
▁اطلاع	-9.79615
▁فٽبال	-9.79617
ادي	-9.79636
▁امداد	-9.79641
▁لوڪ	-9.79658
▁خودڪار	-9.79672
▁سيڪيورٽي	-9.79814
لڪ	-9.79814
▁نقل	-9.79854
هههه	-9.79938
▁ڪاپي	-9.79955
▁60	-9.80018
▁نفرت	-9.80024
▁فخر	-9.80045
اسي	-9.80048
▁بچائي	-9.80072
▁مها	-9.80094
▁الر	-9.80103
v	-9.80108
نديون	-9.80134
رائي	-9.80336
um	-9.80365
▁خدمتن	-9.80466
▁مهل	-9.80468
▁هيس	-9.8053
▁ٽڪر	-9.8058
▁وڪيل	-9.80714
▁مک	-9.80721
▁تخ	-9.8073
ارا	-9.80737
بة	-9.80748
▁واريون	-9.80795
▁فرم	-9.80796
▁إن	-9.80873
▁ڏسندا	-9.80876
▁ٻيٽ	-9.80944
▁ورلڊ	-9.81035
▁اد	-9.81039
پس	-9.81077
ورو	-9.8112
▁انك	-9.81203
ne	-9.81305
▁وينديون	-9.81399
▁تك	-9.81514
▁زن	-9.81601
▁پابندي	-9.81606
▁نڪ	-9.81733
▁برداشت	-9.81824
▁ذميوار	-9.81895
اص	-9.81899
▁قيمتي	-9.81917
▁خدمتون	-9.81994
▁فو	-9.81998
▁هاءِ	-9.81998
▁الخ	-9.82003
▁جانورن	-9.82008
رق	-9.82102
▁هلندڙ	-9.82115
▁اك	-9.82121
اله	-9.82161
▁تش	-9.82231
▁اصلا	-9.82273
▁(1)	-9.82283
تني	-9.82295
▁وقف	-9.82311
▁بش	-9.82321
سك	-9.82334
قت	-9.82418
▁دعوت	-9.82435
▁ضمانت	-9.82436
▁اندروني	-9.82472
▁بعض	-9.82536
▁فائيل	-9.82584
▁چيست	-9.82638
▁يلا	-9.82654
▁شروعاتي	-9.82658
اٽ	-9.82698
11	-9.82812
▁انڊسٽري	-9.82845
▁يونين	-9.82878
▁هار	-9.82934
▁,,	-9.82999
▁پهتو	-9.83084
▁خون	-9.83087
▁26	-9.83101
▁رھيو	-9.83191
تكم	-9.83195
▁وساري	-9.83206
▁منفرد	-9.83256
▁هذه	-9.83257
يني	-9.83265
ونه	-9.8327
▁دستاويز	-9.83359
▁بادشاهه	-9.83361
عد	-9.83366
▁ابي	-9.83413
▁انٽرويو	-9.83462
▁بڻايو	-9.83494
▁بيٽري	-9.83574
▁ريل	-9.83674
▁أنا	-9.83769
ڊل	-9.83799
▁لهي	-9.83821
▁سادي	-9.83872
▁مسيح	-9.83887
▁اٿس	-9.83934
▁ماني	-9.83944
▁ٻاهرين	-9.83953
▁پهچڻ	-9.84006
▁اٿ	-9.84072
هل	-9.84141
ائر	-9.84161
▁خاصيتون	-9.84331
نھن	-9.84359
▁فتح	-9.84402
▁أخ	-9.84411
▁هڪٻئي	-9.84432
▁گهڻن	-9.84503
▁تيل	-9.84571
▁ڊا	-9.84644
▁نمائش	-9.84712
▁هلائي	-9.84761
▁کوليو	-9.84902
▁فيبروري	-9.84917
ac	-9.84992
▁جرمني	-9.8501
▁آم	-9.85073
▁اولاد	-9.85091
%	-9.85114
▁ماڻھن	-9.85132
▁عربي	-9.85271
ديد	-9.85284
▁مف	-9.85323
▁اصطلاح	-9.85337
▁معاملو	-9.85337
رح	-9.85365
se	-9.85434
▁رهيون	-9.85439
جڻ	-9.85455
▁ڊڄ	-9.855
▁نم	-9.85504
▁سڌي	-9.85508
▁ساهه	-9.85599
▁پرست	-9.85643
▁پاور	-9.85705
سه	-9.8572
▁چم	-9.85733
▁برقي	-9.85736
12	-9.85756
▁حقن	-9.85766
▁صفحي	-9.85766
▁ڪِ	-9.85779
▁ٽئين	-9.85861
▁روحاني	-9.85874
▁متعارف	-9.85972
ٻي	-9.85991
▁آءُ	-9.86011
15	-9.86055
▁پهچائي	-9.86081
▁سهولت	-9.86204
شم	-9.86299
▁مٽي	-9.86326
▁الك	-9.86328
▁هفته	-9.86355
▁سائيڪل	-9.86403
ڪٽ	-9.86409
▁جڳ	-9.86414
▁مسجد	-9.86423
▁X	-9.86431
يق	-9.86449
▁ڪاوڙ	-9.86458
▁الو	-9.86491
غير	-9.86592
▁الق	-9.86602
▁طلاق	-9.86613
▁چيه	-9.86638
؟!	-9.8667
عجب	-9.86772
ضحك	-9.86808
▁جوڙجڪ	-9.8682
▁انتخاب	-9.8682
▁افسوس	-9.8682
▁نتيجا	-9.8682
▁کپي	-9.86994
▁بلند	-9.87045
▁هڻي	-9.8706
▁تت	-9.87067
▁روڪڻ	-9.871
▁كه	-9.87167
▁هُ	-9.87224
▁پوزيشن	-9.87248
▁کاڌي	-9.87255
ابي	-9.87276
▁معاهدي	-9.87319
▁پيئڻ	-9.87372
;	-9.87462
▁برطانيه	-9.87462
دگي	-9.87473
ائو	-9.87541
مار	-9.87621
▁رجحان	-9.87678
▁معاشي	-9.87679
▁اليڪشن	-9.87688
▁ايشيا	-9.87696
▁قلم	-9.87752
▁ڇڏيا	-9.87838
▁رُ	-9.87878
▁مرمت	-9.87927
▁وِ	-9.87929
لام	-9.87971
▁حج	-9.88092
▁پريس	-9.88103
▁يافته	-9.88124
▁کوٽ	-9.88153
▁23	-9.88179
▁وڌو	-9.88196
▁سنڀال	-9.8822
▁نقش	-9.88243
▁اندازو	-9.88281
▁خاموش	-9.88281
▁ضرورتن	-9.88391
▁آرٽ	-9.88451
▁طول	-9.8848
▁تعليمي	-9.88503
▁روايتي	-9.8852
▁چور	-9.88565
and	-9.88671
▁بحالي	-9.88768
▁قاعد	-9.88771
▁اهڙن	-9.88783
ڏو	-9.8883
lo	-9.88847
▁مرڪزي	-9.88966
ڇا	-9.89011
▁سري	-9.89116
ڪڻ	-9.89164
▁وڪيپيڊيا	-9.89236
▁لس	-9.89257
ازي	-9.89326
▁ڊيل	-9.89384
▁عشان	-9.89421
▁ڏيان	-9.89518
▁پيئي	-9.89566
يده	-9.8959
▁ذريعو	-9.89634
▁کاڌو	-9.89646
sh	-9.8968
▁طبي	-9.89714
▁ٽا	-9.89727
ُو	-9.89768
آل	-9.89829
▁پُ	-9.89848
▁محبوب	-9.8986
▁ڪپڙا	-9.89876
tion	-9.89913
▁ٻيڙي	-9.8994
▁جُ	-9.89945
▁نشاني	-9.89977
▁زبردست	-9.90074
▁انڊيا	-9.90101
▁گھڻي	-9.90117
مة	-9.90155
قو	-9.90209
▁قر	-9.90237
▁1-	-9.90284
▁چاهيون	-9.90296
▁تڪرار	-9.90298
▁حا	-9.90305
▁شھر	-9.90341
ts	-9.90368
▁ڌڪ	-9.90389
▁وهي	-9.90415
▁پرين	-9.90438
▁امين	-9.90486
مير	-9.90516
ائيڊ	-9.90539
▁ريلوي	-9.90555
▁وڃان	-9.9067
▁شور	-9.90729
ترا	-9.90737
روح	-9.9079
يري	-9.90814
▁نار	-9.90893
▁تحليل	-9.90974
▁آڇ	-9.90998
▁سرڪار	-9.91279
▁حلوة	-9.91335
▁ڄ	-9.91358
▁احد	-9.91365
▁ابراهيم	-9.91406
▁اڳيون	-9.91418
▁27	-9.91459
▁پرواز	-9.91495
فق	-9.91526
▁قلب	-9.91555
ut	-9.91591
▁صد	-9.91635
▁ذهني	-9.91637
▁پتو	-9.91643
▁طرز	-9.91705
▁واقعن	-9.91709
▁يقول	-9.91826
▁تهيه	-9.91938
▁پاڻيءَ	-9.9206
بع	-9.92076
▁بہ	-9.92117
▁جوان	-9.92176
▁ڀارت	-9.92244
▁عجب	-9.92273
▁آيت	-9.92326
▁سگھون	-9.92364
ُن	-9.92397
ئه	-9.92398
▁بچي	-9.92453
▁هلڻ	-9.92484
▁پيل	-9.92513
19	-9.92515
▁ڪهڙا	-9.92549
▁روسي	-9.92597
▁ٻُڌ	-9.92636
▁سونهن	-9.92664
▁درجه	-9.92695
ړ	-9.92731
))	-9.92734
▁ڊائريڪٽر	-9.92759
de	-9.92935
▁عاد	-9.92945
▁وڌڻ	-9.92982
▁هائوس	-9.92983
▁28	-9.93002
▁ڪان	-9.93002
▁بيل	-9.9301
▁بيمار	-9.9301
▁ھئا	-9.93047
Y	-9.9305
▁تس	-9.93057
▁پنڌ	-9.93059
وڊ	-9.93064
▁فوٽ	-9.93138
▁80	-9.93139
▁موڊ	-9.93182
▁نڪتو	-9.93236
بط	-9.93294
الا	-9.93301
▁ڊپ	-9.93329
▁نگراني	-9.93368
▁چيم	-9.93373
▁ڏيندڙ	-9.93448
▁نف	-9.93462
كل	-9.93462
ندر	-9.93541
no	-9.93607
▁</	-9.93632
▁ڪائونسل	-9.93666
▁تعارف	-9.93676
▁ڪه	-9.93681
▁۱	-9.93817
▁زهر	-9.93843
▁ارسال	-9.9389
ڪڙ	-9.93968
▁ويه	-9.93983
ائيءَ	-9.94093
▁سند	-9.94205
▁برو	-9.94219
▁سڏي	-9.94263
ائيٽ	-9.9427
▁اوچتو	-9.94354
▁تعرف	-9.94356
▁لين	-9.94364
۱	-9.94428
▁سکيا	-9.94563
▁انٽرنيشنل	-9.94584
▁جرمن	-9.94621
▁انجڻ	-9.94643
▁راضي	-9.94644
؟؟	-9.94686
▁اڳواڻ	-9.94699
۰	-9.94812
▁ماسڪ	-9.94854
▁مرڻ	-9.94883
▁هين	-9.94897
حر	-9.94905
▁پلاسٽڪ	-9.95047
mp	-9.95072
▁ترا	-9.95156
▁مائي	-9.95177
▁آهستي	-9.95298
▁عليكم	-9.95316
▁ڪميٽي	-9.95317
▁اكيد	-9.9532
▁شعبي	-9.95392
▁رائ	-9.95435
▁آفريڪا	-9.95512
▁لائق	-9.95531
▁بيٺو	-9.95588
▁اکر	-9.95589
▁اينڊ	-9.95634
▁سرگرمين	-9.95655
▁ميچ	-9.95733
▁90	-9.9579
▁روزاني	-9.95866
▁گهرج	-9.95988
▁واه	-9.9602
▁رکيل	-9.9603
▁خيالن	-9.9613
▁سادو	-9.96176
▁مدت	-9.96183
▁پروفيسر	-9.96212
▁فورم	-9.96307
▁رکندو	-9.96363
▁ماهي	-9.96379
▁شمار	-9.96506
زر	-9.96507
▁نيٺ	-9.9651
▁آندو	-9.96537
▁سازي	-9.96539
▁لات	-9.96579
▁سينٽ	-9.96584
▁أن	-9.96599
▁ڊيم	-9.96606
▁ڇپ	-9.9663
▁ڪاٺ	-9.96663
▁نيشنل	-9.96683
▁i	-9.96704
▁ويٺي	-9.96743
▁الل	-9.9676
▁آفيسر	-9.96791
▁بازار	-9.9689
▁آسٽريليا	-9.96918
▁حرڪت	-9.9692
ڏا	-9.96944
▁چرا	-9.96978
▁ملڪي	-9.96984
▁اٿئي	-9.97003
▁مسلم	-9.97033
▁قا	-9.97063
▁رجسٽر	-9.97105
▁ملندي	-9.97143
▁ڀرسان	-9.97165
▁منٽن	-9.97172
▁2014	-9.97175
▁اوھين	-9.97204
▁نع	-9.97256
ڌا	-9.97262
ارت	-9.97277
▁اص	-9.97288
up	-9.97301
▁رش	-9.97391
▁بٽڻ	-9.97393
ولو	-9.97437
▁بازي	-9.97457
ۈ	-9.97479
25	-9.97541
▁چُ	-9.97562
▁چوندو	-9.97604
▁چيف	-9.97607
▁شڪر	-9.97611
▁بررسي	-9.97672
▁آمد	-9.97684
▁سپورٽ	-9.97686
▁تل	-9.97701
▁de	-9.97708
▁تعجب	-9.97713
▁جذب	-9.97755
▁پاسو	-9.97781
▁منحصر	-9.97867
▁ميوزڪ	-9.97868
▁ڪارروائي	-9.97868
▁ڦير	-9.97896
▁حملو	-9.97935
▁وٺندو	-9.97979
▁خطرو	-9.98055
▁گهري	-9.98085
▁ڪاغذ	-9.98106
▁دفعي	-9.98107
▁تجارتي	-9.98122
▁ڳنڍيل	-9.98181
▁رياضي	-9.98331
ٺي	-9.9836
▁کنيو	-9.98406
▁ڌاري	-9.98535
ant	-9.9858
▁Re	-9.98709
▁سائيٽن	-9.98796
▁ايئرپورٽ	-9.98825
▁ترجيح	-9.98826
▁انگيز	-9.98853
▁اُهو	-9.98871
اوي	-9.98995
▁ڪلو	-9.99065
▁ظلم	-9.99074
▁دولت	-9.99105
▁مقام	-9.99105
آر	-9.9916
▁ڪڍ	-9.99165
▁مقصدن	-9.99167
▁پهچ	-9.99234
▁ٽين	-9.99259
ياتي	-9.9926
▁افغان	-9.993
▁ٽپ	-9.99329
to	-9.99337
▁ڊو	-9.99344
▁چاهين	-9.99525
▁ڪلي	-9.99559
▁روزانو	-9.99575
ُون	-9.99609
▁چڙهي	-9.9968
▁چوڌاري	-9.99793
▁مطالبو	-9.99793
▁فنڪشن	-9.99801
؟؟؟	-9.99804
▁هفتن	-9.99847
▁ڪوٽ	-9.99856
▁اسٽيل	-9.99939
▁بيهي	-9.99976
▁معك	-9.99978
▁معاملن	-10.0004
▁سڪ	-10.0009
▁جميل	-10.0009
▁گُ	-10.0011
▁پنجن	-10.0011
توهان	-10.0015
▁چينل	-10.0028
▁تقرير	-10.0028
ver	-10.003
▁چونڊي	-10.003
▁چشم	-10.0033
ڪم	-10.0035
▁خبرون	-10.0036
▁هيك	-10.0037
▁عراق	-10.0053
▁بز	-10.0055
▁موثر	-10.0056
est	-10.0063
▁مٿين	-10.0065
▁طئي	-10.0068
ريل	-10.0071
▁دوستي	-10.0073
▁ترڪي	-10.0079
▁مهمان	-10.0084
▁مراد	-10.0084
▁پٽي	-10.0084
▁داخلا	-10.0085
▁شم	-10.0085
▁عيد	-10.0086
em	-10.0088
13	-10.0089
▁وڌندڙ	-10.0091
▁غم	-10.0091
وك	-10.0094
▁وڊيوز	-10.0099
▁عذاب	-10.0102
▁ذريعن	-10.0102
▁معيشت	-10.0103
يره	-10.0103
22	-10.0103
يٰ	-10.0115
▁ڪنڌ	-10.0117
▁پراڊڪٽ	-10.0124
▁لطيف	-10.0126
ائيندو	-10.0127
▁يال	-10.0128
▁چوري	-10.0132
دين	-10.0134
▁ڀت	-10.0134
▁فعل	-10.0139
زو	-10.0142
▁ملازم	-10.0149
▁صنعتي	-10.015
▁ڀيڻ	-10.0152
▁2013	-10.0153
▁ڏسندي	-10.0155
علم	-10.0156
▁تقريب	-10.0157
ab	-10.0159
▁انجنيئر	-10.0165
▁اور	-10.0169
بد	-10.017
-19	-10.0173
▁شكل	-10.0173
▁علائقو	-10.0176
▁تنقيد	-10.0176
▁ارادو	-10.0176
▁موجودگي	-10.0181
▁لب	-10.0184
▁اياز	-10.0185
▁ملازمن	-10.0186
▁انه	-10.0186
▁منظوري	-10.0187
▁وائ	-10.0188
▁رسم	-10.0192
▁مني	-10.0194
▁شرم	-10.0202
▁مص	-10.0206
▁رکون	-10.0208
ليٽ	-10.0209
▁يع	-10.0214
▁سيڪريٽري	-10.0225
▁شاخ	-10.0229
▁^^	-10.0239
▁وڌايو	-10.0241
j	-10.0247
ارڻ	-10.0254
▁آھيو	-10.0255
▁ٻوليءَ	-10.0267
▁پورٽ	-10.0269
▁منصوبن	-10.0275
▁ناقابل	-10.0275
▁ڊائونلوڊ	-10.0275
▁سڃاتو	-10.0275
▁حرارت	-10.0276
▁ڀرپور	-10.0276
▁برسات	-10.0285
▁احب	-10.0296
▁ڏياري	-10.0299
▁سئو	-10.03
راج	-10.03
▁حمل	-10.0307
▁&	-10.0313
▁؟؟؟	-10.0314
▁ماڳ	-10.0316
▁گرد	-10.0319
ثي	-10.0319
تري	-10.0323
▁وان	-10.0323
▁آء	-10.0324
▁فائدا	-10.0326
▁مادي	-10.033
▁قل	-10.0336
▁خد	-10.0339
▁کٽ	-10.0342
▁جت	-10.0343
▁تاج	-10.0347
▁برادري	-10.0348
ميل	-10.035
▁دريافت	-10.0351
عمل	-10.0352
▁اتحاد	-10.0355
ٰ	-10.0358
▁شريف	-10.0361
▁فيشن	-10.0367
لى	-10.0368
▁ڪٽ	-10.0369
داد	-10.0369
▁ڪلام	-10.0375
فل	-10.0375
▁خارجي	-10.0377
اااا	-10.038
▁نھ	-10.0391
▁ڪلاڪن	-10.0395
▁سيد	-10.0397
▁معي	-10.0398
▁ڌو	-10.0399
▁خطرناڪ	-10.0402
▁قلت	-10.0408
▁نڪرڻ	-10.0411
▁ساٿ	-10.0412
ئس	-10.0419
▁عالي	-10.0424
▁عبادت	-10.0427
▁الموضوع	-10.0428
▁ڄاڻڻ	-10.0431
▁شير	-10.044
صلى	-10.0444
دري	-10.0446
▁سڀاڻي	-10.0448
▁الش	-10.0449
▁متحرڪ	-10.0452
▁ڪئميرا	-10.0452
▁ٽريڪ	-10.0452
▁هندو	-10.0459
دة	-10.0461
اهه	-10.0462
▁اله	-10.0462
▁اُتي	-10.0465
پپ	-10.047
كس	-10.0473
▁امي	-10.0477
ry	-10.0478
▁اخلاقي	-10.0479
خان	-10.0492
▁ڊوڙ	-10.0495
▁وب	-10.0499
▁سرگرمي	-10.05
▁ياداشت	-10.0503
ائجي	-10.051
ڦ	-10.0515
▁ريڊ	-10.0516
▁بلڪه	-10.0521
▁پنھنجو	-10.0529
▁مرضي	-10.0532
ڙھ	-10.0535
▁نهايت	-10.0538
▁پيرن	-10.0548
▁اڏام	-10.0551
▁عاشق	-10.0554
▁دفعا	-10.0555
▁تشدد	-10.0555
▁رئيس	-10.0555
▁اصلاح	-10.0557
▁ڪيئي	-10.0558
▁شيءَ	-10.0558
▁ڪناري	-10.057
▁چمڙي	-10.0573
▁شيخ	-10.0576
▁وصول	-10.0577
▁ڀائي	-10.0577
▁ديو	-10.058
▁خوراڪ	-10.058
▁رکندي	-10.058
چا	-10.0585
▁زمرو	-10.0585
کر	-10.0591
ay	-10.0591
▁w	-10.0595
▁مآ	-10.0597
▁طبق	-10.0602
▁رج	-10.0604
ni	-10.0605
▁فيك	-10.0611
ٽري	-10.0625
▁رحم	-10.0627
ية	-10.0633
يڪا	-10.0634
▁تحرير	-10.0635
▁ڦر	-10.0639
حت	-10.0642
▁ٻولين	-10.0652
▁پرنٽ	-10.0664
▁سوي	-10.0668
14	-10.0668
▁ننڍڙي	-10.0668
▁آڏو	-10.0671
os	-10.0673
▁روئي	-10.0683
نى	-10.0689
▁وارث	-10.0696
▁شهرين	-10.0696
▁رھيا	-10.0701
ڪيو	-10.0706
▁قبضو	-10.071
▁اعتبار	-10.0711
▁مرحله	-10.0711
▁مق	-10.0718
▁ڪيان	-10.0718
40	-10.0721
▁گهرن	-10.0721
▁خطري	-10.0722
ion	-10.0726
▁70	-10.0728
ائڊ	-10.0731
پٽ	-10.0736
▁هئاسين	-10.0736
▁ڊيسڪ	-10.0738
▁حصيداري	-10.0738
▁علمي	-10.0738
▁سپري	-10.0739
ئا	-10.0742
▁عرض	-10.0743
▁حصا	-10.0744
تح	-10.0746
▁ناھي	-10.0754
▁چر	-10.0759
▁ڊگهو	-10.0764
▁خوا	-10.0768
رڻ	-10.0777
▁مسلمانن	-10.0777
▁لڳائي	-10.0779
ma	-10.0781
▁رٿ	-10.0783
ُر	-10.0784
▁قابليت	-10.0788
▁ڊزائين	-10.0789
▁سرهندي	-10.0789
▁ترميم	-10.079
▁هتان	-10.0793
▁فيصلي	-10.0799
na	-10.0804
01	-10.0807
▁نظارو	-10.0815
▁دؤر	-10.0815
able	-10.0816
▁رفت	-10.0816
چه	-10.0817
▁پڙهو	-10.0818
▁اديب	-10.0823
زل	-10.0827
رام	-10.0833
▁يکي	-10.0836
عة	-10.084
▁طوفان	-10.0842
▁پيچ	-10.0851
99	-10.0874
▁تنھنجي	-10.0876
▁(1	-10.0877
▁مشق	-10.0879
▁کڻ	-10.0884
▁اخ	-10.089
سال	-10.0894
▁3-	-10.0901
▁لكن	-10.0909
▁ندي	-10.091
ودي	-10.091
▁جولاءِ	-10.0915
▁حيات	-10.0917
▁مزدور	-10.0922
الو	-10.0928
▁حضور	-10.093
▁بچڻ	-10.093
ڍي	-10.0933
▁قدرت	-10.0935
▁لڳل	-10.0939
فكر	-10.094
ستي	-10.0942
▁ڪمپنيون	-10.0944
▁معاشري	-10.0946
▁سهڻي	-10.0954
ايد	-10.0958
17	-10.0968
▁رساله	-10.0973
▁انسانيت	-10.0975
▁معصوم	-10.0975
▁حالا	-10.0975
چار	-10.0977
▁ماهرن	-10.0988
):	-10.0994
كك	-10.0998
▁ثبوت	-10.1002
▁ويٺا	-10.1002
▁ڏٺي	-10.1005
▁شريڪ	-10.1007
▁جيان	-10.1009
▁منك	-10.1024
نده	-10.1035
جم	-10.1036
▁ڦٽ	-10.1043
▁دوري	-10.1047
▁of	-10.1048
▁بلا	-10.1053
▁جماعت	-10.1056
▁اٽڪل	-10.1056
▁پذير	-10.1056
▁ملندو	-10.1057
▁ريڊيو	-10.1064
▁ورهين	-10.1065
▁پيامبر	-10.1066
▁اڪ	-10.1068
▁ٽائيم	-10.1069
▁تنگ	-10.1069
▁بوٽ	-10.1073
ack	-10.1076
▁نتيجن	-10.1083
▁فائدي	-10.1085
▁·	-10.1086
▁منتقلي	-10.109
▁تقريبا	-10.109
▁پائڻ	-10.1091
▁اخي	-10.1095
▁هلا	-10.1104
▁هيڊ	-10.1108
▁اينڊرائيڊ	-10.1108
▁اشتهار	-10.1112
▁تباهه	-10.1114
▁5.	-10.1122
▁پال	-10.1128
يڪل	-10.113
ڌو	-10.1143
▁انسانن	-10.1144
▁اليوم	-10.1144
▁احس	-10.1146
▁وائي	-10.1159
▁ڊومين	-10.1166
▁بلاڪ	-10.1168
▁اخت	-10.1171
▁فين	-10.1173
▁گهرو	-10.1177
▁سلامت	-10.118
▁ڏند	-10.1181
▁شاعريءَ	-10.1182
▁صف	-10.1187
انگ	-10.119
▁گراف	-10.119
طف	-10.1191
▁مرا	-10.1198
ment	-10.1202
▁سوالن	-10.1209
▁ٻڌائڻ	-10.1225
▁هاري	-10.123
▁اختي	-10.1231
▁لڳندو	-10.1232
co	-10.1233
▁عليك	-10.1234
▁تقول	-10.1237
▁حي	-10.1239
▁ڪلب	-10.1241
▁اختلاف	-10.1247
▁سرچ	-10.1249
▁پاڪستاني	-10.125
▁لڳائڻ	-10.1252
▁يكون	-10.1254
▁مرڪ	-10.1256
▁ڪوٺي	-10.1268
▁بق	-10.1269
▁رائع	-10.1279
▁هذي	-10.1281
per	-10.1288
ha	-10.1299
▁احترام	-10.1302
خر	-10.1305
▁بنت	-10.1306
تاب	-10.1308
▁ماء	-10.1319
▁زو	-10.1322
▁سنڀالي	-10.1325
حال	-10.1329
▁آي	-10.1329
▁جامع	-10.1334
▁فارسي	-10.1334
▁ماڻي	-10.1339
▁تعليق	-10.134
▁مثالي	-10.1341
آإ	-10.1346
ٿو	-10.1346
▁ظ	-10.1346
▁بط	-10.1348
▁ڄڻا	-10.1352
▁هڻ	-10.1352
▁In	-10.1354
▁سگهندي	-10.1357
▁تازي	-10.1359
▁ڊسڪ	-10.1361
▁ورزن	-10.1367
▁گولي	-10.137
▁خر	-10.1377
▁هستي	-10.1382
▁ڇڏيندو	-10.1388
وئي	-10.1402
▁لان	-10.1409
▁هُئي	-10.1411
دام	-10.1411
▁شكله	-10.1413
▁نمائندگي	-10.1414
▁صفحو	-10.1414
▁اسٽاڪ	-10.1416
▁ڊرائيور	-10.1416
صد	-10.1423
▁خارج	-10.1429
▁يك	-10.1429
▁مريم	-10.1437
▁نوجوانن	-10.1437
▁پڙهيو	-10.1441
▁صحافي	-10.1444
▁پکي	-10.1445
▁باڪس	-10.1447
▁پڙهائي	-10.1459
▁اما	-10.1463
ڪشن	-10.1466
▁کنڊ	-10.1466
▁ننڍو	-10.147
خخخ	-10.1472
▁ٿينديون	-10.1474
nd	-10.1475
▁نون	-10.1476
آم	-10.1478
▁حالتون	-10.148
▁ٻوٽ	-10.1482
▁واقعو	-10.1492
▁تقسيم	-10.1499
▁صفائي	-10.1502
▁مددگار	-10.1506
▁ٺاهيل	-10.1508
▁پيماني	-10.1516
▁ليڪن	-10.1523
▁برف	-10.1524
▁بزرگ	-10.1527
▁فرانسيسي	-10.1527
▁گهٽتائي	-10.1527
▁گلاب	-10.1528
▁آھيون	-10.1532
▁فلٽر	-10.1535
▁توسان	-10.1538
▁ٽيڪ	-10.1553
▁يوٽيوب	-10.1555
وسي	-10.1556
کان	-10.156
▁معاف	-10.1561
رض	-10.1565
di	-10.1565
▁سارا	-10.1566
▁مهر	-10.157
▁ڀريو	-10.1574
age	-10.1584
▁ڏيکاريو	-10.1584
▁شڪايت	-10.1585
▁خاصيت	-10.1585
▁شان	-10.1585
▁ساز	-10.1586
ڙيءَ	-10.1586
▁فى	-10.1587
▁چڪر	-10.1592
▁اسٽار	-10.1595
▁ھٿ	-10.16
▁تياري	-10.1602
▁مارجي	-10.1607
▁سياري	-10.1607
هآ	-10.1609
لعب	-10.1609
▁مئ	-10.1613
▁پوک	-10.1613
▁واسطو	-10.1614
گھ	-10.1616
▁نگاه	-10.1618
ورا	-10.162
▁پنجاب	-10.1631
بان	-10.1633
▁نقطي	-10.164
▁مستقل	-10.1643
▁st	-10.1643
▁گذر	-10.165
▁co	-10.1655
لة	-10.1655
▁ڪورس	-10.1657
▁رهجي	-10.166
+	-10.166
▁پهر	-10.1662
▁خاصيتن	-10.1662
▁بھ	-10.1664
تان	-10.1668
ائش	-10.167
▁غائب	-10.167
▁پسنديده	-10.1674
ho	-10.1681
▁سنه	-10.1693
▁رانديگرن	-10.1696
جهه	-10.1704
▁نيڻ	-10.1709
▁شرطن	-10.1717
▁35	-10.1718
▁اڪثريت	-10.1723
▁ڪنديون	-10.1725
▁Z	-10.1725
ګ	-10.1727
▁sub	-10.1728
▁مڪ	-10.1741
▁هئو	-10.1741
▁چٽ	-10.1742
حه	-10.1742
▁اثرات	-10.1755
ist	-10.1755
▁زم	-10.1756
▁آپريٽنگ	-10.1756
▁سگھوٿا	-10.1757
▁احم	-10.176
▁كذا	-10.1762
▁تسلم	-10.1763
▁سِ	-10.1764
▁لئه	-10.1764
باب	-10.1765
▁سامونڊي	-10.1786
رڊ	-10.1789
▁فيلڊ	-10.1792
▁سردار	-10.1797
▁باز	-10.1802
▁طب	-10.1803
▁لاهي	-10.1803
▁متعلق	-10.1816
▁جپان	-10.1816
▁تڪڙ	-10.1818
▁ڊر	-10.1822
▁مفيد	-10.1823
▁نش	-10.1835
▁سٽ	-10.1837
▁بص	-10.1837
▁بع	-10.1838
▁ملن	-10.1845
▁اھڙي	-10.1845
واري	-10.1852
60	-10.1853
▁اِن	-10.1854
▁طريق	-10.1861
عليه	-10.1865
▁مك	-10.1867
▁هندي	-10.1867
طلع	-10.187
▁برطانيا	-10.1873
▁فرا	-10.1873
▁(2)	-10.1874
▁صبر	-10.1875
▁ڀو	-10.1876
ill	-10.1879
▁مضحك	-10.1887
ثر	-10.189
▁29	-10.1891
▁معاهدو	-10.1892
▁حم	-10.1893
▁يالله	-10.1894
▁هيٺان	-10.1895
="3	-10.1898
▁ريس	-10.1898
▁حملي	-10.1899
▁ڪهاڻيون	-10.1903
▁مطالعو	-10.1903
▁con	-10.1903
16	-10.1904
ٽين	-10.1912
ood	-10.1916
صور	-10.1918
▁رھي	-10.192
▁ٽڪ	-10.1926
▁ستار	-10.1927
▁ڪچهري	-10.1933
▁اسمارٽ	-10.1933
▁مهينا	-10.1933
▁تصويرن	-10.1937
▁ٿڪ	-10.194
▁حڪمران	-10.1941
▁قبر	-10.1946
ايون	-10.1948
▁صفحه	-10.1962
om	-10.1963
▁آپشن	-10.1964
▁وفا	-10.1966
غرب	-10.197
▁ڇڪي	-10.1973
▁رم	-10.1975
▁صدق	-10.1979
▁چوان	-10.1993
▁يح	-10.2
▁پريشاني	-10.2004
▁چئو	-10.2005
وووو	-10.2006
▁ديد	-10.2014
ڙيون	-10.2018
▁مستحڪم	-10.2021
▁انفرادي	-10.2021
▁مطالعي	-10.2021
▁جانچ	-10.2026
▁الناس	-10.2028
▁اتان	-10.2041
▁عين	-10.2042
آآآآ	-10.2043
▁خلق	-10.2044
▁كله	-10.2048
▁چڪاس	-10.2049
▁لن	-10.2056
▁Y	-10.2056
ااااا	-10.2063
آه	-10.2065
▁رهو	-10.2066
▁بشر	-10.2067
▁نسخ	-10.207
▁اعرف	-10.207
▁واچ	-10.2072
▁سروي	-10.2073
مسنگ	-10.2073
▁پياري	-10.2076
▁اسٽوريج	-10.2081
▁پمپ	-10.2081
▁روزگار	-10.2084
▁ڄاڻو	-10.2089
▁خو	-10.2094
▁رسي	-10.21
▁ھيٺ	-10.2101
ينا	-10.2104
mo	-10.2106
▁لڳايو	-10.2111
ڻا	-10.2115
وحيد	-10.2121
▁بحران	-10.2128
▁چاه	-10.2129
▁هلندو	-10.2132
▁500	-10.2135
▁نيٽورڪ	-10.2141
ex	-10.2146
▁ڪارڻ	-10.2147
▁وڇ	-10.2151
فته	-10.2153
▁ننڍڙو	-10.2163
▁باس	-10.217
21	-10.2171
▁پيدائش	-10.2171
ولا	-10.2173
vi	-10.2173
ti	-10.2174
▁هلندي	-10.2175
▁بُ	-10.2175
▁ڏوهه	-10.2177
سنواريو	-10.2177
▁جائز	-10.2178
ve	-10.2181
▁سرحد	-10.2184
=	-10.2187
mm	-10.2192
▁چوٽي	-10.2195
رسي	-10.2197
ينه	-10.2202
▁Co	-10.2202
▁ثقافتي	-10.2203
▁پيج	-10.2207
ھڻ	-10.2208
▁راس	-10.221
▁سمجهو	-10.2211
▁منجھ	-10.222
▁مشكور	-10.2233
▁موڪلڻ	-10.2235
▁تنھن	-10.2235
اره	-10.2237
▁پهلو	-10.2239
▁المهم	-10.2241
▁نان	-10.2254
▁اڳواڻن	-10.2256
▁مرض	-10.2258
der	-10.2258
▁گري	-10.2259
one	-10.2259
وال	-10.2259
▁تبصرو	-10.2262
▁عيسائي	-10.2263
▁وأ	-10.2264
▁ديس	-10.2264
رات	-10.2268
▁عادت	-10.227
حس	-10.2272
ائيندي	-10.2272
▁فور	-10.2272
ں	-10.2275
يعني	-10.228
▁صلي	-10.2282
▁لينڊ	-10.2284
▁انگريزن	-10.2285
▁هارڊ	-10.2286
▁کٽي	-10.2286
▁قيام	-10.2286
▁and	-10.2288
خير	-10.2293
▁نكت	-10.23
▁يادگار	-10.23
كِ	-10.2302
▁مارڪ	-10.2303
▁رواج	-10.231
▁اپيل	-10.2329
▁مفاد	-10.2329
▁سائنسي	-10.2332
▁فني	-10.2341
▁پيس	-10.2349
▁اخو	-10.235
▁ٽرئفڪ	-10.2355
▁فلسفي	-10.2355
▁ايوارڊ	-10.2355
▁ادري	-10.2355
▁کاٻي	-10.2356
▁پلس	-10.236
▁پروسيسنگ	-10.2361
▁گن	-10.2362
▁تفصيلي	-10.2369
▁ميشه	-10.237
▁پيئ	-10.2379
است	-10.238
ويه	-10.2381
▁پيغمبر	-10.2385
▁انھيءَ	-10.2386
ine	-10.2387
▁غذا	-10.2387
ڊس	-10.2397
▁هاء	-10.2413
▁مصروف	-10.2413
▁دوم	-10.2413
▁موبائيل	-10.2416
▁COVID	-10.2416
▁سڄڻ	-10.2416
▁ڪريڊٽ	-10.2417
▁ڳا	-10.242
▁حديث	-10.2424
▁هيل	-10.2429
▁سومر	-10.243
▁شاه	-10.2434
▁پاپ	-10.2438
▁روان	-10.2446
ځ	-10.2447
ږ	-10.2447
▁عند	-10.2454
چين	-10.2462
▁ماهه	-10.2467
وٽو	-10.247
علي	-10.2473
▁شكلك	-10.2474
▁ڪام	-10.2475
کا	-10.2476
▁چونڊڻ	-10.2477
▁نسخو	-10.248
▁عادي	-10.2481
▁جاڳ	-10.2486
▁کم	-10.2491
▁ڏه	-10.2495
وق	-10.2498
▁نصب	-10.2498
▁گيري	-10.2505
▁روانو	-10.251
▁كثير	-10.251
▁تضحك	-10.2521
شين	-10.2524
▁آخرين	-10.2525
▁جج	-10.2528
لڊ	-10.2535
ڪيل	-10.2535
▁سائ	-10.2536
ph	-10.2538
▁سائن	-10.2539
ټ	-10.2541
▁رڪاوٽ	-10.2541
▁توجيهي	-10.2541
▁خالص	-10.2544
▁يادگيري	-10.2544
اڻا	-10.2546
▁ڪتي	-10.2552
▁كده	-10.2554
ٽنگ	-10.2562
▁بور	-10.2562
▁ھتي	-10.2574
▁فارميٽ	-10.2579
▁سهڪار	-10.258
▁خام	-10.2583
▁جمهوريت	-10.2583
▁مسٽر	-10.2583
▁سيڪشن	-10.2584
▁مز	-10.2588
ڀا	-10.2591
▁ڀيري	-10.2596
سلام	-10.2602
▁مبارڪ	-10.2602
▁بدقسمتي	-10.2604
▁ٽڪيٽ	-10.2607
▁2012	-10.2607
▁مليا	-10.2609
NT	-10.2611
lu	-10.2612
▁سکر	-10.2613
▁گذارڻ	-10.2616
▁صفا	-10.2624
▁نجي	-10.2635
هِ	-10.2635
▁بيٺل	-10.2636
▁بڻ	-10.2636
▁سمارٽ	-10.2637
▁اسٽر	-10.2637
لها	-10.264
▁ٻاهران	-10.2648
▁خوبي	-10.2651
▁ٿڌي	-10.2654
▁اجر	-10.2655
▁ويڪسين	-10.2666
▁خشڪ	-10.2668
▁انگلينڊ	-10.2669
▁هٿيار	-10.267
▁بچايو	-10.2671
طو	-10.2673
▁ڪسٽم	-10.2676
▁بنائڻ	-10.268
کن	-10.2684
▁سوا	-10.2685
ائپ	-10.2686
▁پيء	-10.2688
▁شل	-10.2689
▁اھا	-10.269
▁گھڻا	-10.2693
▁شنو	-10.2697
▁اعتراض	-10.2699
▁گوشت	-10.2705
▁معنا	-10.2705
▁ناچ	-10.2705
▁اُها	-10.2708
▁وراڻيو	-10.2708
طور	-10.2712
▁جهڙا	-10.2713
جهي	-10.2715
▁ڊگري	-10.2724
▁اوهين	-10.2724
▁ماسٽر	-10.2731
▁چيئرمين	-10.2731
▁پڇڻ	-10.2732
هههههههههههههه	-10.2734
▁صدارت	-10.2734
▁2010	-10.2737
▁پورا	-10.2744
▁تري	-10.2751
فٽ	-10.2758
▁ڊيٽابيس	-10.2763
▁ڪميونٽي	-10.2763
▁جَ	-10.2764
▁منجه	-10.277
▁راهه	-10.2775
▁ثاني	-10.2777
مبر	-10.2778
▁راڄ	-10.2788
▁فنڊ	-10.279
▁تد	-10.2795
▁ڪشمير	-10.2796
▁ڪرڪيٽ	-10.28
▁d	-10.2802
▁عهد	-10.2802
▁آپ	-10.2807
▁سستي	-10.2814
▁ديوار	-10.2815
▁سيٽنگ	-10.2815
▁Ma	-10.2817
▁ديگر	-10.2819
▁لما	-10.2825
▁ڊسپلي	-10.2828
:-	-10.2831
▁2011	-10.2831
▁هونئن	-10.2832
▁معنى	-10.2832
سنڌي	-10.2833
▁is	-10.2842
فار	-10.2846
▁كمان	-10.2849
▁دفاع	-10.286
▁منھنجو	-10.2862
▁ڪش	-10.2864
▁رکندا	-10.287
▁نالن	-10.2872
▁وانت	-10.2875
▁200	-10.2881
▁اميدوار	-10.2884
ڳي	-10.2886
▁تڪڙو	-10.289
▁گير	-10.2891
ضح	-10.2891
▁ڪيميائي	-10.2893
▁صحتمند	-10.2894
دى	-10.2898
▁مسافرن	-10.2906
▁ڪاريگر	-10.2907
▁ڏور	-10.2909
ڙهي	-10.2911
▁تخليقي	-10.2911
▁be	-10.2912
▁مام	-10.2915
▁ڪارپوريشن	-10.2925
آي	-10.2931
▁گرين	-10.2932
ng	-10.2933
▁گهم	-10.2954
بق	-10.2955
▁چونڊن	-10.2956
ڵ	-10.2958
▁سگنل	-10.2958
▁آڊيو	-10.2958
▁ڏو	-10.2963
▁گلي	-10.2964
▁نصيب	-10.2964
▁نت	-10.2964
qu	-10.2966
▁رهندڙ	-10.2966
▁ليک	-10.2974
▁كلهم	-10.2983
برا	-10.2988
▁ٽرمينل	-10.2991
▁گڏجاڻي	-10.2991
▁تلاش	-10.2992
▁وير	-10.2996
▁نوٽيس	-10.2996
بند	-10.2997
▁ــ	-10.2998
طا	-10.2999
▁ڌڻي	-10.3001
▁ظاهري	-10.3002
ممم	-10.3004
all	-10.3007
▁بيگ	-10.301
▁اڏ	-10.3018
ڇو	-10.3023
▁گنجائش	-10.3024
▁ڇوڪرو	-10.3024
ap	-10.3025
▁احوال	-10.3025
▁دبئي	-10.3027
▁ڪارڪنن	-10.3033
▁عطا	-10.3036
▁ملائي	-10.3037
▁ماڻ	-10.3038
▁كا	-10.3038
▁صار	-10.3044
ard	-10.3049
▁يت	-10.3051
▁جذباتي	-10.3055
▁جدوجهد	-10.3057
▁مداخلت	-10.3057
ريءَ	-10.3063
▁کپ	-10.3066
اھي	-10.3077
ِين	-10.3079
صير	-10.308
▁تبي	-10.3086
ak	-10.3088
▁يب	-10.309
نام	-10.3091
▁حوالو	-10.3092
▁ضلعي	-10.3095
▁خواهي	-10.3096
▁بقى	-10.3097
▁نياڻي	-10.31
▁خا	-10.3102
ائٽ	-10.3102
قة	-10.3104
▁ويندس	-10.3116
▁مم	-10.3117
▁ضحكت	-10.3121
▁اھم	-10.3123
▁ماحولياتي	-10.3125
24	-10.3127
روز	-10.3128
▁فنڪار	-10.3129
res	-10.3132
▁رسيد	-10.3134
▁مقا	-10.315
▁همه	-10.3152
pa	-10.3157
▁r	-10.3158
▁احلى	-10.3158
▁ديگه	-10.3162
▁آغاز	-10.3163
▁كلام	-10.3168
مال	-10.3173
▁حادث	-10.3175
67	-10.3176
▁يم	-10.318
▁جيتري	-10.318
▁منفي	-10.3188
▁اقتدار	-10.319
▁ايجنٽ	-10.319
▁مزاج	-10.3192
▁ڪٿان	-10.3197
▁بجيٽ	-10.3197
▁ھجي	-10.3198
لائي	-10.3198
▁تعالي	-10.3203
si	-10.3205
▁کسي	-10.321
▁هَ	-10.3212
▁ڏهن	-10.3213
▁جتان	-10.3218
▁سختي	-10.3218
▁مطمئن	-10.3223
▁محروم	-10.3223
▁صوبي	-10.3224
▁کيڏڻ	-10.3224
▁طبيعت	-10.3224
▁ڪيسن	-10.3228
▁شڪست	-10.3231
ااااااااا	-10.3234
صح	-10.3242
▁بلڪ	-10.3244
▁خوشبو	-10.3244
▁جشن	-10.3247
▁ڊيوائس	-10.3257
▁يقينا	-10.3257
▁مليل	-10.3261
▁طرفن	-10.3269
▁31	-10.327
▁لع	-10.3283
پن	-10.3285
▁گز	-10.3287
▁ٽري	-10.3289
▁اندوز	-10.3292
▁پنهنجون	-10.3292
▁رجسٽريشن	-10.3292
▁ڪٽي	-10.3299
hi	-10.3299
▁گرفت	-10.3303
ٿر	-10.3309
▁قوي	-10.3311
ting	-10.3316
▁بقا	-10.332
فهم	-10.3323
▁ڌاتو	-10.3325
▁گهٽائڻ	-10.3326
▁ڪپڙن	-10.3327
▁لآ	-10.3327
▁تخت	-10.3328
▁پھچ	-10.3329
▁هِن	-10.333
وڙي	-10.333
▁پاڙ	-10.3341
▁جادو	-10.3342
ie	-10.3348
▁پنه	-10.3349
فون	-10.3356
▁سگهيا	-10.3358
▁دعويٰ	-10.3359
▁2008	-10.3362
بري	-10.3365
تكلم	-10.3366
▁توکان	-10.3367
بير	-10.337
زار	-10.3373
▁دريا	-10.3382
▁پڙه	-10.3389
▁والو	-10.339
▁نيب	-10.3392
▁پيچيده	-10.3393
اڳ	-10.3395
▁مرحلي	-10.3398
دد	-10.3402
▁اهڙيون	-10.3404
▁عملن	-10.3404
▁بح	-10.3409
▁هٽ	-10.3411
ڳا	-10.3412
ke	-10.3412
▁ٽاپ	-10.3419
طه	-10.3419
▁ناممڪن	-10.3427
▁فيڪٽري	-10.3428
▁اِهو	-10.343
▁ليزر	-10.3435
▁l	-10.3437
pe	-10.3441
▁نما	-10.3456
▁ڇڏيندا	-10.3461
ies	-10.3461
▁نمايان	-10.3463
▁سيڪنڊ	-10.3465
ترين	-10.347
ow	-10.3471
▁سست	-10.3472
▁اکرن	-10.3473
▁ماٺ	-10.3476
▁ڪچ	-10.3484
۔۔	-10.3485
ity	-10.3485
▁ڌيءَ	-10.3486
▁منعقد	-10.3496
▁برنامه	-10.3496
▁پيڪيج	-10.3496
کار	-10.3496
▁حرام	-10.3497
▁ويجهي	-10.3502
وقت	-10.3503
▁پيارا	-10.3506
if	-10.3507
قلب	-10.3509
▁حبيب	-10.3515
▁كر	-10.3517
▁گروه	-10.3525
۔۔۔۔	-10.3526
▁ايجنسي	-10.3531
▁ارو	-10.3536
▁ريٽ	-10.3547
▁اليڪٽرانڪ	-10.3565
▁ڪانگريس	-10.3565
▁ڪلوميٽر	-10.3565
▁سکي	-10.3566
▁سائنسدان	-10.3567
▁آخ	-10.3568
وض	-10.3569
▁پهچايو	-10.357
▁خطي	-10.3572
▁تعلقات	-10.3572
▁طريقيڪار	-10.3574
ٽيل	-10.3577
▁چال	-10.3578
▁كتير	-10.3578
▁أي	-10.3581
▁ڪانگ	-10.3588
▁داري	-10.359
▁سرد	-10.3591
ايم	-10.3595
حة	-10.3597
▁v	-10.3597
ډ	-10.36
▁مشغول	-10.36
▁شيطان	-10.36
▁مٺ	-10.3601
▁حاڪم	-10.3601
▁شك	-10.3603
▁نص	-10.3603
▁نفسياتي	-10.3603
▁وج	-10.3605
▁ماس	-10.3612
▁ادارو	-10.3622
شل	-10.3623
▁صلاحيتن	-10.3624
▁مٺي	-10.3628
▁گان	-10.3632
▁رول	-10.3633
▁چوٿين	-10.3635
▁بوتل	-10.3635
▁داستان	-10.3639
▁جنت	-10.3658
▁بهار	-10.366
▁ڪيائون	-10.366
▁احسان	-10.367
▁ملائيشيا	-10.367
▁ٻانهن	-10.367
▁چانهه	-10.367
▁فرمايو	-10.3675
▁رڙ	-10.3676
خلي	-10.3679
▁حساس	-10.3679
▁پابند	-10.3681
▁ناز	-10.3685
▁تک	-10.3689
ههههههههههههههه	-10.3693
▁يخ	-10.3695
خصوص	-10.3695
▁باش	-10.37
▁((	-10.3713
▁سهي	-10.3714
كتب	-10.3714
▁ساحل	-10.3714
▁عدد	-10.372
~	-10.3721
قص	-10.3722
▁اُنهن	-10.3726
▁روڪيو	-10.3727
ريز	-10.3731
▁مغ	-10.3732
▁Ch	-10.3741
▁فلسطين	-10.3741
▁رهنمائي	-10.3741
▁نامي	-10.3747
▁ٽيگ	-10.375
جانءِ	-10.3752
▁ٻارڙن	-10.3752
▁گهمڻ	-10.3754
▁وڏيون	-10.3756
که	-10.3767
▁اكل	-10.3767
ok	-10.3768
iz	-10.3772
▁پارليامينٽ	-10.3776
▁پروجيڪٽ	-10.3776
▁ويٺل	-10.3776
اين	-10.3778
▁اعظم	-10.378
▁وسيلي	-10.3781
▁لأن	-10.3783
▁سنئون	-10.3784
▁پينل	-10.3785
▁قطار	-10.3787
▁گريڊ	-10.3787
▁بچاء	-10.3795
▁ايڏو	-10.38
▁فيها	-10.3803
96	-10.3806
▁ننڍن	-10.3812
▁سينيٽ	-10.3813
▁بجاءِ	-10.3813
▁پوئين	-10.3819
▁انگريز	-10.3823
▁يضحك	-10.3827
ear	-10.3836
▁ڏهه	-10.3841
▁ڳاله	-10.3842
▁ميڊيڪل	-10.3847
▁اعزاز	-10.3847
▁تفريح	-10.3847
▁منافع	-10.3848
▁ڇت	-10.3854
▁واڌاري	-10.3859
▁رهائش	-10.3862
▁الد	-10.3863
▁ڪور	-10.3866
▁وٺندي	-10.3868
▁خبردار	-10.3871
▁ڏيکارڻ	-10.3884
▁un	-10.3885
▁لاهور	-10.3885
▁فريم	-10.389
ip	-10.3892
▁الز	-10.3894
▁ڪروڙ	-10.3895
▁فهم	-10.3895
▁مدل	-10.3897
▁ميٽ	-10.3898
▁گيم	-10.3899
85	-10.3916
ڈ	-10.3918
▁استحڪام	-10.3919
▁وسيلن	-10.392
▁ڳولهي	-10.3923
▁مشورو	-10.3926
▁ٻج	-10.3926
▁مارڻ	-10.3926
▁عهدي	-10.3933
ڌر	-10.3934
▁ڀلو	-10.3938
▁دُ	-10.3942
▁چاھيو	-10.3942
▁ڪسٽمر	-10.3945
▁De	-10.3951
ئِي	-10.3951
منهنجي	-10.3953
▁تجربن	-10.3955
▁سوراخ	-10.3955
▁چهري	-10.3958
▁ڊائ	-10.3961
▁وچولي	-10.3973
▁ونڊ	-10.398
▁چيٽ	-10.398
80	-10.3981
▁45	-10.3983
▁هنڌن	-10.3987
▁همين	-10.3988
▁برطانوي	-10.3991
▁اڪيلي	-10.3993
مك	-10.3995
▁ٺهي	-10.4001
▁بھترين	-10.4005
23	-10.4006
▁خرابي	-10.4007
▁اولين	-10.4008
▁بادشاه	-10.4009
▁نج	-10.402
▁جاپان	-10.402
آآآ	-10.4025
links	-10.4028
▁چئبو	-10.4029
▁اجل	-10.4031
▁سمجهاڻي	-10.4032
▁ربي	-10.4036
▁فطري	-10.4037
▁عنده	-10.4039
▁منجهان	-10.4047
▁اغ	-10.4048
گير	-10.4056
▁بلي	-10.4058
▁متان	-10.406
▁باقاعده	-10.4061
▁برآمد	-10.4064
▁خاتمي	-10.4064
▁ڪتو	-10.4066
les	-10.4067
صف	-10.4073
▁خانگي	-10.4078
▁چمڪ	-10.4086
▁ڪيبل	-10.4097
J	-10.4099
خل	-10.41
▁ڪنيڪشن	-10.4101
▁مرحلن	-10.4102
▁پلان	-10.4102
تى	-10.4103
▁انگن	-10.4103
▁لنگ	-10.4105
▁حقوق	-10.4108
گز	-10.411
▁واهه	-10.4118
ڀي	-10.4125
▁سروسز	-10.4128
عطي	-10.4129
▁4-	-10.413
▁يقينن	-10.4135
▁آثار	-10.4138
▁لاگ	-10.4139
▁افزائي	-10.414
▁خزان	-10.4141
▁ميزبان	-10.4146
▁ڊگ	-10.415
▁ڊاڪٽرن	-10.4151
▁گلن	-10.4151
▁فراهمي	-10.4154
▁دروازو	-10.4156
▁گذار	-10.4159
▁بچ	-10.416
وچ	-10.416
▁واعدو	-10.416
ew	-10.4163
▁پون	-10.4167
▁چل	-10.4169
▁اُڀ	-10.4174
▁ننڍپڻ	-10.4175
▁معافي	-10.4186
▁سگ	-10.4187
▁پهتا	-10.4187
▁ڀارتي	-10.419
▁زخم	-10.419
▁مندر	-10.4196
▁نگ	-10.4198
یک	-10.4198
▁آزاديءَ	-10.4199
▁ڏيک	-10.4208
▁شک	-10.4209
▁انها	-10.421
club	-10.4212
▁سرٽيفڪيٽ	-10.4212
▁پالڻھار	-10.4212
▁today	-10.4212
▁والا	-10.4216
▁اكثر	-10.4219
▁عضو	-10.422
▁سولو	-10.4222
▁وصل	-10.4225
▁سٺا	-10.4225
▁نيا	-10.4225
تِ	-10.423
▁شوف	-10.4234
▁سٽي	-10.4234
▁گرو	-10.4235
77	-10.4235
▁ادارا	-10.4247
▁سيلز	-10.4247
▁خاني	-10.4248
عام	-10.425
▁تنھنڪري	-10.425
ندؤ	-10.4251
▁متفق	-10.4252
▁شدت	-10.4252
▁<<<	-10.4252
▁اختيارن	-10.4254
▁قيامت	-10.4258
▁نشر	-10.426
▁پيشڪش	-10.4261
ell	-10.4261
ڄي	-10.4263
▁بحري	-10.4273
▁فال	-10.4276
▁موڙ	-10.4279
ظر	-10.428
۸	-10.4286
▁Next	-10.4286
▁معتبر	-10.4286
▁غي	-10.4289
▁الائي	-10.4293
▁دٻ	-10.4298
▁پُڇ	-10.4301
▁قدمن	-10.4307
-1	-10.4316
▁مند	-10.4323
▁تجربا	-10.4324
▁ارتقا	-10.4324
ff	-10.4325
▁چاپ	-10.4327
يڪٽ	-10.4328
tic	-10.433
tra	-10.4331
▁رام	-10.4339
رور	-10.4341
▁رنگن	-10.4342
▁كو	-10.4342
▁ڪمائي	-10.4361
▁آئوٽ	-10.4361
▁تهذيب	-10.4362
▁عيسي	-10.4363
▁افيئر	-10.4364
▁رينج	-10.4373
▁زر	-10.4376
سوي	-10.4376
▁راڻي	-10.438
▁بستر	-10.4386
▁ڳالهائيندي	-10.4389
▁نگار	-10.4395
▁ڀروسو	-10.4399
▁بالم	-10.4402
▁اچان	-10.4409
▁سچو	-10.4413
▁حادثي	-10.4416
▁مٽ	-10.4423
pl	-10.4435
▁خوشيءَ	-10.4435
▁مصيبت	-10.4437
▁اسٽيج	-10.4437
▁لاڪ	-10.4441
▁چت	-10.4442
مند	-10.4443
قع	-10.4451
▁پارٽين	-10.4451
▁شئي	-10.4451
▁ارد	-10.4457
▁ترس	-10.4459
بال	-10.4467
▁ڍڪ	-10.447
▁۲	-10.4475
▁پورهيت	-10.4475
▁ڏٺا	-10.4475
▁صوفي	-10.4476
man	-10.4476
ck	-10.4488
▁رشتي	-10.4488
▁بدي	-10.4491
▁امزح	-10.4493
▁اردو	-10.4494
▁32	-10.4495
▁شعبن	-10.4496
▁هيلو	-10.4498
▁بدن	-10.4499
▁جوڳي	-10.4499
▁وڳي	-10.4504
98	-10.4506
۲	-10.4513
▁محترم	-10.4513
▁ايجاد	-10.4513
▁ڊبليو	-10.4518
▁خداوند	-10.4518
▁ڪينسر	-10.452
▁سارو	-10.4529
▁سچي	-10.4534
▁سؤ	-10.4541
▁ٻڌا	-10.4541
▁لله	-10.4541
ورس	-10.4542
▁اصولن	-10.4549
▁ڏسان	-10.455
▁تنظيمن	-10.4551
▁احتياط	-10.4551
▁ڪرسمس	-10.4551
▁سمجه	-10.4552
▁رَ	-10.456
لق	-10.4563
▁حسب	-10.4567
▁عرف	-10.4567
ٺو	-10.4568
▁الحين	-10.4568
▁سياحن	-10.4575
89	-10.4576
ذكر	-10.4585
▁سُر	-10.4587
▁ڀٽ	-10.4588
▁لکيا	-10.4588
▁بيوقوف	-10.459
▁عيسى	-10.459
ايان	-10.4592
▁سالياني	-10.4592
▁تص	-10.4595
لاءِ	-10.4595
▁کانئس	-10.4596
▁ڇڪڻ	-10.4603
نفس	-10.4607
▁ابد	-10.4616
▁ڇهه	-10.462
▁ٿڌو	-10.4622
▁ڪتن	-10.4623
▁آيس	-10.4628
▁نڪي	-10.4628
▁عرصو	-10.4628
▁صنف	-10.4631
لآ	-10.4632
▁گئس	-10.4633
93	-10.4636
▁جناب	-10.464
▁پائيدار	-10.4644
▁ماريو	-10.4645
▁La	-10.4647
▁سچائي	-10.4649
ٿا	-10.465
▁تبديليون	-10.4654
▁نقط	-10.4658
▁استادن	-10.4663
ائيندا	-10.4664
▁وڪري	-10.4666
▁مغربي	-10.4667
▁منتظر	-10.4673
▁طبقي	-10.4677
شوف	-10.4681
▁پات	-10.4682
▁عال	-10.4689
▁ملازمت	-10.4695
▁نظرات	-10.4695
خبر	-10.4699
▁كي	-10.4701
▁معاك	-10.4702
▁ادي	-10.4703
▁عثمان	-10.4706
▁غربت	-10.4706
▁ڪھڙي	-10.4706
▁£	-10.4707
▁ترسيل	-10.4713
▁we	-10.4717
ian	-10.4718
ايي	-10.4723
▁نازڪ	-10.4725
▁قلبي	-10.4729
▁St	-10.4731
▁ڪيپ	-10.4732
▁پايان	-10.4736
▁رڪن	-10.4736
▁متحده	-10.4741
ید	-10.4742
▁2:	-10.4748
▁نخ	-10.4748
▁دخل	-10.4756
▁گهڻيون	-10.4757
ھين	-10.4757
▁مچ	-10.4769
▁قو	-10.4776
▁قطر	-10.478
▁پراڻو	-10.4784
▁پئسو	-10.4786
راح	-10.4797
▁هڪدم	-10.4806
▁افتتاح	-10.4824
▁ڪڏھن	-10.4824
▁نشاندهي	-10.4824
▁پاسورڊ	-10.4825
▁رياستن	-10.4827
▁رضا	-10.4827
ee	-10.4832
▁درس	-10.4834
وره	-10.4836
▁عرفت	-10.4836
▁پھ	-10.4837
ائز	-10.4838
▁؟!	-10.4839
▁گلاس	-10.4839
▁لهر	-10.484
▁پاسخ	-10.4843
▁ايپليڪيشنن	-10.4845
ديو	-10.4854
▁لال	-10.4856
▁وق	-10.4857
ा	-10.4863
▁ڀٽو	-10.487
08	-10.4873
▁هائي	-10.4873
▁ويزا	-10.4883
▁بول	-10.4887
▁ٽٽ	-10.4887
ضرب	-10.4893
▁هرڪو	-10.4893
▁آلو	-10.4893
ight	-10.4895
▁ma	-10.4895
▁XNUMX	-10.4899
خواه	-10.4901
▁تعاليٰ	-10.4904
ڪائي	-10.4905
▁رازداري	-10.4905
▁دفن	-10.4905
▁رستن	-10.4908
▁x	-10.4913
▁هجو	-10.4916
▁لکين	-10.492
▁خانداني	-10.492
▁نامو	-10.4922
▁درج	-10.4928
▁ڪنگ	-10.4928
▁ٽريننگ	-10.4932
▁پڙ	-10.494
▁ڳوليو	-10.4944
▁ڇڪ	-10.4951
▁پيٽر	-10.4951
▁دهشتگرد	-10.4952
▁le	-10.4952
طل	-10.4958
▁طبعا	-10.496
▁ورتا	-10.4962
كره	-10.4962
▁بج	-10.4963
▁پوش	-10.4967
ڪيٽ	-10.4972
▁همت	-10.4973
▁ٿورا	-10.4974
▁هوڏانهن	-10.4974
وڪي	-10.4977
آخر	-10.4977
▁دروازي	-10.4979
▁آقا	-10.4979
▁سڃاڻي	-10.498
ذب	-10.4981
▁تڪ	-10.4983
رر	-10.4988
▁صحبت	-10.4989
▁مول	-10.4989
▁زياد	-10.4989
گان	-10.499
▁ڪيڏو	-10.499
▁گور	-10.4991
ld	-10.4992
▁مٽائي	-10.4992
رنگ	-10.4996
وووووو	-10.4996
ca	-10.4996
57	-10.4998
▁جڳھ	-10.5001
▁بني	-10.5002
▁بدل	-10.5002
▁خاڪ	-10.5007
▁تنهنجا	-10.501
▁فعلا	-10.5012
▁هليا	-10.5013
▁ضد	-10.5016
ااي	-10.5017
▁ليڪ	-10.5018
▁فاطمه	-10.5023
▁جستجو	-10.5023
▁چهرو	-10.5026
▁دٻاء	-10.5028
▁جاپاني	-10.5034
ba	-10.5034
▁پليئر	-10.5034
▁سمجھي	-10.5035
▁ڪمال	-10.5036
▁نڪر	-10.5036
49	-10.5037
▁ڳائڻ	-10.5038
▁pro	-10.504
45	-10.5048
▁جمال	-10.5063
▁خوفناڪ	-10.5063
▁برگ	-10.5067
▁سدا	-10.5068
▁ايپس	-10.5075
▁ٽوڪ	-10.5076
▁ڦهل	-10.5076
28	-10.5077
▁ڪيترين	-10.5078
▁مخالفت	-10.5079
▁چن	-10.5082
▁Mo	-10.5083
▁اسڪولن	-10.5093
حظ	-10.5097
▁رپيا	-10.51
▁قيادت	-10.5104
▁ضايع	-10.5104
▁انتظامي	-10.5106
▁علا	-10.5129
▁ڪڍڻ	-10.513
▁ٻڏ	-10.5144
▁بلوچ	-10.5146
▁قطع	-10.5149
▁شفت	-10.5149
▁●	-10.5152
▁پولي	-10.5158
▁ڪالهه	-10.516
▁شاهي	-10.5161
▁اينٽي	-10.5163
▁مجموعو	-10.5165
▁چنين	-10.5166
▁ايڏي	-10.5173
▁وک	-10.5174
اڻون	-10.518
▁احنا	-10.5182
▁سوين	-10.5183
▁فحش	-10.5185
▁العالم	-10.5187
▁Al	-10.5188
▁شمسي	-10.5193
پڻ	-10.5205
▁خطاب	-10.5206
▁لكم	-10.5209
▁وك	-10.521
▁چونڊيل	-10.5211
ايائين	-10.5216
▁عز	-10.5222
▁گار	-10.5223
فين	-10.5224
▁Twitter	-10.5226
▁عارضي	-10.5226
▁پبلڪ	-10.5226
▁ڏسجي	-10.5226
▁iOS	-10.5227
go	-10.5228
▁نينگر	-10.5229
▁نياز	-10.5229
آت	-10.5232
ايش	-10.5233
ڪش	-10.5233
▁طالبان	-10.5239
▁منڊي	-10.5241
▁موٽڻ	-10.5245
▁ڄم	-10.5248
▁The	-10.5249
▁پتي	-10.5251
ST	-10.5253
▁سيشن	-10.5254
▁گرام	-10.5255
▁لائيٽ	-10.5258
out	-10.5258
▁شفا	-10.526
▁آرمي	-10.5261
▁وٺندا	-10.5262
▁عڪس	-10.5263
ئٽ	-10.5264
ائيندڙ	-10.5267
▁پهرئين	-10.527
▁دون	-10.5272
▁بندر	-10.5277
▁حافظ	-10.528
▁حاجي	-10.5287
▁بيٺي	-10.529
هاڻي	-10.5295
▁تبديلين	-10.5296
حمد	-10.5304
ide	-10.5307
▁لائبريري	-10.5309
▁منتخب	-10.5309
▁ڪٽنب	-10.5309
▁نمونو	-10.5309
▁سالگره	-10.5311
▁مداح	-10.5311
▁انسٽاليشن	-10.5313
▁گرا	-10.5314
▁آبي	-10.5317
▁پان	-10.5319
▁وٽان	-10.532
▁1:	-10.532
▁ca	-10.5324
▁پيارو	-10.5325
▁عيون	-10.5328
فة	-10.533
▁ۈ	-10.5335
اڄ	-10.5338
▁کُ	-10.5343
▁ٻر	-10.5347
ښ	-10.535
▁چئلينج	-10.535
▁ٽرمپ	-10.535
▁مذاق	-10.5351
▁تحياتي	-10.5352
▁ڏنائين	-10.5354
▁ی	-10.5358
ber	-10.5359
▁رستا	-10.536
▁وجھ	-10.5364
▁ڀڄي	-10.5367
▁بنجي	-10.5368
▁سبز	-10.537
he	-10.5388
▁سنگاپور	-10.5392
▁ڊيگهه	-10.5392
▁يوسف	-10.5392
▁ڪرنسي	-10.5393
▁ٻاھر	-10.5394
Z	-10.5395
▁جريان	-10.5396
▁برائوزر	-10.54
▁مادر	-10.5401
▁ماما	-10.5402
▁ڪوريا	-10.5402
▁نفسي	-10.5416
46	-10.5418
▁نِ	-10.5434
▁معروف	-10.5434
▁ڪاميٽي	-10.5434
▁ظالم	-10.5434
▁فائدن	-10.5435
▁وفادار	-10.5437
ga	-10.5442
▁نهاري	-10.5446
▁ڀائرن	-10.5447
قال	-10.5452
▁قيمتون	-10.5457
▁ڏسندو	-10.546
▁نز	-10.5467
▁5-	-10.5474
▁ظاھر	-10.5476
▁قبضي	-10.5476
▁ڊرا	-10.5477
▁يهمك	-10.5479
▁گليڪس	-10.548
ويب	-10.5481
oo	-10.5486
▁ديوان	-10.5487
▁ڇوڪرين	-10.5509
▁پناه	-10.5509
▁روزي	-10.5509
79	-10.5511
▁سنگت	-10.5511
قف	-10.5515
▁تحقيقات	-10.5518
▁رعايت	-10.5518
▁نظرثاني	-10.5518
▁بلوچستان	-10.5519
▁اسٽريٽ	-10.552
66	-10.5521
▁خاموشي	-10.5528
▁رهيس	-10.5529
69	-10.5529
▁تابع	-10.5535
od	-10.5538
▁سڃاڻ	-10.5538
▁كلها	-10.5545
▁گاڏين	-10.5549
▁بقول	-10.5551
▁جدت	-10.5563
زعل	-10.5563
▁ڪراچيءَ	-10.5566
▁ٻلي	-10.5568
▁بدلائي	-10.5569
▁راحت	-10.5573
▁شهرت	-10.5575
▁طي	-10.5582
خه	-10.5583
بقى	-10.5587
▁ـــ	-10.5588
▁فلمون	-10.5588
▁گادي	-10.5591
▁گردش	-10.5591
▁ٽول	-10.5595
▁mo	-10.5597
▁پڙهندڙن	-10.56
▁پيپلز	-10.5603
▁غالب	-10.5603
▁دائري	-10.5603
ايه	-10.5604
▁سائٽ	-10.5604
نڊر	-10.5605
▁سمور	-10.5606
▁مگ	-10.5608
▁سينگار	-10.5609
جيڪڏهن	-10.5609
▁عط	-10.5611
▁جڳهن	-10.5611
دخل	-10.5614
▁آٽو	-10.5615
▁شن	-10.5616
الم	-10.5617
▁هرگز	-10.5619
▁مط	-10.5622
ea	-10.5625
وٽي	-10.5625
ins	-10.5627
▁پڪڙي	-10.5631
اصل	-10.5635
▁مقبول	-10.5642
▁مظاهرو	-10.5642
▁بندوبست	-10.5646
▁ڏٺم	-10.5646
▁بك	-10.5646
XNUMX	-10.565
▁°	-10.5652
▁بيس	-10.5653
▁حذف	-10.5653
برو	-10.5654
▁ريزي	-10.5655
▁بلڊ	-10.5656
َرَ	-10.5657
▁you	-10.5658
ميم	-10.5663
▁الأ	-10.5667
▁وٺن	-10.5669
▁Ro	-10.5669
▁سوار	-10.567
▁اُت	-10.5676
▁ضم	-10.5678
▁گذريو	-10.5678
▁مڃ	-10.5679
▁صفحن	-10.5689
▁قاتل	-10.5689
▁مهارت	-10.5693
▁رويي	-10.5695
▁ڦري	-10.5696
▁ايڪٽ	-10.57
ru	-10.57
▁ڪيف	-10.5704
▁فاهم	-10.571
▁ملندڙ	-10.5714
88	-10.5716
▁پلگ	-10.5716
▁بخار	-10.5727
▁فروغ	-10.5732
▁هيرو	-10.5735
▁ميلاپ	-10.5738
-20	-10.5739
سٽن	-10.5745
▁شفاف	-10.5746
▁هيٺيون	-10.5749
05	-10.575
▁پيپر	-10.5759
▁ٺا	-10.5763
▁نك	-10.5767
▁وسري	-10.577
▁پک	-10.5771
ass	-10.5773
جج	-10.5774
▁دعوي	-10.5774
▁ڪتب	-10.5777
▁سپاهي	-10.5778
Q	-10.578
▁ڪيريئر	-10.5783
▁چوندي	-10.5784
▁بدلجي	-10.5785
06	-10.5787
▁رسمي	-10.5788
▁عمران	-10.579
▁لح	-10.5792
va	-10.5796
▁شود	-10.5797
▁پيوند	-10.5799
▁اِها	-10.5801
▁نيل	-10.5803
▁وڄ	-10.5806
▁ويندڙ	-10.5806
▁ڏنيون	-10.5808
▁ڇهن	-10.5813
▁پوکي	-10.5813
▁سمجھڻ	-10.5813
▁هيء	-10.582
▁پئسن	-10.582
▁خالد	-10.5821
ive	-10.5823
▁گائيڊ	-10.5824
▁مدير	-10.5825
▁وحده	-10.5826
▁معمول	-10.583
سنڌ	-10.5839
اكل	-10.585
▁لاس	-10.5853
▁خلا	-10.5854
▁جيئڻ	-10.5854
86	-10.5855
02	-10.5856
▁ڪالم	-10.5856
▁ٽرانس	-10.5863
▁(3)	-10.5863
▁انٽر	-10.5864
▁ماشاء	-10.5864
رجع	-10.5866
علامه	-10.5867
47	-10.5869
▁ٻول	-10.5869
▁رولي	-10.5875
▁پوندا	-10.5875
▁جيئرو	-10.5876
▁تصويري	-10.5877
▁گند	-10.588
تنا	-10.5888
▁راڳ	-10.5891
▁سمورا	-10.5892
90	-10.5894
▁بايد	-10.5898
ايت	-10.59
र	-10.5906
▁ذا	-10.5906
▁محقق	-10.5906
▁ملوث	-10.5906
▁امڪاني	-10.5906
▁نامزد	-10.5908
▁بعدين	-10.5909
اااااا	-10.5922
▁جهلي	-10.5923
▁شديد	-10.5929
09	-10.5932
ess	-10.5936
▁جاني	-10.5937
▁بچت	-10.5946
۹	-10.5949
▁ننڍا	-10.595
▁ناراض	-10.595
▁اونداهي	-10.595
سأل	-10.5951
▁آگاهي	-10.5951
▁اٽلي	-10.5953
▁اهلڪار	-10.5954
29	-10.5954
▁موقف	-10.5954
▁عدم	-10.5957
▁صدا	-10.5959
▁مرو	-10.5964
iv	-10.5966
▁فائي	-10.5969
▁>>>	-10.5971
▁طبع	-10.5974
▁فلمن	-10.5976
▁رکيا	-10.5978
▁ڏاڍا	-10.5978
▁ٺه	-10.5981
▁ويڙه	-10.5984
▁دهشتگردي	-10.5984
▁پوڻ	-10.5985
٠	-10.5994
▁نيويارڪ	-10.5994
▁عيسيٰ	-10.5995
▁كتب	-10.6002
▁عارف	-10.6006
▁جڙيل	-10.6009
▁سگھ	-10.6009
▁2000	-10.6011
▁انجنيئرنگ	-10.6013
▁ھوندو	-10.6013
▁مايوس	-10.6014
▁افت	-10.6015
▁سکو	-10.6021
65	-10.6023
33	-10.603
▁سراسري	-10.6031
▁بغ	-10.6038
▁مائڪرو	-10.6039
ڑ	-10.6039
▁ٽيڪنيڪل	-10.6039
▁درآمد	-10.6039
▁اجنبي	-10.6039
▁گلوبل	-10.6041
▁پئمان	-10.6042
ؤن	-10.6045
▁اولهه	-10.605
▁اڇو	-10.6052
ft	-10.6053
03	-10.6055
04	-10.6056
▁ڪيڏي	-10.606
▁{	-10.6061
▁ٺاهيندڙن	-10.6074
▁پاڙي	-10.6076
▁پيرس	-10.608
▁برد	-10.6082
▁اپليڪيشن	-10.6083
▁فضيلت	-10.6083
▁ميونسپل	-10.6083
▁پرائمري	-10.6083
▁ڏهاڪي	-10.6083
▁دٻاءُ	-10.6091
▁وربي	-10.6095
34	-10.6096
▁پروڊڪٽس	-10.6096
▁ولد	-10.6099
ub	-10.6099
gra	-10.6109
▁بنائي	-10.6118
▁فار	-10.612
▁سلامتي	-10.6123
42	-10.6124
27	-10.6124
▁موقعن	-10.6128
▁اسٽاپ	-10.6131
▁نازل	-10.6132
▁ويڪر	-10.6135
="4	-10.6137
▁فائرنگ	-10.6138
▁تباهي	-10.6139
▁فلو	-10.614
▁مائٽ	-10.6154
▁مرح	-10.6154
po	-10.6159
▁زيور	-10.6159
▁ڏات	-10.6163
▁سنڌو	-10.6167
▁نعمت	-10.6172
▁ادائگي	-10.6173
▁لشڪر	-10.6173
▁غزل	-10.6176
56	-10.6178
▁ڳوليندا	-10.6185
▁منها	-10.6192
▁لڪ	-10.6192
▁ميرا	-10.6194
▁جذبات	-10.6194
َنِ	-10.6198
ens	-10.6198
ٽيڪ	-10.6204
07	-10.6205
▁تحف	-10.6205
▁قرباني	-10.6208
▁ڀلائي	-10.621
68	-10.6214
▁بيحد	-10.6216
▁ڳاڙهو	-10.6219
▁سعيد	-10.622
▁کول	-10.6221
55	-10.6222
▁مرتب	-10.6224
▁ڄام	-10.6226
▁راج	-10.6228
▁اضحك	-10.624
▁ناڪامي	-10.6246
ost	-10.626
رحم	-10.626
▁فاصل	-10.6263
▁ايسوسيئيشن	-10.6264
▁پکڙيل	-10.6264
▁رابطن	-10.6264
▁مٿس	-10.6264
▁مادري	-10.6264
▁اڇل	-10.6265
▁پڙهندڙ	-10.6271
▁انچ	-10.6273
▁2009	-10.6274
▁يعين	-10.6276
▁جملو	-10.6277
ite	-10.6279
▁هڏ	-10.6284
ll	-10.6284
صدق	-10.6284
▁k	-10.6285
▁ڪتا	-10.6285
▁^	-10.6288
▁اعت	-10.6295
▁وڻن	-10.6307
بيل	-10.6309
▁سوسائٽي	-10.6309
▁سگهجن	-10.631
▁تناسب	-10.631
▁ايڊيٽر	-10.631
▁يهودي	-10.6313
▁Q	-10.6314
▁ٻڌاءِ	-10.6316
▁جوڙو	-10.6319
▁پويون	-10.6327
▁تيئن	-10.6332
▁همراهه	-10.6341
48	-10.6347
▁عيب	-10.635
76	-10.6351
▁اشتهارن	-10.6352
▁خودمختيار	-10.6355
▁موقعا	-10.6355
▁يعطيك	-10.6356
▁توازن	-10.6356
▁ڪلچر	-10.6359
▁سرگرم	-10.636
▁رانديگر	-10.636
▁ex	-10.6361
▁الضحك	-10.6366
▁شف	-10.6368
پول	-10.6374
▁ڪرسي	-10.6374
▁فورس	-10.6376
▁چورس	-10.6377
▁معدن	-10.6385
ڊنگ	-10.6392
▁ڪڍيو	-10.6397
▁فائر	-10.6397
▁فائونڊيشن	-10.6401
▁ڊولپر	-10.6401
▁آهي۔	-10.6403
io	-10.6403
▁حوصل	-10.6403
▁چمڪندڙ	-10.6406
وڌيڪ	-10.6409
▁راجا	-10.6413
39	-10.6416
▁زوال	-10.6416
▁پهاڪ	-10.6418
ns	-10.6424
▁ڳائي	-10.6426
▁جبر	-10.6432
▁ريز	-10.644
▁حامي	-10.644
▁حوا	-10.644
بها	-10.6442
▁ذخيرو	-10.6448
▁پگهار	-10.6448
▁پھريون	-10.6448
▁حيدرآباد	-10.6448
▁جسٽس	-10.6449
▁پروسيس	-10.6455
fi	-10.6461
حط	-10.6464
▁ڏينداسين	-10.6465
▁فيچر	-10.6467
▁ad	-10.6468
▁مجازي	-10.647
▁صديق	-10.6472
▁يد	-10.6474
▁پروگرامن	-10.6475
ud	-10.6481
▁أم	-10.6482
ge	-10.6482
▁33	-10.6493
▁do	-10.6494
▁بغاوت	-10.6494
▁آهه	-10.6495
▁قاضي	-10.6498
▁قابو	-10.65
ٻا	-10.65
▁رقص	-10.6501
▁فرمائي	-10.6502
خاص	-10.6503
▁توجه	-10.6509
▁دلين	-10.6511
26	-10.6519
▁اط	-10.6519
▁تكون	-10.6529
▁sp	-10.6541
▁اڏاوت	-10.6541
▁اونهاري	-10.6541
اڻان	-10.6544
کس	-10.6551
53	-10.6551
▁ديوتا	-10.6557
▁پکيڙ	-10.656
75	-10.6562
▁سوم	-10.6562
▁لائٽ	-10.6563
▁طو	-10.6563
▁پارٽيءَ	-10.6565
▁سالم	-10.6565
▁نظريو	-10.6569
▁خال	-10.6577
▁چيس	-10.6587
▁ڇڏيندي	-10.6587
▁ڀڃڪڙي	-10.6588
▁برش	-10.659
▁هوشيار	-10.6591
▁امارات	-10.6591
▁ڪيڏانهن	-10.6591
▁منجهه	-10.6595
35	-10.6597
▁ڀرڻ	-10.6598
▁نجات	-10.6599
▁حفاظتي	-10.6611
▁خف	-10.6614
▁آئيني	-10.6619
ااااااا	-10.662
مسك	-10.6627
▁حجم	-10.6633
▁استنبول	-10.6635
▁ايراضي	-10.6635
▁مقدس	-10.6635
▁مسكين	-10.6636
32	-10.6638
▁خوابن	-10.664
▁مديريت	-10.664
▁چئجي	-10.6642
▁خواه	-10.6644
▁ورهائي	-10.6646
▁ترڪ	-10.6653
▁فلا	-10.6656
▁سكس	-10.6659
41	-10.666
▁سيکاري	-10.6666
36	-10.6672
▁ميزباني	-10.6673
tor	-10.6681
▁برچسب	-10.6683
▁مواصلات	-10.6683
▁اثرائتي	-10.6685
▁تعالى	-10.6686
▁اڄڪلهه	-10.6687
59	-10.6689
▁ڇپائي	-10.6692
سٽي	-10.6692
▁ڀل	-10.6695
▁ڪپڙي	-10.67
▁ڪٽڻ	-10.6706
▁هس	-10.6709
▁for	-10.6711
موت	-10.6717
▁مُنهن	-10.6721
AN	-10.6724
▁روئ	-10.6729
▁ميڙ	-10.673
▁اطمينان	-10.673
▁شهزاد	-10.6731
▁آڱر	-10.6731
▁پيروزي	-10.6732
پار	-10.6734
א	-10.6739
▁2)	-10.674
▁معقول	-10.6741
▁se	-10.6749
▁ايسٽ	-10.6758
ڪوٽ	-10.6766
▁لِ	-10.6771
ran	-10.6772
tu	-10.6776
▁رمضان	-10.6778
▁صوبائي	-10.6778
▁ڪرپشن	-10.6778
▁بخشي	-10.6782
▁ميش	-10.6783
▁قريب	-10.6783
▁ريال	-10.6785
▁اغوا	-10.6786
▁دراصل	-10.6786
▁قادر	-10.679
▁قرب	-10.679
▁ميري	-10.6794
▁نانگ	-10.6795
▁بلين	-10.68
▁لَ	-10.6804
مثال	-10.6804
اڻن	-10.6804
▁يآ	-10.6805
▁ٺاهيندڙ	-10.6811
▁طا	-10.6812
▁انڪري	-10.6813
▁الغ	-10.6814
▁طل	-10.6818
▁ڊوائيسز	-10.6819
▁تجي	-10.6819
ركب	-10.6824
▁نڪتل	-10.6826
تق	-10.6826
▁مهينو	-10.6827
▁مجلس	-10.6829
▁معطل	-10.683
حاول	-10.684
app	-10.6841
▁وڻي	-10.6843
▁بينڪن	-10.6845
▁نک	-10.6852
▁انقلابي	-10.6864
▁تيزي	-10.6865
▁روٽ	-10.6866
▁بدون	-10.6874
▁سواري	-10.6874
▁Previous	-10.6874
▁پاڻمرادو	-10.6874
▁خوشگوار	-10.6874
▁ڳوڙهي	-10.6874
▁سنجيده	-10.6874
▁سلطان	-10.6874
SCL	-10.6876
▁زندگيء	-10.6876
▁فٽ	-10.6878
خلص	-10.6895
▁شئ	-10.6897
▁لُ	-10.6903
▁شاهد	-10.6903
▁ڊن	-10.6911
رائڻ	-10.6912
▁دوزخ	-10.6923
▁جهازن	-10.6927
min	-10.694
▁لڳندي	-10.6941
▁احسن	-10.6941
oc	-10.6942
▁اختيارين	-10.6943
گرد	-10.6948
▁ڪوپن	-10.6949
بى	-10.695
▁ٽيپ	-10.6951
▁سود	-10.6951
▁ٽوڙي	-10.6953
▁تكف	-10.6964
▁بجي	-10.6966
▁36	-10.697
زيد	-10.697
▁ڳوڙها	-10.6972
▁جب	-10.6974
▁فاتح	-10.6974
▁مرحلو	-10.6975
▁2007	-10.6976
▁ٽنگ	-10.6977
▁فديت	-10.6977
▁اسٽاف	-10.6978
▁ضمير	-10.6978
صلي	-10.698
▁ڄمار	-10.6981
۵	-10.6982
▁بيمارين	-10.6986
▁وڻندڙ	-10.6989
▁فرار	-10.699
▁غل	-10.699
▁سلي	-10.6991
▁300	-10.6991
▁مضمونن	-10.6994
▁پُر	-10.6997
▁شاھ	-10.6999
▁محد	-10.7
▁وهو	-10.7002
ظهر	-10.7005
ast	-10.7009
▁ڀوڳ	-10.701
▁جلو	-10.701
ڀر	-10.7017
▁سلطنت	-10.7021
▁سگريٽ	-10.7021
▁يعنى	-10.7022
▁اڄوڪي	-10.7027
58	-10.7032
گهي	-10.7037
سام	-10.7038
▁ماستر	-10.7039
▁وڃڻو	-10.7044
سلم	-10.7047
▁سهولتون	-10.7049
▁چاهيندو	-10.7057
▁انتظاميه	-10.7058
▁عزم	-10.7062
ake	-10.7063
bo	-10.7063
▁چوٿون	-10.707
▁ٻوڏ	-10.707
▁ايڊيشن	-10.7075
▁ٽهڪ	-10.7076
▁جھڙو	-10.708
▁ڌرين	-10.7084
▁پيرا	-10.7088
▁امور	-10.709
▁پهتي	-10.7098
صبح	-10.7112
▁برازيل	-10.712
▁ابا	-10.712
▁تاثر	-10.7123
37	-10.7124
▁جس	-10.7129
▁روئڻ	-10.7137
▁پناهه	-10.7138
end	-10.7142
▁سکيو	-10.7143
▁اڏي	-10.7145
▁ای	-10.7148
اڻيءَ	-10.7149
بول	-10.7153
خاف	-10.7156
▁پڇا	-10.7159
▁اينڪس	-10.7159
▁ريڪارڊ	-10.7169
▁صادق	-10.7169
▁پوڙهي	-10.7172
$	-10.7172
▁اينڊرائيڊس	-10.7173
▁اخلاق	-10.7176
▁نيم	-10.7177
▁شپنگ	-10.7177
▁فائلن	-10.7179
▁وياسين	-10.7193
▁ڏسون	-10.7194
ci	-10.7201
▁نسبت	-10.7201
▁پاي	-10.7206
63	-10.7206
▁هيئن	-10.7207
خوا	-10.7208
ick	-10.7211
▁آيد	-10.7213
▁ڏيکاريل	-10.7219
▁لق	-10.7219
▁WhatsApp	-10.7219
▁سافٽويئر	-10.7219
▁پڌرو	-10.7219
▁وحدت	-10.722
▁تحفا	-10.7223
ائج	-10.723
▁ايڪسڪس	-10.7235
da	-10.7237
رررر	-10.7237
▁آرڪ	-10.724
▁سرگرميون	-10.7241
▁سٿ	-10.7246
44	-10.7246
▁راست	-10.7249
▁ابن	-10.7255
صيب	-10.7259
▁لعب	-10.7261
form	-10.7264
▁الاس	-10.7267
▁سربراهه	-10.7269
▁لاڳاپا	-10.7269
▁مدي	-10.727
95	-10.727
▁ڄائو	-10.7271
▁ٿورڙي	-10.7272
▁برباد	-10.7275
▁سگهه	-10.7278
▁مڪي	-10.7282
▁بلڊنگ	-10.7284
▁Ca	-10.7285
▁پخت	-10.729
رايو	-10.7295
خدا	-10.73
▁جملي	-10.7305
▁بھتر	-10.731
ton	-10.7315
▁ويسٽ	-10.7318
▁چالو	-10.732
▁واشنگٽن	-10.732
▁ڪافر	-10.7321
▁بدر	-10.7321
▁بزنس	-10.7324
▁افسان	-10.7325
▁by	-10.7332
▁پيڊ	-10.7334
▁طلع	-10.7335
83	-10.7338
▁نديم	-10.7339
▁آش	-10.7342
▁سندي	-10.7345
▁١	-10.735
▁ليڊر	-10.7351
سڀ	-10.7354
▁ٻوڙ	-10.7355
▁روشنيءَ	-10.7359
▁صوت	-10.736
▁پِ	-10.7363
▁ذي	-10.7368
▁گذرڻ	-10.7371
▁Search	-10.7371
▁نظرانداز	-10.7371
▁ڳڻتي	-10.7371
▁سائي	-10.7377
▁مدري	-10.7378
▁وٺندڙ	-10.7384
▁ڇپيل	-10.7384
ron	-10.7384
▁شيشي	-10.7386
▁رحمت	-10.7388
▁ٻُ	-10.7388
▁وهم	-10.7391
▁بقي	-10.7392
▁گاهه	-10.7393
▁نچ	-10.7396
▁(19	-10.7398
▁نگر	-10.7398
day	-10.7399
▁پڙهيل	-10.7404
97	-10.7405
▁اسٽوڊيو	-10.7422
▁حتمي	-10.7422
▁ڪئمپ	-10.7422
▁فائنل	-10.7422
ka	-10.7425
▁ارسالي	-10.7427
▁يقيناً	-10.7428
آهي	-10.7428
▁تجنن	-10.743
▁لڳن	-10.7431
▁لأ	-10.7437
پوءِ	-10.744
▁ٽم	-10.744
▁گھڙي	-10.7441
▁عذر	-10.7444
▁?	-10.7446
91	-10.745
ائتي	-10.745
▁مڃڻ	-10.7453
▁ملاح	-10.7454
فور	-10.7456
▁بِ	-10.7457
▁انتها	-10.7469
▁پئ	-10.7469
▁ڏکي	-10.7469
▁گناهه	-10.7472
۶	-10.7473
▁اسپيڪر	-10.7473
▁پالتو	-10.7478
▁j	-10.7484
tt	-10.7491
▁گناه	-10.7492
قطع	-10.7493
du	-10.7494
▁چري	-10.7495
▁بحر	-10.7497
مزح	-10.7498
▁ادامه	-10.7503
sa	-10.751
▁vi	-10.7511
مثل	-10.7514
راف	-10.7516
▁ڀائر	-10.752
▁ضابطن	-10.7525
▁پروفائل	-10.7525
▁1000	-10.7526
▁پھرين	-10.7526
▁€	-10.7527
▁جبت	-10.7527
▁ڪيفيت	-10.753
▁گهريلو	-10.7533
▁قولي	-10.7534
▁انڊين	-10.7535
▁کڙ	-10.7536
▁قمر	-10.7541
ورة	-10.7545
lin	-10.7554
▁ٽيوب	-10.7559
▁بالا	-10.756
منٽ	-10.7564
آئون	-10.7567
▁لکت	-10.7568
▁ائ	-10.7575
▁بيوس	-10.7575
▁آفيسرن	-10.7576
۷	-10.7576
▁بدلائڻ	-10.758
}	-10.7585
▁سپن	-10.7586
▁ساٿين	-10.7589
▁ڀٽائي	-10.7592
واضع	-10.7596
▁ويز	-10.76
▁نفسك	-10.7602
▁الط	-10.7602
51	-10.7603
CO	-10.7606
▁لف	-10.7607
باد	-10.7609
▁نقشو	-10.7611
▁پيڪ	-10.7611
▁فيصلا	-10.7611
▁اڳواڻي	-10.7615
لكم	-10.7618
▁مافيه	-10.7619
▁گهٽجي	-10.7619
▁موهن	-10.762
▁ڪئناڊا	-10.7628
▁غلطيون	-10.7633
ڏانهن	-10.7634
▁اسڪين	-10.7637
۴	-10.7642
▁ٽولي	-10.7643
▁ابتدا	-10.7646
▁ادخل	-10.7652
78	-10.7652
▁وما	-10.7655
ated	-10.7657
▁dis	-10.7659
▁99	-10.7661
كثر	-10.7668
▁رويو	-10.7668
قصد	-10.767
▁א	-10.7671
▁وآ	-10.7672
▁ٻوٽي	-10.7676
▁آمريڪن	-10.7681
▁معاوض	-10.7681
▁دستخط	-10.7682
▁زرداري	-10.7682
▁موڪليل	-10.7683
▁بنات	-10.7685
▁دائمي	-10.7687
▁جزو	-10.7687
▁ڪڙي	-10.769
▁صلاحڪار	-10.7691
جڏهن	-10.7695
▁ساخت	-10.7696
▁HD	-10.7698
الف	-10.7699
▁ملندا	-10.7699
▁Me	-10.7703
افت	-10.7706
▁مولانا	-10.771
یں	-10.7711
▁ڀڃ	-10.7714
▁مدرس	-10.7715
87	-10.7717
▁زد	-10.772
▁پڄ	-10.7723
▁أنت	-10.7729
▁مشڪلات	-10.7731
▁اڪيڊمي	-10.7733
▁بادشاھ	-10.7733
▁مصنوعي	-10.7733
▁پاؤڊر	-10.7733
▁نصيحت	-10.7733
▁ڪونھي	-10.7735
▁زرعي	-10.7736
▁ڄاڻايل	-10.7742
▁ريلي	-10.7744
OS	-10.7758
▁ٽڪرا	-10.7759
AT	-10.776
▁گولڊ	-10.776
▁اڀري	-10.7761
▁نظريي	-10.7769
0,000	-10.7772
▁کس	-10.7775
▁نوع	-10.7776
▁ريو	-10.7785
▁ڪارپوريٽ	-10.7786
▁ڪمشنر	-10.7787
▁گھڻن	-10.7787
▁لڙڪ	-10.7788
▁ورزش	-10.7788
▁سياستدان	-10.7789
▁مئل	-10.7789
▁نوڪر	-10.7792
ty	-10.7801
▁ريف	-10.7801
▁رليز	-10.7802
▁سمجهن	-10.7802
▁نسبتا	-10.781
▁سرمائيدار	-10.7812
▁ڏيندس	-10.7812
▁وچان	-10.7813
▁فائ	-10.7814
▁امريڪا	-10.7817
▁کی	-10.7817
▁شكلها	-10.7821
▁غص	-10.7831
▁مزي	-10.7831
ورٽ	-10.7833
ڪلهه	-10.7835
▁ورد	-10.7837
▁ضابطو	-10.784
▁انٽرفيس	-10.784
▁زراعت	-10.784
▁خاتمو	-10.784
▁انهيء	-10.7846
▁حص	-10.7848
▁سيني	-10.7849
▁وبا	-10.7849
ُور	-10.7854
▁يوناني	-10.7854
▁فنا	-10.7858
▁سازش	-10.786
▁هلڪو	-10.786
sk	-10.7861
▁سلو	-10.7862
▁نيون	-10.7865
▁جمعي	-10.7868
ure	-10.788
▁اٿن	-10.7885
▁جِي	-10.7889
▁حوصلا	-10.7892
▁Home	-10.7893
▁رٽائر	-10.7893
▁مبتلا	-10.7893
▁ڪوڪيز	-10.7894
▁سرواڻ	-10.7894
▁گورنر	-10.7894
▁ٻڌايان	-10.7896
▁Ex	-10.7898
▁o	-10.79
▁اجي	-10.7903
▁اوپن	-10.7909
▁ھوندي	-10.791
▁اسوي	-10.7911
▁اداس	-10.7912
▁درجا	-10.7914
^	-10.7917
▁هڻڻ	-10.7918
▁دستاويزن	-10.792
▁Le	-10.7921
▁كف	-10.7922
▁لائيو	-10.7926
74	-10.7927
▁مرسي	-10.7928
گس	-10.7929
▁رڪ	-10.7933
▁مرة	-10.7933
▁ٻڌڻي	-10.7937
▁سمر	-10.7937
▁ضلع	-10.7938
▁خانو	-10.794
▁ٺاھي	-10.7944
▁ٻوليون	-10.7945
▁بوڪ	-10.7946
▁Microsoft	-10.7947
▁سپلائر	-10.7947
▁ڀاڱي	-10.7947
▁مھل	-10.7948
ائونڊ	-10.7948
▁پايه	-10.7948
▁سھ	-10.7949
▁عباس	-10.7949
▁نَ	-10.7951
▁راهي	-10.7951
▁ويهڻ	-10.7952
▁لها	-10.796
▁ڪبو	-10.7964
▁مٿو	-10.7967
▁بهادر	-10.797
▁سمورو	-10.7972
▁نائ	-10.7972
َّ	-10.7986
▁كانت	-10.7991
أإ	-10.7996
<<	-10.7999
▁Bible	-10.8001
▁تشخيص	-10.8001
▁مائٽن	-10.8004
▁تقريباً	-10.8004
▁پادري	-10.8005
▁شعب	-10.8009
▁مئنيجر	-10.8014
▁حلوو	-10.8016
▁وڪي	-10.802
tro	-10.802
▁اخوي	-10.8022
▁نعم	-10.8022
▁انتظاميا	-10.8033
▁يجي	-10.8033
▁لڏي	-10.8036
▁سمجهندا	-10.8042
▁فيهم	-10.8046
▁هانگ	-10.8047
▁ڪس	-10.8052
▁اعتراف	-10.8055
▁رپي	-10.8056
▁ڳڻپ	-10.8056
▁لچڪدار	-10.8056
▁انجمن	-10.8057
▁اميدوارن	-10.8062
▁مكان	-10.8063
▁Mi	-10.807
▁امل	-10.8074
▁سحر	-10.8076
AS	-10.8077
▁فرح	-10.808
▁نق	-10.8083
▁لوڻ	-10.8093
▁سمي	-10.8103
▁کاڌ	-10.8103
▁روش	-10.8104
▁کانپوء	-10.8105
▁چارٽ	-10.8105
▁بئ	-10.8109
▁لامحدود	-10.811
▁ترجمان	-10.811
▁هُئا	-10.8111
waz	-10.8112
▁اسپيڊ	-10.8114
▁نشي	-10.8118
▁زينب	-10.8125
خص	-10.8127
▁ڳالهائيندو	-10.8135
pt	-10.8138
▁ليٽ	-10.8142
▁سرخ	-10.8144
▁کش	-10.8146
▁يونان	-10.816
▁پيٽرول	-10.816
ائم	-10.8162
▁sh	-10.8163
▁مخلوق	-10.8165
wami	-10.8165
▁پروژه	-10.8165
ااااي	-10.8168
<	-10.817
▁ٻولهه	-10.8172
▁غيرها	-10.8173
▁lo	-10.8175
▁وڙ	-10.8175
۳	-10.8181
▁خوشحالي	-10.8181
ڳڻ	-10.8183
شش	-10.8187
▁نيري	-10.8188
▁ch	-10.8199
ID	-10.82
▁اوري	-10.8201
av	-10.8201
▁لهڻ	-10.8204
▁چَ	-10.8208
bu	-10.8209
▁مؤ	-10.8213
▁هيچي	-10.8213
▁نشانيون	-10.8216
▁لکندو	-10.8218
سائين	-10.8218
▁مھرباني	-10.822
ib	-10.822
▁اوچائي	-10.822
▁واسطي	-10.8223
▁فضا	-10.8223
▁پاڇ	-10.8223
▁ناصر	-10.823
▁ويڙهه	-10.8232
▁ڪڪڙ	-10.8233
▁آصف	-10.8236
▁حملن	-10.8237
شق	-10.8239
ئڻ	-10.8246
ial	-10.8247
▁ساڳيا	-10.8252
روپ	-10.8261
▁عق	-10.8263
دنيا	-10.8266
▁ڳري	-10.8269
▁اُٿي	-10.827
▁کوڙ	-10.8271
▁شال	-10.8273
٣	-10.8276
▁ريسرچ	-10.8276
▁ملهايو	-10.8276
▁مسڪين	-10.8277
آس	-10.8278
▁رياض	-10.8281
▁رز	-10.8283
▁گيٽ	-10.8294
▁هدف	-10.8295
▁نسيت	-10.8297
con	-10.8299
▁امڙ	-10.83
▁چونڊون	-10.8304
ريشن	-10.8313
▁48	-10.8315
▁مٽيءَ	-10.8322
▁ڇي	-10.8323
▁سوٽ	-10.8323
َء	-10.8324
▁قب	-10.8329
▁پاسپورٽ	-10.8332
▁سچل	-10.8332
▁🙂	-10.8333
▁آزمائشي	-10.8335
▁واڌارو	-10.8336
طب	-10.8339
ظاهر	-10.8341
70	-10.8343
▁ناري	-10.8345
▁تخيل	-10.8347
▁گروهه	-10.8348
منهنجو	-10.8349
▁پست	-10.8349
▁اسڪيم	-10.8351
▁حالانڪه	-10.8351
▁سما	-10.836
اهر	-10.8363
▁کٽڻ	-10.8363
▁ضرب	-10.8364
قبل	-10.8366
▁ڪڇ	-10.8382
▁آزمائش	-10.8384
▁انشورنس	-10.8388
▁ميوزيم	-10.8388
▁ٽتوٽ	-10.8388
▁عبرت	-10.8388
مني	-10.8395
▁ڪپڙو	-10.8396
▁قم	-10.8398
▁ليك	-10.8401
▁Sindhi	-10.8403
▁سهولتن	-10.8405
▁ميگي	-10.8407
▁لڪائي	-10.8407
▁موڙي	-10.8408
▁می	-10.841
طلب	-10.8436
▁تارن	-10.844
▁بيش	-10.8444
▁اوسط	-10.8444
▁(4)	-10.8445
▁برڪت	-10.8446
▁ڪڻڪ	-10.8446
▁بيٺا	-10.8448
vo	-10.845
▁اڀ	-10.8451
▁بندوق	-10.8452
▁معاه	-10.8453
▁خصوصيت	-10.8457
▁ووڊ	-10.8462
ٻو	-10.8462
گيري	-10.8464
▁ستر	-10.8465
▁عد	-10.847
▁باھ	-10.847
علق	-10.8471
▁نيرو	-10.8471
ڪام	-10.848
▁رلي	-10.8483
▁رهواسي	-10.8487
▁پڇو	-10.8487
▁جذبي	-10.8491
▁بچه	-10.8492
▁موڪلن	-10.8498
▁اسسٽنٽ	-10.8501
▁ورڈپریس	-10.8501
▁ھدايت	-10.8501
▁ڊويزن	-10.8501
▁ماشى	-10.8501
▁رايك	-10.8502
▁اجمل	-10.8507
▁دهلي	-10.8509
38	-10.851
▁بلاول	-10.8511
▁ڪجو	-10.8513
81	-10.8519
▁رهبر	-10.8538
صار	-10.8538
▁ڊچ	-10.854
▁پيسا	-10.8543
▁ڀاڙي	-10.8546
▁گلو	-10.8553
آء	-10.8558
▁وبعدين	-10.8558
▁ڪارخانو	-10.8558
▁ڪابينا	-10.8558
▁نينهن	-10.8559
▁حيوان	-10.8562
▁اُھي	-10.8566
▁پيوست	-10.857
72	-10.8578
▁شناسي	-10.8578
▁نشانو	-10.8589
▁سوز	-10.8591
▁پُٽ	-10.8599
▁ڪڪر	-10.8601
▁جرم	-10.8605
▁ريڪ	-10.8607
▁چيل	-10.8607
31	-10.8607
▁ميڪسيڪو	-10.8616
▁برعڪس	-10.8616
▁پرهيز	-10.8617
▁ڪامرس	-10.8618
▁ٽام	-10.8625
▁Pro	-10.8629
▁بالغن	-10.8634
•	-10.8635
▁سڪون	-10.8641
▁اساس	-10.8644
▁ميخوا	-10.8654
43	-10.8654
▁تأ	-10.8656
▁توهين	-10.8656
▁سويت	-10.8656
ER	-10.8659
▁on	-10.8659
زاد	-10.8664
▁34	-10.8664
▁ابر	-10.8664
▁پالي	-10.8665
▁ديگري	-10.8665
داء	-10.8667
au	-10.8667
▁يق	-10.867
▁انسٽاگرام	-10.8673
▁ڌيءُ	-10.8673
▁مينيجر	-10.8674
▁فهد	-10.8675
▁تبا	-10.8678
▁ليڊ	-10.8679
شكل	-10.868
▁بينڪنگ	-10.8683
our	-10.8688
▁بالغ	-10.869
▁بادل	-10.8696
3">	-10.8696
▁يسلمو	-10.8697
▁دک	-10.87
▁لوگو	-10.8702
▁چوڪ	-10.8703
ٿل	-10.8711
ارٽ	-10.872
عاد	-10.8721
▁لائ	-10.8724
▁خلص	-10.8731
▁پرسپوليس	-10.8732
▁اليڪٽرڪ	-10.8732
▁معاون	-10.8734
▁مدار	-10.8735
آف	-10.8736
▁شوقين	-10.8736
▁150	-10.8737
▁واٽر	-10.8741
han	-10.8744
▁چادر	-10.8745
▁ڪارڪن	-10.8751
▁زميندار	-10.8761
▁IP	-10.8762
ورڊ	-10.877
▁۳	-10.8773
61	-10.8776
▁همٿ	-10.8779
ted	-10.8786
▁بيروزگار	-10.879
▁آپريٽر	-10.879
▁تشريح	-10.879
▁ورتل	-10.8792
▁پرواهه	-10.8793
انگريزي	-10.881
▁ديدار	-10.8811
▁شرٽ	-10.8813
▁چاندي	-10.8817
▁دلبر	-10.8819
ign	-10.8822
▁ويران	-10.8826
▁بأ	-10.8835
▁سليمان	-10.8836
ps	-10.8837
▁ڌنڌ	-10.884
▁me	-10.8841
▁مٿا	-10.8848
▁اڳڪٿي	-10.8849
▁ورهيه	-10.885
▁ٽائم	-10.885
▁بدترين	-10.8852
▁اٿو	-10.8852
▁سمهڻ	-10.8855
▁رڪنيت	-10.8855
▁چپن	-10.8856
▁وصولي	-10.8858
hy	-10.8858
▁زوج	-10.886
▁ڏاڏي	-10.886
▁ماشي	-10.8862
سيس	-10.8865
▁پهاڙ	-10.8869
▁لڪير	-10.887
▁سگھان	-10.8871
جنهن	-10.8872
▁رائيٽ	-10.8876
▁ڪيڪ	-10.8878
ki	-10.8879
▁بدين	-10.8879
▁؟"	-10.8882
▁هونءَ	-10.8888
cha	-10.8897
▁يارڪ	-10.8899
▁لائي	-10.89
▁رواني	-10.89
▁هٿان	-10.89
▁LG	-10.8903
▁ڪامل	-10.8904
▁سمجھيو	-10.8905
▁لاڙڪاڻي	-10.8908
▁منسوخ	-10.8908
▁ڏوهاري	-10.8908
▁وسيلا	-10.8909
▁پئرس	-10.891
▁65	-10.891
ord	-10.8917
▁فيڊ	-10.8918
:$	-10.8918
62	-10.892
▁مارو	-10.8927
▁بيشتر	-10.8927
۾	-10.8929
▁فارس	-10.893
▁شاديءَ	-10.8932
▁آچر	-10.8942
▁سستو	-10.8963
▁عملدارن	-10.8963
▁لڪي	-10.8965
▁يمن	-10.8967
▁ٽيليويزن	-10.8968
▁تبليغ	-10.8968
▁آبهوا	-10.8968
▁ago	-10.8969
▁ملتوي	-10.8971
سازي	-10.8973
▁امکان	-10.8974
▁چئ	-10.8975
كمل	-10.8976
▁درياهه	-10.8978
▁رجسٽرڊ	-10.8979
قسم	-10.8981
▁غذائي	-10.8981
▁وڃائڻ	-10.8982
▁مظاهر	-10.8983
▁کلڻ	-10.8983
▁برس	-10.8985
▁la	-10.8989
▁سستا	-10.8992
▁ڀُ	-10.8992
▁wh	-10.8997
قط	-10.8999
▁Ad	-10.9002
▁تنها	-10.9004
▁ونڊو	-10.9008
ييييي	-10.901
▁دب	-10.9023
▁منھن	-10.9027
▁ليبارٽري	-10.9027
▁تقاضا	-10.9027
▁پارٽنر	-10.9027
▁تقدير	-10.9028
▁تلوار	-10.9031
▁رشتو	-10.9033
▁گرفتاري	-10.9034
▁بنايو	-10.9036
▁وانگي	-10.9041
▁ٿِي	-10.9042
▁متع	-10.9045
▁كرد	-10.9054
▁جھڙي	-10.9055
▁سنت	-10.9059
▁ترقيات	-10.9061
▁ڀرجي	-10.9064
▁اخذ	-10.9068
▁جامد	-10.907
▁ڪنوار	-10.907
▁ڄاڻان	-10.9076
▁گهٽائي	-10.9078
▁News	-10.9088
▁تسلسل	-10.9088
▁هفت	-10.9089
▁ميمڻ	-10.9089
▁پڪو	-10.909
▁موج	-10.9093
▁ڪيمپ	-10.9094
▁لنڪس	-10.9097
▁مُرڪ	-10.9098
▁po	-10.91
ces	-10.9102
سوب	-10.9106
▁ڦاس	-10.9107
▁بَ	-10.9107
▁2003	-10.9109
▁اجايو	-10.9116
▁پائپ	-10.9117
▁المر	-10.9132
▁جئ	-10.9135
be	-10.9138
▁ٽئ	-10.9139
▁كلامك	-10.9139
▁وڙهي	-10.9142
ڼ	-10.9148
▁طراحي	-10.9148
▁شهادت	-10.9148
▁اشاعت	-10.9148
▁ڪٿا	-10.9152
▁پٺي	-10.9154
▁مصري	-10.9158
▁ٺاهه	-10.9159
▁درجو	-10.9166
▁فليٽ	-10.9168
▁انگريزيءَ	-10.9169
خط	-10.9173
▁نقشي	-10.9174
▁جاڳي	-10.9175
52	-10.9181
▁تَ	-10.9182
▁سوڀ	-10.9185
▁مشاهدو	-10.9186
▁ڏجي	-10.9186
▁سنڀالڻ	-10.9188
▁وارنٽي	-10.919
نظر	-10.9192
▁نقطه	-10.9195
▁تال	-10.9199
▁جزا	-10.9203
▁رق	-10.9206
▁منصوبا	-10.9209
→	-10.9209
▁تڏھن	-10.9209
▁لميٽيڊ	-10.9209
▁ڳاڙهي	-10.921
▁برج	-10.9213
▁چطور	-10.9215
▁ڀليڪار	-10.9216
ous	-10.922
▁ٽيلي	-10.9222
▁تحب	-10.9226
▁اربع	-10.9227
low	-10.923
▁فضل	-10.9241
▁سوره	-10.9245
▁75	-10.9247
▁پڇاڙي	-10.9248
▁سريع	-10.9249
▁رنگين	-10.9259
▁شينهن	-10.9259
▁رف	-10.9264
▁تجارت	-10.9269
ٱ	-10.9271
▁شناخت	-10.9271
▁اڀياس	-10.9271
▁ظهور	-10.9271
▁معائنو	-10.9271
▁that	-10.9271
▁جاگرافي	-10.9272
▁شويه	-10.9272
wa	-10.9277
▁بيبي	-10.9278
▁مڪاني	-10.9279
ترجم	-10.9279
▁سڪي	-10.928
▁مرزا	-10.928
▁تيستائين	-10.9281
ther	-10.9282
▁ٽڪرو	-10.9284
▁♥	-10.9291
شكر	-10.9294
54	-10.9297
ستائين	-10.9299
▁بيزار	-10.9301
▁جهنگ	-10.9302
oti	-10.9304
▁وادي	-10.9309
tive	-10.931
▁ابت	-10.931
▁جميله	-10.9312
▁هئائين	-10.9317
▁مقناطيس	-10.9332
▁لڳاتار	-10.9332
▁زنجير	-10.9333
▁سهڻو	-10.9337
▁مرڪي	-10.9339
▁البت	-10.934
▁طالب	-10.934
▁پکين	-10.9343
▁ڊبل	-10.9344
▁زند	-10.9345
ya	-10.9346
▁سڙي	-10.9346
▁ايستائين	-10.9347
▁٪	-10.9347
▁ڏياريو	-10.9353
▁هالينڊ	-10.9359
▁پوڊ	-10.9367
نتظر	-10.9367
▁۴	-10.9378
ائد	-10.9382
wi	-10.939
▁مٿاڇري	-10.9394
▁صوبن	-10.9395
▁ملت	-10.9399
▁pre	-10.9404
▁ڪمرو	-10.9411
▁بضحك	-10.9415
▁عكس	-10.9415
▁بصري	-10.9419
ile	-10.942
▁ڄاڻايو	-10.9424
▁رهائشي	-10.9432
▁يونيورسٽيءَ	-10.9432
▁آخرت	-10.9441
▁آله	-10.9442
▁ڇوڪريءَ	-10.9442
▁چريو	-10.9446
▁پنجم	-10.945
▁400	-10.945
▁جيئري	-10.9451
▁ايڪسپريس	-10.9457
▁سرانجام	-10.9457
▁پروفائيل	-10.9457
▁ڪيليفورنيا	-10.9457
▁ڳنڍڻ	-10.9457
▁Play	-10.9457
▁ڪميونسٽ	-10.9457
▁نثار	-10.9457
▁صحافت	-10.9458
▁ڊگھي	-10.946
▁ڀَ	-10.9461
▁مهاجر	-10.9462
▁هك	-10.9463
▁To	-10.9464
▁معاشر	-10.9464
▁وهڪري	-10.9464
ارات	-10.9466
▁ڊائري	-10.9471
تزوج	-10.9473
▁وڌندي	-10.9477
Co	-10.948
▁الصور	-10.9481
AR	-10.9487
▁هفتا	-10.9497
وگرافي	-10.9502
▁ڏڪ	-10.9503
▁ريسٽورنٽ	-10.952
▁نامناسب	-10.952
▁ورهاڱي	-10.952
▁ڊپارٽمينٽ	-10.952
▁موزون	-10.9521
▁بجد	-10.9522
▁عبدالله	-10.9527
▁داشت	-10.953
▁رشيد	-10.9531
▁ٽائون	-10.9532
▁ملهائي	-10.9532
▁حيا	-10.9533
▁نگاهي	-10.9536
▁فرمان	-10.9537
▁ڌرم	-10.9539
▁ڪيمرا	-10.9545
▁ڳچي	-10.9551
▁ويجھو	-10.956
▁وصف	-10.9564
ائڪ	-10.9582
▁small	-10.9583
▁فرنيچر	-10.9583
▁پروفيشنل	-10.9583
▁بمبئي	-10.9583
▁اوندهه	-10.9583
▁اڪيلائي	-10.9583
▁خودڪشي	-10.9584
برگ	-10.9584
▁مرحوم	-10.9586
▁دانشور	-10.9589
▁مقبوليت	-10.9589
▁Sh	-10.9593
▁ڦاٽ	-10.9596
▁تعميراتي	-10.9596
▁رآ	-10.96
▁نرس	-10.961
▁اسٽيڪ	-10.9612
احت	-10.9612
▁٢	-10.9614
▁ڪشش	-10.9615
▁ايڪشن	-10.9616
▁نويس	-10.9616
▁مروري	-10.9617
▁اشك	-10.962
▁شكر	-10.9621
="5	-10.9623
▁پروسيسر	-10.9624
▁تست	-10.9625
▁لوهه	-10.9632
▁اثاثن	-10.9634
ish	-10.9646
٥	-10.9647
▁پرائيويٽ	-10.9647
▁وهڪرو	-10.9647
▁ٺهرايو	-10.9647
▁37	-10.9649
▁تعبير	-10.9649
▁هٽائڻ	-10.9651
▁؟؟؟؟	-10.9652
▁پيشگيري	-10.9654
▁هٽايو	-10.9654
ave	-10.9655
▁برائي	-10.9657
▁ٺاهيا	-10.9658
▁مردم	-10.966
▁خطر	-10.9673
ev	-10.9676
▁ايام	-10.9683
▁نواب	-10.9685
92	-10.9687
اڳي	-10.9694
▁ٽرڪ	-10.9695
200	-10.9696
▁علائقا	-10.9704
▁سوئي	-10.971
▁ايوان	-10.9711
▁افعال	-10.9711
▁sa	-10.9711
[1]	-10.9712
ـُـ	-10.9716
▁بيڪار	-10.9721
▁نڪتا	-10.9723
▁لنگهي	-10.9724
▁هد	-10.9724
▁مارڪس	-10.9724
▁روزانه	-10.9724
▁کاتو	-10.9728
▁ريپ	-10.9734
▁اشوف	-10.9736
▁ذري	-10.9737
▁ڀڄ	-10.9741
▁رهبري	-10.9746
▁طريقه	-10.9746
▁واٽس	-10.9746
▁آڻيندو	-10.9747
▁هدايتون	-10.975
ny	-10.9751
▁95	-10.9752
▁هدي	-10.9753
▁پابنديون	-10.9763
▁شار	-10.9768
▁اُٿ	-10.9769
▁شيڊول	-10.9776
▁شق	-10.9776
▁رئ	-10.9783
▁بدو	-10.9784
▁ڊپٽي	-10.9786
▁مٺا	-10.9792
▁تقبل	-10.9795
ms	-10.98
▁نوڪريون	-10.9802
bi	-10.9807
▁No	-10.9821
▁گمان	-10.9821
▁مڙي	-10.9827
▁سلم	-10.9839
▁لوازمات	-10.984
▁يادداشت	-10.984
▁معذور	-10.984
▁عيسوي	-10.9841
▁رأي	-10.9841
▁محشش	-10.9842
▁عروج	-10.9842
▁ڳنڍيندڙ	-10.9843
▁مزيدار	-10.9844
▁قلعي	-10.9845
▁محافظ	-10.9846
▁تنھنجو	-10.9847
▁علائقائي	-10.9847
ark	-10.9852
▁ترڪيب	-10.9852
▁غسل	-10.9853
▁الكل	-10.9856
▁پيشينه	-10.9858
▁واش	-10.9861
▁39	-10.9861
١	-10.9867
#	-10.9867
ric	-10.9867
▁پياده	-10.9869
▁بايو	-10.9869
▁Li	-10.9878
▁ڀاڳ	-10.9881
▁قومون	-10.9881
ov	-10.9881
gen	-10.9885
يييي	-10.9888
▁نادر	-10.99
▁اسماعيل	-10.9906
▁شاپنگ	-10.9906
▁عناصر	-10.9906
▁وڙهڻ	-10.9907
▁توليد	-10.9907
ميز	-10.9911
▁ٻرندڙ	-10.9912
▁پرسيد	-10.9916
😂	-10.9919
▁سينسر	-10.9919
نامو	-10.9919
▁پلانٽ	-10.9923
▁لڳڻ	-10.9926
▁شاٽ	-10.9927
▁An	-10.9934
▁رسال	-10.9937
▁اهڙيء	-10.9938
▁سوچيندو	-10.9944
▁44	-10.9945
▁يخلي	-10.9954
اضي	-10.9958
▁سيڪنڊن	-10.9965
▁تغ	-10.9969
ضيع	-10.997
▁فئڪٽري	-10.9971
▁لاڳاپو	-10.9971
▁اطالوي	-10.9972
▁اعصاب	-10.9972
▁OEM	-10.9972
▁اڇي	-10.9973
▁مؤمن	-10.9974
▁هوسٽنگ	-10.9974
▁←	-10.9977
▁جھاز	-10.9981
▁پڙهندو	-10.9983
▁مينيو	-10.9986
▁متحد	-10.9988
▁تشوف	-10.9989
▁bo	-10.9992
▁وَرو	-10.9992
▁تحفو	-10.9994
▁حبيبي	-10.9996
▁ويٽ	-11
▁ڊڪ	-11.0002
▁گاهي	-11.0003
▁ڀاء	-11.0009
▁روانا	-11.0014
▁کائيندا	-11.002
▁بحب	-11.0021
▁پائ	-11.0021
▁بڻيو	-11.0023
▁فهمت	-11.0023
ائب	-11.0023
▁so	-11.0024
▁ليول	-11.0032
▁هفتو	-11.0032
▁چِ	-11.0033
▁سنگين	-11.0034
▁بائي	-11.0036
شارك	-11.0036
▁مطلوب	-11.0038
▁ڍنڍ	-11.0038
▁آزمائي	-11.0038
▁ٺھ	-11.0039
▁پيشرفت	-11.004
▁رڌ	-11.004
▁ورائي	-11.0042
▁تط	-11.0042
▁نهاريو	-11.0042
▁وراڻي	-11.0045
▁الحمد	-11.0046
▁نوٽس	-11.0047
ـَـ	-11.005
▁all	-11.005
▁ضمني	-11.005
▁مولوي	-11.0053
▁مجيد	-11.0055
▁منطقي	-11.006
▁جذبو	-11.0061
▁زمري	-11.0062
▁صبا	-11.0066
▁ڪرايا	-11.0077
▁بيئر	-11.0079
▁چڱا	-11.0096
ings	-11.0097
▁۔	-11.0098
mar	-11.01
▁سمهي	-11.0103
▁باني	-11.0104
▁تُنهنج	-11.0104
▁ڪامريڊ	-11.0104
▁بشمول	-11.0104
▁محمود	-11.0104
▁روبوٽ	-11.0105
▁فرينچ	-11.0105
▁معرفي	-11.0105
▁لعنت	-11.0107
▁مجنون	-11.0109
▁سليم	-11.0111
▁مشكل	-11.0116
▁درستگي	-11.0117
▁ڀاڪر	-11.0118
port	-11.0118
▁ذيلي	-11.012
▁نثر	-11.0123
▁هيڏانهن	-11.0125
ساعد	-11.0126
▁فاسٽ	-11.0131
اااااااااااا	-11.0137
▁اعمل	-11.0139
▁سؤال	-11.0139
▁ايمانداري	-11.014
▁فكر	-11.015
▁يبي	-11.016
▁ڳڙ	-11.0161
▁سوئچ	-11.0172
▁فرزند	-11.0172
▁وساريو	-11.0172
▁دعائون	-11.018
▁مض	-11.0182
▁فليش	-11.0183
▁بچاءُ	-11.0185
▁فولڊر	-11.0195
▁ورق	-11.0196
▁ھم	-11.0197
▁سِر	-11.0203
▁ليٽر	-11.0204
▁مولا	-11.0207
▁اسد	-11.0215
▁اقل	-11.0216
▁قط	-11.0217
▁وكل	-11.0225
▁آڳ	-11.0229
▁شپ	-11.0235
▁فاریکس	-11.0239
▁ممتاز	-11.0239
❤️	-11.0239
▁الشر	-11.0252
▁جادوگر	-11.0255
▁ايڪو	-11.0255
▁زمانو	-11.0263
▁بوس	-11.0269
▁مرڪب	-11.0272
▁ماکي	-11.0272
▁چؤ	-11.0273
▁الخط	-11.0278
▁اوور	-11.0283
▁پرينءَ	-11.0286
▁سكر	-11.0291
▁پارسي	-11.0294
▁ٺڪ	-11.0297
▁ليپ	-11.0299
500	-11.0306
ۍ	-11.0307
▁Google	-11.0307
▁انسٽيٽيوٽ	-11.0307
▁پائوڊر	-11.0307
▁مفهوم	-11.0307
▁ٽيليفون	-11.0308
▁معرفت	-11.0308
▁ٿڌ	-11.0311
▁واجب	-11.0311
▁پارچه	-11.0311
▁طبيعي	-11.0313
▁پراڊڪٽس	-11.0314
▁نڪرندو	-11.0317
▁الدين	-11.0319
▁وليد	-11.0319
شتري	-11.032
▁**	-11.032
PS	-11.032
fe	-11.0321
▁دانهن	-11.0323
پيٽ	-11.0325
▁ڌماڪ	-11.0329
▁انتى	-11.033
▁ولايت	-11.0332
▁چڙه	-11.0334
▁كدا	-11.0337
▁دٻي	-11.034
ai	-11.0351
▁صر	-11.0358
▁ڪائي	-11.036
▁اختر	-11.0363
▁پيامها	-11.0364
ob	-11.0369
▁as	-11.0372
▁di	-11.0373
▁اپوزيشن	-11.0376
▁باضابطه	-11.0376
▁ٽارگيٽ	-11.0376
▁محتاط	-11.0376
▁پٺتي	-11.0376
▁عجبتني	-11.0377
▁منهم	-11.0384
▁ترى	-11.0386
▁روڪ	-11.0389
▁يزيد	-11.039
▁هب	-11.0394
▁باشد	-11.0401
▁دوستان	-11.0401
▁هٽائي	-11.0407
▁کائيندو	-11.0411
▁گويد	-11.0413
▁جهت	-11.0416
▁قربان	-11.0423
▁تِ	-11.0429
▁فكره	-11.0436
▁گريه	-11.0437
▁دادو	-11.0444
▁article	-11.0445
▁اڱڻ	-11.0445
▁سرزمين	-11.0445
▁کنيا	-11.0445
▁نمونن	-11.0447
▁پروٽين	-11.0449
▁محتاج	-11.0451
▁2005	-11.0451
▁خطرن	-11.0452
▁فاضي	-11.0454
▁ڊيوٽي	-11.0458
▁راء	-11.0459
▁ٺهڻ	-11.0465
▁پيرو	-11.0476
▁ڪاسٽ	-11.0481
▁عيش	-11.0483
ical	-11.0483
▁يعرف	-11.0484
▁وجهڻ	-11.0501
▁ڇانو	-11.0509
▁انڪشاف	-11.0514
▁مطالبن	-11.0514
▁ڪينيڊا	-11.0514
▁مؤثر	-11.0514
▁عدل	-11.0515
ووووو	-11.0515
▁فائبر	-11.0518
جيڪو	-11.0518
▁پيڪنگ	-11.0518
▁خخخخخ	-11.0519
▁گياهي	-11.0519
جوز	-11.0519
▁باقاعد	-11.0521
▁سازمان	-11.0521
▁المل	-11.0522
ble	-11.0528
▁چيائون	-11.0529
▁شغل	-11.0531
▁نفسيات	-11.0531
گراف	-11.0532
▁نصاب	-11.0535
2.1	-11.0538
▁Mau	-11.0541
▁مذ	-11.0542
gg	-11.0543
red	-11.0546
▁قصي	-11.0553
▁ڪمانڊ	-11.0555
▁نداري	-11.0564
ڊور	-11.0566
▁تپ	-11.0569
اسلام	-11.0571
▁تعين	-11.0576
▁لٽ	-11.0578
▁نكته	-11.058
com	-11.058
94	-11.0581
▁مڇ	-11.0581
▁اٿارٽي	-11.0584
▁انڊيڪس	-11.0584
▁دفتر	-11.0584
▁سفيد	-11.0584
0،000	-11.0585
▁رسالي	-11.0588
▁مقدم	-11.0588
▁اُھو	-11.0588
▁حف	-11.059
▁ro	-11.0594
▁بيڊ	-11.0595
▁هِت	-11.0598
▁آرامده	-11.0601
▁خوي	-11.0603
▁ٽاور	-11.0606
ah	-11.061
▁ڪبي	-11.0612
▁مغل	-11.0614
▁نائب	-11.0614
▁عملدار	-11.0618
اخر	-11.0622
▁کنيد	-11.0623
آباد	-11.0624
▁ڪروم	-11.0632
we	-11.0635
▁ورجن	-11.0638
▁حڪمراني	-11.0643
▁مياد	-11.0645
▁موڪليا	-11.0646
ڄاڻ	-11.0648
▁محب	-11.065
▁انحصار	-11.0654
▁ڀنگ	-11.0658
▁ڏھ	-11.0659
▁اقليت	-11.0661
▁پيسٽ	-11.0661
▁ساڄي	-11.0662
▁ذوق	-11.0664
قى	-11.0666
▁هفتيوار	-11.0666
▁جدول	-11.0682
▁تاب	-11.0683
▁ويهه	-11.0686
▁تحس	-11.0688
▁حفظ	-11.0689
▁ورڊ	-11.0694
▁اينديون	-11.0695
lana	-11.0701
▁فوڊ	-11.0705
▁//	-11.0714
son	-11.0715
▁إل	-11.0719
▁علامه	-11.072
▁چٽي	-11.0723
ि	-11.0725
▁Bitcoin	-11.0725
▁قسط	-11.0725
▁سامعين	-11.0725
▁پیش	-11.0726
▁پاڙيسري	-11.0726
▁هئم	-11.0726
▁مڙني	-11.0726
▁محفل	-11.0729
▁ٽوڙڻ	-11.073
▁نوعيت	-11.0731
▁اوٽ	-11.0735
▁ڏيارڻ	-11.0735
▁ڇرڪ	-11.0736
▁ڌنڌو	-11.074
▁ناش	-11.0742
▁مالياتي	-11.0744
▁لپ	-11.0749
▁,,,	-11.0754
▁وڃايو	-11.0754
▁نيت	-11.0756
▁طالع	-11.0763
▁ريگ	-11.0763
▁بجا	-11.077
▁Con	-11.077
اخذ	-11.0777
▁55	-11.0781
dy	-11.0782
▁ڪوڙو	-11.0783
▁اتحادي	-11.0785
US	-11.0786
SA	-11.0791
▁ڦل	-11.0792
٤	-11.0797
▁Mehm	-11.0797
▁مشرقي	-11.0797
▁متوقع	-11.0805
▁ويهاري	-11.0813
▁دارد	-11.0819
عصب	-11.0824
@	-11.083
▁صلح	-11.0831
▁مدني	-11.0834
▁ڏيڍ	-11.0837
▁ڏيهه	-11.0846
▁چاھي	-11.0858
▁ٽنهي	-11.086
▁هڙتال	-11.0869
▁صحتيابي	-11.0869
▁عظمت	-11.0869
▁آگاهه	-11.0869
▁ٺاھڻ	-11.0869
▁بڻجڻ	-11.087
توکي	-11.087
▁تجديد	-11.0871
▁هندوستان	-11.0871
▁زيارت	-11.0872
ڪنهن	-11.0874
▁دستور	-11.0874
▁لکان	-11.0879
▁عندنا	-11.0883
▁آگهي	-11.0885
▁څ	-11.089
▁صفر	-11.0891
▁سرمائي	-11.0897
▁Te	-11.0897
▁رسالت	-11.0906
▁گھربل	-11.0913
▁ڌماڪي	-11.0919
▁br	-11.0923
▁ميڪس	-11.0927
▁شموليت	-11.0941
▁برگزاري	-11.0941
▁پهريائين	-11.0941
▁Amr	-11.0941
▁آڌار	-11.0942
▁معزز	-11.0942
▁بغداد	-11.0942
▁پرچم	-11.0943
▁پرورش	-11.0944
▁پئسي	-11.095
كبر	-11.0954
▁بڻيل	-11.0955
ووووووووو	-11.0957
▁اُڏ	-11.0958
▁مشكله	-11.0961
▁زياده	-11.0965
64	-11.0969
موضوع	-11.0971
▁ملائڻ	-11.0972
▁دوائن	-11.098
▁ڊراما	-11.0985
▁ڪلهي	-11.0986
ثق	-11.0992
▁بلاش	-11.0993
بغى	-11.0997
ator	-11.1008
▁Taj	-11.1014
▁بنگلاديش	-11.1014
che	-11.1016
▁كبير	-11.1019
▁اتوقع	-11.1022
▁ڀينر	-11.1025
▁سٽون	-11.1031
▁زيادتي	-11.1031
▁Be	-11.1032
▁پيمان	-11.1036
▁We	-11.1039
▁لالا	-11.104
▁كش	-11.104
ster	-11.104
طق	-11.104
▁بخير	-11.1048
ٽيشن	-11.1051
▁گهڻائي	-11.1052
▁مقابل	-11.1064
ٹر	-11.1065
▁راتيون	-11.1066
▁ھوندا	-11.107
▁يمه	-11.1071
جيئن	-11.1071
[/	-11.1075
▁مث	-11.1084
▁هيڏي	-11.1084
نداسون	-11.1087
▁ذهانت	-11.1088
▁بائبل	-11.1088
▁يڪدم	-11.1088
▁عقيدي	-11.1088
جرب	-11.1091
▁انواع	-11.1092
▁جوسينو	-11.1095
▁شفته	-11.1096
rg	-11.1097
▁جعلي	-11.1098
▁پيڪنگنگ	-11.1099
▁فيسبو	-11.1106
▁خالق	-11.1109
▁ايشيائي	-11.1111
اااااااا	-11.1113
ary	-11.1119
▁چاليه	-11.112
▁وائيس	-11.1125
▁ڪلهه	-11.1128
▁اسف	-11.1133
▁گهرايو	-11.1135
▁***	-11.1143
▁بدنام	-11.1156
म	-11.1162
▁انگليسي	-11.1162
▁منصوبابندي	-11.1162
▁ڌوئڻ	-11.1162
▁قرارداد	-11.1164
▁اثرائتو	-11.1164
▁مبارڪون	-11.1167
▁مطلق	-11.1168
صاحب	-11.117
▁اثاث	-11.1176
▁حظ	-11.1178
▁ڳل	-11.118
▁اكبر	-11.1185
▁دروازا	-11.1188
بعد	-11.1189
▁سگھندا	-11.1189
هيهيهيهي	-11.119
▁الحل	-11.1195
land	-11.1197
▁ٻيلي	-11.1197
▁وکر	-11.1203
▁ٻٽي	-11.1204
▁جارج	-11.1205
▁جڙي	-11.1211
▁گونج	-11.1221
▁قصو	-11.1223
▁موسميات	-11.1227
ذآ	-11.1232
mon	-11.1232
▁چڪ	-11.1235
▁dr	-11.1236
▁زلزلي	-11.1236
▁بصراحه	-11.1236
▁ڌمڪي	-11.1236
▁تصميم	-11.1237
پاسي	-11.1237
▁پڙھي	-11.1241
▁1990	-11.1244
جسٽ	-11.1246
ئنڊ	-11.1248
▁لڪل	-11.125
ally	-11.1252
▁ڪلپ	-11.1259
▁کاڌا	-11.1263
▁ڏوھ	-11.1267
طالع	-11.1268
▁اُٺ	-11.1271
▁داغ	-11.1271
▁صورة	-11.1276
▁چڱيء	-11.128
انسان	-11.1284
▁بليڪ	-11.1288
▁سٽا	-11.1294
▁لالچ	-11.1296
▁تحر	-11.1298
ٽيڪل	-11.1303
▁فلسفو	-11.1312
▁اوطاق	-11.1312
▁اپلوڊ	-11.1312
▁ترجمي	-11.1312
▁البنات	-11.1312
▁يسوع	-11.1315
▁بڻجن	-11.1316
ائتو	-11.1318
▁پڇيائين	-11.1319
▁ارادي	-11.132
▁ردعمل	-11.132
▁پرسش	-11.1321
افيه	-11.1322
ue	-11.1329
▁وارڊ	-11.1329
ana	-11.1347
آءٌ	-11.135
▁زيد	-11.1351
▁آڷ	-11.1353
▁ميگا	-11.1364
▁Vi	-11.1372
▁اڳئي	-11.1375
▁43	-11.1377
شهر	-11.1382
صرف	-11.1386
▁پسر	-11.1387
٦	-11.1387
▁پيچيدگي	-11.1387
▁لاطيني	-11.1387
▁سڀڪنھن	-11.1387
▁ڄاتو	-11.1387
▁لمحن	-11.1388
ju	-11.1388
▁ملائڪ	-11.139
▁راشد	-11.1391
▁احلام	-11.1393
▁2006	-11.1394
▁مشينري	-11.1397
do	-11.1397
▁حتي	-11.1397
fer	-11.1402
▁اسٽين	-11.1403
▁انتظر	-11.1404
▁سهڻا	-11.1407
▁سيکاريو	-11.1414
▁محور	-11.1416
▁روعه	-11.1427
▁فرش	-11.1429
▁وفاق	-11.144
فضل	-11.144
▁پَر	-11.1442
▁Sp	-11.1447
▁ننڍڙ	-11.1456
▁ثانيه	-11.1458
▁رولر	-11.1463
▁فساد	-11.1464
ox	-11.1466
▁ڏٺائين	-11.1467
▁هاڻوڪي	-11.1467
▁گهوڙي	-11.1467
▁نداره	-11.1468
▁دٻايو	-11.1469
▁غار	-11.147
▁رنج	-11.147
▁حاجة	-11.1471
▁جهنگلي	-11.1472
▁طويل	-11.1476
▁خار	-11.1477
▁تارا	-11.1481
▁اكتب	-11.1487
▁لقب	-11.1491
▁حيدر	-11.1492
▁اڇا	-11.1503
▁مٽا	-11.1506
عجز	-11.1507
▁II	-11.1508
▁ٽائي	-11.151
rin	-11.151
هههههههاااي	-11.1511
▁مايوسي	-11.1512
ix	-11.1516
▁ربنا	-11.1517
▁نظريه	-11.1519
▁آلات	-11.1527
▁حاجه	-11.1533
▁احتساب	-11.1541
▁الوداع	-11.1541
▁عقيدت	-11.1541
▁عاجز	-11.1541
▁سرمايو	-11.1541
▁مشھور	-11.1541
▁حڪيم	-11.1541
▁ڪجه	-11.1542
▁ايوب	-11.1547
▁تعصب	-11.1549
▁تصدق	-11.1553
▁inter	-11.1555
▁گهوٽ	-11.1557
▁پنجين	-11.1557
▁اٿاري	-11.1558
▁×	-11.1563
▁ڄاڻندا	-11.1563
▁غني	-11.1565
mer	-11.1565
▁مسوي	-11.1572
▁سلمان	-11.1578
&	-11.1579
شخص	-11.1581
▁دڙي	-11.1581
▁سورج	-11.1588
▁۵	-11.1602
▁بيهڻ	-11.1603
ism	-11.1604
▁طر	-11.1604
▁پراڻا	-11.1604
▁120	-11.1606
▁بالله	-11.1609
▁ڇوڪريون	-11.1615
TE	-11.1615
▁اجتماعي	-11.1618
▁دانلود	-11.1618
▁چاڙهي	-11.1618
▁يوڪرين	-11.1619
MI	-11.1619
▁جمهور	-11.1622
▁سگھجن	-11.1622
▁Lo	-11.1623
net	-11.1625
▁هيلٿ	-11.1625
mb	-11.1628
ence	-11.1632
▁اوليه	-11.1634
▁ورڇ	-11.1643
▁منصور	-11.1647
▁مهدي	-11.1649
{	-11.1657
▁حض	-11.1661
▁سڃ	-11.1666
az	-11.167
▁he	-11.1671
▁فلور	-11.1673
▁لڳس	-11.1683
▁گرل	-11.1683
▁الرج	-11.1684
▁سجاڳ	-11.1685
▁رِ	-11.169
▁صفت	-11.1695
xBet	-11.1696
▁تاثير	-11.1696
▁وڪڻڻ	-11.1696
▁پوڄا	-11.1697
▁دعوا	-11.1697
▁►	-11.1697
▁اسڪاٽ	-11.17
▁سخن	-11.1702
مارڪ	-11.1703
ten	-11.1704
▁38	-11.1704
▁المللي	-11.1705
▁مجسم	-11.1705
▁اڪبر	-11.1705
ions	-11.1709
▁زيبا	-11.1711
▁گھٽائڻ	-11.1718
▁حرم	-11.1727
▁64	-11.1728
▁اسٽينڊ	-11.173
ڙهو	-11.1735
٢	-11.1736
پنهنجي	-11.1736
▁ڪٺ	-11.1741
▁ڳنڍي	-11.1749
طرح	-11.1756
ong	-11.1763
ב	-11.1775
▁جانبدار	-11.1775
▁ايڊريس	-11.1775
▁ندارد	-11.1775
▁ذريعا	-11.1776
▁ميگه	-11.178
▁پنهون	-11.1783
▁رھڻ	-11.1783
▁ريئل	-11.1785
▁قائل	-11.1789
▁برادر	-11.1797
▁جگر	-11.1807
▁خب	-11.1813
bl	-11.1815
▁بدلو	-11.1836
▁انشاء	-11.184
لاگ	-11.1843
▁استقبال	-11.1854
▁لاڳاپن	-11.1854
▁گريجوئيشن	-11.1854
="0.1	-11.1854
▁محصول	-11.1854
▁جرئت	-11.1854
▁اُميد	-11.1854
▁اڳواٽ	-11.1855
▁سفير	-11.1855
▁حط	-11.1855
▁ورهايو	-11.1856
▁خواهشمند	-11.1856
▁آفتاب	-11.1861
lic	-11.1865
ڀرو	-11.1866
▁اكس	-11.1868
▁مشرف	-11.187
▁يصير	-11.1877
▁همراه	-11.1881
▁مورد	-11.19
▁چڙ	-11.1906
▁تسوي	-11.1909
▁پِر	-11.1915
▁گدا	-11.1917
▁سڏجي	-11.1923
▁خليف	-11.1925
▁دى	-11.1933
क	-11.1934
ڛ	-11.1934
▁ڀاتي	-11.1934
▁امتياز	-11.1935
▁ويڙهاڪ	-11.1936
قعد	-11.1937
▁لڙائي	-11.1937
▁چيلهه	-11.1943
▁سگهنداسين	-11.1943
▁جهڙن	-11.1949
▁خريدار	-11.1953
▁نيز	-11.1954
▁آتم	-11.1955
▁اسئل	-11.1956
▁كس	-11.1956
▁سڃاڻڻ	-11.1959
▁عجبني	-11.196
▁مانيٽر	-11.1965
▁هلڪي	-11.1972
▁فش	-11.1973
▁سعد	-11.1974
▁ٻارڙا	-11.1976
▁فيض	-11.1982
▁پڄاڻي	-11.1983
▁فوق	-11.1989
▁ايماندار	-11.1991
▁سُور	-11.1992
▁راجع	-11.2002
▁اسڪرپٽ	-11.2015
AD	-11.2016
▁ظرف	-11.2017
▁more	-11.2018
▁شارٽ	-11.2021
▁شش	-11.2023
▁ائپ	-11.2024
▁تعال	-11.2025
▁يقطع	-11.2029
▁بكل	-11.2032
▁ساراهه	-11.2035
▁ٺٽي	-11.2037
sis	-11.204
▁گشت	-11.204
▁بعرف	-11.205
▁ڏنڊ	-11.2051
▁ڪُل	-11.2054
شاعر	-11.2059
▁Bo	-11.2065
▁<<<<	-11.2073
▁لکندا	-11.2074
▁نقد	-11.2089
▁الحلو	-11.2092
▁مهند	-11.2094
▁ڪسٽمائيز	-11.2096
▁Windows	-11.2096
é	-11.2096
न	-11.2096
▁ايڪسچينج	-11.2096
▁مباحث	-11.2096
▁ڪئلينڊر	-11.2096
▁تلاء	-11.2096
▁ثواب	-11.2096
▁ليبل	-11.2097
▁درٻار	-11.2097
▁ميموري	-11.2097
▁سڪندر	-11.2098
▁ويري	-11.2102
▁ناقص	-11.2103
▁سوير	-11.2104
▁نوح	-11.2109
▁تعيش	-11.2115
▁رهان	-11.2116
▁ڳول	-11.2117
▁ائپس	-11.2125
▁ڄار	-11.2129
log	-11.2133
▁رچ	-11.2141
مممممممم	-11.2143
ino	-11.2151
▁}	-11.2152
▁ٻڌائيندو	-11.2153
▁tr	-11.2158
▁معلم	-11.216
▁كثر	-11.2162
AM	-11.2177
️	-11.2178
▁سرٽيفڪيشن	-11.2178
▁هارڊويئر	-11.2178
▁فلسفه	-11.2178
▁ڪارخاني	-11.2178
▁رومانوي	-11.2178
▁ٿلهي	-11.2179
▁خيرات	-11.2185
▁نظرياتي	-11.2197
old	-11.2209
▁الاهي	-11.2214
▁هلايو	-11.2214
▁ببين	-11.2216
▁ڪراس	-11.2221
▁لٺ	-11.2222
▁ڊار	-11.2232
▁لڪيل	-11.2238
▁واڪ	-11.2243
ara	-11.2253
▁connect	-11.2261
▁ريپبلڪ	-11.2261
▁پنھنجن	-11.2261
▁اڳوڻو	-11.2261
▁برانچ	-11.2261
▁ذرا	-11.2261
▁(5)	-11.2262
▁پيرامون	-11.2264
▁One	-11.2264
▁پائونڊ	-11.2268
صلح	-11.2272
▁مصروفيت	-11.2273
ائيزيشن	-11.2274
▁رزق	-11.2282
▁البته	-11.2292
▁ادو	-11.2295
▁لهجي	-11.2297
▁الحق	-11.2299
▁سيٺ	-11.2301
حفظ	-11.2303
▁are	-11.2309
▁مريد	-11.231
▁جدائي	-11.2311
▁😂	-11.2314
hu	-11.2315
▁مجاز	-11.2317
▁ڏاڍ	-11.2323
-5	-11.2327
▁انضمام	-11.2344
▁دارومدار	-11.2344
▁ناجائز	-11.2344
▁اوباما	-11.2344
▁ڇڪتاڻ	-11.2344
▁پھريان	-11.2344
▁عيوض	-11.2345
▁ايٽمي	-11.2345
▁مذمت	-11.2346
▁ڪارائتو	-11.2347
دفع	-11.235
▁سياح	-11.235
▁وسارڻ	-11.2351
▁ٽيڪنڪ	-11.2351
▁2004	-11.2353
▁ٻارهن	-11.2356
light	-11.2364
100	-11.2371
▁لانه	-11.2383
▁ميگن	-11.2395
▁مشوري	-11.2395
گاھ	-11.2399
▁ڇڏيائين	-11.24
▁زنان	-11.2404
▁عشر	-11.241
▁جھلي	-11.2428
▁مبروك	-11.2428
▁وائس	-11.2432
▁ڪيچ	-11.2437
MA	-11.2438
▁ٺاھيو	-11.2439
▁طلعت	-11.2441
▁ٺاهيندا	-11.2442
▁فرشت	-11.2449
▁كلنا	-11.245
عظم	-11.2452
▁گهوري	-11.2453
▁سُک	-11.2457
▁پينٽ	-11.2458
▁الحر	-11.2459
▁حلوين	-11.2463
ating	-11.2472
LE	-11.2482
▁سلوڪ	-11.2495
▁يونس	-11.2499
طار	-11.2501
>>	-11.2509
▁قلبك	-11.251
▁معاملا	-11.2513
▁ملهائڻ	-11.2513
▁اجزاء	-11.2513
▁آلودگي	-11.2514
▁ليڪچر	-11.2514
▁ٿورڙو	-11.2515
▁ڪُجهه	-11.2515
روجن	-11.2517
▁لبنان	-11.2518
▁خذ	-11.2521
▁ورثي	-11.2523
▁صغير	-11.2523
▁مترجم	-11.2527
ium	-11.2529
▁پاڻيء	-11.2531
▁نڪتي	-11.2548
▁ساڙي	-11.2556
vel	-11.2566
۔۔۔۔۔	-11.2567
▁ميٽرڪ	-11.2571
▁وبائي	-11.2579
▁ڪک	-11.2579
▁ڏکيائي	-11.259
ههههههههههاي	-11.2591
tainless	-11.2598
٩	-11.2598
▁پروٽوڪول	-11.2598
▁ڀاڱو	-11.2598
▁لحظه	-11.2599
▁دائرو	-11.2599
▁لمحو	-11.2599
▁پڌري	-11.2599
ance	-11.2599
▁۲۰	-11.26
قرأ	-11.26
▁ابليس	-11.26
▁تابعداري	-11.26
▁اسرار	-11.26
▁البنت	-11.2601
مفروض	-11.2603
▁ڏاڪڻ	-11.2604
▁ھجڻ	-11.2605
▁سهارو	-11.2607
▁سادگي	-11.2613
▁يارب	-11.2625
▁مڙهي	-11.2625
جمع	-11.2628
▁250	-11.2628
nn	-11.264
مولانا	-11.2646
فعل	-11.2654
▁رسالو	-11.2675
طالب	-11.2684
▁سوئٽزرلينڊ	-11.2685
▁مظلوم	-11.2685
▁منتظم	-11.2685
▁پوئلڳ	-11.2685
▁اسڪوٽر	-11.2685
▁درباره	-11.2685
▁مصنف	-11.2685
▁العافيه	-11.2686
▁حنا	-11.2688
▁ٽنڊو	-11.2694
▁can	-11.2697
▁ٻڪري	-11.2699
▁حبيبتي	-11.2704
▁ساک	-11.2707
▁افق	-11.2708
▁لڄ	-11.2708
▁ڳالهائيندڙ	-11.2709
ولوجي	-11.271
ميٽر	-11.2711
▁پريميئ	-11.2716
▁اُج	-11.2733
حقيقت	-11.2733
تعرف	-11.2736
▁ملئي	-11.2739
▁فريب	-11.2749
▁غبي	-11.275
طبخ	-11.2755
▁Ar	-11.2756
▁رڳ	-11.2757
▁الث	-11.2759
▁سجيل	-11.2764
▁آڪسيجن	-11.2772
▁ذميداري	-11.2772
▁منتديات	-11.2772
▁نوٽيفڪيشن	-11.2772
▁اڳڀرائي	-11.2772
▁پرتگال	-11.2772
▁ھميشه	-11.2772
▁آنلائن	-11.2772
▁اينجلس	-11.2772
▁پروموشن	-11.2773
▁سوويت	-11.2773
▁ٽيڪسٽ	-11.2773
▁پکسل	-11.2774
▁چاچا	-11.2775
▁الاءِ	-11.2775
▁پيراهن	-11.278
▁ڪجھھ	-11.2781
▁الوقت	-11.2787
▁ناٽڪ	-11.2788
▁سمجهندو	-11.2788
▁سينئر	-11.2789
▁ماتحت	-11.2791
▁ضحكتني	-11.2793
▁دوائون	-11.2795
▁ڳولها	-11.2796
<<<<	-11.2812
ina	-11.2813
▁چانڊ	-11.2815
▁کائو	-11.2815
▁ارجو	-11.2816
▁پشت	-11.282
توقع	-11.2827
▁مارئي	-11.2833
▁ويجھ	-11.2833
▁وينداسين	-11.284
▁واڳ	-11.2844
▁سڏيندا	-11.2845
▁بينظير	-11.2859
▁مھينا	-11.2859
▁ترجمه	-11.286
▁آزمون	-11.286
▁ويڪسينيشن	-11.2863
▁رضاڪار	-11.2863
▁پنجاهه	-11.2865
▁كريم	-11.2873
▁پريشر	-11.2874
خرج	-11.2875
▁ڄمڻ	-11.2881
▁sc	-11.2887
▁ڪيڏا	-11.2897
▁شهد	-11.2904
▁ڀرتي	-11.2912
▁نگران	-11.2925
cy	-11.2932
▁حياتيات	-11.2935
IT	-11.2935
ٻئي	-11.2936
▁ڇهين	-11.2938
▁سرمايه	-11.2948
▁منشيات	-11.2948
▁گارنٽي	-11.2948
▁Com	-11.2949
▁ڇُ	-11.295
▁حاج	-11.295
▁مٿن	-11.295
▁نانءُ	-11.2951
▁وفد	-11.2952
▁تعميل	-11.2952
▁اسٽائل	-11.2953
▁مهربان	-11.2953
▁چک	-11.2956
▁گواهي	-11.2959
▁الصورة	-11.2961
▁Do	-11.2962
▁ٿڪجي	-11.2975
▁اسپام	-11.2981
way	-11.2991
IM	-11.2996
</	-11.3002
▁پراڻن	-11.3005
▁Qu	-11.3018
line	-11.3019
▁کانسواء	-11.3028
َرِ	-11.3032
▁جولاء	-11.3034
▁موٽائي	-11.3037
▁ويجهڙائي	-11.3037
▁السعودي	-11.3037
www	-11.3037
▁رابطه	-11.3037
▁تفسير	-11.3037
▁ڏاڙهي	-11.3041
ڪجهه	-11.3042
VI	-11.3043
▁ڇپيو	-11.3043
▁شاد	-11.3046
▁1980	-11.3048
▁ذهين	-11.3048
▁پرويز	-11.3048
▁ڀاڻ	-11.3051
▁يوزر	-11.3052
▁فاصلو	-11.3055
▁سمعت	-11.3055
▁ٽريڊ	-11.3057
▁ڊوڙندو	-11.3057
▁ساعت	-11.3067
▁مشاهد	-11.3073
تمام	-11.3074
▁خطير	-11.3081
q	-11.309
▁فرياد	-11.3097
und	-11.3103
hat	-11.3105
▁يحب	-11.311
▁سانوڻ	-11.3113
شاهه	-11.3123
مونکي	-11.3126
ڹ	-11.3127
▁اقتباس	-11.3127
▁اسڪالرشپ	-11.3127
▁مخاطب	-11.3127
▁بااثر	-11.3127
▁چنيسر	-11.3127
▁ثانوي	-11.3127
▁ورهايل	-11.3128
▁دقيق	-11.3128
▁هٿياربند	-11.3128
▁Zone	-11.3128
اخد	-11.3129
▁ھزار	-11.3132
▁ايڪسڪسڪس	-11.3133
▁لمحي	-11.3133
▁حامل	-11.3135
▁جبهه	-11.3139
▁نيڪال	-11.3139
▁افضل	-11.3139
فصل	-11.314
▁نير	-11.314
▁چڙهڻ	-11.3147
▁گهاٽ	-11.3147
ذهب	-11.3152
▁ٽوپي	-11.3153
▁يطلع	-11.3155
▁دانش	-11.3163
▁Ra	-11.317
▁جاندار	-11.3178
▁واعد	-11.3198
▁آئرلينڊ	-11.3218
▁ممبئي	-11.3218
▁مواضيع	-11.3218
▁دائود	-11.3218
▁اھڙو	-11.3218
▁راغب	-11.3218
▁پيشنهاد	-11.3218
▁مهانگو	-11.3218
▁آسٽريا	-11.3219
▁شفقت	-11.3219
▁ڇوڪرن	-11.322
▁مارشل	-11.3221
▁لڳندا	-11.3221
▁ڳوٺاڻن	-11.3222
▁100%	-11.3223
▁ايدك	-11.3227
▁ٿانو	-11.3234
▁گُل	-11.3234
▁لاٿو	-11.3243
▁لاچار	-11.3245
▁هُجي	-11.3258
▁بلبل	-11.3261
IS	-11.3261
جعل	-11.327
▁سِڪ	-11.3278
▁Instagram	-11.331
▁استحصال	-11.331
▁سڳورن	-11.331
▁مائڪروسافٽ	-11.331
▁ويژگي	-11.331
▁عقيدو	-11.331
▁علشان	-11.331
▁رابرٽ	-11.331
▁ڊپريشن	-11.3311
▁گرائونڊ	-11.3311
▁ويلڊنگ	-11.3312
▁جميع	-11.3314
▁وآله	-11.3314
▁قياس	-11.3315
▁بيٽا	-11.3319
▁سائبر	-11.3319
▁ابتڙ	-11.332
▁دلڪش	-11.3323
ES	-11.3326
▁کڻندا	-11.3328
▁پنڊ	-11.3343
▁over	-11.3344
▁نواف	-11.3344
▁ڏسندڙ	-11.3346
سئل	-11.3351
▁خواست	-11.3351
▁چاڪ	-11.3359
▁GB	-11.3361
▁ملٽي	-11.3363
▁ڇڏيندس	-11.3363
پاڪستان	-11.3364
▁ٽچ	-11.3372
▁Un	-11.3375
▁پروڊڪٽ	-11.3375
▁سائز	-11.3392
▁گيج	-11.3394
acc	-11.3398
ness	-11.3399
▁سندر	-11.3402
▁انفارميشن	-11.3402
▁ايلومينيم	-11.3402
▁ميٽروپوليٽن	-11.3402
▁ٽرانزيڪشن	-11.3402
▁آپگهات	-11.3402
▁ڊرائنگ	-11.3402
▁ورڪشاپ	-11.3402
▁ڪھڙو	-11.3402
▁شريعت	-11.3403
▁پناهگير	-11.3403
▁دختر	-11.3403
▁بيشمار	-11.3403
▁تدريس	-11.3404
▁قبرستان	-11.3405
▁مرگ	-11.3406
▁ڌاڙيل	-11.3407
▁خخخخ	-11.3409
▁1947	-11.3411
▁فروش	-11.3414
orn	-11.3414
▁ولله	-11.3418
uck	-11.3418
▁آرزو	-11.3419
▁ملايو	-11.3422
▁مميز	-11.3422
▁لٿو	-11.3424
▁سرڪٽ	-11.3425
▁مباني	-11.3426
▁رڙيون	-11.3427
▁For	-11.3432
اااااااااااااا	-11.3436
▁بيٽنگ	-11.3439
▁شاف	-11.3443
▁بخوا	-11.3455
▁ميوو	-11.3459
▁مقدر	-11.3464
▁جمعيت	-11.3466
▁cr	-11.3471
ound	-11.3476
स	-11.3496
▁Martech	-11.3496
▁خورشيد	-11.3496
▁نامعلوم	-11.3496
▁ڪھاڻي	-11.3496
▁گهيرو	-11.3497
▁تصوف	-11.3498
▁هيئت	-11.35
▁الثاني	-11.3501
IC	-11.3501
▁مُلڪ	-11.3504
▁معاهد	-11.3508
▁گرجا	-11.3511
▁2001	-11.3512
que	-11.3513
▁ٽائيپ	-11.3516
▁فعاليت	-11.3526
▁تعلم	-11.3537
▁انجيل	-11.3538
الدين	-11.355
▁جلال	-11.3553
▁مرچ	-11.3564
▁سعود	-11.3566
BC	-11.3574
▁surname	-11.359
▁نمائندن	-11.359
▁چوڌري	-11.359
▁معذرت	-11.359
▁ڏهاڪن	-11.359
▁وظيف	-11.359
▁ڏٺل	-11.359
▁زاهد	-11.359
▁ڳولهڻ	-11.3591
▁لغت	-11.3592
▁ورتائين	-11.3594
▁مزاحيه	-11.3594
▁نميشه	-11.3597
▁1970	-11.3598
▁کتاب	-11.3599
▁مشعل	-11.3599
lock	-11.36
▁روعة	-11.3601
▁کامل	-11.3605
▁En	-11.3606
▁ڪپهه	-11.362
ٽيڊ	-11.3622
▁Mac	-11.3631
▁آئس	-11.3631
▁مبني	-11.3637
سافر	-11.3646
▁آسانيء	-11.3652
▁افهم	-11.3661
▁ڏهين	-11.3665
EC	-11.367
eng	-11.3677
ling	-11.3678
▁Surname	-11.3685
▁سرپرست	-11.3686
▁فضول	-11.3686
▁اقرار	-11.3686
▁پورهيو	-11.3686
▁چيومانس	-11.3686
▁وحدة	-11.3688
▁منھنجا	-11.3688
▁چاٻي	-11.3689
▁هولڊر	-11.3689
ائنٽ	-11.369
يييييييي	-11.369
▁رشتن	-11.3691
▁مٽائڻ	-11.3692
▁مارٽن	-11.3694
▁ورجائي	-11.3696
تخيل	-11.37
pi	-11.37
▁ريشم	-11.3701
▁شهور	-11.3718
َوَ	-11.372
▁حبيت	-11.3728
▁درياءَ	-11.373
▁مڱ	-11.3739
▁سهيل	-11.3743
NA	-11.3744
▁جناح	-11.3747
▁ڏڪار	-11.3752
part	-11.3752
▁تمنا	-11.3778
▁Huawei	-11.3782
▁آڪسائيڊ	-11.3782
▁پرڪشش	-11.3782
▁بصيرت	-11.3782
▁جهيڙو	-11.3782
▁طارق	-11.3783
▁نقاب	-11.3788
▁اسپيس	-11.3794
▁ٽاري	-11.3813
="6	-11.3813
▁برداري	-11.383
▁مومن	-11.383
▁نصف	-11.3837
▁ميٽنگ	-11.384
تنهنجي	-11.384
▁ياليت	-11.3848
▁ھار	-11.3851
ach	-11.3861
توقيع	-11.3864
▁ڪوٽنگ	-11.3865
ۡ	-11.3879
त	-11.3879
▁انڊونيشيا	-11.3879
▁ISO	-11.3879
▁مخدوم	-11.3879
▁اجاگر	-11.3879
▁تجربه	-11.3879
▁هنگامي	-11.3879
▁پکڙج	-11.388
▁تجسس	-11.3883
▁طبقاتي	-11.3885
▁فضائي	-11.3891
▁ڏوهن	-11.3894
▁اسكت	-11.3907
▁اچار	-11.3917
air	-11.3923
▁ضر	-11.3927
uct	-11.3927
▁برتن	-11.3943
▁پنير	-11.3948
▁Jo	-11.396
▁اريد	-11.3964
▁پهچندي	-11.3968
▁پالڻهار	-11.3977
▁لاڏاڻو	-11.3977
▁آفريڪي	-11.3977
▁تضاد	-11.3977
٠٠	-11.3977
▁قافل	-11.3982
OR	-11.3987
▁ڪاربان	-11.3988
▁ٽريول	-11.399
▁ذوب	-11.3991
▁آرٽسٽ	-11.3998
▁سڱ	-11.4022
▁جهاد	-11.403
▁عقب	-11.4033
▁خوشحال	-11.4056
▁شنگھائي	-11.4076
▁بندرگاهه	-11.4076
▁ايجنڊا	-11.4076
▁بااختيار	-11.4076
▁آرشيو	-11.4076
▁قبيلي	-11.4077
▁اظن	-11.4078
▁ضبط	-11.4079
▁ڏِس	-11.4079
▁قاسم	-11.4081
▁جارجيا	-11.4084
▁چاچي	-11.4087
▁پلاٽ	-11.4089
▁خوار	-11.409
▁وسعت	-11.409
▁جاسوس	-11.4093
▁پهچندو	-11.41
پيڊ	-11.4107
▁600	-11.4117
▁اشاري	-11.4117
قتل	-11.412
▁سويڊن	-11.4121
▁2002	-11.4133
حسب	-11.4157
▁نوازيو	-11.4162
▁مزار	-11.4173
▁اڇلائي	-11.4175
▁Facebook	-11.4176
▁شهنشاهه	-11.4176
▁تجزيي	-11.4176
▁ويژه	-11.4176
▁چانور	-11.4177
▁اوترو	-11.4178
▁جرنل	-11.4179
▁فنانس	-11.418
▁ٻانهي	-11.4182
▁شڪارپور	-11.4183
▁غدار	-11.4184
▁آڻيندي	-11.4201
▁ٻيڻو	-11.4204
▁بگير	-11.4211
▁روپيا	-11.4212
▁لوڏي	-11.4219
▁اڷ	-11.4228
▁سفرنام	-11.4241
▁زار	-11.4242
دعا	-11.4246
▁پڌرا	-11.4271
❤	-11.4277
▁ضابطي	-11.4277
▁ڇنڇر	-11.4277
▁ڪيٿولڪ	-11.4277
▁مرتضي	-11.4277
▁ڏُک	-11.4277
▁مركز	-11.4279
▁پوڙهو	-11.4279
▁کوٽائي	-11.428
▁ڀانئي	-11.4281
▁الٽرا	-11.4282
▁لڪائڻ	-11.4283
▁پرچون	-11.4283
▁كدة	-11.4283
▁خيرپور	-11.4285
▁محرم	-11.4285
▁حوالا	-11.4286
▁بيهاري	-11.4286
box	-11.4287
▁ڀڄڻ	-11.43
▁ڍڳ	-11.4304
▁تباھ	-11.432
▁نصير	-11.4323
▁قهر	-11.4327
▁گهرواري	-11.4333
▁Tra	-11.4357
work	-11.436
▁سوڍ	-11.4366
▁Xiaomi	-11.4379
▁گريجوئيٽ	-11.4379
٨	-11.4379
▁پندرهن	-11.4379
▁يسعدك	-11.4379
▁تجزيه	-11.4379
▁ارشاد	-11.4379
▁صراحه	-11.4379
▁روزمره	-11.4379
▁معبود	-11.4379
▁رابطا	-11.4379
▁تڪميل	-11.438
▁مٿئي	-11.4381
▁ٽيبليٽ	-11.4385
▁ڪيريبي	-11.4394
▁ڪهاڻيڪار	-11.4397
▁نقصانڪار	-11.4402
▁سمايل	-11.4405
▁ملتان	-11.4428
▁پڙهندا	-11.4437
MS	-11.4438
▁فكرت	-11.4452
▁نقص	-11.4461
▁صحرا	-11.4473
▁HTC	-11.4482
▁ٽريفڪ	-11.4482
▁رضامندي	-11.4482
▁منسلڪ	-11.4482
▁پتلي	-11.4483
▁متوجه	-11.4484
▁جاويد	-11.4488
▁مجرم	-11.449
▁XD	-11.4495
ii	-11.453
اااااااااااااااا	-11.4546
>>>	-11.4555
▁منطق	-11.4567
▁آئل	-11.4573
▁ايگزيڪيوٽو	-11.4586
▁همدردي	-11.4586
▁پاناما	-11.4586
▁گھمڻ	-11.4586
▁آسودو	-11.4586
▁واکاڻ	-11.4586
▁پڙهندي	-11.459
▁کِل	-11.459
▁آتش	-11.4592
▁النكت	-11.4592
▁پڙهائڻ	-11.4594
▁1995	-11.4595
▁پئدا	-11.4597
▁1960	-11.4601
▁تسلي	-11.4602
▁سعر	-11.4602
▁عکس	-11.4603
▁جملا	-11.4626
rr	-11.4626
▁ڀڃڻ	-11.4631
▁ڳالھيون	-11.4633
^^	-11.4634
▁مومل	-11.4635
▁مصور	-11.4635
tors	-11.4638
▁سمجهائي	-11.4659
اڃا	-11.4676
ange	-11.4679
▁ڀور	-11.4685
य	-11.4691
▁ايمرجنسي	-11.4691
▁پيپلزپارٽي	-11.4691
▁ڪيبورڊ	-11.4691
▁قوانين	-11.4692
▁مرشد	-11.4692
▁وضعيت	-11.4695
▁مائع	-11.4697
▁مڃتا	-11.4698
▁الكلام	-11.47
▁فارمولا	-11.47
▁نفيس	-11.4701
▁گوڏ	-11.4701
▁پيگيري	-11.4707
▁ڊانس	-11.4711
▁کمپ	-11.472
▁کے	-11.4725
ttle	-11.4725
▁رحيم	-11.473
▁اگھ	-11.4731
▁ڦڙ	-11.4742
▁Man	-11.4744
ware	-11.4759
▁آغا	-11.478
cal	-11.479
ٖ	-11.4798
▁cryptocurrency	-11.4798
▁پراسرار	-11.4798
▁ڪئپٽن	-11.4798
▁مذھب	-11.4798
▁اقوام	-11.4798
▁آرڪائيو	-11.4798
▁اوارڊ	-11.4798
▁هاسٽل	-11.4798
▁واردات	-11.4799
▁رينجرز	-11.4801
▁ويساهه	-11.4801
▁عابد	-11.4802
▁مخزن	-11.4804
▁قدام	-11.4805
▁مونجهار	-11.4807
▁ٺهراء	-11.4808
▁پرديس	-11.4814
▁مُنهنجي	-11.4819
بغي	-11.482
▁تاكل	-11.4835
time	-11.4844
1.5	-11.4859
َلَ	-11.4869
▁افزا	-11.4873
TO	-11.4873
▁امريڪ	-11.4885
▁آمريکا	-11.4905
▁اڻڄاتل	-11.4905
▁غيرقانوني	-11.4905
▁منصوبه	-11.4905
▁اطلاق	-11.4905
▁اتمنى	-11.4905
▁انفيڪشن	-11.4905
▁ثالث	-11.4905
▁اختتام	-11.4905
▁with	-11.4905
▁نظير	-11.4905
▁ورثو	-11.4906
▁سنسار	-11.4906
▁اڄوڪو	-11.4906
▁آخوند	-11.4909
row	-11.4913
▁عالمگير	-11.4915
▁ذھن	-11.4915
EN	-11.4918
▁چيمبر	-11.4924
▁exp	-11.4931
▁مهراڻ	-11.494
GB	-11.4946
▁مجموع	-11.4949
▁بنگل	-11.4957
▁لفٽ	-11.4963
اُنھن	-11.498
▁ڍور	-11.4989
▁کيڏيو	-11.4995
jo	-11.4998
ٔ	-11.5014
▁HTML	-11.5014
▁ٽيليگرام	-11.5014
▁فرمانبردار	-11.5014
▁ايڪسپورٽ	-11.5014
▁ڊيڄاري	-11.5014
▁حُسن	-11.5014
▁اينيمڪس	-11.5014
▁قميص	-11.5014
▁غمگين	-11.5014
▁پنھنجا	-11.5014
▁أكيد	-11.5014
▁خوشخبري	-11.5014
▁پهتس	-11.5014
▁پڙھڻ	-11.5015
▁عاقل	-11.5015
▁(6)	-11.5015
▁جزائر	-11.5021
▁1997	-11.5023
▁ٽائل	-11.5028
▁لڌو	-11.5037
▁نوشت	-11.5039
▁str	-11.5047
▁گرڊ	-11.5047
ـِـ	-11.5059
TN	-11.5077
▁ساڍ	-11.5097
ۅ	-11.5124
े	-11.5124
▁اپارٽمنٽ	-11.5124
▁سنسڪرت	-11.5124
▁عملدرآمد	-11.5124
▁ناانصافي	-11.5124
▁رٿابندي	-11.5124
▁لاڳيتو	-11.5124
▁مشاورت	-11.5124
▁تبصرا	-11.5124
▁غفلت	-11.5124
▁آموزش	-11.5124
▁ضياءَ	-11.5124
▁اصحاب	-11.5124
▁صالح	-11.5124
▁ورهائڻ	-11.5124
▁خميس	-11.5125
▁وسيلو	-11.5126
▁آجيان	-11.5126
▁اقبال	-11.5126
▁الطاف	-11.5127
▁سپلائي	-11.5127
▁شڪرگذار	-11.5127
▁ڀروسي	-11.5127
▁ھئ	-11.513
▁تحريم	-11.5131
▁ڌيئر	-11.5133
▁سينيئر	-11.5138
▁لقيت	-11.5143
▁ناروي	-11.5145
▁چارلس	-11.5146
▁مظهر	-11.5147
▁عبير	-11.5148
ذبح	-11.5204
تاريخ	-11.5205
▁El	-11.5208
▁Dis	-11.5225
عزيز	-11.5227
▁ناپسند	-11.5234
▁^_^	-11.5235
▁ضابطا	-11.5235
▁ڪولمبيا	-11.5235
▁اسپورٽس	-11.5235
▁ڊوائس	-11.5235
▁خلوص	-11.5235
▁براعظم	-11.5236
▁فائديمند	-11.5236
▁حراست	-11.5238
▁فارغ	-11.5245
▁رهندس	-11.5248
▁ماخذ	-11.5251
▁ٽائر	-11.5253
▁سنيپ	-11.5253
▁ڪرسٽل	-11.5255
▁وقار	-11.5256
▁کڻندو	-11.5259
▁ڊيوڊ	-11.5265
▁مقالا	-11.5267
▁وڄائي	-11.5269
▁ڊاهي	-11.5287
حتاج	-11.5302
طريق	-11.5332
ल	-11.5347
♪	-11.5347
QUOTE	-11.5347
▁هڪجهڙائي	-11.5347
▁پھريائين	-11.5347
▁فيسٽيول	-11.5347
▁استثنا	-11.5347
▁غضب	-11.5348
▁لياقت	-11.5348
▁نوڪيا	-11.5348
▁سوانح	-11.5349
▁اعترف	-11.5349
▁نڀائي	-11.535
▁سڌريل	-11.535
▁ضحكتيني	-11.5351
▁تڙپ	-11.5351
▁جاکوڙ	-11.5352
▁اُڃ	-11.5355
▁شاءالله	-11.5355
ڊونلڊ	-11.5356
▁هارمون	-11.5358
▁لڪايو	-11.5358
▁هوريان	-11.5359
▁چڱائي	-11.5361
▁پولينڊ	-11.5361
▁فكرة	-11.5362
▁گارڊ	-11.5366
▁فکر	-11.537
▁مخلص	-11.5371
ise	-11.5373
***	-11.5377
▁حاوي	-11.538
over	-11.5399
▁شباب	-11.5403
ower	-11.5409
▁pb	-11.5422
▁بعيد	-11.5422
صحيح	-11.5436
ۆ	-11.5461
▁بدعنواني	-11.5461
▁ڏکوئيندڙ	-11.5461
▁ٽرانسميشن	-11.5461
♡	-11.5461
▁اسٽريمنگ	-11.5461
▁گورنمينٽ	-11.5461
▁موسيٰ	-11.5461
▁عقيدن	-11.5461
Names	-11.5461
▁ناپسنديده	-11.5462
▁انحراف	-11.5462
▁كأن	-11.5462
♥	-11.5537
®	-11.5576
ٴ	-11.581
ۑ	-11.581
ღ	-11.6049
◄	-11.6171
٫	-11.642
(	-11.648
©	-11.6546
څ	-11.6766
ो	-11.6804
٧	-11.6804
प	-11.6804
ۉ	-11.6936
व	-11.6936
😉	-11.6936
×	-11.703
а	-11.7069
§	-11.7069
🤣	-11.7069
ह	-11.748
ۃ	-11.7621
☺	-11.7764
ڎ	-11.8205
ڸ	-11.8511
द	-11.8667
ۊ	-11.8667
н	-11.8987
😁	-11.8987
è	-11.9317
ü	-11.9317
♫	-11.9659
פ	-11.9835
›	-11.9835
😀	-11.9835
ु	-12.0013
î	-12.0195
ڤ	-12.0195
≤	-12.0195
â	-12.0195
ı	-12.0195
ڜ	-12.038
о	-12.0569
ٗ	-12.0569
◆	-12.0569
и	-12.0761
ç	-12.0957
İ	-12.0957
ٓ	-12.0957
ट	-12.1157
à	-12.1157
ग	-12.1157
●	-12.1323
ۓ	-12.1362
💔	-12.1783
😍	-12.1783
★	-12.2
ी	-12.2222
٬	-12.245
р	-12.245
̈	-12.2682
ؑ	-12.2682
ş	-12.2682
ڶ	-12.292
ۀ	-12.292
ێ	-12.292
ब	-12.292
с	-12.292
ڣ	-12.3414
😭	-12.3414
е	-12.3414
°	-12.3632
כ	-12.3671
ज	-12.3671
ݪ	-12.3671
उ	-12.3934
ٕ	-12.3934
छ	-12.4204
ࢪ	-12.4482
、	-12.4482
ö	-12.4482
ڕ	-12.5062
á	-12.5062
श	-12.5062
॥	-12.5062
ω	-12.5677
т	-12.5677
ू	-12.5677
м	-12.5677
±	-12.6
ै	-12.6
😅	-12.6
🙁	-12.6
ּ	-12.6333
у	-12.6333
ۧ	-12.6678
ۂ	-12.6678
♦	-12.6678
ं	-12.7035
̷	-12.7035
·	-12.7367
ۄ	-12.7405
ۋ	-12.7405
√	-12.7405
д	-12.7405
л	-12.779
Ş	-12.779
ל	-12.779
ۿ	-12.779
ड	-12.779
ध	-12.779
ٳ	-12.779
؏	-12.819
٘	-12.819
‹	-12.819
≥	-12.819
😊	-12.819
ˇ	-12.8607
¤	-12.8607
←	-12.9003
¢	-12.9041
【	-12.9041
ツ	-12.9041
💞	-12.9041
ê	-12.9041
ؿ	-12.9041
ए	-12.9041
भ	-12.9041
ष	-12.9041
¬	-12.9496
٭	-12.9496
✿	-12.9496
】	-12.9496
﴾	-12.9496
﴿	-12.9496
👍	-12.9496
α	-12.9496
к	-12.9496
ë	-12.9496
ٚ	-12.9972
ە	-12.9972
ई	-12.9972
☆	-12.9972
Ü	-12.9972
ā	-12.9972
ٲ	-13.0472
¦	-13.0472
¿	-13.0472
ó	-13.0472
û	-13.0472
μ	-13.0472
ο	-13.0472
в	-13.0472
ڝ	-13.0472
‐	-13.0472
⁄	-13.0472
з	-13.0998
ػ	-13.0998
─	-13.1554
β	-13.1554
अ	-13.1554
⇄	-13.1554
🏻	-13.1554
ä	-13.1554
ڒ	-13.1554
͜	-13.1554
ñ	-13.2142
х	-13.2142
ण	-13.2142
≈	-13.2142
■	-13.2142
😆	-13.2142
ա	-13.2142
फ	-13.2767
ž	-13.2767
ы	-13.2767
ؽ	-13.2767
ڠ	-13.2767
菜	-13.2767
👌	-13.2767
。	-13.2767
ࢦ	-13.2767
ख	-13.3434
Ø	-13.3434
÷	-13.3434
ֿ	-13.3434
ٛ	-13.3434
⋆	-13.3434
🔥	-13.3434
ڂ	-13.3434
😜	-13.3434
й	-13.3434
आ	-13.3434
б	-13.4148
ۇ	-13.4148
🌹	-13.4148
ğ	-13.4148
š	-13.4148
г	-13.4148
थ	-13.4148
ृ	-13.4148
′	-13.4148
̨	-13.4148
\	-13.4148
ᓄ	-13.4917
▌	-13.4917
✅	-13.4917
¡	-13.4917
í	-13.4917
ô	-13.4917
̲	-13.4917
✌	-13.4917
💘	-13.4917
€	-13.5712
ে	-13.5751
ե	-13.5751
ݩ	-13.5751
Ç	-13.5751
̃	-13.5751
❥	-13.5751
💙	-13.5751
😘	-13.5751
ζ	-13.666
і	-13.666
ι	-13.666
я	-13.666
י	-13.666
נ	-13.666
↓	-13.666
◕	-13.666
☀	-13.666
⭐	-13.666
💕	-13.666
🙈	-13.666
п	-13.666
▐	-13.666
̣	-13.666
͡	-13.666
ξ	-13.766
ۦ	-13.766
इ	-13.766
✨	-13.766
Ґ	-13.766
ؐ	-13.766
۩	-13.766
ন	-13.766
✋	-13.766
😄	-13.766
😇	-13.766
🤔	-13.766
ï	-13.766
č	-13.766
œ	-13.766
۫	-13.766
♀	-13.766
🌸	-13.766
💗	-13.766
๑	-13.766
£	-13.8732
音	-13.8771
Ö	-13.8771
😝	-13.8771
🙏	-13.8771
Š	-13.8771
ː	-13.8771
ڨ	-13.8771
র	-13.8771
◊	-13.8771
♠	-13.8771
❣	-13.8771
😔	-13.8771
😹	-13.8771
ρ	-13.8771
ँ	-13.8771
া	-13.8771
🙂	-13.9982
ի	-14.0021
Φ	-14.0021
ε	-14.0021
מ	-14.0021
ম	-14.0021
σ	-14.0021
ڭ	-14.0021
্	-14.0021
※	-14.0021
å	-14.0021
͠	-14.0021
Ω	-14.0021
ն	-14.0021
♩	-14.0021
」	-14.0021
🌷	-14.0021
ם	-14.0021
🖤	-14.0021
ۛ	-14.0021
น	-14.1449
ч	-14.1449
ր	-14.1449
🇩	-14.1449
η	-14.145
†	-14.145
Ž	-14.145
̤	-14.145
ς	-14.145
ш	-14.145
ս	-14.145
ו	-14.145
ע	-14.145
۞	-14.145
ठ	-14.145
ஐ	-14.145
ా	-14.145
‿	-14.145
▷	-14.145
◇	-14.145
☻	-14.145
❧	-14.145
💜	-14.145
📷	-14.145
😎	-14.145
🥺	-14.145
▶	-14.145
❀	-14.145
・	-14.145
ۗ	-14.145
ۤ	-14.145
ু	-14.145
🏃	-14.145
ˈ	-14.145
ո	-14.145
ɪ	-14.145
ۨ	-14.145
า	-14.3116
̶	-14.3116
ҳ	-14.3116
ক	-14.3116
দ	-14.3116
୭	-14.3116
☝	-14.3116
🏼	-14.3116
ć	-14.3116
ί	-14.3116
ד	-14.3116
ؓ	-14.3116
ؼ	-14.3116
ٜ	-14.3116
ٟ	-14.3116
ọ	-14.3116
⇣	-14.3116
▲	-14.3116
♯	-14.3116
⚘	-14.3116
⚡	-14.3116
✯	-14.3116
😢	-14.3116
🤩	-14.3116
🥇	-14.3116
ō	-14.3116
π	-14.3116
ڞ	-14.3116
ত	-14.3116
ý	-14.3116
Á	-14.3116
ɑ	-14.3116
̇	-14.3116
ٞ	-14.3116
τ	-14.5116
⊙	-14.5116
ə	-14.5116
̅	-14.5116
ц	-14.5116
ώ	-14.5116
ж	-14.5116
э	-14.5116
մ	-14.5116
న	-14.5116
◦	-14.5116
♍	-14.5116
✦	-14.5116
🇮	-14.5116
🌟	-14.5116
🍼	-14.5116
ڋ	-14.5116
๛	-14.5116
⃣	-14.5116
🌚	-14.5116
ã	-14.5116
ú	-14.5116
ē	-14.5116
ł	-14.5116
ż	-14.5116
̵	-14.5116
ן	-14.5116
ؒ	-14.5116
ٙ	-14.5116
ۏ	-14.5116
ެ	-14.5116
झ	-14.5116
്	-14.5116
ị	-14.5116
−	-14.5116
╝	-14.5116
▪	-14.5116
◎	-14.5116
✗	-14.5116
✘	-14.5116
『	-14.5116
』	-14.5116
💖	-14.5116
💚	-14.5116
💪	-14.5116
💯	-14.5116
😱	-14.5116
😻	-14.5116
🦋	-14.5116
ð	-14.5116
¶	-14.5116
ڔ	-14.5116
ಿ	-14.5116
ี	-14.5116
ᬼ	-14.5116
າ	-14.5116
►	-14.7577
的	-14.7616
θ	-14.7616
Ħ	-14.7616
ø	-14.7616
য	-14.7616
ো	-14.7616
ම	-14.7616
ン	-14.7616
✖	-14.7616
📚	-14.7616
ę	-14.7616
ь	-14.7616
չ	-14.7616
ה	-14.7616
ז	-14.7616
ٮ	-14.7616
ۜ	-14.7616
ۣ	-14.7616
۪	-14.7616
খ	-14.7616
়	-14.7616
ં	-14.7616
ం	-14.7616
ม	-14.7616
↯	-14.7616
∀	-14.7616
∫	-14.7616
╫	-14.7616
♂	-14.7616
♬	-14.7616
よ	-14.7616
り	-14.7616
ミ	-14.7616
嘅	-14.7616
語	-14.7616
🌿	-14.7616
👉	-14.7616
😈	-14.7616
😋	-14.7616
😠	-14.7616
😨	-14.7616
😪	-14.7616
😵	-14.7616
🙊	-14.7616
Ã	-14.7616
Ğ	-14.7616
φ	-14.7616
👊	-14.7616
🔞	-14.7616
😒	-14.7616
🤍	-14.7616
🤭	-14.7616
ʊ	-14.7616
ר	-14.7616
ौ	-14.7616
𐄒	-14.7616
🏾	-14.7616
😌	-14.7616
🧸	-14.7616
̐	-14.7616
є	-14.7616
ν	-14.7616
հ	-14.7616
ਾ	-14.7616
ไ	-15.0949
ɛ	-15.0949
ą	-15.0949
ด	-15.0949
🌤	-15.0949
ݛ	-15.0949
可	-15.0949
్	-15.0949
ი	-15.0949
Ṁ	-15.0949
⚫	-15.0949
❦	-15.0949
ݦ	-15.095
👈	-15.095
🔸	-15.095
ò	-15.095
Đ	-15.095
ě	-15.095
Ł	-15.095
ś	-15.095
ƒ	-15.095
̀	-15.095
̯	-15.095
γ	-15.095
υ	-15.095
ό	-15.095
Я	-15.095
Ҳ	-15.095
ח	-15.095
ט	-15.095
ש	-15.095
ڽ	-15.095
ۙ	-15.095
ः	-15.095
ব	-15.095
ি	-15.095
ર	-15.095
ો	-15.095
క	-15.095
ల	-15.095
ి	-15.095
ు	-15.095
ന	-15.095
໑	-15.095
ე	-15.095
ለ	-15.095
ው	-15.095
ᭁ	-15.095
ṣ	-15.095
ṭ	-15.095
ẹ	-15.095
₥	-15.095
₪	-15.095
≧	-15.095
○	-15.095
☂	-15.095
☑	-15.095
☜	-15.095
♚	-15.095
♛	-15.095
✍	-15.095
➢	-15.095
〗	-15.095
う	-15.095
の	-15.095
を	-15.095
ュ	-15.095
發	-15.095
﮼	-15.095
︎	-15.095
🎀	-15.095
👀	-15.095
👤	-15.095
💋	-15.095
💐	-15.095
💛	-15.095
💻	-15.095
😽	-15.095
🤨	-15.095
🦦	-15.095
ħ	-15.095
Ⴢ	-15.095
ᓅ	-15.095
❌	-15.095
🌻	-15.095
ϻ	-15.095
ۼ	-15.095
వ	-15.095
ನ	-15.095
ṇ	-15.095
╚	-15.095
ノ	-15.095
🏿	-15.095
😐	-15.095
̊	-15.095
Х	-15.095
ল	-15.095
ස	-15.095
Ă	-15.095
ੀ	-15.095
ੰ	-15.095
ก	-15.095
ส	-15.5949
ъ	-15.5949
լ	-15.5949
ց	-15.5949
你	-15.5949
Ā	-15.5949
ռ	-15.5949
؋	-15.5949
ট	-15.5949
ద	-15.5949
య	-15.5949
ි	-15.5949
ს	-15.5949
ል	-15.5949
ᓆ	-15.5949
✷	-15.5949
ピ	-15.5949
λ	-15.5949
ݨ	-15.5949
ᄒ	-15.5949
ᓘ	-15.5949
♢	-15.5949
🔒	-15.5949
Α	-15.595
|	-15.595
¥	-15.595
ì	-15.595
Ė	-15.595
Į	-15.595
ť	-15.595
ů	-15.595
ƛ	-15.595
ơ	-15.595
Ʀ	-15.595
ʀ	-15.595
̍	-15.595
Ξ	-15.595
Υ	-15.595
έ	-15.595
Ϟ	-15.595
Ч	-15.595
ю	-15.595
҉	-15.595
ґ	-15.595
ը	-15.595
պ	-15.595
ֆ	-15.595
ך	-15.595
ؾ	-15.595
ڲ	-15.595
ۘ	-15.595
ݖ	-15.595
ݢ	-15.595
ݥ	-15.595
ॡ	-15.595
ঔ	-15.595
ড	-15.595
স	-15.595
ਂ	-15.595
ਧ	-15.595
ਸ	-15.595
ਿ	-15.595
ક	-15.595
ચ	-15.595
ટ	-15.595
ા	-15.595
િ	-15.595
ી	-15.595
ஓ	-15.595
ీ	-15.595
ಈ	-15.595
ೋ	-15.595
ങ	-15.595
ി	-15.595
้	-15.595
࿑	-15.595
დ	-15.595
რ	-15.595
ᄑ	-15.595
ᅲ	-15.595
ሂ	-15.595
ህ	-15.595
ስ	-15.595
ቅ	-15.595
ን	-15.595
ይ	-15.595
ድ	-15.595
ន	-15.595
ᴗ	-15.595
Ẹ	-15.595
Ọ	-15.595
ố	-15.595
ở	-15.595
‛	-15.595
‟	-15.595
₽	-15.595
↩	-15.595
⇡	-15.595
⇦	-15.595
∞	-15.595
≠	-15.595
≦	-15.595
╬	-15.595
▽	-15.595
◈	-15.595
◍	-15.595
◣	-15.595
◩	-15.595
◪	-15.595
☘	-15.595
♉	-15.595
♌	-15.595
♤	-15.595
⚽	-15.595
✈	-15.595
✧	-15.595
✫	-15.595
❕	-15.595
❖	-15.595
❝	-15.595
❞	-15.595
❢	-15.595
⭕	-15.595
い	-15.595
じ	-15.595
ほ	-15.595
コ	-15.595
ー	-15.595
ㄨ	-15.595
発	-15.595
真	-15.595
者	-15.595
나	-15.595
법	-15.595
직	-15.595
𓂅	-15.595
𖣴	-15.595
🇸	-15.595
🌈	-15.595
🌼	-15.595
🎵	-15.595
🐒	-15.595
🐢	-15.595
👆	-15.595
👇	-15.595
👎	-15.595
👑	-15.595
💅	-15.595
💍	-15.595
💓	-15.595
💝	-15.595
💠	-15.595
💮	-15.595
💰	-15.595
🔕	-15.595
🔫	-15.595
🔶	-15.595
🖕	-15.595
😃	-15.595
😏	-15.595
😤	-15.595
😯	-15.595
😿	-15.595
🙄	-15.595
🤎	-15.595
🤐	-15.595
🤤	-15.595
🤧	-15.595
🥀	-15.595
🥰	-15.595
🧐	-15.595
Ù	-15.595
🔱	-15.595
😬	-15.595
У	-15.595
ܓ	-15.595
ๅ	-15.595
🎈	-15.595
😮	-15.595
😳	-15.595
Ú	-15.595
Ǝ	-15.595
ʻ	-15.595
ࡗ	-15.595
ಲ	-15.595
್	-15.595
Ṃ	-15.595
タ	-15.595
🦼	-15.595
ʒ	-15.595
խ	-15.595
ย	-15.595
₩	-15.595
🛫	-15.595
ă	-15.595
Р	-15.595
ਬ	-15.595
ཻ	-15.595
⃫	-15.595
؍	-15.595
🤪	-16.5835
🤓	-16.5836
🚶	-16.5837
😕	-16.5838
🔺	-16.5839
🔹	-16.584
🔴	-16.5841
💡	-16.5842
🐠	-16.5843
🎻	-16.5844
🎧	-16.5845
🌆	-16.5846
🇺	-16.5847
🇶	-16.5848
🇬	-16.5849
🇨	-16.585
ꓘ	-16.5851
我	-16.5852
以	-16.5853
上	-16.5854
パ	-16.5855
ト	-16.5856
〖	-16.5857
❓	-16.5858
✴	-16.5859
✮	-16.586
╦	-16.5861
⇠	-16.5862
↴	-16.5863
ỳ	-16.5864
እ	-16.5865
້	-16.5866
่	-16.5867
ท	-16.5868
ถ	-16.5869
స	-16.587
ఉ	-16.5871
ਰ	-16.5872
আ	-16.5873
ढ	-16.5874
ञ	-16.5875
۬	-16.5876
կ	-16.5877
է	-16.5878
Կ	-16.5879
Ի	-16.588
ө	-16.5881
П	-16.5882
О	-16.5883
Д	-16.5884
δ	-16.5885
̳	-16.5886
̉	-16.5887
õ	-16.5888
É	-16.5889
À	-16.589
🐸	-16.5891
🍀	-16.5892
❗	-16.5893
☼	-16.5894
⌘	-16.5895
↔	-16.5896
ุ	-16.5897
ั	-16.5898
ณ	-16.5899
ฉ	-16.59
ค	-16.5901
්	-16.5902
න	-16.5903
ે	-16.5904
տ	-16.5905
Բ	-16.5906
Т	-16.5907
В	-16.5908
Б	-16.5909
̥	-16.591
ˌ	-16.5911
😦	-16.5912
🕘	-16.5913
💫	-16.5914
👩	-16.5915
👨	-16.5916
🎼	-16.5917
发	-16.5918
〇	-16.5919
◀	-16.592
હ	-16.5921
С	-16.5922
М	-16.5923
̄	-16.5924
🇿	-16.5925
◉	-16.5926
ٝ	-16.5927
ւ	-16.5928
⏪	-16.5929
ܢ	-16.593
「	-16.5931
⠀	-16.5932
➡	-16.5933
♣	-16.5934
☹	-16.5935
▼	-16.5936
๋	-16.5937
ڿ	-16.5938
Å	-16.5939
✓	-16.594
😛	-16.5941
✔	-16.5942
̧	-16.5943
‡	-16.5944
ү	-16.5945
च	-16.5946
ド	-16.5947
シ	-16.5948
↑	-16.5949
何	-16.5949
如	-16.5949
用	-16.5949
ป	-16.5949
พ	-16.5949
ห	-16.5949
ิ	-16.5949
鲁	-16.5949
ŧ	-16.5949
ή	-16.5949
Ћ	-16.5949
վ	-16.5949
ք	-16.5949
於	-16.5949
瑞	-16.5949
示	-16.5949
終	-16.5949
謝	-16.5949
语	-16.5949
顯	-16.5949
Ǿ	-16.5949
̌	-16.5949
Ѧ	-16.5949
చ	-16.5949
ే	-16.5949
ಕ	-16.5949
ฮ	-16.5949
▂	-16.5949
バ	-16.5949
传	-16.5949
多	-16.5949
它	-16.5949
篇	-16.5949
要	-16.5949
🇲	-16.5949
🇵	-16.5949
🌛	-16.5949
👅	-16.5949
Ż	-16.5949
Η	-16.5949
Г	-16.5949
ִ	-16.5949
Ụ	-16.5949
⁀	-16.5949
料	-16.5949
🏣	-16.5949
🗿	-16.5949
🚭	-16.5949
Â	-16.595
È	-16.595
Ð	-16.595
Ó	-16.595
Û	-16.595
ß	-16.595
æ	-16.595
ù	-16.595
Ą	-16.595
ĉ	-16.595
Č	-16.595
Ď	-16.595
đ	-16.595
ė	-16.595
Ę	-16.595
Ģ	-16.595
ī	-16.595
ĵ	-16.595
ĸ	-16.595
ĺ	-16.595
ļ	-16.595
Ň	-16.595
ŋ	-16.595
Ō	-16.595
ŏ	-16.595
Ř	-16.595
ř	-16.595
Ŝ	-16.595
ŝ	-16.595
Ť	-16.595
ŭ	-16.595
ű	-16.595
ź	-16.595
Ɓ	-16.595
Ɠ	-16.595
Ɣ	-16.595
Ɲ	-16.595
Ƴ	-16.595
ƽ	-16.595
ǟ	-16.595
ǰ	-16.595
ȅ	-16.595
Ȋ	-16.595
ș	-16.595
ț	-16.595
ɞ	-16.595
ɣ	-16.595
ɨ	-16.595
ɴ	-16.595
ʃ	-16.595
ʔ	-16.595
ʚ	-16.595
ʞ	-16.595
ˆ	-16.595
˹	-16.595
˼	-16.595
́	-16.595
̋	-16.595
̖	-16.595
̗	-16.595
̠	-16.595
̮	-16.595
̸	-16.595
͛	-16.595
ͦ	-16.595
Ά	-16.595
Έ	-16.595
ΐ	-16.595
Θ	-16.595
Ι	-16.595
Μ	-16.595
Ρ	-16.595
Σ	-16.595
Ψ	-16.595
Ϋ	-16.595
ά	-16.595
κ	-16.595
χ	-16.595
Ј	-16.595
Й	-16.595
К	-16.595
ј	-16.595
Ѣ	-16.595
қ	-16.595
Ұ	-16.595
ҷ	-16.595
ҽ	-16.595
Ӎ	-16.595
բ	-16.595
ձ	-16.595
ղ	-16.595
յ	-16.595
ג	-16.595
ת	-16.595
؎	-16.595
ٯ	-16.595
ڐ	-16.595
ڗ	-16.595
ڟ	-16.595
ۚ	-16.595
ۢ	-16.595
ۺ	-16.595
܀	-16.595
ܒ	-16.595
ܨ	-16.595
ܪ	-16.595
ܵ	-16.595
ݒ	-16.595
ݘ	-16.595
ݧ	-16.595
ހ	-16.595
ވ	-16.595
ߙ	-16.595
࣪	-16.595
ङ	-16.595
़	-16.595
ॉ	-16.595
॒	-16.595
०	-16.595
१	-16.595
८	-16.595
অ	-16.595
ই	-16.595
উ	-16.595
এ	-16.595
ছ	-16.595
জ	-16.595
ধ	-16.595
ৌ	-16.595
ਇ	-16.595
ਈ	-16.595
ਕ	-16.595
ਥ	-16.595
ਮ	-16.595
ਲ	-16.595
ਹ	-16.595
ੇ	-16.595
ੈ	-16.595
ੋ	-16.595
ੱ	-16.595
ખ	-16.595
છ	-16.595
ડ	-16.595
થ	-16.595
ધ	-16.595
પ	-16.595
સ	-16.595
ુ	-16.595
୪	-16.595
ற	-16.595
ఎ	-16.595
డ	-16.595
ధ	-16.595
హ	-16.595
ో	-16.595
ಂ	-16.595
ಡ	-16.595
ಧ	-16.595
ಸ	-16.595
ഉ	-16.595
ത	-16.595
ധ	-16.595
പ	-16.595
ള	-16.595
സ	-16.595
ක	-16.595
ල	-16.595
ෑ	-16.595
บ	-16.595
อ	-16.595
ะ	-16.595
ຂ	-16.595
ທ	-16.595
ນ	-16.595
່	-16.595
༄	-16.595
༅	-16.595
༺	-16.595
࿅	-16.595
ა	-16.595
თ	-16.595
კ	-16.595
მ	-16.595
ნ	-16.595
უ	-16.595
ქ	-16.595
ላ	-16.595
ም	-16.595
ሩ	-16.595
ር	-16.595
ሳ	-16.595
በ	-16.595
ቦ	-16.595
ታ	-16.595
ት	-16.595
ነ	-16.595
ኔ	-16.595
ኝ	-16.595
አ	-16.595
ወ	-16.595
ዎ	-16.595
ዘ	-16.595
ዴ	-16.595
ጋ	-16.595
ጎ	-16.595
ጠ	-16.595
ጣ	-16.595
ጥ	-16.595
ፈ	-16.595
ፍ	-16.595
ᑐ	-16.595
ញ	-16.595
ព	-16.595
ភ	-16.595
េ	-16.595
ំ	-16.595
្	-16.595
᪣	-16.595
᭄	-16.595
ᴀ	-16.595
ᴋ	-16.595
᷂	-16.595
ḑ	-16.595
Ḿ	-16.595
ḿ	-16.595
Ṉ	-16.595
ṛ	-16.595
Ṧ	-16.595
ṩ	-16.595
Ṽ	-16.595
Ạ	-16.595
Ể	-16.595
ệ	-16.595
ụ	-16.595
ỹ	-16.595
Ἄ	-16.595
₦	-16.595
₳	-16.595
₹	-16.595
₼	-16.595
⃕	-16.595
⃟	-16.595
⃢	-16.595
℘	-16.595
↙	-16.595
↜	-16.595
↝	-16.595
↣	-16.595
↤	-16.595
↫	-16.595
↲	-16.595
↷	-16.595
⇐	-16.595
⇜	-16.595
⇢	-16.595
∂	-16.595
∇	-16.595
∟	-16.595
∴	-16.595
≯	-16.595
⏆	-16.595
⏩	-16.595
┇	-16.595
═	-16.595
▃	-16.595
□	-16.595
▫	-16.595
◝	-16.595
◤	-16.595
◥	-16.595
◾	-16.595
☁	-16.595
☃	-16.595
☄	-16.595
☚	-16.595
☛	-16.595
☠	-16.595
☽	-16.595
☿	-16.595
♃	-16.595
♄	-16.595
♈	-16.595
♊	-16.595
♋	-16.595
♎	-16.595
♏	-16.595
♒	-16.595
♓	-16.595
♭	-16.595
⚒	-16.595
⚠	-16.595
⛳	-16.595
⛺	-16.595
✇	-16.595
✜	-16.595
✭	-16.595
✳	-16.595
❒	-16.595
❔	-16.595
❶	-16.595
➓	-16.595
➘	-16.595
➟	-16.595
➥	-16.595
➬	-16.595
⦿	-16.595
⬅	-16.595
⬆	-16.595
⬸	-16.595
⸁	-16.595
⸙	-16.595
〈	-16.595
〉	-16.595
》	-16.595
あ	-16.595
え	-16.595
お	-16.595
か	-16.595
が	-16.595
く	-16.595
さ	-16.595
な	-16.595
へ	-16.595
ょ	-16.595
わ	-16.595
ん	-16.595
イ	-16.595
エ	-16.595
ク	-16.595
サ	-16.595
ス	-16.595
ッ	-16.595
マ	-16.595
ム	-16.595
ヮ	-16.595
一	-16.595
了	-16.595
位	-16.595
刀	-16.595
力	-16.595
午	-16.595
厩	-16.595
古	-16.595
吗	-16.595
场	-16.595
報	-16.595
夢	-16.595
子	-16.595
学	-16.595
少	-16.595
屋	-16.595
年	-16.595
庆	-16.595
彙	-16.595
很	-16.595
情	-16.595
惠	-16.595
感	-16.595
打	-16.595
教	-16.595
斯	-16.595
月	-16.595
机	-16.595
機	-16.595
泊	-16.595
波	-16.595
爱	-16.595
电	-16.595
着	-16.595
科	-16.595
端	-16.595
背	-16.595
节	-16.595
花	-16.595
葬	-16.595
藍	-16.595
蝶	-16.595
詞	-16.595
话	-16.595
谷	-16.595
超	-16.595
辛	-16.595
迪	-16.595
邏	-16.595
钱	-16.595
际	-16.595
隨	-16.595
雨	-16.595
ꓤ	-16.595
ꔫ	-16.595
ꟽ	-16.595
ꦿ	-16.595
ꪝ	-16.595
ꫀ	-16.595
ꫛ	-16.595
각	-16.595
금	-16.595
길	-16.595
는	-16.595
다	-16.595
대	-16.595
래	-16.595
리	-16.595
마	-16.595
만	-16.595
문	-16.595
방	-16.595
서	-16.595
손	-16.595
솔	-16.595
시	-16.595
양	-16.595
얼	-16.595
에	-16.595
연	-16.595
요	-16.595
우	-16.595
정	-16.595
져	-16.595
조	-16.595
좋	-16.595
하	-16.595
할	-16.595
해	-16.595
형	-16.595
화	-16.595
희	-16.595
﮶	-16.595
𐎚	-16.595
𐭣	-16.595
𐭦	-16.595
𐭪	-16.595
𐭬	-16.595
𓆩	-16.595
𖣂	-16.595
𖤈	-16.595
𖤍	-16.595
🅚	-16.595
🅛	-16.595
🅜	-16.595
🅦	-16.595
🇦	-16.595
🇧	-16.595
🇷	-16.595
🇹	-16.595
🌍	-16.595
🌎	-16.595
🌓	-16.595
🌔	-16.595
🌙	-16.595
🌜	-16.595
🌝	-16.595
🌧	-16.595
🌱	-16.595
🌵	-16.595
🌺	-16.595
🍂	-16.595
🍃	-16.595
🍇	-16.595
🍕	-16.595
🍩	-16.595
🍰	-16.595
🍷	-16.595
🍻	-16.595
🍾	-16.595
🍿	-16.595
🎁	-16.595
🎃	-16.595
🎞	-16.595
🎥	-16.595
🎨	-16.595
🎯	-16.595
🎶	-16.595
🏆	-16.595
🏊	-16.595
🏖	-16.595
🏳	-16.595
🏹	-16.595
🏽	-16.595
🐍	-16.595
🐕	-16.595
🐾	-16.595
👃	-16.595
👕	-16.595
👠	-16.595
👢	-16.595
👧	-16.595
👭	-16.595
👰	-16.595
👳	-16.595
👾	-16.595
💀	-16.595
💇	-16.595
💈	-16.595
💒	-16.595
💣	-16.595
💦	-16.595
💷	-16.595
📄	-16.595
📑	-16.595
📥	-16.595
📮	-16.595
📲	-16.595
📿	-16.595
🔆	-16.595
🔈	-16.595
🔐	-16.595
🔗	-16.595
🕊	-16.595
🕌	-16.595
🖼	-16.595
🗯	-16.595
😑	-16.595
😧	-16.595
😩	-16.595
😲	-16.595
😷	-16.595
🙃	-16.595
🙅	-16.595
🙆	-16.595
🙇	-16.595
🙋	-16.595
🙌	-16.595
🚌	-16.595
🚓	-16.595
🚣	-16.595
🚨	-16.595
🚫	-16.595
🚵	-16.595
🚷	-16.595
🛌	-16.595
🛐	-16.595
🛒	-16.595
🛰	-16.595
🟥	-16.595
🤒	-16.595
🤕	-16.595
🤚	-16.595
🤟	-16.595
🤠	-16.595
🤲	-16.595
🤸	-16.595
🤹	-16.595
🦯	-16.595
🦽	-16.595
🧑	-16.595
🧖	-16.595
🧚	-16.595
Ô	-16.595
þ	-16.595
ɕ	-16.595
ڰ	-16.595
ݐ	-16.595
☔	-16.595
职	-16.595
🇱	-16.595
🎅	-16.595
👋	-16.595
👲	-16.595
💃	-16.595
📩	-16.595
📸	-16.595
🧝	-16.595
Ĥ	-16.595
į	-16.595
̩	-16.595
̬	-16.595
А	-16.595
ס	-16.595
צ	-16.595
ۥ	-16.595
घ	-16.595
ঘ	-16.595
শ	-16.595
ఇ	-16.595
ప	-16.595
උ	-16.595
ḭ	-16.595
Ṝ	-16.595
チ	-16.595
ꪆ	-16.595
송	-16.595
지	-16.595
평	-16.595
효	-16.595
🌞	-16.595
🍉	-16.595
🏭	-16.595
📛	-16.595
̝	-16.595
ћ	-16.595
Ҏ	-16.595
Ҩ	-16.595
Պ	-16.595
փ	-16.595
ओ	-16.595
ভ	-16.595
ආ	-16.595
ය	-16.595
ව	-16.595
ශ	-16.595
ෙ	-16.595
之	-16.595
云	-16.595
南	-16.595
国	-16.595
彩	-16.595
纳	-16.595
ਜ	-16.595
ਪ	-16.595
ล	-16.595
เ	-16.595
ກ	-16.595
ຈ	-16.595
ຖ	-16.595
ພ	-16.595
ມ	-16.595
ຢ	-16.595
ະ	-16.595
ົ	-16.595
ເ	-16.595
✞	-16.595
्	-16.5951
ꖾ	-16.5951
𓆪	-16.5951
