<unk>	0
<s>	0
</s>	0
.	-3.3345
▁جي	-3.59139
▁آهي	-4.12423
▁۾	-4.15212
،	-4.20645
▁کي	-4.28105
▁۽	-4.34777
▁جو	-4.54816
ن	-4.66229
▁ته	-4.66274
▁.	-4.67799
ي	-4.78018
▁تي	-4.86852
▁،	-4.94296
▁هڪ	-5.053
:	-5.12602
▁سان	-5.13708
▁کان	-5.16588
▁نه	-5.1881
▁ڪري	-5.25654
▁به	-5.30733
▁هن	-5.31692
▁آهن	-5.38672
▁ان	-5.39918
▁ڪرڻ	-5.43971
▁هو	-5.45068
ه	-5.4669
▁ٿي	-5.47813
▁ٿو	-5.49967
▁اسان	-5.51111
▁"	-5.51788
▁اهو	-5.53981
▁لاءِ	-5.55344
و	-5.63257
▁يا	-5.73918
▁توهان	-5.74183
ا	-5.74852
▁ڪيو	-5.76052
▁مان	-5.84347
▁(	-5.84715
▁	-5.86808
)	-5.87255
▁مون	-5.91969
▁ٿا	-5.96445
▁جا	-5.9916
▁پر	-6.04706
▁ئي	-6.11614
▁پنهنجي	-6.11757
▁لاء	-6.13867
؟	-6.15451
▁ويو	-6.15834
ون	-6.17807
▁و	-6.18224
▁انهن	-6.22124
▁طور	-6.24143
م	-6.26077
س	-6.32602
▁-	-6.32857
!	-6.36344
"	-6.38536
ت	-6.40572
▁هي	-6.44511
▁وڌيڪ	-6.45457
▁وقت	-6.45623
ـ	-6.51953
ل	-6.55461
▁ڇا	-6.56921
▁هر	-6.57457
▁ڪم	-6.61483
▁جنهن	-6.61986
▁استعمال	-6.62134
▁ڪئي	-6.62199
▁آھي	-6.6513
▁هئي	-6.66567
ع	-6.67527
▁اهي	-6.67567
▁تائين	-6.68293
,	-6.68832
▁اي	-6.69206
ين	-6.69886
▁ڪنهن	-6.69989
▁جيڪو	-6.70188
ر	-6.7094
▁ڪو	-6.71668
ءَ	-6.73589
▁ڪريو	-6.75594
▁ڪجهه	-6.7655
▁واري	-6.77359
ك	-6.77714
ان	-6.78425
-	-6.78737
▁اها	-6.79081
▁چيو	-6.80233
▁جڏهن	-6.82469
▁بس	-6.82895
▁سڀ	-6.83255
▁وڃي	-6.83324
▁ڏينهن	-6.83364
▁جيڪي	-6.86241
▁ههههههههه	-6.86733
ز	-6.86787
▁بي	-6.88981
▁پوءِ	-6.91986
▁حاصل	-6.92336
▁ما	-6.93901
▁منهنجي	-6.94509
▁سندس	-6.95603
▁جيڪڏهن	-6.99082
▁ههههههههههه	-6.99423
▁سال	-6.99477
▁پاڻ	-7.00758
▁سي	-7.01476
▁سگهي	-7.02059
▁تمام	-7.02669
▁گڏ	-7.03826
▁من	-7.04765
▁ناهي	-7.05155
▁ههههههه	-7.05612
▁از	-7.05644
▁الله	-7.07703
ها	-7.09941
▁دنيا	-7.10633
▁رهيو	-7.12839
▁ٿيو	-7.13612
▁وئي	-7.16304
ڪ	-7.16356
ة	-7.18342
▁ها	-7.19241
▁ههههههههههههههه	-7.19409
ــ	-7.20976
▁آ	-7.21779
▁تون	-7.22663
▁ويندو	-7.22856
▁پي	-7.23042
▁م	-7.24292
▁وڏي	-7.24706
▁صرف	-7.25257
▁پڻ	-7.25861
▁انهي	-7.26255
▁هههههههههه	-7.2626
▁ماڻهو	-7.27293
▁اچي	-7.27542
▁وٽ	-7.27741
▁ٿيڻ	-7.27802
▁جون	-7.28576
▁در	-7.28774
▁ڪڏهن	-7.28806
▁ويا	-7.2902
ِ	-7.29607
َ	-7.2962
▁ي	-7.30746
▁ضرورت	-7.31301
▁ا	-7.32071
▁مي	-7.32213
د	-7.3235
▁ڪيئن	-7.32729
▁لا	-7.33634
▁هههههههه	-7.33955
▁ڪندو	-7.33961
▁شروع	-7.34573
▁رهي	-7.34744
▁بابت	-7.34778
▁في	-7.34859
▁ڪن	-7.34934
▁سڀني	-7.35433
▁ههههههههههههه	-7.35761
▁ماڻهن	-7.35766
▁اڳ	-7.35845
ش	-7.36015
▁جيئن	-7.36594
جي	-7.36714
▁اين	-7.36763
ڻ	-7.36955
▁جن	-7.37297
▁طرح	-7.38088
▁ڇو	-7.38626
▁ٻئي	-7.38782
s	-7.38897
▁شامل	-7.3926
ب	-7.39726
▁مختلف	-7.41556
▁هئا	-7.42753
▁ڪندا	-7.43218
ج	-7.43328
▁ڪا	-7.43453
▁هههههههههههه	-7.43552
▁پيش	-7.44032
▁عام	-7.44253
▁وارو	-7.44438
▁گهر	-7.45698
يءَ	-7.46706
▁تو	-7.46799
▁ڳالهه	-7.47276
▁رهيا	-7.47926
▁آهيان	-7.48122
▁يعني	-7.48399
▁ههههه	-7.48775
نگ	-7.49529
ـــ	-7.50198
▁ڏانهن	-7.51018
▁گهرجي	-7.51554
▁عمل	-7.51641
▁خاص	-7.52238
▁ڏيڻ	-7.53394
▁س	-7.53778
▁هوندو	-7.54066
▁نظر	-7.54238
▁او	-7.54611
▁ب	-7.55229
▁مدد	-7.55793
▁اڄ	-7.56239
▁جيڪا	-7.56425
▁غير	-7.56612
ري	-7.57552
▁زندگي	-7.57916
ات	-7.57963
▁ٻين	-7.58181
▁موجود	-7.58194
▁آئون	-7.58406
▁مڪمل	-7.59524
▁1	-7.5974
▁هوندي	-7.60154
▁دل	-7.60392
▁ڪندي	-7.60912
ٽ	-7.61234
▁سبب	-7.61321
ائي	-7.61453
▁ٿيل	-7.62169
▁آهيون	-7.62206
▁2	-7.62232
▁نالو	-7.62239
▁اندر	-7.62754
▁نئين	-7.63214
▁ايس	-7.63694
▁ڊي	-7.63893
▁ملڪ	-7.63906
▁خبر	-7.64238
▁ٽي	-7.64776
ئي	-7.64874
▁گهڻو	-7.64969
▁کيس	-7.6576
▁گهٽ	-7.65787
▁پهرين	-7.66866
▁قسم	-7.67036
▁_	-7.67654
▁ختم	-7.68051
▁هتي	-7.68463
▁3	-7.68565
▁'	-7.6915
▁شي	-7.69294
▁پنهنجو	-7.69346
▁بعد	-7.69486
▁سگهو	-7.69893
▁آھن	-7.69925
▁ت	-7.70156
▁ڪتاب	-7.70259
▁هاڻي	-7.70455
▁وري	-7.70695
▁آن	-7.70814
▁!	-7.70844
▁ٿيندو	-7.7148
▁هههههههههههههه	-7.71483
▁ايم	-7.71592
▁تنهن	-7.716
▁هههههه	-7.72003
▁ڇڏيو	-7.72288
▁/	-7.72456
▁جواب	-7.73286
▁شايد	-7.73314
▁اهڙي	-7.73935
تي	-7.73937
▁ع	-7.73943
▁ٿئي	-7.73948
▁ڏئي	-7.74293
▁انا	-7.74428
▁سالن	-7.74814
▁اهم	-7.75325
▁وچ	-7.76244
▁وڏو	-7.76386
▁پيدا	-7.76398
▁سو	-7.76565
▁پيو	-7.77134
▁ياد	-7.78153
▁آئي	-7.78649
ى	-7.78694
▁ال	-7.79354
▁ڏنو	-7.79667
'	-7.79764
نا	-7.79784
▁ڪندڙ	-7.80041
لي	-7.80288
▁تاريخ	-7.80439
▁آيو	-7.8097
▁بهترين	-7.81088
؛	-7.81124
▁؟	-7.81165
▁وي	-7.81352
ُ	-7.81873
▁شهر	-7.82467
▁مطلب	-7.82597
▁ٻه	-7.82741
▁وٺي	-7.82857
▁هجي	-7.83142
▁منهنجو	-7.83756
▁5	-7.84268
▁پئي	-7.85112
▁فون	-7.85122
▁ويب	-7.85424
يو	-7.85692
▁بند	-7.86049
▁ڇڏي	-7.86192
▁عليه	-7.86199
▁ٻيو	-7.86422
▁وانگر	-7.86538
▁حل	-7.86671
▁سنڌ	-7.86784
▁پوء	-7.86791
▁ذريعي	-7.87689
ف	-7.88425
ی	-7.88643
▁اوهان	-7.88681
▁ڪيا	-7.89157
▁ن	-7.89278
▁رات	-7.89971
▁انسان	-7.90049
▁ڪوشش	-7.90431
ني	-7.90674
▁توھان	-7.91131
هه	-7.91445
▁ڪيل	-7.91906
▁صحيح	-7.92046
▁ڏسي	-7.92283
▁خيال	-7.94962
▁سر	-7.95208
ال	-7.95417
▁ڪر	-7.9567
▁قيمت	-7.95923
▁اڃا	-7.96181
▁ڪي	-7.96346
▁10	-7.96454
▁اوھان	-7.96527
▁ادا	-7.97389
ار	-7.97405
يا	-7.9749
▁جاري	-7.97756
▁دوران	-7.97806
▁ملي	-7.98118
پ	-7.98265
▁ترقي	-7.98295
▁سوال	-7.98448
▁ويندي	-7.98522
آ	-7.98924
▁اتي	-7.99087
▁والله	-7.99273
▁هٿ	-7.99321
▁خدا	-7.99467
▁طرف	-7.99534
▁سائيٽ	-7.99743
▁بر	-7.99961
يل	-7.99988
▁4	-8.00077
▁اصل	-8.00278
▁ائين	-8.00366
▁ڪيترن	-8.00606
▁ضروري	-8.01165
يون	-8.01276
▁ظاهر	-8.01749
▁آهيو	-8.02173
▁مواد	-8.02381
▁حصو	-8.02642
▁بهتر	-8.02798
كم	-8.02871
▁حق	-8.03396
▁جتي	-8.03749
▁آسان	-8.03951
▁ڪمپني	-8.04568
▁سندن	-8.04854
وا	-8.05148
▁پاڪستان	-8.05195
▁حقيقت	-8.05361
▁رکي	-8.05438
▁صاحب	-8.05621
▁سفر	-8.05754
▁لڳي	-8.06174
ندي	-8.06699
▁ڏي	-8.06867
ح	-8.06896
▁محسوس	-8.07159
هم	-8.07431
▁پهريون	-8.07704
▁لي	-8.08094
▁عمر	-8.08396
▁ٻي	-8.08646
▁ڏسڻ	-8.08748
▁هوندا	-8.09584
▁دور	-8.09699
▁بيان	-8.09993
▁هنن	-8.1023
▁مو	-8.10257
▁ڪ	-8.10433
▁اسين	-8.10442
▁هيٺ	-8.10796
▁مٿي	-8.1093
بي	-8.10997
يه	-8.11251
▁خلاف	-8.11289
▁معيار	-8.11325
▁على	-8.11411
▁آمريڪا	-8.11641
▁رد	-8.11923
▁اھو	-8.12203
▁است	-8.12444
▁دوست	-8.12476
▁صورت	-8.12602
▁پيار	-8.12972
▁حڪومت	-8.13206
▁پ	-8.13233
▁طرفان	-8.13411
▁ولا	-8.13463
ڊ	-8.1388
ــــ	-8.14239
▁وارا	-8.14322
▁رکڻ	-8.1436
؟"	-8.144
▁رڳو	-8.14602
▁ٻن	-8.14726
▁سگهجي	-8.15114
▁ل	-8.15285
▁ٻاهر	-8.15349
▁ھن	-8.15512
▁مثال	-8.16321
▁ٿيون	-8.16349
ندو	-8.16842
▁ج	-8.17093
▁تنهنجي	-8.17098
▁پسند	-8.1726
▁مشهور	-8.17449
▁واپس	-8.17683
▁تبديل	-8.18339
▁پيداوار	-8.18368
▁پاڻي	-8.18549
ههههههههه	-8.18676
رو	-8.18697
▁تيار	-8.18893
ہ	-8.19557
▁لائن	-8.20133
▁ڏني	-8.20141
▁ڊيٽا	-8.20504
▁تان	-8.20688
▁هوءَ	-8.20697
▁ٻار	-8.20898
▁يو	-8.20992
ء	-8.21172
▁اثر	-8.21308
▁آخر	-8.21401
ک	-8.21411
▁ڇاڪاڻ	-8.2229
▁نظام	-8.2229
▁چوڻ	-8.22559
سي	-8.22585
▁هم	-8.22916
▁ايران	-8.23032
▁چين	-8.23204
▁علي	-8.23229
▁قابل	-8.23515
▁ڪيترائي	-8.23818
▁رنگ	-8.24191
▁عورت	-8.24324
▁خوش	-8.24358
▁با	-8.24669
▁ڏيو	-8.24684
▁داخل	-8.2509
▁ٻنهي	-8.25431
▁انهيءَ	-8.25503
▁هميشه	-8.25618
ق	-8.25757
ور	-8.26384
▁اجازت	-8.2672
▁قانون	-8.27199
▁*	-8.28582
▁ٿيندي	-8.28946
▁هذا	-8.28998
▁آيا	-8.29029
▁مونکي	-8.29347
▁ڏٺو	-8.29488
▁ھو	-8.30024
▁ام	-8.30153
▁نٿو	-8.30303
▁بنيادي	-8.30318
▁لو	-8.30367
▁سٺو	-8.30417
▁بين	-8.30421
▁باري	-8.3105
▁ڪونه	-8.31161
ھ	-8.31365
▁وڃڻ	-8.31407
▁آر	-8.32214
▁رو	-8.32307
▁جيتوڻيڪ	-8.32438
▁اول	-8.32583
دي	-8.32659
▁محفوظ	-8.32778
▁توکي	-8.32833
يت	-8.33185
▁جنگ	-8.33389
▁قائم	-8.33665
▁6	-8.33883
▁شو	-8.34865
ندا	-8.35368
▁ڪير	-8.35492
▁را	-8.35845
▁واقعي	-8.36206
▁اميد	-8.36303
▁معلومات	-8.36322
▁ڪجھ	-8.36396
▁کڻي	-8.37036
▁سا	-8.37066
▁سخت	-8.37094
▁نئون	-8.37177
هن	-8.37269
چ	-8.37277
▁سگھي	-8.37312
▁زمين	-8.37713
▁ه	-8.37737
▁لفظ	-8.37852
▁شيء	-8.38348
▁خريد	-8.38647
▁هجڻ	-8.38862
▁گھر	-8.39149
/	-8.39189
▁آواز	-8.39273
▁محبت	-8.39368
▁مقصد	-8.39809
▁,	-8.40343
لا	-8.40345
▁شين	-8.40463
▁فراهم	-8.40478
▁مطابق	-8.40481
▁پنھنجي	-8.4049
▁تعليم	-8.40706
▁حد	-8.4081
▁وارن	-8.40838
▁8	-8.41014
▁آخري	-8.41023
▁اڪثر	-8.41103
▁تن	-8.41123
▁چي	-8.41248
▁ھڪ	-8.41321
هههههههه	-8.41385
▁هيو	-8.41538
▁نالي	-8.41692
گ	-8.4173
▁کانپوءِ	-8.42376
▁چڪو	-8.43343
ڙي	-8.43376
▁سيڪڙو	-8.43396
▁منهن	-8.4374
▁20	-8.43775
▁7	-8.43783
▁اسلامي	-8.43888
▁هههه	-8.43902
▁آزاد	-8.44184
▁مفت	-8.45302
ڪي	-8.45339
▁ٻارن	-8.45361
▁ف	-8.45381
ام	-8.45437
▁ويندا	-8.45446
▁مارڪيٽ	-8.4545
▁A	-8.4584
▁ٻڌايو	-8.45907
▁موضوع	-8.45928
▁ٻيهر	-8.46012
▁ڪار	-8.46187
▁چه	-8.46327
▁سڄي	-8.46452
يم	-8.46828
▁مش	-8.46945
▁ابو	-8.4696
▁که	-8.47003
▁فقط	-8.47017
▁اچڻ	-8.47515
▁جسم	-8.47836
اڻي	-8.47951
ڙ	-8.4816
▁ڪهڙي	-8.483
▁سگهن	-8.4849
را	-8.48655
▁فيصلو	-8.48845
▁اختيار	-8.49112
ههههههه	-8.49229
▁بار	-8.49259
▁<	-8.49471
اري	-8.4958
▁ھي	-8.49589
▁بنياد	-8.49628
▁شادي	-8.49716
▁پاران	-8.49751
▁انداز	-8.49834
▁باقي	-8.49852
▁طريقي	-8.49874
▁S	-8.50012
▁مناسب	-8.50417
▁ڪافي	-8.50577
▁كل	-8.50598
▁سياسي	-8.5085
ندڙ	-8.50926
▁پيا	-8.51087
▁درخواست	-8.51326
▁غلط	-8.51379
▁قدم	-8.52166
▁فارم	-8.52379
▁اڳتي	-8.52392
▁اپ	-8.52404
▁پٽ	-8.5248
ٽي	-8.52517
جو	-8.52649
▁ورتو	-8.52684
▁ور	-8.52857
▁نن	-8.52921
▁تحقيق	-8.53156
▁بال	-8.53376
▁پروگرام	-8.53647
▁سطح	-8.53909
▁عالمي	-8.54151
ول	-8.54532
▁اسڪول	-8.54544
▁اس	-8.54766
ته	-8.54949
y	-8.55206
▁ايندڙ	-8.5548
▁ميڊيا	-8.55617
▁سائين	-8.55618
▁شيون	-8.55624
يد	-8.55675
▁ممڪن	-8.55899
▁18	-8.55922
▁آف	-8.56165
▁ڏسو	-8.56276
▁خود	-8.56348
▁شخص	-8.56603
اي	-8.56656
هههههههههه	-8.56774
▁ايل	-8.56806
D	-8.56953
مي	-8.57016
▁ملڪن	-8.57033
▁ميل	-8.57302
▁ڪاروبار	-8.57506
▁واحد	-8.5783
▁ضرور	-8.57861
▁چاهيو	-8.57925
▁[	-8.58012
▁پري	-8.58262
▁ڪٿي	-8.58268
▁آمريڪي	-8.5835
▁چار	-8.58453
▁گهڻي	-8.58531
▁ذاتي	-8.58984
▁شروعات	-8.59217
▁ترتيب	-8.59239
▁السلام	-8.59306
2	-8.59346
▁خراب	-8.59703
▁ٿيا	-8.59916
▁ڄڻ	-8.59928
▁مهرباني	-8.60504
]	-8.60518
ما	-8.60614
▁ٽيڪنالاجي	-8.60849
▁15	-8.60865
▁مرد	-8.60954
ند	-8.60961
▁اعلان	-8.61241
▁ص	-8.61297
▁نقصان	-8.61435
▁راند	-8.61571
هي	-8.61712
▁حالت	-8.61747
بو	-8.61982
ڪس	-8.61983
▁آءٌ	-8.62254
▁صدر	-8.62682
▁مس	-8.62774
▁نمبر	-8.62831
▁مسئلو	-8.62922
▁سسٽم	-8.62954
▁بڻجي	-8.63028
خ	-8.63043
ص	-8.63727
▁جدا	-8.64009
اء	-8.64049
▁انھن	-8.64096
▁ق	-8.64416
▁دي	-8.64684
▁تڏهن	-8.64842
▁دير	-8.64862
▁سٺي	-8.64968
▁الم	-8.64988
▁حقيقي	-8.6532
پر	-8.6575
▁چئي	-8.65998
تا	-8.66012
اس	-8.66099
▁ش	-8.66292
▁ڏنل	-8.66342
▁تصوير	-8.6663
▁علم	-8.66656
تك	-8.66798
▁گوگل	-8.66818
▁ڪيس	-8.67071
ههههههههههه	-8.67158
▁مع	-8.6732
▁د	-8.67419
▁ڊاڪٽر	-8.67616
▁خدمت	-8.67759
▁حڪم	-8.67773
ing	-8.6791
▁طريقو	-8.67927
▁تا	-8.68032
▁ح	-8.68254
▁وڃن	-8.6836
▁جان	-8.68401
er	-8.68425
▁عورتن	-8.68633
▁سامان	-8.68835
▁اسلام	-8.68845
▁ڪجي	-8.68866
▁طاقت	-8.69028
▁اڪائونٽ	-8.69029
ئ	-8.69085
▁لڳو	-8.69122
ـــــ	-8.69293
▁موت	-8.69297
▁پس	-8.69562
▁اعلي	-8.69572
▁ڪردار	-8.69577
▁خوبصورت	-8.69588
لو	-8.69592
▁>	-8.69608
▁ٺاهڻ	-8.6969
ڙو	-8.69709
▁پوري	-8.69931
▁انساني	-8.69988
▁جديد	-8.70049
▁چ	-8.70057
▁ماءُ	-8.70117
▁آه	-8.7022
▁مقرر	-8.70332
▁وڌي	-8.70559
▁سچ	-8.70771
▁اصلي	-8.71046
▁پورو	-8.71397
▁واضح	-8.71419
▁انت	-8.71546
▁سماجي	-8.7165
▁وٺڻ	-8.7182
▁9	-8.71929
▁لوڊ	-8.71947
▁أ	-8.71972
1	-8.72313
▁پوليس	-8.7239
ٽر	-8.72502
ڪو	-8.72601
t	-8.72849
مان	-8.72906
اڻ	-8.7298
ايو	-8.73069
وي	-8.73374
▁وا	-8.73466
٪	-8.73468
▁حضرت	-8.73782
▁علاج	-8.73912
ط	-8.73988
بر	-8.74006
کي	-8.74026
▁گذريل	-8.74076
▁پوندو	-8.74145
▁قوم	-8.74195
▁قبول	-8.74405
▁صارف	-8.74678
▁بن	-8.74722
▁start	-8.74795
▁اُن	-8.74913
▁لکڻ	-8.74946
▁صحت	-8.75059
▁يقين	-8.75062
▁ڀيرو	-8.75332
▁نوجوان	-8.75359
ئن	-8.75385
▁خط	-8.75418
▁بلڪل	-8.75515
▁قومي	-8.75533
▁نٿا	-8.75626
▁C	-8.75666
▁ک	-8.7573
▁30	-8.75885
نه	-8.75945
▁اکين	-8.76003
مون	-8.76017
▁صاف	-8.76124
▁dur	-8.76152
▁گراهڪن	-8.76172
▁تيز	-8.76238
▁حوالي	-8.76256
▁هاي	-8.76343
▁رپورٽ	-8.76362
▁موجب	-8.76621
▁مال	-8.76648
▁احساس	-8.76664
▁فلم	-8.76672
▁ڪوبه	-8.76788
▁ايه	-8.76796
▁عوام	-8.77058
▁ٻيا	-8.77308
▁مضمون	-8.77355
▁پاسي	-8.77625
▁جلد	-8.77887
ض	-8.78153
▁رهڻ	-8.7851
g	-8.78621
▁پير	-8.78651
اب	-8.78663
▁مضبوط	-8.78688
▁پڙهڻ	-8.78697
▁موجوده	-8.78769
▁ھڪڙو	-8.78788
▁رقم	-8.78961
▁متاثر	-8.78997
▁انتظار	-8.79078
▁هاڻ	-8.79083
▁رياست	-8.79358
▁ڏيندو	-8.79378
▁روح	-8.79492
▁عظيم	-8.79554
▁12	-8.79588
▁تعداد	-8.7994
ed	-8.80178
▁له	-8.80325
▁نموني	-8.80335
▁P	-8.80378
▁تعلق	-8.80755
▁گڏيل	-8.80954
o	-8.80972
▁پڪ	-8.80993
اني	-8.81027
▁خ	-8.81091
▁اهڙو	-8.81134
▁لازمي	-8.8133
▁صبح	-8.81391
▁•	-8.81468
▁شرح	-8.81638
▁عملي	-8.81683
دار	-8.81818
▁ايف	-8.82014
▁روز	-8.82071
▁مهيا	-8.8213
▁بت	-8.82217
▁ذهن	-8.824
▁سواءِ	-8.82969
▁ڪيون	-8.83017
▁ر	-8.83142
▁ڌيان	-8.83153
▁رکيو	-8.83192
▁ٽن	-8.83252
d	-8.83344
▁خان	-8.83474
▁سمجهي	-8.83491
▁يورپ	-8.83494
▁تعمير	-8.83565
▁ٽيم	-8.83779
▁پل	-8.84348
▁وار	-8.846
▁زندگيءَ	-8.84722
."	-8.84743
▁محمد	-8.84803
▁اڻ	-8.85242
▁ڳوٺ	-8.8529
▁ڄاڻ	-8.85317
▁ڪهڙو	-8.8537
▁پهچي	-8.85405
▁فرق	-8.85536
▁خرچ	-8.85576
▁پنهنجن	-8.85711
ث	-8.85724
▁ِ	-8.85842
3	-8.85863
▁هيون	-8.86029
تو	-8.86127
▁ذڪر	-8.86207
▁سن	-8.86445
جن	-8.86902
▁وڊيو	-8.86959
▁ڪنٽرول	-8.86969
غ	-8.8709
▁مٿان	-8.87117
4	-8.87148
▁هنڌ	-8.87287
ٿ	-8.87303
▁نا	-8.8758
e	-8.87652
▁تہ	-8.87655
▁بل	-8.87684
▁حال	-8.8771
▁ٺاهي	-8.87725
▁وش	-8.8774
▁اوزار	-8.88061
▁ڪريان	-8.88087
ائڻ	-8.88595
▁مليو	-8.88965
c	-8.89028
▁حفاظت	-8.8903
▁صنعت	-8.89042
بل	-8.89051
گي	-8.89092
▁علاوه	-8.89348
▁الي	-8.89375
▁وين	-8.89384
▁سگهون	-8.89528
▁هلي	-8.89909
▁وڌ	-8.89973
).	-8.90183
▁11	-8.90275
p	-8.90348
دا	-8.9042
▁تصديق	-8.9048
▁جنھن	-8.90506
▁هزار	-8.90549
▁علائقي	-8.90741
▁شيءِ	-8.91071
ست	-8.91165
▁لك	-8.91187
اد	-8.91283
ائن	-8.9132
▁ڪارڪردگي	-8.91446
▁جمع	-8.91457
ِي	-8.91882
▁وڪرو	-8.91909
▁جلدي	-8.91956
▁هفتي	-8.92239
▁رفتار	-8.92453
▁ڪلڪ	-8.92472
▁ز	-8.925
▁حيثيت	-8.9287
▁يه	-8.92982
▁هيءَ	-8.92989
▁سرڪاري	-8.93124
سٽ	-8.9313
▁رسائي	-8.93182
▁پهريان	-8.93241
▁B	-8.9325
▁ڊالر	-8.9333
▁وزير	-8.93381
ے	-8.93389
▁وس	-8.93462
▁ٺهيل	-8.938
▁100	-8.93841
▁جيڪڏھن	-8.93867
▁تنهنڪري	-8.93873
▁سنڌي	-8.94107
▁مشين	-8.94113
▁ڪارڊ	-8.94257
به	-8.94444
A	-8.94549
▁بڻائي	-8.9459
▁وجود	-8.94683
شن	-8.94802
▁سروس	-8.94817
▁زور	-8.94969
▁تجربو	-8.9497
▁ايڪس	-8.95001
تون	-8.95169
▁رستو	-8.95318
▁سج	-8.95503
▁گ	-8.95842
▁ھڪڙي	-8.95926
▁؛	-8.96027
▁قدر	-8.96079
▁ٻولي	-8.96086
▁ڪئين	-8.96144
▁پوسٽ	-8.96718
▁تر	-8.97336
▁ايندو	-8.97429
▁مالي	-8.97614
تر	-8.9767
▁19	-8.97736
▁ٻڌي	-8.97904
▁پاڪ	-8.98068
▁قتل	-8.9824
▁لاڳو	-8.98314
▁ڊائون	-8.98344
▁وضاحت	-8.98474
▁نسل	-8.9854
▁ڪل	-8.98756
▁آرام	-8.98806
▁يونيورسٽي	-8.99
▁دو	-8.99003
▁ماحول	-8.99153
▁جاءِ	-8.99259
▁ڏاڍو	-8.99294
▁ڳولي	-8.99314
▁لک	-8.99318
ــــــ	-8.99388
▁M	-8.99441
▁حسين	-8.99463
اتي	-8.99542
وري	-8.99625
▁مري	-8.99699
من	-8.99734
▁بينڪ	-8.99748
▁پڇيو	-8.99776
▁نمي	-8.99906
▁ههه	-8.99933
▁چون	-8.99989
C	-9.00379
▁ڪونهي	-9.00442
ير	-9.00535
پي	-9.00603
▁آءِ	-9.00612
يڪ	-9.007
▁انٽرنيٽ	-9.00707
▁ـ	-9.00729
▁پارٽي	-9.00776
▁مستقبل	-9.00809
هاي	-9.00874
">	-9.0098
▁ڳالهيون	-9.00995
▁ڏا	-9.01218
ــــــــ	-9.01377
▁هڪڙي	-9.01383
▁ٿيندا	-9.01387
▁لکيو	-9.01424
▁ڪرڻو	-9.01584
▁آباد	-9.01724
▁ويئي	-9.01753
▁خير	-9.01797
▁ايئر	-9.02091
▁ماڊل	-9.02174
▁ريت	-9.02218
▁چند	-9.02229
al	-9.02544
▁بحث	-9.02678
▁وزن	-9.03146
▁اسڪرين	-9.03164
▁خواب	-9.03237
رن	-9.03464
▁معلوم	-9.03568
▁G	-9.03714
ڪا	-9.03793
▁ڊگهي	-9.03917
▁دفعو	-9.03968
شي	-9.0422
_	-9.04243
▁تصور	-9.0444
▁اڳيان	-9.04467
▁رهندو	-9.04773
▁پليٽ	-9.04836
▁ٿيندڙ	-9.04867
ٺ	-9.04906
▁نور	-9.04922
▁سگهيو	-9.04959
▁شكرا	-9.05008
▁يقيني	-9.05032
▁ري	-9.05161
▁برابر	-9.05171
▁ثابت	-9.05261
P	-9.05418
▁ساڳي	-9.05423
▁موبائل	-9.05468
r	-9.05543
▁الا	-9.056
▁امام	-9.05627
▁ايپليڪيشن	-9.05631
▁آفيس	-9.05659
▁لکي	-9.05674
n	-9.05702
▁F	-9.05725
▁رب	-9.05729
▁14	-9.05749
▁دعا	-9.05805
▁تنهنجو	-9.05809
ره	-9.0584
▁ڪمپيوٽر	-9.05947
با	-9.06015
▁روشني	-9.0618
▁ادب	-9.06198
▁گل	-9.06246
ءِ	-9.06374
B	-9.0639
▁پيغام	-9.06675
▁تبديلي	-9.06725
ههههه	-9.06793
▁ڪاميابي	-9.06847
▁ايترو	-9.06911
▁اھي	-9.07116
▁درد	-9.07154
▁ٿورو	-9.07184
سين	-9.07232
▁گرم	-9.07248
▁زال	-9.07361
▁سگهان	-9.07416
▁T	-9.07427
▁پنج	-9.07488
▁$	-9.0749
in	-9.07515
▁وال	-9.07576
▁انتي	-9.07717
▁الاقوامي	-9.0783
▁بهرحال	-9.07831
▁پوي	-9.07847
سر	-9.07868
▁ڪامياب	-9.07996
G	-9.08005
▁اللي	-9.08038
▁صورتحال	-9.0815
▁صلاح	-9.08315
▁عدالت	-9.08316
ـــــــ	-9.08429
▁آزادي	-9.08476
▁پيءُ	-9.08503
▁سيٽ	-9.08553
▁گروپ	-9.08582
▁خاندان	-9.08675
▁گھٽ	-9.08824
▁ڪريون	-9.08835
دو	-9.08895
▁نو	-9.08999
S	-9.09193
▁ڪندڙن	-9.09244
ائين	-9.09351
▁مين	-9.0941
▁ميدان	-9.09461
▁نوٽ	-9.09496
▁مقابلي	-9.09526
▁موسم	-9.09539
▁قانوني	-9.09543
▁چونڊيو	-9.0955
▁گرمي	-9.09609
▁سوچ	-9.0977
▁منهنجا	-9.09891
▁13	-9.09991
▁جيستائين	-9.10141
▁شام	-9.1017
▁چڪا	-9.10242
▁اهڙا	-9.1026
▁حتى	-9.10263
▁اگر	-9.10397
ئين	-9.10466
هههههه	-9.10543
▁صدي	-9.10568
▁ٻڌائي	-9.10606
▁تفصيل	-9.10653
وس	-9.10681
▁زبان	-9.10725
▁عرصي	-9.10789
▁چونڊ	-9.10928
▁ڪهاڻي	-9.11024
▁ايپ	-9.11181
▁=	-9.1133
▁چاهي	-9.11433
ّ	-9.11517
▁حصي	-9.11556
▁بخش	-9.11793
▁هيچ	-9.11893
▁17	-9.12038
i	-9.12048
▁to	-9.12125
▁حالتن	-9.12133
▁اڌ	-9.12181
T	-9.12252
▁هڪڙو	-9.12305
>	-9.12371
▁نڪري	-9.1296
▁عرب	-9.1306
▁شاء	-9.13081
▁مت	-9.13195
▁سمنڊ	-9.133
▁کولڻ	-9.13413
▁دوستن	-9.13449
▁ڳولا	-9.13492
▁ايپل	-9.13714
▁شڪل	-9.13756
▁سوچيو	-9.13805
▁ڏس	-9.13849
ar	-9.13874
▁ملڻ	-9.1394
▁بورڊ	-9.14029
▁16	-9.14066
▁اضافي	-9.14111
▁1.	-9.14192
▁جهاز	-9.14237
▁ڪوڊ	-9.14293
وم	-9.14298
a	-9.14353
▁مارڪيٽنگ	-9.14397
ده	-9.14406
▁شاعر	-9.1443
?	-9.14441
▁شڪار	-9.14441
۔	-9.1448
▁مخصوص	-9.14859
▁ڌار	-9.14946
▁شاگردن	-9.14947
▁جهڙوڪ	-9.15022
الي	-9.15045
▁باوجود	-9.15061
▁لفظن	-9.15086
▁جڳهه	-9.15095
▁صلاحيت	-9.15167
▁هوس	-9.15168
▁نيوز	-9.15202
▁ولي	-9.15221
ؤ	-9.15254
▁پيام	-9.15347
في	-9.15371
▁ون	-9.15483
▁پو	-9.15633
▁مالڪ	-9.15678
▁زماني	-9.15825
▁چوي	-9.1592
▁پڙهي	-9.16026
▁منتقل	-9.16129
▁صح	-9.16236
▁فهرست	-9.163
▁ويجهو	-9.163
ڪر	-9.16511
▁رت	-9.16593
▁ترين	-9.16617
▁مختصر	-9.16663
▁پنهنجا	-9.16664
▁E	-9.16696
▁سگھن	-9.16854
▁فائدو	-9.17097
▁پار	-9.17108
▁ڪلاڪ	-9.17138
6	-9.17393
▁0	-9.17514
▁ڪراچي	-9.17676
هو	-9.17738
▁لاڳاپيل	-9.17787
▁ڪنداسين	-9.17869
▁ڏين	-9.17907
▁وڌائڻ	-9.17917
▁علائقن	-9.18014
▁انگريزي	-9.1818
▁استاد	-9.18265
▁ڏيکاري	-9.18345
▁قبل	-9.18368
▁25	-9.18635
▁خوشي	-9.18695
▁لائين	-9.18728
▁ساڻ	-9.18741
▁چاهيندا	-9.18894
▁شاندار	-9.18946
▁ات	-9.18957
▁حياتي	-9.19017
▁50	-9.19555
ٍ	-9.19605
▁ملين	-9.19853
▁گم	-9.19855
▁منظر	-9.19901
▁امير	-9.19959
▁ار	-9.19998
▁رکو	-9.20087
▁راندين	-9.20118
ڙا	-9.20191
▁يار	-9.20239
▁حساب	-9.20245
▁گذري	-9.20455
▁ك	-9.20505
▁ملاقات	-9.20609
▁ڪاروباري	-9.20623
▁پريشان	-9.20629
▁2020	-9.20729
▁مهينن	-9.20821
انه	-9.20832
▁ڌرتي	-9.20884
▁نيٽ	-9.20946
▁انتهائي	-9.21075
▁ايندي	-9.21243
▁آپريشن	-9.21296
گو	-9.21465
es	-9.21738
ئر	-9.21741
▁وغيره	-9.21824
▁مُ	-9.21834
ـــــــــ	-9.21845
5	-9.21878
▁کن	-9.22015
▁اعتماد	-9.22016
▁رستي	-9.22045
▁ويئر	-9.22133
▁ننڊ	-9.22162
▁وڃ	-9.22215
▁بابا	-9.22315
▁غور	-9.22407
▁کانسواءِ	-9.2287
▁نٿي	-9.22907
▁#	-9.22916
▁ڪاري	-9.22942
▁هئڻ	-9.22988
▁توانائي	-9.23008
▁اکيون	-9.23009
▁سامهون	-9.231
▁وڏا	-9.23126
▁وڃو	-9.23145
▁لکيل	-9.23189
m	-9.23232
or	-9.23234
▁سوشل	-9.23322
▁زين	-9.23344
اءِ	-9.23351
▁جڏھن	-9.23352
▁غلطي	-9.23401
جا	-9.23414
▁ڏاڍي	-9.2346
▁بيشڪ	-9.23491
▁اهميت	-9.23574
▁سڀئي	-9.23626
▁برقرار	-9.23706
▁چيزي	-9.24092
M	-9.24259
▁اصول	-9.2426
سن	-9.24298
u	-9.24505
▁واپار	-9.24517
▁ويون	-9.2453
L	-9.24576
▁مقامي	-9.24635
▁مسافر	-9.24645
▁مگر	-9.24752
▁دلچسپ	-9.24766
ود	-9.24836
▁2019	-9.24839
▁نوڪري	-9.24851
▁ڪين	-9.24876
▁بغير	-9.24953
▁مل	-9.24969
▁جئين	-9.24991
▁موقعو	-9.2509
।	-9.25181
▁مڙس	-9.25182
▁دوا	-9.25307
▁D	-9.2551
▁ڪيائين	-9.25518
▁تنظيم	-9.25518
▁حيرت	-9.25556
له	-9.25645
ذ	-9.25662
▁ٺاهيو	-9.25768
▁ڪرائي	-9.25801
▁نتيجي	-9.25803
قي	-9.25948
▁آڻڻ	-9.26069
▁مسلسل	-9.26302
▁دلچسپي	-9.26347
▁اسٽور	-9.265
▁بلاگ	-9.26507
text	-9.26679
جه	-9.26694
▁سميت	-9.26743
▁ٺيڪ	-9.26836
▁انتظام	-9.26868
▁سلام	-9.26928
▁بڻائڻ	-9.26934
▁آرٽيڪل	-9.26935
▁اعليٰ	-9.26937
▁صارفين	-9.27027
▁تقريبن	-9.27035
▁محدود	-9.27059
زي	-9.27223
▁پوئتي	-9.27334
▁ده	-9.27404
▁وڻ	-9.2742
▁اچو	-9.27456
▁ڊ	-9.27521
▁ننڍي	-9.27608
▁ڳالهائڻ	-9.277
▁s	-9.27846
▁پاس	-9.27868
▁قديم	-9.27888
▁بنا	-9.27928
▁ورڪ	-9.28039
▁لحاظ	-9.28084
ْ	-9.28125
▁الف	-9.28135
▁سمجهيو	-9.28167
▁نشان	-9.2821
▁سم	-9.28215
▁يوم	-9.28223
▁دماغ	-9.2841
▁زمان	-9.28625
▁بجلي	-9.28706
▁ايڇ	-9.28794
▁ساڳيو	-9.28823
▁غريب	-9.28934
▁عن	-9.29143
▁امتحان	-9.29225
7	-9.29229
▁اجلاس	-9.29231
▁شايع	-9.29239
▁هال	-9.2925
▁مسئلن	-9.29308
▁چاهيان	-9.29365
▁شڪ	-9.29416
▁ايتري	-9.29543
▁ڏينھن	-9.29623
▁چيائين	-9.29641
▁بو	-9.29673
▁ليه	-9.29685
▁هيءُ	-9.29721
▁لل	-9.29795
▁ميمبر	-9.29989
▁2018	-9.30025
▁عجيب	-9.3014
▁منٽ	-9.30146
▁الڳ	-9.30182
▁زي	-9.3033
▁انسٽال	-9.30516
ڪار	-9.3063
▁ڪيترا	-9.30745
▁اڃان	-9.30749
▁ڳولڻ	-9.30798
▁جهڙو	-9.30877
▁گهڻا	-9.31041
▁سائنس	-9.31049
▁تحفظ	-9.31051
در	-9.31372
▁چڪي	-9.31387
▁واٽ	-9.31417
▁24	-9.31517
▁براي	-9.31582
▁قرآن	-9.31598
▁وائرس	-9.31615
▁منظور	-9.3163
گر	-9.31652
▁بئنڪ	-9.31707
▁مقدار	-9.31716
▁آل	-9.31744
▁يک	-9.31857
▁اب	-9.31915
▁هيا	-9.31992
أ	-9.32217
▁ڪنھن	-9.32545
▁رڪارڊ	-9.32712
▁حلو	-9.32727
هر	-9.32803
▁سماج	-9.32933
▁ادارن	-9.32955
▁سون	-9.33088
سو	-9.33107
▁امن	-9.33111
▁هُن	-9.33221
▁سواء	-9.33283
▁ڪندس	-9.33348
k	-9.33434
▁ست	-9.33492
▁ڏکڻ	-9.33515
▁قدرتي	-9.33661
▁خالي	-9.33679
▁لائسنس	-9.33708
▁آخرڪار	-9.33736
▁عشق	-9.33764
▁جهڙي	-9.33896
▁اک	-9.33961
▁فوج	-9.33965
▁تحت	-9.3403
▁نيو	-9.34097
▁حڪمت	-9.34206
اڻڻ	-9.34207
en	-9.34223
▁قسمن	-9.34269
ظ	-9.34283
▁اظهار	-9.34385
▁سافٽ	-9.34389
يان	-9.34396
▁هجن	-9.34427
▁رابطو	-9.34542
▁يورپي	-9.34753
مر	-9.34875
▁ڏيندي	-9.34962
▁دين	-9.35112
▁ليکڪ	-9.35167
us	-9.35169
▁بود	-9.35278
▁سڏيو	-9.3529
▁اني	-9.35348
▁اچن	-9.35476
▁فعال	-9.35599
▁سياست	-9.35645
▁فن	-9.35743
▁عوامي	-9.35922
نس	-9.3601
▁تصويرون	-9.36033
▁جسماني	-9.36067
▁ڪڍي	-9.36148
▁شعر	-9.36295
▁سڌو	-9.36382
▁اسپتال	-9.36467
▁know	-9.36552
▁ايمان	-9.36581
▁پراڻي	-9.36623
ــــــــــــــــ	-9.36647
▁بيماري	-9.36875
سم	-9.3698
▁مهيني	-9.37007
▁اتر	-9.37285
▁گھرجي	-9.37308
▁ماهر	-9.37367
▁H	-9.37368
▁درست	-9.37373
▁نہ	-9.37408
▁ڏک	-9.37439
▁مذهبي	-9.37651
▁سلسلي	-9.37698
▁غ	-9.37758
▁مسلمان	-9.37827
▁گذاري	-9.37834
ڪن	-9.37928
▁ڀلي	-9.37938
▁گڏجي	-9.37938
▁ساڳئي	-9.37981
▁فرانس	-9.38154
an	-9.38178
8	-9.38208
▁]	-9.38354
b	-9.38381
چي	-9.38413
وار	-9.38429
▁پويان	-9.38504
▁هل	-9.38528
▁چيڪ	-9.38534
▁چنڊ	-9.3858
▁حصن	-9.38583
▁مرڪز	-9.38664
مه	-9.38727
▁مسئل	-9.38762
فر	-9.38871
▁گه	-9.38872
O	-9.38959
▁ڪيترو	-9.38974
▁خوف	-9.39046
▁موٽي	-9.3911
▁وزيراعظم	-9.39264
▁مئي	-9.39319
▁Android	-9.39399
▁گرفتار	-9.39433
هههههههههههه	-9.39451
▁جمهوري	-9.39514
▁احتجاج	-9.39539
▁مارچ	-9.39565
▁انقلاب	-9.39589
▁ويس	-9.39602
▁ايئن	-9.39635
▁جنسي	-9.39683
▁روم	-9.39817
▁ڪورٽ	-9.39869
▁ذات	-9.39869
▁<<	-9.3991
▁پوندي	-9.39955
▁+	-9.40087
▁مخالف	-9.40156
▁مجموعي	-9.40188
▁منظم	-9.40261
▁ڊجيٽل	-9.40263
▁لباس	-9.40268
▁مير	-9.40363
▁ٻڌڻ	-9.40402
▁منھنجي	-9.4043
ڏ	-9.40446
▁چو	-9.40583
▁جنم	-9.40665
th	-9.40705
▁2017	-9.40717
▁گيت	-9.40929
▁محنت	-9.40982
▁معياري	-9.41001
▁چڱي	-9.41032
▁دستياب	-9.41098
▁کائڻ	-9.41153
▁آس	-9.41276
▁لنڪ	-9.41276
▁جاچ	-9.41308
▁معمولي	-9.41412
▁اشارو	-9.41421
▁جه	-9.41487
▁ميٽر	-9.41668
▁اڪيلو	-9.41709
▁امان	-9.41747
▁I	-9.418
▁بدران	-9.41887
▁طريقا	-9.41917
▁الع	-9.41976
▁انگ	-9.42038
▁طيب	-9.42158
▁مطابقت	-9.42162
▁بندي	-9.42241
▁مهم	-9.4229
▁مثل	-9.42348
▁>>	-9.42349
▁فيس	-9.42363
▁فڪر	-9.4242
ڌ	-9.42522
▁وانا	-9.4256
ئون	-9.42569
▁ٽيسٽ	-9.42631
▁بحال	-9.42684
▁اَ	-9.42711
▁تجزيو	-9.42735
▁عالم	-9.42749
▁ھئي	-9.42801
▁فطرت	-9.42884
▁پٿر	-9.42891
▁خيلي	-9.43058
▁ھر	-9.43094
▁ڪمري	-9.43095
▁ٿين	-9.43102
▁۔۔۔	-9.43143
▁مشڪل	-9.43164
▁تعريف	-9.43179
▁هوٽل	-9.43236
ندس	-9.43287
▁شما	-9.43292
▁آڪٽوبر	-9.43336
▁سزا	-9.43387
▁والدين	-9.43469
▁40	-9.43471
▁اسپين	-9.43554
▁گهربل	-9.43724
▁معنيٰ	-9.43784
▁ٿوري	-9.43824
▁واقع	-9.43867
▁مار	-9.44036
▁کليل	-9.44071
▁ممكن	-9.44224
▁فوت	-9.44245
▁سيريز	-9.4425
▁ڀيٽ	-9.44261
▁هندستان	-9.44266
▁گراهڪ	-9.4433
▁نماز	-9.44577
▁روڊ	-9.44659
▁هيٺيان	-9.44711
▁حلوه	-9.44883
9	-9.44946
▁معني	-9.4507
▁ڪابه	-9.45074
▁طلب	-9.45091
ــــــــــ	-9.45173
▁ايندا	-9.45217
▁دا	-9.45254
▁فيه	-9.45376
▁مره	-9.45456
▁ويڊيو	-9.45496
▁سوچي	-9.4563
▁عنصر	-9.45702
▁پرو	-9.45703
ايل	-9.45754
▁طريقن	-9.45891
▁راه	-9.46092
ً	-9.4615
▁ڪاليج	-9.46194
▁سنگ	-9.46264
▁روشن	-9.4639
▁پن	-9.46424
▁تاريخي	-9.46434
▁وت	-9.4653
▁موسيقي	-9.46649
▁شاعري	-9.46677
▁فوجي	-9.46776
▁سيپٽمبر	-9.46808
▁ڳالهين	-9.46834
▁اذا	-9.46848
▁جائزو	-9.46931
▁ماري	-9.46995
ائون	-9.47052
▁سڄو	-9.4711
▁ايراني	-9.47194
▁بيت	-9.47239
▁K	-9.47292
▁بونس	-9.47303
▁پئسا	-9.4742
▁حيران	-9.47424
▁قرار	-9.47476
▁ڪرائڻ	-9.47502
▁ساري	-9.47629
="	-9.47674
E	-9.47675
▁W	-9.47725
▁شهري	-9.47784
▁گر	-9.47886
▁ماڻھو	-9.47926
▁مشتمل	-9.48039
▁اسٽيشن	-9.48189
▁پيٽ	-9.48258
▁جنرل	-9.48352
بت	-9.48355
K	-9.48376
▁the	-9.48414
▁ٽرين	-9.48418
▁فوري	-9.48469
رس	-9.4852
▁عزت	-9.48521
▁چيز	-9.48615
▁جيترو	-9.48639
▁انعام	-9.4864
▁شرط	-9.48646
▁ساٿي	-9.48744
▁كان	-9.48751
▁ورتي	-9.48768
▁ڀر	-9.48841
▁رهن	-9.48922
▁آسمان	-9.4899
▁شاهه	-9.49037
▁سگھو	-9.49069
▁2.	-9.49112
▁قومن	-9.49118
▁زخمي	-9.49168
▁ڪمپنين	-9.492
▁ڏيئي	-9.49205
▁ڪانه	-9.49234
▁گو	-9.49275
اسان	-9.49294
▁شاگرد	-9.49305
▁دورو	-9.4932
۽	-9.49324
▁سين	-9.49348
▁p	-9.49402
▁آهنگ	-9.49405
F	-9.49456
▁شهيد	-9.49467
سا	-9.49496
ې	-9.49626
ڻي	-9.49629
▁امڪان	-9.49653
▁ڪتابن	-9.49718
▁ڀيرا	-9.49789
h	-9.49857
▁رکندڙ	-9.49941
ڳ	-9.49974
▁ترجمو	-9.49989
▁بد	-9.50023
▁انڪار	-9.50149
▁نوان	-9.50294
▁چيني	-9.50349
▁عمارت	-9.50351
▁لڳ	-9.5038
▁؟؟	-9.5042
▁موڪليو	-9.50515
از	-9.50593
▁آب	-9.50597
▁روس	-9.50656
▁چوندا	-9.507
▁ادائيگي	-9.50881
▁کا	-9.50892
▁آرڊر	-9.50892
▁واڌ	-9.51023
▁پهچائڻ	-9.51049
▁نفس	-9.51064
▁قسمت	-9.51208
▁قرض	-9.51228
▁کڻڻ	-9.5124
اڻو	-9.51342
تن	-9.51381
▁21	-9.51497
اهو	-9.51517
▁عليها	-9.51547
▁اضافو	-9.51551
▁هوا	-9.51642
▁سوچڻ	-9.5173
▁مذهب	-9.51781
ـــــــــــ	-9.51806
▁کل	-9.51905
▁کائي	-9.52061
l	-9.52169
▁تحريڪ	-9.52198
▁انصاف	-9.52208
▁باب	-9.52213
▁ملڪيت	-9.52278
▁ٻڌو	-9.52312
▁سدائين	-9.52501
▁زير	-9.52504
▁سمجهڻ	-9.52511
▁N	-9.52562
f	-9.52577
▁سياحت	-9.52677
▁ڪرايو	-9.52708
هين	-9.52777
▁اخبار	-9.52833
▁هينئر	-9.52847
▁نيست	-9.52871
▁صفحا	-9.52984
▁ڊيزائن	-9.52987
▁سڃاڻپ	-9.5299
▁2016	-9.52995
▁ڪيتريون	-9.53001
▁آڻي	-9.53009
▁هدايت	-9.53093
▁وڏن	-9.53102
▁ڀريل	-9.53138
▁com	-9.53443
يشن	-9.53451
▁حمايت	-9.53477
▁هه	-9.53893
▁هُو	-9.5405
▁لڳا	-9.54119
▁شوق	-9.54149
▁آگسٽ	-9.54151
le	-9.54158
▁منزل	-9.5416
re	-9.54231
اءُ	-9.54247
▁اداري	-9.54277
اج	-9.54279
▁ادبي	-9.54415
ٽو	-9.54427
▁موٽر	-9.54489
▁ڳالھ	-9.54502
ولي	-9.54635
▁سگھجي	-9.54646
وب	-9.54697
ٌ	-9.54775
ڙن	-9.54814
حب	-9.5482
▁فقير	-9.54855
▁رابطي	-9.54862
▁ذميواري	-9.54948
▁وه	-9.5498
▁فرض	-9.54993
▁وسيع	-9.54993
▁ليش	-9.54994
▁سڏ	-9.55068
▁موقعي	-9.55082
▁ونڊوز	-9.55174
امي	-9.55184
▁چڱو	-9.55206
ـــــــــــــ	-9.55359
▁ڳالهايو	-9.55477
▁هليو	-9.55505
▁مسئلا	-9.55509
ھي	-9.55588
▁فصل	-9.5562
▁ويل	-9.55645
▁خواهش	-9.55663
▁خلاص	-9.55728
▁ويهي	-9.55863
▁ڪارو	-9.56107
ڏي	-9.56211
▁مکيه	-9.5639
زم	-9.56424
▁روڪي	-9.56479
V	-9.56575
▁راح	-9.56623
H	-9.56761
R	-9.56777
▁اپڊيٽ	-9.56818
▁a	-9.56842
▁پلي	-9.56997
▁فائلون	-9.57025
▁سفارش	-9.57118
W	-9.57119
▁ني	-9.57214
▁ٻڌل	-9.57263
جر	-9.5731
▁ڳالهائي	-9.57352
▁مَ	-9.57484
▁مصنوعات	-9.575
▁هع	-9.57565
N	-9.57631
ly	-9.5773
▁سبق	-9.57736
▁واپسي	-9.57927
▁O	-9.5793
▁خصوصي	-9.57938
▁راز	-9.58015
▁نومبر	-9.58021
▁آئين	-9.58058
▁گھڻو	-9.58068
▁22	-9.58078
▁الحال	-9.58104
▁ناڪام	-9.58362
▁فائل	-9.58403
اف	-9.58411
▁آساني	-9.58428
▁ناهن	-9.58528
▁هئس	-9.58568
▁ڪال	-9.58568
وز	-9.58635
▁ط	-9.58647
▁ڇوڪري	-9.58685
▁شد	-9.58694
▁افغانستان	-9.58708
▁سنڏ	-9.58735
▁ڊزائن	-9.58813
▁ماضي	-9.58814
▁جنوري	-9.59003
▁سعودي	-9.59056
ــــــــــــ	-9.59091
▁جنس	-9.591
▁ميان	-9.59331
▁ڏيندا	-9.59387
x	-9.5941
مو	-9.59489
▁فرد	-9.59521
▁رهندا	-9.59542
▁ڪلاس	-9.59547
▁كم	-9.59571
▁ليگ	-9.59706
▁لنڊن	-9.59803
▁هيٺين	-9.59808
▁هوائي	-9.59838
▁ڪميشن	-9.59897
مل	-9.59912
▁سمجهان	-9.59952
▁ڏانھن	-9.60143
▁درجي	-9.60166
ڊي	-9.60189
▁سپر	-9.60401
رز	-9.60563
▁آبادي	-9.60567
20	-9.60579
it	-9.60663
▁كيف	-9.60755
▁ٽيون	-9.60789
اه	-9.60804
▁ماني	-9.60864
▁احمد	-9.60901
ارو	-9.60902
▁عورتون	-9.60918
آآ	-9.60998
▁ڪانهي	-9.6103
وه	-9.61066
▁هوء	-9.61098
▁لسٽ	-9.61198
▁واقعا	-9.61307
يس	-9.61379
▁اف	-9.61401
▁ناول	-9.61405
▁تم	-9.61447
ووو	-9.61576
▁تازو	-9.61704
▁~	-9.61754
▁ڪوڙ	-9.61828
▁هت	-9.61835
▁شده	-9.61878
▁شوي	-9.61883
▁اسيمبلي	-9.6193
▁سينٽر	-9.61975
▁مقابلو	-9.62019
on	-9.62136
▁ڏکيو	-9.62201
▁رکن	-9.62273
▁مردن	-9.62339
▁ڀلا	-9.62347
▁سُ	-9.6243
▁انجام	-9.62477
▁ٿ	-9.62519
▁سکڻ	-9.62556
▁V	-9.62654
▁گفت	-9.62755
▁ڏنا	-9.62877
▁اه	-9.62886
▁وفات	-9.62914
▁2021	-9.62981
▁آدم	-9.63018
ur	-9.63082
▁اچ	-9.6312
وو	-9.63123
▁كنت	-9.63134
▁هٿن	-9.63278
*	-9.63281
▁ويٺو	-9.63324
هڪ	-9.63434
st	-9.6346
ri	-9.63491
▁متبادل	-9.63493
سل	-9.6354
▁مافي	-9.63584
▁کو	-9.63607
▁پا	-9.6363
▁جاء	-9.63686
▁پٺيان	-9.63701
▁کار	-9.63729
▁يمكن	-9.63891
▁ڀي	-9.63931
▁آيل	-9.63984
▁نتيجو	-9.6404
▁حرف	-9.64045
▁بک	-9.64083
▁گزارش	-9.6412
▁مزو	-9.64129
▁سائيز	-9.64276
▁هست	-9.64305
▁اش	-9.64336
▁ميمبرن	-9.64452
▁چپ	-9.64456
تها	-9.64472
▁سمجهه	-9.6451
نڊ	-9.64543
▁بدلي	-9.6456
وت	-9.64594
▁سَ	-9.64601
▁تعاون	-9.64613
▁اتفاق	-9.64694
▁گڏوگڏ	-9.64773
▁هونديون	-9.6479
▁اوڀر	-9.64793
بس	-9.64908
▁منصوبي	-9.64957
▁سگهندا	-9.64992
▁پيروي	-9.65042
▁تيل	-9.65069
▁ڊسمبر	-9.65326
▁شخصيت	-9.6538
▁رس	-9.65397
▁شرڪت	-9.65528
▁وفاقي	-9.6554
▁ڄاڻي	-9.65604
▁ڪائنات	-9.65697
▁اخر	-9.65713
▁L	-9.65753
▁مريض	-9.65754
▁وٺو	-9.65807
ers	-9.65865
▁وزارت	-9.65883
▁ڪيم	-9.65942
▁سرور	-9.66045
il	-9.66066
▁پئجي	-9.66087
▁نالا	-9.66191
▁رهندي	-9.66254
▁ٻيون	-9.6626
▁ڊوائيس	-9.66338
▁ڇڏڻ	-9.66377
▁تسليم	-9.6648
▁يورو	-9.66582
▁دڪان	-9.66583
ــــــــــــــ	-9.66623
اش	-9.66642
ڪل	-9.66658
▁re	-9.66687
▁وات	-9.66805
▁اُهي	-9.66837
▁برانڊ	-9.66871
▁اٿم	-9.66885
▁ليس	-9.66953
▁سلسلو	-9.67005
▁تڪليف	-9.67006
ااا	-9.67013
▁3.	-9.67018
▁خريداري	-9.67144
▁باهه	-9.67288
▁راءِ	-9.67315
▁دليل	-9.67377
▁يونٽ	-9.67467
▁بڪ	-9.67493
▁مر	-9.67496
▁تع	-9.67568
▁اون	-9.67606
▁کلي	-9.67637
▁طاقتور	-9.67643
▁سير	-9.67649
▁شعور	-9.67702
▁معاملي	-9.67761
ٽن	-9.67818
▁توڙي	-9.67977
0	-9.6798
▁مست	-9.67995
▁موڪل	-9.68001
▁والد	-9.68014
▁اڳي	-9.68114
▁بچائڻ	-9.68146
شا	-9.68153
▁الت	-9.68198
▁بيڪ	-9.68224
▁رانديون	-9.68257
▁لاش	-9.68273
▁ڪيتري	-9.68299
▁رخ	-9.6831
▁وجهي	-9.68328
▁پرڏيهي	-9.68331
▁پاليسي	-9.68537
▁تھ	-9.68549
U	-9.6862
▁ڇ	-9.68738
w	-9.68755
▁نظم	-9.68771
▁کاتي	-9.68801
يٽ	-9.68824
مين	-9.68925
▁سگهندو	-9.68944
▁حسن	-9.69072
▁عندي	-9.69092
▁ڪورونا	-9.691
▁2015	-9.6911
▁دشمن	-9.69124
رب	-9.69185
▁شهرن	-9.69249
▁فيصل	-9.69394
▁ميڪ	-9.69453
▁اپريل	-9.69503
▁ثقافت	-9.6961
▁رک	-9.69674
▁@	-9.6975
▁تربيت	-9.69803
▁سيڙپڪاري	-9.69895
ائ	-9.69961
▁ضحك	-9.70025
▁دم	-9.70039
▁گفتگو	-9.70073
▁انك	-9.70086
▁ڀاءُ	-9.70086
▁مينهن	-9.70117
▁گهرجن	-9.70231
▁ماڻهوءَ	-9.70255
▁حب	-9.70403
▁آھيان	-9.70406
▁ھاڻي	-9.70409
▁رح	-9.70412
▁جوابدار	-9.70462
▁هيس	-9.70494
▁ڪجھه	-9.70505
▁وسلم	-9.70507
▁هزارين	-9.70549
ئو	-9.70557
▁جانور	-9.70633
ڀ	-9.7065
▁اڳوڻي	-9.70656
▁ابتدائي	-9.70673
▁ٽرانسپورٽ	-9.70841
▁شراب	-9.70876
▁ٽ	-9.70917
ايا	-9.7097
▁f	-9.70974
▁واريون	-9.70988
▁ڪانفرنس	-9.71037
▁لطف	-9.71066
ـــــــــــــــ	-9.71071
▁هلائڻ	-9.71077
▁مڇي	-9.7115
▁ول	-9.71161
v	-9.71196
اق	-9.71243
▁رهيون	-9.71423
▁منصوبو	-9.71429
▁تازه	-9.71441
▁مثبت	-9.71449
▁آمدني	-9.71871
▁وطن	-9.71987
▁لازم	-9.72015
▁روي	-9.72033
▁وڃائي	-9.72098
▁خدمتن	-9.72123
▁ڦ	-9.72373
▁قيمتي	-9.72375
▁امداد	-9.72436
▁خودڪار	-9.72446
at	-9.72479
▁نقل	-9.72501
▁مات	-9.72523
▁متن	-9.7253
▁60	-9.72537
▁سيڪيورٽي	-9.72621
▁پارڪ	-9.72666
▁فخر	-9.72829
▁موڪلي	-9.72847
▁نفرت	-9.72908
▁مجبور	-9.73177
وٽ	-9.73409
▁ٻيٽ	-9.7341
▁وينديون	-9.73441
▁جد	-9.73453
▁ڪوئي	-9.73463
▁ماپ	-9.73479
سون	-9.7352
▁سار	-9.73596
▁نبي	-9.73717
▁ٿر	-9.73783
اح	-9.7381
▁ورلڊ	-9.73823
▁سموري	-9.74099
ههههههههههههه	-9.74193
▁وڌائي	-9.74225
رين	-9.74275
▁الس	-9.74324
▁ڊرائيو	-9.74364
▁R	-9.74375
▁شروعاتي	-9.74378
▁جانورن	-9.74397
▁خدمتون	-9.74424
▁لانچ	-9.74462
▁سک	-9.74531
▁برداشت	-9.74629
▁هاءِ	-9.74658
▁چرچ	-9.74728
▁لهي	-9.74852
▁هلندڙ	-9.74859
▁يلا	-9.74988
▁ٽيڪس	-9.75019
▁(1)	-9.75129
هههه	-9.75173
▁ريل	-9.75198
▁ضمانت	-9.75238
▁دعوت	-9.75239
▁اندروني	-9.75297
▁چيست	-9.75314
▁فائيل	-9.75349
الله	-9.7536
▁حقن	-9.75541
▁سڌي	-9.75581
▁رھيو	-9.75596
ol	-9.75623
▁انڊسٽري	-9.75647
▁يونين	-9.75693
حد	-9.75748
▁ڳن	-9.75847
▁پهتو	-9.75867
▁بادشاهه	-9.75893
▁اصلا	-9.75893
▁عربي	-9.75983
▁موٽ	-9.76044
▁منفرد	-9.76058
▁أنا	-9.76069
▁هذه	-9.76095
▁تجربي	-9.76157
▁الزام	-9.76158
▁اٿي	-9.76207
▁ضرورتن	-9.7626
▁انٽرويو	-9.76265
▁بڻايو	-9.76278
▁واقف	-9.76279
▁سادي	-9.7628
دم	-9.76325
▁وساري	-9.7633
نٽ	-9.76341
▁بيٽري	-9.76355
▁سه	-9.76373
ڊو	-9.76398
▁ٻاهرين	-9.76509
▁اٿس	-9.76525
▁نام	-9.76528
▁الح	-9.76529
▁دستاويز	-9.76561
▁ھا	-9.76695
▁اقول	-9.76711
▁پهچڻ	-9.76762
▁چارج	-9.76764
el	-9.76813
▁جرمني	-9.76922
▁کوليو	-9.76943
▁ذميوار	-9.77026
▁خاصيتون	-9.77039
▁ايش	-9.77088
وش	-9.77089
▁پائي	-9.77166
▁4.	-9.7718
▁فتح	-9.77225
▁هڪٻئي	-9.77244
مت	-9.77253
▁ڀري	-9.77286
▁جيان	-9.77307
▁شيئر	-9.77337
۔۔۔	-9.77409
▁گهڻن	-9.77471
▁نمائش	-9.77513
▁فيبروري	-9.77719
▁,,	-9.77794
▁اولاد	-9.7781
▁تجويز	-9.77929
▁ماڻھن	-9.7794
▁سب	-9.77972
ٽس	-9.78015
▁ساهه	-9.78112
▁معاملو	-9.78139
▁پاور	-9.784
▁چيه	-9.7843
▁وهي	-9.78463
▁in	-9.78466
▁رسول	-9.78468
▁غلام	-9.78493
▁صفحي	-9.78564
▁چئن	-9.7857
▁كه	-9.78586
▁روحاني	-9.78609
▁تخليق	-9.78661
▁آءُ	-9.7867
▁پرين	-9.78697
▁برقي	-9.78719
▁ٽئين	-9.78739
▁متعارف	-9.78773
▁b	-9.78778
▁قال	-9.78854
▁هفته	-9.78942
▁شه	-9.79087
▁هڻي	-9.79125
▁بلند	-9.79146
▁کپي	-9.79146
▁مسجد	-9.79205
▁t	-9.79246
هههههههههههههههه	-9.79247
عه	-9.79253
▁اقتصادي	-9.79331
▁طلاق	-9.79413
▁علامت	-9.7949
▁خوب	-9.79501
▁سهولت	-9.79534
▁جوڙجڪ	-9.79622
▁نتيجا	-9.79622
▁وڌو	-9.79628
I	-9.79651
▁ڪنڊ	-9.79687
لك	-9.79775
▁تعليمي	-9.79821
▁روڪڻ	-9.79872
▁کاڌي	-9.79907
▁پريس	-9.79922
▁معاهدي	-9.80032
▁پوزيشن	-9.80051
▁سائيڪل	-9.80059
▁اندازو	-9.80075
اك	-9.80092
▁پيئڻ	-9.80096
▁ڌڪ	-9.80149
▁په	-9.80216
ستان	-9.80265
▁برطانيه	-9.80272
▁معاشي	-9.80483
▁اليڪشن	-9.80485
▁ايشيا	-9.80521
▁ڪپ	-9.80559
▁کوٽ	-9.80615
▁روايتي	-9.80621
▁ڏسندا	-9.80676
▁مرمت	-9.80703
؟!	-9.80707
يش	-9.80773
▁بحالي	-9.80828
▁زنده	-9.80864
▁گول	-9.80865
▁يافته	-9.80916
▁وم	-9.80916
▁2-	-9.81107
10	-9.81138
▁ابي	-9.81193
▁مرڪزي	-9.81243
▁چاهيون	-9.8132
▁پيئي	-9.81339
▁قول	-9.81414
▁خاطر	-9.81431
▁اهڙن	-9.81571
▁فوٽو	-9.81599
▁سنڀال	-9.81706
▁ڀ	-9.81741
▁تهيه	-9.81771
▁c	-9.81776
X	-9.81922
▁عنوان	-9.81962
▁26	-9.8199
▁وڪيپيڊيا	-9.82028
▁خاموش	-9.82034
▁ڏيان	-9.82129
▁عشان	-9.82296
▁مه	-9.82321
▁بم	-9.8234
▁کاڌو	-9.82361
انا	-9.82428
▁ذريعو	-9.82436
▁فل	-9.82439
▁مزاحمت	-9.82476
▁ذ	-9.82546
▁امين	-9.82587
ad	-9.82597
نداسين	-9.82642
▁ڪپڙا	-9.82666
▁محبوب	-9.82672
▁زبردست	-9.82876
▁سور	-9.83007
▁تڪرار	-9.83098
▁شھر	-9.83108
▁وڃان	-9.83322
▁کولي	-9.83325
▁ريلوي	-9.83378
▁احد	-9.83429
▁صور	-9.83643
[	-9.83697
▁اڳيون	-9.83765
▁نواز	-9.83789
▁شب	-9.83851
▁بچائي	-9.83862
▁واقعن	-9.83915
▁23	-9.83975
▁قلب	-9.84043
▁حلوة	-9.84119
▁عزيز	-9.84171
▁ارب	-9.842
▁ابراهيم	-9.84217
دل	-9.84242
▁ٽيبل	-9.84324
▁سرڪار	-9.84327
▁ڪاپي	-9.84356
▁h	-9.84373
پو	-9.84458
▁طرز	-9.84475
▁سگھون	-9.84489
▁پتو	-9.84499
▁پاڻيءَ	-9.84506
et	-9.84541
▁مهل	-9.84553
▁روسي	-9.84634
▁بہ	-9.84745
آن	-9.84762
▁شر	-9.84784
▁هلڻ	-9.84957
ic	-9.85053
▁عبدال	-9.85063
ڻو	-9.85249
▁درجه	-9.8525
▁عقل	-9.8533
▁خيالن	-9.8533
▁افسوس	-9.85332
▁ڪهڙا	-9.85338
وف	-9.85358
▁واپاري	-9.85369
▁توقع	-9.85393
▁ڀارت	-9.85417
▁سونهن	-9.8543
▁ڌ	-9.85561
▁لم	-9.85595
▁وڌڻ	-9.85598
▁اُ	-9.85648
▁چيم	-9.85779
▁مٽي	-9.85819
▁پنڌ	-9.85819
▁انه	-9.85928
▁وٺ	-9.85944
▁نگراني	-9.86007
▁ڪمزور	-9.86017
▁نڪتو	-9.86055
▁گي	-9.86064
▁27	-9.86122
▁ڏيندڙ	-9.86144
▁</	-9.86401
▁لوڪ	-9.86444
▁ڪائونسل	-9.86468
▁تعارف	-9.86472
▁پابندي	-9.86532
▁تك	-9.86574
▁ث	-9.86613
كر	-9.8662
▁موڊ	-9.86621
▁ملڪي	-9.86674
▁ٻڌ	-9.86682
دن	-9.86695
▁سکيا	-9.86905
عي	-9.86998
لن	-9.86999
▁مرڻ	-9.87
▁ارسال	-9.87027
▁گهڙي	-9.87076
اها	-9.87078
▁اوچتو	-9.87156
سس	-9.87188
▁انجڻ	-9.87228
▁پور	-9.87339
▁ميز	-9.87364
وني	-9.87392
▁انٽرنيشنل	-9.87395
▁راضي	-9.87404
ڇ	-9.875
▁اسٽيٽ	-9.87515
▁خون	-9.87613
اهي	-9.87672
▁شعبي	-9.87728
z	-9.8784
▁پلاسٽڪ	-9.87849
▁ھ	-9.87908
ذا	-9.87927
▁عليكم	-9.87983
▁سرگرمين	-9.88071
▁رکيل	-9.88088
▁آهستي	-9.8809
▁اكيد	-9.88091
▁ڪميٽي	-9.88116
▁28	-9.88117
▁برا	-9.88178
▁اکر	-9.8821
▁جرمن	-9.88226
تني	-9.88291
▁اڳواڻ	-9.88304
▁لائق	-9.88325
▁آفريڪا	-9.88337
▁بيٺو	-9.88353
▁آندو	-9.88358
▁سائيٽن	-9.88474
ٻ	-9.88519
▁مدت	-9.88541
▁سازي	-9.88567
▁روزاني	-9.88593
▁مصر	-9.88678
اط	-9.88719
▁حاضر	-9.88721
▁جبل	-9.88758
▁سادو	-9.88834
▁پروفيسر	-9.89021
▁قد	-9.89042
▁رکندو	-9.89064
▁منٽن	-9.8919
▁ووٽ	-9.89197
▁80	-9.89236
▁نيٺ	-9.89266
يز	-9.89305
▁نيشنل	-9.89485
▁ويٺي	-9.89507
يني	-9.89529
▁بازار	-9.896
▁هلائي	-9.89608
اااا	-9.8961
▁آفيسر	-9.89661
▁حرڪت	-9.89721
▁آسٽريليا	-9.89731
▁اٿئي	-9.89741
▁نرم	-9.89741
▁مسلم	-9.89844
▁پاسو	-9.89857
▁رجسٽر	-9.89922
▁ڀرسان	-9.89963
▁2014	-9.89972
▁اوھين	-9.90014
جل	-9.90056
▁ڀڳ	-9.90064
عت	-9.90123
▁مقصدن	-9.90164
▁چيف	-9.90202
▁بٽڻ	-9.90212
▁چوندو	-9.9027
ۈ	-9.90385
▁دوستي	-9.90428
▁بررسي	-9.90441
▁حملو	-9.90456
▁سپورٽ	-9.90471
▁آھيو	-9.90528
ھن	-9.90539
رڪ	-9.90577
▁خطرو	-9.90641
▁مٿين	-9.90652
▁منحصر	-9.90669
▁ميوزڪ	-9.90669
▁ڪارروائي	-9.9067
▁وِ	-9.907
▁جهان	-9.90703
▁وٺندو	-9.90707
▁e	-9.90757
▁انڊيا	-9.90775
▁تجارتي	-9.90791
▁چور	-9.90855
▁ڪاغذ	-9.90908
▁ڳنڍيل	-9.90955
▁ڏ	-9.90973
▁پنجن	-9.9099
▁مور	-9.90999
▁دفعي	-9.91004
▁عندك	-9.91066
▁هيك	-9.91221
▁کنيو	-9.91265
▁جم	-9.91418
▁ڪَ	-9.91455
▁ذهني	-9.91582
▁سل	-9.91595
لين	-9.91617
ٿي	-9.91619
▁ايئرپورٽ	-9.91627
▁اُهو	-9.91641
▁خبرون	-9.91776
▁باغ	-9.91914
▁ظلم	-9.91914
▁أن	-9.91916
ونه	-9.92028
▁مقام	-9.92079
▁بيمار	-9.92135
▁قيد	-9.92224
▁روزانو	-9.92364
ter	-9.92373
▁هفتن	-9.92378
▁غم	-9.92402
▁ھئا	-9.92428
▁پهچائي	-9.92587
▁چوڌاري	-9.92596
as	-9.926
▁کر	-9.926
▁مطالبو	-9.92627
شو	-9.92632
▁اسم	-9.92639
▁بيهي	-9.92641
▁اسٽيل	-9.92693
▁سام	-9.92696
▁داخلا	-9.92726
▁رجحان	-9.92761
▁صنعتي	-9.92763
▁معاملن	-9.92838
▁فٽبال	-9.92856
بار	-9.92863
▁پيل	-9.92961
▁وڪيل	-9.93018
▁سيل	-9.93026
▁امي	-9.93036
توهان	-9.93058
▁ترڪي	-9.93264
▁گهرن	-9.93279
▁موثر	-9.93347
▁مراد	-9.9336
un	-9.9339
▁طئي	-9.93395
▁عيد	-9.93447
▁مسيح	-9.93499
پا	-9.93513
ءُ	-9.93547
سٽر	-9.9357
▁رکون	-9.93596
▁وڊيوز	-9.93628
▁وڌندڙ	-9.93629
▁روپ	-9.9367
▁سيد	-9.93705
▁ذريعن	-9.93818
▁معيشت	-9.93822
▁عذاب	-9.93828
ڇا	-9.93931
▁منظوري	-9.93974
▁اهل	-9.93976
▁لطيف	-9.94064
▁قوت	-9.94103
▁ڊپ	-9.94115
▁پراڊڪٽ	-9.94131
▁ڀيڻ	-9.94195
بن	-9.94205
-19	-9.94236
▁ملازمن	-9.94261
▁اياز	-9.94266
▁ڏسندي	-9.94292
▁جوڙي	-9.94298
حي	-9.94334
▁انتخاب	-9.94355
▁2013	-9.94357
▁ڌر	-9.94364
▁آڇ	-9.94382
▁تار	-9.94425
▁تت	-9.94495
▁انجنيئر	-9.94503
▁اور	-9.94509
▁علائقو	-9.94558
▁تنقيد	-9.94558
▁ارادو	-9.94558
▁ڇڏيا	-9.94584
▁X	-9.94612
▁پچ	-9.94615
▁شور	-9.94759
▁ملازم	-9.94796
گري	-9.94875
▁تقريب	-9.94909
▁90	-9.94941
زا	-9.94948
▁نيڪ	-9.94985
▁سيڪريٽري	-9.95055
▁وڌايو	-9.9517
▁مادي	-9.95292
▁آء	-9.95411
▁ٻوليءَ	-9.95414
▁جوان	-9.95453
▁ڀا	-9.95458
ٹ	-9.95507
▁منصوبن	-9.95554
▁ڊائونلوڊ	-9.95554
▁سڃاتو	-9.95555
▁ناقابل	-9.95556
▁ڀرپور	-9.95562
▁سئو	-9.95571
▁برسات	-9.95605
12	-9.95668
▁وان	-9.95765
▁ڪلاڪن	-9.9587
▁اصطلاح	-9.95875
▁اسرائيل	-9.9589
▁&	-9.95897
رم	-9.9591
▁گهري	-9.95983
▁چاهين	-9.96054
▁فائدا	-9.9606
▁فر	-9.9615
پل	-9.96192
▁کٽ	-9.96242
▁ڪيان	-9.96257
▁پيرن	-9.96259
▁خارجي	-9.96269
▁فيشن	-9.96277
▁دريافت	-9.96313
▁شريف	-9.9639
▁ڪلام	-9.96509
▁قلت	-9.96583
▁اتحاد	-9.96594
▁هندو	-9.96614
;	-9.96739
▁اُتي	-9.96785
▁خطرناڪ	-9.96816
▁نڪرڻ	-9.96841
▁ڄاڻڻ	-9.96845
▁J	-9.96873
▁قلم	-9.96918
▁ميچ	-9.96982
▁سڀاڻي	-9.97042
▁عبادت	-9.97068
▁مني	-9.97071
▁عجب	-9.97073
▁الموضوع	-9.97077
▁طول	-9.9716
▁هين	-9.97227
▁ڪئميرا	-9.97322
▁متحرڪ	-9.97323
▁فعل	-9.97387
▁ساٿ	-9.97426
؟؟	-9.97476
▁شيءَ	-9.97513
▁گھڻي	-9.97598
زن	-9.97782
▁ياداشت	-9.97867
▁سوي	-9.97878
صلى	-9.97901
▁بلڪه	-9.97907
▁ٻولين	-9.97936
▁سرگرمي	-9.98085
▁پنھنجو	-9.98089
▁نهايت	-9.98092
▁شيخ	-9.981
▁ڪناري	-9.98125
▁ڪيئي	-9.98127
▁رکندي	-9.98345
▁تشدد	-9.98348
▁رئيس	-9.9835
▁عاشق	-9.98361
▁چمڙي	-9.98386
▁دفعا	-9.98405
▁زن	-9.98426
▁پٽي	-9.98427
▁شهرين	-9.98435
▁گاڏي	-9.98515
▁فورم	-9.98516
ڄ	-9.98543
▁علمي	-9.98586
▁خوراڪ	-9.98605
la	-9.98645
▁زمرو	-9.98646
▁ننڍڙي	-9.98782
فه	-9.98808
▁ڇڏ	-9.98809
▁بعض	-9.98825
▁هائوس	-9.9886
▁وصول	-9.98892
▁ڊائريڪٽر	-9.9903
▁ٻ	-9.99124
مس	-9.99164
ارن	-9.99178
▁؟؟؟	-9.9926
لف	-9.99275
%	-9.99332
يء	-9.99359
ta	-9.99406
▁آڏو	-9.99443
▁دولت	-9.99559
▁خطري	-9.99576
▁رھيا	-9.99646
كل	-9.99656
▁دوري	-9.99661
▁وارث	-9.99716
▁ترا	-9.99736
▁پرواز	-9.99789
▁مسلمانن	-9.99828
▁الخ	-9.9983
▁گهرو	-9.99841
▁حصا	-9.99892
▁اعتبار	-9.99904
▁مرحله	-9.99905
▁محل	-9.99935
▁قبضو	-9.99965
▁هئاسين	-10.0006
▁پڙهو	-10.0016
▁يکي	-10.0017
▁عرض	-10.0019
▁ناھي	-10.0022
▁حصيداري	-10.0031
▁فيصلي	-10.0032
▁جز	-10.0041
▁سند	-10.0045
▁لكن	-10.0046
▁ڊگهو	-10.0047
▁نار	-10.0047
▁ڪنڌ	-10.0054
▁نون	-10.0054
▁قابليت	-10.0058
▁اطلاع	-10.0061
عد	-10.0061
▁هتان	-10.0061
▁ڊزائين	-10.0069
▁سرهندي	-10.0069
▁انسانن	-10.008
▁الج	-10.0085
ائل	-10.0088
▁لڳائي	-10.009
▁دؤر	-10.0095
▁نظارو	-10.0095
▁چوري	-10.0102
▁مشق	-10.0109
▁ڪمپنيون	-10.0113
▁طوفان	-10.0122
te	-10.013
افي	-10.0131
▁اگه	-10.0143
لس	-10.0146
▁آرٽ	-10.0148
▁جولاءِ	-10.0148
▁تنھنجي	-10.0153
ia	-10.0156
▁70	-10.0156
▁يقول	-10.0161
▁الن	-10.0166
▁اينڊ	-10.0169
▁تنگ	-10.018
يك	-10.018
ارا	-10.0183
▁معاشري	-10.0184
ation	-10.0185
▁سوالن	-10.0188
اً	-10.0189
▁ترجيح	-10.019
▁ماهرن	-10.0191
▁لڳل	-10.0199
▁انسانيت	-10.0204
▁حضور	-10.0205
▁بچڻ	-10.0207
▁قدرت	-10.0222
▁مآ	-10.0225
▁مائي	-10.023
▁رساله	-10.0242
آل	-10.0243
رح	-10.0244
▁سري	-10.0246
▁مها	-10.0267
▁ملندي	-10.0279
بة	-10.0279
▁ثبوت	-10.0282
▁ويٺا	-10.0284
▁شريڪ	-10.0287
is	-10.0293
▁منتقلي	-10.0296
جان	-10.0298
▁اح	-10.0309
▁سهڻي	-10.0309
ul	-10.031
▁ملندو	-10.0316
▁الل	-10.0322
▁پاڪستاني	-10.0322
وك	-10.0334
▁طبي	-10.0338
▁اٽڪل	-10.0339
▁ورهين	-10.034
▁پيامبر	-10.0344
▁ٽائيم	-10.0346
▁پائڻ	-10.035
▁ريڊيو	-10.0351
▁عم	-10.0355
▁تقريبا	-10.0357
▁نتيجن	-10.0363
▁فائدي	-10.0364
▁·	-10.0365
▁تقرير	-10.037
▁ريم	-10.0372
▁حيات	-10.038
▁آھيون	-10.0384
▁ڪُ	-10.0384
گن	-10.0386
داد	-10.0387
▁تباهه	-10.0392
▁انگيز	-10.0396
▁اينڊرائيڊ	-10.0397
▁عاد	-10.0398
▁مثالي	-10.0402
▁پهچ	-10.0424
▁اليوم	-10.0428
▁فري	-10.0429
▁اشتهار	-10.0432
▁ڏند	-10.0437
▁بلاڪ	-10.044
▁إن	-10.0452
▁شاعريءَ	-10.0453
اڙي	-10.0458
▁اختي	-10.0461
▁سرچ	-10.0462
▁ڪلب	-10.0481
▁مح	-10.0493
▁ٻڌائڻ	-10.0501
▁لڳندو	-10.0505
ro	-10.0513
▁عليك	-10.0517
▁يكون	-10.0518
آر	-10.0519
▁(1	-10.0527
▁سلامت	-10.0528
▁لڳائڻ	-10.053
▁آمد	-10.0536
▁ماڻي	-10.0556
▁ڄڻا	-10.0558
▁بنت	-10.0563
▁فارسي	-10.0565
▁رياضي	-10.0567
▁هذي	-10.0568
▁نوجوانن	-10.057
▁ڳ	-10.0574
ادي	-10.0574
▁سول	-10.0575
50	-10.0583
▁احترام	-10.0584
فل	-10.0589
▁ناس	-10.0592
▁ايڊ	-10.0594
▁مهر	-10.0594
▁ڏيکاريو	-10.0607
اسين	-10.0613
de	-10.0619
▁پڙهيو	-10.0624
پور	-10.0627
▁ره	-10.0634
▁سنه	-10.0634
▁ڇڏيندو	-10.0637
▁ورزن	-10.0641
▁ڊسڪ	-10.0643
▁بلا	-10.0648
▁وائي	-10.0649
▁ٿينديون	-10.0656
▁ماهي	-10.0662
▁ڊرائيور	-10.0667
▁داد	-10.067
▁مريم	-10.0673
▁هُئي	-10.0682
▁صف	-10.0688
رد	-10.0688
▁صفحو	-10.0694
▁نمائندگي	-10.0694
▁اسٽاڪ	-10.0695
▁هار	-10.0695
▁پڙهائي	-10.0697
ate	-10.0701
▁معك	-10.0704
▁حالتون	-10.0704
▁ڀريو	-10.0706
id	-10.0707
▁تعرف	-10.0711
▁چا	-10.0719
▁ڪاوڙ	-10.0721
▁واقعو	-10.0734
25	-10.0736
▁خارج	-10.0736
▁ٺاهيل	-10.0741
داري	-10.075
▁ننڍو	-10.075
▁آيت	-10.0757
▁كن	-10.0761
فا	-10.0763
▁ليڪن	-10.0764
آإ	-10.0765
▁صفائي	-10.0772
▁تحليل	-10.0776
▁تقسيم	-10.0779
▁ڊيسڪ	-10.0782
▁مددگار	-10.0783
▁اٺ	-10.0785
▁پيماني	-10.0786
▁فيك	-10.0786
▁وَ	-10.0788
▁چينل	-10.079
▁منك	-10.0796
كس	-10.0798
▁سٽ	-10.0802
▁فرانسيسي	-10.0807
▁گهٽتائي	-10.0807
▁اسپ	-10.0812
▁توسان	-10.0813
▁سياري	-10.0824
▁ملن	-10.0825
▁ڪنديون	-10.0831
اڪ	-10.0831
▁فى	-10.0832
▁شرم	-10.0833
▁پول	-10.0834
▁يوٽيوب	-10.0835
هآ	-10.084
▁مق	-10.0841
▁نقطي	-10.0845
▁ماء	-10.0852
▁معي	-10.0861
▁چڪر	-10.0862
زر	-10.0865
am	-10.0875
▁ض	-10.0876
▁مارجي	-10.088
▁معاف	-10.0887
▁شرطن	-10.0888
▁پَ	-10.0892
▁واسطو	-10.0893
▁خاصيت	-10.0896
▁خاصيتن	-10.0901
▁m	-10.0914
):	-10.0918
▁مستقل	-10.0922
نڊي	-10.0923
▁الش	-10.0924
▁رهجي	-10.0928
▁غائب	-10.095
▁رانديگرن	-10.0951
▁پسنديده	-10.0951
▁افغان	-10.0959
▁پوائنٽ	-10.096
▁اما	-10.0985
کو	-10.0985
▁وقف	-10.0988
▁حي	-10.0988
▁رھي	-10.0989
ra	-10.0991
▁اڪثريت	-10.0993
▁روئي	-10.0995
▁چرا	-10.1007
▁اج	-10.1012
▁اثرات	-10.1013
ch	-10.1018
▁^^	-10.1021
▁هئو	-10.1025
▁بش	-10.1025
اسي	-10.1027
▁ٽڪر	-10.1035
▁نھ	-10.1036
▁آپريٽنگ	-10.1037
▁سگھوٿا	-10.1037
▁كذا	-10.1038
▁نشاني	-10.1042
▁تصويرن	-10.1044
▁لئه	-10.1048
▁سامونڊي	-10.1066
▁ماڳ	-10.1068
▁پد	-10.1074
▁لاهي	-10.1078
قول	-10.1086
تم	-10.1089
يب	-10.1091
▁متعلق	-10.1096
▁مفيد	-10.1098
▁موجودگي	-10.1101
▁فيلڊ	-10.1103
▁پکي	-10.1107
▁حملي	-10.1112
رت	-10.1117
▁ڪهاڻيون	-10.1123
▁احس	-10.1123
▁اھڙي	-10.1124
▁هيٺان	-10.1128
▁برطانيا	-10.1153
▁صبر	-10.1155
قه	-10.1157
▁معاهدو	-10.1165
▁امر	-10.1167
▁(2)	-10.117
▁5.	-10.1172
دان	-10.1173
▁يالله	-10.1173
▁پريشاني	-10.1173
▁مطالعو	-10.1183
▁دست	-10.1187
▁واه	-10.1193
▁بھ	-10.1197
▁مرضي	-10.12
ion	-10.1209
▁اسمارٽ	-10.1213
▁مهينا	-10.1214
▁خل	-10.1215
▁كله	-10.1216
▁هندي	-10.1216
كه	-10.1218
▁فرم	-10.123
چو	-10.1236
▁صفحه	-10.1242
▁چوان	-10.1244
▁آپشن	-10.1244
تكم	-10.1245
▁29	-10.125
▁فا	-10.1253
▁35	-10.1261
▁اتان	-10.1278
▁الك	-10.1294
▁چڪاس	-10.1301
▁مطالعي	-10.1301
▁مستحڪم	-10.1301
▁ڊومين	-10.1302
13	-10.1303
▁الناس	-10.1305
▁واچ	-10.1306
▁گهرج	-10.1321
▁إ	-10.1332
▁جميل	-10.1337
▁اعرف	-10.1337
▁جھ	-10.1339
ent	-10.1348
ړ	-10.1359
▁اسٽوريج	-10.1362
▁روزگار	-10.1362
▁پمپ	-10.1363
▁ترميم	-10.1369
▁ڪارڻ	-10.1373
الا	-10.1376
▁لڳايو	-10.1378
um	-10.1383
▁of	-10.1393
▁هلندو	-10.1398
15	-10.14
▁بحران	-10.14
اا	-10.1404
طي	-10.1406
▁اصلاح	-10.1408
▁1-	-10.1413
▁هلندي	-10.142
▁مڃي	-10.1422
▁نيٽورڪ	-10.1422
▁sub	-10.1426
▁پياري	-10.1426
▁ننڍڙو	-10.1427
▁ثقافتي	-10.1431
▁شان	-10.1439
=	-10.1441
▁فني	-10.1449
▁پيدائش	-10.1453
▁ڏوهه	-10.1453
ٰ	-10.1457
▁شڪر	-10.1465
▁پيج	-10.1474
▁اڳواڻن	-10.1483
▁رحم	-10.1492
▁حالا	-10.1496
ُو	-10.1496
▁المهم	-10.1497
▁موڪلڻ	-10.1498
▁نڪ	-10.1504
▁تس	-10.1511
▁عالي	-10.1526
▁انگريزن	-10.1531
▁سائنسي	-10.1534
▁تفصيلي	-10.1537
▁and	-10.1543
▁ڌاري	-10.1545
▁آخرين	-10.1546
▁تبصرو	-10.1547
▁نر	-10.155
يعني	-10.1552
▁500	-10.1553
▁الق	-10.1554
▁وقتي	-10.1555
▁تياري	-10.1555
▁هارڊ	-10.1557
▁سينٽ	-10.156
▁قيام	-10.1576
▁يادگار	-10.1577
▁ٽو	-10.1579
▁رواج	-10.1581
▁ماسڪ	-10.1586
▁پاپ	-10.1588
فت	-10.159
▁اپيل	-10.16
▁پڇي	-10.1604
▁نم	-10.1611
▁مد	-10.1613
مة	-10.1618
▁ميشه	-10.162
▁هاء	-10.163
▁ٽرئفڪ	-10.1635
▁ايوارڊ	-10.1635
▁کاٻي	-10.1635
▁پروسيسنگ	-10.1639
▁فلسفي	-10.1651
▁فنڪشن	-10.1651
ائيڊ	-10.1652
▁اخلاقي	-10.1657
▁سائن	-10.1659
▁گيري	-10.1661
▁غذا	-10.1663
▁پيغمبر	-10.1666
▁انھيءَ	-10.1669
▁سوا	-10.1669
and	-10.167
▁پلس	-10.1676
▁تحرير	-10.1677
▁عادي	-10.1679
▁ماهه	-10.1684
▁۱	-10.169
▁مصروف	-10.1694
▁موبائيل	-10.1697
▁ڪريڊٽ	-10.1697
▁COVID	-10.1698
▁سڄڻ	-10.1698
▁حديث	-10.17
ههه	-10.1707
▁حر	-10.1709
ران	-10.1711
▁مليا	-10.1715
▁نسخو	-10.1715
ائو	-10.1718
▁شكلك	-10.1719
هڻ	-10.173
00	-10.1731
▁شا	-10.1731
▁چونڊڻ	-10.1739
to	-10.1743
ir	-10.1749
▁Y	-10.1755
▁نصب	-10.1757
▁روانو	-10.1759
طر	-10.1761
▁de	-10.1761
▁سکر	-10.1761
▁ڪتي	-10.1772
پس	-10.1774
▁فور	-10.1779
11	-10.1793
▁كثير	-10.1796
▁پورٽ	-10.1797
▁تضحك	-10.1798
▁لات	-10.1803
30	-10.1811
ڏو	-10.1816
▁توجيهي	-10.1821
گا	-10.1822
▁خالص	-10.1822
▁يادگيري	-10.1823
اين	-10.1824
بين	-10.1828
▁جمهوريت	-10.1833
وڊ	-10.1836
22	-10.1839
▁مسٽر	-10.1839
گل	-10.1842
▁ھتي	-10.1843
سان	-10.1843
▁روايت	-10.1844
▁تعجب	-10.1847
شت	-10.1853
▁سهڪار	-10.1856
▁كده	-10.1857
▁فارميٽ	-10.1857
▁تري	-10.1858
▁سيڪشن	-10.1858
▁تش	-10.1862
▁ڀيري	-10.1864
خر	-10.1872
▁عل	-10.1876
▁ٻاهران	-10.1881
:-	-10.1882
▁تقول	-10.1883
كي	-10.1884
▁بدقسمتي	-10.1884
▁ڪوٽ	-10.1885
▁2012	-10.1887
▁گذارڻ	-10.1891
▁d	-10.1891
▁مخ	-10.1898
▁طب	-10.1912
▁ٿڌي	-10.1914
▁جر	-10.1914
اع	-10.1916
▁سمارٽ	-10.1916
يات	-10.1918
▁بيٺل	-10.1918
▁فلٽر	-10.1919
▁يك	-10.1922
،"	-10.1926
او	-10.193
▁n	-10.1932
يف	-10.1935
ma	-10.1937
يئر	-10.1939
▁مهمان	-10.1941
▁شنو	-10.1943
▁هيل	-10.1943
هل	-10.1945
▁بازي	-10.1945
▁ويڪسين	-10.1948
▁انگلينڊ	-10.1948
▁بنائڻ	-10.1954
▁خشڪ	-10.1956
▁اُها	-10.1962
▁وراڻيو	-10.1962
▁ڪلو	-10.1964
لم	-10.1965
▁پيء	-10.1968
ut	-10.1976
▁وب	-10.1979
▁اعتراض	-10.198
▁باس	-10.1981
▁جهڙا	-10.1983
زو	-10.1984
▁تاج	-10.1986
▁ڊگري	-10.1986
▁ظاهري	-10.1988
▁گوشت	-10.1991
▁پڇڻ	-10.1993
▁اوهين	-10.1996
▁چڙهي	-10.1997
▁ماسٽر	-10.1999
▁مسافرن	-10.2001
▁باڪس	-10.2007
▁عطا	-10.201
▁چيئرمين	-10.2012
▁هيڪ	-10.2013
▁راهه	-10.2013
▁الو	-10.2016
▁ــ	-10.2016
▁صدارت	-10.2017
▁2010	-10.2018
▁اھا	-10.2025
▁ديوار	-10.2038
▁ڊيٽابيس	-10.2044
▁ڪميونٽي	-10.2044
▁فين	-10.205
▁ھٿ	-10.2054
شر	-10.2056
▁سستي	-10.2057
▁ثاني	-10.206
▁کنڊ	-10.2065
▁چونڊن	-10.207
▁فنڊ	-10.207
▁ڪٽ	-10.2075
▁ڪرڪيٽ	-10.2077
▁پنهنجون	-10.2082
سنڌي	-10.209
ٽا	-10.2091
▁آي	-10.2092
▁ڪان	-10.2092
▁تخليقي	-10.2093
▁ڀت	-10.2098
▁برو	-10.21
رة	-10.2102
▁مب	-10.2104
li	-10.2104
▁سپري	-10.2108
▁ڊسپلي	-10.2108
▁هونئن	-10.211
▁معنى	-10.2113
▁2011	-10.2114
▁كمان	-10.2119
چر	-10.212
▁عملن	-10.212
▁تڪڙو	-10.2125
▁بچي	-10.2128
▁منھنجو	-10.2144
▁همه	-10.2144
هههههههههههههه	-10.2158
▁ڪسٽم	-10.216
▁نالن	-10.216
▁3-	-10.2172
▁ڪيميائي	-10.2173
▁صحتمند	-10.2174
000	-10.2174
▁طرفن	-10.2181
▁ڪاريگر	-10.2185
▁ڏٺي	-10.2185
▁ڏياري	-10.2186
نج	-10.2186
▁200	-10.2189
زين	-10.2191
ڪري	-10.2192
قدر	-10.2192
▁اميدوار	-10.2195
▁ملائي	-10.2205
▁ڪارپوريشن	-10.2205
قل	-10.222
16	-10.2222
▁هيڊ	-10.2224
▁كلهم	-10.2233
▁سگنل	-10.2238
▁نصيب	-10.2239
▁آڊيو	-10.224
▁رهندڙ	-10.2241
▁پيس	-10.2246
▁الر	-10.2252
ot	-10.2256
ac	-10.2259
▁تلاش	-10.2271
▁نوٽيس	-10.2273
ُن	-10.2274
▁سختي	-10.2278
▁زهر	-10.2283
▁جامع	-10.2287
▁ڪارڪنن	-10.2291
▁گنجائش	-10.2304
▁احوال	-10.2304
▁دبئي	-10.2307
▁تج	-10.2307
▁اختلاف	-10.2308
▁جذباتي	-10.2311
▁ڪيسن	-10.2312
▁مرض	-10.2313
▁ڇوڪرو	-10.2313
▁جيتري	-10.2315
▁ضلعي	-10.2318
▁گرين	-10.2336
▁جدوجهد	-10.2337
▁مداخلت	-10.2337
مير	-10.2342
▁حس	-10.2353
▁ڪاٺ	-10.2353
▁بقى	-10.236
est	-10.2361
▁اسٽار	-10.2365
▁ٽين	-10.2367
▁تب	-10.2369
▁حوالو	-10.2375
▁گلي	-10.2376
▁ويندس	-10.238
سه	-10.2381
▁ڏهن	-10.2383
▁مليل	-10.2386
▁Z	-10.239
ڷ	-10.2391
▁بري	-10.2405
▁شكله	-10.2412
فو	-10.2413
▁شڪايت	-10.2416
▁ماحولياتي	-10.2417
▁کسي	-10.243
▁ضحكت	-10.2431
رك	-10.2433
▁احلى	-10.2438
▁ديگه	-10.2438
+	-10.2441
▁آغاز	-10.2441
▁ھجي	-10.2446
▁سگهيا	-10.2446
ئا	-10.2448
ائيءَ	-10.245
▁تعالي	-10.245
▁ڪٿان	-10.2455
▁سگهندي	-10.2457
▁جَ	-10.2459
▁منفي	-10.2466
▁پڇ	-10.2467
▁اقتدار	-10.247
▁ايجنٽ	-10.247
▁هُ	-10.2472
▁بجيٽ	-10.2474
▁يقينا	-10.2478
▁جتان	-10.2482
▁بلڪ	-10.2489
▁دان	-10.2503
▁محروم	-10.2504
▁کيڏڻ	-10.2504
▁مطمئن	-10.2504
▁طبيعت	-10.2504
▁شڪست	-10.2508
▁ساز	-10.2508
▁جشن	-10.2514
گاه	-10.252
▁حرارت	-10.2521
▁اهڙيون	-10.2527
▁خلق	-10.2543
ژ	-10.2544
عليه	-10.2549
▁31	-10.2552
وان	-10.2554
ڊر	-10.2558
▁لآ	-10.2559
▁اندوز	-10.2572
▁رجسٽريشن	-10.2572
رائي	-10.2573
▁تنھن	-10.2574
NT	-10.2574
▁جنت	-10.2575
▁يع	-10.258
▁ڪورس	-10.2582
▁نيب	-10.2584
▁گهٽائڻ	-10.259
انو	-10.259
▁بهار	-10.2593
نى	-10.2598
▁وع	-10.2599
nd	-10.2603
▁أي	-10.2604
▁ڌاتو	-10.2605
▁ڪپڙن	-10.2606
▁پورا	-10.2612
▁هِن	-10.2614
لر	-10.2619
خت	-10.2626
▁مٺي	-10.2627
▁تح	-10.2628
▁برادري	-10.2633
▁دعويٰ	-10.2639
▁يال	-10.2639
▁2008	-10.2643
▁ماي	-10.2645
▁ڪئ	-10.265
يلي	-10.265
▁دوم	-10.2655
14	-10.2656
▁پيارا	-10.2658
▁ٽاپ	-10.2665
▁جماعت	-10.2667
▁ماٺ	-10.2671
▁مرحلي	-10.2674
طور	-10.2676
▁پيچيده	-10.2677
ابي	-10.2679
▁اکرن	-10.2687
رف	-10.2695
▁ناممڪن	-10.2707
▁اِهو	-10.2708
▁وير	-10.2709
؟؟؟	-10.2716
40	-10.2717
▁ليزر	-10.2718
▁صلاحيتن	-10.2722
▁حمل	-10.2723
▁وڏيون	-10.2727
▁ڪانگ	-10.2727
▁سروي	-10.2728
كِ	-10.273
ية	-10.2737
se	-10.274
▁ھيٺ	-10.274
▁نمايان	-10.2742
▁بچايو	-10.2743
▁ڌيءَ	-10.2756
▁گولي	-10.2756
▁اخي	-10.2757
▁کم	-10.2758
▁حرام	-10.2759
حل	-10.2761
ڪٽر	-10.2764
▁ڇت	-10.2766
▁سردار	-10.2775
▁منعقد	-10.2776
▁خي	-10.2778
▁فيڪٽري	-10.2779
Y	-10.278
▁ويجهي	-10.278
▁هستي	-10.2783
▁رکندا	-10.2785
▁قل	-10.2786
▁سيڪنڊ	-10.2787
▁يم	-10.2789
▁تف	-10.279
▁اِن	-10.2797
▁ڪچهري	-10.2799
▁سست	-10.2799
ولو	-10.2806
▁دار	-10.283
▁تعلقات	-10.2835
▁عند	-10.2836
▁ڪلوميٽر	-10.2845
▁ڪانگريس	-10.2845
▁پهچايو	-10.2849
ضحك	-10.2849
▁طريقيڪار	-10.2851
▁خطي	-10.2861
▁نفسياتي	-10.2862
▁حبيب	-10.2867
im	-10.2873
▁ادارو	-10.2875
▁كتير	-10.2878
▁احم	-10.2879
كن	-10.2879
▁مشغول	-10.288
▁شيطان	-10.2882
▁لينڊ	-10.2882
▁حج	-10.2884
▁اع	-10.2888
▁بدي	-10.2892
▁عراق	-10.2897
قو	-10.2898
▁لما	-10.29
▁is	-10.2901
▁بخ	-10.2904
▁ادري	-10.2909
me	-10.291
▁چوٿين	-10.2915
جڻ	-10.2916
▁داستان	-10.2917
▁توکان	-10.2919
▁ڪيائون	-10.2932
▁رن	-10.2933
▁احسان	-10.2936
▁ڊيل	-10.294
▁روڪيو	-10.2948
▁هاري	-10.295
▁چانهه	-10.295
▁ملائيشيا	-10.295
▁ٻانهن	-10.295
sh	-10.2951
▁فرمايو	-10.2952
▁جڳ	-10.2953
انگ	-10.2958
ئه	-10.2969
▁رفت	-10.2973
▁ڄاڻو	-10.2974
نديون	-10.2975
▁نس	-10.2979
▁گري	-10.2979
▁اُنهن	-10.2998
إ	-10.3002
قا	-10.3004
▁بشر	-10.3004
lo	-10.3009
▁ٽريڪ	-10.3009
▁فيها	-10.3019
▁رهنمائي	-10.3022
▁ٻارڙن	-10.3027
▁گهمڻ	-10.3027
▁مند	-10.3028
▁ٻج	-10.3029
▁موڙ	-10.303
▁ڊيم	-10.3036
ٽين	-10.304
▁انها	-10.3044
▁نجي	-10.3046
▁U	-10.3049
▁ڏهه	-10.3054
▁ڇڏيندا	-10.3056
▁پروجيڪٽ	-10.3056
▁پارليامينٽ	-10.3056
▁ويٺل	-10.3057
▁اعظم	-10.3058
▁وسيلي	-10.306
="3	-10.306
▁سنئون	-10.3061
▁قطار	-10.3061
▁گريڊ	-10.3065
▁برف	-10.3068
▁ايڏو	-10.3071
▁پينل	-10.3073
▁معصوم	-10.3082
▁ننڍن	-10.3092
▁بجاءِ	-10.3094
▁پوئين	-10.3096
▁يضحك	-10.3099
▁خبردار	-10.3099
▁ناچ	-10.3106
▁ٽري	-10.3106
▁ڪوٺي	-10.3114
▁وٺندي	-10.3115
▁هنڌن	-10.3118
▁فريم	-10.3119
▁بچاء	-10.3123
▁سڪ	-10.3124
▁ٽيگ	-10.3127
▁اعزاز	-10.3128
▁ميڊيڪل	-10.3129
▁ديس	-10.313
▁واڌاري	-10.3133
▁مدل	-10.3133
▁پابند	-10.3135
يها	-10.3135
صور	-10.3137
▁خام	-10.3138
▁ڪمن	-10.3147
di	-10.315
▁اق	-10.3154
▁همين	-10.3154
۔۔	-10.3158
▁ڏيکارڻ	-10.3166
▁الب	-10.3167
▁لاهور	-10.3167
▁مارڻ	-10.3169
▁انگن	-10.3171
▁رهائش	-10.3171
01	-10.3172
▁انگريز	-10.3178
▁سرحد	-10.3185
▁چاھيو	-10.3189
▁اختيارن	-10.319
▁ويچار	-10.3191
مار	-10.3192
▁پون	-10.3194
ولا	-10.3196
▁چهري	-10.3197
رج	-10.3198
▁استحڪام	-10.3199
▁وسيلن	-10.32
▁مشورو	-10.3202
▁مرا	-10.3209
▁فراهمي	-10.3209
▁راڄ	-10.3213
▁ڪسٽمر	-10.3213
▁رنگن	-10.3219
▁انفرادي	-10.3219
▁گلن	-10.322
▁يقينن	-10.322
▁چيٽ	-10.3221
▁ڀلو	-10.3221
▁ڊاڪٽرن	-10.3222
▁ھل	-10.3227
▁خاني	-10.3233
▁سوراخ	-10.3236
۱	-10.3241
منهنجي	-10.3243
▁وچولي	-10.3245
▁پرست	-10.3251
▁تجربن	-10.3251
وووو	-10.3256
▁مرڪ	-10.3258
mm	-10.3263
رام	-10.3266
18	-10.3266
▁برطانوي	-10.3272
▁اڪيلي	-10.3273
▁واهه	-10.3276
▁متان	-10.3281
ائڊ	-10.3281
▁بھترين	-10.3281
▁الص	-10.3284
▁اولين	-10.3284
▁اجل	-10.3289
گار	-10.3291
ڊا	-10.3297
▁چئبو	-10.3309
▁سمجهاڻي	-10.331
دري	-10.3314
▁فطري	-10.3316
▁فوٽ	-10.3317
▁منجهان	-10.3319
ههههههههههههههه	-10.3322
▁ڪتو	-10.3323
▁باقاعده	-10.3329
▁جاپان	-10.3331
▁بقا	-10.3338
▁تازي	-10.3339
▁قدمن	-10.334
▁برآمد	-10.3345
▁خاتمي	-10.3345
links	-10.3345
▁سٽي	-10.3348
▁خانگي	-10.3352
است	-10.3359
▁ڪيبل	-10.3359
▁بوٽ	-10.3369
آي	-10.3376
▁w	-10.3381
▁ڪنيڪشن	-10.3381
▁مرحلن	-10.3381
▁سولو	-10.3384
▁سروسز	-10.3386
▁کٽي	-10.3391
▁لاگ	-10.3396
▁جادو	-10.34
▁معافي	-10.34
▁جل	-10.3405
▁ڀارتي	-10.3411
ائيندو	-10.3414
ايم	-10.3415
▁داري	-10.3416
▁مندر	-10.3418
▁افزائي	-10.3419
▁صفا	-10.3419
▁آثار	-10.3419
▁واعدو	-10.3427
قت	-10.343
▁دروازو	-10.343
19	-10.3434
▁نكت	-10.3443
))	-10.3446
▁رسم	-10.3453
▁الائي	-10.3454
▁ننڍپڻ	-10.3455
▁ميزبان	-10.3462
▁آزاديءَ	-10.3463
▁co	-10.3468
▁پهر	-10.347
▁مبارڪ	-10.3471
▁اله	-10.3485
▁st	-10.3491
▁سرٽيفڪيٽ	-10.3492
▁پالڻھار	-10.3492
▁today	-10.3492
club	-10.3492
▁ادارا	-10.3495
بري	-10.3495
▁شدت	-10.3495
▁اكثر	-10.3496
آم	-10.3506
▁رسيد	-10.3509
▁چوٽي	-10.3509
▁پارٽين	-10.3522
▁قيامت	-10.3529
▁تنھنڪري	-10.3529
▁لاڪ	-10.353
▁متفق	-10.353
ڻا	-10.3533
▁ڪمائي	-10.3535
▁پيشڪش	-10.3536
▁سيلز	-10.3538
J	-10.3538
▁شير	-10.3543
▁سُر	-10.3545
▁مارڪ	-10.3546
ڃ	-10.3554
▁سچي	-10.3554
▁سچو	-10.3558
▁جج	-10.3561
▁Next	-10.3566
▁معتبر	-10.3567
▁چاپ	-10.3569
ورو	-10.357
پن	-10.3575
▁آم	-10.3576
▁پنجاب	-10.3591
▁باز	-10.3592
▁Re	-10.3599
▁حادثي	-10.3602
▁برنامه	-10.3604
▁دون	-10.3609
ڍ	-10.3611
مينٽ	-10.3613
▁i	-10.3634
ڪاري	-10.364
▁افيئر	-10.3642
▁عيسي	-10.3643
▁اداڪار	-10.3643
▁آئوٽ	-10.3646
▁سارو	-10.3651
▁شئي	-10.3653
▁پيچ	-10.3654
▁ڳالهائيندي	-10.3658
:)	-10.3661
▁هنا	-10.3663
▁تنظيمن	-10.3664
able	-10.3664
▁تهذيب	-10.3664
وق	-10.3669
ثر	-10.3669
▁لله	-10.3669
هان	-10.367
▁هيلو	-10.3679
▁ڀروسو	-10.3679
▁رينج	-10.3683
▁خوشيءَ	-10.3692
▁شعبن	-10.3696
اپ	-10.3705
▁اصولن	-10.3705
▁شكل	-10.3706
▁جوڳي	-10.371
▁ڊو	-10.3711
▁مصيبت	-10.3717
▁اسٽيج	-10.3721
▁سٺا	-10.3721
▁نڪي	-10.3727
▁45	-10.3729
▁پرت	-10.3738
▁اردو	-10.3739
▁ديگر	-10.374
چه	-10.3745
▁ماريو	-10.3752
▁بگ	-10.3753
▁تعليق	-10.3754
▁پورهيت	-10.3755
▁چئو	-10.3757
▁رشتي	-10.3759
کا	-10.3761
▁حسب	-10.3761
▁سمجھ	-10.3761
▁رهو	-10.3762
▁رُ	-10.3763
▁وڳي	-10.3766
▁امزح	-10.377
لى	-10.377
نده	-10.3787
اوي	-10.3793
▁سمجھي	-10.3795
▁ايجاد	-10.3795
▁رياستن	-10.3795
▁ڏسان	-10.3796
▁سؤ	-10.3797
▁ڪينسر	-10.3797
▁خداوند	-10.3797
▁طبقي	-10.3798
▁ڊبليو	-10.3798
▁سڏي	-10.3802
▁ٿڪ	-10.381
▁استادن	-10.3811
▁وڏين	-10.3811
▁چونڊي	-10.3814
▁الحين	-10.3823
▁احتياط	-10.3832
▁ڪرسمس	-10.3832
▁کانئس	-10.3834
▁سچائي	-10.3834
▁سياحن	-10.3836
▁تخ	-10.3838
ry	-10.3841
وع	-10.3842
▁آيس	-10.3843
▁تسلم	-10.3849
▁نت	-10.386
j	-10.3861
▁تبديليون	-10.3865
▁احب	-10.387
▁بيوقوف	-10.387
▁عيسى	-10.387
▁سالياني	-10.3871
▁ڇڪڻ	-10.3875
▁ڇهه	-10.3878
▁ايپليڪيشنن	-10.388
▁اِ	-10.3884
▁ڪتن	-10.3887
▁ٿڌو	-10.3891
▁جناب	-10.3897
▁وڪري	-10.3902
▁نظرات	-10.3906
▁عرصو	-10.3909
▁صنف	-10.391
▁اديب	-10.3915
▁گئس	-10.3916
▁آپ	-10.3916
▁پائيدار	-10.3916
▁رڪن	-10.3921
▁اخ	-10.3923
ھر	-10.3929
▁ٽرمينل	-10.3937
▁مک	-10.3937
▁جت	-10.3938
os	-10.3941
▁ٽر	-10.395
▁منتظر	-10.3951
تِ	-10.3953
▁صوفي	-10.3954
▁جانچ	-10.3954
▁ملازمت	-10.396
▁ڪه	-10.396
▁گهڻيون	-10.3961
▁لکين	-10.3971
▁be	-10.3973
▁قلبي	-10.3974
▁پايان	-10.3975
وڪ	-10.3975
ڇو	-10.398
▁همت	-10.3983
علي	-10.3985
ne	-10.3985
▁£	-10.3987
▁ڪھڙي	-10.3989
▁مغربي	-10.3992
▁غربت	-10.3992
▁لهر	-10.3993
▁ترسيل	-10.3994
▁صار	-10.3995
▁نازڪ	-10.3995
▁رڙ	-10.3996
▁منجه	-10.3996
▁قطر	-10.3996
ڪم	-10.3996
▁رول	-10.4
جم	-10.4005
▁لان	-10.4013
▁متحده	-10.4013
▁۲	-10.4014
▁خانداني	-10.4025
▁قبر	-10.4027
▁هڪدم	-10.403
اله	-10.403
▁32	-10.4039
▁رڪاوٽ	-10.4043
▁پراڻو	-10.4044
▁تخت	-10.405
▁روان	-10.4055
▁<<<	-10.4061
▁پئسو	-10.4065
▁ڀٽو	-10.407
ine	-10.4082
▁عين	-10.4087
اڻون	-10.4091
▁ڦر	-10.4091
▁وو	-10.4092
ڵ	-10.4097
▁وفا	-10.4099
▁ڳوليو	-10.41
▁هرڪو	-10.4102
▁نشاندهي	-10.4104
▁ڪڏھن	-10.4104
▁پاسورڊ	-10.4104
▁ويزا	-10.4109
▁گلاس	-10.4111
▁اسڪولن	-10.4114
▁؟!	-10.4115
▁والو	-10.4118
ضي	-10.4124
ڱ	-10.4125
▁ڪام	-10.4138
▁لکيا	-10.4145
▁سڃاڻي	-10.4147
جھ	-10.4151
▁4-	-10.4152
ريل	-10.4155
▁XNUMX	-10.417
▁واس	-10.4177
▁تعاليٰ	-10.4184
▁رازداري	-10.4184
▁رستن	-10.4185
لام	-10.4186
▁لال	-10.419
▁ڪمال	-10.4193
▁ٽريننگ	-10.4198
الو	-10.4209
▁هليا	-10.4217
▁ضد	-10.4234
▁رائع	-10.4238
▁هوڏانهن	-10.4244
▁كلام	-10.4244
وها	-10.4246
▁دروازي	-10.4249
▁صوبي	-10.426
▁شاهي	-10.426
▁صحبت	-10.4266
▁سوين	-10.4267
▁ڪيڏو	-10.4268
▁ڪيترين	-10.4273
▁مٽائي	-10.4277
▁تنهنجا	-10.4278
▁جڳھ	-10.4279
▁لب	-10.428
▁جاپاني	-10.4281
▁چهرو	-10.4283
▁پال	-10.4292
mo	-10.4294
ٻي	-10.4302
▁فاطمه	-10.4303
▁جستجو	-10.4304
اٽ	-10.4304
▁انتظامي	-10.4307
ment	-10.4307
▁پليئر	-10.4307
▁ايپس	-10.4314
ant	-10.4322
اص	-10.4323
▁نج	-10.4323
▁مخالفت	-10.4333
تح	-10.4335
َن	-10.4338
▁خوفناڪ	-10.4344
▁حساس	-10.4345
▁ڏور	-10.4348
حه	-10.4349
▁تبديلين	-10.4354
▁سدا	-10.4354
▁ٽڪ	-10.4361
پٽ	-10.4362
▁رپيا	-10.437
▁لكم	-10.437
▁پيارو	-10.4376
▁ضايع	-10.4384
▁قيادت	-10.4384
▁ڪڍڻ	-10.4394
لها	-10.4396
▁منو	-10.4401
▁رَ	-10.4403
▁اينٽي	-10.4404
▁ايڏي	-10.4415
▁ڍ	-10.4417
تري	-10.4418
▁ماما	-10.4419
ood	-10.4421
ُ،	-10.4421
ie	-10.4421
▁وجه	-10.4424
▁●	-10.443
▁احنا	-10.4432
▁مجموعو	-10.4433
▁بلوچ	-10.4433
▁خوبي	-10.4434
▁چنين	-10.4436
▁ڪالهه	-10.4437
up	-10.4439
▁خوشبو	-10.444
▁يب	-10.4443
بد	-10.4448
مع	-10.4449
▁x	-10.4451
▁چونڊيل	-10.4454
شه	-10.4454
▁وٽان	-10.4456
▁نفسي	-10.4457
▁نياز	-10.4458
▁بني	-10.4464
▁گھ	-10.4464
▁العالم	-10.4467
21	-10.4468
عمل	-10.4468
ااااا	-10.4477
▁سپ	-10.4478
▁خطاب	-10.4479
▁سيشن	-10.448
▁شفا	-10.4481
▁کير	-10.4481
▁حاجي	-10.4485
▁ڏسجي	-10.4489
▁عڪس	-10.4493
▁موٽڻ	-10.45
▁شمسي	-10.4506
▁Twitter	-10.4506
▁عارضي	-10.4506
▁پبلڪ	-10.4506
▁iOS	-10.4507
▁نص	-10.4513
▁طالبان	-10.4515
▁ـــ	-10.4516
اره	-10.4516
▁روزي	-10.4519
▁رام	-10.4523
▁لائيٽ	-10.4527
▁اكل	-10.4527
▁منڊي	-10.4528
صح	-10.4532
▁بزرگ	-10.4535
اهه	-10.4536
▁فنڪار	-10.454
▁ٿورا	-10.4544
▁مزاج	-10.4549
▁پهرئين	-10.4549
▁حافظ	-10.4552
▁قيمتون	-10.4555
▁بيٺي	-10.4557
▁رهيس	-10.4572
ږ	-10.4573
دة	-10.4575
ts	-10.4579
▁گلاب	-10.458
غير	-10.4585
جهي	-10.4587
▁ديو	-10.4587
ce	-10.4587
▁لائبريري	-10.4589
▁منتخب	-10.4589
▁نمونو	-10.4589
▁ڪٽنب	-10.4589
▁انسٽاليشن	-10.4591
▁ۈ	-10.4597
▁ڪشمير	-10.4598
▁منجھ	-10.46
وئي	-10.4602
▁أم	-10.4604
▁پتي	-10.461
▁شك	-10.4611
يري	-10.4614
▁2:	-10.4616
يق	-10.4616
هاڻي	-10.4617
▁جاني	-10.4622
▁ڀڄي	-10.4624
▁خاموشي	-10.4626
▁چئلينج	-10.463
▁مذاق	-10.4631
هون	-10.4631
▁ٽرمپ	-10.4632
▁ڏنائين	-10.4633
▁((	-10.4635
▁بنجي	-10.4635
▁رستا	-10.4635
▁تحياتي	-10.4647
▁گرفت	-10.4651
▁گاڏين	-10.4661
▁بع	-10.4663
▁ڦري	-10.4663
▁نگاه	-10.4664
▁سنگاپور	-10.4672
▁يوسف	-10.4672
▁ٻاھر	-10.4672
يڪل	-10.4673
▁ڊيگهه	-10.4674
▁برائوزر	-10.4674
▁ڪرنسي	-10.4674
▁جريان	-10.4683
▁هلا	-10.4683
▁مادر	-10.4683
▁ديوان	-10.4687
▁مج	-10.4693
▁ڀائرن	-10.4693
▁ڇوڪرين	-10.4694
▁ادي	-10.4697
▁نان	-10.4697
قر	-10.4701
ڏا	-10.4705
▁جوش	-10.4707
▁فائدن	-10.4714
▁معروف	-10.4714
▁نامي	-10.4717
▁شهرت	-10.4717
▁ڏسندو	-10.4725
▁صلي	-10.4727
وحيد	-10.4731
▁بوتل	-10.4736
▁فائي	-10.4747
شم	-10.4748
ٽري	-10.4748
ريا	-10.4751
▁ظاھر	-10.4756
▁يهمك	-10.4758
ڙيءَ	-10.4763
▁كلها	-10.4764
▁پاسخ	-10.4764
عرف	-10.4768
▁وٺن	-10.477
▁زم	-10.4776
ينا	-10.4777
▁قبضي	-10.4781
ti	-10.4781
▁g	-10.479
80	-10.479
▁چال	-10.4792
▁ليڪ	-10.4792
▁فلمون	-10.4793
▁ڏٺا	-10.4796
ذي	-10.4798
▁رعايت	-10.4798
▁بلوچستان	-10.4799
▁نظرثاني	-10.4799
▁جدت	-10.48
رض	-10.4804
سنواريو	-10.4812
▁تابع	-10.4817
▁اص	-10.4818
▁گذريو	-10.4822
▁لاس	-10.4828
▁رويي	-10.4829
▁تل	-10.4836
▁ڪراچيءَ	-10.4842
▁بدن	-10.4843
▁پڙهندڙن	-10.4843
ha	-10.4846
▁بدلائي	-10.4847
مبر	-10.4847
▁فعلا	-10.4851
▁خرابي	-10.4861
▁سائٽ	-10.4865
▁بقول	-10.4868
▁سوار	-10.4871
▁يت	-10.4874
▁اھم	-10.4881
▁سکو	-10.4881
▁پيپلز	-10.4883
24	-10.4883
▁سينگار	-10.4885
▁مظاهرو	-10.4891
▁الز	-10.4893
ميل	-10.4894
▁هرگز	-10.4896
جد	-10.4896
جيڪڏهن	-10.4899
▁دائري	-10.49
▁جڳهن	-10.4905
دين	-10.4915
▁ونڊ	-10.4922
▁رسمي	-10.4923
▁مقبول	-10.4924
▁ٽپ	-10.4925
▁بندوبست	-10.4926
▁ڏٺم	-10.4926
▁°	-10.493
▁حذف	-10.4932
XNUMX	-10.494
▁v	-10.4943
مز	-10.4947
▁رسي	-10.495
▁تصويري	-10.495
▁شاه	-10.4958
▁ڏنيون	-10.4963
▁عمران	-10.4964
▁صفحن	-10.4969
▁قاتل	-10.497
▁مهارت	-10.497
ist	-10.4975
▁پيوند	-10.4975
▁ملندڙ	-10.4976
▁سکي	-10.498
▁پلگ	-10.4981
▁عيسائي	-10.4984
▁وسري	-10.4984
▁شود	-10.4991
▁برد	-10.4999
▁دهشتگردي	-10.5
▁هيٺيون	-10.5008
▁فروغ	-10.5012
▁ميلاپ	-10.5015
▁چوندي	-10.5017
▁طبعا	-10.502
▁فلمن	-10.5022
▁هيء	-10.5043
▁رولي	-10.5045
▁مزدور	-10.5052
▁پيپر	-10.5053
▁ڇهن	-10.5056
▁ڪيريئر	-10.5059
▁بدلجي	-10.506
ell	-10.5062
اااااا	-10.5063
▁سمجھڻ	-10.5064
▁اِها	-10.5065
▁مم	-10.5067
▁حم	-10.5069
▁پوندا	-10.5081
▁آلو	-10.5084
▁راڳ	-10.5085
▁امڪاني	-10.5087
▁ريزي	-10.5089
▁خالد	-10.5089
▁جيئڻ	-10.5089
▁گھڻا	-10.5091
▁چٽ	-10.5093
▁ويندڙ	-10.5094
▁پرنٽ	-10.5098
يڊ	-10.5098
▁گائيڊ	-10.51
▁پئسن	-10.5102
عة	-10.5104
▁كي	-10.5106
▁اڪ	-10.5113
▁سمجهو	-10.5119
گان	-10.5123
ليٽ	-10.5124
▁بايد	-10.5131
▁گهم	-10.5135
سنڌ	-10.5137
om	-10.5141
تان	-10.5141
▁معمول	-10.5144
▁وحده	-10.5145
حت	-10.515
▁(3)	-10.5154
▁سمورا	-10.5154
علامه	-10.5158
▁مِ	-10.5163
▁بندر	-10.5164
▁راڻي	-10.5168
▁بعدين	-10.5171
▁ڌڻي	-10.5174
ورا	-10.5178
▁1:	-10.518
▁عادت	-10.5183
ديد	-10.5186
▁ملوث	-10.5187
▁رضا	-10.5187
▁محقق	-10.5188
▁جيئرو	-10.519
▁شديد	-10.5195
▁يس	-10.5197
ڊس	-10.5197
▁الأ	-10.5202
▁سرد	-10.5203
▁بچت	-10.5209
▁عدم	-10.521
▁ٽيڪ	-10.5216
▁وٺندا	-10.5223
▁پوڻ	-10.5225
▁وأ	-10.5226
▁ننڍا	-10.523
tion	-10.523
▁اهلڪار	-10.5232
▁آگاهي	-10.5233
▁موقف	-10.5234
▁وانت	-10.5238
▁پاڙي	-10.5252
▁رکيا	-10.5253
▁ھوندو	-10.5256
▁ڊيوائس	-10.5264
مسنگ	-10.527
▁نيويارڪ	-10.5274
▁ڪريم	-10.5275
▁سهي	-10.5278
ائيٽ	-10.5278
▁عيسيٰ	-10.5278
▁جڙيل	-10.5284
▁انجنيئرنگ	-10.5284
▁2000	-10.5287
بع	-10.5287
مك	-10.529
▁جوڙو	-10.5291
▁ٻلي	-10.5292
▁ولد	-10.5293
ائيندي	-10.5298
گه	-10.5298
60	-10.53
▁سراسري	-10.5301
▁نقش	-10.5309
▁سلامتي	-10.531
▁اولهه	-10.5312
▁جپان	-10.5313
آت	-10.5315
▁ٺاهيندڙن	-10.5317
▁درآمد	-10.5319
▁ٽيڪنيڪل	-10.5319
▁اجنبي	-10.5319
▁گلوبل	-10.532
کر	-10.5321
▁اڇو	-10.5327
▁ڪيڏي	-10.533
▁پئمان	-10.5332
▁تيئن	-10.5333
▁هند	-10.5338
▁{	-10.534
▁وربي	-10.5342
▁سڌ	-10.5359
▁ميري	-10.5362
سال	-10.5363
▁اپليڪيشن	-10.5363
▁پرائمري	-10.5363
▁فضيلت	-10.5363
▁ڏهاڪي	-10.5364
▁دٻاءُ	-10.5368
▁ربي	-10.5369
▁پروڊڪٽس	-10.5372
▁مايوس	-10.5374
▁."	-10.5381
▁نازل	-10.5384
چا	-10.5393
ٽڪ	-10.5395
▁ماه	-10.5396
ايي	-10.5398
▁سمور	-10.54
▁ايجنسي	-10.5403
▁گڏجاڻي	-10.5404
▁شل	-10.5404
سك	-10.5406
▁اسٽاپ	-10.5409
▁بنائي	-10.5409
99	-10.541
روح	-10.541
گز	-10.5412
▁فائرنگ	-10.5414
Z	-10.5425
▁سينيٽ	-10.543
▁بيس	-10.5434
▁موقعن	-10.5441
▁>>>	-10.5446
▁اٽلي	-10.5447
▁ريڊ	-10.5448
▁حاڪم	-10.5449
▁کرد	-10.545
▁شم	-10.5451
▁ادائگي	-10.5453
▁لشڪر	-10.5453
▁فحش	-10.5454
▁ڳوليندا	-10.5455
▁نعمت	-10.5463
▁غزل	-10.5463
▁مائٽ	-10.5463
ڌي	-10.5464
▁منها	-10.5466
▁اضحك	-10.5471
▁آهه	-10.5472
▁انچ	-10.5473
تين	-10.5475
▁بيحد	-10.5476
28	-10.5482
لينڊ	-10.5487
▁Ro	-10.5493
▁مادري	-10.5496
تى	-10.5496
ڪيو	-10.5498
▁ڳاڙهو	-10.5499
نيا	-10.5502
▁جذبات	-10.5504
لت	-10.5507
▁پويون	-10.5514
▁سعيد	-10.5515
▁ڪڍيو	-10.5519
▁^	-10.5523
▁ڪتا	-10.5531
▁ٽڪيٽ	-10.5537
کن	-10.5538
وال	-10.5539
▁فار	-10.5543
ھڻ	-10.5543
33	-10.5544
▁ايسوسيئيشن	-10.5544
▁مٿس	-10.5544
▁نامو	-10.5544
▁پکڙيل	-10.5545
ائيندڙ	-10.5545
بط	-10.5547
▁تبي	-10.5547
وڪي	-10.555
▁2009	-10.5555
▁جملو	-10.5558
▁ٺ	-10.556
▁برش	-10.5562
ST	-10.5562
▁رابطن	-10.5563
▁اشتهارن	-10.5565
▁چشم	-10.5569
▁اليڪٽرانڪ	-10.5574
ذر	-10.5574
▁پڙهندڙ	-10.5588
▁سگهجن	-10.559
▁سوسائٽي	-10.559
▁ايڊيٽر	-10.5592
▁تناسب	-10.5592
▁ٻڌاءِ	-10.5593
ائجي	-10.5594
▁ڪڍ	-10.5606
▁والا	-10.561
▁بالم	-10.5612
▁ڪور	-10.5613
▁همراهه	-10.5614
▁پُ	-10.5624
▁طريق	-10.5625
▁چورس	-10.5628
ترين	-10.5629
▁گير	-10.563
▁اڏام	-10.5634
▁توازن	-10.5636
▁راجا	-10.5637
▁ڪلچر	-10.5637
▁مرتب	-10.5639
دد	-10.5641
▁الضحك	-10.5641
▁جائز	-10.5643
▁موقعا	-10.5646
يره	-10.5657
ٽنگ	-10.5658
▁سوم	-10.566
▁عيب	-10.5661
▁دلين	-10.5663
فته	-10.5664
▁عرفت	-10.5665
26	-10.5666
▁دفن	-10.5667
▁اك	-10.5669
صير	-10.567
▁پروگرامن	-10.5672
▁يعطيك	-10.5676
قة	-10.5676
▁رانديگر	-10.568
▁فائونڊيشن	-10.5682
▁چمڪندڙ	-10.5684
▁زوال	-10.5687
▁پيون	-10.5687
▁سرگرم	-10.569
وڌيڪ	-10.57
▁حامي	-10.5705
▁گُ	-10.5706
▁Co	-10.5707
▁بط	-10.5708
▁سيٽنگ	-10.571
▁لين	-10.5711
▁حفاظتي	-10.5714
▁ڪلي	-10.5715
َنِ	-10.5717
▁وك	-10.5725
فق	-10.5726
▁ذخيرو	-10.5728
▁حيدرآباد	-10.5728
▁پگهار	-10.5728
▁جسٽس	-10.5729
▁پھريون	-10.5729
▁مجازي	-10.573
▁فٽ	-10.573
▁ڏينداسين	-10.5738
▁پيشه	-10.5738
▁فيچر	-10.5738
▁خلا	-10.5742
▁In	-10.5742
no	-10.5745
ڦ	-10.5746
▁ترڪ	-10.5746
▁چيس	-10.5747
▁پروسيس	-10.5749
▁خوابن	-10.5755
▁منه	-10.5755
▁ايڪٽ	-10.5756
="4	-10.5759
▁پوک	-10.5762
▁مشن	-10.5762
▁دٻاء	-10.5764
صر	-10.5765
لون	-10.5766
▁آئيني	-10.5767
▁بغاوت	-10.5774
▁جذب	-10.5775
▁هٿيار	-10.5777
▁قابو	-10.5777
▁قاضي	-10.578
ئِي	-10.5782
▁رقص	-10.5783
▁ماس	-10.5788
▁ناز	-10.5789
▁تكون	-10.5797
▁ريز	-10.5799
تنا	-10.5802
▁نظريو	-10.5803
▁بچ	-10.5805
▁ڇڏيندي	-10.5807
▁جب	-10.5811
▁ورتا	-10.5816
▁اڏاوت	-10.5821
▁اونهاري	-10.5822
▁فرا	-10.5827
▁ذا	-10.5828
▁سببن	-10.5828
آآآ	-10.583
▁آهي۔	-10.5832
▁پارٽيءَ	-10.5834
▁منجهه	-10.5834
▁سنڌو	-10.5835
▁فرمائي	-10.5835
▁الد	-10.5838
na	-10.5853
ay	-10.5853
▁ٻيڙي	-10.5858
▁ڀرڻ	-10.586
▁حجم	-10.5864
طه	-10.5866
▁بلين	-10.5868
▁ڀڃڪڙي	-10.5868
▁امارات	-10.587
▁دفاع	-10.587
▁هوشيار	-10.587
▁ڪيڏانهن	-10.587
حال	-10.5871
▁ڇپائي	-10.5873
▁نجات	-10.5874
صل	-10.5876
ريءَ	-10.5878
▁نيڻ	-10.5891
▁نظري	-10.5894
▁ميزباني	-10.5907
▁بحري	-10.5908
شين	-10.5908
▁وڻن	-10.591
▁استنبول	-10.5915
▁ايراضي	-10.5916
▁مقدس	-10.5916
▁ڪوريا	-10.5917
▁مديريت	-10.5918
▁33	-10.5921
▁ورهائي	-10.5922
▁پلان	-10.5928
▁چئجي	-10.5931
mp	-10.5933
▁وهو	-10.5939
اڻا	-10.5939
▁انو	-10.5941
▁عهدي	-10.5943
23	-10.5943
▁اسانجي	-10.5949
▁بدون	-10.595
▁ڪتب	-10.5959
▁شمار	-10.5962
▁نانگ	-10.5962
▁برچسب	-10.5963
▁مواصلات	-10.5963
وچ	-10.5963
▁اثرائتي	-10.5964
▁ريال	-10.5965
▁تعالى	-10.5965
▁صحافي	-10.5965
▁مدي	-10.5965
▁The	-10.5967
▁اڄڪلهه	-10.5967
▁سائي	-10.5969
▁ڪپڙي	-10.5972
▁طي	-10.5973
▁ڪٽڻ	-10.5974
▁ساحل	-10.5977
ډ	-10.5982
▁انڪري	-10.5982
▁سِ	-10.5986
34	-10.5988
ھا	-10.5994
ec	-10.5994
▁عدد	-10.6003
يار	-10.6008
ver	-10.6009
ينه	-10.601
▁اطمينان	-10.601
▁معقول	-10.6013
هار	-10.6015
em	-10.6016
▁لڪ	-10.6022
▁پيروزي	-10.6025
▁مضمونن	-10.6025
▁بيمارين	-10.6026
א	-10.603
▁جهازن	-10.6034
برا	-10.6036
▁2)	-10.6042
▁انقلابي	-10.6044
▁هيه	-10.6047
▁پيڪيج	-10.6049
▁سواري	-10.6055
▁هَ	-10.6055
وءَ	-10.6058
▁mo	-10.6058
▁صوبائي	-10.6059
▁ڪرپشن	-10.6059
▁قريب	-10.606
~	-10.6061
▁اغوا	-10.6061
▁لَ	-10.6062
▁رمضان	-10.6062
▁دراصل	-10.6063
▁قادر	-10.6064
▁ڏسون	-10.6075
▁اڏي	-10.6078
▁شن	-10.6079
der	-10.6081
▁ڊوائيسز	-10.6085
يج	-10.6085
▁con	-10.609
age	-10.6092
▁عمري	-10.6098
▁چمڪ	-10.6103
▁مهينو	-10.6107
▁معطل	-10.6107
▁پُر	-10.6108
▁نڪتل	-10.6109
▁مجلس	-10.611
هِ	-10.611
▁ٺاهيندڙ	-10.612
▁زندگيء	-10.6121
▁ٽيپ	-10.6129
▁احسن	-10.6131
▁شئ	-10.6136
▁وڃڻو	-10.6138
▁فرار	-10.614
▁قيمتن	-10.6141
بير	-10.6141
▁بجي	-10.6144
▁نيم	-10.6149
ٺي	-10.6151
▁Previous	-10.6155
▁خوشگوار	-10.6155
▁پاڻمرادو	-10.6155
▁ڳوڙهي	-10.6155
▁انٽر	-10.6155
▁سنجيده	-10.6155
▁ابن	-10.6158
▁سارا	-10.6159
▁وارين	-10.6159
▁سلطان	-10.616
▁جوڙ	-10.6161
▁ڪٽي	-10.6162
▁هڻ	-10.6163
▁پذير	-10.6166
▁ڏاڍا	-10.6178
ويب	-10.6181
man	-10.6181
ودي	-10.6202
۹	-10.6203
▁بك	-10.6203
▁دوزخ	-10.6204
▁لڳندي	-10.6205
▁شاھ	-10.621
▁فائر	-10.6212
ُون	-10.6216
▁مڪي	-10.6216
ايان	-10.6221
ڪٽ	-10.6225
▁پيرا	-10.6233
▁اختيارين	-10.6236
▁ناڪامي	-10.6239
ائيندا	-10.6246
▁ٽنگ	-10.6246
▁ڊوڙ	-10.6251
▁اد	-10.6252
▁ڳوڙها	-10.6252
▁فاتح	-10.6252
▁مرحلو	-10.6253
▁اسٽاف	-10.6253
▁ڄمار	-10.6255
▁ضمير	-10.6256
▁مفاد	-10.6257
▁2007	-10.6259
▁وڻندڙ	-10.626
▁ڪوپن	-10.6261
رڻ	-10.6262
▁راحت	-10.6263
▁5-	-10.6264
ity	-10.6264
▁مام	-10.6265
زل	-10.627
ci	-10.6271
ack	-10.6271
ټ	-10.6272
▁ٿيس	-10.6276
ستي	-10.6279
▁گار	-10.6285
▁ڪروڙ	-10.6292
▁لن	-10.6293
▁عزم	-10.6295
▁امور	-10.6297
▁دعوي	-10.6298
▁ليک	-10.6298
▁افتتاح	-10.6299
ليل	-10.6299
▁سهولتون	-10.63
▁سلطنت	-10.6301
▁سگريٽ	-10.6301
▁يعنى	-10.6301
▁آبي	-10.6302
ap	-10.6302
ho	-10.6303
SCL	-10.6306
▁اڄوڪي	-10.6307
آهي	-10.631
▁وهم	-10.6312
▁چاهيندو	-10.6316
▁انتظاميه	-10.6317
▁ريس	-10.6319
▁اٿن	-10.632
▁آيون	-10.6323
يڪا	-10.6325
▁سندي	-10.6331
▁ٿيڻو	-10.6332
▁300	-10.6339
خدا	-10.6339
▁ڌرين	-10.6342
▁فائلن	-10.6343
▁حڪمران	-10.6344
▁زخم	-10.6344
ٿر	-10.6348
▁چوٿون	-10.635
▁ٻوڏ	-10.6351
▁سکيو	-10.6353
تل	-10.6354
▁ڇڪي	-10.6354
ارت	-10.6358
▁رين	-10.636
▁زو	-10.6364
▁پهتي	-10.6365
▁نهاري	-10.6367
▁ٽهڪ	-10.6368
▁آيد	-10.6373
▁اسٽ	-10.6373
▁پناهه	-10.6382
▁وما	-10.6384
ڪڻ	-10.6387
ab	-10.639
▁پين	-10.6395
ګ	-10.6396
co	-10.6396
ive	-10.6397
▁غالب	-10.64
▁برازيل	-10.64
▁ضم	-10.6402
▁بور	-10.6405
▁حقوق	-10.6405
ill	-10.6405
▁ڪارن	-10.6406
▁هيئن	-10.6407
29	-10.6407
▁فال	-10.6412
▁ی	-10.6412
▁ڏيکاريل	-10.6412
ائپ	-10.6421
▁گذار	-10.6425
▁ٽول	-10.6436
▁اينڊرائيڊس	-10.6437
▁ڪاميٽي	-10.6437
▁شاخ	-10.6441
▁يآ	-10.6441
▁وياسين	-10.6442
کان	-10.6443
▁ندي	-10.6447
▁بيا	-10.6448
▁مٽ	-10.6449
▁ريڪارڊ	-10.6449
▁پوڙهي	-10.645
ڙيون	-10.6451
▁صادق	-10.6452
▁شپنگ	-10.6454
▁ٺهي	-10.6455
▁تحفا	-10.6461
يرا	-10.6468
▁3:	-10.647
▁آرمي	-10.6473
اڳ	-10.6473
بقى	-10.6478
كت	-10.6491
نڪ	-10.6492
▁سرگرميون	-10.6494
▁نسبت	-10.6498
▁WhatsApp	-10.6499
▁پڌرو	-10.6499
▁سافٽويئر	-10.65
▁پيڪ	-10.6503
▁چالو	-10.6505
▁دريا	-10.6506
آه	-10.651
▁وحدت	-10.6518
َ،	-10.6522
▁درج	-10.6523
▁ويسٽ	-10.6526
ازي	-10.6532
حق	-10.6533
ؤن	-10.6537
▁لڳن	-10.6539
▁فلو	-10.654
▁ساله	-10.6546
▁سربراهه	-10.655
▁لاڳاپا	-10.655
▁ڄائو	-10.655
▁ٿورڙي	-10.655
▁برباد	-10.6552
▁مائڪرو	-10.6552
▁طلع	-10.6553
▁Q	-10.6553
▁سگهه	-10.6555
-1	-10.6557
▁بلڊنگ	-10.6557
▁يح	-10.6562
▁(19	-10.6564
لڪ	-10.6568
▁قو	-10.6577
▁نديم	-10.6579
▁تجربا	-10.6579
▁ليڊر	-10.6582
▁ڳائڻ	-10.6589
▁گھڙي	-10.659
▁بھتر	-10.6592
▁اچان	-10.6593
▁جملي	-10.6593
▁واشنگٽن	-10.66
▁ماشاء	-10.6601
▁پهتا	-10.6604
ُر	-10.6604
فون	-10.6607
▁بزنس	-10.661
▁بيه	-10.6611
▁ٻوٽي	-10.6621
▁پڙهيل	-10.6621
خير	-10.6623
▁گذرڻ	-10.6625
▁روشنيءَ	-10.6628
▁نيون	-10.6629
▁by	-10.6633
▁ارسالي	-10.6634
▁شيشي	-10.6637
▁مزي	-10.6643
▁تيزي	-10.6644
وپ	-10.665
ٽيڪ	-10.665
▁رحمت	-10.6651
▁Search	-10.6651
▁نظرانداز	-10.6652
▁وٺندڙ	-10.6655
▁پاڙ	-10.6657
▁جزو	-10.6658
▁ڇپيل	-10.6659
▁ڳڻتي	-10.6659
▁اخلاق	-10.6659
▁گذر	-10.6669
▁لکت	-10.667
▁ريٽ	-10.6673
▁سمر	-10.6678
وح	-10.6678
▁?	-10.6679
▁گناهه	-10.6689
▁جنگي	-10.6689
▁گاهه	-10.6689
▁عضو	-10.6691
▁تک	-10.6699
▁حتمي	-10.6703
▁يقيناً	-10.6706
▁فائنل	-10.6708
▁ٽولي	-10.6708
وَ	-10.6713
رَ	-10.6716
▁مڃڻ	-10.6718
▁انس	-10.6721
اڄ	-10.6721
▁الغ	-10.6722
پوءِ	-10.6722
▁پيڊ	-10.6725
▁انتها	-10.6727
▁ساٿين	-10.6731
▁ڦٽ	-10.6731
▁ڪيپ	-10.6731
▁صد	-10.6732
ex	-10.6735
▁مدري	-10.6736
▁سنگت	-10.6742
▁اهوئي	-10.6745
ايون	-10.6749
▁ريو	-10.675
۔۔۔۔	-10.6752
▁خر	-10.6753
▁پالتو	-10.6755
▁بيوس	-10.6759
▁اسپيڪر	-10.676
▁آفيسرن	-10.676
▁گردش	-10.6763
▁ظ	-10.6768
▁ادامه	-10.6772
پار	-10.6774
▁ايڪسڪس	-10.6779
▁خبرن	-10.678
▁قمر	-10.6782
ٽيل	-10.6786
▁هيرو	-10.6789
▁ڪڙي	-10.6789
▁مشكور	-10.6793
▁ڀٽائي	-10.6794
▁نقشو	-10.6795
▁خيالي	-10.6796
▁ضابطن	-10.6805
▁پروفائل	-10.6805
▁اڳواڻي	-10.6806
▁رويو	-10.6806
▁€	-10.6806
▁پھرين	-10.681
▁گهريلو	-10.6812
▁داخلي	-10.6814
▁تجنن	-10.6816
▁نفسك	-10.682
▁وج	-10.682
▁ڪيفيت	-10.6821
▁غلطيون	-10.6822
▁سما	-10.6823
▁ڄ	-10.6824
95	-10.6831
▁گهٽجي	-10.6833
▁ڀائر	-10.6833
کار	-10.6838
▁موهن	-10.6842
▁انڊين	-10.6845
آئون	-10.6849
▁جمعي	-10.6853
▁ٽيوب	-10.6858
▁بدلائڻ	-10.6858
▁فيصلا	-10.6861
▁وصل	-10.6861
ین	-10.6864
▁k	-10.6865
ard	-10.6866
ايه	-10.6868
▁بنات	-10.6871
▁ابا	-10.6884
▁أنت	-10.6887
مني	-10.689
▁بيني	-10.689
▁بِ	-10.6893
▁الان	-10.6894
▁ناراض	-10.6895
▁حا	-10.6895
▁we	-10.6899
▁مافيه	-10.6902
pa	-10.6902
▁موڪليل	-10.6903
ni	-10.6904
▁ڪئناڊا	-10.6909
▁ڄام	-10.6911
17	-10.6913
▁ريلي	-10.6929
▁نعم	-10.6932
▁ٻا	-10.6935
90	-10.6935
▁א	-10.694
▁اونداهي	-10.6942
▁رٿ	-10.6943
▁دائمي	-10.6952
▁نوع	-10.6955
▁پان	-10.6959
▁آمريڪن	-10.6961
▁دستخط	-10.6961
▁l	-10.6963
▁زرداري	-10.6965
▁ساخت	-10.6966
▁صلاحڪار	-10.6967
▁لأ	-10.697
▁ناري	-10.6971
علم	-10.6977
ضح	-10.6981
▁مولانا	-10.6982
اڻن	-10.6982
▁چن	-10.6984
اڻيو	-10.6984
جڏهن	-10.6987
▁مئل	-10.6992
▁درس	-10.6993
▁وچان	-10.7005
▁مك	-10.7007
▁اڪيڊمي	-10.7014
▁مصنوعي	-10.7014
▁پاؤڊر	-10.7014
▁نصيحت	-10.7014
▁زرعي	-10.7014
▁ڄاڻايل	-10.7019
▁اخوي	-10.7023
▁ڪونھي	-10.7027
▁لها	-10.7035
▁راهي	-10.7038
▁شكلها	-10.7052
▁un	-10.7053
▁گولڊ	-10.7058
پڻ	-10.7059
▁1000	-10.706
▁De	-10.7061
▁بوڪ	-10.7062
▁ڪارپوريٽ	-10.7067
▁ڪمشنر	-10.7067
▁ورزش	-10.7067
باب	-10.7068
ئل	-10.7068
▁ٽرانس	-10.7069
04	-10.707
▁رليز	-10.7076
▁ڏيندس	-10.7079
▁انهيء	-10.7082
ونا	-10.7083
▁نِ	-10.7083
op	-10.7084
▁ٻڌڻي	-10.7089
▁امريڪا	-10.7091
كو	-10.7092
▁نسبتا	-10.7094
▁ڊا	-10.7096
▁دستاويزن	-10.7096
▁مف	-10.7098
▁گھڻن	-10.71
▁لڙڪ	-10.71
واضع	-10.7105
بان	-10.7106
اور	-10.7108
▁ھنن	-10.7109
▁ھوندي	-10.711
▁هانگ	-10.7112
ڪلهه	-10.7115
▁يوناني	-10.7117
▁ظالم	-10.7119
▁خاتمو	-10.712
▁زراعت	-10.712
▁ضابطو	-10.712
▁انٽرفيس	-10.712
ian	-10.7125
▁هلڪو	-10.7126
▁نظريي	-10.7127
▁سازش	-10.7132
▁حوصلا	-10.7133
ھين	-10.7136
▁پوکي	-10.7137
▁ٻوليون	-10.7137
67	-10.7139
دك	-10.7142
▁جام	-10.7143
▁نگ	-10.7149
▁جُ	-10.7154
▁ٽڪرا	-10.7155
▁كو	-10.7158
▁تق	-10.7158
▁امل	-10.7159
▁مرة	-10.7159
قص	-10.716
▁لائيو	-10.7164
▁تباهي	-10.7164
▁پايه	-10.7169
▁رش	-10.7172
▁قرباني	-10.7173
45	-10.7173
▁مبتلا	-10.7173
▁Home	-10.7173
صف	-10.7173
▁گورنر	-10.7174
▁سرواڻ	-10.7177
▁ڪوڪيز	-10.7177
0,000	-10.7178
▁اوپن	-10.7182
كك	-10.7183
▁هڻڻ	-10.7183
▁عز	-10.7188
▁کی	-10.719
▁ويهڻ	-10.7192
بيل	-10.7194
▁زياد	-10.7194
all	-10.7199
▁ٻڌايان	-10.7201
مور	-10.7202
حط	-10.7206
عجب	-10.7209
▁فلسطين	-10.7213
▁مارڪيٽن	-10.7219
▁سمورو	-10.7223
▁Microsoft	-10.7227
▁سلو	-10.7228
▁مھل	-10.723
▁هيچي	-10.7235
▁مٿو	-10.7236
▁فيهم	-10.7236
▁مائٽن	-10.7237
ip	-10.7238
▁جِي	-10.7238
▁لوڻ	-10.7238
▁سوٽ	-10.7239
▁هوم	-10.724
▁اوري	-10.7241
▁لُ	-10.7243
▁كانت	-10.7244
▁گز	-10.7248
ڪشن	-10.7256
▁هائي	-10.7256
▁سمجهندا	-10.7267
ting	-10.7267
▁ڏيڻو	-10.7269
▁بهادر	-10.7272
چين	-10.7272
خلي	-10.7273
▁فاهم	-10.7275
▁اميدوارن	-10.7276
▁مكان	-10.7276
▁تشخيص	-10.7281
▁Bible	-10.7281
▁مص	-10.7282
▁تقريباً	-10.7284
▁نگار	-10.7284
▁ملندا	-10.7284
گھ	-10.7285
▁انتظاميا	-10.7285
▁قا	-10.7287
▁مئنيجر	-10.729
▁چر	-10.7292
▁روش	-10.7297
ومي	-10.7305
▁كر	-10.7318
رات	-10.7321
36	-10.7322
AN	-10.7326
وڙ	-10.7328
▁اعتراف	-10.7335
▁لچڪدار	-10.7336
▁انجمن	-10.7336
▁نيري	-10.7343
▁ڳري	-10.7344
پپ	-10.7358
▁ڏيون	-10.736
▁زر	-10.7361
ton	-10.7362
▁لهڻ	-10.7368
▁سحر	-10.737
اڙ	-10.737
▁گليڪس	-10.7371
▁زينب	-10.7373
▁ستار	-10.7379
▁حملن	-10.7386
▁کانپوء	-10.7386
وٽو	-10.7388
▁کوڙ	-10.7388
▁لامحدود	-10.739
ng	-10.7391
▁هُئا	-10.7391
▁پست	-10.7392
▁اسپيڊ	-10.7392
waz	-10.7393
▁منع	-10.7393
▁کول	-10.7393
▁لڏي	-10.7399
▁ڳالهائيندو	-10.74
▁عثمان	-10.74
ٿو	-10.7401
▁خوشحالي	-10.7402
ئس	-10.7406
per	-10.741
وڙي	-10.7412
لعب	-10.7413
▁بق	-10.7413
ائر	-10.7415
▁ڏات	-10.7417
▁بح	-10.7417
عام	-10.7423
▁بڻ	-10.7427
▁اُٿي	-10.7433
▁پڇو	-10.7437
ow	-10.7442
▁لکن	-10.7443
سائين	-10.7443
▁پروژه	-10.7445
▁مخلوق	-10.7445
wami	-10.7445
▁گيٽ	-10.7445
▁نشانيون	-10.7445
▁ٻولهه	-10.7449
▁چَ	-10.7449
▁for	-10.7449
▁ترجمان	-10.7451
وره	-10.7453
▁روئڻ	-10.7453
▁ساڳيا	-10.7458
▁يونان	-10.746
▁لکندو	-10.7463
َء	-10.7465
▁کاڌ	-10.7465
▁بيش	-10.7467
▁ٻُڌ	-10.7468
▁سرخ	-10.747
▁خوبصورتي	-10.747
▁ويڙهه	-10.7471
▁مليون	-10.7481
▁جهلي	-10.7483
▁ڏه	-10.7486
▁موڪلن	-10.7494
▁تارن	-10.7496
▁چونڊون	-10.7498
▁يجي	-10.75
▁اوچائي	-10.75
▁فضا	-10.7501
▁ناصر	-10.7502
▁گروهه	-10.7503
▁آصف	-10.7508
اڻان	-10.7513
▁سچل	-10.7514
▁مھرباني	-10.7514
▁امڙ	-10.7521
ba	-10.7525
▁ڪڪڙ	-10.7528
▁غيرها	-10.7528
▁[.	-10.7531
▁ڳا	-10.7535
▁َ	-10.7537
▁اڏ	-10.754
▁ريسرچ	-10.7556
▁ملهايو	-10.7556
▁مسڪين	-10.7557
▁وک	-10.7561
▁هدف	-10.7563
▁نسيت	-10.7564
وج	-10.7566
▁شال	-10.7569
سيس	-10.7574
▁سيکاري	-10.7576
▁تد	-10.7577
▁سگهيس	-10.7579
▁سهولتن	-10.758
شان	-10.7581
▁ميٽ	-10.7582
▁ليك	-10.7583
▁آزمائشي	-10.7583
▁تخيل	-10.7586
▁ضرب	-10.7587
▁ٻول	-10.7588
اک	-10.7589
▁تڪ	-10.7593
▁6.	-10.7593
▁مٽيءَ	-10.7595
▁ڪيف	-10.7596
▁Mi	-10.7597
▁جذبي	-10.76
اهم	-10.7607
▁La	-10.7609
فن	-10.761
▁پاسپورٽ	-10.7612
▁🙂	-10.7613
▁واڌارو	-10.7614
▁پيرس	-10.7617
32	-10.762
<<	-10.7626
▁لح	-10.7627
▁حالانڪه	-10.7627
▁St	-10.7627
▁وڄ	-10.7633
▁کٽڻ	-10.7633
منهنجو	-10.7639
ايائين	-10.7653
مال	-10.7654
خي	-10.7658
حة	-10.7658
▁نيرو	-10.766
▁عال	-10.766
ڌر	-10.7662
▁ڀلائي	-10.7662
▁اسڪيم	-10.7667
▁انشورنس	-10.7668
▁ميوزيم	-10.7668
▁عبرت	-10.7668
▁ٽتوٽ	-10.7672
▁ڪپڙو	-10.7672
▁باھ	-10.7675
▁Sindhi	-10.7679
▁نوڪر	-10.7681
od	-10.7681
▁محترم	-10.7682
▁مارو	-10.769
ښ	-10.7696
Q	-10.7696
▁آزمائش	-10.7697
▁r	-10.7705
مثال	-10.7707
▁سنڀالي	-10.7708
▁ميڙ	-10.7715
▁you	-10.7719
▁pro	-10.7722
▁اوسط	-10.7726
▁ارد	-10.7727
▁مالڪن	-10.7728
▁بندوق	-10.773
▁بيٺا	-10.7733
▁ووڊ	-10.7734
▁چوڪ	-10.7735
▁بچه	-10.7735
▁(4)	-10.7736
جج	-10.7736
▁هٽ	-10.7736
▁اط	-10.774
▁لڪائي	-10.774
▁ڪڻڪ	-10.7743
▁برڪت	-10.7743
▁دب	-10.7744
▁آٽو	-10.7751
يٰ	-10.7752
▁36	-10.7752
03	-10.7754
▁لس	-10.7762
▁ڪش	-10.7763
▁خو	-10.7764
▁جرم	-10.7765
▁نشانو	-10.777
▁پيسا	-10.7773
▁ڪجو	-10.7774
ورة	-10.7775
ثي	-10.7777
▁دخل	-10.7778
▁ورڈپریس	-10.7781
▁ھدايت	-10.7781
▁ڊويزن	-10.7781
▁اسسٽنٽ	-10.7782
▁کڻ	-10.7783
▁شفاف	-10.7785
۲	-10.7786
▁بلاول	-10.7786
▁ماشى	-10.7787
▁اجمل	-10.7787
▁نيل	-10.7789
▁پهلو	-10.779
▁ماستر	-10.7791
▁ڊچ	-10.7801
ريشن	-10.7804
▁ستن	-10.7804
▁وح	-10.7805
▁صدا	-10.781
رر	-10.7813
▁رپي	-10.7815
َر	-10.7818
▁48	-10.7819
▁ڪهاڻين	-10.7826
▁بدل	-10.7826
▁فنا	-10.7832
39	-10.7834
وط	-10.7834
27	-10.7838
▁ڪارخانو	-10.7838
▁ڪابينا	-10.7838
▁وڻي	-10.7839
▁نينهن	-10.7841
▁وبعدين	-10.7842
▁اُھي	-10.7844
▁يسلمو	-10.7844
▁خال	-10.7845
▁سپاهي	-10.785
▁ڇڪ	-10.7852
▁پُٽ	-10.7857
▁ديگري	-10.786
▁سويت	-10.7861
▁ڇڏيون	-10.7862
▁مدار	-10.7862
▁بخشي	-10.7863
ڙھ	-10.7863
▁رهبر	-10.7864
▁نشر	-10.7866
▁موڙي	-10.7866
▁سگ	-10.7871
لة	-10.7872
▁بالغن	-10.7872
▁جس	-10.7879
دس	-10.7886
َّ	-10.7891
▁اند	-10.7891
bu	-10.7893
▁مدير	-10.7893
55	-10.7893
▁برابري	-10.7894
र	-10.7896
▁ميڪسيڪو	-10.7896
▁برعڪس	-10.7896
▁پرهيز	-10.7896
▁ڪڪر	-10.7896
▁ڪامرس	-10.7897
▁ميه	-10.7908
ٽل	-10.791
▁اخت	-10.7917
▁توهين	-10.7918
▁سڪون	-10.792
رون	-10.792
ok	-10.7925
▁ڪنگ	-10.7926
واري	-10.7926
▁بلڊ	-10.7929
▁بينڪنگ	-10.7933
▁جاڳي	-10.7939
▁شرٽ	-10.794
▁شناسي	-10.794
سٽن	-10.7943
▁واٽر	-10.7946
▁هوش	-10.7951
▁انسٽاگرام	-10.7954
▁فهد	-10.7954
▁مينيجر	-10.7954
▁ڌيءُ	-10.7956
▁شفت	-10.7959
▁موج	-10.7965
▁چپن	-10.7965
▁لوگو	-10.7968
▁بادل	-10.7974
وسي	-10.7976
pe	-10.7977
$	-10.7981
▁زميندار	-10.799
▁اخبارن	-10.7997
▁سمجهن	-10.8
▁شوقين	-10.8
▁؟"	-10.8
▁بدين	-10.8002
▁ميرا	-10.8003
َرَ	-10.8005
▁آخ	-10.8007
▁زوج	-10.8008
مپ	-10.8011
▁اليڪٽرڪ	-10.8012
▁پرسپوليس	-10.8012
طا	-10.8013
▁پرس	-10.8017
▁راج	-10.8018
▁چادر	-10.8018
▁بيل	-10.8023
min	-10.8025
جهه	-10.8028
▁ڪيڪ	-10.8035
▁رج	-10.804
▁رواني	-10.8043
عم	-10.8045
▁ديدار	-10.8045
▁ميونسپل	-10.8046
▁همٿ	-10.8048
-2	-10.8048
▁سڪي	-10.8049
▁گن	-10.805
▁Ma	-10.805
70	-10.8056
▁قرب	-10.8058
▁ڪارڪن	-10.806
▁وصولي	-10.8066
▁تشريح	-10.807
▁ويران	-10.8072
▁ورتل	-10.8073
▁بلي	-10.8076
▁خد	-10.8077
▁دلبر	-10.8082
يندي	-10.8083
▁يارڪ	-10.8087
▁هٿان	-10.8089
▁پرواهه	-10.8093
▁عليهم	-10.8097
▁يمن	-10.81
انگريزي	-10.8101
▁سليمان	-10.8101
بك	-10.8101
وين	-10.8106
رائڻ	-10.8117
▁کني	-10.8119
▁تحب	-10.8121
جنهن	-10.8122
▁بعدي	-10.8122
▁قولي	-10.8122
▁سمجھيو	-10.8122
▁لڪي	-10.8124
▁برگ	-10.8127
▁ڪامل	-10.8129
▁ورهيه	-10.8131
▁اڳڪٿي	-10.8131
▁سمهڻ	-10.8131
▁پڪو	-10.8132
▁رڪنيت	-10.8133
▁ڏاڏي	-10.8134
▁بدترين	-10.8136
ريز	-10.8138
▁سگھان	-10.8138
▁لڪير	-10.8139
▁ھيو	-10.8139
ورن	-10.814
▁مضحك	-10.8143
98	-10.8145
▁سالگره	-10.8146
▁مصري	-10.8147
▁زد	-10.8148
▁جزا	-10.8152
ايت	-10.8153
▁لائٽ	-10.8154
▁چت	-10.8156
▁هونءَ	-10.8156
▁كرد	-10.8158
ge	-10.8158
سڀ	-10.8162
ھو	-10.8171
اڻيءَ	-10.8174
ندؤ	-10.8174
▁سالم	-10.8177
▁ڏيک	-10.8181
جب	-10.8181
▁ڳولهي	-10.8184
▁گرفتاري	-10.8188
▁لاڙڪاڻي	-10.8188
▁منسوخ	-10.8188
▁ڏوهاري	-10.8188
▁پئرس	-10.8189
▁بج	-10.8189
:$	-10.8191
▁وسيلا	-10.8191
▁IP	-10.8191
▁تير	-10.8195
▁بيشتر	-10.8196
▁شاديءَ	-10.8196
▁آچر	-10.8202
▁وڪي	-10.8203
▁وبا	-10.8206
ast	-10.8206
▁سستو	-10.8208
سوب	-10.8209
▁عملدارن	-10.8209
▁حڪومتي	-10.8209
▁ڳوٺن	-10.821
▁بالغ	-10.8211
ga	-10.8214
۾	-10.8219
▁o	-10.8222
▁کلڻ	-10.8224
▁پڪڙي	-10.8228
▁دوره	-10.8229
▁جاڳ	-10.823
▁بدر	-10.8231
▁65	-10.8231
▁سك	-10.8234
▁سستا	-10.8238
ڪڪ	-10.8238
▁نگر	-10.8241
▁نقشي	-10.8242
▁ونڊو	-10.8242
ترا	-10.8247
▁150	-10.8248
▁ٽيليويزن	-10.8248
▁آبهوا	-10.8248
▁ago	-10.8248
▁ملتوي	-10.825
رِ	-10.8254
▁وڃائڻ	-10.8255
▁رجسٽرڊ	-10.8255
▁مرو	-10.8256
▁منھن	-10.8265
▁درياهه	-10.8266
▁بنايو	-10.8269
▁ڄاڻان	-10.8272
▁عالمن	-10.8273
▁سلي	-10.8276
88	-10.8287
oo	-10.8289
▁نش	-10.8289
▁فارس	-10.8292
▁كف	-10.8295
▁گروپن	-10.8304
▁مرڪي	-10.8305
▁34	-10.8305
▁نينگر	-10.8307
▁ليبارٽري	-10.8308
▁تلوار	-10.8309
37	-10.8309
▁رشتو	-10.8309
▁تقدير	-10.8311
▁نما	-10.8314
▁وانگي	-10.8316
▁لنڪس	-10.8324
▁لع	-10.8324
ـِ	-10.8332
▁ڀرجي	-10.8333
▁كا	-10.8344
▁مڪ	-10.8347
▁جھڙي	-10.835
▁قر	-10.8354
tic	-10.8356
▁رھ	-10.8356
▁مُنهن	-10.8361
▁هان	-10.8361
▁تسلسل	-10.8368
▁ميمڻ	-10.8368
▁News	-10.837
▁نياڻي	-10.837
▁سس	-10.8373
▁خلي	-10.8376
▁درجو	-10.8378
▁نقطه	-10.8383
▁ٿِي	-10.8384
▁وڙهي	-10.8393
▁2003	-10.8393
▁پائپ	-10.8394
▁گادي	-10.84
▁ڳائي	-10.8401
▁كلامك	-10.8404
▁ناهيان	-10.8404
سام	-10.8405
▁گا	-10.8406
▁وآ	-10.8407
▁اجايو	-10.8407
▁سوڀ	-10.8408
▁بيگ	-10.8408
▁ڀل	-10.8415
▁ڏجي	-10.8416
ll	-10.842
▁پنجم	-10.8427
▁اشاعت	-10.8428
▁طراحي	-10.8429
▁شهادت	-10.8429
▁گهٽائي	-10.8429
▁ٺاهه	-10.8431
▁برائي	-10.8435
▁سكس	-10.8437
لع	-10.8439
▁انگريزيءَ	-10.8441
▁مشاهدو	-10.8441
لق	-10.8443
▁فليٽ	-10.8443
▁ٽڪرو	-10.8443
▁شويه	-10.8452
▁وارنٽي	-10.8454
لنگ	-10.8456
▁سنڀالڻ	-10.8457
رايو	-10.8458
رق	-10.8461
▁بيبي	-10.8468
▁البت	-10.8469
ns	-10.8473
▁دوستو	-10.8473
▁شار	-10.8474
سلام	-10.8474
han	-10.8483
02	-10.8485
▁سائيٽون	-10.8486
▁سريع	-10.8487
▁ترقيات	-10.8487
▁پڇاڙي	-10.8489
▁منصوبا	-10.8489
▁لميٽيڊ	-10.8489
▁ڳاڙهي	-10.849
▁ملا	-10.8493
▁ڀليڪار	-10.8493
▁حدن	-10.8495
▁تڏھن	-10.8496
one	-10.8497
گير	-10.8499
▁ڪمرو	-10.8501
لائي	-10.8501
▁جميله	-10.8503
▁فضل	-10.8507
▁ابتدا	-10.8511
▁ڏياريو	-10.8514
▁پکين	-10.8517
مِ	-10.8521
▁خواهي	-10.8522
▁شينهن	-10.8522
09	-10.8524
▁ابر	-10.8531
الف	-10.8536
▁تيستائين	-10.854
▁٪	-10.8542
▁محد	-10.8542
▁آله	-10.8549
▁اڀياس	-10.8551
▁شناخت	-10.8551
▁معائنو	-10.8551
▁ظهور	-10.8551
▁that	-10.8551
▁رنگين	-10.8551
▁مرزا	-10.8553
▁سوني	-10.8554
ass	-10.8558
▁فو	-10.8559
▁بيزار	-10.8563
لكم	-10.8567
اھي	-10.8575
ااااااااا	-10.858
▁تجارت	-10.8581
▁سائنسدان	-10.8582
▁وائ	-10.8585
les	-10.8586
ER	-10.8586
▁واش	-10.8587
▁هئائين	-10.8587
ڊل	-10.8593
▁ڪارا	-10.8593
۴	-10.8598
لآ	-10.8599
ٿا	-10.8601
▁ميلي	-10.8607
▁مڪاني	-10.8607
▁ڀاڱي	-10.8613
▁لڳاتار	-10.8613
▁زنجير	-10.8613
▁طالب	-10.8618
▁آخرت	-10.8618
▁ايستائين	-10.8621
po	-10.8622
▁هالينڊ	-10.8624
▁سهڻو	-10.8626
▁99	-10.8631
sa	-10.8632
▁عذر	-10.8635
08	-10.8641
▁400	-10.8643
ڪيل	-10.8645
آخر	-10.8645
▁ٽيلي	-10.8647
▁بحر	-10.8655
▁ڪالم	-10.8656
▁چريو	-10.8657
▁پُڇ	-10.866
▁رهائشي	-10.8662
▁ڊبل	-10.8663
▁ڌرم	-10.8663
ub	-10.8663
▁ديوتا	-10.8664
vo	-10.8664
▁اُڀ	-10.8671
▁مٿاڇري	-10.8675
▁صوبن	-10.8675
▁مَن	-10.8679
▁عكس	-10.8685
▁پوڊ	-10.8687
▁نگاهي	-10.8688
▁ڄاڻايو	-10.8689
ريون	-10.869
▁ڪوششن	-10.8692
▁يونيورسٽيءَ	-10.8693
▁جيئري	-10.8699
▁وڌندي	-10.8699
ڊن	-10.87
▁ڪس	-10.8701
▁جوهر	-10.8701
▁HD	-10.8707
▁عرف	-10.871
▁قوي	-10.871
▁پولي	-10.8711
▁هفتا	-10.8714
▁حيا	-10.8718
▁ڇوڪريءَ	-10.872
▁كتب	-10.8722
▁رائ	-10.8725
ies	-10.8733
▁ملت	-10.8736
▁سرانجام	-10.8737
▁پروفائيل	-10.8737
▁ڪميونسٽ	-10.8737
▁ايڪسپريس	-10.8737
▁ڪيليفورنيا	-10.8737
▁4:	-10.8737
▁Play	-10.8738
▁ڊگھي	-10.8738
▁مسكين	-10.8738
▁صحافت	-10.8738
▁نثار	-10.8738
▁وهڪري	-10.8739
▁مهاجر	-10.874
tra	-10.8741
▁بينڪن	-10.8745
▁ٺاهيا	-10.8746
▁بنيادن	-10.8753
▁بصري	-10.8755
▁قانونن	-10.8755
▁معاك	-10.8758
▁مغ	-10.8761
▁ٽرڪ	-10.8764
▁شق	-10.8764
▁بجد	-10.8767
ٺو	-10.8768
▁بده	-10.8768
▁گرو	-10.8775
▁فرمان	-10.8781
si	-10.8784
سنگ	-10.8789
ा	-10.88
▁ريسٽورنٽ	-10.88
▁ورهاڱي	-10.88
▁ڊپارٽمينٽ	-10.88
▁نامناسب	-10.88
▁موزون	-10.8802
▁عبدالله	-10.8803
▁رشيد	-10.8803
▁سيني	-10.8804
oti	-10.8806
▁ٽائون	-10.8806
▁ملهائي	-10.8807
▁ڪيمرا	-10.8812
▁رم	-10.8814
▁سلم	-10.8814
▁اثاثن	-10.8815
▁ويجھو	-10.8815
رنگ	-10.8816
يندو	-10.8819
▁داشت	-10.882
▁ايام	-10.8822
▁ڪئمپ	-10.8822
▁بَ	-10.8823
ائم	-10.883
lu	-10.8831
▁ڄم	-10.8831
▁sa	-10.8832
دى	-10.8834
ځ	-10.8835
▁گور	-10.8836
يده	-10.8838
iv	-10.8846
▁لوهه	-10.885
▁وصف	-10.8853
▁بقي	-10.8854
▁نامزد	-10.886
▁فرنيچر	-10.8863
▁پروفيشنل	-10.8863
▁اوندهه	-10.8863
▁مرحوم	-10.8864
▁اڪيلائي	-10.8866
▁مقبوليت	-10.8867
يڪٽ	-10.8868
▁مردم	-10.8873
▁مروري	-10.8873
▁ڪشش	-10.8875
▁مول	-10.8876
▁ايڪشن	-10.8879
▁نويس	-10.888
▁بأ	-10.8883
جانءِ	-10.8884
حظ	-10.8889
ڊين	-10.8891
▁پروسيسر	-10.8892
▁تعميراتي	-10.8895
▁ڪوششون	-10.8896
که	-10.8904
▁ميش	-10.8905
▁ماڻهون	-10.8906
07	-10.8909
طف	-10.891
▁هندستاني	-10.8912
▁زباني	-10.8912
▁چري	-10.8914
▁بستر	-10.8916
ڌو	-10.8919
▁بيڪار	-10.8926
▁تجي	-10.8927
▁پرائيويٽ	-10.8927
▁ٺهرايو	-10.8927
كتب	-10.8927
▁وهڪرو	-10.8928
▁هٽائڻ	-10.8929
▁ڪٿا	-10.8929
▁تعبير	-10.893
▁هٽايو	-10.893
▁پيشگيري	-10.8931
ru	-10.8932
▁ٽوڪ	-10.8944
▁هدايتون	-10.8945
زه	-10.8947
ear	-10.8949
اااي	-10.8949
شش	-10.8952
▁مارڪس	-10.8952
▁خوا	-10.8954
▁طريقه	-10.8956
▁75	-10.8958
▁ودي	-10.896
▁يخ	-10.8963
▁رهبري	-10.8968
دخل	-10.8971
طلع	-10.8973
ka	-10.8975
▁نوڪريون	-10.8976
▁چُ	-10.8976
▁علائقا	-10.8986
عاد	-10.8992
47	-10.8992
▁آري	-10.8992
▁پابنديون	-10.8992
▁افعال	-10.8992
▁ارتقا	-10.8995
▁کاتو	-10.8999
▁لنگهي	-10.8999
ick	-10.8999
قط	-10.9
▁روزانه	-10.9
▁وٽس	-10.9003
▁آڻيندو	-10.9003
▁عهد	-10.9009
▁95	-10.9012
▁بالا	-10.9013
مند	-10.9014
▁واٽس	-10.9017
▁مچ	-10.902
▁گمان	-10.9021
سوي	-10.9027
▁ذري	-10.9027
▁Pro	-10.9027
▁ڌو	-10.9028
▁انور	-10.903
▁پات	-10.9034
▁خودڪشي	-10.9035
▁روٽ	-10.9035
ويه	-10.9035
▁بادشاھ	-10.9037
▁تَ	-10.9038
ـُـ	-10.9042
▁اينڪس	-10.9044
3">	-10.9045
▁اسٽوڊيو	-10.9045
▁قومون	-10.9046
▁ڀڄ	-10.9053
▁شيڊول	-10.9056
▁پڇا	-10.9056
▁ايوان	-10.9064
▁ڊپٽي	-10.9065
لز	-10.9075
▁شاٽ	-10.9076
▁Mo	-10.9078
▁سوري	-10.9079
05	-10.9088
راج	-10.9092
حس	-10.9093
موت	-10.9094
▁سني	-10.9094
▁اداس	-10.9097
ڳو	-10.9098
▁الكل	-10.9099
▁--	-10.9107
▁ايڊيشن	-10.9108
ياتي	-10.9111
▁اجي	-10.9112
▁لأن	-10.9116
فكر	-10.9118
▁معذور	-10.9121
▁عروج	-10.9121
▁محشش	-10.9121
▁لوازمات	-10.9121
▁يادداشت	-10.9122
▁قلعي	-10.9122
▁ڳنڍيندڙ	-10.9122
▁محافظ	-10.9122
▁مزيدار	-10.9122
تب	-10.9123
ڊنگ	-10.9124
▁غسل	-10.9124
▁علائقائي	-10.9125
▁تنھنجو	-10.9127
▁پيشينه	-10.9131
▁ڀاڳ	-10.9132
▁يد	-10.9134
▁فهمت	-10.9135
▁يبي	-10.9137
▁پياده	-10.9138
ph	-10.9143
▁نادر	-10.9144
▁اسٽريٽ	-10.9145
▁چِ	-10.9148
35	-10.915
▁ورائي	-10.915
▁اقل	-10.915
▁مط	-10.9153
ضرب	-10.9157
١	-10.9157
#	-10.9158
ve	-10.9158
▁پھ	-10.9159
▁بايو	-10.9163
▁آھين	-10.9165
صو	-10.9165
▁Ch	-10.9166
▁سيڪنڊن	-10.9168
▁زيور	-10.9174
▁لڳڻ	-10.9175
آب	-10.9177
▁ڀاء	-10.9178
ائٽ	-10.9181
▁پلانٽ	-10.9183
▁ڳل	-10.9186
▁♥	-10.9186
▁عناصر	-10.9186
▁وڙهڻ	-10.9186
▁توليد	-10.9186
وض	-10.9188
▁اسماعيل	-10.9188
▁ڪرسي	-10.9188
▁ٻرندڙ	-10.9189
▁شاپنگ	-10.9189
▁LG	-10.919
▁اوس	-10.9193
▁سوچيندو	-10.92
▁تحفو	-10.9203
وقت	-10.9204
▁مڃ	-10.9205
▁37	-10.9205
۳	-10.9212
▁جذبو	-10.9213
▁حبيبي	-10.9215
بند	-10.9222
▁وق	-10.9224
▁To	-10.9228
▁گڏو	-10.9235
پين	-10.9245
▁روانا	-10.9248
▁نسلن	-10.925
▁گرد	-10.9251
▁اسد	-10.9251
▁اطالوي	-10.9252
▁فئڪٽري	-10.9252
▁لاڳاپو	-10.9252
▁OEM	-10.9252
▁مؤمن	-10.9253
کس	-10.9253
▁جھاز	-10.9254
▁پڙهندو	-10.9255
▁جبلن	-10.9255
▁←	-10.9256
▁هوسٽنگ	-10.9256
▁اڇي	-10.9258
▁سنگين	-10.9259
فين	-10.9261
▁کس	-10.9261
▁تشوف	-10.9262
▁ورق	-10.9264
▁موتي	-10.9266
▁فكر	-10.9274
▁وَرو	-10.9274
▁غريبن	-10.9275
ريم	-10.9276
▁هفتو	-10.9279
▁کائيندا	-10.9281
▁متحد	-10.9283
▁سومر	-10.9283
▁ڏسن	-10.9283
▁دک	-10.9286
▁39	-10.9287
▁نوٽس	-10.9297
۵	-10.9298
▁me	-10.9298
حم	-10.9299
▁سيف	-10.93
▁تفريح	-10.93
تاب	-10.9304
خان	-10.9304
▁ليول	-10.9304
▁ڪائي	-10.9312
صلي	-10.9312
▁منطقي	-10.9318
▁مطلوب	-10.9318
▁ڍنڍ	-10.9318
▁آزمائي	-10.932
▁اسوي	-10.9321
▁مجيد	-10.9322
▁نهاريو	-10.9323
▁۴	-10.9324
▁ضمني	-10.9325
▁الحمد	-10.9325
▁ايمانداري	-10.9327
▁زمري	-10.9327
▁لفظي	-10.933
▁مولوي	-10.933
▁باني	-10.9332
▁بڻيو	-10.9333
▁مينيو	-10.9333
▁گاهي	-10.9335
▁ياري	-10.9338
▁اوي	-10.9342
▁صدق	-10.9343
▁ليپ	-10.9351
ايس	-10.9352
▁سليم	-10.9356
▁اهڙيء	-10.9358
▁اوٽ	-10.9362
▁سمهي	-10.9365
قع	-10.937
ea	-10.9373
▁۳	-10.9376
▁راس	-10.938
▁محمود	-10.9385
▁فرينچ	-10.9385
▁ڪامريڊ	-10.9385
▁وساريو	-10.9385
▁روبوٽ	-10.9385
▁لعنت	-10.9386
▁بشمول	-10.9388
▁ڀاڪر	-10.9389
▁هيڏانهن	-10.9398
▁درستگي	-10.9401
▁سوچن	-10.9403
▁اعمل	-10.9403
بول	-10.9404
▁فاسٽ	-10.9408
▁ذيلي	-10.9412
▁غيرت	-10.942
▁سؤال	-10.9421
▁معرفي	-10.9421
▁ماکي	-10.9423
▁فلا	-10.9424
▁44	-10.9424
ندر	-10.9424
▁عربن	-10.9425
▁بُ	-10.9427
▁سوز	-10.9436
▁جهت	-10.9438
▁زمانو	-10.9438
500	-10.9441
▁اختياري	-10.9441
▁تاثر	-10.9445
▁""	-10.9445
▁چڱا	-10.9447
▁ادخل	-10.945
▁ca	-10.9451
▁نيت	-10.9452
▁فرزند	-10.9452
▁سوئچ	-10.9457
ارڻ	-10.9458
▁درجا	-10.9458
▁فليش	-10.9459
▁بچاءُ	-10.946
▁دعائون	-10.9465
▁فولڊر	-10.9466
▁واپارين	-10.9469
="5	-10.9469
▁عدالتي	-10.9473
▁اٿ	-10.9473
ـَـ	-10.9482
▁ليٽر	-10.9488
▁ڏھ	-10.949
▁گيم	-10.951
ish	-10.9512
▁صنعتن	-10.9515
▁بئ	-10.9518
▁فاریکس	-10.9519
▁ممتاز	-10.9519
▁روڪ	-10.952
▁ٽيمن	-10.9526
▁پئ	-10.9528
▁all	-10.953
خه	-10.953
▁مرڪب	-10.9532
▁جادوگر	-10.9534
▁حڪمراني	-10.9539
▁شپ	-10.9551
▁عارف	-10.9554
▁انتى	-10.956
▁پرينءَ	-10.9561
▁ايڪو	-10.9564
▁۔	-10.9564
▁الدين	-10.9567
▁پراڊڪٽس	-10.9569
▁ولايت	-10.9575
▁منهم	-10.9581
▁شخصي	-10.9582
▁سوئي	-10.9584
▁اڀري	-10.9584
▁ليو	-10.9584
▁Google	-10.9587
▁انسٽيٽيوٽ	-10.9587
▁پائوڊر	-10.9587
▁مفهوم	-10.9587
▁ٽيليفون	-10.9588
وله	-10.9588
ty	-10.9588
▁نڪرندو	-10.9589
▁پارچه	-10.9589
▁طبيعي	-10.9589
▁ڪرايا	-10.9591
▁وليد	-10.9592
▁ٿڌ	-10.9593
▁راء	-10.9594
▁بيڊ	-10.9594
▁تِ	-10.9597
▁موڪليا	-10.9598
نظر	-10.9603
38	-10.9603
▁انجي	-10.9606
لڊ	-10.9608
▁سينسر	-10.9609
ڪَ	-10.9613
▁فونز	-10.9616
▁ڪِ	-10.9616
▁خطرن	-10.9617
▁معرفت	-10.962
▁کپ	-10.9621
▁ترى	-10.9622
OS	-10.9624
▁وڃون	-10.9624
▁le	-10.9628
▁واجب	-10.9628
▁عش	-10.9629
▁خا	-10.9629
▁مولا	-10.9632
▁كدا	-10.9632
▁تط	-10.9634
▁دادو	-10.9642
ڀا	-10.9644
▁دانهن	-10.9648
▁قطع	-10.9653
da	-10.9654
▁الخط	-10.9654
▁ٽوڙي	-10.9654
صد	-10.9656
▁اپوزيشن	-10.9656
▁باضابطه	-10.9656
▁ٽارگيٽ	-10.9656
▁محتاط	-10.9656
▁عجبتني	-10.9657
▁پٺتي	-10.9659
▁باشد	-10.966
▁فيني	-10.9662
▁ڦل	-10.9663
▁يزيد	-10.9663
فض	-10.9663
▁هٽائي	-10.9663
اصل	-10.9664
▁گويد	-10.9665
▁گريه	-10.9665
▁ويهه	-10.9671
▁کائيندو	-10.9671
▁متع	-10.9672
▁هيم	-10.9673
▁ريڪ	-10.9675
▁فيڊ	-10.9675
▁پريم	-10.9678
▁شاعرن	-10.968
▁ٻوٽ	-10.9687
جيڪو	-10.9688
▁دري	-10.969
▁فكره	-10.97
آس	-10.97
▁لت	-10.9702
▁ڪاسٽ	-10.9703
هيو	-10.9708
شوف	-10.9711
▁وكل	-10.9712
▁ڊولپر	-10.9715
▁ستر	-10.9715
▁محب	-10.9718
▁پارسي	-10.9718
▁عيش	-10.9723
▁واسطي	-10.9724
▁صحافين	-10.9724
▁article	-10.9725
▁اڱڻ	-10.9725
▁نمونن	-10.9726
ڪڙ	-10.9727
▁سرزمين	-10.9727
▁پروٽين	-10.9727
▁محتاج	-10.9728
▁2005	-10.9729
▁ٺهڻ	-10.9731
ڙڻ	-10.9731
▁ڊيوٽي	-10.9732
امين	-10.9733
▁مئ	-10.9735
▁يعرف	-10.9737
فري	-10.9738
06	-10.974
▁جيڪر	-10.9747
زعل	-10.9747
▁وجهڻ	-10.9749
66	-10.9753
یم	-10.9754
طو	-10.9758
▁غيره	-10.9759
چار	-10.9762
اول	-10.9762
▁حقيقتون	-10.9768
▁تعين	-10.9774
مش	-10.9782
31	-10.9785
آء	-10.9793
▁لپ	-10.9793
ائز	-10.9794
▁انڪشاف	-10.9794
▁ڪينيڊا	-10.9794
▁مؤثر	-10.9794
▁رف	-10.9795
▁فائبر	-10.9796
▁رسالي	-10.9797
▁پادري	-10.9798
▁جھڙو	-10.98
▁Mau	-10.98
▁پيڪنگ	-10.9801
▁شغل	-10.9802
كثر	-10.9802
▁چيائون	-10.9804
▁مزدورن	-10.9807
▁نكته	-10.9809
▁سازمان	-10.981
▁قم	-10.9811
▁نصاب	-10.9812
▁مطالبن	-10.9819
▁مغل	-10.9821
اتو	-10.9825
تيءَ	-10.9827
▁مياد	-10.9827
:00	-10.9831
▁گياهي	-10.9833
▁نفسيات	-10.9844
▁ڪوڙو	-10.9845
▁پيامها	-10.9846
▁ڏکي	-10.9846
▁بز	-10.9848
▁ڪروم	-10.9856
ڑ	-10.9862
▁پناه	-10.9863
ڼ	-10.9863
▁اٿارٽي	-10.9864
▁انڊيڪس	-10.9864
▁ستا	-10.9865
▁دفتر	-10.9866
▁Le	-10.9866
▁سفيد	-10.9868
▁ٽاور	-10.9869
▁اُھو	-10.987
▁آرامده	-10.9872
▁اينديون	-10.9873
77	-10.9874
جون	-10.9876
▁نائب	-10.9876
ڈ	-10.9878
▁ورجن	-10.9882
▁ڀنگ	-10.9883
▁کنيد	-10.9884
▁نسخ	-10.9884
▁عملدار	-10.9885
▁منور	-10.9902
ide	-10.9904
▁پيسٽ	-10.9904
▁آقا	-10.9905
▁گهرائي	-10.9907
44	-10.991
▁ورڊ	-10.9912
▁سگھيو	-10.9914
▁ترس	-10.9914
▁قربان	-10.992
قد	-10.9925
▁وڇ	-10.9929
▁ويه	-10.9929
▁انحصار	-10.9935
▁ساڄي	-10.9937
▁ڪردارن	-10.9939
▁جواني	-10.994
▁راست	-10.994
▁هفتيوار	-10.9941
▁ذوق	-10.9944
▁حفظ	-10.9947
▁جدول	-10.9948
▁فوڊ	-10.995
▁حقيقتن	-10.9951
انس	-10.9952
ورٽ	-10.996
▁لائنز	-10.9963
▁معنا	-10.9965
▁باغي	-10.9965
}	-10.9966
▁ڌنڌو	-10.9966
▁ڪبو	-10.9966
يندڙ	-10.9966
▁ٽا	-10.998
روز	-10.9981
▁پهن	-10.9987
▁on	-10.999
ڊيا	-10.9991
دام	-10.9994
▁کاري	-10.9994
برگ	-10.9994
▁//	-10.9995
▁اتحادي	-10.9996
▁لکان	-10.9997
▁علامه	-10.9997
▁فهم	-11
▁جمعه	-11.0001
اااااااا	-11.0003
▁Bitcoin	-11.0005
▁قسط	-11.0006
▁سامعين	-11.0006
▁پاڙيسري	-11.0006
▁مڙني	-11.0006
▁محفل	-11.0007
▁ڇرڪ	-11.0008
زيد	-11.0008
حر	-11.0008
▁ٽوڙڻ	-11.0009
▁ڏيارڻ	-11.0009
▁نوعيت	-11.0009
▁پیش	-11.0014
▁پرائي	-11.0015
▁گلو	-11.0015
▁ذي	-11.002
▁عنصرن	-11.0021
▁جمال	-11.0021
▁وڃايو	-11.0023
▁هئم	-11.0023
بال	-11.0024
▁دارد	-11.003
▁هنيو	-11.0037
▁An	-11.0045
▁مالياتي	-11.0049
go	-11.0049
▁خانو	-11.0054
▁3)	-11.0076
49	-11.0077
▁Mehm	-11.0077
▁ڏيهه	-11.0077
▁متوقع	-11.008
▁واي	-11.0092
▁ڏيڍ	-11.0092
lana	-11.0094
▁لائي	-11.0095
▁مدني	-11.0095
▁ميڪس	-11.0096
▁نخ	-11.0096
▁ڪاش	-11.0096
▁صلح	-11.0097
فٽ	-11.0099
▁برج	-11.0101
▁دستور	-11.0103
اخ	-11.0105
▁ڌماڪي	-11.0107
▁ڀاڙي	-11.0108
▁ڳاله	-11.0109
▁ڏو	-11.0109
▁حص	-11.0111
▁رسالت	-11.0114
▁مشرقي	-11.0116
▁هندن	-11.0119
▁ٽنهي	-11.0122
AT	-11.0124
▁55	-11.013
توکي	-11.0135
▁صديق	-11.0136
▁خانه	-11.0136
▁پَر	-11.0137
بها	-11.0137
▁اسڪين	-11.0139
tt	-11.0143
ڪنهن	-11.0144
▁صفر	-11.0147
▁هڙتال	-11.0149
▁عظمت	-11.0149
▁بڻجڻ	-11.0149
▁زيد	-11.015
▁زيارت	-11.015
▁هندوستان	-11.0151
▁تجديد	-11.0151
وى	-11.0151
▁ٺاھڻ	-11.0152
▁آگاهه	-11.0154
▁آگهي	-11.0157
▁سرمائي	-11.0157
▁عندنا	-11.0158
▁ير	-11.0162
ااااااا	-11.0163
اءَ	-11.0165
دع	-11.0165
▁وحي	-11.0167
▁مض	-11.0167
▁گھربل	-11.0168
▁رومن	-11.0169
جز	-11.0172
vi	-11.0176
▁الشر	-11.0178
ss	-11.0179
▁ريپ	-11.0185
نڊر	-11.0185
▁کردن	-11.0186
▁روزو	-11.0188
43	-11.0188
▁زياده	-11.019
۷	-11.0193
▁خب	-11.0193
▁صحتيابي	-11.0195
▁**	-11.0196
سيد	-11.0201
▁مشكله	-11.0204
▁شفته	-11.0208
▁الاس	-11.0215
▁ڪول	-11.0218
▁Amr	-11.0221
▁بغداد	-11.0222
▁پرچم	-11.0222
▁پهريائين	-11.0222
▁آڌار	-11.0222
▁پرورش	-11.0223
▁پئسي	-11.0226
▁شموليت	-11.0226
يلينڊ	-11.0227
▁معزز	-11.0229
ft	-11.0229
▁ملائڻ	-11.023
hi	-11.023
▁بڻيل	-11.0231
صاب	-11.0233
▁ڪرم	-11.0237
▁دوائن	-11.0241
▁ڪلهي	-11.0242
85	-11.0246
ليس	-11.0248
▁برگزاري	-11.0249
ااي	-11.0251
▁ايج	-11.0259
▁هنر	-11.0261
جيئن	-11.0261
▁يمه	-11.0261
ئٽ	-11.0265
@	-11.0266
▁آڻيو	-11.0275
▁ديوي	-11.0276
▁سبز	-11.0276
▁sh	-11.0278
▁سٽون	-11.028
▁ڪندين	-11.0282
▁قصي	-11.0284
ايد	-11.0287
▁أخ	-11.0287
بق	-11.0289
تش	-11.029
▁پيمان	-11.0292
▁هيڏي	-11.0292
▁بنگلاديش	-11.0294
▁ھوندا	-11.0295
▁Taj	-11.0295
▁اتوقع	-11.0298
▁ايپليڪيشنون	-11.0299
▁تڪڙ	-11.0299
▁ويٽ	-11.0299
▁تص	-11.03
▁ُ	-11.0302
▁راتيون	-11.0303
ps	-11.0306
▁بخير	-11.0307
شيا	-11.0309
۸	-11.0312
دنيا	-11.0313
▁چيل	-11.0313
▁گند	-11.0315
▁زيادتي	-11.0315
▁حاصلات	-11.0315
فس	-11.0315
غا	-11.0316
▁شش	-11.0318
▁رائيٽ	-11.0322
▁گهڻائي	-11.0331
▁حظ	-11.0332
▁نف	-11.0342
▁هير	-11.0348
▁كبير	-11.035
▁چم	-11.0353
▁سٿ	-11.0354
▁ad	-11.036
ڳي	-11.0362
▁بهتري	-11.0363
▁ڪلهه	-11.0366
▁گهرايو	-11.0366
▁Ba	-11.0366
▁ذهانت	-11.0368
▁بائبل	-11.0368
▁عقيدي	-11.0368
▁فش	-11.0368
▁يڪدم	-11.0368
▁وادي	-11.0369
▁انواع	-11.037
▁جوسينو	-11.0371
یک	-11.0374
▁مقابل	-11.0374
▁وائيس	-11.0374
▁تعلقي	-11.0374
▁پيڪنگنگ	-11.0374
▁نيا	-11.0374
▁توان	-11.0383
▁يق	-11.0383
▁مدرس	-11.0384
▁ايشيائي	-11.0385
▁خالق	-11.0386
▁چاليه	-11.0387
ڊور	-11.0389
▁نشانين	-11.0389
خا	-11.0389
▁سچا	-11.039
ڪلي	-11.0395
▁يڪ	-11.0404
▁اهن	-11.0406
▁7.	-11.0407
▁ڊائري	-11.0409
▁مبارڪون	-11.041
▁جعلي	-11.041
روس	-11.0417
▁حالي	-11.0421
▁اسرائيلي	-11.0423
قلب	-11.0426
▁پائ	-11.0427
▁علا	-11.0428
▁آش	-11.0429
ائج	-11.0431
▁سيم	-11.0433
▁ٻيلي	-11.0434
▁ڊڪ	-11.0436
▁شكلي	-11.0437
ld	-11.044
▁منصوبابندي	-11.0442
▁ڌوئڻ	-11.0442
▁نيڻن	-11.0443
▁پسر	-11.0443
▁اثرائتو	-11.0443
▁جارج	-11.0444
▁قرارداد	-11.0444
دگي	-11.0447
▁مطلق	-11.0448
ئڻ	-11.0451
▁اكبر	-11.0452
▁ma	-11.0452
ah	-11.0453
▁بهره	-11.0454
▁لڪل	-11.0457
▁ٻٽي	-11.0457
▁گونج	-11.0458
▁ٺه	-11.046
▁آفت	-11.046
▁دروازا	-11.046
▁آڻ	-11.0461
▁انگليسي	-11.0463
▁ميني	-11.0474
خو	-11.0475
ڪين	-11.0475
▁شاهد	-11.0475
▁عد	-11.0483
▁مرسي	-11.0484
▁فيسبو	-11.0486
▁بندش	-11.049
صار	-11.049
▁قصه	-11.0491
▁ڪلپ	-11.0493
▁تارا	-11.0493
واني	-11.0494
▁مداح	-11.0502
▁چڪ	-11.0502
گرد	-11.0503
▁کاڌا	-11.0509
فهم	-11.051
▁نع	-11.0511
▁امکان	-11.0515
▁المو	-11.0517
▁بصراحه	-11.0517
▁زلزلي	-11.0517
▁1990	-11.0518
▁تصميم	-11.0522
▁8.	-11.0523
▁داغ	-11.0525
▁لاڙ	-11.0529
▁ای	-11.0532
▁اُٺ	-11.0532
▁وچين	-11.0532
خواه	-11.0532
▁ڇپ	-11.0533
lin	-11.0535
رى	-11.0537
▁اغ	-11.054
سپ	-11.0544
اخر	-11.0546
▁صورة	-11.0551
▁بليڪ	-11.0553
▁ويز	-11.0555
▁وارڊ	-11.0565
▁سيکاريو	-11.0566
▁تكف	-11.0566
▁محور	-11.0571
ight	-11.0573
▁سمجه	-11.0575
▁غار	-11.0578
▁رنج	-11.0581
▁کنيا	-11.0583
▁لالچ	-11.0584
▁مز	-11.0588
ڇي	-11.0591
▁اوطاق	-11.0592
▁اپلوڊ	-11.0592
▁يسوع	-11.0592
▁مشينري	-11.0594
▁ارادي	-11.0595
▁پڇيائين	-11.0595
▁البنات	-11.0596
▁ردعمل	-11.0597
▁فلسفو	-11.0599
رور	-11.06
ميم	-11.0602
رش	-11.0602
بڪ	-11.0606
end	-11.0609
▁پرسش	-11.061
▁***	-11.061
▁شيٽ	-11.0611
ڳا	-11.0616
تزوج	-11.0616
پاسي	-11.0618
▁پٽن	-11.0619
▁ساڻن	-11.0622
▁سٽا	-11.0626
▁ڪڇ	-11.0627
▁عنده	-11.0629
ated	-11.0631
▁می	-11.0631
▁ترجمي	-11.0637
بندي	-11.0639
▁توجه	-11.064
آءٌ	-11.0641
▁روعه	-11.0647
▁جوڙڻ	-11.0652
بلي	-11.0653
▁ديد	-11.0653
▁صلاحيتون	-11.0658
▁دستي	-11.0658
▁حتي	-11.066
▁ڇي	-11.0662
▁سمجھو	-11.0663
لٽ	-11.0666
ue	-11.0667
ि	-11.0667
▁سڀڪنھن	-11.0667
▁لاطيني	-11.0667
▁مايوسي	-11.0668
▁راشد	-11.0668
▁پيچيدگي	-11.0669
آف	-11.0669
▁2006	-11.0672
گين	-11.0673
▁فرش	-11.0675
▁انتظر	-11.0675
ڙهي	-11.0677
▁رز	-11.0677
va	-11.0679
▁ڄاتو	-11.0679
▁نَ	-11.068
شهر	-11.0682
▁پڙه	-11.0687
▁ڪچي	-11.0688
كره	-11.0688
ادا	-11.0689
▁لمحن	-11.0693
69	-11.0699
▁چارٽ	-11.07
قال	-11.0705
▁مسوي	-11.0708
▁ليٽ	-11.0709
▁رولر	-11.071
ster	-11.0712
ادر	-11.0712
▁اوور	-11.0713
▁فلور	-11.0715
▁لقب	-11.0715
انسان	-11.0718
▁گهران	-11.0719
▁ثانيه	-11.072
▁بخار	-11.0721
▁يهودي	-11.0728
▁آهو	-11.0728
48	-11.0729
▁پاي	-11.073
▁ادو	-11.0731
▁ڪوڙي	-11.0732
▁ڇڏين	-11.0735
صي	-11.0743
▁فساد	-11.0744
▁دٻايو	-11.0745
▁اسٽين	-11.0745
▁گهوڙي	-11.0745
▁مرت	-11.0746
▁ڏٺائين	-11.0746
▁نداره	-11.0746
▁هاڻوڪي	-11.0747
▁حاجة	-11.0748
هتي	-11.0753
▁پوريون	-11.0753
▁طويل	-11.0754
▁وفاق	-11.0755
▁نڪتا	-11.0757
▁سهڻا	-11.0759
▁غلامي	-11.0762
ڌا	-11.0764
▁پنجين	-11.0765
ca	-11.0765
▁اڇا	-11.0766
▁حيدر	-11.0767
▁حاجه	-11.077
▁جهنگلي	-11.077
▁دڙي	-11.0777
▁ربنا	-11.078
▁آلات	-11.078
▁بص	-11.0781
▁رِ	-11.0783
▁جڙي	-11.0783
خبر	-11.0783
▁سوره	-11.0784
▁پڙ	-11.0785
▁j	-11.079
▁غني	-11.0792
سٽي	-11.0794
لان	-11.0794
▁سورج	-11.0795
▁اكتب	-11.0795
▁گس	-11.0796
خلص	-11.0799
▁وفادار	-11.0799
▁واڪ	-11.0801
▁چمي	-11.0801
▁اڙي	-11.0802
▁ڄاڻندا	-11.0802
▁اجر	-11.0805
▁1)	-11.0806
▁43	-11.0807
▁ايوب	-11.0807
▁الام	-11.081
▁حڪمرانن	-11.0814
▁تحقيقي	-11.0814
▁اسڪ	-11.082
▁احتساب	-11.0821
▁الوداع	-11.0821
▁عقيدت	-11.0821
▁مشھور	-11.0821
▁عاجز	-11.0821
▁سرمايو	-11.0821
▁حڪيم	-11.0821
▁افسان	-11.0822
▁تعصب	-11.0823
▁تصدق	-11.0825
▁گهوٽ	-11.0827
▁کيڏي	-11.0832
▁سڙي	-11.0832
▁نظريه	-11.0834
▁ڇوڪريون	-11.0839
▁سلمان	-11.084
▁چؤ	-11.084
▁پرستي	-11.0847
▁پڙھي	-11.085
نسي	-11.0853
▁بالله	-11.0856
▁Pa	-11.0858
ری	-11.0858
▁مشيني	-11.0859
▁ڪجه	-11.086
▁پراڻا	-11.086
▁بغ	-11.0863
▁گفتي	-11.0869
▁بيهڻ	-11.0869
&	-11.087
▁ٿوڪ	-11.0871
ڪون	-11.0874
▁وفي	-11.0874
ليا	-11.0875
75	-11.0877
▁جهنگ	-11.0877
خص	-11.0882
زار	-11.0887
ڪوٽ	-11.0888
▁ڪوچ	-11.0892
الم	-11.0893
▁رئ	-11.0893
▁طا	-11.0894
▁آپريٽر	-11.0896
▁small	-11.0897
جمع	-11.0898
دون	-11.0898
▁دانلود	-11.0898
▁يوڪرين	-11.0898
▁سگھجن	-11.09
▁هيلٿ	-11.0902
▁چڱيء	-11.0903
▁دهشتگرد	-11.0904
▁ڪٺ	-11.0904
▁لڳس	-11.0908
▁×	-11.091
▁مهدي	-11.091
▁ورڇ	-11.0913
▁منصور	-11.0918
▁تفريحي	-11.0919
▁اجتماعي	-11.0925
سڪي	-11.0925
▁رچ	-11.0925
لِ	-11.0927
▁ئ	-11.0931
ms	-11.0937
▁پيري	-11.0938
▁موضوعن	-11.0938
▁أخي	-11.0939
▁درخواستون	-11.0941
ber	-11.0945
غي	-11.0945
▁قص	-11.0945
▁اوليه	-11.0948
▁ڄڻن	-11.0948
َه	-11.0949
▁ٻل	-11.095
▁خاطري	-11.095
-20	-11.0956
▁تحقيقات	-11.096
ماني	-11.0962
▁پيٽر	-11.0965
▁اڳئي	-11.0971
tro	-11.0974
▁64	-11.0974
xBet	-11.0976
▁پوڄا	-11.0977
▁►	-11.0977
che	-11.0977
▁سخن	-11.0977
▁تاثير	-11.0978
تكلم	-11.0978
▁وڪڻڻ	-11.098
▁ڪنن	-11.0981
▁دهلي	-11.0982
▁اڪبر	-11.0983
▁گھٽائڻ	-11.0987
يرو	-11.0988
ليءَ	-11.099
▁سانچو	-11.0991
▁نيز	-11.0993
▁رھڻ	-11.0999
▁پنهون	-11.1
مات	-11.1
▁المللي	-11.1003
▁گدا	-11.1003
▁سگهين	-11.1005
▁چاندي	-11.1006
▁منت	-11.1007
جع	-11.1008
'ـ	-11.1011
▁گرل	-11.1012
▁صفت	-11.1023
▁مورد	-11.1024
42	-11.1025
پنهنجي	-11.1027
▁نقد	-11.1032
▁گراف	-11.1033
▁هدايتن	-11.1035
▁لکڻين	-11.1036
▁جمهور	-11.1039
ارب	-11.1043
▁جگر	-11.1046
▁بدلو	-11.1046
▁پاسن	-11.1048
▁چل	-11.1053
▁زون	-11.1054
▁ندارد	-11.1055
▁ايڊريس	-11.1056
▁ريئل	-11.1057
▁دى	-11.1059
▁جانبدار	-11.106
▁فورس	-11.1061
▁قائل	-11.1061
ائد	-11.1063
▁ذريعا	-11.1067
76	-11.1071
▁نواب	-11.1072
mar	-11.108
port	-11.108
▁la	-11.108
▁دٻي	-11.1081
نڊا	-11.1084
▁پنه	-11.1085
▁فيض	-11.1087
▁بالي	-11.109
▁ٻاري	-11.1099
▁ماشي	-11.1099
▁زندهه	-11.1103
▁Al	-11.1103
▁120	-11.1103
▁اكس	-11.1105
▁انشاء	-11.1106
▁انجن	-11.1107
ارٽ	-11.111
▁خطر	-11.1111
▁تقاضا	-11.1118
غرب	-11.112
▁لسه	-11.112
200	-11.1121
▁اولي	-11.1123
▁ڊار	-11.1123
▁پيٽرول	-11.1133
▁لاڳاپن	-11.1134
▁گريجوئيشن	-11.1134
▁استقبال	-11.1134
▁محصول	-11.1134
▁جرئت	-11.1135
مح	-11.1135
▁ورهايو	-11.1135
▁خواهشمند	-11.1135
▁اُميد	-11.1136
▁قاعدن	-11.1137
▁سفير	-11.1138
▁اڳواٽ	-11.1138
ak	-11.1138
▁رآ	-11.114
▁آفتاب	-11.1141
▁مشرف	-11.1143
▁اشوف	-11.1146
▁يصير	-11.1147
يلا	-11.1148
▁يونيورسٽين	-11.1149
▁ڪُل	-11.1154
ووووو	-11.1154
▁سڏجي	-11.1165
100	-11.1169
▁آتم	-11.117
▁Bo	-11.1171
▁همراه	-11.1175
▁سائنسدانن	-11.1177
▁تسوي	-11.1178
▁فوق	-11.1179
▁ڦير	-11.1183
▁خلص	-11.1185
▁سوير	-11.1187
▁نين	-11.119
ۍ	-11.1192
▁نشي	-11.1194
▁ميگي	-11.1197
▁اندازه	-11.1199
▁سُور	-11.1201
our	-11.1201
▁ڀاتي	-11.1204
▁آڷ	-11.1206
▁سائينءَ	-11.121
▁رنگي	-11.121
نام	-11.1212
ڛ	-11.1214
▁ميهن	-11.1215
▁امتياز	-11.1215
▁ويڙهاڪ	-11.1215
▁هوند	-11.1217
▁جهڙن	-11.1219
▁سگهنداسين	-11.122
▁چيلهه	-11.1221
ally	-11.1221
▁سڃاڻڻ	-11.1222
▁نرس	-11.1223
انت	-11.1225
▁بوس	-11.1228
▁هلڪي	-11.1228
هور	-11.1229
▁38	-11.1231
▁سعد	-11.1233
▁ٻارڙا	-11.1233
▁ڄار	-11.1236
▁خريدار	-11.1237
▁پڄاڻي	-11.1237
ck	-11.1237
▁اخذ	-11.1238
▁عجبني	-11.1238
son	-11.1239
▁ومن	-11.1247
وند	-11.1249
الت	-11.1253
▁ائپ	-11.1254
ذكر	-11.1255
گراف	-11.1256
▁غي	-11.1256
▁ڪنوار	-11.1257
▁شدن	-11.1258
▁ڳالھه	-11.1259
▁راجع	-11.1259
فار	-11.1259
▁لڙائي	-11.1267
دت	-11.1271
▁آگ	-11.1273
▁تنها	-11.1275
▁ڏنڊ	-11.128
▁موسمي	-11.1281
▁لکندا	-11.1284
65	-11.1286
▁نوح	-11.1291
منٽ	-11.1292
▁شارٽ	-11.1293
▁غلطين	-11.1295
▁اسڪرپٽ	-11.1295
▁more	-11.1297
▁ٺٽي	-11.1299
96	-11.13
▁يقطع	-11.13
▁اوزارن	-11.13
▁بكل	-11.1302
▁ساراهه	-11.1303
ّي	-11.1306
▁بعرف	-11.1306
ذب	-11.1306
مري	-11.1311
▁گشت	-11.1316
▁ڳنڍي	-11.1318
▁ڳڻپ	-11.1321
▁سمي	-11.1322
▁بول	-11.1323
تس	-11.1324
ميه	-11.1324
▁do	-11.1333
▁رهان	-11.1334
▁5:	-11.1339
ڙين	-11.1339
▁ماريا	-11.1339
gen	-11.1346
▁آرڪ	-11.1354
▁الحلو	-11.1356
▁سگھ	-11.1357
ٻو	-11.1359
▁ويچاري	-11.136
▁جبت	-11.136
▁ابت	-11.1364
اچ	-11.1365
wa	-11.1368
▁باه	-11.1368
▁دن	-11.1369
تيني	-11.1369
▁پروگرامنگ	-11.1374
▁ليبل	-11.1375
é	-11.1376
▁Windows	-11.1376
▁ڪئلينڊر	-11.1376
▁ايڪسچينج	-11.1376
▁ثواب	-11.1376
▁ايماندار	-11.1377
▁ناقص	-11.1379
▁أس	-11.1379
▁سڪندر	-11.1381
▁درٻار	-11.1381
▁تعيش	-11.1384
▁ميموري	-11.1392
bo	-11.1395
▁ائپس	-11.1395
▁معلم	-11.1396
▁ٻڌائيندو	-11.1399
مب	-11.1399
▁}	-11.1403
▁هلايو	-11.1405
▁کش	-11.1405
ee	-11.1405
مد	-11.1407
▁لٺ	-11.1408
▁فرهنگي	-11.1409
▁بلو	-11.141
▁سيٺ	-11.1412
▁كثر	-11.1412
^	-11.1414
▁اربع	-11.1419
▁اڪائونٽس	-11.142
▁الاهي	-11.142
▁وائس	-11.1426
▁عراقي	-11.1431
▁رياستي	-11.1434
▁يَ	-11.1437
57	-11.144
▁ليکي	-11.1445
▁جدائي	-11.1449
▁خيرات	-11.145
يهر	-11.1452
ڏانهن	-11.1456
طل	-11.1456
▁بستري	-11.1457
ism	-11.1458
▁سرٽيفڪيشن	-11.1458
▁هارڊويئر	-11.1458
▁رومانوي	-11.1458
ٽٽ	-11.1459
▁لف	-11.146
▁ڪارخاني	-11.146
▁ٿلهي	-11.146
▁ڪراس	-11.1461
گس	-11.1465
▁اُٿ	-11.1465
▁مريد	-11.1466
ens	-11.1466
▁طبقن	-11.1468
▁١	-11.1475
97	-11.1482
▁مٿيون	-11.1484
▁ورا	-11.1486
▁عيسوي	-11.1487
▁ايسٽ	-11.1487
▁فلسفه	-11.1488
▁لڪيل	-11.1488
▁گرام	-11.1489
▁ڪيچ	-11.1495
sk	-11.1497
ائيز	-11.1499
▁ملاح	-11.1501
پاڻ	-11.1503
▁نظرياتي	-11.1504
▁اعصاب	-11.1509
▁Ex	-11.1511
▁خدائي	-11.1512
افت	-11.1515
▁ويري	-11.152
▁ورد	-11.1524
▁لڳيون	-11.1524
▁فاصلي	-11.1525
▁لهجي	-11.1526
سار	-11.1528
فور	-11.1529
46	-11.1529
▁بٽ	-11.1534
▁طر	-11.1534
▁مفادن	-11.1536
ڪائي	-11.1536
▁ژ	-11.1537
▁البته	-11.1538
▁ريپبلڪ	-11.1541
▁پنھنجن	-11.1541
▁اڳوڻو	-11.1541
▁برانچ	-11.1541
▁سولي	-11.1542
▁پائونڊ	-11.1544
▁پيرامون	-11.1544
▁ببين	-11.1546
▁سود	-11.1546
▁ائ	-11.1546
ورت	-11.1548
="1	-11.1548
▁مصروفيت	-11.1549
حاول	-11.1549
▁جاوا	-11.1551
▁رزق	-11.1555
▁(5)	-11.1557
لهه	-11.1558
اتك	-11.1559
▁۵	-11.1563
▁هجو	-11.1564
▁تحقيقاتي	-11.1565
فة	-11.1568
▁رهيب	-11.1578
▁اديبن	-11.1579
▁هب	-11.1582
▁ولو	-11.1582
▁خذ	-11.1582
▁روڊن	-11.1584
▁ساره	-11.1585
▁واح	-11.1585
▁زيبا	-11.1589
▁اوك	-11.1589
▁بره	-11.1589
▁ڪک	-11.1589
▁are	-11.159
▁يارب	-11.159
ke	-11.159
▁نيڪي	-11.1591
▁گذاريو	-11.1591
▁ڙي	-11.1593
▁ٻارهن	-11.1593
نتظر	-11.1596
رجع	-11.1597
سيا	-11.1598
▁ٻڏي	-11.1601
ندين	-11.1609
▁مگ	-11.1613
▁سيال	-11.1614
صدق	-11.1616
وور	-11.162
▁ويهن	-11.162
يندا	-11.1623
▁دارومدار	-11.1624
▁ناجائز	-11.1624
▁انضمام	-11.1624
▁ڇڪتاڻ	-11.1624
▁عيوض	-11.1625
▁روايتن	-11.1625
▁اوباما	-11.1625
▁پھريان	-11.1625
▁مذمت	-11.1626
▁ڪارائتو	-11.1626
▁زنان	-11.1627
▁مجاز	-11.1627
▁سُک	-11.1628
▁وسارڻ	-11.1629
▁ماڻ	-11.163
▁2004	-11.1631
▁ريان	-11.1633
▁جذبن	-11.1639
▁ٺاھيو	-11.1642
▁جري	-11.1643
▁مشوري	-11.1645
▁ميٽرڪ	-11.1657
▁ڇڏيائين	-11.166
▁سمجهون	-11.1661
▁اُج	-11.1664
▁شخصيتن	-11.1665
▁مبروك	-11.1665
▁پردي	-11.1671
▁سنت	-11.1673
▁جھلي	-11.1674
ium	-11.1676
▁ٺاهيندا	-11.1676
▁مٺا	-11.1677
سٽا	-11.1678
▁ابد	-11.1681
com	-11.1685
▁مقا	-11.1688
▁كلنا	-11.1688
▁ٽيڪنڪ	-11.169
▁ايٽمي	-11.169
▁نائ	-11.1691
68	-11.1695
▁طلعت	-11.1697
▁ٺاھي	-11.1697
▁اسٽيڪ	-11.1698
▁يون	-11.1699
ڻيون	-11.1701
لب	-11.1702
▁مشينن	-11.1707
▁هيرن	-11.171
ڌن	-11.1713
ess	-11.1714
▁حلوين	-11.1715
▁مؤ	-11.1716
old	-11.1724
رجي	-11.1725
▁ڄاڻون	-11.1727
▁ھلي	-11.1727
we	-11.173
▁ڊر	-11.1735
▁معين	-11.174
راف	-11.1741
▁انتو	-11.1742
▁سورن	-11.1743
▁سياح	-11.1744
شون	-11.1745
▁چٽي	-11.1746
▁اداڪارا	-11.1746
▁لنگ	-11.1751
وفا	-11.1753
▁رلي	-11.1754
▁سلوڪ	-11.1756
▁حنا	-11.1759
▁رومي	-11.1759
86	-11.1761
ign	-11.1762
▁di	-11.1763
▁250	-11.1764
▁ديني	-11.1765
▁پاڻيء	-11.1768
رڊ	-11.1772
آك	-11.1773
ong	-11.1775
▁راي	-11.1781
▁يونس	-11.1784
▁ٻُ	-11.1784
▁برادر	-11.1788
▁ملهائڻ	-11.1793
▁معاملا	-11.1793
▁ٿورڙو	-11.1794
▁ڪُجهه	-11.1794
▁تغ	-11.1794
▁آلودگي	-11.1795
▁ليڪچر	-11.1796
▁ورثي	-11.1796
▁صغير	-11.1797
▁مترجم	-11.1798
▁اجزاء	-11.1801
▁هنج	-11.1803
▁جپاني	-11.1804
▁هفت	-11.1805
92	-11.1809
ai	-11.1812
▁فديت	-11.1813
▁چک	-11.1813
▁خودمختيار	-11.1814
▁لبنان	-11.1814
چن	-11.1814
▁سگھندا	-11.1815
ten	-11.1815
▁ڦٽي	-11.1816
۶	-11.1816
▁ڪمپنيءَ	-11.182
▁ايٽ	-11.1822
ِين	-11.1823
▁بجا	-11.1824
▁Li	-11.1826
▁ميت	-11.1826
>>	-11.1827
ٺا	-11.183
ید	-11.183
ins	-11.1831
▁اِي	-11.1831
ana	-11.1835
▁دوستان	-11.1835
▁6:	-11.1836
▁وبائي	-11.1837
▁اسانکي	-11.1838
اض	-11.1839
▁قلبك	-11.1839
کل	-11.1847
▁کُ	-11.1849
▁ڀائي	-11.1855
ki	-11.1858
▁ڏکيائي	-11.1859
▁ڪُن	-11.1859
ضيع	-11.1861
وووووو	-11.1863
▁فريب	-11.1864
89	-11.1871
ظر	-11.1871
▁ٽم	-11.1873
▁الط	-11.1874
▁Me	-11.1875
فعل	-11.1875
▁پروٽوڪول	-11.1879
▁ڀاڱو	-11.1879
▁پڌري	-11.1879
▁تابعداري	-11.188
▁ھجڻ	-11.188
▁ڏاڪڻ	-11.1881
مثل	-11.1882
▁سهارو	-11.1882
▁ٽام	-11.1882
▁سادگي	-11.1883
ائونڊ	-11.1886
▁البنت	-11.189
▁کردي	-11.189
▁دائرو	-11.1892
▁تور	-11.1893
tor	-11.1894
▁اسرار	-11.1895
▁لمحو	-11.1895
▁پارٽيون	-11.1895
▁لحظه	-11.1899
▁وڌائين	-11.1901
▁رڳ	-11.1905
▁رسالو	-11.1912
▁لڄ	-11.1914
▁ليب	-11.1915
دور	-11.192
گهي	-11.1921
▁جوڙيو	-11.1922
▁ٿورن	-11.1922
▁can	-11.1924
▁جامد	-11.1927
ڪيٽ	-11.1927
▁نڪتي	-11.1927
ud	-11.1931
نھن	-11.1933
▁اسمي	-11.1935
▁بحب	-11.1936
مولانا	-11.1937
▁برٽ	-11.1937
▁گروه	-11.1939
▁ملئي	-11.1939
▁ڳڻي	-11.1945
▁شهزادي	-11.1945
▁چوڻي	-11.1949
▁نك	-11.195
▁گان	-11.1962
▁سوئٽزرلينڊ	-11.1965
▁مظلوم	-11.1965
▁منتظم	-11.1965
▁درباره	-11.1965
▁مصنف	-11.1965
▁العافيه	-11.1965
▁باقاعد	-11.1966
▁اسڪوٽر	-11.1967
▁ڪاڻ	-11.1969
▁Sh	-11.1971
▁ٽنڊو	-11.1971
▁حبيبتي	-11.1976
▁ڳالهائيندڙ	-11.1976
▁موٽيو	-11.1978
▁ڀاڻ	-11.1983
▁دهشتگردن	-11.1983
اڳي	-11.1987
▁پنن	-11.1989
▁حاضري	-11.1994
▁انف	-11.1995
▁داره	-11.1995
▁اٺن	-11.1996
▁هالا	-11.1998
▁سجيل	-11.2002
▁گوري	-11.2005
▁گهوري	-11.2005
▁ڪجھھ	-11.2007
▁قصو	-11.2007
▁اٿو	-11.2009
كش	-11.2009
▁الاءِ	-11.201
▁سِر	-11.2011
▁پٺي	-11.2012
سڪ	-11.2016
59	-11.2017
▁کائو	-11.202
▁موٽو	-11.2021
▁مثلا	-11.2024
قعد	-11.203
▁جيترا	-11.2038
▁فونٽ	-11.2039
ليڪ	-11.2042
▁ٽائم	-11.2042
ٽيشن	-11.2042
▁جند	-11.2044
▁سياستدان	-11.2047
▁ساڙي	-11.2049
▁,,,	-11.2051
▁آڪسيجن	-11.2052
▁اڳڀرائي	-11.2052
▁منتديات	-11.2052
▁نوٽيفڪيشن	-11.2052
▁خاندانن	-11.2052
▁آنلائن	-11.2052
▁سوويت	-11.2052
▁پکسل	-11.2053
▁پروموشن	-11.2053
▁ناٽڪ	-11.2055
▁اينجلس	-11.2056
▁سمجهندو	-11.2057
▁پيراهن	-11.2057
▁پيوست	-11.2058
▁سينئر	-11.2058
▁الوقت	-11.2058
▁چاچا	-11.2059
▁آيه	-11.206
▁an	-11.206
▁اخو	-11.2063
▁گڏي	-11.2064
▁ڳولها	-11.2064
▁دوائون	-11.2065
نداسون	-11.2066
▁ضحكتني	-11.2066
▁ماتحت	-11.2068
▁ھميشه	-11.2068
▁ارجو	-11.2069
▁ڊڄي	-11.2071
ڄي	-11.2072
▁ٽيڪسٽ	-11.2074
▁ساھ	-11.2075
▁ڇڏيان	-11.2076
▁لنا	-11.2078
io	-11.2079
<	-11.208
▁se	-11.2082
تڪ	-11.2083
hy	-11.2084
▁مارئي	-11.2087
▁وينداسين	-11.2088
انهن	-11.2088
▁سڏيندا	-11.209
▁مٺو	-11.2093
▁منكم	-11.2094
سلم	-11.2095
▁هيڪر	-11.2097
ds	-11.2099
اُ	-11.21
▁pre	-11.21
▁ڪمائڻ	-11.2102
▁طبع	-11.2102
ينو	-11.2107
▁جيسين	-11.2112
▁ڳو	-11.2115
▁😂	-11.2116
▁وص	-11.2117
▁شاد	-11.2123
▁الحل	-11.2124
▁مقناطيسي	-11.2131
▁هلن	-11.2134
▁تبين	-11.2139
▁بينظير	-11.214
▁مھينا	-11.214
▁آزمون	-11.214
▁تجويزون	-11.214
▁پارٽنر	-11.214
▁سنجي	-11.214
▁ويڪسينيشن	-11.2142
▁پريشر	-11.2145
▁پهاڙ	-11.2146
آئي	-11.2146
▁ڄمڻ	-11.2148
ings	-11.215
▁رهون	-11.2152
▁42	-11.2153
▁پنجاهه	-11.2153
▁تأ	-11.2156
▁ڊين	-11.2159
▁پرسيد	-11.2159
▁1,	-11.2159
▁ڇُ	-11.2159
▁پوش	-11.2162
ٻئي	-11.2169
ينڊ	-11.217
▁هلو	-11.2174
▁تست	-11.2177
1"	-11.2177
▁ترجمه	-11.2178
ائيزيشن	-11.218
▁اختر	-11.218
▁پيئ	-11.2184
▁as	-11.2186
▁خطن	-11.2186
،000	-11.2195
▁ٻڌا	-11.2195
▁كريم	-11.2196
▁پريميئ	-11.2196
93	-11.2199
▁اگهه	-11.2199
51	-11.2202
عيد	-11.2204
اخذ	-11.2204
▁هك	-11.2207
▁ڀرتي	-11.2208
▁پشت	-11.2212
ليو	-11.2215
▁نل	-11.2216
▁گھم	-11.2216
هيه	-11.2222
خاص	-11.2224
न	-11.2228
▁سرمايه	-11.2228
▁گارنٽي	-11.2228
[/	-11.2229
▁اسٽائل	-11.2229
▁نانءُ	-11.2229
▁تعميل	-11.2229
ox	-11.223
▁طو	-11.2231
▁Sa	-11.2231
▁گواهي	-11.2231
▁منشيات	-11.2234
▁مٿن	-11.2236
▁الصورة	-11.2236
ance	-11.2239
▁وفد	-11.2241
▁ٿڪجي	-11.2243
▁توتي	-11.2247
▁هارين	-11.2247
▁فاصلو	-11.2248
▁Con	-11.2249
▁نگران	-11.2252
ical	-11.2253
سته	-11.2257
▁حادث	-11.2258
جيب	-11.2259
fe	-11.2259
▁ڪافر	-11.226
dy	-11.2261
لال	-11.2261
▁معكم	-11.2263
▁غبي	-11.2263
▁حياتيات	-11.2264
▁گلابي	-11.2265
▁ڀور	-11.2266
q	-11.2266
▁مهربان	-11.2267
ٹر	-11.2268
▁نچ	-11.2269
▁ڇهين	-11.2269
▁سوچيم	-11.227
▁گندي	-11.2271
آآي	-11.2273
▁پروف	-11.2273
▁پراڻن	-11.2273
▁ٻوٽو	-11.2276
▁ڪاڪ	-11.2279
he	-11.2282
▁خزان	-11.2283
▁نق	-11.2285
if	-11.2285
▁ٿانو	-11.2286
▁ٿري	-11.2286
▁ڪمپنيء	-11.2287
▁متل	-11.2287
▁پڇيم	-11.229
▁منزلن	-11.2298
▁يحب	-11.2299
▁اسپام	-11.2303
▁پک	-11.2304
▁السو	-11.2305
▁موٽائي	-11.2306
▁ارت	-11.2308
حك	-11.231
▁کانسواء	-11.2311
▁ڌارين	-11.2315
▁سٺن	-11.2315
▁دانشور	-11.2317
▁تفسير	-11.2318
▁ڏاڙهي	-11.2319
▁1980	-11.232
▁ذهين	-11.2321
▁جائزي	-11.2321
▁ڊوڙندو	-11.2323
▁ڪمزوري	-11.2323
▁واو	-11.2323
▁قالت	-11.2325
▁يوزر	-11.2328
▁سرن	-11.2329
▁ساعت	-11.233
</	-11.233
▁ويجهڙائي	-11.2332
▁ايوا	-11.2333
▁ٽريڊ	-11.2334
▁ڪيڏا	-11.2335
▁وڙ	-11.2336
▁اسٽو	-11.2337
▁ڇپيو	-11.2337
▁پرويز	-11.2337
▁اوه	-11.2338
▁سمو	-11.2338
▁رابطه	-11.2344
▁مُن	-11.2344
ليه	-11.2344
▁فرياد	-11.2345
ating	-11.2347
▁تڪڙي	-11.2349
رُ	-11.235
رسي	-11.2351
▁ذميداري	-11.2351
لل	-11.2352
▁ٻڪري	-11.2353
▁ٽور	-11.2354
▁سڏين	-11.2354
▁Ra	-11.2357
▁لٽ	-11.2357
79	-11.2357
▁خلاصو	-11.2359
▁لام	-11.2363
▁بضحك	-11.2364
▁حت	-11.237
low	-11.2371
41	-11.2373
▁سايت	-11.2373
تف	-11.2376
▁سندر	-11.238
▁لهم	-11.238
ٻا	-11.2381
▁شري	-11.2391
▁گُل	-11.2393
وٽي	-11.2393
71	-11.2394
لاء	-11.2403
▁؟؟؟؟	-11.2407
ڹ	-11.2407
▁اقتباس	-11.2407
▁مخاطب	-11.2407
▁چنيسر	-11.2407
▁ثانوي	-11.2407
▁اسڪالرشپ	-11.2407
▁ورهايل	-11.2408
▁Zone	-11.2408
▁بااثر	-11.2408
▁دقيق	-11.2408
▁معاون	-11.241
▁بدو	-11.2411
▁افضل	-11.2413
▁گهاٽ	-11.2414
مونکي	-11.2414
▁جبهه	-11.2415
▁يطلع	-11.2417
▁چڙهڻ	-11.2418
شتي	-11.2419
▁ٽوپي	-11.2419
▁جولاء	-11.2419
▁اندازي	-11.2422
▁کڻندا	-11.2427
qu	-11.2429
▁جاندار	-11.2432
▁سِڪ	-11.2436
تق	-11.2437
▁ھيون	-11.2441
▁ٻو	-11.2441
▁لمحي	-11.2443
▁رق	-11.2443
عطي	-11.2444
ئم	-11.2445
▁هڏ	-11.2445
eg	-11.2448
▁مدو	-11.2451
▁ماسڪو	-11.2452
▁متي	-11.2456
▁ميگه	-11.246
▁گفتم	-11.246
▁85	-11.2464
61	-11.2471
▁رڻ	-11.2471
طب	-11.2472
فيش	-11.2474
AS	-11.2476
سافر	-11.2478
do	-11.248
AR	-11.2483
▁ڪچ	-11.2484
▁dis	-11.2486
▁لڳندا	-11.2487
طبخ	-11.2489
خل	-11.2489
▁اميره	-11.2491
▁اوى	-11.2494
اده	-11.2497
▁ممبئي	-11.2498
▁دائود	-11.2498
▁مواضيع	-11.2498
▁اھڙو	-11.2498
▁مهانگو	-11.2498
▁آئرلينڊ	-11.2498
▁آسٽريا	-11.2498
▁پيشنهاد	-11.2499
▁شفقت	-11.2499
rg	-11.2499
▁مارشل	-11.2499
▁راغب	-11.2499
▁sp	-11.25
▁لکو	-11.25
▁ايڪسڪسڪس	-11.2501
▁ڳوٺاڻن	-11.2501
▁100%	-11.2503
▁لاچار	-11.2507
ُور	-11.2507
▁وکر	-11.251
ord	-11.2513
▁سيٽن	-11.2515
▁للم	-11.2518
▁امت	-11.252
▁گيج	-11.2521
▁منزلون	-11.2523
ٿن	-11.2525
▁الجو	-11.2526
▁گھرن	-11.2528
▁حملا	-11.2528
▁وفاداري	-11.2528
▁اجا	-11.2529
▁حڪومتن	-11.2529
هہ	-11.2531
▁6-	-11.2532
ئان	-11.2532
▁پنهنجيءَ	-11.2534
▁لاٿو	-11.2535
▁طبق	-11.2536
▁ڪيمپ	-11.2536
▁ڪنڊي	-11.2539
▁واريءَ	-11.2542
پرو	-11.2548
▁حڪمن	-11.2553
جنگ	-11.2553
▁تبليغ	-11.2555
▁قاعد	-11.2557
▁ڇوڪرن	-11.2557
pl	-11.2567
58	-11.2575
▁سمعت	-11.2575
▁خف	-11.2578
▁مذ	-11.258
▁عندكم	-11.258
▁هُجي	-11.2583
▁ويد	-11.2584
▁ضرورتون	-11.2588
▁ڊوڙي	-11.2589
▁ڪيش	-11.2589
▁سڳورن	-11.259
▁Instagram	-11.259
▁استحصال	-11.259
▁مائڪروسافٽ	-11.259
▁ويژگي	-11.259
▁عقيدو	-11.259
▁علشان	-11.2591
▁ڊپريشن	-11.2591
▁گرائونڊ	-11.2591
▁ويلڊنگ	-11.2591
▁رابرٽ	-11.2591
▁سائبر	-11.2592
▁وآله	-11.2592
▁قياس	-11.2592
7"	-11.2592
▁ابتڙ	-11.2594
▁عي	-11.2594
▁دلڪش	-11.2595
▁٢	-11.2595
▁سوپ	-11.2596
▁بخاري	-11.2597
▁ڪوڪ	-11.26
▁ڳولهيو	-11.26
▁مرگ	-11.2602
▁ارو	-11.2602
▁ايدي	-11.2603
▁نقطو	-11.2604
▁نواف	-11.2605
▁ملٽي	-11.2605
▁ڏسندڙ	-11.2607
▁اسٽر	-11.2607
▁الحق	-11.2609
▁ٽچ	-11.261
▁سائز	-11.261
▁over	-11.2611
▁تاني	-11.2612
▁ڇڏيندس	-11.2615
▁انتم	-11.2615
▁نگاهه	-11.2616
ran	-11.2616
mb	-11.2617
▁ڪَن	-11.2619
▁سرو	-11.262
▁خواست	-11.262
▁ملايو	-11.2622
▁GB	-11.2623
▁اى	-11.2624
▁دارا	-11.2625
▁بيٽا	-11.2627
▁ذميواريون	-11.263
ھه	-11.2632
▁صوت	-11.2633
٠	-11.2634
ستائين	-11.2636
بابا	-11.2637
▁منا	-11.2639
-5	-11.2641
▁ليڊ	-11.2643
▁معاهد	-11.2643
▁ڀٽ	-11.2645
ائتي	-11.2645
NA	-11.2646
▁كلكم	-11.2646
▁معاوض	-11.2647
▁اڏامي	-11.2649
▁راني	-11.2651
▁ايدك	-11.2653
پاڪستان	-11.2654
یش	-11.2655
زان	-11.2659
▁ڪئن	-11.266
▁وائر	-11.2661
▁جنگل	-11.2662
▁ڀٽي	-11.2663
▁باي	-11.2664
▁پروڊڪٽ	-11.2665
▁وخ	-11.2665
▁گاڏيون	-11.2667
▁آقاي	-11.267
اكل	-11.2672
▁جلال	-11.2673
قف	-11.2674
▁دشمني	-11.2677
▁ڊراما	-11.268
▁حدون	-11.268
▁بگو	-11.2681
▁ميوو	-11.2681
▁جنون	-11.2682
▁آپگهات	-11.2683
▁انفارميشن	-11.2683
▁ايلومينيم	-11.2683
▁ميٽروپوليٽن	-11.2683
▁ورڪشاپ	-11.2683
▁ٽرانزيڪشن	-11.2683
▁ڊرائنگ	-11.2683
▁پناهگير	-11.2683
▁بيشمار	-11.2683
▁ڪھڙو	-11.2683
▁شريعت	-11.2683
▁تڙ	-11.2683
▁قبرستان	-11.2684
▁1947	-11.2684
▁دختر	-11.2686
▁مناسبت	-11.2689
▁لٿو	-11.269
▁مميز	-11.2691
▁آرزو	-11.2692
▁مباني	-11.2694
▁جمعيت	-11.2695
▁گھري	-11.2696
▁قويه	-11.2696
▁بلبل	-11.2701
▁رڙيون	-11.2702
▁اڀ	-11.2703
▁ولله	-11.2704
▁مقدر	-11.2706
▁مداحن	-11.2707
▁شماره	-11.2708
▁بيٽنگ	-11.2709
▁سرڪٽ	-11.2714
▁ود	-11.2716
▁وهن	-11.2717
▁فروش	-11.2717
▁مرچ	-11.2722
▁مٿا	-11.2722
▁طبقو	-11.2723
▁ويڙهي	-11.2724
▁سبزي	-11.2724
رک	-11.2727
▁ميلون	-11.2732
▁ڀوڳ	-11.2733
رتي	-11.2735
▁هوءِ	-11.2736
▁پيشرفت	-11.2738
كار	-11.2738
▁چڙه	-11.274
▁هلون	-11.274
▁تاريخن	-11.2744
ھون	-11.2744
▁لالا	-11.2744
▁وٺان	-11.2745
form	-11.2747
▁پِ	-11.2749
ھان	-11.275
▁پنڊ	-11.2754
▁گيس	-11.2755
▁ميزان	-11.2755
▁هزارن	-11.2757
▁گناهن	-11.2758
▁عدل	-11.2759
خط	-11.2763
▁عوامل	-11.2766
▁صل	-11.2767
▁Mac	-11.2769
▁ميليون	-11.2775
▁نامعلوم	-11.2776
▁Martech	-11.2776
▁خورشيد	-11.2776
▁تصوف	-11.2777
▁گهيرو	-11.2777
▁ميلو	-11.2778
▁هيئت	-11.2778
▁مُلڪ	-11.2778
▁آريا	-11.2782
وڻ	-11.2782
▁ڪھاڻي	-11.2783
▁گرجا	-11.2784
56	-11.2786
▁مڙي	-11.2791
ناس	-11.2792
▁ٽائي	-11.2793
▁فعاليت	-11.2794
▁2001	-11.2794
▁<<<<	-11.28
▁تعلم	-11.2802
▁ٽائيپ	-11.2807
▁وڌندو	-11.2807
▁ٽٽي	-11.2812
▁سهيل	-11.2813
▁آح	-11.2818
▁ڦڙ	-11.2819
برو	-11.282
ااااي	-11.2824
▁Br	-11.2825
▁سنج	-11.2827
ضع	-11.2828
▁ڪاهي	-11.2831
▁چونڊجي	-11.2832
ويل	-11.2841
ons	-11.2845
▁منافع	-11.2845
بح	-11.2846
▁توبه	-11.2848
▁شكر	-11.285
▁اسٽري	-11.2855
ذآ	-11.2861
▁دشمنن	-11.2863
ريس	-11.2865
pi	-11.2866
▁surname	-11.287
▁نمائندن	-11.287
▁چوڌري	-11.287
▁معذرت	-11.287
▁ڏهاڪن	-11.287
▁زاهد	-11.2871
▁ڏٺل	-11.2871
▁ڳولهڻ	-11.2871
▁لغت	-11.2871
▁1970	-11.2872
▁کتاب	-11.2873
▁ورتائين	-11.2873
▁مزاحيه	-11.2873
▁نميشه	-11.2874
فش	-11.2874
▁کامل	-11.2875
▁bo	-11.2876
▁روعة	-11.2876
▁مشعل	-11.2876
▁پی	-11.2877
▁ڦيري	-11.288
▁ڀڃي	-11.2883
▁سعود	-11.2884
▁مبني	-11.2887
▁ڪپهه	-11.2887
یت	-11.2893
طلب	-11.2894
▁ڏهين	-11.2896
▁سانوڻ	-11.2897
▁افهم	-11.2898
▁Lo	-11.2906
▁سكر	-11.2906
▁حادثو	-11.2909
▁جواز	-11.2909
▁ازل	-11.2909
نيٽ	-11.2913
▁(2	-11.2913
▁پکيڙ	-11.2914
شتري	-11.2916
غر	-11.2916
▁ڀان	-11.2918
▁دول	-11.2918
oc	-11.2919
▁انجيل	-11.292
▁خرچن	-11.2924
▁شف	-11.2925
sis	-11.2927
▁تمنا	-11.2928
بى	-11.2929
▁سرت	-11.2931
▁پٺ	-11.2941
▁رسال	-11.2942
▁آئس	-11.2943
▁دادا	-11.2944
▁ميئر	-11.2946
▁اصليت	-11.2951
داء	-11.2953
▁ويڙه	-11.2957
آهن	-11.2958
▁سينٽي	-11.2958
▁ترت	-11.2958
▁واھ	-11.2958
اريو	-11.296
▁پاليسين	-11.2962
باد	-11.2964
▁سپن	-11.2965
▁سينٽرل	-11.2965
▁Surname	-11.2966
▁فضول	-11.2966
▁سرپرست	-11.2966
▁پورهيو	-11.2966
▁چاٻي	-11.2967
▁منھنجا	-11.2967
▁رشتن	-11.2967
▁فط	-11.2968
▁مٽائڻ	-11.2969
▁مارٽن	-11.297
پول	-11.2971
▁ورجائي	-11.2971
▁وحدة	-11.2972
▁نثر	-11.2974
▁چيومانس	-11.2974
▁بخت	-11.2975
ديو	-11.2976
▁ڏڪار	-11.2977
▁ڏوھ	-11.2979
▁شهور	-11.298
▁اقرار	-11.2981
ness	-11.2988
▁جتن	-11.2989
lic	-11.2989
▁ڇوڙ	-11.2991
یل	-11.2992
▁درياءَ	-11.2993
▁مشك	-11.2996
▁ايوه	-11.2997
▁اچار	-11.3001
▁صر	-11.3002
▁ٺڳي	-11.3005
▁شاخون	-11.3006
▁آسانيء	-11.3008
▁ميار	-11.3011
خاف	-11.3012
0،000	-11.3014
▁الث	-11.3016
▁جناح	-11.3016
▁پرک	-11.3023
رندڙ	-11.3025
ڪرو	-11.3025
be	-11.3026
•	-11.3026
▁الى	-11.3029
▁واحده	-11.3029
ya	-11.3034
▁روئ	-11.3035
▁فيكم	-11.3041
الك	-11.3044
▁52	-11.3046
▁آڱر	-11.3048
▁ڄاڻن	-11.305
٢	-11.3051
▁سپلائر	-11.3051
▁عو	-11.3058
▁ڏنگ	-11.3059
▁ليست	-11.3059
اُنھن	-11.3061
▁Huawei	-11.3062
▁آڪسائيڊ	-11.3062
▁پرڪشش	-11.3062
▁جهيڙو	-11.3062
▁طارق	-11.3062
▁عنه	-11.3062
▁نقاب	-11.3064
▁اسپيس	-11.3065
▁برس	-11.3068
▁پيرو	-11.3069
▁بصيرت	-11.307
▁وسي	-11.3081
▁ڏاڍ	-11.3082
▁ڏيکاريا	-11.3082
▁ميٽنگ	-11.3086
▁المل	-11.3088
قى	-11.3089
▁منشي	-11.309
▁نصف	-11.309
الدين	-11.309
▁ملاك	-11.3092
▁عباس	-11.3092
گيري	-11.3094
▁تربيتي	-11.3094
▁هج	-11.3098
▁چی	-11.31
US	-11.3102
ڀي	-11.3102
شل	-11.3102
▁ياليت	-11.3104
▁رائي	-11.3104
▁ch	-11.3104
▁ڪوٽنگ	-11.3104
▁سٺ	-11.3106
▁قيدين	-11.3107
▁it	-11.3112
▁الفا	-11.3114
▁Ar	-11.3114
▁وندر	-11.3114
▁وف	-11.3117
ling	-11.3118
ريٽ	-11.3123
آآآآ	-11.3124
▁واخ	-11.3124
▁چڪيون	-11.3124
ويو	-11.3129
تنهنجي	-11.3134
گهر	-11.3135
ختي	-11.3137
▁98	-11.3139
لح	-11.314
▁وجهه	-11.3141
▁مومن	-11.3142
▁ڪبي	-11.3146
ara	-11.3149
▁چٽو	-11.3152
وزي	-11.3153
▁آور	-11.3153
▁غذائي	-11.3157
▁مٽا	-11.3158
ۡ	-11.3159
▁مخدوم	-11.3159
▁ISO	-11.3159
▁جمهوريه	-11.3159
▁طبقاتي	-11.316
▁اجاگر	-11.316
▁تجسس	-11.3162
▁ڏوهن	-11.3163
▁كلش	-11.3165
ڏن	-11.3166
▁آسماني	-11.3167
que	-11.3167
▁فضائي	-11.3167
="6	-11.3168
▁چاھي	-11.3172
▁نشو	-11.3174
mer	-11.3177
راڻي	-11.3177
▁شيئرنگ	-11.3185
▁بعضي	-11.3186
▁ڊرائيونگ	-11.3186
1:	-11.3193
▁عنك	-11.3193
▁خودت	-11.3194
▁انڊونيشيا	-11.3194
▁هنگامي	-11.3196
ite	-11.3197
▁تجربه	-11.3199
لات	-11.3203
▁نائين	-11.3207
▁آندي	-11.3207
▁حرارتي	-11.3207
▁اريد	-11.3208
▁بارش	-11.3209
▁بلب	-11.321
اقي	-11.321
▁برتن	-11.3211
▁وڌندا	-11.3219
▁جهاد	-11.3221
▁پنير	-11.3222
ايش	-11.3222
▁سَر	-11.3225
▁اسيمبليءَ	-11.3225
▁ترڪيب	-11.323
▁حبي	-11.3231
۰	-11.3233
.000	-11.3234
ورس	-11.3237
سازي	-11.324
87	-11.324
ary	-11.3241
▁ٿاڻي	-11.3242
▁بمبئي	-11.3245
تعرف	-11.3248
▁مشكل	-11.3253
▁هٽي	-11.3254
انچي	-11.3255
▁پالڻهار	-11.3257
ڪش	-11.3258
▁تضاد	-11.3258
▁پهچندي	-11.3258
▁اسپيني	-11.3259
▁ذوب	-11.326
▁ڪاربان	-11.3261
▁لاڏاڻو	-11.3262
▁برداري	-11.3264
▁ٻوڙ	-11.3264
▁ٽريول	-11.3265
▁سڃاڻ	-11.3266
har	-11.3267
▁واسي	-11.3268
▁600	-11.3268
َل	-11.3269
▁سڱ	-11.327
▁گروهن	-11.3271
جمل	-11.3271
▁ستين	-11.3274
▁لائ	-11.328
▁حوا	-11.3281
▁قبلي	-11.3283
▁سرمائيداري	-11.3285
▁پوپ	-11.3286
آد	-11.3286
▁سمن	-11.3287
▁شمس	-11.3289
▁ميگا	-11.3293
ابا	-11.3294
▁راسك	-11.3295
▁بتن	-11.3296
▁حبيت	-11.3297
ob	-11.3299
bi	-11.33
▁اڇلائي	-11.3303
▁ماب	-11.3304
▁vi	-11.3308
▁حقدار	-11.3309
▁متى	-11.3311
▁سوڍ	-11.3311
▁تبا	-11.3316
▁y	-11.3317
ندن	-11.3326
هاڻ	-11.333
▁ڪِي	-11.333
▁رکان	-11.3333
▁پريان	-11.3334
▁آفريڪي	-11.3335
63	-11.3336
▁بشه	-11.3339
▁قطعي	-11.3339
▁بات	-11.334
▁زا	-11.334
▁آخه	-11.3341
▁قوتن	-11.3341
آباد	-11.3343
ial	-11.3343
▁طبعي	-11.3344
▁ايد	-11.3348
▁چاهت	-11.335
▁ونگ	-11.335
▁رفته	-11.3351
▁آرٽسٽ	-11.3351
▁بيٽ	-11.3355
▁ڌن	-11.3356
▁ڪسٽمائيز	-11.3356
▁شنگھائي	-11.3356
▁بااختيار	-11.3356
▁ڪاروائي	-11.3356
▁آرشيو	-11.3356
▁ايجنڊا	-11.3356
▁بندرگاهه	-11.3356
▁قبيلي	-11.3356
▁ڏِس	-11.3356
▁اظن	-11.3357
▁ضبط	-11.3357
▁هادي	-11.3357
▁قاسم	-11.3358
▁چاچي	-11.3361
▁جارجيا	-11.3361
▁بزن	-11.3362
▁اڳين	-11.3362
▁وسعت	-11.3362
▁پلاٽ	-11.3362
2"	-11.3363
رحم	-11.3365
▁اشو	-11.3365
▁پهچندو	-11.3366
▁اشاري	-11.3369
▁وقفي	-11.3371
▁ھئ	-11.3371
▁هوندس	-11.3371
▁مُرڪ	-11.3375
▁آرٽس	-11.3379
پرس	-11.3384
روم	-11.3387
res	-11.3388
Co	-11.3389
▁سارنگ	-11.3392
ديه	-11.3392
▁ملير	-11.3395
▁پاڙون	-11.3397
▁ڀتين	-11.3398
شى	-11.34
ياد	-11.3401
▁مزار	-11.3404
▁نی	-11.3405
▁ڇانو	-11.3407
▁سويڊن	-11.3409
▁جوڳو	-11.342
▁انته	-11.3422
▁ويڪر	-11.3422
▁آڻيندي	-11.3423
▁کند	-11.3425
▁en	-11.3428
ted	-11.343
▁2002	-11.343
▁خودمختياري	-11.3432
قوم	-11.3435
▁گڏهه	-11.3436
▁رهياسين	-11.3437
▁Vi	-11.3439
وگرافي	-11.344
▁خوشحال	-11.344
▁ex	-11.3441
▁جبر	-11.3444
▁منافعي	-11.3445
ٽيو	-11.3445
="0.1	-11.3445
▁حمد	-11.3446
ner	-11.3449
▁ادم	-11.345
▁لانه	-11.3451
ٽيون	-11.3452
▁بيئر	-11.3454
3"	-11.3456
▁Facebook	-11.3456
▁شهنشاهه	-11.3456
▁تجزيي	-11.3456
▁ويژه	-11.3456
ذه	-11.3457
▁ٻانهي	-11.3457
▁جرنل	-11.3457
▁اهواز	-11.3459
▁هٿيارن	-11.346
▁شڪارپور	-11.346
▁فنانس	-11.3461
▁اوترو	-11.3462
▁رهواسي	-11.3463
▁انكم	-11.3465
آح	-11.3466
مزح	-11.3467
▁ميٽرو	-11.3467
▁لاني	-11.3468
▁نوازيو	-11.3468
▁رهنديون	-11.347
▁ٻيڻو	-11.347
▁→	-11.3474
▁ځ	-11.3478
▁سفرنام	-11.3478
پيل	-11.3479
يلو	-11.3482
▁ياسر	-11.3483
عمر	-11.3488
▁روپيا	-11.3489
▁موضوعك	-11.3489
▁نسخن	-11.3491
▁اوز	-11.3495
▁Jo	-11.3501
▁تڪڙا	-11.3502
▁هاد	-11.3508
اگر	-11.3513
▁پارس	-11.3518
53	-11.352
▁آره	-11.3521
وومي	-11.3523
94	-11.3524
هاا	-11.3526
▁کانئن	-11.3527
صبح	-11.3527
▁پکڙج	-11.3529
▁يش	-11.3532
▁کوٽائي	-11.3534
ates	-11.3535
▁عني	-11.3536
▁ليل	-11.354
▁وجھ	-11.3545
▁ڳڙ	-11.3546
تنھن	-11.3552
क	-11.3557
▁ڪيٿولڪ	-11.3557
سلي	-11.3557
▁ضابطي	-11.3557
▁پوڙهو	-11.3558
▁پرچون	-11.3559
▁ڇنڇر	-11.356
▁لڪائڻ	-11.356
▁پڇن	-11.356
▁مڃيو	-11.356
▁خيرپور	-11.3562
▁مركز	-11.3563
▁محرم	-11.3563
ركه	-11.3564
▁كدة	-11.3564
▁دعوا	-11.3566
ينٽ	-11.3569
▁نفسه	-11.3569
▁طالع	-11.357
▁ايميل	-11.3572
▁اسف	-11.3572
▁We	-11.3573
▁بوٽن	-11.3574
ice	-11.3577
▁تباھ	-11.3577
▁ڀڄڻ	-11.3581
▁رڪ	-11.3581
عك	-11.3581
▁نصير	-11.3583
▁پڙهندا	-11.3584
▁ٻر	-11.3585
▁فڪس	-11.3585
▁ڏُک	-11.3589
داس	-11.3591
▁قهر	-11.3593
▁مُون	-11.3593
یر	-11.3598
▁يل	-11.3599
▁بگير	-11.3599
▁ريما	-11.36
▁زندگين	-11.3601
▁أهم	-11.3602
▁خيالات	-11.3605
ix	-11.3606
▁بيهاري	-11.3609
▁اسمك	-11.3611
▁عمي	-11.3612
▁ڀون	-11.3613
▁چاه	-11.3613
▁شلون	-11.3614
▁چشمي	-11.3619
▁اوكي	-11.362
▁حوالا	-11.3622
▁توجهه	-11.3624
▁ڊائي	-11.3625
▁معا	-11.3628
ذري	-11.3631
▁روٽر	-11.3634
▁المر	-11.3635
▁اوڏ	-11.3636
▁ويتر	-11.364
ron	-11.3645
red	-11.3645
▁نيوي	-11.3647
▁سح	-11.3648
▁گهرواري	-11.3649
▁II	-11.3651
▁مدر	-11.3651
٨	-11.3659
▁Xiaomi	-11.3659
▁پندرهن	-11.3659
▁گريجوئيٽ	-11.3659
▁ارشاد	-11.3659
▁تجزيه	-11.3659
▁صراحه	-11.3659
▁روزمره	-11.3659
▁تڪميل	-11.366
▁معبود	-11.366
▁مٿئي	-11.366
▁ٽيبليٽ	-11.3662
▁جهل	-11.3663
▁SD	-11.3665
log	-11.3665
▁ڪهاڻيڪار	-11.3668
▁ڪيريبي	-11.3668
▁CO	-11.3671
▁سموريون	-11.3672
ff	-11.3673
▁سمايل	-11.3673
▁ايريا	-11.3673
▁نقصانڪار	-11.3673
مَ	-11.3676
▁ايڊٽ	-11.3676
▁اقدر	-11.3683
▁49	-11.3684
▁زب	-11.3686
▁لق	-11.3686
دها	-11.3688
▁ترسي	-11.3688
▁ملتان	-11.369
▁گهريو	-11.369
ina	-11.3693
▁معاكم	-11.3694
▁قيدي	-11.3698
▁رايا	-11.37
ov	-11.3704
▁رابطا	-11.3706
▁No	-11.3707
▁Be	-11.3709
ator	-11.3711
▁واڻي	-11.3714
ھڙ	-11.3714
فضل	-11.3718
cy	-11.3722
ًا	-11.3725
▁گردن	-11.3727
گهو	-11.3727
سير	-11.3728
▁47	-11.3729
▁رياستون	-11.3729
▁سنڌين	-11.373
▁ٻري	-11.3731
لط	-11.3732
▁موڪلائي	-11.3738
▁نقص	-11.3739
خب	-11.3742
▁ويهاري	-11.3745
91	-11.3749
▁تند	-11.3754
▁عج	-11.3755
▁وايد	-11.3756
▁يعين	-11.3762
▁HTC	-11.3762
▁منسلڪ	-11.3762
▁ٽريفڪ	-11.3762
▁صلاحون	-11.3763
▁ڊائ	-11.3763
▁مجرم	-11.3764
▁جاويد	-11.3764
▁ٺاهيون	-11.3768
▁دڪانن	-11.377
▁صوره	-11.377
▁متوجه	-11.3771
▁46	-11.3771
▁چڙ	-11.3773
▁اُس	-11.3775
▁يسعدك	-11.3779
▁گوڏ	-11.378
شور	-11.3781
▁رايكم	-11.3783
فف	-11.3783
▁ايترا	-11.3785
▁فلسطيني	-11.379
قتل	-11.3792
▁باش	-11.3795
آڪ	-11.3799
دني	-11.38
اااااي	-11.3803
▁لوڏي	-11.3807
▁صحرا	-11.381
9"	-11.3811
َڻ	-11.3812
81	-11.3813
▁ٽاري	-11.3814
صه	-11.3815
▁روحي	-11.3817
▁پئدا	-11.382
▁ويلي	-11.3821
▁چاهه	-11.3821
▁چطور	-11.3822
▁تُنهنجي	-11.3823
▁حالات	-11.3824
ڪنگ	-11.3824
▁فت	-11.3824
▁سمجهائي	-11.3826
▁پتلي	-11.3827
پيش	-11.3829
▁جھان	-11.383
مائي	-11.383
8"	-11.3832
▁بصر	-11.3832
▁پڙهندي	-11.3835
ڍي	-11.3836
▁لج	-11.3837
▁وڌيو	-11.3841
▁Te	-11.3842
شارك	-11.3844
▁گاه	-11.3845
▁آيتون	-11.3845
▁لِ	-11.3847
▁اسپتالن	-11.3848
▁تعال	-11.385
▁ڊرا	-11.3852
▁سھ	-11.3857
^^	-11.3858
▁op	-11.3859
IT	-11.3859
▁ميڊ	-11.3862
▁دفاعي	-11.3863
▁ايگزيڪيوٽو	-11.3866
▁آسودو	-11.3866
▁پاناما	-11.3867
▁واکاڻ	-11.3867
▁اسڪاٽ	-11.3867
▁النكت	-11.3868
▁انيڪ	-11.3868
▁پڙهائڻ	-11.3868
ٹي	-11.3869
▁1995	-11.3869
▁1960	-11.3869
▁عدالتن	-11.387
شكر	-11.387
▁سعر	-11.3872
چند	-11.3872
▁تسلي	-11.3873
ُم	-11.3873
▁عکس	-11.3874
▁گھمڻ	-11.3874
▁ملو	-11.3874
▁منطق	-11.3876
▁آتش	-11.3879
اؤ	-11.3879
▁امري	-11.3881
▁پھچ	-11.3882
gi	-11.3882
فيل	-11.3882
طع	-11.3884
▁ڌماڪو	-11.3885
▁ڳالھيون	-11.3889
▁41	-11.3889
▁ڀانئي	-11.3891
▁ڄاڻندڙ	-11.3892
ave	-11.3892
▁ملان	-11.3895
▁تحليلي	-11.3897
▁پرنٽر	-11.3902
▁مومل	-11.3903
▁al	-11.3903
▁گفته	-11.3904
▁گوڙ	-11.3907
▁هنوز	-11.3907
▁باد	-11.391
▁شوف	-11.3914
ark	-11.3915
1-	-11.3916
▁بدك	-11.3916
▁آندا	-11.3917
▁سلائي	-11.3918
امان	-11.3921
▁پائين	-11.3922
▁وليم	-11.3922
▁ياسين	-11.3922
▁مونکان	-11.3925
▁جايون	-11.3926
▁so	-11.3926
▁لينس	-11.3931
راد	-11.3932
▁خليف	-11.3934
▁رضامندي	-11.3937
▁مامي	-11.3938
▁سامي	-11.394
▁رمز	-11.394
▁بائي	-11.394
ٱ	-11.3943
rr	-11.395
▁مجنون	-11.3952
▁نظرن	-11.3952
vel	-11.3956
▁أو	-11.3957
▁شيرين	-11.3959
EC	-11.396
▁ڳچي	-11.3961
▁کِل	-11.3963
▁درمان	-11.3971
▁ايمرجنسي	-11.3972
▁پيپلزپارٽي	-11.3972
▁مرشد	-11.3972
▁قوانين	-11.3972
▁نوف	-11.3972
▁نانو	-11.3973
▁ڪيبورڊ	-11.3973
▁راب	-11.3973
▁وضعيت	-11.3974
ٽيڪل	-11.3974
▁مڃتا	-11.3975
▁جملا	-11.3975
▁نفيس	-11.3975
▁ٻارڙي	-11.3978
▁منهنج	-11.3978
▁انهم	-11.3978
▁ٻوڙي	-11.3978
▁مائع	-11.3979
▁پيگيري	-11.398
▁الكلام	-11.3983
▁پيتي	-11.3986
▁رحيم	-11.3988
قب	-11.3988
▁الصور	-11.3988
▁جڙ	-11.3988
▁فارمولا	-11.3988
▁اقليت	-11.3989
طق	-11.399
▁کے	-11.399
▁فائ	-11.3992
ls	-11.3994
▁مٺ	-11.3994
▁رياض	-11.3995
ڪڙي	-11.3996
▁فكرت	-11.3996
▁حك	-11.3997
راه	-11.4
▁نز	-11.4002
ڳڻ	-11.4007
▁غل	-11.4008
)))	-11.4011
74	-11.4013
▁آڳ	-11.4015
ٿل	-11.4015
وبي	-11.4016
▁كلي	-11.4016
▁اتفاقي	-11.4018
▁ڳول	-11.4019
▁ڏکن	-11.4019
▁سيٽنگون	-11.402
▁خليل	-11.4021
هبل	-11.4025
▁فاني	-11.4025
راء	-11.4026
▁لگ	-11.4026
فك	-11.4027
▁He	-11.4029
au	-11.4029
ترو	-11.4029
تابع	-11.4029
ائب	-11.403
▁نب	-11.403
▁ڇاپي	-11.403
nt	-11.4031
▁پارت	-11.4033
als	-11.4034
درس	-11.4036
▁ياهو	-11.4037
▁مانيٽر	-11.4042
▁دھ	-11.4044
ڊيل	-11.4045
▁ګ	-11.4048
▁اسر	-11.4054
▁ايڪ	-11.4065
▁ڪلين	-11.4074
▁آغا	-11.4076
ٖ	-11.4078
▁cryptocurrency	-11.4078
▁پراسرار	-11.4078
▁مذھب	-11.4078
▁اقوام	-11.4078
▁آرڪائيو	-11.4078
▁هاسٽل	-11.4078
▁ڪئپٽن	-11.4078
▁رينجرز	-11.408
▁مخزن	-11.408
▁ويساهه	-11.408
اتل	-11.4082
▁اوارڊ	-11.4083
▁ڊانس	-11.4083
▁عابد	-11.4084
▁توي	-11.4085
▁كت	-11.4087
▁سُڪ	-11.4087
▁مُنهنجي	-11.4089
▁خصوصيت	-11.409
▁مث	-11.4091
پيو	-11.4092
▁رك	-11.4093
▁نڪو	-11.4094
▁51	-11.4094
▁عط	-11.4096
أن	-11.4097
▁ڪيٽ	-11.4101
▁فهمي	-11.4102
▁لئي	-11.4106
راح	-11.4107
▁هلان	-11.4109
ٽرز	-11.411
▁واردات	-11.411
▁نفر	-11.4114
▁ڪاوش	-11.4115
▁مثلي	-11.4117
▁سنواريو	-11.4117
▁ملك	-11.4121
▁ٻنھي	-11.4123
▁سيزن	-11.4125
▁فاضي	-11.4131
▁بينڊ	-11.414
ضه	-11.4141
▁زميني	-11.4146
▁اڷ	-11.4148
▁ثم	-11.4148
ثير	-11.4149
▁جانب	-11.4149
▁1.1	-11.4149
▁نوري	-11.4151
▁ساڍ	-11.4151
داني	-11.4154
ستر	-11.4155
لَ	-11.4158
▁go	-11.4159
▁ستارن	-11.4159
▁ڍور	-11.4159
توا	-11.416
>>>	-11.4163
▁هِي	-11.4164
▁حط	-11.4165
▁تاكل	-11.4166
ڙيو	-11.4167
ستا	-11.417
▁همون	-11.4173
iz	-11.4176
▁اوج	-11.4177
اڻين	-11.4178
▁فٽبالر	-11.4178
▁ايندس	-11.4182
out	-11.4184
▁مهمانن	-11.4184
▁ميره	-11.4184
▁آمريکا	-11.4185
▁اڻڄاتل	-11.4185
▁منصوبه	-11.4185
▁انفيڪشن	-11.4185
▁غيرقانوني	-11.4185
▁اختتام	-11.4185
▁ورثو	-11.4186
▁اطلاق	-11.4186
▁آخوند	-11.4187
▁سنسار	-11.4187
▁ٻَ	-11.4188
▁ذھن	-11.4188
▁اتمنى	-11.4189
▁اڄوڪو	-11.4191
▁نظير	-11.4191
▁عالمگير	-11.4191
▁والاري	-11.4193
▁لفٽ	-11.4194
▁بيماريءَ	-11.4197
هااا	-11.4197
▁سکن	-11.4198
▁خواهيد	-11.4199
▁چيمبر	-11.4199
دير	-11.42
▁ورزي	-11.42
▁بقو	-11.4201
▁وضاحتون	-11.4209
▁سرنگ	-11.4212
line	-11.4218
▁00	-11.4219
▁عيني	-11.4219
▁سوچيندي	-11.422
▁هز	-11.4223
▁واءُ	-11.4225
▁پرديس	-11.4226
▁مهراڻ	-11.4228
cu	-11.423
▁پھچي	-11.4232
pt	-11.4234
▁اسلاميه	-11.4236
▁همدردي	-11.4236
▁ٻوٽا	-11.4237
▁مسك	-11.4239
▁چاڙهي	-11.4242
▁ڏجن	-11.4244
شپ	-11.4245
ٻيو	-11.4247
▁والي	-11.4252
▁زنگ	-11.4253
▁ايڪڙ	-11.4253
TN	-11.426
ميز	-11.426
▁پهري	-11.4262
روپ	-11.4264
▁ڏهاڙي	-11.4264
▁ٿياسين	-11.4265
٣	-11.4266
دِ	-11.4267
▁پڄ	-11.4267
▁المع	-11.4269
▁سفري	-11.4273
قسم	-11.4279
▁سيمي	-11.428
باني	-11.428
▁سونا	-11.4281
ولين	-11.4284
▁شَ	-11.4286
▁نح	-11.4289
▁مغرب	-11.4289
▁شمع	-11.4289
احي	-11.429
▁دلال	-11.4291
ors	-11.4292
▁HTML	-11.4294
▁حُسن	-11.4294
▁قميص	-11.4294
▁اينيمڪس	-11.4294
▁پنھنجا	-11.4294
▁ايڪسپورٽ	-11.4294
▁خوشخبري	-11.4294
▁ٽيليگرام	-11.4294
▁عاقل	-11.4294
اهر	-11.4295
▁غمگين	-11.4295
▁(6)	-11.4295
▁پهتس	-11.4295
▁أكيد	-11.4296
▁حلال	-11.4296
▁1997	-11.4296
▁One	-11.4296
▁جزائر	-11.4297
▁آلي	-11.4297
ووون	-11.4299
▁لڌو	-11.4299
▁ڊن	-11.43
▁پڙھڻ	-11.43
▁Do	-11.4302
▁نوڪريءَ	-11.4303
▁ڏيکاريندي	-11.4304
▁اردن	-11.4306
▁ھليو	-11.4306
▁نقشن	-11.431
▁نوشت	-11.4313
▁هئ	-11.4313
▁مکي	-11.4313
وتي	-11.4317
▁وٺون	-11.432
IS	-11.4321
▁تاب	-11.4327
▁نديءَ	-11.4327
▁تصورات	-11.433
▁ٻڌائيندي	-11.433
▁or	-11.4331
يييي	-11.4331
fi	-11.4331
▁الهي	-11.4332
▁ميهار	-11.4334
▁احساسن	-11.4334
پيڊ	-11.4335
▁am	-11.4337
ther	-11.4339
▁ميخ	-11.434
▁بلاگنگ	-11.4343
عض	-11.4346
air	-11.4346
▁حرم	-11.4348
شكل	-11.4353
▁بنگل	-11.4353
▁طبيب	-11.4355
▁بينچ	-11.4361
▁فيئر	-11.4361
▁گرڊ	-11.4362
4"	-11.4366
▁پهلوان	-11.4372
▁sc	-11.4373
▁وغ	-11.4376
ڏس	-11.4377
▁لانگ	-11.4377
پير	-11.4379
▁آهر	-11.4381
▁گهرجون	-11.4382
صاحب	-11.4384
گول	-11.4387
▁مذهبن	-11.4388
اڪو	-11.4388
app	-11.4389
▁قرضن	-11.4392
▁نوڪرين	-11.4393
▁بب	-11.4394
▁امريڪ	-11.4397
اڪي	-11.4397
طالع	-11.4398
؟'	-11.4399
78	-11.4401
ۅ	-11.4404
▁اپارٽمنٽ	-11.4404
▁سنسڪرت	-11.4404
▁عملدرآمد	-11.4404
▁ناانصافي	-11.4404
▁غفلت	-11.4404
▁مشاورت	-11.4404
▁رٿابندي	-11.4404
▁ورهائڻ	-11.4404
▁اقبال	-11.4405
▁سپلائي	-11.4405
▁خميس	-11.4405
▁الطاف	-11.4405
▁ڀروسي	-11.4406
▁تحريم	-11.4407
▁شڪرگذار	-11.4407
▁وسيلو	-11.4408
▁اصحاب	-11.4408
▁سينيئر	-11.4409
▁صالح	-11.4409
ظهر	-11.4409
▁En	-11.441
▁ڇوته	-11.441
▁ماڊلز	-11.4411
▁مظهر	-11.4411
▁تبصرا	-11.4413
▁ضياءَ	-11.4413
ڪان	-11.4414
▁عبير	-11.4414
▁ناروي	-11.4415
▁آجيان	-11.4416
▁چارلس	-11.4417
▁لقيت	-11.4419
▁فورسز	-11.4419
▁آموزش	-11.4419
▁ايري	-11.4419
▁ڳچ	-11.442
▁لاڳيتو	-11.4422
▁بيض	-11.4424
▁بدنام	-11.4425
▁مڊل	-11.4429
▁موڪليندا	-11.4431
▁اٿڻ	-11.4432
▁معدن	-11.4433
▁ويڪ	-11.4434
▁ڪنارن	-11.4434
▁ٻڌندا	-11.4436
شب	-11.4438
▁ذرو	-11.444
▁ليت	-11.444
▁جئن	-11.4441
52	-11.4446
▁امس	-11.4448
▁سردي	-11.4449
▁شرطون	-11.4451
▁اري	-11.4452
▁فرح	-11.4455
▁سطحي	-11.4456
▁56	-11.4459
لهم	-11.446
▁اساس	-11.4461
ووووووووو	-11.4462
▁مثلك	-11.4463
طار	-11.4463
▁تدري	-11.4463
▁وائرل	-11.4463
MS	-11.4465
▁فرو	-11.4466
▁ماهو	-11.4468
▁الزامن	-11.447
وئل	-11.4471
صرف	-11.4472
▁ڌنڌي	-11.4477
▁خوبيون	-11.448
ساس	-11.4485
ב	-11.4486
▁پوٽي	-11.4488
تاريخ	-11.4489
ارڪ	-11.4492
▁مضحكه	-11.4495
▁ابدا	-11.4501
TE	-11.4503
▁يج	-11.4503
▁عيون	-11.4505
▁گرافي	-11.4508
▁عليءَ	-11.4508
صب	-11.4511
▁ران	-11.4513
▁ايرانيان	-11.4513
म	-11.4515
٩	-11.4515
▁اسپورٽس	-11.4515
▁ضابطا	-11.4515
▁ڊوائس	-11.4515
▁براعظم	-11.4515
▁فائديمند	-11.4516
▁ناپسند	-11.4516
▁حراست	-11.4516
▁ڪولمبيا	-11.4517
▁خلوص	-11.4517
▁ٽائر	-11.4518
▁فارغ	-11.4519
▁رهندس	-11.452
▁^_^	-11.452
▁کڻندو	-11.4521
▁مڇ	-11.4523
▁هيري	-11.4524
▁کائيندي	-11.4525
▁وقار	-11.4526
▁توسيع	-11.4528
غه	-11.453
▁ماخذ	-11.4532
▁ڪوٺ	-11.4535
بِ	-11.4536
▁سينو	-11.4536
▁ڊاهي	-11.4539
▁تُون	-11.4546
▁بان	-11.4547
▁عندهم	-11.4554
▁امك	-11.4554
▁بولي	-11.4557
▁نظريا	-11.4558
سول	-11.4559
▁Ne	-11.4561
ھار	-11.4564
ّت	-11.4566
▁53	-11.4567
راب	-11.4569
▁ڊيوڊ	-11.4575
▁پت	-11.4577
▁گهڙيءَ	-11.4579
▁ورڪن	-11.4579
▁جهڙيون	-11.458
▁لحد	-11.458
land	-11.4581
فڪ	-11.4581
ميٽر	-11.4583
▁وياج	-11.4587
▁ايز	-11.4588
▁السي	-11.4591
بيه	-11.4591
▁ڷ	-11.4592
▁سانڍي	-11.4592
▁سڪل	-11.4593
▁وڄائي	-11.4593
زون	-11.4593
▁حسي	-11.4595
TO	-11.4596
▁ڪرسٽل	-11.4597
▁دام	-11.4599
▁مقدم	-11.46
▁رکڻو	-11.4601
▁ڪج	-11.4602
خاني	-11.4602
▁ليا	-11.4602
83	-11.4602
ations	-11.4602
▁خاڪي	-11.4603
▁قب	-11.4603
▁رود	-11.4604
▁معدني	-11.4605
▁صليب	-11.4607
ابت	-11.4609
▁خار	-11.4613
▁وڪيلن	-11.4616
▁وائل	-11.4618
▁جهاني	-11.4622
▁اساسي	-11.4624
▁حلف	-11.4624
▁صوتي	-11.4627
QUOTE	-11.4627
▁فيسٽيول	-11.4628
▁پھريائين	-11.4628
▁غضب	-11.4628
▁استثنا	-11.4628
▁نوڪيا	-11.4628
▁سوانح	-11.4628
▁سڌريل	-11.4628
▁نڀائي	-11.4628
▁جُه	-11.4629
▁اُڃ	-11.4629
▁جاکوڙ	-11.4629
▁هڪجهڙائي	-11.463
▁لياقت	-11.463
ڊونلڊ	-11.463
▁لعل	-11.463
▁ضحكتيني	-11.4631
وڪو	-11.4631
▁هوريان	-11.4632
▁پولينڊ	-11.4632
▁شاءالله	-11.4634
▁فکر	-11.4634
▁اعترف	-11.4634
▁هارمون	-11.4634
▁ڌي	-11.4635
▁لڪايو	-11.4636
▁حاوي	-11.4637
▁سالگي	-11.4637
▁مخلص	-11.464
▁فكرة	-11.4641
یں	-11.4646
▁سڻ	-11.4648
▁شباب	-11.4649
▁وڌائيندو	-11.4649
جرب	-11.4649
▁سائو	-11.4652
▁آڻيندا	-11.4653
جري	-11.4654
▁بلاش	-11.4655
▁مگه	-11.4656
گاهه	-11.4659
▁بعيد	-11.466
ions	-11.4661
▁واتس	-11.4661
▁شبه	-11.4663
▁چڱائي	-11.4663
▁رکجي	-11.4665
▁برق	-11.4666
▁گھٽائي	-11.4666
▁اثرن	-11.4666
▁فرقي	-11.4667
▁اداره	-11.4669
▁بيلٽ	-11.4671
بعد	-11.4672
▁گارڊ	-11.4673
زير	-11.4675
▁ننگ	-11.4677
پت	-11.4679
نيس	-11.4684
▁ٿڪل	-11.4686
▁کنيم	-11.4686
▁جلي	-11.4688
▁Ho	-11.4691
▁ميون	-11.4697
▁ناوي	-11.47
ـِـ	-11.4701
▁الرج	-11.4709
▁احلام	-11.4712
٥	-11.4713
,,	-11.4713
ake	-11.4714
▁چئون	-11.4714
▁لون	-11.4715
▁آھ	-11.4715
▁pb	-11.4718
▁ورڪر	-11.472
▁اڻيو	-11.4722
▁تڙپ	-11.4724
▁ra	-11.4724
ٽيڊ	-11.4724
▁inter	-11.4727
حمد	-11.4729
▁62	-11.473
پال	-11.4735
▁ڍڪي	-11.4735
त	-11.4741
▁بدعنواني	-11.4741
▁ڏکوئيندڙ	-11.4741
ۆ	-11.4741
▁گورنمينٽ	-11.4741
▁اسٽريمنگ	-11.4741
▁عقيدن	-11.4741
▁ٽرانسميشن	-11.4741
▁انحراف	-11.4741
Names	-11.4741
▁ناپسنديده	-11.4741
▁موسيٰ	-11.4741
▁آوازن	-11.4742
▁كأن	-11.4742
▁نمونا	-11.4742
▁بيهوش	-11.4743
▁1988	-11.4744
▁رڍ	-11.4746
مُ	-11.4748
▁سسئي	-11.4751
▁دال	-11.4752
▁راڻا	-11.4753
زز	-11.4753
▁هلائيندڙ	-11.4753
▁شيل	-11.4755
""	-11.4756
▁بلاگر	-11.4757
ڙهو	-11.4757
ڙِي	-11.4757
▁مشكورة	-11.4758
▁مديني	-11.4759
كبر	-11.4762
▁آسرو	-11.4765
▁ڪفر	-11.4766
▁ڇپر	-11.4767
سِ	-11.4768
▁شيعه	-11.4768
▁يهودين	-11.4768
▁ڪمپيوٽرن	-11.4771
▁٣	-11.4771
▁بگي	-11.4771
▁بادشاهي	-11.4772
tan	-11.4773
▁منجھان	-11.4773
▁علت	-11.4774
▁خاڪ	-11.4774
▁پارڪنگ	-11.4775
رار	-11.4776
▁بيروزگاري	-11.4777
▁آجي	-11.4777
▁ٿامس	-11.4777
▁وجھي	-11.4778
▁وإ	-11.478
ناڪ	-11.478
▁ڪاڏي	-11.4782
▁کيڏيو	-11.4784
▁هائو	-11.4785
كمل	-11.4785
▁حوالن	-11.4786
▁ٻُڌي	-11.4786
▁تتر	-11.4788
▁جنهنڪري	-11.4789
▁گرا	-11.4789
OR	-11.4789
شڪ	-11.4792
▁جاهل	-11.4793
▁ھار	-11.4793
▁فنڪشنل	-11.4796
اسڪ	-11.4796
▁انزين	-11.4797
▁ديرو	-11.4799
▁ذك	-11.48
غني	-11.4801
وڏي	-11.4804
▁سائ	-11.4807
{	-11.481
▁جملن	-11.4811
ڊيم	-11.4812
▁ميرو	-11.4815
62	-11.4815
فتي	-11.4817
▁دَ	-11.4818
ةة	-11.4818
▁تنظيمون	-11.4821
▁ابوك	-11.4824
▁ڍڪ	-11.4825
▁سرمائيدار	-11.4826
▁رپورٽون	-11.4829
▁فديتك	-11.4835
▁السر	-11.4836
ارات	-11.4837
▁نک	-11.4838
اوهان	-11.4842
rd	-11.4845
اااااااااااا	-11.4848
▁پيڙا	-11.4852
▁رٽائر	-11.4853
گرام	-11.4855
فتح	-11.4855
▁پالي	-11.4855
▁حيل	-11.4855
®	-11.4856
▁ڪنوينشن	-11.4856
▁قومپرست	-11.4856
▁مهانگائي	-11.4856
▁ناگزير	-11.4856
▁crypto	-11.4856
▁ميگزين	-11.4856
▁حامد	-11.4857
▁سئي	-11.4857
▁اُداس	-11.4857
▁ہے	-11.4857
://	-11.4858
▁فيملي	-11.4859
ڊيو	-11.486
▁اشرف	-11.4866
▁ڌوئي	-11.4866
▁قط	-11.4866
▁تجاري	-11.4867
und	-11.4867
▁اِهي	-11.4867
▁قضا	-11.4867
▁موڪلون	-11.4869
▁حشر	-11.4871
▁پوکڻ	-11.4872
▁سگھندو	-11.4872
▁زالن	-11.4873
امام	-11.4873
▁نڪرندي	-11.4876
▁ملائڪ	-11.4878
▁کوهه	-11.488
▁فجر	-11.4887
▁ساگر	-11.4887
▁گهمي	-11.4888
ure	-11.489
بيني	-11.4895
جوز	-11.4901
AD	-11.4902
▁گام	-11.4913
▁ڀائيوارن	-11.4916
▁اسٽيٽس	-11.4917
▁4)	-11.4917
▁Man	-11.4919
▁ٽيب	-11.4919
▁سريال	-11.492
▁انڊر	-11.4922
▁واسه	-11.4924
▁ڊيز	-11.4924
آق	-11.4928
▁لوڪل	-11.4929
▁ريگ	-11.4933
▁لڏ	-11.4934
▁دوسر	-11.4934
▁گناه	-11.4936
▁گهڻ	-11.4936
موضوع	-11.4939
زاد	-11.494
▁فيلم	-11.494
▁برڪ	-11.494
أإ	-11.4942
▁مى	-11.4944
اندر	-11.4946
ye	-11.4946
-4	-11.4946
▁کړ	-11.4947
▁وحشي	-11.4947
▁دورن	-11.4947
▁دة	-11.4949
▁والم	-11.4951
▁مزاحمتي	-11.4952
ييي	-11.4953
▁الض	-11.4955
▁For	-11.496
ونکي	-11.496
عات	-11.4961
▁ھم	-11.4963
▁پوين	-11.4963
▁800	-11.4967
يييييي	-11.497
▁لڏپلاڻ	-11.4972
▁چانسلر	-11.4972
▁ڪثرت	-11.4972
▁قبيلن	-11.4972
▁گناھ	-11.4972
▁ڪوارٽر	-11.4973
▁شهباز	-11.4973
▁نااهل	-11.4974
▁اناج	-11.4974
▁تماڪ	-11.4975
▁ندا	-11.4976
MA	-11.4976
▁دانشگاه	-11.4977
▁آزمايو	-11.4979
▁ڦاسي	-11.4981
▁حكم	-11.4983
▁پزشکي	-11.4984
64	-11.4985
▁وانتي	-11.4985
▁بيگم	-11.4987
▁آزار	-11.4988
▁افكر	-11.4988
▁ڪافرن	-11.4989
▁گفتن	-11.499
GB	-11.499
▁پليس	-11.4991
▁کڏ	-11.4991
▁مڱ	-11.4994
ern	-11.4998
▁مکڻ	-11.5
▁هيٺئين	-11.5007
خوا	-11.5012
SA	-11.5019
▁عطي	-11.5022
▁خواه	-11.5023
▁اكون	-11.5028
▁گاڏيءَ	-11.5031
ولر	-11.5031
▁تبديليءَ	-11.5035
▁ھنڌ	-11.5035
▁پوپٽ	-11.5035
▁منجهند	-11.5035
▁ساک	-11.5038
▁قوميت	-11.5038
▁تازيون	-11.504
اچي	-11.5041
▁حيوان	-11.5042
قبل	-11.5043
▁دارو	-11.5045
شك	-11.5046
▁بيدار	-11.5051
bit	-11.5051
▁حاس	-11.5057
▁عرس	-11.5058
▁ستي	-11.5058
▁غا	-11.506
1)	-11.506
چڱو	-11.5062
▁ترڻ	-11.5062
▁گوليون	-11.5064
▁مشڪ	-11.5065
▁وچڙ	-11.5068
ڊڊ	-11.5068
▁كار	-11.5071
طرح	-11.508
eng	-11.508
▁تال	-11.5082
du	-11.5082
▁تاجر	-11.5083
ٴ	-11.509
▁this	-11.509
▁افريقي	-11.509
▁هروڀرو	-11.509
▁ڊولپمينٽ	-11.509
ٽون	-11.509
▁حامل	-11.5091
▁ٻچا	-11.5091
▁1992	-11.5092
▁فلپ	-11.5092
▁سُڃ	-11.5092
▁خاتون	-11.5093
▁اشارن	-11.5093
▁الٽرا	-11.5094
▁پتلون	-11.5098
لاءِ	-11.5098
▁رٿيل	-11.5099
▁نشست	-11.51
▁سڏيندو	-11.5102
▁هلندا	-11.5103
▁پذيري	-11.5104
▁ڪهاڻيءَ	-11.5105
[2]	-11.5105
▁يلعب	-11.5105
▁دانش	-11.5108
فصل	-11.5108
▁سندو	-11.5109
▁Ha	-11.5112
▁افراد	-11.5114
نگر	-11.5115
less	-11.5115
▁اروح	-11.5116
▁دائم	-11.5116
▁نقشه	-11.5118
▁يف	-11.512
▁تلخ	-11.5124
▁وعدو	-11.5128
▁شبيه	-11.5128
▁جراحي	-11.5129
▁ٺهيو	-11.513
▁ٺاهيندو	-11.513
▁ورتيون	-11.5131
▁آبادگارن	-11.5133
▁کد	-11.5136
▁كش	-11.5136
▁ڪمرن	-11.5137
▁گھا	-11.5138
▁پرستار	-11.5139
▁رپورٽن	-11.514
▁رڪارڊنگ	-11.514
لله	-11.5141
▁خورد	-11.5146
▁اٺين	-11.5146
▁was	-11.5146
▁اُڏ	-11.5149
▁ڳالھائي	-11.515
▁آمر	-11.5153
▁آوري	-11.5156
حف	-11.5157
▁بگم	-11.5162
▁خوشيون	-11.5162
▁ٺا	-11.5162
▁تسلمي	-11.5164
اما	-11.5166
▁انمي	-11.5168
▁نکن	-11.5171
روجن	-11.5173
▁حَ	-11.5174
▁بردار	-11.5175
▁الحب	-11.5178
▁محترمه	-11.5179
[1]	-11.518
▁وام	-11.5182
▁ماڻھوءَ	-11.5182
اااااااااااااااا	-11.5187
▁تخلي	-11.519
ko	-11.52
▁ڳنڍڻ	-11.5201
▁اينا	-11.5201
طلق	-11.5201
▁ليکڪن	-11.5201
▁کري	-11.5202
▁بريڪ	-11.5207
▁iPad	-11.5209
▁آدمشماري	-11.5209
▁جراثيم	-11.5209
▁ھندستان	-11.5209
▁مشروط	-11.5209
▁فرعون	-11.5209
▁مھينن	-11.5209
▁مذڪور	-11.5209
▁ڏاهپ	-11.5209
▁ريگستان	-11.521
▁انقره	-11.521
PS	-11.5211
▁1998	-11.5212
▁دهشت	-11.5213
▁سی	-11.5213
▁عندها	-11.5214
▁صديون	-11.5214
▁xD	-11.5215
▁ڏنائون	-11.5215
▁ولادت	-11.5216
▁جاين	-11.5216
▁Sp	-11.5219
▁گهٽين	-11.522
▁سكت	-11.522
▁تحس	-11.5228
اپي	-11.523
▁هموار	-11.5233
وی	-11.5233
▁پرده	-11.5233
دلي	-11.5234
▁گھڻائي	-11.5235
▁البيت	-11.5235
▁هجان	-11.5236
▁ڳُ	-11.5237
▁ڇوڪرا	-11.5238
▁پدر	-11.5238
▁اُڀري	-11.5238
▁مزاح	-11.5242
▁ڊرون	-11.5242
اڪا	-11.5243
▁رضي	-11.5245
▁بزرگن	-11.5245
▁سلامي	-11.5246
▁اض	-11.5246
▁بڻائيندو	-11.5247
لک	-11.5249
بون	-11.525
▁حسد	-11.525
▁مالا	-11.5251
▁سمجھان	-11.5252
▁رأيك	-11.5254
گون	-11.5257
▁ملهه	-11.5258
▁غالي	-11.5262
▁ماله	-11.5262
نڍ	-11.5263
▁ايڪي	-11.5264
cal	-11.5266
▁Ca	-11.5266
بوس	-11.5268
▁گهاري	-11.527
gg	-11.5273
▁ھوءَ	-11.5273
وول	-11.5273
▁پنجابي	-11.5273
لیس	-11.5277
▁ڪوڙا	-11.5277
▁نگاري	-11.528
▁سبي	-11.528
5"	-11.5282
▁رسمن	-11.5286
▁تُ	-11.5286
▁ڇنڊ	-11.5288
▁تاري	-11.5291
▁بيروزگار	-11.5292
قطع	-11.5294
ٿين	-11.5301
▁چمن	-11.5301
حلي	-11.5303
أس	-11.5307
متي	-11.5307
▁سورت	-11.5312
▁سيڙپڪار	-11.5314
▁ستون	-11.5315
▁سپرين	-11.5319
▁ro	-11.532
▁ورسي	-11.532
اااااااااا	-11.5321
▁صوف	-11.5322
82	-11.5323
▁رضاڪار	-11.5324
▁سڃ	-11.5326
2:	-11.5326
طح	-11.5328
▁ڪنڊن	-11.5329
▁سمع	-11.5329
▁اذيت	-11.533
▁گھٽتائي	-11.533
▁Qu	-11.533
خخخ	-11.533
▁ڪلائنٽ	-11.5331
▁بروکر	-11.5331
▁عنايت	-11.5332
▁طئه	-11.5332
حكي	-11.5332
▁چرپر	-11.5334
▁فرنٽ	-11.5334
▁رهيل	-11.5335
▁فرشت	-11.5335
▁گذشت	-11.5336
▁انڌي	-11.5339
▁XD	-11.5339
▁داعي	-11.5339
▁فرسٽ	-11.5339
▁پلنگ	-11.5341
▁اسپا	-11.5341
▁توري	-11.5344
ااااااااااا	-11.5344
▁ڪارناما	-11.5344
▁رنا	-11.5347
▁ميرن	-11.5351
are	-11.5352
▁دستيابي	-11.5354
▁وارد	-11.5354
▁سيمسنگ	-11.5355
▁لکندڙ	-11.5355
▁سلاٽ	-11.5356
▁اسانجو	-11.5358
▁آجو	-11.5359
ost	-11.5363
خوف	-11.5365
كى	-11.5365
طة	-11.5372
▁معاوضو	-11.5377
▁کلندي	-11.5379
▁حليم	-11.5381
▁شرير	-11.5384
مى	-11.5386
▁اسٽريٽج	-11.5386
▁فتو	-11.5389
▁خليجي	-11.5394
▁خور	-11.5395
▁دانه	-11.5398
▁نياڻين	-11.54
▁ماپڻ	-11.5401
▁پڇيس	-11.5404
▁ڪوريج	-11.5407
😂	-11.5408
▁str	-11.5409
▁ميسر	-11.5411
▁ويم	-11.5411
ورد	-11.5413
___	-11.5417
ارڊ	-11.5426
آزاد	-11.5427
▁Indu	-11.5433
فيد	-11.5434
tu	-11.5434
راني	-11.5434
▁عباسي	-11.5435
▁اَن	-11.5439
▁بسته	-11.5442
ـَ	-11.5444
▁تائيوان	-11.5451
▁جشنواره	-11.5451
▁سيمينار	-11.5452
▁ٺيڪيدار	-11.5452
▁معنوي	-11.5452
▁قاصر	-11.5452
▁مهذب	-11.5452
▁96	-11.5453
▁قصا	-11.5453
▁نقاد	-11.5454
▁ڪلينڪ	-11.5455
▁ميگن	-11.5456
▁ٺڪ	-11.5456
▁سگهندس	-11.5456
▁ھوٽل	-11.5457
گلو	-11.5457
▁ڪندؤ	-11.5458
▁جاگرافيائي	-11.5458
▁گودام	-11.5458
▁عق	-11.546
ائڪ	-11.5465
▁سپلائرز	-11.5465
▁گڏجاڻين	-11.5465
▁حميد	-11.5465
▁افر	-11.5465
▁رايك	-11.5466
ڀرو	-11.547
▁بيچيني	-11.547
ware	-11.5472
▁بادشاهت	-11.5472
▁امانت	-11.5473
▁😂😂	-11.5477
▁سياحتي	-11.5477
▁بهشت	-11.5479
▁اجائي	-11.5479
▁خلو	-11.548
IM	-11.5481
خوان	-11.5487
▁ناتو	-11.5487
▁پڳ	-11.5489
▁(3	-11.5491
▁ڪنول	-11.5493
▁پڪار	-11.5497
▁هس	-11.5504
▁شعوري	-11.5506
▁pa	-11.5517
▁اتم	-11.5517
▁ڊيٽ	-11.552
امر	-11.5521
▁صبا	-11.5521
▁Du	-11.5524
دق	-11.5525
اخد	-11.5526
▁هيرا	-11.5532
ڏانھن	-11.5536
ٻڌ	-11.5536
▁ويھ	-11.5537
▁(18	-11.5539
▁هينڊ	-11.5539
▁محض	-11.5542
▁ٽون	-11.5543
▁ريڊي	-11.5545
▁man	-11.5547
ھل	-11.5552
▁عنها	-11.5557
▁هينئ	-11.5557
▁ھوا	-11.5557
▁ٽينڪ	-11.5559
AC	-11.556
▁لانچر	-11.5562
ڪتاب	-11.5562
▁ليڊي	-11.5562
نامو	-11.5563
▁خطا	-11.5565
av	-11.5567
▁ياسلام	-11.5567
az	-11.5568
▁El	-11.5568
▁جاگرافي	-11.5571
▁ميگ	-11.5572
▁انٽيليجنس	-11.5575
▁وابستگي	-11.5575
▁قیمت	-11.5575
▁with	-11.5575
▁استعيفيٰ	-11.5575
▁پرداخت	-11.5575
▁قلعو	-11.5575
▁ريفرنس	-11.5575
▁پايگاه	-11.5576
▁شاگردياڻي	-11.5576
▁خزاني	-11.5579
▁po	-11.5579
▁سڀيئي	-11.5579
▁ابغى	-11.558
▁سمجهايو	-11.558
▁1999	-11.5581
▁ھائو	-11.5581
IC	-11.5585
عقل	-11.5585
ركب	-11.5587
لينا	-11.5587
▁الاخر	-11.5587
▁بتحب	-11.5587
وفي	-11.5588
▁هڙ	-11.5588
▁ايون	-11.5591
54	-11.5592
▁اشارا	-11.5594
▁مضحكة	-11.5595
▁منڊل	-11.5595
اوه	-11.5595
▁ڀائيواري	-11.5597
mon	-11.5599
▁پيغامن	-11.5599
▁نقول	-11.5601
▁غرب	-11.5602
▁پيدايش	-11.5602
▁پيڪيجز	-11.5602
▁پرومو	-11.5603
▁تغير	-11.5603
▁54	-11.5604
▁ڌرڻو	-11.5608
▁شاب	-11.5611
▁جذبا	-11.5612
▁سراج	-11.5613
▁پخت	-11.5616
ny	-11.5618
▁اسٽينڊ	-11.5618
▁خاڪو	-11.562
▁عشر	-11.562
▁تقبل	-11.5623
▁سُڌ	-11.5623
▁صديقي	-11.5629
وده	-11.5636
▁البا	-11.5637
▁هيڪل	-11.5637
▁اُم	-11.5642
قرأ	-11.5651
▁ياخي	-11.5652
▁کنم	-11.5652
▁Un	-11.5658
▁کُلي	-11.5658
ساعد	-11.566
▁خوي	-11.5661
▁تڪي	-11.5663
▁رند	-11.5664
▁گِ	-11.5665
▁Ad	-11.5669
▁ٻارڻ	-11.567
ولوجي	-11.5674
▁آمين	-11.5675
ّه	-11.5683
جام	-11.5686
▁ٽئ	-11.5687
▁ھزار	-11.5688
▁ارسل	-11.5688
▁خصوص	-11.569
▁شاپ	-11.5691
▁اُت	-11.5694
▁lo	-11.5694
▁مڙهي	-11.5698
٫	-11.57
▁لوڊشيڊنگ	-11.57
▁پراجيڪٽ	-11.57
▁متوازن	-11.57
▁محاذ	-11.57
▁مساوات	-11.57
▁وابسته	-11.57
▁باعث	-11.57
▁پارليام	-11.57
▁اڀرندڙ	-11.57
▁بانس	-11.57
▁سرطان	-11.57
▁پيراگراف	-11.57
▁پرجوش	-11.57
▁ذيشان	-11.57
▁عامل	-11.57
▁ڪوري	-11.5702
يريا	-11.5702
▁ٽئڪس	-11.5702
▁متغير	-11.5703
nn	-11.5703
▁گهوٽڪي	-11.5704
▁علوم	-11.5706
▁ڊريس	-11.5706
▁جنب	-11.5706
▁شوٽنگ	-11.5706
▁عرش	-11.5709
▁ٽوڪيو	-11.5709
تہ	-11.5709
سأل	-11.571
اھر	-11.571
▁جلسي	-11.571
}}	-11.571
▁يتيم	-11.5711
▁لعبة	-11.5711
▁ٻڌندو	-11.5716
▁مزا	-11.5718
▁گرافڪس	-11.5719
▁دخلت	-11.5719
▁معاهم	-11.5721
▁حصول	-11.5722
▁ڊڄو	-11.5723
روف	-11.5724
رگ	-11.5724
▁وضع	-11.5726
▁وڪام	-11.5727
▁هوسٽ	-11.5729
▁چراغ	-11.5729
▁گرامي	-11.5733
▁سخي	-11.5734
▁ڳجھ	-11.5736
▁غريبه	-11.5738
▁فِ	-11.5738
▁پردو	-11.5739
▁پٺاڻ	-11.5741
▁هاٿي	-11.5741
AL	-11.5742
▁ٽينس	-11.5742
▁زينت	-11.5745
▁رگ	-11.5745
▁رياضت	-11.5747
▁جديده	-11.575
▁جئ	-11.5755
ٻار	-11.5756
▁تخاف	-11.5761
▁فيل	-11.5762
ence	-11.5764
▁هِتي	-11.5767
▁اطلاعن	-11.5775
▁وھ	-11.5775
▁ڊيمو	-11.5776
▁لکندي	-11.5776
▁سومرو	-11.5777
▁ايونٽ	-11.5777
ميٽ	-11.5781
▁ٺھ	-11.5782
▁نورتي	-11.5783
▁کپن	-11.5789
▁جيڪٽ	-11.579
مسك	-11.5795
ڀلا	-11.5795
▁هاڪ	-11.5797
▁حواس	-11.5799
▁الحر	-11.5806
▁تعرفين	-11.5806
▁نئي	-11.5813
ace	-11.5814
▁ڏکيا	-11.5817
سفر	-11.5825
▁ھاڻ	-11.5825
نفس	-11.5826
▁Netflix	-11.5827
▁تصنيف	-11.5827
▁المونيم	-11.5827
▁اوائلي	-11.5827
▁آکاڻي	-11.5827
▁سامھون	-11.5827
▁رونق	-11.5827
▁ٿلهو	-11.5827
▁اعمال	-11.5827
▁فاروق	-11.5828
▁بدتر	-11.5828
▁1994	-11.5828
▁1996	-11.5829
▁سفارتخان	-11.5829
▁آذربائيجان	-11.5829
tive	-11.5829
▁ڌنڌ	-11.5831
▁مٿانهون	-11.5832
▁سنڀاليو	-11.5833
▁فرينڊ	-11.5834
▁جاگيردار	-11.5834
▁بنفس	-11.5836
▁Po	-11.584
▁تفكر	-11.584
▁fl	-11.584
▁سنگل	-11.5841
▁احلا	-11.5843
▁ماهوار	-11.5843
ملڪ	-11.5843
▁هولڊر	-11.5844
▁گوش	-11.5849
سئل	-11.585
ڪِ	-11.5851
▁گذاريندو	-11.5853
▁ڪجن	-11.5854
▁جانچڻ	-11.5855
CE	-11.5855
▁ڀُ	-11.5858
2)	-11.5859
▁نعرف	-11.5859
▁ڏينه	-11.5864
▁مستند	-11.5866
ks	-11.5867
▁فولڊ	-11.5868
▁Da	-11.5869
▁محلات	-11.587
▁مظاهري	-11.5871
▁وڏيري	-11.5872
▁کڙ	-11.5872
▁قاعدو	-11.5876
▁گھرو	-11.5877
▁خزانو	-11.5878
▁وسط	-11.588
اعي	-11.588
شاهه	-11.5881
▁دامن	-11.5883
▁مارن	-11.5892
▁بچيل	-11.5892
▁ڇڏائي	-11.5895
▁إل	-11.5895
▁وينس	-11.59
▁9-	-11.5903
▁گَ	-11.5904
▁وڇڙي	-11.5906
▁اڃ	-11.5906
▁وعد	-11.5906
▁وڏائي	-11.5907
▁خواهشن	-11.591
▁بيماريون	-11.5911
غو	-11.5912
▁چنگ	-11.5916
ديم	-11.5917
▁ڀو	-11.5918
جلس	-11.5919
▁ميدو	-11.592
▁آئ	-11.592
▁هُوءَ	-11.5921
▁ناجي	-11.5925
▁دع	-11.5929
▁فلاح	-11.593
️	-11.593
con	-11.5932
▁ڪلا	-11.5934
▁سوف	-11.5934
▁ڌڙڪ	-11.5934
جيڪي	-11.5935
▁چاڪ	-11.5937
▁ميده	-11.5938
▁باک	-11.5941
▁چئ	-11.5944
wi	-11.5946
گاھ	-11.5947
▁هما	-11.5951
▁شاف	-11.5952
▁پني	-11.5953
▁trans	-11.5955
▁اسحاق	-11.5955
▁سڪيورٽي	-11.5955
▁موٽرسائيڪل	-11.5955
▁ڇوٽڪارو	-11.5955
▁مرکز	-11.5955
▁فروخت	-11.5955
▁اثرانداز	-11.5956
▁ٽائپ	-11.5956
▁رجعت	-11.5957
▁تجزياتي	-11.5957
▁خواجه	-11.5958
▁ذلك	-11.5958
▁رشتا	-11.5959
▁اسئل	-11.5959
▁پنجون	-11.5961
حصل	-11.5962
▁تياريون	-11.5962
▁غرض	-11.5963
ach	-11.5963
▁کاتن	-11.5963
▁زپ	-11.5963
▁پڪڙڻ	-11.5964
▁نبود	-11.5965
ريڊ	-11.5967
▁عصر	-11.5968
ڪُ	-11.5969
▁تمدن	-11.597
▁الإ	-11.597
راس	-11.5975
▁حوصل	-11.5976
▁1.2	-11.5978
72	-11.5979
▁ورانه	-11.5981
▁ڪورين	-11.5982
▁اينكه	-11.5987
▁ڏيکاريندو	-11.5987
▁منى	-11.5992
▁کمپ	-11.5993
▁ڊور	-11.5993
▁نشين	-11.5993
▁فله	-11.5994
hat	-11.5995
▁ليٽي	-11.5997
دُ	-11.5998
▁ترد	-11.5999
▁ڄاڻندو	-11.6001
▁بيورو	-11.6002
▁per	-11.6003
▁وجهو	-11.6003
▁آڻين	-11.6006
ali	-11.6007
▁ميجر	-11.6008
سور	-11.6008
▁براڊ	-11.601
▁مالك	-11.6014
▁ميوه	-11.6017
▁پوليو	-11.6017
ماسي	-11.6022
▁59	-11.6024
▁موري	-11.6025
▁سنتي	-11.6025
▁اٿيو	-11.6027
اگو	-11.6028
▁ڳوٺاڻي	-11.6029
▁برانڊن	-11.6031
▁شڪلن	-11.6035
▁ايسڊ	-11.6037
▁الاول	-11.6039
كَ	-11.6039
LE	-11.6042
▁پيالو	-11.6044
▁سوالف	-11.6045
▁no	-11.6046
ڪرن	-11.6051
▁اصطلاحن	-11.6055
څ	-11.6056
آمريڪا	-11.6056
زده	-11.6056
▁درواز	-11.6058
:10	-11.606
گهه	-11.6061
yl	-11.6064
▁63	-11.6064
جة	-11.6065
▁58	-11.6065
▁كس	-11.6066
ore	-11.6068
گيءَ	-11.6073
▁وبس	-11.6075
▁سنة	-11.6077
▁رهواسين	-11.6079
▁كري	-11.6082
▁ظرف	-11.6083
▁بی	-11.6084
٧	-11.6085
▁بصراحة	-11.6085
▁ضعيف	-11.6085
▁افاديت	-11.6085
▁اسپيشل	-11.6085
▁سيوهڻ	-11.6085
▁بسرعه	-11.6085
▁پرعزم	-11.6085
▁ڊڄ	-11.6085
جسٽ	-11.6086
▁عاليشان	-11.6086
-15	-11.6086
▁ٽوئيٽ	-11.6086
▁1993	-11.6086
▁قائد	-11.6088
▁ڪنڪريٽ	-11.6088
▁درويش	-11.6088
▁نينگري	-11.6089
▁رومانس	-11.609
▁ٽائيٽل	-11.609
▁ڇانيل	-11.6091
▁جهنم	-11.6091
▁چاهيندي	-11.6091
▁چقدر	-11.6091
▁المس	-11.6092
▁تارو	-11.6093
ert	-11.6097
▁رکجو	-11.6098
▁اينکه	-11.6099
▁ضر	-11.6099
ise	-11.61
▁حسيت	-11.6101
▁ڪالوني	-11.6103
▁عزيزي	-11.6103
لحق	-11.6105
▁ثبت	-11.6106
mg	-11.6107
▁دانهون	-11.6109
ريئر	-11.611
▁سوشلسٽ	-11.6111
▁جيءُ	-11.6113
▁تحي	-11.6113
▁مادو	-11.6114
▁ماده	-11.6117
▁يارو	-11.6117
▁پرچي	-11.6117
▁ڪاٿي	-11.6118
ِيءَ	-11.6119
رررر	-11.6119
تهم	-11.6121
▁زمينن	-11.6123
▁حوصله	-11.6128
▁غر	-11.6128
▁حلوو	-11.6131
▁جمله	-11.6135
▁ماتم	-11.6136
▁ڏيئو	-11.6136
▁تكلم	-11.6137
▁جدي	-11.6137
▁ٽرم	-11.6138
ous	-11.614
ath	-11.6142
آئ	-11.6143
▁صدقي	-11.6144
▁وزيرن	-11.6151
▁معه	-11.6153
▁وصلت	-11.6153
▁ری	-11.6158
▁أل	-11.6158
▁سوچيندا	-11.6159
▁پينٽ	-11.6159
شق	-11.6169
▁2,	-11.617
▁ننڍيون	-11.6171
▁قاعده	-11.6171
▁ٽڪي	-11.6173
▁سگھندي	-11.6173
ڄڻ	-11.6175
▁ڪابل	-11.6175
▁پنهان	-11.6175
▁My	-11.6178
▁لوھ	-11.618
ساله	-11.618
▁أب	-11.6182
ايف	-11.6185
▁چونڊيندا	-11.6185
▁ايسٽر	-11.6185
ووول	-11.6193
▁ٽيبلٽ	-11.6194
▁رايو	-11.6195
ووم	-11.6196
▁گوشي	-11.6199
▁شاي	-11.62
▁ٽپو	-11.62
▁فد	-11.62
▁ليلي	-11.6201
▁ماڙ	-11.6209
▁کڙڪ	-11.6209
rs	-11.6209
▁کليو	-11.6211
ۉ	-11.6216
▁Archives	-11.6216
▁آبپاشي	-11.6216
▁سربراهي	-11.6216
▁ڪميونيڪيشن	-11.6216
▁پنروڪ	-11.6216
▁مائڪروسوف	-11.6216
▁سبحان	-11.6216
▁آئل	-11.6216
اويه	-11.6217
▁ناياب	-11.6217
▁اسلوب	-11.6217
▁دكتر	-11.6217
▁تدبير	-11.6217
▁USB	-11.6217
▁ويٽنام	-11.6217
▁ممنون	-11.6217
▁منافق	-11.6217
▁اسٽيڊيم	-11.6217
▁ياسمين	-11.6217
ذل	-11.6217
▁پيروڪار	-11.6218
شير	-11.6219
▁مسافرتی	-11.622
▁طفل	-11.6221
ib	-11.6222
▁أقول	-11.6224
▁صديء	-11.6224
▁تخلص	-11.6224
▁ڇِ	-11.6224
ائتو	-11.6224
▁اگ	-11.6225
▁لوپ	-11.6227
اپو	-11.6228
▁خوري	-11.6229
▁جماعتن	-11.6231
▁Se	-11.6231
ائنٽ	-11.6232
▁قدرن	-11.6235
▁ڳالهائيندا	-11.6235
▁ٺاهيندي	-11.6238
▁شاهدي	-11.6238
▁معاشرو	-11.6241
▁قصدك	-11.6241
▁سانگي	-11.6241
▁ذرا	-11.6242
73	-11.6243
▁1.5	-11.6243
▁الآ	-11.6245
▁خش	-11.6245
▁<~	-11.6245
▁ڳنڍڻا	-11.6252
▁ڌڻيءَ	-11.6256
▁يدي	-11.6263
▁ڏيکار	-11.6264
▁ڊگها	-11.6268
▁ڊول	-11.6269
▁عددي	-11.6272
▁فڪري	-11.6273
▁ڳڻ	-11.6273
▁تالا	-11.6277
ڌڻ	-11.6277
▁ڪڪ	-11.6277
▁ميوا	-11.6281
محمد	-11.6282
▁جڪ	-11.6283
ندئو	-11.6284
▁الجن	-11.6284
▁اسڪيل	-11.6285
وڻي	-11.6285
قصد	-11.6285
فيت	-11.6288
▁عسل	-11.6288
uk	-11.6289
▁پاڇو	-11.6289
PE	-11.6292
▁ڪمانڊ	-11.6292
▁مرضيءَ	-11.6294
2">	-11.6294
▁ھفتي	-11.6294
▁نشوف	-11.6294
▁he	-11.6299
جِ	-11.6301
منت	-11.6302
▁ڇاپو	-11.6303
▁ڪوپ	-11.6303
▁معهم	-11.6305
▁راھ	-11.6306
▁سمورين	-11.6308
ٽائي	-11.6308
▁سهم	-11.6311
ju	-11.6312
▁زرد	-11.6314
▁پَٽ	-11.6315
▁شفتي	-11.6324
▁جماع	-11.6326
ڪجهه	-11.6329
▁سوچيان	-11.6331
شريف	-11.6333
▁دُ	-11.6334
لحين	-11.6335
▁غلا	-11.6336
▁پڪي	-11.6338
▁Dr	-11.6343
ڪول	-11.6345
а	-11.6349
ۑ	-11.635
▁اللعبه	-11.635
▁سنڀار	-11.635
▁لغاري	-11.635
▁عجائب	-11.635
▁عضلات	-11.635
▁ڪِتاب	-11.635
▁انجيڪشن	-11.635
▁ڀانيان	-11.6351
▁◄	-11.6352
▁گمنام	-11.6352
هههههههاااي	-11.6352
▁عمودي	-11.6352
▁الواحد	-11.6354
▁المنتدى	-11.6354
▁عبور	-11.6354
▁أعرف	-11.6355
▁دوکو	-11.6356
▁رھندو	-11.6356
▁پتا	-11.6357
آأ	-11.636
▁وساڻ	-11.6361
▁آئن	-11.6362
▁رٿا	-11.6362
▁يازين	-11.6362
dd	-11.6363
▁7-	-11.6364
▁زيتون	-11.6364
▁لئ	-11.6364
▁قضي	-11.6367
▁نپ	-11.6369
▁ٽرام	-11.6371
▁گندگي	-11.6372
▁Tra	-11.6374
▁وحد	-11.6374
روب	-11.6375
▁---	-11.6376
▁راتين	-11.6376
▁اسٽيم	-11.6379
▁مرس	-11.6383
hen	-11.6384
▁جميلة	-11.6384
▁سلڪ	-11.6385
▁ڪروڙين	-11.6386
▁ڇھ	-11.6386
▁Th	-11.639
▁مسيحي	-11.639
▁موسميات	-11.6392
▁شهد	-11.6392
دفع	-11.6392
▁پيشاني	-11.6392
▁So	-11.6393
ھڪ	-11.6393
af	-11.6393
▁دنگ	-11.6394
طير	-11.6394
ازم	-11.6394
over	-11.6397
سوس	-11.6398
▁شرف	-11.6399
amp	-11.6399
▁دق	-11.6401
▁ڏن	-11.6404
▁ً	-11.6408
ھائي	-11.641
▁زار	-11.6416
▁موب	-11.642
زمين	-11.6423
▁cl	-11.6424
شناسي	-11.6426
▁تبع	-11.6432
▁اُڪ	-11.6434
▁دٻ	-11.6434
▁رهڻو	-11.6435
▁ستل	-11.6435
عورت	-11.6438
ڏيو	-11.6439
َلَ	-11.644
▁لکجي	-11.644
▁زني	-11.644
▁گذاريا	-11.6442
گم	-11.6444
▁يرجك	-11.6445
led	-11.6446
▁البن	-11.6448
▁انڌو	-11.6449
▁پاڻهي	-11.6449
رفت	-11.645
نئين	-11.6451
▁360	-11.6452
▁مرح	-11.6455
rin	-11.6456
٦	-11.6456
▁ڇاهي	-11.6456
ڀر	-11.6459
▁عثماني	-11.6459
بز	-11.6459
▁تقبلي	-11.646
▁نحن	-11.646
▁اهائي	-11.6463
▁تحريڪن	-11.6463
▁قديمي	-11.6463
hu	-11.6467
▁ڪرس	-11.6468
احت	-11.6468
▁>>>>	-11.6469
▁اسڪور	-11.6476
▁آنا	-11.6477
واس	-11.6479
ile	-11.6482
سچ	-11.6483
▁سوچون	-11.6483
▁سکين	-11.6484
▁پوائينٽون	-11.6485
▁انڪوائري	-11.6485
▁ڊفالٽ	-11.6485
▁السالفه	-11.6485
▁ويگاس	-11.6485
▁پشاور	-11.6485
▁NEWS	-11.6485
▁آرگنائيزيشن	-11.6485
▁انگلش	-11.6485
▁جنريٽر	-11.6485
تًب	-11.6485
▁ڍانچي	-11.6485
▁احبك	-11.6485
▁آدرش	-11.6485
▁صداقت	-11.6486
▁مٿاهين	-11.6486
▁گروهي	-11.6486
xbet	-11.6486
▁باشه	-11.6487
▁سولنگي	-11.6487
▁خُ	-11.6488
مانس	-11.6488
▁ياريت	-11.6488
▁اعلى	-11.6492
▁بناوت	-11.6494
▁طاقتن	-11.6494
▁پاڪائي	-11.6494
▁فرمود	-11.6495
▁سياستدانن	-11.6496
▁فيروز	-11.6498
▁نوبل	-11.6503
▁خيو	-11.6504
▁البي	-11.6504
مڪس	-11.6507
▁تعمل	-11.6509
اسلام	-11.6511
ندينءَ	-11.6512
▁پوسٽون	-11.652
▁نڪر	-11.6521
val	-11.6521
▁خلائي	-11.6525
▁آفر	-11.6526
سڪو	-11.6527
▁تحفي	-11.6529
ڪام	-11.6531
تمام	-11.6531
▁اشك	-11.6533
اھڻ	-11.6533
▁منافعو	-11.6536
َرِ	-11.6539
سمع	-11.6539
AM	-11.654
ومين	-11.6542
▁سوالات	-11.6543
شعر	-11.6545
واحد	-11.6548
▁هڪڙا	-11.6548
▁دليون	-11.6553
▁wh	-11.6557
▁طل	-11.6559
اهل	-11.656
cc	-11.6563
▁پيتو	-11.6564
▁این	-11.6564
▁حرفي	-11.6565
▁بيچ	-11.6568
▁ٽه	-11.6569
قات	-11.657
ker	-11.6573
----	-11.6573
ries	-11.6576
▁مشڪلاتن	-11.6577
▁مجسم	-11.6579
win	-11.6581
The	-11.6582
ريب	-11.6583
day	-11.6588
▁مولڊ	-11.6589
="7	-11.659
▁پختو	-11.659
ris	-11.6591
▁مِن	-11.6591
▁ساحلي	-11.6593
oot	-11.6597
بقي	-11.6598
▁تحر	-11.6603
▁لعب	-11.6605
▁حاله	-11.6607
▁شاخن	-11.6608
▁نظرين	-11.6609
اريءَ	-11.661
▁مونسان	-11.6612
▁ذكر	-11.6613
▁هد	-11.6619
▁ترك	-11.6619
play	-11.662
اير	-11.6621
▁bonuses	-11.6622
▁ارجنٽائن	-11.6622
▁بدمعاش	-11.6622
▁سقراط	-11.6622
▁پڙتال	-11.6622
▁بريفنگ	-11.6622
▁چيلينج	-11.6622
▁برهمڻ	-11.6622
▁Today	-11.6622
▁مھيني	-11.6622
▁نااميد	-11.6622
▁اسڪينڊل	-11.6622
▁مهانگي	-11.6622
▁رُڳو	-11.6622
▁ادل	-11.6623
▁واڍي	-11.6624
▁ميثاق	-11.6624
▁آهسته	-11.6624
▁پاك	-11.6625
▁پهتاسين	-11.6625
▁اسڪو	-11.6625
▁باڊي	-11.6626
▁زالون	-11.6627
▁كتاب	-11.6627
▁ڪجانءِ	-11.6629
▁حسرت	-11.663
▁ڏاڏا	-11.6634
▁وائيٽ	-11.6635
▁سيٽون	-11.6636
▁مساله	-11.6636
▁سينا	-11.6636
▁ڄمي	-11.6636
بيون	-11.6638
▁دودو	-11.6639
▁ڏُ	-11.664
▁موقع	-11.6642
▁والع	-11.6642
▁اگهن	-11.6642
▁پوئلڳ	-11.6642
▁تهران	-11.6643
▁بوي	-11.6643
▁رحت	-11.6643
▁ہ	-11.6645
ائع	-11.6647
▁دڪاندار	-11.6648
▁برانڊي	-11.6649
▁جانسن	-11.665
▁وهندو	-11.6651
ros	-11.6652
▁pl	-11.6652
▁ٽئي	-11.6653
▁السن	-11.6655
▁سنگهه	-11.6658
ڪسڪس	-11.6661
▁پوسٽن	-11.6664
ورين	-11.6664
اضي	-11.6668
▁ٽرينون	-11.6671
▁ڪنداسون	-11.6671
▁قلمي	-11.6673
▁انديشه	-11.6675
▁عقب	-11.6681
▁رائل	-11.6685
▁ادبيات	-11.669
▁عاا	-11.669
▁بيها	-11.669
▁ڪرنل	-11.6691
▁ضلعن	-11.6691
▁ماتر	-11.6695
▁هجوم	-11.6695
▁رسد	-11.6696
وں	-11.6697
▁ويکي	-11.6703
▁ناش	-11.6705
▁عاليه	-11.6706
▁ڀينرن	-11.6706
اليه	-11.6707
▁جنگين	-11.6709
▁اسڪر	-11.6709
▁فقر	-11.6709
وووه	-11.6712
▁at	-11.6713
▁۲۰	-11.6714
▁شڪي	-11.6716
▁te	-11.6716
ev	-11.6717
▁ڄاڻائي	-11.6721
▁سالگرهه	-11.6721
▁چمڪي	-11.6722
▁پِي	-11.6727
▁بچيو	-11.6727
▁78	-11.6728
▁اندران	-11.6731
ريق	-11.6737
بخش	-11.6737
جھي	-11.6739
▁روين	-11.6743
▁چمچ	-11.6745
▁يعينك	-11.6747
گاهي	-11.6751
▁برادرين	-11.6752
رنگي	-11.6752
▁عضون	-11.6754
▁عمد	-11.6757
ja	-11.6757
عيش	-11.6757
▁ٽڪري	-11.6758
▁tr	-11.676
ल	-11.676
ٔ	-11.6761
▁آژانس	-11.6761
▁پئسفڪ	-11.6761
▁other	-11.6761
▁وڇوڙي	-11.6761
▁عايز	-11.6761
▁آئڪن	-11.6762
▁دٻائڻ	-11.6762
▁ذم	-11.6764
▁وضو	-11.6765
باز	-11.6766
▁ڇونه	-11.677
▁منصب	-11.6772
▁ڇپجي	-11.6772
ٺيڪ	-11.6776
▁چارجر	-11.6777
▁ڇالاءِ	-11.6778
▁ڍير	-11.6778
▁اداڪاره	-11.6778
غان	-11.6781
▁ڊولپرز	-11.6782
▁مسئله	-11.6782
▁ٽرا	-11.6783
▁ھوس	-11.6783
▁ننڍڙا	-11.6785
▁نيپال	-11.6785
▁مجبوري	-11.6787
▁ٽٽ	-11.6789
▁ديپ	-11.6789
ging	-11.6789
▁نفسها	-11.6791
▁ماڻڪ	-11.6792
▁Mar	-11.6793
▁ماراح	-11.6793
ترجم	-11.6794
▁[1]	-11.6794
▁ماجد	-11.6794
▁اخلاقيات	-11.6795
▁مالدار	-11.6801
▁خرابين	-11.6801
84	-11.6803
▁واڳ	-11.6803
▁برلن	-11.6806
▁تپ	-11.6808
ree	-11.6811
▁ڊڄڻ	-11.6812
▁ڊزائنر	-11.6813
سكت	-11.6813
ويز	-11.6815
▁سراسر	-11.6816
▁دلدار	-11.6817
▁واسين	-11.6822
▁پيلو	-11.6823
▁ڊائن	-11.6825
▁خوبه	-11.6827
▁ولآ	-11.6828
▁صدقت	-11.6833
▁مشڪلات	-11.6834
▁ٽيهه	-11.6835
بشر	-11.6837
لاگ	-11.6838
▁صج	-11.6839
▁بدا	-11.6842
▁لاٿ	-11.6843
▁الحم	-11.6843
▁سيارو	-11.6844
▁نزل	-11.6845
▁هائ	-11.6845
▁ڪالمن	-11.6846
▁گانو	-11.6847
▁همچي	-11.6847
▁شيام	-11.6848
▁سأ	-11.6848
▁ڊيڪ	-11.6849
پيٽ	-11.6854
▁چوين	-11.6854
▁تجيب	-11.6856
▁حف	-11.6858
▁شعري	-11.6859
▁رجل	-11.686
<<<	-11.686
▁دُني	-11.6861
▁المن	-11.6861
▁ماسي	-11.6866
▁فصلن	-11.6868
▁وظيف	-11.6869
▁مسافرت	-11.6869
▁پھر	-11.6878
▁يادون	-11.6882
▁ليبر	-11.6884
-10	-11.6885
ever	-11.6885
▁اخوك	-11.6885
5">	-11.6886
ووووووو	-11.6886
موس	-11.6887
fa	-11.6888
آع	-11.6893
-8	-11.6894
▁نٽ	-11.6896
▁ڌاڙ	-11.6897
▁حقوقي	-11.6899
▁لچڪ	-11.69
े	-11.6901
ۃ	-11.6901
▁Amazon	-11.6901
▁Suppliers	-11.6901
▁نمائندو	-11.6901
▁پسمنظر	-11.6901
▁نيويگيشن	-11.6901
▁انتهاپسند	-11.6902
▁چانڊوڪي	-11.6902
,,,	-11.6902
▁مراجع	-11.6902
▁دردناڪ	-11.6903
▁تنصيب	-11.6903
▁well	-11.6903
▁مصالح	-11.6903
▁عقلمند	-11.6903
▁ڪلارڪ	-11.6904
▁ڪارٽون	-11.6904
▁©	-11.6904
▁ڦهليل	-11.6905
▁69	-11.6905
▁اوهانجي	-11.6905
▁پنجويه	-11.6906
▁مرورك	-11.6906
▁انصاري	-11.6908
▁بڻيا	-11.691
▁كلمة	-11.6911
▁2022	-11.6912
▁يرحم	-11.6912
▁ٻيھر	-11.6913
▁پريميم	-11.6913
▁چاهيندس	-11.6913
▁بالڪل	-11.6917
▁زهرا	-11.6917
▁بيجنگ	-11.6918
▁خفت	-11.6919
▁۱۳	-11.6921
▁گيرد	-11.6925
▁پهاڪو	-11.6925
▁ند	-11.6925
▁Lu	-11.6926
▁٤	-11.6929
▁ڊيوائسز	-11.6935
▁fi	-11.6935
▁ڀَ	-11.6937
▁ڊان	-11.6937
▁دستان	-11.6938
▁هونء	-11.6938
▁3000	-11.6938
▁57	-11.6939
▁اٽڪ	-11.6939
▁ٽار	-11.694
▁دودي	-11.6944
▁مشينون	-11.6948
▁معماري	-11.695
ano	-11.6955
▁غصب	-11.6956
▁دماغي	-11.6958
▁ماپي	-11.6958
▁حار	-11.6961
▁قدها	-11.6963
▁اندرين	-11.6965
▁فردن	-11.6966
▁ھفت	-11.6968
▁گفتار	-11.6972
▁يافت	-11.6976
ـُ	-11.6977
۔۔۔۔۔	-11.6978
▁سف	-11.6979
▁ٽاٽو	-11.698
نگنگ	-11.6982
▁اٿاري	-11.6983
▁خوار	-11.6984
اية	-11.6984
▁للت	-11.6987
▁گاديء	-11.6988
بازي	-11.699
▁رأي	-11.6992
PO	-11.6992
عشق	-11.6994
▁هُيو	-11.6996
▁گج	-11.7003
▁ناسي	-11.7003
▁ڪٽيل	-11.7004
▁تض	-11.7009
▁اسٽي	-11.7009
▁احلي	-11.701
ختيار	-11.7012
هائو	-11.7014
Sindhi	-11.7016
▁ديه	-11.7016
▁پِر	-11.7018
▁سلف	-11.7021
ايب	-11.7021
▁رويا	-11.7022
▁عقلي	-11.7024
▁أح	-11.7024
▁180	-11.7024
▁ترقيء	-11.7025
light	-11.7025
▁دادن	-11.7026
▁ڌرتيء	-11.7026
ire	-11.7028
▁يقولون	-11.7032
▁سيب	-11.7034
SS	-11.7035
▁جنوبي	-11.7037
٠٠	-11.7038
▁مئو	-11.704
▁مبين	-11.7042
▁عطر	-11.7043
व	-11.7044
▁السؤال	-11.7044
▁گیمنگ	-11.7044
▁مڙئي	-11.7044
▁فرصت	-11.7044
▁تستاهل	-11.7044
باس	-11.7045
▁ٻهراڙي	-11.7045
▁هكذا	-11.7045
▁فلي	-11.7045
▁اڻڄاڻ	-11.7046
▁ٺٽو	-11.7047
▁1975	-11.7047
▁جميڪا	-11.7047
▁گرافڪ	-11.7047
▁نڪاح	-11.7047
▁اُنهي	-11.7047
ase	-11.7051
▁گُهر	-11.7051
▁مالٽا	-11.7052
▁بتقول	-11.7052
▁نديد	-11.7053
▁نامزدگي	-11.7053
▁برخي	-11.7054
▁Tag	-11.7054
▁آمديد	-11.7056
▁واقعيت	-11.7056
▁رڌل	-11.7056
ـٍ	-11.7057
▁سڏبو	-11.706
▁نداري	-11.7061
مرد	-11.7062
▁ابڙو	-11.7063
▁چاڙه	-11.7064
▁ڪڻ	-11.7069
▁ارزش	-11.707
▁سنيپ	-11.7071
▁تفهم	-11.7071
▁not	-11.7071
▁ماڪ	-11.7074
shi	-11.7076
▁77	-11.7077
نامياتي	-11.7078
ولڻ	-11.7078
تور	-11.708
▁وڻندو	-11.7081
▁بلد	-11.7082
▁ظهر	-11.7086
▁قاعدي	-11.7087
يييييييي	-11.7089
▁روانگي	-11.709
▁ڇڪيو	-11.7093
▁Bu	-11.7094
▁سجاڳ	-11.7094
▁وائڙ	-11.7095
▁ڦاٽ	-11.7095
قدم	-11.7096
▁اڳيئي	-11.7097
▁سالفه	-11.7098
وصل	-11.71
▁ڀريا	-11.7106
▁۔۔۔۔	-11.7107
AI	-11.7107
▁احبه	-11.7107
▁اختك	-11.7107
▁سپنا	-11.7108
▁ہو	-11.7109
▁زيورن	-11.7112
▁شفٽ	-11.7115
▁جليل	-11.7116
▁ٻاجه	-11.7117
والله	-11.7117
▁8-	-11.7118
ino	-11.7118
لوڪ	-11.7118
▁ٿولهه	-11.7121
▁پرنس	-11.7122
▁ڳي	-11.7122
▁ليون	-11.7123
▁ټ	-11.7125
els	-11.7126
▁رحمان	-11.7127
▁موم	-11.7129
Re	-11.7131
▁مايا	-11.7135
▁مڻ	-11.7137
▁گذاريندا	-11.7137
▁كند	-11.7138
▁پيپ	-11.7138
▁ويزن	-11.7142
▁ڀوڳي	-11.7143
▁88	-11.7143
▁حلووو	-11.7145
گرا	-11.7149
▁نٿيون	-11.7151
▁ڪشميري	-11.7157
▁گذريا	-11.7158
▁شعبو	-11.7159
٤	-11.7161
▁مُک	-11.7165
▁مھا	-11.7165
▁سودا	-11.7167
▁ارتقاء	-11.7171
▁ڌرڻ	-11.7172
لائ	-11.7176
صلح	-11.7177
▁ڇپي	-11.7177
تحمس	-11.7178
ناز	-11.7178
▁ناتي	-11.7186
▁مودي	-11.7186
▁ناه	-11.7186
▁بيداري	-11.7188
▁سرير	-11.7188
▁CBD	-11.7189
▁رژيم	-11.7189
▁شرکت	-11.7189
▁هدي	-11.7189
ject	-11.7189
▁پژوهش	-11.7189
▁{{	-11.7189
▁ٻٻر	-11.719
▁پائلٽ	-11.719
▁خدمات	-11.719
▁مشتاق	-11.719
▁قلندر	-11.719
▁خادم	-11.7191
▁1991	-11.7191
▁مستحق	-11.7191
▁نفعي	-11.7191
▁1948	-11.7192
ound	-11.7192
▁برطرف	-11.7192
▁ميمو	-11.7192
▁ريح	-11.7193
▁مرحلا	-11.7193
▁يسلمووو	-11.7193
▁عهديدار	-11.7194
▁نداشت	-11.7194
▁ڇڪايو	-11.7196
▁آسيب	-11.7196
▁وڪڻي	-11.7197
▁exp	-11.7199
▁طولاني	-11.7199
▁اوڏانهن	-11.7199
▁وڃايل	-11.7199
▁مسائل	-11.7199
▁ميں	-11.7199
▁عروس	-11.72
▁ھيءُ	-11.7201
ٻن	-11.7203
▁قرضدار	-11.7204
فاق	-11.7207
▁ڊرامو	-11.7208
▁پرنٽنگ	-11.7209
▁su	-11.7212
▁هجري	-11.7213
▁واعد	-11.7213
رآ	-11.7217
▁تعبت	-11.7218
▁76	-11.7219
▁ميخوا	-11.722
▁طريقت	-11.7221
▁يستر	-11.7221
▁ڪمايو	-11.7222
▁اسماء	-11.7223
▁٥	-11.7226
▁رهنما	-11.7228
▁آباديءَ	-11.7229
▁پولش	-11.7231
▁پوائنٽن	-11.7232
چوڏهن	-11.7234
~~	-11.7234
راءِ	-11.7236
▁خواهيم	-11.7238
▁عنوانن	-11.7239
افيه	-11.7239
▁ڪئپ	-11.7239
دَ	-11.7245
▁اليڪٽرانڪس	-11.7247
▁86	-11.7248
▁ڇٽ	-11.725
▁Di	-11.725
▁شمالي	-11.7251
دآ	-11.7251
sm	-11.7253
خرج	-11.7254
▁ڪمانڊر	-11.7257
▁مارين	-11.7258
▁مبينا	-11.7259
نئون	-11.726
▁نير	-11.7261
▁عيل	-11.7263
▁بياد	-11.7263
▁بزني	-11.7265
▁فوجن	-11.7268
▁يوگا	-11.7273
▁اعط	-11.7273
▁آهم	-11.7277
▁قريش	-11.7278
▁السعودي	-11.7279
▁وط	-11.7281
▁ضح	-11.7282
▁ڪنديس	-11.7286
قرب	-11.7287
▁انديش	-11.7288
▁فقيرن	-11.729
▁ميرسي	-11.7294
▁اداڪاري	-11.7298
▁الثاني	-11.7299
▁عادل	-11.73
▁تقر	-11.73
ايق	-11.7302
♥	-11.7308
▁خمس	-11.7309
▁ناڪ	-11.7311
چل	-11.7317
▁li	-11.7321
آص	-11.7321
▁قرن	-11.7327
▁67	-11.7329
▁2.1	-11.7332
▁وضاحتن	-11.7334
▁سيڙپ	-11.7335
▁ذائقو	-11.7336
▁فلوريڊا	-11.7336
▁پروردگار	-11.7336
▁قبائلي	-11.7336
▁جارحيت	-11.7336
▁يوحنا	-11.7336
▁عڪاسي	-11.7336
▁عاوز	-11.7337
▁الشباب	-11.7337
▁ڳاڇا	-11.7338
▁طنز	-11.7338
▁احاط	-11.734
▁الجديد	-11.734
▁افسانوي	-11.734
▁ريموٽ	-11.7342
med	-11.7345
▁مائيڪل	-11.7345
▁res	-11.7346
كثير	-11.7346
▁ڀاڄي	-11.7347
▁طلال	-11.735
▁تكتب	-11.735
▁ڌيء	-11.7352
اسه	-11.7355
▁عَ	-11.7355
▁فلاڻي	-11.7357
▁جمي	-11.736
أي	-11.736
▁پلے	-11.736
▁ٽريڪنگ	-11.736
▁ٺو	-11.7362
▁سوئس	-11.7362
تكون	-11.7363
ههههههههههاي	-11.7363
ull	-11.7364
▁اقولك	-11.7368
▁ٽڪرن	-11.7369
▁inf	-11.737
▁تجربات	-11.7371
▁خواهشون	-11.7374
▁پيامک	-11.7376
▁سيڪٽر	-11.7376
▁ٱ	-11.7376
▁ساده	-11.7378
▁اٽل	-11.7381
▁ٽيٽ	-11.7382
▁کڻندي	-11.7383
▁ڌوڙ	-11.7384
▁شرجي	-11.7385
▁جلوس	-11.7386
▁br	-11.7386
▁جزيره	-11.739
ورڊ	-11.7391
▁ٻيڙيءَ	-11.7391
▁مسير	-11.7393
▁مڪان	-11.7394
شخص	-11.7395
▁سڌاري	-11.7396
ارة	-11.7401
▁مائل	-11.7405
ze	-11.7405
▁چطوري	-11.7406
▁لأني	-11.7406
وكي	-11.7408
▁fa	-11.741
▁ٻيڙيون	-11.7412
▁ڀانيو	-11.7413
▁جنوب	-11.7414
▁ساراهيو	-11.7416
▁ساهي	-11.7417
ets	-11.7418
ml	-11.7419
▁مڪر	-11.7419
▁گانا	-11.742
▁ريا	-11.742
▁پيئندا	-11.7423
▁پڙھ	-11.7424
▁ابدي	-11.7428
▁حٿ	-11.7429
▁لھي	-11.743
مدح	-11.743
▁احل	-11.7436
:30	-11.7439
أنا	-11.7442
▁تحف	-11.7443
▁قرا	-11.7444
▁ملف	-11.7444
▁الفل	-11.7445
زعج	-11.7447
▁احط	-11.7448
▁رپورٽنگ	-11.7449
▁سينڊ	-11.7453
▁ولكن	-11.7454
شيخ	-11.7456
▁اٽڪي	-11.7459
تنهنجو	-11.746
ٽيءَ	-11.7463
▁البم	-11.7464
پپو	-11.7468
▁راستي	-11.7469
▁چلي	-11.747
▁ڌمڪي	-11.7471
▁مهاڻ	-11.7472
▁څ	-11.7475
وليو	-11.7478
ليف	-11.7479
زندگي	-11.7481
▁جرح	-11.7483
▁out	-11.7483
ڪڏهن	-11.7483
ڎ	-11.7485
▁واپرائيندڙ	-11.7485
▁شراڪت	-11.7485
▁مقتول	-11.7486
▁معليش	-11.7486
▁انتشار	-11.7486
▁سنجيدگي	-11.7486
▁هيملٽ	-11.7486
▁(9)	-11.7486
ves	-11.7487
▁10-	-11.7487
▁واڌايون	-11.7488
▁org	-11.7489
▁ويڪري	-11.7491
▁گهيري	-11.7493
▁ٽانڪ	-11.7494
▁نيڪال	-11.7495
▁اصلی	-11.7495
▁إذا	-11.7498
▁للي	-11.7498
▁ڌمڪيون	-11.7507
size	-11.7507
▁فوجين	-11.7507
▁اچانڪ	-11.7509
▁ٻانھ	-11.751
▁هپ	-11.7513
▁سهل	-11.7514
use	-11.7517
▁ڪاوڙجي	-11.752
▁هاڪاري	-11.7521
▁سلا	-11.7525
men	-11.7526
▁08	-11.7528
پسند	-11.7529
▁work	-11.753
▁آفيسن	-11.7531
▁ڏسڻو	-11.7531
گنگ	-11.7531
حضرت	-11.7531
▁عمارتون	-11.7534
▁خوني	-11.7534
▁گھڻ	-11.7534
▁گردي	-11.7535
وبه	-11.7536
IA	-11.754
▁خطير	-11.7541
ترك	-11.7543
▁يسوي	-11.7545
▁شماريات	-11.7546
▁تركي	-11.7548
ole	-11.7549
▁جنيه	-11.755
▁All	-11.7551
▁چرخ	-11.7554
▁اٽو	-11.7557
ui	-11.7561
▁Go	-11.7563
▁cr	-11.7564
▁Pre	-11.7568
َرُ	-11.7568
▁عامر	-11.7569
▁بآ	-11.7569
ھُ	-11.757
▁شکل	-11.7582
دلع	-11.7583
▁افغاني	-11.7586
▁روايتون	-11.7587
▁وڍي	-11.7591
▁باٿ	-11.7592
فطر	-11.7593
▁قسمتي	-11.7594
برد	-11.7605
ler	-11.7609
▁يلي	-11.761
▁پکو	-11.7611
▁مئنيج	-11.7613
خم	-11.7613
▁سائڊ	-11.7613
▁أك	-11.7614
▁چھ	-11.7614
▁غص	-11.7616
▁وَر	-11.7616
bl	-11.7617
▁پڙهيا	-11.7618
▁اونه	-11.7618
▁درهم	-11.7623
▁رهه	-11.7624
▁لينا	-11.7627
LO	-11.7629
▁الصوره	-11.7632
ble	-11.7633
ليز	-11.7634
▁نوم	-11.7634
▁عود	-11.7635
بُ	-11.7637
▁ذائقي	-11.7637
▁متضاد	-11.7637
▁مفاصلي	-11.7637
▁واپرائڻ	-11.7637
▁يعقوب	-11.7637
▁سبسڪرپشن	-11.7637
▁نافذ	-11.7637
▁عاشت	-11.7637
="0.2	-11.7637
▁ڪلهوڙ	-11.7638
▁گانڌي	-11.7638
▁فيڊريشن	-11.7638
▁(8)	-11.7638
▁امريکا	-11.7638
▁ٽالپر	-11.7638
▁پخش	-11.7639
▁بطل	-11.7639
غار	-11.764
▁سمجهائڻ	-11.764
ding	-11.7641
▁بودن	-11.7642
▁نخست	-11.7642
▁پگهر	-11.7643
▁ڦهل	-11.7643
▁جلو	-11.7644
▁خفيف	-11.7644
▁مشاعر	-11.7645
▁اھميت	-11.7646
▁سوڌو	-11.7647
▁گيئر	-11.765
▁ناسا	-11.765
▁مقالي	-11.7651
▁ومش	-11.7651
▁ندى	-11.7652
▁ڏسنداسين	-11.7653
▁ايجنسين	-11.7654
▁زمن	-11.7654
▁واقفيت	-11.7656
▁هدا	-11.766
cha	-11.7662
رپور	-11.7662
▁ڊيڊ	-11.7662
▁اروپا	-11.7664
▁تز	-11.7666
▁قبض	-11.7667
▁هجرت	-11.767
▁نيٽو	-11.7671
▁موسى	-11.7672
▁MP	-11.7674
▁نعرو	-11.7674
▁ووٽنگ	-11.7675
▁لاهڻ	-11.7675
yo	-11.7675
▁تبصري	-11.7676
▁ازاي	-11.768
▁گهرڻ	-11.768
SI	-11.7681
▁تجلي	-11.7681
▁كتبت	-11.7682
▁ساجن	-11.7682
ثق	-11.7683
دعا	-11.7685
book	-11.7686
▁حور	-11.7686
▁ترجم	-11.769
ادة	-11.769
▁صباح	-11.7691
▁هٿياربند	-11.7696
▁موسي	-11.7696
▁هوٽلن	-11.7698
واهه	-11.7702
▁چاقو	-11.7704
ڙهه	-11.7705
ڪارو	-11.7705
▁پرتگال	-11.7706
▁68	-11.7707
▁استان	-11.7711
▁هش	-11.7711
اڻپ	-11.7712
▁هديه	-11.7712
▁پرکي	-11.7713
▁فوٽوز	-11.7714
▁بورس	-11.7716
▁النت	-11.7718
▁عهدو	-11.7723
▁ڪيٽي	-11.7723
▁عرفان	-11.7724
مول	-11.7727
▁سهر	-11.7727
▁ڪارل	-11.7727
پلي	-11.7729
▁ثنا	-11.773
▁ڇل	-11.7732
▁پبلشر	-11.7734
▁همان	-11.7736
ڪچر	-11.7737
▁ٽامي	-11.7737
▁مرندي	-11.7738
ووه	-11.7739
▁شكلهم	-11.7739
خذ	-11.774
▁برك	-11.774
cl	-11.7743
▁تلف	-11.7743
▁دوز	-11.7745
▁رني	-11.7746
▁ڪوڏ	-11.7756
tors	-11.7756
▁پکيڙي	-11.7759
▁ديده	-11.776
▁ورھ	-11.7762
مفروض	-11.7763
▁مختص	-11.7767
▁ڪَر	-11.7767
▁هى	-11.7768
▁مُرڪي	-11.7769
▁سد	-11.7771
▁شعبا	-11.7772
▁پاسا	-11.7773
الب	-11.7773
▁زاد	-11.7775
▁هارائي	-11.7776
حش	-11.7776
بحث	-11.7778
▁زخمن	-11.7779
▁ڦاڙي	-11.7782
شف	-11.7782
▁اينجا	-11.7785
▁ڪرونا	-11.7786
جاوب	-11.7787
▁علامتون	-11.779
آني	-11.7791
ڸ	-11.7791
▁URL	-11.7791
▁پشتيباني	-11.7791
▁لمرورك	-11.7791
▁آفريقي	-11.7791
▁خيم	-11.7791
▁آفريقا	-11.7791
▁توجہ	-11.7791
▁سعادت	-11.7791
▁اڀرڻ	-11.7791
uck	-11.7791
▁stainless	-11.7792
▁ساليانو	-11.7792
▁پرهيزگار	-11.7792
▁will	-11.7792
▁فلپائن	-11.7793
▁ڪينيڊي	-11.7793
▁فلائيٽ	-11.7793
▁اتساه	-11.7793
▁طعام	-11.7793
▁1971	-11.7793
▁نمايش	-11.7793
▁وهنوار	-11.7793
▁ذليل	-11.7793
▁نارنگي	-11.7794
▁§	-11.7795
▁ناحق	-11.7795
اليا	-11.7795
▁ڳئون	-11.7795
▁😉	-11.7795
▁ڦاهي	-11.7796
▁گهراڻي	-11.7797
▁زبور	-11.7798
▁1950	-11.7798
▁بڇڙي	-11.7798
▁بڇڙا	-11.7799
ont	-11.78
ics	-11.78
▁ھجن	-11.7801
▁نسيم	-11.7801
▁ويھي	-11.7803
▁چوندس	-11.7803
▁بوند	-11.7804
▁ڪنچن	-11.7805
▁کارائڻ	-11.7805
▁رساني	-11.7806
▁Ka	-11.7806
▁حاڪمن	-11.7807
آري	-11.7807
▁ڊرامي	-11.7807
▁اطلع	-11.7808
▁رھندا	-11.7808
▁يكتب	-11.7809
▁پنجره	-11.7809
▁سيٽان	-11.7809
▁ڪرد	-11.7811
▁شخصيتون	-11.7816
▁تحول	-11.7817
▁غذائيت	-11.7817
ڪور	-11.7819
▁جميع	-11.7821
▁زلف	-11.7821
▁پاڇ	-11.7825
▁آرسي	-11.7828
▁ٻيئي	-11.783
ساز	-11.7832
▁سجدو	-11.7832
▁app	-11.7833
▁ساقي	-11.7834
ual	-11.7836
▁ڪرنٽ	-11.7838
EM	-11.7838
تيها	-11.7839
بنا	-11.7843
▁گذارش	-11.7844
ize	-11.7846
▁الرد	-11.7852
▁تبادلي	-11.7853
▁گئ	-11.7856
▁فريق	-11.7857
▁چلم	-11.786
▁ڀينر	-11.7861
▁قطب	-11.7862
▁رھو	-11.7862
▁92	-11.7864
▁داس	-11.7865
▁جوانيءَ	-11.7865
▁لکڻيون	-11.7867
ڀو	-11.7871
▁نئ	-11.7873
▁خليها	-11.7874
▁متو	-11.7875
▁پارا	-11.7875
let	-11.7875
طط	-11.7875
▁الساع	-11.7879
ئَ	-11.788
▁><	-11.7881
▁حاول	-11.7885
▁پروازن	-11.789
▁فدا	-11.789
پپا	-11.789
▁u	-11.7891
▁سوئر	-11.7891
▁ڏٺيون	-11.7892
▁ردك	-11.7894
▁لڙ	-11.7895
▁tra	-11.7898
▁پڪڙيو	-11.7898
لبي	-11.7902
▁وسيم	-11.7903
▁دلير	-11.7903
▁وراڻي	-11.7903
br	-11.7905
▁گرميءَ	-11.7905
▁ايڊو	-11.7909
-6	-11.7912
ew	-11.7912
▁ڳايو	-11.7913
▁شايف	-11.7913
▁انتخابات	-11.7918
→	-11.7919
==	-11.7919
▁مخصوصا	-11.7922
ٹو	-11.7923
▁سِٽ	-11.7924
ٻڙ	-11.7925
▁انگور	-11.7926
شاعر	-11.7926
▁ٿيندس	-11.7927
▁صنعتڪار	-11.793
▁گولف	-11.793
▁هائيڊرو	-11.7931
توقع	-11.7932
▁کيسي	-11.7934
▁حاط	-11.7934
▁اَڄ	-11.7934
حقيقي	-11.7939
▁منٿ	-11.7939
▁بخشش	-11.7942
ائِي	-11.7943
▁توقعت	-11.7947
द	-11.7947
empty	-11.7947
ۊ	-11.7947
▁ايڊيٽوريل	-11.7947
-3	-11.7947
▁ترحيب	-11.7947
▁لاجواب	-11.7947
▁ممنوع	-11.7947
▁مرکب	-11.7947
▁ارسطو	-11.7947
▁مقياس	-11.7947
▁مٽاسٽا	-11.7947
▁ميڊريز	-11.7947
▁اپنائڻ	-11.7947
▁مسئول	-11.7947
▁بمقابل	-11.7948
▁LED	-11.7948
▁تسلط	-11.7948
▁پرفارمنس	-11.7948
▁رفيق	-11.7948
▁شبنم	-11.7949
▁ڀريندؤ	-11.7949
▁mi	-11.7949
▁جابلو	-11.7949
▁1979	-11.7949
▁ڪپتان	-11.795
▁79	-11.795
▁عمومي	-11.795
▁کڄي	-11.795
▁الولد	-11.795
▁فاط	-11.7951
▁وڙهندا	-11.7951
▁آسمانن	-11.7953
▁بيري	-11.7953
▁خفيه	-11.7953
▁چهار	-11.7955
▁پيشاب	-11.7955
▁پچائڻ	-11.7956
▁لولي	-11.7956
▁مقطع	-11.7957
▁72	-11.7958
▁PDF	-11.7959
▁تطلع	-11.7959
▁پيئر	-11.796
▁%	-11.7963
▁ٻڍ	-11.7963
ization	-11.7964
▁توحيد	-11.7964
mu	-11.7965
▁ٽتو	-11.7966
▁ياحبي	-11.7967
▁تروح	-11.7969
▁ٿڙ	-11.7969
▁نياپو	-11.7969
▁هسٽنگ	-11.7969
▁اعلم	-11.7969
▁غز	-11.7971
▁پُٺ	-11.7975
▁مڃان	-11.7975
▁اسپانسر	-11.798
▁آيات	-11.7982
▁ڪرسيءَ	-11.7983
▁ځوا	-11.7984
▁گرانٽ	-11.7984
▁لأنه	-11.7985
▁تڏ	-11.7986
▁منير	-11.7987
days	-11.7989
▁ڇٽي	-11.7991
▁چٻ	-11.7994
▁خصوصا	-11.7996
▁سيما	-11.7997
▁ارز	-11.7998
▁قبوليت	-11.8001
▁پالش	-11.8001
▁أر	-11.8006
▁لوئي	-11.8007
▁پُڄ	-11.8007
▁ڦرڻ	-11.8007
▁سڏڻ	-11.8007
▁آئر	-11.8012
َوَ	-11.8014
▁مارڪو	-11.8018
▁اڏامون	-11.802
▁واج	-11.802
▁واصل	-11.802
لاقي	-11.8023
RT	-11.8024
▁هِت	-11.8026
▁Na	-11.8026
▁ښ	-11.8027
by	-11.8029
▁واء	-11.8029
▁ميڊي	-11.8029
ven	-11.8029
▁350	-11.803
▁پاتو	-11.8032
▁فوٽن	-11.8032
▁رڪاوٽون	-11.8032
▁احمق	-11.8033
▁اسمع	-11.8034
▁امسك	-11.8036
ینڈ	-11.8044
fo	-11.8044
▁۱۹	-11.8045
ِء	-11.8046
اڃا	-11.8048
▁کڻو	-11.8048
ڊيڊ	-11.8048
▁تاپ	-11.8049
▁ويجھ	-11.805
▁لياري	-11.8052
وران	-11.8055
bs	-11.8058
▁برتري	-11.8062
▁گويا	-11.8063
RA	-11.8064
▁حالانڪ	-11.8065
▁ٻوليء	-11.8066
▁ايرو	-11.8068
▁أحس	-11.8068
▁زيادي	-11.807
▁ڪنٽرولر	-11.8074
▁ئه	-11.8075
سٽسٽ	-11.8075
▁نيچ	-11.8076
▁رايح	-11.8079
CO	-11.8079
▁2.0	-11.808
▁پورائي	-11.8082
فرانس	-11.8082
UN	-11.8083
▁ستاره	-11.8084
▁سمير	-11.8085
▁انٽيلي	-11.8088
▁جست	-11.809
▁شکر	-11.809
▁تکي	-11.8093
▁باغن	-11.8095
گٽ	-11.8096
▁پاره	-11.8101
▁93	-11.8101
▁Outlook	-11.8106
▁اينالائيٽڪس	-11.8106
▁اڪاؤنٽ	-11.8106
▁حُڪم	-11.8106
▁انگلستان	-11.8106
▁مقصود	-11.8106
▁جائداد	-11.8106
▁ورهائجي	-11.8106
▁معجزو	-11.8106
▁اھڙا	-11.8106
▁تلقين	-11.8106
▁مطهري	-11.8106
▁پورهئي	-11.8106
▁صوبو	-11.8106
▁فرمايائون	-11.8106
▁مشابه	-11.8106
▁شعاع	-11.8107
▁رٻڙ	-11.8107
▁ڊيلٽا	-11.8108
▁ديدگاه	-11.8108
▁YouTube	-11.8108
▁ڊرامن	-11.8108
▁شركت	-11.8108
▁راسي	-11.811
▁نروار	-11.8111
▁عموما	-11.8111
▁وٺندس	-11.8112
ning	-11.8114
▁اقصد	-11.8115
▁ڪفن	-11.8116
▁مهاڳ	-11.8117
▁واذا	-11.8118
▁شكراً	-11.8119
▁اكتر	-11.8119
▁گی	-11.8122
جاب	-11.8123
▁اجراي	-11.8123
▁بحرين	-11.8123
▁هئينءَ	-11.8125
▁ماتا	-11.8125
▁بسيار	-11.8126
▁خلاصه	-11.8126
▁پهچائيندو	-11.8127
▁آپٽ	-11.8127
▁زاويه	-11.8129
▁ركب	-11.813
▁شوفي	-11.8131
ham	-11.8132
▁باهمي	-11.8136
▁معصومه	-11.8137
▁رائعة	-11.8137
▁حول	-11.8144
▁بصح	-11.8146
▁انتبه	-11.8147
▁درسي	-11.8147
▁ڪوٽڙي	-11.8148
▁چتر	-11.8151
▁معايا	-11.8152
کاري	-11.8153
▁سڏائي	-11.8153
ii	-11.8155
▁ڪرائيندو	-11.8158
ES	-11.8159
▁66	-11.8159
▁لمحا	-11.8162
▁ڇوڪر	-11.8168
▁وڻيو	-11.8169
▁خم	-11.817
▁قولت	-11.8171
▁جھڙا	-11.8173
▁صداي	-11.8174
ized	-11.8175
▁ماذا	-11.8175
▁فريد	-11.8177
ظف	-11.8183
ذيب	-11.8184
▁ڪاريون	-11.8187
وڪري	-11.8188
پائي	-11.8188
▁جهڪي	-11.8189
za	-11.819
▁سانحي	-11.8193
ڪوڊ	-11.8195
▁گھرندو	-11.8196
وقف	-11.8197
▁اسكت	-11.8198
▁ڏيهي	-11.8199
▁جُو	-11.8201
اريون	-11.8205
درو	-11.8205
پوٽ	-11.8206
▁نايم	-11.8206
▁بون	-11.8209
▁ڪيفي	-11.8209
▁کوليا	-11.821
]]	-11.8214
▁اسمه	-11.8215
▁تحريرون	-11.8215
▁أخوي	-11.8217
▁ڄاڻين	-11.8217
رٍ	-11.8218
▁پاک	-11.8223
2019	-11.8224
▁سولائي	-11.8224
▁فاصل	-11.8228
▁إي	-11.8229
▁ڏاڍيون	-11.823
UM	-11.8233
ڄاڻ	-11.8239
▁ديسي	-11.824
BS	-11.824
▁جمالي	-11.8241
▁ڦاس	-11.8251
▁هالم	-11.8251
ييييي	-11.8253
▁زيان	-11.8253
▁افق	-11.8256
▁سينيٽر	-11.826
گال	-11.8261
▁اَچ	-11.8264
▁بالك	-11.8264
ادت	-11.8265
▁ڀڃ	-11.8266
▁هڏي	-11.8266
טּ	-11.8267
▁اصفهان	-11.8267
▁المشاركات	-11.8267
▁سريلنڪا	-11.8267
▁پبليڪيشن	-11.8267
▁ڦاٿل	-11.8267
▁اوسيئڙ	-11.8267
▁داعش	-11.8267
▁ڪنٽينر	-11.8267
▁گدڙ	-11.8267
▁پاکستان	-11.8268
▁ٻاڦ	-11.8268
▁اعضاء	-11.8268
▁USD	-11.8268
▁1984	-11.8269
▁کوجنا	-11.8269
▁يخرب	-11.8269
▁طاهر	-11.8269
▁information	-11.827
▁ميشود	-11.827
▁ڏاڏن	-11.827
▁الجميل	-11.827
▁نڪرندڙ	-11.827
▁ڪهڙن	-11.827
▁گهور	-11.8271
▁المدير	-11.8271
▁عنجد	-11.8271
▁رٽائرڊ	-11.8271
▁آمريت	-11.8271
▁ٺاھيندڙ	-11.8271
ica	-11.8272
▁SQL	-11.8272
▁انڌير	-11.8272
▁پيئندو	-11.8272
▁نوازي	-11.8274
▁يحفظ	-11.8274
▁صنم	-11.8274
▁سرشتي	-11.8274
▁رياضيات	-11.8274
▁جانشين	-11.8274
▁الارم	-11.8276
▁ٻيڙين	-11.8277
▁لڌا	-11.8279
▁مفڪر	-11.8279
خد	-11.8279
▁لڌي	-11.8279
▁زمينون	-11.828
▁فنگر	-11.8281
▁ٻڌندڙ	-11.8281
▁ڏوهي	-11.8281
▁پٽو	-11.8283
▁گياهان	-11.8284
ائق	-11.8285
▁اُتان	-11.8285
▁پلاننگ	-11.8287
▁right	-11.8287
▁(4	-11.8289
vent	-11.829
▁بلاگرز	-11.8291
▁بڻجن	-11.8293
▁غيب	-11.8295
▁عهدن	-11.8297
على	-11.8299
▁قسمين	-11.8299
▁سلائيڊ	-11.83
▁جمل	-11.83
▁ٻانهون	-11.8301
▁نعرا	-11.8301
▁پهلوي	-11.8302
▁معرف	-11.8303
▁چانڊ	-11.8304
▁بُک	-11.8304
▁گيمز	-11.8304
▁ڪڍو	-11.8306
▁لنڪا	-11.8306
ئنڊ	-11.8307
▁TM	-11.8309
qui	-11.8311
ration	-11.8312
▁حوصلو	-11.8312
▁قالو	-11.8313
▁گپ	-11.8314
▁ء	-11.8321
ميلي	-11.8322
▁زهريل	-11.8323
▁ڪوڪي	-11.8324
▁آلله	-11.8326
ٿيل	-11.8326
▁اسير	-11.8328
▁Su	-11.8331
▁همس	-11.8331
▁محلي	-11.8331
▁نبا	-11.8333
▁؟؟؟؟؟	-11.8333
xx	-11.8333
▁العام	-11.8337
موم	-11.8337
▁جنين	-11.8338
▁ڪمرا	-11.8341
▁موجودگيءَ	-11.8341
▁قليل	-11.8345
هههههههااي	-11.8347
▁ڳالهائين	-11.835
خود	-11.8353
▁حلوووو	-11.8354
▁اڻو	-11.8354
▁سمت	-11.8356
عود	-11.8357
▁مغز	-11.836
▁AS	-11.8363
ٿان	-11.8366
▁چهارم	-11.8367
▁گھٽجي	-11.8367
تأخر	-11.8367
▁باطل	-11.8368
▁افقي	-11.8372
▁Ti	-11.8373
▁بروح	-11.8374
▁عدن	-11.8376
اھو	-11.8378
▁متر	-11.838
▁dr	-11.8383
▁02	-11.8387
کی	-11.8392
▁هينري	-11.8392
▁ڀُل	-11.8393
the	-11.8396
▁چچ	-11.8397
ٻر	-11.8398
ram	-11.8398
▁غيرك	-11.84
صعب	-11.84
▁وڌا	-11.8401
▁موسمياتي	-11.8402
قرآن	-11.8406
▁گھڻيون	-11.8407
▁فك	-11.8407
▁160	-11.8409
▁سگهندين	-11.8413
▁__	-11.8416
▁رُخ	-11.8422
ذات	-11.8422
وير	-11.8425
▁ويچارو	-11.843
▁Daily	-11.8431
▁اسٽيبلشمينٽ	-11.8431
▁اعجبتني	-11.8431
▁نمائندا	-11.8431
▁کميسيون	-11.8431
▁سيکارڻ	-11.8431
▁رغد	-11.8431
▁دعوى	-11.8431
▁سيمالٽ	-11.8431
▁نظارن	-11.8431
▁جعفر	-11.8431
▁غافل	-11.8432
▁مٿاهون	-11.8432
▁ويڪرو	-11.8432
▁هٻڪ	-11.8432
▁اندرويد	-11.8432
▁چگونگي	-11.8432
▁(7)	-11.8432
▁ٻاجھ	-11.8432
ney	-11.8434
▁مبتني	-11.8434
▁ٻيڙيء	-11.8434
▁connect	-11.8434
▁ڪوئيٽا	-11.8434
▁كويس	-11.8435
▁5000	-11.8435
▁پڙهايو	-11.8436
▁باخبر	-11.8437
▁مثلاً	-11.8438
▁تجربيڪار	-11.8438
In	-11.8439
▁لائف	-11.8441
▁خسار	-11.8442
▁لوقا	-11.8443
▁اووو	-11.8444
▁فيڊرل	-11.8444
▁اسٽيشنن	-11.8445
▁مستحيل	-11.8446
▁حركات	-11.8447
▁آميز	-11.8447
▁تعليمات	-11.8449
▁ٺڳ	-11.845
▁سولر	-11.845
▁ويهين	-11.845
▁ٽيڪن	-11.8452
▁نائي	-11.8454
▁ڏهاڙو	-11.8454
ڪندڙ	-11.8454
▁شڪريو	-11.8454
▁اسمها	-11.8454
▁پهه	-11.8456
▁ٽيچر	-11.8458
3-	-11.8459
▁مچائي	-11.8459
طرف	-11.8459
▁71	-11.8459
▁معاونت	-11.8462
▁وڻج	-11.8462
▁زوم	-11.8463
▁حڪومتون	-11.8466
▁ڇڏينداسين	-11.8466
وٽا	-11.8467
▁تقدر	-11.8472
▁مِٽ	-11.8473
▁سامراجي	-11.8473
▁مائو	-11.8475
▁شگر	-11.8478
;)	-11.848
▁تات	-11.8484
بغي	-11.8485
▁هئاسون	-11.8485
▁ID	-11.8487
▁ابليسك	-11.8487
▁خانم	-11.8488
▁آرين	-11.8494
▁لِک	-11.8496
▁جيڪب	-11.8497
▁61	-11.8497
▁ڦوڪ	-11.8499
▁واللي	-11.8499
▁فقه	-11.85
▁ڌم	-11.8506
▁'_	-11.8507
▁واق	-11.8512
▁پابندين	-11.8517
▁برتر	-11.8519
▁ڍول	-11.8523
▁قصدي	-11.8525
▁كد	-11.8525
▁پيوسته	-11.8527
▁عبا	-11.8528
غم	-11.8529
tur	-11.8532
ضم	-11.8532
▁ناني	-11.8537
▁نيه	-11.8539
ليٽر	-11.8542
ٿون	-11.8543
▁أبو	-11.8544
▁As	-11.8546
▁نرمي	-11.8547
آيد	-11.8548
▁مليح	-11.8549
▁ڪہ	-11.8549
▁Or	-11.855
▁ٻير	-11.8551
▁ڪٿ	-11.8556
▁انڌا	-11.8557
▁مازن	-11.8559
▁درجن	-11.856
يمكن	-11.8561
▁کارائي	-11.8562
▁Is	-11.8563
▁نچي	-11.8564
gan	-11.8566
▁پڪڙ	-11.8566
▁گران	-11.8569
تصوير	-11.857
▁يست	-11.8572
▁روبي	-11.8573
="8	-11.8574
▁Wa	-11.8574
▁قدام	-11.858
▁ir	-11.8582
رسوخ	-11.8584
▁سمجھن	-11.8584
فرح	-11.8585
▁2-3	-11.8586
صيح	-11.8587
▁يخلي	-11.8587
▁گهڙيون	-11.8589
▁گهٽايو	-11.8589
▁ڊاڪ	-11.8592
▁رسولن	-11.8596
ِّ	-11.8596
▁API	-11.8598
▁جلاوطن	-11.8598
▁روڪٿام	-11.8598
▁مرکوز	-11.8598
ü	-11.8598
▁ذخيرا	-11.8598
▁سگهبو	-11.8598
▁انرژي	-11.8598
▁پرڏيهه	-11.8598
को	-11.8598
▁ويٺس	-11.8598
▁فيڪلٽي	-11.8598
▁رچرڊ	-11.8598
▁فوٽوگرافي	-11.8598
▁ساڀيا	-11.8598
▁ٽيمپليٽ	-11.8598
▁آٿت	-11.8599
▁ٻچن	-11.8599
▁تائيد	-11.8599
عالم	-11.86
▁1989	-11.86
▁شرارت	-11.86
▁هائپر	-11.8601
▁هِڪ	-11.8602
▁نبض	-11.8603
▁مختيار	-11.8604
ميشن	-11.8604
ااان	-11.8607
دوست	-11.8609
▁راكان	-11.8609
طول	-11.861
▁ٽيڪساس	-11.8613
▁وٿي	-11.8614
▁پڇندو	-11.8614
▁قصة	-11.8614
▁ميوي	-11.8615
▁110	-11.8615
▁مقلب	-11.8615
▁نشريات	-11.8616
▁فاس	-11.8617
▁تنهائي	-11.862
▁ڏڪڻ	-11.8622
▁اميدون	-11.8622
▁www	-11.8623
▁تصير	-11.8623
▁مَٽ	-11.8623
▁ڦوٽو	-11.8629
▁جرسي	-11.863
▁ابل	-11.863
داخل	-11.8631
▁ارمان	-11.8631
▁اشتري	-11.8632
▁نسوي	-11.8632
▁مسخ	-11.8633
▁ڪيمپس	-11.8634
▁1-2	-11.8636
▁گروي	-11.8639
▁اوپو	-11.8643
pro	-11.8644
▁اسڪائي	-11.8653
ED	-11.8653
▁يخليك	-11.8654
▁حيواني	-11.8656
▁چوٽيءَ	-11.8658
▁کنئي	-11.8659
▁سينه	-11.8661
ani	-11.8662
▁شيعي	-11.8662
▁ريسٽ	-11.8662
urs	-11.8662
▁نڪرندا	-11.8662
▁رنو	-11.8669
▁ڪِر	-11.8669
▁ٍ	-11.867
▁المط	-11.8672
راق	-11.8672
▁گال	-11.8674
▁ڌاڙيلن	-11.8675
▁نيپ	-11.8675
▁سپيد	-11.8676
▁اٿاريو	-11.8677
▁گوئي	-11.8677
▁ورڪنگ	-11.8679
▁کاڻ	-11.8681
گھر	-11.8681
▁ذهبي	-11.8686
▁قافل	-11.8686
▁bi	-11.8689
ررر	-11.8691
▁ڪاربن	-11.8697
▁رسو	-11.8698
ندگي	-11.8703
پاس	-11.8703
gra	-11.8705
▁اٿل	-11.8709
▁جعل	-11.8711
▁سجاڳي	-11.8715
▁مڃيل	-11.8718
▁ڦٽو	-11.872
▁صرت	-11.8721
SE	-11.8722
▁ركز	-11.8723
▁ربط	-11.8723
▁ساراھ	-11.8727
صحيح	-11.8728
▁عيوني	-11.8729
▁ڪڍيا	-11.8731
▁ڪرش	-11.8732
▁ايوي	-11.8732
▁دراز	-11.8733
▁مصور	-11.8737
▁موض	-11.8737
▁بليو	-11.874
▁نامه	-11.8742
▁ڍڳ	-11.8746
▁اختلافن	-11.8747
تعليم	-11.8748
▁ٽوڙ	-11.8748
▁82	-11.8751
▁ججن	-11.8753
▁چاق	-11.8755
▁ڀَر	-11.8756
▁اسٽيو	-11.8756
su	-11.8756
ments	-11.8758
بہ	-11.8759
▁ڊيلر	-11.876
▁97	-11.8761
قان	-11.8764
▁كسي	-11.8767
▁بارسلونا	-11.8767
▁مينيجمينٽ	-11.8767
▁ڌانڌلي	-11.8767
▁کثافت	-11.8767
▁نژاد	-11.8767
▁ويبسائيٽ	-11.8767
▁يھودي	-11.8767
▁آڪاش	-11.8767
▁لذت	-11.8768
▁مناظر	-11.8768
▁مافهمت	-11.8768
جاج	-11.8768
واٽ	-11.8768
▁معلش	-11.8768
▁وائرليس	-11.8769
▁الفاظ	-11.8769
▁1973	-11.8769
▁باشعور	-11.8769
phone	-11.8769
▁اکڙين	-11.8769
▁رشوت	-11.8769
▁سگهڙ	-11.8771
▁مقاله	-11.8771
اڍائي	-11.8772
▁روبرو	-11.8772
▁احتر	-11.8773
lol	-11.8773
▁درحقيقت	-11.8774
▁سرجري	-11.8775
گلي	-11.8776
▁خانا	-11.8777
پنگ	-11.8777
▁ڇڏائڻ	-11.8777
▁لينن	-11.8778
▁رليف	-11.8779
ردي	-11.8781
▁کائنس	-11.8782
CC	-11.8782
▁ڪِري	-11.8782
▁ڪرپٽ	-11.8783
▁مديره	-11.8784
view	-11.8785
▁back	-11.8786
▁تاريخچه	-11.8786
▁جھڙوڪ	-11.8787
▁ٽوٽل	-11.8787
▁پيٽرن	-11.8789
▁أول	-11.8789
▁مساج	-11.8789
▁وردة	-11.8792
SP	-11.8792
رته	-11.8793
▁تعجبني	-11.8795
ہِ	-11.8796
▁روئندي	-11.8797
▁ضلعو	-11.88
سپورٽ	-11.8801
▁بارك	-11.8801
▁زود	-11.8804
▁نسب	-11.8805
▁بوده	-11.8807
▁وحش	-11.8807
▁ميڊل	-11.881
▁زه	-11.8811
way	-11.8812
▁پارو	-11.8814
▁اتو	-11.8816
▁ٻاراڻي	-11.8817
▁جفا	-11.8817
ua	-11.8819
▁شوفو	-11.8822
king	-11.8822
▁شيوه	-11.8825
▁والوز	-11.8825
عذر	-11.8825
St	-11.8826
▁مامو	-11.8827
▁مَر	-11.8828
▁Sc	-11.8831
حرم	-11.8831
کش	-11.8832
امير	-11.8833
▁تبليغات	-11.8833
▁دسته	-11.8835
▁باشند	-11.8835
▁الذ	-11.8837
▁گياه	-11.8837
▁هآ	-11.8838
▁چينلز	-11.8838
▁ڪنجي	-11.884
پپي	-11.8844
▁بتيون	-11.8845
▁وڌائيندي	-11.8846
▁انفراديت	-11.8846
▁بانو	-11.8848
▁خودرو	-11.8849
ائش	-11.885
▁چڙهيل	-11.885
وارو	-11.8853
▁ڀال	-11.8854
اوت	-11.8854
▁مرن	-11.8854
▁بانڊ	-11.8856
▁آزاديء	-11.8857
▁بنگالي	-11.8859
▁علينا	-11.886
▁چيري	-11.8861
▁لمن	-11.8862
▁نوشي	-11.8862
▁ڏاند	-11.8865
▁اخير	-11.8866
▁انرجي	-11.8868
ايڪس	-11.8873
ملك	-11.8874
▁أش	-11.8874
▁جهلڪ	-11.8877
▁افت	-11.8879
قلي	-11.8881
▁مصرف	-11.8881
▁شاديون	-11.8881
▁ھت	-11.8881
▁کٽيو	-11.8882
اھيو	-11.8882
CR	-11.8883
▁ٽوڙيو	-11.8883
▁پنا	-11.8883
ظل	-11.8887
▁تعا	-11.8888
ٺل	-11.889
▁اعت	-11.8891
▁تعليقك	-11.8894
▁گود	-11.8897
اعه	-11.8897
fer	-11.8898
▁مجموع	-11.8899
يں	-11.8899
حفظ	-11.8903
bin	-11.8904
▁چلو	-11.8904
آتي	-11.8905
▁ٽڪيٽن	-11.8905
▁بانک	-11.8907
▁ننگر	-11.8907
▁لڇ	-11.8907
ائبو	-11.891
جاري	-11.891
ذك	-11.8914
▁الكر	-11.8914
ولة	-11.8915
▁ٽرپ	-11.8915
▁ميڙي	-11.8916
▁قديمه	-11.8916
▁رڌ	-11.8921
▁ٽائل	-11.8926
▁(5	-11.893
▁05	-11.893
▁بُر	-11.8931
▁زنا	-11.8938
▁سخاوت	-11.894
▁لاڙڪاڻو	-11.894
▁نائيجيريا	-11.894
▁يونيفارم	-11.894
▁پئڪيج	-11.894
▁مئٽرڪ	-11.894
▁رواداري	-11.894
▁اُڇل	-11.894
▁اعجاز	-11.894
▁نارنجي	-11.894
▁سونهري	-11.894
▁اصغر	-11.894
▁آماده	-11.894
▁take	-11.8941
▁وڪوڙي	-11.8941
▁گہر	-11.8941
▁ونڊي	-11.8942
▁اڪرم	-11.8942
▁وٽامن	-11.8942
▁ٻڌايائين	-11.8942
▁اچرج	-11.8943
▁ڪڙڪ	-11.8944
▁بظاهر	-11.8945
▁پينشن	-11.8946
▁مرتضي	-11.8947
▁اوتار	-11.8949
▁خمير	-11.895
▁سنڀاليندو	-11.895
▁بروقت	-11.895
▁وڍ	-11.8951
▁ويجها	-11.8952
▁ღ	-11.8952
پشن	-11.8953
▁ميدوني	-11.8953
▁مابي	-11.8954
▁تحميل	-11.8956
▁post	-11.8956
▁اٿوَ	-11.8958
▁81	-11.8958
▁گمراهه	-11.8959
صنع	-11.8961
▁لٿي	-11.8962
▁يفهم	-11.8963
▁جنازي	-11.8964
▁إيه	-11.8966
▁ڌريون	-11.8966
▁سرڪش	-11.8967
▁ٽيلر	-11.8969
▁ڏنس	-11.8971
▁سڪو	-11.8971
▁حجر	-11.8972
▁فيفا	-11.8981
▁چيئر	-11.8981
▁ڪنگڻ	-11.8983
موري	-11.8983
▁يومين	-11.8983
▁ڊنر	-11.8984
▁آڌي	-11.8985
▁آياسين	-11.8987
▁دڳ	-11.8988
▁ڪعبي	-11.8989
▁فنڪارن	-11.8993
▁تحط	-11.8997
▁انھي	-11.8998
▁وڪڻ	-11.8998
▁رائد	-11.9005
▁مزور	-11.9008
▁منسٽر	-11.9008
▁هجون	-11.901
▁مدام	-11.9012
▁z	-11.9012
▁ياعم	-11.9012
▁ڦيرائي	-11.9013
▁راك	-11.9013
▁باقر	-11.9013
▁ايڊز	-11.9013
سٽريٽ	-11.9014
طبق	-11.9014
▁نازي	-11.9016
▁بادشاهن	-11.9017
▁يااا	-11.9017
اڻايل	-11.9017
▁ٻيلو	-11.9019
▁لڀ	-11.9024
▁معناها	-11.9025
▁پڙھو	-11.9025
يندڙن	-11.9027
▁بڻائيندا	-11.9027
▁چريا	-11.9028
▁سپاس	-11.9031
DE	-11.9037
eth	-11.904
App	-11.904
▁مچي	-11.9041
▁ډ	-11.9045
5,000	-11.9046
▁اسڪي	-11.9049
▁وسڪار	-11.905
▁تکو	-11.9055
▁ورڻ	-11.9056
▁89	-11.9057
گرم	-11.9064
▁ٿيءُ	-11.9065
▁رجب	-11.9066
▁ڪيوسون	-11.9067
▁ڪِن	-11.9068
▁شماري	-11.9069
▁زيب	-11.9069
▁نشد	-11.9072
▁مهلت	-11.9072
▁اقرا	-11.9072
IR	-11.9079
▁لسان	-11.908
▁ٺڪر	-11.9081
स	-11.9086
▁اصلاحي	-11.9087
▁مونجهار	-11.9087
فورڊ	-11.9088
▁ومع	-11.9092
▁گرما	-11.9094
▁نعر	-11.9095
▁int	-11.9099
lam	-11.9109
ttle	-11.9109
▁پهاڙي	-11.9111
▁تره	-11.9112
اپيل	-11.9114
▁يله	-11.9114
פ	-11.9115
▁ڪرسٽوفر	-11.9115
▁ثلاث	-11.9115
▁سيٽلائيٽ	-11.9115
▁لذيذ	-11.9115
▁ميسينجر	-11.9115
▁معشوق	-11.9115
▁تغيير	-11.9115
▁مبلغ	-11.9115
▁گهوڙا	-11.9115
graph	-11.9115
▁اسڪوائر	-11.9115
▁أحلى	-11.9115
▁شمشير	-11.9115
▁عاجب	-11.9116
▁ڪڏهين	-11.9116
▁ورکړئ	-11.9116
▁حزب	-11.9116
▁پليٽفارم	-11.9116
▁گزينه	-11.9117
▁پهتل	-11.9117
▁نبوت	-11.9117
طريق	-11.9117
▁دوڪان	-11.9118
▁تعدد	-11.9118
▁ٽاسڪ	-11.9118
▁1977	-11.9118
▁وڃائجي	-11.9119
▁انتقال	-11.9119
▁نظارا	-11.9119
▁structure	-11.9119
▁شرعي	-11.912
▁♪	-11.9121
▁1930	-11.9122
>>>>>	-11.9123
▁ملح	-11.9123
▁اجهو	-11.9125
▁درگاهه	-11.9126
▁ڪنسول	-11.9126
▁سنين	-11.9127
▁وراك	-11.9128
II	-11.9128
▁مشير	-11.9128
▁ڀڳوان	-11.913
▁اخاف	-11.9131
▁اثاثو	-11.9131
نواز	-11.9131
▁واڌو	-11.9132
▁سيلون	-11.9133
شايد	-11.9133
▁خپل	-11.9133
chi	-11.9134
▁known	-11.9134
▁اضرب	-11.9135
▁پنو	-11.9135
▁گردد	-11.9136
▁لقا	-11.9139
ٻه	-11.9139
▁ريجن	-11.9139
▁يغ	-11.914
▁تقل	-11.9142
▁يرج	-11.9143
▁ويگن	-11.9144
▁لوسي	-11.9144
sing	-11.9145
▁دوکي	-11.9146
▁شعار	-11.915
▁مشاهد	-11.9153
▁الاح	-11.9154
▁ڄائي	-11.9156
يڪيوم	-11.9157
▁سفارشون	-11.9157
عطيك	-11.9158
▁01	-11.9158
رايا	-11.9158
اااااااي	-11.916
▁نقشا	-11.9164
▁صفات	-11.9164
▁تكفون	-11.9166
▁غاد	-11.9166
▁آذر	-11.9168
CH	-11.9171
▁cha	-11.9171
▁شائ	-11.9173
▁نال	-11.9173
▁پيانو	-11.9175
▁جی	-11.9179
▁ڀڳو	-11.9179
وووووووو	-11.9179
AA	-11.9181
▁تراني	-11.9185
▁معز	-11.9187
▁ريشم	-11.9187
▁لاڙو	-11.9188
▁آهِ	-11.9189
▁your	-11.919
▁فردوس	-11.9192
▁يوري	-11.9195
▁الليل	-11.9197
▁مرج	-11.9198
▁لڙي	-11.9199
پيڪ	-11.9199
▁لوهي	-11.9202
هاري	-11.9204
▁Han	-11.9205
▁راديو	-11.9205
عظم	-11.9205
▁دس	-11.9208
▁لنگر	-11.921
▁ٽڙي	-11.9211
▁GT	-11.9211
▁ميڻ	-11.9218
ڪنڊ	-11.9218
▁ڦاٽي	-11.9219
▁لڳايا	-11.9219
▁ٽپال	-11.9222
ral	-11.9223
▁جامعه	-11.9226
▁فول	-11.9227
▁شُ	-11.9228
▁83	-11.9232
▁ابليس	-11.9236
حبيب	-11.9238
▁مرغ	-11.9247
▁اندام	-11.9248
بغى	-11.9248
▁باين	-11.925
▁ٿل	-11.9251
▁نُ	-11.9253
▁ملاقاتون	-11.9255
ناها	-11.9257
▁شک	-11.9257
حقيقت	-11.9259
ult	-11.926
▁گندو	-11.9261
قِ	-11.9262
▁مائن	-11.9265
▁bl	-11.9266
▁دارم	-11.9266
ڪوڪو	-11.9266
▁700	-11.9268
▁ڪچو	-11.9268
▁وحشت	-11.927
▁محو	-11.9272
حقق	-11.9272
▁نَه	-11.9274
name	-11.9276
▁غب	-11.928
▁اتش	-11.928
زور	-11.9281
▁پولس	-11.9283
▁ننڍڙ	-11.9283
▁ڪيٿ	-11.9283
▁خيز	-11.9285
▁حاج	-11.9286
▁ميکني	-11.9288
net	-11.9288
ele	-11.9289
فرمان	-11.9289
▁ربيع	-11.929
▁آڱري	-11.9292
ु	-11.9294
▁throughout	-11.9294
▁ايجوڪيشن	-11.9294
▁ذخيري	-11.9294
▁مڱريو	-11.9294
▁وڪالت	-11.9294
▁مھينو	-11.9294
▁تفاوت	-11.9294
▁ڪرائ	-11.9294
▁قاصد	-11.9294
▁have	-11.9295
▁ڪمپوز	-11.9295
▁1500	-11.9295
▁وتاكل	-11.9295
▁وڙهندي	-11.9295
▁سازگار	-11.9295
▁خخخخ	-11.9296
تنهن	-11.9296
▁اٿائين	-11.9297
▁رضه	-11.9297
▁مُنھن	-11.9297
▁سجاول	-11.9298
▁پيٽروليم	-11.9299
هيهيهيهي	-11.9299
▁هرچي	-11.9299
▁قبيلا	-11.93
▁رشته	-11.9301
ااام	-11.9301
▁ڊگ	-11.9301
▁اخراج	-11.9302
ative	-11.9302
▁شفافيت	-11.9302
▁سالميت	-11.9302
▁جِن	-11.9303
▁سوشلزم	-11.9304
▁جڳائي	-11.9306
▁ويڙھ	-11.9307
▁السجن	-11.9311
▁شوراي	-11.9311
▁ڇَ	-11.9312
▁مزاجي	-11.9313
▁ٽٽل	-11.9314
▁حجت	-11.9314
▁بمبئيءَ	-11.9316
▁پرفارم	-11.9317
▁رپ	-11.9317
▁درياء	-11.9318
▁پھچڻ	-11.9323
فارم	-11.9323
ههههههههاي	-11.9323
▁پَس	-11.9324
EN	-11.9325
MC	-11.933
أم	-11.9331
▁ملاحظه	-11.9331
▁يقدر	-11.9335
▁ويهندي	-11.9339
▁لبى	-11.9339
طيب	-11.9339
قاف	-11.9342
▁ماڳن	-11.9342
▁معاه	-11.9343
▁ميراث	-11.9343
▁اعز	-11.9343
▁پکڙ	-11.9345
▁بڪس	-11.9346
▁موديل	-11.9348
list	-11.9348
َتَ	-11.9351
▁ڳنڍ	-11.9352
▁رپورٽر	-11.9356
▁پرايد	-11.9357
▁اخواني	-11.936
▁سگهياسين	-11.936
▁هيهيهيهي	-11.9361
▁ستو	-11.9363
▁ڪوٽا	-11.9366
بلبل	-11.9369
PC	-11.937
▁لٽي	-11.9371
zo	-11.9371
▁ماعرف	-11.9376
▁سپا	-11.9378
▁جزير	-11.9378
▁ننهن	-11.9379
▁ريفري	-11.938
ژي	-11.9382
▁94	-11.9385
▁اوست	-11.9391
يرة	-11.9393
▁وجهندي	-11.9393
كذب	-11.9394
▁سے	-11.9402
جاز	-11.9406
▁^^"	-11.9407
fu	-11.9408
rent	-11.941
▁ماڻڻ	-11.9411
box	-11.9412
آفي	-11.9412
▁ھٽ	-11.9413
اقت	-11.9413
AP	-11.9414
▁هبل	-11.9414
▁ڊائريڪٽرن	-11.9415
▁جوڙيل	-11.9417
▁أع	-11.9418
▁رسمون	-11.9423
▁مئن	-11.9429
▁ٽاڪ	-11.9429
▁شعل	-11.9429
ier	-11.9432
▁سردارن	-11.9433
سندس	-11.9441
▁ملنديون	-11.9441
mal	-11.9442
ory	-11.9442
▁ٻڏ	-11.9449
mit	-11.9452
▁الجاي	-11.9453
▁صب	-11.9454
▁ٽپي	-11.9457
گذاري	-11.946
▁سانچا	-11.946
▁ڪونج	-11.9461
▁هارون	-11.9462
▁ڪاپيون	-11.9466
آآآآآآ	-11.9467
▁پويا	-11.9468
▁امها	-11.947
دود	-11.9471
▁ڀڙ	-11.9473
كريم	-11.9474
â	-11.9475
î	-11.9475
ڤ	-11.9475
▁ارزيابي	-11.9475
▁يروشلم	-11.9475
▁′′	-11.9475
▁المشكله	-11.9475
▁افريقا	-11.9475
▁باورچ	-11.9475
▁پاڳل	-11.9475
▁مطالعات	-11.9475
▁مھمان	-11.9476
▁تاڪيد	-11.9476
ـٍـٍ	-11.9476
▁فٽنيس	-11.9476
▁يونائيٽي	-11.9476
▁سيستم	-11.9476
▁رعب	-11.9476
▁ڪوتاهي	-11.9476
▁ڪاررواي	-11.9476
▁ماقلت	-11.9476
▁تشڪيل	-11.9477
▁دكتور	-11.9477
▁گرفتن	-11.9477
▁جبتيها	-11.9477
▁انجليزي	-11.9477
▁1983	-11.9477
▁ڳجهي	-11.9478
▁زان	-11.9478
▁باطن	-11.9479
▁رنسون	-11.9479
▁hand	-11.9479
▁بخصوص	-11.948
▁رحلت	-11.948
چڻ	-11.948
▁ڀنڀور	-11.9482
▁خرب	-11.9483
▁ترديد	-11.9484
▁لاٽ	-11.9485
▁ڪاٺي	-11.9487
▁ڪيٽيگري	-11.9488
▁طعن	-11.9488
▁ٺل	-11.9488
▁Bit	-11.9489
ane	-11.949
▁حض	-11.949
▁گاريون	-11.9491
ality	-11.9491
▁منشور	-11.9492
▁مصدق	-11.9492
▁منجهيل	-11.9492
▁چالاڪ	-11.9493
▁وهائي	-11.9495
war	-11.9496
▁ٽائمز	-11.9497
▁واهي	-11.9498
▁ڏيکاء	-11.9501
▁وغير	-11.9501
ID	-11.9502
▁نمياد	-11.9502
شيد	-11.9503
▁فرحت	-11.9503
▁فائز	-11.9505
▁شناس	-11.9508
▁حجاب	-11.9508
▁سعي	-11.951
▁سنگيت	-11.9512
▁اٽي	-11.9512
▁عزيزتي	-11.9513
▁چپس	-11.9513
▁نكتة	-11.9514
▁عيسائين	-11.9514
▁پولنگ	-11.9515
▁کوچ	-11.9516
▁چهرن	-11.9519
▁ٻاهرئين	-11.9528
▁تخم	-11.9532
side	-11.9532
▁توپ	-11.9532
▁ڀائيوار	-11.9534
▁سابق	-11.9535
▁سياه	-11.9535
▁ٹ	-11.9536
▁مجسمو	-11.9539
حرك	-11.9541
eb	-11.9541
▁سهڻ	-11.9542
▁Com	-11.9543
▁مجنونه	-11.9543
▁چهرا	-11.9545
▁جانان	-11.9549
800	-11.955
▁گليڪسي	-11.9551
▁ساهيڙي	-11.9553
▁ٻيڙو	-11.9556
کرد	-11.9557
▁بابر	-11.9558
▁اهنگ	-11.9562
▁مشرق	-11.9565
▁توڻي	-11.9566
▁پُڇيو	-11.9567
▁ويچارا	-11.9568
OW	-11.9569
▁عيال	-11.9575
▁ليبرا	-11.9575
▁PS	-11.9575
▁العلم	-11.9577
▁زند	-11.9579
▁مكن	-11.9586
▁مشاهدي	-11.9587
▁شرڪ	-11.9587
▁بائيو	-11.9589
▁صارت	-11.9591
▁حش	-11.9591
▁وايو	-11.9592
▁سجاد	-11.9593
َسُ	-11.9595
▁ڪڏ	-11.96
سچو	-11.96
مممممممم	-11.9601
▁وسندي	-11.9601
▁تدريس	-11.9607
▁كب	-11.9607
▁غداري	-11.9607
its	-11.9608
▁سپاهين	-11.9608
شهد	-11.9615
حياتي	-11.9617
ظاهر	-11.9617
سبب	-11.9618
▁جاسوس	-11.9619
▁رهيبه	-11.962
▁البر	-11.963
▁سمون	-11.9633
▁سودو	-11.9633
تعليق	-11.9633
صديق	-11.9635
▁هڻندا	-11.9635
ious	-11.9636
▁جهر	-11.9644
▁شهريت	-11.9646
سنس	-11.9647
▁ڪيڊ	-11.9647
▁لعبه	-11.9649
▁بُڪ	-11.965
▁ڪاٽي	-11.9651
GE	-11.9652
اااااااااااااا	-11.9654
▁مهو	-11.9656
▁العب	-11.9657
موجود	-11.9658
▁وردي	-11.9659
▁3.1	-11.9659
ڜ	-11.9661
▁Blackjack	-11.9661
▁باقائد	-11.9661
▁نمائندي	-11.9661
▁ورچوئل	-11.9661
▁گذاشت	-11.9661
प	-11.9661
▁سٹیل	-11.9661
▁موصول	-11.9661
▁سڳوري	-11.9661
▁يستاهل	-11.9661
▁تعاقب	-11.9661
▁خنجر	-11.9661
▁تندرست	-11.9661
▁الحمدلله	-11.9661
▁چوڪيدار	-11.9661
▁ڪوهستان	-11.9661
▁(0)	-11.9661
▁😀	-11.9662
▁good	-11.9662
▁بخور	-11.9663
▁1974	-11.9663
▁تلفظ	-11.9665
▁ڪربلا	-11.9665
▁مبدع	-11.9665
▁اعتقد	-11.9666
▁پڌرائي	-11.9667
▁ٽوٽڪا	-11.9667
▁سوداگر	-11.9667
▁ليز	-11.9667
▁زل	-11.9667
▁تمرين	-11.9668
▁ميكني	-11.9668
▁تلاءَ	-11.9668
▁آئرش	-11.9669
ute	-11.9669
▁خلف	-11.967
▁تتكلم	-11.9672
▁ٺاھ	-11.9672
▁ڏياريندڙ	-11.9672
▁پوڙها	-11.9673
▁پناھ	-11.9673
▁كون	-11.9673
▁وصال	-11.9674
▁هڏن	-11.9674
▁ٻڌائيندس	-11.9675
▁ڏمر	-11.9675
▁تازن	-11.9677
TM	-11.9677
▁جواهر	-11.9677
▁اهلا	-11.9679
▁بدري	-11.9681
▁مڃيندا	-11.9681
▁ڏِي	-11.9685
▁بچائيندو	-11.9686
▁نقطا	-11.9686
ائٽس	-11.9687
MP	-11.9688
▁بيانيه	-11.969
▁نط	-11.969
▁وجھڻ	-11.9691
آپ	-11.9692
▁پناهي	-11.9699
▁نحو	-11.9699
▁ڳاٽ	-11.9699
▁ماريندو	-11.97
▁آندل	-11.97
▁هائوسنگ	-11.9702
▁ناگ	-11.9703
▁تبصرن	-11.9704
▁جڏ	-11.9704
▁روپي	-11.9707
▁خخخ	-11.9707
▁يعطي	-11.9708
▁پاتل	-11.9709
▁وگهي	-11.9709
▁اُڏام	-11.971
▁وٺجي	-11.9714
▁ڪلهن	-11.9715
▁اوسر	-11.9716
▁بيرون	-11.9717
▁بلٽ	-11.9717
آآآآآآآآآ	-11.9718
▁ڪورسز	-11.9719
▁رجحانات	-11.972
▁مقدمو	-11.972
ثار	-11.9721
ڪسين	-11.9721
▁اسپري	-11.9723
▁عمرك	-11.9726
▁نياڻيون	-11.9727
nic	-11.9727
▁راسه	-11.9728
سيٽ	-11.973
▁کجا	-11.9732
▁برسي	-11.974
پيار	-11.9742
▁أجل	-11.9742
فخ	-11.9746
▁بابو	-11.9748
▁بنگال	-11.975
▁تدريسي	-11.9751
▁مدرسي	-11.9751
▁پالڻ	-11.9752
▁سڀڪو	-11.9754
▁لايك	-11.9762
▁مهند	-11.9764
▁يادش	-11.9772
▁کنيل	-11.9772
▁اينگل	-11.9778
▁پوائنٽس	-11.9778
؟؟؟؟	-11.9779
▁عصا	-11.9781
ature	-11.9785
▁عبد	-11.9785
▁اختار	-11.9785
▁Ke	-11.9785
▁رائعه	-11.9785
▁هاشمي	-11.9786
2017	-11.9786
▁هههههههههاي	-11.9787
="10	-11.9788
▁انزل	-11.9788
igh	-11.9789
▁gr	-11.9791
ME	-11.9792
▁وڇڙ	-11.9799
ange	-11.9799
▁جهٽ	-11.9799
▁ڪرسٽ	-11.9802
BC	-11.9804
▁مروه	-11.9806
▁فقد	-11.9806
ڪِي	-11.981
▁ڪبير	-11.9816
لامي	-11.9818
▁علاء	-11.982
ماڻهو	-11.9821
▁هسه	-11.9824
▁هاهاها	-11.9825
▁اينيمي	-11.9825
▁ضلع	-11.9826
▁سادا	-11.9826
▁اوچي	-11.9828
▁احيا	-11.9828
▁Cat	-11.9828
▁عمان	-11.983
رحل	-11.983
آط	-11.9831
▁اولمپڪ	-11.9831
▁جک	-11.9833
ائزر	-11.9834
ڀارت	-11.9836
SO	-11.9842
▁مهي	-11.9845
300	-11.9846
ازه	-11.9846
▁فوم	-11.9846
▁ڊيڄاري	-11.9847
▁ميٽا	-11.9848
▁ٻِ	-11.9848
ो	-11.9849
н	-11.9849
о	-11.9849
ٗ	-11.9849
ह	-11.9849
▁bitcoin	-11.9849
▁جايگزين	-11.9849
▁سرفراز	-11.9849
▁فرائض	-11.9849
▁پروڊيوسر	-11.9849
▁بندرگاهن	-11.9849
▁مجاهد	-11.9849
▁هٿرادو	-11.9849
▁ويتامين	-11.9849
▁ڪميونزم	-11.9849
▁ورهاست	-11.9849
▁گهوڙو	-11.9849
▁مصلحت	-11.9849
▁ٺهڪندڙ	-11.9849
▁اوچتي	-11.985
▁پارٽنرشپ	-11.985
▁ٽُٽ	-11.985
▁ترغيب	-11.985
▁ماكنت	-11.985
▁ماڊرن	-11.985
▁≤	-11.985
▁هيونداي	-11.985
▁اِھو	-11.985
▁ندارم	-11.985
▁چرٻي	-11.985
▁still	-11.9851
▁رجوع	-11.9851
▁بڇڙو	-11.9851
▁غدير	-11.9851
▁كنه	-11.9851
▁انيميشن	-11.9851
▁تقليد	-11.9852
▁صابر	-11.9852
▁1965	-11.9852
▁ردودكم	-11.9852
▁ٺهراءُ	-11.9852
▁محرڪ	-11.9853
▁چاهن	-11.9854
▁گهُر	-11.9854
▁پاليندڙ	-11.9854
▁چانڊيو	-11.9854
▁ورندي	-11.9854
▁پپ	-11.9854
▁چنبڙي	-11.9854
▁درياه	-11.9855
ats	-11.9856
▁ڳالهائينداسين	-11.9857
cast	-11.9857
▁تسمع	-11.9858
قابل	-11.9859
▁جوڀن	-11.9859
▁چُپ	-11.986
▁ٻُڌايو	-11.986
گرو	-11.986
▁قمبر	-11.9862
جتي	-11.9863
▁آفيسون	-11.9863
▁ٻڌايل	-11.9864
تعلم	-11.9864
CA	-11.9865
ale	-11.9866
▁پنبه	-11.9867
▁الائجي	-11.9867
▁part	-11.9867
vis	-11.987
▁ناهه	-11.9874
▁وهندڙ	-11.9875
▁رهف	-11.9876
▁03	-11.9876
▁لهندي	-11.9878
▁دهيد	-11.9879
▁تاثرات	-11.988
▁ڍڪيل	-11.988
▁ماليات	-11.9882
▁کشور	-11.9882
ضيف	-11.9882
▁معانا	-11.9883
▁چڱ	-11.9883
▁سنئين	-11.9885
▁هاذي	-11.9885
تخيل	-11.9886
▁كلمه	-11.9887
▁عادتن	-11.9887
▁يعمل	-11.9887
▁چرب	-11.9887
▁Ta	-11.9888
ليلي	-11.9888
▁ديوتائ	-11.9894
▁ڪجان	-11.9894
▁دعائ	-11.9897
▁يونيورسٽيء	-11.9898
▁لاكن	-11.9898
▁وڏ	-11.9902
-7	-11.9903
▁ميگم	-11.9905
▁اخبارون	-11.9905
▁بكر	-11.9906
▁هستيد	-11.9907
▁گيان	-11.9909
▁ڏاهي	-11.991
▁لی	-11.9911
▁لفاف	-11.9912
▁۶	-11.9913
▁سڌارن	-11.9914
حتاج	-11.9915
▁رکيائين	-11.9915
▁پهاڪا	-11.9916
▁ترجما	-11.9917
▁فاكر	-11.9918
▁ڇڪيل	-11.9918
roll	-11.9919
▁اجها	-11.992
ئٽر	-11.9921
▁زندان	-11.9923
▁cover	-11.9925
▁كلامي	-11.9928
▁ميونسپلٽي	-11.993
▁وااا	-11.9932
▁پاند	-11.9934
▁قبرن	-11.9934
▁نھاري	-11.9935
▁نائيٽ	-11.9937
▁سيرت	-11.9937
▁لولو	-11.9938
▁ڪوئلي	-11.9939
ريف	-11.9939
HT	-11.994
▁إلا	-11.9943
ّر	-11.9943
▁ماحد	-11.9943
▁پروڙ	-11.9943
▁عض	-11.9944
▁ٻارنهن	-11.9945
ڌاري	-11.9945
ذبح	-11.9946
▁هههههههههههاي	-11.9947
▁گنج	-11.9949
meter	-11.9951
ورڪ	-11.9952
▁آورد	-11.9954
صاف	-11.9954
miss	-11.9954
▁ديدي	-11.9956
▁ارس	-11.9958
علق	-11.9961
مممم	-11.9961
▁سرحدون	-11.9962
گور	-11.9975
▁تلاء	-11.9979
▁ويڊيوز	-11.9982
▁ڪوڊنگ	-11.9983
▁هيجان	-11.9983
▁اُپ	-11.9984
سوال	-11.9985
▁ماشين	-11.9985
▁سندا	-11.9988
▁اداسي	-11.9989
▁ذر	-11.9989
زمان	-11.999
▁وَس	-11.9991
▁لانك	-11.9992
▁اقتصاديات	-11.9992
vid	-11.9997
▁قصد	-11.9998
▁دوس	-11.9999
ڏنهن	-11.9999
شاھ	-12.0004
▁پڄي	-12.0005
027	-12.0005
وافق	-12.0008
:19	-12.001
▁نذر	-12.001
×	-12.0012
www	-12.0013
فيس	-12.0013
ڊيڪل	-12.0014
▁خيرها	-12.0015
▁وسڻ	-12.0019
▁مايو	-12.0024
▁سنگتي	-12.0024
یٹ	-12.0025
▁مکان	-12.0025
ااااااااااااا	-12.0028
ڪٽس	-12.003
:11	-12.003
ائس	-12.0031
▁سڪا	-12.0031
▁ڀاڄ	-12.0034
▁جايب	-12.0034
▁(17	-12.0037
ااف	-12.0039
اسلامي	-12.004
tainless	-12.0041
▁ڊسپوز	-12.0042
▁Nexus	-12.0042
▁business	-12.0042
▁الجزائر	-12.0042
▁قابض	-12.0042
▁تماشو	-12.0042
="0.06	-12.0042
▁لاڳت	-12.0042
▁سهوليت	-12.0042
▁مملڪت	-12.0042
▁◆	-12.0042
▁سهائتا	-12.0042
▁مرسيدس	-12.0042
▁ڪلوگرام	-12.0042
▁ياقلبي	-12.0042
▁آسپاس	-12.0043
▁جتوئي	-12.0043
▁ذلت	-12.0045
▁خوشبوءِ	-12.0047
▁ملاڪا	-12.0047
▁پَل	-12.0048
▁اتخيل	-12.0049
▁ڪيستائين	-12.0049
▁وصيت	-12.0049
▁ھڻي	-12.0051
▁لنچ	-12.0052
▁ٽريڪٽر	-12.0052
▁بيئرنگ	-12.0053
▁چارڻ	-12.0055
▁تنوع	-12.0055
▁احت	-12.0055
▁اجرائي	-12.0057
▁تخليقڪار	-12.0057
▁اسڪيننگ	-12.0057
▁تلعب	-12.0058
▁ڍڪڻ	-12.006
▁بينڪننگ	-12.006
▁تدخل	-12.0062
اں	-12.0063
▁سڌائي	-12.0063
▁مسكينه	-12.0066
▁پُڇي	-12.0067
▁جداً	-12.0069
▁اجيب	-12.007
▁MI	-12.0071
▁ويهندا	-12.0073
▁مفروض	-12.0078
▁آڵ	-12.0078
**	-12.0078
▁ڊوڙڻ	-12.0079
▁الخير	-12.0082
▁کج	-12.0084
▁ترڪيبون	-12.0085
▁داريد	-12.0088
▁ْ	-12.0089
PM	-12.009
ڪاس	-12.0091
▁ڪانڌ	-12.0092
▁فائن	-12.0096
▁گھرجن	-12.0097
▁Res	-12.0097
▁ڀڃڻي	-12.0097
▁پش	-12.0099
▁Car	-12.0099
▁سومري	-12.01
▁اڇليو	-12.0101
▁ٻَڌ	-12.0103
▁سمجهندي	-12.0105
خور	-12.0107
▁نكن	-12.0109
▁لهندو	-12.0113
▁ڏر	-12.0117
▁نسخه	-12.0118
▁آسيا	-12.0119
حسب	-12.0124
▁چانورن	-12.0131
▁اقر	-12.0134
▁ٻُڏ	-12.0136
▁تفصيلات	-12.0136
][	-12.0142
▁بفر	-12.0143
▁فاضيه	-12.0145
آآآآآ	-12.0147
جھا	-12.0151
اهش	-12.0152
▁ڏنم	-12.0154
▁جاچڻ	-12.0154
▁يالم	-12.0156
ying	-12.0157
۱۲	-12.0159
▁هيهيهي	-12.0161
-0	-12.0165
▁ولك	-12.0166
▁الصح	-12.0166
▁RO	-12.0167
ااات	-12.0167
▁پڙهن	-12.0174
▁يعينه	-12.0175
سٽس	-12.0176
OO	-12.0178
تحمل	-12.0181
▁آنآ	-12.0185
▁موافق	-12.0195
▁بندگي	-12.0198
▁PC	-12.02
▁أحب	-12.0201
▁خخ	-12.0203
▁جبتها	-12.0207
▁مطالبا	-12.0209
غريب	-12.0209
▁هڻندي	-12.0216
acc	-12.0218
ڳوٺ	-12.0222
▁ڌيئر	-12.0222
▁زڪو	-12.0222
▁سُم	-12.0223
▁گني	-12.0225
▁چوب	-12.0226
▁ٽرن	-12.0227
▁مقالا	-12.0229
▁May	-12.0229
▁130	-12.0231
▁2.2	-12.0233
ڑي	-12.0236
▁هُج	-12.0236
ç	-12.0238
ٓ	-12.0238
▁اعتقاد	-12.0238
▁اهڃاڻ	-12.0238
▁باصلاحيت	-12.0238
▁بدلجندڙ	-12.0238
▁تغذيه	-12.0238
▁يوگنڊا	-12.0238
▁ڪلائوڊ	-12.0238
▁ڳوڙهن	-12.0238
▁لانڊرنگ	-12.0238
▁وراثت	-12.0238
▁زلزلو	-12.0238
▁المسكين	-12.0238
▁سرشتو	-12.0238
▁جهيڙي	-12.0238
▁بدامني	-12.0238
▁گجرات	-12.0238
▁لسا	-12.0238
▁سيرامڪ	-12.0239
▁تدوين	-12.0239
▁الصغير	-12.0239
▁ڪليڪٽر	-12.0239
iss	-12.0239
▁وشكرا	-12.024
▁ميسيج	-12.0241
▁1986	-12.0241
▁آرائش	-12.0241
▁ظالمن	-12.0241
▁ناظر	-12.0241
▁اوپري	-12.0242
▁More	-12.0242
▁شبكه	-12.0242
سيتائين	-12.0242
▁الظاهر	-12.0242
▁گوتم	-12.0243
▁تحفه	-12.0244
▁1940	-12.0245
▁فولاد	-12.0245
▁رانديڪا	-12.0245
▁خَ	-12.0246
ِهِ	-12.0246
▁برفاني	-12.0247
▁پرامن	-12.0248
align	-12.0248
▁ساجد	-12.0249
▁پوکيو	-12.025
▁پکيڙڻ	-12.0252
ax	-12.0252
▁لڱ	-12.0252
▁جِت	-12.0253
▁اثاثا	-12.0254
▁Pi	-12.0254
▁رھندي	-12.0254
▁بتعرف	-12.0255
▁cre	-12.0255
▁التجا	-12.0258
▁♡	-12.0258
عجز	-12.0259
▁وڌايل	-12.026
▁پليجو	-12.0262
▁91	-12.0263
▁گاڏ	-12.0264
▁تزعل	-12.0264
وڃ	-12.0264
TS	-12.0265
▁وڻندي	-12.0266
▁ارجن	-12.0269
▁مظاهر	-12.0269
▁فلڪس	-12.0271
عزيز	-12.0274
▁ڍنگ	-12.0274
▁ڳه	-12.0276
oss	-12.0276
▁ٺپ	-12.0279
[...]
