<unk>	0
<s>	0
</s>	0
.	-3.73332
▁جي	-3.76514
ي	-3.8291
ن	-3.8357
▁آهي	-4.31561
▁.	-4.31996
▁۾	-4.35597
و	-4.43848
▁،	-4.44052
▁کي	-4.46442
▁۽	-4.54728
▁جو	-4.68625
ا	-4.72541
ه	-4.78053
▁ته	-4.83552
▁تي	-5.0037
▁	-5.01882
،	-5.07436
ل	-5.15038
س	-5.19089
▁هڪ	-5.23839
▁ان	-5.27241
م	-5.29068
▁سان	-5.32601
ت	-5.33118
▁نه	-5.34925
▁کان	-5.36119
▁و	-5.39365
▁"	-5.40227
▁ڪري	-5.43316
▁هن	-5.43927
▁به	-5.4771
ر	-5.48438
▁هو	-5.52048
ون	-5.55346
▁آهن	-5.59008
▁ڪرڻ	-5.61629
▁ٿي	-5.62128
:	-5.63793
▁ٿو	-5.6805
▁اسان	-5.69931
▁اهو	-5.72743
▁لاءِ	-5.74204
▁يا	-5.8061
▁ن	-5.82886
ك	-5.87886
ڪ	-5.90613
د	-5.90801
▁ڪيو	-5.91258
ع	-5.93643
▁توهان	-5.94148
ڻ	-5.9543
▁(	-5.96895
ان	-5.98175
▁پر	-6.00227
▁مان	-6.00429
ز	-6.0064
ٽ	-6.03176
▁م	-6.04926
ب	-6.05358
▁جا	-6.0607
ش	-6.06305
▁ا	-6.08073
▁مون	-6.09488
▁ي	-6.14364
▁ٿا	-6.15119
▁س	-6.16288
▁-	-6.1823
▁هي	-6.19921
▁ئي	-6.20385
ين	-6.20751
▁ب	-6.21194
ائي	-6.22526
ف	-6.22755
▁ت	-6.27052
ري	-6.30752
▁پنهنجي	-6.31029
▁ويو	-6.32159
▁لاء	-6.33297
ج	-6.37951
▁بي	-6.38549
)	-6.39182
▁ل	-6.3973
ءَ	-6.40405
▁انهن	-6.41916
▁اي	-6.43564
▁طور	-6.43889
▁آ	-6.44485
▁:	-6.45479
ار	-6.45851
▁ال	-6.46018
▁ما	-6.46115
نگ	-6.49725
ق	-6.50558
▁ه	-6.50867
ح	-6.57433
پ	-6.59088
▁ڪو	-6.59538
▁ر	-6.59904
▁ڪم	-6.60868
؟	-6.61246
▁ع	-6.62294
▁وقت	-6.62823
▁وڌيڪ	-6.65474
▁من	-6.67177
ـ	-6.69026
▁هر	-6.70513
ڊ	-6.70973
▁ڇا	-6.71847
▁مي	-6.71912
▁آھي	-6.72964
▁سي	-6.75084
▁پي	-6.76883
لي	-6.77455
▁ها	-6.79523
▁!	-6.80719
▁جنهن	-6.80967
ور	-6.81096
▁ڪئي	-6.81496
▁استعمال	-6.82264
ة	-6.82624
هه	-6.83386
▁اهي	-6.85127
▁هئي	-6.86347
▁ش	-6.86709
▁)	-6.87788
▁تائين	-6.8824
▁ڪ	-6.88275
▁واري	-6.8837
e	-6.88942
ات	-6.88985
▁ڪنهن	-6.89175
ک	-6.89417
▁لا	-6.89778
ئي	-6.89829
▁جيڪو	-6.90439
ها	-6.90776
چ	-6.92698
▁پ	-6.94526
▁بس	-6.95563
▁اها	-6.95975
▁ڪجهه	-6.96287
▁او	-6.96978
َ	-6.97351
▁ههههههههه	-6.97996
▁ڪريو	-6.98402
▁سڀ	-6.98488
ڙ	-6.98551
▁چيو	-6.9933
گ	-7.0005
ال	-7.02065
▁جڏهن	-7.02532
ِ	-7.03215
▁ڏينهن	-7.03528
▁وڃي	-7.03944
▁ج	-7.04886
▁بر	-7.0595
▁جيڪي	-7.07109
▁لي	-7.08111
▁سال	-7.08408
▁ز	-7.08932
▁ههههههههههه	-7.08979
▁سو	-7.09339
▁في	-7.09594
آ	-7.09976
▁ههههههههههههههه	-7.10765
▁حاصل	-7.10859
ط	-7.10908
s	-7.1126
▁وي	-7.11328
▁پوءِ	-7.11754
خ	-7.12311
▁؟	-7.12677
▁ف	-7.12694
▁انهي	-7.12941
▁سگهي	-7.13272
▁ك	-7.13896
ص	-7.14592
▁منهنجي	-7.14597
رو	-7.14617
▁از	-7.14945
ندو	-7.14984
▁پاڻ	-7.15034
ھ	-7.15328
▁گهر	-7.15461
▁سندس	-7.15833
ُ	-7.1629
▁جن	-7.17168
▁ڪا	-7.17702
▁گڏ	-7.19128
▁جيڪڏهن	-7.19225
▁,	-7.19753
يءَ	-7.21197
جي	-7.21255
ڙي	-7.21453
▁تمام	-7.22276
يل	-7.22392
▁در	-7.22759
ى	-7.22854
ء	-7.2298
▁ناهي	-7.23267
▁سر	-7.23522
▁تو	-7.23641
دي	-7.23949
را	-7.24829
▁الله	-7.25074
▁د	-7.26102
ی	-7.26502
▁3	-7.26616
▁ڪي	-7.26854
▁هههههههههه	-7.27094
▁رهيو	-7.27384
▁ههههههه	-7.27653
▁چ	-7.2858
▁ح	-7.29511
!	-7.29515
▁دنيا	-7.29552
ندي	-7.29592
يد	-7.29885
▁ڪن	-7.29897
▁ٽي	-7.30008
ئ	-7.30145
ههههههههه	-7.30288
▁نا	-7.31113
اري	-7.31429
▁ري	-7.3163
ول	-7.3183
▁وڏي	-7.32995
▁اڳ	-7.34714
▁وئي	-7.35607
-	-7.35925
▁4	-7.35966
▁ماڻهو	-7.36092
ائ	-7.36431
o	-7.36605
▁ٿيو	-7.37023
▁ڊي	-7.37126
▁وٽ	-7.37409
▁اين	-7.37607
▁ور	-7.37946
▁تون	-7.38078
▁ق	-7.38589
▁وا	-7.38963
ندا	-7.39351
1	-7.39386
ام	-7.40264
i	-7.40731
هي	-7.40843
▁ضرورت	-7.41608
تي	-7.41666
▁ڇو	-7.42099
ڪي	-7.42673
▁ويندو	-7.43334
▁شي	-7.4377
▁رهي	-7.4381
▁را	-7.43912
يو	-7.43953
▁صرف	-7.44259
ض	-7.44283
▁5	-7.44295
▁پڻ	-7.4445
▁ويا	-7.45361
▁ک	-7.45629
▁ٿيڻ	-7.45914
▁پيش	-7.46163
▁مع	-7.4634
غ	-7.46555
▁هههههههه	-7.46674
▁زندگي	-7.47023
▁خ	-7.47227
▁اچي	-7.4738
▁ام	-7.4794
اب	-7.48079
▁ڪڏهن	-7.48184
2	-7.49774
▁گ	-7.51438
▁'	-7.51512
سي	-7.51667
▁s	-7.51675
ٽي	-7.52195
▁19	-7.5237
▁ڪيئن	-7.52435
ــ	-7.52625
ندڙ	-7.52922
يت	-7.52928
▁هم	-7.53085
▁ڪندو	-7.53721
a	-7.53848
▁عمل	-7.54167
▁شروع	-7.54287
5	-7.54581
▁مو	-7.54807
ند	-7.54904
▁بابت	-7.55305
▁سا	-7.55346
▁سڀني	-7.55442
9	-7.55623
▁ماڻهن	-7.55749
▁جيئن	-7.5622
t	-7.56309
▁با	-7.56869
▁طرح	-7.5698
▁دل	-7.57416
ڌ	-7.57497
y	-7.58103
▁ٻئي	-7.58534
▁هئا	-7.58608
▁غير	-7.5871
يم	-7.59186
نا	-7.59274
ئر	-7.59383
▁شامل	-7.5951
▁ههههههههههههه	-7.60044
▁نظر	-7.60497
▁عام	-7.60555
▁ڇڏي	-7.60598
3	-7.60823
ٺ	-7.60842
,	-7.61039
▁ڪندا	-7.61412
▁ڪر	-7.61422
▁مختلف	-7.61509
4	-7.61995
▁خبر	-7.62187
▁أ	-7.62606
يون	-7.62975
▁وارو	-7.6391
بي	-7.63914
▁2	-7.64086
0	-7.64182
ير	-7.64442
▁مل	-7.64701
▁/	-7.64831
يه	-7.65165
▁رو	-7.65218
▁1	-7.65237
▁ههههه	-7.65584
▁مر	-7.65692
▁ڀ	-7.66025
دار	-7.66285
▁يعني	-7.66364
▁گهٽ	-7.66689
▁رهيا	-7.67033
▁قسم	-7.67082
ڳ	-7.67118
▁ڳالهه	-7.67191
▁ڪندي	-7.67501
▁جون	-7.68197
مي	-7.68633
▁ڊ	-7.68647
▁ني	-7.68911
▁ص	-7.69126
▁ڏانهن	-7.69794
▁بند	-7.70036
▁ڏيڻ	-7.70054
▁ڏي	-7.70651
"	-7.70652
▁خاص	-7.7101
7	-7.71082
اد	-7.71581
▁ملڪ	-7.71851
u	-7.71946
▁گهرجي	-7.72022
ائڻ	-7.72136
8	-7.72203
لو	-7.72261
▁آهيان	-7.72891
▁هههههههههههه	-7.72918
لا	-7.73955
اني	-7.74283
▁ڪتاب	-7.74574
▁هوندو	-7.74839
▁_	-7.75214
▁اڄ	-7.75585
▁ٻ	-7.75678
▁مدد	-7.75963
▁سبب	-7.76061
▁ڳ	-7.76425
▁جيڪا	-7.76623
ايو	-7.76673
▁ايس	-7.7671
▁شهر	-7.76947
6	-7.76952
▁اندر	-7.7702
▁بعد	-7.77614
▁موجود	-7.77668
▁تاريخ	-7.77738
▁آئون	-7.78636
اڻي	-7.78769
▁S	-7.78847
▁ٻين	-7.78972
▁مڪمل	-7.79156
▁ِ	-7.7918
يا	-7.79364
▁مش	-7.79871
▁ايم	-7.79903
▁6	-7.80092
▁هوندي	-7.80589
ذ	-7.80982
▁پنهنجو	-7.81024
▁دوست	-7.8105
▁نئين	-7.81334
▁چي	-7.81436
▁A	-7.81703
▁ٽ	-7.81953
▁اهڙي	-7.81957
وا	-7.82034
▁نالو	-7.82272
بر	-7.82836
▁ٿيل	-7.82863
▁آن	-7.82953
▁ون	-7.83108
p	-7.83481
▁ڪار	-7.83758
ث	-7.83863
▁پيو	-7.84463
▁اس	-7.84551
▁وچ	-7.84553
▁تنهن	-7.84579
er	-7.84581
▁گهڻو	-7.84844
ڪر	-7.8549
ـــ	-7.85991
▁وري	-7.86077
▁پهرين	-7.8649
▁ڪمپني	-7.86669
▁لو	-7.8687
▁ادا	-7.86901
ڪس	-7.87009
c	-7.87623
▁ختم	-7.87688
▁ڇ	-7.87689
▁قيمت	-7.87736
▁ڏ	-7.88509
▁هتي	-7.8856
ما	-7.88669
كم	-7.89048
▁هههههه	-7.89078
▁سگهو	-7.89186
▁هاڻي	-7.89293
▁ڪل	-7.8943
اس	-7.89491
▁آهيون	-7.90218
▁ڇڏيو	-7.90248
▁بل	-7.90377
▁آھن	-7.90377
▁حل	-7.90896
▁غ	-7.91173
▁ار	-7.91428
▁هههههههههههههه	-7.91468
▁دي	-7.91507
ٿ	-7.91709
▁خيال	-7.92068
▁تر	-7.92191
▁ٿيندو	-7.92313
▁شايد	-7.92362
▁اهم	-7.9248
▁انسان	-7.9279
▁10	-7.9318
▁7	-7.93405
▁جواب	-7.93683
d	-7.93744
▁انا	-7.93798
▁ملي	-7.93961
▁ٿئي	-7.94048
▁پيدا	-7.94128
▁ٻيو	-7.94415
▁8	-7.94537
▁پو	-7.94673
▁ڏئي	-7.94718
▁هٿ	-7.95331
▁ذ	-7.95608
▁فون	-7.95701
▁ياد	-7.95794
▁وڏو	-7.96018
▁آيو	-7.96248
▁حق	-7.96486
▁آئي	-7.96496
▁ھ	-7.96505
▁سنڌ	-7.96579
▁اصل	-7.96839
r	-7.97164
▁ڪيا	-7.97416
▁ڪندڙ	-7.97501
▁آر	-7.9775
▁سالن	-7.97811
▁ط	-7.98116
ست	-7.98173
▁کيس	-7.99449
ٽر	-7.99572
▁ڏنو	-7.99731
زي	-7.99834
أ	-8.0019
▁عليه	-8.00204
هم	-8.00228
▁سائيٽ	-8.00294
▁يو	-8.00686
▁سوال	-8.00708
▁بهترين	-8.00751
▁ڪوشش	-8.00863
▁رات	-8.00976
در	-8.01076
▁ائين	-8.013
▁ٻه	-8.01608
▁آسان	-8.01956
▁ٻي	-8.02037
▁مطلب	-8.02149
▁ٻار	-8.02195
تر	-8.0223
دا	-8.02332
▁مت	-8.02583
▁هجي	-8.02812
▁ڄاڻ	-8.02894
▁وٺي	-8.036
اڻ	-8.03623
▁منهنجو	-8.03678
▁دور	-8.03812
▁چين	-8.03976
▁رکي	-8.04083
n	-8.04319
▁ويب	-8.0456
▁پيار	-8.04628
اء	-8.04837
▁ٻاهر	-8.04962
an	-8.0524
▁اتي	-8.05242
بو	-8.05287
ده	-8.05395
▁9	-8.05647
▁پئي	-8.0576
سٽ	-8.05969
ar	-8.06054
▁ـ	-8.06171
▁اوهان	-8.06223
▁خوش	-8.06254
▁پوء	-8.06701
or	-8.06901
▁وانگر	-8.06921
S	-8.0721
▁؛	-8.07324
▁هيٺ	-8.07393
▁عمر	-8.07596
▁است	-8.07924
▁چا	-8.08082
▁طرف	-8.08462
▁ذريعي	-8.08823
▁P	-8.09465
▁پا	-8.09774
ڙو	-8.09774
▁ترقي	-8.10093
▁سن	-8.10145
▁ڪيل	-8.10224
▁ظاهر	-8.10248
▁پاڪستان	-8.10319
وھان	-8.10669
▁مس	-8.10778
▁بد	-8.10815
▁اب	-8.10996
ظ	-8.11264
▁صحيح	-8.11344
▁ھو	-8.11403
h	-8.11573
▁ٺ	-8.11936
▁مٿي	-8.12461
ؤ	-8.12709
▁كل	-8.13008
▁رنگ	-8.13008
شي	-8.13083
▁M	-8.13104
تا	-8.13119
▁اُ	-8.13507
▁خدا	-8.1366
D	-8.13887
▁ڏسي	-8.13937
g	-8.14014
l	-8.14179
▁اڃا	-8.14219
▁ڪيترا	-8.14454
▁حقيقت	-8.14561
▁واپس	-8.15066
بل	-8.15142
جن	-8.15973
▁شو	-8.16318
▁اوھان	-8.16425
▁علي	-8.16499
▁رد	-8.165
ڀ	-8.16796
▁اول	-8.16817
▁ات	-8.17018
▁فر	-8.17384
▁والله	-8.17418
▁بن	-8.17585
▁الم	-8.17796
▁جاري	-8.17888
▁سفر	-8.18089
ڪار	-8.18165
▁دوران	-8.18306
▁بهتر	-8.18375
▁ھن	-8.18421
b	-8.1854
▁ويندي	-8.18777
ڏ	-8.18794
▁تا	-8.18962
نڊ	-8.19443
▁حڪومت	-8.19521
▁حصو	-8.19594
ڪو	-8.19654
▁داخل	-8.19873
▁له	-8.20135
ئن	-8.20241
▁تن	-8.20397
▁شا	-8.20431
▁ولا	-8.20558
▁ڪيترن	-8.20581
▁دو	-8.20632
▁اثر	-8.20791
▁مثال	-8.21077
▁C	-8.21528
▁ضروري	-8.21575
ڇ	-8.21657
يشن	-8.22142
▁ڌ	-8.22318
▁مواد	-8.2243
▁p	-8.22631
گي	-8.22774
ہ	-8.22841
▁صاحب	-8.2331
▁جتي	-8.2331
▁نو	-8.23325
on	-8.23422
▁لڳي	-8.23534
al	-8.23701
in	-8.23804
▁اسين	-8.23957
A	-8.24283
m	-8.24364
▁پل	-8.24439
▁جه	-8.24564
▁b	-8.25015
▁سندن	-8.25204
اف	-8.253
▁اڻ	-8.25347
گر	-8.25849
ڄ	-8.25871
دو	-8.25984
▁*	-8.26156
في	-8.2631
▁ڏسڻ	-8.26506
▁[	-8.26809
با	-8.27032
▁پهريون	-8.27264
▁محسوس	-8.27474
▁چه	-8.2798
▁ڪجھ	-8.27986
▁بيان	-8.28132
▁پير	-8.28385
▁آخر	-8.28964
▁پاڻي	-8.29157
▁معيار	-8.29385
▁سم	-8.29419
▁ءَ	-8.29595
▁آمريڪا	-8.29963
▁ڦ	-8.3015
▁هوندا	-8.30414
▁ڏني	-8.30587
▁m	-8.30646
▁گھر	-8.30721
جه	-8.30729
▁جنگ	-8.30901
▁اھو	-8.30926
▁خلاف	-8.31002
▁على	-8.31021
▁تيار	-8.31092
▁صورت	-8.31225
▁رکڻ	-8.3126
▁سچ	-8.31404
▁چونڊ	-8.31498
▁گو	-8.31606
▁مد	-8.31691
▁لائن	-8.32144
▁T	-8.32201
مان	-8.32898
▁تبديل	-8.32986
ره	-8.32997
▁ٻن	-8.33069
▁مح	-8.33709
۔	-8.33836
▁وارا	-8.33898
▁بال	-8.33932
از	-8.34011
▁ٿيندي	-8.34097
▁طرفان	-8.34127
▁رڳو	-8.34191
▁بو	-8.34467
▁ڪاروبار	-8.34476
▁انداز	-8.34764
C	-8.34854
▁B	-8.34947
▁تان	-8.35025
▁خط	-8.35092
▁تعليم	-8.3521
▁اختيار	-8.35254
="	-8.35417
▁لک	-8.35552
▁ٽو	-8.35561
▁سگهجي	-8.35578
وم	-8.35713
▁پسند	-8.36548
▁زمين	-8.36747
▁تنهنجي	-8.36913
ئين	-8.36948
▁قانون	-8.3698
k	-8.36999
▁مشهور	-8.37451
▁ڏيو	-8.37485
پي	-8.37527
ود	-8.37607
▁چوڻ	-8.37646
له	-8.37715
▁بين	-8.37875
اتي	-8.37947
▁پيداوار	-8.38192
▁حد	-8.38312
▁خان	-8.38484
▁ايران	-8.38545
▁آف	-8.38866
▁20	-8.38934
▁َ	-8.38953
▁پٽ	-8.38985
▁فا	-8.39048
en	-8.39233
▁جان	-8.39314
▁گل	-8.39536
▁مقصد	-8.39612
▁لڳ	-8.39971
▁ڊيٽا	-8.40004
ِي	-8.40259
▁قوم	-8.40478
ائن	-8.40791
قي	-8.41049
T	-8.41104
▁وس	-8.41125
▁ٿ	-8.4121
▁هوءَ	-8.41225
بت	-8.41238
▁ڇاڪاڻ	-8.41342
▁عورت	-8.41362
▁مرد	-8.41848
▁انت	-8.41856
▁نظام	-8.41866
▁سخت	-8.41928
▁ڪير	-8.41928
▁وڃڻ	-8.42021
▁آيا	-8.42173
▁ٿيون	-8.42554
▁گر	-8.42858
▁قابل	-8.42878
جو	-8.42975
it	-8.43013
پر	-8.43175
P	-8.43442
▁0	-8.43885
▁وڌ	-8.44685
▁t	-8.44795
▁ين	-8.44899
رس	-8.45323
▁هميشه	-8.45347
▁ٻنهي	-8.45506
▁ھي	-8.45533
▁بار	-8.45951
▁دا	-8.46037
▁اح	-8.46263
at	-8.46382
▁يقين	-8.46512
es	-8.4678
▁آخري	-8.46836
▁پڇ	-8.46993
▁اجازت	-8.4704
▁تع	-8.47117
▁فراهم	-8.4718
▁چو	-8.47544
▁D	-8.47655
شت	-8.47934
تو	-8.47999
▁هذا	-8.48139
▁ٻولي	-8.48317
▁لفظ	-8.48402
فر	-8.48462
▁ميل	-8.49051
ing	-8.49296
▁فل	-8.49354
▁مونکي	-8.49403
▁ست	-8.49638
▁ڏٺو	-8.49661
▁18	-8.4967
▁سٺو	-8.49809
I	-8.49971
▁موضوع	-8.49993
وري	-8.50028
▁ڪونه	-8.50334
▁نٿو	-8.5062
▁سگھي	-8.50672
مل	-8.50843
▁بنيادي	-8.51202
▁L	-8.51334
ندس	-8.51353
▁وارن	-8.5153
سر	-8.5154
▁اپ	-8.51541
▁ڄڻ	-8.51586
▁15	-8.51618
E	-8.51662
▁تصوير	-8.51692
▁تحقيق	-8.5172
▁جيتوڻيڪ	-8.51817
▁پنج	-8.51985
▁ڏس	-8.52026
▁محفوظ	-8.52156
▁باري	-8.52217
▁خريد	-8.52267
O	-8.52296
ھي	-8.52346
▁شروعات	-8.52474
يش	-8.5269
▁اميد	-8.52702
▁توکي	-8.52749
▁هنن	-8.52865
▁c	-8.52912
▁چار	-8.53043
▁واقعي	-8.5318
▁d	-8.53568
▁قائم	-8.53577
▁ٺاهي	-8.53964
▁اف	-8.54178
▁نئون	-8.54189
جا	-8.54397
▁علم	-8.54407
▁آواز	-8.5447
▁هههه	-8.54656
▁طريقي	-8.55109
▁پروگرام	-8.55166
جر	-8.55282
▁روز	-8.55479
▁آزاد	-8.55516
▁معلومات	-8.55582
▁مُ	-8.55614
▁مارڪيٽ	-8.55617
▁وه	-8.55702
▁قدم	-8.55713
▁پن	-8.55744
▁شيء	-8.55919
▁ھڪ	-8.56139
▁هل	-8.56406
▁شادي	-8.56424
▁I	-8.56456
▁خدمت	-8.5657
w	-8.56586
▁پيا	-8.56757
هين	-8.56791
▁G	-8.56831
▁ابو	-8.56891
اق	-8.56911
▁چاهيو	-8.56972
سين	-8.57047
ــــ	-8.57094
▁پڪ	-8.5728
▁رک	-8.57353
'	-8.57473
▁گي	-8.57559
▁بلڪ	-8.57604
▁کڻي	-8.57609
▁لك	-8.57623
▁اسلامي	-8.5765
▁گه	-8.57711
▁شر	-8.57745
▁خود	-8.57914
▁شين	-8.58001
▁سل	-8.58136
▁منهن	-8.58193
▁محبت	-8.58249
▁آه	-8.58387
اح	-8.58584
▁هجڻ	-8.58739
▁بنياد	-8.59035
▁اج	-8.59272
▁سمجه	-8.5938
ڊي	-8.59399
▁<	-8.5944
▁اسڪول	-8.59521
ڪا	-8.59524
ڏي	-8.59653
نهن	-8.59759
▁نالي	-8.59777
رن	-8.59906
▁پس	-8.60079
▁مطابق	-8.60095
00	-8.60357
▁پنھنجي	-8.60657
▁خراب	-8.60904
▁H	-8.60931
▁اڪثر	-8.61083
▁12	-8.61134
▁يه	-8.61165
▁حالت	-8.6137
▁f	-8.61378
اي	-8.61408
▁سين	-8.61503
x	-8.61896
▁w	-8.61925
ڃ	-8.62332
▁کانپوءِ	-8.62337
▁درخواست	-8.62382
شر	-8.62685
▁کن	-8.62777
▁گهڻي	-8.63422
▁ره	-8.63623
▁که	-8.63643
▁مناسب	-8.63685
▁چڪو	-8.63695
▁ايل	-8.63749
▁سيڪڙو	-8.63847
▁ويندا	-8.6398
re	-8.644
▁سگهن	-8.64439
▁ڏا	-8.64919
▁مفت	-8.64924
▁غلط	-8.64971
ضي	-8.65075
▁هيو	-8.65089
▁پري	-8.65256
▁فارم	-8.65425
▁200	-8.65529
▁E	-8.65566
▁چاهي	-8.65732
▁صنعت	-8.65778
▁ٻيهر	-8.65809
▁ٻڌايو	-8.65983
▁شخص	-8.66009
▁كم	-8.66336
▁سائين	-8.66526
▁فقط	-8.66585
▁رياست	-8.66619
▁ٻارن	-8.6663
▁ڏسو	-8.66819
▁تقريب	-8.66842
اج	-8.66861
ٻ	-8.6695
▁ڏيکاري	-8.66954
▁فلم	-8.67016
چي	-8.67107
▁جسم	-8.67314
▁آهيو	-8.67596
حد	-8.67607
▁سطح	-8.6769
▁اچڻ	-8.67783
▁ڪيس	-8.6786
▁ڪهڙي	-8.67977
▁سڄي	-8.68047
▁مال	-8.68096
▁زي	-8.68198
ed	-8.68217
▁باقي	-8.68631
ڙا	-8.68688
▁ڀا	-8.68805
▁پار	-8.6902
▁ائ	-8.691
▁وار	-8.69153
كر	-8.69216
▁ڊاڪٽر	-8.69237
le	-8.69334
▁وٺ	-8.69409
▁ة	-8.69428
▁نتيج	-8.69566
▁سياسي	-8.69669
▁واحد	-8.69769
▁فيصلو	-8.69873
▁ض	-8.70053
▁ٽن	-8.70081
▁i	-8.70199
▁پاران	-8.70264
▁ذهن	-8.70315
▁تعلق	-8.70337
M	-8.70509
▁ڪافي	-8.70614
▁نوجوان	-8.70744
▁پاس	-8.70787
اھ	-8.7079
لم	-8.71367
▁30	-8.7151
▁تح	-8.71662
▁سُ	-8.71731
عرف	-8.71844
▁ــ	-8.7198
▁انساني	-8.72024
▁ـــ	-8.72282
▁ورتو	-8.72323
f	-8.72372
▁اٿ	-8.72377
▁l	-8.72423
▁اڳتي	-8.72497
▁سک	-8.72544
▁مار	-8.7259
as	-8.73244
▁موت	-8.73253
▁راند	-8.73294
▁الا	-8.73456
▁11	-8.73537
et	-8.73598
]	-8.73618
▁اش	-8.73812
▁مين	-8.73926
▁هاي	-8.73963
▁ڪهاڻي	-8.74019
us	-8.7423
▁وڻ	-8.74445
ّ	-8.74562
▁نقصان	-8.74867
▁عالمي	-8.74932
▁پارٽي	-8.75012
▁وال	-8.75049
▁رپورٽ	-8.7505
▁ميڊيا	-8.75051
▁گا	-8.7507
▁عرب	-8.75091
▁عن	-8.75157
▁حال	-8.75224
▁جمع	-8.75382
▁ايندڙ	-8.75428
تك	-8.75454
▁ضرور	-8.75639
▁ممڪن	-8.75718
▁تج	-8.76039
▁ڳوٺ	-8.76405
فت	-8.76533
▁a	-8.76597
▁آمريڪي	-8.76638
▁شيون	-8.7669
▁>	-8.76737
▁پرو	-8.76767
ڍ	-8.76817
▁اُن	-8.76896
▁قدر	-8.77301
▁رب	-8.77313
رب	-8.77317
▁خوبصورت	-8.77336
▁دير	-8.77514
▁ٻڌ	-8.77542
▁N	-8.77561
▁ڪٿي	-8.77655
▁سيٽ	-8.77699
▁F	-8.77756
شن	-8.77757
▁اڪائونٽ	-8.77775
▁سج	-8.77932
▁بت	-8.77956
▁بدل	-8.78113
داري	-8.78249
▁جدا	-8.7825
▁السلام	-8.78304
ic	-8.78438
▁ترتيب	-8.78469
▁مهرباني	-8.78595
▁حڪم	-8.78884
▁ذاتي	-8.79031
▁رس	-8.79407
▁ڪردار	-8.79576
ڪل	-8.79709
▁پوري	-8.7972
R	-8.7993
وف	-8.79986
▁مشين	-8.79991
▁آل	-8.80026
▁معامل	-8.802
▁دار	-8.80347
ڪٽ	-8.80517
خت	-8.80572
▁ٽيڪنالاجي	-8.80771
ڙن	-8.80881
▁لکڻ	-8.80986
▁صدر	-8.8114
▁اعلان	-8.81163
زا	-8.81293
▁ملڪن	-8.81333
▁واقع	-8.81483
▁مضمون	-8.81485
▁آءٌ	-8.81618
▁تك	-8.81997
▁اسٽي	-8.82006
th	-8.82026
▁ڳولي	-8.8215
عل	-8.82176
▁نمبر	-8.82274
▁حس	-8.82402
▁ث	-8.82508
▁انھن	-8.82547
٪	-8.82599
وب	-8.82949
▁جديد	-8.82993
▁پڙهي	-8.83021
▁سسٽم	-8.83196
▁اسلام	-8.83237
▁تڏهن	-8.8326
▁مسئلو	-8.8328
B	-8.83419
▁طاقت	-8.83479
▁حقيقي	-8.8366
▁بڻجي	-8.83761
ے	-8.83993
مون	-8.84119
▁1.	-8.84131
▁فن	-8.84228
▁گھ	-8.84603
▁سٺي	-8.8475
▁۔۔۔	-8.84865
▁روح	-8.84959
▁اع	-8.85203
▁لوڊ	-8.85208
سٽر	-8.85255
▁ُ	-8.85397
/	-8.85426
▁مير	-8.85651
▁چئي	-8.85705
▁گوگل	-8.86087
▁100	-8.86115
▁جھ	-8.86172
▁وڌي	-8.86264
ro	-8.86366
▁هنڌ	-8.86631
▁انگ	-8.8664
▁ڏنل	-8.86666
▁اسڪ	-8.86783
▁عوام	-8.87185
▁مج	-8.87325
▁خا	-8.87611
▁ٽيم	-8.87686
▁انتظام	-8.87807
▁تبديلي	-8.87861
؟"	-8.88184
▁لکي	-8.88217
▁ماءُ	-8.88225
به	-8.88248
▁اصلي	-8.88279
▁تعمير	-8.88295
▁نفس	-8.88486
▁ايپليڪيشن	-8.88503
▁بينڪ	-8.88612
▁هلي	-8.88644
▁ڪجي	-8.88663
▁طريقو	-8.88741
▁اعلي	-8.88844
N	-8.88897
▁سامان	-8.8897
▁ٿيا	-8.8924
وار	-8.89282
▁احساس	-8.89518
▁قبول	-8.89559
▁تيز	-8.89624
▁ٺاهڻ	-8.8984
▁عورتن	-8.89847
▁ول	-8.89864
زم	-8.8987
L	-8.89909
ائون	-8.89962
▁هاڻ	-8.90029
▁g	-8.9007
▁يونيورسٽي	-8.90124
▁وڃن	-8.90212
▁پوليس	-8.90275
▁14	-8.90369
▁إ	-8.904
▁مقرر	-8.90554
▁سماجي	-8.90722
جھ	-8.90872
▁قومي	-8.90981
▁واضح	-8.91007
▁حا	-8.9102
▁الح	-8.9105
▁ڪيتري	-8.91075
▁لڳو	-8.91189
چر	-8.91378
▁سمجھ	-8.91438
▁نگ	-8.91464
▁حضرت	-8.91483
▁حفاظت	-8.91627
▁n	-8.91634
▁وٺڻ	-8.91735
▁حمل	-8.91751
▁لل	-8.91856
▁صحت	-8.91982
▁ايڪس	-8.9202
▁سروس	-8.92176
▁صح	-8.92249
is	-8.92454
▁سنگ	-8.92482
▁گذريل	-8.92509
▁پورو	-8.92562
▁خوا	-8.92582
">	-8.92681
ڪري	-8.92704
▁اق	-8.92815
▁علاج	-8.92876
وز	-8.93044
▁رهڻ	-8.93303
▁h	-8.93396
▁ڌار	-8.93419
▁in	-8.93445
▁خير	-8.9354
▁وڃ	-8.93751
ئون	-8.94
▁صارف	-8.94157
▁قا	-8.94249
▁اد	-8.94279
▁صاف	-8.94416
▁سڏ	-8.94543
▁ڍ	-8.94575
▁پوندو	-8.94774
کي	-8.94815
▁ٽر	-8.9495
▁مري	-8.95107
▁ده	-8.95222
▁خاندان	-8.95232
▁•	-8.95284
ol	-8.95318
▁13	-8.95485
▁O	-8.95534
▁جلد	-8.95559
▁موڪل	-8.95605
▁ڀيرو	-8.95669
▁صف	-8.95673
▁start	-8.95675
▁مسافر	-8.95676
▁W	-8.95712
▁اکين	-8.95844
▁تفصيل	-8.96202
▁حوالي	-8.96394
▁ڪوبه	-8.96451
▁موجب	-8.96506
▁گھٽ	-8.96522
▁ميمبر	-8.96583
▁dur	-8.966
نٿا	-8.96653
▁وجه	-8.96702
▁ڪت	-8.96731
▁صلاحيت	-8.968
▁گراهڪن	-8.96934
▁صبح	-8.96961
ااا	-8.97085
▁فري	-8.97153
▁خرچ	-8.97164
▁ڀر	-8.97382
▁رقم	-8.97426
am	-8.97433
▁ندي	-8.97439
▁فرق	-8.97439
▁ولي	-8.97521
▁نام	-8.97629
▁ايه	-8.97802
▁وش	-8.97906
▁پاسي	-8.98253
▁عظيم	-8.98339
مر	-8.98365
▁مٿان	-8.98402
▁پڙهڻ	-8.98417
▁اوزار	-8.9842
▁صدي	-8.98482
▁مضبوط	-8.98493
▁روم	-8.98545
▁جذب	-8.98573
ستان	-8.98608
▁انتظار	-8.98725
▁الع	-8.98749
ad	-8.98809
ra	-8.9889
▁ڪلاڪ	-8.99053
▁موجوده	-8.99077
▁ٻيا	-8.99113
▁بڻائي	-8.99199
▁ڏک	-8.99225
▁گڏيل	-8.99249
اڻو	-8.99256
▁متاثر	-8.99269
▁مالي	-8.99273
▁ڏيندو	-8.99346
▁جر	-8.9938
رڪ	-8.99621
▁يون	-8.99622
▁ھڪڙو	-8.99652
▁پوسٽ	-8.9972
▁چڪا	-8.99726
▁تعداد	-8.99749
▁محمد	-8.99818
▁R	-8.99926
▁فرم	-9.00189
▁هزار	-9.002
ur	-9.00208
▁شرح	-9.00268
▁نور	-9.00272
وت	-9.00287
؛	-9.00434
▁اسپ	-9.00442
▁ئ	-9.00651
▁جم	-9.00665
▁نموني	-9.00768
▁اهڙو	-9.00947
▁منتقل	-9.01075
ثر	-9.0118
▁ڪنٽرول	-9.01393
▁نسل	-9.0145
▁هفتي	-9.01505
▁لازمي	-9.01509
▁صلاح	-9.01641
▁ڪين	-9.01646
▁گم	-9.01821
▁يورپ	-9.01833
▁شد	-9.01935
▁ٻڌائي	-9.01964
ڙهي	-9.02042
G	-9.02194
هر	-9.02292
▁يار	-9.02363
▁الس	-9.025
▁سرگرم	-9.02517
▁مهيا	-9.02594
▁مليو	-9.02643
▁سواءِ	-9.0265
▁ايف	-9.02708
▁منٽ	-9.02746
اءِ	-9.02859
▁بخش	-9.02865
▁لم	-9.02897
▁خواب	-9.03153
▁آباد	-9.03161
▁ڄ	-9.03245
▁منصوب	-9.03304
▁ڌيان	-9.03336
▁عملي	-9.03348
▁نن	-9.03781
▁هيون	-9.0382
z	-9.03852
▁موسم	-9.03915
▁تہ	-9.04158
▁25	-9.04309
▁سٽ	-9.04396
▁وضاحت	-9.04461
▁ههه	-9.04554
▁مب	-9.04608
▁سوچ	-9.04611
▁وين	-9.04642
▁دعا	-9.04764
▁ٽا	-9.04784
▁شاعر	-9.04784
ايا	-9.04825
▁آڻي	-9.04838
il	-9.04856
▁ايڊ	-9.05085
▁عدالت	-9.05203
▁وڊيو	-9.05298
▁پنهنجن	-9.05368
▁ڪهڙو	-9.0537
▁آرام	-9.05385
▁ذڪر	-9.05404
▁کو	-9.05415
▁وزير	-9.05458
▁واڌ	-9.05486
v	-9.05797
▁رکيو	-9.05881
▁پريشان	-9.06122
▁16	-9.06123
▁17	-9.06134
ئل	-9.06148
▁تم	-9.06176
▁سون	-9.06289
▁پهچي	-9.06574
▁سور	-9.06829
▁ساڳي	-9.06875
ٍ	-9.06952
ھن	-9.06995
ٹ	-9.07036
▁زين	-9.07114
▁سگھن	-9.07238
>	-9.07427
مين	-9.07429
▁مرڪز	-9.07446
طر	-9.07533
▁اُه	-9.07615
▁منظور	-9.07629
▁برابر	-9.07807
عت	-9.07843
▁ايپ	-9.07919
عد	-9.07919
▁اَ	-9.07936
امي	-9.07965
▁سمجهي	-9.08001
el	-9.08095
▁ی	-9.08136
حب	-9.0824
▁آزادي	-9.08311
▁پوي	-9.08414
▁آس	-9.0871
▁تنظيم	-9.08905
▁مها	-9.08928
▁نوڪري	-9.08951
▁رسائي	-9.09104
▁سنڌي	-9.09244
▁استاد	-9.09381
▁ماري	-9.09429
▁پور	-9.0949
ژ	-9.09506
▁زال	-9.09618
▁گذري	-9.09647
▁رکو	-9.09729
▁علاوه	-9.09766
▁هيءَ	-9.10043
▁جمهوري	-9.10112
▁جنھن	-9.10294
_	-9.1043
▁تصديق	-9.1046
▁گرم	-9.10515
اڙي	-9.10539
▁دان	-9.10568
▁پيام	-9.10598
▁پاڪ	-9.10607
▁گري	-9.10654
▁وڪرو	-9.10662
▁بنا	-9.10716
▁جد	-9.10718
▁بحال	-9.1074
▁پُ	-9.10781
▁شيءِ	-9.10845
▁عاد	-9.10883
▁سب	-9.10941
▁نمي	-9.10995
ڱ	-9.11012
▁]	-9.11036
▁ڪال	-9.11068
▁علائقي	-9.11071
▁منھنج	-9.11251
▁ورڪ	-9.1132
▁ڪارڪردگي	-9.11422
▁r	-9.11513
▁روشني	-9.11568
▁کا	-9.11572
▁to	-9.11576
▁زور	-9.11705
▁رستو	-9.11734
▁گروپ	-9.11778
▁ڪراچي	-9.11864
ڪشن	-9.11964
گو	-9.11981
▁الب	-9.12119
▁جيڪڏھن	-9.12217
▁رفتار	-9.12219
▁=	-9.12379
▁ڪلڪ	-9.12459
▁آب	-9.12521
▁50	-9.12737
▁سرڪاري	-9.12748
▁ڇوڪري	-9.12764
▁فيصل	-9.12855
▁جلدي	-9.12874
▁اھي	-9.12878
▁چون	-9.12918
▁2.	-9.12942
▁وجود	-9.13023
ائيٽ	-9.13047
▁مٿ	-9.1308
▁ــــ	-9.13197
▁حيثيت	-9.13286
▁پهريان	-9.1338
▁بچ	-9.13394
▁جهاز	-9.1344
▁تنهنڪري	-9.13519
ot	-9.13563
گاه	-9.13571
▁ٺهيل	-9.13647
▁ماڊل	-9.13655
▁مسلمان	-9.13672
▁ڊالر	-9.13738
▁سائنس	-9.13741
اسي	-9.13753
▁آفيس	-9.13786
▁راه	-9.13808
قت	-9.1387
▁يک	-9.14
▁اك	-9.14019
▁ڪارڊ	-9.14106
▁سه	-9.1411
▁غلطي	-9.14144
▁هيچ	-9.14149
▁سگهون	-9.14152
▁تصور	-9.14197
▁گول	-9.14215
▁زبان	-9.14291
▁شكرا	-9.14514
▁ڪريان	-9.1453
▁؟"	-9.14543
اط	-9.14578
▁ماهر	-9.14661
▁نوٽ	-9.14693
▁جز	-9.14768
▁لڪ	-9.14813
▁تجربو	-9.1482
▁غريب	-9.14823
▁اصول	-9.14872
▁حلو	-9.14955
▁ماحول	-9.15003
▁شرط	-9.1506
▁مثل	-9.15108
▁قتل	-9.15113
un	-9.15132
▁قص	-9.1519
▁U	-9.1526
▁چر	-9.15506
الي	-9.15927
▁ايئر	-9.15961
▁پڇيو	-9.15997
▁سڄ	-9.16229
كل	-9.16283
▁سگھو	-9.16308
▁روس	-9.16521
▁مالڪ	-9.16577
▁$	-9.16644
▁گفت	-9.16733
▁موٽ	-9.16806
▁کل	-9.17026
▁ڪمپيوٽر	-9.17213
▁بق	-9.17233
▁بيماري	-9.17258
افي	-9.17378
گھ	-9.17432
▁يءَ	-9.17452
▁کائي	-9.17473
▁ڊائون	-9.17547
▁ملازم	-9.17598
▁مخ	-9.176
▁حسين	-9.1771
آآ	-9.17741
▁پليٽ	-9.17808
▁جاءِ	-9.17873
▁آءِ	-9.17878
▁په	-9.17913
وڊ	-9.17956
▁اخت	-9.18062
▁ڪئ	-9.18084
▁گذاري	-9.18104
▁امير	-9.18117
▁ڀري	-9.18171
▁چند	-9.18266
▁انٽرنيٽ	-9.18337
▁مه	-9.18344
▁نڪ	-9.1841
▁ڏاڍو	-9.18432
▁پيغام	-9.18432
▁لاڳو	-9.18531
▁ايندو	-9.18558
▁واٽ	-9.18583
▁تخ	-9.18591
پو	-9.18716
▁جل	-9.18716
▁نيو	-9.18799
▁مستقبل	-9.18904
▁ميٽر	-9.18921
▁سار	-9.1901
▁خوشي	-9.19069
رد	-9.19104
▁درد	-9.19182
▁بحث	-9.1919
ch	-9.1951
▁ڪپ	-9.196
اءُ	-9.1966
▁ھڪڙ	-9.19697
▁ڪٽ	-9.19838
▁قبل	-9.19866
▁بلاگ	-9.2009
ءِ	-9.20294
▁الي	-9.20429
▁وزن	-9.20694
▁ذريع	-9.20722
▁امام	-9.20767
▁e	-9.20786
▁ڳالهيون	-9.20833
▁هه	-9.20858
▁ڳالھ	-9.20914
▁گرمي	-9.21051
ائل	-9.21086
▁اگر	-9.2115
▁نشان	-9.21288
▁ٻڌي	-9.21337
▁خوف	-9.21404
▁؟؟	-9.2154
▁اللي	-9.21571
▁چور	-9.21777
▁دين	-9.21879
▁شاء	-9.22015
▁ترين	-9.22022
▁ادب	-9.22079
▁24	-9.22126
ً	-9.22191
▁شڪار	-9.22231
▁ٿيندا	-9.223
ائو	-9.22326
▁هڪڙي	-9.22367
▁ايمان	-9.22417
▁پلي	-9.2267
▁انسٽال	-9.22671
▁روي	-9.22746
▁ڊگهي	-9.22768
▁الف	-9.22796
▁ويئي	-9.22839
▁ڪاميابي	-9.22901
▁اسڪرين	-9.22978
▁ريت	-9.23256
▁ڪونهي	-9.23278
▁لکيو	-9.23316
▁معلوم	-9.23333
▁عالم	-9.23361
▁جانور	-9.234
اً	-9.23446
▁تب	-9.23572
▁پائي	-9.23627
▁سپر	-9.23817
▁کار	-9.23942
▁رت	-9.24089
▁انگريزي	-9.24102
▁حياتي	-9.24106
▁دفعو	-9.24255
▁اچ	-9.24293
▁خطر	-9.2437
▁ڪڍي	-9.24374
▁پت	-9.24441
▁اڳيان	-9.245
▁مق	-9.24505
▁نيٽ	-9.24574
▁تنهنجو	-9.24661
▁مز	-9.24668
▁K	-9.24757
▁موبائل	-9.25059
▁رهندو	-9.25133
▁ٽرين	-9.25224
نداسين	-9.25312
▁ثابت	-9.25362
▁ساد	-9.25374
▁ڌر	-9.25385
▁سنڀال	-9.25462
▁پيٽ	-9.25562
▁شڪل	-9.25589
▁ايندي	-9.2564
▁روايت	-9.25672
▁روان	-9.2572
ذا	-9.25859
▁ڪوڊ	-9.25988
ri	-9.26022
▁ساڻ	-9.26074
▁ايترو	-9.26086
ءُ	-9.26124
▁ٿيندڙ	-9.26384
▁پڙ	-9.26396
اااا	-9.26405
000	-9.26428
▁v	-9.26491
▁هست	-9.26542
▁سوشل	-9.26593
قول	-9.2662
▁حصي	-9.26781
▁بورڊ	-9.26893
▁ڪامياب	-9.26956
▁اه	-9.27014
▁زمان	-9.27135
▁بهرحال	-9.27198
▁؟؟؟	-9.27341
▁مخصوص	-9.27506
▁پيءُ	-9.27522
▁ڪُ	-9.27632
▁o	-9.27826
j	-9.2792
▁الاقوامي	-9.2792
▁سگهان	-9.27923
▁بخ	-9.28033
▁ٿورو	-9.28164
▁حتى	-9.28234
▁ڀي	-9.28238
▁ننڍ	-9.2825
▁يقيني	-9.28307
▁يس	-9.28387
▁صورتحال	-9.28455
ac	-9.28498
▁مخالف	-9.28545
▁اڳواڻ	-9.28579
▁شهري	-9.28603
▁جيستائين	-9.28614
▁ڊرائيو	-9.28665
▁رسال	-9.28668
تون	-9.28764
▁ميدان	-9.28886
ul	-9.28913
▁عل	-9.2908
▁#	-9.29118
▁ڪئين	-9.29291
lo	-9.29318
▁اهڙا	-9.29615
▁سست	-9.2963
▁منهنجا	-9.29634
▁اسم	-9.29725
▁مقابلي	-9.29804
▁چونڊيو	-9.3
▁اڌ	-9.30048
ووو	-9.30144
▁ڇپ	-9.30218
▁حساب	-9.30221
▁ڏين	-9.30379
▁شام	-9.30453
▁سلام	-9.30536
▁جرمن	-9.30562
اص	-9.30692
▁هدايت	-9.3076
شڪ	-9.31007
▁فيس	-9.31049
▁سپ	-9.3108
▁قديم	-9.31134
▁مَ	-9.31168
▁عرصي	-9.31187
▁خل	-9.31256
▁مص	-9.31383
▁re	-9.31596
▁وڃو	-9.3167
▁دست	-9.31691
ay	-9.31694
▁دوا	-9.31746
▁روڪي	-9.31791
▁انتي	-9.3182
▁ڌرتي	-9.31877
▁ايپل	-9.31907
گير	-9.31936
▁موڪلي	-9.31937
▁انقلاب	-9.3194
▁V	-9.32006
▁ويل	-9.3223
▁قانوني	-9.32306
▁نظري	-9.32361
▁حر	-9.32371
▁سمنڊ	-9.32461
▁قلب	-9.32637
id	-9.32726
▁سگهيو	-9.32727
ـــــ	-9.32742
▁پنهنجا	-9.32807
▁ٽائ	-9.32858
▁عد	-9.32862
انه	-9.32917
▁تس	-9.32926
▁لنڪ	-9.32932
▁هڪڙو	-9.32955
▁هفت	-9.33006
H	-9.33151
▁مست	-9.33218
▁نيوز	-9.33397
▁گهڻا	-9.33413
▁اضافي	-9.33462
▁ڳولا	-9.3347
U	-9.33591
▁چوي	-9.336
▁طب	-9.33727
▁ڪرائي	-9.3383
راح	-9.33835
ٰ	-9.33873
▁کولڻ	-9.33905
▁سڪ	-9.33918
ter	-9.33949
▁نڪري	-9.341
▁ڪيم	-9.34253
ائيڊ	-9.34266
▁مارڪيٽنگ	-9.34348
▁تص	-9.34453
▁ملاقات	-9.34454
▁ڪندڙن	-9.34469
▁ڪاري	-9.34548
▁سوچيو	-9.34553
and	-9.34669
▁منظر	-9.34677
▁لائين	-9.34947
▁+	-9.35034
▁ملڻ	-9.35104
▁مختصر	-9.35231
▁حالتن	-9.35272
▁جڳهه	-9.35324
▁جهڙوڪ	-9.35351
ْ	-9.35455
▁نٿي	-9.35495
ir	-9.35506
▁عم	-9.35522
▁شاگردن	-9.35549
▁باوجود	-9.35566
F	-9.35712
▁اِ	-9.35781
▁فهرست	-9.35791
▁ڏاڍي	-9.35792
▁اسٽ	-9.35888
▁40	-9.3598
▁خوب	-9.36072
▁شب	-9.36249
▁شاعري	-9.36255
▁ٺيڪ	-9.36291
ut	-9.3644
▁ٻڌڻ	-9.36476
▁۔	-9.36543
▁ويجهو	-9.36582
▁ڀلي	-9.36583
▁منجه	-9.36635
▁زماني	-9.36802
▁2020	-9.36821
▁مٽ	-9.37007
ce	-9.37024
▁ing	-9.3725
▁فيه	-9.37273
▁خلي	-9.37274
قص	-9.37508
▁فائدو	-9.37602
▁احس	-9.37611
▁درست	-9.37702
▁خواهش	-9.3772
▁امڪان	-9.37734
الله	-9.37747
▁ڪنداسين	-9.37845
▁کٽ	-9.38003
▁دماغ	-9.3806
▁گرفتار	-9.38092
▁لاڳاپيل	-9.38109
▁وڌائڻ	-9.38288
▁يوم	-9.38354
▁مشڪل	-9.38376
▁راح	-9.38397
▁لفظن	-9.38488
▁ڏنا	-9.38512
▁چڪي	-9.38513
▁علائقن	-9.38519
▁جهڙي	-9.38656
لينڊ	-9.38923
▁ويئر	-9.39058
▁بود	-9.39073
▁وڏا	-9.3914
▁شڪ	-9.39151
▁ثقافت	-9.39213
▁قول	-9.39221
▁چاهيندا	-9.39229
گار	-9.39305
▁2019	-9.3933
▁شاندار	-9.39336
▁ى	-9.39405
▁اخبار	-9.39563
ې	-9.39796
▁راندين	-9.39827
▁سهولت	-9.39914
▁فعال	-9.39915
▁<<	-9.39918
▁بابا	-9.39956
▁هار	-9.39985
▁سول	-9.40035
▁ڪوڙ	-9.40049
▁جڏھن	-9.40146
▁آپريشن	-9.40147
▁ٺاهيو	-9.40155
▁تق	-9.40287
▁تخليق	-9.40382
▁know	-9.40499
▁اک	-9.40658
▁ٽڪر	-9.4086
om	-9.40913
▁انتهائي	-9.40975
ليٽ	-9.4108
▁واپار	-9.41101
▁اعتماد	-9.41207
▁پول	-9.41234
▁سوچي	-9.41248
▁كان	-9.41295
▁مهينن	-9.41346
▁منزل	-9.41472
▁کانسواءِ	-9.41562
▁شه	-9.41678
▁هندستان	-9.41683
▁رستي	-9.41714
▁پال	-9.41827
خير	-9.41857
▁رڪارڊ	-9.4192
▁غور	-9.41962
▁ننڍي	-9.42076
▁ويس	-9.4208
ايل	-9.42083
▁اکيون	-9.42222
▁تار	-9.42237
▁مف	-9.42261
▁وغيره	-9.42518
▁روڊ	-9.42546
▁جئين	-9.42665
ئو	-9.42679
▁وَ	-9.42703
▁سامهون	-9.42761
▁توانائي	-9.42763
▁چڱي	-9.42766
▁شعر	-9.42803
▁مئ	-9.42844
▁ندا	-9.42891
▁بھ	-9.429
▁22	-9.42914
▁هئڻ	-9.43002
▁گاڏي	-9.43044
▁ننڊ	-9.43141
▁نقش	-9.43154
▁آسمان	-9.43162
▁الص	-9.43224
▁بجلي	-9.43246
▁سَ	-9.43261
▁فوج	-9.433
▁ليکڪ	-9.43365
▁هت	-9.43377
▁تش	-9.43427
▁ڀلا	-9.43438
▁اسپتال	-9.43483
▁سڀئي	-9.43595
▁دلچسپ	-9.43687
▁مڙس	-9.43742
▁لکيل	-9.43771
▁اهميت	-9.43783
▁ننڍڙ	-9.43824
▁رح	-9.4384
▁21	-9.43857
▁چيزي	-9.43877
▁ساٿي	-9.4394
▁بص	-9.44052
▁مگر	-9.44151
▁برقرار	-9.44212
▁بغير	-9.44212
ارڻ	-9.44219
▁شكل	-9.44234
▁حب	-9.44264
▁ناڪام	-9.4434
te	-9.44406
مينٽ	-9.44475
▁ايتري	-9.44496
ڙڻ	-9.44749
▁يع	-9.44809
▁ڪيائين	-9.44826
▁مقامي	-9.4485
ation	-9.44859
▁اهل	-9.4489
▁حيرت	-9.45318
▁مسلسل	-9.45563
▁اعليٰ	-9.45578
।	-9.45687
▁وڏ	-9.4579
▁آڻڻ	-9.45948
▁موقعو	-9.45961
▁اسٽور	-9.46025
پور	-9.46086
▁فو	-9.46113
▁فائل	-9.46162
▁ملين	-9.46198
▁قرض	-9.46362
▁صوب	-9.46373
▁آرٽيڪل	-9.46433
▁عنصر	-9.46434
ٽڪ	-9.46522
▁تنھن	-9.46534
▁2018	-9.46557
▁محدود	-9.46558
▁موٽي	-9.46593
▁صارفين	-9.46604
▁مسئل	-9.467
▁سيل	-9.46783
ــــــ	-9.46787
▁سميت	-9.46788
ly	-9.46849
▁مور	-9.46855
▁لڳا	-9.47099
▁سام	-9.4718
text	-9.47184
▁پوئتي	-9.47184
▁کاڌ	-9.47252
▁بڻائڻ	-9.47439
▁قرار	-9.47461
▁اچو	-9.47596
▁ڳالهائڻ	-9.47704
▁دلچسپي	-9.47728
▁ايڇ	-9.47763
▁عشق	-9.47823
▁شما	-9.4786
▁خلاص	-9.47954
▁اسپين	-9.47963
▁صد	-9.48074
▁شوق	-9.48247
▁فڪر	-9.4826
▁طبق	-9.48417
▁امتحان	-9.48449
▁لحاظ	-9.48449
▁عجب	-9.48625
ذر	-9.48655
▁چيائين	-9.48796
ٌ	-9.48827
▁عجيب	-9.48836
▁ڪاب	-9.48954
▁شايع	-9.48982
دگي	-9.49129
▁چپ	-9.49345
▁ڏينھن	-9.49362
ent	-9.49398
▁نقط	-9.49436
▁هيءُ	-9.49479
▁ظ	-9.49601
▁اجلاس	-9.49603
▁پئ	-9.4962
▁سمجهيو	-9.49655
▁,,	-9.49711
▁خصوصي	-9.4973
▁دستياب	-9.49732
▁هُن	-9.49786
▁جهڙو	-9.49836
▁خارج	-9.499
▁ساڳيو	-9.49998
▁چاهيان	-9.50094
la	-9.50105
▁وائرس	-9.50121
▁>>	-9.5013
فكر	-9.50249
▁قرآن	-9.50249
▁براي	-9.50321
▁صور	-9.50421
▁ڪنڊ	-9.50505
▁J	-9.5054
▁ڏکڻ	-9.5055
▁ڳولڻ	-9.50768
ne	-9.5081
▁امان	-9.50838
▁باب	-9.50888
▁مسئلن	-9.51043
▁تحفظ	-9.51182
▁يم	-9.51376
▁ڪنھن	-9.51417
▁بئنڪ	-9.51424
▁وڌائي	-9.51485
▁الڳ	-9.51629
▁ڪريون	-9.51687
▁فرانس	-9.5169
▁سماج	-9.51703
▁X	-9.51708
ڷ	-9.51947
▁ڪام	-9.5204
▁ڳالهائي	-9.52088
▁مقدار	-9.52156
▁ڪَ	-9.5216
▁الج	-9.52213
▁آئين	-9.52318
▁ليه	-9.52442
▁قدرتي	-9.52493
▁هال	-9.52595
طلع	-9.5262
▁ٽيسٽ	-9.52659
▁نہ	-9.52677
▁خالي	-9.52688
يائين	-9.52699
▁پکي	-9.52738
▁سواء	-9.52755
▁ڏيندي	-9.52894
▁ڏه	-9.5305
▁شوي	-9.53061
▁مافي	-9.53062
▁ـــــ	-9.53221
hi	-9.53246
▁ڀيٽ	-9.53282
▁ادارن	-9.53329
▁آخرڪار	-9.53372
▁لائسنس	-9.53541
▁اتر	-9.53543
▁سافٽ	-9.53547
▁هجن	-9.53548
▁ريل	-9.53557
▁تحت	-9.53596
▁هوٽل	-9.5362
▁سياست	-9.53683
▁ڪندس	-9.53711
▁آم	-9.53712
▁ڊوائيس	-9.5381
▁پهر	-9.53905
▁دشمن	-9.53944
▁ڀارت	-9.53976
▁داد	-9.54005
▁پوندي	-9.54036
▁مذهب	-9.54084
▁تف	-9.54124
▁اظهار	-9.54348
▁يورپي	-9.54422
▁شاگرد	-9.54505
▁ــــــــ	-9.54652
▁اڃان	-9.5466
▁k	-9.54672
کر	-9.54707
▁پراڻي	-9.54718
▁درواز	-9.54763
▁com	-9.54766
▁هٽ	-9.54773
▁عبدال	-9.55027
▁اکر	-9.55047
▁سڌو	-9.55183
▁ذات	-9.55423
▁سڏيو	-9.55426
▁ورتي	-9.55458
▁مهم	-9.5547
▁حڪمت	-9.55496
خر	-9.55498
▁رابطو	-9.55537
▁شخصيت	-9.55756
▁سهڻ	-9.55764
▁تصويرون	-9.55787
▁ڪسٽم	-9.55854
▁جنسي	-9.55924
▁2017	-9.55982
▁عوامي	-9.56003
▁طيب	-9.56015
ers	-9.5619
▁ماڻھو	-9.56241
▁جڳ	-9.56282
▁ارب	-9.56293
▁جسماني	-9.56376
▁~	-9.56514
▁فصل	-9.5654
▁ڊا	-9.56544
▁اص	-9.56592
▁اچن	-9.56685
▁مهيني	-9.56695
ڏانهن	-9.56725
▁جت	-9.56779
V	-9.56863
▁st	-9.57203
▁ڊپ	-9.57391
▁۱	-9.57491
▁ساڳئي	-9.57504
▁رھي	-9.57595
▁ڏوه	-9.57669
▁هُو	-9.57722
▁سلسلي	-9.57785
▁وفا	-9.57842
▁ايراني	-9.57855
▁گھرجي	-9.57923
▁ويڊيو	-9.57928
▁طلب	-9.57937
um	-9.5794
os	-9.57981
▁مذهبي	-9.58057
▁روشن	-9.58143
▁پَ	-9.58192
▁مصر	-9.58202
▁خاموش	-9.58203
▁فار	-9.58211
▁ھر	-9.58264
▁ڊجيٽل	-9.58344
▁وزيراعظم	-9.58351
▁جمل	-9.58354
▁دڪان	-9.58496
▁حصن	-9.58501
▁پئس	-9.58585
▁فوجي	-9.58609
▁گڏجي	-9.58636
▁قال	-9.58703
▁Android	-9.58766
▁ڪيترو	-9.58775
▁چنڊ	-9.58787
▁ڪورٽ	-9.58789
▁مرض	-9.58798
ap	-9.58831
▁مارچ	-9.58873
▁مجموعي	-9.58907
▁ايئن	-9.58918
▁سزا	-9.58941
▁ٽري	-9.59037
▁پويان	-9.5911
▁احتجاج	-9.5919
▁سگ	-9.59241
▁رشت	-9.59297
▁حج	-9.59375
W	-9.59547
▁اسٽيشن	-9.59556
▁خاصيت	-9.59636
بار	-9.59678
▁فعل	-9.59728
▁روپ	-9.59746
▁منظم	-9.59762
▁لباس	-9.59765
▁فرد	-9.59803
ia	-9.59862
▁سياحت	-9.59905
▁جاچ	-9.60003
▁مطالب	-9.60046
▁ڪارو	-9.60076
▁ڪڍ	-9.60111
▁عمارت	-9.60189
▁چيڪ	-9.60232
▁کائڻ	-9.60277
▁ذميواري	-9.60316
▁ڳنڍي	-9.60474
▁تحريڪ	-9.60475
▁گيت	-9.60593
▁اڪيلو	-9.60619
▁وانا	-9.6072
▁گرد	-9.60742
▁آڪٽوبر	-9.60762
▁چيز	-9.60787
▁the	-9.60798
▁کات	-9.60954
▁خيلي	-9.61086
▁محنت	-9.61103
▁گير	-9.61168
دخل	-9.61228
▁فطرت	-9.6134
▁اشارو	-9.61491
▁حلوه	-9.61514
▁ڊر	-9.61723
اڻڻ	-9.61766
▁معنيٰ	-9.61784
▁برانڊ	-9.61786
▁معمولي	-9.61794
ڪٽر	-9.61812
▁والدين	-9.61965
▁فور	-9.62018
▁بدران	-9.62227
▁گراهڪ	-9.62261
▁فوت	-9.62331
▁ممكن	-9.62359
▁فقير	-9.62362
▁نماز	-9.62369
▁تعريف	-9.62506
▁رهن	-9.62523
▁قد	-9.62538
▁ھئي	-9.62585
▁پٿر	-9.62654
▁ٿر	-9.62722
▁طريقا	-9.62914
▁معني	-9.62914
▁دستاويز	-9.62945
▁زير	-9.62954
▁مطابقت	-9.6309
▁ٽيڪس	-9.6315
▁موٽر	-9.63152
▁تجزيو	-9.63242
▁سمور	-9.6333
▁مئي	-9.63366
▁سينٽر	-9.63499
داد	-9.63505
▁ادبي	-9.63674
▁گهربل	-9.63752
▁کليل	-9.63768
▁قسمت	-9.63847
▁رھ	-9.63889
▁اذا	-9.63909
▁غلام	-9.63989
▁نار	-9.64079
▁سيريز	-9.64144
▁ضحك	-9.64193
▁تڪڙ	-9.64452
▁معياري	-9.64497
▁هيٺيان	-9.6461
▁انگريز	-9.64804
▁اسيمبلي	-9.64877
▁سگهندا	-9.64904
▁نسخ	-9.65049
▁سيپٽمبر	-9.65178
▁ملا	-9.6521
▁26	-9.65347
ۈ	-9.65479
▁موسيقي	-9.65479
▁23	-9.65705
▁آدم	-9.65834
▁60	-9.65941
▁ڪاليج	-9.65947
▁رسم	-9.65974
st	-9.66006
▁عزت	-9.66269
▁جنم	-9.66308
▁?	-9.66358
▁ويهي	-9.66448
▁ڳالهين	-9.66496
▁حيران	-9.66697
▁باغ	-9.6673
▁ايندا	-9.66733
▁ٿوري	-9.66812
▁مره	-9.66984
▁ميڪ	-9.6701
▁دم	-9.67122
▁سفارش	-9.67153
▁پئسا	-9.67189
▁مرڪ	-9.67203
▁شاهه	-9.67212
▁ــــــــــــــ	-9.67345
▁فوٽو	-9.67354
ow	-9.67362
ck	-9.67407
▁ٽيون	-9.67414
▁ڊزائن	-9.67461
▁جنرل	-9.6749
▁بونس	-9.67579
▁طريقن	-9.67584
▁اتفاق	-9.67615
▁جيترو	-9.67751
▁جائزو	-9.6776
▁ڪرائڻ	-9.67816
▁انعام	-9.67941
▁حرف	-9.68202
▁فوري	-9.68382
▁ليش	-9.6847
▁سير	-9.68473
▁ہ	-9.6848
▁سموري	-9.68495
▁ڏيندا	-9.68496
▁شهيد	-9.68501
▁پابندي	-9.68511
▁مشتمل	-9.68545
▁رهندي	-9.68584
▁سند	-9.68591
▁سِ	-9.68599
li	-9.68648
▁اگه	-9.68688
▁نيڪ	-9.68693
▁2-	-9.68731
▁پھري	-9.68889
▁ترجمو	-9.68952
▁ڪلاس	-9.6914
▁وساري	-9.69153
▁امر	-9.69318
▁ڳا	-9.69382
▁انجنيئر	-9.69483
▁2016	-9.69483
▁ارسال	-9.69494
▁ڪانه	-9.69629
*	-9.6963
▁پاليسي	-9.69649
▁اخر	-9.69783
▁ميز	-9.69825
▁ڀڳ	-9.69987
▁ٽيبل	-9.69994
▁ڇڏ	-9.70036
▁زخمي	-9.70177
▁ڀيرا	-9.70243
▁ڏيئي	-9.70254
▁رکندڙ	-9.70273
▁مات	-9.70375
▁ـــــــــ	-9.70439
ينئر	-9.7052
▁نوان	-9.70536
▁رحم	-9.70546
▁آرڊر	-9.70591
▁آهنگ	-9.70851
▁ــــــ	-9.70858
K	-9.70905
▁انصاف	-9.7091
▁ماپ	-9.70986
▁ساري	-9.71003
▁ادائيگي	-9.71066
▁دريا	-9.7107
▁چوندا	-9.7107
▁تربيت	-9.7107
▁شعور	-9.71078
▁ميان	-9.71113
▁ضم	-9.71116
▁قيد	-9.71192
▁آگسٽ	-9.71227
▁اضافو	-9.71386
▁سوچڻ	-9.71414
▁پهچائڻ	-9.7143
▁وات	-9.71446
▁ڪِ	-9.71488
▁نواز	-9.71529
▁عقل	-9.71599
▁عليها	-9.71643
▁نيست	-9.71712
ov	-9.71749
▁پنھنج	-9.71759
▁ڪرايو	-9.71767
▁انڪار	-9.71779
▁گذار	-9.71791
▁کڻڻ	-9.71961
▁آفيسر	-9.72311
▁سدائين	-9.72352
▁ونڊوز	-9.72527
▁پهچ	-9.72586
▁کلي	-9.72595
▁صفحا	-9.72679
▁ملڪيت	-9.72695
ڇا	-9.72722
▁ايشيا	-9.72776
▁لسٽ	-9.72812
▁موڪليو	-9.72832
▁معاف	-9.72873
▁سڃاڻ	-9.73036
▁دورو	-9.73042
▁سڃاڻپ	-9.73136
▁هُ	-9.73144
▁ھا	-9.73151
▁طبي	-9.7319
▁سمجهڻ	-9.73305
▁حمايت	-9.7349
▁ڊيزائن	-9.7349
كتب	-9.73532
▁فرض	-9.73619
ha	-9.73747
▁چڱو	-9.73819
▁خاطر	-9.73852
▁زنده	-9.73856
▁ڀريل	-9.73876
تني	-9.73879
▁ھل	-9.73906
▁اخلاق	-9.73981
▁قيام	-9.74
ma	-9.74128
▁سعودي	-9.74146
▁28	-9.74183
ig	-9.7423
▁الك	-9.7424
▁ٻڌو	-9.74284
▁هلائي	-9.74304
▁نشاني	-9.7437
▁جميل	-9.74382
▁بگ	-9.74431
▁وسيع	-9.74511
▁مڇي	-9.74564
ڈ	-9.74641
em	-9.74775
إ	-9.74866
▁اداري	-9.74899
▁ٽيڪ	-9.74977
▁سگھجي	-9.75139
ry	-9.7554
▁آبادي	-9.7556
▁قرب	-9.75567
▁جبل	-9.7559
▁گزارش	-9.75638
▁عزيز	-9.75644
▁رابطي	-9.75745
▁مط	-9.75788
▁نظار	-9.75811
20	-9.75939
▁رجسٽر	-9.75946
▁ڳالهايو	-9.75994
▁حبيب	-9.76017
▁سلامت	-9.7602
▁ڏانھن	-9.76142
▁کڻ	-9.76211
▁رول	-9.7629
▁شيئر	-9.76334
▁چيم	-9.76335
قدر	-9.76463
▁مسئلا	-9.76468
▁نومبر	-9.76479
صير	-9.76483
▁احمد	-9.76484
▁عهد	-9.76574
▁تجويز	-9.76646
▁مکيه	-9.76653
▁آئ	-9.76719
▁كيف	-9.76722
▁هع	-9.7675
▁گهڙي	-9.76758
▁ضابط	-9.76815
▁افغانستان	-9.76824
▁رهندا	-9.76826
▁سبق	-9.76907
▁اپڊيٽ	-9.76984
▁موقعي	-9.77065
▁هليو	-9.771
ate	-9.77112
▁وٺو	-9.77186
▁تحف	-9.77198
ind	-9.77225
▁بک	-9.77236
▁پرين	-9.77284
▁اشتهار	-9.77323
▁ڪوٽ	-9.77477
▁مزو	-9.77488
▁گھڻو	-9.77501
▁مصنوعات	-9.77529
▁الحال	-9.77535
▁فائلون	-9.77551
▁ڳالهائيند	-9.77577
%	-9.77664
▁خون	-9.77814
ړ	-9.77834
▁پارڪ	-9.7788
▁كر	-9.77968
▁27	-9.78049
▁ماضي	-9.78171
▁2021	-9.78177
▁تجارت	-9.78188
▁راز	-9.7832
▁ترڪي	-9.78485
▁ـــــــ	-9.78534
▁لنڊن	-9.78539
ak	-9.78549
▁جنوري	-9.78553
▁هئس	-9.78702
▁اِه	-9.7871
▁كنت	-9.78752
ھر	-9.78758
ve	-9.78876
▁@	-9.78958
▁ٻڌل	-9.79053
▁ناهن	-9.79088
▁اٺ	-9.79212
▁سنڏ	-9.79213
mp	-9.79243
▁الزام	-9.7939
▁ڦر	-9.79415
▁ليگ	-9.7942
▁راءِ	-9.79437
▁اقول	-9.79445
▁دٻ	-9.79638
▁لانچ	-9.7965
▁گذر	-9.79845
▁ڪوئي	-9.79866
▁مجبور	-9.79908
▁ـــــــــــ	-9.79996
▁پوک	-9.80043
▁واپاري	-9.80065
▁مهر	-9.8007
▁80	-9.80171
▁حادث	-9.80255
▁حالا	-9.80389
▁هيٺين	-9.80441
▁تازو	-9.80454
▁اينڊرائيڊ	-9.80605
ووووو	-9.80677
▁مٽي	-9.80746
▁رُ	-9.80761
▁ڪميشن	-9.80932
▁رانديگر	-9.80959
▁کوٽ	-9.81102
حق	-9.8112
▁درج	-9.81122
▁سمجهان	-9.8114
▁تبصر	-9.81143
▁قوت	-9.81377
▁حاضر	-9.8149
▁ناول	-9.81579
▁عورتون	-9.81754
ab	-9.81763
op	-9.81765
▁؟!	-9.8179
▁وصول	-9.81848
▁يمكن	-9.81852
▁شده	-9.81869
▁آرٽ	-9.81917
▁ڄم	-9.81918
▁مقابلو	-9.8202
▁اسرائيل	-9.8202
▁ترجم	-9.82136
▁واقف	-9.82206
▁پناه	-9.82288
▁ڏياري	-9.82291
▁مِ	-9.82296
▁انجام	-9.82396
▁درجي	-9.82417
▁ڏکيو	-9.82512
▁لاش	-9.82533
▁رخ	-9.82654
▁ڪانهي	-9.82706
اهو	-9.82782
▁نالا	-9.82834
▁پراڊڪٽ	-9.82914
▁ڪمزور	-9.82931
حال	-9.82945
▁جاء	-9.83044
▁متبادل	-9.83094
▁اوڀر	-9.83096
▁مڃي	-9.83136
ضح	-9.83152
▁سائيز	-9.83296
▁سکڻ	-9.83322
▁تجربي	-9.83457
▁تعاون	-9.83469
▁آيل	-9.83477
▁رسول	-9.83493
▁چرچ	-9.83522
▁کرد	-9.83663
نتظر	-9.83751
▁ڊسمبر	-9.83817
nd	-9.83827
▁ويٺو	-9.83827
▁وفاقي	-9.83849
▁اخو	-9.83897
▁نظم	-9.84008
▁طريق	-9.8403
▁چارج	-9.84145
۰	-9.8418
▁گڏوگڏ	-9.8418
▁پٺيان	-9.8418
▁واقعا	-9.84203
▁وفات	-9.84264
ok	-9.84349
ں	-9.84362
▁مزاحمت	-9.84362
▁ھاڻي	-9.84453
▁ٻوٽ	-9.84507
▁جهان	-9.8467
▁پيروي	-9.84706
▁ــــــــــ	-9.84708
▁ڪائنات	-9.84729
▁1-	-9.84758
▁گُ	-9.84963
ack	-9.85019
▁يورو	-9.85183
▁هندو	-9.85257
▁اتحاد	-9.85278
ive	-9.85382
▁لوڪ	-9.85386
▁مريض	-9.8544
▁شرڪت	-9.85468
▁باهه	-9.85541
▁تھ	-9.85655
▁دليل	-9.85796
▁أخ	-9.85803
▁2015	-9.85832
▁وزارت	-9.85832
▁فتح	-9.85844
▁زياد	-9.8588
▁يونٽ	-9.85981
▁چال	-9.86093
▁تسليم	-9.86204
▁علامت	-9.8621
▁عنوان	-9.86217
▁</	-9.86253
▁هلائڻ	-9.86366
▁تڪليف	-9.86388
▁آپريٽ	-9.86389
▁هونديون	-9.86503
all	-9.86555
▁ڪورونا	-9.86576
▁عندك	-9.86619
▁جاپان	-9.8665
▁ووٽ	-9.86677
▁الخ	-9.86745
▁اقتصادي	-9.86761
▁پرڏيهي	-9.86762
▁هاءِ	-9.86779
▁خريداري	-9.86857
▁ٻا	-9.86864
▁ڇڏڻ	-9.86884
▁اپريل	-9.86954
▁عندي	-9.86958
▁موقع	-9.87011
▁سرور	-9.87102
▁ابتدائي	-9.87135
▁غم	-9.8714
▁ريم	-9.87181
▁نرم	-9.87199
▁شكله	-9.87231
▁ويڙه	-9.87274
▁سلسلو	-9.87324
▁توقع	-9.87522
ـــــــــ	-9.87561
▁کولي	-9.87579
▁ٻانه	-9.87629
▁لازم	-9.87738
▁ڀاءُ	-9.87823
▁نبي	-9.87841
▁پچ	-9.87852
▁نتيجو	-9.8786
▁de	-9.87873
▁عقيد	-9.87904
▁راج	-9.87907
▁اٿم	-9.87938
▁طاقتور	-9.88212
▁مينهن	-9.88217
▁ويچار	-9.88661
▁شراب	-9.88689
▁نقل	-9.8874
▁بچائڻ	-9.88741
▁er	-9.88742
▁توڙي	-9.88783
▁سيڙپڪاري	-9.88836
▁رانديون	-9.88838
▁آهست	-9.88845
قط	-9.88883
▁اداڪار	-9.89065
ــــــــ	-9.89071
▁باش	-9.89098
▁اسٽيٽ	-9.8915
▁پوائنٽ	-9.89219
▁کر	-9.89233
▁سگهندو	-9.89324
▁چٽ	-9.89384
▁لطف	-9.89416
▁مغ	-9.89595
▁عالي	-9.89646
▁وطن	-9.89763
▁چئن	-9.89816
▁اڳوڻي	-9.89988
▁قر	-9.9011
▁امين	-9.90205
▁گفتگو	-9.90206
▁خد	-9.90261
▁جوابدار	-9.9028
▁خودڪار	-9.90287
▁ڊوڙ	-9.90297
▁ٽرانسپورٽ	-9.90374
▁ڳوله	-9.90403
▁هزارين	-9.90408
▁وقف	-9.90449
▁امداد	-9.90454
ta	-9.90611
▁ٽئي	-9.9066
▁ضحكت	-9.90682
▁مثبت	-9.90762
▁تازه	-9.90781
▁يلا	-9.90945
▁نگاه	-9.90963
▁پئج	-9.91017
▁is	-9.91042
▁وسلم	-9.91056
▁سيڪيورٽي	-9.91151
▁ڪانفرنس	-9.91151
tion	-9.91273
▁90	-9.91308
▁ڪاپي	-9.91408
▁Ma	-9.91541
▁آمدني	-9.91615
▁اطلاع	-9.91738
▁أنا	-9.91867
▁فٽبال	-9.91934
▁ورلڊ	-9.91944
نڊر	-9.91978
▁محل	-9.92005
▁طول	-9.92071
▁وڃائي	-9.92076
▁مهل	-9.92406
▁چوٿ	-9.92488
▁نفرت	-9.92534
▁چمڪ	-9.92586
▁غذا	-9.92607
▁ماڻھ	-9.9261
▁والد	-9.92644
▁بچائي	-9.92967
▁Z	-9.92969
▁وڪيل	-9.92977
▁فخر	-9.9305
▁co	-9.93176
▁پرست	-9.93458
▁هلندڙ	-9.93533
▁ڀڄ	-9.93565
ho	-9.93701
▁منصوبو	-9.93744
iz	-9.93812
▁لاڳاپ	-9.93834
X	-9.93883
▁دعوت	-9.93921
▁گار	-9.93944
ect	-9.94006
▁In	-9.94093
▁كلام	-9.94129
▁ذميوار	-9.94143
▁بعض	-9.94145
▁اميدوار	-9.94197
▁ٻيٽ	-9.94199
▁29	-9.94248
▁70	-9.94428
اااااا	-9.94491
▁برداشت	-9.94524
▁هذه	-9.94535
▁فائيل	-9.94548
▁رابط	-9.94652
▁<<<	-9.94734
▁بادشاهه	-9.94798
▁ضلع	-9.94934
▁گهڻن	-9.94951
▁مسيح	-9.94952
▁اندروني	-9.95008
علام	-9.9507
est	-9.95093
▁وينديون	-9.95124
▁انڊسٽري	-9.95132
▁(1)	-9.95137
▁فهم	-9.95238
▁روحاني	-9.95289
▁خدمتون	-9.9537
▁جاڳ	-9.95395
▁۲	-9.95531
{	-9.95538
▁فيبروري	-9.95539
▁ضمانت	-9.95541
▁چيست	-9.95672
▁سارا	-9.95677
▁انٽرويو	-9.95743
if	-9.95794
▁تعرف	-9.95796
▁يونين	-9.95864
▁ــــــــــــ	-9.95878
▁هڻي	-9.9593
▁وڪيپيڊيا	-9.95947
▁هڪٻئي	-9.95949
▁بيٽري	-9.96002
▁ڏسندا	-9.96083
▁ڊائ	-9.96121
▁منفرد	-9.96154
▁طلاق	-9.96359
▁نكت	-9.96383
▁ديگر	-9.96392
▁پهتو	-9.9642
XNUMX	-9.96563
▁حڪمران	-9.96579
▁سازي	-9.96672
▁^^	-9.96769
▁بڻايو	-9.96774
▁ونڊ	-9.96799
od	-9.96814
ـــــــــــ	-9.96922
▁نمائش	-9.96976
▁ميزبان	-9.9698
pe	-9.96992
▁پريس	-9.97024
▁پهچڻ	-9.97099
▁کوليو	-9.97182
▁دهشتگرد	-9.97183
▁اولاد	-9.97278
▁اصطلاح	-9.9739
up	-9.97424
▁رائ	-9.97527
▁هفته	-9.97536
▁گروه	-9.9757
▁سائيڪل	-9.976
▁برقي	-9.97656
▁خاصيتون	-9.97794
▁رضا	-9.97877
▁رھيو	-9.97902
▁جُ	-9.97985
▁ٻيڙي	-9.97996
▁مسجد	-9.98019
▁تحليل	-9.98024
▁پهچائي	-9.98064
▁قاعد	-9.98071
▁پڌر	-9.98078
▁قلم	-9.98103
▁صفحي	-9.98233
▁يافته	-9.98234
▁اٿس	-9.98274
▁ڊڄ	-9.98275
▁بط	-9.98276
▁کپي	-9.98343
▁افسوس	-9.98434
▁ڪاوڙ	-9.98467
▁ساهه	-9.98547
▁آءُ	-9.98632
خص	-9.98647
▁پاور	-9.98782
}	-9.98855
▁برطانيه	-9.98855
▁متعارف	-9.98855
▁رٿ	-9.98884
▁آيت	-9.98942
▁آء	-9.99038
٠	-9.99066
▁اليڪشن	-9.991
one	-9.99275
▁انتخاب	-9.99277
▁35	-9.99379
▁x	-9.99457
▁معاهدي	-9.99538
بقى	-9.99546
▁ڪٿا	-9.9959
▁ووو	-9.99728
▁بلند	-9.99875
▁پوزيشن	-9.99915
▁پيئڻ	-9.99919
▁جوڙجڪ	-10.0013
▁مرمت	-10.0015
▁يقول	-10.0019
▁Y	-10.0022
▁محبوب	-10.0034
▁معاشي	-10.0034
▁روڪڻ	-10.0035
▁احد	-10.0069
▁ed	-10.0073
;	-10.0077
50	-10.0078
▁ٿڪ	-10.0095
▁اڳيون	-10.0097
▁رجحان	-10.0098
▁عشان	-10.0101
▁اهڙن	-10.0103
▁انڊيا	-10.0123
▁مادر	-10.0139
▁اڏ	-10.0144
▁ريلوي	-10.0148
▁ابراهيم	-10.0163
▁مدير	-10.0173
▁بازي	-10.0176
▁زبردست	-10.0185
▁سرڪار	-10.0189
▁بہ	-10.0196
▁گراف	-10.0202
▁فائدي	-10.0207
▁حلوة	-10.0212
▁خر	-10.0214
▁مارڪ	-10.0216
ستائين	-10.0226
▁گھڻي	-10.0232
▁پاڙ	-10.0236
▁قبر	-10.0243
▁ڪپڙا	-10.0255
▁مبارڪ	-10.0273
▁تڪرار	-10.0273
▁شور	-10.0275
▁پڙهندڙ	-10.0286
▁ثاني	-10.0291
▁پيئي	-10.0303
<	-10.0316
▁شھر	-10.0332
اااااااا	-10.0335
▁سيڪنڊ	-10.0338
▁طرز	-10.0339
▁ڌڪ	-10.034
▁کاڌو	-10.0362
▁>>>	-10.0384
▁هلڻ	-10.0385
▁هارڊ	-10.0407
▁زهر	-10.0408
▁&	-10.0415
▁پرواز	-10.0416
▁درجه	-10.0423
▁لينڊ	-10.0433
▁وڃان	-10.0441
▁بيمار	-10.0444
▁سونهن	-10.0446
اسان	-10.0448
اعظم	-10.0453
▁ٻُڌ	-10.0471
▁تعارف	-10.0472
▁ڪهڙا	-10.0472
▁ھئا	-10.0473
وٽو	-10.048
▁نگراني	-10.0494
▁راضي	-10.0497
▁مسلم	-10.0504
ine	-10.0508
▁انٽرنيشنل	-10.0516
▁ڊائريڪٽر	-10.0516
▁آڇ	-10.0525
▁3-	-10.053
▁دٻاء	-10.0534
▁مصروف	-10.0542
ant	-10.0543
▁رهائش	-10.0561
▁هائوس	-10.0561
▁اوھين	-10.0562
▁پنڌ	-10.0564
▁سکيا	-10.0575
▁ءِ	-10.058
▁ڏيندڙ	-10.0596
▁500	-10.0602
▁رڪن	-10.0606
▁اوچتو	-10.0606
▁نڪتو	-10.0613
▁وڌڻ	-10.0623
▁اكيد	-10.0626
▁ماسڪ	-10.0626
▁ڪائونسل	-10.0629
▁نيشنل	-10.063
▁آمد	-10.0636
qu	-10.0636
▁2014	-10.0652
▁Co	-10.0653
ائڊ	-10.0657
?	-10.0679
▁موڊ	-10.0681
^	-10.0697
▁انجڻ	-10.0703
▁روزاني	-10.072
▁پروفيسر	-10.072
▁2013	-10.072
▁آفريڪا	-10.072
▁عليكم	-10.0724
▁اڀر	-10.0726
▁سينٽ	-10.0728
▁نعم	-10.0738
▁ڀائر	-10.0743
▁پلاسٽڪ	-10.0743
▁شعبي	-10.0743
▁آسٽريليا	-10.0766
▁لائق	-10.0767
▁چُ	-10.0801
▁شمار	-10.0809
▁ويڪسين	-10.0813
▁بررسي	-10.0837
▁ٺاهيندڙ	-10.0838
▁ڪميٽي	-10.084
۳	-10.0859
▁سپورٽ	-10.0859
▁بيٺو	-10.0861
▁بٽڻ	-10.0862
▁اينڊ	-10.0866
▁Re	-10.0873
▁ڪاٺ	-10.0883
▁ڦير	-10.0887
▁ch	-10.0892
▁ڪنار	-10.0901
▁بازار	-10.0906
▁ويٺي	-10.0909
▁هٿيار	-10.0909
di	-10.0918
▁انگيز	-10.0932
▁ظلم	-10.0932
▁فورم	-10.094
▁دفعي	-10.0952
▁ميوزڪ	-10.0952
▁افغان	-10.0974
▁حرڪت	-10.0976
▁ڀرسان	-10.0976
▁دولت	-10.0979
age	-10.098
▁رکندو	-10.0987
▁ملندي	-10.0989
▁قلت	-10.1028
▁عراق	-10.1048
▁شڪر	-10.105
▁مقام	-10.106
▁Q	-10.106
▁چڙهي	-10.1067
▁لطيف	-10.107
▁چشم	-10.1076
خلص	-10.1087
▁ڪاغذ	-10.1094
▁ترجيح	-10.1094
▁تقرير	-10.1094
▁چوندو	-10.1096
▁احب	-10.1102
▁اٿئي	-10.1111
▁پورٽ	-10.1112
▁منحصر	-10.1117
ill	-10.1117
▁ڪارروائي	-10.1118
▁وٺندو	-10.115
▁31	-10.1152
▁مراد	-10.1154
▁اياز	-10.117
▁حوا	-10.1173
▁کنيو	-10.1173
▁ايئرپورٽ	-10.1189
▁مائٽ	-10.1192
▁باقاعد	-10.1213
▁طالب	-10.1214
▁موثر	-10.1255
▁ڀيڻ	-10.1256
▁عذاب	-10.1262
▁ٽپ	-10.1263
▁روزانو	-10.1263
▁شفت	-10.1284
▁چوڌاري	-10.1286
▁فنڪشن	-10.1315
▁موجودگي	-10.1322
▁تقول	-10.1325
▁مهمان	-10.1332
▁وڊيوز	-10.1334
▁سئو	-10.1336
▁شيخ	-10.1337
▁رفت	-10.1345
ist	-10.1357
▁عاشق	-10.1359
▁معيشت	-10.136
able	-10.1362
▁وڌندڙ	-10.1364
▁تنقيد	-10.1383
▁طئي	-10.1401
صلى	-10.1401
▁برادري	-10.1408
▁فيشن	-10.1411
ائونڊ	-10.142
▁زمرو	-10.1434
▁36	-10.1434
▁موڙ	-10.1441
▁ارادو	-10.1458
▁ڏسندي	-10.1469
▁سيڪريٽري	-10.1482
▁علائقو	-10.1482
▁ناقابل	-10.1482
▁برسات	-10.1484
▁وڌايو	-10.1506
▁حوصل	-10.1506
▁رئيس	-10.1509
فضل	-10.1522
▁حرارت	-10.1532
▁شريف	-10.1534
▁تاج	-10.1538
▁گناه	-10.1538
▁ڪلام	-10.1555
▁ڀرپور	-10.1559
og	-10.1563
▁ڪنڌ	-10.1573
▁ٽريڪ	-10.1574
▁اصلاح	-10.1574
א	-10.1581
▁الموضوع	-10.1581
▁ڊائونلوڊ	-10.1581
▁خطرناڪ	-10.1581
▁شاخ	-10.1599
▁سڃاتو	-10.1606
▁فائدا	-10.1606
▁عبادت	-10.1631
▁عرض	-10.1632
▁دريافت	-10.1634
▁ساٿ	-10.1639
▁نڪرڻ	-10.1657
▁سڀاڻي	-10.168
▁روئي	-10.1681
▁متحرڪ	-10.1681
▁تعجب	-10.1685
١	-10.1732
▁ڪئميرا	-10.1732
▁مرحله	-10.1732
▁تعليق	-10.1732
,000	-10.1732
▁پرنٽ	-10.1746
▁خوراڪ	-10.1757
▁مقبول	-10.1757
▁ڏٺا	-10.1764
▁رکندي	-10.1766
▁پذير	-10.1783
▁ياداشت	-10.1783
▁اسٽر	-10.1798
▁چمڙي	-10.1809
▁تحرير	-10.1809
▁نهايت	-10.1817
▁تشدد	-10.1834
▁اڏام	-10.1835
▁حصا	-10.1837
▁حيات	-10.1853
ff	-10.1853
▁پڙھ	-10.1857
▁اعتبار	-10.1859
▁دفعا	-10.1885
▁ex	-10.1916
▁قابليت	-10.1924
▁وارث	-10.193
▁ڊيسڪ	-10.1944
▁تنھنجي	-10.1953
▁فوٽ	-10.1955
▁پوڙه	-10.1956
▁ترميم	-10.1963
▁آڏو	-10.1964
▁اديب	-10.1966
▁پائڻ	-10.1973
▁ڊگهو	-10.1989
▁هئاسين	-10.1993
▁قبضو	-10.2015
▁جماعت	-10.2015
▁طوفان	-10.2015
▁حضور	-10.2015
▁حصيداري	-10.2019
▁پڙهو	-10.2019
▁بچاء	-10.2025
اخذ	-10.2026
Y	-10.2029
▁ڊزائين	-10.2041
▁·	-10.2069
▁رائع	-10.2076
▁ناھي	-10.2085
▁جشن	-10.209
▁اليوم	-10.2107
▁ثبوت	-10.212
▁دؤر	-10.212
▁آآآ	-10.2132
▁ذر	-10.2141
▁of	-10.2153
▁يكون	-10.2153
▁پروسيس	-10.2184
▁ڏند	-10.219
▁معاشري	-10.2199
▁مزدور	-10.2199
▁con	-10.2207
▁ٽائيم	-10.2216
▁صدق	-10.2218
▁معرف	-10.2238
▁معصوم	-10.2252
▁ڊومين	-10.2252
▁ريڊيو	-10.2253
▁جامع	-10.2261
▁St	-10.2272
▁فارسي	-10.2272
▁اٽڪل	-10.2279
▁ـــــــــــــــ	-10.2281
▁شريڪ	-10.2283
▁ورهائ	-10.2292
▁پيامبر	-10.2292
▁بچڻ	-10.2302
▁تباهه	-10.2306
▁ويٺا	-10.2307
▁ڏٺي	-10.2308
▁بلاڪ	-10.231
▁هذي	-10.2336
ell	-10.2349
▁احترام	-10.236
▁کنڊ	-10.236
ight	-10.2414
▁فيلڊ	-10.2416
▁اپيل	-10.2437
▁ٻڌائڻ	-10.246
▁ڪارخان	-10.2469
▁باڪس	-10.2477
▁پڙهند	-10.2512
▁لڳندو	-10.2517
▁كذا	-10.2523
▁اختلاف	-10.2523
▁اسٽاڪ	-10.2523
▁رينج	-10.2524
ood	-10.2544
▁فرانسيسي	-10.2551
▁ڪوٺي	-10.2562
av	-10.2562
▁تازي	-10.2569
▁تابع	-10.2579
▁توسان	-10.2581
▁صحافي	-10.2583
▁اسٽار	-10.259
ies	-10.2601
▁لڳائڻ	-10.2606
▁صفحو	-10.2606
▁ٿورڙ	-10.2616
▁تقسيم	-10.2633
▁ڏهاڪ	-10.264
▁بزرگ	-10.2661
▁آزمائش	-10.2661
▁ورزن	-10.2671
▁سگهندي	-10.2676
▁تسلم	-10.2696
▁پنجاب	-10.2698
▁اثرائت	-10.2718
▁نمائندگي	-10.2719
▁پيماني	-10.2719
▁مايوس	-10.2728
▁هُئي	-10.2728
▁مددگار	-10.2755
▁گلاب	-10.2761
عطي	-10.2797
▁يوٽيوب	-10.2801
▁سامونڊي	-10.2801
▁مستقل	-10.2801
▁ٽرانس	-10.2802
▁ڪڙ	-10.2807
▁چئو	-10.2821
▁فلٽر	-10.2823
▁ڊسڪ	-10.2825
▁ڏاڏ	-10.2839
رهندي	-10.2841
▁صبر	-10.2858
۴	-10.2858
▁غائب	-10.2858
▁گهٽتائي	-10.2859
▁ورتا	-10.2866
▁مفيد	-10.2877
▁sub	-10.2886
▁مضحك	-10.2886
▁شڪايت	-10.2886
▁اھڙي	-10.2887
▁پسنديده	-10.2887
▁مارجي	-10.2898
▁ھٿ	-10.2923
mm	-10.2962
▁لئه	-10.2975
▁الناس	-10.2977
="3	-10.2978
▁خلق	-10.2982
▁هئو	-10.2987
▁واسطو	-10.3
▁صفحه	-10.3001
▁رهجي	-10.3016
▁تضحك	-10.3029
▁جپان	-10.3032
▁فاصل	-10.3033
▁اڪثريت	-10.3038
ګ	-10.3058
▁کاٻ	-10.3064
▁بالغ	-10.3071
▁كثير	-10.3087
▁سگھوٿا	-10.3087
▁سيکاري	-10.3087
▁معاهدو	-10.3119
-19	-10.3121
▁ڊرام	-10.3127
▁مجاز	-10.3133
▁اااااااااا	-10.3144
▁متعلق	-10.3145
وحيد	-10.3147
ev	-10.3156
▁مطالعو	-10.3175
آإ	-10.3197
▁اسمارٽ	-10.3197
▁برطانيا	-10.3204
▁(2)	-10.3205
▁ڪچهري	-10.3233
▁2010	-10.3233
▁مهينا	-10.3236
▁هلندي	-10.3245
▁اُھ	-10.3246
▁رسيد	-10.3259
▁انفرادي	-10.3263
▁آپشن	-10.3263
▁جائز	-10.327
▁عطا	-10.3288
▁مستحڪم	-10.3292
▁مشكور	-10.3293
▁اسٽوريج	-10.3293
▁المهم	-10.3297
▁سومر	-10.3303
(	-10.3318
▁مطالعي	-10.3322
▁بحران	-10.3322
▁نيٽورڪ	-10.3322
▁سرحد	-10.3333
▁مقال	-10.3356
▁رهبر	-10.3381
▁2012	-10.3382
▁پيدائش	-10.3382
▁حديث	-10.3382
▁پمپ	-10.3384
▁اُٿ	-10.3385
▁روزگار	-10.3387
▁سروي	-10.3389
۵	-10.3412
▁پيغمبر	-10.3412
▁هلندو	-10.3428
ډ	-10.3442
▁2011	-10.3442
▁عيسائي	-10.3442
▁يادگار	-10.3451
▁لڳايو	-10.3467
▁كلهم	-10.3478
▁ساليان	-10.3493
▁چوٽي	-10.3495
▁فلسفي	-10.3502
سنواريو	-10.3504
▁ھيٺ	-10.3507
▁پهلو	-10.352
▁رواج	-10.3543
▁COVID	-10.3563
٢	-10.3563
▁ڪريڊٽ	-10.3567
مسنگ	-10.3568
▁ٽرئفڪ	-10.3593
▁ايوارڊ	-10.3593
▁ديوار	-10.3622
▁مھين	-10.3632
▁پروسيسنگ	-10.3642
ment	-10.3645
▁يادگيري	-10.3655
▁مفاد	-10.3667
سمارٽ	-10.3681
▁خالص	-10.3686
▁موبائيل	-10.3716
▁نصب	-10.3718
▁جهڙا	-10.3769
ځ	-10.3778
ږ	-10.3778
▁ٽڪيٽ	-10.3778
▁فارميٽ	-10.3781
▁انگلينڊ	-10.3782
▁آزما	-10.3787
▁رڪاوٽ	-10.3809
▁معنى	-10.3812
ټ	-10.3872
=	-10.3962
ڵ	-10.4289
😂	-10.4289
ڑ	-10.4487
ڦ	-10.4523
۱	-10.4523
●	-10.4655
۹	-10.4689
$	-10.4694
~	-10.4762
ښ	-10.5107
्	-10.5359
°	-10.5432
️	-10.5542
۸	-10.5617
ा	-10.6194
♥	-10.6314
Q	-10.6411
❤	-10.6434
र	-10.7237
[	-10.744
څ	-10.7778
€	-10.8254
×	-10.8302
J	-10.874
۶	-10.8804
Z	-10.8895
+	-10.8895
۷	-10.8907
🙂	-10.9224
क	-10.9332
٣	-10.9606
←	-10.9889
ڼ	-11.0479
→	-11.054
ٱ	-11.0601
٥	-11.0978
۲	-11.1371
ۍ	-11.1638
ि	-11.2056
٤	-11.2127
ो	-11.2345
म	-11.2492
٦	-11.2718
ב	-11.3106
ڛ	-11.3265
é	-11.3427
न	-11.3427
•	-11.3445
٩	-11.3929
q	-11.425
ڹ	-11.4458
स	-11.4827
त	-11.5209
ۡ	-11.5209
٨	-11.571
य	-11.6022
ٖ	-11.6128
ּ	-11.6345
ٔ	-11.6345
ۅ	-11.6455
े	-11.6455
ल	-11.6678
♪	-11.6678
ۆ	-11.6792
♡	-11.6792
®	-11.6907
@	-11.7076
ۑ	-11.7141
ٴ	-11.7141
ღ	-11.738
◄	-11.7502
٫	-11.775
©	-11.7877
&	-11.8071
٧	-11.8135
प	-11.8135
#	-11.8203
ۉ	-11.8267
व	-11.8267
😉	-11.8267
§	-11.84
а	-11.84
🤣	-11.84
ह	-11.8811
ۃ	-11.8952
☺	-11.9095
ڎ	-11.9536
ט	-11.9841
ڸ	-11.9841
ۊ	-11.9998
द	-11.9998
н	-12.0318
è	-12.0648
ü	-12.0648
♫	-12.099
פ	-12.1166
ु	-12.1344
î	-12.1526
â	-12.1526
ڤ	-12.1526
ı	-12.1526
ڜ	-12.1711
о	-12.19
ٗ	-12.19
и	-12.2092
İ	-12.2288
ٓ	-12.2288
ç	-12.2288
ट	-12.2488
à	-12.2488
ग	-12.2488
ۓ	-12.2692
💔	-12.3113
😍	-12.3113
★	-12.3331
ी	-12.3553
р	-12.378
٬	-12.378
ş	-12.4013
̈	-12.4013
ؑ	-12.4013
с	-12.4251
ब	-12.4251
ڶ	-12.4251
ۀ	-12.4251
ێ	-12.4251
е	-12.4745
ڣ	-12.4745
😭	-12.4745
כ	-12.5001
ݪ	-12.5001
ज	-12.5001
Ş	-12.5264
ٕ	-12.5264
उ	-12.5264
छ	-12.5535
ࢪ	-12.5812
、	-12.5812
ö	-12.5812
ڕ	-12.6392
á	-12.6392
श	-12.6392
॥	-12.6392
Ü	-12.6695
ω	-12.7008
м	-12.7008
ू	-12.7008
т	-12.7008
±	-12.733
ै	-12.733
😅	-12.733
🙁	-12.733
۽	-12.76
у	-12.7664
ۂ	-12.8009
♦	-12.8009
ン	-12.8009
語	-12.8009
ۧ	-12.8009
ं	-12.8366
̷	-12.8366
ۄ	-12.8736
√	-12.8736
д	-12.8736
ۋ	-12.8736
ड	-12.9121
ל	-12.9121
ٳ	-12.9121
ۿ	-12.9121
л	-12.9121
ध	-12.9121
؏	-12.9521
≥	-12.9521
😊	-12.9521
٘	-12.9521
‹	-12.9521
¤	-12.9937
ˇ	-12.9937
【	-13.0372
¢	-13.0372
ए	-13.0372
भ	-13.0372
ツ	-13.0372
💞	-13.0372
ê	-13.0372
ؿ	-13.0372
ष	-13.0372
ë	-13.0827
】	-13.0827
¬	-13.0827
α	-13.0827
к	-13.0827
٭	-13.0827
✿	-13.0827
﴾	-13.0827
﴿	-13.0827
👍	-13.0827
ā	-13.1303
ٚ	-13.1303
ە	-13.1303
ई	-13.1303
☆	-13.1303
ο	-13.1803
в	-13.1803
ٲ	-13.1803
ڝ	-13.1803
¦	-13.1803
ó	-13.1803
û	-13.1803
μ	-13.1803
⁄	-13.1803
з	-13.2329
ػ	-13.2329
─	-13.2885
ڒ	-13.2885
ä	-13.2885
⇄	-13.2885
अ	-13.2885
च	-13.2885
🏻	-13.2885
β	-13.2885
͜	-13.2885
ñ	-13.3473
ण	-13.3473
≈	-13.3473
■	-13.3473
😆	-13.3473
ա	-13.3473
х	-13.3473
ؽ	-13.4098
ڠ	-13.4098
ࢦ	-13.4098
。	-13.4098
👌	-13.4098
ž	-13.4098
ы	-13.4098
फ	-13.4098
菜	-13.4098
⋆	-13.4765
ֿ	-13.4765
Ø	-13.4765
ٛ	-13.4765
ڂ	-13.4765
आ	-13.4765
ख	-13.4765
🔥	-13.4765
÷	-13.4765
й	-13.4765
·	-13.5415
̨	-13.5479
ۇ	-13.5479
थ	-13.5479
ृ	-13.5479
š	-13.5479
\	-13.5479
ğ	-13.5479
б	-13.5479
г	-13.5479
🌹	-13.5479
ô	-13.6248
ᓄ	-13.6248
▌	-13.6248
✅	-13.6248
✌	-13.6248
💘	-13.6248
í	-13.6248
̲	-13.6248
̃	-13.7081
ݩ	-13.7081
❥	-13.7081
ե	-13.7081
ে	-13.7081
💙	-13.7081
😘	-13.7081
Ç	-13.7081
ζ	-13.7991
я	-13.7991
п	-13.7991
і	-13.7991
ι	-13.7991
י	-13.7991
↓	-13.7991
☀	-13.7991
✓	-13.7991
⭐	-13.7991
💕	-13.7991
🙈	-13.7991
נ	-13.7991
◕	-13.7991
̣	-13.7991
͡	-13.7991
ন	-13.8991
č	-13.8991
Ґ	-13.8991
۫	-13.8991
♀	-13.8991
ï	-13.8991
œ	-13.8991
ξ	-13.8991
۩	-13.8991
๑	-13.8991
✋	-13.8991
✨	-13.8991
🌸	-13.8991
😇	-13.8991
🤔	-13.8991
💗	-13.8991
ۦ	-13.8991
۾	-14.0038
র	-14.0102
ː	-14.0102
❣	-14.0102
音	-14.0102
ρ	-14.0102
😹	-14.0102
Š	-14.0102
ڨ	-14.0102
ँ	-14.0102
◊	-14.0102
♠	-14.0102
😔	-14.0102
😝	-14.0102
া	-14.0102
্	-14.1352
ם	-14.1352
ε	-14.1352
ի	-14.1352
͠	-14.1352
מ	-14.1352
ۛ	-14.1352
å	-14.1352
Φ	-14.1352
Ω	-14.1352
ڭ	-14.1352
♩	-14.1352
」	-14.1352
🌷	-14.1352
🖤	-14.1352
ն	-14.1352
ম	-14.1352
σ	-14.1352
น	-14.278
ɪ	-14.278
🥺	-14.278
ˈ	-14.278
ஐ	-14.278
ۗ	-14.278
ո	-14.278
Ž	-14.278
ς	-14.278
ч	-14.278
ۤ	-14.278
ۨ	-14.278
ठ	-14.278
ু	-14.278
ా	-14.278
▶	-14.278
▷	-14.278
◇	-14.278
☻	-14.278
♣	-14.278
❀	-14.278
❧	-14.278
⠀	-14.278
・	-14.278
🏃	-14.278
💜	-14.278
📷	-14.278
😎	-14.278
̤	-14.278
ш	-14.278
ս	-14.278
ր	-14.278
‿	-14.278
η	-14.278
ו	-14.278
ע	-14.278
🇩	-14.278
า	-14.4447
ক	-14.4447
π	-14.4447
দ	-14.4447
ý	-14.4447
ڞ	-14.4447
ɑ	-14.4447
ί	-14.4447
⇣	-14.4447
Á	-14.4447
ć	-14.4447
ō	-14.4447
̇	-14.4447
ד	-14.4447
ؓ	-14.4447
ؼ	-14.4447
ٜ	-14.4447
ٟ	-14.4447
ܢ	-14.4447
ত	-14.4447
୭	-14.4447
⏪	-14.4447
♯	-14.4447
⚡	-14.4447
✯	-14.4447
🏼	-14.4447
😢	-14.4447
🥇	-14.4447
̶	-14.4447
ҳ	-14.4447
ọ	-14.4447
ٞ	-14.4447
ี	-14.6447
💖	-14.6447
մ	-14.6447
✗	-14.6447
ə	-14.6447
τ	-14.6447
ж	-14.6447
ڔ	-14.6447
◦	-14.6447
♍	-14.6447
ڋ	-14.6447
✘	-14.6447
『	-14.6447
ã	-14.6447
ú	-14.6447
ż	-14.6447
̅	-14.6447
̵	-14.6447
ן	-14.6447
ؒ	-14.6447
ٙ	-14.6447
ۏ	-14.6447
झ	-14.6447
న	-14.6447
ಿ	-14.6447
്	-14.6447
ị	-14.6447
⃣	-14.6447
−	-14.6447
⊙	-14.6447
╝	-14.6447
▪	-14.6447
◎	-14.6447
✦	-14.6447
』	-14.6447
🇮	-14.6447
🌚	-14.6447
🌟	-14.6447
🍼	-14.6447
💚	-14.6447
😱	-14.6447
😻	-14.6447
ώ	-14.6447
ц	-14.6447
ެ	-14.6447
ē	-14.6447
ł	-14.6447
๛	-14.6447
ð	-14.6447
э	-14.6447
💪	-14.6447
າ	-14.6447
ᬼ	-14.6447
的	-14.8947
Ã	-14.8947
̐	-14.8947
ν	-14.8947
φ	-14.8947
✖	-14.8947
ø	-14.8947
ę	-14.8947
Ğ	-14.8947
Ħ	-14.8947
θ	-14.8947
є	-14.8947
չ	-14.8947
ה	-14.8947
ז	-14.8947
ٮ	-14.8947
খ	-14.8947
়	-14.8947
ো	-14.8947
ં	-14.8947
ම	-14.8947
ม	-14.8947
↯	-14.8947
╫	-14.8947
◀	-14.8947
♂	-14.8947
♬	-14.8947
り	-14.8947
ミ	-14.8947
𐄒	-14.8947
🌿	-14.8947
👉	-14.8947
💫	-14.8947
📚	-14.8947
🔞	-14.8947
😋	-14.8947
😒	-14.8947
😠	-14.8947
😨	-14.8947
😪	-14.8947
😵	-14.8947
🙊	-14.8947
🤍	-14.8947
🤭	-14.8947
🧸	-14.8947
ʊ	-14.8947
հ	-14.8947
ۣ	-14.8947
ौ	-14.8947
ం	-14.8947
∀	-14.8947
🏾	-14.8947
ۜ	-14.8947
嘅	-14.8947
ь	-14.8947
য	-14.8947
ਾ	-14.8947
よ	-14.8947
ר	-14.8947
۪	-14.8947
ไ	-15.228
ก	-15.228
γ	-15.228
ό	-15.228
ด	-15.228
🎀	-15.228
υ	-15.228
ݛ	-15.228
ો	-15.228
ე	-15.228
❦	-15.228
ħ	-15.228
ś	-15.228
̯	-15.228
ස	-15.228
︎	-15.228
Ă	-15.228
ą	-15.228
Đ	-15.228
ƒ	-15.228
ɛ	-15.228
̀	-15.228
̊	-15.228
ϻ	-15.228
Х	-15.228
Я	-15.228
Ҳ	-15.228
ש	-15.228
ڽ	-15.228
ۙ	-15.228
ۼ	-15.228
ݦ	-15.228
ः	-15.228
ব	-15.228
ি	-15.228
ੀ	-15.228
ર	-15.228
క	-15.228
ి	-15.228
ు	-15.228
Ⴢ	-15.228
ი	-15.228
ው	-15.228
ᭁ	-15.228
Ṁ	-15.228
ṇ	-15.228
ṭ	-15.228
ẹ	-15.228
₥	-15.228
₪	-15.228
↔	-15.228
≧	-15.228
○	-15.228
☑	-15.228
☜	-15.228
☼	-15.228
♚	-15.228
♛	-15.228
⚫	-15.228
✍	-15.228
➢	-15.228
〗	-15.228
う	-15.228
の	-15.228
を	-15.228
ュ	-15.228
可	-15.228
發	-15.228
﮼	-15.228
🌻	-15.228
🏿	-15.228
👀	-15.228
👈	-15.228
👤	-15.228
💋	-15.228
💐	-15.228
💛	-15.228
💻	-15.228
🔸	-15.228
😐	-15.228
🤨	-15.228
ల	-15.228
ᓅ	-15.228
ò	-15.228
ě	-15.228
ল	-15.228
ನ	-15.228
ന	-15.228
ṣ	-15.228
Ł	-15.228
໑	-15.228
ੰ	-15.228
్	-15.228
ለ	-15.228
ノ	-15.228
వ	-15.228
ส	-15.728
ย	-15.728
ʒ	-15.728
Ϟ	-15.728
Р	-15.728
ъ	-15.728
պ	-15.728
ચ	-15.728
✫	-15.728
コ	-15.728
ۘ	-15.728
ࡗ	-15.728
ટ	-15.728
У	-15.728
ݨ	-15.728
⚽	-15.728
|	-15.728
¥	-15.728
Ù	-15.728
Ú	-15.728
Ė	-15.728
Į	-15.728
ů	-15.728
ơ	-15.728
ʀ	-15.728
ʻ	-15.728
̍	-15.728
Α	-15.728
Ξ	-15.728
Υ	-15.728
έ	-15.728
Ч	-15.728
ю	-15.728
҉	-15.728
ґ	-15.728
ը	-15.728
խ	-15.728
ց	-15.728
ֆ	-15.728
ך	-15.728
؋	-15.728
؍	-15.728
ڲ	-15.728
ܓ	-15.728
ݖ	-15.728
ݢ	-15.728
ݥ	-15.728
ञ	-15.728
ॡ	-15.728
ট	-15.728
ড	-15.728
ਂ	-15.728
ਧ	-15.728
ਸ	-15.728
ਿ	-15.728
ક	-15.728
ા	-15.728
ી	-15.728
ஓ	-15.728
ద	-15.728
ీ	-15.728
ಈ	-15.728
ಲ	-15.728
ങ	-15.728
ි	-15.728
้	-15.728
ཻ	-15.728
დ	-15.728
რ	-15.728
ს	-15.728
ᄑ	-15.728
ᄒ	-15.728
ᅲ	-15.728
ሂ	-15.728
ህ	-15.728
ቅ	-15.728
ድ	-15.728
ᓆ	-15.728
ន	-15.728
ᴗ	-15.728
Ẹ	-15.728
ố	-15.728
‛	-15.728
‟	-15.728
₩	-15.728
₽	-15.728
↩	-15.728
⇡	-15.728
⇦	-15.728
∞	-15.728
≠	-15.728
≦	-15.728
╬	-15.728
▽	-15.728
◈	-15.728
◍	-15.728
◣	-15.728
◩	-15.728
◪	-15.728
☘	-15.728
♉	-15.728
♌	-15.728
♢	-15.728
✈	-15.728
✧	-15.728
✷	-15.728
❓	-15.728
❕	-15.728
❖	-15.728
❝	-15.728
❞	-15.728
❢	-15.728
⭕	-15.728
い	-15.728
じ	-15.728
ほ	-15.728
タ	-15.728
ー	-15.728
ㄨ	-15.728
発	-15.728
真	-15.728
者	-15.728
나	-15.728
𓂅	-15.728
𖣴	-15.728
🇸	-15.728
🌈	-15.728
🌼	-15.728
🎵	-15.728
🐒	-15.728
🐢	-15.728
👆	-15.728
👎	-15.728
💅	-15.728
💍	-15.728
💓	-15.728
💮	-15.728
💰	-15.728
🔕	-15.728
🔫	-15.728
🔴	-15.728
🔶	-15.728
🖕	-15.728
😃	-15.728
😏	-15.728
😤	-15.728
😬	-15.728
😮	-15.728
😯	-15.728
😿	-15.728
🙄	-15.728
🛫	-15.728
🤎	-15.728
🤐	-15.728
🤓	-15.728
🤤	-15.728
🤧	-15.728
🥀	-15.728
🦼	-15.728
ť	-15.728
λ	-15.728
ؾ	-15.728
િ	-15.728
ೋ	-15.728
ๅ	-15.728
ᓘ	-15.728
🎈	-15.728
😳	-15.728
ì	-15.728
Ā	-15.728
ă	-15.728
Ǝ	-15.728
ƛ	-15.728
Ʀ	-15.728
ռ	-15.728
স	-15.728
య	-15.728
್	-15.728
ി	-15.728
ል	-15.728
ይ	-15.728
Ọ	-15.728
ở	-15.728
ピ	-15.728
법	-15.728
🔒	-15.728
լ	-15.728
ঔ	-15.728
ਬ	-15.728
ስ	-15.728
ን	-15.728
Ṃ	-15.728
你	-15.728
직	-15.728
🧐	-15.728
࿑	-15.7281
⃫	-15.7281
🥰	-16.7134
🤪	-16.7135
🚶	-16.7136
😕	-16.7137
🔺	-16.7138
🔹	-16.7139
🔱	-16.714
💡	-16.7141
💠	-16.7142
💝	-16.7143
👑	-16.7144
👇	-16.7145
🐠	-16.7146
🎻	-16.7147
🎧	-16.7148
🌆	-16.7149
🇺	-16.715
🇶	-16.7151
🇬	-16.7152
🇨	-16.7153
ꓘ	-16.7154
我	-16.7155
以	-16.7156
上	-16.7157
パ	-16.7158
ト	-16.7159
〖	-16.716
✴	-16.7161
✮	-16.7162
♤	-16.7163
╦	-16.7164
⇠	-16.7165
↴	-16.7166
ỳ	-16.7167
እ	-16.7168
້	-16.7169
่	-16.717
ท	-16.7171
ถ	-16.7172
స	-16.7173
ఉ	-16.7174
ਰ	-16.7175
আ	-16.7176
ढ	-16.7177
۬	-16.7178
կ	-16.7179
է	-16.718
Կ	-16.7181
Ի	-16.7182
ө	-16.7183
П	-16.7184
О	-16.7185
Д	-16.7186
δ	-16.7187
̳	-16.7188
̉	-16.7189
õ	-16.719
É	-16.7191
À	-16.7192
🦦	-16.7193
😽	-16.7194
🐸	-16.7195
🍀	-16.7196
🌤	-16.7197
❗	-16.7198
❌	-16.7199
☂	-16.72
╚	-16.7201
⌘	-16.7202
ุ	-16.7203
ั	-16.7204
ณ	-16.7205
ฉ	-16.7206
ค	-16.7207
්	-16.7208
න	-16.7209
ે	-16.721
ח	-16.7211
տ	-16.7212
Բ	-16.7213
Т	-16.7214
В	-16.7215
Б	-16.7216
̥	-16.7217
ˌ	-16.7218
😦	-16.7219
😌	-16.722
😈	-16.7221
🕘	-16.7222
👩	-16.7223
👨	-16.7224
👊	-16.7225
🎼	-16.7226
发	-16.7227
〇	-16.7228
∫	-16.7229
હ	-16.723
С	-16.7231
М	-16.7232
̄	-16.7233
🦋	-16.7234
💯	-16.7235
🇿	-16.7236
◉	-16.7237
ٝ	-16.7238
ւ	-16.7239
¶	-16.724
🤩	-16.7241
⚘	-16.7242
☝	-16.7243
▲	-16.7244
「	-16.7245
➡	-16.7246
☹	-16.7247
▼	-16.7248
†	-16.7249
۞	-16.725
※	-16.7251
๋	-16.7252
🙏	-16.7253
Ö	-16.7254
😄	-16.7255
इ	-16.7256
ڿ	-16.7257
ؐ	-16.7258
Å	-16.7259
▐	-16.726
😛	-16.7261
✔	-16.7262
̧	-16.7263
‡	-16.7264
¡	-16.7265
😜	-16.7266
ү	-16.7267
‐	-16.7268
¿	-16.7269
ド	-16.727
シ	-16.7271
◆	-16.7272
≤	-16.7273
😀	-16.7274
›	-16.7275
↑	-16.7276
😁	-16.7277
Ô	-16.7278
พ	-16.7279
′	-16.7279
ป	-16.7279
ล	-16.728
ห	-16.728
เ	-16.728
►	-16.728
К	-16.728
Ѣ	-16.728
Ҏ	-16.728
Ҩ	-16.728
ආ	-16.728
ය	-16.728
ව	-16.728
ශ	-16.728
ෙ	-16.728
᭄	-16.728
⃕	-16.728
サ	-16.728
何	-16.728
如	-16.728
瑞	-16.728
用	-16.728
语	-16.728
鲁	-16.728
ꦿ	-16.728
ɕ	-16.728
ß	-16.728
đ	-16.728
̩	-16.728
̬	-16.728
Μ	-16.728
צ	-16.728
শ	-16.728
ಂ	-16.728
ಸ	-16.728
ፈ	-16.728
Ἄ	-16.728
🍉	-16.728
ļ	-16.728
ș	-16.728
ڰ	-16.728
ᑐ	-16.728
超	-16.728
Ż	-16.728
Â	-16.728
È	-16.728
Ó	-16.728
Û	-16.728
ù	-16.728
þ	-16.728
Ą	-16.728
ĉ	-16.728
Č	-16.728
Ď	-16.728
ė	-16.728
Ę	-16.728
Ĥ	-16.728
ī	-16.728
į	-16.728
ĸ	-16.728
ĺ	-16.728
Ň	-16.728
ŋ	-16.728
ŏ	-16.728
Ř	-16.728
Ŝ	-16.728
ŝ	-16.728
Ť	-16.728
ŭ	-16.728
ű	-16.728
ź	-16.728
Ɓ	-16.728
Ɠ	-16.728
Ɣ	-16.728
Ɲ	-16.728
Ƴ	-16.728
ƽ	-16.728
ǟ	-16.728
ǰ	-16.728
Ǿ	-16.728
ȅ	-16.728
Ȋ	-16.728
ț	-16.728
ɞ	-16.728
ɣ	-16.728
ɨ	-16.728
ɴ	-16.728
ʃ	-16.728
ʔ	-16.728
ʞ	-16.728
ˆ	-16.728
˹	-16.728
˼	-16.728
́	-16.728
̖	-16.728
̗	-16.728
̠	-16.728
̮	-16.728
̸	-16.728
͛	-16.728
ͦ	-16.728
Ά	-16.728
Έ	-16.728
ΐ	-16.728
Η	-16.728
Θ	-16.728
Ι	-16.728
Ρ	-16.728
Σ	-16.728
Ψ	-16.728
Ϋ	-16.728
ά	-16.728
ή	-16.728
κ	-16.728
χ	-16.728
Ј	-16.728
А	-16.728
Г	-16.728
Й	-16.728
ј	-16.728
ћ	-16.728
Ѧ	-16.728
қ	-16.728
Ұ	-16.728
ҷ	-16.728
ҽ	-16.728
Պ	-16.728
բ	-16.728
ձ	-16.728
ղ	-16.728
յ	-16.728
վ	-16.728
ք	-16.728
ִ	-16.728
ס	-16.728
ת	-16.728
؎	-16.728
ٯ	-16.728
ڐ	-16.728
ڗ	-16.728
ڟ	-16.728
ۚ	-16.728
ۢ	-16.728
ۥ	-16.728
ۺ	-16.728
܀	-16.728
ܨ	-16.728
ܪ	-16.728
ܵ	-16.728
ݐ	-16.728
ݒ	-16.728
ݘ	-16.728
ݧ	-16.728
ހ	-16.728
ވ	-16.728
ߙ	-16.728
࣪	-16.728
ओ	-16.728
ङ	-16.728
़	-16.728
ॉ	-16.728
॒	-16.728
०	-16.728
८	-16.728
অ	-16.728
ই	-16.728
উ	-16.728
এ	-16.728
ঘ	-16.728
ছ	-16.728
জ	-16.728
ধ	-16.728
ভ	-16.728
ਈ	-16.728
ਕ	-16.728
ਜ	-16.728
ਥ	-16.728
ਲ	-16.728
ਹ	-16.728
ੇ	-16.728
ੈ	-16.728
ੋ	-16.728
ખ	-16.728
છ	-16.728
ડ	-16.728
થ	-16.728
ધ	-16.728
પ	-16.728
સ	-16.728
ુ	-16.728
୪	-16.728
ற	-16.728
ఎ	-16.728
ధ	-16.728
ప	-16.728
ో	-16.728
ಡ	-16.728
ಧ	-16.728
ഉ	-16.728
ത	-16.728
ധ	-16.728
പ	-16.728
ള	-16.728
උ	-16.728
ක	-16.728
ල	-16.728
ෑ	-16.728
บ	-16.728
อ	-16.728
ฮ	-16.728
ะ	-16.728
ຂ	-16.728
ທ	-16.728
ນ	-16.728
ພ	-16.728
ມ	-16.728
່	-16.728
༄	-16.728
༅	-16.728
༺	-16.728
࿅	-16.728
ა	-16.728
თ	-16.728
კ	-16.728
მ	-16.728
ნ	-16.728
უ	-16.728
ქ	-16.728
ም	-16.728
ሩ	-16.728
ር	-16.728
ሳ	-16.728
ቦ	-16.728
ታ	-16.728
ት	-16.728
ነ	-16.728
ኔ	-16.728
ኝ	-16.728
አ	-16.728
ወ	-16.728
ዎ	-16.728
ዴ	-16.728
ጋ	-16.728
ጎ	-16.728
ጣ	-16.728
ጥ	-16.728
ញ	-16.728
ព	-16.728
ភ	-16.728
េ	-16.728
ំ	-16.728
្	-16.728
᪣	-16.728
ᴋ	-16.728
᷂	-16.728
ḑ	-16.728
ḭ	-16.728
ḿ	-16.728
Ṉ	-16.728
ṛ	-16.728
Ṝ	-16.728
Ṧ	-16.728
ṩ	-16.728
Ṽ	-16.728
Ạ	-16.728
Ể	-16.728
ệ	-16.728
Ụ	-16.728
ụ	-16.728
ỹ	-16.728
⁀	-16.728
₦	-16.728
₳	-16.728
₹	-16.728
₼	-16.728
⃟	-16.728
⃢	-16.728
↙	-16.728
↜	-16.728
↝	-16.728
↣	-16.728
↤	-16.728
↫	-16.728
↲	-16.728
↷	-16.728
⇐	-16.728
⇜	-16.728
⇢	-16.728
∂	-16.728
∇	-16.728
∟	-16.728
∴	-16.728
≯	-16.728
⏆	-16.728
⏩	-16.728
┇	-16.728
═	-16.728
▂	-16.728
▃	-16.728
□	-16.728
▫	-16.728
◝	-16.728
◤	-16.728
◥	-16.728
◾	-16.728
☁	-16.728
☃	-16.728
☄	-16.728
☚	-16.728
☛	-16.728
☠	-16.728
☽	-16.728
☿	-16.728
♃	-16.728
♄	-16.728
♈	-16.728
♊	-16.728
♋	-16.728
♎	-16.728
♏	-16.728
♒	-16.728
♓	-16.728
♭	-16.728
⚒	-16.728
⚠	-16.728
⛳	-16.728
⛺	-16.728
✇	-16.728
✜	-16.728
✭	-16.728
✳	-16.728
❒	-16.728
❔	-16.728
❶	-16.728
➓	-16.728
➘	-16.728
➟	-16.728
➥	-16.728
➬	-16.728
⦿	-16.728
⬅	-16.728
⬆	-16.728
⬸	-16.728
⸁	-16.728
⸙	-16.728
〈	-16.728
〉	-16.728
》	-16.728
あ	-16.728
え	-16.728
お	-16.728
か	-16.728
が	-16.728
く	-16.728
さ	-16.728
へ	-16.728
ょ	-16.728
わ	-16.728
ん	-16.728
イ	-16.728
エ	-16.728
ク	-16.728
ス	-16.728
チ	-16.728
ッ	-16.728
マ	-16.728
一	-16.728
了	-16.728
传	-16.728
位	-16.728
力	-16.728
午	-16.728
南	-16.728
厩	-16.728
吗	-16.728
国	-16.728
场	-16.728
多	-16.728
子	-16.728
学	-16.728
它	-16.728
少	-16.728
屋	-16.728
庆	-16.728
彙	-16.728
很	-16.728
惠	-16.728
打	-16.728
教	-16.728
料	-16.728
斯	-16.728
於	-16.728
月	-16.728
机	-16.728
泊	-16.728
爱	-16.728
电	-16.728
着	-16.728
示	-16.728
科	-16.728
篇	-16.728
終	-16.728
纳	-16.728
节	-16.728
花	-16.728
葬	-16.728
藍	-16.728
要	-16.728
话	-16.728
谷	-16.728
辛	-16.728
迪	-16.728
邏	-16.728
钱	-16.728
际	-16.728
雨	-16.728
顯	-16.728
ꓤ	-16.728
ꔫ	-16.728
ꟽ	-16.728
ꪝ	-16.728
ꫀ	-16.728
ꫛ	-16.728
각	-16.728
금	-16.728
길	-16.728
는	-16.728
래	-16.728
리	-16.728
마	-16.728
만	-16.728
문	-16.728
방	-16.728
서	-16.728
손	-16.728
시	-16.728
에	-16.728
연	-16.728
요	-16.728
우	-16.728
져	-16.728
좋	-16.728
지	-16.728
하	-16.728
할	-16.728
형	-16.728
효	-16.728
희	-16.728
﮶	-16.728
𐎚	-16.728
𐭪	-16.728
𓆩	-16.728
𖣂	-16.728
𖤈	-16.728
𖤍	-16.728
🅛	-16.728
🅦	-16.728
🇦	-16.728
🇧	-16.728
🇱	-16.728
🇲	-16.728
🇵	-16.728
🇷	-16.728
🇹	-16.728
🌍	-16.728
🌎	-16.728
🌓	-16.728
🌔	-16.728
🌙	-16.728
🌜	-16.728
🌝	-16.728
🌞	-16.728
🌧	-16.728
🌱	-16.728
🌵	-16.728
🌺	-16.728
🍂	-16.728
🍃	-16.728
🍇	-16.728
🍕	-16.728
🍩	-16.728
🍰	-16.728
🍷	-16.728
🍻	-16.728
🍾	-16.728
🍿	-16.728
🎁	-16.728
🎃	-16.728
🎅	-16.728
🎞	-16.728
🎥	-16.728
🎨	-16.728
🎯	-16.728
🎶	-16.728
🏆	-16.728
🏊	-16.728
🏖	-16.728
🏣	-16.728
🏭	-16.728
🏳	-16.728
🏹	-16.728
🏽	-16.728
🐍	-16.728
🐕	-16.728
🐾	-16.728
👃	-16.728
👅	-16.728
👋	-16.728
👕	-16.728
👠	-16.728
👢	-16.728
👧	-16.728
👭	-16.728
👰	-16.728
👲	-16.728
👳	-16.728
👾	-16.728
💀	-16.728
💃	-16.728
💇	-16.728
💈	-16.728
💒	-16.728
💣	-16.728
💦	-16.728
💷	-16.728
📄	-16.728
📑	-16.728
📛	-16.728
📥	-16.728
📩	-16.728
📮	-16.728
📲	-16.728
📸	-16.728
📿	-16.728
🔆	-16.728
🔈	-16.728
🔐	-16.728
🔗	-16.728
🕊	-16.728
🕌	-16.728
🖼	-16.728
🗯	-16.728
🗿	-16.728
😑	-16.728
😧	-16.728
😩	-16.728
😲	-16.728
😷	-16.728
🙃	-16.728
🙅	-16.728
🙆	-16.728
🙇	-16.728
🙋	-16.728
🙌	-16.728
🚌	-16.728
🚓	-16.728
🚣	-16.728
🚨	-16.728
🚫	-16.728
🚭	-16.728
🚵	-16.728
🚷	-16.728
🛌	-16.728
🛐	-16.728
🛒	-16.728
🛰	-16.728
🟥	-16.728
🤒	-16.728
🤕	-16.728
🤚	-16.728
🤟	-16.728
🤠	-16.728
🤲	-16.728
🤸	-16.728
🤹	-16.728
🦯	-16.728
🦽	-16.728
🧑	-16.728
🧖	-16.728
🧚	-16.728
🧝	-16.728
æ	-16.728
ʚ	-16.728
ܒ	-16.728
घ	-16.728
१	-16.728
ਮ	-16.728
హ	-16.728
በ	-16.728
ዘ	-16.728
Ḿ	-16.728
☔	-16.728
な	-16.728
古	-16.728
年	-16.728
波	-16.728
端	-16.728
职	-16.728
背	-16.728
다	-16.728
송	-16.728
얼	-16.728
조	-16.728
Ð	-16.728
Ģ	-16.728
ĵ	-16.728
Ō	-16.728
ř	-16.728
̋	-16.728
̌	-16.728
Ӎ	-16.728
ৌ	-16.728
ਇ	-16.728
ੱ	-16.728
చ	-16.728
డ	-16.728
ే	-16.728
ಕ	-16.728
സ	-16.728
ላ	-16.728
ጠ	-16.728
ፍ	-16.728
ᴀ	-16.728
バ	-16.728
ム	-16.728
ヮ	-16.728
之	-16.728
云	-16.728
刀	-16.728
報	-16.728
夢	-16.728
彩	-16.728
情	-16.728
機	-16.728
蝶	-16.728
詞	-16.728
隨	-16.728
ꪆ	-16.728
대	-16.728
솔	-16.728
양	-16.728
정	-16.728
평	-16.728
해	-16.728
화	-16.728
𐭣	-16.728
𐭦	-16.728
𐭬	-16.728
🅚	-16.728
🅜	-16.728
🌛	-16.728
ŧ	-16.7281
̝	-16.7281
Ћ	-16.7281
փ	-16.7281
ג	-16.7281
ਪ	-16.7281
ఇ	-16.7281
℘	-16.7281
感	-16.7281
謝	-16.7281
£	-16.7281
ิ	-16.7281
ກ	-16.7281
ຈ	-16.7281
ຖ	-16.7281
ຢ	-16.7281
ະ	-16.7281
ົ	-16.7281
ເ	-16.7281
✞	-16.7281
ꖾ	-16.7281
𓆪	-16.7281
