[UNK]	0
[CLS]	1
[SEP]	2
[PAD]	3
[MASK]	4
!	5
"	6
#	7
$	8
%	9
&	10
'	11
(	12
)	13
*	14
+	15
,	16
-	17
.	18
/	19
0	20
1	21
2	22
3	23
4	24
5	25
6	26
7	27
8	28
9	29
:	30
;	31
<	32
=	33
>	34
?	35
@	36
[	37
\	38
]	39
^	40
_	41
a	42
b	43
c	44
d	45
e	46
f	47
g	48
h	49
i	50
j	51
k	52
l	53
m	54
n	55
o	56
p	57
q	58
r	59
s	60
t	61
u	62
v	63
w	64
x	65
y	66
z	67
{	68
|	69
}	70
~	71
¡	72
¢	73
£	74
¤	75
¥	76
¦	77
§	78
©	79
¬	80
®	81
°	82
±	83
¶	84
·	85
¿	86
×	87
ß	88
à	89
á	90
â	91
ã	92
ä	93
å	94
æ	95
ç	96
è	97
é	98
ê	99
ë	100
ì	101
í	102
î	103
ï	104
ð	105
ñ	106
ò	107
ó	108
ô	109
õ	110
ö	111
÷	112
ø	113
ù	114
ú	115
û	116
ü	117
ý	118
þ	119
ā	120
ă	121
ą	122
ć	123
ĉ	124
č	125
ď	126
đ	127
ē	128
ė	129
ę	130
ě	131
ğ	132
ģ	133
ĥ	134
ħ	135
ī	136
į	137
ı	138
ĵ	139
ĸ	140
ĺ	141
ļ	142
ł	143
ň	144
ŋ	145
ō	146
ŏ	147
œ	148
ř	149
ś	150
ŝ	151
ş	152
š	153
ť	154
ŧ	155
ŭ	156
ů	157
ű	158
ź	159
ż	160
ž	161
ƒ	162
ƛ	163
ơ	164
ƴ	165
ƽ	166
ǝ	167
ǟ	168
ǰ	169
ǿ	170
ȅ	171
ȋ	172
ș	173
ț	174
ɑ	175
ɓ	176
ɕ	177
ə	178
ɛ	179
ɞ	180
ɠ	181
ɣ	182
ɨ	183
ɪ	184
ɲ	185
ɴ	186
ʀ	187
ʃ	188
ʊ	189
ʒ	190
ʔ	191
ʚ	192
ʞ	193
ʻ	194
ˆ	195
ˇ	196
ˈ	197
ˌ	198
ː	199
˹	200
˼	201
̀	202
́	203
̃	204
̄	205
̅	206
̇	207
̈	208
̉	209
̊	210
̋	211
̌	212
̍	213
̐	214
̖	215
̗	216
̝	217
̠	218
̣	219
̤	220
̥	221
̧	222
̨	223
̩	224
̬	225
̮	226
̯	227
̲	228
̳	229
̵	230
̶	231
̷	232
̸	233
͛	234
͜	235
͠	236
͡	237
ͦ	238
ΐ	239
ά	240
έ	241
ή	242
ί	243
α	244
β	245
γ	246
δ	247
ε	248
ζ	249
η	250
θ	251
ι	252
κ	253
λ	254
μ	255
ν	256
ξ	257
ο	258
π	259
ρ	260
ς	261
σ	262
τ	263
υ	264
φ	265
χ	266
ψ	267
ω	268
ϋ	269
ό	270
ώ	271
ϟ	272
ϻ	273
а	274
б	275
в	276
г	277
д	278
е	279
ж	280
з	281
и	282
й	283
к	284
л	285
м	286
н	287
о	288
п	289
р	290
с	291
т	292
у	293
х	294
ц	295
ч	296
ш	297
ъ	298
ы	299
ь	300
э	301
ю	302
я	303
є	304
і	305
ј	306
ћ	307
ѣ	308
ѧ	309
҉	310
ҏ	311
ґ	312
қ	313
ҩ	314
ү	315
ұ	316
ҳ	317
ҷ	318
ҽ	319
ӎ	320
ө	321
ա	322
բ	323
ե	324
է	325
ը	326
ի	327
լ	328
խ	329
կ	330
հ	331
ձ	332
ղ	333
մ	334
յ	335
ն	336
ո	337
չ	338
պ	339
ռ	340
ս	341
վ	342
տ	343
ր	344
ց	345
ւ	346
փ	347
ք	348
ֆ	349
ִ	350
ּ	351
ֿ	352
א	353
ב	354
ג	355
ד	356
ה	357
ו	358
ז	359
ח	360
ט	361
י	362
ך	363
כ	364
ל	365
ם	366
מ	367
ן	368
נ	369
ס	370
ע	371
פ	372
צ	373
ר	374
ש	375
ת	376
؋	377
،	378
؍	379
؎	380
؏	381
ؐ	382
ؑ	383
ؒ	384
ؓ	385
؛	386
؟	387
ء	388
آ	389
أ	390
ؤ	391
إ	392
ئ	393
ا	394
ب	395
ة	396
ت	397
ث	398
ج	399
ح	400
خ	401
د	402
ذ	403
ر	404
ز	405
س	406
ش	407
ص	408
ض	409
ط	410
ظ	411
ع	412
غ	413
ػ	414
ؼ	415
ؽ	416
ؾ	417
ؿ	418
ـ	419
ف	420
ق	421
ك	422
ل	423
م	424
ن	425
ه	426
و	427
ى	428
ي	429
ً	430
ٌ	431
ٍ	432
َ	433
ُ	434
ِ	435
ّ	436
ْ	437
ٓ	438
ٔ	439
ٕ	440
ٖ	441
ٗ	442
٘	443
ٙ	444
ٚ	445
ٛ	446
ٜ	447
ٝ	448
ٞ	449
ٟ	450
٠	451
١	452
٢	453
٣	454
٤	455
٥	456
٦	457
٧	458
٨	459
٩	460
٪	461
٫	462
٬	463
٭	464
ٮ	465
ٯ	466
ٰ	467
ٱ	468
ٲ	469
ٳ	470
ٴ	471
ٹ	472
ٺ	473
ٻ	474
ټ	475
ٽ	476
پ	477
ٿ	478
ڀ	479
ځ	480
ڂ	481
ڃ	482
ڄ	483
څ	484
چ	485
ڇ	486
ڈ	487
ډ	488
ڊ	489
ڋ	490
ڌ	491
ڍ	492
ڎ	493
ڏ	494
ڐ	495
ڑ	496
ڒ	497
ړ	498
ڔ	499
ڕ	500
ږ	501
ڗ	502
ژ	503
ڙ	504
ښ	505
ڛ	506
ڜ	507
ڝ	508
ڞ	509
ڟ	510
ڠ	511
ڣ	512
ڤ	513
ڦ	514
ڨ	515
ک	516
ڪ	517
ګ	518
ڭ	519
گ	520
ڰ	521
ڱ	522
ڲ	523
ڳ	524
ڵ	525
ڶ	526
ڷ	527
ڸ	528
ڹ	529
ں	530
ڻ	531
ڼ	532
ڽ	533
ھ	534
ڿ	535
ۀ	536
ہ	537
ۂ	538
ۃ	539
ۄ	540
ۅ	541
ۆ	542
ۇ	543
ۈ	544
ۉ	545
ۊ	546
ۋ	547
ی	548
ۍ	549
ێ	550
ۏ	551
ې	552
ۑ	553
ے	554
ۓ	555
۔	556
ە	557
ۗ	558
ۘ	559
ۙ	560
ۚ	561
ۛ	562
ۜ	563
۞	564
ۡ	565
ۢ	566
ۣ	567
ۤ	568
ۥ	569
ۦ	570
ۧ	571
ۨ	572
۩	573
۪	574
۫	575
۬	576
۰	577
۱	578
۲	579
۳	580
۴	581
۵	582
۶	583
۷	584
۸	585
۹	586
ۺ	587
ۼ	588
۽	589
۾	590
ۿ	591
܀	592
ܒ	593
ܓ	594
ܢ	595
ܨ	596
ܪ	597
ܵ	598
ݐ	599
ݒ	600
ݖ	601
ݘ	602
ݛ	603
ݢ	604
ݥ	605
ݦ	606
ݧ	607
ݨ	608
ݩ	609
ݪ	610
ހ	611
ވ	612
ެ	613
ߙ	614
ࡗ	615
ࢦ	616
ࢪ	617
࣪	618
ँ	619
ं	620
ः	621
अ	622
आ	623
इ	624
ई	625
उ	626
ए	627
ओ	628
क	629
ख	630
ग	631
घ	632
ङ	633
च	634
छ	635
ज	636
झ	637
ञ	638
ट	639
ठ	640
ड	641
ढ	642
ण	643
त	644
थ	645
द	646
ध	647
न	648
प	649
फ	650
ब	651
भ	652
म	653
य	654
र	655
ल	656
व	657
श	658
ष	659
स	660
ह	661
़	662
ा	663
ि	664
ी	665
ु	666
ू	667
ृ	668
े	669
ै	670
ॉ	671
ो	672
ौ	673
्	674
॒	675
ॡ	676
।	677
॥	678
०	679
१	680
८	681
অ	682
আ	683
ই	684
উ	685
এ	686
ঔ	687
ক	688
খ	689
ঘ	690
ছ	691
জ	692
ট	693
ড	694
ত	695
দ	696
ধ	697
ন	698
ব	699
ভ	700
ম	701
য	702
র	703
ল	704
শ	705
স	706
়	707
া	708
ি	709
ু	710
ে	711
ো	712
ৌ	713
্	714
ਂ	715
ਇ	716
ਈ	717
ਕ	718
ਜ	719
ਥ	720
ਧ	721
ਪ	722
ਬ	723
ਮ	724
ਰ	725
ਲ	726
ਸ	727
ਹ	728
ਾ	729
ਿ	730
ੀ	731
ੇ	732
ੈ	733
ੋ	734
ੰ	735
ੱ	736
ં	737
ક	738
ખ	739
ચ	740
છ	741
ટ	742
ડ	743
થ	744
ધ	745
પ	746
ર	747
સ	748
હ	749
ા	750
િ	751
ી	752
ુ	753
ે	754
ો	755
୪	756
୭	757
ஐ	758
ஓ	759
ற	760
ం	761
ఇ	762
ఉ	763
ఎ	764
క	765
చ	766
డ	767
ద	768
ధ	769
న	770
ప	771
య	772
ల	773
వ	774
స	775
హ	776
ా	777
ి	778
ీ	779
ు	780
ే	781
ో	782
్	783
ಂ	784
ಈ	785
ಕ	786
ಡ	787
ಧ	788
ನ	789
ಲ	790
ಸ	791
ಿ	792
ೋ	793
್	794
ഉ	795
ങ	796
ത	797
ധ	798
ന	799
പ	800
ള	801
സ	802
ി	803
്	804
ආ	805
උ	806
ක	807
න	808
ම	809
ය	810
ල	811
ව	812
ශ	813
ස	814
්	815
ෑ	816
ි	817
ෙ	818
ก	819
ค	820
ฉ	821
ณ	822
ด	823
ถ	824
ท	825
น	826
บ	827
ป	828
พ	829
ม	830
ย	831
ล	832
ส	833
ห	834
อ	835
ฮ	836
ะ	837
ั	838
า	839
ิ	840
ี	841
ุ	842
เ	843
ไ	844
ๅ	845
่	846
้	847
๋	848
๑	849
๛	850
ກ	851
ຂ	852
ຈ	853
ຖ	854
ທ	855
ນ	856
ພ	857
ມ	858
ຢ	859
ະ	860
າ	861
ົ	862
ເ	863
່	864
້	865
໑	866
༄	867
༅	868
༺	869
ཻ	870
࿅	871
࿑	872
ა	873
დ	874
ე	875
თ	876
ი	877
კ	878
მ	879
ნ	880
რ	881
ს	882
უ	883
ქ	884
ღ	885
ᄑ	886
ᄒ	887
ᅲ	888
ሂ	889
ህ	890
ለ	891
ላ	892
ል	893
ም	894
ሩ	895
ር	896
ሳ	897
ስ	898
ቅ	899
በ	900
ቦ	901
ታ	902
ት	903
ነ	904
ኔ	905
ን	906
ኝ	907
አ	908
እ	909
ወ	910
ው	911
ዎ	912
ዘ	913
ይ	914
ዴ	915
ድ	916
ጋ	917
ጎ	918
ጠ	919
ጣ	920
ጥ	921
ፈ	922
ፍ	923
ᑐ	924
ᓄ	925
ᓅ	926
ᓆ	927
ᓘ	928
ញ	929
ន	930
ព	931
ភ	932
េ	933
ំ	934
្	935
᪣	936
ᬼ	937
ᭁ	938
᭄	939
ᴀ	940
ᴋ	941
ᴗ	942
᷂	943
ḑ	944
ḭ	945
ḿ	946
ṁ	947
ṃ	948
ṇ	949
ṉ	950
ṛ	951
ṝ	952
ṣ	953
ṧ	954
ṩ	955
ṭ	956
ṽ	957
ạ	958
ẹ	959
ể	960
ệ	961
ị	962
ọ	963
ố	964
ở	965
ụ	966
ỳ	967
ỹ	968
ἄ	969
‐	970
‛	971
‟	972
†	973
‡	974
•	975
′	976
‹	977
›	978
※	979
‿	980
⁀	981
⁄	982
₥	983
₦	984
₩	985
₪	986
€	987
₳	988
₹	989
₼	990
₽	991
⃕	992
⃟	993
⃢	994
⃣	995
⃫	996
℘	997
←	998
↑	999
→	1000
↓	1001
↔	1002
↙	1003
↜	1004
↝	1005
↣	1006
↤	1007
↩	1008
↫	1009
↯	1010
↲	1011
↴	1012
↷	1013
⇄	1014
⇐	1015
⇜	1016
⇠	1017
⇡	1018
⇢	1019
⇣	1020
⇦	1021
∀	1022
∂	1023
∇	1024
−	1025
√	1026
∞	1027
∟	1028
∫	1029
∴	1030
≈	1031
≠	1032
≤	1033
≥	1034
≦	1035
≧	1036
≯	1037
⊙	1038
⋆	1039
⌘	1040
⏆	1041
⏩	1042
⏪	1043
─	1044
┇	1045
═	1046
╚	1047
╝	1048
╦	1049
╫	1050
╬	1051
▂	1052
▃	1053
▌	1054
▐	1055
■	1056
□	1057
▪	1058
▫	1059
▲	1060
▶	1061
▷	1062
►	1063
▼	1064
▽	1065
◀	1066
◄	1067
◆	1068
◇	1069
◈	1070
◉	1071
◊	1072
○	1073
◍	1074
◎	1075
●	1076
◕	1077
◝	1078
◣	1079
◤	1080
◥	1081
◦	1082
◩	1083
◪	1084
◾	1085
☀	1086
☁	1087
☂	1088
☃	1089
☄	1090
★	1091
☆	1092
☑	1093
☔	1094
☘	1095
☚	1096
☛	1097
☜	1098
☝	1099
☠	1100
☹	1101
☺	1102
☻	1103
☼	1104
☽	1105
☿	1106
♀	1107
♂	1108
♃	1109
♄	1110
♈	1111
♉	1112
♊	1113
♋	1114
♌	1115
♍	1116
♎	1117
♏	1118
♒	1119
♓	1120
♚	1121
♛	1122
♠	1123
♡	1124
♢	1125
♣	1126
♤	1127
♥	1128
♦	1129
♩	1130
♪	1131
♫	1132
♬	1133
♭	1134
♯	1135
⚒	1136
⚘	1137
⚠	1138
⚡	1139
⚫	1140
⚽	1141
⛳	1142
⛺	1143
✅	1144
✇	1145
✈	1146
✋	1147
✌	1148
✍	1149
✓	1150
✔	1151
✖	1152
✗	1153
✘	1154
✜	1155
✞	1156
✦	1157
✧	1158
✨	1159
✫	1160
✭	1161
✮	1162
✯	1163
✳	1164
✴	1165
✷	1166
✿	1167
❀	1168
❌	1169
❒	1170
❓	1171
❔	1172
❕	1173
❖	1174
❗	1175
❝	1176
❞	1177
❢	1178
❣	1179
❤	1180
❥	1181
❦	1182
❧	1183
❶	1184
➓	1185
➘	1186
➟	1187
➡	1188
➢	1189
➥	1190
➬	1191
⠀	1192
⦿	1193
⬅	1194
⬆	1195
⬸	1196
⭐	1197
⭕	1198
ⴢ	1199
⸁	1200
⸙	1201
、	1202
。	1203
〇	1204
〈	1205
〉	1206
》	1207
「	1208
」	1209
『	1210
』	1211
【	1212
】	1213
〖	1214
〗	1215
あ	1216
い	1217
う	1218
え	1219
お	1220
か	1221
が	1222
く	1223
さ	1224
じ	1225
な	1226
の	1227
へ	1228
ほ	1229
ょ	1230
よ	1231
り	1232
わ	1233
を	1234
ん	1235
イ	1236
エ	1237
ク	1238
コ	1239
サ	1240
シ	1241
ス	1242
タ	1243
チ	1244
ッ	1245
ツ	1246
ト	1247
ド	1248
ノ	1249
バ	1250
パ	1251
ピ	1252
マ	1253
ミ	1254
ム	1255
ュ	1256
ヮ	1257
ン	1258
・	1259
ー	1260
ㄨ	1261
一	1262
上	1263
之	1264
了	1265
云	1266
以	1267
传	1268
位	1269
何	1270
你	1271
刀	1272
力	1273
午	1274
南	1275
厩	1276
发	1277
古	1278
可	1279
吗	1280
嘅	1281
国	1282
场	1283
報	1284
多	1285
夢	1286
如	1287
子	1288
学	1289
它	1290
少	1291
屋	1292
年	1293
庆	1294
彙	1295
彩	1296
很	1297
情	1298
惠	1299
感	1300
我	1301
打	1302
教	1303
料	1304
斯	1305
於	1306
月	1307
机	1308
機	1309
泊	1310
波	1311
爱	1312
瑞	1313
用	1314
电	1315
発	1316
發	1317
的	1318
真	1319
着	1320
示	1321
科	1322
端	1323
篇	1324
終	1325
纳	1326
者	1327
职	1328
背	1329
节	1330
花	1331
菜	1332
葬	1333
藍	1334
蝶	1335
要	1336
詞	1337
語	1338
謝	1339
话	1340
语	1341
谷	1342
超	1343
辛	1344
迪	1345
邏	1346
钱	1347
际	1348
隨	1349
雨	1350
音	1351
顯	1352
鲁	1353
ꓘ	1354
ꓤ	1355
ꔫ	1356
ꖾ	1357
ꟽ	1358
ꦿ	1359
ꪆ	1360
ꪝ	1361
ꫀ	1362
ꫛ	1363
각	1364
금	1365
길	1366
나	1367
는	1368
다	1369
대	1370
래	1371
리	1372
마	1373
만	1374
문	1375
방	1376
법	1377
서	1378
손	1379
솔	1380
송	1381
시	1382
양	1383
얼	1384
에	1385
연	1386
요	1387
우	1388
정	1389
져	1390
조	1391
좋	1392
지	1393
직	1394
평	1395
하	1396
할	1397
해	1398
형	1399
화	1400
효	1401
희	1402
﮶	1403
﮼	1404
﴾	1405
﴿	1406
︎	1407
️	1408
�	1409
𐄒	1410
𐎚	1411
𐭣	1412
𐭦	1413
𐭪	1414
𐭬	1415
𓂅	1416
𓆩	1417
𓆪	1418
𖣂	1419
𖣴	1420
𖤈	1421
𖤍	1422
🅚	1423
🅛	1424
🅜	1425
🅦	1426
🇦	1427
🇧	1428
🇨	1429
🇩	1430
🇬	1431
🇮	1432
🇱	1433
🇲	1434
🇵	1435
🇶	1436
🇷	1437
🇸	1438
🇹	1439
🇺	1440
🇿	1441
🌆	1442
🌈	1443
🌍	1444
🌎	1445
🌓	1446
🌔	1447
🌙	1448
🌚	1449
🌛	1450
🌜	1451
🌝	1452
🌞	1453
🌟	1454
🌤	1455
🌧	1456
🌱	1457
🌵	1458
🌷	1459
🌸	1460
🌹	1461
🌺	1462
🌻	1463
🌼	1464
🌿	1465
🍀	1466
🍂	1467
🍃	1468
🍇	1469
🍉	1470
🍕	1471
🍩	1472
🍰	1473
🍷	1474
🍻	1475
🍼	1476
🍾	1477
🍿	1478
🎀	1479
🎁	1480
🎃	1481
🎅	1482
🎈	1483
🎞	1484
🎥	1485
🎧	1486
🎨	1487
🎯	1488
🎵	1489
🎶	1490
🎻	1491
🎼	1492
🏃	1493
🏆	1494
🏊	1495
🏖	1496
🏣	1497
🏭	1498
🏳	1499
🏹	1500
🏻	1501
🏼	1502
🏽	1503
🏾	1504
🏿	1505
🐍	1506
🐒	1507
🐕	1508
🐠	1509
🐢	1510
🐸	1511
🐾	1512
👀	1513
👃	1514
👅	1515
👆	1516
👇	1517
👈	1518
👉	1519
👊	1520
👋	1521
👌	1522
👍	1523
👎	1524
👑	1525
👕	1526
👠	1527
👢	1528
👤	1529
👧	1530
👨	1531
👩	1532
👭	1533
👰	1534
👲	1535
👳	1536
👾	1537
💀	1538
💃	1539
💅	1540
💇	1541
💈	1542
💋	1543
💍	1544
💐	1545
💒	1546
💓	1547
💔	1548
💕	1549
💖	1550
💗	1551
💘	1552
💙	1553
💚	1554
💛	1555
💜	1556
💝	1557
💞	1558
💠	1559
💡	1560
💣	1561
💦	1562
💪	1563
💫	1564
💮	1565
💯	1566
💰	1567
💷	1568
💻	1569
📄	1570
📑	1571
📚	1572
📛	1573
📥	1574
📩	1575
📮	1576
📲	1577
📷	1578
📸	1579
📿	1580
🔆	1581
🔈	1582
🔐	1583
🔒	1584
🔕	1585
🔗	1586
🔞	1587
🔥	1588
🔫	1589
🔱	1590
🔴	1591
🔶	1592
🔸	1593
🔹	1594
🔺	1595
🕊	1596
🕌	1597
🕘	1598
🖕	1599
🖤	1600
🖼	1601
🗯	1602
🗿	1603
😀	1604
😁	1605
😂	1606
😃	1607
😄	1608
😅	1609
😆	1610
😇	1611
😈	1612
😉	1613
😊	1614
😋	1615
😌	1616
😍	1617
😎	1618
😏	1619
😐	1620
😑	1621
😒	1622
😔	1623
😕	1624
😘	1625
😛	1626
😜	1627
😝	1628
😠	1629
😢	1630
😤	1631
😦	1632
😧	1633
😨	1634
😩	1635
😪	1636
😬	1637
😭	1638
😮	1639
😯	1640
😱	1641
😲	1642
😳	1643
😵	1644
😷	1645
😹	1646
😻	1647
😽	1648
😿	1649
🙁	1650
🙂	1651
🙃	1652
🙄	1653
🙅	1654
🙆	1655
🙇	1656
🙈	1657
🙊	1658
🙋	1659
🙌	1660
🙏	1661
🚌	1662
🚓	1663
🚣	1664
🚨	1665
🚫	1666
🚭	1667
🚵	1668
🚶	1669
🚷	1670
🛌	1671
🛐	1672
🛒	1673
🛫	1674
🛰	1675
🟥	1676
🤍	1677
🤎	1678
🤐	1679
🤒	1680
🤓	1681
🤔	1682
🤕	1683
🤚	1684
🤟	1685
🤠	1686
🤣	1687
🤤	1688
🤧	1689
🤨	1690
🤩	1691
🤪	1692
🤭	1693
🤲	1694
🤸	1695
🤹	1696
🥀	1697
🥇	1698
🥰	1699
🥺	1700
🦋	1701
🦦	1702
🦯	1703
🦼	1704
🦽	1705
🧐	1706
🧑	1707
🧖	1708
🧚	1709
🧝	1710
🧸	1711
##گ	1712
##ا	1713
##س	1714
##u	1715
##i	1716
##n	1717
##ن	1718
##ر	1719
##t	1720
##a	1721
##ط	1722
##ي	1723
##ة	1724
##ä	1725
##r	1726
##e	1727
##ح	1728
##ه	1729
##0	1730
##9	1731
##ئ	1732
##م	1733
##د	1734
##خ	1735
##ص	1736
##ت	1737
##پ	1738
##ڻ	1739
##و	1740
##ف	1741
##▌	1742
##o	1743
##ج	1744
##b	1745
##ب	1746
##ٽ	1747
##l	1748
##ل	1749
##ؤ	1750
##ش	1751
##ء	1752
##ڙ	1753
##ڪ	1754
##ك	1755
##ڊ	1756
##h	1757
##ق	1758
##ک	1759
##v	1760
##s	1761
##c	1762
##ٻ	1763
##ڏ	1764
##g	1765
##x	1766
##ی	1767
##ٹ	1768
##ڎ	1769
##ى	1770
##j	1771
##d	1772
##3	1773
##ۈ	1774
##y	1775
##(	1776
##.	1777
##ö	1778
##k	1779
##ز	1780
##f	1781
##ھ	1782
##ع	1783
##آ	1784
##m	1785
##ڛ	1786
##ـ	1787
##چ	1788
##н	1789
##ы	1790
##е	1791
##ړ	1792
##ُ	1793
##ډ	1794
##อ	1795
##ย	1796
##า	1797
##p	1798
##ہ	1799
##̃	1800
##ڇ	1801
##أ	1802
##!	1803
##ێ	1804
##ض	1805
##ث	1806
##ڵ	1807
##ڍ	1808
##َ	1809
##٢	1810
##ے	1811
##ٿ	1812
##ذ	1813
##غ	1814
##ځ	1815
##ظ	1816
##6	1817
##2	1818
##ې	1819
##ۉ	1820
##ټ	1821
##ڀ	1822
##ү	1823
##х	1824
##۹	1825
##٥	1826
##ٺ	1827
##ِ	1828
##ڑ	1829
##ố	1830
##ڳ	1831
##w	1832
##5	1833
##7	1834
##ڌ	1835
##א	1836
##ڈ	1837
##ګ	1838
##;	1839
##т	1840
##ڄ	1841
##z	1842
##٤	1843
##ህ	1844
##и	1845
##р	1846
##а	1847
##й	1848
##8	1849
##إ	1850
##1	1851
##_	1852
##,	1853
##🎁	1854
##ښ	1855
##ژ	1856
##•	1857
##﴿	1858
##ڃ	1859
##؟	1860
##-	1861
##*	1862
##ٱ	1863
##ږ	1864
##ڱ	1865
##ٰ	1866
##<	1867
##ˇ	1868
##ā	1869
##ڝ	1870
##ۑ	1871
##ً	1872
##ñ	1873
##ں	1874
##ڷ	1875
##é	1876
##=	1877
##ж	1878
##ç	1879
##😉	1880
##4	1881
##:	1882
##ٴ	1883
##ّ	1884
##q	1885
##ל	1886
##"	1887
##ב	1888
##ݪ	1889
##ۍ	1890
##ڤ	1891
##)	1892
##ṭ	1893
##♥	1894
##ۓ	1895
##ڼ	1896
##۵	1897
##۶	1898
##۰	1899
##۷	1900
##œ	1901
##۳	1902
##ۡ	1903
##٠	1904
##٩	1905
##ۊ	1906
##😂	1907
##ۅ	1908
##ٖ	1909
##ş	1910
##г	1911
##о	1912
##ּ	1913
##ι	1914
##к	1915
##♪	1916
##д	1917
##і	1918
##😍	1919
##ϻ	1920
##ẹ	1921
##ď	1922
##ݥ	1923
##+	1924
##ڣ	1925
##ü	1926
##ە	1927
##॒	1928
##ह	1929
##ࢦ	1930
##כ	1931
##פ	1932
##ᄒ	1933
##ा	1934
##थ	1935
##ۋ	1936
##ٍ	1937
##พ	1938
##ฉ	1939
##ı	1940
##̇	1941
##😆	1942
##ڂ	1943
##נ	1944
##ד	1945
##י	1946
##ڦ	1947
##ڹ	1948
##]	1949
##'	1950
##۴	1951
##व	1952
##~	1953
##ᴀ	1954
##ღ	1955
##ۆ	1956
##🌻	1957
##ด	1958
##>	1959
##ٔ	1960
##ْ	1961
##े	1962
##य	1963
##ก	1964
##څ	1965
##î	1966
##۔	1967
##ґ	1968
##٦	1969
##🏻	1970
##ػ	1971
##®	1972
##ٌ	1973
##ۇ	1974
##٭	1975
##è	1976
##✿	1977
##●	1978
##מ	1979
##ך	1980
##à	1981
##ц	1982
##/	1983
##۸	1984
##ो	1985
##£	1986
##۱	1987
##у	1988
##ã	1989
##ࢪ	1990
##ô	1991
##ʀ	1992
##에	1993
##서	1994
##ं	1995
##٘	1996
##ћ	1997
##β	1998
##ː	1999
##】	2000
##ט	2001
##с	2002
##í	2003
##٨	2004
##ڋ	2005
##▶	2006
##✘	2007
##č	2008
##🔥	2009
##в	2010
##ል	2011
##ጋ	2012
##ለ	2013
##ው	2014
##💗	2015
##【	2016
##🙈	2017
##🕊	2018
##٧	2019
##ۀ	2020
##◕	2021
##😅	2022
##ٗ	2023
##ग	2024
##@	2025
##ڸ	2026
##𐭣	2027
##𐭪	2028
##۽	2029
##м	2030
##ɑ	2031
##մ	2032
##$	2033
##ؽ	2034
##म	2035
##ο	2036
##😁	2037
##۲	2038
##ý	2039
##š	2040
##ڜ	2041
##ę	2042
##ŋ	2043
##ч	2044
##ю	2045
##л	2046
##،	2047
###	2048
##٣	2049
##ट	2050
##教	2051
##者	2052
##🤣	2053
##ɨ	2054
##ٲ	2055
##ȋ	2056
##❧	2057
##त	2058
##ि	2059
##🤍	2060
##ǟ	2061
##ọ	2062
##ल	2063
##イ	2064
##エ	2065
##ン	2066
##ス	2067
##ù	2068
##❤	2069
##ɪ	2070
##ٕ	2071
##छ	2072
##』	2073
##α	2074
##π	2075
##👀	2076
##{	2077
##؛	2078
##🎈	2079
##🤠	2080
##ٚ	2081
##♡	2082
##ڶ	2083
##ڿ	2084
##ۃ	2085
##ڽ	2086
##^	2087
##ể	2088
##ĺ	2089
##🌤	2090
##▽	2091
##ï	2092
##з	2093
##ꪆ	2094
##ਈ	2095
##◊	2096
##ò	2097
##💔	2098
##ஐ	2099
##ؼ	2100
##ị	2101
##ۄ	2102
##ë	2103
##◩	2104
##٪	2105
##❀	2106
##ド	2107
##語	2108
##ݢ	2109
##ٓ	2110
##ల	2111
##ా	2112
##١	2113
##💈	2114
##ڒ	2115
##😭	2116
##发	2117
##音	2118
##ܪ	2119
##ܵ	2120
##ó	2121
##ē	2122
##û	2123
##←	2124
##ۦ	2125
##♫	2126
##[	2127
##ሩ	2128
##ब	2129
##ै	2130
##ω	2131
##👍	2132
##ע	2133
##ר	2134
##♀	2135
##ไ	2136
##ป	2137
##ท	2138
##ݩ	2139
##🖕	2140
##〗	2141
##ई	2142
##ṇ	2143
##}	2144
##🌷	2145
##є	2146
##ք	2147
##ա	2148
##վ	2149
##ո	2150
##ෑ	2151
##ම	2152
##★	2153
##ž	2154
##ṛ	2155
##ڕ	2156
##ڨ	2157
##💜	2158
##ł	2159
##ō	2160
##🌍	2161
##ŭ	2162
##ڲ	2163
##å	2164
##٬	2165
##詞	2166
##彙	2167
##۾	2168
##ශ	2169
##ය	2170
##☺	2171
##ュ	2172
##ト	2173
##ー	2174
##😃	2175
##😹	2176
##😻	2177
##╦	2178
##💻	2179
##😋	2180
##ם	2181
##ż	2182
##ź	2183
##ۺ	2184
##着	2185
##屋	2186
##ڠ	2187
##♩	2188
##ħ	2189
##😊	2190
##ğ	2191
##🐒	2192
##◄	2193
##á	2194
##💙	2195
##💘	2196
##🏽	2197
##σ	2198
##ε	2199
##ς	2200
##ۿ	2201
##❕	2202
##ש	2203
##ו	2204
##😀	2205
##ь	2206
##ů	2207
##۞	2208
##′	2209
##◥	2210
##⚘	2211
##र	2212
##ň	2213
##💪	2214
##ш	2215
##ז	2216
##国	2217
##际	2218
##机	2219
##场	2220
##⃣	2221
##►	2222
##ۧ	2223
##👌	2224
##😈	2225
##ө	2226
##𓆩	2227
##ន	2228
##ě	2229
##🏼	2230
##可	2231
##以	2232
##顯	2233
##示	2234
##💓	2235
##⃢	2236
##ಈ	2237
##†	2238
##╝	2239
##节	2240
##打	2241
##电	2242
##话	2243
##吗	2244
##😝	2245
##į	2246
##›	2247
##ڭ	2248
##¬	2249
##💚	2250
##ታ	2251
##ડ	2252
##₩	2253
##バ	2254
##ッ	2255
##ク	2256
##ؿ	2257
##·	2258
##ց	2259
##ե	2260
##լ	2261
##ן	2262
##&	2263
##æ	2264
##ƛ	2265
##ƴ	2266
##ɲ	2267
##ρ	2268
##ί	2269
##🥀	2270
##👊	2271
##😵	2272
##◣	2273
##ê	2274
##🦋	2275
##云	2276
##之	2277
##南	2278
##°	2279
##€	2280
##მ	2281
##ს	2282
##â	2283
##հ	2284
##տ	2285
##ພ	2286
##ະ	2287
##ເ	2288
##ຈ	2289
##🙏	2290
##చ	2291
##用	2292
##鲁	2293
##瑞	2294
##ά	2295
##ř	2296
##🌹	2297
##ٛ	2298
##%	2299
##ś	2300
##¦	2301
##ǝ	2302
##ꟽ	2303
##ր	2304
##ւ	2305
##ɛ	2306
##🌸	2307
##×	2308
##न	2309
##ٙ	2310
##ે	2311
##ટ	2312
##♭	2313
##發	2314
##コ	2315
##マ	2316
##ۏ	2317
##?	2318
##ռ	2319
##я	2320
##ì	2321
##ΐ	2322
##ɞ	2323
##յ	2324
##կ	2325
##ի	2326
##ノ	2327
##の	2328
##ु	2329
##ն	2330
##§	2331
##ಡ	2332
##ụ	2333
##う	2334
##ほ	2335
##ე	2336
##კ	2337
##თ	2338
##ᅲ	2339
##ๅ	2340
##ހ	2341
##花	2342
##ȅ	2343
##多	2344
##少	2345
##钱	2346
##很	2347
##爱	2348
##你	2349
##μ	2350
##♬	2351
##۩	2352
##б	2353
##迪	2354
##💯	2355
##마	2356
##나	2357
##ܨ	2358
##ܓ	2359
##ը	2360
##藍	2361
##💫	2362
##խ	2363
##ս	2364
##🙂	2365
##ű	2366
##🍃	2367
##🤒	2368
##🤟	2369
##✋	2370
##🔫	2371
##리	2372
##ø	2373
##『	2374
##직	2375
##해	2376
##져	2377
##요	2378
##υ	2379
##ठ	2380
##น	2381
##ъ	2382
##ú	2383
##ੈ	2384
##ਂ	2385
##φ	2386
##ό	2387
##ə	2388
##😪	2389
##🎃	2390
##₦	2391
##¡	2392
##ݨ	2393
##̲	2394
##が	2395
##く	2396
##ở	2397
##ḑ	2398
##ŏ	2399
##đ	2400
##雨	2401
##♠	2402
##報	2403
##科	2404
##学	2405
##💞	2406
##り	2407
##ピ	2408
##タ	2409
##😿	2410
##😒	2411
##🏃	2412
##ए	2413
##ۂ	2414
##‹	2415
##☛	2416
##ۼ	2417
##ٮ	2418
##🎻	2419
##չ	2420
##ј	2421
##η	2422
##เ	2423
##ล	2424
##ė	2425
##θ	2426
##ወ	2427
##ር	2428
##ቅ	2429
##篇	2430
##力	2431
##희	2432
##😘	2433
##ҳ	2434
##ຢ	2435
##າ	2436
##ກ	2437
##ຖ	2438
##할	2439
##시	2440
##ʊ	2441
##ī	2442
##。	2443
##๑	2444
##ኝ	2445
##传	2446
##ण	2447
##✷	2448
##ݘ	2449
##법	2450
##ള	2451
##ḭ	2452
##ṝ	2453
##ă	2454
##✦	2455
##😔	2456
##하	2457
##는	2458
##ু	2459
##খ	2460
##ệ	2461
##금	2462
##만	2463
##⇣	2464
##╚	2465
##👆	2466
##🔞	2467
##😳	2468
##謝	2469
##ध	2470
##☘	2471
##→	2472
##̶	2473
##ٳ	2474
##⠀	2475
##💕	2476
##を	2477
##झ	2478
##ে	2479
##উ	2480
##☆	2481
##ห	2482
##ม	2483
##📿	2484
##ሂ	2485
##🇸	2486
##💰	2487
##👑	2488
##ኔ	2489
##位	2490
##ٞ	2491
##ʒ	2492
##।	2493
##ղ	2494
##ന	2495
##қ	2496
##🇧	2497
##έ	2498
##ꫀ	2499
##ꪝ	2500
##☄	2501
##️	2502
##🙊	2503
##√	2504
##ζ	2505
##ይ	2506
##ዎ	2507
##ڞ	2508
##♣	2509
##ມ	2510
##ທ	2511
##😜	2512
##ҽ	2513
##庆	2514
##래	2515
##⚫	2516
##э	2517
##ጎ	2518
##ት	2519
##ጣ	2520
##ም	2521
##斯	2522
##さ	2523
##い	2524
##😇	2525
##🤧	2526
##٫	2527
##द	2528
##ા	2529
##થ	2530
##✌	2531
##ṁ	2532
##ਾ	2533
##↝	2534
##☝	2535
##ถ	2536
##ค	2537
##ങ	2538
##🇶	2539
##각	2540
##형	2541
##🔕	2542
##ٜ	2543
##պ	2544
##¿	2545
##ম	2546
##ি	2547
##ṣ	2548
##ㄨ	2549
##ϋ	2550
##ϟ	2551
##ज	2552
##क	2553
##⚡	2554
##บ	2555
##■	2556
##😱	2557
##◝	2558
##ג	2559
##ू	2560
##↓	2561
##ơ	2562
##ỹ	2563
##ນ	2564
##ड	2565
##ೋ	2566
##ნ	2567
##დ	2568
##უ	2569
##რ	2570
##💍	2571
##هه	2572
##ان	2573
جي	2574
##هي	2575
ههه	2576
##ري	2577
##هن	2578
##ين	2579
آهي	2580
##ون	2581
##ار	2582
ان	2583
کي	2584
##يو	2585
##ال	2586
هههه	2587
##ائ	2588
جو	2589
##ور	2590
##ند	2591
ته	2592
اس	2593
لا	2594
##نهن	2595
تي	2596
##ئي	2597
##ام	2598
اه	2599
ڪري	2600
##لي	2601
هڪ	2602
##يا	2603
##ءِ	2604
کان	2605
##ــ	2606
ال	2607
ڪر	2608
سان	2609
نه	2610
هن	2611
ٿي	2612
اي	2613
##اڻ	2614
به	2615
هو	2616
يا	2617
تو	2618
##دي	2619
ون	2620
##تي	2621
##نهنج	2622
##اب	2623
##ير	2624
آهن	2625
##دا	2626
وا	2627
ڪرڻ	2628
ٿو	2629
اسان	2630
ههههه	2631
اهو	2632
##يڪ	2633
##هان	2634
لاءِ	2635
##رو	2636
##هر	2637
##لا	2638
ڪي	2639
ئي	2640
##ني	2641
هي	2642
##دو	2643
مو	2644
پر	2645
جا	2646
سگ	2647
##ول	2648
ين	2649
توهان	2650
پي	2651
##ست	2652
##جي	2653
مان	2654
ڪيو	2655
##ڪي	2656
مون	2657
ما	2658
پنهنج	2659
رو	2660
##ڏهن	2661
وي	2662
پو	2663
نا	2664
من	2665
##مي	2666
##را	2667
ڪند	2668
ري	2669
ٿا	2670
##سي	2671
ڪو	2672
را	2673
ور	2674
مي	2675
##قت	2676
##قي	2677
وڌ	2678
ڪم	2679
##ائي	2680
بي	2681
سو	2682
يو	2683
او	2684
##لو	2685
ها	2686
##ھن	2687
##ڪو	2688
لاء	2689
##رف	2690
رهي	2691
ويو	2692
ات	2693
##ھي	2694
انهن	2695
ائ	2696
طور	2697
ار	2698
ءَ	2699
است	2700
يڪ	2701
خو	2702
سڀ	2703
ڪا	2704
##ائين	2705
##اد	2706
مع	2707
وڃ	2708
##شن	2709
##ورت	2710
گه	2711
لي	2712
##هو	2713
##ءَ	2714
##اص	2715
ـــ	2716
##ڙي	2717
##بر	2718
##له	2719
مال	2720
##ئن	2721
##رين	2722
ڇا	2723
هر	2724
##ٽر	2725
##ها	2726
ڏين	2727
سي	2728
شا	2729
سم	2730
##اري	2731
وين	2732
##ڏي	2733
مح	2734
ني	2735
##ٽي	2736
جن	2737
##مل	2738
در	2739
ماڻ	2740
مل	2741
في	2742
وقت	2743
وڌيڪ	2744
##گر	2745
تع	2746
##بي	2747
##در	2748
##کي	2749
ڪج	2750
منهنج	2751
بر	2752
هون	2753
وار	2754
گهر	2755
##مت	2756
##از	2757
##جو	2758
سال	2759
##اني	2760
##اڻي	2761
ڪار	2762
ام	2763
اهي	2764
نگ	2765
اين	2766
اڳ	2767
##ڪا	2768
تر	2769
ڏي	2770
سند	2771
آھي	2772
استع	2773
سن	2774
جنهن	2775
نو	2776
ـــــ	2777
ڪئي	2778
شي	2779
مر	2780
##چي	2781
سا	2782
##سم	2783
نظ	2784
##ڻي	2785
هئي	2786
ڳال	2787
##گي	2788
تائين	2789
جيڪو	2790
واري	2791
ٽي	2792
پا	2793
ڪنهن	2794
پوءِ	2795
مش	2796
مس	2797
##صو	2798
##سٽ	2799
ڊي	2800
ڪريو	2801
ائي	2802
ــ	2803
ڪجهه	2804
عل	2805
با	2806
اها	2807
##خت	2808
ڪن	2809
چيو	2810
ٿين	2811
##نا	2812
##فت	2813
جڏهن	2814
سگهي	2815
بس	2816
##ڙو	2817
ڏينهن	2818
##نيا	2819
دو	2820
يل	2821
گڏ	2822
وڃي	2823
جيڪي	2824
##نگ	2825
##اصل	2826
##في	2827
رک	2828
##يت	2829
##ڪر	2830
از	2831
##عي	2832
سر	2833
تم	2834
يت	2835
حاصل	2836
##لام	2837
لڳ	2838
ضر	2839
##اهي	2840
ست	2841
اع	2842
يند	2843
##جود	2844
##بو	2845
سندس	2846
وٽ	2847
##ئر	2848
لو	2849
يڪڏهن	2850
ڪيت	2851
يم	2852
ٻڌ	2853
##يد	2854
علي	2855
هم	2856
مق	2857
پاڻ	2858
هئ	2859
شرو	2860
##الي	2861
الله	2862
##ئين	2863
##ثر	2864
##ما	2865
شروع	2866
تمام	2867
وٺ	2868
##ڪل	2869
##اه	2870
اص	2871
تح	2872
باب	2873
##اا	2874
##ڪن	2875
##سان	2876
##ٿي	2877
ڏس	2878
ناهي	2879
په	2880
فر	2881
گھ	2882
ڇو	2883
دا	2884
يون	2885
دنيا	2886
##فر	2887
##با	2888
دل	2889
##رح	2890
مط	2891
زند	2892
صح	2893
ٿيو	2894
رهيو	2895
تون	2896
عم	2897
عام	2898
مري	2899
##دار	2900
##لم	2901
چي	2902
ڇڏ	2903
ماڻهو	2904
جون	2905
##بل	2906
وئي	2907
##تو	2908
##ئون	2909
نن	2910
پن	2911
مخت	2912
وز	2913
پڻ	2914
نم	2915
نظر	2916
وڏي	2917
##ڻو	2918
زم	2919
ضرورت	2920
شام	2921
دور	2922
يع	2923
##اهر	2924
انهي	2925
ڏان	2926
ويندو	2927
##هم	2928
##نو	2929
##ھان	2930
مت	2931
قو	2932
عمل	2933
مد	2934
اُ	2935
صرف	2936
اچي	2937
سب	2938
خاص	2939
ويا	2940
ڪندا	2941
وڏ	2942
پيش	2943
زندگي	2944
ٿيڻ	2945
ڪڏهن	2946
##لف	2947
چون	2948
##عد	2949
تب	2950
طرف	2951
##تم	2952
نس	2953
ٻي	2954
طري	2955
##ءُ	2956
ڪت	2957
وال	2958
##ائن	2959
نق	2960
چو	2961
اڻ	2962
هئا	2963
##يل	2964
ڪيئن	2965
بل	2966
##فا	2967
سمج	2968
##بت	2969
سين	2970
ند	2971
ڪندو	2972
اح	2973
لک	2974
##اح	2975
پار	2976
بابت	2977
##لب	2978
سڀني	2979
جيئن	2980
ماڻهن	2981
##ڪار	2982
##ٺو	2983
غير	2984
رس	2985
ڏانهن	2986
##عو	2987
طرح	2988
ڪه	2989
بند	2990
قسم	2991
in	2992
شامل	2993
گهٽ	2994
آخ	2995
قي	2996
صورت	2997
ٻئي	2998
سنڌ	2999
دار	3000
وري	3001
##زي	3002
ندا	3003
آر	3004
جه	3005
ايم	3006
اڄ	3007
مختلف	3008
يعني	3009
ٽر	3010
اد	3011
ول	3012
ٻار	3013
ياد	3014
##ائڻ	3015
##اف	3016
شو	3017
هل	3018
وارو	3019
گر	3020
##سو	3021
آهيان	3022
هت	3023
وان	3024
مڪ	3025
مث	3026
رهيا	3027
خي	3028
تنهن	3029
نال	3030
واق	3031
خبر	3032
ڳالهه	3033
اسٽ	3034
حقي	3035
هوندي	3036
##تر	3037
نت	3038
اندر	3039
ڪندي	3040
اب	3041
ڏيڻ	3042
##سا	3043
##ڪس	3044
تن	3045
##ھو	3046
بڻ	3047
پيو	3048
حال	3049
فو	3050
گهرجي	3051
وچ	3052
اڪ	3053
بين	3054
بعد	3055
##لس	3056
ڪتاب	3057
پس	3058
هيٺ	3059
ايس	3060
هوندو	3061
اپ	3062
آئون	3063
ڪندڙ	3064
چاهي	3065
واپ	3066
تاري	3067
ٻن	3068
آهيون	3069
جيڪا	3070
پڙ	3071
سبب	3072
مدد	3073
ذري	3074
هري	3075
سيا	3076
##هند	3077
ٻين	3078
تاريخ	3079
ادا	3080
تج	3081
##ھنج	3082
خر	3083
كم	3084
##زا	3085
مڪمل	3086
موجود	3087
##وا	3088
عورت	3089
ھڪ	3090
اچ	3091
خوش	3092
کيس	3093
پاڪ	3094
ڳو	3095
شهر	3096
اج	3097
ٿيل	3098
بو	3099
ير	3100
اتي	3101
نئين	3102
نالو	3103
ڪمپ	3104
گذ	3105
انا	3106
يس	3107
يه	3108
خلا	3109
مم	3110
اهم	3111
##فظ	3112
##نڊ	3113
گهڻو	3114
ملڪ	3115
##ديل	3116
جواب	3117
سگه	3118
اخ	3119
##مد	3120
er	3121
يق	3122
هتي	3123
##ٽا	3124
پور	3125
هاڻي	3126
ڪمپني	3127
پهرين	3128
##قا	3129
تبديل	3130
ختم	3131
##ذا	3132
##هڻ	3133
قاب	3134
آن	3135
دوست	3136
ڪل	3137
##on	3138
يور	3139
ڏا	3140
رد	3141
##يان	3142
شر	3143
ائيٽ	3144
تنهنج	3145
حق	3146
اڃ	3147
##يم	3148
st	3149
##ايو	3150
آھن	3151
حس	3152
##ar	3153
##ندي	3154
سگهو	3155
ٿيندو	3156
##رن	3157
۾،	3158
##طي	3159
خيال	3160
شايد	3161
##ڳو	3162
##شت	3163
مسئ	3164
##جب	3165
سالن	3166
##شش	3167
سلام	3168
ڇڏيو	3169
نٽ	3170
فار	3171
پيدا	3172
ائين	3173
##صر	3174
عر	3175
تق	3176
ڪون	3177
فون	3178
چين	3179
ڏئي	3180
نيا	3181
وڏو	3182
ٿئي	3183
##ڪري	3184
##اج	3185
ولا	3186
فائ	3187
ڇڏي	3188
##امي	3189
هٿ	3190
دي	3191
##حد	3192
گي	3193
انت	3194
##لاح	3195
بد	3196
ويب	3197
اهڙي	3198
##صي	3199
##شه	3200
##دم	3201
قر	3202
نٿ	3203
سوا	3204
عليه	3205
وو	3206
چونڊ	3207
قان	3208
ڏنو	3209
##ضو	3210
##دڙ	3211
##زار	3212
هترين	3213
ااا	3214
##er	3215
ڪوشش	3216
قانون	3217
پوء	3218
مض	3219
##يح	3220
سيڪ	3221
##ارت	3222
مطلب	3223
آيو	3224
##ليم	3225
قيمت	3226
ويندي	3227
پري	3228
ٻه	3229
هجي	3230
ايپ	3231
اف	3232
##روري	3233
خدا	3234
ريا	3235
رات	3236
وٺي	3237
اوهان	3238
10	3239
ٻيو	3240
معي	3241
گھر	3242
سوال	3243
نش	3244
ران	3245
پئي	3246
مين	3247
امي	3248
##لوم	3249
اري	3250
مهي	3251
حل	3252
آئي	3253
وانگر	3254
##اڪ	3255
آهيو	3256
ٽيڪ	3257
ملي	3258
##جن	3259
پڇ	3260
##هور	3261
##حك	3262
انسان	3263
##خل	3264
ذريعي	3265
##ائق	3266
غل	3267
اصل	3268
خط	3269
شك	3270
پاڪست	3271
صحيح	3272
##سوس	3273
ترقي	3274
معلوم	3275
يقين	3276
يڊ	3277
##جه	3278
فق	3279
ڪيا	3280
##وب	3281
توھان	3282
##تا	3283
يان	3284
عال	3285
حقيقت	3286
##ٽو	3287
لفظ	3288
##ٺي	3289
وس	3290
##مو	3291
##ڪيٽ	3292
عمر	3293
##ندڙ	3294
ڪيل	3295
پرو	3296
هنن	3297
صف	3298
يد	3299
ڪيترا	3300
##صل	3301
رکي	3302
ڄاڻ	3303
قدر	3304
##اجي	3305
بح	3306
##عا	3307
اک	3308
سفر	3309
اوھان	3310
علا	3311
##ڊيو	3312
جاري	3313
ڏسي	3314
ولي	3315
ختي	3316
##or	3317
وجود	3318
والله	3319
اثر	3320
رج	3321
اول	3322
ظاهر	3323
اڃا	3324
ارڪيٽ	3325
يار	3326
##من	3327
ننڍ	3328
دوران	3329
سوچ	3330
ذا	3331
حڪو	3332
تصو	3333
ڳالها	3334
پسند	3335
هاي	3336
##يرو	3337
حڪومت	3338
صاح	3339
##ريب	3340
شخ	3341
سپ	3342
ضروري	3343
نج	3344
ڪيترن	3345
##ضي	3346
فرا	3347
تصوير	3348
ٻاهر	3349
حڪ	3350
صاحب	3351
پٽ	3352
لڳي	3353
##in	3354
ئين	3355
جل	3356
مٿ	3357
راند	3358
مريڪا	3359
مخ	3360
مواد	3361
##ورٽ	3362
ھن	3363
##ڙا	3364
رهن	3365
جتي	3366
گو	3367
حصو	3368
نهي	3369
##اس	3370
علائق	3371
##ريل	3372
بهتر	3373
سڄ	3374
اسڪ	3375
سندن	3376
##ران	3377
تص	3378
اند	3379
رق	3380
co	3381
حو	3382
عن	3383
##فو	3384
نتظ	3385
اني	3386
ختيار	3387
ڏسڻ	3388
طريق	3389
خري	3390
اسين	3391
##ڙه	3392
ڀر	3393
هريون	3394
جان	3395
بال	3396
##صد	3397
هُ	3398
##پي	3399
ڊيٽا	3400
محسوس	3401
اٿ	3402
ٺاهي	3403
ڪجھ	3404
يٽ	3405
كل	3406
هين	3407
صلاح	3408
موضو	3409
آسان	3410
مٿي	3411
هوندا	3412
وق	3413
چار	3414
عو	3415
آخر	3416
##کار	3417
بيان	3418
##نس	3419
موضوع	3420
خلاف	3421
اا	3422
يدا	3423
##رت	3424
على	3425
##لق	3426
نتي	3427
پاڻي	3428
##ارف	3429
اھو	3430
وڪ	3431
##ائو	3432
ڏني	3433
فارم	3434
حد	3435
ٿيون	3436
زمين	3437
th	3438
معيار	3439
مثال	3440
بچ	3441
ڏک	3442
چه	3443
ساڳ	3444
مج	3445
پنھنج	3446
اش	3447
ٿيندي	3448
ليڪ	3449
##ظيم	3450
سام	3451
دف	3452
رڳو	3453
##جڻ	3454
طرفان	3455
تعليم	3456
حالت	3457
نداز	3458
وارا	3459
ڪاروب	3460
منظ	3461
رنگ	3462
شع	3463
يءَ	3464
وسي	3465
رکڻ	3466
دست	3467
پيار	3468
خوا	3469
سگهجي	3470
##ولي	3471
لائن	3472
ڊائ	3473
##كم	3474
داخل	3475
آز	3476
##ـــ	3477
خود	3478
آب	3479
تجر	3480
حلو	3481
مشهور	3482
شخص	3483
هوءَ	3484
يشن	3485
ايپل	3486
يداوا	3487
۾.	3488
قوم	3489
ندي	3490
ٺاه	3491
الي	3492
همي	3493
te	3494
مار	3495
اسپ	3496
##نت	3497
سون	3498
قب	3499
ضحك	3500
مقصد	3501
نف	3502
پون	3503
##سر	3504
تيار	3505
سط	3506
واپس	3507
نهيءَ	3508
##ڪاڻ	3509
ڏاڍ	3510
##بان	3511
ميا	3512
تا	3513
مرد	3514
ايران	3515
صن	3516
ڇاڪاڻ	3517
##قل	3518
عد	3519
نظام	3520
وڃڻ	3521
ing	3522
نيو	3523
وائ	3524
al	3525
قابل	3526
لين	3527
ورس	3528
to	3529
##سٽم	3530
le	3531
##ڏھن	3532
##سپ	3533
نڊ	3534
اعلي	3535
مز	3536
لاز	3537
ندو	3538
مونکي	3539
شه	3540
پير	3541
هذا	3542
تان	3543
##عت	3544
هميشه	3545
ٻنهي	3546
ڏيو	3547
##به	3548
اجاز	3549
چوڻ	3550
مص	3551
راب	3552
##انه	3553
ابو	3554
يندو	3555
شاع	3556
خد	3557
له	3558
سک	3559
قدم	3560
توکي	3561
هند	3562
جنگ	3563
اجازت	3564
فراهم	3565
پئ	3566
علم	3567
عي	3568
يندا	3569
جر	3570
جم	3571
ڪير	3572
اميد	3573
ايو	3574
سلم	3575
##ائم	3576
مذ	3577
آو	3578
##كن	3579
خوب	3580
ڏيکار	3581
رپ	3582
نام	3583
لس	3584
راه	3585
نيادي	3586
آيا	3587
ره	3588
لم	3589
##اپ	3590
##ليل	3591
سٺو	3592
ڏٺو	3593
سواءِ	3594
تعلق	3595
آء	3596
ڄڻ	3597
ھو	3598
صفح	3599
##زن	3600
توڻ	3601
وگر	3602
توڻيڪ	3603
##ڊيا	3604
نٿو	3605
سلامي	3606
کا	3607
##بار	3608
##قيق	3609
تف	3610
##انس	3611
باري	3612
روز	3613
تحقيق	3614
سٽ	3615
انگ	3616
اك	3617
حت	3618
محفو	3619
سگھ	3620
محفوظ	3621
ڪونه	3622
##مبر	3623
##ur	3624
ma	3625
حڪم	3626
ٽيڪن	3627
ڪلا	3628
هه	3629
اگر	3630
حيا	3631
قائم	3632
اڻي	3633
رح	3634
an	3635
حض	3636
ھي	3637
مناس	3638
بار	3639
آواز	3640
مناسب	3641
##صوص	3642
re	3643
##يند	3644
طريقي	3645
وگرام	3646
بت	3647
نئون	3648
##داد	3649
ايت	3650
ايڪس	3651
واقعي	3652
وش	3653
##re	3654
آس	3655
قت	3656
##لن	3657
يڪي	3658
کڻي	3659
شادي	3660
مه	3661
خدمت	3662
موق	3663
رب	3664
رڪ	3665
شيء	3666
##ڌو	3667
ايل	3668
محبت	3669
شين	3670
حي	3671
##شان	3672
طال	3673
وزير	3674
عا	3675
سچ	3676
ڀا	3677
ڊو	3678
ڳول	3679
خريد	3680
##la	3681
ممڪن	3682
گرا	3683
##وري	3684
هجڻ	3685
يست	3686
نالي	3687
##ٽل	3688
##ابق	3689
اسڪول	3690
ويندا	3691
آخري	3692
سخت	3693
نفس	3694
مطابق	3695
رم	3696
هيو	3697
يائين	3698
اڪثر	3699
بنيا	3700
هـ	3701
مهر	3702
##كر	3703
خراب	3704
بنياد	3705
هچ	3706
وفا	3707
صحت	3708
##مير	3709
سگھي	3710
بلا	3711
خواست	3712
سه	3713
##وه	3714
سرو	3715
جسم	3716
آه	3717
اھ	3718
آزاد	3719
يڪيشن	3720
پل	3721
وب	3722
روح	3723
خان	3724
##st	3725
ميل	3726
سڏ	3727
##ڻڻ	3728
موڪل	3729
گهڻي	3730
واحد	3731
وارن	3732
گري	3733
سيڪڙو	3734
پيا	3735
اط	3736
لکي	3737
وڊيو	3738
نمون	3739
ٻارن	3740
اق	3741
منهن	3742
جڳ	3743
چڪو	3744
چڱ	3745
ڊاڪ	3746
آف	3747
##en	3748
آهين	3749
صب	3750
مفت	3751
ٻيهر	3752
طا	3753
ڪمي	3754
##ديد	3755
ڪپ	3756
گرو	3757
ڪٿي	3758
سڄي	3759
سڃ	3760
سائين	3761
ٿيا	3762
فقط	3763
رت	3764
رياست	3765
شد	3766
##انا	3767
##art	3768
سڪ	3769
##ra	3770
آفي	3771
منت	3772
وڪي	3773
که	3774
باقي	3775
اچڻ	3776
سطح	3777
فت	3778
ڪيس	3779
ڊاڪٽر	3780
20	3781
##جوا	3782
نقص	3783
ٽو	3784
اض	3785
پولي	3786
جهڙو	3787
فيص	3788
##ساس	3789
فيصلو	3790
پارٽي	3791
تخ	3792
بغ	3793
رست	3794
ِي	3795
سياسي	3796
##ائش	3797
##يوا	3798
سگهن	3799
ti	3800
ڪافي	3801
پاران	3802
اڳو	3803
ذهن	3804
سائن	3805
نوجوا	3806
ٻڌايو	3807
رن	3808
مرڪ	3809
غلط	3810
يز	3811
روم	3812
يندي	3813
مُ	3814
ڪڍ	3815
##گل	3816
عالمي	3817
ايه	3818
موت	3819
ڳالهي	3820
مريڪي	3821
##لع	3822
##ڪت	3823
بن	3824
##يي	3825
##ريڪ	3826
اڳتي	3827
ورتو	3828
يوني	3829
فع	3830
##ڊي	3831
زين	3832
ch	3833
قا	3834
برا	3835
ڌر	3836
اعل	3837
ڪهڙي	3838
ڪهاڻي	3839
##ڌي	3840
##ro	3841
سگهند	3842
آءٌ	3843
مير	3844
##مون	3845
کول	3846
تيز	3847
ڏسو	3848
نقصان	3849
جديد	3850
##ميت	3851
ايندڙ	3852
پاس	3853
ڳوٺ	3854
en	3855
ملڪن	3856
وڙ	3857
ميڊيا	3858
شيون	3859
پڪ	3860
رپورٽ	3861
##حال	3862
##ڊر	3863
لن	3864
ده	3865
##نل	3866
ئون	3867
تاز	3868
دلچ	3869
بخ	3870
##زل	3871
دلچسپ	3872
ڀي	3873
يندڙ	3874
لسلام	3875
تڪ	3876
رفت	3877
##ندو	3878
اِ	3879
پنج	3880
گا	3881
روش	3882
اڪائو	3883
يش	3884
ايڊ	3885
ذاتي	3886
##وو	3887
##تيب	3888
کين	3889
وج	3890
ضرور	3891
مهربا	3892
##ات	3893
ترتيب	3894
انه	3895
يلي	3896
##ڪٽ	3897
پوليس	3898
صدر	3899
چاهيو	3900
##id	3901
##انگ	3902
مشين	3903
نوٽ	3904
رٽ	3905
فلم	3906
ڪردار	3907
خير	3908
##le	3909
##ارو	3910
رسي	3911
گل	3912
الاجي	3913
اعلان	3914
ترين	3915
نر	3916
رھ	3917
لك	3918
يني	3919
جوڙ	3920
مضمون	3921
تس	3922
مسا	3923
پلي	3924
مرح	3925
نمبر	3926
جدا	3927
حقيقي	3928
واض	3929
ستان	3930
مسئلو	3931
##رر	3932
انھن	3933
تڏهن	3934
ايئر	3935
سسٽم	3936
اسلام	3937
ندڙ	3938
دير	3939
منٽ	3940
طاقت	3941
ڪيون	3942
بڻجي	3943
عرف	3944
حير	3945
ne	3946
لاڳ	3947
هاڻ	3948
گهڻ	3949
حر	3950
##هيل	3951
گڏي	3952
##ندا	3953
##هار	3954
ٽن	3955
عب	3956
سنڌي	3957
خت	3958
ڊگ	3959
رين	3960
وض	3961
ed	3962
لح	3963
قول	3964
##رول	3965
نقل	3966
گوگل	3967
نصو	3968
سلس	3969
نساني	3970
گفت	3971
عورتن	3972
ٿور	3973
ڏنل	3974
صبح	3975
مذه	3976
ماءُ	3977
ٽيم	3978
سامان	3979
بنا	3980
دش	3981
آباد	3982
تعمير	3983
طريقو	3984
ماح	3985
وڃن	3986
ڳن	3987
##ڪان	3988
##ديق	3989
چئي	3990
ڌار	3991
سُ	3992
ڪجي	3993
ورسٽي	3994
ڪش	3995
عوام	3996
واپار	3997
حضرت	3998
چر	3999
ro	4000
سماجي	4001
احساس	4002
قبول	4003
ٺاهڻ	4004
سٺي	4005
حفا	4006
پيغ	4007
لڳو	4008
سائنس	4009
ماحول	4010
مقرر	4011
حفاظ	4012
##الت	4013
ود	4014
ائل	4015
تقريب	4016
ڪيتري	4017
دري	4018
پورو	4019
خا	4020
##ستي	4021
##ٽري	4022
سمجھ	4023
وٺڻ	4024
حفاظت	4025
لوڊ	4026
اصلي	4027
گذريل	4028
de	4029
شاء	4030
##ظم	4031
معني	4032
پاسي	4033
سروس	4034
##ow	4035
ترج	4036
##ــــ	4037
ريس	4038
جها	4039
##يه	4040
صنعت	4041
نين	4042
رهڻ	4043
لاڳاپ	4044
جاءِ	4045
علاج	4046
قط	4047
##at	4048
جمع	4049
پوري	4050
قومي	4051
30	4052
ڪس	4053
جذ	4054
سار	4055
فرق	4056
بلڪل	4057
15	4058
داري	4059
يستائ	4060
واضح	4061
يك	4062
حصي	4063
طب	4064
start	4065
باز	4066
صارف	4067
نور	4068
mi	4069
پوندو	4070
صاف	4071
وڌي	4072
ئڻ	4073
dur	4074
##مان	4075
##فٽ	4076
ڪرا	4077
##ڊل	4078
اندان	4079
شرح	4080
ٻيا	4081
بخش	4082
se	4083
هف	4084
مسافر	4085
رائ	4086
متا	4087
تك	4088
##ولت	4089
ريڪ	4090
اکين	4091
وجوده	4092
راهڪن	4093
##صيل	4094
ڀيرو	4095
نٿا	4096
يگ	4097
تفصيل	4098
هيون	4099
ڪوبه	4100
نتظار	4101
هذ	4102
تعداد	4103
شان	4104
موجب	4105
رقم	4106
حوالي	4107
حياتي	4108
جلد	4109
ck	4110
عظيم	4111
گم	4112
##ليق	4113
خرچ	4114
##بوط	4115
بور	4116
عز	4117
فا	4118
لل	4119
هيءَ	4120
ڊر	4121
کائ	4122
پڙهي	4123
اوزار	4124
##ٺا	4125
مضبوط	4126
اُن	4127
پڙهڻ	4128
ذڪر	4129
ايش	4130
جھ	4131
ويئر	4132
ھڪڙو	4133
گڏيل	4134
##افي	4135
دان	4136
ناڪ	4137
محمد	4138
sh	4139
##حان	4140
متاثر	4141
وت	4142
سنگ	4143
مـ	4144
دعا	4145
پوسٽ	4146
at	4147
ايف	4148
جائ	4149
ڏيندو	4150
لينڊ	4151
عند	4152
اااا	4153
هفتي	4154
لکڻ	4155
دعو	4156
مند	4157
لازمي	4158
آزا	4159
سلمان	4160
هزار	4161
آزادي	4162
هال	4163
اهڙو	4164
رز	4165
نموني	4166
نٽرول	4167
ڙي	4168
مٿان	4169
عملي	4170
ارا	4171
درج	4172
نيٽ	4173
ارو	4174
شت	4175
##ri	4176
مڙ	4177
واقع	4178
##ابر	4179
لع	4180
نسل	4181
اڪي	4182
چم	4183
خواب	4184
تہ	4185
##احت	4186
##شق	4187
راح	4188
ڌيان	4189
معا	4190
وٺند	4191
me	4192
مهيا	4193
on	4194
مثل	4195
درد	4196
su	4197
اَ	4198
هفت	4199
سڃاڻ	4200
وڻ	4201
ڪهڙو	4202
رابط	4203
گريزي	4204
موسم	4205
ستق	4206
خواه	4207
ڪريان	4208
##ائل	4209
وضاحت	4210
لڳا	4211
ذم	4212
يک	4213
##يب	4214
بج	4215
غلطي	4216
عدالت	4217
ليک	4218
مست	4219
آرام	4220
بينڪ	4221
يورپ	4222
##يڪل	4223
نشان	4224
حص	4225
سف	4226
ريشان	4227
پهچي	4228
شم	4229
گرف	4230
li	4231
رکيو	4232
ذميوا	4233
12	4234
كان	4235
هوا	4236
روشني	4237
انج	4238
ڪرد	4239
##an	4240
ميد	4241
کن	4242
ڪئين	4243
الد	4244
سگهون	4245
وه	4246
هنڌ	4247
ڪيم	4248
خاصيت	4249
سور	4250
##هين	4251
برابر	4252
هلي	4253
##سڪ	4254
عجب	4255
روسي	4256
شرط	4257
##شل	4258
پوي	4259
استاد	4260
حسين	4261
منھنج	4262
يڪشن	4263
تنظيم	4264
ساز	4265
يپ	4266
پيام	4267
هيچ	4268
مليو	4269
ڪريون	4270
دين	4271
ڻي	4272
ءِ	4273
تش	4274
ــــ	4275
واڌ	4276
##الر	4277
##وي	4278
هدا	4279
وغ	4280
علاوه	4281
شكرا	4282
جلدي	4283
##ot	4284
##آن	4285
##ريز	4286
اعت	4287
ng	4288
سٽي	4289
ڪرڻو	4290
حيث	4291
وَ	4292
اهل	4293
قتل	4294
انتي	4295
تصديق	4296
جنھن	4297
شيءِ	4298
وڪرو	4299
نوڪري	4300
ڪردگي	4301
هار	4302
##ائر	4303
مالي	4304
جهاز	4305
واٽ	4306
پورٽ	4307
شاعر	4308
حيثيت	4309
##ڊو	4310
سمجها	4311
##وٽ	4312
رستو	4313
زور	4314
##رس	4315
گروپ	4316
فرانس	4317
ڪراچي	4318
صدي	4319
ٻولي	4320
لان	4321
رڪاري	4322
رفتار	4323
پليٽ	4324
يڪڏھن	4325
اسٽور	4326
جائز	4327
##شڪ	4328
عرب	4329
اث	4330
نفر	4331
سنڀ	4332
ڇوڪري	4333
يال	4334
انتها	4335
da	4336
نمي	4337
هريان	4338
ماني	4339
گھٽ	4340
تصور	4341
دوا	4342
ااااا	4343
خار	4344
زال	4345
ٺهيل	4346
ياتي	4347
ماڊل	4348
ڪارڊ	4349
پھ	4350
ڊالر	4351
##دن	4352
نها	4353
فيصل	4354
غريب	4355
ذار	4356
يماري	4357
مينٽ	4358
ic	4359
ميٽر	4360
زي	4361
زبان	4362
رسائي	4363
ڪلڪ	4364
ملڪي	4365
كي	4366
##ڀر	4367
اصول	4368
آفيس	4369
جز	4370
فن	4371
نڪ	4372
بڻائ	4373
سيٽ	4374
امام	4375
ملا	4376
ڪيائ	4377
موٽ	4378
اون	4379
##نيٽ	4380
تجربو	4381
بز	4382
##انو	4383
فيس	4384
اٽ	4385
##پو	4386
امير	4387
زو	4388
خوف	4389
بلاگ	4390
رگر	4391
ھڪڙي	4392
چند	4393
سياح	4394
50	4395
پڇيو	4396
ستقبل	4397
گرمي	4398
سمجهي	4399
and	4400
زا	4401
پيوٽر	4402
ميابي	4403
اقت	4404
ديو	4405
بحث	4406
##ابت	4407
اڌ	4408
طر	4409
ڪيٽ	4410
di	4411
آئ	4412
##لت	4413
ايندو	4414
##گار	4415
ماهر	4416
ورڪ	4417
bi	4418
دم	4419
ويج	4420
اعظم	4421
آءِ	4422
ڪوڙ	4423
ٿيندا	4424
پيغام	4425
##ڏو	4426
##ياري	4427
بورڊ	4428
سافٽ	4429
ڇڏيند	4430
ٽرنيٽ	4431
اللي	4432
ئن	4433
ڊائون	4434
آآ	4435
فل	4436
لاڳو	4437
هڪڙي	4438
ڏاڍو	4439
نص	4440
يٰ	4441
##دود	4442
ڳالھ	4443
ٻڌي	4444
ڪونهي	4445
ريت	4446
ريم	4447
وزن	4448
##گو	4449
ڪين	4450
حب	4451
##جا	4452
ڪٽ	4453
ڪوڊ	4454
pa	4455
##غان	4456
خصوص	4457
ءُ	4458
ساڳي	4459
يڪس	4460
##الف	4461
سج	4462
واس	4463
اڳي	4464
شاعري	4465
تاب	4466
جيت	4467
نيشن	4468
تجز	4469
علام	4470
رگرمي	4471
خام	4472
يئر	4473
شڪار	4474
قدي	4475
ويئي	4476
ca	4477
##ريٽ	4478
افغان	4479
پوئ	4480
صد	4481
قبل	4482
نل	4483
اسٽي	4484
توق	4485
فعال	4486
سڪرين	4487
ڊگهي	4488
فلس	4489
بود	4490
ياس	4491
ايا	4492
گرم	4493
سنڀال	4494
كت	4495
بيت	4496
دٻ	4497
ھر	4498
لاش	4499
آمد	4500
فض	4501
يقيني	4502
##me	4503
ادب	4504
شڪل	4505
لائ	4506
حم	4507
ايندي	4508
عذ	4509
قص	4510
مهم	4511
kn	4512
اڳيان	4513
بڻائي	4514
سگهيو	4515
دفعو	4516
عالم	4517
عه	4518
مڃ	4519
ٿيندڙ	4520
ويون	4521
راز	4522
وبائل	4523
ٿورو	4524
اکي	4525
رآ	4526
فيه	4527
##ورن	4528
رهندو	4529
na	4530
ثابت	4531
اھي	4532
محدود	4533
داد	4534
خوشي	4535
قوامي	4536
لکيو	4537
وم	4538
ڳولي	4539
رخ	4540
زمان	4541
ايترو	4542
بير	4543
امن	4544
ڪندڙن	4545
فٽ	4546
سوشل	4547
ادي	4548
نك	4549
نڪر	4550
##سٽر	4551
##جر	4552
هرحال	4553
ta	4554
be	4555
فري	4556
ڀير	4557
حساب	4558
منظر	4559
##ونس	4560
اڙ	4561
هڙي	4562
قديم	4563
پيءُ	4564
چوي	4565
مخصوص	4566
يري	4567
قابلي	4568
ڪئ	4569
ڪان	4570
##ڪڻ	4571
سگهان	4572
يوم	4573
صورتح	4574
11	4575
ياب	4576
سگھو	4577
يگر	4578
حتى	4579
اڳواڻ	4580
ريف	4581
##قيد	4582
مخالف	4583
طاب	4584
##لڊ	4585
هوس	4586
؟؟	4587
ڇپ	4588
يده	4589
##نٽ	4590
ميدان	4591
##طر	4592
يافت	4593
زخ	4594
ٺيڪ	4595
ليه	4596
مپ	4597
اهڙا	4598
ليس	4599
فهم	4600
ينڊ	4601
اينڊ	4602
قرار	4603
جت	4604
ابندي	4605
لط	4606
يلا	4607
گير	4608
##مر	4609
بابا	4610
##نن	4611
نون	4612
جهڙوڪ	4613
عاد	4614
گيري	4615
جمي	4616
پٺ	4617
هدايت	4618
سياست	4619
دوستن	4620
ورا	4621
يب	4622
حالتن	4623
چڪا	4624
مياب	4625
ڪام	4626
لاقا	4627
عرصي	4628
درو	4629
the	4630
هڪڙو	4631
امه	4632
vi	4633
مَ	4634
ليش	4635
نقلاب	4636
آگ	4637
عيد	4638
ماري	4639
ليل	4640
##ئڻ	4641
##وش	4642
ڌرتي	4643
الدين	4644
##يع	4645
ڀري	4646
ساڻ	4647
تعارف	4648
سمنڊ	4649
انٽر	4650
مھ	4651
سائي	4652
اءِ	4653
وص	4654
مب	4655
مالڪ	4656
نيوز	4657
نهن	4658
نڪري	4659
هيا	4660
##گه	4661
لفظن	4662
گهڻا	4663
ڳنڍ	4664
اڏ	4665
اور	4666
ڳولا	4667
اضافي	4668
ڪاري	4669
ملڻ	4670
اگردن	4671
ندر	4672
گذر	4673
جد	4674
پک	4675
لاقات	4676
سَ	4677
نٿي	4678
ويل	4679
سئ	4680
##رار	4681
ائون	4682
سعو	4683
رسال	4684
ec	4685
رجسٽر	4686
ra	4687
زماني	4688
سوچيو	4689
دما	4690
##xt	4691
##يره	4692
راد	4693
مختصر	4694
توقع	4695
جڳهه	4696
18	4697
فهر	4698
اوجود	4699
##هيو	4700
ڏاڍي	4701
know	4702
us	4703
فهرست	4704
ٻڌڻ	4705
جيل	4706
ڪنھن	4707
خواهش	4708
نيشنل	4709
لهي	4710
##اھ	4711
ملين	4712
اظ	4713
##شي	4714
##ونا	4715
ويجهو	4716
يات	4717
راڻ	4718
صل	4719
ڪُ	4720
كله	4721
وٽي	4722
ڏنا	4723
يف	4724
هيه	4725
سفار	4726
بق	4727
##سل	4728
رائي	4729
نسٽ	4730
##تال	4731
ڪلاڪ	4732
يج	4733
ٽرانس	4734
انچ	4735
فائدو	4736
اءُ	4737
زن	4738
شعر	4739
گرفتا	4740
شوف	4741
منتقل	4742
دماغ	4743
وڌائڻ	4744
شوق	4745
مشڪل	4746
##رير	4747
اخبار	4748
مرحل	4749
چڪي	4750
روڊ	4751
فط	4752
يي	4753
ڀلي	4754
ائو	4755
it	4756
گزار	4757
فڪر	4758
بدر	4759
ثقا	4760
ثقافت	4761
تجو	4762
ٽائي	4763
ٽڪر	4764
لنڪ	4765
شاندا	4766
nd	4767
##شر	4768
انگي	4769
خلاص	4770
##هڪ	4771
سگھن	4772
سواء	4773
اندين	4774
la	4775
##اء	4776
جهڙي	4777
عتم	4778
ba	4779
طبي	4780
گذري	4781
سهولت	4782
nt	4783
پريشن	4784
جڏھن	4785
رف	4786
##ادل	4787
25	4788
تخليق	4789
عين	4790
بدل	4791
حا	4792
وط	4793
##چر	4794
روپ	4795
ويز	4796
سوي	4797
وڏا	4798
ni	4799
si	4800
فور	4801
لائي	4802
نسي	4803
تحت	4804
عتماد	4805
وح	4806
پال	4807
مهينن	4808
بھ	4809
ايج	4810
منزل	4811
رستي	4812
خخ	4813
رڪار	4814
نع	4815
توانا	4816
سماني	4817
لق	4818
com	4819
هندست	4820
چيزي	4821
يٺ	4822
ٻڌائي	4823
ننڊ	4824
وغيره	4825
رڪارڊ	4826
ڳا	4827
روا	4828
بيشڪ	4829
غور	4830
جيان	4831
مره	4832
سڀئي	4833
لکيل	4834
##ڇي	4835
امهون	4836
##اظ	4837
اکيون	4838
مگر	4839
##لاس	4840
مسلس	4841
سپتال	4842
نقش	4843
گاڏي	4844
مسلسل	4845
وفي	4846
هئڻ	4847
ريل	4848
بجلي	4849
ليکڪ	4850
اهميت	4851
يراني	4852
حسن	4853
ولو	4854
يسٽ	4855
رکو	4856
آپ	4857
جئين	4858
##لاق	4859
مقامي	4860
مڙس	4861
شكل	4862
ارف	4863
زر	4864
ايتري	4865
ٻڌائ	4866
رقرار	4867
لحاظ	4868
عاه	4869
##li	4870
حبي	4871
قرآن	4872
وڃو	4873
سل	4874
is	4875
عشق	4876
جرم	4877
طبق	4878
لائين	4879
##رل	4880
اتو	4881
فوج	4882
ارفين	4883
آل	4884
ارس	4885
ڊيز	4886
14	4887
موقعو	4888
فكر	4889
داشت	4890
حيرت	4891
es	4892
انڊ	4893
اچو	4894
نتظام	4895
اعليٰ	4896
نہ	4897
شڪ	4898
ناس	4899
نتيجي	4900
نِ	4901
هيءُ	4902
فصل	4903
وجه	4904
يـ	4905
وقف	4906
آڻڻ	4907
نيڪ	4908
راج	4909
##ناه	4910
اڻڻ	4911
بلڪ	4912
عنصر	4913
رٽيڪل	4914
اڃان	4915
ناڪام	4916
يسي	4917
قرض	4918
ٺاهيو	4919
عبد	4920
قلب	4921
ايڇ	4922
ڏيندا	4923
سميت	4924
شڪر	4925
عت	4926
يام	4927
ونڊو	4928
فائل	4929
وووو	4930
وسار	4931
ss	4932
بـ	4933
آساني	4934
پوئتي	4935
عجي	4936
راڊ	4937
هلند	4938
text	4939
وائرس	4940
ويس	4941
ائڻ	4942
بندي	4943
چيني	4944
گراف	4945
اتح	4946
بران	4947
مصنو	4948
صو	4949
اتر	4950
ليٽ	4951
مصنوع	4952
بئن	4953
قس	4954
مسي	4955
ماه	4956
ڏکڻ	4957
ويه	4958
مسئلن	4959
مجهيو	4960
وره	4961
قاعد	4962
عجيب	4963
هور	4964
ييي	4965
شايع	4966
درست	4967
اهيان	4968
متحان	4969
يورپي	4970
بغير	4971
we	4972
اً	4973
آسم	4974
مئ	4975
ورن	4976
ڏينھن	4977
ادار	4978
##دير	4979
اجلاس	4980
ايون	4981
نگر	4982
قسمن	4983
امان	4984
نسٽال	4985
ڪٽو	4986
انع	4987
ly	4988
طلع	4989
ھون	4990
ورٽ	4991
رکند	4992
ايمان	4993
حوال	4994
منظور	4995
الڳ	4996
براي	4997
ميمبر	4998
ذات	4999
