<unk>	0
<s>	0
</s>	0
▁.	-3.41512
▁جي	-3.75946
▁ي	-4.00001
▁،	-4.12185
▁آهي	-4.30853
▁۾	-4.3231
▁ا	-4.34526
▁کي	-4.45315
▁۽	-4.5182
▁هههه	-4.55435
▁م	-4.57704
▁ن	-4.60946
▁جو	-4.73003
▁و	-4.8199
▁ته	-4.8282
▁پ	-4.84633
▁تي	-5.02759
▁ههه	-5.05912
▁س	-5.09595
▁ان	-5.16521
▁"	-5.18252
▁هڪ	-5.21142
.	-5.22464
▁کان	-5.27069
▁نه	-5.29476
▁سان	-5.30453
ي	-5.34609
▁:	-5.36997
▁ه	-5.37829
▁ب	-5.38992
▁ڪري	-5.39531
▁ت	-5.42997
▁هن	-5.46664
نهنج	-5.46717
▁به	-5.47704
▁ج	-5.51721
▁آهن	-5.55927
▁ون	-5.56227
▁ڪرڻ	-5.61295
▁هو	-5.62479
▁اسان	-5.65391
▁ٿو	-5.66126
▁ٿي	-5.66606
▁اهو	-5.68819
▁ههههه	-5.69162
ن	-5.71275
▁لاءِ	-5.72419
▁يا	-5.72699
▁1	-5.77868
▁0	-5.79137
ا	-5.84326
▁ئي	-5.84556
▁آ	-5.86515
▁ال	-5.87754
▁توهان	-5.89871
▁-	-5.93084
▁ر	-5.93568
▁ڪيو	-5.9384
▁(	-5.96336
▁2	-5.99138
▁مان	-5.99485
▁؟	-6.00951
▁پر	-6.01798
،	-6.03106
▁مون	-6.06137
▁)	-6.09655
▁ٿا	-6.143
▁جا	-6.15123
▁ف	-6.29819
▁ـ	-6.30303
▁لاء	-6.3097
▁ويو	-6.33068
▁ين	-6.36293
▁انهن	-6.3876
▁طور	-6.39048
▁ع	-6.39075
ـ	-6.39898
▁ءَ	-6.40103
▁!	-6.4061
▁گ	-6.47492
▁ش	-6.47575
▁ڪ	-6.48363
▁چ	-6.49182
▁يو	-6.50305
▁ڻ	-6.50563
▁ڪم	-6.50904
ه	-6.53481
▁ڇا	-6.54598
ر	-6.5683
و	-6.58886
▁وقت	-6.60028
▁هي	-6.60447
▁وڌيڪ	-6.61025
▁ل	-6.61402
▁9	-6.62635
▁ات	-6.64281
▁مال	-6.65386
▁خ	-6.65888
▁ها	-6.66961
▁هر	-6.69124
▁ما	-6.71683
▁ڪا	-6.71978
▁ك	-6.73418
▁3	-6.74349
▁,	-6.76605
ستع	-6.76897
▁جنهن	-6.77471
▁ڪئي	-6.79951
▁ـــــ	-6.80142
▁ڪو	-6.80586
▁اهي	-6.81458
▁اي	-6.82248
▁5	-6.8237
▁آھي	-6.83656
▁هئي	-6.84687
▁تائين	-6.85392
▁جيڪو	-6.85698
▁واري	-6.85953
▁ڪنهن	-6.86482
▁پوءِ	-6.87179
▁ک	-6.8749
▁لا	-6.88848
▁بي	-6.89545
▁s	-6.91039
▁	-6.91687
▁ڪريو	-6.92273
▁ــ	-6.92485
▁ڪجهه	-6.92592
ل	-6.92626
▁4	-6.92713
▁ز	-6.9396
▁اها	-6.9398
▁د	-6.95046
▁چيو	-6.95958
ت	-6.95961
▁در	-6.96647
▁سڀ	-6.97325
▁جڏهن	-6.97603
▁ڏينهن	-7.00213
▁وڃي	-7.01901
▁8	-7.02066
▁جيڪي	-7.0207
▁بس	-7.02437
▁حاصل	-7.07432
▁نا	-7.07888
▁ڪار	-7.08425
▁ِ	-7.08434
▁سال	-7.09117
▁6	-7.09573
▁7	-7.11524
▁سندس	-7.12054
▁يڪڏهن	-7.13259
▁پاڻ	-7.15093
▁سگهي	-7.153
▁ح	-7.16534
▁نگ	-7.16651
▁الله	-7.17527
▁َ	-7.18722
▁شروع	-7.19021
▁تمام	-7.19142
▁سي	-7.19272
▁ناهي	-7.2224
▁از	-7.22288
▁گڏ	-7.23154
▁'	-7.2427
▁ة	-7.24583
▁ٻ	-7.24769
▁دنيا	-7.25215
▁يل	-7.25514
▁من	-7.27765
ند	-7.28606
▁رهيو	-7.30223
▁ٿيو	-7.30297
▁تون	-7.31074
▁وڏي	-7.32886
▁ماڻهو	-7.33105
▁وئي	-7.33226
▁وٽ	-7.34236
▁ڊ	-7.34603
▁/	-7.34923
▁يت	-7.35409
▁پڻ	-7.3695
▁نظر	-7.37229
ائ	-7.37305
▁پي	-7.37601
▁جون	-7.37912
▁ضرورت	-7.38139
▁اڳ	-7.38491
▁ق	-7.38533
▁هم	-7.38598
▁ٽ	-7.39195
▁ويندو	-7.39962
▁صرف	-7.41646
▁اچي	-7.41996
▁اين	-7.42715
▁انهي	-7.42746
▁ڪندا	-7.42882
▁زندگي	-7.43749
▁ويا	-7.43852
▁ڪن	-7.4466
▁ڪڏهن	-7.44894
▁ٿيڻ	-7.44953
▁پيش	-7.45264
▁عمل	-7.46434
▁بر	-7.47013
▁رهي	-7.47617
▁۔	-7.47663
▁ص	-7.48288
▁في	-7.48295
▁هئا	-7.48805
▁ڪيئن	-7.4909
▁مي	-7.49355
▁گهر	-7.49644
م	-7.49793
س	-7.49871
:	-7.50506
▁ُ	-7.50907
▁ڪندو	-7.51083
▁بابت	-7.51833
▁سڀني	-7.51971
▁جيئن	-7.52331
▁ماڻهن	-7.52352
▁ڪر	-7.52978
▁ڏانهن	-7.53167
يءَ	-7.53222
▁>	-7.53559
▁طرح	-7.53765
▁ڇو	-7.53931
▁گهٽ	-7.55959
▁شامل	-7.56044
▁صورت	-7.56616
▁ٻئي	-7.56655
▁عام	-7.57548
▁غير	-7.57644
ڪ	-7.57942
▁مختلف	-7.582
▁_	-7.58422
▁يعني	-7.58913
▁ھ	-7.59716
▁دل	-7.60344
▁وا	-7.60879
▁وارو	-7.61144
▁اڄ	-7.61743
▁تنهن	-7.62283
▁آهيان	-7.62446
t	-7.62532
▁رهيا	-7.63017
▁ڳالهه	-7.63893
▁هوندي	-7.64761
▁ڪي	-7.65166
▁اندر	-7.65234
▁ڊي	-7.65239
▁جن	-7.65294
▁سر	-7.6547
▁خاص	-7.65488
▁ڪندي	-7.65571
▁ڳاله	-7.65941
▁<	-7.66082
▁او	-7.66405
▁ڏيڻ	-7.66414
▁ڇڏي	-7.67058
▁با	-7.67741
▁ني	-7.68587
▁مع	-7.68711
▁گهرجي	-7.68871
▁ٽي	-7.69385
▁ياد	-7.69847
▁هوندو	-7.71077
▁آئون	-7.71206
▁ائي	-7.71502
▁سبب	-7.7224
▁جيڪا	-7.72258
▁ايس	-7.7242
▁مدد	-7.72467
▁آهيون	-7.72832
▁خبر	-7.73031
▁تو	-7.74021
▁ٻين	-7.74106
▁تاريخ	-7.74128
نھنج	-7.74321
▁ايم	-7.74717
▁مڪمل	-7.751
▁موجود	-7.7517
▁پاڪ	-7.76203
▁سين	-7.77051
▁کيس	-7.77725
▁ٿيل	-7.77873
▁وري	-7.77991
▁=	-7.78374
▁نالو	-7.7891
▁نئين	-7.79104
د	-7.79163
▁بعد	-7.79468
▁اهم	-7.79757
▁اتي	-7.79811
▁بند	-7.80599
▁ملڪ	-7.80827
▁قسم	-7.80834
ست	-7.81207
▁ار	-7.81467
▁گهڻو	-7.81635
ج	-7.82058
▁انا	-7.82329
▁جواب	-7.8237
▁كم	-7.82434
▁شي	-7.82467
▁هتي	-7.83156
▁ڪمپني	-7.83258
▁هاڻي	-7.83424
▁پهرين	-7.83975
▁تبديل	-7.84069
▁ختم	-7.84491
▁وي	-7.84639
▁دوست	-7.84729
▁وچ	-7.84935
▁؛	-7.8557
▁أ	-7.85577
▁ڪتاب	-7.86057
)	-7.86248
▁سو	-7.86361
▁آھن	-7.8708
▁سگهو	-7.87715
▁ٿيندو	-7.8844
▁ادا	-7.88765
▁شايد	-7.88969
▁شهر	-7.89768
▁سنڌ	-7.89839
▁ڇڏيو	-7.90299
▁سالن	-7.90323
▁پيدا	-7.90738
▁آن	-7.91087
▁فون	-7.9211
▁ڏئي	-7.9215
▁وڏو	-7.92662
▁ور	-7.92699
▁ٿئي	-7.92723
▁ري	-7.93167
▁هيٺ	-7.9358
▁ڏ	-7.93781
▁هٿ	-7.9446
▁غ	-7.94806
▁ويب	-7.94888
▁عليه	-7.9571
▁ڪندڙ	-7.9575
▁ڏنو	-7.96454
▁پيو	-7.96592
ــ	-7.96749
▁يه	-7.96888
▁هترين	-7.97173
▁ڪوشش	-7.97524
▁قانون	-7.97872
▁ائيٽ	-7.9803
▁پوء	-7.98113
▁مو	-7.98346
▁قيمت	-7.9854
▁مطلب	-7.98604
▁اهڙي	-7.98749
▁آيو	-7.98876
▁ويندي	-7.995
▁هجي	-7.99932
▁اس	-8.00101
▁رات	-8.00258
▁خدا	-8.00497
▁اوهان	-8.00987
▁حق	-8.01041
▁ٻه	-8.01048
▁وٺي	-8.01366
▁ٻيو	-8.01404
▁يون	-8.01661
▁خيال	-8.01961
▁ڀ	-8.01976
▁طرف	-8.02114
▁خوش	-8.02154
▁پئي	-8.02269
▁ڪيا	-8.02646
▁چونڊ	-8.03039
▁آئي	-8.03251
▁وانگر	-8.03613
▁اصل	-8.04283
▁انسان	-8.04773
▁رو	-8.04821
▁ء	-8.04825
▁ذريعي	-8.04906
▁er	-8.05483
▁ٻار	-8.05831
▁را	-8.05864
وھان	-8.06
▁*	-8.06147
▁صحيح	-8.064
▁ترقي	-8.0669
▁معلوم	-8.06877
▁ائين	-8.06885
▁دار	-8.07927
▁حقيقت	-8.08589
▁ڪيل	-8.09212
▁مٿي	-8.09577
▁آهيو	-8.09741
▁عمر	-8.09956
▁لي	-8.10656
▁ڪيترا	-8.11155
؟	-8.11962
▁اُ	-8.12094
▁سفر	-8.12803
▁حل	-8.13022
▁سا	-8.13084
▁ولا	-8.13093
r	-8.13118
▁ظاهر	-8.13665
▁جاري	-8.13685
▁اڃا	-8.13743
▁ڏسي	-8.138
▁والله	-8.1389
▁اثر	-8.13903
▁اوھان	-8.14231
▁علي	-8.14264
▁اول	-8.14264
▁رد	-8.14274
▁ارڪيٽ	-8.1444
▁سوال	-8.14595
▁دوران	-8.14706
▁ٿ	-8.14838
▁چاهي	-8.14864
▁پسند	-8.14926
▁ط	-8.15284
▁هنن	-8.15328
▁ـــ	-8.15909
▁حڪومت	-8.15932
▁هاي	-8.16434
▁عورت	-8.17153
▁ضروري	-8.17327
▁ڪيترن	-8.17434
▁تصوير	-8.17554
▁ٻاهر	-8.17625
▁صاحب	-8.1791
▁يس	-8.1817
▁لڳي	-8.1826
▁راند	-8.186
▁مريڪا	-8.18627
▁مواد	-8.18923
▁لک	-8.19446
ڻ	-8.19506
▁جتي	-8.19607
▁حصو	-8.19675
▁ى	-8.19776
لائق	-8.20246
▁بهتر	-8.20306
▁اسٽ	-8.20397
▁ملي	-8.20533
▁سندن	-8.21295
يپل	-8.21646
▁ختيار	-8.22846
▁ڏسڻ	-8.22937
ع	-8.23265
▁اسين	-8.23386
▁است	-8.23513
▁هريون	-8.23677
▁ڊيٽا	-8.24109
▁محسوس	-8.24165
▁]	-8.24168
▁دور	-8.24404
▁ڪجھ	-8.24531
▁آسان	-8.24579
▁آخر	-8.2503
▁هوندا	-8.25192
▁ھو	-8.25377
▁[	-8.2562
▁خريد	-8.2579
▁بيان	-8.25815
▁موضوع	-8.2585
▁خلاف	-8.26122
▁ڌ	-8.2625
▁صلاح	-8.26257
▁مح	-8.26261
▁على	-8.26402
▁اڻ	-8.2674
▁رکي	-8.27052
▁اھو	-8.27212
▁ڏني	-8.27308
▁مثال	-8.27558
▁مش	-8.27637
▁فارم	-8.27808
▁زمين	-8.27926
▁معيار	-8.28
▁حد	-8.28311
▁ٿيون	-8.29042
▁ندا	-8.29266
▁ٿيندي	-8.29575
▁ض	-8.298
▁گھر	-8.29877
▁رڳو	-8.3016
ب	-8.30197
▁يان	-8.30326
▁طرفان	-8.30464
▁تعليم	-8.30676
▁وارا	-8.31153
▁ئ	-8.31271
▁پيار	-8.31679
▁يءَ	-8.3181
▁رکڻ	-8.31921
▁بين	-8.31923
▁سگهجي	-8.32354
▁پاڻي	-8.32549
▁داخل	-8.32681
▁لائن	-8.3283
▁چين	-8.33178
ـــ	-8.33233
▁ھن	-8.33448
پ	-8.33488
▁وار	-8.33644
▁خود	-8.33735
ف	-8.33757
▁رنگ	-8.33894
▁مشهور	-8.3393
داوا	-8.33975
▁هوءَ	-8.34077
▁قوم	-8.34345
▁ڙ	-8.34558
▁ڏي	-8.35358
ٽ	-8.35382
a	-8.35685
▁نٽ	-8.36342
ڪاڻ	-8.3643
▁تيار	-8.3652
▁ام	-8.36591
▁واپس	-8.36687
▁ند	-8.37417
▁ايران	-8.37907
▁نظام	-8.38514
▁وڃڻ	-8.38576
▁موڪل	-8.38648
▁10	-8.39001
▁قابل	-8.39098
ح	-8.39159
▁آر	-8.39209
▁كل	-8.39816
ان	-8.40153
▁نن	-8.40166
▁ing	-8.40197
!	-8.40382
▁چه	-8.40494
▁ندو	-8.40645
▁بال	-8.4072
▁ٽر	-8.40805
▁ڄاڻ	-8.40814
▁ٻي	-8.40842
▁يم	-8.41022
▁ٻن	-8.41032
▁مونکي	-8.41266
▁ائ	-8.41736
▁ڏيو	-8.4198
▁هميشه	-8.42043
▁ٻنهي	-8.42089
▁تان	-8.42177
▁چوڻ	-8.42283
▁يندو	-8.42428
▁هذا	-8.42451
▁اري	-8.43309
▁جنگ	-8.43357
▁قدم	-8.43428
▁علم	-8.43556
▁توکي	-8.43573
▁اجازت	-8.43733
گ	-8.4374
▁فراهم	-8.4387
e	-8.43931
▁لفظ	-8.44004
▁يشن	-8.44134
▁يندا	-8.446
▁اميد	-8.44782
▁ڪير	-8.44958
▁پرو	-8.44971
▁خوب	-8.45099
▁يقين	-8.45269
▁ڏيکار	-8.45466
ڙ	-8.45697
▁نيادي	-8.45795
▁آيا	-8.46095
▁مت	-8.46143
▁ڦ	-8.46534
▁سٺو	-8.46609
▁ڏٺو	-8.46654
▁سواءِ	-8.46686
▁تعلق	-8.46779
▁ابو	-8.46867
▁ايو	-8.47162
▁توڻيڪ	-8.47209
▁ٽيڪن	-8.47272
▁نٿو	-8.47423
وب	-8.47545
▁سلامي	-8.47969
▁ی	-8.48265
▁تحقيق	-8.48314
▁باري	-8.4855
▁ڪونه	-8.4859
▁محفوظ	-8.48847
▁حڪم	-8.49389
▁مس	-8.4956
▁اا	-8.4989
▁جان	-8.49953
▁قائم	-8.50267
▁اپ	-8.506
▁آواز	-8.51053
▁مناسب	-8.51059
▁وگرام	-8.51358
▁نئون	-8.51409
▁طريقي	-8.51496
▁فر	-8.51574
▁لو	-8.51694
▁ست	-8.51862
▁واقعي	-8.519
▁هه	-8.5203
▁نداز	-8.52041
▁ايڪس	-8.52359
▁A	-8.52525
i	-8.52812
▁کڻي	-8.53065
▁چار	-8.53094
▁شادي	-8.5313
▁سمجه	-8.53506
▁ايل	-8.53528
▁شيء	-8.5409
▁محبت	-8.54512
▁i	-8.54516
▁گي	-8.54778
▁بار	-8.54845
▁ڇ	-8.54872
▁وزير	-8.54977
▁دم	-8.55518
▁ممڪن	-8.55582
▁پٽ	-8.55692
▁شين	-8.5572
▁هجڻ	-8.55729
▁نالي	-8.5598
,	-8.5604
▁سخت	-8.56058
▁نفس	-8.5616
▁اسڪول	-8.56222
▁مقصد	-8.5635
▁ويندا	-8.5637
▁آخري	-8.56796
▁مطابق	-8.56943
▁پنج	-8.5708
▁اڪثر	-8.57154
▁چي	-8.57214
▁شو	-8.57272
▁يائين	-8.57282
▁ڪل	-8.57582
▁انت	-8.57662
▁ھڪ	-8.57741
▁بنياد	-8.5795
▁صحت	-8.5842
▁سگھي	-8.58653
▁خواست	-8.5871
▁آزاد	-8.58757
▁انگ	-8.58885
▁ہ	-8.59065
▁جسم	-8.59159
▁سگهن	-8.5931
▁يڪيشن	-8.59451
▁ذ	-8.59507
▁ميل	-8.59753
▁روح	-8.59773
▁وٺ	-8.59839
▁بل	-8.60006
▁گهڻي	-8.60124
▁هيو	-8.60128
ار	-8.60132
▁منهن	-8.60189
▁واحد	-8.60212
▁سيڪڙو	-8.60539
▁وارن	-8.60659
▁a	-8.60762
▁آف	-8.60927
▁ندي	-8.61375
▁چڪو	-8.61475
▁اني	-8.61518
▁ٻارن	-8.61603
▁مفت	-8.62224
▁قدر	-8.62249
▁بد	-8.62282
▁ٻيهر	-8.62471
▁c	-8.62514
▁ضحك	-8.62989
▁ڪٿي	-8.6303
▁سڄي	-8.6314
▁فقط	-8.632
▁سائين	-8.63281
▁رياست	-8.63324
▁که	-8.63536
▁اب	-8.63706
▁خط	-8.63798
▁اچڻ	-8.64052
▁باقي	-8.64068
▁ڳ	-8.64141
▁سطح	-8.64276
▁سچ	-8.64366
▁to	-8.64487
ش	-8.64501
▁ڄڻ	-8.64529
يل	-8.64535
▁ڊاڪٽر	-8.64609
▁ڪيس	-8.64636
▁روز	-8.65551
▁دست	-8.65867
ة	-8.65985
▁فيصلو	-8.66013
▁پارٽي	-8.66132
▁سياسي	-8.66221
▁ڪافي	-8.66584
▁e	-8.66647
▁پاران	-8.66761
▁مرد	-8.66918
▁ذهن	-8.66928
▁غلط	-8.67082
▁نوجو	-8.67212
▁ٻڌايو	-8.67378
▁يندي	-8.67464
▁موت	-8.67849
▁مريڪي	-8.68202
▁ِي	-8.68217
▁ايه	-8.68242
▁du	-8.68255
▁عالمي	-8.68304
▁ٿيا	-8.6844
▁يوني	-8.68501
▁ورتو	-8.68598
▁اڳتي	-8.68921
▁روم	-8.69752
ون	-8.69896
▁ڪهڙي	-8.70305
▁ڪهاڻي	-8.70345
▁تا	-8.70373
▁مُ	-8.70638
▁شخص	-8.70893
▁آءٌ	-8.71071
▁پاس	-8.71071
▁ڀر	-8.71401
▁نقصان	-8.71498
▁جديد	-8.71562
▁ڏسو	-8.71567
▁ڳوٺ	-8.7168
▁ايندڙ	-8.71723
▁ميڊيا	-8.7199
▁تيز	-8.72051
▁شيون	-8.72196
▁رپورٽ	-8.72231
▁ملڪن	-8.72688
ك	-8.72827
▁دلچسپ	-8.7297
▁يندڙ	-8.7329
▁لسلام	-8.73405
▁له	-8.73828
▁ضرور	-8.74395
هربا	-8.74459
▁وجود	-8.74574
▁ايڊ	-8.74697
ڪائو	-8.74752
▁ذاتي	-8.74826
▁ترتيب	-8.75159
▁le	-8.75522
▁پوليس	-8.7561
▁صدر	-8.7576
▁مشين	-8.75913
▁چاهيو	-8.76049
▁نوٽ	-8.76053
▁ڪردار	-8.76054
▁فلم	-8.76089
▁خير	-8.7616
▁جدا	-8.76252
▁وين	-8.76384
▁ّ	-8.77079
▁الاجي	-8.77159
▁اعلان	-8.77206
▁ترين	-8.77371
▁خراب	-8.7757
▁پير	-8.77586
▁in	-8.77615
▁اسپ	-8.77698
▁مضمون	-8.7785
▁فوج	-8.77899
▁ستان	-8.78244
▁حالت	-8.78269
▁رک	-8.78638
▁يار	-8.78994
▁نمبر	-8.79023
ھ	-8.79046
▁حقيقي	-8.79198
▁هُ	-8.79302
▁مسئلو	-8.79426
▁ڏس	-8.79448
▁انھن	-8.7955
▁تڏهن	-8.79686
▁دير	-8.79757
گهند	-8.7977
▁اسلام	-8.7982
▁ايئر	-8.7982
▁سسٽم	-8.79826
▁al	-8.79974
▁انه	-8.80025
▁پري	-8.80091
▁طاقت	-8.80096
▁منٽ	-8.80302
▁وش	-8.80356
▁بڻجي	-8.80514
▁هاڻ	-8.80762
▁مير	-8.8095
▁حال	-8.81216
▁پيا	-8.81692
▁قول	-8.81923
ز	-8.82005
▁اڻي	-8.82193
o	-8.82432
آ	-8.82516
▁گوگل	-8.82778
▁ٺاهي	-8.82784
▁خان	-8.82928
▁سنڌي	-8.83101
▁نساني	-8.83231
▁ڏنل	-8.83329
▁صبح	-8.8333
▁ئين	-8.83363
▁تر	-8.83527
▁ٽيم	-8.83546
ري	-8.83752
▁عورتن	-8.83757
▁ماءُ	-8.83808
▁خدمت	-8.83972
▁سامان	-8.84029
▁آباد	-8.84162
▁گھ	-8.84471
▁زين	-8.84632
▁تعمير	-8.84985
▁طريقو	-8.8511
▁بينڪ	-8.85244
▁وڃن	-8.85521
▁ٽن	-8.85732
▁اعلي	-8.85797
▁ورسٽي	-8.85838
▁چئي	-8.85851
▁ڪجي	-8.86
ال	-8.86027
▁واپار	-8.86037
▁وڃ	-8.86081
▁حضرت	-8.86115
▁ولي	-8.86127
▁احساس	-8.8626
▁قبول	-8.8632
▁سماجي	-8.86504
▁ڪيون	-8.86511
▁ٺاهڻ	-8.8655
▁ڪيتر	-8.86998
▁پڇ	-8.87148
▁ماحول	-8.87171
▁سائنس	-8.87184
▁مقرر	-8.87242
▁لڳو	-8.87251
▁ڌار	-8.87274
▁ريس	-8.8738
▁تقريب	-8.87599
▁دي	-8.87833
▁لوڊ	-8.88059
▁پورو	-8.88069
مجھ	-8.88112
▁ed	-8.88166
▁وٺڻ	-8.8821
▁لك	-8.88296
▁حفاظت	-8.88319
▁20	-8.88441
▁گذريل	-8.88752
▁شاء	-8.88803
▁صنعت	-8.88857
▁سروس	-8.89155
ڪڙ	-8.8917
▁جمع	-8.89248
▁star	-8.89348
ڳاپ	-8.89423
▁ھي	-8.89471
▁رهڻ	-8.89512
▁جاءِ	-8.89557
▁علاج	-8.89564
▁پاسي	-8.89643
ــــ	-8.89649
▁اصلي	-8.89679
▁وڊيو	-8.8976
▁سون	-8.89833
▁فرق	-8.90157
▁آهين	-8.90166
▁پوري	-8.90396
▁•	-8.90507
▁واضح	-8.90508
▁حصي	-8.90699
▁قومي	-8.9083
▁صاف	-8.90959
▁صارف	-8.91032
▁پوندو	-8.91251
▁ئڻ	-8.91549
▁وڌي	-8.91767
ستائ	-8.91791
▁اندان	-8.91817
▁نام	-8.91848
▁شرح	-8.91932
▁بخش	-8.91998
▁مسافر	-8.92143
▁نٿا	-8.92329
▁راهڪن	-8.92442
▁ٻيا	-8.9245
▁اکين	-8.92488
▁وجوده	-8.92616
▁ڀيرو	-8.92631
▁سوچ	-8.92702
▁تفصيل	-8.92742
▁o	-8.92866
▁نتظار	-8.92893
▁سمور	-8.92917
▁جلد	-8.92953
▁ڪوبه	-8.92982
ئ	-8.93021
▁تعداد	-8.9312
▁رقم	-8.93215
▁پس	-8.93223
▁موجب	-8.93274
▁حياتي	-8.93492
▁داري	-8.93516
▁حوالي	-8.93552
▁تن	-8.93598
▁عظيم	-8.93654
▁خرچ	-8.9375
▁گم	-8.93898
▁عوام	-8.93997
▁لل	-8.94203
▁n	-8.94392
▁ck	-8.94421
▁يد	-8.94427
▁کائ	-8.94496
▁وال	-8.94689
▁اوزار	-8.94878
▁مضبوط	-8.95029
▁هيون	-8.9504
▁سُ	-8.95043
▁پڙهڻ	-8.9511
▁ذڪر	-8.95187
▁ويئر	-8.9537
▁لينڊ	-8.95427
▁ھڪڙو	-8.95457
▁گڏيل	-8.95529
▁محمد	-8.95882
▁متاثر	-8.95959
▁اُن	-8.96009
▁گل	-8.96052
▁هيءَ	-8.96174
w	-8.96269
▁دعا	-8.96407
▁پوسٽ	-8.96435
▁ايف	-8.96515
▁ڏيندو	-8.96609
▁تح	-8.96753
▁لکڻ	-8.96805
▁ث	-8.96926
▁هفتي	-8.96942
▁بو	-8.97124
▁سلمان	-8.9715
▁لازمي	-8.97171
▁هزار	-8.97216
▁وڌ	-8.97216
▁ڊائ	-8.97302
▁هين	-8.97315
▁اهڙو	-8.97456
▁نٽرول	-8.97688
▁حب	-8.9771
▁آه	-8.97727
▁نموني	-8.9782
▁آزادي	-8.97917
▁مٿان	-8.97943
▁نسل	-8.98231
▁نتيج	-8.98406
▁درج	-8.98484
ٿ	-8.98577
▁وس	-8.98735
▁مهيا	-8.99264
▁خواب	-8.99377
▁ندڙ	-8.99438
▁$	-8.99469
لڪل	-8.99634
▁ڌيان	-8.99701
▁عملي	-9.00083
▁ڪهڙو	-9.00344
▁درد	-9.00362
▁گريزي	-9.00431
▁موسم	-9.00585
▁نور	-9.00881
▁وضاحت	-9.0107
▁مري	-9.01162
▁لڳا	-9.01318
▁پڪ	-9.0133
▁يورپ	-9.01507
▁مند	-9.0155
▁عدالت	-9.01647
▁مثل	-9.01737
▁y	-9.01746
▁ڪريان	-9.01873
▁آرام	-9.01879
▁ً	-9.01896
▁نشان	-9.02016
▁تہ	-9.02032
▁کول	-9.02223
▁غلطي	-9.02323
▁ريشان	-9.0256
▁تك	-9.0258
▁کين	-9.02754
▁th	-9.02841
▁رب	-9.0286
▁پهچي	-9.02875
▁ذميو	-9.02924
▁گرفت	-9.03058
▁هلي	-9.03075
▁مرڪز	-9.03166
▁رکيو	-9.03281
▁روشني	-9.03395
▁هنڌ	-9.03782
▁اَ	-9.03877
▁خاصيت	-9.03915
▁ڏک	-9.0392
▁پوي	-9.04094
▁حلو	-9.04411
▁برابر	-9.04488
▁عجب	-9.04655
▁سگهون	-9.047
▁استاد	-9.04918
▁حسين	-9.05029
ک	-9.05266
▁يڪشن	-9.0536
▁تنظيم	-9.05424
▁ڳول	-9.05545
▁پيام	-9.05694
▁ارو	-9.05707
هن	-9.05777
▁هيچ	-9.05869
▁مليو	-9.0597
▁ءِ	-9.06041
▁بت	-9.06112
▁هال	-9.06147
▁ڪس	-9.06215
▁علاوه	-9.0646
▁واٽ	-9.06476
▁شكرا	-9.06532
▁ڪش	-9.06553
▁اک	-9.06644
▁قتل	-9.06744
▁ڪئين	-9.06829
▁اهل	-9.07084
▁جلدي	-9.07093
▁تصديق	-9.07151
▁ــــ	-9.07157
▁جنھن	-9.07241
▁شيءِ	-9.07247
▁شاعر	-9.07373
▁ڪردگي	-9.075
▁نوڪري	-9.07586
سٽر	-9.07616
▁دوا	-9.07633
▁وڪرو	-9.07646
▁جهاز	-9.07677
▁پورٽ	-9.07872
▁انتي	-9.07892
▁مين	-9.07912
▁حيثيت	-9.07937
▁زور	-9.08083
▁ٻولي	-9.08391
▁رستو	-9.08418
▁گروپ	-9.08468
▁ڪراچي	-9.08554
▁فرانس	-9.08555
▁عرب	-9.08621
▁وڏ	-9.08715
▁صدي	-9.08755
▁وَ	-9.08791
▁رڪاري	-9.08824
▁رفتار	-9.08827
▁پليٽ	-9.08836
▁ذار	-9.08851
▁زال	-9.08886
▁يڪڏھن	-9.08907
▁اسٽور	-9.08928
▁ڀي	-9.09119
▁15	-9.09242
▁ڪريون	-9.09411
▁ڇوڪري	-9.09776
▁اگر	-9.09986
▁هريان	-9.10013
▁30	-9.10041
y	-9.10053
▁گھٽ	-9.10101
▁چون	-9.1012
▁تصور	-9.10162
▁فيصل	-9.10198
▁نمي	-9.1031
▁ٺهيل	-9.10356
▁ماڊل	-9.1036
▁ڪارڊ	-9.10392
▁ڊالر	-9.1043
▁ااااا	-9.10466
▁ميٽر	-9.10509
▁غريب	-9.10517
▁يماري	-9.10615
▁مينٽ	-9.10639
▁ٻڌ	-9.10692
▁زبان	-9.10788
▁رسائي	-9.10933
▁بڻائ	-9.11035
▁ياتي	-9.11062
▁ڪلڪ	-9.11067
▁آفيس	-9.11104
▁ڪرڻو	-9.11193
▁موٽ	-9.1121
▁اصول	-9.11241
▁ورڪ	-9.11247
▁رت	-9.1159
▁امام	-9.11751
▁امير	-9.11907
▁تجربو	-9.11967
▁فيس	-9.11978
▁پور	-9.12041
▁سيڪ	-9.12287
▁شه	-9.12307
▁ٍ	-9.12337
▁بلاگ	-9.12341
▁خوف	-9.12355
▁ڙي	-9.12494
▁ھڪڙ	-9.12509
▁اع	-9.1254
▁ستقبل	-9.12712
▁پڇيو	-9.12747
▁وق	-9.13235
▁هوا	-9.13303
▁مالي	-9.13326
نتها	-9.13339
▁گرمي	-9.13347
▁بنا	-9.13361
▁پيوٽر	-9.13474
▁چند	-9.13476
به	-9.13626
▁بحث	-9.13626
▁ريم	-9.13666
▁ڄ	-9.13697
▁سمجهي	-9.13846
▁ميابي	-9.13857
▁ايندو	-9.14122
▁اعظم	-9.1456
▁پيغام	-9.14654
▁آءِ	-9.14658
▁ٿيندا	-9.14696
▁بورڊ	-9.14754
▁ڪوڙ	-9.14765
▁ٽرنيٽ	-9.1484
▁سافٽ	-9.14847
▁ڊائون	-9.15049
▁اللي	-9.15113
▁عن	-9.1514
▁لاڳو	-9.15141
▁ڏاڍو	-9.15168
▁ڳالھ	-9.15311
▁يٰ	-9.15341
▁هڪڙي	-9.15342
▁ريت	-9.15397
▁ڏا	-9.15478
▁وزن	-9.15722
▁جوڙ	-9.15782
▁حمل	-9.15818
▁ٻڌي	-9.15818
▁امي	-9.15848
▁نيو	-9.15939
▁x	-9.15943
ٺي	-9.1595
▁ڪونهي	-9.1625
▁ڪوڊ	-9.16528
▁گرم	-9.16738
▁پل	-9.16901
▁خصوص	-9.16932
▁ساڳي	-9.17189
▁ءُ	-9.17327
▁قبل	-9.17644
-	-9.17678
▁ڪيٽ	-9.1774
▁ايپ	-9.17744
▁بود	-9.18148
ئين	-9.1828
▁رگرمي	-9.18283
▁شاعري	-9.18622
را	-9.18854
▁ويئي	-9.189
▁شڪار	-9.18921
▁افغان	-9.18967
▁آئ	-9.19125
▁فعال	-9.19362
▁ڊگهي	-9.19459
▁سڪرين	-9.19472
▁سلام	-9.19606
▁بيت	-9.19635
▁باب	-9.19724
▁چڱ	-9.19727
▁سنڀال	-9.19754
▁ادب	-9.19796
▁لائ	-9.19969
▁لاش	-9.20048
▁ڻي	-9.20063
▁فلس	-9.20117
▁كان	-9.20352
▁اح	-9.2049
▁ول	-9.205
▁شڪل	-9.20661
▁وت	-9.20723
▁عالم	-9.20792
▁ايندي	-9.20847
▁اِ	-9.2096
▁اڳيان	-9.21131
▁ماني	-9.21141
▁دفعو	-9.21163
▁ھر	-9.21205
▁ٿيندڙ	-9.21352
▁يقيني	-9.21366
▁وبائل	-9.21448
▁بڻائي	-9.21576
▁وڙ	-9.21592
▁اينڊ	-9.21606
▁سگھن	-9.2164
▁ٿورو	-9.21716
▁ئون	-9.21717
▁هل	-9.2172
▁شام	-9.21736
▁ثابت	-9.2185
▁رهندو	-9.21856
وشل	-9.2186
▁محدود	-9.21951
▁قوامي	-9.22153
▁اھي	-9.22183
▁راز	-9.22223
▁زمان	-9.22225
▁سگهيو	-9.22237
▁فيه	-9.2229
▁لکيو	-9.22313
▁امن	-9.22315
"	-9.22354
▁تع	-9.22465
▁سيٽ	-9.22564
▁ايترو	-9.22763
▁ڳولي	-9.22924
▁وڻ	-9.23122
▁بير	-9.23613
▁خوشي	-9.23651
▁منظر	-9.23786
▁حساب	-9.23788
▁ڇپ	-9.23988
▁قديم	-9.23994
▁پيءُ	-9.24096
▁مخصوص	-9.24197
▁ڪندڙن	-9.2425
▁چوي	-9.24546
▁سگهان	-9.24615
▁يوم	-9.24876
▁ريف	-9.25053
▁اڳواڻ	-9.25131
▁حتى	-9.25136
▁ليه	-9.25173
▁سڏ	-9.25174
▁مخالف	-9.25235
اغ	-9.25419
▁ng	-9.25459
▁پڙهي	-9.25482
رحال	-9.25491
گه	-9.25512
▁قابلي	-9.25636
▁ٺاه	-9.25867
▁ياب	-9.25971
▁ميدان	-9.26035
▁ٺيڪ	-9.2619
▁لکي	-9.26209
▁آڻي	-9.26218
n	-9.26259
▁اهڙا	-9.263
▁ننڍ	-9.26369
▁فهم	-9.26408
▁قرار	-9.2641
▁ابندي	-9.26496
▁يده	-9.26698
▁رسي	-9.26796
▁جهڙوڪ	-9.26855
▁بابا	-9.26926
▁گفت	-9.26937
▁نو	-9.27054
▁هوس	-9.27107
▁دا	-9.27325
▁مياب	-9.27332
▁هدايت	-9.27346
▁گيري	-9.27425
▁سياست	-9.27458
▁ساڻ	-9.27479
▁ليس	-9.27517
▁ڪئ	-9.27624
▁ic	-9.27677
▁چڪا	-9.27843
▁آب	-9.27905
▁ليش	-9.27944
▁عرصي	-9.28022
▁گير	-9.28058
▁حالتن	-9.28098
▁ڊو	-9.28115
▁هڪڙو	-9.28173
▁نقلاب	-9.28203
▁?	-9.28217
▁ويون	-9.28295
▁دو	-9.28344
▁عيد	-9.28357
▁الدين	-9.28418
▁ڌرتي	-9.28425
▁نيٽ	-9.28518
▁سام	-9.28626
▁ئن	-9.28633
▁12	-9.28684
▁سلسل	-9.28709
▁دين	-9.28844
▁تعارف	-9.28955
▁سمنڊ	-9.29065
▁ڪين	-9.29327
▁اءِ	-9.29522
▁D	-9.29609
▁يڊ	-9.29615
▁نيوز	-9.29754
▁ڳنڍ	-9.30048
▁گهڻا	-9.30071
▁نڪري	-9.30127
▁اضافي	-9.30181
▁اور	-9.30234
▁يٽ	-9.30299
▁گذر	-9.30348
▁گر	-9.30363
▁مالڪ	-9.30451
▁اگردن	-9.30482
▁ڳولا	-9.30525
روب	-9.30576
▁ملڻ	-9.30585
▁إ	-9.30751
▁داد	-9.30792
▁لفظن	-9.30824
▁لاقات	-9.30926
▁سج	-9.30978
يو	-9.30991
▁الي	-9.31011
▁سنگ	-9.31145
▁نٿي	-9.31177
▁سور	-9.31318
▁+	-9.31404
▁نل	-9.31497
▁مص	-9.3156
▁سٽ	-9.31725
▁سَ	-9.31733
▁اخ	-9.31759
▁هچ	-9.3177
▁لهي	-9.31783
▁توقع	-9.31816
▁سوچيو	-9.3182
▁مختصر	-9.31821
▁ندر	-9.31902
▁جڳهه	-9.31984
u	-9.32023
▁اوجود	-9.32034
▁ليل	-9.3221
▁زماني	-9.32227
▁ڏاڍي	-9.32334
▁رز	-9.32477
▁فهرست	-9.32481
▁ٻڌڻ	-9.32742
▁ڪنھن	-9.32824
▁خواهش	-9.32938
▁نيشنل	-9.32947
▁te	-9.33142
▁ويجهو	-9.33358
▁ويل	-9.33372
▁يني	-9.3361
▁ڪلاڪ	-9.33744
▁ڏنا	-9.33761
▁مط	-9.33769
ڏ	-9.3381
▁ٿين	-9.33932
▁روڊ	-9.34079
▁ٽرانس	-9.3418
m	-9.34219
▁ملين	-9.34272
▁فائدو	-9.34336
▁هيه	-9.34385
▁شعر	-9.34412
▁اءُ	-9.34423
▁ينڊ	-9.34623
▁منتقل	-9.34636
▁مَ	-9.34651
▁يک	-9.34658
▁انچ	-9.34659
▁شوف	-9.34721
▁وڌائڻ	-9.34876
▁شوق	-9.34954
▁مرحل	-9.34975
▁مشڪل	-9.34995
▁ڪاري	-9.35033
▁اخبار	-9.35096
▁سگھ	-9.35158
▁چڪي	-9.3534
▁انور	-9.35442
▁سلم	-9.35607
▁فڪر	-9.35625
▁ڀلي	-9.35628
▁ثقافت	-9.35674
▁#	-9.35766
▁لنڪ	-9.35834
▁ٽڪر	-9.35881
▁خلاص	-9.35906
▁يڪ	-9.35959
▁سواء	-9.36155
▁اندين	-9.36258
▁جهڙي	-9.36351
▁سهولت	-9.36604
▁يات	-9.36659
▁پريشن	-9.36725
▁جڏھن	-9.36841
▁وٽي	-9.3685
▁نين	-9.36885
▁گذري	-9.37017
▁تخليق	-9.37072
▁ويز	-9.37195
▁صح	-9.37403
▁عين	-9.37479
▁تحت	-9.37486
▁نھ	-9.37646
▁اف	-9.37712
دست	-9.37728
▁عتماد	-9.37779
▁سوي	-9.37836
▁نون	-9.37912
▁وڏا	-9.37965
▁مهينن	-9.38028
▁سگھو	-9.38067
▁منزل	-9.3814
▁kno	-9.38143
▁اااا	-9.38235
▁سماني	-9.38256
▁توانا	-9.38288
▁مپ	-9.38315
▁رستي	-9.38315
▁راح	-9.38319
▁اڌ	-9.38321
اندا	-9.38327
ئر	-9.38491
▁يسٽ	-9.38532
▁رڪارڊ	-9.3861
▁وغيره	-9.3862
ى	-9.3862
▁ننڊ	-9.38793
▁ايج	-9.38813
▁چيزي	-9.38885
▁غور	-9.38886
ور	-9.3893
▁رجسٽ	-9.39015
▁مره	-9.39028
▁ٻڌائي	-9.39093
▁ريل	-9.39117
▁سڀئي	-9.39136
▁يلي	-9.39196
▁امهون	-9.39333
▁لکيل	-9.39381
▁اکيون	-9.39464
▁مگر	-9.39533
▁رخ	-9.39562
▁سپتال	-9.3957
▁نقش	-9.39571
▁مسلسل	-9.39689
▁مڃ	-9.39691
▁گاڏي	-9.39704
▁عرف	-9.39851
▁ڪُ	-9.39859
▁ٻڌائ	-9.39928
▁بجلي	-9.39932
▁رج	-9.39951
▁ليکڪ	-9.39955
▁مم	-9.40048
▁هئڻ	-9.40052
▁ْ	-9.40058
▁اهميت	-9.40078
▁حسن	-9.40193
▁يراني	-9.40193
▁رکو	-9.40342
▁شكل	-9.40427
▁مڙس	-9.40444
▁لم	-9.40566
▁شرط	-9.4058
▁مقامي	-9.40657
▁ايتري	-9.40662
▁رقرار	-9.4078
▁لحاظ	-9.4078
ين	-9.40789
يون	-9.40821
▁ائو	-9.40877
يشڪ	-9.4095
▁قرآن	-9.41028
▁شد	-9.41296
▁وڃو	-9.41387
▁ڏين	-9.41418
▁طبق	-9.41518
▁عشق	-9.41523
▁ارفين	-9.41637
▁شڪ	-9.4165
▁ويس	-9.41891
▁ائل	-9.4192
▁لائين	-9.41935
▁موقعو	-9.41977
▁حيرت	-9.42011
▁داشت	-9.42013
▁فكر	-9.4203
ڪس	-9.42039
▁اڻو	-9.4216
▁خت	-9.42237
▁نتظام	-9.42254
▁اعليٰ	-9.42254
▁واقع	-9.42259
▁جت	-9.4226
v	-9.4232
▁وجه	-9.42363
।	-9.42377
▁اچو	-9.42516
▁بدل	-9.42552
▁هيءُ	-9.42629
▁وسار	-9.42696
▁فصل	-9.42758
▁قلب	-9.42775
▁وقف	-9.42805
▁عنصر	-9.42874
▁رٽيڪل	-9.42876
▁آڻڻ	-9.42877
▁آل	-9.42961
▁اڻڻ	-9.42963
▁هيا	-9.42972
ق	-9.42994
▁ناڪام	-9.43007
▁رهن	-9.43021
▁قرض	-9.43129
▁بغ	-9.43219
ها	-9.43263
▁ايڇ	-9.43283
▁ڏيندا	-9.43334
▁فائل	-9.43338
▁ٺاهيو	-9.43388
▁سميت	-9.43411
▁d	-9.43455
▁پھ	-9.43542
▁شڪر	-9.43566
▁نيڪ	-9.43591
▁ورن	-9.4362
▁يئر	-9.43668
▁نِ	-9.43709
▁جهڙو	-9.43728
▁ااا	-9.43761
▁اتو	-9.43826
▁پوئتي	-9.4389
▁گراف	-9.43911
▁tex	-9.44131
▁وائرس	-9.44149
▁ورس	-9.44168
▁هلند	-9.44201
▁اڃان	-9.44208
▁ولو	-9.44477
▁مصنو	-9.44898
▁لڳ	-9.44929
▁راه	-9.44991
▁اش	-9.45108
▁ائڻ	-9.4513
▁ڪڍ	-9.45139
▁ڇڏ	-9.45148
▁سٺ	-9.45229
▁اچ	-9.45248
▁ڏکڻ	-9.45311
▁آساني	-9.45336
▁مجهيو	-9.45396
▁نہ	-9.4549
▁اسڪ	-9.45515
▁عجيب	-9.45523
▁ده	-9.45556
▁ليٽ	-9.4559
▁متحان	-9.45653
▁شايع	-9.45656
▁بغير	-9.45672
يا	-9.45692
▁مسئلن	-9.45719
▁ويه	-9.45721
▁ورٽ	-9.45756
▁جيان	-9.45833
▁اً	-9.45843
▁چيني	-9.45861
▁اهيان	-9.45984
▁يسي	-9.46029
▁ڏينھن	-9.4604
▁درست	-9.46207
▁اجلاس	-9.46293
id	-9.46296
▁اتر	-9.46353
▁پار	-9.46357
▁شر	-9.46382
▁يورپي	-9.46397
▁حوال	-9.46602
▁نسٽال	-9.46682
▁ماه	-9.46802
▁بندي	-9.4689
▁٪	-9.46905
▁امان	-9.46922
▁مسئل	-9.46938
▁رکند	-9.46944
▁طلع	-9.46952
▁ذات	-9.47044
▁منظور	-9.47069
▁ايمان	-9.47233
▁چور	-9.47242
▁ميمبر	-9.47336
▁الڳ	-9.47454
▁اث	-9.47491
▁ڳولڻ	-9.475
▁براي	-9.47517
▁واڌ	-9.47612
▁ٽو	-9.47622
▁co	-9.47622
▁سار	-9.47809
▁تحفظ	-9.4785
▁وانا	-9.47898
▁بچ	-9.47969
▁ڪَ	-9.4807
▁بئنڪ	-9.48112
▁قسمن	-9.48291
▁۱	-9.483
▁اڙ	-9.48377
▁ڪٽ	-9.4852
▁وحد	-9.48671
▁ٺا	-9.48718
▁W	-9.48742
▁مقدار	-9.48771
▁رح	-9.48806
▁انڊ	-9.48821
▁مق	-9.48887
▁جذب	-9.48908
▁شن	-9.48974
▁يع	-9.49019
▁ٽيسٽ	-9.49045
▁عوامي	-9.49069
▁ايون	-9.49077
ابط	-9.4909
▁خالي	-9.49137
▁رهند	-9.49159
▁طلب	-9.49176
▁ڀارت	-9.49191
▁روس	-9.49227
▁وهه	-9.49251
▁نسي	-9.49261
▁~	-9.49291
▁قدرتي	-9.49306
▁ئب	-9.49367
▁سماج	-9.49373
ہ	-9.49534
▁And	-9.49574
▁جاچ	-9.49579
▁اٿ	-9.49632
▁رس	-9.49746
▁خرڪار	-9.49832
▁ورتي	-9.49848
▁ادارن	-9.49977
▁50	-9.50033
▁پراڻي	-9.50065
▁حڪمت	-9.50092
▁ادري	-9.5021
▁دشمن	-9.50233
▁هفت	-9.50367
▁هوٽل	-9.50368
▁شخصيت	-9.50398
٪	-9.504
▁پوندي	-9.50402
▁li	-9.50487
▁ڪندس	-9.50513
▁ير	-9.50542
▁صور	-9.50748
▁ائسنس	-9.5077
▁ڏيندي	-9.50778
▁ينل	-9.50848
▁ماڻھو	-9.50864
▁يڪس	-9.50866
▁ch	-9.50947
▁m	-9.51027
▁اظهار	-9.51039
▁زم	-9.51042
▁يدار	-9.51089
▁هجن	-9.5114
▁پهر	-9.51148
▁طيب	-9.51328
ول	-9.51353
▁رابطو	-9.51402
▁رين	-9.51407
▁لال	-9.51447
▁وسيع	-9.51598
▁ننڍي	-9.51654
▁en	-9.51796
▁سعودي	-9.51814
▁اچن	-9.51818
▁ساڳيو	-9.51912
▁ريا	-9.51981
▁شعور	-9.51991
▁وات	-9.52004
▁سڌو	-9.52041
▁ڪسٽم	-9.52264
ڊ	-9.52283
▁عبدا	-9.52337
▁ڪارو	-9.52352
▁اخر	-9.52358
▁مذهب	-9.52469
▁حلوه	-9.52507
▁اه	-9.52601
▁لڳند	-9.52625
▁اق	-9.52635
جي	-9.52637
▁عياري	-9.52681
▁100	-9.5271
▁سڏيو	-9.52717
▁ٿوري	-9.52744
▁يول	-9.52748
نه	-9.52855
▁ترجم	-9.52948
▁گرد	-9.53011
▁مذهبي	-9.53015
▁ارن	-9.53127
▁شاگرد	-9.53224
▁زر	-9.53302
▁گاه	-9.53362
▁مهيني	-9.53383
▁تجرب	-9.53441
▁ويڊيو	-9.53502
▁وڪي	-9.53561
دا	-9.5375
▁انجام	-9.5378
▁سير	-9.53871
▁مر	-9.53883
▁شاهه	-9.53885
▁ly	-9.53925
▁انصاف	-9.53929
▁جز	-9.5403
▁ساڳئي	-9.54195
▁آسمان	-9.54197
▁اسپين	-9.54219
▁خيلي	-9.54313
▁رسم	-9.54446
▁مب	-9.54585
▁اد	-9.54612
▁گھرجي	-9.54698
ٽر	-9.54744
▁خاموش	-9.54754
▁چنڊ	-9.5478
▁مهم	-9.54787
▁سن	-9.54827
▁هور	-9.54842
▁ٽرين	-9.5491
▁يهي	-9.54949
▁يج	-9.54967
▁In	-9.54981
▁18	-9.55009
▁ڊجيٽل	-9.55034
▁هست	-9.55087
▁اذا	-9.55102
▁ريٽ	-9.55122
▁جنم	-9.55152
▁وج	-9.55153
▁دڪان	-9.55176
▁هت	-9.55332
▁حصن	-9.55341
▁مارچ	-9.5536
▁پويان	-9.55379
▁گڏجي	-9.55481
▁ايئن	-9.55499
▁روسيس	-9.55499
▁جموعي	-9.55598
▁سٽيشن	-9.55599
▁11	-9.556
ط	-9.55607
▁com	-9.55712
▁ڪيترو	-9.55732
▁حتجاج	-9.55739
▁nt	-9.55875
▁ڊپ	-9.55963
▁ورا	-9.55979
▁آهنگ	-9.56078
p	-9.56127
▁ممكن	-9.56166
▁عيس	-9.56212
▁ڊر	-9.56249
▁دستا	-9.56281
▁منظم	-9.56307
▁ظ	-9.56359
▁سگ	-9.56368
▁يب	-9.5637
▁ريشن	-9.56372
▁لباس	-9.56455
▁سڄ	-9.56456
▁ڄاڻي	-9.56548
▁شما	-9.56562
▁فطرت	-9.56598
▁دخل	-9.56602
▁ڪپڙ	-9.56611
▁عمارت	-9.56614
▁سياحت	-9.56646
▁مئي	-9.56745
▁ڪورٽ	-9.56751
▁معاش	-9.56827
▁راضي	-9.56951
l	-9.57033
▁نمائ	-9.57081
▁مهوري	-9.5712
▁تحريڪ	-9.57167
▁اڪيلو	-9.57213
▁نيا	-9.57281
▁ڪٽوبر	-9.57309
▁چيڪ	-9.57351
▁اشارو	-9.57372
▁ملائ	-9.57655
▁ادبي	-9.57722
▁پشن	-9.57822
▁وو	-9.57908
▁جنسي	-9.5791
▁لوڪ	-9.5795
▁سوچي	-9.57994
▁عمولي	-9.58031
سخ	-9.58068
▁مه	-9.58092
▁ريڊ	-9.58197
▁معني	-9.58204
▁سزا	-9.58231
▁باغ	-9.58246
▁ايد	-9.58286
▁برانڊ	-9.58326
▁معنيٰ	-9.58466
▁طابقت	-9.58468
▁هُو	-9.5849
▁چيز	-9.58532
▁قسمت	-9.58549
▁ٽيڪس	-9.58549
▁قد	-9.58613
▁نماز	-9.58628
▁ماهر	-9.58633
▁سول	-9.58717
▁ڪنڊ	-9.58737
▁ورڊ	-9.58787
▁وڙه	-9.58831
▁هڙ	-9.58836
▁ائپ	-9.58869
▁ميان	-9.58881
▁بدران	-9.5891
▁موٽر	-9.58915
▁فقير	-9.58919
▁جميل	-9.58924
▁ڪيم	-9.58948
▁پٿر	-9.58967
▁ويند	-9.58976
▁فوت	-9.58984
▁هع	-9.59029
▁ايندا	-9.59039
▁مل	-9.59042
▁عقل	-9.59063
▁حرف	-9.59069
▁ڪلو	-9.59076
▁پرس	-9.59115
▁يڪل	-9.59121
▁طريقا	-9.5915
▁تعريف	-9.59196
▁چڱو	-9.59254
▁اكل	-9.59385
▁on	-9.59386
▁ڊيز	-9.59544
▁تم	-9.59576
▁ماپ	-9.59634
▁تجزيو	-9.59641
▁گيت	-9.59717
▁عند	-9.59848
▁S	-9.59867
وٿ	-9.59945
▁مار	-9.5995
▁مذ	-9.60007
▁نشاني	-9.60048
▁كنت	-9.60076
▁صدق	-9.6008
▁گهربل	-9.60113
▁کليل	-9.60157
تا	-9.60158
▁ڪرائي	-9.60209
▁سيڙپ	-9.6023
▁P	-9.6023
▁pp	-9.60389
▁اڪ	-9.60405
▁نءَ	-9.60427
▁انس	-9.60432
▁پٽمبر	-9.60674
▁بن	-9.60752
▁سيريز	-9.60829
▁پرائ	-9.60835
▁ماري	-9.60917
▁st	-9.60917
▁زن	-9.60952
▁B	-9.61072
▁ڪڍي	-9.61085
▁گراهڪ	-9.61121
▁عزيز	-9.61123
▁وڃائ	-9.6115
▁پول	-9.61203
▁نم	-9.61212
▁مھ	-9.61255
▁سب	-9.61274
▁آدم	-9.61293
▁يمبلي	-9.61418
▁ادر	-9.61538
▁سمارٽ	-9.6157
▁نواز	-9.61593
▁تف	-9.61649
▁ھئي	-9.61652
▁مخ	-9.61707
▁عامل	-9.61723
▁بحال	-9.61763
▁نس	-9.61794
▁كتب	-9.61884
▁25	-9.61917
▁عنوان	-9.62021
▁موٽي	-9.62076
▁ھاڻي	-9.62098
▁تبادل	-9.6217
▁دان	-9.62224
▁گذاري	-9.62276
▁وسيقي	-9.62321
نٽر	-9.62498
▁ڪتابن	-9.62576
▁شهري	-9.62577
▁مني	-9.62605
▁ڪاليج	-9.62627
▁جائزو	-9.62722
▁ملازم	-9.62776
▁tion	-9.62776
ء	-9.62871
▁ميز	-9.62891
▁چر	-9.62936
▁واپسي	-9.62944
▁na	-9.63
▁جاڳ	-9.63043
▁طريقن	-9.63066
▁خخخ	-9.63083
▁لاس	-9.63121
▁نوان	-9.63137
▁أن	-9.63181
▁پئسا	-9.63298
▁حيران	-9.63386
▁سفارش	-9.63391
▁ti	-9.63437
▁يورو	-9.6345
▁الف	-9.63553
▁nd	-9.63557
▁ره	-9.63589
▁الص	-9.63601
▁آبادي	-9.6368
▁ٽيلي	-9.63683
▁ارڻ	-9.63697
▁شمار	-9.63702
▁تيل	-9.63715
▁يڙ	-9.63758
▁فوٽو	-9.63763
▁E	-9.63766
▁نما	-9.63788
▁ڏانھن	-9.63855
▁the	-9.63869
▁I	-9.6389
▁تني	-9.63933
▁نگن	-9.63939
▁انعام	-9.63998
▁فوري	-9.64011
▁جيل	-9.64049
ڳ	-9.64068
▁جنرل	-9.64153
▁جيترو	-9.64155
▁اتفاق	-9.64161
▁زخمي	-9.64194
▁عليها	-9.64214
▁بونس	-9.64321
▁ائيڪل	-9.64349
سپ	-9.64371
▁ڪرائڻ	-9.6463
▁جمل	-9.64643
▁ايان	-9.64719
▁دورو	-9.64742
▁اعت	-9.64797
▁شهيد	-9.64932
▁فرد	-9.6494
▁اڙي	-9.64945
▁حبيب	-9.65089
▁يٽنگ	-9.65089
▁مشتمل	-9.65235
▁ڪلاس	-9.65253
▁يك	-9.65323
▁تنھن	-9.65391
▁ترجمو	-9.65392
▁تار	-9.65398
▁حاج	-9.65414
▁کن	-9.6545
▁ٿر	-9.65474
▁1.	-9.65542
▁لله	-9.65576
▁ئٽ	-9.65578
▁ارسال	-9.65714
▁ويهي	-9.65847
▁انڪار	-9.65887
▁برا	-9.65906
▁نيست	-9.65919
▁چوندا	-9.65929
▁پائ	-9.65968
▁قيام	-9.6602
▁اليسي	-9.66025
▁جنيئر	-9.66174
▁امڪان	-9.66176
▁يلا	-9.66443
▁ڪانه	-9.66456
▁ڀا	-9.66491
▁بھ	-9.66542
▁روشن	-9.66548
▁کاڌ	-9.66575
▁۔۔۔	-9.66646
▁ٽين	-9.66715
▁ڏيئي	-9.66761
▁چارج	-9.66772
▁خاطر	-9.66812
▁فل	-9.66905
▁وطن	-9.6691
▁رکندڙ	-9.67015
▁يڊيا	-9.6703
▁is	-9.67129
▁ڀيرا	-9.67137
▁ٽيبل	-9.67165
▁ٻڌو	-9.67209
▁آگسٽ	-9.6728
▁آرڊر	-9.6729
▁يال	-9.67326
▁@	-9.67599
▁ثاني	-9.676
▁کٽ	-9.67644
▁سوچڻ	-9.67656
▁آفيسر	-9.67687
▁ووو	-9.67752
▁تربيت	-9.67759
▁ئيگي	-9.67794
▁ائن	-9.67795
▁يونٽ	-9.67813
▁ساٿ	-9.67824
▁ni	-9.67881
▁يف	-9.67898
▁سلامت	-9.67912
▁كن	-9.67943
▁پرست	-9.68008
▁هچائڻ	-9.68077
▁راءِ	-9.68079
▁اضافو	-9.68088
▁تل	-9.6811
▁کڻڻ	-9.68244
▁اره	-9.68257
▁فن	-9.68261
▁ro	-9.68356
▁زير	-9.68483
▁امر	-9.68544
▁وزيشن	-9.68559
▁واقف	-9.68562
▁لين	-9.68579
▁دائين	-9.68596
ٺ	-9.68612
▁ملڪيت	-9.68655
▁روپ	-9.68715
▁ساد	-9.68736
▁محن	-9.68861
▁ation	-9.6888
▁ٽيون	-9.68888
▁ريد	-9.68977
▁ستي	-9.69019
▁كلام	-9.69065
▁ايشيا	-9.6907
▁كيف	-9.69079
▁دٻ	-9.69157
▁تش	-9.69248
▁ڀلا	-9.69304
▁ونڊوز	-9.69372
▁وز	-9.69387
▁سڃاڻپ	-9.6939
▁14	-9.69409
▁نت	-9.69413
▁سمجهڻ	-9.69454
▁فرض	-9.69563
▁امين	-9.69661
▁اط	-9.69662
▁ڀريل	-9.69666
▁سڃاڻ	-9.69668
▁ابي	-9.69669
▁جاء	-9.69715
▁re	-9.69755
▁جنس	-9.69833
▁وصول	-9.69855
▁اما	-9.69913
▁رن	-9.69957
▁صفحا	-9.69998
▁يگر	-9.70014
▁دليل	-9.70022
▁فتح	-9.70031
هي	-9.7007
▁ليگ	-9.70092
▁رحم	-9.70107
▁روئ	-9.70128
ڌر	-9.70136
▁يها	-9.70138
▁حمايت	-9.70181
▁يمكن	-9.70346
▁يٺل	-9.70458
▁دريا	-9.70656
▁سبق	-9.70704
▁رهندا	-9.70714
▁ورها	-9.70836
▁شوي	-9.70901
▁رائيڊ	-9.71027
▁عهد	-9.71029
▁ect	-9.71185
▁بئي	-9.71201
▁رابطي	-9.71225
▁مڇي	-9.71248
▁اداري	-9.71282
▁ڪام	-9.71291
▁وند	-9.71302
▁ڪِ	-9.71395
▁رھ	-9.71467
▁ساٿي	-9.71501
▁mp	-9.71525
▁رائيو	-9.7155
▁زنده	-9.71566
▁انو	-9.71581
D	-9.71601
▁وسيل	-9.71781
▁نكت	-9.71795
▁مور	-9.71862
▁شده	-9.71897
▁عز	-9.71902
▁سگھجي	-9.71942
▁انك	-9.72048
▁جر	-9.72104
▁جنوري	-9.72164
▁روي	-9.72255
▁گزارش	-9.72337
▁مسئلا	-9.7237
▁وڪليو	-9.72502
▁يورٽي	-9.72518
▁چو	-9.72648
▁؟؟	-9.72676
▁زمر	-9.727
▁رسال	-9.7281
▁احمد	-9.72849
▁عندي	-9.72888
▁رآمد	-9.73001
▁نومبر	-9.73002
▁ايش	-9.73018
▁هوائي	-9.73038
▁ممم	-9.73156
▁تجويز	-9.7317
▁مکيه	-9.73189
▁راج	-9.73219
▁رسيد	-9.73239
▁ڇڪ	-9.73239
▁ائلون	-9.73361
▁تعرف	-9.73378
▁لسٽ	-9.73463
▁سم	-9.73488
ھڙ	-9.73516
▁ماضي	-9.73529
▁تاج	-9.73568
▁موقعي	-9.7361
▁24	-9.73631
▁هليو	-9.73634
▁اپڊيٽ	-9.73675
▁ديد	-9.73765
هو	-9.73811
▁ريان	-9.73835
▁شتهار	-9.74019
▁دون	-9.74061
▁هلائڻ	-9.74191
▁T	-9.74206
▁پوک	-9.7422
▁حالا	-9.74244
▁ٻڌل	-9.74371
▁وفا	-9.74373
▁خون	-9.74429
▁حادث	-9.74525
▁ion	-9.74529
▁ساز	-9.74533
▁وڊ	-9.74551
▁گھڻو	-9.7465
▁جلس	-9.74671
▁هوش	-9.74718
d	-9.74773
▁رسول	-9.74899
▁جهان	-9.74923
▁هتا	-9.74981
▁طلاق	-9.75041
▁لنڊن	-9.75079
▁پيٽ	-9.75093
▁طريق	-9.75184
▁ولڊ	-9.75213
▁گز	-9.75241
لي	-9.75321
▁^	-9.75379
▁سنڏ	-9.75397
▁وارڊ	-9.75415
▁رر	-9.75434
▁گه	-9.75474
▁ربي	-9.75496
▁سازي	-9.75525
▁ناول	-9.75552
▁أنا	-9.7557
▁ارد	-9.75609
▁هئس	-9.75652
▁مردن	-9.75668
▁شتي	-9.75699
▁قوت	-9.75756
▁مها	-9.75815
▁الزام	-9.75902
▁خوا	-9.75946
▁ڇوڪر	-9.75964
▁قتصاد	-9.76074
▁لانچ	-9.76082
▁وهي	-9.76121
▁هوء	-9.76184
▁مجبور	-9.76248
▁يري	-9.76324
▁دهشت	-9.76424
▁ناهن	-9.76458
▁کوٽ	-9.76499
▁كثر	-9.76609
▁ڊزائن	-9.76643
▁هيٺين	-9.76659
▁ياس	-9.76659
▁حاضر	-9.76774
▁ليڪٽر	-9.76787
ائي	-9.76844
▁ڪميشن	-9.76946
▁ڀاءُ	-9.76946
پريٽ	-9.77076
▁بتد	-9.77188
▁زارين	-9.77224
▁پارڪ	-9.77367
▁سرور	-9.77422
▁ڪانهي	-9.77482
▁اوڀر	-9.77514
▁سينٽر	-9.77551
▁پَ	-9.77595
▁تازو	-9.77603
▁وائنٽ	-9.77652
▁دعو	-9.7777
▁ساري	-9.77794
▁بڪ	-9.77877
▁پناه	-9.77879
▁عربي	-9.77897
▁ll	-9.77974
▁پرين	-9.78095
▁صف	-9.78144
▁ٻيون	-9.78152
▁ذريع	-9.7828
▁لق	-9.78304
▁سيد	-9.78443
▁وه	-9.78452
▁دري	-9.78492
▁ٌ	-9.78543
▁16	-9.78567
▁هندو	-9.7863
▁آس	-9.78632
▁رام	-9.7873
▁الحال	-9.78758
▁عنى	-9.78761
▁مهور	-9.7879
▁وفات	-9.78813
▁لن	-9.78838
▁ليڪ	-9.78848
▁گري	-9.78912
▁رهيون	-9.78925
ينئر	-9.78953
▁ويجه	-9.78957
▁بہ	-9.78973
▁نمون	-9.79071
▁نگران	-9.7908
g	-9.79151
▁يٽر	-9.79189
▁لعب	-9.7926
▁قابلو	-9.79271
▁سکڻ	-9.79314
▁كه	-9.79364
▁لب	-9.79366
▁ضحكت	-9.79373
▁ڀڳ	-9.79383
▁ريح	-9.79391
▁ڪمزور	-9.79432
▁هند	-9.79502
▁ڀري	-9.79607
▁راڊڪٽ	-9.79607
▁قطع	-9.79613
▁الع	-9.79693
▁ڪانگ	-9.79735
▁تعاون	-9.79787
▁نظم	-9.79821
اب	-9.79904
▁ستر	-9.79986
▁هلا	-9.80023
▁آيل	-9.80042
▁هنگ	-9.80073
st	-9.80123
▁ميگ	-9.80202
▁يهم	-9.80279
▁عل	-9.80307
▁اتحاد	-9.80328
▁ڪرايو	-9.8033
▁سائيز	-9.80338
▁ويٺو	-9.8035
▁يخ	-9.80402
▁يمبرن	-9.80409
▁آآ	-9.80462
▁ڊسمبر	-9.80508
سرائ	-9.80521
؛	-9.80549
▁نيم	-9.80608
▁وفاقي	-9.80621
▁ڍ	-9.80629
▁منس	-9.8063
▁ڪاس	-9.80683
▁پٺيان	-9.80693
▁نسان	-9.80702
▁واقعا	-9.80752
▁نڪ	-9.8076
▁گڏوگڏ	-9.80871
▁رکن	-9.80886
▁ڏکيو	-9.8092
رائ	-9.81021
▁زاحمت	-9.81053
▁موقع	-9.81169
▁نتيجو	-9.81188
▁يڏو	-9.81194
▁صير	-9.81273
▁ؤ	-9.81276
▁ناس	-9.81276
▁باهه	-9.81293
▁وهين	-9.81301
▁پيروي	-9.81326
ِه	-9.8133
▁وره	-9.81375
ته	-9.81377
▁وائس	-9.81395
▁نتظر	-9.81419
▁ئنات	-9.81424
▁تاب	-9.81478
▁حنا	-9.81512
▁نقل	-9.81555
▁الو	-9.81596
▁بقى	-9.8162
▁شير	-9.81637
▁نگار	-9.81666
▁C	-9.81674
▁گرام	-9.81701
▁كون	-9.81705
▁mi	-9.81718
▁وان	-9.81738
▁اقت	-9.81754
▁وِ	-9.81756
▁بعض	-9.81785
▁نبي	-9.81811
▁مج	-9.81843
يڙه	-9.81861
▁اٽ	-9.8191
▁وٺو	-9.81941
▁مريض	-9.81975
▁اقول	-9.81995
▁رُ	-9.82023
▁Ma	-9.82048
▁عاد	-9.82121
▁محل	-9.82133
▁لات	-9.82145
▁نصوبي	-9.82153
▁شرڪت	-9.8217
▁40	-9.82224
▁ٽنگ	-9.82243
▁اُهي	-9.82296
▁ريڪٽر	-9.82371
▁انٽ	-9.82412
▁تجربي	-9.82422
▁وزارت	-9.82523
▁ڌر	-9.82524
▁day	-9.8253
▁رف	-9.82536
▁شهرن	-9.82565
▁ردو	-9.82614
▁هار	-9.82637
b	-9.82651
▁تڪليف	-9.82708
▁اپريل	-9.8271
▁درس	-9.82711
▁تسليم	-9.82719
▁بردار	-9.8273
▁يشه	-9.82735
▁ينس	-9.82794
▁علامت	-9.82795
▁بنت	-9.82838
▁روڪي	-9.82903
▁اڳي	-9.83039
▁نالا	-9.83072
▁پارٽ	-9.83084
▁u	-9.83111
▁مشور	-9.83168
▁اسم	-9.8319
▁هاءِ	-9.83272
▁ينٽ	-9.83362
▁رڏيهي	-9.83452
▁ڪلهه	-9.83468
عقيد	-9.83576
▁مدير	-9.83578
▁وندا	-9.83581
▁اصلا	-9.83582
▁احد	-9.83597
▁دارن	-9.83639
▁جذبات	-9.83644
▁مزو	-9.83693
▁اٿم	-9.8372
▁هيس	-9.83737
▁تقول	-9.83833
▁قال	-9.83848
▁وڌو	-9.83858
ائر	-9.8388
▁نار	-9.83894
▁ظا	-9.83975
▁پئج	-9.84015
▁ڳاڙ	-9.84099
▁واهه	-9.84157
هرين	-9.84207
▁ڏسندا	-9.84233
▁سلسلو	-9.84254
▁ra	-9.84262
ی	-9.84301
▁پاڙ	-9.8432
▁فائ	-9.84379
▁اقتور	-9.84399
▁تاز	-9.84413
▁مينهن	-9.8443
▁معا	-9.84451
▁توڙي	-9.84478
▁ينا	-9.84481
▁يره	-9.84566
▁لف	-9.84571
▁داڪار	-9.84582
▁نگاه	-9.84691
▁اڳوڻي	-9.84745
▁چائي	-9.84751
▁مؤ	-9.84777
▁نڪت	-9.84932
▁کار	-9.84951
▁ويچار	-9.8496
▁شراب	-9.84978
▁ورونا	-9.84979
▁بيڪ	-9.84981
▁مئ	-9.84999
▁بم	-9.85005
▁بچائڻ	-9.85153
▁لطف	-9.85155
▁کائي	-9.8518
▁آھيان	-9.85249
▁بلڪ	-9.85254
▁قص	-9.85261
▁ss	-9.85428
▁ڪوٽ	-9.85443
▁G	-9.85566
▁13	-9.8575
▁ايا	-9.85827
▁خواهي	-9.85844
▁لح	-9.85919
▁اخت	-9.85934
▁ارب	-9.85936
▁ويد	-9.85988
▁اطم	-9.86022
▁ڪنار	-9.86025
▁ارٽ	-9.86058
c	-9.86098
▁جرمني	-9.86101
▁مِ	-9.86194
▁>>	-9.86302
▁اسٽيٽ	-9.86308
▁باس	-9.86348
▁هڻ	-9.86354
▁Mi	-9.86434
▁پريس	-9.8644
▁يقول	-9.86488
▁M	-9.86488
▁امداد	-9.86491
▁سپ	-9.86514
▁پکي	-9.86638
ِ	-9.86655
پر	-9.86677
▁نفرنس	-9.86678
▁مرڪ	-9.86706
▁لڪ	-9.86742
▁گھڻ	-9.86781
▁ڇڏيا	-9.86795
▁ووٽ	-9.86797
▁نڊي	-9.86807
▁تازه	-9.86829
▁لازم	-9.86849
▁گفتگو	-9.86873
▁ينه	-9.86902
▁ڊوڙ	-9.86939
▁گهرجن	-9.86973
▁ودڪار	-9.87066
▁فعل	-9.87093
▁يلو	-9.87157
s	-9.87184
▁واني	-9.87189
▁جانور	-9.87299
▁قيمتي	-9.8731
▁ڪاپي	-9.87345
▁هذه	-9.87347
▁صار	-9.87359
▁خدمتن	-9.87407
▁ناڪ	-9.87431
▁مثبت	-9.87459
▁انڪ	-9.87548
▁عطي	-9.87593
▁روايت	-9.87666
▁17	-9.87718
▁فته	-9.87752
▁ورد	-9.87808
▁اڻن	-9.87864
▁قلم	-9.87882
▁ريو	-9.87906
▁سؤ	-9.87992
▁مهل	-9.88052
▁ڙو	-9.88188
▁نصوبو	-9.88233
▁آمدني	-9.88237
▁نَ	-9.8829
▁شيئر	-9.88311
k	-9.88374
▁ردن	-9.884
▁اطلاع	-9.88429
▁لهه	-9.88435
▁شاه	-9.88435
▁بروري	-9.88443
▁بگ	-9.88598
▁فٽبال	-9.88633
▁ورلڊ	-9.88635
▁تهيه	-9.88692
▁چپ	-9.88711
▁سِ	-9.88737
▁هندي	-9.88776
▁ڪوئي	-9.88787
▁منع	-9.88817
عترا	-9.88824
▁ct	-9.88846
▁وڪيل	-9.88852
C	-9.8886
▁me	-9.88894
▁والد	-9.88969
▁چمڪ	-9.89044
ُڌ	-9.89047
نج	-9.89057
▁تج	-9.89137
▁ياري	-9.89175
▁نفرت	-9.89229
▁ڪپ	-9.89241
▁ماڻھ	-9.89312
▁ساهه	-9.89315
▁يڪر	-9.89368
▁وجهي	-9.89398
▁يائون	-9.8942
▁ڀل	-9.89425
▁فخر	-9.89442
▁شكله	-9.89457
ڪيپ	-9.89461
ٽو	-9.89485
▁جيڪٽ	-9.89607
▁دمتون	-9.89615
▁سڌي	-9.89639
▁ce	-9.89662
▁ڊسٽري	-9.89663
▁مصر	-9.89702
▁دشاهه	-9.89812
▁بلوچ	-9.89816
▁بک	-9.89843
▁يچر	-9.89852
▁يست	-9.89875
▁تت	-9.89983
ص	-9.89987
رڙ	-9.90001
▁ولهه	-9.90052
▁ماء	-9.90069
▁رنس	-9.90098
▁نر	-9.90121
▁سته	-9.90122
▁بيس	-9.90194
▁نان	-9.90328
▁حقن	-9.90395
▁ليڪشن	-9.90415
▁وك	-9.9044
▁ers	-9.90444
▁هلندڙ	-9.90445
▁جد	-9.90539
▁اءَ	-9.90567
▁چوڌ	-9.90579
▁ڳوڙ	-9.90585
▁<<	-9.90612
▁غم	-9.90632
▁وائي	-9.90696
▁دعوت	-9.90721
▁چرچ	-9.90724
يدوا	-9.90762
▁وتي	-9.90815
▁آمد	-9.9082
▁ديگر	-9.90821
▁زار	-9.90934
▁درجه	-9.90994
▁آءُ	-9.91022
▁قلت	-9.91073
▁ترڪي	-9.91073
▁متن	-9.91083
▁نڪر	-9.91179
▁صطلاح	-9.91215
▁ضلع	-9.91216
▁رداشت	-9.91218
▁sh	-9.91231
▁يءُ	-9.91253
▁فاد	-9.91411
▁اولاد	-9.91438
▁کات	-9.91469
▁فائيل	-9.91469
▁رضا	-9.91502
▁ca	-9.91515
▁وڄ	-9.91531
▁رارت	-9.91538
▁يكون	-9.91545
▁آئين	-9.91562
▁مسيح	-9.91633
▁هانگ	-9.9164
▁گهڻن	-9.91677
▁پئس	-9.91906
▁اوي	-9.91948
▁سٽر	-9.92007
▁ٽرويو	-9.92026
▁نرم	-9.92036
▁سوا	-9.92073
2	-9.92085
▁گهه	-9.92137
▁رابط	-9.92229
▁ضمانت	-9.9223
▁چيست	-9.92236
▁ينسر	-9.92254
▁بازي	-9.9245
▁وصل	-9.92492
▁منجه	-9.92528
▁هفته	-9.92658
▁بيٽري	-9.92659
▁هڪٻئي	-9.92694
▁ڪيلي	-9.927
▁بلند	-9.92711
▁2.	-9.92762
▁راد	-9.92784
▁منفرد	-9.92843
▁جج	-9.92873
▁ٿڌ	-9.92911
▁ڪال	-9.93059
▁ٹ	-9.93131
▁يکي	-9.93141
▁پهتو	-9.93153
▁علام	-9.9321
▁نوع	-9.93211
▁يزبان	-9.93254
▁XNUMX	-9.93254
▁ائيڊ	-9.93412
▁ننڍڙ	-9.93436
▁يونين	-9.9344
▁se	-9.93449
▁بڻايو	-9.93462
▁پهچڻ	-9.9347
▁دارو	-9.9347
▁ڏيار	-9.93499
▁گروه	-9.93503
يه	-9.93506
▁اٿس	-9.9351
▁ھا	-9.93556
▁نها	-9.936
▁يافت	-9.93605
▁or	-9.93607
▁ينج	-9.93646
▁نمائش	-9.93693
▁بحالي	-9.93726
▁يادت	-9.93738
▁نز	-9.93756
▁مک	-9.93803
▁ha	-9.93816
▁غلام	-9.93896
▁ميڪ	-9.93897
ئو	-9.93926
▁اھ	-9.93972
▁ٰ	-9.94084
▁ٻيڙي	-9.94207
▁دام	-9.94239
▁رهو	-9.94312
▁رٽ	-9.94338
▁شان	-9.94355
▁vi	-9.94386
▁ُون	-9.94422
▁طانيه	-9.94501
▁ردي	-9.94519
▁ارا	-9.94534
▁سوار	-9.94591
▁چيه	-9.94621
▁بدلي	-9.94698
▁حافظ	-9.94706
▁تحليل	-9.94708
▁پاور	-9.9471
▁مسجد	-9.94714
▁ائونڊ	-9.94714
▁عاملو	-9.94724
▁راهيم	-9.94735
▁مزح	-9.9475
▁مافي	-9.94797
▁هڻي	-9.94823
▁عرفت	-9.94872
▁اڻيءَ	-9.95
▁مبر	-9.95012
▁ٽائي	-9.95013
▁َر	-9.95024
▁افسوس	-9.95126
▁ترا	-9.95134
▁صفحي	-9.95221
▁ex	-9.95353
▁يور	-9.95373
▁حلوة	-9.9538
▁عليكم	-9.95381
▁وئ	-9.95382
▁لان	-9.9539
▁es	-9.9541
▁ڄاڻا	-9.95436
▁شور	-9.95479
▁نتخاب	-9.95546
▁کپي	-9.9557
▁رڙ	-9.95659
▁دوستي	-9.95689
▁رفت	-9.95705
▁طبيع	-9.9578
▁ld	-9.95795
▁طول	-9.95853
4	-9.95934
▁ڊيم	-9.95952
▁وايتي	-9.95969
▁نگين	-9.96086
▁لون	-9.96165
▁ter	-9.9617
▁اوھين	-9.9618
▁عاهدي	-9.9618
▁مبارڪ	-9.96192
▁نيد	-9.96208
▁گاهي	-9.9628
▁ارين	-9.96284
▁ta	-9.96289
▁اكيد	-9.96398
▁فٽ	-9.96433
خ	-9.96503
▁لكن	-9.96551
▁ندازو	-9.96556
▁مرمت	-9.9661
▁گهڙي	-9.96662
▁پيئڻ	-9.96683
▁مدا	-9.96811
▁جوڙجڪ	-9.96818
▁محبوب	-9.96824
▁يئي	-9.96857
▁مدت	-9.96863
▁ھڙي	-9.9688
۽	-9.96931
▁ذريعو	-9.96985
▁&	-9.9704
▁روڪڻ	-9.97062
▁ڇڏڻ	-9.97083
▁فق	-9.9711
▁جائز	-9.97141
▁روسي	-9.97211
▁واب	-9.97247
▁برقي	-9.9733
▁بردست	-9.97367
▁Co	-9.97371
▁وڌائي	-9.97386
▁يافته	-9.97398
يٺ	-9.97422
▁ٽائ	-9.97436
▁رجحان	-9.97461
▁نى	-9.97559
▁نتيجا	-9.97599
▁اڳيون	-9.97617
▁وحاني	-9.97676
▁خلص	-9.97684
▁عشان	-9.97716
▁ڳن	-9.97727
▁ma	-9.97786
▁كلم	-9.97871
▁ملڪي	-9.98106
▁اهڙن	-9.98145
▁اپل	-9.98172
▁رھيو	-9.98225
▁پک	-9.98247
▁روڪ	-9.98263
▁پيئي	-9.98294
▁ڇر	-9.98308
▁کل	-9.98312
▁ڄم	-9.98321
▁ريلوي	-9.98348
▁لائيٽ	-9.98374
▁شيخ	-9.98375
▁ٽڪ	-9.98393
▁ڏيان	-9.98483
▁ولين	-9.98486
▁خيالن	-9.98502
▁کاڌو	-9.98514
▁پيچيد	-9.98542
▁{	-9.98543
▁نهار	-9.98573
▁سک	-9.98604
▁تھ	-9.98688
▁تڪرار	-9.98758
▁3.	-9.98759
▁عراق	-9.98764
▁ba	-9.98771
▁خطر	-9.98802
▁وير	-9.98813
▁فائدي	-9.98823
▁شھر	-9.98898
▁جوان	-9.98958
▁ڪپڙا	-9.98984
▁سري	-9.99019
▁روزي	-9.99091
▁جادو	-9.9915
▁Bi	-9.99152
▁تياري	-9.99173
▁طرز	-9.99203
▁ڙهندڙ	-9.99205
▁il	-9.99391
▁سرڪار	-9.99435
▁هيك	-9.99483
ڙھ	-9.99487
▁نجم	-9.99515
▁روف	-9.99566
▁ديس	-9.99568
▁وڻي	-9.99593
▁سيڪنڊ	-9.99635
▁K	-9.99638
▁19	-9.99664
اي	-9.99665
▁وڊيوز	-9.99677
▁موڙ	-9.99677
▁آهست	-9.99749
▁گاهه	-9.99867
▁Ne	-9.99872
▁ذا	-9.99877
▁ارك	-9.99932
▁تس	-9.99941
▁يڪنگ	-9.99974
▁مسلم	-10.0008
▁چان	-10.0017
▁کلي	-10.0018
سي	-10.0024
▁سپر	-10.0028
▁هارڊ	-10.0031
▁يمپ	-10.0035
▁هون	-10.0037
ڀر	-10.0046
▁ربت	-10.0046
▁لآ	-10.0047
▁عندك	-10.0054
▁يوان	-10.0056
▁وني	-10.0057
▁ليا	-10.006
▁نج	-10.0061
رو	-10.0073
▁ولاءِ	-10.0074
▁اڻا	-10.0074
▁ft	-10.0075
▁دوري	-10.0079
▁تخ	-10.0081
▁يڪٽ	-10.0085
▁واقعن	-10.0088
▁سينٽ	-10.009
▁بول	-10.009
▁رساله	-10.0093
▁سگھون	-10.0095
▁موڊ	-10.0095
▁لطيف	-10.0096
▁هلڻ	-10.0097
▁يليا	-10.0101
▁دولت	-10.0102
▁وڃان	-10.0103
▁نعم	-10.0103
▁ريج	-10.0112
▁جُ	-10.0113
▁الا	-10.0114
▁لائق	-10.0114
▁يارو	-10.0115
▁de	-10.012
▁ائيٽن	-10.0125
▁ازم	-10.0126
▁عد	-10.013
G	-10.0132
▁طين	-10.0133
▁ڇڙ	-10.0138
▁تعجب	-10.014
▁ڪهڙا	-10.0145
▁جبل	-10.0146
▁ليب	-10.0147
▁جهڙا	-10.0152
▁الس	-10.0153
▁سونهن	-10.0153
▁ٻيٽ	-10.0155
▁CO	-10.0156
▁آآآ	-10.0156
▁نجھ	-10.016
▁تعليق	-10.0163
▁سنوار	-10.0163
▁نصيب	-10.0164
▁پرواز	-10.017
▁ميشه	-10.0171
▁گهرج	-10.0177
▁شفا	-10.0179
▁تابع	-10.019
▁ارلي	-10.0191
▁اٻي	-10.0192
ڀيٽ	-10.0195
▁بوٽ	-10.0196
▁ينو	-10.0203
▁انج	-10.0207
▁رهائش	-10.0208
▁مصروف	-10.0208
▁ُنهن	-10.0208
▁آڇ	-10.0209
▁,,	-10.021
▁شتر	-10.0221
▁سکيا	-10.0223
▁داخلا	-10.0231
▁هائوس	-10.0232
▁سارا	-10.0233
▁قبر	-10.0239
▁پنڌ	-10.0239
▁آء	-10.0247
▁الم	-10.0248
▁سل	-10.0253
▁la	-10.0265
▁دوم	-10.0269
▁يزر	-10.0275
▁اوچتو	-10.0277
▁نقط	-10.028
▁لام	-10.0281
▁ادي	-10.0282
▁آھيو	-10.0284
▁فا	-10.0284
▁60	-10.0291
▁نڪتو	-10.0292
▁qu	-10.0298
▁ئونسل	-10.0299
▁ڏيندڙ	-10.03
▁اکر	-10.03
▁پرت	-10.0303
▁۲	-10.0305
نائ	-10.0312
▁پال	-10.0313
▁وسي	-10.0313
▁ُر	-10.0323
▁هري	-10.0323
▁ائم	-10.0324
▁فريڪا	-10.0324
▁انڊيا	-10.0326
▁ھئا	-10.0326
رواز	-10.0331
▁کوليو	-10.0334
▁فاصل	-10.0344
▁انگيز	-10.0346
اء	-10.0347
▁رياضي	-10.0349
▁ودي	-10.0359
▁وفيسر	-10.0367
▁گهرن	-10.0372
▁هاڙ	-10.0373
▁انجڻ	-10.0393
▁ناز	-10.0394
▁رڪ	-10.0405
▁ڀائر	-10.0408
▁لاسٽڪ	-10.0413
▁وزاني	-10.0414
▁لٽي	-10.0419
▁هڙيو	-10.0419
▁ندگي	-10.042
▁روائي	-10.0421
▁شعبي	-10.0426
▁رکيل	-10.0431
▁پپ	-10.0431
▁ڦير	-10.0437
▁لڪا	-10.0437
▁چيف	-10.045
ام	-10.0458
▁ااااي	-10.046
▁فورم	-10.0464
▁مول	-10.0465
▁مقصدن	-10.0465
ے	-10.0466
▁يهه	-10.0471
▁ڪون	-10.0474
▁تنگ	-10.0475
▁حسب	-10.0484
▁پالڻ	-10.0484
▁اياز	-10.0489
▁آندو	-10.0491
▁انح	-10.0505
▁ظلم	-10.0505
▁بررسي	-10.0505
▁خاني	-10.0507
▁بيٺو	-10.0509
بل	-10.0511
▁اٿي	-10.0513
▁فين	-10.0519
▁استح	-10.0519
▁پٽي	-10.0524
▁اء	-10.0526
▁ڪميٽي	-10.0528
▁(1)	-10.0529
▁ميچ	-10.0536
▁بٽڻ	-10.0539
هه	-10.0539
▁ويت	-10.0541
▁ڻيو	-10.0561
▁هَ	-10.0563
▁باز	-10.0568
▁هٿيار	-10.0575
▁بازار	-10.0576
▁اڻان	-10.0577
▁ملندي	-10.058
la	-10.0584
▁لئه	-10.0586
▁پئ	-10.0588
▁گو	-10.0589
▁شنگ	-10.0592
قاب	-10.0594
▁سپورٽ	-10.0598
▁ضرب	-10.0599
▁حرڪت	-10.0599
▁لوب	-10.0604
▁ٿڪ	-10.0605
▁طالب	-10.0608
▁ڷ	-10.0615
راح	-10.0619
▁ائش	-10.062
▁قاض	-10.0622
▁ميوزڪ	-10.0624
▁کرد	-10.0624
▁حملو	-10.0632
▁ود	-10.0635
▁خبرون	-10.0639
▁فيشن	-10.0639
▁ڀرسان	-10.0645
▁ڊيل	-10.0646
▁رکندو	-10.0646
▁چيم	-10.0648
▁پاسو	-10.0651
▁pa	-10.0656
▁زون	-10.0657
نسٽا	-10.066
▁جھ	-10.0665
▁ڇل	-10.067
▁عڪس	-10.0677
▁هوم	-10.0677
▁جنٽ	-10.0689
▁}	-10.0692
▁ياسين	-10.07
▁چينل	-10.0701
▁دفعي	-10.0705
▁عذاب	-10.0716
▁يشيا	-10.0717
▁تري	-10.0726
▁ويزن	-10.0735
▁ترجيح	-10.0739
▁تقرير	-10.0739
▁چوندو	-10.0744
▁سڪ	-10.0749
▁خطرو	-10.0756
▁شب	-10.0763
▁;	-10.0764
▁ڪاغذ	-10.0764
▁منحصر	-10.0787
▁فور	-10.0788
▁رئيس	-10.0789
▁سڀاڻي	-10.0794
▁اٿئي	-10.0794
▁رار	-10.0804
▁ويٺي	-10.0806
▁دگار	-10.0811
▁گهرا	-10.0815
▁ڏه	-10.0824
▁ڊڄ	-10.0832
▁فنڪشن	-10.0834
▁نظوري	-10.0834
▁متحد	-10.0835
▁مائٽ	-10.0836
▁يلز	-10.0836
▁بيهي	-10.0839
▁وڌڻ	-10.0848
▁قدرت	-10.0852
▁con	-10.0853
▁ديو	-10.0855
▁اك	-10.0857
▁رمايو	-10.0859
▁وارث	-10.086
▁عرض	-10.0861
▁لاهي	-10.0864
▁ڪچ	-10.0865
▁رٿ	-10.0869
▁صنعتي	-10.0873
▁طالبو	-10.0873
▁پُ	-10.0874
▁انگي	-10.0875
▁مرڻ	-10.0876
▁ڪاٺ	-10.0878
▁رچ	-10.0881
▁جرمن	-10.0882
▁ورج	-10.0882
▁وزانو	-10.0883
▁z	-10.0885
▁مقام	-10.0888
▁سيم	-10.0905
▁لور	-10.0906
▁موثر	-10.0907
▁ئج	-10.0908
▁دس	-10.091
▁خلاقي	-10.091
▁اسي	-10.091
▁ينٽي	-10.091
▁پتو	-10.0914
ٽيف	-10.0921
▁جنب	-10.0922
▁هنج	-10.0927
▁رکون	-10.093
▁😂	-10.0931
▁ڪيان	-10.0931
▁بيمار	-10.0931
▁كف	-10.0931
نصوب	-10.0932
x	-10.0935
▁يتن	-10.094
▁21	-10.094
▁قاعد	-10.0945
▁ريٽري	-10.095
▁وووو	-10.0951
▁مست	-10.0952
▁ليو	-10.0952
يکار	-10.0953
▁بشر	-10.0956
▁بعدين	-10.0965
▁ليز	-10.0969
▁وسو	-10.097
ظاهر	-10.097
▁اندار	-10.098
▁رادري	-10.0981
▁شاپ	-10.0984
▁مادي	-10.0984
ئي	-10.0985
▁ٽوڙ	-10.0987
▁عادت	-10.0992
▁تص	-10.0999
▁مٽي	-10.1003
▁ونه	-10.1007
▁هذي	-10.1007
▁اصلاح	-10.1007
▁عاملن	-10.1009
ئڻ	-10.1013
▁وڌندڙ	-10.1015
▁X	-10.1024
▁عاشق	-10.1028
▁معيشت	-10.1028
▁تُ	-10.1029
▁ملا	-10.1033
▁ڪاوڙ	-10.1035
▁لازمن	-10.1045
▁ماهي	-10.1049
▁پائي	-10.1051
▁پذير	-10.1052
▁تنقيد	-10.1052
▁نسبت	-10.1055
▁ڪلام	-10.1057
▁طئي	-10.1064
▁مشق	-10.1068
▁ڪلاڪن	-10.1074
▁وف	-10.1075
▁F	-10.1075
▁زياد	-10.1078
▁فضل	-10.1078
▁حوص	-10.1081
▁ڀائ	-10.1081
▁شت	-10.1083
▁شيءَ	-10.1085
▁چئن	-10.109
▁si	-10.1091
▁هرو	-10.1091
▁وپن	-10.1093
▁جهه	-10.1093
▁وم	-10.1101
▁تشدد	-10.1101
▁رڊ	-10.1102
▁قيد	-10.1104
▁عم	-10.1109
▁۰	-10.1116
▁گهري	-10.1117
▁ھين	-10.1121
▁هاري	-10.1122
▁اون	-10.1126
▁صلى	-10.1128
▁مڙ	-10.1141
▁رڪن	-10.1142
▁اوت	-10.1142
▁خارجي	-10.1146
▁ونلوڊ	-10.1151
▁برسات	-10.1151
▁et	-10.1153
▁ارادو	-10.1157
▁وڪيو	-10.1159
▁ولد	-10.116
▁ريون	-10.116
نتظا	-10.1161
▁قسمتي	-10.1161
▁هيم	-10.1163
▁ڻو	-10.1165
▁عث	-10.1168
▁ائون	-10.1172
▁گنج	-10.1174
▁مضحك	-10.1176
▁كي	-10.1176
▁نامه	-10.1177
▁سيل	-10.1177
▁رائع	-10.1177
▁el	-10.1178
▁نصب	-10.1179
▁پيرن	-10.1182
▁ياه	-10.1183
▁علا	-10.1189
▁ve	-10.119
▁وقتي	-10.1201
▁ڪٿ	-10.1209
▁ڪنڌ	-10.1215
▁إن	-10.122
▁يييي	-10.1221
▁ڀرپور	-10.1225
▁شهرين	-10.1234
▁سمه	-10.1238
▁جنن	-10.1244
▁شپ	-10.1245
▁طرناڪ	-10.125
▁نصوبن	-10.125
▁يارڪ	-10.125
▁تحرير	-10.1251
ڪو	-10.1253
▁اٺ	-10.1266
▁نجها	-10.1273
ڪي	-10.1274
▁so	-10.1278
▁سڃاتو	-10.1278
▁گُ	-10.128
▁سط	-10.1285
▁اسٽيل	-10.1289
▁اؤ	-10.129
▁افت	-10.129
▁فائدا	-10.1296
▁ٽئي	-10.1296
▁ڏسندي	-10.1298
▁رم	-10.13
▁عبادت	-10.1301
▁نگي	-10.1302
▁حلى	-10.1309
▁وفي	-10.1315
▁پلي	-10.1316
▁اُتي	-10.1316
▁ئس	-10.1317
▁ذخي	-10.1322
▁Ho	-10.1325
▁متحرڪ	-10.1325
▁ڏسند	-10.1326
▁نڪرڻ	-10.1329
▁ميه	-10.1332
▁باڪس	-10.1336
▁حيات	-10.1336
▁ليڪس	-10.134
▁مرضي	-10.1341
▁ڏڪ	-10.1342
▁پاني	-10.1342
▁مقبول	-10.135
▁فيك	-10.1361
▁رَ	-10.1366
▁گول	-10.1366
▁an	-10.1368
▁ٻولين	-10.1369
▁خوراڪ	-10.1376
▁ورهين	-10.1379
▁نهايت	-10.138
▁t	-10.1383
▁ئيندي	-10.1384
▁ديش	-10.1391
▁ليون	-10.1396
▁ئميرا	-10.1401
▁sta	-10.1404
▁ٽرڪ	-10.1432
▁علمي	-10.1436
▁يڪا	-10.1441
▁آرٽ	-10.1442
▁قريبا	-10.1443
▁فار	-10.1443
▁بلڪه	-10.1446
▁ڪڻ	-10.1446
▁امل	-10.1447
کڙ	-10.1448
▁سانيت	-10.1451
▁ترميم	-10.1452
نگ	-10.1455
▁يام	-10.1458
▁مرحله	-10.1459
▁O	-10.146
▁سوالن	-10.1466
▁وٽو	-10.1468
▁عتبار	-10.1477
▁وليون	-10.1479
▁چمڙي	-10.1482
▁آھيون	-10.1485
برا	-10.1493
▁روش	-10.1495
▁ڏهه	-10.1497
▁اديب	-10.1507
▁زوج	-10.1507
▁بندر	-10.1509
▁کنيو	-10.1511
▁ماڳ	-10.1514
يم	-10.1516
انه	-10.152
▁·	-10.1529
ارتي	-10.1531
▁لاڪ	-10.1532
▁يٿ	-10.1534
▁ولپ	-10.1535
▁تبا	-10.1539
▁بچائي	-10.1544
▁ڪتا	-10.1548
▁ابليت	-10.1554
▁نتقلي	-10.1555
▁يرا	-10.1555
▁مآ	-10.1559
▁ينءَ	-10.156
▁هندڙ	-10.1563
▁اخذ	-10.1563
▁هلائي	-10.1565
▁ضع	-10.1567
▁شرم	-10.1569
▁سياح	-10.1573
▁ئيشن	-10.1574
▁صبر	-10.1577
▁ڊيسڪ	-10.1581
▁بالغ	-10.1582
▁ٺ	-10.1587
َ	-10.1593
▁زيد	-10.1595
▁حصا	-10.1603
▁وٺن	-10.1603
▁مغرب	-10.1606
▁دفعا	-10.1615
▁حمد	-10.1616
▁هئ	-10.1618
وز	-10.1619
▁ڪڙي	-10.1622
▁of	-10.1627
▁مستح	-10.1634
چ	-10.1639
▁ٽرم	-10.1639
▁زي	-10.1653
▁حديث	-10.1658
▁able	-10.1658
▁ڊگهو	-10.1658
▁حضور	-10.1658
▁وڌايو	-10.1658
▁ry	-10.1659
▁رھيا	-10.166
▁خانو	-10.1662
▁وما	-10.1664
▁ليک	-10.1665
بي	-10.1671
▁ووووو	-10.1673
▁جم	-10.1678
▁ويٽ	-10.168
▁طوفان	-10.1684
▁دك	-10.1684
▁اليوم	-10.1687
▁ائتي	-10.1687
▁نظارو	-10.169
▁سهڻي	-10.169
▁قبضو	-10.1695
▁جوش	-10.1696
▁خوي	-10.1702
▁لائي	-10.171
▁ڀڃ	-10.1712
▁يونان	-10.1712
جھ	-10.1713
▁بليو	-10.1719
▁su	-10.1721
▁جشن	-10.1737
▁ناھي	-10.1739
▁جماعت	-10.1739
▁مثالي	-10.1741
▁ارائ	-10.1742
▁ماهرن	-10.1743
▁هيل	-10.1749
▁اند	-10.1749
▁كين	-10.1754
▁خيل	-10.1759
▁نب	-10.1761
▁كثير	-10.1763
▁ity	-10.1763
▁دارا	-10.1763
▁بنات	-10.1764
▁معاف	-10.1768
▁وئين	-10.1772
▁sm	-10.1772
▁فزا	-10.1783
▁فارسي	-10.1785
▁طبي	-10.1785
▁ri	-10.1787
▁ثبوت	-10.1789
▁دؤر	-10.1789
▁شريڪ	-10.1791
▁ڪڙ	-10.1792
▁22	-10.1793
▁ڏوه	-10.1796
▁تعال	-10.18
▁ڪتي	-10.1801
ڪاني	-10.1802
▁باني	-10.1811
▁الح	-10.1812
▁ستار	-10.1814
▁صنف	-10.1815
▁شاخ	-10.1816
▁هائي	-10.1819
▁ڌڪ	-10.182
▁بلا	-10.1822
▁ٽائيم	-10.1823
▁dh	-10.1831
▁رمي	-10.1831
▁معك	-10.1839
▁عاشري	-10.1843
تو	-10.1843
▁زائين	-10.1844
▁ريڊيو	-10.1844
▁يماني	-10.1851
ڏام	-10.1858
▁مانس	-10.1859
▁لڳل	-10.1862
▁يوه	-10.1863
▁نامو	-10.1863
▁سنه	-10.1866
▁مزدور	-10.1869
▁هآ	-10.1869
▁وڪري	-10.1871
▁هائ	-10.1873
▁خارج	-10.1877
▁ُه	-10.188
▁اپيل	-10.1881
ليءَ	-10.1882
▁ائر	-10.1887
▁الك	-10.1887
▁لكم	-10.1891
▁معصوم	-10.1895
▁ييي	-10.19
▁کنڊ	-10.19
▁خب	-10.1901
▁ورتا	-10.1904
▁وڌند	-10.1916
▁اختي	-10.1921
▁ڊومين	-10.1923
ُ	-10.1929
▁ڏها	-10.193
▁حيدر	-10.1935
▁اده	-10.1939
▁تلا	-10.1946
▁ائتو	-10.1951
▁فرادي	-10.1956
▁افي	-10.1956
▁يامبر	-10.1956
▁يزا	-10.196
▁wi	-10.1972
▁مريم	-10.1973
▁حترام	-10.1975
▁ارم	-10.198
▁بلاڪ	-10.1981
▁ويٺا	-10.1982
ٽڪل	-10.1984
▁ڪيئي	-10.1986
▁ڏند	-10.1987
▁خلي	-10.2002
▁قربان	-10.2003
▁تباهه	-10.2003
▁جه	-10.2007
▁بچڻ	-10.2007
▁چرا	-10.201
▁گند	-10.2018
▁ڌم	-10.2024
▁4.	-10.2025
▁ملندو	-10.2031
▁نيجر	-10.2036
▁يارا	-10.2045
▁عه	-10.2047
▁جَ	-10.2057
▁جڳ	-10.206
▁پائڻ	-10.2061
رهند	-10.2062
▁عالي	-10.2069
▁قاعده	-10.2072
▁منت	-10.2076
▁دف	-10.2079
▁سختي	-10.2087
▁صب	-10.2091
ُھ	-10.2098
▁قق	-10.2101
جهند	-10.2102
▁واڌا	-10.2105
▁همڻ	-10.2105
▁جڳه	-10.211
▁آڏو	-10.2114
▁ڪيج	-10.2116
▁شفت	-10.2122
▁رينج	-10.2123
1	-10.213
▁برو	-10.2133
▁ڄڻا	-10.214
▁اتل	-10.214
▁ديوا	-10.2143
▁tor	-10.2143
▁عال	-10.2143
▁خوبي	-10.2143
▁يكم	-10.2145
▁ريگ	-10.2147
▁دوز	-10.2154
▁ليج	-10.2158
▁ختلاف	-10.2165
▁رڪا	-10.2173
▁ڙڪ	-10.2177
▁ڪلب	-10.2178
▁آرڪ	-10.2178
▁سائ	-10.2179
▁التون	-10.2186
▁ڏٺا	-10.2186
▁اسٽاڪ	-10.2196
▁ننڍڙي	-10.2202
▁منك	-10.2208
هڪ	-10.221
▁فاع	-10.2214
▁age	-10.222
▁چايو	-10.2221
▁رندڙ	-10.2221
▁سند	-10.2224
▁ڊيو	-10.2231
▁nk	-10.2231
▁ٻان	-10.2238
▁توسان	-10.2247
▁ڏاڏ	-10.225
▁پڙهو	-10.2253
▁لڳائڻ	-10.2255
▁آخرين	-10.2261
▁اعرف	-10.2267
▁ماع	-10.2269
ھا	-10.227
▁ليڪن	-10.2271
▁چئ	-10.2272
▁ڀريو	-10.2273
▁تضحك	-10.2275
▁صفائي	-10.2276
▁ڊسڪ	-10.2276
▁دانش	-10.2278
▁we	-10.2283
▁پريم	-10.2284
▁صحافي	-10.2298
▁هينا	-10.2301
▁تقسيم	-10.2302
▁زمائش	-10.2302
▁شيد	-10.2303
▁یک	-10.2307
▁ننڍو	-10.2311
▁كك	-10.2312
▁صفحو	-10.2314
▁ے	-10.2314
▁بني	-10.2317
▁عطا	-10.2319
▁سياري	-10.2321
▁اليه	-10.2326
اڱ	-10.2327
▁نھي	-10.233
▁بزرگ	-10.233
▁راس	-10.2332
▁اص	-10.2336
▁ٽيڪ	-10.234
▁Re	-10.2341
▁عزم	-10.2343
▁واه	-10.2343
▁مئن	-10.2347
▁gra	-10.2358
▁ورزن	-10.2359
▁خلق	-10.236
▁سردار	-10.2362
▁Sin	-10.2365
▁مونڊي	-10.2369
▁زهر	-10.2374
▁گهرو	-10.2378
▁سگهيا	-10.2378
▁رع	-10.2383
▁پهت	-10.2383
▁ددگار	-10.2386
▁be	-10.2387
▁مايوس	-10.2387
▁سرما	-10.2392
▁ڪورس	-10.2393
▁چانه	-10.2393
يلڊ	-10.2397
▁فى	-10.2401
لط	-10.2406
ڙهند	-10.2408
▁اسٽر	-10.2409
▁يبت	-10.241
▁نوار	-10.2413
▁يالله	-10.2415
▁ڪيميا	-10.2416
▁ومين	-10.2417
▁واقعو	-10.2417
▁كمل	-10.2418
▁وٽيوب	-10.2419
▁عليك	-10.2422
▁ke	-10.2427
▁ورة	-10.2428
▁حالي	-10.2434
▁Su	-10.2437
▁لڪي	-10.2439
▁مفيد	-10.2442
▁تسلم	-10.2442
▁iz	-10.2443
▁ment	-10.2443
▁فلٽر	-10.2444
▁بهار	-10.2447
اتم	-10.2454
هڪر	-10.2455
▁90	-10.2458
▁صل	-10.2459
▁ٺاهيل	-10.2459
▁N	-10.2464
▁حيد	-10.2464
▁بز	-10.2466
▁پلس	-10.2468
▁مستقل	-10.2476
▁سائي	-10.2477
▁ليئر	-10.2479
▁عيش	-10.248
▁لما	-10.2487
▁ڄا	-10.249
▁وازن	-10.2495
▁يڻو	-10.2495
▁سوس	-10.25
▁sub	-10.25
▁سما	-10.2504
▁كذا	-10.2504
▁ياني	-10.2505
▁ڙيل	-10.2513
▁ريئر	-10.2516
▁ياڻي	-10.2518
▁شرطن	-10.2518
▁انها	-10.2521
▁ڏاڍ	-10.2522
▁سس	-10.2522
▁رھي	-10.2523
▁مڪي	-10.2524
▁غائب	-10.2527
▁حر	-10.2527
▁ابدا	-10.2529
▁لر	-10.2529
▁ريال	-10.2534
ڪايت	-10.2542
▁مٿا	-10.2554
▁رهنما	-10.2556
▁ڪست	-10.2557
▁يٽا	-10.2557
▁يگرن	-10.2559
▁تبصرو	-10.2564
وم	-10.2569
يت	-10.257
▁حت	-10.2573
▁كره	-10.258
▁برن	-10.2587
▁ٺهر	-10.259
▁ٽان	-10.2591
▁رل	-10.2591
▁نظ	-10.2594
▁نيڻ	-10.2595
▁شرف	-10.2598
▁چيئ	-10.2605
▁H	-10.2609
▁عيون	-10.2611
▁ارض	-10.2611
▁انوي	-10.2613
▁نقطي	-10.2615
▁no	-10.2621
▁واس	-10.2624
▁مارجي	-10.2624
▁چڪر	-10.2627
▁لها	-10.2627
▁مزي	-10.2628
▁نيل	-10.2629
▁٠	-10.2639
▁ent	-10.2639
▁اثرات	-10.2644
▁رهجي	-10.2646
▁مجاز	-10.2646
▁جنت	-10.2646
▁تجز	-10.2647
▁یس	-10.2654
▁شنو	-10.2655
▁سنئ	-10.2666
▁دارت	-10.267
▁ڪثريت	-10.267
▁يدائش	-10.267
▁هچائي	-10.2671
▁ght	-10.2673
▁مشكور	-10.2674
مح	-10.2679
▁فيها	-10.268
▁لنگ	-10.2693
▁هيز	-10.2698
▁الناس	-10.2699
▁واسطو	-10.2711
▁اھر	-10.2711
▁ذر	-10.2718
▁der	-10.2721
▁يڊٽ	-10.2725
جموع	-10.2728
▁ناصر	-10.2728
▁قلع	-10.2729
مراه	-10.2732
▁رك	-10.2741
▁روانو	-10.2742
▁حظ	-10.2743
▁کم	-10.2747
▁فرمان	-10.2749
پريم	-10.275
3	-10.2752
▁نهاري	-10.2753
▁عاهدو	-10.2756
▁ناب	-10.2757
▁طانيا	-10.2757
▁چوان	-10.2763
▁پڙهيو	-10.2766
▁ڪرس	-10.2773
▁بقا	-10.2774
▁يننگ	-10.2777
▁بدي	-10.2781
▁80	-10.2784
▁كمان	-10.2793
▁رڪنن	-10.2795
▁نگا	-10.2799
نتد	-10.2801
▁وليد	-10.2804
▁ريزن	-10.2819
▁طالعو	-10.2822
▁آي	-10.2826
▁مف	-10.2831
▁ونئن	-10.2835
▁منا	-10.2836
▁هئو	-10.2837
▁تڪ	-10.2838
▁پيل	-10.2843
▁ڙهائي	-10.2844
▁rch	-10.2844
▁لندڙ	-10.2845
ث	-10.2848
▁خور	-10.2849
▁هلو	-10.2849
▁عادي	-10.2852
▁گڏج	-10.2852
▁جهل	-10.2853
▁نفي	-10.2859
▁جدو	-10.2861
▁لاگ	-10.2867
▁واچ	-10.2867
▁راحت	-10.2868
▁نڌن	-10.2869
▁يرو	-10.2872
▁شل	-10.2873
▁يهار	-10.2876
▁؟؟؟	-10.2878
▁ڀير	-10.2879
▁گورن	-10.288
▁صفحه	-10.2886
▁پرنٽ	-10.2887
VID	-10.2892
▁سرچ	-10.2892
زت	-10.2894
▁هيٺان	-10.2898
▁وبائي	-10.2903
▁ڦر	-10.2904
▁ملن	-10.2904
▁تأ	-10.2907
▁يسائي	-10.2911
▁رحد	-10.2914
▁دهي	-10.2914
▁ڌڻي	-10.2915
▁هِ	-10.2924
پو	-10.2928
▁V	-10.2929
▁مليا	-10.2934
▁لمهم	-10.2934
▁پيغ	-10.2938
▁خواه	-10.2938
▁دائي	-10.2939
▁تَ	-10.295
▁جيب	-10.296
▁رهبر	-10.2962
▁حران	-10.2962
ڙي	-10.2966
▁غار	-10.2969
▁رمين	-10.2978
▁di	-10.298
▁مات	-10.2982
▁رعي	-10.2987
▁رش	-10.2989
▁مرض	-10.2995
لا	-10.2996
▁فنا	-10.3004
▁همه	-10.3007
▁پيج	-10.3013
▁rd	-10.3019
▁ar	-10.302
▁سکر	-10.3022
▁pro	-10.3022
▁%	-10.3023
▁جس	-10.3024
▁ڪريم	-10.3025
▁فت	-10.3028
▁كده	-10.3031
▁لوا	-10.3032
▁خرابي	-10.3032
▁رڪي	-10.3036
▁ٽاپ	-10.3037
▁ڪارڻ	-10.3038
▁رده	-10.3039
ادو	-10.3045
▁ئل	-10.3046
▁طالعي	-10.3049
▁ترم	-10.3052
▁at	-10.3054
▁كبر	-10.3059
▁فني	-10.3061
▁شعب	-10.3064
▁ئف	-10.307
▁طق	-10.3071
▁يڪٽر	-10.3084
▁روان	-10.3088
▁چاھ	-10.3094
▁Pa	-10.3098
▁ٺه	-10.3099
▁روج	-10.3106
▁عملن	-10.3107
▁اتان	-10.3108
▁link	-10.3111
▁حين	-10.3112
▁ir	-10.3113
▁ڙهيل	-10.3115
ra	-10.3116
▁بيا	-10.3116
▁هير	-10.3117
▁ڪمن	-10.312
▁پيئ	-10.3131
يٽور	-10.3131
يس	-10.3137
▁فوٽ	-10.314
▁مقال	-10.3146
▁ثار	-10.315
▁غذا	-10.3151
چيند	-10.3155
▁خار	-10.3156
وزگا	-10.3159
▁داس	-10.3161
▁اذ	-10.3163
▁اڀ	-10.3168
▁us	-10.317
▁ظاهري	-10.3171
▁سيار	-10.3172
▁اڏا	-10.3175
▁70	-10.3181
▁un	-10.3184
▁احس	-10.319
▁ڪارپ	-10.3198
▁La	-10.32
▁وڪ	-10.3202
▁پو	-10.3203
▁مود	-10.3205
▁رتب	-10.3207
▁ملو	-10.3209
▁لڳائي	-10.321
▁هيڊ	-10.3214
▁اُه	-10.3215
▁ۈ	-10.3226
▁هاء	-10.3227
▁قلبي	-10.3228
▁ٽيل	-10.323
▁ٽيگ	-10.3232
▁ڪمر	-10.3234
▁هِن	-10.3236
▁رواج	-10.3236
▁لطا	-10.3237
▁همت	-10.3243
▁."	-10.3246
▁رشت	-10.3247
▁كس	-10.3249
▁حس	-10.3254
▁اڪو	-10.3261
▁ئوٽ	-10.3267
▁کا	-10.3267
▁ماسڪ	-10.327
▁شش	-10.3273
▁والا	-10.3278
▁تبر	-10.328
▁يتري	-10.3285
▁ھار	-10.329
▁الى	-10.329
▁27	-10.3293
▁ad	-10.3305
▁ساله	-10.3309
▁گار	-10.3315
▁لانا	-10.3315
ات	-10.3316
▁ئيڊ	-10.332
▁^^	-10.3322
▁خطي	-10.3329
▁طري	-10.3339
▁هود	-10.3344
▁سمجهو	-10.3346
▁پاپ	-10.3347
▁ليم	-10.3351
▁نشي	-10.3359
▁انڌ	-10.3369
▁ڪرائ	-10.3373
▁دُ	-10.3375
▁لس	-10.3381
▁لامي	-10.3386
▁ھتي	-10.3389
▁وڌائ	-10.3391
▁and	-10.3391
وبائ	-10.3395
▁سكر	-10.3405
▁رسل	-10.3414
▁چشم	-10.3418
▁وشت	-10.3419
▁استر	-10.3421
▁نچ	-10.3421
▁جهد	-10.3423
▁امد	-10.343
ڪرو	-10.3432
▁بقي	-10.3447
▁صري	-10.3449
▁انءِ	-10.345
▁كلهم	-10.3453
▁خلت	-10.3456
▁ڌيءَ	-10.3459
▁کولي	-10.3461
▁كلك	-10.3462
▁اڪر	-10.3462
▁وسر	-10.3469
▁انيه	-10.3476
▁برگ	-10.3476
▁رأ	-10.3482
▁ينيٽ	-10.3485
▁راهه	-10.3488
وا	-10.3488
▁ڻند	-10.3517
▁۳	-10.3525
▁پچ	-10.3532
▁حش	-10.354
▁په	-10.354
▁ia	-10.3545
▁كتير	-10.3547
▁سرد	-10.3551
▁نامي	-10.3551
▁هيت	-10.3556
▁لود	-10.3557
▁سئ	-10.3557
▁ماس	-10.3562
▁مارڪ	-10.3568
▁ous	-10.3572
▁مزاج	-10.3574
▁28	-10.3577
▁ليت	-10.3582
▁پيء	-10.3586
▁صلي	-10.3587
▁سيلي	-10.3598
▁غاز	-10.3607
▁حرام	-10.3616
▁دانه	-10.3617
▁مناف	-10.362
▁طان	-10.3624
واز	-10.3626
غ	-10.3627
▁سمع	-10.363
▁هڪار	-10.3636
▁ook	-10.3636
▁ئر	-10.3637
▁يندس	-10.3638
▁شتو	-10.3642
▁هدي	-10.3645
▁سف	-10.3648
▁سه	-10.3648
▁گيٽ	-10.3652
▁قبض	-10.3654
▁هُئي	-10.3655
▁لندا	-10.3656
▁هد	-10.3662
▁ورز	-10.3665
▁پياري	-10.3667
▁چڙهي	-10.3676
▁نند	-10.3686
ڪسين	-10.3689
▁وائر	-10.3692
▁26	-10.3697
لو	-10.3699
▁لڊنگ	-10.3699
▁(2)	-10.37
▁انداز	-10.37
دي	-10.37
▁وائ	-10.3701
▁ھٿ	-10.3702
▁جيٽ	-10.371
▁هنا	-10.3711
▁راڻو	-10.3713
L	-10.3716
▁لٽ	-10.3717
▁رنگي	-10.3718
▁خام	-10.3718
▁نيس	-10.3724
▁توک	-10.3738
▁وآ	-10.3746
من	-10.3747
▁وول	-10.3749
▁يڪو	-10.3755
▁عذ	-10.3755
▁اشار	-10.3762
▁ڳا	-10.3766
▁سائن	-10.377
▁يبي	-10.377
▁زاز	-10.3772
▁ينر	-10.3774
▁هذ	-10.3775
▁وخ	-10.3776
▁راڻيو	-10.3777
▁rn	-10.3779
▁ڪيشن	-10.378
▁گهم	-10.378
▁واسط	-10.3784
▁نڊ	-10.3794
▁ينچ	-10.3804
▁وبا	-10.3806
▁Ca	-10.3811
▁مائي	-10.3818
ڇا	-10.3819
▁کرن	-10.3824
▁بائ	-10.3825
▁كت	-10.3829
re	-10.3829
▁ڪور	-10.3835
▁ٽون	-10.3837
▁The	-10.384
▁نياڻي	-10.3841
▁كله	-10.3842
▁ٽور	-10.3845
▁بوڪ	-10.3846
▁ذب	-10.3854
▁De	-10.3856
▁يح	-10.3871
▁ماڻي	-10.3872
▁يز	-10.3872
▁سندي	-10.3875
▁lo	-10.3875
▁رق	-10.3882
▁معي	-10.3895
▁گره	-10.3911
▁نڪس	-10.3914
▁سڪين	-10.3919
▁هيء	-10.3921
▁ڻا	-10.3922
▁سٽريٽ	-10.3926
▁اهه	-10.3929
▁راڻي	-10.393
▁شغ	-10.3937
▁رون	-10.3944
▁بڻج	-10.3946
تر	-10.3948
نا	-10.3952
▁حساس	-10.3959
▁ph	-10.3961
▁بيه	-10.3963
▁عدد	-10.3965
▁2-	-10.3967
▁حج	-10.3968
▁بينا	-10.3978
▁استان	-10.398
▁باد	-10.3983
▁نيب	-10.3987
▁نجه	-10.3988
▁صفح	-10.3989
▁ينڪ	-10.3998
▁نص	-10.4003
▁پن	-10.4006
▁mo	-10.401
▁اڇ	-10.401
▁برف	-10.4011
▁يمن	-10.4012
▁جزا	-10.4013
▁همين	-10.4019
▁23	-10.4022
لائ	-10.4025
▁وءَ	-10.4027
▁راب	-10.4027
▁وث	-10.4039
▁رست	-10.4042
▁راسر	-10.4042
▁يسا	-10.4043
▁نتي	-10.4053
▁نڪار	-10.4061
▁ونڊ	-10.4072
▁جب	-10.4072
▁p	-10.409
▁ايع	-10.4092
▁اسڪا	-10.41
▁حيا	-10.4105
▁هيڙ	-10.411
▁ُور	-10.4115
▁اسٽار	-10.4117
▁يپر	-10.4141
▁هاڪ	-10.4147
▁اخي	-10.4149
▁يابي	-10.4151
ri	-10.4157
▁نگريز	-10.4158
▁ow	-10.4167
ئل	-10.4167
▁والو	-10.4169
▁it	-10.4176
▁اندي	-10.4177
▁ڏٺي	-10.4177
▁يڪٽري	-10.4178
▁يش	-10.4179
▁ff	-10.4189
▁صوبي	-10.4189
▁پاه	-10.4189
▁غل	-10.4189
▁ريزي	-10.4191
▁روئي	-10.4194
▁ڊيڪل	-10.4195
▁سٽا	-10.4196
▁يص	-10.4204
▁ستا	-10.4207
▁هيرو	-10.4208
▁sp	-10.4212
▁Go	-10.4219
▁بح	-10.4221
▁يتا	-10.4222
▁اڪي	-10.4222
▁جاپان	-10.4224
▁شم	-10.4229
▁مهمان	-10.4232
▁مران	-10.4234
▁وڇ	-10.4234
يز	-10.4237
▁رمائي	-10.4244
▁گهار	-10.4244
▁کسي	-10.4247
ير	-10.4253
اس	-10.4253
▁وست	-10.4254
▁توا	-10.4255
▁ٽل	-10.4256
▁Pre	-10.4261
▁ver	-10.4262
▁ژ	-10.4263
ومر	-10.4275
▁طب	-10.4285
▁لايو	-10.429
▁حاڪم	-10.4291
▁حي	-10.4291
'	-10.4291
▁معنا	-10.4297
▁احسا	-10.4298
▁يائي	-10.4303
▁رِ	-10.4303
▁لَ	-10.4308
▁ثر	-10.4316
▁تعالي	-10.4318
▁افق	-10.4321
▁tter	-10.4325
▁سمي	-10.433
▁مدل	-10.4335
▁خر	-10.4339
▁وع	-10.4355
▁وءِ	-10.4363
▁رول	-10.4364
▁بعا	-10.4365
▁حري	-10.4366
▁حلي	-10.4371
▁مهر	-10.4379
▁اڙه	-10.4384
▁يگه	-10.4388
▁هوڙ	-10.4389
▁مخت	-10.4389
▁ريپ	-10.4403
▁ولر	-10.441
▁بط	-10.4419
▁اجر	-10.4421
▁ومن	-10.4426
▁قطار	-10.4428
▁ٻڌا	-10.4431
رطان	-10.4436
▁جرم	-10.4446
▁يپ	-10.4448
▁رڻ	-10.4449
▁جيئ	-10.4452
▁وور	-10.4455
▁ورت	-10.4465
▁هيب	-10.4465
▁جاني	-10.4466
امع	-10.4468
▁سيت	-10.4474
▁ain	-10.4496
▁اسڪي	-10.4498
▁ur	-10.4505
▁ريز	-10.4505
▁ٽريڪ	-10.4506
▁لھ	-10.4517
▁يرها	-10.4521
▁اهر	-10.4526
▁ive	-10.4532
▁ھم	-10.4536
▁وتا	-10.4539
▁ڇت	-10.4553
▁Li	-10.4564
▁منه	-10.4564
▁مطالب	-10.4565
▁سنج	-10.4566
▁قبيل	-10.4567
▁ٽيڊ	-10.4569
▁اريو	-10.4577
▁پڇڻ	-10.4578
▁صدا	-10.4584
▁يپس	-10.4585
رٽر	-10.4591
▁وهر	-10.4591
▁ريري	-10.4592
▁رعا	-10.4604
▁مدار	-10.4608
▁الب	-10.4619
▁كِ	-10.4621
يڊ	-10.4622
▁Ba	-10.4633
▁بوتل	-10.4636
▁ڄاڻو	-10.4638
▁one	-10.4641
▁ula	-10.4643
▁راف	-10.4643
▁ئا	-10.4644
▁شى	-10.4645
▁نجي	-10.4646
▁وها	-10.4646
▁فلا	-10.4654
ھڙي	-10.4657
▁ميم	-10.466
▁فرن	-10.4666
▁يڊا	-10.4669
▁نير	-10.467
▁yp	-10.4673
▁پورا	-10.4679
▁mb	-10.4682
ne	-10.4694
▁لع	-10.4695
▁سجي	-10.4702
▁هيڪ	-10.4709
▁ستگي	-10.4713
▁تال	-10.4713
▁اعدو	-10.4714
▁تقا	-10.4718
▁آور	-10.4721
▁عرص	-10.4728
▁جبت	-10.4747
de	-10.475
▁cl	-10.4762
▁ڪتو	-10.4763
▁fi	-10.4766
وس	-10.4776
▁ننگ	-10.4778
▁هيلو	-10.4782
▁ڪج	-10.4787
▁ندار	-10.479
▁يلر	-10.4795
تي	-10.4806
▁وهن	-10.4806
▁پھر	-10.4808
▁if	-10.4813
▁cr	-10.482
▁گلن	-10.4821
▁ليشن	-10.4822
h	-10.4823
▁شا	-10.4826
▁آيت	-10.4827
▁كر	-10.4828
ٽي	-10.4829
▁راڄ	-10.4832
▁نكم	-10.4833
▁بش	-10.4833
▁ڙا	-10.4834
▁رتي	-10.4849
▁يبل	-10.4853
▁يريا	-10.4855
▁چهري	-10.486
▁her	-10.4862
▁طرا	-10.4866
▁ڌاري	-10.4869
▁شاهي	-10.4874
▁تنا	-10.4879
▁هوند	-10.4885
▁يرت	-10.4886
▁صاب	-10.4909
▁پمپ	-10.491
ني	-10.4911
▁لڪو	-10.4912
▁وگو	-10.4921
▁א	-10.4923
S	-10.4927
▁ine	-10.4933
▁ملت	-10.4937
▁رائ	-10.4939
▁مسي	-10.4945
▁شكر	-10.4945
▁ڪتب	-10.4949
▁ڪيبل	-10.4963
▁مٿ	-10.4965
▁بادش	-10.497
▁enc	-10.4973
▁هستي	-10.4973
▁L	-10.4974
▁نڪي	-10.4976
▁زڪ	-10.4978
▁حرا	-10.4978
▁ناسي	-10.4983
▁وشيءَ	-10.4984
▁سمس	-10.5015
▁od	-10.5022
▁ليك	-10.5023
▁تاح	-10.5027
्	-10.5028
▁گوا	-10.5028
ما	-10.5045
رام	-10.5063
▁پابند	-10.5064
▁ame	-10.5067
▁وڙي	-10.5067
▁طل	-10.5068
▁ڪئن	-10.5075
▁تِ	-10.5077
▁بيني	-10.5079
▁هها	-10.5083
▁للي	-10.5085
▁ھجي	-10.509
▁ميٽ	-10.51
▁ئيندڙ	-10.5102
▁500	-10.5104
▁صديق	-10.5104
▁أل	-10.5106
▁ائبر	-10.5109
▁فيئر	-10.5118
▁ru	-10.5123
▁اجل	-10.5125
▁يڏي	-10.5127
▁ڇه	-10.513
▁ائز	-10.5132
▁امت	-10.5133
نس	-10.5139
▁زند	-10.514
▁قصد	-10.5149
▁est	-10.5149
▁انب	-10.5152
▁ديت	-10.5162
▁To	-10.5178
▁by	-10.5179
▁عض	-10.518
▁چاپ	-10.5185
▁عيسي	-10.5188
▁ڪمال	-10.5189
▁صول	-10.5191
▁يتي	-10.5195
▁ميت	-10.5204
▁صفا	-10.5209
▁چاه	-10.5214
si	-10.5215
▁ub	-10.5219
▁طاب	-10.5225
▁نهم	-10.5226
▁وڳي	-10.5246
▁گرين	-10.5247
▁يٺي	-10.5251
▁نياز	-10.5263
▁لأ	-10.5266
▁بخ	-10.5279
▁فائد	-10.528
▁nce	-10.529
▁دول	-10.5292
▁200	-10.5294
▁پڇي	-10.5299
▁وب	-10.5306
▁اڊا	-10.531
▁ائد	-10.5312
▁لنگه	-10.5312
▁ٽري	-10.5312
▁زخم	-10.5314
▁ستو	-10.5321
▁ڏيون	-10.5322
▁گزار	-10.5326
▁وزر	-10.5327
▁up	-10.5328
▁منو	-10.5334
▁ڀت	-10.5345
▁احتي	-10.5353
▁انف	-10.5358
▁نڌ	-10.536
▁عارف	-10.5362
▁پد	-10.5363
▁ندڙن	-10.5364
▁سست	-10.5367
▁ڦٽ	-10.5367
▁U	-10.537
▁رندي	-10.5372
▁ابا	-10.5374
▁ڏٺ	-10.5376
▁عذر	-10.538
▁يرس	-10.538
▁مسك	-10.5383
▁ناچ	-10.54
▁hat	-10.5401
A	-10.5406
▁گهي	-10.541
▁زز	-10.5412
▁ڇهه	-10.5417
▁cu	-10.5419
شو	-10.5421
▁da	-10.5427
▁ائج	-10.5431
▁جار	-10.5436
▁سروي	-10.5444
▁لمون	-10.5444
▁fa	-10.5444
▁واڻ	-10.5474
▁out	-10.5475
▁معمول	-10.5475
ڄ	-10.5482
▁رزا	-10.5483
▁ڱ	-10.5487
▁نڊو	-10.5492
▁ناهه	-10.5492
all	-10.5497
▁لپ	-10.5507
▁ودا	-10.551
▁خشڪ	-10.5514
▁رپيا	-10.5519
▁گولي	-10.552
▁زد	-10.552
▁سئل	-10.552
▁ڀڄ	-10.5536
▁ٽا	-10.5546
▁گهڙ	-10.5551
▁لٿ	-10.5552
▁پيرا	-10.5559
▁واز	-10.556
▁اقل	-10.5561
▁نيون	-10.5566
▁اجي	-10.5572
▁پروف	-10.5572
▁لڪن	-10.5577
▁شدت	-10.5581
▁£	-10.559
▁جام	-10.559
▁وبل	-10.5593
▁Z	-10.5595
▁ٽلي	-10.5598
▁نوي	-10.5602
▁موم	-10.5604
▁اوند	-10.5615
▁ڪيڏ	-10.5615
▁5.	-10.5621
▁ڪڏھن	-10.5628
▁°	-10.5629
ڇ	-10.563
▁يض	-10.5635
▁چئو	-10.5637
▁يشي	-10.564
▁چيل	-10.5643
▁رٽس	-10.5647
▁مزد	-10.565
▁ميڊ	-10.5651
▁وٽن	-10.5651
▁ڄي	-10.5652
▁ريڪا	-10.5656
▁يوند	-10.566
▁man	-10.5668
▁لئ	-10.5669
▁R	-10.567
▁ئيندو	-10.5671
شن	-10.5681
▁أخ	-10.5682
▁وغ	-10.5682
ڪش	-10.5683
▁ڪوٺ	-10.5685
▁شف	-10.5698
▁شنا	-10.5699
▁يلن	-10.5706
▁Twi	-10.5706
▁ماريو	-10.5706
▁کند	-10.5707
▁Sa	-10.5708
▁سنگت	-10.5708
▁ترسيل	-10.571
▁اسڪر	-10.5716
▁ڏور	-10.5725
▁اوا	-10.5733
▁ڪتن	-10.5737
▁رياض	-10.5737
▁تظامي	-10.5745
▁use	-10.5748
وي	-10.575
▁يمه	-10.5751
▁قرب	-10.5754
▁um	-10.576
▁تض	-10.5761
▁ترڪ	-10.5761
▁بحر	-10.5762
▁؟!	-10.5765
▁شار	-10.5768
▁شخ	-10.5774
▁الد	-10.5783
▁ميٽي	-10.5787
▁فريق	-10.5787
▁طبع	-10.5788
▁ونٽ	-10.5794
▁يسين	-10.5795
▁جڻ	-10.5797
▁وأ	-10.58
▁رجع	-10.5811
▁for	-10.5811
▁ای	-10.5815
▁قت	-10.5818
▁مادر	-10.5838
▁سٽي	-10.5846
اد	-10.5851
▁Da	-10.5851
▁نده	-10.5851
▁زاد	-10.5865
وفائ	-10.5868
▁هان	-10.5869
▁فيت	-10.588
▁b	-10.5884
▁يدي	-10.5904
NT	-10.5907
▁اااي	-10.5908
▁ئيندا	-10.5914
▁سوم	-10.5916
▁باش	-10.5919
▁ابد	-10.5919
▁نگل	-10.592
▁per	-10.5922
▁ٿڌو	-10.593
▁ابر	-10.5932
▁زوال	-10.5944
▁ble	-10.5946
▁pre	-10.5949
▁ناسب	-10.595
▁ِين	-10.596
▁راض	-10.596
▁جنگي	-10.596
▁ٽار	-10.5963
▁غيره	-10.5964
▁ختي	-10.597
▁۹	-10.5977
▁ليف	-10.5978
▁نينگر	-10.5987
▁ure	-10.599
▁وٽا	-10.5992
▁لوج	-10.5995
▁فري	-10.5998
▁يء	-10.5999
▁رور	-10.6006
▁نھن	-10.601
▁هره	-10.6027
▁رستا	-10.6029
▁نڀا	-10.6032
▁انئ	-10.6039
▁بلڊ	-10.6049
▁form	-10.6049
▁الش	-10.605
▁پيچ	-10.6051
▁سٽس	-10.6053
▁رند	-10.6062
▁زيشن	-10.6064
يونس	-10.6069
z	-10.6076
▁صد	-10.6095
▁ائق	-10.6096
▁ارڊ	-10.6098
▁بور	-10.6098
▁لچ	-10.6101
▁تخت	-10.6105
▁كلها	-10.6107
▁ڙڪا	-10.6114
▁مرا	-10.612
▁منص	-10.6121
▁رڪس	-10.6125
▁ربع	-10.6126
▁ne	-10.6126
▁3-	-10.6127
▁مشا	-10.6129
▁لاح	-10.6137
▁سچو	-10.6141
▁يگز	-10.6146
▁yo	-10.615
▁چيس	-10.6151
▁ڇڪڻ	-10.6151
▁ذي	-10.6152
▁Mo	-10.6162
▁شئي	-10.6177
ھم	-10.6178
اڻي	-10.6182
▁ائٽي	-10.6187
▁ودو	-10.6194
▁آند	-10.6195
E	-10.62
▁ملائي	-10.6201
▁سدا	-10.6209
▁يجي	-10.6215
▁Sea	-10.6216
▁وسٽ	-10.6217
▁●	-10.6226
▁ns	-10.6232
▁رويي	-10.6236
▁فرم	-10.6246
▁g	-10.6246
▁سود	-10.6252
▁نڊا	-10.6253
▁نتا	-10.6253
6	-10.6258
▁بك	-10.6271
▁پنگ	-10.6275
▁ساه	-10.6276
▁do	-10.6285
وڙه	-10.6295
▁۴	-10.6298
نت	-10.6302
▁پيون	-10.6308
▁حم	-10.6309
▁گلاب	-10.6312
▁ادائ	-10.6314
▁رير	-10.6319
ود	-10.632
▁ستن	-10.6325
▁يين	-10.6326
▁ess	-10.6327
▁ڳائ	-10.6329
▁ونگ	-10.6354
▁هڻو	-10.6359
▁فنڊ	-10.6361
▁ڏياري	-10.6365
رهائ	-10.6367
▁ظر	-10.6368
▁لڳن	-10.637
▁ميش	-10.638
هر	-10.638
▁يط	-10.6387
▁1-	-10.639
▁اكم	-10.6391
▁ثير	-10.6395
▁ڙهند	-10.6405
▁ڀٽو	-10.6406
▁گان	-10.6413
▁دب	-10.6415
▁تجو	-10.6417
▁گلي	-10.6417
▁حط	-10.6426
▁چيٽ	-10.643
▁لمو	-10.6434
▁tra	-10.6436
ڪا	-10.6437
▁٢	-10.6438
▁زيل	-10.6439
ادي	-10.6445
بو	-10.6449
▁نازل	-10.6457
▁sa	-10.6459
▁روري	-10.6465
▁۵	-10.6466
▁يران	-10.647
▁هاا	-10.6473
وڙ	-10.6477
▁New	-10.6478
▁جاب	-10.6479
▁ياء	-10.6483
▁ميد	-10.6484
▁پٺ	-10.6505
▁سٺا	-10.6506
K	-10.6506
▁ڪيپ	-10.651
▁ضد	-10.6518
▁آلو	-10.652
▁مرور	-10.6524
▁ڏجي	-10.6528
▁29	-10.6541
▁نجر	-10.6542
▁تبصر	-10.6546
بلڪ	-10.6553
▁بنگل	-10.6558
▁رمان	-10.6562
▁تک	-10.6565
▁احم	-10.6573
▁ديوان	-10.6573
▁ارون	-10.6574
5	-10.6584
▁فتو	-10.6584
▁ٻج	-10.6585
▁چٽ	-10.6587
▁ڀلو	-10.6591
▁وک	-10.6596
▁ئسن	-10.6597
▁مام	-10.66
▁اتح	-10.6602
▁حفظ	-10.6603
▁pt	-10.6604
▁يگ	-10.6605
▁وھ	-10.6612
▁لى	-10.6613
▁نشا	-10.6615
▁لاٽ	-10.662
▁وڻن	-10.6629
▁چم	-10.6631
▁يٺا	-10.6631
▁أي	-10.6631
▁نيت	-10.6635
▁مرح	-10.6637
▁يوس	-10.6639
▁ئو	-10.6641
▁نائي	-10.6643
▁ينڊر	-10.6648
▁go	-10.6649
▁انيا	-10.6654
▁بيل	-10.6659
▁لڙ	-10.6662
▁يلاپ	-10.6663
▁اڪيل	-10.6666
▁اتم	-10.6671
▁ارات	-10.6671
▁شال	-10.6671
▁35	-10.6677
▁اوب	-10.668
▁ڙھ	-10.6682
▁جل	-10.6685
▁ايي	-10.6686
▁چڙ	-10.6687
▁ा	-10.6689
▁استن	-10.6689
▁رث	-10.6689
▁ميري	-10.6692
▁گئس	-10.6695
▁اسك	-10.6697
▁مهارت	-10.6703
▁قوي	-10.6705
▁پِ	-10.6708
رچ	-10.6709
▁خات	-10.6715
▁رباني	-10.6719
▁شئ	-10.6726
▁پيس	-10.6727
▁بيع	-10.6731
▁fe	-10.6732
▁ايز	-10.6738
▁tt	-10.6741
▁پلگ	-10.6742
▁تور	-10.6747
▁يرين	-10.6754
▁يآ	-10.6755
▁سڄڻ	-10.6759
▁بِ	-10.6765
▁iOS	-10.6775
▁سرت	-10.6775
▁ted	-10.6777
خا	-10.6778
▁ڪوئ	-10.6779
▁شھ	-10.6781
▁pla	-10.6785
▁بست	-10.6785
▁واڻي	-10.6792
▁پين	-10.6793
▁Pro	-10.6798
چي	-10.6799
▁دعوي	-10.6806
▁ڃ	-10.6811
▁هوٽ	-10.6814
▁اسٽا	-10.6818
▁اخلاق	-10.6818
▁oin	-10.6819
▁شاھ	-10.682
▁دلين	-10.6826
▁دنا	-10.6831
▁هول	-10.6849
▁ريب	-10.6853
▁کس	-10.6858
▁رجن	-10.6884
▁لاڙ	-10.6889
▁نزل	-10.6901
▁هيان	-10.6904
▁فضيلت	-10.6906
▁لڪل	-10.6908
▁بان	-10.6911
▁وندي	-10.6916
▁نشر	-10.6919
از	-10.6927
▁هك	-10.6935
▁ماٺ	-10.694
▁ونج	-10.6944
▁ٽيو	-10.6947
▁لهم	-10.695
▁چونڊي	-10.6976
▁ينهن	-10.6992
▁ec	-10.6993
▁سفار	-10.6995
▁لش	-10.6996
▁آپ	-10.7
▁احل	-10.7003
ll	-10.7003
▁واد	-10.7003
▁زيور	-10.7005
ڪر	-10.7021
▁مشن	-10.7029
T	-10.7032
▁بري	-10.7038
▁وليو	-10.7038
▁رمضان	-10.7039
▁ھلي	-10.7041
▁ينيو	-10.7042
ڻي	-10.705
▁ڪوٺي	-10.7053
▁ساس	-10.7068
▁بجي	-10.708
▁ڊڪٽس	-10.7087
▁عج	-10.7092
▁دانن	-10.7092
▁راء	-10.7094
▁وهو	-10.7096
▁عدم	-10.7099
▁قريب	-10.71
▁ضم	-10.7108
▁آمر	-10.7108
▁دني	-10.7124
▁Q	-10.7125
▁[.	-10.7128
▁سگهج	-10.7128
▁ki	-10.7141
B	-10.7148
▁ريئ	-10.7154
▁نخ	-10.7159
▁التو	-10.7161
▁نڊل	-10.7166
▁امور	-10.7171
▁ڻندڙ	-10.7176
▁سڪي	-10.7185
▁لُ	-10.7188
▁راجا	-10.7197
يٽ	-10.7198
▁هپ	-10.7205
▁١	-10.7205
▁اسڪو	-10.7207
▁ُڪ	-10.7212
▁र	-10.7218
▁gh	-10.722
وش	-10.7222
▁مراد	-10.7225
▁ڪڍڻ	-10.7229
▁ابن	-10.7232
▁ڏھن	-10.7236
▁دد	-10.7259
▁احب	-10.7261
▁الت	-10.7264
▁چُ	-10.7266
▁ميوز	-10.727
▁گناه	-10.7274
▁نوب	-10.728
▁محد	-10.7281
▁الات	-10.7284
▁يوٽ	-10.7284
▁31	-10.7286
▁ورو	-10.7286
▁تمي	-10.7288
▁اڻيو	-10.7289
▁هٽ	-10.729
▁آزم	-10.7303
▁ديوتا	-10.7311
بت	-10.7312
▁ری	-10.7312
زائ	-10.7313
▁صوف	-10.7314
▁يشنل	-10.7316
▁معه	-10.7316
▁آخ	-10.7317
▁ڀڄي	-10.7322
le	-10.7323
▁Ch	-10.7327
▁رولي	-10.7348
▁فال	-10.7349
▁دٻاء	-10.7356
▁روا	-10.7364
ٿس	-10.7365
▁يگا	-10.7368
اڻ	-10.7372
▁داره	-10.7381
ٽل	-10.7383
يد	-10.7384
▁تى	-10.7388
▁سرگرم	-10.7401
▁صادق	-10.7402
▁رص	-10.7402
▁ٽايو	-10.7403
▁لبر	-10.7403
▁قيدي	-10.7404
▁ِل	-10.7411
▁هيڏ	-10.7412
▁rea	-10.7412
▁خذ	-10.742
▁قا	-10.7424
▁وڪا	-10.7438
ذ	-10.744
▁لنا	-10.7441
▁هارو	-10.7443
▁ڏيند	-10.7445
▁بدن	-10.7455
▁رهه	-10.7455
▁ناھ	-10.7455
▁ميا	-10.7455
▁Ro	-10.7459
▁کٽي	-10.7462
▁نجات	-10.7462
▁فيد	-10.7463
▁مك	-10.7468
▁واسي	-10.747
▁سنجي	-10.7471
▁کر	-10.748
▁پتي	-10.7486
▁سکو	-10.7487
▁ٽم	-10.7489
ڳور	-10.7492
▁جپان	-10.7494
▁عظم	-10.7494
▁مهينو	-10.7496
▁رما	-10.7496
▁مٽ	-10.7499
▁راجع	-10.7504
▁h	-10.7515
ڀ	-10.752
▁گن	-10.7525
▁نظري	-10.7546
▁اسه	-10.7548
چڪ	-10.7549
▁سکي	-10.755
▁زو	-10.7558
▁رسٽ	-10.7565
▁اصلات	-10.757
▁tc	-10.757
ڪل	-10.7577
▁گرافي	-10.7579
▁تكم	-10.758
▁دوزخ	-10.7589
▁ينك	-10.7589
▁سرو	-10.76
▁نُ	-10.7622
▁ادت	-10.7622
▁ورش	-10.7642
▁يڊم	-10.7645
قابل	-10.7647
▁ُو	-10.7661
▁يٽي	-10.7664
▁2)	-10.7667
▁(3)	-10.7683
▁حذف	-10.7683
▁ڻن	-10.7685
O	-10.7686
▁فرما	-10.7688
▁ران	-10.7689
▁ئجي	-10.769
▁وريون	-10.7702
▁برت	-10.7704
ro	-10.7718
▁دائ	-10.772
▁لهج	-10.772
▁لوم	-10.7724
▁اٽي	-10.7736
▁rr	-10.7738
ؤ	-10.7743
▁ol	-10.7748
▁تبي	-10.7751
▁ميلي	-10.7762
▁ڪائي	-10.7767
▁Ha	-10.7769
▁رائي	-10.7776
▁ائڊ	-10.7782
▁ho	-10.7787
▁ڪشن	-10.7788
▁ٽولي	-10.7796
▁سسٽ	-10.7798
▁بُ	-10.78
▁يَ	-10.7802
▁وٽس	-10.7804
▁ڊا	-10.7812
▁تڙ	-10.7823
▁ادشاه	-10.7826
▁اغوا	-10.7826
▁چائ	-10.7827
▁تاثر	-10.7828
▁ريلي	-10.7831
▁يوٽي	-10.7835
▁سهي	-10.7839
▁ھنن	-10.784
▁رويو	-10.7843
▁هيئن	-10.7844
▁لهو	-10.7857
▁اريون	-10.7859
▁بچت	-10.7861
▁پبل	-10.7862
▁مغ	-10.7866
▁خلا	-10.787
▁بزنس	-10.7879
▁نوڪر	-10.7879
▁گال	-10.7885
▁صوب	-10.789
wa	-10.789
▁افر	-10.7914
▁SCL	-10.7923
▁لوو	-10.7923
▁يله	-10.7925
▁l	-10.7926
▁محت	-10.7927
▁ڊرا	-10.7928
▁نديم	-10.7946
X	-10.7946
▁نگر	-10.7954
▁ڊول	-10.7959
▁ارڪ	-10.796
▁هاد	-10.7962
▁نصي	-10.7977
▁ليڊر	-10.7985
▁gn	-10.7985
▁ايڪ	-10.7991
▁ينگ	-10.7993
▁اڳيا	-10.7994
▁داع	-10.7995
▁پنا	-10.7997
▁نڊين	-10.8001
▁وون	-10.8001
▁لج	-10.8002
ھر	-10.8007
▁لکت	-10.8008
▁ادم	-10.8009
▁v	-10.8016
▁ميشن	-10.8018
▁طال	-10.8019
▁فحش	-10.8022
▁ٻر	-10.8024
▁ائيز	-10.8025
▁ڏج	-10.8027
▁گس	-10.8028
▁لفا	-10.8031
▁غرب	-10.8033
▁راني	-10.8034
▁art	-10.8039
▁ارج	-10.8051
▁45	-10.8056
فٽ	-10.8063
▁id	-10.8067
▁يمي	-10.8068
▁نيه	-10.8071
▁ئپ	-10.8072
بس	-10.8077
▁ڪاش	-10.8081
▁ڪٽڻ	-10.8087
▁ريه	-10.8089
▁ذائ	-10.8096
▁ڪان	-10.8096
▁ساب	-10.8108
▁يتون	-10.8111
▁♥	-10.812
▁ڪٽر	-10.8132
▁روٽ	-10.8132
▁عط	-10.8134
▁ھيٺ	-10.8135
▁ائيو	-10.8152
▁Aw	-10.8164
▁الث	-10.8167
سو	-10.8175
▁لوس	-10.8184
▁بَ	-10.8186
▁ژه	-10.8191
▁J	-10.8195
▁يوو	-10.8196
▁ٻُ	-10.8196
ta	-10.8202
▁خي	-10.8207
▁❤	-10.8219
▁يڪار	-10.822
▁يزن	-10.8238
▁شك	-10.8242
▁يوگ	-10.8242
▁ظه	-10.8249
▁پوئ	-10.825
M	-10.825
▁يٽرو	-10.8256
▁لمن	-10.8258
▁يق	-10.8266
▁€	-10.827
▁ميس	-10.8273
▁ev	-10.8278
▁ھت	-10.828
▁ولاد	-10.8284
▁زان	-10.8287
▁وط	-10.8304
▁ناري	-10.8305
▁ڊين	-10.8307
▁سيون	-10.8311
▁طاق	-10.8312
▁رود	-10.8315
I	-10.8316
▁طالع	-10.8318
▁هلڪ	-10.8318
▁بھتر	-10.8321
▁ٽيپ	-10.8327
وه	-10.8329
▁مرس	-10.8331
▁راڊ	-10.8331
▁bu	-10.8343
▁جدت	-10.8351
▁ھون	-10.836
▁ڄام	-10.8365
▁رسن	-10.8369
▁تقبل	-10.8371
▁ينز	-10.8381
▁تست	-10.8392
▁ساع	-10.8404
▁بيش	-10.8405
▁ينيم	-10.8405
▁جزو	-10.8409
▁کپ	-10.8417
▁ٽيوب	-10.8422
▁ڪه	-10.8427
▁جِ	-10.8427
▁قب	-10.8432
نفرا	-10.8433
▁لوق	-10.844
▁يرن	-10.8441
▁وڪو	-10.8443
اڙي	-10.8443
▁ئيدار	-10.8443
کي	-10.846
▁قل	-10.8464
▁راڳ	-10.8465
▁الٽ	-10.8466
▁ونز	-10.8469
▁هز	-10.8471
▁مزاح	-10.8478
▁يشان	-10.8478
▁ريع	-10.8483
▁لند	-10.8486
▁يدن	-10.8487
▁پوڻ	-10.8501
▁ِت	-10.8503
▁جمعي	-10.8507
▁ڪلي	-10.851
▁منگ	-10.851
▁يبا	-10.8514
▁نانگ	-10.8515
▁عضو	-10.852
▁گرا	-10.8525
▁ئرس	-10.8534
▁دها	-10.8536
▁ye	-10.8542
▁op	-10.8551
▁نيري	-10.8554
▁ورک	-10.8565
▁كانت	-10.8575
▁رجي	-10.8575
▁تيون	-10.8575
▁ردا	-10.8578
▁ڪوڪيز	-10.8578
▁ابتدا	-10.8578
▁کو	-10.859
▁لمي	-10.8591
▁يسر	-10.8592
در	-10.8592
▁پيڪ	-10.8604
▁ميني	-10.8615
▁الق	-10.8616
▁جهي	-10.8617
▁ديده	-10.8622
▁بيبي	-10.8633
▁برد	-10.8638
▁دايت	-10.8639
▁قطر	-10.865
▁ٽپ	-10.8651
ti	-10.8654
▁ليءَ	-10.8659
▁ٽت	-10.866
اف	-10.866
▁ڏيک	-10.8664
▁کاري	-10.8665
▁موز	-10.8666
▁nn	-10.8671
8	-10.8676
▁نگلي	-10.8678
▁يتو	-10.8682
▁حجم	-10.8691
▁Bet	-10.8692
▁لڊ	-10.8692
▁الخ	-10.8698
ض	-10.8703
▁ٿئ	-10.8705
▁زينب	-10.8707
▁طف	-10.8713
▁۸	-10.8718
▁سد	-10.8719
▁هب	-10.8722
▁افيه	-10.8722
▁ائيڪ	-10.8731
▁فيش	-10.8734
▁اڇو	-10.8736
▁ڪرا	-10.8747
▁فو	-10.8747
▁رونا	-10.8747
▁ڀرڻ	-10.876
▁ڪنگ	-10.8764
▁رئي	-10.8767
▁دع	-10.8769
▁اقي	-10.8774
نڍ	-10.8774
▁خد	-10.8775
▁ااي	-10.8783
▁لت	-10.8783
▁کني	-10.8785
▁جميع	-10.879
9	-10.8791
سٽ	-10.8794
▁هڻڻ	-10.8795
▁دفن	-10.8803
▁ريڪ	-10.8803
▁ضيا	-10.881
▁رامي	-10.8811
له	-10.8821
▁4-	-10.8828
▁ڪيف	-10.884
▁IP	-10.8857
▁So	-10.8858
▁ڇن	-10.887
▁ڪول	-10.8871
▁اهد	-10.8877
▁1:	-10.8897
▁ينئر	-10.8899
▁وی	-10.8907
▁بادل	-10.8912
▁رندو	-10.8914
▁ڪت	-10.8922
▁bi	-10.8923
▁ويي	-10.8935
▁مٺي	-10.8943
▁تقدير	-10.8947
▁مشكل	-10.8948
▁️	-10.8948
▁سٽنگ	-10.895
▁ارسي	-10.8953
▁جھو	-10.8962
▁شاد	-10.8968
▁رڪت	-10.897
مريڪ	-10.8972
▁برش	-10.8973
▁نيئر	-10.8976
سس	-10.8979
ې	-10.898
▁k	-10.8981
▁آبي	-10.8985
▁تعب	-10.8991
▁عاون	-10.9002
▁اڳوڻ	-10.9013
me	-10.9014
▁خخ	-10.9032
▁ليڊ	-10.9041
▁ڳڻتي	-10.9059
▁پرا	-10.906
▁يٽل	-10.9071
▁لِ	-10.9098
▁ڏات	-10.9099
▁چت	-10.9103
▁راهي	-10.9109
▁نويس	-10.9122
▁يلون	-10.9129
▁ارت	-10.9133
▁ٽهڪ	-10.9136
▁ٻول	-10.9147
▁ياز	-10.9149
▁(1	-10.9149
▁اينا	-10.915
دو	-10.9152
▁ونڊو	-10.9153
▁اهت	-10.9158
▁Con	-10.916
▁خدم	-10.9164
▁Ex	-10.9166
▁سوٽ	-10.9176
▁لسي	-10.9178
R	-10.9188
▁ړ	-10.9194
▁ڪٽي	-10.9202
▁شخصي	-10.9205
▁2:	-10.921
▁لهر	-10.9212
▁زادي	-10.9213
▁نيرو	-10.9215
ارٽ	-10.9216
▁بدر	-10.9218
▁ورڈ	-10.9221
وف	-10.9224
▁سڪر	-10.9226
▁لڙڪ	-10.9232
▁ليها	-10.9238
▁دهلي	-10.9246
▁ولم	-10.925
▁پلان	-10.9252
▁ايت	-10.9253
▁نڌي	-10.926
▁وظ	-10.9262
مت	-10.9268
▁ٽام	-10.9274
▁بچاء	-10.9277
▁هٽا	-10.9282
▁چال	-10.9285
▁ضح	-10.9287
▁ُن	-10.929
▁ارش	-10.9297
▁؟"	-10.9301
▁مٿو	-10.9319
▁ويڪ	-10.932
▁راي	-10.9326
▁ڪشا	-10.9329
▁tu	-10.9331
▁ٻوڏ	-10.9332
ڪار	-10.9337
▁ڪيڪ	-10.9343
▁ارنٽ	-10.9348
▁رنٽ	-10.9351
▁ٺهي	-10.9356
نٽ	-10.9359
▁نگھ	-10.9364
▁ولڪ	-10.9365
▁يئ	-10.9365
▁ڊچ	-10.937
▁مهي	-10.9376
▁آگاه	-10.9388
▁واٽر	-10.9389
▁آت	-10.9392
▁ja	-10.9392
▁ليمان	-10.9393
▁مد	-10.9396
▁صحاف	-10.9397
▁ئڊ	-10.94
▁پت	-10.9402
ma	-10.9412
▁ليٽر	-10.9413
▁دڙ	-10.9413
▁عي	-10.9437
▁رقي	-10.944
▁LG	-10.9445
▁ڪرو	-10.9445
▁und	-10.9445
▁ولك	-10.9448
جڻ	-10.9448
▁سٽيٽ	-10.9449
▁ليپ	-10.945
▁مرة	-10.9453
▁هرا	-10.9453
▁اعد	-10.9462
▁ٽمي	-10.9468
▁اشا	-10.9468
▁چپن	-10.9483
▁يکا	-10.9486
▁32	-10.9488
ڳائڻ	-10.9493
▁اوٽ	-10.9497
▁عنا	-10.9503
▁ڪامل	-10.9506
▁َه	-10.9507
▁ٺو	-10.951
▁ويھ	-10.9517
ٹ	-10.9526
▁ٺي	-10.9529
▁چن	-10.9541
▁يروز	-10.9542
▁رگ	-10.9552
▁جڳھ	-10.9561
▁موري	-10.9562
▁ورائي	-10.9563
▁نينهن	-10.9564
▁are	-10.9565
▁ڪريٽ	-10.9574
V	-10.9575
نهيء	-10.9581
▁لکن	-10.9598
▁ھڙ	-10.9602
▁وڌا	-10.9619
▁مظ	-10.9621
▁سليم	-10.9623
▁شق	-10.9631
▁لوڻ	-10.9633
▁جرا	-10.9637
▁فارس	-10.9638
▁دک	-10.9641
▁امون	-10.9643
▁حلا	-10.9651
مي	-10.9652
▁وپ	-10.9656
▁جري	-10.9659
▁ga	-10.966
▁لهايو	-10.9675
▁يئرنگ	-10.9676
▁اھڙ	-10.968
بر	-10.9681
▁وراڻي	-10.9682
▁يهن	-10.9683
▁ڳائي	-10.9688
▁نك	-10.9689
▁عيب	-10.969
▁ورتل	-10.9694
▁ورچ	-10.9697
▁نش	-10.9698
▁سوني	-10.971
▁هرن	-10.9711
▁هڻا	-10.9721
▁راڻ	-10.9723
▁تبليغ	-10.9731
▁وزگار	-10.9731
▁ies	-10.9732
▁Play	-10.9732
▁جهڙ	-10.9732
▁وڪڻ	-10.9738
▁ادل	-10.9739
▁ڀار	-10.9747
▁رلي	-10.975
▁mm	-10.9756
▁ذري	-10.9759
ch	-10.9773
▁پهچ	-10.9776
▁fo	-10.9785
▁300	-10.9796
وت	-10.9797
▁لهڻ	-10.9801
▁ڱي	-10.9805
▁طر	-10.9806
▁شويه	-10.9809
▁گها	-10.9811
▁رغ	-10.9811
▁og	-10.9812
لاء	-10.9818
▁عوا	-10.9818
▁سڪو	-10.9819
▁كيد	-10.982
▁لڪير	-10.9821
▁ڪالم	-10.9821
▁يھ	-10.9829
▁nc	-10.9829
▁رنٽي	-10.9841
▁عرفي	-10.9843
▁ڈ	-10.985
▁نف	-10.9851
▁گڏو	-10.9853
▁ڪارڪن	-10.9855
▁واهي	-10.9858
▁هنر	-10.9859
P	-10.986
▁HD	-10.986
▁ھيو	-10.9879
▁گذ	-10.988
▁ڻڪ	-10.9881
▁ٽول	-10.9882
▁بيگ	-10.9882
▁رواني	-10.9886
▁ڦري	-10.9905
▁نڍ	-10.9905
▁×	-10.9908
▁🙂	-10.9912
▁ليسي	-10.9919
▁انز	-10.9919
▁گون	-10.992
▁بلن	-10.9925
▁ومو	-10.9931
▁ورائ	-10.9931
▁آزما	-10.9949
▁ڪڇ	-10.995
▁ابت	-10.9954
▁ٽرا	-10.9957
▁ملتوي	-10.9968
▁ago	-10.9968
▁فلو	-10.997
▁ئونڊ	-10.9972
.1	-10.9973
▁ئد	-10.9978
▁ٻا	-10.9983
▁Hu	-10.9984
▁أس	-10.999
لڻ	-10.9997
▁لڏي	-11
مل	-11.0001
▁يث	-11.0018
▁پون	-11.0018
▁وهم	-11.0019
▁آصف	-11.0027
▁(4)	-11.0028
▁ھائي	-11.0032
▁ٿن	-11.0033
▁قيق	-11.0034
▁ڊيٽ	-11.0043
▁ڊبل	-11.0044
ږ	-11.0049
▁ڌرم	-11.0059
▁لبت	-11.0077
▁حتي	-11.0085
▁مهاجر	-11.0088
▁مولوي	-11.0088
أ	-11.009
▁هدف	-11.0093
▁لبي	-11.0104
▁مڃڻ	-11.0105
▁ميدا	-11.0116
▁سمجهن	-11.0116
▁سمو	-11.0118
▁مولا	-11.0121
▁رحل	-11.0123
▁les	-11.0124
سر	-11.0128
▁مھل	-11.0129
▁زاري	-11.0134
?	-11.0138
▁اوز	-11.0138
▁جهو	-11.0147
▁<<<	-11.0148
▁روانا	-11.0148
li	-11.0152
يش	-11.0153
▁امس	-11.0156
کو	-11.0157
▁نواب	-11.0159
ُڇ	-11.0159
▁اهدو	-11.0165
▁ووه	-11.0165
▁واج	-11.0167
▁پان	-11.017
▁سڏي	-11.018
▁جهڻ	-11.0183
▁مسا	-11.0186
▁ې	-11.0189
▁مٽا	-11.0192
di	-11.0197
▁یم	-11.0201
▁لاڏ	-11.0203
▁ڳڻ	-11.0206
▁نيپ	-11.0207
ُک	-11.0209
se	-11.0211
▁ڊيمو	-11.0212
▁ارس	-11.0213
▁آهه	-11.0217
▁امري	-11.0219
▁ڙن	-11.0221
▁اسر	-11.0223
▁دستي	-11.023
▁عون	-11.0233
▁قط	-11.0233
▁جرب	-11.0238
▁پولي	-11.0238
▁اسن	-11.0239
▁نظار	-11.0241
▁क	-11.0271
▁نثار	-11.0272
▁ميمڻ	-11.0276
وڻ	-11.0277
▁ٽرول	-11.0281
▁رآ	-11.0286
▁سگه	-11.0293
▁پنجا	-11.0294
▁عود	-11.0301
▁ڪنن	-11.0307
▁گڏي	-11.0309
▁دات	-11.0309
▁حول	-11.0312
▁تائ	-11.0312
▁ايند	-11.032
an	-11.0332
▁تجارت	-11.0338
▁قولي	-11.0338
▁شناس	-11.0343
▁اڪن	-11.0344
▁بدا	-11.0346
▁بچه	-11.0349
▁کلڻ	-11.0351
▁وضو	-11.0352
▁پاي	-11.0352
▁اٿو	-11.0366
▁نئي	-11.0368
▁اخو	-11.0373
▁مچ	-11.0377
▁ووم	-11.0395
▁نڪا	-11.04
▁يهر	-11.04
▁واض	-11.0416
▁سٽن	-11.0417
▁يفو	-11.0418
▁فرا	-11.0418
▁پڙ	-11.042
▁مڻ	-11.0431
مع	-11.0439
▁سكس	-11.044
▁عيو	-11.0442
▁حبي	-11.0445
▁ضي	-11.0455
▁نهين	-11.046
▁داي	-11.0467
▁آچر	-11.0472
▁واع	-11.0474
▁ڊل	-11.0475
▁ڪب	-11.0489
▁اير	-11.0491
▁فائي	-11.05
7	-11.0513
▁يفا	-11.0515
▁اوه	-11.0517
▁بهتري	-11.0529
▁حك	-11.0529
▁گھي	-11.053
▁پهل	-11.0534
▁منھن	-11.0544
▁ڪمپ	-11.0546
▁ڙهي	-11.0569
▁یا	-11.0574
ٽائ	-11.0574
▁ڪڪ	-11.0579
na	-11.058
▁هٽائڻ	-11.0583
▁ئيٽ	-11.0584
▁مٺ	-11.0586
▁ڪيمرا	-11.0591
▁You	-11.0596
▁ڪشش	-11.0604
▁بق	-11.0607
▁ليلي	-11.0617
▁ئه	-11.062
▁اچا	-11.0627
▁ويها	-11.063
▁←	-11.0648
▁عمار	-11.0652
▁ڪسڪس	-11.0653
▁رقص	-11.0663
▁نوا	-11.0669
▁رهم	-11.0692
▁زش	-11.0695
▁نسر	-11.0702
▁ٻڏ	-11.0703
▁يسن	-11.0705
▁نيز	-11.0708
▁OEM	-11.0711
▁جھاز	-11.0712
▁نثر	-11.0728
▁پش	-11.0729
f	-11.0731
▁po	-11.0732
▁گين	-11.0739
▁اٽو	-11.0744
▁جها	-11.0746
▁ting	-11.0776
▁ڪارا	-11.0779
▁ٽائڻ	-11.0784
▁حفو	-11.0788
▁نڊر	-11.0789
▁مث	-11.0793
▁يڊن	-11.0793
▁ھل	-11.0808
▁زلزل	-11.0811
▁می	-11.0825
▁بٽ	-11.0827
▁ماڪ	-11.0834
لم	-11.0837
▁ڳري	-11.0838
▁log	-11.0838
▁ڊڪٽ	-11.084
▁ڪٽري	-11.0846
▁ڻائي	-11.0846
▁کڻ	-11.0849
▁ختار	-11.086
▁هندس	-11.0863
_	-11.0865
▁مدي	-11.0873
اتي	-11.0873
▁احت	-11.0875
▁دادو	-11.0878
▁منش	-11.0878
▁im	-11.0881
▁ٺين	-11.0884
▁gen	-11.0885
▁ew	-11.0887
▁نڀ	-11.0889
▁يونس	-11.09
▁ڏسن	-11.0902
▁Ra	-11.0903
▁يوار	-11.0908
▁ادگي	-11.091
▁ate	-11.0911
▁اڌا	-11.0916
▁لغ	-11.0931
▁نسن	-11.0932
پل	-11.0944
▁لعنت	-11.0975
▁اکي	-11.0979
▁ڀاء	-11.0983
▁اسا	-11.0986
▁وئڻ	-11.1001
پي	-11.101
ڙهائ	-11.1013
▁ميرا	-11.1018
▁ومي	-11.1019
▁ادو	-11.1026
▁خل	-11.1032
▁هنيو	-11.1037
▁>>>	-11.1038
▁era	-11.1063
▁ڻين	-11.1069
▁والي	-11.1073
▁روب	-11.1085
▁يما	-11.1091
▁ارٽي	-11.1097
▁َن	-11.1097
▁ندس	-11.1104
▁سوئچ	-11.1106
▁مبا	-11.1118
▁اڻين	-11.1119
آن	-11.1122
▁حن	-11.1126
يق	-11.1129
▁سعود	-11.1132
▁انھ	-11.1134
▁نيج	-11.1136
▁رهان	-11.115
▁ديوي	-11.1151
▁دريس	-11.1153
▁آإ	-11.1153
▁لير	-11.1154
▁رجو	-11.1158
▁عو	-11.1162
ية	-11.1166
▁دى	-11.1168
▁نصاب	-11.1178
▁ويهن	-11.1179
▁ضا	-11.1189
▁الون	-11.1214
▁يجن	-11.1215
▁۶	-11.1218
▁گلو	-11.1218
▁فات	-11.1219
▁ووڊ	-11.122
▁دش	-11.1229
▁سلا	-11.1235
▁زيارت	-11.124
▁min	-11.1241
مر	-11.1244
▁Mac	-11.1244
▁شرٽ	-11.1254
▁هينئ	-11.1258
▁پڪو	-11.1259
▁گذار	-11.1261
▁ڪند	-11.1263
▁راق	-11.1264
▁گنا	-11.1269
يك	-11.1282
▁بجد	-11.1287
▁يتر	-11.1303
▁بص	-11.1303
▁وچين	-11.1304
▁رنا	-11.1306
▁وڳ	-11.1311
▁غزل	-11.1314
▁ربان	-11.1317
▁ڪرم	-11.1322
▁پٺت	-11.1323
▁pi	-11.1326
▁3)	-11.1328
▁نتو	-11.134
وق	-11.1341
اڄ	-11.1342
▁تند	-11.1356
▁خطرن	-11.1358
▁اصر	-11.1359
▁قصو	-11.1361
▁ڙيون	-11.1361
▁المو	-11.1383
▁پيڊ	-11.1387
▁علق	-11.1387
گر	-11.1388
▁اليا	-11.1391
▁جائي	-11.141
▁امڙ	-11.1411
en	-11.1419
▁بيٽ	-11.1425
▁نڌو	-11.1427
▁65	-11.1429
▁شيو	-11.1431
▁ويڪس	-11.1431
▁اڇي	-11.1435
▁Y	-11.1442
▁هائو	-11.1442
جد	-11.1443
▁سيني	-11.1459
▁لياتي	-11.146
▁ٽجي	-11.1476
▁ڳر	-11.1487
▁va	-11.1487
دار	-11.1496
▁Meh	-11.1496
aj	-11.1511
▁قليت	-11.1517
▁روع	-11.152
▁wei	-11.1525
اج	-11.1536
قاعد	-11.1542
▁3:	-11.1551
▁ائنٽ	-11.1551
▁يرات	-11.1552
▁لوي	-11.1555
▁رايو	-11.1555
رڻ	-11.1556
▁ترو	-11.1556
▁يوب	-11.1562
▁33	-11.1562
▁پڙه	-11.1565
▁مراه	-11.1569
▁عار	-11.1569
▁Sp	-11.1577
يج	-11.158
▁٣	-11.1585
▁صحاب	-11.159
▁وحي	-11.159
▁رزق	-11.1591
▁وپي	-11.1592
▁کڙ	-11.1595
وٽ	-11.1596
▁جدي	-11.1621
▁محب	-11.1623
▁الڪ	-11.1624
▁ازن	-11.1627
▁يڪري	-11.1634
▁باھ	-11.1635
▁ديني	-11.1637
▁he	-11.164
▁غلا	-11.1641
▁خال	-11.1644
▁وکر	-11.1647
▁ڏيڍ	-11.1655
nd	-11.1656
جو	-11.1661
▁Po	-11.167
▁ڪبو	-11.1673
▁اغ	-11.1674
N	-11.1688
▁ايٽ	-11.1691
.2	-11.1696
▁ip	-11.1699
▁ازل	-11.1701
دى	-11.1701
▁هشت	-11.1706
▁عني	-11.1707
▁فع	-11.1707
▁ابق	-11.171
▁بيب	-11.171
W	-11.1724
ि	-11.1725
▁نجين	-11.1728
▁more	-11.1731
▁روڙ	-11.1732
▁لڳڻ	-11.1742
▁اٽڪ	-11.1753
▁نيشن	-11.1756
▁ڊون	-11.1757
▁وپو	-11.1759
ood	-11.1766
▁واي	-11.1767
▁وڪل	-11.1771
▁عت	-11.1773
▁وح	-11.1776
▁اهيو	-11.1782
سوع	-11.1787
co	-11.1796
▁اڊ	-11.1797
▁غسل	-11.1798
▁ُس	-11.18
▁ari	-11.1805
▁نرس	-11.1805
▁فرو	-11.1814
▁Fac	-11.1815
نتظ	-11.1821
▁ترى	-11.1828
▁GB	-11.1838
▁فير	-11.1844
▁رڻو	-11.1845
▁لقب	-11.1845
▁فيل	-11.1847
▁ندن	-11.1857
▁پسندي	-11.1857
▁پوڊ	-11.1864
▁الان	-11.1864
▁هٽي	-11.1865
▁ائب	-11.1867
▁اهدي	-11.1869
▁زني	-11.1873
▁اڏي	-11.1876
▁iv	-11.1879
▁بڻيل	-11.1881
▁زل	-11.1892
▁150	-11.1894
▁رادي	-11.1896
ظهر	-11.1898
▁گيم	-11.1898
▁وڙا	-11.1907
▁مدني	-11.1907
▁ind	-11.1911
▁ريٽر	-11.1914
ڊل	-11.1916
▁ڏائ	-11.1919
▁اشي	-11.1921
▁اتك	-11.1924
عامل	-11.1926
▁لی	-11.1929
▁دلي	-11.1932
▁وئل	-11.1937
ST	-11.1942
▁نيان	-11.1952
▁متي	-11.1955
▁لاب	-11.1956
▁ولف	-11.196
▁وٽل	-11.196
▁اڱڻ	-11.1963
▁اڙهي	-11.1974
▁فيڪ	-11.1978
▁لاك	-11.199
▁يزي	-11.2
▁اريا	-11.2003
▁ثم	-11.2011
▁يمو	-11.2011
▁پٽن	-11.2011
▁ذهانت	-11.2014
▁۷	-11.2015
▁عنده	-11.2016
▁ٺهڻ	-11.2021
▁For	-11.2023
▁سى	-11.2028
▁بائي	-11.2034
▁يمبر	-11.2036
▁چا	-11.2039
▁6.	-11.2039
▁Di	-11.2041
▁لول	-11.2042
▁Si	-11.2048
▁عدن	-11.2051
▁bil	-11.2057
▁نجا	-11.2059
▁قاد	-11.2068
▁يچ	-11.2075
▁اعي	-11.2076
]	-11.2077
اڪ	-11.2079
▁داغ	-11.2083
▁مڪان	-11.2093
▁ڪدم	-11.2093
▁ڏٺم	-11.2099
▁سنت	-11.2101
▁ot	-11.2102
▁لابي	-11.2105
▁سحر	-11.2106
▁لمس	-11.2107
▁ٿل	-11.2115
▁75	-11.2117
ژ	-11.2118
▁تحف	-11.2122
▁ٽوڪ	-11.2125
▁نادر	-11.213
▁ركب	-11.2131
▁وشن	-11.2142
lo	-11.2155
▁pb	-11.2163
▁جڪ	-11.2177
▁وڪرين	-11.218
▁سچا	-11.218
▁ڪروم	-11.2184
▁زيو	-11.2185
▁دود	-11.2186
su	-11.2192
▁sti	-11.2197
▁رض	-11.2203
▁ربن	-11.2215
▁نداري	-11.2219
▁آيد	-11.2224
▁اجا	-11.2235
▁رڳ	-11.2236
▁وده	-11.2238
▁سندو	-11.2241
▁ڇي	-11.2246
▁ڪٿا	-11.2247
ۈ	-11.2254
▁كو	-11.2255
▁eb	-11.2257
▁وجن	-11.2261
▁اسرا	-11.2261
▁ضو	-11.2271
▁دن	-11.2272
زمائ	-11.2282
▁os	-11.2284
سار	-11.2287
▁36	-11.2287
▁گاري	-11.229
ئن	-11.2294
▁وڙڻ	-11.2297
mo	-11.2305
▁5-	-11.231
▁ٺٽ	-11.231
30	-11.2312
▁Tra	-11.2313
▁One	-11.2313
▁ڙهڻ	-11.2313
▁فش	-11.232
▁صيد	-11.2322
▁پڙها	-11.2323
▁وليا	-11.2325
▁آم	-11.2326
▁ورڇ	-11.2336
▁Amr	-11.2338
▁وڙيو	-11.2348
▁صال	-11.2351
▁ڪائو	-11.2354
▁ant	-11.2355
▁ڪڪر	-11.2356
▁سيو	-11.2379
▁نيش	-11.2397
▁ڏيئ	-11.2403
▁رفان	-11.2403
▁اوس	-11.2412
▁پيٽر	-11.2426
▁رجا	-11.2428
▁ab	-11.2435
▁f	-11.2436
▁فوا	-11.2438
▁ٻلي	-11.2442
▁نوح	-11.2445
ڊي	-11.2449
▁ٿوڪ	-11.245
▁ستقب	-11.2454
▁Wi	-11.2454
▁سڌ	-11.2456
▁ڪچي	-11.2459
▁توي	-11.246
ائيس	-11.2469
▁ov	-11.2471
▁اپا	-11.2471
▁قرا	-11.2473
▁ئرل	-11.2488
▁أم	-11.2491
▁بيڊ	-11.2493
▁سورج	-11.2493
▁اڪبر	-11.2496
▁جهت	-11.2497
mi	-11.2501
▁فوڊ	-11.2507
▁وزي	-11.2507
▁رتن	-11.251
▁قصه	-11.2527
▁وفاق	-11.2527
طالع	-11.2531
▁رايا	-11.2537
▁يشر	-11.2545
▁ڀٽ	-11.2545
▁،"	-11.2545
▁ڀرو	-11.255
▁غر	-11.256
▁يڪيو	-11.256
▁اگ	-11.2562
▁ڪجه	-11.2566
▁لاڻ	-11.2566
هڙيء	-11.2567
▁ميڙ	-11.2567
▁ڪوڪ	-11.257
▁واست	-11.2575
▁1)	-11.2594
▁سگھج	-11.2597
▁►	-11.2618
▁وڪڻڻ	-11.2622
▁لوپ	-11.2626
▁بيو	-11.2627
▁عكس	-11.263
▁رڪو	-11.2634
▁عب	-11.2634
▁آھ	-11.2636
▁گرو	-11.2642
▁حقيق	-11.2643
▁ھد	-11.2645
▁يٽرن	-11.2652
▁بدو	-11.2652
▁برج	-11.2659
▁وٽر	-11.2663
▁كدا	-11.2671
▁ثق	-11.2691
آر	-11.2705
▁اهين	-11.2707
▁پيمان	-11.2712
▁ھڙو	-11.272
▁فضا	-11.2724
▁افس	-11.2727
▁دوس	-11.273
in	-11.2735
▁مشي	-11.2765
▁جماع	-11.2765
▁انته	-11.2766
▁وسن	-11.2775
▁هلن	-11.2775
▁جبهه	-11.2777
▁ٺيون	-11.278
▁ضما	-11.2785
▁يئن	-11.2788
▁ڀو	-11.2802
▁واک	-11.2802
▁چل	-11.2812
▁ڏو	-11.2814
▁هش	-11.2815
▁لهن	-11.2828
▁يجو	-11.2834
پٽ	-11.2841
▁ڙائي	-11.2866
▁ھان	-11.2867
▁يوزر	-11.2873
▁ڊف	-11.2887
▁ئڪ	-11.2893
▁ڪوچ	-11.2902
sa	-11.2904
راط	-11.2904
▁95	-11.2917
يڪ	-11.2925
▁پني	-11.2933
▁مبروك	-11.2935
▁صفر	-11.2939
▁نيوي	-11.294
▁400	-11.2941
▁سونه	-11.2943
▁تما	-11.2948
▁ائڪ	-11.2955
▁ڙيو	-11.296
▁اسد	-11.2962
في	-11.2963
▁II	-11.2963
▁بطن	-11.2965
▁لاڳ	-11.2968
▁دران	-11.2973
▁عا	-11.2989
فت	-11.299
▁نآ	-11.2993
10	-11.2999
▁چري	-11.3
آإ	-11.3003
▁جند	-11.3003
▁وتن	-11.3003
▁سوز	-11.3005
▁فتي	-11.3013
▁شته	-11.3014
وو	-11.3015
▁عترف	-11.3015
▁گهن	-11.3018
▁ٽيشن	-11.3025
▁ڀنگ	-11.3028
▁bet	-11.3029
▁هيرن	-11.3029
▁ريقا	-11.303
▁ڪثر	-11.3031
▁بته	-11.3035
▁شاٽ	-11.3036
▁تقد	-11.3043
▁چوند	-11.3045
▁داز	-11.3054
▁رهين	-11.3056
▁لسه	-11.3061
▁شيا	-11.3072
▁كد	-11.3089
▁ڏينه	-11.3095
▁حضر	-11.3096
▁رسائ	-11.3101
▁صلح	-11.3103
▁r	-11.3103
F	-11.3106
▁طي	-11.3109
▁ورين	-11.3112
▁ڍڪ	-11.3128
▁ميون	-11.3149
بى	-11.3154
▁موج	-11.3154
▁جڙي	-11.3161
▁ud	-11.3163
▁99	-11.3164
▁ڻيون	-11.3165
▁هوري	-11.3167
▁ٽس	-11.3177
▁وبه	-11.3178
▁म	-11.3179
ڇو	-11.3179
▁Na	-11.3182
SO	-11.319
وڪ	-11.3195
▁رڪر	-11.3198
▁بئ	-11.3207
▁هس	-11.3209
ek	-11.3217
▁لڊر	-11.322
ده	-11.3224
نڊ	-11.3226
▁ريڪي	-11.3229
ڃ	-11.3234
▁رمائ	-11.3236
▁مگ	-11.3245
وك	-11.3248
▁عة	-11.3259
▁يتك	-11.3259
▁دفع	-11.3263
▁لانگ	-11.327
▁48	-11.3279
▁Ja	-11.3279
▁ڪاسٽ	-11.3294
▁هما	-11.3295
آل	-11.3301
▁مداح	-11.3304
▁سح	-11.3306
▁قمر	-11.3318
▁34	-11.333
/	-11.3331
▁يزان	-11.3335
لى	-11.3335
▁اجه	-11.3336
▁معت	-11.334
▁باا	-11.334
▁chi	-11.3357
▁ڪيش	-11.337
▁توق	-11.3374
▁روين	-11.3381
▁ٽڪي	-11.3396
▁ځ	-11.3396
▁ین	-11.3397
▁Com	-11.3397
▁جلا	-11.3398
▁دة	-11.3406
▁هجو	-11.3408
▁شمو	-11.3409
▁سيب	-11.3411
▁جائ	-11.3411
▁كتي	-11.3421
▁خص	-11.3424
ो	-11.3428
▁يوت	-11.343
▁مركز	-11.3442
th	-11.3442
▁ولس	-11.3445
▁عدي	-11.3451
▁يٽس	-11.3457
▁ويلي	-11.3465
▁ويم	-11.3467
▁ٽٽ	-11.3476
▁يعت	-11.3477
▁داني	-11.3477
▁سڻ	-11.3478
ide	-11.348
▁فرش	-11.349
ڪن	-11.3491
ڷ	-11.3496
▁ويژ	-11.3499
▁ريڪٽ	-11.3505
▁رهون	-11.3507
▁cha	-11.3511
▁न	-11.3513
▁دٻي	-11.3514
▁هربان	-11.3515
▁لهائڻ	-11.3515
▁لقيت	-11.3519
▁عدو	-11.3526
▁اڍا	-11.3526
▁امو	-11.3527
سز	-11.3532
▁نڊون	-11.3533
▁ويري	-11.3536
▁رھڻ	-11.3537
▁بهت	-11.3539
▁شمس	-11.354
▁لقا	-11.3541
▁ٽئ	-11.3541
ha	-11.3546
ويش	-11.3553
▁ديه	-11.3571
▁يڏ	-11.3572
▁اڏ	-11.3576
▁تام	-11.3582
▁اتا	-11.3582
▁الهي	-11.3587
▁بچائ	-11.3589
▁نئ	-11.3589
▁w	-11.3595
ره	-11.3596
▁برادر	-11.3601
▁وصف	-11.3602
▁Lu	-11.3603
▁يبر	-11.3606
▁عجبت	-11.361
يب	-11.3611
▁لمه	-11.3621
▁نوم	-11.3622
▁اٺن	-11.3628
▁ګ	-11.3629
▁واھ	-11.3632
▁وسا	-11.3637
▁Wo	-11.364
▁عر	-11.3646
▁ڙين	-11.3653
▁هُئ	-11.3654
▁اسو	-11.3662
مو	-11.3664
▁رپ	-11.3666
▁ريما	-11.3671
▁چوڏه	-11.3685
▁ثبت	-11.3688
▁آله	-11.3694
▁غني	-11.3697
▁سڙي	-11.3699
▁يٺ	-11.3701
▁ريات	-11.3708
▁عوامل	-11.3711
▁سيٽن	-11.3712
▁لاه	-11.3712
▁رجال	-11.3724
▁آري	-11.3729
▁حما	-11.3732
▁ليبل	-11.3735
▁تط	-11.3745
ڌ	-11.3749
H	-11.375
▁مز	-11.3752
▁يانگ	-11.3757
▁39	-11.3765
▁چڱا	-11.3767
▁خاطب	-11.3772
▁//	-11.3778
ډ	-11.3781
▁دال	-11.3781
ڙو	-11.3782
▁گا	-11.3782
▁St	-11.3785
▁ze	-11.3787
▁ھيون	-11.379
▁وض	-11.3795
▁پنن	-11.3805
▁يڙه	-11.3821
▁چاھي	-11.3824
▁يڊر	-11.3827
▁ٿيند	-11.3834
▁کش	-11.3836
א	-11.3837
▁بلي	-11.3844
▁داسي	-11.3847
▁ثل	-11.3849
U	-11.3851
▁كات	-11.3853
▁وريو	-11.3859
▁ڪلپ	-11.3866
.3	-11.387
▁ڏھ	-11.3881
ٿن	-11.3881
▁اُت	-11.3885
▁Ti	-11.3886
▁ڳچ	-11.3894
▁سيس	-11.3895
▁ya	-11.3897
نى	-11.3909
▁تد	-11.3916
▁آگ	-11.3921
50	-11.3927
▁اى	-11.3937
▁ضر	-11.3939
▁هڏ	-11.394
▁مرتضي	-11.3948
▁Zone	-11.3948
▁دائود	-11.3948
▁مة	-11.3949
▁حامل	-11.3949
نيف	-11.3951
▁نواف	-11.3953
▁اڃ	-11.3966
▁ort	-11.3969
▁اوج	-11.3974
▁منج	-11.3979
▁اضي	-11.398
▁ڪارن	-11.3989
▁Mart	-11.3992
▁ny	-11.3992
▁نقص	-11.3996
▁يداري	-11.3999
▁ٿار	-11.4004
▁دت	-11.4006
▁ٻٽي	-11.4008
▁wa	-11.4009
▁ارک	-11.4032
▁اعل	-11.4033
▁طارق	-11.4037
▁(5)	-11.4038
▁Sta	-11.4043
▁ازد	-11.4044
▁زعل	-11.405
▁لينا	-11.405
ڏي	-11.4053
▁لندي	-11.406
▁پُٽ	-11.406
فد	-11.4064
▁int	-11.4064
▁j	-11.4065
▁نوف	-11.4079
▁ڳو	-11.4087
▁No	-11.409
▁ٽچ	-11.41
▁نح	-11.4104
لڊ	-11.4109
▁آڻين	-11.4111
▁نی	-11.4119
▁ترت	-11.4125
▁www	-11.4127
▁راغب	-11.4127
▁ڳڻپ	-11.4131
▁رحيم	-11.4132
▁شهور	-11.4136
▁fu	-11.414
▁اكس	-11.4142
▁گھا	-11.4151
▁هلون	-11.4157
▁قويه	-11.4163
▁ريشم	-11.418
▁جگر	-11.4181
▁ڏکي	-11.4182
▁لاقي	-11.4183
▁سوئي	-11.4185
▁سڏين	-11.4185
▁En	-11.4185
▁هاس	-11.4187
▁هڙي	-11.4192
▁وريج	-11.4196
sk	-11.4199
▁رنج	-11.4207
▁ٻيڙ	-11.4214
▁يشو	-11.4214
▁اڌو	-11.4219
▁way	-11.4219
▁نع	-11.422
▁دختر	-11.4223
▁سافر	-11.4227
▁ڪنج	-11.4228
▁اڪا	-11.4228
▁ڄمڻ	-11.423
▁لاٿو	-11.4231
▁٤	-11.4232
▁ka	-11.4232
▁زنان	-11.4235
▁ڊائري	-11.4236
ڄي	-11.4236
▁وٿ	-11.424
▁شيٽ	-11.4241
▁ak	-11.4245
▁ريش	-11.4262
▁مقنا	-11.4264
▁ااه	-11.4267
▁اوى	-11.4269
▁ڊڪ	-11.4279
▁مرت	-11.4282
▁تاني	-11.4284
gi	-11.4294
▁تسا	-11.4296
▁Do	-11.4298
▁يليون	-11.4303
▁ٽال	-11.4309
▁فضول	-11.4311
▁جناح	-11.4313
▁هيئت	-11.4316
▁لغت	-11.4323
▁خطا	-11.4328
▁يڪن	-11.433
▁تجي	-11.433
▁ht	-11.433
▁درا	-11.4333
▁هيري	-11.4336
▁َم	-11.434
▁اٻ	-11.4352
▁mon	-11.4353
▁تحق	-11.437
▁شدن	-11.438
▁ووي	-11.4381
▁لفت	-11.4388
ظ	-11.4391
▁زه	-11.4405
▁ائنس	-11.4408
▁يشل	-11.4413
▁رجل	-11.4416
▁تسلي	-11.4418
▁اكت	-11.4427
▁انع	-11.4436
▁وشي	-11.4439
انگ	-11.4443
▁يگن	-11.4484
عت	-11.4486
▁hi	-11.4486
▁شک	-11.449
لت	-11.4494
▁स	-11.4496
▁ايب	-11.4506
▁ڪاڻ	-11.4511
▁مدن	-11.4516
▁أخي	-11.4518
ذا	-11.4539
▁يالي	-11.4543
▁هڙو	-11.4545
▁SD	-11.4549
▁بكل	-11.4552
▁هات	-11.4555
▁ڌي	-11.4557
▁ty	-11.456
▁شبه	-11.4561
▁جهند	-11.4561
▁واش	-11.4567
▁هااا	-11.4574
▁يمس	-11.4578
▁55	-11.4581
▁لاني	-11.4582
ڏڻ	-11.4592
▁هادي	-11.4593
▁علوم	-11.4594
▁ڪلا	-11.4595
▁دادا	-11.4598
▁ڵ	-11.46
▁ترڪيب	-11.4603
▁ڪڏ	-11.4603
▁يڪي	-11.4608
دل	-11.461
▁نهنجي	-11.4612
▁ستائ	-11.4613
▁اشو	-11.4616
▁جاز	-11.4618
▁وقار	-11.4619
▁اڻه	-11.4624
▁ارل	-11.4628
ca	-11.463
▁لسا	-11.4634
▁يترا	-11.4635
فر	-11.4641
▁عمي	-11.4649
▁بيٺ	-11.465
ئه	-11.4661
اك	-11.4662
سط	-11.4664
▁اوڙ	-11.4668
▁مبار	-11.4669
▁tur	-11.467
▁عاش	-11.467
▁الها	-11.4682
▁کت	-11.4686
▁Xia	-11.4687
▁om	-11.4695
▁سمن	-11.4699
▁ڪفر	-11.4712
گو	-11.4715
▁وبس	-11.4723
▁rou	-11.4724
▁لهائي	-11.4725
▁ڪوپ	-11.4734
▁men	-11.4739
▁ٿاڻي	-11.474
▁روه	-11.4745
▁ُت	-11.4753
▁بج	-11.4761
غل	-11.4762
▁sin	-11.4766
بة	-11.477
▁سوره	-11.4771
▁پڇو	-11.4773
با	-11.4774
▁اڇا	-11.4775
▁سارنگ	-11.4784
▁کڙي	-11.4786
▁هوت	-11.4794
▁پسي	-11.4796
▁ويژه	-11.4803
تان	-11.4804
▁نفيس	-11.4806
▁كا	-11.4809
▁وكل	-11.4815
▁فيض	-11.4828
▁ترس	-11.4842
▁لڻ	-11.4852
▁ميلو	-11.4852
▁رني	-11.4856
▁ٽٽي	-11.4859
▁نگري	-11.4861
▁واڪ	-11.4875
▁وله	-11.4878
▁ב	-11.4881
عاهد	-11.4883
▁رها	-11.4886
▁wor	-11.4897
▁رنه	-11.4897
▁قم	-11.4902
▁يفڪ	-11.4912
هل	-11.4915
▁گلا	-11.4917
▁درش	-11.4918
▁met	-11.4922
▁ديري	-11.4925
▁ٻچ	-11.4928
▁بون	-11.4937
▁اپي	-11.4938
اق	-11.4938
▁ڪبي	-11.4954
اڪت	-11.4963
▁هنيا	-11.4967
▁ورق	-11.4969
▁چڪ	-11.4978
▁لحين	-11.4982
▁روپيا	-11.4998
no	-11.5002
▁نٽر	-11.5003
ينڊر	-11.5004
▁نقاب	-11.5006
▁تجار	-11.5012
▁بكم	-11.5012
>	-11.5017
▁ئم	-11.5022
▁قرن	-11.503
▁We	-11.5033
▁لڄ	-11.504
▁ناج	-11.5042
يف	-11.5046
ڵ	-11.5051
▁نسب	-11.5052
▁ازي	-11.5053
▁نقد	-11.5054
▁وکي	-11.5056
▁نوري	-11.5057
▁نديد	-11.5059
▁مڇ	-11.5065
▁٥	-11.5068
▁حبه	-11.507
▁nda	-11.5073
▁त	-11.5076
▁**	-11.5078
▁نصف	-11.5083
▁can	-11.5091
▁نک	-11.5093
▁اڍي	-11.5094
اري	-11.5095
▁آيس	-11.5097
اٽ	-11.5098
▁مونک	-11.5099
▁ci	-11.51
▁ڏٺل	-11.5103
ٻ	-11.5107
▁انى	-11.5107
▁مومل	-11.5108
▁ڍڳ	-11.5109
▁گوي	-11.5118
▁هران	-11.5118
ٽا	-11.5125
▁فسا	-11.5129
▁ويڪر	-11.5135
▁مٺو	-11.5139
▁غال	-11.5147
▁Le	-11.5152
▁dy	-11.5161
▁رينا	-11.5172
▁ۡ	-11.5176
▁ماڊ	-11.5177
▁work	-11.5178
▁اقوام	-11.5178
هڻ	-11.5182
▁→	-11.5182
▁هيرا	-11.5186
▁تحد	-11.5195
ڻو	-11.5195
▁الج	-11.5203
▁يڙي	-11.5211
▁باق	-11.5213
▁هدا	-11.5218
▁لٽر	-11.5221
▁متى	-11.5227
▁Du	-11.5228
▁بغي	-11.5231
▁ڇان	-11.5232
▁زب	-11.5241
▁شرڪ	-11.5242
▁نچي	-11.5244
▁يلين	-11.5246
▁Ni	-11.5247
سا	-11.5249
آآ	-11.5259
▁مشكو	-11.5264
▁سڃات	-11.5264
▁سيا	-11.5268
▁تاري	-11.5269
▁ڀن	-11.5274
▁تق	-11.5278
مى	-11.5297
▁ٺاڻ	-11.5299
▁لئي	-11.5304
▁120	-11.5307
▁كش	-11.531
▁فڪ	-11.5314
tp	-11.532
وڊ	-11.5347
▁ڀٽي	-11.535
▁سخ	-11.5358
اڻيء	-11.5359
▁گی	-11.5363
▁ڪيچ	-11.5371
▁org	-11.5378
▁مرشد	-11.5379
▁ڃاڻ	-11.5382
▁ندؤ	-11.5384
▁Pad	-11.5391
▁بره	-11.5401
▁ٺڳي	-11.541
▁43	-11.5411
▁مينار	-11.5411
▁صباح	-11.5412
▁ايگ	-11.5417
▁ھڻي	-11.5417
▁هيد	-11.5418
▁ٿائ	-11.542
▁bon	-11.5421
▁4:	-11.5425
▁ورب	-11.5432
▁ڏنڊ	-11.5432
▁گوش	-11.5434
▁ٿائي	-11.5435
▁نهون	-11.544
▁ِس	-11.5442
▁ok	-11.5443
▁نائين	-11.5451
▁اونه	-11.5451
ءَ	-11.5457
▁بات	-11.5461
▁يٽري	-11.5464
سڻ	-11.5475
▁بتي	-11.5475
▁هميش	-11.5478
▁عاجز	-11.5482
رة	-11.5484
▁ذوق	-11.5485
▁سني	-11.549
▁lt	-11.5491
▁وگ	-11.5494
▁وتو	-11.5495
▁سڪا	-11.55
▁چوڪ	-11.5503
▁سبز	-11.5504
▁بوٽن	-11.5507
▁my	-11.5509
▁عمال	-11.5519
▁ستون	-11.5524
▁ديل	-11.5526
▁صيل	-11.5538
▁لاق	-11.5549
▁وليت	-11.555
▁HT	-11.556
▁وياج	-11.5562
▁--	-11.5562
وں	-11.5565
▁مض	-11.5576
▁44	-11.5578
▁ترکي	-11.5578
▁ڪنٽ	-11.558
te	-11.5582
▁راعظم	-11.5586
▁أهم	-11.5589
▁شروط	-11.5591
▁lin	-11.5591
▁,,,	-11.5595
لس	-11.56
▁ڍور	-11.5606
▁تغ	-11.5606
▁والن	-11.5607
▁ايڪو	-11.5607
▁بب	-11.5607
▁نسٽ	-11.5612
▁يسو	-11.5614
▁سرخ	-11.5616
▁ماسي	-11.562
▁حكم	-11.5624
تل	-11.563
▁وئن	-11.563
مپ	-11.5634
▁dia	-11.5636
▁جوئ	-11.5643
20	-11.5655
▁حسي	-11.5662
▁HTML	-11.5691
▁***	-11.5691
▁ac	-11.5696
▁قام	-11.5697
▁لٺ	-11.5698
▁كدة	-11.5702
▁ڪاڏي	-11.5709
▁get	-11.571
▁ڳل	-11.5718
▁يملي	-11.5723
▁گارن	-11.5723
sp	-11.5728
جن	-11.5729
▁تی	-11.573
بار	-11.573
▁اراد	-11.5733
▁nu	-11.5735
لڪ	-11.5738
▁نڪو	-11.5751
▁امه	-11.5755
▁بحا	-11.5756
▁وائل	-11.5762
▁وچي	-11.5767
▁85	-11.5774
ٽڻ	-11.5781
▁انش	-11.5787
▁بده	-11.5789
▁Lo	-11.5791
▁صه	-11.5792
▁اقبال	-11.5798
▁خلوص	-11.5798
▁ware	-11.5799
▁El	-11.5803
.5	-11.5805
▁وينس	-11.5813
▁gi	-11.5815
▁سمت	-11.5815
▁ڄار	-11.5824
▁ٽڻ	-11.5828
▁ندين	-11.5838
▁فتن	-11.5839
▁سيٰ	-11.584
▁سخن	-11.5844
مبر	-11.5851
▁انگل	-11.586
▁اندو	-11.5861
▁ربو	-11.5867
انو	-11.5869
ga	-11.5869
▁مى	-11.5876
▁سونا	-11.5881
▁نسڪر	-11.5887
▁37	-11.5888
▁Te	-11.5889
▁اوو	-11.5893
▁تول	-11.5893
سن	-11.5897
▁شود	-11.5901
▁nge	-11.5903
▁تحريم	-11.5907
▁پيرو	-11.5907
▁نال	-11.5908
▁آيه	-11.5911
▁42	-11.592
▁آقا	-11.5929
▁نگه	-11.5931
▁عنه	-11.5935
▁پیش	-11.5943
▁فه	-11.5952
▁کے	-11.5954
▁عش	-11.5957
Z	-11.5963
▁مله	-11.5966
▁7.	-11.5987
▁انوا	-11.5987
▁برٽ	-11.5988
▁يڊي	-11.5989
▁يانو	-11.6
▁افوا	-11.6005
▁قميص	-11.6014
▁نقره	-11.6014
▁فارغ	-11.6015
▁ذھن	-11.6015
▁as	-11.6017
▁تنه	-11.6022
▁ائنا	-11.6023
▁سمر	-11.6024
▁يجنس	-11.6025
▁ظهر	-11.6026
▁لڌو	-11.6028
▁ليكم	-11.6033
▁حرم	-11.6033
▁حلم	-11.6037
▁سطو	-11.6039
▁ادش	-11.6046
▁دگ	-11.6046
▁ڪک	-11.6047
▁يانا	-11.6048
وڪيا	-11.6048
hou	-11.605
▁حليم	-11.6057
▁بوس	-11.6058
▁Tu	-11.6059
▁وبي	-11.606
لے	-11.6063
▁ڀاڳ	-11.6066
▁پلا	-11.6068
▁اريل	-11.6069
▁اقو	-11.6071
▁net	-11.6073
ھي	-11.6085
سم	-11.6091
▁اڪائ	-11.6097
▁پيشي	-11.6112
▁يواري	-11.6114
▁جِي	-11.6118
▁غد	-11.6118
े	-11.6124
▁य	-11.6124
▁ٿيس	-11.6126
▁يٽن	-11.6129
▁لڏپ	-11.6131
▁پوپٽ	-11.6135
▁4)	-11.6137
▁سوپ	-11.614
ین	-11.6141
▁آهر	-11.6143
▁قهر	-11.6148
سڀ	-11.6149
▁ريائي	-11.6152
▁اشت	-11.6153
▁گهاٽ	-11.6153
▁سيئ	-11.6155
إ	-11.6165
▁ارڪر	-11.6169
▁OS	-11.6169
▁واجه	-11.6172
ندر	-11.6202
TN	-11.6202
▁حيل	-11.6204
▁أنت	-11.6205
اعد	-11.6209
▁رسا	-11.6211
▁blo	-11.6214
▁شون	-11.6215
ټ	-11.6215
▁رئ	-11.6226
▁ماد	-11.623
▁رٽر	-11.623
▁صرا	-11.6234
▁PDF	-11.6235
▁ڀوڳ	-11.6237
▁بزن	-11.6238
يض	-11.6238
ديني	-11.6239
▁راثي	-11.624
▁انجن	-11.6247
▁mat	-11.6247
▁زاني	-11.6248
▁لتا	-11.625
▁يعي	-11.6251
▁تحر	-11.6259
▁ڌا	-11.6266
ڪم	-11.6267
▁لحد	-11.6274
▁ٻئ	-11.6287
▁قيم	-11.6289
وره	-11.6292
pe	-11.6295
قت	-11.6307
▁بجا	-11.6311
▁لوڏ	-11.6313
▁شدي	-11.6317
▁رواي	-11.6321
یں	-11.634
▁QUOTE	-11.6347
▁Tube	-11.6347
اني	-11.635
▁Clo	-11.6353
اپ	-11.6356
مه	-11.6359
ٿي	-11.6363
▁يونا	-11.6364
▁پنه	-11.6367
▁چڻ	-11.6368
▁ٽيب	-11.6373
▁کی	-11.6377
▁250	-11.638
▁cor	-11.6399
▁راهم	-11.6403
▁ڊيا	-11.6407
▁سکن	-11.6409
رت	-11.6412
▁گھرج	-11.6415
▁ليڊي	-11.642
▁حوا	-11.6425
▁لعل	-11.6437
وى	-11.6442
▁راش	-11.6443
▁ويلا	-11.6452
دام	-11.6454
▁نيئ	-11.6458
▁٦	-11.646
▁رتا	-11.6468
▁My	-11.6469
▁رويا	-11.647
▁ٽريٽ	-11.6476
▁ويجھ	-11.6481
جر	-11.6481
▁زنگ	-11.6482
▁بيلٽ	-11.6485
▁سيز	-11.6487
▁ماند	-11.6487
▁ڀاڻ	-11.6487
▁not	-11.6489
▁رجعت	-11.649
▁سره	-11.6492
▁يجر	-11.6495
to	-11.6503
▁هالا	-11.6506
▁رزش	-11.6511
▁ترسي	-11.6513
▁car	-11.6515
وع	-11.6518
▁جاج	-11.6526
▁حو	-11.6527
ويه	-11.6528
▁هرب	-11.6539
▁فله	-11.654
▁اوك	-11.6543
▁متع	-11.6548
▁کري	-11.6549
▁ڪيڏا	-11.6549
▁رمز	-11.6551
da	-11.6563
▁فز	-11.6569
داد	-11.6574
▁جڏ	-11.6576
▁Out	-11.6576
▁مرکز	-11.6576
▁فرين	-11.6578
▁سرن	-11.659
▁سيٺ	-11.6617
▁رڍ	-11.6617
▁شمع	-11.6629
▁يلم	-11.6631
مال	-11.6636
▁ڦا	-11.6644
▁ديم	-11.6644
▁سيف	-11.6649
▁ميوا	-11.6651
▁هيج	-11.6654
▁ديرو	-11.6656
▁قير	-11.666
اهد	-11.6669
▁گيس	-11.6669
▁رمت	-11.6672
▁بوط	-11.6677
▁رضي	-11.6677
وئي	-11.6678
▁بى	-11.6687
▁زمن	-11.67
▁رٿيل	-11.6702
▁نجوم	-11.6707
▁نث	-11.6709
▁ونيا	-11.671
▁ليٽي	-11.671
▁سوڀ	-11.6716
▁ديا	-11.6718
▁Vi	-11.6723
▁گهڻ	-11.6723
▁آتم	-11.6725
▁Nam	-11.6725
هاڙ	-11.6726
▁ويج	-11.673
▁ئش	-11.6731
▁خلو	-11.6732
▁ڦل	-11.6738
آء	-11.674
▁ولن	-11.6743
▁ڪنول	-11.6744
▁سيء	-11.6751
▁گران	-11.6753
▁سك	-11.6756
▁cen	-11.6762
ni	-11.6763
▁8.	-11.6768
▁ge	-11.677
▁ڪڙو	-11.6775
▁fl	-11.679
هون	-11.6795
▁موش	-11.6807
▁فيا	-11.6809
▁ल	-11.681
▁(6)	-11.681
▁توان	-11.6811
▁ضبط	-11.6811
▁عکس	-11.6813
▁چرپر	-11.6814
▁Ama	-11.6816
▁عبا	-11.6817
▁An	-11.6825
▁فرح	-11.6826
▁مرگ	-11.6832
▁سورت	-11.6833
▁يٽون	-11.6841
▁رطان	-11.6851
▁Hi	-11.6855
▁ut	-11.6859
▁ٿري	-11.6863
▁هديه	-11.6863
▁لجي	-11.687
▁ڪاڪ	-11.687
▁وسائ	-11.688
00	-11.6881
اع	-11.6884
▁يڪڙ	-11.6887
▁هيڪر	-11.689
▁Ri	-11.691
ّ	-11.6911
▁عدل	-11.6924
▁آڱر	-11.6929
▁ضعيف	-11.6929
▁٩	-11.6931
▁وجو	-11.6931
▁يوسي	-11.6933
لة	-11.6938
ائيٽ	-11.694
▁هاٿي	-11.6944
▁لبو	-11.695
▁نٽي	-11.6954
▁Ka	-11.6955
▁ويچ	-11.6957
▁فوق	-11.6964
▁وينا	-11.6965
▁ئلي	-11.6965
op	-11.6969
▁رمو	-11.697
▁نڪرن	-11.6972
▁نائڻ	-11.6974
▁چمي	-11.6989
▁زانو	-11.6999
▁راڻا	-11.7
▁ٱ	-11.7
▁نوش	-11.7007
لك	-11.7019
ka	-11.7025
▁جسٽ	-11.7026
▁ڊزائ	-11.7035
▁نق	-11.7041
▁ڃا	-11.7045
sh	-11.7047
▁USB	-11.7049
▁ּ	-11.7049
▁ٽتائي	-11.7051
▁نقاد	-11.7051
▁ذلك	-11.7052
▁پارا	-11.7055
▁بصر	-11.7057
▁استي	-11.7058
▁ہے	-11.7059
هار	-11.7062
▁پروا	-11.7063
▁Ki	-11.7063
چر	-11.7063
▁غز	-11.7066
▁دودي	-11.7068
▁ڳئ	-11.7071
▁اسپا	-11.7076
▁رچو	-11.7089
▁شمي	-11.709
▁آغ	-11.7093
▁اٿڻ	-11.7094
▁بدك	-11.7095
▁64	-11.7096
▁ڌن	-11.7099
گل	-11.7103
▁غبي	-11.7104
ڪٽ	-11.711
▁آفر	-11.7111
▁برنا	-11.7111
▁ميو	-11.7117
كه	-11.7118
▁ڊن	-11.712
▁ورنا	-11.7126
▁نواري	-11.7141
▁حلف	-11.7142
▁سندا	-11.7148
▁ھاڻ	-11.7154
▁ڪلائ	-11.7159
ly	-11.7166
▁flix	-11.7171
▁®	-11.7172
▁نهنجو	-11.7179
▁ٽوئر	-11.7179
▁چراغ	-11.7181
▁USD	-11.7188
▁لذ	-11.7191
▁زع	-11.7195
▁اقر	-11.7198
▁مشڪ	-11.72
▁ياض	-11.7205
▁سڱ	-11.7208
▁تخا	-11.721
▁ڊنگ	-11.721
▁ڃان	-11.7211
▁ڦٽي	-11.7213
▁کون	-11.7216
▁راك	-11.7216
▁سجن	-11.7221
▁ڪيٽن	-11.7227
▁هبل	-11.7228
▁ast	-11.723
▁ائٽ	-11.7236
▁الز	-11.7237
▁نجون	-11.7239
▁ناني	-11.7243
▁ps	-11.7243
▁lla	-11.7247
▁بيح	-11.7248
▁متح	-11.7249
▁لفٽ	-11.7252
j	-11.7254
▁آنا	-11.7255
▁اسٽي	-11.7256
▁زا	-11.7256
ٽس	-11.7259
▁رة	-11.726
▁يغ	-11.7264
▁52	-11.7265
▁انک	-11.7265
▁يفي	-11.7268
▁لوني	-11.727
▁گانا	-11.7272
▁ونکي	-11.7284
▁ڏائي	-11.7285
▁دِ	-11.7293
▁اظن	-11.7295
▁برك	-11.7295
▁فاروق	-11.7296
▁دكتر	-11.7296
▁قار	-11.7302
▁ذرا	-11.7306
▁ڪاٿي	-11.7309
▁ندان	-11.7311
▁ڌوئي	-11.7311
▁che	-11.7315
ائڪر	-11.7324
▁ولان	-11.733
▁وتر	-11.7336
▁Im	-11.7348
▁آهو	-11.7357
▁Un	-11.7362
▁قافل	-11.7362
▁ڪرن	-11.7363
شش	-11.7369
▁بلو	-11.738
▁طار	-11.7383
اں	-11.7392
▁زرد	-11.7405
▁^_^	-11.742
▁◄	-11.742
▁واند	-11.7421
▁q	-11.7423
▁وردي	-11.7429
▁لعبة	-11.7433
▁امح	-11.7433
▁آڻ	-11.7436
▁مايا	-11.7439
▁ستاد	-11.7443
▁جهون	-11.7444
▁رشد	-11.7445
▁يوري	-11.7453
▁آخه	-11.746
▁لڏ	-11.7465
حق	-11.747
▁6-	-11.7474
▁وريا	-11.7481
▁گوڙ	-11.7484
▁وام	-11.7489
▁يوز	-11.7493
▁ذرو	-11.7507
▁98	-11.751
▁علت	-11.751
لٽ	-11.7513
▁Gi	-11.7519
▁امك	-11.7524
▁مٺا	-11.7531
ورة	-11.7532
▁چيا	-11.7533
▁مزا	-11.7534
▁گرل	-11.7537
▁الغ	-11.7538
DM	-11.7543
▁عبو	-11.7553
▁قين	-11.7556
▁گرڊ	-11.7564
▁ڳه	-11.7571
▁پوپ	-11.7571
▁لدار	-11.7574
▁پوائ	-11.7581
on	-11.7584
▁ملها	-11.759
▁هڪڙ	-11.7591
▁Pi	-11.7591
▁سلي	-11.7593
▁صر	-11.7597
ُر	-11.7599
▁جبر	-11.7608
▁ٿڪل	-11.7609
▁sy	-11.761
ناط	-11.7616
▁حان	-11.7617
▁جاد	-11.7624
▁ھوا	-11.7629
ar	-11.763
▁ren	-11.7643
▁نعر	-11.7648
▁ڀڃي	-11.7653
▁يتيم	-11.7656
▁Se	-11.7657
▁انھي	-11.7658
چو	-11.7668
▁pe	-11.767
▁ليد	-11.7671
▁©	-11.7674
▁41	-11.7675
▁صحي	-11.7676
▁برر	-11.7677
▁5:	-11.7678
فذ	-11.7679
▁كري	-11.7679
▁ميک	-11.7683
▁هجوم	-11.7684
▁ومت	-11.7684
▁پوز	-11.7691
▁وة	-11.7691
▁لاٿ	-11.7692
▁زيرو	-11.7697
▁ls	-11.7699
▁ابلو	-11.77
▁رڻي	-11.7701
▁TM	-11.7704
▁يوڪ	-11.7704
▁نانو	-11.7707
▁ديان	-11.7711
ونق	-11.7714
▁ويٺ	-11.7716
▁جڙ	-11.7718
▁ربر	-11.7718
▁طئ	-11.7719
▁وانگ	-11.7728
وکو	-11.7728
▁ولھ	-11.773
▁Bu	-11.7735
▁اڪس	-11.7737
زائر	-11.7741
حال	-11.7742
▁fla	-11.7746
شت	-11.7749
▁مهار	-11.7763
▁قف	-11.7767
▁جئن	-11.7768
▁وص	-11.7775
▁بران	-11.7781
▁هج	-11.7787
يع	-11.7791
▁نط	-11.7792
ھار	-11.7796
▁چؤ	-11.7799
▁प	-11.7804
▁عمودي	-11.7804
▁LED	-11.7805
▁ٖ	-11.7806
▁ئني	-11.781
▁قسط	-11.7813
▁سنگهه	-11.7813
▁ئنٽ	-11.7822
آت	-11.7825
ركب	-11.783
▁ڙهيو	-11.7833
ed	-11.7834
▁فتار	-11.7834
▁هيلي	-11.7835
Q	-11.7835
▁نوبل	-11.7842
▁رافي	-11.7842
▁نبو	-11.7845
▁ايسڊ	-11.7847
▁Tag	-11.7849
▁Al	-11.7859
▁ڌڻ	-11.7861
▁تعا	-11.7866
نگال	-11.7869
▁ٽپو	-11.7869
▁ٽاڪ	-11.7874
▁ئگ	-11.7874
▁دودو	-11.7874
▁يٽور	-11.7877
پس	-11.7877
مان	-11.7878
▁نيٽو	-11.7883
▁لوگ	-11.7884
▁ونهي	-11.789
▁ئع	-11.789
▁ڻان	-11.7906
▁62	-11.7911
▁وڙو	-11.7913
▁ونس	-11.7918
▁وى	-11.7919
▁ڇال	-11.7923
▁ڳڻي	-11.7924
▁وڍ	-11.7927
▁يشاني	-11.7928
▁سنڀار	-11.7936
▁مزور	-11.7937
▁بيري	-11.794
▁جتن	-11.7941
▁ۍ	-11.7943
▁پاري	-11.7943
▁رتو	-11.7947
▁dra	-11.7947
▁ڏار	-11.7959
اه	-11.7961
ڊر	-11.7963
▁نکن	-11.7967
at	-11.7971
▁الهه	-11.7973
▁اشن	-11.7974
▁ڇاپ	-11.7979
۱	-11.7985
▁انڌو	-11.7991
ئس	-11.7994
▁انيت	-11.8006
▁ڪجو	-11.8018
▁ٽيٽ	-11.802
▁برق	-11.8022
▁ڊگ	-11.8022
▁سٿ	-11.8023
▁شعا	-11.8032
▁49	-11.8033
ڼ	-11.8039
é	-11.8041
▁ڪٽو	-11.8046
*	-11.8055
▁sto	-11.8056
ڌي	-11.8067
▁SQ	-11.807
▁ترحيب	-11.807
▁ابڙو	-11.8074
J	-11.8074
▁نڪاح	-11.8075
ڄڻ	-11.8076
▁هجري	-11.8099
▁وازي	-11.8109
▁سرڪ	-11.8113
▁ali	-11.8113
▁ڇھ	-11.8114
▁زپ	-11.8116
ڻڪ	-11.8121
ړ	-11.8131
▁عافي	-11.8133
▁عطر	-11.8137
▁اسب	-11.8138
▁خطير	-11.8143
▁xi	-11.8146
▁هوڏ	-11.8149
ھن	-11.8149
▁مدو	-11.8152
اح	-11.8154
▁بڻا	-11.8161
▁ندام	-11.8176
▁واء	-11.8188
▁يپٽ	-11.8191
رى	-11.8193
▁ell	-11.8194
▁برڪ	-11.8196
▁NEWS	-11.8204
▁مارج	-11.8204
▁♪	-11.8204
▁Off	-11.8205
▁Time	-11.8205
▁كني	-11.8207
▁پنهان	-11.8208
▁اطل	-11.8211
▁tro	-11.8211
▁حسد	-11.8224
▁part	-11.8232
▁عدا	-11.8237
▁يرون	-11.8242
▁CB	-11.8242
▁گدا	-11.8245
▁han	-11.8251
▁یش	-11.8256
▁ټ	-11.8258
▁كلش	-11.8259
▁قضا	-11.826
▁ظم	-11.8261
▁آجو	-11.8262
▁نارا	-11.8272
▁عبد	-11.8274
▁XD	-11.8277
يگاس	-11.8281
▁MP	-11.8286
▁ورھ	-11.8286
▁ju	-11.8293
▁پيد	-11.8299
۔	-11.8302
▁فتا	-11.8309
▁ڊور	-11.8309
▁پيوٽ	-11.8313
▁ورل	-11.8323
▁vol	-11.8324
▁نڍي	-11.8327
▁ھئ	-11.8332
▁was	-11.8335
▁sse	-11.834
▁♡	-11.834
▁ذاكر	-11.8348
▁xD	-11.835
▁نشست	-11.8352
▁ins	-11.8352
مش	-11.8356
ٽن	-11.8357
▁هينڊ	-11.836
▁زهرا	-11.8364
▁فجر	-11.8366
▁ورچي	-11.837
▁قصي	-11.8372
▁ڍير	-11.8378
▁حذ	-11.8379
گي	-11.8381
▁ليور	-11.839
▁شڪا	-11.8391
▁ھند	-11.8409
▁حقي	-11.8413
▁اجن	-11.8418
▁رحت	-11.8419
▁اران	-11.842
▁All	-11.8423
▁شيل	-11.8424
▁بڻيا	-11.8426
ائش	-11.8429
▁سٽو	-11.8434
▁نشو	-11.8443
▁ربا	-11.845
▁هندا	-11.8458
▁Me	-11.8462
▁SA	-11.8466
الت	-11.8471
▁عبي	-11.8471
▁مقصود	-11.848
▁व	-11.8481
▁ღ	-11.8482
▁رژي	-11.8484
▁فاظ	-11.8485
▁فهد	-11.8487
جا	-11.849
رب	-11.849
▁قر	-11.8492
▁am	-11.8499
▁نوشت	-11.8508
▁لوه	-11.8511
▁bo	-11.8514
وچ	-11.8522
▁ليبر	-11.8524
▁لنڊ	-11.8527
▁ڪانٽ	-11.8528
▁سعد	-11.853
اش	-11.8534
▁ماڻ	-11.8538
▁تلف	-11.8541
▁سع	-11.8544
▁ڪهڙ	-11.8551
▁عنك	-11.8554
▁ساھ	-11.8558
▁مکڻ	-11.8559
▁چٽي	-11.8561
▁روٽر	-11.8564
▁رٿا	-11.8564
▁وفائ	-11.857
▁ذهب	-11.8574
▁واص	-11.8581
▁ماڻه	-11.859
يجٽ	-11.8592
▁ID	-11.8592
▁پرک	-11.8601
▁انسي	-11.8608
اچ	-11.8615
▁غضب	-11.8621
▁يعقوب	-11.8621
▁§	-11.8621
▁ينيا	-11.8622
▁ڏوھ	-11.8624
▁ديپ	-11.8627
▁800	-11.8632
▁ڌند	-11.8641
▁مينا	-11.8643
▁ظن	-11.8661
یک	-11.8667
▁ذهبي	-11.867
نك	-11.8678
▁51	-11.8688
▁لوئ	-11.8701
▁سات	-11.8703
▁حض	-11.8708
▁سائيٽ	-11.8709
▁سوئ	-11.8715
▁بسس	-11.8718
▁شڪي	-11.872
يان	-11.8722
▁دادن	-11.8723
▁گور	-11.8724
▁آره	-11.8728
▁زگ	-11.8732
▁سهل	-11.874
▁مينو	-11.8741
▁يگري	-11.8743
▁کڏ	-11.8751
▁نٿ	-11.8753
▁نبا	-11.8758
▁URL	-11.8764
▁واءِ	-11.8766
▁پڪي	-11.8769
▁رعب	-11.877
▁زاويه	-11.877
▁ھنڌ	-11.877
▁آهم	-11.8771
▁چائڻ	-11.8774
▁ڌوڙ	-11.8775
▁bra	-11.8776
▁باه	-11.8779
lu	-11.8779
▁سٽڪ	-11.8782
▁عصر	-11.8786
▁كلي	-11.8787
▁حسيت	-11.8789
مة	-11.8791
▁Th	-11.8796
▁ننگر	-11.8802
▁وقا	-11.8809
▁ٻچا	-11.8809
▁عزا	-11.8811
▁يمر	-11.8818
▁47	-11.882
▁Bl	-11.8822
▁ارگ	-11.8823
▁سنة	-11.8826
▁دنگ	-11.8826
%	-11.8829
▁ليند	-11.883
▁نرال	-11.8832
هان	-11.8833
▁چرٻ	-11.8833
▁pri	-11.8838
▁نسيم	-11.8839
آه	-11.8843
▁عيا	-11.885
▁وقع	-11.8852
▁ِن	-11.8862
▁قصا	-11.8871
▁AM	-11.8873
▁هلائ	-11.8879
▁ٺڪ	-11.8886
▁جمي	-11.8887
▁نادي	-11.8892
١	-11.8898
▁😉	-11.8907
▁طعام	-11.8909
▁ستحيل	-11.8909
▁😂😂	-11.8909
▁رڌل	-11.8913
▁ھج	-11.8917
▁سوئس	-11.8919
▁محض	-11.8923
▁صج	-11.8926
غا	-11.8928
▁تپ	-11.893
▁نءِ	-11.8932
▁موو	-11.8933
▁ڊيڪ	-11.8939
▁ونها	-11.894
▁مكن	-11.8946
▁طن	-11.8956
▁ابط	-11.8959
▁ii	-11.8966
▁ڊيوس	-11.8967
▁راڪ	-11.8971
▁سوئر	-11.8972
▁اسڪيل	-11.8974
▁سرا	-11.8977
▁لدي	-11.8979
▁ُئي	-11.8987
هڙ	-11.8992
▁نصر	-11.8994
▁wo	-11.8995
دة	-11.9
▁ملك	-11.9001
▁نارم	-11.9009
▁gg	-11.9019
▁لوئي	-11.9021
▁ياڻ	-11.9023
▁اولا	-11.9029
▁بولي	-11.9033
▁ترن	-11.9034
▁اسف	-11.9038
▁يموٽ	-11.9041
▁،،،	-11.9047
كل	-11.9049
▁روو	-11.9051
▁هجرت	-11.9064
▁ويڊ	-11.9066
▁US	-11.9067
▁آتش	-11.9077
▁شيش	-11.9077
▁لاج	-11.9081
▁ڇوڙ	-11.9082
▁همس	-11.9084
وض	-11.9084
▁انگو	-11.9086
نش	-11.9086
▁ويهين	-11.9087
▁قطب	-11.9093
▁سهم	-11.9093
▁دكم	-11.9095
▁ڊاهي	-11.9097
▁ووا	-11.9098
▁گام	-11.9103
▁آلي	-11.912
▁زائ	-11.9121
▁wat	-11.9123
▁نايم	-11.9127
▁مسئ	-11.9129
▁سامه	-11.9131
▁ڪرت	-11.9132
ang	-11.9136
▁ينشن	-11.914
▁ابل	-11.9148
▁انيو	-11.9149
▁غان	-11.9154
▁لگ	-11.9156
▁ستل	-11.9157
▁باٿ	-11.9163
▁دعي	-11.9167
▁رسان	-11.9174
▁بيك	-11.9175
▁ڊيڊ	-11.9177
▁لڪس	-11.9182
▁لوھ	-11.9184
go	-11.9201
▁ٺٽو	-11.9205
▁وگر	-11.9207
▁ريندو	-11.9208
▁Gra	-11.9208
▁API	-11.9208
▁post	-11.9208
▁360	-11.9211
▁آني	-11.9212
▁رسو	-11.9224
▁ينھن	-11.9227
▁ھُ	-11.9227
رك	-11.9228
سه	-11.9229
▁آڪ	-11.9229
▁ندگ	-11.9234
▁نگو	-11.9236
▁ica	-11.9242
▁تتر	-11.9243
▁عما	-11.9245
▁كسي	-11.9249
▁حلق	-11.925
▁ناتو	-11.9263
▁روپا	-11.9263
▁ائيد	-11.9264
▁ميں	-11.9265
▁چچ	-11.9267
▁ښ	-11.9269
▁خف	-11.9278
▁جات	-11.928
▁ڌيئ	-11.9283
▁ويش	-11.9289
▁زيان	-11.9293
▁دآ	-11.9294
گا	-11.9295
▁سنس	-11.9301
▁ميار	-11.9309
كس	-11.9311
جه	-11.9316
▁پٺي	-11.9324
vi	-11.9328
▁ندرو	-11.9348
▁غذ	-11.9353
▁اڱ	-11.9355
▁فقي	-11.9355
▁ٿِي	-11.9357
▁(9)	-11.9357
▁ۃ	-11.9357
▁ڌيء	-11.9357
▁<~	-11.9359
▁time	-11.9359
▁نبض	-11.936
▁نسا	-11.936
▁تغيير	-11.9361
▁()	-11.9361
▁رفيق	-11.9363
▁ساجد	-11.9364
ڙڻ	-11.9367
انا	-11.9367
▁شركت	-11.937
▁نعرو	-11.9374
▁ائنڊ	-11.9374
ُڪ	-11.9377
▁لياري	-11.938
▁بطل	-11.9388
▁رانٽ	-11.9391
▁صبا	-11.9395
▁fro	-11.9397
▁Ga	-11.9399
▁هٿي	-11.9403
▁يارن	-11.9403
el	-11.9406
▁56	-11.9408
▁گھو	-11.9412
▁اسڪور	-11.9415
om	-11.9416
▁38	-11.9418
فة	-11.9422
▁cra	-11.9431
▁مرچ	-11.944
▁جزئي	-11.9441
▁تحب	-11.9452
▁ڏن	-11.9454
▁توڙ	-11.946
▁لکو	-11.9461
▁ديون	-11.9464
or	-11.9469
▁كما	-11.9469
▁هى	-11.9476
نڊا	-11.9481
▁اختر	-11.9486
tu	-11.9496
▁مختص	-11.9499
فروض	-11.9505
▁مشتاق	-11.951
▁remo	-11.9512
▁مرکب	-11.9512
▁وليس	-11.9512
آب	-11.9515
▁ڏنگ	-11.9518
▁پنهج	-11.9519
▁رايح	-11.9526
▁جهڪي	-11.9526
▁گئ	-11.9527
▁رٻڙ	-11.9527
▁ضب	-11.9533
▁ڀال	-11.9534
▁ركز	-11.954
▁كرا	-11.9541
▁شايف	-11.9548
شوت	-11.9555
▁sha	-11.9558
▁ولآ	-11.9559
▁lle	-11.9559
▁ڀائي	-11.9562
▁بودن	-11.9575
ET	-11.958
▁شغل	-11.9582
▁اقا	-11.9595
▁تب	-11.9596
▁يمان	-11.96
▁لفي	-11.9604
▁مليح	-11.9608
هم	-11.9616
▁ُتي	-11.9617
▁شاي	-11.9622
▁مائ	-11.9623
▁مکي	-11.9626
▁قع	-11.9638
▁whe	-11.9638
▁أح	-11.964
نڪ	-11.9649
▁ديدي	-11.9649
rd	-11.965
→	-11.9657
▁ڏان	-11.966
▁لھي	-11.9662
▁غافل	-11.9668
▁جست	-11.9669
▁Fra	-11.9669
▁هناك	-11.967
▁پيڙا	-11.9672
▁هرج	-11.9677
▁نياپو	-11.9678
▁disc	-11.9679
▁گشت	-11.9686
▁عيل	-11.9691
▁مانت	-11.9691
▁دلير	-11.97
▁صيت	-11.9704
جان	-11.9706
▁چمن	-11.9712
▁خري	-11.9716
يٰ	-11.9724
▁آنآ	-11.9724
واڙ	-11.9725
وڪو	-11.9727
شي	-11.9731
▁اهري	-11.9732
▁ُئ	-11.9735
▁cla	-11.9736
بڙي	-11.9739
▁ازا	-11.9739
▁بنگ	-11.9755
▁lar	-11.9766
▁چک	-11.9767
نٽڪ	-11.9769
▁يڏا	-11.9783
سى	-11.9783
▁Pri	-11.9789
▁اٿئ	-11.9794
▁برون	-11.9799
▁vo	-11.9802
▁بتن	-11.9825
▁نروار	-11.9826
▁(8)	-11.9826
▁عقب	-11.9827
▁UA	-11.9828
▁stra	-11.9828
▁ٔ	-11.983
▁fra	-11.9831
سة	-11.9831
▁گيمز	-11.9831
ce	-11.9831
▁ورڻ	-11.9836
▁ڪمار	-11.9842
▁ڳت	-11.9843
▁ڪفن	-11.9845
▁ڇٽ	-11.9848
لف	-11.9848
▁UN	-11.9851
▁ڪوڪي	-11.9851
▁عائش	-11.9851
▁حار	-11.9851
▁ڏيهي	-11.9852
▁ٻري	-11.9854
▁Quot	-11.9856
رس	-11.9858
▁معاه	-11.986
▁لاڀ	-11.9861
▁صوبو	-11.9872
▁ڊان	-11.9876
▁درو	-11.9877
▁ائيل	-11.9879
now	-11.9884
Y	-11.9887
et	-11.9894
▁وڪر	-11.9898
وسيق	-11.9906
▁ڪمرا	-11.9906
▁ڀڳو	-11.9909
اک	-11.9912
▁لخ	-11.9914
▁نايت	-11.9914
▁ردك	-11.9915
دان	-11.9917
▁ros	-11.9919
▁آسا	-11.9922
▁پيپ	-11.9923
▁53	-11.9924
▁ناسا	-11.9926
▁لولي	-11.9928
▁زود	-11.9931
▁پلو	-11.9933
▁وسين	-11.9934
▁ملف	-11.9935
ڙڪ	-11.9943
▁لهائ	-11.9948
▁ازاي	-11.995
یت	-11.9956
40	-11.9959
▁شري	-11.9959
▁يريز	-11.9961
+	-11.9965
۲	-11.9975
▁يمين	-11.9976
▁يدان	-11.9981
▁ह	-11.9987
▁APK	-11.9987
▁ٻاڦ	-11.9987
▁إذا	-11.9988
▁زگار	-11.9991
▁داعش	-11.9993
▁مطهري	-11.9995
▁دوڪا	-11.9997
▁دق	-12
▁نفر	-12.0003
▁صلا	-12.0007
▁خز	-12.0007
▁قاص	-12.0008
▁لوز	-12.0012
▁اكتر	-12.0014
▁بحب	-12.0016
▁اڪرم	-12.0018
▁bit	-12.0018
▁واح	-12.002
كت	-12.002
▁زيب	-12.0021
اڳ	-12.0022
كر	-12.0024
▁پسر	-12.0024
▁نعرا	-12.0026
▁سوسي	-12.0028
▁bot	-12.0029
▁لڌ	-12.003
▁بخت	-12.0034
▁63	-12.0035
▁رحب	-12.0035
▁Jo	-12.0038
▁نشور	-12.0043
▁شفٽ	-12.0048
▁ful	-12.006
▁سلو	-12.0061
▁وهان	-12.0062
▁وبر	-12.0068
▁ازو	-12.0075
▁سوق	-12.0089
▁قاب	-12.0092
▁رگر	-12.0095
▁انگر	-12.0095
▁ڪٽس	-12.0097
گن	-12.01
▁59	-12.0102
▁يمون	-12.0103
▁آسم	-12.0108
▁بشه	-12.0108
▁سنا	-12.0111
یز	-12.0115
▁حٿ	-12.0117
so	-12.012
رے	-12.012
▁ساک	-12.0128
▁46	-12.0143
كار	-12.0144
تاڙ	-12.015
▁لذيذ	-12.0151
▁نرژي	-12.0151
▁Plus	-12.0151
▁द	-12.0151
▁كويس	-12.0152
▁عريس	-12.0152
▁شكال	-12.0155
▁لاين	-12.0156
▁جولا	-12.0156
لين	-12.0157
▁تخلي	-12.0157
▁دوني	-12.0158
رڏيه	-12.0162
▁ڀاتي	-12.0163
رڪ	-12.0166
▁قصة	-12.0166
▁ٽه	-12.0169
▁وردة	-12.017
▁فخ	-12.0171
▁سبت	-12.0172
رز	-12.0173
▁ڪہ	-12.0176
▁اپو	-12.018
-5	-12.0181
▁ڪچو	-12.0182
12	-12.0186
▁وڪس	-12.0188
▁يويو	-12.0189
▁رنو	-12.0189
▁ياط	-12.0203
▁ثال	-12.0212
وپو	-12.0212
▁جنه	-12.0217
▁ائجي	-12.0223
▁2.1	-12.0225
▁ssi	-12.0226
▁يحي	-12.0229
▁ميرو	-12.0232
▁ٺڪر	-12.0233
▁Fi	-12.0234
وج	-12.0234
▁نارو	-12.0237
▁ريق	-12.0239
ad	-12.0251
▁ڊزن	-12.0256
▁امم	-12.0256
▁bor	-12.0268
ڪٻئي	-12.0272
ڛ	-12.0278
زاق	-12.0281
▁هريا	-12.0283
قليد	-12.0285
▁يمز	-12.0286
قاطع	-12.0287
زا	-12.0289
رض	-12.029
ڊس	-12.0294
▁Cas	-12.0302
ٌ	-12.0304
▁عبار	-12.0304
▁اوچت	-12.0306
▁tri	-12.0311
▁هيڪل	-12.0311
▁پتا	-12.0313
▁fin	-12.0313
▁↑	-12.0317
▁Blu	-12.0324
▁ڍنگ	-12.0324
▁عمد	-12.0328
▁پخش	-12.033
▁متل	-12.0336
▁چاڪ	-12.0339
▁نيما	-12.0354
▁وچا	-12.0354
▁يڪسي	-12.0356
▁ship	-12.0356
▁فة	-12.0366
آف	-12.0366
▁اهمي	-12.0367
ٽڪ	-12.0368
▁رحال	-12.0371
▁اندا	-12.0375
▁خليت	-12.0379
▁نديس	-12.0387
▁اھيو	-12.039
▁سٽال	-12.039
TE	-12.0397
اڻو	-12.041
▁لد	-12.0415
▁نوره	-12.0427
▁لنگر	-12.0432
▁صارت	-12.0438
▁ji	-12.0439
▁za	-12.0444
▁ريڪو	-12.0444
شرق	-12.0446
▁نوو	-12.045
داف	-12.0452
▁lu	-12.0456
▁NO	-12.0461
▁حيه	-12.0463
ڌور	-12.0463
▁نحن	-12.0464
▁shar	-12.0464
▁اِي	-12.0466
▁96	-12.0466
▁امڪ	-12.0466
رتي	-12.0472
▁SL	-12.0478
ڻا	-12.0479
▁اوپ	-12.0479
▁٨	-12.0483
▁58	-12.0485
ט	-12.0487
▁تطبيق	-12.0487
▁خفيف	-12.0492
▁غالي	-12.0494
▁صيب	-12.0499
▁88	-12.0502
▁والوز	-12.0503
▁فکر	-12.0503
▁زلف	-12.0505
▁ڊيش	-12.0508
▁عص	-12.0509
▁ادن	-12.0513
آم	-12.0514
کا	-12.0516
▁حرڪ	-12.0517
راج	-12.052
▁دوکي	-12.0523
▁راا	-12.0527
▁نبوت	-12.0527
▁Cha	-12.0529
▁مدح	-12.0532
كي	-12.0535
▁وٿي	-12.0537
▁گيان	-12.0539
▁الاج	-12.0543
▁ننهن	-12.0547
فل	-12.0552
▁تڏ	-12.0552
▁طير	-12.0556
▁ډ	-12.0558
▁ستاني	-12.0559
▁واڳ	-12.0566
▁طم	-12.0567
ٻي	-12.0569
▁پوش	-12.057
▁جھا	-12.057
▁هسه	-12.0574
▁هجون	-12.0583
▁ڊم	-12.0583
▁سپا	-12.0584
▁خيو	-12.0589
▁ڌو	-12.0591
▁رادو	-12.0597
▁ويلن	-12.0602
▁جني	-12.0605
ve	-12.0605
▁GT	-12.0607
اڳل	-12.0608
▁PS	-12.0619
▁fil	-12.0624
▁IN	-12.0626
▁ٺڳ	-12.0633
▁هرام	-12.0634
▁لعن	-12.0643
▁رجب	-12.0646
▁دڳ	-12.0647
▁رغم	-12.065
▁رائو	-12.0655
▁جمهور	-12.0659
▁(7)	-12.0659
▁Sky	-12.066
▁ۉ	-12.0662
▁Nex	-12.0663
▁reco	-12.0664
▁ڳايو	-12.0665
▁new	-12.0665
▁عاجب	-12.0666
▁ڪنگڻ	-12.0674
▁dir	-12.0677
▁pot	-12.0679
▁ياسي	-12.0689
▁وڪال	-12.0692
کندڙ	-12.0698
▁عف	-12.0705
▁ويانا	-12.0707
▁رى	-12.0712
▁چلم	-12.0713
▁بگو	-12.0717
▁ججن	-12.072
▁ڪوڏ	-12.0741
ڏانه	-12.0746
▁ٺل	-12.0757
▁86	-12.0757
ڌار	-12.076
▁مسن	-12.0762
تن	-12.0764
▁هيئ	-12.0765
کوز	-12.0766
▁ٿيٽر	-12.0766
ید	-12.0772
▁نژاد	-12.0784
▁69	-12.0787
▁لوهي	-12.0787
▁دادي	-12.079
▁tin	-12.0792
▁راع	-12.0793
▁يڊنٽ	-12.0799
قص	-12.0802
▁بلب	-12.0804
▁خم	-12.0805
يپال	-12.0807
▁تختي	-12.0809
ګ	-12.0815
▁چلي	-12.0816
تم	-12.0829
▁سوڍ	-12.083
▁بلٽ	-12.083
▁َا	-12.0834
0	-12.0836
▁سينه	-12.084
▁Ya	-12.0845
ow	-12.0846
پين	-12.0846
▁رجوع	-12.0847
▁عاي	-12.0849
▁ڪجن	-12.0852
آك	-12.0856
▁سعر	-12.0857
▁كند	-12.0857
▁ste	-12.0863
▁لزا	-12.0865
▁سخي	-12.0867
▁لمى	-12.0871
▁ئنسي	-12.0873
▁خو	-12.0882
▁موس	-12.0891
▁علاء	-12.0895
▁ٻل	-12.0896
▁Dr	-12.0898
▁لڌي	-12.0904
▁هڏن	-12.091
▁اوسر	-12.091
▁مهاڻ	-12.0914
▁57	-12.0925
سڪ	-12.0926
▁نبات	-12.0927
▁جنان	-12.0928
▁آڳ	-12.093
▁اپر	-12.0935
▁يحب	-12.0943
اوي	-12.0944
▁ڏام	-12.0946
▁اديء	-12.0949
▁ڪٺ	-12.0951
▁مرن	-12.0956
▁يورس	-12.096
الي	-12.0967
▁مليس	-12.0967
ارب	-12.0979
اروي	-12.0986
▁دهه	-12.099
▁بڻي	-12.0993
نز	-12.1007
▁ميدو	-12.1012
▁ليان	-12.1014
▁مھينو	-12.1014
▁ڱريو	-12.1015
▁92	-12.1016
▁54	-12.1017
▁Bra	-12.1017
▁زنا	-12.102
زي	-12.1021
▁يراث	-12.1021
▁box	-12.1022
▁چڙه	-12.1028
▁خطأ	-12.1029
▁ينسل	-12.1029
▁180	-12.1029
▁ابع	-12.1035
▁عسل	-12.1035
▁بوي	-12.1039
▁ڀنڀو	-12.1044
▁خيا	-12.1045
ڊو	-12.1046
▁واف	-12.1046
▁خاڪ	-12.1048
▁انپ	-12.1057
▁رائيل	-12.1061
▁مساج	-12.1065
▁وريء	-12.107
▁kn	-12.107
▁رسد	-12.1073
▁10.	-12.1073
▁سوف	-12.1073
TC	-12.1079
شڪيل	-12.108
▁واق	-12.1081
▁شرا	-12.1088
▁هنري	-12.1089
▁يكر	-12.1106
▁""	-12.112
▁rat	-12.1127
▁يليو	-12.1127
▁اٿن	-12.1132
▁بيلا	-12.114
▁bre	-12.1141
▁احي	-12.1146
▁ڃي	-12.1153
▁لوڏي	-12.1157
▁nf	-12.116
▁جٽ	-12.1167
▁چلو	-12.1169
▁ڍڪي	-12.1171
▁كلو	-12.1172
▁قاف	-12.1172
▁وغير	-12.1182
▁تمري	-12.1183
î	-12.1195
▁≤	-12.1195
▁😀	-12.1195
▁igh	-12.1195
▁هنئي	-12.1195
▁ترديد	-12.1196
▁تاڪيد	-12.1196
▁sis	-12.1196
▁🤣	-12.1196
▁ذوال	-12.1197
▁نٽس	-12.1197
▁وصال	-12.1197
▁٧	-12.1198
▁شريف	-12.1199
▁Serv	-12.1201
▁چی	-12.1204
قر	-12.1212
▁Web	-12.1212
▁أبو	-12.1213
▁وائن	-12.1213
▁ڪائ	-12.1218
▁350	-12.122
▁جزي	-12.1221
▁ڀول	-12.1222
▁ڌائي	-12.1225
▁رفع	-12.1233
▁ber	-12.1234
▁وضع	-12.1238
▁سويه	-12.1253
▁کنم	-12.1266
▁ڻجي	-12.1267
▁io	-12.1267
▁ڳي	-12.1271
▁ڇٽي	-12.1271
▁الگ	-12.1272
▁Cr	-12.1274
▁ھه	-12.1274
70	-12.1276
عرف	-12.1278
▁ٿام	-12.1281
▁صيلي	-12.1281
▁ڍي	-12.1282
وط	-12.129
▁سڀن	-12.1293
▁يڊمي	-12.1296
▁خلف	-12.1298
▁ذك	-12.1307
▁Fo	-12.1309
▁72	-12.1318
▁ميڻ	-12.1321
▁فقد	-12.1323
▁قالي	-12.1324
▁هيات	-12.1325
▁يلان	-12.1326
ِل	-12.133
لق	-12.133
▁ER	-12.1333
▁ائوس	-12.1334
وء	-12.1339
▁ڻج	-12.1339
▁قو	-12.1341
▁ذاب	-12.1346
▁راھ	-12.135
▁سانگ	-12.1377
▁′′	-12.138
▁â	-12.138
▁ذكاء	-12.1381
▁غصب	-12.1381
▁(0)	-12.1381
▁dro	-12.1382
▁desi	-12.1383
▁you	-12.1384
▁dis	-12.1386
▁توري	-12.1389
▁پوند	-12.1389
▁جزء	-12.1389
▁bri	-12.1389
▁لنچ	-12.1389
▁قضيه	-12.1392
▁فاكر	-12.1394
▁ھڻ	-12.1396
▁aro	-12.1397
▁ركض	-12.14
-2	-12.1405
دوين	-12.1416
▁حريم	-12.1418
▁ويکي	-12.1418
▁جراي	-12.1424
▁روپي	-12.1424
▁نهاد	-12.1425
ڊا	-12.1426
▁اوري	-12.1429
▁ڪنڊي	-12.1431
▁71	-12.1434
▁جده	-12.1436
▁غب	-12.1438
▁1.5	-12.1438
يات	-12.1441
▁خش	-12.1443
▁ٽپي	-12.1444
▁روزا	-12.1448
▁حص	-12.1458
▁cho	-12.1459
▁رتون	-12.1465
▁ميلا	-12.1467
▁تجا	-12.1474
▁6:	-12.1495
mm	-12.1497
▁داريد	-12.15
▁سے	-12.1503
▁پٽو	-12.1503
▁اضاف	-12.1507
▁حف	-12.1509
▁لٿي	-12.1509
▁بادي	-12.151
ڌا	-12.1512
ڹ	-12.1517
عة	-12.1517
▁دخ	-12.1518
▁ضه	-12.1522
▁ارچ	-12.1524
▁جھي	-12.1525
▁سيپ	-12.153
▁ڪاپ	-12.154
رج	-12.1542
▁93	-12.1546
▁ريڊر	-12.1553
▁مبل	-12.1555
▁بيد	-12.1555
▁غيب	-12.1566
ु	-12.1569
▁◆	-12.1569
▁فرائض	-12.1569
▁ٽوٽڪا	-12.1569
▁آٿت	-12.157
▁فاضيه	-12.1571
▁^^"	-12.1575
زم	-12.1576
▁عشر	-12.158
▁إيه	-12.1582
▁ڍڪيل	-12.1584
طرس	-12.1585
▁ٺھر	-12.1586
▁xy	-12.1591
▁ڌاء	-12.1592
▁داب	-12.1594
ڍ	-12.1596
چی	-12.1598
▁ھيا	-12.1599
▁رحبا	-12.1604
▁Gam	-12.1604
وان	-12.1604
▁مايو	-12.1608
▁Bit	-12.1612
وتار	-12.1614
عد	-12.1615
▁جهن	-12.1624
▁det	-12.1625
▁جئ	-12.163
▁وصي	-12.1631
▁انڊي	-12.1631
▁Man	-12.1638
▁Bon	-12.1638
▁كار	-12.164
رف	-12.164
11	-12.1651
▁نازي	-12.1651
▁قات	-12.1651
▁اهڙ	-12.1653
▁78	-12.166
▁رويس	-12.1663
▁چنگ	-12.1665
▁فول	-12.1676
▁ايبل	-12.1683
▁ڪسي	-12.1684
▁لاد	-12.1686
فا	-12.1688
▁هرڻ	-12.1691
نود	-12.1697
لی	-12.171
▁پشت	-12.1716
▁ۅ	-12.1718
▁سٻ	-12.1723
▁لاپ	-12.1731
▁AC	-12.1733
▁تاد	-12.174
▁رهاڻ	-12.1742
▁هكر	-12.1753
▁نكر	-12.1753
▁[1]	-12.1761
▁two	-12.1761
▁قابض	-12.1761
▁פ	-12.1762
▁صنم	-12.1763
▁Aff	-12.1763
▁موه	-12.1764
▁vari	-12.1764
ئچ	-12.1765
▁رگز	-12.1766
▁Pla	-12.1766
▁يوڊ	-12.1769
▁پنبه	-12.1773
▁---	-12.1775
▁Gem	-12.1777
▁هڻن	-12.1779
▁ٺپ	-12.1781
▁آد	-12.1782
▁Pal	-12.1783
▁2.0	-12.1786
▁ڀور	-12.1788
▁قبا	-12.1789
▁مپن	-12.1793
▁ڪالا	-12.1794
▁جلي	-12.1795
▁ڊنر	-12.1801
▁إلا	-12.1802
▁ڪوري	-12.1806
▁serv	-12.1806
ٿر	-12.1807
وله	-12.1808
▁دراڪ	-12.1808
قي	-12.1809
▁فك	-12.1815
▁ننا	-12.1818
تك	-12.1819
▁Tok	-12.1825
va	-12.1827
زو	-12.1829
وڊڪ	-12.1829
دڙ	-12.1831
▁Ac	-12.1834
▁مبي	-12.1838
ونا	-12.184
▁8-	-12.1841
▁مرو	-12.1845
▁ڏڻ	-12.1845
▁ابوي	-12.185
▁منم	-12.1854
▁موسي	-12.1856
مون	-12.186
▁ڊسٽر	-12.1862
قد	-12.1866
▁ڀوت	-12.1867
▁رگا	-12.187
يلنس	-12.1878
وفيق	-12.1884
▁شهي	-12.1895
▁شتم	-12.1897
▁پڙهن	-12.19
▁جهڳ	-12.1905
▁دوج	-12.1913
▁67	-12.1916
▁حاق	-12.1924
▁نيات	-12.1931
▁فراد	-12.1934
▁مسال	-12.1935
شك	-12.1936
▁00	-12.1939
▁ونئ	-12.1944
ۍ	-12.1945
▁ليلا	-12.1953
صح	-12.1953
▁تبار	-12.1955
▁قيصر	-12.1957
▁وراثت	-12.1957
▁دمت	-12.1958
هى	-12.1959
▁ٺھيل	-12.1962
كرر	-12.1962
▁ڌڙ	-12.1963
▁شيلف	-12.1966
▁ظرف	-12.197
▁طمع	-12.1971
▁ھري	-12.1971
ema	-12.1973
▁ٿم	-12.1973
▁اوپري	-12.1975
▁زما	-12.1977
بع	-12.1984
▁پست	-12.1986
▁تركي	-12.1987
▁tte	-12.1988
▁gin	-12.1998
▁زلزلو	-12.2
ری	-12.2001
کر	-12.2001
▁ھنج	-12.2002
▁وچن	-12.2005
▁ڙهن	-12.2011
▁فاق	-12.2012
طر	-12.2014
▁By	-12.2019
▁Ros	-12.2019
▁پويا	-12.2025
▁colo	-12.2027
قاط	-12.203
▁چپس	-12.2037
▁لٿو	-12.204
▁ڊرو	-12.2042
▁Phot	-12.2042
▁سكي	-12.2044
▁لة	-12.2045
▁On	-12.2045
▁She	-12.2049
جل	-12.2058
▁ڇاتي	-12.2059
یم	-12.206
▁PC	-12.2066
▁لہ	-12.2069
يندڙ	-12.2072
▁تبع	-12.2077
كرم	-12.2077
▁لامت	-12.2079
▁Sho	-12.208
▁تفر	-12.2086
مين	-12.2086
▁ڪمان	-12.21
▁لڱ	-12.2107
بڪ	-12.2113
▁Rec	-12.2115
▁انسٽ	-12.2117
▁ral	-12.2134
▁1,	-12.2154
ग	-12.2157
▁شوڪت	-12.2158
▁تقييم	-12.2158
▁حزب	-12.2158
وغ	-12.2158
▁More	-12.2159
▁مطرح	-12.216
▁Ph	-12.216
▁آح	-12.2161
▁stri	-12.2161
▁فشل	-12.2163
ڱ	-12.2164
▁سنگيت	-12.2165
▁گھوٽ	-12.2166
▁وجيه	-12.2167
▁ڊاک	-12.2171
▁نقاش	-12.2172
▁ڪپور	-12.2173
▁فيڪٽ	-12.2174
یل	-12.2174
▁نتبه	-12.2174
.0	-12.2176
▁ندري	-12.2177
▁انڌا	-12.2177
▁زڪوا	-12.2179
▁وريت	-12.2189
▁ريخ	-12.2193
▁ويٽر	-12.2194
▁ڏيل	-12.2195
روس	-12.2195
▁boa	-12.2196
▁سأ	-12.2196
▁رضه	-12.2198
پلا	-12.2199
▁فاقي	-12.2207
▁توڻي	-12.2212
بن	-12.2212
▁صند	-12.2215
▁بسم	-12.2215
زف	-12.2215
▁Wa	-12.2217
▁حجت	-12.2217
▁MO	-12.223
▁بع	-12.2231
▁MI	-12.2234
▁پات	-12.2239
▁Be	-12.224
▁يوڪر	-12.2245
▁واجد	-12.2247
فتكر	-12.2247
▁اض	-12.2249
▁لز	-12.2262
▁قان	-12.2262
▁Medi	-12.2266
▁ڪنز	-12.2272
▁وچو	-12.2273
ذاف	-12.228
▁سڀا	-12.2283
ائيڊ	-12.2293
▁منڊ	-12.2294
ْ	-12.2316
فاق	-12.2318
ڊڊ	-12.232
▁ايما	-12.2321
▁خاصي	-12.2321
▁قدا	-12.2321
▁ڪاٽ	-12.2323
حط	-12.2327
باع	-12.233
▁pit	-12.2336
▁چالا	-12.2339
▁Wor	-12.2345
▁ڊار	-12.2346
لھ	-12.2349
كم	-12.2357
كة	-12.2358
▁سوسو	-12.2359
▁توپ	-12.2361
▁ېډيا	-12.2361
▁زيا	-12.2365
▁تلخ	-12.2368
▁ney	-12.237
▁نعيم	-12.2374
▁عرش	-12.2376
▁عفر	-12.2385
▁خيار	-12.2388
▁صوت	-12.239
▁نظارت	-12.2394
▁اوڏ	-12.2396
▁نووا	-12.2397
▁دانا	-12.2397
▁أني	-12.2398
▁فريڪ	-12.2399
▁May	-12.2401
▁شکل	-12.2404
▁جھٽڪ	-12.2417
▁بگم	-12.2423
ڈ	-12.2429
▁VI	-12.2429
▁ڪرش	-12.2434
▁رمن	-12.244
▁ملند	-12.2441
وح	-12.2449
▁mak	-12.2449
▁گُل	-12.2454
▁بوب	-12.2455
▁يلنگ	-12.2459
▁اليڪ	-12.2463
▁سهڻ	-12.2464
▁ٻہ	-12.2473
▁وهڻ	-12.2473
▁سهر	-12.2473
▁Fa	-12.2487
DA	-12.2496
▁عبر	-12.2497
▁شيع	-12.2502
▁کنه	-12.2502
▁هٽل	-12.2505
▁ul	-12.2508
▁وڪيم	-12.2511
▁يچي	-12.2513
▁مائڪ	-12.2515
▁مئو	-12.2518
▁حرك	-12.2533
▁فوم	-12.2537
▁فرج	-12.2542
مثيل	-12.2542
▁طاري	-12.2543
▁آق	-12.2545
نڌير	-12.2545
اط	-12.2552
▁اية	-12.2554
وتم	-12.2558
em	-12.2558
▁عتي	-12.2559
AT	-12.2561
▁ڪنڀار	-12.257
▁ट	-12.257
▁مخفف	-12.257
▁Site	-12.2571
▁وضيح	-12.2571
▁كسر	-12.2576
▁نساء	-12.2577
▁جهنڊو	-12.2577
▁ۆ	-12.2578
▁Nu	-12.258
▁يوكن	-12.2582
▁فقر	-12.2584
▁700	-12.2585
▁نگالي	-12.2585
مز	-12.2586
▁غصي	-12.2587
▁ذرات	-12.2591
▁ائونٽ	-12.2593
▁يفر	-12.2597
▁وفاء	-12.2598
▁انوس	-12.2603
▁ٽريش	-12.261
▁ڪلم	-12.2616
▁jo	-12.2626
▁نذر	-12.2631
▁أو	-12.2632
do	-12.2636
▁کاڄ	-12.264
▁وريل	-12.264
UR	-12.2641
مس	-12.2644
▁Bea	-12.2645
▁يميا	-12.2647
▁ڪرد	-12.2648
▁قصص	-12.2652
كو	-12.2652
▁لبن	-12.2654
▁چوپ	-12.2655
▁غري	-12.2659
▁بدال	-12.266
ضت	-12.2667
نڊي	-12.2669
▁هيڪس	-12.2671
▁عمان	-12.2675
▁فط	-12.2682
▁cy	-12.2683
▁ياپي	-12.2686
نګ	-12.269
▁فظ	-12.269
▁Sy	-12.2702
▁سمير	-12.2705
▁hy	-12.2715
شان	-12.2717
▁اريم	-12.2718
▁ؤن	-12.272
▁war	-12.2723
▁ثا	-12.2725
▁واڳو	-12.2728
ڌندڙ	-12.273
▁پڳ	-12.2735
▁لكي	-12.2741
▁ڀان	-12.2741
▁مچي	-12.2743
▁زائر	-12.2743
▁=)	-12.2744
25	-12.2747
▁Ru	-12.2749
▁ڪشم	-12.2752
▁Ev	-12.2754
څ	-12.2758
▁82	-12.2763
▁مَن	-12.2763
▁At	-12.2775
ڦ	-12.278
▁بيطس	-12.2783
▁mult	-12.2783
▁😁	-12.2783
▁رخصت	-12.2784
▁ڑھ	-12.2785
▁è	-12.2785
▁ڪهي	-12.2788
ٍ	-12.2789
▁ئلو	-12.2791
▁پيما	-12.2793
▁تحقیق	-12.2796
▁تکو	-12.2796
▁نحو	-12.2797
▁ومب	-12.2797
▁شطر	-12.28
حت	-12.2801
▁ارني	-12.2803
سل	-12.2804
▁wag	-12.2808
▁بة	-12.2808
▁زوم	-12.2809
▁مغز	-12.2818
▁77	-12.2819
▁سولف	-12.2824
▁Ab	-12.2827
▁محا	-12.2829
▁ea	-12.283
▁روپين	-12.2838
▁سمون	-12.2841
دم	-12.2842
▁port	-12.2842
▁set	-12.2847
▁ونين	-12.285
▁ڊوم	-12.285
▁قصر	-12.2851
▁end	-12.2852
▁حک	-12.2854
▁تنب	-12.2862
▁راڳي	-12.2863
▁ساف	-12.2863
▁110	-12.2867
▁ڪآن	-12.2872
▁ماڙ	-12.2881
▁#1	-12.2886
▁يانت	-12.2888
▁Up	-12.289
RE	-12.2893
كسر	-12.2899
▁ڪوڪو	-12.2915
ڪرز	-12.2915
▁typ	-12.2919
نق	-12.2919
▁Not	-12.292
▁gre	-12.2921
ھڻ	-12.2926
▁ينين	-12.2928
▁چوب	-12.2928
وات	-12.2943
▁zo	-12.2945
▁منى	-12.2955
▁ڏيا	-12.2969
▁لط	-12.2971
▁اڙو	-12.2976
▁لغو	-12.2977
▁IS	-12.2978
فق	-12.298
▁ٺهڪ	-12.2981
▁ڪوال	-12.2982
▁سيري	-12.2983
▁هٻڪ	-12.2997
▁گيج	-12.2999
▁فاضل	-12.3
▁><	-12.3
▁خايف	-12.3001
▁☺	-12.3001
▁love	-12.3001
▁need	-12.3001
▁گيلان	-12.3001
▁Post	-12.3002
▁ھڻڻ	-12.3003
▁Won	-12.3004
رات	-12.3004
▁گروھ	-12.3004
▁٫	-12.3006
▁pm	-12.3008
▁zy	-12.301
▁بروک	-12.3011
▁ضغط	-12.3011
▁ڛ	-12.3013
▁ڊراپ	-12.3014
▁ڀاڄ	-12.3014
▁81	-12.3014
▁صرت	-12.3018
▁عقد	-12.3021
▁miss	-12.3022
▁pay	-12.3035
▁bel	-12.3039
▁غا	-12.304
▁نسور	-12.304
▁ررو	-12.304
nu	-12.3041
ڑ	-12.3042
▁برس	-12.3045
▁3.1	-12.3048
▁بيچ	-12.3056
▁ڪيئ	-12.3062
▁افته	-12.3064
▁تحس	-12.3065
▁نچڻ	-12.3073
▁Em	-12.3073
▁دهل	-12.3073
▁رزن	-12.3081
▁نجو	-12.3089
▁لمان	-12.3105
▁ٽتو	-12.3112
وود	-12.3114
اديء	-12.3115
▁61	-12.3118
▁ult	-12.3122
فف	-12.3123
▁لاک	-12.313
▁ڊاٽ	-12.3135
▁راجل	-12.3135
اير	-12.3138
▁97	-12.3149
لر	-12.315
▁عرس	-12.3152
▁دبي	-12.3155
▁شکر	-12.3158
gg	-12.3158
▁ويڳ	-12.3161
حك	-12.3166
ضي	-12.317
زع	-12.317
نڀير	-12.3176
فو	-12.3179
▁اظهر	-12.318
▁پاتي	-12.3188
▁قالو	-12.3202
▁66	-12.3203
;	-12.3212
▁ڊس	-12.3215
▁لڇ	-12.3215
▁انڊس	-12.3218
جى	-12.3219
ी	-12.3222
▁اوون	-12.3223
▁وراك	-12.3223
▁يينوس	-12.3224
آج	-12.3224
▁هيفاء	-12.3225
▁حشر	-12.3226
▁عاصم	-12.3226
▁ءٌ	-12.3226
▁Cla	-12.3227
▁perf	-12.3227
▁ظفر	-12.3229
▁ڍڪڻ	-12.323
▁boo	-12.3231
ومي	-12.3234
▁ome	-12.3237
▁چوٽ	-12.3238
▁دلع	-12.3238
▁اطر	-12.324
▁شكست	-12.3241
▁رتاح	-12.3241
▁89	-12.3243
▁160	-12.3244
▁لينک	-12.3247
▁ليلى	-12.3248
▁ئِ	-12.3251
▁تخصصي	-12.3256
▁شوية	-12.326
▁عداد	-12.3264
یر	-12.3266
▁اشك	-12.3267
▁mir	-12.3268
▁wha	-12.327
ڙا	-12.3271
▁تلوي	-12.3272
▁ڊني	-12.3275
▁طفل	-12.3278
▁ٽولو	-12.3281
▁افتد	-12.3281
▁7-	-12.3286
▁رينڊ	-12.3286
▁ريک	-12.3288
▁ائرن	-12.329
▁روني	-12.329
▁res	-12.3291
▁نيچ	-12.3293
▁em	-12.33
گام	-12.3301
▁تاپ	-12.3304
▁اهيم	-12.3308
▁گني	-12.3308
▁shor	-12.331
▁پنو	-12.3314
▁ڪوس	-12.3322
یش	-12.3324
▁لكل	-12.333
نة	-12.3334
▁acc	-12.3341
▁وړ	-12.3348
اڪا	-12.335
▁ڊڄو	-12.3354
▁سوڊا	-12.3358
▁عمو	-12.3374
زید	-12.3376
▁ينڊي	-12.3379
▁اوتر	-12.3381
▁ناتا	-12.3381
▁گنه	-12.3382
▁جولي	-12.3385
▁ينڊو	-12.3385
▁گنگ	-12.3388
▁آرا	-12.339
▁جئي	-12.34
▁ابه	-12.3402
▁اوله	-12.3402
شم	-12.3402
▁نغم	-12.3402
▁لري	-12.3403
▁Et	-12.3405
▁هاتي	-12.3405
▁ڜ	-12.3405
▁وينه	-12.3405
گس	-12.3406
▁ورسل	-12.3406
▁ٽاٽ	-12.3416
15	-12.3419
▁ڪيٽي	-12.3426
box	-12.344
▁صنع	-12.344
▁پگ	-12.3441
▁حفيظ	-12.3449
▁Spot	-12.3449
▁لنڈر	-12.3449
▁Sep	-12.3451
▁ٗ	-12.3451
▁رنگا	-12.3453
▁سنوات	-12.3454
▁لءِ	-12.3454
▁ہیں	-12.3455
ڪڻ	-12.3457
▁ذلت	-12.346
▁اونا	-12.3462
▁par	-12.3466
▁ڃري	-12.3472
18	-12.3485
صرت	-12.3486
▁سنك	-12.3487
▁آمري	-12.3492
▁ربط	-12.3493
▁تعزي	-12.3499
▁نهاي	-12.3505
▁ڪنڀر	-12.3511
ur	-12.3514
▁وڻيج	-12.3514
▁گڻ	-12.3514
▁وريٽ	-12.352
▁جرح	-12.3532
▁9-	-12.3533
▁دارند	-12.3533
▁68	-12.3535
▁لص	-12.3537
▁ڊٽ	-12.3538
▁Sam	-12.355
55	-12.3563
▁ٽوڪن	-12.3563
▁فروض	-12.3566
▁ايئ	-12.3567
▁Lea	-12.357
▁زده	-12.357
َر	-12.3573
انڊ	-12.3578
▁ons	-12.3584
▁تئين	-12.3585
وگ	-12.3593
▁نئر	-12.3606
SS	-12.3613
▁نسى	-12.3613
▁It	-12.3614
▁موب	-12.3614
▁تره	-12.3614
▁ڇنڊ	-12.3617
▁IV	-12.362
▁هاني	-12.3621
▁هولو	-12.3624
ائت	-12.3627
▁نرمل	-12.3633
▁LC	-12.3633
▁رال	-12.3639
▁rep	-12.3647
▁دٻو	-12.3654
▁hu	-12.3664
▁هجر	-12.367
ڀا	-12.3671
نڀ	-12.3672
▁اسون	-12.368
▁̈	-12.3682
▁😍	-12.3683
▁البا	-12.3683
▁Va	-12.3684
▁تبريز	-12.3684
▁TV	-12.3684
▁عرو	-12.3685
▁Bri	-12.3687
▁حطيت	-12.3688
▁طنز	-12.3688
▁تجلي	-12.369
▁لغز	-12.3691
▁يرٽ	-12.3692
ba	-12.37
▁يلڊ	-12.3701
▁هضم	-12.3702
▁راڊڪ	-12.3704
▁سپري	-12.3706
ٻه	-12.3707
▁اتف	-12.3714
▁gu	-12.3715
لوٽو	-12.3719
▁اڻيون	-12.373
▁ستگ	-12.374
▁مڱڻ	-12.374
▁ڊاڪ	-12.3741
▁حاس	-12.3742
▁5)	-12.3745
▁ron	-12.3749
ئی	-12.3749
▁مولي	-12.3756
▁mar	-12.3759
CL	-12.3759
▁صرار	-12.3761
▁ارث	-12.3761
بد	-12.377
▁كاري	-12.3779
▁يجه	-12.3784
▁ضاي	-12.3785
▁جهنگ	-12.379
اله	-12.3793
▁پرچ	-12.3793
▁حقا	-12.3797
▁شرك	-12.3802
▁اكي	-12.3802
جمد	-12.3805
▁داء	-12.3806
▁ناگ	-12.3818
▁گپ	-12.3819
▁ڊاه	-12.3835
▁قلي	-12.3836
▁حسا	-12.3839
▁چيئر	-12.384
▁هف	-12.3847
▁اريش	-12.385
▁ڳڙ	-12.3854
وپرو	-12.3855
▁Uni	-12.3856
▁dri	-12.3856
▁والٽ	-12.3857
▁ابوه	-12.3857
▁Op	-12.3859
دق	-12.3859
▁sen	-12.386
▁آڏ	-12.386
VA	-12.3864
▁ml	-12.3867
▁Ali	-12.3874
▁ناه	-12.3877
▁91	-12.3885
▁11.	-12.3886
▁روبي	-12.3889
▁ارٿ	-12.3904
آس	-12.3914
▁ڪولي	-12.3916
▁ÔÔ	-12.392
▁ؑ	-12.392
▁نذير	-12.392
وڳ	-12.3921
▁++	-12.3921
▁ضامن	-12.3921
▁وشيء	-12.3921
▁EN	-12.3929
▁اليف	-12.393
▁nni	-12.3932
▁تنوير	-12.3932
▁ودک	-12.3933
▁څه	-12.3934
CD	-12.3934
▁ينجهر	-12.3935
▁ية	-12.3937
▁Wat	-12.3939
▁ننگا	-12.3944
▁Free	-12.3946
▁بولٽ	-12.3948
▁بقو	-12.3959
ؤن	-12.396
▁رضوا	-12.3962
▁Rep	-12.3965
ايب	-12.3966
▁ٽيئي	-12.3967
▁سٽري	-12.3969
▁موجو	-12.3979
▁جله	-12.3979
▁ھجن	-12.3988
▁افلا	-12.3989
▁خوت	-12.3991
▁يئرن	-12.3991
▁Gen	-12.3994
▁نمول	-12.3996
sy	-12.3997
▁ڄٽ	-12.3997
▁ڇڻ	-12.4002
▁دڙو	-12.4007
▁نے	-12.4008
▁تائي	-12.4012
▁ينما	-12.4014
▁فدا	-12.4019
▁fac	-12.4019
ES	-12.4024
▁لڳائ	-12.4029
▁flu	-12.403
ئٽر	-12.4035
▁يلنج	-12.4037
▁ڌوڪ	-12.4037
▁سميه	-12.4038
▁je	-12.4039
▁تفو	-12.4045
▁سنگم	-12.4047
کڻ	-12.4049
▁يانڪ	-12.4058
▁پدر	-12.4062
▁08	-12.4069
▁ايڪي	-12.407
ايل	-12.4072
▁زح	-12.4083
قل	-12.4084
▁فد	-12.4086
مور	-12.4086
-3	-12.4087
ge	-12.4091
ٽنٽ	-12.4092
جز	-12.4097
▁ترد	-12.4097
▁ئرن	-12.4101
▁ag	-12.4101
▁زام	-12.4104
▁ڪلين	-12.4106
▁اتش	-12.4111
▁lea	-12.4121
TA	-12.4126
▁del	-12.4129
▁زيدي	-12.4136
▁های	-12.4147
زن	-12.4153
▁رأي	-12.4157
▁ملح	-12.4158
▁فطر	-12.4159
▁ڏونگر	-12.4164
▁Fru	-12.4164
▁تصويب	-12.4165
▁mark	-12.4165
▁Gro	-12.4167
▁لئنڊ	-12.4167
▁ايري	-12.417
▁مداف	-12.417
▁شيئ	-12.4172
▁ں	-12.4173
▁ڌيا	-12.4173
▁83	-12.4175
▁PM	-12.4175
▁صدك	-12.4176
▁وئنگ	-12.4177
▁Use	-12.4178
▁3.0	-12.4179
▁ڼ	-12.4183
▁ونصل	-12.419
▁روپيه	-12.4192
▁ستم	-12.4193
▁ښتو	-12.4195
▁ڏڪڻ	-12.4195
▁هنگري	-12.4196
▁ڪيٻ	-12.4198
▁rec	-12.4198
ونه	-12.4213
▁سادس	-12.4214
زين	-12.4215
▁نوني	-12.4216
▁gla	-12.4219
.7	-12.422
▁نوڊ	-12.4224
ووف	-12.4227
▁Cri	-12.4228
ڊنٽ	-12.4234
▁گود	-12.424
▁رآح	-12.4244
▁ينال	-12.4247
▁أول	-12.4248
وئن	-12.4252
▁رخا	-12.4253
▁لاجي	-12.4254
▁سڃ	-12.4255
▁لتي	-12.4257
▁كنا	-12.4258
▁مطر	-12.4261
▁بيلي	-12.4263
▁ستطي	-12.4263
▁لوٽ	-12.4268
▁پاٽ	-12.427
▁وء	-12.4272
رد	-12.4273
▁منذ	-12.4273
▁گونگ	-12.4276
CE	-12.4279
▁تیر	-12.4279
زيء	-12.4287
▁انيال	-12.4299
▁جهوپ	-12.43
▁بيج	-12.4301
▁سونھ	-12.4302
هين	-12.4306
▁ورم	-12.4309
▁رفي	-12.4309
▁قرر	-12.4311
▁25.	-12.4319
▁tal	-12.4323
جار	-12.4331
▁يأ	-12.4333
▁ڊيزل	-12.4337
▁رط	-12.4343
▁باڪ	-12.435
▁ٽرپ	-12.435
▁گهو	-12.4352
▁vid	-12.4357
▁ذره	-12.4357
▁آئن	-12.4359
▁lli	-12.4362
▁__	-12.4366
▁ذيل	-12.4379
▁cli	-12.438
▁ڪشي	-12.4382
▁Dis	-12.4383
▁هديل	-12.4383
▁وڪام	-12.4385
▁IM	-12.439
▁fr	-12.4393
۳	-12.4402
ٻڙ	-12.4403
▁CR	-12.4403
▁ڪاف	-12.4403
▁CH	-12.4404
ۆ	-12.4404
▁شاب	-12.4407
▁قريت	-12.441
انة	-12.4412
ٺو	-12.4413
▁محو	-12.4413
▁حذاء	-12.4415
▁ادگار	-12.4415
▁دخول	-12.4415
اكر	-12.4421
▁ريٽنگ	-12.4421
▁كاتب	-12.4422
شة	-12.4422
▁منبع	-12.4423
▁ڪينڪي	-12.4424
▁ڹ	-12.4427
▁شمال	-12.4428
▁AI	-12.443
▁fir	-12.4432
▁هڏي	-12.4437
▁لاھي	-12.444
▁ڏيج	-12.444
▁ڀڃڻ	-12.4441
▁كتر	-12.4444
▁آنر	-12.4447
پڻ	-12.4448
▁جنبش	-12.4449
WTO	-12.4453
قع	-12.4456
زل	-12.4463
▁ڪامي	-12.4464
▁140	-12.4464
▁اڻٽر	-12.4464
باط	-12.4465
▁ظل	-12.4469
بِ	-12.447
▁هاذا	-12.4471
▁Cli	-12.4473
▁free	-12.4475
▁ائيٽر	-12.4477
ِت	-12.4489
اشت	-12.4491
▁كام	-12.4493
▁گاني	-12.4494
شق	-12.4495
▁ڪنس	-12.4496
▁يعن	-12.45
▁ندير	-12.4502
ً	-12.453
▁ذكر	-12.453
▁شبهه	-12.4531
▁سيج	-12.4534
▁ڊهي	-12.4542
▁پڪا	-12.4549
▁وينج	-12.4552
▁مدين	-12.4554
▁fore	-12.4556
ڪوس	-12.4561
▁صوبا	-12.4569
▁ڏيھ	-12.457
▁يرد	-12.4571
MO	-12.4573
ازق	-12.4593
▁واپ	-12.4599
▁mac	-12.4602
▁pol	-12.4602
ٺا	-12.4622
▁ڌارا	-12.4622
▁don	-12.4626
▁يرم	-12.4629
ss	-12.4632
▁څ	-12.4633
ı	-12.4634
▁cre	-12.4643
▁01	-12.4647
▁ئيند	-12.4649
▁ڄڻڪ	-12.4649
▁لپي	-12.465
▁منٿ	-12.4654
▁ys	-12.4655
▁medi	-12.4657
&	-12.466
▁اوڪي	-12.4661
▁94	-12.4662
▁bin	-12.4663
ڳڙ	-12.4665
▁كرم	-12.4666
▁ٓ	-12.4673
▁تنظ	-12.4674
▁Tri	-12.4675
▁مرڪوز	-12.4676
▁Wri	-12.4676
▁اونڌو	-12.4679
▁شات	-12.4682
▁اليو	-12.4682
▁رضوي	-12.4682
تشر	-12.4684
▁خبله	-12.4685
▁ٺري	-12.4686
▁bli	-12.4687
▁سوجه	-12.4688
▁داڻو	-12.4688
▁مربع	-12.4689
▁مخفي	-12.4689
▁مدينه	-12.469
▁ٻير	-12.4691
▁foll	-12.4692
▁ds	-12.4692
▁بطي	-12.4696
▁ليڪٽ	-12.4697
▁تحي	-12.4697
▁وهاب	-12.47
▁اريس	-12.471
▁Hum	-12.4711
▁پنل	-12.4713
▁stem	-12.4713
▁AS	-12.472
▁زيك	-12.4727
▁بارک	-12.4727
▁ختص	-12.4727
▁ٺھ	-12.4731
▁پنڻ	-12.4736
ارت	-12.4737
▁Fu	-12.4739
▁ڪلمي	-12.4741
▁ناد	-12.4744
▁أنق	-12.4749
▁نوڪ	-12.4749
وپ	-12.475
▁GA	-12.4751
▁ڀوري	-12.4751
اگ	-12.4752
آع	-12.4753
وشه	-12.4753
▁ڳلن	-12.4754
▁Cu	-12.4754
▁يې	-12.4757
زعل	-12.476
▁حكي	-12.4767
▁جرد	-12.477
▁ستين	-12.4771
▁gne	-12.4772
▁هئم	-12.4772
▁adj	-12.4774
▁كب	-12.4777
▁Ani	-12.4778
▁جهٽ	-12.4788
▁لاکي	-12.4789
لوط	-12.4791
▁هبي	-12.4791
▁Am	-12.4792
▁مسح	-12.4796
▁فقيه	-12.4805
▁Part	-12.4805
أن	-12.4806
▁توڏ	-12.481
▁دايم	-12.4815
▁ولت	-12.4825
ِٽ	-12.4826
▁أج	-12.4828
▁74	-12.4829
ۑ	-12.483
انس	-12.4834
▁bar	-12.4836
~	-12.4837
▁يٽيڪ	-12.4838
▁اقوا	-12.4843
مم	-12.4845
▁ڍر	-12.4852
▁ٻو	-12.4853
▁وايو	-12.4857
▁SP	-12.4857
it	-12.4858
حم	-12.4861
▁Len	-12.4867
▁ڪُن	-12.4869
ښ	-12.4875
▁نقدر	-12.4879
▁صا	-12.4888
▁ob	-12.4889
▁بگي	-12.489
راک	-12.4891
▁sea	-12.4896
آد	-12.49
be	-12.4904
▁طح	-12.4908
▁ُج	-12.4912
▁میں	-12.4913
▁vib	-12.4914
▁ٻٻ	-12.4916
فور	-12.4921
▁mun	-12.4922
۾	-12.4923
▁بوند	-12.4924
▁هيئي	-12.4925
▁خطب	-12.493
उ	-12.4933
▁^_*	-12.4933
▁Live	-12.4934
▁ويسي	-12.4934
▁اڀيان	-12.4935
▁افكار	-12.4935
▁DH	-12.4936
ں	-12.4937
▁اضح	-12.4937
).	-12.4938
▁Auto	-12.4938
▁Bro	-12.4938
▁حصص	-12.4939
▁365	-12.4939
▁صادر	-12.4942
ٽٽ	-12.4943
▁بله	-12.4944
▁ٽانڊ	-12.4944
▁حدود	-12.495
▁اموش	-12.4954
▁يهڙ	-12.4954
▁وزٽ	-12.4955
▁Nov	-12.4958
▁ناڪا	-12.4959
▁76	-12.496
▁'_	-12.4963
وئ	-12.4963
▁شنبه	-12.4963
اشر	-12.4966
▁پہل	-12.4966
▁بكر	-12.4967
▁اٿري	-12.4969
▁فص	-12.4974
سمی	-12.4975
الو	-12.4976
▁اعظ	-12.4978
▁مارت	-12.4987
0%	-12.4991
▁ردار	-12.4992
▁شوٽ	-12.4996
▁ڄنگ	-12.5001
▁صحيف	-12.5002
▁رحله	-12.5006
▁نسري	-12.5007
ark	-12.5018
▁کړ	-12.502
▁Ta	-12.502
▁TO	-12.5021
▁(3	-12.5025
حس	-12.5031
ell	-12.5036
آق	-12.5037
يشور	-12.5037
▁CA	-12.5037
orn	-12.5038
ٿو	-12.5043
▁عاف	-12.5052
ائٹ	-12.5054
▁زيز	-12.5055
▁صلاحي	-12.5064
▁ارسا	-12.5066
▁زِ	-12.507
▁نيور	-12.5075
▁دوک	-12.5075
▁79	-12.5078
▁1/	-12.5084
▁أيه	-12.5084
▁تئ	-12.5086
▁يامي	-12.5088
▁حدي	-12.5093
▁اڳو	-12.5099
19	-12.5101
▁رڇ	-12.5107
زر	-12.5115
22	-12.5116
تش	-12.5119
▁هراس	-12.5126
▁يالا	-12.5128
▁mal	-12.5129
وڌ	-12.5132
▁PA	-12.5138
▁آنت	-12.5151
▁قيا	-12.5153
▁nno	-12.5155
۴	-12.5156
▁سڪري	-12.5156
▁ورٿ	-12.5162
ڀات	-12.5164
▁چمڙ	-12.517
▁05	-12.5175
▁رآن	-12.5178
▁ser	-12.5179
IA	-12.5182
سب	-12.5184
ريح	-12.519
[	-12.5191
٢	-12.5193
▁مرز	-12.5194
ياڻو	-12.5195
▁اڪار	-12.5196
GB	-12.5196
▁ملز	-12.52
▁راوي	-12.5203
▁ज	-12.5204
▁★	-12.5205
▁♫	-12.5205
▁whit	-12.5205
▁Gala	-12.5205
▁ICO	-12.5208
▁stre	-12.521
▁ائيء	-12.521
AN	-12.5211
▁Fe	-12.5214
▁هاشم	-12.5222
▁دھ	-12.5225
▁سميع	-12.5227
▁نيسان	-12.5229
▁يږ	-12.5229
▁ٻني	-12.5231
▁صو	-12.5232
▁دلوع	-12.5238
▁عضوي	-12.5238
▁قارئ	-12.5241
▁غرق	-12.5243
▁گڊ	-12.5244
DS	-12.5247
▁cat	-12.5248
▁آرڊ	-12.525
▁شکن	-12.5254
▁ثقيل	-12.5255
▁لاحي	-12.5259
▁Is	-12.5262
ذي	-12.5263
▁اڳيو	-12.527
▁ڪيڊ	-12.5275
37	-12.5276
▁اشر	-12.5277
▁ڇاڻ	-12.5283
▁Pr	-12.5284
وپرا	-12.5284
ئم	-12.5289
▁gon	-12.529
▁ٽاري	-12.5293
يں	-12.5296
▁RO	-12.5299
▁ڻائ	-12.53
▁روند	-12.5304
▁Ang	-12.5305
▁ڊال	-12.5307
▁ڌاي	-12.5311
▁نسوا	-12.5322
▁تز	-12.5322
▁Pe	-12.5329
▁بوك	-12.5335
▁يسڪ	-12.5336
▁19.	-12.5338
ask	-12.5339
چل	-12.5339
▁وسل	-12.534
gu	-12.5345
▁هولي	-12.5347
▁ريچ	-12.5348
▁ڏيکا	-12.5348
▁ايشي	-12.535
▁الين	-12.5352
رم	-12.5355
▁اينگ	-12.5355
▁راسم	-12.5356
▁عده	-12.5356
▁يترو	-12.5361
▁صندل	-12.5365
▁03	-12.5367
IT	-12.537
▁ڊيپ	-12.5372
▁ise	-12.5378
▁نياپ	-12.5381
اکش	-12.5383
▁too	-12.5383
▁اے	-12.5385
▁حا	-12.5386
ite	-12.5388
dwi	-12.5394
▁وثر	-12.5394
▁MA	-12.5396
▁گٽ	-12.5405
▁سڻڀ	-12.5407
▁ko	-12.5409
▁87	-12.5415
▁دينا	-12.5417
▁loc	-12.5418
▁ھٽ	-12.5418
▁حمز	-12.5422
▁Met	-12.5424
▁قوا	-12.5427
▁يلول	-12.5433
يمة	-12.5436
▁73	-12.5437
شا	-12.5443
▁جذ	-12.5444
▁قريش	-12.5452
▁لست	-12.5457
▁دث	-12.5459
▁متا	-12.5464
▁ڌڪي	-12.5465
▁اسيا	-12.5465
▁تعد	-12.5471
▁سعي	-12.5472
پڙ	-12.5472
▁گريز	-12.5481
▁نگزيب	-12.5482
▁FSX	-12.5482
▁छ	-12.5482
▁تفكير	-12.5482
▁رقابت	-12.5482
▁تهديد	-12.5482
▁سلوڪي	-12.5482
▁ब	-12.5483
▁stro	-12.5485
داء	-12.5485
▁سبوع	-12.5486
▁اونچا	-12.5486
▁مرمر	-12.5489
تڙ	-12.549
▁ڇوٽ	-12.549
▁vel	-12.5491
▁أحد	-12.5492
▁ھِن	-12.5493
▁نيلام	-12.5495
▁لڀ	-12.5497
▁ڏُک	-12.5499
اؤ	-12.5499
▁رزان	-12.55
▁é	-12.5503
▁فضيح	-12.5509
بش	-12.5509
▁مساء	-12.5511
▁مشت	-12.5512
▁سبک	-12.5515
▁دوئي	-12.5516
▁يکان	-12.5516
▁وبو	-12.5523
▁يكي	-12.5525
بڻ	-12.5529
ینڈ	-12.5529
▁ثنا	-12.553
▁قريشي	-12.553
▁step	-12.553
▁موږ	-12.5534
▁رزاق	-12.5535
گھ	-12.5537
▁عائل	-12.554
MS	-12.5541
▁matt	-12.5551
▁بيرو	-12.556
▁امع	-12.5561
▁رديت	-12.5561
▁لوما	-12.5564
▁ڌنڌ	-12.5569
شف	-12.5572
طق	-12.5572
▁ST	-12.5574
▁hyp	-12.5577
▁Star	-12.5577
نڌ	-12.5579
16	-12.5582
▁رڏ	-12.5583
▁web	-12.5588
▁انيون	-12.5588
▁ورسٽ	-12.5591
▁عس	-12.5591
▁روچ	-12.5596
▁ليسا	-12.5599
▁whi	-12.56
▁ئنس	-12.5601
▁دز	-12.5606
▁گهاڻ	-12.5608
▁02	-12.5614
▁جئر	-12.5622
▁nte	-12.5626
▁دی	-12.5627
RP	-12.5628
▁حقك	-12.5636
نے	-12.5637
▁لاص	-12.5641
▁مهو	-12.5642
راب	-12.5653
▁ينيما	-12.5654
▁لڙي	-12.5655
غر	-12.5656
IS	-12.5657
▁هيڪا	-12.5663
اض	-12.5673
▁ڀيل	-12.5677
▁پنڊ	-12.568
▁اويا	-12.5681
▁stan	-12.5682
روق	-12.5687
ia	-12.5688
▁يليس	-12.5689
▁تات	-12.5699
▁يرج	-12.5701
▁جهال	-12.5708
▁أإ	-12.5711
▁زى	-12.5716
▁pu	-12.5719
▁ورسا	-12.572
▁فتخ	-12.5724
ٱ	-12.5726
▁پڙا	-12.5726
▁بڻ	-12.5729
ئٽ	-12.5733
▁نورت	-12.5736
▁ڪاڪي	-12.5743
▁اميه	-12.5744
▁سكن	-12.5744
ru	-12.5746
▁مهان	-12.575
▁wal	-12.5751
ينو	-12.5752
is	-12.5757
▁جنجا	-12.5759
▁smar	-12.5764
▁نيال	-12.5765
▁DW	-12.5766
ێ	-12.5767
Ş	-12.5767
▁、	-12.5767
نهين	-12.5768
▁رنڊڪ	-12.5769
▁بزاف	-12.5769
▁٬	-12.577
▁حاب	-12.5771
▁هے	-12.5771
▁dog	-12.5771
▁كاس	-12.5773
▁ائٽر	-12.5775
▁يشا	-12.5776
▁شکست	-12.578
▁نھار	-12.5781
▁آڊٽ	-12.5782
▁شهد	-12.5783
▁نهال	-12.5786
▁مضح	-12.5786
▁گهنڊ	-12.5787
▁هڙا	-12.5788
▁پتڻ	-12.5788
▁بڪس	-12.5788
▁يچار	-12.5789
ريز	-12.579
▁row	-12.5791
خت	-12.5794
▁Cy	-12.5795
▁زيه	-12.5797
▁عناد	-12.5798
▁900	-12.5801
▁چيء	-12.5801
▁مائن	-12.5803
يني	-12.5804
▁توك	-12.5808
▁ائير	-12.5819
▁ey	-12.5823
▁شيوا	-12.583
بط	-12.5831
ديك	-12.5832
▁ٻڪ	-12.5832
▁خفت	-12.5832
▁دينار	-12.5833
▁يڊس	-12.5834
▁گُم	-12.5834
وخ	-12.5841
▁000	-12.5843
▁mot	-12.5847
▁ٽنڊي	-12.5851
▁گيا	-12.5852
▁رشی	-12.5852
▁لڪڻ	-12.5856
▁هاااا	-12.5858
ڪڪ	-12.5864
▁يفن	-12.5864
▁انيم	-12.5874
▁يسس	-12.5877
▁Gu	-12.5881
▁يبن	-12.5884
▁بسين	-12.5885
▁لوڏا	-12.589
▁نسو	-12.5903
▁Cent	-12.5912
▁سوڳ	-12.5918
▁نبوي	-12.5919
▁ڪوڪا	-12.5921
▁ڊش	-12.5921
▁تباه	-12.5922
▁وڪيٽ	-12.593
EC	-12.5932
/2	-12.5941
▁ويلو	-12.5942
▁سوء	-12.5942
▁بيز	-12.5946
▁دغا	-12.5952
▁Hol	-12.5956
.8	-12.5958
▁ڪسين	-12.5962
▁ڊينگ	-12.5964
▁احتر	-12.5964
▁Za	-12.598
▁ورور	-12.5982
▁clo	-12.5984
▁عطيو	-12.5984
▁نيپر	-12.5984
▁ذمي	-12.5985
▁ترک	-12.5989
▁ڀڻ	-12.5989
▁وڑ	-12.5989
سين	-12.5993
▁جھول	-12.5993
▁يلس	-12.6
PA	-12.6005
▁فقه	-12.6007
▁زيت	-12.6008
▁هيڊر	-12.6009
یا	-12.6017
▁ssa	-12.6023
▁امز	-12.6027
▁Sha	-12.6032
▁Ant	-12.6032
▁گرن	-12.6035
ay	-12.6039
▁bol	-12.6042
as	-12.6046
▁زدن	-12.6053
ke	-12.6057
▁روائ	-12.6057
▁mit	-12.6059
▁وندر	-12.606
श	-12.6061
॥	-12.6061
▁CNC	-12.6062
▁مخصص	-12.6062
▁ٽوئيٽ	-12.6062
وسي	-12.6062
▁grow	-12.6063
▁III	-12.6063
▁وانن	-12.6064
▁ٺاڪ	-12.6064
▁قرص	-12.6065
▁Tre	-12.6068
نيات	-12.6069
بون	-12.607
▁دڪ	-12.6072
▁وبار	-12.6073
▁ريخت	-12.6073
▁ويديو	-12.6077
وث	-12.6077
▁ڪرنڊ	-12.6082
▁بزر	-12.6084
▁22.	-12.6085
▁gro	-12.6091
▁RT	-12.6094
▁reli	-12.6096
▁بسڊي	-12.6098
▁طلس	-12.6101
▁than	-12.6102
كش	-12.6107
▁cm	-12.611
▁هذول	-12.6111
شل	-12.6123
▁هداء	-12.6124
▁ٽيء	-12.6124
▁تبون	-12.6124
ماٽ	-12.6127
▁وستي	-12.6128
▁ڊيڊي	-12.6134
▁ڇڻي	-12.6135
▁زائن	-12.6135
▁رجه	-12.6135
چه	-12.6141
▁ڍول	-12.6141
▁ريڊي	-12.6144
▁شبي	-12.6147
جهه	-12.6147
اص	-12.6149
▁یشن	-12.6151
روز	-12.6153
▁لٽڪ	-12.6154
▁مکن	-12.6157
▁لابس	-12.6159
▁مبلي	-12.6159
▁کاڻ	-12.616
▁آش	-12.616
شه	-12.6165
▁Mu	-12.6165
▁لوري	-12.6168
ائز	-12.6169
▁اؤس	-12.6169
▁bla	-12.6174
▁تاق	-12.6178
▁نواڻ	-12.6178
▁اصي	-12.6183
▁چمپ	-12.6185
▁ديڳ	-12.6186
▁نفت	-12.6189
▁(2	-12.619
rti	-12.6191
▁يڇ	-12.6191
صيه	-12.6193
ڏا	-12.6195
▁ليات	-12.6199
ٻاڙ	-12.6201
▁رپي	-12.6202
ووم	-12.6207
▁سوڀي	-12.6209
سيس	-12.6209
اسا	-12.6214
▁ورپ	-12.6214
▁تقي	-12.6214
▁ڳٽ	-12.6215
▁Pen	-12.6216
▁ذو	-12.6218
▁نة	-12.622
َڄ	-12.6224
▁نانا	-12.6226
مك	-12.6227
▁ڪسا	-12.6227
▁نقا	-12.623
▁prov	-12.6236
▁ہو	-12.624
▁پنچ	-12.6241
▁هوبه	-12.6246
▁رفض	-12.6249
▁stor	-12.6249
عوذ	-12.625
▁دورا	-12.6251
▁کپن	-12.6261
لام	-12.6265
▁Don	-12.6271
▁sor	-12.6273
▁صلع	-12.6276
▁نورا	-12.6279
اگل	-12.6281
▁NT	-12.6281
▁ڪهڻ	-12.6295
▁شراف	-12.6295
▁MS	-12.63
▁Sh	-12.6301
▁ويرو	-12.6303
▁dist	-12.6305
ٽز	-12.6306
▁براه	-12.6312
▁ميڪر	-12.6314
▁پاك	-12.6323
▁موع	-12.6325
▁وڍي	-12.6325
ڌو	-12.6335
▁ڍل	-12.6341
zz	-12.6343
▁نيها	-12.6348
▁يبو	-12.635
▁win	-12.6351
▁جريد	-12.6354
ۅ	-12.6354
q	-12.6354
▁rop	-12.6359
▁vis	-12.6361
▁بدوي	-12.6362
▁لكزس	-12.6364
▁SEO	-12.6365
▁›	-12.6365
▁twi	-12.6365
▁GPS	-12.6365
▁ختصار	-12.6367
▁ٽھڪ	-12.6368
▁Sna	-12.6368
▁lf	-12.6368
▁الل	-12.6369
▁=))	-12.6372
▁يپي	-12.6373
▁bile	-12.6375
IN	-12.6377
▁Win	-12.6377
CA	-12.6377
▁۔۔	-12.6377
▁بقره	-12.6378
ئات	-12.6379
▁زعيم	-12.6381
▁قدير	-12.6381
▁شع	-12.6382
▁ڪٺو	-12.6391
▁ٽٽڻ	-12.6393
▁ngu	-12.6393
▁عمده	-12.6393
روت	-12.6396
▁پاٿ	-12.6396
▁اذن	-12.6399
▁Ben	-12.6399
▁گھاٽ	-12.64
▁حليب	-12.64
▁ليوان	-12.64
▁اريخ	-12.6401
اول	-12.6402
ورٺ	-12.6405
ٹي	-12.6405
اشي	-12.6406
▁شآء	-12.6407
▁دشا	-12.6411
WC	-12.6411
99	-12.6415
▁ٺن	-12.6415
▁125	-12.6416
▁حرب	-12.6417
▁لطش	-12.642
▁ڪڷ	-12.6421
▁آكل	-12.6425
▁اجاز	-12.6427
▁gam	-12.6435
▁sho	-12.6449
▁ڀاڀ	-12.6449
▁سيح	-12.6457
▁اوڌر	-12.6458
▁Per	-12.6461
▁كاي	-12.6464
▁ورڙ	-12.6465
شرت	-12.6467
ڪوٽ	-12.647
ڏو	-12.6473
▁توها	-12.6473
▁لحم	-12.6474
▁ليفو	-12.6477
▁CS	-12.6478
▁peri	-12.6489
▁مروز	-12.6489
▁شوز	-12.649
▁نبر	-12.6497
▁فيز	-12.6499
▁مڱ	-12.6499
▁راڌ	-12.6501
▁ڦڙ	-12.6502
▁کڙو	-12.6506
▁ster	-12.6514
he	-12.6524
▁CF	-12.6525
▁دهم	-12.6526
▁حکم	-12.6527
▁ٻيل	-12.6529
▁syn	-12.653
▁تقو	-12.6535
یب	-12.6537
▁ھاري	-12.6538
im	-12.6539
▁قران	-12.6539
▁اروي	-12.654
▁سالار	-12.6543
▁ھال	-12.6544
▁وريم	-12.6546
▁Cra	-12.6549
▁ڪف	-12.6562
▁جايا	-12.6563
▁زيرا	-12.6572
▁أما	-12.6579
▁LL	-12.6584
▁يندين	-12.6585
▁ڀرت	-12.6585
▁حلن	-12.6586
▁tan	-12.6589
جون	-12.6589
▁جھل	-12.6593
▁لوح	-12.6598
al	-12.6602
▁رانا	-12.6617
ya	-12.6618
▁واجا	-12.6627
گهار	-12.6628
▁تخصص	-12.6629
▁ودر	-12.6629
FP	-12.663
▁يلوي	-12.6633
▁افا	-12.6633
▁عصا	-12.6633
وول	-12.6634
▁ارپي	-12.6635
▁ورٽل	-12.6635
▁ڀؤ	-12.664
▁ريتم	-12.6641
▁دمن	-12.6649
▁por	-12.6651
▁RE	-12.6656
ڤ	-12.6667
طل	-12.6667
▁جفا	-12.667
BA	-12.6673
ू	-12.6677
▁VPN	-12.6677
▁GDP	-12.6678
▁berg	-12.6678
▁بزدل	-12.6678
▁MB	-12.6678
▁ڪئبن	-12.6679
▁إل	-12.6679
▁Eng	-12.668
▁جهاتي	-12.6681
▁يپيڊ	-12.6681
▁ü	-12.6682
▁shi	-12.6682
▁ھيڙو	-12.6682
▁واھش	-12.6684
▁mix	-12.6684
ليچ	-12.6685
▁تسوين	-12.6687
▁ريندي	-12.6689
كات	-12.6689
ng	-12.6691
▁يتزا	-12.6691
▁Mark	-12.6697
▁نڊن	-12.6699
▁يکنه	-12.6699
AS	-12.67
▁طو	-12.67
▁دید	-12.6702
▁جوز	-12.6702
▁دڙڪا	-12.6703
▁رقيب	-12.6703
▁سوڀو	-12.6707
▁سادا	-12.6707
▁نايف	-12.6708
▁low	-12.6711
▁ويڄ	-12.6713
▁عوض	-12.6714
▁stat	-12.6715
▁Top	-12.6717
▁خبل	-12.6718
▁سڻي	-12.6718
▁برآ	-12.6725
▁MT	-12.6725
ڀاٽ	-12.6727
▁قايل	-12.6728
▁rge	-12.673
▁هيند	-12.6733
▁هسڪي	-12.6738
▁هيڻا	-12.6741
الا	-12.6742
که	-12.6747
ٹر	-12.6747
ميم	-12.6756
▁يچرو	-12.6757
▁صدف	-12.6759
85	-12.6764
▁رستم	-12.6765
سک	-12.6772
▁ترك	-12.6773
▁مشر	-12.6775
سان	-12.6779
▁file	-12.6779
▁نكات	-12.678
ci	-12.6785
ريڪ	-12.6787
▁يٽيل	-12.6788
▁اهرا	-12.679
▁حير	-12.6794
▁14.	-12.6797
▁zi	-12.68
▁DD	-12.6804
▁سٹر	-12.6806
▁إنت	-12.6809
▁Cat	-12.681
تى	-12.6816
▁جبار	-12.6819
▁nna	-12.6819
▁wan	-12.6825
ڪبر	-12.6828
▁top	-12.6829
▁CM	-12.683
▁ماعت	-12.6833
▁اشند	-12.6834
ٺل	-12.6838
ايس	-12.6839
▁روى	-12.684
افع	-12.6843
▁Az	-12.6843
▁لوسي	-12.6851
pa	-12.6859
▁ابرا	-12.6859
▁تپي	-12.686
▁همرا	-12.686
شر	-12.6862
▁دالي	-12.6862
▁همب	-12.6864
▁هامي	-12.6864
▁اڙد	-12.6864
▁بلد	-12.6869
am	-12.6876
▁دهر	-12.6877
ist	-12.688
▁ناٿ	-12.6882
▁ڊرم	-12.6882
ame	-12.6882
▁Ber	-12.6886
▁تقل	-12.6888
▁Vo	-12.689
▁منال	-12.6893
▁آأ	-12.6893
ڊوس	-12.6896
▁پاک	-12.6898
ڪيو	-12.6907
▁tre	-12.6916
ذر	-12.6918
▁لجه	-12.6925
▁نیک	-12.6929
▁هنديه	-12.6931
▁ٽبا	-12.6931
مير	-12.6933
▁درت	-12.6934
vo	-12.6939
▁ڪنا	-12.6944
▁نگول	-12.6944
▁dev	-12.6945
ثر	-12.6947
ER	-12.6947
oot	-12.6948
dd	-12.6961
ٹو	-12.6962
يڪنگ	-12.6965
▁ٻڍ	-12.6968
▁لوڙ	-12.6973
PS	-12.6974
▁نسيت	-12.6975
▁au	-12.6982
يخ	-12.6983
▁هسٽ	-12.6984
^	-12.6985
60	-12.6985
▁جمن	-12.6988
#	-12.6988
▁بعت	-12.6997
ै	-12.6999
▁±	-12.6999
▁HGH	-12.6999
▁😂😂😂	-12.7
▁HDMI	-12.7
▁PUB	-12.7
▁خصلت	-12.7
▁شبکه	-12.7
▁۱۰	-12.7
▁USA	-12.7
▁Key	-12.7
▁Store	-12.7001
-7	-12.7001
▁حفار	-12.7003
▁Slot	-12.7004
▁مثب	-12.7004
▁منٺار	-12.7005
▁à	-12.7006
▁خطوط	-12.7006
▁EX	-12.7006
er	-12.7006
-8	-12.7007
▁وڊيش	-12.7007
▁بېر	-12.7008
▁اسال	-12.7009
▁لکيت	-12.701
▁Day	-12.701
▁جعل	-12.7012
جب	-12.7013
▁غبار	-12.7014
▁Blo	-12.7014
▁زبون	-12.7016
ڏس	-12.7019
▁ٽماٽ	-12.702
▁rosa	-12.7023
▁Opt	-12.7025
▁سرعت	-12.7025
▁طاح	-12.7025
▁نفو	-12.7027
ID	-12.7029
▁بقوه	-12.7029
IY	-12.7037
▁ٻوٽ	-12.7038
▁ڍڙ	-12.7038
PE	-12.704
▁رابع	-12.7042
▁ثقل	-12.7043
▁Meta	-12.7055
▁ږ	-12.7055
rk	-12.7062
قط	-12.7063
▁ليمن	-12.7064
▁He	-12.7066
▁برنس	-12.7067
حل	-12.7067
▁جلن	-12.7069
▁آفي	-12.707
▁آڌي	-12.7071
▁ڪامڻ	-12.7072
FS	-12.7083
▁35.	-12.709
▁طيار	-12.7093
▁ھوش	-12.7094
▁eu	-12.7094
▁Val	-12.7096
▁ڪالي	-12.7097
▁آڷ	-12.71
▁ref	-12.7101
▁لينٽ	-12.7103
▁دوو	-12.7111
ld	-12.7112
▁سرم	-12.7115
▁پيهي	-12.7116
95	-12.7122
▁2_	-12.7123
▁Kar	-12.7127
▁حور	-12.7128
▁يؤ	-12.7131
▁تجر	-12.7132
▁طع	-12.7134
▁نوت	-12.7139
▁گوت	-12.7141
▁tem	-12.7149
▁ارپ	-12.7157
فس	-12.716
کنگ	-12.7163
▁رڌ	-12.7168
▁كح	-12.7173
▁Tit	-12.7176
▁تابو	-12.7183
▁کلن	-12.719
آني	-12.7192
▁ڊاس	-12.7196
▁اكن	-12.7197
دعي	-12.7202
▁بيض	-12.7203
▁رانيا	-12.7209
▁رجان	-12.7219
▁ara	-12.7219
▁PT	-12.7221
▁ورنگ	-12.7224
أإ	-12.7227
rl	-12.7228
▁دوام	-12.7233
▁مدر	-12.7236
اذ	-12.724
▁خفي	-12.7242
وکر	-12.7242
▁نيول	-12.7244
▁bal	-12.7245
▁ابرو	-12.7247
▁موض	-12.7248
▁لبس	-12.7248
▁هذآ	-12.7252
▁ڪامن	-12.7252
▁يرل	-12.7261
▁هاذ	-12.7266
▁پوت	-12.7275
ئا	-12.7279
▁ڪاتي	-12.7281
▁سونو	-12.7282
▁Sch	-12.7284
▁ينئ	-12.7286
=	-12.7287
▁درون	-12.7288
▁18.	-12.7298
▁ثري	-12.7298
فض	-12.73
▁عنو	-12.73
▁انص	-12.7308
▁والپ	-12.7312
ç	-12.7321
٫	-12.7322
▁gal	-12.7323
4-	-12.7328
▁طلا	-12.7331
▁🙁	-12.7333
▁MAX	-12.7333
▁buil	-12.7333
▁رفه	-12.7334
▁joy	-12.7335
ok	-12.7335
▁~>	-12.7335
▁UK	-12.7338
▁Fla	-12.7339
hy	-12.7339
▁هيڪٽر	-12.734
▁مهما	-12.7342
▁آآه	-12.7342
▁پنڊت	-12.7345
▁اڏو	-12.7345
يأت	-12.7348
▁نسائي	-12.7349
▁128	-12.735
▁هيتري	-12.7351
▁چسب	-12.7352
▁ڏمر	-12.7352
▁وعي	-12.7352
▁رزرو	-12.7353
▁نمود	-12.7353
▁پوڙ	-12.7354
▁زاوي	-12.7354
اغذ	-12.7356
▁اونڌا	-12.7357
▁روما	-12.7359
▁سمٿ	-12.736
▁اٺون	-12.7361
▁کجا	-12.7362
نيا	-12.7366
▁لوچ	-12.737
▁حركه	-12.7374
▁ٿڙ	-12.7374
▁Lit	-12.7375
▁حدا	-12.7375
▁dom	-12.7376
▁VIP	-12.7376
▁ھڻو	-12.7376
▁دويه	-12.7379
▁nom	-12.7379
▁att	-12.7379
▁جزاك	-12.738
▁سيڊ	-12.738
▁Or	-12.7381
▁جھڪ	-12.7385
▁حزن	-12.7387
▁ڪاٽي	-12.7388
▁بنز	-12.7389
21	-12.7393
▁UV	-12.7393
▁كور	-12.7395
▁اڄُ	-12.7396
؟"	-12.7398
▁6)	-12.7398
▁چاق	-12.74
-1	-12.74
كى	-12.7403
▁ڏيڏ	-12.7405
▁ski	-12.7405
▁کنگه	-12.7406
▁ڪمدار	-12.7409
▁وبند	-12.741
▁يزيو	-12.7412
▁صريح	-12.7421
▁لٿل	-12.7423
▁21.	-12.7424
▁bro	-12.7424
▁كيو	-12.7427
▁نيوس	-12.7429
سف	-12.743
▁سڦ	-12.7431
▁مهين	-12.7436
▁ٽپڻ	-12.7438
▁رهف	-12.744
▁خطيب	-12.7441
▁ونسل	-12.7441
ينة	-12.7443
ku	-12.7444
▁راقب	-12.7446
▁وبن	-12.7451
▁دمك	-12.7452
2:	-12.7456
▁بقر	-12.7465
▁هايل	-12.7466
▁وڳو	-12.7466
نھيء	-12.7472
▁علو	-12.7474
▁Fin	-12.7477
▁صاح	-12.7481
▁EU	-12.7482
صلي	-12.7485
▁چني	-12.7487
▁اری	-12.7491
▁ret	-12.7492
مآ	-12.7494
▁پراڻ	-12.7495
▁Max	-12.7498
▁ورون	-12.7501
▁قوس	-12.7503
lk	-12.7508
▁ڪنور	-12.7509
لاط	-12.7512
▁يشين	-12.7524
اث	-12.7531
▁هيام	-12.7532
▁poli	-12.7535
مٽ	-12.7535
▁ظھ	-12.754
ُل	-12.7543
▁mel	-12.7545
▁ES	-12.7547
▁رؤ	-12.7548
▁ناٽ	-12.7549
▁كفو	-12.7552
▁نايس	-12.7552
▁ورته	-12.7554
▁صوم	-12.7559
▁فضائ	-12.7561
▁ٽوئٽ	-12.7563
▁Bar	-12.7564
45	-12.7565
▁ينيس	-12.7568
لل	-12.7568
▁mad	-12.7575
▁يجا	-12.7576
▁نوس	-12.7577
▁احط	-12.7579
▁CE	-12.758
▁وهل	-12.7581
▁ڪڙم	-12.7586
▁زمي	-12.7587
▁FO	-12.7592
▁سڌا	-12.7593
▁AD	-12.7594
▁ليئ	-12.7598
▁TH	-12.76
بيني	-12.7602
ko	-12.7603
▁مڌ	-12.7604
▁نفرا	-12.7604
تني	-12.7608
آأ	-12.7608
▁SID	-12.7611
▁نڪن	-12.7613
▁ويئ	-12.7613
▁سبي	-12.7613
▁هنئ	-12.7616
▁Ter	-12.762
▁ديول	-12.7621
▁fer	-12.7624
▁يدائ	-12.7632
▁یه	-12.7639
▁مندي	-12.7642
▁Sm	-12.7646
ڳر	-12.7649
▁تڪن	-12.765
▁يٽرس	-12.766
▁اوني	-12.7663
FE	-12.7664
زڪس	-12.7665
ear	-12.7666
ٔ	-12.7668
▁يگي	-12.7671
а	-12.7675
▁photo	-12.7678
♦	-12.7678
▁ڊاپٽر	-12.7678
▁ڌاٻي	-12.7678
ذكر	-12.7678
▁قهوه	-12.7678
▁سهاڳ	-12.7679
▁لقمان	-12.768
▁پنهور	-12.7681
▁بلائن	-12.7683
▁سياڻا	-12.7685
▁شعيب	-12.7686
▁uk	-12.7687
▁gy	-12.7687
▁ملعو	-12.7689
▁Alt	-12.7691
▁سنڀر	-12.7695
▁وکيل	-12.7695
▁lay	-12.7695
▁فِي	-12.7697
▁وهاڻي	-12.7698
▁sum	-12.7699
▁ray	-12.7699
▁شركه	-12.7702
▁لقى	-12.7703
▁رپور	-12.7704
▁عراب	-12.7705
▁چاي	-12.7706
▁رشين	-12.7709
▁ريمو	-12.7712
▁ڪيت	-12.7713
▁فيبر	-12.7713
wi	-12.7718
▁ايرو	-12.7719
▁اغي	-12.7719
▁حرق	-12.7719
▁ٽانڪي	-12.7721
ياڻي	-12.7724
▁ريحان	-12.7725
▁راحيل	-12.7732
جس	-12.7732
RS	-12.7735
▁حراج	-12.7736
35	-12.7737
▁زنج	-12.7738
▁ضريب	-12.7738
▁ذآ	-12.7738
▁تاڻي	-12.7742
اڙھ	-12.7743
▁دې	-12.7743
▁ساتر	-12.7749
یه	-12.7754
▁خويش	-12.7756
سڪي	-12.776
▁حاتم	-12.7763
▁حاشي	-12.7767
▁Ad	-12.7769
▁ذنب	-12.777
▁حالة	-12.7771
▁قرد	-12.7772
▁بصح	-12.7773
▁ING	-12.7774
پيو	-12.7775
▁عباد	-12.7777
▁پٽڻ	-12.778
▁Ov	-12.7782
▁ينش	-12.7787
ry	-12.779
26	-12.7791
▁رڃ	-12.7792
EA	-12.7795
▁pc	-12.7799
▁ڏئ	-12.7802
▁آيم	-12.7804
كد	-12.7806
ose	-12.7813
▁گاز	-12.7816
قا	-12.7818
نبڙ	-12.7833
▁كث	-12.7837
▁بنك	-12.784
▁deli	-12.7844
▁نحوس	-12.7858
▁vir	-12.7858
شى	-12.7864
▁Qui	-12.7865
▁7:	-12.7872
▁هابي	-12.7874
ديرو	-12.7896
ۊ	-12.7897
▁mer	-12.7898
▁سطور	-12.7899
▁ٽڙ	-12.7901
▁Stud	-12.7903
▁ٽب	-12.7903
پت	-12.7903
▁پُل	-12.7911
▁ٽٽو	-12.7912
اگوا	-12.7914
UI	-12.7916
▁ڪسر	-12.7919
▁يچرن	-12.7921
ٻٽ	-12.7935
▁وڌن	-12.7937
▁06	-12.794
قم	-12.7941
▁ليچ	-12.7941
▁تفا	-12.7947
▁وسه	-12.7949
▁Mon	-12.7949
▁ناق	-12.7949
▁وهيل	-12.7951
رٽ	-12.7951
▁let	-12.7956
▁sel	-12.7962
زز	-12.7965
▁ٽڪو	-12.7967
كك	-12.7967
▁نفذ	-12.7971
▁Add	-12.7975
▁rt	-12.7978
وة	-12.7983
ot	-12.7983
▁روسو	-12.7991
US	-12.7994
خر	-12.7997
▁نئن	-12.7997
▁وشو	-12.8
▁خلاق	-12.8001
▁شرب	-12.8002
▁ازش	-12.8002
▁زيم	-12.8006
▁بوم	-12.8014
▁وسط	-12.8016
فير	-12.8019
كيت	-12.8021
▁انڪا	-12.8023
ub	-12.8024
▁دهن	-12.8024
▁ويڙ	-12.8028
80	-12.803
▁prot	-12.803
ull	-12.8033
ö	-12.8035
ं	-12.8035
▁Mesh	-12.8035
▁نفاذ	-12.8035
▁تخريب	-12.8035
▁BBC	-12.8036
▁8:	-12.8036
▁يلسوف	-12.8036
▁spir	-12.8037
▁dry	-12.8037
▁word	-12.8037
▁sky	-12.8037
▁ابين	-12.8038
▁fall	-12.8038
▁وقوع	-12.8038
▁عاطف	-12.8039
▁pos	-12.8039
▁غالية	-12.8039
IDE	-12.804
▁عتذر	-12.8041
▁يگار	-12.8043
زه	-12.8043
۰	-12.8043
▁شىء	-12.8045
▁الديپ	-12.8046
طب	-12.8046
▁فاشل	-12.8046
▁disp	-12.8048
▁ڀڙ	-12.8048
▁توه	-12.8055
▁فتوح	-12.8055
▁دانت	-12.8058
▁حجام	-12.8063
BD	-12.8064
▁پوزل	-12.8065
عويذ	-12.8066
▁يجل	-12.8068
▁خمس	-12.807
▁حبڪ	-12.8074
▁يڪيٽ	-12.8084
▁بکر	-12.8085
ho	-12.8088
OW	-12.809
▁يسنگ	-12.809
▁رفيو	-12.8091
▁فطس	-12.8093
▁فايل	-12.8097
▁ريسک	-12.81
نگس	-12.8102
▁nta	-12.8107
▁هلاڪ	-12.8107
▁نعت	-12.8108
▁يديد	-12.8109
▁نماڻي	-12.811
▁ليري	-12.8111
ملي	-12.8114
رش	-12.812
▁add	-12.8121
▁ويڌ	-12.8125
▁راما	-12.8126
▁هاجر	-12.8127
▁وائٽ	-12.8128
اسٽ	-12.813
▁وستا	-12.8133
▁gor	-12.8138
▁يلسي	-12.8138
▁ايدج	-12.814
▁لاقا	-12.814
▁84	-12.8141
▁Zi	-12.8142
▁پنھ	-12.8149
▁کوچ	-12.8151
▁وسڪ	-12.8152
▁zz	-12.8153
قلد	-12.8163
▁سکور	-12.8163
▁بڙ	-12.8164
▁چير	-12.8167
▁ريٽو	-12.8168
▁نوعي	-12.8169
▁اونس	-12.8175
ضيع	-12.8178
▁مڪن	-12.8179
▁ربيا	-12.8179
▁ارز	-12.8181
▁dec	-12.8184
▁جذي	-12.8189
▁زائي	-12.8201
▁As	-12.8203
▁وکا	-12.8203
▁صلو	-12.8204
▁ضعف	-12.8204
▁اهيون	-12.8209
RI	-12.8214
▁وجد	-12.8214
▁EC	-12.8215
▁diss	-12.8215
▁HP	-12.8224
بك	-12.8224
ران	-12.8227
▁MG	-12.8235
▁ونک	-12.8236
▁بما	-12.8238
▁محم	-12.8239
▁fur	-12.8242
▁MIU	-12.8246
▁Char	-12.8259
▁ڪانڊ	-12.8262
▁nne	-12.8262
▁Cam	-12.8266
▁شوو	-12.8267
▁ڱار	-12.8268
▁تڪي	-12.8272
▁هيڻي	-12.8272
▁ودن	-12.8274
▁گيه	-12.8283
▁ٽيج	-12.8288
▁acce	-12.8288
لأ	-12.8292
▁ينار	-12.8292
▁تخني	-12.8297
كن	-12.8299
ٿا	-12.8303
ائف	-12.8304
▁يداء	-12.8304
▁کوي	-12.8313
▁مجد	-12.8315
▁نجن	-12.8315
▁نفع	-12.8316
eel	-12.8316
▁ديك	-12.8318
il	-12.832
▁نهى	-12.8326
ڇڙ	-12.8327
▁لاري	-12.8327
▁AR	-12.8331
▁جبن	-12.8333
▁اعر	-12.8334
▁alt	-12.8339
پئي	-12.8341
▁وستن	-12.8348
▁cit	-12.8352
▁ايلس	-12.8354
▁يڊرو	-12.8355
▁13.	-12.8356
▁nit	-12.8357
▁سلڪ	-12.8361
▁يڪين	-12.8363
▁نوڙ	-12.8363
دور	-12.8365
▁يويٽ	-12.8367
▁يونگ	-12.8368
ٻر	-12.8369
▁صحن	-12.8373
▁سوڙ	-12.8379
▁RS	-12.8382
▁پچي	-12.8383
▁plo	-12.8383
▁خطط	-12.8388
تھ	-12.8394
️	-12.8395
▁نفل	-12.8398
▁wri	-12.8401
ريب	-12.8401
н	-12.8401
▁اوم	-12.8403
▁8)	-12.8405
▁TÜ	-12.8405
▁̷	-12.8405
▁zhen	-12.8406
▁ۧ	-12.8406
▁Alex	-12.8406
▁IBC	-12.8406
▁Ar	-12.8407
▁HK	-12.8408
▁خترت	-12.8409
▁متو	-12.8409
▁yar	-12.8409
▁كرسي	-12.8411
▁gula	-12.8411
▁بغض	-12.8411
▁most	-12.8412
▁ھيئن	-12.8412
▁وروثي	-12.8414
eed	-12.8415
▁ټول	-12.8416
▁bir	-12.8416
▁واژه	-12.8417
▁ace	-12.8417
▁tv	-12.8418
▁GIF	-12.842
▁چرخ	-12.8425
▁رضى	-12.8427
▁GO	-12.8429
▁ناويه	-12.8435
▁108	-12.8438
▁ريام	-12.8439
▁يزول	-12.8441
سچ	-12.8441
▁حكمت	-12.8441
▁يانس	-12.8441
▁عاري	-12.8444
▁Mar	-12.8445
▁بزني	-12.8445
▁Iz	-12.8447
▁سڪن	-12.8447
▁سهله	-12.8448
جهر	-12.845
▁قلق	-12.8455
▁ينگر	-12.8455
▁هنآ	-12.8456
▁تؤ	-12.8456
▁ska	-12.8456
▁دپ	-12.8458
▁نات	-12.8462
ههه	-12.8466
▁اسفٽ	-12.8468
▁عك	-12.8472
▁شكم	-12.8478
▁Pu	-12.848
▁ڪنڊو	-12.848
▁Joh	-12.8483
LE	-12.8484
▁Sca	-12.8484
جرڪ	-12.8484
▁ڌپ	-12.8484
واړ	-12.849
▁عع	-12.8495
▁ميپ	-12.8495
OM	-12.8495
بيك	-12.8495
▁تنسي	-12.8497
▁قوه	-12.8499
▁ملكه	-12.8501
▁صم	-12.8502
▁pris	-12.8504
ينه	-12.8505
▁يهون	-12.8507
▁جدد	-12.8509
▁ڀون	-12.8509
▁گاج	-12.8511
نيٽ	-12.8512
14	-12.8514
ھو	-12.8517
▁ڪٽڪ	-12.8517
▁ڌوڻ	-12.8519
▁لالي	-12.8527
▁nov	-12.8528
▁ضرر	-12.8531
▁والم	-12.8532
ينا	-12.8533
ولي	-12.8533
▁هنود	-12.8534
▁ڪوهل	-12.8539
▁pow	-12.8542
روط	-12.855
▁اڏر	-12.8553
▁عشا	-12.8554
▁sil	-12.8555
▁ھيل	-12.8562
▁real	-12.8564
▁ڊوز	-12.857
▁ساح	-12.857
▁ويرين	-12.8574
▁Eu	-12.8576
▁پکن	-12.8578
▁يلف	-12.8579
▁سائٽ	-12.8584
جٽ	-12.8586
▁but	-12.8589
▁1_	-12.8589
فريڪ	-12.8591
▁ڄات	-12.8592
▁ويپ	-12.8593
ڪنگ	-12.8594
▁تهاس	-12.8597
▁ost	-12.8597
ڪيل	-12.8599
آح	-12.86
▁ڄاري	-12.8604
▁مٽن	-12.8611
▁گوڏ	-12.8616
▁طبل	-12.8616
▁WP	-12.8619
هارت	-12.862
ڳي	-12.8622
▁گولو	-12.8624
▁09	-12.8629
▁تولي	-12.8631
▁زق	-12.8634
▁RA	-12.8639
▁حكاي	-12.864
▁ano	-12.8645
▁Ji	-12.8647
▁يندر	-12.8647
▁عق	-12.8652
▁ابيه	-12.8655
▁كذ	-12.8658
▁23.	-12.866
▁نشل	-12.8661
▁سرٽ	-12.867
▁ڪپر	-12.8672
▁نكد	-12.8673
▁دلم	-12.8673
▁nga	-12.8675
بات	-12.8677
▁هلال	-12.8678
▁فاتن	-12.8681
▁رسوم	-12.8682
pk	-12.8682
راڙ	-12.8683
SI	-12.8683
▁دڙڪ	-12.8685
▁رونو	-12.8685
▁ندم	-12.8688
▁ننگي	-12.869
▁FS	-12.8695
زعج	-12.8696
▁ٽرن	-12.87
▁ٽولا	-12.8705
▁نوکو	-12.8706
▁زڪو	-12.8708
ۈن	-12.8713
۵	-12.8715
▁شائر	-12.8715
▁لٿا	-12.8716
▁غش	-12.8717
TO	-12.8721
▁فض	-12.8725
▁یڪ	-12.8726
▁انيس	-12.8731
امر	-12.8732
▁قضي	-12.8733
▁ڪانو	-12.8736
▁سويا	-12.8739
UM	-12.8745
▁توم	-12.8745
▁ذل	-12.8745
▁سوى	-12.8746
▁اڏن	-12.875
▁ستني	-12.8756
AM	-12.8757
▁۱۲	-12.8759
▁ڪنڊا	-12.8759
ہر	-12.876
▁ونص	-12.8761
▁وقال	-12.8763
▁زندگ	-12.8766
▁راڄن	-12.8766
1:	-12.8776
وٽر	-12.8776
▁شاف	-12.878
▁حڪوم	-12.878
▁tel	-12.8786
▁ڪات	-12.8786
▁راجو	-12.8787
دري	-12.8787
▁dr	-12.8788
▁😭	-12.8789
ۿ	-12.879
ध	-12.879
▁[2]	-12.879
▁シンド語	-12.879
▁صاوير	-12.879
▁√	-12.879
▁روغن	-12.879
▁شجاع	-12.879
▁۲۰	-12.879
▁ۂ	-12.8791
56	-12.8791
▁Aug	-12.8791
▁Sale	-12.8792
▁show	-12.8793
▁زاى	-12.8793
▁غفار	-12.8795
▁واسو	-12.8796
▁طيور	-12.8796
▁الاڪي	-12.88
ڑي	-12.88
29	-12.88
▁how	-12.8801
▁Test	-12.8802
▁Bre	-12.8802
▁قليم	-12.8803
▁عسا	-12.8805
▁plus	-12.8806
▁50%	-12.8808
▁وکون	-12.8808
▁نزول	-12.8809
▁جھنگ	-12.881
▁حزين	-12.8811
فع	-12.8812
▁106	-12.8812
▁پوتر	-12.8813
▁دیگ	-12.8815
▁آهِ	-12.8817
ڦي	-12.8819
▁مقالب	-12.8825
▁آذر	-12.8825
▁ديء	-12.8825
▁dor	-12.8827
پول	-12.8828
▁رخو	-12.883
ايه	-12.8831
▁گھاس	-12.8832
▁ونجهر	-12.8833
▁nm	-12.8836
▁لوڌي	-12.8836
▁ألف	-12.8839
▁ڄڀ	-12.8841
▁ڍيو	-12.8841
▁ايچ	-12.8844
▁بطال	-12.8845
▁رهج	-12.8854
▁Crea	-12.8855
▁ذن	-12.8858
▁dos	-12.8859
مڻ	-12.886
▁3_	-12.8862
▁red	-12.8863
▁رومين	-12.8863
دع	-12.8865
افي	-12.8868
▁بوش	-12.8871
خذ	-12.8872
▁آڵ	-12.8873
▁آهك	-12.8875
یق	-12.8886
▁زري	-12.8887
▁قيس	-12.8887
ڻيل	-12.8888
▁ٿو۔	-12.8891
کيد	-12.8894
ئٽي	-12.8898
▁سبك	-12.8901
▁رنگه	-12.8903
▁پَٽ	-12.8905
▁ڏانه	-12.8906
▁بيٿ	-12.8907
EM	-12.8909
▁لڀي	-12.8914
▁کڻو	-12.8918
dhe	-12.892
▁خدي	-12.8922
▁bod	-12.8924
▁كسب	-12.8927
▁جهنڊ	-12.8928
فك	-12.8929
▁هذاك	-12.8934
▁ماش	-12.8936
▁تجوي	-12.8937
▁موذ	-12.8941
▁راحل	-12.8943
▁يڪان	-12.8949
▁عيال	-12.8951
▁sc	-12.8956
▁ليڪا	-12.8966
-6	-12.8969
اڻا	-12.8969
▁مزن	-12.8975
▁گڙ	-12.898
$	-12.899
▁حجر	-12.8993
▁رنيم	-12.8994
داس	-12.8997
زة	-12.8998
▁وينڊ	-12.9
ڊين	-12.9002
▁ire	-12.9008
ضع	-12.901
كون	-12.9014
24	-12.9016
لڀ	-12.9016
▁tak	-12.9016
وور	-12.9017
▁Shar	-12.9019
ڌڻ	-12.9021
▁adv	-12.9027
▁20.	-12.9029
اڪاس	-12.9029
▁ځان	-12.9033
▁حح	-12.9042
▁ڪبا	-12.9045
▁ڪنب	-12.9048
▁ڳوا	-12.9049
ثي	-12.907
▁يديك	-12.9072
▁BL	-12.9073
▁ٻٽ	-12.9075
▁char	-12.9076
▁LA	-12.9076
▁لقي	-12.9077
▁ڀڳي	-12.9078
▁؟'	-12.9084
يڪا	-12.9084
پڪ	-12.9092
یف	-12.9093
▁ذم	-12.911
▁ٽوني	-12.9111
▁دھا	-12.9118
▁ونگر	-12.912
▁بوت	-12.9123
▁Bot	-12.9124
▁پوچ	-12.9126
▁Tun	-12.9127
▁گيز	-12.9133
▁وانو	-12.9134
▁ساڳ	-12.9135
▁Thi	-12.9139
▁ينڊس	-12.914
▁2,	-12.9142
▁زخ	-12.9146
▁roo	-12.9156
▁رھو	-12.916
▁يرڪ	-12.9166
▁اڄو	-12.9171
آئ	-12.9172
▁اوسي	-12.9177
ۓ	-12.918
▁يورٽ	-12.9181
PC	-12.9187
▁ٻھ	-12.9187
؏	-12.919
٘	-12.919
▁smile	-12.919
▁قساط	-12.919
▁pedia	-12.919
▁circ	-12.919
▁طماط	-12.919
▁ड	-12.919
▁غاده	-12.919
▁Mega	-12.919
▁Mult	-12.919
▁ووڪيٽ	-12.919
▁شيماء	-12.919
▁سكوت	-12.9191
▁مرثي	-12.9191
▁ختلف	-12.9192
▁😅	-12.9192
▁رنڊم	-12.9193
▁boy	-12.9193
اسف	-12.9193
▁حتيا	-12.9195
▁قطط	-12.9195
أس	-12.9195
▁SOL	-12.9196
▁هاڪي	-12.9196
▁💔	-12.9196
SE	-12.9196
▁عالی	-12.9198
▁لڪون	-12.92
▁مفعو	-12.9201
▁تقر	-12.9205
لک	-12.9205
▁ڏبا	-12.9207
▁زايد	-12.9207
کت	-12.9209
▁ابهم	-12.9209
▁پارلي	-12.921
▁گاھ	-12.9212
▁شهاب	-12.9214
▁جهاڳ	-12.9215
▁کٻي	-12.9215
▁خرب	-12.9216
▁oC	-12.9218
▁شارع	-12.9218
▁لكِ	-12.922
▁چربي	-12.922
▁قصرت	-12.9222
▁144	-12.9223
▁وران	-12.9227
▁شيف	-12.9228
رق	-12.9229
▁Che	-12.9232
▁يريٽ	-12.9237
un	-12.9237
▁رسري	-12.924
▁Cru	-12.9241
▁30.	-12.9242
▁ward	-12.9244
▁غزال	-12.925
▁ڌڪا	-12.9251
▁ئوري	-12.9252
طير	-12.9253
▁لونه	-12.9255
▁ie	-12.9256
▁راک	-12.9258
▁تبت	-12.9264
▁خاف	-12.9267
اجر	-12.9267
▁ڳار	-12.9269
ضيف	-12.9273
ووو	-12.928
▁ڀوم	-12.928
▁rom	-12.9281
▁nec	-12.9285
▁IT	-12.9286
▁نيلي	-12.9294
▁چك	-12.9301
▁ارسل	-12.9305
bo	-12.9307
▁زات	-12.9311
▁29.	-12.9313
▁زرين	-12.9313
▁انسا	-12.9316
▁تراد	-12.9319
▁وؤ	-12.9319
▁وحا	-12.9324
OT	-12.9326
▁هيلر	-12.9327
طف	-12.9329
RO	-12.9334
▁heat	-12.9336
▁سطر	-12.9339
▁ھمت	-12.9343
▁رنز	-12.9345
▁لاسٽ	-12.9348
▁val	-12.935
▁CD	-12.9351
▁هاك	-12.9352
▁نفسي	-12.9352
ربی	-12.9355
io	-12.9355
▁ڙس	-12.9357
▁امتي	-12.9362
فش	-12.9366
▁ِِ	-12.9372
▁بنو	-12.9373
▁DE	-12.9375
▁Tur	-12.9377
▁04	-12.9377
ڳو	-12.9383
يبة	-12.9383
▁سراغ	-12.9383
MN	-12.9384
▁Xpe	-12.9387
▁يدم	-12.9389
pp	-12.9392
▁انڪي	-12.9392
▁آرش	-12.9393
وبيل	-12.9396
▁ثمر	-12.94
ME	-12.9404
▁هبة	-12.9406
-4	-12.9406
▁طعن	-12.9414
▁صدار	-12.9415
CO	-12.9417
باح	-12.9418
▁Set	-12.9418
▁ON	-12.9421
▁رآم	-12.9425
وص	-12.9426
▁پهري	-12.9434
▁Ten	-12.9436
CC	-12.9446
▁حاد	-12.9446
▁ھوس	-12.9447
▁عبال	-12.9451
▁يدين	-12.9452
▁ونڊي	-12.9456
▁ماح	-12.9459
▁عآ	-12.9462
▁جوړ	-12.9464
سيب	-12.9471
▁gt	-12.9475
▁يليٽ	-12.9481
▁هدى	-12.9485
▁سوت	-12.9488
▁hot	-12.9488
اخ	-12.9492
▁#2	-12.9493
▁پڪار	-12.9493
▁نوسي	-12.9497
▁Tak	-12.9502
صص	-12.9504
▁ڍو	-12.9505
▁clu	-12.951
▁قافي	-12.9512
MP	-12.952
▁tit	-12.9523
▁هارن	-12.9524
▁يسائ	-12.9525
▁تحط	-12.9525
xi	-12.9531
▁هٺ	-12.9537
▁افو	-12.9539
ڊيلا	-12.9541
▁ڪپي	-12.9544
کی	-12.9546
فيع	-12.9547
▁mas	-12.9548
▁رايه	-12.9554
▁حالم	-12.9557
▁تعقي	-12.9561
▁اوٻ	-12.9562
ul	-12.9563
▁İ	-12.9564
ux	-12.9565
▁far	-12.9567
▁Ke	-12.9573
AC	-12.9575
ايق	-12.9576
▁aa	-12.9577
▁ڪعب	-12.9577
▁ائيگ	-12.9579
▁برم	-12.9586
ב	-12.9596
راقب	-12.9598
مدح	-12.9602
ˇ	-12.9606
▁WHSR	-12.9606
▁نوكيا	-12.9606
▁رهز	-12.9607
▁File	-12.9607
▁rmo	-12.9607
▁Edit	-12.9608
▁نذاله	-12.9609
▁FX	-12.961
▁ورڳو	-12.961
▁چمچ	-12.961
▁رطوب	-12.9611
▁ڕ	-12.9611
▁ٕ	-12.9612
▁cust	-12.9613
▁fy	-12.9613
▁כ	-12.9613
▁ݪ	-12.9613
▁ملوكه	-12.9616
▁Gla	-12.9616
▁ۓ	-12.9617
▁غصو	-12.9617
▁قارچ	-12.9618
▁تردين	-12.9618
▁ڄاول	-12.962
▁يراڻي	-12.9621
▁amo	-12.9621
17	-12.9621
▁East	-12.9625
▁لقاء	-12.9626
ڪنڪ	-12.9626
▁105	-12.963
▁شراي	-12.963
▁اؤنڊ	-12.9631
▁ٺار	-12.9631
▁متر	-12.9636
▁مسڪ	-12.9637
▁لاز	-12.964
تمع	-12.964
▁پوئت	-12.9641
▁صاحي	-12.9643
▁حصر	-12.9645
▁ٱل	-12.9648
▁ڌوڏ	-12.965
4:	-12.9651
▁Zo	-12.9652
▁ٻِ	-12.9658
▁اهئ	-12.966
جهت	-12.9663
▁sia	-12.9663
▁1-3	-12.9665
▁رحيل	-12.9667
▁ٿا۔	-12.9675
▁نظوم	-12.9675
▁ڪيب	-12.9676
▁Cro	-12.9676
▁ku	-12.9679
▁scre	-12.9681
▁طلاب	-12.9682
eem	-12.969
▁فقهي	-12.9691
▁يشرو	-12.9692
90	-12.9697
▁آڙ	-12.9697
▁بشي	-12.97
ظيم	-12.97
▁thi	-12.9701
▁هدو	-12.9703
▁شترك	-12.9704
▁ڳيت	-12.9707
▁عڷ	-12.9715
ھاڙ	-12.9716
▁شَ	-12.9718
▁نيلا	-12.9719
قف	-12.9726
▁زئي	-12.973
▁جنڊ	-12.9734
▁ڊينس	-12.9735
▁ومل	-12.9735
هونگ	-12.9735
▁رجس	-12.9736
▁Ve	-12.974
نٹ	-12.9744
ڪام	-12.9746
▁بیک	-12.9748
نجه	-12.9752
▁ٽيٽو	-12.9753
▁ڇڄ	-12.9754
▁سڳ	-12.9756
▁pend	-12.9763
▁ٺڪاڻ	-12.9765
▁tar	-12.9765
▁وحش	-12.9766
▁هيرس	-12.9769
sco	-12.9772
نگز	-12.9773
▁ٽڪا	-12.9779
▁رائت	-12.978
▁Pet	-12.9783
OS	-12.9784
▁سڳي	-12.9786
رفع	-12.9796
▁نيک	-12.98
امي	-12.9806
▁حوز	-12.9809
▁ndi	-12.9809
▁Dia	-12.981
يص	-12.9812
▁وزو	-12.9814
ئڪ	-12.9815
حد	-12.9816
▁زارا	-12.9817
▁واڙ	-12.9819
ؤر	-12.982
▁Ko	-12.9821
زور	-12.9822
▁رزي	-12.9823
▁ٻيڻ	-12.9824
▁درين	-12.9824
▁tell	-12.9828
▁ترق	-12.9834
▁کمي	-12.9835
▁اونڌ	-12.9837
▁Hall	-12.984
ړه	-12.9844
▁ڇاڻي	-12.985
▁Jun	-12.9854
▁رسيم	-12.9857
▁HO	-12.9861
▁زينو	-12.9863
▁جهٽڪ	-12.9868
▁ڌل	-12.9868
▁ٽوپ	-12.9869
TS	-12.987
▁نقدي	-12.9873
▁thu	-12.9875
5%	-12.9876
بق	-12.9876
▁رآآ	-12.9881
▁ڳڀ	-12.9886
▁نونو	-12.9892
ولة	-12.9893
▁بريل	-12.9894
▁ارھ	-12.9895
▁ومان	-12.9896
ِک	-12.9903
▁سسي	-12.9904
▁سوري	-12.9905
▁Ver	-12.9908
▁اوپي	-12.9912
▁توت	-12.9913
▁stu	-12.9913
▁28.	-12.993
▁ناله	-12.9931
▁هنيه	-12.9932
▁زوز	-12.9936
▁ڪاڪو	-12.9939
▁ڌوت	-12.9939
▁tag	-12.9944
▁Blog	-12.9944
▁فيم	-12.9947
▁ڪينٽ	-12.9949
▁پڙي	-12.9949
SSD	-12.9951
اية	-12.9958
▁سجل	-12.9965
▁ھيڊ	-12.9966
▁نڊيم	-12.9967
▁گيگ	-12.9969
▁rg	-12.997
▁سلف	-12.9972
▁نگير	-12.9973
):	-12.9975
سول	-12.9977
▁يکار	-12.998
ڸ	-12.9984
▁نيوڪ	-12.9994
▁Yo	-12.9994
3:	-12.9994
▁ضيف	-12.9996
▁(4	-13.0001
▁قاري	-13.0002
emo	-13.0004
▁نتف	-13.0004
ٺار	-13.0007
▁ڪاما	-13.0015
▁رينگ	-13.0017
▁شرت	-13.0019
▁ربح	-13.0022
۸	-13.0029
▁Ju	-13.0032
▁ڳرا	-13.0033
▁لوك	-13.0038
▁gan	-13.0039
▁افزو	-13.004
▁عععع	-13.0041
¢	-13.0041
▁field	-13.0041
▁¤	-13.0041
▁LIN	-13.0042
▁Oct	-13.0042
آآآ	-13.0042
▁Swi	-13.0043
▁جتهد	-13.0043
▁Pix	-13.0043
▁ABS	-13.0043
اڀيا	-13.0043
▁❤️	-13.0043
▁صرآح	-13.0043
▁نيپچ	-13.0044
▁ω	-13.0045
▁خترع	-13.0045
▁Stra	-13.0045
▁QC	-13.0046
▁کنوڻ	-13.0047
▁آوي	-13.0047
▁هرڪا	-13.0049
▁ترانو	-13.0049
▁ڏڍ	-13.005
نھ	-13.005
▁cell	-13.005
▁حصلت	-13.0051
89	-13.0052
شاء	-13.0053
▁رموز	-13.0054
▁Best	-13.0054
▁ڤ	-13.0056
▁swi	-13.0057
▁cond	-13.0057
▁يشبه	-13.0057
▁key	-13.0059
▁GE	-13.006
▁109	-13.0061
▁ran	-13.0061
▁مساف	-13.0064
▁test	-13.0064
▁کوکر	-13.0064
▁رمانڊ	-13.0065
▁رواھ	-13.0065
▁127	-13.0065
▁دولا	-13.0067
▁هكڑ	-13.0069
▁قمة	-13.0069
sc	-13.0071
▁mor	-13.0072
▁cc	-13.0074
▁قڷ	-13.0074
▁ben	-13.0075
راض	-13.0076
▁تركيه	-13.0076
▁زيلا	-13.0077
▁ڪڏه	-13.0079
▁يركض	-13.0079
▁قاسي	-13.0081
▁ڇهڻ	-13.0084
▁Ci	-13.0084
▁طيف	-13.0085
▁سمٽ	-13.0087
▁قرون	-13.0088
▁Ita	-13.0089
um	-13.0092
▁قافلو	-13.0092
ak	-13.0093
▁45.	-13.0093
▁هبله	-13.0099
وڊس	-13.0099
▁نويد	-13.0103
▁ڏنگي	-13.0108
▁عرفش	-13.0108
▁رچي	-13.011
▁nia	-13.0111
ٻاٽ	-13.0112
▁ۑ	-13.0113
orm	-13.0113
▁بانيا	-13.0114
ائٽر	-13.0114
▁جهر	-13.0116
▁Whit	-13.0117
▁SU	-13.0118
▁Ads	-13.0118
▁تمر	-13.0119
▁ڀونڪ	-13.012
▁ڪلور	-13.0122
▁رويش	-13.0123
▁son	-13.0126
▁Cor	-13.0127
▁shop	-13.013
▁فراغ	-13.0132
▁ama	-13.0132
▁اسٽول	-13.0134
▁ME	-13.0142
مض	-13.015
پش	-13.0155
ابس	-13.016
ائم	-13.0161
▁ليڪو	-13.0162
طور	-13.0162
▁مزعج	-13.0162
▁Hell	-13.0167
▁هيدا	-13.0168
▁رنيل	-13.017
▁اسٽڪ	-13.017
/3	-13.0176
▁ڪکن	-13.0181
▁دوه	-13.0183
▁وسني	-13.0184
▁ٽانڪ	-13.0186
▁ٽِ	-13.0188
▁اونها	-13.0188
▁کاش	-13.0189
▁نتها	-13.0193
eal	-13.0194
▁رقيه	-13.0195
▁فرت	-13.0195
▁لينو	-13.0196
هاڻ	-13.0199
▁doo	-13.0199
▁اسلا	-13.0201
رزق	-13.0202
▁ٻاٽ	-13.0204
▁ٽنگي	-13.0204
▁Bo	-13.0209
▁PR	-13.021
▁non	-13.021
DE	-13.0214
▁جهوم	-13.0216
▁prop	-13.0223
▁sim	-13.0225
▁يرول	-13.0226
ڱڻ	-13.0234
▁اضم	-13.0236
تز	-13.0236
▁ٿاڦ	-13.024
▁Cou	-13.0241
انڈ	-13.0241
▁مظا	-13.0248
▁ينوس	-13.0253
▁Car	-13.0253
بينه	-13.0255
نڊر	-13.0255
▁شيلا	-13.0257
▁نٽن	-13.0258
▁نماڻ	-13.0272
▁طط	-13.0274
ut	-13.0275
▁ارمي	-13.0276
LL	-13.0277
▁Jul	-13.0279
▁سبا	-13.0281
▁موبا	-13.0282
▁ڊيني	-13.0283
▁پسن	-13.0288
▁Xp	-13.029
▁رايي	-13.0295
UT	-13.0295
وسا	-13.0301
شوڪ	-13.0306
13	-13.0309
▁هٽڻ	-13.0309
▁مرحب	-13.0311
سج	-13.0313
--	-13.0318
▁صص	-13.032
▁ٽنڊ	-13.0322
▁ساڙ	-13.033
▁اړ	-13.0333
▁توس	-13.0333
ye	-13.0341
▁غن	-13.0341
▁پنٽ	-13.0341
شور	-13.0346
▁SE	-13.035
ريء	-13.0351
▁هتر	-13.0352
▁حظي	-13.0354
▁scri	-13.0356
▁def	-13.0361
▁مياڻ	-13.0372
▁7)	-13.0372
حف	-13.0376
▁cri	-13.038
▁زيري	-13.038
▁Pol	-13.0382
▁GP	-13.0384
▁شوال	-13.0386
DC	-13.0389
▁نياد	-13.0394
▁ورك	-13.0396
▁نگها	-13.0397
▁قري	-13.04
▁ولول	-13.0411
▁رئو	-13.0415
▁هنجا	-13.0418
▁ھنگ	-13.0419
ڎه	-13.0422
▁زوي	-13.0422
GO	-13.0424
▁ورهي	-13.0426
▁دَ	-13.0428
▁gri	-13.0433
▁اميل	-13.0433
▁يچا	-13.0433
پور	-13.0434
▁dd	-13.0446
▁بصل	-13.0446
▁Tro	-13.0449
سويه	-13.045
▁يناد	-13.0451
كول	-13.0455
▁ويرا	-13.0457
▁ris	-13.0458
▁Af	-13.0462
▁ردت	-13.0464
▁درك	-13.0468
ہوت	-13.047
▁ڪِي	-13.0475
▁ورتھ	-13.0476
AL	-13.0476
▁SO	-13.0483
عع	-13.0483
и	-13.0484
٦	-13.0485
▁ريمي	-13.0486
ئة	-13.0492
α	-13.0496
▁نتباہ	-13.0496
▁(*)	-13.0496
▁لسلا	-13.0496
▁【	-13.0496
▁VPS	-13.0496
▁عتدل	-13.0497
▁غباء	-13.0497
▁پهڻ	-13.0497
▁tube	-13.0497
▁ساڌ	-13.0497
▁ION	-13.0497
▁آهٍ	-13.0499
▁Ye	-13.0499
سگ	-13.05
▁جيڪڏ	-13.0501
▁بلس	-13.0501
▁put	-13.0504
▁ڶ	-13.0504
▁ڸ	-13.0507
▁Step	-13.0507
▁مقاس	-13.0507
▁پرتاب	-13.0508
▁أحب	-13.0508
▁Acce	-13.0508
▁ڌوٻي	-13.0508
▁نجاح	-13.0512
▁3/	-13.0514
▁مثلث	-13.0515
▁يسار	-13.0516
▁Dra	-13.0517
▁mine	-13.0518
▁وديو	-13.0519
▁داتا	-13.0519
▁برات	-13.052
حب	-13.0521
hen	-13.0521
▁ڻايو	-13.0524
▁FA	-13.0524
▁نديء	-13.0525
▁رخي	-13.0527
▁pur	-13.0528
nt	-13.0529
▁گاڏو	-13.053
RT	-13.053
▁ضل	-13.053
▁رائين	-13.0533
▁تعلي	-13.0533
▁ملک	-13.0533
▁Wall	-13.0535
▁سمح	-13.0542
خط	-13.0544
▁تالي	-13.0547
▁همگ	-13.0549
▁سرس	-13.0549
▁دما	-13.0551
▁ڳڻيو	-13.0553
▁ڪاتب	-13.0553
▁OLE	-13.0555
TP	-13.0556
▁ڃائ	-13.0557
▁بهينه	-13.0557
▁Isl	-13.0557
▁منچ	-13.0562
▁ميڊي	-13.0562
▁Colo	-13.0563
▁موضو	-13.0564
▁برند	-13.0564
▁حصل	-13.0566
sca	-13.0567
▁آهک	-13.0568
▁ڪڵ	-13.0569
▁جدك	-13.0569
▁منتر	-13.057
▁ٻرڻ	-13.0572
▁درب	-13.0573
▁ضمن	-13.0575
▁قند	-13.0577
▁ten	-13.058
اکت	-13.058
▁uth	-13.0582
▁fini	-13.0583
▁CC	-13.0583
NA	-13.0584
▁کې	-13.0585
▁DC	-13.0586
▁هارس	-13.0586
▁ڀونگ	-13.0591
▁واڪي	-13.0593
▁منز	-13.0594
▁وراء	-13.0596
▁لميس	-13.0598
▁گراس	-13.0604
▁drop	-13.0605
▁ودك	-13.061
▁die	-13.0611
الم	-13.0614
▁لوط	-13.0619
▁bea	-13.0624
▁سنهي	-13.0624
▁وريك	-13.0625
GS	-13.0625
▁BS	-13.0628
▁گراه	-13.0633
▁روبل	-13.0635
▁رحا	-13.0636
NG	-13.0637
▁Han	-13.0637
▁حبة	-13.064
نڊوچ	-13.0641
▁ادار	-13.0646
▁رٽن	-13.0648
وآ	-13.0649
▁اڵ	-13.0649
▁جانو	-13.0653
▁TOP	-13.0658
▁chea	-13.0663
▁ڪلر	-13.0663
▁NAS	-13.0666
▁يٽو	-13.0672
▁أخر	-13.0676
▁Red	-13.068
حالي	-13.068
▁ڙها	-13.0682
▁Fre	-13.0685
▁Pin	-13.0687
▁who	-13.0702
دبر	-13.0703
▁شوخ	-13.0704
▁پلاس	-13.0705
▁هيکل	-13.0707
▁خفا	-13.0711
ٻا	-13.0712
▁FAT	-13.0712
▁ner	-13.0713
ذآ	-13.0721
نڊو	-13.0722
▁BB	-13.0725
جيك	-13.0726
▁سياس	-13.0726
▁اوڏا	-13.0728
▁قادر	-13.0733
▁ويلٽ	-13.0734
▁مسم	-13.0738
▁slee	-13.0738
▁llo	-13.0755
▁Mc	-13.0756
▁يلاد	-13.0763
غم	-13.0765
▁رينو	-13.0772
زان	-13.0773
▁بزم	-13.0776
▁IR	-13.0776
▁rac	-13.0779
ki	-13.0783
▁mid	-13.0784
ۈر	-13.0785
▁Syn	-13.0786
▁GH	-13.0789
ځ	-13.0793
يلة	-13.0796
▁PE	-13.0804
▁سونڪ	-13.0806
▁Par	-13.0807
▁48.	-13.0809
▁مريح	-13.0813
ثوم	-13.0814
▁مينه	-13.0831
▁يزعل	-13.0832
▁انكس	-13.0837
▁Tha	-13.0838
л	-13.0842
▁ڪھ	-13.0842
SA	-13.0844
▁dit	-13.0849
وک	-13.0849
روان	-13.0851
صاص	-13.0852
▁يالل	-13.0857
ونز	-13.0858
▁GL	-13.0858
▁ملل	-13.086
▁tr	-13.0862
▁اوڙا	-13.0865
▁ei	-13.0867
▁ڌنا	-13.0869
▁ثي	-13.087
▁ربل	-13.0873
ستقل	-13.0874
▁ھائ	-13.0875
▁ڪسٽ	-13.0876
▁Stat	-13.0882
▁١٠	-13.0882
▁فضي	-13.0882
ep	-13.0889
▁Ob	-13.0889
ڊور	-13.089
▁تظ	-13.0892
▁وفر	-13.0904
▁سمك	-13.0905
▁وولٽ	-13.0907
▁عاا	-13.0911
▁جھڪي	-13.0915
ڻج	-13.0917
واح	-13.0917
▁Ast	-13.092
▁ابتو	-13.0927
avi	-13.0929
CB	-13.0934
بور	-13.0934
▁dea	-13.0937
▁ڳور	-13.0941
▁ڏانھ	-13.0945
▁وتين	-13.0948
▁خول	-13.0953
▁قطري	-13.0953
▁لاها	-13.0953
ۀ	-13.0962
▁ربه	-13.0966
▁سيرا	-13.0966
ٚ	-13.0972
▁heart	-13.0972
▁افسر	-13.0972
▁روضه	-13.0972
▁﴿	-13.0972
▁UTC	-13.0973
▁💞	-13.0973
▁Tru	-13.0973
▁Find	-13.0973
▁Geo	-13.0973
▁pyr	-13.0974
▁نعوم	-13.0975
▁شھيد	-13.0975
▁••	-13.0975
▁Port	-13.0976
▁Arti	-13.0976
▁If	-13.0977
▁چوپڙا	-13.0979
▁ويلڊ	-13.0981
▁ووٽر	-13.0981
▁شفيق	-13.0982
▁پنڪ	-13.0982
آص	-13.0982
▁ۀ	-13.0982
▁يدل	-13.0983
▁دوخ	-13.0983
▁قوة	-13.0986
▁206	-13.0989
▁خالف	-13.0989
▁ٿڃ	-13.0989
▁ينجھر	-13.0993
▁dele	-13.0993
▁اعم	-13.0994
▁ورژ	-13.0997
▁ڪثير	-13.0998
▁عطور	-13.0999
▁ديال	-13.0999
▁nde	-13.0999
▁سادات	-13.1
▁عاجل	-13.1002
▁cert	-13.1004
▁نراس	-13.1005
▁بقه	-13.1005
▁ٻاوي	-13.1006
▁اكشن	-13.1011
▁لڇڻ	-13.1013
▁did	-13.1013
▁بڇ	-13.1014
▁Tam	-13.102
▁لهون	-13.1022
▁فرخ	-13.1029
fi	-13.103
▁آرس	-13.103
▁گورو	-13.1032
▁يکر	-13.1034
▁يڊيم	-13.1034
▁ٽٻ	-13.1034
ائی	-13.1035
▁آفس	-13.1036
▁دراك	-13.1037
▁خلك	-13.1037
▁طرق	-13.1037
▁ڳوڙھ	-13.104
▁ڪڍو	-13.104
▁Sec	-13.104
▁fit	-13.1041
▁til	-13.1044
▁حرک	-13.1047
▁گهلي	-13.1048
▁طائر	-13.105
▁تمهي	-13.1051
▁240	-13.1051
▁DS	-13.1054
رالي	-13.1057
▁نبوه	-13.1057
▁LE	-13.1061
▁lia	-13.1061
▁ڪوڏي	-13.1061
▁gna	-13.1064
▁فاش	-13.1065
▁منڌ	-13.1066
▁3.2	-13.1068
▁كپي	-13.1069
▁اٴ	-13.1069
▁مكر	-13.1071
قايق	-13.1073
▁وائڙ	-13.1077
▁VE	-13.1078
▁؛؛	-13.1079
▁تاتي	-13.108
ڪيم	-13.108
▁ٽائن	-13.1082
▁حبك	-13.1085
▁دوب	-13.1087
▁بانگ	-13.1089
یو	-13.109
▁ضدي	-13.109
▁انقا	-13.1093
تی	-13.1094
▁ارتي	-13.1095
▁ورٽي	-13.1097
▁حبش	-13.1097
ريم	-13.1097
قز	-13.1098
exy	-13.11
▁يبون	-13.1103
▁وينها	-13.1103
قويت	-13.1105
▁عفري	-13.1105
▁gar	-13.1106
▁رنڊي	-13.1107
▁ركت	-13.1109
▁پخت	-13.111
▁خمل	-13.1111
▁كلب	-13.1112
▁لينگ	-13.1113
ATA	-13.1119
▁tab	-13.1121
▁لونگ	-13.1121
▁ڏير	-13.1123
▁LO	-13.1124
▁Dec	-13.1124
ادة	-13.1124
▁مهاڻي	-13.1125
ڀي	-13.1128
▁ڳڀي	-13.1129
▁اباس	-13.113
▁ويهج	-13.1133
▁cer	-13.1135
مؤ	-13.1137
▁حكت	-13.114
▁SC	-13.1141
▁nel	-13.1142
رح	-13.1142
▁لعد	-13.1144
▁Hen	-13.1145
شين	-13.1146
▁يكه	-13.1151
▁Ol	-13.1153
▁پاٺ	-13.1164
▁گهان	-13.1167
▁اٿل	-13.1168
وی	-13.117
ٻن	-13.1171
▁NAD	-13.1172
▁گلڙ	-13.1178
▁سڳو	-13.118
▁درزي	-13.118
▁ذكي	-13.1182
▁نمت	-13.1184
▁DA	-13.1184
یمپ	-13.1187
قاص	-13.1189
▁نخر	-13.1194
▁ترحي	-13.1194
43	-13.1194
▁أأ	-13.1195
▁دمع	-13.1197
ائمر	-13.1197
▁ڏنڀ	-13.1198
ومة	-13.1202
بيرو	-13.1203
▁نكسر	-13.1207
▁gno	-13.1212
▁rub	-13.1215
▁متون	-13.1215
▁Mus	-13.1216
ايح	-13.1219
ينچر	-13.1225
▁Adj	-13.1228
▁زول	-13.1229
▁یو	-13.1235
▁هيڻ	-13.1238
▁گالي	-13.1238
▁علاو	-13.124
SP	-13.1241
▁شدم	-13.1245
▁سامر	-13.1247
▁grea	-13.1247
▁گچ	-13.125
▁وهيا	-13.125
ٽيڪٽ	-13.1254
▁ڪاني	-13.1259
▁مڙد	-13.1261
▁War	-13.1266
▁بنى	-13.127
▁سهان	-13.127
وية	-13.1272
▁مقاو	-13.1276
▁يفري	-13.1276
ايت	-13.1281
دينا	-13.1286
ڌاري	-13.1291
▁ذه	-13.1292
▁يريس	-13.1296
فيل	-13.1296
▁فضاي	-13.1297
▁bur	-13.1299
▁جهرڪ	-13.13
▁ھلو	-13.1303
▁pan	-13.1304
بوس	-13.1307
▁Sk	-13.1308
▁پوٽ	-13.1309
▁tim	-13.1314
▁gl	-13.1321
كوش	-13.1321
▁porn	-13.1323
MC	-13.1323
ome	-13.1324
▁فاس	-13.1324
▁ٽيچ	-13.1324
▁الاس	-13.1325
▁دعم	-13.1326
مري	-13.1333
وري	-13.1334
▁ريجن	-13.1338
راز	-13.1342
▁؛)	-13.1343
ويز	-13.1344
▁چتر	-13.1349
یپ	-13.1351
ہن	-13.1353
چا	-13.1354
▁وريس	-13.1357
▁دارس	-13.1358
▁aut	-13.1362
▁pet	-13.1362
▁چنچ	-13.1368
▁لمين	-13.1371
▁عيان	-13.138
▁گاما	-13.1382
▁حمار	-13.1388
▁شاک	-13.1389
▁ريجه	-13.1389
▁عزوم	-13.1395
▁ائيم	-13.1396
▁CAN	-13.1397
▁دبل	-13.1399
86	-13.14
68	-13.1401
▁گاڏ	-13.1401
▁نبيل	-13.1403
▁يلفي	-13.1404
▁درى	-13.1409
▁Rea	-13.1414
گرځ	-13.1416
▁لاف	-13.1417
▁كنه	-13.1417
▁قله	-13.1421
انڊا	-13.1423
عب	-13.1432
▁Yu	-13.1432
eep	-13.1434
▁كال	-13.1435
▁لهان	-13.144
▁جمان	-13.1443
▁bio	-13.1448
▁سٽين	-13.1452
CS	-13.1453
ارو	-13.1454
▁yal	-13.1457
▁ائست	-13.1458
•	-13.146
}	-13.1461
ڣ	-13.1462
٣	-13.1462
ol	-13.1465
▁ٽاس	-13.1466
▁40.	-13.1468
û	-13.1472
▁[3]	-13.1472
▁اجپوت	-13.1472
▁ولہو	-13.1472
▁foot	-13.1473
▁پژو	-13.1473
▁Bru	-13.1473
▁byte	-13.1473
▁SMS	-13.1473
ڻيا	-13.1473
▁gory	-13.1474
▁cro	-13.1474
▁كتيير	-13.1474
▁عشآن	-13.1476
▁صعب	-13.1476
▁گاو	-13.1476
▁ٺٺول	-13.1477
▁ساكن	-13.1478
▁rono	-13.1479
ړۍ	-13.1479
▁ٺڪيل	-13.1479
متحا	-13.1479
▁sex	-13.1479
▁dge	-13.148
▁لعاب	-13.148
▁صفق	-13.1483
▁Park	-13.1485
▁gur	-13.1486
▁ڌرڻا	-13.1486
▁oxi	-13.1489
▁ٽوئن	-13.1491
▁اهبل	-13.1492
▁نصح	-13.1492
hi	-13.1493
▁عشاء	-13.1495
▁ڏنم	-13.1495
▁بسوط	-13.1498
▁عرق	-13.1498
▁کالا	-13.1499
▁جروح	-13.1499
▁يمير	-13.1502
▁داؤ	-13.1503
▁ado	-13.1504
▁ععع	-13.1505
سال	-13.1505
▁ڌاڳ	-13.1505
▁mg	-13.1506
▁كتوب	-13.151
▁نض	-13.151
داك	-13.1513
▁rist	-13.1513
▁ينور	-13.1514
▁fre	-13.1515
▁ڏبو	-13.1517
▁oo	-13.1517
▁cel	-13.1521
▁Kod	-13.1522
▁ٺون	-13.1522
كين	-13.1523
▁ndo	-13.1526
▁ڦڙا	-13.1526
پڻي	-13.1528
▁بنيو	-13.1531
▁انستا	-13.1534
▁ٺٺ	-13.1534
▁Ge	-13.1538
▁PRO	-13.1541
نچ	-13.1542
▁سوپر	-13.1543
▁بسيج	-13.1544
آڪ	-13.1544
▁BT	-13.1548
▁مشو	-13.1549
▁102	-13.1549
▁118	-13.1549
▁جی	-13.1556
▁روميو	-13.1558
نډ	-13.156
▁وراس	-13.156
▁نصيح	-13.1563
ركت	-13.1564
▁نخل	-13.1565
▁بيچل	-13.1566
▁دبه	-13.1566
▁ريزم	-13.157
▁شاع	-13.157
▁فرس	-13.1571
راف	-13.1576
▁چٽڻ	-13.1582
▁إلي	-13.1582
▁کتل	-13.1583
خبط	-13.1585
▁tend	-13.1586
َٽ	-13.159
▁اقوم	-13.159
چيلس	-13.1591
۷	-13.1595
▁نائڪ	-13.1596
▁Sto	-13.1598
▁خلاء	-13.1598
▁هيدر	-13.1605
ٻو	-13.1609
weet	-13.1609
▁ڌام	-13.1611
هڑ	-13.1613
▁کنن	-13.1614
▁وينٽ	-13.1615
▁blog	-13.1616
▁ترش	-13.1617
كير	-13.1619
▁گيل	-13.162
▁كرد	-13.1621
▁ازال	-13.1629
CP	-13.1633
▁شوم	-13.1635
▁ویب	-13.1635
▁يزنه	-13.1641
us	-13.1641
▁ينجل	-13.1642
▁حفل	-13.1647
دك	-13.1649
33	-13.1652
باد	-13.1652
ريش	-13.1656
يڪو	-13.1656
گره	-13.1656
▁HTT	-13.1658
▁38.	-13.1659
▁عمير	-13.1662
▁ریز	-13.1663
OQ	-13.1663
ايش	-13.1669
▁هيپ	-13.1669
▁اونھ	-13.1672
▁حة	-13.1676
▁ڇهو	-13.1679
▁مسج	-13.168
▁ائزر	-13.1681
▁اريء	-13.1686
▁برڊ	-13.1686
▁سڙڻ	-13.1688
▁ڌوئ	-13.1689
رځ	-13.1691
هوء	-13.1692
▁مکس	-13.1695
▁mus	-13.1697
▁همير	-13.1703
ټر	-13.1706
▁64.	-13.1709
▁الپڻ	-13.1709
بيه	-13.1714
TF	-13.172
▁Cit	-13.172
گوا	-13.1722
▁بٽن	-13.1724
سوا	-13.1724
▁رمزي	-13.1725
▁(5	-13.1741
▁ger	-13.1741
▁ڊيف	-13.1743
▁خاط	-13.1743
▁إم	-13.1748
صيص	-13.1751
▁يمال	-13.1755
قيه	-13.1756
▁Ku	-13.1757
▁Tia	-13.1761
▁Nor	-13.1762
▁tz	-13.1766
▁شمل	-13.177
▁نارن	-13.1777
▁mu	-13.178
▁(:	-13.1784
▁kit	-13.1788
کار	-13.1789
▁کام	-13.1794
▁مخي	-13.1794
▁ton	-13.1802
▁قصف	-13.1804
▁يريو	-13.1812
EN	-13.1812
▁آهآ	-13.1817
▁Ada	-13.182
96	-13.1824
▁مرک	-13.1827
FO	-13.1831
▁نحب	-13.1832
مول	-13.1832
EY	-13.1834
▁den	-13.1837
▁See	-13.1838
▁گوگ	-13.1847
▁بڻب	-13.1847
▁مهري	-13.1854
▁چنا	-13.1857
▁Tel	-13.1859
بوٽ	-13.186
▁ngo	-13.186
▁رهائ	-13.1861
▁nch	-13.1862
اٻو	-13.1862
▁نطر	-13.1865
EL	-13.1865
ووا	-13.1868
▁سرح	-13.1868
صر	-13.1869
آطر	-13.1874
▁ريڪن	-13.1881
▁SR	-13.1884
▁هنوف	-13.1887
▁fon	-13.1889
▁rot	-13.1889
▁ڀنڀ	-13.1889
HS	-13.1892
▁گهات	-13.1896
▁ليوس	-13.1897
▁يڊيڪ	-13.1899
▁شوك	-13.1904
▁پنهن	-13.1908
▁Her	-13.1915
▁fri	-13.1916
▁چې	-13.1916
▁دراس	-13.192
▁يليل	-13.192
ناك	-13.1922
▁يروم	-13.1925
▁ڏول	-13.193
▁يزد	-13.1932
شترا	-13.1936
▁گهل	-13.1936
31	-13.1938
▁سسم	-13.1938
▁صحا	-13.194
▁حاط	-13.1945
▁ورني	-13.1948
ليز	-13.1949
▁Sen	-13.195
▁PO	-13.1951
▁راپ	-13.1953
▁منگه	-13.1961
▁رڌي	-13.1963
▁bat	-13.1965
▁وينت	-13.1969
▁Ep	-13.197
▁$1	-13.1974
صيح	-13.1976
▁پورت	-13.1979
▁Eas	-13.198
ليپ	-13.1984
تے	-13.1985
▁عله	-13.1985
هداء	-13.1987
м	-13.1988
٩	-13.1988
à	-13.1988
▁هزر	-13.1989
WS	-13.199
▁ثقاف	-13.1991
▁فاز	-13.1998
▁*_*	-13.1998
▁DVD	-13.1998
▁څخه	-13.1998
▁صنايع	-13.1998
▁قنڌار	-13.1998
▁Smar	-13.1998
▁Phone	-13.1998
▁خلآص	-13.1998
▁فإن	-13.1999
▁¦	-13.1999
▁¿	-13.1999
▁PLC	-13.1999
▁اعز	-13.1999
▁وآحد	-13.1999
▁عتياد	-13.1999
▁ई	-13.1999
▁☆	-13.1999
▁فطوم	-13.1999
▁Bund	-13.1999
▁وإن	-13.2
▁】	-13.2
▁~~	-13.2
▁ए	-13.2
▁نڊروم	-13.2001
▁جرائم	-13.2003
▁حواء	-13.2004
▁مولود	-13.2004
▁وتري	-13.2004
▁Ava	-13.2005
▁ائفل	-13.2006
▁Rose	-13.2007
▁روضي	-13.2007
▁XL	-13.2008
▁خندق	-13.2009
▁dex	-13.2009
▁Sub	-13.201
▁هورا	-13.2011
▁هٻڪي	-13.2011
▁Disp	-13.2012
▁خبير	-13.2014
▁ناطق	-13.2015
يٿرو	-13.2016
▁HI	-13.2018
▁گہرا	-13.2018
▁رمض	-13.2019
▁رائم	-13.2019
▁Spa	-13.2019
▁ساڃ	-13.2019
اٽا	-13.202
▁آأإ	-13.202
▁ثريت	-13.2021
▁جراء	-13.2021
▁hua	-13.2023
▁لومڙ	-13.2023
قى	-13.2024
▁تخبل	-13.2025
▁ڪسے	-13.2026
▁زبر	-13.2028
▁سهام	-13.2029
▁حظك	-13.2029
▁نلڪي	-13.2032
▁نمو	-13.2032
▁وڀ	-13.2034
ڙپ	-13.2034
▁lly	-13.2034
ju	-13.2035
▁ڦڙو	-13.2037
▁خصائ	-13.204
▁190	-13.204
▁كريم	-13.2043
▁اوڏو	-13.2044
▁123	-13.2045
▁سوڍو	-13.2046
▁هينگر	-13.2047
▁جھلڪ	-13.2048
▁Avi	-13.2048
▁styl	-13.205
▁وكيل	-13.2052
▁غرام	-13.2052
▁سحلي	-13.2052
▁101	-13.206
هميه	-13.2061
موض	-13.2063
▁مههن	-13.2064
▁زمير	-13.2065
▁تفتي	-13.2066
▁نائيڪ	-13.2067
بخ	-13.2067
▁حطي	-13.2068
▁لیک	-13.207
▁نبذ	-13.2071
▁see	-13.2072
▁خاك	-13.2076
▁fau	-13.2076
عم	-13.2077
وَ	-13.2077
▁سقف	-13.2078
▁النا	-13.208
▁انيد	-13.208
▁اشهر	-13.2081
▁عدس	-13.2085
▁nz	-13.2086
ظفر	-13.2089
▁آڛ	-13.2093
▁Get	-13.2093
▁ٽيوٽ	-13.2094
▁دوان	-13.2102
▁plor	-13.2104
▁پستو	-13.2107
▁Via	-13.2108
▁med	-13.2109
▁مقاص	-13.2115
▁ريلو	-13.2116
▁سراء	-13.2119
▁شٽر	-13.2119
▁pad	-13.2119
عود	-13.212
▁كنن	-13.2121
▁نهايه	-13.2122
▁ھے	-13.2122
۹	-13.2124
▁bb	-13.2125
▁HR	-13.2127
▁سيسي	-13.2127
آره	-13.213
▁ٽوٽي	-13.2133
▁سنان	-13.2134
پڪو	-13.2136
▁رشا	-13.2137
▁نشب	-13.2138
▁ai	-13.2138
▁ٿي۔	-13.2139
▁هتل	-13.2144
▁گهاٽا	-13.2146
▁ڪينو	-13.215
▁قض	-13.215
▁لاند	-13.2154
▁بيگل	-13.2156
▁Vol	-13.2156
▁خذي	-13.2158
▁کیا	-13.2162
▁شيم	-13.2164
▁ردود	-13.2167
▁هيڪلي	-13.2168
ڎ	-13.2174
▁مگن	-13.2175
▁آجر	-13.2176
▁رمون	-13.2178
▁-2	-13.2179
▁GR	-13.2181
هدى	-13.2184
ili	-13.2185
▁۱۸	-13.2187
▁نڊيا	-13.2189
▁nyl	-13.22
▁ستات	-13.2201
جم	-13.2203
▁هيڊي	-13.2204
▁Pers	-13.2206
▁هياري	-13.2206
▁شكو	-13.2206
▁اليز	-13.2207
▁چاچ	-13.221
▁ٽانگ	-13.2214
یے	-13.2218
▁now	-13.222
▁ert	-13.2221
▁nok	-13.2222
▁زنم	-13.2223
▁نوال	-13.2229
▁Hal	-13.2229
هآ	-13.223
پسٽ	-13.223
▁CAD	-13.2232
▁Doc	-13.2234
▁متلي	-13.2238
▁Bel	-13.2238
▁وجب	-13.2243
▁يڙا	-13.2243
OO	-13.2246
▁Hy	-13.2248
▁آوا	-13.2249
▁اسهل	-13.2259
▁07	-13.2261
ڊٽ	-13.2268
▁flo	-13.2269
PM	-13.2273
▁اينٽ	-13.2288
▁سامو	-13.2294
هٺ	-13.2297
▁دادم	-13.2298
▁she	-13.2302
▁VA	-13.2303
▁بالٽ	-13.2308
▁ارڪٽ	-13.2312
▁نيرا	-13.2314
▁ken	-13.2321
ens	-13.2322
3-	-13.2322
▁بدهي	-13.2322
▁نزن	-13.2326
▁نبري	-13.2332
▁ينگل	-13.234
▁dar	-13.2348
▁هيلس	-13.2356
زنگ	-13.2358
jo	-13.2359
ضم	-13.2363
▁ليپر	-13.2365
▁Rev	-13.2374
▁سيمو	-13.2379
▁قس	-13.2382
أأأأ	-13.2382
▁ستت	-13.2386
▁هنجو	-13.2387
▁زدا	-13.2393
ja	-13.2396
بز	-13.2398
▁هی	-13.24
واد	-13.2405
أت	-13.2405
مار	-13.241
▁گیم	-13.2411
▁8,	-13.2417
په	-13.2424
▁فلي	-13.2429
▁هيار	-13.2432
▁يكو	-13.2434
▁NY	-13.2435
▁سحب	-13.2435
▁چوک	-13.2438
▁wel	-13.2442
▁ree	-13.2442
یلی	-13.2442
▁تعوي	-13.2443
▁-1	-13.2443
▁راڙ	-13.2444
آط	-13.2451
▁ويک	-13.2455
▁TS	-13.2462
▁Neo	-13.2464
▁NA	-13.2464
▁ڀيد	-13.2465
▁هرات	-13.247
▁رينٽ	-13.2473
ddi	-13.2484
▁لوڀ	-13.2487
▁Er	-13.2487
ووك	-13.2489
▁سنگه	-13.2493
▁شيڊ	-13.2493
▁ديمي	-13.2496
ظل	-13.2497
▁مهڙ	-13.2503
ure	-13.2505
▁SI	-13.2505
▁خآل	-13.2508
▁($	-13.2511
زح	-13.2516
▁1'	-13.2518
ڍار	-13.2524
▁ارڪي	-13.2526
▁ينڊل	-13.2535
▁Por	-13.2538
ddy	-13.2541
▁صاد	-13.2543
٨	-13.2543
ࢪ	-13.2543
ڶ	-13.2544
ۉ	-13.2544
▁IME	-13.2544
←	-13.2544
ā	-13.2547
▁جھڳ	-13.2549
ابيط	-13.2551
▁SF	-13.2551
च	-13.2554
⇄	-13.2554
─	-13.2554
▁تڀيد	-13.2554
▁تثلي	-13.2554
▁Ubu	-13.2554
▁Love	-13.2554
▁نصه	-13.2554
▁ضامين	-13.2554
▁PHP	-13.2554
▁حریف	-13.2554
▁غياب	-13.2554
▁ڪرتوت	-13.2555
▁ؿ	-13.2555
▁Our	-13.2555
▁خابر	-13.2555
▁هزاع	-13.2555
▁PER	-13.2555
▁ححححح	-13.2555
▁Real	-13.2556
▁﴾	-13.2556
▁قنديل	-13.2557
▁تنبيه	-13.2557
▁حبايب	-13.2557
▁بيونل	-13.2557
▁ڪوني	-13.2557
▁sale	-13.2558
▁نائن	-13.2558
▁شاكسه	-13.2559
▁stop	-13.256
▁اخد	-13.256
▁نثى	-13.2561
▁Fri	-13.2561
▁نسٹا	-13.2561
▁fab	-13.2562
▁IOS	-13.2564
▁ࢪ	-13.2564
▁ولوژ	-13.2564
وڙھ	-13.2565
▁surp	-13.2567
▁nua	-13.2567
ORD	-13.2569
▁ڱورجا	-13.2572
▁پھچ	-13.2572
▁شهود	-13.2573
▁Gb	-13.2573
▁ھيڪل	-13.2574
▁107	-13.2575
▁شراء	-13.2577
▁واژ	-13.258
▁فطور	-13.258
▁لوفر	-13.2581
▁git	-13.2581
▁يگول	-13.2581
▁Tv	-13.2582
شک	-13.2582
▁sep	-13.2589
▁عاصي	-13.259
نبال	-13.2594
▁280	-13.2595
▁ndy	-13.2597
ابا	-13.2598
فى	-13.2599
▁عشره	-13.2601
اطر	-13.2606
▁قصير	-13.2608
▁خاک	-13.2608
وظ	-13.2608
▁Tea	-13.2612
▁كجا	-13.2612
▁اوکي	-13.2613
74	-13.2613
جھر	-13.2617
▁RM	-13.262
اے	-13.2621
غبى	-13.2622
ليف	-13.2626
▁عدال	-13.2626
▁Cant	-13.2629
▁ورانا	-13.2629
▁دشت	-13.2629
41	-13.263
ترا	-13.263
▁رٽي	-13.2634
▁50.	-13.2635
▁دهد	-13.2635
▁نحس	-13.2637
▁زيي	-13.2641
▁ڊنو	-13.2641
▁ثن	-13.2642
▁115	-13.2643
▁نهرو	-13.2643
▁ڌڪار	-13.2643
▁أبي	-13.2646
ضر	-13.2647
▁Att	-13.2648
ARS	-13.2655
▁IA	-13.2661
▁اودي	-13.2663
▁ڊاگ	-13.2665
▁ڪٺن	-13.2665
▁نصائ	-13.2668
▁دارڪ	-13.2673
lc	-13.2674
▁Med	-13.2677
▁ڊومي	-13.2679
▁pec	-13.2679
▁ستري	-13.268
▁اوف	-13.2684
MI	-13.2686
▁الحي	-13.2688
▁آحد	-13.2688
ليس	-13.2691
▁ېر	-13.2695
▁ٿاڻو	-13.2695
▁همچ	-13.2696
▁سبع	-13.2697
رڊ	-13.27
پيٽ	-13.2702
▁هنما	-13.2706
▁ڊيلي	-13.2708
▁ڪامپ	-13.2709
▁حبوب	-13.2711
▁يزرو	-13.2711
▁bou	-13.2711
▁بخل	-13.2713
▁هرک	-13.2724
ڍو	-13.2724
▁اڻيج	-13.2725
▁سنو	-13.2725
▁Shi	-13.2727
▁Ig	-13.2727
▁اوڍي	-13.2732
▁forc	-13.2732
▁دوها	-13.2737
عو	-13.2738
▁ديک	-13.2738
▁هاش	-13.2744
▁ڏون	-13.2746
حش	-13.275
PY	-13.2752
روف	-13.2757
▁رآس	-13.2758
▁Adam	-13.276
▁ويك	-13.2763
▁اڀي	-13.2766
▁پٿ	-13.2773
▁اودا	-13.2774
▁ڻاي	-13.2776
23	-13.2777
▁مروت	-13.278
▁قدس	-13.2782
▁lid	-13.2782
fu	-13.2789
نڱ	-13.2789
قيت	-13.2789
▁جهود	-13.2789
ذب	-13.279
88	-13.2793
▁هۈ	-13.2799
▁گئر	-13.28
▁nar	-13.2801
▁مونڊ	-13.2801
▁Boo	-13.2802
كور	-13.2803
▁ساهر	-13.2807
▁Cho	-13.2807
▁ولينا	-13.2808
▁ورڪس	-13.2809
آآن	-13.281
EE	-13.2813
طت	-13.282
ult	-13.283
▁رسيل	-13.2833
▁rin	-13.2839
▁ايک	-13.2839
▁Del	-13.284
▁سھي	-13.2842
▁روك	-13.2842
OR	-13.2846
▁يوٽر	-13.2847
▁تنت	-13.2854
▁ھوم	-13.2858
▁بی	-13.2862
▁Mat	-13.2863
▁اريک	-13.2863
▁هيگ	-13.2864
▁IE	-13.2864
جاز	-13.2864
▁ريست	-13.2867
▁AB	-13.2873
▁زعلي	-13.2875
▁نانڪ	-13.2876
▁ريوس	-13.2876
▁باشر	-13.2877
▁ټر	-13.2879
ئج	-13.2886
AO	-13.2889
▁ايڪر	-13.2892
▁هيمو	-13.2892
▁#3	-13.2894
ڪاش	-13.2902
▁رينس	-13.2903
▁llu	-13.2905
▁ياسو	-13.2907
▁شريت	-13.2909
ڪيز	-13.2917
▁هداي	-13.2924
▁ٽڪن	-13.2928
▁سٽيل	-13.293
▁سنگر	-13.293
▁خبا	-13.2931
▁الک	-13.2942
▁ham	-13.2942
▁ٽوٽ	-13.2943
▁جمال	-13.2944
▁HB	-13.2944
▁رآآآ	-13.2947
▁دهند	-13.2954
▁لوف	-13.2962
▁نمر	-13.2967
▁نعا	-13.2969
ضى	-13.2974
▁ٻک	-13.2977
▁آڪٽ	-13.2978
▁pen	-13.2987
▁سارم	-13.2988
▁نيمه	-13.2993
▁ببر	-13.2997
▁Cin	-13.2998
▁لفر	-13.3001
ٽبال	-13.3002
▁Gre	-13.3005
▁spa	-13.3007
▁تريل	-13.3009
▁حبس	-13.301
افل	-13.3011
قضي	-13.3011
▁كامي	-13.3012
کل	-13.3017
▁fun	-13.3024
ms	-13.3033
باك	-13.3036
▁تہه	-13.3041
▁hel	-13.3045
▁يخي	-13.3051
DI	-13.3052
▁ينڪن	-13.3063
▁ملی	-13.3064
HT	-13.3065
▁ap	-13.3068
▁Wea	-13.3071
يږ	-13.3072
ذل	-13.3079
▁يروس	-13.3079
▁فوف	-13.3081
▁sol	-13.309
قام	-13.3095
ګر	-13.3096
▁SH	-13.3098
▁حده	-13.3098
▁بوک	-13.3105
▁سڪڻ	-13.3106
▁ساؤ	-13.3107
▁لحق	-13.3109
PO	-13.3113
▁ڀوتا	-13.3115
▁عااد	-13.3119
ميه	-13.3122
لاق	-13.3131
ٖ	-13.3132
▁ائيب	-13.3134
▁ڊاڪٽ	-13.3135
سڪو	-13.3138
▁cam	-13.314
▁¬	-13.3141
ण	-13.3142
■	-13.3142
▁حازم	-13.3142
▁څو	-13.3143
▁girl	-13.3143
▁نزديک	-13.3143
▁WTT	-13.3143
▁City	-13.3143
▁اطراف	-13.3143
▁گجگ	-13.3143
▁رانس	-13.3144
▁job	-13.3144
▁‐	-13.3144
▁جدید	-13.3144
▁nho	-13.3144
▁dem	-13.3145
▁عركه	-13.3145
▁حكام	-13.3146
▁Cry	-13.3147
▁نچوڙ	-13.3147
▁جګړه	-13.3147
▁قراء	-13.3148
▁lysi	-13.3148
▁ينگلس	-13.315
▁پنڇ	-13.3151
▁صمد	-13.3151
▁پٻ	-13.3152
▁Det	-13.3152
▁Now	-13.3152
▁تسوم	-13.3153
▁غصه	-13.3153
▁کاهي	-13.3158
▁يريم	-13.316
▁مرغ	-13.316
▁head	-13.316
▁جهڪڻ	-13.3161
▁نتقم	-13.3162
▁BI	-13.3164
▁داوم	-13.3164
▁ريحت	-13.3164
▁قياف	-13.3166
OC	-13.3166
▁لاؤ	-13.3169
▁pha	-13.3169
▁کؤن	-13.317
▁داران	-13.317
▁فطست	-13.3171
▁حمر	-13.3172
▁فلوٽ	-13.3172
▁شترک	-13.3174
▁فاجئ	-13.3176
▁ھيء	-13.3178
49	-13.3179
يوم	-13.3179
▁136	-13.318
▁بدوش	-13.3182
▁نيلون	-13.3182
▁بأي	-13.3183
▁Jin	-13.3183
▁يحس	-13.3184
▁ذاك	-13.3186
▁جهڏ	-13.3188
اليھ	-13.319
▁هئه	-13.3191
▁فاطس	-13.3193
▁ڪث	-13.3193
▁لؤي	-13.3194
▁Ky	-13.3197
▁أك	-13.3197
▁هڳ	-13.3198
▁عتاب	-13.3198
▁هيڪلو	-13.32
▁113	-13.32
▁Atl	-13.3203
▁اوبر	-13.3203
▁ولې	-13.3205
▁فوڪ	-13.3206
لحق	-13.3207
▁يسال	-13.3212
▁114	-13.3214
▁سٹ	-13.3215
▁ڍال	-13.3215
اقد	-13.3218
32	-13.3219
▁وائک	-13.3221
▁يويا	-13.3222
▁الٽو	-13.3223
▁زبي	-13.3224
▁هې	-13.3224
▁رفا	-13.3225
▁لازا	-13.3225
▁پچر	-13.3226
▁Chi	-13.3227
▁شنب	-13.3229
▁ليٿ	-13.3232
▁5,	-13.3235
▁ٽرنڪ	-13.3236
وووق	-13.3238
▁تقلد	-13.3239
غام	-13.324
▁KW	-13.324
▁قفل	-13.3241
▁ڪيمر	-13.3241
▁lit	-13.3242
▁ٺوڪي	-13.3243
▁کسڻ	-13.3245
▁Pra	-13.3247
▁نذل	-13.3248
سهل	-13.3248
ero	-13.3252
▁نشون	-13.3256
▁روگ	-13.3256
▁طراح	-13.326
▁كوري	-13.3263
▁ھَ	-13.3263
▁کمان	-13.3266
زاز	-13.327
▁ينء	-13.3271
AR	-13.3275
▁لاوه	-13.3277
▁ڑ	-13.3278
▁نشد	-13.3279
▁يوجد	-13.328
▁بروس	-13.3281
▁ٺھي	-13.3283
▁اوڻي	-13.3285
▁Ox	-13.3288
▁ريبا	-13.3292
جات	-13.3293
▁واهڻ	-13.3295
▁حارب	-13.3295
▁نكب	-13.3298
مط	-13.33
▁تاڪ	-13.3301
▁gat	-13.3301
▁prev	-13.3307
▁طعم	-13.3308
▁spe	-13.3309
▁LY	-13.331
▁Dom	-13.331
pg	-13.3312
▁لهام	-13.3313
▁غيور	-13.3315
آنه	-13.332
▁الوان	-13.3323
▁رنسس	-13.3326
▁وڪار	-13.3327
▁وزان	-13.333
▁سهري	-13.333
▁rib	-13.3331
▁Ser	-13.3334
▁تنح	-13.3338
پوٽ	-13.3346
▁آجا	-13.3347
▁اتلي	-13.3352
▁هرکي	-13.3353
▁hoo	-13.3355
▁رائن	-13.336
▁ونديل	-13.3361
▁هيگل	-13.3364
▁بچا	-13.3367
▁نمی	-13.3369
▁ستف	-13.337
كب	-13.3372
▁ڌير	-13.3373
uri	-13.3377
▁هدول	-13.3379
ٿيو	-13.338
▁كنم	-13.3382
▁يهز	-13.3382
▁هيما	-13.3384
▁خطو	-13.3388
▁داٻ	-13.339
▁هووا	-13.3395
▁Fir	-13.3397
▁صط	-13.3398
▁اوڍ	-13.3402
▁نقض	-13.3409
▁زوار	-13.341
▁ڊيمي	-13.3411
▁ڃو	-13.3413
44	-13.3415
▁Alp	-13.3417
65	-13.3421
چچ	-13.3424
طوا	-13.3424
▁کرو	-13.3427
▁سعو	-13.3434
▁occ	-13.3434
▁پُڇ	-13.3437
▁وليٽ	-13.3438
HF	-13.3438
▁زيڊ	-13.3438
▁Lol	-13.344
▁شڪيل	-13.344
سٹر	-13.3441
▁Hea	-13.3443
lm	-13.3444
▁رغب	-13.3445
ڪلف	-13.3445
1-	-13.3451
▁dal	-13.3452
52	-13.3457
▁سٽسٽ	-13.3458
فاف	-13.3462
▁لئٽ	-13.3465
▁نينٽ	-13.3468
▁wai	-13.3468
▁نداس	-13.3469
▁Sem	-13.3471
▁يجب	-13.3474
ويھ	-13.3478
▁وې	-13.3489
WD	-13.349
سسه	-13.349
▁سوگ	-13.3491
▁Fli	-13.3493
▁FI	-13.3493
▁بھي	-13.35
بيل	-13.3502
▁نقي	-13.3504
▁Jos	-13.3505
▁چوم	-13.3509
▁clud	-13.351
▁glo	-13.3512
▁زيپ	-13.3514
زير	-13.3515
▁Zen	-13.3516
▁اپت	-13.3517
ورڊ	-13.3518
حاش	-13.3519
▁ورٽو	-13.3522
▁Sim	-13.3522
▁AT	-13.3532
▁ژو	-13.3533
▁وژ	-13.3533
▁GS	-13.3536
▁AN	-13.3537
6-	-13.354
▁توپي	-13.355
▁ونږ	-13.3551
كاف	-13.3564
BS	-13.3566
▁نمڪ	-13.3569
▁ريك	-13.3571
▁واڪو	-13.3572
▁وڪلي	-13.3574
هة	-13.3581
▁ٿڻ	-13.3584
▁سكه	-13.3586
▁مليت	-13.3589
▁ڪزن	-13.3591
▁ئونس	-13.3595
▁وكال	-13.3595
▁عليم	-13.3598
▁ححح	-13.36
▁نكس	-13.3602
▁کوه	-13.3603
eri	-13.3608
▁هارپ	-13.3608
گلي	-13.3609
▁ناپ	-13.3609
▁عفو	-13.3613
▁Ope	-13.3615
▁ينزو	-13.3617
سٹ	-13.3617
▁ايرا	-13.3624
▁سپس	-13.3627
▁صحح	-13.3628
▁معز	-13.3629
پپ	-13.3631
▁فزت	-13.3635
▁چيچ	-13.3636
▁کہ	-13.3637
▁تضح	-13.3643
ارة	-13.3644
▁وديا	-13.3646
▁ورمي	-13.3647
▁راسي	-13.3654
LM	-13.3655
yle	-13.3658
▁Cut	-13.3659
قيم	-13.3663
▁قاله	-13.3668
▁إس	-13.3669
▁ويڻ	-13.3672
▁جهاد	-13.3673
دير	-13.3676
صاف	-13.3678
▁اسل	-13.3688
▁حبو	-13.3693
▁وعن	-13.3693
our	-13.3697
▁UL	-13.3698
▁براء	-13.37
▁Pea	-13.3701
▁رتح	-13.3705
▁hol	-13.3706
▁ٽيٽي	-13.3707
▁ابك	-13.3708
▁ڇڳ	-13.3709
اڊ	-13.3712
قعد	-13.3713
▁واله	-13.3713
▁Non	-13.3717
ابت	-13.372
ائد	-13.3723
ءِ	-13.3724
▁اكو	-13.3725
▁يوپ	-13.3727
▁ל	-13.3728
▁تحري	-13.373
▁جلو	-13.373
▁ite	-13.3731
▁يخص	-13.3734
خص	-13.3739
کم	-13.375
е	-13.3753
36	-13.3754
▁تاكد	-13.3755
💔	-13.3756
est	-13.3758
ای	-13.3759
▁شويا	-13.3766
ركز	-13.3766
▁ايبي	-13.3766
▁blu	-13.3767
у	-13.3767
ο	-13.3767
ؽ	-13.3767
फ	-13.3767
▁ٻانڀڻ	-13.3767
菜	-13.3767
▁Adobe	-13.3767
▁خبيث	-13.3767
▁DNS	-13.3767
▁GMT	-13.3767
▁piec	-13.3767
▁CRM	-13.3768
▁فظيع	-13.3768
▁humi	-13.3768
▁قليله	-13.3768
▁ڊيگ	-13.3768
▁PVC	-13.3768
▁DHL	-13.3768
▁واؤچ	-13.3768
▁انقرا	-13.3768
▁β	-13.3768
▁green	-13.3768
▁آإآإ	-13.3768
▁pass	-13.3768
▁نجحت	-13.3769
▁GBP	-13.3769
▁عوافي	-13.3769
▁gue	-13.3769
▁μ	-13.3769
▁Of	-13.3769
▁سرتاج	-13.3769
▁scen	-13.377
▁><"	-13.377
▁عقيل	-13.377
▁Remo	-13.3771
▁٭	-13.3771
▁👍	-13.3771
▁Astr	-13.3771
▁Jet	-13.3773
▁جهجه	-13.3773
▁زوڪي	-13.3774
▁دايخ	-13.3774
تہ	-13.3776
SH	-13.3776
▁مرتين	-13.3776
▁roll	-13.3777
▁Calc	-13.3779
▁بعث	-13.3781
▁خضر	-13.3782
▁ردگي	-13.3783
▁قصيره	-13.3785
▁يقال	-13.3786
▁ç	-13.3787
▁بکن	-13.3787
▁demo	-13.3789
▁ڀَر	-13.3789
▁Heb	-13.3789
▁self	-13.3789
▁TE	-13.3791
▁نيوٽ	-13.3792
▁حره	-13.3792
▁ظهري	-13.3794
▁وٿاڻ	-13.3794
▁Ag	-13.3794
▁Kit	-13.3795
▁حنف	-13.3797
▁WHO	-13.3798
▁نشبه	-13.3798
▁ديث	-13.38
▁coa	-13.38
▁ريخته	-13.3802
▁ساوڻ	-13.3803
▁tha	-13.3806
▁ڱو	-13.3806
▁ديمة	-13.3807
ۈم	-13.3807
0+	-13.3807
dia	-13.3808
▁سارت	-13.3808
▁هيڅ	-13.381
▁Ty	-13.3811
▁أهل	-13.3811
▁شبهو	-13.3813
▁Mess	-13.3815
▁ليمون	-13.3815
▁واهر	-13.3818
▁زرق	-13.3822
▁قليد	-13.3822
▁آلآ	-13.3826
▁تقعد	-13.3826
▁عآد	-13.3828
▁روميه	-13.3831
ٽلٽ	-13.3836
▁زاڪ	-13.3837
ينگل	-13.3838
گھي	-13.3842
▁320	-13.3842
راق	-13.3843
▁Mod	-13.3843
▁plea	-13.3843
▁شمر	-13.3843
kin	-13.3844
▁SUN	-13.3845
▁وائڊ	-13.3845
▁550	-13.3849
▁ٽٻڪ	-13.3851
▁آرد	-13.3852
▁ركه	-13.3855
سدح	-13.3856
▁7.1	-13.3861
▁IG	-13.3862
▁بذر	-13.3862
ھڪ	-13.3863
▁dece	-13.3864
▁ڪلف	-13.3867
PT	-13.3868
▁سيڻ	-13.3877
ذاكر	-13.3877
▁rese	-13.3879
▁BTC	-13.3879
▁کوکل	-13.3889
▁sch	-13.3889
قطق	-13.3891
▁111	-13.3892
صوص	-13.3893
▁خرج	-13.3895
▁SER	-13.3895
▁Rou	-13.3895
إآ	-13.3896
قاف	-13.3907
شرب	-13.3908
▁31.	-13.391
▁هنڊ	-13.391
ٴ	-13.3911
▁Ze	-13.3914
▁يهمج	-13.3918
▁راڪي	-13.3919
ورسٽ	-13.3919
▁Grea	-13.3922
▁js	-13.3923
▁بلون	-13.3926
▁نكن	-13.3929
▁ماٿ	-13.3932
▁تكول	-13.3934
▁يقه	-13.3934
team	-13.3936
نڈل	-13.3937
▁جھوپ	-13.3939
▁نداد	-13.3942
▁ڪهان	-13.3944
▁ريء	-13.3944
وشي	-13.3945
▁وندن	-13.3945
▁اسمو	-13.3945
▁نيك	-13.3946
▁ڊئ	-13.3947
▁رفس	-13.3948
▁nya	-13.3949
▁غنا	-13.3949
دد	-13.395
▁بولو	-13.3952
▁هنڊا	-13.3956
▁ومد	-13.396
▁وڳا	-13.3965
▁عصار	-13.3966
▁ڪولا	-13.3967
▁IC	-13.3971
▁اشک	-13.3974
▁EST	-13.3977
▁CT	-13.3987
▁46.	-13.3988
▁بث	-13.3989
66	-13.3992
▁قرف	-13.3996
▁ڍار	-13.3997
▁أأأأ	-13.3997
▁Ste	-13.3998
▁cal	-13.3998
▁يٽيو	-13.4
▁نونه	-13.4004
▁جدة	-13.4006
▁تكت	-13.4006
▁اقام	-13.4007
▁لوغ	-13.4008
▁اپار	-13.4008
▁lc	-13.4009
▁ٽيڪڪ	-13.4011
FT	-13.4014
▁بردي	-13.4018
51	-13.4019
ايع	-13.4019
▁Kon	-13.4022
۶	-13.4023
▁يڊيل	-13.4027
▁لگز	-13.4028
▁رتش	-13.4032
▁ڳڙي	-13.4033
▁سی	-13.4034
AP	-13.4036
39	-13.4039
▁فكه	-13.404
▁doc	-13.4044
▁دے	-13.4045
كسب	-13.4048
▁بفر	-13.4052
▁Ram	-13.4055
▁يليڊ	-13.4056
▁BC	-13.4057
فيه	-13.4064
▁اوپر	-13.4066
ُٽ	-13.4067
ؤم	-13.407
ابة	-13.4072
كاس	-13.4074
▁وسوي	-13.4079
آز	-13.408
▁ئيٽر	-13.4082
▁ڪذآ	-13.4085
▁ڪاشي	-13.4085
▁har	-13.4086
▁led	-13.4086
▁pr	-13.4086
ji	-13.4086
▁(8	-13.4087
▁ويرم	-13.4087
▁mitt	-13.4091
▁يزڪ	-13.4093
▁يراپ	-13.4095
▁باك	-13.4099
▁چيد	-13.41
فرق	-13.4105
tone	-13.4107
▁كوم	-13.4107
CH	-13.4109
▁ذير	-13.411
▁gua	-13.4113
▁ڪاهن	-13.4116
▁Tar	-13.4117
ائڊر	-13.4118
▁pat	-13.4118
▁شاني	-13.412
▁لوڌ	-13.4121
وير	-13.4122
رحب	-13.4123
▁كيك	-13.4123
▁هاوش	-13.4125
▁تعوب	-13.4126
آپ	-13.4127
وٹ	-13.4128
▁فرز	-13.4129
قة	-13.413
▁sli	-13.413
▁cin	-13.4132
▁گيرم	-13.4133
▁div	-13.4134
▁هنڊي	-13.4136
▁سمعي	-13.4137
▁<3	-13.4138
▁ڏري	-13.4141
▁بجه	-13.4143
▁ورھي	-13.4145
یع	-13.4148
▁خصي	-13.4149
IOS	-13.4156
▁مداحي	-13.4157
▁AA	-13.4159
▁مارڪي	-13.4161
ED	-13.4166
ذى	-13.4172
لاٽ	-13.4173
▁اسيل	-13.4175
▁PH	-13.4178
ş	-13.4182
▁ونچ	-13.4183
▁ڪرني	-13.4189
▁ليلين	-13.4192
▁نداء	-13.4193
OE	-13.4196
▁شيڪ	-13.4199
▁كشن	-13.4202
▁ڊز	-13.4213
عق	-13.4214
اسة	-13.4217
▁ديها	-13.4221
▁بې	-13.4224
▁بوٿ	-13.4227
▁عجل	-13.4227
ڈو	-13.4229
BC	-13.4238
▁fort	-13.424
ML	-13.4241
▁Har	-13.4241
▁ڷڪ	-13.4245
▁شرد	-13.4247
حح	-13.425
98	-13.4255
elf	-13.4256
▁كسل	-13.4258
▁pers	-13.4263
▁Yen	-13.4265
▁مجه	-13.4265
▁ڪوف	-13.4265
▁بئر	-13.4266
راڳ	-13.4279
▁$$	-13.428
ct	-13.4282
ووط	-13.4287
▁ۈن	-13.4287
▁پلن	-13.4288
ښت	-13.4293
ڳڻ	-13.4297
▁ساسا	-13.4297
▁ويع	-13.4302
▁وريني	-13.4304
▁نيزي	-13.4307
ah	-13.431
▁Eg	-13.431
بھ	-13.431
▁نسوي	-13.431
▁يچل	-13.4311
▁سمين	-13.4314
▁پله	-13.4315
▁يغا	-13.4317
▁sur	-13.4319
اڏي	-13.4319
ُو	-13.432
▁نې	-13.432
▁ھڏ	-13.4321
▁راكي	-13.4327
▁يكل	-13.4328
▁دھو	-13.4331
ٽم	-13.4333
ـِ	-13.4337
IX	-13.4339
ؤنڪ	-13.4342
▁Tan	-13.4345
▁معيا	-13.435
گيل	-13.4352
▁plu	-13.4353
▁رقب	-13.4353
▁MUM	-13.436
گال	-13.4362
▁ديگ	-13.4368
▁سوك	-13.4373
▁80.	-13.4374
▁نوپ	-13.4384
▁sk	-13.4392
ڑی	-13.4396
▁كلف	-13.4401
▁اركت	-13.4402
▁ٽٽٽ	-13.4412
▁ڍن	-13.4415
ؤؤ	-13.4417
▁يليپ	-13.4421
ü	-13.4422
٧	-13.4423
כ	-13.4423
ݪ	-13.4423
▁حفاظ	-13.4424
جميع	-13.4425
▁Jan	-13.4426
▁ملكي	-13.4432
ڪيٽ	-13.4433
÷	-13.4434
ֿ	-13.4434
ٛ	-13.4434
ख	-13.4434
⋆	-13.4434
▁Video	-13.4434
▁vpn	-13.4434
▁كتشاف	-13.4434
▁ڌٻڻ	-13.4434
▁عايشه	-13.4434
▁●●	-13.4434
▁Idea	-13.4434
▁video	-13.4434
▁رمل	-13.4434
▁cosm	-13.4434
▁'_'	-13.4434
▁Lott	-13.4435
▁HEL	-13.4435
▁اڼه	-13.4435
▁😆	-13.4435
▁WOW	-13.4435
▁قناع	-13.4435
▁ماثلت	-13.4435
▁جوکيو	-13.4436
hu	-13.4436
▁چڻنگ	-13.4436
نی	-13.4436
▁BY	-13.4437
▁ٲ	-13.4437
▁✿	-13.4437
▁IQ	-13.4437
▁دقق	-13.4437
▁شتگر	-13.4439
▁غادة	-13.4439
▁pose	-13.444
▁ذکر	-13.4441
▁ۄ	-13.4442
▁ۋ	-13.4442
▁ورٹل	-13.4443
▁سنتين	-13.4444
▁LT	-13.4444
▁اومد	-13.4444
▁غیر	-13.4445
ney	-13.4446
▁حكمة	-13.4446
▁جھنڊو	-13.4446
▁ڣ	-13.4448
واجه	-13.4448
▁رآآح	-13.445
▁مدونه	-13.445
▁بغل	-13.445
▁اسيو	-13.4451
▁بنڊل	-13.4452
▁172	-13.4452
▁Je	-13.4452
▁sche	-13.4452
▁ليبي	-13.4453
▁حماد	-13.4454
▁شهوان	-13.4454
▁Gri	-13.4454
▁شتاق	-13.4455
▁اقبل	-13.4456
IP	-13.4458
▁LTE	-13.4458
▁184	-13.4458
▁ذكائ	-13.4458
▁phy	-13.4459
▁via	-13.4462
▁ئې	-13.4465
▁mmad	-13.4466
▁نودي	-13.4468
▁gov	-13.4468
شتقت	-13.4468
▁نذ	-13.4468
▁Tin	-13.447
ڪوڪ	-13.4471
▁گدر	-13.4473
ظر	-13.4475
▁تشكي	-13.4476
▁149	-13.4478
▁ھور	-13.4478
▁قوى	-13.4479
▁داهي	-13.4479
▁ڳُ	-13.4481
▁ڌوپ	-13.4482
▁نڊوڊ	-13.4482
▁اٹھو	-13.4483
▁ختفي	-13.4485
▁22,	-13.4486
▁نمى	-13.4486
▁قآ	-13.4486
يره	-13.4488
▁stud	-13.4489
▁103	-13.449
فري	-13.4491
▁حاف	-13.4491
سٽٽ	-13.4492
▁فران	-13.4493
▁فندي	-13.4493
▁عاادي	-13.4494
▁ليبيا	-13.4494
▁سسسس	-13.4494
▁خطاء	-13.4494
▁Lor	-13.4495
▁يڪڪس	-13.4496
▁brok	-13.4498
▁ڏنگو	-13.4498
uzz	-13.4498
▁تنسين	-13.4501
▁kon	-13.4506
▁هينگ	-13.4507
▁20%	-13.4508
▁SN	-13.451
حلق	-13.451
▁CV	-13.451
آهآ	-13.4512
▁لاھو	-13.4513
▁Men	-13.4515
IO	-13.4519
HA	-13.452
▁معيش	-13.4521
▁نووو	-13.4526
▁واخا	-13.4527
▁تصال	-13.4527
▁غزه	-13.4527
▁شكار	-13.4528
▁Lev	-13.4529
▁نهاية	-13.453
▁بينگ	-13.4532
▁جهڪو	-13.4532
▁اينڪر	-13.4533
▁Pun	-13.4535
▁نبيري	-13.4536
▁DB	-13.4536
▁Gar	-13.4536
▁ثور	-13.454
▁Mr	-13.4544
▁چٻي	-13.4547
▁سڀاڻ	-13.4547
▁رمس	-13.4548
▁سبح	-13.455
57	-13.455
ونٽ	-13.4551
جله	-13.4558
خير	-13.4561
▁Gib	-13.4561
▁کړي	-13.4561
▁عظ	-13.4565
▁بنر	-13.4567
▁زنانه	-13.4571
▁مكه	-13.4573
آڷ	-13.4576
ايد	-13.458
▁cur	-13.4583
▁wea	-13.4584
RC	-13.4588
▁ٽڪيل	-13.4591
▁حزر	-13.4591
▁ركن	-13.4592
▁ينسي	-13.4592
▁فتخر	-13.4594
▁لفيٽ	-13.4594
▁خرم	-13.4595
▁ايمز	-13.4595
▁زلم	-13.4597
▁رے	-13.46
▁TL	-13.4602
▁تدري	-13.4606
▁ترآ	-13.461
نگها	-13.4619
-9	-13.4622
▁نشن	-13.4623
▁خاله	-13.4623
▁شبع	-13.4629
▁مبول	-13.4631
صل	-13.4631
▁lov	-13.4634
▁DR	-13.4634
▁رڱ	-13.4635
▁قطره	-13.4637
ماسي	-13.4638
▁چین	-13.4643
▁Snip	-13.4643
▁ڪيپر	-13.4644
▁وريلا	-13.4645
نٹی	-13.465
▁طحن	-13.4651
lf	-13.4651
▁brea	-13.4655
iv	-13.4658
▁ٺاٺ	-13.4661
أأ	-13.4669
▁ارخ	-13.467
▁ۊ	-13.4672
رمز	-13.4675
▁YH	-13.4676
wl	-13.4677
▁But	-13.4679
cce	-13.4688
AI	-13.4694
▁تاڙ	-13.4699
کس	-13.4699
شٽر	-13.47
▁آإي	-13.4702
▁Stor	-13.4717
▁انبا	-13.472
▁خدت	-13.4721
▁بريز	-13.4721
▁Chu	-13.4724
▁كاش	-13.4727
▁ڪنف	-13.4731
▁يوڪي	-13.4733
75	-13.4736
▁پڙل	-13.4738
مام	-13.4738
▁يٽين	-13.4744
▁mod	-13.4746
مني	-13.4747
▁افه	-13.4748
ham	-13.4748
▁ستح	-13.4752
▁بارح	-13.4761
▁إي	-13.4761
▁اسما	-13.4761
▁Lon	-13.4764
هانت	-13.4768
▁ليلو	-13.4768
▁MU	-13.4772
▁sun	-13.4779
▁يڪوس	-13.4781
▁کتا	-13.4783
ہم	-13.4784
▁SG	-13.4787
▁ولاړ	-13.4789
▁وسی	-13.4796
▁چائن	-13.4797
▁جفت	-13.4803
▁پڙد	-13.4809
▁سنوا	-13.4809
▁أنه	-13.481
▁سوک	-13.4812
91	-13.4813
▁هيوف	-13.4813
▁سمج	-13.4815
▁نجس	-13.4817
oon	-13.4817
اؤن	-13.4819
▁تهتم	-13.4822
ea	-13.4823
▁دکن	-13.4827
▁ساون	-13.4831
ارك	-13.4835
▁ذيب	-13.4837
▁Nat	-13.4838
▁جوكر	-13.4843
▁جٺ	-13.4844
▁زرگ	-13.4846
▁بجر	-13.4847
▁ريني	-13.4848
▁دوك	-13.4849
▁نڪرو	-13.4854
سداد	-13.4858
▁ھيس	-13.4859
▁هيوك	-13.486
يورو	-13.4873
اوة	-13.4877
▁تڙي	-13.4877
▁أمل	-13.4878
▁SW	-13.4878
▁خدر	-13.4881
▁يسيس	-13.4885
▁6,	-13.4887
▁sla	-13.4889
▁NE	-13.489
أل	-13.4891
▁Spe	-13.4892
▁ڌنو	-13.4896
▁يگو	-13.4899
▁sit	-13.4899
طح	-13.4902
▁NI	-13.4902
▁عَ	-13.4904
▁کتو	-13.4914
▁سکس	-13.4914
▁آرم	-13.4914
▁گاس	-13.4924
▁شڪن	-13.4926
ٹا	-13.4926
حة	-13.4929
▁مې	-13.493
لحد	-13.4931
▁لگن	-13.4942
▁ٽوچ	-13.4943
▁ليح	-13.4944
IM	-13.4945
عش	-13.4948
ندق	-13.4952
▁لبا	-13.4954
ڍي	-13.4959
▁Vic	-13.4969
▁SS	-13.497
▁کنڀ	-13.4971
▁اڻيا	-13.4972
▁Bir	-13.498
ex	-13.4981
▁روی	-13.4987
bi	-13.4992
▁ANC	-13.4995
▁FL	-13.4998
▁پرٽي	-13.5001
▁نسيس	-13.5002
▁يريل	-13.5002
آئي	-13.5004
▁Cur	-13.5007
▁KN	-13.5008
هدوي	-13.5012
▁لونا	-13.5015
قاق	-13.5016
▁pl	-13.5023
▁EL	-13.5024
▁nos	-13.5034
بري	-13.504
▁شرع	-13.5041
▁اقص	-13.5043
▁zu	-13.5044
▁گآن	-13.5046
▁them	-13.5047
▁قدي	-13.5052
▁ھيم	-13.5057
خل	-13.5062
▁اوول	-13.5067
▁br	-13.507
▁his	-13.5072
روٽ	-13.5073
▁10)	-13.5079
ٰ	-13.5081
OP	-13.5081
وپا	-13.5093
▁صاا	-13.5095
رپور	-13.5095
▁🙂.	-13.5104
DP	-13.511
میش	-13.511
▁فاط	-13.5113
▁ځي	-13.5117
راڊ	-13.5123
▁ڪها	-13.5126
▁يشت	-13.5127
▁HE	-13.5131
▁tho	-13.5132
▁ڌون	-13.5135
á	-13.5137
ە	-13.5137
ë	-13.5137
٤	-13.5137
ٕ	-13.5138
▁گانه	-13.5141
▁ووين	-13.5145
▁عدت	-13.5146
▁с	-13.5147
ä	-13.5148
\	-13.5148
थ	-13.5148
ृ	-13.5148
▁*_^	-13.5148
▁Urdu	-13.5148
▁[4]	-13.5148
▁[5]	-13.5148
▁[6]	-13.5148
▁ډېر	-13.5148
▁April	-13.5148
▁-_-	-13.5148
▁SARM	-13.5148
▁نرفز	-13.5148
▁حاظر	-13.5148
▁أظن	-13.5148
▁pdf	-13.5148
▁ختاور	-13.5148
▁٢٠	-13.5148
▁Pisc	-13.5148
▁عریف	-13.5148
▁NAB	-13.5148
▁GPU	-13.5148
▁ملتقى	-13.5148
▁XDDD	-13.5148
▁scra	-13.5149
▁تقويم	-13.5149
▁عازم	-13.5149
▁نسحب	-13.5149
▁نهبلت	-13.515
▁pub	-13.515
▁طموح	-13.5151
زعاج	-13.5151
▁شتغل	-13.5151
[...]
