{
  "version": "1.0",
  "truncation": null,
  "padding": null,
  "added_tokens": [
    {
      "id": 0,
      "content": "[UNK]",
      "single_word": false,
      "lstrip": false,
      "rstrip": false,
      "normalized": false,
      "special": true
    },
    {
      "id": 1,
      "content": "[CLS]",
      "single_word": false,
      "lstrip": false,
      "rstrip": false,
      "normalized": false,
      "special": true
    },
    {
      "id": 2,
      "content": "[SEP]",
      "single_word": false,
      "lstrip": false,
      "rstrip": false,
      "normalized": false,
      "special": true
    },
    {
      "id": 3,
      "content": "[PAD]",
      "single_word": false,
      "lstrip": false,
      "rstrip": false,
      "normalized": false,
      "special": true
    },
    {
      "id": 4,
      "content": "[MASK]",
      "single_word": false,
      "lstrip": false,
      "rstrip": false,
      "normalized": false,
      "special": true
    }
  ],
  "normalizer": {
    "type": "Sequence",
    "normalizers": [
      {
        "type": "NFKC"
      },
      {
        "type": "Lowercase"
      }
    ]
  },
  "pre_tokenizer": {
    "type": "Whitespace"
  },
  "post_processor": null,
  "decoder": {
    "type": "WordPiece",
    "prefix": "##",
    "cleanup": true
  },
  "model": {
    "type": "WordPiece",
    "unk_token": "[UNK]",
    "continuing_subword_prefix": "##",
    "max_input_chars_per_word": 100,
    "vocab": {
      "[UNK]": 0,
      "[CLS]": 1,
      "[SEP]": 2,
      "[PAD]": 3,
      "[MASK]": 4,
      "!": 5,
      "\"": 6,
      "#": 7,
      "$": 8,
      "%": 9,
      "&": 10,
      "'": 11,
      "(": 12,
      ")": 13,
      "*": 14,
      "+": 15,
      ",": 16,
      "-": 17,
      ".": 18,
      "/": 19,
      "0": 20,
      "1": 21,
      "2": 22,
      "3": 23,
      "4": 24,
      "5": 25,
      "6": 26,
      "7": 27,
      "8": 28,
      "9": 29,
      ":": 30,
      ";": 31,
      "<": 32,
      "=": 33,
      ">": 34,
      "?": 35,
      "@": 36,
      "[": 37,
      "\\": 38,
      "]": 39,
      "^": 40,
      "_": 41,
      "a": 42,
      "b": 43,
      "c": 44,
      "d": 45,
      "e": 46,
      "f": 47,
      "g": 48,
      "h": 49,
      "i": 50,
      "j": 51,
      "k": 52,
      "l": 53,
      "m": 54,
      "n": 55,
      "o": 56,
      "p": 57,
      "q": 58,
      "r": 59,
      "s": 60,
      "t": 61,
      "u": 62,
      "v": 63,
      "w": 64,
      "x": 65,
      "y": 66,
      "z": 67,
      "{": 68,
      "|": 69,
      "}": 70,
      "~": 71,
      "¡": 72,
      "¢": 73,
      "£": 74,
      "¤": 75,
      "¥": 76,
      "¦": 77,
      "§": 78,
      "©": 79,
      "¬": 80,
      "®": 81,
      "°": 82,
      "±": 83,
      "¶": 84,
      "·": 85,
      "¿": 86,
      "×": 87,
      "ß": 88,
      "à": 89,
      "á": 90,
      "â": 91,
      "ã": 92,
      "ä": 93,
      "å": 94,
      "æ": 95,
      "ç": 96,
      "è": 97,
      "é": 98,
      "ê": 99,
      "ë": 100,
      "ì": 101,
      "í": 102,
      "î": 103,
      "ï": 104,
      "ð": 105,
      "ñ": 106,
      "ò": 107,
      "ó": 108,
      "ô": 109,
      "õ": 110,
      "ö": 111,
      "÷": 112,
      "ø": 113,
      "ù": 114,
      "ú": 115,
      "û": 116,
      "ü": 117,
      "ý": 118,
      "þ": 119,
      "ā": 120,
      "ă": 121,
      "ą": 122,
      "ć": 123,
      "ĉ": 124,
      "č": 125,
      "ď": 126,
      "đ": 127,
      "ē": 128,
      "ė": 129,
      "ę": 130,
      "ě": 131,
      "ğ": 132,
      "ģ": 133,
      "ĥ": 134,
      "ħ": 135,
      "ī": 136,
      "į": 137,
      "ı": 138,
      "ĵ": 139,
      "ĸ": 140,
      "ĺ": 141,
      "ļ": 142,
      "ł": 143,
      "ň": 144,
      "ŋ": 145,
      "ō": 146,
      "ŏ": 147,
      "œ": 148,
      "ř": 149,
      "ś": 150,
      "ŝ": 151,
      "ş": 152,
      "š": 153,
      "ť": 154,
      "ŧ": 155,
      "ŭ": 156,
      "ů": 157,
      "ű": 158,
      "ź": 159,
      "ż": 160,
      "ž": 161,
      "ƒ": 162,
      "ƛ": 163,
      "ơ": 164,
      "ƴ": 165,
      "ƽ": 166,
      "ǝ": 167,
      "ǟ": 168,
      "ǰ": 169,
      "ǿ": 170,
      "ȅ": 171,
      "ȋ": 172,
      "ș": 173,
      "ț": 174,
      "ɑ": 175,
      "ɓ": 176,
      "ɕ": 177,
      "ə": 178,
      "ɛ": 179,
      "ɞ": 180,
      "ɠ": 181,
      "ɣ": 182,
      "ɨ": 183,
      "ɪ": 184,
      "ɲ": 185,
      "ɴ": 186,
      "ʀ": 187,
      "ʃ": 188,
      "ʊ": 189,
      "ʒ": 190,
      "ʔ": 191,
      "ʚ": 192,
      "ʞ": 193,
      "ʻ": 194,
      "ˆ": 195,
      "ˇ": 196,
      "ˈ": 197,
      "ˌ": 198,
      "ː": 199,
      "˹": 200,
      "˼": 201,
      "̀": 202,
      "́": 203,
      "̃": 204,
      "̄": 205,
      "̅": 206,
      "̇": 207,
      "̈": 208,
      "̉": 209,
      "̊": 210,
      "̋": 211,
      "̌": 212,
      "̍": 213,
      "̐": 214,
      "̖": 215,
      "̗": 216,
      "̝": 217,
      "̠": 218,
      "̣": 219,
      "̤": 220,
      "̥": 221,
      "̧": 222,
      "̨": 223,
      "̩": 224,
      "̬": 225,
      "̮": 226,
      "̯": 227,
      "̲": 228,
      "̳": 229,
      "̵": 230,
      "̶": 231,
      "̷": 232,
      "̸": 233,
      "͛": 234,
      "͜": 235,
      "͠": 236,
      "͡": 237,
      "ͦ": 238,
      "ΐ": 239,
      "ά": 240,
      "έ": 241,
      "ή": 242,
      "ί": 243,
      "α": 244,
      "β": 245,
      "γ": 246,
      "δ": 247,
      "ε": 248,
      "ζ": 249,
      "η": 250,
      "θ": 251,
      "ι": 252,
      "κ": 253,
      "λ": 254,
      "μ": 255,
      "ν": 256,
      "ξ": 257,
      "ο": 258,
      "π": 259,
      "ρ": 260,
      "ς": 261,
      "σ": 262,
      "τ": 263,
      "υ": 264,
      "φ": 265,
      "χ": 266,
      "ψ": 267,
      "ω": 268,
      "ϋ": 269,
      "ό": 270,
      "ώ": 271,
      "ϟ": 272,
      "ϻ": 273,
      "а": 274,
      "б": 275,
      "в": 276,
      "г": 277,
      "д": 278,
      "е": 279,
      "ж": 280,
      "з": 281,
      "и": 282,
      "й": 283,
      "к": 284,
      "л": 285,
      "м": 286,
      "н": 287,
      "о": 288,
      "п": 289,
      "р": 290,
      "с": 291,
      "т": 292,
      "у": 293,
      "х": 294,
      "ц": 295,
      "ч": 296,
      "ш": 297,
      "ъ": 298,
      "ы": 299,
      "ь": 300,
      "э": 301,
      "ю": 302,
      "я": 303,
      "є": 304,
      "і": 305,
      "ј": 306,
      "ћ": 307,
      "ѣ": 308,
      "ѧ": 309,
      "҉": 310,
      "ҏ": 311,
      "ґ": 312,
      "қ": 313,
      "ҩ": 314,
      "ү": 315,
      "ұ": 316,
      "ҳ": 317,
      "ҷ": 318,
      "ҽ": 319,
      "ӎ": 320,
      "ө": 321,
      "ա": 322,
      "բ": 323,
      "ե": 324,
      "է": 325,
      "ը": 326,
      "ի": 327,
      "լ": 328,
      "խ": 329,
      "կ": 330,
      "հ": 331,
      "ձ": 332,
      "ղ": 333,
      "մ": 334,
      "յ": 335,
      "ն": 336,
      "ո": 337,
      "չ": 338,
      "պ": 339,
      "ռ": 340,
      "ս": 341,
      "վ": 342,
      "տ": 343,
      "ր": 344,
      "ց": 345,
      "ւ": 346,
      "փ": 347,
      "ք": 348,
      "ֆ": 349,
      "ִ": 350,
      "ּ": 351,
      "ֿ": 352,
      "א": 353,
      "ב": 354,
      "ג": 355,
      "ד": 356,
      "ה": 357,
      "ו": 358,
      "ז": 359,
      "ח": 360,
      "ט": 361,
      "י": 362,
      "ך": 363,
      "כ": 364,
      "ל": 365,
      "ם": 366,
      "מ": 367,
      "ן": 368,
      "נ": 369,
      "ס": 370,
      "ע": 371,
      "פ": 372,
      "צ": 373,
      "ר": 374,
      "ש": 375,
      "ת": 376,
      "؋": 377,
      "،": 378,
      "؍": 379,
      "؎": 380,
      "؏": 381,
      "ؐ": 382,
      "ؑ": 383,
      "ؒ": 384,
      "ؓ": 385,
      "؛": 386,
      "؟": 387,
      "ء": 388,
      "آ": 389,
      "أ": 390,
      "ؤ": 391,
      "إ": 392,
      "ئ": 393,
      "ا": 394,
      "ب": 395,
      "ة": 396,
      "ت": 397,
      "ث": 398,
      "ج": 399,
      "ح": 400,
      "خ": 401,
      "د": 402,
      "ذ": 403,
      "ر": 404,
      "ز": 405,
      "س": 406,
      "ش": 407,
      "ص": 408,
      "ض": 409,
      "ط": 410,
      "ظ": 411,
      "ع": 412,
      "غ": 413,
      "ػ": 414,
      "ؼ": 415,
      "ؽ": 416,
      "ؾ": 417,
      "ؿ": 418,
      "ـ": 419,
      "ف": 420,
      "ق": 421,
      "ك": 422,
      "ل": 423,
      "م": 424,
      "ن": 425,
      "ه": 426,
      "و": 427,
      "ى": 428,
      "ي": 429,
      "ً": 430,
      "ٌ": 431,
      "ٍ": 432,
      "َ": 433,
      "ُ": 434,
      "ِ": 435,
      "ّ": 436,
      "ْ": 437,
      "ٓ": 438,
      "ٔ": 439,
      "ٕ": 440,
      "ٖ": 441,
      "ٗ": 442,
      "٘": 443,
      "ٙ": 444,
      "ٚ": 445,
      "ٛ": 446,
      "ٜ": 447,
      "ٝ": 448,
      "ٞ": 449,
      "ٟ": 450,
      "٠": 451,
      "١": 452,
      "٢": 453,
      "٣": 454,
      "٤": 455,
      "٥": 456,
      "٦": 457,
      "٧": 458,
      "٨": 459,
      "٩": 460,
      "٪": 461,
      "٫": 462,
      "٬": 463,
      "٭": 464,
      "ٮ": 465,
      "ٯ": 466,
      "ٰ": 467,
      "ٱ": 468,
      "ٲ": 469,
      "ٳ": 470,
      "ٴ": 471,
      "ٹ": 472,
      "ٺ": 473,
      "ٻ": 474,
      "ټ": 475,
      "ٽ": 476,
      "پ": 477,
      "ٿ": 478,
      "ڀ": 479,
      "ځ": 480,
      "ڂ": 481,
      "ڃ": 482,
      "ڄ": 483,
      "څ": 484,
      "چ": 485,
      "ڇ": 486,
      "ڈ": 487,
      "ډ": 488,
      "ڊ": 489,
      "ڋ": 490,
      "ڌ": 491,
      "ڍ": 492,
      "ڎ": 493,
      "ڏ": 494,
      "ڐ": 495,
      "ڑ": 496,
      "ڒ": 497,
      "ړ": 498,
      "ڔ": 499,
      "ڕ": 500,
      "ږ": 501,
      "ڗ": 502,
      "ژ": 503,
      "ڙ": 504,
      "ښ": 505,
      "ڛ": 506,
      "ڜ": 507,
      "ڝ": 508,
      "ڞ": 509,
      "ڟ": 510,
      "ڠ": 511,
      "ڣ": 512,
      "ڤ": 513,
      "ڦ": 514,
      "ڨ": 515,
      "ک": 516,
      "ڪ": 517,
      "ګ": 518,
      "ڭ": 519,
      "گ": 520,
      "ڰ": 521,
      "ڱ": 522,
      "ڲ": 523,
      "ڳ": 524,
      "ڵ": 525,
      "ڶ": 526,
      "ڷ": 527,
      "ڸ": 528,
      "ڹ": 529,
      "ں": 530,
      "ڻ": 531,
      "ڼ": 532,
      "ڽ": 533,
      "ھ": 534,
      "ڿ": 535,
      "ۀ": 536,
      "ہ": 537,
      "ۂ": 538,
      "ۃ": 539,
      "ۄ": 540,
      "ۅ": 541,
      "ۆ": 542,
      "ۇ": 543,
      "ۈ": 544,
      "ۉ": 545,
      "ۊ": 546,
      "ۋ": 547,
      "ی": 548,
      "ۍ": 549,
      "ێ": 550,
      "ۏ": 551,
      "ې": 552,
      "ۑ": 553,
      "ے": 554,
      "ۓ": 555,
      "۔": 556,
      "ە": 557,
      "ۗ": 558,
      "ۘ": 559,
      "ۙ": 560,
      "ۚ": 561,
      "ۛ": 562,
      "ۜ": 563,
      "۞": 564,
      "ۡ": 565,
      "ۢ": 566,
      "ۣ": 567,
      "ۤ": 568,
      "ۥ": 569,
      "ۦ": 570,
      "ۧ": 571,
      "ۨ": 572,
      "۩": 573,
      "۪": 574,
      "۫": 575,
      "۬": 576,
      "۰": 577,
      "۱": 578,
      "۲": 579,
      "۳": 580,
      "۴": 581,
      "۵": 582,
      "۶": 583,
      "۷": 584,
      "۸": 585,
      "۹": 586,
      "ۺ": 587,
      "ۼ": 588,
      "۽": 589,
      "۾": 590,
      "ۿ": 591,
      "܀": 592,
      "ܒ": 593,
      "ܓ": 594,
      "ܢ": 595,
      "ܨ": 596,
      "ܪ": 597,
      "ܵ": 598,
      "ݐ": 599,
      "ݒ": 600,
      "ݖ": 601,
      "ݘ": 602,
      "ݛ": 603,
      "ݢ": 604,
      "ݥ": 605,
      "ݦ": 606,
      "ݧ": 607,
      "ݨ": 608,
      "ݩ": 609,
      "ݪ": 610,
      "ހ": 611,
      "ވ": 612,
      "ެ": 613,
      "ߙ": 614,
      "ࡗ": 615,
      "ࢦ": 616,
      "ࢪ": 617,
      "࣪": 618,
      "ँ": 619,
      "ं": 620,
      "ः": 621,
      "अ": 622,
      "आ": 623,
      "इ": 624,
      "ई": 625,
      "उ": 626,
      "ए": 627,
      "ओ": 628,
      "क": 629,
      "ख": 630,
      "ग": 631,
      "घ": 632,
      "ङ": 633,
      "च": 634,
      "छ": 635,
      "ज": 636,
      "झ": 637,
      "ञ": 638,
      "ट": 639,
      "ठ": 640,
      "ड": 641,
      "ढ": 642,
      "ण": 643,
      "त": 644,
      "थ": 645,
      "द": 646,
      "ध": 647,
      "न": 648,
      "प": 649,
      "फ": 650,
      "ब": 651,
      "भ": 652,
      "म": 653,
      "य": 654,
      "र": 655,
      "ल": 656,
      "व": 657,
      "श": 658,
      "ष": 659,
      "स": 660,
      "ह": 661,
      "़": 662,
      "ा": 663,
      "ि": 664,
      "ी": 665,
      "ु": 666,
      "ू": 667,
      "ृ": 668,
      "े": 669,
      "ै": 670,
      "ॉ": 671,
      "ो": 672,
      "ौ": 673,
      "्": 674,
      "॒": 675,
      "ॡ": 676,
      "।": 677,
      "॥": 678,
      "०": 679,
      "१": 680,
      "८": 681,
      "অ": 682,
      "আ": 683,
      "ই": 684,
      "উ": 685,
      "এ": 686,
      "ঔ": 687,
      "ক": 688,
      "খ": 689,
      "ঘ": 690,
      "ছ": 691,
      "জ": 692,
      "ট": 693,
      "ড": 694,
      "ত": 695,
      "দ": 696,
      "ধ": 697,
      "ন": 698,
      "ব": 699,
      "ভ": 700,
      "ম": 701,
      "য": 702,
      "র": 703,
      "ল": 704,
      "শ": 705,
      "স": 706,
      "়": 707,
      "া": 708,
      "ি": 709,
      "ু": 710,
      "ে": 711,
      "ো": 712,
      "ৌ": 713,
      "্": 714,
      "ਂ": 715,
      "ਇ": 716,
      "ਈ": 717,
      "ਕ": 718,
      "ਜ": 719,
      "ਥ": 720,
      "ਧ": 721,
      "ਪ": 722,
      "ਬ": 723,
      "ਮ": 724,
      "ਰ": 725,
      "ਲ": 726,
      "ਸ": 727,
      "ਹ": 728,
      "ਾ": 729,
      "ਿ": 730,
      "ੀ": 731,
      "ੇ": 732,
      "ੈ": 733,
      "ੋ": 734,
      "ੰ": 735,
      "ੱ": 736,
      "ં": 737,
      "ક": 738,
      "ખ": 739,
      "ચ": 740,
      "છ": 741,
      "ટ": 742,
      "ડ": 743,
      "થ": 744,
      "ધ": 745,
      "પ": 746,
      "ર": 747,
      "સ": 748,
      "હ": 749,
      "ા": 750,
      "િ": 751,
      "ી": 752,
      "ુ": 753,
      "ે": 754,
      "ો": 755,
      "୪": 756,
      "୭": 757,
      "ஐ": 758,
      "ஓ": 759,
      "ற": 760,
      "ం": 761,
      "ఇ": 762,
      "ఉ": 763,
      "ఎ": 764,
      "క": 765,
      "చ": 766,
      "డ": 767,
      "ద": 768,
      "ధ": 769,
      "న": 770,
      "ప": 771,
      "య": 772,
      "ల": 773,
      "వ": 774,
      "స": 775,
      "హ": 776,
      "ా": 777,
      "ి": 778,
      "ీ": 779,
      "ు": 780,
      "ే": 781,
      "ో": 782,
      "్": 783,
      "ಂ": 784,
      "ಈ": 785,
      "ಕ": 786,
      "ಡ": 787,
      "ಧ": 788,
      "ನ": 789,
      "ಲ": 790,
      "ಸ": 791,
      "ಿ": 792,
      "ೋ": 793,
      "್": 794,
      "ഉ": 795,
      "ങ": 796,
      "ത": 797,
      "ധ": 798,
      "ന": 799,
      "പ": 800,
      "ള": 801,
      "സ": 802,
      "ി": 803,
      "്": 804,
      "ආ": 805,
      "උ": 806,
      "ක": 807,
      "න": 808,
      "ම": 809,
      "ය": 810,
      "ල": 811,
      "ව": 812,
      "ශ": 813,
      "ස": 814,
      "්": 815,
      "ෑ": 816,
      "ි": 817,
      "ෙ": 818,
      "ก": 819,
      "ค": 820,
      "ฉ": 821,
      "ณ": 822,
      "ด": 823,
      "ถ": 824,
      "ท": 825,
      "น": 826,
      "บ": 827,
      "ป": 828,
      "พ": 829,
      "ม": 830,
      "ย": 831,
      "ล": 832,
      "ส": 833,
      "ห": 834,
      "อ": 835,
      "ฮ": 836,
      "ะ": 837,
      "ั": 838,
      "า": 839,
      "ิ": 840,
      "ี": 841,
      "ุ": 842,
      "เ": 843,
      "ไ": 844,
      "ๅ": 845,
      "่": 846,
      "้": 847,
      "๋": 848,
      "๑": 849,
      "๛": 850,
      "ກ": 851,
      "ຂ": 852,
      "ຈ": 853,
      "ຖ": 854,
      "ທ": 855,
      "ນ": 856,
      "ພ": 857,
      "ມ": 858,
      "ຢ": 859,
      "ະ": 860,
      "າ": 861,
      "ົ": 862,
      "ເ": 863,
      "່": 864,
      "້": 865,
      "໑": 866,
      "༄": 867,
      "༅": 868,
      "༺": 869,
      "ཻ": 870,
      "࿅": 871,
      "࿑": 872,
      "ა": 873,
      "დ": 874,
      "ე": 875,
      "თ": 876,
      "ი": 877,
      "კ": 878,
      "მ": 879,
      "ნ": 880,
      "რ": 881,
      "ს": 882,
      "უ": 883,
      "ქ": 884,
      "ღ": 885,
      "ᄑ": 886,
      "ᄒ": 887,
      "ᅲ": 888,
      "ሂ": 889,
      "ህ": 890,
      "ለ": 891,
      "ላ": 892,
      "ል": 893,
      "ም": 894,
      "ሩ": 895,
      "ር": 896,
      "ሳ": 897,
      "ስ": 898,
      "ቅ": 899,
      "በ": 900,
      "ቦ": 901,
      "ታ": 902,
      "ት": 903,
      "ነ": 904,
      "ኔ": 905,
      "ን": 906,
      "ኝ": 907,
      "አ": 908,
      "እ": 909,
      "ወ": 910,
      "ው": 911,
      "ዎ": 912,
      "ዘ": 913,
      "ይ": 914,
      "ዴ": 915,
      "ድ": 916,
      "ጋ": 917,
      "ጎ": 918,
      "ጠ": 919,
      "ጣ": 920,
      "ጥ": 921,
      "ፈ": 922,
      "ፍ": 923,
      "ᑐ": 924,
      "ᓄ": 925,
      "ᓅ": 926,
      "ᓆ": 927,
      "ᓘ": 928,
      "ញ": 929,
      "ន": 930,
      "ព": 931,
      "ភ": 932,
      "េ": 933,
      "ំ": 934,
      "្": 935,
      "᪣": 936,
      "ᬼ": 937,
      "ᭁ": 938,
      "᭄": 939,
      "ᴀ": 940,
      "ᴋ": 941,
      "ᴗ": 942,
      "᷂": 943,
      "ḑ": 944,
      "ḭ": 945,
      "ḿ": 946,
      "ṁ": 947,
      "ṃ": 948,
      "ṇ": 949,
      "ṉ": 950,
      "ṛ": 951,
      "ṝ": 952,
      "ṣ": 953,
      "ṧ": 954,
      "ṩ": 955,
      "ṭ": 956,
      "ṽ": 957,
      "ạ": 958,
      "ẹ": 959,
      "ể": 960,
      "ệ": 961,
      "ị": 962,
      "ọ": 963,
      "ố": 964,
      "ở": 965,
      "ụ": 966,
      "ỳ": 967,
      "ỹ": 968,
      "ἄ": 969,
      "‐": 970,
      "‛": 971,
      "‟": 972,
      "†": 973,
      "‡": 974,
      "•": 975,
      "′": 976,
      "‹": 977,
      "›": 978,
      "※": 979,
      "‿": 980,
      "⁀": 981,
      "⁄": 982,
      "₥": 983,
      "₦": 984,
      "₩": 985,
      "₪": 986,
      "€": 987,
      "₳": 988,
      "₹": 989,
      "₼": 990,
      "₽": 991,
      "⃕": 992,
      "⃟": 993,
      "⃢": 994,
      "⃣": 995,
      "⃫": 996,
      "℘": 997,
      "←": 998,
      "↑": 999,
      "→": 1000,
      "↓": 1001,
      "↔": 1002,
      "↙": 1003,
      "↜": 1004,
      "↝": 1005,
      "↣": 1006,
      "↤": 1007,
      "↩": 1008,
      "↫": 1009,
      "↯": 1010,
      "↲": 1011,
      "↴": 1012,
      "↷": 1013,
      "⇄": 1014,
      "⇐": 1015,
      "⇜": 1016,
      "⇠": 1017,
      "⇡": 1018,
      "⇢": 1019,
      "⇣": 1020,
      "⇦": 1021,
      "∀": 1022,
      "∂": 1023,
      "∇": 1024,
      "−": 1025,
      "√": 1026,
      "∞": 1027,
      "∟": 1028,
      "∫": 1029,
      "∴": 1030,
      "≈": 1031,
      "≠": 1032,
      "≤": 1033,
      "≥": 1034,
      "≦": 1035,
      "≧": 1036,
      "≯": 1037,
      "⊙": 1038,
      "⋆": 1039,
      "⌘": 1040,
      "⏆": 1041,
      "⏩": 1042,
      "⏪": 1043,
      "─": 1044,
      "┇": 1045,
      "═": 1046,
      "╚": 1047,
      "╝": 1048,
      "╦": 1049,
      "╫": 1050,
      "╬": 1051,
      "▂": 1052,
      "▃": 1053,
      "▌": 1054,
      "▐": 1055,
      "■": 1056,
      "□": 1057,
      "▪": 1058,
      "▫": 1059,
      "▲": 1060,
      "▶": 1061,
      "▷": 1062,
      "►": 1063,
      "▼": 1064,
      "▽": 1065,
      "◀": 1066,
      "◄": 1067,
      "◆": 1068,
      "◇": 1069,
      "◈": 1070,
      "◉": 1071,
      "◊": 1072,
      "○": 1073,
      "◍": 1074,
      "◎": 1075,
      "●": 1076,
      "◕": 1077,
      "◝": 1078,
      "◣": 1079,
      "◤": 1080,
      "◥": 1081,
      "◦": 1082,
      "◩": 1083,
      "◪": 1084,
      "◾": 1085,
      "☀": 1086,
      "☁": 1087,
      "☂": 1088,
      "☃": 1089,
      "☄": 1090,
      "★": 1091,
      "☆": 1092,
      "☑": 1093,
      "☔": 1094,
      "☘": 1095,
      "☚": 1096,
      "☛": 1097,
      "☜": 1098,
      "☝": 1099,
      "☠": 1100,
      "☹": 1101,
      "☺": 1102,
      "☻": 1103,
      "☼": 1104,
      "☽": 1105,
      "☿": 1106,
      "♀": 1107,
      "♂": 1108,
      "♃": 1109,
      "♄": 1110,
      "♈": 1111,
      "♉": 1112,
      "♊": 1113,
      "♋": 1114,
      "♌": 1115,
      "♍": 1116,
      "♎": 1117,
      "♏": 1118,
      "♒": 1119,
      "♓": 1120,
      "♚": 1121,
      "♛": 1122,
      "♠": 1123,
      "♡": 1124,
      "♢": 1125,
      "♣": 1126,
      "♤": 1127,
      "♥": 1128,
      "♦": 1129,
      "♩": 1130,
      "♪": 1131,
      "♫": 1132,
      "♬": 1133,
      "♭": 1134,
      "♯": 1135,
      "⚒": 1136,
      "⚘": 1137,
      "⚠": 1138,
      "⚡": 1139,
      "⚫": 1140,
      "⚽": 1141,
      "⛳": 1142,
      "⛺": 1143,
      "✅": 1144,
      "✇": 1145,
      "✈": 1146,
      "✋": 1147,
      "✌": 1148,
      "✍": 1149,
      "✓": 1150,
      "✔": 1151,
      "✖": 1152,
      "✗": 1153,
      "✘": 1154,
      "✜": 1155,
      "✞": 1156,
      "✦": 1157,
      "✧": 1158,
      "✨": 1159,
      "✫": 1160,
      "✭": 1161,
      "✮": 1162,
      "✯": 1163,
      "✳": 1164,
      "✴": 1165,
      "✷": 1166,
      "✿": 1167,
      "❀": 1168,
      "❌": 1169,
      "❒": 1170,
      "❓": 1171,
      "❔": 1172,
      "❕": 1173,
      "❖": 1174,
      "❗": 1175,
      "❝": 1176,
      "❞": 1177,
      "❢": 1178,
      "❣": 1179,
      "❤": 1180,
      "❥": 1181,
      "❦": 1182,
      "❧": 1183,
      "❶": 1184,
      "➓": 1185,
      "➘": 1186,
      "➟": 1187,
      "➡": 1188,
      "➢": 1189,
      "➥": 1190,
      "➬": 1191,
      "⠀": 1192,
      "⦿": 1193,
      "⬅": 1194,
      "⬆": 1195,
      "⬸": 1196,
      "⭐": 1197,
      "⭕": 1198,
      "ⴢ": 1199,
      "⸁": 1200,
      "⸙": 1201,
      "、": 1202,
      "。": 1203,
      "〇": 1204,
      "〈": 1205,
      "〉": 1206,
      "》": 1207,
      "「": 1208,
      "」": 1209,
      "『": 1210,
      "』": 1211,
      "【": 1212,
      "】": 1213,
      "〖": 1214,
      "〗": 1215,
      "あ": 1216,
      "い": 1217,
      "う": 1218,
      "え": 1219,
      "お": 1220,
      "か": 1221,
      "が": 1222,
      "く": 1223,
      "さ": 1224,
      "じ": 1225,
      "な": 1226,
      "の": 1227,
      "へ": 1228,
      "ほ": 1229,
      "ょ": 1230,
      "よ": 1231,
      "り": 1232,
      "わ": 1233,
      "を": 1234,
      "ん": 1235,
      "イ": 1236,
      "エ": 1237,
      "ク": 1238,
      "コ": 1239,
      "サ": 1240,
      "シ": 1241,
      "ス": 1242,
      "タ": 1243,
      "チ": 1244,
      "ッ": 1245,
      "ツ": 1246,
      "ト": 1247,
      "ド": 1248,
      "ノ": 1249,
      "バ": 1250,
      "パ": 1251,
      "ピ": 1252,
      "マ": 1253,
      "ミ": 1254,
      "ム": 1255,
      "ュ": 1256,
      "ヮ": 1257,
      "ン": 1258,
      "・": 1259,
      "ー": 1260,
      "ㄨ": 1261,
      "一": 1262,
      "上": 1263,
      "之": 1264,
      "了": 1265,
      "云": 1266,
      "以": 1267,
      "传": 1268,
      "位": 1269,
      "何": 1270,
      "你": 1271,
      "刀": 1272,
      "力": 1273,
      "午": 1274,
      "南": 1275,
      "厩": 1276,
      "发": 1277,
      "古": 1278,
      "可": 1279,
      "吗": 1280,
      "嘅": 1281,
      "国": 1282,
      "场": 1283,
      "報": 1284,
      "多": 1285,
      "夢": 1286,
      "如": 1287,
      "子": 1288,
      "学": 1289,
      "它": 1290,
      "少": 1291,
      "屋": 1292,
      "年": 1293,
      "庆": 1294,
      "彙": 1295,
      "彩": 1296,
      "很": 1297,
      "情": 1298,
      "惠": 1299,
      "感": 1300,
      "我": 1301,
      "打": 1302,
      "教": 1303,
      "料": 1304,
      "斯": 1305,
      "於": 1306,
      "月": 1307,
      "机": 1308,
      "機": 1309,
      "泊": 1310,
      "波": 1311,
      "爱": 1312,
      "瑞": 1313,
      "用": 1314,
      "电": 1315,
      "発": 1316,
      "發": 1317,
      "的": 1318,
      "真": 1319,
      "着": 1320,
      "示": 1321,
      "科": 1322,
      "端": 1323,
      "篇": 1324,
      "終": 1325,
      "纳": 1326,
      "者": 1327,
      "职": 1328,
      "背": 1329,
      "节": 1330,
      "花": 1331,
      "菜": 1332,
      "葬": 1333,
      "藍": 1334,
      "蝶": 1335,
      "要": 1336,
      "詞": 1337,
      "語": 1338,
      "謝": 1339,
      "话": 1340,
      "语": 1341,
      "谷": 1342,
      "超": 1343,
      "辛": 1344,
      "迪": 1345,
      "邏": 1346,
      "钱": 1347,
      "际": 1348,
      "隨": 1349,
      "雨": 1350,
      "音": 1351,
      "顯": 1352,
      "鲁": 1353,
      "ꓘ": 1354,
      "ꓤ": 1355,
      "ꔫ": 1356,
      "ꖾ": 1357,
      "ꟽ": 1358,
      "ꦿ": 1359,
      "ꪆ": 1360,
      "ꪝ": 1361,
      "ꫀ": 1362,
      "ꫛ": 1363,
      "각": 1364,
      "금": 1365,
      "길": 1366,
      "나": 1367,
      "는": 1368,
      "다": 1369,
      "대": 1370,
      "래": 1371,
      "리": 1372,
      "마": 1373,
      "만": 1374,
      "문": 1375,
      "방": 1376,
      "법": 1377,
      "서": 1378,
      "손": 1379,
      "솔": 1380,
      "송": 1381,
      "시": 1382,
      "양": 1383,
      "얼": 1384,
      "에": 1385,
      "연": 1386,
      "요": 1387,
      "우": 1388,
      "정": 1389,
      "져": 1390,
      "조": 1391,
      "좋": 1392,
      "지": 1393,
      "직": 1394,
      "평": 1395,
      "하": 1396,
      "할": 1397,
      "해": 1398,
      "형": 1399,
      "화": 1400,
      "효": 1401,
      "희": 1402,
      "﮶": 1403,
      "﮼": 1404,
      "﴾": 1405,
      "﴿": 1406,
      "︎": 1407,
      "️": 1408,
      "�": 1409,
      "𐄒": 1410,
      "𐎚": 1411,
      "𐭣": 1412,
      "𐭦": 1413,
      "𐭪": 1414,
      "𐭬": 1415,
      "𓂅": 1416,
      "𓆩": 1417,
      "𓆪": 1418,
      "𖣂": 1419,
      "𖣴": 1420,
      "𖤈": 1421,
      "𖤍": 1422,
      "🅚": 1423,
      "🅛": 1424,
      "🅜": 1425,
      "🅦": 1426,
      "🇦": 1427,
      "🇧": 1428,
      "🇨": 1429,
      "🇩": 1430,
      "🇬": 1431,
      "🇮": 1432,
      "🇱": 1433,
      "🇲": 1434,
      "🇵": 1435,
      "🇶": 1436,
      "🇷": 1437,
      "🇸": 1438,
      "🇹": 1439,
      "🇺": 1440,
      "🇿": 1441,
      "🌆": 1442,
      "🌈": 1443,
      "🌍": 1444,
      "🌎": 1445,
      "🌓": 1446,
      "🌔": 1447,
      "🌙": 1448,
      "🌚": 1449,
      "🌛": 1450,
      "🌜": 1451,
      "🌝": 1452,
      "🌞": 1453,
      "🌟": 1454,
      "🌤": 1455,
      "🌧": 1456,
      "🌱": 1457,
      "🌵": 1458,
      "🌷": 1459,
      "🌸": 1460,
      "🌹": 1461,
      "🌺": 1462,
      "🌻": 1463,
      "🌼": 1464,
      "🌿": 1465,
      "🍀": 1466,
      "🍂": 1467,
      "🍃": 1468,
      "🍇": 1469,
      "🍉": 1470,
      "🍕": 1471,
      "🍩": 1472,
      "🍰": 1473,
      "🍷": 1474,
      "🍻": 1475,
      "🍼": 1476,
      "🍾": 1477,
      "🍿": 1478,
      "🎀": 1479,
      "🎁": 1480,
      "🎃": 1481,
      "🎅": 1482,
      "🎈": 1483,
      "🎞": 1484,
      "🎥": 1485,
      "🎧": 1486,
      "🎨": 1487,
      "🎯": 1488,
      "🎵": 1489,
      "🎶": 1490,
      "🎻": 1491,
      "🎼": 1492,
      "🏃": 1493,
      "🏆": 1494,
      "🏊": 1495,
      "🏖": 1496,
      "🏣": 1497,
      "🏭": 1498,
      "🏳": 1499,
      "🏹": 1500,
      "🏻": 1501,
      "🏼": 1502,
      "🏽": 1503,
      "🏾": 1504,
      "🏿": 1505,
      "🐍": 1506,
      "🐒": 1507,
      "🐕": 1508,
      "🐠": 1509,
      "🐢": 1510,
      "🐸": 1511,
      "🐾": 1512,
      "👀": 1513,
      "👃": 1514,
      "👅": 1515,
      "👆": 1516,
      "👇": 1517,
      "👈": 1518,
      "👉": 1519,
      "👊": 1520,
      "👋": 1521,
      "👌": 1522,
      "👍": 1523,
      "👎": 1524,
      "👑": 1525,
      "👕": 1526,
      "👠": 1527,
      "👢": 1528,
      "👤": 1529,
      "👧": 1530,
      "👨": 1531,
      "👩": 1532,
      "👭": 1533,
      "👰": 1534,
      "👲": 1535,
      "👳": 1536,
      "👾": 1537,
      "💀": 1538,
      "💃": 1539,
      "💅": 1540,
      "💇": 1541,
      "💈": 1542,
      "💋": 1543,
      "💍": 1544,
      "💐": 1545,
      "💒": 1546,
      "💓": 1547,
      "💔": 1548,
      "💕": 1549,
      "💖": 1550,
      "💗": 1551,
      "💘": 1552,
      "💙": 1553,
      "💚": 1554,
      "💛": 1555,
      "💜": 1556,
      "💝": 1557,
      "💞": 1558,
      "💠": 1559,
      "💡": 1560,
      "💣": 1561,
      "💦": 1562,
      "💪": 1563,
      "💫": 1564,
      "💮": 1565,
      "💯": 1566,
      "💰": 1567,
      "💷": 1568,
      "💻": 1569,
      "📄": 1570,
      "📑": 1571,
      "📚": 1572,
      "📛": 1573,
      "📥": 1574,
      "📩": 1575,
      "📮": 1576,
      "📲": 1577,
      "📷": 1578,
      "📸": 1579,
      "📿": 1580,
      "🔆": 1581,
      "🔈": 1582,
      "🔐": 1583,
      "🔒": 1584,
      "🔕": 1585,
      "🔗": 1586,
      "🔞": 1587,
      "🔥": 1588,
      "🔫": 1589,
      "🔱": 1590,
      "🔴": 1591,
      "🔶": 1592,
      "🔸": 1593,
      "🔹": 1594,
      "🔺": 1595,
      "🕊": 1596,
      "🕌": 1597,
      "🕘": 1598,
      "🖕": 1599,
      "🖤": 1600,
      "🖼": 1601,
      "🗯": 1602,
      "🗿": 1603,
      "😀": 1604,
      "😁": 1605,
      "😂": 1606,
      "😃": 1607,
      "😄": 1608,
      "😅": 1609,
      "😆": 1610,
      "😇": 1611,
      "😈": 1612,
      "😉": 1613,
      "😊": 1614,
      "😋": 1615,
      "😌": 1616,
      "😍": 1617,
      "😎": 1618,
      "😏": 1619,
      "😐": 1620,
      "😑": 1621,
      "😒": 1622,
      "😔": 1623,
      "😕": 1624,
      "😘": 1625,
      "😛": 1626,
      "😜": 1627,
      "😝": 1628,
      "😠": 1629,
      "😢": 1630,
      "😤": 1631,
      "😦": 1632,
      "😧": 1633,
      "😨": 1634,
      "😩": 1635,
      "😪": 1636,
      "😬": 1637,
      "😭": 1638,
      "😮": 1639,
      "😯": 1640,
      "😱": 1641,
      "😲": 1642,
      "😳": 1643,
      "😵": 1644,
      "😷": 1645,
      "😹": 1646,
      "😻": 1647,
      "😽": 1648,
      "😿": 1649,
      "🙁": 1650,
      "🙂": 1651,
      "🙃": 1652,
      "🙄": 1653,
      "🙅": 1654,
      "🙆": 1655,
      "🙇": 1656,
      "🙈": 1657,
      "🙊": 1658,
      "🙋": 1659,
      "🙌": 1660,
      "🙏": 1661,
      "🚌": 1662,
      "🚓": 1663,
      "🚣": 1664,
      "🚨": 1665,
      "🚫": 1666,
      "🚭": 1667,
      "🚵": 1668,
      "🚶": 1669,
      "🚷": 1670,
      "🛌": 1671,
      "🛐": 1672,
      "🛒": 1673,
      "🛫": 1674,
      "🛰": 1675,
      "🟥": 1676,
      "🤍": 1677,
      "🤎": 1678,
      "🤐": 1679,
      "🤒": 1680,
      "🤓": 1681,
      "🤔": 1682,
      "🤕": 1683,
      "🤚": 1684,
      "🤟": 1685,
      "🤠": 1686,
      "🤣": 1687,
      "🤤": 1688,
      "🤧": 1689,
      "🤨": 1690,
      "🤩": 1691,
      "🤪": 1692,
      "🤭": 1693,
      "🤲": 1694,
      "🤸": 1695,
      "🤹": 1696,
      "🥀": 1697,
      "🥇": 1698,
      "🥰": 1699,
      "🥺": 1700,
      "🦋": 1701,
      "🦦": 1702,
      "🦯": 1703,
      "🦼": 1704,
      "🦽": 1705,
      "🧐": 1706,
      "🧑": 1707,
      "🧖": 1708,
      "🧚": 1709,
      "🧝": 1710,
      "🧸": 1711,
      "##ؽ": 1712,
      "##م": 1713,
      "##د": 1714,
      "##ا": 1715,
      "##ر": 1716,
      "##ن": 1717,
      "##ت": 1718,
      "##ل": 1719,
      "##ي": 1720,
      "##u": 1721,
      "##c": 1722,
      "##e": 1723,
      "##t": 1724,
      "##ب": 1725,
      "##ک": 1726,
      "##ف": 1727,
      "##و": 1728,
      "##a": 1729,
      "##s": 1730,
      "##r": 1731,
      "##o": 1732,
      "##n": 1733,
      "##m": 1734,
      "##y": 1735,
      "##س": 1736,
      "##ـ": 1737,
      "##َ": 1738,
      "##ه": 1739,
      "##ِ": 1740,
      "##ج": 1741,
      "##پ": 1742,
      "##ز": 1743,
      "##ع": 1744,
      "##ح": 1745,
      "##ئ": 1746,
      "##ڙ": 1747,
      "##ٍ": 1748,
      "##ض": 1749,
      "##0": 1750,
      "##8": 1751,
      "##3": 1752,
      "##ة": 1753,
      "##ہ": 1754,
      "##ٿ": 1755,
      "##ڪ": 1756,
      "##ش": 1757,
      "##ص": 1758,
      "##於": 1759,
      "##可": 1760,
      "##以": 1761,
      "##顯": 1762,
      "##示": 1763,
      "##了": 1764,
      "##ك": 1765,
      "##ى": 1766,
      "##d": 1767,
      "##l": 1768,
      "##w": 1769,
      "##i": 1770,
      "##g": 1771,
      "##ء": 1772,
      "##ڻ": 1773,
      "##ٽ": 1774,
      "##b": 1775,
      "##ڄ": 1776,
      "##ذ": 1777,
      "##q": 1778,
      "##9": 1779,
      "##2": 1780,
      "##7": 1781,
      "##ھ": 1782,
      "##f": 1783,
      "##ُ": 1784,
      "##ۈ": 1785,
      "##h": 1786,
      "##ڊ": 1787,
      "##گ": 1788,
      "##z": 1789,
      "##ա": 1790,
      "##ռ": 1791,
      "##چ": 1792,
      "##آ": 1793,
      "##p": 1794,
      "##ڳ": 1795,
      "##्": 1796,
      "##र": 1797,
      "##ा": 1798,
      "##य": 1799,
      "##ः": 1800,
      "##ٌ": 1801,
      "##إ": 1802,
      "##ړ": 1803,
      "##k": 1804,
      "##ی": 1805,
      "##خ": 1806,
      "##غ": 1807,
      "##·": 1808,
      "##\"": 1809,
      "##ق": 1810,
      "##ڌ": 1811,
      "##ۡ": 1812,
      "##ڹ": 1813,
      "##ْ": 1814,
      "##5": 1815,
      "##1": 1816,
      "##ط": 1817,
      "##ٺ": 1818,
      "##v": 1819,
      "##ٹ": 1820,
      "##ڵ": 1821,
      "##x": 1822,
      "##ڃ": 1823,
      "##ے": 1824,
      "##أ": 1825,
      "##ۋ": 1826,
      "##6": 1827,
      "##ڏ": 1828,
      "##ۃ": 1829,
      "##ټ": 1830,
      "##ؤ": 1831,
      "##۳": 1832,
      "##۸": 1833,
      "##٥": 1834,
      "##ڀ": 1835,
      "##ۄ": 1836,
      "##è": 1837,
      "##ث": 1838,
      "##4": 1839,
      "##ٖ": 1840,
      "##स": 1841,
      "##ट": 1842,
      "##ो": 1843,
      "##ज": 1844,
      "##े": 1845,
      "##न": 1846,
      "##ि": 1847,
      "##क": 1848,
      "##ګ": 1849,
      "##ۓ": 1850,
      "##ظ": 1851,
      "##ڦ": 1852,
      "##❤": 1853,
      "##ڸ": 1854,
      "##ۍ": 1855,
      "##प": 1856,
      "##श": 1857,
      "##ी": 1858,
      "##ष": 1859,
      "##*": 1860,
      "##ڇ": 1861,
      "##_": 1862,
      "##é": 1863,
      "##ّ": 1864,
      "##ډ": 1865,
      "##ً": 1866,
      "##ژ": 1867,
      "##ڍ": 1868,
      "##ٱ": 1869,
      "##ۑ": 1870,
      "##۹": 1871,
      "##۷": 1872,
      "##۱": 1873,
      "##ڈ": 1874,
      "##ښ": 1875,
      "##ü": 1876,
      "##ō": 1877,
      "##j": 1878,
      "##[": 1879,
      "##ڎ": 1880,
      "##א": 1881,
      "##ڱ": 1882,
      "##≯": 1883,
      "##פ": 1884,
      "##ێ": 1885,
      "##ۀ": 1886,
      "##ڛ": 1887,
      "##ں": 1888,
      "##ּ": 1889,
      "##ב": 1890,
      "##:": 1891,
      "##%": 1892,
      "##ٻ": 1893,
      "##😁": 1894,
      "##ø": 1895,
      "##۵": 1896,
      "##ې": 1897,
      "##🏻": 1898,
      "##♀": 1899,
      "##😹": 1900,
      "##ా": 1901,
      "##క": 1902,
      "##ు": 1903,
      "##♊": 1904,
      "##>": 1905,
      "##ζ": 1906,
      "##۲": 1907,
      "##۰": 1908,
      "##😂": 1909,
      "##🌹": 1910,
      "##š": 1911,
      "##؟": 1912,
      "##.": 1913,
      "##ٴ": 1914,
      "##څ": 1915,
      "##ږ": 1916,
      "##۔": 1917,
      "##ґ": 1918,
      "##)": 1919,
      "##+": 1920,
      "##$": 1921,
      "##💗": 1922,
      "##!": 1923,
      "##١": 1924,
      "##ツ": 1925,
      "##ٰ": 1926,
      "##त": 1927,
      "##द": 1928,
      "##ल": 1929,
      "##۴": 1930,
      "##á": 1931,
      "##ۊ": 1932,
      "##ٚ": 1933,
      "##;": 1934,
      "##,": 1935,
      "##^": 1936,
      "##-": 1937,
      "##୭": 1938,
      "##ڑ": 1939,
      "##ە": 1940,
      "##⃣": 1941,
      "##٩": 1942,
      "##٠": 1943,
      "##ڷ": 1944,
      "##ڔ": 1945,
      "##<": 1946,
      "##٤": 1947,
      "##٢": 1948,
      "##ۉ": 1949,
      "##ध": 1950,
      "##व": 1951,
      "##ο": 1952,
      "##ί": 1953,
      "##🥺": 1954,
      "##💞": 1955,
      "##&": 1956,
      "##ځ": 1957,
      "##]": 1958,
      "##â": 1959,
      "##ڞ": 1960,
      "##ٲ": 1961,
      "##͜": 1962,
      "##͡": 1963,
      "##ᬼ": 1964,
      "##؛": 1965,
      "##ı": 1966,
      "##ँ": 1967,
      "##ग": 1968,
      "##°": 1969,
      "##☝": 1970,
      "##ु": 1971,
      "##ڼ": 1972,
      "##ू": 1973,
      "##म": 1974,
      "##💙": 1975,
      "##ह": 1976,
      "##~": 1977,
      "##ۆ": 1978,
      "##ੱ": 1979,
      "##ਥ": 1980,
      "##ੇ": 1981,
      "##٦": 1982,
      "##а": 1983,
      "##т": 1984,
      "##в": 1985,
      "##е": 1986,
      "##着": 1987,
      "##屋": 1988,
      "##ݪ": 1989,
      "##۶": 1990,
      "##ܢ": 1991,
      "##ğ": 1992,
      "##ڒ": 1993,
      "###": 1994,
      "##💘": 1995,
      "##🌈": 1996,
      "##=": 1997,
      "##о": 1998,
      "##н": 1999,
      "##у": 2000,
      "##с": 2001,
      "##ፈ": 2002,
      "##ል": 2003,
      "##ጋ": 2004,
      "##ለ": 2005,
      "##ው": 2006,
      "##ۅ": 2007,
      "##כ": 2008,
      "##{": 2009,
      "##̇": 2010,
      "##झ": 2011,
      "##ै": 2012,
      "##،": 2013,
      "##/": 2014,
      "##ٓ": 2015,
      "##💔": 2016,
      "##ē": 2017,
      "##ڽ": 2018,
      "##ט": 2019,
      "##}": 2020,
      "##ٛ": 2021,
      "##?": 2022,
      "##۽": 2023,
      "##ڜ": 2024,
      "##ڤ": 2025,
      "##🔕": 2026,
      "##♪": 2027,
      "##↓": 2028,
      "##ê": 2029,
      "##ठ": 2030,
      "##उ": 2031,
      "##ڶ": 2032,
      "##ٳ": 2033,
      "##🎃": 2034,
      "##ौ": 2035,
      "##(": 2036,
      "##ٕ": 2037,
      "##♡": 2038,
      "##'": 2039,
      "##थ": 2040,
      "##̲": 2041,
      "##😍": 2042,
      "##❣": 2043,
      "##í": 2044,
      "##ಿ": 2045,
      "##ಂ": 2046,
      "##ಧ": 2047,
      "##★": 2048,
      "##٘": 2049,
      "##л": 2050,
      "##к": 2051,
      "##й": 2052,
      "##ड": 2053,
      "##ዴ": 2054,
      "##ö": 2055,
      "##ä": 2056,
      "##♋": 2057,
      "##😉": 2058,
      "##٣": 2059,
      "##ț": 2060,
      "##•": 2061,
      "##ි": 2062,
      "##ල": 2063,
      "##න": 2064,
      "##්": 2065,
      "##ण": 2066,
      "##🇸": 2067,
      "##ۤ": 2068,
      "##ۂ": 2069,
      "##м": 2070,
      "##р": 2071,
      "##√": 2072,
      "##ֿ": 2073,
      "##α": 2074,
      "##ĥ": 2075,
      "##ϻ": 2076,
      "##ẹ": 2077,
      "##ď": 2078,
      "##🏾": 2079,
      "##ð": 2080,
      "##ó": 2081,
      "##ˇ": 2082,
      "##ٔ": 2083,
      "##⊙": 2084,
      "##̵": 2085,
      "##●": 2086,
      "##♥": 2087,
      "##ş": 2088,
      "##◕": 2089,
      "##═": 2090,
      "##╬": 2091,
      "##😻": 2092,
      "##😽": 2093,
      "##😘": 2094,
      "##٧": 2095,
      "##٨": 2096,
      "##ݦ": 2097,
      "##ؓ": 2098,
      "##💜": 2099,
      "##😆": 2100,
      "##ݩ": 2101,
      "##̈": 2102,
      "##ʊ": 2103,
      "##ɪ": 2104,
      "##◩": 2105,
      "##ڝ": 2106,
      "##☹": 2107,
      "##इ": 2108,
      "##ब": 2109,
      "##力": 2110,
      "##😭": 2111,
      "##ٗ": 2112,
      "##ս": 2113,
      "##ۇ": 2114,
      "##մ": 2115,
      "##发": 2116,
      "##音": 2117,
      "##👋": 2118,
      "##🇮": 2119,
      "##ڠ": 2120,
      "##̃": 2121,
      "##🤒": 2122,
      "##נ": 2123,
      "##ࢪ": 2124,
      "##ܪ": 2125,
      "##ܵ": 2126,
      "##ؿ": 2127,
      "##ڕ": 2128,
      "##ؑ": 2129,
      "##≈": 2130,
      "##ۿ": 2131,
      "##д": 2132,
      "##ā": 2133,
      "##č": 2134,
      "##à": 2135,
      "##ç": 2136,
      "##ڣ": 2137,
      "##ė": 2138,
      "##🤣": 2139,
      "##👍": 2140,
      "##ọ": 2141,
      "##ⴢ": 2142,
      "##̤": 2143,
      "##❀": 2144,
      "##ụ": 2145,
      "##ু": 2146,
      "##ম": 2147,
      "##ন": 2148,
      "##্": 2149,
      "##ত": 2150,
      "##ť": 2151,
      "##ý": 2152,
      "##ז": 2153,
      "##¦": 2154,
      "##ώ": 2155,
      "##✨": 2156,
      "##ω": 2157,
      "##۾": 2158,
      "##μ": 2159,
      "##и": 2160,
      "##ь": 2161,
      "##×": 2162,
      "##î": 2163,
      "##छ": 2164,
      "##ۢ": 2165,
      "##ệ": 2166,
      "##ۛ": 2167,
      "##@": 2168,
      "##х": 2169,
      "##ṭ": 2170,
      "##、": 2171,
      "##ۏ": 2172,
      "##ն": 2173,
      "##չ": 2174,
      "##⚫": 2175,
      "##◄": 2176,
      "##י": 2177,
      "##💻": 2178,
      "##ᓄ": 2179,
      "##מ": 2180,
      "##ל": 2181,
      "##ך": 2182,
      "##ታ": 2183,
      "##ô": 2184,
      "##ं": 2185,
      "##‹": 2186,
      "##🙂": 2187,
      "##☆": 2188,
      "##🅜": 2189,
      "##🅦": 2190,
      "##🅛": 2191,
      "##̗": 2192,
      "##̀": 2193,
      "##٪": 2194,
      "##ʒ": 2195,
      "##ɑ": 2196,
      "##ː": 2197,
      "##з": 2198,
      "##ڂ": 2199,
      "##û": 2200,
      "##↷": 2201,
      "##🙏": 2202,
      "##🦋": 2203,
      "##ж": 2204,
      "##📛": 2205,
      "##ע": 2206,
      "##å": 2207,
      "##į": 2208,
      "##ñ": 2209,
      "##ల": 2210,
      "##్": 2211,
      "##ï": 2212,
      "##ে": 2213,
      "##ক": 2214,
      "##ؐ": 2215,
      "##ч": 2216,
      "##╝": 2217,
      "##ࢦ": 2218,
      "##🙊": 2219,
      "##ई": 2220,
      "##❔": 2221,
      "##؏": 2222,
      "##💯": 2223,
      "##ү": 2224,
      "##🔥": 2225,
      "##️": 2226,
      "##ۦ": 2227,
      "##😐": 2228,
      "##♬": 2229,
      "##♩": 2230,
      "##फ": 2231,
      "##💈": 2232,
      "##ݢ": 2233,
      "##😊": 2234,
      "##͛": 2235,
      "##⇣": 2236,
      "##ㄨ": 2237,
      "##ë": 2238,
      "##̍": 2239,
      "##ۙ": 2240,
      "##ి": 2241,
      "##ం": 2242,
      "##ధ": 2243,
      "##ీ": 2244,
      "##ݧ": 2245,
      "##←": 2246,
      "##ᓅ": 2247,
      "##ٮ": 2248,
      "##ख": 2249,
      "##‐": 2250,
      "##🎈": 2251,
      "##🤠": 2252,
      "##ۧ": 2253,
      "##ר": 2254,
      "##ג": 2255,
      "##ו": 2256,
      "##ן": 2257,
      "##¿": 2258,
      "##ι": 2259,
      "##ถ": 2260,
      "##า": 2261,
      "##น": 2262,
      "##ท": 2263,
      "##ี": 2264,
      "##่": 2265,
      "##้": 2266,
      "##ด": 2267,
      "##ม": 2268,
      "##ก": 2269,
      "##য": 2270,
      "##়": 2271,
      "##দ": 2272,
      "##র": 2273,
      "##σ": 2274,
      "##ڨ": 2275,
      "##👀": 2276,
      "##ؒ": 2277,
      "##💫": 2278,
      "##ञ": 2279,
      "##ħ": 2280,
      "##😎": 2281,
      "##ị": 2282,
      "##φ": 2283,
      "##̷": 2284,
      "##̣": 2285,
      "##̐": 2286,
      "##🐒": 2287,
      "##ո": 2288,
      "##խ": 2289,
      "##հ": 2290,
      "##տ": 2291,
      "##ւ": 2292,
      "##ց": 2293,
      "##ե": 2294,
      "##լ": 2295,
      "##ě": 2296,
      "##ž": 2297,
      "##๋": 2298,
      "##ン": 2299,
      "##ピ": 2300,
      "##ュ": 2301,
      "##ー": 2302,
      "##タ": 2303,
      "##サ": 2304,
      "##イ": 2305,
      "##エ": 2306,
      "##ス": 2307,
      "##٭": 2308,
      "##ۗ": 2309,
      "##ۜ": 2310,
      "##📑": 2311,
      "##п": 2312,
      "##﮼": 2313,
      "##۪": 2314,
      "##æ": 2315,
      "##☘": 2316,
      "##ढ": 2317,
      "##⇦": 2318,
      "##ਿ": 2319,
      "##ੰ": 2320,
      "##ਧ": 2321,
      "##ੀ": 2322,
      "##👈": 2323,
      "##🤍": 2324,
      "##ٞ": 2325,
      "##̖": 2326,
      "##́": 2327,
      "##ш": 2328,
      "##😄": 2329,
      "##я": 2330,
      "##문": 2331,
      "##희": 2332,
      "##😮": 2333,
      "##👊": 2334,
      "##😯": 2335,
      "##🇿": 2336,
      "##💪": 2337,
      "##€": 2338,
      "##✷": 2339,
      "##打": 2340,
      "##电": 2341,
      "##话": 2342,
      "##吗": 2343,
      "##ღ": 2344,
      "##❕": 2345,
      "##ə": 2346,
      "##ˈ": 2347,
      "##😀": 2348,
      "##午": 2349,
      "##节": 2350,
      "##ד": 2351,
      "##ה": 2352,
      "##ם": 2353,
      "##☄": 2354,
      "##۫": 2355,
      "##🕊": 2356,
      "##ů": 2357,
      "##г": 2358,
      "##ੈ": 2359,
      "##ਂ": 2360,
      "##🦼": 2361,
      "##🥰": 2362,
      "##ր": 2363,
      "##ղ": 2364,
      "##ơ": 2365,
      "##θ": 2366,
      "##ỹ": 2367,
      "##⃫": 2368,
      "##🇦": 2369,
      "##٬": 2370,
      "##✌": 2371,
      "##च": 2372,
      "##🌍": 2373,
      "##†": 2374,
      "##ᑐ": 2375,
      "##😝": 2376,
      "##❥": 2377,
      "##✦": 2378,
      "##η": 2379,
      "##ṣ": 2380,
      "##ṛ": 2381,
      "##🦽": 2382,
      "##κ": 2383,
      "##ρ": 2384,
      "##ছ": 2385,
      "##ṉ": 2386,
      "##ற": 2387,
      "##何": 2388,
      "##用": 2389,
      "##鲁": 2390,
      "##瑞": 2391,
      "##语": 2392,
      "##ጠ": 2393,
      "##ይ": 2394,
      "##ቅ": 2395,
      "##ዎ": 2396,
      "##年": 2397,
      "##月": 2398,
      "##👌": 2399,
      "##☺": 2400,
      "##💖": 2401,
      "##ए": 2402,
      "##ਈ": 2403,
      "##ή": 2404,
      "##ε": 2405,
      "##ς": 2406,
      "##ṇ": 2407,
      "##【": 2408,
      "##ʀ": 2409,
      "##′": 2410,
      "##ṩ": 2411,
      "##ػ": 2412,
      "##ა": 2413,
      "##რ": 2414,
      "##ე": 2415,
      "##კ": 2416,
      "##თ": 2417,
      "##シ": 2418,
      "##ト": 2419,
      "##語": 2420,
      "##ೋ": 2421,
      "##ಈ": 2422,
      "##ę": 2423,
      "##ŋ": 2424,
      "##✿": 2425,
      "##。": 2426,
      "##ڿ": 2427,
      "##🌻": 2428,
      "##😿": 2429,
      "##ั": 2430,
      "##เ": 2431,
      "##ล": 2432,
      "##ย": 2433,
      "##ค": 2434,
      "##ุ": 2435,
      "##ณ": 2436,
      "##ѧ": 2437,
      "##ો": 2438,
      "##ટ": 2439,
      "##ુ": 2440,
      "##ં": 2441,
      "##̶": 2442,
      "##ξ": 2443,
      "##직": 2444,
      "##해": 2445,
      "##져": 2446,
      "##요": 2447,
      "##ി": 2448,
      "##ന": 2449,
      "##്": 2450,
      "##ധ": 2451,
      "##›": 2452,
      "##ஐ": 2453,
      "##🇶": 2454,
      "##࿅": 2455,
      "##〗": 2456,
      "##ы": 2457,
      "##ব": 2458,
      "##࣪": 2459,
      "##🍃": 2460,
      "##🖤": 2461,
      "##🎁": 2462,
      "##ڋ": 2463,
      "##😱": 2464,
      "##§": 2465,
      "##🏼": 2466,
      "##ద": 2467,
      "##উ": 2468,
      "##ਾ": 2469,
      "##β": 2470,
      "##қ": 2471,
      "##ś": 2472,
      "##ස": 2473,
      "##ක": 2474,
      "##ම": 2475,
      "##ో": 2476,
      "##ú": 2477,
      "##ެ": 2478,
      "##🍼": 2479,
      "##¤": 2480,
      "##謝": 2481,
      "##你": 2482,
      "##금": 2483,
      "##만": 2484,
      "##ŭ": 2485,
      "##😢": 2486,
      "##😵": 2487,
      "##๑": 2488,
      "##̥": 2489,
      "##খ": 2490,
      "##−": 2491,
      "##◊": 2492,
      "##⃢": 2493,
      "##ł": 2494,
      "##อ": 2495,
      "##✅": 2496,
      "##🇩": 2497,
      "##🕌": 2498,
      "##🌷": 2499,
      "##🌜": 2500,
      "##😪": 2501,
      "##→": 2502,
      "##พ": 2503,
      "##ฉ": 2504,
      "##ไ": 2505,
      "##ป": 2506,
      "##ส": 2507,
      "##บ": 2508,
      "##ิ": 2509,
      "##ห": 2510,
      "##ৌ": 2511,
      "##ড": 2512,
      "##○": 2513,
      "##☜": 2514,
      "##♚": 2515,
      "##і": 2516,
      "##ի": 2517,
      "##🏽": 2518,
      "##🏿": 2519,
      "##↯": 2520,
      "##э": 2521,
      "##▐": 2522,
      "##양": 2523,
      "##할": 2524,
      "##시": 2525,
      "##ܨ": 2526,
      "##ܓ": 2527,
      "##ƽ": 2528,
      "##ᴀ": 2529,
      "##ɴ": 2530,
      "##ц": 2531,
      "##ố": 2532,
      "##༅": 2533,
      "##ό": 2534,
      "##😏": 2535,
      "##斯": 2536,
      "##迪": 2537,
      "##⚘": 2538,
      "##►": 2539,
      "##ք": 2540,
      "##վ": 2541,
      "##ը": 2542,
      "##⚡": 2543,
      "##ृ": 2544,
      "##🤔": 2545,
      "##📸": 2546,
      "##📩": 2547,
      "##🇧": 2548,
      "##©": 2549,
      "##ཻ": 2550,
      "##έ": 2551,
      "##͠": 2552,
      "##ò": 2553,
      "##ъ": 2554,
      "##ǝ": 2555,
      "##ꟽ": 2556,
      "##💍": 2557,
      "##б": 2558,
      "##ሩ": 2559,
      "##정": 2560,
      "##에": 2561,
      "##서": 2562,
      "##🤩": 2563,
      "##◆": 2564,
      "##♦": 2565,
      "##🧐": 2566,
      "##🤨": 2567,
      "##ݛ": 2568,
      "##ڟ": 2569,
      "##♉": 2570,
      "##ڲ": 2571,
      "##®": 2572,
      "##화": 2573,
      "##하": 2574,
      "##는": 2575,
      "##ã": 2576,
      "##ň": 2577,
      "##💰": 2578,
      "##ȋ": 2579,
      "##ì": 2580,
      "##ј": 2581,
      "##յ": 2582,
      "##կ": 2583,
      "##位": 2584,
      "##バ": 2585,
      "##ッ": 2586,
      "##ク": 2587,
      "##⁀": 2588,
      "##﴿": 2589,
      "##◈": 2590,
      "##💚": 2591,
      "##া": 2592,
      "##ٜ": 2593,
      "##さ": 2594,
      "##い": 2595,
      "##💕": 2596,
      "##🔗": 2597,
      "##😇": 2598,
      "##િ": 2599,
      "##ҳ": 2600,
      "##τ": 2601,
      "##♂": 2602,
      "##要": 2603,
      "##多": 2604,
      "##少": 2605,
      "##钱": 2606,
      "##庆": 2607,
      "##🙈": 2608,
      "##◣": 2609,
      "##🎨": 2610,
      "##🖼": 2611,
      "##వ": 2612,
      "##డ": 2613,
      "##ド": 2614,
      "##🚶": 2615,
      "##ҽ": 2616,
      "##ż": 2617,
      "##😅": 2618,
      "##ν": 2619,
      "##υ": 2620,
      "##ۨ": 2621,
      "##ṃ": 2622,
      "##ḭ": 2623,
      "##ṝ": 2624,
      "##ă": 2625,
      "##ٯ": 2626,
      "##॒": 2627,
      "##ڐ": 2628,
      "##◦": 2629,
      "##ڭ": 2630,
      "##ۘ": 2631,
      "##०": 2632,
      "##պ": 2633,
      "##ላ": 2634,
      "##ጎ": 2635,
      "##ት": 2636,
      "##😌": 2637,
      "##😋": 2638,
      "##ᭁ": 2639,
      "##ɛ": 2640,
      "##🔸": 2641,
      "##🤟": 2642,
      "##ą": 2643,
      "##ŧ": 2644,
      "##ћ": 2645,
      "##각": 2646,
      "##형": 2647,
      "##😒": 2648,
      "##ি": 2649,
      "##ই": 2650,
      "##🌸": 2651,
      "##̉": 2652,
      "##🤧": 2653,
      "##£": 2654,
      "##ꪆ": 2655,
      "##ƛ": 2656,
      "##ƴ": 2657,
      "##ɲ": 2658,
      "##ש": 2659,
      "##😈": 2660,
      "##🖕": 2661,
      "##ව": 2662,
      "##ශ": 2663,
      "##ය": 2664,
      "##ෙ": 2665,
      "##≧": 2666,
      "##∇": 2667,
      "##≦": 2668,
      "##໑": 2669,
      "##】": 2670,
      "##纳": 2671,
      "##国": 2672,
      "##际": 2673,
      "##机": 2674,
      "##场": 2675,
      "##ጣ": 2676,
      "##ም": 2677,
      "##ህ": 2678,
      "##✋": 2679,
      "##ল": 2680,
      "##স": 2681,
      "##』": 2682,
      "##ʞ": 2683,
      "##आ": 2684,
      "##ؼ": 2685,
      "##۬": 2686,
      "##₩": 2687,
      "##🏭": 2688,
      "##య": 2689,
      "##చ": 2690,
      "##ే": 2691,
      "##స": 2692,
      "##發": 2693,
      "##ਪ": 2694,
      "##ਜ": 2695,
      "##ਬ": 2696,
      "##雨": 2697,
      "##λ": 2698,
      "##▌": 2699,
      "##ù": 2700,
      "##ć": 2701,
      "##💦": 2702,
      "##🍻": 2703,
      "##π": 2704,
      "##≥": 2705,
      "##ю": 2706,
      "##ח": 2707,
      "##🌿": 2708,
      "##۞": 2709,
      "##ሳ": 2710,
      "##ወ": 2711,
      "##ር": 2712,
      "##❧": 2713,
      "##🏃": 2714,
      "##ത": 2715,
      "##പ": 2716,
      "##ങ": 2717,
      "##ള": 2718,
      "##😳": 2719,
      "##지": 2720,
      "##효": 2721,
      "##\\": 2722,
      "##ۥ": 2723,
      "##🥀": 2724,
      "##𓆪": 2725,
      "##đ": 2726,
      "##પ": 2727,
      "##ડ": 2728,
      "##ા": 2729,
      "##♫": 2730,
      "##▂": 2731,
      "##ી": 2732,
      "##ક": 2733,
      "##ΐ": 2734,
      "##ɞ": 2735,
      "##♍": 2736,
      "##œ": 2737,
      "##ٟ": 2738,
      "##◍": 2739,
      "##🧸": 2740,
      "##✫": 2741,
      "##۩": 2742,
      "##蝶": 2743,
      "##葬": 2744,
      "##花": 2745,
      "##ź": 2746,
      "##ꫀ": 2747,
      "##ꪝ": 2748,
      "##─": 2749,
      "##⋆": 2750,
      "##⇢": 2751,
      "##ᄒ": 2752,
      "##້": 2753,
      "##າ": 2754,
      "##ພ": 2755,
      "##ະ": 2756,
      "##ເ": 2757,
      "##ຈ": 2758,
      "##ົ": 2759,
      "##ຢ": 2760,
      "##ກ": 2761,
      "##ຖ": 2762,
      "##ມ": 2763,
      "##ທ": 2764,
      "##່": 2765,
      "##ນ": 2766,
      "##भ": 2767,
      "##צ": 2768,
      "##़": 2769,
      "##☚": 2770,
      "##子": 2771,
      "##ꦿ": 2772,
      "##᭄": 2773,
      "##⃕": 2774,
      "##ქ": 2775,
      "##ი": 2776,
      "##მ": 2777,
      "##ს": 2778,
      "##☛": 2779,
      "##╚": 2780,
      "##ॉ": 2781,
      "##리": 2782,
      "##😔": 2783,
      "##ओ": 2784,
      "##న": 2785,
      "##🦯": 2786,
      "##■": 2787,
      "##◥": 2788,
      "##¡": 2789,
      "##チ": 2790,
      "##コ": 2791,
      "##マ": 2792,
      "##ĸ": 2793,
      "##̅": 2794,
      "##ે": 2795,
      "##🌚": 2796,
      "##ট": 2797,
      "##ো": 2798,
      "##є": 2799,
      "##云": 2800,
      "##之": 2801,
      "##南": 2802,
      "##ݨ": 2803,
      "##ಲ": 2804,
      "##್": 2805,
      "##❦": 2806,
      "##╦": 2807,
      "##◉": 2808,
      "##▽": 2809,
      "##藍": 2810,
      "##💓": 2811,
      "##ڗ": 2812,
      "##🍷": 2813,
      "##的": 2814,
      "##ī": 2815,
      "##̩": 2816,
      "##̊": 2817,
      "##◝": 2818,
      "##🐠": 2819,
      "##・": 2820,
      "##教": 2821,
      "##者": 2822,
      "##嘅": 2823,
      "##₪": 2824,
      "##થ": 2825,
      "##÷": 2826,
      "##👆": 2827,
      "##🔞": 2828,
      "##ધ": 2829,
      "##💐": 2830,
      "##📿": 2831,
      "##☻": 2832,
      "##↤": 2833,
      "##♌": 2834,
      "##ұ": 2835,
      "##ể": 2836,
      "##ĺ": 2837,
      "##마": 2838,
      "##나": 2839,
      "##ङ": 2840,
      "##្": 2841,
      "##ន": 2842,
      "##ំ": 2843,
      "##ព": 2844,
      "##េ": 2845,
      "##ញ": 2846,
      "##ϟ": 2847,
      "##ϋ": 2848,
      "##ά": 2849,
      "##।": 2850,
      "##♏": 2851,
      "##ɕ": 2852,
      "##ʔ": 2853,
      "##🔫": 2854,
      "##🍩": 2855,
      "##ਰ": 2856,
      "##ੋ": 2857,
      "##😜": 2858,
      "##ƒ": 2859,
      "##ȅ": 2860,
      "##💣": 2861,
      "##ݘ": 2862,
      "##ᄑ": 2863,
      "##ß": 2864,
      "##٫": 2865,
      "##ݥ": 2866,
      "##법": 2867,
      "##̯": 2868,
      "##🤤": 2869,
      "##🌝": 2870,
      "##ঔ": 2871,
      "##😃": 2872,
      "##ۣ": 2873,
      "##ๅ": 2874,
      "##ހ": 2875,
      "##⠀": 2876,
      "##↣": 2877,
      "##ム": 2878,
      "##刀": 2879,
      "##ノ": 2880,
      "##の": 2881,
      "##ধ": 2882,
      "##घ": 2883,
      "##̌": 2884,
      "##𐭦": 2885,
      "##𐭣": 2886,
      "##𐭪": 2887,
      "##𓆩": 2888,
      "##『": 2889,
      "##真": 2890,
      "##很": 2891,
      "##爱": 2892,
      "##報": 2893,
      "##科": 2894,
      "##学": 2895,
      "##ʻ": 2896,
      "##り": 2897,
      "##હ": 2898,
      "##ર": 2899,
      "##₦": 2900,
      "##ฮ": 2901,
      "##🇲": 2902,
      "##ɓ": 2903,
      "##ŏ": 2904,
      "##♈": 2905,
      "##ನ": 2906,
      "##ಡ": 2907,
      "##↝": 2908,
      "##ნ": 2909,
      "##დ": 2910,
      "##უ": 2911,
      "##※": 2912,
      "##🎀": 2913,
      "##✗": 2914,
      "##▶": 2915,
      "##✘": 2916,
      "##┇": 2917,
      "##传": 2918,
      "##♠": 2919,
      "##機": 2920,
      "##詞": 2921,
      "##彙": 2922,
      "##ؾ": 2923,
      "##래": 2924,
      "##ș": 2925,
      "##ٙ": 2926,
      "##ɨ": 2927,
      "##ǟ": 2928,
      "##菜": 2929,
      "##ӎ": 2930,
      "##ř": 2931,
      "##ょ": 2932,
      "##う": 2933,
      "##ほ": 2934,
      "##か": 2935,
      "##が": 2936,
      "##く": 2937,
      "##ở": 2938,
      "##ḑ": 2939,
      "##¶": 2940,
      "##ǿ": 2941,
      "##ṁ": 2942,
      "##🤎": 2943,
      "##♓": 2944,
      "##ᓘ": 2945,
      "##ኔ": 2946,
      "##👑": 2947,
      "##ን": 2948,
      "##ድ": 2949,
      "##ሂ": 2950,
      "##ۼ": 2951,
      "##¬": 2952,
      "##👧": 2953,
      "##🌤": 2954,
      "##♣": 2955,
      "##⇡": 2956,
      "##➟": 2957,
      "##⭐": 2958,
      "##ෑ": 2959,
      "##一": 2960,
      "##篇": 2961,
      "##🇷": 2962,
      "##ᅲ": 2963,
      "##発": 2964,
      "##を": 2965,
      "##ִ": 2966,
      "##ű": 2967,
      "##ө": 2968,
      "##🎻": 2969,
      "##̝": 2970,
      "##ኝ": 2971,
      "##😠": 2972,
      "##🌓": 2973,
      "##∀": 2974,
      "##ۺ": 2975,
      "##🏹": 2976,
      "##ɣ": 2977,
      "##♭": 2978,
      "##̋": 2979,
      "##🎥": 2980,
      "##🛫": 2981,
      "##🇵": 2982,
      "##∞": 2983,
      "##ᓆ": 2984,
      "##💛": 2985,
      "##💇": 2986,
      "##هه": 2987,
      "##ان": 2988,
      "جي": 2989,
      "##هههه": 2990,
      "##ري": 2991,
      "##هي": 2992,
      "##ين": 2993,
      "##هن": 2994,
      "##ون": 2995,
      "آهي": 2996,
      "##ار": 2997,
      "##ائ": 2998,
      "##يو": 2999,
      "##ال": 3000,
      "کي": 3001,
      "ان": 3002,
      "##ــ": 3003,
      "جو": 3004,
      "##ور": 3005,
      "##ند": 3006,
      "##هههههههه": 3007,
      "ته": 3008,
      "اس": 3009,
      "##لي": 3010,
      "##ام": 3011,
      "##نهن": 3012,
      "##جي": 3013,
      "تي": 3014,
      "##اء": 3015,
      "##يا": 3016,
      "##ئي": 3017,
      "هڪ": 3018,
      "ڪري": 3019,
      "اه": 3020,
      "##اڻ": 3021,
      "##تي": 3022,
      "##دي": 3023,
      "کان": 3024,
      "لاء": 3025,
      "##اري": 3026,
      "سان": 3027,
      "به": 3028,
      "##رو": 3029,
      "نه": 3030,
      "ڪر": 3031,
      "ههههههههه": 3032,
      "ٿي": 3033,
      "##اب": 3034,
      "هن": 3035,
      "##ائي": 3036,
      "اي": 3037,
      "هو": 3038,
      "تو": 3039,
      "ال": 3040,
      "##دا": 3041,
      "آهن": 3042,
      "##ير": 3043,
      "##يڪ": 3044,
      "ڪرڻ": 3045,
      "##لا": 3046,
      "##ــــ": 3047,
      "ٿو": 3048,
      "اسان": 3049,
      "##هان": 3050,
      "##ني": 3051,
      "پي": 3052,
      "##ست": 3053,
      "اهو": 3054,
      "##دو": 3055,
      "جيڪ": 3056,
      "يا": 3057,
      "لاءِ": 3058,
      "##هر": 3059,
      "مو": 3060,
      "##مي": 3061,
      "##ءَ": 3062,
      "##ول": 3063,
      "##نهنجي": 3064,
      "##يل": 3065,
      "سگ": 3066,
      "##را": 3067,
      "توهان": 3068,
      "##يت": 3069,
      "من": 3070,
      "ڪيو": 3071,
      "##سي": 3072,
      "##ائين": 3073,
      "پر": 3074,
      "مان": 3075,
      "مون": 3076,
      "##ات": 3077,
      "هي": 3078,
      "##ڏهن": 3079,
      "##جو": 3080,
      "پو": 3081,
      "جا": 3082,
      "##نگ": 3083,
      "##قي": 3084,
      "##لو": 3085,
      "##قت": 3086,
      "##ها": 3087,
      "ڪند": 3088,
      "وا": 3089,
      "مع": 3090,
      "ٿا": 3091,
      "##اهي": 3092,
      "##اني": 3093,
      "##يم": 3094,
      "ڪو": 3095,
      "رو": 3096,
      "وڌ": 3097,
      "ما": 3098,
      "##ڙي": 3099,
      "ههههه": 3100,
      "وي": 3101,
      "##هو": 3102,
      "ڪم": 3103,
      "سو": 3104,
      "##اد": 3105,
      "##ھن": 3106,
      "##يٽ": 3107,
      "پنهنجي": 3108,
      "##رين": 3109,
      "ئي": 3110,
      "##رف": 3111,
      "او": 3112,
      "##ھي": 3113,
      "##از": 3114,
      "رهي": 3115,
      "##شن": 3116,
      "##سٽ": 3117,
      "ويو": 3118,
      "ڪي": 3119,
      "##له": 3120,
      "انهن": 3121,
      "##بر": 3122,
      "بي": 3123,
      "طور": 3124,
      "##اص": 3125,
      "سڀ": 3126,
      "است": 3127,
      "##اا": 3128,
      "##ئن": 3129,
      "##ههه": 3130,
      "##ورت": 3131,
      "وڃ": 3132,
      "گه": 3133,
      "##اس": 3134,
      "مي": 3135,
      "##بي": 3136,
      "ههههههههههههه": 3137,
      "##اف": 3138,
      "##اي": 3139,
      "##اڪ": 3140,
      "##اڻي": 3141,
      "##گر": 3142,
      "مل": 3143,
      "خو": 3144,
      "##عم": 3145,
      "ڏين": 3146,
      "##ٽي": 3147,
      "سم": 3148,
      "##ءِ": 3149,
      "مح": 3150,
      "##گي": 3151,
      "##ڏي": 3152,
      "##کي": 3153,
      "ماڻ": 3154,
      "په": 3155,
      "##سم": 3156,
      "وڌيڪ": 3157,
      "وين": 3158,
      "##ڪي": 3159,
      "بر": 3160,
      "##ئين": 3161,
      "هون": 3162,
      "وقت": 3163,
      "##ارو": 3164,
      "##الي": 3165,
      "##مل": 3166,
      "ڪج": 3167,
      "##ڙو": 3168,
      "اين": 3169,
      "##در": 3170,
      "في": 3171,
      "سال": 3172,
      "ڇا": 3173,
      "هر": 3174,
      "گهر": 3175,
      "##چي": 3176,
      "در": 3177,
      "##رن": 3178,
      "ام": 3179,
      "##عي": 3180,
      "##نيا": 3181,
      "آھي": 3182,
      "سند": 3183,
      "20": 3184,
      "اڳ": 3185,
      "جنهن": 3186,
      "ڏي": 3187,
      "##ائڻ": 3188,
      "##خت": 3189,
      "##عمال": 3190,
      "ور": 3191,
      "سي": 3192,
      "##صو": 3193,
      "استعمال": 3194,
      "مش": 3195,
      "ڪئي": 3196,
      "جن": 3197,
      "مر": 3198,
      "مس": 3199,
      "سر": 3200,
      "تع": 3201,
      "تر": 3202,
      "##بو": 3203,
      "##اه": 3204,
      "##دار": 3205,
      "شي": 3206,
      "اهي": 3207,
      "ڳال": 3208,
      "##ٽر": 3209,
      "هئي": 3210,
      "تائين": 3211,
      "جيڪو": 3212,
      "واري": 3213,
      "##ــــــــ": 3214,
      "ڪنهن": 3215,
      "گڏ": 3216,
      "ڪن": 3217,
      "سن": 3218,
      "##تو": 3219,
      "##لام": 3220,
      "##وي": 3221,
      "نظ": 3222,
      "ڪريو": 3223,
      "##ائن": 3224,
      "ڪجهه": 3225,
      "##ڻي": 3226,
      "##لم": 3227,
      "اها": 3228,
      "##وم": 3229,
      "لا": 3230,
      "##فت": 3231,
      "چيو": 3232,
      "مق": 3233,
      "ٿين": 3234,
      "##ندي": 3235,
      "جڏهن": 3236,
      "##سو": 3237,
      "بس": 3238,
      "سگهي": 3239,
      "##ڪن": 3240,
      "ڏينهن": 3241,
      "##هم": 3242,
      "وڃي": 3243,
      "رک": 3244,
      "##سان": 3245,
      "جيڪي": 3246,
      "##زي": 3247,
      "سا": 3248,
      "تم": 3249,
      "##نا": 3250,
      "##رح": 3251,
      "##ارن": 3252,
      "ههههههههههههههههه": 3253,
      "##ٺي": 3254,
      "مط": 3255,
      "پوءِ": 3256,
      "نو": 3257,
      "حاص": 3258,
      "منهنجي": 3259,
      "انهي": 3260,
      "##جن": 3261,
      "لڳ": 3262,
      "##ئر": 3263,
      "##نهنجو": 3264,
      "حاصل": 3265,
      "##في": 3266,
      "ٻڌ": 3267,
      "سندس": 3268,
      "##جود": 3269,
      "ضر": 3270,
      "اع": 3271,
      "لي": 3272,
      "جيڪڏهن": 3273,
      "ڪيت": 3274,
      "##in": 3275,
      "پاڻ": 3276,
      "با": 3277,
      "شا": 3278,
      "اح": 3279,
      "##ڪر": 3280,
      "##ندو": 3281,
      "##ٿي": 3282,
      "##دم": 3283,
      "از": 3284,
      "اص": 3285,
      "تح": 3286,
      "##روع": 3287,
      "دو": 3288,
      "##ڻو": 3289,
      "هئ": 3290,
      "##ڪل": 3291,
      "##ايو": 3292,
      "شروع": 3293,
      "تمام": 3294,
      "##بت": 3295,
      "علي": 3296,
      "##ثر": 3297,
      "##بل": 3298,
      "ناهي": 3299,
      "پن": 3300,
      "##اح": 3301,
      "##er": 3302,
      "##ئون": 3303,
      "گھ": 3304,
      "ڇو": 3305,
      "الله": 3306,
      "پرو": 3307,
      "##شي": 3308,
      "باب": 3309,
      "##رم": 3310,
      "ڪار": 3311,
      "##ولي": 3312,
      "دنيا": 3313,
      "ڪا": 3314,
      "##نو": 3315,
      "##ڪا": 3316,
      "ههههههههههه": 3317,
      "##تم": 3318,
      "ٽي": 3319,
      "ههههههه": 3320,
      "ٿيو": 3321,
      "##ڪار": 3322,
      "صح": 3323,
      "جون": 3324,
      "رهيو": 3325,
      "سمج": 3326,
      "##ھان": 3327,
      "تون": 3328,
      "##ران": 3329,
      "زند": 3330,
      "##اءِ": 3331,
      "اُ": 3332,
      "##نڊ": 3333,
      "ها": 3334,
      "##ائون": 3335,
      "مت": 3336,
      "ڇڏ": 3337,
      "##ـــ": 3338,
      "انت": 3339,
      "##ده": 3340,
      "يع": 3341,
      "مد": 3342,
      "##وري": 3343,
      "بهت": 3344,
      "وئي": 3345,
      "##امل": 3346,
      "عل": 3347,
      "وڏي": 3348,
      "نم": 3349,
      "##وو": 3350,
      "ماڻهو": 3351,
      "دور": 3352,
      "چي": 3353,
      "وٽ": 3354,
      "آر": 3355,
      "دل": 3356,
      "ضرورت": 3357,
      "تب": 3358,
      "##الو": 3359,
      "لک": 3360,
      "##دڙ": 3361,
      "آم": 3362,
      "مخت": 3363,
      "##ڪس": 3364,
      "عم": 3365,
      "##ڪري": 3366,
      "ويندو": 3367,
      "سب": 3368,
      "##كم": 3369,
      "##ڪو": 3370,
      "##00": 3371,
      "##ٺو": 3372,
      "پيدا": 3373,
      "##اهر": 3374,
      "اخ": 3375,
      "مار": 3376,
      "پيش": 3377,
      "##انهن": 3378,
      "صرف": 3379,
      "پار": 3380,
      "##لف": 3381,
      "##ستان": 3382,
      "ويا": 3383,
      "##دن": 3384,
      "موجود": 3385,
      "پڻ": 3386,
      "چون": 3387,
      "19": 3388,
      "آخ": 3389,
      "ٻي": 3390,
      "##امي": 3391,
      "خاص": 3392,
      "##پي": 3393,
      "ڪڏهن": 3394,
      "وال": 3395,
      "##عو": 3396,
      "حڪ": 3397,
      "##جا": 3398,
      "ٿيڻ": 3399,
      "##تن": 3400,
      "##لب": 3401,
      "اچي": 3402,
      "زندگي": 3403,
      "وڏ": 3404,
      "ڏس": 3405,
      "طرف": 3406,
      "##يني": 3407,
      "ڪيئن": 3408,
      "##on": 3409,
      "201": 3410,
      "ڪندو": 3411,
      "لو": 3412,
      "قسم": 3413,
      "بابت": 3414,
      "تن": 3415,
      "ڪه": 3416,
      "##ھو": 3417,
      "سڀني": 3418,
      "ڊي": 3419,
      "چو": 3420,
      "چاهي": 3421,
      "ماڻهن": 3422,
      "جيئن": 3423,
      "##عد": 3424,
      "پڙ": 3425,
      "##مين": 3426,
      "ڪمپ": 3427,
      "##ar": 3428,
      "طري": 3429,
      "##اتي": 3430,
      "طرح": 3431,
      "تنهن": 3432,
      "##صي": 3433,
      "شامل": 3434,
      "##فا": 3435,
      "##مان": 3436,
      "ٻئي": 3437,
      "اسٽ": 3438,
      "عمل": 3439,
      "ري": 3440,
      "##رت": 3441,
      "##ندا": 3442,
      "##ندڙ": 3443,
      "ڪت": 3444,
      "##هڻ": 3445,
      "سنڌ": 3446,
      "##من": 3447,
      "مختلف": 3448,
      "##وٽ": 3449,
      "عام": 3450,
      "اڪ": 3451,
      "اڄ": 3452,
      "گهٽ": 3453,
      "يعني": 3454,
      "نا": 3455,
      "وان": 3456,
      "غير": 3457,
      "ڪندا": 3458,
      "هئا": 3459,
      "##ما": 3460,
      "##شت": 3461,
      "وارو": 3462,
      "##رب": 3463,
      "بڻ": 3464,
      "آهيان": 3465,
      "هههههههههه": 3466,
      "##es": 3467,
      "##لس": 3468,
      "اج": 3469,
      "گذ": 3470,
      "خي": 3471,
      "خبر": 3472,
      "##پور": 3473,
      "هل": 3474,
      "##an": 3475,
      "ڳالهه": 3476,
      "تج": 3477,
      "##وا": 3478,
      "حال": 3479,
      "##اااا": 3480,
      "مڪ": 3481,
      "هههههههه": 3482,
      "مدد": 3483,
      "رهيا": 3484,
      "بل": 3485,
      "واق": 3486,
      "هوندي": 3487,
      "اد": 3488,
      "حقي": 3489,
      "سائي": 3490,
      "##سين": 3491,
      "مث": 3492,
      "شاي": 3493,
      "##طي": 3494,
      "##وني": 3495,
      "را": 3496,
      "ملڪ": 3497,
      "ٻن": 3498,
      "ڏانهن": 3499,
      "##ارا": 3500,
      "##ريون": 3501,
      "نن": 3502,
      "واپ": 3503,
      "آمري": 3504,
      "##سن": 3505,
      "گهرجي": 3506,
      "اندر": 3507,
      "ڪندي": 3508,
      "نظر": 3509,
      "##قو": 3510,
      "ڪتاب": 3511,
      "##فر": 3512,
      "هوندو": 3513,
      "آئون": 3514,
      "دا": 3515,
      "##at": 3516,
      "رس": 3517,
      "آهيون": 3518,
      "ڏيڻ": 3519,
      "اچ": 3520,
      "تاري": 3521,
      "##ڊيو": 3522,
      "##هين": 3523,
      "جيڪا": 3524,
      "نق": 3525,
      "هههههههههههه": 3526,
      "ڪندڙ": 3527,
      "سبب": 3528,
      "فر": 3529,
      "ياد": 3530,
      "سيا": 3531,
      "ذري": 3532,
      "ٻين": 3533,
      "تاريخ": 3534,
      "جه": 3535,
      "ھڪ": 3536,
      "ٿيل": 3537,
      "وچ": 3538,
      "##ضي": 3539,
      "##اند": 3540,
      "پاڪ": 3541,
      "جم": 3542,
      "##ڙا": 3543,
      "مڪمل": 3544,
      "عورت": 3545,
      "جواب": 3546,
      "پس": 3547,
      "پري": 3548,
      "##ذا": 3549,
      "آز": 3550,
      "پا": 3551,
      "##رائي": 3552,
      "##ورو": 3553,
      "##ڳو": 3554,
      "ايس": 3555,
      "نئين": 3556,
      "کيس": 3557,
      "نالو": 3558,
      "فائ": 3559,
      "شهر": 3560,
      "##لن": 3561,
      "سگه": 3562,
      "##مو": 3563,
      "##بن": 3564,
      "##زن": 3565,
      "##شش": 3566,
      "##فظ": 3567,
      "##ڪيٽ": 3568,
      "##بار": 3569,
      "تق": 3570,
      "گهڻو": 3571,
      "ايم": 3572,
      "بنيا": 3573,
      "بين": 3574,
      "يق": 3575,
      "اپ": 3576,
      "##en": 3577,
      "بعد": 3578,
      "هتي": 3579,
      "قيم": 3580,
      "بد": 3581,
      "انسان": 3582,
      "پهرين": 3583,
      "اسڪ": 3584,
      "هاڻي": 3585,
      "اهڙي": 3586,
      "##افي": 3587,
      "آن": 3588,
      "تبدي": 3589,
      "##زار": 3590,
      "هم": 3591,
      "ختم": 3592,
      "##لاح": 3593,
      "ني": 3594,
      "ههههههههههههههه": 3595,
      "اف": 3596,
      "انا": 3597,
      "پنهنجو": 3598,
      "ملي": 3599,
      "وري": 3600,
      "اڃ": 3601,
      "آھن": 3602,
      "##ادي": 3603,
      "سيڪ": 3604,
      "##يان": 3605,
      "##or": 3606,
      "بند": 3607,
      "سگهو": 3608,
      "##به": 3609,
      "۾،": 3610,
      "ٿيندو": 3611,
      "##ٽن": 3612,
      "مسئ": 3613,
      "شايد": 3614,
      "سالن": 3615,
      "پيو": 3616,
      "ڇڏيو": 3617,
      "##شه": 3618,
      "##عت": 3619,
      "ات": 3620,
      "ڪون": 3621,
      "انگ": 3622,
      "10": 3623,
      "رهن": 3624,
      "اهم": 3625,
      "##ضح": 3626,
      "ڏئي": 3627,
      "ٿئي": 3628,
      "وڏو": 3629,
      "ادا": 3630,
      "وٺ": 3631,
      "وس": 3632,
      "هيٺ": 3633,
      "##اجي": 3634,
      "ڇڏي": 3635,
      "##خل": 3636,
      "ڏا": 3637,
      "##روري": 3638,
      "هٿ": 3639,
      "هههههه": 3640,
      "فون": 3641,
      "دوست": 3642,
      "جان": 3643,
      "ايپ": 3644,
      "بح": 3645,
      "سام": 3646,
      "خلا": 3647,
      "##اءُ": 3648,
      "ويب": 3649,
      "دي": 3650,
      "هههههههههههههه": 3651,
      "خيال": 3652,
      "##جب": 3653,
      "ڏنو": 3654,
      "##ضو": 3655,
      "بهترين": 3656,
      "##al": 3657,
      "خط": 3658,
      "##پو": 3659,
      "##قل": 3660,
      "##سر": 3661,
      "خر": 3662,
      "صورت": 3663,
      "نٿ": 3664,
      "منهنجو": 3665,
      "اسلام": 3666,
      "آيو": 3667,
      "ٻه": 3668,
      "##لوم": 3669,
      "عليه": 3670,
      "سگهن": 3671,
      "آئي": 3672,
      "##ارف": 3673,
      "##مت": 3674,
      "ڪل": 3675,
      "مطلب": 3676,
      "قان": 3677,
      "##عا": 3678,
      "اوهان": 3679,
      "##وار": 3680,
      "وٺي": 3681,
      "حق": 3682,
      "سوال": 3683,
      "##ريل": 3684,
      "ٺاهي": 3685,
      "هجي": 3686,
      "ڪمپني": 3687,
      "شو": 3688,
      "ٻيو": 3689,
      "ويندي": 3690,
      "معي": 3691,
      "پڇ": 3692,
      "##يح": 3693,
      "پئي": 3694,
      "##اج": 3695,
      "گو": 3696,
      "##ur": 3697,
      "ڪوشش": 3698,
      "##پورٽ": 3699,
      "##ڪٽ": 3700,
      "وانگر": 3701,
      "پوء": 3702,
      "يون": 3703,
      "##وت": 3704,
      "آهيو": 3705,
      "خوش": 3706,
      "رات": 3707,
      "خدا": 3708,
      "سوچ": 3709,
      "##سوس": 3710,
      "##ءُ": 3711,
      "ذريعي": 3712,
      "##ليم": 3713,
      "مال": 3714,
      "الم": 3715,
      "ڪارو": 3716,
      "قيمت": 3717,
      "يو": 3718,
      "ڄاڻ": 3719,
      "##it": 3720,
      "سين": 3721,
      "##حد": 3722,
      "##يرا": 3723,
      "##جڻ": 3724,
      "ار": 3725,
      "ڪيا": 3726,
      "مخ": 3727,
      "توھان": 3728,
      "شر": 3729,
      "##يد": 3730,
      "امي": 3731,
      "ڳو": 3732,
      "##يون": 3733,
      "صحيح": 3734,
      "فار": 3735,
      "##مد": 3736,
      "##ھنجي": 3737,
      "ٻار": 3738,
      "آخر": 3739,
      "منهن": 3740,
      "بچ": 3741,
      "##ing": 3742,
      "##يور": 3743,
      "ٽيڪ": 3744,
      "##فو": 3745,
      "پاڻي": 3746,
      "لفظ": 3747,
      "حقيقت": 3748,
      "تصو": 3749,
      "غل": 3750,
      "##داري": 3751,
      "##لق": 3752,
      "سائيٽ": 3753,
      "معلوم": 3754,
      "ڪيل": 3755,
      "هنن": 3756,
      "گر": 3757,
      "##ro": 3758,
      "مض": 3759,
      "اوھان": 3760,
      "تص": 3761,
      "##شان": 3762,
      "بن": 3763,
      "ڏسي": 3764,
      "اڃا": 3765,
      "=\"": 3766,
      "اتي": 3767,
      "##كن": 3768,
      "بال": 3769,
      "##ڊي": 3770,
      "##با": 3771,
      "قاب": 3772,
      "##۔۔": 3773,
      "جل": 3774,
      "ڪام": 3775,
      "ترقي": 3776,
      "جاري": 3777,
      "عال": 3778,
      "ننڍ": 3779,
      "##سل": 3780,
      "مارڪيٽ": 3781,
      "اک": 3782,
      "ائين": 3783,
      "##ورن": 3784,
      "دوران": 3785,
      "مم": 3786,
      "فيص": 3787,
      "##ڊيا": 3788,
      "انتظ": 3789,
      "والله": 3790,
      "ڪان": 3791,
      "##صر": 3792,
      "رنگ": 3793,
      "سڄ": 3794,
      "مٿ": 3795,
      "حڪوم": 3796,
      "حل": 3797,
      "##اهه": 3798,
      "ڪيترن": 3799,
      "ضروري": 3800,
      "روز": 3801,
      "صف": 3802,
      "##هور": 3803,
      "##ic": 3804,
      "##le": 3805,
      "اصل": 3806,
      "منظ": 3807,
      "آب": 3808,
      "شك": 3809,
      "هههههههههههههههه": 3810,
      "صاح": 3811,
      "مواد": 3812,
      "پاڪستان": 3813,
      "حصو": 3814,
      "ظاهر": 3815,
      "جتي": 3816,
      "ٻاهر": 3817,
      "گھر": 3818,
      "علائ": 3819,
      "##يي": 3820,
      "ڊيٽ": 3821,
      "چين": 3822,
      "بهتر": 3823,
      "ولا": 3824,
      "سندن": 3825,
      "##جه": 3826,
      "ساڳ": 3827,
      "فق": 3828,
      "اٿ": 3829,
      "علا": 3830,
      "##كت": 3831,
      "پون": 3832,
      "رکي": 3833,
      "##ليل": 3834,
      "##داز": 3835,
      "اثر": 3836,
      "پنهن": 3837,
      "الس": 3838,
      "مٿي": 3839,
      "##خص": 3840,
      "ھن": 3841,
      "اول": 3842,
      "##لان": 3843,
      "اسپ": 3844,
      "##اپ": 3845,
      "##ائم": 3846,
      "اسين": 3847,
      "پهريون": 3848,
      "قر": 3849,
      "محسوس": 3850,
      "##راه": 3851,
      "##ستي": 3852,
      "لڳي": 3853,
      "##ed": 3854,
      "##ڙن": 3855,
      "سفر": 3856,
      "آسان": 3857,
      "عمر": 3858,
      "خري": 3859,
      "؟\"": 3860,
      "ڪجھ": 3861,
      "هُ": 3862,
      "هوندا": 3863,
      "مطاب": 3864,
      "مهي": 3865,
      "آمريڪا": 3866,
      "تبديل": 3867,
      "مست": 3868,
      "ڏسڻ": 3869,
      "خدم": 3870,
      "صلاح": 3871,
      "##ينڊ": 3872,
      "مج": 3873,
      "بيان": 3874,
      "اھو": 3875,
      "تصوير": 3876,
      "##ضوع": 3877,
      "ڏني": 3878,
      "جنگ": 3879,
      "ٿيون": 3880,
      "ڀي": 3881,
      "على": 3882,
      "حڪومت": 3883,
      "حو": 3884,
      "##تا": 3885,
      "سک": 3886,
      "مثال": 3887,
      "st": 3888,
      "##دين": 3889,
      "##st": 3890,
      "##ره": 3891,
      "##آآ": 3892,
      "##ارت": 3893,
      "پهچ": 3894,
      "نف": 3895,
      "معيار": 3896,
      "##ياتي": 3897,
      "ريا": 3898,
      "ملا": 3899,
      "##ظيم": 3900,
      "صاحب": 3901,
      "جسم": 3902,
      "قب": 3903,
      "طرفان": 3904,
      "پئ": 3905,
      "##ِي": 3906,
      "تنهنجي": 3907,
      "شع": 3908,
      "خلاف": 3909,
      "##داد": 3910,
      "مز": 3911,
      "لائن": 3912,
      "رڳو": 3913,
      "##ساني": 3914,
      "##ڏھن": 3915,
      "وارا": 3916,
      "ٿيندي": 3917,
      "چار": 3918,
      "آف": 3919,
      "##انو": 3920,
      "##پر": 3921,
      "سگهجي": 3922,
      "سه": 3923,
      "رکڻ": 3924,
      "رد": 3925,
      "##ميشه": 3926,
      "عو": 3927,
      "##صد": 3928,
      "##قا": 3929,
      "چه": 3930,
      "خود": 3931,
      "اختي": 3932,
      "##گرام": 3933,
      "هوءَ": 3934,
      "##ياري": 3935,
      "راند": 3936,
      "##ائل": 3937,
      "الح": 3938,
      "۾.": 3939,
      "ڏک": 3940,
      "پيار": 3941,
      "عر": 3942,
      "ڏيک": 3943,
      "##ازي": 3944,
      "دست": 3945,
      "ڳاله": 3946,
      "##يات": 3947,
      "قانون": 3948,
      "سچ": 3949,
      "##پري": 3950,
      "شخص": 3951,
      "فو": 3952,
      "تيار": 3953,
      "##ديد": 3954,
      "##اسين": 3955,
      "##ڪاري": 3956,
      "ايران": 3957,
      "##ڪرو": 3958,
      "واپس": 3959,
      "##اڪاڻ": 3960,
      "ڏاڍ": 3961,
      "ڊيٽا": 3962,
      "تف": 3963,
      "بخ": 3964,
      "اش": 3965,
      "ڇاڪاڻ": 3966,
      "تان": 3967,
      "اب": 3968,
      "##هون": 3969,
      "نتي": 3970,
      "منت": 3971,
      "پيداوار": 3972,
      "##ڊر": 3973,
      "پسند": 3974,
      "حلو": 3975,
      "##باني": 3976,
      "##ائو": 3977,
      "##غير": 3978,
      "چونڊ": 3979,
      "انداز": 3980,
      "co": 3981,
      "بو": 3982,
      "قدر": 3983,
      "زمين": 3984,
      "##ٽو": 3985,
      "##يس": 3986,
      "##سٽم": 3987,
      "مص": 3988,
      "مشهور": 3989,
      "ڪيترائي": 3990,
      "##رر": 3991,
      "قوم": 3992,
      "قابل": 3993,
      "برا": 3994,
      "ڏيو": 3995,
      "انهيءَ": 3996,
      "##مون": 3997,
      "اعلي": 3998,
      "مونکي": 3999,
      "##انن": 4000,
      "تقري": 4001,
      "الي": 4002,
      "نظام": 4003,
      "اجاز": 4004,
      "فرا": 4005,
      "هميشه": 4006,
      "##ائر": 4007,
      "##حي": 4008,
      "آيا": 4009,
      "##et": 4010,
      "توکي": 4011,
      "چوڻ": 4012,
      "ڊگ": 4013,
      "موق": 4014,
      "صن": 4015,
      "##id": 4016,
      "ٻنهي": 4017,
      "ھو": 4018,
      "##اسب": 4019,
      "بلا": 4020,
      "دف": 4021,
      "داخل": 4022,
      "##اھ": 4023,
      "اجازت": 4024,
      "نيو": 4025,
      "##نت": 4026,
      "##قن": 4027,
      "صارف": 4028,
      "15": 4029,
      "مهر": 4030,
      "آو": 4031,
      "##ٽرو": 4032,
      "##ڌو": 4033,
      "شين": 4034,
      "طا": 4035,
      "ههههههههههههههههههه": 4036,
      "سڏ": 4037,
      "يقين": 4038,
      "شاع": 4039,
      "خوب": 4040,
      "عن": 4041,
      "وز": 4042,
      "سٺو": 4043,
      "کا": 4044,
      "##زا": 4045,
      "ڏٺو": 4046,
      "پير": 4047,
      "##am": 4048,
      "##ذه": 4049,
      "مري": 4050,
      "18": 4051,
      "حس": 4052,
      "باري": 4053,
      "##ڻيڪ": 4054,
      "جيتو": 4055,
      "الا": 4056,
      "كل": 4057,
      "##تون": 4058,
      "بنيادي": 4059,
      "پاس": 4060,
      "##دس": 4061,
      "نٿو": 4062,
      "##ڪيشن": 4063,
      "##ڌي": 4064,
      "سرو": 4065,
      "جيتوڻيڪ": 4066,
      "##سپ": 4067,
      "پلي": 4068,
      "؟؟": 4069,
      "##فوظ": 4070,
      "##قيق": 4071,
      "هذا": 4072,
      "وارن": 4073,
      "راب": 4074,
      "محفوظ": 4075,
      "##ياب": 4076,
      "آء": 4077,
      "وڃڻ": 4078,
      "کانپو": 4079,
      "##ميت": 4080,
      "##ac": 4081,
      "يور": 4082,
      "##وه": 4083,
      "موڪل": 4084,
      "طاقت": 4085,
      "قائم": 4086,
      ").": 4087,
      "ڏن": 4088,
      "لائ": 4089,
      "ڪلا": 4090,
      "بار": 4091,
      "ڪونه": 4092,
      "ٽيڪن": 4093,
      "گراه": 4094,
      "موضوع": 4095,
      "آواز": 4096,
      "##ٽل": 4097,
      "پروگرام": 4098,
      ".\"": 4099,
      "واقعي": 4100,
      "نئون": 4101,
      "مُ": 4102,
      "##ــــــــــــ": 4103,
      "200": 4104,
      "شه": 4105,
      "##تل": 4106,
      "12": 4107,
      "##ريڪ": 4108,
      "تعليم": 4109,
      "##اريو": 4110,
      "##ion": 4111,
      "##خوا": 4112,
      "ڳول": 4113,
      "ڄڻ": 4114,
      "ڪير": 4115,
      "ايت": 4116,
      "سمجهي": 4117,
      "##صل": 4118,
      "##بان": 4119,
      "ابو": 4120,
      "وار": 4121,
      "آه": 4122,
      "مين": 4123,
      "##ڙهي": 4124,
      "ايڪس": 4125,
      "معلومات": 4126,
      "کڻي": 4127,
      "##يڪل": 4128,
      "هههههههههههههههههه": 4129,
      "ھي": 4130,
      "هيو": 4131,
      "##ليس": 4132,
      "##ضحك": 4133,
      "شيء": 4134,
      "شادي": 4135,
      "هجڻ": 4136,
      "پيا": 4137,
      "اسلامي": 4138,
      "سگھ": 4139,
      "سائين": 4140,
      "##تر": 4141,
      "تحقيق": 4142,
      "حڪم": 4143,
      "ويندا": 4144,
      "آخري": 4145,
      "سخت": 4146,
      "قدم": 4147,
      "##ارين": 4148,
      "محبت": 4149,
      "خريد": 4150,
      "حض": 4151,
      "اڪثر": 4152,
      "ڪور": 4153,
      "پنھنجي": 4154,
      "مطابق": 4155,
      "نس": 4156,
      "گرو": 4157,
      "##el": 4158,
      "اسڪول": 4159,
      "منصو": 4160,
      "خراب": 4161,
      "مقصد": 4162,
      "##خواست": 4163,
      "فراهم": 4164,
      "قو": 4165,
      "##ڻڻ": 4166,
      "##هار": 4167,
      "حد": 4168,
      "اميد": 4169,
      "جڳ": 4170,
      "in": 4171,
      "##art": 4172,
      "آزاد": 4173,
      "درخواست": 4174,
      "کانپوءِ": 4175,
      "##ec": 4176,
      "زم": 4177,
      "معا": 4178,
      "##دال": 4179,
      "##سٽر": 4180,
      "##ريان": 4181,
      "نالي": 4182,
      "سط": 4183,
      "ٻارن": 4184,
      "سگھي": 4185,
      "سيڪڙو": 4186,
      "##is": 4187,
      "انگري": 4188,
      "ڊاڪ": 4189,
      "لاز": 4190,
      "ڀر": 4191,
      "##گل": 4192,
      "غلط": 4193,
      "چڪو": 4194,
      "##حا": 4195,
      "چڱ": 4196,
      "سڃ": 4197,
      "نام": 4198,
      "آهين": 4199,
      "هههه": 4200,
      "ميل": 4201,
      "مفت": 4202,
      "گهڻي": 4203,
      "ٻيهر": 4204,
      "ڪمي": 4205,
      "##دگي": 4206,
      "روح": 4207,
      "##رفت": 4208,
      "ميم": 4209,
      "ره": 4210,
      "فقط": 4211,
      "آفي": 4212,
      "احس": 4213,
      "ٿيا": 4214,
      "##گو": 4215,
      "سڄي": 4216,
      "##as": 4217,
      "ڪپ": 4218,
      "##ريو": 4219,
      "حي": 4220,
      "##بح": 4221,
      "##مم": 4222,
      "خان": 4223,
      "ڪهڙي": 4224,
      "##سٽري": 4225,
      "##il": 4226,
      "##ورا": 4227,
      "پنج": 4228,
      "##طو": 4229,
      "##هائي": 4230,
      "پٽ": 4231,
      "ٻولي": 4232,
      "فيصلو": 4233,
      "an": 4234,
      "اض": 4235,
      "نقص": 4236,
      "اختيار": 4237,
      "##ليڪيشن": 4238,
      "سائن": 4239,
      "انٽر": 4240,
      "##گار": 4241,
      "فلم": 4242,
      "##رڪ": 4243,
      "##ائش": 4244,
      "اڻ": 4245,
      "##تح": 4246,
      "##us": 4247,
      "رج": 4248,
      "سياسي": 4249,
      "پاران": 4250,
      "##دان": 4251,
      "باقي": 4252,
      "طريقي": 4253,
      "##ow": 4254,
      "11": 4255,
      "که": 4256,
      "##عه": 4257,
      "نوجو": 4258,
      "ٻڌايو": 4259,
      "بنياد": 4260,
      "ذهن": 4261,
      "جهڙو": 4262,
      "##كر": 4263,
      "ڪافي": 4264,
      "ڪڍ": 4265,
      "##وڙ": 4266,
      "202": 4267,
      "رست": 4268,
      "اڳتي": 4269,
      "مناسب": 4270,
      "اڳو": 4271,
      "##دارن": 4272,
      "تا": 4273,
      "سُ": 4274,
      "##سا": 4275,
      "مرڪ": 4276,
      "ورتو": 4277,
      "اچڻ": 4278,
      "##يندا": 4279,
      "##خخ": 4280,
      "هههههههههههههههههههه": 4281,
      "اق": 4282,
      "عالمي": 4283,
      "اك": 4284,
      "##عن": 4285,
      "کول": 4286,
      "رياست": 4287,
      "سطح": 4288,
      "مقاب": 4289,
      "th": 4290,
      "ڏسو": 4291,
      "نش": 4292,
      "آءٌ": 4293,
      "ملڪن": 4294,
      "شاگر": 4295,
      "ايندڙ": 4296,
      "شيون": 4297,
      "##طن": 4298,
      "ميڊيا": 4299,
      "تخ": 4300,
      "سنگ": 4301,
      "ڳوٺ": 4302,
      "ممڪن": 4303,
      "دلچ": 4304,
      "##ورڊ": 4305,
      "وڊيو": 4306,
      "##زو": 4307,
      "ڪٿي": 4308,
      "سيٽ": 4309,
      "نقصان": 4310,
      "بيم": 4311,
      "30": 4312,
      "رق": 4313,
      "##زر": 4314,
      "فن": 4315,
      "کين": 4316,
      "خوبص": 4317,
      "اون": 4318,
      "##يب": 4319,
      "##الاجي": 4320,
      "##يتن": 4321,
      "ويج": 4322,
      "وج": 4323,
      "تجر": 4324,
      "انج": 4325,
      "##ٽس": 4326,
      "##زم": 4327,
      "اڪائون": 4328,
      "to": 4329,
      "اُن": 4330,
      "##فتي": 4331,
      "ضرور": 4332,
      "واحد": 4333,
      "ڪاروبار": 4334,
      "ترتي": 4335,
      "##شم": 4336,
      "##ريا": 4337,
      "100": 4338,
      "مرح": 4339,
      "چاهيو": 4340,
      "مهرباني": 4341,
      "آمريڪي": 4342,
      "السلام": 4343,
      "شروعات": 4344,
      "مه": 4345,
      "ذاتي": 4346,
      "مسلم": 4347,
      "##جر": 4348,
      "##فته": 4349,
      "طب": 4350,
      "##هيل": 4351,
      "##رانس": 4352,
      "علم": 4353,
      "##اهڻ": 4354,
      "جدا": 4355,
      "##ot": 4356,
      "لاڳ": 4357,
      "۔۔۔": 4358,
      "##باد": 4359,
      "##چر": 4360,
      "فع": 4361,
      "فارم": 4362,
      "ٽيڪنالاجي": 4363,
      "اصلي": 4364,
      "##ڊل": 4365,
      "گهڻ": 4366,
      "مضمون": 4367,
      "اعلان": 4368,
      "##شل": 4369,
      "پڪ": 4370,
      "تس": 4371,
      "صحت": 4372,
      "کن": 4373,
      "##ڪشن": 4374,
      "##اندي": 4375,
      "پل": 4376,
      "نمبر": 4377,
      "##ay": 4378,
      "تڪ": 4379,
      "ڊر": 4380,
      "مسئلو": 4381,
      "انٽرني": 4382,
      "##حت": 4383,
      "پيام": 4384,
      "ترتيب": 4385,
      "تش": 4386,
      "تڏهن": 4387,
      "سلام": 4388,
      "بج": 4389,
      "مطال": 4390,
      "سسٽم": 4391,
      "ڪيون": 4392,
      "تعلق": 4393,
      "حقيقي": 4394,
      "##يءَ": 4395,
      "انھن": 4396,
      "بڻجي": 4397,
      "##ريءَ": 4398,
      "ماح": 4399,
      "حالت": 4400,
      "تعم": 4401,
      "صدر": 4402,
      "##الا": 4403,
      "##ex": 4404,
      "حير": 4405,
      "##ائيندو": 4406,
      "ميٽ": 4407,
      "رپورٽ": 4408,
      "سون": 4409,
      "##فاظ": 4410,
      "##اتو": 4411,
      "##يندو": 4412,
      "ايئر": 4413,
      "ايل": 4414,
      "ڊائون": 4415,
      "هنڌ": 4416,
      "سپ": 4417,
      "يونيور": 4418,
      "##ريف": 4419,
      "وڻ": 4420,
      "هاڻ": 4421,
      "گوگل": 4422,
      "سٺي": 4423,
      "مذه": 4424,
      "عورتن": 4425,
      "ڏنل": 4426,
      "ٽيم": 4427,
      "لوڊ": 4428,
      "##re": 4429,
      "موت": 4430,
      "اِ": 4431,
      "انساني": 4432,
      "##صوص": 4433,
      "##دت": 4434,
      "##يلو": 4435,
      "وض": 4436,
      "##اط": 4437,
      "14": 4438,
      "وڃن": 4439,
      "طريقو": 4440,
      "خدمت": 4441,
      "##ئل": 4442,
      "##الر": 4443,
      "مشين": 4444,
      "ايپليڪيشن": 4445,
      "شم": 4446,
      "چئي": 4447,
      "ڳن": 4448,
      "فل": 4449,
      "ڪجي": 4450,
      "##ستائين": 4451,
      "##ol": 4452,
      "ماءُ": 4453,
      "سامان": 4454,
      "ڌر": 4455,
      "##ريب": 4456,
      "الع": 4457,
      "اخت": 4458,
      "##يه": 4459,
      "##ديم": 4460,
      "يونيورسٽ": 4461,
      "پور": 4462,
      "##ad": 4463,
      "سماجي": 4464,
      "13": 4465,
      "جيت": 4466,
      "پيغ": 4467,
      "هلي": 4468,
      "##يابي": 4469,
      "لڳو": 4470,
      "تعمير": 4471,
      "ڏيکاري": 4472,
      "انسٽ": 4473,
      "لکڻ": 4474,
      "ڪردار": 4475,
      "دير": 4476,
      "نفس": 4477,
      "حفاظ": 4478,
      "رھ": 4479,
      "##انه": 4480,
      "اڪائونٽ": 4481,
      "##هوري": 4482,
      "آپري": 4483,
      "پورو": 4484,
      "يار": 4485,
      "ٺاهڻ": 4486,
      "ڊاڪٽر": 4487,
      "نڪ": 4488,
      "پوليس": 4489,
      "##ٽري": 4490,
      "##آن": 4491,
      "##ٽرول": 4492,
      "حضرت": 4493,
      "گذريل": 4494,
      "احساس": 4495,
      "خوبصورت": 4496,
      "اط": 4497,
      "رفت": 4498,
      "جديد": 4499,
      "##ڪان": 4500,
      "سروس": 4501,
      "\">": 4502,
      "ڪهاڻي": 4503,
      "قومي": 4504,
      "موب": 4505,
      "ڪيس": 4506,
      "جذ": 4507,
      "<<": 4508,
      "##ڏو": 4509,
      "متا": 4510,
      "هين": 4511,
      "هاي": 4512,
      "##ظم": 4513,
      "پارٽي": 4514,
      "پوري": 4515,
      "بلڪل": 4516,
      "وق": 4517,
      "حصي": 4518,
      "##ئو": 4519,
      "روش": 4520,
      "گل": 4521,
      "معني": 4522,
      "ٽن": 4523,
      "واضح": 4524,
      "مساف": 4525,
      "start": 4526,
      "تبديلي": 4527,
      "علاج": 4528,
      "پوندو": 4529,
      "ده": 4530,
      "تيز": 4531,
      "dur": 4532,
      "ڪرا": 4533,
      "ايه": 4534,
      "سنڌي": 4535,
      "خاند": 4536,
      "##خي": 4537,
      "##وز": 4538,
      "##بوط": 4539,
      "##كل": 4540,
      "مرد": 4541,
      "##احت": 4542,
      "سف": 4543,
      "##ارڊ": 4544,
      "ڀيرو": 4545,
      "عملي": 4546,
      "اکين": 4547,
      "حص": 4548,
      "گراهڪن": 4549,
      "##ميو": 4550,
      "##ديق": 4551,
      "##يتون": 4552,
      "نٿا": 4553,
      "##وف": 4554,
      "ڪوبه": 4555,
      "گفت": 4556,
      "##رات": 4557,
      "فرم": 4558,
      "قل": 4559,
      "هند": 4560,
      "##ـــــ": 4561,
      "حوالي": 4562,
      "تاز": 4563,
      "آزادي": 4564,
      "آگ": 4565,
      "پاسي": 4566,
      "ٻيا": 4567,
      "##um": 4568,
      "عوام": 4569,
      "##ڪڻ": 4570,
      "##زل": 4571,
      "موجوده": 4572,
      "يورپ": 4573,
      "موجب": 4574,
      "هيون": 4575,
      "وڌي": 4576,
      "ميمبر": 4577,
      "وٺڻ": 4578,
      "ست": 4579,
      "سلس": 4580,
      "پڙهي": 4581,
      "##ھين": 4582,
      "اسٽي": 4583,
      "##زائن": 4584,
      "##ائيو": 4585,
      "جها": 4586,
      "ڪين": 4587,
      "مٿان": 4588,
      "قبول": 4589,
      "ايڊ": 4590,
      "ھڪڙو": 4591,
      "##اڻو": 4592,
      "رح": 4593,
      "##لاس": 4594,
      "گڏيل": 4595,
      "گھٽ": 4596,
      "عظيم": 4597,
      "وش": 4598,
      "16": 4599,
      "اھ": 4600,
      "باد": 4601,
      "صاف": 4602,
      "ايف": 4603,
      "ڏيندو": 4604,
      "آرٽ": 4605,
      "##oo": 4606,
      "25": 4607,
      "##هيون": 4608,
      "##وووو": 4609,
      "مقرر": 4610,
      "##گه": 4611,
      "سج": 4612,
      "جلد": 4613,
      "لازمي": 4614,
      "صبح": 4615,
      "سرگر": 4616,
      "تعداد": 4617,
      "نوجوان": 4618,
      "اهڙو": 4619,
      "رهڻ": 4620,
      "##حال": 4621,
      "خير": 4622,
      "##ارڻ": 4623,
      "شرح": 4624,
      "##ٽڻ": 4625,
      "##ٺيان": 4626,
      "خرچ": 4627,
      "##رار": 4628,
      "ڪنٽرول": 4629,
      "نيٽ": 4630,
      "##شڪ": 4631,
      "ترج": 4632,
      "عند": 4633,
      "انتظار": 4634,
      "رقم": 4635,
      "حت": 4636,
      "وسي": 4637,
      "له": 4638,
      "##سڪ": 4639,
      "##ارٽ": 4640,
      "اعت": 4641,
      "راندي": 4642,
      "سواءِ": 4643,
      "پڙهڻ": 4644,
      "مضبوط": 4645,
      "17": 4646,
      "مهيا": 4647,
      "نموني": 4648,
      "پوسٽ": 4649,
      "احت": 4650,
      "##os": 4651,
      "محمد": 4652,
      "زندگيءَ": 4653,
      "آفيس": 4654,
      "خواب": 4655,
      "بع": 4656,
      "ڪهڙو": 4657,
      "##ٺا": 4658,
      "##ڙين": 4659,
      "ڪريان": 4660,
      "##شنل": 4661,
      "خوشي": 4662,
      "ڌيان": 4663,
      "##گري": 4664,
      "لن": 4665,
      "بت": 4666,
      "وف": 4667,
      "ڪاري": 4668,
      "##هاي": 4669,
      "صنعت": 4670,
      "عدال": 4671,
      ">>": 4672,
      "شان": 4673,
      "اَ": 4674,
      "##ut": 4675,
      "پنهنجن": 4676,
      "ديو": 4677,
      "مڙ": 4678,
      "ٽو": 4679,
      "##ابت": 4680,
      "حم": 4681,
      "##پن": 4682,
      "لاڳاپ": 4683,
      "ذميو": 4684,
      "پهچي": 4685,
      "ون": 4686,
      "پرا": 4687,
      "رکيو": 4688,
      "انگريزي": 4689,
      "ڪئين": 4690,
      "##لائي": 4691,
      "##شق": 4692,
      "برط": 4693,
      "##ئڻ": 4694,
      "بينڪ": 4695,
      "تہ": 4696,
      "##لع": 4697,
      "سگهون": 4698,
      "##ابر": 4699,
      "وزير": 4700,
      "##نين": 4701,
      "ڪال": 4702,
      "##ent": 4703,
      "ذڪر": 4704,
      "مير": 4705,
      "هيءَ": 4706,
      "منج": 4707,
      "##افت": 4708,
      "##مه": 4709,
      "##دود": 4710,
      "جھ": 4711,
      "پھ": 4712,
      "##ائيل": 4713,
      "##ائيندي": 4714,
      "ڪئ": 4715,
      "چا": 4716,
      "##تان": 4717,
      "فائل": 4718,
      "ڀا": 4719,
      "##پٽ": 4720,
      "آباد": 4721,
      "اوزار": 4722,
      "مليو": 4723,
      "ضح": 4724,
      "آرام": 4725,
      "روشني": 4726,
      "##امو": 4727,
      "صو": 4728,
      "استاد": 4729,
      "چم": 4730,
      "##ثيت": 4731,
      "جلدي": 4732,
      "واڌ": 4733,
      "انڊ": 4734,
      "ڪرڻو": 4735,
      "جمع": 4736,
      "حفاظت": 4737,
      "فرق": 4738,
      "##كي": 4739,
      "جنھن": 4740,
      "ڊو": 4741,
      "علاوه": 4742,
      "##ch": 4743,
      "ايو": 4744,
      "پُ": 4745,
      "##مبر": 4746,
      "معام": 4747,
      "ڪارڪر": 4748,
      "متاثر": 4749,
      "شيءِ": 4750,
      "تصديق": 4751,
      "لان": 4752,
      "##ers": 4753,
      "علائقي": 4754,
      "وڪرو": 4755,
      "زال": 4756,
      "##قبل": 4757,
      "ڪريون": 4758,
      "عب": 4759,
      "##om": 4760,
      "جمهوري": 4761,
      "ڪارڪردگي": 4762,
      "هفتي": 4763,
      "##افٽ": 4764,
      "##ونا": 4765,
      "سرڪاري": 4766,
      "ڪلڪ": 4767,
      "##un": 4768,
      "ڪراچي": 4769,
      "##شر": 4770,
      "جيڪڏھن": 4771,
      "هزار": 4772,
      "گرم": 4773,
      "تنظيم": 4774,
      "##قات": 4775,
      "پهريان": 4776,
      "ڪمپيو": 4777,
      "تنهنڪري": 4778,
      "حيثيت": 4779,
      "ٺهيل": 4780,
      "##em": 4781,
      "زين": 4782,
      "جرم": 4783,
      "عرب": 4784,
      "##ابي": 4785,
      "مف": 4786,
      "##ag": 4787,
      "رسائي": 4788,
      "##تال": 4789,
      "يه": 4790,
      "##اله": 4791,
      "##ext": 4792,
      "ڪارڊ": 4793,
      "تجربو": 4794,
      "سنڀ": 4795,
      "مهم": 4796,
      "##ائيندا": 4797,
      "##ٽا": 4798,
      "رستو": 4799,
      "فط": 4800,
      "پال": 4801,
      "شكرا": 4802,
      "and": 4803,
      "##اااااااا": 4804,
      "##ڳي": 4805,
      "لك": 4806,
      "ھڪڙي": 4807,
      "پڇيو": 4808,
      "##خر": 4809,
      "ونڊ": 4810,
      "ول": 4811,
      "موسم": 4812,
      "##ig": 4813,
      "نشان": 4814,
      "رفتار": 4815,
      "##ٽين": 4816,
      "ماڊل": 4817,
      "غلطي": 4818,
      "شڪ": 4819,
      "##لى": 4820,
      "ههه": 4821,
      "اسم": 4822,
      "جائ": 4823,
      "##ڪت": 4824,
      "##خو": 4825,
      "ٿيندا": 4826,
      "دري": 4827,
      "ليک": 4828,
      "##داشت": 4829,
      "ايندو": 4830,
      "##ليف": 4831,
      "مڃ": 4832,
      "وجود": 4833,
      "##ــــــــــــــــ": 4834,
      "ميو": 4835,
      "وه": 4836,
      "ماهر": 4837,
      "ادب": 4838,
      "هال": 4839,
      "نوڪري": 4840,
      "سائنس": 4841,
      "گم": 4842,
      "##ڪيل": 4843,
      "اني": 4844,
      "ڏاڍو": 4845,
      "يونيورسٽي": 4846,
      "پيغام": 4847,
      "آءِ": 4848,
      "مائ": 4849,
      "مالي": 4850,
      "هڪڙي": 4851,
      "لاڳو": 4852,
      "انٽرنيٽ": 4853,
      "50": 4854,
      "معاه": 4855,
      "جاءِ": 4856,
      "##ab": 4857,
      "##شيا": 4858,
      "وائر": 4859,
      "##هايو": 4860,
      "گرفت": 4861,
      "##لات": 4862,
      "##ميل": 4863,
      "مجمو": 4864,
      "##باري": 4865,
      "ميز": 4866,
      "ڪونهي": 4867,
      "اقت": 4868,
      "##گز": 4869,
      "پليٽ": 4870,
      "ماحول": 4871,
      "يال": 4872,
      "معم": 4873,
      "تصور": 4874,
      "##ub": 4875,
      "وضاحت": 4876,
      "سل": 4877,
      "نمي": 4878,
      "ڊالر": 4879,
      "##ينا": 4880,
      "ڳالهيون": 4881,
      "##ولت": 4882,
      "مستقبل": 4883,
      "لکي": 4884,
      "دٻ": 4885,
      "قتل": 4886,
      "##بري": 4887,
      "رب": 4888,
      "##انا": 4889,
      "بحث": 4890,
      "##حن": 4891,
      "اصول": 4892,
      "##َن": 4893,
      "گرمي": 4894,
      "نور": 4895,
      "##راف": 4896,
      "ولي": 4897,
      "##قول": 4898,
      "##شو": 4899,
      "##رحال": 4900,
      "جوڙ": 4901,
      "ويئي": 4902,
      "خواه": 4903,
      "##بلي": 4904,
      "پيرو": 4905,
      "##هندي": 4906,
      "فوٽ": 4907,
      "##يري": 4908,
      "الن": 4909,
      "افغ": 4910,
      "##دري": 4911,
      "##ap": 4912,
      "##ليت": 4913,
      "هدا": 4914,
      "##حه": 4915,
      "ايمان": 4916,
      "اسڪرين": 4917,
      "24": 4918,
      "گا": 4919,
      "##نٽ": 4920,
      "##ريز": 4921,
      "شاء": 4922,
      "ميڪ": 4923,
      "يقيني": 4924,
      "##انڊ": 4925,
      "بڻائي": 4926,
      "##سنگ": 4927,
      "##جون": 4928,
      "ٿيندڙ": 4929,
      "اڳيان": 4930,
      "سگهيو": 4931,
      "دفعو": 4932,
      "حسين": 4933,
      "لب": 4934,
      "##ul": 4935,
      "اگر": 4936,
      "علام": 4937,
      "##اوي": 4938,
      "ويون": 4939,
      "رهندو": 4940,
      "انتي": 4941,
      "ڪاميابي": 4942,
      "امام": 4943,
      "سڃاڻ": 4944,
      "امير": 4945,
      "لکيو": 4946,
      "بخش": 4947,
      "kn": 4948,
      "ٿورو": 4949,
      "##دد": 4950,
      "ڪامياب": 4951,
      "##ــــــ": 4952,
      "##مر": 4953,
      "ايترو": 4954,
      "ٻڌي": 4955,
      "منهنجا": 4956,
      "تنهنجو": 4957,
      "وزن": 4958,
      "ڪندڙن": 4959,
      "##راني": 4960,
      "موبائل": 4961,
      "ابت": 4962,
      "فري": 4963,
      "##الف": 4964,
      "##قوامي": 4965,
      "ڊگهي": 4966,
      "اھي": 4967,
      "سگھو": 4968,
      "##لسل": 4969,
      "انتظام": 4970,
      "ريت": 4971,
      "##صيل": 4972,
      "بادش": 4973,
      "ڪمپيوٽر": 4974,
      "اظ": 4975,
      "چند": 4976,
      "ڳولي": 4977,
      "بهرحال": 4978,
      "؟؟؟": 4979,
      "شڪل": 4980,
      "##جيب": 4981,
      "اللي": 4982,
      "زور": 4983,
      "ٽرين": 4984,
      "ڪاب": 4985,
      "گري": 4986,
      "سوشل": 4987,
      "حر": 4988,
      "##ايل": 4989,
      "##تك": 4990,
      "##سه": 4991,
      "الف": 4992,
      "قانوني": 4993,
      "جيستائين": 4994,
      "انقل": 4995,
      "پيءُ": 4996,
      "برابر": 4997,
      "##ـي": 4998,
      "سگهان": 4999
    }
  }
}