<unk>	0
<s>	0
</s>	0
er	-0
en	-1
▁s	-2
ar	-3
an	-4
in	-5
et	-6
▁d	-7
▁f	-8
▁a	-9
ll	-10
tt	-11
▁o	-12
▁m	-13
ör	-14
ti	-15
är	-16
▁v	-17
▁h	-18
om	-19
▁k	-20
st	-21
▁b	-22
ch	-23
▁p	-24
ig	-25
on	-26
▁för	-27
▁och	-28
▁att	-29
or	-30
de	-31
ing	-32
na	-33
ka	-34
▁i	-35
än	-36
ra	-37
ed	-38
▁är	-39
▁en	-40
▁in	-41
ag	-42
▁g	-43
▁l	-44
▁t	-45
▁ti	-46
▁av	-47
▁u	-48
▁som	-49
el	-50
▁n	-51
is	-52
ta	-53
▁D	-54
▁till	-55
ter	-56
te	-57
re	-58
▁det	-59
ck	-60
▁på	-61
▁e	-62
lig	-63
▁med	-64
ro	-65
pp	-66
▁de	-67
ning	-68
der	-69
ån	-70
▁vi	-71
as	-72
▁an	-73
▁S	-74
am	-75
al	-76
ver	-77
▁den	-78
▁var	-79
un	-80
▁j	-81
år	-82
at	-83
kt	-84
ri	-85
▁om	-86
▁st	-87
▁inte	-88
▁har	-89
ss	-90
tion	-91
▁M	-92
il	-93
ett	-94
da	-95
ller	-96
em	-97
äl	-98
and	-99
▁du	-100
li	-101
▁V	-102
sk	-103
▁r	-104
▁ut	-105
ätt	-106
▁H	-107
ade	-108
▁kan	-109
ande	-110
▁ett	-111
ur	-112
▁be	-113
▁A	-114
lla	-115
åg	-116
are	-117
▁fr	-118
het	-119
▁F	-120
it	-121
ad	-122
omm	-123
▁E	-124
den	-125
ol	-126
▁sk	-127
▁Det	-128
▁ö	-129
▁jag	-130
för	-131
ska	-132
▁J	-133
sta	-134
▁I	-135
▁T	-136
äg	-137
▁upp	-138
▁B	-139
ot	-140
ång	-141
▁komm	-142
▁eller	-143
▁1	-144
▁så	-145
▁P	-146
si	-147
▁re	-148
▁N	-149
▁ska	-150
ut	-151
▁O	-152
▁från	-153
änd	-154
▁K	-155
es	-156
ak	-157
itt	-158
▁un	-159
ort	-160
äm	-161
ent	-162
▁(	-163
▁pro	-164
ma	-165
ek	-166
▁G	-167
inn	-168
▁2	-169
ans	-170
▁sp	-171
um	-172
..	-173
▁L	-174
ens	-175
us	-176
▁någ	-177
la	-178
fter	-179
▁C	-180
isk	-181
iv	-182
yck	-183
▁kommer	-184
▁över	-185
ligt	-186
ud	-187
era	-188
▁sam	-189
dra	-190
va	-191
ara	-192
ina	-193
▁Jag	-194
▁när	-195
äll	-196
▁all	-197
liga	-198
og	-199
änn	-200
▁gör	-201
▁R	-202
ram	-203
ster	-204
▁kon	-205
sa	-206
ff	-207
ul	-208
jäl	-209
var	-210
ser	-211
ik	-212
le	-213
ell	-214
ste	-215
sp	-216
▁ar	-217
bet	-218
▁sig	-219
äng	-220
iska	-221
sl	-222
rä	-223
▁min	-224
▁vara	-225
00	-226
kti	-227
ker	-228
dig	-229
▁å	-230
del	-231
▁anv	-232
▁under	-233
▁man	-234
▁Vi	-235
▁dig	-236
ull	-237
så	-238
▁han	-239
ven	-240
arna	-241
yg	-242
ers	-243
je	-244
uk	-245
▁beh	-246
▁år	-247
▁U	-248
▁må	-249
▁men	-250
▁"	-251
att	-252
bb	-253
▁gen	-254
▁här	-255
ft	-256
▁där	-257
▁hel	-258
pa	-259
▁De	-260
se	-261
ci	-262
ve	-263
tal	-264
inns	-265
▁För	-266
▁ny	-267
▁alla	-268
gi	-269
ga	-270
ger	-271
▁efter	-272
ne	-273
od	-274
▁vär	-275
▁kun	-276
art	-277
▁ock	-278
erna	-279
▁bli	-280
▁tr	-281
▁också	-282
▁ha	-283
ats	-284
ok	-285
▁Den	-286
ill	-287
▁ver	-288
sam	-289
▁finns	-290
all	-291
▁fl	-292
▁andra	-293
▁vill	-294
ic	-295
ningen	-296
▁En	-297
▁del	-298
▁gr	-299
ling	-300
▁In	-301
▁din	-302
ycket	-303
▁än	-304
for	-305
▁mig	-306
▁c	-307
öj	-308
▁or	-309
▁mer	-310
▁sl	-311
ilj	-312
▁genom	-313
▁vis	-314
kl	-315
▁ä	-316
▁se	-317
öd	-318
▁ex	-319
os	-320
▁”	-321
ningar	-322
id	-323
▁er	-324
▁detta	-325
▁dess	-326
▁dag	-327
▁dem	-328
itet	-329
▁–	-330
▁bör	-331
▁hon	-332
▁-	-333
edan	-334
▁mycket	-335
ord	-336
▁fram	-337
terna	-338
▁na	-339
ligen	-340
erson	-341
▁bara	-342
yn	-343
und	-344
ist	-345
ark	-346
tiv	-347
hå	-348
▁väl	-349
▁vid	-350
sö	-351
per	-352
ånga	-353
land	-354
ce	-355
gen	-356
▁vad	-357
▁få	-358
▁tv	-359
ja	-360
▁vil	-361
mer	-362
▁ing	-363
▁mot	-364
▁verk	-365
▁W	-366
rå	-367
vis	-368
▁någon	-369
▁göra	-370
▁arbet	-371
▁Men	-372
▁sin	-373
▁ta	-374
tioner	-375
eras	-376
est	-377
▁hur	-378
änder	-379
ella	-380
ju	-381
▁pl	-382
▁själ	-383
▁20	-384
ulle	-385
▁person	-386
cka	-387
ring	-388
▁po	-389
sen	-390
lem	-391
ld	-392
opp	-393
arn	-394
▁denna	-395
...	-396
▁Om	-397
▁oss	-398
▁spel	-399
▁bet	-400
lighet	-401
▁ber	-402
▁3	-403
▁kl	-404
▁liv	-405
▁säg	-406
▁Du	-407
ru	-408
sti	-409
▁skulle	-410
yr	-411
▁vår	-412
▁li	-413
ant	-414
▁rätt	-415
▁hö	-416
dag	-417
▁sätt	-418
skap	-419
▁allt	-420
nan	-421
▁använd	-422
tat	-423
▁nu	-424
rig	-425
som	-426
▁männ	-427
äk	-428
▁behö	-429
pl	-430
▁stor	-431
ber	-432
▁kv	-433
aren	-434
▁kom	-435
nad	-436
öl	-437
ende	-438
ken	-439
ket	-440
ön	-441
yd	-442
▁även	-443
▁br	-444
ier	-445
ställ	-446
▁for	-447
▁måste	-448
▁vet	-449
ock	-450
ts	-451
▁många	-452
▁får	-453
öm	-454
▁Och	-455
etag	-456
▁hade	-457
ress	-458
tid	-459
▁utan	-460
sm	-461
kel	-462
▁något	-463
▁barn	-464
▁då	-465
▁hjäl	-466
veck	-467
▁St	-468
▁människ	-469
äst	-470
du	-471
▁bil	-472
bil	-473
▁bra	-474
åra	-475
des	-476
▁första	-477
vär	-478
yst	-479
gt	-480
▁tid	-481
ering	-482
▁dessa	-483
▁le	-484
rar	-485
ost	-486
ann	-487
ets	-488
▁An	-489
ända	-490
im	-491
ick	-492
ion	-493
äker	-494
▁fa	-495
erade	-496
▁bl	-497
tionen	-498
▁inne	-499
ala	-500
▁19	-501
lika	-502
sätt	-503
▁inom	-504
op	-505
ästa	-506
▁ser	-507
▁gång	-508
▁Ä	-509
▁två	-510
uro	-511
ia	-512
▁201	-513
verk	-514
vs	-515
▁sina	-516
▁möj	-517
▁själv	-518
▁först	-519
heter	-520
▁fort	-521
ott	-522
ass	-523
▁of	-524
▁ju	-525
håll	-526
ika	-527
str	-528
man	-529
åt	-530
ellan	-531
upp	-532
▁hå	-533
▁människor	-534
jän	-535
▁Han	-536
▁Detta	-537
nat	-538
lden	-539
▁hem	-540
▁När	-541
▁ri	-542
▁5	-543
digt	-544
▁sm	-545
sion	-546
tro	-547
ystem	-548
else	-549
▁utveck	-550
▁Hur	-551
det	-552
ov	-553
▁åt	-554
▁hand	-555
ölj	-556
kon	-557
▁fråg	-558
▁ni	-559
▁nya	-560
▁sta	-561
▁fun	-562
org	-563
gång	-564
▁mellan	-565
▁ka	-566
▁ditt	-567
ytt	-568
iga	-569
▁Vad	-570
▁ra	-571
▁sak	-572
nings	-573
▁Var	-574
▁behöver	-575
lev	-576
nar	-577
▁ma	-578
▁4	-579
▁börj	-580
ym	-581
▁w	-582
▁våra	-583
▁säker	-584
forma	-585
▁olika	-586
ele	-587
▁företag	-588
▁pre	-589
jär	-590
▁led	-591
ägg	-592
ien	-593
tis	-594
ack	-595
▁vä	-596
).	-597
▁milj	-598
he	-599
duk	-600
▁hela	-601
mar	-602
▁läng	-603
▁hög	-604
▁världen	-605
▁lag	-606
oll	-607
▁säger	-608
▁vikti	-609
▁sitt	-610
▁gj	-611
▁dina	-612
▁int	-613
▁sv	-614
▁mo	-615
heten	-616
lar	-617
▁åter	-618
▁sedan	-619
fr	-620
pel	-621
▁några	-622
▁stör	-623
▁deras	-624
fatt	-625
▁varje	-626
ära	-627
▁gå	-628
andet	-629
▁sen	-630
▁di	-631
▁pr	-632
gr	-633
▁förb	-634
erar	-635
▁kän	-636
anska	-637
sök	-638
gram	-639
▁per	-640
▁gl	-641
▁blir	-642
ub	-643
tur	-644
edel	-645
ob	-646
dan	-647
▁kö	-648
vet	-649
▁te	-650
▁enda	-651
▁ty	-652
men	-653
ygg	-654
ir	-655
formation	-656
▁Un	-657
▁skall	-658
tera	-659
▁res	-660
▁ro	-661
▁honom	-662
min	-663
▁ig	-664
▁hitt	-665
erad	-666
änner	-667
ang	-668
▁Gud	-669
riv	-670
par	-671
nas	-672
▁alltid	-673
dom	-674
▁fin	-675
▁sj	-676
usi	-677
ös	-678
▁äl	-679
▁slut	-680
net	-681
di	-682
ys	-683
▁förs	-684
pro	-685
▁går	-686
arbet	-687
▁bå	-688
▁mark	-689
▁samma	-690
pe	-691
alt	-692
äs	-693
▁väg	-694
ation	-695
tiska	-696
ål	-697
▁tro	-698
äd	-699
ske	-700
ank	-701
▁Så	-702
eg	-703
▁vän	-704
▁hen	-705
igt	-706
▁hans	-707
▁Att	-708
▁helt	-709
olk	-710
▁par	-711
▁änd	-712
uv	-713
sb	-714
▁grund	-715
gar	-716
far	-717
kten	-718
nader	-719
ba	-720
blem	-721
▁Fr	-722
▁200	-723
äller	-724
▁varit	-725
▁Euro	-726
▁vilket	-727
ät	-728
dre	-729
skar	-730
▁ur	-731
lin	-732
▁lång	-733
ebb	-734
sten	-735
▁best	-736
cent	-737
ellt	-738
skil	-739
▁information	-740
ättre	-741
▁samt	-742
▁läm	-743
utom	-744
orde	-745
▁kunna	-746
▁använda	-747
ingen	-748
▁läg	-749
ow	-750
▁Med	-751
▁eg	-752
av	-753
äck	-754
▁mitt	-755
▁so	-756
ie	-757
▁bästa	-758
▁ingen	-759
▁ger	-760
▁tre	-761
vänd	-762
▁pen	-763
▁bättre	-764
▁fil	-765
komm	-766
älla	-767
gan	-768
anden	-769
▁6	-770
▁trä	-771
pt	-772
▁Har	-773
▁ge	-774
▁följ	-775
ingar	-776
gifter	-777
▁annan	-778
▁tjän	-779
▁tän	-780
▁kr	-781
iskt	-782
▁erb	-783
▁spe	-784
gör	-785
ldrig	-786
tiva	-787
▁arti	-788
▁produk	-789
ekn	-790
▁ly	-791
▁al	-792
empel	-793
▁igen	-794
▁reg	-795
▁kra	-796
orna	-797
xt	-798
olog	-799
slut	-800
▁bi	-801
▁annat	-802
▁förv	-803
ef	-804
istor	-805
▁mest	-806
▁lite	-807
▁vin	-808
lek	-809
unt	-810
andling	-811
äns	-812
svar	-813
▁aldrig	-814
▁Sk	-815
▁van	-816
▁webb	-817
▁sö	-818
naden	-819
▁eff	-820
enter	-821
▁sna	-822
talet	-823
tta	-824
▁hos	-825
▁speci	-826
▁gra	-827
tionella	-828
erat	-829
▁förl	-830
▁ord	-831
tiskt	-832
ug	-833
▁on	-834
▁akti	-835
met	-836
ung	-837
▁fall	-838
uta	-839
▁si	-840
ades	-841
.”	-842
led	-843
▁produ	-844
bar	-845
▁mål	-846
mans	-847
▁tar	-848
▁svar	-849
▁komma	-850
▁Dess	-851
tag	-852
▁ch	-853
uvud	-854
▁flera	-855
oka	-856
rätt	-857
▁7	-858
▁Ch	-859
▁fär	-860
▁lever	-861
jer	-862
jekt	-863
ropp	-864
teg	-865
▁bort	-866
anta	-867
▁stora	-868
▁dom	-869
▁kvinn	-870
ator	-871
▁eftersom	-872
▁skri	-873
▁snabb	-874
ast	-875
gär	-876
br	-877
baka	-878
▁medlem	-879
▁egen	-880
▁öpp	-881
▁ve	-882
▁problem	-883
▁Kan	-884
▁blev	-885
▁Ett	-886
ote	-887
▁plan	-888
obb	-889
▁val	-890
fe	-891
▁pa	-892
ke	-893
kta	-894
▁På	-895
kom	-896
▁ofta	-897
▁US	-898
▁Hon	-899
▁exempel	-900
eller	-901
fl	-902
▁mis	-903
ard	-904
ab	-905
rum	-906
nen	-907
ånd	-908
▁verkligen	-909
yl	-910
▁10	-911
▁tror	-912
tar	-913
▁enligt	-914
yra	-915
kor	-916
▁tidig	-917
åd	-918
▁tillbaka	-919
▁krä	-920
▁.	-921
▁innan	-922
▁sn	-923
▁gäller	-924
pen	-925
ektiv	-926
amilj	-927
oner	-928
▁8	-929
▁lär	-930
▁tekn	-931
oli	-932
▁Re	-933
▁komp	-934
▁Alla	-935
ärskil	-936
▁mat	-937
▁kall	-938
elser	-939
▁Pro	-940
▁häl	-941
sför	-942
▁hjär	-943
▁off	-944
."	-945
▁pra	-946
atser	-947
▁organ	-948
▁hör	-949
▁rel	-950
ust	-951
▁Y	-952
raf	-953
ultat	-954
rid	-955
▁full	-956
▁lig	-957
ående	-958
000	-959
▁syn	-960
▁natur	-961
▁fick	-962
farande	-963
▁sjuk	-964
▁Är	-965
sh	-966
▁vatt	-967
▁områ	-968
tig	-969
fin	-970
▁rö	-971
▁män	-972
▁ner	-973
▁dire	-974
▁“	-975
ata	-976
iver	-977
▁[	-978
sak	-979
▁Till	-980
▁intress	-981
▁Man	-982
jud	-983
lägg	-984
ktor	-985
plats	-986
sammans	-987
derna	-988
cess	-989
▁plats	-990
ren	-991
▁bok	-992
las	-993
nes	-994
med	-995
▁Där	-996
▁berätt	-997
eh	-998
ler	-999
nade	-1000
▁kunde	-1001
▁9	-1002
▁kanske	-1003
tu	-1004
▁föränd	-1005
teri	-1006
▁All	-1007
▁land	-1008
),	-1009
▁huvud	-1010
▁god	-1011
bild	-1012
▁kont	-1013
▁sådan	-1014
▁Som	-1015
▁Ne	-1016
▁nam	-1017
kade	-1018
mär	-1019
▁kär	-1020
älj	-1021
▁forsk	-1022
konom	-1023
▁mö	-1024
ender	-1025
io	-1026
sin	-1027
räck	-1028
▁både	-1029
▁möjlighet	-1030
▁stöd	-1031
▁använder	-1032
▁hjälp	-1033
kar	-1034
▁särskil	-1035
▁sy	-1036
▁utveckling	-1037
▁program	-1038
alitet	-1039
▁histor	-1040
▁kropp	-1041
oh	-1042
▁em	-1043
anda	-1044
rist	-1045
▁bland	-1046
▁artikel	-1047
▁dra	-1048
▁fle	-1049
▁erbju	-1050
▁met	-1051
sn	-1052
▁lä	-1053
▁saker	-1054
▁familj	-1055
▁EU	-1056
▁lätt	-1057
▁form	-1058
▁Ö	-1059
▁lik	-1060
giv	-1061
pan	-1062
samhet	-1063
årt	-1064
▁lå	-1065
▁redan	-1066
”.	-1067
▁mina	-1068
▁säga	-1069
ycker	-1070
▁USA	-1071
▁jobb	-1072
▁ekonom	-1073
▁poli	-1074
▁före	-1075
▁idag	-1076
ex	-1077
▁Ar	-1078
▁gam	-1079
▁dö	-1080
▁hän	-1081
▁regi	-1082
▁Här	-1083
ister	-1084
ner	-1085
▁Efter	-1086
▁personer	-1087
▁mindre	-1088
▁fortfarande	-1089
▁bek	-1090
enskap	-1091
▁risk	-1092
▁dock	-1093
form	-1094
▁tidigare	-1095
▁Ma	-1096
terar	-1097
▁interna	-1098
orm	-1099
▁gjort	-1100
äv	-1101
yt	-1102
▁Å	-1103
slag	-1104
▁ligger	-1105
tik	-1106
sf	-1107
ret	-1108
▁enkel	-1109
▁tillsammans	-1110
▁fri	-1111
▁lö	-1112
▁ställ	-1113
▁endast	-1114
▁kontro	-1115
▁red	-1116
▁vissa	-1117
▁väldigt	-1118
aste	-1119
▁skyd	-1120
▁tal	-1121
stånd	-1122
spro	-1123
▁Varför	-1124
if	-1125
▁im	-1126
gon	-1127
▁Denna	-1128
▁system	-1129
▁ob	-1130
▁inkl	-1131
ivå	-1132
▁håll	-1133
▁soci	-1134
lag	-1135
▁Nu	-1136
▁procent	-1137
rott	-1138
ument	-1139
ry	-1140
tet	-1141
▁fast	-1142
▁förstå	-1143
amma	-1144
▁rör	-1145
▁inneb	-1146
▁dr	-1147
▁sa	-1148
häll	-1149
ivers	-1150
▁hjälpa	-1151
▁inter	-1152
gäng	-1153
▁möjligt	-1154
▁ytt	-1155
▁längre	-1156
▁fak	-1157
ind	-1158
▁folk	-1159
▁fortsätt	-1160
▁bak	-1161
jur	-1162
▁Ut	-1163
▁kor	-1164
▁hus	-1165
skri	-1166
▁...	-1167
män	-1168
▁tiden	-1169
▁pengar	-1170
▁största	-1171
▁försö	-1172
▁and	-1173
▁läk	-1174
▁värld	-1175
ämp	-1176
20	-1177
▁kons	-1178
▁tag	-1179
bart	-1180
klar	-1181
▁pris	-1182
anc	-1183
▁fel	-1184
me	-1185
▁organis	-1186
▁äg	-1187
spel	-1188
▁data	-1189
yndig	-1190
olag	-1191
▁vatten	-1192
▁bestäm	-1193
ari	-1194
ten	-1195
▁kost	-1196
▁därför	-1197
▁produkter	-1198
▁Under	-1199
ård	-1200
ligare	-1201
▁känner	-1202
drag	-1203
▁väx	-1204
▁fler	-1205
▁kli	-1206
▁ele	-1207
bo	-1208
ris	-1209
håller	-1210
ha	-1211
▁kvinnor	-1212
▁förm	-1213
▁vårt	-1214
▁flyg	-1215
".	-1216
väg	-1217
▁dri	-1218
▁bety	-1219
ps	-1220
uter	-1221
▁fem	-1222
▁ener	-1223
▁resultat	-1224
▁Ja	-1225
tisk	-1226
▁främ	-1227
▁to	-1228
▁skapa	-1229
▁ansvar	-1230
▁beslut	-1231
▁tra	-1232
ori	-1233
▁sex	-1234
oende	-1235
äpp	-1236
▁kul	-1237
tif	-1238
ige	-1239
bland	-1240
från	-1241
▁henne	-1242
▁The	-1243
▁används	-1244
red	-1245
▁Se	-1246
ubli	-1247
▁und	-1248
▁förbätt	-1249
▁tim	-1250
▁sid	-1251
▁utt	-1252
▁Vil	-1253
alis	-1254
ästan	-1255
▁funk	-1256
▁stu	-1257
pi	-1258
▁jäm	-1259
tering	-1260
änk	-1261
▁dagar	-1262
▁flesta	-1263
so	-1264
▁18	-1265
▁stud	-1266
▁nog	-1267
▁viktigt	-1268
▁rikti	-1269
▁veck	-1270
▁säkerhet	-1271
fri	-1272
▁räd	-1273
▁nära	-1274
▁el	-1275
vit	-1276
port	-1277
ras	-1278
van	-1279
▁öka	-1280
▁runt	-1281
▁Europa	-1282
cis	-1283
▁bygg	-1284
▁fot	-1285
vent	-1286
▁sti	-1287
▁pla	-1288
▁hitta	-1289
▁tillgäng	-1290
one	-1291
▁död	-1292
▁kort	-1293
▁gjorde	-1294
▁visar	-1295
▁större	-1296
▁lika	-1297
föra	-1298
ften	-1299
▁länder	-1300
tas	-1301
åga	-1302
▁Sver	-1303
▁tillh	-1304
▁15	-1305
▁star	-1306
▁själva	-1307
▁samhäll	-1308
ännu	-1309
ars	-1310
▁kvar	-1311
line	-1312
▁trans	-1313
ission	-1314
vä	-1315
▁ännu	-1316
ons	-1317
▁gem	-1318
▁stat	-1319
andel	-1320
▁allmän	-1321
val	-1322
bara	-1323
▁namn	-1324
sst	-1325
▁Min	-1326
▁ih	-1327
▁grupp	-1328
sig	-1329
▁innebär	-1330
ge	-1331
▁händer	-1332
▁hennes	-1333
ffär	-1334
tra	-1335
äder	-1336
▁börjar	-1337
▁tred	-1338
terade	-1339
ationer	-1340
▁vilken	-1341
▁konta	-1342
▁varför	-1343
▁senaste	-1344
bel	-1345
tade	-1346
gel	-1347
▁omfatt	-1348
merik	-1349
▁ön	-1350
ansi	-1351
ktur	-1352
▁bor	-1353
elsen	-1354
otell	-1355
igheter	-1356
▁ne	-1357
▁kommun	-1358
jus	-1359
kan	-1360
varande	-1361
▁viktiga	-1362
▁bas	-1363
▁marknad	-1364
▁Dessa	-1365
▁enkelt	-1366
▁styr	-1367
ringar	-1368
▁hålla	-1369
fär	-1370
▁lös	-1371
▁hopp	-1372
▁samarbet	-1373
yll	-1374
akt	-1375
ine	-1376
▁ung	-1377
▁fråga	-1378
vi	-1379
▁direkt	-1380
ay	-1381
▁ad	-1382
▁ned	-1383
tidigt	-1384
▁förh	-1385
rev	-1386
gräns	-1387
verka	-1388
andra	-1389
terial	-1390
▁aktiv	-1391
▁nöd	-1392
▁Sam	-1393
cke	-1394
ity	-1395
▁fått	-1396
satt	-1397
tivt	-1398
▁inför	-1399
örer	-1400
▁Mar	-1401
▁betal	-1402
▁blivit	-1403
▁tycker	-1404
▁älskar	-1405
▁små	-1406
▁erbjuder	-1407
tr	-1408
por	-1409
▁Vis	-1410
▁stra	-1411
▁nästan	-1412
▁byg	-1413
▁skol	-1414
▁vilka	-1415
unk	-1416
eter	-1417
inner	-1418
▁bed	-1419
▁typ	-1420
ice	-1421
▁inve	-1422
▁åtgär	-1423
▁nytt	-1424
▁projekt	-1425
▁särskilt	-1426
▁behandling	-1427
unda	-1428
illar	-1429
▁tjänster	-1430
råk	-1431
▁nät	-1432
peiska	-1433
▁står	-1434
▁inget	-1435
iten	-1436
▁ind	-1437
our	-1438
dens	-1439
▁rapp	-1440
▁livet	-1441
eb	-1442
▁arbete	-1443
▁loka	-1444
▁ytter	-1445
▁skap	-1446
▁op	-1447
▁bef	-1448
▁ögon	-1449
▁ter	-1450
uella	-1451
▁rum	-1452
▁länge	-1453
▁senare	-1454
fer	-1455
▁kam	-1456
yk	-1457
ständ	-1458
▁konst	-1459
▁et	-1460
▁tillgång	-1461
▁&	-1462
▁energi	-1463
hus	-1464
onen	-1465
▁uppf	-1466
dar	-1467
rit	-1468
▁just	-1469
▁Kon	-1470
▁mas	-1471
▁amerik	-1472
▁samman	-1473
▁icke	-1474
▁Inte	-1475
▁bel	-1476
▁miljoner	-1477
▁gånger	-1478
▁funger	-1479
res	-1480
▁euro	-1481
▁Sverige	-1482
iner	-1483
samma	-1484
ligtvis	-1485
▁uppt	-1486
▁musi	-1487
rik	-1488
▁miljö	-1489
▁via	-1490
ral	-1491
dent	-1492
▁webbplats	-1493
▁utbild	-1494
olen	-1495
sättning	-1496
▁fyra	-1497
▁affär	-1498
▁kärlek	-1499
Jag	-1500
▁Allt	-1501
oder	-1502
▁000	-1503
▁id	-1504
unkt	-1505
▁kör	-1506
▁Le	-1507
cker	-1508
▁12	-1509
▁fanta	-1510
▁spela	-1511
▁dagen	-1512
öst	-1513
▁tredje	-1514
▁Al	-1515
okus	-1516
▁Gen	-1517
▁förlor	-1518
faren	-1519
▁part	-1520
▁Även	-1521
▁faktiskt	-1522
▁ci	-1523
ins	-1524
▁cent	-1525
mat	-1526
▁gick	-1527
till	-1528
▁frågor	-1529
▁veta	-1530
▁nödvänd	-1531
ron	-1532
▁lu	-1533
inna	-1534
ött	-1535
▁kri	-1536
▁behov	-1537
cen	-1538
förs	-1539
▁råd	-1540
ighet	-1541
▁Komm	-1542
sikt	-1543
usive	-1544
▁tog	-1545
▁30	-1546
▁började	-1547
över	-1548
▁stort	-1549
▁kunder	-1550
uss	-1551
fil	-1552
▁såg	-1553
ställa	-1554
▁posi	-1555
no	-1556
co	-1557
▁tur	-1558
dera	-1559
els	-1560
ekt	-1561
▁sade	-1562
▁far	-1563
rat	-1564
▁teknik	-1565
rupp	-1566
▁str	-1567
fäll	-1568
itu	-1569
▁steg	-1570
▁rekomm	-1571
▁rep	-1572
▁effektiv	-1573
▁delar	-1574
änt	-1575
lick	-1576
▁lära	-1577
▁Då	-1578
cy	-1579
▁finansi	-1580
▁egna	-1581
▁uppgifter	-1582
fall	-1583
▁Go	-1584
▁Ty	-1585
▁(1	-1586
ration	-1587
▁förut	-1588
ux	-1589
▁sjukdom	-1590
▁fann	-1591
▁Upp	-1592
▁båda	-1593
▁gången	-1594
▁framti	-1595
ternativ	-1596
▁tillämp	-1597
▁Någ	-1598
spr	-1599
▁köpa	-1600
▁nästa	-1601
ond	-1602
▁medan	-1603
▁träff	-1604
ings	-1605
▁snabbt	-1606
bl	-1607
▁arbetar	-1608
fråg	-1609
▁månader	-1610
vid	-1611
!!	-1612
ou	-1613
ran	-1614
▁emot	-1615
▁beg	-1616
tionell	-1617
nande	-1618
ork	-1619
▁välja	-1620
▁invester	-1621
get	-1622
▁myndig	-1623
▁behand	-1624
ong	-1625
▁ol	-1626
▁håller	-1627
▁besök	-1628
▁199	-1629
▁liten	-1630
▁mänsk	-1631
▁svårt	-1632
▁minska	-1633
delse	-1634
▁vänner	-1635
asin	-1636
▁tillräck	-1637
stad	-1638
▁precis	-1639
ct	-1640
▁avs	-1641
▁iden	-1642
vik	-1643
▁vack	-1644
▁framgång	-1645
▁hjälper	-1646
▁blod	-1647
▁Jes	-1648
▁handlar	-1649
▁disk	-1650
ita	-1651
kte	-1652
icka	-1653
ograf	-1654
ningarna	-1655
▁pri	-1656
▁föräl	-1657
▁online	-1658
▁varandra	-1659
▁erfaren	-1660
ism	-1661
enti	-1662
pul	-1663
enhet	-1664
▁timmar	-1665
lam	-1666
▁djur	-1667
ns	-1668
▁innehåller	-1669
▁reger	-1670
▁hal	-1671
hålla	-1672
▁fokus	-1673
Det	-1674
▁riktigt	-1675
ite	-1676
elef	-1677
▁näm	-1678
ktiv	-1679
▁ytterligare	-1680
▁Av	-1681
▁Många	-1682
▁Ro	-1683
▁/	-1684
▁:	-1685
dade	-1686
▁dator	-1687
avs	-1688
▁stad	-1689
▁publi	-1690
kur	-1691
▁Her	-1692
▁Ta	-1693
ont	-1694
ore	-1695
alen	-1696
▁11	-1697
▁skill	-1698
▁pass	-1699
its	-1700
”,	-1701
▁app	-1702
▁process	-1703
▁Fa	-1704
▁ljus	-1705
vol	-1706
yss	-1707
▁början	-1708
0-	-1709
ktyg	-1710
unden	-1711
ror	-1712
▁Sh	-1713
▁lycka	-1714
▁the	-1715
▁tills	-1716
▁fördel	-1717
vara	-1718
▁sådana	-1719
▁fantasti	-1720
▁inga	-1721
▁sett	-1722
▁Z	-1723
▁glob	-1724
▁Mo	-1725
under	-1726
▁året	-1727
ått	-1728
▁pati	-1729
▁kvalitet	-1730
ember	-1731
▁bild	-1732
▁fungerar	-1733
▁nivå	-1734
▁inklusive	-1735
teras	-1736
▁desig	-1737
▁följande	-1738
ölja	-1739
▁bud	-1740
sra	-1741
▁New	-1742
▁känna	-1743
▁Guds	-1744
eln	-1745
▁användning	-1746
",	-1747
öv	-1748
▁sista	-1749
▁fi	-1750
▁förbättra	-1751
lan	-1752
▁ab	-1753
▁forskning	-1754
▁produkt	-1755
▁öv	-1756
▁begräns	-1757
uppgifter	-1758
orden	-1759
▁100	-1760
▁ann	-1761
up	-1762
▁antal	-1763
▁betyder	-1764
▁långt	-1765
eder	-1766
iet	-1767
▁Be	-1768
▁offent	-1769
▁borde	-1770
borg	-1771
▁köp	-1772
▁ute	-1773
▁kraft	-1774
▁ac	-1775
▁by	-1776
lder	-1777
▁mäng	-1778
▁förhåll	-1779
▁helst	-1780
▁minuter	-1781
▁inf	-1782
▁bo	-1783
ssta	-1784
▁användas	-1785
bas	-1786
▁ens	-1787
▁vidare	-1788
går	-1789
▁roll	-1790
▁världens	-1791
▁mil	-1792
▁avsl	-1793
kv	-1794
snitt	-1795
▁gillar	-1796
▁samtidigt	-1797
▁gamla	-1798
äss	-1799
▁16	-1800
▁ren	-1801
▁åtgärder	-1802
räd	-1803
use	-1804
ösa	-1805
▁Ex	-1806
tes	-1807
▁verksamhet	-1808
▁tack	-1809
int	-1810
▁minst	-1811
▁sidan	-1812
icin	-1813
▁haft	-1814
▁ang	-1815
▁go	-1816
▁anal	-1817
▁internationella	-1818
▁resp	-1819
ruktur	-1820
▁Joh	-1821
▁krig	-1822
▁sym	-1823
▁univers	-1824
▁•	-1825
▁äm	-1826
▁Vill	-1827
▁värde	-1828
juk	-1829
fess	-1830
stället	-1831
ya	-1832
ök	-1833
▁fas	-1834
ton	-1835
stitu	-1836
▁släpp	-1837
▁läsa	-1838
▁material	-1839
▁gemens	-1840
▁Ska	-1841
▁Vid	-1842
tions	-1843
lade	-1844
anna	-1845
▁Co	-1846
ubb	-1847
▁fru	-1848
▁flytt	-1849
▁tillfäll	-1850
▁Res	-1851
sprung	-1852
▁tyd	-1853
▁börja	-1854
ordning	-1855
▁verkar	-1856
tem	-1857
▁vem	-1858
dagen	-1859
len	-1860
▁mär	-1861
▁högre	-1862
▁kontroller	-1863
▁viktig	-1864
▁natt	-1865
issionen	-1866
▁fatt	-1867
▁Därför	-1868
fi	-1869
▁tank	-1870
avsett	-1871
▁någonsin	-1872
ap	-1873
▁pol	-1874
▁Fl	-1875
▁visa	-1876
sol	-1877
tim	-1878
omen	-1879
▁innehåll	-1880
▁mag	-1881
grupp	-1882
▁elekt	-1883
▁17	-1884
▁25	-1885
▁situ	-1886
system	-1887
▁fanns	-1888
▁Läs	-1889
▁Sedan	-1890
▁13	-1891
växt	-1892
ännande	-1893
▁tillhanda	-1894
▁%	-1895
▁ganska	-1896
▁anställ	-1897
▁cir	-1898
▁rekommender	-1899
▁skicka	-1900
lad	-1901
cep	-1902
iteten	-1903
▁enlighet	-1904
ater	-1905
drar	-1906
▁blog	-1907
▁bilder	-1908
▁kar	-1909
unn	-1910
▁defin	-1911
▁sag	-1912
▁Jesus	-1913
▁såsom	-1914
lats	-1915
▁mör	-1916
▁alternativ	-1917
▁indiv	-1918
▁gener	-1919
▁Or	-1920
staur	-1921
▁orsak	-1922
rade	-1923
▁Eller	-1924
diga	-1925
▁Stor	-1926
▁sociala	-1927
bi	-1928
▁Ad	-1929
▁tem	-1930
▁film	-1931
▁uppn	-1932
▁utman	-1933
▁genomför	-1934
kn	-1935
▁Fin	-1936
märk	-1937
▁sven	-1938
▁kallas	-1939
▁Pa	-1940
▁lämna	-1941
▁Ber	-1942
▁godk	-1943
▁kunskap	-1944
cer	-1945
fte	-1946
▁framför	-1947
ph	-1948
▁sol	-1949
▁upph	-1950
▁14	-1951
ationen	-1952
ox	-1953
ansk	-1954
▁tänka	-1955
tals	-1956
▁kol	-1957
▁komb	-1958
▁alltså	-1959
▁spelar	-1960
.1	-1961
rust	-1962
▁hemma	-1963
▁dröm	-1964
▁registr	-1965
▁historia	-1966
nam	-1967
kter	-1968
▁låg	-1969
▁kopp	-1970
▁test	-1971
bu	-1972
▁utbildning	-1973
▁gar	-1974
▁kräver	-1975
....	-1976
▁Par	-1977
emang	-1978
▁jord	-1979
lex	-1980
▁låt	-1981
ui	-1982
atur	-1983
derar	-1984
▁resa	-1985
▁träd	-1986
▁landet	-1987
usen	-1988
söka	-1989
lament	-1990
▁extra	-1991
▁jämför	-1992
▁meddel	-1993
post	-1994
▁idé	-1995
▁utanför	-1996
ej	-1997
gift	-1998
▁föd	-1999
▁musik	-2000
▁vilja	-2001
▁hotell	-2002
▁Varje	-2003
▁heller	-2004
▁krävs	-2005
▁popul	-2006
igh	-2007
▁marknaden	-2008
▁ursprung	-2009
▁koll	-2010
▁staden	-2011
▁tillräckligt	-2012
▁ibland	-2013
▁50	-2014
▁ins	-2015
verkar	-2016
▁arbeta	-2017
iss	-2018
▁vå	-2019
▁Ser	-2020
▁skydd	-2021
lien	-2022
ummer	-2023
▁Genom	-2024
▁försöker	-2025
inci	-2026
▁sek	-2027
▁ovan	-2028
▁kontroll	-2029
ssystem	-2030
tiker	-2031
▁känn	-2032
▁Ni	-2033
ryck	-2034
indra	-2035
▁rå	-2036
po	-2037
▁va	-2038
▁känsl	-2039
ligheten	-2040
undra	-2041
▁utveckla	-2042
band	-2043
▁anled	-2044
nova	-2045
▁mode	-2046
ester	-2047
ikation	-2048
▁y	-2049
▁Bl	-2050
mark	-2051
ulla	-2052
by	-2053
▁su	-2054
▁medvet	-2055
▁rappor	-2056
ferens	-2057
stag	-2058
skriv	-2059
▁tradi	-2060
▁arbets	-2061
ana	-2062
ting	-2063
▁hår	-2064
▁vide	-2065
▁lo	-2066
▁Sa	-2067
▁So	-2068
▁äta	-2069
▁förvän	-2070
ätta	-2071
▁mobil	-2072
▁konkur	-2073
▁områden	-2074
be	-2075
vice	-2076
▁X	-2077
▁rättigheter	-2078
▁presen	-2079
▁ville	-2080
▁ko	-2081
▁Vem	-2082
▁maj	-2083
▁hund	-2084
ors	-2085
▁ändå	-2086
inne	-2087
komst	-2088
▁insta	-2089
▁inb	-2090
▁Th	-2091
smedel	-2092
▁kyr	-2093
ppa	-2094
chen	-2095
tigt	-2096
▁ålder	-2097
▁räk	-2098
▁utom	-2099
skaper	-2100
ue	-2101
▁Dessutom	-2102
lut	-2103
mi	-2104
ionen	-2105
▁teck	-2106
▁vägen	-2107
amp	-2108
▁villkor	-2109
vor	-2110
ekter	-2111
▁lämp	-2112
skt	-2113
▁leva	-2114
yp	-2115
plan	-2116
▁älska	-2117
▁,	-2118
▁fortsätta	-2119
ärt	-2120
▁åren	-2121
▁vetenskap	-2122
▁lev	-2123
dern	-2124
▁fortsätter	-2125
tiga	-2126
▁sagt	-2127
▁profess	-2128
▁spelare	-2129
ås	-2130
vin	-2131
stri	-2132
▁ihåg	-2133
▁Q	-2134
vän	-2135
▁ant	-2136
▁snart	-2137
▁grän	-2138
▁följa	-2139
▁vanliga	-2140
▁slag	-2141
▁kväll	-2142
uld	-2143
▁Goog	-2144
▁prakti	-2145
öjd	-2146
▁dok	-2147
▁sida	-2148
▁handel	-2149
▁skriver	-2150
▁funktion	-2151
▁norm	-2152
▁trän	-2153
▁Ingen	-2154
tre	-2155
skatt	-2156
▁bäst	-2157
▁öppna	-2158
▁exper	-2159
▁läkem	-2160
▁slutet	-2161
tighet	-2162
fekt	-2163
▁Från	-2164
▁allvar	-2165
▁medicin	-2166
▁skriva	-2167
▁dju	-2168
ologi	-2169
▁morg	-2170
▁lägga	-2171
▁kultur	-2172
▁Tro	-2173
▁tänker	-2174
mal	-2175
▁hittar	-2176
▁amerikanska	-2177
▁dör	-2178
entligen	-2179
▁bö	-2180
cera	-2181
▁For	-2182
sikti	-2183
urser	-2184
▁vecka	-2185
▁0	-2186
cept	-2187
▁telef	-2188
väm	-2189
dant	-2190
▁inklu	-2191
iera	-2192
▁förklar	-2193
ydd	-2194
▁kn	-2195
räff	-2196
▁ers	-2197
▁språk	-2198
▁stand	-2199
▁Använd	-2200
och	-2201
▁fred	-2202
▁lyss	-2203
lingar	-2204
▁fys	-2205
▁fören	-2206
▁Pre	-2207
ancer	-2208
▁medel	-2209
▁redo	-2210
▁upplev	-2211
▁påverka	-2212
▁klass	-2213
age	-2214
▁Låt	-2215
▁Sta	-2216
stans	-2217
program	-2218
▁insp	-2219
fa	-2220
▁gär	-2221
▁Sp	-2222
kra	-2223
▁kommit	-2224
läg	-2225
▁eget	-2226
napp	-2227
▁regel	-2228
▁Hel	-2229
▁aktivitet	-2230
eri	-2231
▁event	-2232
lös	-2233
mare	-2234
▁glöm	-2235
▁verktyg	-2236
▁Ha	-2237
organ	-2238
öll	-2239
▁ans	-2240
rådet	-2241
▁titt	-2242
▁skriv	-2243
▁innova	-2244
▁ändra	-2245
▁hoppas	-2246
orn	-2247
▁indu	-2248
▁sluta	-2249
▁co	-2250
▁Kom	-2251
▁akt	-2252
▁klar	-2253
pass	-2254
platser	-2255
▁Enligt	-2256
repp	-2257
▁säl	-2258
-1	-2259
ich	-2260
kla	-2261
seende	-2262
▁identif	-2263
etter	-2264
ER	-2265
öt	-2266
väl	-2267
▁försök	-2268
rafik	-2269
▁försv	-2270
eringen	-2271
▁gratis	-2272
▁käns	-2273
▁Mer	-2274
▁san	-2275
äcka	-2276
▁utför	-2277
▁ja	-2278
åter	-2279
▁bu	-2280
står	-2281
▁bakom	-2282
▁kroppen	-2283
aga	-2284
gra	-2285
▁skatt	-2286
dor	-2287
ycka	-2288
minist	-2289
▁uppda	-2290
▁väljer	-2291
▁platser	-2292
▁kontakt	-2293
▁brott	-2294
visa	-2295
▁Tack	-2296
▁hälsa	-2297
▁ekonomiska	-2298
tegi	-2299
▁ps	-2300
▁Isra	-2301
öp	-2302
tjän	-2303
bud	-2304
ies	-2305
▁färg	-2306
▁användare	-2307
otenti	-2308
örj	-2309
ement	-2310
▁bygga	-2311
göra	-2312
▁års	-2313
▁Google	-2314
▁behövs	-2315
201	-2316
▁sh	-2317
▁månad	-2318
▁erfarenhet	-2319
▁vux	-2320
▁typer	-2321
ida	-2322
efär	-2323
ey	-2324
▁version	-2325
▁egentligen	-2326
▁medlemssta	-2327
▁App	-2328
▁upptäck	-2329
▁Europeiska	-2330
▁Inter	-2331
iti	-2332
olm	-2333
full	-2334
kring	-2335
bruk	-2336
otter	-2337
stift	-2338
▁Te	-2339
äkring	-2340
▁tjänst	-2341
äkra	-2342
▁bolag	-2343
▁säkert	-2344
▁beroende	-2345
▁relig	-2346
▁förn	-2347
▁istället	-2348
han	-2349
▁gott	-2350
lo	-2351
arder	-2352
▁Kina	-2353
▁rikt	-2354
▁punkt	-2355
rip	-2356
lit	-2357
▁pas	-2358
Vi	-2359
her	-2360
▁skyl	-2361
tit	-2362
▁mor	-2363
▁oro	-2364
företag	-2365
▁*	-2366
följ	-2367
▁»	-2368
▁äldre	-2369
lever	-2370
▁kvinna	-2371
▁dist	-2372
delser	-2373
▁övert	-2374
kas	-2375
rea	-2376
▁Li	-2377
▁försälj	-2378
ham	-2379
▁mä	-2380
▁tillväxt	-2381
kin	-2382
▁finnas	-2383
▁sju	-2384
▁tillgängliga	-2385
▁erbjud	-2386
ici	-2387
gera	-2388
▁jorden	-2389
klart	-2390
▁gått	-2391
▁följer	-2392
▁området	-2393
▁Ti	-2394
▁nationella	-2395
▁betala	-2396
book	-2397
juta	-2398
arnas	-2399
okra	-2400
▁chans	-2401
▁förstår	-2402
pon	-2403
▁Ge	-2404
▁ham	-2405
▁goda	-2406
sident	-2407
skning	-2408
▁sök	-2409
▁garan	-2410
▁stäng	-2411
▁läkemedel	-2412
▁tj	-2413
▁erk	-2414
utoma	-2415
▁Idag	-2416
▁mamma	-2417
▁frågan	-2418
▁förordning	-2419
▁stark	-2420
▁design	-2421
▁Jo	-2422
▁inv	-2423
▁fisk	-2424
lingen	-2425
▁am	-2426
▁engel	-2427
EN	-2428
pital	-2429
▁låter	-2430
rän	-2431
▁uppmärk	-2432
▁närheten	-2433
▁ca	-2434
orer	-2435
EG	-2436
länd	-2437
▁parti	-2438
▁veckan	-2439
tala	-2440
ställning	-2441
lat	-2442
uni	-2443
▁läkare	-2444
▁röst	-2445
▁betyd	-2446
▁skydda	-2447
▁studen	-2448
▁ske	-2449
▁Över	-2450
▁trots	-2451
usk	-2452
▁Sen	-2453
▁specif	-2454
▁do	-2455
▁bri	-2456
▁krav	-2457
ög	-2458
▁ben	-2459
▁tio	-2460
asino	-2461
▁avtal	-2462
ollar	-2463
enting	-2464
▁förber	-2465
▁24	-2466
▁Sy	-2467
▁ban	-2468
▁Hans	-2469
▁sann	-2470
läggande	-2471
qu	-2472
stra	-2473
▁kring	-2474
▁personuppgifter	-2475
▁tillverk	-2476
▁universitet	-2477
▁sep	-2478
▁deltag	-2479
ment	-2480
samt	-2481
▁198	-2482
▁Vilka	-2483
rom	-2484
▁viss	-2485
▁mar	-2486
▁halv	-2487
▁detal	-2488
teck	-2489
▁hälso	-2490
▁viktigaste	-2491
▁rad	-2492
▁igenom	-2493
▁potenti	-2494
ider	-2495
▁Car	-2496
▁Ka	-2497
▁svår	-2498
▁klart	-2499
▁klimat	-2500
ip	-2501
ian	-2502
volu	-2503
ula	-2504
kort	-2505
▁beskri	-2506
fta	-2507
▁gav	-2508
▁författ	-2509
edd	-2510
riär	-2511
ona	-2512
ören	-2513
▁gud	-2514
▁bruk	-2515
ände	-2516
ektion	-2517
nal	-2518
▁skapar	-2519
▁Univers	-2520
▁säkerställa	-2521
▁Din	-2522
▁topp	-2523
▁våld	-2524
▁ford	-2525
tional	-2526
▁accep	-2527
▁tillstånd	-2528
gag	-2529
vika	-2530
▁övrig	-2531
▁lokala	-2532
mt	-2533
vå	-2534
▁känd	-2535
▁public	-2536
▁framtiden	-2537
tive	-2538
▁him	-2539
▁Vissa	-2540
stå	-2541
▁log	-2542
▁kund	-2543
▁ifrån	-2544
bygg	-2545
nytt	-2546
efter	-2547
▁titta	-2548
▁läs	-2549
▁cirka	-2550
ash	-2551
▁ap	-2552
▁vikt	-2553
produk	-2554
ess	-2555
▁försöka	-2556
▁dat	-2557
▁start	-2558
▁företaget	-2559
ald	-2560
ows	-2561
▁ev	-2562
önster	-2563
▁defini	-2564
▁gammal	-2565
▁perfekt	-2566
▁nå	-2567
▁dela	-2568
erades	-2569
server	-2570
beh	-2571
stol	-2572
▁mon	-2573
▁priv	-2574
▁delen	-2575
▁syfte	-2576
iz	-2577
▁veckor	-2578
▁marknadsför	-2579
com	-2580
elev	-2581
uell	-2582
▁nätverk	-2583
2.	-2584
aket	-2585
ogen	-2586
lands	-2587
▁princi	-2588
én	-2589
ban	-2590
▁lad	-2591
▁Kanske	-2592
jut	-2593
aler	-2594
▁kred	-2595
▁psyk	-2596
▁påverkar	-2597
▁behöva	-2598
▁människa	-2599
nt	-2600
ital	-2601
▁Vår	-2602
▁liknande	-2603
▁politiska	-2604
▁regl	-2605
▁hantera	-2606
▁nödvändigt	-2607
ssk	-2608
ält	-2609
rikt	-2610
▁område	-2611
▁svenska	-2612
▁orsa	-2613
▁enhet	-2614
▁sättet	-2615
▁partner	-2616
utveck	-2617
verkan	-2618
▁skada	-2619
▁omkring	-2620
rym	-2621
▁bete	-2622
▁föres	-2623
▁utmär	-2624
cc	-2625
▁nor	-2626
▁makt	-2627
▁Wind	-2628
▁tagit	-2629
tionellt	-2630
▁La	-2631
▁känns	-2632
▁ram	-2633
pas	-2634
ämpa	-2635
▁bär	-2636
▁Tänk	-2637
▁bevis	-2638
▁samband	-2639
▁'	-2640
▁luft	-2641
cebook	-2642
▁grundläggande	-2643
mas	-2644
▁sådant	-2645
ylla	-2646
▁föräldrar	-2647
▁samarbete	-2648
rekt	-2649
▁vinna	-2650
liv	-2651
emål	-2652
oden	-2653
▁låta	-2654
▁kalla	-2655
allt	-2656
holm	-2657
▁begär	-2658
▁undvika	-2659
▁ungefär	-2660
▁Sch	-2661
uellt	-2662
▁rädd	-2663
ho	-2664
▁Fil	-2665
▁högsta	-2666
äkt	-2667
entar	-2668
▁skillnad	-2669
▁os	-2670
▁leda	-2671
▁undersök	-2672
pla	-2673
sida	-2674
▁konsum	-2675
▁mänskliga	-2676
▁kommissionen	-2677
leva	-2678
▁leder	-2679
agn	-2680
ium	-2681
melser	-2682
▁beräk	-2683
mo	-2684
ffe	-2685
▁döda	-2686
▁hjärta	-2687
kning	-2688
▁anti	-2689
▁automa	-2690
▁förslag	-2691
▁Gör	-2692
▁oavsett	-2693
▁engag	-2694
▁gärna	-2695
▁består	-2696
▁tu	-2697
▁satt	-2698
▁skär	-2699
sterna	-2700
▁erbjuda	-2701
▁40	-2702
bund	-2703
alans	-2704
▁lin	-2705
▁rela	-2706
▁sker	-2707
▁sätta	-2708
när	-2709
rak	-2710
▁21	-2711
▁häm	-2712
xi	-2713
▁$	-2714
jen	-2715
▁Vär	-2716
ekomm	-2717
stauran	-2718
ktorer	-2719
▁närvarande	-2720
▁stol	-2721
▁antalet	-2722
▁Bo	-2723
▁at	-2724
▁kal	-2725
▁tor	-2726
▁tillhör	-2727
umär	-2728
▁bred	-2729
▁infl	-2730
▁mass	-2731
▁anges	-2732
▁hållbar	-2733
bolag	-2734
▁Gl	-2735
enta	-2736
skol	-2737
▁Frank	-2738
▁berör	-2739
▁milit	-2740
gå	-2741
let	-2742
▁ihop	-2743
▁storlek	-2744
▁sem	-2745
▁berätta	-2746
arm	-2747
råden	-2748
cember	-2749
iens	-2750
▁Gre	-2751
▁2018	-2752
▁höra	-2753
5.	-2754
isen	-2755
▁upprätt	-2756
▁internet	-2757
▁Bil	-2758
▁Kommer	-2759
▁stället	-2760
▁prata	-2761
▁utgör	-2762
▁Gr	-2763
▁enskil	-2764
we	-2765
▁lokal	-2766
▁mängd	-2767
▁uppen	-2768
▁förändring	-2769
to	-2770
anu	-2771
▁giv	-2772
▁mott	-2773
▁boken	-2774
dde	-2775
▁blogg	-2776
▁söker	-2777
förande	-2778
▁bad	-2779
▁fly	-2780
▁favor	-2781
▁profession	-2782
0.	-2783
uden	-2784
▁relev	-2785
ach	-2786
sav	-2787
▁lön	-2788
resen	-2789
▁vackra	-2790
ologiska	-2791
ekan	-2792
▁klas	-2793
▁böcker	-2794
▁omedel	-2795
▁europeiska	-2796
▁kem	-2797
▁tas	-2798
skott	-2799
▁dokument	-2800
▁ej	-2801
istan	-2802
tionerna	-2803
▁speciellt	-2804
▁möjligheter	-2805
skra	-2806
▁höga	-2807
▁drabb	-2808
200	-2809
▁Con	-2810
▁regler	-2811
▁Ob	-2812
▁nr	-2813
▁mån	-2814
änna	-2815
▁Ste	-2816
▁instr	-2817
▁rik	-2818
sluta	-2819
tiken	-2820
ännisk	-2821
▁bekväm	-2822
▁medborg	-2823
▁cy	-2824
▁Dan	-2825
▁Windows	-2826
▁Beh	-2827
heterna	-2828
beroende	-2829
▁organisation	-2830
brit	-2831
▁säs	-2832
▁fastställ	-2833
ektiva	-2834
ood	-2835
▁skolan	-2836
åde	-2837
rike	-2838
▁produktion	-2839
▁He	-2840
▁Spel	-2841
fli	-2842
▁ton	-2843
ockholm	-2844
▁telefon	-2845
▁vak	-2846
arakt	-2847
▁bekrä	-2848
agen	-2849
vens	-2850
rande	-2851
sidan	-2852
vak	-2853
onom	-2854
▁nuvarande	-2855
press	-2856
▁Eftersom	-2857
stående	-2858
▁liksom	-2859
▁intresse	-2860
▁År	-2861
betal	-2862
▁dessutom	-2863
▁patienter	-2864
ines	-2865
▁text	-2866
araktär	-2867
britann	-2868
▁framgångs	-2869
tic	-2870
bord	-2871
öder	-2872
▁gre	-2873
▁sön	-2874
▁fjär	-2875
▁opera	-2876
▁Än	-2877
▁bry	-2878
▁säll	-2879
▁ljud	-2880
▁leverant	-2881
▁alls	-2882
▁match	-2883
▁dollar	-2884
▁anställda	-2885
▁Bi	-2886
▁lån	-2887
▁unga	-2888
visning	-2889
▁197	-2890
▁lug	-2891
lunda	-2892
▁häst	-2893
▁skäl	-2894
▁ersätt	-2895
▁utrust	-2896
▁administ	-2897
▁samhället	-2898
▁funktioner	-2899
▁knapp	-2900
▁stopp	-2901
▁Di	-2902
▁York	-2903
▁förra	-2904
▁högt	-2905
▁ring	-2906
▁yr	-2907
▁tje	-2908
▁Tysk	-2909
▁Finns	-2910
▁behör	-2911
▁uppnå	-2912
,5	-2913
tember	-2914
▁kredit	-2915
▁Bar	-2916
▁era	-2917
skapet	-2918
talien	-2919
▁konkurr	-2920
▁2016	-2921
▁december	-2922
▁Storbritann	-2923
bok	-2924
▁ständ	-2925
▁favorit	-2926
▁ingenting	-2927
ink	-2928
gård	-2929
ure	-2930
▁lek	-2931
▁Nord	-2932
▁ledande	-2933
▁president	-2934
olv	-2935
öts	-2936
▁2017	-2937
▁John	-2938
▁ökar	-2939
ination	-2940
parlament	-2941
▁kommunikation	-2942
▁Ph	-2943
▁Ra	-2944
sprogram	-2945
ake	-2946
boll	-2947
▁Ryss	-2948
▁nega	-2949
▁bedöm	-2950
▁livsmedel	-2951
vill	-2952
▁rom	-2953
▁Facebook	-2954
▁engelska	-2955
amen	-2956
ivil	-2957
stone	-2958
▁enkla	-2959
▁ensam	-2960
▁fullt	-2961
▁studie	-2962
▁utform	-2963
▁uttryck	-2964
ifrån	-2965
▁juni	-2966
▁skön	-2967
anuari	-2968
▁underhåll	-2969
▁varumär	-2970
▁chef	-2971
▁platt	-2972
eta	-2973
ril	-2974
ftet	-2975
▁Liv	-2976
▁total	-2977
▁förändra	-2978
▁Interna	-2979
▁her	-2980
▁vare	-2981
▁respek	-2982
antag	-2983
erande	-2984
aten	-2985
▁studier	-2986
▁medlemmar	-2987
järn	-2988
▁Ver	-2989
▁Hopp	-2990
▁rädda	-2991
:1	-2992
▁dags	-2993
▁privat	-2994
▁utnytt	-2995
▁antingen	-2996
öja	-2997
icro	-2998
▁färdig	-2999
▁Stockholm	-3000
▁Själ	-3001
sch	-3002
▁förvär	-3003
äcker	-3004
▁ingår	-3005
kes	-3006
skydd	-3007
▁Barn	-3008
▁Mark	-3009
▁Andra	-3010
▁visas	-3011
▁överens	-3012
▁någonting	-3013
kul	-3014
ober	-3015
▁mars	-3016
▁beror	-3017
▁fö	-3018
pper	-3019
atter	-3020
▁vitt	-3021
▁frukt	-3022
organis	-3023
3.	-3024
▁befolk	-3025
jor	-3026
▁Lond	-3027
▁anpass	-3028
▁barnen	-3029
▁täv	-3030
▁visste	-3031
▁individ	-3032
▁karriär	-3033
▁käll	-3034
▁lyck	-3035
▁menar	-3036
▁Vilken	-3037
▁lösningar	-3038
▁förändringar	-3039
lare	-3040
använd	-3041
▁absol	-3042
naderna	-3043
▁globala	-3044
▁fullständ	-3045
?"	-3046
urs	-3047
▁Väl	-3048
▁hum	-3049
▁talar	-3050
▁utvecklingen	-3051
emot	-3052
▁ide	-3053
enden	-3054
▁kapital	-3055
za	-3056
rad	-3057
olket	-3058
▁motsvar	-3059
▁direktiv	-3060
▁standard	-3061
▁Sm	-3062
▁TV	-3063
amer	-3064
▁service	-3065
▁Su	-3066
▁fordon	-3067
▁kommentar	-3068
▁behå	-3069
▁tekniska	-3070
▁Per	-3071
▁glad	-3072
▁vita	-3073
▁exakt	-3074
ly	-3075
iod	-3076
rör	-3077
ensi	-3078
▁San	-3079
▁anser	-3080
▁Israel	-3081
▁morgon	-3082
.)	-3083
urg	-3084
äkerhet	-3085
▁personliga	-3086
th	-3087
rans	-3088
▁Tur	-3089
▁ark	-3090
tisti	-3091
▁spelet	-3092
▁januari	-3093
▁dro	-3094
▁tusen	-3095
4.	-3096
avid	-3097
gress	-3098
ligheter	-3099
?”	-3100
▁Ju	-3101
tter	-3102
▁skilj	-3103
▁social	-3104
▁industri	-3105
▁installer	-3106
äna	-3107
▁lilla	-3108
▁september	-3109
▁196	-3110
▁dubb	-3111
▁anses	-3112
▁behöv	-3113
▁förstör	-3114
▁kompl	-3115
▁personal	-3116
▁förhållande	-3117
orten	-3118
▁extre	-3119
▁skrev	-3120
▁medlemsstaterna	-3121
ca	-3122
▁dy	-3123
värd	-3124
▁Våra	-3125
▁kron	-3126
▁Europaparlament	-3127
på	-3128
rel	-3129
klag	-3130
vård	-3131
delar	-3132
▁produc	-3133
▁Kv	-3134
orlunda	-3135
▁gemensam	-3136
▁gemenskap	-3137
9.	-3138
klara	-3139
▁tala	-3140
▁vacker	-3141
minstone	-3142
artyg	-3143
▁bost	-3144
istiska	-3145
råd	-3146
▁offici	-3147
▁anledning	-3148
▁>	-3149
poli	-3150
skon	-3151
▁rym	-3152
▁dotter	-3153
▁Internet	-3154
AR	-3155
▁hot	-3156
▁genera	-3157
▁namnet	-3158
▁uppdrag	-3159
▁Del	-3160
▁bes	-3161
itter	-3162
strin	-3163
änderna	-3164
▁visade	-3165
▁lagstift	-3166
säg	-3167
▁Po	-3168
värr	-3169
▁analys	-3170
▁stress	-3171
hör	-3172
etens	-3173
yller	-3174
▁arbetet	-3175
▁skyldig	-3176
gl	-3177
ama	-3178
dat	-3179
ftar	-3180
sats	-3181
▁avses	-3182
▁Person	-3183
▁karaktär	-3184
▁gemensamma	-3185
▁hy	-3186
▁Kar	-3187
▁Pla	-3188
ktober	-3189
stauranger	-3190
enn	-3191
▁son	-3192
▁tecken	-3193
▁överför	-3194
▁Amer	-3195
satta	-3196
tryck	-3197
▁uppfatt	-3198
▁#	-3199
bli	-3200
blick	-3201
▁otro	-3202
▁Några	-3203
▁ansök	-3204
▁tillgänglig	-3205
▁vars	-3206
▁njuta	-3207
▁studenter	-3208
ffa	-3209
▁II	-3210
▁Bara	-3211
▁prote	-3212
▁konsek	-3213
▁mening	-3214
▁framtid	-3215
ager	-3216
igen	-3217
släpp	-3218
▁Följ	-3219
▁vanligt	-3220
lic	-3221
▁no	-3222
licka	-3223
▁berättar	-3224
▁—	-3225
amm	-3226
▁jul	-3227
isering	-3228
▁fortsatt	-3229
▁strategi	-3230
amål	-3231
stäm	-3232
▁inre	-3233
▁post	-3234
▁sälj	-3235
▁tyck	-3236
▁Nation	-3237
▁inlägg	-3238
▁systemet	-3239
▁glas	-3240
▁vård	-3241
▁represen	-3242
▁kända	-3243
▁London	-3244
▁förmåga	-3245
of	-3246
▁?	-3247
▁Hå	-3248
▁ok	-3249
▁utö	-3250
inder	-3251
▁häls	-3252
▁lämnar	-3253
▁elektron	-3254
jan	-3255
koh	-3256
edda	-3257
▁regeringen	-3258
abl	-3259
▁my	-3260
▁önskar	-3261
rarna	-3262
givare	-3263
▁främst	-3264
bol	-3265
▁mång	-3266
▁trodde	-3267
sprocess	-3268
▁miljarder	-3269
ds	-3270
▁Storbritannien	-3271
ena	-3272
▁bit	-3273
▁bill	-3274
▁jätt	-3275
peratur	-3276
▁vanligtvis	-3277
ish	-3278
ktorn	-3279
▁David	-3280
▁avgör	-3281
▁Finland	-3282
▁Tyskland	-3283
aker	-3284
tiver	-3285
▁Nästa	-3286
▁bilden	-3287
▁modern	-3288
▁struktur	-3289
slam	-3290
▁mod	-3291
▁union	-3292
▁cancer	-3293
▁effektivt	-3294
50	-3295
syn	-3296
▁Micro	-3297
▁delta	-3298
▁Hoppas	-3299
▁Dag	-3300
▁team	-3301
▁skick	-3302
▁säkra	-3303
▁Ibland	-3304
struktur	-3305
▁bestämmelser	-3306
▁verksam	-3307
▁Ryssland	-3308
▁uppskatt	-3309
eck	-3310
▁Br	-3311
▁Er	-3312
▁me	-3313
▁jud	-3314
▁nyck	-3315
verket	-3316
▁civil	-3317
▁lägger	-3318
▁förhindra	-3319
pac	-3320
tan	-3321
▁sub	-3322
domar	-3323
fulla	-3324
troll	-3325
▁Park	-3326
▁bidra	-3327
▁annorlunda	-3328
öna	-3329
sson	-3330
▁Ind	-3331
▁poj	-3332
▁grön	-3333
gående	-3334
▁poäng	-3335
▁Hotell	-3336
▁anslut	-3337
kast	-3338
▁stå	-3339
yng	-3340
▁sov	-3341
▁uttal	-3342
atten	-3343
▁gläd	-3344
▁revolu	-3345
▁transport	-3346
▁äter	-3347
▁sälja	-3348
▁oktober	-3349
▁förekomm	-3350
▁spännande	-3351
▁offentliga	-3352
ora	-3353
▁To	-3354
slös	-3355
▁oför	-3356
▁kombin	-3357
▁genomsnitt	-3358
ali	-3359
▁AB	-3360
▁Ny	-3361
▁fäng	-3362
▁kontakta	-3363
▁bon	-3364
▁åka	-3365
terad	-3366
▁lösa	-3367
▁budget	-3368
▁bygger	-3369
▁avsnitt	-3370
▁enheter	-3371
▁sannoli	-3372
▁familjen	-3373
▁ry	-3374
ernas	-3375
▁press	-3376
▁fungera	-3377
▁forskare	-3378
In	-3379
▁FN	-3380
iker	-3381
▁län	-3382
▁huset	-3383
▁konto	-3384
▁utvär	-3385
▁lösning	-3386
▁University	-3387
tut	-3388
ture	-3389
▁video	-3390
▁därmed	-3391
▁Företag	-3392
▁träning	-3393
▁populära	-3394
▁kontrollera	-3395
alm	-3396
▁od	-3397
▁Två	-3398
splan	-3399
söker	-3400
ovember	-3401
▁ek	-3402
still	-3403
▁fruk	-3404
▁plac	-3405
▁lägre	-3406
▁fantastiska	-3407
rakt	-3408
former	-3409
▁vänta	-3410
▁kostnad	-3411
▁webbplatsen	-3412
äster	-3413
▁krea	-3414
▁integr	-3415
bum	-3416
▁flick	-3417
▁filmen	-3418
▁Am	-3419
ygga	-3420
öter	-3421
orier	-3422
▁kände	-3423
▁km	-3424
vatt	-3425
▁bid	-3426
obbet	-3427
arbete	-3428
▁hundra	-3429
▁region	-3430
▁tidigt	-3431
▁inkluderar	-3432
▁tryck	-3433
ländska	-3434
usli	-3435
▁Gra	-3436
dering	-3437
▁heter	-3438
▁besöka	-3439
mäl	-3440
▁iP	-3441
▁webbplatser	-3442
▁gi	-3443
▁Bra	-3444
ustra	-3445
▁finansiella	-3446
▁häng	-3447
eställ	-3448
▁försäljning	-3449
berg	-3450
terat	-3451
▁fång	-3452
stitut	-3453
▁brans	-3454
▁Sc	-3455
skan	-3456
▁Nya	-3457
endet	-3458
enten	-3459
ierar	-3460
ioden	-3461
▁fyll	-3462
▁lans	-3463
▁intell	-3464
▁levande	-3465
IN	-3466
IS	-3467
lack	-3468
▁spar	-3469
▁säng	-3470
▁havet	-3471
▁Människ	-3472
▁oberoende	-3473
▁Dom	-3474
▁Hen	-3475
▁vir	-3476
odligen	-3477
▁detalj	-3478
▁tankar	-3479
▁betydelse	-3480
åda	-3481
ekta	-3482
orge	-3483
▁fre	-3484
▁kval	-3485
▁möjlig	-3486
▁period	-3487
ppar	-3488
▁missl	-3489
▁effekt	-3490
ställningar	-3491
▁omfattande	-3492
son	-3493
▁Gu	-3494
punkt	-3495
▁spår	-3496
▁kontor	-3497
▁22	-3498
▁strä	-3499
▁regering	-3500
00-	-3501
▁60	-3502
stid	-3503
▁tri	-3504
▁gravid	-3505
▁avsluta	-3506
▁övertyg	-3507
▁undantag	-3508
ågan	-3509
▁inled	-3510
▁jobbet	-3511
▁ledare	-3512
▁känslor	-3513
▁snabbare	-3514
▁organisationer	-3515
AS	-3516
ocka	-3517
▁bar	-3518
▁bank	-3519
▁stär	-3520
jänster	-3521
▁absolut	-3522
ärn	-3523
enda	-3524
itta	-3525
▁djup	-3526
frågan	-3527
▁nedan	-3528
▁specifika	-3529
les	-3530
▁kateg	-3531
▁enbart	-3532
▁höll	-3533
1.	-3534
ix	-3535
▁institu	-3536
▁avseende	-3537
▁Först	-3538
▁miss	-3539
anter	-3540
tation	-3541
▁känsla	-3542
▁spender	-3543
arens	-3544
▁föred	-3545
▁utvecklas	-3546
sor	-3547
ikro	-3548
▁imp	-3549
▁folket	-3550
▁inspir	-3551
▁sitter	-3552
▁medlemsst	-3553
▁la	-3554
iken	-3555
tekn	-3556
▁cer	-3557
▁söm	-3558
▁2015	-3559
▁borta	-3560
▁långa	-3561
▁visat	-3562
▁ämnen	-3563
▁lyssna	-3564
▁metoder	-3565
▁internationell	-3566
▁dans	-3567
▁priva	-3568
▁mottag	-3569
▁orsaka	-3570
▁stabil	-3571
ign	-3572
rala	-3573
larna	-3574
▁Trots	-3575
▁dest	-3576
▁elever	-3577
aktioner	-3578
▁moderna	-3579
▁aktiviteter	-3580
▁ak	-3581
ills	-3582
▁Tra	-3583
▁Tre	-3584
▁musk	-3585
▁lista	-3586
åta	-3587
▁El	-3588
pris	-3589
▁uppm	-3590
▁Själv	-3591
▁göras	-3592
egående	-3593
▁kommande	-3594
▁verkliga	-3595
mon	-3596
▁Ac	-3597
▁ges	-3598
ungen	-3599
▁görs	-3600
▁reda	-3601
bundet	-3602
▁alkoh	-3603
▁utrym	-3604
▁trafik	-3605
▁jämfört	-3606
▁omedelbart	-3607
▁åtminstone	-3608
▁stäm	-3609
ytande	-3610
▁särskilda	-3611
ome	-3612
nars	-3613
▁bru	-3614
▁bön	-3615
▁förd	-3616
▁återv	-3617
▁framtida	-3618
ith	-3619
▁Eng	-3620
▁scen	-3621
spektiv	-3622
▁hjärtat	-3623
▁nyligen	-3624
stro	-3625
▁Fram	-3626
▁dagens	-3627
▁grad	-3628
▁demokra	-3629
sättningar	-3630
cel	-3631
das	-3632
▁köper	-3633
delning	-3634
duc	-3635
▁:)	-3636
▁kap	-3637
▁hård	-3638
▁öppen	-3639
▁balans	-3640
▁digital	-3641
▁befin	-3642
▁integ	-3643
▁vuxna	-3644
▁ställa	-3645
▁föremål	-3646
▁fotograf	-3647
inal	-3648
orld	-3649
usti	-3650
▁prov	-3651
▁sten	-3652
▁bidrag	-3653
▁nämligen	-3654
▁växa	-3655
aktion	-3656
▁litet	-3657
▁växer	-3658
▁lärare	-3659
▁uppman	-3660
▁försvar	-3661
AN	-3662
▁2.	-3663
▁kärn	-3664
▁Ho	-3665
kommen	-3666
▁huvudsak	-3667
▁ständigt	-3668
formationen	-3669
etar	-3670
grän	-3671
soft	-3672
tiser	-3673
▁ändamål	-3674
▁27	-3675
värt	-3676
▁Bet	-3677
▁hud	-3678
▁meter	-3679
▁övriga	-3680
▁möjliga	-3681
▁Frankrike	-3682
▁1.	-3683
▁23	-3684
▁slå	-3685
iddag	-3686
▁fakt	-3687
▁analy	-3688
▁krist	-3689
▁tving	-3690
▁attack	-3691
▁fallet	-3692
▁Gam	-3693
sliga	-3694
ola	-3695
▁mol	-3696
▁tit	-3697
mande	-3698
tliga	-3699
▁initi	-3700
old	-3701
▁Sn	-3702
ocker	-3703
▁söka	-3704
▁brukar	-3705
▁nummer	-3706
▁Dr	-3707
▁Sl	-3708
▁Vet	-3709
▁häv	-3710
▁hände	-3711
▁lagen	-3712
▁resten	-3713
▁starkt	-3714
▁allmänna	-3715
▁resurser	-3716
ile	-3717
▁Bus	-3718
skomm	-3719
▁hört	-3720
▁april	-3721
▁reser	-3722
▁november	-3723
cial	-3724
▁dit	-3725
▁gif	-3726
▁ång	-3727
▁Trum	-3728
▁känt	-3729
▁minn	-3730
ES	-3731
▁barnet	-3732
▁natten	-3733
mål	-3734
▁juli	-3735
▁medier	-3736
▁tänkte	-3737
▁On	-3738
▁semester	-3739
▁offentlig	-3740
tor	-3741
part	-3742
▁Air	-3743
▁etabl	-3744
ump	-3745
nivå	-3746
▁skra	-3747
▁tips	-3748
▁fotboll	-3749
ipp	-3750
▁mul	-3751
grund	-3752
▁britt	-3753
▁närma	-3754
▁central	-3755
▁uppgift	-3756
▁utmärkt	-3757
▁ir	-3758
edag	-3759
iljö	-3760
▁börjat	-3761
▁förvalt	-3762
▁intressant	-3763
til	-3764
ärta	-3765
▁max	-3766
änsyn	-3767
gas	-3768
ica	-3769
ild	-3770
▁asp	-3771
splats	-3772
▁antag	-3773
▁centrum	-3774
▁omfattar	-3775
▁rekommenderar	-3776
.[	-3777
▁kön	-3778
▁gäll	-3779
▁kallar	-3780
▁risken	-3781
▁lättare	-3782
▁konstnär	-3783
EU	-3784
wa	-3785
ira	-3786
▁36	-3787
▁Spe	-3788
▁våg	-3789
itala	-3790
▁Cent	-3791
EB	-3792
ysi	-3793
▁Bu	-3794
▁Hot	-3795
▁köra	-3796
person	-3797
▁Arbet	-3798
▁sidor	-3799
▁utfor	-3800
▁föresl	-3801
▁modell	-3802
▁frågade	-3803
▁personen	-3804
▁sch	-3805
▁starka	-3806
▁Off	-3807
ismen	-3808
▁bilen	-3809
arbetare	-3810
AT	-3811
sel	-3812
▁hända	-3813
▁kolla	-3814
▁framåt	-3815
▁passar	-3816
olf	-3817
steg	-3818
ierade	-3819
▁tydligt	-3820
olu	-3821
sut	-3822
▁28	-3823
▁Reg	-3824
unkter	-3825
▁Första	-3826
▁stanna	-3827
bra	-3828
öte	-3829
▁pat	-3830
agnos	-3831
ningsm	-3832
▁uppmunt	-3833
▁Samtidigt	-3834
▁naturliga	-3835
▁marknadsföring	-3836
▁1,	-3837
bliote	-3838
▁Krist	-3839
▁idéer	-3840
▁programmet	-3841
??	-3842
rep	-3843
ämt	-3844
ioner	-3845
unnit	-3846
▁2014	-3847
▁läser	-3848
▁motor	-3849
▁Herren	-3850
▁grunda	-3851
▁maskin	-3852
▁beskriv	-3853
▁jordbruk	-3854
▁betydande	-3855
eff	-3856
ight	-3857
sled	-3858
▁Nej	-3859
▁Tim	-3860
▁stod	-3861
▁avanc	-3862
▁motstånd	-3863
▁Microsoft	-3864
ders	-3865
▁Com	-3866
gande	-3867
▁omöj	-3868
delsen	-3869
▁beröm	-3870
▁distri	-3871
▁miljon	-3872
oss	-3873
uer	-3874
▁guld	-3875
▁nord	-3876
▁oftast	-3877
▁sätter	-3878
▁närmare	-3879
▁behandla	-3880
▁myndigheter	-3881
ruk	-3882
brott	-3883
▁gett	-3884
▁flytta	-3885
▁kläder	-3886
▁träffa	-3887
▁problemet	-3888
▁Gro	-3889
medel	-3890
▁Paul	-3891
▁port	-3892
▁händelser	-3893
▁Lu	-3894
funk	-3895
imen	-3896
▁arm	-3897
▁Apple	-3898
▁städer	-3899
▁vinter	-3900
▁produkten	-3901
zon	-3902
frika	-3903
▁växt	-3904
▁äger	-3905
▁unika	-3906
platsen	-3907
▁kompetens	-3908
ric	-3909
klare	-3910
▁värd	-3911
▁kallade	-3912
7.	-3913
garna	-3914
▁jurid	-3915
▁hänsyn	-3916
▁kontin	-3917
Om	-3918
lik	-3919
▁Ca	-3920
dags	-3921
▁arg	-3922
▁ena	-3923
spoli	-3924
▁klubb	-3925
▁smart	-3926
▁tanke	-3927
▁stödja	-3928
▁kommersi	-3929
▁Ed	-3930
bert	-3931
▁tjäna	-3932
▁priset	-3933
▁sommar	-3934
▁välkom	-3935
ath	-3936
oci	-3937
▁Da	-3938
▁Tw	-3939
▁ökad	-3940
terier	-3941
▁vapen	-3942
▁väntar	-3943
utveckling	-3944
▁egenskaper	-3945
ämn	-3946
ners	-3947
▁2008	-3948
▁Fort	-3949
gången	-3950
▁exempelvis	-3951
rang	-3952
▁ret	-3953
▁frihet	-3954
▁utföra	-3955
jöl	-3956
läs	-3957
sent	-3958
▁And	-3959
▁bev	-3960
▁fina	-3961
▁vart	-3962
▁pappa	-3963
▁spara	-3964
troende	-3965
▁bidrar	-3966
▁dåligt	-3967
▁starta	-3968
▁vänster	-3969
▁resultatet	-3970
bes	-3971
maren	-3972
▁perf	-3973
▁Skulle	-3974
atan	-3975
fred	-3976
pati	-3977
otten	-3978
titet	-3979
▁Mitt	-3980
▁klin	-3981
▁siff	-3982
▁tänk	-3983
▁Någon	-3984
▁domstol	-3985
▁privata	-3986
30	-3987
uth	-3988
ebru	-3989
▁Hem	-3990
▁ass	-3991
okies	-3992
▁solen	-3993
▁bostad	-3994
ärer	-3995
▁ill	-3996
▁jobba	-3997
▁kunnat	-3998
▁special	-3999
En	-4000
vju	-4001
▁ör	-4002
▁båt	-4003
▁dog	-4004
▁ses	-4005
onser	-4006
▁bilar	-4007
▁svart	-4008
▁promen	-4009
▁uppleva	-4010
6.	-4011
ET	-4012
För	-4013
▁Em	-4014
▁Bro	-4015
ongen	-4016
skrig	-4017
siktig	-4018
▁minim	-4019
▁kyrkan	-4020
▁eventuella	-4021
▁Sw	-4022
fet	-4023
▁Må	-4024
▁Bes	-4025
ordet	-4026
▁inträff	-4027
▁ögonblick	-4028
▁naturligtvis	-4029
rika	-4030
▁lic	-4031
▁utl	-4032
anken	-4033
stolen	-4034
▁kines	-4035
▁pratar	-4036
▁saknar	-4037
▁smärta	-4038
▁pension	-4039
▁digitala	-4040
▁Ga	-4041
amil	-4042
▁sla	-4043
▁sjun	-4044
oritet	-4045
▁super	-4046
▁såväl	-4047
▁varor	-4048
▁underl	-4049
ikt	-4050
vel	-4051
issa	-4052
uten	-4053
▁blå	-4054
ierna	-4055
sland	-4056
tiden	-4057
handel	-4058
▁Paris	-4059
▁misst	-4060
▁nytta	-4061
▁omständ	-4062
▁allmänhet	-4063
▁genomföra	-4064
▁sanningen	-4065
▁(2	-4066
▁rek	-4067
tivitet	-4068
▁alkohol	-4069
▁strateg	-4070
▁svarade	-4071
▁upptäcka	-4072
▁fantastisk	-4073
▁fört	-4074
▁sång	-4075
ebruari	-4076
▁faktum	-4077
▁förstås	-4078
regi	-4079
▁500	-4080
▁Mon	-4081
▁kung	-4082
▁tillverka	-4083
▁förmodligen	-4084
stera	-4085
▁Just	-4086
▁mikro	-4087
▁grupper	-4088
▁kristna	-4089
▁sjukhus	-4090
▁relation	-4091
bör	-4092
hand	-4093
indu	-4094
skär	-4095
▁tyst	-4096
▁använ	-4097
▁ordet	-4098
eringar	-4099
▁främja	-4100
Den	-4101
▁Kl	-4102
▁gui	-4103
▁2013	-4104
▁datum	-4105
▁processen	-4106
10	-4107
▁Pl	-4108
klam	-4109
risk	-4110
▁dej	-4111
▁hårt	-4112
sträng	-4113
▁tillåter	-4114
eda	-4115
▁Im	-4116
▁Rom	-4117
▁trev	-4118
▁ställe	-4119
▁nödvändiga	-4120
▁ag	-4121
▁gla	-4122
▁fjärde	-4123
▁fördelar	-4124
▁historien	-4125
▁förståelse	-4126
do	-4127
hem	-4128
utt	-4129
▁26	-4130
ativ	-4131
▁Ass	-4132
öllop	-4133
▁Mich	-4134
▁förlora	-4135
▁gränser	-4136
▁situation	-4137
kat	-4138
▁Lo	-4139
▁snar	-4140
▁block	-4141
▁musli	-4142
▁rätta	-4143
▁samtliga	-4144
▁försäkring	-4145
rin	-4146
▁dis	-4147
▁uts	-4148
▁nöjd	-4149
▁korrekt	-4150
▁leverans	-4151
▁personlig	-4152
▁historiska	-4153
▁ursprungliga	-4154
äls	-4155
ille	-4156
ämpar	-4157
▁ansi	-4158
▁roligt	-4159
▁straff	-4160
ordningen	-4161
▁tillhandahålla	-4162
kret	-4163
varo	-4164
▁kop	-4165
ssätt	-4166
▁omgiv	-4167
▁ävent	-4168
venemang	-4169
▁Program	-4170
▁författare	-4171
▁medborgare	-4172
ktig	-4173
unch	-4174
▁194	-4175
▁skog	-4176
▁vinn	-4177
▁svara	-4178
▁dricka	-4179
▁lyckas	-4180
▁skapat	-4181
ellertid	-4182
deles	-4183
▁Välj	-4184
▁Austra	-4185
▁Vilket	-4186
likationer	-4187
▁temperatur	-4188
ec	-4189
▁Do	-4190
unkten	-4191
▁följd	-4192
▁noggr	-4193
▁terror	-4194
▁totala	-4195
OS	-4196
akta	-4197
▁inl	-4198
▁Svar	-4199
ställd	-4200
▁flexi	-4201
▁ekonomi	-4202
▁fysiska	-4203
ägen	-4204
▁Span	-4205
▁komplex	-4206
▁misstag	-4207
▁avgörande	-4208
kopp	-4209
råde	-4210
▁möjligheten	-4211
ea	-4212
oga	-4213
▁mannen	-4214
bildning	-4215
▁normalt	-4216
▁politik	-4217
▁(19	-4218
▁2010	-4219
▁allra	-4220
▁blomm	-4221
▁lagar	-4222
▁konven	-4223
▁statisti	-4224
▁sjukdomar	-4225
▁automatiskt	-4226
▁International	-4227
▁+	-4228
own	-4229
▁Lär	-4230
▁läst	-4231
ötsligt	-4232
▁vattnet	-4233
▁befinner	-4234
The	-4235
▁lov	-4236
▁omv	-4237
▁Stud	-4238
rummet	-4239
▁baserat	-4240
▁överväg	-4241
▁behöriga	-4242
▁samhälle	-4243
▁förhållanden	-4244
här	-4245
▁tåg	-4246
sikter	-4247
▁flykt	-4248
▁miljön	-4249
stru	-4250
iness	-4251
▁stil	-4252
▁tillb	-4253
▁Mycket	-4254
▁anlägg	-4255
omb	-4256
▁fåg	-4257
▁hänt	-4258
▁energ	-4259
▁hälften	-4260
▁älskade	-4261
▁enskilda	-4262
aner	-4263
▁Mac	-4264
▁Vårt	-4265
▁fett	-4266
▁möta	-4267
▁synd	-4268
▁dålig	-4269
▁förfl	-4270
▁färger	-4271
▁=	-4272
atar	-4273
list	-4274
▁åtta	-4275
standa	-4276
▁överg	-4277
▁konfli	-4278
iva	-4279
▁Mot	-4280
▁februari	-4281
▁människan	-4282
sex	-4283
...]	-4284
▁Vän	-4285
sioner	-4286
▁Oavsett	-4287
▁konsekvens	-4288
ivån	-4289
▁mun	-4290
smark	-4291
struk	-4292
▁möte	-4293
▁värt	-4294
pacitet	-4295
troller	-4296
ley	-4297
▁Wh	-4298
rakta	-4299
▁önska	-4300
▁Förutom	-4301
▁	-4302
e	-4303
a	-4304
r	-4305
t	-4306
n	-4307
i	-4308
s	-4309
l	-4310
d	-4311
o	-4312
m	-4313
g	-4314
k	-4315
v	-4316
ä	-4317
f	-4318
h	-4319
u	-4320
p	-4321
ö	-4322
å	-4323
.	-4324
c	-4325
b	-4326
j	-4327
,	-4328
y	-4329
D	-4330
S	-4331
0	-4332
M	-4333
A	-4334
-	-4335
V	-4336
1	-4337
E	-4338
H	-4339
F	-4340
I	-4341
T	-4342
2	-4343
B	-4344
x	-4345
?	-4346
J	-4347
P	-4348
N	-4349
O	-4350
:	-4351
K	-4352
"	-4353
C	-4354
)	-4355
G	-4356
L	-4357
R	-4358
(	-4359
”	-4360
!	-4361
U	-4362
w	-4363
5	-4364
3	-4365
9	-4366
4	-4367
6	-4368
8	-4369
7	-4370
–	-4371
W	-4372
/	-4373
z	-4374
Ä	-4375
;	-4376
é	-4377
]	-4378
[	-4379
Y	-4380
%	-4381
'	-4382
Ö	-4383
“	-4384
Å	-4385
&	-4386
X	-4387
’	-4388
Z	-4389
Q	-4390
*	-4391
q	-4392
»	-4393
+	-4394
•	-4395
>	-4396
$	-4397
—	-4398
#	-4399
­	-4400
=	-4401
_	-4402
‘	-4403
<	-4404
®	-4405
Ã	-4406
«	-4407
🙂	-4408
ü	-4409
|	-4410
→	-4411
@	-4412
á	-4413
́	-4414
^	-4415
§	-4416
€	-4417
¤	-4418
·	-4419
←	-4420
°	-4421
â	-4422
Г	-4423
ó	-4424
í	-4425
ø	-4426
£	-4427
¥	-4428
è	-4429
‐	-4430
	-4431
~	-4432
›	-4433
{	-4434
}	-4435
♥	-4436
¶	-4437
❤	-4438
\	-4439
●	-4440
😉	-4441
`	-4442
ç	-4443
ñ	-4444
à	-4445
−	-4446
ô	-4447
′	-4448
️	-4449
😀	-4450
š	-4451
■	-4452
©	-4453
ā	-4454
æ	-4455
×	-4456
	-4457
ú	-4458
▌	-4459
É	-4460
ã	-4461
⁄	-4462
ë	-4463
ć	-4464
α	-4465
Â	-4466
„	-4467
û	-4468
±	-4469
Ü	-4470
î	-4471
č	-4472
▸	-4473
✓	-4474
😊	-4475
ï	-4476
ð	-4477
ل	-4478
μ	-4479
►	-4480
≥	-4481
א	-4482
ş	-4483
Ø	-4484
ˮ	-4485
‹	-4486
	-4487
👍	-4488
😍	-4489
ž	-4490
̈	-4491
	-4492
ğ	-4493
ł	-4494
β	-4495
و	-4496
ß	-4497
Š	-4498
ي	-4499
ı	-4500
😛	-4501
	-4502
Ó	-4503
ĺ	-4504
ń	-4505
ō	-4506
ا	-4507
م	-4508
ه	-4509
‒	-4510
☺	-4511
♡	-4512
🏼	-4513
¬	-4514
Á	-4515
Î	-4516
õ	-4517
ʹ	-4518
ι	-4519
ạ	-4520
↑	-4521
✔	-4522
🏻	-4523
🙁	-4524
	-4525
	-4526
ê	-4527
ę	-4528
γ	-4529
θ	-4530
ν	-4531
س	-4532
ع	-4533
ن	-4534
¿	-4535
Ă	-4536
Č	-4537
ī	-4538
œ	-4539
ƒ	-4540
ə	-4541
ς	-4542
σ	-4543
‭	-4544
◄	-4545
★	-4546
民	-4547
	-4548
😂	-4549
😄	-4550
🙏	-4551
	-4552
Æ	-4553
Ç	-4554
Õ	-4555
ū	-4556
ε	-4557
ο	-4558
ρ	-4559
а	-4560
ṛ	-4561
‚	-4562
▶	-4563
◆	-4564
国	-4565
	-4566
	-4567
😃	-4568
😅	-4569
😘	-4570
🤣	-4571
	-4572
Í	-4573
ò	-4574
ù	-4575
ý	-4576
ő	-4577
Ş	-4578
ţ	-4579
Ž	-4580
ǧ	-4581
ʼ	-4582
ί	-4583
δ	-4584
λ	-4585
π	-4586
й	-4587
ص	-4588
ṇ	-4589
ṣ	-4590
†	-4591
‬	-4592
▪	-4593
○	-4594
◾	-4595
☝	-4596
⭐	-4597
中	-4598
國	-4599
	-4600
	-4601
	-4602
👏	-4603
💕	-4604
💙	-4605
💚	-4606
💜	-4607
¡	-4608
¢	-4609
ì	-4610
þ	-4611
ă	-4612
ą	-4613
đ	-4614
ē	-4615
ė	-4616
Δ	-4617
ά	-4618
τ	-4619
φ	-4620
ω	-4621
К	-4622
е	-4623
и	-4624
р	-4625
ӓ	-4626
د	-4627
ر	-4628
ى	-4629
ḥ	-4630
ẹ	-4631
ἀ	-4632
≤	-4633
◊	-4634
♣	-4635
❑	-4636
❓	-4637
・	-4638
命	-4639
超	-4640
軍	-4641
革	-4642
︎	-4643
💤	-4644
😇	-4645
😢	-4646
😦	-4647
Þ	-4648
ÿ	-4649
Đ	-4650
Ś	-4651
ś	-4652
ż	-4653
ơ	-4654
ư	-4655
ǔ	-4656
ș	-4657
ɑ	-4658
ɛ	-4659
̃	-4660
Α	-4661
Β	-4662
Σ	-4663
Ω	-4664
ή	-4665
κ	-4666
χ	-4667
ό	-4668
Д	-4669
О	-4670
д	-4671
ј	-4672
Ґ	-4673
ت	-4674
ج	-4675
ح	-4676
ก	-4677
ร	-4678
უ	-4679
ọ	-4680
‍	-4681
―	-4682
‡	-4683
↵	-4684
∙	-4685
√	-4686
≈	-4687
□	-4688
◦	-4689
☆	-4690
♪	-4691
⚘	-4692
✅	-4693
✎	-4694
✰	-4695
❥	-4696
コ	-4697
ン	-4698
万	-4699
主	-4700
人	-4701
会	-4702
团	-4703
岁	-4704
球	-4705
联	-4706
赛	-4707
足	-4708
눉	-4709
	-4710
	-4711
	-4712
	-4713
	-4714
	-4715
	-4716
	-4717
	-4718
💖	-4719
😋	-4720
😎	-4721
😕	-4722
😜	-4723
😝	-4724
😬	-4725
🙈	-4726
🙌	-4727
🤔	-4728
🤗	-4729
🤯	-4730
	-4731
	-4732
	-4733
À	-4734
Ë	-4735
Ð	-4736
Ñ	-4737
Ò	-4738
Ú	-4739
Ý	-4740
÷	-4741
Ā	-4742
ě	-4743
ħ	-4744
İ	-4745
ķ	-4746
Ł	-4747
ų	-4748
Ż	-4749
ǎ	-4750
ǒ	-4751
ɒ	-4752
ɡ	-4753
ɣ	-4754
ɸ	-4755
ˆ	-4756
ˈ	-4757
ˌ	-4758
ː	-4759
̊	-4760
̶	-4761
Γ	-4762
Ε	-4763
Θ	-4764
Μ	-4765
Π	-4766
Φ	-4767
η	-4768
ύ	-4769
А	-4770
Б	-4771
В	-4772
Е	-4773
И	-4774
Н	-4775
П	-4776
С	-4777
Т	-4778
Э	-4779
Я	-4780
в	-4781
г	-4782
л	-4783
м	-4784
н	-4785
о	-4786
с	-4787
т	-4788
ц	-4789
ы	-4790
ӧ	-4791
ד	-4792
צ	-4793
ة	-4794
ث	-4795
ك	-4796
ڤ	-4797
ނ	-4798
ތ	-4799
ަ	-4800
ާ	-4801
ข	-4802
ต	-4803
ธ	-4804
น	-4805
ย	-4806
ส	-4807
ะ	-4808
ั	-4809
ิ	-4810
ี	-4811
ุ	-4812
เ	-4813
ი	-4814
რ	-4815
ც	-4816
ხ	-4817
Ḥ	-4818
ḳ	-4819
ṅ	-4820
Ṣ	-4821
Ṭ	-4822
ṭ	-4823
ả	-4824
ầ	-4825
ễ	-4826
ệ	-4827
ỉ	-4828
ị	-4829
ờ	-4830
ủ	-4831
ἐ	-4832
‣	-4833
※	-4834
⁃	-4835
₤	-4836
↓	-4837
↩	-4838
⇑	-4839
⇒	-4840
⇨	-4841
∈	-4842
∑	-4843
∞	-4844
⋅	-4845
▲	-4846
▷	-4847
▼	-4848
▽	-4849
▾	-4850
☐	-4851
☒	-4852
☕	-4853
☟	-4854
☭	-4855
♦	-4856
♧	-4857
♫	-4858
✌	-4859
✗	-4860
➜	-4861
➥	-4862
⟵	-4863
⟶	-4864
⦁	-4865
オ	-4866
ニ	-4867
ビ	-4868
リ	-4869
世	-4870
五	-4871
光	-4872
公	-4873
共	-4874
军	-4875
华	-4876
协	-4877
協	-4878
台	-4879
司	-4880
和	-4881
大	-4882
山	-4883
式	-4884
春	-4885
會	-4886
月	-4887
有	-4888
株	-4889
楚	-4890
江	-4891
海	-4892
湾	-4893
灣	-4894
狂	-4895
珞	-4896
界	-4897
社	-4898
秋	-4899
空	-4900
箇	-4901
級	-4902
级	-4903
结	-4904
聯	-4905
臺	-4906
航	-4907
言	-4908
賽	-4909
鈥	-4910
锦	-4911
镜	-4912
际	-4913
限	-4914
集	-4915
낍	-4916
책	-4917
	-4918
	-4919
	-4920
	-4921
	-4922
	-4923
	-4924
	-4925
	-4926
	-4927
	-4928
	-4929
	-4930
	-4931
	-4932
	-4933
	-4934
	-4935
	-4936
	-4937
	-4938
	-4939
	-4940
	-4941
￼	-4942
🇨	-4943
🌞	-4944
🌷	-4945
🌸	-4946
🍀	-4947
🍦	-4948
🍰	-4949
🍳	-4950
🍴	-4951
🎁	-4952
🎈	-4953
🎉	-4954
🎨	-4955
🎶	-4956
🎼	-4957
🏆	-4958
🏽	-4959
🐞	-4960
🐲	-4961
🐴	-4962
🐾	-4963
👁	-4964
👇	-4965
👌	-4966
💔	-4967
💥	-4968
💪	-4969
💰	-4970
📌	-4971
📚	-4972
📷	-4973
🔸	-4974
🖤	-4975
🗞	-4976
😁	-4977
😆	-4978
😔	-4979
😖	-4980
😞	-4981
😠	-4982
😫	-4983
😭	-4984
😳	-4985
😶	-4986
🙆	-4987
🙉	-4988
🤙	-4989
🤛	-4990
🤩	-4991
🥂	-4992
🥇	-4993
🦋	-4994
🦌	-4995
🧡	-4996
