<unk>	0
<s>	0
</s>	0
.	-3.14146
,	-3.80588
▁och	-3.87805
▁att	-3.91522
s	-4.10435
▁är	-4.17826
▁i	-4.22987
▁en	-4.36468
▁för	-4.38448
▁som	-4.38779
▁av	-4.41233
▁på	-4.67237
▁det	-4.70431
▁till	-4.8024
en	-4.81333
▁med	-4.88356
▁har	-5.04861
t	-5.04953
a	-5.05505
▁inte	-5.06558
▁den	-5.10438
▁de	-5.20479
▁du	-5.21258
▁om	-5.22282
▁ett	-5.28006
▁kan	-5.3339
-	-5.38728
er	-5.39092
▁	-5.39252
▁jag	-5.45393
?	-5.49937
▁eller	-5.614
▁Det	-5.61521
:	-5.68614
n	-5.69541
r	-5.72985
▁från	-5.74651
▁vi	-5.80127
▁var	-5.85599
na	-5.88392
▁så	-5.90287
▁(	-5.93247
e	-5.97948
▁kommer	-5.99725
▁Jag	-6.04914
!	-6.11188
)	-6.15928
ar	-6.16082
et	-6.20135
▁vara	-6.22022
▁sig	-6.2327
d	-6.3081
▁man	-6.3367
▁dig	-6.33992
▁"	-6.3449
▁han	-6.3917
de	-6.39248
▁alla	-6.39608
▁ska	-6.40419
▁I	-6.43688
▁när	-6.44254
▁här	-6.45008
▁Vi	-6.46948
▁också	-6.48135
▁men	-6.49361
▁Den	-6.50214
▁finns	-6.50314
▁andra	-6.51116
▁över	-6.54077
▁din	-6.5511
▁mig	-6.58895
▁mer	-6.59443
▁under	-6.62193
▁”	-6.62264
▁än	-6.62317
▁detta	-6.62721
▁ut	-6.6273
▁–	-6.63803
▁upp	-6.65297
▁mycket	-6.66483
▁De	-6.66537
▁-	-6.66977
▁bara	-6.67772
▁in	-6.68404
▁ha	-6.70102
▁En	-6.71835
▁år	-6.71907
▁vill	-6.72015
▁vad	-6.72915
▁dem	-6.73631
▁där	-6.76114
▁göra	-6.76638
▁sin	-6.76988
▁Men	-6.77948
▁efter	-6.83631
▁hur	-6.83709
▁oss	-6.85965
▁gör	-6.86899
▁denna	-6.86899
▁Du	-6.87307
▁Om	-6.87913
▁skulle	-6.89004
▁genom	-6.90012
▁För	-6.91672
▁vid	-6.92672
erna	-6.9348
▁få	-6.94909
▁även	-6.98182
▁måste	-7.00374
▁många	-7.00783
▁nu	-7.01265
▁får	-7.01599
▁Och	-7.01825
▁hade	-7.02467
▁något	-7.0443
▁mot	-7.04568
▁min	-7.05061
"	-7.05191
▁någon	-7.05865
▁se	-7.06485
▁bra	-7.06892
▁första	-7.08507
▁ta	-7.09414
▁dessa	-7.09918
”	-7.14017
▁två	-7.15621
▁inom	-7.17631
▁sina	-7.17882
▁Han	-7.18728
▁sätt	-7.20454
▁utan	-7.20554
▁allt	-7.21078
▁Detta	-7.21882
▁När	-7.22083
▁hon	-7.22118
▁då	-7.24272
▁Hur	-7.2618
...	-7.26446
re	-7.26816
▁bli	-7.2749
i	-7.27515
▁nya	-7.27742
▁ni	-7.28362
▁mellan	-7.29103
▁ditt	-7.29519
▁Vad	-7.29904
▁behöver	-7.30693
▁olika	-7.31931
▁våra	-7.31943
o	-7.32296
▁människor	-7.32709
▁del	-7.32925
▁hela	-7.34046
▁barn	-7.34612
▁tid	-7.35424
▁säger	-7.35966
▁vår	-7.36438
▁sedan	-7.37088
y	-7.37365
▁dina	-7.37561
▁några	-7.37829
▁deras	-7.3822
▁själv	-7.38356
▁varje	-7.38812
▁blir	-7.43274
/	-7.4446
▁dag	-7.47277
▁skall	-7.47508
ning	-7.48008
k	-7.48903
in	-7.49467
▁honom	-7.49513
m	-7.50252
are	-7.50378
▁S	-7.5128
▁alltid	-7.51931
▁rätt	-7.52086
▁vet	-7.5374
nde	-7.53765
;	-7.55193
▁samma	-7.55348
▁1	-7.55487
▁sitt	-7.55927
ade	-7.56381
▁A	-7.57886
▁Att	-7.59096
an	-7.59829
▁helt	-7.60084
▁liv	-7.60192
).	-7.62332
▁går	-7.62605
▁varit	-7.62707
▁vilket	-7.62897
▁använda	-7.63379
▁världen	-7.63664
▁ser	-7.63682
▁kunna	-7.64579
▁hans	-7.64585
ing	-7.65206
or	-7.65486
▁Så	-7.65569
▁bör	-7.66559
arna	-7.68502
▁gå	-7.68541
ande	-7.68548
▁bästa	-7.68951
▁ger	-7.69505
▁bättre	-7.69742
at	-7.70071
▁2	-7.71033
▁information	-7.71866
S	-7.72596
▁annan	-7.73029
▁ge	-7.73301
ens	-7.73755
▁ingen	-7.74985
▁lite	-7.75067
▁ny	-7.75213
▁annat	-7.75455
▁fram	-7.75577
▁hos	-7.75645
▁stor	-7.76342
▁mitt	-7.76431
▁aldrig	-7.77223
▁mest	-7.78109
▁er	-7.78899
▁3	-7.79575
▁tre	-7.79917
▁Har	-7.81014
g	-7.81176
▁komma	-7.81818
▁dess	-7.82305
ts	-7.83094
▁flera	-7.83229
▁o	-7.83269
▁gång	-7.84159
▁eftersom	-7.84519
▁stora	-7.84662
▁företag	-7.85192
▁E	-7.85399
▁blev	-7.86261
▁Gud	-7.86327
▁Ett	-7.86529
▁tar	-7.87186
▁ju	-7.8856
ad	-7.88689
l	-7.89082
.”	-7.891
▁verkligen	-7.89701
▁På	-7.8972
▁tror	-7.89909
p	-7.90025
▁bort	-7.90705
▁samt	-7.90776
▁enligt	-7.90905
h	-7.90974
▁tillbaka	-7.91017
al	-7.911
▁Med	-7.91154
▁innan	-7.91193
▁gäller	-7.91312
▁s	-7.93366
B	-7.93664
▁10	-7.93669
▁B	-7.93858
▁fick	-7.94191
▁Är	-7.94877
▁of	-7.95888
▁grund	-7.96016
ta	-7.96249
▁5	-7.96361
▁“	-7.96576
▁kom	-7.96934
D	-7.97066
▁Hon	-7.98397
▁Alla	-7.98443
as	-7.98613
▁kunde	-7.98615
▁fall	-7.9864
es	-7.987
▁hem	-7.99384
▁kanske	-7.99634
▁Som	-8.02083
▁väl	-8.02248
▁både	-8.0244
▁använder	-8.02887
▁T	-8.03267
."	-8.03347
het	-8.03367
v	-8.03655
▁igen	-8.03891
▁säga	-8.03927
▁C	-8.0398
▁4	-8.04763
▁exempel	-8.04971
▁saker	-8.04996
▁ofta	-8.05009
▁e	-8.05054
▁G	-8.0528
▁redan	-8.06329
▁personer	-8.06624
▁USA	-8.06779
▁F	-8.07058
▁be	-8.07285
▁Här	-8.07523
▁åt	-8.07689
▁idag	-8.07793
▁dock	-8.07817
▁mina	-8.07963
▁P	-8.08088
▁Nu	-8.08248
▁mindre	-8.08326
▁fortfarande	-8.08413
▁spel	-8.0873
▁tidigare	-8.09001
för	-8.09084
▁EU	-8.09728
▁hjälp	-8.10213
▁ligger	-8.1022
▁tillsammans	-8.10357
▁endast	-8.10415
C	-8.10765
▁väldigt	-8.10889
▁vissa	-8.11138
it	-8.11177
▁bland	-8.11583
▁Varför	-8.11796
▁problem	-8.12043
▁plats	-8.12128
da	-8.12284
▁...	-8.12753
▁K	-8.14367
▁Man	-8.14556
▁procent	-8.14643
G	-8.14647
▁hjälpa	-8.15078
]	-8.15364
c	-8.15404
▁möjligt	-8.16006
▁längre	-8.16176
j	-8.16391
P	-8.17304
▁vatten	-8.17502
▁pengar	-8.17673
M	-8.18153
▁största	-8.18263
▁folk	-8.18428
▁ner	-8.18906
f	-8.18969
iska	-8.19732
▁skapa	-8.19882
▁tiden	-8.2012
▁enda	-8.20265
F	-8.20476
”.	-8.20656
▁artikel	-8.20685
▁gjort	-8.20783
▁därför	-8.20943
▁känner	-8.2097
▁hand	-8.21087
▁produkter	-8.21177
▁O	-8.2192
man	-8.22651
▁M	-8.2315
▁kvinnor	-8.23514
st	-8.23547
▁henne	-8.23609
▁vårt	-8.23612
us	-8.23874
▁person	-8.2465
T	-8.25029
▁The	-8.25123
▁Under	-8.25391
A	-8.25463
▁sa	-8.25509
▁hitta	-8.25612
▁används	-8.25692
▁Var	-8.25811
▁t	-8.26485
ra	-8.26682
on	-8.26805
▁egen	-8.27285
),	-8.27642
▁flesta	-8.27795
▁dagar	-8.28016
om	-8.28016
▁ord	-8.28077
▁gjorde	-8.2824
'	-8.28327
▁mål	-8.28397
▁viktigt	-8.28459
se	-8.28789
b	-8.28973
▁namn	-8.2908
▁större	-8.30141
▁visar	-8.30263
des	-8.30273
▁mat	-8.30342
▁Kan	-8.30562
▁D	-8.31581
K	-8.3199
▁nära	-8.32839
ma	-8.32984
▁ännu	-8.33357
▁H	-8.33624
▁själva	-8.33731
▁hög	-8.33888
▁fler	-8.3398
▁innebär	-8.343
▁runt	-8.34325
▁land	-8.34635
▁fråga	-8.34712
▁vilken	-8.35313
▁fel	-8.35501
▁livet	-8.35646
▁börjar	-8.35662
▁senaste	-8.35818
▁varför	-8.36087
ligt	-8.36164
ering	-8.36284
▁hålla	-8.3664
▁hennes	-8.37064
▁a	-8.37363
liga	-8.3787
ut	-8.38078
▁älskar	-8.38214
▁Dessa	-8.38336
▁enkelt	-8.38515
▁6	-8.3897
el	-8.39014
▁väg	-8.39168
".	-8.39208
▁ur	-8.39208
▁20	-8.39284
sk	-8.39588
▁Till	-8.39636
▁Se	-8.39893
▁stöd	-8.40033
▁energi	-8.40184
▁fått	-8.40784
▁7	-8.40817
▁tycker	-8.41018
▁blivit	-8.41029
L	-8.41093
▁lika	-8.41225
▁erbjuder	-8.41398
▁nästan	-8.41672
▁vilka	-8.41695
le	-8.41826
▁18	-8.41965
la	-8.4202
te	-8.42091
▁arbete	-8.42388
ska	-8.4248
▁form	-8.42642
▁särskilt	-8.42857
▁inget	-8.42937
▁per	-8.42971
▁L	-8.43457
▁står	-8.43493
I	-8.43659
▁länge	-8.44091
▁Efter	-8.44156
▁In	-8.44277
▁data	-8.44418
ig	-8.44859
ex	-8.44875
▁senare	-8.4512
▁p	-8.45787
▁länder	-8.46226
▁&	-8.46332
▁direkt	-8.46362
▁lätt	-8.46488
E	-8.46823
ck	-8.47023
▁icke	-8.47219
▁miljoner	-8.47616
▁Sverige	-8.47689
H	-8.47855
▁gånger	-8.47935
▁nytt	-8.48256
is	-8.48361
▁Inte	-8.48691
▁före	-8.48719
▁Ja	-8.48742
▁15	-8.48811
▁just	-8.49443
▁fyra	-8.49506
▁händer	-8.49705
▁[	-8.49706
Jag	-8.49757
▁dom	-8.49835
ns	-8.50032
lig	-8.50046
iga	-8.50106
ä	-8.50117
▁000	-8.50334
▁Även	-8.50478
be	-8.50839
▁kort	-8.51144
▁lära	-8.51177
▁veta	-8.51293
▁8	-8.51687
▁beslut	-8.51783
▁faktiskt	-8.51821
▁dagen	-8.51957
▁R	-8.52018
▁tjänster	-8.52116
▁frågor	-8.52462
▁gick	-8.52473
▁system	-8.53024
▁Min	-8.53064
▁slut	-8.53557
R	-8.53647
▁utveckling	-8.53661
▁spela	-8.53982
talet	-8.54102
▁all	-8.54144
ne	-8.54278
▁sade	-8.5439
▁köpa	-8.54583
▁började	-8.54607
2	-8.54788
▁välja	-8.55278
▁Ta	-8.55439
▁fem	-8.55519
▁and	-8.55812
är	-8.55987
▁såg	-8.56176
▁stort	-8.56304
ur	-8.56584
ed	-8.56793
▁Ni	-8.56978
▁an	-8.57328
▁Re	-8.57406
u	-8.57432
▁tro	-8.5784
▁egna	-8.58212
▁delar	-8.58535
▁online	-8.58564
▁varandra	-8.58604
▁via	-8.58627
▁19	-8.58952
um	-8.5913
▁båda	-8.59301
▁kunder	-8.59364
▁typ	-8.59569
▁vänner	-8.59609
▁sex	-8.59687
▁nästa	-8.59859
▁miljö	-8.60116
O	-8.60331
▁emot	-8.6051
▁inför	-8.60909
▁medan	-8.60909
▁först	-8.61301
▁känna	-8.61382
▁f	-8.6148
▁gången	-8.6154
▁snabbt	-8.61576
▁Europa	-8.61699
▁Då	-8.61725
▁små	-8.61927
▁handlar	-8.62121
▁håller	-8.62783
▁svårt	-8.62836
▁the	-8.6289
▁val	-8.63191
’	-8.63369
▁kvar	-8.6353
▁liten	-8.63569
▁k	-8.63604
▁arbetar	-8.63822
N	-8.64196
▁par	-8.64404
▁användning	-8.64407
▁hjälper	-8.6445
▁steg	-8.64529
▁N	-8.6471
▁12	-8.6473
▁män	-8.64828
▁tog	-8.65067
▁innehåller	-8.65416
▁riktigt	-8.65485
▁ytterligare	-8.65588
▁Många	-8.65682
▁resultat	-8.66027
▁bok	-8.66092
▁program	-8.66426
V	-8.66435
▁V	-8.66465
▁inga	-8.66599
ry	-8.66635
▁30	-8.66833
4	-8.66987
▁/	-8.67348
▁början	-8.67618
▁bil	-8.67708
1	-8.68026
▁sett	-8.68117
ter	-8.68247
x	-8.68292
▁tredje	-8.68388
▁året	-8.68409
▁timmar	-8.68474
▁sådana	-8.68558
▁åtgärder	-8.68677
▁fungerar	-8.69131
▁inklusive	-8.69271
▁precis	-8.69437
▁följande	-8.69447
▁lång	-8.69567
▁läsa	-8.69805
to	-8.69842
▁nog	-8.70042
▁möjlighet	-8.70123
ul	-8.70374
▁Läs	-8.70455
▁sista	-8.70484
▁staden	-8.70527
▁borde	-8.70567
▁behov	-8.70573
▁sådan	-8.70624
▁antal	-8.70979
▁långt	-8.71104
▁betyder	-8.7116
il	-8.7127
3	-8.7139
▁projekt	-8.71828
▁kärlek	-8.71894
▁Allt	-8.71967
▁W	-8.72016
▁produkt	-8.72136
W	-8.72254
▁c	-8.72406
▁helst	-8.72459
▁Guds	-8.72847
▁sak	-8.72927
▁b	-8.73162
▁god	-8.73321
▁gillar	-8.73681
▁gamla	-8.73736
▁samtidigt	-8.73753
▁minst	-8.73901
▁sidan	-8.74284
▁uppgifter	-8.74767
▁haft	-8.74796
▁rum	-8.74843
▁visa	-8.7487
▁huvud	-8.74886
▁jobb	-8.74913
▁Be	-8.7511
▁förstå	-8.75414
▁internationella	-8.75436
▁hus	-8.75639
▁•	-8.75679
▁9	-8.75923
ion	-8.75973
Det	-8.75984
▁månader	-8.75995
▁börja	-8.76131
▁familj	-8.76304
▁tillgång	-8.76428
ka	-8.76734
▁fast	-8.77507
tal	-8.77507
ste	-8.77545
▁användas	-8.77674
▁verkar	-8.77828
▁vem	-8.77886
ningar	-8.77901
▁världens	-8.78227
”,	-8.78269
▁högre	-8.78467
▁Därför	-8.78825
5	-8.78956
▁någonsin	-8.7901
▁behandling	-8.79197
▁forskning	-8.7928
ton	-8.80065
▁Sedan	-8.80145
ningen	-8.80147
▁fanns	-8.80256
▁ganska	-8.80499
▁svar	-8.80827
▁vidare	-8.81131
▁vilja	-8.81188
den	-8.81321
▁bilder	-8.8147
▁enlighet	-8.8151
▁musik	-8.81735
▁New	-8.8174
▁såsom	-8.81897
▁utveckla	-8.81923
▁Jesus	-8.81925
id	-8.81929
ga	-8.82114
ge	-8.82256
▁tänka	-8.82256
▁djur	-8.82317
▁förbättra	-8.82463
▁m	-8.82649
▁öka	-8.82662
▁Eller	-8.82775
▁sociala	-8.83136
▁lag	-8.83231
▁bild	-8.83355
▁kallas	-8.83756
▁Av	-8.84008
",	-8.84141
▁historia	-8.84587
▁hemma	-8.84816
▁alltså	-8.84832
▁åter	-8.84978
ation	-8.85004
Vi	-8.85287
▁Låt	-8.8556
▁landet	-8.85649
▁film	-8.85854
▁utbildning	-8.85908
co	-8.86021
▁roll	-8.86211
▁kräver	-8.86224
▁resa	-8.86243
▁arbeta	-8.86286
▁J	-8.86456
▁verksamhet	-8.86597
ie	-8.86691
▁%	-8.86695
▁lägga	-8.86863
▁St	-8.86868
▁ljus	-8.86992
system	-8.87049
▁spelar	-8.87242
▁utanför	-8.87438
▁material	-8.8746
▁heller	-8.87581
▁krävs	-8.87661
▁alternativ	-8.88037
▁tillräckligt	-8.88075
▁ibland	-8.88085
▁minuter	-8.88228
▁marknaden	-8.88233
▁äta	-8.88264
00	-8.88272
▁16	-8.88351
ö	-8.88701
▁försöker	-8.88792
▁skriva	-8.88862
land	-8.89299
av	-8.90835
▁rättigheter	-8.90888
▁Genom	-8.91014
nings	-8.91153
▁Vill	-8.91275
▁språk	-8.915
era	-8.91571
▁sagt	-8.91698
▁bor	-8.91707
▁lever	-8.91848
▁Vem	-8.91868
os	-8.9187
▁ändå	-8.9193
▁pris	-8.92159
isk	-8.92243
ger	-8.92247
▁Varj	-8.9226
▁webbplats	-8.92552
▁re	-8.92606
erade	-8.92636
▁lämna	-8.92714
ism	-8.92975
▁ned	-8.93102
▁Dessutom	-8.93216
▁leva	-8.93222
▁kunskap	-8.93257
▁g	-8.93401
▁hel	-8.93525
▁vän	-8.93536
▁17	-8.93652
U	-8.93719
▁100	-8.93758
▁ville	-8.9391
men	-8.93925
eller	-8.93994
▁fortsätta	-8.94379
▁bygga	-8.944
▁11	-8.94478
son	-8.94607
▁framför	-8.9467
▁teknik	-8.94708
▁risk	-8.94804
▁bo	-8.94822
▁död	-8.94836
▁vägen	-8.949
▁Kina	-8.95147
▁minska	-8.95161
spel	-8.95265
ia	-8.95369
▁fortsätter	-8.95403
▁Vid	-8.9542
▁följa	-8.95482
mp	-8.95503
der	-8.95567
ke	-8.95633
▁sida	-8.95741
▁spelare	-8.95802
▁bäst	-8.95992
▁ihåg	-8.96008
▁värld	-8.96102
▁snart	-8.96156
▁Ingen	-8.96847
▁skriver	-8.96977
ri	-8.97099
▁14	-8.97127
ol	-8.97229
▁Från	-8.97381
▁kontroll	-8.97442
ce	-8.9749
▁slutet	-8.97518
▁An	-8.97539
▁Google	-8.97711
▁tänker	-8.97791
▁arbets	-8.97832
ro	-8.97847
▁vecka	-8.97847
▁amerikanska	-8.98196
▁hälsa	-8.98369
▁hittar	-8.98698
va	-8.98772
▁Sa	-8.98942
▁säker	-8.99026
th	-8.99599
ic	-8.9974
▁gratis	-8.99748
▁Le	-8.99751
▁ansvar	-8.99775
▁50	-8.99805
ve	-8.99883
▁full	-8.99943
▁åren	-8.99948
▁kommit	-9.00452
▁ute	-9.00526
▁säkerhet	-9.00624
igt	-9.00675
▁eget	-9.00852
och	-9.00856
▁viktig	-9.01012
▁25	-9.0114
▁erfarenhet	-9.01286
▁öppna	-9.01388
▁Al	-9.01661
▁grupp	-9.01682
ly	-9.02098
▁mamma	-9.0214
ist	-9.02274
ja	-9.02407
vis	-9.0271
▁13	-9.02777
▁typer	-9.02792
▁hoppas	-9.02917
▁design	-9.02958
▁extra	-9.03055
▁tur	-9.03124
z	-9.03442
▁Tack	-9.03478
▁kroppen	-9.03639
▁kvinna	-9.03967
▁färg	-9.0407
▁fri	-9.04132
▁betala	-9.04268
▁ca	-9.04448
▁väljer	-9.0485
▁månad	-9.05131
▁gav	-9.05353
▁områden	-9.05495
▁ekonomiska	-9.05526
ch	-9.05557
▁användare	-9.05986
di	-9.06023
(	-9.06051
▁beroende	-9.06119
▁behövs	-9.0627
▁låg	-9.0687
ling	-9.06887
▁ändra	-9.06922
▁lär	-9.06966
ster	-9.07021
▁punkt	-9.07028
w	-9.07051
▁egentligen	-9.07272
tt	-9.07318
▁Europeiska	-9.07334
6	-9.07535
▁viktiga	-9.07537
min	-9.07849
▁området	-9.0793
var	-9.081
me	-9.08323
kar	-9.08326
▁bakom	-9.08516
upp	-9.08606
▁skydda	-9.08794
ell	-9.08796
▁istället	-9.08864
ets	-9.08889
tid	-9.08915
▁säkert	-9.08967
å	-9.09128
7	-9.09259
▁värde	-9.0933
▁behöva	-9.09339
▁veckan	-9.09437
▁kvalitet	-9.09477
▁äldre	-9.09699
▁jorden	-9.09733
▁Ut	-9.09764
▁kropp	-9.09951
▁»	-9.09965
▁innehåll	-9.10022
▁verktyg	-9.1005
ör	-9.10051
▁råd	-9.10187
▁skapar	-9.10298
sta	-9.10306
▁Tänk	-9.10441
▁förordning	-9.10789
▁tillgängliga	-9.11056
▁finnas	-9.11126
▁följer	-9.11127
▁gått	-9.11149
▁nationella	-9.11277
▁kontakt	-9.11307
▁goda	-9.11905
▁frågan	-9.12023
▁Idag	-9.12115
▁Mer	-9.12162
gen	-9.1223
▁for	-9.12257
lo	-9.12278
▁förstår	-9.12288
▁nivå	-9.12302
▁ålder	-9.12428
▁veckor	-9.12489
▁trots	-9.12719
▁krav	-9.12964
▁La	-9.13026
pa	-9.13026
▁nå	-9.13058
▁Där	-9.13128
▁gott	-9.13151
▁låter	-9.13256
gg	-9.13396
▁närheten	-9.13444
▁läkare	-9.13488
▁U	-9.13499
▁hantera	-9.1376
▁kraft	-9.13877
ng	-9.13965
else	-9.14434
▁ögon	-9.14698
▁säkerställa	-9.1475
▁hotell	-9.15022
▁personuppgifter	-9.15267
▁års	-9.15287
▁kring	-9.15306
▁leda	-9.15573
som	-9.1568
mo	-9.15751
▁regler	-9.15851
▁Vilka	-9.15912
▁döda	-9.15932
ty	-9.15938
▁Din	-9.1596
▁titta	-9.15983
▁samband	-9.16175
▁viktigaste	-9.16333
▁Nästa	-9.16349
com	-9.16495
▁viss	-9.1657
rätt	-9.16578
▁igenom	-9.16704
▁Vår	-9.16742
▁dra	-9.16803
▁stad	-9.16914
▁framtiden	-9.17041
▁tio	-9.17154
▁Kom	-9.1727
ik	-9.17305
▁klart	-9.17415
▁tillstånd	-9.17742
▁kr	-9.17742
▁platser	-9.17786
▁dela	-9.18113
▁syfte	-9.18194
▁Vissa	-9.18404
▁lokala	-9.18461
bo	-9.1847
▁företaget	-9.18646
▁perfekt	-9.18765
▁cirka	-9.18888
▁gammal	-9.1891
▁ifrån	-9.18912
▁erbjuda	-9.19028
▁berätta	-9.19205
▁samhället	-9.19648
▁hör	-9.19695
▁försöka	-9.19707
▁dator	-9.19928
▁område	-9.19939
ren	-9.19973
▁studie	-9.20135
im	-9.20423
▁*	-9.20435
▁tack	-9.2052
▁skada	-9.20586
▁svenska	-9.20629
▁rör	-9.20831
▁människa	-9.20835
▁makt	-9.20853
▁ja	-9.20953
▁påverkar	-9.20967
▁Kanske	-9.21032
▁tagit	-9.21064
ha	-9.21528
▁liknande	-9.21636
lag	-9.21661
▁vinna	-9.21705
up	-9.21715
▁Ha	-9.21725
▁h	-9.21736
▁politiska	-9.21854
än	-9.21956
▁högsta	-9.22204
▁omkring	-9.22382
▁service	-9.2247
▁samarbete	-9.22541
post	-9.22585
op	-9.22651
▁undvika	-9.22689
▁känns	-9.22871
▁plan	-9.22937
▁villkor	-9.23023
itet	-9.23097
▁skillnad	-9.23147
▁leder	-9.23157
▁grundläggande	-9.232
▁kommissionen	-9.23219
▁sjukdom	-9.23459
▁föräldrar	-9.23525
▁sättet	-9.23642
lar	-9.23643
▁låta	-9.23797
ni	-9.2396
▁ungefär	-9.24027
▁rädda	-9.24176
▁mänskliga	-9.24346
▁Mo	-9.24371
▁Jo	-9.24559
▁sådant	-9.2456
▁sätta	-9.24604
▁rad	-9.24611
▁skolan	-9.24842
rum	-9.24863
▁Co	-9.24903
vi	-9.25021
▁oavsett	-9.25577
▁delen	-9.2564
▁gärna	-9.25707
▁består	-9.25758
▁prata	-9.25793
▁höra	-9.2584
kt	-9.25844
▁intresse	-9.26179
del	-9.26196
▁40	-9.26411
▁$	-9.26463
▁sker	-9.26565
▁närvarande	-9.26624
▁24	-9.26665
▁Pro	-9.26669
▁hjärta	-9.26711
▁Bo	-9.26836
▁tag	-9.26845
▁sen	-9.26956
▁antalet	-9.27097
▁mängd	-9.27115
▁to	-9.27136
ver	-9.27194
▁dollar	-9.27296
▁al	-9.27341
erad	-9.27386
9	-9.2743
aren	-9.27454
▁säkerhets	-9.27458
▁maj	-9.27643
▁ihop	-9.27711
▁boken	-9.27738
▁tillväxt	-9.27815
▁anges	-9.27847
!!	-9.28019
▁unga	-9.28062
▁funktioner	-9.28217
▁klimat	-9.2827
▁favorit	-9.28272
ju	-9.28361
▁läkemedel	-9.28489
▁Hans	-9.28548
▁affärs	-9.28578
▁Kommer	-9.28726
tor	-9.28742
X	-9.28913
▁X	-9.29043
▁post	-9.29082
▁stället	-9.2912
–	-9.29142
▁Ka	-9.29159
▁utgör	-9.29228
▁Ra	-9.29356
rna	-9.2944
▁skäl	-9.29531
▁söker	-9.29709
▁böcker	-9.30034
▁uppnå	-9.3025
▁europeiska	-9.30375
▁ej	-9.30411
▁skrev	-9.30477
▁å	-9.30641
é	-9.3073
▁speciellt	-9.30768
▁anställda	-9.30868
▁möjligheter	-9.30924
▁känd	-9.3099
▁låt	-9.31012
▁Windows	-9.31079
▁nr	-9.31163
▁Na	-9.31176
▁d	-9.31206
▁samman	-9.31207
▁ex	-9.31436
▁avtal	-9.31471
▁regeringen	-9.31656
▁sluta	-9.3169
▁skicka	-9.31723
ord	-9.31806
am	-9.32019
▁höga	-9.32192
▁besök	-9.32349
go	-9.32363
▁Över	-9.32375
mat	-9.32472
▁internet	-9.32725
▁talar	-9.32755
▁barnen	-9.329
▁vanliga	-9.32929
▁standard	-9.33097
▁nuvarande	-9.33216
▁Eftersom	-9.33356
▁York	-9.33482
▁liksom	-9.33485
▁patienter	-9.33533
▁video	-9.33572
▁dessutom	-9.33639
▁engelska	-9.33662
▁kultur	-9.33707
▁era	-9.33796
▁kund	-9.33894
ci	-9.33915
▁Ska	-9.33967
program	-9.3413
▁studier	-9.34369
bi	-9.34441
▁'	-9.34763
val	-9.34921
till	-9.34922
▁spelet	-9.34976
▁flyg	-9.34982
▁lösningar	-9.35242
ndet	-9.35258
▁Finns	-9.35373
▁dags	-9.3538
age	-9.35455
äck	-9.35548
fall	-9.35656
iv	-9.35691
▁december	-9.35797
do	-9.35851
tur	-9.35903
▁kontrollera	-9.35942
▁Storbritannien	-9.35957
▁ingenting	-9.35984
▁lista	-9.35993
ment	-9.36369
▁röst	-9.36443
▁Använd	-9.36471
▁ledande	-9.36558
▁hår	-9.36764
▁sälja	-9.36938
▁juni	-9.36942
▁Facebook	-9.37054
▁21	-9.37058
kom	-9.37081
▁ökar	-9.37146
▁vikt	-9.37184
▁nätverk	-9.37219
▁hund	-9.37252
▁president	-9.3726
▁social	-9.37345
▁mars	-9.37748
▁vin	-9.37756
▁högt	-9.37768
▁sol	-9.3783
▁medlemmar	-9.38274
ko	-9.38292
▁st	-9.38335
▁visade	-9.38427
▁alls	-9.38474
▁Tyskland	-9.38497
▁Ryssland	-9.38647
▁fullt	-9.38651
▁antingen	-9.38811
pe	-9.38879
▁förra	-9.38935
orna	-9.39046
?"	-9.391
EG	-9.3913
▁tala	-9.39193
▁blod	-9.39241
▁kör	-9.39325
▁ingår	-9.39567
▁lilla	-9.39619
▁Andra	-9.39639
▁någonting	-9.3968
▁direktiv	-9.39733
▁spara	-9.39752
▁Mar	-9.39842
▁beror	-9.39871
?”	-9.39925
▁karriär	-9.39977
▁son	-9.40188
ot	-9.40231
tion	-9.40298
▁funktion	-9.4033
ti	-9.40334
▁Israel	-9.40495
▁Vilken	-9.40608
▁visste	-9.40617
▁fungera	-9.40702
▁kul	-9.40714
▁förändringar	-9.40732
▁London	-9.40922
▁Tro	-9.4108
▁globala	-9.41338
▁glad	-9.41493
▁exakt	-9.41654
▁tecken	-9.41681
▁vackra	-9.41731
▁utvecklingen	-9.41874
▁TV	-9.41902
▁kl	-9.41911
▁januari	-9.41913
▁sju	-9.41928
tar	-9.41978
▁0	-9.42041
by	-9.42067
▁:	-9.42131
▁tekniska	-9.42368
▁visas	-9.42409
▁anser	-9.42432
ner	-9.42527
▁systemet	-9.42724
pp	-9.42761
▁familjen	-9.42914
▁snabb	-9.42949
▁förhållande	-9.43058
▁far	-9.43096
▁medel	-9.43132
▁personliga	-9.43165
▁ensam	-9.43169
▁personal	-9.4321
ier	-9.43251
gar	-9.43277
ld	-9.4331
▁september	-9.43418
▁framgång	-9.43425
▁arbetet	-9.43521
▁fokus	-9.43543
▁skydd	-9.43553
▁John	-9.43577
▁redo	-9.439
▁anses	-9.43927
▁Gör	-9.43989
ek	-9.4399
▁Upp	-9.44226
▁anledning	-9.44395
ca	-9.44408
▁konst	-9.44451
▁menar	-9.44565
ir	-9.44582
ken	-9.44586
▁Våra	-9.44634
skap	-9.44675
▁konto	-9.44692
▁medlemsstaterna	-9.44715
▁Park	-9.44744
gång	-9.44779
med	-9.44843
▁delta	-9.44869
ten	-9.44937
▁kommunikation	-9.45167
bar	-9.45183
▁Internet	-9.45222
▁påverka	-9.45278
▁tas	-9.45284
▁Europaparlament	-9.45284
▁natur	-9.45313
mar	-9.45433
▁försök	-9.45489
▁säkra	-9.45648
▁ljud	-9.45841
▁enheter	-9.45885
▁tillgänglig	-9.46003
▁stress	-9.46129
▁berättar	-9.46134
▁dö	-9.46231
ian	-9.46318
▁lägre	-9.46334
pi	-9.46343
▁kontakta	-9.46413
ran	-9.46465
▁namnet	-9.46532
▁lyssna	-9.46583
▁euro	-9.46589
▁gemensamma	-9.46683
▁brott	-9.46733
▁främst	-9.46745
▁ställa	-9.46785
▁avses	-9.46835
▁stå	-9.4684
▁2018	-9.46874
▁Enlig	-9.46957
▁luft	-9.47003
▁vare	-9.4705
▁njuta	-9.47178
▁Några	-9.47196
▁El	-9.47339
mer	-9.47361
▁avseende	-9.47454
▁la	-9.47578
▁stark	-9.47589
▁studenter	-9.47714
▁Bra	-9.48277
▁kväll	-9.48304
▁Li	-9.48349
▁inre	-9.48369
▁organisation	-9.48419
▁vanligt	-9.48431
ok	-9.485
▁—	-9.48524
len	-9.48624
est	-9.48692
▁förmåga	-9.48715
▁webbplatsen	-9.48738
▁huset	-9.48752
▁träd	-9.48781
ll	-9.48815
bb	-9.48871
▁cancer	-9.48896
▁framtid	-9.48965
▁lösning	-9.49012
▁tankar	-9.49016
▁Finland	-9.491
▁privat	-9.49167
▁partner	-9.49185
▁blogg	-9.49214
▁Bara	-9.49251
▁vård	-9.49354
ssystem	-9.49385
▁miljarder	-9.49431
▁medlem	-9.49438
heten	-9.49527
▁önskar	-9.49562
em	-9.49654
▁trodde	-9.49686
▁organisationer	-9.49706
▁förhindra	-9.49707
▁lämnar	-9.49714
▁kända	-9.49779
un	-9.49838
▁David	-9.49884
▁känslor	-9.50001
▁förslag	-9.50068
ant	-9.50076
verk	-9.50134
▁vanligtvis	-9.50228
▁nödvändigt	-9.50288
▁forskare	-9.503
ställ	-9.50365
isering	-9.50474
+	-9.5067
▁Hoppas	-9.50945
▁Pi	-9.51026
▁ung	-9.5106
▁vänta	-9.51087
▁natt	-9.51108
▁Ibland	-9.51149
▁effektivt	-9.51188
▁bär	-9.51302
▁lösa	-9.51325
▁bilden	-9.51341
ister	-9.51445
20	-9.51458
▁filmen	-9.51475
▁havet	-9.5148
▁University	-9.51486
▁lägger	-9.51561
▁verk	-9.51595
▁annorlunda	-9.51668
▁Å	-9.51744
▁åka	-9.51877
▁Ge	-9.51892
ring	-9.51904
▁krig	-9.51929
ft	-9.52006
▁Två	-9.5205
▁ledare	-9.52169
ki	-9.5218
kon	-9.52207
Y	-9.52342
hi	-9.5238
▁el	-9.52415
▁År	-9.52426
ac	-9.52515
▁oktober	-9.52588
▁spännande	-9.52595
▁budget	-9.52654
▁metoder	-9.5268
▁äter	-9.52697
per	-9.52905
skydd	-9.52986
▁offentliga	-9.52993
erat	-9.53302
▁Nya	-9.53328
bara	-9.5333
▁bygger	-9.53481
▁visat	-9.5359
▁FN	-9.53592
▁bidra	-9.53606
▁stil	-9.53623
▁behandla	-9.5367
▁kände	-9.53675
▁anti	-9.53683
▁Sen	-9.53744
▁Frankrike	-9.53904
kort	-9.5399
▁därmed	-9.54016
cy	-9.54033
gel	-9.54057
▁flytta	-9.54294
du	-9.54428
▁period	-9.54429
hus	-9.54438
▁tillhandahålla	-9.54455
vin	-9.54468
▁besöka	-9.54556
▁San	-9.54591
dag	-9.54632
▁tjänst	-9.54666
▁morgon	-9.54671
▁fantastiska	-9.5478
▁pappa	-9.54833
▁te	-9.54947
ho	-9.55181
form	-9.55305
▁inkluderar	-9.55362
und	-9.55398
li	-9.55407
▁2010	-9.55462
tro	-9.55506
▁tidigt	-9.55519
▁fred	-9.55617
▁km	-9.55642
företag	-9.55676
▁oberoende	-9.55789
▁heter	-9.55803
▁60	-9.55837
▁klass	-9.55854
▁tjäna	-9.55872
▁v	-9.55947
▁aktiviteter	-9.55974
▁effekt	-9.55996
▁ske	-9.56146
▁finansiella	-9.56202
▁2015	-9.56367
od	-9.56393
▁rädd	-9.56415
▁universitet	-9.56436
▁2017	-9.56489
▁levande	-9.56514
dy	-9.56774
fi	-9.56863
▁transport	-9.56892
▁absolut	-9.56928
▁sport	-9.57374
år	-9.57399
▁personen	-9.57436
▁text	-9.57476
stad	-9.57541
▁omfattande	-9.57634
▁köp	-9.57646
▁uppdrag	-9.57722
▁kyrkan	-9.57747
ity	-9.57768
▁Ca	-9.57866
▁enhet	-9.57881
▁Lo	-9.57942
▁smak	-9.58013
ella	-9.58106
▁bevis	-9.58143
▁2016	-9.58185
▁poäng	-9.58344
▁snabbare	-9.5839
▁meter	-9.58416
­	-9.58423
berg	-9.58443
▁webbplatser	-9.58556
▁Go	-9.58607
▁22	-9.58676
io	-9.58731
▁tips	-9.58762
▁jobbet	-9.58763
▁bad	-9.58764
▁All	-9.588
▁telefon	-9.58801
▁Apple	-9.58916
tra	-9.59021
▁förändring	-9.59033
ley	-9.59036
▁internationell	-9.59182
no	-9.59188
ium	-9.59221
▁hälso	-9.59509
sp	-9.59559
▁undantag	-9.59562
ala	-9.59575
▁känsla	-9.5959
▁enbart	-9.5961
ny	-9.59996
▁följd	-9.6004
▁#	-9.60075
▁Trots	-9.60125
0	-9.60167
▁ber	-9.60172
▁söka	-9.60184
ine	-9.60265
▁reda	-9.60309
▁tal	-9.60363
▁kläder	-9.60363
▁jord	-9.60528
sten	-9.60559
▁tillhör	-9.60609
▁Tre	-9.60758
▁marknads	-9.60782
▁älska	-9.60834
▁forsknings	-9.60891
mi	-9.609
▁tanke	-9.60904
▁lagen	-9.60936
▁analys	-9.61038
▁Me	-9.61107
▁Ar	-9.61159
▁fin	-9.61206
▁syn	-9.61226
▁vuxna	-9.61281
▁köra	-9.61336
▁2012	-9.61358
▁produkten	-9.61363
▁dokument	-9.6141
▁Dr	-9.61418
▁ämnen	-9.61422
▁Fler	-9.615
▁brukar	-9.61505
▁folket	-9.61552
▁moderna	-9.61583
▁verkliga	-9.61637
▁jämfört	-9.61663
▁åtminstone	-9.61667
▁kommande	-9.61717
▁r	-9.61735
▁ladda	-9.61804
▁omedelbart	-9.6183
▁långa	-9.61849
ung	-9.61897
ER	-9.61935
▁enkla	-9.62112
▁stanna	-9.62134
▁:)	-9.62203
▁särskilda	-9.6226
systemet	-9.6226
▁nyligen	-9.62298
lighet	-9.62451
▁organ	-9.62499
▁värd	-9.62558
liv	-9.62604
▁framtida	-9.62799
▁natten	-9.62899
sam	-9.63024
▁svart	-9.63068
ighet	-9.63148
▁bilen	-9.63227
▁Do	-9.63245
▁köper	-9.63369
▁hjärtat	-9.63371
▁hot	-9.63419
10	-9.63443
▁ekonomi	-9.63446
▁föremål	-9.63487
▁nämligen	-9.63505
▁process	-9.6351
J	-9.6353
▁stödja	-9.63558
▁programmet	-9.63589
▁sitter	-9.63622
▁växa	-9.63657
▁värme	-9.63676
▁enkel	-9.63696
▁klar	-9.63706
▁växer	-9.6371
▁utvecklas	-9.63713
▁starta	-9.63743
▁borta	-9.63827
▁inlägg	-9.63829
▁No	-9.63987
▁mobil	-9.6401
▁lärare	-9.64025
▁förklara	-9.64162
▁2011	-9.6417
▁allmänna	-9.64297
dom	-9.6433
▁övriga	-9.64368
▁mark	-9.64398
slag	-9.64419
ba	-9.64476
▁Stockholm	-9.64509
▁ständigt	-9.6454
▁känt	-9.6454
▁kaffe	-9.64571
8	-9.64593
▁träffa	-9.64675
▁öppen	-9.64787
▁våld	-9.64825
erar	-9.64901
▁>	-9.64972
▁världs	-9.65025
tiska	-9.65056
▁möjliga	-9.65057
▁kallar	-9.65151
ret	-9.65158
▁hände	-9.65475
att	-9.65516
▁hört	-9.65597
▁betydelse	-9.65649
▁dit	-9.65659
tjänster	-9.65665
▁april	-9.65796
▁november	-9.65796
▁nummer	-9.65876
▁idéer	-9.65907
▁satt	-9.65966
▁utmärkt	-9.66127
▁fallet	-9.66174
▁befinn	-9.6622
lä	-9.66277
je	-9.663
▁2014	-9.66339
▁inne	-9.66344
par	-9.66355
▁resten	-9.66364
▁uppgift	-9.66382
▁starkt	-9.66563
▁utrustning	-9.66647
▁produktion	-9.66757
▁myndigheter	-9.66778
▁barnet	-9.66822
▁juli	-9.66823
▁tänkte	-9.66832
kan	-9.66934
det	-9.67007
▁resurser	-9.6705
▁medier	-9.67146
▁intressant	-9.67299
▁Sam	-9.67432
▁mo	-9.6747
▁populära	-9.67526
▁gett	-9.67532
▁företags	-9.6756
▁träning	-9.67611
nas	-9.67639
▁fördel	-9.67687
▁lokal	-9.6771
▁semester	-9.67752
▁främja	-9.67833
▁guld	-9.67844
ill	-9.67868
▁dröm	-9.67918
▁Först	-9.67918
50	-9.67969
▁litet	-9.67997
▁försäljning	-9.68013
▁förståelse	-9.68072
▁dagens	-9.68105
▁team	-9.68214
▁leverans	-9.6824
▁tv	-9.68249
▁kapital	-9.68271
ard	-9.68278
▁centrum	-9.68287
▁Första	-9.68315
väg	-9.6833
▁rekommenderar	-9.68356
▁omfattar	-9.6838
ats	-9.68459
lan	-9.68483
nar	-9.68561
ler	-9.6857
▁lättare	-9.68575
mål	-9.68621
▁uppleva	-9.68673
▁sidor	-9.6869
ip	-9.68818
▁Fa	-9.68848
▁frågade	-9.69021
▁Pa	-9.69042
▁förlora	-9.69044
▁massa	-9.69083
▁börjat	-9.69108
▁mor	-9.69113
▁Herren	-9.69207
▁ges	-9.6928
▁hända	-9.69448
▁part	-9.69457
▁passar	-9.69724
▁historien	-9.69747
▁test	-9.69807
▁my	-9.6982
▁risken	-9.69853
▁Trump	-9.69886
▁tydligt	-9.69911
▁lån	-9.70053
▁Samtidigt	-9.70102
▁super	-9.70116
▁naturliga	-9.70155
▁bar	-9.70206
▁Bu	-9.70316
▁specifika	-9.70317
drag	-9.70319
ven	-9.70372
mon	-9.70382
▁frihet	-9.70457
▁betydande	-9.70553
▁storlek	-9.70613
▁grupper	-9.70639
▁bank	-9.70695
▁Microsoft	-9.70764
lin	-9.70781
▁stod	-9.70806
▁projektet	-9.70806
▁gräns	-9.70814
▁2019	-9.70854
▁Nej	-9.70874
▁läser	-9.70885
▁kallade	-9.71011
30	-9.71011
▁kompetens	-9.71053
behandling	-9.71228
▁framåt	-9.71238
▁on	-9.71273
▁närmare	-9.71304
▁fort	-9.71319
ers	-9.71366
▁mannen	-9.71376
▁utföra	-9.71396
▁oftast	-9.71404
▁klara	-9.71421
▁glas	-9.71538
▁Di	-9.71553
▁problemet	-9.7157
lu	-9.7158
▁stoppa	-9.71583
eri	-9.71589
gi	-9.71608
ernas	-9.71686
▁hud	-9.71804
produkter	-9.71841
▁pa	-9.71913
▁Välj	-9.71926
▁fru	-9.71989
▁sanningen	-9.72009
▁äger	-9.72104
▁samla	-9.72155
ep	-9.72188
▁ovan	-9.72224
▁23	-9.72226
▁beteende	-9.72275
▁priset	-9.72284
▁kredit	-9.72337
▁He	-9.72344
▁timme	-9.72356
ong	-9.72417
▁ton	-9.72446
lös	-9.72466
▁Y	-9.72546
▁unika	-9.72618
▁200	-9.727
▁chans	-9.72713
▁handels	-9.7274
▁tillägg	-9.72773
▁möta	-9.72778
van	-9.72816
För	-9.72847
▁egenskaper	-9.72927
▁Skull	-9.73019
▁sömn	-9.73023
ting	-9.7307
▁vapen	-9.73078
▁bio	-9.73084
▁korrekt	-9.73106
▁nedan	-9.73169
▁Su	-9.73229
▁hindra	-9.73232
▁aktivitet	-9.73314
▁upptäcka	-9.73364
▁avgörande	-9.73388
11	-9.73401
ismen	-9.73403
▁ökad	-9.73403
▁smärta	-9.7347
▁exempelvis	-9.73554
▁500	-9.73558
▁städer	-9.73561
▁2008	-9.73579
▁2013	-9.73597
ang	-9.73647
▁väntar	-9.7366
▁lagar	-9.73664
▁styr	-9.7371
▁tryck	-9.73807
▁Japan	-9.73931
▁vänster	-9.73943
▁kon	-9.73946
▁identifiera	-9.73969
▁Mitt	-9.7397
fri	-9.73998
▁samhälle	-9.74112
ies	-9.74181
▁Paris	-9.74186
bild	-9.74234
▁Håll	-9.74239
▁bidrar	-9.74316
▁brist	-9.74335
▁ställe	-9.74588
▁resultatet	-9.74597
▁genomföra	-9.74644
▁dåligt	-9.74785
ab	-9.74794
▁vinst	-9.74851
▁uppmärksamhet	-9.74862
▁klicka	-9.7487
▁ordet	-9.74909
fin	-9.74927
yn	-9.74933
▁nytta	-9.7494
▁kombination	-9.74994
▁fordon	-9.75004
▁bilar	-9.7506
▁kristna	-9.75065
▁chef	-9.75068
▁jobba	-9.75126
▁fantastisk	-9.75181
▁privata	-9.75193
▁dog	-9.752
▁Ne	-9.7526
▁trä	-9.75298
▁politik	-9.75367
▁eventuella	-9.75439
▁prov	-9.755
▁alkohol	-9.75572
ff	-9.7571
▁af	-9.75749
De	-9.75765
▁naturligtvis	-9.75769
▁Ba	-9.75818
▁sommar	-9.75858
ker	-9.75905
▁kalla	-9.75926
sätt	-9.76025
ber	-9.76091
▁saknar	-9.76141
▁naturen	-9.76218
ett	-9.76231
▁digitala	-9.7625
▁pro	-9.76309
▁svarade	-9.76314
▁såväl	-9.76351
▁Hotell	-9.76449
▁Ju	-9.76488
▁27	-9.76493
▁acceptera	-9.7652
▁pratar	-9.76553
ak	-9.76758
▁svara	-9.76851
▁slag	-9.76869
iskt	-9.7689
▁faktum	-9.76931
▁uppfylla	-9.76932
på	-9.76999
▁personlig	-9.77051
▁gen	-9.77066
▁innovation	-9.77088
▁sätter	-9.77098
▁behövde	-9.77166
▁förmodligen	-9.77166
▁utsikt	-9.77242
sch	-9.77346
▁medborgare	-9.77418
kel	-9.77444
▁Dom	-9.77519
utveckling	-9.77532
▁rätta	-9.77558
▁tittar	-9.77584
▁dricka	-9.77596
▁?	-9.7761
▁topp	-9.77689
▁sjukdomar	-9.77713
▁nöjd	-9.77718
net	-9.77729
▁Z	-9.77859
▁Wi	-9.77921
ow	-9.77962
▁stund	-9.78115
▁start	-9.78124
baserade	-9.78149
▁sam	-9.78149
▁28	-9.78251
The	-9.78287
bil	-9.78296
▁drift	-9.78297
▁processen	-9.78299
▁tillåter	-9.78336
▁prova	-9.78357
▁serie	-9.78357
▁AB	-9.78494
▁ty	-9.78641
▁vattnet	-9.78655
▁idé	-9.78672
▁nödvändiga	-9.78779
▁läst	-9.78793
▁relationer	-9.78818
säkerhet	-9.78864
▁fördelar	-9.78931
▁ben	-9.79148
▁slå	-9.79175
▁samtliga	-9.79226
▁International	-9.79339
▁ursprungliga	-9.79345
▁varor	-9.79431
▁författare	-9.7946
▁historiska	-9.79464
▁Mat	-9.79484
▁situation	-9.79531
mm	-9.79549
we	-9.79625
▁Ma	-9.79646
▁solen	-9.79673
▁utrymme	-9.79734
▁ren	-9.79772
▁roligt	-9.7978
EU	-9.79866
▁gud	-9.79895
▁Or	-9.80101
sson	-9.80153
▁kunnat	-9.8017
▁valt	-9.80216
▁bolag	-9.80241
▁blå	-9.80264
▁Vilket	-9.80284
▁trafik	-9.80304
yl	-9.80317
▁modern	-9.80365
▁So	-9.80367
▁möte	-9.80406
En	-9.80509
lösa	-9.80604
▁förstås	-9.80605
▁besökare	-9.8063
ans	-9.80646
▁ordförande	-9.80652
▁strid	-9.80708
▁hänsyn	-9.80758
▁totala	-9.80818
plan	-9.80966
▁To	-9.80984
▁Ga	-9.81057
▁Fråga	-9.81104
▁misstag	-9.81124
▁investeringar	-9.8114
▁My	-9.81193
▁Ro	-9.81217
▁fysiska	-9.81244
▁2009	-9.81301
▁fett	-9.81315
▁pre	-9.81322
▁fisk	-9.81356
▁casino	-9.81409
▁instrument	-9.81456
▁orsaka	-9.81503
▁skapat	-9.81525
▁lyckas	-9.81542
▁allra	-9.81612
▁hållbar	-9.81705
▁handla	-9.81737
▁Mac	-9.81769
▁halv	-9.8179
▁dotter	-9.81816
▁amerikansk	-9.81881
▁automatiskt	-9.81887
▁(19	-9.81966
▁spår	-9.81981
▁Någon	-9.81989
▁frukt	-9.82012
▁baserat	-9.82014
!”	-9.82041
▁normalt	-9.82067
▁bygg	-9.82089
▁håll	-9.82105
▁dålig	-9.82239
▁jul	-9.82247
▁åtta	-9.82294
▁enskilda	-9.82323
▁behöriga	-9.82365
▁Te	-9.82371
▁gas	-9.82397
ack	-9.825
▁kolla	-9.82525
▁handlingar	-9.82555
Den	-9.82591
▁perspektiv	-9.82598
▁älskade	-9.82617
▁+	-9.82621
▁människan	-9.82709
▁Mycket	-9.82772
▁Ru	-9.82779
▁Po	-9.8299
▁februari	-9.83
▁hälften	-9.83001
▁hänt	-9.83031
15	-9.83208
▁starka	-9.83223
▁bas	-9.83251
▁version	-9.83301
istiska	-9.83358
▁Am	-9.83384
▁livsmedel	-9.83567
▁rörelse	-9.83605
▁Car	-9.83617
▁Bi	-9.83626
▁hårt	-9.83647
▁bak	-9.83723
▁möjligheten	-9.83753
▁ändamål	-9.83788
ades	-9.83898
▁Ser	-9.83962
▁metod	-9.83969
▁Vet	-9.8397
▁Oavsett	-9.84007
▁mening	-9.84027
▁förändra	-9.84035
!"	-9.84049
▁miljön	-9.84059
▁strategi	-9.84103
sion	-9.84124
▁bolaget	-9.84161
kor	-9.84362
▁Ny	-9.84378
▁faktorer	-9.84388
▁värt	-9.84401
▁hemsida	-9.84456
▁Barn	-9.84482
▁Vårt	-9.84486
▁Förutom	-9.84532
▁överallt	-9.84556
▁relation	-9.84605
tan	-9.84669
▁samtal	-9.84695
▁uttryck	-9.84796
▁World	-9.84798
▁bidrag	-9.84818
sh	-9.849
▁drog	-9.84954
▁bry	-9.85012
ron	-9.85019
▁nätet	-9.85292
rar	-9.85319
▁Con	-9.8539
▁leverera	-9.85614
▁sten	-9.85617
▁Medan	-9.8568
▁fokusera	-9.85768
▁sjuk	-9.85845
▁ekonomisk	-9.85912
▁regelbundet	-9.86051
vid	-9.86096
▁sant	-9.86128
▁jobbar	-9.86151
▁finansiering	-9.86177
▁Bar	-9.86205
aste	-9.86239
▁syfta	-9.86311
▁vita	-9.86352
▁målet	-9.86373
▁glädje	-9.86373
▁bära	-9.86514
▁lagstiftning	-9.86579
▁minskar	-9.86607
▁National	-9.86635
▁Gå	-9.86715
▁allmänhet	-9.86734
▁Italien	-9.86827
▁marknadsföring	-9.86855
kraft	-9.86877
led	-9.86887
▁förut	-9.86944
▁handel	-9.87231
▁kvällen	-9.87232
▁fil	-9.87301
över	-9.87384
▁kostnader	-9.87488
ah	-9.8763
▁reklam	-9.87649
▁by	-9.87653
dan	-9.87681
▁26	-9.87782
▁risker	-9.87841
stat	-9.88014
▁köpte	-9.88039
▁n	-9.88052
▁Följ	-9.8809
▁bestämma	-9.88133
▁staten	-9.8814
▁byta	-9.88211
▁vacker	-9.88294
uk	-9.88481
▁lägenhet	-9.88518
▁effektiva	-9.88609
all	-9.8862
▁Spanien	-9.88665
▁omständigheter	-9.88735
material	-9.88743
wa	-9.88776
ud	-9.88787
▁[...]	-9.8893
▁bl	-9.88957
▁Center	-9.88992
▁medicin	-9.89082
*	-9.89104
au	-9.89128
han	-9.89137
▁position	-9.89238
ings	-9.8928
▁grad	-9.89321
▁app	-9.89424
▁Bli	-9.89442
▁lycka	-9.89469
▁berörda	-9.89485
▁rapport	-9.89566
ull	-9.89577
hy	-9.89687
log	-9.89725
▁familje	-9.89739
▁snarare	-9.8974
▁ersättning	-9.89935
▁Gu	-9.89947
▁hundar	-9.90028
12	-9.90036
tiv	-9.90062
▁ägg	-9.90109
▁relevanta	-9.90168
▁unionen	-9.90234
▁effektiv	-9.903
▁franska	-9.90334
▁frågar	-9.90348
▁karaktär	-9.90513
nad	-9.90526
eras	-9.90605
tin	-9.90635
▁hit	-9.90642
▁tillämpas	-9.90659
port	-9.90682
ox	-9.90758
▁avsnitt	-9.90766
▁säsong	-9.90781
fe	-9.90952
▁görs	-9.91054
▁valuta	-9.91096
akt	-9.91106
▁skador	-9.9111
▁höll	-9.91159
▁igång	-9.91194
▁behålla	-9.91231
▁skatte	-9.91348
▁jätte	-9.9137
▁skor	-9.91376
▁2020	-9.91383
bok	-9.91409
▁fina	-9.91481
▁alltför	-9.91534
▁straff	-9.91552
▁Hotel	-9.91562
▁uppfyller	-9.91622
▁äntligen	-9.91622
san	-9.91698
delning	-9.91703
si	-9.91721
▁centrala	-9.91779
▁intressen	-9.91981
gu	-9.92048
▁sp	-9.92051
▁främsta	-9.92072
▁nivåer	-9.92091
brott	-9.92155
▁England	-9.92169
met	-9.92179
▁gällande	-9.92204
▁hittade	-9.92213
▁Människor	-9.92305
▁kost	-9.92387
▁förtroende	-9.92409
lor	-9.92413
▁Ri	-9.92517
ator	-9.92521
▁Er	-9.92537
▁medlemsstat	-9.92548
▁II	-9.92597
samma	-9.92616
▁slags	-9.92626
▁Få	-9.92629
▁co	-9.92682
[	-9.92687
▁datum	-9.92722
▁begäran	-9.92757
▁Rom	-9.92809
▁färdigheter	-9.92871
▁perfekta	-9.92947
nd	-9.92947
▁snö	-9.92964
▁kriget	-9.93014
▁sannolikt	-9.93052
▁led	-9.93104
▁utför	-9.93133
▁bit	-9.93155
▁spelade	-9.93171
▁priser	-9.93257
▁vore	-9.93278
▁l	-9.93306
▁31	-9.93403
vo	-9.93464
▁Just	-9.93501
▁effekter	-9.93511
bolag	-9.9358
▁medarbetare	-9.93606
▁modell	-9.93687
ät	-9.93736
▁totalt	-9.93796
▁IT	-9.938
▁ansökan	-9.93821
ub	-9.9389
▁prestanda	-9.93909
gör	-9.93925
▁testa	-9.9404
▁användningen	-9.94047
▁behandlas	-9.94059
®	-9.94108
▁emellertid	-9.94108
▁lämnade	-9.94189
äg	-9.94287
▁läge	-9.94362
ock	-9.94366
▁investera	-9.94375
▁Fast	-9.94378
▁alldeles	-9.94391
▁Kristus	-9.94396
▁situationer	-9.94432
▁WEB	-9.94433
▁respekt	-9.94449
▁rent	-9.94449
▁stat	-9.94467
Om	-9.94479
▁me	-9.94491
▁Pre	-9.94512
▁utom	-9.94613
▁händelser	-9.94624
▁‘	-9.94684
▁Q	-9.94691
▁sägs	-9.94714
klar	-9.94723
▁traditionella	-9.94731
Du	-9.94746
▁uppstår	-9.94883
▁offentlig	-9.949
▁rätten	-9.94932
▁promenad	-9.95004
▁höjd	-9.95085
äng	-9.95133
▁Lu	-9.95152
▁art	-9.95223
▁öppet	-9.95231
gå	-9.95264
▁föddes	-9.95267
fa	-9.95316
▁intresserad	-9.95352
▁di	-9.95354
▁platsen	-9.95384
▁Si	-9.95417
▁göras	-9.95423
ske	-9.95434
▁webb	-9.95438
eg	-9.95448
▁augusti	-9.95517
marknaden	-9.95526
▁förrän	-9.95614
▁officiella	-9.95638
▁visst	-9.95655
▁upplevelse	-9.95671
gående	-9.95688
▁omfattas	-9.95722
▁ön	-9.95745
▁individer	-9.95788
ay	-9.9585
▁City	-9.95867
cu	-9.95987
▁trött	-9.96019
vård	-9.96046
▁Australien	-9.96086
▁fjärde	-9.96119
nivå	-9.96164
▁Lär	-9.9626
▁rådets	-9.96328
▁Ö	-9.96329
▁sommaren	-9.96361
nes	-9.96363
▁samhälls	-9.96373
EN	-9.96466
▁militär	-9.965
ight	-9.96527
▁ryska	-9.9653
▁lärt	-9.96543
▁unik	-9.96545
vet	-9.96551
25	-9.96558
▁drar	-9.96578
▁synd	-9.96593
▁global	-9.96645
▁artikeln	-9.9667
▁skrivit	-9.96692
▁överens	-9.9671
▁Ho	-9.96743
ära	-9.96757
▁finna	-9.96933
▁nej	-9.9697
▁skönhet	-9.97003
▁internationellt	-9.97011
▁meddelande	-9.97051
▁otroligt	-9.97061
▁finans	-9.97071
▁Hi	-9.9711
ppa	-9.97125
▁band	-9.97225
▁ras	-9.97249
▁Fi	-9.97276
ax	-9.97277
▁ursprung	-9.97278
▁döden	-9.97305
▁ändringar	-9.97407
▁kontor	-9.97469
▁tyska	-9.97477
▁respektive	-9.97527
▁definitivt	-9.97557
bor	-9.97563
▁informationen	-9.97631
ång	-9.97644
▁hjärnan	-9.97657
sättning	-9.97681
gan	-9.97823
▁familjer	-9.97832
lys	-9.97881
▁öppnar	-9.98027
▁Hem	-9.98072
▁kol	-9.98087
enta	-9.98124
▁Behöver	-9.98165
out	-9.98166
▁händelse	-9.98169
▁aktiv	-9.98175
▁Innan	-9.98195
▁Samma	-9.98214
▁ka	-9.98234
▁match	-9.98263
▁bestämmelser	-9.98318
ph	-9.98419
one	-9.98426
erande	-9.9854
plats	-9.98548
▁va	-9.9863
▁70	-9.98675
▁etc	-9.98694
▁Island	-9.98707
▁läs	-9.98713
▁handling	-9.98762
▁ordning	-9.98799
▁grunden	-9.98812
▁gruppen	-9.98918
▁skapade	-9.9896
▁människorna	-9.98993
data	-9.99033
and	-9.99144
▁marknad	-9.99159
▁vart	-9.99179
19	-9.99267
▁fot	-9.99268
▁ögonblick	-9.99368
▁former	-9.99372
▁Utan	-9.99384
▁situationen	-9.99396
▁allmänheten	-9.99415
&	-9.99415
▁regn	-9.99425
▁Hel	-9.99436
▁verkligheten	-9.99484
▁industri	-9.99536
▁Sol	-9.99605
▁själ	-9.99629
▁bi	-9.99666
▁skol	-9.99757
konto	-9.99789
området	-9.99802
▁brev	-9.99857
▁himlen	-9.99865
▁Indien	-9.99866
▁därefter	-9.99914
▁fria	-9.99942
▁2007	-9.99948
▁aktiva	-9.99951
▁utifrån	-9.99957
▁uppfattning	-9.99974
mor	-9.99989
▁cookies	-9.99994
▁tydlig	-10.0004
▁längs	-10.0009
▁myndigheterna	-10.0009
▁massor	-10.0016
▁objekt	-10.0029
▁äventyr	-10.0044
▁någonstans	-10.0046
ys	-10.005
rå	-10.0054
bu	-10.0056
▁producera	-10.0057
ön	-10.0057
▁utforska	-10.0061
▁slutar	-10.0061
ras	-10.0065
▁informera	-10.0066
▁varumärke	-10.0072
▁radio	-10.0073
▁valde	-10.0075
▁special	-10.0075
▁kött	-10.0087
teknik	-10.0089
▁fas	-10.0089
RA	-10.0092
▁undrar	-10.0092
ram	-10.0093
▁Ko	-10.0096
mma	-10.0098
▁förlorar	-10.0106
▁maskin	-10.0109
▁ökade	-10.0113
▁berättade	-10.0114
▁kapacitet	-10.0117
▁igår	-10.0119
▁ro	-10.0122
▁anslutning	-10.0122
håll	-10.0123
▁leverantörer	-10.0123
▁verksamheten	-10.0136
▁kung	-10.0139
grupper	-10.0141
▁må	-10.0143
▁filmer	-10.0149
ps	-10.0154
▁kön	-10.0165
▁ökat	-10.0168
tisk	-10.0171
▁tillämpa	-10.018
▁sinne	-10.0185
▁mil	-10.0186
▁or	-10.0187
▁fängelse	-10.0193
kontroll	-10.0199
gruppen	-10.0208
▁berg	-10.0211
information	-10.0213
▁utmaningar	-10.0214
▁ansikte	-10.0215
%	-10.0219
▁hämta	-10.0222
▁Del	-10.0227
▁framsteg	-10.0229
▁kommentarer	-10.0232
ru	-10.0234
▁utnyttja	-10.024
▁ansvarig	-10.0241
▁Ex	-10.025
▁adress	-10.0257
▁Båda	-10.0257
▁eld	-10.0273
▁miss	-10.0275
ika	-10.0282
▁sitta	-10.0284
tter	-10.0285
elsen	-10.0286
▁riktning	-10.0286
▁iPhone	-10.0287
▁Group	-10.0288
▁Tom	-10.0291
kr	-10.0291
▁tänkt	-10.0292
ug	-10.0292
▁sikt	-10.0292
▁Mina	-10.0295
▁90	-10.0301
▁naturligt	-10.0302
vatten	-10.0304
hem	-10.0306
▁kod	-10.0308
▁garantera	-10.0316
områden	-10.0319
▁Börja	-10.0321
så	-10.0325
po	-10.0336
he	-10.0343
▁skola	-10.0351
▁valet	-10.0352
▁identitet	-10.0353
slut	-10.0361
▁huvudet	-10.0362
▁media	-10.0363
▁tillfälle	-10.0364
▁avstånd	-10.0371
▁förhållanden	-10.0373
▁hittat	-10.0373
▁driva	-10.0382
hu	-10.0383
▁hörde	-10.0385
▁bonus	-10.0388
▁bakgrund	-10.0392
▁ses	-10.0394
▁Mor	-10.0396
handel	-10.0406
▁lön	-10.0407
▁utvecklar	-10.0414
kning	-10.0414
▁Inget	-10.0415
▁erfarenheter	-10.042
sin	-10.0423
▁säljer	-10.0429
▁försökte	-10.0431
▁uttalande	-10.0434
▁förlorade	-10.0444
▁styrka	-10.0447
▁hopp	-10.0448
▁ramen	-10.0462
visa	-10.0465
▁högst	-10.0469
▁bevara	-10.0477
▁fönster	-10.0481
▁ställer	-10.0486
ros	-10.0491
▁allvarliga	-10.0494
▁ämne	-10.0504
ance	-10.0507
og	-10.0515
▁80	-10.0515
▁behandlingen	-10.0521
▁betalar	-10.0526
ov	-10.0527
▁orsakar	-10.0528
▁tåg	-10.053
▁Något	-10.0535
far	-10.0538
▁bryta	-10.0538
▁riktiga	-10.0538
problem	-10.054
▁kvinnan	-10.0543
40	-10.0546
way	-10.0555
▁synnerhet	-10.0566
▁Ty	-10.0567
industrin	-10.0569
▁29	-10.0569
my	-10.0569
▁vanlig	-10.0572
tiden	-10.0572
▁undervisning	-10.0581
IS	-10.0583
▁lämplig	-10.0587
▁hundra	-10.059
fr	-10.0591
▁extremt	-10.0596
▁uppmuntra	-10.0596
låt	-10.0598
▁positiv	-10.06
▁Dock	-10.0605
▁rik	-10.0609
▁startade	-10.0611
▁ögonen	-10.0612
hantering	-10.0613
sprogram	-10.0617
▁Ad	-10.0618
▁befintliga	-10.0618
▁gemensamt	-10.062
▁stats	-10.0624
▁Endast	-10.0629
▁verket	-10.0631
▁polisen	-10.0639
▁datorn	-10.0651
▁Da	-10.0652
▁listan	-10.0654
▁nationell	-10.066
▁tusentals	-10.0661
▁Hade	-10.0661
syn	-10.0664
▁35	-10.0664
träd	-10.0665
Q	-10.0667
▁färger	-10.0667
▁Svar	-10.0679
▁livs	-10.068
▁relativt	-10.068
▁förvänta	-10.0682
▁räkna	-10.0686
lj	-10.0688
▁ledning	-10.0691
▁stärka	-10.0692
▁vetenskap	-10.0694
dia	-10.0697
▁skull	-10.0697
▁Paul	-10.0698
▁egendom	-10.07
▁student	-10.0702
▁boende	-10.0704
za	-10.0706
ap	-10.0713
▁brittiska	-10.0718
▁produktions	-10.0718
nu	-10.0719
▁2006	-10.0719
▁fånga	-10.0722
▁regering	-10.0724
▁engagemang	-10.0724
▁positiva	-10.0725
▁ledde	-10.0726
▁däremot	-10.0726
▁planet	-10.0729
▁foto	-10.0729
▁processer	-10.073
▁spendera	-10.0736
▁brand	-10.0737
▁omöjligt	-10.074
▁middag	-10.0744
▁huden	-10.0745
sel	-10.0745
▁aktuella	-10.0746
▁Per	-10.0747
▁växt	-10.0748
▁dåliga	-10.0749
▁Mark	-10.0759
▁sent	-10.076
▁beskriver	-10.0765
fil	-10.0768
▁använt	-10.0784
▁glada	-10.0788
▁fält	-10.0792
▁undersökning	-10.0794
▁tyckte	-10.0794
tik	-10.0796
äll	-10.0798
▁höger	-10.08
▁filer	-10.0806
åt	-10.0809
▁Ben	-10.0809
ey	-10.081
▁fan	-10.081
tru	-10.0811
▁struktur	-10.0811
▁drömmar	-10.0812
▁offer	-10.0819
▁närvaro	-10.0828
▁kurs	-10.0829
ern	-10.0832
▁född	-10.0833
▁kunskaper	-10.0837
▁nyckel	-10.0837
▁studera	-10.0839
rop	-10.0841
▁andel	-10.0842
▁Maria	-10.0843
▁befolkningen	-10.085
▁letar	-10.0852
▁Twitter	-10.0853
▁lunch	-10.0853
▁ru	-10.0855
▁lämpliga	-10.0865
▁använde	-10.0866
▁Saker	-10.0876
▁agera	-10.0884
▁hittills	-10.0885
▁annars	-10.0885
▁Peter	-10.0886
▁skiljer	-10.0888
▁säng	-10.089
▁aktivt	-10.0891
▁polis	-10.0894
▁taget	-10.0896
▁släppa	-10.0901
▁w	-10.0902
▁Företaget	-10.0906
pan	-10.0912
▁koppla	-10.0922
our	-10.0927
▁kunden	-10.0928
let	-10.0932
stöd	-10.0938
▁pe	-10.0942
▁sträck	-10.0946
▁2004	-10.0955
löst	-10.0956
▁rekommendera	-10.0962
lam	-10.0962
▁förbi	-10.0964
wi	-10.097
▁Precis	-10.0983
▁bekämpa	-10.0983
▁upplever	-10.0987
▁gränser	-10.0989
▁värdet	-10.0991
▁fortsatt	-10.0992
▁plötsligt	-10.0995
▁förändras	-10.0999
▁når	-10.1007
råd	-10.1012
ach	-10.1013
▁organisationen	-10.102
▁cykel	-10.1029
fo	-10.1032
▁300	-10.1032
▁kommentar	-10.1043
▁bränsle	-10.1045
bas	-10.1046
▁kallad	-10.1048
▁utöva	-10.1048
▁Business	-10.1048
▁frukost	-10.1048
▁svår	-10.1049
▁överföring	-10.1057
▁lugn	-10.1058
▁möter	-10.106
▁svarar	-10.106
▁befolkning	-10.1062
▁toppen	-10.1063
▁Qu	-10.1076
▁särskild	-10.1084
▁Dera	-10.1084
▁undan	-10.1084
▁fysisk	-10.1092
▁förlust	-10.1099
▁landets	-10.1104
▁linje	-10.1106
▁sova	-10.1116
▁bilaga	-10.1116
bygg	-10.1118
▁väder	-10.1121
▁oro	-10.1125
▁lagt	-10.113
▁trädgård	-10.1134
▁dör	-10.1134
ström	-10.1136
red	-10.1137
af	-10.1139
▁undersöka	-10.1141
▁kor	-10.1144
▁bestämmer	-10.1148
▁förutom	-10.1148
▁negativa	-10.1149
▁experter	-10.1157
▁senast	-10.1157
▁tider	-10.1159
▁modeller	-10.1162
▁parter	-10.1162
▁morgonen	-10.1162
programmet	-10.1165
▁dagliga	-10.1168
▁svåra	-10.1174
line	-10.1177
ins	-10.1177
▁Får	-10.1177
▁Rätt	-10.1181
ym	-10.1181
▁Sc	-10.1189
▁växande	-10.119
▁sjukhus	-10.1202
fråga	-10.1202
▁fira	-10.1202
▁professionella	-10.1203
▁tillgångar	-10.1206
▁gr	-10.1207
ku	-10.121
▁skillnaden	-10.121
▁vann	-10.1212
▁pengarna	-10.1214
▁upptäckt	-10.1216
▁rättvisa	-10.1218
▁innehålla	-10.1218
▁unionens	-10.1219
▁sång	-10.1219
▁speciell	-10.1221
▁köpt	-10.1222
▁planer	-10.1223
▁faller	-10.1225
sidan	-10.123
▁verklighet	-10.123
▁le	-10.1234
bra	-10.124
ari	-10.1241
▁parti	-10.1244
▁order	-10.1246
andet	-10.1249
▁lager	-10.125
▁katt	-10.1256
▁förlorat	-10.1259
AR	-10.1262
▁helhet	-10.1264
▁Visst	-10.1265
ick	-10.1268
gre	-10.1276
▁tjänar	-10.1281
▁tvungen	-10.1282
▁finner	-10.1284
Å	-10.1285
▁ökning	-10.1289
ris	-10.129
ct	-10.1295
▁Gi	-10.1298
ök	-10.1302
▁gröna	-10.1302
▁minns	-10.1304
▁grundades	-10.1305
▁fantastiskt	-10.1307
▁utvärdera	-10.1316
▁=	-10.1316
▁underhåll	-10.1316
▁tjej	-10.1318
▁total	-10.1319
▁’	-10.1322
▁plast	-10.1328
▁hållbarhet	-10.1328
▁Inga	-10.1332
▁diskutera	-10.1334
▁planerar	-10.1344
▁utvecklings	-10.1344
▁Tidigare	-10.1351
Måste	-10.1351
▁statistik	-10.1359
▁ungdomar	-10.1359
▁initiativ	-10.1359
▁äktenskap	-10.1361
stid	-10.1364
if	-10.1366
band	-10.1366
▁stranden	-10.1369
▁ont	-10.1369
medel	-10.137
▁teknologi	-10.1372
▁källor	-10.1374
▁stolt	-10.1375
▁allmänt	-10.1378
▁Super	-10.1385
▁oroa	-10.1385
▁tillhandahåller	-10.1387
18	-10.1387
▁2005	-10.1388
▁Val	-10.1389
ski	-10.1393
▁träna	-10.1393
▁häst	-10.1397
▁Bland	-10.1397
tri	-10.14
▁Bästa	-10.1406
ställning	-10.1406
▁betydligt	-10.1418
tes	-10.1419
▁mångfald	-10.1421
produktion	-10.1422
test	-10.1428
▁Hela	-10.1429
▁skaffa	-10.1432
mb	-10.1439
▁pass	-10.1442
ast	-10.1444
▁företagets	-10.1451
▁ändras	-10.1452
▁fakta	-10.1452
▁åker	-10.1453
roll	-10.1455
▁make	-10.1455
▁rekommendation	-10.1455
▁metall	-10.1456
namn	-10.1458
ologi	-10.1458
dar	-10.146
▁deltagare	-10.1462
▁dörren	-10.1464
▁aktier	-10.1467
▁betalning	-10.1472
stra	-10.1476
▁självklart	-10.1486
▁Robert	-10.1487
▁Fri	-10.1489
▁iväg	-10.1492
▁förväntas	-10.1493
▁potential	-10.1494
▁allmän	-10.1495
ham	-10.1501
iz	-10.1506
▁godkännande	-10.1507
▁Bank	-10.151
▁dagarna	-10.151
▁rummet	-10.1511
▁Inom	-10.1512
risk	-10.1514
▁olja	-10.1514
▁Tur	-10.152
film	-10.1536
▁detaljer	-10.1542
▁leta	-10.1546
▁tri	-10.1547
sprocessen	-10.1547
▁byggnader	-10.155
▁speciella	-10.1552
▁värre	-10.1555
▁socker	-10.1555
▁religion	-10.1563
tjänst	-10.1564
▁värsta	-10.1565
språk	-10.1566
▁mitten	-10.1569
▁potentiella	-10.1571
▁element	-10.1571
▁resultera	-10.1573
▁kinesiska	-10.1577
tag	-10.1579
▁hjärt	-10.1581
▁ert	-10.1587
▁besöker	-10.159
▁ägna	-10.1591
▁vanligaste	-10.1594
so	-10.1594
grupp	-10.1595
bart	-10.1597
▁föredrar	-10.1599
lik	-10.16
▁licens	-10.1603
▁bedömning	-10.1606
tim	-10.1606
▁svarta	-10.1609
▁innehållet	-10.1618
▁domstolen	-10.1621
▁Därefter	-10.1625
▁beaktande	-10.1627
▁Her	-10.1638
▁fiske	-10.1643
▁rådet	-10.1656
▁mänskligheten	-10.166
don	-10.1662
arbete	-10.1664
▁mjölk	-10.1666
▁ersätta	-10.1667
▁mg	-10.1675
▁Afrika	-10.1677
▁säsongen	-10.1682
▁Folk	-10.1683
▁Kon	-10.1691
▁kronor	-10.1695
▁Istället	-10.1695
▁James	-10.1696
▁Försök	-10.1703
▁ö	-10.1706
nor	-10.1708
ive	-10.1712
▁nät	-10.1714
▁förutsättningar	-10.1717
pen	-10.1718
Ã	-10.172
▁digital	-10.1726
▁Tyvärr	-10.173
▁södra	-10.173
▁ursäkt	-10.173
▁Norge	-10.1732
▁flickor	-10.1733
▁snabba	-10.1735
▁slog	-10.1736
▁guide	-10.1741
▁beskrivning	-10.1743
▁skickar	-10.1744
▁Hitta	-10.1746
▁drag	-10.1749
▁Mi	-10.1751
▁sekunder	-10.1751
▁li	-10.1755
iserade	-10.176
▁vidta	-10.1762
▁Ditt	-10.1769
rade	-10.1769
▁mode	-10.177
projekt	-10.1773
▁tusen	-10.178
of	-10.1785
▁minut	-10.1787
ina	-10.1796
▁röda	-10.1797
▁motsvarande	-10.1802
▁paket	-10.1806
▁kunderna	-10.1808
▁Th	-10.1809
▁registrering	-10.1811
▁vetenskapliga	-10.1814
typ	-10.182
▁Anna	-10.1821
▁samlar	-10.1823
▁fritt	-10.1827
▁Air	-10.1828
▁kräva	-10.1831
▁ting	-10.1836
▁Star	-10.1838
▁myndigheten	-10.184
▁laget	-10.1841
▁Restauranger	-10.1847
▁fl	-10.1859
▁bruk	-10.1862
▁bu	-10.187
▁behandlar	-10.1876
▁kamp	-10.188
▁övervaka	-10.1886
60	-10.1892
▁analysera	-10.1895
▁nyheter	-10.1897
▁begär	-10.1899
▁Köp	-10.1904
resa	-10.1906
▁tyvärr	-10.1908
öj	-10.191
▁kap	-10.1912
mark	-10.1915
▁reser	-10.1917
▁infrastruktur	-10.1919
con	-10.1922
▁närmaste	-10.1923
▁budskap	-10.1924
16	-10.1929
br	-10.1933
▁förbereda	-10.1937
▁plattform	-10.1939
värde	-10.194
▁låga	-10.1942
▁Obama	-10.1944
▁Kanada	-10.1944
vik	-10.1948
grad	-10.1948
▁Mot	-10.195
▁tjänste	-10.195
▁skuld	-10.1954
vit	-10.1954
▁svensk	-10.1956
varande	-10.1956
▁medveten	-10.196
▁skatt	-10.1961
▁utbyte	-10.1963
▁resan	-10.1964
▁stöder	-10.1965
▁princip	-10.1965
▁begränsad	-10.1968
har	-10.1968
lat	-10.1977
▁Red	-10.1978
▁Office	-10.1984
▁minne	-10.1993
▁allting	-10.1993
▁fylla	-10.1995
pass	-10.1999
▁förklarar	-10.2001
In	-10.2007
▁djup	-10.201
▁utsträckning	-10.2016
▁dating	-10.2017
▁användar	-10.2021
▁fotboll	-10.2022
istisk	-10.2031
▁studien	-10.2033
▁marken	-10.2033
vara	-10.2035
▁sanning	-10.2039
▁Ver	-10.204
▁tand	-10.2041
▁avser	-10.2045
▁ända	-10.2054
▁integritet	-10.2055
▁Amerika	-10.2056
▁gäster	-10.2056
▁Själv	-10.2064
▁Skapa	-10.2065
▁öl	-10.2067
▁fest	-10.2071
▁berör	-10.2073
▁2000	-10.208
▁definiera	-10.2083
ou	-10.2088
▁Klicka	-10.2089
▁Information	-10.2089
▁granska	-10.2093
▁mikro	-10.2094
ite	-10.2095
▁annonser	-10.2103
!!!	-10.2106
▁server	-10.2111
▁artiklar	-10.2112
enheter	-10.2117
▁Ch	-10.2119
▁vända	-10.212
▁mängder	-10.2122
enhet	-10.2122
▁placera	-10.2124
▁live	-10.2125
▁avlägsna	-10.2126
▁Välkommen	-10.2126
▁lämpligt	-10.2126
▁intervju	-10.2127
▁domstol	-10.2129
▁professor	-10.2132
▁ra	-10.2133
▁45	-10.2134
▁Ab	-10.2136
▁inkomst	-10.2138
▁sist	-10.2139
▁We	-10.2143
▁Post	-10.2143
▁evenemang	-10.2149
pro	-10.215
klass	-10.2157
analys	-10.2159
▁delvis	-10.216
▁anpassa	-10.2166
▁arv	-10.2167
▁Iran	-10.2176
▁Bre	-10.2179
▁förklaring	-10.218
▁styra	-10.2185
che	-10.2189
▁Wa	-10.219
▁sv	-10.2193
▁helg	-10.2195
▁svaret	-10.221
▁vision	-10.2214
▁original	-10.2236
▁upprätthålla	-10.2237
▁glömma	-10.2238
▁dis	-10.2242
▁lita	-10.2249
ult	-10.2252
▁uppmärksamma	-10.2256
▁ad	-10.2263
▁Ki	-10.2264
▁anta	-10.2265
▁varken	-10.2265
»	-10.2268
▁medicinska	-10.2269
▁belopp	-10.2269
▁hänvisa	-10.2274
▁sm	-10.2274
▁restauranger	-10.2294
▁mera	-10.2297
▁varmt	-10.2298
▁mesta	-10.2299
▁mun	-10.2302
▁talade	-10.2302
▁träffade	-10.2303
▁skriv	-10.2306
▁su	-10.2307
▁sällan	-10.2311
▁hål	-10.2312
▁Hög	-10.2315
▁Master	-10.2315
skt	-10.2317
▁utsläpp	-10.2317
▁kostar	-10.2319
▁central	-10.2322
▁gemensam	-10.2323
▁enklare	-10.2324
ater	-10.2332
▁öde	-10.2337
▁finansiera	-10.2346
ther	-10.2348
▁Syrien	-10.2348
▁ställning	-10.2349
▁Sch	-10.235
▁ägare	-10.2361
▁fly	-10.2362
tagande	-10.2374
les	-10.2376
ob	-10.2376
▁bror	-10.2376
▁aktivera	-10.2388
▁Visa	-10.2389
▁universum	-10.2392
rat	-10.2397
▁jämförelse	-10.24
▁urval	-10.24
▁driver	-10.2407
▁Sha	-10.2414
▁dubbel	-10.2417
▁insatser	-10.242
▁erbjuds	-10.2421
▁recept	-10.2424
▁Lägg	-10.2425
▁Syftet	-10.2428
▁underlätta	-10.2429
▁sjö	-10.2429
▁kasta	-10.2431
▁heliga	-10.2434
rad	-10.2435
▁kris	-10.2438
▁y	-10.2442
▁djupt	-10.2452
▁medlemsstater	-10.2453
▁Android	-10.2462
▁Danmark	-10.2462
lopp	-10.2467
▁efterfrågan	-10.2467
färg	-10.2468
▁2003	-10.2486
▁stan	-10.249
▁App	-10.2491
▁ekonomin	-10.2492
hand	-10.2496
▁Euro	-10.2496
▁Art	-10.2499
▁[+]	-10.25
▁huruvida	-10.2501
▁Hjälp	-10.2503
▁lek	-10.2506
Vad	-10.2513
ate	-10.2513
ix	-10.2515
vel	-10.2517
▁resultaten	-10.2524
▁Home	-10.2525
gas	-10.2534
▁tidiga	-10.2536
lade	-10.2537
▁Bitcoin	-10.2538
▁skickas	-10.2539
▁stads	-10.254
▁Casino	-10.2541
RI	-10.2554
▁regionen	-10.2556
▁ansluta	-10.2558
▁chansen	-10.256
▁dans	-10.256
▁vinner	-10.2561
▁Par	-10.2563
▁rena	-10.2564
▁professionell	-10.2567
▁fortsatte	-10.2569
▁konkurrens	-10.2571
app	-10.2571
▁Kar	-10.2571
▁politisk	-10.2575
▁brett	-10.2576
▁tids	-10.2582
▁Cor	-10.2583
▁installera	-10.2583
▁samling	-10.2588
▁ställen	-10.2593
▁nio	-10.2594
▁am	-10.2595
▁ekonomiskt	-10.2595
världen	-10.2596
dig	-10.2601
uc	-10.2601
▁Gra	-10.2612
▁riktig	-10.2612
▁utbud	-10.2612
▁Online	-10.2615
▁samtycke	-10.262
▁1.	-10.2625
▁poker	-10.2625
▁minsta	-10.2627
▁baserad	-10.2634
▁kraven	-10.2634
▁depression	-10.2635
▁Lite	-10.2638
ya	-10.2643
bin	-10.2643
Z	-10.2647
dra	-10.2652
▁yngre	-10.2653
▁räcker	-10.2653
▁föregående	-10.2656
▁affärer	-10.2657
▁motsvarar	-10.2658
24	-10.2669
▁van	-10.2674
▁moln	-10.2675
▁förvaltning	-10.2678
▁tillgängligt	-10.268
▁go	-10.2682
▁innovativa	-10.2685
▁fann	-10.2688
▁ansvarar	-10.269
▁dagligen	-10.269
▁Glöm	-10.2692
ms	-10.2692
ish	-10.2695
▁ringa	-10.2697
▁underbara	-10.2698
ino	-10.2705
▁relevant	-10.2706
nummer	-10.2708
▁fa	-10.2712
ral	-10.2712
▁mäta	-10.2713
▁versionen	-10.2717
▁kropps	-10.2718
▁länderna	-10.2721
press	-10.2723
▁överleva	-10.2725
▁följde	-10.2727
▁lämnat	-10.2729
▁Turkiet	-10.2731
kin	-10.2733
▁Black	-10.2734
▁format	-10.2734
läggning	-10.2735
▁rättsliga	-10.2739
q	-10.274
▁användaren	-10.2741
▁organisera	-10.2742
▁programvara	-10.2743
▁Hej	-10.2749
▁For	-10.275
▁ba	-10.2752
ägare	-10.2753
villkor	-10.2763
▁motstånd	-10.2764
▁Michael	-10.277
▁Skriv	-10.277
ius	-10.2771
▁Dess	-10.2772
oo	-10.2773
▁generation	-10.2778
▁2001	-10.2778
▁perioden	-10.2778
▁övrigt	-10.278
▁övervakning	-10.2783
▁restaurang	-10.2783
▁Sådan	-10.279
▁fint	-10.2791
▁Israels	-10.2794
▁motor	-10.2796
▁aspekter	-10.2796
årig	-10.28
eringen	-10.2802
▁politiker	-10.2808
▁förtjänar	-10.2809
▁diet	-10.2812
▁Cha	-10.2813
Ä	-10.2815
▁God	-10.2823
▁avancerade	-10.2827
▁tra	-10.2828
▁lansera	-10.283
▁status	-10.2835
▁framgångsrika	-10.2837
sätta	-10.284
▁🙂	-10.2849
tu	-10.2856
▁Martin	-10.2859
▁utmaning	-10.2863
▁utvecklats	-10.2871
int	-10.2872
▁röra	-10.2877
▁reaktion	-10.2883
anska	-10.2884
▁x	-10.2884
▁support	-10.2886
▁yttre	-10.2888
▁Global	-10.2891
ence	-10.2891
▁länk	-10.2893
▁rösta	-10.2894
▁investering	-10.2895
▁samarbeta	-10.2895
▁miljon	-10.2898
▁Va	-10.2903
bit	-10.2905
▁hotellet	-10.2905
alt	-10.2905
por	-10.2913
pris	-10.2916
▁beskriva	-10.2918
▁byggt	-10.2922
▁positivt	-10.2929
▁knappt	-10.2934
▁kommunicera	-10.2935
▁tekniker	-10.2935
ort	-10.2939
▁Tra	-10.2939
▁flygplats	-10.2941
▁Sveriges	-10.2945
sy	-10.2949
▁starkare	-10.2951
▁yrkes	-10.2952
▁Je	-10.2954
▁orsaken	-10.2957
▁elever	-10.2961
▁växter	-10.2964
▁IP	-10.2964
åriga	-10.2965
▁medicinsk	-10.2965
▁inkludera	-10.2965
▁Alltså	-10.297
▁rädsla	-10.2971
elser	-10.2971
▁Dan	-10.2971
djur	-10.2977
▁islam	-10.2983
▁balans	-10.2983
▁tidpunkt	-10.2985
▁grader	-10.2985
tel	-10.2989
-1	-10.299
▁Tid	-10.3
▁Före	-10.3003
under	-10.3007
▁Bibeln	-10.3008
▁utomhus	-10.3009
rör	-10.3009
▁företagen	-10.301
▁Herre	-10.3021
▁fokuserar	-10.3032
▁tyst	-10.3033
▁kontrakt	-10.3039
ligen	-10.3044
▁välkomna	-10.3045
▁syster	-10.3049
▁lider	-10.305
▁ljuset	-10.305
▁mån	-10.3051
ost	-10.3052
▁Åter	-10.3052
▁desto	-10.3053
▁Besök	-10.3053
▁tvinga	-10.3058
▁resor	-10.3061
▁passion	-10.3064
▁möten	-10.3068
▁berömda	-10.3069
bet	-10.3074
▁gift	-10.3075
▁fartyg	-10.3082
▁sprida	-10.3088
ledare	-10.309
▁Sp	-10.3095
▁åtkomst	-10.3096
▁spanska	-10.3104
▁varm	-10.3109
▁hantering	-10.3109
▁hyra	-10.311
▁berättelse	-10.3113
▁söndag	-10.3115
vå	-10.312
▁lösningen	-10.3123
▁inflytande	-10.3129
▁Både	-10.3129
▁Hennes	-10.3129
▁förväntningar	-10.3129
▁plocka	-10.3129
▁Design	-10.3133
▁lyckades	-10.3134
▁sk	-10.3134
▁Tu	-10.3136
sida	-10.3137
▁tillverkning	-10.3138
▁inköp	-10.3141
▁slår	-10.3144
▁Fo	-10.3144
▁stål	-10.3147
▁behovet	-10.3149
▁vägar	-10.315
▁utseende	-10.3152
▁juridiska	-10.3156
▁ch	-10.3156
spelare	-10.3161
▁källa	-10.3161
▁uppenbara	-10.3162
▁profil	-10.3164
▁eleverna	-10.3168
▁ledarskap	-10.3169
▁förekommer	-10.3171
branschen	-10.3171
▁avslöja	-10.3172
▁integrera	-10.3175
▁bestämt	-10.3176
▁norra	-10.3181
IT	-10.3183
▁grav	-10.3183
▁korta	-10.319
▁vinter	-10.3196
17	-10.3202
dagen	-10.3204
▁villkoren	-10.3206
▁aktie	-10.3207
▁livsstil	-10.321
▁gifta	-10.3212
▁installation	-10.3216
▁deltagande	-10.3217
unt	-10.322
▁nåt	-10.3221
▁West	-10.3223
lt	-10.3226
off	-10.3229
get	-10.3233
▁Chi	-10.3233
▁fullständig	-10.324
försäkring	-10.3243
▁bröd	-10.3246
>	-10.3246
▁utbildnings	-10.3247
▁Kommissionen	-10.325
▁Hu	-10.3251
▁olje	-10.3251
zon	-10.3254
▁avtalet	-10.3263
lek	-10.3264
▁äkta	-10.3264
▁gemenskapen	-10.3265
mmer	-10.3265
dik	-10.3272
▁regel	-10.3275
▁tillämpning	-10.3275
handling	-10.3282
iva	-10.3291
▁Huvud	-10.3292
▁Management	-10.3292
▁blommor	-10.3292
▁beskrivs	-10.3293
ingen	-10.3295
▁knä	-10.3301
rin	-10.3303
▁läste	-10.3304
ls	-10.3309
▁Kolla	-10.3311
sikt	-10.3315
▁fullständigt	-10.3315
▁cell	-10.332
part	-10.3321
▁rapporter	-10.3332
▁Tillsammans	-10.3333
▁gåva	-10.3334
nen	-10.3337
lit	-10.3337
▁låna	-10.334
▁lidande	-10.3342
▁lärande	-10.3343
ledning	-10.3348
▁Jack	-10.3348
▁illa	-10.3348
CA	-10.3349
▁Känner	-10.3351
▁mönster	-10.3354
▁föreslår	-10.3354
▁investerare	-10.3356
ningarna	-10.3357
rande	-10.3358
AN	-10.3365
tta	-10.3374
▁äldsta	-10.3375
▁stänga	-10.3375
▁tillåta	-10.3376
▁resolution	-10.3378
▁Kvinnor	-10.3381
▁utöka	-10.3381
▁globalt	-10.3384
cker	-10.3385
▁funnits	-10.3388
▁arter	-10.339
tryck	-10.3397
▁principer	-10.3399
bel	-10.34
▁lyssnar	-10.34
ita	-10.3401
▁ändring	-10.3408
▁mörka	-10.3413
▁fastställa	-10.3415
▁invånare	-10.3417
jor	-10.3418
▁export	-10.342
▁viktigare	-10.3421
▁George	-10.3421
▁!	-10.3422
▁ange	-10.3424
▁Bilder	-10.3425
▁presentera	-10.3425
▁Inter	-10.3426
▁personlighet	-10.3426
▁månaden	-10.3427
▁gjorts	-10.3427
▁Egypten	-10.3429
▁märke	-10.343
▁avgift	-10.3435
▁lo	-10.3447
SA	-10.3447
▁normala	-10.3454
▁förflutna	-10.3458
▁Asien	-10.3459
▁farliga	-10.346
▁utvärdering	-10.3462
ze	-10.3467
▁(1	-10.3469
lån	-10.3471
▁marknader	-10.3473
▁str	-10.3474
då	-10.3475
.[	-10.3476
fl	-10.3476
▁komponenter	-10.3477
▁reglerna	-10.3481
▁tom	-10.3484
nade	-10.3484
köp	-10.3485
▁lärde	-10.3485
▁Sök	-10.3495
▁dialog	-10.3501
▁hinder	-10.3501
▁rekommenderas	-10.3501
▁kämpa	-10.3504
▁båt	-10.3505
13	-10.3506
▁jämföra	-10.3506
▁fatta	-10.3513
22	-10.3513
aktiv	-10.3513
▁vila	-10.3515
▁begränsa	-10.3518
▁avgöra	-10.3526
▁mängden	-10.3528
▁fattiga	-10.3529
▁sand	-10.3529
.000	-10.353
▁tillfällen	-10.353
the	-10.3531
ationen	-10.3534
▁album	-10.3534
▁ligga	-10.3554
▁Tor	-10.3554
▁hästar	-10.3555
▁vitt	-10.3558
her	-10.3561
lösning	-10.3561
▁kvinnliga	-10.3568
vikt	-10.3571
▁tanken	-10.3573
▁avsikt	-10.3579
▁livsmedels	-10.3579
▁patienten	-10.3579
▁arbetat	-10.3584
▁Washington	-10.3585
▁basera	-10.3589
▁hemmet	-10.359
▁400	-10.3598
cha	-10.3599
▁händerna	-10.3602
baserad	-10.3603
▁fara	-10.3605
ef	-10.3611
▁Sal	-10.3617
bruk	-10.362
▁Sk	-10.3624
▁således	-10.3628
ges	-10.3629
▁Ofta	-10.3631
prov	-10.3631
▁teknisk	-10.3632
▁tron	-10.3634
▁utredning	-10.3635
▁räknas	-10.3636
▁kar	-10.364
ifrån	-10.3641
▁upprätta	-10.3642
▁växte	-10.365
▁sammanhang	-10.3653
▁Fe	-10.3654
▁födelsedag	-10.3661
celler	-10.3666
▁bekväm	-10.3667
▁vuxen	-10.367
▁myndighet	-10.3672
▁plus	-10.3674
▁fixa	-10.3674
▁sökande	-10.3678
eln	-10.3681
ror	-10.3685
▁klockan	-10.3685
lö	-10.3688
▁pågår	-10.3695
▁hastighet	-10.3695
▁erbjudanden	-10.37
isera	-10.3702
▁patient	-10.3704
▁arbetade	-10.3706
ET	-10.3706
▁produktionen	-10.3707
▁mobila	-10.3712
▁kapitel	-10.3713
▁intresserade	-10.3715
▁grön	-10.3715
tic	-10.3716
iter	-10.3719
▁allvarligt	-10.3723
▁inställning	-10.3724
hör	-10.3728
▁samlas	-10.3731
▁Mc	-10.3735
▁mänsklig	-10.3737
70	-10.3744
▁sjukdomen	-10.3746
▁Pri	-10.3748
▁gälla	-10.3751
kod	-10.3752
▁tjänsten	-10.3752
ney	-10.3756
▁tenderar	-10.3756
▁Port	-10.3757
▁nödvändig	-10.3762
relaterade	-10.3762
▁papper	-10.3763
ES	-10.3766
stol	-10.3768
▁missbruk	-10.3771
▁påverkas	-10.3782
▁takt	-10.3786
▁trans	-10.3788
▁kombinera	-10.379
▁kämpar	-10.3791
▁temperatur	-10.3795
▁noga	-10.3795
qui	-10.3804
▁symtom	-10.381
▁medvetna	-10.3813
▁Bet	-10.3819
dor	-10.382
▁separat	-10.3821
▁civil	-10.3824
▁po	-10.383
▁nåd	-10.3834
ica	-10.3836
▁hatar	-10.3836
▁skolor	-10.3836
läge	-10.384
▁denne	-10.3841
▁normal	-10.3842
▁verklig	-10.3847
nivåer	-10.385
▁katastrof	-10.3851
örer	-10.3851
▁virus	-10.3852
▁lämnas	-10.3853
PA	-10.3853
område	-10.3858
▁at	-10.3865
▁startar	-10.3866
stor	-10.3881
▁satte	-10.3882
sområden	-10.389
▁Älskar	-10.3895
▁diabetes	-10.39
▁bedöma	-10.3914
▁fäst	-10.3919
kurs	-10.3922
▁ko	-10.3926
▁ok	-10.3928
_	-10.3929
utrustning	-10.393
▁Amazon	-10.3931
▁utomlands	-10.3931
▁avsedda	-10.3932
▁söt	-10.3932
leverantörer	-10.3934
▁beslutet	-10.3936
▁kille	-10.3942
▁tak	-10.3945
▁Gar	-10.3946
▁spelaren	-10.3953
▁kommersiella	-10.396
▁kärn	-10.3961
▁omfatta	-10.3965
lon	-10.3965
▁försvara	-10.3966
vetenskap	-10.3968
▁komplett	-10.3972
trafik	-10.3974
▁Grekland	-10.3975
▁School	-10.3975
cc	-10.3976
▁övergripande	-10.3978
▁datorer	-10.3979
män	-10.398
▁back	-10.3981
▁roliga	-10.3985
▁institutioner	-10.3985
När	-10.3989
▁svårare	-10.3991
▁vinster	-10.3992
▁Ph	-10.3995
▁150	-10.3995
heter	-10.3996
▁serien	-10.3997
▁avfall	-10.4001
▁mass	-10.4009
Ja	-10.401
▁åsikter	-10.4012
▁praktiska	-10.4013
▁täcker	-10.4019
▁konkurrenskraft	-10.402
▁Europas	-10.4023
TM	-10.4026
▁hjärtan	-10.4027
funktion	-10.4029
ual	-10.4032
▁symptom	-10.4032
produkt	-10.4034
▁relaterade	-10.4035
▁konsument	-10.404
▁Lag	-10.404
▁förstöra	-10.4042
▁återställa	-10.4044
▁avgifter	-10.4044
▁Ag	-10.4047
ec	-10.4048
▁känslan	-10.4049
▁förväg	-10.4052
▁överväga	-10.4055
utbildning	-10.4059
ID	-10.406
▁rika	-10.406
ble	-10.4061
▁Can	-10.4062
▁flicka	-10.4063
▁förväntar	-10.4065
full	-10.4065
gra	-10.4069
▁drygt	-10.4071
▁Irak	-10.4071
▁lyckats	-10.4072
huset	-10.4073
▁ämnet	-10.4076
▁makten	-10.4076
▁Företag	-10.4076
▁pension	-10.4078
aga	-10.4079
isten	-10.4082
▁förfaranden	-10.4084
lista	-10.4088
back	-10.4092
▁möjliggör	-10.4097
▁rapportera	-10.41
Han	-10.4101
fria	-10.4102
▁roman	-10.4105
▁försvinner	-10.4108
▁okej	-10.4108
ford	-10.4109
▁inspiration	-10.411
▁världskriget	-10.4111
▁informations	-10.4113
▁flygplan	-10.4118
sök	-10.4119
▁bud	-10.4121
▁populär	-10.4124
▁erkänna	-10.4135
▁varierar	-10.4135
▁säkerheten	-10.4138
▁sköt	-10.4138
▁he	-10.414
▁beställning	-10.4147
▁enheten	-10.4148
▁mm	-10.415
▁→	-10.4154
▁årets	-10.4154
▁delas	-10.4155
▁odla	-10.4156
▁Adam	-10.4156
▁inverkan	-10.4159
gången	-10.4161
▁kurser	-10.4171
▁examen	-10.4173
pot	-10.4174
▁protein	-10.4178
▁begära	-10.4179
▁tillverkare	-10.4179
▁onda	-10.4184
komst	-10.4185
▁betraktas	-10.4192
▁sanna	-10.4194
▁frisk	-10.4199
▁tacksam	-10.4201
isterna	-10.4201
▁32	-10.4202
▁fr	-10.4207
▁port	-10.4207
▁Tour	-10.4209
▁låtar	-10.4212
▁hävdar	-10.4215
chi	-10.4219
res	-10.4219
▁bestämde	-10.4219
sport	-10.4221
▁länkar	-10.4221
▁effektivitet	-10.4223
▁försäkring	-10.4231
▁religiösa	-10.4234
hav	-10.4234
rika	-10.4236
▁saknas	-10.4237
▁slutade	-10.4238
vent	-10.4242
▁fundera	-10.4243
▁kilometer	-10.4243
▁Föregående	-10.4244
▁North	-10.4246
▁användes	-10.4251
▁stater	-10.4251
▁Data	-10.4254
▁spåra	-10.4255
fic	-10.4255
▁kust	-10.4257
▁femte	-10.4259
▁fördelarna	-10.4262
▁Åh	-10.4267
▁spelarna	-10.4268
▁no	-10.4271
▁demokrati	-10.4273
▁utländska	-10.4277
satt	-10.4281
▁diagnos	-10.4286
▁Artikel	-10.4289
▁Forskning	-10.4289
böcker	-10.4289
▁Bil	-10.429
▁aktörer	-10.4294
▁press	-10.43
▁hemlighet	-10.4302
▁införa	-10.4302
▁minskning	-10.4305
▁riktlinjer	-10.4306
su	-10.4313
avtalet	-10.4314
▁bransch	-10.4314
▁policy	-10.4319
▁gemenskap	-10.4321
▁boka	-10.4322
▁botten	-10.433
▁underbar	-10.4334
▁flyttade	-10.4334
tas	-10.4334
▁noggrant	-10.4334
▁100%	-10.4337
▁tvätta	-10.4338
▁vistelse	-10.4341
▁mår	-10.4342
▁uppmanar	-10.4344
▁mötet	-10.4345
▁militära	-10.4346
zi	-10.4351
▁representerar	-10.4355
▁Social	-10.4363
▁meddela	-10.4371
pre	-10.4376
▁sovrum	-10.438
▁ångest	-10.438
▁rök	-10.4384
▁PC	-10.4393
källa	-10.4394
ath	-10.4397
miljö	-10.4397
▁bokning	-10.44
▁faktor	-10.4401
▁Bro	-10.4403
▁Fram	-10.4407
▁you	-10.4409
▁rep	-10.4411
▁Dina	-10.4415
▁naturlig	-10.4415
▁lycklig	-10.4416
politik	-10.4417
▁skyddar	-10.4426
▁Självklart	-10.4428
▁maskiner	-10.4429
design	-10.4433
▁rymd	-10.4438
▁rese	-10.4438
▁tema	-10.444
▁Tri	-10.4443
▁celler	-10.4456
ics	-10.446
▁Kor	-10.4461
▁människans	-10.4463
▁luften	-10.4467
▁2.	-10.4468
▁smart	-10.4468
▁öppnade	-10.4469
myndighet	-10.447
▁Street	-10.4473
▁hustru	-10.4475
smedel	-10.4476
▁expert	-10.4477
adress	-10.4479
▁1:	-10.4481
▁Hos	-10.4485
▁symbol	-10.4488
▁Play	-10.4489
▁accepterar	-10.4491
▁Bas	-10.4492
▁butik	-10.4495
its	-10.4499
▁One	-10.45
▁fi	-10.4502
▁klarar	-10.4505
dda	-10.4506
▁socialt	-10.4511
ding	-10.4516
▁Pan	-10.4516
▁drivs	-10.4517
▁multi	-10.4519
studier	-10.4519
▁orsak	-10.4521
förändringar	-10.4525
▁hav	-10.4527
▁urin	-10.4528
▁batteri	-10.4529
▁Dig	-10.4529
▁röd	-10.4539
▁slutligen	-10.454
ssystemet	-10.4543
rådet	-10.4545
sak	-10.4553
▁årliga	-10.4553
80	-10.4554
▁Ly	-10.4555
▁salt	-10.456
▁döds	-10.4564
▁shopping	-10.4566
▁betalnings	-10.4567
▁tillfället	-10.4569
▁skyldig	-10.458
▁bön	-10.4582
din	-10.4582
▁hoppa	-10.4589
EC	-10.4594
▁klä	-10.4601
.»	-10.4605
tre	-10.4606
▁patent	-10.4613
▁House	-10.4613
▁typen	-10.4617
▁Fl	-10.4619
ordning	-10.4619
▁unikt	-10.4624
▁Ve	-10.4624
OR	-10.4628
▁Nord	-10.4629
▁deltar	-10.4631
▁tunga	-10.4632
ial	-10.4632
▁tacka	-10.4637
▁helgen	-10.4639
▁You	-10.464
14	-10.4643
▁Frågan	-10.4647
▁American	-10.4651
vä	-10.4653
▁anställning	-10.4653
▁ombord	-10.4653
sett	-10.4653
▁Barcelona	-10.466
▁täcka	-10.466
ib	-10.4661
▁bodde	-10.4661
rö	-10.4661
▁tolv	-10.4661
vers	-10.4663
skatt	-10.4665
skärm	-10.4667
▁grundval	-10.4668
punkt	-10.4671
lands	-10.4674
▁dr	-10.4677
▁inser	-10.468
▁Far	-10.4683
▁födelse	-10.469
▁människors	-10.4692
OS	-10.4699
▁förmågan	-10.4701
▁present	-10.4705
99	-10.4707
▁Faktum	-10.4707
▁springa	-10.4708
▁möbler	-10.4714
TA	-10.4715
▁national	-10.4717
▁ring	-10.4719
▁dvs	-10.4723
▁butiker	-10.4724
▁hamnar	-10.4727
ero	-10.4731
pol	-10.4731
▁rapporten	-10.4733
▁sängen	-10.4735
▁stannar	-10.4737
▁styrelse	-10.4741
samling	-10.4742
▁maten	-10.4742
▁Ur	-10.4747
station	-10.475
aktig	-10.475
▁Dia	-10.4752
åg	-10.4754
▁oerhört	-10.4755
▁vunnit	-10.4755
▁färre	-10.4755
kvalitet	-10.4757
que	-10.4758
▁producerar	-10.4759
▁36	-10.4763
▁tull	-10.4763
▁åtgärd	-10.4764
▁åkte	-10.4765
▁mus	-10.4766
▁Mu	-10.4767
▁begränsningar	-10.4767
▁referens	-10.4768
low	-10.4769
användning	-10.4771
▁Ke	-10.4786
nät	-10.4793
sektorn	-10.4795
▁fredag	-10.4798
▁fysiskt	-10.4799
▁Volvo	-10.4803
▁Däremot	-10.4803
▁Observera	-10.4805
▁påverkan	-10.481
▁bekräfta	-10.4813
▁konstruktion	-10.4818
▁kategori	-10.482
▁yta	-10.482
▁Bill	-10.4821
makt	-10.4822
▁individ	-10.4824
▁försökt	-10.4824
▁kulturella	-10.4825
gon	-10.4829
▁bröllop	-10.4831
▁förblir	-10.4832
▁gravid	-10.4835
St	-10.4836
▁Mon	-10.4845
jo	-10.4846
▁elektroniska	-10.4848
▁pol	-10.4849
tch	-10.485
▁kreativa	-10.4851
▁Musik	-10.4854
hjälp	-10.4854
▁lik	-10.4854
▁respektera	-10.4855
▁värden	-10.4856
▁VD	-10.4863
AT	-10.4864
▁kär	-10.4865
▁Väst	-10.4867
▁Col	-10.4869
frågor	-10.4872
▁industrin	-10.4875
▁effekterna	-10.4876
▁spelat	-10.4886
▁planera	-10.4887
▁leverantör	-10.4894
▁uppgifterna	-10.4895
▁do	-10.4896
▁obe	-10.4901
▁överenskommelse	-10.4906
▁Mil	-10.4909
.....	-10.4911
rig	-10.4913
▁klaga	-10.4917
▁bord	-10.4926
▁blandning	-10.4931
▁planering	-10.4934
az	-10.494
▁Mag	-10.4945
▁bestämmelserna	-10.4947
▁lösenord	-10.4948
▁fattigdom	-10.4948
▁smarta	-10.4948
▁avsluta	-10.4951
▁klassiska	-10.4951
start	-10.4954
▁argument	-10.496
▁existerar	-10.4966
▁utförs	-10.497
Och	-10.497
Fi	-10.4972
▁vintern	-10.4972
▁muslimer	-10.4974
▁Pet	-10.4974
iner	-10.4976
▁tekniken	-10.4976
▁lördag	-10.4979
rakt	-10.498
▁State	-10.4981
nom	-10.4986
zz	-10.4987
▁Programmet	-10.4997
▁Titta	-10.4997
▁Ti	-10.5
ket	-10.5005
▁bilderna	-10.5009
▁förmån	-10.501
▁samhällen	-10.5013
▁krafter	-10.5014
▁vackert	-10.5017
format	-10.5019
▁torr	-10.5021
▁värderingar	-10.5024
▁säkerställ	-10.5035
▁revolutionen	-10.5038
larna	-10.5039
▁ström	-10.504
▁intressanta	-10.5042
▁framgångsrik	-10.5046
▁fastställs	-10.5046
▁nöje	-10.5046
▁Daniel	-10.5051
▁|	-10.5051
▁ne	-10.5052
ogen	-10.5052
▁branschen	-10.5053
lösningar	-10.5053
▁gäst	-10.5053
▁äga	-10.5057
▁föll	-10.5057
oli	-10.5059
▁skadade	-10.5061
▁fans	-10.5062
5%	-10.5064
ction	-10.5064
▁Ol	-10.5073
stående	-10.5074
▁hjälpte	-10.5075
▁gränsen	-10.5078
▁politiskt	-10.5078
▁2002	-10.5078
▁nån	-10.5079
▁komplex	-10.508
▁ho	-10.509
▁mått	-10.509
givare	-10.5091
▁hy	-10.5092
▁Jerusalem	-10.5095
▁vänskap	-10.5099
▁Van	-10.5101
▁praxis	-10.5104
▁minuters	-10.5105
rik	-10.5109
▁2:	-10.511
las	-10.5114
Re	-10.5119
▁texten	-10.5119
byggnad	-10.5126
▁andas	-10.5127
▁hunden	-10.5128
▁pool	-10.5129
35	-10.5131
▁She	-10.5131
▁Spel	-10.5131
▁konferens	-10.5132
▁Kristi	-10.5133
▁ikväll	-10.5133
▁sorg	-10.5134
▁träffar	-10.5146
▁Plan	-10.5146
▁glömt	-10.5149
▁kreditkort	-10.5149
arnas	-10.515
▁exponering	-10.5152
grund	-10.5154
▁kärleken	-10.5156
▁skickade	-10.5157
▁språket	-10.5158
▁uppsättning	-10.516
syra	-10.5161
▁Pass	-10.5162
▁allvar	-10.5163
▁Day	-10.5166
▁utöver	-10.5169
▁tillräcklig	-10.517
▁Kr	-10.517
▁Uni	-10.517
stod	-10.5171
▁resurs	-10.5174
ink	-10.5175
▁återvända	-10.5177
resultat	-10.5178
▁lov	-10.518
▁handen	-10.5183
▁mod	-10.5188
▁använd	-10.5189
▁lätta	-10.519
▁Kalifornien	-10.5194
▁tålamod	-10.5194
▁kändes	-10.5198
▁genomsnitt	-10.52
regler	-10.5202
▁hjärna	-10.5206
▁flyga	-10.5209
▁hanterar	-10.5211
▁levererar	-10.5211
rus	-10.5212
▁skit	-10.5218
▁lagring	-10.5221
▁ga	-10.5222
▁kostnad	-10.5223
givna	-10.5226
pin	-10.523
▁norr	-10.523
▁Live	-10.5233
▁kraftigt	-10.5233
▁sl	-10.5234
▁begrepp	-10.5235
▁Dag	-10.5237
▁Grand	-10.5243
▁misslyckas	-10.5244
▁gruv	-10.5245
▁publik	-10.5248
▁flertal	-10.5248
▁jordbruks	-10.5249
▁byggnad	-10.525
▁Följande	-10.5253
▁kampen	-10.5259
▁tillbringa	-10.5261
▁lät	-10.5266
▁uppdatera	-10.5273
▁passa	-10.5273
▁genomsnittliga	-10.5275
▁lovar	-10.5276
serien	-10.5278
▁kameran	-10.5282
▁artiklarna	-10.5283
▁sönder	-10.5294
▁biverkningar	-10.5294
▁antar	-10.5296
▁kvalitets	-10.5296
▁meddelanden	-10.5306
▁Livet	-10.5307
▁Fin	-10.5309
▁King	-10.531
▁sub	-10.531
▁Institute	-10.5317
▁Bur	-10.5317
▁röka	-10.5326
▁slutföra	-10.5327
maskin	-10.5332
organisationer	-10.5333
▁innebära	-10.5336
▁stopp	-10.5338
ew	-10.5342
▁Kort	-10.5343
▁vind	-10.5344
▁Central	-10.5345
▁Sex	-10.5347
▁universitetet	-10.535
standard	-10.535
▁notera	-10.5354
▁(2	-10.5358
företaget	-10.5362
▁Polen	-10.5366
▁drabbas	-10.5369
lock	-10.537
”)	-10.5371
▁bakterier	-10.5372
▁siffror	-10.5374
▁uttrycka	-10.5376
▁produkterna	-10.5376
▁Bay	-10.5378
▁vikten	-10.5379
▁bloggen	-10.5379
▁kvaliteten	-10.5383
▁hård	-10.5388
avtal	-10.5389
läng	-10.5395
▁självmord	-10.5398
▁garanterar	-10.5399
▁Medlemsstaterna	-10.5402
▁versioner	-10.5412
▁satsa	-10.5418
▁hållbara	-10.5418
jag	-10.5421
▁turist	-10.5423
▁färdig	-10.5426
▁kemiska	-10.5427
▁Cla	-10.5428
verket	-10.5429
▁Los	-10.5437
uff	-10.5437
▁Son	-10.5446
▁Museum	-10.5447
uck	-10.5447
▁Total	-10.5455
förhållanden	-10.5455
▁Rock	-10.5456
▁noll	-10.5459
▁appar	-10.546
▁begränsade	-10.5463
▁däck	-10.5465
▁moder	-10.5467
rän	-10.5468
▁not	-10.547
▁Stat	-10.5473
SS	-10.5473
amp	-10.5474
▁Gre	-10.5475
▁förbättring	-10.5478
AS	-10.5479
▁ram	-10.5481
MA	-10.5485
center	-10.5489
▁konsekvenser	-10.5491
ons	-10.5493
▁permanent	-10.5494
▁imorgon	-10.5495
▁Science	-10.5498
▁sexuella	-10.5499
▁Service	-10.55
▁jävla	-10.5502
▁lagras	-10.5505
åk	-10.5507
forskning	-10.5507
reg	-10.5508
gift	-10.5516
▁Målet	-10.5516
marknad	-10.5516
▁sy	-10.5519
▁kvartalet	-10.5519
vad	-10.552
väl	-10.5525
▁skärmen	-10.5526
▁individuella	-10.5527
rikt	-10.5527
lev	-10.5527
▁Sin	-10.5528
▁italienska	-10.5529
▁friska	-10.5529
▁Ande	-10.5529
▁kvinnorna	-10.5535
▁kamera	-10.5537
▁råder	-10.5539
▁förvandla	-10.554
000	-10.5543
▁Ros	-10.5544
▁författaren	-10.5547
▁tycks	-10.555
kring	-10.5551
▁höja	-10.5551
over	-10.5559
▁komplexa	-10.5564
▁röster	-10.5567
▁stör	-10.5571
▁buss	-10.5572
▁System	-10.5574
▁Ku	-10.5577
▁fulla	-10.5581
▁eventuellt	-10.5582
▁bostads	-10.5582
▁skyldigheter	-10.5587
här	-10.5589
ux	-10.559
▁strand	-10.5593
lägg	-10.5594
länderna	-10.5596
skor	-10.5599
▁partnerskap	-10.56
▁orden	-10.5601
▁skilja	-10.5604
▁garanti	-10.5606
▁trygghet	-10.5612
▁detsamma	-10.5616
▁flygplatsen	-10.5621
▁tittade	-10.5622
EL	-10.5627
räkning	-10.563
▁uppskatta	-10.563
▁finansiell	-10.5642
▁Jorden	-10.5642
▁torka	-10.5644
▁fångar	-10.5645
▁Konst	-10.5649
▁nått	-10.5651
▁Ytterligare	-10.5653
▁kommissionens	-10.5654
▁ursprungligen	-10.5654
▁ma	-10.5656
▁bryter	-10.5657
▁75	-10.5659
▁Led	-10.5659
▁näst	-10.5663
bilder	-10.5663
jer	-10.5663
verksamhet	-10.5666
▁ordentligt	-10.567
▁specifik	-10.567
!)	-10.5675
▁Don	-10.5678
▁Ya	-10.5682
▁försiktig	-10.569
▁måndag	-10.5691
cell	-10.5693
▁statliga	-10.5697
á	-10.5706
▁intelligens	-10.5706
▁fantasi	-10.5706
▁torsdag	-10.5706
gräns	-10.5707
▁personligt	-10.5714
▁flyktingar	-10.5715
▁tillgänglighet	-10.5718
▁spänning	-10.5718
▁kok	-10.572
▁förändrats	-10.5721
▁ordna	-10.5722
▁svag	-10.5723
▁Antal	-10.5726
kväll	-10.5727
när	-10.5727
snivå	-10.5728
▁konstigt	-10.5729
▁frekvens	-10.5731
▁presentation	-10.5735
kla	-10.5736
▁traditionell	-10.5737
stånd	-10.5743
gångar	-10.5745
▁anledningen	-10.5746
▁tolkning	-10.5747
▁hållet	-10.575
frihet	-10.575
▁tum	-10.5752
side	-10.5756
▁Trans	-10.5757
▁akut	-10.5759
samhet	-10.5761
samt	-10.5763
steg	-10.5764
▁använts	-10.5766
▁Miss	-10.5768
▁upptäckte	-10.5769
▁offentligt	-10.5772
ioner	-10.5773
gal	-10.5774
▁uppstå	-10.5775
▁bearbeta	-10.5776
▁Arbets	-10.5778
▁locka	-10.5778
▁utbilda	-10.5782
▁arg	-10.5783
balans	-10.5783
barn	-10.5783
text	-10.5784
▁strävar	-10.5784
▁grekiska	-10.5785
▁Harry	-10.5786
▁hösten	-10.5789
hal	-10.579
▁strukturer	-10.5791
▁insats	-10.5791
▁partners	-10.5792
▁tillämpliga	-10.5793
▁bibliotek	-10.5804
▁maximal	-10.581
tog	-10.5811
▁nämna	-10.5812
▁bredvid	-10.5812
▁Irland	-10.5812
politiken	-10.5815
▁Mamma	-10.5819
▁havs	-10.5821
▁tradition	-10.5822
▁III	-10.5822
▁tillsyn	-10.5825
▁minnen	-10.5826
▁jakt	-10.5833
▁köket	-10.5834
bär	-10.5835
▁barns	-10.5836
▁Hy	-10.5841
US	-10.5845
▁fågel	-10.5846
▁skott	-10.5847
▁sjukvård	-10.5848
ben	-10.5854
sföretag	-10.5855
▁Bygg	-10.5864
▁Fem	-10.5864
▁inspirera	-10.5869
▁orolig	-10.5869
stjänster	-10.587
▁kritik	-10.5873
▁kronisk	-10.5875
innehåll	-10.5878
▁pågående	-10.588
▁nordisk	-10.5885
▁lagra	-10.5893
▁förklarade	-10.5894
nden	-10.5896
▁Hill	-10.5898
▁tänk	-10.5903
▁styrelsen	-10.5905
kol	-10.5909
▁berättelser	-10.5909
fel	-10.591
▁krigs	-10.591
eringar	-10.5911
▁upprepa	-10.5916
▁tillämpningen	-10.5916
▁Njut	-10.5918
til	-10.5921
▁kök	-10.5922
▁transaktioner	-10.5924
▁fenomen	-10.5924
▁integration	-10.5924
▁Sand	-10.5925
23	-10.5925
▁förbättrar	-10.5927
▁arkitektur	-10.5928
IN	-10.5928
▁överför	-10.5931
tala	-10.5931
hög	-10.5932
▁dricker	-10.5934
skapet	-10.5936
▁justera	-10.5936
▁kallt	-10.5936
vida	-10.5944
▁skapas	-10.5944
▁mät	-10.5947
datum	-10.5949
▁blodtryck	-10.5951
ssa	-10.5953
▁regionala	-10.5957
bli	-10.5961
iserad	-10.5969
zo	-10.5971
▁Allah	-10.5974
▁Auto	-10.5975
▁passagerare	-10.5976
▁as	-10.5978
postadress	-10.5979
hl	-10.598
▁följt	-10.5983
▁mag	-10.5984
fritt	-10.5989
former	-10.5993
▁pl	-10.5993
▁rock	-10.5995
▁judar	-10.5999
slagen	-10.6
▁aning	-10.6
▁graviditet	-10.6
vig	-10.6
▁stabil	-10.6001
visning	-10.6001
Men	-10.6003
▁nivån	-10.6003
▁baserade	-10.6003
▁1000	-10.6004
verktyg	-10.6006
▁hålls	-10.6008
▁läsare	-10.6011
▁dryck	-10.6013
▁förbli	-10.6014
▁allvarlig	-10.6019
▁Hall	-10.6019
▁bevilja	-10.6021
▁begå	-10.6022
cent	-10.6022
fer	-10.6025
▁Thomas	-10.6026
▁koncept	-10.6027
▁1999	-10.6028
▁klubb	-10.6033
dokument	-10.6035
▁längd	-10.6036
aktion	-10.6037
mannen	-10.6039
▁koncentration	-10.6039
▁Sv	-10.6044
▁konsumenter	-10.6049
▁hjul	-10.6049
▁sånt	-10.6049
Hur	-10.6051
▁orsaker	-10.6051
barhet	-10.6051
sarbete	-10.6051
▁betalas	-10.6052
▁stycken	-10.6053
ned	-10.6055
▁effekten	-10.6057
▁generera	-10.6062
mis	-10.6062
▁variera	-10.6064
▁Las	-10.6065
pel	-10.6067
▁enskild	-10.6069
LA	-10.6074
▁investerings	-10.6078
kal	-10.6079
▁reducera	-10.608
▁Richard	-10.608
▁givetvis	-10.6081
▁öron	-10.6081
▁Ber	-10.6081
▁transaktion	-10.6088
värdet	-10.6088
▁specifikt	-10.6092
▁uppenbart	-10.6094
▁utvalda	-10.6096
besök	-10.61
▁bomb	-10.6103
▁trevlig	-10.6104
▁blodet	-10.6104
▁förutsättning	-10.6107
▁kroppar	-10.611
▁långsiktiga	-10.6118
▁parterna	-10.612
▁presenterar	-10.6124
▁utvecklat	-10.6126
lle	-10.6126
▁samarbetet	-10.6126
stan	-10.6131
▁vädret	-10.6135
▁konsumenterna	-10.6135
gick	-10.6137
ban	-10.6137
▁frid	-10.6138
▁väst	-10.6144
kläder	-10.6145
▁Pris	-10.6146
▁lös	-10.6147
▁samlade	-10.6147
▁gillade	-10.6149
▁förse	-10.615
▁framgångsrikt	-10.6151
▁Svenska	-10.6154
▁signal	-10.6154
▁gjorda	-10.616
mö	-10.6162
▁On	-10.6165
):	-10.6167
▁biljett	-10.6167
partner	-10.617
▁partiet	-10.6173
▁Tar	-10.6175
▁general	-10.6175
▁uppe	-10.6181
21	-10.6183
mässiga	-10.6188
▁dött	-10.6189
▁territorium	-10.619
▁radikal	-10.619
överensstämmelse	-10.619
▁Bal	-10.619
▁rättigheterna	-10.6191
▁Royal	-10.6192
ali	-10.6193
lov	-10.6194
▁mask	-10.6195
▁inuti	-10.6196
▁brukade	-10.6198
▁försäkra	-10.6202
ient	-10.6202
▁regioner	-10.6206
▁mord	-10.6207
lapp	-10.6209
▁håret	-10.6209
▁verka	-10.6213
ev	-10.6213
rätten	-10.6214
org	-10.6217
dagar	-10.6218
▁begränsat	-10.6224
die	-10.6226
kur	-10.6227
bro	-10.6228
▁nöjda	-10.6234
▁interna	-10.6234
▁fötter	-10.6234
▁tjejer	-10.6235
ura	-10.6235
▁Utöv	-10.6237
▁möjlig	-10.6238
▁lett	-10.624
sky	-10.6241
▁detalj	-10.6241
▁Undvik	-10.6245
▁Inc	-10.6245
▁imponerande	-10.6247
▁jo	-10.6247
▁förälder	-10.6248
▁nödvändigtvis	-10.6249
▁skämt	-10.6251
▁åsikt	-10.6255
▁flyttar	-10.6255
▁radera	-10.6256
▁Wall	-10.6256
▁vardag	-10.6259
▁tydliga	-10.626
musik	-10.6262
▁undersökningar	-10.6264
mässigt	-10.6268
▁3:	-10.6268
▁användarna	-10.627
stil	-10.6271
▁filosofi	-10.6273
▁administrativa	-10.6273
▁evigt	-10.6273
▁Vidare	-10.6275
▁Stora	-10.6277
▁skyldighet	-10.6279
▁uppskattar	-10.628
▁steget	-10.6282
▁bekräftar	-10.6283
▁anställd	-10.6287
fält	-10.6288
svar	-10.6292
▁praktiskt	-10.6293
ress	-10.6293
▁låten	-10.6294
arm	-10.6295
▁medför	-10.6296
▁Året	-10.6296
▁förfarande	-10.6298
oss	-10.6299
▁US	-10.63
▁inrätta	-10.6302
Se	-10.6303
▁våren	-10.6305
▁event	-10.6305
▁skogen	-10.6306
▁vakna	-10.6307
▁rike	-10.6308
▁betona	-10.6309
▁koncentrera	-10.6316
▁matchen	-10.6318
▁600	-10.6321
burg	-10.6321
▁fasta	-10.6321
mus	-10.6324
▁pröva	-10.6325
▁Video	-10.6329
▁generationer	-10.6334
märke	-10.6334
▁varumärken	-10.6334
▁kostnaderna	-10.6335
nner	-10.634
▁anledningar	-10.6341
lic	-10.6344
▁region	-10.6346
jan	-10.6346
▁standarder	-10.6347
▁motivera	-10.6347
arbeta	-10.6353
ire	-10.6355
¤	-10.6356
▁Nederländerna	-10.6356
▁League	-10.6356
▁småningom	-10.6356
▁smartphone	-10.6356
illa	-10.636
▁mej	-10.6362
▁månaderna	-10.6371
göra	-10.6372
▁upptäcker	-10.6377
mont	-10.6378
ingar	-10.6378
tagen	-10.6386
▁säljs	-10.6387
▁strategier	-10.6395
▁skådespelare	-10.6396
▁Green	-10.6396
ekonomi	-10.6399
▁kontakter	-10.64
▁last	-10.6401
")	-10.6402
▁33	-10.6402
▁beräknas	-10.6403
200	-10.6404
▁Bild	-10.6405
▁Kal	-10.6406
▁Carl	-10.6414
▁infektion	-10.6414
▁foton	-10.6414
pri	-10.6415
▁erbjudande	-10.6415
▁beställa	-10.6416
iteten	-10.6417
▁seger	-10.6421
tiskt	-10.6422
▁släpper	-10.6424
behov	-10.6424
▁inse	-10.643
▁ly	-10.6431
▁försäljnings	-10.6432
städer	-10.6432
▁titeln	-10.6445
▁skönt	-10.6451
lid	-10.6454
▁kombinerar	-10.6455
▁ingredienser	-10.6457
▁medvetenhet	-10.6461
▁bordet	-10.6461
▁registrera	-10.6465
▁OS	-10.6465
▁Ac	-10.6468
▁lyfta	-10.6468
▁ändrar	-10.6468
▁volym	-10.6469
▁Också	-10.6469
▁tjugo	-10.6469
▁stämmer	-10.6469
▁;)	-10.6471
▁stödjer	-10.6472
▁alternativet	-10.6477
▁numera	-10.6481
▁funkar	-10.6482
▁kommunikations	-10.6482
én	-10.6482
▁verksamheter	-10.6483
▁löfte	-10.6483
▁Ord	-10.6483
▁)	-10.6485
▁kategorier	-10.6491
Mo	-10.6492
▁reaktioner	-10.6493
lly	-10.6493
▁out	-10.6494
▁so	-10.6495
▁besökte	-10.6504
▁bortom	-10.6509
kl	-10.6509
▁snälla	-10.651
▁stjärnor	-10.6512
▁sann	-10.6514
▁stolta	-10.6516
▁PS	-10.6517
▁genomförandet	-10.6518
▁telefonen	-10.652
90	-10.652
▁dörrar	-10.6525
▁Ed	-10.6526
▁yoga	-10.6526
▁arbetstagare	-10.6527
▁Annars	-10.6527
fu	-10.6532
sökning	-10.6534
old	-10.6534
▁ansiktet	-10.6534
funktioner	-10.6535
fulla	-10.654
▁Tycke	-10.6541
▁arbetsgivare	-10.6543
▁praktiken	-10.6544
▁tillhandahålls	-10.6546
ationer	-10.6548
▁kommun	-10.6551
row	-10.6554
▁pratade	-10.6554
▁Sky	-10.6555
▁långsamt	-10.6556
lim	-10.6556
07	-10.6557
▁vanligen	-10.6559
BS	-10.656
▁dos	-10.6561
▁tunn	-10.6562
▁lukt	-10.657
▁kampanj	-10.6571
▁kallat	-10.6574
skriv	-10.6574
▁släpptes	-10.6576
position	-10.6581
▁kliniska	-10.6583
▁tycka	-10.6584
dos	-10.6584
▁komfort	-10.6585
▁Ställ	-10.6586
motor	-10.6587
mä	-10.6588
▁Str	-10.6593
▁upplevelser	-10.6594
▁kyrka	-10.6594
▁översättning	-10.66
anter	-10.66
▁mörk	-10.6602
NA	-10.6603
sprojekt	-10.6603
▁ideal	-10.6604
▁katter	-10.6605
▁svårigheter	-10.6608
▁Filmen	-10.661
▁Matt	-10.6611
▁sök	-10.6613
▁vänder	-10.6615
▁droger	-10.6615
▁verkade	-10.6617
hot	-10.6619
▁intäkter	-10.6619
▁träffat	-10.6621
▁kraftfulla	-10.6622
▁uppdatering	-10.6622
▁externa	-10.6623
▁tillfälligt	-10.6624
▁kompis	-10.6625
▁bred	-10.6627
ologiska	-10.663
▁Flyg	-10.663
ure	-10.663
day	-10.6631
chef	-10.6632
ving	-10.6636
▁South	-10.664
▁humör	-10.664
tz	-10.6641
▁besvara	-10.6642
▁ankomst	-10.6643
▁Za	-10.6643
▁försvar	-10.6649
▁överlämna	-10.6649
instrument	-10.6653
▁släppt	-10.6654
DA	-10.6654
olog	-10.6655
▁byggdes	-10.6657
▁observera	-10.6659
graf	-10.666
▁Free	-10.6661
▁civila	-10.6666
▁applikationer	-10.6671
▁bröder	-10.6677
▁titel	-10.6681
▁släpps	-10.6681
▁delade	-10.6685
▁experiment	-10.6686
▁hårda	-10.6688
▁Real	-10.6689
▁enorm	-10.6689
▁spelas	-10.669
▁tänkande	-10.6694
▁mjuk	-10.6694
skolan	-10.6695
▁choklad	-10.6698
▁skillnader	-10.6698
▁hundratals	-10.6699
platser	-10.6702
▁enorma	-10.6705
▁stabilitet	-10.6707
tagning	-10.6712
spekt	-10.6712
▁angiv	-10.6713
skrav	-10.6716
▁titt	-10.6717
▁troende	-10.6719
▁varelser	-10.6719
01	-10.672
ves	-10.6721
tjänsten	-10.6724
▁Ali	-10.6726
▁pump	-10.6728
▁Pen	-10.6728
▁Ger	-10.6735
skola	-10.6735
▁Anti	-10.6739
▁frakt	-10.6743
▁sover	-10.6744
▁War	-10.6745
▁förebygga	-10.6746
32	-10.6747
inte	-10.6747
▁omfattning	-10.6749
▁beredd	-10.6751
sats	-10.6752
aw	-10.6753
lie	-10.6754
▁återigen	-10.6756
▁Power	-10.6757
▁baby	-10.6758
▁sparar	-10.6758
▁beräkna	-10.676
▁övning	-10.6761
▁huvudsakliga	-10.6762
leverantör	-10.6762
▁bilda	-10.6762
▁lögn	-10.6763
▁behandlingar	-10.6764
personal	-10.6767
▁onsdag	-10.6768
ola	-10.6769
AD	-10.6771
▁slutlig	-10.6773
▁tvekan	-10.6775
▁Natur	-10.6778
▁klubben	-10.6779
▁fotograf	-10.6784
kul	-10.6785
▁sänka	-10.6785
serv	-10.6787
Alla	-10.6792
▁medverka	-10.6794
▁skärm	-10.6797
▁Dagens	-10.6799
kall	-10.68
PS	-10.6801
▁disk	-10.6802
▁kyl	-10.6803
▁saken	-10.6804
gav	-10.6807
kedjan	-10.6807
▁Karl	-10.6807
▁kostnaden	-10.6808
▁huvudsak	-10.6811
▁klagomål	-10.6815
▁Next	-10.6815
▁Berg	-10.6815
▁Program	-10.6815
▁tillåtet	-10.6815
▁Grund	-10.6818
▁kollegor	-10.6818
▁sakerna	-10.6819
▁levde	-10.6823
▁utvecklade	-10.6825
alitet	-10.6827
▁konsumtion	-10.6827
ställda	-10.6832
IC	-10.6834
▁atmosfär	-10.6835
vor	-10.6835
▁Särskil	-10.6843
▁killar	-10.6845
gh	-10.6846
▁ansvariga	-10.6847
server	-10.6847
▁Mr	-10.6848
ografi	-10.685
▁soldater	-10.6857
▁underhållning	-10.6865
▁skadliga	-10.6866
ören	-10.687
▁träffas	-10.687
krav	-10.6871
▁Texas	-10.6874
olja	-10.6874
▁anläggningar	-10.6875
▁teater	-10.6875
▁DNA	-10.6876
▁Ren	-10.6876
▁registrerade	-10.6877
▁kandidat	-10.6879
AM	-10.6881
▁redovisning	-10.6886
▁faktiska	-10.6887
lus	-10.6888
▁behörighet	-10.6888
drift	-10.6888
jäl	-10.689
fång	-10.6892
följ	-10.6894
RO	-10.6894
▁bebis	-10.6897
▁staterna	-10.6897
▁Går	-10.6899
duk	-10.69
▁hälsosam	-10.6901
ez	-10.6905
lad	-10.6909
▁genomför	-10.691
▁Com	-10.6912
▁skala	-10.6919
▁farligt	-10.6926
▁Mose	-10.6926
går	-10.6927
27	-10.6929
▁Ännu	-10.6933
▁High	-10.6933
borg	-10.6934
▁hushåll	-10.6934
king	-10.6934
▁Land	-10.6935
▁redovisa	-10.6935
▁Beach	-10.6936
CC	-10.6936
▁tisdag	-10.6937
▁Berlin	-10.6938
ago	-10.6946
▁utarbeta	-10.6947
▁liknar	-10.6947
möte	-10.6951
automat	-10.6953
temot	-10.6954
gård	-10.6954
▁Mål	-10.6954
▁majoritet	-10.6961
▁förvånad	-10.6962
▁föräldrarna	-10.6962
anda	-10.6963
▁blick	-10.6966
▁As	-10.6966
sko	-10.6968
▁Em	-10.697
▁månen	-10.6971
▁minnas	-10.6976
▁Stor	-10.6979
▁kriterier	-10.6984
▁gjordes	-10.6986
sol	-10.6987
▁48	-10.6989
SE	-10.6991
▁Sätt	-10.6993
▁Speciell	-10.6993
▁muskel	-10.6993
Be	-10.6995
▁forum	-10.6995
nivån	-10.6996
▁Digital	-10.6997
▁bevisa	-10.6998
▁§	-10.6998
▁lågt	-10.6999
▁andliga	-10.7001
▁sysselsättning	-10.7008
▁förebyggande	-10.7011
▁kors	-10.7017
▁CO	-10.7018
▁kontrollerar	-10.7019
▁rykte	-10.702
gren	-10.702
▁levereras	-10.702
▁rå	-10.7021
kapital	-10.7023
▁undra	-10.7025
lla	-10.7025
▁Nä	-10.7025
▁skepp	-10.7026
▁Död	-10.7027
▁svär	-10.7032
ula	-10.7037
delar	-10.7038
▁avsnittet	-10.7039
användare	-10.704
▁positioner	-10.7043
▁materialet	-10.7045
▁följ	-10.7049
▁främmande	-10.7052
▁sämre	-10.7052
▁existens	-10.7052
▁genast	-10.7054
▁tvingas	-10.7055
▁gräs	-10.7058
▁skett	-10.7058
▁järn	-10.7059
▁Start	-10.7059
▁återförsäljare	-10.7061
▁Redan	-10.7066
▁nätter	-10.7066
▁schema	-10.7066
▁Big	-10.7069
▁park	-10.7075
▁markera	-10.7078
▁avkastning	-10.708
▁kemikalier	-10.7081
▁ansöka	-10.7082
TC	-10.7083
▁rygg	-10.7085
gn	-10.7086
▁försäkrings	-10.7089
qu	-10.7091
scen	-10.7093
▁lura	-10.7098
Ö	-10.7107
brist	-10.7111
▁ar	-10.7112
▁konsekvent	-10.7112
▁optimera	-10.7112
▁uppvärmning	-10.7113
▁penis	-10.7113
▁Smart	-10.7113
▁slump	-10.7113
▁framförallt	-10.7113
▁Berätta	-10.7115
värd	-10.7117
ice	-10.7117
▁inställningar	-10.7118
▁tjänare	-10.7122
bereder	-10.7122
▁Problemet	-10.7123
▁arm	-10.7125
satser	-10.7126
▁Max	-10.7127
▁Göteborg	-10.7127
▁cool	-10.7131
▁parlamentet	-10.7132
▁återbetalning	-10.7135
▁formen	-10.7137
6)	-10.7137
▁sakna	-10.7138
▁Blue	-10.7142
▁bekvämt	-10.7142
▁huvudstad	-10.7143
▁byn	-10.7147
▁spa	-10.7153
▁tidig	-10.7153
länder	-10.7154
▁May	-10.7154
▁punkter	-10.7163
▁nätverket	-10.7165
upplevelse	-10.7168
▁·	-10.7174
▁strax	-10.7174
▁glömmer	-10.7174
▁up	-10.7176
▁Award	-10.7177
givning	-10.7179
▁idealisk	-10.7179
TI	-10.7183
▁överföra	-10.7186
▁Pat	-10.719
livet	-10.719
▁nere	-10.7198
▁Personlig	-10.72
äv	-10.7201
eb	-10.7205
handla	-10.7208
▁japanska	-10.721
bolaget	-10.7211
▁skratta	-10.7212
tum	-10.7212
spelet	-10.7212
▁fiender	-10.7213
dal	-10.7224
▁oför	-10.7226
▁lugnt	-10.723
▁negativ	-10.7233
ü	-10.7234
▁hellre	-10.7234
▁United	-10.7234
▁reflektera	-10.7234
▁rikedom	-10.7235
▁tänder	-10.7236
▁musiken	-10.7236
bus	-10.7237
▁vice	-10.7238
▁angående	-10.7238
kade	-10.7241
04	-10.7241
▁tystnad	-10.7242
▁förstod	-10.7243
▁rött	-10.7244
▁Kontrollera	-10.7247
▁turister	-10.7247
landet	-10.7249
▁trygg	-10.7251
▁inträffar	-10.7251
cin	-10.7252
▁(1)	-10.7256
▁bränn	-10.7256
▁motståndare	-10.7262
▁funktionen	-10.7265
▁frys	-10.7265
▁undervisa	-10.7269
▁bröst	-10.7272
▁meddelade	-10.7279
ini	-10.7286
▁biljetter	-10.7292
ji	-10.7292
▁anger	-10.7295
▁eliminera	-10.7295
▁Afghanistan	-10.7295
▁kortare	-10.7296
▁vinnare	-10.7296
vision	-10.7296
▁CD	-10.7299
▁syftet	-10.7299
▁attacker	-10.7299
▁Paulus	-10.73
▁spridning	-10.7308
▁mynt	-10.7309
▁utforma	-10.731
kta	-10.7311
▁sända	-10.7315
26	-10.7317
▁dörr	-10.7323
star	-10.7323
▁simma	-10.7323
▁ISO	-10.7325
▁personligen	-10.7326
▁höst	-10.7328
▁utsatt	-10.7336
▁genomförande	-10.7336
▁Cap	-10.7336
emi	-10.7337
▁Fortsätt	-10.7339
mes	-10.734
mod	-10.734
▁genomförs	-10.7346
sättningen	-10.7347
for	-10.735
▁Fu	-10.735
OL	-10.7352
▁lade	-10.7353
▁Un	-10.7354
▁avsedd	-10.7355
▁jordens	-10.7356
▁expandera	-10.7357
▁Johan	-10.7358
▁negativt	-10.736
▁billigare	-10.7365
▁förnya	-10.7366
▁omsorg	-10.7369
▁betyg	-10.737
ljus	-10.7374
▁Tim	-10.7376
▁Jesu	-10.738
Co	-10.7381
▁stam	-10.7382
▁da	-10.7385
sätter	-10.7389
▁osäker	-10.739
▁Sim	-10.739
unk	-10.739
halt	-10.74
win	-10.7402
not	-10.7404
yrk	-10.7408
▁dusch	-10.7408
ST	-10.7413
ierna	-10.7414
▁etablerade	-10.7417
▁gjord	-10.7418
▁arrangera	-10.7419
▁[-]	-10.7419
ED	-10.7419
▁Ändå	-10.7419
▁uppgradera	-10.742
▁Möt	-10.7421
▁förpackning	-10.7421
sområdet	-10.7425
▁sällskap	-10.7426
▁härlig	-10.7427
ställd	-10.7431
▁uttala	-10.7433
cho	-10.7435
kän	-10.7443
oc	-10.7443
▁rörlighet	-10.7444
▁bedöm	-10.7445
▁Fall	-10.745
▁import	-10.745
▁hållas	-10.7454
▁hjälpt	-10.7455
▁praktik	-10.7462
▁försvars	-10.7463
▁res	-10.7465
▁hänga	-10.7466
▁AI	-10.7467
▁rollen	-10.7469
version	-10.7469
▁falla	-10.7471
▁engagera	-10.7475
fattning	-10.7476
▁Undra	-10.7477
▁hi	-10.7477
ary	-10.7478
▁pojkar	-10.7482
▁Slutligen	-10.7482
▁grönsaker	-10.7482
▁si	-10.7486
dags	-10.7486
▁länken	-10.7488
▁MS	-10.7492
▁Alex	-10.7494
varor	-10.7498
▁därifrån	-10.7499
▁rikta	-10.75
bud	-10.75
▁Cy	-10.7508
▁operativsystem	-10.7519
▁Lin	-10.7529
▁räknar	-10.7529
▁planen	-10.753
▁tränings	-10.7533
▁By	-10.7538
▁advokat	-10.7538
Min	-10.7538
organisation	-10.754
▁citat	-10.754
▁Schweiz	-10.7545
▁Ukraina	-10.7545
▁däribland	-10.7545
▁Smith	-10.7545
▁Lev	-10.7545
kommissionen	-10.7546
▁badrum	-10.7547
▁HD	-10.7551
▁litteratur	-10.7553
▁studenterna	-10.7554
▁34	-10.7554
▁anpassning	-10.7554
▁webbläsare	-10.7557
▁måltid	-10.7559
▁storm	-10.756
▁löp	-10.7563
=	-10.7563
▁Väl	-10.7564
▁42	-10.7566
▁sektorn	-10.7569
▁Bio	-10.757
arbetare	-10.7571
▁Författare	-10.7572
▁hörn	-10.7573
▁Sun	-10.7575
▁65	-10.7576
medlemmar	-10.7577
▁byggnaden	-10.7578
bord	-10.7582
▁kära	-10.7588
▁förvärv	-10.759
▁appen	-10.7593
RE	-10.7605
jon	-10.7606
▁ständig	-10.7608
▁Upptäck	-10.7608
▁redigera	-10.7608
▁tjock	-10.7608
▁toalett	-10.7608
▁Film	-10.7608
▁såklart	-10.7608
▁livslängd	-10.7608
▁Johannes	-10.7609
▁strikt	-10.7609
▁signaler	-10.7612
▁konstant	-10.7613
▁floden	-10.7613
▁klinisk	-10.7616
ware	-10.7618
▁barndom	-10.7619
▁granskning	-10.762
▁liberal	-10.7621
▁styrkor	-10.7622
▁videon	-10.7623
▁arkiv	-10.7624
▁sexuell	-10.7629
▁omvandla	-10.7633
▁officiellt	-10.7635
▁erkännande	-10.7638
▁ansträngningar	-10.7638
▁kungen	-10.7638
▁muskler	-10.7642
▁dej	-10.7642
▁anonym	-10.7643
▁web	-10.7644
▁talas	-10.7647
▁block	-10.7648
▁storleken	-10.765
▁personalen	-10.7653
drar	-10.7654
▁Tal	-10.7656
strategi	-10.7657
▁Jan	-10.766
nda	-10.7661
▁fotbolls	-10.7662
park	-10.7664
▁presenterade	-10.7665
▁ledig	-10.7665
▁tidningen	-10.7668
▁Vart	-10.767
▁tvivel	-10.7672
▁slutändan	-10.7672
▁försvann	-10.7672
▁föreskrivs	-10.7672
▁pålitlig	-10.7673
▁blockera	-10.7675
▁förekommande	-10.7676
▁europeisk	-10.7677
▁Centre	-10.768
▁databas	-10.7681
▁Resultatet	-10.7681
▁släkt	-10.7682
▁dubbla	-10.7684
▁sorts	-10.7685
savtal	-10.7685
▁utfärda	-10.7687
well	-10.7689
2)	-10.769
öl	-10.7691
▁packa	-10.7693
▁vänlig	-10.7696
BA	-10.7697
▁dras	-10.77
beslut	-10.7704
08	-10.7706
▁debatt	-10.7708
▁tillväxten	-10.7712
▁bin	-10.7712
▁upphovsrätt	-10.7712
▁grip	-10.7713
▁Che	-10.7714
▁orätt	-10.7714
kostnader	-10.7716
▁ängel	-10.7718
▁instruktioner	-10.7728
▁nation	-10.7731
paket	-10.7734
▁prioritera	-10.7736
▁perioder	-10.7736
▁Malmö	-10.7736
▁rest	-10.7737
▁blott	-10.7737
▁varma	-10.7737
▁överlevnad	-10.774
▁www	-10.7742
nder	-10.7744
fisk	-10.7744
▁längst	-10.7745
▁Gran	-10.7748
▁pilot	-10.7749
beroende	-10.7751
▁Mak	-10.7753
▁pan	-10.7753
▁ögat	-10.7753
▁löne	-10.7756
▁scen	-10.7757
▁konflikt	-10.7763
▁William	-10.7764
splan	-10.7765
▁kalorier	-10.7766
▁stycket	-10.7767
▁Ham	-10.7768
▁ti	-10.7769
▁politiken	-10.777
profil	-10.7771
priset	-10.7772
skrift	-10.7773
längd	-10.7775
ller	-10.7783
ställningen	-10.7784
▁vandra	-10.7788
ända	-10.7789
▁öppnas	-10.7792
männen	-10.7793
pl	-10.7796
▁konsumera	-10.78
▁påminner	-10.78
▁←	-10.7801
▁skjuta	-10.7803
▁välkommen	-10.7803
▁jämställdhet	-10.7803
kra	-10.7806
▁riskerar	-10.7807
TV	-10.7807
▁yrke	-10.7808
logi	-10.7809
▁ytan	-10.7814
kast	-10.7814
▁Open	-10.7814
▁tagits	-10.7817
ON	-10.7825
▁kraftfull	-10.7825
EM	-10.7826
ness	-10.7827
▁populärt	-10.7828
▁Gen	-10.7829
▁trädgården	-10.7829
▁reglering	-10.7829
▁planeten	-10.7831
▁rapporterade	-10.7835
▁sov	-10.7838
ellt	-10.784
taget	-10.7841
▁trådlös	-10.7845
sektion	-10.7846
▁männen	-10.7852
▁avslöjar	-10.7852
▁slit	-10.7853
rick	-10.7858
py	-10.7861
▁Förstå	-10.7862
tern	-10.7863
▁College	-10.7865
▁Naturligtvis	-10.7865
▁Regissör	-10.7865
▁välbefinnande	-10.7865
▁minimera	-10.7866
▁våg	-10.7867
▁utgifter	-10.7876
▁Fr	-10.7877
45	-10.7878
ani	-10.7878
bon	-10.7879
▁trend	-10.7882
▁Media	-10.7883
«	-10.7885
Är	-10.7886
▁vd	-10.7888
▁tu	-10.7888
▁måla	-10.7889
▁2-	-10.789
▁minskade	-10.7897
▁250	-10.7897
▁Säg	-10.7898
▁sky	-10.7899
▁Bor	-10.7899
▁judiska	-10.79
31	-10.79
▁banker	-10.7901
▁Mal	-10.7901
▁Bolaget	-10.7901
▁skär	-10.7902
▁37	-10.7904
tagare	-10.7904
▁ökande	-10.7904
▁upphör	-10.7907
▁flöde	-10.791
▁tung	-10.7917
▁jämför	-10.7919
▁söder	-10.7928
▁presenteras	-10.7929
▁Thailand	-10.7931
▁eko	-10.7934
▁Jämför	-10.7935
▁bestående	-10.7935
▁INTE	-10.7938
▁väntade	-10.7939
▁Lund	-10.794
▁Pal	-10.7941
▁innefattar	-10.7943
▁attityd	-10.7945
eriet	-10.7947
▁Internationella	-10.7947
bank	-10.7949
▁känsliga	-10.795
▁designer	-10.795
air	-10.7952
▁anfall	-10.7955
▁teori	-10.7955
▁närings	-10.7963
linje	-10.7964
▁(3	-10.7966
▁rakt	-10.7967
▁fyller	-10.7968
▁damm	-10.7973
ich	-10.7974
TT	-10.7975
förande	-10.7975
▁glöm	-10.7977
▁öga	-10.7981
mal	-10.7985
gud	-10.7988
▁betalningar	-10.7988
▁haha	-10.7992
▁matcher	-10.7995
▁direktör	-10.7995
▁hungrig	-10.7996
▁kopiera	-10.7996
▁miljontals	-10.7997
▁Tips	-10.7997
▁lokalt	-10.7999
▁troligen	-10.8
▁rörelser	-10.8002
▁insåg	-10.8005
▁ovanför	-10.8005
blad	-10.8012
▁präst	-10.8013
lett	-10.8014
▁konflikter	-10.8019
▁inomhus	-10.8025
▁delarna	-10.8033
filer	-10.8045
▁förluster	-10.8045
▁kärnvapen	-10.8045
▁domare	-10.8052
alla	-10.8053
▁rötter	-10.8061
▁förväntade	-10.8062
▁Instagram	-10.8063
▁Islam	-10.8063
▁motiv	-10.8063
kultur	-10.8064
▁citera	-10.8064
▁Plus	-10.8066
▁deltagarna	-10.8067
▁55	-10.8067
▁premiärminister	-10.8068
▁meditation	-10.807
▁session	-10.808
▁rapporterar	-10.8081
klubb	-10.8084
vägar	-10.8085
CO	-10.8086
▁bostad	-10.8089
▁gatan	-10.8089
▁tät	-10.809
▁operation	-10.8099
▁föreslå	-10.8099
▁lin	-10.8099
▁skogs	-10.81
▁Barnen	-10.81
▁åldrar	-10.8101
▁verkligt	-10.8102
▁extrem	-10.8105
AL	-10.8106
ött	-10.8113
▁hjärn	-10.8114
▁flykting	-10.8121
▁kopplade	-10.8127
▁fastighets	-10.8128
▁Vatten	-10.8128
▁Abraham	-10.8129
▁YouTube	-10.8129
▁flexibel	-10.8129
▁teoretisk	-10.8129
▁övre	-10.8129
kes	-10.8131
iff	-10.8134
▁kristen	-10.8134
▁tester	-10.8138
▁lägsta	-10.8141
05	-10.8143
▁Typ	-10.8147
ball	-10.8147
▁snäll	-10.8148
policy	-10.8151
kropp	-10.8152
uri	-10.8152
▁skatter	-10.8155
service	-10.8157
▁vilda	-10.8157
▁begreppet	-10.8158
partiet	-10.8159
36	-10.816
▁mobiltelefon	-10.8168
året	-10.8169
last	-10.8169
▁singel	-10.8171
▁mötte	-10.8175
modeller	-10.8175
▁vägledning	-10.8178
centrum	-10.8179
kande	-10.8179
▁förenkla	-10.8181
▁underbart	-10.8182
▁fåglar	-10.8182
▁Ken	-10.8192
▁Mary	-10.8193
▁komplettera	-10.8196
▁nöd	-10.8196
▁velat	-10.8196
▁kopia	-10.8196
▁ECB	-10.8197
▁sevärdheter	-10.8197
▁leende	-10.8197
▁verkställande	-10.8202
▁elektronisk	-10.8203
vänd	-10.8207
▁register	-10.8215
tyder	-10.8215
▁Life	-10.8217
teknologi	-10.8219
top	-10.8221
▁önskan	-10.8222
▁ovanligt	-10.8225
▁u	-10.8228
SI	-10.823
studie	-10.8232
▁Spela	-10.8233
såtgärder	-10.8236
▁exakta	-10.8237
lön	-10.824
▁Ring	-10.8243
▁avancerad	-10.8244
struktur	-10.8246
▁strategiska	-10.8249
förordningen	-10.8252
▁golf	-10.8255
▁ansvaret	-10.8255
▁rymden	-10.8262
brev	-10.8262
▁ägde	-10.8264
▁ställde	-10.8265
▁bostäder	-10.8265
▁1)	-10.8266
▁ätit	-10.8267
▁bet	-10.8267
▁120	-10.8267
▁USB	-10.8272
▁rimlig	-10.8272
▁deltog	-10.8272
▁idén	-10.8276
saker	-10.8277
▁rekord	-10.8279
trar	-10.8281
sprodukter	-10.8282
koppling	-10.8288
▁bekant	-10.8292
▁pojke	-10.8297
sförmåga	-10.8297
aktiviteter	-10.8297
minister	-10.8298
▁rutin	-10.8299
▁Kontakta	-10.8306
mak	-10.8307
▁kall	-10.8308
▁exklusiv	-10.8308
Att	-10.831
▁koldioxid	-10.831
▁kanaler	-10.8311
vägen	-10.8313
AP	-10.8315
▁linjer	-10.8316
els	-10.8316
kommittén	-10.8317
skrivning	-10.8319
från	-10.832
shi	-10.832
fas	-10.8322
mil	-10.8325
▁dejting	-10.8326
▁Eli	-10.8326
▁Hor	-10.8328
ise	-10.8331
död	-10.8331
▁konsert	-10.8331
▁Club	-10.8332
▁implementera	-10.8332
▁Gamla	-10.8332
▁President	-10.8332
field	-10.8332
▁Skicka	-10.8332
▁Miljö	-10.8332
▁Perfekt	-10.8332
▁realtid	-10.8333
eu	-10.8335
IP	-10.8335
ria	-10.8337
▁sålde	-10.8337
▁Ce	-10.8337
▁förverkliga	-10.8338
▁Samtlig	-10.8339
▁iOS	-10.8339
boken	-10.8343
▁rådgivning	-10.8344
▁pappers	-10.8348
▁neuro	-10.8348
hin	-10.835
ös	-10.8351
zy	-10.8353
▁poly	-10.8356
▁belysning	-10.8356
▁lust	-10.8358
▁dödade	-10.8358
▁placeras	-10.836
▁Steg	-10.8361
▁falska	-10.8373
fest	-10.8374
▁motion	-10.8377
▁800	-10.8377
ark	-10.8378
▁utformad	-10.8378
▁klassisk	-10.8378
trä	-10.8378
▁Världen	-10.8379
tech	-10.8381
▁Män	-10.8382
▁biologiska	-10.8386
▁ab	-10.8387
cle	-10.8389
▁metoden	-10.8396
▁ingå	-10.8396
itation	-10.8396
▁dominera	-10.8397
▁And	-10.8398
▁sc	-10.8398
slaget	-10.8399
▁absorbera	-10.8401
▁blomma	-10.8401
▁revision	-10.8402
arter	-10.8406
ämnen	-10.8406
▁revolution	-10.8408
▁Gillar	-10.8409
▁uppnått	-10.841
▁trevligt	-10.8412
▁öst	-10.8416
▁brun	-10.8416
ppen	-10.842
▁gilla	-10.8421
▁punkterna	-10.8421
▁städerna	-10.8424
▁förening	-10.8426
▁ryggen	-10.8427
skador	-10.8429
fartyg	-10.843
▁läggs	-10.8435
▁aspekt	-10.8438
lagen	-10.8438
▁con	-10.8439
▁Vin	-10.844
▁hej	-10.844
bol	-10.8442
etter	-10.8443
4)	-10.8447
▁övertygad	-10.8451
▁transportera	-10.8454
▁fyr	-10.8456
▁samarbetar	-10.8457
▁gul	-10.8461
fallet	-10.8462
▁gu	-10.8468
rummet	-10.8468
rätta	-10.8468
▁integrerad	-10.8469
▁Sydafrika	-10.8469
▁distribuera	-10.8469
▁ignorera	-10.8469
▁agerar	-10.847
▁problemen	-10.847
▁sjuka	-10.8471
▁Stra	-10.8473
▁ledamöter	-10.8476
▁leka	-10.8481
▁döma	-10.8482
ous	-10.8482
▁MA	-10.8485
gjord	-10.8487
organisationen	-10.8488
▁gradvis	-10.8489
▁generellt	-10.849
färd	-10.8494
terapi	-10.8497
ale	-10.8497
7)	-10.8499
vakt	-10.8503
MS	-10.8506
▁Web	-10.8508
▁pop	-10.851
▁vaknar	-10.851
▁våga	-10.851
tillverkare	-10.8511
▁danska	-10.8511
ori	-10.8512
▁prestation	-10.8514
▁USD	-10.8515
▁godkänna	-10.8515
▁nyckeln	-10.8523
▁elektriska	-10.8524
Man	-10.8528
-3	-10.853
ama	-10.8532
▁importera	-10.8537
▁ob	-10.8538
vägagångssätt	-10.8539
Г	-10.8539
▁Kyrkan	-10.8539
▁inbegripet	-10.8539
▁indirekt	-10.8539
▁sjunga	-10.8539
▁mörkret	-10.854
▁himla	-10.854
▁Staden	-10.8543
▁brister	-10.8544
▁plantera	-10.8547
iker	-10.8548
▁avslutade	-10.855
▁utgöra	-10.8553
▁chatt	-10.8554
▁anmäl	-10.8555
▁frågorna	-10.8555
itu	-10.8557
▁tävling	-10.856
▁förneka	-10.856
▁målen	-10.8565
▁tysk	-10.8567
dde	-10.8568
▁ST	-10.8569
▁spelen	-10.8572
▁bandet	-10.8578
överskridande	-10.8586
▁«	-10.8587
▁meta	-10.8589
▁lägenheter	-10.8589
95	-10.8589
▁39	-10.8591
▁känslig	-10.8592
▁Met	-10.8594
▁skulder	-10.8595
▁tränare	-10.8596
hål	-10.8598
▁rot	-10.8599
▁räkning	-10.8599
▁bollen	-10.8605
book	-10.8605
skott	-10.8608
▁Helsingfors	-10.8609
▁önskemål	-10.8609
▁Öppna	-10.8609
▁Österrike	-10.8609
▁mjukvara	-10.8609
▁återhämtning	-10.861
▁föda	-10.8612
▁tvätt	-10.8612
▁Team	-10.8613
▁publicerade	-10.8613
▁gråta	-10.8617
▁diskriminering	-10.8618
rap	-10.8618
▁Lång	-10.8623
▁final	-10.8624
nnan	-10.8624
▁scenen	-10.8628
▁lu	-10.863
▁extern	-10.8631
▁robot	-10.8632
spår	-10.8632
efter	-10.8633
▁togs	-10.8637
kommer	-10.8641
gjort	-10.8644
▁uppfatta	-10.8645
lande	-10.8646
▁institution	-10.865
▁Fadern	-10.8652
▁främjar	-10.8652
tio	-10.8656
▁Hand	-10.8658
▁ande	-10.8658
▁besluta	-10.8663
▁koppling	-10.8667
▁förändrade	-10.8671
platsen	-10.8672
▁38	-10.8677
▁Frank	-10.8679
▁njur	-10.8679
▁nämnda	-10.8679
▁Research	-10.8679
▁interaktion	-10.868
pati	-10.868
▁städa	-10.8683
▁räddning	-10.8684
▁årligen	-10.8689
▁uppnås	-10.869
▁utformade	-10.8691
▁€	-10.8691
▁skydds	-10.8693
nis	-10.8695
▁Shi	-10.8695
förfarande	-10.8699
cancer	-10.8705
historia	-10.8705
75	-10.871
wo	-10.871
▁Love	-10.8714
▁Hal	-10.8716
teckning	-10.8717
▁lyckliga	-10.8723
▁Helt	-10.8725
▁Herrens	-10.8727
▁funnit	-10.8727
▁medie	-10.8729
▁grönt	-10.873
▁kontinuerligt	-10.8731
▁optimal	-10.8731
▁läget	-10.8733
▁gammalt	-10.8738
kat	-10.8747
▁Vänligen	-10.875
▁annanstans	-10.875
▁föds	-10.8752
ili	-10.8753
▁kreativitet	-10.8753
vill	-10.8755
stiden	-10.8758
▁Stockholms	-10.8761
delen	-10.8762
can	-10.8762
▁marknadsförings	-10.8768
▁fysik	-10.8769
▁förbud	-10.8772
panel	-10.8775
▁Santa	-10.8775
▁nämnde	-10.8777
An	-10.8782
▁Pu	-10.8784
▁medlemsstaten	-10.8788
▁mail	-10.879
,8	-10.8791
gna	-10.8793
ici	-10.8795
låda	-10.8795
▁sur	-10.8797
stin	-10.8799
▁livstid	-10.88
ställningar	-10.88
▁roller	-10.88
▁infektioner	-10.8802
2.	-10.8802
ky	-10.8803
▁Norden	-10.8806
▁Ak	-10.8806
AC	-10.8808
▁Ram	-10.8809
mun	-10.8815
strid	-10.882
▁återställ	-10.8821
▁Liksom	-10.8822
▁tempel	-10.8822
▁krävde	-10.8822
▁minimal	-10.8822
lär	-10.8822
▁landskap	-10.8825
▁grundare	-10.8826
▁talat	-10.8827
▁besvär	-10.8827
▁befria	-10.8829
▁värdefulla	-10.8832
▁Full	-10.8836
▁fader	-10.8836
09	-10.8847
▁hamn	-10.8849
▁ost	-10.8849
▁annons	-10.8855
hörande	-10.8856
▁förlåt	-10.8856
▁påstå	-10.8858
▁Lan	-10.8859
tänk	-10.8862
smetoder	-10.8862
skada	-10.8869
38	-10.8874
gin	-10.8876
▁Vikt	-10.8883
lack	-10.8883
▁publiken	-10.8884
▁närmar	-10.8887
▁klänning	-10.8888
uppgifter	-10.8888
▁Gold	-10.8892
▁banken	-10.8893
▁Mellanöstern	-10.8893
▁huvudsakligen	-10.8894
▁munnen	-10.8895
▁funderar	-10.8895
rot	-10.8895
▁hölls	-10.8899
nätverk	-10.8901
los	-10.8903
▁besökt	-10.8904
▁representera	-10.8907
▁2015.	-10.8911
▁publiceras	-10.8912
oner	-10.8914
put	-10.8915
▁Times	-10.8916
▁rid	-10.8917
▁efteråt	-10.8918
▁miljöer	-10.8921
SC	-10.8923
▁Ski	-10.8923
▁Cat	-10.8924
▁armar	-10.8925
föring	-10.8926
▁Op	-10.8931
▁Store	-10.8932
ple	-10.8933
serie	-10.8935
▁akademiska	-10.8938
▁dansa	-10.8942
▁station	-10.8947
▁diskussion	-10.8947
▁djuren	-10.8948
29	-10.8949
▁Trä	-10.8953
cal	-10.8954
▁ledsen	-10.8961
▁Brasilien	-10.8966
▁knappast	-10.8966
▁viktminskning	-10.8966
▁välsigna	-10.8966
▁gissa	-10.8967
▁99	-10.8969
▁medlemmarna	-10.8972
▁Ann	-10.8972
▁förhållandet	-10.8972
ej	-10.8973
▁söta	-10.8974
▁fördjupa	-10.8975
fullt	-10.8976
▁tillverkade	-10.8977
löshet	-10.8981
▁rådgivare	-10.8985
hor	-10.8986
▁generationen	-10.8992
eo	-10.8992
planering	-10.8992
boll	-10.8995
▁vägrar	-10.9
▁försvinna	-10.9001
▁Act	-10.9002
▁produceras	-10.9004
▁fabrik	-10.9007
▁minnes	-10.9007
▁förmedla	-10.9008
▁välj	-10.9009
▁VI	-10.9009
bilar	-10.901
▁publicera	-10.9015
▁Wild	-10.9018
▁tvingade	-10.9025
ville	-10.9027
grip	-10.9029
▁bildar	-10.903
▁Lake	-10.9034
▁lopp	-10.9035
▁drabbade	-10.9036
▁Mexiko	-10.9039
▁Previous	-10.9039
▁fossil	-10.9039
▁flytande	-10.9039
▁förresten	-10.9039
▁Charles	-10.9039
▁Vegas	-10.904
▁kur	-10.904
▁kyss	-10.904
wood	-10.904
▁montera	-10.904
▁enastående	-10.904
▁intryck	-10.9041
oid	-10.9042
▁EN	-10.9043
▁enklaste	-10.9045
▁sakta	-10.9045
▁vitamin	-10.9046
▁publicerat	-10.9048
▁blind	-10.905
pack	-10.9054
▁Eva	-10.9054
▁återvänder	-10.9067
▁atom	-10.9067
kontakt	-10.9068
▁Saint	-10.9068
▁samråd	-10.9068
förlust	-10.907
▁stilla	-10.9074
▁sko	-10.9075
▁tj	-10.9078
inställningar	-10.9079
▁Will	-10.908
▁utföras	-10.908
▁böj	-10.9088
▁Personer	-10.9088
▁omdömen	-10.9089
▁Fort	-10.9089
▁sal	-10.9091
▁Test	-10.9098
▁mörda	-10.9102
▁bergen	-10.9108
▁ris	-10.9109
▁planerade	-10.9109
▁konstatera	-10.9112
▁sug	-10.9113
▁dölja	-10.9113
▁iPad	-10.9113
▁doft	-10.9114
▁uppmuntrar	-10.9115
▁ställs	-10.9115
▁rengöring	-10.9116
▁kursen	-10.9116
mos	-10.9118
▁Vänta	-10.9119
▁Nå	-10.912
▁sekund	-10.912
▁parkering	-10.9121
▁församling	-10.9121
▁paus	-10.9122
▁tomt	-10.9124
fan	-10.9125
house	-10.9125
aler	-10.9126
▁dödsfall	-10.9127
▁hjälte	-10.9128
▁praktisk	-10.9133
▁dubbelt	-10.9134
▁jordbruk	-10.914
koncernen	-10.9141
▁<	-10.9144
▁upprepade	-10.9145
▁påbörja	-10.9146
▁bekväma	-10.9147
▁köpare	-10.915
▁koll	-10.9152
▁fart	-10.9155
jö	-10.916
yo	-10.9162
▁uppdateringar	-10.9163
65	-10.9164
tions	-10.9168
▁Spa	-10.9169
ktig	-10.9169
▁ensamma	-10.917
▁orsakas	-10.917
uv	-10.9177
▁anpassade	-10.9182
▁HERREN	-10.9182
▁Manchester	-10.9187
▁flexibilitet	-10.9187
▁avsevärt	-10.9187
stro	-10.9187
▁Stöd	-10.9187
läpp	-10.9187
▁silver	-10.9187
▁1998	-10.9188
▁rit	-10.9188
slutning	-10.9189
▁Angeles	-10.919
▁webbsida	-10.9191
▁östra	-10.9191
▁inriktning	-10.9192
ture	-10.9193
▁j	-10.9193
län	-10.9199
▁bränna	-10.9201
▁människo	-10.9202
▁Behandling	-10.9206
staden	-10.9206
smål	-10.9207
▁forskarna	-10.9212
▁vaccin	-10.9214
▁Priset	-10.9215
▁egenskap	-10.9217
▁Nor	-10.9217
▁mediciner	-10.922
▁tekniskt	-10.9223
torn	-10.9224
▁alltmer	-10.9225
▁förordningen	-10.9227
▁Ford	-10.9229
▁investerar	-10.923
punkter	-10.9231
▁hållbart	-10.9231
▁Användning	-10.9234
ole	-10.9239
▁Form	-10.9239
ont	-10.9241
▁kontroller	-10.9241
▁vetenskapen	-10.9248
▁Bell	-10.9251
▁harmoni	-10.9253
▁bloggar	-10.9255
▁hä	-10.9257
▁bal	-10.926
anläggning	-10.926
▁Association	-10.9261
▁utvidga	-10.9261
▁långvarig	-10.9261
▁belöna	-10.9262
▁Fyra	-10.9262
▁idrotts	-10.9263
▁förslaget	-10.9265
▁arbetskraft	-10.9265
▁Kim	-10.9265
▁missa	-10.9266
▁5-	-10.927
▁rolig	-10.927
IV	-10.9275
▁Bob	-10.9276
lägga	-10.9276
▁sälj	-10.9278
▁log	-10.9278
rörelsen	-10.9279
▁genomföras	-10.9279
▁Kör	-10.928
▁passera	-10.928
▁stiger	-10.9284
▁reagerar	-10.929
försäljning	-10.9291
morgon	-10.9296
▁fiende	-10.9304
rek	-10.9304
▁intill	-10.9309
gle	-10.931
affär	-10.9311
▁agent	-10.9313
▁modig	-10.9314
▁tråd	-10.9316
500	-10.9318
▁insättning	-10.932
▁op	-10.9321
kter	-10.9323
▁avvisa	-10.9323
nation	-10.9324
▁regeringar	-10.9326
▁red	-10.9328
▁stannade	-10.9328
▁surf	-10.9332
▁Verk	-10.9335
▁gitarr	-10.9336
▁upplevt	-10.9336
▁1996	-10.9338
▁ägaren	-10.9338
pu	-10.934
alternativ	-10.9341
▁Satan	-10.9341
▁svärd	-10.9342
▁övergrepp	-10.9344
▁free	-10.9346
▁mild	-10.9348
kant	-10.935
▁fransk	-10.9351
hon	-10.9353
▁nätverks	-10.9354
▁färgen	-10.9355
▁arabiska	-10.9356
▁tävlingen	-10.9357
▁Gal	-10.9361
föd	-10.9364
▁banan	-10.9365
▁samordna	-10.9366
▁dyker	-10.9367
överföring	-10.9368
▁måltider	-10.937
▁skrivbord	-10.9372
▁tjänsterna	-10.9374
▁väntat	-10.9375
▁minskat	-10.9379
-10	-10.9381
▁Dags	-10.9382
▁logga	-10.9382
▁rapportering	-10.9383
gs	-10.9385
use	-10.9386
▁sjukhuset	-10.9387
perioden	-10.9388
▁nord	-10.939
säkra	-10.939
▁offentliggöra	-10.9392
▁vetenskaplig	-10.9394
▁fylld	-10.9397
▁grej	-10.9398
anläggningar	-10.9399
EEG	-10.9403
▁Lind	-10.9403
ever	-10.9409
▁flyger	-10.941
värden	-10.9411
▁Rik	-10.9412
Li	-10.9412
▁Company	-10.9412
▁matematik	-10.9412
▁palestinsk	-10.9412
▁kolumn	-10.9412
▁anordna	-10.9412
▁Snart	-10.9412
▁taxi	-10.9412
▁samordning	-10.9413
krig	-10.9413
▁vakt	-10.9414
▁Stan	-10.9414
äst	-10.9415
▁tredjedel	-10.9416
▁pressmeddelande	-10.9419
kontroller	-10.9421
ical	-10.9422
ansk	-10.9423
undersökning	-10.9424
▁motivation	-10.9426
gjut	-10.9428
ställa	-10.9429
▁djupare	-10.943
▁Fred	-10.9432
▁väggen	-10.9433
▁konventionen	-10.9435
▁utsatta	-10.9436
▁önskade	-10.944
försörjning	-10.9443
▁sortiment	-10.9443
tävling	-10.9443
▁salu	-10.9445
fonden	-10.9446
▁kosta	-10.9448
▁drycker	-10.9448
34	-10.9449
▁säg	-10.9449
▁heta	-10.945
▁trygga	-10.945
▁majoriteten	-10.9452
▁kyrkor	-10.9454
▁ledningen	-10.9458
▁insikt	-10.946
▁herr	-10.9461
▁terapi	-10.9462
▁Motor	-10.9462
tecken	-10.9464
▁Ze	-10.9465
tagna	-10.9465
▁meningen	-10.947
▁märker	-10.9472
▁Ob	-10.9473
▁välkomnar	-10.9474
iver	-10.9475
▁bota	-10.9478
punkten	-10.948
teckna	-10.9484
▁Exempel	-10.9487
▁Standard	-10.9488
▁verifiera	-10.9488
▁besegra	-10.9488
▁Snabb	-10.9489
▁Health	-10.9489
▁mal	-10.949
▁ägs	-10.949
▁kroppens	-10.9491
▁White	-10.9491
▁byggd	-10.9491
▁pojkvän	-10.9492
▁uppför	-10.9492
CH	-10.9493
▁motverka	-10.9493
▁Pla	-10.9494
▁grannar	-10.9495
▁arbetare	-10.9496
▁enormt	-10.9496
▁Mannen	-10.9499
RS	-10.95
▁hanteras	-10.95
▁kandidater	-10.9501
▁erhålla	-10.9502
▁gemenskaps	-10.9507
02	-10.9507
▁museum	-10.9509
/2	-10.9511
▁tillträde	-10.9512
▁dotterbolag	-10.9515
▁gåvor	-10.9516
stationer	-10.9521
mästare	-10.9521
▁Vä	-10.9522
▁Borde	-10.953
▁ändrade	-10.9531
▁löst	-10.9533
86	-10.9535
▁flytt	-10.9535
▁fastigheter	-10.9536
▁itu	-10.9537
Med	-10.9539
▁gener	-10.9542
▁Cre	-10.9545
▁öster	-10.9545
▁Vita	-10.955
▁ansträngning	-10.9551
rey	-10.9556
board	-10.9556
hel	-10.9558
▁källan	-10.9559
▁immun	-10.9564
massa	-10.9565
▁Bättre	-10.9565
▁Tillbaka	-10.9565
▁CBD	-10.9565
▁synder	-10.9565
▁Disney	-10.9566
▁humor	-10.9566
▁Boken	-10.9566
▁åstadkomma	-10.9566
▁skrämmande	-10.9569
▁Johnson	-10.9572
▁leksaker	-10.9573
▁förbjudet	-10.9573
bal	-10.9573
ith	-10.9578
▁innovativ	-10.9579
▁öppning	-10.9579
stationen	-10.9579
▁yttrande	-10.958
steknik	-10.9582
▁kabel	-10.9587
▁Press	-10.9588
▁elev	-10.959
▁portfölj	-10.9592
▁vägg	-10.9593
hälsa	-10.9594
▁magiska	-10.9594
processen	-10.9596
<	-10.9598
inklusive	-10.9598
▁platt	-10.96
▁Energi	-10.9601
▁känneteckna	-10.9603
cher	-10.9604
▁hänger	-10.9605
▁albumet	-10.9607
▁IV	-10.9607
▁distribution	-10.9608
dro	-10.9609
nit	-10.961
▁förbättringar	-10.9611
▁tidning	-10.9612
▁Net	-10.9613
ash	-10.9613
rarna	-10.9614
sfrågor	-10.9614
häv	-10.9615
▁Char	-10.9617
▁inbjud	-10.9617
▁IS	-10.9624
▁försäljningen	-10.9625
▁journalist	-10.9626
pper	-10.9632
▁byggde	-10.9633
▁modellen	-10.9634
▁presidenten	-10.9635
▁värda	-10.9635
rant	-10.9638
DI	-10.9639
hall	-10.9639
▁förvärva	-10.964
▁Madrid	-10.9643
▁ränte	-10.9643
▁Mellan	-10.9644
▁spenderar	-10.9645
▁tillverkaren	-10.9645
▁laga	-10.9646
▁golv	-10.9647
▁belöning	-10.965
▁fattar	-10.965
▁auto	-10.9652
▁show	-10.9653
▁ät	-10.9653
NS	-10.9654
▁Tjänsten	-10.9654
▁Cra	-10.9661
▁Sluta	-10.9661
dera	-10.9662
mit	-10.9668
oll	-10.967
energi	-10.9671
▁firar	-10.9672
▁(20	-10.9673
▁publicerades	-10.9675
▁Övriga	-10.9677
▁barnets	-10.9679
nämnd	-10.9684
▁nä	-10.9684
▁Kund	-10.9686
styrka	-10.9687
▁Tele	-10.9688
sidor	-10.9688
▁bro	-10.9689
konst	-10.969
▁idrott	-10.9691
resor	-10.9693
▁förbindelser	-10.9694
frågan	-10.9694
▁bitar	-10.9696
▁spr	-10.9697
▁Slut	-10.9697
mel	-10.97
ira	-10.9703
▁områdena	-10.9703
▁stiga	-10.9704
innehavare	-10.9708
Detta	-10.9712
▁veterinär	-10.9712
flu	-10.9713
▁Christ	-10.9715
▁Nordkorea	-10.9721
▁stänger	-10.9721
▁uppföljning	-10.9721
oni	-10.9721
▁söner	-10.9721
▁användbar	-10.9723
▁Rest	-10.9724
▁broder	-10.9724
▁Norr	-10.9727
flyg	-10.9727
▁Små	-10.9728
▁Time	-10.9731
▁kommittén	-10.9732
▁Fick	-10.9734
match	-10.9735
▁placering	-10.9735
▁migration	-10.9738
3)	-10.974
▁Projektet	-10.9745
▁Top	-10.9749
▁skära	-10.9751
▁Au	-10.9753
hastighet	-10.9755
▁förstör	-10.9755
▁front	-10.9757
Har	-10.9757
Varför	-10.9757
43	-10.9759
▁Känns	-10.9761
▁texter	-10.9763
▁kopp	-10.9768
CT	-10.9773
▁grov	-10.9773
ida	-10.9774
▁flygbolag	-10.9776
▁etablera	-10.9785
▁ekosystem	-10.9785
▁we	-10.9787
varo	-10.9788
säng	-10.9789
▁tillverkas	-10.9789
▁strävan	-10.979
▁kulturer	-10.9793
▁ringer	-10.9797
▁blad	-10.9799
▁Chicago	-10.98
▁oundviklig	-10.98
▁skräp	-10.98
▁återhämta	-10.98
▁överhuvudtaget	-10.98
▁logistik	-10.98
▁jättebra	-10.9801
EA	-10.9802
▁dokumentera	-10.9802
stig	-10.9804
▁utmanande	-10.9804
▁produktivitet	-10.9804
▁recensioner	-10.9806
▁4:	-10.9807
03	-10.9808
▁försiktighet	-10.9808
▁trycka	-10.9808
tis	-10.9809
▁betalt	-10.981
▁Cal	-10.9811
▁vände	-10.9812
▁terrorism	-10.9813
abel	-10.9813
▁bredd	-10.9813
▁Utveckling	-10.9814
▁förberedelse	-10.9816
tider	-10.982
▁nerv	-10.9824
▁omedelbar	-10.9831
▁rörande	-10.9838
▁konstruera	-10.9843
döme	-10.9845
▁strålning	-10.9846
▁lugna	-10.9846
▁underteckna	-10.9847
rim	-10.9849
▁taket	-10.9851
▁snygg	-10.9851
▁heltid	-10.9853
▁2)	-10.9856
▁unions	-10.9858
använd	-10.9859
▁andlig	-10.9859
OP	-10.9859
lund	-10.9861
▁kram	-10.9862
hopp	-10.9863
▁Inn	-10.9867
organ	-10.9868
bla	-10.9868
UR	-10.9869
▁dam	-10.9872
kurser	-10.9872
ward	-10.9875
▁vågar	-10.9878
nska	-10.9879
▁feedback	-10.9879
▁märka	-10.9879
listan	-10.988
filmer	-10.988
▁1997	-10.9881
▁riskerna	-10.9881
bildning	-10.9882
▁SE	-10.9882
▁gym	-10.9882
28	-10.9884
▁Bush	-10.9884
▁framgår	-10.9885
▁upphov	-10.9885
▁penning	-10.9886
myndigheten	-10.9891
given	-10.9892
kamrat	-10.9895
▁skapades	-10.9896
▁sorter	-10.9898
▁Finlands	-10.9899
▁inredning	-10.9899
▁master	-10.99
▁färdiga	-10.9901
▁värdera	-10.9902
enheten	-10.9908
träff	-10.9909
drivna	-10.9911
▁intensiv	-10.9911
▁Kl	-10.9911
▁uppåt	-10.9912
▁Världens	-10.9912
▁konstnär	-10.9912
storlek	-10.9915
lem	-10.9917
▁samverkan	-10.9922
sverktyg	-10.9922
▁44	-10.9923
aktivitet	-10.9927
lyft	-10.9927
sha	-10.9928
▁skickat	-10.993
▁oftare	-10.9933
▁lagstiftningen	-10.9933
▁ved	-10.9934
/3	-10.9934
▁märkt	-10.9937
ökning	-10.9938
schef	-10.9939
▁noggrann	-10.9939
▁verkan	-10.9944
▁beakta	-10.9949
känd	-10.9952
▁Kong	-10.9954
vir	-10.9957
▁Florida	-10.9959
▁Jehova	-10.9959
▁Netflix	-10.9959
▁flickvän	-10.9959
▁distans	-10.9959
benägna	-10.996
▁Allmän	-10.996
▁ungdoms	-10.9961
meter	-10.9962
▁porträtt	-10.9963
sprogrammet	-10.9964
projektet	-10.9966
KA	-10.9967
cel	-10.9971
▁destination	-10.9973
pra	-10.9978
▁okänd	-10.998
▁golvet	-10.998
▁syns	-10.998
▁expertis	-10.9983
▁Im	-10.9983
▁realistisk	-10.9985
▁religiös	-10.9985
▁möjligheterna	-10.9985
liggande	-10.9987
▁tränar	-10.9989
umma	-10.9991
▁1990	-10.9991
▁stu	-10.9991
▁attack	-10.9993
ugh	-10.9994
▁armén	-11
video	-11
anden	-11.0001
▁fastställd	-11.0004
▁alternativa	-11.0005
▁hittas	-11.0008
må	-11.0015
PP	-11.0017
status	-11.0019
▁primära	-11.0019
▁planerat	-11.002
maskiner	-11.002
orter	-11.0021
▁läkemedels	-11.0024
lis	-11.0024
fältet	-11.0028
▁omvänd	-11.0029
▁Ste	-11.0033
▁gäng	-11.0036
utan	-11.0037
▁antibiotika	-11.004
▁erkänner	-11.004
▁misslyckande	-11.004
▁Forskare	-11.004
gram	-11.004
▁medelstora	-11.004
▁butiken	-11.0041
▁hyper	-11.0041
▁fordons	-11.0041
▁1995	-11.0042
tron	-11.0046
▁wi	-11.0049
▁koncernen	-11.0051
▁hemliga	-11.0052
▁European	-11.0053
▁domän	-11.0055
▁elektrisk	-11.0057
gul	-11.0063
▁20-	-11.0063
turer	-11.0066
▁utställning	-11.0067
▁skyldiga	-11.0069
▁specialisera	-11.0073
▁Ordet	-11.0076
jobb	-11.0079
▁olagligt	-11.0079
▁batterier	-11.008
värt	-11.008
▁bett	-11.0082
▁kg	-11.0083
kommande	-11.0084
även	-11.0085
jord	-11.0088
▁huvudstaden	-11.0088
▁utbildningen	-11.0088
▁kommentera	-11.0089
▁kritiska	-11.0093
▁upphandling	-11.0094
▁Out	-11.0096
▁skrift	-11.0101
höjd	-11.0102
sjukdom	-11.0102
▁Hör	-11.0105
▁förbund	-11.0105
dlar	-11.0109
▁störningar	-11.011
▁bron	-11.011
▁berättelsen	-11.011
▁kusten	-11.0112
inne	-11.0112
▁direktivet	-11.0113
dol	-11.0114
▁Lätt	-11.0121
▁flexibla	-11.0121
▁konkurrera	-11.0121
▁Donald	-11.0121
▁odds	-11.0121
▁skedde	-11.0122
▁funktionalitet	-11.0122
▁arbetslöshet	-11.0122
modell	-11.0124
▁Namn	-11.0126
▁därigenom	-11.0127
▁Plats	-11.0127
▁vers	-11.013
satta	-11.0131
▁minister	-11.0134
▁återvinning	-11.0135
▁("	-11.0135
▁bredare	-11.0135
▁knut	-11.0135
▁Lämna	-11.014
▁saknade	-11.0143
▁mage	-11.0144
▁Regeringen	-11.0145
▁patienterna	-11.0145
▁affär	-11.0147
light	-11.0149
innan	-11.0151
▁mäklare	-11.0151
▁billiga	-11.0153
▁dödar	-11.0153
▁säkrare	-11.0154
▁Ä	-11.0155
▁biologisk	-11.0157
▁hästen	-11.0158
huvud	-11.0158
plikt	-11.0159
▁chefer	-11.016
sskydd	-11.0162
▁Chan	-11.0164
33	-11.0165
▁förberedd	-11.0172
06	-11.0178
▁revolutionär	-11.0178
▁konton	-11.018
▁orsakerna	-11.0181
▁närmast	-11.0182
▁tolka	-11.0183
▁himmel	-11.0183
-19	-11.0185
0.000	-11.0186
takt	-11.0187
▁moral	-11.019
▁700	-11.019
▁rikt	-11.0193
märken	-11.0194
▁Para	-11.0194
▁Cam	-11.0195
iseringen	-11.0198
▁Än	-11.0199
linjen	-11.02
▁läsning	-11.02
sekvens	-11.0202
▁Scott	-11.0203
▁Lägenhet	-11.0203
▁netto	-11.0203
▁beträffande	-11.0203
▁minimi	-11.0205
pal	-11.0206
▁västra	-11.0207
▁Book	-11.0208
▁turné	-11.0211
ace	-11.0214
dri	-11.0214
seende	-11.0214
▁Fördelar	-11.0215
▁human	-11.0218
▁åldern	-11.0219
oxid	-11.022
▁skam	-11.0221
sång	-11.0224
▁akt	-11.0226
▁sjön	-11.0226
▁undviker	-11.0227
vän	-11.0229
▁ban	-11.0229
stock	-11.023
▁registrerat	-11.0231
ansvar	-11.0231
▁jobbat	-11.0231
▁anklaga	-11.0232
▁utbetalning	-11.0232
▁Dam	-11.0232
▁Brand	-11.0234
gran	-11.0235
sområde	-11.0235
▁uppenbarelse	-11.0235
▁exklusiva	-11.0237
—	-11.0241
▁potentiellt	-11.0241
tillväxt	-11.0241
▁Pay	-11.0244
▁News	-11.0245
▁konkurrenter	-11.0248
kunskap	-11.0249
"?	-11.0252
▁väcka	-11.0254
▁Simon	-11.0255
▁Ap	-11.0255
▁Honom	-11.0257
typer	-11.026
▁Mel	-11.026
▁högra	-11.0265
▁fullständiga	-11.0267
▁löser	-11.0272
▁Europe	-11.0278
▁skyddas	-11.0284
▁konvertera	-11.0286
▁kyckling	-11.0286
▁Önska	-11.0286
▁föreställa	-11.0289
tun	-11.0292
▁Louis	-11.0293
▁självständighet	-11.0294
▁glasögon	-11.0295
▁sväng	-11.0296
▁Work	-11.0297
▁Jon	-11.0301
▁säte	-11.0302
faktor	-11.0304
ile	-11.0307
▁fack	-11.0308
▁administration	-11.0309
▁klipp	-11.0309
▁bistånd	-11.031
middag	-11.0312
ric	-11.0312
▁skräck	-11.0314
orer	-11.0315
▁EG	-11.0316
▁lyx	-11.0322
▁passerar	-11.0323
▁VM	-11.0324
järn	-11.0325
ias	-11.0325
författare	-11.0326
dge	-11.0326
▁Spelet	-11.033
tioner	-11.0332
▁övningar	-11.0333
48	-11.0333
blom	-11.0333
▁betydelsen	-11.0334
box	-11.0337
▁stränder	-11.0341
▁förhandla	-11.0348
▁betalat	-11.0351
▁själar	-11.0352
▁medlemskap	-11.0352
snitt	-11.0353
▁tarm	-11.0356
▁ränta	-11.0358
▁Tru	-11.036
▁Jul	-11.0361
dis	-11.0362
cia	-11.0364
▁bildades	-11.0368
▁administrera	-11.0369
▁försämra	-11.0369
▁godkänner	-11.0369
▁nämnt	-11.0369
▁skänk	-11.0369
▁Project	-11.0369
▁sexuellt	-11.0369
[2]	-11.037
▁Brown	-11.037
▁Xbox	-11.037
▁återstår	-11.037
sägelse	-11.0372
▁from	-11.0375
▁Sanningen	-11.0376
▁inträffade	-11.0382
▁broms	-11.0383
▁studio	-11.0384
▁syndrom	-11.0387
▁Steve	-11.0387
▁prognos	-11.0389
▁principen	-11.039
▁artister	-11.039
qua	-11.0391
▁priserna	-11.0394
▁vandring	-11.0396
▁index	-11.0397
▁grå	-11.04
▁driv	-11.0401
▁grym	-11.0402
▁z	-11.0402
▁enhetlig	-11.0403
▁reagera	-11.0403
MO	-11.0406
[1]	-11.0408
▁födda	-11.0408
▁röstade	-11.0408
källor	-11.041
▁95	-11.0411
▁graviditeten	-11.0411
▁virtuella	-11.0413
fordon	-11.0416
Kan	-11.0416
▁Vol	-11.0416
metoder	-11.0419
udd	-11.0423
lement	-11.0424
mötet	-11.0428
▁Hus	-11.043
▁kontant	-11.0433
▁rutiner	-11.0433
lagar	-11.0434
▁öarna	-11.0435
▁sålt	-11.0436
▁stånd	-11.0437
▁com	-11.0439
▁rättvis	-11.0441
pet	-11.0448
mann	-11.045
▁obehag	-11.0451
▁kasinon	-11.0452
▁avslutat	-11.0453
▁Aldrig	-11.0453
▁humanitär	-11.0453
▁Nordamerika	-11.0453
▁Mindre	-11.0453
▁returnera	-11.0454
▁sjätte	-11.0454
▁1994	-11.0454
▁visdom	-11.0455
▁klasser	-11.0456
▁arbetsplats	-11.0458
▁nano	-11.0459
▁tidpunkten	-11.0462
▁utvecklades	-11.0465
▁traditioner	-11.0468
▁attraktiv	-11.0468
▁klassen	-11.0469
▁medvetande	-11.047
▁nationer	-11.047
ställe	-11.0471
▁upptagen	-11.0473
▁365	-11.0473
▁Alltid	-11.0473
▁smidig	-11.0474
▁kraften	-11.0474
▁distrikt	-11.0477
▁syre	-11.0477
LO	-11.0478
64	-11.0478
▁Music	-11.0479
ette	-11.0481
▁Hotellet	-11.0481
▁hälsan	-11.0483
▁veckorna	-11.0484
virus	-11.0488
▁dyrt	-11.0491
▁möjligen	-11.0492
vitamin	-11.0493
biljett	-11.0493
▁byte	-11.0493
▁runda	-11.0497
▁definieras	-11.0497
▁Öka	-11.0498
▁snygga	-11.0499
▁dokumentation	-11.0502
▁gynna	-11.0505
▁fiskar	-11.0505
vol	-11.0506
▁Webbplatsen	-11.0509
styrning	-11.0512
linjer	-11.0514
▁anlita	-11.0521
▁64	-11.0522
▁intern	-11.0523
▁körde	-11.0524
▁läkaren	-11.0527
▁avtals	-11.0529
▁anläggning	-11.0532
rygg	-11.0536
▁strider	-11.0538
ø	-11.0538
▁injektion	-11.0538
▁tendens	-11.0538
▁Samsung	-11.0538
▁Bryssel	-11.0538
▁webben	-11.0538
▁utgångspunkt	-11.0538
▁Blogg	-11.0539
▁Airport	-11.0539
▁rättegång	-11.054
▁svett	-11.0541
▁info	-11.0541
▁predika	-11.0542
▁välfärd	-11.0542
▁Ingenting	-11.0543
års	-11.0544
▁stämning	-11.0544
▁satellit	-11.0546
▁besättning	-11.0547
▁favoriter	-11.0548
▁kommando	-11.0548
▁väster	-11.0549
▁sällsynta	-11.0551
▁41	-11.0552
▁förlängning	-11.0553
▁(4	-11.0555
▁fotografera	-11.0557
▁fältet	-11.0559
▁primär	-11.0559
rätter	-11.0563
xa	-11.0566
▁motsats	-11.0567
▁tillgodose	-11.0571
mission	-11.0572
▁avslutas	-11.0572
▁reste	-11.0572
▁demokratiska	-11.0573
tjäna	-11.0575
▁syften	-11.0575
▁massiv	-11.058
bidrag	-11.0582
1)	-11.0583
▁loss	-11.0584
liknande	-11.0587
▁individen	-11.0589
▁återvände	-11.059
▁antas	-11.0593
▁ID	-11.0596
▁beundra	-11.0599
▁syd	-11.06
▁trender	-11.0602
mail	-11.0603
▁OK	-11.0604
▁användbara	-11.0608
alism	-11.0609
▁5:	-11.0609
flöde	-11.0611
▁Person	-11.0612
▁vanor	-11.0616
▁Lab	-11.0618
▁Fil	-11.0619
fram	-11.0621
▁Kul	-11.0623
▁besviken	-11.0623
▁Lyssna	-11.0623
aff	-11.0624
▁beslutat	-11.0624
▁begränsning	-11.0624
▁Må	-11.0625
▁terrorist	-11.0627
sprocess	-11.0628
▁Nedan	-11.0629
▁Syn	-11.063
▁invandring	-11.0631
▁Liv	-11.0634
able	-11.0635
▁magi	-11.0635
▁kyla	-11.0637
▁verksamhets	-11.0638
▁målsättning	-11.0638
▁begravning	-11.0638
▁brittisk	-11.0641
ringen	-11.0641
person	-11.0643
▁inspelning	-11.0643
hat	-11.0644
right	-11.0644
gräv	-11.0644
▁Spelar	-11.0645
skillnad	-11.0651
▁bildas	-11.0652
▁möjliggöra	-11.0652
▁Sko	-11.0653
▁Hav	-11.0653
▁hävda	-11.0655
▁Fel	-11.0656
▁osv	-11.066
▁FA	-11.0661
▁hormon	-11.0662
▁historier	-11.0664
ndig	-11.0665
▁teorier	-11.0667
▁zon	-11.0667
▁Cup	-11.0667
▁eviga	-11.0667
Ro	-11.0668
ii	-11.0668
▁katten	-11.0669
leder	-11.067
▁korrekta	-11.0671
▁förteckning	-11.0672
▁mästare	-11.0674
▁undersökningen	-11.0675
5)	-11.0678
jar	-11.0678
▁arbetsmiljö	-11.0679
▁störst	-11.0681
▁Cu	-11.0683
▁utövar	-11.0684
▁farlig	-11.0687
37	-11.0689
▁olycka	-11.069
▁Mars	-11.069
räv	-11.0691
kriget	-11.0692
förstå	-11.0693
lang	-11.0693
▁Guide	-11.0694
▁Fan	-11.0695
▁ort	-11.0696
IF	-11.0701
kommunikation	-11.0701
▁valda	-11.0702
▁menade	-11.0708
▁Angel	-11.0708
▁Foundation	-11.0709
▁Journal	-11.0709
▁spektrum	-11.0709
▁vuxit	-11.0709
▁parallell	-11.0709
▁reparera	-11.071
▁Run	-11.0711
▁täckt	-11.0711
▁framträdande	-11.0711
▁Olika	-11.0713
▁husdjur	-11.0713
▁överraskning	-11.0713
▁kemi	-11.0714
▁anspråk	-11.0714
Kom	-11.0716
▁Chris	-11.0716
▁Haha	-11.0716
▁River	-11.0718
▁färsk	-11.0718
▁rev	-11.0718
▁lindra	-11.0719
▁resenärer	-11.0721
ministeriet	-11.0722
▁angeläg	-11.0723
▁arrangemang	-11.0725
anslutning	-11.0728
Så	-11.0729
ctor	-11.0731
▁2018.	-11.0731
▁bestämd	-11.0732
▁kontinuerlig	-11.0732
disk	-11.0733
lare	-11.0733
▁sidorna	-11.074
▁ku	-11.074
blo	-11.0744
butik	-11.0751
@	-11.0751
▁tele	-11.0755
▁såhär	-11.0756
▁dyra	-11.0756
ios	-11.0757
plattform	-11.0758
Vår	-11.0759
▁representant	-11.0761
räd	-11.0765
▁cm	-11.0767
▁exportera	-11.0767
komma	-11.0768
55	-11.0771
▁kommuner	-11.0776
▁Lee	-11.0783
▁skog	-11.0786
▁journalister	-11.0791
kop	-11.0795
före	-11.0796
▁konversation	-11.0796
▁erfarna	-11.0796
▁Färg	-11.0797
▁Grön	-11.0797
▁överstig	-11.0797
▁Golf	-11.0799
▁debut	-11.08
▁tårar	-11.0801
▁förmågor	-11.0802
74	-11.0803
▁abort	-11.0806
abla	-11.081
sättningar	-11.081
▁rensa	-11.0811
▁utrikes	-11.0812
▁sinnen	-11.0812
Lo	-11.0813
vy	-11.0815
▁skylt	-11.0821
▁bjuder	-11.0822
▁minnet	-11.0823
▁Huset	-11.0823
kommen	-11.0826
salternativ	-11.0827
▁långivare	-11.0828
▁Bla	-11.0829
allt	-11.0836
▁Senare	-11.0838
▁forskar	-11.0838
förvaltning	-11.0838
Var	-11.0845
▁tävla	-11.0851
▁definition	-11.0853
▁osäkerhet	-11.0856
▁förstärka	-11.0856
▁2017.	-11.0857
▁löper	-11.086
▁varumärket	-11.086
▁klient	-11.0863
▁1,5	-11.0864
▁mörker	-11.0866
▁minoritet	-11.0867
100	-11.087
▁rörelsen	-11.087
▁Pol	-11.087
▁köns	-11.0874
▁Kunden	-11.0874
▁handlade	-11.0876
mbo	-11.088
▁producent	-11.0882
▁drottning	-11.0884
▁expansion	-11.0884
▁Alexander	-11.0884
▁Studio	-11.0884
▁monster	-11.0884
▁Djur	-11.0884
▁elektronik	-11.0884
▁identifierar	-11.0885
▁Food	-11.0886
▁införliva	-11.0886
▁konstnärer	-11.0889
▁Excel	-11.0891
▁manliga	-11.0891
▁partier	-11.0891
▁slåss	-11.0894
▁godkänt	-11.0895
▁ansökningar	-11.0896
▁knappen	-11.0897
▁inblandade	-11.0899
▁hedra	-11.0899
▁Världs	-11.0901
asi	-11.0904
sproblem	-11.0908
▁vana	-11.0908
▁troligt	-11.0912
▁psyko	-11.0913
▁Mus	-11.0914
▁termer	-11.0921
▁fe	-11.0922
▁rättslig	-11.0922
▁fungerande	-11.0923
åtgärder	-11.0925
röst	-11.0925
infektion	-11.0927
▁plattformar	-11.0928
ativa	-11.0931
▁tillverka	-11.0932
▁individuellt	-11.0934
▁tillfällig	-11.0934
▁betrakta	-11.0934
▁Mah	-11.0935
▁skede	-11.0935
▁skjut	-11.0937
Gud	-11.0937
TP	-11.0938
▁miljövänlig	-11.0938
▁judarna	-11.0939
▁historiskt	-11.0939
▁kontrolleras	-11.0942
▁gudomliga	-11.0943
▁panel	-11.0943
▁Mig	-11.0944
▁yttersta	-11.0945
▁konsult	-11.0945
▁time	-11.0946
▁Ul	-11.095
▁neutral	-11.0955
▁Bel	-11.0955
kampanj	-11.0956
ologisk	-11.0956
▁pensions	-11.0957
▁vägra	-11.0962
▁uppskattning	-11.0963
▁recension	-11.0965
politiska	-11.0965
9)	-11.0966
▁2016.	-11.0969
bul	-11.0969
▁Invest	-11.0969
▁helvete	-11.097
▁böckerna	-11.0971
▁marknadsföra	-11.0972
▁skilsmässa	-11.0973
▁applicera	-11.0973
▁prägla	-11.0973
▁bröt	-11.0973
▁idiot	-11.0973
▁trettio	-11.0973
▁värdepapper	-11.0973
▁und	-11.0975
numret	-11.0975
▁förutsatt	-11.0976
▁inflammation	-11.098
ute	-11.0983
▁Sho	-11.0989
Le	-11.0991
polis	-11.0992
▁önska	-11.0992
▁israeliska	-11.0992
▁förfarandet	-11.0993
▁180	-11.0996
▁Igår	-11.0997
▁certifikat	-11.0997
▁lyft	-11.0998
▁väsentliga	-11.1
▁visum	-11.1001
blå	-11.1002
▁skriven	-11.1005
▁Sea	-11.1007
flykt	-11.1008
VA	-11.1008
guide	-11.1012
▁njuter	-11.1015
▁fördraget	-11.1017
▁hälsosamma	-11.1018
kunder	-11.102
pump	-11.102
▁regional	-11.1021
▁existera	-11.1023
▁involvera	-11.1023
▁Kärlek	-11.1024
▁sund	-11.1026
▁bott	-11.1026
jen	-11.1028
▁tvär	-11.1029
▁gro	-11.1029
▁sände	-11.103
▁regerings	-11.103
block	-11.1032
▁häng	-11.1033
▁stjärna	-11.1034
▁långsiktigt	-11.1035
▁imponerad	-11.1035
kad	-11.1035
▁fukt	-11.1037
▁talang	-11.1037
▁chanser	-11.1038
▁2014.	-11.1039
sänd	-11.1041
Pro	-11.1042
▁billigt	-11.1048
▁sop	-11.105
▁djupa	-11.105
▁stuga	-11.105
industri	-11.105
▁kontrollen	-11.1051
▁Win	-11.1057
▁fortsatta	-11.1058
▁förbättras	-11.1058
▁Tag	-11.106
▁fyll	-11.1061
tåg	-11.1061
í	-11.1062
▁läkemedlet	-11.1062
▁ansluter	-11.1062
sinformation	-11.1062
▁medvetet	-11.1062
▁tobak	-11.1063
▁Wood	-11.1063
93	-11.1063
▁läppar	-11.1064
▁helvetet	-11.1064
▁heder	-11.1065
▁utmärkta	-11.1065
▁kaos	-11.1067
▁Server	-11.1068
betalning	-11.1071
▁Sil	-11.1071
▁Marx	-11.1071
byte	-11.1073
▁Åk	-11.1077
▁framöver	-11.1077
lja	-11.1077
▁Modern	-11.1079
▁anal	-11.1079
▁diskussioner	-11.1079
▁händelsen	-11.1081
mur	-11.1082
2-	-11.1083
▁uppgick	-11.1083
▁olyckor	-11.1084
åter	-11.1085
▁tilldelas	-11.1085
▁85	-11.1086
▁utförde	-11.1087
▁Resort	-11.1087
▁seriös	-11.1088
▁ekologisk	-11.1088
print	-11.1089
▁Game	-11.1091
▁still	-11.1093
▁glömde	-11.1094
▁hiss	-11.1094
▁filter	-11.1094
röv	-11.1095
effekter	-11.1103
OM	-11.1104
▁pekar	-11.1106
▁kulturen	-11.1106
▁sammansättning	-11.1109
kopplad	-11.1111
▁förbjuda	-11.1112
▁synpunkter	-11.1113
kamera	-11.1116
▁offra	-11.1116
▁svaga	-11.1118
▁konsekvenserna	-11.1119
▁järnvägs	-11.1126
dö	-11.1133
slutande	-11.1136
97	-11.1137
▁mätning	-11.1137
▁föräldra	-11.114
▁Camp	-11.1143
▁begränsas	-11.1143
▁bonusar	-11.1145
▁Fisk	-11.1145
DE	-11.1145
▁satsning	-11.1149
▁kniv	-11.1149
▁tillförlitlig	-11.1151
▁Hollywood	-11.1152
▁fakultet	-11.1152
▁landsbygden	-11.1152
▁hänvisning	-11.1152
▁kritisera	-11.1152
▁näringsämnen	-11.1152
▁Gratis	-11.1152
▁återkalla	-11.1153
▁avbryta	-11.1153
▁inteckning	-11.1153
▁Pengar	-11.1154
▁avstå	-11.1155
▁entreprenör	-11.1159
▁kontoret	-11.116
▁vackraste	-11.1161
▁nyhets	-11.1161
▁Nytt	-11.1163
▁kampanjer	-11.1163
▁herre	-11.1166
▁Human	-11.1168
▁inhemska	-11.117
▁Express	-11.1171
ology	-11.1172
▁Cook	-11.1173
▁retur	-11.1174
▁kreativ	-11.1175
▁Mir	-11.1175
▁slottet	-11.1176
▁behandlade	-11.1177
Kr	-11.1178
kör	-11.1179
fett	-11.118
lation	-11.118
▁reparation	-11.1181
▁Mont	-11.1182
▁objektiv	-11.1182
▁givit	-11.1184
▁speglar	-11.1184
sverksamhet	-11.1185
▁bedrägeri	-11.1185
▁kraftig	-11.1185
▁Rådet	-11.1186
ppar	-11.1188
▁härrör	-11.1189
▁hemsidan	-11.1189
▁your	-11.119
▁halva	-11.1192
formulär	-11.1198
▁färd	-11.1201
▁ingång	-11.1204
hålla	-11.1206
▁invandrare	-11.1206
bri	-11.1209
▁släppte	-11.1209
▁duktig	-11.1211
▁loppet	-11.1212
98	-11.1214
▁2013.	-11.1219
▁Sport	-11.1224
▁SS	-11.1224
▁registrerar	-11.1226
skrivna	-11.1227
▁AS	-11.1227
▁ski	-11.1229
▁byrån	-11.1231
▁förvaltnings	-11.1233
▁utnämn	-11.1239
▁förhandlingar	-11.1239
▁Ry	-11.124
▁3-	-11.1242
▁Singapore	-11.1243
▁grafik	-11.1243
PC	-11.1243
▁axel	-11.1244
▁breda	-11.1244
▁separera	-11.1244
givande	-11.1245
▁Människan	-11.1247
▁46	-11.1249
▁sammanfatta	-11.1251
▁Water	-11.1252
▁fåtal	-11.1252
▁sträng	-11.1255
▁underliggande	-11.1258
▁fönstret	-11.1259
▁närliggande	-11.1261
▁densamma	-11.1261
▁terror	-11.1262
suppgifter	-11.1264
▁lägenheten	-11.1264
▁båten	-11.1266
▁SK	-11.1268
▁normer	-11.1269
▁America	-11.127
▁kontrast	-11.127
▁vänligen	-11.1271
skär	-11.1272
▁uppror	-11.1275
▁kompisar	-11.1283
▁reservera	-11.1283
▁anmäla	-11.1285
bert	-11.1285
▁skapelse	-11.1286
period	-11.1287
finansiering	-11.129
▁rulla	-11.1291
▁stjärnorna	-11.1291
cus	-11.1292
▁kostnads	-11.1293
▁plikt	-11.1293
▁utspela	-11.1297
▁Mini	-11.1297
hur	-11.1299
▁långsiktig	-11.1299
pul	-11.13
▁atmosfären	-11.1303
▁kortet	-11.1305
SP	-11.1305
▁Ass	-11.1314
▁fordonet	-11.1316
▁amerikaner	-11.1325
görande	-11.1325
▁löften	-11.1326
marknader	-11.1328
förmåga	-11.1333
▁Anders	-11.1333
▁parken	-11.1335
â	-11.1335
▁påskynda	-11.1335
▁Hitler	-11.1335
▁möts	-11.1335
▁tillåtna	-11.1335
▁Putin	-11.1335
▁mogna	-11.1336
▁meddelar	-11.1336
▁förvaring	-11.1336
▁ärlig	-11.1336
▁räddade	-11.1338
▁panik	-11.1338
▁introduktion	-11.1339
▁beslutade	-11.1341
▁utnyttjar	-11.1342
▁Light	-11.1342
▁boll	-11.1342
lämna	-11.1344
▁rosa	-11.1345
▁Space	-11.1346
▁Market	-11.1347
▁begränsar	-11.1348
▁magen	-11.135
ligheten	-11.1357
▁Röda	-11.1357
▁tänd	-11.1363
▁gränserna	-11.1363
▁Ät	-11.1363
▁ringde	-11.1368
▁näring	-11.1369
ffer	-11.1372
▁mini	-11.1373
▁leds	-11.1373
▁krossa	-11.1376
▁lung	-11.1379
laddning	-11.1381
frekvens	-11.1382
mönster	-11.1382
kräm	-11.1383
▁biblioteket	-11.1384
play	-11.1389
OT	-11.139
91	-11.1391
▁Jean	-11.1392
sorgan	-11.1393
▁sträva	-11.1393
▁slutsatser	-11.1394
ident	-11.1394
▁benen	-11.1397
▁klagar	-11.1399
▁Projekt	-11.1399
tagarna	-11.14
inkomst	-11.14
▁aktuell	-11.14
▁strategisk	-11.14
iserat	-11.1402
▁Mos	-11.1403
▁dödlig	-11.1404
▁huvudkontor	-11.1404
▁halvt	-11.1405
▁procedur	-11.1405
vitt	-11.1405
tals	-11.1408
▁43	-11.1414
▁festival	-11.1419
▁uppdaterad	-11.1419
ille	-11.1421
39	-11.1422
brygga	-11.1425
¥	-11.1427
▁rekrytering	-11.1427
▁Lyckligtvis	-11.1427
▁Ungefär	-11.1427
▁nämns	-11.1427
▁förhoppningsvis	-11.1427
▁Länk	-11.1428
▁bokstav	-11.1428
▁Läge	-11.1428
▁utsätts	-11.1428
▁smitta	-11.1428
▁Utbildning	-11.1429
▁Valley	-11.1429
▁bindande	-11.143
▁Sig	-11.143
födda	-11.143
▁Skön	-11.1432
sjö	-11.1435
▁kundens	-11.1438
▁VPN	-11.1439
ifier	-11.144
▁protokoll	-11.144
▁Whi	-11.1441
fördraget	-11.1445
▁relationen	-11.1445
▁bedriva	-11.1445
▁aktör	-11.1446
▁utvecklare	-11.1449
▁kungariket	-11.1449
▁muslimska	-11.1453
▁Tiden	-11.1455
▁hållit	-11.1457
krets	-11.1459
▁välkända	-11.1459
▁båtar	-11.146
▁lokaler	-11.146
▁hyr	-11.1461
▁Wal	-11.1461
▁pin	-11.1463
▁sökte	-11.1463
▁iaktta	-11.1464
sstrategi	-11.1465
▁testat	-11.1466
uf	-11.1469
lli	-11.1469
▁separata	-11.1471
oth	-11.1471
objekt	-11.1476
▁tjänstemän	-11.1476
▁skön	-11.1478
luft	-11.1478
▁transporter	-11.148
▁industriella	-11.1486
▁godkända	-11.1486
▁belägen	-11.1486
▁rättighet	-11.149
▁(”	-11.1495
TO	-11.1496
▁avdelning	-11.1499
lagt	-11.1499
▁förnuft	-11.1503
▁Off	-11.1509
smän	-11.151
▁MP	-11.1512
▁rutt	-11.1515
▁avskaffa	-11.1515
värm	-11.1515
▁ego	-11.1515
▁extrema	-11.1516
▁principerna	-11.1516
kunnig	-11.1517
▁mentala	-11.1518
▁Belgien	-11.1521
▁tvungna	-11.1521
▁garage	-11.1521
▁1800-	-11.1521
▁1900-	-11.1521
▁Privat	-11.1521
▁Bridge	-11.1521
▁diagnostisera	-11.1521
▁helig	-11.1521
▁Kostnad	-11.1521
▁ovanstående	-11.1522
▁galen	-11.1522
bädd	-11.1523
▁Poker	-11.1523
▁angrip	-11.1523
srapport	-11.1528
kill	-11.153
▁bearbetning	-11.1534
▁smält	-11.1535
▁gatorna	-11.154
▁värdefull	-11.1541
▁snabbaste	-11.1542
▁Amerikanska	-11.1543
▁grann	-11.1543
▁gran	-11.1544
smöjligheter	-11.1545
▁insamling	-11.1547
ide	-11.1547
▁statistisk	-11.1549
▁härliga	-11.1551
▁ytterst	-11.1553
mitt	-11.1558
NC	-11.1563
▁dosen	-11.1564
▁drama	-11.1565
▁Bond	-11.1565
▁effektivare	-11.1565
▁översyn	-11.1565
▁kommunen	-11.1565
▁Wo	-11.1568
▁Sm	-11.1568
NG	-11.1571
▁artist	-11.1573
▁Ash	-11.1574
står	-11.1577
▁teorin	-11.1577
▁juridisk	-11.1582
via	-11.1587
▁chock	-11.1592
▁nådde	-11.1592
▁uttrycker	-11.1595
▁lektioner	-11.1597
atorer	-11.1598
66	-11.1599
▁starten	-11.1603
konventionen	-11.1605
▁symboler	-11.1606
44	-11.1609
gent	-11.1609
▁360	-11.1609
vagnar	-11.1611
▁reformer	-11.1614
▁cyber	-11.1614
▁auktion	-11.1615
▁företrädare	-11.1615
▁Vietnam	-11.1615
▁Koranen	-11.1615
▁brud	-11.1615
▁anvisningar	-11.1616
▁beläget	-11.1618
▁ställt	-11.1618
▁Sara	-11.1619
▁affären	-11.1621
▁drömmen	-11.1621
▁musiker	-11.1622
▁Audi	-11.1623
medicin	-11.1623
▁dimension	-11.1624
▁tillbehör	-11.1624
▁stötta	-11.1624
▁åtagande	-11.1625
▁förmåner	-11.1626
▁förtryck	-11.163
▁lockar	-11.1631
▁litar	-11.1633
▁skid	-11.1633
▁Palm	-11.1634
▁attackera	-11.1634
domstolen	-11.1635
personer	-11.1636
fog	-11.1636
▁ljudet	-11.1636
▁Back	-11.164
▁Pra	-11.1642
▁dokumentär	-11.1644
▁Kol	-11.1645
ssel	-11.1645
▁lås	-11.1646
▁utrustade	-11.1649
68	-11.1649
▁mental	-11.1651
stone	-11.1655
▁doser	-11.1657
häng	-11.1657
▁Hol	-11.1657
▁byter	-11.1659
▁analyser	-11.166
▁Erik	-11.1664
utrymme	-11.1665
rättsliga	-11.1665
▁konung	-11.1667
▁turism	-11.1667
▁Författaren	-11.1669
stopp	-11.1672
förbrukning	-11.1672
▁likt	-11.1674
▁frivilliga	-11.1674
▁Krist	-11.1676
▁stol	-11.1676
▁gram	-11.1678
▁bakgrunden	-11.1682
▁ungdom	-11.1684
▁ver	-11.1684
▁kalender	-11.1691
rak	-11.1691
table	-11.1692
ough	-11.1696
samarbete	-11.1701
▁temat	-11.1703
▁definitionen	-11.1703
▁fastställas	-11.1706
▁utmana	-11.1707
‐	-11.171
▁aluminium	-11.171
▁signifikant	-11.171
▁systrar	-11.171
▁åtanke	-11.171
▁stängt	-11.171
▁Oscar	-11.171
▁inflation	-11.171
▁spädbarn	-11.171
▁klättra	-11.171
▁renovera	-11.1711
▁slakt	-11.1711
▁lojalitet	-11.1712
▁njut	-11.1713
▁with	-11.1713
▁beaktas	-11.1716
▁Jones	-11.1718
▁varelse	-11.172
▁centralbank	-11.1721
▁Holland	-11.1721
▁bidragit	-11.1722
▁Pap	-11.1723
▁Flo	-11.1724
▁religioner	-11.1727
▁kristall	-11.1727
▁arbetarna	-11.1727
▁Bri	-11.1731
▁museet	-11.1738
▁uppger	-11.1739
ibel	-11.174
▁Lam	-11.174
▁Key	-11.1741
▁befintlig	-11.1743
▁finska	-11.1748
▁vinnande	-11.1749
▁inkomster	-11.1751
▁gärningar	-11.1754
lunda	-11.1755
lib	-11.1756
▁hamna	-11.1757
hund	-11.176
▁växla	-11.1762
ordförande	-11.1763
pengar	-11.1765
▁trivs	-11.1765
▁felaktigt	-11.1765
▁sektor	-11.1767
baserat	-11.1768
▁stimulera	-11.1768
cken	-11.177
▁Sid	-11.177
▁träng	-11.1771
▁rekommenderade	-11.1772
▁disciplin	-11.1776
▁kommersiell	-11.1782
▁slav	-11.1783
▁maskinen	-11.1786
▁fartyget	-11.1789
▁användbart	-11.1789
ano	-11.1789
▁kritisk	-11.1791
▁tillgången	-11.1794
▁dödliga	-11.1794
lot	-11.1795
ländska	-11.1796
▁krisen	-11.1798
▁handeln	-11.18
▁tappa	-11.1803
skapande	-11.1804
▁introducerade	-11.1804
▁Portugal	-11.1806
▁bekymmer	-11.1806
▁SA	-11.1807
▁svamp	-11.1807
Con	-11.1808
▁uttryckligen	-11.1808
▁kilo	-11.1808
▁lim	-11.181
karna	-11.181
▁drabbats	-11.1811
ndra	-11.1811
▁korruption	-11.1812
▁Night	-11.1812
▁50%	-11.1813
73	-11.1813
▁hantverk	-11.1814
▁missat	-11.1817
▁fond	-11.1819
▁flickan	-11.182
tank	-11.1822
▁servrar	-11.1823
▁klädd	-11.1828
centret	-11.1829
▁East	-11.183
bad	-11.183
▁anläggningen	-11.1834
TH	-11.1834
gä	-11.1835
▁väggar	-11.1836
▁ansåg	-11.1836
▁federala	-11.1837
▁ömsesidig	-11.1839
god	-11.1841
▁förlåta	-11.1842
regionen	-11.1842
▁max	-11.1842
▁Bäst	-11.1844
bry	-11.1848
situation	-11.1851
▁koncern	-11.1851
▁engagerade	-11.1854
▁tuff	-11.1856
▁Villa	-11.1857
fyll	-11.1857
▁förutse	-11.1858
kontrakt	-11.1858
hotell	-11.186
▁reform	-11.1862
▁slutsatsen	-11.1862
sperioden	-11.1869
metoden	-11.1872
▁uttag	-11.1876
▁fastställts	-11.1879
▁själen	-11.1881
priser	-11.1881
▁förbättrade	-11.1881
▁samarbets	-11.1882
▁effektiviteten	-11.1884
▁eftermiddagen	-11.1885
▁Juda	-11.1885
▁ful	-11.1887
▁koppar	-11.1889
▁underlättar	-11.189
▁detaljerad	-11.1891
84	-11.1892
▁hemligheter	-11.1894
▁universitets	-11.1894
▁dal	-11.1902
-2	-11.1903
inter	-11.1903
kedjor	-11.1903
▁Clinton	-11.1904
▁Köpenhamn	-11.1904
▁exemplar	-11.1904
▁DVD	-11.1904
▁matlagning	-11.1904
▁insulin	-11.1904
▁genomfördes	-11.1904
▁regelbunden	-11.1904
▁Multi	-11.1904
▁förutsätter	-11.1904
▁Kung	-11.1905
▁fungerade	-11.1906
IA	-11.1908
▁aktieägare	-11.1909
49	-11.1912
mot	-11.1915
▁variation	-11.1917
▁certifiering	-11.1917
▁mysig	-11.1918
kanalen	-11.1919
▁vinden	-11.192
▁skick	-11.192
▁utmaningen	-11.1921
▁stärker	-11.1925
GA	-11.1927
▁intervall	-11.1927
▁linjen	-11.1931
▁Karta	-11.1935
▁körs	-11.1936
▁hoppade	-11.1937
skostnader	-11.1939
▁anime	-11.1939
▁skift	-11.1941
▁givet	-11.1945
CS	-11.1945
hamn	-11.1947
handlingar	-11.1954
vänt	-11.1954
85	-11.1955
▁närma	-11.1955
mängd	-11.1957
▁Dra	-11.1957
▁Resultaten	-11.196
kontor	-11.1962
avdelning	-11.1962
stå	-11.1964
riktad	-11.1969
▁skadad	-11.1969
▁kallades	-11.197
▁årlig	-11.197
▁tillämplig	-11.1972
▁institut	-11.1974
holm	-11.1976
bevis	-11.1988
▁riktar	-11.1991
fort	-11.1993
▁uppgiften	-11.1995
flo	-11.1998
lott	-11.1998
artikel	-11.1999
▁utgång	-11.1999
▁Vanligtvis	-11.2002
▁bokstäver	-11.2002
▁frälsning	-11.2002
▁vertikal	-11.2002
▁korrigera	-11.2002
▁formulera	-11.2002
▁guida	-11.2002
▁Spring	-11.2004
▁1993	-11.2004
▁desperat	-11.2004
▁Tryck	-11.2004
▁Text	-11.2004
▁£	-11.2004
▁timmars	-11.2005
ami	-11.2007
▁Shar	-11.2007
▁upphöra	-11.2008
tori	-11.2008
▁varenda	-11.2008
▁synliga	-11.2011
▁väntas	-11.2011
förhållande	-11.2011
vår	-11.2012
▁beräkning	-11.2014
▁Rose	-11.2014
▁förena	-11.2016
▁beröm	-11.202
▁Ci	-11.2022
shop	-11.2022
▁tillverkar	-11.2022
▁hårdare	-11.2024
▁dataskydds	-11.2025
▁skarp	-11.2025
▁medborgarna	-11.2026
team	-11.2026
▁reserv	-11.2027
▁slots	-11.203
▁evighet	-11.203
▁poster	-11.2031
sort	-11.2036
funktionen	-11.2037
plikation	-11.2039
▁specialist	-11.204
▁gifter	-11.204
▁orsakade	-11.2044
▁miljard	-11.2045
ming	-11.2045
▁liter	-11.2047
▁passiv	-11.2051
▁torra	-11.2054
länk	-11.2054
examen	-11.2058
helst	-11.2061
▁Minst	-11.2066
▁=)	-11.207
▁behåller	-11.207
▁centralt	-11.2072
▁Pop	-11.2072
▁änglar	-11.2079
ME	-11.2079
hm	-11.208
▁knapp	-11.2082
▁hata	-11.2086
rack	-11.2089
▁åtaganden	-11.2093
▁Sovjetunionen	-11.2101
▁jordbävning	-11.2101
▁diamant	-11.2101
▁tvärtom	-11.2101
▁slappna	-11.2101
▁Uppsala	-11.2101
▁workshop	-11.2101
▁flaska	-11.2102
▁>>	-11.2102
▁arbetsuppgifter	-11.2102
▁kasino	-11.2103
▁Jackson	-11.2104
▁väsentlig	-11.2106
▁Därmed	-11.2107
▁löpande	-11.2108
▁Radio	-11.2108
▁proffs	-11.211
▁ler	-11.2112
parken	-11.2112
51	-11.2112
▁marin	-11.2114
▁(2)	-11.2116
▁Mass	-11.2121
▁klinik	-11.2122
laget	-11.2126
▁Skall	-11.2126
town	-11.2128
▁underrätta	-11.2129
träning	-11.213
▁sökning	-11.213
▁vaknade	-11.2131
▁Sju	-11.2131
46	-11.2132
▁bankerna	-11.2133
▁konferensen	-11.2136
▁ifall	-11.2136
▁eder	-11.2139
▁lyckligt	-11.2139
▁51	-11.214
iseras	-11.2143
non	-11.2144
▁benämn	-11.2147
▁föreningen	-11.2148
▁Risk	-11.2149
ping	-11.215
▁armé	-11.2152
iken	-11.2153
▁digitalt	-11.2153
folk	-11.2154
LI	-11.2157
▁Justin	-11.2158
▁lan	-11.2161
list	-11.2162
▁upplevelsen	-11.2164
▁wa	-11.2168
läsning	-11.2169
▁dödades	-11.217
▁anmälan	-11.2171
lika	-11.2171
▁best	-11.2171
▁associera	-11.2174
▁präster	-11.2175
HA	-11.2176
▁fritids	-11.2176
▁laddning	-11.2182
▁nyfiken	-11.2184
▁Studenter	-11.2188
teori	-11.2191
handlare	-11.2192
▁Services	-11.2196
▁jäm	-11.2199
▁Amsterdam	-11.2201
▁Beroende	-11.2201
▁Förhoppningsvis	-11.2201
▁Skottland	-11.2201
▁Technology	-11.2201
▁universell	-11.2201
▁biskop	-11.2201
▁campus	-11.2201
▁allierade	-11.2201
▁syskon	-11.2201
▁tennis	-11.2201
▁Regler	-11.2201
▁underrättelse	-11.2201
▁Henry	-11.2201
▁huvudvärk	-11.2202
▁1989	-11.2202
▁ilska	-11.2203
parti	-11.2203
▁nervös	-11.2203
▁medborgarskap	-11.2203
▁bröllops	-11.2203
▁ambition	-11.2205
ele	-11.2206
▁förlänga	-11.2207
lv	-11.2208
▁spets	-11.2209
▁inträde	-11.2209
forskare	-11.221
▁vittnen	-11.221
”?	-11.2211
▁utställningar	-11.2213
▁föredrag	-11.2218
▁(10	-11.222
psi	-11.222
Nu	-11.2221
SK	-11.2221
▁anländer	-11.2225
krisen	-11.2229
apparat	-11.223
▁mix	-11.2233
▁gudomlig	-11.2235
▁Stad	-11.2235
▁forskningen	-11.2235
▁regleras	-11.2236
▁kinesisk	-11.2238
handeln	-11.2238
▁nedgång	-11.2238
▁dyka	-11.2239
läsare	-11.2239
▁Kur	-11.224
▁placerade	-11.224
▁antog	-11.2241
samhället	-11.2241
▁Of	-11.2243
▁skal	-11.2244
▁åtgärda	-11.2246
▁självständigt	-11.2247
▁Fader	-11.2247
▁klimatet	-11.2252
▁dynamisk	-11.2252
▁omsättning	-11.2253
ré	-11.2255
▁Hö	-11.2256
▁hittades	-11.2256
▁Skillnaden	-11.2257
▁påven	-11.2258
front	-11.2258
pension	-11.226
▁Roll	-11.2262
▁stödet	-11.2262
riska	-11.2267
▁regelverk	-11.2269
▁bur	-11.2269
älsk	-11.227
▁elit	-11.227
▁Dal	-11.2271
▁daglig	-11.2271
▁tydligen	-11.2271
▁stenar	-11.2272
ledningen	-11.2273
hållning	-11.2274
▁tabletter	-11.2275
▁fran	-11.2275
▁härligt	-11.2275
bön	-11.2277
▁lagligt	-11.2283
frukt	-11.2284
▁berget	-11.2285
ize	-11.2285
▁stadsdel	-11.2287
▁tillverknings	-11.2288
kig	-11.2288
vall	-11.229
mera	-11.2295
▁allergi	-11.2297
kler	-11.2298
▁Joseph	-11.2302
▁exceptionell	-11.2302
▁Frågor	-11.2302
▁Moskva	-11.2302
▁undersöker	-11.2302
▁Uppgifter	-11.2302
mu	-11.2302
▁angrepp	-11.2303
▁coach	-11.2303
▁County	-11.2304
▁SEO	-11.2304
▁splittra	-11.2305
▁prins	-11.2305
▁drömmer	-11.2305
▁föreningar	-11.2306
sindustrin	-11.2306
▁Villkor	-11.2307
nätet	-11.231
▁tillämpar	-11.231
▁varorna	-11.231
akademi	-11.2311
▁bönder	-11.2312
▁Ana	-11.2312
gjorda	-11.2318
▁etiska	-11.232
▁förstått	-11.2321
▁synes	-11.2323
normal	-11.2323
▁un	-11.2327
▁motorn	-11.2331
▁trycket	-11.2333
▁Ek	-11.2334
▁århundradet	-11.2334
▁SP	-11.2338
▁rabatt	-11.2338
▁tiderna	-11.2339
▁pr	-11.2339
vinst	-11.234
▁förnybar	-11.234
▁bibehålla	-11.2341
▁utgår	-11.2342
▁föraren	-11.2346
värld	-11.2347
▁Använda	-11.2348
▁utdelning	-11.2352
▁flod	-11.2355
▁Mike	-11.2357
spolitik	-11.236
▁övertyga	-11.2361
savgift	-11.2363
▁väsentligt	-11.2367
skolor	-11.2367
▁fritid	-11.2367
▁Förbered	-11.2368
▁Dead	-11.2373
▁bestå	-11.2373
▁skapats	-11.2376
▁eventuell	-11.2379
▁900	-11.238
andra	-11.238
▁påverkade	-11.2382
▁fienden	-11.2382
▁förändrar	-11.2384
▁real	-11.2388
EX	-11.2392
SM	-11.2392
▁komponent	-11.2396
▁öppnat	-11.24
▁förvalta	-11.24
▁Leta	-11.2401
▁Dagen	-11.2403
▁försvunnit	-11.2404
▁Forskarna	-11.2404
▁bagage	-11.2404
▁enskilt	-11.2404
▁initial	-11.2404
▁foder	-11.2404
▁likadant	-11.2404
▁nyhetsbrev	-11.2404
▁nybörjare	-11.2404
▁osynlig	-11.2404
▁antagligen	-11.2404
▁förkunna	-11.2405
▁telefonnummer	-11.2405
▁historisk	-11.2406
▁Dating	-11.2406
väx	-11.2407
mässa	-11.2409
▁LED	-11.241
▁laser	-11.241
▁opposition	-11.241
ender	-11.241
▁uteslutande	-11.241
▁framtidens	-11.241
▁tvist	-11.2412
▁Point	-11.2413
där	-11.2413
▁Dem	-11.2414
meddelande	-11.2417
▁Vär	-11.2417
natt	-11.2419
snedsättning	-11.2419
central	-11.242
nytt	-11.2424
▁direkta	-11.2424
lust	-11.2425
▁årtionden	-11.2425
▁check	-11.2426
▁segment	-11.2426
▁sanktioner	-11.2429
▁Cloud	-11.2429
▁Great	-11.243
▁fiber	-11.2431
▁vägrade	-11.2431
förslag	-11.2432
▁dimensioner	-11.2437
▁slott	-11.244
▁relativ	-11.2443
▁visuell	-11.2443
▁återgå	-11.2444
stein	-11.2446
▁operativa	-11.2449
▁påstår	-11.2452
▁sekundär	-11.2452
▁branscher	-11.2452
88	-11.2453
▁statens	-11.2453
▁EM	-11.2454
▁hö	-11.2458
▁mur	-11.2458
work	-11.2462
veck	-11.2462
ado	-11.2463
▁tidsperiod	-11.2464
▁omgivande	-11.2464
▁Farm	-11.2465
läkare	-11.2465
▁Cur	-11.2467
LT	-11.2467
▁Arm	-11.2473
▁massage	-11.2474
fart	-11.2475
anti	-11.2477
▁republiken	-11.2477
oke	-11.2477
);	-11.2479
lingar	-11.248
▁rättvist	-11.2482
minne	-11.2482
staten	-11.2483
▁Dar	-11.249
▁nyss	-11.2493
▁inneha	-11.2495
▁inleda	-11.2497
bland	-11.2498
▁Dela	-11.2499
▁raka	-11.25
▁Jane	-11.25
▁teckna	-11.2504
slå	-11.2506
▁engelsk	-11.2507
▁GDPR	-11.2507
▁Snälla	-11.2507
▁kompromiss	-11.2507
▁Strategi	-11.2507
▁Taylor	-11.2507
▁trupper	-11.2507
▁stroke	-11.2507
▁Linux	-11.2507
▁Källa	-11.2507
▁Francisco	-11.2507
hö	-11.2508
▁Anledningen	-11.2508
▁Kommun	-11.2508
▁konkreta	-11.2509
▁rita	-11.251
institution	-11.251
▁inslag	-11.251
▁enzym	-11.2511
mög	-11.2512
▁Garden	-11.2512
▁ersätter	-11.2514
▁elektro	-11.252
▁vätska	-11.252
▁krona	-11.252
▁dygnet	-11.2524
▁Costa	-11.2525
▁norska	-11.2526
▁Upplev	-11.2527
▁styrning	-11.2529
▁hävdade	-11.2533
▁moraliska	-11.2536
▁sträcka	-11.2536
▁formulär	-11.2539
▁skil	-11.2539
▁eftermiddag	-11.254
▁Yu	-11.254
▁restaurangen	-11.2541
▁störa	-11.2542
▁uppmärksam	-11.2543
diska	-11.2543
säker	-11.2544
pression	-11.2544
▁landskapet	-11.2545
▁akademisk	-11.2547
uel	-11.2548
▁Ban	-11.2549
▁Not	-11.2552
wn	-11.2553
▁pri	-11.2555
▁synlig	-11.2556
▁beteenden	-11.2557
▁grundar	-11.2559
▁Polisen	-11.2559
ship	-11.2561
▁skrivet	-11.2561
▁nyår	-11.2561
▁förfall	-11.2564
▁julen	-11.2565
satsen	-11.2565
människor	-11.2566
lagda	-11.2566
▁flygning	-11.2566
▁gifte	-11.2567
▁spar	-11.257
▁värmen	-11.2571
pröva	-11.2573
▁Spara	-11.2574
▁utrusta	-11.2575
▁Bok	-11.2576
känna	-11.2577
VI	-11.2577
▁Anne	-11.2577
▁MI	-11.2578
▁respekterar	-11.258
▁religionen	-11.2581
skick	-11.2583
▁äktenskapet	-11.2584
▁frivillig	-11.2586
gått	-11.2593
▁profet	-11.2595
▁49	-11.2596
▁kommitté	-11.2596
▁tyg	-11.2596
▁Eu	-11.2598
itz	-11.2599
▁Väx	-11.2608
ington	-11.2609
▁Education	-11.2611
▁Plötsligt	-11.2611
▁cannabis	-11.2611
▁kompensera	-11.2611
▁rekrytera	-11.2611
▁avslappnad	-11.2611
▁piano	-11.2611
▁blödning	-11.2611
▁Josef	-11.2611
▁galax	-11.2611
▁Philip	-11.2611
▁smink	-11.2612
åldern	-11.2612
▁Queen	-11.2613
▁fascinerande	-11.2613
▁sensor	-11.2615
▁överträffa	-11.2616
▁förbehåll	-11.2617
cept	-11.2618
▁beredda	-11.2621
▁influensa	-11.2621
departementet	-11.2621
▁blek	-11.2622
▁förlåtelse	-11.2622
▁omröstning	-11.2622
▁mörkt	-11.2623
▁omvandling	-11.2626
▁<3	-11.2628
uro	-11.2628
▁hu	-11.263
▁innehav	-11.2631
▁Beskrivning	-11.2632
ifiering	-11.2636
▁fet	-11.2636
-5	-11.2637
▁DU	-11.2638
stjänst	-11.2638
▁Ah	-11.2639
▁släng	-11.2639
▁Föräldrar	-11.2639
lova	-11.2641
trans	-11.2642
▁handlare	-11.2643
▁forma	-11.2646
▁teamet	-11.2656
47	-11.2657
▁förbättrad	-11.2657
▁himmelen	-11.2657
hä	-11.2658
▁Sommar	-11.2658
▁utländsk	-11.2659
car	-11.266
element	-11.2661
bur	-11.2663
▁@	-11.2665
båt	-11.2666
▁inbyggda	-11.2666
stift	-11.2667
cast	-11.267
▁representanter	-11.2671
telefon	-11.2672
▁industriell	-11.2672
vas	-11.2675
▁Kill	-11.2679
▁upplösning	-11.2679
▁listor	-11.268
▁Öster	-11.2681
▁församlingen	-11.2684
hjul	-11.2684
RC	-11.2685
▁Hot	-11.2685
▁evolution	-11.2687
▁tveka	-11.2687
He	-11.2687
▁sekretess	-11.2689
planer	-11.2694
▁verksam	-11.2695
olin	-11.2695
versionen	-11.2701
▁fras	-11.2701
▁vågor	-11.2704
▁52	-11.2706
ljud	-11.2707
▁förändringen	-11.2709
▁Sel	-11.2713
▁integrerade	-11.2714
▁slutat	-11.2714
▁Palestina	-11.2716
▁vittnesbörd	-11.2716
▁våldtäkt	-11.2716
▁bitcoin	-11.2716
▁sprider	-11.2716
▁mångsidig	-11.2716
▁överensstämmer	-11.2716
▁Control	-11.2716
▁Special	-11.2716
▁Edward	-11.2716
gue	-11.2717
▁sammanlagt	-11.2717
▁asyl	-11.2717
▁Gaza	-11.2718
▁meningsfull	-11.2718
▁2,5	-11.2718
▁Kommissionens	-11.2719
▁kärleksfull	-11.2721
▁Roger	-11.2722
▁inspektion	-11.2722
▁Saab	-11.2723
▁hämtar	-11.2724
▁programvaran	-11.2725
▁Sy	-11.2726
-20	-11.2729
▁titlar	-11.2729
▁ultimata	-11.273
▁rida	-11.2732
DS	-11.2733
▁kommunal	-11.2736
▁Old	-11.2738
▁sektorer	-11.2738
▁berättigade	-11.2738
stycke	-11.2739
▁utnyttjande	-11.2739
▁Bak	-11.2739
tekniker	-11.2739
▁can	-11.274
stark	-11.2743
ringar	-11.2744
▁mono	-11.2745
57	-11.2745
▁EUR	-11.2746
▁tackar	-11.2746
▁arkitekt	-11.275
▁våningen	-11.2751
genom	-11.2753
firma	-11.2754
▁stött	-11.2755
tillstånd	-11.2756
▁kvinnlig	-11.2759
ray	-11.2764
▁skratt	-11.2764
▁runtom	-11.2764
nik	-11.2771
▁term	-11.2772
▁åtfölj	-11.2775
▁viner	-11.2776
▁sim	-11.2776
volym	-11.2778
cykel	-11.2779
▁trott	-11.2782
▁århundraden	-11.2783
pla	-11.2783
iella	-11.2784
verksamheten	-11.2784
▁motsatta	-11.2785
zer	-11.2786
▁körning	-11.2788
▁rec	-11.2788
styrelsen	-11.2789
▁kal	-11.2791
▁introducera	-11.2792
▁stämma	-11.2794
▁Well	-11.2795
vu	-11.2796
▁arab	-11.2798
▁kata	-11.2799
▁Bru	-11.2799
▁formel	-11.2799
▁Sub	-11.2799
▁Gro	-11.28
head	-11.2802
▁falsk	-11.2802
mässig	-11.2802
▁förhindrar	-11.2804
▁Sl	-11.2809
▁fyllt	-11.281
olo	-11.2812
▁tävlingar	-11.2813
läget	-11.2814
▁skogar	-11.2818
▁kunskapen	-11.2818
▁marknadsför	-11.2822
▁välgörenhet	-11.2823
▁Kvalitet	-11.2823
▁Zeeland	-11.2823
▁råvaror	-11.2823
▁bokstavligen	-11.2823
▁bemöt	-11.2823
▁Kultur	-11.2824
▁Sweden	-11.2824
▁bakåt	-11.2824
▁ondska	-11.2825
▁Basera	-11.2826
▁SEK	-11.2826
▁MBA	-11.2827
▁hotar	-11.2828
▁premiär	-11.2829
▁Lycka	-11.2829
fon	-11.283
▁begått	-11.283
▁flykt	-11.2833
▁lanserades	-11.2837
▁överförs	-11.2837
▁bekräftelse	-11.2837
▁ceremoni	-11.2838
kov	-11.2839
▁Long	-11.2842
▁allergisk	-11.2842
▁dokumentet	-11.2843
pos	-11.2845
processer	-11.2846
trogen	-11.2846
▁försiktigt	-11.2846
▁Möjlighet	-11.2847
▁femton	-11.2847
▁Sony	-11.2848
▁hamnen	-11.2849
▁tabell	-11.285
▁uppstod	-11.285
ärer	-11.285
▁hall	-11.2852
▁uppdateras	-11.2853
ämne	-11.2853
▁variant	-11.2853
▁studerande	-11.2855
fot	-11.2856
effektiv	-11.2856
▁filen	-11.2858
lås	-11.2858
▁platserna	-11.2858
▁vardagen	-11.2858
odo	-11.2859
Po	-11.2859
nia	-11.2864
▁ändrats	-11.2869
▁Bad	-11.2873
▁HP	-11.2873
▁Topp	-11.2878
▁levt	-11.288
▁temperaturer	-11.2881
▁solid	-11.2883
▁konstaterade	-11.2884
bibliotek	-11.2885
offer	-11.2885
▁typiskt	-11.2886
hållande	-11.2886
▁psykiska	-11.2887
▁ljusa	-11.289
▁kommersiellt	-11.2894
▁bestämmelse	-11.2896
▁Mid	-11.2897
▁PR	-11.2898
▁rak	-11.2898
▁hylla	-11.2899
▁besatt	-11.2904
▁utfört	-11.2904
42	-11.2905
▁Bou	-11.2908
▁okända	-11.2908
▁förlossning	-11.2908
▁psykisk	-11.2911
▁grundade	-11.2911
lia	-11.2913
aya	-11.2915
▁kontors	-11.2917
rst	-11.2918
fördelning	-11.2919
▁tryckt	-11.292
bre	-11.2921
▁rimliga	-11.2924
▁härlighet	-11.2926
▁konkret	-11.2928
transplantation	-11.293
▁WordPress	-11.293
▁erbjöd	-11.293
▁självförtroende	-11.293
▁Således	-11.293
▁erövra	-11.293
▁tatuering	-11.293
▁Network	-11.293
▁övervinna	-11.293
▁high	-11.293
▁division	-11.2931
▁doktorand	-11.2932
▁nationellt	-11.2932
▁1991	-11.2932
▁beviljas	-11.2932
▁molekyl	-11.2934
▁geografiska	-11.2934
▁förkorta	-11.2935
▁lyssnade	-11.2936
▁action	-11.2936
▁Up	-11.2937
▁godkände	-11.2938
▁hemifrån	-11.2939
▁Ned	-11.294
▁bitter	-11.2941
▁stunder	-11.2946
▁Jonas	-11.2946
▁lönsamhet	-11.2947
▁Call	-11.2948
▁Kuba	-11.2949
▁väntan	-11.2952
tips	-11.2955
▁Dis	-11.2959
▁tillräckliga	-11.2961
▁mjuka	-11.2963
▁72	-11.2964
▁dop	-11.2973
▁överflöd	-11.2975
RT	-11.2976
▁missade	-11.2977
▁manuellt	-11.2977
▁rasism	-11.2978
▁konstaterar	-11.2978
▁tysta	-11.2979
▁styrs	-11.2981
▁Stå	-11.2981
▁avgör	-11.2983
▁sval	-11.2983
63	-11.2985
▁ap	-11.2988
wer	-11.2988
▁doktor	-11.2989
▁ark	-11.299
höjning	-11.2991
AB	-11.2991
spar	-11.2992
dimension	-11.2993
operatör	-11.2994
poäng	-11.2997
▁smärtan	-11.2998
▁dynamiska	-11.2999
▁antogs	-11.2999
▁väger	-11.3002
▁avslutar	-11.3004
▁kategorin	-11.3005
▁applikation	-11.3006
▁nyheten	-11.3008
iko	-11.3008
▁byggnads	-11.301
▁kopplat	-11.301
▁skrattar	-11.301
▁Vägen	-11.3011
cing	-11.3012
▁passagerar	-11.3013
itan	-11.3013
▁inspirerad	-11.3019
▁balansera	-11.3021
▁kemisk	-11.3021
sign	-11.3022
▁mördare	-11.3022
▁Ange	-11.3022
▁robotar	-11.3022
▁dropp	-11.3023
▁antagande	-11.3025
▁godkänts	-11.3025
▁kvalificerad	-11.3028
▁Fly	-11.3028
▁Term	-11.3029
bringa	-11.3034
▁säljare	-11.3039
	-11.3039
▁auktoritet	-11.3039
▁besvikelse	-11.3039
▁bjuda	-11.3039
▁funktionshinder	-11.3039
▁jurisdiktion	-11.3039
▁popularitet	-11.3039
▁roulette	-11.3039
▁spektakulär	-11.3039
▁hektar	-11.3039
▁BNP	-11.3039
▁Partner	-11.3039
▁Sälj	-11.3039
▁kompetent	-11.3039
▁brutal	-11.3039
▁robust	-11.3039
▁överlevde	-11.3039
▁Teknik	-11.3039
▁Libyen	-11.3039
▁isolering	-11.3039
key	-11.3039
▁sprang	-11.304
▁nedladdning	-11.304
▁Albert	-11.304
▁FÖR	-11.3041
▁hyres	-11.3041
Ho	-11.3045
▁tål	-11.3046
41	-11.3046
▁Blev	-11.3046
▁öra	-11.3046
elle	-11.3047
▁parametrar	-11.3047
▁terrass	-11.3049
▁hälsosamt	-11.3049
▁Känn	-11.305
▁omgivning	-11.3051
▁valutor	-11.3052
regering	-11.3052
▁åldrande	-11.3053
▁grill	-11.3055
tak	-11.3056
▁tomma	-11.3061
▁traditionellt	-11.3063
▁intervjuer	-11.3069
▁Cri	-11.307
▁mar	-11.3073
▁märkning	-11.308
MI	-11.3083
▁jobbigt	-11.3085
lång	-11.3086
splaner	-11.3086
såg	-11.309
▁relatera	-11.309
▁punkten	-11.3093
▁längden	-11.3094
cro	-11.31
▁30-	-11.3103
bestämmelser	-11.3104
▁fördöm	-11.3104
▁frivilligt	-11.3106
▁figur	-11.3106
lätt	-11.3108
växt	-11.3108
försök	-11.311
▁Zo	-11.3111
▁professionellt	-11.3112
???	-11.3115
▁IN	-11.3116
▁jämn	-11.3117
▁Jobb	-11.312
skikt	-11.312
▁killen	-11.3126
▁förnekar	-11.3128
77	-11.3128
faktorer	-11.3129
▁Prag	-11.313
▁byar	-11.3131
▁arbeten	-11.3132
▁sällsynt	-11.3132
skå	-11.3133
▁genomsnittlig	-11.3142
vanor	-11.3143
korg	-11.3145
▁sammanfattning	-11.3145
▁Sir	-11.3146
namnet	-11.3148
▁mäktig	-11.3148
gården	-11.3149
▁Analytics	-11.3149
▁Society	-11.3149
▁absoluta	-11.3149
▁kognitiv	-11.3149
▁åklagar	-11.3149
▁Adobe	-11.3149
▁Kunskap	-11.3149
▁afrikansk	-11.3149
▁förvärra	-11.3149
▁anslutna	-11.3149
▁sjunger	-11.3149
▁Dubai	-11.3149
▁låne	-11.3149
▁revidera	-11.3149
▁vrid	-11.3149
▁porr	-11.315
▁shoppa	-11.315
▁föreskrifter	-11.3151
åring	-11.3151
▁1984	-11.3151
uti	-11.3152
▁vinkel	-11.3153
▁orkar	-11.3153
▁Yoga	-11.3154
▁off	-11.3158
kylning	-11.3158
speriod	-11.316
assi	-11.3162
▁barnbarn	-11.3162
utvecklingen	-11.3165
▁kretsar	-11.3166
▁avslöjade	-11.3166
▁turnering	-11.3168
less	-11.3168
kommit	-11.3169
▁drack	-11.3169
time	-11.3169
övning	-11.3172
▁roligare	-11.3174
▁fastighet	-11.3175
▁Styr	-11.3176
▁Victoria	-11.3177
▁dyk	-11.3178
▁Tol	-11.318
▁intyg	-11.3181
▁Studien	-11.3182
▁samlat	-11.3183
▁strål	-11.3184
▁underhålls	-11.3186
▁bedömningen	-11.3188
rike	-11.319
▁ock	-11.3191
stjärnig	-11.3192
▁armen	-11.3196
▁Law	-11.3197
▁producenter	-11.3199
▁konstnären	-11.3201
irk	-11.3203
▁konsekvens	-11.3205
bränd	-11.3207
▁klocka	-11.3213
▁försörjning	-11.3214
▁Väg	-11.3215
▁län	-11.3216
▁rättfärdiga	-11.3217
▁59	-11.3218
mask	-11.322
▁läkar	-11.3223
▁lägg	-11.3226
▁Ljus	-11.3228
▁önskat	-11.3228
klassen	-11.3228
-12	-11.323
ägg	-11.3231
▁ögonblicket	-11.3231
/4	-11.3236
▁utformat	-11.3238
▁GB	-11.3238
▁intelligent	-11.3238
På	-11.3241
bak	-11.3242
▁installerar	-11.3243
▁felaktig	-11.3249
byrån	-11.325
8)	-11.3252
▁arbetsmarknaden	-11.3253
▁riktade	-11.3253
▁Industri	-11.3255
▁rader	-11.3255
produktionen	-11.3257
▁fonden	-11.3259
centra	-11.3259
▁olycklig	-11.326
▁Argentina	-11.326
▁fäder	-11.326
▁förfäder	-11.326
▁luftkonditioner	-11.326
▁obekväm	-11.326
▁Jakob	-11.326
▁Organisation	-11.326
▁komplikationer	-11.326
▁emotionell	-11.326
▁kylskåp	-11.326
▁kosttillskott	-11.326
▁Christian	-11.3261
▁baksidan	-11.3262
▁drabba	-11.3262
▁1986	-11.3262
▁hälsovård	-11.3262
▁fristående	-11.3262
▁kollektiv	-11.3263
IL	-11.3264
utskottet	-11.3267
▁Framför	-11.3268
▁gula	-11.3268
glar	-11.3268
▁Förena	-11.3271
▁betydelsefull	-11.3272
▁diagram	-11.3274
''	-11.3274
▁rapporterats	-11.3275
gil	-11.3276
fal	-11.3277
behåller	-11.3279
▁Ron	-11.3287
▁Cho	-11.3288
61	-11.3289
PO	-11.329
▁kapitalistisk	-11.3291
▁Lös	-11.3296
▁sökt	-11.3297
▁öar	-11.3299
▁neka	-11.33
Ni	-11.3301
▁konflikten	-11.3304
▁utsidan	-11.3304
▁påståenden	-11.3307
▁ag	-11.3312
▁frånvaro	-11.3313
▁tappar	-11.3315
bordet	-11.3317
▁konstverk	-11.3318
trat	-11.332
dalen	-11.3322
▁paret	-11.3322
▁Nick	-11.3324
▁felaktiga	-11.3324
gate	-11.3325
snummer	-11.3325
verkande	-11.3326
garanti	-11.3328
▁modernt	-11.333
▁förenlig	-11.333
▁mottagare	-11.333
▁berättat	-11.3331
▁parlament	-11.3331
▁vanligare	-11.3332
▁överträdelse	-11.3332
sö	-11.3333
▁bussen	-11.3336
▁lyfter	-11.3337
▁charmig	-11.3339
▁entreprenörer	-11.3342
▁betal	-11.3344
rian	-11.3344
▁klippa	-11.3345
lever	-11.3355
▁temperaturen	-11.3358
▁utfärdat	-11.3361
▁skörda	-11.3361
▁bekräftat	-11.3363
▁vä	-11.3363
▁fattas	-11.3364
▁(18	-11.3367
▁vidtas	-11.3367
▁inlägget	-11.3371
distributör	-11.3372
▁Rekommendera	-11.3372
▁mirakel	-11.3372
▁räckvidd	-11.3372
▁solidaritet	-11.3372
▁transparent	-11.3372
▁Utveckla	-11.3372
▁BBC	-11.3372
▁ifrågasätta	-11.3372
▁föreslagna	-11.3372
▁Cancer	-11.3372
▁Hjärt	-11.3373
▁prioriteringar	-11.3373
▁uppriktig	-11.3373
▁entré	-11.3373
▁föregångare	-11.3375
▁General	-11.3376
▁Gäst	-11.3377
▁återkommande	-11.3378
▁upplevde	-11.3379
▁logik	-11.3381
förbundet	-11.3382
▁försvaga	-11.3384
▁pund	-11.3385
▁Hat	-11.3388
▁Kha	-11.3389
▁västerländska	-11.339
▁Road	-11.339
▁lösas	-11.3391
▁Jeff	-11.3391
▁Emma	-11.3393
▁car	-11.3393
▁konkurrensen	-11.3393
ammar	-11.3394
▁trädgårdar	-11.3395
itch	-11.3395
▁maximera	-11.3396
▁förlita	-11.3397
▁påverkat	-11.3397
▁tidningar	-11.3398
sidig	-11.3399
mån	-11.3402
▁Fre	-11.3403
▁skiva	-11.3403
▁länka	-11.3403
▁belastning	-11.3403
▁inbjudan	-11.3403
▁laglig	-11.3405
▁mördade	-11.3406
lay	-11.3408
▁förhands	-11.3409
92	-11.3409
▁termin	-11.3409
bitar	-11.3411
▁etablerat	-11.3411
▁mi	-11.3411
▁orsakat	-11.3413
▁godkänd	-11.3416
▁over	-11.3417
▁debatten	-11.3417
▁krets	-11.3423
▁minskad	-11.3424
▁skoj	-11.3425
▁kvinno	-11.3432
▁trädet	-11.3432
▁Prata	-11.3432
▁specialiserad	-11.3432
▁troll	-11.3437
▁mekanismer	-11.344
▁chefen	-11.344
social	-11.3444
▁romantisk	-11.3445
▁bankkonto	-11.3449
stör	-11.3449
lämning	-11.345
slösningar	-11.3453
▁kongressen	-11.3454
▁decennier	-11.3455
MP	-11.3456
olf	-11.3458
▁personerna	-11.3459
arbetet	-11.3461
koncept	-11.3469
▁medföra	-11.3469
▁individuell	-11.3472
träda	-11.3475
▁chip	-11.3475
▁kläd	-11.3475
▁trafiken	-11.3479
▁Games	-11.3479
▁antika	-11.3481
▁konsten	-11.3482
▁50-	-11.3482
udi	-11.3482
hämtning	-11.3484
fredsställelse	-11.3485
▁Anden	-11.3486
▁vänliga	-11.3486
Omdirigera	-11.3486
▁Elizabeth	-11.3486
▁Innovation	-11.3486
▁hunnit	-11.3486
▁utplåna	-11.3486
▁Språk	-11.3486
▁bedriver	-11.3486
▁föreligger	-11.3486
▁gällde	-11.3486
▁aptit	-11.3486
▁Mountain	-11.3486
▁ansluten	-11.3486
▁attrahera	-11.3486
▁Ocean	-11.3486
▁tandläkare	-11.3486
▁hårddisk	-11.3486
▁Analys	-11.3486
▁pratat	-11.3487
▁Väldig	-11.3487
▁materiella	-11.3487
▁hette	-11.3488
▁(3)	-11.3488
TR	-11.3488
▁puls	-11.3489
▁bana	-11.3489
▁matcha	-11.3489
▁partiklar	-11.349
▁Show	-11.349
▁befogenheter	-11.3491
▁Good	-11.3491
▁efterlevnad	-11.3491
attacker	-11.3491
DR	-11.3494
▁monument	-11.3494
▁programmera	-11.3494
▁finger	-11.3495
▁Okej	-11.3495
▁larm	-11.3495
▁Glas	-11.3495
▁Kap	-11.3497
▁gästerna	-11.35
▁trick	-11.35
ulär	-11.3501
artiklar	-11.3501
media	-11.3503
▁krävande	-11.3503
▁Lars	-11.3503
▁Nation	-11.3505
▁Bör	-11.3506
▁precision	-11.3509
lagstiftning	-11.3509
▁skyddet	-11.3511
▁uppgår	-11.3511
▁katolska	-11.3511
▁snön	-11.3515
lagring	-11.3515
▁Arbetet	-11.3516
▁marginal	-11.3516
▁företagare	-11.3517
76	-11.3518
europa	-11.352
▁DC	-11.3521
▁stolthet	-11.3521
▁rengöra	-11.3523
▁sh	-11.3523
▁meddelandet	-11.3523
▁graden	-11.3526
experter	-11.3527
▁tredjeland	-11.353
▁vävnad	-11.353
▁väcker	-11.3531
stängning	-11.3531
▁karaktärer	-11.3534
▁sinnet	-11.3535
▁utnyttjas	-11.3536
▁AM	-11.3537
▁rysk	-11.354
▁översikt	-11.3543
värme	-11.3546
Do	-11.3546
möjligheter	-11.355
▁cookie	-11.3551
▁videor	-11.3553
perspektiv	-11.3556
protokoll	-11.3556
▁manus	-11.3556
▁beslutar	-11.3556
vänlig	-11.3556
▁bekanta	-11.3559
tusen	-11.3561
strand	-11.3561
▁tåget	-11.3567
▁dikt	-11.3568
chan	-11.3568
timmars	-11.3571
licens	-11.3573
core	-11.3576
sjukdomar	-11.3579
▁motorväg	-11.3579
▁villig	-11.3579
▁kapitalet	-11.3582
gåva	-11.3582
fv	-11.3583
▁Kin	-11.3584
▁substans	-11.3592
▁(5	-11.3599
lagd	-11.3599
▁Chrome	-11.3601
▁apotek	-11.3601
▁prioritet	-11.3601
▁cirkel	-11.3601
▁renovering	-11.3601
▁banbrytande	-11.3601
▁Premier	-11.3601
▁oklart	-11.3601
▁skruv	-11.3601
▁avundsjuk	-11.3601
▁inträffa	-11.3602
▁klassiker	-11.3602
▁mormor	-11.3603
▁lyder	-11.3604
▁kapitalismen	-11.3604
▁övergång	-11.3604
▁påminna	-11.3604
▁världar	-11.3605
▁hemland	-11.3605
▁beteckna	-11.3605
▁tillåts	-11.3606
▁tonåringar	-11.3607
▁casinon	-11.3607
lägenhet	-11.3607
▁kolesterol	-11.3609
▁jämförbar	-11.361
-8	-11.3611
▁Hunt	-11.3611
▁respons	-11.3612
▁konkurs	-11.3612
▁inspirerande	-11.3612
▁brottslighet	-11.3613
▁Word	-11.3614
96	-11.3617
▁Hong	-11.362
▁ev	-11.3622
▁sångare	-11.3622
▁bekräftade	-11.3623
▁utförande	-11.3624
▁buk	-11.3625
▁Boy	-11.3626
▁dragit	-11.3628
▁opera	-11.3629
▁Eric	-11.3631
▁psykologi	-11.3631
▁öva	-11.3635
▁summan	-11.3635
LL	-11.3636
▁utmanar	-11.3636
▁utställningen	-11.3637
▁grepp	-11.3638
▁sannolikhet	-11.3639
▁förekomsten	-11.364
▁11:	-11.3641
CD	-11.3646
▁skilda	-11.3648
▁cyklar	-11.3648
▁blogga	-11.3649
läger	-11.365
▁väck	-11.365
▁chi	-11.3652
▁höjdpunkt	-11.3652
▁Mega	-11.3653
anten	-11.3653
▁mystisk	-11.3654
▁lastbil	-11.3655
fekt	-11.3655
▁riket	-11.3656
parten	-11.3658
märkt	-11.366
appen	-11.3662
FC	-11.3665
▁utseendet	-11.3667
▁mätt	-11.3667
▁fötterna	-11.3668
bedömning	-11.3671
▁Hår	-11.3672
rapporter	-11.3673
▁intag	-11.3678
ministern	-11.3679
gatan	-11.368
▁tillståndet	-11.3681
▁3)	-11.3682
▁ekologiska	-11.3683
▁tillfälliga	-11.3684
▁Epi	-11.3684
kanal	-11.3685
▁ordningen	-11.3685
79	-11.3685
▁genererar	-11.3688
▁ärenden	-11.369
▁Brist	-11.3698
▁elegant	-11.3698
fotograf	-11.3701
▁utbildade	-11.3703
▁tuffa	-11.3704
1/	-11.3705
▁lida	-11.371
resurser	-11.3711
▁billig	-11.3712
▁Ball	-11.3712
▁förekomma	-11.3715
iki	-11.3715
▁Festival	-11.3717
▁beskrev	-11.3717
▁pizza	-11.3717
▁vulkan	-11.3717
▁yrkesverksamma	-11.3717
▁PDF	-11.3717
▁episod	-11.3717
▁tidsfrist	-11.3717
▁uppenbarligen	-11.3717
▁Tesla	-11.3717
▁artificiell	-11.3717
▁otillräcklig	-11.3718
▁uppdaterade	-11.3718
▁1992	-11.3719
▁GUD	-11.372
▁ranka	-11.372
▁HIV	-11.3721
Joh	-11.3722
ó	-11.3723
▁anknytning	-11.3724
▁tittat	-11.3724
kött	-11.3725
▁klick	-11.3725
▁nationalpark	-11.3727
▁nycklar	-11.3727
▁värma	-11.3728
▁rättfärdighet	-11.3729
▁glid	-11.3729
▁Kunde	-11.373
▁strejk	-11.3734
▁indikerar	-11.3735
▁klubbar	-11.3735
region	-11.3738
▁sonen	-11.3738
2012	-11.3739
skontroll	-11.3741
▁Marie	-11.3743
▁ansikten	-11.3744
▁textil	-11.3744
▁nationen	-11.3746
▁invånarna	-11.3751
▁Förlåt	-11.3754
▁dolda	-11.3754
▁demokratin	-11.3756
▁Dor	-11.3758
▁tank	-11.3758
▁installerat	-11.3759
rodde	-11.3759
▁idrottare	-11.376
▁mineral	-11.376
▁insidan	-11.3763
▁Lokala	-11.3765
medlem	-11.3766
▁Linda	-11.3768
▁behoven	-11.3769
▁fängsla	-11.3772
▁genomförts	-11.3773
▁Tanken	-11.3779
▁järnväg	-11.3781
▁påpeka	-11.3782
fabrik	-11.3789
▁Svensk	-11.3794
Ingen	-11.3794
▁finaste	-11.3797
räkna	-11.3798
▁tappat	-11.3798
▁strategiskt	-11.38
▁uttryckt	-11.3802
sajt	-11.3803
▁sänkt	-11.3804
▁optisk	-11.3804
▁lämnats	-11.3804
▁smidigt	-11.3806
iterna	-11.3812
IK	-11.3812
eli	-11.3815
giva	-11.3816
▁samtycker	-11.3817
ido	-11.3817
Ett	-11.3819
▁löner	-11.382
ssar	-11.3821
bbar	-11.3826
▁rimligt	-11.3828
trycket	-11.3829
▁diskuterar	-11.3831
agent	-11.3832
▁torn	-11.3834
}	-11.3835
▁Medelhavet	-11.3835
▁templet	-11.3835
▁hunger	-11.3835
▁palats	-11.3835
▁besked	-11.3835
▁Little	-11.3835
▁webbsidor	-11.3835
▁mäktiga	-11.3836
▁livskvalitet	-11.3836
▁gömd	-11.3836
▁återkommer	-11.3837
avgift	-11.3837
▁bensin	-11.3837
▁Ladda	-11.3838
▁läsk	-11.3839
ladda	-11.384
fredsställande	-11.384
▁verksamma	-11.3841
▁Stäng	-11.3841
▁Robin	-11.3841
▁Nordic	-11.3842
...”	-11.3843
▁existerande	-11.3844
▁Ryan	-11.3844
▁stigande	-11.3847
▁varierande	-11.3847
▁klassificering	-11.3847
▁Jim	-11.3849
▁aggressiv	-11.3851
▁morse	-11.3851
▁skyddade	-11.3854
▁översätta	-11.3854
upplevelsen	-11.3854
gener	-11.3856
▁varu	-11.3858
fond	-11.3858
▁Värm	-11.386
▁ambassadör	-11.3861
▁kameror	-11.3862
▁släktingar	-11.3867
▁°	-11.3868
▁Användare	-11.3869
▁framställning	-11.387
▁ÄR	-11.3872
risker	-11.3872
▁ingenjör	-11.3875
▁motsatt	-11.3875
▁flygplatser	-11.3877
▁slösa	-11.388
▁etikett	-11.388
▁teman	-11.3882
lax	-11.3882
▁lönsam	-11.3883
▁lock	-11.3887
▁Opti	-11.389
skilda	-11.39
▁Mad	-11.3904
▁skadlig	-11.3906
intag	-11.3907
▁institutionen	-11.3909
papper	-11.391
▁Spe	-11.391
▁Ray	-11.3914
bomb	-11.3914
▁kärnkraft	-11.3916
▁genomfört	-11.3917
▁nedre	-11.3917
No	-11.3918
▁böner	-11.3919
▁gården	-11.3921
▁varianter	-11.3922
▁gl	-11.3923
▁Göteborgs	-11.3924
▁vagn	-11.3926
▁6:	-11.3927
öarna	-11.3931
▁spänn	-11.3931
▁målgrupp	-11.3931
▁ägande	-11.3937
▁tillverkat	-11.3937
appar	-11.3939
▁mång	-11.3941
▁vecko	-11.3941
11)	-11.3941
▁Studie	-11.3942
▁RE	-11.3944
▁beloppet	-11.3944
transport	-11.3945
▁Thi	-11.3948
▁utesluta	-11.3948
samtal	-11.3951
▁Förbättra	-11.3954
▁Galaxy	-11.3954
▁Venezuela	-11.3954
▁exemplet	-11.3954
▁identifiering	-11.3954
▁kalcium	-11.3954
▁Republiken	-11.3954
▁prinsessa	-11.3954
▁konfigurera	-11.3954
▁trailer	-11.3954
▁möss	-11.3954
▁svält	-11.3954
▁tragisk	-11.3954
▁dömd	-11.3955
▁noterade	-11.3955
▁studerar	-11.3955
▁Kursen	-11.3956
▁Potter	-11.3956
▁morgondagen	-11.3956
▁anbud	-11.3957
▁medlemsländer	-11.3958
▁synen	-11.3959
▁Sista	-11.3959
▁GPS	-11.396
▁mu	-11.3961
▁Forum	-11.3962
kapacitet	-11.3963
▁dominerande	-11.3963
▁algoritm	-11.3965
▁rund	-11.3965
▁framkalla	-11.3967
▁längtar	-11.3968
▁domännamn	-11.3968
▁elden	-11.3968
▁marina	-11.3971
▁ingått	-11.3973
▁administratör	-11.3974
▁dyrka	-11.3976
▁komplicerade	-11.3976
/10	-11.3977
▁identifieras	-11.398
▁Tala	-11.398
Al	-11.3984
▁Pappa	-11.3985
▁gall	-11.3987
▁SD	-11.3988
▁gam	-11.3989
UT	-11.3989
▁underhållande	-11.3989
▁installeras	-11.399
▁Detsamma	-11.3992
miljöer	-11.3992
▁Hud	-11.3996
▁organisk	-11.3997
▁hörnet	-11.3998
94	-11.3998
▁avled	-11.4
bundna	-11.4
9/	-11.4
▁involverade	-11.4002
sdagen	-11.4002
▁domar	-11.4009
▁virtuell	-11.401
▁högkvalitativa	-11.401
▁japansk	-11.4011
skri	-11.4012
▁Line	-11.4015
nnie	-11.4016
▁47	-11.4017
▁vild	-11.4018
höll	-11.4025
▁tänderna	-11.4025
▁ideologi	-11.4025
▁tår	-11.4027
märkning	-11.4027
▁förfrågan	-11.4028
skift	-11.4032
gli	-11.4039
▁ursprungs	-11.404
▁utförts	-11.4041
▁interagera	-11.4041
förare	-11.4046
▁moduler	-11.4048
▁modul	-11.4048
skog	-11.4049
▁Studier	-11.4049
▁lagrar	-11.4052
▁Problem	-11.4054
▁Bud	-11.4058
▁lögner	-11.406
▁140	-11.4064
▁läro	-11.4065
vagn	-11.4066
blogg	-11.4066
▁flyttat	-11.4067
▁automatisk	-11.4068
▁Mä	-11.4071
▁hacka	-11.4071
▁lojal	-11.4073
▁Hittills	-11.4074
▁Klimat	-11.4074
▁Pakistan	-11.4074
▁manipulera	-11.4074
▁Material	-11.4074
▁kolhydrater	-11.4074
▁plånbok	-11.4074
▁påminnelse	-11.4074
▁beslutsfattande	-11.4074
▁hänför	-11.4074
▁återbetala	-11.4074
▁bröstcancer	-11.4075
▁tredjeparts	-11.4075
▁Ungern	-11.4075
hag	-11.4075
▁miljöpåverkan	-11.4075
▁Watch	-11.4075
▁Transport	-11.4075
▁:-)	-11.4075
bör	-11.4076
▁Prova	-11.4077
▁återstående	-11.4078
▁designen	-11.4079
▁museer	-11.4079
▁sjöng	-11.4084
▁arbetsplatsen	-11.4085
▁ståndpunkt	-11.4085
förbrukningen	-11.4087
▁hybrid	-11.4088
▁döttrar	-11.4088
▁höj	-11.4091
näs	-11.4091
lärare	-11.4091
▁skr	-11.41
▁mottagande	-11.4102
▁leverantören	-11.4103
▁framgångar	-11.4105
▁lat	-11.4106
▁Lika	-11.4106
▁Rob	-11.4107
▁Pack	-11.4109
▁operatör	-11.4113
▁frukter	-11.4113
2016	-11.4118
62	-11.4119
iell	-11.4121
▁otroliga	-11.4123
▁tillskott	-11.4126
▁fattig	-11.4127
▁klienter	-11.4128
UN	-11.4128
▁bussar	-11.4131
▁Dö	-11.4131
▁AV	-11.4132
▁Såg	-11.4135
▁Cit	-11.4136
▁mottagaren	-11.4136
▁mentor	-11.4138
▁siffrorna	-11.4142
▁måttlig	-11.4144
▁anteckningar	-11.4144
point	-11.4146
▁köks	-11.4146
klipp	-11.415
fast	-11.415
date	-11.415
▁1990-	-11.4152
▁övertygade	-11.4152
▁storlekar	-11.4157
▁ansågs	-11.416
▁förkasta	-11.4163
▁bö	-11.4167
▁låsa	-11.4169
tekniken	-11.417
▁tumör	-11.4171
▁tillämpningar	-11.4172
rapport	-11.4173
▁Stör	-11.4173
▁öppnades	-11.4174
▁trovärdig	-11.4175
▁semi	-11.4179
▁Union	-11.4179
▁Oh	-11.418
▁kran	-11.4188
▁trappa	-11.4194
▁bägge	-11.4196
▁gigantisk	-11.4196
▁navigera	-11.4196
▁tråkigt	-11.4196
▁umgås	-11.4196
▁management	-11.4196
▁Square	-11.4196
▁glöd	-11.4196
72	-11.4196
▁Peking	-11.4196
inskränk	-11.4196
▁uppträder	-11.4196
▁Manager	-11.4196
▁innebörd	-11.4197
▁innehöll	-11.4197
esti	-11.4197
▁begrav	-11.4197
▁häftig	-11.4197
▁Avsnitt	-11.4198
wan	-11.4199
▁bistå	-11.42
▁motsatsen	-11.4201
▁överraskande	-11.4201
▁Medical	-11.4202
▁satsningar	-11.4202
▁Stone	-11.4203
▁svåraste	-11.4204
▁köparen	-11.4205
3/	-11.4209
nov	-11.421
▁hygien	-11.4211
▁ramar	-11.4211
▁berika	-11.4213
▁ångra	-11.4214
håller	-11.4215
▁Swe	-11.4216
▁inställd	-11.4218
▁sido	-11.4221
▁maximalt	-11.4222
kun	-11.4224
▁Best	-11.4224
ico	-11.4226
▁nyttja	-11.4228
▁geo	-11.4233
▁top	-11.4233
▁PA	-11.4234
▁redskap	-11.4235
▁Inför	-11.4235
▁sjunde	-11.4236
▁gravida	-11.4238
född	-11.4238
HS	-11.4239
▁Sov	-11.4241
▁älskad	-11.4241
▁innovationer	-11.4247
▁Ang	-11.4247
▁Spelare	-11.4248
yta	-11.4248
▁intellektuella	-11.4251
utbyte	-11.4251
kortet	-11.4254
planen	-11.4254
▁protest	-11.4254
▁Alternativ	-11.4255
▁avsett	-11.4255
sey	-11.4258
månad	-11.4264
▁58	-11.4264
värk	-11.4265
lum	-11.4265
▁trevliga	-11.4266
▁distributions	-11.4267
▁Rh	-11.4269
TER	-11.4271
princip	-11.4271
▁Leo	-11.4272
▁epi	-11.4273
▁intensiva	-11.4273
▁Band	-11.4274
▁pub	-11.4275
▁märkte	-11.4277
▁upptäck	-11.4279
▁game	-11.4279
▁attraktion	-11.4279
▁valp	-11.428
▁Juli	-11.428
uppdrag	-11.4281
änder	-11.4281
▁ersättas	-11.4285
komposit	-11.4289
▁kombineras	-11.429
ated	-11.429
▁plattformen	-11.429
▁Public	-11.4292
▁stängde	-11.4295
▁ång	-11.4296
▁fullfölj	-11.4303
konferens	-11.4304
▁telefoner	-11.4306
▁Gruppen	-11.4307
▁modifiera	-11.4308
▁Namne	-11.4312
▁pojken	-11.4312
▁Effekt	-11.4312
..."	-11.4312
▁basis	-11.4314
rubb	-11.4318
▁gö	-11.4319
dynamik	-11.432
▁Fantastisk	-11.432
▁Fortfarande	-11.432
▁Profeten	-11.432
▁Sydkorea	-11.432
▁allihop	-11.432
▁fruktansvärt	-11.432
▁ordinarie	-11.432
▁njöt	-11.432
▁älskling	-11.432
▁rymlig	-11.432
▁hobby	-11.432
▁uppgradering	-11.432
▁Stefan	-11.432
▁agenda	-11.432
▁drivkraft	-11.432
▁spontan	-11.432
kva	-11.4321
▁förebild	-11.4321
istan	-11.4321
▁kundservice	-11.4321
▁signera	-11.4322
▁Organ	-11.4322
▁mis	-11.4323
operation	-11.4324
▁damer	-11.4326
▁Lady	-11.4327
▁Skolan	-11.4329
▁Wars	-11.4329
▁preferenser	-11.4329
glas	-11.4332
▁singlar	-11.4333
▁längsta	-11.4335
▁^	-11.4335
II	-11.4338
▁förvandlas	-11.4342
▁AC	-11.4342
etik	-11.4343
▁siffran	-11.4346
loppet	-11.4347
▁piller	-11.4349
SO	-11.4351
▁färdigt	-11.4353
▁värdering	-11.4355
▁Tja	-11.4357
▁Störst	-11.4358
▁Match	-11.4361
▁överträdelser	-11.4364
▁honung	-11.4365
tek	-11.4368
▁frö	-11.4371
▁oral	-11.4372
▁drömma	-11.4376
psy	-11.4376
mond	-11.4378
▁bete	-11.4379
▁konvention	-11.4379
utvecklare	-11.438
▁mänskligt	-11.438
git	-11.4381
▁påstående	-11.4381
▁soldat	-11.4381
▁mystiska	-11.4388
AA	-11.4396
modellen	-11.4397
▁Ye	-11.4399
▁bosättning	-11.4399
▁hals	-11.44
▁välsignelse	-11.4401
▁66	-11.4405
kä	-11.4406
▁54	-11.4406
▁flagga	-11.4408
tric	-11.4409
▁bekvämlighet	-11.4413
annonser	-11.4416
▁kopplad	-11.4418
▁67	-11.4419
▁Card	-11.442
▁överföras	-11.442
▁kampanjen	-11.442
8/	-11.4421
▁Barnet	-11.4421
▁profiler	-11.4426
förvaltare	-11.4431
52	-11.4434
▁kastade	-11.4435
kamp	-11.4437
▁Prov	-11.4437
▁lev	-11.4438
byrå	-11.4439
▁betyda	-11.4439
▁utreda	-11.4444
▁cirkulär	-11.4445
▁facebook	-11.4445
▁förknippade	-11.4445
▁́s	-11.4445
▁kvalité	-11.4445
▁ansöker	-11.4445
▁diesel	-11.4445
▁prototyp	-11.4445
▁blackjack	-11.4445
▁Akademi	-11.4445
▁genuin	-11.4445
▁ansikts	-11.4445
resultatet	-11.4445
▁sekretesspolicy	-11.4445
▁omdöme	-11.4445
▁rubriken	-11.4445
▁plåga	-11.4445
▁Styrelsen	-11.4445
▁list	-11.4445
▁Kraft	-11.4445
▁Spi	-11.4446
▁debitera	-11.4446
break	-11.4447
▁Produkter	-11.4448
FS	-11.4448
▁innebar	-11.4449
▁fetma	-11.445
▁meningslös	-11.4452
▁Sitt	-11.4453
▁elva	-11.4453
kh	-11.4455
69	-11.4455
▁dumma	-11.4455
▁händelserna	-11.4456
▁operatörer	-11.4457
▁Majoritet	-11.4458
▁kompletterande	-11.4459
oz	-11.4461
företagen	-11.4461
▁tempo	-11.4463
▁Extra	-11.4465
▁närhet	-11.4465
▁sjukvården	-11.4466
▁typisk	-11.4466
▁UK	-11.447
▁luta	-11.4472
attack	-11.4474
flyttning	-11.4475
2017	-11.4475
▁hatt	-11.4479
▁islamisk	-11.4479
▁Bern	-11.4483
nz	-11.4484
▁rättfärdig	-11.4485
▁gråter	-11.4485
▁box	-11.4486
▁Sri	-11.4486
67	-11.4487
▁kvalificerade	-11.449
stjärna	-11.449
▁bränslen	-11.4492
▁höjer	-11.4492
mord	-11.4494
▁skylla	-11.4496
tti	-11.4497
▁CV	-11.4499
▁lektion	-11.45
▁detaljerade	-11.45
▁kryp	-11.4501
▁Rio	-11.4502
▁anpassas	-11.4506
▁administrativ	-11.4507
For	-11.451
▁krypto	-11.4512
▁skapelsen	-11.4514
▁Mas	-11.4517
betal	-11.4517
▁filosof	-11.4522
▁Gener	-11.4523
belysning	-11.4526
▁Svaret	-11.4526
komponenter	-11.4526
casino	-11.4526
smetod	-11.4527
fly	-11.4529
beskrivning	-11.453
▁insikter	-11.4531
▁sannolikheten	-11.4533
▁uppskattade	-11.4534
bed	-11.4541
gning	-11.4542
ytan	-11.4544
/5	-11.4545
▁mäter	-11.4551
målet	-11.4556
▁talet	-11.4558
bott	-11.4561
▁erfaren	-11.4562
▁Skol	-11.4562
kön	-11.4562
▁sköta	-11.4562
färdig	-11.4565
ifikation	-11.4565
kris	-11.4565
besparing	-11.4571
▁hotet	-11.4571
▁illusion	-11.4571
▁sistnämnda	-11.4571
▁Äntligen	-11.4571
▁hämnd	-11.4571
▁testosteron	-11.4571
▁bomull	-11.4571
▁Nyckel	-11.4571
▁Återigen	-11.4571
▁ihjäl	-11.4571
▁bråk	-11.4571
▁Nokia	-11.4571
▁astma	-11.4571
▁regelbundna	-11.4571
▁vrede	-11.4572
▁naken	-11.4572
▁56	-11.4573
▁troligtvis	-11.4573
▁JAG	-11.4573
▁specifikationer	-11.4573
kund	-11.4576
▁våt	-11.4577
▁nackdelar	-11.4577
▁testet	-11.4578
▁samtida	-11.4578
▁utmaningarna	-11.4578
▁Monte	-11.4583
▁upplaga	-11.4583
▁Krig	-11.4585
▁Nato	-11.4587
byggande	-11.4588
kanaler	-11.4589
bevakning	-11.459
▁Your	-11.4591
familjemedlemmar	-11.4592
▁katalog	-11.4592
▁fyllda	-11.4594
▁tacksamhet	-11.4597
OD	-11.4597
▁Chile	-11.4598
▁SM	-11.4599
▁Comp	-11.46
föreningen	-11.4601
▁homosexuella	-11.4601
▁förstörde	-11.4603
▁Äg	-11.4604
▁sändning	-11.4605
▁magnet	-11.4605
▁Alan	-11.4607
▁fuktig	-11.4607
▁utkast	-11.4608
dagars	-11.4609
▁sorglig	-11.4609
▁förändringarna	-11.461
▁ven	-11.461
▁uppfattas	-11.4615
▁utav	-11.4616
eau	-11.4619
ägda	-11.4622
specifika	-11.4624
▁ovanliga	-11.4624
▁gård	-11.4624
▁föroreningar	-11.4626
▁testar	-11.4627
▁LA	-11.4629
▁Bon	-11.4629
▁tröst	-11.463
▁skrivande	-11.463
skal	-11.464
▁kärnan	-11.4641
▁Institutet	-11.4642
▁mätningar	-11.4643
▁slaget	-11.4645
▁Hittade	-11.4645
▁energin	-11.4648
▁koloni	-11.4654
▁uttalanden	-11.4654
▁Mest	-11.4655
budget	-11.4655
Allt	-11.4656
mänsklig	-11.4657
Nej	-11.4658
▁omgiven	-11.4658
▁nödvändighet	-11.4658
▁1970-	-11.466
▁seriöst	-11.4662
5.1	-11.4664
▁UN	-11.4665
▁isolera	-11.4665
iserar	-11.4667
skaffa	-11.4669
▁summa	-11.4669
sekreterare	-11.4673
programvara	-11.4673
▁Landet	-11.4674
▁evig	-11.4675
▁straffa	-11.4678
tyck	-11.468
skepp	-11.4682
▁Ok	-11.4685
dator	-11.4686
▁vetenskapligt	-11.4689
sjuka	-11.469
▁växel	-11.4692
▁fastigheten	-11.4692
meddelanden	-11.4692
card	-11.4692
▁tätt	-11.4694
miljön	-11.4694
▁filmerna	-11.4697
▁Mobil	-11.4698
▁Förmodligen	-11.4699
▁erhållit	-11.4699
▁befrielse	-11.4699
▁förvirring	-11.4699
▁Kommentar	-11.4699
▁Helige	-11.4699
▁rationell	-11.4699
▁förfogande	-11.4699
▁kollega	-11.4699
▁kraftfullt	-11.4699
▁bifoga	-11.4699
▁Jacob	-11.4699
▁promenera	-11.47
▁officer	-11.47
▁Boston	-11.47
▁Sydney	-11.47
▁bidrog	-11.47
▁samvete	-11.47
▁stryk	-11.47
▁First	-11.47
▁levnads	-11.47
▁Gräns	-11.4701
▁kloka	-11.4701
▁Ltd	-11.4702
▁bingo	-11.4702
▁sammanträde	-11.4702
▁Ansvar	-11.4703
ledaren	-11.4703
▁femtio	-11.4704
motorer	-11.4704
▁friheten	-11.4705
▁bero	-11.4707
▁analog	-11.4708
▁legend	-11.4708
▁Place	-11.471
▁Malta	-11.471
▁omöjlig	-11.4711
▁kopior	-11.4711
▁varnar	-11.4711
▁Handling	-11.4711
▁Fair	-11.4711
▁Blo	-11.4715
▁1980	-11.4715
▁Systems	-11.4715
▁missar	-11.4717
▁publicering	-11.4718
▁foten	-11.4721
▁Boende	-11.4722
53	-11.4722
▁inledande	-11.4723
▁därav	-11.4723
tester	-11.4726
▁utforskar	-11.4726
▁Området	-11.4728
▁pga	-11.473
▁rörliga	-11.473
▁upptäcktes	-11.4731
▁svenskt	-11.4732
öva	-11.4732
kull	-11.4734
anne	-11.4734
givit	-11.4734
kostnaderna	-11.4735
▁insekter	-11.4735
wing	-11.4736
ansvarig	-11.4738
▁Sten	-11.4739
more	-11.4739
▁obligatoriska	-11.474
▁reglerar	-11.4743
▁trötthet	-11.4746
▁prestera	-11.4753
▁långsam	-11.4756
NE	-11.4757
▁misstänkta	-11.4758
grön	-11.4761
rep	-11.4762
▁96	-11.4763
▁profeter	-11.4763
▁Tech	-11.4764
▁judisk	-11.4772
▁Williams	-11.4773
▁Familjen	-11.4773
▁hiv	-11.4774
▁lovat	-11.4782
process	-11.4783
▁given	-11.4786
straff	-11.4786
▁prövning	-11.4787
▁Fox	-11.4789
mätning	-11.479
▁Bol	-11.4793
skuld	-11.4794
fy	-11.4794
▁Opera	-11.4796
sexuell	-11.4796
▁öm	-11.4797
▁Staten	-11.4799
▁orm	-11.4801
valet	-11.4802
ttle	-11.4802
▁geni	-11.4803
▁svaghet	-11.4804
▁Själva	-11.4805
▁härskar	-11.4805
▁öppenhet	-11.4805
▁börda	-11.4806
beloppet	-11.4806
▁sökanden	-11.4807
▁lott	-11.4809
BE	-11.4809
▁färgerna	-11.4812
▁typiska	-11.4814
▁förhand	-11.4818
▁Nar	-11.4819
fix	-11.482
▁ödmjuk	-11.4821
▁pressa	-11.4822
▁Bull	-11.4823
▁ideell	-11.4824
försvar	-11.4825
▁fotografi	-11.4827
▁åkt	-11.4827
▁tonåring	-11.4828
▁Access	-11.4829
▁Funktion	-11.4829
▁Security	-11.4829
▁Wikipedia	-11.4829
▁narkotika	-11.4829
▁olympisk	-11.4829
▁Domstolen	-11.4829
▁pistol	-11.4829
▁proletariatet	-11.4829
▁avsaknad	-11.4829
▁kollektivtrafik	-11.483
▁fullborda	-11.483
▁förnyelse	-11.483
▁axlar	-11.483
▁emellan	-11.483
▁sovrummet	-11.4831
▁offren	-11.4831
▁reflektion	-11.4832
▁olaglig	-11.4832
▁Young	-11.4833
▁Wien	-11.4834
▁vänstra	-11.4834
listor	-11.4835
heim	-11.4836
▁likhet	-11.4837
▁attacken	-11.4843
▁Living	-11.4843
▁lotteri	-11.4844
▁värdighet	-11.4844
▁urban	-11.4845
83	-11.4846
▁miles	-11.4846
▁indiska	-11.4847
▁Kvinnan	-11.4849
▁Eco	-11.4849
▁republikan	-11.4849
▁fonder	-11.4849
▁näringslivet	-11.485
▁anhöriga	-11.485
▁Senaste	-11.4852
▁björn	-11.4853
▁intelligenta	-11.4854
stick	-11.4855
väv	-11.4856
0)	-11.4857
bag	-11.4857
▁Pin	-11.4862
▁kostnadsfri	-11.4865
▁översatt	-11.4871
▁Trust	-11.4872
▁skrattade	-11.4872
▁sfär	-11.4872
▁laddar	-11.4873
▁innehar	-11.4873
▁tilldela	-11.4874
▁genetiska	-11.4875
▁Foto	-11.4878
▁konceptet	-11.4879
▁svin	-11.4881
▁ändamålsenlig	-11.4882
▁förbjudna	-11.4883
▁samarbeten	-11.4887
▁bosatt	-11.4887
▁kämpade	-11.4888
▁skaka	-11.4888
▁prestationer	-11.4888
▁tillbringade	-11.4888
▁mamman	-11.4889
▁skriftligt	-11.4891
▁märklig	-11.4897
1.2	-11.4898
▁visning	-11.4898
▁kliv	-11.49
▁utskrift	-11.4901
MT	-11.4901
tänkande	-11.4901
▁BA	-11.4902
belopp	-11.4902
▁laboratorie	-11.4903
teckningar	-11.4904
▁Korea	-11.4905
stillstånd	-11.4908
▁uppehåll	-11.4913
▁trauma	-11.4913
hälso	-11.4915
▁AP	-11.4915
kriterier	-11.4916
kulär	-11.4916
LS	-11.4922
trip	-11.4924
▁änden	-11.4926
▁studerade	-11.4928
▁Mail	-11.4931
Herre	-11.4932
splanen	-11.4933
nya	-11.4934
▁Gate	-11.4936
▁Region	-11.4936
▁diskuteras	-11.4944
56	-11.4946
▁vilar	-11.496
▁Venedig	-11.4961
▁Saudiarabien	-11.4961
▁anhängare	-11.4961
▁college	-11.4961
▁ljuger	-11.4961
▁sponsor	-11.4961
▁Stephen	-11.4961
▁mestadels	-11.4961
▁Patienter	-11.4961
▁senior	-11.4961
▁parkeringsplats	-11.4961
▁representation	-11.4961
▁Tower	-11.4962
▁kusin	-11.4962
▁ägt	-11.4962
▁Heart	-11.4963
▁lagstifta	-11.4963
▁väv	-11.4965
▁Sarah	-11.4966
▁kvantitet	-11.4967
▁stadium	-11.4968
▁Fyll	-11.4969
▁väckte	-11.4969
▁Drick	-11.4969
▁Cirk	-11.497
▁oväntade	-11.4974
▁dyrare	-11.4977
förändringarna	-11.4977
71	-11.4977
städ	-11.498
▁Joe	-11.498
▁Action	-11.498
iro	-11.4981
▁utsläppen	-11.4983
▁affärsområde	-11.4983
To	-11.4984
▁feber	-11.4984
▁kapten	-11.4985
▁Yo	-11.4985
Ju	-11.4987
bandet	-11.4988
▁herrar	-11.4988
▁digitalisering	-11.4989
▁uppdaterat	-11.499
kommitté	-11.4991
▁Vetenskap	-11.4991
▁äventyra	-11.4991
Jo	-11.4993
▁kontanter	-11.4993
▁romerska	-11.4994
äkta	-11.4995
▁optimala	-11.4996
▁smärt	-11.4996
▁upplysningar	-11.5
2018	-11.5001
▁bärbara	-11.5001
▁kungliga	-11.5003
▁Trade	-11.5005
▁fullgöra	-11.5007
▁scener	-11.5009
publ	-11.5009
▁fundamental	-11.5011
▁anpassad	-11.5011
▁hotade	-11.5012
▁utformning	-11.5013
utövare	-11.5013
Di	-11.5016
▁arbetstid	-11.5017
▁villiga	-11.5017
arbets	-11.5018
▁kvarter	-11.5019
▁Sports	-11.5022
ranska	-11.5022
▁undersökt	-11.5023
▁Göra	-11.5023
▁Webbplats	-11.5027
▁play	-11.503
fva	-11.5033
▁fördubbla	-11.5033
▁ytor	-11.5035
UD	-11.5036
▁terrorister	-11.5036
▁budskapet	-11.5037
▁cykla	-11.5039
▁planeras	-11.5039
▁batteriet	-11.504
▁gudar	-11.504
insatser	-11.5048
▁fjärr	-11.5049
$	-11.5049
medlemsstat	-11.5049
skivor	-11.505
▁fråge	-11.5051
▁Solen	-11.5054
▁hjärtsjukdom	-11.5057
betalningar	-11.5058
jack	-11.5059
▁AR	-11.506
▁kontot	-11.5061
▁stjärn	-11.5061
▁hen	-11.5062
▁kontakten	-11.5063
▁ansträng	-11.5065
▁plug	-11.5066
mobil	-11.5067
▁bri	-11.5069
▁symptomen	-11.5071
▁kontra	-11.5072
▁nyheterna	-11.5076
▁hushålls	-11.5078
plattformar	-11.5079
givaren	-11.5081
▁byrå	-11.5082
▁uttrycket	-11.5083
▁registreras	-11.5083
▁sär	-11.5087
album	-11.5089
▁9:	-11.5091
▁dikter	-11.5092
▁skugga	-11.5092
▁uppmanas	-11.5093
▁MSEK	-11.5094
▁abstrakt	-11.5094
▁matematisk	-11.5094
▁Åtminstone	-11.5094
rörelser	-11.5094
▁medeltida	-11.5094
▁tyngd	-11.5094
▁syriska	-11.5094
▁återfinn	-11.5095
▁låtsas	-11.5095
59	-11.5096
▁Exempelvis	-11.5096
▁fusk	-11.5096
▁Suite	-11.5097
shirt	-11.5097
▁spins	-11.5097
▁new	-11.5099
▁›	-11.5101
▁donera	-11.5101
▁restriktioner	-11.5101
skade	-11.5102
▁profeten	-11.5102
▁andetag	-11.5103
▁8:	-11.5105
▁ansöknings	-11.5105
▁sökmotor	-11.5106
Hon	-11.5107
▁rand	-11.5108
portfölj	-11.5112
bind	-11.5113
▁fynd	-11.5116
▁raser	-11.5116
skript	-11.5117
▁EA	-11.5117
▁beräkningar	-11.5124
▁lådan	-11.5125
▁center	-11.5126
▁Roman	-11.5126
▁Mala	-11.5128
▁Box	-11.5129
MC	-11.513
▁slagit	-11.513
▁smal	-11.5133
▁uppkomst	-11.5134
delad	-11.5134
nivåerna	-11.5135
▁charm	-11.5135
▁lampa	-11.5139
rapporten	-11.5139
▁race	-11.5142
▁väggarna	-11.5142
▁härifrån	-11.5144
▁sänder	-11.5149
▁ökningen	-11.515
▁kundtjänst	-11.515
▁poliser	-11.515
▁blodsocker	-11.5158
▁karta	-11.5162
stora	-11.5163
▁högkvalitativ	-11.5166
pad	-11.5166
▁vilse	-11.5168
▁Sonen	-11.5168
rättigheter	-11.517
kunskaper	-11.5172
▁legitim	-11.5172
▁genomförd	-11.5175
▁skapad	-11.5176
▁användarens	-11.5181
▁drink	-11.5182
övervakning	-11.5184
ingenjör	-11.5184
special	-11.5184
▁mineraler	-11.5185
fäst	-11.5186
▁njutning	-11.5187
▁frigör	-11.519
▁Glo	-11.5193
cil	-11.5194
▁regimen	-11.5198
Vem	-11.5198
▁kam	-11.5199
▁Hum	-11.5199
gäst	-11.5201
▁snyggt	-11.5203
Till	-11.5205
samhälle	-11.5206
effekt	-11.5206
▁Säker	-11.5207
sjuk	-11.5207
▁paketet	-11.521
värdig	-11.5211
effekten	-11.5213
IO	-11.5213
▁menyn	-11.5216
▁attraktiva	-11.5217
▁FI	-11.5218
▁tungt	-11.5226
▁elektricitet	-11.5229
▁ljuga	-11.5229
▁premium	-11.5229
▁FBI	-11.5229
▁initiera	-11.5229
▁incitament	-11.5229
▁Hälso	-11.5229
▁scenario	-11.5229
▁motorcykel	-11.523
▁Teknisk	-11.523
▁ritual	-11.523
▁spräng	-11.523
▁dagsläget	-11.523
▁väsen	-11.5231
▁lysande	-11.5232
▁bokföring	-11.5233
▁stammar	-11.5233
▁CIA	-11.5234
▁publicerad	-11.5235
▁vaken	-11.5235
vant	-11.5236
▁mottagit	-11.5237
▁Forex	-11.5237
▁Guld	-11.5237
PL	-11.5238
lagstiftningen	-11.5238
slutet	-11.5239
▁förhållandena	-11.5239
▁ropade	-11.5239
▁Sjö	-11.524
skäl	-11.524
▁Mobile	-11.524
▁Skär	-11.5241
anställda	-11.5241
▁intensitet	-11.5241
▁lärjungar	-11.5242
▁starkaste	-11.5242
▁genomgått	-11.5244
▁fredagen	-11.5244
▁Arab	-11.5244
round	-11.5248
▁industrier	-11.5249
▁taktik	-11.5251
▁viktigast	-11.5252
Av	-11.5254
NING	-11.5255
89	-11.5256
▁fun	-11.5257
▁småföretag	-11.5257
2019	-11.5257
ruta	-11.5258
▁erkänd	-11.5259
▁anslag	-11.5259
▁mac	-11.526
▁varaktighet	-11.526
norm	-11.5261
▁Nyheter	-11.5263
▁konventionella	-11.5263
▁hamnade	-11.5263
▁arbetsmarknad	-11.5263
▁svarat	-11.5266
▁historik	-11.5266
▁Ljuset	-11.5268
▁Högsta	-11.5269
sökande	-11.5271
▁Kate	-11.5271
▁Användar	-11.5271
▁försvarar	-11.5273
▁Maj	-11.5274
▁känslomässiga	-11.5274
▁Job	-11.5275
▁besöket	-11.5278
onia	-11.5279
raf	-11.528
▁privatliv	-11.528
skräck	-11.5281
▁kastar	-11.5286
▁termo	-11.5287
▁onödiga	-11.5287
anordning	-11.5288
▁körkort	-11.5289
▁Bort	-11.529
▁CE	-11.5301
läcka	-11.5306
bundet	-11.5306
▁protester	-11.5307
▁granne	-11.5309
▁160	-11.531
▁Bed	-11.531
▁fabriker	-11.5311
ntegritetspolicy	-11.5312
▁Station	-11.5312
utom	-11.5313
värda	-11.5317
kämpa	-11.5319
▁organiska	-11.532
amerikan	-11.5321
▁VR	-11.5321
missbruk	-11.5321
deklaration	-11.5321
ansökan	-11.5321
▁betalade	-11.5323
14)	-11.5325
metri	-11.5326
▁vinnaren	-11.5328
▁OM	-11.5329
▁överklaga	-11.533
▁övertygelse	-11.5333
▁finländsk	-11.5333
▁rotera	-11.5334
▁termen	-11.5334
fred	-11.5334
▁utvecklad	-11.5336
▁63	-11.5337
▁civilisation	-11.5342
▁Drive	-11.5344
Mi	-11.5348
word	-11.5349
ello	-11.5349
▁automatisera	-11.535
▁Brad	-11.5351
▁kvalificera	-11.5351
sfär	-11.5352
framkallande	-11.5353
▁förvärvade	-11.5356
▁Slot	-11.5356
ante	-11.5358
luck	-11.5359
▁kirurgi	-11.5364
¶	-11.5366
▁magnesium	-11.5366
▁Böcker	-11.5366
▁Outlook	-11.5366
▁exponera	-11.5366
▁misstänker	-11.5366
▁synvinkel	-11.5366
▁vampyr	-11.5366
▁Prince	-11.5366
▁Född	-11.5366
▁instinkt	-11.5366
▁gummi	-11.5366
▁tveksam	-11.5367
▁Charlie	-11.5367
▁ivrig	-11.5367
▁gömma	-11.5367
[3]	-11.5367
▁tolkas	-11.5367
▁utsedd	-11.5367
▁Tillgång	-11.5368
▁rundtur	-11.5369
▁Säkerhet	-11.5372
▁Handels	-11.5372
▁etapp	-11.5373
▁fyrtio	-11.5373
webbplats	-11.5374
▁Hamas	-11.5376
▁organiserad	-11.5376
▁kompatibel	-11.5377
▁efterföljande	-11.5377
▁potentiell	-11.5377
▁uppfyllda	-11.5378
▁engagerad	-11.5379
▁2030	-11.538
▁terminal	-11.5381
▁Fish	-11.5383
▁störta	-11.5383
▁täckning	-11.5387
▁läger	-11.5393
▁förväntat	-11.5394
▁galleri	-11.5394
▁nivåerna	-11.5398
▁Nike	-11.5398
reglerna	-11.5401
oci	-11.5401
knappen	-11.5401
▁tablett	-11.5403
mottagar	-11.5411
▁borgerliga	-11.5413
▁mött	-11.5414
utsläpp	-11.5415
▁1960-	-11.5416
banan	-11.5418
▁provins	-11.5418
sug	-11.5418
▁Rapport	-11.5419
▁placerar	-11.5419
▁gynnar	-11.542
▁130	-11.5425
▁Kron	-11.5425
▁inspirerade	-11.543
▁barer	-11.5431
▁träden	-11.5431
▁självständig	-11.5431
▁ledarna	-11.5432
▁intresset	-11.5435
▁Kärleken	-11.5436
▁statligt	-11.5437
resan	-11.5438
kit	-11.5438
följd	-11.5441
▁snitt	-11.5445
▁strukturen	-11.5453
▁satsar	-11.5456
▁bedöms	-11.5456
▁halsen	-11.5457
▁ömsesidigt	-11.5458
▁utbrott	-11.5458
▁främlingar	-11.5458
▁andning	-11.5458
-6	-11.5458
▁varaktig	-11.5462
▁Öst	-11.5462
▁egentlig	-11.5464
SL	-11.5468
▁överraska	-11.5469
dvs	-11.547
▁balanserad	-11.547
▁Spec	-11.5471
▁ramverk	-11.5472
▁Försäljning	-11.5473
▁Syd	-11.5475
▁inrikta	-11.5477
▁inledde	-11.5479
ösa	-11.5486
▁gator	-11.5487
fylld	-11.5489
formation	-11.5489
tråd	-11.549
▁Inne	-11.549
smyndigheten	-11.5492
värdering	-11.5494
▁1980-	-11.5494
▁90-	-11.5495
▁stående	-11.5495
DC	-11.5501
▁Academy	-11.5505
▁Drottning	-11.5505
▁Edinburgh	-11.5505
▁Nintendo	-11.5505
▁PayPal	-11.5505
▁akademiker	-11.5505
▁tält	-11.5505
▁Grattis	-11.5505
▁skulptur	-11.5505
▁erektion	-11.5505
▁Henrik	-11.5505
▁anklagelser	-11.5505
BT	-11.5506
▁Röst	-11.5506
▁världsledande	-11.5506
▁fräsch	-11.5506
▁Miami	-11.5506
▁tjuv	-11.5506
▁France	-11.5506
▁inleds	-11.5506
▁skrek	-11.5507
▁grafisk	-11.5507
▁barmhärtighet	-11.5507
▁kvarstår	-11.5508
▁kakor	-11.5508
▁Sound	-11.5509
▁uppstått	-11.5509
▁balansen	-11.5511
▁Alice	-11.5511
kle	-11.5512
▁Kit	-11.5512
Un	-11.5514
▁permanenta	-11.5517
▁Traditionell	-11.552
▁lättnad	-11.552
▁lovande	-11.5522
▁misstänkt	-11.5524
▁assistent	-11.5524
▁kejsar	-11.5526
▁röstar	-11.5529
▁blåsa	-11.553
▁Add	-11.5531
▁Lista	-11.5532
▁lovade	-11.5536
▁bunden	-11.5537
▁trädde	-11.5539
▁passande	-11.5539
börd	-11.554
▁skulden	-11.5541
▁parten	-11.5542
▁psykolog	-11.5542
▁mut	-11.5543
▁helige	-11.5543
▁kongress	-11.5544
▁Resultat	-11.5544
▁producerade	-11.5544
▁drabbades	-11.5545
▁föredra	-11.5545
▁Alzheimers	-11.5546
AF	-11.5546
▁bytte	-11.5546
▁Hold	-11.5547
▁formellt	-11.5547
▁Blu	-11.5547
▁Mill	-11.5548
▁Mät	-11.5548
marker	-11.5548
knapp	-11.5549
koldioxidutsläpp	-11.555
▁främling	-11.5552
▁låst	-11.5554
▁sha	-11.5556
▁genombrott	-11.5557
välj	-11.5557
▁genomgår	-11.5558
▁giltigt	-11.5558
uld	-11.5559
onic	-11.5559
▁militären	-11.556
▁tjejen	-11.5561
▁känslighet	-11.5562
▁behörig	-11.5564
koppla	-11.5564
gly	-11.5565
▁cent	-11.5566
▁defekt	-11.5573
lampa	-11.5575
▁Bolagets	-11.5581
▁värdig	-11.5585
▁tredjeländer	-11.5586
vandring	-11.5588
▁förbinder	-11.5588
▁2000-	-11.5589
▁Main	-11.5589
▁omvandlas	-11.559
ehållstillstånd	-11.5591
▁Rep	-11.5591
▁föreställningar	-11.5593
▁förlorad	-11.5593
▁poolen	-11.5596
▁strategin	-11.5597
erbjudanden	-11.5597
GO	-11.5598
▁sparka	-11.5598
konstruktion	-11.5599
vilja	-11.56
▁basen	-11.56
direktör	-11.56
befolkning	-11.56
infrastruktur	-11.5601
fokus	-11.5601
▁brevet	-11.5603
▁60-	-11.5603
följande	-11.5604
▁kreativt	-11.5604
postmeddelanden	-11.5605
show	-11.5605
artad	-11.5608
▁stängd	-11.561
▁gärning	-11.561
boende	-11.5614
▁korset	-11.5616
Upp	-11.5616
europeiska	-11.5617
▁socialistisk	-11.562
statliga	-11.5627
▁sort	-11.5627
▁ME	-11.5627
RP	-11.5628
index	-11.563
▁Beslut	-11.5631
atom	-11.5637
▁Blå	-11.5639
fund	-11.564
▁behållare	-11.564
skåp	-11.5641
NI	-11.5646
▁Bluetooth	-11.5646
▁Historien	-11.5646
▁Indonesien	-11.5646
▁Nigeria	-11.5646
▁Swedish	-11.5646
▁Ursprunglig	-11.5646
▁Youtube	-11.5646
▁Buddha	-11.5646
▁sponsra	-11.5646
▁befann	-11.5646
▁immunförsvar	-11.5646
▁europeiskt	-11.5646
▁testade	-11.5646
▁Verksamhet	-11.5646
▁förtjus	-11.5647
▁flydde	-11.5647
▁mervärde	-11.5647
▁Town	-11.5647
▁utsökt	-11.5647
▁objektet	-11.5647
▁tillbaks	-11.5648
▁döpt	-11.5648
▁arbetarklassen	-11.5648
▁lyser	-11.5649
▁världsklass	-11.565
▁likna	-11.5651
▁Ändra	-11.5652
▁Eventuell	-11.5652
jakt	-11.5653
▁uppdraget	-11.5654
room	-11.5654
▁välstånd	-11.5655
fyra	-11.5655
▁blått	-11.5655
▁aktion	-11.5656
▁instruktör	-11.5656
▁prick	-11.5656
▁Hopp	-11.5657
mekanism	-11.5659
▁konfiguration	-11.5659
sprincipen	-11.566
▁tvångs	-11.5661
▁beta	-11.5661
▁fastställande	-11.5662
ocyt	-11.5664
▁överlever	-11.5665
▁skräddarsydd	-11.5667
▁non	-11.5673
▁råkar	-11.5673
▁hypo	-11.5673
▁latin	-11.5675
▁Sjuk	-11.5675
▁överskott	-11.5675
▁skillnaderna	-11.5675
atorn	-11.5676
▁konsumenten	-11.5676
▁rörde	-11.5677
▁bestånd	-11.5678
▁ingick	-11.568
▁förstånd	-11.5682
▁Värde	-11.5682
▁Vinter	-11.5683
▁imponera	-11.5684
savgifter	-11.5687
medvetna	-11.5687
▁godis	-11.5688
▁drabbar	-11.5689
▁Avtalet	-11.5691
▁skildra	-11.5692
▁spion	-11.5692
ative	-11.5694
utveckla	-11.5695
▁sprit	-11.57
▁AA	-11.57
sprocesser	-11.5703
▁leg	-11.5704
▁bull	-11.5705
▁dyr	-11.5705
festivalen	-11.5709
▁attraktioner	-11.571
▁Fokus	-11.5711
ryck	-11.5715
diet	-11.5716
▁''	-11.5716
▁mission	-11.5719
▁uni	-11.5719
▁fattat	-11.5721
Som	-11.5722
▁Bilden	-11.5724
grepp	-11.5724
▁inbyggd	-11.5725
▁motstå	-11.5726
▁engångs	-11.5728
issa	-11.5733
▁systematisk	-11.5733
▁handikapp	-11.5737
plast	-11.574
butiker	-11.5741
▁Ref	-11.5741
skrivare	-11.5742
kostnad	-11.5744
djup	-11.5747
▁tillverkad	-11.5747
vapen	-11.5749
▁ärende	-11.5752
▁Zi	-11.5754
runda	-11.5754
▁biograf	-11.5755
▁spegel	-11.5755
direktivet	-11.5758
▁internt	-11.576
▁80-	-11.576
▁smala	-11.5762
▁Gui	-11.5763
troende	-11.5765
▁PE	-11.5766
▁hava	-11.5769
▁medierna	-11.5769
▁symtomen	-11.5771
cola	-11.5774
▁verktyget	-11.5778
flödet	-11.5779
▁fjärdedel	-11.5779
fem	-11.578
nära	-11.5781
▁elektroniskt	-11.5782
▁nackdel	-11.5782
▁NY	-11.5784
▁högtid	-11.5785
▁Hei	-11.5787
▁Direkt	-11.5787
▁Development	-11.5789
▁Libanon	-11.5789
▁bläddra	-11.5789
▁brutit	-11.5789
▁ekvation	-11.5789
▁potatis	-11.5789
▁uppfostra	-11.5789
▁döljer	-11.5789
▁praktisera	-11.5789
▁diktatur	-11.5789
▁vegan	-11.5789
▁asiatiska	-11.5789
▁Muslim	-11.5789
▁mikrofon	-11.5789
▁hinner	-11.5789
▁Paradis	-11.5789
mått	-11.579
▁obegränsad	-11.579
▁Märk	-11.579
▁betong	-11.579
▁knyt	-11.579
▁ingenjörer	-11.5791
▁Luther	-11.5791
▁Record	-11.5791
▁Andreas	-11.5792
▁Mount	-11.5792
▁Utforska	-11.5792
▁utrota	-11.5792
▁dekorera	-11.5794
▁skicklighet	-11.5795
nick	-11.5795
order	-11.5795
▁polska	-11.5795
▁hörsel	-11.5796
▁13:	-11.5796
▁kvalitativ	-11.5796
▁köpet	-11.5797
▁succé	-11.5799
▁förflytta	-11.5802
▁tävlings	-11.5803
▁bevarande	-11.5803
▁skapande	-11.5803
fors	-11.5803
▁hemskt	-11.5803
zu	-11.5806
▁sjöar	-11.5806
gevär	-11.5808
▁sämsta	-11.581
▁tröja	-11.581
▁taggad	-11.581
▁underhålla	-11.5811
▁sammanlagd	-11.5813
rese	-11.5815
▁Lisa	-11.5816
▁hjältar	-11.5817
▁kvartal	-11.5817
▁kollektion	-11.5819
▁genre	-11.5821
▁tolerans	-11.5822
▁Ever	-11.5822
▁odling	-11.5824
mall	-11.5827
▁lampor	-11.5827
förhållandena	-11.5829
▁inifrån	-11.5833
▁trycker	-11.5834
▁garantier	-11.5834
▁hemlig	-11.5834
▁je	-11.5835
▁turkiska	-11.5839
▁rökning	-11.5839
cci	-11.584
ENT	-11.584
▁jobbade	-11.584
▁egenskaperna	-11.5844
▁organiserade	-11.585
2001	-11.5851
▁Skillnad	-11.5852
▁etik	-11.5854
▁publicerar	-11.5854
▁Planet	-11.5856
programmen	-11.5856
▁sken	-11.586
“	-11.5862
relaterad	-11.5863
▁biologi	-11.5863
▁nominera	-11.5867
▁styre	-11.5868
▁Övrig	-11.587
▁skriftlig	-11.5873
blick	-11.5873
effektivitet	-11.5874
bygd	-11.5876
odd	-11.5877
▁kass	-11.588
▁säljaren	-11.5882
▁målning	-11.5883
▁begärt	-11.5883
registret	-11.5888
#	-11.5889
berättelse	-11.5889
▁Clo	-11.5889
minskning	-11.5889
▁ingrediens	-11.5891
SF	-11.5891
väska	-11.5899
▁konstnärlig	-11.5899
pool	-11.59
▁Finn	-11.5905
▁Herr	-11.5907
▁hormoner	-11.5908
▁sid	-11.5908
Inte	-11.5911
▁Redo	-11.5912
sändare	-11.5912
tabell	-11.5912
▁konstiga	-11.5913
▁Gall	-11.5914
▁antagits	-11.5914
AND	-11.5915
▁slutsats	-11.5915
yri	-11.5916
7/	-11.5916
▁fläckar	-11.5919
möten	-11.5921
▁definierade	-11.5921
▁specialister	-11.5921
sensor	-11.5922
vek	-11.5923
neralsekreterare	-11.5926
amarbetspartners	-11.5927
bekämpning	-11.5928
▁gränssnitt	-11.5931
▁British	-11.5934
▁Filippinerna	-11.5934
▁Intressant	-11.5934
▁illustrera	-11.5934
▁komplement	-11.5934
▁nämner	-11.5934
▁smycken	-11.5934
▁översvämning	-11.5934
▁elefant	-11.5934
▁logotyp	-11.5934
▁öknen	-11.5934
▁bevittna	-11.5934
▁sprids	-11.5934
▁Snow	-11.5934
▁Girl	-11.5934
▁uppfyllt	-11.5934
▁Index	-11.5934
▁sjuksköterska	-11.5934
▁föreslog	-11.5934
▁fientlig	-11.5934
▁yttrandefrihet	-11.5934
▁Flytta	-11.5935
▁hårdvara	-11.5935
mekanik	-11.5935
orienterad	-11.5935
▁drev	-11.5935
▁migranter	-11.5935
reform	-11.5936
▁värna	-11.5936
▁Moder	-11.5936
▁Court	-11.5936
▁sorters	-11.5937
▁Fredrik	-11.5937
▁Medlem	-11.5939
▁tryggt	-11.594
▁osäkra	-11.5941
lokal	-11.5942
▁1940	-11.5942
▁övergången	-11.5944
▁överdriven	-11.5944
▁Webb	-11.5944
▁högtalare	-11.5945
▁framstående	-11.5947
ART	-11.5949
▁immateriella	-11.595
▁Baby	-11.595
▁affärsmodell	-11.5951
▁harmonisera	-11.5952
▁skörd	-11.5952
▁operativ	-11.5953
▁vägnar	-11.5953
▁nedanför	-11.5954
▁inkluderande	-11.5954
2%	-11.5955
▁one	-11.5956
chefen	-11.5959
▁Lord	-11.5961
▁Emil	-11.5962
▁fängelset	-11.5962
PM	-11.5963
▁certifierade	-11.5964
▁Jason	-11.5965
▁familjemedlem	-11.5966
▁hugg	-11.5968
▁karaktären	-11.5971
▁detaljhandel	-11.5974
▁flaskor	-11.5979
▁­	-11.5979
familjen	-11.5983
▁Luk	-11.5983
▁avdelningen	-11.5984
▁genetiskt	-11.5985
▁funktionella	-11.5989
▁jä	-11.599
▁konsulter	-11.5992
▁Kalla	-11.5995
▁släck	-11.5999
▁transit	-11.6
▁Samarbet	-11.6001
▁kombinationen	-11.6006
▁beräknar	-11.6016
▁klargöra	-11.6017
Star	-11.6017
▁riskera	-11.6018
ush	-11.6022
▁snack	-11.6025
▁Krav	-11.6026
▁kollar	-11.6027
grader	-11.6028
▁kravet	-11.6029
82	-11.6031
▁fött	-11.6031
fattar	-11.6032
▁skiv	-11.6032
bun	-11.6034
batteri	-11.6036
diabetes	-11.6036
våld	-11.6039
▁Walk	-11.6039
▁samlats	-11.604
▁agerande	-11.6042
kär	-11.6042
▁110	-11.6044
bana	-11.6047
6/	-11.6049
▁Radi	-11.6049
PE	-11.605
▁arbetsgrupp	-11.605
▁ond	-11.6053
▁manuell	-11.6053
▁yt	-11.6053
skala	-11.6057
▁bytt	-11.6058
fit	-11.6059
▁1,2	-11.6062
konton	-11.6062
▁uppfinning	-11.6062
koden	-11.6065
▁våningar	-11.6065
▁drick	-11.6066
▁leksak	-11.6069
▁arbetsplatser	-11.6072
cid	-11.6075
▁referenser	-11.6078
▁utrustad	-11.6079
▁August	-11.6081
▁dröjsmål	-11.6081
▁privilegier	-11.6081
▁Corporation	-11.6081
▁Halloween	-11.6081
▁Solutions	-11.6081
▁Spotify	-11.6081
▁WHO	-11.6081
▁intrång	-11.6081
▁matsmältning	-11.6081
▁nikotin	-11.6081
▁oväntat	-11.6081
▁äpple	-11.6081
▁kristendomen	-11.6081
stav	-11.6081
▁sjunker	-11.6081
▁springer	-11.6081
▁vädja	-11.6081
▁nödsituation	-11.6081
▁gömmer	-11.6081
▁allians	-11.6081
▁Micro	-11.6081
▁sänt	-11.6081
▁olämplig	-11.6082
▁grät	-11.6083
▁1967	-11.6083
▁sköter	-11.6083
▁Kevin	-11.6083
▁härstamma	-11.6083
▁irriterande	-11.6084
▁ombud	-11.6084
▁bekostnad	-11.6084
▁sjunka	-11.6084
▁förordningar	-11.6085
▁långsammare	-11.6086
FI	-11.6087
▁stig	-11.6088
▁påbörjade	-11.6089
▁intervention	-11.609
▁kryptera	-11.609
▁evangeliet	-11.6091
▁nationalitet	-11.6091
▁kännedom	-11.6093
▁populäraste	-11.6094
▁Lön	-11.6094
▁ingrepp	-11.6094
▁stått	-11.6094
flagg	-11.6095
▁regera	-11.6096
▁nedsatt	-11.6096
säsongen	-11.61
grav	-11.6101
▁uppskattas	-11.6101
▁Report	-11.6102
▁spot	-11.6102
▁officiell	-11.6102
▁utmärkelse	-11.6103
▁chaufför	-11.6103
▁Sakna	-11.6103
▁Gissa	-11.6104
▁Lil	-11.6104
▁rytm	-11.6108
▁UV	-11.611
▁statlig	-11.6113
▁riva	-11.6113
▁beställningar	-11.6113
priserna	-11.6119
politisk	-11.612
burn	-11.612
▁oroliga	-11.6121
▁skadan	-11.6122
▁förenade	-11.6122
▁kartan	-11.6127
away	-11.6129
▁blinda	-11.6129
▁kommunist	-11.613
▁hoppar	-11.6131
▁Skatte	-11.6135
0,000	-11.6137
▁låda	-11.6141
topp	-11.6142
▁elbil	-11.6144
röd	-11.6147
▁kö	-11.6148
▁steroider	-11.6148
Pojk	-11.6149
▁våldsam	-11.615
▁musklerna	-11.615
stämning	-11.6153
▁konungen	-11.6153
kedja	-11.6154
ämning	-11.6156
▁Stort	-11.6157
åringar	-11.6157
IR	-11.6158
▁pil	-11.6163
▁romantiska	-11.6167
▁Dark	-11.6167
▁norm	-11.6169
▁evenemanget	-11.6172
▁styrkan	-11.6173
▁förnybara	-11.6174
▁57	-11.6175
▁NA	-11.6176
icke	-11.6178
▁tufft	-11.6179
ligaste	-11.6182
▁Produkten	-11.6182
kompetens	-11.6185
egenskaper	-11.6186
procent	-11.6186
Läs	-11.6187
plex	-11.6187
▁lyckad	-11.6187
▁installerade	-11.6187
▁läraren	-11.619
▁hamnat	-11.619
▁utrymmen	-11.6191
golv	-11.6191
omfattande	-11.6193
fatta	-11.6195
▁China	-11.6199
universitetet	-11.62
1%	-11.62
▁Kid	-11.6201
▁lämpa	-11.6201
byråer	-11.6202
▁kommunicerar	-11.6204
kyrkan	-11.6204
vägg	-11.6205
▁dygn	-11.6205
▁gris	-11.6205
Låt	-11.6207
ful	-11.6209
▁beräkningen	-11.621
familj	-11.6213
rock	-11.6215
Ty	-11.6216
▁Statistik	-11.6216
▁Tio	-11.6219
▁samtalet	-11.622
opi	-11.6223
▁Ran	-11.6224
▁förvirrad	-11.6225
rubrik	-11.6226
sförfarandet	-11.6226
ved	-11.6228
▁vardagsrum	-11.623
view	-11.623
▁Rumänien	-11.623
▁ackumulera	-11.623
▁oförglömlig	-11.623
▁osannolik	-11.623
▁Söder	-11.623
▁Tredje	-11.623
▁autism	-11.623
▁incident	-11.623
▁impuls	-11.623
förhållningssätt	-11.623
▁moské	-11.623
▁trång	-11.623
▁Rädd	-11.623
▁indikation	-11.623
▁plagg	-11.623
▁stängs	-11.623
▁Dublin	-11.623
world	-11.623
▁Carolina	-11.623
▁Product	-11.6231
▁befallning	-11.6231
▁glädja	-11.6232
▁Mun	-11.6232
▁Silver	-11.6232
▁1969	-11.6232
▁enkät	-11.6233
▁Week	-11.6234
▁SO	-11.6234
▁Luft	-11.6234
▁böter	-11.6235
▁läsaren	-11.6235
▁Låg	-11.6237
nöt	-11.6237
▁underskatta	-11.6237
▁uppmaning	-11.6238
▁arbetslösa	-11.6238
▁vistas	-11.6239
▁hinna	-11.6241
▁förfrågningar	-11.6242
▁jurist	-11.6243
▁tacksamma	-11.6244
fyllda	-11.6245
▁gymnasie	-11.6245
tec	-11.6251
▁proteiner	-11.6253
känsla	-11.6254
temperatur	-11.6257
▁funka	-11.6258
▁smuts	-11.6259
▁låtit	-11.6264
▁boskap	-11.6265
marknaderna	-11.6266
▁#1	-11.6267
▁DE	-11.6267
▁märken	-11.6269
▁Notera	-11.6272
▁Sign	-11.6272
▁väljs	-11.6272
▁skadat	-11.6273
▁arbetsdagar	-11.6276
▁fruktansvärda	-11.6278
▁dramatiskt	-11.6279
▁Way	-11.628
▁snacka	-11.6288
▁förändrat	-11.6289
▁Moon	-11.6289
▁legitima	-11.629
▁mordet	-11.6292
▁erkända	-11.6301
▁italiensk	-11.6303
ution	-11.6305
0%	-11.6311
▁penna	-11.6311
▁vägarna	-11.6312
▁konstruerade	-11.6313
▁deltid	-11.6315
CR	-11.6315
▁Tel	-11.6315
▁förlusten	-11.6317
banken	-11.6318
81	-11.6318
gro	-11.6318
metrisk	-11.6322
▁fästa	-11.6324
▁riktlinjerna	-11.6324
▁Råd	-11.6325
▁tö	-11.6326
2013	-11.6327
2000	-11.6329
▁mid	-11.633
▁Ari	-11.6332
åå	-11.6333
SR	-11.6335
▁läka	-11.6336
protein	-11.6336
bränn	-11.634
▁programmering	-11.6346
▁fallit	-11.6346
sarbetet	-11.6347
▁stjäla	-11.6353
▁PL	-11.6353
byggnaden	-11.6354
▁medgivande	-11.6355
▁intressera	-11.6355
kontoret	-11.6359
▁%)	-11.6368
▁medvetandet	-11.6368
▁rädslan	-11.637
▁nationerna	-11.6371
▁fotografier	-11.6374
▁Az	-11.6375
positionen	-11.6376
undersökningar	-11.6377
vanlig	-11.6377
Då	-11.638
▁avdelningar	-11.6381
▁Manhattan	-11.6382
▁Tokyo	-11.6382
▁Absolut	-11.6382
▁café	-11.6382
▁dysfunktion	-11.6382
▁flög	-11.6382
doktrin	-11.6382
▁balkong	-11.6382
▁orgasm	-11.6382
▁Sydamerika	-11.6382
▁Dream	-11.6382
▁Svårt	-11.6382
▁otaliga	-11.6382
▁kvadratmeter	-11.6382
▁Östersjön	-11.6382
▁erkänt	-11.6382
▁mammor	-11.6382
▁spelautomater	-11.6382
▁Azure	-11.6382
▁klassificeras	-11.6382
▁Andrew	-11.6382
arbetstillfällen	-11.6382
▁70-	-11.6383
▁gymmet	-11.6383
▁insistera	-11.6383
▁Utmärkt	-11.6383
▁blixt	-11.6383
▁1983	-11.6384
▁Skype	-11.6384
▁Flash	-11.6384
▁ugn	-11.6385
▁Travel	-11.6385
▁signatur	-11.6387
▁tilldelats	-11.6388
ique	-11.6388
▁rön	-11.6388
▁spred	-11.6388
▁Operation	-11.6388
▁nedåt	-11.6388
▁moment	-11.6388
▁Uber	-11.6389
▁auktoriserad	-11.6389
▁Marketing	-11.639
▁utmärk	-11.639
▁♥	-11.6392
växling	-11.6393
▁Testa	-11.6393
▁undertecknade	-11.6393
ambi	-11.6394
range	-11.6394
▁burk	-11.6397
▁levererade	-11.6397
▁Modell	-11.64
▁motorer	-11.6403
▁Susan	-11.6403
▁förvaltar	-11.6405
▁installationen	-11.6407
uz	-11.6407
bio	-11.6408
▁slavar	-11.6409
▁showen	-11.6411
▁stiftelse	-11.6411
▁guider	-11.6413
▁serier	-11.6417
▁noggrannhet	-11.642
visningar	-11.6422
EE	-11.6423
vak	-11.6425
▁Story	-11.6425
bort	-11.6426
mini	-11.6426
▁berömd	-11.6427
▁fortsättningen	-11.6427
▁kommunistisk	-11.6431
▁bestäms	-11.6432
▁socialdemokrat	-11.6432
[...]
