<unk>	0
<s>	0
</s>	0
er	-0
en	-1
▁s	-2
ar	-3
an	-4
in	-5
et	-6
▁d	-7
▁f	-8
▁a	-9
ll	-10
tt	-11
▁o	-12
▁m	-13
ör	-14
ti	-15
är	-16
▁v	-17
▁h	-18
om	-19
▁k	-20
st	-21
▁b	-22
ch	-23
▁p	-24
ig	-25
on	-26
▁för	-27
▁och	-28
▁att	-29
or	-30
de	-31
ing	-32
na	-33
ka	-34
▁i	-35
än	-36
ra	-37
ed	-38
▁är	-39
▁en	-40
▁in	-41
ag	-42
▁g	-43
▁l	-44
▁t	-45
▁ti	-46
▁av	-47
▁u	-48
▁som	-49
el	-50
▁n	-51
is	-52
ta	-53
▁D	-54
▁till	-55
ter	-56
te	-57
re	-58
▁det	-59
ck	-60
▁på	-61
▁e	-62
lig	-63
▁med	-64
ro	-65
pp	-66
▁de	-67
ning	-68
der	-69
ån	-70
▁vi	-71
as	-72
▁an	-73
▁S	-74
am	-75
al	-76
ver	-77
▁den	-78
▁var	-79
un	-80
▁j	-81
år	-82
at	-83
kt	-84
ri	-85
▁om	-86
▁st	-87
▁inte	-88
▁har	-89
ss	-90
tion	-91
▁M	-92
il	-93
ett	-94
da	-95
ller	-96
em	-97
äl	-98
and	-99
▁du	-100
li	-101
▁V	-102
sk	-103
▁r	-104
▁ut	-105
ätt	-106
▁H	-107
ade	-108
▁kan	-109
ande	-110
▁ett	-111
ur	-112
▁be	-113
▁A	-114
lla	-115
åg	-116
are	-117
▁fr	-118
het	-119
▁F	-120
it	-121
ad	-122
omm	-123
▁E	-124
den	-125
ol	-126
▁sk	-127
▁Det	-128
▁ö	-129
▁jag	-130
för	-131
ska	-132
▁J	-133
sta	-134
▁I	-135
▁T	-136
äg	-137
▁upp	-138
▁B	-139
ot	-140
ång	-141
▁komm	-142
▁eller	-143
▁1	-144
▁så	-145
▁P	-146
si	-147
▁re	-148
▁N	-149
▁ska	-150
ut	-151
▁O	-152
▁från	-153
änd	-154
▁K	-155
es	-156
ak	-157
itt	-158
▁un	-159
ort	-160
äm	-161
ent	-162
▁(	-163
▁pro	-164
ma	-165
ek	-166
▁G	-167
inn	-168
▁2	-169
ans	-170
▁sp	-171
um	-172
..	-173
▁L	-174
ens	-175
us	-176
▁någ	-177
la	-178
fter	-179
▁C	-180
isk	-181
iv	-182
yck	-183
▁kommer	-184
▁över	-185
ligt	-186
ud	-187
era	-188
▁sam	-189
dra	-190
va	-191
ara	-192
ina	-193
▁Jag	-194
▁när	-195
äll	-196
▁all	-197
liga	-198
og	-199
änn	-200
▁gör	-201
▁R	-202
ram	-203
ster	-204
▁kon	-205
sa	-206
ff	-207
ul	-208
jäl	-209
var	-210
ser	-211
ik	-212
le	-213
ell	-214
ste	-215
sp	-216
▁ar	-217
bet	-218
▁sig	-219
äng	-220
iska	-221
sl	-222
rä	-223
▁min	-224
▁vara	-225
00	-226
kti	-227
ker	-228
dig	-229
▁å	-230
del	-231
▁anv	-232
▁under	-233
▁man	-234
▁Vi	-235
▁dig	-236
ull	-237
så	-238
▁han	-239
ven	-240
arna	-241
yg	-242
ers	-243
je	-244
uk	-245
▁beh	-246
▁år	-247
▁U	-248
▁må	-249
▁men	-250
▁"	-251
att	-252
bb	-253
▁gen	-254
▁här	-255
ft	-256
▁där	-257
▁hel	-258
pa	-259
▁De	-260
se	-261
ci	-262
ve	-263
tal	-264
inns	-265
▁För	-266
▁ny	-267
▁alla	-268
gi	-269
ga	-270
ger	-271
▁efter	-272
ne	-273
od	-274
▁vär	-275
▁kun	-276
art	-277
▁ock	-278
erna	-279
▁bli	-280
▁tr	-281
▁också	-282
▁ha	-283
ats	-284
ok	-285
▁Den	-286
ill	-287
▁ver	-288
sam	-289
▁finns	-290
all	-291
▁fl	-292
▁andra	-293
▁vill	-294
ic	-295
ningen	-296
▁En	-297
▁del	-298
▁gr	-299
ling	-300
▁In	-301
▁din	-302
ycket	-303
▁än	-304
for	-305
▁mig	-306
▁c	-307
öj	-308
▁or	-309
▁mer	-310
▁sl	-311
ilj	-312
▁genom	-313
▁vis	-314
kl	-315
▁ä	-316
▁se	-317
öd	-318
▁ex	-319
os	-320
▁”	-321
ningar	-322
id	-323
▁er	-324
▁detta	-325
▁dess	-326
▁dag	-327
▁dem	-328
itet	-329
▁–	-330
▁bör	-331
▁hon	-332
▁-	-333
edan	-334
▁mycket	-335
ord	-336
▁fram	-337
terna	-338
▁na	-339
ligen	-340
erson	-341
▁bara	-342
yn	-343
und	-344
ist	-345
ark	-346
tiv	-347
hå	-348
▁väl	-349
▁vid	-350
sö	-351
per	-352
ånga	-353
land	-354
ce	-355
gen	-356
▁vad	-357
▁få	-358
▁tv	-359
ja	-360
▁vil	-361
mer	-362
▁ing	-363
▁mot	-364
▁verk	-365
▁W	-366
rå	-367
vis	-368
▁någon	-369
▁göra	-370
▁arbet	-371
▁Men	-372
▁sin	-373
▁ta	-374
tioner	-375
eras	-376
est	-377
▁hur	-378
änder	-379
ella	-380
ju	-381
▁pl	-382
▁själ	-383
▁20	-384
ulle	-385
▁person	-386
cka	-387
ring	-388
▁po	-389
sen	-390
lem	-391
ld	-392
opp	-393
arn	-394
▁denna	-395
...	-396
▁Om	-397
▁oss	-398
▁spel	-399
▁bet	-400
lighet	-401
▁ber	-402
▁3	-403
▁kl	-404
▁liv	-405
▁säg	-406
▁Du	-407
ru	-408
sti	-409
▁skulle	-410
yr	-411
▁vår	-412
▁li	-413
ant	-414
▁rätt	-415
▁hö	-416
dag	-417
▁sätt	-418
skap	-419
▁allt	-420
nan	-421
▁använd	-422
tat	-423
▁nu	-424
rig	-425
som	-426
▁männ	-427
äk	-428
▁behö	-429
pl	-430
▁stor	-431
ber	-432
▁kv	-433
aren	-434
▁kom	-435
nad	-436
öl	-437
ende	-438
ken	-439
ket	-440
ön	-441
yd	-442
▁även	-443
▁br	-444
ier	-445
ställ	-446
▁for	-447
▁måste	-448
▁vet	-449
ock	-450
ts	-451
▁många	-452
▁får	-453
öm	-454
▁Och	-455
etag	-456
▁hade	-457
ress	-458
tid	-459
▁utan	-460
sm	-461
kel	-462
▁något	-463
▁barn	-464
▁då	-465
▁hjäl	-466
veck	-467
▁St	-468
▁människ	-469
äst	-470
du	-471
▁bil	-472
bil	-473
▁bra	-474
åra	-475
des	-476
▁första	-477
vär	-478
yst	-479
gt	-480
▁tid	-481
ering	-482
▁dessa	-483
▁le	-484
rar	-485
ost	-486
ann	-487
ets	-488
▁An	-489
ända	-490
im	-491
ick	-492
ion	-493
äker	-494
▁fa	-495
erade	-496
▁bl	-497
tionen	-498
▁inne	-499
ala	-500
▁19	-501
lika	-502
sätt	-503
▁inom	-504
op	-505
ästa	-506
▁ser	-507
▁gång	-508
▁Ä	-509
▁två	-510
uro	-511
ia	-512
▁201	-513
verk	-514
vs	-515
▁sina	-516
▁möj	-517
▁själv	-518
▁först	-519
heter	-520
▁fort	-521
ott	-522
ass	-523
▁of	-524
▁ju	-525
håll	-526
ika	-527
str	-528
man	-529
åt	-530
ellan	-531
upp	-532
▁hå	-533
▁människor	-534
jän	-535
▁Han	-536
▁Detta	-537
nat	-538
lden	-539
▁hem	-540
▁När	-541
▁ri	-542
▁5	-543
digt	-544
▁sm	-545
sion	-546
tro	-547
ystem	-548
else	-549
▁utveck	-550
▁Hur	-551
det	-552
ov	-553
▁åt	-554
▁hand	-555
ölj	-556
kon	-557
▁fråg	-558
▁ni	-559
▁nya	-560
▁sta	-561
▁fun	-562
org	-563
gång	-564
▁mellan	-565
▁ka	-566
▁ditt	-567
ytt	-568
iga	-569
▁Vad	-570
▁ra	-571
▁sak	-572
nings	-573
▁Var	-574
▁behöver	-575
lev	-576
nar	-577
▁ma	-578
▁4	-579
▁börj	-580
ym	-581
▁w	-582
▁våra	-583
▁säker	-584
forma	-585
▁olika	-586
ele	-587
▁företag	-588
▁pre	-589
jär	-590
▁led	-591
ägg	-592
ien	-593
tis	-594
ack	-595
▁vä	-596
).	-597
▁milj	-598
he	-599
duk	-600
▁hela	-601
mar	-602
▁läng	-603
▁hög	-604
▁världen	-605
▁lag	-606
oll	-607
▁säger	-608
▁vikti	-609
▁sitt	-610
▁gj	-611
▁dina	-612
▁int	-613
▁sv	-614
▁mo	-615
heten	-616
lar	-617
▁åter	-618
▁sedan	-619
fr	-620
pel	-621
▁några	-622
▁stör	-623
▁deras	-624
fatt	-625
▁varje	-626
ära	-627
▁gå	-628
andet	-629
▁sen	-630
▁di	-631
▁pr	-632
gr	-633
▁förb	-634
erar	-635
▁kän	-636
anska	-637
sök	-638
gram	-639
▁per	-640
▁gl	-641
▁blir	-642
ub	-643
tur	-644
edel	-645
ob	-646
dan	-647
▁kö	-648
vet	-649
▁te	-650
▁enda	-651
▁ty	-652
men	-653
ygg	-654
ir	-655
formation	-656
▁Un	-657
▁skall	-658
tera	-659
▁res	-660
▁ro	-661
▁honom	-662
min	-663
▁ig	-664
▁hitt	-665
erad	-666
änner	-667
ang	-668
▁Gud	-669
riv	-670
par	-671
nas	-672
▁alltid	-673
dom	-674
▁fin	-675
▁sj	-676
usi	-677
ös	-678
▁äl	-679
▁slut	-680
net	-681
di	-682
ys	-683
▁förs	-684
pro	-685
▁går	-686
arbet	-687
▁bå	-688
▁mark	-689
▁samma	-690
pe	-691
alt	-692
äs	-693
▁väg	-694
ation	-695
tiska	-696
ål	-697
▁tro	-698
äd	-699
ske	-700
ank	-701
▁Så	-702
eg	-703
▁vän	-704
▁hen	-705
igt	-706
▁hans	-707
▁Att	-708
▁helt	-709
olk	-710
▁par	-711
▁änd	-712
uv	-713
sb	-714
▁grund	-715
gar	-716
far	-717
kten	-718
nader	-719
ba	-720
blem	-721
▁Fr	-722
▁200	-723
äller	-724
▁varit	-725
▁Euro	-726
▁vilket	-727
ät	-728
dre	-729
skar	-730
▁ur	-731
lin	-732
▁lång	-733
ebb	-734
sten	-735
▁best	-736
cent	-737
ellt	-738
skil	-739
▁information	-740
ättre	-741
▁samt	-742
▁läm	-743
utom	-744
orde	-745
▁kunna	-746
▁använda	-747
ingen	-748
▁läg	-749
ow	-750
▁Med	-751
▁eg	-752
av	-753
äck	-754
▁mitt	-755
▁so	-756
ie	-757
▁bästa	-758
▁ingen	-759
▁ger	-760
▁tre	-761
vänd	-762
▁pen	-763
▁bättre	-764
▁fil	-765
komm	-766
älla	-767
gan	-768
anden	-769
▁6	-770
▁trä	-771
pt	-772
▁Har	-773
▁ge	-774
▁följ	-775
ingar	-776
gifter	-777
▁annan	-778
▁tjän	-779
▁tän	-780
▁kr	-781
iskt	-782
▁erb	-783
▁spe	-784
gör	-785
ldrig	-786
tiva	-787
▁arti	-788
▁produk	-789
ekn	-790
▁ly	-791
▁al	-792
empel	-793
▁igen	-794
▁reg	-795
▁kra	-796
orna	-797
xt	-798
olog	-799
slut	-800
▁bi	-801
▁annat	-802
▁förv	-803
ef	-804
istor	-805
▁mest	-806
▁lite	-807
▁vin	-808
lek	-809
unt	-810
andling	-811
äns	-812
svar	-813
▁aldrig	-814
▁Sk	-815
▁van	-816
▁webb	-817
▁sö	-818
naden	-819
▁eff	-820
enter	-821
▁sna	-822
talet	-823
tta	-824
▁hos	-825
▁speci	-826
▁gra	-827
tionella	-828
erat	-829
▁förl	-830
▁ord	-831
tiskt	-832
ug	-833
▁on	-834
▁akti	-835
met	-836
ung	-837
▁fall	-838
uta	-839
▁si	-840
ades	-841
.”	-842
led	-843
▁produ	-844
bar	-845
▁mål	-846
mans	-847
▁tar	-848
▁svar	-849
▁komma	-850
▁Dess	-851
tag	-852
▁ch	-853
uvud	-854
▁flera	-855
oka	-856
rätt	-857
▁7	-858
▁Ch	-859
▁fär	-860
▁lever	-861
jer	-862
jekt	-863
ropp	-864
teg	-865
▁bort	-866
anta	-867
▁stora	-868
▁dom	-869
▁kvinn	-870
ator	-871
▁eftersom	-872
▁skri	-873
▁snabb	-874
ast	-875
gär	-876
br	-877
baka	-878
▁medlem	-879
▁egen	-880
▁öpp	-881
▁ve	-882
▁problem	-883
▁Kan	-884
▁blev	-885
▁Ett	-886
ote	-887
▁plan	-888
obb	-889
▁val	-890
fe	-891
▁pa	-892
ke	-893
kta	-894
▁På	-895
kom	-896
▁ofta	-897
▁US	-898
▁Hon	-899
▁exempel	-900
eller	-901
fl	-902
▁mis	-903
ard	-904
ab	-905
rum	-906
nen	-907
ånd	-908
▁verkligen	-909
yl	-910
▁10	-911
▁tror	-912
tar	-913
▁enligt	-914
yra	-915
kor	-916
▁tidig	-917
åd	-918
▁tillbaka	-919
▁krä	-920
▁.	-921
▁innan	-922
▁sn	-923
▁gäller	-924
pen	-925
ektiv	-926
amilj	-927
oner	-928
▁8	-929
▁lär	-930
▁tekn	-931
oli	-932
▁Re	-933
▁komp	-934
▁Alla	-935
ärskil	-936
▁mat	-937
▁kall	-938
elser	-939
▁Pro	-940
▁häl	-941
sför	-942
▁hjär	-943
▁off	-944
."	-945
▁pra	-946
atser	-947
▁organ	-948
▁hör	-949
▁rel	-950
ust	-951
▁Y	-952
raf	-953
ultat	-954
rid	-955
▁full	-956
▁lig	-957
ående	-958
000	-959
▁syn	-960
▁natur	-961
▁fick	-962
farande	-963
▁sjuk	-964
▁Är	-965
sh	-966
▁vatt	-967
▁områ	-968
tig	-969
fin	-970
▁rö	-971
▁män	-972
▁ner	-973
▁dire	-974
▁“	-975
ata	-976
iver	-977
▁[	-978
sak	-979
▁Till	-980
▁intress	-981
▁Man	-982
jud	-983
lägg	-984
ktor	-985
plats	-986
sammans	-987
derna	-988
cess	-989
▁plats	-990
ren	-991
▁bok	-992
las	-993
nes	-994
med	-995
▁Där	-996
▁berätt	-997
eh	-998
ler	-999
nade	-1000
▁kunde	-1001
▁9	-1002
▁kanske	-1003
tu	-1004
▁föränd	-1005
teri	-1006
▁All	-1007
▁land	-1008
),	-1009
▁huvud	-1010
▁god	-1011
bild	-1012
▁kont	-1013
▁sådan	-1014
▁Som	-1015
▁Ne	-1016
▁nam	-1017
kade	-1018
mär	-1019
▁kär	-1020
älj	-1021
▁forsk	-1022
konom	-1023
▁mö	-1024
ender	-1025
io	-1026
sin	-1027
räck	-1028
▁både	-1029
▁möjlighet	-1030
▁stöd	-1031
▁använder	-1032
▁hjälp	-1033
kar	-1034
▁särskil	-1035
▁sy	-1036
▁utveckling	-1037
▁program	-1038
alitet	-1039
▁histor	-1040
▁kropp	-1041
oh	-1042
▁em	-1043
anda	-1044
rist	-1045
▁bland	-1046
▁artikel	-1047
▁dra	-1048
▁fle	-1049
▁erbju	-1050
▁met	-1051
sn	-1052
▁lä	-1053
▁saker	-1054
▁familj	-1055
▁EU	-1056
▁lätt	-1057
▁form	-1058
▁Ö	-1059
▁lik	-1060
giv	-1061
pan	-1062
samhet	-1063
årt	-1064
▁lå	-1065
▁redan	-1066
”.	-1067
▁mina	-1068
▁säga	-1069
ycker	-1070
▁USA	-1071
▁jobb	-1072
▁ekonom	-1073
▁poli	-1074
▁före	-1075
▁idag	-1076
ex	-1077
▁Ar	-1078
▁gam	-1079
▁dö	-1080
▁hän	-1081
▁regi	-1082
▁Här	-1083
ister	-1084
ner	-1085
▁Efter	-1086
▁personer	-1087
▁mindre	-1088
▁fortfarande	-1089
▁bek	-1090
enskap	-1091
▁risk	-1092
▁dock	-1093
form	-1094
▁tidigare	-1095
▁Ma	-1096
terar	-1097
▁interna	-1098
orm	-1099
▁gjort	-1100
äv	-1101
yt	-1102
▁Å	-1103
slag	-1104
▁ligger	-1105
tik	-1106
sf	-1107
ret	-1108
▁enkel	-1109
▁tillsammans	-1110
▁fri	-1111
▁lö	-1112
▁ställ	-1113
▁endast	-1114
▁kontro	-1115
▁red	-1116
▁vissa	-1117
▁väldigt	-1118
aste	-1119
▁skyd	-1120
▁tal	-1121
stånd	-1122
spro	-1123
▁Varför	-1124
if	-1125
▁im	-1126
gon	-1127
▁Denna	-1128
▁system	-1129
▁ob	-1130
▁inkl	-1131
ivå	-1132
▁håll	-1133
▁soci	-1134
lag	-1135
▁Nu	-1136
▁procent	-1137
rott	-1138
ument	-1139
ry	-1140
tet	-1141
▁fast	-1142
▁förstå	-1143
amma	-1144
▁rör	-1145
▁inneb	-1146
▁dr	-1147
▁sa	-1148
häll	-1149
ivers	-1150
▁hjälpa	-1151
▁inter	-1152
gäng	-1153
▁möjligt	-1154
▁ytt	-1155
▁längre	-1156
▁fak	-1157
ind	-1158
▁folk	-1159
▁fortsätt	-1160
▁bak	-1161
jur	-1162
▁Ut	-1163
▁kor	-1164
▁hus	-1165
skri	-1166
▁...	-1167
män	-1168
▁tiden	-1169
▁pengar	-1170
▁största	-1171
▁försö	-1172
▁and	-1173
▁läk	-1174
▁värld	-1175
ämp	-1176
20	-1177
▁kons	-1178
▁tag	-1179
bart	-1180
klar	-1181
▁pris	-1182
anc	-1183
▁fel	-1184
me	-1185
▁organis	-1186
▁äg	-1187
spel	-1188
▁data	-1189
yndig	-1190
olag	-1191
▁vatten	-1192
▁bestäm	-1193
ari	-1194
ten	-1195
▁kost	-1196
▁därför	-1197
▁produkter	-1198
▁Under	-1199
ård	-1200
ligare	-1201
▁känner	-1202
drag	-1203
▁väx	-1204
▁fler	-1205
▁kli	-1206
▁ele	-1207
bo	-1208
ris	-1209
håller	-1210
ha	-1211
▁kvinnor	-1212
▁förm	-1213
▁vårt	-1214
▁flyg	-1215
".	-1216
väg	-1217
▁dri	-1218
▁bety	-1219
ps	-1220
uter	-1221
▁fem	-1222
▁ener	-1223
▁resultat	-1224
▁Ja	-1225
tisk	-1226
▁främ	-1227
▁to	-1228
▁skapa	-1229
▁ansvar	-1230
▁beslut	-1231
▁tra	-1232
ori	-1233
▁sex	-1234
oende	-1235
äpp	-1236
▁kul	-1237
tif	-1238
ige	-1239
bland	-1240
från	-1241
▁henne	-1242
▁The	-1243
▁används	-1244
red	-1245
▁Se	-1246
ubli	-1247
▁und	-1248
▁förbätt	-1249
▁tim	-1250
▁sid	-1251
▁utt	-1252
▁Vil	-1253
alis	-1254
ästan	-1255
▁funk	-1256
▁stu	-1257
pi	-1258
▁jäm	-1259
tering	-1260
änk	-1261
▁dagar	-1262
▁flesta	-1263
so	-1264
▁18	-1265
▁stud	-1266
▁nog	-1267
▁viktigt	-1268
▁rikti	-1269
▁veck	-1270
▁säkerhet	-1271
fri	-1272
▁räd	-1273
▁nära	-1274
▁el	-1275
vit	-1276
port	-1277
ras	-1278
van	-1279
▁öka	-1280
▁runt	-1281
▁Europa	-1282
cis	-1283
▁bygg	-1284
▁fot	-1285
vent	-1286
▁sti	-1287
▁pla	-1288
▁hitta	-1289
▁tillgäng	-1290
one	-1291
▁död	-1292
▁kort	-1293
▁gjorde	-1294
▁visar	-1295
▁större	-1296
▁lika	-1297
föra	-1298
ften	-1299
▁länder	-1300
tas	-1301
åga	-1302
▁Sver	-1303
▁tillh	-1304
▁15	-1305
▁star	-1306
▁själva	-1307
▁samhäll	-1308
ännu	-1309
ars	-1310
▁kvar	-1311
line	-1312
▁trans	-1313
ission	-1314
vä	-1315
▁ännu	-1316
ons	-1317
▁gem	-1318
▁stat	-1319
andel	-1320
▁allmän	-1321
val	-1322
bara	-1323
▁namn	-1324
sst	-1325
▁Min	-1326
▁ih	-1327
▁grupp	-1328
sig	-1329
▁innebär	-1330
ge	-1331
▁händer	-1332
▁hennes	-1333
ffär	-1334
tra	-1335
äder	-1336
▁börjar	-1337
▁tred	-1338
terade	-1339
ationer	-1340
▁vilken	-1341
▁konta	-1342
▁varför	-1343
▁senaste	-1344
bel	-1345
tade	-1346
gel	-1347
▁omfatt	-1348
merik	-1349
▁ön	-1350
ansi	-1351
ktur	-1352
▁bor	-1353
elsen	-1354
otell	-1355
igheter	-1356
▁ne	-1357
▁kommun	-1358
jus	-1359
kan	-1360
varande	-1361
▁viktiga	-1362
▁bas	-1363
▁marknad	-1364
▁Dessa	-1365
▁enkelt	-1366
▁styr	-1367
ringar	-1368
▁hålla	-1369
fär	-1370
▁lös	-1371
▁hopp	-1372
▁samarbet	-1373
yll	-1374
akt	-1375
ine	-1376
▁ung	-1377
▁fråga	-1378
vi	-1379
▁direkt	-1380
ay	-1381
▁ad	-1382
▁ned	-1383
tidigt	-1384
▁förh	-1385
rev	-1386
gräns	-1387
verka	-1388
andra	-1389
terial	-1390
▁aktiv	-1391
▁nöd	-1392
▁Sam	-1393
cke	-1394
ity	-1395
▁fått	-1396
satt	-1397
tivt	-1398
▁inför	-1399
örer	-1400
▁Mar	-1401
▁betal	-1402
▁blivit	-1403
▁tycker	-1404
▁älskar	-1405
▁små	-1406
▁erbjuder	-1407
tr	-1408
por	-1409
▁Vis	-1410
▁stra	-1411
▁nästan	-1412
▁byg	-1413
▁skol	-1414
▁vilka	-1415
unk	-1416
eter	-1417
inner	-1418
▁bed	-1419
▁typ	-1420
ice	-1421
▁inve	-1422
▁åtgär	-1423
▁nytt	-1424
▁projekt	-1425
▁särskilt	-1426
▁behandling	-1427
unda	-1428
illar	-1429
▁tjänster	-1430
råk	-1431
▁nät	-1432
peiska	-1433
▁står	-1434
▁inget	-1435
iten	-1436
▁ind	-1437
our	-1438
dens	-1439
▁rapp	-1440
▁livet	-1441
eb	-1442
▁arbete	-1443
▁loka	-1444
▁ytter	-1445
▁skap	-1446
▁op	-1447
▁bef	-1448
▁ögon	-1449
▁ter	-1450
uella	-1451
▁rum	-1452
▁länge	-1453
▁senare	-1454
fer	-1455
▁kam	-1456
yk	-1457
ständ	-1458
▁konst	-1459
▁et	-1460
▁tillgång	-1461
▁&	-1462
▁energi	-1463
hus	-1464
onen	-1465
▁uppf	-1466
dar	-1467
rit	-1468
▁just	-1469
▁Kon	-1470
▁mas	-1471
▁amerik	-1472
▁samman	-1473
▁icke	-1474
▁Inte	-1475
▁bel	-1476
▁miljoner	-1477
▁gånger	-1478
▁funger	-1479
res	-1480
▁euro	-1481
▁Sverige	-1482
iner	-1483
samma	-1484
ligtvis	-1485
▁uppt	-1486
▁musi	-1487
rik	-1488
▁miljö	-1489
▁via	-1490
ral	-1491
dent	-1492
▁webbplats	-1493
▁utbild	-1494
olen	-1495
sättning	-1496
▁fyra	-1497
▁affär	-1498
▁kärlek	-1499
Jag	-1500
▁Allt	-1501
oder	-1502
▁000	-1503
▁id	-1504
unkt	-1505
▁kör	-1506
▁Le	-1507
cker	-1508
▁12	-1509
▁fanta	-1510
▁spela	-1511
▁dagen	-1512
öst	-1513
▁tredje	-1514
▁Al	-1515
okus	-1516
▁Gen	-1517
▁förlor	-1518
faren	-1519
▁part	-1520
▁Även	-1521
▁faktiskt	-1522
▁ci	-1523
ins	-1524
▁cent	-1525
mat	-1526
▁gick	-1527
till	-1528
▁frågor	-1529
▁veta	-1530
▁nödvänd	-1531
ron	-1532
▁lu	-1533
inna	-1534
ött	-1535
▁kri	-1536
▁behov	-1537
cen	-1538
förs	-1539
▁råd	-1540
ighet	-1541
▁Komm	-1542
sikt	-1543
usive	-1544
▁tog	-1545
▁30	-1546
▁började	-1547
över	-1548
▁stort	-1549
▁kunder	-1550
uss	-1551
fil	-1552
▁såg	-1553
ställa	-1554
▁posi	-1555
no	-1556
co	-1557
▁tur	-1558
dera	-1559
els	-1560
ekt	-1561
▁sade	-1562
▁far	-1563
rat	-1564
▁teknik	-1565
rupp	-1566
▁str	-1567
fäll	-1568
itu	-1569
▁steg	-1570
▁rekomm	-1571
▁rep	-1572
▁effektiv	-1573
▁delar	-1574
änt	-1575
lick	-1576
▁lära	-1577
▁Då	-1578
cy	-1579
▁finansi	-1580
▁egna	-1581
▁uppgifter	-1582
fall	-1583
▁Go	-1584
▁Ty	-1585
▁(1	-1586
ration	-1587
▁förut	-1588
ux	-1589
▁sjukdom	-1590
▁fann	-1591
▁Upp	-1592
▁båda	-1593
▁gången	-1594
▁framti	-1595
ternativ	-1596
▁tillämp	-1597
▁Någ	-1598
spr	-1599
▁köpa	-1600
▁nästa	-1601
ond	-1602
▁medan	-1603
▁träff	-1604
ings	-1605
▁snabbt	-1606
bl	-1607
▁arbetar	-1608
fråg	-1609
▁månader	-1610
vid	-1611
!!	-1612
ou	-1613
ran	-1614
▁emot	-1615
▁beg	-1616
tionell	-1617
nande	-1618
ork	-1619
▁välja	-1620
▁invester	-1621
get	-1622
▁myndig	-1623
▁behand	-1624
ong	-1625
▁ol	-1626
▁håller	-1627
▁besök	-1628
▁199	-1629
▁liten	-1630
▁mänsk	-1631
▁svårt	-1632
▁minska	-1633
delse	-1634
▁vänner	-1635
asin	-1636
▁tillräck	-1637
stad	-1638
▁precis	-1639
ct	-1640
▁avs	-1641
▁iden	-1642
vik	-1643
▁vack	-1644
▁framgång	-1645
▁hjälper	-1646
▁blod	-1647
▁Jes	-1648
▁handlar	-1649
▁disk	-1650
ita	-1651
kte	-1652
icka	-1653
ograf	-1654
ningarna	-1655
▁pri	-1656
▁föräl	-1657
▁online	-1658
▁varandra	-1659
▁erfaren	-1660
ism	-1661
enti	-1662
pul	-1663
enhet	-1664
▁timmar	-1665
lam	-1666
▁djur	-1667
ns	-1668
▁innehåller	-1669
▁reger	-1670
▁hal	-1671
hålla	-1672
▁fokus	-1673
Det	-1674
▁riktigt	-1675
ite	-1676
elef	-1677
▁näm	-1678
ktiv	-1679
▁ytterligare	-1680
▁Av	-1681
▁Många	-1682
▁Ro	-1683
▁/	-1684
▁:	-1685
dade	-1686
▁dator	-1687
avs	-1688
▁stad	-1689
▁publi	-1690
kur	-1691
▁Her	-1692
▁Ta	-1693
ont	-1694
ore	-1695
alen	-1696
▁11	-1697
▁skill	-1698
▁pass	-1699
its	-1700
”,	-1701
▁app	-1702
▁process	-1703
▁Fa	-1704
▁ljus	-1705
vol	-1706
yss	-1707
▁början	-1708
0-	-1709
ktyg	-1710
unden	-1711
ror	-1712
▁Sh	-1713
▁lycka	-1714
▁the	-1715
▁tills	-1716
▁fördel	-1717
vara	-1718
▁sådana	-1719
▁fantasti	-1720
▁inga	-1721
▁sett	-1722
▁Z	-1723
▁glob	-1724
▁Mo	-1725
under	-1726
▁året	-1727
ått	-1728
▁pati	-1729
▁kvalitet	-1730
ember	-1731
▁bild	-1732
▁fungerar	-1733
▁nivå	-1734
▁inklusive	-1735
teras	-1736
▁desig	-1737
▁följande	-1738
ölja	-1739
▁bud	-1740
sra	-1741
▁New	-1742
▁känna	-1743
▁Guds	-1744
eln	-1745
▁användning	-1746
",	-1747
öv	-1748
▁sista	-1749
▁fi	-1750
▁förbättra	-1751
lan	-1752
▁ab	-1753
▁forskning	-1754
▁produkt	-1755
▁öv	-1756
▁begräns	-1757
uppgifter	-1758
orden	-1759
▁100	-1760
▁ann	-1761
up	-1762
▁antal	-1763
▁betyder	-1764
▁långt	-1765
eder	-1766
iet	-1767
▁Be	-1768
▁offent	-1769
▁borde	-1770
borg	-1771
▁köp	-1772
▁ute	-1773
▁kraft	-1774
▁ac	-1775
▁by	-1776
lder	-1777
▁mäng	-1778
▁förhåll	-1779
▁helst	-1780
▁minuter	-1781
▁inf	-1782
▁bo	-1783
ssta	-1784
▁användas	-1785
bas	-1786
▁ens	-1787
▁vidare	-1788
går	-1789
▁roll	-1790
▁världens	-1791
▁mil	-1792
▁avsl	-1793
kv	-1794
snitt	-1795
▁gillar	-1796
▁samtidigt	-1797
▁gamla	-1798
äss	-1799
▁16	-1800
▁ren	-1801
▁åtgärder	-1802
räd	-1803
use	-1804
ösa	-1805
▁Ex	-1806
tes	-1807
▁verksamhet	-1808
▁tack	-1809
int	-1810
▁minst	-1811
▁sidan	-1812
icin	-1813
▁haft	-1814
▁ang	-1815
▁go	-1816
▁anal	-1817
▁internationella	-1818
▁resp	-1819
ruktur	-1820
▁Joh	-1821
▁krig	-1822
▁sym	-1823
▁univers	-1824
▁•	-1825
▁äm	-1826
▁Vill	-1827
▁värde	-1828
juk	-1829
fess	-1830
stället	-1831
ya	-1832
ök	-1833
▁fas	-1834
ton	-1835
stitu	-1836
▁släpp	-1837
▁läsa	-1838
▁material	-1839
▁gemens	-1840
▁Ska	-1841
▁Vid	-1842
tions	-1843
lade	-1844
anna	-1845
▁Co	-1846
ubb	-1847
▁fru	-1848
▁flytt	-1849
▁tillfäll	-1850
▁Res	-1851
sprung	-1852
▁tyd	-1853
▁börja	-1854
ordning	-1855
▁verkar	-1856
tem	-1857
▁vem	-1858
dagen	-1859
len	-1860
▁mär	-1861
▁högre	-1862
▁kontroller	-1863
▁viktig	-1864
▁natt	-1865
issionen	-1866
▁fatt	-1867
▁Därför	-1868
fi	-1869
▁tank	-1870
avsett	-1871
▁någonsin	-1872
ap	-1873
▁pol	-1874
▁Fl	-1875
▁visa	-1876
sol	-1877
tim	-1878
omen	-1879
▁innehåll	-1880
▁mag	-1881
grupp	-1882
▁elekt	-1883
▁17	-1884
▁25	-1885
▁situ	-1886
system	-1887
▁fanns	-1888
▁Läs	-1889
▁Sedan	-1890
▁13	-1891
växt	-1892
ännande	-1893
▁tillhanda	-1894
▁%	-1895
▁ganska	-1896
▁anställ	-1897
▁cir	-1898
▁rekommender	-1899
▁skicka	-1900
lad	-1901
cep	-1902
iteten	-1903
▁enlighet	-1904
ater	-1905
drar	-1906
▁blog	-1907
▁bilder	-1908
▁kar	-1909
unn	-1910
▁defin	-1911
▁sag	-1912
▁Jesus	-1913
▁såsom	-1914
lats	-1915
▁mör	-1916
▁alternativ	-1917
▁indiv	-1918
▁gener	-1919
▁Or	-1920
staur	-1921
▁orsak	-1922
rade	-1923
▁Eller	-1924
diga	-1925
▁Stor	-1926
▁sociala	-1927
bi	-1928
▁Ad	-1929
▁tem	-1930
▁film	-1931
▁uppn	-1932
▁utman	-1933
▁genomför	-1934
kn	-1935
▁Fin	-1936
märk	-1937
▁sven	-1938
▁kallas	-1939
▁Pa	-1940
▁lämna	-1941
▁Ber	-1942
▁godk	-1943
▁kunskap	-1944
cer	-1945
fte	-1946
▁framför	-1947
ph	-1948
▁sol	-1949
▁upph	-1950
▁14	-1951
ationen	-1952
ox	-1953
ansk	-1954
▁tänka	-1955
tals	-1956
▁kol	-1957
▁komb	-1958
▁alltså	-1959
▁spelar	-1960
.1	-1961
rust	-1962
▁hemma	-1963
▁dröm	-1964
▁registr	-1965
▁historia	-1966
nam	-1967
kter	-1968
▁låg	-1969
▁kopp	-1970
▁test	-1971
bu	-1972
▁utbildning	-1973
▁gar	-1974
▁kräver	-1975
....	-1976
▁Par	-1977
emang	-1978
▁jord	-1979
lex	-1980
▁låt	-1981
ui	-1982
atur	-1983
derar	-1984
▁resa	-1985
▁träd	-1986
▁landet	-1987
usen	-1988
söka	-1989
lament	-1990
▁extra	-1991
▁jämför	-1992
▁meddel	-1993
post	-1994
▁idé	-1995
▁utanför	-1996
ej	-1997
gift	-1998
▁föd	-1999
▁musik	-2000
▁vilja	-2001
▁hotell	-2002
▁Varje	-2003
▁heller	-2004
▁krävs	-2005
▁popul	-2006
igh	-2007
▁marknaden	-2008
▁ursprung	-2009
▁koll	-2010
▁staden	-2011
▁tillräckligt	-2012
▁ibland	-2013
▁50	-2014
▁ins	-2015
verkar	-2016
▁arbeta	-2017
iss	-2018
▁vå	-2019
▁Ser	-2020
▁skydd	-2021
lien	-2022
ummer	-2023
▁Genom	-2024
▁försöker	-2025
inci	-2026
▁sek	-2027
▁ovan	-2028
▁kontroll	-2029
ssystem	-2030
tiker	-2031
▁känn	-2032
▁Ni	-2033
ryck	-2034
indra	-2035
▁rå	-2036
po	-2037
▁va	-2038
▁känsl	-2039
ligheten	-2040
undra	-2041
▁utveckla	-2042
band	-2043
▁anled	-2044
nova	-2045
▁mode	-2046
ester	-2047
ikation	-2048
▁y	-2049
▁Bl	-2050
mark	-2051
ulla	-2052
by	-2053
▁su	-2054
▁medvet	-2055
▁rappor	-2056
ferens	-2057
stag	-2058
skriv	-2059
▁tradi	-2060
▁arbets	-2061
ana	-2062
ting	-2063
▁hår	-2064
▁vide	-2065
▁lo	-2066
▁Sa	-2067
▁So	-2068
▁äta	-2069
▁förvän	-2070
ätta	-2071
▁mobil	-2072
▁konkur	-2073
▁områden	-2074
be	-2075
vice	-2076
▁X	-2077
▁rättigheter	-2078
▁presen	-2079
▁ville	-2080
▁ko	-2081
▁Vem	-2082
▁maj	-2083
▁hund	-2084
ors	-2085
▁ändå	-2086
inne	-2087
komst	-2088
▁insta	-2089
▁inb	-2090
▁Th	-2091
smedel	-2092
▁kyr	-2093
ppa	-2094
chen	-2095
tigt	-2096
▁ålder	-2097
▁räk	-2098
▁utom	-2099
skaper	-2100
ue	-2101
▁Dessutom	-2102
lut	-2103
mi	-2104
ionen	-2105
▁teck	-2106
▁vägen	-2107
amp	-2108
▁villkor	-2109
vor	-2110
ekter	-2111
▁lämp	-2112
skt	-2113
▁leva	-2114
yp	-2115
plan	-2116
▁älska	-2117
▁,	-2118
▁fortsätta	-2119
ärt	-2120
▁åren	-2121
▁vetenskap	-2122
▁lev	-2123
dern	-2124
▁fortsätter	-2125
tiga	-2126
▁sagt	-2127
▁profess	-2128
▁spelare	-2129
ås	-2130
vin	-2131
stri	-2132
▁ihåg	-2133
▁Q	-2134
vän	-2135
▁ant	-2136
▁snart	-2137
▁grän	-2138
▁följa	-2139
▁vanliga	-2140
▁slag	-2141
▁kväll	-2142
uld	-2143
▁Goog	-2144
▁prakti	-2145
öjd	-2146
▁dok	-2147
▁sida	-2148
▁handel	-2149
▁skriver	-2150
▁funktion	-2151
▁norm	-2152
▁trän	-2153
▁Ingen	-2154
tre	-2155
skatt	-2156
▁bäst	-2157
▁öppna	-2158
▁exper	-2159
▁läkem	-2160
▁slutet	-2161
tighet	-2162
fekt	-2163
▁Från	-2164
▁allvar	-2165
▁medicin	-2166
▁skriva	-2167
▁dju	-2168
ologi	-2169
▁morg	-2170
▁lägga	-2171
▁kultur	-2172
▁Tro	-2173
▁tänker	-2174
mal	-2175
▁hittar	-2176
▁amerikanska	-2177
▁dör	-2178
entligen	-2179
▁bö	-2180
cera	-2181
▁For	-2182
sikti	-2183
urser	-2184
▁vecka	-2185
▁0	-2186
cept	-2187
▁telef	-2188
väm	-2189
dant	-2190
▁inklu	-2191
iera	-2192
▁förklar	-2193
ydd	-2194
▁kn	-2195
räff	-2196
▁ers	-2197
▁språk	-2198
▁stand	-2199
▁Använd	-2200
och	-2201
▁fred	-2202
▁lyss	-2203
lingar	-2204
▁fys	-2205
▁fören	-2206
▁Pre	-2207
ancer	-2208
▁medel	-2209
▁redo	-2210
▁upplev	-2211
▁påverka	-2212
▁klass	-2213
age	-2214
▁Låt	-2215
▁Sta	-2216
stans	-2217
program	-2218
▁insp	-2219
fa	-2220
▁gär	-2221
▁Sp	-2222
kra	-2223
▁kommit	-2224
läg	-2225
▁eget	-2226
napp	-2227
▁regel	-2228
▁Hel	-2229
▁aktivitet	-2230
eri	-2231
▁event	-2232
lös	-2233
mare	-2234
▁glöm	-2235
▁verktyg	-2236
▁Ha	-2237
organ	-2238
öll	-2239
▁ans	-2240
rådet	-2241
▁titt	-2242
▁skriv	-2243
▁innova	-2244
▁ändra	-2245
▁hoppas	-2246
orn	-2247
▁indu	-2248
▁sluta	-2249
▁co	-2250
▁Kom	-2251
▁akt	-2252
▁klar	-2253
pass	-2254
platser	-2255
▁Enligt	-2256
repp	-2257
▁säl	-2258
-1	-2259
ich	-2260
kla	-2261
seende	-2262
▁identif	-2263
etter	-2264
ER	-2265
öt	-2266
väl	-2267
▁försök	-2268
rafik	-2269
▁försv	-2270
eringen	-2271
▁gratis	-2272
▁käns	-2273
▁Mer	-2274
▁san	-2275
äcka	-2276
▁utför	-2277
▁ja	-2278
åter	-2279
▁bu	-2280
står	-2281
▁bakom	-2282
▁kroppen	-2283
aga	-2284
gra	-2285
▁skatt	-2286
dor	-2287
ycka	-2288
minist	-2289
▁uppda	-2290
▁väljer	-2291
▁platser	-2292
▁kontakt	-2293
▁brott	-2294
visa	-2295
▁Tack	-2296
▁hälsa	-2297
▁ekonomiska	-2298
tegi	-2299
▁ps	-2300
▁Isra	-2301
öp	-2302
tjän	-2303
bud	-2304
ies	-2305
▁färg	-2306
▁användare	-2307
otenti	-2308
örj	-2309
ement	-2310
▁bygga	-2311
göra	-2312
▁års	-2313
▁Google	-2314
▁behövs	-2315
201	-2316
▁sh	-2317
▁månad	-2318
▁erfarenhet	-2319
▁vux	-2320
▁typer	-2321
ida	-2322
efär	-2323
ey	-2324
▁version	-2325
▁egentligen	-2326
▁medlemssta	-2327
▁App	-2328
▁upptäck	-2329
▁Europeiska	-2330
▁Inter	-2331
iti	-2332
olm	-2333
full	-2334
kring	-2335
bruk	-2336
otter	-2337
stift	-2338
▁Te	-2339
äkring	-2340
▁tjänst	-2341
äkra	-2342
▁bolag	-2343
▁säkert	-2344
▁beroende	-2345
▁relig	-2346
▁förn	-2347
▁istället	-2348
han	-2349
▁gott	-2350
lo	-2351
arder	-2352
▁Kina	-2353
▁rikt	-2354
▁punkt	-2355
rip	-2356
lit	-2357
▁pas	-2358
Vi	-2359
her	-2360
▁skyl	-2361
tit	-2362
▁mor	-2363
▁oro	-2364
företag	-2365
▁*	-2366
följ	-2367
▁»	-2368
▁äldre	-2369
lever	-2370
▁kvinna	-2371
▁dist	-2372
delser	-2373
▁övert	-2374
kas	-2375
rea	-2376
▁Li	-2377
▁försälj	-2378
ham	-2379
▁mä	-2380
▁tillväxt	-2381
kin	-2382
▁finnas	-2383
▁sju	-2384
▁tillgängliga	-2385
▁erbjud	-2386
ici	-2387
gera	-2388
▁jorden	-2389
klart	-2390
▁gått	-2391
▁följer	-2392
▁området	-2393
▁Ti	-2394
▁nationella	-2395
▁betala	-2396
book	-2397
juta	-2398
arnas	-2399
okra	-2400
▁chans	-2401
▁förstår	-2402
pon	-2403
▁Ge	-2404
▁ham	-2405
▁goda	-2406
sident	-2407
skning	-2408
▁sök	-2409
▁garan	-2410
▁stäng	-2411
▁läkemedel	-2412
▁tj	-2413
▁erk	-2414
utoma	-2415
▁Idag	-2416
▁mamma	-2417
▁frågan	-2418
▁förordning	-2419
▁stark	-2420
▁design	-2421
▁Jo	-2422
▁inv	-2423
▁fisk	-2424
lingen	-2425
▁am	-2426
▁engel	-2427
EN	-2428
pital	-2429
▁låter	-2430
rän	-2431
▁uppmärk	-2432
▁närheten	-2433
▁ca	-2434
orer	-2435
EG	-2436
länd	-2437
▁parti	-2438
▁veckan	-2439
tala	-2440
ställning	-2441
lat	-2442
uni	-2443
▁läkare	-2444
▁röst	-2445
▁betyd	-2446
▁skydda	-2447
▁studen	-2448
▁ske	-2449
▁Över	-2450
▁trots	-2451
usk	-2452
▁Sen	-2453
▁specif	-2454
▁do	-2455
▁bri	-2456
▁krav	-2457
ög	-2458
▁ben	-2459
▁tio	-2460
asino	-2461
▁avtal	-2462
ollar	-2463
enting	-2464
▁förber	-2465
▁24	-2466
▁Sy	-2467
▁ban	-2468
▁Hans	-2469
▁sann	-2470
läggande	-2471
qu	-2472
stra	-2473
▁kring	-2474
▁personuppgifter	-2475
▁tillverk	-2476
▁universitet	-2477
▁sep	-2478
▁deltag	-2479
ment	-2480
samt	-2481
▁198	-2482
▁Vilka	-2483
rom	-2484
▁viss	-2485
▁mar	-2486
▁halv	-2487
▁detal	-2488
teck	-2489
▁hälso	-2490
▁viktigaste	-2491
▁rad	-2492
▁igenom	-2493
▁potenti	-2494
ider	-2495
▁Car	-2496
▁Ka	-2497
▁svår	-2498
▁klart	-2499
▁klimat	-2500
ip	-2501
ian	-2502
volu	-2503
ula	-2504
kort	-2505
▁beskri	-2506
fta	-2507
▁gav	-2508
▁författ	-2509
edd	-2510
riär	-2511
ona	-2512
ören	-2513
▁gud	-2514
▁bruk	-2515
ände	-2516
ektion	-2517
nal	-2518
▁skapar	-2519
▁Univers	-2520
▁säkerställa	-2521
▁Din	-2522
▁topp	-2523
▁våld	-2524
▁ford	-2525
tional	-2526
▁accep	-2527
▁tillstånd	-2528
gag	-2529
vika	-2530
▁övrig	-2531
▁lokala	-2532
mt	-2533
vå	-2534
▁känd	-2535
▁public	-2536
▁framtiden	-2537
tive	-2538
▁him	-2539
▁Vissa	-2540
stå	-2541
▁log	-2542
▁kund	-2543
▁ifrån	-2544
bygg	-2545
nytt	-2546
efter	-2547
▁titta	-2548
▁läs	-2549
▁cirka	-2550
ash	-2551
▁ap	-2552
▁vikt	-2553
produk	-2554
ess	-2555
▁försöka	-2556
▁dat	-2557
▁start	-2558
▁företaget	-2559
ald	-2560
ows	-2561
▁ev	-2562
önster	-2563
▁defini	-2564
▁gammal	-2565
▁perfekt	-2566
▁nå	-2567
▁dela	-2568
erades	-2569
server	-2570
beh	-2571
stol	-2572
▁mon	-2573
▁priv	-2574
▁delen	-2575
▁syfte	-2576
iz	-2577
▁veckor	-2578
▁marknadsför	-2579
com	-2580
elev	-2581
uell	-2582
▁nätverk	-2583
2.	-2584
aket	-2585
ogen	-2586
lands	-2587
▁princi	-2588
én	-2589
ban	-2590
▁lad	-2591
▁Kanske	-2592
jut	-2593
aler	-2594
▁kred	-2595
▁psyk	-2596
▁påverkar	-2597
▁behöva	-2598
▁människa	-2599
nt	-2600
ital	-2601
▁Vår	-2602
▁liknande	-2603
▁politiska	-2604
▁regl	-2605
▁hantera	-2606
▁nödvändigt	-2607
ssk	-2608
ält	-2609
rikt	-2610
▁område	-2611
▁svenska	-2612
▁orsa	-2613
▁enhet	-2614
▁sättet	-2615
▁partner	-2616
utveck	-2617
verkan	-2618
▁skada	-2619
▁omkring	-2620
rym	-2621
▁bete	-2622
▁föres	-2623
▁utmär	-2624
cc	-2625
▁nor	-2626
▁makt	-2627
▁Wind	-2628
▁tagit	-2629
tionellt	-2630
▁La	-2631
▁känns	-2632
▁ram	-2633
pas	-2634
ämpa	-2635
▁bär	-2636
▁Tänk	-2637
▁bevis	-2638
▁samband	-2639
▁'	-2640
▁luft	-2641
cebook	-2642
▁grundläggande	-2643
mas	-2644
▁sådant	-2645
ylla	-2646
▁föräldrar	-2647
▁samarbete	-2648
rekt	-2649
▁vinna	-2650
liv	-2651
emål	-2652
oden	-2653
▁låta	-2654
▁kalla	-2655
allt	-2656
holm	-2657
▁begär	-2658
▁undvika	-2659
▁ungefär	-2660
▁Sch	-2661
uellt	-2662
▁rädd	-2663
ho	-2664
▁Fil	-2665
▁högsta	-2666
äkt	-2667
entar	-2668
▁skillnad	-2669
▁os	-2670
▁leda	-2671
▁undersök	-2672
pla	-2673
sida	-2674
▁konsum	-2675
▁mänskliga	-2676
▁kommissionen	-2677
leva	-2678
▁leder	-2679
agn	-2680
ium	-2681
melser	-2682
▁beräk	-2683
mo	-2684
ffe	-2685
▁döda	-2686
▁hjärta	-2687
kning	-2688
▁anti	-2689
▁automa	-2690
▁förslag	-2691
▁Gör	-2692
▁oavsett	-2693
▁engag	-2694
▁gärna	-2695
▁består	-2696
▁tu	-2697
▁satt	-2698
▁skär	-2699
sterna	-2700
▁erbjuda	-2701
▁40	-2702
bund	-2703
alans	-2704
▁lin	-2705
▁rela	-2706
▁sker	-2707
▁sätta	-2708
när	-2709
rak	-2710
▁21	-2711
▁häm	-2712
xi	-2713
▁$	-2714
jen	-2715
▁Vär	-2716
ekomm	-2717
stauran	-2718
ktorer	-2719
▁närvarande	-2720
▁stol	-2721
▁antalet	-2722
▁Bo	-2723
▁at	-2724
▁kal	-2725
▁tor	-2726
▁tillhör	-2727
umär	-2728
▁bred	-2729
▁infl	-2730
▁mass	-2731
▁anges	-2732
▁hållbar	-2733
bolag	-2734
▁Gl	-2735
enta	-2736
skol	-2737
▁Frank	-2738
▁berör	-2739
▁milit	-2740
gå	-2741
let	-2742
▁ihop	-2743
▁storlek	-2744
▁sem	-2745
▁berätta	-2746
arm	-2747
råden	-2748
cember	-2749
iens	-2750
▁Gre	-2751
▁2018	-2752
▁höra	-2753
5.	-2754
isen	-2755
▁upprätt	-2756
▁internet	-2757
▁Bil	-2758
▁Kommer	-2759
▁stället	-2760
▁prata	-2761
▁utgör	-2762
▁Gr	-2763
▁enskil	-2764
we	-2765
▁lokal	-2766
▁mängd	-2767
▁uppen	-2768
▁förändring	-2769
to	-2770
anu	-2771
▁giv	-2772
▁mott	-2773
▁boken	-2774
dde	-2775
▁blogg	-2776
▁söker	-2777
förande	-2778
▁bad	-2779
▁fly	-2780
▁favor	-2781
▁profession	-2782
0.	-2783
uden	-2784
▁relev	-2785
ach	-2786
sav	-2787
▁lön	-2788
resen	-2789
▁vackra	-2790
ologiska	-2791
ekan	-2792
▁klas	-2793
▁böcker	-2794
▁omedel	-2795
▁europeiska	-2796
▁kem	-2797
▁tas	-2798
skott	-2799
▁dokument	-2800
▁ej	-2801
istan	-2802
tionerna	-2803
▁speciellt	-2804
▁möjligheter	-2805
skra	-2806
▁höga	-2807
▁drabb	-2808
200	-2809
▁Con	-2810
▁regler	-2811
▁Ob	-2812
▁nr	-2813
▁mån	-2814
änna	-2815
▁Ste	-2816
▁instr	-2817
▁rik	-2818
sluta	-2819
tiken	-2820
ännisk	-2821
▁bekväm	-2822
▁medborg	-2823
▁cy	-2824
▁Dan	-2825
▁Windows	-2826
▁Beh	-2827
heterna	-2828
beroende	-2829
▁organisation	-2830
brit	-2831
▁säs	-2832
▁fastställ	-2833
ektiva	-2834
ood	-2835
▁skolan	-2836
åde	-2837
rike	-2838
▁produktion	-2839
▁He	-2840
▁Spel	-2841
fli	-2842
▁ton	-2843
ockholm	-2844
▁telefon	-2845
▁vak	-2846
arakt	-2847
▁bekrä	-2848
agen	-2849
vens	-2850
rande	-2851
sidan	-2852
vak	-2853
onom	-2854
▁nuvarande	-2855
press	-2856
▁Eftersom	-2857
stående	-2858
▁liksom	-2859
▁intresse	-2860
▁År	-2861
betal	-2862
▁dessutom	-2863
▁patienter	-2864
ines	-2865
▁text	-2866
araktär	-2867
britann	-2868
▁framgångs	-2869
tic	-2870
bord	-2871
öder	-2872
▁gre	-2873
▁sön	-2874
▁fjär	-2875
▁opera	-2876
▁Än	-2877
▁bry	-2878
▁säll	-2879
▁ljud	-2880
▁leverant	-2881
▁alls	-2882
▁match	-2883
▁dollar	-2884
▁anställda	-2885
▁Bi	-2886
▁lån	-2887
▁unga	-2888
visning	-2889
▁197	-2890
▁lug	-2891
lunda	-2892
▁häst	-2893
▁skäl	-2894
▁ersätt	-2895
▁utrust	-2896
▁administ	-2897
▁samhället	-2898
▁funktioner	-2899
▁knapp	-2900
▁stopp	-2901
▁Di	-2902
▁York	-2903
▁förra	-2904
▁högt	-2905
▁ring	-2906
▁yr	-2907
▁tje	-2908
▁Tysk	-2909
▁Finns	-2910
▁behör	-2911
▁uppnå	-2912
,5	-2913
tember	-2914
▁kredit	-2915
▁Bar	-2916
▁era	-2917
skapet	-2918
talien	-2919
▁konkurr	-2920
▁2016	-2921
▁december	-2922
▁Storbritann	-2923
bok	-2924
▁ständ	-2925
▁favorit	-2926
▁ingenting	-2927
ink	-2928
gård	-2929
ure	-2930
▁lek	-2931
▁Nord	-2932
▁ledande	-2933
▁president	-2934
olv	-2935
öts	-2936
▁2017	-2937
▁John	-2938
▁ökar	-2939
ination	-2940
parlament	-2941
▁kommunikation	-2942
▁Ph	-2943
▁Ra	-2944
sprogram	-2945
ake	-2946
boll	-2947
▁Ryss	-2948
▁nega	-2949
▁bedöm	-2950
▁livsmedel	-2951
vill	-2952
▁rom	-2953
▁Facebook	-2954
▁engelska	-2955
amen	-2956
ivil	-2957
stone	-2958
▁enkla	-2959
▁ensam	-2960
▁fullt	-2961
▁studie	-2962
▁utform	-2963
▁uttryck	-2964
ifrån	-2965
▁juni	-2966
▁skön	-2967
anuari	-2968
▁underhåll	-2969
▁varumär	-2970
▁chef	-2971
▁platt	-2972
eta	-2973
ril	-2974
ftet	-2975
▁Liv	-2976
▁total	-2977
▁förändra	-2978
▁Interna	-2979
▁her	-2980
▁vare	-2981
▁respek	-2982
antag	-2983
erande	-2984
aten	-2985
▁studier	-2986
▁medlemmar	-2987
järn	-2988
▁Ver	-2989
▁Hopp	-2990
▁rädda	-2991
:1	-2992
▁dags	-2993
▁privat	-2994
▁utnytt	-2995
▁antingen	-2996
öja	-2997
icro	-2998
▁färdig	-2999
▁Stockholm	-3000
▁Själ	-3001
sch	-3002
▁förvär	-3003
äcker	-3004
▁ingår	-3005
kes	-3006
skydd	-3007
▁Barn	-3008
▁Mark	-3009
▁Andra	-3010
▁visas	-3011
▁överens	-3012
▁någonting	-3013
kul	-3014
ober	-3015
▁mars	-3016
▁beror	-3017
▁fö	-3018
pper	-3019
atter	-3020
▁vitt	-3021
▁frukt	-3022
organis	-3023
3.	-3024
▁befolk	-3025
jor	-3026
▁Lond	-3027
▁anpass	-3028
▁barnen	-3029
▁täv	-3030
▁visste	-3031
▁individ	-3032
▁karriär	-3033
▁käll	-3034
▁lyck	-3035
▁menar	-3036
▁Vilken	-3037
▁lösningar	-3038
▁förändringar	-3039
lare	-3040
använd	-3041
▁absol	-3042
naderna	-3043
▁globala	-3044
▁fullständ	-3045
?"	-3046
urs	-3047
▁Väl	-3048
▁hum	-3049
▁talar	-3050
▁utvecklingen	-3051
emot	-3052
▁ide	-3053
enden	-3054
▁kapital	-3055
za	-3056
rad	-3057
olket	-3058
▁motsvar	-3059
▁direktiv	-3060
▁standard	-3061
▁Sm	-3062
▁TV	-3063
amer	-3064
▁service	-3065
▁Su	-3066
▁fordon	-3067
▁kommentar	-3068
▁behå	-3069
▁tekniska	-3070
▁Per	-3071
▁glad	-3072
▁vita	-3073
▁exakt	-3074
ly	-3075
iod	-3076
rör	-3077
ensi	-3078
▁San	-3079
▁anser	-3080
▁Israel	-3081
▁morgon	-3082
.)	-3083
urg	-3084
äkerhet	-3085
▁personliga	-3086
th	-3087
rans	-3088
▁Tur	-3089
▁ark	-3090
tisti	-3091
▁spelet	-3092
▁januari	-3093
▁dro	-3094
▁tusen	-3095
4.	-3096
avid	-3097
gress	-3098
ligheter	-3099
?”	-3100
▁Ju	-3101
tter	-3102
▁skilj	-3103
▁social	-3104
▁industri	-3105
▁installer	-3106
äna	-3107
▁lilla	-3108
▁september	-3109
▁196	-3110
▁dubb	-3111
▁anses	-3112
▁behöv	-3113
▁förstör	-3114
▁kompl	-3115
▁personal	-3116
▁förhållande	-3117
orten	-3118
▁extre	-3119
▁skrev	-3120
▁medlemsstaterna	-3121
ca	-3122
▁dy	-3123
värd	-3124
▁Våra	-3125
▁kron	-3126
▁Europaparlament	-3127
på	-3128
rel	-3129
klag	-3130
vård	-3131
delar	-3132
▁produc	-3133
▁Kv	-3134
orlunda	-3135
▁gemensam	-3136
▁gemenskap	-3137
9.	-3138
klara	-3139
▁tala	-3140
▁vacker	-3141
minstone	-3142
artyg	-3143
▁bost	-3144
istiska	-3145
råd	-3146
▁offici	-3147
▁anledning	-3148
▁>	-3149
poli	-3150
skon	-3151
▁rym	-3152
▁dotter	-3153
▁Internet	-3154
AR	-3155
▁hot	-3156
▁genera	-3157
▁namnet	-3158
▁uppdrag	-3159
▁Del	-3160
▁bes	-3161
itter	-3162
strin	-3163
änderna	-3164
▁visade	-3165
▁lagstift	-3166
säg	-3167
▁Po	-3168
värr	-3169
▁analys	-3170
▁stress	-3171
hör	-3172
etens	-3173
yller	-3174
▁arbetet	-3175
▁skyldig	-3176
gl	-3177
ama	-3178
dat	-3179
ftar	-3180
sats	-3181
▁avses	-3182
▁Person	-3183
▁karaktär	-3184
▁gemensamma	-3185
▁hy	-3186
▁Kar	-3187
▁Pla	-3188
ktober	-3189
stauranger	-3190
enn	-3191
▁son	-3192
▁tecken	-3193
▁överför	-3194
▁Amer	-3195
satta	-3196
tryck	-3197
▁uppfatt	-3198
▁#	-3199
bli	-3200
blick	-3201
▁otro	-3202
▁Några	-3203
▁ansök	-3204
▁tillgänglig	-3205
▁vars	-3206
▁njuta	-3207
▁studenter	-3208
ffa	-3209
▁II	-3210
▁Bara	-3211
▁prote	-3212
▁konsek	-3213
▁mening	-3214
▁framtid	-3215
ager	-3216
igen	-3217
släpp	-3218
▁Följ	-3219
▁vanligt	-3220
lic	-3221
▁no	-3222
licka	-3223
▁berättar	-3224
▁—	-3225
amm	-3226
▁jul	-3227
isering	-3228
▁fortsatt	-3229
▁strategi	-3230
amål	-3231
stäm	-3232
▁inre	-3233
▁post	-3234
▁sälj	-3235
▁tyck	-3236
▁Nation	-3237
▁inlägg	-3238
▁systemet	-3239
▁glas	-3240
▁vård	-3241
▁represen	-3242
▁kända	-3243
▁London	-3244
▁förmåga	-3245
of	-3246
▁?	-3247
▁Hå	-3248
▁ok	-3249
▁utö	-3250
inder	-3251
▁häls	-3252
▁lämnar	-3253
▁elektron	-3254
jan	-3255
koh	-3256
edda	-3257
▁regeringen	-3258
abl	-3259
▁my	-3260
▁önskar	-3261
rarna	-3262
givare	-3263
▁främst	-3264
bol	-3265
▁mång	-3266
▁trodde	-3267
sprocess	-3268
▁miljarder	-3269
ds	-3270
▁Storbritannien	-3271
ena	-3272
▁bit	-3273
▁bill	-3274
▁jätt	-3275
peratur	-3276
▁vanligtvis	-3277
ish	-3278
ktorn	-3279
▁David	-3280
▁avgör	-3281
▁Finland	-3282
▁Tyskland	-3283
aker	-3284
tiver	-3285
▁Nästa	-3286
▁bilden	-3287
▁modern	-3288
▁struktur	-3289
slam	-3290
▁mod	-3291
▁union	-3292
▁cancer	-3293
▁effektivt	-3294
50	-3295
syn	-3296
▁Micro	-3297
▁delta	-3298
▁Hoppas	-3299
▁Dag	-3300
▁team	-3301
▁skick	-3302
▁säkra	-3303
▁Ibland	-3304
struktur	-3305
▁bestämmelser	-3306
▁verksam	-3307
▁Ryssland	-3308
▁uppskatt	-3309
eck	-3310
▁Br	-3311
▁Er	-3312
▁me	-3313
▁jud	-3314
▁nyck	-3315
verket	-3316
▁civil	-3317
▁lägger	-3318
▁förhindra	-3319
pac	-3320
tan	-3321
▁sub	-3322
domar	-3323
fulla	-3324
troll	-3325
▁Park	-3326
▁bidra	-3327
▁annorlunda	-3328
öna	-3329
sson	-3330
▁Ind	-3331
▁poj	-3332
▁grön	-3333
gående	-3334
▁poäng	-3335
▁Hotell	-3336
▁anslut	-3337
kast	-3338
▁stå	-3339
yng	-3340
▁sov	-3341
▁uttal	-3342
atten	-3343
▁gläd	-3344
▁revolu	-3345
▁transport	-3346
▁äter	-3347
▁sälja	-3348
▁oktober	-3349
▁förekomm	-3350
▁spännande	-3351
▁offentliga	-3352
ora	-3353
▁To	-3354
slös	-3355
▁oför	-3356
▁kombin	-3357
▁genomsnitt	-3358
ali	-3359
▁AB	-3360
▁Ny	-3361
▁fäng	-3362
▁kontakta	-3363
▁bon	-3364
▁åka	-3365
terad	-3366
▁lösa	-3367
▁budget	-3368
▁bygger	-3369
▁avsnitt	-3370
▁enheter	-3371
▁sannoli	-3372
▁familjen	-3373
▁ry	-3374
ernas	-3375
▁press	-3376
▁fungera	-3377
▁forskare	-3378
In	-3379
▁FN	-3380
iker	-3381
▁län	-3382
▁huset	-3383
▁konto	-3384
▁utvär	-3385
▁lösning	-3386
▁University	-3387
tut	-3388
ture	-3389
▁video	-3390
▁därmed	-3391
▁Företag	-3392
▁träning	-3393
▁populära	-3394
▁kontrollera	-3395
alm	-3396
▁od	-3397
▁Två	-3398
splan	-3399
söker	-3400
ovember	-3401
▁ek	-3402
still	-3403
▁fruk	-3404
▁plac	-3405
▁lägre	-3406
▁fantastiska	-3407
rakt	-3408
former	-3409
▁vänta	-3410
▁kostnad	-3411
▁webbplatsen	-3412
äster	-3413
▁krea	-3414
▁integr	-3415
bum	-3416
▁flick	-3417
▁filmen	-3418
▁Am	-3419
ygga	-3420
öter	-3421
orier	-3422
▁kände	-3423
▁km	-3424
vatt	-3425
▁bid	-3426
obbet	-3427
arbete	-3428
▁hundra	-3429
▁region	-3430
▁tidigt	-3431
▁inkluderar	-3432
▁tryck	-3433
ländska	-3434
usli	-3435
▁Gra	-3436
dering	-3437
▁heter	-3438
▁besöka	-3439
mäl	-3440
▁iP	-3441
▁webbplatser	-3442
▁gi	-3443
▁Bra	-3444
ustra	-3445
▁finansiella	-3446
▁häng	-3447
eställ	-3448
▁försäljning	-3449
berg	-3450
terat	-3451
▁fång	-3452
stitut	-3453
▁brans	-3454
▁Sc	-3455
skan	-3456
▁Nya	-3457
endet	-3458
enten	-3459
ierar	-3460
ioden	-3461
▁fyll	-3462
▁lans	-3463
▁intell	-3464
▁levande	-3465
IN	-3466
IS	-3467
lack	-3468
▁spar	-3469
▁säng	-3470
▁havet	-3471
▁Människ	-3472
▁oberoende	-3473
▁Dom	-3474
▁Hen	-3475
▁vir	-3476
odligen	-3477
▁detalj	-3478
▁tankar	-3479
▁betydelse	-3480
åda	-3481
ekta	-3482
orge	-3483
▁fre	-3484
▁kval	-3485
▁möjlig	-3486
▁period	-3487
ppar	-3488
▁missl	-3489
▁effekt	-3490
ställningar	-3491
▁omfattande	-3492
son	-3493
▁Gu	-3494
punkt	-3495
▁spår	-3496
▁kontor	-3497
▁22	-3498
▁strä	-3499
▁regering	-3500
00-	-3501
▁60	-3502
stid	-3503
▁tri	-3504
▁gravid	-3505
▁avsluta	-3506
▁övertyg	-3507
▁undantag	-3508
ågan	-3509
▁inled	-3510
▁jobbet	-3511
▁ledare	-3512
▁känslor	-3513
▁snabbare	-3514
▁organisationer	-3515
AS	-3516
ocka	-3517
▁bar	-3518
▁bank	-3519
▁stär	-3520
jänster	-3521
▁absolut	-3522
ärn	-3523
enda	-3524
itta	-3525
▁djup	-3526
frågan	-3527
▁nedan	-3528
▁specifika	-3529
les	-3530
▁kateg	-3531
▁enbart	-3532
▁höll	-3533
1.	-3534
ix	-3535
▁institu	-3536
▁avseende	-3537
▁Först	-3538
▁miss	-3539
anter	-3540
tation	-3541
▁känsla	-3542
▁spender	-3543
arens	-3544
▁föred	-3545
▁utvecklas	-3546
sor	-3547
ikro	-3548
▁imp	-3549
▁folket	-3550
▁inspir	-3551
▁sitter	-3552
▁medlemsst	-3553
▁la	-3554
iken	-3555
tekn	-3556
▁cer	-3557
▁söm	-3558
▁2015	-3559
▁borta	-3560
▁långa	-3561
▁visat	-3562
▁ämnen	-3563
▁lyssna	-3564
▁metoder	-3565
▁internationell	-3566
▁dans	-3567
▁priva	-3568
▁mottag	-3569
▁orsaka	-3570
▁stabil	-3571
ign	-3572
rala	-3573
larna	-3574
▁Trots	-3575
▁dest	-3576
▁elever	-3577
aktioner	-3578
▁moderna	-3579
▁aktiviteter	-3580
▁ak	-3581
ills	-3582
▁Tra	-3583
▁Tre	-3584
▁musk	-3585
▁lista	-3586
åta	-3587
▁El	-3588
pris	-3589
▁uppm	-3590
▁Själv	-3591
▁göras	-3592
egående	-3593
▁kommande	-3594
▁verkliga	-3595
mon	-3596
▁Ac	-3597
▁ges	-3598
ungen	-3599
▁görs	-3600
▁reda	-3601
bundet	-3602
▁alkoh	-3603
▁utrym	-3604
▁trafik	-3605
▁jämfört	-3606
▁omedelbart	-3607
▁åtminstone	-3608
▁stäm	-3609
ytande	-3610
▁särskilda	-3611
ome	-3612
nars	-3613
▁bru	-3614
▁bön	-3615
▁förd	-3616
▁återv	-3617
▁framtida	-3618
ith	-3619
▁Eng	-3620
▁scen	-3621
spektiv	-3622
▁hjärtat	-3623
▁nyligen	-3624
stro	-3625
▁Fram	-3626
▁dagens	-3627
▁grad	-3628
▁demokra	-3629
sättningar	-3630
cel	-3631
das	-3632
▁köper	-3633
delning	-3634
duc	-3635
▁:)	-3636
▁kap	-3637
▁hård	-3638
▁öppen	-3639
▁balans	-3640
▁digital	-3641
▁befin	-3642
▁integ	-3643
▁vuxna	-3644
▁ställa	-3645
▁föremål	-3646
▁fotograf	-3647
inal	-3648
orld	-3649
usti	-3650
▁prov	-3651
▁sten	-3652
▁bidrag	-3653
▁nämligen	-3654
▁växa	-3655
aktion	-3656
▁litet	-3657
▁växer	-3658
▁lärare	-3659
▁uppman	-3660
▁försvar	-3661
AN	-3662
▁2.	-3663
▁kärn	-3664
▁Ho	-3665
kommen	-3666
▁huvudsak	-3667
▁ständigt	-3668
formationen	-3669
etar	-3670
grän	-3671
soft	-3672
tiser	-3673
▁ändamål	-3674
▁27	-3675
värt	-3676
▁Bet	-3677
▁hud	-3678
▁meter	-3679
▁övriga	-3680
▁möjliga	-3681
▁Frankrike	-3682
▁1.	-3683
▁23	-3684
▁slå	-3685
iddag	-3686
▁fakt	-3687
▁analy	-3688
▁krist	-3689
▁tving	-3690
▁attack	-3691
▁fallet	-3692
▁Gam	-3693
sliga	-3694
ola	-3695
▁mol	-3696
▁tit	-3697
mande	-3698
tliga	-3699
▁initi	-3700
old	-3701
▁Sn	-3702
ocker	-3703
▁söka	-3704
▁brukar	-3705
▁nummer	-3706
▁Dr	-3707
▁Sl	-3708
▁Vet	-3709
▁häv	-3710
▁hände	-3711
▁lagen	-3712
▁resten	-3713
▁starkt	-3714
▁allmänna	-3715
▁resurser	-3716
ile	-3717
▁Bus	-3718
skomm	-3719
▁hört	-3720
▁april	-3721
▁reser	-3722
▁november	-3723
cial	-3724
▁dit	-3725
▁gif	-3726
▁ång	-3727
▁Trum	-3728
▁känt	-3729
▁minn	-3730
ES	-3731
▁barnet	-3732
▁natten	-3733
mål	-3734
▁juli	-3735
▁medier	-3736
▁tänkte	-3737
▁On	-3738
▁semester	-3739
▁offentlig	-3740
tor	-3741
part	-3742
▁Air	-3743
▁etabl	-3744
ump	-3745
nivå	-3746
▁skra	-3747
▁tips	-3748
▁fotboll	-3749
ipp	-3750
▁mul	-3751
grund	-3752
▁britt	-3753
▁närma	-3754
▁central	-3755
▁uppgift	-3756
▁utmärkt	-3757
▁ir	-3758
edag	-3759
iljö	-3760
▁börjat	-3761
▁förvalt	-3762
▁intressant	-3763
til	-3764
ärta	-3765
▁max	-3766
änsyn	-3767
gas	-3768
ica	-3769
ild	-3770
▁asp	-3771
splats	-3772
▁antag	-3773
▁centrum	-3774
▁omfattar	-3775
▁rekommenderar	-3776
.[	-3777
▁kön	-3778
▁gäll	-3779
▁kallar	-3780
▁risken	-3781
▁lättare	-3782
▁konstnär	-3783
EU	-3784
wa	-3785
ira	-3786
▁36	-3787
▁Spe	-3788
▁våg	-3789
itala	-3790
▁Cent	-3791
EB	-3792
ysi	-3793
▁Bu	-3794
▁Hot	-3795
▁köra	-3796
person	-3797
▁Arbet	-3798
▁sidor	-3799
▁utfor	-3800
▁föresl	-3801
▁modell	-3802
▁frågade	-3803
▁personen	-3804
▁sch	-3805
▁starka	-3806
▁Off	-3807
ismen	-3808
▁bilen	-3809
arbetare	-3810
AT	-3811
sel	-3812
▁hända	-3813
▁kolla	-3814
▁framåt	-3815
▁passar	-3816
olf	-3817
steg	-3818
ierade	-3819
▁tydligt	-3820
olu	-3821
sut	-3822
▁28	-3823
▁Reg	-3824
unkter	-3825
▁Första	-3826
▁stanna	-3827
bra	-3828
öte	-3829
▁pat	-3830
agnos	-3831
ningsm	-3832
▁uppmunt	-3833
▁Samtidigt	-3834
▁naturliga	-3835
▁marknadsföring	-3836
▁1,	-3837
bliote	-3838
▁Krist	-3839
▁idéer	-3840
▁programmet	-3841
??	-3842
rep	-3843
ämt	-3844
ioner	-3845
unnit	-3846
▁2014	-3847
▁läser	-3848
▁motor	-3849
▁Herren	-3850
▁grunda	-3851
▁maskin	-3852
▁beskriv	-3853
▁jordbruk	-3854
▁betydande	-3855
eff	-3856
ight	-3857
sled	-3858
▁Nej	-3859
▁Tim	-3860
▁stod	-3861
▁avanc	-3862
▁motstånd	-3863
▁Microsoft	-3864
ders	-3865
▁Com	-3866
gande	-3867
▁omöj	-3868
delsen	-3869
▁beröm	-3870
▁distri	-3871
▁miljon	-3872
oss	-3873
uer	-3874
▁guld	-3875
▁nord	-3876
▁oftast	-3877
▁sätter	-3878
▁närmare	-3879
▁behandla	-3880
▁myndigheter	-3881
ruk	-3882
brott	-3883
▁gett	-3884
▁flytta	-3885
▁kläder	-3886
▁träffa	-3887
▁problemet	-3888
▁Gro	-3889
medel	-3890
▁Paul	-3891
▁port	-3892
▁händelser	-3893
▁Lu	-3894
funk	-3895
imen	-3896
▁arm	-3897
▁Apple	-3898
▁städer	-3899
▁vinter	-3900
▁produkten	-3901
zon	-3902
frika	-3903
▁växt	-3904
▁äger	-3905
▁unika	-3906
platsen	-3907
▁kompetens	-3908
ric	-3909
klare	-3910
▁värd	-3911
▁kallade	-3912
7.	-3913
garna	-3914
▁jurid	-3915
▁hänsyn	-3916
▁kontin	-3917
Om	-3918
lik	-3919
▁Ca	-3920
dags	-3921
▁arg	-3922
▁ena	-3923
spoli	-3924
▁klubb	-3925
▁smart	-3926
▁tanke	-3927
▁stödja	-3928
▁kommersi	-3929
▁Ed	-3930
bert	-3931
▁tjäna	-3932
▁priset	-3933
▁sommar	-3934
▁välkom	-3935
ath	-3936
oci	-3937
▁Da	-3938
▁Tw	-3939
▁ökad	-3940
terier	-3941
▁vapen	-3942
▁väntar	-3943
utveckling	-3944
▁egenskaper	-3945
ämn	-3946
ners	-3947
▁2008	-3948
▁Fort	-3949
gången	-3950
▁exempelvis	-3951
rang	-3952
▁ret	-3953
▁frihet	-3954
▁utföra	-3955
jöl	-3956
läs	-3957
sent	-3958
▁And	-3959
▁bev	-3960
▁fina	-3961
▁vart	-3962
▁pappa	-3963
▁spara	-3964
troende	-3965
▁bidrar	-3966
▁dåligt	-3967
▁starta	-3968
▁vänster	-3969
▁resultatet	-3970
bes	-3971
maren	-3972
▁perf	-3973
▁Skulle	-3974
atan	-3975
fred	-3976
pati	-3977
otten	-3978
titet	-3979
▁Mitt	-3980
▁klin	-3981
▁siff	-3982
▁tänk	-3983
▁Någon	-3984
▁domstol	-3985
▁privata	-3986
30	-3987
uth	-3988
ebru	-3989
▁Hem	-3990
▁ass	-3991
okies	-3992
▁solen	-3993
▁bostad	-3994
ärer	-3995
▁ill	-3996
▁jobba	-3997
▁kunnat	-3998
▁special	-3999
En	-4000
vju	-4001
▁ör	-4002
▁båt	-4003
▁dog	-4004
▁ses	-4005
onser	-4006
▁bilar	-4007
▁svart	-4008
▁promen	-4009
▁uppleva	-4010
6.	-4011
ET	-4012
För	-4013
▁Em	-4014
▁Bro	-4015
ongen	-4016
skrig	-4017
siktig	-4018
▁minim	-4019
▁kyrkan	-4020
▁eventuella	-4021
▁Sw	-4022
fet	-4023
▁Må	-4024
▁Bes	-4025
ordet	-4026
▁inträff	-4027
▁ögonblick	-4028
▁naturligtvis	-4029
rika	-4030
▁lic	-4031
▁utl	-4032
anken	-4033
stolen	-4034
▁kines	-4035
▁pratar	-4036
▁saknar	-4037
▁smärta	-4038
▁pension	-4039
▁digitala	-4040
▁Ga	-4041
amil	-4042
▁sla	-4043
▁sjun	-4044
oritet	-4045
▁super	-4046
▁såväl	-4047
▁varor	-4048
▁underl	-4049
ikt	-4050
vel	-4051
issa	-4052
uten	-4053
▁blå	-4054
ierna	-4055
sland	-4056
tiden	-4057
handel	-4058
▁Paris	-4059
▁misst	-4060
▁nytta	-4061
▁omständ	-4062
▁allmänhet	-4063
▁genomföra	-4064
▁sanningen	-4065
▁(2	-4066
▁rek	-4067
tivitet	-4068
▁alkohol	-4069
▁strateg	-4070
▁svarade	-4071
▁upptäcka	-4072
▁fantastisk	-4073
▁fört	-4074
▁sång	-4075
ebruari	-4076
▁faktum	-4077
▁förstås	-4078
regi	-4079
▁500	-4080
▁Mon	-4081
▁kung	-4082
▁tillverka	-4083
▁förmodligen	-4084
stera	-4085
▁Just	-4086
▁mikro	-4087
▁grupper	-4088
▁kristna	-4089
▁sjukhus	-4090
▁relation	-4091
bör	-4092
hand	-4093
indu	-4094
skär	-4095
▁tyst	-4096
▁använ	-4097
▁ordet	-4098
eringar	-4099
▁främja	-4100
Den	-4101
▁Kl	-4102
▁gui	-4103
▁2013	-4104
▁datum	-4105
▁processen	-4106
10	-4107
▁Pl	-4108
klam	-4109
risk	-4110
▁dej	-4111
▁hårt	-4112
sträng	-4113
▁tillåter	-4114
eda	-4115
▁Im	-4116
▁Rom	-4117
▁trev	-4118
▁ställe	-4119
▁nödvändiga	-4120
▁ag	-4121
▁gla	-4122
▁fjärde	-4123
▁fördelar	-4124
▁historien	-4125
▁förståelse	-4126
do	-4127
hem	-4128
utt	-4129
▁26	-4130
ativ	-4131
▁Ass	-4132
öllop	-4133
▁Mich	-4134
▁förlora	-4135
▁gränser	-4136
▁situation	-4137
kat	-4138
▁Lo	-4139
▁snar	-4140
▁block	-4141
▁musli	-4142
▁rätta	-4143
▁samtliga	-4144
▁försäkring	-4145
rin	-4146
▁dis	-4147
▁uts	-4148
▁nöjd	-4149
▁korrekt	-4150
▁leverans	-4151
▁personlig	-4152
▁historiska	-4153
▁ursprungliga	-4154
äls	-4155
ille	-4156
ämpar	-4157
▁ansi	-4158
▁roligt	-4159
▁straff	-4160
ordningen	-4161
▁tillhandahålla	-4162
kret	-4163
varo	-4164
▁kop	-4165
ssätt	-4166
▁omgiv	-4167
▁ävent	-4168
venemang	-4169
▁Program	-4170
▁författare	-4171
▁medborgare	-4172
ktig	-4173
unch	-4174
▁194	-4175
▁skog	-4176
▁vinn	-4177
▁svara	-4178
▁dricka	-4179
▁lyckas	-4180
▁skapat	-4181
ellertid	-4182
deles	-4183
▁Välj	-4184
▁Austra	-4185
▁Vilket	-4186
likationer	-4187
▁temperatur	-4188
ec	-4189
▁Do	-4190
unkten	-4191
▁följd	-4192
▁noggr	-4193
▁terror	-4194
▁totala	-4195
OS	-4196
akta	-4197
▁inl	-4198
▁Svar	-4199
ställd	-4200
▁flexi	-4201
▁ekonomi	-4202
▁fysiska	-4203
ägen	-4204
▁Span	-4205
▁komplex	-4206
▁misstag	-4207
▁avgörande	-4208
kopp	-4209
råde	-4210
▁möjligheten	-4211
ea	-4212
oga	-4213
▁mannen	-4214
bildning	-4215
▁normalt	-4216
▁politik	-4217
▁(19	-4218
▁2010	-4219
▁allra	-4220
▁blomm	-4221
▁lagar	-4222
▁konven	-4223
▁statisti	-4224
▁sjukdomar	-4225
▁automatiskt	-4226
▁International	-4227
▁+	-4228
own	-4229
▁Lär	-4230
▁läst	-4231
ötsligt	-4232
▁vattnet	-4233
▁befinner	-4234
The	-4235
▁lov	-4236
▁omv	-4237
▁Stud	-4238
rummet	-4239
▁baserat	-4240
▁överväg	-4241
▁behöriga	-4242
▁samhälle	-4243
▁förhållanden	-4244
här	-4245
▁tåg	-4246
sikter	-4247
▁flykt	-4248
▁miljön	-4249
stru	-4250
iness	-4251
▁stil	-4252
▁tillb	-4253
▁Mycket	-4254
▁anlägg	-4255
omb	-4256
▁fåg	-4257
▁hänt	-4258
▁energ	-4259
▁hälften	-4260
▁älskade	-4261
▁enskilda	-4262
aner	-4263
▁Mac	-4264
▁Vårt	-4265
▁fett	-4266
▁möta	-4267
▁synd	-4268
▁dålig	-4269
▁förfl	-4270
▁färger	-4271
▁=	-4272
atar	-4273
list	-4274
▁åtta	-4275
standa	-4276
▁överg	-4277
▁konfli	-4278
iva	-4279
▁Mot	-4280
▁februari	-4281
▁människan	-4282
sex	-4283
...]	-4284
▁Vän	-4285
sioner	-4286
▁Oavsett	-4287
▁konsekvens	-4288
ivån	-4289
▁mun	-4290
smark	-4291
struk	-4292
▁möte	-4293
▁värt	-4294
pacitet	-4295
troller	-4296
ley	-4297
▁Wh	-4298
rakta	-4299
▁önska	-4300
▁Förutom	-4301
▁överallt	-4302
als	-4303
stån	-4304
annen	-4305
kadem	-4306
▁bilj	-4307
tifrån	-4308
▁World	-4309
▁tillåt	-4310
▁projektet	-4311
mot	-4312
▁lju	-4313
orter	-4314
rikes	-4315
▁äkten	-4316
▁hemsida	-4317
iel	-4318
▁spri	-4319
adress	-4320
▁anmäl	-4321
▁arkite	-4322
▁planet	-4323
▁tittar	-4324
▁perspektiv	-4325
▁utrustning	-4326
mos	-4327
▁is	-4328
rare	-4329
äget	-4330
▁195	-4331
▁dyr	-4332
useum	-4333
▁kött	-4334
meddel	-4335
▁yrkes	-4336
▁öppet	-4337
▁jobbar	-4338
▁server	-4339
▁forsknings	-4340
jar	-4341
barn	-4342
data	-4343
ence	-4344
itar	-4345
▁Net	-4346
alest	-4347
▁nämn	-4348
▁målet	-4349
▁trygg	-4350
enterna	-4351
▁minskar	-4352
▁beteende	-4353
▁handlingar	-4354
▁investering	-4355
mel	-4356
dels	-4357
▁2011	-4358
▁smak	-4359
▁trädgård	-4360
▁regelbundet	-4361
kraft	-4362
▁funn	-4363
▁Medan	-4364
▁nätet	-4365
produkter	-4366
jör	-4367
jälp	-4368
▁tom	-4369
arskap	-4370
spelare	-4371
▁lägenhet	-4372
▁uppmärksamhet	-4373
bor	-4374
lir	-4375
▁ök	-4376
djur	-4377
▁ink	-4378
▁gjor	-4379
▁sömn	-4380
▁svåra	-4381
▁effektiva	-4382
▁relationer	-4383
▁31	-4384
styr	-4385
lades	-4386
föränd	-4387
▁ekonomisk	-4388
▁konkurrens	-4389
tad	-4390
ura	-4391
ssel	-4392
ycke	-4393
▁Ben	-4394
▁sant	-4395
▁optim	-4396
▁värme	-4397
ningsvis	-4398
▁kostnader	-4399
▁Utan	-4400
▁Trump	-4401
▁brist	-4402
▁rätten	-4403
smål	-4404
▁vol	-4405
▁lägg	-4406
▁svag	-4407
▁massa	-4408
▁trött	-4409
▁koncent	-4410
▁Dig	-4411
▁sim	-4412
▁metod	-4413
▁överra	-4414
▁Mc	-4415
börj	-4416
ford	-4417
saker	-4418
▁2012	-4419
▁intro	-4420
▁misslycka	-4421
▁tillhandahåll	-4422
ire	-4423
▁deb	-4424
estiv	-4425
oppet	-4426
▁väst	-4427
▁objekt	-4428
vetenskap	-4429
kal	-4430
ult	-4431
▁No	-4432
▁skad	-4433
▁[...]	-4434
▁igång	-4435
▁Center	-4436
▁frågar	-4437
▁staten	-4438
▁uppenbar	-4439
▁z	-4440
marna	-4441
▁certif	-4442
▁behövde	-4443
▁tillämpas	-4444
▁instrument	-4445
!”	-4446
▁Ba	-4447
▁Eg	-4448
▁Si	-4449
ower	-4450
ross	-4451
ward	-4452
lande	-4453
tligen	-4454
▁risker	-4455
▁berörda	-4456
ypt	-4457
▁70	-4458
▁IT	-4459
▁Ko	-4460
▁has	-4461
▁stan	-4462
ugusti	-4463
▁avslöj	-4464
▁snarare	-4465
▁faktorer	-4466
▁relevanta	-4467
9,	-4468
▁järn	-4469
▁stolt	-4470
▁besökare	-4471
▁kand	-4472
▁ström	-4473
!"	-4474
tio	-4475
▁Bel	-4476
▁utred	-4477
▁investeringar	-4478
ney	-4479
dell	-4480
▁ägg	-4481
iabet	-4482
iering	-4483
världen	-4484
▁dubbel	-4485
▁naturen	-4486
▁Qu	-4487
▁bro	-4488
▁sport	-4489
▁samtal	-4490
material	-4491
▁alltför	-4492
▁främsta	-4493
▁innovation	-4494
▁informationen	-4495
oren	-4496
▁Col	-4497
▁höj	-4498
ringa	-4499
▁2020	-4500
▁Will	-4501
upport	-4502
▁polis	-4503
▁kampan	-4504
▁identifiera	-4505
rag	-4506
▁tun	-4507
▁Håll	-4508
▁Jack	-4509
▁valt	-4510
digare	-4511
▁album	-4512
▁sprid	-4513
▁nivåer	-4514
▁franska	-4515
▁utrymme	-4516
▁perfekta	-4517
▁äntligen	-4518
▁behandlas	-4519
▁uppfyller	-4520
▁användningen	-4521
kall	-4522
rien	-4523
sfri	-4524
vist	-4525
annar	-4526
▁Star	-4527
▁glädje	-4528
▁priser	-4529
▁unionen	-4530
▁kombination	-4531
ada	-4532
ific	-4533
▁band	-4534
▁radi	-4535
▁islam	-4536
▁casino	-4537
▁platsen	-4538
▁centrala	-4539
▁gällande	-4540
TE	-4541
out	-4542
sked	-4543
▁rut	-4544
ritet	-4545
änning	-4546
▁maxim	-4547
▁betrakta	-4548
dad	-4549
räm	-4550
atch	-4551
▁grä	-4552
▁klag	-4553
▁mjuk	-4554
▁bonus	-4555
▁förny	-4556
▁resul	-4557
▁roman	-4558
▁symbol	-4559
▁grunden	-4560
▁kvällen	-4561
▁princip	-4562
▁ansträng	-4563
sdag	-4564
▁sån	-4565
▁Japan	-4566
systemet	-4567
▁hittade	-4568
▁distribu	-4569
▁effekter	-4570
▁intervju	-4571
▁sannolikt	-4572
▁ordförande	-4573
reg	-4574
vatten	-4575
▁förfar	-4576
▁totalt	-4577
minister	-4578
▁diagnos	-4579
vt	-4580
ale	-4581
▁3.	-4582
skare	-4583
ägare	-4584
försälj	-4585
rastruktur	-4586
dri	-4587
▁90	-4588
▁Lin	-4589
▁Enda	-4590
▁vore	-4591
▁kaffe	-4592
samling	-4593
▁80	-4594
▁Äl	-4595
edom	-4596
räde	-4597
▁Jer	-4598
jänst	-4599
▁skil	-4600
▁sägs	-4601
▁avläg	-4602
▁vinst	-4603
▁stjärn	-4604
▁föreskri	-4605
▁emellertid	-4606
▁Gå	-4607
burg	-4608
▁WEB	-4609
▁motiver	-4610
▁alldeles	-4611
▁användar	-4612
▁bestämma	-4613
▁handling	-4614
▁traditionella	-4615
▁‘	-4616
dighet	-4617
▁klara	-4618
▁visst	-4619
▁rapport	-4620
▁uppstår	-4621
▁överlev	-4622
▁artikeln	-4623
▁omfattas	-4624
▁konferens	-4625
gj	-4626
ctor	-4627
tgär	-4628
▁Jam	-4629
▁gas	-4630
▁äng	-4631
värde	-4632
ställer	-4633
▁rådets	-4634
▁Kristus	-4635
▁bröllop	-4636
▁intellig	-4637
▁yng	-4638
sträck	-4639
▁samla	-4640
▁föddes	-4641
▁förrän	-4642
▁Spanien	-4643
sc	-4644
fic	-4645
uti	-4646
orts	-4647
▁hit	-4648
▁drar	-4649
▁Kvinn	-4650
▁drift	-4651
▁paket	-4652
▁fartyg	-4653
▁National	-4654
▁uppfylla	-4655
▁officiella	-4656
▁intresserad	-4657
▁situationer	-4658
25	-4659
ep	-4660
▁At	-4661
byte	-4662
ledes	-4663
▁lärt	-4664
▁massor	-4665
deringar	-4666
▁ansökan	-4667
▁augusti	-4668
bef	-4669
mul	-4670
▁ho	-4671
lösa	-4672
uren	-4673
utat	-4674
▁Jon	-4675
▁Val	-4676
▁gym	-4677
oster	-4678
▁Char	-4679
▁buss	-4680
▁drog	-4681
▁slags	-4682
▁reklam	-4683
▁begäran	-4684
▁färdigheter	-4685
▁internationellt	-4686
stat	-4687
▁katt	-4688
▁skul	-4689
▁Fråga	-4690
▁klock	-4691
▁ryska	-4692
▁begrepp	-4693
behandling	-4694
ear	-4695
▁Des	-4696
▁sats	-4697
▁Åter	-4698
▁sammanh	-4699
▁tillägg	-4700
▁individer	-4701
▁självständ	-4702
▁Cl	-4703
inska	-4704
▁överl	-4705
▁behålla	-4706
▁familjer	-4707
▁otroligt	-4708
▁intressen	-4709
iam	-4710
▁35	-4711
▁af	-4712
oxid	-4713
▁nej	-4714
kiner	-4715
rimin	-4716
▁tjej	-4717
▁sitta	-4718
▁utfär	-4719
▁idrott	-4720
▁religi	-4721
▁skrift	-4722
▁Italien	-4723
▁förklara	-4724
▁medarbetare	-4725
Du	-4726
OR	-4727
star	-4728
ulär	-4729
▁Pri	-4730
▁Fast	-4731
området	-4732
▁kompon	-4733
▁definitivt	-4734
dem	-4735
sla	-4736
▁Pol	-4737
▁City	-4738
▁unik	-4739
▁uppe	-4740
ässiga	-4741
▁serie	-4742
villkor	-4743
▁närings	-4744
▁uppfyll	-4745
▁respektive	-4746
LL	-4747
▁Ur	-4748
arab	-4749
itel	-4750
▁ras	-4751
▁Innan	-4752
▁stund	-4753
▁konver	-4754
▁synner	-4755
▁Behöver	-4756
▁utsläpp	-4757
issionens	-4758
▁rapporter	-4759
▁upplevelse	-4760
etiska	-4761
▁köpte	-4762
NA	-4763
ance	-4764
chef	-4765
pack	-4766
▁Gar	-4767
▁Mål	-4768
▁etc	-4769
ander	-4770
tikel	-4771
▁berg	-4772
gruppen	-4773
▁bevilj	-4774
ställningen	-4775
▁IS	-4776
▁rim	-4777
▁sän	-4778
▁sommaren	-4779
▁situationen	-4780
▁finansiering	-4781
/1	-4782
bla	-4783
namn	-4784
▁smärt	-4785
▁öppnar	-4786
▁bransch	-4787
2,	-4788
ots	-4789
isar	-4790
skor	-4791
▁Hög	-4792
▁Pen	-4793
▁You	-4794
ologisk	-4795
▁Island	-4796
▁aktiva	-4797
▁cookies	-4798
▁skapade	-4799
▁myndigheterna	-4800
hone	-4801
ängd	-4802
▁mät	-4803
draget	-4804
bilitet	-4805
▁utifrån	-4806
▁därefter	-4807
ugg	-4808
▁Me	-4809
▁pan	-4810
▁ökat	-4811
▁Deras	-4812
▁filmer	-4813
▁skador	-4814
▁slutar	-4815
▁England	-4816
▁äventyr	-4817
verksamhet	-4818
ID	-4819
gn	-4820
▁My	-4821
▁kil	-4822
visar	-4823
▁drag	-4824
▁fött	-4825
▁igår	-4826
▁döden	-4827
iserade	-4828
▁System	-4829
▁recept	-4830
▁säsong	-4831
▁någonstans	-4832
kej	-4833
orgon	-4834
▁stri	-4835
▁höger	-4836
station	-4837
▁syftar	-4838
▁undrar	-4839
▁militär	-4840
sättningen	-4841
▁Människor	-4842
▁berättade	-4843
ikat	-4844
over	-4845
▁Red	-4846
▁imm	-4847
▁tum	-4848
sbruk	-4849
▁Hotel	-4850
▁hjärt	-4851
▁timme	-4852
▁exister	-4853
▁meddelande	-4854
▁lagstiftning	-4855
De	-4856
hi	-4857
dex	-4858
kam	-4859
▁yt	-4860
▁Syd	-4861
▁nån	-4862
▁Mina	-4863
▁mera	-4864
rivill	-4865
▁finna	-4866
▁invån	-4867
▁längs	-4868
▁ökade	-4869
ingarna	-4870
▁rörelse	-4871
sien	-4872
▁Met	-4873
▁nyf	-4874
▁sur	-4875
▁rent	-4876
▁välj	-4877
▁multi	-4878
ripande	-4879
▁hundar	-4880
baserade	-4881
▁kulture	-4882
▁Ter	-4883
▁2019	-4884
▁bära	-4885
▁kraf	-4886
ekterna	-4887
rediens	-4888
osi	-4889
▁Sim	-4890
▁nöj	-4891
▁tol	-4892
kommer	-4893
▁moder	-4894
▁prova	-4895
▁tider	-4896
▁tyska	-4897
servera	-4898
▁adress	-4899
▁prestanda	-4900
▁utmaningar	-4901
▁medlemsstat	-4902
▁verkligheten	-4903
ise	-4904
oth	-4905
utna	-4906
delen	-4907
stret	-4908
▁Båda	-4909
▁Musi	-4910
▁Slut	-4911
▁fria	-4912
▁sist	-4913
▁disku	-4914
vakning	-4915
▁klicka	-4916
▁Resultat	-4917
▁modeller	-4918
▁evenemang	-4919
▁naturligt	-4920
uc	-4921
▁ref	-4922
▁sjö	-4923
▁tak	-4924
▁brev	-4925
▁separ	-4926
fattare	-4927
▁parlament	-4928
san	-4929
▁Nor	-4930
fören	-4931
▁jour	-4932
▁mekan	-4933
▁valet	-4934
▁former	-4935
▁profil	-4936
▁händelse	-4937
ool	-4938
träd	-4939
estäm	-4940
produ	-4941
umera	-4942
▁tand	-4943
agement	-4944
▁huvudet	-4945
tom	-4946
vic	-4947
▁4.	-4948
▁fu	-4949
coin	-4950
ansvar	-4951
▁säljer	-4952
▁behandlingen	-4953
way	-4954
beln	-4955
nitt	-4956
▁sål	-4957
▁Black	-4958
▁Inget	-4959
▁olyck	-4960
▁premi	-4961
▁himlen	-4962
▁konsta	-4963
▁försökte	-4964
8.	-4965
cks	-4966
sfull	-4967
▁Alex	-4968
ington	-4969
▁undan	-4970
iabetes	-4971
▁territ	-4972
▁ögonen	-4973
▁ansikte	-4974
▁ställer	-4975
pr	-4976
kad	-4977
rav	-4978
jölk	-4979
▁sår	-4980
▁dial	-4981
▁förf	-4982
▁skor	-4983
ringen	-4984
▁förel	-4985
▁global	-4986
▁kriget	-4987
ektioner	-4988
▁avstånd	-4989
▁fönster	-4990
▁ordning	-4991
▁orsakar	-4992
▁riktiga	-4993
▁leverera	-4994
ike	-4995
ony	-4996
bjud	-4997
ekar	-4998
igur	-4999
språk	-5000
▁föra	-5001
ometer	-5002
▁ramen	-5003
▁utbud	-5004
▁konsument	-5005
döm	-5006
rop	-5007
▁IP	-5008
▁Sci	-5009
domen	-5010
riska	-5011
▁fing	-5012
▁Något	-5013
▁landets	-5014
▁lämnade	-5015
▁utforska	-5016
▁tillfälle	-5017
▁29	-5018
åriga	-5019
▁Pris	-5020
▁föret	-5021
▁akadem	-5022
▁konsti	-5023
▁sträck	-5024
sområden	-5025
▁extremt	-5026
▁intensi	-5027
▁återupp	-5028
▁kommunic	-5029
▁medveten	-5030
▁gemensamt	-5031
▁synnerhet	-5032
▁överensstäm	-5033
zz	-5034
xis	-5035
▁SE	-5036
ette	-5037
hets	-5038
kväll	-5039
perat	-5040
▁värdet	-5041
liggande	-5042
▁skrivit	-5043
▁förlorade	-5044
▁befintliga	-5045
go	-5046
▁Kor	-5047
▁Tror	-5048
▁byta	-5049
▁Endast	-5050
▁dåliga	-5051
▁listan	-5052
▁upphör	-5053
▁betalar	-5054
▁respekt	-5055
ckar	-5056
▁Bit	-5057
▁fal	-5058
arken	-5059
▁Comm	-5060
ledning	-5061
▁kunden	-5062
▁spelade	-5063
▁annonser	-5064
▁relativt	-5065
▁tusentals	-5066
▁verksamheten	-5067
IT	-5068
ac	-5069
▁’	-5070
▁fe	-5071
pren	-5072
▁sal	-5073
▁skull	-5074
▁Medlem	-5075
▁verket	-5076
▁förtjän	-5077
▁bibliote	-5078
▁positiva	-5079
▁integritet	-5080
▁erfarenheter	-5081
ni	-5082
▁Cor	-5083
▁felak	-5084
▁Öster	-5085
▁faller	-5086
▁mitten	-5087
▁diskuss	-5088
▁däremot	-5089
▁aktuella	-5090
▁omöjligt	-5091
▁religion	-5092
▁brittiska	-5093
▁engagemang	-5094
▁Få	-5095
▁193	-5096
▁Pet	-5097
▁kur	-5098
▁orig	-5099
▁beakt	-5100
▁skola	-5101
▁valuta	-5102
▁tillför	-5103
▁lämpliga	-5104
▁beskriver	-5105
▁nationell	-5106
▁amerikansk	-5107
▁människorna	-5108
oc	-5109
sv	-5110
app	-5111
tell	-5112
▁Dock	-5113
▁Turk	-5114
▁driv	-5115
derade	-5116
▁affärs	-5117
▁styrka	-5118
▁aktiver	-5119
▁installa	-5120
▁förändras	-5121
▁;	-5122
▁sli	-5123
råket	-5124
usten	-5125
▁letar	-5126
▁taget	-5127
▁aktivt	-5128
▁förmån	-5129
▁iPhone	-5130
▁position	-5131
-,	-5132
deras	-5133
▁exkl	-5134
hundra	-5135
nummer	-5136
▁Natur	-5137
▁offer	-5138
skriget	-5139
▁klassi	-5140
ställande	-5141
▁förtroende	-5142
bell	-5143
roid	-5144
▁Don	-5145
▁turn	-5146
resent	-5147
▁ladda	-5148
▁annars	-5149
▁skiljer	-5150
▁kunskaper	-5151
▁ingrediens	-5152
SA	-5153
mor	-5154
▁(3	-5155
back	-5156
▁Van	-5157
▁tål	-5158
▁kräv	-5159
▁vägg	-5160
▁glada	-5161
verktyg	-5162
▁nyckel	-5163
▁stoppa	-5164
▁förhand	-5165
jul	-5166
sna	-5167
▁Int	-5168
▁når	-5169
isera	-5170
▁Hade	-5171
▁strå	-5172
▁shopp	-5173
inister	-5174
▁använt	-5175
▁vanlig	-5176
▁världs	-5177
▁Twitter	-5178
sprocessen	-5179
gat	-5180
lor	-5181
uri	-5182
▁Fre	-5183
erats	-5184
▁sent	-5185
▁vist	-5186
ekonom	-5187
tastro	-5188
▁Precis	-5189
▁datorn	-5190
▁svarar	-5191
▁ändras	-5192
▁förvänt	-5193
▁gruppen	-5194
▁riktlin	-5195
▁promenad	-5196
▁upplever	-5197
▁plötsligt	-5198
AC	-5199
ht	-5200
/200	-5201
tika	-5202
▁300	-5203
▁ert	-5204
▁Coll	-5205
mosfär	-5206
▁Saker	-5207
▁möter	-5208
▁restaur	-5209
▁unionens	-5210
▁företagets	-5211
▁skillnaden	-5212
ED	-5213
ON	-5214
oni	-5215
set	-5216
iges	-5217
▁Tom	-5218
ycken	-5219
ätter	-5220
▁använde	-5221
▁patient	-5222
▁Business	-5223
▁ändringar	-5224
▁Sal	-5225
▁äld	-5226
aller	-5227
kvens	-5228
▁Group	-5229
▁enorm	-5230
▁filos	-5231
▁högst	-5232
▁tänkt	-5233
▁kallad	-5234
▁positiv	-5235
▁hittills	-5236
▁betalning	-5237
hel	-5238
öda	-5239
ffer	-5240
smed	-5241
▁Får	-5242
risti	-5243
▁märk	-5244
▁reag	-5245
▁önsk	-5246
▁sympt	-5247
▁Indien	-5248
▁konser	-5249
▁parter	-5250
▁toppen	-5251
▁dagliga	-5252
▁förutom	-5253
igheterna	-5254
▁morgonen	-5255
▁negativa	-5256
▁Australien	-5257
▁allvarliga	-5258
stud	-5259
ågor	-5260
örja	-5261
ktiga	-5262
melse	-5263
serna	-5264
ström	-5265
▁bröst	-5266
▁pengarna	-5267
▁bestämmer	-5268
▁säkerhets	-5269
▁äktenskap	-5270
▁administra	-5271
▁leverantörer	-5272
▁omständigheter	-5273
▁professionella	-5274
ema	-5275
ene	-5276
▁vann	-5277
▁hörde	-5278
grupper	-5279
▁finans	-5280
▁senast	-5281
▁växande	-5282
nu	-5283
▁Ham	-5284
▁por	-5285
dagar	-5286
kerna	-5287
stekn	-5288
▁Sven	-5289
▁väder	-5290
▁fattig	-5291
▁fysisk	-5292
▁födels	-5293
▁frukost	-5294
▁uppmärksam	-5295
▁verklighet	-5296
▁fantastiskt	-5297
yer	-5298
▁Op	-5299
▁ont	-5300
▁iväg	-5301
▁grundades	-5302
▁långsikti	-5303
▁allmänheten	-5304
▁!	-5305
ergi	-5306
▁fab	-5307
▁tex	-5308
jande	-5309
sätter	-5310
▁filer	-5311
▁kamer	-5312
▁lager	-5313
▁minns	-5314
▁finner	-5315
▁inrätt	-5316
pression	-5317
▁bearbet	-5318
▁tvungen	-5319
▁framsteg	-5320
▁särskild	-5321
▁identitet	-5322
▁kommentarer	-5323
▁lid	-5324
angel	-5325
fullt	-5326
snivå	-5327
▁Hela	-5328
▁aktie	-5329
▁inneh	-5330
▁mångf	-5331
länderna	-5332
teringar	-5333
▁allmänt	-5334
▁förläng	-5335
▁tilldel	-5336
▁stranden	-5337
▁fastighet	-5338
▁förväntas	-5339
▁processer	-5340
bär	-5341
edi	-5342
ila	-5343
▁urs	-5344
uvida	-5345
▁Mart	-5346
▁expan	-5347
▁passion	-5348
▁Tidigare	-5349
▁speciell	-5350
▁rekommenda	-5351
▁befolkningen	-5352
ino	-5353
nor	-5354
voka	-5355
▁2009	-5356
▁Matt	-5357
amilje	-5358
▁Bästa	-5359
▁väsent	-5360
▁frivill	-5361
▁förvärv	-5362
▁tillhandahåller	-5363
PS	-5364
agg	-5365
▁Ir	-5366
orth	-5367
▁Dis	-5368
▁eld	-5369
▁Inga	-5370
▁Rätt	-5371
▁dörren	-5372
▁tydlig	-5373
▁bakgrund	-5374
▁betydligt	-5375
end	-5376
oma	-5377
▁fix	-5378
siden	-5379
▁Port	-5380
▁åker	-5381
▁bryta	-5382
▁cykel	-5383
▁media	-5384
▁hjärnan	-5385
▁sanning	-5386
ube	-5387
▁We	-5388
▁hä	-5389
▁rob	-5390
▁Inom	-5391
▁läge	-5392
▁sing	-5393
projekt	-5394
▁besöker	-5395
▁förstär	-5396
▁ansvarig	-5397
▁speciella	-5398
▁människors	-5399
▁sammanhang	-5400
▁självklart	-5401
yper	-5402
änsle	-5403
▁regn	-5404
▁huden	-5405
▁ledde	-5406
▁lägen	-5407
▁hittat	-5408
▁koncer	-5409
▁parker	-5410
▁förlorat	-5411
▁producera	-5412
▁undersöka	-5413
bon	-5414
ange	-5415
▁Dem	-5416
inter	-5417
▁sinn	-5418
▁tviv	-5419
▁Trans	-5420
▁värre	-5421
▁hindra	-5422
▁svarta	-5423
▁utsikt	-5424
▁värsta	-5425
▁dagarna	-5426
▁förlorar	-5427
▁huvudstad	-5428
▁innehålla	-5429
▁kinesiska	-5430
▁tillgångar	-5431
▁potentiella	-5432
anen	-5433
bler	-5434
dela	-5435
▁Bri	-5436
▁Glob	-5437
frågor	-5438
▁Måste	-5439
▁mesta	-5440
▁minne	-5441
trepren	-5442
▁föredrar	-5443
▁transpor	-5444
▁utsträck	-5445
information	-5446
▁vanligaste	-5447
god	-5448
stav	-5449
tida	-5450
▁Bas	-5451
▁aut	-5452
stern	-5453
▁brand	-5454
▁givet	-5455
▁planer	-5456
▁element	-5457
▁polisen	-5458
▁tillsyn	-5459
ssystemet	-5460
▁Därefter	-5461
▁fängelse	-5462
▁planerar	-5463
4,	-5464
▁mg	-5465
vikt	-5466
▁dum	-5467
▁snö	-5468
alism	-5469
▁Folk	-5470
▁sova	-5471
▁attra	-5472
▁moral	-5473
iration	-5474
▁skratt	-5475
▁stimul	-5476
▁skickar	-5477
▁initiativ	-5478
då	-5479
nät	-5480
ream	-5481
vrig	-5482
entet	-5483
ännen	-5484
▁last	-5485
▁röda	-5486
▁fakta	-5487
▁rummet	-5488
▁stöder	-5489
▁tjänar	-5490
▁välsig	-5491
▁Istället	-5492
▁beaktande	-5493
▁försiktig	-5494
40	-5495
tok	-5496
▁ep	-5497
sökt	-5498
▁kos	-5499
livet	-5500
ältet	-5501
▁höjd	-5502
▁slog	-5503
volver	-5504
▁James	-5505
▁Samma	-5506
▁gröna	-5507
▁rådet	-5508
▁skåde	-5509
▁strid	-5510
▁södra	-5511
enskomm	-5512
▁Tyvärr	-5513
▁italien	-5514
▁plattform	-5515
▁utvecklar	-5516
▁revolution	-5517
au	-5518
bis	-5519
éer	-5520
ions	-5521
lapp	-5522
likt	-5523
vida	-5524
▁One	-5525
kiska	-5526
▁Ditt	-5527
▁Super	-5528
▁fritt	-5529
innande	-5530
ståndet	-5531
▁kronor	-5532
▁priori	-5533
▁drömmar	-5534
▁inkomst	-5535
▁innehållet	-5536
▁45	-5537
orin	-5538
▁Mal	-5539
▁nåd	-5540
▁fien	-5541
▁avser	-5542
▁linje	-5543
▁gäster	-5544
▁snabba	-5545
▁ökning	-5546
▁byggnad	-5547
▁förlust	-5548
▁fokusera	-5549
▁kontrakt	-5550
▁motsvarande	-5551
▁vetenskapliga	-5552
/201	-5553
▁dos	-5554
ittén	-5555
dukter	-5556
▁handla	-5557
▁behandlar	-5558
▁Restauranger	-5559
ior	-5560
▁Fri	-5561
telef	-5562
▁Plan	-5563
▁driva	-5564
▁avfall	-5565
▁stärka	-5566
▁egendom	-5567
▁komplet	-5568
▁atmosfär	-5569
ii	-5570
box	-5571
rut	-5572
▁bem	-5573
▁gyn	-5574
▁förk	-5575
▁täck	-5576
formen	-5577
upplev	-5578
▁lunch	-5579
områden	-5580
▁tyvärr	-5581
▁nyheter	-5582
hållanden	-5583
▁närmaste	-5584
▁säsongen	-5585
3,	-5586
▁IN	-5587
måga	-5588
sper	-5589
tima	-5590
konto	-5591
▁speg	-5592
klarna	-5593
▁expon	-5594
▁budskap	-5595
▁sekunder	-5596
▁förklarar	-5597
unds	-5598
komma	-5599
▁låga	-5600
▁skräm	-5601
▁svensk	-5602
ostnader	-5603
▁Sveriges	-5604
▁begränsad	-5605
▁kapacitet	-5606
▁restauranger	-5607
▁191	-5608
▁Mad	-5609
▁kyl	-5610
vapen	-5611
▁mått	-5612
äderna	-5613
▁demon	-5614
▁Histor	-5615
▁socker	-5616
▁ersätta	-5617
▁politiker	-5618
▁territori	-5619
BA	-5620
omo	-5621
▁Ab	-5622
▁Sök	-5623
passa	-5624
▁celler	-5625
▁nation	-5626
sprojekt	-5627
▁Institu	-5628
▁förvand	-5629
▁koncept	-5630
▁tillfred	-5631
▁utsträckning	-5632
tema	-5633
▁Sol	-5634
▁seg	-5635
▁isol	-5636
▁vidta	-5637
▁lämpligt	-5638
▁leverantör	-5639
▁undersökning	-5640
1,	-5641
▁lugn	-5642
såtgär	-5643
ysning	-5644
▁gjorts	-5645
▁sammans	-5646
▁skickas	-5647
▁artiklar	-5648
▁insatser	-5649
▁uttalande	-5650
▁ersättning	-5651
oo	-5652
ael	-5653
▁lör	-5654
ierad	-5655
▁dating	-5656
▁svaret	-5657
▁Världen	-5658
▁mängder	-5659
▁experter	-5660
▁Välkommen	-5661
AM	-5662
].	-5663
anal	-5664
odde	-5665
ansen	-5666
celler	-5667
tokoll	-5668
▁Peter	-5669
▁immun	-5670
▁varmt	-5671
smyndig	-5672
▁Klicka	-5673
▁invand	-5674
▁tyckte	-5675
▁varken	-5676
sområdet	-5677
▁lämplig	-5678
▁Företaget	-5679
▁myndighet	-5680
▁resultaten	-5681
gick	-5682
ware	-5683
▁Ele	-5684
▁sor	-5685
ekten	-5686
ikali	-5687
spart	-5688
▁bedö	-5689
ektivt	-5690
▁tvätt	-5691
▁återh	-5692
enderar	-5693
▁licens	-5694
▁perman	-5695
▁studera	-5696
▁medicinska	-5697
▁infrastruktur	-5698
jun	-5699
▁Webb	-5700
▁cell	-5701
▁belopp	-5702
▁delvis	-5703
▁kostar	-5704
leverant	-5705
▁allting	-5706
▁konkurren	-5707
AD	-5708
OM	-5709
▁x	-5710
urn	-5711
imin	-5712
▁kök	-5713
▁född	-5714
▁kart	-5715
▁olag	-5716
▁rygg	-5717
entera	-5718
gården	-5719
▁bilda	-5720
▁Master	-5721
▁minsta	-5722
▁överva	-5723
tigheten	-5724
tigheter	-5725
▁enklare	-5726
hantering	-5727
▁startade	-5728
▁investera	-5729
▁he	-5730
ited	-5731
uset	-5732
▁Mil	-5733
▁Nam	-5734
anten	-5735
eland	-5736
söver	-5737
▁kamp	-5738
▁rika	-5739
▁gräns	-5740
▁korta	-5741
▁laget	-5742
▁rikta	-5743
▁testa	-5744
▁urval	-5745
▁marken	-5746
▁samlar	-5747
▁sällan	-5748
sföretag	-5749
▁skönhet	-5750
▁analyser	-5751
▁referens	-5752
mord	-5753
▁avse	-5754
indrar	-5755
skraft	-5756
▁Bland	-5757
▁bedri	-5758
▁djupt	-5759
▁livss	-5760
▁sinne	-5761
▁styra	-5762
▁ägare	-5763
▁Mellan	-5764
▁driver	-5765
▁kraven	-5766
▁Israels	-5767
▁databas	-5768
▁erbjuds	-5769
▁företags	-5770
▁specialis	-5771
▁universum	-5772
▁tillverkning	-5773
99	-5774
▁Na	-5775
ämna	-5776
sfall	-5777
▁Post	-5778
▁dött	-5779
▁köpt	-5780
▁livs	-5781
sionen	-5782
ternas	-5783
▁barns	-5784
▁dokum	-5785
▁resan	-5786
▁Syftet	-5787
▁roliga	-5788
handling	-5789
▁besluta	-5790
▁chansen	-5791
▁förbjud	-5792
▁byggnader	-5793
▁medlemsstater	-5794
änsl	-5795
▁göm	-5796
▁Bill	-5797
▁Hall	-5798
▁sjön	-5799
istisk	-5800
länder	-5801
▁räkna	-5802
▁valde	-5803
▁varia	-5804
▁vända	-5805
▁talade	-5806
▁ungdom	-5807
resultat	-5808
▁Danmark	-5809
▁bedömning	-5810
▁efterfrågan	-5811
+]	-5812
4)	-5813
lid	-5814
iter	-5815
▁[+]	-5816
▁döm	-5817
▁vit	-5818
▁fysi	-5819
▁gäst	-5820
▁kyrk	-5821
satsen	-5822
▁agera	-5823
▁heliga	-5824
▁papper	-5825
▁familje	-5826
▁kvinnan	-5827
▁ändring	-5828
betalning	-5829
▁huruvida	-5830
▁deltagare	-5831
▁ekonomiskt	-5832
7,	-5833
Vad	-5834
ogg	-5835
väx	-5836
iden	-5837
yrån	-5838
▁gro	-5839
▁nio	-5840
▁säm	-5841
gerar	-5842
tider	-5843
▁tolk	-5844
▁ideal	-5845
öteborg	-5846
▁källor	-5847
▁middag	-5848
▁vinner	-5849
▁närvaro	-5850
▁studien	-5851
▁kvalific	-5852
▁tillgängligt	-5853
hy	-5854
▁as	-5855
skop	-5856
▁art	-5857
▁oer	-5858
▁tju	-5859
äkter	-5860
barhet	-5861
▁brett	-5862
▁skuld	-5863
amerika	-5864
▁bilaga	-5865
▁Android	-5866
▁anpassa	-5867
▁entrepren	-5868
▁fortsatte	-5869
▁förbereda	-5870
▁versionen	-5871
EC	-5872
forn	-5873
resa	-5874
▁Tor	-5875
ilver	-5876
kland	-5877
onden	-5878
▁obeh	-5879
▁tera	-5880
medlem	-5881
▁Bolag	-5882
▁exist	-5883
▁poker	-5884
▁himmel	-5885
▁baserad	-5886
▁instruk	-5887
▁konstru	-5888
▁ansvarar	-5889
programmet	-5890
▁underbara	-5891
▁generation	-5892
Var	-5893
inen	-5894
rikta	-5895
▁Holl	-5896
▁boka	-5897
▁papp	-5898
föring	-5899
skolan	-5900
ässigt	-5901
▁yngre	-5902
givning	-5903
problem	-5904
▁lämnat	-5905
▁räcker	-5906
industrin	-5907
▁dagligen	-5908
▁acceptera	-5909
▁motsvarar	-5910
▁föregående	-5911
▁innovativa	-5912
5,	-5913
bass	-5914
reet	-5915
talt	-5916
▁kat	-5917
▁out	-5918
ämnen	-5919
▁Glöm	-5920
▁fint	-5921
▁fält	-5922
▁tunn	-5923
▁uppl	-5924
▁möten	-5925
aterade	-5926
process	-5927
▁ansikt	-5928
▁detaljer	-5929
▁rättsliga	-5930
▁ställning	-5931
▁användaren	-5932
▁professionell	-5933
ib	-5934
mak	-5935
ygt	-5936
ness	-5937
tain	-5938
▁Wal	-5939
▁lagt	-5940
▁ting	-5941
▁tråd	-5942
▁drama	-5943
▁order	-5944
▁revis	-5945
▁boende	-5946
▁glömma	-5947
▁riktig	-5948
▁bolaget	-5949
▁ledning	-5950
▁rättfär	-5951
▁ekonomin	-5952
▁kontinuer	-5953
▁utvecklats	-5954
▁2,	-5955
▁ul	-5956
empl	-5957
▁Kun	-5958
▁prä	-5959
▁aktier	-5960
▁besvik	-5961
▁förvar	-5962
▁profet	-5963
▁övrigt	-5964
ningsför	-5965
▁ansluta	-5966
▁involver	-5967
▁programvara	-5968
▁framgångsrika	-5969
IV	-5970
▁MS	-5971
▁au	-5972
▁fj	-5973
▁öl	-5974
inar	-5975
omin	-5976
▁Hej	-5977
▁väd	-5978
öcker	-5979
▁boll	-5980
▁kurs	-5981
▁vand	-5982
▁Angel	-5983
▁nyhet	-5984
▁batter	-5985
▁webbläs	-5986
stjänster	-5987
▁perioden	-5988
▁politisk	-5989
▁förtjänar	-5990
▁avancerade	-5991
▁befolkning	-5992
ua	-5993
▁🙂	-5994
▁åld	-5995
parti	-5996
värda	-5997
▁bryr	-5998
verkade	-5999
▁positivt	-6000
▁relevant	-6001
▁rättvisa	-6002
▁myndigheten	-6003
6,	-6004
läk	-6005
ican	-6006
▁Can	-6007
▁Jan	-6008
juder	-6009
ärlek	-6010
▁Stra	-6011
▁varm	-6012
▁åtag	-6013
erings	-6014
▁Norge	-6015
▁yttre	-6016
lösning	-6017
punkter	-6018
▁helhet	-6019
▁orsaken	-6020
▁utmaning	-6021
▁utnyttja	-6022
-3	-6023
IC	-6024
ls	-6025
ege	-6026
▁öm	-6027
▁ack	-6028
▁fan	-6029
▁löp	-6030
▁vacc	-6031
▁ämne	-6032
slaget	-6033
▁Maria	-6034
olution	-6035
▁starkare	-6036
▁lösningen	-6037
▁hed	-6038
dning	-6039
▁förvå	-6040
▁Alltså	-6041
▁Online	-6042
▁tidiga	-6043
▁Europas	-6044
▁Problem	-6045
▁villkoren	-6046
5)	-6047
ias	-6048
yal	-6049
valt	-6050
▁Fler	-6051
▁ända	-6052
värdet	-6053
ästare	-6054
▁vägar	-6055
▁rädsla	-6056
▁utgång	-6057
▁affärer	-6058
▁misstän	-6059
delningen	-6060
produktion	-6061
▁fokuserar	-6062
▁underteck	-6063
▁organisationen	-6064
60	-6065
TM	-6066
uts	-6067
rens	-6068
▁Köp	-6069
ktiva	-6070
▁sorg	-6071
▁Flera	-6072
▁desto	-6073
▁lider	-6074
▁plast	-6075
▁näring	-6076
▁serien	-6077
▁behovet	-6078
▁berömda	-6079
▁Göteborg	-6080
-2	-6081
hal	-6082
jet	-6083
▁Ama	-6084
▁Mas	-6085
▁nåt	-6086
▁påm	-6087
▁Regi	-6088
▁ambi	-6089
▁röra	-6090
▁slår	-6091
savtal	-6092
aliforn	-6093
▁Afrika	-6094
▁månaden	-6095
▁restaurang	-6096
gin	-6097
ics	-6098
räg	-6099
örd	-6100
▁ba	-6101
litet	-6102
▁Både	-6103
▁Verk	-6104
▁back	-6105
▁förbi	-6106
▁guide	-6107
punkten	-6108
▁anklag	-6109
▁ställen	-6110
▁lyckades	-6111
▁tekniker	-6112
posi	-6113
värm	-6114
▁pil	-6115
▁Egypt	-6116
▁norra	-6117
jänsten	-6118
▁Kanada	-6119
▁billig	-6120
▁harmon	-6121
▁knappt	-6122
▁lämnas	-6123
▁sekret	-6124
▁Michael	-6125
▁exklusi	-6126
▁spanska	-6127
▁student	-6128
▁juridiska	-6129
▁nödvändig	-6130
▁förekommer	-6131
):	-6132
aden	-6133
etts	-6134
omas	-6135
täck	-6136
ägna	-6137
cykel	-6138
▁lita	-6139
▁vind	-6140
rister	-6141
▁utbil	-6142
▁årets	-6143
▁Syrien	-6144
▁avsikt	-6145
▁bränsle	-6146
▁national	-6147
vig	-6148
smet	-6149
▁flas	-6150
▁äkta	-6151
▁Hitta	-6152
▁gifta	-6153
iddagen	-6154
▁syssel	-6155
▁alterna	-6156
▁avtalet	-6157
▁beskrivs	-6158
▁samtycke	-6159
▁ungdomar	-6160
▁fullständigt	-6161
mm	-6162
ical	-6163
året	-6164
ology	-6165
uster	-6166
▁Wash	-6167
gränsa	-6168
örerna	-6169
▁dynam	-6170
duktion	-6171
▁reflek	-6172
▁uppgra	-6173
▁funnits	-6174
▁globalt	-6175
▁mängden	-6176
▁premiär	-6177
▁länderna	-6178
▁Management	-6179
▁berättelse	-6180
▁godkännande	-6181
▁rekommenderas	-6182
1]	-6183
yo	-6184
tav	-6185
ödet	-6186
▁rän	-6187
▁gill	-6188
▁seri	-6189
▁stål	-6190
▁recen	-6191
▁Europe	-6192
▁Känner	-6193
▁botten	-6194
▁muslim	-6195
▁mönster	-6196
sstaterna	-6197
▁föreslår	-6198
▁passager	-6199
▁riktning	-6200
▁diskutera	-6201
▁domstolen	-6202
▁marknader	-6203
inf	-6204
uel	-6205
▁Pe	-6206
exik	-6207
onym	-6208
wood	-6209
yggt	-6210
▁Rob	-6211
platt	-6212
rycka	-6213
▁länk	-6214
satser	-6215
▁fylla	-6216
▁mjölk	-6217
▁journa	-6218
▁ordent	-6219
▁syster	-6220
▁upptag	-6221
▁äldsta	-6222
▁påverkas	-6223
försäkring	-6224
▁principer	-6225
▁viktigare	-6226
▁Tillsammans	-6227
▁förhandling	-6228
▁pe	-6229
arta	-6230
▁Sna	-6231
▁Bank	-6232
▁live	-6233
cancer	-6234
▁Obama	-6235
▁läste	-6236
ställda	-6237
▁Hennes	-6238
▁Office	-6239
▁räknas	-6240
kontroll	-6241
rustning	-6242
▁arbetat	-6243
▁normala	-6244
▁reglerna	-6245
▁spendera	-6246
▁tillämpning	-6247
▁Kommissionen	-6248
ase	-6249
låt	-6250
onn	-6251
▁0,	-6252
▁EC	-6253
▁Bre	-6254
▁Mag	-6255
▁jäv	-6256
▁mak	-6257
▁Data	-6258
▁avsk	-6259
▁gift	-6260
▁helg	-6261
▁noga	-6262
▁delas	-6263
▁tacka	-6264
▁samlas	-6265
▁bekämpa	-6266
▁förvänta	-6267
▁invånare	-6268
▁utseende	-6269
▁varumärke	-6270
▁uppfattning	-6271
gil	-6272
ush	-6273
▁VI	-6274
ekom	-6275
weiz	-6276
▁Läg	-6277
▁Pra	-6278
▁lab	-6279
▁olja	-6280
ografi	-6281
rätten	-6282
▁Speci	-6283
▁hinder	-6284
▁oerhör	-6285
▁passer	-6286
▁värden	-6287
▁Turkiet	-6288
▁support	-6289
!!!	-6290
ano	-6291
atet	-6292
fria	-6293
räng	-6294
▁Eli	-6295
▁Lag	-6296
juter	-6297
sätta	-6298
andade	-6299
giften	-6300
▁Huvud	-6301
▁Robert	-6302
▁metall	-6303
▁skolor	-6304
▁hushåll	-6305
▁händerna	-6306
öjligheter	-6307
▁kvinnliga	-6308
▁erbjudanden	-6309
▁fullständig	-6310
vår	-6311
atin	-6312
▁Bok	-6313
▁Cam	-6314
▁gil	-6315
▁expl	-6316
▁sikt	-6317
▁lärde	-6318
▁tonår	-6319
▁insats	-6320
▁påbörj	-6321
▁släppa	-6322
▁Särskil	-6323
▁överenskomm	-6324
2)	-6325
pet	-6326
fort	-6327
▁fyr	-6328
räder	-6329
▁fest	-6330
▁pågår	-6331
▁doktor	-6332
▁hemmet	-6333
▁Amerika	-6334
▁bestämt	-6335
▁således	-6336
▁kunderna	-6337
▁depression	-6338
▁fastställa	-6339
▁undervisning	-6340
IG	-6341
dana	-6342
ssam	-6343
▁fen	-6344
▁illa	-6345
▁arbetade	-6346
▁tillämpa	-6347
▁allvarligt	-6348
▁tillfällen	-6349
▁intresserade	-6350
deo	-6351
sid	-6352
juka	-6353
▁(201	-6354
▁Ofta	-6355
▁real	-6356
▁europe	-6357
▁implem	-6358
▁vision	-6359
▁William	-6360
▁socialt	-6361
▁avgifter	-6362
▁regionen	-6363
▁överleva	-6364
▁företagen	-6365
▁underlätta	-6366
▁förutsättning	-6367
▁<	-6368
rapp	-6369
röst	-6370
▁bin	-6371
▁gal	-6372
skade	-6373
▁bror	-6374
▁hyra	-6375
skande	-6376
▁gälla	-6377
▁livsl	-6378
▁släkt	-6379
▁teknisk	-6380
▁åtkomst	-6381
▁tenderar	-6382
▁investerare	-6383
▁rekommendera	-6384
jöd	-6385
ole	-6386
sar	-6387
nämn	-6388
▁Lad	-6389
frågas	-6390
▁seger	-6391
▁virtu	-6392
derande	-6393
▁förväg	-6394
▁kämpar	-6395
unkterna	-6396
▁klockan	-6397
▁startar	-6398
▁utomhus	-6399
▁katastro	-6400
▁medvetna	-6401
7)	-6402
MS	-6403
sj	-6404
eld	-6405
seff	-6406
änns	-6407
bilar	-6408
▁Rich	-6409
▁högk	-6410
▁inbeg	-6411
▁kapitel	-6412
▁flygplats	-6413
▁förflutna	-6414
▁förfaranden	-6415
6)	-6416
tog	-6417
alla	-6418
film	-6419
hail	-6420
etten	-6421
ormon	-6422
▁plus	-6423
▁rull	-6424
▁tull	-6425
▁vila	-6426
landet	-6427
▁gudom	-6428
▁ligga	-6429
▁omvand	-6430
▁avsedda	-6431
▁lärande	-6432
▁beslutet	-6433
▁informer	-6434
▁århundra	-6435
▁föreställ	-6436
▁möjliggör	-6437
▁säkerheten	-6438
▁tillförlit	-6439
▁upprätthålla	-6440
:2	-6441
AG	-6442
An	-6443
EL	-6444
▁5.	-6445
cken	-6446
▁arv	-6447
▁Iran	-6448
▁bord	-6449
▁ster	-6450
lister	-6451
▁hatar	-6452
▁förvir	-6453
▁kurser	-6454
▁palest	-6455
▁symtom	-6456
▁tanken	-6457
▁Älskar	-6458
struktion	-6459
▁kemikali	-6460
verkningar	-6461
▁kommersiella	-6462
PA	-6463
bio	-6464
▁Ke	-6465
▁PC	-6466
▁Tid	-6467
derat	-6468
eteck	-6469
▁2007	-6470
▁Visa	-6471
▁Asien	-6472
▁appar	-6473
▁ringa	-6474
▁vuxen	-6475
▁School	-6476
▁export	-6477
▁växter	-6478
▁krafter	-6479
▁känslan	-6480
▁svårare	-6481
▁tävling	-6482
▁Grekland	-6483
▁tjänsten	-6484
▁praktiska	-6485
▁sjukdomen	-6486
▁utomlands	-6487
▁relaterade	-6488
▁övergripande	-6489
IF	-6490
ze	-6491
uff	-6492
igar	-6493
▁400	-6494
▁don	-6495
▁hav	-6496
klass	-6497
ultur	-6498
valda	-6499
▁Jose	-6500
▁arab	-6501
▁indi	-6502
▁sand	-6503
▁decen	-6504
▁fatta	-6505
▁Casino	-6506
▁Nästan	-6507
▁helvet	-6508
▁inform	-6509
▁täcker	-6510
▁förpack	-6511
▁användes	-6512
▁förväntar	-6513
▁professor	-6514
▁födelsedag	-6515
▁hållbarhet	-6516
▁produktionen	-6517
mö	-6518
flö	-6519
ski	-6520
▁th	-6521
▁Sex	-6522
▁2000	-6523
▁Irak	-6524
▁drygt	-6525
▁skaffa	-6526
▁status	-6527
teringen	-6528
▁datorer	-6529
▁lyckats	-6530
▁verklig	-6531
▁original	-6532
▁Washington	-6533
▁anslutning	-6534
▁klimatföränd	-6535
När	-6536
▁Wi	-6537
kare	-6538
stor	-6539
▁Led	-6540
▁sum	-6541
▁Flyg	-6542
▁Home	-6543
▁anta	-6544
▁okej	-6545
dioxid	-6546
teknik	-6547
▁bevar	-6548
▁lösen	-6549
▁typen	-6550
▁George	-6551
▁avgöra	-6552
▁flicka	-6553
▁saknas	-6554
▁butiker	-6555
▁farliga	-6556
▁samling	-6557
▁kategori	-6558
▁varierar	-6559
▁betraktas	-6560
▁potential	-6561
▁försvinner	-6562
1)	-6563
▁→	-6564
ERR	-6565
bin	-6566
pre	-6567
erare	-6568
▁Tech	-6569
▁West	-6570
▁belö	-6571
▁kläd	-6572
▁moln	-6573
asinon	-6574
mering	-6575
ordens	-6576
▁hämta	-6577
▁växte	-6578
▁auktor	-6579
▁mobila	-6580
▁Bitcoin	-6581
▁flickor	-6582
▁granska	-6583
▁slutade	-6584
såtgärder	-6585
▁diabetes	-6586
▁eleverna	-6587
▁inflytande	-6588
▁människans	-6589
.»	-6590
ppna	-6591
▁Lik	-6592
▁mej	-6593
▁tår	-6594
▁Kolla	-6595
▁kräva	-6596
▁sanna	-6597
önstret	-6598
▁hävdar	-6599
▁järnväg	-6600
▁populär	-6601
▁inverkan	-6602
▁marknads	-6603
▁militära	-6604
▁religiösa	-6605
▁fördelarna	-6606
▁Information	-6607
▁tillverkare	-6608
sy	-6609
ern	-6610
isa	-6611
kod	-6612
emed	-6613
litt	-6614
varan	-6615
▁Adam	-6616
▁Dina	-6617
▁ange	-6618
▁diet	-6619
▁irri	-6620
▁list	-6621
▁femte	-6622
▁maten	-6623
▁pålit	-6624
▁sekund	-6625
▁stater	-6626
▁lyssnar	-6627
▁skyddar	-6628
▁ledarskap	-6629
▁utländska	-6630
▁Föregående	-6631
my	-6632
▁32	-6633
▁Kö	-6634
▁mm	-6635
spar	-6636
vall	-6637
▁lyx	-6638
taget	-6639
▁Anal	-6640
▁nerv	-6641
▁mötet	-6642
▁ämnet	-6643
▁förmed	-6644
▁skapas	-6645
▁Artikel	-6646
▁garanti	-6647
▁symptom	-6648
▁aspekter	-6649
▁minuters	-6650
▁arbetstag	-6651
▁effektivitet	-6652
ynd	-6653
▁Mor	-6654
▁kod	-6655
▁mår	-6656
ockar	-6657
▁100%	-6658
▁2004	-6659
▁mäta	-6660
▁mött	-6661
▁stam	-6662
kontor	-6663
ledare	-6664
smiljö	-6665
▁Franc	-6666
▁drivs	-6667
▁kille	-6668
▁Bibeln	-6669
▁advoka	-6670
▁ljuset	-6671
▁sovrum	-6672
▁väster	-6673
alisering	-6674
stationer	-6675
▁noggrant	-6676
▁uppmanar	-6677
▁riktlinjer	-6678
▁representerar	-6679
8,	-6680
bry	-6681
▁Fo	-6682
▁Åh	-6683
▁Fakt	-6684
▁Stat	-6685
▁pröv	-6686
▁aller	-6687
▁Barcel	-6688
▁handen	-6689
▁materi	-6690
▁medför	-6691
▁lagring	-6692
▁republi	-6693
▁statistik	-6694
▁överföring	-6695
aby	-6696
ssa	-6697
▁Ry	-6698
fisk	-6699
▁Vin	-6700
ioder	-6701
▁Tour	-6702
▁fara	-6703
▁Ytter	-6704
▁human	-6705
▁mörka	-6706
▁omdöm	-6707
▁redig	-6708
terande	-6709
▁Utveck	-6710
▁luften	-6711
▁sträng	-6712
▁årliga	-6713
▁kristen	-6714
▁livsstil	-6715
smarknaden	-6716
▁Självklart	-6717
▁accepterar	-6718
cipl	-6719
klas	-6720
▁Rel	-6721
▁smi	-6722
▁Inne	-6723
▁frid	-6724
▁make	-6725
gångar	-6726
▁träna	-6727
▁Martin	-6728
▁makten	-6729
▁åsikter	-6730
▁hotellet	-6731
▁reaktion	-6732
▁sjukvård	-6733
▁slutligen	-6734
▁deltagande	-6735
▁tillfället	-6736
▁inspiration	-6737
▁förutsättningar	-6738
skl	-6739
skv	-6740
cell	-6741
sorg	-6742
▁Bay	-6743
atiska	-6744
▁forum	-6745
▁källa	-6746
▁unikt	-6747
▁åstad	-6748
▁deltar	-6749
▁ångest	-6750
▁grundval	-6751
▁produktiv	-6752
oppningsvis	-6753
▁mobiltelef	-6754
▁kommunicera	-6755
3)	-6756
add	-6757
che	-6758
uma	-6759
▁Ol	-6760
eral	-6761
oris	-6762
årig	-6763
▁dik	-6764
huvud	-6765
yrkan	-6766
▁2006	-6767
▁Sing	-6768
▁robot	-6769
▁decenn	-6770
▁plocka	-6771
▁utförs	-6772
aliteten	-6773
▁öppnade	-6774
▁tidpunkt	-6775
▁underbar	-6776
vil	-6777
usal	-6778
ögon	-6779
▁Anna	-6780
▁Swed	-6781
▁bist	-6782
▁onda	-6783
▁inser	-6784
▁parad	-6785
▁resor	-6786
▁Christ	-6787
▁Frågan	-6788
▁avslut	-6789
▁begära	-6790
▁fredag	-6791
▁ombord	-6792
▁utbyte	-6793
▁Egypten	-6794
▁begränsa	-6795
▁förmågan	-6796
▁spelarna	-6797
▁demokrati	-6798
▁kilometer	-6799
▁installera	-6800
80	-6801
RA	-6802
US	-6803
ago	-6804
con	-6805
kör	-6806
ugh	-6807
disk	-6808
▁150	-6809
▁Säg	-6810
▁röd	-6811
▁you	-6812
eriod	-6813
givna	-6814
känna	-6815
sstra	-6816
▁bodde	-6817
▁rekry	-6818
isterna	-6819
▁begrav	-6820
▁juster	-6821
▁normal	-6822
▁smarta	-6823
▁stannar	-6824
▁shopping	-6825
▁diskrimin	-6826
▁klassific	-6827
CC	-6828
IM	-6829
cil	-6830
day	-6831
ody	-6832
brid	-6833
▁Ali	-6834
▁Nat	-6835
▁dvs	-6836
▁hyp	-6837
skrid	-6838
▁Play	-6839
▁Amazon	-6840
▁Faktum	-6841
▁förest	-6842
▁grader	-6843
▁sängen	-6844
kommande	-6845
▁Projekt	-6846
▁fysiskt	-6847
▁represent	-6848
▁producerar	-6849
wn	-6850
▁)	-6851
bit	-6852
gav	-6853
udi	-6854
▁Va	-6855
.000	-6856
amod	-6857
anti	-6858
tics	-6859
▁Sec	-6860
▁Tex	-6861
▁con	-6862
oklad	-6863
▁tolv	-6864
▁åkte	-6865
▁färre	-6866
▁ledam	-6867
▁uppre	-6868
▁kändes	-6869
▁marker	-6870
▁fattiga	-6871
▁försökt	-6872
▁oerhört	-6873
▁separat	-6874
▁bestämde	-6875
▁rapporten	-6876
ble	-6877
▁VD	-6878
roll	-6879
▁God	-6880
▁Pat	-6881
▁syd	-6882
▁besl	-6883
▁leta	-6884
iteter	-6885
▁arter	-6886
▁byggt	-6887
▁täcka	-6888
okument	-6889
▁Street	-6890
▁länkar	-6891
▁matema	-6892
▁signal	-6893
▁Däremot	-6894
▁blommor	-6895
▁förblir	-6896
▁lycklig	-6897
▁sällsyn	-6898
▁American	-6899
▁innebära	-6900
▁innefatt	-6901
▁sträcker	-6902
▁effekterna	-6903
▁kulturella	-6904
▁elektroniska	-6905
▁världskriget	-6906
rim	-6907
▁75	-6908
▁da	-6909
test	-6910
▁Bud	-6911
avare	-6912
riken	-6913
▁Lite	-6914
▁Volv	-6915
▁kris	-6916
atteri	-6917
sdagen	-6918
verant	-6919
▁Herre	-6920
▁spåra	-6921
▁våren	-6922
atoriska	-6923
▁komplic	-6924
▁vinster	-6925
▁kreativa	-6926
▁naturlig	-6927
▁mänskligheten	-6928
ee	-6929
tv	-6930
ww	-6931
off	-6932
omål	-6933
rädd	-6934
▁yta	-6935
▁sign	-6936
andard	-6937
▁butik	-6938
▁exempl	-6939
▁helgen	-6940
▁gränsen	-6941
▁stadens	-6942
▁tacksam	-6943
▁vackert	-6944
▁bilderna	-6945
▁välkomna	-6946
▁klassiska	-6947
▁komponenter	-6948
▁uppgifterna	-6949
:3	-6950
?!	-6951
ny	-6952
▁ax	-6953
inas	-6954
löst	-6955
▁Jäm	-6956
▁Max	-6957
▁dyg	-6958
järna	-6959
varor	-6960
▁Skri	-6961
▁gåva	-6962
▁inse	-6963
▁kust	-6964
sikten	-6965
▁Fören	-6966
▁House	-6967
sområde	-6968
▁klarar	-6969
hållande	-6970
▁Exempel	-6971
▁enheten	-6972
▁protein	-6973
▁utrikes	-6974
sminister	-6975
▁egenskap	-6976
▁maskiner	-6977
▁mänsklig	-6978
▁operativ	-6979
▁påverkan	-6980
▁Observera	-6981
▁existerar	-6982
▁användarna	-6983
▁intressanta	-6984
▁bestämmelserna	-6985
Och	-6986
▁Bli	-6987
▁Che	-6988
▁veg	-6989
huset	-6990
srael	-6991
▁fira	-6992
slagen	-6993
▁Neder	-6994
▁dimen	-6995
▁frisk	-6996
▁orden	-6997
▁veter	-6998
speriod	-6999
▁Försök	-7000
▁dialog	-7001
▁ikväll	-7002
ologiskt	-7003
▁hjälpte	-7004
▁spelaren	-7005
▁politiskt	-7006
▁underrätt	-7007
▁|	-7008
▁́	-7009
öld	-7010
▁3,	-7011
▁Tr	-7012
alax	-7013
stör	-7014
▁Dra	-7015
▁Dri	-7016
▁Rep	-7017
annes	-7018
▁föll	-7019
usalem	-7020
▁andel	-7021
▁domän	-7022
▁minut	-7023
▁radio	-7024
▁hästar	-7025
▁sprida	-7026
▁ursäkt	-7027
▁vardag	-7028
▁språket	-7029
▁uppvärm	-7030
alistiska	-7031
▁flygplan	-7032
▁komplett	-7033
▁mångfald	-7034
▁koldioxid	-7035
▁fastställs	-7036
▁förklaring	-7037
▁jämförelse	-7038
▁kvaliteten	-7039
▁sammanfatt	-7040
▁övervakning	-7041
▁kommissionens	-7042
DA	-7043
log	-7044
fikt	-7045
serv	-7046
skam	-7047
stod	-7048
tern	-7049
▁söt	-7050
▁Soci	-7051
▁Börja	-7052
▁andas	-7053
▁fånga	-7054
▁slott	-7055
▁varav	-7056
▁upprep	-7057
▁vikten	-7058
▁uppfölj	-7059
▁Jerusalem	-7060
▁medicinsk	-7061
ew	-7062
bul	-7063
▁Af	-7064
eman	-7065
▁Far	-7066
▁Fär	-7067
▁Rad	-7068
▁osk	-7069
brans	-7070
▁Hitt	-7071
▁rena	-7072
värden	-7073
arbetet	-7074
▁följde	-7075
▁hjärna	-7076
▁muskel	-7077
▁texten	-7078
▁utöver	-7079
onerande	-7080
▁erkänna	-7081
▁Kaliforn	-7082
▁hanterar	-7083
▁partners	-7084
▁tekniken	-7085
▁levererar	-7086
▁kreditkort	-7087
▁meddelanden	-7088
▁återförsälj	-7089
▁registrering	-7090
▁förväntningar	-7091
röm	-7092
vad	-7093
gade	-7094
▁Son	-7095
▁2003	-7096
▁muse	-7097
▁tids	-7098
anlägg	-7099
▁Konta	-7100
▁fulla	-7101
▁låtar	-7102
▁rösta	-7103
▁stads	-7104
▁bedräg	-7105
▁kampen	-7106
▁osäker	-7107
▁praxis	-7108
▁vunnit	-7109
strument	-7110
▁hjärtan	-7111
▁träffar	-7112
▁hälsosam	-7113
▁kraftigt	-7114
.,	-7115
▁Pr	-7116
▁it	-7117
▁sc	-7118
stig	-7119
ödda	-7120
▁hål	-7121
▁säk	-7122
slösa	-7123
▁HERR	-7124
▁Inve	-7125
▁King	-7126
▁mani	-7127
▁antar	-7128
▁föreb	-7129
▁lovar	-7130
▁Bilder	-7131
▁efterm	-7132
▁bloggen	-7133
▁planera	-7134
▁springa	-7135
▁tålamod	-7136
▁vitamin	-7137
▁vänskap	-7138
▁uttrycka	-7139
▁självmord	-7140
▁misslyckas	-7141
▁genomsnittliga	-7142
Men	-7143
uck	-7144
una	-7145
▁SS	-7146
▁ST	-7147
belt	-7148
ekyl	-7149
sidor	-7150
▁Part	-7151
▁Green	-7152
▁domin	-7153
▁volym	-7154
▁rengör	-7155
undersök	-7156
▁betalas	-7157
▁drabbas	-7158
▁gjordes	-7159
▁kandida	-7160
▁koncern	-7161
▁Följande	-7162
▁träffade	-7163
▁artiklarna	-7164
▁värderingar	-7165
,"	-7166
önt	-7167
sbyg	-7168
▁Fot	-7169
▁vät	-7170
▁Lägg	-7171
▁hyll	-7172
▁para	-7173
▁sens	-7174
▁torr	-7175
▁tuff	-7176
center	-7177
iserad	-7178
ktivet	-7179
▁Skapa	-7180
▁råder	-7181
▁satte	-7182
▁tredj	-7183
▁Övrig	-7184
▁arrang	-7185
▁avgift	-7186
▁hamnar	-7187
▁lagras	-7188
▁spelas	-7189
▁stänga	-7190
▁lidande	-7191
▁fruktans	-7192
▁hållbara	-7193
utbildning	-7194
▁Barcelona	-7195
▁garanterar	-7196
ega	-7197
amet	-7198
edik	-7199
▁lät	-7200
iment	-7201
skraf	-7202
▁pool	-7203
▁välk	-7204
histor	-7205
▁rätts	-7206
ulation	-7207
▁sönder	-7208
▁affärsm	-7209
▁imorgon	-7210
▁kemiska	-7211
▁siffror	-7212
▁vintern	-7213
användare	-7214
▁återvända	-7215
▁förbättring	-7216
▁framgångsrik	-7217
hl	-7218
pol	-7219
ymp	-7220
▁Bur	-7221
▁Vik	-7222
▁rub	-7223
iller	-7224
ordin	-7225
ption	-7226
▁Fred	-7227
▁glömt	-7228
eration	-7229
marknad	-7230
▁Museum	-7231
▁besvär	-7232
▁israel	-7233
▁röster	-7234
▁spelat	-7235
inerande	-7236
▁detsamma	-7237
▁sexuella	-7238
▁hastighet	-7239
▁samhällen	-7240
▁tillfreds	-7241
▁arbetsplats	-7242
▁förvaltning	-7243
cin	-7244
jag	-7245
jas	-7246
spl	-7247
öta	-7248
▁Sv	-7249
▁Fem	-7250
▁ste	-7251
▁däri	-7252
▁etik	-7253
jukdom	-7254
▁Målet	-7255
▁inköp	-7256
▁otill	-7257
▁stånd	-7258
terades	-7259
▁Global	-7260
▁förbin	-7261
▁undvik	-7262
funktion	-7263
▁använts	-7264
▁flyttade	-7265
▁komplexa	-7266
▁samarbeta	-7267
▁anledningen	-7268
▁individuella	-7269
▁konsekvenser	-7270
!)	-7271
12	-7272
rek	-7273
▁CB	-7274
itté	-7275
raft	-7276
skad	-7277
onder	-7278
▁2001	-7279
▁däck	-7280
▁nått	-7281
bilder	-7282
deller	-7283
formar	-7284
resten	-7285
tjänst	-7286
▁Organ	-7287
▁beton	-7288
▁tycks	-7289
▁förlåt	-7290
▁dejting	-7291
▁tittade	-7292
meddelande	-7293
sprodukter	-7294
▁hantering	-7295
▁eventuellt	-7296
▁personligt	-7297
▁varumärken	-7298
EA	-7299
emi	-7300
fly	-7301
▁Ag	-7302
▁2005	-7303
▁fäst	-7304
▁förr	-7305
▁golf	-7306
▁hell	-7307
▁konf	-7308
▁matt	-7309
▁räck	-7310
▁sänd	-7311
▁hjärn	-7312
▁inred	-7313
▁bekräf	-7314
▁krimin	-7315
▁policy	-7316
ografiska	-7317
▁förstöra	-7318
▁institutioner	-7319
TA	-7320
kr	-7321
fart	-7322
fors	-7323
▁Ock	-7324
▁Out	-7325
skill	-7326
▁Bygg	-7327
▁Tekn	-7328
▁Besök	-7329
▁antog	-7330
▁flyga	-7331
▁hålls	-7332
komsten	-7333
▁associ	-7334
▁bryter	-7335
▁godkän	-7336
▁beställ	-7337
▁renover	-7338
▁introduc	-7339
▁statliga	-7340
alternativ	-7341
relaterade	-7342
▁permanent	-7343
▁begränsade	-7344
▁förändrats	-7345
▁italienska	-7346
▁offentligt	-7347
▁ordentligt	-7348
▁Ytterligare	-7349
▁produkterna	-7350
▁tillräcklig	-7351
▁ursprungligen	-7352
RO	-7353
må	-7354
fen	-7355
rog	-7356
siv	-7357
▁Las	-7358
▁Mat	-7359
▁trå	-7360
fritt	-7361
▁Jord	-7362
▁näst	-7363
▁tors	-7364
▁tron	-7365
orator	-7366
▁stött	-7367
▁söder	-7368
finansi	-7369
▁faktor	-7370
▁hållet	-7371
▁skatte	-7372
▁åtgärd	-7373
▁Kvinnor	-7374
▁aggress	-7375
▁sökande	-7376
marknaden	-7377
▁konstigt	-7378
▁pågående	-7379
▁återställa	-7380
Han	-7381
cha	-7382
hop	-7383
tex	-7384
fyll	-7385
▁Bal	-7386
▁Hum	-7387
▁Ord	-7388
▁Ung	-7389
▁Vir	-7390
▁ond	-7391
varen	-7392
▁Rock	-7393
▁noll	-7394
▁absor	-7395
stitutet	-7396
▁kameran	-7397
▁konkret	-7398
▁skärmen	-7399
▁garantera	-7400
▁förbättrar	-7401
▁beskrivning	-7402
▁tillämpliga	-7403
.2	-7404
ges	-7405
ovs	-7406
stin	-7407
uens	-7408
▁192	-7409
▁III	-7410
▁War	-7411
▁inj	-7412
▁loj	-7413
ekret	-7414
smäss	-7415
▁Poli	-7416
▁ovän	-7417
▁rymd	-7418
▁tema	-7419
drarna	-7420
▁North	-7421
▁köket	-7422
▁nivån	-7423
itation	-7424
▁Design	-7425
▁hållas	-7426
▁söndag	-7427
▁termin	-7428
▁bredvid	-7429
▁strävar	-7430
▁tydliga	-7431
▁effekten	-7432
▁Programmet	-7433
▁berättelser	-7434
▁tillämpningen	-7435
ty	-7436
ury	-7437
▁PS	-7438
orma	-7439
sist	-7440
▁äga	-7441
phone	-7442
▁Juli	-7443
▁bröd	-7444
sfullt	-7445
▁Forsk	-7446
▁Grand	-7447
▁Hjälp	-7448
▁verif	-7449
byggnad	-7450
tjänster	-7451
▁känslom	-7452
skrivning	-7453
▁förebygg	-7454
organisation	-7455
▁intelligens	-7456
▁traditionell	-7457
▁begränsningar	-7458
alth	-7459
edöm	-7460
juda	-7461
▁190	-7462
▁pub	-7463
▁väv	-7464
▁fack	-7465
▁havs	-7466
▁rese	-7467
▁uttr	-7468
▁Allah	-7469
▁Visst	-7470
▁kallt	-7471
▁mysti	-7472
▁orätt	-7473
▁dricker	-7474
▁argument	-7475
▁berättig	-7476
▁kvartalet	-7477
▁parkering	-7478
▁utvecklat	-7479
-0	-7480
häl	-7481
▁Mu	-7482
▁OS	-7483
▁Mel	-7484
▁Sov	-7485
▁Und	-7486
ällor	-7487
▁Förs	-7488
▁Wall	-7489
▁besk	-7490
▁legi	-7491
ningom	-7492
▁Konst	-7493
▁ansåg	-7494
▁förkn	-7495
▁HERREN	-7496
▁elimin	-7497
▁kontra	-7498
▁läsare	-7499
▁strand	-7500
▁Förenta	-7501
▁fenomen	-7502
▁grekiska	-7503
▁övervaka	-7504
▁känneteck	-7505
▁regionala	-7506
▁arkitektur	-7507
▁samarbetet	-7508
▁konsumenter	-7509
▁genomförande	-7510
▁..	-7511
anke	-7512
bile	-7513
imer	-7514
ären	-7515
jerna	-7516
▁camp	-7517
▁oänd	-7518
▁urin	-7519
▁denne	-7520
▁förbe	-7521
▁judar	-7522
estival	-7523
▁Kärlek	-7524
▁Thomas	-7525
▁bordet	-7526
▁ifrågas	-7527
▁orsaker	-7528
▁beskriva	-7529
▁vistelse	-7530
användning	-7531
▁hemlighet	-7532
▁specifikt	-7533
▁flygplatsen	-7534
▁biverkningar	-7535
▁personlighet	-7536
▁skyldigheter	-7537
IA	-7538
Hur	-7539
aks	-7540
amin	-7541
itch	-7542
jord	-7543
lipp	-7544
omet	-7545
▁Ann	-7546
▁Ing	-7547
▁myn	-7548
dater	-7549
▁Phil	-7550
▁rött	-7551
▁stig	-7552
▁sånt	-7553
▁tabl	-7554
område	-7555
▁kämpa	-7556
▁medic	-7557
▁strål	-7558
politik	-7559
stagram	-7560
ystemet	-7561
▁andras	-7562
▁gjorda	-7563
▁Richard	-7564
▁diskuter	-7565
▁givetvis	-7566
▁uppenbart	-7567
▁långsiktiga	-7568
▁presenterar	-7569
▁installation	-7570
▁framgångsrikt	-7571
▁konsumenterna	-7572
▁Medlemsstaterna	-7573
OL	-7574
zer	-7575
▁33	-7576
ague	-7577
dium	-7578
speg	-7579
▁Sti	-7580
▁Wil	-7581
▁gat	-7582
korea	-7583
vägen	-7584
ckerna	-7585
▁Power	-7586
▁bedöma	-7587
▁minnen	-7588
▁steget	-7589
▁uppstå	-7590
änningar	-7591
▁baseras	-7592
▁utvalda	-7593
▁frekvens	-7594
▁industrin	-7595
8)	-7596
but	-7597
row	-7598
ghan	-7599
ones	-7600
rukt	-7601
▁Bor	-7602
▁Spa	-7603
▁jap	-7604
▁trö	-7605
ckade	-7606
▁1000	-7607
▁inuti	-7608
▁tunga	-7609
▁erhåll	-7610
skrifter	-7611
▁brukade	-7612
▁flyttar	-7613
▁gillade	-7614
▁tillåta	-7615
▁vardags	-7616
▁bekräfta	-7617
▁upptäckt	-7618
▁överväga	-7619
▁branschen	-7620
▁tradition	-7621
▁Kalifornien	-7622
▁territorium	-7623
▁utbildnings	-7624
organisationer	-7625
que	-7626
▁UN	-7627
▁wh	-7628
loud	-7629
sesi	-7630
▁Veg	-7631
lista	-7632
serva	-7633
ublic	-7634
ustru	-7635
▁ande	-7636
▁ansl	-7637
▁hjul	-7638
▁påsk	-7639
design	-7640
▁Andre	-7641
▁evigt	-7642
▁håret	-7643
▁impon	-7644
▁lätta	-7645
▁låten	-7646
▁nöjda	-7647
▁skärm	-7648
▁tillå	-7649
▁droger	-7650
▁friska	-7651
▁import	-7652
▁kropps	-7653
▁radika	-7654
▁vädret	-7655
▁föroren	-7656
unikation	-7657
▁beräknas	-7658
postadress	-7659
▁analysera	-7660
▁bekräftar	-7661
▁praktiskt	-7662
▁imponerande	-7663
▁kostnaderna	-7664
▁nödvändigtvis	-7665
▁rättigheterna	-7666
▁administrativa	-7667
Fi	-7668
▁Ul	-7669
ulen	-7670
issör	-7671
vända	-7672
▁Malm	-7673
▁olje	-7674
▁sked	-7675
ickade	-7676
▁Titta	-7677
▁följt	-7678
▁humör	-7679
▁kasta	-7680
▁nomin	-7681
▁oblig	-7682
▁varma	-7683
itterat	-7684
ättning	-7685
▁fötter	-7686
▁kompis	-7687
▁tjejer	-7688
▁ändrar	-7689
innehåll	-7690
▁koncentr	-7691
▁lösenord	-7692
▁månaderna	-7693
▁sekretess	-7694
▁uppskattar	-7695
▁anledningar	-7696
▁gemenskapen	-7697
uft	-7698
▁ot	-7699
innan	-7700
▁Test	-7701
▁Väst	-7702
▁Word	-7703
▁kill	-7704
stiden	-7705
▁säljs	-7706
service	-7707
▁Utöver	-7708
▁filoso	-7709
▁hösten	-7710
▁aktörer	-7711
▁högkval	-7712
branschen	-7713
▁förknipp	-7714
▁begränsat	-7715
▁småningom	-7716
▁upptäcker	-7717
▁versioner	-7718
▁revolutionen	-7719
▁genomförandet	-7720
70	-7721
9)	-7722
CA	-7723
sd	-7724
ift	-7725
pri	-7726
ares	-7727
färd	-7728
lagt	-7729
ugga	-7730
istik	-7731
sätts	-7732
▁Vita	-7733
▁gran	-7734
▁hung	-7735
▁takt	-7736
▁teor	-7737
▁Skriv	-7738
▁hårda	-7739
▁skönt	-7740
givande	-7741
▁Tycker	-7742
▁Vidare	-7743
▁formen	-7744
▁kolleg	-7745
▁stolta	-7746
▁titeln	-7747
▁släpper	-7748
▁träffas	-7749
▁vanligen	-7750
▁bakterier	-7751
▁kombinerar	-7752
▁upplevelser	-7753
▁alternativet	-7754
bro	-7755
cle	-7756
ide	-7757
▁34	-7758
natt	-7759
rass	-7760
▁öde	-7761
yggen	-7762
▁Carl	-7763
▁foto	-7764
▁njut	-7765
▁rest	-7766
▁röka	-7767
▁skäm	-7768
igenom	-7769
▁Också	-7770
▁Skill	-7771
▁hoppa	-7772
▁jävla	-7773
▁påstå	-7774
vention	-7775
▁Social	-7776
▁blodet	-7777
▁bortom	-7778
▁examen	-7779
▁expert	-7780
▁funkar	-7781
▁införa	-7782
▁numera	-7783
splatser	-7784
sproblem	-7785
▁externa	-7786
▁stämmer	-7787
▁stödjer	-7788
▁översti	-7789
▁överträ	-7790
▁ansiktet	-7791
▁landsbyg	-7792
▁släpptes	-7793
▁stjärnor	-7794
▁administr	-7795
▁presentera	-7796
▁ingredienser	-7797
▁transaktioner	-7798
olt	-7799
▁4,	-7800
omer	-7801
skaff	-7802
▁Ford	-7803
▁Land	-7804
▁Sara	-7805
▁inbl	-7806
▁kryp	-7807
▁lågt	-7808
▁mord	-7809
▁rund	-7810
bunden	-7811
serien	-7812
▁Harry	-7813
demokra	-7814
▁Annars	-7815
▁hunden	-7816
▁inbygg	-7817
▁separa	-7818
▁ömsesi	-7819
▁byggdes	-7820
▁jordens	-7821
▁sakerna	-7822
▁baserade	-7823
▁kliniska	-7824
▁kärleken	-7825
▁långsamt	-7826
▁missbruk	-7827
▁rörelser	-7828
▁Institute	-7829
▁kontakter	-7830
▁minskning	-7831
▁praktiken	-7832
▁skillnader	-7833
▁tillhandahålls	-7834
15	-7835
▁1:	-7836
▁Mr	-7837
käns	-7838
läng	-7839
onto	-7840
ymer	-7841
▁onö	-7842
▁inci	-7843
andina	-7844
familj	-7845
▁Livet	-7846
▁dekor	-7847
▁skott	-7848
▁utvid	-7849
▁öster	-7850
▁Amerik	-7851
▁banker	-7852
▁bröder	-7853
▁civila	-7854
▁konsul	-7855
▁snälla	-7856
▁vänder	-7857
▁evangel	-7858
▁verkade	-7859
▁sannolik	-7860
▁specifik	-7861
▁resolution	-7862
▁passagerare	-7863
▁tillfälligt	-7864
▁arbetsgivare	-7865
ko	-7866
iat	-7867
▁;)	-7868
▁CD	-7869
iler	-7870
▁600	-7871
▁Läk	-7872
▁kir	-7873
▁pop	-7874
sspel	-7875
visas	-7876
▁salt	-7877
egräns	-7878
▁Sport	-7879
▁aning	-7880
▁falla	-7881
▁veder	-7882
▁virus	-7883
▁League	-7884
▁Vatten	-7885
▁enorma	-7886
▁hustru	-7887
▁släpps	-7888
▁tvivel	-7889
samheten	-7890
▁jämföra	-7891
▁varelser	-7892
▁övergång	-7893
▁levereras	-7894
▁erbjudande	-7895
▁strategier	-7896
▁författaren	-7897
▁Nederländerna	-7898
PR	-7899
ert	-7900
opro	-7901
sska	-7902
▁Rik	-7903
▁bal	-7904
▁obj	-7905
▁Kort	-7906
▁oroa	-7907
▁term	-7908
▁utöv	-7909
frihet	-7910
ologin	-7911
▁Stora	-7912
▁märke	-7913
▁sover	-7914
▁titel	-7915
igheten	-7916
▁Dagens	-7917
▁ambass	-7918
▁förbli	-7919
▁hjälpt	-7920
▁möbler	-7921
▁omsorg	-7922
▁skogen	-7923
astighet	-7924
▁Svenska	-7925
▁besökte	-7926
▁choklad	-7927
inationer	-7928
▁ansvariga	-7929
▁kostnaden	-7930
▁Kontroller	-7931
▁hundratals	-7932
▁verksamheter	-7933
/2	-7934
__	-7935
äx	-7936
häng	-7937
ious	-7938
oter	-7939
ttag	-7940
olvet	-7941
▁fans	-7942
▁norr	-7943
▁Värld	-7944
▁gymna	-7945
▁korre	-7946
▁tycka	-7947
emedlem	-7948
verkare	-7949
▁tvekan	-7950
▁billiga	-7951
▁kroppar	-7952
▁omfatta	-7953
▁pratade	-7954
▁stycken	-7955
▁troende	-7956
▁återigen	-7957
▁bibliotek	-7958
▁majoritet	-7959
▁kraftfulla	-7960
▁huvudsakliga	-7961
Ja	-7962
ova	-7963
elat	-7964
stöd	-7965
umin	-7966
work	-7967
▁Sky	-7968
▁gri	-7969
fråga	-7970
isten	-7971
motor	-7972
onger	-7973
temot	-7974
änker	-7975
▁Hand	-7976
▁Next	-7977
▁stre	-7978
▁Polen	-7979
▁Produ	-7980
▁fasta	-7981
▁levde	-7982
▁neder	-7983
▁Sådana	-7984
▁fritid	-7985
▁kamera	-7986
▁operat	-7987
▁general	-7988
▁matchen	-7989
▁tvingas	-7990
▁klagomål	-7991
▁tillåtet	-7992
▁trygghet	-7993
▁fattigdom	-7994
▁standarder	-7995
▁uppsättning	-7996
EM	-7997
oj	-7998
ate	-7999
ced	-8000
▁DNA	-8001
▁nere	-8002
▁show	-8003
ssnitt	-8004
▁Texas	-8005
▁anord	-8006
▁foton	-8007
▁saken	-8008
▁försen	-8009
▁gransk	-8010
▁killar	-8011
▁sparar	-8012
▁öppnas	-8013
▁bokstav	-8014
▁farligt	-8015
▁förteck	-8016
▁kampanj	-8017
▁placera	-8018
ställdhet	-8019
▁faktiska	-8020
▁försvara	-8021
▁muslimer	-8022
▁skadliga	-8023
▁kvinnorna	-8024
▁telefonen	-8025
▁utvärdera	-8026
▁positioner	-8027
▁utvecklade	-8028
▁kontrollerar	-8029
St	-8030
ico	-8031
kun	-8032
köp	-8033
oro	-8034
spe	-8035
sse	-8036
omma	-8037
prov	-8038
utan	-8039
▁Mis	-8040
▁sty	-8041
akter	-8042
boken	-8043
ction	-8044
natur	-8045
riker	-8046
▁High	-8047
▁Live	-8048
▁Sand	-8049
▁gäng	-8050
▁lett	-8051
▁nack	-8052
▁tapp	-8053
▁Ännu	-8054
ostnad	-8055
skrift	-8056
▁Beach	-8057
▁utöva	-8058
▁verka	-8059
▁återf	-8060
äckande	-8061
▁Daniel	-8062
▁liknar	-8063
▁minnas	-8064
▁teater	-8065
▁besluts	-8066
▁forskar	-8067
▁skatter	-8068
▁utarbet	-8069
samlingen	-8070
▁informera	-8071
▁förbereder	-8072
▁förklarade	-8073
▁registrera	-8074
▁applikationer	-8075
II	-8076
fo	-8077
▁§	-8078
ame	-8079
gor	-8080
kons	-8081
▁Big	-8082
▁Inc	-8083
▁byn	-8084
▁Vart	-8085
▁dyra	-8086
▁frig	-8087
ations	-8088
▁Count	-8089
▁avvik	-8090
▁befri	-8091
▁bekym	-8092
▁dryck	-8093
▁kyrka	-8094
▁längd	-8095
baserad	-8096
förbruk	-8097
ningens	-8098
stjänst	-8099
▁Filmen	-8100
▁Undvik	-8101
▁avkast	-8102
▁beredd	-8103
▁publik	-8104
▁utsatt	-8105
▁andliga	-8106
▁flertal	-8107
▁punkter	-8108
▁upphovs	-8109
▁uteslut	-8110
ledningen	-8111
▁kriterier	-8112
▁funktionen	-8113
▁inställning	-8114
▁behandlingar	-8115
har	-8116
ini	-8117
Alla	-8118
bätt	-8119
▁Kam	-8120
▁sat	-8121
▁Ukra	-8122
▁samm	-8123
▁Redan	-8124
▁skett	-8125
▁sämre	-8126
▁Associ	-8127
▁genast	-8128
▁rollen	-8129
▁tagits	-8130
▁bekvämt	-8131
▁förstod	-8132
▁blandning	-8133
▁främmande	-8134
▁nätverket	-8135
▁förfarande	-8136
▁reaktioner	-8137
▁partnerskap	-8138
fot	-8139
ids	-8140
▁Ap	-8141
▁Män	-8142
▁der	-8143
filer	-8144
spris	-8145
▁blom	-8146
▁höja	-8147
▁rock	-8148
atorer	-8149
böcker	-8150
elsing	-8151
▁Mexik	-8152
▁State	-8153
▁Volvo	-8154
▁lugnt	-8155
▁talas	-8156
▁Afghan	-8157
▁bevara	-8158
▁debatt	-8159
▁syftet	-8160
▁tänder	-8161
volution	-8162
▁förbund	-8163
minskning	-8164
▁Problemet	-8165
▁avsnittet	-8166
▁beställning	-8167
▁framförallt	-8168
▁personligen	-8169
▁undersökningar	-8170
▁·	-8171
llt	-8172
▁2-	-8173
▁Kn	-8174
cher	-8175
▁Lou	-8176
▁Pay	-8177
isser	-8178
naler	-8179
▁jack	-8180
▁Award	-8181
▁Royal	-8182
▁Smith	-8183
▁imper	-8184
▁skepp	-8185
▁tjock	-8186
utsläpp	-8187
▁ansöka	-8188
▁attrak	-8189
▁betalt	-8190
▁repara	-8191
▁turist	-8192
▁Intress	-8193
▁glömmer	-8194
▁trevlig	-8195
▁Särskilt	-8196
▁avlägsna	-8197
▁existens	-8198
▁genomförs	-8199
▁tillkänna	-8200
▁upptäckte	-8201
▁distribution	-8202
▁generationer	-8203
TS	-8204
seg	-8205
▁65	-8206
▁HD	-8207
ivis	-8208
jack	-8209
shop	-8210
▁Hal	-8211
▁ryk	-8212
▁togs	-8213
ländsk	-8214
sbolag	-8215
▁Medel	-8216
▁anger	-8217
▁impor	-8218
▁modif	-8219
▁neuro	-8220
▁undra	-8221
▁Berlin	-8222
▁United	-8223
▁hellre	-8224
▁kungar	-8225
▁obehag	-8226
ektionen	-8227
▁kortare	-8228
▁angående	-8229
▁gentemot	-8230
▁japanska	-8231
▁allvarlig	-8232
▁inträffar	-8233
▁protokoll	-8234
▁teknologi	-8235
▁flyktingar	-8236
-]	-8237
BC	-8238
:00	-8239
stä	-8240
▁(4	-8241
blad	-8242
gått	-8243
inte	-8244
jung	-8245
lopp	-8246
onde	-8247
▁Mig	-8248
anskt	-8249
ierat	-8250
▁höst	-8251
▁kast	-8252
▁tvär	-8253
▁Thail	-8254
▁genet	-8255
▁liber	-8256
▁spons	-8257
▁Kristi	-8258
▁Paulus	-8259
▁koppla	-8260
sidenten	-8261
▁rättvis	-8262
▁skadade	-8263
▁negativt	-8264
▁slutföra	-8265
▁graviditet	-8266
ean	-8267
fast	-8268
idat	-8269
▁Tri	-8270
▁Ven	-8271
ieras	-8272
▁Karl	-8273
▁Stör	-8274
▁diam	-8275
aterad	-8276
inerna	-8277
skatta	-8278
sköter	-8279
▁betyg	-8280
▁grann	-8281
▁strax	-8282
▁inspel	-8283
▁samord	-8284
▁Central	-8285
▁avslapp	-8286
▁vinnare	-8287
▁noggrann	-8288
▁överföra	-8289
▁billigare	-8290
▁patienten	-8291
▁planering	-8292
▁tillväxten	-8293
▁utvärdering	-8294
▁förebyggande	-8295
TT	-8296
ks	-8297
ads	-8298
ose	-8299
▁42	-8300
▁48	-8301
bryt	-8302
fram	-8303
osit	-8304
otta	-8305
uide	-8306
urit	-8307
vita	-8308
▁Aut	-8309
▁[-]	-8310
▁bre	-8311
▁sär	-8312
▁vag	-8313
datum	-8314
stora	-8315
▁Risk	-8316
▁begå	-8317
▁neut	-8318
▁Ändå	-8319
▁South	-8320
▁lyfta	-8321
▁resen	-8322
▁avsedd	-8323
▁extrem	-8324
▁format	-8325
▁försäk	-8326
▁länken	-8327
▁lördag	-8328
▁planen	-8329
▁Helsing	-8330
ikationer	-8331
skridande	-8332
▁byggnaden	-8333
▁katastrof	-8334
▁problemen	-8335
▁storleken	-8336
▁materialet	-8337
▁svårigheter	-8338
▁säkerställer	-8339
jäm	-8340
sbeh	-8341
text	-8342
▁Går	-8343
▁Ken	-8344
▁Lab	-8345
▁Nik	-8346
▁fav	-8347
▁fet	-8348
▁mam	-8349
skrav	-8350
trans	-8351
ättar	-8352
▁låna	-8353
▁rike	-8354
▁2015.	-8355
▁gjord	-8356
chester	-8357
▁fångar	-8358
▁förare	-8359
▁härlig	-8360
▁orolig	-8361
▁sevärd	-8362
▁skilja	-8363
fattande	-8364
▁batteri	-8365
▁musiken	-8366
▁därifrån	-8367
▁kongress	-8368
▁konstitu	-8369
▁litterat	-8370
▁Slutligen	-8371
▁laborator	-8372
2]	-8373
PN	-8374
vir	-8375
▁3-	-8376
▁37	-8377
flyg	-8378
▁ISO	-8379
▁Möj	-8380
▁Wik	-8381
earch	-8382
vande	-8383
ändan	-8384
▁graf	-8385
▁skiv	-8386
▁svär	-8387
braham	-8388
▁Moder	-8389
▁legen	-8390
▁åsikt	-8391
ämtning	-8392
▁badrum	-8393
▁spelen	-8394
▁videon	-8395
▁Schweiz	-8396
▁Science	-8397
▁förutsäg	-8398
▁däribland	-8399
▁intellekt	-8400
▁högkvalita	-8401
▁universitetet	-8402
CH	-8403
ces	-8404
iro	-8405
▁Ze	-8406
cing	-8407
elle	-8408
fund	-8409
▁Ram	-8410
▁Tal	-8411
▁Tar	-8412
▁hyr	-8413
usion	-8414
▁herr	-8415
▁toal	-8416
analys	-8417
roppar	-8418
▁Ställ	-8419
▁kross	-8420
▁påmin	-8421
▁skala	-8422
▁sorts	-8423
▁teori	-8424
grunden	-8425
▁fördju	-8426
▁inbjud	-8427
▁förekom	-8428
▁förverk	-8429
▁såklart	-8430
▁parterna	-8431
▁Författare	-8432
▁officiellt	-8433
UD	-8434
cia	-8435
dam	-8436
lär	-8437
omi	-8438
ssp	-8439
▁CO	-8440
aget	-8441
batt	-8442
gien	-8443
gjor	-8444
ivet	-8445
oler	-8446
sbas	-8447
ters	-8448
▁Dat	-8449
▁Los	-8450
▁Bild	-8451
▁Ljus	-8452
▁dipl	-8453
▁dörr	-8454
▁föds	-8455
anslut	-8456
▁appen	-8457
▁målen	-8458
▁längst	-8459
geringen	-8460
▁avslöja	-8461
▁delarna	-8462
▁discipl	-8463
▁muskler	-8464
▁tjänare	-8465
▁överdri	-8466
▁kollegor	-8467
▁styrelse	-8468
▁Speciellt	-8469
▁förebygga	-8470
▁infektion	-8471
▁Resultatet	-8472
▁föreskrivs	-8473
▁trädgården	-8474
▁presenteras	-8475
▁förekommande	-8476
IP	-8477
ary	-8478
gås	-8479
▁55	-8480
aser	-8481
driv	-8482
▁Day	-8483
▁www	-8484
behör	-8485
elset	-8486
erska	-8487
sport	-8488
unger	-8489
▁Ande	-8490
▁Kung	-8491
▁Styr	-8492
▁tråk	-8493
elsens	-8494
järnan	-8495
▁smitt	-8496
▁trupp	-8497
▁övers	-8498
skottet	-8499
steknik	-8500
▁floden	-8501
▁formul	-8502
▁försäm	-8503
▁hittas	-8504
▁minnes	-8505
▁antibio	-8506
▁sexuell	-8507
▁stycket	-8508
▁försvann	-8509
▁populärt	-8510
▁riskerar	-8511
▁självför	-8512
▁yttrande	-8513
▁kraftfull	-8514
▁kärnvapen	-8515
▁slutändan	-8516
▁uppdatera	-8517
▁kemikalier	-8518
▁webbläsare	-8519
▁instruktioner	-8520
BS	-8521
RS	-8522
▁←	-8523
▁95	-8524
komp	-8525
slan	-8526
väst	-8527
öden	-8528
▁Bry	-8529
▁Ext	-8530
▁Pan	-8531
▁Rum	-8532
▁cyk	-8533
▁lam	-8534
agång	-8535
▁Open	-8536
▁ytan	-8537
berätt	-8538
▁cigar	-8539
▁feder	-8540
▁ignor	-8541
▁månen	-8542
▁penis	-8543
bolaget	-8544
isation	-8545
▁Irland	-8546
▁hormon	-8547
▁katter	-8548
▁välbef	-8549
jukdomar	-8550
räffande	-8551
▁kompens	-8552
▁avslöjar	-8553
▁påminner	-8554
▁regioner	-8555
▁turister	-8556
▁europeisk	-8557
▁kombinera	-8558
▁minoritet	-8559
▁uppmuntra	-8560
▁välkommen	-8561
AP	-8562
CO	-8563
åp	-8564
▁vd	-8565
okal	-8566
ätte	-8567
▁Ger	-8568
igger	-8569
nades	-8570
paket	-8571
▁Indu	-8572
▁Lyck	-8573
▁asyl	-8574
▁bibe	-8575
▁kniv	-8576
▁rakt	-8577
kanska	-8578
▁klipp	-8579
▁skjut	-8580
▁tyder	-8581
▁miljöm	-8582
▁vaccin	-8583
▁ökande	-8584
▁Antalet	-8585
▁Service	-8586
▁fantasi	-8587
▁judiska	-8588
▁träffat	-8589
▁vittnes	-8590
inationen	-8591
▁Johannes	-8592
▁konflikt	-8593
▁observer	-8594
▁utgifter	-8595
stillstånd	-8596
▁blodtryck	-8597
▁Afghanistan	-8598
▁Naturligtvis	-8599
▁tillgänglighet	-8600
19	-8601
TV	-8602
ah	-8603
vo	-8604
▁AI	-8605
▁Ön	-8606
mier	-8607
skom	-8608
▁Hos	-8609
ripet	-8610
▁Full	-8611
▁dras	-8612
▁gruv	-8613
▁grym	-8614
▁haha	-8615
▁sess	-8616
lation	-8617
▁Islam	-8618
▁Techn	-8619
▁passa	-8620
▁rykte	-8621
▁slump	-8622
▁släng	-8623
örjning	-8624
▁fyller	-8625
▁intill	-8626
▁lokalt	-8627
▁roller	-8628
▁uppnås	-8629
▁meddela	-8630
▁penning	-8631
▁Thailand	-8632
▁bestående	-8633
▁innefattar	-8634
▁Kontrollera	-8635
▁anläggningar	-8636
▁Internationella	-8637
Är	-8638
umer	-8639
webb	-8640
▁120	-8641
▁Bak	-8642
▁bom	-8643
▁syr	-8644
ilien	-8645
▁Jesu	-8646
▁bett	-8647
▁flag	-8648
▁kära	-8649
▁utse	-8650
timent	-8651
ängden	-8652
▁citat	-8653
▁insåg	-8654
▁navig	-8655
▁satsa	-8656
enheter	-8657
▁exakta	-8658
▁korrig	-8659
▁livets	-8660
▁hungrig	-8661
▁ovanför	-8662
skontroll	-8663
▁förening	-8664
▁minister	-8665
▁substans	-8666
▁troligen	-8667
▁verkligt	-8668
upplevelse	-8669
▁dataskydd	-8670
▁inkludera	-8671
▁tidningen	-8672
▁miljontals	-8673
▁skyldighet	-8674
▁rapporterar	-8675
/3	-8676
4-	-8677
EK	-8678
ben	-8679
ned	-8680
▁2:	-8681
elen	-8682
siva	-8683
tats	-8684
▁pul	-8685
▁öga	-8686
anser	-8687
flykt	-8688
▁Form	-8689
▁Hong	-8690
▁Prev	-8691
▁YouT	-8692
▁alli	-8693
▁fris	-8694
iserar	-8695
iseras	-8696
omosex	-8697
▁djupa	-8698
▁femin	-8699
▁gatan	-8700
givaren	-8701
▁Bolaget	-8702
▁College	-8703
▁fiender	-8704
aktivitet	-8705
▁perioder	-8706
▁placeras	-8707
▁Instagram	-8708
▁underbart	-8709
meddelanden	-8710
sprogrammet	-8711
▁premiärminister	-8712
ule	-8713
▁ES	-8714
ader	-8715
dare	-8716
igan	-8717
pade	-8718
unna	-8719
▁bos	-8720
▁iOS	-8721
▁kej	-8722
▁gamm	-8723
▁idén	-8724
▁ikon	-8725
▁övre	-8726
sskydd	-8727
▁avbry	-8728
▁snäll	-8729
▁tillt	-8730
▁Jorden	-8731
▁inrikt	-8732
▁splitt	-8733
▁årtion	-8734
säkerhet	-8735
▁Abraham	-8736
▁hindrar	-8737
▁rikedom	-8738
▁väntade	-8739
▁ansvaret	-8740
▁kalender	-8741
▁minskade	-8742
yndigheten	-8743
▁grönsaker	-8744
▁kategorier	-8745
▁studenterna	-8746
▁familjemedlem	-8747
▁ansträngningar	-8748
TC	-8749
jä	-8750
dras	-8751
edia	-8752
llad	-8753
sess	-8754
ydda	-8755
▁250	-8756
▁Ren	-8757
▁Tem	-8758
▁rök	-8759
skola	-8760
▁Bang	-8761
▁Fall	-8762
▁Förh	-8763
▁Lång	-8764
▁Njut	-8765
▁Pass	-8766
▁Plus	-8767
▁Vall	-8768
▁Mamma	-8769
▁forma	-8770
▁velat	-8771
dafrika	-8772
▁behåll	-8773
▁bekant	-8774
▁önskan	-8775
▁Herrens	-8776
▁Upptäck	-8777
▁biljett	-8778
▁ovanligt	-8779
▁exponering	-8780
af	-8781
bre	-8782
ous	-8783
fron	-8784
glöm	-8785
inkl	-8786
▁Sig	-8787
▁USB	-8788
▁com	-8789
▁Camp	-8790
▁Clin	-8791
▁utgå	-8792
▁ätit	-8793
edagog	-8794
sålder	-8795
yrning	-8796
östern	-8797
▁Malmö	-8798
▁charm	-8799
▁fiske	-8800
▁inkom	-8801
▁Market	-8802
▁deltog	-8803
▁fåglar	-8804
▁lägsta	-8805
▁upphov	-8806
ammation	-8807
▁komfort	-8808
▁sektorn	-8809
sperioden	-8810
▁Kontakta	-8811
▁föreslag	-8812
▁lyckliga	-8813
▁slutliga	-8814
▁arbetslös	-8815
▁avancerad	-8816
▁begreppet	-8817
▁biljetter	-8818
▁skådespel	-8819
▁strategiska	-8820
Att	-8821
iew	-8822
ips	-8823
▁7.	-8824
▁Kur	-8825
▁dam	-8826
aktiv	-8827
farna	-8828
ottag	-8829
rater	-8830
stått	-8831
▁Bras	-8832
▁Club	-8833
▁Skol	-8834
▁bind	-8835
▁jakt	-8836
▁tung	-8837
vision	-8838
▁Gamla	-8839
▁doser	-8840
▁katal	-8841
▁locka	-8842
▁läggs	-8843
▁varak	-8844
central	-8845
▁Familj	-8846
▁falska	-8847
▁realtid	-8848
▁flykting	-8849
▁trevligt	-8850
▁punkterna	-8851
▁biologiska	-8852
▁elektronisk	-8853
jk	-8854
ota	-8855
ual	-8856
▁5-	-8857
inär	-8858
ject	-8859
▁Fun	-8860
ången	-8861
▁hamn	-8862
▁väck	-8863
▁ögat	-8864
▁Grupp	-8865
▁spekt	-8866
▁sänka	-8867
ämpning	-8868
▁agerar	-8869
▁dödade	-8870
▁ryggen	-8871
▁tilläg	-8872
vägagång	-8873
▁YouTube	-8874
▁gammalt	-8875
▁metoden	-8876
▁partiet	-8877
▁uppnått	-8878
▁Samtliga	-8879
▁anställd	-8880
▁frågorna	-8881
▁kroppens	-8882
▁känsliga	-8883
▁tänkande	-8884
▁utformad	-8885
▁meddelade	-8886
▁konflikter	-8887
▁samarbetar	-8888
"?	-8889
-)	-8890
75	-8891
jon	-8892
jäv	-8893
mån	-8894
ebra	-8895
▁Mos	-8896
▁oav	-8897
bered	-8898
etnam	-8899
iskop	-8900
pport	-8901
▁Mary	-8902
▁work	-8903
▁hölls	-8904
▁modul	-8905
▁sjuka	-8906
▁vakna	-8907
▁dubbla	-8908
▁kallat	-8909
▁propor	-8910
▁skjuta	-8911
▁tabell	-8912
▁vaknar	-8913
▁slutför	-8914
▁tillgod	-8915
▁kalorier	-8916
▁kopplade	-8917
▁nordiska	-8918
▁register	-8919
▁soldater	-8920
▁sällskap	-8921
▁generellt	-8922
▁övertygad	-8923
▁elektriska	-8924
▁integrerad	-8925
▁entreprenör	-8926
▁föräldrarna	-8927
▁registrerade	-8928
%.	-8929
Un	-8930
▁«	-8931
erg	-8932
ero	-8933
sma	-8934
sre	-8935
▁38	-8936
▁Ec	-8937
bank	-8938
isco	-8939
made	-8940
rick	-8941
▁iak	-8942
▁ära	-8943
esten	-8944
varna	-8945
▁INTE	-8946
▁lögn	-8947
▁trag	-8948
edback	-8949
policy	-8950
▁Johan	-8951
▁fågel	-8952
▁skade	-8953
▁vilda	-8954
▁anonym	-8955
▁patent	-8956
▁rymden	-8957
▁räknar	-8958
▁scenen	-8959
▁tester	-8960
▁Digital	-8961
▁miljöer	-8962
▁nyckeln	-8963
▁utföras	-8964
▁bostäder	-8965
▁hanteras	-8966
▁landskap	-8967
▁skickade	-8968
▁styrelsen	-8969
estämmelser	-8970
▁inbegripet	-8971
förhållanden	-8972
▁betalningar	-8973
vägagångssätt	-8974
MA	-8975
ING	-8976
fre	-8977
grä	-8978
räk	-8979
▁Sö	-8980
▁up	-8981
emän	-8982
revs	-8983
stan	-8984
ulin	-8985
▁(1)	-8986
sindu	-8987
▁2002	-8988
▁Real	-8989
▁Tips	-8990
▁tysk	-8991
ckning	-8992
ftelse	-8993
partem	-8994
regler	-8995
▁inhem	-8996
▁läget	-8997
▁pojke	-8998
centrum	-8999
▁Jämför	-9000
▁dörrar	-9001
ningsmet	-9002
▁främjar	-9003
▁inomhus	-9004
▁långsam	-9005
▁årligen	-9006
▁återvin	-9007
forskning	-9008
sättnings	-9009
▁föräldra	-9010
▁influens	-9011
▁progress	-9012
▁önskemål	-9013
▁politiken	-9014
▁konsekvent	-9015
▁personalen	-9016
▁produceras	-9017
▁integration	-9018
65	-9019
90	-9020
gu	-9021
▁€	-9022
där	-9023
ius	-9024
oid	-9025
oms	-9026
▁EN	-9027
bror	-9028
play	-9029
räda	-9030
▁800	-9031
▁Blu	-9032
▁Sur	-9033
▁ent	-9034
▁Cast	-9035
▁Sätt	-9036
▁tyng	-9037
▁vice	-9038
stjärn	-9039
terats	-9040
▁Förra	-9041
▁Media	-9042
▁Times	-9043
▁grönt	-9044
▁major	-9045
▁favori	-9046
▁nämnda	-9047
▁utgöra	-9048
▁enskild	-9049
▁föreläs	-9050
▁klubben	-9051
▁orsakas	-9052
▁skratta	-9053
▁formulär	-9054
▁överhuvud	-9055
▁rapportera	-9056
▁publicerade	-9057
▁kontinuerligt	-9058
kär	-9059
öva	-9060
▁ID	-9061
beth	-9062
ingo	-9063
obby	-9064
olska	-9065
ttill	-9066
▁Dire	-9067
▁Hill	-9068
▁lung	-9069
▁park	-9070
▁prin	-9071
▁Analy	-9072
▁Fanta	-9073
▁Johns	-9074
▁Spela	-9075
▁kopia	-9076
alisera	-9077
▁Gillar	-9078
▁Servic	-9079
▁anteck	-9080
▁bollen	-9081
▁cirkul	-9082
▁kritik	-9083
▁männen	-9084
▁negativ	-9085
▁Vänligen	-9086
▁bolagets	-9087
▁annanstans	-9088
▁genomföras	-9089
▁publiceras	-9090
VD	-9091
ive	-9092
öje	-9093
▁("	-9094
▁gu	-9095
▁ky	-9096
olja	-9097
urar	-9098
usik	-9099
ydde	-9100
örde	-9101
acker	-9102
ekväm	-9103
gener	-9104
▁Helt	-9105
▁bytt	-9106
▁fart	-9107
▁lopp	-9108
▁skid	-9109
▁skit	-9110
▁yoga	-9111
amerik	-9112
spelet	-9113
▁2018.	-9114
▁Smart	-9115
▁still	-9116
▁toler	-9117
▁Liksom	-9118
▁bildar	-9119
▁förbud	-9120
▁närmar	-9121
▁tempel	-9122
effektiv	-9123
▁gymnasi	-9124
▁molekyl	-9125
▁välsign	-9126
▁Research	-9127
▁planeten	-9128
▁undervis	-9129
▁värdefulla	-9130
▁överlevnad	-9131
▁underhållning	-9132
▁välbefinnande	-9133
11	-9134
atu	-9135
fel	-9136
öra	-9137
▁um	-9138
sser	-9139
takt	-9140
varu	-9141
▁ECB	-9142
▁Häl	-9143
▁Kal	-9144
▁USD	-9145
edjan	-9146
stand	-9147
tiven	-9148
vände	-9149
▁kvad	-9150
▁kämp	-9151
▁skar	-9152
▁ägde	-9153
nivåer	-9154
priset	-9155
▁Musik	-9156
▁indik	-9157
▁talat	-9158
ubliken	-9159
uppgift	-9160
▁Palest	-9161
▁funnit	-9162
▁färgen	-9163
▁ledsen	-9164
▁munnen	-9165
astående	-9166
följande	-9167
▁efteråt	-9168
stationen	-9169
▁Regissör	-9170
▁beställa	-9171
▁funderar	-9172
▁städerna	-9173
utrustning	-9174
▁förluster	-9175
▁akademiska	-9176
▁erkännande	-9177
▁infektioner	-9178
▁förhållandet	-9179
▁konstruktion	-9180
▁huvudsakligen	-9181
2-	-9182
ane	-9183
asa	-9184
oto	-9185
▁Hy	-9186
▁IV	-9187
▁tw	-9188
ogni	-9189
oten	-9190
slin	-9191
vern	-9192
▁180	-9193
▁Jim	-9194
▁Pop	-9195
lines	-9196
vägar	-9197
▁Komp	-9198
▁baby	-9199
▁lukt	-9200
dition	-9201
fartyg	-9202
▁Compan	-9203
▁danska	-9204
▁delade	-9205
▁vägrar	-9206
likation	-9207
änningen	-9208
▁Framför	-9209
▁ensamma	-9210
▁styrkor	-9211
▁förälder	-9212
▁knappast	-9213
▁kvinnors	-9214
▁staterna	-9215
▁Forskning	-9216
▁experiment	-9217
,”	-9218
gg	-9219
hjäl	-9220
strå	-9221
utor	-9222
ynda	-9223
▁Hit	-9224
▁etn	-9225
klubb	-9226
meter	-9227
opera	-9228
skjut	-9229
▁Mont	-9230
▁foss	-9231
▁kors	-9232
▁leka	-9233
▁yrke	-9234
aktiva	-9235
fallet	-9236
ulette	-9237
▁Vegas	-9238
▁krets	-9239
▁lagra	-9240
▁reduc	-9241
▁Samman	-9242
▁myster	-9243
▁Ukraina	-9244
▁barnets	-9245
▁dubbelt	-9246
▁intryck	-9247
▁Previous	-9248
▁enklaste	-9249
▁flytande	-9250
▁framträd	-9251
▁hållbart	-9252
▁förresten	-9253
▁försvinna	-9254
▁enastående	-9255
▁förväntade	-9256
▁uppmuntrar	-9257
▁återvänder	-9258
▁inställningar	-9259
▁verkställande	-9260
▁konkurrenskraf	-9261
▁återförsäljare	-9262
cif	-9263
vas	-9264
▁(5	-9265
▁Cy	-9266
assa	-9267
sbes	-9268
smän	-9269
▁Jeh	-9270
▁Kim	-9271
▁Sun	-9272
▁bio	-9273
▁jur	-9274
▁kro	-9275
agram	-9276
given	-9277
limat	-9278
ywood	-9279
▁mörk	-9280
▁präg	-9281
cernen	-9282
kläder	-9283
▁2017.	-9284
▁korru	-9285
▁motiv	-9286
spolicy	-9287
studier	-9288
▁bergen	-9289
▁bränsl	-9290
▁flyger	-9291
▁intern	-9292
▁ställs	-9293
▁väntat	-9294
ferenser	-9295
▁brister	-9296
▁fundera	-9297
▁minskat	-9298
▁skulder	-9299
andlingen	-9300
▁dödsfall	-9301
▁intäkter	-9302
▁tekniskt	-9303
▁deltagarna	-9304
▁medvetenhet	-9305
▁tillhörande	-9306
dy	-9307
lö	-9308
ols	-9309
▁3:	-9310
▁Ly	-9311
▁Tv	-9312
▁Åt	-9313
nare	-9314
ppen	-9315
spla	-9316
urer	-9317
▁Fal	-9318
▁Log	-9319
▁bag	-9320
okrat	-9321
▁hörn	-9322
bundna	-9323
▁Grund	-9324
▁blind	-9325
förvalt	-9326
partiet	-9327
tagande	-9328
univers	-9329
▁Priset	-9330
▁konton	-9331
▁köpare	-9332
▁silver	-9333
institut	-9334
koppling	-9335
▁Angeles	-9336
▁Författ	-9337
▁advokat	-9338
▁homosex	-9339
▁interag	-9340
▁omdömen	-9341
▁skyddas	-9342
ventionen	-9343
▁Fortsätt	-9344
▁avsevärt	-9345
▁drabbade	-9346
▁förvånad	-9347
▁konstant	-9348
▁områdena	-9349
▁anpassade	-9350
▁förslaget	-9351
▁Manchester	-9352
▁finansiell	-9353
▁funktionsh	-9354
▁lägenheter	-9355
▁rådgivning	-9356
▁tillverkar	-9357
▁implementer	-9358
▁uppdatering	-9359
▁viktminskning	-9360
13	-9361
dis	-9362
▁1)	-9363
▁99	-9364
etto	-9365
heim	-9366
äste	-9367
▁Cap	-9368
▁hej	-9369
▁itu	-9370
adens	-9371
▁Blue	-9372
▁Chic	-9373
▁Fyra	-9374
▁agen	-9375
▁prim	-9376
terapi	-9377
undvik	-9378
▁inner	-9379
▁skämt	-9380
▁Årets	-9381
▁östra	-9382
osystem	-9383
▁Barnen	-9384
▁Undrar	-9385
▁domare	-9386
▁motiva	-9387
▁måndag	-9388
▁sektor	-9389
▁sjunga	-9390
▁stiger	-9391
▁vandra	-9392
▁Perfekt	-9393
▁alltmer	-9394
▁förfölj	-9395
▁inrikta	-9396
▁licensi	-9397
▁långvar	-9398
▁tränare	-9399
▁företräd	-9400
▁meningen	-9401
▁publiken	-9402
▁reagerar	-9403
▁återspeg	-9404
▁vägledning	-9405
▁förordningen	-9406
▁diskriminering	-9407
ye	-9408
byt	-9409
gre	-9410
hög	-9411
▁öd	-9412
abol	-9413
krig	-9414
mail	-9415
olda	-9416
▁Gal	-9417
▁Tit	-9418
lerna	-9419
onald	-9420
▁Mess	-9421
▁njur	-9422
▁rens	-9423
▁ränt	-9424
▁söta	-9425
asinot	-9426
certif	-9427
kommit	-9428
maskin	-9429
papper	-9430
▁2016.	-9431
▁angel	-9432
▁dyker	-9433
▁gitar	-9434
▁gråta	-9435
▁upplevt	-9436
företaget	-9437
▁Finlands	-9438
▁Personer	-9439
▁arabiska	-9440
▁grundare	-9441
▁praktisk	-9442
▁stannade	-9443
▁gränsöver	-9444
▁rådgivare	-9445
▁skrivbord	-9446
▁övergrepp	-9447
▁stabilitet	-9448
▁upphovsrätt	-9449
▁Mellanöstern	-9450
▁skådespelare	-9451
▁försäljningen	-9452
KA	-9453
Med	-9454
eto	-9455
rem	-9456
ödd	-9457
▁AD	-9458
▁Hö	-9459
▁Id	-9460
cast	-9461
ekon	-9462
llar	-9463
▁Kat	-9464
▁Typ	-9465
▁Web	-9466
▁fir	-9467
board	-9468
ensen	-9469
ftare	-9470
ötter	-9471
▁Film	-9472
▁Gold	-9473
▁akut	-9474
▁ingå	-9475
roppen	-9476
tagare	-9477
▁2014.	-9478
▁Snart	-9479
▁Store	-9480
▁fräls	-9481
▁kolon	-9482
▁kolum	-9483
▁löfte	-9484
▁snygg	-9485
delarna	-9486
▁annons	-9487
▁assist	-9488
▁enormt	-9489
▁märker	-9490
▁uppfin	-9491
▁väggen	-9492
▁Berätta	-9493
▁djupare	-9494
▁fullkom	-9495
▁skapades	-9496
▁planerade	-9497
▁välkomnar	-9498
▁behörighet	-9499
hu	-9500
tot	-9501
▁AP	-9502
▁AS	-9503
dubb	-9504
flix	-9505
fält	-9506
ifik	-9507
pten	-9508
▁Fel	-9509
▁Nob	-9510
▁aff	-9511
▁grå	-9512
▁mel	-9513
▁ägs	-9514
inneh	-9515
liens	-9516
skort	-9517
▁Kons	-9518
▁Pati	-9519
▁damm	-9520
ningss	-9521
staden	-9522
tisera	-9523
▁Snabb	-9524
▁anvis	-9525
▁arran	-9526
▁chatt	-9527
▁fader	-9528
▁fylld	-9529
▁klaga	-9530
▁nämna	-9531
▁pojkv	-9532
▁rolig	-9533
andinav	-9534
räddars	-9535
staller	-9536
udenter	-9537
▁Staden	-9538
▁djuren	-9539
▁fiende	-9540
▁museum	-9541
▁trycka	-9542
entation	-9543
▁tjänste	-9544
▁önskade	-9545
▁samhälls	-9546
▁utformade	-9547
▁konsumtion	-9548
▁alternativa	-9549
col	-9550
dap	-9551
ray	-9552
▁HP	-9553
osen	-9554
yser	-9555
åren	-9556
▁202	-9557
▁Tje	-9558
▁fli	-9559
arden	-9560
besök	-9561
istri	-9562
timer	-9563
ville	-9564
▁Life	-9565
▁intr	-9566
▁ocku	-9567
▁skam	-9568
▁skrä	-9569
▁syns	-9570
känsla	-9571
▁Föräl	-9572
▁Press	-9573
intress	-9574
▁Bättre	-9575
▁entusi	-9576
▁fattar	-9577
▁hänger	-9578
▁kursen	-9579
▁magnet	-9580
▁motion	-9581
▁rötter	-9582
▁trovär	-9583
ditioner	-9584
läggning	-9585
▁magiska	-9586
▁matcher	-9587
▁missför	-9588
▁nyhetsb	-9589
▁praktik	-9590
▁Tillbaka	-9591
▁portfölj	-9592
slösningar	-9593
▁forskarna	-9594
▁förbjudet	-9595
▁publicera	-9596
▁sjukhuset	-9597
▁skilsmäss	-9598
▁spenderar	-9599
▁tävlingen	-9600
▁upprepade	-9601
▁Stockholms	-9602
▁förbättras	-9603
▁resulterar	-9604
▁skrämmande	-9605
▁Helsingfors	-9606
▁sevärdheter	-9607
▁publicerades	-9608
organisationen	-9609
4]	-9610
?)	-9611
båt	-9612
hur	-9613
ima	-9614
▁Az	-9615
▁EG	-9616
▁Ps	-9617
grad	-9618
gren	-9619
redi	-9620
snät	-9621
värk	-9622
▁CBD	-9623
▁Cer	-9624
▁Kri	-9625
▁omt	-9626
▁pal	-9627
▁äro	-9628
start	-9629
▁2013.	-9630
▁Känns	-9631
▁Santa	-9632
▁Water	-9633
▁blods	-9634
▁expor	-9635
▁firar	-9636
▁kryss	-9637
▁rätte	-9638
▁talan	-9639
sperson	-9640
▁Madrid	-9641
▁Mexiko	-9642
▁förord	-9643
▁måltid	-9644
▁servic	-9645
▁synder	-9646
▁Övriga	-9647
▁Charles	-9648
▁Profess	-9649
▁drycker	-9650
▁födelse	-9651
▁kanaler	-9652
▁klasser	-9653
▁kompati	-9654
inklusive	-9655
▁arbetare	-9656
▁rörlighet	-9657
▁tillverkas	-9658
▁förbindelser	-9659
▁försäljnings	-9660
▁jämställdhet	-9661
▁vetenskaplig	-9662
jt	-9663
lå	-9664
ÖR	-9665
EEG	-9666
▁ox	-9667
llen	-9668
vand	-9669
änkt	-9670
▁Art	-9671
▁Hus	-9672
▁Inn	-9673
▁Top	-9674
▁mog	-9675
Detta	-9676
atorn	-9677
sbygg	-9678
▁Fick	-9679
▁Jour	-9680
▁Lind	-9681
▁Mass	-9682
▁Work	-9683
▁adop	-9684
▁lust	-9685
▁soli	-9686
▁städ	-9687
▁öron	-9688
▁Champ	-9689
▁White	-9690
▁dölja	-9691
▁hänga	-9692
▁inlär	-9693
▁repar	-9694
▁tjugo	-9695
▁Health	-9696
▁fängsl	-9697
▁kungen	-9698
▁källan	-9699
▁rekord	-9700
▁ringer	-9701
▁stilla	-9702
undation	-9703
▁present	-9704
▁utsatta	-9705
▁växthus	-9706
▁Världens	-9707
▁kulturer	-9708
▁riskerna	-9709
▁etablerade	-9710
▁majoriteten	-9711
▁rapportering	-9712
▁översättning	-9713
/4	-9714
SS	-9715
Man	-9716
ili	-9717
lie	-9718
ums	-9719
▁44	-9720
▁5,	-9721
▁sä	-9722
förl	-9723
oven	-9724
▁20-	-9725
▁Bir	-9726
▁Cla	-9727
▁Lim	-9728
▁Tel	-9729
▁beb	-9730
▁kak	-9731
▁tjä	-9732
ktigt	-9733
moder	-9734
rorna	-9735
▁(200	-9736
▁beak	-9737
▁paus	-9738
▁salu	-9739
▁surf	-9740
▁utbr	-9741
Varför	-9742
▁bebis	-9743
▁dödar	-9744
▁stjäl	-9745
▁taket	-9746
▁Victor	-9747
▁bevisa	-9748
▁byggde	-9749
▁heltid	-9750
▁oftare	-9751
smetoder	-9752
spartner	-9753
▁bokning	-9754
▁färdiga	-9755
▁gradvis	-9756
▁läkemed	-9757
▁oundvik	-9758
▁rörande	-9759
▁försikti	-9760
▁jättebra	-9761
▁Sydafrika	-9762
▁utmanande	-9763
▁diskussion	-9764
▁förberedel	-9765
▁identifier	-9766
▁litteratur	-9767
▁institution	-9768
▁kreativitet	-9769
▁motståndare	-9770
▁utbildningen	-9771
▁koncentration	-9772
▁återbetalning	-9773
▁överhuvudtaget	-9774
nd	-9775
”)	-9776
osa	-9777
umb	-9778
vag	-9779
xor	-9780
hamn	-9781
kron	-9782
plet	-9783
även	-9784
▁Inf	-9785
▁Jud	-9786
▁Sem	-9787
▁Sil	-9788
▁idi	-9789
▁sed	-9790
laget	-9791
▁Blir	-9792
▁Eric	-9793
▁Lika	-9794
▁Steg	-9795
▁mand	-9796
▁måla	-9797
lement	-9798
▁apost	-9799
▁blott	-9800
▁förne	-9801
▁rutin	-9802
▁smuts	-9803
▁uppåt	-9804
▁vågar	-9805
▁ärlig	-9806
▁överv	-9807
▁Centre	-9808
▁Skicka	-9809
▁Sovjet	-9810
▁beteck	-9811
▁långiv	-9812
▁pojkar	-9813
▁syften	-9814
personer	-9815
▁albumet	-9816
▁framgår	-9817
▁hemliga	-9818
lighetens	-9819
▁feedback	-9820
▁misslyck	-9821
staurangen	-9822
▁ledningen	-9823
▁mediciner	-9824
▁Österrike	-9825
▁Association	-9826
▁parlamentet	-9827
▁redovisning	-9828
▁lagstiftningen	-9829
uf	-9830
ves	-9831
års	-9832
lock	-9833
ydro	-9834
ämta	-9835
▁10.	-9836
▁Jac	-9837
▁Små	-9838
▁bur	-9839
▁tät	-9840
uropa	-9841
varon	-9842
▁Dags	-9843
▁dröj	-9844
▁skör	-9845
skador	-9846
ökning	-9847
▁jätte	-9848
▁klätt	-9849
▁golvet	-9850
▁jobbat	-9851
▁return	-9852
▁terape	-9853
▁verkan	-9854
sledande	-9855
▁Company	-9856
▁Netflix	-9857
▁kraften	-9858
▁primära	-9859
▁skyldiga	-9860
▁uppehåll	-9861
▁operation	-9862
▁skräddars	-9863
▁betalnings	-9864
▁patienterna	-9865
▁arbetstagare	-9866
AL	-9867
Ar	-9868
jö	-9869
ÄR	-9870
ety	-9871
ory	-9872
▁kg	-9873
iger	-9874
lita	-9875
sung	-9876
▁Ark	-9877
▁Eff	-9878
▁Ret	-9879
▁Sha	-9880
▁mid	-9881
inten	-9882
stäng	-9883
trakt	-9884
uther	-9885
ygien	-9886
äckar	-9887
▁Bush	-9888
▁Börj	-9889
▁eröv	-9890
▁kapi	-9891
▁Flori	-9892
▁Sluta	-9893
▁Video	-9894
▁dusch	-9895
▁figur	-9896
▁vände	-9897
▁värda	-9898
▁ängel	-9899
▁Allmän	-9900
▁Mannen	-9901
▁Public	-9902
▁ägaren	-9903
▁åldern	-9904
farenhet	-9905
rationen	-9906
▁bekväma	-9907
▁stänger	-9908
frikanska	-9909
▁amerikan	-9910
▁erkänner	-9911
▁kritiska	-9912
▁modellen	-9913
▁olagligt	-9914
▁Brasilien	-9915
▁avkastning	-9916
▁medelstora	-9917
▁tjänsterna	-9918
▁kontrolleras	-9919
▁möjligheterna	-9920
18	-9921
ax	-9922
dh	-9923
▁^	-9924
Her	-9925
itz	-9926
▁(”	-9927
▁--	-9928
▁39	-9929
▁ru	-9930
dire	-9931
infl	-9932
urgi	-9933
ustr	-9934
▁Arg	-9935
▁Cir	-9936
▁Cra	-9937
▁Cre	-9938
▁Him	-9939
▁Nic	-9940
▁Räd	-9941
▁fra	-9942
▁tel	-9943
ilegi	-9944
oider	-9945
vning	-9946
▁....	-9947
▁News	-9948
▁mail	-9949
▁serv	-9950
▁utro	-9951
dagens	-9952
gjorde	-9953
▁Boken	-9954
▁Kinas	-9955
▁bered	-9956
▁förse	-9957
▁missa	-9958
produkt	-9959
änkande	-9960
▁Donald	-9961
▁anmärk	-9962
▁kasino	-9963
▁kusten	-9964
▁skedde	-9965
▁tvätta	-9966
strategi	-9967
▁Johnson	-9968
▁bredare	-9969
▁filosof	-9970
▁kreativ	-9971
▁mörkret	-9972
▁säkrare	-9973
▁timmars	-9974
▁Tjänsten	-9975
▁intensiv	-9976
▁spänning	-9977
▁därigenom	-9978
▁framställ	-9979
▁orsakerna	-9980
▁tillbring	-9981
▁definieras	-9982
▁meditation	-9983
▁prestation	-9984
▁automatiser	-9985
▁kostnadsfri	-9986
DF	-9987
pad	-9988
uch	-9989
▁Gi	-9990
▁Oh	-9991
ball	-9992
fini	-9993
iket	-9994
mjuk	-9995
spår	-9996
trol	-9997
äkta	-9998
▁Dam	-9999
▁Sak	-10000
▁ort	-10001
.....	-10002
eliga	-10003
hydra	-10004
risen	-10005
ultet	-10006
versi	-10007
yssna	-10008
ässig	-10009
▁ankn	-10010
▁lade	-10011
▁påpe	-10012
▁späd	-10013
▁tret	-10014
beller	-10015
kterna	-10016
sterar	-10017
vården	-10018
▁Exper	-10019
▁Gener	-10020
▁Honom	-10021
▁Låter	-10022
▁Scott	-10023
▁explo	-10024
▁födda	-10025
▁förde	-10026
▁löser	-10027
▁tvung	-10028
▁tvärt	-10029
▁menade	-10030
▁nätter	-10031
▁västra	-10032
kvalitet	-10033
▁benägna	-10034
▁bloggar	-10035
▁musikal	-10036
bjudanden	-10037
sstrategi	-10038
▁Säkerhet	-10039
▁avslutat	-10040
▁hänvisar	-10041
▁porträtt	-10042
▁priserna	-10043
▁undviker	-10044
▁exklusiva	-10045
▁omedelbar	-10046
▁principen	-10047
▁uppenbara	-10048
▁utredning	-10049
▁betydelsen	-10050
▁anställning	-10051
▁berättelsen	-10052
▁beträffande	-10053
▁medlemmarna	-10054
▁potentiellt	-10055
▁utvecklades	-10056
▁fullständiga	-10057
▁konventionen	-10058
EF	-10059
fé	-10060
Min	-10061
ask	-10062
ffs	-10063
pli	-10064
ros	-10065
▁43	-10066
▁il	-10067
byrå	-10068
emon	-10069
läge	-10070
ripa	-10071
▁Ara	-10072
▁Kul	-10073
▁Råd	-10074
▁Prin	-10075
▁gram	-10076
▁kyck	-10077
▁laga	-10078
▁tenn	-10079
gerade	-10080
läkare	-10081
▁högra	-10082
▁väcka	-10083
▁leende	-10084
▁realis	-10085
▁skräck	-10086
▁sorter	-10087
▁vägled	-10088
▁kommand	-10089
▁närmast	-10090
▁arkitekt	-10091
▁avslutas	-10092
▁bildades	-10093
▁filosofi	-10094
▁glasögon	-10095
▁leksaker	-10096
▁planerat	-10097
▁sexuellt	-10098
▁attraktiv	-10099
▁kommunika	-10100
▁kontrollen	-10101
▁tidpunkten	-10102
▁dotterbolag	-10103
▁graviditeten	-10104
▁offentliggör	-10105
▁förbättringar	-10106
▁uppdateringar	-10107
CD	-10108
”?	-10109
ios	-10110
▁2)	-10111
▁SP	-10112
ovet	-10113
regl	-10114
öken	-10115
▁Stu	-10116
▁bus	-10117
▁ris	-10118
hjälp	-10119
ights	-10120
plikt	-10121
srätt	-10122
umret	-10123
▁Team	-10124
▁Xbox	-10125
▁golv	-10126
▁kaff	-10127
▁kram	-10128
▁mats	-10129
▁sank	-10130
bandet	-10131
jekten	-10132
skolor	-10133
▁antas	-10134
▁bitar	-10135
▁frist	-10136
▁hyper	-10137
▁index	-10138
▁kanal	-10139
▁ränta	-10140
uminium	-10141
▁bandet	-10142
▁bildas	-10143
▁hälsan	-10144
▁master	-10145
▁Chicago	-10146
▁butiken	-10147
▁pedagog	-10148
▁syndrom	-10149
▁övervak	-10150
olkningen	-10151
spartners	-10152
ssäkerhet	-10153
▁ambassad	-10154
▁möjligen	-10155
▁passerar	-10156
▁stränder	-10157
▁återstår	-10158
▁godkänner	-10159
▁virtuella	-10160
leverantörer	-10161
▁presidenten	-10162
▁flexibilitet	-10163
▁försiktighet	-10164
▁medlemsstaten	-10165
88	-10166
KT	-10167
PP	-10168
ih	-10169
ani	-10170
dik	-10171
ivt	-10172
kyl	-10173
▁85	-10174
▁CN	-10175
▁VM	-10176
klin	-10177
ther	-10178
▁Beg	-10179
▁Mul	-10180
▁Put	-10181
▁kok	-10182
▁sel	-10183
▁slä	-10184
dirig	-10185
iljön	-10186
odell	-10187
oment	-10188
▁1999	-10189
▁Lätt	-10190
▁dyrt	-10191
format	-10192
nämnda	-10193
▁Ordet	-10194
▁Saint	-10195
▁okänd	-10196
▁sväng	-10197
▁trapp	-10198
▁utöka	-10199
▁Aldrig	-10200
▁Alltid	-10201
▁Disney	-10202
▁Mindre	-10203
▁anfall	-10204
▁banken	-10205
▁fabrik	-10206
▁linjer	-10207
▁mäster	-10208
▁texter	-10209
▁utspel	-10210
▁webben	-10211
terierna	-10212
▁humanit	-10213
▁samlade	-10214
delningar	-10215
eleverant	-10216
estivalen	-10217
▁beslutat	-10218
▁korrekta	-10219
▁utgångsp	-10220
skostnader	-10221
▁favoriter	-10222
▁inträffade	-10223
▁organisera	-10224
▁störningar	-10225
▁antibiotika	-10226
▁förbehåller	-10227
▁recensioner	-10228
▁mobiltelefon	-10229
▁rapporterade	-10230
▁operativsystem	-10231
45	-10232
kol	-10233
mis	-10234
the	-10235
wer	-10236
▁TH	-10237
arch	-10238
bien	-10239
blin	-10240
okie	-10241
ural	-10242
▁700	-10243
▁ALL	-10244
▁Kör	-10245
▁Mem	-10246
▁Mid	-10247
▁web	-10248
issar	-10249
åtgär	-10250
▁Förm	-10251
▁bomb	-10252
▁dels	-10253
▁spek	-10254
▁2012.	-10255
▁Event	-10256
▁chock	-10257
▁kosta	-10258
ästerna	-10259
▁Totalt	-10260
▁prolet	-10261
▁satell	-10262
▁välgör	-10263
aktionen	-10264
ringarna	-10265
spolitik	-10266
▁Airport	-10267
▁Florida	-10268
▁Samsung	-10269
▁ankomst	-10270
▁kasinon	-10271
▁variera	-10272
▁European	-10273
▁expertis	-10274
▁upptagen	-10275
▁veckorna	-10276
kontroller	-10277
▁Ingenting	-10278
▁ledamöter	-10279
▁sällsynta	-10280
▁tredjedel	-10281
▁användbara	-10282
▁församling	-10283
▁fastigheter	-10284
▁huvudstaden	-10285
▁demokratiska	-10286
▁undersökningen	-10287
▁överenskommelse	-10288
16	-10289
NP	-10290
bäv	-10291
fas	-10292
ils	-10293
stu	-10294
▁OK	-10295
▁cm	-10296
fång	-10297
ords	-10298
strä	-10299
umma	-10300
▁Bon	-10301
▁anl	-10302
▁leg	-10303
anner	-10304
genom	-10305
lagen	-10306
skärm	-10307
▁Anti	-10308
▁iPad	-10309
▁insi	-10310
iserat	-10311
märken	-10312
strukt	-10313
▁Carol	-10314
▁Music	-10315
▁Nedan	-10316
▁Steve	-10317
▁eviga	-10318
▁fjärr	-10319
▁gåvor	-10320
▁halva	-10321
▁intet	-10322
▁oskyl	-10323
▁skära	-10324
rädande	-10325
sprinci	-10326
version	-10327
▁Håller	-10328
▁Kommun	-10329
▁brotts	-10330
▁såvida	-10331
fattning	-10332
▁pojkvän	-10333
▁Forskare	-10334
▁besviken	-10335
▁flexibla	-10336
▁institut	-10337
▁kandidat	-10338
▁måltider	-10339
▁migration	-10340
▁tillträde	-10341
▁återvände	-10342
▁granskning	-10343
▁varumärket	-10344
▁transaktion	-10345
IL	-10346
TP	-10347
fru	-10348
pot	-10349
äsa	-10350
▁4-	-10351
▁gn	-10352
ason	-10353
iske	-10354
nads	-10355
▁hat	-10356
▁mys	-10357
▁ost	-10358
ismer	-10359
juden	-10360
karna	-10361
sstäm	-10362
▁Bost	-10363
▁Haha	-10364
▁Time	-10365
▁eleg	-10366
▁fixa	-10367
▁hant	-10368
▁mynt	-10369
▁mäss	-10370
▁pian	-10371
▁pren	-10372
modell	-10373
oderna	-10374
stäver	-10375
▁Olika	-10376
▁canna	-10377
▁sände	-10378
▁såhär	-10379
▁trend	-10380
▁varan	-10381
▁vuxit	-10382
▁öarna	-10383
istiskt	-10384
ktligen	-10385
▁Norden	-10386
▁chefer	-10387
▁fältet	-10388
▁minnet	-10389
▁olycka	-10390
▁parall	-10391
▁vänlig	-10392
▁övning	-10393
▁barndom	-10394
▁energin	-10395
▁engelsk	-10396
▁härliga	-10397
▁klickar	-10398
▁kronisk	-10399
▁kvadrat	-10400
▁observa	-10401
▁paradis	-10402
▁nationer	-10403
▁reserver	-10404
▁spektrum	-10405
instrument	-10406
▁rengöring	-10407
▁sortiment	-10408
▁smartphone	-10409
▁tredjeland	-10410
▁Webbplatsen	-10411
▁vetenskapen	-10412
0,	-10413
3]	-10414
mä	-10415
oy	-10416
Har	-10417
hon	-10418
ial	-10419
obe	-10420
rus	-10421
▁6.	-10422
bana	-10423
färg	-10424
gern	-10425
king	-10426
ovas	-10427
park	-10428
sman	-10429
tier	-10430
▁1,5	-10431
▁Fer	-10432
▁Law	-10433
▁box	-10434
▁het	-10435
▁öst	-10436
field	-10437
▁Berg	-10438
▁Fran	-10439
▁Lake	-10440
▁Stöd	-10441
▁grav	-10442
▁kyss	-10443
▁mira	-10444
aterat	-10445
fordon	-10446
gjorda	-10447
planta	-10448
▁Fader	-10449
▁black	-10450
▁drott	-10451
▁humor	-10452
▁löper	-10453
▁valda	-10454
enterar	-10455
klassen	-10456
sländer	-10457
▁Namnet	-10458
▁Visste	-10459
▁besökt	-10460
▁bjuder	-10461
▁mörker	-10462
▁sjätte	-10463
dokument	-10464
enterade	-10465
röstning	-10466
▁beräkna	-10467
▁erfarna	-10468
▁husdjur	-10469
▁knappen	-10470
▁manliga	-10471
▁pappers	-10472
▁sidorna	-10473
▁skriven	-10474
lösningar	-10475
▁konversa	-10476
▁misstänk	-10477
▁transpar	-10478
▁utmärkta	-10479
▁begränsas	-10480
▁direktivet	-10481
▁omfattning	-10482
▁åstadkomma	-10483
/9	-10484
fan	-10485
gna	-10486
win	-10487
▁1-	-10488
▁41	-10489
▁8.	-10490
▁IF	-10491
börd	-10492
edig	-10493
obak	-10494
räkt	-10495
stry	-10496
▁Mak	-10497
▁McC	-10498
▁Rec	-10499
▁Sym	-10500
▁Syn	-10501
▁dru	-10502
▁naz	-10503
miljö	-10504
schef	-10505
▁Book	-10506
▁Djur	-10507
▁Ever	-10508
▁Food	-10509
▁Golf	-10510
▁bott	-10511
▁fasc	-10512
▁vild	-10513
tiklar	-10514
▁slåss	-10515
▁söner	-10516
alismen	-10517
gerliga	-10518
shistor	-10519
▁Senare	-10520
▁belast	-10521
▁föresp	-10522
▁primär	-10523
▁skapel	-10524
▁uppför	-10525
usentals	-10526
▁Bryssel	-10527
▁klinisk	-10528
▁kundens	-10529
▁monster	-10530
▁ställde	-10531
▁troligt	-10532
paciteten	-10533
▁försäkra	-10534
▁förtryck	-10535
▁miljövän	-10536
▁utmärkel	-10537
▁yttersta	-10538
▁Projektet	-10539
▁fortsatta	-10540
▁verkställ	-10541
▁fungerande	-10542
▁historiskt	-10543
▁sjuksköter	-10544
▁väsentliga	-10545
sinformation	-10546
▁individuellt	-10547
▁återhämtning	-10548
xa	-10549
bai	-10550
fon	-10551
pal	-10552
▁BM	-10553
apor	-10554
aria	-10555
cean	-10556
enny	-10557
icer	-10558
oney	-10559
otek	-10560
sken	-10561
▁ess	-10562
▁osv	-10563
▁pum	-10564
▁sil	-10565
▁ten	-10566
gorit	-10567
resor	-10568
ulära	-10569
▁Arch	-10570
▁Igår	-10571
▁Mill	-10572
▁Ring	-10573
▁blöd	-10574
▁kvan	-10575
aktiga	-10576
aritet	-10577
namnet	-10578
sfulla	-10579
sättas	-10580
▁Start	-10581
▁svärd	-10582
▁sända	-10583
ekonomi	-10584
entliga	-10585
▁Energi	-10586
▁löften	-10587
▁njuter	-10588
▁nybörj	-10589
▁proced	-10590
▁singel	-10591
▁åldrar	-10592
påverkan	-10593
skningar	-10594
▁Christi	-10595
▁beskatt	-10596
▁billigt	-10597
▁känslig	-10598
▁maximal	-10599
▁systema	-10600
fördraget	-10601
▁användbar	-10602
▁förutsatt	-10603
▁tilldelas	-10604
▁inblandade	-10605
▁israeliska	-10606
▁slutsatser	-10607
▁tillgången	-10608
▁långsiktigt	-10609
▁sysselsättning	-10610
▁självständighet	-10611
Kan	-10612
lav	-10613
▁46	-10614
▁FB	-10615
▁Fe	-10616
▁GD	-10617
▁Ox	-10618
▁Pi	-10619
▁Yo	-10620
▁mi	-10621
anns	-10622
ilja	-10623
tten	-10624
▁Vol	-10625
▁tör	-10626
arter	-10627
knapp	-10628
ommun	-10629
stein	-10630
▁Lund	-10631
▁blin	-10632
▁kaos	-10633
hället	-10634
porter	-10635
▁stats	-10636
▁sökte	-10637
▁vanor	-10638
▁Öppna	-10639
lagning	-10640
sarbete	-10641
underna	-10642
▁diktat	-10643
▁resurs	-10644
▁snygga	-10645
resurser	-10646
sterande	-10647
▁bistånd	-10648
▁godkänt	-10649
▁stjärna	-10650
▁uppgick	-10651
stillfäll	-10652
▁ansluter	-10653
▁böckerna	-10654
▁densamma	-10655
▁distrikt	-10656
▁framöver	-10657
▁förflytt	-10658
▁handlade	-10659
▁hemsidan	-10660
▁medvetet	-10661
▁upprätta	-10662
spolitiken	-10663
▁belysning	-10664
▁gudomliga	-10665
▁kampanjer	-10666
▁möjliggöra	-10667
▁regeringar	-10668
▁strukturer	-10669
▁förfarandet	-10670
▁kostnadseff	-10671
▁regeringens	-10672
▁konsekvenserna	-10673
Se	-10674
ji	-10675
Gud	-10676
ati	-10677
ese	-10678
näm	-10679
owe	-10680
sur	-10681
ups	-10682
ding	-10683
jörn	-10684
mält	-10685
oint	-10686
pool	-10687
släg	-10688
ttis	-10689
▁Mur	-10690
▁Que	-10691
▁mem	-10692
light	-10693
saken	-10694
▁Indi	-10695
▁Mari	-10696
▁Miss	-10697
▁Nytt	-10698
▁desp	-10699
▁tele	-10700
listan	-10701
orison	-10702
▁Skott	-10703
▁benen	-10704
▁byrån	-10705
▁Beslut	-10706
▁Portug	-10707
▁Spelet	-10708
▁blanda	-10709
▁filter	-10710
▁hjärts	-10711
▁härrör	-10712
▁insikt	-10713
▁anspråk	-10714
▁direkta	-10715
▁distans	-10716
▁livstid	-10717
▁musiker	-10718
▁partier	-10719
▁tilltal	-10720
▁utbetal	-10721
▁överläm	-10722
iseringen	-10723
▁Förenade	-10724
▁Industri	-10725
▁entusias	-10726
▁inhemska	-10727
▁meddelar	-10728
▁tolkning	-10729
▁vänligen	-10730
funktioner	-10731
▁Hollywood	-10732
▁händelsen	-10733
▁kommittén	-10734
▁kärnkraft	-10735
▁privilegi	-10736
▁vackraste	-10737
▁veterinär	-10738
▁framtidens	-10739
▁föreställa	-10740
▁kollektivt	-10741
▁lägenheten	-10742
▁medlemskap	-10743
▁medvetande	-10744
▁relationen	-10745
▁Nordamerika	-10746
▁upphandling	-10747
▁journalister	-10748
▁näringsämnen	-10749
▁presentation	-10750
▁förhandlingar	-10751
▁rekommendation	-10752
24	-10753
RI	-10754
Så	-10755
pag	-10756
oger	-10757
supp	-10758
ågar	-10759
▁Ill	-10760
▁She	-10761
▁bot	-10762
▁gli	-10763
▁not	-10764
havet	-10765
ittle	-10766
ridge	-10767
▁Marx	-10768
▁Wars	-10769
▁Wood	-10770
▁astr	-10771
▁loss	-10772
▁mätt	-10773
▁syst	-10774
▁trop	-10775
▁your	-10776
gering	-10777
talets	-10778
▁Fokus	-10779
▁River	-10780
▁flagg	-10781
▁ifall	-10782
▁krypt	-10783
▁stöds	-10784
▁venti	-10785
▁Fadern	-10786
▁kortet	-10787
▁reserv	-10788
▁rimlig	-10789
▁sinnen	-10790
▁själar	-10791
▁uppror	-10792
▁väntas	-10793
farandet	-10794
▁energik	-10795
▁mäklare	-10796
▁starten	-10797
▁Singapor	-10798
▁engagera	-10799
▁kallades	-10800
▁kontoret	-10801
▁kulturen	-10802
▁mjukvara	-10803
▁rörelsen	-10804
leverantör	-10805
▁fördraget	-10806
▁gränserna	-10807
▁utnyttjar	-10808
▁inriktning	-10809
▁invandrare	-10810
▁samhällets	-10811
▁överstiger	-10812
▁närliggande	-10813
▁identifierar	-10814
▁underliggande	-10815
Sc	-10816
sg	-10817
-10	-10818
Pro	-10819
auf	-10820
sky	-10821
▁PR	-10822
agan	-10823
ilia	-10824
kong	-10825
shus	-10826
umul	-10827
▁Bob	-10828
▁Dar	-10829
▁are	-10830
▁ran	-10831
gjort	-10832
pnade	-10833
▁Röda	-10834
▁Stan	-10835
▁besi	-10836
▁gren	-10837
▁info	-10838
▁möts	-10839
▁sper	-10840
▁vari	-10841
tament	-10842
▁Borde	-10843
▁Chris	-10844
▁Major	-10845
▁Satan	-10846
▁intui	-10847
▁körde	-10848
▁magen	-10849
▁sakna	-10850
▁sakta	-10851
▁stiga	-10852
▁visum	-10853
elserna	-10854
esterol	-10855
mässigt	-10856
shandel	-10857
▁klagar	-10858
▁loppet	-10859
▁ringde	-10860
departem	-10861
formulär	-10862
rörelsen	-10863
▁Express	-10864
▁komprom	-10865
▁olyckor	-10866
▁släppte	-10867
▁strider	-10868
▁tidning	-10869
▁tystnad	-10870
▁aktivera	-10871
▁tillåtna	-10872
▁begränsar	-10873
▁uppskatta	-10874
▁biblioteket	-10875
▁fastställas	-10876
▁huvudkontor	-10877
▁traditioner	-10878
35	-10879
ope	-10880
viv	-10881
wan	-10882
▁AL	-10883
▁Mö	-10884
▁SK	-10885
▁fo	-10886
▁we	-10887
halt	-10888
keln	-10889
oppa	-10890
sned	-10891
▁Avs	-10892
▁Pal	-10893
▁huv	-10894
▁opp	-10895
undar	-10896
▁Mose	-10897
▁Somm	-10898
▁free	-10899
▁nyår	-10900
▁rosa	-10901
▁tatu	-10902
cerats	-10903
materi	-10904
otiska	-10905
sklass	-10906
släget	-10907
splatt	-10908
timmar	-10909
uktion	-10910
untain	-10911
vester	-10912
▁Huset	-10913
▁Louis	-10914
▁armén	-10915
▁dosen	-10916
▁fåtal	-10917
▁logga	-10918
▁nämns	-10919
▁träng	-10920
mässiga	-10921
▁hästen	-10922
▁parken	-10923
▁provin	-10924
▁tunnel	-10925
modeller	-10926
perioden	-10927
▁Förbätt	-10928
▁Ungefär	-10929
▁extrema	-10930
▁mentala	-10931
▁motsats	-10932
▁nyfiken	-10933
▁radikal	-10934
▁rutiner	-10935
▁utsätts	-10936
▁bindande	-10937
▁godkända	-10938
▁koppling	-10939
▁separata	-10940
▁välkända	-10941
▁Alexander	-10942
▁President	-10943
▁Sanningen	-10944
▁livslängd	-10945
▁muslimska	-10946
▁uttrycker	-10947
▁strategisk	-10948
▁synpunkter	-10949
▁uppdaterad	-10950
▁Lyckligtvis	-10951
▁plattformar	-10952
▁principerna	-10953
▁tillverkade	-10954
▁industriella	-10955
▁förhoppningsvis	-10956
HO	-10957
cus	-10958
yta	-10959
▁cl	-10960
imal	-10961
sala	-10962
ston	-10963
öjda	-10964
▁Bru	-10965
▁Cas	-10966
▁Osc	-10967
▁VPN	-10968
▁est	-10969
▁gul	-10970
▁lys	-10971
lassi	-10972
stall	-10973
▁Link	-10974
▁Love	-10975
▁Rapp	-10976
▁likt	-10977
▁smäl	-10978
▁syre	-10979
▁1800-	-10980
▁1900-	-10981
▁Excel	-10982
▁Poker	-10983
▁galen	-10984
▁kogni	-10985
▁litar	-10986
▁märka	-10987
▁nyfik	-10988
▁pekar	-10989
▁simma	-10990
avtalet	-10991
ierande	-10992
osition	-10993
▁Kyrkan	-10994
▁Valley	-10995
▁allerg	-10996
▁duktig	-10997
▁glömde	-10998
▁läggas	-10999
▁nedlad	-11000
▁termer	-11001
▁aktuell	-11002
▁beaktas	-11003
▁gatorna	-11004
▁handels	-11005
▁läkaren	-11006
▁sammant	-11007
▁teorier	-11008
▁torsdag	-11009
▁tvungna	-11010
konferens	-11011
▁artister	-11012
▁Nordkorea	-11013
▁ekosystem	-11014
▁snabbaste	-11015
▁bakgrunden	-11016
▁långsiktig	-11017
▁omsättning	-11018
▁utvecklare	-11019
▁Universitet	-11020
▁effektivare	-11021
▁ovanstående	-11022
▁palestinska	-11023
▁produktions	-11024
▁registrerar	-11025
▁ansträngning	-11026
")	-11027
Re	-11028
dr	-11029
hot	-11030
ily	-11031
une	-11032
▁AC	-11033
▁Lö	-11034
▁MP	-11035
▁Wa	-11036
▁pi	-11037
shan	-11038
skåd	-11039
view	-11040
yder	-11041
änka	-11042
▁Act	-11043
▁Hör	-11044
▁Jak	-11045
▁Kub	-11046
▁Lar	-11047
▁Tag	-11048
▁ked	-11049
▁tox	-11050
etisk	-11051
riper	-11052
turer	-11053
ällan	-11054
▁Best	-11055
▁Fire	-11056
▁Kong	-11057
▁puss	-11058
▁revi	-11059
▁taxi	-11060
▁tomt	-11061
▁vänd	-11062
▁älsk	-11063
flödet	-11064
stalla	-11065
ändska	-11066
▁Tiden	-11067
▁antik	-11068
▁byter	-11069
▁båten	-11070
▁dansa	-11071
▁lugna	-11072
tilitet	-11073
▁kännas	-11074
▁ljudet	-11075
▁släppt	-11076
▁strikt	-11077
▁tisdag	-11078
▁uppger	-11079
▁visdom	-11080
▁Vietnam	-11081
▁beläget	-11082
▁kontant	-11083
▁röstade	-11084
▁skapats	-11085
▁styrels	-11086
▁ytterst	-11087
▁översyn	-11088
▁fönstret	-11089
▁förmågor	-11090
▁hittades	-11091
▁indirekt	-11092
▁juridisk	-11093
▁religiös	-11094
▁signifik	-11095
▁batterier	-11096
▁historier	-11097
▁spridning	-11098
▁värdefull	-11099
▁Foundation	-11100
▁Regeringen	-11101
▁amerikaner	-11102
▁konvention	-11103
▁respektera	-11104
▁stjärnorna	-11105
▁Amerikanska	-11106
▁definitionen	-11107
▁uppmärksamma	-11108
**	-11109
bek	-11110
eds	-11111
fal	-11112
mad	-11113
▁6,	-11114
▁Is	-11115
▁Up	-11116
▁ed	-11117
eler	-11118
ense	-11119
fton	-11120
ljud	-11121
nens	-11122
pröv	-11123
stam	-11124
▁189	-11125
▁Ari	-11126
▁Cru	-11127
▁Gem	-11128
▁Jos	-11129
▁Lös	-11130
▁Squ	-11131
▁klä	-11132
▁myt	-11133
▁sma	-11134
slöst	-11135
valet	-11136
östra	-11137
▁lyft	-11138
▁mill	-11139
▁skru	-11140
▁stro	-11141
likhet	-11142
medvet	-11143
väldig	-11144
▁Anton	-11145
▁Brand	-11146
▁Space	-11147
▁storm	-11148
▁troll	-11149
försvar	-11150
såldern	-11151
▁Gratis	-11152
▁Innova	-11153
▁Region	-11154
▁Rekomm	-11155
▁avrätt	-11156
▁finska	-11157
▁förvån	-11158
▁lockar	-11159
▁onsdag	-11160
▁spring	-11161
▁åtanke	-11162
hållning	-11163
▁affären	-11164
▁bonusar	-11165
▁förhopp	-11166
▁trettio	-11167
▁utbilda	-11168
▁bidragit	-11169
▁spädbarn	-11170
▁vinnande	-11171
▁översväm	-11172
▁aluminium	-11173
▁felaktigt	-11174
▁uppgiften	-11175
▁utrustade	-11176
konditioner	-11177
▁användbart	-11178
▁definition	-11179
▁frivilliga	-11180
▁effektiviteten	-11181
bur	-11182
oso	-11183
▁EM	-11184
arth	-11185
sbel	-11186
ship	-11187
sjön	-11188
ylor	-11189
▁365	-11190
▁900	-11191
▁Ash	-11192
▁Cup	-11193
▁Kap	-11194
▁lög	-11195
▁spr	-11196
▁vul	-11197
▁äpp	-11198
lagda	-11199
ratör	-11200
redit	-11201
sförs	-11202
▁Free	-11203
▁Mall	-11204
▁Mars	-11205
▁armé	-11206
▁stry	-11207
▁vana	-11208
arater	-11209
kampan	-11210
outube	-11211
rester	-11212
▁Engel	-11213
▁Köpen	-11214
▁armar	-11215
▁frakt	-11216
▁hamna	-11217
▁märkt	-11218
splanen	-11219
▁Anders	-11220
▁Handel	-11221
▁Server	-11222
▁befint	-11223
▁extern	-11224
▁gifter	-11225
▁konung	-11226
▁krävde	-11227
▁manife	-11228
▁tränar	-11229
▁väggar	-11230
brytande	-11231
▁Koranen	-11232
▁ackredi	-11233
▁belägen	-11234
▁drömmen	-11235
▁grannar	-11236
▁helvete	-11237
▁statens	-11238
▁strävan	-11239
▁drabbats	-11240
▁efterlev	-11241
▁federala	-11242
▁logistik	-11243
▁motverka	-11244
▁obegräns	-11245
▁övningar	-11246
▁Vetenskap	-11247
▁avdelning	-11248
▁experimen	-11249
▁fungerade	-11250
▁terrorism	-11251
▁åtaganden	-11252
▁atmosfären	-11253
▁slutsatsen	-11254
kommissionen	-11255
verksamheten	-11256
▁Författaren	-11257
▁arrangemang	-11258
▁fastställts	-11259
▁genomfördes	-11260
▁landsbygden	-11261
▁underlättar	-11262
▁diskussioner	-11263
▁uttryckligen	-11264
/0	-11265
17	-11266
LC	-11267
SK	-11268
.00	-11269
mes	-11270
xit	-11271
▁Ah	-11272
▁Ci	-11273
cium	-11274
hera	-11275
▁Bos	-11276
▁DVD	-11277
▁Sel	-11278
kalla	-11279
lägga	-11280
▁Game	-11281
▁Gran	-11282
▁Läng	-11283
▁medi	-11284
▁plas	-11285
▁påst	-11286
direkt	-11287
städer	-11288
▁Jones	-11289
▁check	-11290
▁liter	-11291
▁torka	-11292
atorisk	-11293
borgare	-11294
ffekten	-11295
sterdam	-11296
unionen	-11297
vitamin	-11298
▁Ekonom	-11299
▁Föränd	-11300
▁förfog	-11301
▁linjen	-11302
▁missat	-11303
▁riktar	-11304
▁samråd	-11305
▁skadad	-11306
▁störst	-11307
▁dödades	-11308
▁dödliga	-11309
▁emellan	-11310
▁handeln	-11311
▁härligt	-11312
▁kritisk	-11313
▁läsning	-11314
▁speglar	-11315
▁stärker	-11316
▁synliga	-11317
▁Services	-11318
▁centralt	-11319
▁fakultet	-11320
▁förmåner	-11321
▁kolhydra	-11322
▁överklag	-11323
▁lojalitet	-11324
▁resenärer	-11325
▁tillbehör	-11326
▁årtionden	-11327
▁Resultaten	-11328
▁definierar	-11329
▁detaljerad	-11330
▁engagerade	-11331
▁läkemedlet	-11332
▁utmaningen	-11333
förordningen	-11334
▁förutsätter	-11335
▁kommersiell	-11336
▁regelbunden	-11337
▁uppvärmning	-11338
▁representant	-11339
▁eftermiddagen	-11340
DE	-11341
▁£	-11342
alj	-11343
arv	-11344
blå	-11345
▁AR	-11346
agra	-11347
bilj	-11348
ityd	-11349
ötta	-11350
▁188	-11351
▁Bul	-11352
▁Lee	-11353
▁Len	-11354
▁May	-11355
▁Win	-11356
▁lat	-11357
▁nan	-11358
▁tyg	-11359
hälsa	-11360
▁Back	-11361
▁Dead	-11362
▁Norm	-11363
▁föda	-11364
▁löne	-11365
▁nark	-11366
▁spor	-11367
armhär	-11368
samtal	-11369
skapen	-11370
visade	-11371
ödande	-11372
öjning	-11373
▁2020.	-11374
▁Brown	-11375
▁Enter	-11376
▁japan	-11377
▁reson	-11378
▁reste	-11379
▁torra	-11380
storlek	-11381
ualitet	-11382
▁farlig	-11383
▁katten	-11384
▁krisen	-11385
▁lindra	-11386
▁talang	-11387
▁teorin	-11388
▁volont	-11389
▁hårdare	-11390
▁insulin	-11391
▁klassen	-11392
▁mästare	-11393
▁varenda	-11394
▁Hotellet	-11395
▁Standard	-11396
▁attacker	-11397
▁behåller	-11398
▁digitalt	-11399
▁flexibel	-11400
▁minimera	-11401
▁tydligen	-11402
ostnaderna	-11403
▁bedrägeri	-11404
▁bokstäver	-11405
▁gärningar	-11406
▁integrera	-11407
▁samverkan	-11408
▁Vanligtvis	-11409
▁anpassning	-11410
▁blodsocker	-11411
▁rekommenderade	-11412
14	-11413
UR	-11414
ms	-11415
mod	-11416
oom	-11417
oph	-11418
ple	-11419
sem	-11420
▁00	-11421
▁>>	-11422
▁Ak	-11423
▁Ok	-11424
ania	-11425
höll	-11426
itor	-11427
situ	-11428
stil	-11429
vade	-11430
▁Lux	-11431
▁dop	-11432
▁mal	-11433
▁piz	-11434
regel	-11435
▁Bond	-11436
▁Bäst	-11437
▁Mosk	-11438
▁bron	-11439
▁coll	-11440
▁eder	-11441
▁entr	-11442
▁from	-11443
▁kejs	-11444
▁löst	-11445
dragen	-11446
myndig	-11447
▁final	-11448
▁juris	-11449
▁kabel	-11450
▁packa	-11451
▁tales	-11452
människ	-11453
skultur	-11454
terings	-11455
▁Därmed	-11456
▁Kunden	-11457
▁flaska	-11458
▁kyrkor	-11459
▁skadar	-11460
▁stödet	-11461
▁vinden	-11462
▁änglar	-11463
▁ärligt	-11464
▁Belgien	-11465
▁Project	-11466
▁barnens	-11467
▁chanser	-11468
▁jordbäv	-11469
▁löpande	-11470
▁tvärtom	-11471
▁vaknade	-11472
stiftning	-11473
▁Innehåll	-11474
▁Statisti	-11475
▁demonstr	-11476
▁designer	-11477
▁kompisar	-11478
ekreterare	-11479
▁matematik	-11480
▁producent	-11481
▁anläggning	-11482
▁elektronik	-11483
▁kandidater	-11484
▁rättfärdig	-11485
▁arbetskraft	-11486
▁forskningen	-11487
▁inflammation	-11488
▁arbetsuppgifter	-11489
.’	-11490
DR	-11491
dd	-11492
zi	-11493
ful	-11494
ute	-11495
yrk	-11496
▁=)	-11497
▁Ep	-11498
agon	-11499
cket	-11500
enez	-11501
hall	-11502
nesi	-11503
skal	-11504
▁Fas	-11505
▁Fir	-11506
▁Sus	-11507
▁emo	-11508
▁let	-11509
▁oön	-11510
Press	-11511
unnen	-11512
▁Geor	-11513
▁Hjäl	-11514
▁bröt	-11515
▁döma	-11516
▁hörs	-11517
▁lott	-11518
▁with	-11519
▁åtal	-11520
▁Flick	-11521
▁Human	-11522
▁Steph	-11523
▁beund	-11524
▁blick	-11525
▁excep	-11526
▁mötte	-11527
▁tröst	-11528
▁tårar	-11529
▁väger	-11530
aktiver	-11531
okratin	-11532
osteron	-11533
sledare	-11534
▁Lyssna	-11535
▁biskop	-11536
▁bränna	-11537
▁faktur	-11538
▁poster	-11539
▁slutat	-11540
▁horison	-11541
▁inbörde	-11542
▁judarna	-11543
▁lagligt	-11544
▁lokaler	-11545
▁slottet	-11546
▁solidar	-11547
▁trycket	-11548
▁upphöra	-11549
▁ändrade	-11550
▁anländer	-11551
▁föregång	-11552
▁handlare	-11553
▁helvetet	-11554
▁kanadens	-11555
▁palestin	-11556
▁redigera	-11557
▁regleras	-11558
sindustrin	-11559
ttillskott	-11560
▁Amsterdam	-11561
▁beteenden	-11562
▁dimension	-11563
▁inkomster	-11564
▁reglering	-11565
▁rättighet	-11566
▁tillämpar	-11567
▁Skillnaden	-11568
▁insättning	-11569
▁företrädare	-11570
▁upplevelsen	-11571
▁självständigt	-11572
▁Förhoppningsvis	-11573
:5	-11574
HL	-11575
PC	-11576
sw	-11577
cir	-11578
eth	-11579
hav	-11580
pat	-11581
rer	-11582
▁Fi	-11583
ally	-11584
ards	-11585
etik	-11586
makt	-11587
▁50%	-11588
▁Ban	-11589
▁Cal	-11590
▁Kir	-11591
▁Kra	-11592
▁Pic	-11593
▁SEO	-11594
▁asi	-11595
▁flu	-11596
▁gum	-11597
▁utk	-11598
avtal	-11599
exper	-11600
flöde	-11601
helst	-11602
inger	-11603
träff	-11604
▁Auto	-11605
▁lock	-11606
▁osyn	-11607
annoli	-11608
ismens	-11609
▁Skall	-11610
▁allas	-11611
▁anhör	-11612
▁byggd	-11613
▁fysik	-11614
▁pilot	-11615
▁utgår	-11616
▁årlig	-11617
▁etiska	-11618
▁fransk	-11619
▁hjälte	-11620
▁högtal	-11621
▁kompet	-11622
▁påstår	-11623
▁rabatt	-11624
▁värmen	-11625
administ	-11626
imension	-11627
ysningar	-11628
▁Villkor	-11629
▁angrepp	-11630
▁diploma	-11631
▁drömmer	-11632
▁miljard	-11633
▁punkten	-11634
▁station	-11635
▁varning	-11636
▁vittnen	-11637
hastighet	-11638
visningar	-11639
▁exemplar	-11640
▁förstått	-11641
▁klassisk	-11642
▁klimatet	-11643
▁webbsida	-11644
sprocesser	-11645
▁Uppgifter	-11646
▁branscher	-11647
▁disciplin	-11648
▁flygbolag	-11649
▁förändrar	-11650
▁Technology	-11651
▁invandring	-11652
▁undersöker	-11653
▁väsentligt	-11654
▁Kommissionens	-11655
22	-11656
asy	-11657
▁64	-11658
▁AM	-11659
▁Ev	-11660
▁qu	-11661
bers	-11662
kins	-11663
lans	-11664
weet	-11665
yror	-11666
▁How	-11667
▁LED	-11668
▁Tes	-11669
antin	-11670
desig	-11671
innes	-11672
nivån	-11673
okala	-11674
rädet	-11675
satte	-11676
stock	-11677
söket	-11678
äsong	-11679
▁Call	-11680
▁Cour	-11681
▁Leon	-11682
▁Prag	-11683
▁Tele	-11684
▁blad	-11685
▁fund	-11686
▁lant	-11687
▁mage	-11688
▁nyss	-11689
▁plån	-11690
banken	-11691
kultur	-11692
timata	-11693
▁Dagen	-11694
▁avstå	-11695
▁fiber	-11696
▁foder	-11697
▁halvt	-11698
▁lösas	-11699
▁rejäl	-11700
▁simul	-11701
▁svaga	-11702
▁synes	-11703
▁uttag	-11704
▁Dating	-11705
▁Resort	-11706
▁likvär	-11707
▁spekta	-11708
▁trygga	-11709
faktorer	-11710
liknande	-11711
▁anmälan	-11712
▁enskilt	-11713
▁mission	-11714
▁reagera	-11715
▁trender	-11716
▁förvärva	-11717
▁generera	-11718
▁konserva	-11719
▁likadant	-11720
▁rättvist	-11721
▁Singapore	-11722
▁lektioner	-11723
▁omgivande	-11724
▁operativa	-11725
▁platserna	-11726
▁recension	-11727
▁antagligen	-11728
▁kompletter	-11729
▁konstnärer	-11730
▁uteslutande	-11731
▁telefonnummer	-11732
''	-11733
cl	-11734
ain	-11735
hai	-11736
igg	-11737
jöt	-11738
sty	-11739
▁%.	-11740
▁4:	-11741
▁66	-11742
▁8,	-11743
▁DU	-11744
▁It	-11745
▁Ku	-11746
▁SM	-11747
agda	-11748
cens	-11749
insp	-11750
matt	-11751
side	-11752
▁2,5	-11753
▁Lan	-11754
▁Pek	-11755
▁enz	-11756
▁rem	-11757
bedöm	-11758
rätta	-11759
serie	-11760
▁Educ	-11761
▁Erik	-11762
▁GDPR	-11763
▁Jean	-11764
▁gavs	-11765
▁hekt	-11766
▁kull	-11767
filmer	-11768
ologer	-11769
ytning	-11770
▁2008.	-11771
▁Chrom	-11772
▁Cloud	-11773
▁Henry	-11774
▁Linux	-11775
▁Miljö	-11776
▁aktör	-11777
▁mörkt	-11778
▁präst	-11779
▁runda	-11780
▁suver	-11781
föroren	-11782
handeln	-11783
kapital	-11784
sektorn	-11785
sföring	-11786
▁Argent	-11787
▁County	-11788
▁Snälla	-11789
▁förtro	-11790
▁grafik	-11791
▁normer	-11792
▁norska	-11793
▁tackar	-11794
▁terapi	-11795
▁videor	-11796
utomater	-11797
▁Använda	-11798
▁beredda	-11799
▁förloss	-11800
▁förlåta	-11801
▁räddade	-11802
▁skrivet	-11803
▁vägrade	-11804
ogenheter	-11805
▁Administ	-11806
▁ersätter	-11807
▁konkreta	-11808
▁signaler	-11809
▁symboler	-11810
▁överförs	-11811
anslutning	-11812
bildningen	-11813
▁elektrisk	-11814
▁eventuell	-11815
▁historisk	-11816
▁moraliska	-11817
▁förbättrad	-11818
▁tillämplig	-11819
▁uppdateras	-11820
▁överväldig	-11821
▁Anledningen	-11822
▁ansökningar	-11823
▁eftermiddag	-11824
▁respekterar	-11825
▁utställning	-11826
▁funktionsned	-11827
1-	-11828
NS	-11829
cs	-11830
▁@	-11831
-19	-11832
bri	-11833
ela	-11834
hen	-11835
igu	-11836
okt	-11837
▁CE	-11838
eled	-11839
fici	-11840
flas	-11841
idan	-11842
smas	-11843
vitt	-11844
vtal	-11845
▁Est	-11846
▁Gol	-11847
▁Moh	-11848
▁Ten	-11849
▁che	-11850
▁mix	-11851
attle	-11852
drade	-11853
fiden	-11854
habil	-11855
musik	-11856
ormor	-11857
sstat	-11858
trera	-11859
useet	-11860
värld	-11861
▁Mike	-11862
▁Wild	-11863
▁bens	-11864
▁egyp	-11865
▁heta	-11866
▁poly	-11867
planen	-11868
▁Galax	-11869
▁Karta	-11870
▁Lämna	-11871
▁Premi	-11872
▁Putin	-11873
▁banan	-11874
▁divis	-11875
▁galax	-11876
▁nådde	-11877
▁styrs	-11878
▁ultra	-11879
skrider	-11880
▁Joseph	-11881
▁Spring	-11882
▁hämtar	-11883
▁kosmet	-11884
▁America	-11885
▁Uppsala	-11886
▁arbeten	-11887
▁servrar	-11888
▁varorna	-11889
▁belöning	-11890
▁beviljas	-11891
▁inbyggda	-11892
▁kommuner	-11893
▁Plötsligt	-11894
▁definiera	-11895
▁förvaring	-11896
▁huvudvärk	-11897
▁förhindrar	-11898
▁försvunnit	-11899
▁incitament	-11900
▁inteckning	-11901
▁samordning	-11902
▁tredjepart	-11903
▁hemligheter	-11904
▁meddelandet	-11905
▁århundraden	-11906
▁fascinerande	-11907
▁konkurrenter	-11908
▁tillverkaren	-11909
▁överraskning	-11910
▁medborgarskap	-11911
▁funktionalitet	-11912
▁tillsynsmyndig	-11913
LA	-11914
TI	-11915
],	-11916
esi	-11917
▁FA	-11918
glas	-11919
iser	-11920
ison	-11921
kläd	-11922
tage	-11923
urch	-11924
▁brå	-11925
▁brö	-11926
▁fer	-11927
gerna	-11928
house	-11929
inari	-11930
urity	-11931
▁1998	-11932
▁Topp	-11933
▁nöje	-11934
▁proj	-11935
▁skal	-11936
▁utru	-11937
hotell	-11938
▁2010.	-11939
▁2011.	-11940
▁Affär	-11941
▁Aktiv	-11942
▁Simon	-11943
▁arkiv	-11944
▁breda	-11945
▁coach	-11946
▁filen	-11947
▁försk	-11948
▁gilla	-11949
▁hotar	-11950
▁refer	-11951
▁tappa	-11952
▁tobak	-11953
▁trott	-11954
▁tvill	-11955
▁tvång	-11956
▁våldt	-11957
▁ämnes	-11958
ametrar	-11959
itiativ	-11960
ästaren	-11961
▁Edward	-11962
▁Justin	-11963
▁Profet	-11964
▁absorb	-11965
▁campus	-11966
▁femton	-11967
▁hälsov	-11968
▁museet	-11969
▁mångsi	-11970
▁notera	-11971
▁runtom	-11972
▁stipen	-11973
▁synlig	-11974
verkning	-11975
▁autonom	-11976
▁sprider	-11977
▁välfärd	-11978
▁överläg	-11979
kostnader	-11980
▁Beroende	-11981
▁Ursprung	-11982
▁absoluta	-11983
▁flickvän	-11984
▁kommitté	-11985
▁motsatta	-11986
▁ultimata	-11987
▁vandring	-11988
▁våningen	-11989
▁eliminera	-11990
amerikanska	-11991
▁föreningar	-11992
▁försiktigt	-11993
▁lanserades	-11994
▁nationellt	-11995
▁personerna	-11996
▁religioner	-11997
▁sammanlagt	-11998
▁uppgradera	-11999
▁berättigade	-12000
▁förändringen	-12001
▁presenterade	-12002
▁restaurangen	-12003
▁överensstämmer	-12004
▁pressmeddelande	-12005
4).	-12006
iki	-12007
opa	-12008
▁59	-12009
▁<3	-12010
▁Nå	-12011
ägge	-12012
▁Ker	-12013
▁MBA	-12014
▁Pas	-12015
▁Sub	-12016
▁knä	-12017
▁sik	-12018
ccess	-12019
▁Akti	-12020
▁Före	-12021
▁Jess	-12022
▁Liby	-12023
▁Saab	-12024
▁arke	-12025
▁körs	-12026
▁läsk	-12027
▁pred	-12028
▁prof	-12029
ardröm	-12030
havare	-12031
strans	-12032
▁Costa	-12033
▁Eliza	-12034
▁bakåt	-12035
▁dedik	-12036
▁påven	-12037
▁sålde	-12038
▁tvist	-12039
▁varar	-12040
▁viner	-12041
▁växel	-12042
▁Defini	-12043
▁Jordan	-12044
▁antogs	-12045
▁begått	-12046
▁berget	-12047
▁frustr	-12048
▁mental	-12049
▁okända	-12050
▁scenar	-12051
▁själen	-12052
▁syskon	-12053
▁träder	-12054
▁uppdel	-12055
▁utfärd	-12056
▁utfört	-12057
▁vidtas	-12058
▁Önskar	-12059
▁ålders	-12060
▁Zeeland	-12061
▁behoven	-12062
▁erhålla	-12063
▁hävdade	-12064
▁justera	-12065
▁rimliga	-12066
▁tiderna	-12067
▁typiskt	-12068
▁ändrats	-12069
▁Undersök	-12070
▁godkänts	-12071
▁maskinen	-12072
▁psykiska	-12073
▁regisser	-12074
▁Education	-12075
▁Forskarna	-12076
▁beslutade	-12077
▁frivillig	-12078
▁kunskapen	-12079
▁överträff	-12080
▁aktieägare	-12081
befolkningen	-12082
▁konferensen	-12083
▁anläggningen	-12084
▁bokstavligen	-12085
▁kommersiellt	-12086
▁tillräckliga	-12087
--	-12088
/5	-12089
gam	-12090
▁(6	-12091
▁7,	-12092
▁9.	-12093
▁Of	-12094
▁SV	-12095
gnos	-12096
mann	-12097
rypt	-12098
sänd	-12099
vard	-12100
yrer	-12101
▁(10	-12102
▁30-	-12103
▁50-	-12104
▁Cli	-12105
▁Gri	-12106
▁Hol	-12107
▁Pak	-12108
▁SEK	-12109
▁Sin	-12110
▁Tai	-12111
▁def	-12112
▁dök	-12113
▁kus	-12114
ather	-12115
edvet	-12116
entor	-12117
▁Norr	-12118
▁cool	-12119
▁djäv	-12120
▁flod	-12121
▁fond	-12122
▁high	-12123
▁kass	-12124
▁levt	-12125
▁sköt	-12126
▁torg	-12127
emedel	-12128
etiskt	-12129
▁Night	-12130
▁Vägen	-12131
▁hyres	-12132
▁missn	-12133
splaner	-12134
▁Arbets	-12135
▁Taylor	-12136
▁anmäla	-12137
▁avunds	-12138
▁erbjöd	-12139
▁fattas	-12140
▁förval	-12141
▁inflyt	-12142
▁mandat	-12143
▁stängt	-12144
▁upprör	-12145
▁utövar	-12146
▁överfl	-12147
kallande	-12148
ostnaden	-12149
position	-12150
▁Förstår	-12151
▁Jackson	-12152
▁Således	-12153
▁angivna	-12154
▁attityd	-12155
▁föraren	-12156
▁förbruk	-12157
▁geograf	-12158
▁längden	-12159
▁nyheten	-12160
▁slutgil	-12161
versionen	-12162
▁Portugal	-12163
▁avslutar	-12164
▁bekymmer	-12165
▁blockera	-12166
▁cannabis	-12167
▁grundade	-12168
▁hemifrån	-12169
▁lyssnade	-12170
▁manuellt	-12171
▁orsakade	-12172
▁revision	-12173
▁skrattar	-12174
▁WordPress	-12175
▁dynamiska	-12176
▁evolution	-12177
▁hälsosamt	-12178
▁kategorin	-12179
▁nybörjare	-12180
▁resultera	-12181
▁utnyttjas	-12182
▁finansiera	-12183
▁landskapet	-12184
▁bedömningen	-12185
▁geografiska	-12186
▁integrerade	-12187
▁konstaterar	-12188
ställningarna	-12189
▁generationen	-12190
▁traditionellt	-12191
▁professionellt	-12192
85	-12193
Ch	-12194
FC	-12195
ws	-12196
▁sw	-12197
icks	-12198
reen	-12199
vakt	-12200
well	-12201
▁Alz	-12202
▁BNP	-12203
▁Eva	-12204
▁Hil	-12205
▁NAS	-12206
▁Tab	-12207
linje	-12208
märkt	-12209
öarna	-12210
öljer	-12211
▁Afri	-12212
▁Blev	-12213
▁Hjär	-12214
▁Pala	-12215
▁Sjuk	-12216
▁Well	-12217
▁bubb	-12218
▁dyka	-12219
aktigt	-12220
ianter	-12221
löshet	-12222
oniska	-12223
sering	-12224
tegori	-12225
▁Elekt	-12226
▁Jonas	-12227
▁Reser	-12228
▁Tryck	-12229
▁bränn	-12230
▁gifte	-12231
▁invas	-12232
▁ljusa	-12233
▁slots	-12234
▁sätts	-12235
enezuel	-12236
ologier	-12237
▁Moskva	-12238
▁hamnen	-12239
▁hektar	-12240
▁nämnde	-12241
▁reform	-12242
▁samlat	-12243
▁sprang	-12244
▁upplag	-12245
verkande	-12246
▁General	-12247
▁Holland	-12248
▁Network	-12249
▁barmhär	-12250
▁jobbigt	-12251
▁missade	-12252
▁modernt	-12253
▁optimal	-12254
▁psykisk	-12255
▁terrass	-12256
▁uppstod	-12257
rättsliga	-12258
verksamma	-12259
▁förplikt	-12260
▁jurisdik	-12261
▁konfigur	-12262
▁Skottland	-12263
▁spektakul	-12264
▁överlevde	-12265
förbrukning	-12266
▁frivilligt	-12267
▁inspirerad	-12268
▁motivation	-12269
▁studerande	-12270
▁tjänstemän	-12271
utvecklingen	-12272
▁flygplatser	-12273
▁intelligent	-12274
▁transporter	-12275
▁kontinuerlig	-12276
▁kvalificerad	-12277
▁utställningar	-12278
▁funktionshinder	-12279
"-	-12280
:4	-12281
LO	-12282
cal	-12283
eti	-12284
fab	-12285
obs	-12286
plå	-12287
smä	-12288
tel	-12289
äda	-12290
▁49	-12291
▁ku	-12292
häls	-12293
iets	-12294
mera	-12295
tsas	-12296
vide	-12297
vägg	-12298
ätts	-12299
▁Bab	-12300
▁Nät	-12301
▁omb	-12302
▁sci	-12303
appen	-12304
märke	-12305
unter	-12306
▁Expl	-12307
▁Flas	-12308
▁bero	-12309
▁borg	-12310
▁fukt	-12311
▁hall	-12312
▁sökt	-12313
bility	-12314
fterna	-12315
▁2009.	-12316
▁Plats	-12317
▁armen	-12318
▁avled	-12319
▁illeg	-12320
▁intyg	-12321
▁orkar	-12322
▁skräp	-12323
▁sköld	-12324
▁tomma	-12325
▁trivs	-12326
▁åklag	-12327
▁action	-12328
▁broder	-12329
▁dygnet	-12330
▁killen	-12331
▁tittat	-12332
▁upphäv	-12333
▁önskat	-12334
tationer	-12335
▁Polisen	-12336
▁Process	-12337
▁Society	-12338
▁ackumul	-12339
▁elektro	-12340
▁konfron	-12341
▁manipul	-12342
▁passera	-12343
▁sjunger	-12344
▁säljare	-12345
▁varelse	-12346
isationen	-12347
▁anslutna	-12348
▁barnbarn	-12349
▁beslutar	-12350
▁förmedla	-12351
▁förnybar	-12352
▁lanserar	-12353
▁optimera	-12354
▁pålitlig	-12355
▁roligare	-12356
▁trafiken	-12357
▁vardagen	-12358
▁workshop	-12359
ligheterna	-12360
ordförande	-12361
shantering	-12362
▁Analytics	-12363
▁tvingades	-12364
▁återbetal	-12365
stiftningen	-12366
universitet	-12367
▁kollektiva	-12368
▁korruption	-12369
▁påståenden	-12370
▁välgörenhet	-12371
▁identifieras	-12372
▁temperaturen	-12373
▁produktivitet	-12374
▁representanter	-12375
▁arbetsmarknaden	-12376
OP	-12377
fir	-12378
fog	-12379
ook	-12380
rey	-12381
sbe	-12382
▁47	-12383
▁51	-12384
▁72	-12385
▁CF	-12386
▁DC	-12387
ents	-12388
ktis	-12389
▁Abb	-12390
▁Cle	-12391
▁Ros	-12392
▁Tan	-12393
▁öar	-12394
frisk	-12395
▁1996	-12396
▁gula	-12397
▁ladd	-12398
▁magn	-12399
▁mamm	-12400
▁mans	-12401
▁porr	-12402
▁raka	-12403
▁snön	-12404
▁ving	-12405
beslut	-12406
bridge	-12407
mannen	-12408
profil	-12409
vinkel	-12410
ävling	-12411
▁Britt	-12412
▁Motor	-12413
▁Uppda	-12414
▁bestå	-12415
▁båtar	-12416
▁julen	-12417
▁kylsk	-12418
▁medie	-12419
▁panik	-12420
▁riket	-12421
▁temat	-12422
rafiken	-12423
ympiska	-12424
▁Commun	-12425
▁Engine	-12426
▁Invest	-12427
▁Sweden	-12428
▁antika	-12429
▁bitter	-12430
▁daglig	-12431
▁inneha	-12432
▁koppar	-12433
▁lyfter	-12434
▁pratat	-12435
▁självt	-12436
▁teamet	-12437
deringen	-12438
regionen	-12439
▁betalat	-12440
▁diagram	-12441
▁flickan	-12442
▁konsert	-12443
▁kunders	-12444
▁lämnats	-12445
▁minskad	-12446
▁obekväm	-12447
▁räkning	-12448
▁slappna	-12449
▁stunder	-12450
▁utsidan	-12451
processen	-12452
▁ansikten	-12453
▁baksidan	-12454
▁berättat	-12455
▁inlägget	-12456
▁sällsynt	-12457
▁utformat	-12458
▁åtagande	-12459
frågningar	-12460
▁Francisco	-12461
▁allierade	-12462
▁expansion	-12463
▁felaktiga	-12464
▁innovativ	-12465
▁intervall	-12466
▁strålning	-12467
▁tabletter	-12468
▁vanligare	-12469
▁certifikat	-12470
▁dokumentet	-12471
▁fristående	-12472
▁förändrade	-12473
▁skilsmässa	-12474
smöjligheter	-12475
undersökning	-12476
▁destination	-12477
▁förbättrade	-12478
▁installerar	-12479
▁äktenskapet	-12480
▁arbetslöshet	-12481
▁konkurrensen	-12482
▁rapporterats	-12483
▁luftkonditioner	-12484
);	-12485
.1.	-12486
bak	-12487
dda	-12488
irl	-12489
ubl	-12490
ynn	-12491
äva	-12492
,000	-12493
fver	-12494
ield	-12495
ljus	-12496
opol	-12497
pnad	-12498
ssin	-12499
tism	-12500
ures	-12501
ways	-12502
ådet	-12503
▁186	-12504
▁BBC	-12505
▁Ell	-12506
▁Spi	-12507
▁Vit	-12508
dades	-12509
oween	-12510
utrym	-12511
åring	-12512
▁1995	-12513
▁Blog	-12514
▁Farm	-12515
▁Fisk	-12516
▁Insp	-12517
▁Jeff	-12518
▁Nära	-12519
▁brom	-12520
▁pund	-12521
▁rida	-12522
examen	-12523
inarie	-12524
inlägg	-12525
reppet	-12526
▁Acade	-12527
▁Prote	-12528
▁Säker	-12529
▁Union	-12530
▁abort	-12531
▁falsk	-12532
▁fyllt	-12533
▁gissa	-12534
▁lands	-12535
▁uppri	-12536
fidenti	-12537
plantat	-12538
▁Corpor	-12539
▁befall	-12540
▁bussen	-12541
▁galler	-12542
▁inlogg	-12543
▁motsäg	-12544
▁stroke	-12545
▁tappar	-12546
▁tennis	-12547
▁åtfölj	-12548
sförmåga	-12549
smarknad	-12550
▁Journal	-12551
▁Studien	-12552
▁föreslå	-12553
▁konsult	-12554
▁mätning	-12555
▁mångfal	-12556
▁räckvid	-12557
▁skyddet	-12558
▁smärtan	-12559
▁vänliga	-12560
▁förfäder	-12561
▁godkänna	-12562
▁kyckling	-12563
▁regional	-12564
▁roulette	-12565
▁förstärka	-12566
▁mottagare	-12567
▁extraordin	-12568
▁föreslagna	-12569
▁förlåtelse	-12570
▁investerar	-12571
▁karaktärer	-12572
▁matlagning	-12573
▁komplettera	-12574
▁ögonblicket	-12575
▁marknadsföra	-12576
▁programvaran	-12577
▁återkommande	-12578
▁västerländska	-12579
DS	-12580
På	-12581
td	-12582
”-	-12583
asp	-12584
gad	-12585
ria	-12586
via	-12587
▁58	-12588
▁67	-12589
▁96	-12590
▁AV	-12591
▁GB	-12592
▁Gh	-12593
▁(2)	-12594
▁Atl	-12595
▁Bör	-12596
▁Der	-12597
▁EUR	-12598
▁Eti	-12599
▁Rör	-12600
▁exp	-12601
▁näs	-12602
▁nås	-12603
▁pel	-12604
▁pär	-12605
▁rid	-12606
jörer	-12607
orton	-12608
säker	-12609
utism	-12610
▁Mala	-12611
▁Okej	-12612
▁Show	-12613
▁Vara	-12614
▁ager	-12615
▁döds	-12616
▁odla	-12617
▁säte	-12618
estern	-12619
ställt	-12620
▁2019.	-12621
▁Antar	-12622
▁Games	-12623
▁Opera	-12624
▁drack	-12625
▁föref	-12626
▁hette	-12627
▁ilska	-12628
▁störa	-12629
▁synen	-12630
etterna	-12631
medicin	-12632
viktiga	-12633
▁Väster	-12634
▁ambiti	-12635
▁applic	-12636
▁gällde	-12637
▁hunnit	-12638
▁samvet	-12639
▁sköter	-12640
▁sparas	-12641
▁stenar	-12642
▁uppgår	-12643
▁väcker	-12644
▁väntan	-12645
skningen	-12646
▁andelen	-12647
▁bestånd	-12648
▁betonar	-12649
▁lastbil	-12650
▁medföra	-12651
▁mirakel	-12652
▁segment	-12653
▁skickat	-12654
▁upprepa	-12655
▁utnyttj	-12656
▁ansluten	-12657
▁bedriver	-12658
▁katolska	-12659
▁klänning	-12660
▁krävande	-12661
▁omvandla	-12662
funktionen	-12663
▁Palestina	-12664
▁avslutade	-12665
▁undervisa	-12666
▁utseendet	-12667
▁föreligger	-12668
▁konflikten	-12669
▁materiella	-12670
anläggningar	-12671
▁installeras	-12672
▁registrerat	-12673
▁århundradet	-12674
▁framträdande	-12675
▁förvaltnings	-12676
▁temperaturer	-12677
7]	-12678
zy	-12679
fis	-12680
lia	-12681
mät	-12682
typ	-12683
öjt	-12684
▁CS	-12685
agne	-12686
anch	-12687
ffan	-12688
ista	-12689
nats	-12690
otin	-12691
umen	-12692
▁Bla	-12693
▁Isa	-12694
▁Old	-12695
talen	-12696
uters	-12697
vanor	-12698
yckel	-12699
▁Jane	-12700
▁Jobb	-12701
▁Kron	-12702
▁Long	-12703
▁Mach	-12704
▁Milj	-12705
▁Nick	-12706
▁Sant	-12707
▁debi	-12708
▁epis	-12709
▁goog	-12710
▁rand	-12711
▁smör	-12712
servat	-12713
▁Ander	-12714
▁Dubai	-12715
▁cyber	-12716
▁givit	-12717
▁hands	-12718
▁lyder	-12719
▁netto	-12720
Omdirig	-12721
amentet	-12722
artikel	-12723
▁Cancer	-12724
▁abstra	-12725
▁andlig	-12726
▁aspekt	-12727
▁belägg	-12728
▁besvar	-12729
▁byggas	-12730
▁inslag	-12731
▁klocka	-12732
▁motorn	-12733
▁oklart	-12734
▁skilda	-12735
▁studio	-12736
▁summan	-12737
▁trauma	-12738
savtalet	-12739
▁bedriva	-12740
▁besvara	-12741
▁godkänd	-12742
▁saknade	-12743
▁ständig	-12744
▁tillåts	-12745
▁ärenden	-12746
uropeiska	-12747
▁debatten	-12748
▁designen	-12749
▁fötterna	-12750
▁hårddisk	-12751
▁immateri	-12752
▁mervärde	-12753
▁vederbör	-12754
författare	-12755
▁Elizabeth	-12756
▁genererar	-12757
▁insamling	-12758
Omdirigerad	-12759
▁ekologiska	-12760
▁genomförts	-12761
▁intervjuer	-12762
▁journalist	-12763
▁kolesterol	-12764
▁specialist	-12765
▁arbetsmiljö	-12766
▁banbrytande	-12767
▁förekomsten	-12768
▁individuell	-12769
▁tillfälliga	-12770
▁utvecklings	-12771
▁inspirerande	-12772
▁introduktion	-12773
▁kosttillskott	-12774
▁energieffektiv	-12775
▁komplikationer	-12776
)?	-12777
6]	-12778
TH	-12779
cu	-12780
löp	-12781
öde	-12782
bete	-12783
otyp	-12784
tech	-12785
ukar	-12786
vägs	-12787
▁10-	-12788
▁GUD	-12789
▁HIV	-12790
▁PDF	-12791
▁Por	-12792
▁Sir	-12793
▁Way	-12794
▁buk	-12795
▁dys	-12796
▁häf	-12797
▁möd	-12798
krets	-12799
källa	-12800
shand	-12801
tella	-12802
▁Bell	-12803
▁East	-12804
▁Road	-12805
▁Sony	-12806
▁blyg	-12807
▁elev	-12808
▁fräs	-12809
▁grej	-12810
▁läck	-12811
▁mask	-12812
▁plug	-12813
▁sort	-12814
▁tvek	-12815
bordet	-12816
bärare	-12817
▁Antal	-12818
▁Flytt	-12819
▁Oscar	-12820
▁Villa	-12821
▁dolda	-12822
▁gigan	-12823
▁intag	-12824
▁resur	-12825
▁store	-12826
▁tåget	-12827
▁villa	-12828
motorer	-12829
ställen	-12830
▁Frågor	-12831
▁Lokala	-12832
▁bespar	-12833
▁chefen	-12834
▁förkor	-12835
▁gitarr	-12836
▁predik	-12837
▁skrevs	-12838
▁vulkan	-12839
kännande	-12840
åtgärder	-12841
▁Clinton	-12842
▁allergi	-12843
▁elegant	-12844
▁harmoni	-12845
▁insidan	-12846
▁metabol	-12847
▁optimer	-12848
▁råvaror	-12849
▁smidigt	-12850
visningen	-12851
▁Fantasti	-12852
▁arrester	-12853
▁artifici	-12854
▁ersättas	-12855
▁etablera	-12856
▁fartyget	-12857
▁förnekar	-12858
▁generals	-12859
▁idealisk	-12860
▁upplevde	-12861
▁återvänd	-12862
▁öppnades	-12863
överföring	-12864
▁förekomma	-12865
▁indikerar	-12866
▁långivare	-12867
▁omgivning	-12868
▁otillräck	-12869
▁prioritet	-12870
▁samtycker	-12871
▁diskuterar	-12872
▁föreningen	-12873
▁programmer	-12874
▁publicerat	-12875
▁anmärknings	-12876
▁strategiskt	-12877
▁tillståndet	-12878
▁församlingen	-12879
▁utgångspunkt	-12880
▁entreprenörer	-12881
▁uppenbarligen	-12882
▁yrkesverksamma	-12883
UN	-12884
fu	-12885
ré	-12886
▁°	-12887
Ett	-12888
ace	-12889
dör	-12890
obi	-12891
ois	-12892
yon	-12893
äta	-12894
▁ÄR	-12895
amot	-12896
esel	-12897
ryss	-12898
skiv	-12899
slig	-12900
unes	-12901
utri	-12902
▁Bed	-12903
▁EES	-12904
▁ast	-12905
▁ego	-12906
▁kub	-12907
▁ler	-12908
▁pin	-12909
▁sky	-12910
redje	-12911
skepp	-12912
tagen	-12913
▁1990	-12914
▁Dela	-12915
▁Dröm	-12916
▁Främ	-12917
▁Lita	-12918
▁Trän	-12919
▁fibr	-12920
▁kapa	-12921
▁lida	-12922
▁magi	-12923
▁mata	-12924
▁närm	-12925
▁supp	-12926
▁sålt	-12927
esiska	-12928
staten	-12929
stider	-12930
västra	-12931
▁Adobe	-12932
▁Feder	-12933
▁Great	-12934
▁Linda	-12935
▁Saudi	-12936
▁anför	-12937
▁avlid	-12938
▁befäl	-12939
▁benäm	-12940
▁frest	-12941
▁laser	-12942
▁nedre	-12943
▁rader	-12944
▁talet	-12945
hängare	-12946
ormoner	-12947
▁Bridge	-12948
▁Hitler	-12949
▁Little	-12950
▁Resten	-12951
▁besked	-12952
▁dennes	-12953
▁fallen	-12954
▁invänd	-12955
▁listor	-12956
▁livskv	-12957
▁sträva	-12958
▁tappat	-12959
ansvarig	-12960
partment	-12961
▁avbryta	-12962
▁bekanta	-12963
▁casinon	-12964
▁fördrag	-12965
▁kalcium	-12966
▁kopiera	-12967
▁kretsar	-12968
▁mardröm	-12969
▁mäktiga	-12970
▁sträcka	-12971
▁ställas	-12972
▁systrar	-12973
▁utförts	-12974
byggnaden	-12975
jänsterna	-12976
projektet	-12977
▁Detsamma	-12978
▁beloppet	-12979
▁direktör	-12980
▁månaders	-12981
▁reformer	-12982
▁stigande	-12983
▁studerar	-12984
▁förfrågan	-12985
▁imponerad	-12986
▁observera	-12987
▁verksamma	-12988
ningssystem	-12989
▁Behandling	-12990
▁företagare	-12991
▁kombineras	-12992
▁sanktioner	-12993
▁tillbringa	-12994
▁varierande	-12995
▁återkommer	-12996
finansiering	-12997
▁begränsning	-12998
▁befogenheter	-12999
▁dokumentation	-13000
▁utställningen	-13001
Nu	-13002
▁]	-13003
Mer	-13004
bad	-13005
hat	-13006
häm	-13007
sko	-13008
tte	-13009
▁As	-13010
▁Nä	-13011
▁ga	-13012
agar	-13013
atta	-13014
bour	-13015
isch	-13016
kött	-13017
look	-13018
rier	-13019
uron	-13020
ångt	-13021
öser	-13022
▁Ant	-13023
▁Bow	-13024
▁GPS	-13025
▁Lam	-13026
▁Ref	-13027
▁Såg	-13028
▁Tok	-13029
▁fik	-13030
▁kid	-13031
▁kna	-13032
▁tok	-13033
▁ått	-13034
adels	-13035
biska	-13036
ginal	-13037
ikapp	-13038
laren	-13039
sskyl	-13040
tomen	-13041
ällen	-13042
▁Glas	-13043
▁Java	-13044
▁brud	-13045
▁byrå	-13046
▁leds	-13047
▁pist	-13048
status	-13049
▁1990-	-13050
▁Enkel	-13051
▁Multi	-13052
▁Parad	-13053
▁Priva	-13054
▁bjuda	-13055
▁himla	-13056
▁kapit	-13057
▁mjuka	-13058
▁ombud	-13059
▁redog	-13060
▁teman	-13061
▁tysta	-13062
förklar	-13063
ntligen	-13064
▁Galaxy	-13065
▁Kultur	-13066
▁Tanken	-13067
▁annans	-13068
▁ansågs	-13069
▁fiskar	-13070
▁gården	-13071
▁hunger	-13072
▁hörnet	-13073
▁ingång	-13074
▁ingått	-13075
▁påminn	-13076
▁testat	-13077
serligen	-13078
▁Arbetet	-13079
▁Väldigt	-13080
▁algorit	-13081
▁kyrkans	-13082
▁längtar	-13083
▁präster	-13084
▁sökning	-13085
ningsbara	-13086
politiken	-13087
▁Venezuel	-13088
▁anpassas	-13089
▁förbjuda	-13090
▁kommunen	-13091
▁skyddade	-13092
▁undvikas	-13093
▁utesluta	-13094
▁Människan	-13095
▁genomfört	-13096
▁terrorist	-13097
▁tävlingar	-13098
▁förvandlas	-13099
▁ändamålsen	-13100
▁dominerande	-13101
▁existerande	-13102
▁förlängning	-13103
▁uppföljning	-13104
sförhållanden	-13105
▁misslyckande	-13106
▁underhållande	-13107
▁högkvalitativa	-13108
▁specialiserade	-13109
▁Storbritanniens	-13110
:)	-13111
SD	-13112
SE	-13113
ST	-13114
fs	-13115
edy	-13116
ego	-13117
ité	-13118
tie	-13119
ågs	-13120
▁52	-13121
▁AF	-13122
jobb	-13123
tish	-13124
tual	-13125
ådor	-13126
▁Chi	-13127
▁Gab	-13128
▁Kro	-13129
▁Mån	-13130
▁mus	-13131
▁pod	-13132
▁spi	-13133
stopp	-13134
video	-13135
visor	-13136
▁Funk	-13137
▁Gaza	-13138
▁Phot	-13139
▁Yoga	-13140
▁genu	-13141
▁gård	-13142
▁holl	-13143
▁kunn	-13144
▁rutt	-13145
▁sänk	-13146
▁våga	-13147
anpass	-13148
icitet	-13149
ipedia	-13150
yllene	-13151
▁Lever	-13152
▁Nobel	-13153
▁Sista	-13154
▁Watch	-13155
▁anbud	-13156
▁elden	-13157
▁morse	-13158
▁nervs	-13159
▁paret	-13160
▁sjöng	-13161
▁sköts	-13162
centret	-13163
kontakt	-13164
rapport	-13165
äsongen	-13166
▁Filipp	-13167
▁Produk	-13168
▁avsett	-13169
▁beakta	-13170
▁besatt	-13171
▁frigör	-13172
▁koloni	-13173
▁lagrar	-13174
▁läppar	-13175
▁närhet	-13176
▁schema	-13177
▁sätten	-13178
▁titlar	-13179
▁trädet	-13180
▁tvinga	-13181
skriften	-13182
▁Alterna	-13183
▁Demokra	-13184
▁färdigt	-13185
▁fördubb	-13186
▁kopplas	-13187
▁mineral	-13188
▁skadlig	-13189
emperatur	-13190
riktioner	-13191
ustration	-13192
▁Hittills	-13193
▁felaktig	-13194
▁föredrag	-13195
▁himmelen	-13196
▁maximalt	-13197
▁otroliga	-13198
gränssnitt	-13199
▁Användare	-13200
▁härlighet	-13201
▁inspirera	-13202
▁motsatsen	-13203
▁ordningen	-13204
▁siffrorna	-13205
▁överföras	-13206
▁övervinna	-13207
▁kungariket	-13208
▁trädgårdar	-13209
▁växthusgas	-13210
▁återstående	-13211
▁komplicerade	-13212
▁programmering	-13213
▁administration	-13214
▁sammansättning	-13215
▁självförtroende	-13216
Sk	-13217
Te	-13218
ng	-13219
sby	-13220
▁54	-13221
▁AN	-13222
▁Dy	-13223
▁GM	-13224
▁SD	-13225
▁Tu	-13226
▁ät	-13227
jten	-13228
mens	-13229
möte	-13230
ular	-13231
very	-13232
▁fry	-13233
▁sus	-13234
enskt	-13235
erier	-13236
oning	-13237
otekn	-13238
tific	-13239
uppda	-13240
velop	-13241
▁Ange	-13242
▁Ball	-13243
▁Magn	-13244
▁Plat	-13245
▁gräs	-13246
▁insk	-13247
▁koka	-13248
▁oper	-13249
▁over	-13250
▁vakt	-13251
andras	-13252
balans	-13253
centra	-13254
sessan	-13255
▁Lycka	-13256
▁Minst	-13257
▁Robin	-13258
▁accel	-13259
▁domen	-13260
▁flott	-13261
▁herre	-13262
▁miner	-13263
▁umgås	-13264
▁Berätt	-13265
▁beklag	-13266
▁förste	-13267
▁märkte	-13268
▁palats	-13269
▁sinnet	-13270
▁sjunde	-13271
▁villig	-13272
▁älskad	-13273
personal	-13274
▁Avsnitt	-13275
▁Försälj	-13276
▁Premier	-13277
▁bedömer	-13278
▁gravida	-13279
▁hänvisa	-13280
▁lagstad	-13281
▁längsta	-13282
▁persons	-13283
▁rimligt	-13284
▁tråkigt	-13285
▁världar	-13286
koncernen	-13287
medlemmar	-13288
utomation	-13289
▁bankerna	-13290
▁exemplet	-13291
▁gästerna	-13292
▁innehöll	-13293
▁inträffa	-13294
▁legendar	-13295
▁räddning	-13296
▁svåraste	-13297
▁tänderna	-13298
▁Argentina	-13299
▁Göteborgs	-13300
▁decennier	-13301
▁mänskligt	-13302
▁proletari	-13303
▁stimulera	-13304
▁uppträder	-13305
▁utbildade	-13306
▁automatisk	-13307
▁kongressen	-13308
▁släktingar	-13309
▁tillfällig	-13310
▁uttalanden	-13311
▁bröstcancer	-13312
▁industriell	-13313
▁interaktion	-13314
▁involverade	-13315
▁vittnesbörd	-13316
▁överraskande	-13317
▁miljöpåverkan	-13318
/6	-13319
/7	-13320
uen	-13321
▁3)	-13322
▁CR	-13323
▁IM	-13324
▁ov	-13325
akes	-13326
best	-13327
loss	-13328
mets	-13329
plat	-13330
sbek	-13331
▁Les	-13332
▁Rem	-13333
▁Tru	-13334
▁Väg	-13335
▁can	-13336
▁åtn	-13337
edral	-13338
inskt	-13339
ktige	-13340
ktion	-13341
lings	-13342
väsen	-13343
▁Cons	-13344
▁Iden	-13345
▁Kore	-13346
▁cirk	-13347
▁mari	-13348
▁njöt	-13349
▁ojäm	-13350
▁slav	-13351
▁sund	-13352
alerna	-13353
angent	-13354
cifika	-13355
faller	-13356
▁Conne	-13357
▁Muham	-13358
▁Point	-13359
▁Tradi	-13360
▁abonn	-13361
▁intim	-13362
▁skulp	-13363
▁spont	-13364
▁Åtgär	-13365
registr	-13366
sökande	-13367
ängande	-13368
▁Distri	-13369
▁Förlåt	-13370
▁Potter	-13371
▁Square	-13372
▁cyklar	-13373
▁dricks	-13374
▁fördöm	-13375
▁hygien	-13376
▁marina	-13377
▁namnen	-13378
▁nervös	-13379
▁obliga	-13380
▁piller	-13381
▁prosta	-13382
▁turism	-13383
timering	-13384
▁Systems	-13385
▁betrakt	-13386
▁förnuft	-13387
▁kopplad	-13388
▁massage	-13389
▁neutral	-13390
▁siffran	-13391
▁synkron	-13392
aliserade	-13393
plattform	-13394
stitution	-13395
ställelse	-13396
▁Material	-13397
▁Victoria	-13398
▁bränslen	-13399
▁ingenjör	-13400
▁mystiska	-13401
▁stolthet	-13402
▁överflöd	-13403
▁Christian	-13404
▁Köpenhamn	-13405
▁arbetarna	-13406
▁distribut	-13407
▁kontakten	-13408
▁ordinarie	-13409
▁uppfattas	-13410
▁Medelhavet	-13411
▁diskuteras	-13412
▁religionen	-13413
▁teoretiska	-13414
▁tonåringar	-13415
▁upplösning	-13416
▁upptäcktes	-13417
▁övertygade	-13418
▁Beskrivning	-13419
▁Fortfarande	-13420
▁plattformen	-13421
▁rekrytering	-13422
▁solidaritet	-13423
▁fruktansvärt	-13424
▁arbetsplatsen	-13425
▁personuppgift	-13426
▁överträdelser	-13427
▁förändringarna	-13428
▁tjänsteleverant	-13429
!?	-13430
.3	-13431
3-	-13432
AA	-13433
HD	-13434
Kr	-13435
aa	-13436
hö	-13437
su	-13438
zo	-13439
ado	-13440
ccé	-13441
die	-13442
esa	-13443
fam	-13444
oft	-13445
yle	-13446
öpp	-13447
▁6-	-13448
▁IC	-13449
▁py	-13450
orse	-13451
rich	-13452
tist	-13453
utet	-13454
vers	-13455
ådda	-13456
▁130	-13457
▁185	-13458
▁Bat	-13459
▁Jul	-13460
▁Rub	-13461
▁Spo	-13462
▁luk	-13463
▁rit	-13464
▁Öpp	-13465
aktör	-13466
banan	-13467
behov	-13468
mötet	-13469
nalen	-13470
poäng	-13471
sfunk	-13472
spekt	-13473
älten	-13474
▁Anne	-13475
▁Holm	-13476
▁Läge	-13477
▁byte	-13478
▁elva	-13479
▁jämn	-13480
▁kyla	-13481
▁mjöl	-13482
▁tätt	-13483
▁utav	-13484
etooth	-13485
habili	-13486
licera	-13487
period	-13488
primer	-13489
ranter	-13490
senhet	-13491
▁Forum	-13492
▁Kines	-13493
▁Prova	-13494
▁Radio	-13495
▁böner	-13496
▁front	-13497
▁hotet	-13498
▁höjer	-13499
▁löner	-13500
▁mäter	-13501
▁smink	-13502
▁trösk	-13503
▁turné	-13504
baserat	-13505
skrivna	-13506
▁Jehova	-13507
▁Själva	-13508
▁Svaret	-13509
▁Tänker	-13510
▁Upplev	-13511
▁betyda	-13512
▁fyllda	-13513
▁gråter	-13514
▁hållit	-13515
▁kontot	-13516
▁kärnan	-13517
▁protot	-13518
▁slaget	-13519
aliteter	-13520
allafall	-13521
splatsen	-13522
ändelser	-13523
▁Försvar	-13524
▁andning	-13525
▁ansöker	-13526
▁finaste	-13527
▁frukter	-13528
▁grundar	-13529
▁huvuden	-13530
▁innebar	-13531
▁konsten	-13532
▁riktade	-13533
▁utforma	-13534
▁vandrar	-13535
marknader	-13536
▁ambition	-13537
▁brittisk	-13538
▁facebook	-13539
▁festival	-13540
▁filmerna	-13541
▁Produkter	-13542
▁inredning	-13543
▁intensiva	-13544
▁rättegång	-13545
▁väsentlig	-13546
▁Republiken	-13547
▁anknytning	-13548
▁gränssnitt	-13549
▁hälsosamma	-13550
▁interagera	-13551
▁management	-13552
▁tillgodose	-13553
förändringar	-13554
▁detaljerade	-13555
▁preferenser	-13556
▁uppdaterade	-13557
▁innovationer	-13558
▁utmaningarna	-13559
▁kvalificerade	-13560
▁sannolikheten	-13561
▁intellektuella	-13562
HA	-13563
bal	-13564
din	-13565
egi	-13566
ifi	-13567
ree	-13568
▁CV	-13569
▁UK	-13570
▁́s	-13571
diet	-13572
folk	-13573
less	-13574
zine	-13575
▁Bad	-13576
▁JAG	-13577
▁Nas	-13578
▁Nok	-13579
▁Tja	-13580
▁ota	-13581
agnet	-13582
burgh	-13583
komna	-13584
sslut	-13585
stest	-13586
ädret	-13587
▁Göra	-13588
▁Krig	-13589
▁Lady	-13590
▁Lars	-13591
▁Roll	-13592
▁Ther	-13593
▁Your	-13594
▁anda	-13595
▁aren	-13596
▁ball	-13597
▁fräl	-13598
▁gest	-13599
▁pick	-13600
▁rank	-13601
▁snur	-13602
agerar	-13603
ekvens	-13604
stigef	-13605
sägare	-13606
▁1970-	-13607
▁Stäng	-13608
▁Vänta	-13609
▁bägge	-13610
▁därav	-13611
▁fäder	-13612
▁ihjäl	-13613
▁latin	-13614
▁naken	-13615
▁narko	-13616
▁retur	-13617
▁sonen	-13618
▁vilar	-13619
▁ägnar	-13620
enheten	-13621
▁Klimat	-13622
▁Kursen	-13623
▁Virgin	-13624
▁artist	-13625
▁bomull	-13626
▁graden	-13627
▁levnad	-13628
▁missar	-13629
▁ställt	-13630
▁typisk	-13631
▁öppnat	-13632
forskare	-13633
▁Marknad	-13634
▁körning	-13635
▁omgiven	-13636
▁robotar	-13637
▁seriöst	-13638
▁valutor	-13639
savgifter	-13640
spersonal	-13641
värdering	-13642
▁kritiser	-13643
▁lednings	-13644
▁lyckligt	-13645
▁planeras	-13646
▁påskynda	-13647
▁reglerar	-13648
▁rubriken	-13649
▁Äntligen	-13650
▁Återigen	-13651
plantation	-13652
▁bibehålla	-13653
▁blackjack	-13654
▁bristande	-13655
▁idrottare	-13656
▁invånarna	-13657
▁koncernen	-13658
▁lönsamhet	-13659
▁partiklar	-13660
▁prestigef	-13661
▁påverkade	-13662
▁telefoner	-13663
möjligheter	-13664
sbehandling	-13665
struktioner	-13666
▁behandlade	-13667
▁framgångar	-13668
▁konstnären	-13669
▁kraftfullt	-13670
▁reparation	-13671
▁samarbeten	-13672
▁sistnämnda	-13673
▁troligtvis	-13674
▁användarens	-13675
▁förverkliga	-13676
▁popularitet	-13677
▁regelbundna	-13678
▁kännetecknas	-13679
▁rättfärdighet	-13680
▁vetenskapligt	-13681
▁kompletterande	-13682
.'	-13683
77	-13684
8]	-13685
Fr	-13686
TR	-13687
js	-13688
oe	-13689
???	-13690
Nej	-13691
kok	-13692
put	-13693
tia	-13694
dist	-13695
hatt	-13696
hjul	-13697
hopp	-13698
ikop	-13699
jort	-13700
jter	-13701
jäna	-13702
oker	-13703
usch	-13704
▁Arm	-13705
▁Cro	-13706
▁Dal	-13707
▁Död	-13708
▁Pil	-13709
▁Str	-13710
▁Väx	-13711
▁ade	-13712
▁pga	-13713
emark	-13714
ockan	-13715
sstud	-13716
volym	-13717
yllda	-13718
▁Agen	-13719
▁Disk	-13720
▁Mest	-13721
▁Orig	-13722
▁färd	-13723
▁låsa	-13724
▁ägna	-13725
andets	-13726
faktor	-13727
itness	-13728
linjen	-13729
produc	-13730
skilda	-13731
▁2007.	-13732
▁Child	-13733
▁Energ	-13734
▁First	-13735
▁Guide	-13736
▁Latin	-13737
▁Light	-13738
▁Medic	-13739
▁Spara	-13740
▁argum	-13741
▁astma	-13742
▁dödas	-13743
▁fetma	-13744
▁färsk	-13745
▁förmö	-13746
▁förol	-13747
▁given	-13748
▁svull	-13749
▁utplå	-13750
▁väsen	-13751
arbeten	-13752
ligaste	-13753
räkning	-13754
sökning	-13755
▁Helige	-13756
▁Nordic	-13757
▁Peking	-13758
▁avlägs	-13759
▁bidrog	-13760
▁ersatt	-13761
▁lögner	-13762
▁någons	-13763
▁skapad	-13764
▁syntet	-13765
▁vätska	-13766
fistiker	-13767
ikatorer	-13768
olutions	-13769
ponenter	-13770
▁Registr	-13771
▁fienden	-13772
▁samtida	-13773
▁svenskt	-13774
▁templet	-13775
▁tredjel	-13776
▁trycker	-13777
▁typiska	-13778
iguration	-13779
villkoren	-13780
▁Profeten	-13781
▁attacken	-13782
▁insikter	-13783
▁klienter	-13784
▁åldrande	-13785
▁översikt	-13786
▁expandera	-13787
▁individen	-13788
▁konstverk	-13789
▁personens	-13790
▁storlekar	-13791
▁tidningar	-13792
▁utsläppen	-13793
▁varandras	-13794
▁vindkraft	-13795
▁webbsidor	-13796
▁kommentera	-13797
▁misstänkta	-13798
▁nyhetsbrev	-13799
▁patientens	-13800
▁republiken	-13801
▁tidsperiod	-13802
▁varumärkes	-13803
▁Förmodligen	-13804
▁bearbetning	-13805
▁bekräftelse	-13806
▁händelserna	-13807
▁medborgarna	-13808
▁registreras	-13809
▁signifikant	-13810
▁testosteron	-13811
departementet	-13812
▁konstaterade	-13813
▁förhållandena	-13814
▁obligatoriska	-13815
▁tillämpningar	-13816
▁kapitalistiska	-13817
▁mänsklighetens	-13818
32	-13819
95	-13820
IB	-13821
Gen	-13822
agd	-13823
can	-13824
ime	-13825
imm	-13826
ked	-13827
”).	-13828
▁5:	-13829
▁IK	-13830
▁Ri	-13831
anne	-13832
mall	-13833
mass	-13834
ouch	-13835
slån	-13836
tiet	-13837
tron	-13838
ytan	-13839
▁160	-13840
▁Fox	-13841
▁FÖR	-13842
▁Jap	-13843
▁Ltd	-13844
▁Rek	-13845
▁dal	-13846
▁uth	-13847
▁vap	-13848
achel	-13849
brist	-13850
ockey	-13851
▁Alan	-13852
▁Fair	-13853
▁sfär	-13854
batter	-13855
iction	-13856
objekt	-13857
pengar	-13858
växten	-13859
ärerna	-13860
▁Ladda	-13861
▁Marie	-13862
▁Tjeck	-13863
▁Young	-13864
▁avsak	-13865
▁basis	-13866
▁foten	-13867
▁helig	-13868
▁lovat	-13869
▁läkar	-13870
▁miles	-13871
▁raser	-13872
▁ränte	-13873
ftelsen	-13874
heimers	-13875
sstaten	-13876
sverket	-13877
▁Access	-13878
▁Ansvar	-13879
▁Elever	-13880
▁origin	-13881
▁proffs	-13882
▁radera	-13883
▁rasism	-13884
▁sensor	-13885
▁svarat	-13886
▁testar	-13887
▁testet	-13888
▁Googles	-13889
▁Hittade	-13890
▁Kunskap	-13891
▁Manager	-13892
▁Medical	-13893
▁Senaste	-13894
▁flyttat	-13895
▁föredra	-13896
▁förkast	-13897
▁indiska	-13898
▁innehar	-13899
▁oföränd	-13900
▁villiga	-13901
människor	-13902
▁fordonet	-13903
▁färgerna	-13904
▁föresprå	-13905
▁optimala	-13906
▁ovanliga	-13907
▁satellit	-13908
▁sektorer	-13909
▁ökningen	-13910
▁frälsning	-13911
▁förbjudna	-13912
▁genetiska	-13913
▁intresset	-13914
▁isolering	-13915
▁konceptet	-13916
▁placerade	-13917
▁skrattade	-13918
▁symptomen	-13919
▁variation	-13920
▁Användning	-13921
▁Innovation	-13922
▁attraktion	-13923
▁förfogande	-13924
▁konfidenti	-13925
▁skriftligt	-13926
▁Majoriteten	-13927
▁utnyttjande	-13928
▁återvinning	-13929
33	-13930
Co	-13931
Hz	-13932
/10	-13933
Con	-13934
aku	-13935
beg	-13936
död	-13937
ecu	-13938
lim	-13939
lle	-13940
sbr	-13941
tin	-13942
▁56	-13943
▁Hi	-13944
▁NY	-13945
▁Ya	-13946
...”	-13947
irus	-13948
kurs	-13949
riga	-13950
ript	-13951
sfär	-13952
skyl	-13953
unta	-13954
äten	-13955
▁Aug	-13956
▁Ess	-13957
▁Key	-13958
▁Sju	-13959
▁Sri	-13960
▁car	-13961
▁hiv	-13962
▁top	-13963
derad	-13964
paren	-13965
skada	-13966
▁1997	-13967
▁Fjär	-13968
▁Good	-13969
▁Kuba	-13970
▁Pier	-13971
▁Sten	-13972
▁Veck	-13973
▁Wien	-13974
▁blek	-13975
▁pack	-13976
▁tall	-13977
▁utsp	-13978
▁vamp	-13979
andena	-13980
vänder	-13981
▁Kunde	-13982
▁Ocean	-13983
▁Sarah	-13984
▁dumma	-13985
▁folks	-13986
▁köpas	-13987
▁plikt	-13988
▁tungt	-13989
▁upply	-13990
trycket	-13991
▁Boston	-13992
▁Church	-13993
▁Förstå	-13994
▁bagage	-13995
▁center	-13996
▁dussin	-13997
▁dyrare	-13998
▁garage	-13999
▁hängiv	-14000
▁inleda	-14001
▁intens	-14002
▁ljuger	-14003
▁märken	-14004
▁skogar	-14005
▁skylla	-14006
▁stegen	-14007
▁varnar	-14008
▁ödmjuk	-14009
handlare	-14010
maskiner	-14011
oproblem	-14012
skapande	-14013
▁Control	-14014
▁Develop	-14015
▁Venedig	-14016
▁bärbara	-14017
▁döttrar	-14018
▁kämpade	-14019
▁legitim	-14020
▁påminna	-14021
▁rörliga	-14022
▁stadium	-14023
▁tendens	-14024
▁vänstra	-14025
▁åtskill	-14026
änkningar	-14027
ättningen	-14028
▁Invester	-14029
▁Security	-14030
▁anpassad	-14031
▁främling	-14032
▁förmögen	-14033
▁kristall	-14034
▁kungliga	-14035
▁oväntade	-14036
▁romerska	-14037
▁styrning	-14038
▁uppmanas	-14039
▁våldtäkt	-14040
handlingar	-14041
saktivitet	-14042
utvecklare	-14043
▁budskapet	-14044
▁hälsovård	-14045
▁injektion	-14046
▁kontanter	-14047
▁kvantitet	-14048
▁mestadels	-14049
▁nyheterna	-14050
▁sovrummet	-14051
▁utforskar	-14052
▁uttrycket	-14053
▁varianter	-14054
▁återfören	-14055
▁återställ	-14056
▁auktoritet	-14057
▁parametrar	-14058
▁förknippade	-14059
▁anteckningar	-14060
▁föreskrifter	-14061
▁föroreningar	-14062
▁implementera	-14063
▁leverantören	-14064
▁prestationer	-14065
.+	-14066
/8	-14067
IO	-14068
▁›	-14069
läm	-14070
oke	-14071
▁Ki	-14072
▁MA	-14073
▁OM	-14074
▁Vo	-14075
aton	-14076
head	-14077
ogra	-14078
vinn	-14079
▁:-)	-14080
▁Asi	-14081
▁Box	-14082
▁Fed	-14083
▁yog	-14084
Point	-14085
album	-14086
block	-14087
bonus	-14088
budet	-14089
kande	-14090
massa	-14091
noser	-14092
patit	-14093
sters	-14094
ården	-14095
▁Flor	-14096
▁Kopp	-14097
▁MSEK	-14098
▁Namn	-14099
▁Rose	-14100
▁Text	-14101
▁atom	-14102
▁bläd	-14103
▁dele	-14104
▁kemi	-14105
▁sken	-14106
entlig	-14107
ionjär	-14108
nesium	-14109
styrka	-14110
▁2006.	-14111
▁Dream	-14112
▁Inför	-14113
▁Josef	-14114
▁Källa	-14115
▁Suite	-14116
▁Trust	-14117
▁facil	-14118
▁feber	-14119
▁jackp	-14120
▁lådan	-14121
▁menyn	-14122
▁plant	-14123
▁skede	-14124
▁stuga	-14125
▁summa	-14126
▁utbyt	-14127
oterapi	-14128
stjärna	-14129
▁Libyen	-14130
▁Parker	-14131
▁bedöms	-14132
▁fascin	-14133
▁honung	-14134
▁kvalif	-14135
▁låtsas	-14136
▁mormor	-14137
▁regiss	-14138
▁snyggt	-14139
▁sänder	-14140
▁tolkas	-14141
▁uthåll	-14142
▁valdes	-14143
▁vidtag	-14144
bibliote	-14145
familjen	-14146
industri	-14147
▁Special	-14148
▁andetag	-14149
▁besöket	-14150
▁förfall	-14151
▁kvarter	-14152
▁paketet	-14153
▁singlar	-14154
▁tvingar	-14155
▁Familjen	-14156
▁besluten	-14157
▁härifrån	-14158
▁införliv	-14159
▁motivera	-14160
▁satsning	-14161
▁skapelse	-14162
▁uttryckt	-14163
▁väggarna	-14164
▁äventyra	-14165
▁Kommentar	-14166
▁akademisk	-14167
▁anhängare	-14168
▁biologisk	-14169
▁inledande	-14170
▁kampanjen	-14171
▁klassiker	-14172
▁medeltida	-14173
▁osäkerhet	-14174
▁utvecklad	-14175
stillfällen	-14176
▁Exempelvis	-14177
▁Institutet	-14178
▁Profession	-14179
▁besättning	-14180
▁mekanismer	-14181
▁reflektera	-14182
▁tacksamhet	-14183
▁Åtminstone	-14184
produktionen	-14185
▁kundservice	-14186
▁sannolikhet	-14187
inställningar	-14188
▁certifiering	-14189
▁uppskattning	-14190
▁institutionen	-14191
▁tvärvetenskap	-14192
▁sammanfattning	-14193
IR	-14194
jo	-14195
100	-14196
Vem	-14197
lån	-14198
yth	-14199
▁57	-14200
▁Ek	-14201
▁VR	-14202
ansö	-14203
blar	-14204
elin	-14205
eten	-14206
ifer	-14207
just	-14208
luft	-14209
shot	-14210
skog	-14211
slar	-14212
spen	-14213
ätet	-14214
▁360	-14215
▁60-	-14216
▁90-	-14217
▁Era	-14218
▁Kol	-14219
▁Mir	-14220
▁Sor	-14221
▁bul	-14222
▁rus	-14223
▁tes	-14224
föräl	-14225
gjord	-14226
skomp	-14227
tvätt	-14228
unnar	-14229
värme	-14230
änkar	-14231
▁Kund	-14232
▁Mika	-14233
▁Skär	-14234
▁bråd	-14235
▁förg	-14236
ceptet	-14237
change	-14238
fältet	-14239
iverse	-14240
studie	-14241
▁Forex	-14242
▁Heart	-14243
▁Rumän	-14244
▁Söder	-14245
▁Tesla	-14246
▁barer	-14247
▁basen	-14248
▁hävda	-14249
▁karta	-14250
▁kärna	-14251
▁läger	-14252
▁oroar	-14253
▁änden	-14254
▁bensin	-14255
▁blomma	-14256
▁drömma	-14257
▁flagga	-14258
▁formel	-14259
▁kapten	-14260
▁kopior	-14261
▁mentor	-14262
▁pojken	-14263
▁ropade	-14264
▁röstar	-14265
▁seriös	-14266
▁spräng	-14267
▁stämma	-14268
▁termen	-14269
▁tjejen	-14270
▁värdes	-14271
kopplade	-14272
tjänsten	-14273
▁avskaff	-14274
▁bitcoin	-14275
▁hamnade	-14276
▁körkort	-14277
▁lysande	-14278
▁redskap	-14279
▁schweiz	-14280
▁skulden	-14281
▁syriska	-14282
▁Bolagets	-14283
▁anhöriga	-14284
▁balansen	-14285
▁elektric	-14286
▁förlänga	-14287
▁nivåerna	-14288
▁serverar	-14289
▁älskling	-14290
▁Rysslands	-14291
▁Studenter	-14292
▁dagsläget	-14293
▁drabbades	-14294
▁etablerat	-14295
▁familjens	-14296
▁genomgått	-14297
▁kontaktar	-14298
▁omvandlas	-14299
▁organiska	-14300
▁placering	-14301
▁starkaste	-14302
▁viktigast	-14303
▁attraktiva	-14304
▁avslappnad	-14305
▁förvirring	-14306
▁publicerad	-14307
▁satsningar	-14308
▁småföretag	-14309
▁strukturen	-14310
▁intelligenta	-14311
▁tillbringade	-14312
▁upplysningar	-14313
▁känslomässiga	-14314
▁konventionella	-14315
▁konkurrenskraft	-14316
1:	-14317
FS	-14318
mn	-14319
").	-14320
6).	-14321
cos	-14322
ftt	-14323
gem	-14324
gro	-14325
kri	-14326
ppy	-14327
pra	-14328
sfa	-14329
sha	-14330
uli	-14331
▁Kr	-14332
..."	-14333
Till	-14334
amas	-14335
eing	-14336
elig	-14337
ello	-14338
iami	-14339
tify	-14340
ttom	-14341
unge	-14342
åpet	-14343
▁140	-14344
▁80-	-14345
▁Bef	-14346
▁FBI	-14347
▁dyk	-14348
▁fol	-14349
▁fro	-14350
▁ägt	-14351
andad	-14352
byrån	-14353
hålls	-14354
ockta	-14355
sstyr	-14356
ttack	-14357
ydnad	-14358
▁Arts	-14359
▁Brad	-14360
▁Edin	-14361
▁Emma	-14362
▁PayP	-14363
▁odds	-14364
▁smal	-14365
linjer	-14366
nation	-14367
parten	-14368
vtryck	-14369
ägaren	-14370
övning	-14371
▁1960-	-14372
▁1980-	-14373
▁2000-	-14374
▁Hamas	-14375
▁Jakob	-14376
▁Lissa	-14377
▁Niger	-14378
▁antis	-14379
▁auten	-14380
▁buddh	-14381
▁dropp	-14382
▁föras	-14383
▁ivrig	-14384
▁okunn	-14385
▁paras	-14386
▁patri	-14387
▁spins	-14388
ansökan	-14389
arabien	-14390
bration	-14391
förlust	-14392
inarier	-14393
junktur	-14394
rukture	-14395
sistens	-14396
skedjan	-14397
▁Action	-14398
▁Chrome	-14399
▁Högsta	-14400
▁Indone	-14401
▁Living	-14402
▁Mobile	-14403
▁Scient	-14404
▁Skolan	-14405
▁Sydney	-14406
▁Trumps	-14407
▁blogga	-14408
▁bussar	-14409
▁cookie	-14410
▁diesel	-14411
▁engång	-14412
▁erkänd	-14413
▁fonden	-14414
▁gynnar	-14415
▁halsen	-14416
▁hybrid	-14417
▁hänför	-14418
▁instin	-14419
▁kastar	-14420
▁kirurg	-14421
▁klient	-14422
▁klippa	-14423
▁likhet	-14424
▁poolen	-14425
▁satsar	-14426
▁träden	-14427
▁utkast	-14428
frekvens	-14429
▁Baserat	-14430
▁Omkring	-14431
▁Området	-14432
▁Outlook	-14433
▁brottsl	-14434
▁menstru	-14435
▁onödiga	-14436
▁släppas	-14437
▁stående	-14438
▁success	-14439
▁uppfost	-14440
▁utbrott	-14441
genskaper	-14442
▁exklusiv	-14443
▁friheten	-14444
▁insekter	-14445
▁kinesisk	-14446
▁kvinnlig	-14447
▁livmoder	-14448
▁maximala	-14449
▁placerar	-14450
▁statligt	-14451
▁trevliga	-14452
▁utrymmen	-14453
▁Styrelsen	-14454
▁avslöjade	-14455
▁engagerad	-14456
▁förhandla	-14457
▁förklaras	-14458
▁förväntat	-14459
▁långvarig	-14460
▁psykologi	-14461
▁studerade	-14462
▁uppfyllda	-14463
▁värdering	-14464
▁Alzheimers	-14465
▁borgerliga	-14466
▁industrier	-14467
▁misstänker	-14468
▁motorcykel	-14469
▁representa	-14470
▁sofistiker	-14471
▁uppförande	-14472
▁ömsesidigt	-14473
▁dimensioner	-14474
▁finansieras	-14475
▁kolhydrater	-14476
▁organiserad	-14477
▁välsignelse	-14478
▁diagnostiser	-14479
▁Sovjetunionen	-14480
▁efterföljande	-14481
-5	-14482
79	-14483
Ni	-14484
ev	-14485
hä	-14486
ki	-14487
dvs	-14488
elt	-14489
fit	-14490
▁UV	-14491
arma	-14492
främ	-14493
kisk	-14494
last	-14495
lige	-14496
odge	-14497
ople	-14498
rera	-14499
sint	-14500
önen	-14501
▁110	-14502
▁Bio	-14503
▁Gui	-14504
▁Leo	-14505
▁Ron	-14506
▁Räk	-14507
▁kla	-14508
Ingen	-14509
aktig	-14510
aljer	-14511
solut	-14512
spass	-14513
▁Flex	-14514
▁Vinn	-14515
▁bjud	-14516
▁evig	-14517
▁förö	-14518
▁gluk	-14519
▁munt	-14520
▁språ	-14521
aktivt	-14522
bestäm	-14523
jungar	-14524
männen	-14525
phones	-14526
strätt	-14527
▁Alice	-14528
▁Drott	-14529
▁Liber	-14530
▁Malta	-14531
▁Roger	-14532
▁agent	-14533
▁beseg	-14534
▁emitt	-14535
▁gator	-14536
▁gudar	-14537
▁ljuga	-14538
▁mexik	-14539
▁rensa	-14540
▁rörde	-14541
▁sjutt	-14542
▁skrek	-14543
▁städa	-14544
▁turen	-14545
görande	-14546
odeller	-14547
sättare	-14548
tagarna	-14549
▁Columb	-14550
▁Henrik	-14551
▁Ninten	-14552
▁Tänkte	-14553
▁Ungern	-14554
▁brevet	-14555
▁bunden	-14556
▁finger	-14557
▁helige	-14558
▁inleds	-14559
▁propag	-14560
▁rätter	-14561
▁rösten	-14562
▁scener	-14563
▁trädde	-14564
historia	-14565
skraften	-14566
ssektorn	-14567
▁Grattis	-14568
▁Spelare	-14569
▁beundra	-14570
▁folkets	-14571
▁giltigt	-14572
▁inträde	-14573
▁kopplat	-14574
▁kraftig	-14575
▁lovande	-14576
▁markera	-14577
▁session	-14578
▁utmanar	-14579
sländerna	-14580
▁arranger	-14581
▁astronom	-14582
▁formellt	-14583
▁förlorad	-14584
▁genomgår	-14585
▁karakter	-14586
▁kreativt	-14587
▁kvarstår	-14588
▁passande	-14589
▁räckvidd	-14590
▁symtomen	-14591
▁uppstått	-14592
▁Edinburgh	-14593
▁Parlament	-14594
▁Transport	-14595
▁efterfråg	-14596
▁förbinder	-14597
▁förvandla	-14598
▁mineraler	-14599
▁tillskott	-14600
▁träffades	-14601
▁uppdraget	-14602
försäljning	-14603
tillverkare	-14604
▁akademiker	-14605
▁europeiskt	-14606
▁genombrott	-14607
▁humanitära	-14608
▁utformning	-14609
smyndigheten	-14610
▁fastigheten	-14611
▁föregångare	-14612
▁förteckning	-14613
▁styrelseled	-14614
förbrukningen	-14615
▁självständig	-14616
▁skillnaderna	-14617
▁identifiering	-14618
▁kombinationen	-14619
▁världsledande	-14620
postmeddelanden	-14621
Ex	-14622
Th	-14623
▁­	-14624
App	-14625
eng	-14626
ogs	-14627
ovo	-14628
ryp	-14629
slo	-14630
tri	-14631
uke	-14632
väv	-14633
▁Mi	-14634
NING	-14635
asis	-14636
bian	-14637
dest	-14638
ffin	-14639
inst	-14640
olas	-14641
smak	-14642
ylan	-14643
▁(3)	-14644
▁CIA	-14645
▁Mär	-14646
▁Rio	-14647
▁nag	-14648
▁tav	-14649
count	-14650
ydlig	-14651
ängen	-14652
▁Arth	-14653
▁Buss	-14654
▁Care	-14655
▁Russ	-14656
▁Stad	-14657
▁byar	-14658
▁forn	-14659
▁grip	-14660
▁oupp	-14661
▁rost	-14662
▁skep	-14663
▁sval	-14664
▁triv	-14665
edande	-14666
fonden	-14667
forska	-14668
konton	-14669
ställe	-14670
tabelt	-14671
vation	-14672
▁Brist	-14673
▁Color	-14674
▁Ether	-14675
▁Lägen	-14676
▁Solen	-14677
▁befog	-14678
▁blått	-14679
▁byggs	-14680
▁drink	-14681
▁flöde	-14682
▁hobby	-14683
▁härom	-14684
▁kardi	-14685
▁köpet	-14686
▁ordna	-14687
▁prins	-14688
▁pröva	-14689
▁råkar	-14690
▁skaff	-14691
▁snitt	-14692
▁svett	-14693
sbeslut	-14694
viditet	-14695
ägenhet	-14696
▁Bilden	-14697
▁Bulgar	-14698
▁Vinter	-14699
▁animer	-14700
▁flydde	-14701
▁lovade	-14702
▁tidens	-14703
▁vilsel	-14704
▁ärende	-14705
ektering	-14706
invester	-14707
▁Academy	-14708
▁Beställ	-14709
▁Kvinnan	-14710
▁Swedish	-14711
▁college	-14712
▁drabbar	-14713
▁inledde	-14714
▁internt	-14715
▁jobbade	-14716
▁kameror	-14717
▁kastade	-14718
▁klubbar	-14719
▁kollega	-14720
▁obalans	-14721
▁samfund	-14722
▁sorters	-14723
▁suverän	-14724
▁svaghet	-14725
ventioner	-14726
▁Pakistan	-14727
▁Williams	-14728
▁desperat	-14729
▁instrukt	-14730
▁kritiker	-14731
▁medarbet	-14732
▁rättslig	-14733
▁skapande	-14734
▁tillbaks	-14735
▁trötthet	-14736
▁vinnaren	-14737
▁Bluetooth	-14738
▁Wikipedia	-14739
▁fängelset	-14740
▁handikapp	-14741
▁misstänkt	-14742
▁regelverk	-14743
▁strategin	-14744
▁värdighet	-14745
▁överlever	-14746
▁operatörer	-14747
▁potentiell	-14748
▁sjukvården	-14749
▁uppskattas	-14750
▁civilisation	-14751
▁egenskaperna	-14752
▁elektroniskt	-14753
▁homosexuella	-14754
▁immunförsvar	-14755
▁näringslivet	-14756
▁utrikesminister	-14757
CR	-14758
OK	-14759
åå	-14760
esh	-14761
gia	-14762
him	-14763
hoo	-14764
oar	-14765
ops	-14766
umm	-14767
vux	-14768
ytm	-14769
▁63	-14770
▁PM	-14771
buss	-14772
odox	-14773
olin	-14774
redo	-14775
rets	-14776
sfil	-14777
tons	-14778
udio	-14779
▁15-	-14780
▁Ang	-14781
▁Nil	-14782
▁böj	-14783
▁hom	-14784
▁mur	-14785
▁nöt	-14786
▁ski	-14787
anced	-14788
andes	-14789
eting	-14790
konst	-14791
rivat	-14792
rutan	-14793
ubben	-14794
uslim	-14795
venta	-14796
verna	-14797
yddet	-14798
zonen	-14799
▁1993	-14800
▁Cont	-14801
▁Fruk	-14802
▁Grän	-14803
▁Nike	-14804
▁anli	-14805
▁kläm	-14806
▁pota	-14807
▁slit	-14808
graden	-14809
ingham	-14810
nandet	-14811
ositör	-14812
▁Liban	-14813
▁Liver	-14814
▁Miami	-14815
▁Mount	-14816
▁Regel	-14817
▁champ	-14818
▁lyser	-14819
▁manus	-14820
▁onlin	-14821
▁pizza	-14822
▁stere	-14823
▁tagen	-14824
▁tolka	-14825
ecutive	-14826
hållare	-14827
mästare	-14828
nätverk	-14829
▁Albert	-14830
▁bevitt	-14831
▁döljer	-14832
▁femtio	-14833
▁fonder	-14834
▁fossil	-14835
▁förfal	-14836
▁hemskt	-14837
▁hinner	-14838
▁hotade	-14839
▁kollar	-14840
▁korten	-14841
▁kravet	-14842
▁offren	-14843
▁polska	-14844
▁stängd	-14845
▁säljas	-14846
▁sämsta	-14847
▁tryggt	-14848
▁videok	-14849
alistisk	-14850
direktör	-14851
katastro	-14852
▁behövas	-14853
▁flyttas	-14854
▁halvtim	-14855
▁inbyggd	-14856
▁inifrån	-14857
▁kirurgi	-14858
▁kvalita	-14859
▁moduler	-14860
▁rundtur	-14861
▁samlats	-14862
▁uppstån	-14863
ningssätt	-14864
▁Mountain	-14865
▁antagits	-14866
▁fredagen	-14867
▁fundamen	-14868
▁legitima	-14869
▁utspelar	-14870
läggningen	-14871
sprincipen	-14872
▁Skandinav	-14873
▁Tysklands	-14874
▁asiatiska	-14875
▁fackfören	-14876
▁förnyelse	-14877
▁militären	-14878
▁strukture	-14879
▁synvinkel	-14880
▁besvikelse	-14881
▁karaktären	-14882
▁omvandling	-14883
▁publicerar	-14884
▁tillverkad	-14885
framkallande	-14886
▁anvisningar	-14887
▁världsklass	-14888
▁revolutioner	-14889
▁restriktioner	-14890
▁sekretesspolicy	-14891
CS	-14892
HS	-14893
NG	-14894
OD	-14895
PM	-14896
PU	-14897
TO	-14898
Upp	-14899
cas	-14900
eor	-14901
lay	-14902
rol	-14903
stt	-14904
▁''	-14905
▁(7	-14906
alin	-14907
elly	-14908
krav	-14909
shir	-14910
▁Cop	-14911
▁Ned	-14912
▁alt	-14913
▁avb	-14914
▁enk	-14915
▁nik	-14916
▁non	-14917
▁vre	-14918
ankar	-14919
orial	-14920
ulera	-14921
äning	-14922
▁1994	-14923
▁Line	-14924
▁bund	-14925
▁exam	-14926
▁hava	-14927
▁kosm	-14928
▁läro	-14929
▁slot	-14930
▁tros	-14931
aufför	-14932
recept	-14933
▁Ansök	-14934
▁Index	-14935
▁Integ	-14936
▁Letar	-14937
▁Metro	-14938
▁Stort	-14939
▁Titan	-14940
▁aptit	-14941
▁damer	-14942
▁fördr	-14943
▁grepp	-14944
▁indel	-14945
▁marin	-14946
▁omger	-14947
▁sköta	-14948
▁tävla	-14949
▁väljs	-14950
deklara	-14951
förmåga	-14952
äkterna	-14953
▁Certif	-14954
▁Econom	-14955
▁Tredje	-14956
▁bestod	-14957
▁dödlig	-14958
▁mamman	-14959
▁nämner	-14960
▁sprids	-14961
▁tillit	-14962
▁vägnar	-14963
annonser	-14964
relation	-14965
utrition	-14966
▁Andreas	-14967
[...]
