<unk>	0
<s>	0
</s>	0
.	-3.5264
▁och	-3.88891
▁att	-3.92319
s	-4.1392
▁en	-4.16414
▁är	-4.1881
▁i	-4.18945
▁.	-4.32088
▁för	-4.37012
▁som	-4.39879
▁av	-4.41224
a	-4.41631
▁,	-4.50406
,	-4.53934
▁på	-4.67632
▁det	-4.71151
t	-4.73425
▁till	-4.80749
▁med	-4.88761
▁har	-5.05909
r	-5.07484
▁inte	-5.07487
▁den	-5.10174
▁de	-5.10864
en	-5.14008
▁om	-5.21163
▁du	-5.22344
▁s	-5.25806
▁ett	-5.28417
er	-5.33123
▁kan	-5.34301
▁	-5.45189
▁jag	-5.46201
▁Det	-5.61929
▁eller	-5.62278
n	-5.66753
▁från	-5.7583
▁vi	-5.79232
▁-	-5.79886
na	-5.82143
▁var	-5.83409
e	-5.86619
▁?	-5.88512
-	-5.89143
▁så	-5.90866
▁(	-5.91914
▁"	-5.9596
▁kommer	-6.00425
▁Jag	-6.05514
▁”	-6.16183
de	-6.18039
▁:	-6.21692
▁vara	-6.23483
▁sig	-6.24287
▁man	-6.28607
▁I	-6.3182
ar	-6.33312
▁ska	-6.34073
▁dig	-6.3456
et	-6.35769
▁han	-6.39264
▁alla	-6.39891
▁när	-6.42367
▁här	-6.44518
▁Vi	-6.47651
▁men	-6.48279
▁också	-6.49366
d	-6.49686
▁!	-6.5031
▁Den	-6.50553
▁finns	-6.51389
▁över	-6.51582
▁andra	-6.51907
▁din	-6.54624
▁mer	-6.57354
▁–	-6.59988
▁mig	-6.60141
▁än	-6.61904
▁upp	-6.62072
▁under	-6.62464
▁detta	-6.63527
▁De	-6.6362
▁där	-6.64378
:	-6.64828
▁in	-6.65558
▁bara	-6.65892
▁ut	-6.66623
?	-6.67311
▁mycket	-6.67474
▁ha	-6.69534
▁år	-6.71882
▁vill	-6.72512
)	-6.72603
▁vad	-6.72899
▁er	-6.7541
▁dem	-6.75584
▁En	-6.76213
▁sin	-6.76626
▁göra	-6.76942
▁Men	-6.78504
▁För	-6.83091
▁hur	-6.84246
▁efter	-6.84703
▁gör	-6.85015
▁oss	-6.8677
▁genom	-6.868
▁Du	-6.8734
▁denna	-6.88261
▁Om	-6.88621
▁)	-6.89954
▁skulle	-6.90204
▁...	-6.92298
▁vid	-6.92937
▁få	-6.9467
▁t	-6.99244
▁även	-6.99348
▁måste	-7.01436
▁min	-7.01548
▁många	-7.01819
▁Och	-7.0192
nde	-7.02001
▁nu	-7.02052
▁får	-7.02945
▁hade	-7.03535
▁ta	-7.0434
▁se	-7.05428
▁något	-7.05461
▁någon	-7.07055
▁bra	-7.07323
▁första	-7.09395
y	-7.10896
▁mot	-7.11277
▁dessa	-7.1142
▁a	-7.11778
▁två	-7.16744
▁sätt	-7.18157
▁inom	-7.18613
▁S	-7.18856
▁Han	-7.1964
▁sina	-7.1996
▁utan	-7.21299
▁allt	-7.21325
▁Detta	-7.22125
▁hon	-7.22284
▁När	-7.23069
▁då	-7.23886
!	-7.25484
▁e	-7.25699
▁ni	-7.25886
ning	-7.26396
▁Hur	-7.26579
▁nya	-7.27092
▁människor	-7.27134
ing	-7.27153
▁bli	-7.28551
▁Vad	-7.29857
▁tid	-7.2999
▁ditt	-7.30835
▁mellan	-7.30905
▁del	-7.31074
▁behöver	-7.31884
▁olika	-7.33186
re	-7.33685
▁våra	-7.33775
k	-7.34307
▁hela	-7.34857
▁barn	-7.34866
▁vår	-7.36227
▁säger	-7.36934
▁sedan	-7.37621
▁själv	-7.37823
▁na	-7.3818
▁några	-7.38835
o	-7.39223
▁deras	-7.39227
▁varje	-7.39881
▁dina	-7.39996
▁A	-7.41294
▁dag	-7.4306
▁blir	-7.44751
an	-7.44861
or	-7.47615
▁skall	-7.48221
▁honom	-7.50708
▁samma	-7.51084
▁vet	-7.52168
▁rätt	-7.5277
▁alltid	-7.52831
▁n	-7.5486
▁K	-7.55418
▁sitt	-7.55926
▁o	-7.5747
m	-7.57787
▁världen	-7.57814
▁/	-7.58377
▁liv	-7.59065
ande	-7.59485
▁helt	-7.59948
▁Att	-7.60467
▁ger	-7.61891
▁går	-7.62449
▁information	-7.6326
▁Så	-7.63301
▁varit	-7.64037
▁vilket	-7.64128
▁kunna	-7.64278
▁använda	-7.64316
▁ser	-7.64375
▁gå	-7.64845
▁hans	-7.64972
▁ge	-7.65146
g	-7.66607
▁E	-7.66767
▁bör	-7.67788
▁;	-7.68176
▁ingen	-7.68713
▁bästa	-7.69684
▁bättre	-7.70638
▁1	-7.70821
▁C	-7.71073
▁företag	-7.72955
▁gång	-7.73288
▁annan	-7.73891
▁ny	-7.74174
▁stor	-7.74213
▁Med	-7.74327
▁lite	-7.74896
▁B	-7.75004
▁annat	-7.7607
▁mitt	-7.77151
▁hos	-7.77226
▁Var	-7.77619
▁).	-7.77975
▁2	-7.78258
▁mest	-7.78312
▁aldrig	-7.78371
▁fram	-7.78681
▁tre	-7.79354
▁Har	-7.80071
▁komma	-7.80597
▁T	-7.80748
▁dess	-7.81327
erna	-7.8141
it	-7.82171
▁F	-7.82386
▁tar	-7.82505
▁M	-7.82624
▁eftersom	-7.84479
▁stora	-7.84596
▁flera	-7.84617
▁3	-7.85814
▁blev	-7.85925
▁hitta	-7.86626
▁Ett	-7.86769
▁Gud	-7.86788
▁samt	-7.87783
▁grund	-7.87862
l	-7.87979
▁På	-7.88415
in	-7.88735
▁ar	-7.88829
▁ju	-7.89117
▁10	-7.89378
▁enligt	-7.90008
i	-7.90029
▁tror	-7.90611
▁verkligen	-7.90949
▁innan	-7.90998
▁bort	-7.90998
▁tillbaka	-7.91512
▁P	-7.92354
▁gäller	-7.92378
h	-7.92864
▁fall	-7.93716
▁kom	-7.93924
▁hem	-7.94426
▁O	-7.94589
▁Är	-7.94679
▁“	-7.95562
▁spel	-7.9581
▁of	-7.9582
▁Där	-7.96403
are	-7.97024
▁fick	-7.98071
▁5	-7.98291
▁Hon	-7.98454
p	-7.98489
▁Alla	-7.98515
▁d	-7.99016
▁väl	-7.9952
▁kunde	-7.99638
▁G	-7.9985
▁kanske	-7.99943
▁problem	-8.01304
▁r	-8.01431
▁produkter	-8.01775
▁personer	-8.0187
▁Som	-8.02343
het	-8.02414
▁både	-8.03029
▁hjälp	-8.03378
▁använder	-8.03973
▁saker	-8.0441
▁säga	-8.04498
▁plats	-8.04508
on	-8.04542
▁igen	-8.0459
▁exempel	-8.05156
▁ofta	-8.05768
▁åt	-8.05791
/	-8.06085
▁Nu	-8.06589
▁USA	-8.06946
▁dock	-8.06949
ligger	-8.07107
c	-8.07163
▁redan	-8.07196
▁tiden	-8.08008
▁idag	-8.08501
▁EU	-8.08676
▁mindre	-8.09392
▁fortfarande	-8.09654
▁ner	-8.09845
▁tidigare	-8.09974
▁Här	-8.10107
▁mina	-8.10186
▁system	-8.10802
▁tillsammans	-8.10893
▁Varför	-8.11198
▁endast	-8.11391
da	-8.11409
▁vissa	-8.1179
▁procent	-8.11948
▁väldigt	-8.11975
ade	-8.12366
al	-8.12489
el	-8.12816
▁4	-8.12934
v	-8.12983
▁vatten	-8.13409
▁Man	-8.13852
▁bland	-8.15314
▁hjälpa	-8.158
▁pengar	-8.15884
▁be	-8.16851
▁möjligt	-8.17402
▁längre	-8.175
te	-8.17566
▁gjort	-8.18724
▁R	-8.19088
▁största	-8.19331
us	-8.19778
▁folk	-8.20106
▁artikel	-8.20132
2	-8.20907
▁enda	-8.21052
▁land	-8.21129
▁skapa	-8.21344
▁dagar	-8.21364
▁namn	-8.21481
▁känner	-8.21554
▁Dess	-8.21661
▁D	-8.21908
▁därför	-8.22056
▁The	-8.22521
▁ord	-8.22566
▁stöd	-8.22684
▁stå	-8.22808
▁arbete	-8.23229
▁tjänster	-8.23355
▁mål	-8.241
at	-8.24345
▁henne	-8.24932
▁vårt	-8.25177
▁person	-8.25264
D	-8.25315
▁Under	-8.26116
▁H	-8.2628
▁används	-8.26604
▁väg	-8.27245
▁an	-8.27395
▁egen	-8.27626
ad	-8.27807
▁fråga	-8.28345
▁visar	-8.28392
▁gjorde	-8.28433
▁fel	-8.2844
▁Kan	-8.287
▁flesta	-8.29185
▁kvinnor	-8.29198
▁viktigt	-8.29272
▁livet	-8.29523
▁[	-8.29702
▁data	-8.29828
▁Vilk	-8.30643
▁mat	-8.30855
3	-8.31031
för	-8.3115
▁större	-8.31241
▁20	-8.31278
▁ur	-8.31356
S	-8.31687
▁L	-8.32141
▁program	-8.32158
▁hand	-8.32169
▁kort	-8.32494
▁hög	-8.32741
▁form	-8.33633
▁hålla	-8.3375
▁000	-8.33911
▁ännu	-8.34232
▁fler	-8.34323
▁”.	-8.34544
▁typ	-8.34919
▁innebär	-8.34966
▁börjar	-8.35063
▁runt	-8.35113
▁varför	-8.35741
ra	-8.35765
▁per	-8.35867
▁vilken	-8.35945
▁nära	-8.36216
▁själva	-8.36674
▁senaste	-8.36908
▁Till	-8.37038
A	-8.37934
▁hennes	-8.38083
▁frågor	-8.39236
▁enkelt	-8.3937
▁'	-8.39907
▁direkt	-8.40865
▁dagen	-8.40903
▁älskar	-8.41047
la	-8.41135
arna	-8.41271
▁beslut	-8.41301
▁fått	-8.41399
▁blivit	-8.41431
▁&	-8.41548
▁länder	-8.41624
▁tycker	-8.41792
"	-8.41794
▁lika	-8.42003
ma	-8.42088
▁f	-8.42149
▁nästan	-8.42441
▁vilka	-8.4251
▁erbjuder	-8.42777
▁energi	-8.42972
▁b	-8.43208
▁inget	-8.43588
▁6	-8.43862
▁särskilt	-8.43981
▁15	-8.44062
▁et	-8.44133
B	-8.4447
▁länge	-8.44716
▁Efter	-8.44948
u	-8.44987
le	-8.45365
j	-8.45635
▁utveckling	-8.45807
▁lätt	-8.45915
▁senare	-8.45972
▁Se	-8.4601
▁Ja	-8.46371
▁icke	-8.46471
▁Sverige	-8.46709
▁V	-8.46827
▁30	-8.46961
▁före	-8.4706
ck	-8.47121
ig	-8.47361
▁året	-8.47427
▁Inte	-8.47745
▁),	-8.47769
▁all	-8.48079
▁m	-8.48342
▁miljoner	-8.48759
b	-8.489
▁fyra	-8.48942
▁gånger	-8.49053
▁händer	-8.49103
▁lära	-8.49334
es	-8.49426
▁sa	-8.49566
▁slut	-8.49805
▁miljö	-8.49904
▁gick	-8.50067
▁små	-8.50244
▁Även	-8.50649
je	-8.50823
▁W	-8.51017
▁projekt	-8.5104
▁sade	-8.51158
▁12	-8.51253
▁dom	-8.51333
om	-8.5134
▁delar	-8.51457
x	-8.52024
▁veta	-8.5266
▁just	-8.5278
▁faktiskt	-8.52964
▁började	-8.53006
▁7	-8.53211
T	-8.53521
▁val	-8.53668
▁såg	-8.53832
▁fem	-8.53858
▁nytt	-8.54253
▁behov	-8.54359
▁and	-8.54532
C	-8.54705
▁spela	-8.5504
▁köpa	-8.55181
▁gången	-8.55188
era	-8.55504
▁minst	-8.55603
I	-8.55769
▁online	-8.55912
G	-8.56131
▁kunder	-8.56184
▁erna	-8.56255
um	-8.56462
”	-8.56551
▁åtgärder	-8.5684
f	-8.56856
▁hus	-8.5695
▁först	-8.56952
▁Min	-8.57217
▁bil	-8.57438
▁par	-8.57454
▁stort	-8.57634
▁vänner	-8.57805
▁välja	-8.58041
vis	-8.58085
▁känna	-8.5844
▁Allt	-8.58442
sk	-8.58729
▁arbeta	-8.58828
▁U	-8.58912
▁p	-8.59126
▁".	-8.59214
▁egna	-8.59293
▁män	-8.59362
▁båda	-8.59436
▁sidan	-8.598
▁varandra	-8.59809
▁håller	-8.59812
▁the	-8.59914
▁handlar	-8.60082
E	-8.60238
▁uppgifter	-8.60267
▁resultat	-8.60275
▁c	-8.60283
▁bok	-8.60338
▁Europa	-8.60381
▁g	-8.60408
5	-8.60415
talet	-8.60504
Jag	-8.60522
▁nästa	-8.60562
▁emot	-8.60757
▁arbetar	-8.60807
▁Då	-8.61285
▁tog	-8.61429
▁8	-8.61481
6	-8.61627
▁rum	-8.6172
▁medan	-8.61948
▁timmar	-8.62136
▁N	-8.6218
▁snabbt	-8.62514
▁användning	-8.62735
▁liten	-8.62806
▁inga	-8.63019
ex	-8.63226
▁Ta	-8.63279
▁re	-8.63281
1	-8.63585
▁bild	-8.63699
▁steg	-8.63883
L	-8.63908
▁svårt	-8.63969
▁produkt	-8.64741
▁följande	-8.64763
▁18	-8.64824
▁staden	-8.64975
▁Mång	-8.64988
▁sex	-8.65287
▁kvar	-8.65329
▁material	-8.65575
▁hjälper	-8.65638
▁inför	-8.65747
▁riktigt	-8.66035
▁marknaden	-8.66145
▁sett	-8.66326
▁teknik	-8.66336
F	-8.66469
▁In	-8.6655
▁innehåller	-8.66586
▁ytterligare	-8.66807
▁Ni	-8.66876
R	-8.66901
P	-8.66965
▁förbättra	-8.67188
▁tro	-8.67481
ne	-8.6754
▁via	-8.67573
▁visa	-8.67644
▁tillgång	-8.67804
▁lång	-8.6784
▁dra	-8.68136
▁minuter	-8.68187
▁öka	-8.68236
▁känd	-8.68275
▁läsa	-8.68311
4	-8.68336
▁bilder	-8.68338
▁början	-8.6845
▁Läs	-8.68633
▁.”	-8.69044
▁jobb	-8.69198
▁antal	-8.69239
▁möjlighet	-8.69397
▁verksamhet	-8.69414
▁%	-8.69674
▁precis	-8.69772
▁helst	-8.70201
▁lämna	-8.70331
▁fungerar	-8.70331
▁sådana	-8.70346
▁nog	-8.70354
▁inklusive	-8.70401
▁sådan	-8.71038
▁området	-8.71073
▁sista	-8.71345
▁k	-8.71605
ka	-8.71629
iska	-8.71677
▁tredje	-8.71697
ste	-8.7181
▁långt	-8.71813
▁resa	-8.71842
▁ansvar	-8.71934
▁borde	-8.71986
is	-8.72002
▁lag	-8.72066
▁behandling	-8.72204
▁Guds	-8.7243
▁betyder	-8.72546
▁Re	-8.72921
ce	-8.72973
▁gamla	-8.73065
▁skicka	-8.732
▁betala	-8.73608
▁åter	-8.74132
▁kontroll	-8.74164
▁gillar	-8.74185
▁sak	-8.74544
▁samtidigt	-8.74633
▁familj	-8.74976
▁film	-8.75279
▁haft	-8.75474
▁historia	-8.7578
lig	-8.7579
ska	-8.75812
M	-8.7583
▁11	-8.75889
▁16	-8.7599
▁börja	-8.7612
▁djur	-8.76266
▁•	-8.7628
ation	-8.76299
se	-8.76352
▁områden	-8.76422
▁nivå	-8.76587
▁internationella	-8.76639
▁förstå	-8.76888
▁landet	-8.76956
▁fri	-8.77321
▁världens	-8.77324
id	-8.7741
z	-8.77599
▁alternativ	-8.7775
▁vem	-8.78014
▁kärlek	-8.78068
▁huvud	-8.78217
▁verkar	-8.78384
▁musik	-8.78423
▁vilja	-8.78513
▁nå	-8.78691
▁språk	-8.78713
▁användas	-8.78801
▁högre	-8.79401
▁framför	-8.79743
▁Elle	-8.79889
▁god	-8.80045
▁någonsin	-8.80267
▁svar	-8.80519
▁13	-8.80566
▁ljus	-8.80643
K	-8.80646
▁»	-8.80648
▁enlighet	-8.80945
▁ganska	-8.80976
▁spelare	-8.81104
▁forskning	-8.81126
▁Seda	-8.81192
▁Jesus	-8.81203
▁ned	-8.81268
▁fanns	-8.81435
▁vanligt	-8.81457
ed	-8.81723
▁tänka	-8.8198
▁risk	-8.82006
▁sida	-8.8216
▁bor	-8.82255
▁pris	-8.82368
▁vidare	-8.82429
▁roll	-8.82479
▁månader	-8.82495
▁utveckla	-8.82602
▁grupp	-8.82616
▁såsom	-8.82868
il	-8.83113
▁design	-8.83232
▁sociala	-8.83496
▁New	-8.83543
▁”,	-8.83579
▁bo	-8.83602
▁25	-8.84368
▁kallas	-8.8473
▁vägen	-8.84805
▁alltså	-8.84876
▁vän	-8.84981
▁50	-8.85044
▁Låt	-8.85221
▁hemma	-8.85579
▁äta	-8.85637
▁titta	-8.85914
▁ville	-8.85951
▁lär	-8.86006
▁rättigheter	-8.86018
▁skriva	-8.86277
▁kräver	-8.86579
▁fast	-8.86999
▁100	-8.87219
▁systemet	-8.87369
▁14	-8.87445
▁utbildning	-8.8747
▁framtid	-8.87498
▁kraft	-8.87523
▁lägga	-8.87838
▁ändra	-8.87854
▁spelar	-8.87906
7	-8.87978
▁utanför	-8.88012
]	-8.88043
▁Av	-8.88063
▁lever	-8.88192
ic	-8.8839
▁ibland	-8.88456
▁krävs	-8.88726
▁personlig	-8.88726
▁krav	-8.88793
▁tillräckligt	-8.88826
▁heller	-8.88952
▁webbplats	-8.89607
▁försöker	-8.89812
▁område	-8.89862
▁’	-8.90249
▁kontakt	-8.9054
▁Vill	-8.90618
▁rör	-8.90662
▁jorden	-8.90686
▁död	-8.90712
▁",	-8.91182
▁Vem	-8.9122
▁användare	-8.91251
▁typer	-8.91285
▁råd	-8.91305
▁17	-8.91322
▁9	-8.91675
9	-8.91682
▁bygga	-8.91868
▁sagt	-8.91973
▁värld	-8.92133
▁Din	-8.92239
▁Genom	-8.92272
▁kontrollera	-8.92534
▁leva	-8.92579
ry	-8.92678
H	-8.92678
▁följa	-8.92757
▁*	-8.92821
8	-8.9317
▁."	-8.93193
▁ändå	-8.93201
▁åren	-8.93468
ö	-8.93627
▁minska	-8.93638
▁Be	-8.93697
▁hälsa	-8.93938
▁regler	-8.94045
▁slutet	-8.94149
▁Dessutom	-8.94193
▁prata	-8.94376
▁säkerhet	-8.944
▁full	-8.94402
▁vecka	-8.94447
▁Vid	-8.94539
ör	-8.94768
▁hel	-8.94814
▁skriver	-8.95218
▁kommit	-8.95259
▁bidra	-8.95336
▁fortsätta	-8.95368
ur	-8.95369
▁Kina	-8.9545
Det	-8.95531
▁verktyg	-8.95601
▁värde	-8.96061
▁amerikanska	-8.96072
▁Ingen	-8.96195
▁fortsätter	-8.96258
▁säker	-8.96769
▁Google	-8.96856
▁snart	-8.96883
▁ihåg	-8.97235
▁bäst	-8.97326
▁tagit	-8.97473
N	-8.97483
▁färg	-8.97566
▁viktig	-8.97685
▁Från	-8.97694
▁dela	-8.97755
▁beroende	-8.97822
▁erfarenhet	-8.97859
ia	-8.98206
▁tänker	-8.98226
▁ca	-8.98286
ve	-8.98343
ion	-8.98559
▁säkerhets	-8.98921
▁punkt	-8.99248
▁gratis	-8.99392
pp	-8.9948
med	-8.99557
▁öppna	-8.99557
ering	-8.99797
▁h	-8.99905
li	-8.99942
å	-8.99947
iga	-9.00092
▁företaget	-9.00252
▁mamma	-9.00448
ke	-9.00514
ol	-9.00587
▁gav	-9.00674
ligen	-9.00716
tal	-9.00782
▁kunskap	-9.01062
▁frågan	-9.01069
▁ja	-9.01204
▁eget	-9.01447
▁kroppen	-9.01475
▁extra	-9.01563
▁Tack	-9.01587
▁ing	-9.01652
▁kvinna	-9.01758
isk	-9.02109
▁nde	-9.02427
▁lösningar	-9.02432
▁platser	-9.02645
▁låg	-9.02754
▁hoppas	-9.02831
▁skada	-9.03167
▁plan	-9.03525
O	-9.03779
▁tillstånd	-9.03821
▁döda	-9.03842
▁ekonomiska	-9.04566
▁19	-9.04721
▁nätverk	-9.04952
▁väljer	-9.05128
▁års	-9.0521
▁kvalitet	-9.05222
▁skydda	-9.05383
▁villkor	-9.05386
▁bakom	-9.05467
▁son	-9.05486
▁l	-9.05813
▁framtiden	-9.05934
▁veckan	-9.05957
▁ute	-9.06134
▁St	-9.06324
▁följer	-9.06328
▁låter	-9.06357
▁stad	-9.06557
▁säkert	-9.06648
▁berätta	-9.06719
▁Europeiska	-9.06834
▁funktioner	-9.06952
▁Mer	-9.06984
▁viktiga	-9.0706
man	-9.07229
▁tala	-9.07359
▁behövs	-9.07642
lo	-9.07756
▁service	-9.07885
▁tur	-9.07901
stående	-9.07911
▁egentligen	-9.07926
▁innehåll	-9.07979
▁viss	-9.08
else	-9.08076
▁gått	-9.08091
V	-9.08128
▁Viss	-9.08302
▁J	-9.08324
▁40	-9.0861
w	-9.08679
▁läkare	-9.08753
eller	-9.08793
▁Tänk	-9.09046
▁avtal	-9.09274
va	-9.09289
▁behandla	-9.09358
▁tio	-9.09465
ti	-9.09468
▁skolan	-9.09488
▁behöva	-9.09637
▁möjligheter	-9.09701
▁leda	-9.09865
'	-9.1001
▁kropp	-9.10043
▁istället	-9.10168
▁studie	-9.10346
▁Idag	-9.10625
▁for	-9.10717
▁förordning	-9.10813
▁äldre	-9.1083
▁nationella	-9.11077
▁Enlig	-9.11104
os	-9.11335
▁veckor	-9.11433
▁hotell	-9.11511
liga	-9.11533
▁rad	-9.11556
▁goda	-9.11624
ist	-9.11741
▁ålder	-9.11813
ton	-9.11899
▁tillgängliga	-9.11929
▁syfte	-9.11945
▁medel	-9.11955
▁månad	-9.12021
▁liknande	-9.12081
▁tack	-9.1209
▁finnas	-9.12247
▁gott	-9.12408
ul	-9.12693
▁arbets	-9.12746
▁ifrån	-9.12824
▁Al	-9.12903
▁ögon	-9.13043
▁samhället	-9.13259
▁Ha	-9.13263
▁skapar	-9.13421
▁trots	-9.13529
▁hantera	-9.13584
▁närheten	-9.14432
▁förstår	-9.14437
▁era	-9.14465
▁politiska	-9.14686
kt	-9.14878
▁el	-9.15031
▁dator	-9.15082
▁böcker	-9.15112
Vi	-9.15412
▁24	-9.1543
▁igenom	-9.15522
▁säkerställa	-9.15551
▁ställe	-9.15567
▁kring	-9.15614
▁sätta	-9.15675
▁al	-9.15751
ik	-9.16059
▁Vår	-9.16105
anske	-9.16246
▁Nästa	-9.16257
▁klart	-9.163
▁låt	-9.16323
▁personuppgifter	-9.16382
▁boken	-9.16648
▁Y	-9.16654
▁å	-9.1672
▁människa	-9.16799
▁makt	-9.16803
▁samarbete	-9.16827
ge	-9.16906
▁tjänst	-9.16935
▁samband	-9.17017
▁studier	-9.17381
ja	-9.17387
▁lista	-9.17469
▁sjukdom	-9.17473
▁viktigaste	-9.17709
▁]	-9.17716
▁video	-9.17877
▁delen	-9.1799
to	-9.18093
▁kultur	-9.18214
U	-9.18217
▁gammal	-9.1859
▁perfekt	-9.18634
ro	-9.18676
▁hör	-9.1872
▁svenska	-9.18735
▁spelet	-9.1877
▁träd	-9.18952
ng	-9.19178
▁tillväxt	-9.19394
▁X	-9.19624
▁kommissionen	-9.19713
▁lokala	-9.19816
▁skillnad	-9.1984
▁on	-9.20048
▁te	-9.20094
▁+	-9.20107
▁intresse	-9.20107
▁tag	-9.20173
▁cirka	-9.20259
▁skydd	-9.203
▁erbjuda	-9.20391
ri	-9.20643
▁leder	-9.20678
▁sättet	-9.2106
▁rådet	-9.21109
▁förmåga	-9.21254
▁y	-9.21487
▁rädda	-9.21515
▁försöka	-9.21531
▁möte	-9.21565
ie	-9.21598
▁vinna	-9.21679
emot	-9.21716
ll	-9.21797
▁omkring	-9.21926
▁anställda	-9.22042
▁grupper	-9.22131
▁La	-9.22281
▁besök	-9.22349
▁flyg	-9.22359
▁$	-9.22412
▁Hel	-9.22433
▁funktion	-9.22474
▁påverkar	-9.22478
▁slå	-9.22491
▁föräldrar	-9.22586
▁mänskliga	-9.22618
▁Finn	-9.22676
▁uppnå	-9.23054
▁höra	-9.23129
▁låta	-9.2332
▁arbetet	-9.2341
▁het	-9.23411
▁ungefär	-9.23612
▁undvika	-9.23668
▁organisationer	-9.2375
▁nödvändigt	-9.23781
ism	-9.23819
▁känns	-9.23846
▁fysisk	-9.23965
▁klimat	-9.24164
▁grundläggande	-9.24433
▁skäl	-9.24567
▁Na	-9.24625
▁ton	-9.24704
▁vikt	-9.24832
ut	-9.24905
▁affärs	-9.24936
▁hår	-9.24967
▁orsaka	-9.2502
itet	-9.25129
▁högsta	-9.2513
▁hjärta	-9.25155
▁programmet	-9.25384
▁mängd	-9.25438
▁antalet	-9.25481
▁gärn	-9.25481
▁Ska	-9.2553
▁medlemmar	-9.25533
▁konto	-9.25552
%	-9.25603
▁stället	-9.25608
▁lösning	-9.25635
▁to	-9.25763
▁Ut	-9.25854
▁dollar	-9.26108
▁arna	-9.26212
▁sådant	-9.26218
▁kund	-9.26263
▁lösa	-9.26341
▁ihop	-9.26516
▁oavsett	-9.26686
▁huset	-9.26762
ot	-9.26796
▁består	-9.269
▁natur	-9.27042
▁regeringen	-9.27057
iv	-9.27129
▁maj	-9.27383
▁förändringar	-9.27449
▁sker	-9.27503
▁barnen	-9.27538
▁21	-9.27628
▁unionen	-9.27672
▁närvarande	-9.27694
▁favorit	-9.27869
▁Hans	-9.27894
▁patienter	-9.27934
▁europeiska	-9.27955
▁Kom	-9.27962
▁naturlig	-9.27966
▁anges	-9.282
▁Kommer	-9.28218
▁ej	-9.28218
▁Finland	-9.28503
▁post	-9.28659
▁läkemedel	-9.28774
▁aktiv	-9.28948
ga	-9.29171
▁organisation	-9.29268
▁sju	-9.295
▁Sa	-9.29536
▁personal	-9.29586
▁nummer	-9.29599
▁ande	-9.29669
▁utgör	-9.29743
▁internet	-9.29851
▁visade	-9.29867
▁söker	-9.29989
▁speciellt	-9.30265
▁utvecklingen	-9.30426
▁Windows	-9.30525
▁—	-9.30525
am	-9.30558
▁!!	-9.30599
▁Le	-9.30955
▁fördelar	-9.31009
mp	-9.31052
▁fullt	-9.31054
▁brott	-9.3121
▁enheter	-9.31221
▁fortsatt	-9.3127
▁sluta	-9.31336
▁unga	-9.31428
▁Eftersom	-9.31722
▁producera	-9.31786
▁säkra	-9.31805
ä	-9.32144
▁tecken	-9.32179
no	-9.3226
▁vanliga	-9.32399
▁tal	-9.32417
▁partner	-9.32556
▁höga	-9.32602
▁familjen	-9.32635
▁60	-9.3296
▁tillhör	-9.33027
▁John	-9.33052
liksom	-9.33062
▁forsknings	-9.33148
land	-9.33194
▁jämför	-9.33212
▁engelska	-9.33305
▁ledande	-9.33448
▁förändring	-9.33495
▁nuvarande	-9.33519
▁karriär	-9.3364
▁vänta	-9.33682
des	-9.33745
▁positiv	-9.33828
▁håll	-9.33946
▁Få	-9.34017
▁namnet	-9.3403
ell	-9.34057
▁TV	-9.3419
▁York	-9.34397
▁aktiviteter	-9.34398
▁rekommendera	-9.34529
▁nr	-9.34583
▁universitet	-9.34831
▁dags	-9.34853
▁konst	-9.34872
com	-9.34911
▁visas	-9.34926
▁Tro	-9.34998
▁direktiv	-9.35007
go	-9.35018
▁dessutom	-9.35035
é	-9.35087
▁hund	-9.35258
▁metoder	-9.35265
▁förhållande	-9.3529
ras	-9.35447
som	-9.35485
▁baserad	-9.35491
▁talar	-9.35495
▁tas	-9.35531
▁Använd	-9.35645
▁Över	-9.35758
▁kr	-9.35911
▁verk	-9.36166
di	-9.36256
mo	-9.36292
▁ledare	-9.36309
▁Storbritannien	-9.36391
▁ökar	-9.36395
▁december	-9.36546
bart	-9.36546
▁tekniska	-9.36551
▁ingenting	-9.36563
▁juni	-9.3657
▁Facebook	-9.36701
ch	-9.36767
▁ljud	-9.36992
▁tjäna	-9.37106
▁lagen	-9.37202
▁ex	-9.37213
be	-9.37246
W	-9.37436
▁at	-9.37573
▁standard	-9.37631
än	-9.37825
▁vackra	-9.37882
▁la	-9.37931
▁far	-9.3796
▁stanna	-9.38056
▁högt	-9.38234
▁sälja	-9.38358
▁förslag	-9.38398
▁Stockholm	-9.38429
▁vård	-9.38448
▁Tyskland	-9.38742
▁alls	-9.38836
▁antingen	-9.38907
ha	-9.38936
▁Bo	-9.3894
▁president	-9.38943
▁bestämmelser	-9.3901
▁samman	-9.39056
▁Andra	-9.39077
▁fokus	-9.39095
▁forskare	-9.39211
▁Ryssland	-9.39219
th	-9.39342
▁försök	-9.39353
▁studenter	-9.39768
är	-9.39784
▁enhet	-9.40038
▁ingår	-9.40061
▁cancer	-9.40088
▁någonting	-9.40213
▁ställa	-9.40251
▁produktion	-9.40262
▁period	-9.40311
▁kommunikation	-9.4036
▁Israel	-9.40525
▁glad	-9.40531
▁beror	-9.40646
▁förra	-9.40791
▁Z	-9.40803
▁kul	-9.40811
▁absolut	-9.40825
▁barnet	-9.40911
▁främja	-9.41058
▁processen	-9.41226
▁bar	-9.41351
ver	-9.41356
▁2018	-9.41456
▁London	-9.41475
▁heter	-9.41513
▁fungera	-9.41526
▁klass	-9.4165
▁22	-9.41771
▁visste	-9.41859
▁politik	-9.42058
▁leta	-9.42098
▁exakt	-9.4223
▁ensam	-9.42267
▁anser	-9.42351
▁syn	-9.42402
▁Internet	-9.4246
▁röst	-9.4248
▁skrev	-9.42511
▁framgång	-9.42562
▁bilden	-9.42591
▁januari	-9.42623
▁lilla	-9.42959
▁lägre	-9.42959
▁globala	-9.4301
▁or	-9.4312
▁mars	-9.43128
ak	-9.43148
▁Gör	-9.43224
ir	-9.4342
▁Hoppa	-9.43529
▁Jo	-9.43533
▁chef	-9.43564
▁krig	-9.43571
▁extrem	-9.43617
▁blod	-9.43712
▁Pro	-9.43765
▁september	-9.43784
▁betydelse	-9.43787
▁redo	-9.43792
▁bevis	-9.43858
▁snabb	-9.44104
▁anledning	-9.44145
’	-9.4417
ca	-9.44203
▁leverera	-9.44221
▁ber	-9.44295
▁speciell	-9.44416
▁stark	-9.44439
▁tips	-9.44454
▁lyssna	-9.44557
▁filmen	-9.44616
▁kör	-9.4468
EG	-9.44705
▁utrustning	-9.44717
▁process	-9.44805
me	-9.44809
lar	-9.44818
▁menar	-9.44981
ligt	-9.4499
▁Våra	-9.45067
▁blogg	-9.45112
▁medlemsstaterna	-9.45123
▁Följ	-9.45127
▁anses	-9.45129
▁tankar	-9.45269
▁bidrag	-9.45415
▁kostnader	-9.45579
▁tillgänglig	-9.45727
▁centrum	-9.45806
do	-9.45811
▁transport	-9.45828
fattande	-9.45829
po	-9.45869
val	-9.45891
▁kontakta	-9.45896
▁utmärkt	-9.45909
▁23	-9.45912
▁kväll	-9.45972
▁berättar	-9.46007
▁ämnen	-9.46028
▁lägger	-9.46068
▁webbplatsen	-9.4615
0	-9.46161
▁effekt	-9.46228
son	-9.46235
▁euro	-9.46274
▁njuta	-9.4629
▁bär	-9.46296
▁kallade	-9.46348
▁vare	-9.46459
op	-9.46474
▁handla	-9.46529
co	-9.46704
▁påverka	-9.46868
▁Bara	-9.46901
▁främst	-9.47007
▁havet	-9.4711
▁v	-9.47172
▁projektet	-9.47291
▁Mo	-9.47293
▁dokument	-9.47315
▁kolla	-9.47351
▁gemensamma	-9.4736
sta	-9.47375
Några	-9.47418
▁social	-9.47431
▁militär	-9.47457
▁världs	-9.47496
▁are	-9.47573
▁uppdrag	-9.47581
▁visat	-9.47601
▁egenskaper	-9.47738
▁effektivt	-9.47775
▁motsvara	-9.47958
▁uttryck	-9.48044
pa	-9.48048
▁Bra	-9.48086
▁avses	-9.48146
▁levande	-9.48209
▁marknads	-9.48212
post	-9.48274
▁natt	-9.48395
▁David	-9.48462
▁avseende	-9.48483
▁kyrkan	-9.48514
▁text	-9.48584
▁lämnar	-9.48715
▁Ibland	-9.48742
▁miljarder	-9.48818
▁ning	-9.4887
▁inre	-9.48935
▁öppen	-9.49093
▁webbplatser	-9.49103
▁modern	-9.49111
▁riktig	-9.492
ty	-9.49214
▁må	-9.49333
▁morgon	-9.49458
ling	-9.49466
▁analys	-9.4947
▁köp	-9.49531
rän	-9.49569
▁nivåer	-9.49615
▁priset	-9.49672
ly	-9.49728
uropaparlamentet	-9.49786
▁Två	-9.4983
▁delta	-9.50037
▁km	-9.50268
▁känsla	-9.50344
▁trodde	-9.50352
▁Park	-9.5036
bar	-9.50423
▁brist	-9.50428
▁meter	-9.50514
▁2017	-9.5059
▁gruppen	-9.50657
▁tryck	-9.50744
▁resurser	-9.50954
▁önskar	-9.51025
▁:)	-9.51242
ster	-9.51376
▁FN	-9.51656
▁ekonomi	-9.51667
▁förhindra	-9.51678
▁gälla	-9.51746
▁University	-9.52129
▁sport	-9.52154
▁inne	-9.52384
▁spara	-9.52395
▁slag	-9.524
▁2015	-9.52492
▁organ	-9.52526
▁äter	-9.5261
▁produkten	-9.52643
▁Frankrike	-9.52675
▁annorlunda	-9.52675
▁oktober	-9.52675
▁förvänta	-9.52717
▁ovan	-9.52854
▁oberoende	-9.52861
▁Go	-9.52895
▁kände	-9.53017
▁kläder	-9.53042
▁spännande	-9.53078
▁Å	-9.53129
▁27	-9.53227
▁ladda	-9.53386
▁Nya	-9.53442
im	-9.53469
▁lärare	-9.53502
▁vin	-9.53582
▁strategi	-9.53665
▁team	-9.53797
▁offentliga	-9.53807
▁bank	-9.53845
▁personen	-9.53855
▁An	-9.54016
▁28	-9.54131
▁bygger	-9.54151
▁reda	-9.54181
▁folket	-9.5426
▁telefon	-9.54315
▁500	-9.54358
▁söka	-9.54501
▁>	-9.54623
▁fallet	-9.54649
▁bad	-9.54666
▁artiklar	-9.547
▁År	-9.54726
▁Upp	-9.54742
▁åka	-9.54744
▁test	-9.54749
▁privat	-9.54851
▁föremål	-9.54898
▁tidigt	-9.55033
▁ske	-9.55149
▁utnyttja	-9.55169
▁undantag	-9.55291
▁sidor	-9.55296
▁tillhandahålla	-9.55373
▁undra	-9.55417
▁finansiella	-9.55522
▁lån	-9.55523
▁hjärtat	-9.55549
▁budget	-9.55803
▁lokal	-9.55803
▁Tre	-9.55938
▁ges	-9.56008
▁sk	-9.56117
▁besöka	-9.56121
▁ren	-9.56163
▁ung	-9.56173
▁inkluderar	-9.56313
▁myndigheter	-9.56361
▁Pi	-9.56445
▁försäljning	-9.56485
▁garantera	-9.56513
▁frihet	-9.56517
▁Di	-9.56526
gg	-9.5655
▁fantastiska	-9.56635
▁26	-9.56717
▁bolaget	-9.56745
▁kommande	-9.56812
▁bilen	-9.56829
▁mannen	-9.5694
▁2014	-9.57252
▁rädd	-9.57338
▁?”	-9.5753
tor	-9.57568
▁enkla	-9.57736
▁band	-9.57739
gen	-9.57751
▁0	-9.57773
▁älska	-9.57784
▁dö	-9.5806
▁populära	-9.58105
▁inlägg	-9.58123
▁storlek	-9.58177
▁Sen	-9.58248
▁?"	-9.5828
▁mor	-9.58291
▁jobbet	-9.58342
▁bilar	-9.58503
▁poäng	-9.58677
▁vuxna	-9.58686
mi	-9.58854
▁San	-9.58879
▁internationell	-9.58928
▁känslor	-9.59026
▁Apple	-9.59287
▁200	-9.59376
bo	-9.59392
▁2016	-9.594
▁snabbare	-9.59544
▁jord	-9.59575
▁Trots	-9.59677
▁meddelande	-9.59789
▁verkliga	-9.60038
▁gas	-9.60059
▁hantering	-9.60079
▁köra	-9.60101
vi	-9.60233
▁kompetens	-9.60254
▁fin	-9.60279
der	-9.6041
▁dotter	-9.60443
▁Fler	-9.60472
▁natten	-9.60512
▁långa	-9.60553
▁Ge	-9.60557
▁specifika	-9.60576
▁kapital	-9.60584
▁hälso	-9.60676
▁litet	-9.60734
▁uppgift	-9.60752
▁stödja	-9.60886
▁skapat	-9.61027
▁idéer	-9.61028
▁värme	-9.61029
▁åtminstone	-9.61037
▁vapen	-9.61057
▁brukar	-9.61067
▁mark	-9.61224
▁starta	-9.61238
▁identifiera	-9.61314
▁luft	-9.61373
▁ad	-9.6139
▁gett	-9.61477
▁förändra	-9.61535
▁näm	-9.61553
▁pro	-9.61697
▁sjukdomar	-9.6181
X	-9.61838
▁stil	-9.61931
▁våld	-9.61997
▁stod	-9.62083
▁stress	-9.62125
▁bolag	-9.62216
▁kl	-9.62277
ff	-9.62311
ven	-9.62364
▁klar	-9.62423
▁moderna	-9.62451
▁upplevelse	-9.62466
▁#	-9.62476
ant	-9.62502
▁tanke	-9.62603
ningar	-9.62671
▁värd	-9.62717
▁författare	-9.62739
▁mobil	-9.62859
▁enkel	-9.62937
▁omedelbart	-9.62963
▁varor	-9.63078
▁beteende	-9.63099
står	-9.63142
▁halv	-9.63157
▁Lo	-9.6317
▁handlingar	-9.63237
▁To	-9.63271
▁följd	-9.63312
▁särskilda	-9.63382
▁kaffe	-9.63444
▁känt	-9.63444
▁Me	-9.6371
▁nyligen	-9.6373
▁serie	-9.6385
▁dit	-9.63958
▁växa	-9.63964
▁förståelse	-9.63974
▁baserat	-9.64009
▁medlem	-9.64026
▁Än	-9.64062
▁medier	-9.6413
▁Herren	-9.64155
▁version	-9.64177
▁växer	-9.64259
io	-9.64369
▁Paul	-9.64467
▁sitter	-9.64467
▁by	-9.64545
▁Först	-9.64569
sam	-9.64625
▁kallar	-9.64626
▁pa	-9.64712
▁fordon	-9.64801
▁2013	-9.64801
▁köper	-9.64823
▁övriga	-9.64946
▁skador	-9.64951
▁ständigt	-9.64958
▁risken	-9.6498
▁utvecklas	-9.64982
▁metod	-9.65006
▁allmänna	-9.65068
▁Dr	-9.6515
up	-9.65155
▁träffa	-9.65202
▁dröm	-9.6525
▁pappa	-9.65291
spel	-9.65327
▁utrymme	-9.65372
▁jobba	-9.65489
fi	-9.6552
▁flytta	-9.6552
▁dagens	-9.65722
pe	-9.65735
▁historien	-9.65746
▁Co	-9.65759
▁starkt	-9.65958
▁resten	-9.65961
▁hot	-9.66019
▁handels	-9.66086
▁november	-9.66119
▁sol	-9.66142
▁faktorer	-9.66184
▁problemet	-9.66198
▁intressant	-9.66198
▁karaktär	-9.6622
▁april	-9.66328
▁2010	-9.66361
▁möjliga	-9.66408
▁hört	-9.66478
▁hände	-9.66562
▁städer	-9.66573
▁styrka	-9.66591
▁guld	-9.66598
▁bas	-9.66645
▁resultatet	-9.66663
age	-9.66666
▁industrin	-9.66734
▁Nej	-9.66814
▁borta	-9.66852
▁AB	-9.66864
bi	-9.6694
▁tänkte	-9.66976
▁lagra	-9.67053
rar	-9.6709
▁trafik	-9.67096
▁tv	-9.67141
hi	-9.67154
▁Samtidig	-9.67167
▁bio	-9.67203
▁Första	-9.67284
▁leverantörer	-9.67448
▁gräns	-9.67584
▁klicka	-9.67605
▁central	-9.67666
▁juli	-9.67695
▁sätter	-9.67744
▁lagar	-9.67756
▁miljön	-9.67859
▁företags	-9.67892
▁relationer	-9.67938
▁Ju	-9.6799
▁hända	-9.68014
▁ändamål	-9.68016
▁Li	-9.68068
▁ordet	-9.68132
▁rätta	-9.68153
▁förhållanden	-9.68168
▁ring	-9.68255
▁rätten	-9.68358
▁stoppa	-9.68359
utom	-9.68414
▁befinn	-9.6844
och	-9.68684
▁aktivitet	-9.6874
▁uppleva	-9.68869
pi	-9.68948
▁platsen	-9.69101
▁Sam	-9.69165
▁hud	-9.69209
▁frågade	-9.69322
▁omfattar	-9.69424
lag	-9.69447
▁förlora	-9.69451
Mitt	-9.69477
▁ty	-9.69479
rätt	-9.6954
▁rapport	-9.69586
▁Känn	-9.6973
▁smärta	-9.6978
▁Ar	-9.69804
▁träning	-9.69827
▁lättare	-9.69883
▁priser	-9.69937
▁vattnet	-9.69995
▁sommar	-9.7004
▁fru	-9.70104
▁passar	-9.70176
▁Välj	-9.70182
▁Ny	-9.70197
ment	-9.7022
▁start	-9.70229
▁Trump	-9.70381
tro	-9.70406
▁rekommenderar	-9.70408
▁investeringar	-9.70507
▁handel	-9.70559
▁processer	-9.7056
ci	-9.70748
▁Microsoft	-9.70816
▁avgörande	-9.70863
▁börjat	-9.70889
▁samhälle	-9.70947
▁vänster	-9.71052
▁svart	-9.71082
▁läser	-9.71103
▁dog	-9.71146
▁bred	-9.71148
▁tydligt	-9.71191
ba	-9.71213
▁hindra	-9.71225
▁sömn	-9.71255
▁uppmuntra	-9.71261
▁betydande	-9.71274
▁Håll	-9.71317
▁fisk	-9.71328
▁framåt	-9.71494
▁x	-9.71571
▁korrekt	-9.71582
▁sanningen	-9.71612
▁nätet	-9.71623
▁grad	-9.71665
▁sten	-9.71804
▁semester	-9.71806
▁begränsa	-9.71824
▁samtal	-9.71826
▁trä	-9.71892
▁Ra	-9.71906
▁rörelse	-9.72074
▁Skull	-9.72147
▁All	-9.72156
▁läst	-9.72158
▁31	-9.72164
▁äger	-9.72195
ip	-9.72217
▁närmare	-9.7224
▁solen	-9.7232
▁Någon	-9.72345
▁kristna	-9.72359
▁former	-9.72414
▁oftast	-9.72432
▁koppla	-9.72461
▁utvecklat	-9.72504
▁Pre	-9.72539
▁definiera	-9.72594
▁medborgare	-9.72599
▁väntar	-9.72631
▁unika	-9.72643
▁modell	-9.72744
▁norr	-9.72818
▁El	-9.72865
▁lös	-9.7294
▁lagstiftning	-9.72959
▁historiska	-9.72992
▁glas	-9.73061
▁skriv	-9.7318
un	-9.73225
igt	-9.73242
▁kredit	-9.73252
od	-9.73288
▁berg	-9.73325
ang	-9.73401
▁situation	-9.73527
▁fett	-9.73536
▁ras	-9.73551
▁leverans	-9.73679
▁80	-9.73686
▁upptäcka	-9.73751
▁datum	-9.73835
▁fria	-9.73845
▁nytta	-9.73952
▁spendera	-9.74087
ian	-9.7413
gar	-9.74136
▁2012	-9.74141
ycket	-9.74143
▁möta	-9.74151
▁dåligt	-9.74164
▁målet	-9.74264
▁utföra	-9.7428
▁chans	-9.74289
▁ökad	-9.74295
▁hävda	-9.74382
▁uppmärksamhet	-9.74383
▁kalla	-9.7439
▁relaterade	-9.74519
▁uppskatta	-9.74553
▁casino	-9.74659
▁nöjd	-9.74676
ger	-9.74699
▁exempelvis	-9.74734
▁Do	-9.748
▁nedan	-9.74802
▁förklara	-9.74868
▁läge	-9.74967
▁es	-9.75062
▁kriget	-9.7507
▁nåt	-9.75098
▁fort	-9.75099
▁fantastisk	-9.75255
▁Ca	-9.75341
▁le	-9.75369
▁No	-9.75444
▁alkohol	-9.75445
▁naturen	-9.75547
▁svarade	-9.75567
Y	-9.75613
▁effekter	-9.75651
si	-9.75766
ick	-9.75796
▁massa	-9.75898
▁innovation	-9.75937
▁utmaningar	-9.75952
åter	-9.75984
▁naturligtvis	-9.75993
▁besökare	-9.76055
▁genomföra	-9.76188
▁spår	-9.76194
▁70	-9.76209
▁förmodligen	-9.76215
▁idé	-9.76567
▁amerikansk	-9.76618
▁Mac	-9.76667
▁såväl	-9.76733
▁privata	-9.76781
▁bit	-9.76783
▁digitala	-9.76786
▁komplex	-9.76889
▁1.	-9.76917
▁prova	-9.77085
▁ordning	-9.77095
▁verksamheten	-9.77215
▁app	-9.77242
▁tittar	-9.77256
▁eventuella	-9.77268
▁verket	-9.7727
ek	-9.77273
▁saknar	-9.77387
▁29	-9.77402
▁dricka	-9.77413
▁2019	-9.77439
▁risker	-9.77457
▁co	-9.7748
▁35	-9.77598
▁utvecklings	-9.77618
▁pratar	-9.77661
▁acceptera	-9.77696
▁instrument	-9.77741
▁perioden	-9.77744
▁Hotell	-9.77926
▁2011	-9.77928
▁me	-9.78156
▁presentera	-9.78212
▁faktum	-9.78302
▁behövde	-9.78538
▁perspektiv	-9.78597
▁kvällen	-9.78637
vid	-9.78695
ag	-9.78737
▁prestanda	-9.78774
▁värt	-9.78778
▁International	-9.7879
▁fl	-9.78812
▁roligt	-9.78835
▁paket	-9.78835
▁bygg	-9.78836
▁hänsyn	-9.7901
▁ersättning	-9.79093
▁tydlig	-9.79102
▁Wi	-9.79116
▁kost	-9.79125
▁fil	-9.79163
▁anpassa	-9.79199
▁hållbar	-9.79278
▁Fråga	-9.79381
▁frukt	-9.79389
▁skola	-9.7943
avsett	-9.79474
▁nödvändiga	-9.79705
ley	-9.79725
▁Paris	-9.79733
▁åtta	-9.79792
▁älskade	-9.79803
▁branschen	-9.79835
▁utforska	-9.79965
▁samtliga	-9.79986
▁svara	-9.80024
▁fatta	-9.80071
▁beakta	-9.80296
▁fält	-9.80339
▁Q	-9.80349
▁släpp	-9.80381
em	-9.80393
▁marknad	-9.80534
▁ekonomisk	-9.80553
▁staten	-9.80621
▁listan	-9.80629
▁industri	-9.80652
▁ursprungliga	-9.80695
▁människan	-9.807
▁dålig	-9.80729
▁va	-9.80752
▁valt	-9.80911
▁relation	-9.80912
▁reklam	-9.80928
▁bruk	-9.81045
▁kunnat	-9.8106
▁intressen	-9.81066
▁kurs	-9.81123
tan	-9.81229
▁fokusera	-9.8129
▁värdet	-9.81311
▁lägenhet	-9.81339
▁planer	-9.81345
▁starka	-9.81393
▁Bäst	-9.81429
▁klara	-9.81445
▁Vet	-9.81518
▁hårt	-9.81639
▁utom	-9.81645
▁juridisk	-9.81656
▁lyckas	-9.81667
▁vinst	-9.81672
▁vita	-9.81715
min	-9.81763
▁jul	-9.81832
▁ansvarig	-9.81893
▁miljon	-9.81896
▁normalt	-9.81946
▁misstag	-9.81977
▁drog	-9.82046
nu	-9.82104
▁Barn	-9.82108
▁automatiskt	-9.82242
▁slutlig	-9.82275
▁förstås	-9.82292
;	-9.82341
▁stat	-9.82349
▁kontor	-9.82362
▁tillämpning	-9.82432
▁skor	-9.82494
▁totala	-9.82525
isering	-9.82531
▁glädje	-9.82537
▁Mar	-9.82584
▁World	-9.82618
▁super	-9.82636
▁hänt	-9.82657
nnan	-9.82659
▁hit	-9.8266
▁led	-9.82825
▁part	-9.82884
▁livsmedel	-9.8296
▁möjligheten	-9.82972
▁Vårt	-9.83109
▁National	-9.83168
▁styr	-9.8327
▁februari	-9.83376
▁enskilda	-9.83436
▁timme	-9.83534
▁händelser	-9.83551
▁behöriga	-9.83593
▁ka	-9.83643
ni	-9.83697
▁filer	-9.83705
▁Pe	-9.83765
▁sjuk	-9.83767
▁Japan	-9.83773
▁ersätta	-9.83796
▁handling	-9.83903
▁Just	-9.84065
▁ansökan	-9.84066
▁kinesisk	-9.84122
ER	-9.84163
▁My	-9.84222
▁Ing	-9.84281
▁begränsad	-9.84286
▁kombination	-9.84298
▁anti	-9.84301
▁pass	-9.84319
▁hälften	-9.84373
tra	-9.84465
▁familjer	-9.84474
▁hemsida	-9.84528
▁undersökning	-9.84541
▁ben	-9.84592
▁2.	-9.84658
▁90	-9.84684
▁filmer	-9.84762
▁mening	-9.84779
▁placera	-9.84806
▁prov	-9.84828
▁Gå	-9.85069
▁expert	-9.85106
und	-9.85123
▁Po	-9.8525
▁samla	-9.85374
▁u	-9.85425
▁bära	-9.8543
▁brev	-9.85456
▁modeller	-9.85462
▁drift	-9.85484
▁uppfylla	-9.85497
▁2009	-9.85535
▁marknadsföring	-9.85574
▁rummet	-9.85644
▁effektiv	-9.8571
▁överallt	-9.85724
▁IT	-9.8574
▁görs	-9.85798
▁af	-9.85876
▁Dom	-9.8588
▁[...]	-9.85885
▁syfta	-9.85885
▁populär	-9.85888
▁bry	-9.86054
▁principer	-9.86095
▁dubbel	-9.8614
▁höll	-9.86223
▁sant	-9.86364
▁ägg	-9.8637
▁ma	-9.86394
▁effektiva	-9.86517
▁maskin	-9.86587
▁bl	-9.86627
▁Människor	-9.86728
▁skatte	-9.86768
▁utsikt	-9.8679
▁myndigheterna	-9.86837
▁studera	-9.86872
▁myndigheten	-9.86926
▁källor	-9.86957
▁objekt	-9.86993
▁produktions	-9.86995
▁jobbar	-9.86998
▁lämnade	-9.87
▁Mat	-9.87077
▁linje	-9.87085
▁avsnitt	-9.87286
tu	-9.87308
▁plattform	-9.87354
▁användningen	-9.87389
▁regelbundet	-9.87398
▁tillämpa	-9.87417
▁ting	-9.87419
▁lita	-9.87449
▁bestämma	-9.87456
▁minskar	-9.87481
▁specifik	-9.87486
▁Utan	-9.87558
▁byta	-9.87694
▁vacker	-9.87841
▁Center	-9.88008
▁avtalet	-9.8802
▁nät	-9.88044
▁välkomna	-9.88107
▁art	-9.88143
aste	-9.88155
▁fina	-9.88173
▁informationen	-9.88262
▁omständigheter	-9.88278
▁färdigheter	-9.88298
▁slags	-9.88423
ill	-9.8844
▁II	-9.88462
▁situationer	-9.88501
▁allmänhet	-9.88685
▁upprepa	-9.88722
▁fördel	-9.88737
▁experter	-9.88743
▁fred	-9.88749
▁Er	-9.88781
▁ställning	-9.88794
ler	-9.88879
▁göras	-9.88885
▁z	-9.88941
▁Spanien	-9.88982
▁boende	-9.88988
▁as	-9.89033
▁fa	-9.89043
▁kosta	-9.89051
yl	-9.89128
▁inkomst	-9.89169
▁ägare	-9.89169
▁hittade	-9.89202
▁promenad	-9.89263
▁köpte	-9.89384
▁installera	-9.89625
▁position	-9.89639
▁cookies	-9.89937
▁driv	-9.89945
▁bi	-9.9002
▁franska	-9.90055
▁!”	-9.90077
ft	-9.9017
▁grunden	-9.90194
▁medlemsstat	-9.90255
▁anslutning	-9.90277
▁begäran	-9.90284
▁berörda	-9.90324
ine	-9.90345
▁förlust	-9.90431
▁­	-9.90538
▁tidpunkt	-9.90599
▁effektivitet	-9.90602
bb	-9.90609
The	-9.90678
▁verka	-9.90693
▁medicin	-9.90778
▁kött	-9.90978
▁media	-9.9104
▁Hotel	-9.91069
▁relevanta	-9.91147
▁3.	-9.91177
ord	-9.91296
J	-9.91324
▁WEB	-9.91393
and	-9.91424
▁hjärt	-9.91461
▁hundra	-9.91493
skap	-9.91517
by	-9.91525
▁fullständig	-9.91568
▁lön	-9.91606
▁spelade	-9.91636
▁England	-9.91639
▁intresserad	-9.91854
▁behålla	-9.91877
▁fönster	-9.91926
▁händelse	-9.92119
▁frågar	-9.92163
ld	-9.92181
▁hopp	-9.92196
gi	-9.92216
▁ryska	-9.92219
▁tillämpas	-9.92223
▁snö	-9.92289
▁vetenskap	-9.92316
▁jätte	-9.92324
▁situationen	-9.92341
▁ordförande	-9.92359
▁officiella	-9.92421
▁City	-9.92488
▁svensk	-9.92549
▁alltför	-9.9255
▁äventyr	-9.92566
▁överföring	-9.92582
▁!"	-9.92585
▁ed	-9.92587
Om	-9.92679
▁döden	-9.92714
▁äntligen	-9.92724
▁rent	-9.9273
ator	-9.92732
▁gud	-9.9287
▁centrala	-9.92921
▁uppfattning	-9.92994
▁Hitta	-9.92997
▁hundar	-9.93014
▁nej	-9.9303
▁familje	-9.93117
sätt	-9.93144
▁Bar	-9.93163
▁potentiell	-9.93208
▁stund	-9.93213
▁märke	-9.93217
av	-9.93247
▁igång	-9.93267
kar	-9.93393
▁investera	-9.93394
▁fritt	-9.9342
▁drag	-9.935
▁ne	-9.93515
▁definitiv	-9.93541
▁fundera	-9.93542
▁rik	-9.93554
▁Fast	-9.9359
▁perfekta	-9.93633
▁individer	-9.93661
▁driva	-9.93737
▁kapacitet	-9.93781
▁testa	-9.93832
▁sägs	-9.93885
▁sannolikt	-9.93892
▁blå	-9.93905
▁tåg	-9.93912
ki	-9.93945
▁traditionella	-9.93952
▁sommaren	-9.94014
▁längs	-9.94041
▁koncept	-9.94091
▁Kristus	-9.94099
▁främsta	-9.94099
▁vore	-9.94106
▁artikeln	-9.94119
ight	-9.94205
ighet	-9.9425
▁valet	-9.9426
▁uppstår	-9.94365
▁förbli	-9.94368
▁‘	-9.94374
▁skrivit	-9.94417
▁drabba	-9.94529
▁tänkt	-9.94601
ud	-9.94617
▁tyska	-9.94633
▁öppet	-9.94643
▁emellertid	-9.94654
▁statlig	-9.94698
▁växt	-9.94746
▁totalt	-9.94804
▁tider	-9.94833
▁stats	-9.94892
▁fjärde	-9.94916
▁tekniker	-9.94942
lu	-9.94963
▁finansiering	-9.94997
▁2008	-9.95012
▁behandlas	-9.95047
▁global	-9.95057
▁visst	-9.95068
▁finna	-9.95157
▁augusti	-9.952
▁synd	-9.95283
tur	-9.95305
▁bryta	-9.95329
▁Peter	-9.95332
▁lagt	-9.9537
▁föddes	-9.95433
00	-9.95451
▁alldeles	-9.9549
▁Con	-9.95499
ner	-9.95541
▁lärt	-9.95587
▁adress	-9.95606
▁struktur	-9.95675
▁taget	-9.95696
▁lo	-9.95776
▁medarbetare	-9.95834
▁Italien	-9.95906
▁300	-9.96003
ker	-9.96078
▁skyldig	-9.96322
▁resultera	-9.96323
▁Ser	-9.96342
▁uppmana	-9.96377
ish	-9.96381
▁Behöver	-9.96389
▁offer	-9.96398
▁hastighet	-9.96401
▁lager	-9.96604
▁himlen	-9.96605
▁regionen	-9.96668
▁avstånd	-9.96739
▁aktiva	-9.96748
▁säsong	-9.96777
▁unik	-9.96797
eri	-9.96853
▁kunskaper	-9.96869
▁Bli	-9.96887
▁Australien	-9.96888
▁polisen	-9.96904
▁säsongen	-9.96906
▁länderna	-9.97006
ho	-9.97045
▁bonus	-9.97109
▁valuta	-9.97111
▁polis	-9.97156
▁vanlig	-9.97168
▁samhälls	-9.97172
▁omfattas	-9.97179
ier	-9.97235
ong	-9.97245
▁djup	-9.9741
▁identitet	-9.97457
▁öppnar	-9.97501
▁laget	-9.97503
▁ursprung	-9.97559
▁hjärnan	-9.977
▁sinne	-9.97711
▁infrastruktur	-9.97743
▁valde	-9.97743
▁massor	-9.97759
▁kommentarer	-9.97762
▁topp	-9.97836
▁internationellt	-9.97891
▁tillhandahåll	-9.97959
EU	-9.97995
▁människorna	-9.97996
▁Lär	-9.98014
▁bakgrund	-9.98018
▁America	-9.9803
▁leverantör	-9.98047
▁ökning	-9.98091
▁själ	-9.98134
▁domstolen	-9.98195
▁utvecklar	-9.98291
▁Car	-9.98308
▁skol	-9.98309
▁System	-9.98317
▁hämta	-9.98344
▁utbildnings	-9.98348
▁gränser	-9.98383
▁otroligt	-9.984
▁radio	-9.98407
▁ögonblick	-9.98428
▁tillgångar	-9.98453
▁kulturell	-9.98467
▁skapade	-9.98581
▁klinisk	-9.98606
▁huvudet	-9.98614
▁strategisk	-9.98725
▁samtycke	-9.98727
▁match	-9.98735
▁respektive	-9.98897
▁faller	-9.98906
▁avgifter	-9.99023
▁belopp	-9.99028
▁fastställa	-9.99057
▁vänd	-9.99073
▁användaren	-9.99172
▁Island	-9.99189
▁behandlingen	-9.99229
▁status	-9.9926
▁varumärke	-9.99275
▁tjänsten	-9.99322
▁ses	-9.99359
▁resan	-9.99377
▁Indien	-9.99475
▁möjliggör	-9.99496
tar	-9.99539
▁allmänheten	-9.99546
▁profil	-9.99546
▁foto	-9.99548
▁etc	-9.99636
▁Ne	-9.99708
▁tillägg	-9.99725
▁special	-9.99731
au	-9.99764
▁middag	-9.99774
▁insatser	-9.9978
▁ön	-9.99785
▁andel	-9.99793
mon	-9.99797
▁färger	-9.9993
▁verkligheten	-9.9999
▁betrakta	-10.0002
▁li	-10.0006
▁ste	-10.0007
▁smak	-10.0007
▁naturligt	-10.001
▁ramen	-10.0013
men	-10.0017
▁fot	-10.0027
▁Inget	-10.0027
▁höger	-10.003
▁separat	-10.0034
▁Group	-10.0035
▁räkna	-10.0036
▁utbyte	-10.0036
▁ändringar	-10.0046
▁Rom	-10.0048
▁organisationen	-10.0051
▁4.	-10.0069
▁byggnader	-10.0077
▁erfarenheter	-10.0082
▁kol	-10.0086
▁45	-10.009
▁kon	-10.0094
▁mönster	-10.0094
▁Anna	-10.0104
if	-10.0105
▁därefter	-10.0107
▁Film	-10.0107
▁ökade	-10.0121
▁Am	-10.0125
▁företagen	-10.0132
▁avsluta	-10.0145
▁enheten	-10.0149
▁ansikte	-10.015
▁tillfälle	-10.0152
▁Båda	-10.0153
▁någonstans	-10.0154
▁tappa	-10.0157
ber	-10.0162
▁utifrån	-10.0162
▁straff	-10.0177
▁bränsle	-10.0184
olv	-10.0185
▁slutar	-10.0186
▁detaljer	-10.0189
ies	-10.0201
▁förlorar	-10.0203
▁igår	-10.0204
▁livs	-10.0209
▁berättade	-10.0237
▁befolkningen	-10.0237
▁yrkes	-10.0239
▁gilla	-10.0241
▁hörde	-10.0242
▁iPhone	-10.0243
▁kvinnlig	-10.0243
▁Börja	-10.0244
▁policy	-10.0247
▁Hi	-10.0248
▁kod	-10.0249
▁fånga	-10.0263
one	-10.0264
▁uttalande	-10.0277
▁bevara	-10.0278
▁sälj	-10.028
▁respekt	-10.0284
▁vidta	-10.0285
▁eld	-10.0289
▁rapporter	-10.029
▁bak	-10.0295
lä	-10.0298
▁civil	-10.0303
▁Endast	-10.0303
▁deltagare	-10.0307
▁engagemang	-10.0308
▁ökat	-10.0308
▁kontrakt	-10.0316
▁maskiner	-10.0319
▁fiske	-10.0319
▁bedömning	-10.0327
▁versionen	-10.0332
▁symptom	-10.0333
▁=	-10.0334
▁drömmar	-10.0349
ny	-10.0354
cy	-10.0354
▁kämpa	-10.0361
▁Något	-10.0364
▁rimlig	-10.0364
▁kurser	-10.0365
▁Sp	-10.0367
▁Mina	-10.0367
▁sträck	-10.0368
.”	-10.0373
▁yttr	-10.0374
▁resor	-10.0383
▁framsteg	-10.0395
▁gröna	-10.0402
ken	-10.0421
▁kön	-10.0426
▁egendom	-10.0427
▁dagarna	-10.0429
▁ledde	-10.0435
▁Ty	-10.044
▁vetenskapliga	-10.045
fa	-10.0451
▁närvaro	-10.0455
▁förlorade	-10.046
▁allvarliga	-10.0461
▁högst	-10.0471
▁köpt	-10.0473
▁datorn	-10.0478
▁meddela	-10.0479
ko	-10.0483
▁förtroende	-10.049
▁kvinnan	-10.049
▁nationell	-10.0493
▁källa	-10.0497
▁gemensamt	-10.0499
▁lämplig	-10.0502
▁32	-10.0504
▁aktier	-10.0514
▁höjd	-10.0519
efter	-10.0522
ow	-10.0523
▁skillnaden	-10.053
▁innehållet	-10.0532
liggande	-10.0532
▁rika	-10.0533
▁skatt	-10.0537
▁us	-10.0541
▁värden	-10.0542
▁forskar	-10.0549
▁överens	-10.0549
▁Hem	-10.0549
▁2005	-10.055
▁huvudsaklig	-10.0557
▁di	-10.0557
system	-10.0562
▁ro	-10.0563
▁säljer	-10.0566
▁landets	-10.0568
▁parti	-10.057
▁försökte	-10.0571
▁använt	-10.0575
▁väsentlig	-10.0578
▁Maria	-10.0579
▁So	-10.0584
▁hittat	-10.0585
▁tusentals	-10.0588
▁aktuella	-10.059
▁vila	-10.0592
▁ering	-10.0594
▁huden	-10.0601
▁agera	-10.0607
▁lunch	-10.061
▁ämne	-10.0614
▁beskriv	-10.0619
▁befintliga	-10.062
▁Hade	-10.0623
▁vägar	-10.0627
▁startade	-10.0629
stra	-10.0633
▁ögonen	-10.0633
▁lugn	-10.0637
▁cykel	-10.0637
▁Dock	-10.0646
▁stranden	-10.065
▁skaffa	-10.0659
▁teknologi	-10.0659
▁dåliga	-10.066
▁komponenter	-10.066
▁guide	-10.0668
▁synnerhet	-10.0672
▁marknader	-10.0673
▁2000	-10.0679
▁basera	-10.0681
▁fartyg	-10.0695
äng	-10.0697
▁stärka	-10.0698
▁Preci	-10.0704
▁Ben	-10.0714
▁möten	-10.0717
▁brittiska	-10.0719
▁sent	-10.072
▁oroa	-10.0725
▁st	-10.073
▁Älska	-10.0735
▁bilaga	-10.0736
▁glada	-10.0737
▁go	-10.0738
▁lycka	-10.0739
▁tids	-10.074
▁fängelse	-10.0741
▁godkännande	-10.0743
▁skull	-10.0745
▁produktionen	-10.0754
▁regering	-10.0759
▁kasta	-10.0761
▁nyckel	-10.0763
▁sammanhang	-10.0766
▁omöjligt	-10.0772
▁häst	-10.0776
▁sjukhus	-10.078
▁konsekvenser	-10.0781
▁kunden	-10.0786
▁svåra	-10.0788
▁Lu	-10.079
▁ö	-10.0791
▁studien	-10.0794
▁relativt	-10.0794
▁Twitter	-10.0798
▁trött	-10.0803
▁Saker	-10.0811
▁lämpliga	-10.0817
ov	-10.0824
▁utför	-10.0829
▁tusen	-10.083
▁kallad	-10.0833
erad	-10.0834
▁svår	-10.0834
▁nio	-10.0836
▁element	-10.0836
mar	-10.0838
▁rösta	-10.084
▁kombinera	-10.0841
ans	-10.0844
▁pengarna	-10.0847
za	-10.0855
▁Ro	-10.0859
▁press	-10.086
▁bekämpa	-10.0861
▁rekommendation	-10.0862
▁toppen	-10.0863
▁2004	-10.0864
nd	-10.0882
▁Sol	-10.0884
▁sitta	-10.0889
▁reagera	-10.0893
▁frukost	-10.0893
▁socker	-10.0894
▁tyckte	-10.0898
▁pre	-10.0899
▁kemisk	-10.09
▁nivån	-10.0903
▁svarar	-10.091
▁beskriver	-10.0911
▁sektorn	-10.0915
▁tjänar	-10.0916
▁dörren	-10.0927
▁ont	-10.0928
▁annars	-10.0929
▁plast	-10.093
▁Te	-10.093
▁mental	-10.0931
ard	-10.0936
allra	-10.0938
▁Företaget	-10.0939
▁ända	-10.094
▁skiljer	-10.0941
▁respektera	-10.0945
lin	-10.0951
▁träna	-10.0955
▁hittills	-10.0958
▁webb	-10.0966
▁princip	-10.0969
▁undervisning	-10.097
▁fly	-10.0972
▁använde	-10.0981
▁He	-10.0984
▁reglerna	-10.0989
▁Business	-10.099
▁Mor	-10.0993
▁parter	-10.0993
▁riktning	-10.0995
▁Ko	-10.0995
▁morgonen	-10.1
▁integrera	-10.1002
ah	-10.1002
▁Bi	-10.1003
▁evenemang	-10.1004
▁sova	-10.1019
▁programvara	-10.102
▁kraven	-10.1025
▁väder	-10.1025
▁Bank	-10.1028
▁kamp	-10.1032
▁allmän	-10.1032
▁tillverkare	-10.1035
del	-10.1043
▁inställningar	-10.105
▁upplever	-10.1055
▁vann	-10.1056
▁planerar	-10.1058
du	-10.1065
▁olja	-10.1066
▁äktenskap	-10.107
ativ	-10.1073
▁order	-10.1073
▁företagets	-10.1082
▁sträva	-10.1082
20	-10.1084
▁professionella	-10.1095
▁röra	-10.1099
▁minns	-10.1099
▁plötsligt	-10.1104
▁tjej	-10.1107
▁växande	-10.1108
▁övervakning	-10.1108
dy	-10.111
stad	-10.111
▁mode	-10.1115
bu	-10.1117
▁undan	-10.1119
▁sjö	-10.112
▁Dit	-10.112
▁negativa	-10.1123
▁särskild	-10.113
slag	-10.1134
▁bud	-10.1143
▁mg	-10.1144
ku	-10.115
▁ställen	-10.1151
▁äldst	-10.1153
▁åker	-10.1154
▁Samma	-10.1155
led	-10.1158
▁mänsklig	-10.116
▁dagliga	-10.116
▁rättsliga	-10.1177
▁1,	-10.1181
▁häng	-10.1182
tisk	-10.1184
▁förändras	-10.1185
▁byggde	-10.119
▁senast	-10.1191
▁finans	-10.1193
▁Star	-10.12
▁snara	-10.1207
▁kunderna	-10.1209
▁van	-10.1212
▁kommentar	-10.1216
▁fakta	-10.1219
▁hål	-10.1221
▁lösningen	-10.1225
▁verklighet	-10.1229
▁serien	-10.1231
hu	-10.1237
rik	-10.1241
▁kronor	-10.1252
▁bestämmer	-10.1252
▁mångfald	-10.1252
▁mm	-10.1258
▁motor	-10.1259
▁minne	-10.1261
▁öppnade	-10.1262
ib	-10.1266
▁dör	-10.1273
▁myndighet	-10.1283
▁Tidigare	-10.1285
▁Försök	-10.1285
▁aktivera	-10.1292
▁diskutera	-10.1294
▁mitten	-10.1301
ru	-10.1308
▁Val	-10.131
▁utvärdera	-10.1318
▁finner	-10.1319
äl	-10.1321
gripande	-10.1322
▁förbi	-10.1324
▁missa	-10.1325
▁fest	-10.1325
ring	-10.1326
▁Per	-10.1332
▁tra	-10.1333
▁Folk	-10.1336
▁allmänt	-10.1342
▁Bu	-10.1343
▁förutsättningar	-10.1344
▁Or	-10.1346
▁önska	-10.1349
▁samlar	-10.1353
▁professor	-10.1353
▁brand	-10.1357
▁fyll	-10.1357
▁snabba	-10.1358
▁Bland	-10.1362
▁ungdomar	-10.1362
wa	-10.1365
▁svarta	-10.1374
▁nyheter	-10.1381
▁försäkrings	-10.1383
▁aspekter	-10.1384
▁säng	-10.1385
ät	-10.1386
lös	-10.1401
▁sam	-10.1401
▁stolt	-10.1402
▁Fa	-10.1403
▁400	-10.1407
▁informera	-10.1409
▁medveten	-10.1416
▁förutom	-10.1418
▁arter	-10.1418
▁Svar	-10.142
▁förlorat	-10.1421
▁växter	-10.1423
▁support	-10.1424
▁upptäckt	-10.1428
▁undersöka	-10.143
▁registrera	-10.1432
▁eventuell	-10.1433
▁ansträngning	-10.1438
▁grundades	-10.1438
▁36	-10.1438
▁fantastiskt	-10.1447
let	-10.1449
▁byte	-10.1451
▁flickor	-10.1453
▁betydligt	-10.1453
▁Robert	-10.1453
▁liga	-10.147
▁ström	-10.1473
▁röda	-10.1479
▁öl	-10.1483
Den	-10.1484
▁Ru	-10.1486
▁Ö	-10.1489
▁fan	-10.1494
▁mjölk	-10.1494
▁Inom	-10.1496
▁gäster	-10.1496
mat	-10.1498
per	-10.1499
▁genomsnittlig	-10.15
stället	-10.1503
▁självklart	-10.1507
▁generera	-10.1508
gan	-10.151
▁iväg	-10.1517
▁ekonomin	-10.1518
▁total	-10.1519
▁Fri	-10.1522
▁resultaten	-10.1523
▁katt	-10.1524
▁kar	-10.1531
van	-10.1532
ika	-10.1533
▁sikt	-10.1533
▁fas	-10.1566
fall	-10.157
▁kropps	-10.1574
▁planera	-10.1574
▁grader	-10.1582
▁locka	-10.1582
▁Super	-10.1584
▁Tyvärr	-10.1589
▁politisk	-10.159
▁format	-10.159
▁oro	-10.1593
▁aktie	-10.1599
▁Köp	-10.16
▁2007	-10.1604
▁2020	-10.1605
▁ändras	-10.161
gående	-10.161
▁avfall	-10.1618
▁fotboll	-10.1622
▁Office	-10.1623
▁digital	-10.1624
▁fredag	-10.1625
▁lek	-10.1628
▁talade	-10.1633
▁konkurrens	-10.1633
▁affärer	-10.1636
▁värsta	-10.1642
▁Chi	-10.1643
▁Tom	-10.1645
▁papper	-10.1645
▁ledning	-10.1646
▁ok	-10.1648
▁född	-10.1651
▁James	-10.1658
▁Norge	-10.1659
▁granska	-10.1659
enta	-10.1662
▁villkoren	-10.1663
▁värre	-10.1665
▁tri	-10.1666
▁Euro	-10.1667
▁Su	-10.1673
▁fi	-10.1679
▁mängder	-10.168
▁licens	-10.1684
ok	-10.1691
▁Social	-10.1692
sättning	-10.1692
▁dating	-10.1693
▁2001	-10.1696
▁2,	-10.1701
▁föredrar	-10.1708
▁budskap	-10.171
▁traditionell	-10.1711
▁besöker	-10.1713
▁diet	-10.1714
▁kris	-10.1719
▁begär	-10.1721
▁Afrika	-10.1727
▁föreskriv	-10.1727
▁«	-10.1728
▁universum	-10.1729
▁Klick	-10.173
▁inspirera	-10.1733
▁förbereda	-10.1733
▁mänskligheten	-10.1734
▁individuell	-10.1744
▁anläggningar	-10.1747
▁biologisk	-10.1749
äck	-10.1752
▁förväntas	-10.1752
▁underhåll	-10.1757
▁Del	-10.1759
▁ursäkt	-10.1762
fl	-10.1763
ity	-10.1772
▁regn	-10.1774
▁södra	-10.1775
▁examen	-10.1785
▁Visa	-10.1789
▁restauranger	-10.1793
▁Black	-10.1798
▁Visst	-10.1811
▁kräva	-10.1811
▁vanligast	-10.1813
▁politiken	-10.1817
▁skuld	-10.1826
▁cell	-10.1826
▁Information	-10.1832
▁analysera	-10.1834
▁vart	-10.1839
▁vakna	-10.1839
ou	-10.184
▁möjlig	-10.1846
Du	-10.1849
▁Mark	-10.1852
▁Mi	-10.1857
▁marken	-10.1865
▁exklusiv	-10.1867
▁sp	-10.1875
▁svaret	-10.1875
▁skolor	-10.1879
▁kung	-10.1881
ax	-10.1881
▁medicinska	-10.1882
▁Skapa	-10.1882
▁skönhet	-10.1885
▁tron	-10.1889
▁sekunder	-10.1891
len	-10.1894
▁Ri	-10.1894
▁Obama	-10.1903
▁Välkommen	-10.1903
▁Rätt	-10.1903
▁utbud	-10.192
▁styra	-10.1925
▁rapporten	-10.1928
▁Fi	-10.1928
▁stöder	-10.1929
ala	-10.193
▁initiativ	-10.1933
▁Kanada	-10.1938
▁Master	-10.1939
▁jämförelse	-10.1948
var	-10.1952
▁reser	-10.1957
▁my	-10.196
▁motstånd	-10.1962
▁Iran	-10.1971
▁övervaka	-10.1975
▁sist	-10.1976
▁innehålla	-10.1978
▁tacksam	-10.1985
▁statistik	-10.1986
▁förklarar	-10.2
▁Post	-10.2003
▁tyvärr	-10.2009
▁reaktion	-10.2011
▁glömma	-10.2012
▁heliga	-10.2023
▁löp	-10.2025
▁Sök	-10.2031
▁fylla	-10.2031
skydd	-10.2031
qu	-10.2032
▁Institute	-10.2041
▁elektrisk	-10.2045
▁Casino	-10.2045
▁sanning	-10.2045
▁åtkomst	-10.2048
▁närmaste	-10.2063
▁tekniken	-10.2067
▁båt	-10.2068
▁låga	-10.2071
ps	-10.2074
isera	-10.2074
program	-10.2079
▁integritet	-10.208
ult	-10.2085
▁celler	-10.2086
äll	-10.2089
▁länk	-10.2089
brett	-10.209
▁tacka	-10.2099
▁avgift	-10.21
baserade	-10.2102
▁organisera	-10.2111
▁allting	-10.2115
▁erbjudanden	-10.2117
▁utsträckning	-10.2117
▁tak	-10.2123
▁live	-10.2131
▁mil	-10.2132
▁gemensam	-10.2136
▁glöm	-10.2136
yn	-10.2137
▁da	-10.2141
▁religion	-10.2146
▁betalnings	-10.2151
▁student	-10.2151
▁ljuset	-10.2153
ull	-10.2153
OR	-10.2167
lan	-10.2168
▁dans	-10.217
▁lämpligt	-10.2184
▁2003	-10.2191
▁Dagen	-10.2198
▁illa	-10.22
erade	-10.2205
▁stan	-10.221
▁permanent	-10.2226
▁besluta	-10.2226
og	-10.2228
▁Lägg	-10.2228
▁varken	-10.2228
▁Lite	-10.2232
▁Syftet	-10.2232
▁fr	-10.2234
▁gemenskapen	-10.2238
▁bror	-10.2239
▁behovet	-10.2247
AR	-10.2249
▁rena	-10.2256
▁avlägsna	-10.2263
▁hänvisa	-10.2263
▁maximal	-10.2264
▁planet	-10.2267
▁konstruktion	-10.2269
▁institutioner	-10.227
▁upptäck	-10.2273
berg	-10.2275
▁Dan	-10.2277
▁potential	-10.2278
▁hotellet	-10.228
▁restaurang	-10.2282
▁arv	-10.2282
mor	-10.2285
▁säkerheten	-10.229
▁läs	-10.2292
▁följde	-10.2292
▁Hög	-10.2293
▁driver	-10.2294
▁elever	-10.2295
▁berör	-10.2295
▁balans	-10.2295
▁satte	-10.2295
▁medlemsstater	-10.23
▁Ab	-10.2303
▁byggt	-10.2325
vo	-10.2334
▁delvis	-10.2335
▁förfaranden	-10.2338
▁Hjälp	-10.2339
▁deltagande	-10.2342
ister	-10.2343
▁uppmärksamma	-10.2344
▁annonser	-10.2346
▁sök	-10.2349
▁upprätthålla	-10.2352
▁ts	-10.2356
▁beredd	-10.2358
▁Bet	-10.2361
▁album	-10.2365
▁medicinsk	-10.2367
tvungen	-10.2367
▁am	-10.2369
▁5.	-10.2372
▁sällan	-10.2374
▁konsument	-10.2374
▁Danmark	-10.2374
▁vinner	-10.2375
▁ko	-10.2376
▁varmt	-10.2377
▁depression	-10.2379
▁berättelse	-10.2388
▁notera	-10.2388
▁generation	-10.2396
▁no	-10.2402
dom	-10.2403
▁Ad	-10.2404
▁planering	-10.2404
sel	-10.2406
▁Syrien	-10.2411
▁Online	-10.2411
▁Android	-10.2411
▁sökande	-10.2412
▁lyckade	-10.2414
▁Home	-10.2416
▁enklare	-10.2424
▁ägna	-10.2427
▁Sch	-10.2432
▁do	-10.2437
gu	-10.2449
▁mängden	-10.2456
▁vinster	-10.2457
▁Hej	-10.2457
▁professionell	-10.2464
▁utmaning	-10.2468
sson	-10.247
▁ekonomiskt	-10.2472
▁datorer	-10.2475
▁syster	-10.2486
▁plocka	-10.2486
▁Glöm	-10.2487
▁mån	-10.2488
▁gifta	-10.2494
▁underlätta	-10.2498
▁gift	-10.25
▁1:	-10.2502
▁j	-10.2506
drag	-10.2515
las	-10.2519
▁erbjuds	-10.252
ret	-10.2523
▁Bitcoin	-10.2523
▁Michael	-10.2523
▁Global	-10.2524
▁efterfrågan	-10.2535
▁miss	-10.2536
▁rättvisa	-10.2543
▁chansen	-10.2545
fo	-10.2545
▁Bro	-10.2559
▁utvärdering	-10.2561
▁metall	-10.2573
▁mötet	-10.2582
▁Tur	-10.2588
lev	-10.2595
▁blandning	-10.2598
▁lider	-10.26
▁huruvida	-10.26
▁djupt	-10.2602
▁hjälpt	-10.2606
▁satsa	-10.2613
tiska	-10.2619
▁bibliotek	-10.2619
▁ade	-10.262
ast	-10.2623
IS	-10.2625
cu	-10.2625
▁regel	-10.2627
▁kvalitets	-10.2631
▁partiet	-10.2632
▁33	-10.2636
▁[+]	-10.2637
▁administrativ	-10.2637
▁spelaren	-10.2639
▁hemmet	-10.2641
ance	-10.2641
▁minskning	-10.2641
▁slog	-10.2642
▁Sk	-10.2644
▁offentlig	-10.2645
▁rikta	-10.2652
▁fint	-10.2654
af	-10.2657
kom	-10.266
▁ert	-10.266
▁öde	-10.2664
▁protein	-10.2664
▁relevant	-10.2669
▁fann	-10.2669
▁Turkiet	-10.2675
▁passera	-10.2677
▁stål	-10.2677
▁Sc	-10.2679
▁styrelse	-10.2681
▁tillgängligt	-10.2681
▁övrigt	-10.2684
net	-10.2685
▁orsaken	-10.2692
ock	-10.2693
▁låtar	-10.2697
▁Cha	-10.2697
▁lansera	-10.2699
met	-10.2701
uk	-10.2709
▁Skriv	-10.2713
▁blommor	-10.2713
▁ansluta	-10.2716
▁hyra	-10.2717
▁utbilda	-10.2719
▁äg	-10.2719
▁funktionen	-10.2725
▁tanken	-10.2726
▁takt	-10.2728
▁strategier	-10.2735
▁utseende	-10.2747
▁Design	-10.2752
▁Martin	-10.2753
▁Red	-10.2756
▁sort	-10.2757
▁tidiga	-10.2761
▁tjänste	-10.2762
▁räcker	-10.2762
▁bord	-10.2764
▁låna	-10.2768
▁försäkra	-10.2769
▁samling	-10.2769
ju	-10.2773
▁meddelanden	-10.2781
of	-10.2785
▁Israels	-10.2785
▁Amerika	-10.2788
▁PC	-10.2788
▁yngre	-10.279
▁olje	-10.2791
▁föregående	-10.2793
▁upptäckte	-10.2796
ab	-10.2799
▁dagligen	-10.2801
gel	-10.2801
▁makten	-10.2813
▁lämnat	-10.2816
▁underbara	-10.2816
▁Själv	-10.2823
▁Sha	-10.2825
▁hinder	-10.2829
▁Alltså	-10.2829
▁återvända	-10.2831
▁medvetna	-10.2832
▁tillfällen	-10.2832
▁mun	-10.2836
our	-10.2839
▁Sådan	-10.284
▁Air	-10.2841
▁Stor	-10.2843
▁avancerade	-10.285
▁innovativa	-10.2852
rat	-10.2854
▁Si	-10.2856
▁fira	-10.2863
▁Kon	-10.2867
▁w	-10.2867
plan	-10.2868
▁kämpar	-10.2871
▁Sveriges	-10.2873
▁150	-10.2875
sch	-10.288
▁spanska	-10.2892
▁skratta	-10.2896
▁uppfylle	-10.2896
▁månaden	-10.29
▁mikro	-10.2903
▁ra	-10.2907
▁resolution	-10.2907
▁ordna	-10.2914
▁förtjänar	-10.2914
▁inkludera	-10.2922
▁2006	-10.2925
ium	-10.2939
ice	-10.2941
▁hästar	-10.2941
▁Kommissionen	-10.2944
▁Bibeln	-10.2946
▁1)	-10.295
▁temperatur	-10.295
▁rädsla	-10.2951
kort	-10.2951
sten	-10.2954
▁bröd	-10.2955
▁investerare	-10.2959
▁We	-10.2967
▁IP	-10.2974
▁tillverkning	-10.2976
▁krafter	-10.298
▁ledarskap	-10.2986
▁omfatta	-10.2987
▁botten	-10.2987
▁Kvinnor	-10.299
▁inflytande	-10.2993
▁intresserade	-10.2994
▁Tor	-10.2998
▁EN	-10.2999
▁kommunicera	-10.3001
▁samarbeta	-10.3002
▁framgångsrika	-10.3005
ella	-10.3018
tter	-10.3019
full	-10.302
▁utomhus	-10.3026
▁flygplats	-10.303
▁kostnad	-10.3032
▁gjorts	-10.3034
▁Jack	-10.3038
▁starkare	-10.3044
▁förmågan	-10.3049
▁kommunikations	-10.306
▁bestämt	-10.306
▁mesta	-10.3064
▁styrelsen	-10.3065
▁helg	-10.3068
▁desto	-10.3068
▁skydds	-10.307
▁bön	-10.3075
▁kamera	-10.3077
▁hård	-10.3077
▁skjut	-10.3078
▁överföra	-10.3078
▁överleva	-10.3079
▁läste	-10.308
▁ba	-10.309
▁gränsen	-10.3095
▁teknisk	-10.3095
▁mäta	-10.3099
▁orsak	-10.3099
▁strid	-10.3103
▁Både	-10.3105
▁japansk	-10.3105
▁yta	-10.3108
▁sprida	-10.3111
▁tyst	-10.3113
▁universitetet	-10.3113
▁Inn	-10.3114
▁lidande	-10.3114
▁fullständigt	-10.3115
▁Hennes	-10.3117
▁funnits	-10.3118
▁klockan	-10.3123
▁ly	-10.3128
▁mät	-10.3135
▁vinter	-10.3136
▁str	-10.3136
▁positivt	-10.3137
▁kostnaderna	-10.314
▁arbetade	-10.3141
▁infektion	-10.3145
▁ingredienser	-10.315
▁normal	-10.3154
▁utöva	-10.3163
▁äkta	-10.3165
▁butik	-10.3165
▁pool	-10.3167
▁fokuserar	-10.3169
▁aktörer	-10.317
▁For	-10.3175
▁berömda	-10.3179
▁eleverna	-10.318
he	-10.3181
▁boka	-10.3182
▁beslutet	-10.3182
▁fulla	-10.3182
▁vistelse	-10.3185
▁flygplan	-10.3186
▁judisk	-10.3187
▁knappt	-10.3188
▁Bilder	-10.3189
▁födelsedag	-10.3192
▁Sal	-10.3198
▁uppsättning	-10.32
▁Bild	-10.3202
▁symtom	-10.3206
zi	-10.3207
▁beräkna	-10.3207
▁ch	-10.3216
we	-10.3217
▁europeisk	-10.3225
▁primär	-10.3228
▁Kolla	-10.3229
öv	-10.3232
liv	-10.3234
▁informations	-10.324
▁avslöja	-10.3243
▁lycklig	-10.3254
▁missbruk	-10.326
▁Mot	-10.3265
▁livsstil	-10.3266
lopp	-10.3268
tid	-10.3271
ix	-10.3276
▁vision	-10.3277
▁texten	-10.3279
▁byggnad	-10.3284
▁sjukdomen	-10.3288
▁tillfället	-10.3304
▁försäkring	-10.3306
▁förekommer	-10.3307
ther	-10.3309
▁mått	-10.331
▁däck	-10.331
▁politiker	-10.3315
▁stater	-10.3316
▁denne	-10.3319
▁passion	-10.3322
▁befolkning	-10.3333
medel	-10.3334
▁beskriva	-10.3339
▁lyssnar	-10.3353
ologi	-10.3359
▁begränsningar	-10.3361
▁räknas	-10.3364
▁37	-10.3366
▁anta	-10.3369
▁God	-10.337
årig	-10.3372
▁ringa	-10.3373
De	-10.3373
▁likna	-10.3381
▁praxis	-10.3388
▁stänga	-10.3389
▁plus	-10.3392
▁generell	-10.3393
▁ange	-10.3394
▁vuxen	-10.3395
allt	-10.3397
▁samlas	-10.34
ph	-10.3401
▁uppenbara	-10.3402
▁Port	-10.3405
▁stads	-10.3406
▁standarder	-10.3411
▁föreslår	-10.3412
▁längd	-10.3412
▁tand	-10.3413
tals	-10.3419
▁spelarna	-10.3421
ya	-10.3421
▁korta	-10.3424
▁Gu	-10.3426
▁48	-10.3427
▁Management	-10.3429
▁invånare	-10.3429
▁tendera	-10.343
▁George	-10.3434
▁kvaliteten	-10.3435
▁patient	-10.3442
▁beställ	-10.3445
▁försäljnings	-10.3446
▁länkar	-10.3446
▁patienten	-10.3446
rop	-10.3455
▁kommittén	-10.346
▁stopp	-10.346
▁gäst	-10.3463
▁kontroller	-10.3467
går	-10.3467
▁poker	-10.3468
▁lärande	-10.3468
▁Person	-10.347
▁möbler	-10.3471
▁kapitel	-10.3471
▁Asien	-10.3471
▁tillåta	-10.3472
▁normala	-10.3472
▁Play	-10.3476
▁psykisk	-10.348
▁diabetes	-10.3481
▁planen	-10.3481
▁effekten	-10.3488
▁butiker	-10.349
▁tema	-10.3492
▁gen	-10.3493
▁fattiga	-10.3496
mål	-10.3498
▁arbetare	-10.3498
▁beställning	-10.3501
▁nödvändig	-10.3502
▁viktigare	-10.3509
▁revolutionen	-10.351
▁transaktioner	-10.3513
▁Egypten	-10.3519
▁längst	-10.352
▁anmäla	-10.3524
▁frisk	-10.3525
▁34	-10.3526
▁domstol	-10.3527
log	-10.3539
▁tvätta	-10.3539
▁allvarligt	-10.3539
▁kategori	-10.3545
▁Ch	-10.3545
ef	-10.3545
▁ämnet	-10.3546
▁nåd	-10.3549
▁bevilja	-10.355
&	-10.3552
▁Ph	-10.3553
▁Nord	-10.3554
▁Washington	-10.3554
▁språket	-10.3555
▁samhällen	-10.3559
▁globalt	-10.356
▁flicka	-10.3561
▁salt	-10.3563
▁Herre	-10.3571
▁Författare	-10.358
▁Tu	-10.3581
▁växte	-10.3584
▁kille	-10.3589
▁center	-10.3593
▁oerhör	-10.3596
▁Ofta	-10.3599
▁dos	-10.3599
till	-10.3599
▁förflutna	-10.3601
▁klubb	-10.3605
▁make	-10.3611
▁flyttade	-10.3612
▁betalning	-10.3614
▁Tra	-10.3617
ifrån	-10.3621
▁förklaring	-10.3623
▁bod	-10.3623
▁urin	-10.363
▁farliga	-10.3635
▁roliga	-10.3637
mm	-10.3638
▁Pan	-10.3642
▁registrering	-10.3648
▁akademisk	-10.3656
▁söt	-10.3659
▁partners	-10.3666
▁verklig	-10.3667
▁bedöm	-10.3668
▁känslan	-10.3677
▁Företag	-10.3678
▁spåra	-10.3679
▁överenskommelse	-10.368
▁Data	-10.3684
▁jakt	-10.3684
▁2:	-10.3685
▁åtgärd	-10.3687
▁back	-10.3688
▁kategorier	-10.3688
▁rå	-10.3698
▁fixa	-10.3702
▁hav	-10.3705
▁batteri	-10.3708
▁ungdom	-10.3709
▁Gi	-10.371
▁urval	-10.3711
▁hamna	-10.372
▁således	-10.3722
ång	-10.3724
▁server	-10.3724
▁historisk	-10.3729
▁Åh	-10.373
▁släppa	-10.3731
▁finansiera	-10.3733
▁up	-10.3734
dde	-10.3742
▁demokrati	-10.3746
▁Restaurange	-10.3747
▁original	-10.3747
▁virus	-10.3749
▁Kar	-10.3749
▁händerna	-10.3752
ort	-10.3752
▁investerings	-10.3759
▁export	-10.3759
▁njut	-10.3765
▁upprätta	-10.3765
▁Forskning	-10.3765
▁bedöma	-10.3766
▁pe	-10.3769
RA	-10.3773
▁!!!	-10.3779
▁beskrivning	-10.3783
▁last	-10.3785
▁Ver	-10.3788
▁inse	-10.3791
gick	-10.3795
▁Mu	-10.3799
▁bröder	-10.3799
▁trädgård	-10.38
▁bekväm	-10.3802
▁Europas	-10.3806
▁Lag	-10.3807
▁startar	-10.3808
▁hatar	-10.3808
▁Je	-10.3811
▁mask	-10.3811
▁West	-10.3816
▁Mål	-10.3818
▁Besök	-10.3825
▁sand	-10.3826
mb	-10.3828
▁mus	-10.383
▁påminn	-10.3832
▁helhet	-10.3833
▁lade	-10.3833
▁lov	-10.3838
▁Tri	-10.384
Ã	-10.3847
▁omvandla	-10.385
▁komplett	-10.3851
▁Her	-10.3852
▁Ord	-10.3853
▁2002	-10.3856
▁pågår	-10.3862
ön	-10.3867
▁blad	-10.387
kning	-10.3874
▁havs	-10.3881
▁blockera	-10.3883
les	-10.3884
AN	-10.3893
▁Adam	-10.3895
▁Medlemsstater	-10.3896
▁One	-10.3904
▁påverkas	-10.3904
▁kommersiella	-10.3906
▁anledningar	-10.3909
▁röd	-10.3911
då	-10.3922
▁smart	-10.3922
En	-10.3925
▁ligga	-10.3929
▁fans	-10.393
ct	-10.3935
▁markera	-10.3935
▁Grekland	-10.3937
▁okej	-10.3937
▁förordningen	-10.3939
▁återställa	-10.3941
▁75	-10.3947
▁rök	-10.3947
▁erkänna	-10.3952
▁lås	-10.3954
▁trans	-10.3955
▁kostnaden	-10.3957
▁formen	-10.3961
▁religiösa	-10.3965
▁rymd	-10.3965
▁Lik	-10.3969
▁appar	-10.397
▁konferens	-10.3973
▁maten	-10.3974
▁faktor	-10.3976
▁strukturer	-10.3976
▁onda	-10.3982
▁Säg	-10.3985
▁upplevelser	-10.3986
▁skärmen	-10.3991
par	-10.3995
▁täcker	-10.4003
▁punkter	-10.4017
▁handen	-10.4021
▁luften	-10.4021
▁inspiration	-10.4024
▁Artikel	-10.4024
▁School	-10.4024
▁exponering	-10.4024
▁ångest	-10.4024
▁vunnit	-10.4024
orna	-10.4025
▁biljett	-10.4025
▁North	-10.4029
lor	-10.4031
▁undervisa	-10.4033
▁värderingar	-10.4033
▁2-	-10.4037
▁konstatera	-10.4038
▁you	-10.4039
▁Mal	-10.4039
▁anställning	-10.4041
▁bilderna	-10.4042
▁riktlinjer	-10.4044
▁rörelsen	-10.4049
▁katastrof	-10.405
▁sång	-10.405
▁moln	-10.4055
▁hjärtan	-10.4061
▁förstöra	-10.4063
▁utomlands	-10.4068
▁Självklart	-10.4068
▁konkurrenskraft	-10.4068
▁Irak	-10.4068
▁Bolaget	-10.4071
▁produkterna	-10.4071
▁påverkan	-10.4072
▁varm	-10.4073
ial	-10.4073
▁läsare	-10.4074
▁åsikter	-10.4076
▁undersökningar	-10.4079
▁kärn	-10.4082
▁rese	-10.4083
▁fara	-10.4086
▁förvaltning	-10.4089
östra	-10.4091
▁®	-10.4093
▁användar	-10.4093
kor	-10.4094
▁mod	-10.4096
▁praktiska	-10.4097
▁islam	-10.4097
▁AI	-10.4107
way	-10.4111
▁avsedda	-10.4111
rör	-10.4112
vin	-10.4119
▁vägra	-10.4121
▁drygt	-10.4123
▁svårare	-10.4126
▁hemlighet	-10.4128
▁höja	-10.4128
ham	-10.4129
▁femte	-10.4132
▁skala	-10.4132
▁politiskt	-10.4137
▁begrepp	-10.4139
▁You	-10.414
▁industriell	-10.4149
▁kandidat	-10.4151
▁hustru	-10.4157
▁gemenskap	-10.416
▁regioner	-10.4162
▁varierar	-10.4163
▁noga	-10.4163
▁jämföra	-10.4169
▁täcka	-10.4169
åste	-10.4171
▁förfarande	-10.4172
▁drabbade	-10.4173
▁bransch	-10.4177
▁mörka	-10.4177
▁helgen	-10.418
▁spänning	-10.4182
▁orden	-10.419
▁födelse	-10.4194
▁försvinner	-10.4201
▁lyckats	-10.4203
▁löst	-10.4205
▁insikt	-10.4206
▁kilometer	-10.4206
▁inverkan	-10.4207
▁klarar	-10.4208
▁not	-10.4211
▁sanna	-10.4213
▁ndet	-10.4213
▁behandlingar	-10.4217
▁Don	-10.4218
▁Far	-10.4218
▁uppgifterna	-10.4219
▁applikationer	-10.4225
▁positioner	-10.4226
▁hamnar	-10.4236
▁överväga	-10.4237
▁hunden	-10.4237
▁rörelser	-10.4238
▁sovrum	-10.4245
▁optimal	-10.4245
ats	-10.4247
▁världskriget	-10.4247
▁socialt	-10.4248
▁välj	-10.4254
▁ytterst	-10.4255
▁Tour	-10.4255
▁bordet	-10.4256
▁Tid	-10.4261
▁kär	-10.427
▁nätverket	-10.427
▁bilda	-10.4271
nser	-10.4276
▁muslimer	-10.4281
▁försvara	-10.4282
▁kameran	-10.4284
tag	-10.4284
so	-10.4286
▁arkitektur	-10.4291
▁Bill	-10.4291
ney	-10.4292
▁livsmedels	-10.4292
▁skit	-10.4294
▁100%	-10.4295
▁House	-10.4295
▁utländska	-10.4297
ien	-10.4298
ze	-10.4299
▁spelat	-10.4302
▁stjärnor	-10.4307
▁effekterna	-10.4315
▁minut	-10.4316
konto	-10.4319
▁gåva	-10.4319
▁mera	-10.4321
▁tunga	-10.4322
▁strand	-10.4323
▁sängen	-10.4324
stod	-10.4332
bil	-10.4333
▁användes	-10.4335
▁shopping	-10.4335
▁Föregående	-10.4338
▁frekvens	-10.4339
▁Mc	-10.4342
▁ör	-10.4347
▁hoppa	-10.4353
▁65	-10.4361
▁Hos	-10.4365
▁intervju	-10.4367
▁bestämde	-10.4367
▁3,	-10.4367
▁Va	-10.4368
▁saknas	-10.4369
▁Gar	-10.4376
▁slutade	-10.4376
▁Street	-10.438
▁Före	-10.4396
stått	-10.44
est	-10.4411
▁gjorda	-10.4411
▁tät	-10.4411
▁ns	-10.4414
▁nation	-10.4414
▁läget	-10.4421
tion	-10.4423
▁Observera	-10.4426
▁blanda	-10.4427
▁underbar	-10.4432
tic	-10.4433
▁föll	-10.4433
ES	-10.4447
ep	-10.4451
▁39	-10.4454
▁begära	-10.4459
▁argument	-10.4464
▁noggrant	-10.4471
▁|	-10.4474
▁symbol	-10.4485
▁Ed	-10.4487
▁Frågan	-10.4492
▁linjer	-10.4492
▁recept	-10.4493
åt	-10.4495
▁förbered	-10.45
▁människans	-10.4501
▁App	-10.4501
▁resurs	-10.4503
▁tester	-10.4503
▁kust	-10.4505
▁disk	-10.4507
▁referens	-10.451
▁(2	-10.4512
▁representerar	-10.4512
▁skott	-10.4515
▁OS	-10.4518
▁hållbarhet	-10.4519
▁(1	-10.452
▁Green	-10.4523
EN	-10.4525
▁Antal	-10.4531
▁600	-10.4535
▁nämn	-10.4535
▁VD	-10.4536
▁ränta	-10.4538
▁38	-10.4539
▁tvinga	-10.4542
▁kampanj	-10.4546
▁mo	-10.4552
▁använd	-10.4557
▁pension	-10.456
▁insats	-10.4561
oo	-10.4562
▁erbjudande	-10.4563
▁Art	-10.4563
▁lät	-10.4565
▁smarta	-10.4569
brott	-10.4572
▁intäkter	-10.4573
▁fågel	-10.4575
▁svag	-10.4579
▁avsikt	-10.4586
▁skadade	-10.4587
▁förbättring	-10.4588
low	-10.4591
▁Dig	-10.4591
▁konventionen	-10.4591
▁As	-10.4598
samma	-10.4605
tta	-10.4606
pro	-10.4607
▁fattigdom	-10.461
▁ansvariga	-10.4616
▁MS	-10.4617
▁bevisa	-10.4617
▁kasino	-10.4622
▁ändring	-10.4623
▁årliga	-10.4627
▁förväg	-10.4629
▁ation	-10.4629
▁kampen	-10.4647
▁mass	-10.4648
▁signaler	-10.4651
▁skyddar	-10.4653
▁Daniel	-10.4656
▁vitt	-10.4667
▁männen	-10.4669
▁bakterier	-10.4671
varande	-10.4671
▁tänk	-10.4675
▁justera	-10.4677
▁accepterar	-10.4688
▁kärleken	-10.4691
▁utfärda	-10.47
▁införa	-10.47
▁mobila	-10.47
▁komplettera	-10.4701
▁stannar	-10.4703
▁Barcelona	-10.4703
▁Faktum	-10.4703
▁lösenord	-10.4703
▁gudomlig	-10.4703
▁Musik	-10.4704
▁trygghet	-10.4705
▁godkänd	-10.4709
▁författaren	-10.4711
▁träffar	-10.4713
▁engagera	-10.4714
▁titel	-10.4715
▁4,	-10.4721
▁inställning	-10.4722
▁Fin	-10.4723
▁mord	-10.4726
▁State	-10.4727
▁flyktingar	-10.4731
AT	-10.4734
▁torr	-10.474
▁skärm	-10.4744
▁ombord	-10.475
▁Volvo	-10.475
▁1990	-10.475
▁sjön	-10.4753
▁Cor	-10.4755
▁unikt	-10.4755
ey	-10.4758
▁Ho	-10.4762
▁dvs	-10.4765
▁PS	-10.4777
▁partnerskap	-10.4778
▁förut	-10.4778
▁Live	-10.4778
▁kanaler	-10.4779
företag	-10.4786
▁lördag	-10.4786
▁vintern	-10.4791
ical	-10.4795
▁klassiska	-10.4795
▁kor	-10.4796
▁Huvud	-10.4797
▁springa	-10.4804
▁materialet	-10.4812
▁förväntningar	-10.4814
▁integration	-10.4814
▁passa	-10.4818
▁hanterar	-10.4821
▁Åter	-10.4822
▁teori	-10.4825
▁tillräcklig	-10.4825
▁pl	-10.4826
▁modellen	-10.4826
▁floden	-10.4827
▁flyga	-10.4828
▁berättelser	-10.483
▁King	-10.4832
▁2)	-10.4835
▁Los	-10.4836
▁elektroniska	-10.4836
▁deltar	-10.4837
."	-10.4838
▁lu	-10.4839
part	-10.4842
▁reaktioner	-10.4843
▁färre	-10.4844
▁sällsynt	-10.4844
▁Titta	-10.4845
▁andas	-10.4845
▁lätta	-10.4846
▁publicera	-10.4848
▁US	-10.485
10	-10.4853
▁3:	-10.4854
komst	-10.4856
▁siffror	-10.4862
▁out	-10.4862
▁kreativa	-10.4863
▁klubben	-10.4863
▁Res	-10.4863
▁fångar	-10.4863
▁skickade	-10.4864
▁gravid	-10.4866
▁avgöra	-10.4876
▁klaga	-10.4878
▁versioner	-10.4879
ive	-10.488
▁Bil	-10.4884
▁torka	-10.4884
▁Fram	-10.4888
äk	-10.489
▁betalningar	-10.4895
▁Gold	-10.4896
▁bekräfta	-10.4898
▁193	-10.4899
▁Da	-10.4899
12	-10.49
▁åkte	-10.4903
▁lett	-10.4903
▁kroppar	-10.4908
▁personlighet	-10.4909
ID	-10.4914
▁övning	-10.4917
▁99	-10.4919
▁innefatta	-10.4924
▁ram	-10.4926
▁existerar	-10.4926
▁lig	-10.4933
▁buss	-10.494
▁Exempel	-10.494
▁event	-10.494
tch	-10.4945
▁Tyck	-10.4946
▁faktisk	-10.4948
▁hållet	-10.4948
▁stra	-10.4952
▁soldater	-10.4955
▁vackert	-10.4959
▁bloggen	-10.4962
föra	-10.4962
nade	-10.4963
▁42	-10.4963
▁skilja	-10.4966
▁låten	-10.4969
vär	-10.4969
▁publik	-10.4976
▁utförs	-10.4987
uck	-10.4988
▁Kontakt	-10.4988
▁Ma	-10.4996
▁utöver	-10.4996
▁Day	-10.4997
▁akt	-10.5
▁bröllop	-10.5004
▁byggnaden	-10.5009
▁intressanta	-10.5018
▁kriterier	-10.502
▁miljöer	-10.5023
▁godkänt	-10.5036
▁virtuell	-10.5036
▁Power	-10.5036
▁Programmet	-10.5037
▁intensiv	-10.5039
▁Miss	-10.5046
▁Son	-10.5049
▁vikten	-10.5049
▁Grand	-10.5052
▁odla	-10.5058
Q	-10.5071
▁Plan	-10.5074
▁forum	-10.5075
ble	-10.5075
▁sorg	-10.5077
▁Dag	-10.5077
▁skriftlig	-10.5077
▁Kort	-10.5078
▁ningar	-10.5079
▁intern	-10.5079
▁hundratal	-10.5081
q	-10.5084
▁schema	-10.5085
ktion	-10.5085
▁Ur	-10.5086
män	-10.5086
ach	-10.5088
▁belysning	-10.5089
hus	-10.5091
▁skyldigheter	-10.5102
▁fysiskt	-10.5105
▁glömt	-10.5105
▁svårigheter	-10.5114
ware	-10.5117
▁framgångsrik	-10.512
▁kraftigt	-10.512
▁fältet	-10.5121
▁skyldighet	-10.5122
▁utsläpp	-10.5123
▁debatt	-10.5124
▁försökt	-10.5129
▁gjord	-10.5129
▁moralisk	-10.5133
▁biljetter	-10.5133
▁stycken	-10.5133
emi	-10.5134
▁1999	-10.5134
▁ho	-10.5134
▁kreditkort	-10.5134
▁bostads	-10.5143
▁ab	-10.5143
▁roman	-10.5144
▁rapportera	-10.515
▁genomsnitt	-10.515
▁Sex	-10.515
ub	-10.5152
▁rike	-10.5152
▁(19	-10.5154
▁noll	-10.5156
▁framställ	-10.5161
▁träffade	-10.5171
nter	-10.5176
▁ikväll	-10.5183
▁Jerusalem	-10.5183
▁jävla	-10.5183
▁konsumtion	-10.5183
▁Kristi	-10.5185
▁vänskap	-10.5185
▁dryck	-10.5187
­	-10.5188
▁tänkande	-10.5189
▁ekologisk	-10.5191
▁Livet	-10.5191
▁terapi	-10.5204
▁hy	-10.5205
gas	-10.5206
▁tillgänglighet	-10.5214
rin	-10.5221
▁nån	-10.5229
▁råder	-10.5229
▁redovisning	-10.5233
▁personalen	-10.5234
▁hjärna	-10.5235
▁Total	-10.5235
▁attraktiv	-10.5236
▁följt	-10.5238
▁utöka	-10.5239
▁kommissionens	-10.5239
▁fastställs	-10.524
station	-10.5241
▁gatan	-10.5251
▁friska	-10.5251
▁Ex	-10.5253
▁tillfällig	-10.5257
▁äga	-10.5258
▁55	-10.526
▁kritik	-10.5266
▁skogen	-10.5271
▁tull	-10.5278
▁Inter	-10.5278
▁Amazon	-10.5279
▁Kalifornien	-10.5281
▁kändes	-10.5282
▁Johan	-10.5283
▁återförsäljare	-10.5284
▁skådespelare	-10.5285
▁metoden	-10.5285
▁biverkningar	-10.5287
▁Rock	-10.5288
▁sexuella	-10.5289
▁Mamma	-10.5297
▁lik	-10.53
▁block	-10.5302
▁kök	-10.5307
▁Må	-10.5308
▁säkerställ	-10.531
▁varumärken	-10.5314
▁våren	-10.5319
▁samlade	-10.5324
tterligare	-10.533
▁sönder	-10.5331
▁tålamod	-10.5331
IN	-10.5333
▁lovar	-10.5333
▁slutföra	-10.5335
▁Bay	-10.5339
▁röster	-10.5347
▁uppdatera	-10.5347
▁flygplatsen	-10.5355
▁krigs	-10.5356
.000	-10.536
▁passagerare	-10.5364
▁Polen	-10.5366
▁allvar	-10.537
▁samarbetet	-10.5375
▁tillbringa	-10.5378
▁Allah	-10.5378
▁misslyckas	-10.5381
▁skillnader	-10.5385
▁kontakter	-10.5389
Ä	-10.5389
▁järn	-10.539
▁(1)	-10.5395
▁Jorden	-10.5398
▁sökt	-10.54
▁tävling	-10.5401
ting	-10.5401
form	-10.5405
▁garanti	-10.5408
▁antar	-10.5414
▁perioder	-10.5414
▁foton	-10.5415
▁kvinnorna	-10.5418
▁minnen	-10.5425
vikt	-10.5426
▁flertal	-10.5428
▁Museum	-10.5431
▁akut	-10.5432
▁tradition	-10.5437
▁rock	-10.5439
▁förklarade	-10.544
▁1000	-10.5443
▁po	-10.5459
ografi	-10.5459
▁finansiell	-10.5462
▁experiment	-10.5462
▁integrerad	-10.5462
▁pu	-10.5463
ländsk	-10.5469
qui	-10.547
▁Service	-10.5474
▁italienska	-10.5475
▁staterna	-10.5477
▁hösten	-10.5481
▁gynna	-10.5482
ug	-10.5482
▁isering	-10.5482
▁övertyga	-10.5484
EL	-10.5485
▁grav	-10.5487
▁spridning	-10.5491
▁vald	-10.5492
▁Svenska	-10.5507
end	-10.5508
▁bryter	-10.5511
sats	-10.5522
▁uppstå	-10.5522
ros	-10.5526
▁grön	-10.5531
▁bearbeta	-10.5533
▁väst	-10.5533
▁alternativet	-10.5535
▁klä	-10.5539
▁nas	-10.554
▁;)	-10.5542
kon	-10.5543
▁försiktig	-10.5543
▁pi	-10.5544
ära	-10.5544
▁imorgon	-10.5548
▁banken	-10.5549
▁fasta	-10.5559
▁delade	-10.5563
▁region	-10.5568
▁månaderna	-10.5568
▁seger	-10.557
▁Kr	-10.5576
▁detsamma	-10.5582
ori	-10.5583
▁register	-10.5583
▁anpassning	-10.5584
▁Science	-10.5584
▁tycks	-10.5584
▁matchen	-10.5585
▁behörighet	-10.5587
▁parterna	-10.5589
▁arg	-10.5592
ius	-10.5592
▁kvartalet	-10.5603
▁Las	-10.5606
▁anställd	-10.5606
▁verksamheter	-10.5607
▁Gre	-10.561
▁kyrka	-10.5617
▁Spel	-10.5618
▁mjuk	-10.5623
▁rygg	-10.5629
▁förvandla	-10.5633
håll	-10.5635
▁intelligens	-10.5635
▁förälder	-10.5635
▁pröva	-10.5635
▁hållbara	-10.564
▁5-	-10.5643
fe	-10.5644
upp	-10.5646
▁flyttar	-10.5651
hy	-10.5653
▁köket	-10.5653
▁utvecklade	-10.5657
▁anledningen	-10.5661
▁minister	-10.5665
ding	-10.5667
▁söndag	-10.5674
väg	-10.5674
▁tom	-10.5676
▁hemlig	-10.5679
▁CD	-10.5681
ap	-10.5682
mmer	-10.5683
▁bandet	-10.5683
▁ytan	-10.5684
▁uttrycka	-10.5684
▁Central	-10.5687
▁vädret	-10.5687
▁Irland	-10.5687
▁Utöv	-10.5688
▁skämt	-10.5688
▁självmord	-10.569
▁måndag	-10.569
+	-10.5695
▁förebyggande	-10.5695
out	-10.5701
▁marknadsförings	-10.5701
▁barns	-10.5704
▁Harry	-10.5708
▁ordentligt	-10.5709
▁Hill	-10.5709
▁byggd	-10.5711
▁he	-10.5714
lle	-10.5715
▁näst	-10.5715
▁Ya	-10.5719
▁konsumenter	-10.5724
amp	-10.5724
▁lopp	-10.5727
▁nordisk	-10.5735
▁radikal	-10.5738
▁ursprungligen	-10.5741
▁översättning	-10.5744
▁multi	-10.5748
▁döds	-10.5748
ina	-10.5752
▁steget	-10.5756
▁regionala	-10.5761
▁konstigt	-10.5767
fin	-10.5767
▁räkning	-10.5772
▁64	-10.5775
▁titeln	-10.5777
▁dis	-10.5777
▁beställa	-10.5781
▁tjejer	-10.5785
▁Året	-10.5789
▁1-	-10.579
▁Thomas	-10.5791
▁antog	-10.5791
▁lyft	-10.5795
▁kn	-10.5795
▁Alex	-10.5798
▁On	-10.5801
▁stör	-10.5804
Vad	-10.5811
ux	-10.5823
▁grekiska	-10.5825
▁):	-10.5838
▁övertygad	-10.584
▁omsorg	-10.5844
▁demokratisk	-10.5846
▁förändrats	-10.585
▁patent	-10.5854
▁angiv	-10.5855
▁rättigheterna	-10.5858
programmet	-10.5858
▁anläggning	-10.5864
▁off	-10.5867
▁aning	-10.5873
▁kritisk	-10.5879
▁pågående	-10.588
▁användarna	-10.5885
▁interna	-10.5886
▁fötter	-10.5887
▁dialog	-10.5889
ino	-10.589
▁begränsat	-10.5894
▁Njut	-10.5895
▁kronisk	-10.5896
▁show	-10.5899
▁förare	-10.59
▁använts	-10.5903
▁direktivet	-10.5904
▁frågorna	-10.5905
▁Hu	-10.5906
▁nord	-10.5908
▁offentligt	-10.5912
▁nöjda	-10.5914
▁trevlig	-10.5915
▁hi	-10.5915
▁Gran	-10.5916
▁banan	-10.592
▁kompis	-10.5921
▁uppe	-10.5922
nivå	-10.5923
▁jordbruks	-10.5923
▁reducera	-10.593
▁spa	-10.5931
▁Van	-10.5932
▁(3	-10.5934
▁varelser	-10.5936
▁op	-10.5939
nta	-10.5945
▁operation	-10.5947
rämmande	-10.5948
▁blodet	-10.5951
Z	-10.5957
▁underhållning	-10.5959
▁katter	-10.5961
▁tillämpliga	-10.5961
▁personligt	-10.5963
▁Pri	-10.5964
▁titt	-10.5966
▁skapas	-10.5967
▁judar	-10.5972
mer	-10.598
▁orsaker	-10.5982
▁konsumenterna	-10.5985
▁Ä	-10.5988
▁Kor	-10.5993
▁åldern	-10.5993
fr	-10.5993
▁priserna	-10.5994
▁Richard	-10.6002
▁komfort	-10.6002
▁troende	-10.6003
▁betyg	-10.6005
▁Ve	-10.6007
▁turist	-10.6008
▁packa	-10.6009
▁95	-10.6011
▁800	-10.6013
▁uppdateringar	-10.6018
▁linjen	-10.602
▁dricker	-10.6022
▁Fem	-10.6023
▁pump	-10.6027
▁kallt	-10.6027
▁Ly	-10.6032
▁innebära	-10.6032
djur	-10.6035
ich	-10.6037
▁nämna	-10.6039
▁typisk	-10.6052
▁kallat	-10.6055
▁blodtryck	-10.6055
▁Royal	-10.6056
▁stabilitet	-10.6056
▁DNA	-10.6057
▁mynt	-10.6057
▁III	-10.6059
vel	-10.6065
▁ci	-10.6066
▁mag	-10.6068
▁Sand	-10.6069
stat	-10.607
▁lyfta	-10.6071
▁förluster	-10.6073
▁allvarlig	-10.6078
▁skatter	-10.6083
▁månen	-10.6086
▁förvärv	-10.609
▁tidningen	-10.6107
▁motivera	-10.6108
▁granskning	-10.6109
▁humör	-10.6109
▁kabel	-10.611
erry	-10.6111
bin	-10.6111
▁löfte	-10.6114
▁ansåg	-10.6116
▁styrkor	-10.6117
▁telefonen	-10.6117
dor	-10.6121
▁spelen	-10.6127
▁omedelbar	-10.6129
▁rollen	-10.6134
▁tillväxten	-10.6135
▁avdelning	-10.614
▁evigt	-10.6147
▁musiken	-10.6148
▁Stora	-10.615
▁variera	-10.6151
▁Inc	-10.6155
▁Digital	-10.6163
▁Undvik	-10.6163
▁förknippa	-10.6163
▁stämmer	-10.6163
▁tjock	-10.6163
▁utgifter	-10.6163
▁sjunk	-10.6164
▁storleken	-10.6165
▁dr	-10.6169
▁färdig	-10.6169
▁scen	-10.617
▁uppenbart	-10.6171
▁praktiskt	-10.6174
▁styrning	-10.6178
▁utvalda	-10.6186
▁tyd	-10.6187
▁Can	-10.6189
▁isera	-10.6189
star	-10.6191
▁Bas	-10.6191
ob	-10.6195
▁vänder	-10.6198
▁sånt	-10.6199
▁bröst	-10.6199
▁Bio	-10.62
▁muskel	-10.6202
▁byn	-10.6203
▁Real	-10.6205
▁sko	-10.6213
▁Nederländerna	-10.6217
▁territorium	-10.6217
▁yoga	-10.6217
▁High	-10.6218
▁rådgivning	-10.6218
▁givetvis	-10.6219
▁War	-10.6221
▁Sin	-10.6228
åriga	-10.6241
▁inuti	-10.6242
▁väck	-10.6242
▁förutsättning	-10.6245
▁målen	-10.6249
eb	-10.6254
pan	-10.6256
▁Carl	-10.6259
▁belöning	-10.6272
▁portfölj	-10.6272
▁sällskap	-10.6272
▁smartphone	-10.6272
▁plattformar	-10.6274
▁ism	-10.6274
▁gu	-10.6277
▁snälla	-10.6278
▁hamn	-10.628
varu	-10.6284
▁imponerande	-10.6285
▁håret	-10.6287
▁långsiktiga	-10.629
▁Vidare	-10.6292
▁byrån	-10.6304
▁frid	-10.6305
▁Gilla	-10.6308
▁journalist	-10.6309
▁lukt	-10.631
▁istisk	-10.631
▁ägaren	-10.6311
▁framgångsrikt	-10.6316
▁ler	-10.6316
▁stycket	-10.6316
▁åsikt	-10.6317
▁generationer	-10.6318
▁inrätta	-10.6319
▁skönt	-10.6322
▁sub	-10.6322
▁Ku	-10.6323
överensstämmelse	-10.6327
▁litteratur	-10.6327
▁stödjer	-10.6327
▁dött	-10.6328
▁detalj	-10.633
▁Ti	-10.6337
▁motsatt	-10.6338
▁fylld	-10.634
▁sorter	-10.6343
rid	-10.6352
▁Un	-10.6355
▁ligt	-10.6355
▁ry	-10.6363
▁avsnittet	-10.6365
▁långsamt	-10.6365
▁Ande	-10.6367
▁sann	-10.6371
▁dörrar	-10.6371
▁appen	-10.6371
▁vinnare	-10.6375
▁Col	-10.6377
▁choklad	-10.6382
▁kollegor	-10.6382
▁koncentrera	-10.6382
▁tjugo	-10.6382
▁förbehåll	-10.6382
▁avkastning	-10.6382
▁hörn	-10.6383
▁punkterna	-10.6386
▁anfall	-10.6386
▁hushåll	-10.6391
▁skapande	-10.6392
▁registrerade	-10.6392
▁gjordes	-10.6393
▁läsning	-10.6393
▁individ	-10.6394
ola	-10.6395
▁betalas	-10.6396
ica	-10.6401
▁tränings	-10.6405
▁droger	-10.6407
▁investering	-10.6409
▁tion	-10.6411
▁problemen	-10.6411
fri	-10.6417
▁neuro	-10.6418
▁Tar	-10.642
iz	-10.642
▁Bor	-10.6424
▁pr	-10.6428
▁bjud	-10.6431
▁betona	-10.6431
▁Mon	-10.6434
▁sjuka	-10.6436
▁fysik	-10.6438
▁League	-10.6438
▁Också	-10.6438
▁Smart	-10.6438
▁rikedom	-10.6438
▁bostäder	-10.6438
▁Ställ	-10.6439
kri	-10.644
▁Väst	-10.6441
bok	-10.6443
▁saken	-10.6444
▁mej	-10.6448
ath	-10.6451
▁Ger	-10.6453
▁bekräftar	-10.6455
▁träffat	-10.6457
▁kemikalier	-10.6462
▁fabrik	-10.6463
▁bortom	-10.6468
dan	-10.647
▁länken	-10.6472
▁Resultat	-10.6476
cc	-10.6476
▁träffas	-10.6478
▁HD	-10.6482
▁ideal	-10.6486
▁Gen	-10.6487
▁tilldela	-10.6487
con	-10.6487
▁South	-10.6493
¤	-10.6493
▁rekord	-10.6493
▁scenen	-10.6498
▁jo	-10.65
▁lägst	-10.6501
▁tänder	-10.6502
▁Mose	-10.6502
▁förmån	-10.6507
▁sexuell	-10.651
atör	-10.6516
▁formell	-10.6517
IT	-10.6521
▁dörr	-10.6521
▁hota	-10.6527
▁Blue	-10.6528
▁ledningen	-10.6532
▁bet	-10.6533
▁beräknas	-10.6545
PA	-10.6546
▁förening	-10.6547
▁sprid	-10.6547
▁falla	-10.6549
▁redigera	-10.655
▁sänka	-10.655
▁Sätt	-10.655
▁besvara	-10.655
▁observera	-10.6557
▁databas	-10.6557
bolag	-10.6563
▁vanor	-10.6566
▁minnas	-10.6568
▁tysk	-10.6569
▁tjänsterna	-10.6572
▁sh	-10.6573
▁funkar	-10.6574
▁vandra	-10.6586
▁känsliga	-10.6591
▁vind	-10.6593
▁wa	-10.6593
▁hårda	-10.6594
▁släpptes	-10.6594
▁Fo	-10.6594
▁Studie	-10.66
rum	-10.6601
▁ansiktet	-10.6604
▁rätts	-10.6604
▁kombinerar	-10.6605
▁tycka	-10.6606
▁tillåtet	-10.6606
▁slutänd	-10.6606
▁farligt	-10.6612
▁numera	-10.6614
▁Max	-10.6614
ök	-10.6616
▁advokat	-10.6617
▁Ke	-10.662
▁försvars	-10.6623
▁robot	-10.6623
▁röka	-10.6626
▁lura	-10.6631
▁Sun	-10.6633
▁Video	-10.6633
▁killar	-10.6635
▁genomförandet	-10.6636
▁kulturen	-10.6636
▁stolta	-10.6641
▁spelas	-10.6641
▁besökte	-10.6643
rå	-10.6647
▁tillfälligt	-10.665
▁sakerna	-10.6653
punkt	-10.6654
▁praktiken	-10.6654
▁optimera	-10.6663
▁Grund	-10.6663
▁rådgivare	-10.6664
▁frakt	-10.6664
▁ankomst	-10.6666
▁sysselsättning	-10.6668
▁vanligen	-10.6668
▁ac	-10.6676
▁gent	-10.6679
▁??	-10.6683
tjänst	-10.6683
erande	-10.6687
▁arbetsgivare	-10.6694
▁Går	-10.6694
▁Ber	-10.6695
▁texter	-10.6701
▁diagnos	-10.6702
▁instruktioner	-10.6703
▁externa	-10.6706
▁rötter	-10.6707
▁orka	-10.6708
▁192	-10.6712
▁import	-10.6714
▁bedriv	-10.6715
▁andliga	-10.6716
gon	-10.6718
▁atmosfär	-10.6719
▁fördelning	-10.6719
▁graviditet	-10.672
▁existens	-10.672
▁omfattning	-10.672
▁återigen	-10.672
▁livslängd	-10.6721
▁påpeka	-10.6721
▁huvudstad	-10.6721
▁res	-10.6726
▁bro	-10.6727
▁koncernen	-10.673
kraft	-10.6731
▁Vo	-10.6733
▁baby	-10.6741
▁bitar	-10.6742
▁enorm	-10.6743
lla	-10.6747
▁chefer	-10.6749
tagande	-10.6755
▁kraftfulla	-10.6755
lighet	-10.6756
▁förvärva	-10.6756
▁inneha	-10.6763
▁dusch	-10.6767
nes	-10.6771
▁Bok	-10.6775
▁signal	-10.6775
▁konsekvent	-10.6778
▁Speciell	-10.6778
▁turister	-10.6778
▁klagomål	-10.6778
▁onsdag	-10.6778
▁skadliga	-10.678
▁stiga	-10.6788
▁cool	-10.679
▁Konst	-10.6791
▁Qu	-10.6792
▁motståndare	-10.6793
▁rapportering	-10.6794
▁tjänare	-10.6796
▁negativ	-10.68
▁Program	-10.6801
app	-10.6801
▁operativ	-10.6804
▁städerna	-10.6805
Å	-10.6805
▁nings	-10.6805
▁övningar	-10.6805
▁ve	-10.6809
▁attack	-10.6812
▁sover	-10.6816
▁log	-10.6817
▁bruka	-10.6823
▁landskap	-10.6824
▁runda	-10.6825
▁citat	-10.6825
▁Big	-10.6826
▁sug	-10.6827
▁genomförande	-10.6828
▁Särskil	-10.6834
▁Skillnad	-10.6835
▁Texas	-10.6835
▁Next	-10.6836
postadress	-10.6836
▁anger	-10.6839
▁museum	-10.684
▁förebygga	-10.684
▁sände	-10.684
▁sparar	-10.6845
▁medlemsstaten	-10.6847
träd	-10.6853
▁inköp	-10.6853
▁Par	-10.6857
▁områdena	-10.6857
▁sakna	-10.6858
▁räknar	-10.6862
▁Fortsätt	-10.6863
▁montera	-10.6865
kla	-10.6865
▁operativsystem	-10.6867
▁klipp	-10.687
▁damm	-10.688
▁fantasi	-10.6893
▁hälsosam	-10.6893
▁tävla	-10.6893
▁United	-10.6894
▁deltagarna	-10.6894
▁Berätta	-10.6894
▁dubbla	-10.6894
▁redovisa	-10.6894
▁toalett	-10.6894
▁tolka	-10.6895
▁motiv	-10.6897
▁konton	-10.6897
▁§	-10.6898
▁banker	-10.69
▁enorma	-10.6901
▁störningar	-10.6905
▁Redan	-10.6905
▁föräldrarna	-10.6908
▁anslut	-10.6911
▁tvekan	-10.6912
▁begreppet	-10.6917
▁lågt	-10.6917
▁kommitté	-10.6918
▁tvingas	-10.692
▁Natur	-10.6922
don	-10.6925
▁klänning	-10.6927
▁klassen	-10.6928
▁kungen	-10.6932
▁ru	-10.6935
OS	-10.6941
▁majoritet	-10.6952
▁Beach	-10.6954
▁behandlings	-10.6954
▁sända	-10.6958
▁5,	-10.696
▁levde	-10.6962
▁kursen	-10.6977
▁pojkar	-10.698
▁fåglar	-10.698
▁tillhandahålls	-10.6983
▁250	-10.6984
▁etablerade	-10.6992
▁förvånad	-10.6994
▁delarna	-10.6994
▁ris	-10.6995
▁utvecklare	-10.6998
▁brister	-10.6998
▁värdera	-10.6999
▁tum	-10.7001
▁nere	-10.7001
▁moder	-10.7002
ledande	-10.7005
▁ri	-10.701
▁pilot	-10.7011
▁[1]	-10.7011
▁Life	-10.7011
▁index	-10.7012
▁orolig	-10.7016
▁känslig	-10.7023
övre	-10.7024
▁Mr	-10.7025
▁tränare	-10.7029
▁ängel	-10.7031
ubb	-10.7036
▁roller	-10.7037
▁rykte	-10.7039
▁pan	-10.704
▁skär	-10.7043
avtal	-10.7047
▁fe	-10.7051
▁svär	-10.7051
verk	-10.7052
▁fenomen	-10.7052
▁togs	-10.7053
que	-10.7058
▁detaljerad	-10.7058
▁vänlig	-10.706
▁volym	-10.7063
▁And	-10.7064
▁löne	-10.7069
▁förnybar	-10.707
▁visuell	-10.707
givande	-10.7072
▁föreningen	-10.7073
▁besvär	-10.7078
▁sökning	-10.708
▁medlemmarna	-10.7081
▁Hall	-10.7082
▁rött	-10.7085
▁Anti	-10.7086
▁Göteborg	-10.7089
▁parlamentet	-10.7089
▁trädgården	-10.7092
ram	-10.7095
▁Wall	-10.7095
▁fastighets	-10.7097
▁tidig	-10.7102
▁tydliga	-10.7106
▁tillverkaren	-10.7109
▁måltid	-10.7112
▁förbund	-10.7117
▁con	-10.7121
▁behåll	-10.7121
▁stimulera	-10.7122
▁fiender	-10.7122
30	-10.7124
▁ställde	-10.7126
▁sämre	-10.7129
▁prövning	-10.7129
▁överlämna	-10.713
▁genast	-10.713
▁sannolikhet	-10.713
▁penis	-10.7131
▁Fall	-10.7139
▁attacker	-10.7141
far	-10.7143
▁Män	-10.7145
▁Auto	-10.7147
▁Risk	-10.7149
▁döma	-10.7151
▁th	-10.7155
▁inbyggd	-10.7156
uff	-10.7156
▁tor	-10.7157
▁43	-10.7159
▁stäng	-10.716
lys	-10.7161
▁domare	-10.7162
▁idealisk	-10.7163
▁grundare	-10.7169
gra	-10.717
▁0,	-10.7172
▁utredning	-10.7174
▁läggs	-10.7175
▁penning	-10.7177
▁haha	-10.718
▁begå	-10.7182
▁koppling	-10.7182
▁gener	-10.7183
▁Personlig	-10.7187
▁återbetalning	-10.719
▁·	-10.719
▁reflektera	-10.719
▁Undra	-10.7191
▁höst	-10.7191
▁böj	-10.7191
▁skett	-10.7192
▁€	-10.7193
▁ledamöter	-10.7193
▁angående	-10.7197
▁tävlingen	-10.7199
▁ISO	-10.7199
illsammans	-10.7207
▁medlemskap	-10.7209
▁härlig	-10.7211
▁Fe	-10.7212
ssystem	-10.7215
anska	-10.7216
▁AR	-10.7219
▁muskler	-10.7219
▁bomb	-10.7226
▁ga	-10.7232
▁tolkning	-10.7233
jo	-10.7233
▁syd	-10.7233
ung	-10.7234
▁rapporterade	-10.7237
process	-10.7246
▁glömmer	-10.725
▁filter	-10.7251
▁rörlighet	-10.7254
▁strålning	-10.7256
▁medvetenhet	-10.7257
iff	-10.726
▁lagring	-10.726
▁Arbets	-10.7263
▁infektioner	-10.7263
▁park	-10.7266
igenom	-10.7267
▁grönsaker	-10.7268
vik	-10.7273
▁levereras	-10.728
▁3)	-10.7281
line	-10.7286
▁lagstiftningen	-10.7287
ound	-10.7289
▁officiellt	-10.7289
▁bin	-10.7291
▁Prov	-10.7293
▁arkiv	-10.7293
▁utforma	-10.7305
▁immun	-10.7305
▁konflikter	-10.7306
▁Afghanistan	-10.731
▁dröj	-10.7311
▁Väl	-10.7312
▁genomförs	-10.7312
▁överlevnad	-10.7313
▁bekvämt	-10.7313
▁190	-10.7314
▁falska	-10.7323
▁Land	-10.7324
▁anpassade	-10.7325
▁gro	-10.7329
rap	-10.7333
▁bur	-10.7337
che	-10.7339
▁Em	-10.734
gh	-10.7343
▁handeln	-10.7346
▁rakt	-10.7352
▁lugnt	-10.736
▁national	-10.736
lim	-10.7363
▁Bre	-10.7364
▁ansöka	-10.7366
oli	-10.7369
▁Smith	-10.7371
▁Islam	-10.7371
▁jämställdhet	-10.7371
▁eliminera	-10.7371
▁Upptäck	-10.7371
▁hellre	-10.7371
▁diskriminering	-10.7372
▁avsedd	-10.7372
▁skjuta	-10.7374
▁Fyr	-10.7375
▁44	-10.7375
▁mörk	-10.7376
▁Plus	-10.7376
▁fond	-10.7376
▁Au	-10.7381
▁simma	-10.7383
▁kortet	-10.7384
▁meddelade	-10.7385
▁ost	-10.7392
▁mail	-10.7399
▁klasser	-10.74
pati	-10.74
▁Jan	-10.7401
▁unions	-10.7403
▁kall	-10.7404
▁inträffar	-10.7404
vida	-10.7408
▁videon	-10.7414
▁huvudsak	-10.7414
▁hållas	-10.7415
▁storm	-10.7416
▁kontoret	-10.7418
▁Probleme	-10.7419
▁rot	-10.7419
▁kortare	-10.7421
ös	-10.7422
kl	-10.7427
NTE	-10.7429
▁ling	-10.7432
▁expandera	-10.7433
▁kopiera	-10.7433
▁studenterna	-10.7433
ON	-10.7433
kin	-10.7437
▁läkemedels	-10.7438
▁nyckeln	-10.7438
▁billigare	-10.744
cha	-10.7441
▁port	-10.745
▁vd	-10.7451
▁fotograf	-10.7451
tel	-10.7452
▁com	-10.7454
▁Jesu	-10.7459
lunda	-10.746
▁vägg	-10.746
ris	-10.7462
▁märkt	-10.7462
▁fo	-10.7464
▁negativt	-10.7465
▁uppfyll	-10.7465
▁Media	-10.7466
▁webbläsare	-10.7466
▁planeten	-10.747
CA	-10.7474
▁skulder	-10.7474
▁Sky	-10.7481
▁föreningar	-10.7483
▁William	-10.7485
▁förstod	-10.7489
▁Mass	-10.7493
▁förfarandet	-10.7493
▁Schweiz	-10.7494
▁Ukraina	-10.7494
▁däribland	-10.7494
▁prioritera	-10.7494
▁strikt	-10.7494
▁[-]	-10.7494
▁Johannes	-10.7495
▁Berlin	-10.7495
▁Slutligen	-10.7495
▁IV	-10.7496
▁konstant	-10.7497
▁insättning	-10.75
.1	-10.75
▁kära	-10.7503
▁uttala	-10.7505
▁@	-10.7507
▁fonden	-10.7508
▁Pu	-10.7508
▁syftet	-10.7508
▁web	-10.7511
▁personligen	-10.7514
▁rymden	-10.7516
▁amerikaner	-10.7516
▁förmåner	-10.7516
ontrollera	-10.7516
▁gruv	-10.7519
▁Spela	-10.752
▁butiken	-10.7522
▁idén	-10.7525
▁överraska	-10.753
grad	-10.753
▁stjärna	-10.7534
▁Fl	-10.7539
▁3-	-10.7541
▁människo	-10.7545
▁Nä	-10.7547
vet	-10.7548
▁profet	-10.755
▁4-	-10.755
▁villig	-10.7551
▁osäker	-10.7552
▁revolution	-10.7552
▁TM	-10.7554
▁85	-10.7555
▁öppning	-10.7556
▁uppgradera	-10.7556
▁badrum	-10.7557
▁fotbolls	-10.7559
▁mästare	-10.7559
▁kopia	-10.7559
▁tidning	-10.7561
▁presentation	-10.7571
▁CO	-10.7572
SA	-10.7573
▁installation	-10.7576
▁lanserade	-10.758
När	-10.758
För	-10.7586
▁lust	-10.759
▁ständig	-10.7594
▁muslimsk	-10.7595
▁administration	-10.7602
dag	-10.7603
▁Open	-10.7606
nsåg	-10.761
▁lägenheter	-10.7614
▁ion	-10.7615
▁Instagram	-10.7619
▁hjälte	-10.7619
▁samordna	-10.7619
▁kontrollen	-10.762
▁automatisk	-10.7621
▁såklart	-10.7623
▁måla	-10.7624
▁försäljningen	-10.7624
▁prestation	-10.7633
▁bloggar	-10.7635
▁därifrån	-10.7638
▁Resultatet	-10.7639
▁minskade	-10.764
▁blomma	-10.7643
▁Barnen	-10.7645
▁mäklare	-10.7649
▁stilla	-10.7649
syn	-10.7649
á	-10.7649
▁fader	-10.765
▁chefen	-10.7651
hand	-10.7652
▁bränn	-10.7653
org	-10.7654
▁Bri	-10.7656
▁kommun	-10.7657
▁Web	-10.7661
gå	-10.7662
▁general	-10.7664
▁förhållandet	-10.7665
▁arm	-10.7667
TC	-10.767
råd	-10.7674
▁djuren	-10.7675
▁genomförde	-10.7675
▁drycker	-10.768
ET	-10.768
ü	-10.7682
▁President	-10.7682
▁Abraham	-10.7682
▁time	-10.7691
▁källan	-10.7692
▁utbildningen	-10.7692
▁ansvaret	-10.7693
▁Cap	-10.7694
▁erkännande	-10.7696
▁stötta	-10.77
▁7.	-10.77
▁nämnda	-10.7701
vetenskap	-10.7701
▁värda	-10.7702
ryck	-10.771
▁Hy	-10.771
tyr	-10.7711
▁bränna	-10.7714
▁trygg	-10.7715
▁förbindelser	-10.7716
▁färgen	-10.7717
▁antik	-10.7719
▁välkänd	-10.7722
▁trevligt	-10.7724
▁meditation	-10.7728
▁bollen	-10.773
▁Vänlig	-10.773
handel	-10.7731
▁öga	-10.7732
▁Free	-10.7734
äst	-10.774
▁kopplad	-10.774
aw	-10.774
▁batterier	-10.7741
▁motion	-10.7743
visning	-10.7743
▁00	-10.7744
←	-10.7745
▁försvann	-10.7745
▁konsumera	-10.7745
▁högkvalitativ	-10.7745
▁kärnvapen	-10.7745
▁placering	-10.7745
▁Gaml	-10.7745
▁principen	-10.7748
▁Centre	-10.775
▁www	-10.775
▁produktiv	-10.7752
▁poster	-10.7754
mma	-10.7756
▁Hol	-10.7756
smål	-10.7756
▁konflikt	-10.7759
▁120	-10.7761
▁öarna	-10.7768
Naturligtvis	-10.7768
▁ögat	-10.777
▁uppfatta	-10.7777
ness	-10.7778
▁Internationella	-10.7778
▁pojke	-10.7779
kast	-10.7783
bol	-10.7786
▁pappers	-10.7786
▁stick	-10.7787
▁liberal	-10.7789
vil	-10.7789
▁tvivel	-10.7791
▁tillverkade	-10.7792
▁kalorier	-10.7794
▁gl	-10.7794
▁presenterade	-10.7797
▁upplevelsen	-10.7798
▁Vatten	-10.7808
▁arrangemang	-10.7809
▁teoretisk	-10.7809
▁nyfiken	-10.7809
▁Thailand	-10.7809
▁certifikat	-10.7809
▁citera	-10.781
▁välkommen	-10.781
▁Tank	-10.7812
▁väggen	-10.7814
▁46	-10.7815
▁ryggen	-10.7818
▁uppträd	-10.7818
▁filosofi	-10.782
▁ter	-10.7822
▁box	-10.7824
▁lugna	-10.7828
the	-10.7831
▁väntade	-10.7833
die	-10.7834
▁Världen	-10.7842
▁kvalificerad	-10.7844
▁Lev	-10.7847
▁romantisk	-10.7847
▁Ring	-10.7849
▁knä	-10.785
▁Ali	-10.785
▁varning	-10.7852
▁öppnas	-10.7861
▁Love	-10.7863
▁söder	-10.7872
▁College	-10.7873
▁Malmö	-10.7873
▁asyl	-10.7874
▁USB	-10.7876
▁blott	-10.7876
▁kraftfull	-10.7877
▁sortiment	-10.7877
▁syndrom	-10.7879
▁<	-10.788
▁ställs	-10.788
▁trender	-10.7885
▁överdriv	-10.7887
▁hej	-10.7888
▁riskerar	-10.7888
▁Lund	-10.7892
▁uttrycklig	-10.7894
▁ke	-10.79
▁utformat	-10.7902
▁sjukhuset	-10.7909
▁lan	-10.7909
▁bostad	-10.791
▁Brit	-10.7911
▁förvaltnings	-10.7913
▁bergen	-10.7915
▁Typ	-10.7917
▁nyhet	-10.792
▁Hus	-10.793
▁snäll	-10.7931
▁trycket	-10.7937
▁federal	-10.7937
▁hungrig	-10.7937
▁inriktning	-10.7937
▁välbefinnande	-10.7937
▁Skicka	-10.7937
▁Bygg	-10.7939
▁Ag	-10.794
▁släkt	-10.7943
▁trådlös	-10.7946
▁delning	-10.7947
▁Karl	-10.7948
▁rutiner	-10.7949
▁''	-10.795
▁ledig	-10.7951
▁mu	-10.7951
▁6.	-10.7952
▁dölj	-10.7954
▁singel	-10.7957
▁direktör	-10.7958
slut	-10.7958
▁varma	-10.7963
▁mätning	-10.7964
▁arbeten	-10.7967
▁punkten	-10.7968
▁stärk	-10.797
▁mötte	-10.7971
iter	-10.7973
▁avslöjar	-10.7973
▁fördraget	-10.7975
▁gemenskaps	-10.7976
day	-10.7977
▁avancerad	-10.7979
▁utsatt	-10.7982
fil	-10.7985
▁Rik	-10.7986
▁Världs	-10.7989
▁anställ	-10.7989
▁leka	-10.7991
nen	-10.8002
▁Regissör	-10.8002
▁minimera	-10.8002
▁givit	-10.8002
▁vägledning	-10.8004
▁aspekt	-10.8005
▁Wh	-10.8006
▁poly	-10.8014
▁hänga	-10.8017
▁närings	-10.8018
chef	-10.8022
nge	-10.8022
▁ob	-10.8023
examen	-10.8024
▁ECB	-10.8024
▁konferensen	-10.8025
tio	-10.8027
▁we	-10.8028
▁förväntade	-10.803
▁stånd	-10.8031
▁destination	-10.8033
▁förbättringar	-10.8033
▁talet	-10.8037
▁breda	-10.8039
▁fastigheter	-10.8041
▁köpare	-10.8044
▁47	-10.8045
lon	-10.8049
▁sköt	-10.8053
▁blind	-10.8053
▁föda	-10.8054
ban	-10.8054
▁4:	-10.8062
bel	-10.8063
▁bu	-10.8064
▁lands	-10.8065
▁Berg	-10.8066
▁Perfekt	-10.8068
▁kristen	-10.8069
▁talat	-10.8069
ple	-10.8069
▁nöje	-10.8069
▁master	-10.807
▁institut	-10.8071
▁skepp	-10.8072
▁koncern	-10.8075
▁skrik	-10.8075
▁förslaget	-10.8076
▁ovanför	-10.8077
▁180	-10.8077
▁Vänta	-10.8077
▁inomhus	-10.8078
▁Fu	-10.8079
▁present	-10.808
▁transporter	-10.8082
▁klassisk	-10.8083
▁våga	-10.8084
▁handlare	-10.8101
▁mjukvara	-10.8107
tvis	-10.8108
▁Shi	-10.8109
▁Stat	-10.8111
▁transportera	-10.8114
▁födda	-10.8117
▁vice	-10.8118
▁Led	-10.812
▁tung	-10.8122
▁dominera	-10.8125
▁rep	-10.8126
▁vilda	-10.8127
mera	-10.8133
▁absorbera	-10.8133
▁Miljö	-10.8134
▁flexibel	-10.8134
▁premiärminister	-10.8134
▁leende	-10.8134
▁Tips	-10.8134
▁os	-10.8134
▁mörkret	-10.8134
▁1980	-10.8134
bit	-10.8135
▁sky	-10.8137
▁Anders	-10.8142
▁troligen	-10.8144
cal	-10.8146
▁nivåerna	-10.8146
▁plikt	-10.8152
▁Team	-10.8152
▁halt	-10.8154
▁EG	-10.8169
▁generationen	-10.8171
enda	-10.8172
▁bekant	-10.8175
▁recensioner	-10.8179
gav	-10.8182
▁vitamin	-10.8182
▁Luc	-10.8184
my	-10.8186
▁underbart	-10.8186
rad	-10.8186
▁golv	-10.8186
▁koldioxid	-10.8187
▁lektioner	-10.8188
▁elektronisk	-10.8189
▁rapporterar	-10.8193
år	-10.8194
▁Club	-10.82
▁åldrar	-10.82
▁Öppna	-10.82
▁återhämtning	-10.82
▁återvinning	-10.82
▁Lokal	-10.82
▁verksamhets	-10.8201
▁parken	-10.8202
▁besökt	-10.8204
▁gåvor	-10.8205
▁möjligheterna	-10.8205
▁anläggningen	-10.8207
▁verkligt	-10.8208
off	-10.8209
▁vetenskapen	-10.8211
▁USD	-10.8212
bas	-10.8214
▁listor	-10.8214
▁sur	-10.8215
▁Serie	-10.8221
▁Bell	-10.8224
▁verkan	-10.8225
▁")	-10.8228
▁böckerna	-10.8228
▁chi	-10.8228
▁förenkla	-10.8232
stora	-10.8238
▁färd	-10.8246
▁mediciner	-10.8247
▁presenteras	-10.8252
▁gäng	-10.8253
▁laga	-10.8256
▁lock	-10.8261
all	-10.8266
▁1998	-10.8266
▁YouTube	-10.8266
▁olyckor	-10.8266
▁2015.	-10.8268
▁tumör	-10.8268
▁släng	-10.8268
▁befria	-10.8268
▁ätit	-10.827
▁verkställande	-10.8271
▁sv	-10.8275
▁Ren	-10.8276
▁paus	-10.8276
▁ovanligt	-10.8277
▁nämnde	-10.8278
▁moral	-10.8279
▁förlängning	-10.8279
▁final	-10.8279
▁snabbast	-10.8281
velat	-10.8283
▁fönstret	-10.8284
▁mobiltelefon	-10.8285
▁publicerade	-10.8285
lek	-10.829
▁Staden	-10.8304
▁700	-10.8306
plats	-10.8311
oll	-10.8312
▁krisen	-10.8312
▁Stra	-10.8313
▁Kl	-10.8314
▁grönt	-10.8315
▁Pris	-10.8317
▁dödade	-10.8318
ekommande	-10.832
▁minnes	-10.8326
▁inbegripet	-10.8338
▁parkering	-10.8338
▁Flyg	-10.8339
▁museet	-10.8339
▁importera	-10.834
▁sevärdheter	-10.8342
▁tvingade	-10.8344
▁Steg	-10.8346
▁säte	-10.8356
▁utesluta	-10.8356
▁strål	-10.8363
tz	-10.8363
▁lyckliga	-10.8368
▁lokalt	-10.8378
▁ägde	-10.8384
▁ell	-10.8389
lus	-10.8393
▁vetenskaplig	-10.8399
▁5:	-10.84
▁båtar	-10.84
▁bana	-10.8402
vious	-10.8403
▁önskan	-10.8403
▁vers	-10.8403
▁sålde	-10.8404
▁deltog	-10.8404
▁visum	-10.8406
▁ist	-10.841
unk	-10.8414
▁flytt	-10.8415
▁matcher	-10.8417
▁aggressiv	-10.8417
▁maskinen	-10.8421
▁medie	-10.8422
▁kampanjer	-10.8423
▁laddning	-10.8432
▁svärd	-10.8439
▁stiger	-10.8442
▁tomt	-10.8442
▁iOS	-10.8442
old	-10.8443
▁svaga	-10.8447
▁utformad	-10.8447
▁otrolig	-10.845
▁Sim	-10.8455
▁annons	-10.8455
amtliga	-10.8457
▁protokoll	-10.8457
▁egenskap	-10.8459
▁föds	-10.846
vor	-10.8467
▁Kyrkan	-10.8469
▁Österrike	-10.8469
▁realtid	-10.8469
▁implementera	-10.8471
sett	-10.8479
▁Full	-10.8479
▁silver	-10.8483
-1	-10.8484
▁hinn	-10.8485
▁ingå	-10.8487
▁utrusta	-10.8489
▁loppet	-10.8492
▁danska	-10.8497
▁ingång	-10.8498
▁Test	-10.8501
▁söta	-10.8506
▁Mag	-10.8509
▁samarbetar	-10.851
▁öst	-10.8511
▁vakt	-10.8515
▁förbud	-10.852
▁funnit	-10.8526
▁59	-10.8527
▁41	-10.8527
▁Ram	-10.8527
lit	-10.8529
▁dansa	-10.8533
▁förmedla	-10.8533
▁hjärn	-10.8538
▁doft	-10.8539
▁agerar	-10.8539
▁distribuera	-10.854
▁1900	-10.8541
▁uppnått	-10.8541
▁gradvis	-10.8543
stid	-10.8544
IC	-10.8549
▁MP	-10.8551
▁heten	-10.8561
▁reglering	-10.8562
▁stämning	-10.8563
▁exakta	-10.8565
▁lokaler	-10.8565
▁Kurs	-10.8566
driv	-10.8567
▁relatera	-10.8571
▁lin	-10.8574
▁förneka	-10.8577
▁tvätt	-10.8579
▁olaglig	-10.8588
▁Tim	-10.8593
▁Herrens	-10.8594
▁Sist	-10.8599
utveckling	-10.8603
▁utformade	-10.8606
▁hjul	-10.8606
▁samarbets	-10.8606
▁Helsingfors	-10.8607
▁ignorera	-10.8607
▁Lan	-10.8608
▁städa	-10.8611
▁andlig	-10.8616
▁praktik	-10.8616
▁dokumentera	-10.8618
▁skrift	-10.8619
▁Mus	-10.8622
▁extern	-10.8624
▁golvet	-10.8625
▁kanal	-10.8626
▁omdömen	-10.8627
▁kyl	-10.8629
▁sjunga	-10.8633
▁ver	-10.8634
mark	-10.8635
▁artister	-10.8635
▁biblioteket	-10.8639
▁enskild	-10.8641
▁gäll	-10.8641
▁tjänstemän	-10.8646
▁vägrar	-10.8646
lapp	-10.8651
br	-10.8653
▁dal	-10.8655
▁träng	-10.8658
▁analyser	-10.8662
vägagångssätt	-10.8676
Г	-10.8676
▁indirekt	-10.8676
▁inredning	-10.8676
▁önskemål	-10.8676
▁Research	-10.8676
▁Frank	-10.8677
▁migration	-10.8677
▁porträtt	-10.8677
▁9.	-10.868
▁domän	-10.8685
▁Santa	-10.8688
▁godkänna	-10.8689
▁revolutionär	-10.869
▁hölls	-10.8694
▁dras	-10.8695
▁kusten	-10.8695
▁elegant	-10.8695
▁järnvägs	-10.8699
▁Fadern	-10.8701
▁köns	-10.8706
▁SE	-10.8708
▁Pen	-10.8713
▁mörda	-10.8726
▁Store	-10.8728
▁tillverknings	-10.8729
▁gråta	-10.873
▁vaknar	-10.8731
▁sensor	-10.8732
▁ER	-10.8733
▁ST	-10.8734
▁regeringar	-10.8736
systemet	-10.8739
▁ansökningar	-10.8739
lj	-10.874
överskridande	-10.8741
▁idrotts	-10.8744
▁planerade	-10.8744
▁utse	-10.8745
▁Brasilien	-10.8746
▁tempel	-10.8746
▁kolumn	-10.8746
▁Sydafrika	-10.8746
▁Energi	-10.8747
▁Amerikansk	-10.8747
▁normer	-10.8747
▁reform	-10.8748
▁fäst	-10.8751
▁bett	-10.8754
▁transaktion	-10.8755
▁free	-10.8757
▁torsdag	-10.8757
▁Work	-10.8759
▁mar	-10.876
▁publiken	-10.8761
▁förekomst	-10.8762
▁Vita	-10.8762
▁ful	-10.8766
▁undersökningen	-10.8769
▁She	-10.8771
(	-10.8773
▁albumet	-10.8779
Hur	-10.8782
▁agent	-10.8782
projekt	-10.8783
▁sakta	-10.8785
▁6,	-10.8785
▁Will	-10.8787
▁sidorna	-10.879
▁försvar	-10.8792
▁byggnads	-10.8811
.00	-10.8811
vers	-10.8811
▁gömm	-10.8814
▁fossil	-10.8816
▁logistik	-10.8816
▁veterinär	-10.8816
▁kreativitet	-10.8817
▁fiskar	-10.8822
▁rättslig	-10.8824
lock	-10.8824
kal	-10.8826
Han	-10.8828
▁arbetarna	-10.8831
▁kap	-10.8831
ÄR	-10.8833
▁historier	-10.8833
▁verkställ	-10.8834
▁koncentration	-10.8836
▁präst	-10.8838
▁Dra	-10.8839
▁erkänd	-10.8841
▁49	-10.8843
▁Sluta	-10.8845
▁Norden	-10.8845
▁laglig	-10.8848
▁körning	-10.8849
▁May	-10.8852
LA	-10.8853
▁cha	-10.8858
▁Eli	-10.886
▁Act	-10.8862
▁begränsning	-10.8863
▁uppnås	-10.8867
▁säg	-10.8868
▁gammalt	-10.8871
▁årligen	-10.8872
▁Kat	-10.8873
på	-10.8874
▁representera	-10.8875
ägare	-10.8875
▁Wild	-10.8876
▁uppdatering	-10.8878
▁resenärer	-10.8881
MA	-10.8883
40	-10.8885
▁hu	-10.8886
▁annanstans	-10.8887
▁uppföljning	-10.8887
▁Tillbak	-10.8887
▁glasögon	-10.8887
▁belöna	-10.8887
▁minimal	-10.8888
▁1970	-10.8888
▁kontinuerligt	-10.889
▁Framför	-10.8891
ford	-10.8897
rådet	-10.8898
▁tekniskt	-10.8902
▁investerar	-10.8902
▁rolig	-10.8905
Fi	-10.8907
▁introducera	-10.8908
▁kritiska	-10.8909
▁Lake	-10.8913
▁utövar	-10.8916
▁Användning	-10.892
▁utgöra	-10.892
▁elev	-10.8921
▁loss	-10.8922
▁Lab	-10.8924
▁fiende	-10.8933
▁Petr	-10.8936
▁Ann	-10.894
▁ledsen	-10.894
▁riskerna	-10.8941
▁fart	-10.8941
▁måltider	-10.895
▁knappen	-10.8955
lem	-10.8956
▁HERREN	-10.8956
▁Mellanöstern	-10.8959
▁utformning	-10.8959
▁turné	-10.8959
▁bekvämlighet	-10.8959
▁gissa	-10.896
▁golf	-10.896
▁Nor	-10.896
▁leksaker	-10.8961
▁motivation	-10.8961
▁förena	-10.8962
▁bredd	-10.8963
▁grej	-10.8964
▁livstid	-10.8965
▁8.	-10.8968
▁utställning	-10.8969
▁webbsida	-10.897
▁krävde	-10.8971
▁funktionell	-10.8972
▁stam	-10.8974
▁Times	-10.8975
▁efteråt	-10.8976
oc	-10.8977
▁färdiga	-10.8977
▁Priset	-10.8978
▁plattformen	-10.8978
▁Dags	-10.8979
▁värdefulla	-10.8981
▁front	-10.8982
▁Top	-10.8983
▁pålitlig	-10.8984
▁fransk	-10.8988
▁lögn	-10.899
▁teater	-10.8996
bra	-10.9004
vit	-10.9005
▁affär	-10.9005
▁rest	-10.9011
▁uteslut	-10.9012
▁stol	-10.9014
▁distribution	-10.9015
▁närmar	-10.9016
▁gården	-10.9018
▁Fred	-10.902
▁Fort	-10.9021
▁berättelsen	-10.9025
▁Alternativ	-10.9031
▁Manchester	-10.9031
▁Mexiko	-10.9031
▁välsigna	-10.9031
▁modifiera	-10.9031
▁Saint	-10.9031
▁iPad	-10.9031
▁dödsfall	-10.9031
▁munnen	-10.9031
▁Health	-10.9032
▁trygga	-10.9033
▁fortsättning	-10.9034
▁bekväma	-10.9035
marknad	-10.9048
▁session	-10.9057
▁Lind	-10.9058
▁förstärk	-10.9063
▁arabiska	-10.9067
▁Kör	-10.9068
▁gul	-10.9072
▁!)	-10.9075
▁Ol	-10.9078
▁presidenten	-10.908
▁synder	-10.9082
▁MA	-10.9083
▁fordons	-10.9084
▁mal	-10.9086
▁medvetande	-10.9088
▁berget	-10.9088
▁försvinna	-10.9094
▁diskussion	-10.9094
▁intryck	-10.9095
▁pop	-10.9095
50	-10.9095
▁strider	-10.9096
▁Op	-10.9096
ect	-10.9097
OL	-10.9102
▁erade	-10.9102
▁majoriteten	-10.9103
▁1996	-10.9103
▁flexibilitet	-10.9103
▁Rapport	-10.9103
▁viktminskning	-10.9103
▁knappast	-10.9103
▁konsult	-10.9103
▁bearbetning	-10.9104
▁Lycklig	-10.9104
▁antibiotika	-10.9104
▁broder	-10.9106
▁skära	-10.9106
▁snar	-10.9108
▁Eva	-10.9109
ogen	-10.911
▁ekosystem	-10.9115
▁sekund	-10.9117
chi	-10.9119
▁samråd	-10.9119
▁Kim	-10.9121
▁Hör	-10.9122
▁Time	-10.9122
▁producent	-10.9123
ez	-10.9127
▁publiceras	-10.9129
▁meningen	-10.9131
▁hälsan	-10.9132
▁nyhets	-10.9136
▁kyrkor	-10.9137
▁läkaren	-10.914
▁taket	-10.914
▁olycka	-10.9141
▁arbetstagare	-10.9142
▁beloppet	-10.9147
tum	-10.9154
▁cm	-10.9155
ous	-10.9158
lov	-10.9168
▁blick	-10.9171
delning	-10.9173
▁Bättre	-10.9176
▁Stöd	-10.9176
▁Snart	-10.9176
▁Charles	-10.9176
▁förresten	-10.9177
▁arbetskraft	-10.9177
▁kommando	-10.9178
▁koll	-10.9178
AS	-10.9178
▁systematisk	-10.9179
▁motorn	-10.918
jan	-10.9181
▁designer	-10.9181
▁broms	-10.9182
▁skogs	-10.9183
▁Vegas	-10.9183
▁stationer	-10.9184
▁utföras	-10.9184
park	-10.9186
▁praktisk	-10.9187
▁tiderna	-10.9188
▁yttrande	-10.9189
▁skift	-10.919
▁Produkt	-10.9193
▁Uni	-10.9198
▁herr	-10.9201
▁Spa	-10.9201
▁skyddet	-10.9201
▁religiös	-10.9202
>	-10.9205
▁gren	-10.9206
▁sov	-10.9208
▁vände	-10.9211
▁Världens	-10.9212
▁studio	-10.9215
▁omsättning	-10.9217
▁Mad	-10.9221
▁torn	-10.9221
▁fördjupa	-10.9225
▁förhållandena	-10.9227
▁sund	-10.9227
▁förbjud	-10.923
▁rutin	-10.923
,5	-10.923
▁återvänder	-10.9231
▁AS	-10.9231
▁paketet	-10.9231
▁Mel	-10.9235
▁omöjlig	-10.9236
▁rat	-10.9238
▁konstnärlig	-10.9239
▁Start	-10.9239
▁?!	-10.9241
▁vänliga	-10.9244
roll	-10.9248
▁White	-10.925
▁långvarig	-10.925
▁indikera	-10.925
▁Behandling	-10.925
▁Book	-10.9251
▁klassificera	-10.9253
▁°	-10.9253
▁mix	-10.9255
▁störa	-10.9261
ski	-10.9264
vatten	-10.9266
wi	-10.9267
▁gräs	-10.9279
▁grov	-10.9281
▁flykting	-10.9284
▁återkomma	-10.9285
▁Ford	-10.9285
▁VI	-10.9285
▁inledde	-10.929
▁Ski	-10.929
▁Matt	-10.9291
▁grannar	-10.9293
▁kg	-10.9293
▁kopp	-10.9294
▁kroppens	-10.9297
▁användbar	-10.93
▁mage	-10.9301
mit	-10.9303
▁line	-10.9304
▁utrustad	-10.9305
▁kulturer	-10.9306
▁väntat	-10.9311
▁märklig	-10.9312
▁specialisera	-10.9313
samhet	-10.9317
ngefär	-10.9323
▁Association	-10.9324
▁Company	-10.9324
▁avsevärt	-10.9324
▁feedback	-10.9324
▁interagera	-10.9324
▁anordna	-10.9324
▁utvidga	-10.9324
▁gym	-10.9324
lista	-10.9324
▁produktivitet	-10.9325
öj	-10.9325
▁Pay	-10.9326
▁representant	-10.9326
▁Angeles	-10.9326
▁Satan	-10.9327
▁Boken	-10.9328
▁bota	-10.9329
▁kemi	-10.933
▁20-	-10.9333
▁strävan	-10.9335
▁Förstå	-10.9335
▁tillsyn	-10.9337
▁nöd	-10.9342
▁psykologisk	-10.9351
▁Ak	-10.9354
▁bosatt	-10.9359
▁dyker	-10.9361
▁Ki	-10.9361
▁%)	-10.9362
▁ställ	-10.9365
uell	-10.9366
▁förhandlingar	-10.9368
▁minskat	-10.9375
▁våg	-10.9376
▁ångra	-10.9376
▁öster	-10.9378
▁iga	-10.9379
▁hållbart	-10.938
én	-10.9381
▁Gal	-10.9382
▁Hand	-10.9384
▁regerings	-10.9392
▁genomföras	-10.9392
TA	-10.9398
▁institution	-10.9398
▁verifiera	-10.9398
▁Water	-10.9399
▁matematik	-10.9399
▁söner	-10.94
▁Johnson	-10.9402
tagit	-10.9403
▁Bak	-10.9403
▁distans	-10.9404
höll	-10.9405
▁Läng	-10.941
▁taxi	-10.941
▁alltmer	-10.941
▁täckt	-10.9411
▁uttag	-10.9411
▁gränserna	-10.9417
▁isk	-10.942
▁öron	-10.942
▁matcha	-10.9425
▁obe	-10.9425
äg	-10.9428
▁märka	-10.9434
▁tvist	-10.944
▁orsakas	-10.9442
▁Sil	-10.9443
▁ändrade	-10.9443
▁anonym	-10.9447
▁Ac	-10.9449
risk	-10.9451
▁planerat	-10.9452
▁Borde	-10.9457
▁Jämför	-10.9458
▁Che	-10.9467
▁Mars	-10.9472
▁utsatta	-10.9472
▁vandring	-10.9473
▁servrar	-10.9473
▁besegra	-10.9474
▁fullkomlig	-10.9474
▁avvikelse	-10.9474
▁intill	-10.9474
▁Standard	-10.9474
▁upplevt	-10.9474
▁samordning	-10.9474
▁pressmeddelande	-10.9474
▁Mellan	-10.9474
▁funktionalitet	-10.9474
▁wi	-10.9476
▁betalt	-10.9477
▁tryckt	-10.9477
▁dokumentation	-10.948
zo	-10.9481
▁logga	-10.9481
▁Vikt	-10.9485
▁salu	-10.9486
▁partier	-10.9487
▁gran	-10.9488
▁trend	-10.949
▁tävlingar	-10.9493
▁Jon	-10.9497
teknik	-10.9498
▁nano	-10.9512
back	-10.9513
▁flaska	-10.9515
▁OK	-10.9517
gift	-10.9522
▁syften	-10.9523
▁orsakerna	-10.9524
▁traditioner	-10.9526
▁stabil	-10.9527
▁tredjedel	-10.9535
▁slit	-10.9538
▁konstnär	-10.9538
▁hästen	-10.9538
cent	-10.9538
▁Bur	-10.9539
▁Cat	-10.954
▁skog	-10.9542
▁formulär	-10.9545
▁Senast	-10.9546
▁ID	-10.9547
▁palestinsk	-10.9549
▁utbetalning	-10.9549
▁övergrepp	-10.9549
▁elektronik	-10.9549
▁Snabb	-10.9549
▁Madrid	-10.955
▁arbetslöshet	-10.955
▁dotterbolag	-10.955
▁Små	-10.9551
▁bistånd	-10.9552
▁krets	-10.9553
▁Hä	-10.9553
▁1800	-10.9555
flytande	-10.9559
▁European	-10.9559
▁Lämna	-10.956
▁atom	-10.956
itu	-10.9561
gått	-10.9563
▁djupare	-10.9564
▁förbjudet	-10.9567
ani	-10.9567
▁näring	-10.9573
▁Kung	-10.9574
▁Simon	-10.9578
▁gård	-10.958
▁Run	-10.9581
▁tarm	-10.9584
▁skick	-10.9585
▁mapp	-10.9587
▁enormt	-10.959
▁symboler	-10.9591
▁forskningen	-10.9592
vig	-10.9598
▁over	-10.96
▁radera	-10.9601
▁nerv	-10.9601
▁bestämd	-10.9607
▁ät	-10.9607
▁trycka	-10.9609
▁Mos	-10.961
▁flöde	-10.9612
▁Ci	-10.9612
▁rubrik	-10.9613
▁hanteras	-10.9618
▁station	-10.9625
▁1997	-10.9626
▁åstadkomma	-10.9626
▁CBD	-10.9626
▁Sanningen	-10.9626
▁förvaring	-10.9626
▁Utveckling	-10.9626
▁terrorism	-10.9626
▁debut	-10.9627
▁reformer	-10.9627
resa	-10.9627
▁pojkvän	-10.9627
▁Ingenting	-10.9628
▁tig	-10.9629
▁skräp	-10.9631
row	-10.9631
▁skrämmande	-10.9633
▁Tjänsten	-10.9634
▁uppenbarelse	-10.9634
▁inflammation	-10.9634
▁365	-10.9637
▁förstör	-10.9637
▁benäg	-10.9644
▁decennier	-10.9646
▁bott	-10.9651
▁erhålla	-10.9652
▁dam	-10.9653
–	-10.9654
▁uppenbar	-10.9656
:00	-10.9657
ary	-10.9657
▁Mary	-10.9658
▁innovativ	-10.9658
®	-10.9659
▁objektiv	-10.966
oni	-10.9661
▁2014.	-10.9663
▁samverkan	-10.9667
lf	-10.9669
▁magiska	-10.9675
lösa	-10.9677
PS	-10.9684
▁tillverkas	-10.9685
▁rutt	-10.969
tä	-10.9697
▁minnet	-10.9697
▁enhetlig	-10.9698
▁certifiering	-10.9703
▁mekanisk	-10.9703
▁injektion	-10.9703
▁misslyckande	-10.9703
▁skal	-10.9704
▁Bush	-10.9706
▁Louis	-10.9707
▁turism	-10.9709
▁Syn	-10.9714
▁Projektet	-10.9716
▁Rest	-10.9717
▁Regeringen	-10.9717
▁dejting	-10.9717
EM	-10.9719
ept	-10.972
▁snygg	-10.972
sko	-10.9721
CH	-10.9727
▁kommuner	-10.9732
▁berättiga	-10.9734
▁News	-10.9734
CC	-10.9734
▁publicerades	-10.9735
▁.....	-10.974
▁66	-10.974
▁materiell	-10.974
▁human	-10.9742
▁sektor	-10.9745
▁max	-10.9747
▁heltid	-10.9751
▁nätter	-10.9751
▁boll	-10.9751
▁stöt	-10.9756
▁Bob	-10.9764
▁Övriga	-10.9768
cker	-10.9768
▁knapp	-10.9774
▁Christ	-10.9778
▁1995	-10.978
▁Chicago	-10.978
▁Nordkorea	-10.978
▁förmågor	-10.978
▁följ	-10.978
▁motverka	-10.9781
▁anspråk	-10.9782
han	-10.9782
▁doser	-10.9782
▁norsk	-10.9783
▁teamet	-10.9784
▁realistisk	-10.9784
▁avdelningen	-10.9787
▁känneteckna	-10.9793
förändringar	-10.9794
▁vågar	-10.9796
▁uppvärmning	-10.9799
▁tråd	-10.9801
▁etablera	-10.9802
▁invandring	-10.9802
eu	-10.9804
lat	-10.9804
▁armén	-10.9809
▁Dam	-10.9814
EEG	-10.9814
▁genetisk	-10.9815
▁etiska	-10.9815
▁7,	-10.9818
▁hä	-10.9821
▁konstnärer	-10.9822
▁bron	-10.9827
▁firar	-10.983
▁certifierad	-10.9839
▁skickat	-10.984
▁trafiken	-10.9841
▁skapades	-10.9841
▁chanser	-10.9845
▁satsning	-10.9848
▁utarbeta	-10.9852
▁kniv	-10.9855
▁slaget	-10.9856
▁omvandling	-10.9858
▁oundviklig	-10.9858
▁spektrum	-10.9858
▁kameror	-10.9858
▁rättegång	-10.9859
▁grafik	-10.9859
▁bed	-10.9859
▁Plats	-10.986
▁vaccin	-10.986
skilt	-10.9861
▁framträdande	-10.9861
▁neutral	-10.9868
▁2018.	-10.9869
▁Ob	-10.9869
▁sprocessen	-10.9872
▁patienterna	-10.9877
▁bedrägeri	-10.9888
▁församling	-10.9893
jätte	-10.9893
▁filen	-10.9896
▁2017.	-10.9902
▁längta	-10.9902
▁journalister	-10.9904
▁registrerat	-10.9905
▁rensa	-10.9912
▁betalat	-10.9914
serien	-10.9923
▁Cal	-10.9924
▁grå	-10.9925
▁ovanlig	-10.9926
▁bildas	-10.9926
▁77	-10.9928
▁vana	-10.9933
▁märk	-10.9934
▁Aldrig	-10.9937
▁Florida	-10.9937
▁Project	-10.9937
▁överhuvudtaget	-10.9937
▁tillbehör	-10.9937
▁återhämta	-10.9937
▁Önska	-10.9937
▁intyg	-10.9937
▁gränssnitt	-10.9937
▁jättebra	-10.9937
▁Fördelar	-10.9938
▁väggar	-10.9939
▁utmanande	-10.9945
▁framgår	-10.9945
▁prägla	-10.9945
▁skap	-10.9947
▁ställt	-10.995
ire	-10.9957
CO	-10.9958
kall	-10.9958
Men	-10.9959
▁ringer	-10.996
▁uppåt	-10.9961
▁cy	-10.9962
▁pin	-10.9962
▁2013.	-10.9966
▁himmel	-10.9966
▁reparation	-10.9968
▁=)	-10.9968
▁säkrare	-10.9972
inklusive	-10.9973
▁okänd	-10.9974
▁igt	-10.9975
seende	-10.9976
▁su	-10.9976
▁rev	-10.9977
▁veckorna	-10.9978
jö	-10.9979
▁konkurrenter	-10.998
▁fartyget	-10.9981
▁Sv	-10.9983
lick	-10.9984
▁arbetsplats	-10.9989
grupp	-10.9991
▁189	-10.9994
öm	-10.9996
▁rörlig	-10.9996
▁bal	-11
AP	-11.0001
▁Europe	-11.001
▁eviga	-11.0014
▁Jehova	-11.0016
▁angrepp	-11.0016
▁lansering	-11.0016
▁självständighet	-11.0018
▁sammansättning	-11.0018
▁uppror	-11.0021
▁Brand	-11.0023
▁programmen	-11.0023
▁inspektion	-11.0024
▁exportera	-11.0025
arie	-11.0025
▁Norr	-11.0028
▁2016.	-11.0029
▁återspegla	-11.0029
▁innehavare	-11.0029
▁förtryck	-11.0033
▁erkänner	-11.0034
▁Out	-11.0037
▁härliga	-11.0038
▁offentliggöra	-11.0039
▁tros	-11.0049
▁arrangera	-11.0056
lån	-11.0056
▁överlev	-11.0058
givare	-11.0062
▁oftare	-11.0063
▁själar	-11.0064
▁stjärnan	-11.0065
▁pla	-11.0066
▁jordbruk	-11.0069
▁nationer	-11.0071
▁katten	-11.0073
▁visning	-11.0074
▁teorin	-11.0074
▁Pal	-11.0075
▁Motor	-11.0077
▁sal	-11.0077
▁profiler	-11.0078
▁uttryckt	-11.0083
▁stig	-11.0084
▁VM	-11.0084
▁tränar	-11.0085
IF	-11.009
▁väcka	-11.009
▁cent	-11.0093
▁noggrann	-11.0093
▁1994	-11.0096
▁Netflix	-11.0096
▁bekräftelse	-11.0096
▁insamling	-11.0096
▁predika	-11.0096
▁Xbox	-11.0097
▁spets	-11.0097
▁>>	-11.0097
▁PR	-11.0097
▁fiber	-11.0097
▁vrid	-11.0097
▁huvudstaden	-11.0098
▁rengöring	-11.0099
▁sålt	-11.0102
▁Light	-11.0103
AC	-11.0105
▁chatt	-11.0106
▁Bal	-11.0107
▁IS	-11.0109
dia	-11.0112
▁tisdag	-11.0118
▁olagligt	-11.0118
▁hållit	-11.0118
▁Jul	-11.0119
AL	-11.0121
▁brun	-11.0122
▁givet	-11.0124
▁disciplin	-11.0127
▁ag	-11.0128
▁helig	-11.0128
▁undersök	-11.013
▁dosen	-11.013
[	-11.0131
11	-11.0131
▁billiga	-11.0135
▁brittisk	-11.0136
Alla	-11.0137
▁skaka	-11.0138
▁stränder	-11.0147
▁båten	-11.0147
CT	-11.0148
tru	-11.0149
▁närmast	-11.015
▁rikt	-11.015
▁inriktad	-11.0151
▁kors	-11.016
▁smält	-11.0168
▁mekanismer	-11.0168
▁kasinon	-11.0169
▁info	-11.0173
▁nämnt	-11.0173
▁list	-11.0176
▁flexibla	-11.0177
▁insulin	-11.0177
▁progressiv	-11.0177
▁Arbete	-11.0177
▁konkurrera	-11.0177
▁vätska	-11.0177
▁Lyssna	-11.0177
▁Lägenhet	-11.0177
▁idrott	-11.0179
▁Klar	-11.0179
▁sträng	-11.0181
mu	-11.0182
▁900	-11.0182
▁Samman	-11.0185
sammans	-11.0189
sky	-11.0193
▁Tele	-11.0194
▁förbrukning	-11.0194
▁kommentera	-11.0195
▁em	-11.0196
▁(2)	-11.0199
▁institutet	-11.0199
▁bärbar	-11.0202
▁ansök	-11.0205
*	-11.0206
▁sektorer	-11.0209
▁klubbar	-11.021
vinn	-11.0212
kel	-11.0212
▁Webbplatsen	-11.0214
▁itet	-11.0214
▁termer	-11.0215
▁definition	-11.0217
▁oändlig	-11.0218
▁kompisar	-11.0218
krav	-11.0219
▁tillskott	-11.0223
▁anklaga	-11.0224
▁snygga	-11.0228
▁Forskar	-11.023
▁vittne	-11.0231
▁Anledning	-11.0231
▁teorier	-11.0235
▁Cu	-11.0235
ise	-11.0236
▁hemligheter	-11.0238
▁operatörer	-11.024
▁Liv	-11.024
▁affären	-11.0243
▁Angel	-11.0247
▁from	-11.0256
▁figur	-11.0256
rakt	-11.0256
▁behandlade	-11.0256
▁expansion	-11.0258
▁konvertera	-11.0258
▁premiär	-11.0258
▁Donald	-11.0259
▁Scott	-11.026
▁syre	-11.026
▁tillträde	-11.026
▁målsättning	-11.0264
▁magi	-11.0265
▁minimi	-11.0266
▁1,5	-11.0269
rest	-11.0269
lösning	-11.0276
▁släppt	-11.0279
▁Kong	-11.0279
▁hyr	-11.0281
▁romersk	-11.0285
zon	-11.0289
▁10-	-11.0294
▁vä	-11.0294
▁specialist	-11.0294
▁un	-11.03
▁tabletter	-11.03
▁läck	-11.0302
istiska	-11.0302
▁högra	-11.0303
▁Lätt	-11.0304
▁...”	-11.0304
▁sexuellt	-11.0305
▁klocka	-11.031
▁användbara	-11.031
▁graden	-11.0312
▁stenar	-11.0313
▁ki	-11.0313
▁kur	-11.0316
▁Cup	-11.0318
pol	-11.0318
▁Produkter	-11.0319
▁..."	-11.0319
ula	-11.0323
kant	-11.0327
lå	-11.0331
▁can	-11.0332
▁syns	-11.0333
▁”)	-11.0337
▁dyra	-11.0337
▁väster	-11.0337
▁administratör	-11.034
▁kyckling	-11.034
▁ödmjuk	-11.034
▁ceremoni	-11.034
▁Mindre	-11.034
▁Brown	-11.0341
▁Chris	-11.0342
▁beträffande	-11.0343
▁välfärd	-11.0343
▁<3	-11.0343
▁antagit	-11.0345
▁västra	-11.0346
▁alternativa	-11.0346
▁rättvis	-11.0349
▁översikt	-11.0352
▁skyddas	-11.0352
▁daglig	-11.0353
▁rna	-11.0355
▁rulla	-11.0357
▁ssystem	-11.0358
▁grym	-11.0365
▁undviker	-11.0366
▁diskussioner	-11.0366
▁Gra	-11.037
▁läggning	-11.037
▁Guide	-11.0378
▁kongressen	-11.0378
_	-11.0379
▁nedgång	-11.038
▁tänd	-11.038
▁felaktig	-11.0381
▁Honom	-11.0382
▁märkning	-11.0384
AM	-11.0388
▁Steve	-11.0389
▁musiker	-11.039
side	-11.0394
▁lat	-11.0398
▁offra	-11.04
▁Bort	-11.0404
▁föraren	-11.0406
▁By	-11.0412
▁tidningar	-11.0413
▁Människan	-11.0423
▁konversation	-11.0423
▁humanitär	-11.0423
▁renovera	-11.0423
▁tendens	-11.0423
▁upptagen	-11.0423
▁monster	-11.0423
▁Blogg	-11.0424
▁bildades	-11.0426
▁komplicera	-11.0427
▁röstade	-11.0428
▁VPN	-11.0428
▁gal	-11.0428
▁dy	-11.043
▁Modern	-11.043
▁gärningar	-11.0432
▁byggande	-11.0434
koppling	-11.0438
▁51	-11.0438
PP	-11.0439
▁potentiellt	-11.0441
▁mi	-11.0442
▁utvecklades	-11.0444
▁ledaren	-11.0445
▁Kärlek	-11.0447
▁speglar	-11.045
▁enklast	-11.0451
▁Lee	-11.0451
▁Spelet	-11.0452
▁rid	-11.0455
▁återgå	-11.0456
▁skedd	-11.0456
▁favoriter	-11.0458
▁inslag	-11.0458
▁vy	-11.0462
▁ningen	-11.0463
dirigera	-11.0465
DE	-11.0467
▁körde	-11.0468
Och	-11.0469
▁lyx	-11.047
svis	-11.0474
▁introduktion	-11.0475
▁saknade	-11.0477
▁dyrt	-11.0478
▁inled	-11.0479
▁jobbat	-11.0481
▁sinnen	-11.0482
▁kalender	-11.0482
▁leds	-11.0484
▁Hotellet	-11.0487
fer	-11.0491
▁intervall	-11.0492
▁tårar	-11.0495
ji	-11.0496
▁SS	-11.0497
vänd	-11.0497
▁antas	-11.0498
▁avslutat	-11.0503
ektiv	-11.0504
▁gitarr	-11.0505
▁marginal	-11.0506
í	-11.0506
▁Bryssel	-11.0506
▁tvivla	-11.0506
▁returnera	-11.0506
▁medvetet	-11.0506
▁Pengar	-11.0507
▁visdom	-11.0507
▁Pat	-11.0507
▁dokumentet	-11.0508
▁graviditeten	-11.0508
▁Space	-11.0508
▁Nytt	-11.0509
löst	-11.0509
▁individen	-11.0511
▁intag	-11.0511
▁programvaran	-11.0512
▁hormon	-11.0512
▁troligt	-11.0513
▁Para	-11.0513
▁grepp	-11.0514
▁Game	-11.0514
▁upphandling	-11.0516
▁godkänner	-11.0517
▁inträffade	-11.0521
▁Ana	-11.0523
▁buk	-11.0524
▁Kas	-11.0525
▁Manne	-11.0526
▁Mig	-11.0527
▁recension	-11.0533
▁bonusar	-11.0536
▁komponent	-11.0537
▁fyllda	-11.0538
▁begravning	-11.0538
▁kontant	-11.0541
▁pekar	-11.0544
▁motsats	-11.0545
▁gram	-11.0545
▁sjukvård	-11.0548
▁betal	-11.0548
▁ingenjör	-11.055
▁fungerande	-11.056
▁Mak	-11.0561
▁artist	-11.0562
▁Pass	-11.0564
▁4)	-11.0564
▁starten	-11.0565
oid	-11.0567
▁farlig	-11.0567
▁fyr	-11.0568
▁Music	-11.057
▁störst	-11.0574
satt	-11.0576
▁uppskattning	-11.0581
▁onödig	-11.0586
▁smidig	-11.0586
▁kontinuerlig	-11.0587
▁Samsung	-11.059
▁Studio	-11.059
▁smitta	-11.059
▁Wood	-11.059
▁Airport	-11.059
▁division	-11.0591
▁lindra	-11.0591
▁anlita	-11.0591
▁abort	-11.0591
▁foder	-11.0591
▁byrå	-11.0592
dik	-11.0592
▁Dela	-11.0592
▁dokumentär	-11.0594
▁leverantören	-11.0596
▁Haha	-11.0597
▁met	-11.0597
▁strukturen	-11.0598
▁osäkerhet	-11.0598
▁ärlig	-11.06
▁läkemedlet	-11.0601
▁motorer	-11.0604
▁kunglig	-11.0604
▁händelsen	-11.0613
▁klagar	-11.0617
▁landskapet	-11.0618
▁Forskare	-11.062
▁israeliska	-11.0625
▁domstolar	-11.0628
▁administrera	-11.0629
ture	-11.0629
▁Chan	-11.0631
ekonomi	-11.0631
▁benen	-11.0632
▁Olik	-11.0632
▁pen	-11.0638
▁fastna	-11.0638
▁judarna	-11.0639
kommit	-11.0639
▁regional	-11.0643
▁menade	-11.0649
fu	-11.0651
▁platserna	-11.0652
▁skrivet	-11.0657
▁webben	-11.066
▁Öst	-11.0661
cin	-11.0662
▁(”	-11.0663
▁osv	-11.0665
▁förpackning	-11.0667
▁åtagande	-11.0669
ald	-11.0671
▁Kul	-11.0674
▁utbildad	-11.0675
▁himla	-11.0675
ø	-11.0675
▁diagram	-11.0675
▁registret	-11.0675
▁ultimat	-11.0675
▁Djur	-11.0675
▁utgångspunkt	-11.0675
▁garage	-11.0675
▁arbetsmiljö	-11.0676
▁utsätts	-11.0676
▁Food	-11.0676
▁1960	-11.0676
▁Beslut	-11.0677
▁River	-11.0677
▁varumärket	-11.0677
▁tillgodose	-11.0681
▁2012.	-11.0682
▁färsk	-11.0683
▁hantverk	-11.0686
▁förberedd	-11.0691
zz	-11.0692
▁DU	-11.0693
▁Sport	-11.0693
ugg	-11.0694
▁Pla	-11.0694
▁pol	-11.0696
60	-11.0696
▁Användar	-11.0698
▁sammanställ	-11.07
▁föreställa	-11.07
▁Ze	-11.07
▁Förslag	-11.0704
▁återvände	-11.071
▁tystnad	-11.0712
▁varelse	-11.0714
industrin	-11.0715
▁aktör	-11.0719
ström	-11.0719
Målet	-11.0731
▁52	-11.0732
▁your	-11.0736
▁pensions	-11.0738
▁stjärnorna	-11.0739
▁skräck	-11.0739
▁Kunden	-11.074
▁plantera	-11.0741
▁Tag	-11.0743
▁likt	-11.0744
▁Press	-11.0746
▁ång	-11.0748
åring	-11.075
▁relaterad	-11.0751
▁värdering	-11.0751
▁ränte	-11.076
▁Foundation	-11.076
▁besviken	-11.076
▁parallell	-11.076
▁proffs	-11.076
vuxit	-11.0761
▁netto	-11.0761
▁hedra	-11.0761
▁västerländsk	-11.0761
▁lojalitet	-11.0761
▁reparera	-11.0761
▁coach	-11.0762
▁oskyldig	-11.0762
▁Mont	-11.0762
▁massage	-11.0765
▁sån	-11.0766
▁sträcka	-11.0767
▁Nedan	-11.0767
▁Human	-11.0767
▁förstärka	-11.0767
▁inleda	-11.0768
▁67	-11.077
▁ek	-11.0772
▁inteckning	-11.0774
▁fack	-11.0777
▁Senare	-11.0778
▁fukt	-11.0783
▁Huset	-11.0784
vist	-11.0789
även	-11.0793
▁57	-11.0794
änder	-11.0795
▁dej	-11.0795
▁upphör	-11.08
▁identifierar	-11.08
▁stängt	-11.0801
▁bussar	-11.0805
▁Com	-11.0809
▁underhålls	-11.081
▁duktig	-11.0811
▁fotografera	-11.0812
por	-11.0813
Att	-11.0814
▁präster	-11.0815
▁omvänd	-11.0817
▁Ät	-11.0819
▁försämra	-11.0819
nnars	-11.0825
▁flickan	-11.0832
▁beräkning	-11.0835
▁smärt	-11.0836
▁läger	-11.0837
▁löften	-11.0838
▁kommunen	-11.0841
▁belastning	-11.0847
▁värdepapper	-11.0847
▁Alexander	-11.0847
▁Back	-11.0847
▁företrädare	-11.0848
▁Golf	-11.0849
▁Server	-11.0849
▁utställningar	-11.085
▁husdjur	-11.085
▁2,5	-11.085
▁katolsk	-11.0852
▁retur	-11.0853
▁bebis	-11.0856
▁ved	-11.0856
▁vinkel	-11.0857
▁viner	-11.0861
▁sväng	-11.0867
▁bokning	-11.0868
▁kampanjen	-11.087
▁rosa	-11.0871
▁Färg	-11.0872
▁inbjud	-11.0872
25	-11.0878
▁avslutas	-11.0879
▁attityd	-11.0883
▁EUR	-11.0885
▁talang	-11.0888
▁tillfredsställa	-11.0889
iserad	-11.089
▁korrekta	-11.0891
▁ordningen	-11.0892
▁8,	-11.0893
▁hälsosamma	-11.0894
▁manliga	-11.0894
▁peka	-11.0902
▁hall	-11.0902
▁vinnande	-11.0906
▁galen	-11.0908
▁entreprenör	-11.0908
▁bankerna	-11.0911
80	-11.0912
▁yrke	-11.0914
▁överraskning	-11.0915
▁mörker	-11.0916
▁distrikt	-11.0916
▁Camp	-11.0919
▁fordonet	-11.0921
▁förverkliga	-11.0924
▁ock	-11.093
▁188	-11.0933
▁helvete	-11.0933
▁Bridge	-11.0934
▁Gratis	-11.0934
▁näringsämnen	-11.0934
▁helvetet	-11.0934
▁långivare	-11.0934
▁svett	-11.0935
▁idiot	-11.0935
▁påstå	-11.0935
▁Poker	-11.0935
▁......	-11.0936
▁kaos	-11.0938
▁dop	-11.0939
▁50%	-11.0943
▁ljudet	-11.0945
▁kretsar	-11.0945
▁modul	-11.0948
▁fonder	-11.0949
▁slottet	-11.0949
▁slåss	-11.095
▁företagare	-11.0952
▁rita	-11.0955
▁skam	-11.0957
föring	-11.096
▁Tiden	-11.0961
kä	-11.0962
▁studerande	-11.0965
▁minoritet	-11.0965
▁best	-11.0966
▁relationen	-11.097
▁Dal	-11.097
▁Pol	-11.0971
▁variation	-11.0972
▁flyt	-11.098
▁kreativ	-11.0987
▁skede	-11.099
ägg	-11.099
▁Ap	-11.0992
▁inkomster	-11.0996
▁konsert	-11.1001
▁mottagare	-11.1005
▁marin	-11.1007
▁strategin	-11.1011
▁billigt	-11.1012
▁väv	-11.1014
▁förutsätt	-11.1015
▁representanter	-11.1018
▁Universitet	-11.1021
▁bröt	-11.1021
▁katalog	-11.1021
▁skilsmässa	-11.1021
▁titlar	-11.1021
▁trettio	-11.1021
▁formulera	-11.1021
▁Express	-11.1022
▁Utbildning	-11.1022
▁införliva	-11.1022
▁seriös	-11.1024
▁termin	-11.1025
▁tredjeland	-11.1031
▁samtid	-11.1032
▁slutsatser	-11.1032
▁byar	-11.1034
nal	-11.1035
▁fördrag	-11.1037
▁inblandade	-11.1037
▁existera	-11.1038
▁konventionell	-11.1039
▁Trans	-11.1039
▁indisk	-11.104
▁Fire	-11.1042
▁synpunkter	-11.1043
▁Högst	-11.1046
▁förhoppningsvis	-11.1046
▁Key	-11.1046
▁sångare	-11.105
▁skogar	-11.1052
BS	-11.1057
▁utförde	-11.1062
▁applikation	-11.1062
▁Röda	-11.1065
▁förnya	-11.1067
▁religioner	-11.1073
▁ban	-11.1073
▁Cost	-11.1075
▁aktuell	-11.1078
▁känslomässig	-11.1078
▁läggas	-11.1084
▁Arm	-11.1086
▁inspelning	-11.1087
▁menyn	-11.1087
▁kandidater	-11.1088
▁ä	-11.1088
TP	-11.1089
▁legitim	-11.109
▁mätningar	-11.109
▁föreskrifter	-11.1091
▁läppar	-11.1098
▁kedja	-11.1102
▁ikon	-11.1102
▁98	-11.1105
▁96	-11.1107
▁diagnostisera	-11.111
▁auktion	-11.111
▁Hollywood	-11.111
▁Text	-11.111
▁Svår	-11.1111
▁Str	-11.1112
▁Mil	-11.1113
▁årlig	-11.1113
▁MBA	-11.1114
▁bindande	-11.1115
▁Juda	-11.1115
▁överskrid	-11.1116
öl	-11.1119
▁invandrare	-11.112
▁omröstning	-11.1122
▁Bond	-11.1125
▁grann	-11.1126
▁frivilliga	-11.1126
▁ytor	-11.1126
▁Jean	-11.1127
▁kontrast	-11.113
adress	-11.113
▁grä	-11.1135
▁applicera	-11.1136
▁ägande	-11.1137
▁Net	-11.114
▁hemsidan	-11.1145
▁sch	-11.1146
▁rapporterat	-11.1146
▁lägenheten	-11.1146
▁Market	-11.1147
▁ic	-11.1149
vård	-11.1153
▁modig	-11.1155
kommissionen	-11.1155
▁förutsatt	-11.1157
▁forma	-11.1158
▁involvera	-11.1163
▁kunskaps	-11.1164
▁riket	-11.1166
▁befintlig	-11.1172
▁"?	-11.1173
▁skratt	-11.1174
▁finansierings	-11.1175
▁församlingen	-11.1176
▁temat	-11.1186
▁moduler	-11.1186
▁skadad	-11.1188
▁rader	-11.1191
▁intensiva	-11.1194
▁bedömningen	-11.1194
kod	-11.1196
▁långsiktigt	-11.1196
▁tillverka	-11.1196
▁Excel	-11.1199
▁systrar	-11.1199
▁enzym	-11.1199
▁Hitler	-11.1199
▁asiatisk	-11.1199
▁framöver	-11.1199
▁Gaza	-11.1199
▁Resort	-11.12
pin	-11.12
▁möts	-11.12
▁atmosfären	-11.1201
▁känslighet	-11.1204
▁360	-11.1205
▁landsbygden	-11.1206
▁Wal	-11.1206
▁armar	-11.1206
▁Marx	-11.1206
▁action	-11.1207
▁vinden	-11.121
▁halvt	-11.1214
▁ismen	-11.1215
års	-11.1216
▁tvär	-11.122
▁räddade	-11.1221
▁översyn	-11.1221
▁kundens	-11.1222
▁klimatet	-11.1225
iner	-11.1236
▁inhemska	-11.1236
▁temperaturen	-11.1243
▁hittas	-11.1243
Ö	-11.1243
▁individuellt	-11.1246
anti	-11.1247
▁spra	-11.125
▁halva	-11.1253
▁förbjuda	-11.1255
▁skapelse	-11.1256
14	-11.1256
▁överstig	-11.1257
▁grip	-11.126
▁klok	-11.126
▁Nordamerika	-11.1262
▁lägg	-11.1264
Är	-11.1268
▁evolution	-11.1273
▁erhåll	-11.1275
▁konsten	-11.1276
able	-11.1277
▁fu	-11.1283
▁terror	-11.1287
▁uppdaterad	-11.1288
▁56	-11.1289
▁deklaration	-11.1289
▁kritisera	-11.1289
▁Putin	-11.1289
▁Koranen	-11.1289
▁korruption	-11.1289
▁with	-11.129
▁stav	-11.1291
▁Svart	-11.1292
ittle	-11.1292
uri	-11.1293
omi	-11.1297
▁separera	-11.13
▁vänligen	-11.13
▁läk	-11.1303
▁upplösning	-11.1304
▁grundar	-11.1307
▁Användare	-11.131
▁gatorna	-11.1314
▁given	-11.1317
▁densamma	-11.1319
värd	-11.1319
sägelse	-11.132
▁Leta	-11.1324
▁dödliga	-11.1324
▁Cur	-11.1325
▁effektivare	-11.1326
▁Th	-11.1326
▁republiken	-11.1328
▁IN	-11.133
▁tillförlitlig	-11.1334
▁dimensioner	-11.1334
▁intervjuer	-11.1335
▁barndom	-11.1337
▁sanktioner	-11.1337
▁konsekvens	-11.1338
▁Innehåll	-11.1343
▁magen	-11.1343
▁eftermiddagen	-11.1344
▁tåget	-11.1347
illa	-11.1348
▁Off	-11.1348
▁statens	-11.1348
▁testat	-11.1349
▁storlekar	-11.135
▁stämma	-11.1352
▁långsiktig	-11.1353
▁släppte	-11.1354
▁definitionen	-11.1354
▁Bl	-11.1355
▁red	-11.1356
▁avtals	-11.1357
▁larm	-11.1357
▁formel	-11.1368
▁lighet	-11.1368
▁införande	-11.1368
▁kapitalet	-11.137
▁slav	-11.1372
▁tyg	-11.1373
▁testet	-11.1375
▁drama	-11.1376
▁humor	-11.1378
barhet	-11.1378
▁elektro	-11.1378
▁Wars	-11.1379
▁Namn	-11.1379
▁parametrar	-11.138
▁strejk	-11.138
▁1993	-11.138
▁Singapore	-11.138
▁miljövänlig	-11.138
▁avbryta	-11.138
▁påskynda	-11.138
▁puls	-11.138
▁återkalla	-11.138
▁njur	-11.138
▁Privat	-11.1381
▁Läge	-11.1382
▁stadig	-11.1382
▁Ban	-11.1383
▁exemplar	-11.1384
▁laser	-11.1385
▁trick	-11.1386
▁hamnen	-11.1386
▁krossa	-11.1388
▁72	-11.1388
▁upplevd	-11.1399
▁(3)	-11.1401
▁variant	-11.1401
aktig	-11.1401
▁förlita	-11.1403
gla	-11.1406
▁Radio	-11.1406
▁Bel	-11.1407
▁årig	-11.1408
▁inrikta	-11.141
olog	-11.141
▁beslutade	-11.1412
▁Palm	-11.1413
▁Område	-11.1415
▁förbättras	-11.1416
hol	-11.1417
pu	-11.1422
▁play	-11.1424
▁anda	-11.1431
▁utmaningen	-11.1431
▁reste	-11.1435
▁Cy	-11.1436
växt	-11.1436
▁finska	-11.1437
▁iskt	-11.1437
▁Nik	-11.1437
▁elit	-11.1438
▁karta	-11.144
▁änglar	-11.1441
▁koka	-11.1442
▁dynamisk	-11.1442
▁irritera	-11.1443
▁Dar	-11.1452
yd	-11.1454
▁herre	-11.1455
nia	-11.146
▁kvinnors	-11.146
▁54	-11.1468
▁uppgiften	-11.1468
▁segment	-11.1469
▁Disney	-11.1471
£	-11.1472
▁Belgien	-11.1472
▁emellan	-11.1472
▁klättra	-11.1472
▁klassificering	-11.1472
▁tillåtna	-11.1472
▁Nobel	-11.1473
▁ort	-11.1473
▁Valley	-11.1473
▁Holland	-11.1474
band	-11.1474
▁drömmen	-11.1474
▁själen	-11.1476
ves	-11.1477
▁huvudkontor	-11.148
▁Win	-11.148
▁åtaganden	-11.148
▁psyko	-11.1481
▁utdelning	-11.1488
▁varorna	-11.1489
mässiga	-11.1492
▁dramatisk	-11.1492
▁engelsk	-11.1493
▁statistisk	-11.1493
▁slagen	-11.1494
▁East	-11.1496
▁Krist	-11.15
▁Flo	-11.1501
▁ärenden	-11.1501
TS	-11.1501
▁borgerlig	-11.1502
▁summan	-11.1503
elsen	-11.1503
▁58	-11.1503
▁30-	-11.1508
▁regimen	-11.1509
▁ifall	-11.1512
kul	-11.1512
▁(4	-11.1512
▁("	-11.1517
▁reservera	-11.1518
▁paret	-11.1522
▁förlåta	-11.1522
▁placerade	-11.1523
▁vävnad	-11.1524
▁hata	-11.1525
▁balansen	-11.1526
▁tabell	-11.1527
▁rättighet	-11.153
▁utrikes	-11.1531
▁53	-11.1531
bär	-11.1533
▁nådde	-11.1534
irst	-11.1534
nik	-11.1537
hl	-11.154
▁Sig	-11.1541
▁värdefull	-11.1543
mber	-11.1544
▁rätter	-11.1546
▁Vanligt	-11.1555
▁orsakade	-11.1558
▁kontors	-11.1558
▁Sara	-11.156
ini	-11.1562
â	-11.1564
¥	-11.1564
▁Oscar	-11.1564
▁Snälla	-11.1564
▁partiklar	-11.1564
▁respons	-11.1564
▁tvungna	-11.1564
▁värmen	-11.1565
▁Lycka	-11.1565
▁ambassadör	-11.1565
▁Securit	-11.1565
▁lys	-11.1565
▁telefoner	-11.1566
▁passiv	-11.1568
▁mandat	-11.1569
▁SEK	-11.157
▁ovanstående	-11.157
▁hoppade	-11.1571
▁täckning	-11.1571
▁slots	-11.1571
▁ledarna	-11.1574
▁Ash	-11.1574
afrika	-11.1575
▁kungariket	-11.1581
▁medborgarna	-11.1583
▁användbart	-11.1583
fritt	-11.1585
▁djupa	-11.1586
▁tj	-11.1588
▁koppar	-11.1588
▁one	-11.1589
▁tank	-11.159
Min	-11.1591
▁LA	-11.1591
▁eder	-11.1591
▁vagn	-11.1594
▁syra	-11.1596
▁kilo	-11.1597
▁dödlig	-11.1613
win	-11.1615
hör	-11.1618
▁slipp	-11.1619
▁flod	-11.162
▁fyllt	-11.1622
▁värma	-11.1623
▁körs	-11.1623
▁influensa	-11.1624
▁armé	-11.1625
▁troll	-11.1628
▁utmana	-11.1635
▁flickvän	-11.1636
▁Ham	-11.1638
▁skrivbord	-11.164
▁begränsar	-11.1644
cle	-11.1646
▁terrorist	-11.1648
▁täck	-11.1649
TI	-11.1651
▁Minst	-11.1655
▁Portugal	-11.1658
▁bekymmer	-11.1658
▁korrigera	-11.1658
▁signifikant	-11.1658
▁DVD	-11.1658
▁levnads	-11.1658
▁förfrågan	-11.1658
▁Cloud	-11.1658
▁aluminium	-11.1659
▁campus	-11.1659
▁General	-11.166
amin	-11.1661
▁LED	-11.1662
▁bakgrunden	-11.1662
▁Jones	-11.1663
▁hugg	-11.1664
▁zon	-11.1664
▁Up	-11.1664
▁bedriva	-11.1669
▁chock	-11.167
▁marknaderna	-11.1671
▁löpande	-11.1671
▁mekanism	-11.1675
▁såhär	-11.1675
▁bussen	-11.168
rey	-11.168
▁trivs	-11.1681
▁Syd	-11.1683
▁rabatt	-11.1685
▁Point	-11.1686
läge	-11.1691
▁Award	-11.1691
▁Justin	-11.1702
▁interaktion	-11.1703
▁psykologi	-11.1703
▁smutsig	-11.1707
▁tillståndet	-11.1712
▁heta	-11.1712
▁upphov	-11.1713
▁gi	-11.1719
▁engagerade	-11.172
▁grupperna	-11.1725
▁sammanfatta	-11.1731
▁kommersiell	-11.1733
▁Dy	-11.1739
▁trupper	-11.1741
▁6-	-11.1744
▁betald	-11.1751
▁förhoppning	-11.1752
▁afrikansk	-11.1752
▁bokstäver	-11.1752
▁spädbarn	-11.1752
▁Okej	-11.1752
▁workshop	-11.1752
▁Henry	-11.1752
▁medborgarskap	-11.1752
▁blödning	-11.1752
▁slakt	-11.1752
▁hälsovård	-11.1753
▁FÖR	-11.1754
▁.»	-11.1756
▁felaktigt	-11.1758
abel	-11.1759
▁kran	-11.176
alitet	-11.1762
▁real	-11.1762
▁rak	-11.1766
▁dyrka	-11.1768
▁öppnat	-11.1769
▁debatten	-11.1771
▁beläg	-11.1772
▁Sea	-11.1772
▁skarp	-11.1772
▁game	-11.1773
▁branscher	-11.1774
▁Fel	-11.1775
▁önskad	-11.1776
cia	-11.1779
▁revision	-11.1784
▁Kol	-11.1784
▁kunskapen	-11.1788
▁ringar	-11.1788
▁slutsatsen	-11.1789
▁spar	-11.1792
▁liter	-11.1794
▁slösa	-11.1798
▁Studenter	-11.18
▁Kal	-11.1801
nummer	-11.1803
vägs	-11.1804
▁stött	-11.1808
▁restaurangen	-11.1808
▁Fader	-11.1817
▁filmerna	-11.1818
ST	-11.182
vard	-11.1821
▁påverkade	-11.1831
▁balansera	-11.1831
▁återstå	-11.1841
▁EM	-11.1847
‐	-11.1847
▁Technology	-11.1847
▁dräkt	-11.1847
▁syskon	-11.1847
▁vertikal	-11.1847
▁nycklar	-11.1847
▁Regler	-11.1847
▁Joseph	-11.1848
▁Control	-11.1848
▁generös	-11.1848
▁åtanke	-11.1848
▁skön	-11.1848
▁Spring	-11.1849
▁ets	-11.1854
▁uppger	-11.1854
▁Night	-11.1854
▁ömsesidig	-11.1855
väl	-11.1858
▁skåp	-11.1859
▁medverka	-11.1862
▁utsett	-11.1867
▁förbättrade	-11.1868
▁Roll	-11.1868
AD	-11.187
▁obehaglig	-11.1888
▁längden	-11.1888
▁Sid	-11.1889
▁gifte	-11.1891
▁förlänga	-11.1894
ction	-11.1895
▁temperaturer	-11.19
▁fet	-11.1907
▁beundra	-11.1909
▁robotar	-11.1915
▁introducerade	-11.1916
▁obligatorisk	-11.1918
▁varianter	-11.1922
dera	-11.1924
▁utställningen	-11.1926
kostnadseffektiv	-11.1929
▁rida	-11.193
▁kam	-11.1934
▁belägen	-11.1935
Ja	-11.1936
färd	-11.1936
▁komplicerad	-11.1939
▁Invest	-11.194
▁Hot	-11.1941
områden	-11.1942
eroende	-11.1943
▁Clinton	-11.1944
▁isolering	-11.1944
▁jordbävning	-11.1944
▁monument	-11.1944
▁diamant	-11.1944
▁programmering	-11.1944
▁våldtäkt	-11.1944
▁matlagning	-11.1944
▁smink	-11.1944
▁Tech	-11.1944
▁guida	-11.1944
▁50-	-11.1945
▁Way	-11.1945
▁inträde	-11.1946
▁drabbats	-11.1948
▁etnisk	-11.1949
märke	-11.1951
▁allierade	-11.1951
▁blek	-11.1951
▁Personal	-11.1952
▁stunder	-11.1952
▁regelbunde	-11.1953
▁Great	-11.1953
▁kostnads	-11.1956
TT	-11.1958
▁logik	-11.1959
▁Lång	-11.196
kaffa	-11.1964
▁Stå	-11.1966
▁stadsdel	-11.1967
▁synliga	-11.1968
linje	-11.1975
verket	-11.1976
▁lagligt	-11.1977
▁serier	-11.1979
▁harmoni	-11.1979
▁konung	-11.198
▁Lill	-11.1984
▁9,	-11.1986
▁DC	-11.1987
▁framställning	-11.1988
▁vittnen	-11.199
▁tidskrift	-11.1992
▁raka	-11.1993
▁öva	-11.1995
▁_	-11.1995
vitamin	-11.1997
▁term	-11.1997
▁entreprenörer	-11.1998
▁SD	-11.2
▁bestäm	-11.2
▁utnyttjande	-11.2001
▁religionen	-11.2003
▁inställd	-11.2008
▁närma	-11.2011
vision	-11.2011
▁mördare	-11.2012
▁beteenden	-11.2012
▁verktyget	-11.2013
▁fastställts	-11.2014
▁Tala	-11.2014
▁top	-11.2017
▁Char	-11.2017
▁medlems	-11.2023
▁kategorin	-11.2024
rade	-11.2024
▁tillämplig	-11.2026
ption	-11.2029
▁Ce	-11.2035
▁AM	-11.2036
▁Köpenhamn	-11.2041
▁Plötslig	-11.2041
▁Sovjetunionen	-11.2041
▁blodsocker	-11.2041
▁huvudvärk	-11.2041
▁osynlig	-11.2041
▁prins	-11.2041
▁galax	-11.2041
▁bagage	-11.2041
▁Kultur	-11.2041
▁SEO	-11.2042
▁Villkor	-11.2044
▁tredjepart	-11.2044
▁förhandla	-11.2044
▁rester	-11.2044
▁ökningen	-11.2045
▁evighet	-11.2047
▁armen	-11.2048
▁galleri	-11.2049
▁redskap	-11.2049
▁friheten	-11.205
▁Uppsa	-11.2055
▁konkreta	-11.2058
▁konvention	-11.2058
▁säljare	-11.2059
▁Karta	-11.2065
▁fungerade	-11.2068
SP	-11.2069
▁befogenheter	-11.207
▁kontot	-11.2072
▁åtgärda	-11.2073
läs	-11.2074
iti	-11.2075
▁bestämmelse	-11.2076
▁trädet	-11.2076
▁Jane	-11.2078
▁cookie	-11.2078
▁eftermiddag	-11.208
▁slott	-11.2082
▁härligt	-11.2082
▁knut	-11.2082
▁krävande	-11.2082
▁Verklig	-11.2089
▁tillverkar	-11.2089
▁våningen	-11.209
städer	-11.2094
ure	-11.2097
▁Mid	-11.2099
▁basis	-11.2103
▁koloni	-11.2103
▁berättigad	-11.2104
▁börda	-11.2105
▁kvalificera	-11.2105
▁underlättar	-11.2107
▁Dead	-11.2109
▁tuff	-11.2115
▁smaka	-11.2131
▁videor	-11.2132
▁länka	-11.2132
▁bete	-11.2133
ansk	-11.2133
enheter	-11.2134
▁dömd	-11.2135
▁kopplat	-11.2136
▁verksam	-11.2137
▁låda	-11.2138
▁sekretess	-11.2139
▁1989	-11.2139
▁Frågor	-11.2139
▁Taylor	-11.2139
▁frälsning	-11.2139
▁tröja	-11.2139
▁Förbered	-11.2139
▁besked	-11.2139
▁fäder	-11.2139
▁kryssning	-11.2139
▁valutor	-11.2139
▁odling	-11.2139
▁slappna	-11.2139
▁nervös	-11.2139
▁splittra	-11.2139
▁desperat	-11.2139
▁assistent	-11.2139
▁high	-11.2139
▁Dating	-11.2139
▁piller	-11.214
▁lida	-11.214
▁Jackson	-11.2141
▁möss	-11.2141
▁dyka	-11.2142
▁riktade	-11.2143
▁auto	-11.2143
▁portal	-11.2144
▁universell	-11.2145
▁trädgårdar	-11.2147
▁relativ	-11.215
▁Sommar	-11.215
mod	-11.215
▁Farm	-11.2151
NE	-11.2152
ement	-11.2153
▁bildning	-11.2158
▁hårdare	-11.2159
▁Basera	-11.2163
▁behållare	-11.217
▁04	-11.2171
▁anmäl	-11.2172
▁producenter	-11.2174
kro	-11.2175
▁torra	-11.2176
▁upphöra	-11.2179
▁sim	-11.218
▁lott	-11.2181
▁Ros	-11.2183
kommande	-11.2184
▁orättvis	-11.2185
▁uppvisa	-11.2187
▁dyk	-11.2188
▁prognos	-11.2193
▁Uppgifter	-11.2193
▁digitalt	-11.2193
▁HP	-11.2205
ray	-11.2206
▁uppmärksam	-11.2214
▁kollektiv	-11.2215
▁givande	-11.2217
ress	-11.2217
▁tunn	-11.2217
talande	-11.2218
iell	-11.222
▁förbundet	-11.2224
▁inspirerad	-11.2229
▁konflikten	-11.223
hoppningsvis	-11.2238
▁1984	-11.2238
▁Amsterdam	-11.2238
▁Palestina	-11.2238
▁kompromiss	-11.2238
▁kriminell	-11.2238
▁överväldiga	-11.2238
▁underrättelse	-11.2238
▁tvärtom	-11.2238
▁Special	-11.2238
▁fördelaktig	-11.2238
▁Slot	-11.2238
▁arbetsuppgifter	-11.2238
▁ilska	-11.2239
▁tropisk	-11.2239
▁Källa	-11.2239
▁avskaffa	-11.224
▁förberedelse	-11.224
▁panik	-11.224
▁aktieägare	-11.2244
▁lampor	-11.2244
lad	-11.2245
▁nyår	-11.2247
▁årtionden	-11.2248
▁Vol	-11.225
▁regleras	-11.2257
▁aktion	-11.2258
▁Prag	-11.2259
▁distributions	-11.2259
▁Garden	-11.226
▁Rose	-11.2261
▁76	-11.2265
▁DA	-11.2267
▁förvalta	-11.2268
▁gående	-11.227
▁hittades	-11.2279
▁tech	-11.228
gle	-11.2281
▁regelverk	-11.2282
▁fienden	-11.2286
▁dödades	-11.2287
Co	-11.229
trafik	-11.2294
48	-11.2294
▁översätta	-11.2297
▁2020.	-11.2299
▁skylt	-11.2301
▁beaktas	-11.2301
▁domar	-11.2306
stin	-11.2308
▁värdig	-11.2308
▁levt	-11.2308
▁Villa	-11.231
▁Anne	-11.2314
▁bryt	-11.2314
▁påven	-11.2314
vakt	-11.2316
▁attraktion	-11.2317
▁satellit	-11.2319
▁Projekt	-11.232
SD	-11.2321
▁flygbolag	-11.2322
▁festival	-11.2324
▁RE	-11.2327
▁lim	-11.2328
▁falsk	-11.233
▁koden	-11.2334
▁elden	-11.2334
▁kristall	-11.2337
▁åklagar	-11.2338
▁1991	-11.2338
▁GDPR	-11.2338
▁Skottland	-11.2338
▁exceptionell	-11.2338
▁hybrid	-11.2338
▁kollektion	-11.2338
▁kompensera	-11.2338
▁hunger	-11.2338
▁hygien	-11.2338
▁Multi	-11.2338
▁Linux	-11.2338
▁autonom	-11.2338
▁Queen	-11.2338
▁tidsperiod	-11.2338
▁Galax	-11.2338
▁telefonnummer	-11.2338
gård	-11.2339
▁drömmer	-11.2339
▁Väx	-11.2339
▁Old	-11.2339
▁karaktärer	-11.2339
▁Namne	-11.234
▁interaktiv	-11.2341
▁Mike	-11.2341
▁finger	-11.2341
▁Ladd	-11.2341
▁cyklar	-11.2343
▁programmera	-11.2343
▁nyhetsbrev	-11.2345
uf	-11.2346
▁Ned	-11.2347
▁Call	-11.235
▁sekundär	-11.2352
▁bri	-11.2352
▁flödet	-11.2353
▁Services	-11.2353
port	-11.2355
▁ros	-11.2356
▁benämn	-11.2357
▁arkitekt	-11.2358
givning	-11.2363
olin	-11.2364
▁Spara	-11.2364
▁utsläpps	-11.2365
▁utbrott	-11.2365
▁lämnats	-11.2368
▁århundradet	-11.2368
sprogram	-11.2368
celler	-11.2369
▁dimension	-11.2374
▁kläd	-11.2376
oner	-11.2378
▁Fly	-11.238
▁användande	-11.238
▁kyla	-11.2383
▁löner	-11.2385
▁anländer	-11.2388
▁julen	-11.239
▁äktenskapet	-11.2392
▁förlåt	-11.2394
▁PA	-11.24
▁underlag	-11.24
lli	-11.2401
OT	-11.2401
▁bibehålla	-11.2402
▁självständigt	-11.2403
▁låne	-11.2406
▁186	-11.2407
▁jämn	-11.2409
▁Of	-11.2413
▁drifts	-11.2416
▁cu	-11.2417
kring	-11.2425
▁vetenskaps	-11.2428
▁slump	-11.2432
▁fjärr	-11.2432
▁6)	-11.2437
▁hyper	-11.2438
▁avstå	-11.2438
▁killen	-11.2438
▁Moskva	-11.2439
▁tatuering	-11.2439
▁terrass	-11.2439
▁gjut	-11.2439
▁piano	-11.2439
▁kryptering	-11.2439
▁grill	-11.2439
▁Philip	-11.2439
▁identisk	-11.2439
▁entré	-11.244
▁förlåtelse	-11.244
leverantörer	-11.244
▁antagligen	-11.2441
▁County	-11.2442
▁substans	-11.2444
▁björn	-11.2447
▁solid	-11.2447
▁föredrag	-11.2449
▁skin	-11.245
▁Topp	-11.245
▁Åk	-11.2452
▁rättvist	-11.2453
▁AD	-11.246
tain	-11.2462
▁sonen	-11.2464
▁ven	-11.2465
▁AV	-11.2469
▁påståenden	-11.247
▁Polisen	-11.247
▁68	-11.2471
▁dynamiska	-11.2472
SS	-11.2474
▁Spe	-11.2479
reg	-11.2482
▁län	-11.2483
har	-11.2484
▁lösas	-11.2486
▁ator	-11.2489
▁ambition	-11.2492
▁anslutna	-11.2492
=	-11.2497
terapi	-11.2498
▁lyckligt	-11.2499
▁övergångs	-11.2501
▁utgår	-11.2502
▁Sir	-11.2504
▁siffrorna	-11.2504
▁stuga	-11.2506
▁78	-11.2507
▁energin	-11.2507
▁ap	-11.2511
▁världar	-11.2511
▁casinon	-11.2512
▁mon	-11.2513
▁summa	-11.2516
▁tysta	-11.2517
▁check	-11.2523
▁samlat	-11.2526
▁Epi	-11.253
▁ramar	-11.2531
▁inlägget	-11.2532
▁teman	-11.2533
▁gre	-11.2536
▁frivillig	-11.2537
▁Jakob	-11.2541
▁kopior	-11.2541
▁rekrytera	-11.2541
▁numret	-11.2541
▁initial	-11.2541
▁erövra	-11.2541
▁ersätter	-11.2541
▁stroke	-11.2541
▁cyber	-11.2541
▁Partner	-11.2541
▁kapten	-11.2542
▁synlig	-11.2542
▁Upplev	-11.2543
▁försvunnit	-11.2544
▁new	-11.2545
▁överförs	-11.2545
▁freds	-11.2545
▁geografiska	-11.2546
▁måttlig	-11.2546
▁bus	-11.2546
▁preferenser	-11.2553
▁ministeriet	-11.2553
▁etablerat	-11.2554
▁utspela	-11.2555
▁lova	-11.256
smedel	-11.2561
ison	-11.2565
▁likadant	-11.2566
itz	-11.2575
▁grundade	-11.2576
cast	-11.2579
ome	-11.258
OP	-11.2585
▁hekt	-11.2588
bruk	-11.2595
taget	-11.2597
dal	-11.2598
gräns	-11.2599
skärm	-11.26
▁Dis	-11.2601
ND	-11.2604
▁klienter	-11.2606
▁6:	-11.2606
▁högskol	-11.2609
▁märken	-11.261
▁86	-11.2611
▁pressa	-11.2614
▁himmelen	-11.2617
▁registrerings	-11.2618
▁8:	-11.2618
ility	-11.2619
▁konstnären	-11.262
itation	-11.2624
▁läkar	-11.2625
▁konkret	-11.2626
▁sändning	-11.2628
▁nyss	-11.2632
▁övergång	-11.2632
▁bergs	-11.2635
▁Sh	-11.2639
▁störning	-11.2639
▁mäktig	-11.2641
zer	-11.2641
stol	-11.2643
▁Kvalitet	-11.2644
▁Organisation	-11.2644
▁identifiering	-11.2644
▁sammanfattning	-11.2644
▁skruv	-11.2644
▁Network	-11.2644
▁klassiker	-11.2644
▁råvaror	-11.2644
▁Edward	-11.2644
▁Francisco	-11.2644
▁ondska	-11.2645
▁underrätta	-11.2646
ej	-11.2646
▁frånvaro	-11.2646
▁Beskrivning	-11.2646
▁fritid	-11.2647
▁fascinerande	-11.2648
▁Kommissionens	-11.265
▁idrottare	-11.2651
▁porn	-11.2653
▁komplikationer	-11.2653
▁dygnet	-11.2657
▁Föräldrar	-11.2657
▁Long	-11.2658
▁dragit	-11.2659
▁ärligt	-11.2662
▁hållning	-11.2662
▁Sju	-11.2664
▁Mah	-11.2664
▁car	-11.2666
▁Problem	-11.2667
▁förkorta	-11.2671
▁tempo	-11.2671
▁Josef	-11.2673
▁Ange	-11.2674
▁UN	-11.2675
▁härlighet	-11.2678
▁flykt	-11.2681
nis	-11.2681
tagare	-11.2682
IP	-11.2682
▁(5	-11.2683
bjuder	-11.2687
▁Yu	-11.2688
▁mörkt	-11.2689
▁förbättrad	-11.2691
SC	-11.2703
▁Industri	-11.2704
gor	-11.2704
cancer	-11.2705
▁fredlig	-11.2706
▁specialister	-11.2707
▁ark	-11.271
▁målning	-11.2712
▁smärtan	-11.2713
▁gula	-11.2718
▁Pap	-11.2728
källa	-11.2729
▁sammanlag	-11.2731
▁MI	-11.2732
▁marknadsföra	-11.2733
▁nationellt	-11.2733
▁regeln	-11.2738
▁syne	-11.2745
▁Education	-11.2748
▁apotek	-11.2748
▁bitcoin	-11.2748
▁cannabis	-11.2748
▁kolesterol	-11.2748
▁renovering	-11.2748
▁roulette	-11.2748
▁spelautomat	-11.2748
▁vittnesbörd	-11.2748
▁meningsfull	-11.2748
▁centret	-11.2749
▁SA	-11.2749
▁nedladdning	-11.2749
▁Roger	-11.275
▁Saab	-11.2751
▁skäm	-11.2751
▁nybörjare	-11.2753
▁Jonas	-11.2754
▁Yoga	-11.2754
▁kvarter	-11.2754
löshet	-11.2755
▁utländsk	-11.2758
▁århundraden	-11.2762
sikt	-11.2763
▁Gro	-11.2765
▁etik	-11.2767
▁Sony	-11.2768
▁”?	-11.2769
▁Well	-11.2769
▁minskad	-11.277
▁hemland	-11.2773
▁lyssnade	-11.2773
▁bokstavligen	-11.2776
▁klargör	-11.2776
▁lednings	-11.2776
lik	-11.2777
▁optisk	-11.2779
▁kommunal	-11.278
▁öar	-11.278
snitt	-11.278
▁alt	-11.278
snedsättning	-11.2782
▁allergisk	-11.2785
▁trott	-11.2787
▁Stad	-11.2787
▁neka	-11.279
▁Mini	-11.2791
▁tele	-11.2792
ual	-11.2793
▁Vägen	-11.2794
▁förnekar	-11.2794
▁mäss	-11.2806
▁Term	-11.2807
tillstånd	-11.2809
organisation	-11.2809
▁kapitalistisk	-11.2811
▁orsakat	-11.2812
▁Använda	-11.2812
▁prioriteringar	-11.2818
▁Leo	-11.282
▁bjuda	-11.2822
▁kå	-11.2823
▁förlossning	-11.2827
▁SK	-11.2827
▁tillämpningar	-11.2827
▁skilda	-11.2835
▁mjuka	-11.2837
olja	-11.2837
▁hylla	-11.284
▁Games	-11.2844
▁servera	-11.2844
▁volymen	-11.2852
▁Society	-11.2853
▁Teknik	-11.2853
▁flaskor	-11.2853
▁mångsidig	-11.2853
▁templet	-11.2853
▁åldrande	-11.2853
▁Kunskap	-11.2853
▁Sweden	-11.2853
▁hårddisk	-11.2853
▁räntor	-11.2853
▁överensstämmer	-11.2853
▁brud	-11.2853
▁släck	-11.2853
▁pistol	-11.2854
▁kärleksfull	-11.2854
▁ansluten	-11.2854
▁Watch	-11.2855
▁porr	-11.2855
▁invånarn	-11.2855
▁doktorand	-11.2855
Se	-11.2856
▁Möjlighet	-11.2858
period	-11.2862
▁Road	-11.2862
▁opera	-11.2865
▁5)	-11.2866
▁Sho	-11.2869
▁ran	-11.287
▁kapitalismen	-11.2871
▁UK	-11.2876
▁69	-11.2876
▁Ron	-11.2878
▁styre	-11.2883
▁nationen	-11.2884
▁frukter	-11.2885
▁lar	-11.2885
▁grafisk	-11.2888
▁dikt	-11.289
▁professionellt	-11.289
▁runtom	-11.2891
DI	-11.2894
▁råka	-11.2902
▁ce	-11.2903
▁vilse	-11.2905
▁Good	-11.2906
▁slutat	-11.2908
▁förändrade	-11.2909
▁jobbigt	-11.2911
▁utförande	-11.2914
onic	-11.2915
▁väntan	-11.2918
▁rättfärdiga	-11.2918
▁ögonblicket	-11.2918
▁fallen	-11.2921
▁Line	-11.2925
▁tveka	-11.2926
▁2009.	-11.2927
egel	-11.2927
▁införde	-11.293
▁försiktigt	-11.2931
▁decenni	-11.2932
▁fasen	-11.2933
film	-11.2934
▁stolen	-11.294
▁framgångar	-11.294
▁Ljus	-11.2942
▁synen	-11.2946
serie	-11.2949
▁kommersiellt	-11.2952
▁gifter	-11.2955
▁klick	-11.2957
▁Grön	-11.2959
▁gästerna	-11.2959
▁Adobe	-11.296
▁Zeeland	-11.296
▁auktoritet	-11.296
▁jurisdiktion	-11.296
▁robust	-11.296
▁självförtroende	-11.296
▁välgörenhet	-11.296
▁emotionell	-11.296
▁Albert	-11.296
▁Victoria	-11.296
▁bakåt	-11.2961
▁Resa	-11.2961
▁museer	-11.2962
▁Fan	-11.2963
▁strömmar	-11.2963
▁lönsamhet	-11.2963
▁Stäng	-11.2964
▁India	-11.2964
▁:-)	-11.2965
▁begått	-11.2965
▁föroreningar	-11.2971
▁Pappa	-11.2971
▁Law	-11.2973
▁träff	-11.2974
från	-11.2974
▁ändrats	-11.2975
▁passagerar	-11.2976
▁precision	-11.2977
▁hämtar	-11.2979
▁uppdateras	-11.2981
ii	-11.2981
▁satsningar	-11.2981
▁skrivande	-11.2982
▁Kuba	-11.2982
▁intelligent	-11.2984
ugh	-11.2985
▁skörda	-11.299
▁Thi	-11.2994
▁nöt	-11.2997
▁utvecklad	-11.2999
▁anpassad	-11.2999
▁överträffa	-11.3002
▁mission	-11.3003
▁sinnet	-11.3003
▁kvinno	-11.3004
fä	-11.3005
delen	-11.3007
▁Eu	-11.301
▁FA	-11.3019
▁tillräckliga	-11.302
fic	-11.3022
▁blogga	-11.3029
▁rac	-11.3032
▁konstaterade	-11.3033
▁påbörja	-11.3034
▁RA	-11.3037
▁underteckna	-11.3042
▁stationen	-11.3042
pri	-11.3044
▁mono	-11.3046
▁Tema	-11.3051
▁frivilligt	-11.3052
▁reserv	-11.3054
▁spänn	-11.3055
▁Ant	-11.3058
▁kastade	-11.3058
▁scener	-11.3058
▁Sw	-11.306
▁rysk	-11.3061
▁Språk	-11.3067
▁Således	-11.3067
▁Vietnam	-11.3067
▁WordPress	-11.3067
▁erbjöd	-11.3067
▁kognitiv	-11.3067
▁mirakel	-11.3067
▁sämst	-11.3067
▁BNP	-11.3067
▁Libyen	-11.3067
▁teckne	-11.3067
▁övervinna	-11.3068
▁Cancer	-11.3068
▁publicering	-11.3068
▁moment	-11.3069
tryck	-11.3071
▁bitter	-11.3071
thing	-11.3071
▁rasism	-11.3072
▁utsidan	-11.3075
▁hemifrån	-11.3076
▁AN	-11.3078
▁way	-11.3083
▁hands	-11.3086
▁samlingar	-11.3087
▁hatt	-11.3094
▁sättning	-11.3095
▁besatt	-11.3095
▁utfört	-11.3096
▁banor	-11.3102
▁fynd	-11.3104
▁specifikationer	-11.3105
▁Nick	-11.3107
▁kärleks	-11.3107
▁Möt	-11.3107
▁associera	-11.311
yss	-11.311
▁SP	-11.3112
▁snitt	-11.3113
▁överträdelse	-11.3113
stein	-11.3113
▁förekomma	-11.3114
IA	-11.3115
▁provinsen	-11.3116
▁fastighet	-11.3116
bri	-11.312
▁förhindrar	-11.3121
hm	-11.3122
▁hälsosamt	-11.3123
lidit	-11.3124
▁okända	-11.3125
▁festivalen	-11.3131
▁Qui	-11.3132
analys	-11.3133
▁Journal	-11.3134
▁2008.	-11.3136
▁dolda	-11.3137
▁inneb	-11.3139
▁manuellt	-11.3139
▁konkurrensen	-11.3143
▁damer	-11.3144
▁missade	-11.3145
▁bekräftade	-11.3145
▁bestå	-11.3146
▁antagande	-11.315
▁avslöjade	-11.3152
▁gator	-11.3154
▁mis	-11.3156
▁demokratin	-11.3156
▁klient	-11.3157
▁EA	-11.3158
▁konstitution	-11.3159
▁noterade	-11.316
▁godkände	-11.3162
▁88	-11.3163
▁Jobb	-11.3163
▁brutal	-11.3164
▁sop	-11.3165
eställningar	-11.3165
▁Bon	-11.3166
▁femton	-11.3168
▁organisk	-11.3171
▁föreslå	-11.3171
istisk	-11.3173
▁sårbar	-11.3175
▁1986	-11.3176
▁1992	-11.3176
▁Rekommendera	-11.3176
▁besvikelse	-11.3176
▁extraordinär	-11.3176
▁funktionshinder	-11.3176
▁kompetent	-11.3176
▁popularitet	-11.3176
▁slutgiltig	-11.3176
▁solidaritet	-11.3176
▁spektakulär	-11.3176
▁uppgradering	-11.3176
▁plånbok	-11.3176
▁Ocean	-11.3176
▁GUD	-11.3177
▁attacken	-11.3178
▁mäktiga	-11.3179
ittills	-11.318
äldigt	-11.3183
▁Fil	-11.3184
▁pund	-11.3185
▁posten	-11.3187
▁existerande	-11.3187
▁påverkat	-11.3187
▁kakor	-11.3189
▁Atla	-11.319
▁tonåringar	-11.3192
▁Prata	-11.3193
▁innehav	-11.3196
▁Analytics	-11.3198
▁roligare	-11.3199
▁överlevde	-11.3204
makt	-11.3205
LL	-11.3209
▁installerat	-11.321
när	-11.3211
▁Hår	-11.3211
ndra	-11.3211
▁skoj	-11.3212
▁Bör	-11.3218
▁rull	-11.3219
▁styrs	-11.3223
▁straffa	-11.3227
▁charmig	-11.323
▁skärmar	-11.3233
▁Mir	-11.3235
▁mineral	-11.3238
▁vanligare	-11.3239
▁ego	-11.3239
▁konstruera	-11.324
▁mottagaren	-11.3244
▁fattas	-11.3247
ED	-11.3249
▁stadga	-11.3249
▁försörjning	-11.325
▁vardagen	-11.325
▁objektet	-11.3251
jon	-11.3251
▁givare	-11.3255
▁arbetsplatsen	-11.3257
▁datumet	-11.3262
gga	-11.3263
▁Foto	-11.3264
▁hotet	-11.3268
▁NA	-11.3271
▁utfärdat	-11.3273
▁inbjudan	-11.3277
▁Oh	-11.3277
▁försiktighet	-11.3278
▁frö	-11.3279
▁kyss	-11.3279
▁avdelningar	-11.3283
press	-11.3284
▁belys	-11.3285
▁Argentina	-11.3286
▁Elizabeth	-11.3286
▁Innovation	-11.3286
▁Process	-11.3286
▁Utveckla	-11.3286
▁illegal	-11.3286
▁kalcium	-11.3286
▁räckvidd	-11.3286
▁BBC	-11.3286
▁Dubai	-11.3286
▁försvaga	-11.3286
▁intensitet	-11.3286
▁revidera	-11.3286
▁volontär	-11.3286
▁kosttillskott	-11.3286
▁konfiguration	-11.3286
▁syrisk	-11.3286
▁Ryan	-11.3286
▁97	-11.3286
▁Christian	-11.3287
▁förvärra	-11.3287
▁anknytning	-11.3287
▁brottslighet	-11.3287
▁HIV	-11.3288
▁betydelsefull	-11.3288
▁Premie	-11.3289
▁turen	-11.329
▁värdighet	-11.3292
▁maximera	-11.3292
▁textil	-11.3295
▁ranka	-11.3296
▁etikett	-11.3298
▁Box	-11.3299
▁älskare	-11.33
▁drivna	-11.3302
▁sjunger	-11.3303
▁feber	-11.3303
▁bränslen	-11.3303
burg	-11.3306
▁attraktioner	-11.3309
▁cykl	-11.3309
▁9:	-11.3314
▁Monte	-11.3319
▁bröllops	-11.332
kov	-11.332
▁flyttat	-11.3323
satta	-11.3324
▁kärnan	-11.3325
▁Form	-11.3328
▁fattig	-11.3329
▁kedjan	-11.3331
▁arbetsmarknaden	-11.3331
▁bekanta	-11.3331
▁Mas	-11.3332
▁verksamma	-11.3332
▁Restaurang	-11.3332
▁apparater	-11.3333
▁färgerna	-11.3333
HA	-11.3337
▁Your	-11.3337
▁fabriker	-11.334
▁Eric	-11.3342
meter	-11.3342
▁OM	-11.3345
▁upphovsrätt	-11.3348
kunskap	-11.3353
tagning	-11.3354
▁fötterna	-11.3354
▁Anden	-11.3356
▁omgivning	-11.3361
▁mördade	-11.3362
▁laddar	-11.3362
▁oral	-11.3362
▁Pop	-11.3362
▁Brist	-11.3362
▁Gui	-11.3366
▁institutionen	-11.3373
▁lastbil	-11.3379
▁bekräftat	-11.3379
▁Spelar	-11.3379
▁Bad	-11.338
mail	-11.3382
▁Sten	-11.3383
▁2010.	-11.3385
iet	-11.3385
▁CE	-11.3387
▁Boy	-11.3387
▁Familj	-11.3392
▁foten	-11.3397
▁bädd	-11.3397
▁obekväm	-11.3397
▁prinsessa	-11.3397
▁prioritet	-11.3397
▁förfäder	-11.3397
▁episod	-11.3397
▁aptit	-11.3397
▁konfigurera	-11.3397
▁avslappnad	-11.3398
▁kompatibel	-11.3398
▁Not	-11.3399
▁efterlevnad	-11.34
▁Robin	-11.3401
▁fabriken	-11.3402
▁chaufför	-11.3403
▁uppehålls	-11.3404
▁baksidan	-11.3406
▁Styr	-11.3406
▁Förlåt	-11.3408
▁Lars	-11.3411
▁kapaciteten	-11.3412
alism	-11.3414
▁130	-11.3415
▁Pra	-11.3415
▁utskottet	-11.3417
ward	-11.3419
▁utsläppen	-11.342
▁siffran	-11.3423
▁genre	-11.3424
▁???	-11.3426
▁sval	-11.3427
▁konsulter	-11.3427
▁trycker	-11.3427
▁snön	-11.3428
▁head	-11.3429
pal	-11.3432
▁terapeut	-11.3434
SI	-11.3439
▁höjer	-11.344
▁avslutade	-11.3444
▁11:	-11.3445
▁beräkningar	-11.3448
▁felaktiga	-11.345
▁rengöra	-11.3452
▁Svensk	-11.3453
▁sfär	-11.3455
▁lysa	-11.3456
▁miljard	-11.346
▁tänderna	-11.3463
▁Dor	-11.347
▁tråkigt	-11.347
▁klädd	-11.3471
▁fattat	-11.3472
▁trovärdig	-11.3474
▁burk	-11.348
▁sido	-11.348
▁gods	-11.3491
▁sken	-11.3492
▁und	-11.3492
▁hydro	-11.3495
▁kanten	-11.3497
▁Tan	-11.3497
▁mötes	-11.35
▁operationer	-11.35
▁Kit	-11.3501
▁Hal	-11.3501
▁Dem	-11.3506
▁billig	-11.3507
skatt	-11.3508
UR	-11.3509
▁PDF	-11.3509
▁föregångare	-11.3509
▁manipulera	-11.3509
▁pizza	-11.3509
▁transparent	-11.3509
▁vulkan	-11.3509
▁anteckningar	-11.3509
▁diesel	-11.3509
▁utplåna	-11.3509
▁föreslagna	-11.3509
▁bunden	-11.3509
▁yngst	-11.3509
▁Analys	-11.351
▁legend	-11.351
▁dum	-11.351
▁tandläkare	-11.3511
▁artificiell	-11.3511
▁skänk	-11.3511
▁Erbjudande	-11.3512
▁rättfärdighet	-11.3512
▁tunnel	-11.3513
▁ljusa	-11.3513
▁Show	-11.3514
▁Familje	-11.3514
▁Rob	-11.3515
▁1.1	-11.3516
▁é	-11.3521
▁Mega	-11.3524
▁sjöng	-11.3524
▁innovationer	-11.3528
▁målgrupp	-11.353
▁lektion	-11.3532
Man	-11.3534
▁Orde	-11.3536
▁utmanar	-11.3536
▁hette	-11.3536
vänt	-11.3537
▁Erik	-11.3546
▁Sm	-11.3547
▁vidtas	-11.3547
ette	-11.3547
▁Linda	-11.3547
▁processor	-11.3548
▁doktor	-11.3548
▁borg	-11.3551
▁Ray	-11.3551
▁förutse	-11.3555
▁flygplatser	-11.3556
▁);	-11.3556
▁Slut	-11.3558
▁Ek	-11.3559
▁7:	-11.3559
▁Sov	-11.3562
▁utrustningen	-11.3564
▁herrar	-11.3566
99	-11.3568
▁raser	-11.3568
▁lögner	-11.3568
▁Word	-11.3572
▁ox	-11.3574
▁klinik	-11.3574
kontroll	-11.3577
▁geni	-11.3578
befolkningen	-11.3579
▁8-	-11.3579
▁platt	-11.3582
▁hals	-11.3582
▁79	-11.3583
datum	-11.3585
▁soldat	-11.3586
▁månaders	-11.3594
▁apparat	-11.3597
▁ham	-11.36
▁Trade	-11.3605
▁inner	-11.361
▁kanalen	-11.3615
▁orna	-11.3615
▁Ang	-11.3618
▁klippa	-11.3622
▁anhängar	-11.3623
▁banbrytande	-11.3623
▁immateriell	-11.3623
▁utskrift	-11.3623
▁Material	-11.3623
▁hunnit	-11.3623
▁kvalité	-11.3623
▁attrahera	-11.3623
▁Mountain	-11.3623
▁kunnig	-11.3623
▁Ste	-11.3623
▁bensin	-11.3623
▁turer	-11.3623
▁stryk	-11.3623
▁konkurs	-11.3623
▁sammanträde	-11.3624
▁que	-11.3624
▁bankkonto	-11.3625
▁beteckna	-11.3625
▁lyder	-11.3625
▁Pet	-11.3627
▁Ball	-11.3628
▁taktik	-11.3629
▁slös	-11.3629
▁Public	-11.3631
▁flik	-11.3632
▁glid	-11.3633
▁stolthet	-11.3634
▁morse	-11.3635
▁platta	-11.3635
tiskt	-11.3636
▁Gl	-11.3637
▁blomstra	-11.3641
▁specialiserad	-11.3642
▁94	-11.3643
stil	-11.3643
▁förpackningar	-11.3648
▁Im	-11.3651
▁föräldra	-11.3652
▁förstånd	-11.3652
ME	-11.3654
▁plattor	-11.3654
▁92	-11.3657
▁jämförbar	-11.3658
▁oklart	-11.3658
▁latin	-11.3659
▁Marie	-11.366
▁förvaltningen	-11.3661
▁Gruppen	-11.3666
▁Juli	-11.3668
▁batteriet	-11.367
▁tilläggs	-11.3673
sburg	-11.3673
▁laboratorie	-11.3674
▁sats	-11.3675
▁parten	-11.3675
▁Hunt	-11.3676
▁träden	-11.3681
▁tuffa	-11.3681
▁sköta	-11.3684
▁Hor	-11.3684
▁kommission	-11.3684
▁Drive	-11.3687
▁ursprungs	-11.3687
försäkring	-11.3689
▁stjärn	-11.3689
▁luta	-11.3693
▁böner	-11.3695
▁innehålls	-11.3697
▁kriterierna	-11.3698
▁kok	-11.3701
▁sjukvården	-11.3703
▁trädgårds	-11.3706
▁uppdaterade	-11.3707
▁garantier	-11.3711
▁prestationer	-11.3712
▁attackera	-11.3712
▁kontra	-11.3713
well	-11.3715
▁brevet	-11.372
▁Best	-11.373
▁mystisk	-11.3732
▁efterfråga	-11.3734
▁lönsam	-11.3735
▁tillverkat	-11.3736
▁Chrome	-11.3738
▁avundsjuk	-11.3738
▁beskrev	-11.3738
▁instruktör	-11.3738
▁lådor	-11.3738
▁restriktioner	-11.3738
▁facilitet	-11.3738
▁tidsfrist	-11.3738
▁domännamn	-11.3738
▁webbsidor	-11.3738
▁nationalpark	-11.3738
▁ståndpunkt	-11.3738
▁svält	-11.3738
▁halvår	-11.374
▁mormor	-11.374
▁Zo	-11.374
▁tillåts	-11.3741
▁Nordic	-11.3742
▁sun	-11.3742
▁terminal	-11.3742
▁bosättning	-11.3743
▁GPS	-11.3743
▁smidigt	-11.3743
▁logisk	-11.3743
▁umgå	-11.3749
▁meny	-11.3749
▁väsen	-11.375
▁finaste	-11.375
▁prestera	-11.3751
▁islamisk	-11.3752
▁Pack	-11.3753
▁160	-11.3754
böcker	-11.3756
mission	-11.3757
▁varierande	-11.3757
▁mottagande	-11.3757
▁hen	-11.3758
▁exp	-11.3759
▁skadlig	-11.376
kommer	-11.3763
▁utseendet	-11.3771
▁Card	-11.3774
låt	-11.3774
▁Hong	-11.3775
morgon	-11.3775
fatt	-11.3775
cho	-11.3776
▁187	-11.3779
▁skylla	-11.378
rium	-11.378
▁01	-11.3782
▁marina	-11.3783
▁vägarna	-11.3784
▁väggarna	-11.3787
▁publicerat	-11.3789
▁rund	-11.379
▁förbindelse	-11.3791
▁förteckning	-11.3791
▁iaktta	-11.3793
▁odds	-11.3795
▁Yo	-11.3797
▁flagga	-11.3798
▁inträffa	-11.3798
▁Lösning	-11.3801
▁fläckar	-11.3801
▁ingenjörer	-11.3805
fredsställelse	-11.3809
verksamma	-11.3811
▁signera	-11.3816
▁fängsla	-11.3817
▁erfar	-11.3818
▁orm	-11.3818
▁lyfte	-11.3819
▁Part	-11.3822
▁luftkonditioner	-11.3823
▁GB	-11.3825
▁bull	-11.383
▁basen	-11.3833
▁hormoner	-11.3836
▁10:	-11.3838
▁stammar	-11.3838
iro	-11.3842
▁beläge	-11.3847
stre	-11.3849
▁Sitt	-11.385
▁geografisk	-11.3851
▁trevliga	-11.3851
▁Festival	-11.3854
▁Republiken	-11.3854
▁kännedom	-11.3854
▁otillräcklig	-11.3854
▁prototyp	-11.3854
▁representation	-11.3854
▁succé	-11.3854
▁kollega	-11.3854
▁brottsling	-11.3854
▁häftig	-11.3854
lämning	-11.3854
▁scenario	-11.3854
▁Tesla	-11.3854
▁shoppa	-11.3855
▁intim	-11.3855
▁återkommer	-11.3856
▁Rysk	-11.3856
▁redaktör	-11.3857
▁	-11.3857
▁lagrings	-11.3858
24	-11.3858
▁exemplet	-11.3859
US	-11.386
▁her	-11.3861
▁Lika	-11.3861
▁day	-11.3862
▁insidan	-11.3863
▁Skolan	-11.3863
▁Cam	-11.3863
▁TA	-11.3863
ordning	-11.3865
▁fallit	-11.3865
▁89	-11.3865
▁Studier	-11.3868
▁terrorister	-11.3869
▁frön	-11.3876
▁utreda	-11.3877
bon	-11.3879
erligen	-11.3881
▁uppgå	-11.3881
▁80-	-11.3882
stjärnig	-11.3886
▁bero	-11.3887
▁underhållande	-11.3888
▁mö	-11.3896
▁genomförts	-11.3896
▁makar	-11.3896
ush	-11.39
▁skugga	-11.3903
▁gudar	-11.3903
▁hiss	-11.3903
hal	-11.3903
gin	-11.3907
oke	-11.3908
▁vecko	-11.3909
shot	-11.3913
handling	-11.3913
▁förändringarna	-11.392
▁ang	-11.392
▁trösta	-11.3921
▁Kund	-11.3921
▁besättning	-11.3922
innan	-11.3922
▁panel	-11.3925
MS	-11.3925
▁2011.	-11.3927
▁genomfört	-11.3932
▁avsiktlig	-11.3932
15	-11.3933
▁Stör	-11.3934
▁Göteborgs	-11.3935
lagt	-11.3937
▁samarbeten	-11.3937
kurs	-11.3939
▁väska	-11.3939
▁74	-11.3941
▁Mobil	-11.3946
ätts	-11.3947
▁Kam	-11.395
▁imponerad	-11.3953
▁mentor	-11.3958
▁fuktig	-11.3967
▁rullar	-11.3967
organ	-11.3972
}	-11.3972
▁Klimat	-11.3972
▁Förbättra	-11.3972
▁Medelhavet	-11.3972
▁Nyckel	-11.3972
▁Pakistan	-11.3972
▁livskvalitet	-11.3972
▁navigera	-11.3972
▁management	-11.3972
▁spräng	-11.3972
▁befattning	-11.3972
▁bänk	-11.3972
▁tragisk	-11.3972
▁Metod	-11.3972
▁beslutsfattande	-11.3972
▁tält	-11.3972
▁singlar	-11.3972
▁ugn	-11.3973
▁konstverk	-11.3974
▁uppdraget	-11.3974
▁industrier	-11.3974
▁döttrar	-11.3974
▁^	-11.3975
▁påminnelse	-11.3975
▁handled	-11.3977
▁urban	-11.3978
▁berika	-11.3978
▁släktingar	-11.398
SE	-11.3981
▁anslag	-11.3981
▁lotteri	-11.3982
▁frys	-11.3985
▁bolags	-11.3985
▁Enkel	-11.3991
▁gam	-11.3992
▁rökning	-11.3993
▁Ok	-11.3995
cher	-11.3996
▁indikatorer	-11.4005
▁dumma	-11.4006
▁spårning	-11.4008
▁Match	-11.4009
annerligen	-11.4009
europa	-11.401
▁Tja	-11.4011
▁Inför	-11.4012
▁lådan	-11.4014
▁hörnet	-11.4014
▁rättfärdig	-11.4015
▁CV	-11.4018
▁biologi	-11.4019
▁Jim	-11.4022
nät	-11.4025
▁ideologi	-11.4031
▁övergiv	-11.4035
▁fött	-11.4039
▁tilldelat	-11.4041
ben	-11.4042
▁penna	-11.4044
▁Arab	-11.4045
fördraget	-11.4047
förfarande	-11.4047
play	-11.4047
instrument	-11.4047
▁avgiften	-11.4047
▁varu	-11.4051
▁intresset	-11.4051
▁utrymmen	-11.4051
▁norm	-11.4054
▁motsatsen	-11.4055
▁pojken	-11.4055
▁testar	-11.4056
▁älskad	-11.4057
▁vården	-11.4059
▁Spi	-11.4061
ester	-11.4065
▁fotografi	-11.4066
▁kärnkraft	-11.4068
▁parlament	-11.4068
▁pressen	-11.4071
gruppen	-11.4072
▁ifrågasätta	-11.4075
▁mogna	-11.4076
▁skrivare	-11.4077
▁vågor	-11.4077
▁diskuterar	-11.4078
▁misstänkta	-11.408
▁skillnaderna	-11.4081
▁lojal	-11.409
▁CS	-11.4091
▁intrång	-11.4091
▁olycklig	-11.4091
▁tolerans	-11.4091
▁uppriktig	-11.4091
▁anbud	-11.4091
▁beklaga	-11.4091
▁ändamålsenlig	-11.4091
▁Stefan	-11.4091
▁förfrågningar	-11.4091
▁ritual	-11.4091
▁Transport	-11.4091
▁Venezuela	-11.4091
▁Manager	-11.4091
▁morgondagen	-11.4091
▁Avsnitt	-11.4092
▁Potter	-11.4092
▁kartlägg	-11.4093
▁fetma	-11.4094
▁Lady	-11.4095
▁Krig	-11.4096
▁Forum	-11.4097
▁kastar	-11.4098
ille	-11.4102
▁PM	-11.4102
▁givn	-11.4104
▁Glas	-11.4105
▁omdöme	-11.4105
▁grep	-11.4106
▁dominerande	-11.4107
hem	-11.4108
▁3.1	-11.4108
fria	-11.411
▁ansikten	-11.411
Var	-11.4113
▁ansökning	-11.4113
▁ingått	-11.4114
▁illusion	-11.4114
▁systemen	-11.4115
▁slagit	-11.4118
▁överväg	-11.4118
▁skål	-11.4119
▁protokollet	-11.4122
▁non	-11.4131
ahl	-11.4132
ough	-11.4133
▁sorglig	-11.4134
▁Cro	-11.4135
▁säljaren	-11.4137
▁horn	-11.4138
▁involverade	-11.4138
▁Rio	-11.4139
▁63	-11.414
▁1,2	-11.4141
▁skrifter	-11.4146
IG	-11.4149
▁utförts	-11.4153
▁Deltagar	-11.4155
▁typiska	-11.4158
▁Skol	-11.4159
▁överträdelser	-11.4161
▁köparen	-11.4162
▁färdigt	-11.4167
Vår	-11.417
▁ärende	-11.417
Varför	-11.417
▁skulden	-11.4171
▁järnväg	-11.4173
▁isolera	-11.4175
▁Lin	-11.4188
▁intellektuella	-11.4189
▁slö	-11.419
▁stilar	-11.4202
ington	-11.4204
▁fälla	-11.4205
modligen	-11.4207
▁nyheterna	-11.4208
▁Skön	-11.4209
ortfarande	-11.421
▁installeras	-11.421
▁down	-11.4211
▁Fantastisk	-11.4211
▁hjältar	-11.4211
▁incident	-11.4211
▁prenumeration	-11.4211
▁gigantisk	-11.4211
▁oljor	-11.4211
▁Kraft	-11.4211
▁Kropp	-11.4211
▁Återigen	-11.4211
▁Peking	-11.4211
▁hänför	-11.4211
▁Ungern	-11.4211
ntegritetspolicy	-11.4211
▁BA	-11.4211
▁barnbarn	-11.4211
▁kundservice	-11.4212
▁bröstcancer	-11.4212
▁miljöpåverkan	-11.4212
▁analog	-11.4212
▁offren	-11.4212
▁montering	-11.4213
▁proletariatet	-11.4213
▁enkät	-11.4214
▁Stone	-11.4217
▁ski	-11.4217
▁väckte	-11.4219
▁höj	-11.4219
▁svåraste	-11.422
▁nödvändighet	-11.4221
▁blås	-11.4222
▁trötthet	-11.4224
▁teckna	-11.4226
▁Kvinnan	-11.4228
▁återstående	-11.4228
▁life	-11.4233
▁wood	-11.4233
▁mamman	-11.4235
▁högtid	-11.4235
▁pedagogisk	-11.4236
▁work	-11.4243
▁Eco	-11.4245
▁representerade	-11.4247
▁Job	-11.4247
▁besöket	-11.4249
GA	-11.4254
▁Sub	-11.4255
▁våt	-11.4256
▁inspirerade	-11.4257
▁kolhydrater	-11.4265
▁mineraler	-11.4265
▁air	-11.4266
▁vackrast	-11.4266
▁studerar	-11.4267
▁DS	-11.4268
▁strömm	-11.4268
▁else	-11.4269
▁Wien	-11.4271
▁överflöd	-11.4271
pris	-11.4277
▁ramverk	-11.4279
▁AC	-11.4279
▁hop	-11.4289
▁socialistisk	-11.4291
▁epi	-11.4294
▁2019.	-11.4295
▁färda	-11.4295
▁mac	-11.4296
▁pip	-11.4296
▁Bern	-11.4297
SM	-11.43
▁standarden	-11.4301
länderna	-11.4301
▁inköps	-11.4303
▁lung	-11.4305
▁producerade	-11.4306
▁stegen	-11.4311
ally	-11.4313
▁fruktansvär	-11.4315
▁förstörde	-11.4316
▁drink	-11.4316
▁Mest	-11.4316
▁varnar	-11.4324
▁race	-11.4324
▁lovat	-11.4325
▁bolagen	-11.4325
▁substanser	-11.4327
gran	-11.4327
▁manus	-11.4327
▁ventil	-11.4332
▁tennis	-11.4333
▁konsol	-11.4333
▁Square	-11.4333
▁Sydkorea	-11.4333
▁befrielse	-11.4333
▁facebook	-11.4333
▁intervention	-11.4333
▁ordinarie	-11.4333
▁sponsor	-11.4333
▁spontan	-11.4333
▁älskling	-11.4333
▁återbetala	-11.4333
▁bägge	-11.4333
▁Akademi	-11.4333
▁Dream	-11.4333
▁plåga	-11.4333
▁ansikts	-11.4333
▁hårdvara	-11.4333
▁förnyelse	-11.4333
▁rymlig	-11.4333
▁Styrelsen	-11.4333
▁Normal	-11.4333
▁innebörd	-11.4334
▁Ändra	-11.4334
▁vindkraft	-11.4334
▁hobby	-11.4334
▁axlar	-11.4334
▁gummi	-11.4334
▁bingo	-11.4335
▁Trust	-11.4335
▁brutit	-11.4336
ibel	-11.4337
▁mystiska	-11.434
▁njö	-11.4342
mil	-11.4344
▁Mail	-11.4346
▁evangeliet	-11.4346
▁hållbarhets	-11.4346
▁upplysningar	-11.4347
▁Profeten	-11.4347
▁poliser	-11.4348
▁mång	-11.4351
▁hiv	-11.4351
▁psykolog	-11.4353
▁räddnings	-11.4354
▁Exp	-11.4355
▁förlusten	-11.4358
tech	-11.4359
▁ledamot	-11.436
▁utgång	-11.4361
▁110	-11.4361
▁naken	-11.4362
▁händelserna	-11.4362
▁Tal	-11.4362
▁prover	-11.4364
▁skivor	-11.4365
▁VR	-11.4367
▁skapelsen	-11.4381
▁kartan	-11.4382
▁Störst	-11.4387
▁arbetstid	-11.4389
▁sson	-11.4391
▁Bag	-11.4393
▁sjöar	-11.4395
▁musklerna	-11.4396
▁kirurgi	-11.44
▁gravida	-11.4402
▁genetiska	-11.4402
▁2006.	-11.4402
▁Union	-11.4406
▁växla	-11.4408
▁Staten	-11.4409
▁termen	-11.4409
▁drömma	-11.441
jäl	-11.441
rapport	-11.4413
▁vardag	-11.4416
▁svaghet	-11.4416
▁leg	-11.4416
▁skrevs	-11.4417
▁skrivning	-11.442
▁Kärleken	-11.442
▁stycke	-11.4422
▁äventyra	-11.4422
dagar	-11.4425
▁Michel	-11.4427
▁intelligenta	-11.4429
▁märkte	-11.4429
▁fängelset	-11.4431
▁dikter	-11.4436
▁höjning	-11.4438
▁tonåring	-11.4446
▁angrip	-11.4448
▁Grad	-11.4449
▁rit	-11.4452
▁vas	-11.4452
▁nackdelar	-11.4453
väckande	-11.4455
iko	-11.4456
neralsekreterare	-11.4457
▁allihop	-11.4457
▁cirkulär	-11.4457
▁förvirring	-11.4457
▁logotyp	-11.4457
▁öknen	-11.4457
▁reflektion	-11.4457
▁byxor	-11.4457
▁fientlig	-11.4457
▁legendarisk	-11.4457
▁bråk	-11.4457
▁Majoritet	-11.4457
▁kvantitet	-11.4457
▁drivkraft	-11.4458
▁62	-11.4458
▁Institution	-11.4459
▁irländsk	-11.4459
▁Ã	-11.4459
▁beteckning	-11.4459
familjemedlemmar	-11.446
▁sänt	-11.446
▁försvunn	-11.4461
▁databasen	-11.4462
▁förvandlas	-11.4462
▁Gräns	-11.4464
▁motsätt	-11.4465
▁Avtal	-11.4465
64	-11.4465
▁Emma	-11.4467
▁spins	-11.4468
▁klockor	-11.4469
▁sekretesspolicy	-11.4469
▁stift	-11.4471
▁honung	-11.4472
wo	-11.4474
LO	-11.4475
▁Joe	-11.4475
person	-11.4478
▁godis	-11.4481
▁kompletterande	-11.4482
▁begrav	-11.4482
▁fordra	-11.4486
▁AT	-11.449
▁ställd	-11.4493
vagn	-11.4493
ängande	-11.4495
▁kritiker	-11.4496
lop	-11.4497
▁dan	-11.4497
▁vetenskapligt	-11.4498
▁stängde	-11.4498
▁bevarande	-11.4502
graph	-11.4502
▁Kap	-11.4505
fors	-11.4514
▁välsignelse	-11.4518
▁budskapet	-11.452
LD	-11.4523
▁fastigheten	-11.4524
▁protester	-11.4524
▁medeltid	-11.4527
▁konsumenten	-11.4529
nnor	-11.4532
▁Herr	-11.4533
▁Kunde	-11.4535
medborgare	-11.4538
▁avsett	-11.454
länder	-11.4541
▁aktiviteten	-11.4549
pass	-11.4549
▁påstående	-11.455
▁Solen	-11.4552
▁Gate	-11.4553
▁klor	-11.4554
▁tjejen	-11.4556
metoder	-11.4557
▁skapad	-11.4562
▁domen	-11.4563
stånd	-11.4564
bild	-11.4565
▁blinda	-11.4565
▁ingrediens	-11.4565
▁bistå	-11.4568
▁förvaltar	-11.4569
▁åkt	-11.4569
▁stängda	-11.4575
▁love	-11.4577
lackjack	-11.4578
▁Baby	-11.4581
▁köpet	-11.4581
▁Charlie	-11.4582
▁Jacob	-11.4582
▁bomull	-11.4582
▁fullborda	-11.4582
▁potatis	-11.4582
▁́s	-11.4582
▁Stephen	-11.4582
▁genuin	-11.4582
▁seriöst	-11.4582
▁debitera	-11.4582
▁Girl	-11.4582
▁initiera	-11.4582
▁kusin	-11.4582
▁Nokia	-11.4582
▁Suite	-11.4582
▁allians	-11.4582
narkotika	-11.4582
▁15-	-11.4582
▁regelbundna	-11.4582
▁Byggnad	-11.4582
▁meningslös	-11.4583
▁JAG	-11.4583
▁testosteron	-11.4584
▁förebild	-11.4584
▁report	-11.4585
▁blått	-11.4585
▁Fair	-11.4585
▁troligtvis	-11.4585
▁figurer	-11.4585
▁gall	-11.4586
▁Extra	-11.4586
▁affärsområde	-11.4586
▁föreställning	-11.4587
bundna	-11.4587
prov	-11.459
▁upplaga	-11.4591
▁publicerad	-11.4591
▁etisk	-11.4592
▁Action	-11.4592
▁Living	-11.4593
▁Kha	-11.4593
▁tacksamhet	-11.4595
▁ul	-11.4595
▁rytm	-11.4598
▁organiserade	-11.4598
▁hava	-11.4598
▁genomförd	-11.4599
▁140	-11.4599
▁Chile	-11.46
▁bestånd	-11.4603
▁dataskydds	-11.4605
▁Kommun	-11.4605
▁utkast	-11.4609
▁överklaga	-11.4611
▁Sonen	-11.4611
▁Nato	-11.4612
▁tornet	-11.4613
låda	-11.4613
▁skiva	-11.4614
dlar	-11.462
▁Landet	-11.4621
▁träffades	-11.4621
▁gråter	-11.4628
▁knappar	-11.4628
▁dragning	-11.463
▁evig	-11.4632
▁fran	-11.4635
▁nyfödd	-11.4638
▁fusk	-11.4641
▁betyda	-11.4641
▁beställningar	-11.4642
▁Main	-11.4643
▁utbudet	-11.4645
▁ansträng	-11.4645
▁närhet	-11.4649
▁kongress	-11.4649
tadium	-11.4653
mall	-11.4654
▁betalade	-11.4657
språk	-11.4659
▁lev	-11.466
▁läro	-11.4662
institut	-11.4663
ó	-11.4667
pill	-11.4671
▁likhet	-11.4672
▁balanserad	-11.4672
gal	-11.4673
▁företräde	-11.4673
▁Sri	-11.4674
▁gräv	-11.4677
▁uppdaterat	-11.4678
▁gömd	-11.468
▁alternativen	-11.4681
,9	-11.4681
▁sparas	-11.4684
▁ryck	-11.4687
mbo	-11.469
bro	-11.469
▁hushålls	-11.4693
▁befolknings	-11.4698
▁est	-11.4701
▁Region	-11.4702
▁långsam	-11.4702
▁Möjlig	-11.4703
bul	-11.4706
▁don	-11.4706
▁Domstolen	-11.4708
▁Fjär	-11.4708
▁Funktion	-11.4708
▁Försäljning	-11.4708
▁Saudiarabien	-11.4708
▁Teknisk	-11.4708
▁ekvation	-11.4708
▁hämnd	-11.4708
▁optimering	-11.4708
▁mestadels	-11.4708
▁samvete	-11.4708
▁ihjäl	-11.4708
▁Helige	-11.4708
▁Boston	-11.4708
▁astma	-11.4708
▁sistnämnda	-11.4709
▁promenera	-11.4709
▁bifoga	-11.4709
▁rundtur	-11.4709
▁Heart	-11.4709
▁döpt	-11.4709
▁Handling	-11.471
▁Generell	-11.4711
▁körkort	-11.4711
▁Vision	-11.4711
▁Malta	-11.4711
▁Ltd	-11.4711
▁Young	-11.4711
▁barer	-11.4712
▁Boende	-11.4712
▁Fox	-11.4713
▁fritids	-11.4713
dad	-11.4713
▁Gas	-11.4715
bian	-11.4715
▁referenser	-11.4716
utan	-11.4716
▁fotografering	-11.4716
▁stäm	-11.4718
▁pulver	-11.4718
DS	-11.4719
▁förhands	-11.4719
▁kliv	-11.4721
▁ings	-11.4721
▁90-	-11.4722
▁Lista	-11.4722
▁svin	-11.4724
▁fusion	-11.4724
▁filosof	-11.4725
▁pga	-11.4726
▁njutning	-11.4729
▁Wester	-11.4732
▁insekter	-11.4732
▁omgiven	-11.4734
▁pil	-11.4737
▁uppskattade	-11.4738
▁ägarna	-11.4742
▁andnings	-11.4742
▁obligatoriska	-11.4742
▁brä	-11.4746
▁ideell	-11.4748
▁låst	-11.4748
Har	-11.4749
▁08	-11.475
▁gra	-11.4754
HC	-11.4755
▁Planet	-11.4755
▁kraftfullt	-11.4755
▁homosexuella	-11.4756
▁hacka	-11.4758
▁författar	-11.4758
▁störta	-11.476
»	-11.476
▁vo	-11.4761
▁drick	-11.4762
▁erfaren	-11.4766
gram	-11.4766
▁häll	-11.4768
▁prop	-11.477
▁uppfattas	-11.4773
▁Roman	-11.4775
▁Läkare	-11.4777
▁Webbplats	-11.4778
▁överge	-11.4779
▁fadern	-11.4779
▁förenlig	-11.4779
▁eko	-11.478
▁giltigt	-11.4781
▁främjande	-11.4786
▁2007.	-11.4788
▁bedömningar	-11.4788
▁vinnaren	-11.4792
▁rotera	-11.4793
▁Nyheter	-11.4797
▁lapp	-11.4801
▁helhets	-11.4801
▁Barnet	-11.4803
▁mid	-11.4804
▁anvisningar	-11.4806
▁andning	-11.4807
▁kolonial	-11.4812
▁huvuden	-11.4813
▁delat	-11.4813
▁svamp	-11.4818
▁målningar	-11.482
▁skolorna	-11.482
▁Sports	-11.4821
▁förakt	-11.4824
▁inlärnings	-11.4828
▁Wikipedia	-11.4836
▁bidrog	-11.4836
▁college	-11.4836
▁motorcykel	-11.4836
▁olympisk	-11.4836
▁pjäs	-11.4836
▁fibrer	-11.4837
nvasion	-11.4837
▁delegera	-11.4837
▁exponera	-11.4837
▁rationell	-11.4837
▁förfogande	-11.4837
▁Sydney	-11.4837
▁komedi	-11.4837
▁makro	-11.4837
▁sovrummet	-11.4838
▁fräsch	-11.4839
▁guider	-11.4839
▁skicklighet	-11.4839
lund	-11.484
▁hyres	-11.4841
▁spion	-11.4842
▁erhållit	-11.4842
▁Forex	-11.4842
▁högskolan	-11.4844
▁organiserad	-11.4845
▁miles	-11.4846
▁massiv	-11.4846
▁Tin	-11.485
▁budgeten	-11.4852
▁Nationell	-11.4853
▁Öka	-11.4855
▁Vä	-11.4856
hållnings	-11.4857
▁metoderna	-11.4861
staka	-11.4863
▁defekt	-11.4864
departementet	-11.4865
▁9)	-11.4866
▁formuläret	-11.4867
▁Mobile	-11.4868
▁senior	-11.4868
▁tänkbar	-11.4869
▁proteiner	-11.4872
▁Ansvar	-11.4877
▁Hum	-11.4879
NA	-11.4881
▁fundamental	-11.4883
▁åtgärden	-11.4886
▁lägen	-11.4892
▁slip	-11.4893
▁Tillgång	-11.4894
▁nämnd	-11.4895
▁um	-11.4895
▁förordningar	-11.4898
▁Opera	-11.49
▁migranter	-11.4904
▁Vetenskap	-11.4905
▁automat	-11.4908
▁provins	-11.4908
▁beta	-11.4909
teckning	-11.4909
▁skrattade	-11.4911
▁kontanter	-11.4912
▁Möte	-11.4927
▁ED	-11.4927
▁axel	-11.4934
▁Nå	-11.4942
▁Fisk	-11.4946
▁Länk	-11.4948
▁boknings	-11.4948
▁formade	-11.4953
▁kit	-11.4953
▁trauma	-11.4954
▁tår	-11.4959
▁installationen	-11.4959
▁ol	-11.4962
▁Direkt	-11.4965
▁Hälso	-11.4966
▁avsaknad	-11.4966
▁Venedig	-11.4966
▁matematisk	-11.4966
▁navigering	-11.4966
▁stöld	-11.4966
▁France	-11.4966
▁Tower	-11.4966
▁vrede	-11.4967
▁Fyll	-11.4967
▁kollektivtrafik	-11.4967
▁knyt	-11.4967
▁låtsas	-11.4967
▁sallad	-11.4967
▁invändning	-11.4967
▁sprit	-11.4967
▁population	-11.4967
▁drev	-11.4967
▁Audi	-11.4967
▁kryptera	-11.4967
▁brinna	-11.4967
▁plagg	-11.4968
▁Tru	-11.4969
▁Skär	-11.4969
▁varaktighet	-11.4969
▁Drick	-11.497
▁Cirk	-11.4971
▁digitalisering	-11.4971
▁Sarah	-11.4972
▁CIA	-11.4972
▁2030	-11.4972
▁kostnadsfri	-11.4973
▁slumpmässig	-11.4975
▁Comp	-11.4975
▁3,5	-11.498
▁näringslivet	-11.498
▁tillvaro	-11.498
▁segla	-11.498
▁högtalare	-11.4983
▁ropade	-11.4983
▁Själva	-11.4985
▁Williams	-11.4985
core	-11.4985
▁Säkerhets	-11.4986
▁uttalanden	-11.4986
▁Ljuset	-11.4988
▁förbruka	-11.4991
▁mottagning	-11.4991
▁70-	-11.4993
▁organiska	-11.4993
▁Undersökning	-11.4994
▁ljuger	-11.4995
▁korsa	-11.4997
▁win	-11.4999
▁anhöriga	-11.5001
▁Brad	-11.5001
▁Kalla	-11.5002
▁insatsen	-11.5002
▁uppkomst	-11.5003
▁översatt	-11.5005
heter	-11.5008
▁installerade	-11.5015
▁arbetsgrupp	-11.5015
▁miljömässig	-11.5016
▁mordet	-11.5017
politik	-11.5019
▁tillbringade	-11.5021
RC	-11.5023
▁poolen	-11.5027
▁speriod	-11.5032
▁charm	-11.5033
▁hotade	-11.5036
▁drottning	-11.5039
▁installations	-11.5041
▁Marc	-11.5046
▁blyg	-11.505
amarbetspartners	-11.505
▁sena	-11.5053
maskin	-11.5054
▁etapp	-11.5054
▁åtfölj	-11.5055
▁option	-11.5057
▁spegel	-11.5064
▁Minn	-11.5065
▁Hav	-11.5067
▁sprogram	-11.5069
▁diskuteras	-11.5071
uch	-11.5072
priset	-11.5074
lön	-11.5075
ball	-11.5075
▁Värde	-11.5076
▁ov	-11.5084
▁sjukvårds	-11.5085
▁beröm	-11.5087
▁mätt	-11.5089
▁överskott	-11.509
tering	-11.5091
▁aktivister	-11.5091
▁läraren	-11.5092
▁kraftig	-11.5096
▁ister	-11.5096
▁strids	-11.5098
▁beskattning	-11.5098
▁hjärtsjukdom	-11.5098
▁Drottning	-11.5098
▁okunnig	-11.5098
▁uppfostra	-11.5098
▁Åtminstone	-11.5098
▁diktatur	-11.5098
▁parkeringsplats	-11.5098
▁Access	-11.5098
▁Född	-11.5098
▁moské	-11.5098
▁MSEK	-11.5098
▁propaganda	-11.5098
▁blixt	-11.51
▁Jeff	-11.51
alisera	-11.51
▁vaccination	-11.5101
▁vaken	-11.5101
▁prick	-11.5101
▁bokföring	-11.5101
▁kartor	-11.5101
otify	-11.5102
▁intervjua	-11.5103
ashion	-11.5104
▁AL	-11.5104
LC	-11.5108
▁mätare	-11.5109
▁Allmän	-11.511
▁kock	-11.5111
▁operationen	-11.5112
▁dyrare	-11.5112
▁oväntade	-11.5113
▁Bull	-11.5116
▁snyggt	-11.5116
▁Sjö	-11.5117
▁sköna	-11.5117
▁hoppar	-11.5117
▁war	-11.5119
▁UV	-11.5119
▁traditionen	-11.512
▁Station	-11.512
▁checka	-11.5122
▁12:	-11.5124
nblick	-11.5125
▁ley	-11.5126
▁framkalla	-11.5127
▁testade	-11.5132
▁house	-11.5133
▁allergi	-11.5135
▁rival	-11.5135
▁tillverkarna	-11.514
▁tungt	-11.5142
▁blåsa	-11.5142
▁HR	-11.5142
▁skyltar	-11.5147
▁förnuft	-11.5149
▁förklaringen	-11.5151
▁nick	-11.5153
▁kö	-11.5159
▁Patienter	-11.5162
ödande	-11.5164
▁iserade	-11.5175
▁manuell	-11.5177
▁kast	-11.5177
▁dyr	-11.5178
▁rost	-11.5179
▁historik	-11.5182
ller	-11.5183
mond	-11.5184
▁förvärvade	-11.5185
▁designade	-11.5186
▁egentlig	-11.5186
▁jon	-11.5187
▁lärjungar	-11.519
▁riktlinjerna	-11.5191
gul	-11.5193
dow	-11.5194
▁registreras	-11.5195
▁Hei	-11.5198
NS	-11.5199
▁bag	-11.5201
▁File	-11.5202
▁glaset	-11.5203
▁fullgöra	-11.5207
▁mässigt	-11.5208
▁kryp	-11.521
▁läsaren	-11.521
▁smala	-11.5213
▁cykla	-11.5214
▁kommunistisk	-11.5214
▁bytt	-11.5214
▁sökanden	-11.5222
▁slavar	-11.5224
döme	-11.5225
▁mont	-11.5226
pra	-11.5229
▁Noter	-11.5229
▁spot	-11.523
▁barriär	-11.5231
▁lagstadgad	-11.5231
▁premium	-11.5231
▁seminarier	-11.5231
▁vampyr	-11.5231
▁abstrakt	-11.5231
▁bälte	-11.5231
▁gestalt	-11.5231
▁Röst	-11.5232
▁utsedd	-11.5232
tvärvetenskaplig	-11.5232
▁View	-11.5232
shirt	-11.5232
▁explosion	-11.5232
▁FBI	-11.5232
▁finländsk	-11.5233
▁Henrik	-11.5233
▁privatliv	-11.5234
▁löv	-11.5235
▁uthållig	-11.5235
flyttning	-11.5236
▁touch	-11.5236
bal	-11.5239
▁vista	-11.5239
▁beskydd	-11.5242
▁Lisa	-11.5244
▁engagerad	-11.5246
▁provning	-11.5246
▁konferenser	-11.5248
▁skur	-11.5249
▁marknadsför	-11.5253
▁privilegier	-11.5255
▁granne	-11.5256
▁betong	-11.5257
▁rand	-11.5258
▁annonsering	-11.5259
▁månads	-11.526
▁antag	-11.5266
▁kräm	-11.5266
▁sparka	-11.5268
▁bytte	-11.527
▁sajten	-11.5271
omma	-11.5272
▁Historien	-11.5273
▁uppstått	-11.5273
▁ledd	-11.5276
▁incitament	-11.5276
▁tråkig	-11.5278
▁vandrar	-11.5279
▁DE	-11.5281
▁härifrån	-11.5282
▁polska	-11.5284
▁donera	-11.5286
▁buller	-11.5288
▁identifierat	-11.5288
▁officiell	-11.5292
▁skadan	-11.5293
▁misstänkt	-11.5295
▁tablett	-11.5297
lysning	-11.5299
▁Bou	-11.5299
sökande	-11.53
▁medierna	-11.53
▁halsen	-11.5301
▁självständig	-11.5302
▁Les	-11.5303
▁9-	-11.5306
▁sjuksköterska	-11.5312
▁Rid	-11.5314
akademiker	-11.5316
▁Kontroll	-11.5316
▁statistiken	-11.5318
skapet	-11.532
▁undersökt	-11.5321
problem	-11.5322
lagstiftning	-11.5323
färg	-11.5323
▁parts	-11.5325
▁flyttas	-11.5329
▁jämna	-11.533
▁skyddad	-11.5331
▁finansieras	-11.5334
▁tillverkad	-11.5335
Detta	-11.5338
Kr	-11.5341
▁60-	-11.5347
▁hänvisning	-11.5348
▁Fär	-11.5353
▁mässig	-11.5356
▁medium	-11.5358
▁stängd	-11.5359
lovade	-11.5359
▁viktigast	-11.5359
▁cellerna	-11.5362
▁delad	-11.5366
▁Swedish	-11.5366
▁café	-11.5366
▁community	-11.5366
▁elektricitet	-11.5366
▁kvalitativ	-11.5366
▁magnifik	-11.5366
▁dagsläget	-11.5366
▁mikrofon	-11.5366
▁skåda	-11.5366
▁Tredje	-11.5366
▁hypotes	-11.5366
▁Eventuell	-11.5367
▁fyrtio	-11.5367
▁böter	-11.5368
▁kundtjänst	-11.5369
▁Hamas	-11.537
▁lättnad	-11.537
▁gråt	-11.5373
▁buff	-11.5373
▁jurist	-11.5374
▁Göra	-11.5374
ING	-11.5374
▁Cho	-11.5375
▁Idé	-11.5375
▁uppfyllda	-11.5376
▁medalj	-11.538
▁mästerskap	-11.5381
▁showen	-11.5382
▁riktad	-11.5383
BT	-11.5383
▁Väg	-11.5384
▁trupp	-11.5384
▁mottagit	-11.5384
▁kedjor	-11.5386
▁Bol	-11.5387
▁EC	-11.5388
▁skid	-11.5391
▁Ef	-11.5393
▁oxid	-11.5395
▁kraftverk	-11.5398
steg	-11.5404
▁sökmotor	-11.5406
▁Add	-11.5406
▁organismer	-11.5408
▁mervärde	-11.5408
▁utbildningar	-11.5411
▁isterna	-11.5412
▁kombinationen	-11.5414
▁tim	-11.5415
▁känslomässiga	-11.5418
▁hörsel	-11.5418
▁militären	-11.5419
▁ball	-11.5422
TM	-11.5423
▁Clar	-11.5424
▁Kin	-11.5424
▁ali	-11.5425
▁magnet	-11.5429
▁märket	-11.543
wei	-11.543
▁förlorad	-11.5433
▁tillverkningen	-11.5433
▁Walk	-11.5435
▁hyll	-11.544
▁övertygelse	-11.544
▁lyser	-11.544
▁ljuga	-11.544
ödra	-11.544
▁Arts	-11.544
▁vol	-11.5442
▁civilisation	-11.5444
arter	-11.5446
▁Luk	-11.5447
▁indikation	-11.5448
▁råkar	-11.5449
lägga	-11.5452
▁tabellen	-11.5453
▁Blå	-11.5458
▁kolon	-11.5459
hjälp	-11.546
följande	-11.546
▁festen	-11.547
▁fastställ	-11.5476
▁domstols	-11.5479
▁skörd	-11.548
▁guds	-11.5483
▁samtalet	-11.5484
▁NU	-11.5484
▁pet	-11.5485
▁dalen	-11.5485
▁handska	-11.5487
▁angeläg	-11.5487
▁2000-	-11.5488
▁wo	-11.5488
▁förespråkar	-11.5491
▁erbjudandet	-11.5492
timmars	-11.5495
▁TR	-11.5498
▁Bed	-11.5499
▁LE	-11.55
▁biskop	-11.5503
▁Parlament	-11.5503
▁Mount	-11.5503
▁Utställning	-11.5503
▁pionjär	-11.5503
¶	-11.5503
▁1967	-11.5503
▁Academy	-11.5503
▁Bluetooth	-11.5503
▁Böcker	-11.5503
▁Libanon	-11.5503
▁Outlook	-11.5503
▁analytiker	-11.5503
▁kidnapp	-11.5503
▁magnesium	-11.5503
▁praktisera	-11.5503
▁synvinkel	-11.5503
▁hjälm	-11.5503
▁Prince	-11.5503
▁Miami	-11.5503
▁prostata	-11.5503
▁power	-11.5503
▁tveksam	-11.5504
▁konsolider	-11.5504
▁ivrig	-11.5504
▁Town	-11.5504
▁instans	-11.5504
▁Index	-11.5504
▁transplantation	-11.5504
▁kreativt	-11.5504
▁barmhärtighet	-11.5504
▁hypo	-11.5506
▁1940	-11.5506
▁Report	-11.5506
▁Gissa	-11.5506
▁andetag	-11.5506
▁Traditionell	-11.5507
▁lärdom	-11.5509
▁småföretag	-11.5509
▁Alice	-11.5511
myndigheten	-11.5511
▁behörig	-11.5513
▁rummen	-11.5513
▁Dark	-11.5514
▁hjälpmedel	-11.5514
▁svarat	-11.5515
BA	-11.5516
▁Död	-11.5517
▁Lord	-11.5517
▁anklagelser	-11.5518
▁tillsyns	-11.5519
▁synte	-11.552
sport	-11.5521
▁främlingar	-11.5521
,000	-11.5522
▁juice	-11.5523
▁Fish	-11.5524
▁Mika	-11.5527
▁tävlings	-11.5528
▁snack	-11.553
▁smycken	-11.5531
▁räddning	-11.5531
CI	-11.5533
▁köks	-11.5533
▁samhällelig	-11.5539
▁Oj	-11.554
▁7-	-11.554
▁publikationer	-11.5541
▁mos	-11.5544
▁agerande	-11.5545
▁field	-11.5545
▁varaktig	-11.5546
▁Tio	-11.5546
▁mur	-11.5547
▁ella	-11.5548
▁tagna	-11.5549
▁misstänker	-11.5549
center	-11.5552
▁besparingar	-11.5553
▁tårta	-11.5554
▁hemskt	-11.5556
▁passande	-11.5558
▁bönen	-11.5569
ög	-11.557
▁mött	-11.5571
▁placerar	-11.5573
▁Ursprunglig	-11.5574
▁molekyler	-11.5579
▁rösten	-11.5579
▁byråer	-11.5583
affärsverksamhet	-11.5584
▁Tids	-11.5586
▁konungen	-11.5587
stitution	-11.5588
▁Ven	-11.5589
▁samlats	-11.5589
▁Strategi	-11.5594
▁beräkningen	-11.5597
▁utmärkelse	-11.56
▁Dålig	-11.5602
▁träningen	-11.5603
▁uppge	-11.5603
kanal	-11.5603
▁fästa	-11.5605
▁engångs	-11.5605
▁nominera	-11.5606
▁ev	-11.5606
▁Lam	-11.5606
▁Mill	-11.5611
▁trenden	-11.5612
▁mjukvar	-11.5613
framkallande	-11.5613
▁83	-11.5614
▁snacka	-11.5619
▁kass	-11.5619
▁ombud	-11.562
▁pall	-11.5622
▁Säkerhet	-11.5625
▁mild	-11.5625
heim	-11.5629
▁Ari	-11.5629
▁proportion	-11.5629
▁ömsesidigt	-11.5631
▁vinet	-11.5633
▁centra	-11.5634
▁leksak	-11.5639
▁Leg	-11.5639
▁Sammanfattning	-11.5642
▁Buddha	-11.5642
▁Edinburgh	-11.5642
▁Grattis	-11.5642
▁Nigeria	-11.5642
▁Nintendo	-11.5642
▁PayPal	-11.5642
▁Youtube	-11.5642
▁business	-11.5642
▁dynamik	-11.5642
▁impuls	-11.5642
▁layout	-11.5642
▁uthyrning	-11.5642
▁Lissabon	-11.5642
▁gynnsam	-11.5642
▁ockupera	-11.5642
▁skrek	-11.5642
▁immunförsvar	-11.5642
infarkt	-11.5642
▁Verksamhet	-11.5642
▁återfinn	-11.5642
▁plasma	-11.5643
▁vegan	-11.5644
▁hälsning	-11.5644
▁tål	-11.5645
▁valider	-11.5645
▁sammanlagd	-11.5646
▁erektion	-11.5646
▁Krav	-11.5646
▁detekter	-11.5647
▁Lim	-11.5647
▁noggrannhet	-11.5648
▁fördubbla	-11.5648
▁statisk	-11.5649
▁71	-11.565
▁stadier	-11.565
▁assist	-11.5651
▁skandal	-11.5653
▁massorna	-11.5653
FS	-11.5653
CS	-11.5654
▁Buss	-11.5654
▁1500	-11.5655
▁kvarstår	-11.5656
▁implantat	-11.5658
▁Ether	-11.5659
▁fäste	-11.5661
▁söndagen	-11.5662
▁kärl	-11.5663
hä	-11.5664
▁Spelare	-11.5668
▁sponsra	-11.567
▁lovande	-11.5671
▁medvetandet	-11.5672
syra	-11.5672
▁Moon	-11.5673
▁positionen	-11.5673
▁korset	-11.5674
▁licenser	-11.5677
▁ond	-11.5681
▁Alzheimers	-11.5682
▁sms	-11.5687
▁Orsak	-11.5689
▁tillförlitliga	-11.5689
▁förbinde	-11.5689
▁kamrater	-11.569
▁fastställande	-11.5692
▁helige	-11.5693
▁yt	-11.5693
▁MB	-11.5694
▁grenar	-11.5694
▁planerad	-11.5696
▁förhandlingarna	-11.57
▁doktors	-11.57
▁vinsten	-11.5702
▁tröst	-11.5703
▁rus	-11.5705
▁panelen	-11.5712
▁kommunist	-11.5715
▁nyttig	-11.5717
▁föredra	-11.5718
▁våningar	-11.5718
▁evenemanget	-11.5719
▁kvartal	-11.5719
kommen	-11.5721
▁upphovsrätts	-11.5724
▁hämma	-11.5729
▁AP	-11.5729
▁Sign	-11.5733
▁genomgår	-11.5737
ansvarig	-11.5737
▁Fokus	-11.5741
book	-11.5742
▁lagarna	-11.5742
▁Jer	-11.5745
▁trum	-11.5745
▁#1	-11.5754
▁NI	-11.5757
▁Kill	-11.576
grering	-11.5764
▁främling	-11.5765
▁skådespel	-11.5772
▁turnering	-11.5773
▁kombinationer	-11.5776
▁styrd	-11.578
▁fångade	-11.5781
▁1969	-11.5783
▁Absolut	-11.5783
▁Erfarenhet	-11.5783
▁Indonesien	-11.5783
▁förbränning	-11.5783
▁komplement	-11.5783
▁science	-11.5783
▁sekvens	-11.5783
▁utsökt	-11.5783
▁affärsmodell	-11.5783
▁arbetarklassen	-11.5783
▁befann	-11.5783
▁bjöd	-11.5783
▁tillbaks	-11.5783
▁uppståndelse	-11.5783
▁Snow	-11.5783
▁skräddarsydd	-11.5783
▁Märk	-11.5783
▁Court	-11.5784
▁Flytta	-11.5784
▁hälsoproblem	-11.5784
▁världsklass	-11.5784
▁bluff	-11.5784
▁Andreas	-11.5784
▁harmonisera	-11.5786
▁fjärdedel	-11.5786
▁välstånd	-11.5787
▁detaljhandel	-11.5787
mbi	-11.5788
▁camping	-11.5788
▁resmål	-11.5788
erfarna	-11.5791
tigande	-11.5791
▁svit	-11.5791
▁Il	-11.5791
hon	-11.5792
▁djuret	-11.5795
▁rop	-11.5797
▁kick	-11.5797
▁försöket	-11.5798
▁cykeln	-11.5798
▁storslag	-11.5803
▁uppbyggnad	-11.5804
maste	-11.5805
▁slaveri	-11.5805
▁Övrig	-11.5805
▁italiensk	-11.5805
▁Beställ	-11.5806
MI	-11.5808
▁motpart	-11.5808
koldioxidutsläpp	-11.5811
▁konstiga	-11.5813
▁vagnar	-11.582
▁Vinter	-11.5827
▁Kär	-11.5828
▁turkiska	-11.583
lement	-11.5832
▁andan	-11.5832
▁350	-11.5833
▁föreställ	-11.5834
▁ingick	-11.5836
▁testning	-11.5837
▁Bru	-11.5837
▁byggs	-11.584
▁återvän	-11.584
IV	-11.5841
▁skildra	-11.5844
▁dar	-11.5845
▁symtomen	-11.5848
▁olyckan	-11.5851
▁Tel	-11.5853
mannen	-11.5856
▁regera	-11.5856
▁kemikalie	-11.5863
fartyg	-11.5866
▁fat	-11.5867
▁arbetsmarknad	-11.587
rodde	-11.5872
▁turneringar	-11.5877
▁övergången	-11.5877
▁förenade	-11.5878
▁tvister	-11.5878
light	-11.588
▁talare	-11.5881
konferens	-11.5882
standard	-11.5882
mästare	-11.5882
kus	-11.5884
nedsatt	-11.5885
board	-11.5885
dvs	-11.589
känn	-11.5891
▁riskera	-11.5892
wan	-11.5897
▁bönder	-11.5898
▁förväntat	-11.59
femtio	-11.5905
▁dygn	-11.5908
▁förpacknings	-11.5909
▁vattn	-11.591
▁inleds	-11.5913
▁producerat	-11.5917
▁resande	-11.5918
▁Kostnad	-11.592
▁organet	-11.5922
▁Jenn	-11.5925
▁vardagsrum	-11.5926
▁Säsong	-11.5926
▁korridor	-11.5926
▁1977	-11.5926
▁Development	-11.5926
▁Filippinerna	-11.5926
▁Intressant	-11.5926
▁Utforska	-11.5926
▁adoptera	-11.5926
▁bevittna	-11.5926
▁bläddra	-11.5926
▁elefant	-11.5926
▁mödrar	-11.5926
▁redigering	-11.5926
▁Arthur	-11.5926
▁analytisk	-11.5926
▁fjäll	-11.5926
▁kafé	-11.5926
▁dekoration	-11.5926
▁yttrandefrihet	-11.5926
▁utflykt	-11.5926
▁Micro	-11.5926
▁Utmärkt	-11.5926
▁stabilisera	-11.5927
▁dekorera	-11.5927
▁Luther	-11.5927
▁skikt	-11.5927
▁Silver	-11.5928
▁2/	-11.5928
▁Guld	-11.5928
▁pelare	-11.5928
▁Produktion	-11.5928
▁Fastighet	-11.5929
▁Särskild	-11.5929
▁VII	-11.593
▁framträd	-11.5931
▁Anslut	-11.5931
▁-0	-11.5932
▁rutan	-11.5932
▁Webb	-11.5932
▁boskap	-11.5934
▁informerade	-11.5934
▁Emil	-11.5936
▁~	-11.5938
▁Gäll	-11.5939
▁kvot	-11.594
▁skärp	-11.5941
▁Doug	-11.5941
▁tilldelning	-11.5942
▁registrerad	-11.5942
▁Dator	-11.5943
▁trogn	-11.5946
▁glass	-11.5947
▁cor	-11.5949
▁återställ	-11.5954
▁Förening	-11.5956
▁Redo	-11.5956
▁Share	-11.5957
▁vaka	-11.5959
▁inkluderande	-11.596
LM	-11.596
▁Stan	-11.5965
▁13:	-11.5967
▁institutionell	-11.5967
▁Sakna	-11.5967
▁Tea	-11.5969
Kevin	-11.5971
göra	-11.5972
▁inifrån	-11.5972
▁elektroniskt	-11.5973
▁che	-11.5974
▁enheterna	-11.5976
▁framstående	-11.5978
▁optioner	-11.5979
▁sköter	-11.5982
▁tryggt	-11.5983
▁sticka	-11.5985
▁glädjen	-11.5985
▁87	-11.5985
▁handlings	-11.5985
▁fotografier	-11.5986
▁väldig	-11.5987
▁underhålla	-11.5987
▁Bry	-11.5992
▁smuts	-11.5995
▁kak	-11.6
▁MR	-11.6001
▁begärt	-11.6003
partiet	-11.6006
▁utgången	-11.6007
▁bokstav	-11.6011
bot	-11.6012
▁potentialen	-11.6012
▁djupet	-11.6016
▁arbetsplatser	-11.6016
▁ml	-11.6019
▁verktygen	-11.6025
duk	-11.6025
lutning	-11.6026
▁NO	-11.6026
Point	-11.6027
field	-11.6028
▁Place	-11.6029
▁berömd	-11.6029
▁öm	-11.6031
▁strukturell	-11.6031
▁regim	-11.6031
▁lämpa	-11.6032
cro	-11.6033
motor	-11.6034
▁döljer	-11.6035
▁siffra	-11.6036
▁Care	-11.6038
▁kört	-11.604
▁faktorn	-11.6041
▁servern	-11.6043
▁Kid	-11.6045
▁portar	-11.6045
▁släppas	-11.6048
▁blom	-11.6049
▁poet	-11.6049
▁databaser	-11.6051
0.000	-11.6053
lv	-11.6053
▁tu	-11.6056
▁direktören	-11.6057
▁Luft	-11.6058
▁förklaras	-11.6059
▁erad	-11.6061
▁hack	-11.6063
▁Vär	-11.6066
ektor	-11.6071
▁1983	-11.6071
▁Tokyo	-11.6071
▁förmögenhet	-11.6071
▁illustrera	-11.6071
▁oväntat	-11.6071
▁toppmöte	-11.6071
▁[2]	-11.6071
▁hockey	-11.6071
▁ingrepp	-11.6071
sarbete	-11.6071
▁minimum	-11.6071
▁avskräck	-11.6071
▁Låg	-11.6071
▁point	-11.6071
▁Down	-11.6071
▁utrota	-11.6071
▁Carolina	-11.6071
▁trång	-11.6071
▁föreslog	-11.6071
▁Corporation	-11.6071
▁Operation	-11.6071
▁Civil	-11.6071
▁grabb	-11.6072
▁prestigefylld	-11.6072
▁värna	-11.6072
▁Icke	-11.6072
▁Connect	-11.6072
▁WHO	-11.6073
▁NY	-11.6073
shavare	-11.6073
▁premie	-11.6073
▁rehabilitering	-11.6073
tron	-11.6073
▁pensionär	-11.6074
▁nationalitet	-11.6074
▁långsammare	-11.6076
▁reception	-11.6076
▁nackdel	-11.6076
▁beredning	-11.6077
▁Sher	-11.6078
▁vägnar	-11.6078
▁följs	-11.6078
▁Blu	-11.6082
▁fäll	-11.6082
▁stabila	-11.6086
▁nedanför	-11.6087
▁(5)	-11.6088
▁Fed	-11.609
▁springer	-11.6092
dagen	-11.6093
▁krypto	-11.6093
▁grunderna	-11.6094
▁star	-11.6096
▁Cel	-11.6098
▁tonår	-11.6098
▁ji	-11.6099
▁steroider	-11.6112
▁bart	-11.6114
▁Nordisk	-11.6115
▁Placer	-11.6116
▁våldsam	-11.6119
▁underskott	-11.6121
▁utrikesminister	-11.6124
▁slot	-11.6124
▁Affärs	-11.6125
▁galna	-11.6125
▁bevisat	-11.6126
▁beläggning	-11.6128
▁stel	-11.6129
▁förvirrad	-11.6134
offer	-11.6134
▁nöjes	-11.6137
▁beskrivningar	-11.6137
▁Gy	-11.6138
▁mini	-11.6142
▁HA	-11.6142
▁Come	-11.6143
▁AU	-11.6147
▁befallning	-11.6149
foga	-11.6158
▁more	-11.616
▁avståndet	-11.6163
▁EF	-11.6163
70	-11.6164
▁liggande	-11.6165
▁eran	-11.6167
▁Verk	-11.6168
▁taggad	-11.617
-10	-11.6171
nämnda	-11.6174
▁parker	-11.6176
▁Az	-11.6178
▁tecknat	-11.6178
▁mobiltelefoner	-11.6178
▁bloggare	-11.6178
▁annonsera	-11.6179
print	-11.6181
▁instrumentet	-11.6182
▁Read	-11.6183
▁krona	-11.6184
▁lampa	-11.6184
▁ET	-11.6184
▁diskussionen	-11.619
▁operatör	-11.6192
▁livlig	-11.6194
metri	-11.6195
▁demens	-11.6197
▁advokater	-11.6197
▁valfri	-11.6199
▁spin	-11.6199
▁uppfinning	-11.6199
▁gris	-11.6201
▁våldet	-11.6201
▁nä	-11.6203
gain	-11.6203
▁tufft	-11.6203
IM	-11.6204
▁intressera	-11.6208
▁stilen	-11.6209
▁dramatiskt	-11.6212
▁Clo	-11.6213
▁implementer	-11.6214
▁Bit	-11.6216
▁glukos	-11.6218
▁matsmältning	-11.6218
▁nikotin	-11.6218
▁1988	-11.6218
▁Dublin	-11.6218
▁Exchange	-11.6218
▁Flash	-11.6218
▁Halloween	-11.6218
▁Kommunikation	-11.6218
▁autentisk	-11.6218
▁bekostnad	-11.6218
▁destruktiv	-11.6218
▁erkänt	-11.6218
▁frekvent	-11.6218
▁härstamma	-11.6218
▁kablar	-11.6218
▁nödsituation	-11.6218
▁schweizisk	-11.6218
▁spekulation	-11.6218
▁surfplatt	-11.6218
▁Kaffe	-11.6218
▁terräng	-11.6218
▁nederländsk	-11.6218
▁pussel	-11.6218
▁uppfann	-11.6218
▁vädja	-11.6218
▁interiör	-11.6218
▁sprick	-11.6218
▁kristendomen	-11.6218
▁flagg	-11.6219
▁generator	-11.6219
▁Susan	-11.622
▁tredjeländer	-11.622
▁[3]	-11.622
▁arbetslösa	-11.622
▁indian	-11.622
▁Week	-11.622
▁Travel	-11.6221
ädret	-11.6221
▁flöden	-11.6222
▁kassa	-11.6223
▁1930	-11.6223
▁Fundera	-11.6227
▁Lön	-11.6227
▁fight	-11.623
▁frigör	-11.6231
▁Hay	-11.6231
vitt	-11.6235
▁volymer	-11.6238
list	-11.6238
▁föreläsning	-11.6239
▁Surf	-11.624
▁sköld	-11.624
▁lastbilar	-11.6243
▁”).	-11.6243
postmeddelanden	-11.6244
▁(18	-11.6246
▁skyddande	-11.6247
▁Solutions	-11.6251
▁sporten	-11.6251
tiden	-11.6254
▁Mur	-11.6257
▁lärarna	-11.6257
▁intellektuell	-11.6257
▁designers	-11.6258
▁förändrat	-11.6258
▁misstänk	-11.6258
▁protest	-11.6263
iki	-11.6264
▁analysen	-11.6266
▁125	-11.6267
▁uppfyllt	-11.6268
▁Konto	-11.627
soft	-11.6271
▁Historisk	-11.6272
▁modellerna	-11.6276
▁undertecknade	-11.628
här	-11.6281
▁Lagen	-11.6283
count	-11.6285
▁sil	-11.6285
▁nationerna	-11.6288
▁teatern	-11.629
▁konstruerade	-11.629
▁organisationens	-11.6292
▁Bing	-11.6293
▁starkast	-11.6296
▁motiverade	-11.6299
▁Maj	-11.6301
▁chip	-11.6301
▁funka	-11.6306
teckna	-11.6307
▁fakultet	-11.6308
▁ungar	-11.631
▁bedrägerier	-11.631
▁passionerad	-11.6316
▁5.1	-11.6317
▁spelande	-11.632
▁pad	-11.6321
fält	-11.6323
▁anpassat	-11.6323
klipp	-11.6323
LU	-11.6323
tusentals	-11.6323
▁följder	-11.6328
▁ringen	-11.6333
TV	-11.6335
AA	-11.6335
trä	-11.6336
▁uppehåll	-11.6358
▁smal	-11.636
90	-11.6362
▁ssystemet	-11.6364
▁levererade	-11.6367
▁kvadrat	-11.6367
▁Statistik	-11.6367
▁ockupation	-11.6367
▁1971	-11.6367
▁1973	-11.6367
▁1975	-11.6367
▁1982	-11.6367
▁Brexit	-11.6367
▁Kroatien	-11.6367
▁Rumänien	-11.6367
▁abonnemang	-11.6367
▁balkong	-11.6367
▁befälhavare	-11.6367
▁dysfunktion	-11.6367
▁egyptisk	-11.6367
▁koalition	-11.6367
▁mammor	-11.6367
▁oförglömlig	-11.6367
▁olämplig	-11.6367
▁orgasm	-11.6367
▁osannolik	-11.6367
▁sjöfart	-11.6367
▁akvari	-11.6367
▁autism	-11.6367
▁Relation	-11.6367
▁Azure	-11.6367
▁Söder	-11.6367
▁signatur	-11.6368
▁Expert	-11.6368
▁thai	-11.6368
▁Handels	-11.6368
▁gymmet	-11.6368
▁Andrew	-11.6368
▁Korea	-11.6368
▁glädja	-11.6368
▁underskatta	-11.6369
▁socialdemokrat	-11.637
▁genomgå	-11.637
▁osäkra	-11.637
▁uppmaning	-11.637
▁veteran	-11.637
▁Stilla	-11.637
▁Magnu	-11.6371
otaliga	-11.6371
▁nedåt	-11.6372
▁HÄR	-11.6373
▁mega	-11.6374
▁How	-11.6376
▁Band	-11.6377
cid	-11.6377
▁84	-11.6378
▁What	-11.6378
▁vingar	-11.638
▁krama	-11.6381
▁vibrationer	-11.6381
▁Gener	-11.6382
▁oroliga	-11.6382
▁torget	-11.6382
▁sårbarhet	-11.6382
▁smörj	-11.6383
▁milli	-11.6383
elva	-11.6383
▁obegränsad	-11.6384
▁Cookie	-11.6385
ory	-11.6385
▁ackumulera	-11.6385
▁Cast	-11.6386
▁arbetsdagar	-11.6387
kh	-11.6392
▁Framtiden	-11.6392
▁sensorer	-11.6398
▁nyttja	-11.6399
▁anslutningar	-11.6401
▁Julia	-11.6405
▁inställningen	-11.6405
IR	-11.6408
▁Ner	-11.6411
▁sökningar	-11.6417
▁dedikerad	-11.6417
▁frukta	-11.6417
▁flaggan	-11.6419
▁Testa	-11.6421
▁Utför	-11.6421
▁självklar	-11.6423
▁73	-11.6423
▁godhet	-11.6424
atch	-11.6424
▁talan	-11.6427
▁Åt	-11.643
tric	-11.6438
▁striden	-11.6438
ulf	-11.6439
▁FI	-11.6443
▁fåglarna	-11.6446
▁slutsats	-11.6448
former	-11.6451
▁variationer	-11.6451
▁Map	-11.6455
▁185	-11.6455
▁kommunicerar	-11.6458
▁fruktansvärda	-11.6465
▁surf	-11.6467
▁tunna	-11.6468
▁räcka	-11.647
▁revisions	-11.6471
uppgifter	-11.6471
▁fokuserad	-11.6471
kväll	-11.6475
verktyg	-11.6475
avfall	-11.6478
▁stjäla	-11.6482
Gud	-11.6486
tog	-11.649
▁planeter	-11.6499
▁spill	-11.65
▁arbetsgivaren	-11.65
▁förhand	-11.6501
▁rädslan	-11.6501
▁släkte	-11.6501
▁Missa	-11.6502
▁Last	-11.6503
▁motstå	-11.6512
In	-11.6515
▁ägar	-11.6517
▁Moder	-11.6517
arbetstillfällen	-11.6519
▁1968	-11.6519
▁Energy	-11.6519
▁Manhattan	-11.6519
▁Sydamerika	-11.6519
▁gyllen	-11.6519
▁livslång	-11.6519
▁nordväst	-11.6519
▁statsminister	-11.6519
▁subvention	-11.6519
▁uppföljare	-11.6519
▁Ljud	-11.6519
▁kompakt	-11.6519
▁Earth	-11.6519
▁spred	-11.6519
▁kvadratmeter	-11.6519
▁basket	-11.6519
▁insistera	-11.6519
▁mötesplats	-11.6519
▁palm	-11.6519
▁display	-11.6519
▁upprörd	-11.6519
▁Executi	-11.6519
▁flög	-11.6519
▁offline	-11.6519
▁Wilson	-11.652
▁föränderlig	-11.652
▁Skype	-11.652
▁mobb	-11.652
▁**	-11.6521
▁inloggning	-11.6521
▁good	-11.6522
▁blond	-11.6522
▁poängen	-11.6524
▁rösträtt	-11.6525
▁Uber	-11.6529
▁1200	-11.6531
▁Marketing	-11.6531
▁ABB	-11.6535
▁Östersjön	-11.6535
▁räknade	-11.6535
▁Stol	-11.6537
▁filtrera	-11.6537
▁derivat	-11.6538
▁sånger	-11.6539
▁måndagen	-11.6539
▁fasad	-11.6541
▁stunden	-11.6541
▁Sound	-11.6542
ico	-11.6543
▁leveranser	-11.6543
▁besökarna	-11.6545
▁Planera	-11.6548
▁förpliktelser	-11.6548
▁distriktet	-11.655
pac	-11.6552
▁upprättande	-11.6552
tonde	-11.6555
▁lördagen	-11.6555
▁certifiera	-11.6556
LS	-11.6557
▁regi	-11.6558
▁termo	-11.6562
▁Minska	-11.6563
▁arbetsdag	-11.6565
ranska	-11.6568
▁familjemedlem	-11.6569
▁Skydda	-11.6571
▁tin	-11.6574
▁receptet	-11.6578
▁well	-11.6582
▁like	-11.6585
▁längtan	-11.6586
▁observation	-11.6589
▁EP	-11.6589
▁förstärkt	-11.6591
▁BE	-11.6591
▁försvarar	-11.6592
▁bränder	-11.6594
▁Modell	-11.6597
▁döm	-11.6601
▁ansvarsfullt	-11.6603
▁pon	-11.6604
▁kontraktet	-11.6609
▁Rai	-11.6609
▁giltig	-11.6613
▁marker	-11.6613
▁anlände	-11.6616
▁massan	-11.6617
▁diplomatisk	-11.662
osi	-11.662
plikt	-11.6629
▁stolar	-11.6629
botten	-11.6629
can	-11.6632
▁Stark	-11.6632
▁hor	-11.6633
ever	-11.6634
▁Eld	-11.6637
▁Aktie	-11.6639
▁Sko	-11.6641
▁fingrar	-11.6642
▁Betyd	-11.6642
▁skapare	-11.6642
▁koncernens	-11.6643
▁7)	-11.6643
ship	-11.6644
▁Financ	-11.6644
▁ytter	-11.6644
▁påbörjat	-11.6645
▁Kur	-11.6645
ntligen	-11.6646
▁stängs	-11.6648
▁run	-11.6652
▁meddelat	-11.6653
▁paradis	-11.6656
▁bilarna	-11.6656
▁Metro	-11.6659
▁krediter	-11.6668
▁grejer	-11.6668
▁stränga	-11.6668
koniska	-11.6672
▁katedral	-11.6673
▁Populär	-11.6673
▁Ursäkta	-11.6673
▁cirkulation	-11.6673
▁garderob	-11.6673
▁kompensation	-11.6673
▁korrigering	-11.6673
▁mexikansk	-11.6673
▁oförändrad	-11.6673
▁slutanvändar	-11.6673
▁sofistikerad	-11.6673
▁önskningar	-11.6673
▁diameter	-11.6673
▁1700-	-11.6673
▁Fungera	-11.6673
▁Gustav	-11.6673
▁antioxidant	-11.6673
▁bubbla	-11.6673
▁Palace	-11.6673
▁arrestera	-11.6673
▁naglar	-11.6673
▁kostym	-11.6673
▁vardagsrummet	-11.6673
▁Titel	-11.6673
▁Skanska	-11.6674
▁pirat	-11.6674
▁voro	-11.6674
▁NASA	-11.6674
▁Tjänster	-11.6674
▁diskret	-11.6675
▁Eye	-11.6675
▁huvudroll	-11.6676
▁motivering	-11.6676
▁Fakta	-11.6676
▁Wales	-11.6677
området	-11.6677
▁specialitet	-11.6678
▁dömdes	-11.6678
▁Cash	-11.6678
▁Trä	-11.6678
▁intressenter	-11.6679
▁perfektion	-11.6688
▁Fredri	-11.6688
▁djävulen	-11.6689
▁ever	-11.6693
▁Sökande	-11.6696
▁2.1	-11.6697
skottet	-11.6697
▁utnämn	-11.6698
ates	-11.6702
▁kallelse	-11.6702
▁kal	-11.6703
▁brottet	-11.6704
▁utlösa	-11.6708
▁Mall	-11.6709
▁illustration	-11.6709
▁förstörelse	-11.671
▁vild	-11.6711
▁undvik	-11.6714
▁fun	-11.6714
▁bostadsområde	-11.6715
▁Rand	-11.6716
▁medgivande	-11.6717
▁Assa	-11.6717
▁binde	-11.6718
▁Kate	-11.672
▁kloka	-11.6725
▁grundlig	-11.6726
▁utmärk	-11.6727
▁ck	-11.6728
▁utslag	-11.6735
▁viruset	-11.6737
äckande	-11.6738
▁fattade	-11.6739
▁förklaringar	-11.6741
thy	-11.6744
▁Geo	-11.6744
▁föreställningen	-11.6745
halt	-11.6752
▁Turk	-11.6755
▁destinationer	-11.6755
▁vänligt	-11.6762
▁muslim	-11.6763
▁Grupp	-11.6771
▁krasch	-11.6771
▁avvisa	-11.6774
,7	-11.6776
▁pub	-11.6777
▁näs	-11.6779
▁terapeutisk	-11.678
mmen	-11.6782
vinning	-11.6782
▁AG	-11.6783
läggning	-11.6784
▁indikator	-11.6785
▁identifierade	-11.6785
▁Zoo	-11.6787
▁ärendet	-11.679
klass	-11.6791
nedan	-11.6791
▁Mario	-11.6792
TO	-11.6796
ljus	-11.6796
▁teknologier	-11.6796
▁klarat	-11.6798
▁utsikter	-11.68
▁tun	-11.68
udi	-11.6801
▁bliva	-11.6802
▁rekryterings	-11.6803
▁ster	-11.6804
▁q	-11.6804
▁regisserad	-11.6805
ova	-11.6808
▁fras	-11.6813
▁nutid	-11.6814
▁Nation	-11.6817
room	-11.6817
▁hemligt	-11.6819
▁public	-11.682
Så	-11.682
▁geo	-11.6823
▁Ägar	-11.6825
▁utredningen	-11.6826
▁andre	-11.6826
▁1974	-11.6829
▁Adventure	-11.6829
▁Cypern	-11.6829
▁Definition	-11.6829
▁Hongkong	-11.6829
▁Machine	-11.6829
▁beslutsfattar	-11.6829
▁cocktail	-11.6829
▁folkomröstning	-11.6829
▁förföljelse	-11.6829
▁höft	-11.6829
▁lantbruk	-11.6829
▁oönskade	-11.6829
▁välmående	-11.6829
▁användarvänlig	-11.6829
▁frälst	-11.6829
▁halvtimme	-11.6829
▁Veckan	-11.6829
▁cirkulera	-11.6829
▁poesi	-11.6829
▁kontext	-11.6829
▁fullfölj	-11.6829
▁beröva	-11.6829
▁rymmer	-11.683
▁specificera	-11.683
▁automation	-11.683
▁författning	-11.6831
▁Pin	-11.6831
▁konfrontera	-11.6831
▁backup	-11.6831
▁Robot	-11.6831
▁Eleverna	-11.6831
▁utgjorde	-11.6832
▁Lanka	-11.6833
▁komposition	-11.6833
▁kudd	-11.6833
▁Snö	-11.6835
▁väte	-11.6835
▁revisor	-11.6835
▁Thor	-11.6839
▁Regi	-11.684
▁09	-11.684
▁variabler	-11.684
▁07	-11.684
▁skynda	-11.6841
▁Karin	-11.6843
▁korn	-11.6843
▁myt	-11.6844
▁Fond	-11.6845
▁5000	-11.6846
▁paradiset	-11.6847
▁3000	-11.6848
▁beskrivit	-11.6849
▁vänj	-11.6852
▁Wei	-11.6852
▁router	-11.6852
▁samfundet	-11.6853
▁tugg	-11.6853
▁argumentera	-11.6854
▁föd	-11.6854
▁bords	-11.6857
▁flottan	-11.6857
▁Mun	-11.6858
▁Java	-11.6858
▁Rör	-11.6859
▁varmare	-11.686
position	-11.686
▁entusiastisk	-11.686
▁unge	-11.686
▁Öv	-11.6861
▁14:	-11.6861
▁Bruk	-11.6863
▁legitima	-11.6863
▁kollektiva	-11.6865
▁utövande	-11.6865
▁freden	-11.6867
▁cigaretter	-11.6868
vy	-11.6869
▁tydligare	-11.687
▁misslyckats	-11.6871
myndighet	-11.6872
▁sörj	-11.6873
▁högskole	-11.6874
▁BI	-11.6875
esh	-11.6877
IO	-11.6878
▁löjlig	-11.688
▁tilldelade	-11.6882
▁ref	-11.6885
▁betalningen	-11.6891
▁törst	-11.6895
▁murar	-11.6896
▁studerat	-11.6897
fråga	-11.6897
▁broar	-11.6901
▁spam	-11.6902
▁mysig	-11.6902
▁Svara	-11.6904
▁skönhets	-11.6912
lack	-11.6912
▁oh	-11.6916
▁ph	-11.692
VE	-11.6922
legat	-11.6925
▁avbrott	-11.6926
▁studenten	-11.6927
pto	-11.6927
▁opposition	-11.6929
▁baren	-11.693
▁gel	-11.6931
▁koder	-11.6931
▁Corn	-11.6938
▁pålitliga	-11.6939
▁Beck	-11.6939
▁Skatte	-11.694
sjuk	-11.6944
▁företagande	-11.6945
▁vitaminer	-11.6946
▁intervjun	-11.695
▁jackpott	-11.6954
▁gata	-11.6957
strid	-11.6961
ommission	-11.6968
▁palats	-11.697
▁inflation	-11.6972
▁tillämpligt	-11.6973
▁big	-11.6978
▁hemska	-11.6979
▁flöda	-11.6979
▁fyllde	-11.6979
▁Shop	-11.6982
▁faktura	-11.6983
▁Björn	-11.6988
▁Cambridge	-11.6988
▁IKEA	-11.6988
▁Limited	-11.6988
▁Liverpool	-11.6988
▁PlayStation	-11.6988
▁adekvat	-11.6988
▁behövt	-11.6988
▁explodera	-11.6988
▁kosmetisk	-11.6988
▁näringsidkare	-11.6988
▁prisbelönt	-11.6988
▁tangentbord	-11.6988
▁telefonsamtal	-11.6988
▁väskor	-11.6988
▁snurra	-11.6988
▁arkitektonisk	-11.6988
▁frilans	-11.6988
▁antenn	-11.6988
▁Kenya	-11.6988
▁vapne	-11.6988
▁sabbat	-11.6988
▁Liber	-11.6988
▁1945	-11.6989
▁beredskap	-11.6989
▁tavla	-11.6989
▁foster	-11.6989
▁svets	-11.6991
▁faktur	-11.6991
▁Vanliga	-11.6991
▁Tony	-11.6991
▁våldsamma	-11.6992
▁bildade	-11.6992
▁Tv	-11.6993
▁beviljats	-11.6993
▁Förlora	-11.6995
▁problematisk	-11.6996
▁förorena	-11.6997
▁miste	-11.6999
▁förmedlar	-11.7
▁framhåll	-11.7001
▁experimentera	-11.7001
▁anordningar	-11.7003
▁Frihet	-11.7003
▁adressen	-11.7004
hållande	-11.7006
▁SAS	-11.7007
▁(4)	-11.7009
▁Barr	-11.701
▁timmarna	-11.7011
▁medicinering	-11.7012
▁Over	-11.7024
▁framme	-11.7027
▁stjäl	-11.7027
▁iallafall	-11.7029
▁flest	-11.7029
▁vittnar	-11.7033
▁Beläg	-11.7033
▁insättningar	-11.7036
▁minuten	-11.7037
stagande	-11.7041
vändningsområden	-11.7041
stenar	-11.7048
▁stränderna	-11.7048
▁discipliner	-11.7049
där	-11.7056
▁teologi	-11.7057
▁ropar	-11.706
▁ansvarsfull	-11.706
▁automatiserad	-11.7065
▁initiativet	-11.7068
▁oändliga	-11.7068
▁eu	-11.7069
▁samlingen	-11.7071
▁vävnader	-11.7072
▁Rub	-11.7074
▁CC	-11.7074
▁konserter	-11.7077
▁lyckad	-11.7079
▁sexig	-11.708
▁serveras	-11.7081
▁smärtsam	-11.7083
räd	-11.7091
abla	-11.7091
▁befogenhet	-11.71
▁följare	-11.7102
▁kläderna	-11.7102
▁tyngd	-11.7104
ordförande	-11.7105
▁Ross	-11.7105
▁förvärvat	-11.7107
Ni	-11.7108
luft	-11.7108
▁stöta	-11.7109
▁organism	-11.7109
▁Sur	-11.711
▁logiskt	-11.7111
▁Kungen	-11.7112
▁Alf	-11.7115
▁bekämpning	-11.7117
▁undervisningen	-11.712
▁Rädd	-11.7127
▁jämnt	-11.7128
örande	-11.7128
▁DR	-11.713
dress	-11.713
▁Rosa	-11.7132
▁bildande	-11.7133
▁Ky	-11.7134
▁Salt	-11.7135
▁MO	-11.7137
▁porten	-11.7142
gången	-11.7142
▁03	-11.7146
▁world	-11.7147
▁aktuellt	-11.7148
▁växel	-11.7149
▁ALLT	-11.7149
▁Bulgarien	-11.7149
▁Dokument	-11.7149
▁Mexico	-11.7149
▁Politik	-11.7149
▁Religion	-11.7149
▁Skandinavien	-11.7149
▁budbärare	-11.7149
▁intuitiv	-11.7149
▁parfym	-11.7149
▁representativ	-11.7149
▁förutspå	-11.7149
▁språng	-11.7149
▁FDA	-11.7149
▁Sofia	-11.7149
lydnad	-11.7149
▁odödlig	-11.7149
▁artrit	-11.7149
▁preliminär	-11.7149
▁Hundar	-11.7149
▁Vänster	-11.7149
▁styv	-11.7149
▁manifestation	-11.7149
▁tortyr	-11.7149
▁girl	-11.7149
▁monopol	-11.715
▁lobby	-11.715
▁vårdnad	-11.715
▁utsätta	-11.715
▁moms	-11.715
▁badrummet	-11.715
▁Viktigt	-11.715
▁begåvad	-11.7151
▁look	-11.7151
▁jazz	-11.7151
▁jämlikhet	-11.7152
▁divers	-11.7152
▁Marknad	-11.7152
▁farmor	-11.7153
▁home	-11.7153
▁uppmanade	-11.7154
Nu	-11.7155
▁ologi	-11.7156
▁jacka	-11.7157
▁svep	-11.7158
▁Teck	-11.716
▁horisontell	-11.716
▁Capita	-11.7161
▁ping	-11.7162
▁Party	-11.7163
▁animerad	-11.7165
▁Brun	-11.7166
▁föreläsningar	-11.7169
▁raderas	-11.717
▁vidtagit	-11.717
▁faror	-11.7175
▁enkelhet	-11.7176
▁obligationer	-11.7176
▁SM	-11.7178
▁IF	-11.7182
▁24-	-11.7185
▁kärna	-11.7185
▁smartare	-11.7186
▁Skriften	-11.7188
▁betalningsmetod	-11.7191
ime	-11.7192
▁10%	-11.7193
▁yrkesmässig	-11.7194
▁spik	-11.7194
▁svenskar	-11.7195
▁reglerings	-11.7204
▁Nar	-11.7204
▁book	-11.7206
▁Drömm	-11.7207
▁genomsnittet	-11.7208
▁Wil	-11.7209
▁jäs	-11.7209
▁utfall	-11.721
▁82	-11.721
▁blicka	-11.7216
trip	-11.7216
▁Hud	-11.7217
efaller	-11.7221
▁skrämma	-11.7223
▁försörjnings	-11.7223
▁flaskan	-11.7223
iel	-11.7225
▁upphäva	-11.7227
▁HE	-11.7228
▁Student	-11.723
▁säck	-11.7232
▁privatperson	-11.7232
▁sanningar	-11.7233
▁partierna	-11.7236
varor	-11.7237
▁administrer	-11.7238
▁killarna	-11.7238
▁magnetisk	-11.7238
▁firma	-11.7238
▁sparande	-11.724
lic	-11.7244
▁Personuppgifter	-11.7247
▁Hero	-11.7251
▁stärkt	-11.7255
▁hoppet	-11.7256
▁köttet	-11.7257
▁sektion	-11.7259
▁presenter	-11.726
▁segern	-11.726
▁festivaler	-11.7262
▁besitt	-11.7264
▁släp	-11.7265
▁provet	-11.7265
▁lack	-11.7267
▁talanger	-11.7269
skepp	-11.7271
▁Hyr	-11.7272
▁kommenterar	-11.7276
▁kirurgisk	-11.7276
▁GT	-11.7277
▁stiftelse	-11.728
butik	-11.728
▁Patri	-11.7281
▁benet	-11.7282
▁uppdateringen	-11.7284
▁inblandad	-11.7284
▁tabeller	-11.7285
▁fotografer	-11.7287
▁mätta	-11.7294
▁kvällar	-11.7295
▁läka	-11.7298
▁Clark	-11.7301
▁Pad	-11.7305
▁Xi	-11.7306
▁stream	-11.7306
MO	-11.7307
imension	-11.7309
▁opinion	-11.7313
▁1985	-11.7313
▁1987	-11.7313
▁Department	-11.7313
▁Jessica	-11.7313
▁Kompositör	-11.7313
▁Toyota	-11.7313
▁anständig	-11.7313
▁censur	-11.7313
▁champagne	-11.7313
▁konfidentiell	-11.7313
▁konstruktiv	-11.7313
▁midnatt	-11.7313
▁mysterium	-11.7313
▁nyfikn	-11.7313
▁podcast	-11.7313
▁tragedi	-11.7313
▁understryk	-11.7313
▁uppsägning	-11.7313
▁Högskola	-11.7313
▁befäst	-11.7313
▁guvern	-11.7313
▁läder	-11.7313
▁Gaming	-11.7313
▁clown	-11.7313
▁spänd	-11.7313
▁Oxford	-11.7313
▁micro	-11.7313
▁missförstånd	-11.7313
▁nervsystemet	-11.7313
▁Karolin	-11.7313
▁transfer	-11.7313
▁Dylan	-11.7313
▁estetisk	-11.7313
▁kin	-11.7314
▁Oslo	-11.7314
▁blue	-11.7314
▁biträda	-11.7314
▁tapet	-11.7314
▁pastor	-11.7314
▁spann	-11.7314
▁Bruce	-11.7315
▁värk	-11.7315
▁muntlig	-11.7315
▁avslutning	-11.7315
▁Ah	-11.7315
▁bollar	-11.7316
▁Adria	-11.7316
▁städning	-11.7317
▁Serbi	-11.7318
▁nötter	-11.7318
▁mobilitet	-11.7321
▁dämpa	-11.7322
chen	-11.7322
▁mässan	-11.7322
▁stul	-11.7324
▁arbetslivet	-11.7328
▁detaljerna	-11.7329
▁smälta	-11.7331
▁Tyska	-11.7336
▁Blod	-11.7337
▁förstört	-11.7338
▁konventioner	-11.7338
▁soffan	-11.7339
▁irrit	-11.734
▁Cris	-11.7341
▁deltid	-11.7342
▁AA	-11.7342
▁raket	-11.7344
▁medicinen	-11.7346
▁driven	-11.7349
▁förmoda	-11.735
▁sammanh	-11.7351
ville	-11.7355
▁hjulet	-11.7355
▁Nice	-11.7355
▁mästar	-11.7357
▁drastisk	-11.7358
mur	-11.7359
boll	-11.7361
▁experimentell	-11.7364
▁kanadensiska	-11.7369
▁story	-11.7371
▁utgångs	-11.7373
▁producenterna	-11.7373
▁board	-11.7374
isco	-11.7376
▁målar	-11.7378
▁molekyl	-11.7383
▁Steven	-11.7383
▁kliniker	-11.7384
handels	-11.7386
sättare	-11.7386
förändringarna	-11.7387
▁försäkringar	-11.7388
▁samverka	-11.7389
▁lins	-11.7392
enny	-11.7392
▁ambitioner	-11.7392
▁räckt	-11.7395
▁akter	-11.7397
▁Story	-11.7403
▁Rolig	-11.7406
▁berömm	-11.7408
▁ånger	-11.7408
▁obehag	-11.7412
▁betjäna	-11.7412
▁Elia	-11.7413
18	-11.7417
▁TT	-11.7417
▁kyrko	-11.7419
▁Tog	-11.7421
▁halvan	-11.7428
▁kraftiga	-11.7429
▁Sång	-11.7431
▁Ji	-11.7435
material	-11.7435
house	-11.7436
skillnad	-11.7436
olf	-11.7437
▁Vänd	-11.7439
▁firade	-11.744
▁licensiera	-11.744
dagliga	-11.744
▁gårdar	-11.7442
▁installationer	-11.7443
▁arkitekter	-11.7444
▁trailer	-11.7445
spelning	-11.7445
▁agenda	-11.7445
▁graf	-11.7446
PL	-11.745
▁valp	-11.7454
▁Get	-11.7454
?"	-11.7454
▁heders	-11.7455
▁burg	-11.7456
▁förvaltare	-11.7459
▁lagd	-11.7461
▁synligt	-11.7464
▁tvingat	-11.7465
▁Säker	-11.7476
▁reso	-11.7477
▁instinkt	-11.7478
▁definierad	-11.7479
▁binda	-11.7479
▁Explorer	-11.7479
▁McDonald	-11.7479
▁Original	-11.7479
▁Review	-11.7479
▁Taiwan	-11.7479
▁Välkomna	-11.7479
▁Yahoo	-11.7479
▁Yttrande	-11.7479
▁eftersträva	-11.7479
▁fråge	-11.7479
▁konvertering	-11.7479
▁livscykel	-11.7479
▁melodi	-11.7479
▁tålmodig	-11.7479
▁whisky	-11.7479
\	-11.7479
▁Estland	-11.7479
▁fjol	-11.7479
▁mekanik	-11.7479
▁riksdagen	-11.7479
▁April	-11.7479
▁Gabriel	-11.7479
▁sekreterare	-11.7479
▁sänker	-11.7479
▁Chelsea	-11.748
▁Federal	-11.748
▁Kategori	-11.748
▁Gemensam	-11.748
▁gästfrihet	-11.748
▁Jimmy	-11.748
▁Nätverk	-11.748
▁slutfört	-11.748
▁Effektiv	-11.748
▁knep	-11.748
rtual	-11.748
▁til	-11.7481
▁offret	-11.7481
▁oförmåga	-11.7481
▁klassrum	-11.7482
▁farfar	-11.7482
▁vaku	-11.7482
fonden	-11.7483
▁synsätt	-11.7484
▁Phil	-11.7485
▁Lenin	-11.7487
▁tobak	-11.7487
▁återställning	-11.7488
▁1920	-11.7488
▁investeringen	-11.7489
▁1600	-11.7489
▁VAR	-11.749
följd	-11.7491
konst	-11.7493
▁Hemma	-11.7493
▁Head	-11.7494
▁immunsystem	-11.7494
▁Kron	-11.7494
▁aktivering	-11.7494
▁RF	-11.7496
▁vax	-11.7497
▁filosofisk	-11.7499
▁dialogen	-11.7499
▁With	-11.75
▁Heliga	-11.7501
▁ifrågasätt	-11.7501
▁Puert	-11.7502
▁2.2	-11.7502
▁ME	-11.7502
▁Synd	-11.7506
▁Code	-11.7507
▁nyanser	-11.7508
▁20%	-11.7509
▁Rod	-11.7511
▁läskig	-11.7513
▁åtal	-11.7517
shop	-11.7518
bru	-11.752
▁testamentet	-11.7521
▁Fånga	-11.7521
▁93	-11.7522
▁giftiga	-11.7522
▁uppsats	-11.7525
▁shop	-11.7525
▁företräd	-11.753
▁gate	-11.753
▁luktar	-11.7536
korg	-11.7537
▁utdrag	-11.7537
▁40-	-11.7541
▁Fatta	-11.7543
▁höjder	-11.7543
▁meningar	-11.7544
▁Kände	-11.7546
▁civilisationen	-11.7552
▁bevisning	-11.7558
▁plötslig	-11.7561
▁spenderade	-11.7562
▁betraktar	-11.7563
▁Kai	-11.7564
▁tvillingar	-11.7565
cla	-11.7565
▁välsignelser	-11.7565
▁förteckningen	-11.7566
▁automatisera	-11.7568
▁Folket	-11.7569
▁omgivningen	-11.7569
▁strålar	-11.7571
▁observationer	-11.7572
▁semestern	-11.7576
▁kollapsa	-11.7576
PO	-11.7578
lägsen	-11.7581
kräm	-11.7581
▁associerad	-11.7582
▁ighet	-11.7586
▁fullo	-11.7586
▁nål	-11.7587
▁Kab	-11.7587
▁450	-11.7588
▁saga	-11.7589
▁Cop	-11.7591
släpp	-11.7592
▁Gun	-11.7592
▁Allen	-11.7597
▁Awards	-11.7598
▁Fat	-11.7599
▁imponera	-11.7604
▁översätt	-11.7605
frågor	-11.7605
work	-11.7606
fisk	-11.7609
▁inträffat	-11.761
sidor	-11.7618
▁kompletta	-11.7621
▁auktoriserad	-11.7623
stop	-11.7624
▁Sälj	-11.7624
▁evangeli	-11.7629
▁förorening	-11.7631
▁etiketter	-11.7631
▁näringsliv	-11.7632
▁Rådets	-11.7633
▁Rap	-11.7636
▁mejl	-11.7637
▁3/	-11.7638
FF	-11.7639
▁SO	-11.764
▁tobaks	-11.7641
tention	-11.7644
▁zoner	-11.7645
▁Radi	-11.7647
▁upplysning	-11.7647
▁mardröm	-11.7648
OW	-11.7649
▁julklapp	-11.7649
▁Administration	-11.7649
▁Anmäl	-11.7649
▁Tjeckien	-11.7649
▁frustration	-11.7649
▁holländsk	-11.7649
▁omställning	-11.7649
▁simulering	-11.7649
▁tidsåld	-11.7649
▁växling	-11.7649
▁Hämta	-11.7649
▁prospekt	-11.7649
▁återförena	-11.7649
▁distinkt	-11.7649
▁Berättelse	-11.7649
▁Räkna	-11.7649
▁Margaret	-11.7649
▁färja	-11.7649
▁blankett	-11.7649
[...]
