{
  "version": "1.0",
  "truncation": null,
  "padding": null,
  "added_tokens": [
    {
      "id": 0,
      "content": "[UNK]",
      "single_word": false,
      "lstrip": false,
      "rstrip": false,
      "normalized": false,
      "special": true
    },
    {
      "id": 1,
      "content": "[CLS]",
      "single_word": false,
      "lstrip": false,
      "rstrip": false,
      "normalized": false,
      "special": true
    },
    {
      "id": 2,
      "content": "[SEP]",
      "single_word": false,
      "lstrip": false,
      "rstrip": false,
      "normalized": false,
      "special": true
    },
    {
      "id": 3,
      "content": "[PAD]",
      "single_word": false,
      "lstrip": false,
      "rstrip": false,
      "normalized": false,
      "special": true
    },
    {
      "id": 4,
      "content": "[MASK]",
      "single_word": false,
      "lstrip": false,
      "rstrip": false,
      "normalized": false,
      "special": true
    }
  ],
  "normalizer": {
    "type": "Sequence",
    "normalizers": [
      {
        "type": "NFKC"
      },
      {
        "type": "Lowercase"
      }
    ]
  },
  "pre_tokenizer": {
    "type": "Whitespace"
  },
  "post_processor": null,
  "decoder": {
    "type": "WordPiece",
    "prefix": "##",
    "cleanup": true
  },
  "model": {
    "type": "WordPiece",
    "unk_token": "[UNK]",
    "continuing_subword_prefix": "##",
    "max_input_chars_per_word": 100,
    "vocab": {
      "[UNK]": 0,
      "[CLS]": 1,
      "[SEP]": 2,
      "[PAD]": 3,
      "[MASK]": 4,
      "!": 5,
      "\"": 6,
      "#": 7,
      "$": 8,
      "%": 9,
      "&": 10,
      "'": 11,
      "(": 12,
      ")": 13,
      "*": 14,
      "+": 15,
      ",": 16,
      "-": 17,
      ".": 18,
      "/": 19,
      "0": 20,
      "1": 21,
      "2": 22,
      "3": 23,
      "4": 24,
      "5": 25,
      "6": 26,
      "7": 27,
      "8": 28,
      "9": 29,
      ":": 30,
      ";": 31,
      "<": 32,
      "=": 33,
      ">": 34,
      "?": 35,
      "@": 36,
      "[": 37,
      "\\": 38,
      "]": 39,
      "^": 40,
      "_": 41,
      "`": 42,
      "a": 43,
      "b": 44,
      "c": 45,
      "d": 46,
      "e": 47,
      "f": 48,
      "g": 49,
      "h": 50,
      "i": 51,
      "j": 52,
      "k": 53,
      "l": 54,
      "m": 55,
      "n": 56,
      "o": 57,
      "p": 58,
      "q": 59,
      "r": 60,
      "s": 61,
      "t": 62,
      "u": 63,
      "v": 64,
      "w": 65,
      "x": 66,
      "y": 67,
      "z": 68,
      "{": 69,
      "|": 70,
      "}": 71,
      "~": 72,
      "": 73,
      "": 74,
      "": 75,
      "": 76,
      "": 77,
      "": 78,
      "": 79,
      "": 80,
      "": 81,
      "": 82,
      "": 83,
      "": 84,
      "¡": 85,
      "¢": 86,
      "£": 87,
      "¤": 88,
      "¥": 89,
      "§": 90,
      "©": 91,
      "«": 92,
      "¬": 93,
      "­": 94,
      "®": 95,
      "°": 96,
      "±": 97,
      "¶": 98,
      "·": 99,
      "»": 100,
      "¿": 101,
      "×": 102,
      "ß": 103,
      "à": 104,
      "á": 105,
      "â": 106,
      "ã": 107,
      "ä": 108,
      "å": 109,
      "æ": 110,
      "ç": 111,
      "è": 112,
      "é": 113,
      "ê": 114,
      "ë": 115,
      "ì": 116,
      "í": 117,
      "î": 118,
      "ï": 119,
      "ð": 120,
      "ñ": 121,
      "ò": 122,
      "ó": 123,
      "ô": 124,
      "õ": 125,
      "ö": 126,
      "÷": 127,
      "ø": 128,
      "ù": 129,
      "ú": 130,
      "û": 131,
      "ü": 132,
      "ý": 133,
      "þ": 134,
      "ÿ": 135,
      "ā": 136,
      "ă": 137,
      "ą": 138,
      "ć": 139,
      "č": 140,
      "đ": 141,
      "ē": 142,
      "ė": 143,
      "ę": 144,
      "ě": 145,
      "ğ": 146,
      "ħ": 147,
      "ī": 148,
      "ı": 149,
      "ķ": 150,
      "ĺ": 151,
      "ł": 152,
      "ń": 153,
      "ō": 154,
      "ő": 155,
      "œ": 156,
      "ś": 157,
      "ş": 158,
      "š": 159,
      "ţ": 160,
      "ū": 161,
      "ų": 162,
      "ż": 163,
      "ž": 164,
      "ƒ": 165,
      "ơ": 166,
      "ư": 167,
      "ǎ": 168,
      "ǒ": 169,
      "ǔ": 170,
      "ǧ": 171,
      "ș": 172,
      "ɑ": 173,
      "ɒ": 174,
      "ə": 175,
      "ɛ": 176,
      "ɡ": 177,
      "ɣ": 178,
      "ɸ": 179,
      "ʹ": 180,
      "ʼ": 181,
      "ˆ": 182,
      "ˈ": 183,
      "ˌ": 184,
      "ː": 185,
      "ˮ": 186,
      "́": 187,
      "̂": 188,
      "̃": 189,
      "̇": 190,
      "̈": 191,
      "̊": 192,
      "̶": 193,
      "ά": 194,
      "ή": 195,
      "ί": 196,
      "α": 197,
      "β": 198,
      "γ": 199,
      "δ": 200,
      "ε": 201,
      "η": 202,
      "θ": 203,
      "ι": 204,
      "κ": 205,
      "λ": 206,
      "μ": 207,
      "ν": 208,
      "ο": 209,
      "π": 210,
      "ρ": 211,
      "ς": 212,
      "σ": 213,
      "τ": 214,
      "φ": 215,
      "χ": 216,
      "ω": 217,
      "ό": 218,
      "ύ": 219,
      "а": 220,
      "б": 221,
      "в": 222,
      "г": 223,
      "д": 224,
      "е": 225,
      "и": 226,
      "й": 227,
      "к": 228,
      "л": 229,
      "м": 230,
      "н": 231,
      "о": 232,
      "п": 233,
      "р": 234,
      "с": 235,
      "т": 236,
      "ц": 237,
      "ы": 238,
      "э": 239,
      "я": 240,
      "ј": 241,
      "ґ": 242,
      "ӓ": 243,
      "ӧ": 244,
      "א": 245,
      "ד": 246,
      "צ": 247,
      "ا": 248,
      "ة": 249,
      "ت": 250,
      "ث": 251,
      "ج": 252,
      "ح": 253,
      "د": 254,
      "ر": 255,
      "س": 256,
      "ص": 257,
      "ع": 258,
      "ك": 259,
      "ل": 260,
      "م": 261,
      "ن": 262,
      "ه": 263,
      "و": 264,
      "ى": 265,
      "ي": 266,
      "ڤ": 267,
      "ނ": 268,
      "ތ": 269,
      "ަ": 270,
      "ާ": 271,
      "ก": 272,
      "ข": 273,
      "ต": 274,
      "ธ": 275,
      "น": 276,
      "ย": 277,
      "ร": 278,
      "ส": 279,
      "ะ": 280,
      "ั": 281,
      "ิ": 282,
      "ี": 283,
      "ุ": 284,
      "เ": 285,
      "ი": 286,
      "რ": 287,
      "უ": 288,
      "ც": 289,
      "ხ": 290,
      "ḥ": 291,
      "ḳ": 292,
      "ṅ": 293,
      "ṇ": 294,
      "ṛ": 295,
      "ṣ": 296,
      "ṭ": 297,
      "ạ": 298,
      "ả": 299,
      "ầ": 300,
      "ẹ": 301,
      "ễ": 302,
      "ệ": 303,
      "ỉ": 304,
      "ị": 305,
      "ọ": 306,
      "ờ": 307,
      "ủ": 308,
      "ἀ": 309,
      "ἐ": 310,
      "​": 311,
      "‌": 312,
      "‍": 313,
      "‎": 314,
      "‏": 315,
      "‐": 316,
      "‒": 317,
      "–": 318,
      "—": 319,
      "―": 320,
      "‘": 321,
      "’": 322,
      "‚": 323,
      "“": 324,
      "”": 325,
      "„": 326,
      "†": 327,
      "‡": 328,
      "•": 329,
      "‣": 330,
      "‬": 331,
      "‭": 332,
      "′": 333,
      "‹": 334,
      "›": 335,
      "※": 336,
      "⁃": 337,
      "⁄": 338,
      "₤": 339,
      "€": 340,
      "←": 341,
      "↑": 342,
      "→": 343,
      "↓": 344,
      "↩": 345,
      "↵": 346,
      "⇑": 347,
      "⇒": 348,
      "⇨": 349,
      "∈": 350,
      "∑": 351,
      "−": 352,
      "∙": 353,
      "√": 354,
      "∞": 355,
      "≈": 356,
      "≤": 357,
      "≥": 358,
      "⋅": 359,
      "▌": 360,
      "■": 361,
      "□": 362,
      "▪": 363,
      "▲": 364,
      "▶": 365,
      "▷": 366,
      "▸": 367,
      "►": 368,
      "▼": 369,
      "▽": 370,
      "▾": 371,
      "◄": 372,
      "◆": 373,
      "◊": 374,
      "○": 375,
      "●": 376,
      "◦": 377,
      "◾": 378,
      "★": 379,
      "☆": 380,
      "☐": 381,
      "☒": 382,
      "☕": 383,
      "☝": 384,
      "☟": 385,
      "☭": 386,
      "☺": 387,
      "♡": 388,
      "♣": 389,
      "♥": 390,
      "♦": 391,
      "♧": 392,
      "♪": 393,
      "♫": 394,
      "⚘": 395,
      "✅": 396,
      "✌": 397,
      "✎": 398,
      "✓": 399,
      "✔": 400,
      "✗": 401,
      "✰": 402,
      "❑": 403,
      "❓": 404,
      "❤": 405,
      "❥": 406,
      "➜": 407,
      "➥": 408,
      "⟵": 409,
      "⟶": 410,
      "⦁": 411,
      "⭐": 412,
      "オ": 413,
      "コ": 414,
      "ニ": 415,
      "ビ": 416,
      "リ": 417,
      "ン": 418,
      "・": 419,
      "万": 420,
      "世": 421,
      "中": 422,
      "主": 423,
      "五": 424,
      "人": 425,
      "会": 426,
      "光": 427,
      "公": 428,
      "共": 429,
      "军": 430,
      "华": 431,
      "协": 432,
      "協": 433,
      "台": 434,
      "司": 435,
      "命": 436,
      "和": 437,
      "团": 438,
      "国": 439,
      "國": 440,
      "大": 441,
      "山": 442,
      "岁": 443,
      "式": 444,
      "春": 445,
      "會": 446,
      "月": 447,
      "有": 448,
      "株": 449,
      "楚": 450,
      "民": 451,
      "江": 452,
      "海": 453,
      "湾": 454,
      "灣": 455,
      "狂": 456,
      "珞": 457,
      "球": 458,
      "界": 459,
      "社": 460,
      "秋": 461,
      "空": 462,
      "箇": 463,
      "級": 464,
      "级": 465,
      "结": 466,
      "联": 467,
      "聯": 468,
      "臺": 469,
      "航": 470,
      "言": 471,
      "賽": 472,
      "赛": 473,
      "超": 474,
      "足": 475,
      "軍": 476,
      "鈥": 477,
      "锦": 478,
      "镜": 479,
      "际": 480,
      "限": 481,
      "集": 482,
      "革": 483,
      "낍": 484,
      "눉": 485,
      "책": 486,
      "": 487,
      "": 488,
      "": 489,
      "": 490,
      "": 491,
      "": 492,
      "": 493,
      "": 494,
      "": 495,
      "": 496,
      "": 497,
      "": 498,
      "": 499,
      "": 500,
      "": 501,
      "": 502,
      "": 503,
      "": 504,
      "": 505,
      "": 506,
      "": 507,
      "": 508,
      "": 509,
      "": 510,
      "": 511,
      "": 512,
      "": 513,
      "": 514,
      "": 515,
      "": 516,
      "": 517,
      "": 518,
      "": 519,
      "": 520,
      "": 521,
      "": 522,
      "": 523,
      "": 524,
      "": 525,
      "": 526,
      "︎": 527,
      "️": 528,
      "﻿": 529,
      "￼": 530,
      "�": 531,
      "🇨": 532,
      "🌞": 533,
      "🌷": 534,
      "🌸": 535,
      "🍀": 536,
      "🍦": 537,
      "🍰": 538,
      "🍳": 539,
      "🍴": 540,
      "🎁": 541,
      "🎈": 542,
      "🎉": 543,
      "🎨": 544,
      "🎶": 545,
      "🎼": 546,
      "🏆": 547,
      "🏻": 548,
      "🏼": 549,
      "🏽": 550,
      "🐞": 551,
      "🐲": 552,
      "🐴": 553,
      "🐾": 554,
      "👁": 555,
      "👇": 556,
      "👌": 557,
      "👍": 558,
      "👏": 559,
      "💔": 560,
      "💕": 561,
      "💖": 562,
      "💙": 563,
      "💚": 564,
      "💜": 565,
      "💤": 566,
      "💥": 567,
      "💪": 568,
      "💰": 569,
      "📌": 570,
      "📚": 571,
      "📷": 572,
      "🔸": 573,
      "🖤": 574,
      "🗞": 575,
      "😀": 576,
      "😁": 577,
      "😂": 578,
      "😃": 579,
      "😄": 580,
      "😅": 581,
      "😆": 582,
      "😇": 583,
      "😉": 584,
      "😊": 585,
      "😋": 586,
      "😍": 587,
      "😎": 588,
      "😔": 589,
      "😕": 590,
      "😖": 591,
      "😘": 592,
      "😛": 593,
      "😜": 594,
      "😝": 595,
      "😞": 596,
      "😠": 597,
      "😢": 598,
      "😦": 599,
      "😫": 600,
      "😬": 601,
      "😭": 602,
      "😳": 603,
      "😶": 604,
      "🙁": 605,
      "🙂": 606,
      "🙆": 607,
      "🙈": 608,
      "🙉": 609,
      "🙌": 610,
      "🙏": 611,
      "🤔": 612,
      "🤗": 613,
      "🤙": 614,
      "🤛": 615,
      "🤣": 616,
      "🤩": 617,
      "🤯": 618,
      "🥂": 619,
      "🥇": 620,
      "🦋": 621,
      "🦌": 622,
      "🧡": 623,
      "🧩": 624,
      "##e": 625,
      "##b": 626,
      "##j": 627,
      "##t": 628,
      "##z": 629,
      "##p": 630,
      "##a": 631,
      "##o": 632,
      "##h": 633,
      "##g": 634,
      "##i": 635,
      "##d": 636,
      "##u": 637,
      "##r": 638,
      "##ö": 639,
      "##y": 640,
      "##ų": 641,
      "##l": 642,
      "##ä": 643,
      "##v": 644,
      "##n": 645,
      "##5": 646,
      "##c": 647,
      "##s": 648,
      "##f": 649,
      "##q": 650,
      "##k": 651,
      "##m": 652,
      "##w": 653,
      "##6": 654,
      "##x": 655,
      "##å": 656,
      "##é": 657,
      "##0": 658,
      "##ø": 659,
      "##ş": 660,
      "##4": 661,
      "##ï": 662,
      "##ñ": 663,
      "##è": 664,
      "##ü": 665,
      "##ç": 666,
      "##í": 667,
      "##ù": 668,
      "##>": 669,
      "##=": 670,
      "##γ": 671,
      "##ή": 672,
      "##ν": 673,
      "##ó": 674,
      "##1": 675,
      "##9": 676,
      "##国": 677,
      "##万": 678,
      "##岁": 679,
      "##3": 680,
      "##7": 681,
      "##超": 682,
      "##级": 683,
      "##联": 684,
      "##赛": 685,
      "##â": 686,
      "##$": 687,
      "##ι": 688,
      "##ό": 689,
      "##ς": 690,
      "##ð": 691,
      "##ę": 692,
      "##2": 693,
      "##,": 694,
      "##\"": 695,
      "##ô": 696,
      "##г": 697,
      "##ž": 698,
      "##8": 699,
      "##ć": 700,
      "##à": 701,
      "##!": 702,
      "##<": 703,
      "##م": 704,
      "##ا": 705,
      "##ع": 706,
      "##ي": 707,
      "##.": 708,
      "##​": 709,
      "##”": 710,
      "##;": 711,
      "##*": 712,
      "##ı": 713,
      "##🌞": 714,
      "##ḥ": 715,
      "##á": 716,
      "##ý": 717,
      "##ā": 718,
      "##🦌": 719,
      "##-": 720,
      "##🏻": 721,
      "##]": 722,
      "##ú": 723,
      "##û": 724,
      "###": 725,
      "##:": 726,
      "##ĺ": 727,
      "##î": 728,
      "##ă": 729,
      "##^": 730,
      "##♥": 731,
      "##ń": 732,
      "##)": 733,
      "##?": 734,
      "##_": 735,
      "##'": 736,
      "##й": 737,
      "##😂": 738,
      "##›": 739,
      "##(": 740,
      "##ì": 741,
      "##¿": 742,
      "##{": 743,
      "##团": 744,
      "##}": 745,
      "##%": 746,
      "##š": 747,
      "##č": 748,
      "##—": 749,
      "##限": 750,
      "##公": 751,
      "##司": 752,
      "##ł": 753,
      "##ë": 754,
      "##σ": 755,
      "##ε": 756,
      "##δ": 757,
      "##海": 758,
      "##ã": 759,
      "##»": 760,
      "##–": 761,
      "##ō": 762,
      "##🏼": 763,
      "##æ": 764,
      "##œ": 765,
      "##": 766,
      "##ê": 767,
      "##ầ": 768,
      "##❤": 769,
      "##": 770,
      "##ʹ": 771,
      "##": 772,
      "##ÿ": 773,
      "##ί": 774,
      "##λ": 775,
      "##ω": 776,
      "##õ": 777,
      "##ò": 778,
      "##ن": 779,
      "##ه": 780,
      "##′": 781,
      "##人": 782,
      "##民": 783,
      "##大": 784,
      "##€": 785,
      "##ґ": 786,
      "##а": 787,
      "##с": 788,
      "##н": 789,
      "##ы": 790,
      "##👍": 791,
      "##§": 792,
      "##ј": 793,
      "##/": 794,
      "##و": 795,
      "##ر": 796,
      "##ة": 797,
      "##ī": 798,
      "##+": 799,
      "##~": 800,
      "##🤛": 801,
      "##ē": 802,
      "##•": 803,
      "##ạ": 804,
      "##言": 805,
      "##华": 806,
      "##共": 807,
      "##’": 808,
      "##&": 809,
      "##🏆": 810,
      "##😅": 811,
      "##ß": 812,
      "##�": 813,
      "##ğ": 814,
      "##ӓ": 815,
      "##ل": 816,
      "##📚": 817,
      "##ả": 818,
      "##‹": 819,
      "##ẹ": 820,
      "##ร": 821,
      "##ต": 822,
      "##≥": 823,
      "##🤣": 824,
      "##س": 825,
      "##ج": 826,
      "##د": 827,
      "##ص": 828,
      "##เ": 829,
      "##ก": 830,
      "##©": 831,
      "##💚": 832,
      "##命": 833,
      "##軍": 834,
      "##ờ": 835,
      "##ǔ": 836,
      "##湾": 837,
      "##主": 838,
      "##‎": 839,
      "##р": 840,
      "##о": 841,
      "##в": 842,
      "##ṅ": 843,
      "##國": 844,
      "##足": 845,
      "##球": 846,
      "##協": 847,
      "##﻿": 848,
      "##😍": 849,
      "##þ": 850,
      "##α": 851,
      "##ც": 852,
      "##უ": 853,
      "##რ": 854,
      "##ი": 855,
      "##ц": 856,
      "##đ": 857,
      "##协": 858,
      "##†": 859,
      "##ū": 860,
      "##ệ": 861,
      "##ơ": 862,
      "##θ": 863,
      "##ə": 864,
      "##🌸": 865,
      "##ţ": 866,
      "##¤": 867,
      "##山": 868,
      "##|": 869,
      "##“": 870,
      "##ủ": 871,
      "##к": 872,
      "##е": 873,
      "##💤": 874,
      "##ķ": 875,
      "##ɣ": 876,
      "##式": 877,
      "##会": 878,
      "##光": 879,
      "##ك": 880,
      "##ت": 881,
      "##革": 882,
      "##军": 883,
      "##ح": 884,
      "##ą": 885,
      "##д": 886,
      "##э": 887,
      "##→": 888,
      "##オ": 889,
      "##リ": 890,
      "##コ": 891,
      "##ン": 892,
      "##«": 893,
      "##κ": 894,
      "##ő": 895,
      "##п": 896,
      "##χ": 897,
      "##ธ": 898,
      "##น": 899,
      "##ะ": 900,
      "##": 901,
      "##🍀": 902,
      "##际": 903,
      "##級": 904,
      "##聯": 905,
      "##賽": 906,
      "##ى": 907,
      "##■": 908,
      "##🏽": 909,
      "##🌷": 910,
      "##秋": 911,
      "##航": 912,
      "##空": 913,
      "##ɑ": 914,
      "##φ": 915,
      "##ά": 916,
      "##←": 917,
      "##🍰": 918,
      "##🥂": 919,
      "##": 920,
      "##ḳ": 921,
      "##책": 922,
      "##": 923,
      "##≈": 924,
      "##\\": 925,
      "##ṣ": 926,
      "##ṇ": 927,
      "##м": 928,
      "##и": 929,
      "##ο": 930,
      "##😕": 931,
      "##ビ": 932,
      "##ニ": 933,
      "##¢": 934,
      "##⭐": 935,
      "##°": 936,
      "##®": 937,
      "##ṭ": 938,
      "##η": 939,
      "##◾": 940,
      "##ǒ": 941,
      "##ρ": 942,
      "##": 943,
      "##😝": 944,
      "##👌": 945,
      "##̇": 946,
      "##🙌": 947,
      "##►": 948,
      "##£": 949,
      "##ˆ": 950,
      "##¬": 951,
      "##er": 952,
      "##tt": 953,
      "de": 954,
      "##ll": 955,
      "en": 956,
      "##ar": 957,
      "##an": 958,
      "er": 959,
      "##ör": 960,
      "##en": 961,
      "in": 962,
      "oc": 963,
      "##in": 964,
      "för": 965,
      "och": 966,
      "##om": 967,
      "att": 968,
      "##st": 969,
      "ti": 970,
      "är": 971,
      "##et": 972,
      "##ig": 973,
      "##ed": 974,
      "##ra": 975,
      "av": 976,
      "##ag": 977,
      "##on": 978,
      "##nd": 979,
      "vi": 980,
      "som": 981,
      "det": 982,
      "##ka": 983,
      "##är": 984,
      "st": 985,
      "till": 986,
      "om": 987,
      "ar": 988,
      "##or": 989,
      "##ti": 990,
      "på": 991,
      "##te": 992,
      "##na": 993,
      "med": 994,
      "##de": 995,
      "##ing": 996,
      "et": 997,
      "den": 998,
      "var": 999,
      "na": 1000,
      "##pp": 1001,
      "an": 1002,
      "du": 1003,
      "##ån": 1004,
      "##ro": 1005,
      "re": 1006,
      "##ss": 1007,
      "ut": 1008,
      "##kt": 1009,
      "##ck": 1010,
      "jag": 1011,
      "##at": 1012,
      "##al": 1013,
      "har": 1014,
      "inte": 1015,
      "ing": 1016,
      "##el": 1017,
      "be": 1018,
      "sk": 1019,
      "##sk": 1020,
      "ett": 1021,
      "vä": 1022,
      "or": 1023,
      "##am": 1024,
      "##ter": 1025,
      "li": 1026,
      "kan": 1027,
      "ell": 1028,
      "##re": 1029,
      "ning": 1030,
      "##li": 1031,
      "##and": 1032,
      "fr": 1033,
      "lä": 1034,
      "era": 1035,
      "ska": 1036,
      "##lla": 1037,
      "##åg": 1038,
      "nd": 1039,
      "ri": 1040,
      "##år": 1041,
      "upp": 1042,
      "and": 1043,
      "##tta": 1044,
      "ig": 1045,
      "##il": 1046,
      "##ver": 1047,
      "##ri": 1048,
      "##ta": 1049,
      "##än": 1050,
      "el": 1051,
      "##em": 1052,
      "##ur": 1053,
      "eller": 1054,
      "##ad": 1055,
      "pro": 1056,
      "men": 1057,
      "så": 1058,
      "sä": 1059,
      "##ot": 1060,
      "##era": 1061,
      "##sta": 1062,
      "##la": 1063,
      "tr": 1064,
      "sam": 1065,
      "##ång": 1066,
      "##ma": 1067,
      "från": 1068,
      "han": 1069,
      "ku": 1070,
      "sp": 1071,
      "##ni": 1072,
      "##ld": 1073,
      "##mer": 1074,
      "##lig": 1075,
      "rä": 1076,
      "lig": 1077,
      "när": 1078,
      "ha": 1079,
      "min": 1080,
      "und": 1081,
      "se": 1082,
      "##äl": 1083,
      "##da": 1084,
      "över": 1085,
      "le": 1086,
      "ef": 1087,
      "än": 1088,
      "ver": 1089,
      "di": 1090,
      "##vä": 1091,
      "ommer": 1092,
      "si": 1093,
      "någ": 1094,
      "##se": 1095,
      "ng": 1096,
      "nde": 1097,
      "gör": 1098,
      "##ol": 1099,
      "man": 1100,
      "te": 1101,
      "ta": 1102,
      "ion": 1103,
      "##us": 1104,
      "kom": 1105,
      "bar": 1106,
      "##het": 1107,
      "##sa": 1108,
      "gen": 1109,
      "vara": 1110,
      "##ort": 1111,
      "##ve": 1112,
      "##inn": 1113,
      "tid": 1114,
      "het": 1115,
      "ll": 1116,
      "kon": 1117,
      "all": 1118,
      "under": 1119,
      "ör": 1120,
      "alla": 1121,
      "##ut": 1122,
      "ati": 1123,
      "##ne": 1124,
      "am": 1125,
      "##ks": 1126,
      "al": 1127,
      "ty": 1128,
      "##are": 1129,
      "din": 1130,
      "ny": 1131,
      "ni": 1132,
      "år": 1133,
      "fa": 1134,
      "##ud": 1135,
      "bl": 1136,
      "##ft": 1137,
      "ne": 1138,
      "sig": 1139,
      "fö": 1140,
      "sin": 1141,
      "##kti": 1142,
      "are": 1143,
      "##ru": 1144,
      "detta": 1145,
      "##od": 1146,
      "##it": 1147,
      "##ssa": 1148,
      "##ska": 1149,
      "efter": 1150,
      "ko": 1151,
      "lo": 1152,
      "må": 1153,
      "##lj": 1154,
      "ra": 1155,
      "här": 1156,
      "vad": 1157,
      "sl": 1158,
      "där": 1159,
      "hå": 1160,
      "##pa": 1161,
      "mi": 1162,
      "sa": 1163,
      "##ste": 1164,
      "##ram": 1165,
      "hur": 1166,
      "dig": 1167,
      "##ng": 1168,
      "##vi": 1169,
      "hel": 1170,
      "ande": 1171,
      "my": 1172,
      "##bb": 1173,
      "kl": 1174,
      "it": 1175,
      "ex": 1176,
      "hon": 1177,
      "gi": 1178,
      "##lle": 1179,
      "nu": 1180,
      "anvä": 1181,
      "##ker": 1182,
      "del": 1183,
      "##va": 1184,
      "##ent": 1185,
      "ation": 1186,
      "genom": 1187,
      "dag": 1188,
      "mer": 1189,
      "finn": 1190,
      "hand": 1191,
      "##gi": 1192,
      "finns": 1193,
      "id": 1194,
      "gång": 1195,
      "##so": 1196,
      "##gg": 1197,
      "##kså": 1198,
      "nä": 1199,
      "också": 1200,
      "ro": 1201,
      "håll": 1202,
      "andra": 1203,
      "##ju": 1204,
      "bli": 1205,
      "ner": 1206,
      "##bet": 1207,
      "erna": 1208,
      "at": 1209,
      "ka": 1210,
      "##ven": 1211,
      "män": 1212,
      "per": 1213,
      "ering": 1214,
      "##äll": 1215,
      "##fö": 1216,
      "##si": 1217,
      "mö": 1218,
      "vill": 1219,
      "fi": 1220,
      "mig": 1221,
      "ma": 1222,
      "verk": 1223,
      "fl": 1224,
      "as": 1225,
      "liv": 1226,
      "dem": 1227,
      "lö": 1228,
      "ju": 1229,
      "hö": 1230,
      "denna": 1231,
      "##ats": 1232,
      "hj": 1233,
      "få": 1234,
      "##tio": 1235,
      "ho": 1236,
      "bara": 1237,
      "vär": 1238,
      "is": 1239,
      "myck": 1240,
      "po": 1241,
      "##vå": 1242,
      "of": 1243,
      "rätt": 1244,
      "##un": 1245,
      "##ans": 1246,
      "mot": 1247,
      "kr": 1248,
      "va": 1249,
      "##ord": 1250,
      "la": 1251,
      "vid": 1252,
      "eg": 1253,
      "tt": 1254,
      "vår": 1255,
      "rsta": 1256,
      "ge": 1257,
      "em": 1258,
      "mo": 1259,
      "göra": 1260,
      "##ök": 1261,
      "##ilj": 1262,
      "ns": 1263,
      "nt": 1264,
      "##cka": 1265,
      "även": 1266,
      "vil": 1267,
      "änd": 1268,
      "ba": 1269,
      "##ch": 1270,
      "##öv": 1271,
      "pl": 1272,
      "sätt": 1273,
      "rbet": 1274,
      "bo": 1275,
      "mar": 1276,
      "hä": 1277,
      "##öd": 1278,
      "hi": 1279,
      "tro": 1280,
      "gru": 1281,
      "mång": 1282,
      "land": 1283,
      "ur": 1284,
      "bör": 1285,
      "jäl": 1286,
      "samma": 1287,
      "beh": 1288,
      "någon": 1289,
      "nda": 1290,
      "lu": 1291,
      "ly": 1292,
      "ch": 1293,
      "sy": 1294,
      "##le": 1295,
      "vet": 1296,
      "red": 1297,
      "fram": 1298,
      "tj": 1299,
      "lag": 1300,
      "##je": 1301,
      "många": 1302,
      "kulle": 1303,
      "oss": 1304,
      "##ke": 1305,
      "##var": 1306,
      "då": 1307,
      "dessa": 1308,
      "tal": 1309,
      "##fe": 1310,
      "säg": 1311,
      "bra": 1312,
      "ätt": 1313,
      "do": 1314,
      "mm": 1315,
      "ighet": 1316,
      "handl": 1317,
      "to": 1318,
      "##nan": 1319,
      "allt": 1320,
      "oli": 1321,
      "ord": 1322,
      "##um": 1323,
      "by": 1324,
      "else": 1325,
      "ga": 1326,
      "nder": 1327,
      "nst": 1328,
      "##åd": 1329,
      "männi": 1330,
      "res": 1331,
      "##ja": 1332,
      "on": 1333,
      "spel": 1334,
      "ed": 1335,
      "led": 1336,
      "inf": 1337,
      "tä": 1338,
      "rld": 1339,
      "gt": 1340,
      "får": 1341,
      "trä": 1342,
      "ag": 1343,
      "##ell": 1344,
      "par": 1345,
      "måste": 1346,
      "for": 1347,
      "nn": 1348,
      "##riv": 1349,
      "pa": 1350,
      "vå": 1351,
      "ber": 1352,
      "##nad": 1353,
      "ul": 1354,
      "nad": 1355,
      "gra": 1356,
      "hade": 1357,
      "th": 1358,
      "etag": 1359,
      "orm": 1360,
      "es": 1361,
      "vis": 1362,
      "tre": 1363,
      "något": 1364,
      "samt": 1365,
      "ingar": 1366,
      "hjäl": 1367,
      "ol": 1368,
      "två": 1369,
      "behöv": 1370,
      "hjälp": 1371,
      "##ser": 1372,
      "jälv": 1373,
      "val": 1374,
      "eu": 1375,
      "gå": 1376,
      "bil": 1377,
      "ment": 1378,
      "##vec": 1379,
      "kund": 1380,
      "hu": 1381,
      "ser": 1382,
      "perso": 1383,
      "##äng": 1384,
      "fu": 1385,
      "ts": 1386,
      "vilk": 1387,
      "kra": 1388,
      "mark": 1389,
      "bi": 1390,
      "eri": 1391,
      "åt": 1392,
      "följ": 1393,
      "##yd": 1394,
      "lå": 1395,
      "sm": 1396,
      "barn": 1397,
      "nlig": 1398,
      "sed": 1399,
      "utvec": 1400,
      "##ce": 1401,
      "rt": 1402,
      "dat": 1403,
      "ter": 1404,
      "##ning": 1405,
      "inom": 1406,
      "nya": 1407,
      "##tte": 1408,
      "hög": 1409,
      "sedan": 1410,
      "möj": 1411,
      "spe": 1412,
      "des": 1413,
      "hem": 1414,
      "jo": 1415,
      "sina": 1416,
      "skor": 1417,
      "tjä": 1418,
      "tra": 1419,
      "##igt": 1420,
      "dukt": 1421,
      "##tur": 1422,
      "varje": 1423,
      "stä": 1424,
      "dom": 1425,
      "ek": 1426,
      "går": 1427,
      "mat": 1428,
      "##ul": 1429,
      "utan": 1430,
      "str": 1431,
      "ade": 1432,
      "ellan": 1433,
      "##ff": 1434,
      "##ci": 1435,
      "##stä": 1436,
      "kri": 1437,
      "väg": 1438,
      "stå": 1439,
      "bä": 1440,
      "##dan": 1441,
      "##tiv": 1442,
      "grund": 1443,
      "dera": 1444,
      "yst": 1445,
      "rlden": 1446,
      "gr": 1447,
      "ad": 1448,
      "gl": 1449,
      "åter": 1450,
      "ystem": 1451,
      "möjl": 1452,
      "milj": 1453,
      "ingen": 1454,
      "stor": 1455,
      "kö": 1456,
      "ans": 1457,
      "met": 1458,
      "komm": 1459,
      "no": 1460,
      "ende": 1461,
      "gg": 1462,
      "ry": 1463,
      "gud": 1464,
      "me": 1465,
      "gj": 1466,
      "ligen": 1467,
      "akt": 1468,
      "##tik": 1469,
      "tag": 1470,
      "natio": 1471,
      "börja": 1472,
      "der": 1473,
      "##art": 1474,
      "ditt": 1475,
      "reg": 1476,
      "pre": 1477,
      "##unkt": 1478,
      "rö": 1479,
      "dess": 1480,
      "kä": 1481,
      "sto": 1482,
      "våra": 1483,
      "tän": 1484,
      "igt": 1485,
      "gram": 1486,
      "före": 1487,
      "olika": 1488,
      "vän": 1489,
      "van": 1490,
      "lös": 1491,
      "tar": 1492,
      "br": 1493,
      "ers": 1494,
      "##ts": 1495,
      "vikti": 1496,
      "hela": 1497,
      "uni": 1498,
      "dra": 1499,
      "ve": 1500,
      "väl": 1501,
      "cent": 1502,
      "##åga": 1503,
      "säger": 1504,
      "dina": 1505,
      "sju": 1506,
      "gift": 1507,
      "ung": 1508,
      "ran": 1509,
      "några": 1510,
      "fy": 1511,
      "blir": 1512,
      "deras": 1513,
      "##ie": 1514,
      "bet": 1515,
      "##der": 1516,
      "nna": 1517,
      "akti": 1518,
      "fall": 1519,
      "hans": 1520,
      "co": 1521,
      "kla": 1522,
      "we": 1523,
      "tet": 1524,
      "inne": 1525,
      "##ko": 1526,
      "##ens": 1527,
      "##ssi": 1528,
      "ger": 1529,
      "bå": 1530,
      "ent": 1531,
      "##mn": 1532,
      "skriv": 1533,
      "mål": 1534,
      "skapa": 1535,
      "änn": 1536,
      "org": 1537,
      "um": 1538,
      "kun": 1539,
      "llti": 1540,
      "skall": 1541,
      "im": 1542,
      "mär": 1543,
      "je": 1544,
      "lång": 1545,
      "erade": 1546,
      "ställ": 1547,
      "hus": 1548,
      "##emp": 1549,
      "kv": 1550,
      "lltid": 1551,
      "hör": 1552,
      "svar": 1553,
      "bland": 1554,
      "##..": 1555,
      "honom": 1556,
      "ab": 1557,
      "varfö": 1558,
      "tan": 1559,
      "eng": 1560,
      "äl": 1561,
      "kt": 1562,
      "fri": 1563,
      "kunna": 1564,
      "ss": 1565,
      "erar": 1566,
      "##sök": 1567,
      "dr": 1568,
      "iv": 1569,
      "kän": 1570,
      "sö": 1571,
      "##öm": 1572,
      "il": 1573,
      "hen": 1574,
      "egen": 1575,
      "tiv": 1576,
      "sti": 1577,
      "sitt": 1578,
      "ru": 1579,
      "ste": 1580,
      "##ali": 1581,
      "jä": 1582,
      "##dr": 1583,
      "fort": 1584,
      "##00": 1585,
      "##olk": 1586,
      "art": 1587,
      "lats": 1588,
      "nster": 1589,
      "ioner": 1590,
      "säker": 1591,
      "pp": 1592,
      "lever": 1593,
      "ens": 1594,
      "komp": 1595,
      "pri": 1596,
      "##bil": 1597,
      "nal": 1598,
      "nästa": 1599,
      "##vis": 1600,
      "the": 1601,
      "ce": 1602,
      "bor": 1603,
      "plats": 1604,
      "hitta": 1605,
      "##fi": 1606,
      "nk": 1607,
      "##ske": 1608,
      "skap": 1609,
      "visa": 1610,
      "inter": 1611,
      "tu": 1612,
      "rel": 1613,
      "##lja": 1614,
      "erb": 1615,
      "tek": 1616,
      "helt": 1617,
      "nligt": 1618,
      "henne": 1619,
      "est": 1620,
      "##ara": 1621,
      "kti": 1622,
      "råg": 1623,
      "##ov": 1624,
      "vin": 1625,
      "##stå": 1626,
      "föra": 1627,
      "##ärs": 1628,
      "bygg": 1629,
      "su": 1630,
      "slu": 1631,
      "try": 1632,
      "da": 1633,
      "blem": 1634,
      "mitt": 1635,
      "tlig": 1636,
      "varit": 1637,
      "ki": 1638,
      "väx": 1639,
      "ald": 1640,
      "us": 1641,
      "ind": 1642,
      "fråga": 1643,
      "lin": 1644,
      "verka": 1645,
      "gre": 1646,
      "##yr": 1647,
      "ld": 1648,
      "fil": 1649,
      "sv": 1650,
      "form": 1651,
      "mp": 1652,
      "ättre": 1653,
      "##tter": 1654,
      "stat": 1655,
      "lit": 1656,
      "...": 1657,
      "itet": 1658,
      "##råd": 1659,
      "rn": 1660,
      "äg": 1661,
      "enhet": 1662,
      "mest": 1663,
      "sjuk": 1664,
      "gäll": 1665,
      "nen": 1666,
      "bu": 1667,
      "bästa": 1668,
      "plan": 1669,
      "nings": 1670,
      "annan": 1671,
      "nella": 1672,
      "##ärd": 1673,
      "ram": 1674,
      "komma": 1675,
      "ja": 1676,
      "områd": 1677,
      "utom": 1678,
      "kro": 1679,
      "fly": 1680,
      "krä": 1681,
      "äm": 1682,
      "rd": 1683,
      "tiden": 1684,
      "mus": 1685,
      "anske": 1686,
      "örstå": 1687,
      "medel": 1688,
      "pi": 1689,
      "erbju": 1690,
      "un": 1691,
      "ist": 1692,
      "euro": 1693,
      "organ": 1694,
      "##cke": 1695,
      "bok": 1696,
      "nl": 1697,
      "dela": 1698,
      "rätta": 1699,
      "hos": 1700,
      "webb": 1701,
      "nnat": 1702,
      "ca": 1703,
      "orsk": 1704,
      "mä": 1705,
      "stånd": 1706,
      "kort": 1707,
      "sök": 1708,
      "ck": 1709,
      "rbets": 1710,
      "lite": 1711,
      "##end": 1712,
      "ant": 1713,
      "sluta": 1714,
      "kap": 1715,
      "##man": 1716,
      "därfö": 1717,
      "rbeta": 1718,
      "tekni": 1719,
      "##mm": 1720,
      "idag": 1721,
      "##ge": 1722,
      "troll": 1723,
      "slut": 1724,
      "arand": 1725,
      "app": 1726,
      "##lu": 1727,
      "bort": 1728,
      "nvä": 1729,
      "go": 1730,
      "stora": 1731,
      "nvänd": 1732,
      "arna": 1733,
      "tör": 1734,
      "typ": 1735,
      "aldri": 1736,
      "kling": 1737,
      "tänk": 1738,
      "ild": 1739,
      "##skap": 1740,
      "inn": 1741,
      "ble": 1742,
      "exemp": 1743,
      "##vud": 1744,
      "läm": 1745,
      "kraft": 1746,
      "tv": 1747,
      "lägg": 1748,
      "rum": 1749,
      "läs": 1750,
      "vissa": 1751,
      "vanli": 1752,
      "stöd": 1753,
      "ändr": 1754,
      "amilj": 1755,
      "häl": 1756,
      "vinn": 1757,
      "##gr": 1758,
      "##to": 1759,
      "grupp": 1760,
      "op": 1761,
      "int": 1762,
      "flera": 1763,
      "låt": 1764,
      "jobb": 1765,
      "saker": 1766,
      "artik": 1767,
      "baka": 1768,
      "omm": 1769,
      "sta": 1770,
      "god": 1771,
      "tryck": 1772,
      "blev": 1773,
      "##kna": 1774,
      "innan": 1775,
      "ast": 1776,
      "sättn": 1777,
      "##ärt": 1778,
      "lj": 1779,
      "##tal": 1780,
      "ara": 1781,
      "##rå": 1782,
      "risk": 1783,
      "ill": 1784,
      "ön": 1785,
      "##sto": 1786,
      "kil": 1787,
      "ap": 1788,
      "huvud": 1789,
      "##ok": 1790,
      "erad": 1791,
      "ac": 1792,
      "älska": 1793,
      "bro": 1794,
      "folk": 1795,
      "ster": 1796,
      "ali": 1797,
      "ull": 1798,
      "natur": 1799,
      "tror": 1800,
      "lämna": 1801,
      "##ik": 1802,
      "ci": 1803,
      "amhet": 1804,
      "san": 1805,
      "gjord": 1806,
      "råd": 1807,
      "tala": 1808,
      "läng": 1809,
      "##sio": 1810,
      "histo": 1811,
      "aren": 1812,
      "nytt": 1813,
      "fatta": 1814,
      "igen": 1815,
      "stö": 1816,
      "ned": 1817,
      "kropp": 1818,
      "ligg": 1819,
      "delar": 1820,
      "##ine": 1821,
      "sh": 1822,
      "##ono": 1823,
      "miljö": 1824,
      "oci": 1825,
      "miss": 1826,
      "liga": 1827,
      "avs": 1828,
      "värde": 1829,
      "ub": 1830,
      "verks": 1831,
      "slag": 1832,
      "ndast": 1833,
      "anta": 1834,
      "opp": 1835,
      "igare": 1836,
      "månad": 1837,
      "ekono": 1838,
      "vänta": 1839,
      "ier": 1840,
      "ink": 1841,
      "jekt": 1842,
      "fick": 1843,
      "engar": 1844,
      "öka": 1845,
      "##ef": 1846,
      "erson": 1847,
      "känd": 1848,
      "hålla": 1849,
      "ate": 1850,
      "etyd": 1851,
      "tter": 1852,
      "##ärn": 1853,
      "ard": 1854,
      "ff": 1855,
      "punkt": 1856,
      "vinno": 1857,
      "förb": 1858,
      "uro": 1859,
      "nivå": 1860,
      "dagar": 1861,
      "stru": 1862,
      "tta": 1863,
      "värd": 1864,
      "ic": 1865,
      "usa": 1866,
      "enter": 1867,
      "data": 1868,
      "lika": 1869,
      "vatte": 1870,
      "##fek": 1871,
      "mu": 1872,
      "särs": 1873,
      "nell": 1874,
      "kunde": 1875,
      "##di": 1876,
      "ofta": 1877,
      "ky": 1878,
      "##og": 1879,
      "styr": 1880,
      "ej": 1881,
      "bestä": 1882,
      "tack": 1883,
      "vilka": 1884,
      "kar": 1885,
      "ngre": 1886,
      "rbete": 1887,
      "##go": 1888,
      "bol": 1889,
      "effek": 1890,
      "kor": 1891,
      "funkt": 1892,
      "son": 1893,
      "både": 1894,
      "tur": 1895,
      "ella": 1896,
      "##ang": 1897,
      "rod": 1898,
      "star": 1899,
      "regi": 1900,
      "lle": 1901,
      "tio": 1902,
      "etal": 1903,
      "aktiv": 1904,
      "förs": 1905,
      "ocial": 1906,
      "gjort": 1907,
      "svara": 1908,
      "dö": 1909,
      "spela": 1910,
      "ie": 1911,
      "ue": 1912,
      "ven": 1913,
      "lem": 1914,
      "säga": 1915,
      "stad": 1916,
      "tor": 1917,
      "##ande": 1918,
      "tat": 1919,
      "ändra": 1920,
      "slä": 1921,
      "lev": 1922,
      "centr": 1923,
      "ark": 1924,
      "ntal": 1925,
      "gam": 1926,
      "ob": 1927,
      "leva": 1928,
      "äld": 1929,
      "mina": 1930,
      "ak": 1931,
      "bak": 1932,
      "ust": 1933,
      "redan": 1934,
      "eh": 1935,
      "orts": 1936,
      "sen": 1937,
      "ldigt": 1938,
      "ådan": 1939,
      "rs": 1940,
      "isat": 1941,
      "besök": 1942,
      "ond": 1943,
      "##me": 1944,
      "cy": 1945,
      "heten": 1946,
      "bru": 1947,
      "spec": 1948,
      "ari": 1949,
      "jord": 1950,
      "mindr": 1951,
      "fortf": 1952,
      "gäng": 1953,
      "up": 1954,
      "pel": 1955,
      "stud": 1956,
      "dock": 1957,
      "amer": 1958,
      "kvali": 1959,
      "inklu": 1960,
      "änner": 1961,
      "tyck": 1962,
      "##lut": 1963,
      "ök": 1964,
      "tyg": 1965,
      "ndra": 1966,
      "skt": 1967,
      "står": 1968,
      "trans": 1969,
      "ets": 1970,
      "fast": 1971,
      "uropa": 1972,
      "if": 1973,
      "tg": 1974,
      "vem": 1975,
      "##as": 1976,
      "träff": 1977,
      "emot": 1978,
      "fel": 1979,
      "iska": 1980,
      "ei": 1981,
      "lan": 1982,
      "ult": 1983,
      "rodu": 1984,
      "minsk": 1985,
      "isk": 1986,
      "ton": 1987,
      "namn": 1988,
      "off": 1989,
      "ubli": 1990,
      "##ga": 1991,
      "##hä": 1992,
      "##del": 1993,
      "relat": 1994,
      "ikt": 1995,
      "fem": 1996,
      "run": 1997,
      "##kal": 1998,
      "ortsä": 1999,
      "cess": 2000,
      "ele": 2001,
      "##mä": 2002,
      "flyg": 2003,
      "##id": 2004,
      "##dd": 2005,
      "nner": 2006,
      "io": 2007,
      "##ssio": 2008,
      "giv": 2009,
      "ins": 2010,
      "dj": 2011,
      "nergi": 2012,
      "ten": 2013,
      "ski": 2014,
      "fung": 2015,
      "hår": 2016,
      "rm": 2017,
      "##ina": 2018,
      "wi": 2019,
      "fär": 2020,
      "tit": 2021,
      "äker": 2022,
      "ring": 2023,
      "stnad": 2024,
      "tgärd": 2025,
      "drag": 2026,
      "fe": 2027,
      "täll": 2028,
      "##lä": 2029,
      "säk": 2030,
      "sex": 2031,
      "tim": 2032,
      "##sak": 2033,
      "lems": 2034,
      "##ns": 2035,
      "enda": 2036,
      "visar": 2037,
      "10": 2038,
      "inans": 2039,
      "lösn": 2040,
      "##ank": 2041,
      "rad": 2042,
      "arbet": 2043,
      "mor": 2044,
      "vårt": 2045,
      "##kä": 2046,
      "lut": 2047,
      "tel": 2048,
      "iga": 2049,
      "rågor": 2050,
      "##sl": 2051,
      "gängl": 2052,
      "hy": 2053,
      "livet": 2054,
      "rapp": 2055,
      "träd": 2056,
      "europ": 2057,
      "tog": 2058,
      "öpp": 2059,
      "nära": 2060,
      "ameri": 2061,
      "ting": 2062,
      "rik": 2063,
      "räck": 2064,
      "fot": 2065,
      "miljo": 2066,
      "fler": 2067,
      "rikti": 2068,
      "tad": 2069,
      "##gon": 2070,
      "nö": 2071,
      "ost": 2072,
      "kam": 2073,
      "nkel": 2074,
      "nds": 2075,
      "neb": 2076,
      "steg": 2077,
      "såg": 2078,
      "nter": 2079,
      "tera": 2080,
      "lycka": 2081,
      "##no": 2082,
      "livs": 2083,
      "nebär": 2084,
      "hjärt": 2085,
      "sol": 2086,
      "ana": 2087,
      "##vest": 2088,
      "nöd": 2089,
      "pra": 2090,
      "ala": 2091,
      "samhä": 2092,
      "nvest": 2093,
      "fru": 2094,
      "klara": 2095,
      "betal": 2096,
      "gener": 2097,
      "rappo": 2098,
      "mynd": 2099,
      "fatt": 2100,
      "just": 2101,
      "ktion": 2102,
      "ultat": 2103,
      "fan": 2104,
      "##mi": 2105,
      "##ku": 2106,
      "händ": 2107,
      "veten": 2108,
      "eslut": 2109,
      "asera": 2110,
      "sc": 2111,
      "hets": 2112,
      "tion": 2113,
      "ev": 2114,
      "eras": 2115,
      "sver": 2116,
      "svår": 2117,
      "blo": 2118,
      "##po": 2119,
      "##råk": 2120,
      "amman": 2121,
      "nog": 2122,
      "orsak": 2123,
      "mma": 2124,
      "konst": 2125,
      "driv": 2126,
      "##ende": 2127,
      "ou": 2128,
      "törre": 2129,
      "cha": 2130,
      "nskap": 2131,
      "lesta": 2132,
      "lik": 2133,
      "nera": 2134,
      "syn": 2135,
      "##för": 2136,
      "jälva": 2137,
      "gem": 2138,
      "issio": 2139,
      "runt": 2140,
      "logi": 2141,
      "eb": 2142,
      "ings": 2143,
      "sak": 2144,
      "stu": 2145,
      "ort": 2146,
      "stark": 2147,
      "dagen": 2148,
      "##pt": 2149,
      "vecka": 2150,
      "vänd": 2151,
      "rep": 2152,
      "lek": 2153,
      "ång": 2154,
      "nads": 2155,
      "sch": 2156,
      "sveri": 2157,
      "gemen": 2158,
      "llet": 2159,
      "##ydd": 2160,
      "kilt": 2161,
      "öppna": 2162,
      "ih": 2163,
      "rikt": 2164,
      "hant": 2165,
      "erial": 2166,
      "film": 2167,
      "gick": 2168,
      "ifr": 2169,
      "mod": 2170,
      "naste": 2171,
      "röst": 2172,
      "äst": 2173,
      "rekt": 2174,
      "##kto": 2175,
      "iell": 2176,
      "##far": 2177,
      "utbil": 2178,
      "rom": 2179,
      "resa": 2180,
      "konto": 2181,
      "tri": 2182,
      "samar": 2183,
      "##tera": 2184,
      "ännu": 2185,
      "##pe": 2186,
      "sko": 2187,
      "intre": 2188,
      "först": 2189,
      "he": 2190,
      "passa": 2191,
      "gel": 2192,
      "ib": 2193,
      "små": 2194,
      "ifrån": 2195,
      "kvar": 2196,
      "nabb": 2197,
      "dning": 2198,
      "##lek": 2199,
      "##ansk": 2200,
      "tom": 2201,
      "tisk": 2202,
      "sidan": 2203,
      "regl": 2204,
      "söker": 2205,
      "djur": 2206,
      "##ign": 2207,
      "släpp": 2208,
      "nor": 2209,
      "esign": 2210,
      "kol": 2211,
      "port": 2212,
      "lära": 2213,
      "oliti": 2214,
      "gu": 2215,
      "bolag": 2216,
      "test": 2217,
      "hund": 2218,
      "elser": 2219,
      "nkelt": 2220,
      "ionen": 2221,
      "behov": 2222,
      "anti": 2223,
      "räm": 2224,
      "ud": 2225,
      "ärlek": 2226,
      "örj": 2227,
      "nta": 2228,
      "nativ": 2229,
      "tred": 2230,
      "arn": 2231,
      "sida": 2232,
      "nline": 2233,
      "kicka": 2234,
      "satt": 2235,
      "enare": 2236,
      "lim": 2237,
      "ont": 2238,
      "reko": 2239,
      "örsök": 2240,
      "rr": 2241,
      "ndig": 2242,
      "skö": 2243,
      "part": 2244,
      "kansk": 2245,
      "tyd": 2246,
      "tredj": 2247,
      "fakti": 2248,
      "ilder": 2249,
      "enk": 2250,
      "lokal": 2251,
      "språk": 2252,
      "mb": 2253,
      "året": 2254,
      "##verk": 2255,
      "idigt": 2256,
      "musik": 2257,
      "ir": 2258,
      "skydd": 2259,
      "od": 2260,
      "begr": 2261,
      "bild": 2262,
      "begrä": 2263,
      "sn": 2264,
      "livit": 2265,
      "reci": 2266,
      "hav": 2267,
      "antas": 2268,
      "färg": 2269,
      "recis": 2270,
      "död": 2271,
      "fått": 2272,
      "lätt": 2273,
      "bero": 2274,
      "anc": 2275,
      "rde": 2276,
      "ål": 2277,
      "##is": 2278,
      "##gör": 2279,
      "tress": 2280,
      "pres": 2281,
      "ndigt": 2282,
      "jäm": 2283,
      "alter": 2284,
      "##rid": 2285,
      "metod": 2286,
      "ker": 2287,
      "isera": 2288,
      "kring": 2289,
      "##ori": 2290,
      "ft": 2291,
      "avtal": 2292,
      "misk": 2293,
      "##he": 2294,
      "inget": 2295,
      "hopp": 2296,
      "leda": 2297,
      "eiska": 2298,
      "växt": 2299,
      "länge": 2300,
      "ytter": 2301,
      "roll": 2302,
      "sälj": 2303,
      "sent": 2304,
      "icke": 2305,
      "ec": 2306,
      "pla": 2307,
      "teck": 2308,
      "gilla": 2309,
      "lar": 2310,
      "##äns": 2311,
      "klart": 2312,
      "eriod": 2313,
      "fyll": 2314,
      "rör": 2315,
      "ättra": 2316,
      "urs": 2317,
      "ron": 2318,
      "via": 2319,
      "olo": 2320,
      "borg": 2321,
      "dy": 2322,
      "fin": 2323,
      "bry": 2324,
      "veta": 2325,
      "lora": 2326,
      "kvinn": 2327,
      "minut": 2328,
      "mmend": 2329,
      "tydli": 2330,
      "fyra": 2331,
      "uts": 2332,
      "erfar": 2333,
      "full": 2334,
      "nå": 2335,
      "##rev": 2336,
      "gtvis": 2337,
      "teckn": 2338,
      "känna": 2339,
      "naden": 2340,
      "##fte": 2341,
      "riv": 2342,
      "krav": 2343,
      "komst": 2344,
      "pe": 2345,
      "oll": 2346,
      "bri": 2347,
      "vård": 2348,
      "relse": 2349,
      "kräv": 2350,
      "timma": 2351,
      "##su": 2352,
      "nga": 2353,
      "nte": 2354,
      "##deo": 2355,
      "af": 2356,
      "rande": 2357,
      "lad": 2358,
      "sni": 2359,
      "ann": 2360,
      "allmä": 2361,
      "rågan": 2362,
      "års": 2363,
      "gar": 2364,
      "låg": 2365,
      "ret": 2366,
      "titta": 2367,
      "##kor": 2368,
      "lam": 2369,
      "gräns": 2370,
      "välja": 2371,
      "vensk": 2372,
      "tning": 2373,
      "sse": 2374,
      "sj": 2375,
      "ren": 2376,
      "tud": 2377,
      "lex": 2378,
      "grad": 2379,
      "dia": 2380,
      "poli": 2381,
      "bruk": 2382,
      "vak": 2383,
      "ögon": 2384,
      "nödvä": 2385,
      "änsk": 2386,
      "denti": 2387,
      "oppas": 2388,
      "räckl": 2389,
      "sett": 2390,
      "itu": 2391,
      "ndas": 2392,
      "ik": 2393,
      "skill": 2394,
      "##ir": 2395,
      "unive": 2396,
      "elare": 2397,
      "tudie": 2398,
      "##ätt": 2399,
      "örs": 2400,
      "fä": 2401,
      "hal": 2402,
      "taden": 2403,
      "ps": 2404,
      "sade": 2405,
      "kalla": 2406,
      "stort": 2407,
      "klass": 2408,
      "vilja": 2409,
      "köpa": 2410,
      "medan": 2411,
      "hin": 2412,
      "talet": 2413,
      "os": 2414,
      "snitt": 2415,
      "rike": 2416,
      "enlig": 2417,
      "änskl": 2418,
      "##ob": 2419,
      "ådana": 2420,
      "llkor": 2421,
      "ay": 2422,
      "##gd": 2423,
      "ffe": 2424,
      "##ydda": 2425,
      "konf": 2426,
      "rnet": 2427,
      "rist": 2428,
      "sive": 2429,
      "kydda": 2430,
      "erat": 2431,
      "inga": 2432,
      "prata": 2433,
      "##ini": 2434,
      "20": 2435,
      "lla": 2436,
      "ultur": 2437,
      "rig": 2438,
      "000": 2439,
      "dare": 2440,
      "skatt": 2441,
      "ffekt": 2442,
      "tids": 2443,
      "els": 2444,
      "vers": 2445,
      "vand": 2446,
      "blod": 2447,
      "båda": 2448,
      "ategi": 2449,
      "nj": 2450,
      "egna": 2451,
      "pati": 2452,
      "liten": 2453,
      "nabbt": 2454,
      "sna": 2455,
      "ena": 2456,
      "krig": 2457,
      "etala": 2458,
      "nam": 2459,
      "pris": 2460,
      "räd": 2461,
      "##str": 2462,
      "inner": 2463,
      "vu": 2464,
      "vinna": 2465,
      "alt": 2466,
      "ok": 2467,
      "gri": 2468,
      "fok": 2469,
      "kvä": 2470,
      "##ino": 2471,
      "kommu": 2472,
      "ext": 2473,
      "fokus": 2474,
      "rna": 2475,
      "##ari": 2476,
      "yck": 2477,
      "ism": 2478,
      "gla": 2479,
      "dell": 2480,
      "bio": 2481,
      "ia": 2482,
      "skada": 2483,
      "dater": 2484,
      "ip": 2485,
      "bygga": 2486,
      "au": 2487,
      "elt": 2488,
      "rvi": 2489,
      "##tså": 2490,
      "kväll": 2491,
      "ria": 2492,
      "aut": 2493,
      "ote": 2494,
      "lltså": 2495,
      "new": 2496,
      "tverk": 2497,
      "svårt": 2498,
      "öd": 2499,
      "samla": 2500,
      "räkna": 2501,
      "##ha": 2502,
      "gångs": 2503,
      "ljus": 2504,
      "andet": 2505,
      "profe": 2506,
      "rivat": 2507,
      "sikt": 2508,
      "15": 2509,
      "örord": 2510,
      "ituat": 2511,
      "ack": 2512,
      "hell": 2513,
      "tills": 2514,
      "lista": 2515,
      "möte": 2516,
      "iella": 2517,
      "ork": 2518,
      "mängd": 2519,
      "tru": 2520,
      "tjäna": 2521,
      "disk": 2522,
      "glob": 2523,
      "inna": 2524,
      "örjan": 2525,
      "helst": 2526,
      "asino": 2527,
      "ris": 2528,
      "dd": 2529,
      "net": 2530,
      "snabb": 2531,
      "ses": 2532,
      "fiera": 2533,
      "medle": 2534,
      "##rk": 2535,
      "bete": 2536,
      "hälso": 2537,
      "offen": 2538,
      "titut": 2539,
      "krist": 2540,
      "ngen": 2541,
      "guds": 2542,
      "märke": 2543,
      "ehöv": 2544,
      "förf": 2545,
      "ntakt": 2546,
      "långt": 2547,
      "anal": 2548,
      "ktur": 2549,
      "rvice": 2550,
      "öv": 2551,
      "regis": 2552,
      "mån": 2553,
      "jämfö": 2554,
      "##rek": 2555,
      "norm": 2556,
      "ref": 2557,
      "30": 2558,
      "joh": 2559,
      "##som": 2560,
      "ramfö": 2561,
      "nhet": 2562,
      "demo": 2563,
      "ntegr": 2564,
      "mt": 2565,
      "sista": 2566,
      "möt": 2567,
      "valt": 2568,
      "slå": 2569,
      "##ital": 2570,
      "morgo": 2571,
      "läsa": 2572,
      "efini": 2573,
      "##ål": 2574,
      "telef": 2575,
      "bank": 2576,
      "##vo": 2577,
      "rlds": 2578,
      "pass": 2579,
      "ien": 2580,
      "tell": 2581,
      "täck": 2582,
      "nord": 2583,
      "ey": 2584,
      "##vid": 2585,
      "licka": 2586,
      "##ia": 2587,
      "takt": 2588,
      "inför": 2589,
      "borde": 2590,
      "hindr": 2591,
      "äldra": 2592,
      "gy": 2593,
      "döda": 2594,
      "prov": 2595,
      "gamla": 2596,
      "tex": 2597,
      "minst": 2598,
      "ggnad": 2599,
      "mör": 2600,
      "förut": 2601,
      "sådan": 2602,
      "gaste": 2603,
      "anför": 2604,
      "##pr": 2605,
      "trän": 2606,
      "bed": 2607,
      "rat": 2608,
      "önska": 2609,
      "ndare": 2610,
      "ident": 2611,
      "ror": 2612,
      "ensio": 2613,
      "err": 2614,
      "perfe": 2615,
      "haft": 2616,
      "dro": 2617,
      "rolig": 2618,
      "stisk": 2619,
      "divid": 2620,
      "hälsa": 2621,
      "aktio": 2622,
      "mam": 2623,
      "eln": 2624,
      "nien": 2625,
      "ini": 2626,
      "lån": 2627,
      "dålig": 2628,
      "stall": 2629,
      "##ön": 2630,
      "stand": 2631,
      "ritt": 2632,
      "klä": 2633,
      "text": 2634,
      "ow": 2635,
      "ox": 2636,
      "ute": 2637,
      "konsu": 2638,
      "##fic": 2639,
      "brott": 2640,
      "pelar": 2641,
      "ai": 2642,
      "so": 2643,
      "bud": 2644,
      "video": 2645,
      "utr": 2646,
      "trakt": 2647,
      "fanns": 2648,
      "blogg": 2649,
      "likt": 2650,
      "öring": 2651,
      "sag": 2652,
      "dju": 2653,
      "ina": 2654,
      "vikt": 2655,
      "allas": 2656,
      "ordn": 2657,
      "ublic": 2658,
      "såsom": 2659,
      "handa": 2660,
      "godkä": 2661,
      "##cker": 2662,
      "lägga": 2663,
      "tvi": 2664,
      "åg": 2665,
      "jes": 2666,
      "värld": 2667,
      "gav": 2668,
      "ville": 2669,
      "sid": 2670,
      "sera": 2671,
      "ori": 2672,
      "idé": 2673,
      "last": 2674,
      "syfte": 2675,
      "sats": 2676,
      "mmel": 2677,
      "vare": 2678,
      "ologi": 2679,
      "kal": 2680,
      "röd": 2681,
      "högre": 2682,
      "ktiv": 2683,
      "klar": 2684,
      "berg": 2685,
      "hemma": 2686,
      "ommit": 2687,
      "djup": 2688,
      "jesus": 2689,
      "vo": 2690,
      "nsvar": 2691,
      "doku": 2692,
      "lutio": 2693,
      "akta": 2694,
      "eta": 2695,
      "emi": 2696,
      "ot": 2697,
      "vack": 2698,
      "ransk": 2699,
      "ffärs": 2700,
      "12": 2701,
      "serie": 2702,
      "astig": 2703,
      "ov": 2704,
      "öj": 2705,
      "lic": 2706,
      "sign": 2707,
      "öp": 2708,
      "her": 2709,
      "antör": 2710,
      "gansk": 2711,
      "måga": 2712,
      "stans": 2713,
      "ärd": 2714,
      "log": 2715,
      "iellt": 2716,
      "ysi": 2717,
      "domar": 2718,
      "dröm": 2719,
      "meter": 2720,
      "käm": 2721,
      "regio": 2722,
      "sätta": 2723,
      "gital": 2724,
      "rer": 2725,
      "##kat": 2726,
      "lopp": 2727,
      "tarta": 2728,
      "direk": 2729,
      "ägg": 2730,
      "##jä": 2731,
      "skil": 2732,
      "regel": 2733,
      "foto": 2734,
      "aste": 2735,
      "åld": 2736,
      "rim": 2737,
      "let": 2738,
      "tradi": 2739,
      "itta": 2740,
      "##ong": 2741,
      "ange": 2742,
      "chef": 2743,
      "öcker": 2744,
      "mmar": 2745,
      "genhe": 2746,
      "sra": 2747,
      "tot": 2748,
      "##nå": 2749,
      "dags": 2750,
      "säkra": 2751,
      "äta": 2752,
      "bund": 2753,
      "vägen": 2754,
      "gått": 2755,
      "edel": 2756,
      "kven": 2757,
      "tänka": 2758,
      "##ht": 2759,
      "bin": 2760,
      "litik": 2761,
      "bered": 2762,
      "dator": 2763,
      "lär": 2764,
      "##ps": 2765,
      "pte": 2766,
      "krift": 2767,
      "stol": 2768,
      "veck": 2769,
      "uppnå": 2770,
      "ert": 2771,
      "srael": 2772,
      "inal": 2773,
      "välj": 2774,
      "lytta": 2775,
      "lld": 2776,
      "rec": 2777,
      "##urs": 2778,
      "räver": 2779,
      "mini": 2780,
      "redo": 2781,
      "dan": 2782,
      "maj": 2783,
      "kamp": 2784,
      "total": 2785,
      "##rig": 2786,
      "amma": 2787,
      "ott": 2788,
      "##ber": 2789,
      "mobil": 2790,
      "enkla": 2791,
      "itter": 2792,
      "ions": 2793,
      "fika": 2794,
      "uari": 2795,
      "eende": 2796,
      "ham": 2797,
      "bryt": 2798,
      "mna": 2799,
      "varu": 2800,
      "ock": 2801,
      "oa": 2802,
      "lands": 2803,
      "hållb": 2804,
      "halv": 2805,
      "emang": 2806,
      "##led": 2807,
      "kolan": 2808,
      "erens": 2809,
      "heter": 2810,
      "mal": 2811,
      "visn": 2812,
      "rsi": 2813,
      "roduc": 2814,
      "rå": 2815,
      "tälla": 2816,
      "dre": 2817,
      "luft": 2818,
      "anled": 2819,
      "elekt": 2820,
      "mst": 2821,
      "kare": 2822,
      "uella": 2823,
      "vecko": 2824,
      "cell": 2825,
      "rsite": 2826,
      "arm": 2827,
      "##gå": 2828,
      "krävs": 2829,
      "##tel": 2830,
      "ras": 2831,
      "dec": 2832,
      "bilda": 2833,
      "speci": 2834,
      "jobba": 2835,
      "ym": 2836,
      "ea": 2837,
      "bef": 2838,
      "rit": 2839,
      "lt": 2840,
      "åren": 2841,
      "bedöm": 2842,
      "äll": 2843,
      "anstä": 2844,
      "rakti": 2845,
      "äkers": 2846,
      "extra": 2847,
      "dde": 2848,
      "urspr": 2849,
      "rot": 2850,
      "läke": 2851,
      "färd": 2852,
      "jö": 2853,
      "skär": 2854,
      "delen": 2855,
      "nöj": 2856,
      "nät": 2857,
      "post": 2858,
      "tenti": 2859,
      "sagt": 2860,
      "sten": 2861,
      "ända": 2862,
      "##dra": 2863,
      "fasts": 2864,
      "redit": 2865,
      "ålder": 2866,
      "ool": 2867,
      "ang": 2868,
      "nci": 2869,
      "mamma": 2870,
      "makt": 2871,
      "följa": 2872,
      "nikat": 2873,
      "grip": 2874,
      "limat": 2875,
      "tas": 2876,
      "typer": 2877,
      "kost": 2878,
      "##op": 2879,
      "exi": 2880,
      "motor": 2881,
      "urang": 2882,
      "lutet": 2883,
      "ändå": 2884,
      "glad": 2885,
      "agera": 2886,
      "säkr": 2887,
      "perat": 2888,
      "batt": 2889,
      "fullt": 2890,
      "mera": 2891,
      "märk": 2892,
      "##ldi": 2893,
      "nsa": 2894,
      "##bi": 2895,
      "tidig": 2896,
      "kina": 2897,
      "skol": 2898,
      "ilm": 2899,
      "rämst": 2900,
      "njut": 2901,
      "rtera": 2902,
      "ital": 2903,
      "ncip": 2904,
      "ank": 2905,
      "saml": 2906,
      "bäst": 2907,
      "kul": 2908,
      "tatio": 2909,
      "bidra": 2910,
      "parti": 2911,
      "örsv": 2912,
      "ysisk": 2913,
      "erätt": 2914,
      "utrus": 2915,
      "nupp": 2916,
      "ämp": 2917,
      "ndo": 2918,
      "nne": 2919,
      "ial": 2920,
      "oog": 2921,
      "tig": 2922,
      "cyk": 2923,
      "rihet": 2924,
      "trö": 2925,
      "född": 2926,
      "oogle": 2927,
      "snart": 2928,
      "huset": 2929,
      "ask": 2930,
      "com": 2931,
      "ommar": 2932,
      "ihåg": 2933,
      "exa": 2934,
      "amb": 2935,
      "mag": 2936,
      "ler": 2937,
      "match": 2938,
      "mplig": 2939,
      "rg": 2940,
      "##ic": 2941,
      "##kar": 2942,
      "lön": 2943,
      "stil": 2944,
      "sitiv": 2945,
      "sakna": 2946,
      "garan": 2947,
      "lett": 2948,
      "brä": 2949,
      "gamm": 2950,
      "orna": 2951,
      "kriva": 2952,
      "artne": 2953,
      "innov": 2954,
      "stra": 2955,
      "grati": 2956,
      "inlä": 2957,
      "nande": 2958,
      "ars": 2959,
      "ssna": 2960,
      "50": 2961,
      "pr": 2962,
      "##bar": 2963,
      "låta": 2964,
      "bart": 2965,
      "lock": 2966,
      "##vl": 2967,
      "pän": 2968,
      "vux": 2969,
      "mstol": 2970,
      "bord": 2971,
      "ämpa": 2972,
      "event": 2973,
      "nsp": 2974,
      "ppen": 2975,
      "eltag": 2976,
      "klag": 2977,
      "terr": 2978,
      "dri": 2979,
      "ening": 2980,
      "iktig": 2981,
      "wo": 2982,
      "ancer": 2983,
      "mass": 2984,
      "nspir": 2985,
      "itt": 2986,
      "glö": 2987,
      "sel": 2988,
      "##nda": 2989,
      "rda": 2990,
      "viss": 2991,
      "ringa": 2992,
      "##tion": 2993,
      "eget": 2994,
      "beg": 2995,
      "25": 2996,
      "hot": 2997,
      "fälle": 2998,
      "lust": 2999,
      "age": 3000,
      "forma": 3001,
      "läge": 3002,
      "stod": 3003,
      "kret": 3004,
      "##cep": 3005,
      "begär": 3006,
      "mrå": 3007,
      "läg": 3008,
      "häm": 3009,
      "ärdig": 3010,
      "ublik": 3011,
      "dande": 3012,
      "gsta": 3013,
      "ellt": 3014,
      "numm": 3015,
      "topp": 3016,
      "##gn": 3017,
      "grepp": 3018,
      "ehövs": 3019,
      "mråde": 3020,
      "kämpa": 3021,
      "gno": 3022,
      "ms": 3023,
      "tand": 3024,
      "##ärk": 3025,
      "amp": 3026,
      "spekt": 3027,
      "tanna": 3028,
      "rning": 3029,
      "äkert": 3030,
      "gelsk": 3031,
      "md": 3032,
      "uell": 3033,
      "spår": 3034,
      "##ktio": 3035,
      "relig": 3036,
      "gro": 3037,
      "äns": 3038,
      "resen": 3039,
      "gat": 3040,
      "kna": 3041,
      "älj": 3042,
      "omb": 3043,
      "##nit": 3044,
      "disku": 3045,
      "avori": 3046,
      "ndel": 3047,
      "ros": 3048,
      "dör": 3049,
      "ära": 3050,
      "resul": 3051,
      "grön": 3052,
      "arnen": 3053,
      "rädda": 3054,
      "lassi": 3055,
      "bakom": 3056,
      "sym": 3057,
      "litet": 3058,
      "rv": 3059,
      "oav": 3060,
      "nadsf": 3061,
      "plac": 3062,
      "##åll": 3063,
      "äs": 3064,
      "##ou": 3065,
      "gott": 3066,
      "accep": 3067,
      "pelet": 3068,
      "nsi": 3069,
      "gn": 3070,
      "##rka": 3071,
      "iva": 3072,
      "temp": 3073,
      "gef": 3074,
      "döm": 3075,
      "stärk": 3076,
      "rakt": 3077,
      "gefär": 3078,
      "rien": 3079,
      "konse": 3080,
      "nellt": 3081,
      "ph": 3082,
      "tagit": 3083,
      "ativ": 3084,
      "bad": 3085,
      "rand": 3086,
      "bas": 3087,
      "psy": 3088,
      "skild": 3089,
      "iet": 3090,
      "xt": 3091,
      "natt": 3092,
      "mät": 3093,
      "hörig": 3094,
      "äsong": 3095,
      "nistr": 3096,
      "spara": 3097,
      "istä": 3098,
      "boken": 3099,
      "lera": 3100,
      "trera": 3101,
      "erren": 3102,
      "##jk": 3103,
      "vap": 3104,
      "smärt": 3105,
      "hundr": 3106,
      "ass": 3107,
      "änsl": 3108,
      "fic": 3109,
      "ordon": 3110,
      "lid": 3111,
      "etalj": 3112,
      "psyk": 3113,
      "tälle": 3114,
      "ollar": 3115,
      "stift": 3116,
      "tus": 3117,
      "abso": 3118,
      "naly": 3119,
      "llda": 3120,
      "våld": 3121,
      "kvens": 3122,
      "åk": 3123,
      "ördel": 3124,
      "fre": 3125,
      "köp": 3126,
      "äldre": 3127,
      "erkä": 3128,
      "utgör": 3129,
      "samb": 3130,
      "goda": 3131,
      "innas": 3132,
      "ong": 3133,
      "kapa": 3134,
      "sidor": 3135,
      "låter": 3136,
      "sanni": 3137,
      "ete": 3138,
      "kurs": 3139,
      "##ös": 3140,
      "etter": 3141,
      "100": 3142,
      "märkt": 3143,
      "änslo": 3144,
      "##bu": 3145,
      "##be": 3146,
      "kända": 3147,
      "ebo": 3148,
      "aktie": 3149,
      "ske": 3150,
      "träng": 3151,
      "tanke": 3152,
      "utman": 3153,
      "efolk": 3154,
      "john": 3155,
      "ilj": 3156,
      "nom": 3157,
      "ood": 3158,
      "vart": 3159,
      "trots": 3160,
      "##ons": 3161,
      "##väm": 3162,
      "ekväm": 3163,
      "ndar": 3164,
      "mmels": 3165,
      "11": 3166,
      "ua": 3167,
      "ljud": 3168,
      "styrk": 3169,
      "ihop": 3170,
      "namne": 3171,
      "ärlig": 3172,
      "mana": 3173,
      "dam": 3174,
      "wa": 3175,
      "issa": 3176,
      "polis": 3177,
      "ovan": 3178,
      "knapp": 3179,
      "ater": 3180,
      "mare": 3181,
      "atisk": 3182,
      "mörk": 3183,
      "dor": 3184,
      "ssio": 3185,
      "ator": 3186,
      "lay": 3187,
      "rumme": 3188,
      "ess": 3189,
      "frä": 3190,
      "kry": 3191,
      "arki": 3192,
      "skäl": 3193,
      "tider": 3194,
      "sjö": 3195,
      "märks": 3196,
      "kör": 3197,
      "meni": 3198,
      "nyttj": 3199,
      "ich": 3200,
      "our": 3201,
      "takta": 3202,
      "ep": 3203,
      "nent": 3204,
      "rin": 3205,
      "yrk": 3206,
      "värt": 3207,
      "uss": 3208,
      "frank": 3209,
      "fulla": 3210,
      "kyl": 3211,
      "riska": 3212,
      "krati": 3213,
      "änsla": 3214,
      "unio": 3215,
      "övrig": 3216,
      "otter": 3217,
      "fjä": 3218,
      "jan": 3219,
      "varli": 3220,
      "ose": 3221,
      "mmer": 3222,
      "varor": 3223,
      "nyhet": 3224,
      "varig": 3225,
      "ättet": 3226,
      "tc": 3227,
      "rea": 3228,
      "skan": 3229,
      "rk": 3230,
      "kyldi": 3231,
      "brist": 3232,
      "fria": 3233,
      "not": 3234,
      "reste": 3235,
      "skrev": 3236,
      "riär": 3237,
      "sitio": 3238,
      "fas": 3239,
      "rare": 3240,
      "opul": 3241,
      "rådet": 3242,
      "delta": 3243,
      "cirka": 3244,
      "sma": 3245,
      "olen": 3246,
      "admi": 3247,
      "vinst": 3248,
      "ston": 3249,
      "rele": 3250,
      "##olm": 3251,
      "uper": 3252,
      "kh": 3253,
      "ges": 3254,
      "ratur": 3255,
      "tusen": 3256,
      "nämn": 3257,
      "rra": 3258,
      "strä": 3259,
      "impo": 3260,
      "icin": 3261,
      "askin": 3262,
      "instä": 3263,
      "bj": 3264,
      "team": 3265,
      "ash": 3266,
      "leder": 3267,
      "arty": 3268,
      "indus": 3269,
      "mässi": 3270,
      "nterv": 3271,
      "sky": 3272,
      "blick": 3273,
      "max": 3274,
      "##ws": 3275,
      "lys": 3276,
      "tank": 3277,
      "ådant": 3278,
      "ester": 3279,
      "gär": 3280,
      "og": 3281,
      "##ant": 3282,
      "mati": 3283,
      "fac": 3284,
      "rätte": 3285,
      "atio": 3286,
      "ägare": 3287,
      "exakt": 3288,
      "enbar": 3289,
      "teter": 3290,
      "frukt": 3291,
      "opulä": 3292,
      "hit": 3293,
      "nr": 3294,
      "##mb": 3295,
      "fli": 3296,
      "nch": 3297,
      "sprid": 3298,
      "nstru": 3299,
      "drick": 3300,
      "dubb": 3301,
      "undra": 3302,
      "leg": 3303,
      "aff": 3304,
      "ämn": 3305,
      "fört": 3306,
      "start": 3307,
      "ela": 3308,
      "ades": 3309,
      "dern": 3310,
      "18": 3311,
      "lagen": 3312,
      "tävl": 3313,
      "rymm": 3314,
      "stopp": 3315,
      "varm": 3316,
      "ress": 3317,
      "träck": 3318,
      "grafi": 3319,
      "analy": 3320,
      "ii": 3321,
      "sla": 3322,
      "ttack": 3323,
      "ilmen": 3324,
      "dä": 3325,
      "boll": 3326,
      "berö": 3327,
      "bib": 3328,
      "ustr": 3329,
      "ight": 3330,
      "forsk": 3331,
      "expo": 3332,
      "ats": 3333,
      "tjärn": 3334,
      "entar": 3335,
      "sor": 3336,
      "höra": 3337,
      "ax": 3338,
      "sste": 3339,
      "kräft": 3340,
      "aglig": 3341,
      "gran": 3342,
      "usi": 3343,
      "##es": 3344,
      "andi": 3345,
      "engag": 3346,
      "minne": 3347,
      "bilar": 3348,
      "visas": 3349,
      "ui": 3350,
      "känns": 3351,
      "ebook": 3352,
      "cit": 3353,
      "ämne": 3354,
      "klaga": 3355,
      "bred": 3356,
      "vit": 3357,
      "its": 3358,
      "merik": 3359,
      "hjä": 3360,
      "kriti": 3361,
      "oavse": 3362,
      "ata": 3363,
      "ktivi": 3364,
      "glas": 3365,
      "kopp": 3366,
      "butik": 3367,
      "elsen": 3368,
      "vapen": 3369,
      "ake": 3370,
      "höll": 3371,
      "16": 3372,
      "rskap": 3373,
      "undvi": 3374,
      "öjlig": 3375,
      "latt": 3376,
      "tna": 3377,
      "våna": 3378,
      "nens": 3379,
      "synd": 3380,
      "drog": 3381,
      "vackr": 3382,
      "ah": 3383,
      "stro": 3384,
      "agens": 3385,
      "estår": 3386,
      "linj": 3387,
      "nland": 3388,
      "##per": 3389,
      "locka": 3390,
      "edia": 3391,
      "trafi": 3392,
      "ensam": 3393,
      "gärna": 3394,
      "reso": 3395,
      "eck": 3396,
      "##get": 3397,
      "erti": 3398,
      "tysk": 3399,
      "ttr": 3400,
      "grä": 3401,
      "hård": 3402,
      "eti": 3403,
      "you": 3404,
      "unga": 3405,
      "dist": 3406,
      "nnen": 3407,
      "indu": 3408,
      "ås": 3409,
      "strid": 3410,
      "gas": 3411,
      "fik": 3412,
      "emål": 3413,
      "edelb": 3414,
      "rädd": 3415,
      "vandl": 3416,
      "sker": 3417,
      "roni": 3418,
      "motiv": 3419,
      "opti": 3420,
      "lunda": 3421,
      "dress": 3422,
      "konve": 3423,
      "vgör": 3424,
      "medve": 3425,
      "närva": 3426,
      "vgöra": 3427,
      "ben": 3428,
      "lott": 3429,
      "stör": 3430,
      "gård": 3431,
      "hört": 3432,
      "gnos": 3433,
      "mn": 3434,
      "arnet": 3435,
      "alans": 3436,
      "ember": 3437,
      "satte": 3438,
      "atum": 3439,
      "smart": 3440,
      "anges": 3441,
      "riset": 3442,
      "nalys": 3443,
      "ämnen": 3444,
      "bser": 3445,
      "stäng": 3446,
      "tab": 3447,
      "bserv": 3448,
      "ame": 3449,
      "täcka": 3450,
      "atego": 3451,
      "13": 3452,
      "liks": 3453,
      "nöjd": 3454,
      "iser": 3455,
      "ndows": 3456,
      "band": 3457,
      "eal": 3458,
      "riser": 3459,
      "löj": 3460,
      "offic": 3461,
      "etags": 3462,
      "stik": 3463,
      "litär": 3464,
      "ojk": 3465,
      "vor": 3466,
      "edan": 3467,
      "sem": 3468,
      "skä": 3469,
      "tecke": 3470,
      "lykt": 3471,
      "ormat": 3472,
      "yrkan": 3473,
      "ira": 3474,
      "orden": 3475,
      "fund": 3476,
      "finna": 3477,
      "gal": 3478,
      "mnd": 3479,
      "stödj": 3480,
      "term": 3481,
      "sinn": 3482,
      "tida": 3483,
      "skog": 3484,
      "delni": 3485,
      "nled": 3486,
      "slig": 3487,
      "sökte": 3488,
      "insk": 3489,
      "ness": 3490,
      "korre": 3491,
      "gare": 3492,
      "kre": 3493,
      "lleg": 3494,
      "tatet": 3495,
      "kung": 3496,
      "oäng": 3497,
      "idra": 3498,
      "fattn": 3499,
      "##co": 3500,
      "följd": 3501,
      "jd": 3502,
      "eld": 3503,
      "mju": 3504,
      "vig": 3505,
      "oppla": 3506,
      "ottag": 3507,
      "anser": 3508,
      "resta": 3509,
      "##rem": 3510,
      "fylla": 3511,
      "sal": 3512,
      "erier": 3513,
      "mjuk": 3514,
      "brev": 3515,
      "rek": 3516,
      "höga": 3517,
      "ökn": 3518,
      "vandr": 3519,
      "jätte": 3520,
      "våg": 3521,
      "relev": 3522,
      "sport": 3523,
      "häng": 3524,
      "drabb": 3525,
      "tillf": 3526,
      "alls": 3527,
      "nuva": 3528,
      "skott": 3529,
      "likso": 3530,
      "skilj": 3531,
      "ativa": 3532,
      "parat": 3533,
      "storb": 3534,
      "meta": 3535,
      "gress": 3536,
      "kholm": 3537,
      "rar": 3538,
      "rier": 3539,
      "kärn": 3540,
      "nus": 3541,
      "oid": 3542,
      "gativ": 3543,
      "appa": 3544,
      "auto": 3545,
      "lubb": 3546,
      "reda": 3547,
      "gravi": 3548,
      "känsl": 3549,
      "respe": 3550,
      "oly": 3551,
      "rrens": 3552,
      "glä": 3553,
      "öds": 3554,
      "idrag": 3555,
      "udget": 3556,
      "xtrem": 3557,
      "rök": 3558,
      "yckli": 3559,
      "dg": 3560,
      "äkt": 3561,
      "##os": 3562,
      "##kn": 3563,
      "närma": 3564,
      "atur": 3565,
      "flöd": 3566,
      "14": 3567,
      "versi": 3568,
      "ritan": 3569,
      "ach": 3570,
      "end": 3571,
      "ome": 3572,
      "als": 3573,
      "årig": 3574,
      "landa": 3575,
      "svå": 3576,
      "aktär": 3577,
      "havet": 3578,
      "själ": 3579,
      "ntio": 3580,
      "ström": 3581,
      "svåra": 3582,
      "pansk": 3583,
      "rre": 3584,
      "vänli": 3585,
      "gd": 3586,
      "dit": 3587,
      "mars": 3588,
      "lans": 3589,
      "##fa": 3590,
      "kuld": 3591,
      "tes": 3592,
      "lln": 3593,
      "amtal": 3594,
      "täder": 3595,
      "ail": 3596,
      "tabil": 3597,
      "traff": 3598,
      "ktor": 3599,
      "kreat": 3600,
      "nnons": 3601,
      "ökar": 3602,
      "mul": 3603,
      "nse": 3604,
      "yta": 3605,
      "sku": 3606,
      "teo": 3607,
      "nar": 3608,
      "förra": 3609,
      "lova": 3610,
      "skärm": 3611,
      "åra": 3612,
      "enar": 3613,
      "eror": 3614,
      "lita": 3615,
      "ernas": 3616,
      "juni": 3617,
      "säng": 3618,
      "tw": 3619,
      "ckel": 3620,
      "ptemb": 3621,
      "pt": 3622,
      "hone": 3623,
      "lugn": 3624,
      "ryss": 3625,
      "40": 3626,
      "värme": 3627,
      "högt": 3628,
      "rus": 3629,
      "dik": 3630,
      "taten": 3631,
      "lätta": 3632,
      "kolla": 3633,
      "strin": 3634,
      "aktum": 3635,
      "exist": 3636,
      "rke": 3637,
      "anj": 3638,
      "bevis": 3639,
      "ålet": 3640,
      "ivil": 3641,
      "ondon": 3642,
      "ssi": 3643,
      "graf": 3644,
      "stoc": 3645,
      "unnit": 3646,
      "rämja": 3647,
      "bind": 3648,
      "##ård": 3649,
      "äng": 3650,
      "konku": 3651,
      "ity": 3652,
      "massa": 3653,
      "chi": 3654,
      "svag": 3655,
      "dgård": 3656,
      "cc": 3657,
      "åde": 3658,
      "arhet": 3659,
      "kant": 3660,
      "rikta": 3661,
      "röv": 3662,
      "värv": 3663,
      "talar": 3664,
      "aka": 3665,
      "sanno": 3666,
      "eo": 3667,
      "ektio": 3668,
      "läggn": 3669,
      "ften": 3670,
      "lilla": 3671,
      "allet": 3672,
      "tyr": 3673,
      "parla": 3674,
      "fo": 3675,
      "té": 3676,
      "revo": 3677,
      "ribu": 3678,
      "mlig": 3679,
      "vars": 3680,
      "kris": 3681,
      "scen": 3682,
      "ingår": 3683,
      "iz": 3684,
      "läder": 3685,
      "dry": 3686,
      "söka": 3687,
      "lagar": 3688,
      "hat": 3689,
      "ley": 3690,
      "rymme": 3691,
      "trand": 3692,
      "hol": 3693,
      "remi": 3694,
      "iera": 3695,
      "ling": 3696,
      "oft": 3697,
      "ence": 3698,
      "anna": 3699,
      "aw": 3700,
      "arlig": 3701,
      "sälja": 3702,
      "kasta": 3703,
      "klo": 3704,
      "iler": 3705,
      "iös": 3706,
      "jut": 3707,
      "kod": 3708,
      "mena": 3709,
      "villi": 3710,
      "rygg": 3711,
      "aktig": 3712,
      "fakto": 3713,
      "oga": 3714,
      "domen": 3715,
      "illig": 3716,
      "ormer": 3717,
      "gh": 3718,
      "yn": 3719,
      "satta": 3720,
      "pple": 3721,
      "iff": 3722,
      "pu": 3723,
      "hålls": 3724,
      "kta": 3725,
      "roma": 3726,
      "atti": 3727,
      "para": 3728,
      "aket": 3729,
      "spa": 3730,
      "ee": 3731,
      "far": 3732,
      "ril": 3733,
      "ngel": 3734,
      "urser": 3735,
      "leta": 3736,
      "vel": 3737,
      "kall": 3738,
      "välko": 3739,
      "kli": 3740,
      "vd": 3741,
      "arder": 3742,
      "rift": 3743,
      "nses": 3744,
      "len": 3745,
      "isti": 3746,
      "aktu": 3747,
      "rak": 3748,
      "kron": 3749,
      "pänna": 3750,
      "når": 3751,
      "avid": 3752,
      "rid": 3753,
      "linje": 3754,
      "bis": 3755,
      "lju": 3756,
      "varet": 3757,
      "mber": 3758,
      "annen": 3759,
      "sinne": 3760,
      "gä": 3761,
      "ken": 3762,
      "mani": 3763,
      "gger": 3764,
      "antag": 3765,
      "längd": 3766,
      "##emi": 3767,
      "lack": 3768,
      "stati": 3769,
      "24": 3770,
      "km": 3771,
      "ree": 3772,
      "press": 3773,
      "lanet": 3774,
      "nnor": 3775,
      "ekom": 3776,
      "rang": 3777,
      "oka": 3778,
      "ansök": 3779,
      "anslu": 3780,
      "sub": 3781,
      "smak": 3782,
      "bär": 3783,
      "görs": 3784,
      "mask": 3785,
      "känt": 3786,
      "pal": 3787,
      "sum": 3788,
      "##ckt": 3789,
      "rab": 3790,
      "lini": 3791,
      "ämpn": 3792,
      "stone": 3793,
      "fred": 3794,
      "sänd": 3795,
      "ntag": 3796,
      "affär": 3797,
      "gol": 3798,
      "medic": 3799,
      "fisk": 3800,
      "ågra": 3801,
      "bjud": 3802,
      "koppl": 3803,
      "ian": 3804,
      "revi": 3805,
      "jul": 3806,
      "taget": 3807,
      "imp": 3808,
      "orta": 3809,
      "tak": 3810,
      "affe": 3811,
      "ick": 3812,
      "ept": 3813,
      "idig": 3814,
      "ilden": 3815,
      "fäl": 3816,
      "kyr": 3817,
      "ral": 3818,
      "höj": 3819,
      "värr": 3820,
      "17": 3821,
      "vatt": 3822,
      "redd": 3823,
      "frika": 3824,
      "ägna": 3825,
      "ect": 3826,
      "sov": 3827,
      "autom": 3828,
      "teten": 3829,
      "emisk": 3830,
      "ago": 3831,
      "visat": 3832,
      "arken": 3833,
      "äster": 3834,
      "mil": 3835,
      "vgi": 3836,
      "visio": 3837,
      "##ani": 3838,
      "omp": 3839,
      "pul": 3840,
      "tö": 3841,
      "##ca": 3842,
      "vgift": 3843,
      "mon": 3844,
      "erso": 3845,
      "chans": 3846,
      "lås": 3847,
      "avse": 3848,
      "repa": 3849,
      "##kte": 3850,
      "änni": 3851,
      "nger": 3852,
      "rten": 3853,
      "eleve": 3854,
      "vari": 3855,
      "katte": 3856,
      "otek": 3857,
      "tempe": 3858,
      "citet": 3859,
      "lapp": 3860,
      "ladda": 3861,
      "mr": 3862,
      "sekto": 3863,
      "orge": 3864,
      "orite": 3865,
      "gon": 3866,
      "one": 3867,
      "##ry": 3868,
      "ndera": 3869,
      "roa": 3870,
      "enkel": 3871,
      "öre": 3872,
      "rukar": 3873,
      "ive": 3874,
      "unik": 3875,
      "ökand": 3876,
      "rots": 3877,
      "assa": 3878,
      "häv": 3879,
      "eder": 3880,
      "bilen": 3881,
      "sköt": 3882,
      "skri": 3883,
      "plo": 3884,
      "web": 3885,
      "agi": 3886,
      "gil": 3887,
      "enni": 3888,
      "atori": 3889,
      "väga": 3890,
      "kombi": 3891,
      "terar": 3892,
      "vände": 3893,
      "az": 3894,
      "lot": 3895,
      "park": 3896,
      "derar": 3897,
      "ommun": 3898,
      "anden": 3899,
      "sluts": 3900,
      "ew": 3901,
      "tin": 3902,
      "llor": 3903,
      "ekomm": 3904,
      "ona": 3905,
      "varo": 3906,
      "ombin": 3907,
      "yk": 3908,
      "nnand": 3909,
      "unt": 3910,
      "okto": 3911,
      "elvis": 3912,
      "tåg": 3913,
      "vac": 3914,
      "tänkt": 3915,
      "aria": 3916,
      "initi": 3917,
      "lipp": 3918,
      "otell": 3919,
      "aul": 3920,
      "sie": 3921,
      "derna": 3922,
      "fekt": 3923,
      "kaff": 3924,
      "kände": 3925,
      "nti": 3926,
      "tips": 3927,
      "överf": 3928,
      "kilda": 3929,
      "ehåll": 3930,
      "cka": 3931,
      "ssa": 3932,
      "äter": 3933,
      "arg": 3934,
      "duc": 3935,
      "redi": 3936,
      "lus": 3937,
      "lod": 3938,
      "reds": 3939,
      "olag": 3940,
      "fn": 3941,
      "dent": 3942,
      "##vik": 3943,
      "trol": 3944,
      "likat": 3945,
      "lse": 3946,
      "##bo": 3947,
      "timm": 3948,
      "natte": 3949,
      "flu": 3950,
      "tten": 3951,
      "rmed": 3952,
      "rkes": 3953,
      "fäll": 3954,
      "öva": 3955,
      "ine": 3956,
      "etens": 3957,
      "cept": 3958,
      "mmen": 3959,
      "båt": 3960,
      "öregå": 3961,
      "inre": 3962,
      "förd": 3963,
      "allar": 3964,
      "glar": 3965,
      "egi": 3966,
      "ratt": 3967,
      "mic": 3968,
      "coo": 3969,
      "bunde": 3970,
      "iss": 3971,
      "nf": 3972,
      "ndsk": 3973,
      "eter": 3974,
      "urn": 3975,
      "bje": 3976,
      "gö": 3977,
      "old": 3978,
      "sw": 3979,
      "hämta": 3980,
      "yt": 3981,
      "källa": 3982,
      "ille": 3983,
      "åll": 3984,
      "heml": 3985,
      "städ": 3986,
      "ersä": 3987,
      "ikte": 3988,
      "ndiga": 3989,
      "out": 3990,
      "andr": 3991,
      "ssant": 3992,
      "set": 3993,
      "atter": 3994,
      "nej": 3995,
      "atser": 3996,
      "tant": 3997,
      "ontin": 3998,
      "etab": 3999,
      "sorg": 4000,
      "##ki": 4001,
      "alen": 4002,
      "byte": 4003,
      "grav": 4004,
      "wh": 4005,
      "tast": 4006,
      "gent": 4007,
      "ulera": 4008,
      "rch": 4009,
      "erare": 4010,
      "åka": 4011,
      "tycke": 4012,
      "ato": 4013,
      "svart": 4014,
      "ound": 4015,
      "fång": 4016,
      "rätts": 4017,
      "pisk": 4018,
      "sho": 4019,
      "dje": 4020,
      "hud": 4021,
      "kie": 4022,
      "zo": 4023,
      "delse": 4024,
      "edl": 4025,
      "möjli": 4026,
      "ern": 4027,
      "bes": 4028,
      "ttare": 4029,
      "ader": 4030,
      "bb": 4031,
      "ömn": 4032,
      "alb": 4033,
      "aster": 4034,
      "ix": 4035,
      "kine": 4036,
      "tam": 4037,
      "varn": 4038,
      "fina": 4039,
      "nnan": 4040,
      "lsk": 4041,
      "rl": 4042,
      "vida": 4043,
      "olk": 4044,
      "ndvik": 4045,
      "urg": 4046,
      "rän": 4047,
      "rnan": 4048,
      "##ttr": 4049,
      "nat": 4050,
      "intr": 4051,
      "isa": 4052,
      "tats": 4053,
      "amin": 4054,
      "smä": 4055,
      "fra": 4056,
      "ifi": 4057,
      "kär": 4058,
      "nare": 4059,
      "rlig": 4060,
      "mik": 4061,
      "exp": 4062,
      "eko": 4063,
      "guld": 4064,
      "tekt": 4065,
      "nove": 4066,
      "växa": 4067,
      "rdet": 4068,
      "tals": 4069,
      "dans": 4070,
      "eam": 4071,
      "kemi": 4072,
      "rter": 4073,
      "use": 4074,
      "alko": 4075,
      "tts": 4076,
      "nsti": 4077,
      "vlig": 4078,
      "enast": 4079,
      "ct": 4080,
      "nnar": 4081,
      "erspe": 4082,
      "ästar": 4083,
      "ug": 4084,
      "ägs": 4085,
      "dar": 4086,
      "kning": 4087,
      "ement": 4088,
      "sökt": 4089,
      "line": 4090,
      "anad": 4091,
      "ech": 4092,
      "ntra": 4093,
      "urk": 4094,
      "ppa": 4095,
      "ågon": 4096,
      "bit": 4097,
      "esta": 4098,
      "gera": 4099,
      "kompo": 4100,
      "aris": 4101,
      "skola": 4102,
      "21": 4103,
      "tm": 4104,
      "tem": 4105,
      "##mo": 4106,
      "träde": 4107,
      "bättr": 4108,
      "uellt": 4109,
      "dskap": 4110,
      "rtu": 4111,
      "obe": 4112,
      "kyrk": 4113,
      "60": 4114,
      "nste": 4115,
      "tivt": 4116,
      "ivt": 4117,
      "illi": 4118,
      "over": 4119,
      "uta": 4120,
      "ridi": 4121,
      "stämm": 4122,
      "##lar": 4123,
      "rb": 4124,
      "nsl": 4125,
      "nc": 4126,
      "ökad": 4127,
      "ean": 4128,
      "kel": 4129,
      "ngt": 4130,
      "amen": 4131,
      "blå": 4132,
      "emo": 4133,
      "ostad": 4134,
      "mord": 4135,
      "arti": 4136,
      "apper": 4137,
      "vning": 4138,
      "oför": 4139,
      "oy": 4140,
      "rth": 4141,
      "drar": 4142,
      ":)": 4143,
      "lk": 4144,
      "ons": 4145,
      "äger": 4146,
      "eet": 4147,
      "king": 4148,
      "ulär": 4149,
      "tekn": 4150,
      "tis": 4151,
      "arc": 4152,
      "ordet": 4153,
      "nsten": 4154,
      "lägs": 4155,
      "##dag": 4156,
      "ebr": 4157,
      "oende": 4158,
      "hände": 4159,
      "oni": 4160,
      "rsätt": 4161,
      "con": 4162,
      "ekt": 4163,
      "ook": 4164,
      "tål": 4165,
      "nka": 4166,
      "läst": 4167,
      "logg": 4168,
      "tslig": 4169,
      "öns": 4170,
      "rest": 4171,
      "nsy": 4172,
      "edj": 4173,
      "järn": 4174,
      "pli": 4175,
      "ätter": 4176,
      "even": 4177,
      "lf": 4178,
      "sare": 4179,
      "ssor": 4180,
      "turn": 4181,
      "snar": 4182,
      "illa": 4183,
      "usti": 4184,
      "kat": 4185,
      "oso": 4186,
      "rans": 4187,
      "rese": 4188,
      "lon": 4189,
      "nack": 4190,
      "änt": 4191,
      "ngs": 4192,
      "ällan": 4193,
      "undar": 4194,
      "täckt": 4195,
      "imi": 4196,
      "ilk": 4197,
      "flick": 4198,
      "gäst": 4199,
      "##äg": 4200,
      "los": 4201,
      "givar": 4202,
      "väst": 4203,
      "rri": 4204,
      "ött": 4205,
      "chen": 4206,
      "prä": 4207,
      "fält": 4208,
      "siell": 4209,
      "rott": 4210,
      "lti": 4211,
      "vag": 4212,
      "alisk": 4213,
      "ual": 4214,
      "årt": 4215,
      "ckan": 4216,
      "illar": 4217,
      "dis": 4218,
      "brans": 4219,
      "ffer": 4220,
      "llo": 4221,
      "unika": 4222,
      "gistr": 4223,
      "tent": 4224,
      "apan": 4225,
      "stads": 4226,
      "amm": 4227,
      "pac": 4228,
      "ther": 4229,
      "brö": 4230,
      "oxi": 4231,
      "las": 4232,
      "grå": 4233,
      "tliga": 4234,
      "bel": 4235,
      "shi": 4236,
      "non": 4237,
      "erlig": 4238,
      "ary": 4239,
      "ttn": 4240,
      "tater": 4241,
      "ntern": 4242,
      "befin": 4243,
      "back": 4244,
      "ständ": 4245,
      "tets": 4246,
      "ental": 4247,
      "koll": 4248,
      "itat": 4249,
      "bjekt": 4250,
      "llig": 4251,
      "dörr": 4252,
      "edlem": 4253,
      "cs": 4254,
      "ller": 4255,
      "sson": 4256,
      "ppet": 4257,
      "ycket": 4258,
      "19": 4259,
      "ke": 4260,
      "oin": 4261,
      "ergi": 4262,
      "aner": 4263,
      "rika": 4264,
      "nsn": 4265,
      "rder": 4266,
      "ocker": 4267,
      "arv": 4268,
      "tei": 4269,
      "ansen": 4270,
      "ymp": 4271,
      "tema": 4272,
      "eum": 4273,
      "atal": 4274,
      "ismen": 4275,
      "öra": 4276,
      "tanda": 4277,
      "ace": 4278,
      "rock": 4279,
      "cro": 4280,
      "mde": 4281,
      "nsk": 4282,
      "erter": 4283,
      "ngst": 4284,
      "ite": 4285,
      "nvis": 4286,
      "iske": 4287,
      "tik": 4288,
      "utl": 4289,
      "sion": 4290,
      "dele": 4291,
      "gramm": 4292,
      "lant": 4293,
      "xi": 4294,
      "öm": 4295,
      "mell": 4296,
      "ös": 4297,
      "##xi": 4298,
      "vert": 4299,
      "him": 4300,
      "aga": 4301,
      "pport": 4302,
      "sha": 4303,
      "äck": 4304,
      "mas": 4305,
      "älls": 4306,
      "tun": 4307,
      "nstr": 4308,
      "enten": 4309,
      "flyt": 4310,
      "ladd": 4311,
      "sul": 4312,
      "dep": 4313,
      "ega": 4314,
      "ilo": 4315,
      "nic": 4316,
      "cirk": 4317,
      "ln": 4318,
      "erk": 4319,
      "anlä": 4320,
      "odu": 4321,
      "platt": 4322,
      "obb": 4323,
      "ya": 4324,
      "lekt": 4325,
      "##ith": 4326,
      "vita": 4327,
      "sliga": 4328,
      "kast": 4329,
      "nader": 4330,
      "fånga": 4331,
      "ama": 4332,
      "tend": 4333,
      "vik": 4334,
      "arla": 4335,
      "långs": 4336,
      "gui": 4337,
      "riget": 4338,
      "tråd": 4339,
      "tänd": 4340,
      "vänt": 4341,
      "enne": 4342,
      "hall": 4343,
      "örer": 4344,
      "hjärn": 4345,
      "hamn": 4346,
      "ilket": 4347,
      "ero": 4348,
      "omin": 4349,
      "allad": 4350,
      "lags": 4351,
      "herre": 4352,
      "vla": 4353,
      "åla": 4354,
      "hotel": 4355,
      "beta": 4356,
      "serv": 4357,
      "sant": 4358,
      "akad": 4359,
      "can": 4360,
      "ds": 4361,
      "kali": 4362,
      "pol": 4363,
      "tti": 4364,
      "atten": 4365,
      "orit": 4366,
      "22": 4367,
      "äkte": 4368,
      "ansk": 4369,
      "hop": 4370,
      "inst": 4371,
      "arter": 4372,
      "olog": 4373,
      "krit": 4374,
      "vol": 4375,
      "ligt": 4376,
      "sist": 4377,
      "lls": 4378,
      "api": 4379,
      "nes": 4380,
      "hårt": 4381,
      "larna": 4382,
      "ile": 4383,
      "ium": 4384,
      "peri": 4385,
      "fier": 4386,
      "edra": 4387,
      "bära": 4388,
      "fran": 4389,
      "ale": 4390,
      "lab": 4391,
      "cho": 4392,
      "sf": 4393,
      "tret": 4394,
      "tol": 4395,
      "klare": 4396,
      "atör": 4397,
      "värm": 4398,
      "rund": 4399,
      "rop": 4400,
      "fett": 4401,
      "tle": 4402,
      "län": 4403,
      "alien": 4404,
      "avset": 4405,
      "own": 4406,
      "nha": 4407,
      "oro": 4408,
      "ög": 4409,
      "orn": 4410,
      "ndb": 4411,
      "mos": 4412,
      "esti": 4413,
      "sökan": 4414,
      "mda": 4415,
      "ästa": 4416,
      "oris": 4417,
      "jt": 4418,
      "pti": 4419,
      "troli": 4420,
      "acka": 4421,
      "lat": 4422,
      "tfö": 4423,
      "##urr": 4424,
      "mmand": 4425,
      "rst": 4426,
      "##rä": 4427,
      "ttne": 4428,
      "ova": 4429,
      "enta": 4430,
      "erv": 4431,
      "hoppa": 4432,
      "epp": 4433,
      "fta": 4434,
      "osta": 4435,
      "yra": 4436,
      "uto": 4437,
      "nan": 4438,
      "ption": 4439,
      "ordna": 4440,
      "yr": 4441,
      "num": 4442,
      "atar": 4443,
      "ric": 4444,
      "hov": 4445,
      "##zi": 4446,
      "tiska": 4447,
      "dos": 4448,
      "ead": 4449,
      "siska": 4450,
      "talie": 4451,
      "odl": 4452,
      "ide": 4453,
      "sb": 4454,
      "äd": 4455,
      "arl": 4456,
      "ändsk": 4457,
      "cu": 4458,
      "iti": 4459,
      "nni": 4460,
      "see": 4461,
      "tande": 4462,
      "soci": 4463,
      "sar": 4464,
      "ärm": 4465,
      "alk": 4466,
      "kolle": 4467,
      "lym": 4468,
      "osof": 4469,
      "testa": 4470,
      "aller": 4471,
      "alm": 4472,
      "vind": 4473,
      "lder": 4474,
      "rent": 4475,
      "igur": 4476,
      "uden": 4477,
      "erma": 4478,
      "varta": 4479,
      "dio": 4480,
      "vete": 4481,
      "infl": 4482,
      "rdig": 4483,
      "200": 4484,
      "ls": 4485,
      "dels": 4486,
      "steri": 4487,
      "cker": 4488,
      "##lan": 4489,
      "kild": 4490,
      "ndag": 4491,
      "aker": 4492,
      "##za": 4493,
      "nsad": 4494,
      "ikter": 4495,
      "ktera": 4496,
      "mäl": 4497,
      "ener": 4498,
      "erver": 4499,
      "visst": 4500,
      "inns": 4501,
      "kläd": 4502,
      "kn": 4503,
      "mning": 4504,
      "ssion": 4505,
      "cera": 4506,
      "öte": 4507,
      "terna": 4508,
      "500": 4509,
      "ael": 4510,
      "ure": 4511,
      "åda": 4512,
      "cin": 4513,
      "hål": 4514,
      "valde": 4515,
      "älte": 4516,
      "arb": 4517,
      "varar": 4518,
      "hämt": 4519,
      "dv": 4520,
      "jud": 4521,
      "nån": 4522,
      "ire": 4523,
      "iver": 4524,
      "ted": 4525,
      "äri": 4526,
      "nio": 4527,
      "nsch": 4528,
      "##ger": 4529,
      "vitt": 4530,
      "plö": 4531,
      "kön": 4532,
      "rys": 4533,
      "aha": 4534,
      "iat": 4535,
      "inder": 4536,
      "dum": 4537,
      "tav": 4538,
      "ivet": 4539,
      "rh": 4540,
      "uti": 4541,
      "gend": 4542,
      "örli": 4543,
      "rön": 4544,
      "ldra": 4545,
      "pec": 4546,
      "ami": 4547,
      "23": 4548,
      "27": 4549,
      "28": 4550,
      "ili": 4551,
      "ito": 4552,
      "fann": 4553,
      "vore": 4554,
      "nning": 4555,
      "dal": 4556,
      "zon": 4557,
      "ående": 4558,
      "öl": 4559,
      "medl": 4560,
      "minn": 4561,
      "iddag": 4562,
      "ddag": 4563,
      "ämpl": 4564,
      "ition": 4565,
      "ngo": 4566,
      "pop": 4567,
      "bets": 4568,
      "imal": 4569,
      "don": 4570,
      "yd": 4571,
      "utöv": 4572,
      "jack": 4573,
      "ies": 4574,
      "rser": 4575,
      "sland": 4576,
      "mmo": 4577,
      "ml": 4578,
      "tte": 4579,
      "fysi": 4580,
      "rome": 4581,
      "xter": 4582,
      "åverk": 4583,
      "ensi": 4584,
      "abel": 4585,
      "rame": 4586,
      "önd": 4587,
      "reat": 4588,
      "adi": 4589,
      "ister": 4590,
      "ftar": 4591,
      "ike": 4592,
      "xu": 4593,
      "inb": 4594,
      "ansa": 4595,
      "edda": 4596,
      "omar": 4597,
      "pås": 4598,
      "nge": 4599,
      "nget": 4600,
      "telse": 4601,
      "golv": 4602,
      "##ner": 4603,
      "gene": 4604,
      "ktör": 4605,
      "bur": 4606,
      "fart": 4607,
      "undan": 4608,
      "lede": 4609,
      "ime": 4610,
      "ideo": 4611,
      "uk": 4612,
      "enser": 4613,
      "ärer": 4614,
      "mått": 4615,
      "atch": 4616,
      "dog": 4617,
      "skick": 4618,
      "eran": 4619,
      "stan": 4620,
      "ient": 4621,
      "ender": 4622,
      "orum": 4623,
      "doms": 4624,
      "svär": 4625,
      "vs": 4626,
      "yss": 4627,
      "tillb": 4628,
      "ktive": 4629,
      "indi": 4630,
      "rett": 4631,
      "vald": 4632,
      "lli": 4633,
      "tär": 4634,
      "nden": 4635,
      "rick": 4636,
      "llm": 4637,
      "lyg": 4638,
      "gerar": 4639,
      "älko": 4640,
      "laner": 4641,
      "skad": 4642,
      "katt": 4643,
      "cks": 4644,
      "ani": 4645,
      "ore": 4646,
      "andel": 4647,
      "nim": 4648,
      "rdes": 4649,
      "mg": 4650,
      "ano": 4651,
      "äljer": 4652,
      "gonen": 4653,
      "70": 4654,
      "ove": 4655,
      "##uni": 4656,
      "andli": 4657,
      "mmit": 4658,
      "rnen": 4659,
      "ckor": 4660,
      "kit": 4661,
      "uff": 4662,
      "rtik": 4663,
      "##ba": 4664,
      "alist": 4665,
      "gne": 4666,
      "rj": 4667,
      "rdag": 4668,
      "tist": 4669,
      "uth": 4670,
      "mate": 4671,
      "che": 4672,
      "stern": 4673,
      "ygg": 4674,
      "länd": 4675,
      "räkn": 4676,
      "sys": 4677,
      "köpt": 4678,
      "nomi": 4679,
      "gul": 4680,
      "tron": 4681,
      "veri": 4682,
      "rou": 4683,
      "gande": 4684,
      "pan": 4685,
      "##orm": 4686,
      "örd": 4687,
      "lor": 4688,
      "rka": 4689,
      "##int": 4690,
      "mmuni": 4691,
      "sult": 4692,
      "länk": 4693,
      "oo": 4694,
      "elle": 4695,
      "neka": 4696,
      "dato": 4697,
      "nov": 4698,
      "kapet": 4699,
      "ontor": 4700,
      "ågot": 4701,
      "26": 4702,
      "itel": 4703,
      "##ho": 4704,
      "rmon": 4705,
      "rena": 4706,
      "31": 4707,
      "ema": 4708,
      "get": 4709,
      "rån": 4710,
      "uid": 4711,
      "mmun": 4712,
      "nts": 4713,
      "maski": 4714,
      "tto": 4715,
      "högst": 4716,
      "ktig": 4717,
      "läsar": 4718,
      "rets": 4719,
      "rhåll": 4720,
      "estä": 4721,
      "iali": 4722,
      "stig": 4723,
      "pänn": 4724,
      "lvis": 4725,
      "nis": 4726,
      "agand": 4727,
      "rama": 4728,
      "ebb": 4729,
      "vån": 4730,
      "lia": 4731,
      "live": 4732,
      "smen": 4733,
      "släkt": 4734,
      "xuell": 4735,
      "90": 4736,
      "kad": 4737,
      "öda": 4738,
      "##hi": 4739,
      "nsats": 4740,
      "häst": 4741,
      "grek": 4742,
      "önsk": 4743,
      "eut": 4744,
      "nska": 4745,
      "erg": 4746,
      "eru": 4747,
      "tligt": 4748,
      "kill": 4749,
      "80": 4750,
      "dge": 4751,
      "trå": 4752,
      "lob": 4753,
      "lade": 4754,
      "gåend": 4755,
      "varan": 4756,
      "mid": 4757,
      "llmän": 4758,
      "repre": 4759,
      "fint": 4760,
      "aj": 4761,
      "ugg": 4762,
      "ors": 4763,
      "rall": 4764,
      "olu": 4765,
      "vann": 4766,
      "asta": 4767,
      "hej": 4768,
      "ain": 4769,
      "lja": 4770,
      "sand": 4771,
      "kott": 4772,
      "ffic": 4773,
      "ght": 4774,
      "kå": 4775,
      "##ya": 4776,
      "tic": 4777,
      "amn": 4778,
      "rren": 4779,
      "skull": 4780,
      "36": 4781,
      "bot": 4782,
      "ous": 4783,
      "insta": 4784,
      "35": 4785,
      "bla": 4786,
      "fer": 4787,
      "ikal": 4788,
      "erä": 4789,
      "sia": 4790,
      "##ole": 4791,
      "rgani": 4792,
      "otal": 4793,
      "tår": 4794,
      "ärs": 4795,
      "anne": 4796,
      "egel": 4797,
      "ungen": 4798,
      "entr": 4799,
      "flytt": 4800,
      "alis": 4801,
      "onde": 4802,
      "annar": 4803,
      "pen": 4804,
      "za": 4805,
      "kten": 4806,
      "svi": 4807,
      "enad": 4808,
      "ere": 4809,
      "vist": 4810,
      "istan": 4811,
      "arat": 4812,
      "obl": 4813,
      "stjä": 4814,
      "örja": 4815,
      "lov": 4816,
      "nabba": 4817,
      "nsikt": 4818,
      "nform": 4819,
      "ita": 4820,
      "tsk": 4821,
      "arie": 4822,
      "ture": 4823,
      "låtar": 4824,
      "ialis": 4825,
      "ase": 4826,
      "edd": 4827,
      "ever": 4828,
      "sör": 4829,
      "arma": 4830,
      "top": 4831,
      "appar": 4832,
      "utsä": 4833,
      "oe": 4834,
      "deln": 4835,
      "drö": 4836,
      "moder": 4837,
      "sci": 4838,
      "wn": 4839,
      "igh": 4840,
      "##usi": 4841,
      "opera": 4842,
      "kter": 4843,
      "mel": 4844,
      "pare": 4845,
      "ensk": 4846,
      "real": 4847,
      "ndr": 4848,
      "reser": 4849,
      "eräkn": 4850,
      "fte": 4851,
      "ford": 4852,
      "iko": 4853,
      "oti": 4854,
      "elo": 4855,
      "ntar": 4856,
      "ument": 4857,
      "tina": 4858,
      "anmä": 4859,
      "kop": 4860,
      "nkurr": 4861,
      "uer": 4862,
      "åste": 4863,
      "imma": 4864,
      "ånge": 4865,
      "ogra": 4866,
      "nut": 4867,
      "udi": 4868,
      "lib": 4869,
      "skaps": 4870,
      "estin": 4871,
      "cd": 4872,
      "tilla": 4873,
      "arta": 4874,
      "nto": 4875,
      "##...": 4876,
      "lind": 4877,
      "kala": 4878,
      "arens": 4879,
      "känne": 4880,
      "alif": 4881,
      "essi": 4882,
      "rsk": 4883,
      "uri": 4884,
      "xis": 4885,
      "spek": 4886,
      "åh": 4887,
      "vild": 4888,
      "ansva": 4889,
      "akten": 4890,
      "iso": 4891,
      "nig": 4892,
      "##tto": 4893,
      "diska": 4894,
      "mek": 4895,
      "dati": 4896,
      "ise": 4897,
      "jet": 4898,
      "kriv": 4899,
      "sked": 4900,
      "förbi": 4901,
      "kors": 4902,
      "rval": 4903,
      "rag": 4904,
      "ynd": 4905,
      "yfte": 4906,
      "öde": 4907,
      "mment": 4908,
      "ateri": 4909,
      "lösa": 4910,
      "vant": 4911,
      "tiga": 4912,
      "ldern": 4913,
      "anni": 4914,
      "örst": 4915,
      "union": 4916,
      "rant": 4917,
      "nalen": 4918,
      "rut": 4919,
      "ux": 4920,
      "omo": 4921,
      "ane": 4922,
      "llen": 4923,
      "allti": 4924,
      "nser": 4925,
      "ppar": 4926,
      "pei": 4927,
      "ban": 4928,
      "ear": 4929,
      "nso": 4930,
      "tick": 4931,
      "miner": 4932,
      "dta": 4933,
      "gna": 4934,
      "rf": 4935,
      "eger": 4936,
      "mple": 4937,
      "öll": 4938,
      "öder": 4939,
      "eral": 4940,
      "spro": 4941,
      "vakt": 4942,
      "mode": 4943,
      "jälp": 4944,
      "ktan": 4945,
      "örstö": 4946,
      "lv": 4947,
      "tå": 4948,
      "ene": 4949,
      "inc": 4950,
      "alu": 4951,
      "aler": 4952,
      "kos": 4953,
      "etisk": 4954,
      "ance": 4955,
      "likna": 4956,
      "nerna": 4957,
      "aten": 4958,
      "ilt": 4959,
      "tch": 4960,
      "vrig": 4961,
      "skal": 4962,
      "rob": 4963,
      "olla": 4964,
      "nslut": 4965,
      "onst": 4966,
      "berör": 4967,
      "aska": 4968,
      "rera": 4969,
      "rov": 4970,
      "##du": 4971,
      "föror": 4972,
      "orr": 4973,
      "änk": 4974,
      "ratio": 4975,
      "itali": 4976,
      "byt": 4977,
      "agen": 4978,
      "olv": 4979,
      "bili": 4980,
      "ggar": 4981,
      "lje": 4982,
      "aktor": 4983,
      "45": 4984,
      "asa": 4985,
      "yft": 4986,
      "skrä": 4987,
      "ora": 4988,
      "rti": 4989,
      "förde": 4990,
      "elig": 4991,
      "artin": 4992,
      "300": 4993,
      "rp": 4994,
      "tip": 4995,
      "spar": 4996,
      "ndes": 4997,
      "vända": 4998,
      "ograf": 4999
    }
  }
}