<unk>	0
<s>	0
</s>	0
.	-3.10393
,	-3.76887
▁och	-3.83732
▁att	-3.87452
▁är	-4.13925
▁i	-4.1938
s	-4.26829
▁en	-4.3238
▁som	-4.34709
▁för	-4.3609
▁av	-4.3819
▁på	-4.63605
▁det	-4.66273
▁till	-4.77189
▁med	-4.84703
▁har	-5.00801
▁inte	-5.02582
▁den	-5.06386
en	-5.08605
▁de	-5.17291
▁du	-5.17541
▁om	-5.19066
▁ett	-5.23932
a	-5.25533
▁kan	-5.29911
t	-5.34327
-	-5.38317
▁jag	-5.4132
?	-5.47354
▁eller	-5.57324
▁Det	-5.57501
▁	-5.61811
er	-5.66267
:	-5.6698
▁från	-5.70741
▁vi	-5.78154
▁var	-5.84266
▁så	-5.87386
r	-5.89065
▁(	-5.90488
▁kommer	-5.95651
▁Jag	-6.00939
na	-6.0115
n	-6.04736
!	-6.08328
)	-6.12873
e	-6.13454
▁vara	-6.17956
▁sig	-6.19203
▁dig	-6.29913
▁"	-6.30372
▁man	-6.30529
▁han	-6.35452
▁alla	-6.35518
▁ska	-6.3676
▁när	-6.40276
▁här	-6.41595
▁också	-6.44064
▁I	-6.44575
▁Vi	-6.4532
▁finns	-6.46243
▁Den	-6.463
▁men	-6.46453
▁andra	-6.47041
et	-6.49757
ar	-6.50718
▁din	-6.51145
▁mig	-6.55382
▁över	-6.55743
▁mer	-6.55989
▁”	-6.58135
▁än	-6.5826
▁detta	-6.58535
▁–	-6.59721
▁under	-6.60851
d	-6.62127
▁mycket	-6.6241
▁-	-6.6256
▁bara	-6.63679
▁De	-6.66566
▁upp	-6.67619
▁vill	-6.68162
▁vad	-6.68835
▁år	-6.68874
▁ha	-6.68883
▁ut	-6.70161
▁dem	-6.70607
▁En	-6.70746
de	-6.71064
▁in	-6.72042
▁göra	-6.72729
▁där	-6.73125
▁sin	-6.73417
▁Men	-6.73761
▁hur	-6.80033
▁oss	-6.81882
▁efter	-6.82617
▁denna	-6.82638
▁gör	-6.83217
▁Du	-6.83973
▁Om	-6.84831
▁skulle	-6.84931
▁genom	-6.8643
▁vid	-6.88706
▁få	-6.91539
▁För	-6.91774
▁även	-6.94108
▁måste	-6.96303
▁många	-6.96711
▁får	-6.97474
▁Och	-6.97748
▁nu	-6.97835
▁hade	-6.98322
▁något	-7.00357
"	-7.00629
▁någon	-7.01796
▁min	-7.02067
▁bra	-7.03393
▁första	-7.04338
▁mot	-7.04958
▁dessa	-7.05785
▁se	-7.07172
▁ta	-7.09796
”	-7.11496
▁två	-7.12902
▁inom	-7.13519
▁sina	-7.13623
▁utan	-7.16452
▁sätt	-7.16663
▁Han	-7.16765
▁allt	-7.16975
▁Detta	-7.17727
▁hon	-7.1804
▁När	-7.18949
▁då	-7.20509
▁Hur	-7.22286
...	-7.2368
erna	-7.24341
▁bli	-7.24397
▁nya	-7.2495
▁ditt	-7.25436
▁Vad	-7.25817
▁mellan	-7.26273
▁ni	-7.26292
▁behöver	-7.26622
▁våra	-7.27751
▁olika	-7.2791
▁människor	-7.28617
▁hela	-7.30843
▁säger	-7.31889
▁barn	-7.32378
▁tid	-7.32942
▁sedan	-7.33012
▁del	-7.33149
▁dina	-7.33212
▁vår	-7.33329
▁några	-7.33758
▁deras	-7.3414
▁varje	-7.3473
▁blir	-7.39144
▁själv	-7.39293
▁skall	-7.43428
▁dag	-7.43934
▁honom	-7.45432
/	-7.47505
▁alltid	-7.47855
o	-7.491
▁vet	-7.49727
▁samma	-7.51378
▁rätt	-7.52324
;	-7.53233
▁sitt	-7.53401
i	-7.53568
▁Att	-7.55743
▁helt	-7.55985
▁liv	-7.57526
▁går	-7.58526
▁varit	-7.58579
▁vilket	-7.58823
▁hans	-7.59573
▁världen	-7.59792
).	-7.60276
▁använda	-7.60618
▁ser	-7.61106
▁1	-7.61344
▁Så	-7.6151
▁kunna	-7.61788
▁bör	-7.64231
▁bästa	-7.64846
▁gå	-7.65117
▁ger	-7.6524
▁bättre	-7.6567
▁information	-7.65706
▁annan	-7.68961
▁ge	-7.70225
▁ingen	-7.70891
▁lite	-7.71287
▁annat	-7.71379
▁2	-7.71839
re	-7.71926
▁mitt	-7.72873
▁aldrig	-7.73152
▁hos	-7.73155
ing	-7.73422
nde	-7.7368
▁mest	-7.7415
▁er	-7.75563
▁S	-7.75916
▁3	-7.76299
▁stor	-7.76634
▁ny	-7.76718
▁tre	-7.7678
▁komma	-7.77746
▁dess	-7.78273
▁flera	-7.79087
▁fram	-7.79884
▁gång	-7.80384
▁eftersom	-7.80443
▁stora	-7.80483
▁företag	-7.8115
▁A	-7.81641
▁Har	-7.81741
▁blev	-7.82186
▁Ett	-7.82443
▁Gud	-7.82516
▁tar	-7.83175
in	-7.83385
.”	-7.85269
▁verkligen	-7.85612
▁ju	-7.85641
▁tror	-7.85793
▁På	-7.86079
▁enligt	-7.86611
▁samt	-7.86882
ning	-7.8689
▁tillbaka	-7.86946
▁gäller	-7.8724
y	-7.87265
▁bort	-7.87498
arna	-7.87843
S	-7.88024
▁innan	-7.88837
▁Med	-7.89919
an	-7.90434
▁Är	-7.91061
ade	-7.92363
▁“	-7.92502
k	-7.92829
▁of	-7.92954
▁fick	-7.93135
▁kom	-7.93699
ens	-7.93868
m	-7.94127
▁Alla	-7.94319
▁kunde	-7.94684
▁kanske	-7.95515
are	-7.96984
▁Hon	-7.97419
▁fall	-7.97699
▁5	-7.98293
▁både	-7.98367
▁använder	-7.98799
▁Som	-7.98974
▁igen	-7.99677
."	-7.9976
▁säga	-7.99851
or	-8.00512
▁saker	-8.00881
▁exempel	-8.00902
▁ofta	-8.00911
▁hem	-8.01621
▁redan	-8.02233
▁personer	-8.02481
▁USA	-8.02705
▁mina	-8.03547
▁idag	-8.03609
▁dock	-8.03741
▁10	-8.03967
▁mindre	-8.04257
▁fortfarande	-8.04341
ande	-8.04463
at	-8.04515
▁tidigare	-8.04923
▁väl	-8.05954
▁ligger	-8.06148
▁Nu	-8.06162
▁grund	-8.06176
▁tillsammans	-8.06285
▁endast	-8.06325
▁väldigt	-8.06822
▁EU	-8.06899
▁vissa	-8.0702
▁spel	-8.07127
▁Här	-8.07437
▁åt	-8.07644
▁Varför	-8.07709
▁4	-8.07777
▁plats	-8.08366
ts	-8.08866
▁...	-8.09943
▁problem	-8.10181
▁hjälp	-8.10296
▁hjälpa	-8.10813
▁e	-8.11237
▁längre	-8.12103
▁Man	-8.13255
▁bland	-8.13288
▁möjligt	-8.13364
▁pengar	-8.13627
▁procent	-8.13651
▁största	-8.14184
▁ner	-8.14819
▁B	-8.14886
▁tiden	-8.15534
▁enda	-8.15697
▁artikel	-8.1671
▁därför	-8.16836
▁känner	-8.16898
▁gjort	-8.1696
▁produkter	-8.17031
”.	-8.17074
ad	-8.17159
▁skapa	-8.1746
▁vatten	-8.18586
▁vårt	-8.19122
g	-8.19295
▁henne	-8.19795
▁folk	-8.20375
▁o	-8.21391
▁används	-8.2159
▁person	-8.2169
▁E	-8.21712
▁The	-8.22126
▁hitta	-8.22402
]	-8.23481
▁flesta	-8.23719
▁dagar	-8.23802
▁egen	-8.2385
▁viktigt	-8.24305
'	-8.24342
▁gjorde	-8.24434
▁sa	-8.25071
l	-8.25146
▁kvinnor	-8.25298
D	-8.25362
es	-8.25461
),	-8.2582
▁större	-8.26066
▁visar	-8.26132
▁ord	-8.2639
B	-8.26801
▁Under	-8.26927
v	-8.27205
h	-8.27391
▁nära	-8.27985
▁Kan	-8.28026
p	-8.28069
al	-8.28252
▁C	-8.28866
▁själva	-8.29254
▁ännu	-8.29284
▁s	-8.29333
▁fler	-8.29598
▁runt	-8.30349
▁innebär	-8.30362
▁namn	-8.30745
▁fråga	-8.30775
▁vilken	-8.31244
▁livet	-8.31411
▁börjar	-8.31553
▁senaste	-8.31739
▁varför	-8.31916
▁mål	-8.32311
as	-8.32315
▁T	-8.32318
C	-8.32553
▁hennes	-8.32696
▁hålla	-8.32802
A	-8.3329
▁Dessa	-8.3424
▁enkelt	-8.34395
▁Var	-8.3457
▁fel	-8.35455
".	-8.35845
▁hög	-8.36159
▁ur	-8.362
▁älskar	-8.36549
▁fått	-8.36689
▁tycker	-8.36948
▁blivit	-8.36955
▁G	-8.36959
▁väg	-8.37289
▁erbjuder	-8.37317
▁K	-8.37344
▁hand	-8.37377
▁nästan	-8.37514
▁vilka	-8.37617
▁6	-8.38176
▁arbete	-8.38568
▁särskilt	-8.38783
▁inget	-8.38858
för	-8.3917
▁står	-8.39391
▁länge	-8.40019
▁Till	-8.4024
▁P	-8.40445
▁per	-8.40756
G	-8.40763
▁lika	-8.40905
▁senare	-8.41037
▁20	-8.41119
▁energi	-8.41414
▁länder	-8.42167
▁&	-8.4224
c	-8.42366
▁mat	-8.42421
▁direkt	-8.42474
het	-8.42667
▁Efter	-8.43054
▁icke	-8.43186
▁miljoner	-8.43524
▁gånger	-8.43568
▁Sverige	-8.43879
▁stöd	-8.43948
b	-8.4417
▁O	-8.44961
▁land	-8.45302
it	-8.45448
▁Inte	-8.45505
▁F	-8.45598
▁händer	-8.45643
Jag	-8.45772
▁a	-8.45904
▁18	-8.45995
▁000	-8.46254
▁fyra	-8.46553
▁utveckling	-8.46597
▁veta	-8.46859
▁7	-8.4691
▁data	-8.47188
K	-8.47392
▁lära	-8.47529
▁dagen	-8.47555
▁just	-8.47583
▁Även	-8.47743
▁faktiskt	-8.47745
P	-8.47814
▁[	-8.47867
▁tjänster	-8.47966
▁Se	-8.47988
▁M	-8.48302
▁gick	-8.48363
▁frågor	-8.48403
▁lätt	-8.48712
ta	-8.48934
T	-8.49817
▁sade	-8.50121
▁köpa	-8.50441
▁började	-8.50496
▁spela	-8.50541
▁nytt	-8.50957
▁form	-8.51141
man	-8.5139
▁fem	-8.51444
ex	-8.51603
▁all	-8.51671
▁stort	-8.51822
▁såg	-8.51918
▁via	-8.52778
on	-8.52814
▁dom	-8.52872
▁kort	-8.53452
▁före	-8.53547
da	-8.53621
▁8	-8.53755
iska	-8.54051
▁delar	-8.54115
▁egna	-8.54138
f	-8.54171
ra	-8.54327
▁välja	-8.54329
▁online	-8.5437
▁15	-8.54619
▁beslut	-8.54767
▁båda	-8.55227
F	-8.55451
▁vänner	-8.5553
▁H	-8.55845
▁nästa	-8.55861
▁system	-8.56084
talet	-8.56189
▁medan	-8.56196
us	-8.56226
▁Min	-8.56281
▁emot	-8.56422
▁gången	-8.56996
▁Europa	-8.57484
▁snabbt	-8.57516
om	-8.57542
▁Då	-8.57731
des	-8.57839
▁handlar	-8.58039
se	-8.58301
▁håller	-8.58664
▁the	-8.58703
▁svårt	-8.58724
▁varandra	-8.58934
▁liten	-8.59253
▁först	-8.5927
▁små	-8.59292
’	-8.59307
▁be	-8.59441
▁slut	-8.59566
▁typ	-8.59852
▁hjälper	-8.60163
▁användning	-8.60496
▁kunder	-8.60514
▁Ja	-8.60549
▁t	-8.60555
j	-8.60627
▁män	-8.60718
▁tog	-8.61221
▁arbetar	-8.61241
▁innehåller	-8.61244
▁riktigt	-8.6137
▁ytterligare	-8.61516
▁Många	-8.61607
▁and	-8.6172
I	-8.61841
▁resultat	-8.62167
▁sex	-8.62337
▁inga	-8.62484
▁30	-8.6265
▁kvar	-8.62724
▁program	-8.63356
▁början	-8.63453
▁sett	-8.63966
▁känna	-8.64092
▁året	-8.64191
▁sådana	-8.64371
▁fungerar	-8.65021
▁inklusive	-8.65191
▁precis	-8.65356
▁följande	-8.65359
▁tredje	-8.65361
▁inför	-8.65634
▁/	-8.65687
▁steg	-8.65893
▁nog	-8.66082
▁staden	-8.66274
▁Läs	-8.66374
▁sista	-8.66378
▁möjlighet	-8.66384
▁lång	-8.666
▁borde	-8.66627
▁behov	-8.66722
▁läsa	-8.66731
▁sådan	-8.66798
▁antal	-8.6696
▁betyder	-8.67087
M	-8.6718
st	-8.6724
▁miljö	-8.6738
▁Ta	-8.67441
▁D	-8.67511
▁Allt	-8.67796
▁Guds	-8.68146
▁val	-8.68192
▁L	-8.68284
▁helst	-8.68361
▁tro	-8.68379
▁Ni	-8.68652
liga	-8.6877
▁timmar	-8.69047
▁långt	-8.69086
▁kärlek	-8.69368
▁12	-8.69462
▁gillar	-8.69597
▁gamla	-8.69662
▁samtidigt	-8.69674
▁åtgärder	-8.69742
▁minst	-8.69857
▁par	-8.70087
▁sidan	-8.70097
ligt	-8.70338
▁forskning	-8.70401
▁uppgifter	-8.70671
▁haft	-8.70705
2	-8.70739
▁jobb	-8.71082
▁visa	-8.71226
▁internationella	-8.71313
▁sak	-8.71398
▁•	-8.71606
▁förstå	-8.71659
▁bok	-8.71661
Det	-8.71761
▁projekt	-8.72364
▁börja	-8.72414
▁tillgång	-8.72496
▁användas	-8.72742
is	-8.72901
▁produkt	-8.72972
▁familj	-8.73247
▁världens	-8.73328
▁verkar	-8.73703
▁bil	-8.73725
▁rum	-8.73759
▁In	-8.73762
▁vem	-8.73908
ig	-8.74274
▁högre	-8.7435
”,	-8.74572
▁Därför	-8.74754
ut	-8.74817
▁någonsin	-8.74929
te	-8.7518
▁behandling	-8.75329
ed	-8.75337
E	-8.75396
▁hus	-8.75626
▁Sedan	-8.76074
▁fanns	-8.76127
▁ganska	-8.76426
▁enlighet	-8.77226
▁bilder	-8.77279
▁såsom	-8.77806
▁Jesus	-8.77812
▁månader	-8.7802
▁tänka	-8.78125
▁vidare	-8.78149
▁Eller	-8.78699
▁förbättra	-8.78855
▁öka	-8.78913
▁sociala	-8.78945
▁fast	-8.79344
1	-8.7945
▁kallas	-8.79577
L	-8.79778
▁historia	-8.80495
ska	-8.80598
",	-8.80645
ns	-8.80712
▁alltså	-8.80762
▁verksamhet	-8.80874
▁9	-8.80981
▁Låt	-8.81462
▁huvud	-8.8165
▁landet	-8.81694
▁god	-8.81716
▁New	-8.81756
▁R	-8.81794
▁utveckla	-8.81996
▁film	-8.8205
▁kräver	-8.82156
▁resa	-8.82191
▁hemma	-8.82336
▁roll	-8.82422
▁arbeta	-8.82459
▁%	-8.82579
▁vilja	-8.82661
▁svar	-8.82771
iga	-8.83087
▁spelar	-8.83241
▁material	-8.83306
▁utanför	-8.83324
▁heller	-8.83504
▁krävs	-8.83589
el	-8.83685
▁ibland	-8.83964
▁tillräckligt	-8.83971
▁marknaden	-8.84058
▁äta	-8.84103
▁utbildning	-8.84116
▁V	-8.84268
▁minuter	-8.84287
▁musik	-8.84312
▁skriva	-8.84454
▁16	-8.84556
▁försöker	-8.84652
le	-8.85137
▁f	-8.8524
▁djur	-8.85452
N	-8.85515
▁bild	-8.85528
▁Varj	-8.8657
▁rättigheter	-8.86828
▁lag	-8.87089
ne	-8.87301
▁sagt	-8.87627
V	-8.87742
▁Vem	-8.87775
H	-8.87835
▁ändå	-8.8784
3	-8.87895
▁p	-8.87909
la	-8.88584
▁ljus	-8.88847
▁webbplats	-8.88906
▁Dessutom	-8.89144
▁leva	-8.89156
▁lämna	-8.89175
lig	-8.89281
▁b	-8.89437
▁ville	-8.89443
▁alternativ	-8.89657
sk	-8.89761
▁fortsätta	-8.903
▁vägen	-8.90442
R	-8.9048
ma	-8.90669
▁Vid	-8.90691
▁Genom	-8.90904
▁Kina	-8.90999
▁teknik	-8.91019
x	-8.91135
▁fortsätter	-8.91325
▁följa	-8.91356
▁minska	-8.91365
▁säkerhet	-8.9157
▁spelare	-8.91674
▁sida	-8.91722
Vi	-8.91744
▁Vill	-8.91799
▁ihåg	-8.91936
▁språk	-8.92016
▁bäst	-8.92035
▁snart	-8.92072
▁lägga	-8.9215
ering	-8.92171
u	-8.92218
4	-8.92423
▁Re	-8.92686
▁hel	-8.92813
▁skriver	-8.92855
▁värld	-8.92894
▁ned	-8.93182
▁Från	-8.93318
▁slutet	-8.93321
▁lever	-8.93594
▁Google	-8.93636
▁tänker	-8.9369
W	-8.93788
▁åren	-8.9388
▁vecka	-8.93898
▁k	-8.93945
▁amerikanska	-8.94058
▁kontroll	-8.94113
▁Av	-8.94236
▁pris	-8.94352
▁hälsa	-8.94368
eller	-8.94381
be	-8.9441
▁17	-8.94422
▁hittar	-8.94522
▁m	-8.94536
▁c	-8.94675
den	-8.94714
▁Ingen	-8.94997
▁säker	-8.95115
▁11	-8.95229
um	-8.95278
system	-8.9542
▁100	-8.9557
▁framför	-8.95653
▁gratis	-8.95682
▁vän	-8.95796
▁kommit	-8.96365
▁död	-8.96655
▁eget	-8.96777
▁50	-8.97147
▁viktig	-8.97204
to	-8.97304
▁risk	-8.97316
▁N	-8.97755
▁bor	-8.97761
▁bygga	-8.98043
och	-8.98134
▁mamma	-8.98183
▁hoppas	-8.98747
ton	-8.9888
▁grupp	-8.99252
▁kunskap	-8.99342
▁kroppen	-8.99666
▁extra	-8.99768
▁kvinna	-9.00192
▁25	-9.00193
▁ansvar	-9.00315
▁öppna	-9.00326
ä	-9.00405
ry	-9.0044
▁14	-9.00466
▁väljer	-9.00756
▁Be	-9.00905
▁Tack	-9.0131
▁betala	-9.01366
▁områden	-9.01388
▁ekonomiska	-9.01398
▁användare	-9.01862
▁beroende	-9.02009
▁behövs	-9.02198
▁W	-9.02446
▁typer	-9.02995
▁låg	-9.03096
▁egentligen	-9.03153
▁Europeiska	-9.03271
▁punkt	-9.03315
▁viktiga	-9.034
▁området	-9.03638
▁erfarenhet	-9.03692
ck	-9.03737
▁bakom	-9.04436
▁säkert	-9.04725
ge	-9.04839
▁istället	-9.0485
▁full	-9.05185
▁veckan	-9.05238
▁äldre	-9.05627
▁kvalitet	-9.05715
▁jorden	-9.05765
▁»	-9.05849
tal	-9.05952
▁bo	-9.06085
▁kropp	-9.06219
id	-9.06267
▁13	-9.06458
▁tillgängliga	-9.06902
▁finnas	-9.06943
▁förordning	-9.06956
▁gått	-9.07025
▁följer	-9.07028
ter	-9.0713
▁nationella	-9.07166
▁goda	-9.07674
▁frågan	-9.07744
▁Idag	-9.08015
▁fri	-9.0807
▁förstår	-9.08112
▁ute	-9.08223
▁nivå	-9.08423
är	-9.08476
▁trots	-9.08614
▁an	-9.08869
▁färg	-9.08959
▁låter	-9.0909
▁krav	-9.09105
▁närheten	-9.09322
▁läkare	-9.09511
ur	-9.09812
▁skapar	-9.09969
▁hantera	-9.10025
▁design	-9.10033
▁gott	-9.10198
▁for	-9.10203
▁månad	-9.10204
▁säkerställa	-9.1063
▁skydda	-9.10783
▁personuppgifter	-9.11195
▁leda	-9.11229
▁Tänk	-9.11281
▁ändra	-9.11285
▁Mer	-9.1137
▁gav	-9.1165
▁Vilka	-9.11837
▁ålder	-9.11973
▁viktigaste	-9.1225
▁Nästa	-9.12257
son	-9.12307
▁titta	-9.12309
▁igenom	-9.12587
▁behöva	-9.12642
▁Din	-9.12768
▁viss	-9.12784
▁framtiden	-9.1309
▁klart	-9.1329
▁platser	-9.13395
▁kraft	-9.13578
spel	-9.13693
▁tillstånd	-9.1428
▁lokala	-9.14296
▁lär	-9.14305
▁Vissa	-9.14328
▁syfte	-9.14368
▁hotell	-9.14535
▁företaget	-9.14576
(	-9.14703
00	-9.14727
▁ifrån	-9.14789
▁tio	-9.14793
▁värde	-9.14807
▁cirka	-9.14822
▁perfekt	-9.14823
▁verktyg	-9.14904
▁erbjuda	-9.14929
▁gammal	-9.15011
▁ca	-9.15061
▁veckor	-9.15204
▁års	-9.1523
▁arbets	-9.15368
▁samhället	-9.15422
▁berätta	-9.15462
▁försöka	-9.15522
com	-9.15595
▁kring	-9.15737
▁*	-9.16068
▁område	-9.16127
▁dela	-9.16275
▁studie	-9.16366
▁svenska	-9.16585
▁påverkar	-9.16834
▁människa	-9.16861
▁rör	-9.16932
▁Kanske	-9.16963
▁J	-9.16974
os	-9.16985
▁ögon	-9.17
▁Där	-9.17071
▁tagit	-9.17233
ste	-9.17354
▁Vår	-9.17523
▁liknande	-9.17547
▁vinna	-9.1758
▁stad	-9.17595
▁politiska	-9.1771
▁tur	-9.17751
ul	-9.1786
ningen	-9.17875
▁samband	-9.18154
▁service	-9.1838
▁samarbete	-9.18699
▁känns	-9.18785
▁leder	-9.18881
▁kontakt	-9.19102
▁grundläggande	-9.19128
▁högsta	-9.19132
▁sättet	-9.19154
▁dra	-9.19325
▁kommissionen	-9.19365
▁skillnad	-9.19384
▁sätta	-9.19389
▁föräldrar	-9.19533
▁g	-9.1956
isk	-9.19572
▁omkring	-9.19676
▁sjukdom	-9.19678
▁delen	-9.19832
▁råd	-9.1985
▁ungefär	-9.19961
th	-9.19982
▁låta	-9.19987
av	-9.20051
▁innehåll	-9.20186
▁sådant	-9.20204
▁mänskliga	-9.2022
igt	-9.20576
▁skolan	-9.20676
▁villkor	-9.2072
ation	-9.20771
▁åter	-9.20908
▁St	-9.20996
som	-9.21168
▁makt	-9.21216
z	-9.21299
▁oavsett	-9.21502
▁tack	-9.21513
▁höra	-9.21528
▁gärna	-9.21635
▁består	-9.21676
ism	-9.21814
▁prata	-9.21985
▁dator	-9.22089
▁nå	-9.22093
▁Hans	-9.22094
ion	-9.22284
▁sker	-9.2235
▁$	-9.22381
▁ja	-9.2239
▁intresse	-9.22451
▁närvarande	-9.22535
ja	-9.22817
▁hjärta	-9.22819
▁antalet	-9.22912
▁läkemedel	-9.2297
ia	-9.23016
▁boken	-9.23143
▁mängd	-9.23385
▁ihop	-9.23514
▁anges	-9.23672
ets	-9.23867
▁skada	-9.24323
▁favorit	-9.24354
▁regler	-9.2455
ly	-9.24772
▁stället	-9.2497
▁hör	-9.25126
▁avtal	-9.25232
▁utgör	-9.25259
ka	-9.25364
▁Kom	-9.2543
▁sen	-9.25498
▁söker	-9.25607
▁böcker	-9.25937
▁ej	-9.26255
▁europeiska	-9.26258
▁Kommer	-9.26275
ic	-9.26282
land	-9.26491
▁speciellt	-9.26621
▁möjligheter	-9.26663
▁anställda	-9.26722
▁nr	-9.26992
▁Windows	-9.27006
6	-9.27052
▁re	-9.27119
erade	-9.27166
▁barnen	-9.2721
▁känd	-9.27226
▁höga	-9.27292
▁regeringen	-9.2749
▁sluta	-9.2753
▁maj	-9.27587
▁Al	-9.28172
ell	-9.28199
O	-9.28304
▁unga	-9.28404
▁internet	-9.28411
▁dollar	-9.28412
men	-9.28567
▁tillväxt	-9.29107
▁klimat	-9.29122
▁nuvarande	-9.29134
▁Eftersom	-9.29293
▁skicka	-9.29387
▁undvika	-9.29399
▁York	-9.2941
▁liksom	-9.29413
▁patienter	-9.2944
▁engelska	-9.29561
▁dessutom	-9.29565
▁kultur	-9.29957
ie	-9.29958
▁besök	-9.30138
▁40	-9.30144
▁'	-9.30431
▁funktioner	-9.30646
▁U	-9.30656
▁spelet	-9.3066
▁rädda	-9.30858
▁rad	-9.31205
▁Finns	-9.31272
!!	-9.31453
▁nätverk	-9.31494
▁december	-9.31725
▁Storbritannien	-9.31884
ist	-9.31897
▁ingenting	-9.31901
▁24	-9.31911
▁uppnå	-9.31933
post	-9.32227
ke	-9.32314
▁låt	-9.32417
▁ledande	-9.3245
▁video	-9.32971
ningar	-9.32984
▁Facebook	-9.32988
▁ökar	-9.32989
7	-9.33228
il	-9.33264
▁era	-9.33426
▁förra	-9.33732
▁alls	-9.33773
▁högt	-9.33975
▁president	-9.34023
▁vanliga	-9.34123
▁medlemmar	-9.34178
▁fullt	-9.34216
▁visade	-9.3422
▁kund	-9.34322
▁vikt	-9.34393
▁An	-9.34448
▁talar	-9.34665
▁antingen	-9.34738
?"	-9.35197
tid	-9.35212
▁Ha	-9.35339
▁ingår	-9.35462
▁Andra	-9.35555
▁någonting	-9.35584
▁döda	-9.35588
▁direktiv	-9.35698
X	-9.35704
▁beror	-9.35774
▁son	-9.35775
tt	-9.35855
▁d	-9.35882
?”	-9.35911
ger	-9.35937
EG	-9.35981
▁to	-9.36049
▁plan	-9.36167
▁X	-9.36214
ö	-9.36218
co	-9.36346
vis	-9.36499
▁visste	-9.36511
▁lösningar	-9.36512
▁Vilken	-9.36533
▁förändringar	-9.36599
ol	-9.36642
▁Israel	-9.36688
▁studier	-9.3685
▁London	-9.36856
▁post	-9.36932
▁mars	-9.37058
ri	-9.37097
▁juni	-9.37109
▁globala	-9.37197
▁La	-9.37246
▁tala	-9.37303
▁utvecklingen	-9.37357
▁Ska	-9.37469
ce	-9.37498
▁exakt	-9.37696
▁tas	-9.37738
▁TV	-9.37753
5	-9.37765
▁visas	-9.37794
▁januari	-9.37841
ren	-9.37921
▁lista	-9.38092
–	-9.38222
▁tekniska	-9.38242
▁familjen	-9.38289
▁anser	-9.38347
▁systemet	-9.38396
▁skrev	-9.38626
▁skäl	-9.38889
▁hund	-9.38928
▁arbetet	-9.38951
▁personliga	-9.38987
▁:	-9.3902
▁lilla	-9.39026
▁skydd	-9.39083
▁glad	-9.39218
▁personal	-9.39229
▁förhållande	-9.39229
▁menar	-9.39255
▁september	-9.39346
▁funktion	-9.39481
▁dags	-9.39597
▁affärs	-9.3971
▁redo	-9.39802
▁anses	-9.39854
program	-9.39949
▁Gör	-9.40035
ga	-9.40089
▁Enlig	-9.40203
U	-9.4024
bo	-9.40241
▁Våra	-9.40389
▁tecken	-9.40452
▁anledning	-9.40591
▁blod	-9.40598
▁medlemsstaterna	-9.40606
▁ensam	-9.40634
mp	-9.40796
▁konto	-9.40846
▁hår	-9.40852
val	-9.41058
▁kr	-9.41124
▁Internet	-9.41186
lo	-9.41271
der	-9.41316
▁vare	-9.41321
▁Använd	-9.41324
▁natur	-9.41394
mo	-9.41418
▁konst	-9.41687
▁ljud	-9.41798
▁medel	-9.41819
▁21	-9.41872
▁berättar	-9.41913
▁påverka	-9.41957
▁Europaparlament	-9.42042
▁tillgänglig	-9.42198
w	-9.42239
▁namnet	-9.42243
▁lägre	-9.42283
▁stå	-9.4256
▁gemensamma	-9.42606
▁John	-9.42613
▁2018	-9.42689
▁avses	-9.42703
▁främst	-9.42787
▁Sa	-9.42791
ro	-9.42901
era	-9.42937
ik	-9.42951
▁njuta	-9.43078
▁Några	-9.43123
▁sälja	-9.43156
ty	-9.43318
▁sju	-9.43371
▁studenter	-9.43553
▁Tro	-9.43622
nings	-9.43679
▁försök	-9.4374
▁stark	-9.43746
▁vackra	-9.4377
▁säkerhets	-9.43778
▁Bara	-9.4395
▁vanligt	-9.44263
▁webbplatsen	-9.44304
▁19	-9.44329
▁—	-9.44433
▁huset	-9.44517
▁inre	-9.44618
upp	-9.44656
▁förmåga	-9.4472
gen	-9.44784
9	-9.44923
va	-9.45021
▁kontakta	-9.45062
▁organisationer	-9.45107
▁Tyskland	-9.45117
▁framtid	-9.45198
▁Finland	-9.45297
▁miljarder	-9.45333
▁standard	-9.45449
▁partner	-9.45449
▁önskar	-9.45481
▁organisation	-9.45504
▁lämnar	-9.45555
▁kända	-9.45564
▁kontrollera	-9.45608
▁trodde	-9.45611
▁blogg	-9.45652
▁förhindra	-9.45683
▁delta	-9.45695
vi	-9.45822
▁tag	-9.45869
▁kul	-9.45946
▁kör	-9.46056
▁nödvändigt	-9.46151
▁vanligtvis	-9.46158
▁Ryssland	-9.46204
▁forskare	-9.46238
▁förslag	-9.4638
▁David	-9.46546
ssystem	-9.46547
▁kommunikation	-9.46746
▁säkra	-9.46764
▁bilden	-9.46831
▁Park	-9.46916
▁Hoppas	-9.46958
kar	-9.46969
▁effektivt	-9.47005
▁filmen	-9.47036
▁Ibland	-9.47077
▁lösa	-9.47229
ve	-9.47267
▁framgång	-9.47353
▁havet	-9.47397
▁University	-9.47413
▁lägger	-9.47496
▁annorlunda	-9.47597
▁vänta	-9.47688
▁Två	-9.48039
▁ex	-9.48094
▁fungera	-9.48336
▁fokus	-9.48385
▁oktober	-9.48515
▁spännande	-9.48518
▁äter	-9.48563
▁År	-9.48682
ment	-9.48711
▁offentliga	-9.48791
▁enheter	-9.48935
▁cancer	-9.48947
ling	-9.48949
▁visat	-9.48998
▁Nya	-9.49226
▁bygger	-9.49255
var	-9.49285
▁lösning	-9.49302
▁privat	-9.49303
up	-9.49392
▁bär	-9.49408
▁snabb	-9.49468
▁FN	-9.49483
▁bidra	-9.49566
▁natt	-9.49723
▁kände	-9.49819
▁Frankrike	-9.49829
▁därmed	-9.49924
é	-9.49939
å	-9.49992
▁euro	-9.50039
▁behandla	-9.50072
▁krig	-9.5009
▁medlem	-9.50275
▁besöka	-9.50536
▁fantastiska	-9.50612
till	-9.50747
▁morgon	-9.50776
▁Över	-9.50888
▁karriär	-9.50926
▁universitet	-9.51017
▁sol	-9.51064
▁inkluderar	-9.51243
▁tidigt	-9.51373
▁km	-9.51469
▁heter	-9.51682
▁tillhandahålla	-9.51714
▁oberoende	-9.51727
▁social	-9.51756
▁lyssna	-9.51832
▁avseende	-9.51951
▁finansiella	-9.52087
▁röst	-9.52134
▁åka	-9.52176
▁2015	-9.52181
▁effekt	-9.52253
▁2017	-9.52296
▁levande	-9.52411
▁personen	-9.52535
▁tankar	-9.52826
▁träd	-9.52846
▁absolut	-9.5298
▁å	-9.53039
go	-9.53316
+	-9.53366
▁omfattande	-9.53544
▁Sen	-9.53602
rna	-9.53663
▁Ut	-9.53775
▁2016	-9.53909
▁text	-9.5394
di	-9.53982
▁webbplatser	-9.54037
▁snabbare	-9.54276
▁meter	-9.54289
▁te	-9.54323
­	-9.5444
▁jobbet	-9.54565
am	-9.54603
än	-9.54658
▁tips	-9.54673
me	-9.54814
▁Apple	-9.54821
▁Pro	-9.54861
▁stress	-9.54866
rätt	-9.54885
▁tjänst	-9.54991
▁telefon	-9.55126
▁förändring	-9.55204
▁Bra	-9.55263
▁ber	-9.55268
▁60	-9.55337
▁produktion	-9.55367
▁internationell	-9.55401
▁enbart	-9.5542
▁period	-9.55512
▁känslor	-9.55601
▁känsla	-9.55606
▁Le	-9.55688
▁al	-9.55759
▁Trots	-9.56033
▁Ge	-9.56071
▁kväll	-9.56121
▁ledare	-9.56195
▁uppdrag	-9.56206
▁22	-9.56221
▁reda	-9.5633
▁rädd	-9.56347
▁lagen	-9.56402
ch	-9.56475
▁vin	-9.56489
▁söka	-9.56554
▁samman	-9.56583
ha	-9.56657
▁metoder	-9.56662
▁produkten	-9.56727
▁bevis	-9.56736
▁enhet	-9.56895
▁tanke	-9.56931
▁köra	-9.56979
▁Fler	-9.57008
▁aktiviteter	-9.57051
▁ske	-9.57135
▁vuxna	-9.57206
▁ämnen	-9.57323
▁brukar	-9.57335
▁ställa	-9.57368
▁moderna	-9.57397
▁långa	-9.57418
▁verkliga	-9.575
▁kommande	-9.57523
▁jämfört	-9.5753
▁åtminstone	-9.57602
▁omedelbart	-9.57715
▁brott	-9.57835
▁enkla	-9.57958
ver	-9.58017
▁särskilda	-9.58116
▁:)	-9.58125
▁stanna	-9.5814
▁nyligen	-9.58218
▁bilen	-9.58429
▁transport	-9.58461
▁natten	-9.58581
▁framtida	-9.58592
▁dokument	-9.58624
▁sitter	-9.5863
sta	-9.5874
▁utvecklas	-9.5894
▁tal	-9.58964
▁borta	-9.58967
ian	-9.58985
▁hjärtat	-9.59032
▁el	-9.59073
▁köper	-9.59155
▁hälso	-9.59221
▁enkel	-9.59258
▁nämligen	-9.59432
▁programmet	-9.59443
▁växa	-9.59594
▁växer	-9.59638
op	-9.59702
▁inlägg	-9.5977
▁ekonomi	-9.5991
▁lärare	-9.59928
▁process	-9.60017
▁klass	-9.60061
else	-9.60158
▁allmänna	-9.60194
ti	-9.60268
▁övriga	-9.60289
▁köp	-9.60304
▁flyg	-9.60396
▁ständigt	-9.60419
▁känt	-9.60468
▁Stockholm	-9.60496
gg	-9.60634
itet	-9.60683
med	-9.60698
▁öppen	-9.60725
▁kallar	-9.6077
▁>	-9.60808
▁möjliga	-9.60861
ers	-9.61015
ni	-9.61023
min	-9.6116
▁hört	-9.61184
▁syn	-9.61201
▁försäljning	-9.61247
▁far	-9.61261
bi	-9.61329
▁hände	-9.61446
▁dit	-9.61463
▁träffa	-9.61519
▁idéer	-9.61523
▁pappa	-9.61604
▁Upp	-9.61707
▁november	-9.61724
▁nummer	-9.61725
▁april	-9.61732
▁fallet	-9.61734
▁satt	-9.61737
ner	-9.61747
▁utmärkt	-9.62111
▁ung	-9.62125
▁resten	-9.62146
▁starkt	-9.62292
▁tjäna	-9.62304
▁barnet	-9.62435
▁dö	-9.62501
▁uppgift	-9.6261
nas	-9.62658
▁juli	-9.62672
▁undantag	-9.62697
▁myndigheter	-9.62698
▁tänkte	-9.62731
▁litet	-9.62784
▁ges	-9.62841
▁medier	-9.62855
▁dagens	-9.63109
▁verk	-9.63203
ster	-9.63215
ndet	-9.63238
▁gett	-9.6331
▁intressant	-9.6333
▁Bo	-9.63354
▁flytta	-9.63354
10	-9.6339
▁populära	-9.6341
mat	-9.63617
▁budget	-9.63667
ör	-9.63673
erad	-9.63704
▁främja	-9.63811
▁r	-9.63865
▁Första	-9.64039
▁centrum	-9.64129
▁rekommenderar	-9.64221
företag	-9.64234
▁omfattar	-9.64256
▁lättare	-9.64415
▁börjat	-9.64614
▁uppleva	-9.64629
▁värd	-9.64647
lar	-9.64742
▁frågade	-9.64766
▁sidor	-9.64768
▁h	-9.6477
▁våld	-9.64772
ca	-9.65104
systemet	-9.65137
▁spara	-9.65168
pa	-9.65228
▁guld	-9.6523
▁team	-9.65251
▁Herren	-9.65334
▁hända	-9.65374
▁risken	-9.65523
▁passar	-9.65588
tar	-9.65599
▁tydligt	-9.65653
▁historien	-9.65654
▁Trump	-9.65813
▁Dr	-9.65853
aren	-9.65859
▁föremål	-9.65912
▁naturliga	-9.66023
▁Samtidigt	-9.66047
▁Först	-9.66225
ju	-9.66421
▁frihet	-9.66443
▁betydande	-9.66479
orna	-9.66565
▁stod	-9.66654
▁läser	-9.66677
▁Microsoft	-9.66697
▁bank	-9.66731
▁Nej	-9.66768
▁storlek	-9.66813
hi	-9.66885
▁kompetens	-9.66967
▁poäng	-9.67025
▁kallade	-9.67128
no	-9.67157
▁mannen	-9.67186
▁närmare	-9.67213
▁problemet	-9.67239
▁oftast	-9.67259
▁kläder	-9.67275
▁stödja	-9.67351
▁förlora	-9.67479
slag	-9.67785
▁sanningen	-9.67811
▁Välj	-9.67842
▁utföra	-9.67935
▁äger	-9.68032
▁priset	-9.68035
▁ovan	-9.6815
▁23	-9.68206
hus	-9.6826
em	-9.68274
bar	-9.68311
▁Jo	-9.68321
▁unika	-9.68449
▁klar	-9.68481
▁200	-9.68592
▁grupper	-9.68625
▁möta	-9.68706
▁specifika	-9.68734
▁egenskaper	-9.68813
▁jord	-9.68822
▁Skull	-9.68942
▁tv	-9.68946
▁upptäcka	-9.68959
▁vapen	-9.68992
▁forsknings	-9.69001
▁2010	-9.69121
▁avgörande	-9.69131
du	-9.69132
▁ökad	-9.69242
▁2013	-9.69322
▁luft	-9.69334
▁500	-9.69362
▁chans	-9.69375
▁smärta	-9.694
▁fordon	-9.69404
▁städer	-9.69443
▁exempelvis	-9.69456
▁väntar	-9.69535
▁resurser	-9.69586
▁?	-9.69612
▁2014	-9.69676
▁#	-9.69785
▁Mitt	-9.69878
▁analys	-9.69917
▁kyrkan	-9.69974
▁lokal	-9.70046
▁klicka	-9.70153
▁tillhör	-9.70164
▁bidrar	-9.70185
ir	-9.70187
▁Håll	-9.70189
▁nytta	-9.70281
▁resultatet	-9.70321
▁följd	-9.70409
▁samhälle	-9.70468
▁dåligt	-9.70478
do	-9.70481
▁identifiera	-9.70543
▁ordet	-9.7062
▁ställe	-9.7067
▁bilar	-9.70745
▁genomföra	-9.7078
▁stil	-9.70918
▁privata	-9.70942
▁folket	-9.70993
▁kristna	-9.71007
▁jobba	-9.71017
▁tryck	-9.71109
▁All	-9.71116
▁älska	-9.71213
▁betydelse	-9.71235
▁starta	-9.7129
▁eventuella	-9.7134
fi	-9.71355
▁fantastisk	-9.71392
▁0	-9.7142
▁sätter	-9.71505
▁naturligtvis	-9.71694
▁dog	-9.71709
▁rätta	-9.71711
by	-9.71837
▁naturen	-9.71859
▁la	-9.71897
▁saknar	-9.72013
J	-9.72013
▁digitala	-9.72089
▁inne	-9.72091
▁framåt	-9.7214
▁svarade	-9.72167
▁såväl	-9.72242
od	-9.72377
▁pratar	-9.72396
▁Hotell	-9.72416
▁svara	-9.72551
Y	-9.72604
▁kalla	-9.7267
mer	-9.72687
▁faktum	-9.72859
kom	-9.7298
30	-9.73005
▁tittar	-9.73014
▁behövde	-9.73094
▁förmodligen	-9.73103
▁medborgare	-9.73175
▁innovation	-9.73214
kort	-9.73327
pe	-9.734
▁sjukdomar	-9.73414
▁dricka	-9.73463
▁AB	-9.73504
▁personlig	-9.73516
▁förståelse	-9.73628
▁organ	-9.7371
▁nöjd	-9.73738
ier	-9.73743
lin	-9.73977
▁processen	-9.73978
skap	-9.7399
▁Tre	-9.74059
▁hot	-9.74103
▁27	-9.74188
▁tillåter	-9.74203
det	-9.74208
The	-9.74287
rum	-9.74288
▁Co	-9.74409
▁mobil	-9.74411
▁läst	-9.74441
▁bad	-9.7448
▁stoppa	-9.74515
▁vattnet	-9.7457
▁varor	-9.74571
▁kunnat	-9.74634
▁nödvändiga	-9.74645
▁nedan	-9.74653
▁San	-9.74707
▁fördelar	-9.74747
utveckling	-9.74759
tjänster	-9.74861
▁28	-9.74894
▁lån	-9.74954
produkter	-9.74994
▁on	-9.75007
ot	-9.75042
▁idé	-9.75044
▁slå	-9.75076
▁samtliga	-9.75112
▁solen	-9.75123
0	-9.75145
▁ursprungliga	-9.75298
▁International	-9.75334
▁sommar	-9.75342
▁historiska	-9.75396
▁massa	-9.75433
▁författare	-9.75478
age	-9.75524
▁svart	-9.75544
▁roligt	-9.75645
bara	-9.75724
▁situation	-9.75778
▁förstås	-9.75781
▁Ar	-9.75791
8	-9.75803
▁kaffe	-9.76019
▁korrekt	-9.76028
li	-9.76101
Den	-9.76169
▁Vilket	-9.76223
▁livsmedel	-9.76337
▁modern	-9.76421
▁Paris	-9.76493
▁trä	-9.76546
tor	-9.76554
▁alkohol	-9.76554
▁fru	-9.76636
▁totala	-9.76645
▁hänsyn	-9.76698
▁befinn	-9.7675
▁värme	-9.76807
▁test	-9.76854
▁utrustning	-9.76857
▁ton	-9.76883
▁skapat	-9.7689
▁hindra	-9.76932
▁lyckas	-9.77046
kon	-9.77069
▁fysiska	-9.77084
▁chef	-9.77117
ker	-9.77224
fall	-9.77241
▁semester	-9.77431
▁allra	-9.77511
▁träning	-9.77641
▁Japan	-9.7768
▁Mar	-9.77735
▁automatiskt	-9.77781
ko	-9.77807
▁baserat	-9.77812
▁gas	-9.77817
▁hållbar	-9.77909
▁normalt	-9.77909
▁Någon	-9.77922
▁lagar	-9.77955
▁enskilda	-9.78054
ek	-9.78106
▁åtta	-9.78138
!”	-9.78268
▁behöriga	-9.78272
▁handlingar	-9.78281
▁marknadsföring	-9.78356
▁dålig	-9.7839
▁håll	-9.78445
▁älskade	-9.7846
En	-9.78622
▁gräns	-9.78671
▁Mycket	-9.78696
▁människan	-9.78714
på	-9.78754
▁februari	-9.78932
▁uppfylla	-9.78941
▁hälften	-9.7895
▁hänt	-9.78953
▁möjligheten	-9.79059
▁starka	-9.79121
▁sport	-9.79207
▁fin	-9.79222
▁hårt	-9.79234
heten	-9.79246
io	-9.79474
▁miljön	-9.79525
▁Go	-9.79624
▁super	-9.79707
▁2012	-9.79723
▁faktorer	-9.79816
ine	-9.79821
▁projektet	-9.79844
▁vänster	-9.79875
▁slag	-9.79897
▁Oavsett	-9.79935
▁bolaget	-9.79944
ring	-9.79972
▁mening	-9.80007
▁Barn	-9.80038
▁Vårt	-9.80051
lag	-9.80115
▁Ny	-9.80181
▁politik	-9.80193
▁värt	-9.80266
▁handel	-9.80296
▁strategi	-9.80309
▁klara	-9.80389
▁No	-9.8045
▁Förutom	-9.80453
▁överallt	-9.80462
im	-9.80466
▁hemsida	-9.80481
▁anti	-9.8051
▁samtal	-9.80561
▁beteende	-9.80576
!"	-9.80715
EU	-9.80734
De	-9.80739
kt	-9.8081
▁start	-9.80997
▁förändra	-9.81088
▁fort	-9.81118
▁nätet	-9.81135
▁vård	-9.81221
▁kapital	-9.81226
▁fett	-9.81293
▁Vet	-9.81364
▁El	-9.81367
▁görs	-9.81406
▁Mac	-9.8149
▁Medan	-9.8149
▁timme	-9.81522
▁serie	-9.81554
▁Dom	-9.81583
form	-9.8159
pi	-9.81765
▁jobbar	-9.81831
▁hud	-9.81918
▁målet	-9.81957
▁regelbundet	-9.81979
tro	-9.82003
ler	-9.8201
▁handels	-9.82016
▁sant	-9.82044
isering	-9.82068
erat	-9.82071
▁ekonomisk	-9.82093
▁pro	-9.822
▁fred	-9.82328
▁uppmärksamhet	-9.82378
del	-9.82408
▁glädje	-9.82412
▁minskar	-9.82413
▁+	-9.82605
▁relationer	-9.82624
▁jul	-9.82683
▁lagstiftning	-9.82688
▁2011	-9.82705
▁vita	-9.8276
▁Italien	-9.82763
▁kvällen	-9.82776
▁allmänhet	-9.82863
▁version	-9.82885
▁dotter	-9.82899
▁metod	-9.8302
▁Lo	-9.83101
baserade	-9.83216
▁kostnader	-9.83374
▁World	-9.83563
▁National	-9.83575
▁relation	-9.83588
▁risker	-9.83627
▁sömn	-9.83676
▁glas	-9.83697
▁köpte	-9.83908
▁staten	-9.84021
▁bolag	-9.84036
ny	-9.84049
▁bestämma	-9.84059
ll	-9.84163
▁rörelse	-9.84174
▁2019	-9.84336
▁företags	-9.84355
▁kombination	-9.84361
ala	-9.84373
▁bar	-9.84374
▁vacker	-9.84386
▁Fråga	-9.84416
▁omständigheter	-9.84492
▁bära	-9.84508
▁effektiva	-9.84525
▁Spanien	-9.84599
ant	-9.84692
▁göras	-9.84696
▁misstag	-9.84752
▁[...]	-9.84874
▁26	-9.84878
▁Center	-9.84899
▁Gå	-9.84924
▁utrymme	-9.85167
sten	-9.85227
att	-9.85361
▁bidrag	-9.85444
▁berörda	-9.85446
▁orsaka	-9.85522
▁snarare	-9.85664
▁grad	-9.85729
▁besökare	-9.85741
▁lägenhet	-9.85859
▁mor	-9.86004
▁relevanta	-9.86016
ber	-9.86028
▁frågar	-9.86028
▁part	-9.86028
*	-9.86049
▁gen	-9.86103
▁igång	-9.86131
▁tillämpas	-9.86174
▁franska	-9.86221
▁aktivitet	-9.86255
▁hit	-9.86294
▁investeringar	-9.86328
ft	-9.86454
▁prova	-9.8646
▁effektiv	-9.86485
▁unionen	-9.86506
▁marknads	-9.86508
▁avsnitt	-9.86582
▁samla	-9.86632
tra	-9.86642
▁drog	-9.86707
▁halv	-9.86821
▁behålla	-9.86835
ng	-9.87072
▁blå	-9.87084
ran	-9.87085
▁brist	-9.87247
▁höll	-9.87286
▁alltför	-9.87343
För	-9.87389
▁förklara	-9.87496
▁Hotel	-9.875
▁uppfyller	-9.8755
▁äntligen	-9.8755
▁centrala	-9.87581
▁Y	-9.87616
▁nivåer	-9.87688
▁valt	-9.87764
▁intressen	-9.87794
▁främsta	-9.87817
berg	-9.87945
len	-9.88012
ten	-9.8807
▁mark	-9.88091
▁England	-9.88097
▁gällande	-9.88125
▁hittade	-9.88153
kan	-9.88169
▁rätten	-9.88239
▁ändamål	-9.88246
▁dröm	-9.88323
stad	-9.88495
▁reklam	-9.88498
▁begäran	-9.88508
▁Z	-9.88521
▁datum	-9.88598
▁perfekta	-9.8863
▁bas	-9.88659
per	-9.88745
▁bry	-9.88752
▁färdigheter	-9.8879
▁vart	-9.88794
▁kriget	-9.88824
▁priser	-9.88831
▁II	-9.8886
▁kolla	-9.88871
lu	-9.88921
▁sannolikt	-9.88965
▁vore	-9.89203
▁användningen	-9.89246
▁effekter	-9.89278
▁Å	-9.89294
ernas	-9.89353
ity	-9.89367
▁app	-9.89414
▁medarbetare	-9.89496
▁kredit	-9.89544
▁totalt	-9.89569
▁behandlas	-9.89583
▁31	-9.89605
▁syfta	-9.89635
▁Ka	-9.89645
▁ansökan	-9.89692
ken	-9.89781
▁prestanda	-9.89821
▁Mo	-9.89838
▁lämnade	-9.89928
▁kl	-9.89985
▁platsen	-9.90004
▁emellertid	-9.90036
ett	-9.90056
▁Me	-9.90072
▁världs	-9.90163
▁situationer	-9.90166
Du	-9.90197
▁af	-9.90282
Om	-9.90297
▁Kristus	-9.90318
▁alldeles	-9.90319
▁rapport	-9.90326
▁Fast	-9.90351
▁IT	-9.90357
vin	-9.90513
▁sägs	-9.90545
▁traditionella	-9.90595
▁‘	-9.90609
▁instrument	-9.90674
▁trafik	-9.90691
▁Do	-9.90721
▁uppstår	-9.90776
▁perspektiv	-9.90782
▁ty	-9.90885
▁casino	-9.90971
▁fina	-9.90985
▁öppet	-9.9113
▁WEB	-9.91198
▁förrän	-9.91209
▁visst	-9.9123
▁intresserad	-9.91297
▁individer	-9.91322
▁omfattas	-9.91333
▁föddes	-9.91343
un	-9.91417
▁augusti	-9.91445
▁officiella	-9.91544
▁amerikansk	-9.91603
▁upplevelse	-9.91717
▁City	-9.91764
▁informationen	-9.91802
▁snö	-9.91803
▁fjärde	-9.91924
▁lärt	-9.91936
▁sommaren	-9.92001
▁artikeln	-9.92012
▁rådets	-9.92037
▁respekt	-9.92142
▁drar	-9.92183
ER	-9.92269
▁Ser	-9.92341
▁kontor	-9.92346
dag	-9.92389
iv	-9.92418
▁ryska	-9.92464
▁döden	-9.92549
▁skrivit	-9.92605
▁slags	-9.92614
▁grunden	-9.92683
▁internationellt	-9.92697
▁by	-9.92743
▁unik	-9.92751
mi	-9.92767
20	-9.92818
▁nej	-9.92919
▁band	-9.92923
▁global	-9.92949
▁otroligt	-9.92959
▁finna	-9.9297
▁händelser	-9.92989
ld	-9.93036
tion	-9.93101
▁meddelande	-9.93151
▁tyska	-9.93195
▁ordförande	-9.93226
▁vinst	-9.93242
▁ses	-9.93341
▁respektive	-9.93454
▁definitivt	-9.93476
år	-9.93556
▁ladda	-9.93558
nivå	-9.93572
▁marknad	-9.93572
▁öppnar	-9.93602
▁2008	-9.9371
▁Behöver	-9.94078
▁Innan	-9.94086
▁gruppen	-9.94123
▁Ju	-9.94171
▁bestämmelser	-9.94201
▁ersättning	-9.94233
▁Få	-9.94283
yl	-9.94295
▁bio	-9.94296
▁bit	-9.94322
▁finansiering	-9.94388
ip	-9.94481
lösa	-9.94502
▁ordning	-9.9453
▁ren	-9.94603
▁människorna	-9.94605
▁etc	-9.94623
▁Island	-9.94628
lan	-9.94631
▁skapade	-9.94852
▁Bli	-9.9493
▁My	-9.94936
▁stund	-9.95072
▁allmänheten	-9.95102
▁situationen	-9.95112
▁70	-9.95172
skydd	-9.95204
▁verkligheten	-9.9521
▁fria	-9.95224
▁Utan	-9.95243
ff	-9.95279
▁ögonblick	-9.95346
&	-9.95432
▁utom	-9.95592
ley	-9.95654
▁va	-9.9572
▁brev	-9.95727
▁leverera	-9.9578
▁Indien	-9.95793
▁aktiva	-9.95801
▁himlen	-9.9581
▁därefter	-9.95843
▁utifrån	-9.95853
▁själ	-9.95903
▁(19	-9.95913
▁cookies	-9.95938
▁Q	-9.95955
▁myndigheterna	-9.95992
▁skador	-9.9605
▁slutar	-9.96053
▁massor	-9.96061
▁längs	-9.96194
▁objekt	-9.96217
▁leverans	-9.96273
ak	-9.963
▁Följ	-9.96319
▁aktiv	-9.96338
▁någonstans	-9.96388
▁Samma	-9.96423
området	-9.9643
gar	-9.96499
ord	-9.96509
▁Ca	-9.9661
▁utforska	-9.96658
▁verksamheten	-9.9666
▁äventyr	-9.96672
▁igår	-9.967
▁undrar	-9.96772
▁leverantörer	-9.96776
▁kött	-9.968
▁Li	-9.968
▁Lär	-9.96825
▁ökade	-9.96843
▁händelse	-9.96845
▁berättade	-9.96958
▁ben	-9.97003
▁filmer	-9.97029
iskt	-9.97031
▁ökat	-9.97062
▁modell	-9.97106
▁Människor	-9.97316
▁hundar	-9.97326
▁industri	-9.97337
▁familjer	-9.97347
▁fil	-9.97569
verk	-9.97721
▁frukt	-9.97756
ister	-9.97803
▁rent	-9.97806
▁handla	-9.9782
▁topp	-9.97847
ki	-9.98013
ats	-9.98019
▁utmaningar	-9.98086
▁Mina	-9.98096
▁framsteg	-9.98216
▁sjuk	-9.98218
par	-9.9822
▁gud	-9.98283
▁ansikte	-9.98317
▁ansvarig	-9.98354
▁styr	-9.98395
▁Na	-9.98437
▁Båda	-9.98496
▁2009	-9.98501
marknaden	-9.98547
▁Just	-9.98547
ba	-9.98555
▁bl	-9.98574
▁position	-9.98715
▁tänkt	-9.98717
ella	-9.98728
▁iPhone	-9.98801
▁Group	-9.98817
▁naturligt	-9.98829
▁sitta	-9.9896
ci	-9.99011
▁samhälls	-9.99068
▁valet	-9.99132
▁media	-9.99147
▁skola	-9.99178
▁erfarenheter	-9.99269
fri	-9.9927
enta	-9.9927
▁huvudet	-9.99325
ven	-9.99349
▁avstånd	-9.99385
▁identitet	-9.99445
▁förhållanden	-9.99538
net	-9.99582
▁hörde	-9.99584
▁spår	-9.99627
▁tillfälle	-9.99728
dy	-9.99779
▁möte	-9.99812
▁utvecklar	-9.99841
▁säsong	-9.99851
nar	-9.99924
▁special	-9.99978
▁bakgrund	-10.0004
▁Inget	-10.0009
▁skor	-10.0011
gång	-10.0013
▁säljer	-10.0017
▁försökte	-10.002
▁högst	-10.0021
▁former	-10.0025
mar	-10.0026
▁förlorade	-10.0029
vo	-10.0032
ong	-10.0033
▁styrka	-10.0034
▁ramen	-10.0037
▁behandlingen	-10.0043
▁fördel	-10.0044
▁byta	-10.0053
▁sinne	-10.0054
▁90	-10.0055
▁pa	-10.0062
▁uttryck	-10.0063
▁utsikt	-10.0067
▁fönster	-10.0072
▁ställer	-10.0076
ung	-10.0084
▁må	-10.0094
▁betalar	-10.0099
▁ämne	-10.0106
▁orsakar	-10.0107
▁riktiga	-10.0118
bil	-10.0126
mon	-10.0126
▁bryta	-10.0127
▁Något	-10.0128
sam	-10.0134
▁skol	-10.014
cy	-10.014
▁ögonen	-10.0146
tur	-10.015
ang	-10.0152
▁lycka	-10.0152
▁synnerhet	-10.0159
▁extremt	-10.0177
▁hundra	-10.0179
▁spelade	-10.0193
▁Dock	-10.0195
▁gemensamt	-10.0198
information	-10.0201
▁verket	-10.0201
▁polisen	-10.0206
▁Ro	-10.0206
bok	-10.0207
▁befintliga	-10.0207
▁datorn	-10.0216
▁listan	-10.0218
▁positiv	-10.022
▁Endast	-10.0224
▁färger	-10.0227
▁ön	-10.0236
▁Hade	-10.0237
sp	-10.0241
▁eld	-10.0242
▁led	-10.025
▁29	-10.0254
▁tusentals	-10.0255
▁processer	-10.0258
▁medlemsstat	-10.0265
▁medicin	-10.0267
▁relativt	-10.0268
▁vanlig	-10.0269
▁nationell	-10.0282
▁stärka	-10.0285
▁huden	-10.0293
▁skull	-10.0293
▁karaktär	-10.0293
▁skatte	-10.0294
▁boende	-10.0295
▁egendom	-10.0295
▁driva	-10.0305
▁brittiska	-10.0306
▁positiva	-10.0306
▁ledde	-10.0308
▁höger	-10.031
▁dåliga	-10.0316
teknik	-10.0317
▁däremot	-10.0319
▁omöjligt	-10.0327
▁filer	-10.0329
▁aktuella	-10.0335
▁kunskaper	-10.0346
▁foto	-10.0353
▁Car	-10.0353
▁glada	-10.0355
▁beskriver	-10.0355
®	-10.0367
▁Pa	-10.0379
▁förtroende	-10.0379
▁fält	-10.038
▁80	-10.0381
▁v	-10.0383
▁tyckte	-10.0386
▁ledning	-10.039
▁kon	-10.0398
▁offer	-10.0402
▁drömmar	-10.0402
▁använt	-10.0403
▁andel	-10.0411
▁undersökning	-10.042
▁befolkningen	-10.0421
▁läge	-10.0422
▁lämpliga	-10.0432
sson	-10.0432
▁ägg	-10.0437
▁letar	-10.044
▁Twitter	-10.0445
▁lunch	-10.0445
▁promenad	-10.0446
▁kunden	-10.045
▁taget	-10.0458
▁Peter	-10.0464
▁aktivt	-10.0464
▁studera	-10.0465
▁Saker	-10.0465
▁agera	-10.0476
▁hittills	-10.0478
▁annars	-10.0478
▁skiljer	-10.048
ab	-10.0482
▁sent	-10.0485
▁använde	-10.0487
▁investera	-10.0487
▁Företaget	-10.0492
▁fisk	-10.0509
▁värdet	-10.051
▁utför	-10.0518
▁straff	-10.0528
▁förlorar	-10.0531
▁koppla	-10.0537
▁35	-10.054
▁acceptera	-10.054
▁Dera	-10.0542
▁underhåll	-10.0551
▁förändras	-10.0557
▁Rom	-10.056
▁tider	-10.0562
▁gränser	-10.0566
▁jätte	-10.0576
▁Precis	-10.0576
▁når	-10.0577
▁upplever	-10.0579
▁plötsligt	-10.058
▁bekämpa	-10.0582
ium	-10.0585
▁300	-10.0597
ighet	-10.0598
▁fortsatt	-10.06
▁landets	-10.0604
▁överens	-10.0604
▁Australien	-10.0604
▁toppen	-10.0609
▁svarar	-10.0611
▁Sam	-10.0614
▁synd	-10.0626
▁ändringar	-10.063
▁kallad	-10.0637
▁möter	-10.0638
▁frukost	-10.0641
▁Business	-10.0642
▁producera	-10.0643
▁Wi	-10.0668
▁hopp	-10.0681
▁kurs	-10.0685
▁särskild	-10.0688
▁fysisk	-10.071
▁väder	-10.0712
▁faller	-10.0714
konto	-10.0716
erar	-10.0717
und	-10.0719
▁morgonen	-10.072
▁dör	-10.0722
je	-10.0726
▁parter	-10.0726
▁undersöka	-10.0729
▁förutom	-10.0731
▁negativa	-10.0732
▁regering	-10.0739
▁bestämmer	-10.0741
▁förlust	-10.0743
▁tillgångar	-10.0743
▁dagliga	-10.0748
▁senast	-10.0753
▁pre	-10.0753
▁linje	-10.0754
▁kost	-10.0755
▁skillnaden	-10.0755
▁Får	-10.0758
▁svåra	-10.0761
▁köpt	-10.0767
sprogram	-10.0774
▁unionens	-10.0779
▁växande	-10.0784
▁pengarna	-10.0785
▁professionella	-10.0786
▁vann	-10.0792
han	-10.0794
▁sjukhus	-10.0794
dom	-10.0798
▁lager	-10.0798
▁maskin	-10.0806
▁Visst	-10.0807
▁Bi	-10.0807
ac	-10.0817
▁förlorat	-10.0823
grupper	-10.0832
▁’	-10.084
▁speciell	-10.0843
▁sten	-10.0862
and	-10.0863
▁tjänar	-10.0864
▁befolkning	-10.0866
över	-10.0868
▁svår	-10.0868
▁tvungen	-10.0876
▁fantastiskt	-10.0876
12	-10.0876
▁Maria	-10.0878
▁finner	-10.0879
▁minns	-10.088
▁kommentarer	-10.0884
▁Am	-10.0886
▁grundades	-10.0888
▁ökning	-10.0893
▁förut	-10.0898
▁planerar	-10.09
plan	-10.09
Måste	-10.0902
[	-10.0903
▁=	-10.0903
sätt	-10.0906
▁kung	-10.0908
▁utnyttja	-10.0913
▁plast	-10.0916
▁Inga	-10.092
▁ont	-10.0921
▁kol	-10.0923
▁fokusera	-10.0929
▁hjärnan	-10.0935
▁ändras	-10.0938
▁Hem	-10.0941
▁Tidigare	-10.0943
▁mitten	-10.0944
▁tjej	-10.0944
▁stranden	-10.0945
▁allmänt	-10.0951
▁tåg	-10.0954
▁webb	-10.0957
▁äktenskap	-10.0959
▁Hela	-10.0959
▁Bar	-10.0963
▁drift	-10.0965
▁ursprung	-10.0972
▁undan	-10.0973
▁företagets	-10.0974
▁ert	-10.0975
▁Ty	-10.0978
▁tillhandahåller	-10.0979
▁testa	-10.0979
ans	-10.0981
▁Bland	-10.0984
▁bygg	-10.0985
▁2005	-10.0986
▁offentlig	-10.0989
25	-10.0989
▁Bästa	-10.0996
▁iväg	-10.1002
ill	-10.1007
▁handling	-10.1007
▁betydligt	-10.1011
11	-10.1016
▁skaffa	-10.1017
▁förväntas	-10.1017
lös	-10.102
▁dörren	-10.1044
▁fakta	-10.1045
▁åker	-10.1046
▁rekommendation	-10.1047
▁rik	-10.105
industrin	-10.1059
▁To	-10.1065
sch	-10.1072
▁dagarna	-10.1075
▁Robert	-10.1079
▁Con	-10.1081
▁självklart	-10.1084
lighet	-10.1085
▁godkännande	-10.1089
ho	-10.109
▁Inom	-10.1093
▁rummet	-10.1096
▁deltagare	-10.1096
▁Bank	-10.11
▁vars	-10.1112
▁Paul	-10.1112
wa	-10.1117
mm	-10.1119
▁vetenskap	-10.1125
▁speciella	-10.1132
▁leta	-10.1137
ron	-10.1142
▁stat	-10.1147
▁värre	-10.1148
▁match	-10.115
▁socker	-10.1151
▁värsta	-10.1156
▁besöker	-10.1156
▁svarta	-10.1159
▁potentiella	-10.1161
ern	-10.1165
▁kinesiska	-10.1168
▁Ad	-10.1179
40	-10.118
▁domstolen	-10.1188
▁vanligaste	-10.1188
▁2004	-10.1188
▁föredrar	-10.119
▁innehållet	-10.1194
så	-10.1204
▁innehålla	-10.1207
▁Därefter	-10.1218
▁beaktande	-10.122
▁He	-10.1222
▁verklighet	-10.1223
▁bedömning	-10.1224
▁familje	-10.1224
▁fan	-10.1232
▁säsongen	-10.1235
▁rådet	-10.1241
▁Di	-10.1251
▁Mat	-10.1252
▁katt	-10.1256
▁mg	-10.1262
▁mänskligheten	-10.1264
▁pass	-10.1267
▁kommentar	-10.1267
▁sova	-10.1269
▁engagemang	-10.127
▁Afrika	-10.1275
▁riktning	-10.1276
▁snabba	-10.128
▁Folk	-10.1283
▁hittat	-10.1284
▁mil	-10.1286
▁ersätta	-10.1287
▁James	-10.1289
▁Istället	-10.129
▁kronor	-10.129
▁trött	-10.1299
▁valuta	-10.1301
▁sträck	-10.1305
▁finans	-10.1308
▁helhet	-10.1309
▁skickar	-10.1322
▁södra	-10.1323
▁Tyvärr	-10.1324
▁Norge	-10.1324
▁sekunder	-10.1332
▁Börja	-10.1334
▁lämplig	-10.134
▁röda	-10.1342
▁vidta	-10.1346
log	-10.1347
▁Hitta	-10.1347
▁digital	-10.1349
sh	-10.135
▁tillämpa	-10.136
▁Ditt	-10.136
▁gröna	-10.1367
▁tusen	-10.1368
▁samlar	-10.1369
▁ting	-10.1371
▁kunderna	-10.1374
%	-10.1377
väg	-10.1379
▁bränsle	-10.1382
▁Super	-10.1384
▁smak	-10.1388
▁stolt	-10.1389
▁motsvarande	-10.1394
▁paket	-10.1399
▁vetenskapliga	-10.1399
▁minne	-10.1402
▁fritt	-10.1403
▁laget	-10.1403
▁myndigheten	-10.1406
tiska	-10.1412
▁bi	-10.1419
▁allvarliga	-10.1421
▁förbi	-10.1428
▁total	-10.1429
▁mera	-10.1431
behandling	-10.1432
▁Restauranger	-10.1438
he	-10.1438
ator	-10.1438
ep	-10.1441
▁sikt	-10.1446
▁behandlar	-10.1457
▁bruk	-10.1462
programmet	-10.1474
▁stöder	-10.1475
led	-10.1476
mål	-10.1477
▁lön	-10.1488
▁nyheter	-10.1488
▁reser	-10.1492
▁låga	-10.1494
ance	-10.1494
▁tyvärr	-10.1501
ades	-10.1501
sprocessen	-10.1502
▁resan	-10.1512
▁närmaste	-10.1514
▁kapacitet	-10.1521
▁budskap	-10.1524
▁ända	-10.1533
▁2020	-10.1536
▁Ga	-10.1536
▁Kanada	-10.1538
▁svensk	-10.1539
gi	-10.1546
▁avser	-10.1548
▁n	-10.1556
▁uttalande	-10.1559
▁begränsad	-10.1559
▁marken	-10.1561
▁plattform	-10.1562
▁radio	-10.1563
▁allting	-10.1572
▁Er	-10.1573
▁medveten	-10.1573
▁förklarar	-10.1574
▁fylla	-10.1576
▁planer	-10.1578
▁prov	-10.1581
▁princip	-10.1588
▁Fa	-10.1589
ey	-10.1594
▁studien	-10.1601
▁förbereda	-10.1605
vatten	-10.1608
▁Su	-10.1609
▁utsträckning	-10.1609
▁dating	-10.1612
gruppen	-10.1625
▁djup	-10.1626
▁So	-10.1629
kontroll	-10.1634
▁häst	-10.1639
▁integritet	-10.1643
▁Skapa	-10.1646
▁gäster	-10.1646
▁Post	-10.1646
▁öl	-10.1649
si	-10.165
▁militär	-10.166
▁sanning	-10.1661
▁Själv	-10.1667
▁mängder	-10.1671
▁2000	-10.1673
▁Klicka	-10.1682
grupp	-10.1684
ud	-10.1689
▁lämpligt	-10.1694
▁artiklar	-10.1702
▁vända	-10.1709
▁Obama	-10.1718
▁Välkommen	-10.1719
▁tydlig	-10.172
▁bonus	-10.1728
▁fängelse	-10.174
▁delvis	-10.1742
▁evenemang	-10.1743
▁spendera	-10.1745
▁di	-10.1746
▁ställning	-10.1747
▁domstol	-10.1748
gel	-10.1749
▁mesta	-10.1756
▁experter	-10.1762
stöd	-10.1762
▁ö	-10.1771
stat	-10.1774
▁svaret	-10.1777
▁inkomst	-10.1779
▁Iran	-10.1779
▁Ne	-10.1779
▁polis	-10.1781
bolag	-10.1781
▁Si	-10.1781
vid	-10.1782
▁kod	-10.1783
rar	-10.1787
▁startade	-10.1788
60	-10.179
▁läs	-10.181
▁parti	-10.1816
▁anpassa	-10.1825
ting	-10.1826
▁glömma	-10.183
▁upprätthålla	-10.1832
▁restauranger	-10.1832
▁varken	-10.1833
▁född	-10.1836
▁medicinska	-10.1838
▁lita	-10.1842
▁fånga	-10.1846
▁Visa	-10.1846
▁live	-10.1848
▁belopp	-10.1863
▁hänvisa	-10.1866
ismen	-10.1874
produktion	-10.1874
kraft	-10.1875
▁varmt	-10.1878
▁talade	-10.1878
▁utbyte	-10.1882
▁struktur	-10.1887
▁ras	-10.1895
tiden	-10.1895
▁kostar	-10.1897
▁sällan	-10.1904
▁enklare	-10.1912
est	-10.1913
▁undervisning	-10.1917
▁öde	-10.1928
▁gemensam	-10.1933
▁allmän	-10.1937
ras	-10.1939
▁Syrien	-10.1941
ina	-10.1943
ok	-10.1946
▁träna	-10.1951
▁religion	-10.1954
au	-10.1955
▁bror	-10.1961
▁ägare	-10.1973
▁valde	-10.1973
▁nät	-10.1977
aste	-10.1979
▁heliga	-10.1988
▁driver	-10.199
▁erbjuds	-10.1994
▁45	-10.1997
ika	-10.2007
▁resultaten	-10.2019
▁Lägg	-10.2019
▁Syftet	-10.2021
▁Tom	-10.2024
▁medlemsstater	-10.2026
▁underlätta	-10.2027
▁djupt	-10.2028
met	-10.2032
▁närvaro	-10.2036
▁stats	-10.2038
▁Android	-10.2054
▁Danmark	-10.2055
▁efterfrågan	-10.2059
▁Försök	-10.2059
▁skickas	-10.2059
▁2007	-10.2064
▁ekonomin	-10.2066
▁2003	-10.2075
pp	-10.2081
▁Ben	-10.2082
▁kvinnan	-10.2084
arbete	-10.2092
▁[+]	-10.2092
▁huruvida	-10.2094
▁Hjälp	-10.2095
band	-10.2098
nad	-10.2098
▁räkna	-10.2102
▁co	-10.2102
Vad	-10.2106
▁ungdomar	-10.2106
▁rättvisa	-10.2106
▁Pre	-10.2112
▁tidiga	-10.2116
▁chansen	-10.2119
lä	-10.212
▁Red	-10.2121
▁källor	-10.2122
▁Fri	-10.2126
▁regionen	-10.2127
▁Bitcoin	-10.2131
▁Casino	-10.2133
uk	-10.214
▁bilaga	-10.2146
▁vinner	-10.2146
▁varumärke	-10.2154
▁minsta	-10.2155
▁fortsatte	-10.2157
▁l	-10.2159
▁konkurrens	-10.2162
▁nio	-10.2163
▁ekonomiskt	-10.2163
▁ansluta	-10.2165
▁kraven	-10.2166
▁brett	-10.2169
tan	-10.2169
50	-10.2176
sidan	-10.2182
akt	-10.2185
▁professionell	-10.2188
▁politisk	-10.2192
▁kamp	-10.2194
▁mäta	-10.2197
▁utbud	-10.2203
▁detaljer	-10.2206
▁Online	-10.2208
▁byggnader	-10.2209
▁ställen	-10.221
▁baserad	-10.2214
▁samtycke	-10.2218
▁depression	-10.2221
we	-10.2225
▁produktions	-10.2227
bb	-10.2227
▁resultera	-10.2229
▁tillgängligt	-10.2235
▁middag	-10.224
san	-10.2241
▁affärer	-10.2242
▁räcker	-10.2246
▁yngre	-10.2246
▁föregående	-10.2248
▁motsvarar	-10.225
▁le	-10.2252
▁mjölk	-10.2255
▁ansvarar	-10.2258
▁innovativa	-10.2264
▁order	-10.2266
▁versionen	-10.2273
▁dagligen	-10.2273
▁underbara	-10.2276
▁fint	-10.2277
▁Val	-10.2279
pen	-10.2282
▁lämnat	-10.2284
▁länderna	-10.2288
▁drag	-10.2293
▁fann	-10.2293
▁användaren	-10.2295
▁anta	-10.23
▁lagt	-10.2302
▁rättsliga	-10.2309
▁relevant	-10.2311
▁perioden	-10.2316
▁överleva	-10.2321
▁Turkiet	-10.2324
▁Israels	-10.2325
▁Black	-10.2325
▁berg	-10.2335
all	-10.2335
▁Hej	-10.2335
▁programvara	-10.234
▁Dess	-10.2344
▁planet	-10.235
▁företagen	-10.2358
▁Skriv	-10.2363
▁Michael	-10.2364
▁oro	-10.2365
Z	-10.2366
▁övrigt	-10.237
ret	-10.2374
▁skuld	-10.2375
▁Sveriges	-10.2376
▁Sådan	-10.2376
▁x	-10.2381
▁lugn	-10.2391
ay	-10.2393
▁Or	-10.2394
port	-10.2407
▁Del	-10.2417
▁avancerade	-10.2417
▁förtjänar	-10.2417
▁användar	-10.2418
▁framgångsrika	-10.2421
▁status	-10.2422
▁röra	-10.2435
▁tekniker	-10.2437
▁utvecklats	-10.244
▁🙂	-10.2441
▁rekommendera	-10.2445
▁Martin	-10.2447
▁fot	-10.2449
tin	-10.245
▁aktier	-10.2451
▁restaurang	-10.2453
projekt	-10.2453
gående	-10.2453
▁fira	-10.2457
▁Star	-10.247
andet	-10.2471
▁adress	-10.2476
▁utmaning	-10.2478
▁support	-10.2479
▁sist	-10.248
▁hotellet	-10.248
▁förutsättningar	-10.2481
▁yttre	-10.2481
▁Global	-10.2483
▁sp	-10.2489
▁Da	-10.2491
ström	-10.2496
▁skatt	-10.2497
▁Home	-10.2497
▁positivt	-10.2501
▁grader	-10.2505
▁miljon	-10.2505
van	-10.2509
▁reaktion	-10.2511
▁betalning	-10.2512
▁fiske	-10.2513
anska	-10.2515
▁orsaken	-10.253
▁kommunicera	-10.2532
▁starkare	-10.2535
ov	-10.254
▁diskutera	-10.2542
▁Mark	-10.2544
▁elever	-10.2545
▁utsläpp	-10.2551
▁oroa	-10.2552
▁mode	-10.2555
ps	-10.256
▁Alltså	-10.2562
▁guide	-10.2564
namn	-10.2569
▁rädsla	-10.2574
▁anslutning	-10.2587
▁flygplats	-10.2591
▁balans	-10.2595
▁fokuserar	-10.2602
problem	-10.2602
▁2006	-10.2604
▁Bibeln	-10.2604
▁möten	-10.2607
out	-10.2608
kor	-10.2612
▁tillverkning	-10.2614
▁organisationen	-10.2616
▁regn	-10.2618
▁ljuset	-10.2619
▁mån	-10.2632
▁kontrakt	-10.2633
▁slog	-10.264
▁lider	-10.2641
▁resor	-10.2641
▁välkomna	-10.2644
▁desto	-10.2644
▁syster	-10.2645
▁kön	-10.2647
▁tyst	-10.2649
▁övervakning	-10.2651
▁Ko	-10.2652
säkerhet	-10.2654
▁berömda	-10.2659
▁initiativ	-10.266
▁lösningen	-10.266
▁säng	-10.2663
▁växt	-10.2666
▁fartyg	-10.267
▁Chi	-10.2673
▁Amerika	-10.268
▁sprida	-10.2681
let	-10.2685
▁gift	-10.2687
▁korta	-10.2688
▁åtkomst	-10.269
▁art	-10.2691
▁hyra	-10.2693
▁vägar	-10.2693
▁Lu	-10.2693
▁spanska	-10.2695
▁knappt	-10.2704
material	-10.2707
gu	-10.2714
fin	-10.2715
▁behovet	-10.2718
▁berättelse	-10.2719
▁stål	-10.2719
▁Både	-10.2721
▁inflytande	-10.2722
▁lyckades	-10.2725
▁Design	-10.2727
▁slår	-10.2728
▁Hennes	-10.2731
▁arv	-10.2734
▁uppfattning	-10.2737
▁villkoren	-10.2737
▁juridiska	-10.2744
▁st	-10.2754
▁eleverna	-10.2756
▁nåt	-10.2758
▁norra	-10.2758
▁utseende	-10.2761
▁dans	-10.2762
▁förekommer	-10.2763
▁bestämt	-10.2767
19	-10.2768
▁Per	-10.277
branschen	-10.2772
ah	-10.2773
▁central	-10.2777
▁metall	-10.2786
▁gifta	-10.2793
▁gjorts	-10.2797
▁IP	-10.2799
▁livsstil	-10.2804
▁modeller	-10.2804
▁arter	-10.2807
▁deltagande	-10.2815
eri	-10.2819
bild	-10.2822
världen	-10.2829
▁me	-10.2835
▁utomhus	-10.2836
▁yrkes	-10.2836
▁tillägg	-10.2837
▁Anna	-10.2838
▁följde	-10.2841
▁gemenskapen	-10.2844
▁olje	-10.2844
▁tillämpning	-10.2847
bra	-10.285
▁äkta	-10.2852
ställ	-10.2852
▁livs	-10.2853
ies	-10.2857
▁fullständig	-10.2861
▁registrering	-10.2868
▁Kommissionen	-10.2871
▁element	-10.2874
▁beskrivs	-10.2876
▁regel	-10.2877
▁utvecklings	-10.2882
▁illa	-10.2885
▁läste	-10.2889
▁fullständigt	-10.2891
pris	-10.2891
▁Office	-10.2893
▁lyssnar	-10.2896
▁investerare	-10.2898
EN	-10.29
▁student	-10.2904
▁Bilder	-10.2906
▁Management	-10.2913
åriga	-10.2914
18	-10.2915
▁olja	-10.2923
▁nyckel	-10.2923
▁månaden	-10.2923
▁lärande	-10.2924
▁Tillsammans	-10.2926
▁passion	-10.2929
▁mun	-10.2931
▁lidande	-10.2934
▁föreslår	-10.2937
▁Känner	-10.2938
▁professor	-10.2939
▁mönster	-10.2942
▁!	-10.2944
▁Kolla	-10.2946
▁informera	-10.2949
▁globalt	-10.2953
▁funnits	-10.2966
▁äldsta	-10.2968
▁Ra	-10.2971
▁stänga	-10.2974
ings	-10.298
data	-10.298
▁avtalet	-10.298
▁principer	-10.2982
▁vila	-10.2983
▁cykel	-10.2983
▁fotboll	-10.2985
områden	-10.2988
▁viktigare	-10.2997
▁ringa	-10.3003
▁ursäkt	-10.3009
▁invånare	-10.3009
▁George	-10.3013
▁begär	-10.3013
▁sam	-10.3017
▁Egypten	-10.302
▁insatser	-10.3028
liv	-10.3028
▁rekommenderas	-10.3031
▁fastställa	-10.3033
▁normala	-10.3035
nen	-10.3045
▁marknader	-10.3046
▁släppa	-10.3046
▁definiera	-10.305
▁reglerna	-10.3051
▁förflutna	-10.3051
▁Asien	-10.3051
▁lärde	-10.3055
▁skönhet	-10.3064
▁tjänste	-10.3066
▁mängden	-10.3067
▁flickor	-10.3069
»	-10.3081
▁hinder	-10.3093
▁denne	-10.3096
▁poker	-10.3099
▁avgöra	-10.3099
▁arbetat	-10.3102
ys	-10.3109
▁mikro	-10.3113
▁tillfällen	-10.3118
▁tron	-10.3125
▁infrastruktur	-10.3127
▁album	-10.3127
slut	-10.3127
▁tanken	-10.3136
ins	-10.3136
one	-10.314
▁hämta	-10.3144
▁länk	-10.3149
ap	-10.3149
▁patienten	-10.3149
▁kvinnliga	-10.3156
▁fatta	-10.3162
tjänst	-10.3162
▁räknas	-10.3163
▁utöva	-10.3163
äck	-10.3165
▁basera	-10.3172
hem	-10.3173
▁400	-10.3173
▁händerna	-10.3174
▁Washington	-10.3178
▁hemmet	-10.3186
hand	-10.3194
▁2001	-10.3205
tryck	-10.321
▁Ri	-10.3211
▁vinter	-10.3212
ris	-10.3214
▁West	-10.3216
▁Ofta	-10.3223
▁således	-10.3223
far	-10.3226
▁samlas	-10.3233
nummer	-10.3239
gas	-10.324
▁statistik	-10.3246
▁riktig	-10.3246
▁rena	-10.325
▁sammanhang	-10.3251
za	-10.3251
▁teknisk	-10.3253
▁pågår	-10.3254
▁vuxen	-10.3263
▁tjänsten	-10.3265
▁produktionen	-10.3267
▁plus	-10.3268
▁ange	-10.3268
▁brand	-10.3273
▁sjukdomen	-10.3275
nes	-10.3276
▁arbetade	-10.3277
▁klockan	-10.3277
bart	-10.3286
▁hållbarhet	-10.3289
▁erbjudanden	-10.329
ham	-10.3298
▁allvarligt	-10.3299
▁intresserade	-10.33
▁påverkas	-10.3307
▁Ho	-10.3307
▁kapitel	-10.3307
24	-10.331
hantering	-10.3311
▁stan	-10.3313
▁Master	-10.3313
▁noga	-10.3324
RA	-10.3327
!!!	-10.3328
▁(1	-10.333
▁lämnas	-10.3331
pan	-10.3331
▁patient	-10.3337
▁gälla	-10.3345
▁tenderar	-10.3349
▁stads	-10.3349
nu	-10.3352
▁jämförelse	-10.3359
▁hjärt	-10.3363
plats	-10.3367
▁avgift	-10.337
▁papper	-10.3372
▁kämpar	-10.3378
▁my	-10.3378
▁or	-10.3383
▁nödvändig	-10.3384
▁förvänta	-10.3386
istiska	-10.3387
hy	-10.3395
▁medvetna	-10.3399
▁hatar	-10.3401
▁Tid	-10.3402
vård	-10.3403
▁spelaren	-10.3404
ari	-10.3404
▁symtom	-10.3422
drag	-10.3423
▁skolor	-10.3424
▁separat	-10.3426
▁miss	-10.3428
▁startar	-10.3428
▁Lite	-10.3429
yn	-10.3438
▁temperatur	-10.3441
▁normal	-10.3453
▁satte	-10.3458
▁begränsa	-10.346
▁Europas	-10.3463
▁potential	-10.347
▁bak	-10.3473
▁ligga	-10.3475
ingen	-10.3475
▁hål	-10.3479
▁fas	-10.3481
▁verklig	-10.3485
▁myndighet	-10.3486
▁beslutet	-10.3486
▁Älskar	-10.3487
▁Herre	-10.3489
▁diabetes	-10.349
▁bedöma	-10.3492
▁datorer	-10.3496
▁överföring	-10.351
▁urval	-10.3514
▁avsedda	-10.3516
▁utomlands	-10.3524
▁återställa	-10.3526
_	-10.3531
▁söt	-10.354
▁kille	-10.3544
▁kommersiella	-10.3547
▁förväg	-10.3549
leverantörer	-10.3555
ug	-10.3556
▁serien	-10.3559
▁Grekland	-10.3568
▁School	-10.3568
▁övergripande	-10.357
▁avgifter	-10.3573
▁åsikter	-10.3574
▁roliga	-10.3575
▁svårare	-10.3578
ph	-10.3578
▁hjärtan	-10.358
När	-10.3582
▁enheten	-10.3589
▁årets	-10.3591
▁makten	-10.3591
▁varm	-10.3595
▁praktiska	-10.3599
▁kräva	-10.3601
▁analysera	-10.3601
sin	-10.3602
▁relaterade	-10.3603
▁växter	-10.3608
▁delas	-10.3608
▁förstöra	-10.3612
▁konkurrenskraft	-10.3613
▁täcker	-10.3617
▁politiker	-10.3617
mma	-10.3619
▁känslan	-10.362
▁dubbel	-10.3634
▁förväntar	-10.364
red	-10.3643
▁ämnet	-10.3644
▁symptom	-10.3644
▁Glöm	-10.3645
ax	-10.3648
▁överväga	-10.3649
ram	-10.3652
▁islam	-10.3659
▁Irak	-10.3659
▁konsument	-10.3661
▁lyckats	-10.3661
▁drygt	-10.3662
▁Air	-10.3663
▁säkerheten	-10.367
▁flicka	-10.3671
ros	-10.3672
▁mångfald	-10.3676
▁mm	-10.3678
▁människors	-10.3679
▁förfaranden	-10.3688
▁Ba	-10.3689
▁källa	-10.3692
ard	-10.3699
▁inspiration	-10.3699
▁universum	-10.3701
▁försvinner	-10.3701
▁okej	-10.3701
▁världskriget	-10.3704
▁möjliggör	-10.3706
▁trädgård	-10.3708
▁kurser	-10.3718
▁Tur	-10.3718
▁motstånd	-10.3721
▁licens	-10.3724
▁varierar	-10.3724
▁at	-10.3726
▁erkänna	-10.3728
▁populär	-10.3744
▁→	-10.3746
kr	-10.3748
▁inverkan	-10.375
wi	-10.3758
▁examen	-10.3759
▁växte	-10.3759
▁begära	-10.3761
huset	-10.3762
klass	-10.3765
eras	-10.3765
Han	-10.3767
▁tillverkare	-10.3767
▁diet	-10.3769
▁betraktas	-10.3771
▁kasta	-10.3772
▁onda	-10.3775
löst	-10.3775
▁sanna	-10.3777
▁saknas	-10.3782
▁länkar	-10.3784
▁protein	-10.379
▁tacksam	-10.3796
resa	-10.3796
bas	-10.3796
▁gemenskap	-10.3798
▁Jack	-10.3799
▁hävdar	-10.3801
▁bestämde	-10.3802
▁slutade	-10.3804
▁användes	-10.3806
dan	-10.3814
▁Information	-10.3819
▁stater	-10.382
▁religiösa	-10.382
▁demokrati	-10.3821
eg	-10.3822
▁upptäckt	-10.3824
dagen	-10.3824
▁vision	-10.3824
▁höjd	-10.3829
▁effektivitet	-10.3832
▁kilometer	-10.3836
▁spelarna	-10.3836
▁North	-10.3837
▁Föregående	-10.3839
rad	-10.3841
▁minut	-10.3842
▁fördelarna	-10.3844
ski	-10.3845
▁Data	-10.3845
▁samarbeta	-10.3846
ct	-10.3848
▁båt	-10.3852
▁Euro	-10.3858
sida	-10.3858
▁utländska	-10.3862
▁installera	-10.3863
▁mötet	-10.3874
▁aspekter	-10.3876
bit	-10.3889
tiv	-10.3893
▁minskning	-10.3894
ub	-10.3895
▁policy	-10.3896
▁bekväm	-10.3898
▁militära	-10.3898
▁flyttade	-10.39
▁32	-10.3902
▁go	-10.3902
▁riktlinjer	-10.3905
▁övervaka	-10.3907
▁150	-10.3907
▁botten	-10.3913
▁kostnad	-10.3916
rör	-10.3918
mor	-10.3923
▁mår	-10.3924
▁noggrant	-10.3927
▁Dina	-10.3928
▁100%	-10.393
▁vistelse	-10.3932
▁uppmanar	-10.3935
▁födelsedag	-10.3936
▁PC	-10.3942
▁representerar	-10.3945
▁underbar	-10.3947
▁klarar	-10.3947
▁ledarskap	-10.395
▁Huvud	-10.3958
▁tidpunkt	-10.3959
typ	-10.3964
▁ro	-10.3967
▁luften	-10.3968
värde	-10.397
▁sovrum	-10.3973
handel	-10.3975
▁Åh	-10.3976
▁ångest	-10.3976
▁skyddar	-10.3977
pro	-10.3979
vel	-10.398
▁Pi	-10.3981
▁van	-10.399
vet	-10.3991
▁Hi	-10.3997
har	-10.4002
▁Wa	-10.4003
▁celler	-10.4003
▁människans	-10.4006
▁you	-10.4016
the	-10.4016
▁Kon	-10.4016
▁nåd	-10.4017
gan	-10.4019
▁Självklart	-10.4021
▁styra	-10.4024
▁lycklig	-10.4026
▁naturlig	-10.4028
▁make	-10.4031
▁socialt	-10.4033
tes	-10.4033
stid	-10.4038
▁Dig	-10.4044
▁mobila	-10.4058
▁accepterar	-10.4058
▁takt	-10.4061
▁Sök	-10.4061
▁One	-10.4063
▁bröd	-10.4063
15	-10.4064
▁Street	-10.4065
▁hustru	-10.4067
▁öppnade	-10.4067
▁Hög	-10.407
ox	-10.4072
▁drivs	-10.4073
▁typen	-10.4075
▁maten	-10.4078
ull	-10.4079
sion	-10.4083
förändringar	-10.4087
▁sjö	-10.409
so	-10.4094
ix	-10.4106
▁tema	-10.4106
▁utbildnings	-10.4109
▁salt	-10.411
▁årliga	-10.4113
▁profil	-10.4113
▁ok	-10.4115
tri	-10.4115
▁slutligen	-10.4119
▁Va	-10.4124
app	-10.4127
▁tacka	-10.413
▁tillfället	-10.4137
.»	-10.4143
▁shopping	-10.4159
▁helg	-10.4163
▁samling	-10.4167
ru	-10.4167
▁skyldig	-10.4185
▁Köp	-10.4186
▁helgen	-10.4186
gör	-10.4187
don	-10.4188
▁unikt	-10.4189
▁livsmedels	-10.4191
samma	-10.4191
▁röd	-10.4193
▁deltar	-10.4201
▁utvärdera	-10.4201
▁recept	-10.4202
▁House	-10.4206
lik	-10.4207
Ã	-10.4213
▁Frågan	-10.4218
▁anställning	-10.4221
▁bön	-10.4224
▁Besök	-10.4224
▁motor	-10.4229
AR	-10.4229
▁You	-10.4229
iserade	-10.4234
▁American	-10.4239
▁ombord	-10.4242
▁inser	-10.4252
▁Barcelona	-10.4253
▁tolv	-10.4253
▁bodde	-10.4253
▁rapporter	-10.4254
▁moln	-10.4258
ence	-10.4259
▁grundval	-10.4259
▁förmågan	-10.4267
▁original	-10.4273
▁1:	-10.4275
▁sängen	-10.428
▁rapporten	-10.428
enheter	-10.4281
rat	-10.4284
▁export	-10.4287
▁förklaring	-10.4288
part	-10.4291
▁Sol	-10.4296
▁smart	-10.4299
▁Faktum	-10.43
▁möbler	-10.4306
▁po	-10.431
▁dvs	-10.4313
▁täcka	-10.4318
▁stannar	-10.4318
dar	-10.4323
og	-10.4323
▁spelat	-10.4323
▁Gu	-10.4326
ive	-10.433
sy	-10.4336
▁producerar	-10.434
▁styrelse	-10.4341
▁bröllop	-10.4341
ku	-10.4342
▁36	-10.4343
▁oerhört	-10.4348
▁vunnit	-10.4348
▁begränsningar	-10.4348
▁färre	-10.4348
▁springa	-10.435
▁rika	-10.4354
▁åkte	-10.4356
▁försökt	-10.4367
▁påverkan	-10.4368
▁fysiskt	-10.4368
▁referens	-10.4371
sektorn	-10.4374
elsen	-10.4381
fa	-10.4389
▁förvaltning	-10.439
▁Volvo	-10.4396
▁Däremot	-10.4396
▁hamnar	-10.4396
▁Ex	-10.4396
fria	-10.4397
▁Observera	-10.4397
▁We	-10.4399
▁ra	-10.4402
▁konstruktion	-10.4408
way	-10.4409
▁kulturella	-10.4413
▁yta	-10.4415
▁förblir	-10.4419
▁blommor	-10.442
Q	-10.4428
▁Svar	-10.4428
▁Tu	-10.4431
▁elektroniska	-10.4432
▁rösta	-10.4436
▁kreativa	-10.4437
▁industrin	-10.4438
▁byggt	-10.4438
▁gravid	-10.444
▁handen	-10.4443
▁bekräfta	-10.4444
▁utförs	-10.4449
▁mänsklig	-10.445
hu	-10.4456
▁effekterna	-10.4457
▁leverantör	-10.4459
cu	-10.4461
▁uppgifterna	-10.4463
cha	-10.4464
▁resolution	-10.4465
▁VD	-10.4467
▁tekniken	-10.4469
ET	-10.4471
▁teknologi	-10.4475
▁vinster	-10.4478
▁fest	-10.4484
▁komplett	-10.4486
▁bud	-10.4491
my	-10.4493
▁komponenter	-10.4495
▁försvara	-10.4497
▁överenskommelse	-10.4497
▁planering	-10.4498
lor	-10.4514
ång	-10.4521
▁klassiska	-10.4522
▁State	-10.4522
▁planera	-10.4523
▁Rätt	-10.4527
▁gåva	-10.4534
▁bestämmelserna	-10.4534
▁lösenord	-10.4541
▁medicinsk	-10.4541
ish	-10.4545
▁fattiga	-10.4546
mb	-10.4547
fl	-10.455
▁existerar	-10.4552
▁vintern	-10.4554
▁annonser	-10.4554
tisk	-10.4556
ble	-10.4556
13	-10.4556
design	-10.456
▁minuters	-10.4561
Och	-10.4562
▁bilderna	-10.4568
▁argument	-10.4574
ssystemet	-10.4578
▁vackert	-10.4579
baserad	-10.4581
gre	-10.4581
▁inkludera	-10.4583
▁hästar	-10.4583
▁rese	-10.4584
▁generation	-10.4586
▁Titta	-10.459
▁Programmet	-10.4598
▁branschen	-10.4599
▁installation	-10.4599
bruk	-10.46
lån	-10.4609
▁intressanta	-10.4611
▁värderingar	-10.4612
▁revolutionen	-10.4613
▁samhällen	-10.4614
lösningar	-10.4615
▁åtgärd	-10.4618
▁kärleken	-10.4619
▁gränsen	-10.4621
▁nån	-10.4622
▁Mot	-10.4623
▁ägna	-10.4631
medel	-10.4632
▁hunden	-10.4638
▁fastställs	-10.4638
▁säkerställ	-10.4641
▁Grand	-10.4641
▁|	-10.4643
▁Daniel	-10.4645
▁föll	-10.4648
▁politiskt	-10.465
▁gäst	-10.465
▁hjälpte	-10.466
▁lik	-10.4662
▁framgångsrik	-10.4666
▁texten	-10.4668
▁2002	-10.4671
tagande	-10.4671
ast	-10.4672
Ja	-10.4686
▁femte	-10.4686
▁Jerusalem	-10.4688
▁vänskap	-10.469
ät	-10.4694
råd	-10.4694
▁ikväll	-10.4695
▁praxis	-10.4695
▁uppsättning	-10.4696
äg	-10.4697
que	-10.4705
▁beskriva	-10.4707
▁Kvinnor	-10.471
▁Spel	-10.4711
▁förväntningar	-10.4712
äll	-10.4716
▁spåra	-10.4717
ologi	-10.4718
▁kändes	-10.4718
▁farliga	-10.4722
of	-10.4723
▁träffar	-10.4723
▁glömt	-10.4724
▁språket	-10.4728
▁pool	-10.4739
nd	-10.4739
▁kreditkort	-10.4742
▁kärn	-10.475
▁Inter	-10.475
lj	-10.4754
▁utöver	-10.4755
▁andas	-10.4756
▁märke	-10.4757
▁äga	-10.4759
▁orsak	-10.4759
▁Son	-10.4766
sområden	-10.4771
▁återvända	-10.4772
▁avsluta	-10.4772
▁hanterar	-10.4774
▁träffade	-10.4776
ock	-10.4781
▁Amazon	-10.4784
▁levererar	-10.4786
▁tålamod	-10.4787
▁Kalifornien	-10.4787
les	-10.4787
▁tillräcklig	-10.479
▁allvar	-10.4791
▁genomsnitt	-10.4799
▁avlägsna	-10.4801
▁tri	-10.4801
▁kust	-10.4802
con	-10.4802
▁mörka	-10.4806
▁kraftigt	-10.4807
bu	-10.4808
▁lagring	-10.4808
▁hjärna	-10.4808
▁Live	-10.4809
▁kampen	-10.4818
▁rök	-10.4819
▁passa	-10.4821
▁innebära	-10.4822
▁begrepp	-10.4826
spelare	-10.4827
mark	-10.4833
tu	-10.4835
▁misslyckas	-10.4837
politik	-10.4839
▁Tour	-10.4842
▁Följande	-10.4842
▁avslöja	-10.4848
▁sorg	-10.4848
träd	-10.4851
gon	-10.4854
▁lovar	-10.4856
▁maskiner	-10.4856
▁publik	-10.4859
varande	-10.486
▁genomsnittliga	-10.4862
▁slutföra	-10.4864
▁pension	-10.4865
▁kameran	-10.4865
▁Te	-10.4868
serien	-10.487
▁artiklarna	-10.4871
miljö	-10.4874
▁Livet	-10.4881
▁meddelanden	-10.4881
▁antar	-10.4883
▁lät	-10.4885
▁biverkningar	-10.4887
▁Tor	-10.4887
organisationer	-10.4888
▁sång	-10.4891
▁tak	-10.4897
ica	-10.4899
▁investering	-10.49
▁kvaliteten	-10.4901
film	-10.4905
▁bloggen	-10.4914
▁uttrycka	-10.4914
▁vikten	-10.4915
▁låtar	-10.4916
▁flyga	-10.4919
▁produkterna	-10.4921
kin	-10.4923
▁Sex	-10.4924
lit	-10.4926
▁Sch	-10.4927
▁uppdatera	-10.4927
▁universitetet	-10.4928
▁Institute	-10.4928
▁drabbas	-10.4928
▁kropps	-10.4939
▁Far	-10.494
▁Polen	-10.4943
▁hård	-10.4952
off	-10.4952
▁bakterier	-10.4955
▁lätta	-10.4959
▁vitt	-10.4965
▁byggnad	-10.4965
▁garanterar	-10.4965
▁fr	-10.4967
tik	-10.4968
▁tids	-10.4968
▁siffror	-10.4968
▁bord	-10.4969
▁utvärdering	-10.4969
▁Don	-10.4973
▁Bay	-10.4977
▁)	-10.4979
erande	-10.4982
▁kategori	-10.4983
▁2:	-10.4985
▁hållbara	-10.4986
▁Art	-10.4993
▁Medlemsstaterna	-10.4994
▁God	-10.4997
nade	-10.4997
fil	-10.4997
Fi	-10.4999
▁resurs	-10.5003
▁server	-10.5004
▁kemiska	-10.5005
jag	-10.5006
▁orden	-10.5009
▁använd	-10.5013
▁satsa	-10.5014
kel	-10.5019
▁Antal	-10.5023
▁bevara	-10.5029
Re	-10.5038
▁Museum	-10.5039
▁färdig	-10.504
▁tvinga	-10.5042
▁begränsade	-10.5043
▁Total	-10.5044
▁hastighet	-10.5045
▁garantera	-10.5046
▁noll	-10.5047
▁kämpa	-10.505
▁intervju	-10.5052
▁y	-10.5052
zi	-10.5054
▁sökande	-10.5056
förhållanden	-10.5061
▁råder	-10.5064
▁ändring	-10.5068
▁lagras	-10.5072
▁värden	-10.5073
▁flertal	-10.5077
▁sexuella	-10.5081
▁konsekvenser	-10.5081
ult	-10.5082
▁institutioner	-10.5085
▁kvinnorna	-10.5089
▁Science	-10.5091
▁imorgon	-10.5091
low	-10.5092
▁Kort	-10.5092
▁jävla	-10.5094
▁Målet	-10.51
▁permanent	-10.5104
▁röster	-10.5107
forskning	-10.5108
▁skärmen	-10.5109
▁höja	-10.5109
TM	-10.5111
▁kvartalet	-10.5112
▁beskrivning	-10.5112
djur	-10.5114
▁individuella	-10.5114
▁författaren	-10.5115
▁italienska	-10.5118
▁Service	-10.5119
▁hantering	-10.5124
bilder	-10.5128
▁ka	-10.5131
▁kamera	-10.5131
▁komplexa	-10.5133
▁tycks	-10.5142
▁detsamma	-10.5143
▁skyldigheter	-10.5146
▁kommissionens	-10.5147
▁fulla	-10.5153
▁hoppa	-10.5165
▁eventuellt	-10.5166
brott	-10.5171
▁fly	-10.5174
▁födelse	-10.5177
In	-10.5179
▁flygplatsen	-10.5187
▁Mon	-10.5187
skt	-10.5187
▁Bill	-10.5193
▁tittade	-10.5194
▁skilja	-10.5196
▁System	-10.5197
▁krafter	-10.5199
▁trygghet	-10.5206
Men	-10.5206
ES	-10.5215
satt	-10.5217
▁nått	-10.5219
▁Gi	-10.522
▁w	-10.522
▁torka	-10.5224
vetenskap	-10.5229
ford	-10.523
▁skapas	-10.5233
▁appar	-10.5234
lista	-10.5236
▁stopp	-10.5242
▁expert	-10.5243
▁smarta	-10.5245
▁finansiell	-10.5247
▁Ytterligare	-10.5248
▁ursprungligen	-10.5254
▁bryter	-10.5254
▁ordentligt	-10.5258
▁personligt	-10.5262
▁presentera	-10.5264
▁(2	-10.5264
bin	-10.5266
funktion	-10.5274
▁anledningen	-10.5277
dra	-10.5278
▁flygplan	-10.5279
▁statliga	-10.528
▁kap	-10.5285
get	-10.5288
ls	-10.529
steg	-10.529
70	-10.5298
▁intelligens	-10.5298
▁försiktig	-10.5299
▁förändrats	-10.5303
▁aktie	-10.5305
▁tillgänglighet	-10.5308
▁personlighet	-10.531
chi	-10.5315
nor	-10.5315
▁använts	-10.5316
▁konstigt	-10.5316
▁offentligt	-10.5319
fe	-10.5319
▁Day	-10.5323
▁lek	-10.5325
▁partners	-10.5325
▁hållet	-10.533
▁Fi	-10.5332
▁Kor	-10.5346
▁bransch	-10.5355
▁hösten	-10.5355
▁traditionell	-10.5358
▁Tar	-10.5359
▁arg	-10.5363
▁våren	-10.5363
po	-10.5368
▁Harry	-10.537
▁strävar	-10.5372
ate	-10.5373
▁uppstå	-10.5375
risk	-10.5375
▁grekiska	-10.5375
jo	-10.5375
▁Arbets	-10.5378
▁tillämpliga	-10.5379
▁mo	-10.5381
▁tillsyn	-10.5382
!)	-10.5384
rin	-10.5387
▁Fram	-10.5389
▁bibliotek	-10.5391
▁Cor	-10.5392
elser	-10.5401
▁nordisk	-10.5404
▁As	-10.5404
▁nämna	-10.5404
område	-10.5404
▁bredvid	-10.5404
▁Irland	-10.5405
▁Tri	-10.5405
▁Bet	-10.5407
▁2.	-10.5413
▁III	-10.5414
▁Mor	-10.5415
årig	-10.5415
▁mått	-10.5416
▁individ	-10.5416
▁maximal	-10.5419
▁transaktioner	-10.542
▁köket	-10.5421
▁minnen	-10.5422
ou	-10.5423
▁For	-10.5424
▁pågående	-10.5428
▁kök	-10.543
▁jakt	-10.5433
▁Ab	-10.5435
lam	-10.5436
▁press	-10.544
▁Sal	-10.5445
▁cell	-10.5447
▁förklarade	-10.5454
▁patent	-10.5456
▁lagra	-10.5471
br	-10.5472
▁styrelsen	-10.5477
▁ko	-10.5477
▁tillämpningen	-10.5484
▁passagerare	-10.5484
▁omfatta	-10.5485
▁förbättrar	-10.5487
▁tradition	-10.549
▁aning	-10.5494
▁berättelser	-10.5494
ledare	-10.5495
000	-10.5504
▁aktörer	-10.5504
▁försäkring	-10.5504
▁Njut	-10.5511
▁betalas	-10.5511
▁förbättring	-10.5516
▁kallt	-10.5517
▁1.	-10.5518
▁arkitektur	-10.5518
▁dricker	-10.5523
ight	-10.5529
▁nivån	-10.5534
ius	-10.5535
slagen	-10.5535
▁Artikel	-10.5537
▁hålls	-10.5542
▁följt	-10.5543
▁uppe	-10.5545
▁regionala	-10.5547
▁batteri	-10.5552
▁baserade	-10.5553
tas	-10.5555
▁beställning	-10.5567
▁Företag	-10.5575
▁läsare	-10.5585
RI	-10.5587
▁effekten	-10.5588
▁judar	-10.5597
rande	-10.5598
▁barns	-10.5598
▁Ti	-10.56
▁1000	-10.5602
▁mod	-10.5605
postadress	-10.5608
frågor	-10.5611
IS	-10.5614
▁koncept	-10.5615
▁Thomas	-10.5619
▁1999	-10.562
▁mass	-10.5626
▁On	-10.5627
▁längd	-10.563
▁konsumenter	-10.563
▁orsaker	-10.5631
▁lo	-10.5632
▁utvecklat	-10.5636
▁virus	-10.5637
▁Sha	-10.564
▁tillåta	-10.5642
▁samarbetet	-10.5651
▁stycken	-10.5652
▁klubb	-10.5653
fel	-10.5654
▁kroppar	-10.5655
▁variera	-10.5656
Hur	-10.5658
▁Utöv	-10.5661
PA	-10.5661
▁specifikt	-10.5664
format	-10.5671
▁Richard	-10.5673
▁givetvis	-10.5673
line	-10.5676
▁blodet	-10.5676
örer	-10.5678
▁Hos	-10.5678
tru	-10.5679
mmer	-10.568
▁uppenbart	-10.5683
▁utvalda	-10.5686
▁Can	-10.5695
▁sånt	-10.5695
▁frid	-10.5695
▁parterna	-10.5697
▁kvalitets	-10.57
tel	-10.5702
▁upprätta	-10.5703
▁långsiktiga	-10.5704
▁presenterar	-10.5706
back	-10.5708
▁dialog	-10.5716
▁krigs	-10.5722
▁konsumenterna	-10.5723
▁framgångsrikt	-10.5725
▁Svenska	-10.5726
▁vädret	-10.573
▁gjorda	-10.573
▁väst	-10.5733
▁gillade	-10.5735
▁App	-10.5738
▁dis	-10.5739
lopp	-10.5739
▁partiet	-10.574
▁fasta	-10.5741
▁back	-10.5742
80	-10.5743
TA	-10.5747
▁ström	-10.5748
▁Ande	-10.5751
▁Inc	-10.5751
▁insats	-10.5754
▁standarder	-10.5754
▁rymd	-10.5764
▁rättigheterna	-10.5765
verktyg	-10.5767
håll	-10.5771
▁håret	-10.5779
▁Nord	-10.578
▁multi	-10.578
▁dött	-10.578
▁territorium	-10.5782
överensstämmelse	-10.5783
▁Royal	-10.5784
▁brukade	-10.5788
her	-10.579
▁försäkra	-10.579
▁begränsat	-10.5793
▁fara	-10.5798
▁Bre	-10.5798
▁tunga	-10.5799
oli	-10.5801
▁nöjda	-10.5804
▁fa	-10.5806
▁biljett	-10.5808
▁låten	-10.5808
▁inuti	-10.5808
▁lett	-10.5808
test	-10.5812
▁tjejer	-10.5812
▁verka	-10.5814
▁signal	-10.5818
▁flyttar	-10.5818
▁interna	-10.5819
▁generationer	-10.5821
▁undersökningar	-10.5823
▁fötter	-10.5826
▁steget	-10.5829
▁varumärken	-10.583
ordning	-10.5831
▁PS	-10.5831
▁Stora	-10.5833
▁sönder	-10.5834
▁Undvik	-10.5838
lade	-10.5838
▁imponerande	-10.5839
▁nödvändigtvis	-10.584
▁skämt	-10.5842
▁Matt	-10.5843
ial	-10.5849
▁användarna	-10.585
▁matchen	-10.5851
▁administrativa	-10.5852
▁Fem	-10.5853
▁avfall	-10.5855
>	-10.5856
▁uppskattar	-10.5856
▁Vidare	-10.5857
▁evigt	-10.5858
musik	-10.5862
▁kontakter	-10.5863
▁förfarande	-10.5867
isten	-10.5867
alt	-10.5867
▁bekräftar	-10.587
16	-10.5871
nät	-10.5872
▁praktiskt	-10.5873
▁grav	-10.5874
▁Året	-10.5875
delning	-10.588
ino	-10.5884
▁åsikt	-10.5885
▁skogen	-10.5886
IT	-10.5887
our	-10.5888
▁förutsättning	-10.5889
▁rike	-10.5892
▁Po	-10.5894
ita	-10.5898
tag	-10.59
▁Bu	-10.59
OR	-10.5901
▁600	-10.5901
▁event	-10.5902
▁Ma	-10.5903
▁friska	-10.5906
makt	-10.5906
▁skyldighet	-10.5907
ms	-10.5914
▁kostnaderna	-10.5914
▁kär	-10.5916
▁månaderna	-10.5917
▁röka	-10.5917
▁anledningar	-10.5917
▁plocka	-10.5925
▁bordet	-10.5926
▁blandning	-10.593
▁beräknas	-10.5936
▁Green	-10.594
▁inställning	-10.5944
▁strategier	-10.5944
▁säljs	-10.5946
▁League	-10.5949
¤	-10.5949
▁småningom	-10.5949
▁Nederländerna	-10.5951
▁upptäcker	-10.5956
läge	-10.5956
▁mej	-10.5957
isterna	-10.5962
▁verksamheter	-10.5964
▁slutlig	-10.5965
▁butiker	-10.5966
SA	-10.5971
che	-10.5972
▁inse	-10.5976
när	-10.5976
▁OS	-10.5985
if	-10.5986
▁konferens	-10.5988
")	-10.5992
▁foton	-10.5993
din	-10.5995
▁placera	-10.5995
arnas	-10.6002
▁betalnings	-10.6002
funktioner	-10.6003
▁Kristi	-10.6005
▁detalj	-10.6006
▁versioner	-10.6006
lat	-10.6008
ort	-10.6009
▁släpper	-10.6013
▁erbjudande	-10.6018
▁seger	-10.6019
▁ändrar	-10.6023
tic	-10.6028
▁titeln	-10.6028
▁buss	-10.6028
▁inköp	-10.6028
▁kombinera	-10.603
▁sub	-10.603
▁skönt	-10.6031
▁reaktioner	-10.6032
▁kombinerar	-10.6033
▁alternativet	-10.6033
▁Ki	-10.6038
▁spelas	-10.6038
▁format	-10.6041
▁75	-10.6041
res	-10.6045
▁lyfta	-10.6046
▁ingredienser	-10.6048
enhet	-10.605
▁telefonen	-10.6053
▁havs	-10.6058
▁turist	-10.6058
):	-10.6059
q	-10.606
▁Också	-10.6062
▁stämmer	-10.6062
▁stödjer	-10.6063
AT	-10.6068
▁funkar	-10.6068
äng	-10.6069
▁strand	-10.607
▁numera	-10.6071
▁trans	-10.6071
▁Tycke	-10.6072
▁specifik	-10.6073
▁aktivera	-10.6074
▁;)	-10.6075
▁strid	-10.6076
▁förmån	-10.6077
▁Carl	-10.608
side	-10.6084
▁stolta	-10.6084
▁besökte	-10.6086
▁bortom	-10.6091
▁snälla	-10.6093
▁genomförandet	-10.6095
vida	-10.6095
▁ansiktet	-10.6096
▁dos	-10.6098
▁sann	-10.6102
▁stjärnor	-10.6105
sprojekt	-10.6105
ze	-10.6107
sarbete	-10.6109
▁praktiken	-10.6112
▁kallat	-10.6113
nivåer	-10.6114
▁vanligen	-10.6115
▁yoga	-10.6119
▁exponering	-10.6119
▁Annars	-10.6119
sel	-10.612
▁pratade	-10.6126
▁Ord	-10.6129
▁jämföra	-10.613
▁no	-10.6131
▁boka	-10.6132
▁beställa	-10.6134
▁tillhandahålls	-10.6135
▁droger	-10.6137
▁registrera	-10.6139
▁långsamt	-10.6141
▁Ur	-10.6141
▁arbetsgivare	-10.6142
▁Sp	-10.6144
stjänster	-10.6148
▁översättning	-10.615
▁släpptes	-10.6151
visa	-10.6152
▁träffat	-10.6157
las	-10.6161
▁kliniska	-10.6165
qui	-10.6167
▁upplevelser	-10.6169
▁civil	-10.617
ral	-10.617
▁upptäckte	-10.6176
▁Ställ	-10.6177
▁komfort	-10.6177
▁döds	-10.6179
▁Filmen	-10.6184
▁svårigheter	-10.6185
-1	-10.6185
▁33	-10.6188
▁externa	-10.619
sättning	-10.6198
▁kampanj	-10.6198
▁verkade	-10.6198
▁tillfälligt	-10.6198
▁vänder	-10.6201
▁kris	-10.6206
tre	-10.6206
▁kraftfulla	-10.6209
▁ar	-10.6216
kning	-10.6218
▁kyrka	-10.6223
▁byggdes	-10.6226
▁civila	-10.6227
▁kompis	-10.6232
▁Ver	-10.6233
▁humör	-10.6233
▁norr	-10.6237
▁saken	-10.6238
▁sparar	-10.6238
22	-10.6242
its	-10.6245
▁skillnader	-10.6246
▁applikationer	-10.6247
▁näst	-10.6249
▁Real	-10.625
▁bröder	-10.6252
▁skriv	-10.6253
▁sök	-10.6255
▁släpps	-10.6267
vikt	-10.6268
▁tänkande	-10.6277
▁bostads	-10.6278
▁titel	-10.6281
▁Mr	-10.6281
▁införa	-10.6281
▁gjordes	-10.6282
▁hårda	-10.6285
▁enorma	-10.6285
▁choklad	-10.6291
▁hundratals	-10.6291
ow	-10.6294
▁låna	-10.6299
▁varelser	-10.63
▁troende	-10.6301
▁avsikt	-10.6302
▁behandlingar	-10.6303
pol	-10.6315
▁sover	-10.6315
▁självmord	-10.6316
▁Före	-10.6317
▁medför	-10.6321
▁positioner	-10.6327
iner	-10.6342
▁enorm	-10.6343
▁last	-10.6344
böcker	-10.6346
▁experiment	-10.6347
▁sakerna	-10.6348
▁återigen	-10.6349
.[	-10.6349
▁titt	-10.635
▁förebygga	-10.635
▁do	-10.635
▁Power	-10.6352
▁förbli	-10.6353
▁huvudsakliga	-10.6355
▁beredd	-10.6355
▁klubben	-10.6356
▁tvekan	-10.6357
af	-10.6358
bereder	-10.636
▁sänka	-10.6362
▁Par	-10.6362
▁Dagens	-10.6375
▁kostnaden	-10.6381
▁träffas	-10.6385
▁skärm	-10.6386
verksamhet	-10.6394
nt	-10.6395
14	-10.6397
▁huvudsak	-10.6403
▁klagomål	-10.6408
▁tillåtet	-10.6408
St	-10.6408
▁ansvariga	-10.6409
▁utvecklade	-10.641
▁utöka	-10.641
▁kollegor	-10.641
▁Next	-10.641
▁levde	-10.6412
▁konsumtion	-10.6418
skor	-10.6419
▁allvarlig	-10.6422
▁skott	-10.6424
delar	-10.643
▁torr	-10.6433
▁frisk	-10.6434
▁anläggningar	-10.6436
▁killar	-10.644
▁trevlig	-10.6441
▁rapportera	-10.6443
▁muslimer	-10.6443
▁Las	-10.6446
▁underhållning	-10.6448
▁atmosfär	-10.6448
bet	-10.6451
▁skala	-10.6453
▁skadliga	-10.6453
press	-10.6457
▁registrerade	-10.6459
▁Texas	-10.6466
▁DNA	-10.6468
▁Central	-10.6469
▁Los	-10.6473
▁Går	-10.6474
▁redovisning	-10.6477
▁faktiska	-10.6477
▁formen	-10.6479
▁behörighet	-10.6479
▁Mu	-10.6483
▁staterna	-10.6484
ya	-10.6485
temot	-10.6487
▁hälsosam	-10.6488
▁ram	-10.649
▁tänk	-10.6497
▁farligt	-10.6501
▁berör	-10.6501
▁ru	-10.6504
▁lågt	-10.6507
▁levereras	-10.6509
▁Särskil	-10.6511
▁Fin	-10.6515
▁Ännu	-10.6526
▁Beach	-10.6527
▁Gar	-10.6527
sätta	-10.6531
EL	-10.6533
▁månen	-10.6533
▁liknar	-10.6534
rätten	-10.6536
▁uppenbara	-10.6539
▁ad	-10.6542
▁föräldrarna	-10.6546
▁Video	-10.6551
▁skit	-10.6553
.000	-10.6556
kod	-10.656
▁faktor	-10.6561
▁region	-10.6564
▁minnas	-10.6564
▁tvingas	-10.6567
▁andliga	-10.6568
▁Adam	-10.6571
▁kontrollerar	-10.6573
▁Ku	-10.6575
▁vit	-10.6575
▁majoritet	-10.6576
värdet	-10.6576
▁kriterier	-10.6576
▁graviditet	-10.6584
▁forum	-10.6585
▁muskel	-10.6585
▁Speciell	-10.6586
▁Sätt	-10.6587
▁§	-10.659
uff	-10.6592
gift	-10.6594
Mo	-10.6595
▁3:	-10.6598
▁sysselsättning	-10.6599
▁tvätta	-10.6601
▁förebyggande	-10.6602
ite	-10.6609
ID	-10.6611
▁spa	-10.6614
▁rykte	-10.6614
▁str	-10.6614
▁orolig	-10.6615
pass	-10.6619
▁avsnittet	-10.662
under	-10.6621
▁Big	-10.6625
▁grön	-10.663
burg	-10.6631
▁Cha	-10.6631
användare	-10.6632
tz	-10.6635
▁fans	-10.6637
▁sämre	-10.6645
▁existens	-10.6645
▁genast	-10.6646
▁främmande	-10.6646
▁48	-10.6646
▁skett	-10.6649
▁materialet	-10.6651
fr	-10.6652
▁Redan	-10.6653
▁schema	-10.6656
▁punkter	-10.6658
▁järn	-10.6658
▁musiken	-10.6661
länderna	-10.6663
sport	-10.6665
▁kemikalier	-10.6667
▁tydliga	-10.6674
▁investerings	-10.6675
▁ansöka	-10.6679
▁lansera	-10.668
▁tra	-10.6685
▁pe	-10.6688
▁partnerskap	-10.669
▁Ke	-10.669
istisk	-10.6693
▁rygg	-10.6694
▁ring	-10.6694
läggning	-10.6697
ec	-10.6701
▁tjänare	-10.6701
▁Forskning	-10.6703
▁Bro	-10.6704
▁konsekvent	-10.6705
▁optimera	-10.6705
▁framförallt	-10.6706
▁Berätta	-10.6706
▁byn	-10.6707
▁bekvämt	-10.6707
▁Max	-10.6708
▁CO	-10.671
▁Problemet	-10.6713
▁Göteborg	-10.672
▁återbetalning	-10.6722
▁Ö	-10.6725
▁hemlighet	-10.6728
90	-10.673
hög	-10.6731
▁Blue	-10.6731
▁nätverket	-10.6736
▁överföra	-10.6739
▁nere	-10.6739
▁däck	-10.675
▁not	-10.6754
▁tidig	-10.6754
verket	-10.6755
▁mord	-10.6758
▁turister	-10.6758
▁hållas	-10.6758
▁huvudstad	-10.6759
▁tum	-10.6762
▁strax	-10.6766
▁rock	-10.6766
▁glömmer	-10.6766
▁·	-10.6766
män	-10.677
▁funktionen	-10.677
▁lugnt	-10.6778
▁hjälpt	-10.6783
rådet	-10.6784
▁garanti	-10.679
Be	-10.6795
▁japanska	-10.6797
rå	-10.6799
▁fiender	-10.68
▁li	-10.6807
▁förstod	-10.6808
▁flyktingar	-10.6809
▁Åter	-10.6809
▁jordens	-10.6809
▁skadade	-10.6812
▁syftet	-10.6813
▁tänder	-10.6815
▁bred	-10.682
▁biljetter	-10.682
språk	-10.6823
åt	-10.6826
▁hellre	-10.6827
▁nöje	-10.6827
▁Tra	-10.6828
▁angående	-10.6829
▁United	-10.6829
avtal	-10.6832
▁Kontrollera	-10.6838
▁falla	-10.6839
▁inträffar	-10.6842
stående	-10.6844
▁(1)	-10.6847
▁Wall	-10.6848
ifrån	-10.685
▁meddelade	-10.6853
▁fångar	-10.6862
rik	-10.6862
▁kortare	-10.6863
▁personligen	-10.6865
▁hav	-10.6867
▁anger	-10.6872
▁Van	-10.6874
▁jordbruks	-10.6875
▁sända	-10.6876
▁vinnare	-10.6886
▁Afghanistan	-10.6888
▁baby	-10.6889
▁Paulus	-10.6892
ban	-10.6892
▁Sin	-10.6893
▁genomförs	-10.6895
▁uppmuntra	-10.6899
▁vind	-10.6905
stod	-10.6905
▁skratta	-10.6907
brist	-10.6911
▁ISO	-10.6918
Å	-10.692
▁Tim	-10.692
▁US	-10.6922
▁Fortsätt	-10.6924
▁Social	-10.6927
lek	-10.6927
▁fattigdom	-10.6927
▁Play	-10.6929
tjänsten	-10.693
▁negativt	-10.693
▁genomförande	-10.6935
▁rollen	-10.6937
▁granska	-10.6939
▁Stor	-10.6947
tter	-10.6951
Ö	-10.6951
▁omsorg	-10.6955
▁billigare	-10.6955
▁Hall	-10.6959
▁avsedd	-10.696
▁Bild	-10.6966
▁markera	-10.6967
användning	-10.6968
▁Jan	-10.6978
ben	-10.6986
▁AI	-10.6997
▁räknar	-10.6998
▁planen	-10.6999
▁Jesu	-10.6999
▁etablerade	-10.7
▁gjord	-10.7002
▁härlig	-10.7005
17	-10.7006
lt	-10.7007
▁fixa	-10.7007
▁bokning	-10.7007
▁Ändå	-10.7012
▁[-]	-10.7012
▁uppgradera	-10.7013
▁osäker	-10.7017
▁Un	-10.702
▁dryck	-10.703
▁Pen	-10.7031
▁citat	-10.7032
▁rörlighet	-10.7034
▁länken	-10.7042
▁Dag	-10.7043
ob	-10.7052
▁Undra	-10.7054
▁Hel	-10.7055
kostnader	-10.7055
dia	-10.7058
gh	-10.7061
▁kommunikations	-10.7063
▁Dan	-10.7064
▁tjugo	-10.7074
▁Slutligen	-10.7075
▁Alex	-10.7083
▁diagnos	-10.7083
▁därifrån	-10.7087
▁tull	-10.709
▁tolkning	-10.709
ror	-10.709
▁signaler	-10.7095
▁bedöm	-10.71
▁Vart	-10.7103
▁grönsaker	-10.7105
▁Je	-10.7116
ons	-10.7118
▁talas	-10.712
▁operativsystem	-10.7123
▁studenterna	-10.7127
kommissionen	-10.713
▁appen	-10.7131
▁söndag	-10.7133
▁Schweiz	-10.7137
▁Ukraina	-10.7137
▁Smith	-10.7137
▁Rock	-10.7138
▁badrum	-10.7139
▁däribland	-10.714
▁byggnaden	-10.7141
▁sektorn	-10.7142
▁nation	-10.7144
dokument	-10.715
dor	-10.7154
▁komplex	-10.7157
▁kära	-10.7161
▁webbläsare	-10.7162
▁kungen	-10.7164
=	-10.7165
▁sy	-10.7169
▁videon	-10.717
▁Författare	-10.7175
▁personalen	-10.7175
här	-10.7179
studier	-10.7179
▁storleken	-10.7185
▁floden	-10.719
▁sand	-10.7191
▁Musik	-10.7192
▁meddela	-10.7193
utrustning	-10.7193
köp	-10.7193
syn	-10.7195
bel	-10.7199
▁Bygg	-10.7199
▁am	-10.72
▁import	-10.72
▁penis	-10.7201
▁Johannes	-10.7201
▁tillväxten	-10.7202
▁varma	-10.7202
▁Upptäck	-10.7203
▁konstant	-10.7205
▁granskning	-10.7207
byggnad	-10.721
▁såklart	-10.721
▁öppnas	-10.721
▁styrkor	-10.7212
hal	-10.7214
▁Film	-10.7215
▁klinisk	-10.7215
▁perioder	-10.7215
ges	-10.7216
▁butik	-10.7216
▁Ger	-10.7217
▁ständig	-10.7217
▁ansträngningar	-10.7219
organisation	-10.722
▁officiellt	-10.7221
Min	-10.7227
▁förvärv	-10.7229
▁erkännande	-10.7229
▁Anti	-10.723
gn	-10.7231
prov	-10.7234
eln	-10.7235
▁tidningen	-10.7235
▁katter	-10.7236
OS	-10.7237
▁muskler	-10.7238
relaterade	-10.7239
▁sexuell	-10.7243
▁måltid	-10.7246
▁fl	-10.7247
ual	-10.7249
▁dörr	-10.7251
olja	-10.7253
▁politiken	-10.7255
▁42	-10.7257
ligen	-10.7257
▁sorts	-10.7259
▁klaga	-10.7264
▁slutändan	-10.7264
▁tvivel	-10.7264
▁föreskrivs	-10.7264
▁försvann	-10.7264
▁förekommande	-10.7268
▁Centre	-10.7269
▁Resultatet	-10.7271
▁dubbla	-10.7274
▁34	-10.728
▁tagits	-10.7283
▁bilda	-10.7295
AN	-10.7295
▁europeisk	-10.7297
ux	-10.7308
barn	-10.7309
▁advokat	-10.7309
▁bröst	-10.731
▁Mamma	-10.7313
▁längst	-10.7314
▁databas	-10.7316
tta	-10.7319
▁instruktioner	-10.7319
▁kalorier	-10.7321
ib	-10.7322
cell	-10.7325
▁Malmö	-10.7329
▁ögat	-10.7329
▁Förstå	-10.7329
stra	-10.733
▁överlevnad	-10.7333
▁www	-10.7333
▁Bio	-10.7336
▁debatt	-10.734
paket	-10.734
▁skjuta	-10.7345
▁planeten	-10.7348
fer	-10.7349
ära	-10.7351
▁rött	-10.7352
▁stör	-10.7352
▁trädgården	-10.7353
▁tand	-10.7353
▁redigera	-10.7354
▁Ber	-10.7356
▁kandidat	-10.736
▁stycket	-10.7361
.....	-10.7362
bor	-10.7366
vara	-10.7368
varor	-10.7369
center	-10.7372
▁William	-10.7372
ji	-10.7377
▁riskerar	-10.738
start	-10.7382
sområdet	-10.7383
▁ytan	-10.7384
▁kor	-10.7385
▁Berlin	-10.7387
snivå	-10.7388
eringen	-10.7388
alla	-10.7389
▁rapporterade	-10.7392
▁reglering	-10.7392
▁South	-10.7393
▁påminner	-10.7393
▁←	-10.7394
▁välkommen	-10.7395
▁jämställdhet	-10.7395
▁populärt	-10.7396
▁bevisa	-10.7407
▁regioner	-10.7407
samt	-10.7407
▁konflikt	-10.7408
kul	-10.7409
▁missbruk	-10.7423
▁männen	-10.7425
▁Ly	-10.7428
▁avslöjar	-10.7429
▁respektera	-10.7435
▁presenteras	-10.7437
▁vd	-10.7438
▁kraftfull	-10.7439
ew	-10.744
platser	-10.744
▁up	-10.7441
▁fågel	-10.7446
sky	-10.7447
ick	-10.745
▁minskade	-10.7453
Är	-10.7455
▁College	-10.7458
▁Naturligtvis	-10.7458
▁Regissör	-10.7458
▁välbefinnande	-10.7458
▁minimera	-10.7458
▁tom	-10.746
▁banker	-10.7462
▁fredag	-10.7462
ledning	-10.7476
larna	-10.7476
45	-10.748
21	-10.7482
heter	-10.7483
▁judiska	-10.7486
▁lördag	-10.7487
▁Media	-10.7489
▁ökande	-10.749
kla	-10.749
▁Ac	-10.7491
▁250	-10.7495
inte	-10.7495
tyder	-10.7496
▁37	-10.7501
ef	-10.7502
▁Säg	-10.7504
end	-10.7507
▁rakt	-10.751
▁Lund	-10.7511
▁väntade	-10.7514
ago	-10.7516
▁Bolaget	-10.7518
villkor	-10.7521
▁söder	-10.7522
▁betalningar	-10.7522
▁Thailand	-10.7524
▁symbol	-10.7525
▁bestående	-10.7526
▁INTE	-10.7526
▁känsliga	-10.753
▁anfall	-10.753
▁innefattar	-10.7534
▁Mc	-10.7534
▁skatter	-10.7536
▁Internationella	-10.7537
▁Ph	-10.7539
▁mörk	-10.754
▁begå	-10.7541
▁förluster	-10.7542
▁Land	-10.7542
▁delarna	-10.7544
bygg	-10.7548
▁fyller	-10.7549
▁damm	-10.7552
▁försäljnings	-10.7554
oo	-10.7555
ogen	-10.7555
▁ande	-10.7555
▁rörelser	-10.7559
bank	-10.7564
▁haha	-10.7565
ary	-10.7565
Alla	-10.7568
▁intill	-10.757
tog	-10.757
länder	-10.7576
▁65	-10.7577
▁konflikter	-10.7577
kal	-10.7582
▁tester	-10.7584
▁fastighets	-10.7585
lim	-10.7585
▁miljontals	-10.7589
▁Tips	-10.759
blad	-10.759
▁troligen	-10.7591
▁kopiera	-10.7592
rika	-10.7595
▁öga	-10.7595
▁ovanför	-10.7596
IN	-10.7597
▁insåg	-10.7597
▁skär	-10.76
sföretag	-10.76
▁akut	-10.7603
LA	-10.7603
por	-10.7603
▁Jorden	-10.7604
▁teori	-10.7609
▁Port	-10.7611
▁sk	-10.7612
öj	-10.7619
▁möjlig	-10.762
cent	-10.7622
▁inomhus	-10.7627
upplevelse	-10.7632
▁Open	-10.7633
▁förväntade	-10.7635
35	-10.7635
▁meditation	-10.7637
▁Barnen	-10.7638
▁lokalt	-10.7641
fritt	-10.7642
▁rapporterar	-10.7642
95	-10.7646
ationen	-10.7647
??	-10.7652
▁Plus	-10.7657
▁inrätta	-10.7657
▁Instagram	-10.7657
▁premiärminister	-10.766
▁Lag	-10.7662
▁deltagarna	-10.7663
▁verkligt	-10.7666
▁integration	-10.7666
landet	-10.767
analys	-10.767
▁vilda	-10.7671
▁gatan	-10.768
cker	-10.7681
▁förenkla	-10.7687
kultur	-10.769
99	-10.7691
modeller	-10.7696
rade	-10.7697
▁Pan	-10.7699
skatt	-10.7701
▁kopplade	-10.7706
▁jordbruk	-10.7712
Se	-10.7714
▁roman	-10.7716
▁Karl	-10.7717
CO	-10.772
▁Vatten	-10.7721
▁övre	-10.7722
▁YouTube	-10.7722
▁teoretisk	-10.7724
▁Abraham	-10.7724
▁Typ	-10.7728
▁lägsta	-10.7731
▁operation	-10.7732
filer	-10.7734
▁hjärn	-10.7734
▁fäst	-10.7736
▁Gen	-10.7737
sökning	-10.7737
▁genomför	-10.7738
▁problemen	-10.7745
▁underbart	-10.7745
▁begreppet	-10.7749
▁snäll	-10.7752
ST	-10.7753
▁Hu	-10.7753
▁kategorier	-10.7755
▁besvara	-10.7757
▁scen	-10.7758
regler	-10.7758
priset	-10.7761
sförmåga	-10.7765
stil	-10.7765
▁vakna	-10.7768
▁vägledning	-10.7772
▁fåglar	-10.7774
▁1)	-10.7779
▁exakta	-10.7782
org	-10.7783
▁mobiltelefon	-10.7786
▁förse	-10.7788
▁velat	-10.7789
▁sevärdheter	-10.779
▁leende	-10.779
▁kopia	-10.7794
▁verkställande	-10.7794
▁anställd	-10.7796
▁Qu	-10.7798
▁ECB	-10.7799
produkt	-10.7799
▁register	-10.7803
illa	-10.7804
▁Ring	-10.7804
▁Life	-10.7805
▁önskan	-10.7807
ney	-10.7807
▁rymden	-10.7809
▁ovanligt	-10.781
▁ansvaret	-10.781
▁120	-10.7811
▁Free	-10.7815
service	-10.782
▁placeras	-10.7821
▁Spela	-10.7823
▁elektronisk	-10.7825
▁kommun	-10.7825
▁strategiska	-10.7831
iz	-10.7833
▁spelen	-10.7834
ställning	-10.7838
▁målen	-10.784
▁avancerad	-10.7841
▁idén	-10.7843
borg	-10.7844
▁trygg	-10.7846
▁Sun	-10.7846
▁leka	-10.785
▁King	-10.785
▁Digital	-10.7851
hörande	-10.7852
▁kritik	-10.7854
▁löne	-10.7855
▁2-	-10.7856
▁ägde	-10.7857
▁ätit	-10.7858
▁informations	-10.7859
▁deltog	-10.7863
▁USB	-10.7864
▁rekord	-10.7864
▁bostäder	-10.7864
punkt	-10.7869
▁ställde	-10.787
RO	-10.7871
▁katastrof	-10.7875
▁iOS	-10.7878
göra	-10.7883
död	-10.7888
▁kall	-10.7888
▁Sky	-10.7891
▁so	-10.7892
▁Kontakta	-10.7892
▁rimlig	-10.7893
▁pojke	-10.7899
Att	-10.7904
fo	-10.7906
▁betona	-10.7909
vå	-10.791
▁observera	-10.7911
från	-10.7913
▁metoden	-10.7913
▁Ve	-10.7916
▁dejting	-10.7917
▁800	-10.792
▁Gamla	-10.7925
▁implementera	-10.7925
▁Perfekt	-10.7925
▁Club	-10.7925
▁realtid	-10.7925
▁dödade	-10.7926
▁Skicka	-10.7927
▁förening	-10.7927
▁rådgivning	-10.7934
Ä	-10.7938
NA	-10.7942
▁Steg	-10.7943
▁belysning	-10.7944
▁överlämna	-10.7945
▁utbilda	-10.7948
▁frakt	-10.7949
▁biologiska	-10.7952
▁55	-10.7954
▁brister	-10.7958
▁falska	-10.7958
▁utformad	-10.7966
▁lov	-10.7969
▁uppmärksamma	-10.797
gångar	-10.7971
ingar	-10.7971
▁sjuka	-10.7973
▁ingå	-10.7974
▁Bor	-10.7975
▁trevligt	-10.798
▁CD	-10.7983
▁togs	-10.7988
▁utredning	-10.7996
▁Världen	-10.7996
▁ryggen	-10.7996
▁vice	-10.7997
▁sällskap	-10.7999
▁betyg	-10.8
▁Gillar	-10.8
▁revision	-10.8001
skolan	-10.8001
▁punkterna	-10.8004
▁läggs	-10.8006
▁Her	-10.8008
▁städerna	-10.801
Man	-10.8012
▁presentation	-10.8019
▁ost	-10.8023
▁Samtlig	-10.8024
én	-10.8024
rop	-10.8027
▁förälder	-10.803
▁samarbetar	-10.8036
vit	-10.8038
aw	-10.804
▁övertygad	-10.8045
▁tävling	-10.8046
▁integrerad	-10.8047
▁skickade	-10.8048
▁blodtryck	-10.8048
▁agerar	-10.8053
▁besluta	-10.8054
▁Sydafrika	-10.8062
organisationen	-10.8062
smetoder	-10.8063
▁soldater	-10.8065
▁ledamöter	-10.8066
▁moder	-10.8071
▁lägenheter	-10.8074
▁nyckeln	-10.8074
▁gradvis	-10.8076
▁generellt	-10.8077
▁utgöra	-10.8078
▁revolution	-10.8078
▁skulder	-10.8083
▁general	-10.8085
▁Web	-10.8085
▁danska	-10.8091
▁vaknar	-10.8091
king	-10.8094
▁kanaler	-10.8096
▁USD	-10.8097
▁medie	-10.8097
▁Staden	-10.8099
▁Program	-10.8102
▁negativ	-10.8105
▁elektriska	-10.8107
lys	-10.8107
▁Hill	-10.8107
▁dras	-10.8112
▁hörn	-10.8113
▁frågorna	-10.8116
▁ne	-10.8118
▁uppnås	-10.8123
▁generera	-10.8126
▁prestation	-10.8131
vägagångssätt	-10.8132
Г	-10.8132
▁inbegripet	-10.8132
▁mörkret	-10.8132
låt	-10.8133
▁as	-10.8133
▁mag	-10.8134
innehåll	-10.8136
▁Kyrkan	-10.8138
▁arm	-10.8143
▁Pet	-10.8143
fic	-10.8145
▁spänning	-10.8148
▁bandet	-10.8149
såtgärder	-10.8151
▁«	-10.8155
▁enskild	-10.8161
▁Sv	-10.8162
▁tysk	-10.8165
▁locka	-10.8167
▁sjunga	-10.817
ula	-10.8179
mal	-10.8179
▁bollen	-10.8182
lands	-10.819
▁jämför	-10.8191
överskridande	-10.8192
▁måla	-10.8193
▁känslig	-10.8195
▁Helsingfors	-10.8202
▁Öppna	-10.8202
▁Österrike	-10.8202
▁önskemål	-10.8202
▁återhämtning	-10.8202
▁föda	-10.8203
▁dörrar	-10.8204
förordningen	-10.8204
▁scenen	-10.8205
▁tränare	-10.8207
”)	-10.8207
▁Love	-10.8208
▁diskriminering	-10.8209
▁Väl	-10.8209
▁praktik	-10.8213
ön	-10.8213
bro	-10.8213
▁disk	-10.822
kur	-10.8222
ON	-10.8223
▁publicerade	-10.8225
▁kronisk	-10.8227
efter	-10.8228
▁främjar	-10.8229
kväll	-10.8231
▁Herrens	-10.8233
▁infektion	-10.8233
▁gråta	-10.8234
▁Fadern	-10.8235
▁out	-10.8238
▁robot	-10.8239
▁he	-10.8239
▁gammalt	-10.8242
▁torsdag	-10.8248
savtal	-10.8251
▁(3	-10.8255
▁utformade	-10.8258
▁årligen	-10.826
▁odla	-10.8263
▁läget	-10.8264
▁nämnda	-10.8272
▁Research	-10.8272
▁grönt	-10.8274
▁€	-10.8282
▁roller	-10.8284
▁medlemsstaten	-10.8291
▁Ak	-10.8291
vägar	-10.8296
olog	-10.8302
▁HD	-10.8306
▁Spa	-10.8307
▁Helt	-10.8308
▁kontinuerligt	-10.8311
▁kar	-10.8314
▁Ram	-10.8321
unt	-10.8323
▁lyckliga	-10.8323
vägen	-10.8329
vent	-10.8332
▁djuren	-10.8333
▁talat	-10.8333
▁Stockholms	-10.8336
▁sky	-10.8338
▁miljöer	-10.8338
▁Allah	-10.8338
▁mynt	-10.8341
MS	-10.8341
▁Norden	-10.8341
▁annanstans	-10.8343
▁kreativitet	-10.8346
▁hamn	-10.8346
▁funnit	-10.8346
mannen	-10.8348
ice	-10.8348
▁Vänligen	-10.8349
skola	-10.835
ym	-10.835
▁grundare	-10.835
▁infektioner	-10.8354
▁fysik	-10.8358
ure	-10.836
▁38	-10.8368
23	-10.8369
▁mail	-10.8371
året	-10.8372
▁koncentration	-10.8379
▁döma	-10.8379
chef	-10.8385
uppgifter	-10.8388
räkning	-10.839
▁livstid	-10.8394
ningarna	-10.8395
skada	-10.8397
▁su	-10.8398
▁höst	-10.8407
▁banken	-10.8408
▁landskap	-10.8411
▁Liksom	-10.8414
▁krävde	-10.8414
▁tempel	-10.8414
former	-10.8416
▁värdefulla	-10.8416
▁Full	-10.8419
▁hölls	-10.8423
▁bränna	-10.843
MA	-10.843
dda	-10.8433
old	-10.8434
▁Santa	-10.8436
ater	-10.8439
▁fader	-10.8445
▁Plan	-10.8445
skrivning	-10.8447
iva	-10.8447
▁publiken	-10.8448
▁närmar	-10.8449
▁funderar	-10.8454
▁återförsäljare	-10.8458
▁fundera	-10.8459
▁integrera	-10.846
▁försäkrings	-10.846
An	-10.8465
ics	-10.8467
▁publiceras	-10.8477
▁Times	-10.8482
▁Smart	-10.8482
bli	-10.8482
▁Mellanöstern	-10.8486
▁huvudsakligen	-10.8487
▁munnen	-10.8487
▁generationen	-10.8488
▁sv	-10.8489
lagen	-10.8493
▁söta	-10.8494
▁förhållandet	-10.8498
iserad	-10.8498
▁efteråt	-10.8499
▁Gold	-10.8501
▁produceras	-10.8502
▁39	-10.8504
nätverk	-10.8508
▁representera	-10.8511
▁Store	-10.8518
▁ledsen	-10.852
▁städa	-10.852
?!	-10.8521
▁akademiska	-10.8523
▁angiv	-10.8524
▁hänga	-10.8525
oss	-10.853
▁Wild	-10.8533
▁tung	-10.8534
▁2015.	-10.8539
lösning	-10.854
▁pappers	-10.8543
▁slit	-10.8546
serie	-10.8547
▁kyl	-10.8548
▁tvingade	-10.8551
▁löfte	-10.8556
▁tillverkade	-10.8556
▁bildar	-10.8556
uc	-10.8559
▁Brasilien	-10.8559
▁knappast	-10.8559
▁viktminskning	-10.8559
▁gissa	-10.8559
ini	-10.8559
▁fördjupa	-10.8564
▁medlemmarna	-10.8565
▁Mil	-10.8565
vad	-10.8568
▁lögn	-10.857
lov	-10.8572
▁rådgivare	-10.8574
▁vägrar	-10.8577
CA	-10.8577
▁domare	-10.8578
fält	-10.8579
▁stilla	-10.8579
▁utföras	-10.8581
bord	-10.8582
▁svag	-10.859
▁försvinna	-10.8596
besök	-10.8602
▁måndag	-10.8603
▁present	-10.861
▁Lake	-10.8614
▁bergen	-10.8614
▁Personer	-10.8615
▁distribution	-10.8616
ack	-10.8618
▁ensamma	-10.8627
▁tomt	-10.8628
ssa	-10.863
▁fossil	-10.8632
▁Mexiko	-10.8632
▁Previous	-10.8632
▁förresten	-10.8632
▁Vegas	-10.8632
▁Charles	-10.8632
▁föds	-10.8632
▁enastående	-10.8633
▁enklaste	-10.8636
▁flytande	-10.8636
▁blind	-10.8638
▁intryck	-10.8638
▁strukturer	-10.8638
▁Sk	-10.8641
▁Hy	-10.8643
▁Mi	-10.8644
källa	-10.8647
▁förnya	-10.8648
▁drabbade	-10.8648
▁utsatt	-10.8649
CC	-10.8649
▁samråd	-10.865
▁fantasi	-10.865
▁Saint	-10.8651
▁orsakas	-10.8651
▁återvänder	-10.8656
▁vitamin	-10.8656
▁inställningar	-10.8659
▁förmedla	-10.8662
▁uppdateringar	-10.8662
▁uppmuntrar	-10.8665
▁Auto	-10.8666
▁böj	-10.8667
grund	-10.8668
▁kursen	-10.8669
pl	-10.8669
▁lös	-10.8671
ai	-10.8672
▁dubbelt	-10.8674
ach	-10.8675
▁we	-10.8675
▁omdömen	-10.8678
▁Test	-10.868
kvalitet	-10.8681
▁planerade	-10.8684
▁förordningen	-10.8684
▁bet	-10.8686
▁delade	-10.8687
▁missa	-10.8689
SS	-10.8691
▁mediciner	-10.8698
▁intäkter	-10.87
▁iPad	-10.8706
▁dölja	-10.8706
▁Flyg	-10.8707
▁hjälte	-10.8712
kast	-10.8717
▁annons	-10.8717
▁dödsfall	-10.8718
▁paus	-10.8718
roll	-10.872
▁upprepade	-10.8722
▁köpare	-10.8725
▁medvetenhet	-10.8726
fu	-10.873
star	-10.8732
▁Användning	-10.8739
krav	-10.8742
ura	-10.8745
jan	-10.8749
▁Sc	-10.875
koncernen	-10.8751
▁sån	-10.8752
▁ställs	-10.8752
▁praktisk	-10.8754
▁anpassade	-10.8755
▁publicera	-10.8758
fråga	-10.876
▁förvånad	-10.8763
▁sekund	-10.8771
▁ma	-10.8773
▁vetenskapen	-10.8773
▁hållbart	-10.8774
grad	-10.8776
▁HERREN	-10.8776
▁förslaget	-10.8778
mus	-10.8779
▁flexibilitet	-10.8779
▁avsevärt	-10.8779
▁silver	-10.878
▁Manchester	-10.878
▁färgen	-10.8781
▁Angeles	-10.8781
▁försvars	-10.8781
▁östra	-10.8783
▁genomföras	-10.8785
▁1998	-10.8786
▁tekniskt	-10.8787
▁inriktning	-10.8789
▁arbetstagare	-10.8793
kurs	-10.8794
▁besvär	-10.8794
▁Priset	-10.8794
▁Ford	-10.8796
partner	-10.8798
▁bloggar	-10.8799
▁forskarna	-10.8801
4)	-10.8803
▁Ru	-10.8804
▁blockera	-10.8805
OL	-10.8808
bolaget	-10.8808
▁alltmer	-10.8811
alternativ	-10.8812
▁institution	-10.8813
kol	-10.8818
▁Behandling	-10.882
▁dr	-10.8822
▁koldioxid	-10.8825
▁nämnde	-10.8832
▁obe	-10.8834
ören	-10.8836
▁harmoni	-10.8836
▁golf	-10.8837
▁sjukvård	-10.8838
▁skådespelare	-10.8839
celler	-10.8842
▁Kim	-10.8843
▁utarbeta	-10.8847
▁minskat	-10.8847
fas	-10.8853
▁Association	-10.8854
åg	-10.8854
▁Fo	-10.8854
▁Fyra	-10.8855
▁hushåll	-10.8855
värden	-10.8859
rk	-10.886
▁Kör	-10.8862
▁kontroller	-10.8863
▁insättning	-10.8864
▁ankomst	-10.8868
AS	-10.8868
▁stiger	-10.8869
▁ideal	-10.8869
▁Dags	-10.8872
▁poly	-10.8873
lic	-10.8874
▁stabilitet	-10.8874
hjälp	-10.8876
▁rolig	-10.8879
▁reagerar	-10.8879
▁Za	-10.8881
företaget	-10.8881
lö	-10.8883
▁ägaren	-10.8892
morgon	-10.8892
▁måltider	-10.8895
▁national	-10.8895
hon	-10.8898
▁väntat	-10.8899
▁kroppens	-10.8899
▁eliminera	-10.8901
▁motivera	-10.8902
▁stannade	-10.8903
▁u	-10.8903
▁flyger	-10.8904
gra	-10.8911
▁välj	-10.8912
▁fiende	-10.8916
▁Com	-10.8918
▁ordna	-10.8921
ägare	-10.8921
öl	-10.8927
▁Miljö	-10.8929
▁upplevt	-10.8929
▁hanteras	-10.893
▁1996	-10.893
32	-10.893
▁Satan	-10.8931
▁nöd	-10.8932
ekonomi	-10.8932
▁tränings	-10.8933
▁ST	-10.8933
▁övergrepp	-10.8934
ise	-10.8935
▁kosta	-10.8936
▁free	-10.8937
▁tjänsterna	-10.8938
▁glöm	-10.8938
▁tävlingen	-10.8938
EC	-10.8943
▁fransk	-10.8943
▁minnes	-10.8944
▁arabiska	-10.8944
▁engagera	-10.8946
▁sälj	-10.8948
▁undervisa	-10.8949
▁dyker	-10.8952
▁pop	-10.8961
gången	-10.8962
▁rapportering	-10.8964
▁sur	-10.8967
arbetare	-10.8967
▁filosofi	-10.8968
försäljning	-10.8969
splan	-10.8969
ville	-10.8973
▁sjukhuset	-10.8976
EEG	-10.8978
spelet	-10.8986
▁Vita	-10.8986
beslut	-10.8987
▁ledningen	-10.8987
▁drycker	-10.8991
▁bomb	-10.8994
▁utsatta	-10.8997
▁meningen	-10.8998
▁fylld	-10.8999
IC	-10.8999
▁Company	-10.9005
▁matematik	-10.9005
▁Snart	-10.9005
▁arbetare	-10.9005
▁samordning	-10.9005
▁palestinsk	-10.9006
zz	-10.9007
▁konventionen	-10.9007
▁tredjedel	-10.9008
▁väggen	-10.9009
▁pressmeddelande	-10.9012
▁synder	-10.9014
▁vetenskaplig	-10.9014
▁djupare	-10.9016
▁logga	-10.9018
▁gruv	-10.9018
▁majoriteten	-10.9019
▁grannar	-10.9021
väl	-10.9021
▁fenomen	-10.9025
▁motståndare	-10.9026
▁salu	-10.9026
▁önskade	-10.9027
▁sortiment	-10.9028
▁Nä	-10.9029
▁tidning	-10.903
▁mask	-10.903
▁Inn	-10.9032
▁värda	-10.9032
▁Act	-10.9036
▁Team	-10.9036
undersökning	-10.9038
ografi	-10.9038
▁terapi	-10.9039
▁ris	-10.9041
amp	-10.9041
▁ändrade	-10.9044
▁herr	-10.9046
▁märker	-10.9048
▁itu	-10.9048
tim	-10.9055
mod	-10.9056
▁välkomnar	-10.9058
▁matcher	-10.9058
▁insikt	-10.9063
▁Sluta	-10.9065
▁enormt	-10.9067
nner	-10.9073
▁volym	-10.9074
gren	-10.9077
su	-10.9079
▁fastigheter	-10.908
▁Exempel	-10.908
▁Frank	-10.9081
▁verifiera	-10.9082
▁ägs	-10.9082
▁säg	-10.9085
▁pojkvän	-10.9087
▁Gra	-10.9087
▁motion	-10.9089
▁Mannen	-10.909
▁laga	-10.909
▁motverka	-10.909
▁White	-10.9093
▁Borde	-10.9094
hål	-10.9094
▁gåvor	-10.9095
▁erhålla	-10.9095
▁tillträde	-10.9096
▁bin	-10.9096
▁museum	-10.9098
stor	-10.9098
▁justera	-10.9099
2)	-10.9103
ani	-10.9104
for	-10.9105
processen	-10.9105
dagar	-10.911
▁flytt	-10.9111
▁dotterbolag	-10.9111
park	-10.9113
US	-10.9117
▁presidenten	-10.9123
▁Väst	-10.9124
▁Boken	-10.9128
▁känneteckna	-10.913
▁ly	-10.9132
▁skogs	-10.9136
▁leksaker	-10.9137
oner	-10.9139
▁källan	-10.914
▁Pris	-10.9145
▁försvar	-10.9145
▁ansträngning	-10.9149
▁modellen	-10.9149
▁transaktion	-10.9149
▁Kr	-10.9151
▁försäljningen	-10.9153
▁High	-10.9154
▁Bättre	-10.9158
▁Tillbaka	-10.9158
▁åstadkomma	-10.9158
field	-10.9159
▁CBD	-10.916
▁kristen	-10.9161
▁Fe	-10.9161
▁skrämmande	-10.9161
Har	-10.9162
▁förbjudet	-10.9163
▁Johnson	-10.9164
31	-10.9167
möte	-10.9169
▁barnets	-10.9169
▁parkering	-10.9169
▁öron	-10.917
▁förare	-10.9171
▁Rest	-10.9173
▁portfölj	-10.9174
▁yttrande	-10.9175
▁kabel	-10.9175
▁hittas	-10.9175
▁lust	-10.9176
vir	-10.9179
▁vägg	-10.918
▁finansiera	-10.918
▁förbättringar	-10.918
▁magiska	-10.918
▁övning	-10.9182
▁rötter	-10.9182
trä	-10.9183
▁hänger	-10.9184
▁urin	-10.9184
▁albumet	-10.919
▁pl	-10.9192
-3	-10.9192
▁rikedom	-10.9195
▁stabil	-10.9196
ness	-10.9197
▁anpassning	-10.9199
inklusive	-10.92
▁texter	-10.9205
▁tillverkaren	-10.9206
▁områdena	-10.9212
position	-10.9213
▁Johan	-10.9213
▁spenderar	-10.9217
▁byggde	-10.9218
▁bitar	-10.9224
▁fattar	-10.9227
▁knä	-10.9233
pel	-10.9233
▁firar	-10.9235
▁golv	-10.9235
▁Madrid	-10.9236
▁publicerades	-10.9238
▁Sand	-10.9242
wood	-10.9243
▁förvärva	-10.9244
▁Tjänsten	-10.9244
over	-10.9246
ost	-10.9246
▁Övriga	-10.9249
▁belöning	-10.9252
▁journalist	-10.9259
▁Jämför	-10.9261
rummet	-10.9262
▁show	-10.9262
▁rutin	-10.9275
sverktyg	-10.9285
▁kommittén	-10.9286
▁veterinär	-10.9288
▁avkastning	-10.9288
▁förbindelser	-10.9289
26	-10.9294
▁EN	-10.9299
Detta	-10.9299
▁Top	-10.93
▁5-	-10.9301
▁skära	-10.9311
▁vakt	-10.9312
flyg	-10.9312
gs	-10.9313
▁Standard	-10.9314
▁Nordkorea	-10.9314
▁söner	-10.9314
utbildning	-10.9315
▁kulturer	-10.9315
▁uppföljning	-10.9317
▁Fick	-10.9318
▁Små	-10.9319
Med	-10.9321
▁skepp	-10.9321
▁beräkna	-10.9322
kapital	-10.9323
▁Känns	-10.9326
▁förvandla	-10.9327
▁tycka	-10.9331
▁Projektet	-10.9333
höjd	-10.9333
▁stänger	-10.9334
▁Grund	-10.9335
▁betalt	-10.9337
tch	-10.9339
▁öst	-10.9339
▁Time	-10.934
ez	-10.9344
sfrågor	-10.9348
▁trycka	-10.9349
▁parlamentet	-10.935
trafik	-10.9352
jor	-10.9355
▁ekosystem	-10.9357
▁tillverkas	-10.9357
Varför	-10.9359
▁ringer	-10.9359
▁recensioner	-10.9362
▁svär	-10.9363
▁kopp	-10.9364
▁vände	-10.9366
tala	-10.9366
▁upprepa	-10.9366
▁block	-10.937
rig	-10.9374
▁Finlands	-10.9374
▁neuro	-10.9375
▁Sim	-10.9377
energi	-10.9378
drivna	-10.938
▁kärnvapen	-10.938
▁blad	-10.9381
▁Ali	-10.9381
sprogrammet	-10.9381
ori	-10.9385
▁litteratur	-10.9389
▁diskussion	-10.939
▁Chicago	-10.9393
▁överhuvudtaget	-10.9393
▁återhämta	-10.9393
▁jättebra	-10.9393
▁utmanande	-10.9396
▁Ce	-10.9397
▁logistik	-10.9397
▁trend	-10.9399
ned	-10.9399
oc	-10.9404
▁Utveckling	-10.9404
▁2)	-10.9405
▁terrorism	-10.9406
▁skapades	-10.9406
livet	-10.9407
jord	-10.941
▁affär	-10.9412
▁etablera	-10.9413
datum	-10.9413
▁samverkan	-10.9417
▁strålning	-10.9418
▁rörande	-10.942
▁simma	-10.9427
mos	-10.9429
▁vågar	-10.9433
▁heltid	-10.9433
▁taket	-10.9435
▁Mel	-10.9435
▁riskerna	-10.9439
▁Islam	-10.9441
hel	-10.9447
▁pojkar	-10.945
▁omedelbar	-10.9452
aktivitet	-10.9457
▁lagstiftningen	-10.9459
▁märka	-10.9472
▁1997	-10.9472
▁koll	-10.9473
▁förstör	-10.9473
int	-10.9474
▁färdiga	-10.9474
▁Världens	-10.9474
▁feedback	-10.9474
▁alternativa	-10.9476
▁oftare	-10.9476
▁Pat	-10.9477
▁Bush	-10.9478
▁räddning	-10.9479
▁framgår	-10.9479
▁Che	-10.948
även	-10.9482
▁bekant	-10.9482
lid	-10.9483
▁inredning	-10.9486
row	-10.9488
▁uppåt	-10.9488
kläder	-10.9502
▁Pu	-10.9503
▁bekväma	-10.9503
▁syns	-10.9504
▁da	-10.9505
lägga	-10.9506
▁utbildningen	-10.9508
TV	-10.9513
á	-10.9513
▁verkan	-10.9513
AL	-10.9515
terapi	-10.9516
▁minimal	-10.9519
skador	-10.9519
▁Mary	-10.952
▁bett	-10.9521
tum	-10.9522
▁märkt	-10.9525
▁motiv	-10.9525
lon	-10.9528
▁nätter	-10.953
▁dam	-10.9532
▁noggrann	-10.9533
▁tränar	-10.9534
▁möjligheterna	-10.9534
ous	-10.9538
IP	-10.9541
värd	-10.9542
▁skam	-10.9545
▁Netflix	-10.9552
▁Florida	-10.9552
▁distans	-10.9552
benägna	-10.9552
sko	-10.9555
mis	-10.9558
▁park	-10.9558
▁strider	-10.9563
iteten	-10.9564
▁1990	-10.9565
▁golvet	-10.9567
▁flickvän	-10.9568
▁beakta	-10.9573
▁expertis	-10.9574
▁bro	-10.9575
▁butiken	-10.9576
▁planerat	-10.9577
▁Fort	-10.958
▁armén	-10.9583
▁okänd	-10.9584
65	-10.9584
▁Mål	-10.9584
barhet	-10.9587
▁religiös	-10.9588
▁fart	-10.9591
vig	-10.9591
smål	-10.9595
platsen	-10.9596
video	-10.9598
ash	-10.9599
projektet	-10.9601
▁primära	-10.9601
▁utgifter	-10.961
status	-10.9611
▁chefer	-10.9612
sområde	-10.9612
bilar	-10.9612
adress	-10.9613
▁dödar	-10.9613
station	-10.9614
medlemmar	-10.962
dos	-10.962
fest	-10.9623
▁z	-10.9625
▁mjuk	-10.9625
▁gäng	-10.9626
▁20-	-10.9626
sikt	-10.9628
▁hemliga	-10.9632
▁jo	-10.9632
▁antibiotika	-10.9633
▁erkänner	-10.9633
▁medelstora	-10.9633
▁1995	-10.9634
▁teater	-10.9634
▁unions	-10.9636
dags	-10.9638
ologiska	-10.9638
▁skyddas	-10.9639
▁skyldiga	-10.9641
▁European	-10.9642
▁Will	-10.9647
▁Bal	-10.9653
▁huvudstaden	-10.9653
06	-10.9655
bon	-10.9657
▁Ordet	-10.9659
▁olagligt	-10.9662
▁elektrisk	-10.9665
▁kusten	-10.9665
fonden	-10.9667
sätter	-10.9668
▁kg	-10.9668
linje	-10.9671
▁direktivet	-10.9675
▁Hör	-10.9675
▁kritiska	-10.9676
▁organisera	-10.9677
az	-10.9677
▁marknadsförings	-10.968
▁berättelsen	-10.9683
▁Gal	-10.9683
▁hästen	-10.9686
▁störningar	-10.9687
▁Pol	-10.9689
▁utställning	-10.9696
▁4:	-10.9699
bär	-10.9701
▁saknade	-10.9702
▁kur	-10.9703
▁front	-10.9707
▁Lätt	-10.9713
▁flexibla	-10.9714
▁Donald	-10.9714
▁skedde	-10.9715
▁funktionalitet	-10.9715
kta	-10.9716
konst	-10.9717
▁patienterna	-10.9718
aga	-10.9719
▁därigenom	-10.972
gå	-10.972
▁bredare	-10.9722
▁lin	-10.9722
▁konton	-10.9729
▁åldern	-10.9732
▁700	-10.9733
▁Lämna	-10.9733
▁Regeringen	-10.9733
▁säkrare	-10.9734
▁Start	-10.9739
▁billiga	-10.9739
▁läsning	-10.974
ther	-10.9742
▁Pri	-10.9743
▁vandra	-10.9744
rick	-10.9745
▁blott	-10.9745
SI	-10.9746
▁dusch	-10.9748
vers	-10.975
▁revolutionär	-10.975
▁jobbat	-10.975
▁Th	-10.9756
▁lade	-10.9757
▁Fördelar	-10.9762
boken	-10.9762
▁koncentrera	-10.9763
▁orsakerna	-10.9763
▁konstnär	-10.9763
rim	-10.9764
▁mäklare	-10.9767
steknik	-10.9767
▁attacker	-10.9768
▁väcka	-10.9769
▁moral	-10.977
isera	-10.9771
▁("	-10.9771
▁Bur	-10.9772
▁tillbringa	-10.9773
▁sakna	-10.9775
▁närmast	-10.9777
rap	-10.9779
▁fi	-10.9782
▁ängel	-10.9784
▁exklusiva	-10.9786
▁mus	-10.9789
▁registrerat	-10.9791
nder	-10.9791
▁blick	-10.9793
▁beträffande	-10.9796
▁nätverks	-10.9796
▁Mellan	-10.9797
▁Scott	-10.9797
▁västra	-10.9799
hin	-10.98
ves	-10.9805
kontroller	-10.9806
▁upphandling	-10.9807
bal	-10.9807
▁Forskare	-10.9807
▁Kong	-10.9809
▁självständighet	-10.9809
▁Brand	-10.9814
▁undviker	-10.9814
▁radera	-10.9816
▁övningar	-10.9816
pot	-10.9818
TI	-10.9824
▁potentiellt	-10.9824
ansvar	-10.983
dde	-10.9831
▁Honom	-10.9834
▁löser	-10.9835
▁EG	-10.9835
▁fullständiga	-10.9836
▁Simon	-10.9836
▁sm	-10.9838
▁högra	-10.984
—	-10.9842
färg	-10.9851
▁förhandla	-10.9852
▁rest	-10.9856
perioden	-10.9858
▁sjön	-10.986
▁Mos	-10.9863
Co	-10.9864
▁pröva	-10.9865
gal	-10.9866
▁prioritera	-10.9866
uck	-10.9867
▁extrem	-10.9869
▁tu	-10.9875
▁konvertera	-10.9878
▁betydelsen	-10.9879
▁con	-10.988
▁föreställa	-10.9881
▁Önska	-10.9881
27	-10.9883
▁rå	-10.9883
2.	-10.9884
▁Health	-10.9885
▁glasögon	-10.9886
house	-10.9888
jer	-10.9889
▁vänlig	-10.9891
▁säte	-10.9891
▁gener	-10.9892
rikt	-10.9892
stiden	-10.9894
▁VM	-10.9895
▁Energi	-10.9897
▁bostad	-10.9902
ämnen	-10.9902
▁passerar	-10.9903
▁bistånd	-10.9903
▁Namn	-10.9904
▁sköt	-10.9905
▁smartphone	-10.9905
▁själar	-10.9906
▁artister	-10.9907
▁Miss	-10.9907
▁samlade	-10.9909
dal	-10.9909
▁lyx	-10.991
▁Spelet	-10.9914
▁spridning	-10.9914
▁Hus	-10.992
▁klassen	-10.9921
männen	-10.9922
-19	-10.9926
författare	-10.9927
modell	-10.9928
▁ungdoms	-10.9928
▁klipp	-10.9928
▁medlemskap	-10.9928
box	-10.993
vor	-10.9933
▁kraften	-10.9934
▁principen	-10.9936
▁födda	-10.9937
▁stränder	-10.9937
▁rutiner	-10.9938
▁sexuellt	-10.994
ppa	-10.9942
▁flykting	-10.9944
▁priserna	-10.9946
zo	-10.9946
▁bildades	-10.9946
Le	-10.9947
▁ränta	-10.9947
historia	-10.9956
▁onsdag	-10.9957
▁röstade	-10.9958
version	-10.9958
1)	-10.996
▁godkänner	-10.9962
▁Project	-10.9962
▁Brown	-10.9962
▁återstår	-10.9963
▁Xbox	-10.9963
▁graviditeten	-10.9964
kes	-10.9967
▁inträffade	-10.9971
▁traditioner	-10.9972
▁uppdatering	-10.9974
"?	-10.9976
▁syndrom	-10.9976
leverantör	-10.998
rek	-10.998
▁attack	-10.998
▁uppvärmning	-10.9982
fan	-10.9984
▁idrotts	-10.9987
▁definieras	-10.9988
▁stånd	-10.9988
▁Sanningen	-10.9988
▁Steve	-10.9993
▁hälsan	-10.9995
▁tidpunkten	-10.9996
▁lopp	-10.9998
▁virtuella	-10.9998
▁taxi	-11
▁sålt	-11.0005
▁klasser	-11.0005
▁reagera	-11.0006
▁öarna	-11.0007
källor	-11.001
▁släkt	-11.001
ü	-11.0012
▁utvecklades	-11.0013
▁läkaren	-11.0014
typer	-11.0014
▁förneka	-11.0016
fulla	-11.0018
▁reducera	-11.0031
full	-11.0033
▁trådlös	-11.0034
▁Konst	-11.0036
▁gemenskaps	-11.0037
▁kasinon	-11.0038
▁möjligen	-11.004
▁Lägenhet	-11.0041
handling	-11.0044
▁veckorna	-11.0044
▁kontant	-11.0044
▁humanitär	-11.0046
▁returnera	-11.0046
▁1994	-11.0046
▁sjätte	-11.0046
▁Aldrig	-11.0048
▁nationer	-11.0049
▁Mindre	-11.0049
▁favoriter	-11.0049
▁visdom	-11.005
els	-11.0054
▁Hotellet	-11.0055
▁upptagen	-11.0056
day	-11.0058
▁syre	-11.006
▁rep	-11.006
▁Alltid	-11.0061
▁Lind	-11.0063
gin	-11.0064
▁runda	-11.0065
maskiner	-11.0067
▁365	-11.0068
▁Music	-11.0069
▁körde	-11.0072
mö	-11.0073
▁Webbplatsen	-11.0074
▁dyrt	-11.0074
▁skydds	-11.0076
▁Lee	-11.0077
kra	-11.0078
▁fotograf	-11.0078
pin	-11.008
▁näring	-11.0083
▁arbetsplats	-11.0085
36	-11.0085
▁dokumentation	-11.0086
▁linjer	-11.0088
duk	-11.0091
▁medvetande	-11.0093
▁dej	-11.0094
vitamin	-11.0095
märke	-11.01
▁gynna	-11.0103
▁antas	-11.0105
▁fältet	-11.0112
▁syften	-11.0113
▁Möt	-11.0113
▁avslutas	-11.0114
▁Ag	-11.0114
oid	-11.0114
cc	-11.0116
EA	-11.0121
▁bota	-11.0123
▁injektion	-11.0131
▁Samsung	-11.0131
▁Bryssel	-11.0131
▁utgångspunkt	-11.0131
▁Airport	-11.0131
▁rättegång	-11.0132
▁destination	-11.0133
▁väster	-11.0133
ske	-11.0133
▁Ingenting	-11.0134
iter	-11.0134
RE	-11.0135
▁sällsynta	-11.0135
kurser	-11.0136
kän	-11.0136
▁Mag	-11.0137
▁anläggning	-11.0138
▁menade	-11.0138
▁Str	-11.0138
▁Ya	-11.0141
▁förlängning	-11.0142
▁omvandla	-11.0142
▁skog	-11.0143
hopp	-11.0144
▁<	-11.0145
ev	-11.0148
ero	-11.0148
sprodukter	-11.0149
▁War	-11.015
▁motsats	-11.0157
▁Kul	-11.0158
kommunikation	-11.016
▁begravning	-11.0161
▁primär	-11.0164
▁demokratiska	-11.0164
▁lugna	-11.0165
hl	-11.0166
avtalet	-11.0168
▁tillgodose	-11.0169
▁beslutat	-11.0171
▁Motor	-11.0172
▁bildas	-11.0173
▁OK	-11.0175
▁omfattning	-11.0178
▁användbara	-11.0179
▁vanor	-11.018
can	-11.0181
▁Cap	-11.0184
bidrag	-11.0185
▁sko	-11.0186
▁teorier	-11.0186
liknande	-11.0187
▁expandera	-11.0188
▁återvände	-11.0188
enheten	-11.0189
ky	-11.0191
75	-11.0195
▁frekvens	-11.0196
▁Vin	-11.0196
strategi	-11.0198
▁katten	-11.0199
▁korrekta	-11.0205
ical	-11.021
▁möjliggöra	-11.021
▁undersökningen	-11.0213
anter	-11.0216
▁besviken	-11.0216
▁Lyssna	-11.0216
able	-11.0218
▁loss	-11.0218
▁Nedan	-11.022
▁Cla	-11.022
aktiv	-11.0223
▁invandring	-11.0224
terna	-11.0225
▁Cup	-11.0225
▁fotbolls	-11.0225
▁människo	-11.023
▁trygga	-11.0233
▁begränsning	-11.0234
▁dansa	-11.0236
▁arkiv	-11.0238
▁störst	-11.0241
▁News	-11.0243
▁exportera	-11.0246
▁brittisk	-11.0249
fartyg	-11.0251
▁eviga	-11.0251
AP	-11.0252
48	-11.0252
▁hy	-11.0259
ding	-11.0259
▁Guide	-11.0269
flu	-11.027
partiet	-11.0271
64	-11.0277
▁resenärer	-11.0277
▁64	-11.0278
▁arbetsmiljö	-11.0279
▁99	-11.0279
▁rättvis	-11.0283
▁webben	-11.0283
▁kontrolleras	-11.0285
PS	-11.0286
▁olycka	-11.0289
▁Eva	-11.0299
▁Bob	-11.0299
▁web	-11.0299
▁Journal	-11.0302
▁Foundation	-11.0302
▁spektrum	-11.0302
▁vuxit	-11.0302
▁reparera	-11.0302
▁framträdande	-11.0304
lock	-11.0304
▁Olika	-11.0304
100	-11.0305
▁husdjur	-11.0305
Så	-11.0306
▁Haha	-11.0306
▁MS	-11.0306
▁anspråk	-11.0306
▁lindra	-11.0308
ida	-11.0309
tio	-11.0309
smedel	-11.0311
▁valda	-11.0311
▁Gre	-11.0311
▁River	-11.0314
▁överraskning	-11.0315
▁arrangemang	-11.0315
▁förverkliga	-11.0316
▁kemi	-11.0318
▁historier	-11.032
▁Män	-11.0322
▁MA	-11.0323
▁Chris	-11.0325
▁hormon	-11.0325
trar	-11.0327
▁atom	-11.0328
▁bevilja	-11.0328
▁sidorna	-11.0328
▁journalister	-11.033
28	-11.0331
▁singel	-11.0332
ljus	-11.0336
AM	-11.0338
▁By	-11.0339
▁cm	-11.034
▁såhär	-11.0341
▁kontinuerlig	-11.0342
▁regerings	-11.0342
alitet	-11.0345
▁41	-11.0347
▁dyra	-11.0348
well	-11.035
▁Tag	-11.0351
▁bebis	-11.0351
▁Nordamerika	-11.0353
@	-11.0353
ink	-11.0357
▁varumärket	-11.036
▁(4	-11.036
▁rensa	-11.0368
▁2018.	-11.0369
500	-11.0369
▁osv	-11.037
▁minnet	-11.037
dis	-11.0372
▁tårar	-11.0373
nit	-11.0374
▁Kunden	-11.0376
▁sinnen	-11.0378
▁Lev	-11.0379
▁identifierar	-11.0379
▁förbättras	-11.038
▁VI	-11.0382
▁konstnärer	-11.0382
▁representant	-11.0389
▁konversation	-11.0389
▁erfarna	-11.0389
▁Färg	-11.0389
▁försiktighet	-11.0389
▁Golf	-11.039
plattform	-11.0391
▁And	-11.0391
▁förmågor	-11.0393
▁abort	-11.0394
säkra	-11.0398
▁löper	-11.0403
Var	-11.0403
▁rörelsen	-11.0403
sats	-11.0409
▁Huset	-11.041
rö	-11.0411
▁sakta	-11.0412
▁gym	-11.0414
▁överstig	-11.0414
▁förbund	-11.0414
emi	-11.0415
▁bjuder	-11.0417
▁Senare	-11.0417
▁Kar	-11.042
▁chanser	-11.0422
åtgärder	-11.0425
▁släppt	-11.0426
▁1,5	-11.0427
motor	-11.0427
▁5:	-11.0434
arm	-11.0435
▁mörker	-11.0435
lund	-11.0436
▁vana	-11.0438
▁handlade	-11.0439
linjen	-11.044
taget	-11.0442
qua	-11.0442
nivån	-11.0444
▁överför	-11.0445
▁Fred	-11.0447
▁hi	-11.0448
▁ärlig	-11.0449
▁Stöd	-11.045
▁partier	-11.0454
▁läkemedels	-11.046
▁knappen	-11.0462
▁termer	-11.0464
skrav	-11.0465
Kr	-11.0466
ette	-11.0468
▁manliga	-11.0473
▁95	-11.0475
▁ho	-11.0476
▁monster	-11.0477
▁Djur	-11.0477
▁Alexander	-11.0477
▁Food	-11.0478
▁expansion	-11.048
kande	-11.048
cle	-11.0481
▁Excel	-11.0481
▁plattformar	-11.0482
▁elektronik	-11.0483
▁Bil	-11.0483
▁hedra	-11.0484
▁slåss	-11.0484
lus	-11.0485
ii	-11.0485
▁rengöring	-11.0486
▁ansökningar	-11.0486
▁Världs	-11.0488
▁inblandade	-11.0489
itu	-11.049
års	-11.0492
▁blomma	-11.0492
▁troligt	-11.0494
▁2017.	-11.0497
ture	-11.05
▁kontrollen	-11.05
▁Mig	-11.0504
▁skriven	-11.0505
satser	-11.0505
▁fungerande	-11.0506
▁sl	-11.0506
▁uppskatta	-11.0512
▁individuellt	-11.0513
▁godkänt	-11.0514
tech	-11.0515
▁gudomliga	-11.0515
sskydd	-11.0516
▁minoritet	-11.0517
▁historiskt	-11.0518
▁förstärka	-11.0519
stig	-11.052
▁yttersta	-11.0526
▁judarna	-11.0528
sverksamhet	-11.053
▁yrke	-11.0532
jobb	-11.0533
Gud	-11.0535
SE	-11.0537
TC	-11.0538
▁180	-11.0541
▁åldrar	-11.0544
mas	-11.0545
▁definition	-11.0545
die	-11.0549
▁gräs	-11.0555
iff	-11.0559
▁böckerna	-11.0559
▁upphör	-11.0559
▁Berg	-11.056
▁bröt	-11.0565
▁skilsmässa	-11.0565
▁trettio	-11.0566
▁förfarandet	-11.0568
syra	-11.057
▁inflammation	-11.0571
▁administration	-11.0572
salternativ	-11.0573
▁kulturen	-11.0574
▁Igår	-11.0575
uri	-11.0577
dera	-11.0581
▁israeliska	-11.0583
▁certifikat	-11.0585
▁importera	-11.0585
▁väsentliga	-11.0586
win	-11.0586
▁visum	-11.0587
rus	-11.0589
▁diskussioner	-11.0591
▁förutsatt	-11.0593
mä	-11.0596
marknad	-11.0597
▁njuter	-11.0597
profil	-11.0597
▁betrakta	-11.0599
▁mage	-11.0603
▁Stra	-11.0603
▁lyft	-11.0603
rörelsen	-11.0604
guide	-11.0604
ving	-11.0604
▁fördraget	-11.0607
▁snygg	-11.0607
▁utmärkta	-11.0607
▁kvinnors	-11.0607
▁recension	-11.061
▁långsiktigt	-11.0611
▁regional	-11.0614
▁fortsatta	-11.0618
▁billigt	-11.0618
▁besökt	-11.062
▁bott	-11.062
▁stjärna	-11.062
▁com	-11.0623
▁önska	-11.0624
▁Jon	-11.0625
▁involvera	-11.0626
▁djupa	-11.0631
▁2016.	-11.0636
▁Kärlek	-11.0637
▁helvetet	-11.0637
▁händelsen	-11.0641
▁2014.	-11.0642
▁avstå	-11.0653
▁medvetet	-11.0655
cia	-11.0655
▁tilldelas	-11.0656
▁kaos	-11.0657
▁anmäla	-11.0657
▁läkemedlet	-11.0657
/3	-11.0657
▁talang	-11.0658
▁bonusar	-11.0659
til	-11.0659
▁Marx	-11.066
▁Trans	-11.0662
▁ansluter	-11.0663
▁uppgick	-11.0664
▁regeringar	-11.0664
▁Press	-11.0664
▁Server	-11.0665
▁framöver	-11.0666
▁Wood	-11.0667
scen	-11.0667
39	-11.0672
▁begränsas	-11.0672
▁helvete	-11.0672
▁olyckor	-11.0673
ee	-11.0673
listan	-11.0673
▁attityd	-11.0674
hot	-11.0675
▁Resort	-11.0675
▁Au	-11.0676
▁glömde	-11.0676
tron	-11.0678
▁upphov	-11.0681
▁sammansättning	-11.0683
dik	-11.0688
▁pekar	-11.0689
lägg	-11.069
▁nyhets	-11.0692
nda	-11.0692
pre	-11.0695
▁tillverka	-11.0697
▁synpunkter	-11.0699
▁Bel	-11.0703
▁gitarr	-11.0704
▁konsekvenserna	-11.0704
▁förbjuda	-11.0704
▁offra	-11.0706
▁Game	-11.0706
▁mätning	-11.0707
▁ignorera	-11.0707
▁plantera	-11.0708
▁kampanjer	-11.0708
▁utvidga	-11.071
▁intern	-11.0713
▁komplettera	-11.0714
▁behandlade	-11.0719
samling	-11.0724
▁Fall	-11.0726
▁kontoret	-11.073
effekter	-11.0733
organ	-11.0734
▁halva	-11.074
ierna	-11.0742
▁Hollywood	-11.0745
▁Gratis	-11.0745
▁hemsidan	-11.0745
▁Pengar	-11.0746
sett	-11.0746
▁vackraste	-11.075
fallet	-11.0751
▁Nytt	-11.0753
55	-11.0755
▁Human	-11.0756
▁landsbygden	-11.0756
krig	-11.0757
▁Express	-11.0758
▁inteckning	-11.0759
▁inhemska	-11.076
▁avbryta	-11.076
▁your	-11.076
▁givit	-11.0761
nis	-11.0763
▁slottet	-11.0764
▁normer	-11.0765
lie	-11.0767
▁transporter	-11.0769
▁She	-11.0771
▁duktig	-11.0771
▁satsning	-11.0772
▁speglar	-11.0772
▁storm	-11.0774
▁hej	-11.0775
▁retur	-11.0777
▁densamma	-11.0777
▁härrör	-11.0778
▁pensions	-11.0779
04	-11.0779
▁fotografera	-11.078
▁akt	-11.078
▁lägenheten	-11.0785
▁registrerar	-11.0788
▁loppet	-11.0789
slutande	-11.079
▁fritid	-11.0791
▁reparation	-11.0797
▁invandrare	-11.0799
▁kortet	-11.0799
▁kreativ	-11.08
▁byrån	-11.08
ili	-11.0801
▁bedrägeri	-11.0801
anda	-11.0801
▁båten	-11.0803
vänd	-11.0803
▁släppte	-11.081
▁Cre	-11.0813
sök	-11.0814
▁vänligen	-11.0814
▁mjukvara	-11.0816
▁fåtal	-11.0817
kriget	-11.0818
▁President	-11.0824
▁förhandlingar	-11.0827
▁tråd	-11.0827
▁näringsämnen	-11.083
eu	-11.0833
▁Singapore	-11.0836
qu	-11.0836
▁forskar	-11.0837
▁intensiv	-11.0837
▁magi	-11.0837
▁Mars	-11.0838
ria	-11.084
▁Water	-11.084
färd	-11.0842
▁underliggande	-11.0842
kall	-11.0843
ME	-11.0844
▁närliggande	-11.0844
▁ba	-11.0844
▁Människan	-11.0844
▁lokaler	-11.0845
▁sammanfatta	-11.0849
▁fönstret	-11.0849
▁kompisar	-11.085
▁parken	-11.0852
▁räddade	-11.0855
eo	-11.0855
▁Sport	-11.0856
▁benen	-11.0857
▁plikt	-11.086
▁atmosfären	-11.0864
▁löften	-11.0865
▁utspela	-11.0869
AC	-11.0869
▁America	-11.0871
▁magen	-11.0876
▁stjärnorna	-11.0879
▁2013.	-11.0881
▁beslutade	-11.0886
ress	-11.0889
book	-11.0889
▁stiga	-11.089
▁fordonet	-11.0893
▁konsumera	-11.0894
▁entreprenör	-11.0896
▁belöna	-11.0899
lly	-11.09
▁44	-11.09
tagna	-11.0901
pu	-11.0906
suppgifter	-11.0907
▁Market	-11.0908
▁meddelar	-11.091
▁slutsatser	-11.091
▁utnyttjar	-11.0911
▁testat	-11.0912
▁avdelning	-11.0915
▁amerikaner	-11.0916
eringar	-11.0918
▁långsiktig	-11.092
▁begränsar	-11.0921
▁Anders	-11.0926
fullt	-11.0927
▁påskynda	-11.0927
▁möts	-11.0927
▁Hitler	-11.0928
▁tillåtna	-11.0928
▁Putin	-11.0928
▁panik	-11.0929
not	-11.0931
▁svärd	-11.0931
▁introduktion	-11.0931
ali	-11.0932
▁gränserna	-11.0932
▁kundens	-11.0934
seende	-11.0935
▁Space	-11.0936
▁återvinning	-11.0938
▁boll	-11.0938
▁Liv	-11.0941
▁port	-11.0943
▁byte	-11.0943
▁ringde	-11.0946
▁Röda	-11.0946
▁mästare	-11.0949
match	-11.095
▁sov	-11.0953
▁båtar	-11.0953
▁följ	-11.0954
▁filter	-11.0954
▁relationen	-11.0958
▁fordons	-11.0961
▁livslängd	-11.0964
▁symboler	-11.0964
▁fukt	-11.0965
▁Jean	-11.0965
nom	-11.0969
▁klagar	-11.0969
smöjligheter	-11.0973
▁öster	-11.0974
▁iaktta	-11.0976
▁Cy	-11.0977
▁krossa	-11.0978
▁Dam	-11.0978
▁biblioteket	-11.0979
▁MP	-11.0981
mönster	-11.0984
▁användbar	-11.0987
▁Tiden	-11.0988
lagt	-11.0989
▁hyr	-11.0992
▁3-	-11.0995
▁Projekt	-11.0997
▁stam	-11.0998
eriet	-11.1007
▁uppdaterad	-11.1008
▁Hol	-11.1011
teknologi	-11.1012
▁rosa	-11.1013
▁vardag	-11.1013
▁huvudkontor	-11.1015
vä	-11.1016
▁utvecklare	-11.1016
▁broder	-11.1017
▁protokoll	-11.1017
▁strategisk	-11.1018
eb	-11.1019
▁aktuell	-11.102
¥	-11.102
▁Lyckligtvis	-11.102
▁Ungefär	-11.102
▁nämns	-11.102
▁Läge	-11.102
▁utsätts	-11.102
▁Utbildning	-11.1021
▁Valley	-11.1021
▁belägen	-11.1021
▁bindande	-11.1022
▁förhoppningsvis	-11.1022
▁stötta	-11.1022
▁Pra	-11.1026
▁VPN	-11.1029
▁bedriva	-11.103
▁Kol	-11.1033
▁kungariket	-11.1038
▁separata	-11.1038
▁muslimska	-11.1041
▁43	-11.1043
▁vandring	-11.1044
dro	-11.1044
bus	-11.1045
▁hållit	-11.1046
▁välkända	-11.1046
▁sökte	-11.1052
inkomst	-11.1058
▁tystnad	-11.1062
ställd	-11.1062
▁räkning	-11.1063
-10	-11.1065
ej	-11.1065
▁reste	-11.1065
middag	-11.1066
▁godkända	-11.1068
49	-11.1072
▁industriella	-11.1074
▁närings	-11.1074
mel	-11.1074
▁härliga	-11.1075
iseringen	-11.1076
▁Än	-11.1077
järn	-11.1077
44	-11.1077
▁extrema	-11.1078
▁musiker	-11.1079
▁rättighet	-11.1086
rot	-11.1087
▁tvätt	-11.1087
PC	-11.1088
▁mentala	-11.109
▁tillgången	-11.1091
▁kommunen	-11.1092
tun	-11.1092
▁principerna	-11.1094
▁bron	-11.1096
stan	-11.1104
▁starten	-11.1105
▁(”	-11.1108
▁Disney	-11.1112
▁netto	-11.1113
▁tvungna	-11.1113
ø	-11.1113
▁1800-	-11.1114
▁galen	-11.1114
▁garage	-11.1114
▁Bridge	-11.1114
2-	-11.1114
▁ovanstående	-11.1115
▁Belgien	-11.1116
▁skräp	-11.1116
använd	-11.1118
AD	-11.1121
▁syd	-11.1121
▁info	-11.1122
▁dosen	-11.1123
▁uttrycker	-11.1123
god	-11.1123
sinformation	-11.1124
▁bearbetning	-11.1124
▁46	-11.1126
byte	-11.1128
hav	-11.1129
▁1900-	-11.1129
▁förmåner	-11.1129
▁gatorna	-11.113
▁snabbaste	-11.113
▁Amerikanska	-11.1132
▁Bond	-11.1132
▁översyn	-11.1136
▁Col	-11.1139
▁lektioner	-11.114
▁effektivare	-11.1141
▁extern	-11.1142
överföring	-11.1143
py	-11.1144
EM	-11.1148
ministeriet	-11.1148
▁teorin	-11.1154
lja	-11.1156
▁ytterst	-11.1157
▁indirekt	-11.1157
▁varelse	-11.116
▁värdefull	-11.116
▁distribuera	-11.1162
▁Sara	-11.1166
▁nådde	-11.1167
▁löst	-11.1167
66	-11.1168
▁uppnått	-11.1168
▁85	-11.117
37	-11.117
▁reflektera	-11.1175
cho	-11.1176
givna	-11.1181
▁klä	-11.1181
bud	-11.1184
tecken	-11.1185
▁strävan	-11.1187
▁humor	-11.1189
ED	-11.119
▁lockar	-11.119
grip	-11.1191
▁artist	-11.1191
▁timmars	-11.1193
▁doser	-11.1193
▁Hand	-11.1194
▁affären	-11.1194
▁insamling	-11.1195
▁religioner	-11.1197
▁ljudet	-11.1199
konventionen	-11.12
▁förlåta	-11.1201
▁samarbets	-11.1202
▁juridisk	-11.1203
▁litar	-11.1204
▁järnvägs	-11.1206
▁Vietnam	-11.1208
▁företrädare	-11.1208
▁beläget	-11.121
▁Koranen	-11.121
▁drömmen	-11.1211
▁bakgrunden	-11.1213
▁tillbehör	-11.1215
He	-11.1217
▁åtagande	-11.1218
▁nord	-11.1222
ama	-11.1224
▁mental	-11.1226
▁ID	-11.1227
visning	-11.1227
▁utrustade	-11.123
▁likt	-11.1232
▁farlig	-11.1233
▁Ham	-11.1235
ställda	-11.1235
▁turism	-11.1237
förlust	-11.1239
▁fastställas	-11.124
▁batterier	-11.124
▁byter	-11.1241
försäkring	-11.1242
▁himmel	-11.1245
▁Författaren	-11.1246
▁förbud	-11.1247
▁chock	-11.1248
unk	-11.125
▁ställt	-11.1252
▁frivilliga	-11.1252
▁heta	-11.1253
▁inkomster	-11.1255
▁krisen	-11.1255
▁temat	-11.1258
▁Ol	-11.126
▁Award	-11.1262
studie	-11.1262
ction	-11.1268
stol	-11.1268
resor	-11.1269
▁dokumentera	-11.127
hör	-11.1272
▁Dis	-11.1273
▁definitionen	-11.1273
ric	-11.1274
▁halvt	-11.1276
▁grå	-11.1277
▁beaktas	-11.1278
lle	-11.1279
ola	-11.1282
▁uppger	-11.1282
ware	-11.1283
▁konung	-11.1284
▁upphovsrätt	-11.1285
kl	-11.1286
▁hemligheter	-11.1287
▁sträva	-11.1287
▁förtryck	-11.1288
fördraget	-11.1289
▁maskinen	-11.1295
sak	-11.1296
‐	-11.1303
▁aluminium	-11.1303
▁signifikant	-11.1303
▁systrar	-11.1303
▁åtanke	-11.1303
▁klättra	-11.1303
▁spädbarn	-11.1303
▁Villa	-11.1304
▁with	-11.1304
▁Jones	-11.1308
▁stol	-11.1311
▁bidragit	-11.1311
▁Holland	-11.1311
▁lura	-11.1313
▁arbetarna	-11.1313
lad	-11.1315
▁stängt	-11.1315
▁köns	-11.1317
▁dödliga	-11.1318
▁lås	-11.1323
▁museet	-11.1324
smän	-11.1325
▁IS	-11.1325
▁slav	-11.133
▁finska	-11.1331
38	-11.1334
▁vinnande	-11.1335
stationer	-11.1336
▁trivs	-11.1338
▁gärningar	-11.1339
▁rekommenderade	-11.1341
▁felaktigt	-11.1344
▁handeln	-11.1345
▁befintlig	-11.1347
use	-11.1351
▁hjul	-11.1352
stånd	-11.1352
▁användbart	-11.1353
▁utmana	-11.1355
pack	-11.1356
hur	-11.1361
▁res	-11.1363
▁hamna	-11.1363
▁stimulera	-11.1367
▁beundra	-11.137
▁fartyget	-11.137
▁njut	-11.1377
▁missat	-11.1379
▁bu	-11.1381
▁lojalitet	-11.1381
▁pilot	-11.1383
▁flickan	-11.1388
regionen	-11.1389
▁förbättrade	-11.139
▁Syn	-11.139
▁undra	-11.1391
ich	-11.1391
gård	-11.1394
▁armar	-11.1395
▁human	-11.1397
▁uppfatta	-11.1399
cher	-11.1399
▁Portugal	-11.1399
▁bekymmer	-11.1399
▁uttryckligen	-11.14
▁kilo	-11.1401
01	-11.1401
▁Night	-11.1401
▁kommersiell	-11.1402
▁välfärd	-11.1402
▁korruption	-11.1404
▁själen	-11.1404
▁50%	-11.1405
kring	-11.1406
frågan	-11.1406
▁max	-11.1406
schef	-11.1407
▁East	-11.1409
▁kritisk	-11.1409
▁ifall	-11.1412
▁servrar	-11.1412
▁banan	-11.1414
▁väggar	-11.1415
▁vinden	-11.1415
▁Juda	-11.1416
▁anläggningen	-11.142
priser	-11.142
beroende	-11.1423
▁federala	-11.1424
dig	-11.1427
▁Sea	-11.1428
▁poster	-11.1429
▁uttag	-11.143
sprocess	-11.1432
▁engagerade	-11.1433
▁specialiserad	-11.1433
▁effektiviteten	-11.1434
▁analyser	-11.1438
▁pol	-11.144
▁kallades	-11.1441
▁slutsatsen	-11.1441
▁drabbats	-11.1442
▁körs	-11.1444
▁tappa	-11.1445
▁Bäst	-11.1446
▁mät	-11.1454
▁ansåg	-11.1455
shop	-11.1456
träff	-11.1456
graf	-11.1456
punkten	-11.1456
▁Ban	-11.1457
Pro	-11.1458
▁väntas	-11.1459
▁eftermiddagen	-11.1459
kontrakt	-11.146
▁fastställts	-11.146
ordförande	-11.146
▁fungerade	-11.1463
▁utmaningen	-11.1464
▁360	-11.1467
▁underlättar	-11.1471
▁sektor	-11.1477
▁genomfördes	-11.1479
▁detaljerad	-11.1483
▁koppar	-11.1485
tiskt	-11.1487
33	-11.1488
bevis	-11.1488
▁linjen	-11.1489
ellt	-11.1491
ffer	-11.1492
▁Christ	-11.1493
▁mal	-11.1493
▁fond	-11.1493
▁investerar	-11.1494
▁uppgiften	-11.1494
â	-11.1496
▁Clinton	-11.1496
▁DVD	-11.1496
▁Köpenhamn	-11.1496
▁matlagning	-11.1496
▁insulin	-11.1496
▁regelbunden	-11.1496
34	-11.1497
▁exemplar	-11.1499
jen	-11.15
▁Minst	-11.1501
▁förutsätter	-11.1505
▁certifiering	-11.1507
▁Karta	-11.1509
sperioden	-11.1509
05	-11.151
▁stärker	-11.1514
▁chatt	-11.1516
abel	-11.1518
zon	-11.152
cal	-11.152
▁årlig	-11.1522
▁samordna	-11.1523
▁givet	-11.1529
▁riktar	-11.1533
▁skick	-11.1534
▁ch	-11.1536
artikel	-11.1537
light	-11.1538
▁Resultaten	-11.1539
kontor	-11.1539
kat	-11.154
lli	-11.1541
dri	-11.1542
▁flexibel	-11.1547
▁variation	-11.1551
los	-11.1556
▁ränte	-11.1557
▁Pass	-11.1559
▁upphöra	-11.1561
▁skadad	-11.1561
sha	-11.1561
▁Kung	-11.1562
▁liter	-11.1563
▁institut	-11.1569
▁utgång	-11.157
▁föraren	-11.157
iker	-11.1571
▁torra	-11.1574
▁strikt	-11.1582
▁synliga	-11.1583
▁Fr	-11.1589
oni	-11.1591
▁passera	-11.1592
▁Para	-11.1593
▁himla	-11.1594
▁Vanligtvis	-11.1594
▁bokstäver	-11.1594
▁frälsning	-11.1594
▁1993	-11.1595
▁Spring	-11.1595
▁desperat	-11.1596
▁Tryck	-11.1596
▁from	-11.1596
▁£	-11.1597
▁IV	-11.1597
▁Back	-11.1602
▁tillämplig	-11.1602
anden	-11.1603
röst	-11.1605
▁hårdare	-11.1609
▁orsakade	-11.1609
▁SA	-11.1609
▁korrigera	-11.161
▁centralt	-11.161
▁Ci	-11.1611
▁medborgarna	-11.1611
▁varenda	-11.1613
▁Win	-11.1616
▁reform	-11.1616
ano	-11.1618
▁kandidater	-11.1618
▁evighet	-11.162
BA	-11.1625
▁idrott	-11.1626
▁tillverkar	-11.1639
▁can	-11.1639
▁slots	-11.164
▁forskningen	-11.1644
lev	-11.1644
▁beräkning	-11.1644
▁behåller	-11.1646
▁koppling	-11.1648
▁miljard	-11.1651
▁aktör	-11.1651
mes	-11.1653
blå	-11.1655
▁packa	-11.1655
▁j	-11.166
▁konferensen	-11.1662
▁=)	-11.1665
▁tele	-11.1665
ios	-11.1667
▁stenar	-11.1667
behåller	-11.1667
▁webbsida	-11.1668
▁mötte	-11.1668
förmåga	-11.1668
▁specialist	-11.1668
▁benämn	-11.1669
▁Form	-11.1669
▁utövar	-11.1669
▁aktieägare	-11.167
▁änglar	-11.167
vitt	-11.1676
▁Cat	-11.1676
▁Kal	-11.1679
▁åtaganden	-11.1685
▁AS	-11.1685
tagning	-11.1685
▁fyll	-11.1687
▁föreningen	-11.1689
sol	-11.169
lön	-11.169
▁tvärtom	-11.1693
▁Sovjetunionen	-11.1693
▁Uppsala	-11.1693
▁förvaring	-11.1694
▁arbetsuppgifter	-11.1695
▁Jackson	-11.1696
▁löpande	-11.1696
▁egenskap	-11.1697
▁flaska	-11.1698
▁Därmed	-11.1698
▁digitalt	-11.1699
▁interaktion	-11.1701
▁proffs	-11.1701
▁gilla	-11.1702
▁slappna	-11.1707
▁kasino	-11.1707
▁Skall	-11.1708
▁(2)	-11.1709
▁bankerna	-11.171
▁underrätta	-11.171
▁vaknade	-11.1711
▁upplevelsen	-11.1712
CT	-11.1713
rant	-11.1713
▁Radio	-11.1714
▁dödades	-11.1714
▁real	-11.1715
minne	-11.1716
▁si	-11.1717
▁Gran	-11.1717
▁anmälan	-11.1717
staden	-11.1719
▁sökning	-11.1723
▁beröm	-11.1727
▁påven	-11.1727
▁väsentlig	-11.1727
▁notera	-11.1728
▁åtgärda	-11.173
sidor	-11.1732
ath	-11.1734
▁marin	-11.1735
mann	-11.1736
▁eder	-11.1737
▁hittades	-11.1739
▁Justin	-11.1739
▁Services	-11.1739
Nu	-11.1741
politiken	-11.1742
län	-11.1742
teori	-11.1743
inställningar	-11.1744
▁absorbera	-11.1753
▁stödet	-11.1753
skapet	-11.1754
vänt	-11.1758
▁tydligen	-11.176
▁hungrig	-11.176
▁armé	-11.1762
▁härligt	-11.1762
handlare	-11.1764
▁lukt	-11.1767
▁Europe	-11.1768
▁kok	-11.1771
funktionen	-11.1771
resultat	-11.1772
▁utställningar	-11.1773
▁nyfiken	-11.1779
▁svaga	-11.1779
▁våg	-11.178
ball	-11.1783
▁dyka	-11.1785
▁designer	-11.1785
▁Dem	-11.1785
struktur	-11.1785
▁sc	-11.1787
▁öppnat	-11.1787
▁framtidens	-11.1788
filmer	-11.179
ställa	-11.179
46	-11.1793
▁tiderna	-11.1793
▁Amsterdam	-11.1793
▁Beroende	-11.1793
▁Förhoppningsvis	-11.1793
▁Skottland	-11.1793
▁Technology	-11.1793
▁syskon	-11.1793
▁underrättelse	-11.1793
▁tennis	-11.1794
▁1989	-11.1794
▁huvudvärk	-11.1794
▁campus	-11.1794
▁Henry	-11.1794
▁medborgarskap	-11.1795
▁ilska	-11.1795
▁placerade	-11.1795
forskare	-11.1795
▁förlänga	-11.1796
▁nervös	-11.1796
▁inträde	-11.1798
▁klassisk	-11.1799
▁allierade	-11.18
▁klimatet	-11.1801
▁51	-11.1802
bad	-11.1802
▁auto	-11.1802
säng	-11.1803
stopp	-11.1805
samhet	-11.1807
▁grej	-11.1809
▁2012.	-11.1809
▁vittnen	-11.181
▁nedgång	-11.1812
▁anländer	-11.1813
▁Bas	-11.1814
▁Skillnaden	-11.1818
▁mix	-11.182
▁Använda	-11.1822
▁index	-11.1823
▁kors	-11.1826
▁tabletter	-11.1827
▁motivation	-11.1828
▁självständigt	-11.1828
▁ambition	-11.1829
▁direkta	-11.1831
▁Roll	-11.1832
▁föreningar	-11.1835
▁Fl	-11.1835
▁Out	-11.1835
▁skapats	-11.1837
ket	-11.1838
fart	-11.1839
top	-11.1841
▁kinesisk	-11.1842
▁varorna	-11.1843
▁daglig	-11.1845
▁Arm	-11.1846
▁Sil	-11.1847
▁mini	-11.1848
▁Fader	-11.1849
städer	-11.1851
▁lagligt	-11.1852
hets	-11.1855
▁Of	-11.1855
▁antog	-11.1858
▁berget	-11.1859
▁elit	-11.1859
▁Dead	-11.186
▁fiskar	-11.1866
▁byggd	-11.1869
▁porträtt	-11.1871
ira	-11.1872
▁regelverk	-11.1873
▁tillämpar	-11.1875
▁häng	-11.1877
▁Work	-11.1879
text	-11.1883
▁motorn	-11.1887
▁konsert	-11.1891
▁skräck	-11.1891
▁trycket	-11.1892
í	-11.1894
▁Frågor	-11.1894
▁undersöker	-11.1894
▁Moskva	-11.1894
▁Joseph	-11.1894
▁County	-11.1896
▁SEO	-11.1896
▁prins	-11.1897
▁drömmer	-11.1897
löshet	-11.1899
▁direktör	-11.1901
▁coach	-11.1901
▁regleras	-11.1903
▁angrepp	-11.1905
▁förstått	-11.1908
▁SS	-11.1911
drar	-11.1916
▁utdelning	-11.1917
▁utgår	-11.1917
▁etiska	-11.1918
▁bibehålla	-11.1919
▁skön	-11.192
ller	-11.1921
saker	-11.1921
▁århundradet	-11.1921
▁påverkade	-11.1923
▁Farm	-11.1928
folk	-11.193
▁bestå	-11.1932
▁Mike	-11.1934
▁statens	-11.1938
▁branscher	-11.1939
▁väsentligt	-11.1943
▁förnybar	-11.1945
”?	-11.1945
mot	-11.1946
▁förändrar	-11.1948
▁red	-11.1949
▁placering	-11.1949
68	-11.1951
torn	-11.1951
▁församling	-11.1954
▁Må	-11.1954
85	-11.1956
▁fienden	-11.1957
▁Dagen	-11.1958
▁terrorist	-11.1958
mur	-11.1959
▁rabatt	-11.1961
lapp	-11.1964
ias	-11.1964
▁övertyga	-11.1964
▁viner	-11.1969
mun	-11.1975
▁Vänta	-11.198
▁Off	-11.1983
ology	-11.1996
▁försvunnit	-11.1996
▁initial	-11.1996
▁enskilt	-11.1996
▁Oscar	-11.1996
▁påstår	-11.1996
▁nyhetsbrev	-11.1997
▁bagage	-11.1997
▁nybörjare	-11.1997
▁antagligen	-11.1997
▁Dating	-11.1997
▁telefonnummer	-11.1998
metoder	-11.2
▁eventuell	-11.2
▁LED	-11.2
▁laser	-11.2
nden	-11.2001
iver	-11.2001
▁uteslutande	-11.2002
▁Book	-11.2002
▁Forskarna	-11.2002
▁sanktioner	-11.2003
▁May	-11.2003
▁Cloud	-11.2004
nta	-11.2005
▁Point	-11.2005
▁foder	-11.2006
snedsättning	-11.2006
▁Great	-11.2008
▁historisk	-11.2008
ray	-11.2009
▁vägrade	-11.2009
medicin	-11.201
▁likadant	-11.201
▁synes	-11.2011
▁förvaltnings	-11.2012
läng	-11.2015
▁fiber	-11.2018
29	-11.2022
▁slott	-11.2024
▁tvist	-11.2024
▁Ski	-11.2025
behov	-11.2027
▁52	-11.203
aff	-11.203
▁Blogg	-11.2031
▁Mal	-11.2032
CH	-11.2033
▁operativa	-11.2033
▁trender	-11.2033
▁Pal	-11.2035
▁styrning	-11.2036
ré	-11.2037
▁flod	-11.2037
▁pump	-11.2038
▁omgivande	-11.2043
▁raka	-11.2044
▁Anne	-11.2044
▁julen	-11.2046
▁Ap	-11.2048
▁sträcka	-11.2051
▁relativ	-11.2052
▁Förena	-11.2052
▁Förbered	-11.2053
▁rättvist	-11.2053
▁nyss	-11.2057
▁inslag	-11.2058
innan	-11.2059
maskin	-11.206
▁republiken	-11.2063
work	-11.2064
läkare	-11.2064
▁massage	-11.2066
▁årtionden	-11.2066
▁störa	-11.2067
bildning	-11.207
▁exklusiv	-11.207
tagare	-11.2072
vinst	-11.2072
värld	-11.2075
▁restaurangen	-11.2079
▁Cho	-11.2083
centret	-11.2084
▁religionen	-11.2085
▁beteenden	-11.2088
▁inleda	-11.209
▁konkreta	-11.209
▁tyg	-11.2091
sättningen	-11.2096
5)	-11.2096
▁Taylor	-11.2099
▁Linux	-11.21
▁stroke	-11.21
▁Källa	-11.21
▁formulär	-11.21
▁Francisco	-11.21
bädd	-11.21
Kan	-11.2101
43	-11.2102
▁Personlig	-11.2102
vår	-11.2103
▁Snälla	-11.2103
▁avtals	-11.2104
anti	-11.2104
▁GDPR	-11.2105
bert	-11.2105
▁ersätter	-11.2105
▁inneha	-11.2107
▁Costa	-11.2107
▁vätska	-11.211
ough	-11.211
gram	-11.2111
▁dygnet	-11.2113
▁hävdade	-11.2114
▁norska	-11.2116
▁hä	-11.2116
▁värmen	-11.2116
▁Hot	-11.2116
▁Anledningen	-11.2116
storlek	-11.2118
▁kommuner	-11.2122
▁kunskapen	-11.2122
▁moraliska	-11.2123
▁Upplev	-11.2124
reg	-11.2125
åk	-11.2126
▁återgå	-11.2127
▁domän	-11.2128
,8	-11.213
▁tidsperiod	-11.2136
▁landskapet	-11.2136
▁Res	-11.2137
▁rida	-11.214
▁Polisen	-11.2141
▁skrivet	-11.2143
▁respekterar	-11.2146
47	-11.2147
▁eftermiddag	-11.2152
block	-11.2152
▁gifte	-11.2154
▁akademisk	-11.2156
▁handlare	-11.2157
oma	-11.2158
▁Op	-11.2159
);	-11.216
▁äktenskapet	-11.2161
▁slutat	-11.2162
eh	-11.2162
ide	-11.2163
gle	-11.2165
▁Spara	-11.2165
▁DU	-11.2167
utrymme	-11.2167
▁2,5	-11.2168
▁mörkt	-11.2175
▁sal	-11.2178
▁kommitté	-11.2181
hamn	-11.2186
▁konkurrenter	-11.2188
▁förändringen	-11.2189
▁beredda	-11.2192
DA	-11.2195
▁presenterade	-11.2195
▁uppmärksam	-11.2195
▁förbättrad	-11.2197
▁skratt	-11.2202
givare	-11.2203
▁Education	-11.2204
▁avslappnad	-11.2204
▁cannabis	-11.2204
▁kompensera	-11.2204
▁piano	-11.2204
▁Philip	-11.2204
▁smink	-11.2204
▁Poker	-11.2205
▁fascinerande	-11.2205
▁församlingen	-11.2206
ös	-11.2206
▁Plötsligt	-11.2206
▁himmelen	-11.2207
▁nano	-11.2207
▁överträffa	-11.2207
klar	-11.2207
▁utrikes	-11.2208
▁kyckling	-11.2208
▁sektorer	-11.2209
air	-11.2211
▁marknadsföra	-11.2211
▁influensa	-11.2212
lis	-11.2214
▁omvandling	-11.2216
▁teamet	-11.2216
träning	-11.2217
▁representanter	-11.2219
▁pin	-11.222
▁Beskrivning	-11.2221
▁Åk	-11.2222
spekt	-11.2228
▁<3	-11.2228
▁Josef	-11.2228
▁Old	-11.2229
▁verksamhets	-11.2235
cancer	-11.2237
▁Basera	-11.224
▁sekretess	-11.2243
baserat	-11.2243
ale	-11.2244
▁Uppgifter	-11.2244
▁Kommissionens	-11.2244
då	-11.2245
versionen	-11.2245
▁förlåtelse	-11.2246
▁@	-11.2247
▁uppför	-11.2247
▁inbyggda	-11.2249
där	-11.225
komma	-11.2252
▁rot	-11.2255
▁listor	-11.2259
MO	-11.2261
▁sår	-11.2262
▁utländsk	-11.2262
▁Call	-11.2264
7)	-11.2265
åldern	-11.2265
mail	-11.2268
handlingar	-11.2268
▁överförs	-11.2268
▁integrerade	-11.2269
▁minister	-11.2273
▁tackar	-11.2273
element	-11.2273
halt	-11.2273
▁hämtar	-11.2273
▁utbetalning	-11.2274
▁industriell	-11.2275
▁sålde	-11.2275
▁upplösning	-11.2275
6)	-11.2275
▁styrs	-11.2276
▁Im	-11.2277
▁förfall	-11.2277
fordon	-11.2279
▁1-	-11.2281
vik	-11.2284
jäl	-11.2286
▁reserv	-11.2286
▁kyrkor	-11.2287
sindustrin	-11.229
läget	-11.2294
▁programvaran	-11.2297
▁körning	-11.2298
aler	-11.23
▁snygga	-11.2303
▁Eu	-11.2306
▁Ren	-11.2308
▁sprider	-11.2309
▁vittnesbörd	-11.2309
▁överensstämmer	-11.2309
▁Edward	-11.2309
▁bitcoin	-11.2309
▁sammanlagt	-11.231
▁asyl	-11.231
▁Gaza	-11.231
▁Control	-11.2311
▁Saab	-11.2312
▁Roger	-11.2312
lande	-11.2313
▁våldtäkt	-11.2313
▁utnyttjande	-11.2313
server	-11.2313
nation	-11.2319
▁titlar	-11.2319
▁Palestina	-11.232
▁ultimata	-11.232
▁berättigade	-11.2322
▁stunder	-11.2323
▁Fan	-11.2325
▁tjänstemän	-11.2325
▁formel	-11.2325
▁Nor	-11.2326
orer	-11.2335
▁våningen	-11.2335
längd	-11.2337
handeln	-11.2344
▁konsult	-11.2345
▁rak	-11.2345
▁oför	-11.2346
▁filen	-11.2346
pra	-11.2347
▁förvalta	-11.2353
▁Pla	-11.2353
luft	-11.2356
▁Mid	-11.2356
departementet	-11.2356
▁vardagen	-11.2357
aktiviteter	-11.2358
▁Ed	-11.2359
▁platserna	-11.2359
▁kvinnlig	-11.2363
▁motsatta	-11.2363
myndigheten	-11.2365
▁kanal	-11.2368
▁förhindrar	-11.2368
▁49	-11.237
▁allergisk	-11.2371
▁PR	-11.2372
▁beviljas	-11.2372
▁fyllt	-11.2374
▁temperaturer	-11.2374
▁väger	-11.2375
▁hotar	-11.2376
▁skogar	-11.2377
▁breda	-11.2377
infektion	-11.2379
▁mörda	-11.238
▁stämma	-11.2383
kamera	-11.2385
▁herre	-11.2385
▁Dela	-11.2386
▁konkurrera	-11.2387
tagen	-11.2387
▁meta	-11.2388
styrelsen	-11.2389
▁tävlingar	-11.239
▁uppdateras	-11.2391
tori	-11.2391
▁check	-11.2403
head	-11.2404
▁försiktigt	-11.2405
ship	-11.2407
▁lanserades	-11.2408
▁arbetskraft	-11.2409
▁århundraden	-11.2411
▁avgör	-11.2412
▁hamnen	-11.2412
▁Zeeland	-11.2415
▁bokstavligen	-11.2416
▁råvaror	-11.2416
▁bakåt	-11.2416
▁Sweden	-11.2416
▁dokumentet	-11.2417
▁Light	-11.2419
▁begått	-11.2419
▁premiär	-11.2419
▁Kultur	-11.2421
▁Lycka	-11.2421
▁intervjuer	-11.2421
lla	-11.2422
▁falsk	-11.2423
▁SEK	-11.2424
▁Long	-11.2425
▁knapp	-11.2425
▁HP	-11.2426
▁bekräftelse	-11.2427
▁utfört	-11.2429
▁MBA	-11.243
sproblem	-11.2431
▁rekrytera	-11.2431
▁föredrag	-11.2434
▁läggas	-11.2435
▁Sony	-11.2435
▁femton	-11.2436
bre	-11.2436
▁uppstod	-11.2438
▁elev	-11.2439
▁studerande	-11.244
▁konstaterade	-11.2442
industri	-11.2444
▁terror	-11.2444
▁kontrast	-11.2447
sö	-11.2447
anslutning	-11.245
▁levt	-11.2451
▁Rose	-11.2454
▁tros	-11.2455
minister	-11.2456
▁Topp	-11.2457
▁besatt	-11.2459
lett	-11.246
bul	-11.246
board	-11.2461
mont	-11.2461
▁typiskt	-11.2462
▁arkitekt	-11.2463
mans	-11.2463
▁härlighet	-11.2464
vill	-11.2464
jon	-11.2466
▁psykiska	-11.2468
▁kommersiellt	-11.2468
▁nationellt	-11.2468
▁godkänna	-11.2468
OT	-11.2474
▁solid	-11.2475
▁Ä	-11.2475
▁punkten	-11.2475
såg	-11.2476
▁Up	-11.2478
▁grundade	-11.2478
▁introducera	-11.2481
spår	-11.2482
5.	-11.2482
▁lan	-11.2483
▁okända	-11.2485
▁EUR	-11.2485
▁besegra	-11.249
▁varning	-11.2491
▁komponent	-11.2491
▁lyssnade	-11.2491
▁skal	-11.2494
person	-11.2495
▁tysta	-11.2495
▁wa	-11.2496
▁rimliga	-11.2498
▁optimal	-11.2499
▁hylla	-11.2503
▁72	-11.2509
rarna	-11.2512
▁gu	-11.2512
kov	-11.2515
▁variant	-11.2516
mu	-11.2516
laget	-11.2517
▁väntan	-11.2523
▁WordPress	-11.2523
▁självförtroende	-11.2523
▁nä	-11.2523
▁Network	-11.2523
▁övervinna	-11.2523
▁high	-11.2523
▁1991	-11.2524
▁erbjöd	-11.2524
▁Således	-11.2524
▁tillräckliga	-11.2528
▁hemifrån	-11.2529
▁Ange	-11.2529
▁kopplat	-11.2529
▁psykisk	-11.2532
▁lönsamhet	-11.2532
▁Sm	-11.2532
▁Jonas	-11.2532
kter	-11.2533
▁pålitlig	-11.2535
tips	-11.2536
▁bana	-11.2536
▁konkret	-11.2537
▁action	-11.2539
«	-11.254
▁Kuba	-11.254
▁geografiska	-11.254
▁manuellt	-11.2543
▁un	-11.2543
▁arbeten	-11.2544
pet	-11.2544
▁konstaterar	-11.2545
▁ändrats	-11.2545
▁smärtan	-11.2547
▁Vol	-11.2547
▁åtfölj	-11.255
▁missade	-11.2553
/4	-11.2553
▁Vägen	-11.2559
▁gram	-11.2559
▁dynamiska	-11.2561
▁tabell	-11.2562
▁grundar	-11.2563
▁antogs	-11.2564
▁rasism	-11.2565
tillstånd	-11.2566
▁andlig	-11.2568
play	-11.2569
natt	-11.257
▁Tele	-11.257
▁kategorin	-11.2573
▁präst	-11.2573
▁nyheten	-11.2579
▁Bla	-11.258
▁befria	-11.2582
▁doktor	-11.2583
▁avslutar	-11.2584
▁godkänts	-11.2586
▁skrattar	-11.2588
nia	-11.2588
▁robotar	-11.2589
▁kommentera	-11.2591
▁inspirerad	-11.2592
poäng	-11.2596
▁pri	-11.26
▁anlita	-11.2603
▁klänning	-11.2606
▁flygbolag	-11.261
▁hälsosamt	-11.2611
rätter	-11.2615
▁immun	-11.2617
88	-11.2617
▁övergång	-11.2617
▁kvalificerad	-11.262
▁säljare	-11.262
▁traditionellt	-11.2621
63	-11.2622
▁balansera	-11.2627
▁cyber	-11.263
▁auktoritet	-11.2632
▁besvikelse	-11.2632
▁funktionshinder	-11.2632
▁hektar	-11.2632
▁popularitet	-11.2632
▁BNP	-11.2632
▁överlevde	-11.2632
▁Libyen	-11.2632
▁isolering	-11.2632
▁sprang	-11.2632
▁Leta	-11.2632
▁Albert	-11.2633
▁nedladdning	-11.2633
▁roulette	-11.2633
▁applikation	-11.2634
▁Blev	-11.2635
▁åldrande	-11.2635
▁grill	-11.2636
▁bjuda	-11.2637
▁parametrar	-11.2638
▁valutor	-11.264
▁Tal	-11.2641
▁innovativ	-11.2641
bol	-11.2646
▁längden	-11.2646
▁tomma	-11.2648
▁universitets	-11.265
▁Mont	-11.265
▁lands	-11.2653
▁färd	-11.2654
▁märkning	-11.2655
LO	-11.2655
▁professionellt	-11.2657
DI	-11.2658
▁införliva	-11.2658
▁omgivning	-11.2659
▁förnekar	-11.266
nnan	-11.2662
dge	-11.2662
▁Ron	-11.2663
utvecklingen	-11.2665
▁jobbigt	-11.2667
2,	-11.2668
tis	-11.2668
77	-11.2668
▁gula	-11.2672
▁off	-11.2674
▁absoluta	-11.2674
Ni	-11.2677
▁frivilligt	-11.2677
▁Kur	-11.2678
▁produktivitet	-11.268
▁samlat	-11.2681
▁föreslå	-11.2685
team	-11.2688
ark	-11.2691
▁Dar	-11.2692
▁killen	-11.2693
processer	-11.2698
SC	-11.27
ationer	-11.2701
meter	-11.2701
▁tävla	-11.2703
finansiering	-11.2704
▁låne	-11.2705
holm	-11.2706
hor	-11.2707
▁driv	-11.2708
▁avslöjade	-11.2716
▁bedömningen	-11.2716
▁fe	-11.2717
▁final	-11.2718
▁Mose	-11.272
▁misslyckande	-11.272
▁montera	-11.2722
▁rättfärdiga	-11.2724
▁30-	-11.2725
art	-11.2725
▁Prag	-11.2727
▁skrivbord	-11.273
▁Sig	-11.2731
lagda	-11.2733
▁kretsar	-11.2733
▁sällsynt	-11.2735
sänd	-11.2736
▁armen	-11.2736
▁sammanfattning	-11.2739
▁genomsnittlig	-11.274
▁Analytics	-11.2741
▁Society	-11.2741
▁förvärra	-11.2741
▁kognitiv	-11.2741
▁Adobe	-11.2741
▁Dubai	-11.2741
▁Kunskap	-11.2742
▁porr	-11.2742
▁1984	-11.2742
▁shoppa	-11.2742
▁föreskrifter	-11.2743
▁grafik	-11.2744
▁afrikansk	-11.2744
▁kapitalistisk	-11.2745
▁tidningar	-11.2745
▁elektro	-11.2746
▁Yoga	-11.2746
yo	-11.2748
▁anslutna	-11.2749
▁Tala	-11.275
▁jämn	-11.275
policy	-11.2751
diska	-11.2752
▁drack	-11.2752
▁orkar	-11.2752
itation	-11.2753
▁barnbarn	-11.2753
▁vinkel	-11.2753
▁sjunger	-11.2753
▁Studien	-11.2753
rep	-11.2754
utan	-11.2756
▁roligare	-11.2758
▁konstnären	-11.2762
▁Key	-11.2763
▁förändrade	-11.2764
▁Pay	-11.2764
▁Ann	-11.2766
linjer	-11.2772
▁Law	-11.2772
▁Victoria	-11.2774
fal	-11.2775
▁berättat	-11.2775
▁klocka	-11.278
▁Pop	-11.278
▁utformat	-11.278
rän	-11.2781
-12	-11.2781
rygg	-11.2784
åring	-11.2785
pal	-11.2786
▁län	-11.2789
stjärnig	-11.2793
▁figur	-11.2795
▁riktade	-11.2796
/2	-11.2798
▁önskat	-11.28
▁långvarig	-11.28
leder	-11.2801
▁4-	-11.2803
▁ögonblicket	-11.2804
▁paret	-11.2805
▁matcha	-11.2805
Ro	-11.2806
▁Mini	-11.2807
▁fonden	-11.2808
92	-11.2809
▁ort	-11.281
▁installerar	-11.281
må	-11.281
▁konsekvens	-11.2811
laddning	-11.2813
faktor	-11.2816
frekvens	-11.2816
punkter	-11.2816
▁lösas	-11.2817
hm	-11.2819
-2	-11.2821
ansk	-11.2823
▁fran	-11.2823
▁arbetsmarknaden	-11.2826
▁neka	-11.2827
▁Ljus	-11.2828
På	-11.2828
▁Multi	-11.283
▁gro	-11.2831
▁dyk	-11.2831
▁Sub	-11.2832
▁skörda	-11.2832
▁överflöd	-11.2836
byrån	-11.2837
stone	-11.2839
▁sökt	-11.2842
▁kostnads	-11.2844
▁intelligent	-11.2845
▁modernt	-11.2846
-5	-11.2849
▁Kvalitet	-11.2852
▁Argentina	-11.2853
▁luftkonditioner	-11.2853
▁kosttillskott	-11.2853
▁1986	-11.2853
▁Christian	-11.2853
▁fristående	-11.2855
▁trädgårdar	-11.2855
▁nerv	-11.2855
▁Jakob	-11.2856
alism	-11.2856
▁ti	-11.2857
låda	-11.2857
▁Framför	-11.2858
▁fäder	-11.2858
▁baksidan	-11.2859
▁over	-11.286
▁konflikten	-11.2861
▁rapporterats	-11.2861
▁agent	-11.2861
▁hälsovård	-11.2862
verkande	-11.2864
▁felaktig	-11.2867
▁Jul	-11.287
▁2020.	-11.287
▁förfäder	-11.2871
▁vidtas	-11.2871
▁öar	-11.2871
AB	-11.2872
▁dokumentär	-11.2875
▁frånvaro	-11.2875
▁ljusa	-11.2875
???	-11.2877
▁komplikationer	-11.2877
skärm	-11.2878
''	-11.2878
snummer	-11.2879
▁kontors	-11.288
▁kyla	-11.2881
▁bussen	-11.2881
svar	-11.2883
▁påverkat	-11.2883
▁fattas	-11.2886
▁bearbeta	-11.2887
41	-11.2889
▁utsidan	-11.2889
▁arbetslöshet	-11.2891
lås	-11.2894
splaner	-11.2894
▁vanligare	-11.2896
domstolen	-11.2896
▁entreprenörer	-11.2897
▁påståenden	-11.2897
▁relatera	-11.2899
▁Camp	-11.2899
▁bekräftat	-11.29
▁Led	-11.29
▁satellit	-11.2901
▁chefen	-11.2904
▁felaktiga	-11.2905
02	-11.2905
▁personerna	-11.2905
▁tappar	-11.2907
▁slump	-11.2907
▁liberal	-11.2908
▁temperaturen	-11.2911
▁lyfter	-11.2912
▁värdera	-11.2913
▁Ana	-11.2917
▁konstverk	-11.2917
▁kritisera	-11.2917
pri	-11.2918
▁klippa	-11.2919
▁Sko	-11.2919
shi	-11.2919
hotell	-11.2923
▁konsten	-11.2923
▁EM	-11.2925
▁stu	-11.2926
▁konkurrensen	-11.2928
42	-11.2928
garanti	-11.2929
pengar	-11.293
▁Net	-11.2932
▁inlägget	-11.2934
iko	-11.294
▁pratat	-11.294
▁fastighet	-11.2943
▁ab	-11.2945
▁mottagare	-11.2945
▁turné	-11.2948
SP	-11.2949
xa	-11.2956
▁Ned	-11.2956
mask	-11.2957
▁mekanismer	-11.2959
▁laglig	-11.296
▁Sir	-11.296
▁termin	-11.2962
▁trafiken	-11.2962
▁minskad	-11.2965
▁mirakel	-11.2965
▁transparent	-11.2965
▁Rekommendera	-11.2965
▁Utveckla	-11.2965
▁räckvidd	-11.2965
▁solidaritet	-11.2965
▁föreslagna	-11.2965
▁ifrågasätta	-11.2965
▁Cancer	-11.2965
▁entré	-11.2966
▁föregångare	-11.2967
▁BBC	-11.2967
▁återkommande	-11.2969
▁pund	-11.297
▁logik	-11.297
▁upplevde	-11.2971
▁försvaga	-11.2972
less	-11.2972
▁fabrik	-11.2973
tak	-11.2974
▁etablerat	-11.2974
▁debatten	-11.2974
▁utnyttjas	-11.2975
▁Road	-11.2975
▁stöds	-11.2975
▁flöde	-11.2976
▁frivillig	-11.2978
▁avslutade	-11.2978
▁västerländska	-11.298
▁trädet	-11.298
▁täckt	-11.2981
▁psyko	-11.2983
▁belastning	-11.2983
▁maximera	-11.2985
▁vänliga	-11.2986
namnet	-11.2988
▁Ste	-11.2989
produktionen	-11.2995
ward	-11.2996
oxid	-11.2997
givning	-11.3004
▁kännas	-11.3005
▁Nick	-11.3007
sjukdom	-11.3007
▁skoj	-11.3007
▁troll	-11.3008
ions	-11.301
▁Prata	-11.3015
▁tolka	-11.3016
▁beslutar	-11.3017
kop	-11.302
▁närma	-11.302
▁medföra	-11.3021
▁DC	-11.3021
▁förlita	-11.3026
▁graden	-11.3027
▁målsättning	-11.303
lagstiftning	-11.303
▁Anden	-11.303
▁900	-11.303
▁Fil	-11.3031
▁sinnet	-11.3036
▁manus	-11.3037
▁(18	-11.3038
▁Games	-11.3038
▁romantisk	-11.3039
▁företagare	-11.3044
▁kongressen	-11.3045
skolor	-11.3046
▁träng	-11.3047
lot	-11.3047
fördelning	-11.3047
▁meddelandet	-11.3048
▁decennier	-11.305
iella	-11.3056
▁karaktärer	-11.306
▁Louis	-11.3061
▁befogenheter	-11.3062
▁snön	-11.3063
mitt	-11.3064
▁bekanta	-11.3064
79	-11.3066
▁uppriktig	-11.3067
▁(3)	-11.3069
▁forma	-11.3069
▁rader	-11.3069
▁världar	-11.3071
▁njur	-11.3072
▁behoven	-11.3073
▁(5	-11.3075
▁bankkonto	-11.3077
fisk	-11.3077
▁gästerna	-11.3078
fredsställelse	-11.3078
Omdirigera	-11.3079
▁Elizabeth	-11.3079
▁Innovation	-11.3079
▁bedriver	-11.3079
▁föreligger	-11.3079
▁gällde	-11.3079
▁hunnit	-11.3079
▁utplåna	-11.3079
▁aptit	-11.3079
▁Mountain	-11.3079
▁attrahera	-11.3079
▁hårddisk	-11.3079
▁Väldig	-11.3079
▁materiella	-11.308
▁Analys	-11.3081
lika	-11.3083
▁50-	-11.3083
▁Show	-11.3084
▁efterlevnad	-11.3084
▁skyddet	-11.3085
▁trick	-11.3085
▁monument	-11.3085
▁Bör	-11.3086
▁Okej	-11.3086
▁Lars	-11.3088
lagring	-11.3089
▁hette	-11.309
▁partiklar	-11.3091
▁finger	-11.3091
ärer	-11.3093
▁väcker	-11.3094
▁master	-11.3095
▁individuell	-11.3095
▁krävande	-11.3096
▁ansluten	-11.3097
▁rengöra	-11.3097
▁uppgår	-11.3099
▁katolska	-11.3099
▁larm	-11.3101
▁Arbetet	-11.3101
▁marginal	-11.3102
▁prioriteringar	-11.3104
▁antika	-11.3105
▁59	-11.3105
▁tjock	-11.3107
satta	-11.3108
▁stolthet	-11.3108
▁best	-11.311
▁tillverknings	-11.3111
ledningen	-11.3112
▁översikt	-11.3113
▁godkänd	-11.3118
▁precision	-11.3122
▁Lin	-11.3123
▁casinon	-11.3125
▁blogga	-11.3126
▁villig	-11.3129
▁tredjeland	-11.3132
▁löner	-11.3132
▁mätt	-11.3132
▁kapitalet	-11.3133
▁Ash	-11.3134
▁Ros	-11.3136
▁rysk	-11.3142
▁tåget	-11.3144
▁öva	-11.3145
institution	-11.3148
▁utmanar	-11.3149
▁enhetlig	-11.315
▁Hal	-11.3151
▁vävnad	-11.3151
93	-11.3154
▁anklaga	-11.3155
▁modig	-11.3155
vol	-11.3156
▁våga	-11.3156
lever	-11.3156
▁Mas	-11.3156
▁General	-11.3159
▁Eric	-11.3159
▁cookie	-11.3161
▁tittat	-11.3162
ök	-11.3162
▁Ball	-11.3162
▁riket	-11.3162
▁Boy	-11.3163
▁Mak	-11.3163
verksamheten	-11.3164
▁återkalla	-11.3164
▁Hong	-11.3165
▁intag	-11.3165
licens	-11.3167
▁kvinno	-11.3172
▁betalat	-11.3174
ndig	-11.3177
▁sonen	-11.318
▁uttryckt	-11.3182
▁utställningen	-11.3184
hat	-11.3184
rätta	-11.3185
▁tonåringar	-11.3185
▁ordningen	-11.3185
timmars	-11.3188
8)	-11.3191
▁tuff	-11.3192
▁bekräftade	-11.3192
▁apotek	-11.3193
▁prioritet	-11.3193
▁Premier	-11.3194
▁banbrytande	-11.3194
näs	-11.3194
▁klassiker	-11.3194
▁mormor	-11.3195
▁lyder	-11.3195
▁påminna	-11.3195
▁tillåts	-11.3196
▁renovering	-11.3197
▁inspirerande	-11.3198
▁Word	-11.32
▁kolesterol	-11.32
▁konkurs	-11.3203
▁respons	-11.3203
skillnad	-11.3203
▁aspekt	-11.3204
▁brottslighet	-11.3204
▁bur	-11.3207
▁opera	-11.3209
▁idealisk	-11.3211
▁grepp	-11.3211
▁utseendet	-11.3213
car	-11.3214
▁oklart	-11.3215
▁dragit	-11.3216
rakt	-11.3216
▁skilda	-11.3217
▁inträffa	-11.3221
▁förlåt	-11.3221
▁tillståndet	-11.3224
▁förekomsten	-11.3224
▁byggnads	-11.3227
▁summan	-11.3229
▁ungdom	-11.3232
ökning	-11.3232
▁ekologiska	-11.3235
▁time	-11.3236
▁installerat	-11.3237
▁tendens	-11.324
▁psykologi	-11.324
▁3)	-11.3242
▁cyklar	-11.3242
▁kapitalismen	-11.3242
▁publicerat	-11.3243
följ	-11.3243
▁tillfälliga	-11.3244
▁substans	-11.3245
styrning	-11.325
▁öppning	-11.3251
▁videor	-11.3251
▁fötterna	-11.3252
▁Hår	-11.3252
▁genererar	-11.3256
asi	-11.3257
▁lastbil	-11.3257
▁mystisk	-11.3258
▁dikt	-11.3261
hjul	-11.3262
▁framställning	-11.3262
appen	-11.3263
▁Cal	-11.3265
▁utbildade	-11.3267
▁ärenden	-11.3269
komst	-11.3269
▁höjdpunkt	-11.3271
bedömning	-11.3272
▁klubbar	-11.3279
agent	-11.3282
▁förutse	-11.3282
resurser	-11.3283
▁Fel	-11.3284
▁långivare	-11.3287
▁uppdaterade	-11.329
▁gavs	-11.3291
▁lida	-11.3294
▁skickat	-11.3296
kill	-11.33
61	-11.33
NS	-11.33
list	-11.33
▁nationen	-11.3302
▁Char	-11.3302
kontakt	-11.3302
▁elegant	-11.3303
riska	-11.3304
▁lämnats	-11.3305
▁billig	-11.3305
▁förekomma	-11.3308
▁ansikten	-11.3309
▁Mega	-11.3309
▁Festival	-11.331
▁beskrev	-11.331
▁yrkesverksamma	-11.331
▁pizza	-11.331
▁uppenbarligen	-11.331
▁Tesla	-11.331
▁artificiell	-11.331
▁otillräcklig	-11.331
▁1992	-11.3311
▁vers	-11.3311
▁PDF	-11.3311
▁HIV	-11.3311
▁demokratin	-11.3312
▁dum	-11.3314
▁anknytning	-11.3317
▁inspirera	-11.3318
normal	-11.3319
står	-11.3319
▁GUD	-11.3319
▁rättfärdighet	-11.332
▁>>	-11.3321
▁Linda	-11.3321
OP	-11.3321
▁strejk	-11.3323
▁doktorand	-11.3323
▁indikerar	-11.3325
La	-11.3332
▁term	-11.3334
non	-11.3336
▁lägg	-11.3336
▁genomförts	-11.3337
▁Tanken	-11.334
▁dolda	-11.334
▁Lokala	-11.3341
▁idrottare	-11.3344
▁Ye	-11.3345
▁invånarna	-11.3345
▁dataskydds	-11.3347
▁insidan	-11.3348
▁smidigt	-11.335
▁kläd	-11.3352
▁mono	-11.3352
fredsställande	-11.3354
skrift	-11.3356
▁flygplatser	-11.3357
▁inspelning	-11.3357
▁rita	-11.336
▁disciplin	-11.336
▁prognos	-11.3361
rodde	-11.3361
▁skede	-11.3367
▁Natur	-11.337
▁strategiskt	-11.3371
▁tappat	-11.3372
▁mjuka	-11.3373
BS	-11.3373
medlem	-11.3374
94	-11.3374
Li	-11.3376
▁torn	-11.3377
värt	-11.3379
arbetet	-11.3379
▁designen	-11.338
▁påpeka	-11.3385
fång	-11.3385
krets	-11.3386
▁mineral	-11.3389
▁skyddade	-11.339
fabrik	-11.3391
▁rimligt	-11.3392
▁diskuterar	-11.3392
Ingen	-11.3394
▁samtycker	-11.3395
räkna	-11.3395
▁cool	-11.3396
▁imponerad	-11.3401
slösningar	-11.3402
strid	-11.3406
Ett	-11.3406
▁lu	-11.341
▁studio	-11.3412
bordet	-11.3414
boll	-11.3414
uf	-11.3416
▁log	-11.3416
skick	-11.3416
<	-11.3417
▁synen	-11.3418
▁avled	-11.3422
core	-11.3424
▁Text	-11.3424
▁diagnostisera	-11.3424
möjligheter	-11.3425
▁identifieras	-11.3426
▁hunger	-11.3427
▁Medelhavet	-11.3427
▁översätta	-11.3428
▁återkommer	-11.3428
▁Ladda	-11.3429
▁Stäng	-11.343
▁verksamma	-11.343
▁Robin	-11.3431
▁tisdag	-11.3431
▁templet	-11.3431
▁webbsidor	-11.3432
▁Little	-11.3433
▁böner	-11.3433
▁Nordic	-11.3433
▁existerande	-11.3433
▁minimi	-11.3435
▁stigande	-11.3435
skostnader	-11.3435
▁installeras	-11.3436
▁morse	-11.3437
▁varierande	-11.3437
▁klassificering	-11.3438
▁livskvalitet	-11.3438
▁Svensk	-11.3438
planer	-11.3439
kler	-11.344
känd	-11.3442
oy	-11.3444
▁varianter	-11.3445
▁kameror	-11.3445
sajt	-11.3445
▁°	-11.3446
▁Användare	-11.3447
▁teman	-11.3447
mit	-11.345
▁ÄR	-11.3451
▁slösa	-11.3455
▁Fu	-11.3455
▁släktingar	-11.3456
NG	-11.3456
▁institutionen	-11.3457
skog	-11.3463
▁Verk	-11.3465
▁frukter	-11.3467
▁drama	-11.3468
▁gården	-11.3469
▁elden	-11.347
ole	-11.3474
fyll	-11.3477
▁nedre	-11.3477
▁förbehåll	-11.3478
▁noterade	-11.3479
▁flyttat	-11.3481
tekniken	-11.3482
trycket	-11.3485
▁gr	-11.3485
time	-11.3486
▁tål	-11.3487
▁sannolikhet	-11.3488
▁ingenjör	-11.3489
▁genomfört	-11.3491
▁utforma	-11.3492
▁lögner	-11.3494
▁2008.	-11.3495
mässiga	-11.3495
▁omsättning	-11.3495
▁intyg	-11.3496
marknader	-11.3497
▁beloppet	-11.3497
fast	-11.35
▁Line	-11.3501
▁dyrka	-11.3501
fett	-11.3503
▁kärnkraft	-11.3507
▁motsatt	-11.3508
papper	-11.351
pension	-11.3512
▁ark	-11.3516
vas	-11.3516
▁47	-11.3517
▁marina	-11.3518
▁Göteborgs	-11.3518
▁gran	-11.3519
▁ägande	-11.3521
samtal	-11.3521
▁Bad	-11.3524
▁Detsamma	-11.3524
ioner	-11.3525
▁skadlig	-11.3526
▁predika	-11.3527
▁vecko	-11.3527
lem	-11.3528
▁studerar	-11.353
▁avskaffa	-11.3531
▁mång	-11.3531
▁moduler	-11.3533
IF	-11.3533
▁kunskaps	-11.3541
märken	-11.3542
rapporter	-11.3542
▁utesluta	-11.3542
▁Förbättra	-11.3546
▁Galaxy	-11.3546
▁Republiken	-11.3546
▁Venezuela	-11.3546
▁exemplet	-11.3546
▁kalcium	-11.3546
▁konfigurera	-11.3546
▁svält	-11.3547
▁Kursen	-11.3548
▁Potter	-11.3548
▁FÖR	-11.3548
▁morgondagen	-11.3548
▁attackera	-11.3549
▁GPS	-11.355
▁Forum	-11.355
▁dominerande	-11.3551
▁mi	-11.3551
▁identifiering	-11.3552
▁möss	-11.3555
▁hävda	-11.3555
förare	-11.3556
▁ingått	-11.3556
▁längtar	-11.3558
▁tillfällig	-11.3559
ami	-11.3559
▁Pappa	-11.3561
▁domännamn	-11.3562
▁klienter	-11.3562
▁framkalla	-11.3562
▁administratör	-11.3563
▁Mus	-11.3564
▁stämning	-11.3564
▁komplicerade	-11.3565
iken	-11.3568
lack	-11.3568
91	-11.357
andra	-11.3571
▁underhållande	-11.3575
ctor	-11.3575
▁tank	-11.3576
▁hörnet	-11.3577
▁framgångar	-11.3577
03	-11.3579
transport	-11.3581
lär	-11.3581
▁Ken	-11.3583
▁tredjeparts	-11.3583
sjukdomar	-11.3583
▁involverade	-11.3585
▁Studier	-11.3588
▁Sista	-11.3591
tillverkare	-11.3591
▁Kommun	-11.3592
▁högkvalitativa	-11.3593
▁förfrågan	-11.3594
fond	-11.3596
▁utförts	-11.3597
läsare	-11.3601
sång	-11.3603
▁tänderna	-11.3604
lation	-11.3605
▁osäkerhet	-11.3607
logi	-11.3607
▁dominera	-11.3608
/10	-11.3608
▁japansk	-11.3613
▁virtuell	-11.3615
anläggning	-11.3615
▁Känn	-11.3616
▁transportera	-11.3618
▁existera	-11.3621
▁etikett	-11.3621
▁knut	-11.3622
▁Dor	-11.3624
▁lagrar	-11.3629
▁Shi	-11.363
▁Prova	-11.3631
▁bussar	-11.3635
▁Sten	-11.3636
▁bredd	-11.3638
▁interagera	-11.3639
▁tår	-11.3641
▁klick	-11.3641
▁tillskott	-11.3641
▁läppar	-11.3642
lätt	-11.3642
wo	-11.3647
appar	-11.3647
▁arbetsplatsen	-11.3648
period	-11.3648
▁försämra	-11.3649
äv	-11.365
▁ideologi	-11.3651
▁Såg	-11.3651
▁ramar	-11.3652
ele	-11.3652
▁smitta	-11.3653
▁Inför	-11.3655
▁Problem	-11.3656
födda	-11.3657
spar	-11.3662
▁nyår	-11.3662
▁leverantören	-11.3666
▁Hittills	-11.3667
▁Klimat	-11.3667
▁Material	-11.3667
▁Pakistan	-11.3667
▁manipulera	-11.3667
▁beslutsfattande	-11.3667
▁påminnelse	-11.3667
▁hänför	-11.3667
▁bröstcancer	-11.3667
▁Ungern	-11.3667
▁miljöpåverkan	-11.3667
▁Transport	-11.3667
iserat	-11.3668
▁:-)	-11.3668
▁återstående	-11.3669
▁museer	-11.3669
74	-11.3671
▁plånbok	-11.3671
59	-11.3671
▁Em	-11.3672
▁sjöng	-11.3673
▁rund	-11.3673
▁Watch	-11.3673
▁ga	-11.3674
▁hybrid	-11.3678
▁döttrar	-11.3678
▁ståndpunkt	-11.368
▁målgrupp	-11.368
▁Thi	-11.3681
▁Lika	-11.3683
▁Namne	-11.3684
▁mentor	-11.3684
▁måttlig	-11.3684
bak	-11.3687
▁gods	-11.3687
▁Card	-11.3688
▁öppnades	-11.3689
▁Ät	-11.369
▁offentliggöra	-11.369
▁storlekar	-11.3693
kade	-11.3694
▁grann	-11.3698
mil	-11.3699
▁automatisk	-11.3701
▁sido	-11.3705
sur	-11.3705
▁otroliga	-11.3707
▁anteckningar	-11.3708
föd	-11.3709
▁Bon	-11.371
lagd	-11.371
IL	-11.3713
put	-11.3715
genom	-11.3716
▁fyr	-11.3718
town	-11.3719
▁mottagaren	-11.372
▁ansågs	-11.372
▁avvisa	-11.3721
skontroll	-11.3721
atorer	-11.3721
▁kombineras	-11.3722
▁Not	-11.3723
▁modul	-11.3725
▁;	-11.3725
▁reservera	-11.3725
träda	-11.3727
▁siffrorna	-11.3727
▁tillämpningar	-11.3727
▁jäm	-11.3728
▁avsett	-11.3729
▁övertygade	-11.3731
▁Sov	-11.3733
▁profet	-11.3734
▁11:	-11.3734
▁innovationer	-11.3735
drift	-11.3737
▁Marie	-11.374
hö	-11.3741
▁koncern	-11.3741
▁låsa	-11.3744
69	-11.3747
▁marknadsför	-11.3747
gener	-11.3749
objekt	-11.375
avgift	-11.3751
▁kolhydrater	-11.3754
▁Mass	-11.3755
spolitik	-11.3759
klipp	-11.3759
experter	-11.376
läsning	-11.3761
▁förvandlas	-11.3761
▁ärligt	-11.3762
▁auktion	-11.3762
▁motsatsen	-11.3763
zy	-11.3764
kanal	-11.3765
▁satsningar	-11.3766
▁damer	-11.3766
▁Wars	-11.3768
▁trovärdig	-11.3769
▁telefoner	-11.3769
▁1990-	-11.377
kommen	-11.3774
lia	-11.3775
▁parlament	-11.3775
▁maximalt	-11.3776
▁fack	-11.3777
srapport	-11.378
▁bistå	-11.3783
▁ersättas	-11.3785
▁Union	-11.3787
▁Square	-11.3789
▁bägge	-11.3789
▁navigera	-11.3789
▁umgås	-11.3789
▁Peking	-11.3789
▁uppträder	-11.3789
▁innehöll	-11.3789
▁Avsnitt	-11.379
▁tumör	-11.379
▁SD	-11.3791
▁Manager	-11.3791
gjort	-11.3792
▁överraskande	-11.3792
▁köparen	-11.3793
▁älskad	-11.3794
▁Fer	-11.3794
▁Medical	-11.3794
▁svåraste	-11.3794
▁6:	-11.3797
▁uppror	-11.3797
▁berika	-11.3798
▁Stör	-11.38
▁gravida	-11.38
▁ångra	-11.3803
ith	-11.3804
▁plattformen	-11.3807
mera	-11.381
▁tråkigt	-11.3811
▁redskap	-11.3811
▁Erik	-11.3814
▁sjunde	-11.382
skå	-11.3821
▁intensiva	-11.3822
ail	-11.3824
▁Bern	-11.3825
▁Met	-11.3827
talets	-11.3829
▁intellektuella	-11.3834
▁Ob	-11.3836
▁operatörer	-11.3836
▁Lan	-11.3837
▁sparas	-11.3837
slaget	-11.3837
▁Term	-11.3837
givande	-11.3841
anläggningar	-11.3849
▁Rio	-11.385
▁Spelar	-11.3852
▁islamisk	-11.3859
▁märkte	-11.386
▁pub	-11.3861
bjuder	-11.3863
▁Alternativ	-11.3865
skrivna	-11.3865
hälsa	-11.3871
▁wi	-11.3873
▁kalender	-11.3876
▁pojken	-11.3876
lum	-11.3877
▁Gruppen	-11.3882
▁top	-11.3883
ont	-11.3886
glas	-11.3887
▁separera	-11.3887
examen	-11.3893
▁laddar	-11.3893
▁protest	-11.3895
▁one	-11.3895
▁ursprungs	-11.3896
▁Jehova	-11.3896
▁synlig	-11.3896
▁oral	-11.3897
▁still	-11.3898
▁längsta	-11.3899
▁färdigt	-11.3904
upplevelsen	-11.3906
▁Störst	-11.3908
▁blanda	-11.3909
▁mänskligt	-11.391
▁bokstav	-11.3911
▁Fantastisk	-11.3912
▁Fortfarande	-11.3912
▁Sydkorea	-11.3912
▁fruktansvärt	-11.3912
▁njöt	-11.3912
▁ordinarie	-11.3912
▁älskling	-11.3912
▁hobby	-11.3912
affär	-11.3912
▁Stefan	-11.3913
▁kundservice	-11.3914
▁äro	-11.3914
▁Lady	-11.3916
IA	-11.3916
sil	-11.3916
▁Skolan	-11.392
utbyte	-11.3921
▁närhet	-11.3921
▁singlar	-11.3921
▁värdering	-11.3922
▁^	-11.3925
▁engelsk	-11.3926
konferens	-11.3926
▁basis	-11.3928
▁Profeten	-11.3929
nätet	-11.393
▁siffran	-11.3932
cin	-11.3933
▁trott	-11.3933
▁Tja	-11.3934
▁piller	-11.3935
lang	-11.3936
operation	-11.3936
▁Pack	-11.3938
▁överträdelser	-11.3939
▁preferenser	-11.3939
utvecklare	-11.3941
▁AC	-11.3941
▁sköta	-11.3942
▁Eli	-11.3942
▁honung	-11.3943
▁uppskattning	-11.3945
Mer	-11.3946
▁påstående	-11.3947
▁sjukvården	-11.3947
▁kopplad	-11.3949
▁idiot	-11.395
▁talet	-11.395
▁Match	-11.3952
▁Jane	-11.3952
modellen	-11.3954
▁attraktiv	-11.3954
▁köks	-11.3955
▁överföras	-11.3955
Vår	-11.3957
▁attraktion	-11.3957
GA	-11.3958
tions	-11.396
▁ban	-11.396
kull	-11.3961
▁färsk	-11.3962
▁frö	-11.3964
▁renovera	-11.3967
▁mystiska	-11.3968
▁gård	-11.3969
TT	-11.397
betalning	-11.3973
▁drömma	-11.3973
▁sensor	-11.3979
▁67	-11.3982
politiska	-11.3983
▁kampanjen	-11.3987
tillväxt	-11.3988
▁luta	-11.3988
▁utreda	-11.3989
▁fastställd	-11.3989
DE	-11.3989
▁kastade	-11.399
▁ski	-11.399
spolitiken	-11.3991
▁Dra	-11.3992
▁hals	-11.3993
tern	-11.3993
▁Barnet	-11.3994
▁hatt	-11.3996
▁omdöme	-11.3996
▁förebild	-11.3997
▁välsignelse	-11.4
hållande	-11.4001
ever	-11.4002
▁platt	-11.4003
52	-11.4003
helst	-11.4005
▁anpassas	-11.4006
▁rikt	-11.4009
▁energin	-11.4009
Lo	-11.4012
▁avslutat	-11.4015
▁dumma	-11.4015
gav	-11.4016
gick	-11.4019
67	-11.4024
▁Modern	-11.4025
▁hiss	-11.4026
ställe	-11.4027
chan	-11.4027
ato	-11.4028
given	-11.4028
▁hen	-11.4028
▁händelserna	-11.4032
▁distrikt	-11.4032
▁betyda	-11.4033
▁Best	-11.4035
▁Produkter	-11.4035
båt	-11.4036
▁cirkulär	-11.4037
▁facebook	-11.4037
▁́s	-11.4037
▁ansöker	-11.4037
▁blackjack	-11.4037
▁Monte	-11.4037
▁sekretesspolicy	-11.4037
▁plåga	-11.4038
▁Prov	-11.4038
▁Styrelsen	-11.4038
stora	-11.4039
wan	-11.4041
▁innebar	-11.4041
▁kvalité	-11.4042
▁Sri	-11.4043
▁finaste	-11.4043
DS	-11.4043
98	-11.4043
▁elva	-11.4044
▁Extra	-11.4045
▁tvär	-11.4046
▁kompletterande	-11.4047
▁bränslen	-11.4047
▁Emma	-11.4047
▁fetma	-11.4048
▁förknippade	-11.4049
▁testar	-11.4049
▁Public	-11.405
▁Majoritet	-11.405
▁höjer	-11.4051
▁Skol	-11.4052
▁tempo	-11.4052
▁bekvämlighet	-11.4052
▁Run	-11.4063
▁konvention	-11.4065
loppet	-11.4067
▁gråter	-11.4067
▁rubriken	-11.4068
▁box	-11.4069
▁krypto	-11.4071
▁UK	-11.4073
kapacitet	-11.4073
▁kvalificerade	-11.4074
dagars	-11.4075
▁CE	-11.4075
▁skapelsen	-11.4075
▁Svaret	-11.4077
▁Staten	-11.4079
hålla	-11.408
▁detaljerade	-11.408
▁skylla	-11.408
kanaler	-11.4081
▁typisk	-11.4081
▁mäter	-11.4081
▁Förlåt	-11.4084
▁skift	-11.4085
▁insikter	-11.4087
▁Queen	-11.4087
stark	-11.4091
▁gudomlig	-11.4093
itz	-11.4096
▁uppfattas	-11.4097
stjärna	-11.4102
▁odds	-11.4102
▁sannolikheten	-11.4103
▁uppskattade	-11.4103
▁hotet	-11.4117
social	-11.4123
▁förhand	-11.4123
▁förberedd	-11.4123
▁66	-11.4124
▁flagga	-11.4125
belysning	-11.4128
▁Kl	-11.4129
tals	-11.4129
åter	-11.413
ljud	-11.4132
▁Skön	-11.4132
▁54	-11.4137
planering	-11.4137
▁Mad	-11.4137
dator	-11.4138
▁Sitt	-11.4138
komposit	-11.4138
▁CV	-11.4138
▁nackdelar	-11.4142
..."	-11.4142
▁hälsosamma	-11.4142
▁testet	-11.4142
annonser	-11.4144
▁foten	-11.4144
▁gl	-11.4148
▁dimensioner	-11.415
▁ana	-11.4151
▁Zo	-11.4152
▁utav	-11.4152
ytan	-11.4152
▁fyllda	-11.4153
▁utmaningarna	-11.4154
▁slaget	-11.4154
delen	-11.4158
mission	-11.4159
▁Your	-11.4159
▁underhålls	-11.416
ace	-11.4161
▁erfaren	-11.4161
▁lektion	-11.4163
▁förändringarna	-11.4163
▁varnar	-11.4163
▁sistnämnda	-11.4164
▁testosteron	-11.4164
▁Äntligen	-11.4164
▁bomull	-11.4164
▁hämnd	-11.4164
▁illusion	-11.4164
▁Återigen	-11.4164
▁ihjäl	-11.4164
▁Nokia	-11.4164
▁astma	-11.4164
▁regelbundna	-11.4164
▁naken	-11.4164
▁hyper	-11.4165
▁troligtvis	-11.4165
▁JAG	-11.4165
▁våt	-11.4166
▁ång	-11.4169
▁samtida	-11.417
▁friheten	-11.4171
▁förstörde	-11.4173
▁sund	-11.4174
fram	-11.4174
▁kniv	-11.4176
▁Ek	-11.4178
▁katalog	-11.4181
▁bero	-11.4181
▁uttalanden	-11.4183
▁mätningar	-11.4184
▁Nato	-11.4185
▁Chile	-11.4186
▁tacksamhet	-11.4187
▁list	-11.4187
pat	-11.4188
▁homosexuella	-11.4188
▁besättning	-11.4189
▁Institutet	-11.4189
flo	-11.419
▁skapelse	-11.419
▁sändning	-11.4191
▁]	-11.42
▁Wien	-11.4201
62	-11.4202
aya	-11.4202
▁skrivande	-11.4205
▁ovanliga	-11.4205
▁tätt	-11.4207
avdelning	-11.4208
▁Väx	-11.4208
▁seriöst	-11.4209
fon	-11.4209
Allt	-11.4211
bri	-11.4211
▁föroreningar	-11.4212
▁raser	-11.4214
▁Cur	-11.4216
▁kran	-11.4218
▁Hittade	-11.4219
▁ES	-11.422
▁omgiven	-11.422
bla	-11.4224
▁2011.	-11.4225
▁pr	-11.4226
▁upptäcktes	-11.4228
komponenter	-11.423
▁Mest	-11.423
SM	-11.4232
kant	-11.4235
▁RE	-11.4237
▁58	-11.4238
▁Landet	-11.4241
▁mogna	-11.4243
▁Systems	-11.4243
▁Sho	-11.4244
▁Allmän	-11.4246
▁nödvändighet	-11.4246
▁uttala	-11.425
▁vetenskapligt	-11.425
▁koncernen	-11.425
stillstånd	-11.4252
▁parallell	-11.4252
▁filmerna	-11.4253
▁missar	-11.4256
budget	-11.4257
200	-11.4258
Nej	-11.4258
▁kraftfullt	-11.4259
▁fastigheten	-11.426
▁nås	-11.426
▁isolera	-11.4265
▁1970-	-11.4267
▁summa	-11.4267
lott	-11.4267
▁reglerar	-11.4267
▁kärnan	-11.4273
▁därav	-11.4277
▁ställas	-11.428
▁Mobil	-11.4282
▁utforskar	-11.4283
▁Ven	-11.4287
▁1980	-11.4288
följd	-11.4289
kommit	-11.4289
EX	-11.429
▁2009.	-11.4291
▁Oh	-11.4291
▁Förmodligen	-11.4292
▁befrielse	-11.4292
▁Helige	-11.4292
▁förfogande	-11.4292
▁förvirring	-11.4292
▁Jacob	-11.4292
▁kollega	-11.4292
▁Boston	-11.4292
▁promenera	-11.4292
▁samvete	-11.4292
▁Sydney	-11.4292
▁First	-11.4292
▁bidrog	-11.4292
▁Ltd	-11.4293
▁evig	-11.4294
▁lyckligt	-11.4295
Ta	-11.4295
▁Good	-11.4295
▁femtio	-11.4295
▁Malta	-11.4297
▁sammanträde	-11.4298
▁individen	-11.4299
▁ock	-11.43
▁Opera	-11.43
▁kopior	-11.4301
▁insekter	-11.4302
företagen	-11.4302
▁pga	-11.4303
...”	-11.4304
▁Handling	-11.4304
▁management	-11.4305
▁legend	-11.4305
▁publicering	-11.4305
▁kyrkans	-11.4307
▁Boende	-11.4307
▁rörliga	-11.4311
▁långsam	-11.4311
▁inledande	-11.4312
centrum	-11.4314
▁Området	-11.4315
brev	-11.4316
▁sökanden	-11.4317
▁värma	-11.4319
ssel	-11.432
ansvarig	-11.4321
▁Tech	-11.4323
ända	-11.4324
▁obligatoriska	-11.4325
▁trötthet	-11.4328
▁2010.	-11.4329
▁skrevs	-11.433
3)	-11.433
CS	-11.4335
▁Lab	-11.4335
▁SP	-11.4336
▁Williams	-11.4336
▁servera	-11.4337
▁hiv	-11.4337
teckna	-11.4338
▁given	-11.4339
1-	-11.4341
före	-11.4341
▁mamman	-11.4342
▁misstänkta	-11.4343
07	-11.4344
▁fonder	-11.4347
▁lott	-11.4347
▁Familjen	-11.4347
dol	-11.4352
▁färgerna	-11.4353
▁domen	-11.4354
länk	-11.4354
▁diskuteras	-11.4356
▁lovat	-11.4356
▁migration	-11.4358
▁Själva	-11.4359
bränd	-11.436
sjö	-11.4361
ringen	-11.4363
▁Special	-11.4363
▁ideell	-11.4367
▁kontakten	-11.4371
miljön	-11.4372
▁Fox	-11.4373
▁judisk	-11.4375
▁session	-11.4375
ugh	-11.4378
▁typiska	-11.4379
▁samarbeten	-11.4383
▁nyttja	-11.4384
▁prövning	-11.4384
HA	-11.4387
▁översatt	-11.4387
96	-11.4387
▁tröst	-11.4388
oll	-11.4388
▁MI	-11.439
kommittén	-11.439
▁poliser	-11.439
▁öppenhet	-11.4391
▁attacken	-11.4392
▁96	-11.4392
▁terrorister	-11.4393
attacker	-11.4395
process	-11.4398
klassen	-11.44
jakt	-11.4403
▁Solen	-11.4404
skade	-11.4406
gården	-11.4406
▁åkt	-11.4409
staten	-11.4413
▁specifikationer	-11.4414
Jo	-11.4414
satsen	-11.4417
▁svaghet	-11.4418
▁Trade	-11.442
listor	-11.4422
▁Ocean	-11.4422
▁Access	-11.4422
▁Security	-11.4422
▁Wikipedia	-11.4422
▁narkotika	-11.4422
▁olympisk	-11.4422
▁proletariatet	-11.4422
▁avsaknad	-11.4422
▁fullborda	-11.4422
▁Domstolen	-11.4422
▁emellan	-11.4423
▁sovrummet	-11.4423
▁Young	-11.4424
▁offren	-11.4424
▁kollektivtrafik	-11.4424
▁vänstra	-11.4425
53	-11.4425
▁reflektion	-11.4426
nov	-11.4431
oth	-11.4432
▁Living	-11.4433
▁miles	-11.4433
▁värdighet	-11.4434
▁pistol	-11.4434
▁intelligenta	-11.4435
▁lotteri	-11.4436
▁Kvinnan	-11.4436
▁vilar	-11.4437
▁näringslivet	-11.4438
▁läkar	-11.4438
▁tonåring	-11.4439
förbrukningen	-11.4439
▁anhöriga	-11.4439
▁Trust	-11.4439
▁EA	-11.444
▁Senaste	-11.4441
vy	-11.4441
▁björn	-11.4441
▁spr	-11.4441
▁levnads	-11.4444
▁innehålls	-11.4445
▁prestationer	-11.4446
▁äventyra	-11.4446
VA	-11.4448
karna	-11.4448
▁tillbringade	-11.4449
▁hands	-11.4449
▁skrattade	-11.4452
▁olaglig	-11.4454
▁indiska	-11.4457
▁kämpade	-11.4457
▁genetiska	-11.4459
▁innehar	-11.4459
▁svenskt	-11.446
▁förbjudna	-11.4464
▁främling	-11.4466
Av	-11.4466
▁skriftligt	-11.4466
▁likhet	-11.447
▁konceptet	-11.4476
▁änden	-11.448
ire	-11.448
ämne	-11.4483
huvud	-11.4485
▁bosatt	-11.4486
▁Mail	-11.4487
▁utsläppen	-11.4493
rack	-11.4494
▁studerade	-11.4498
▁Korea	-11.45
▁scener	-11.4503
▁påbörja	-11.4504
belopp	-11.4505
känna	-11.451
II	-11.4512
▁Vara	-11.4513
▁soldat	-11.4513
stjänst	-11.4514
polis	-11.4514
Ha	-11.4517
kriterier	-11.4518
▁trauma	-11.4518
räd	-11.4519
▁Kunde	-11.4519
▁väv	-11.452
mbo	-11.4521
▁uppdaterat	-11.4522
▁Öka	-11.4523
▁fabriker	-11.4523
▁op	-11.4524
▁optimala	-11.4524
▁Fair	-11.4524
▁hyres	-11.4526
▁villiga	-11.4527
▁penning	-11.453
förändringarna	-11.4531
▁toalett	-11.4532
▁Göra	-11.4534
▁utskrift	-11.4538
▁10-	-11.4539
▁kontot	-11.4539
▁rättfärdig	-11.454
dre	-11.4544
RC	-11.4545
▁Sju	-11.4547
▁herrar	-11.4549
▁Hav	-11.4549
▁rotera	-11.4549
▁planeras	-11.455
▁gifter	-11.4554
▁Saudiarabien	-11.4554
▁college	-11.4554
▁Stephen	-11.4554
▁mestadels	-11.4554
▁senior	-11.4554
▁anhängare	-11.4554
▁flykt	-11.4554
▁Tower	-11.4554
▁representation	-11.4554
▁ägt	-11.4554
▁kusin	-11.4554
▁parkeringsplats	-11.4554
▁Heart	-11.4555
▁kontanter	-11.4556
▁Sarah	-11.4557
▁Stone	-11.4558
▁ljuger	-11.4558
▁stadium	-11.4558
▁Drick	-11.4558
▁Fyll	-11.4559
▁Cirk	-11.456
▁Action	-11.4563
▁dyrare	-11.4564
▁Uni	-11.4564
LT	-11.4564
▁Yo	-11.4564
▁Palm	-11.4564
▁oväntade	-11.4565
▁Säkerhet	-11.4565
▁kapten	-11.4571
▁LA	-11.4573
▁feber	-11.4574
gräns	-11.4575
lagar	-11.4578
0)	-11.4579
▁Fly	-11.4579
▁romerska	-11.458
▁Bok	-11.4582
▁kungliga	-11.4582
▁Sports	-11.4583
▁anpassad	-11.4585
▁digitalisering	-11.4586
▁bärbara	-11.4586
▁upplysningar	-11.4586
▁fattig	-11.459
▁väckte	-11.459
▁biologisk	-11.4591
kör	-11.4593
▁56	-11.4595
insatser	-11.4595
▁gudar	-11.4595
▁runtom	-11.4597
iell	-11.4598
▁hotade	-11.4598
▁vrede	-11.4599
▁play	-11.46
HS	-11.4601
▁anordna	-11.4604
▁symptomen	-11.4604
▁ler	-11.4605
ranska	-11.4605
▁fundamental	-11.4605
▁arbetstid	-11.4608
▁batteriet	-11.4609
▁budskapet	-11.4609
▁ytor	-11.4611
▁registreras	-11.4613
08	-11.4614
86	-11.4614
Hon	-11.4614
▁SE	-11.4614
effektiv	-11.4618
sug	-11.462
tänkande	-11.4621
plattformar	-11.4624
▁undersökt	-11.4624
▁skapad	-11.4625
▁utformning	-11.4625
lare	-11.4626
5%	-11.4628
▁uttrycket	-11.4631
▁Risk	-11.4632
▁sväng	-11.4634
virus	-11.4637
▁dikter	-11.4638
▁ag	-11.4639
▁cykla	-11.4639
▁profeten	-11.4649
$	-11.4651
▁sände	-11.4651
skivor	-11.4651
vänlig	-11.4652
▁skjut	-11.4652
▁nyheterna	-11.4655
▁140	-11.4658
FS	-11.4658
▁center	-11.4661
▁bete	-11.4662
▁stjärn	-11.4663
▁uppmanas	-11.4663
84	-11.4664
sdagen	-11.4671
fit	-11.4673
▁användarens	-11.4675
▁skugga	-11.4677
▁applicera	-11.468
▁administrera	-11.4681
▁ökningen	-11.4682
▁BA	-11.4683
▁stuga	-11.4683
dö	-11.4685
▁beräkningar	-11.4685
gna	-11.4686
▁Audi	-11.4686
▁Studenter	-11.4687
▁Åtminstone	-11.4687
▁medeltida	-11.4687
▁matematisk	-11.4687
▁syriska	-11.4687
▁låtsas	-11.4687
▁MSEK	-11.4687
▁Exempelvis	-11.4688
shirt	-11.4688
▁new	-11.469
förhållande	-11.4692
▁›	-11.4692
balans	-11.4692
▁restriktioner	-11.4693
▁andetag	-11.4695
▁Bou	-11.4697
lagstiftningen	-11.4697
▁mar	-11.4698
byrå	-11.4699
standard	-11.4699
Al	-11.47
arter	-11.4701
▁undvikas	-11.4701
▁Angel	-11.4707
▁tryckt	-11.4708
▁lådan	-11.4708
▁Sonen	-11.4709
▁förste	-11.471
No	-11.4711
▁attraktiva	-11.4711
▁återfinn	-11.4713
sdag	-11.4714
▁Box	-11.4714
▁slagit	-11.4716
fot	-11.4717
▁plug	-11.4718
▁sänder	-11.4718
familjemedlemmar	-11.4718
▁fredagen	-11.472
▁Roman	-11.4721
TO	-11.4721
▁debut	-11.4721
▁race	-11.4722
▁försörjning	-11.4723
▁härifrån	-11.4723
olin	-11.4726
▁väggarna	-11.4728
mässigt	-11.4731
▁Bort	-11.4732
rättigheter	-11.4733
▁andning	-11.4735
▁anslag	-11.4735
MI	-11.4736
▁svarat	-11.4737
▁ändamålsenlig	-11.4739
▁karta	-11.474
▁blodsocker	-11.4741
▁mineraler	-11.4743
▁ter	-11.4745
▁förhållandena	-11.4746
kunder	-11.4746
▁vilse	-11.4746
▁förteckning	-11.4748
▁reformer	-11.4748
▁byggas	-11.4749
tider	-11.4751
▁kundtjänst	-11.4752
▁bränn	-11.4758
▁snyggt	-11.4759
▁spins	-11.4759
▁Foto	-11.476
▁granne	-11.476
▁industrier	-11.476
▁njutning	-11.4761
▁Bull	-11.4762
▁citera	-11.4765
▁tilldela	-11.4766
kostnaderna	-11.4767
▁trevliga	-11.4769
▁högkvalitativ	-11.477
disk	-11.4771
bestämmelser	-11.4772
▁paketet	-11.4774
▁seriös	-11.4775
▁tungt	-11.4775
▁(20	-11.4777
▁lock	-11.4779
▁menyn	-11.4781
▁bröllops	-11.4781
fäst	-11.4785
▁ansikts	-11.4785
▁AP	-11.4786
▁Patienter	-11.4787
▁mut	-11.4791
▁regimen	-11.4792
etter	-11.4793
Vem	-11.4794
▁9:	-11.4801
▁Privat	-11.4801
via	-11.4805
aka	-11.4805
▁hänvisning	-11.4807
▁donera	-11.4808
▁drink	-11.4809
▁väsen	-11.4811
▁incitament	-11.4811
stein	-11.4812
73	-11.4815
▁Jim	-11.4815
▁betalade	-11.4816
MP	-11.4818
▁träden	-11.4819
▁besöket	-11.4819
nya	-11.482
▁ap	-11.4821
▁publicerad	-11.4822
▁elektricitet	-11.4822
▁premium	-11.4822
▁Hälso	-11.4822
▁Teknisk	-11.4822
▁Nyheter	-11.4823
▁dagsläget	-11.4823
▁stammar	-11.4823
▁bokföring	-11.4823
▁epi	-11.4824
sidig	-11.4824
▁FBI	-11.4824
▁lysande	-11.4824
▁CIA	-11.4825
▁Sjö	-11.4826
▁Guld	-11.4826
▁vaken	-11.4826
yrk	-11.4826
▁motorcykel	-11.4827
▁Skär	-11.4827
▁kastar	-11.4827
▁Forex	-11.4827
▁scenario	-11.4828
▁spräng	-11.4829
▁mottagit	-11.483
▁genomgått	-11.483
▁starkaste	-11.4831
▁viktigast	-11.4831
▁ropade	-11.4831
▁intensitet	-11.4831
anställda	-11.4831
nivåerna	-11.4832
▁lärjungar	-11.4832
▁tarm	-11.4836
▁Les	-11.4836
bed	-11.4836
värme	-11.4837
gue	-11.484
▁sval	-11.484
stationen	-11.4842
▁klient	-11.4844
room	-11.4844
▁Mobile	-11.4844
ställen	-11.4844
▁ljuga	-11.4844
gjord	-11.4845
▁hamnade	-11.4846
▁utvecklad	-11.4848
▁taktik	-11.4849
▁konventionella	-11.4849
▁varaktighet	-11.4849
▁parten	-11.485
▁Högsta	-11.4852
▁förväntat	-11.4852
word	-11.4852
▁8:	-11.4852
▁Sta	-11.4853
▁Ljuset	-11.4855
▁tolkas	-11.4855
▁160	-11.4856
läger	-11.4858
▁känslomässiga	-11.4858
rese	-11.486
▁förnuft	-11.486
lärare	-11.4863
To	-11.4865
▁intresset	-11.4865
▁distributions	-11.4866
▁Station	-11.4867
▁erkänd	-11.4868
▁organiska	-11.4868
tåg	-11.4868
gent	-11.4869
▁onödiga	-11.4875
▁Länk	-11.4876
▁OM	-11.4876
▁lat	-11.4879
▁festival	-11.488
▁privatliv	-11.4881
72	-11.4882
▁doft	-11.4885
yta	-11.4886
▁körkort	-11.4886
▁finländsk	-11.4887
▁barer	-11.4889
hall	-11.4892
▁smidig	-11.4894
Ho	-11.4894
▁Kam	-11.4894
▁termen	-11.4895
▁charm	-11.4895
▁arbetsmarknad	-11.4897
▁vinnaren	-11.4897
intag	-11.49
▁hata	-11.4902
▁VR	-11.4905
▁läger	-11.4906
motorer	-11.4908
udi	-11.4915
IV	-11.4916
▁130	-11.4918
▁ob	-11.4919
övervakning	-11.4921
ansökan	-11.4923
ute	-11.4923
▁överklaga	-11.4925
▁förvärvade	-11.4926
▁störta	-11.4926
▁Tillgång	-11.4927
oke	-11.493
▁övertygelse	-11.4931
gul	-11.4932
▁organiserad	-11.4932
▁rev	-11.4932
Till	-11.4933
0.000	-11.4934
parken	-11.4934
▁nivåerna	-11.4934
▁placerar	-11.4935
▁fun	-11.4935
▁Yu	-11.4938
▁inspirerade	-11.494
▁ingång	-11.4943
▁strukturen	-11.4944
▁helig	-11.4949
▁kvalificera	-11.495
framkallande	-11.4952
made	-11.4954
▁Bri	-11.4956
key	-11.4957
¶	-11.4959
▁Böcker	-11.4959
▁Outlook	-11.4959
▁Venedig	-11.4959
▁exponera	-11.4959
▁magnesium	-11.4959
▁misstänker	-11.4959
▁Född	-11.4959
▁gummi	-11.4959
▁gömma	-11.4959
▁synvinkel	-11.4959
cast	-11.4959
▁engagerad	-11.4959
[3]	-11.496
▁Charlie	-11.496
▁utfärda	-11.496
▁bingo	-11.4961
vu	-11.4962
▁balanserad	-11.4962
▁fyrtio	-11.4962
rörelser	-11.4963
▁rundtur	-11.4963
knappen	-11.4964
▁Hamas	-11.4965
▁Syd	-11.4965
▁kompatibel	-11.4967
▁uppfyllda	-11.4969
▁efterföljande	-11.497
▁intervall	-11.497
▁etapp	-11.4971
▁terminal	-11.4972
▁2030	-11.4972
▁militären	-11.4974
order	-11.4978
▁utsedd	-11.4978
▁Nike	-11.498
▁2019.	-11.498
UN	-11.4983
▁UN	-11.4985
▁rulla	-11.4986
▁förena	-11.4987
▁täckning	-11.4988
▁fynd	-11.4989
▁bedöms	-11.4991
▁borgerliga	-11.4993
▁Kärleken	-11.4995
▁kirurgi	-11.4996
▁huvuden	-11.4997
▁snitt	-11.4997
▁potentiell	-11.4998
banan	-11.5
▁ömsesidigt	-11.5001
56	-11.5002
sättningar	-11.5003
▁Ray	-11.5003
▁gynnar	-11.5005
▁skrift	-11.5005
▁röstar	-11.5009
▁ledarna	-11.5009
▁statligt	-11.501
utsläpp	-11.501
▁utbrott	-11.5011
▁eko	-11.5012
plikt	-11.5014
▁1960-	-11.5015
▁byggs	-11.5015
▁laboratorie	-11.5015
webbplats	-11.5018
vakt	-11.5018
gatan	-11.502
▁beta	-11.5021
▁strids	-11.5022
▁vä	-11.5025
▁halsen	-11.5027
▁Joe	-11.5028
▁hava	-11.5029
▁låst	-11.5029
▁angeläg	-11.5032
▁Rapport	-11.5032
▁krets	-11.5033
▁satsar	-11.5035
▁skulden	-11.5037
▁10:	-11.5037
▁Stat	-11.5042
▁basen	-11.5043
97	-11.5043
▁återställ	-11.5043
ici	-11.5044
▁stående	-11.5045
▁främlingar	-11.5046
▁omvandlas	-11.5046
föreningen	-11.5047
miljöer	-11.5052
▁självständig	-11.5052
▁balansen	-11.5054
▁konstatera	-11.506
kunnig	-11.506
▁massiv	-11.5062
▁hushålls	-11.5062
▁tablett	-11.5063
nära	-11.5064
4,	-11.5065
▁permanenta	-11.5066
dvs	-11.5066
massa	-11.5067
▁månads	-11.5068
▁lim	-11.5068
▁tjejen	-11.5071
/5	-11.5074
▁mött	-11.5075
tusen	-11.5077
▁vagn	-11.5079
växt	-11.5082
▁tät	-11.5083
▁90-	-11.5086
▁drabbades	-11.5086
▁Kostnad	-11.5088
▁hantverk	-11.5088
▁gator	-11.5089
▁trädde	-11.509
▁Värde	-11.5096
▁blåsa	-11.5097
▁inledde	-11.5098
▁fotografi	-11.5098
▁Academy	-11.5098
▁Edinburgh	-11.5098
▁Grattis	-11.5098
▁Nintendo	-11.5098
▁PayPal	-11.5098
▁världsledande	-11.5098
▁akademiker	-11.5098
▁Miami	-11.5099
▁inleds	-11.5099
▁Kap	-11.5099
▁grafisk	-11.5099
▁skrek	-11.5099
▁Henrik	-11.5099
▁Sound	-11.51
▁barmhärtighet	-11.51
▁Spelare	-11.51
▁uppstått	-11.5101
▁Alice	-11.5101
röd	-11.5102
▁småföretag	-11.5102
▁producerade	-11.5104
tioner	-11.5104
personer	-11.5104
▁värdig	-11.5104
▁tält	-11.5104
▁1980-	-11.5105
▁Ryan	-11.5105
▁Möjlighet	-11.5105
ated	-11.5107
▁kvarstår	-11.5108
▁lovande	-11.5108
▁lättnad	-11.5109
ile	-11.5109
▁Traditionell	-11.511
LI	-11.5111
▁kunders	-11.5112
▁kakor	-11.5113
▁bunden	-11.5115
▁skid	-11.5115
▁assistent	-11.5116
▁puls	-11.5116
▁ät	-11.5117
▁lovade	-11.5117
▁Bolagets	-11.5117
4-	-11.5118
▁helige	-11.512
neralsekreterare	-11.5121
▁passande	-11.5123
▁biskop	-11.5124
09	-11.5125
ifiering	-11.5126
▁genombrott	-11.5126
▁strategin	-11.5126
▁formellt	-11.5128
▁Strategi	-11.513
▁poolen	-11.5131
▁Röst	-11.5132
▁Alzheimers	-11.5132
▁Dia	-11.5133
▁psykolog	-11.5133
▁genomgår	-11.5133
▁leg	-11.5133
▁bytte	-11.5134
▁sjöar	-11.5135
▁misstänkt	-11.5136
▁giltigt	-11.5137
▁socialistisk	-11.5138
butik	-11.514
▁pan	-11.5141
▁föredra	-11.5141
▁byar	-11.5144
tank	-11.5146
▁et	-11.5146
▁aktion	-11.5148
▁känslighet	-11.5148
▁defekt	-11.5148
▁testade	-11.5148
frihet	-11.515
koldioxidutsläpp	-11.5151
▁Ten	-11.5152
kad	-11.5153
styrka	-11.5154
▁kyss	-11.5154
▁korset	-11.5154
▁förlorad	-11.5155
▁2000-	-11.5157
▁rättslig	-11.5157
butiker	-11.5161
▁kongress	-11.5161
▁Resultat	-11.5162
följande	-11.5162
▁sparka	-11.5168
▁behörig	-11.5169
▁brevet	-11.5169
▁förstånd	-11.517
▁kreativt	-11.5171
oz	-11.5172
▁föreställningar	-11.5172
▁Herr	-11.5174
▁Blu	-11.5174
▁tredjeländer	-11.5176
▁brud	-11.5176
▁Cra	-11.5177
stock	-11.5177
▁60-	-11.5179
▁Snabb	-11.5179
▁Blå	-11.5181
ehållstillstånd	-11.5181
fältet	-11.5181
LL	-11.5182
kommer	-11.5183
▁sträng	-11.5184
Ba	-11.5185
▁föräldra	-11.5186
▁förbinder	-11.5189
▁formulera	-11.5193
▁splittra	-11.5194
postmeddelanden	-11.5194
vandring	-11.5195
▁gärning	-11.5197
▁konsumenten	-11.5198
erbjudanden	-11.5198
▁attraktioner	-11.5198
ping	-11.52
▁leds	-11.5201
konstruktion	-11.5202
▁europeiskt	-11.5202
vilja	-11.5202
infrastruktur	-11.5203
▁geo	-11.5203
▁uppdraget	-11.5204
kortet	-11.5208
TER	-11.5208
snitt	-11.5208
mekanism	-11.5209
2012	-11.521
▁finansieras	-11.521
▁Ry	-11.5211
▁styre	-11.5213
▁Industri	-11.5214
▁Försäljning	-11.5215
▁objektet	-11.5216
statliga	-11.5216
▁bensin	-11.5219
elle	-11.5219
▁rörde	-11.5222
boende	-11.5226
▁Beslut	-11.5226
▁Död	-11.5229
reglerna	-11.523
▁skillnaderna	-11.5231
fyra	-11.5232
ligheten	-11.5233
ada	-11.5233
ova	-11.5234
▁tillförlitlig	-11.5234
▁valdes	-11.5234
▁fattat	-11.5237
▁Bluetooth	-11.5239
▁Indonesien	-11.5239
▁Nigeria	-11.5239
▁Swedish	-11.5239
▁Buddha	-11.5239
▁Ursprunglig	-11.5239
▁Youtube	-11.5239
▁utsökt	-11.5239
▁Town	-11.5239
▁flydde	-11.5239
▁tillbaks	-11.524
▁arbetarklassen	-11.5241
▁världsklass	-11.5242
▁Historien	-11.5242
▁Eventuell	-11.5243
▁befann	-11.5243
▁välstånd	-11.5243
▁prick	-11.5244
▁blått	-11.5245
grav	-11.5245
▁Dal	-11.5247
index	-11.5247
▁Bilden	-11.5248
▁Ändra	-11.5249
▁överskott	-11.5253
▁ingick	-11.5253
▁bull	-11.5255
▁skildra	-11.5255
▁fastställande	-11.5256
▁överlever	-11.5256
savgifter	-11.5258
sken	-11.526
▁råkar	-11.5261
▁lyser	-11.5262
▁ärende	-11.5263
▁drabbar	-11.5263
kunskap	-11.5264
atom	-11.5264
anten	-11.5265
▁latin	-11.5268
▁mission	-11.527
show	-11.5271
▁Brist	-11.5273
▁drottning	-11.5274
Ut	-11.5277
▁Avtalet	-11.5279
Som	-11.528
änder	-11.528
ringar	-11.528
▁målning	-11.5282
▁godis	-11.5284
fort	-11.5284
▁Lim	-11.5284
nska	-11.5285
oon	-11.5287
▁sprit	-11.5288
odd	-11.5288
▁verktyget	-11.5289
▁fallen	-11.5289
▁medierna	-11.529
ved	-11.5291
målet	-11.5291
▁behållare	-11.5293
parti	-11.5296
▁symtomen	-11.5297
media	-11.5298
▁''	-11.5298
57	-11.5302
hastighet	-11.5302
▁Fokus	-11.5308
▁stängd	-11.5308
meddelanden	-11.5314
▁garantier	-11.5316
▁Vetenskap	-11.5319
▁värdepapper	-11.5319
▁trycker	-11.5321
▁namnen	-11.5324
▁80-	-11.5326
odo	-11.5327
skala	-11.5328
▁guds	-11.5329
specifika	-11.5332
▁bevarande	-11.5332
bort	-11.5334
▁dyr	-11.5335
delad	-11.5338
▁ingenjörer	-11.5339
▁elektroniskt	-11.5339
▁tillverkad	-11.534
▁ful	-11.534
▁köpet	-11.5342
▁inbyggd	-11.5342
▁länka	-11.5343
▁självt	-11.5343
1/	-11.5344
▁rid	-11.5344
▁Bell	-11.5345
▁skapande	-11.5345
gud	-11.5346
handels	-11.5347
▁Ass	-11.5348
vapen	-11.5348
▁organiserade	-11.5348
ativa	-11.5352
▁underhålla	-11.5352
chefen	-11.5355
osa	-11.5355
▁begärt	-11.5356
effekten	-11.5356
direktivet	-11.5357
▁anvisningar	-11.5357
bes	-11.5358
▁spegel	-11.5358
▁sorters	-11.5358
▁motstå	-11.5359
▁Finn	-11.5359
▁dödlig	-11.536
sår	-11.5362
gä	-11.5362
publ	-11.5363
▁hormoner	-11.5365
IK	-11.5366
▁blödning	-11.5367
▁tj	-11.5367
kulär	-11.5368
▁trupper	-11.5369
börd	-11.5369
▁Bak	-11.5372
▁jobbade	-11.5376
förhållandena	-11.5381
kostnad	-11.5381
▁Chrome	-11.5381
▁Libanon	-11.5382
▁bläddra	-11.5382
▁brutit	-11.5382
▁döljer	-11.5382
▁diktatur	-11.5382
▁Development	-11.5382
▁asiatiska	-11.5382
▁hinner	-11.5382
▁mikrofon	-11.5382
▁Märk	-11.5382
▁Luther	-11.5382
▁obegränsad	-11.5382
▁betong	-11.5383
▁Mount	-11.5383
▁Andreas	-11.5384
▁Utforska	-11.5384
▁utrota	-11.5384
▁dekorera	-11.5385
▁sid	-11.5386
▁skicklighet	-11.5386
▁potatis	-11.5388
trat	-11.5388
▁sammanlagd	-11.5388
▁prägla	-11.5388
▁anbud	-11.5389
▁succé	-11.539
NT	-11.539
▁segment	-11.5392
▁hjältar	-11.5392
▁hörsel	-11.5393
runda	-11.5393
▁praktisera	-11.5395
▁Arts	-11.5395
▁diagram	-11.5396
-20	-11.5396
▁genre	-11.5396
last	-11.5396
▁Lisa	-11.5397
▁kvartal	-11.5398
▁sämsta	-11.5399
▁tröja	-11.5399
▁passiv	-11.5399
▁karaktären	-11.5401
▁odling	-11.5401
▁tolerans	-11.5403
rens	-11.5404
▁lampor	-11.5405
▁polska	-11.5406
▁profiler	-11.5407
▁egenskaperna	-11.5407
▁nackdel	-11.5408
▁kollektion	-11.5409
▁inifrån	-11.5411
▁etik	-11.5418
▁hemskt	-11.5419
▁mervärde	-11.542
▁månaders	-11.542
▁rökning	-11.5421
rock	-11.5425
▁Bed	-11.5425
ägg	-11.5426
aktig	-11.5427
▁kombinationen	-11.5428
▁turkiska	-11.5428
▁barndom	-11.5429
flöde	-11.543
▁släppas	-11.5431
▁rösten	-11.5431
▁fängelset	-11.5433
▁Styr	-11.5433
▁fjärdedel	-11.5433
▁publicerar	-11.5436
▁erövra	-11.5442
▁objektiv	-11.5443
▁yt	-11.5443
skapacitet	-11.5444
▁snacka	-11.5446
▁hemlig	-11.5449
Me	-11.5451
uro	-11.5453
▁ve	-11.5454
▁mu	-11.5455
▁internt	-11.5457
76	-11.5458
“	-11.5463
▁säljaren	-11.5464
run	-11.5465
▁uppskattas	-11.5465
▁At	-11.5465
9)	-11.5465
lång	-11.5468
effektivitet	-11.5468
▁biologi	-11.5472
splanen	-11.5473
▁terrass	-11.5473
▁division	-11.5474
▁förflytta	-11.5477
▁konstiga	-11.5482
▁tryggt	-11.5483
▁specialister	-11.5483
▁Användar	-11.5485
▁ku	-11.5485
▁antagits	-11.5487
effekt	-11.5489
minskning	-11.549
registret	-11.549
#	-11.549
fylld	-11.5491
ming	-11.5491
▁definierade	-11.5494
▁dödas	-11.5494
▁ingrediens	-11.5495
pool	-11.5495
▁övergången	-11.5496
bandet	-11.5496
▁fläckar	-11.5497
▁riskera	-11.5498
abla	-11.55
itan	-11.55
▁Tel	-11.5501
▁­	-11.5504
princip	-11.5505
sensor	-11.5506
lunda	-11.5507
more	-11.5509
skåp	-11.5512
▁lyckad	-11.5512
▁träffades	-11.5512
▁kraftig	-11.5512
▁skriftlig	-11.5513
▁sköter	-11.5518
▁bitter	-11.552
umma	-11.5522
lokal	-11.5522
▁grip	-11.5526
▁British	-11.5527
▁Filippinerna	-11.5527
▁Intressant	-11.5527
▁komplement	-11.5527
▁nämner	-11.5527
▁öknen	-11.5527
▁logotyp	-11.5527
▁sprids	-11.5527
▁bevittna	-11.5527
▁operativ	-11.5527
▁uppfyllt	-11.5527
▁Index	-11.5527
▁yttrandefrihet	-11.5527
▁sjuksköterska	-11.5527
▁föreslog	-11.5527
▁drev	-11.5528
▁migranter	-11.5528
▁värna	-11.5528
▁uppfostra	-11.5529
▁Fredrik	-11.5529
skott	-11.5529
▁1940	-11.553
RS	-11.553
▁Ok	-11.5531
▁osäkra	-11.5531
innehavare	-11.5531
▁Girl	-11.5532
▁nämnt	-11.5532
▁Baby	-11.5533
▁mäktiga	-11.5534
▁hårdvara	-11.5534
▁avdelningen	-11.5535
▁högtalare	-11.5536
▁framstående	-11.5537
▁gränssnitt	-11.5537
▁ansöknings	-11.5537
▁överdriven	-11.5538
▁Lord	-11.5538
▁fet	-11.5538
11)	-11.5539
▁vägnar	-11.5539
▁inkluderande	-11.554
▁immateriella	-11.554
▁nedanför	-11.554
▁konfiguration	-11.5541
vall	-11.5543
▁Jason	-11.5549
rapport	-11.555
▁hugg	-11.5554
▁gall	-11.5555
▁kravet	-11.5557
▁förordningar	-11.5558
▁Hei	-11.5558
▁kollar	-11.5559
nytt	-11.556
▁pil	-11.556
familjen	-11.5561
▁visning	-11.5561
▁Rid	-11.5561
UR	-11.5562
▁mild	-11.5562
▁skadat	-11.5563
▁certifierade	-11.5563
▁flaskor	-11.5563
▁genetiskt	-11.5564
▁63	-11.5565
▁ved	-11.5568
konton	-11.5569
gli	-11.557
▁funktionella	-11.557
▁uppkomst	-11.5572
▁ekologisk	-11.5574
▁skadan	-11.5574
▁smycken	-11.5574
▁programmering	-11.5575
▁beräknar	-11.5578
▁anda	-11.558
▁förkorta	-11.5581
▁Webb	-11.5582
▁bri	-11.5585
förande	-11.5587
▁samlats	-11.5587
smetod	-11.5589
eth	-11.559
▁bestämd	-11.5593
▁tilläggs	-11.5597
▁stegen	-11.56
chen	-11.5601
kön	-11.5603
väv	-11.5607
▁påbörjade	-11.5607
▁UV	-11.5608
ntegritetspolicy	-11.5608
▁Krav	-11.5608
▁Fre	-11.561
▁tänd	-11.561
▁13:	-11.5612
▁släck	-11.5613
▁Hum	-11.5615
▁Lam	-11.5619
▁smärt	-11.562
▁referenser	-11.562
ställningar	-11.562
rättsliga	-11.5621
kedjan	-11.5622
▁hoppar	-11.5624
itch	-11.5625
▁sno	-11.5626
mån	-11.5627
▁Rysslands	-11.5628
programmen	-11.563
▁agerande	-11.5631
▁sms	-11.5631
▁familjemedlem	-11.5633
pper	-11.5634
metoden	-11.5636
▁arbetsplatser	-11.5637
3-	-11.5637
▁utse	-11.5637
diabetes	-11.5637
▁förenade	-11.5638
numret	-11.5638
▁#1	-11.564
ledaren	-11.5641
▁våningar	-11.5642
▁slutsats	-11.5646
▁tävlings	-11.5646
▁underteckna	-11.5649
▁bytt	-11.5649
▁axel	-11.565
▁fött	-11.5651
▁arbetsgrupp	-11.5654
▁beställningar	-11.5655
▁turen	-11.5657
häv	-11.5659
ful	-11.566
▁oroliga	-11.5661
▁vulkan	-11.5661
▁1,2	-11.5663
smyndigheten	-11.5665
▁utrustad	-11.5665
▁drifts	-11.5666
opi	-11.5672
▁motorer	-11.5673
▁kontra	-11.5673
▁glöd	-11.5674
▁Halloween	-11.5674
▁Corporation	-11.5674
▁Spotify	-11.5674
▁dröjsmål	-11.5674
▁nikotin	-11.5674
▁oväntat	-11.5674
▁sjunker	-11.5674
▁gömmer	-11.5674
▁sänt	-11.5674
▁allians	-11.5674
▁grät	-11.5674
82	-11.5674
▁WHO	-11.5674
▁1967	-11.5675
▁Sälj	-11.5675
▁härstamma	-11.5675
▁Kevin	-11.5675
▁bekostnad	-11.5676
▁Sakna	-11.5676
▁irriterande	-11.5676
▁sjunka	-11.5676
▁långsammare	-11.5677
▁privilegier	-11.5677
cken	-11.5677
▁Lön	-11.5678
▁intrång	-11.5679
▁nationalitet	-11.568
▁kryptera	-11.568
▁kännedom	-11.568
Kom	-11.568
▁Micro	-11.5681
▁ingrepp	-11.5681
▁populäraste	-11.5682
▁lev	-11.5683
▁stått	-11.5683
▁SK	-11.5684
▁Report	-11.5685
▁2007.	-11.5685
▁chaufför	-11.5685
går	-11.5686
▁nedsatt	-11.5687
▁Gissa	-11.5687
▁springer	-11.5687
▁rytm	-11.5688
▁förklaras	-11.5688
förvaltning	-11.569
▁Chan	-11.5691
amarbetspartners	-11.5693
▁blinda	-11.5694
byggnaden	-11.5694
▁riva	-11.5695
▁låda	-11.5698
▁spar	-11.5698
▁smaka	-11.5699
▁fästa	-11.57
attack	-11.5702
▁kristendomen	-11.5702
▁Solutions	-11.5702
▁läraren	-11.5703
tester	-11.5704
priserna	-11.5704
▁präster	-11.5706
▁varaktig	-11.5706
▁kartan	-11.5706
▁drick	-11.5707
▁utrymmen	-11.5707
▁inspektion	-11.5709
▁konungen	-11.5712
0,000	-11.5714
▁leksak	-11.5715
▁broms	-11.5717
cept	-11.5718
Po	-11.572
▁officiell	-11.5723
▁steroider	-11.5727
▁statlig	-11.5729
skriv	-11.5729
▁märken	-11.5732
kten	-11.5733
▁tufft	-11.5735
▁musklerna	-11.5735
▁rikta	-11.5735
▁Kid	-11.5737
▁dynamisk	-11.5738
”).	-11.5738
view	-11.5741
personal	-11.5742
▁laddning	-11.5742
pos	-11.5743
▁romantiska	-11.5743
▁evenemanget	-11.5743
zer	-11.5746
▁Dark	-11.5747
onia	-11.5748
▁110	-11.5749
▁car	-11.5749
▁förnybara	-11.575
▁styrkan	-11.5752
▁hu	-11.5753
▁installerade	-11.5753
max	-11.5754
▁hamnat	-11.5754
nämnd	-11.5755
▁Produkten	-11.5756
smaterial	-11.5756
kommande	-11.5756
korg	-11.5757
splats	-11.5758
▁anmäl	-11.5762
▁Villkor	-11.5766
skal	-11.5767
rike	-11.5767
▁Redo	-11.5769
skri	-11.5771
▁beräkningen	-11.5772
märkt	-11.5772
trol	-11.5773
▁samtalet	-11.5775
▁Slut	-11.5776
▁proteiner	-11.5777
▁kommunicerar	-11.5779
▁Hat	-11.578
apparat	-11.5781
▁evangeliet	-11.5782
▁kö	-11.5786
kompetens	-11.5787
▁sh	-11.5787
Läs	-11.5788
2000	-11.5791
▁välsigna	-11.5791
omfattande	-11.5792
▁Tio	-11.5793
lyft	-11.5793
▁Testa	-11.5795
Låt	-11.5798
▁läsaren	-11.5798
universitetet	-11.5799
kyrkan	-11.5801
▁Mur	-11.5802
▁väljs	-11.5802
▁ond	-11.5803
▁dygn	-11.5803
strukturer	-11.5805
åringar	-11.5805
▁förändrat	-11.5806
▁gris	-11.5806
▁intressera	-11.5807
▁förlusten	-11.5815
▁inlärning	-11.5817
▁utsikten	-11.5818
ize	-11.5819
▁Rumänien	-11.5823
▁Söder	-11.5823
▁Tredje	-11.5823
▁autism	-11.5823
▁oförglömlig	-11.5823
förhållningssätt	-11.5823
▁trång	-11.5823
ado	-11.5823
▁indikation	-11.5823
▁plagg	-11.5823
▁Dublin	-11.5823
▁vardagsrum	-11.5823
▁befallning	-11.5823
▁Carolina	-11.5823
▁1969	-11.5824
▁Silver	-11.5824
läs	-11.5826
▁Låg	-11.5826
▁uppmaning	-11.5827
ppar	-11.5827
▁underskatta	-11.5828
▁vistas	-11.5828
shantering	-11.5829
▁böter	-11.5829
▁hinna	-11.583
▁tacksamma	-11.5831
▁förfrågningar	-11.5832
▁enkät	-11.5833
▁kommunistisk	-11.5834
89	-11.5834
▁Corn	-11.5835
▁Moon	-11.5844
▁smuts	-11.5845
▁Gro	-11.5845
▁glass	-11.5845
▁gymnasie	-11.5845
egenskaper	-11.5845
▁boskap	-11.5846
▁arbetslösa	-11.5848
skort	-11.585
▁sökmotor	-11.5851
känsla	-11.5853
▁Way	-11.5853
▁söndagen	-11.5853
▁åtgärderna	-11.5854
gran	-11.5855
▁meny	-11.5855
▁Nar	-11.5856
sdata	-11.5856
▁Notera	-11.5858
▁berömd	-11.5859
▁dramatiskt	-11.5859
▁penna	-11.5859
▁posten	-11.586
▁låtit	-11.5861
▁arbetsdagar	-11.5862
▁fruktansvärda	-11.5862
▁Särskild	-11.5863
bana	-11.5863
▁mordet	-11.5865
▁stabila	-11.5866
▁inköps	-11.5866
▁vägarna	-11.5868
▁engångs	-11.5868
ient	-11.5869
mängd	-11.587
▁hemland	-11.5871
rapporten	-11.5874
enligt	-11.5876
▁besluten	-11.5877
▁Ang	-11.5877
iseras	-11.5878
handla	-11.588
▁erkända	-11.5881
udd	-11.5881
▁installationen	-11.5882
ima	-11.5883
▁konstruerade	-11.5885
▁innehav	-11.5886
▁galleri	-11.5887
planen	-11.5889
▁kompromiss	-11.589
▁Sl	-11.5891
▁Flytta	-11.5893
kontoret	-11.5895
▁uppehåll	-11.5895
ifier	-11.5896
▁rån	-11.5897
▁undertecknade	-11.5897
sey	-11.5898
▁levererade	-11.5899
▁Tea	-11.5899
IR	-11.5902
▁skarp	-11.5902
▁fallit	-11.5902
sprocesser	-11.5904
▁File	-11.5905
▁delat	-11.5905
▁italiensk	-11.5905
arbets	-11.5905
▁fungerat	-11.5908
▁ombud	-11.5909
▁riktlinjerna	-11.5911
fv	-11.5912
gräv	-11.5914
▁medgivande	-11.592
▁rädslan	-11.5923
▁Bru	-11.5924
▁stjäla	-11.5926
▁läka	-11.5928
▁medvetandet	-11.5929
kh	-11.5929
▁guider	-11.5932
▁erektion	-11.5933
▁diamant	-11.5933
▁klargöra	-11.5933
▁fotografier	-11.5934
▁meddelat	-11.5935
▁gråt	-11.5936
▁burk	-11.5937
▁gul	-11.5938
▁Az	-11.594
▁%)	-11.594
speriod	-11.5945
dalen	-11.5946
ryck	-11.595
▁Oj	-11.595
▁klassificeras	-11.595
▁avdelningar	-11.5952
ila	-11.5953
▁arbetsgivaren	-11.5953
undersökningar	-11.5954
▁freds	-11.5956
▁nationerna	-11.5958
▁serier	-11.5958
▁regera	-11.5959
▁Missa	-11.5959
▁game	-11.596
▁omöjlig	-11.5962
▁showen	-11.5964
▁måndagen	-11.5966
▁GB	-11.5967
Då	-11.5968
▁klädd	-11.5969
formen	-11.5972
▁77	-11.5973
▁Absolut	-11.5974
▁Manhattan	-11.5974
▁Tokyo	-11.5974
▁balkong	-11.5974
▁café	-11.5974
▁flög	-11.5974
▁orgasm	-11.5974
▁otaliga	-11.5974
▁Dream	-11.5974
▁Svårt	-11.5974
▁kvadratmeter	-11.5974
▁erkänt	-11.5974
▁mammor	-11.5974
▁Azure	-11.5975
▁Andrew	-11.5975
pati	-11.5975
▁gymmet	-11.5975
▁Utmärkt	-11.5975
▁1983	-11.5975
ägda	-11.5975
▁Skype	-11.5976
▁Flash	-11.5976
▁dysfunktion	-11.5976
▁Travel	-11.5976
▁moment	-11.5977
▁spred	-11.5978
▁nedåt	-11.5978
▁tilldelats	-11.5979
växling	-11.5979
▁Hö	-11.5979
▁Operation	-11.5979
▁Uber	-11.598
▁mobiltelefoner	-11.5982
▁Marketing	-11.5982
▁bevisat	-11.5982
▁♥	-11.5982
▁blixt	-11.5983
▁Radi	-11.5984
▁Modell	-11.5988
pump	-11.5988
▁Östersjön	-11.599
▁fälla	-11.599
▁skörd	-11.599
▁signatur	-11.5993
▁dottern	-11.5995
avgifter	-11.5996
▁love	-11.5997
▁Hay	-11.6
mätare	-11.6001
▁inbjudan	-11.6002
▁Story	-11.6005
vägs	-11.6006
▁slakt	-11.6006
▁Lång	-11.6006
▁tagen	-11.6006
rst	-11.6007
8%	-11.6007
▁fortsättningen	-11.6009
stro	-11.601
BT	-11.601
▁kritiker	-11.6011
▁Boka	-11.6011
▁noggrannhet	-11.6013
▁rekrytering	-11.6014
▁bristen	-11.6014
▁folkets	-11.6014
▁bestäms	-11.6015
▁mötes	-11.6018
▁ansvarsfullt	-11.6019
▁utformats	-11.602
ido	-11.6021
uch	-11.6022
▁resulterade	-11.6023
▁Mill	-11.6023
▁receptet	-11.6023
▁ackumulera	-11.6024
▁Kalla	-11.6024
▁fat	-11.6025
▁representerade	-11.6026
▁ver	-11.6026
▁14:	-11.6027
▁fakultet	-11.6028
▁psykologiska	-11.6028
▁Vision	-11.6028
▁frukta	-11.6029
▁und	-11.6029
▁producent	-11.603
▁Sydamerika	-11.603
▁stängda	-11.6031
▁Tru	-11.6033
▁sort	-11.6036
51	-11.6036
▁traditionen	-11.6038
▁omger	-11.6041
▁stationer	-11.6049
▁kritiskt	-11.605
▁57	-11.6055
▁kulturell	-11.6055
▁lämpa	-11.6055
▁Rob	-11.606
▁stycke	-11.606
▁spelautomater	-11.606
ó	-11.6062
arbetstillfällen	-11.6063
▁institutet	-11.6063
▁växla	-11.6064
8/	-11.6066
▁fabriken	-11.6068
ye	-11.6068
övning	-11.607
nik	-11.607
▁snack	-11.6072
▁intellektuell	-11.6075
▁bestämmelse	-11.6076
mt	-11.6077
▁(10	-11.6077
skriven	-11.6078
▁omröstning	-11.6079
▁kemikalie	-11.6079
▁substanser	-11.608
▁PM	-11.6081
kampanj	-11.6082
▁12:	-11.6083
▁MO	-11.6084
säsongen	-11.6085
▁ändrat	-11.6087
ländska	-11.6088
▁grunderna	-11.6088
▁ceremoni	-11.609
▁Vikt	-11.609
▁skylt	-11.609
▁Spi	-11.6092
installation	-11.6092
sstrategi	-11.6093
sorgan	-11.6093
▁jurisdiktion	-11.6093
▁associera	-11.6094
▁fokuserade	-11.6094
▁Sign	-11.6098
bön	-11.61
▁anlände	-11.61
▁slavar	-11.61
▁Stort	-11.6102
▁egyptisk	-11.6103
affärsverksamhet	-11.6103
PO	-11.6103
artiklar	-11.6104
▁siffra	-11.6105
▁Leo	-11.6106
mötet	-11.6107
▁Användaren	-11.6108
▁uppenbarelse	-11.6109
frukt	-11.6112
▁registrerad	-11.6114
▁70-	-11.6115
▁semi	-11.6116
▁Gäst	-11.6122
meddelande	-11.6122
hund	-11.6123
▁operationen	-11.6124
stjärnan	-11.6124
uld	-11.6125
▁varumärkes	-11.6125
grader	-11.6125
▁Brexit	-11.6128
▁Exchange	-11.6128
▁Kroatien	-11.6128
▁adoptera	-11.6128
▁minimum	-11.6128
▁terräng	-11.6128
▁1700-	-11.6128
▁NASA	-11.6128
▁galna	-11.6128
▁offline	-11.6129
▁voro	-11.6129
▁Arthur	-11.6129
▁vardagsrummet	-11.6129
▁1973	-11.6129
▁interiör	-11.6129
▁Skanska	-11.613
▁anställa	-11.613
▁ledamot	-11.613
▁befäst	-11.613
▁touch	-11.6131
▁Erfarenhet	-11.6131
▁Produktion	-11.6131
▁färdas	-11.6133
▁pjäs	-11.6135
▁Gäll	-11.6136
▁Connect	-11.6136
▁camping	-11.6136
▁komedi	-11.6139
▁Wales	-11.614
▁grabb	-11.614
NI	-11.6143
krisen	-11.6143
▁Studio	-11.6143
▁vaccination	-11.6144
▁hypo	-11.6144
▁redaktör	-11.6145
▁rösträtt	-11.6147
▁pressa	-11.6148
▁oändligt	-11.6153
▁legitima	-11.6153
▁demens	-11.6155
fund	-11.6156
▁domar	-11.6158
ious	-11.6158
▁klockor	-11.616
▁domstolar	-11.6161
▁vinet	-11.6161
ple	-11.6163
▁non	-11.6163
▁sim	-11.6164
fonder	-11.6165
▁View	-11.6165
▁Grupp	-11.6166
▁buller	-11.6166
▁strömma	-11.6166
▁massorna	-11.6167
▁skåp	-11.6167
TR	-11.6171
▁visuella	-11.6171
▁Stå	-11.6172
förbundet	-11.6174
▁lanserade	-11.6175
▁NU	-11.618
▁Sy	-11.618
▁ed	-11.6181
▁pålitliga	-11.6181
▁parts	-11.6182
▁nav	-11.6182
▁sammanhanget	-11.6183
▁blek	-11.6183
▁ömsesidig	-11.6184
▁Java	-11.6184
▁programmen	-11.6186
▁Systemet	-11.6186
▁avbrott	-11.6187
▁olagliga	-11.619
pas	-11.6194
▁andnings	-11.6195
instrument	-11.6195
bun	-11.6197
däck	-11.6197
offer	-11.6197
▁lördagen	-11.6199
ager	-11.6199
▁blandade	-11.62
▁lastbilar	-11.62
kött	-11.6203
▁Ross	-11.6205
▁avståndet	-11.6206
ender	-11.621
▁djuret	-11.621
▁Add	-11.6211
▁förpackningar	-11.6215
▁2006.	-11.6216
▁diplomatisk	-11.6217
teckningar	-11.622
TH	-11.6221
Inte	-11.6222
▁rullar	-11.6223
▁glaset	-11.6224
cykel	-11.6225
sarbetet	-11.6227
löp	-11.623
▁exceptionell	-11.6232
▁mekanisk	-11.6232
face	-11.6233
▁53	-11.6234
▁kolonial	-11.6235
▁NO	-11.6237
designer	-11.6238
familj	-11.6239
▁Fundera	-11.6239
eman	-11.6239
▁Kate	-11.6244
savtalet	-11.6244
▁andre	-11.6246
mått	-11.6247
▁samlades	-11.6248
naturlig	-11.6248
bränsle	-11.6248
prestanda	-11.6248
marknadsföring	-11.6249
▁snar	-11.625
turer	-11.6251
▁utgången	-11.6252
71	-11.6253
tjäna	-11.6253
nedan	-11.6254
58	-11.6255
▁Down	-11.6255
▁diskussionen	-11.6257
▁fingrar	-11.6257
lägenhet	-11.6258
född	-11.6259
▁Regler	-11.6259
möten	-11.626
print	-11.626
▁godhet	-11.6261
orten	-11.6261
▁fritids	-11.6261
eus	-11.6265
▁arbetsdag	-11.6265
UD	-11.6267
▁98	-11.6267
▁genomgå	-11.6268
vanor	-11.627
▁Tjänster	-11.6276
▁ytter	-11.6276
fattar	-11.6277
▁påbörjat	-11.6277
resan	-11.6277
Upp	-11.6279
▁Care	-11.628
▁mandat	-11.6284
▁sjöfart	-11.6284
▁understryk	-11.6284
▁välmående	-11.6284
▁Civil	-11.6284
▁halvtimme	-11.6284
▁konfrontera	-11.6284
▁Magnus	-11.6285
▁Earth	-11.6285
▁utgjorde	-11.6285
▁Generellt	-11.6285
▁inleddes	-11.6285
▁rymmer	-11.6285
▁entusiastisk	-11.6285
▁sallad	-11.6285
▁livslång	-11.6285
▁1982	-11.6285
▁folkomröstning	-11.6285
▁Wilson	-11.6285
▁kostym	-11.6286
▁upprörd	-11.6286
▁1977	-11.6286
▁1988	-11.6286
▁(13	-11.6286
▁diskret	-11.6286
▁informerade	-11.6286
▁vägra	-11.6286
▁Lanka	-11.6286
heim	-11.6289
institutet	-11.629
▁våldet	-11.629
▁Eleverna	-11.629
▁övertygande	-11.6291
▁svett	-11.6292
▁mata	-11.6293
▁beskrivit	-11.6293
▁bjöd	-11.6293
▁socialdemokrat	-11.6294
▁oönskade	-11.6295
▁mödrar	-11.6295
▁prenumeration	-11.6295
▁perfektion	-11.6296
▁Icke	-11.6298
▁resmål	-11.6298
▁slot	-11.6302
87	-11.6304
▁reglera	-11.6304
mak	-11.6304
▁producerat	-11.6305
▁kryptering	-11.6306
▁klokt	-11.6307
▁PA	-11.6308
▁nyfödda	-11.6308
vant	-11.631
▁hörs	-11.6311
ött	-11.6311
▁systematiskt	-11.6311
▁oändliga	-11.6312
83	-11.6312
▁återspeglar	-11.6313
▁uppdelad	-11.6313
▁00	-11.6314
▁Mall	-11.6314
▁kriminella	-11.6315
mord	-11.6315
▁testas	-11.6316
eli	-11.632
▁78	-11.632
▁konstnärliga	-11.632
▁intressenter	-11.632
sförfarandet	-11.6321
▁Lagen	-11.6322
▁motivering	-11.6322
jar	-11.6323
▁producenter	-11.6325
ista	-11.6325
▁Stark	-11.6326
gt	-11.6328
burn	-11.6334
▁ingående	-11.6335
▁vandrar	-11.6335
▁kompletterar	-11.6335
▁aggressiva	-11.6336
▁tatuering	-11.6337
▁åtgärden	-11.6338
▁otrolig	-11.6343
metod	-11.6344
▁överge	-11.6346
▁head	-11.6348
▁Lös	-11.6351
▁kriterierna	-11.6351
”-	-11.6351
ico	-11.6351
▁Ay	-11.6352
▁medium	-11.6353
cus	-11.6354
▁Plats	-11.6355
bbar	-11.6355
▁Ton	-11.6357
förbrukning	-11.636
▁tillämpligt	-11.6361
ppen	-11.6366
▁bostadsområde	-11.6366
▁flyttas	-11.6366
enter	-11.6367
▁ingredienserna	-11.6368
DC	-11.637
▁Wal	-11.6372
tek	-11.6374
▁Julia	-11.6376
▁samhällelig	-11.6376
▁3,5	-11.6377
▁stjärnan	-11.6378
RT	-11.6378
▁lärarna	-11.638
▁SO	-11.6383
▁Opti	-11.639
strand	-11.639
▁stött	-11.6391
▁Ze	-11.6396
▁tilldelade	-11.6397
erfarenhet	-11.6399
▁terapeut	-11.64
▁FA	-11.64
Di	-11.6401
▁tillverkningen	-11.6402
▁Last	-11.6403
▁undvik	-11.6403
▁Kill	-11.6403
pression	-11.6404
▁Tysklands	-11.6407
vilket	-11.6407
▁laddas	-11.6407
▁Coll	-11.6407
▁uppnår	-11.641
DR	-11.6414
sexuell	-11.6414
▁återspegla	-11.6415
▁träningen	-11.6416
AA	-11.6416
kål	-11.6416
▁Gun	-11.6417
varu	-11.6419
▁Golden	-11.6419
▁Place	-11.642
▁Cam	-11.642
▁bloggare	-11.6422
▁Universitet	-11.6424
▁Metro	-11.6426
▁tillit	-11.6428
kulturen	-11.6429
▁Stan	-11.643
▁protester	-11.643
▁utrustningen	-11.643
HI	-11.6435
▁checka	-11.6436
▁skr	-11.6437
▁92	-11.6438
2018	-11.6438
fekt	-11.6438
▁hygien	-11.6442
▁Adventure	-11.6443
▁Definition	-11.6443
▁Limited	-11.6443
▁Vädret	-11.6443
▁gyllene	-11.6443
▁implementering	-11.6443
▁pussel	-11.6443
▁sannerligen	-11.6443
▁Cypern	-11.6443
▁Hongkong	-11.6443
▁IKEA	-11.6443
▁PlayStation	-11.6443
▁önskningar	-11.6443
▁iallafall	-11.6443
▁räcka	-11.6443
▁fastställer	-11.6443
▁frälst	-11.6443
▁Cambridge	-11.6443
▁förmögenhet	-11.6443
▁Palace	-11.6443
▁Ljud	-11.6443
▁Gustav	-11.6443
▁poesi	-11.6443
▁författarna	-11.6444
▁förföljelse	-11.6444
▁överväldigande	-11.6444
serier	-11.6444
▁telefonsamtal	-11.6444
▁Nobel	-11.6444
▁Titel	-11.6445
▁blond	-11.6445
brand	-11.6445
▁skrivs	-11.6445
▁Kommunikation	-11.6446
▁Kenya	-11.6446
▁rehabilitering	-11.6446
▁Energy	-11.6447
▁produktiv	-11.6447
unch	-11.6448
▁backup	-11.6448
▁snurra	-11.6448
▁mjukvaru	-11.6448
▁uppfinning	-11.6449
9/	-11.645
▁beviljats	-11.645
▁deltagit	-11.6451
▁intervention	-11.6451
▁explosion	-11.6451
▁plasma	-11.6452
▁glukos	-11.6453
▁propaganda	-11.6453
▁Tony	-11.6454
▁oljor	-11.6455
▁löv	-11.6457
▁AR	-11.6457
▁ego	-11.6457
BE	-11.6458
▁pi	-11.6459
4%	-11.646
▁räntor	-11.6462
▁vittnar	-11.6462
▁mötesplats	-11.6463
▁sårbarhet	-11.6463
▁materiel	-11.6465
▁Garden	-11.6467
klubb	-11.6467
▁psykologisk	-11.6467
▁betraktar	-11.6469
▁tydligare	-11.647
▁serveras	-11.6471
▁förhands	-11.6471
▁specialisera	-11.6472
▁smält	-11.6473
▁Verkligen	-11.6473
wn	-11.6474
▁etniska	-11.6474
▁uppmanade	-11.6475
hållning	-11.6477
▁beställt	-11.6477
▁life	-11.6477
▁framme	-11.6477
▁planerad	-11.6478
▁Fire	-11.648
▁Skydda	-11.648
▁vitaminer	-11.648
▁införandet	-11.648
▁misslyckats	-11.6481
▁avvikelser	-11.6482
▁utrikesminister	-11.6482
Un	-11.6483
▁Planet	-11.6483
▁skjuter	-11.6484
▁designade	-11.6485
.[1]	-11.6485
▁läro	-11.6485
▁Gö	-11.6487
▁hastigheten	-11.6487
patienter	-11.6489
diet	-11.6489
stin	-11.649
▁älskat	-11.6491
rian	-11.6493
HE	-11.6497
FI	-11.65
vän	-11.65
tekniker	-11.65
▁AA	-11.6501
▁annonsering	-11.6502
▁observation	-11.6503
fors	-11.6504
▁presenterades	-11.6504
▁räntan	-11.6504
▁Shop	-11.6507
▁motiverade	-11.6508
▁ärendet	-11.6508
positionen	-11.6508
skäl	-11.6508
fly	-11.6509
▁befinna	-11.651
▁blyg	-11.6511
▁stunden	-11.6515
▁kollektiva	-11.6515
▁varu	-11.6516
▁glädjen	-11.6517
lager	-11.6519
▁läsk	-11.6521
▁järnväg	-11.6524
▁rost	-11.6527
sinstitut	-11.653
tillverkning	-11.6532
▁Synd	-11.6533
tagit	-11.6533
rem	-11.6533
▁stick	-11.6534
▁tjänade	-11.6535
▁Allting	-11.654
kedja	-11.6541
▁Mario	-11.6543
▁Maj	-11.6546
▁Ch	-11.6549
känslig	-11.655
▁undervisar	-11.6551
▁talan	-11.6552
▁Beck	-11.6553
▁Ah	-11.6553
reform	-11.6556
▁hemligt	-11.6559
▁ansvarsfull	-11.6559
▁cent	-11.6561
▁Thor	-11.6564
▁indikatorer	-11.6568
batteri	-11.6568
definiera	-11.6568
nyckel	-11.6568
leverans	-11.6569
▁revidera	-11.657
▁hållbarhets	-11.657
▁ros	-11.657
▁bönen	-11.6572
▁Nordisk	-11.6573
▁upphäva	-11.6574
sty	-11.6574
▁korten	-11.6575
▁stränga	-11.6576
▁förpackning	-11.6576
titel	-11.6576
sajter	-11.6578
▁påvisa	-11.6578
▁redovisas	-11.6578
▁organismer	-11.6581
ssar	-11.6581
▁Region	-11.6583
▁Föräldrar	-11.6584
▁häll	-11.6584
▁Kraft	-11.6589
marker	-11.6589
▁användarvänlig	-11.659
▁Kungen	-11.6591
▁volymen	-11.6592
▁skaka	-11.6592
uz	-11.6594
▁350	-11.6595
▁galax	-11.6595
▁säljas	-11.6596
▁Nation	-11.6597
▁underlag	-11.66
förslag	-11.6601
▁Band	-11.6602
▁tillförlitliga	-11.6603
▁Bulgarien	-11.6604
▁Executive	-11.6604
▁Financial	-11.6604
▁Liverpool	-11.6604
▁Mexico	-11.6604
▁Skandinavien	-11.6604
▁bedrivs	-11.6604
▁garderob	-11.6604
▁näringsidkare	-11.6604
▁Björn	-11.6604
qvist	-11.6605
▁greps	-11.6605
▁Harvard	-11.6605
▁sabbat	-11.6605
▁naglar	-11.6605
▁stöld	-11.6605
▁överväger	-11.6605
▁ikoniska	-11.6605
▁explodera	-11.6605
▁höft	-11.6605
▁1971	-11.6605
▁Fakta	-11.6605
plast	-11.6605
▁basket	-11.6605
▁HÄR	-11.6606
▁Kaffe	-11.6606
▁badrummet	-11.6607
myndighet	-11.6607
▁vardagliga	-11.6607
Con	-11.6608
▁kick	-11.6608
▁farmor	-11.6608
▁vågor	-11.6609
▁medalj	-11.6611
▁beskattning	-11.6611
paketet	-11.6612
▁Log	-11.6612
▁navigering	-11.6613
▁textil	-11.6613
▁Kra	-11.6614
▁visserligen	-11.6615
▁vidtagit	-11.6615
▁lokalbefolkning	-11.6616
▁arkitektonisk	-11.6616
olo	-11.6618
▁längtan	-11.6618
▁Ryska	-11.6622
▁våldsamma	-11.6623
▁jämna	-11.6624
Mi	-11.6629
▁budgeten	-11.663
▁varmare	-11.663
▁fyllde	-11.663
▁smartare	-11.663
▁gam	-11.6631
▁stel	-11.6633
▁fusion	-11.6634
▁relaterad	-11.6634
▁moraliskt	-11.6636
ij	-11.6637
▁passagerar	-11.6638
▁bö	-11.6639
▁insatsen	-11.664
▁djävulen	-11.664
▁utsätta	-11.6641
▁grupperna	-11.6642
▁tidskriften	-11.6642
▁vingar	-11.6643
body	-11.6643
▁inspirerar	-11.6643
hä	-11.6645
▁ABB	-11.6645
lust	-11.6645
▁sköna	-11.6646
▁kommenterar	-11.6647
▁PRO	-11.6647
mini	-11.6647
▁fullkomligt	-11.665
▁noterar	-11.6652
▁delning	-11.6653
▁stränderna	-11.6654
▁progressiva	-11.6654
▁mekanism	-11.6654
▁givande	-11.6658
▁sär	-11.6665
front	-11.6667
▁Resan	-11.6668
hag	-11.6669
▁provinsen	-11.6669
▁Ing	-11.667
volym	-11.6671
▁sticka	-11.6671
▁potentialen	-11.6671
sfri	-11.6672
lingar	-11.6674
▁utbudet	-11.6676
▁pressen	-11.6678
▁revisor	-11.6678
▁besökarna	-11.668
▁utformningen	-11.668
▁varifrån	-11.6682
hundra	-11.6684
▁Read	-11.6687
parten	-11.6688
▁option	-11.6689
3%	-11.669
▁ondska	-11.669
▁överträdelse	-11.669
▁börda	-11.6692
▁kemisk	-11.6692
▁regisserad	-11.6694
termin	-11.6697
▁Jobb	-11.6698
▁tuffa	-11.6699
▁kasinot	-11.6701
avfall	-11.6703
rey	-11.6705
▁processor	-11.6705
▁inflation	-11.6707
2017	-11.6708
xx	-11.671
▁träff	-11.6712
3/	-11.6714
▁flest	-11.6717
▁tveka	-11.6718
▁regeln	-11.672
▁CS	-11.6725
ENT	-11.6725
▁överraska	-11.6729
salong	-11.6729
▁poängen	-11.6729
PL	-11.6731
▁smutsiga	-11.6731
▁blandas	-11.6731
karaktär	-11.6732
rutin	-11.6734
filter	-11.6737
▁broar	-11.6737
igenom	-11.6741
▁studerat	-11.6741
▁inblandad	-11.6745
▁försvarar	-11.6747
▁trenden	-11.6748
▁överstiga	-11.6748
▁tandläkare	-11.6749
ante	-11.6751
tävling	-11.6756
▁fångade	-11.6757
▁klinik	-11.6758
lm	-11.6759
▁miste	-11.6759
▁experimentera	-11.6759
▁hå	-11.676
▁konferenser	-11.6762
▁kanten	-11.6764
▁identifierade	-11.6764
▁beskriv	-11.6765
▁blockerar	-11.6768
▁vardags	-11.6768
▁Kompositör	-11.6768
▁behövt	-11.6768
▁missförstånd	-11.6768
▁parfym	-11.6768
▁tortyr	-11.6768
▁uppsägning	-11.6768
▁förefaller	-11.6768
▁prestigefyllda	-11.6768
▁DE	-11.6769
▁midnatt	-11.6769
▁specificera	-11.6769
▁enstaka	-11.6769
▁Oxford	-11.6769
▁förvärvat	-11.6769
▁besparingar	-11.6769
▁koncernchef	-11.6769
▁Viktigt	-11.677
▁hälsoproblem	-11.6771
▁väska	-11.6772
▁inloggning	-11.6773
▁klassrum	-11.6773
▁HR	-11.6774
▁dataskydd	-11.6775
▁science	-11.6775
▁nervsystemet	-11.6775
▁Party	-11.6775
▁community	-11.6776
▁Eld	-11.6776
▁eftersträva	-11.6776
▁gestalt	-11.6777
▁Finans	-11.6777
▁hypotes	-11.6778
▁överblick	-11.6778
▁arbetslivet	-11.6779
glar	-11.678
Or	-11.6781
▁hockey	-11.6781
▁kompletta	-11.6781
▁kryssning	-11.6781
▁Cash	-11.6783
▁uppkommer	-11.6784
▁marknaderna	-11.6784
▁legendariska	-11.6785
▁Karin	-11.6786
▁Institutionen	-11.6787
poster	-11.6788
▁myt	-11.6789
▁skriker	-11.6789
▁tunnel	-11.6791
▁enkelhet	-11.6794
▁Produkt	-11.6794
▁Bit	-11.6794
▁tropiska	-11.6795
▁synas	-11.6796
▁Gui	-11.68
▁befogenhet	-11.6802
▁accepterat	-11.6805
▁sticker	-11.6805
▁klassificera	-11.6806
▁resande	-11.6807
▁störning	-11.6808
▁känslomässigt	-11.6809
insats	-11.6809
▁Handels	-11.6811
▁konsol	-11.6811
▁lanseringen	-11.6812
▁uppmuntras	-11.6812
▁Order	-11.6813
▁Well	-11.6815
UL	-11.6816
▁stjäl	-11.6821
▁Framtiden	-11.6821
▁vidtar	-11.6822
▁svaren	-11.6824
▁påstå	-11.6826
▁föreläsning	-11.6826
NING	-11.6828
▁minuten	-11.6828
▁Skriften	-11.6829
▁Grön	-11.683
expert	-11.6832
▁kontrollerade	-11.6832
▁tvivlar	-11.6836
▁terapeutisk	-11.6836
▁stadier	-11.6837
▁fåglarna	-11.6838
▁automatiska	-11.6841
▁ml	-11.6841
▁djupet	-11.6842
▁synligt	-11.6845
medborgare	-11.6846
▁CC	-11.6847
▁därpå	-11.6849
▁kollade	-11.685
▁studenten	-11.6851
▁skapandet	-11.6851
▁fuktig	-11.6851
▁hoppade	-11.6851
.«	-11.6853
▁förmoda	-11.6855
SK	-11.6857
▁övergångs	-11.6857
gjorda	-11.6857
▁Minska	-11.6859
▁vården	-11.6861
▁utförde	-11.6867
▁Person	-11.6868
telefon	-11.6868
Go	-11.687
▁grunder	-11.687
▁statistiken	-11.6871
▁Rand	-11.6877
▁buk	-11.6878
▁återuppta	-11.688
▁aktiviteten	-11.6882
▁Salt	-11.6883
▁3000	-11.6883
▁Gas	-11.6885
▁verksam	-11.6886
pad	-11.6887
▁fånge	-11.6888
▁redovisa	-11.6889
▁GT	-11.6892
[...]
