<unk>	0
<s>	0
</s>	0
.	-3.59395
s	-3.86705
▁och	-3.97398
▁att	-4.00828
a	-4.23772
▁en	-4.24541
▁i	-4.25379
▁är	-4.26981
t	-4.34415
▁.	-4.40491
▁för	-4.41778
▁som	-4.48386
▁av	-4.48539
▁,	-4.58913
,	-4.61358
en	-4.62913
▁på	-4.75785
▁det	-4.79948
er	-4.87311
▁till	-4.88325
r	-4.90838
▁med	-4.96159
▁har	-5.14435
▁s	-5.15777
▁inte	-5.15897
▁de	-5.17698
▁den	-5.18533
n	-5.21182
▁om	-5.27703
▁du	-5.2985
▁ett	-5.36959
▁kan	-5.41837
▁	-5.4322
▁jag	-5.5471
e	-5.69219
▁Det	-5.70505
▁eller	-5.70788
na	-5.70985
ar	-5.76789
d	-5.78247
et	-5.79331
▁vi	-5.83523
▁från	-5.84337
▁var	-5.86998
-	-5.87591
▁-	-5.88042
de	-5.88845
▁?	-5.95276
▁(	-5.95616
▁så	-5.98385
▁"	-6.03338
▁kommer	-6.08841
▁Jag	-6.14029
▁”	-6.23111
▁:	-6.30217
▁I	-6.3241
▁vara	-6.32525
▁sig	-6.32861
▁man	-6.33413
▁ska	-6.38238
▁dig	-6.43077
▁han	-6.47214
▁när	-6.47482
▁alla	-6.48452
▁Vi	-6.49504
▁här	-6.50799
▁ut	-6.52512
▁men	-6.54166
▁över	-6.54561
▁in	-6.54735
▁!	-6.576
▁upp	-6.57839
▁också	-6.57873
y	-6.58168
▁Den	-6.59435
▁finns	-6.59897
▁andra	-6.60422
:	-6.61881
▁din	-6.62933
ning	-6.63527
▁mer	-6.63897
)	-6.63984
▁De	-6.66619
▁under	-6.6712
▁mig	-6.68109
▁–	-6.68497
▁än	-6.70003
▁ha	-6.70463
?	-6.7125
▁detta	-6.72108
▁där	-6.72361
▁er	-6.72431
▁år	-6.73796
▁bara	-6.74455
k	-6.75042
m	-6.75357
▁mycket	-6.75981
re	-6.7696
▁vill	-6.79231
▁t	-6.80106
▁En	-6.80536
▁göra	-6.81356
▁vad	-6.8144
▁dem	-6.83241
▁För	-6.83859
nde	-6.83934
▁sin	-6.84391
▁S	-6.85204
o	-6.87045
an	-6.87051
▁Men	-6.87454
▁efter	-6.90141
▁genom	-6.92472
▁hur	-6.92762
▁gör	-6.92807
▁...	-6.94378
g	-6.95264
▁oss	-6.95267
▁Du	-6.9548
▁Om	-6.9632
▁denna	-6.97026
▁)	-6.97612
or	-6.97671
▁se	-6.97761
in	-6.98388
▁skulle	-6.98713
▁få	-7.0071
▁vid	-7.00726
▁A	-7.0125
▁a	-7.04516
▁nu	-7.06312
▁ta	-7.06705
▁även	-7.07851
▁mot	-7.08014
▁min	-7.08339
▁måste	-7.09944
▁många	-7.10347
▁Och	-7.10435
erna	-7.11019
▁får	-7.11605
p	-7.11741
▁e	-7.12139
▁hade	-7.12184
ande	-7.12935
ing	-7.13117
▁något	-7.13968
▁bra	-7.14588
▁någon	-7.15559
it	-7.16118
▁första	-7.17699
▁C	-7.18599
l	-7.20022
▁dessa	-7.20053
▁B	-7.21767
▁Han	-7.22529
▁två	-7.23345
i	-7.241
▁sätt	-7.24964
da	-7.25353
▁inom	-7.26699
▁E	-7.26972
▁o	-7.27524
▁sina	-7.2883
▁hon	-7.2935
▁allt	-7.29756
▁utan	-7.29876
!	-7.30149
▁del	-7.30527
▁Detta	-7.30674
▁När	-7.30802
▁tid	-7.30844
▁ni	-7.31188
▁då	-7.3198
are	-7.32126
al	-7.33358
▁K	-7.33801
▁M	-7.34101
▁bli	-7.34584
▁nya	-7.34899
▁Hur	-7.35192
▁na	-7.35976
▁människor	-7.36657
▁mellan	-7.38348
▁Vad	-7.38401
▁barn	-7.38559
▁ditt	-7.39363
ade	-7.40291
▁vår	-7.40338
▁behöver	-7.40391
▁olika	-7.41683
h	-7.4173
▁F	-7.42192
▁våra	-7.42573
te	-7.43145
v	-7.43292
▁hela	-7.4345
▁säger	-7.45427
▁själv	-7.45779
▁sedan	-7.46139
▁några	-7.47343
▁deras	-7.4775
at	-7.48159
▁varje	-7.48413
▁dag	-7.48754
▁T	-7.48817
▁dina	-7.49063
het	-7.49666
▁n	-7.50341
▁rätt	-7.50839
ad	-7.5207
f	-7.52158
on	-7.53192
▁blir	-7.53421
▁G	-7.53784
▁P	-7.56071
▁skall	-7.56795
▁vet	-7.57644
▁O	-7.58988
ck	-7.59042
▁honom	-7.59232
▁samma	-7.59593
▁alltid	-7.61355
▁5	-7.62835
▁sitt	-7.6299
el	-7.63086
arna	-7.63437
▁/	-7.64435
▁liv	-7.64593
c	-7.64689
▁information	-7.65034
▁går	-7.65158
▁ge	-7.6585
▁världen	-7.65948
b	-7.6596
för	-7.66558
▁be	-7.67254
ig	-7.67276
ra	-7.68031
▁Att	-7.68254
▁helt	-7.68555
▁1	-7.69979
▁använda	-7.70293
▁Så	-7.70786
▁ger	-7.71057
▁ny	-7.71374
▁bör	-7.71629
la	-7.71674
▁kunna	-7.72371
▁vilket	-7.7263
▁varit	-7.72799
▁gå	-7.72853
j	-7.72991
A	-7.74016
▁r	-7.74667
▁företag	-7.74811
S	-7.75129
▁fram	-7.75207
▁hans	-7.75274
▁;	-7.75367
▁stor	-7.75629
▁R	-7.75632
▁ingen	-7.76149
▁ser	-7.76449
▁ar	-7.7649
▁L	-7.77305
▁Med	-7.78128
▁bästa	-7.78256
▁d	-7.78694
▁mest	-7.7912
▁bättre	-7.79145
▁D	-7.79502
▁lite	-7.79575
ma	-7.79839
▁gång	-7.81042
2	-7.81696
ation	-7.8191
▁annan	-7.82402
▁an	-7.82645
us	-7.83216
C	-7.83609
▁grund	-7.83636
1	-7.83729
▁Har	-7.84268
▁hos	-7.84576
▁annat	-7.84581
▁Var	-7.85121
▁mitt	-7.8528
sk	-7.85665
▁2	-7.8567
▁tre	-7.85897
▁10	-7.86051
▁).	-7.86091
▁aldrig	-7.86878
x	-7.87682
▁tar	-7.87704
▁H	-7.88171
▁fall	-7.88419
▁dess	-7.88569
/	-7.88866
▁komma	-7.891
iska	-7.89129
▁k	-7.89514
E	-7.90101
M	-7.90382
▁hitta	-7.90628
▁ju	-7.90685
era	-7.91082
u	-7.91196
▁hem	-7.91356
▁kom	-7.92842
▁g	-7.92859
▁eftersom	-7.9299
ä	-7.93114
är	-7.93205
▁flera	-7.93302
▁stora	-7.93315
▁Gud	-7.93877
▁3	-7.94386
▁blev	-7.94435
I	-7.94436
▁spel	-7.94797
▁bort	-7.95165
▁Ett	-7.95292
▁På	-7.9534
ering	-7.96083
▁samt	-7.96423
ör	-7.96495
▁re	-7.96798
▁hjälp	-7.96976
kt	-7.97084
le	-7.97123
D	-7.98443
▁of	-7.98929
T	-7.99036
▁enligt	-7.99052
▁tror	-7.99258
▁väl	-7.99332
3	-7.99332
il	-7.99483
▁innan	-7.99512
▁verkligen	-7.99542
▁tillbaka	-8.0002
▁7	-8.00846
▁gäller	-8.00904
ce	-8.01289
▁6	-8.01847
ol	-8.01861
▁problem	-8.01891
▁p	-8.02048
lig	-8.02654
▁fick	-8.02844
ska	-8.03263
▁Är	-8.0327
es	-8.03714
▁“	-8.04074
▁Hon	-8.04217
om	-8.04467
um	-8.04869
ka	-8.04903
▁Där	-8.0495
▁mål	-8.04957
4	-8.05052
▁f	-8.06254
å	-8.06388
▁saker	-8.06839
▁åt	-8.06973
▁Alla	-8.07177
P	-8.07824
▁kunde	-8.07854
ion	-8.07889
▁kanske	-8.08462
ö	-8.08673
▁ofta	-8.09184
z	-8.09249
▁Som	-8.09429
▁N	-8.09553
R	-8.0985
5	-8.10364
▁produkter	-8.10398
▁plats	-8.10583
▁8	-8.10726
▁personer	-8.1089
ed	-8.11149
▁både	-8.11537
▁igen	-8.11723
isk	-8.11991
▁ner	-8.12255
vis	-8.12471
▁använder	-8.12522
▁4	-8.12657
▁säga	-8.12937
ut	-8.13077
▁Nu	-8.13344
▁exempel	-8.13652
▁bland	-8.139
▁skapa	-8.1492
▁USA	-8.15457
▁dock	-8.15469
▁system	-8.15564
▁Här	-8.15684
ligger	-8.15757
▁redan	-8.1576
▁gjort	-8.15833
ur	-8.16261
▁mat	-8.16819
ne	-8.17142
▁EU	-8.17204
▁idag	-8.17318
▁land	-8.1742
▁tiden	-8.17508
O	-8.17654
▁Re	-8.17762
6	-8.17842
▁mindre	-8.179
liga	-8.17957
▁fortfarande	-8.18162
▁vatten	-8.18326
is	-8.18406
▁tidigare	-8.18487
ik	-8.18549
B	-8.18661
L	-8.18912
▁tillsammans	-8.19358
▁mina	-8.19494
▁Varför	-8.19737
▁endast	-8.19903
ro	-8.20292
▁vissa	-8.20396
▁procent	-8.20457
pp	-8.20471
▁väldigt	-8.20496
▁W	-8.21005
▁Man	-8.21064
▁20	-8.21436
▁b	-8.21744
▁[	-8.22334
se	-8.2237
▁form	-8.22472
▁hand	-8.22822
"	-8.23589
▁arbete	-8.23822
▁pengar	-8.24349
▁U	-8.24521
▁Ja	-8.24835
▁folk	-8.24874
▁hjälpa	-8.24965
9	-8.25508
▁stå	-8.25607
▁Se	-8.25676
▁data	-8.2583
F	-8.25919
▁möjligt	-8.25963
▁längre	-8.26007
▁The	-8.26053
▁kort	-8.2625
0	-8.26536
va	-8.26944
▁ord	-8.27541
▁största	-8.27854
▁gjorde	-8.27865
id	-8.27893
ll	-8.27937
▁väg	-8.28233
8	-8.28265
▁artikel	-8.28435
iga	-8.2868
▁namn	-8.28709
ul	-8.29168
▁St	-8.29659
K	-8.29761
▁känner	-8.30052
▁stöd	-8.30107
▁dagar	-8.30128
▁Dess	-8.3027
ri	-8.30292
▁person	-8.30377
▁därför	-8.30672
li	-8.31089
7	-8.31128
des	-8.3113
ic	-8.31313
▁In	-8.31764
▁hålla	-8.3177
▁tjänster	-8.31963
▁enda	-8.31973
▁Under	-8.31987
▁kvinnor	-8.32025
▁slut	-8.32282
▁et	-8.32623
▁Be	-8.328
▁henne	-8.32932
▁innebär	-8.33453
▁ur	-8.33706
▁Kan	-8.34036
▁Till	-8.34104
je	-8.3442
▁egen	-8.34585
▁vårt	-8.34873
ia	-8.34903
▁används	-8.35176
▁and	-8.35483
▁bild	-8.35775
▁fel	-8.35784
▁fråga	-8.36508
▁9	-8.36953
▁c	-8.36991
▁visar	-8.37032
▁hög	-8.37177
▁V	-8.37266
mp	-8.37557
▁flesta	-8.37653
▁m	-8.37995
V	-8.38
▁viktigt	-8.38007
▁livet	-8.38379
▁runt	-8.384
▁energi	-8.39012
▁Vilk	-8.39156
w	-8.39759
▁större	-8.39776
▁fler	-8.39964
än	-8.40479
▁program	-8.40694
▁15	-8.4127
▁”.	-8.41789
G	-8.41804
▁typ	-8.41952
▁lätt	-8.42029
to	-8.42125
▁000	-8.42385
▁lika	-8.42485
ga	-8.42738
▁ännu	-8.42748
▁sa	-8.43261
▁börjar	-8.43652
▁Min	-8.43889
▁bil	-8.4391
▁per	-8.43977
▁all	-8.44285
iv	-8.44354
▁vilken	-8.44452
▁Inte	-8.44456
▁varför	-8.44553
▁J	-8.44571
▁åter	-8.44728
▁älskar	-8.44891
tal	-8.45022
N	-8.45184
▁senaste	-8.45425
▁beslut	-8.45442
ver	-8.45555
H	-8.45567
▁12	-8.45624
▁själva	-8.45861
ist	-8.45893
▁30	-8.46099
▁h	-8.46167
▁före	-8.46185
▁val	-8.46313
▁nära	-8.46636
▁inför	-8.46676
ke	-8.46909
▁dom	-8.4699
▁hennes	-8.47166
▁små	-8.47215
▁19	-8.47488
▁frågor	-8.47701
▁enkelt	-8.48049
lo	-8.48251
▁'	-8.48414
ex	-8.48499
im	-8.48772
▁direkt	-8.49338
ligt	-8.49559
▁&	-8.49636
▁nytt	-8.49673
”	-8.49702
▁spela	-8.4984
▁blivit	-8.49933
▁fått	-8.49947
ie	-8.49976
▁dagen	-8.49982
▁länder	-8.50072
ste	-8.50085
ry	-8.50284
▁tycker	-8.50294
ch	-8.50551
▁vilka	-8.51018
ti	-8.51048
▁nästan	-8.51118
▁lag	-8.51262
▁erbjuder	-8.51287
ningar	-8.51399
ng	-8.51453
▁Europa	-8.51628
▁just	-8.51777
else	-8.51882
▁inget	-8.52201
▁särskilt	-8.52482
os	-8.52541
▁Efter	-8.52632
lar	-8.52788
▁verksamhet	-8.53131
▁länge	-8.53224
ge	-8.53539
▁Ni	-8.53912
be	-8.53962
▁förbättra	-8.54093
▁fem	-8.54126
▁utveckling	-8.54147
▁senare	-8.54493
▁tro	-8.54566
▁par	-8.54677
▁Sverige	-8.54723
▁icke	-8.54987
▁bo	-8.55053
]	-8.55551
▁),	-8.55957
ton	-8.56295
▁betala	-8.56652
▁kvar	-8.56683
ism	-8.5674
▁året	-8.56804
▁musik	-8.57272
▁projekt	-8.5733
▁lära	-8.57364
▁miljoner	-8.57366
▁fyra	-8.57508
▁händer	-8.5761
▁sk	-8.57651
▁miljö	-8.5788
▁Ta	-8.57994
ja	-8.58275
▁tog	-8.58298
▁gånger	-8.58349
▁sex	-8.58422
ve	-8.58426
▁la	-8.58448
▁gick	-8.58617
talet	-8.58664
▁rum	-8.58679
▁Även	-8.5916
▁handlar	-8.59424
▁arbetar	-8.59518
itet	-8.60205
op	-8.60555
▁delar	-8.60958
sta	-8.61067
▁god	-8.61114
▁sade	-8.61176
▁faktiskt	-8.6153
▁började	-8.6157
▁veta	-8.62175
▁bok	-8.62296
▁välja	-8.62704
▁behov	-8.62735
▁lång	-8.62802
▁såg	-8.63026
▁roll	-8.63214
▁Le	-8.63352
▁Av	-8.63435
▁kr	-8.6347
▁först	-8.63484
▁köpa	-8.63502
▁11	-8.63676
ell	-8.63787
▁18	-8.63881
nd	-8.63881
ster	-8.64105
▁online	-8.6442
▁gången	-8.64601
▁minst	-8.64685
▁Då	-8.64697
▁jobb	-8.64772
▁dra	-8.64986
▁kunder	-8.65042
lä	-8.6526
▁hus	-8.65475
U	-8.65504
ld	-8.65664
▁".	-8.65717
▁åtgärder	-8.65788
▁fast	-8.66039
▁behandling	-8.66053
▁timmar	-8.66058
▁v	-8.66283
▁steg	-8.6632
▁vänner	-8.66323
▁erna	-8.66369
▁känna	-8.66877
▁djur	-8.66951
▁arbeta	-8.67108
▁stort	-8.6732
▁ca	-8.67488
▁arbets	-8.67715
▁sak	-8.67745
mo	-8.67747
▁egna	-8.67801
▁vän	-8.67892
▁män	-8.67939
▁båda	-8.67943
▁Allt	-8.68143
▁känd	-8.68265
▁resultat	-8.68297
▁varandra	-8.68349
▁sidan	-8.68449
▁håller	-8.68515
▁16	-8.68739
▁the	-8.68869
▁nästa	-8.68904
▁uppgifter	-8.68914
Jag	-8.69033
▁lär	-8.69133
▁Ro	-8.69191
▁personlig	-8.69226
▁emot	-8.69269
▁kontroll	-8.693
ir	-8.69313
tor	-8.69526
▁användning	-8.69714
co	-8.69851
▁alternativ	-8.70106
äck	-8.70347
▁An	-8.704
▁Mo	-8.70463
▁precis	-8.71078
▁snabbt	-8.71242
am	-8.71331
▁ned	-8.71345
ak	-8.71547
▁Mång	-8.71711
▁skicka	-8.71836
▁liten	-8.71842
me	-8.72055
▁inga	-8.72484
▁produkt	-8.72513
▁medan	-8.72614
▁svårt	-8.72618
▁huvud	-8.72934
▁Al	-8.7313
▁följande	-8.73298
▁områden	-8.73393
▁syn	-8.73463
▁sp	-8.73618
▁staden	-8.73841
▁teknik	-8.73877
▁material	-8.73967
ant	-8.74083
gg	-8.74105
ot	-8.74371
▁ansvar	-8.74602
▁Co	-8.74727
▁riktigt	-8.74759
▁marknaden	-8.74793
▁tredje	-8.74815
▁hjälper	-8.74885
▁13	-8.74911
▁sett	-8.75067
▁visa	-8.75243
▁ytterligare	-8.75315
▁innehåller	-8.75349
▁pris	-8.75514
▁död	-8.75749
▁tillgång	-8.75918
med	-8.75985
▁ändra	-8.76002
▁öka	-8.76011
▁al	-8.76037
▁film	-8.76505
▁fri	-8.76624
▁design	-8.76661
▁minuter	-8.76847
▁resa	-8.76905
▁Läs	-8.77052
ling	-8.77082
▁17	-8.77099
▁förstå	-8.77128
▁läsa	-8.77143
▁början	-8.77146
▁utbildning	-8.77172
▁möjlighet	-8.77203
▁bilder	-8.77446
▁.”	-8.77662
▁antal	-8.77668
▁New	-8.77912
▁långt	-8.77926
▁lämna	-8.78159
▁Bo	-8.78203
▁%	-8.78343
▁forskning	-8.7844
▁kärlek	-8.78442
▁el	-8.78649
▁nog	-8.78671
▁helst	-8.78712
▁inklusive	-8.78894
▁fungerar	-8.78958
▁sådan	-8.78992
▁sådana	-8.79091
▁färg	-8.7954
di	-8.79769
▁sista	-8.79907
▁området	-8.7997
▁borde	-8.80203
man	-8.80237
ligen	-8.80314
▁50	-8.80555
▁tur	-8.80591
▁14	-8.80678
%	-8.80901
▁minska	-8.81023
▁betyder	-8.81035
▁utveckla	-8.81106
▁via	-8.81107
▁ljus	-8.81385
▁gamla	-8.81536
▁far	-8.81555
▁flyg	-8.82049
▁Guds	-8.82178
▁familj	-8.82264
vi	-8.82417
▁öppna	-8.82507
▁nå	-8.82565
val	-8.82592
▁gillar	-8.82726
▁samtidigt	-8.83103
▁Ha	-8.83355
▁månader	-8.83497
un	-8.83581
▁skriva	-8.83773
▁börja	-8.83841
▁haft	-8.84056
▁historia	-8.84277
▁Jo	-8.84279
land	-8.84375
é	-8.84522
▁nivå	-8.84634
▁Y	-8.84736
▁•	-8.84787
est	-8.84823
▁internationella	-8.8525
▁landet	-8.85265
son	-8.85284
▁full	-8.85378
igt	-8.85616
▁Ut	-8.85661
▁Vill	-8.8581
▁bor	-8.85903
▁lägga	-8.86126
▁pa	-8.86185
▁Ra	-8.86312
▁vem	-8.86532
bar	-8.86604
▁svar	-8.86676
▁l	-8.86677
▁vilja	-8.87023
▁verkar	-8.87122
▁språk	-8.87129
▁ka	-8.87169
▁världens	-8.87499
▁kraft	-8.87602
▁kunskap	-8.87697
▁grupp	-8.8773
▁verktyg	-8.87741
▁högre	-8.87996
▁å	-8.88083
▁vanligt	-8.8813
▁risk	-8.88134
▁framför	-8.88299
▁Elle	-8.88422
▁någonsin	-8.88782
ni	-8.88834
rätt	-8.88836
▁hemma	-8.8889
▁användas	-8.89031
gen	-8.89067
▁»	-8.89218
▁25	-8.89309
ord	-8.89391
▁hälsa	-8.89391
min	-8.89472
▁ganska	-8.89498
der	-8.89561
▁spelare	-8.89633
▁Jesus	-8.89783
▁Sa	-8.89817
▁enlighet	-8.89877
▁syfte	-8.89926
▁fanns	-8.90062
▁sida	-8.90482
▁tänka	-8.90533
▁värld	-8.90557
▁het	-8.90936
ment	-8.90955
▁Di	-8.91061
▁”,	-8.91231
pe	-8.91254
▁vidare	-8.91275
▁skydda	-8.91302
▁såsom	-8.91379
▁Seda	-8.91775
▁kultur	-8.91778
ha	-8.92052
▁punkt	-8.92106
▁sociala	-8.92278
ator	-8.92472
00	-8.9253
ci	-8.92547
stående	-8.92636
▁tala	-8.9271
▁bygga	-8.92797
▁värde	-8.9297
▁regler	-8.93017
▁låg	-8.93135
th	-8.93223
tan	-8.93338
▁alltså	-8.93386
▁kallas	-8.93417
▁Låt	-8.93764
go	-8.94109
▁vägen	-8.94134
▁Lo	-8.9417
▁titta	-8.9441
▁äta	-8.94413
▁rättigheter	-8.94511
▁skada	-8.94563
ff	-8.94843
▁’	-8.94853
▁100	-8.94863
▁le	-8.9493
▁ville	-8.94989
▁kräver	-8.95063
▁område	-8.95213
▁Na	-8.9547
▁plan	-8.95564
▁framtid	-8.95642
▁te	-8.95746
▁Z	-8.95825
▁rör	-8.95845
▁besök	-8.95855
▁Genom	-8.95922
ft	-8.96064
▁följa	-8.96078
io	-8.96091
▁lever	-8.96193
▁orsaka	-8.96251
▁systemet	-8.96265
▁säkerhets	-8.96299
▁kroppen	-8.96508
▁y	-8.96544
▁utanför	-8.96637
▁spelar	-8.96653
▁krav	-8.96954
▁ibland	-8.96964
do	-8.96998
▁Ar	-8.97036
▁krävs	-8.97155
▁webbplats	-8.97168
ven	-8.97209
▁kontakt	-8.97242
ru	-8.97264
und	-8.9728
▁heller	-8.9747
▁tillräckligt	-8.97536
▁Li	-8.97619
▁X	-8.97738
Det	-8.97869
▁0	-8.97904
br	-8.98159
▁behandla	-8.98393
▁",	-8.98524
▁försöker	-8.98544
ick	-8.9871
mma	-8.98766
bi	-8.98812
▁säker	-8.99223
tro	-8.9926
ty	-8.99263
▁Me	-8.9929
▁jorden	-8.99435
▁råd	-8.99515
pa	-8.99529
▁stad	-8.99533
▁dela	-8.99569
▁Vem	-8.99731
▁användare	-8.99813
▁ing	-9.00264
▁mamma	-9.00387
▁sagt	-9.00487
▁for	-9.00825
▁leva	-9.00995
ly	-9.01041
▁typer	-9.01129
▁tillstånd	-9.01413
▁extra	-9.01488
▁ja	-9.01489
▁hel	-9.0155
▁ändå	-9.01709
▁*	-9.01858
si	-9.01873
▁kontrollera	-9.02042
▁."	-9.02058
▁säkerhet	-9.02129
▁ton	-9.02476
▁innehåll	-9.0249
▁va	-9.02513
▁prata	-9.02553
▁Dessutom	-9.02699
▁vecka	-9.02757
ek	-9.02904
▁slutet	-9.02998
▁klass	-9.03322
▁Din	-9.03718
▁bidra	-9.0378
▁kommit	-9.03802
▁fortsätta	-9.03811
▁viktig	-9.0383
▁platser	-9.03918
lag	-9.03949
skap	-9.03967
hi	-9.04006
▁Kina	-9.04039
▁skriver	-9.04045
▁fl	-9.04287
pi	-9.04502
▁son	-9.04548
▁kommissionen	-9.04671
▁amerikanska	-9.04688
▁fortsätter	-9.0474
▁Från	-9.0474
isera	-9.04766
▁Ingen	-9.04847
▁intresse	-9.04871
▁Vid	-9.04994
▁or	-9.05104
▁snart	-9.05262
▁Google	-9.05364
▁kl	-9.05507
▁bäst	-9.05612
▁träd	-9.05613
▁ihåg	-9.05677
▁veckor	-9.05744
▁läkare	-9.0575
▁erfarenhet	-9.05765
tion	-9.05959
▁tagit	-9.0609
▁åren	-9.06097
▁tag	-9.06273
▁beroende	-9.06311
var	-9.06456
sätt	-9.06609
▁hantera	-9.06697
▁tänker	-9.06797
▁skydd	-9.06812
▁post	-9.06935
bo	-9.07042
sam	-9.07158
▁pro	-9.07272
år	-9.07555
eri	-9.07595
▁Mar	-9.07621
od	-9.07677
▁uppnå	-9.07678
▁gratis	-9.07899
gi	-9.0795
▁video	-9.07956
liv	-9.07971
▁Ne	-9.08098
▁avtal	-9.08592
▁Sp	-9.08627
by	-9.08627
▁rad	-9.08653
▁24	-9.08709
▁företaget	-9.08795
del	-9.08832
▁konst	-9.08948
▁lokal	-9.09051
▁gav	-9.09198
▁viktiga	-9.09274
▁40	-9.09536
ger	-9.0959
▁tryck	-9.09615
▁års	-9.09672
▁eget	-9.09958
▁frågan	-9.09987
▁kvinna	-9.1007
gar	-9.10091
▁Tack	-9.10151
ow	-9.10246
▁gammal	-9.10282
▁förordning	-9.10351
kar	-9.10519
ag	-9.10614
▁La	-9.10679
åt	-9.10768
▁on	-9.10809
▁halv	-9.10939
▁vinna	-9.10983
men	-9.11032
▁månad	-9.11056
▁lösningar	-9.11309
age	-9.11322
▁hör	-9.11356
▁ro	-9.11627
▁Mer	-9.11663
▁kör	-9.11681
▁ute	-9.11703
▁hoppas	-9.1176
▁samman	-9.11852
▁tio	-9.1186
▁nde	-9.12011
tag	-9.1207
▁vin	-9.12108
▁vänta	-9.12524
ab	-9.12543
▁Pro	-9.12687
dom	-9.12846
sättning	-9.1288
▁ekonomiska	-9.13197
▁kvalitet	-9.13227
▁nätverk	-9.13321
ill	-9.13326
ring	-9.13429
▁to	-9.13463
▁villkor	-9.13568
ca	-9.1359
▁Hel	-9.13634
▁medel	-9.13716
▁väljer	-9.13735
ud	-9.13964
▁bakom	-9.13985
▁aktiv	-9.13991
▁slag	-9.14035
no	-9.14345
▁Te	-9.14432
▁samarbete	-9.14505
▁producera	-9.14535
▁verk	-9.14586
▁veckan	-9.14686
ko	-9.14816
▁berätta	-9.14893
▁framtiden	-9.14908
▁Viss	-9.1491
▁följer	-9.14947
mi	-9.15051
▁viss	-9.15062
▁låter	-9.15125
▁bar	-9.15136
värd	-9.15271
▁Europeiska	-9.15344
eller	-9.15381
▁döda	-9.15402
▁Si	-9.15473
▁säkert	-9.15703
äll	-9.15869
po	-9.15872
W	-9.1595
▁behövs	-9.16149
▁läkemedel	-9.16265
up	-9.16366
▁service	-9.16382
▁No	-9.16418
▁egentligen	-9.16467
▁funktioner	-9.16484
isering	-9.1655
▁Kom	-9.16611
▁vård	-9.16632
▁kul	-9.16634
▁gått	-9.16677
spel	-9.16739
▁hotell	-9.16789
ho	-9.16861
▁tack	-9.16919
▁kropp	-9.17142
ök	-9.17183
▁ögon	-9.17294
▁förhållande	-9.1737
▁ning	-9.17397
▁Tänk	-9.17554
▁ålder	-9.1784
▁kon	-9.17961
ön	-9.1797
▁möte	-9.18045
▁skolan	-9.1812
▁behöva	-9.18145
▁skapar	-9.18485
'	-9.18523
▁studie	-9.18525
▁möjligheter	-9.18583
▁istället	-9.18642
▁perfekt	-9.18733
ard	-9.19047
▁studier	-9.19129
▁Idag	-9.19243
tid	-9.19244
▁rädda	-9.19271
▁äldre	-9.19337
▁makt	-9.19359
▁Över	-9.19374
▁Ca	-9.19399
▁röst	-9.19521
öv	-9.19644
ken	-9.19673
▁leda	-9.19753
▁nationella	-9.19833
bart	-9.20124
▁leverera	-9.20169
▁test	-9.20259
▁konto	-9.20299
▁utgör	-9.20314
▁]	-9.20403
bb	-9.20464
▁favorit	-9.20544
▁liknande	-9.20577
▁tillgängliga	-9.20605
▁goda	-9.20614
▁brott	-9.2064
▁era	-9.2079
▁patienter	-9.20869
▁gott	-9.20923
▁finnas	-9.20976
▁tjänst	-9.21046
▁president	-9.21153
▁gärn	-9.21206
▁ex	-9.21375
▁marknads	-9.21397
▁grupper	-9.2142
▁ifrån	-9.21434
orna	-9.21737
tter	-9.21745
▁trots	-9.2207
▁samhället	-9.22119
▁bl	-9.22144
▁svenska	-9.22243
▁lösa	-9.22252
▁Gu	-9.22281
▁standard	-9.22437
▁kund	-9.22528
▁blod	-9.22579
▁tal	-9.22588
▁To	-9.22709
bu	-9.22853
▁närheten	-9.22887
▁förstår	-9.22948
ki	-9.22979
▁låt	-9.23062
▁skillnad	-9.23127
▁politiska	-9.23279
▁dator	-9.23577
▁böcker	-9.23578
▁klart	-9.23579
▁transport	-9.2368
▁Vår	-9.23917
▁igenom	-9.24069
▁säkerställa	-9.24116
▁kring	-9.24195
▁funktion	-9.24375
▁ri	-9.24443
tu	-9.24469
håll	-9.24576
▁Använd	-9.24728
▁Nästa	-9.24772
▁påverka	-9.24772
lu	-9.24792
▁personuppgifter	-9.24891
Vi	-9.25089
lin	-9.25094
▁människa	-9.25109
ighet	-9.25113
▁sjukdom	-9.25209
ner	-9.25251
som	-9.25382
erad	-9.25446
▁organ	-9.25458
anske	-9.25464
▁samband	-9.25526
ella	-9.2557
▁förändringar	-9.25785
▁skäl	-9.25898
▁boken	-9.25964
▁sätta	-9.25974
▁håll	-9.26023
▁lista	-9.26034
▁viktigaste	-9.262
▁li	-9.26257
▁sol	-9.26406
ister	-9.26511
fall	-9.26598
▁analys	-9.26684
▁Sk	-9.26943
▁Pi	-9.27059
vär	-9.27112
emot	-9.27204
▁21	-9.27218
▁chef	-9.27266
▁Enlig	-9.27456
▁tillväxt	-9.27553
▁sju	-9.2757
tar	-9.27628
▁spelet	-9.2783
ok	-9.2783
▁affärs	-9.27869
▁styr	-9.27877
▁ledare	-9.28089
▁natur	-9.28278
▁Wi	-9.28319
ras	-9.28345
▁+	-9.28613
▁identifiera	-9.28766
▁cirka	-9.28766
▁Do	-9.28812
erade	-9.28824
▁erbjuda	-9.28896
▁For	-9.28919
ba	-9.29005
▁ljud	-9.2903
▁sluta	-9.29114
▁lokala	-9.29206
äng	-9.29262
▁exakt	-9.29296
rat	-9.29334
▁maj	-9.29368
▁lån	-9.29483
▁höra	-9.29512
▁förmåga	-9.29552
▁Fa	-9.29672
▁delen	-9.29809
▁högsta	-9.29841
▁rådet	-9.29842
▁60	-9.29893
▁leder	-9.29916
▁klimat	-9.29943
▁He	-9.30087
▁Upp	-9.30194
▁vanliga	-9.30216
▁hår	-9.30281
▁omkring	-9.30362
▁försöka	-9.30379
▁sättet	-9.30606
▁anställda	-9.30616
▁vikt	-9.30742
▁$	-9.30919
▁kände	-9.30971
ans	-9.30979
▁2018	-9.31033
verk	-9.31074
▁föräldrar	-9.31135
▁påverkar	-9.31285
▁mänskliga	-9.31289
▁Finn	-9.31293
▁fordon	-9.31308
▁slå	-9.31451
▁frukt	-9.3151
▁nödvändigt	-9.31725
▁enheter	-9.31755
▁låta	-9.31977
▁undvika	-9.31982
▁fysisk	-9.32055
▁ungefär	-9.32119
▁ande	-9.32199
▁känns	-9.3226
äl	-9.3249
slag	-9.32576
▁mor	-9.32684
lå	-9.32752
▁mark	-9.32838
▁grundläggande	-9.32941
▁internet	-9.3303
▁mängd	-9.33105
▁hjärta	-9.33163
▁organisationer	-9.33229
▁arbetet	-9.33327
▁ring	-9.33333
▁lösning	-9.33339
▁Dr	-9.33857
van	-9.33888
▁programmet	-9.33901
▁Gör	-9.33975
▁medlemmar	-9.33984
▁blogg	-9.34151
▁metoder	-9.34186
▁Ge	-9.34224
▁antalet	-9.3426
▁fungera	-9.34304
▁våld	-9.34323
▁dollar	-9.34602
▁stället	-9.34694
▁unga	-9.34796
rän	-9.34807
ång	-9.34842
▁skriv	-9.34891
▁tillhör	-9.34938
▁köp	-9.3499
▁ihop	-9.35026
▁oavsett	-9.35207
sats	-9.35363
▁koppla	-9.35419
▁består	-9.35427
▁sådant	-9.35462
▁huset	-9.35502
▁berg	-9.35846
▁försök	-9.35899
▁regeringen	-9.3596
aste	-9.36031
▁rädd	-9.36089
X	-9.36144
▁unionen	-9.36152
ologi	-9.36176
▁tydlig	-9.36199
▁närvarande	-9.36221
▁uttryck	-9.36246
▁organisation	-9.36365
▁dokument	-9.36428
▁Ska	-9.36503
▁europeiska	-9.36543
▁arna	-9.366
▁framgång	-9.36653
▁Kommer	-9.36727
▁naturlig	-9.36804
▁utför	-9.36805
▁privat	-9.36865
▁2015	-9.36872
▁social	-9.36969
▁ej	-9.36971
▁Finland	-9.37013
▁anges	-9.37092
▁led	-9.37144
fi	-9.37186
▁Tro	-9.37268
▁El	-9.37383
▁spara	-9.37396
▁lyssna	-9.37451
▁Po	-9.3752
▁främja	-9.37581
▁försäljning	-9.37695
▁sker	-9.37717
▁Å	-9.37721
▁personal	-9.37811
▁2016	-9.3787
▁ber	-9.37879
▁process	-9.3792
▁ställe	-9.37989
▁nummer	-9.38146
rar	-9.38183
yl	-9.38347
fl	-9.38421
▁skrev	-9.38449
▁2017	-9.38594
▁söker	-9.38654
▁visade	-9.38658
com	-9.38779
▁fil	-9.38911
▁talar	-9.38929
▁barnen	-9.39027
▁Windows	-9.39032
▁—	-9.39032
▁Bra	-9.39054
▁!!	-9.3907
▁ma	-9.39077
▁motor	-9.39126
▁speciellt	-9.39138
▁luft	-9.39276
▁utrustning	-9.39344
dan	-9.39354
fo	-9.39367
ny	-9.39542
▁prov	-9.3956
lik	-9.3969
▁förändring	-9.39697
▁fortsatt	-9.39771
▁utvecklingen	-9.39837
▁Bu	-9.39855
Y	-9.3992
▁uppfyll	-9.40114
▁Eftersom	-9.40232
▁säkra	-9.40239
▁Ju	-9.40327
▁dags	-9.40478
▁partner	-9.40519
▁fullt	-9.40519
▁natt	-9.40582
▁värd	-9.406
▁text	-9.40611
▁tecken	-9.40652
▁stil	-9.4069
▁bevis	-9.40757
ju	-9.40791
let	-9.40817
▁träffa	-9.40847
▁Hu	-9.40865
ier	-9.40975
▁team	-9.4099
ian	-9.41046
ou	-9.4113
ktion	-9.41206
▁jämför	-9.41252
ang	-9.41283
▁Ho	-9.41344
▁Hans	-9.41354
▁fördelar	-9.41365
▁bred	-9.41367
ep	-9.41374
▁Go	-9.41382
▁John	-9.41532
ber	-9.41581
tiska	-9.41591
▁period	-9.41647
▁höga	-9.41667
▁Få	-9.41668
▁bolag	-9.41733
▁hund	-9.41741
▁strategi	-9.41827
▁forsknings	-9.41868
▁positiv	-9.4191
fa	-9.41944
ip	-9.41947
▁familjen	-9.41957
▁engelska	-9.41968
▁dö	-9.4201
▁nuvarande	-9.42038
▁ledande	-9.42052
▁testa	-9.42065
▁ung	-9.42088
▁karriär	-9.42148
▁fatta	-9.42175
dag	-9.42191
▁All	-9.42233
▁Car	-9.42256
▁uppdrag	-9.42427
post	-9.42682
liksom	-9.4272
▁TV	-9.4276
▁York	-9.42904
▁rekommendera	-9.42918
all	-9.42951
▁namnet	-9.42955
▁baserad	-9.4298
▁samla	-9.4304
▁rik	-9.43056
▁by	-9.43074
mor	-9.43111
▁universitet	-9.43207
▁direktiv	-9.43414
ku	-9.43426
stra	-9.43504
▁at	-9.43504
▁värme	-9.43517
▁2014	-9.43522
▁dessutom	-9.43542
väg	-9.43577
▁inne	-9.43594
▁aktiviteter	-9.43711
▁es	-9.43919
▁militär	-9.43973
▁co	-9.43986
▁blå	-9.44065
▁telefon	-9.44078
▁frihet	-9.44082
tra	-9.44087
tur	-9.44097
▁kväll	-9.44122
▁hot	-9.44128
tisk	-9.44175
▁krig	-9.44314
▁flytta	-9.44386
▁tjäna	-9.44417
▁visas	-9.44447
▁bas	-9.44472
▁nr	-9.44537
▁kapital	-9.44636
▁förhindra	-9.44743
▁start	-9.44753
▁bi	-9.44828
▁Storbritannien	-9.44898
upp	-9.44958
▁december	-9.45053
▁ingenting	-9.45085
▁juni	-9.45121
▁ökar	-9.45152
▁Barn	-9.45163
▁högt	-9.45172
▁Facebook	-9.45208
▁tekniska	-9.45461
▁Kr	-9.45468
▁lugn	-9.45522
ban	-9.45596
▁kar	-9.45599
av	-9.45679
▁kor	-9.45699
▁Th	-9.45712
▁me	-9.45719
▁Lu	-9.45788
▁världs	-9.4602
’	-9.46025
▁ladda	-9.46146
▁vackra	-9.46191
ight	-9.46247
▁snabb	-9.46268
EG	-9.4627
▁läge	-9.46289
▁stanna	-9.46372
▁sälja	-9.46641
▁Herren	-9.46691
▁Park	-9.46769
▁karaktär	-9.46774
lan	-9.46902
▁sport	-9.46905
▁Stockholm	-9.46938
▁storlek	-9.4694
▁fokus	-9.46989
▁stäng	-9.47019
▁mars	-9.47022
▁lagen	-9.47104
▁avsluta	-9.47116
▁22	-9.47117
▁politik	-9.47146
mar	-9.47147
▁alls	-9.47154
ine	-9.47177
▁medlem	-9.47229
▁Tyskland	-9.47249
▁installera	-9.47249
▁fin	-9.47349
▁antingen	-9.47408
ong	-9.47527
▁bestämmelser	-9.47529
led	-9.47566
▁förslag	-9.47569
▁Andra	-9.47647
▁ad	-9.4767
▁Ryssland	-9.47726
▁produktion	-9.47761
▁forskare	-9.47789
▁utföra	-9.47886
▁spår	-9.4792
▁lilla	-9.48046
▁trafik	-9.48115
▁sten	-9.48155
▁Con	-9.48247
▁kommunikation	-9.48254
rik	-9.48256
▁ställ	-9.48283
▁förvänta	-9.48357
▁studenter	-9.48433
mm	-9.48473
▁vetenskap	-9.4852
▁Israel	-9.48532
▁cancer	-9.48612
▁ingår	-9.48675
▁Pe	-9.48724
▁någonting	-9.48748
mon	-9.4875
▁2.	-9.48789
▁placera	-9.48848
▁glad	-9.48862
▁are	-9.49102
▁my	-9.49122
▁beror	-9.49125
▁enhet	-9.49318
▁absolut	-9.49333
▁inlägg	-9.49333
▁uppgift	-9.49352
▁älska	-9.49422
äg	-9.49458
▁poäng	-9.49503
▁tra	-9.49552
▁redo	-9.49685
▁lärare	-9.49689
▁utnyttja	-9.49849
len	-9.4994
▁London	-9.49983
▁Mi	-9.50058
▁ställa	-9.50137
▁2013	-9.50146
▁handla	-9.50233
▁processen	-9.50256
▁modern	-9.50269
▁Än	-9.50311
and	-9.50378
▁visste	-9.50449
▁inre	-9.50499
▁barnet	-9.50574
▁budget	-9.50637
▁bär	-9.50714
drag	-9.5084
▁sam	-9.50849
lj	-9.50912
▁anser	-9.50941
▁anledning	-9.50951
▁part	-9.50969
▁Internet	-9.50969
▁tas	-9.50988
▁Ri	-9.51017
▁ensam	-9.51068
fe	-9.51105
▁januari	-9.5113
ler	-9.51134
▁hä	-9.51165
▁Sam	-9.51186
▁heter	-9.51242
em	-9.51304
▁#	-9.51326
▁serie	-9.51328
▁riktig	-9.51354
▁lägre	-9.5146
samma	-9.51475
uk	-9.51493
▁bet	-9.51525
▁kläder	-9.51538
▁San	-9.51613
▁stark	-9.51682
▁fa	-9.51723
▁Ki	-9.51754
▁fred	-9.51789
▁globala	-9.51793
bil	-9.51951
▁Hoppa	-9.51958
▁leta	-9.52124
▁extrem	-9.52124
▁mobil	-9.52192
▁betydelse	-9.52286
▁september	-9.52291
▁speciell	-9.52504
▁beteende	-9.52625
▁Tre	-9.52683
▁driv	-9.52838
▁bilden	-9.52866
▁ske	-9.52939
▁tips	-9.52963
J	-9.53012
mål	-9.53013
▁ras	-9.53126
▁stress	-9.53133
▁Kon	-9.53162
▁hälso	-9.53174
▁gud	-9.53198
met	-9.53207
▁delta	-9.53392
▁förra	-9.53437
▁fas	-9.53468
▁glas	-9.53531
▁tillgänglig	-9.53556
▁själ	-9.53559
ast	-9.53567
▁23	-9.53605
▁Följ	-9.53634
▁casino	-9.53635
▁anses	-9.53642
ät	-9.53662
▁medlemsstaterna	-9.53676
▁Pri	-9.5371
▁bygg	-9.53728
▁tankar	-9.53906
▁Våra	-9.53912
▁mening	-9.54001
▁effekt	-9.54011
kla	-9.54029
▁bidrag	-9.54036
▁filmen	-9.54052
vid	-9.5408
du	-9.5417
las	-9.54237
▁kostnader	-9.5429
▁centrum	-9.54316
▁Ko	-9.54383
▁utmärkt	-9.54455
▁bank	-9.54461
▁begränsa	-9.54467
kom	-9.54472
▁presentera	-9.54534
ien	-9.54584
▁grad	-9.54593
▁strid	-9.546
▁lägger	-9.54628
▁euro	-9.54699
satt	-9.5474
▁ämnen	-9.54781
äk	-9.54899
▁berättar	-9.54907
gra	-9.54963
fri	-9.54994
gel	-9.55031
▁kallade	-9.55078
▁njuta	-9.55083
▁anpassa	-9.55234
▁jobba	-9.55272
▁främst	-9.55276
tta	-9.5529
▁garantera	-9.55339
▁webbplatsen	-9.55351
▁ly	-9.55376
uropaparlamentet	-9.55512
kon	-9.55521
plan	-9.55558
▁AB	-9.55562
ium	-9.55674
▁Bara	-9.55722
▁Da	-9.55728
▁havet	-9.5579
medel	-9.5581
our	-9.55837
▁gemensamma	-9.55877
▁kredit	-9.56025
▁David	-9.56038
▁projektet	-9.56161
▁stat	-9.56176
▁menar	-9.56288
▁27	-9.56339
▁förändra	-9.56362
Några	-9.56379
▁maskin	-9.56581
▁pe	-9.56603
▁motsvara	-9.56634
▁egenskaper	-9.56656
▁kontakta	-9.56692
▁effektivt	-9.56694
ativ	-9.56698
fattande	-9.56703
▁tillhandahåll	-9.56725
▁levande	-9.56745
▁1.	-9.56763
▁avses	-9.56772
▁chans	-9.56862
ala	-9.57014
▁avseende	-9.57025
▁uppdatera	-9.57074
▁kyrkan	-9.57084
skydd	-9.57162
▁fort	-9.57165
▁publicera	-9.57205
▁Ibland	-9.57249
20	-9.57322
▁registrera	-9.57334
▁vare	-9.57365
▁miljarder	-9.57394
▁Su	-9.57406
▁korrekt	-9.57425
▁djup	-9.57471
▁lämnar	-9.57489
▁förhållanden	-9.57561
▁morgon	-9.57582
▁öppen	-9.57601
▁kolla	-9.57607
▁2010	-9.57625
▁genomföra	-9.57674
▁500	-9.57674
▁utrymme	-9.57808
▁känslor	-9.57846
▁visat	-9.58051
▁di	-9.58083
▁brist	-9.5809
▁kommun	-9.58093
lös	-9.58098
mat	-9.58142
▁dröm	-9.58284
▁Två	-9.58308
▁lov	-9.58404
▁bad	-9.58467
▁priset	-9.58477
▁struktur	-9.58554
▁webbplatser	-9.58628
▁känsla	-9.58654
▁nivåer	-9.58657
kel	-9.58757
▁jord	-9.5878
▁trodde	-9.58862
▁70	-9.58866
▁medier	-9.58893
▁ren	-9.58984
▁åka	-9.58994
▁ben	-9.59017
▁2012	-9.5903
▁reda	-9.59042
▁match	-9.59105
▁må	-9.59118
▁bilar	-9.59129
▁gräns	-9.59213
ös	-9.59251
▁km	-9.59285
▁u	-9.59326
▁jul	-9.59411
▁underhåll	-9.59423
if	-9.5949
▁meter	-9.59547
▁önskar	-9.5974
ov	-9.59785
▁hållbar	-9.5981
▁resurser	-9.59881
▁gruppen	-9.59923
▁lo	-9.59951
▁ekonomi	-9.59973
rum	-9.60032
▁:)	-9.60041
anska	-9.60111
▁enkel	-9.60237
▁FN	-9.60282
▁aktivitet	-9.60432
▁tri	-9.60461
▁smärta	-9.60489
▁University	-9.60636
▁mo	-9.60781
▁ovan	-9.608
▁lycklig	-9.60818
▁smak	-9.60858
▁företags	-9.6094
vet	-9.6095
▁28	-9.60965
▁po	-9.61012
öm	-9.61065
▁Frankrike	-9.61182
▁annorlunda	-9.61182
▁oktober	-9.61182
▁År	-9.61213
▁äter	-9.61262
▁oberoende	-9.61365
par	-9.61377
▁Håll	-9.61547
▁stör	-9.61556
▁spännande	-9.6159
▁förlora	-9.61654
▁undersökning	-9.61751
▁bio	-9.61781
▁följd	-9.61872
▁kombination	-9.61914
▁Hotell	-9.62015
▁Sen	-9.62065
▁produkten	-9.62078
▁26	-9.62263
nu	-9.62301
ley	-9.62315
▁1,	-9.62332
▁ordning	-9.62433
▁Nya	-9.62473
au	-9.62566
▁agera	-9.62714
gu	-9.62777
lighet	-9.6278
▁pappa	-9.62838
▁offentliga	-9.62887
sel	-9.62924
og	-9.62951
wa	-9.62957
▁80	-9.62994
▁drag	-9.6305
▁bygger	-9.63104
▁>	-9.6313
ort	-9.63172
▁artiklar	-9.63208
▁webb	-9.63209
ug	-9.63236
▁Trots	-9.63288
▁folket	-9.63315
▁90	-9.63377
▁ru	-9.63414
▁föremål	-9.63422
▁studera	-9.63468
▁söka	-9.63484
▁höll	-9.63551
▁varor	-9.63586
▁stund	-9.63595
▁datum	-9.63657
▁relation	-9.6366
▁synd	-9.63673
▁sidor	-9.63735
▁undantag	-9.63774
▁samhälle	-9.6378
▁tidigt	-9.63783
▁gälla	-9.63829
▁personen	-9.63882
ice	-9.6401
▁Bi	-9.64041
▁fallet	-9.64042
▁sinne	-9.64047
▁finansiella	-9.64115
ER	-9.64292
▁industri	-9.64361
▁plattform	-9.64373
▁af	-9.64422
▁undra	-9.64449
▁lägenhet	-9.6458
▁Pre	-9.64605
▁hjärtat	-9.64662
▁Ny	-9.64736
ct	-9.64927
ära	-9.64938
▁myndigheter	-9.64985
▁Chi	-9.64989
▁inkluderar	-9.65052
▁inspirera	-9.65275
▁Ö	-9.65298
▁fantastiska	-9.65338
▁kommande	-9.65442
▁bolaget	-9.65475
▁mannen	-9.65566
▁gas	-9.6558
▁klar	-9.65668
lev	-9.65763
▁besöka	-9.65801
▁innovation	-9.65847
▁träning	-9.65853
▁bu	-9.65884
▁w	-9.66074
▁?”	-9.66105
▁staten	-9.66144
ung	-9.66182
▁Or	-9.66457
▁kol	-9.66462
ret	-9.66546
▁tv	-9.6655
▁samtal	-9.66557
▁uppskatta	-9.66624
▁lagar	-9.66637
▁hopp	-9.66736
▁bedömning	-9.66753
▁internationell	-9.66779
▁diskutera	-9.66807
▁band	-9.66813
▁200	-9.66858
▁ö	-9.66897
▁?"	-9.66933
nge	-9.67007
▁bilen	-9.67015
lösa	-9.6703
▁enkla	-9.67036
ish	-9.67042
▁ledning	-9.67088
▁vuxna	-9.67193
▁beakta	-9.67195
▁mil	-9.67262
▁jobbet	-9.67272
10	-9.67318
▁specifika	-9.67365
▁kontor	-9.67526
▁populära	-9.67562
form	-9.67564
▁ty	-9.67688
▁lek	-9.67705
▁Apple	-9.67819
▁tillhandahålla	-9.6797
▁semester	-9.6797
▁religion	-9.67971
▁kost	-9.68092
▁snabbare	-9.68123
▁meddelande	-9.68142
▁hemsida	-9.68166
▁2011	-9.6818
▁Ä	-9.68193
stånd	-9.682
▁fot	-9.68222
▁he	-9.683
▁2019	-9.68361
▁förklara	-9.68394
▁definiera	-9.68558
▁hantering	-9.68569
▁massa	-9.68622
▁tanke	-9.68625
▁svart	-9.68667
▁kompetens	-9.68754
▁licens	-9.68754
▁kaffe	-9.68755
▁leverans	-9.68833
▁nedan	-9.68859
▁version	-9.68928
▁vänlig	-9.68931
▁dotter	-9.68957
ey	-9.69014
▁lik	-9.69058
▁verkliga	-9.69093
;	-9.6911
▁Va	-9.69157
ub	-9.69228
▁Ti	-9.69262
▁näm	-9.69323
▁ges	-9.69383
▁stödja	-9.69436
▁åtminstone	-9.69544
▁vapen	-9.69545
▁as	-9.6955
▁natten	-9.69652
öj	-9.69679
▁köra	-9.6972
▁digital	-9.69722
▁brukar	-9.69929
▁tillämpning	-9.6993
▁spendera	-9.69941
▁Bar	-9.70106
▁hud	-9.7012
▁ne	-9.70144
▁alkohol	-9.70149
▁idéer	-9.70158
▁långa	-9.70158
kor	-9.70216
▁gett	-9.70262
▁fira	-9.70282
ker	-9.70312
▁Fler	-9.70443
▁tåg	-9.70541
▁metod	-9.70652
▁upplevelse	-9.70656
▁stod	-9.70723
▁hämta	-9.70741
▁Ad	-9.70781
till	-9.70845
▁starta	-9.70851
▁sjukdomar	-9.70923
▁guld	-9.70942
▁Par	-9.70984
▁parti	-9.71021
▁författare	-9.71057
▁gift	-9.71191
▁Sc	-9.71359
one	-9.7139
▁kasta	-9.71415
▁instrument	-9.71417
▁3.	-9.71423
▁inkomst	-9.71469
▁investera	-9.71514
ial	-9.71611
▁omedelbart	-9.71627
▁drift	-9.71628
▁press	-9.71641
▁fo	-9.71697
▁kod	-9.7174
▁brev	-9.71752
per	-9.71801
▁moderna	-9.71815
känn	-9.71836
▁känt	-9.71953
fil	-9.71965
▁särskilda	-9.72033
▁skapat	-9.72038
stad	-9.72105
▁risker	-9.72168
▁x	-9.72179
▁handlingar	-9.7219
▁litet	-9.72249
net	-9.72251
▁nyligen	-9.7227
▁handels	-9.72291
▁svara	-9.72294
▁Mat	-9.72325
lor	-9.72422
▁växa	-9.72451
▁komplex	-9.72562
▁fotboll	-9.72563
▁2009	-9.7259
▁händelse	-9.72594
▁förståelse	-9.72634
▁Först	-9.72641
äst	-9.72668
kning	-9.72688
dy	-9.72705
▁växer	-9.72767
ther	-9.72775
▁baserat	-9.72829
▁Gra	-9.72874
sten	-9.7294
▁Paul	-9.72978
ika	-9.72983
▁potentiell	-9.73177
▁2008	-9.73204
▁vinst	-9.73235
nter	-9.73307
▁(1	-9.73339
▁övriga	-9.73383
▁dit	-9.73413
▁skador	-9.73547
▁tillägg	-9.73581
▁allmänna	-9.73603
▁ständigt	-9.73604
utom	-9.73719
▁händelser	-9.73764
▁kallar	-9.73786
▁pension	-9.73795
▁köper	-9.73875
hu	-9.73893
▁Fi	-9.73964
▁Tra	-9.7399
ock	-9.74031
▁planera	-9.74085
▁acceptera	-9.74085
▁Vä	-9.74201
▁perspektiv	-9.7421
▁gen	-9.74226
▁pi	-9.74233
▁historien	-9.74263
▁kön	-9.74278
▁miss	-9.743
▁regering	-9.74329
▁objekt	-9.74395
▁klicka	-9.74424
▁risken	-9.74426
▁intressant	-9.74445
▁konferens	-9.74481
ph	-9.74589
▁november	-9.74626
▁ko	-9.74741
tyr	-9.74773
▁fisk	-9.74818
▁resten	-9.74819
▁beräkna	-9.74835
▁publik	-9.74835
▁april	-9.74835
ah	-9.74844
▁starkt	-9.74999
▁städer	-9.75
▁hände	-9.75064
▁styrka	-9.75105
▁utvecklas	-9.75115
▁glädje	-9.75254
▁sitter	-9.75262
▁Q	-9.75325
▁35	-9.75331
▁Nej	-9.75339
▁Mac	-9.7534
▁möjliga	-9.75403
▁fokusera	-9.75479
▁faktorer	-9.75486
▁app	-9.75488
▁resultatet	-9.75519
▁problemet	-9.75519
▁tänkte	-9.75538
▁industrin	-9.75571
▁do	-9.75622
▁Samtidig	-9.75675
▁Känn	-9.75681
▁leverantör	-9.7575
lock	-9.75773
▁bry	-9.7588
▁pre	-9.759
▁central	-9.75924
▁lagra	-9.75976
▁skatte	-9.76002
▁tom	-9.76006
▁hört	-9.76012
▁fördel	-9.76018
▁dagens	-9.76029
▁handling	-9.76038
▁hittade	-9.76201
▁klara	-9.76227
▁Första	-9.76231
▁modell	-9.76293
▁finansiering	-9.76309
▁bonus	-9.7631
▁juli	-9.76341
▁ste	-9.76353
▁född	-9.76364
▁rapport	-9.76371
▁mag	-9.7647
▁intervju	-9.76521
▁förvaltning	-9.76521
▁hända	-9.76522
▁tillverkning	-9.76523
▁ändamål	-9.76525
▁temperatur	-9.76573
▁medicin	-9.76592
▁Svar	-9.76658
▁lön	-9.76718
gan	-9.7679
vin	-9.76937
▁befinn	-9.76949
▁profil	-9.76959
▁miljön	-9.77013
▁borta	-9.77068
▁sömn	-9.7717
ats	-9.77182
▁anti	-9.7721
▁ordet	-9.7726
▁Nord	-9.77287
▁snö	-9.77319
ull	-9.77376
▁uppleva	-9.77377
▁leverantörer	-9.77388
▁mät	-9.77413
och	-9.77427
port	-9.77482
▁stoppa	-9.77509
▁skapade	-9.77543
▁symbol	-9.77589
▁We	-9.77595
▁varumärke	-9.77633
▁pr	-9.7767
▁framåt	-9.77676
▁häng	-9.77908
▁miljon	-9.7791
▁relationer	-9.77929
▁förlust	-9.77955
▁sjuk	-9.78012
▁omfattar	-9.78014
▁skor	-9.7804
▁frågade	-9.78087
▁fyll	-9.78219
▁hindra	-9.78239
▁kap	-9.78253
system	-9.7829
▁position	-9.78333
▁Fl	-9.78343
▁timme	-9.78455
▁vattnet	-9.78499
▁lättare	-9.78505
▁special	-9.78565
▁trans	-9.78681
▁Välj	-9.78711
▁fru	-9.78774
▁handel	-9.7885
▁Trump	-9.78893
▁bön	-9.78897
▁teori	-9.78909
▁sommar	-9.78987
▁passar	-9.79002
▁pass	-9.79011
▁rekommenderar	-9.79085
▁filmer	-9.7909
gående	-9.79238
▁Fri	-9.79278
▁Microsoft	-9.79323
▁priser	-9.79359
▁So	-9.79368
▁avgörande	-9.79375
▁lös	-9.79425
▁katt	-9.79437
▁j	-9.79525
▁investeringar	-9.79535
▁hänsyn	-9.79542
jö	-9.79552
▁vänster	-9.79597
▁skjut	-9.79656
▁My	-9.79681
▁sätter	-9.79725
▁platsen	-9.79727
▁betydande	-9.79761
▁uppmuntra	-9.79761
▁bakgrund	-9.79762
▁dog	-9.79818
▁läser	-9.80001
▁verka	-9.80033
rop	-9.80045
▁fi	-9.80049
stat	-9.80077
▁utsikt	-9.80089
▁Dom	-9.80161
program	-9.80192
▁kapacitet	-9.80205
▁nätet	-9.80268
▁rörelse	-9.80284
▁trä	-9.80304
sson	-9.80315
▁behålla	-9.80326
▁häst	-9.8041
rå	-9.80432
▁börjat	-9.80491
▁medborgare	-9.80499
▁31	-9.80499
ycket	-9.80514
▁sanningen	-9.80532
▁effektiv	-9.80568
▁tvinga	-9.80581
▁Res	-9.80625
▁processer	-9.80632
▁ökning	-9.80653
▁guide	-9.80658
▁Skull	-9.80667
▁ordförande	-9.80703
▁närmare	-9.80751
▁rikta	-9.80775
▁Någon	-9.80832
▁kristna	-9.80869
▁tydligt	-9.80875
ity	-9.80882
▁Japan	-9.80894
my	-9.80902
▁bevara	-9.80907
▁oftast	-9.81016
▁Kar	-9.81026
▁lagstiftning	-9.81077
▁betrakta	-9.81087
▁äger	-9.81107
▁rätten	-9.81127
▁bit	-9.81127
▁rätta	-9.81158
▁äventyr	-9.81183
▁läst	-9.81265
▁sköt	-9.81266
▁unika	-9.81336
▁norr	-9.81352
▁situation	-9.81366
▁go	-9.8144
kri	-9.81469
IS	-9.81488
▁kalla	-9.8153
▁trött	-9.81533
▁papper	-9.81533
▁historiska	-9.81621
▁väntar	-9.81723
cu	-9.81732
ubb	-9.81769
▁sträck	-9.81772
▁sjö	-9.81787
▁Lär	-9.81847
▁fett	-9.81874
vo	-9.81878
▁solen	-9.81915
▁Fast	-9.81922
▁Paris	-9.82015
▁Del	-9.82033
▁färdig	-9.82142
avsett	-9.82143
yn	-9.82216
▁släpp	-9.82351
▁utvecklat	-9.82363
vil	-9.82402
▁upptäcka	-9.82446
▁offentlig	-9.82536
▁tema	-9.82565
▁bak	-9.82568
▁lycka	-9.82631
▁z	-9.82633
▁bruk	-9.82657
▁möta	-9.82663
går	-9.82725
▁nöjd	-9.82748
ive	-9.82773
▁modeller	-9.8281
▁ögonblick	-9.82883
▁hävda	-9.82883
▁uppmärksamhet	-9.82895
åter	-9.82901
▁4.	-9.82936
olog	-9.82977
▁relaterade	-9.83064
ski	-9.83077
▁fantastisk	-9.83106
▁välkomna	-9.8311
▁Tid	-9.83141
▁ökad	-9.83207
▁dåligt	-9.83222
▁anslutning	-9.83231
uell	-9.83257
▁märk	-9.83267
▁märke	-9.8329
▁exempelvis	-9.83301
▁eld	-9.8332
▁recept	-9.83339
▁ed	-9.8337
▁pl	-9.83397
▁fria	-9.83569
full	-9.83633
▁Val	-9.83656
cent	-9.83679
▁intressen	-9.8373
▁ursprung	-9.83749
▁tillämpa	-9.83765
▁kriget	-9.83793
▁målet	-9.83808
▁utvecklings	-9.83853
Mitt	-9.83889
vik	-9.83907
▁Fo	-9.83916
▁polis	-9.84102
▁betal	-9.84122
▁idé	-9.84162
▁29	-9.84212
▁kris	-9.84268
▁svarade	-9.84279
▁ki	-9.84279
▁skär	-9.84299
▁nytta	-9.8433
▁kött	-9.84338
▁Cha	-9.84375
▁effekter	-9.8447
nta	-9.84482
▁naturligtvis	-9.84505
▁marknad	-9.84685
▁förmodligen	-9.84711
▁utom	-9.84712
▁trevlig	-9.84715
▁organisera	-9.84777
ektor	-9.84787
▁naturen	-9.84797
▁besökare	-9.84833
che	-9.84874
▁amerikansk	-9.84898
▁tids	-9.84918
▁nåt	-9.84983
▁ram	-9.85085
▁Sol	-9.8514
▁såväl	-9.853
▁fjärde	-9.85406
▁civil	-9.85409
▁Mor	-9.85426
▁da	-9.85447
mb	-9.85523
▁Hem	-9.85628
▁term	-9.85646
▁super	-9.85656
nnan	-9.85668
way	-9.85745
▁former	-9.85806
▁ho	-9.85873
▁programvara	-9.85875
▁ställning	-9.85889
▁utmaningar	-9.85889
▁eventuella	-9.85935
▁saknar	-9.85953
▁verket	-9.86042
▁dricka	-9.86047
▁privata	-9.86103
▁vakna	-9.86107
▁straff	-9.86113
gon	-9.86123
▁digitala	-9.86155
▁Rom	-9.86359
▁bränsle	-9.86382
▁pratar	-9.86423
▁trädgård	-9.86559
far	-9.86605
lf	-9.86627
ect	-9.86677
står	-9.86697
▁vita	-9.86713
▁faktum	-9.86809
▁dubbel	-9.8681
▁minne	-9.86846
▁snara	-9.8688
▁Her	-9.86882
▁tittar	-9.86893
▁Ver	-9.86909
▁perioden	-9.86919
änder	-9.87006
▁nationell	-9.87037
▁behövde	-9.87045
▁teknologi	-9.87045
▁nät	-9.87123
vig	-9.87151
träd	-9.87154
▁Samma	-9.87166
▁ansikte	-9.87184
▁paket	-9.87212
▁åtgärd	-9.87225
▁International	-9.87282
▁prestanda	-9.87282
▁värt	-9.87299
▁ägg	-9.87517
▁fängelse	-9.87519
▁roligt	-9.87611
▁Vet	-9.87616
▁verksamheten	-9.87652
▁Fråga	-9.87691
fin	-9.87695
lle	-9.87762
▁ersättning	-9.87781
▁höjd	-9.87805
▁kvällen	-9.8783
▁massor	-9.87842
▁jätte	-9.87887
▁global	-9.87901
▁adress	-9.87905
▁Er	-9.87944
▁träna	-9.88063
EN	-9.88066
▁ver	-9.88089
▁kunden	-9.88094
▁skola	-9.88147
▁World	-9.88233
lapp	-9.88281
▁åtta	-9.88367
▁ry	-9.88368
▁älskade	-9.88404
▁bära	-9.88434
▁ekonomisk	-9.88437
▁utforska	-9.88472
▁specifik	-9.88495
cy	-9.885
▁Hi	-9.88527
▁Bl	-9.88532
▁planer	-9.88556
▁van	-9.88563
▁nödvändiga	-9.8861
▁samtliga	-9.88627
▁avstånd	-9.88657
▁fält	-9.88762
▁branschen	-9.88797
▁dålig	-9.88801
▁ba	-9.88825
▁uppmana	-9.88831
▁överföring	-9.88953
▁no	-9.88962
▁vidta	-9.88986
▁kurs	-9.89045
▁människan	-9.89074
▁balans	-9.89075
ris	-9.89203
▁samling	-9.89217
▁ursprungliga	-9.89223
▁prova	-9.89245
▁vänd	-9.8925
of	-9.89265
▁räkna	-9.89324
▁säsong	-9.89431
▁reklam	-9.89435
we	-9.89454
▁Stor	-9.89509
▁listan	-9.89521
▁grön	-9.89637
▁hastighet	-9.89677
ham	-9.89697
teckning	-9.89754
▁station	-9.89787
ance	-9.89856
stod	-9.89877
▁ersätta	-9.89941
▁drog	-9.8995
emi	-9.89964
cc	-9.90007
▁Bäst	-9.90009
ES	-9.90016
▁starka	-9.90088
▁juridisk	-9.90163
nes	-9.9023
▁fly	-9.90311
pri	-9.90322
▁valuta	-9.90413
▁hundar	-9.90416
▁uttalande	-9.90455
▁ön	-9.90484
▁misstag	-9.90489
▁Ty	-9.9049
▁ansvarig	-9.90495
▁Mal	-9.90637
▁informera	-9.90653
▁regn	-9.9067
▁pol	-9.90682
▁läs	-9.90739
▁ting	-9.90771
▁normalt	-9.90808
▁båt	-9.90838
▁automatiskt	-9.90911
▁äg	-9.9095
▁Bro	-9.90984
▁mörk	-9.91041
▁format	-9.91057
▁hårt	-9.91095
▁tradition	-9.91115
▁önska	-9.91124
▁tillverka	-9.91129
▁äktenskap	-9.91142
▁hänt	-9.91154
▁lyckas	-9.91193
▁totala	-9.91255
▁uppfylla	-9.91298
▁värdet	-9.91394
▁Son	-9.91409
▁fånga	-9.91426
gå	-9.9144
ix	-9.91539
▁organisationen	-9.91586
▁sv	-9.91616
▁National	-9.91636
▁valt	-9.91666
vel	-9.91777
▁tjej	-9.91798
▁Star	-9.91819
▁marknader	-9.9183
▁februari	-9.91883
▁avdelning	-9.91946
▁hit	-9.91959
istiska	-9.9199
▁kung	-9.92096
▁behöriga	-9.92142
komst	-9.92267
▁op	-9.92296
▁middag	-9.9238
▁detaljer	-9.92384
▁Ru	-9.92402
▁Vårt	-9.92447
ting	-9.92487
▁expert	-9.92495
▁Mon	-9.9252
▁livsmedel	-9.92538
▁gl	-9.92554
▁Just	-9.92567
▁kinesisk	-9.92631
▁enskilda	-9.92637
▁ansökan	-9.92657
▁möjligheten	-9.92701
▁förstås	-9.92719
▁IT	-9.92773
▁slutlig	-9.92794
▁am	-9.92815
▁kärn	-9.92855
▁hälften	-9.92879
▁öppet	-9.92879
▁separat	-9.92907
▁söt	-9.92926
▁produktions	-9.93013
▁rök	-9.93063
▁individuell	-9.93134
▁populär	-9.93154
▁finans	-9.93201
▁kunnat	-9.93218
qu	-9.93287
▁byggnad	-9.93301
Ä	-9.93317
▁annonser	-9.93384
AR	-9.93449
▁marknadsföring	-9.93564
▁livs	-9.93624
▁kontrakt	-9.93641
mmer	-9.93691
▁topp	-9.93737
▁löp	-9.93805
▁skuld	-9.93854
▁dans	-9.93865
▁beskriv	-9.93947
tjänst	-9.93957
▁art	-9.93958
brott	-9.93968
▁ämne	-9.94035
sch	-9.94063
▁cell	-9.94069
▁förstör	-9.94111
▁engagera	-9.94139
les	-9.94146
▁rummet	-9.94168
▁utsläpp	-9.94176
▁Sha	-9.9418
▁teknisk	-9.94233
▁överallt	-9.9424
▁slags	-9.94244
▁2000	-9.94286
▁filer	-9.94325
▁back	-9.94346
▁Dag	-9.94368
▁[...]	-9.94392
▁syfta	-9.94393
▁bekräfta	-9.94412
zz	-9.94501
▁You	-9.94592
he	-9.94594
▁Tur	-9.94675
▁väck	-9.94677
▁cykel	-9.94906
▁2020	-9.94942
▁mi	-9.94956
▁färger	-9.95094
▁Gå	-9.95121
ib	-9.95191
▁svensk	-9.95193
▁meddela	-9.95236
▁fastställa	-9.95296
ET	-9.95309
▁dos	-9.95356
▁linje	-9.95381
▁källor	-9.95415
▁myndigheterna	-9.95433
▁familjer	-9.95472
▁Air	-9.95478
erande	-9.95503
▁nämn	-9.95506
▁myndigheten	-9.95656
▁kräva	-9.95671
▁Italien	-9.95671
▁str	-9.95703
▁effektiva	-9.9583
▁fest	-9.95902
▁vacker	-9.95937
za	-9.9594
▁bestämma	-9.95945
▁Com	-9.9596
▁lämnade	-9.9596
EU	-9.9597
elsen	-9.95991
▁verklig	-9.95996
tch	-9.96001
▁regelbundet	-9.96017
▁avsnitt	-9.96068
▁met	-9.9617
▁byta	-9.96219
▁sant	-9.96271
▁Utan	-9.96347
▁ändringar	-9.96386
▁jobbar	-9.96426
▁Center	-9.96448
▁färdigheter	-9.96707
▁avslöja	-9.96744
▁minskar	-9.96748
▁lita	-9.9678
liggande	-9.96793
▁allmänhet	-9.96821
▁stolt	-9.96836
▁utbilda	-9.96967
▁principer	-9.96974
▁avtalet	-9.97016
▁yrkes	-9.9703
olv	-9.97032
ifrån	-9.97041
▁restaurang	-9.97046
▁omständigheter	-9.97047
▁rösta	-9.97081
▁länk	-9.97139
▁utmaning	-9.97211
▁konkurrens	-9.97223
▁upprepa	-9.97234
▁familje	-9.97256
▁användningen	-9.97293
▁gemenskap	-9.97311
▁situationer	-9.97333
gin	-9.97347
▁Spanien	-9.97489
▁förtroende	-9.9749
▁boende	-9.97504
▁försiktig	-9.97538
AN	-9.97582
▁brand	-9.97584
▁II	-9.97619
▁Per	-9.97633
▁ägare	-9.97666
▁Människor	-9.97718
▁Ing	-9.9774
▁evenemang	-9.97752
▁promenad	-9.97752
öl	-9.97821
▁ström	-9.97831
▁sång	-9.97842
hand	-9.97976
▁köpte	-9.98027
▁medlemsstat	-9.98052
▁ke	-9.98078
▁port	-9.98138
▁Can	-9.98247
▁förklaring	-9.98279
▁inkludera	-9.98326
off	-9.98351
dor	-9.98395
▁experter	-9.98427
ach	-9.98452
▁kropps	-9.98462
▁tider	-9.98482
▁fina	-9.98515
▁bin	-9.98568
▁cookies	-9.98581
▁!”	-9.98632
▁franska	-9.98666
▁300	-9.98683
▁källa	-9.98693
▁begränsad	-9.98698
q	-9.98702
▁Kat	-9.988
▁Bli	-9.98835
▁berörda	-9.98871
slut	-9.98894
▁bud	-9.98899
▁Ser	-9.98914
▁Hotel	-9.9893
▁begäran	-9.98961
▁­	-9.99043
▁effektivitet	-9.99097
▁2007	-9.99109
▁tidpunkt	-9.99126
▁bekväm	-9.99126
▁ban	-9.99159
Q	-9.99174
The	-9.99215
▁gäster	-9.99233
▁installation	-9.99494
▁fan	-9.99504
▁stabil	-9.9959
▁hjärt	-9.99614
▁kust	-9.99617
▁fullständig	-9.99656
▁45	-9.99703
▁relevanta	-9.99817
▁WEB	-9.99877
▁Tom	-9.99884
▁element	-9.99908
▁Gi	-9.99939
▁undervisning	-9.9994
▁bryta	-10.0002
▁anta	-10.0007
▁ra	-10.0009
▁wi	-10.0013
▁England	-10.0015
▁hundra	-10.0024
▁anslut	-10.0024
▁intresserad	-10.0027
▁resan	-10.0032
▁fönster	-10.0042
▁Mål	-10.0047
ori	-10.0053
▁Nor	-10.0067
▁2006	-10.0072
▁Sch	-10.0078
▁ryska	-10.0081
▁bröllop	-10.0096
▁underlätta	-10.0096
▁officiella	-10.0098
sett	-10.0102
▁informationen	-10.0102
▁City	-10.0105
▁order	-10.0115
▁budskap	-10.0116
▁skatt	-10.0119
▁äntligen	-10.0123
▁!"	-10.0124
▁vägar	-10.0128
▁frågar	-10.0129
▁fr	-10.013
▁spelade	-10.013
▁media	-10.0131
▁situationen	-10.0132
▁alltför	-10.0139
▁trygg	-10.0145
▁tor	-10.0146
▁uppfattning	-10.015
▁olja	-10.0151
▁Hitta	-10.0151
▁tillämpas	-10.0153
▁nej	-10.0156
▁nyheter	-10.0157
▁centrala	-10.0172
▁Sök	-10.0175
Om	-10.0178
▁igång	-10.0178
▁växt	-10.0178
▁användbar	-10.0179
▁sägs	-10.0179
▁avgift	-10.0182
pan	-10.0184
▁kombinera	-10.0185
▁mar	-10.0188
▁skol	-10.0191
▁fritt	-10.0199
▁Själv	-10.0204
▁definitiv	-10.0205
▁fundera	-10.0205
▁rent	-10.0213
▁längs	-10.0213
▁helg	-10.0219
oli	-10.0222
▁planet	-10.0224
▁professionell	-10.0226
män	-10.023
▁sannolikt	-10.0232
▁Mu	-10.0235
▁koncept	-10.026
▁vore	-10.026
▁Kristus	-10.0261
▁grunden	-10.0262
▁traditionella	-10.0265
hus	-10.0268
▁utbildnings	-10.0272
ordning	-10.0275
▁drabba	-10.0276
▁War	-10.0285
▁utbud	-10.0288
▁förbli	-10.0288
▁‘	-10.0288
▁perfekta	-10.0289
▁uppstår	-10.0289
▁riktning	-10.0289
▁döden	-10.0295
▁främsta	-10.0298
▁konstnär	-10.03
▁aktie	-10.0302
▁sommaren	-10.0302
▁skrivit	-10.0303
▁emellertid	-10.0316
▁sanning	-10.0327
▁svår	-10.0328
▁Ben	-10.033
▁tänkt	-10.0331
org	-10.0332
▁finna	-10.0335
mu	-10.0336
▁vanlig	-10.0343
▁fabrik	-10.0343
▁individer	-10.0349
▁respekt	-10.035
▁Cor	-10.035
▁valet	-10.0353
▁notera	-10.0353
▁överens	-10.0354
▁begär	-10.0356
▁Bal	-10.0357
▁skolor	-10.0358
▁Ab	-10.036
▁kyl	-10.0363
enta	-10.0371
▁augusti	-10.0371
▁Folk	-10.0371
▁totalt	-10.0371
▁artikeln	-10.0375
▁Peter	-10.0375
▁föddes	-10.0378
▁cykl	-10.0378
▁regel	-10.0378
▁initiativ	-10.0399
▁alldeles	-10.0399
af	-10.0399
▁fiske	-10.04
▁Mot	-10.0401
▁hoppa	-10.0401
▁Euro	-10.0406
▁förbi	-10.0411
▁tyska	-10.0421
▁medarbetare	-10.0427
▁beskrivning	-10.0427
▁Je	-10.0429
▁görs	-10.044
▁radio	-10.0442
▁Mas	-10.0443
▁inse	-10.0446
▁taget	-10.0455
▁flicka	-10.0455
▁skönhet	-10.0458
▁visst	-10.0458
▁statlig	-10.0464
▁unik	-10.0465
kort	-10.0465
▁App	-10.0468
▁hål	-10.0473
IN	-10.0477
tic	-10.0477
▁skyldig	-10.0477
▁Am	-10.0478
▁Ph	-10.048
▁resultera	-10.0483
▁statistik	-10.0483
▁Behöver	-10.0493
▁th	-10.0497
▁stats	-10.051
▁wa	-10.0511
▁himlen	-10.0511
▁operation	-10.0512
▁offer	-10.0519
▁mon	-10.0525
▁förbjud	-10.0537
▁regionen	-10.0538
▁Australien	-10.054
▁lagt	-10.0542
▁lämnat	-10.0545
▁kostnad	-10.055
▁tekniker	-10.0556
▁länderna	-10.0561
▁driva	-10.0563
▁samhälls	-10.0568
▁Kommissionen	-10.0568
▁konsument	-10.0569
ies	-10.057
▁behandlas	-10.0574
tals	-10.0582
ög	-10.0582
▁rapporter	-10.0584
▁kategori	-10.0586
gripande	-10.059
▁identitet	-10.0596
▁säsongen	-10.0597
▁utfärda	-10.0598
▁väst	-10.0599
kast	-10.06
▁polisen	-10.0603
▁omfattas	-10.0611
▁minister	-10.0616
uff	-10.0622
▁infrastruktur	-10.0625
▁missa	-10.0626
gla	-10.0633
▁hemlighet	-10.0634
▁hjärnan	-10.0639
▁aktiva	-10.0642
▁lärt	-10.0643
▁Qu	-10.0644
▁skog	-10.0647
borg	-10.0653
▁America	-10.0654
▁tacksam	-10.0666
▁Plan	-10.0677
▁System	-10.0682
▁längd	-10.0682
▁laget	-10.0683
▁rese	-10.0684
▁nyckel	-10.0686
▁nåd	-10.0693
tagande	-10.0697
▁lager	-10.0699
▁internationellt	-10.0702
▁motstånd	-10.0707
▁människorna	-10.0708
▁otroligt	-10.0709
▁tyst	-10.0709
▁klinisk	-10.0712
▁Red	-10.0712
▁domstolen	-10.0715
▁utseende	-10.0718
▁samtycke	-10.0719
▁plast	-10.0723
▁kunskaper	-10.0729
▁individ	-10.0734
▁utvecklar	-10.0737
▁respektive	-10.0741
▁kommentarer	-10.0741
▁säng	-10.0741
▁gränser	-10.0742
▁belopp	-10.0743
▁valde	-10.075
▁analysera	-10.0751
▁undan	-10.0761
▁Island	-10.077
▁öppnar	-10.077
▁huvudet	-10.0771
▁hi	-10.0775
▁status	-10.0776
▁kulturell	-10.0792
▁döm	-10.0798
▁Indien	-10.0798
▁und	-10.0805
▁möjliggör	-10.0806
▁sökande	-10.0808
tru	-10.081
▁flygplats	-10.0819
▁sikt	-10.0827
▁förbered	-10.0827
Ã	-10.0827
▁bevilja	-10.0827
▁strategisk	-10.0828
▁etc	-10.083
▁kn	-10.0831
▁fäst	-10.0832
▁0,	-10.0837
▁beläg	-10.0839
▁And	-10.084
▁Mag	-10.084
▁underbar	-10.0843
▁foto	-10.0847
▁you	-10.0848
▁allmänheten	-10.0849
▁potential	-10.0857
▁Bet	-10.0857
▁tillgångar	-10.0861
▁Ex	-10.0871
▁andel	-10.0872
▁verkligheten	-10.0884
▁användaren	-10.0885
▁utbyte	-10.0886
▁Group	-10.0886
▁mänsklig	-10.0889
▁student	-10.089
▁Inget	-10.0892
systemet	-10.0893
▁avgifter	-10.0894
▁Lik	-10.0898
▁tjänsten	-10.0903
▁kasino	-10.0915
▁protein	-10.0915
nivå	-10.0931
OS	-10.0933
tryck	-10.0942
▁stjärnor	-10.0944
▁vision	-10.0944
▁tillfälle	-10.0944
▁mönster	-10.0945
▁naturligt	-10.0948
▁ramen	-10.0951
▁kille	-10.0953
avtal	-10.0953
▁därefter	-10.0956
▁behandlingen	-10.0964
▁yttr	-10.0968
ndra	-10.097
▁insatser	-10.0973
▁diskussion	-10.0974
▁Köp	-10.0975
▁övervaka	-10.0975
▁basera	-10.0994
▁sälj	-10.0998
▁Film	-10.1002
▁Båda	-10.1004
▁någonstans	-10.1005
▁ökade	-10.1006
▁Miss	-10.1013
▁tappa	-10.1015
▁utifrån	-10.1021
que	-10.1022
▁roliga	-10.1031
▁kampanj	-10.1033
▁Hy	-10.1038
givande	-10.1041
▁höger	-10.1043
▁faller	-10.1043
▁mun	-10.1052
.”	-10.106
▁registrering	-10.1064
▁kosta	-10.1068
▁celler	-10.108
▁gilla	-10.1081
▁enheten	-10.1084
▁dyk	-10.1088
kl	-10.109
▁iPhone	-10.1094
▁policy	-10.1094
▁kvinnlig	-10.1094
▁Börja	-10.1094
sikt	-10.1099
▁erfarenheter	-10.11
▁ran	-10.11
▁berättade	-10.1106
▁bransch	-10.1117
▁Före	-10.1122
▁support	-10.1124
▁moln	-10.1124
▁igår	-10.1129
▁hörde	-10.1137
▁193	-10.114
▁befolkningen	-10.114
▁dy	-10.1141
▁demokrati	-10.1147
▁mus	-10.1149
rid	-10.115
▁Pu	-10.1151
▁engagemang	-10.1154
▁garanti	-10.1154
▁volym	-10.1154
▁multi	-10.1154
▁Endast	-10.1154
▁användar	-10.1156
▁deltagare	-10.1159
▁byggnader	-10.1167
▁inled	-10.1173
▁arm	-10.1175
▁Skapa	-10.1177
▁slutar	-10.1182
▁=	-10.1184
▁symptom	-10.1184
▁kritisk	-10.1185
▁drömmar	-10.1186
▁Anna	-10.1195
▁kämpa	-10.12
▁hy	-10.121
▁batteri	-10.1211
▁pu	-10.1211
▁Något	-10.1214
▁rimlig	-10.1215
▁nation	-10.1218
▁resor	-10.1219
▁datorn	-10.1221
▁förlorar	-10.1222
ugg	-10.1229
▁nån	-10.1233
▁versionen	-10.1242
▁övervakning	-10.1245
▁snygg	-10.1245
▁framsteg	-10.1245
▁Produkt	-10.1245
▁Person	-10.1247
▁2004	-10.125
▁klaga	-10.1252
bel	-10.1254
▁lämplig	-10.1254
▁32	-10.1262
▁2,	-10.1264
▁make	-10.1275
▁databas	-10.1278
▁egendom	-10.1282
ual	-10.1285
▁jo	-10.1285
▁buss	-10.1287
▁utöva	-10.1293
företag	-10.1295
▁Ord	-10.1299
▁Afrika	-10.1306
▁tilldela	-10.1306
▁närvaro	-10.1307
▁dis	-10.1308
▁sent	-10.131
▁kurser	-10.131
pro	-10.131
ografi	-10.1314
▁sky	-10.1314
▁högst	-10.132
▁förlorade	-10.1322
▁ökat	-10.1322
▁ledde	-10.1325
ze	-10.1331
▁befolkning	-10.1331
handel	-10.1338
▁pool	-10.1342
▁Lag	-10.1342
▁dagarna	-10.1344
▁rika	-10.1346
▁vetenskapliga	-10.135
bin	-10.1351
▁skratta	-10.1354
▁maskiner	-10.1354
▁domstol	-10.1357
▁symtom	-10.1367
▁söndag	-10.1367
efter	-10.1376
▁använt	-10.1376
▁allvarliga	-10.1377
▁Art	-10.1377
▁moder	-10.1379
▁vind	-10.1384
▁gemensamt	-10.1385
▁ok	-10.1387
▁aktier	-10.139
▁kvinnan	-10.1396
▁metall	-10.1399
▁2005	-10.1403
lopp	-10.1405
▁upptäckt	-10.1405
kin	-10.1414
▁huvudsaklig	-10.1423
▁företagen	-10.1425
▁väsentlig	-10.143
▁innehållet	-10.143
▁försökte	-10.1433
▁tusentals	-10.1438
▁köpt	-10.1445
▁säljer	-10.1446
▁bord	-10.1447
ress	-10.1452
▁fu	-10.1456
▁experiment	-10.146
▁lunch	-10.146
▁konstatera	-10.146
amp	-10.1469
▁nödvändig	-10.147
▁con	-10.1476
▁härlig	-10.1476
▁aktuella	-10.1477
bok	-10.1477
ble	-10.1477
▁befintliga	-10.1479
▁vitt	-10.148
▁Mil	-10.1481
▁Kund	-10.1483
▁skillnaden	-10.1483
▁princip	-10.1488
▁diagnos	-10.1491
▁rädsla	-10.1491
▁förstärk	-10.1492
▁skärm	-10.1495
▁fylld	-10.1501
▁ch	-10.1502
▁attacker	-10.1507
grupp	-10.1507
▁Dock	-10.151
▁Mina	-10.151
atör	-10.1513
▁startade	-10.1514
▁skaffa	-10.1517
▁huden	-10.1519
ef	-10.1519
▁synnerhet	-10.1522
▁kommunicera	-10.1522
▁mjölk	-10.1526
▁gröna	-10.1528
▁stranden	-10.1528
▁närings	-10.1529
▁fartyg	-10.1534
▁kors	-10.1536
▁ägna	-10.1545
▁Väst	-10.1548
gård	-10.1548
råd	-10.1549
▁vardag	-10.1553
▁intensiv	-10.1554
▁Rätt	-10.1554
ram	-10.1556
▁Preci	-10.1556
▁Tri	-10.1566
▁dåliga	-10.1569
▁komponenter	-10.157
▁planering	-10.1576
▁Hade	-10.1577
▁brittiska	-10.1579
▁ange	-10.1583
▁Älska	-10.1585
▁skull	-10.1586
▁bilaga	-10.1587
▁3,	-10.1587
▁ögonen	-10.1593
▁godkännande	-10.1595
▁landets	-10.1602
▁ab	-10.1607
▁värden	-10.1611
▁sammanhang	-10.1617
▁sjukhus	-10.1618
▁felaktig	-10.1619
▁berör	-10.1622
▁bjud	-10.1623
▁Ham	-10.1631
OR	-10.1633
lim	-10.1634
▁IP	-10.1636
vikt	-10.1637
▁forskar	-10.1637
▁omöjligt	-10.1641
▁möjlig	-10.1642
varande	-10.1644
▁möten	-10.1645
▁glada	-10.1648
▁Twitter	-10.1648
AS	-10.1652
▁Saker	-10.1652
yss	-10.1657
▁relativt	-10.1659
▁Maria	-10.1664
▁njut	-10.1664
▁beställning	-10.1666
▁passera	-10.1666
▁locka	-10.1667
kä	-10.1668
▁Mark	-10.1673
▁tusen	-10.1681
▁stärka	-10.1681
▁produktionen	-10.1683
▁sök	-10.1685
▁stan	-10.1687
▁svåra	-10.1688
ult	-10.1692
▁kallad	-10.1695
hör	-10.1696
▁studien	-10.1697
åring	-10.1698
▁Slut	-10.1711
▁bekämpa	-10.1712
▁rekommendation	-10.1712
▁integrera	-10.1721
▁upphör	-10.1726
▁pengarna	-10.1726
▁lämpliga	-10.1726
▁frukost	-10.1744
▁tyckte	-10.1744
▁reagera	-10.1744
▁socker	-10.1745
givare	-10.1746
▁passion	-10.1749
▁överväga	-10.175
▁sektorn	-10.1756
ding	-10.1762
▁Wh	-10.1762
▁konsekvenser	-10.1767
▁toppen	-10.1771
▁använde	-10.1773
▁ering	-10.1777
▁graviditet	-10.1778
con	-10.1779
▁annars	-10.178
▁kemisk	-10.1781
▁tjänar	-10.1786
sko	-10.1789
▁besluta	-10.179
▁helhet	-10.1794
▁Mari	-10.1795
▁skiljer	-10.1798
▁nio	-10.1798
▁us	-10.1799
▁Företaget	-10.1799
▁dörren	-10.1802
▁beskriver	-10.1808
▁referens	-10.1808
▁debatt	-10.1808
▁hittills	-10.1809
▁skydds	-10.1815
▁nivån	-10.182
istisk	-10.1821
▁Hol	-10.1825
oo	-10.1831
▁respektera	-10.1832
▁total	-10.1832
ture	-10.1833
▁kär	-10.1834
▁allmän	-10.1835
uck	-10.1839
▁Business	-10.184
▁finansiera	-10.1841
▁mental	-10.1842
▁2003	-10.1846
part	-10.185
▁journalist	-10.1853
▁kamp	-10.1853
▁West	-10.1853
▁sort	-10.1854
▁torr	-10.1855
▁hittat	-10.1859
▁utvecklade	-10.1861
▁reglerna	-10.1865
▁server	-10.1868
▁Ch	-10.1871
▁majoritet	-10.1873
▁siffror	-10.1873
▁Bank	-10.1873
▁väder	-10.1874
▁försäkring	-10.1883
▁svarar	-10.1885
▁fe	-10.1885
▁tillverkare	-10.1886
▁lås	-10.1895
▁enorm	-10.1898
▁hamn	-10.1898
▁lu	-10.1904
▁upplever	-10.1906
▁Super	-10.1907
▁stads	-10.1911
▁Ed	-10.1919
▁morgonen	-10.1922
▁parter	-10.1931
ID	-10.1935
lon	-10.1937
▁kommentar	-10.1937
▁tillräcklig	-10.1939
iz	-10.1941
▁vann	-10.1948
▁öst	-10.1951
▁sträva	-10.1955
▁judar	-10.1955
▁sova	-10.1956
▁särskild	-10.1957
▁ont	-10.196
▁växande	-10.1962
▁plötsligt	-10.1963
▁minns	-10.1963
▁oroa	-10.1965
▁mode	-10.1965
▁nyhet	-10.1966
ction	-10.1967
▁godkänd	-10.1971
▁profet	-10.1971
▁betalning	-10.1977
▁negativa	-10.1987
pol	-10.1988
▁Inn	-10.1998
▁Restaurange	-10.2003
▁vaccin	-10.2003
▁äldst	-10.2003
▁åker	-10.2006
▁kraven	-10.2007
▁professionella	-10.2011
lic	-10.2016
▁oro	-10.2017
RA	-10.2017
unk	-10.202
fic	-10.2022
▁mg	-10.2031
▁dagliga	-10.2036
▁riktlinjer	-10.2036
▁frivillig	-10.2036
▁senast	-10.2037
▁rättsliga	-10.2039
▁spa	-10.204
▁tjänste	-10.2047
▁verklighet	-10.2047
▁släppa	-10.2051
▁rep	-10.2062
▁sexuell	-10.2062
▁faktor	-10.2066
▁lin	-10.2069
▁bur	-10.207
▁värdefull	-10.2071
AT	-10.2073
▁myndighet	-10.2076
▁inställningar	-10.2085
▁rest	-10.2086
▁företagets	-10.2087
▁fakta	-10.2088
plats	-10.2088
▁kunderna	-10.2092
▁planerar	-10.2095
▁grav	-10.2102
▁mångfald	-10.2102
▁löfte	-10.2102
▁kronor	-10.2102
▁bestämmer	-10.2102
▁motivera	-10.2105
ound	-10.2108
▁sitta	-10.211
▁institution	-10.211
ux	-10.2111
burg	-10.2122
▁försvara	-10.2128
▁utsatt	-10.2131
▁Tidigare	-10.2136
▁Försök	-10.2136
▁rättvisa	-10.2142
▁serien	-10.2142
▁stol	-10.2143
▁fotograf	-10.2147
▁upprätta	-10.2147
▁roman	-10.2148
▁ställen	-10.2156
▁byggde	-10.2159
▁400	-10.2163
mit	-10.2168
▁förändras	-10.2168
▁utvärdera	-10.2169
▁lösningen	-10.217
tvungen	-10.2171
▁huvudstad	-10.2172
▁finner	-10.2172
▁virus	-10.2174
▁vila	-10.2175
▁hållbarhet	-10.218
▁Col	-10.2186
▁36	-10.2191
hem	-10.2192
▁Bor	-10.2194
▁ända	-10.2197
▁dör	-10.2198
▁ör	-10.2198
▁professor	-10.2202
▁flöde	-10.2202
▁aktivera	-10.2205
▁Bland	-10.2233
▁Service	-10.2236
▁allmänt	-10.2236
▁grundades	-10.2238
▁öppnade	-10.2239
▁insats	-10.224
▁disk	-10.2245
▁bri	-10.2246
▁klipp	-10.2248
▁läsare	-10.2248
▁off	-10.2255
berg	-10.2257
▁eventuell	-10.2261
▁slog	-10.2262
▁medveten	-10.2265
▁förutom	-10.2266
▁snabba	-10.2274
▁gi	-10.2278
star	-10.2279
▁ungdomar	-10.228
▁ä	-10.228
▁gener	-10.2282
▁svarta	-10.2287
jo	-10.229
▁Sal	-10.2292
▁examen	-10.2292
▁Che	-10.2292
▁komplett	-10.2296
lek	-10.2296
▁förutsättningar	-10.2298
▁Bok	-10.23
▁Ol	-10.2302
▁betydligt	-10.2303
▁flickor	-10.2303
▁Robert	-10.2303
ath	-10.2305
ica	-10.2309
han	-10.2314
göra	-10.2318
▁försäkrings	-10.2319
▁aspekter	-10.2329
▁mm	-10.233
▁ansträngning	-10.233
▁islam	-10.233
▁röra	-10.2335
▁röda	-10.2348
▁rapportera	-10.235
▁rygg	-10.2353
▁rå	-10.2354
bas	-10.2354
▁Ann	-10.2355
▁gro	-10.2359
▁Inom	-10.236
▁fantastiskt	-10.2361
▁hav	-10.2364
▁Dit	-10.2365
▁förlorat	-10.2373
▁självklart	-10.2376
▁politisk	-10.2378
▁Ste	-10.238
▁Post	-10.2383
▁block	-10.2383
▁byte	-10.2388
▁förvärva	-10.2389
stället	-10.239
▁öl	-10.2393
▁öde	-10.2404
▁generera	-10.2404
▁Världen	-10.2405
ländsk	-10.2407
▁ekonomin	-10.2408
område	-10.2412
▁undersöka	-10.2415
lus	-10.2419
▁genomsnittlig	-10.2433
gick	-10.2436
▁Tyvärr	-10.244
▁gravid	-10.2441
▁växter	-10.2447
▁ändring	-10.2448
▁arter	-10.2453
▁innehålla	-10.2457
roll	-10.2461
▁erbjudande	-10.2468
▁kriterier	-10.2472
▁värsta	-10.2474
▁Office	-10.2474
▁Gar	-10.2477
▁fredag	-10.2479
▁komplettera	-10.2482
▁reserv	-10.2496
▁tand	-10.2505
▁samlar	-10.2505
▁värre	-10.2509
▁James	-10.2509
▁granska	-10.2511
▁Norge	-10.2511
log	-10.2523
▁talade	-10.2528
sky	-10.2536
▁traditionell	-10.254
▁Social	-10.2543
▁dating	-10.2544
hy	-10.2545
ogen	-10.2548
▁2001	-10.255
aktig	-10.2556
▁resultaten	-10.2558
▁kök	-10.2558
▁föredrar	-10.2562
▁tidiga	-10.2563
▁mitten	-10.2563
▁tät	-10.2569
nser	-10.2569
▁föreskriv	-10.2578
▁integritet	-10.2578
▁mänskligheten	-10.2578
▁universum	-10.2578
▁«	-10.2579
▁affärer	-10.2579
▁2-	-10.2579
▁Jack	-10.258
▁utöka	-10.2584
▁Klick	-10.2584
▁obe	-10.2584
▁mäta	-10.2588
▁iväg	-10.2589
▁Konst	-10.2591
punkt	-10.2597
▁diet	-10.2604
▁Amerika	-10.2612
▁atmosfär	-10.2613
▁definition	-10.2613
▁ursäkt	-10.2613
▁liga	-10.2614
▁arbetsplats	-10.2614
▁biologisk	-10.2616
vänd	-10.2618
▁stöt	-10.262
30	-10.2627
▁följde	-10.2629
▁södra	-10.2629
▁Dan	-10.263
hal	-10.2631
▁villkoren	-10.2632
▁mjuk	-10.2634
dia	-10.2637
▁avfall	-10.2638
▁mord	-10.2639
▁mängder	-10.264
▁inställning	-10.264
▁anläggningar	-10.264
▁Iran	-10.2641
▁rot	-10.2645
▁Black	-10.2647
▁missbruk	-10.2648
▁arv	-10.2651
▁gal	-10.2653
day	-10.2655
▁minut	-10.2659
wi	-10.2659
▁75	-10.266
▁log	-10.2664
▁Information	-10.2683
▁national	-10.2692
▁ringa	-10.2695
▁besöker	-10.2715
▁exklusiv	-10.2718
årig	-10.2721
▁grader	-10.2724
Du	-10.2734
iff	-10.274
▁knä	-10.2741
▁butiker	-10.275
ical	-10.2751
▁förväntas	-10.2753
▁argument	-10.2753
▁kritik	-10.2753
▁Välkommen	-10.2753
▁Obama	-10.2753
▁sjukvård	-10.2754
▁lyft	-10.2754
▁medicinska	-10.2755
▁sekunder	-10.2755
▁Åter	-10.2756
▁politiken	-10.2757
▁reser	-10.2763
▁svaret	-10.2773
▁Ku	-10.2776
▁reaktion	-10.2776
▁Kanada	-10.279
▁Master	-10.2791
▁bedriv	-10.2791
▁bröd	-10.2796
▁ändras	-10.2797
▁park	-10.2803
▁normal	-10.2804
▁jämförelse	-10.2809
gräns	-10.2816
yd	-10.2816
▁bokning	-10.2818
gas	-10.282
▁förbereda	-10.2821
▁utredning	-10.2824
▁robot	-10.2824
▁vandra	-10.2826
▁träffade	-10.2827
▁akt	-10.2833
▁Kal	-10.2835
▁Hög	-10.2841
▁upptäckte	-10.2842
▁rapporten	-10.2845
▁etablera	-10.2845
▁fond	-10.2846
rakt	-10.2848
▁attack	-10.2848
▁restauranger	-10.2849
▁tron	-10.2857
▁Institute	-10.286
▁himmel	-10.286
▁tyvärr	-10.286
▁höj	-10.2863
▁marken	-10.2863
▁glömma	-10.2864
Den	-10.2871
▁Visa	-10.2876
▁scen	-10.2886
▁förklarar	-10.2889
band	-10.2891
▁ism	-10.2892
▁Port	-10.2894
▁elektrisk	-10.2896
▁Casino	-10.2896
▁slot	-10.29
▁åtkomst	-10.29
▁närmaste	-10.2911
▁överleva	-10.2912
stått	-10.2923
▁Ur	-10.2927
zi	-10.2932
▁lördag	-10.2932
▁konsult	-10.2932
▁beräkning	-10.2932
▁spänning	-10.2935
▁vanligast	-10.294
▁politiker	-10.2942
▁gemensam	-10.2943
▁glöm	-10.2943
▁sjön	-10.2949
▁illa	-10.2951
▁Pan	-10.2957
brett	-10.2957
▁Må	-10.2965
▁tävling	-10.2966
▁utsträckning	-10.2968
▁poker	-10.297
▁takt	-10.2972
▁Tal	-10.2979
▁rid	-10.298
▁stöder	-10.2982
▁passa	-10.2985
▁!!!	-10.2985
▁sand	-10.2985
▁allting	-10.299
▁heliga	-10.2991
▁Tor	-10.2992
▁fylla	-10.2996
▁varm	-10.2997
▁synlig	-10.3002
▁tillbringa	-10.3004
▁förpackning	-10.3004
▁original	-10.3004
▁dialog	-10.3004
▁förvandla	-10.3004
.000	-10.3005
▁Kor	-10.3006
▁Time	-10.3007
▁erbjudanden	-10.301
▁lagring	-10.3011
▁urval	-10.3015
ssystem	-10.3018
▁publicerade	-10.3027
▁sist	-10.3028
▁live	-10.3028
▁kvalitets	-10.3038
▁(19	-10.3045
▁VI	-10.3047
▁upptäck	-10.3049
▁betalnings	-10.306
▁Fred	-10.3061
baserade	-10.3062
lys	-10.3064
▁jäm	-10.3065
▁fastställ	-10.3066
▁ljuset	-10.3068
Å	-10.307
kul	-10.307
konto	-10.3074
▁rike	-10.3074
▁Syftet	-10.3077
▁permanent	-10.3077
▁satte	-10.3079
▁Lägg	-10.3081
▁tak	-10.3081
▁fötter	-10.3085
▁lämpligt	-10.3086
▁grå	-10.3086
▁inrätta	-10.309
▁Bre	-10.3095
▁tekniken	-10.3102
▁låga	-10.3102
▁bror	-10.3111
▁avlägsna	-10.3114
▁maximal	-10.3114
▁hänvisa	-10.3114
▁konstruktion	-10.3114
tagning	-10.3126
▁generation	-10.3126
▁varken	-10.3135
▁förbund	-10.3137
▁klä	-10.3143
ägare	-10.3144
kal	-10.3145
▁variera	-10.3145
▁Dagen	-10.3146
ness	-10.3149
▁Ly	-10.3149
▁upprätthålla	-10.315
▁150	-10.3153
▁not	-10.3154
▁elever	-10.3155
▁Fu	-10.3157
▁behovet	-10.3169
▁hotellet	-10.3174
dera	-10.3174
▁gemenskapen	-10.3176
ON	-10.3178
11	-10.3181
▁medlemsstater	-10.3185
▁Em	-10.3187
▁Hjälp	-10.3187
▁beredd	-10.3188
▁satsa	-10.3188
▁deltagande	-10.3196
▁PC	-10.3198
▁Bil	-10.3199
▁uppmärksamma	-10.3199
▁förfaranden	-10.3199
▁medicinsk	-10.32
▁album	-10.3203
samhet	-10.3205
▁berättelse	-10.3207
▁delvis	-10.3212
ino	-10.3218
▁depression	-10.3224
▁Danmark	-10.3225
▁sällan	-10.3225
▁olaglig	-10.3225
▁präst	-10.3225
▁Lite	-10.323
▁vinner	-10.323
▁driver	-10.3244
tagit	-10.3247
▁Pol	-10.3253
▁ci	-10.3257
syn	-10.326
▁Android	-10.3262
▁Syrien	-10.3262
▁Online	-10.3262
delning	-10.3263
▁Home	-10.3271
▁styra	-10.3273
▁One	-10.3274
▁genomsnitt	-10.3277
▁omfatta	-10.3279
▁Exp	-10.3281
▁säkerheten	-10.3284
▁enklare	-10.3285
▁rak	-10.3286
▁affär	-10.329
▁Pat	-10.3293
▁herr	-10.3293
▁varmt	-10.3298
▁sub	-10.3298
▁flagg	-10.3299
allt	-10.3304
▁Hej	-10.3311
▁Data	-10.3314
▁Inter	-10.3314
▁byggt	-10.3319
▁idrott	-10.3326
▁katastrof	-10.3336
▁syster	-10.3337
▁plocka	-10.3337
▁Glöm	-10.3338
▁frekvens	-10.3341
line	-10.3347
▁Visst	-10.3347
▁Fil	-10.3352
▁33	-10.3366
▁lyckade	-10.3367
▁mån	-10.3369
▁export	-10.337
▁out	-10.3371
▁1:	-10.3374
▁Bitcoin	-10.3374
▁Global	-10.3374
▁Michael	-10.3374
▁efterfrågan	-10.3375
▁investerare	-10.338
▁erbjuds	-10.3382
▁ekonomiskt	-10.3389
hä	-10.3389
▁orden	-10.3392
▁mask	-10.3397
▁Herre	-10.3397
▁Fin	-10.3403
▁institutioner	-10.341
▁utvärdering	-10.3412
▁Författare	-10.3412
▁mängden	-10.3413
▁bevisa	-10.3437
oid	-10.3441
oc	-10.3442
▁hälsosam	-10.3445
▁sprid	-10.3447
▁huruvida	-10.345
▁show	-10.345
▁lider	-10.3455
▁bibliotek	-10.3457
▁vä	-10.3461
▁forum	-10.3463
▁Sw	-10.3463
▁gre	-10.3467
▁släppt	-10.3468
▁platt	-10.3469
▁orsak	-10.3476
▁datorer	-10.3477
old	-10.3479
▁gifta	-10.3487
▁[+]	-10.3488
▁administrativ	-10.3488
▁församling	-10.3488
▁minskning	-10.3489
▁4,	-10.3491
▁Studie	-10.3495
▁relevant	-10.3496
▁hemmet	-10.3496
▁Mus	-10.3497
press	-10.3503
▁lansera	-10.3506
▁chansen	-10.3507
▁fann	-10.3509
▁styrelse	-10.3516
mil	-10.3516
▁partiet	-10.3519
▁mod	-10.3521
▁gul	-10.3524
▁Turkiet	-10.3526
▁övrigt	-10.3526
▁lögn	-10.3526
▁skriftlig	-10.353
▁Ve	-10.3534
▁konflikt	-10.3539
▁fint	-10.354
▁Sky	-10.3549
▁strukturer	-10.3549
▁undersök	-10.3558
▁nerv	-10.3562
▁Skriv	-10.3564
▁blommor	-10.3564
▁vinster	-10.3568
▁Bill	-10.3568
▁(2	-10.3574
▁stål	-10.3574
mera	-10.3576
▁tacka	-10.3584
▁orsaken	-10.3585
▁tull	-10.3587
▁butik	-10.3596
▁Natur	-10.3597
▁personlighet	-10.3598
▁mötet	-10.3598
▁gåva	-10.3599
50	-10.36
▁människo	-10.3601
▁kontinuerlig	-10.3602
▁försäkra	-10.3602
▁Design	-10.3603
▁släkt	-10.3603
▁räcker	-10.3603
▁måndag	-10.3603
▁hushåll	-10.3608
▁Martin	-10.3609
▁djupt	-10.3616
▁hyra	-10.3624
▁tillgängligt	-10.3627
▁välj	-10.363
▁37	-10.363
▁tanken	-10.3634
▁förväntningar	-10.3641
▁yngre	-10.3641
▁olje	-10.3641
döme	-10.3644
▁föregående	-10.3646
▁mej	-10.3654
cha	-10.3659
▁hörn	-10.3662
▁God	-10.3663
▁meddelanden	-10.3671
▁patient	-10.3673
▁dagligen	-10.3675
▁övergång	-10.3677
▁giltig	-10.368
▁hinder	-10.368
▁Alltså	-10.368
▁medvetna	-10.368
▁återvända	-10.3684
▁tänder	-10.3684
▁Mont	-10.3685
▁blandning	-10.3687
▁ansluta	-10.3691
▁Stat	-10.3695
▁tuff	-10.3695
▁avancerade	-10.37
▁bod	-10.3701
▁mikro	-10.3701
▁ordna	-10.3703
▁Mc	-10.3703
▁typisk	-10.3703
▁rena	-10.3704
▁tillfällen	-10.3705
▁funktionen	-10.3705
▁Sådan	-10.371
▁innovativa	-10.3714
marknad	-10.3714
▁seger	-10.3716
▁hjul	-10.3719
▁spanska	-10.3722
▁demokratisk	-10.3727
▁spelaren	-10.3733
▁Van	-10.3734
▁kämpar	-10.3737
▁Ag	-10.3737
fråga	-10.3737
jon	-10.3739
▁underbara	-10.3747
djur	-10.3754
▁Israels	-10.3756
▁Stra	-10.3757
ob	-10.3757
▁förtjänar	-10.3758
▁resolution	-10.3758
▁strategier	-10.3763
▁slav	-10.3768
▁EN	-10.377
▁smart	-10.3771
▁orolig	-10.3777
▁gäst	-10.3781
▁vinnare	-10.3783
▁34	-10.3788
▁bro	-10.3792
SA	-10.3794
bolag	-10.3797
▁Bibeln	-10.3797
▁Besök	-10.3797
▁makten	-10.38
▁inköp	-10.3802
▁förvärv	-10.3819
▁smarta	-10.3825
▁1)	-10.3832
▁låtar	-10.3833
▁Göteborg	-10.3836
▁Kvinnor	-10.3836
▁ledarskap	-10.3837
▁samarbeta	-10.3841
▁festival	-10.3842
cker	-10.3844
low	-10.3844
▁inflytande	-10.3845
▁intresserade	-10.3847
▁isera	-10.3852
▁Bur	-10.3854
▁botten	-10.3858
▁mal	-10.386
▁48	-10.3861
▁Tu	-10.3862
ansk	-10.3863
▁Test	-10.3871
▁framgångsrika	-10.3875
▁involvera	-10.3876
▁hormon	-10.3877
▁utomhus	-10.3877
▁dimension	-10.3877
▁com	-10.3881
▁knappt	-10.3891
▁Bild	-10.3896
▁kamera	-10.3903
▁cha	-10.3905
▁månaden	-10.3906
▁hård	-10.3908
▁yta	-10.3909
▁starkare	-10.3911
person	-10.3914
cin	-10.3915
▁överföra	-10.3919
▁desto	-10.3925
▁Ke	-10.3931
▁boka	-10.3932
▁farliga	-10.3933
▁odla	-10.3934
▁styrelsen	-10.3934
▁bestämt	-10.3945
▁läste	-10.3946
▁teckna	-10.3951
▁rop	-10.3952
▁bröst	-10.3955
▁japansk	-10.3956
▁lidande	-10.3956
▁Hennes	-10.3956
▁Både	-10.3956
▁Bon	-10.3957
▁förmågan	-10.3958
▁underteckna	-10.3966
▁infektion	-10.397
▁livsmedels	-10.3971
▁klockan	-10.3982
kraft	-10.3988
▁äkta	-10.3996
▁räkning	-10.3996
▁universitetet	-10.3996
▁funnits	-10.3998
ägg	-10.4
▁berömda	-10.4002
▁vinter	-10.4005
▁kostnaderna	-10.4008
▁Bas	-10.4013
▁Las	-10.4013
▁hästar	-10.4013
▁Win	-10.4019
12	-10.4021
▁sprida	-10.4027
▁fullständigt	-10.4029
▁arbetade	-10.4032
▁Sveriges	-10.4034
▁representant	-10.4036
▁vistelse	-10.4036
▁födelsedag	-10.4036
▁eleverna	-10.4038
▁flygplan	-10.4039
▁judisk	-10.4043
▁urin	-10.4045
▁europeisk	-10.4053
▁gränsen	-10.4053
▁Eli	-10.4053
▁King	-10.4054
då	-10.4054
rör	-10.4057
▁fokuserar	-10.4059
reg	-10.4059
▁kommunikations	-10.4064
illsammans	-10.4065
▁blick	-10.407
▁primär	-10.4076
▁muskler	-10.4076
▁Kolla	-10.4076
▁uppsättning	-10.4086
▁beställ	-10.4086
▁general	-10.4088
De	-10.4097
▁ingredienser	-10.4097
▁positivt	-10.4099
▁stra	-10.41
40	-10.41
▁skrift	-10.4112
▁Fram	-10.4115
▁livsstil	-10.4116
▁prestation	-10.4117
▁sträng	-10.4118
▁aktörer	-10.4119
▁mått	-10.4129
vor	-10.413
▁beslutet	-10.4131
▁stopp	-10.4132
▁skillnader	-10.4138
▁gam	-10.4138
▁fara	-10.4148
▁dyra	-10.4154
▁utställning	-10.4157
▁Land	-10.4157
▁inspiration	-10.4157
ü	-10.4157
▁operatör	-10.4157
▁Dra	-10.4157
▁förekommer	-10.4158
▁cent	-10.417
▁däck	-10.4181
▁Auto	-10.4188
▁Rik	-10.4191
▁investering	-10.4195
▁advokat	-10.4198
▁Huvud	-10.4198
▁introducera	-10.4198
snitt	-10.421
▁dödade	-10.4213
▁tillfället	-10.4213
▁krigs	-10.4224
▁Bilder	-10.4232
▁fulla	-10.4233
▁Uni	-10.4235
▁praxis	-10.4239
▁vuxen	-10.4239
▁banker	-10.4241
▁Lind	-10.4249
▁plus	-10.4251
▁översättning	-10.4251
▁kopp	-10.4251
▁Au	-10.4254
fu	-10.4255
▁filosofi	-10.4256
▁generell	-10.4257
▁texten	-10.4258
▁stater	-10.4259
▁99	-10.4259
▁begränsningar	-10.426
▁Hill	-10.4262
▁sjukdomen	-10.4264
▁Liv	-10.4267
▁tung	-10.4268
&	-10.4278
▁On	-10.4278
▁Management	-10.428
▁invånare	-10.428
▁George	-10.428
▁Särskil	-10.4281
▁tendera	-10.4281
▁Pla	-10.4283
▁föreslår	-10.4285
▁tabell	-10.4286
▁likna	-10.4292
▁Sko	-10.4295
▁krafter	-10.4298
åste	-10.4298
▁klubb	-10.4306
▁mobila	-10.4306
▁rymd	-10.4308
▁kommittén	-10.4318
»	-10.4319
▁möbler	-10.4321
▁kapitel	-10.4321
▁pojke	-10.4321
▁bekant	-10.4321
▁Asien	-10.4322
▁spelarna	-10.4323
▁tillåta	-10.4326
▁lukt	-10.4326
▁fiende	-10.4331
▁diabetes	-10.4331
▁äga	-10.4335
▁Play	-10.4335
cle	-10.4342
▁patienten	-10.4342
▁frisk	-10.4345
▁bedöm	-10.4347
▁räknas	-10.4347
▁trend	-10.4351
▁uppenbara	-10.4353
▁psykisk	-10.4353
▁beskriva	-10.4354
▁lärande	-10.4356
don	-10.4362
▁koncentration	-10.4363
▁fixa	-10.4365
▁normala	-10.4365
▁förneka	-10.4371
▁versioner	-10.4372
▁länkar	-10.4373
▁Egypten	-10.4374
por	-10.4375
▁ligga	-10.4377
▁Lan	-10.4378
▁salt	-10.4381
▁kandidat	-10.4384
▁viktigare	-10.4394
▁lyssnar	-10.4401
▁revolutionen	-10.4403
▁fattiga	-10.4404
▁Washington	-10.4405
▁distribution	-10.4405
allra	-10.4422
▁kontroller	-10.4422
▁allvarligt	-10.4425
▁kvaliteten	-10.4429
▁arbetare	-10.4429
▁motiv	-10.443
▁koncernen	-10.4433
jan	-10.4434
▁längst	-10.4434
▁effekten	-10.4434
▁föd	-10.444
▁William	-10.4446
▁förflutna	-10.4446
▁klient	-10.4446
▁oerhör	-10.4446
▁högskol	-10.4447
▁Ofta	-10.4448
▁pump	-10.445
löst	-10.4454
ush	-10.4454
▁present	-10.4462
▁överlev	-10.4463
▁Kung	-10.4464
▁kraftfull	-10.4464
▁växte	-10.4465
▁språket	-10.4469
▁transaktioner	-10.4469
▁låna	-10.4472
▁State	-10.4474
▁ungdom	-10.4479
▁färd	-10.4479
▁våga	-10.448
▁center	-10.4483
▁killar	-10.4489
▁Pass	-10.4489
▁samhällen	-10.4491
▁ämnet	-10.4492
▁fader	-10.4494
▁Ac	-10.4496
▁globalt	-10.4505
▁mass	-10.4507
▁ved	-10.4511
▁flyttade	-10.4524
▁Företag	-10.4526
▁stänga	-10.4529
▁överenskommelse	-10.4531
▁republik	-10.4531
▁fåglar	-10.4531
▁Max	-10.4532
▁hemlig	-10.4534
EL	-10.4537
▁försäljnings	-10.4539
▁planen	-10.454
▁2:	-10.4543
▁akademisk	-10.4544
▁samlas	-10.4546
▁jakt	-10.4546
▁historisk	-10.4556
LL	-10.456
▁frö	-10.4566
▁Far	-10.4571
▁således	-10.4573
▁dominera	-10.4575
▁känslan	-10.4575
▁uppfatta	-10.4575
▁jordbruk	-10.4577
▁ade	-10.4578
▁95	-10.4581
▁mörka	-10.459
▁Sex	-10.4599
syra	-10.46
▁Led	-10.4601
▁Ob	-10.4608
PA	-10.4609
▁Åh	-10.4609
▁observera	-10.4615
▁Forskning	-10.4616
▁Nä	-10.4623
▁händerna	-10.4631
▁Öst	-10.4631
row	-10.4631
▁dödlig	-10.4634
läge	-10.4638
▁mörda	-10.4646
▁up	-10.4651
▁standarder	-10.4652
▁bedöma	-10.4654
▁grann	-10.4654
▁tränings	-10.4657
▁hatar	-10.4658
▁partners	-10.466
station	-10.4661
▁markera	-10.4664
▁tum	-10.4665
ney	-10.4671
▁korta	-10.4691
▁frid	-10.4695
▁påminn	-10.4695
▁Trans	-10.4698
▁192	-10.4699
▁laglig	-10.4701
▁omvandla	-10.4701
▁muskel	-10.4702
▁nöje	-10.4704
▁kall	-10.4705
▁investerings	-10.4705
▁Flyg	-10.4709
▁2002	-10.471
▁blind	-10.4726
▁blad	-10.4734
▁startar	-10.4734
oni	-10.4738
▁Medlemsstater	-10.4744
▁berättiga	-10.4744
▁täcka	-10.4748
▁nord	-10.4749
▁Adam	-10.4749
▁röd	-10.4753
▁tjejer	-10.4759
▁biljett	-10.4767
▁pågår	-10.4776
▁erkänna	-10.4777
▁39	-10.4777
▁cy	-10.4778
▁blockera	-10.478
▁våg	-10.4786
▁tvätta	-10.4786
▁onda	-10.4786
▁Grekland	-10.4788
▁mekanism	-10.4788
▁protokoll	-10.4788
▁Amazon	-10.4788
▁okej	-10.4788
▁skott	-10.479
▁pla	-10.4791
▁Bay	-10.4793
▁rättvis	-10.4796
fund	-10.4799
▁denne	-10.4799
▁instruktioner	-10.4802
▁termin	-10.4805
▁MS	-10.4807
▁signal	-10.4819
▁sökning	-10.482
tagare	-10.482
▁vägra	-10.482
▁kommersiella	-10.4827
▁religiösa	-10.483
▁Central	-10.4831
▁konsert	-10.4831
▁helvete	-10.4831
▁täcker	-10.4832
▁inbjud	-10.4837
▁Sun	-10.484
▁peka	-10.4841
hl	-10.4844
▁havs	-10.4847
▁last	-10.4851
pati	-10.4852
▁brut	-10.486
▁Säg	-10.486
▁kategorier	-10.4861
▁upplevelser	-10.4863
▁Artikel	-10.4875
▁exponering	-10.4875
▁vunnit	-10.4875
▁School	-10.4875
▁anpassning	-10.4875
▁ångest	-10.4876
▁kok	-10.4883
rap	-10.4886
▁värderingar	-10.4891
▁North	-10.4892
▁kostnaden	-10.4893
ware	-10.4896
▁undervisa	-10.4897
ept	-10.4902
▁anställning	-10.4903
▁bröder	-10.4913
▁köpare	-10.4917
▁Självklart	-10.4919
▁Bolaget	-10.4919
▁utomlands	-10.4919
▁konkurrenskraft	-10.4919
▁Irak	-10.492
▁röster	-10.492
side	-10.492
▁skärmen	-10.4926
▁resurs	-10.4926
▁fans	-10.4927
▁appar	-10.4933
▁rörelsen	-10.4941
▁®	-10.4943
▁38	-10.4951
▁förordningen	-10.4957
SS	-10.4958
▁bilderna	-10.496
▁praktiska	-10.4961
▁drygt	-10.4963
▁besvär	-10.4963
kro	-10.4963
▁järnväg	-10.4963
ich	-10.4964
▁65	-10.4964
▁åtagande	-10.4965
▁rykte	-10.4965
▁modul	-10.4966
▁stick	-10.4968
▁förfarande	-10.4968
▁ac	-10.4972
▁strömm	-10.4973
▁vetenskaplig	-10.4975
▁begrepp	-10.4976
▁avsedda	-10.4979
AC	-10.4979
▁hjärtan	-10.4986
▁åsikter	-10.4988
▁svårare	-10.499
▁produkterna	-10.4991
▁lade	-10.4993
▁femte	-10.5007
▁pålitlig	-10.5007
play	-10.5008
▁hustru	-10.501
▁återställa	-10.5013
▁påverkan	-10.5017
▁punkter	-10.5027
▁anmäla	-10.503
▁luften	-10.5034
lick	-10.5036
▁strål	-10.5038
▁vittne	-10.504
▁Carl	-10.5042
▁politiskt	-10.5042
▁självständig	-10.5046
▁ST	-10.5047
▁industriell	-10.505
_	-10.5051
▁försvinner	-10.5051
▁muslimer	-10.5051
▁inverkan	-10.5051
▁kilometer	-10.5051
▁patent	-10.5051
▁immun	-10.5052
▁varierar	-10.5052
▁lyckats	-10.5057
▁påverkas	-10.5061
▁födelse	-10.5063
▁She	-10.5064
▁representera	-10.5066
▁märkt	-10.5066
▁drabbade	-10.5066
åriga	-10.507
▁magisk	-10.5071
▁Gen	-10.5071
▁insikt	-10.5074
▁anmäl	-10.5077
▁koppling	-10.5078
▁långsiktig	-10.5088
▁använd	-10.5089
▁applikationer	-10.509
▁hamna	-10.5092
▁spåra	-10.5094
▁sovrum	-10.5096
▁optimal	-10.5096
▁världskriget	-10.5096
▁ytterst	-10.5096
▁utländska	-10.5096
▁fattigdom	-10.5096
▁bebis	-10.5096
process	-10.5096
▁dölj	-10.5098
▁anledningar	-10.5106
▁spin	-10.5107
▁sanna	-10.5108
▁uppgifterna	-10.5108
▁Gl	-10.5109
▁insättning	-10.5112
▁rörelser	-10.5113
▁undersökningar	-10.5116
▁Tour	-10.5121
▁direktör	-10.5122
▁Gre	-10.5124
▁helgen	-10.5127
▁strand	-10.5137
▁House	-10.5141
▁unions	-10.5141
▁badrum	-10.5143
▁arkitektur	-10.5143
▁dam	-10.5143
▁noga	-10.5144
▁antik	-10.5145
▁skala	-10.5147
▁100%	-10.5148
qui	-10.5149
▁skit	-10.5157
▁kameran	-10.5157
▁jämföra	-10.5159
▁hor	-10.5171
▁Vikt	-10.5172
▁import	-10.5173
▁nätverket	-10.5173
▁ort	-10.5175
CC	-10.5175
▁elektronisk	-10.5177
▁automat	-10.5181
▁specialisera	-10.5181
▁effekterna	-10.5185
▁shopping	-10.5186
▁tolka	-10.5187
▁Föregående	-10.5187
▁bomb	-10.5191
▁satsning	-10.5194
▁Män	-10.52
▁regioner	-10.5202
▁hamnar	-10.5205
▁Sh	-10.5205
▁hunden	-10.5206
lem	-10.5213
▁förstöra	-10.5214
▁rock	-10.5218
▁zon	-10.522
erry	-10.5224
▁svag	-10.5224
▁Act	-10.5224
▁ve	-10.5228
ryck	-10.5228
▁bestämde	-10.5231
▁Street	-10.5231
AD	-10.5232
▁klänning	-10.5233
▁kristen	-10.5234
▁Don	-10.5235
▁jämn	-10.5241
▁ndet	-10.5247
▁sug	-10.5249
▁sängen	-10.525
▁Wal	-10.5253
ji	-10.5256
▁användes	-10.5258
▁saknas	-10.5264
En	-10.5266
▁Trä	-10.5271
▁socialt	-10.5274
▁stärk	-10.5275
▁Observera	-10.5277
▁föll	-10.5277
▁formen	-10.5281
▁dörrar	-10.5283
▁gjorda	-10.5283
▁klarar	-10.5284
▁slutade	-10.5295
▁behandlingar	-10.5295
tack	-10.5307
rådet	-10.5311
▁höja	-10.5313
▁jordbruks	-10.5318
▁doktor	-10.5319
▁noggrant	-10.5322
▁okänd	-10.5322
▁schema	-10.5323
▁|	-10.5324
▁löst	-10.5334
▁Ande	-10.5339
▁maten	-10.5343
▁600	-10.5348
▁handen	-10.5356
▁Sand	-10.5362
▁bordet	-10.5363
▁tunga	-10.5363
▁linjer	-10.5365
▁begära	-10.5367
▁intäkter	-10.5368
▁mobiltelefon	-10.5368
▁destination	-10.5368
▁Invest	-10.5368
▁lät	-10.5374
▁Frågan	-10.5381
▁förbättring	-10.5385
▁ränta	-10.5387
▁VD	-10.5398
▁representerar	-10.5399
läggning	-10.54
skapet	-10.5402
▁arbetsgivare	-10.5413
▁gruv	-10.5414
▁Shi	-10.5415
▁tänk	-10.5416
▁gym	-10.5416
▁Green	-10.5426
▁gu	-10.5427
▁sorter	-10.5428
▁fågel	-10.544
▁specialist	-10.5442
▁människans	-10.5449
väl	-10.5455
▁Program	-10.546
▁läget	-10.5468
abel	-10.5469
▁dikt	-10.5472
▁Alex	-10.5474
gift	-10.548
▁Wall	-10.5484
stin	-10.5484
▁Brit	-10.5485
▁årliga	-10.5493
▁avsikt	-10.5496
▁konventionen	-10.5497
LA	-10.5504
mission	-10.5507
▁Daniel	-10.5507
▁överraska	-10.5507
▁Game	-10.5508
hoppningsvis	-10.5508
▁kanaler	-10.5509
▁männen	-10.551
▁hall	-10.5512
▁ansvariga	-10.5518
▁stimulera	-10.553
gått	-10.553
▁vitamin	-10.5531
▁bakterier	-10.5531
▁skadade	-10.5532
▁hjärn	-10.5534
pu	-10.5541
▁titel	-10.5547
▁dej	-10.5549
▁Barcelona	-10.5554
▁Faktum	-10.5554
▁lösenord	-10.5554
▁gudomlig	-10.5554
▁kampen	-10.5554
▁variant	-10.5556
▁Musik	-10.5557
▁medvetenhet	-10.5561
▁trygghet	-10.5563
östra	-10.5566
▁US	-10.557
▁frakt	-10.5573
▁sann	-10.5576
▁PS	-10.5582
▁accepterar	-10.5582
▁lig	-10.5586
▁stannar	-10.5589
▁torka	-10.5596
▁eftermiddag	-10.5601
▁1990	-10.5601
▁ombord	-10.5601
▁springa	-10.5601
▁Volvo	-10.5601
▁dvs	-10.5603
▁5-	-10.5603
▁presentation	-10.5605
▁positioner	-10.5607
▁författaren	-10.5622
▁spelat	-10.5625
▁andas	-10.5631
vida	-10.5633
stol	-10.5639
▁Matt	-10.5643
▁partnerskap	-10.5645
hol	-10.5646
▁integration	-10.5648
▁55	-10.5649
▁träffar	-10.5659
▁dal	-10.566
▁flyktingar	-10.5663
▁vintern	-10.5665
CA	-10.5667
▁övning	-10.567
▁3:	-10.567
▁neuro	-10.5673
▁följ	-10.5674
▁klassiska	-10.5674
▁unikt	-10.5676
▁justera	-10.5677
▁Live	-10.5694
▁fenomen	-10.5695
▁påbörja	-10.5695
▁sällsynt	-10.5695
▁färre	-10.5695
▁berättelser	-10.5696
▁Titta	-10.5698
▁torn	-10.57
▁Dig	-10.5703
▁2)	-10.5704
▁läck	-10.5705
▁skyddar	-10.5707
▁Hos	-10.5715
▁floden	-10.5722
▁förmån	-10.5726
▁förväg	-10.5738
▁South	-10.5743
▁åkte	-10.5743
▁medvetande	-10.5743
▁sensor	-10.5743
▁sända	-10.5743
▁genetisk	-10.5744
▁materialet	-10.5744
▁stam	-10.5749
▁ob	-10.5749
▁formulär	-10.5751
▁deltar	-10.5752
▁elektroniska	-10.5752
▁Gold	-10.5756
iserad	-10.5757
▁OS	-10.5757
▁faktisk	-10.5757
▁klubben	-10.5759
▁42	-10.5766
▁innefatta	-10.5767
▁modellen	-10.5769
▁koloni	-10.5769
▁terrorist	-10.5772
▁kreativa	-10.5777
▁tester	-10.5784
die	-10.5789
▁Exempel	-10.5791
▁event	-10.5791
▁signaler	-10.5791
▁lett	-10.5792
▁fångar	-10.5792
▁förmedla	-10.5796
▁kärleken	-10.5796
▁reaktioner	-10.5808
▁existerar	-10.5816
▁arg	-10.5816
▁ansök	-10.5829
▁Tyck	-10.5829
▁Christ	-10.5836
bro	-10.5838
▁avgöra	-10.5838
▁Kontakt	-10.5839
▁dynamisk	-10.5839
▁olycka	-10.5839
▁register	-10.5839
▁utöver	-10.5839
▁sch	-10.5843
stid	-10.5853
▁skilja	-10.5853
▁koll	-10.5856
▁hållet	-10.5859
▁hanterar	-10.5859
bol	-10.5867
▁betalningar	-10.5874
AM	-10.5876
▁Web	-10.588
▁Day	-10.5881
▁reglering	-10.5881
▁sorg	-10.5882
▁soldater	-10.5887
▁Spel	-10.5887
▁elektro	-10.5887
▁godkänt	-10.5887
▁virtuell	-10.5887
▁Power	-10.5887
▁teater	-10.5887
▁vackert	-10.5887
▁Programmet	-10.5888
▁skickade	-10.5891
▁we	-10.5893
▁hundratal	-10.5893
▁tillsyn	-10.5894
▁summa	-10.5899
ius	-10.5903
▁gren	-10.5903
▁framgångsrik	-10.5905
▁skyldighet	-10.5906
▁flertal	-10.5906
able	-10.5911
▁existera	-10.5911
▁uppträd	-10.5916
▁knapp	-10.5919
▁intressanta	-10.5929
▁byrå	-10.5932
räd	-10.5933
á	-10.5936
▁smidig	-10.5936
▁svårigheter	-10.5936
▁ingenjör	-10.5936
▁självmord	-10.5936
▁golf	-10.5937
▁gjord	-10.5937
▁förhandlingar	-10.5939
▁panel	-10.5941
▁Lev	-10.5942
▁skepp	-10.5944
▁intern	-10.5944
▁belysning	-10.5944
▁mottagare	-10.5945
▁ation	-10.5947
▁tvätt	-10.5949
▁framställ	-10.5961
▁kroppar	-10.5963
▁låten	-10.5972
▁byggnaden	-10.5974
▁stycken	-10.5979
▁Fem	-10.598
▁bloggen	-10.5982
▁beröm	-10.5982
▁dryck	-10.5982
▁1999	-10.5984
▁kreditkort	-10.5986
▁grej	-10.5994
▁fältet	-10.5998
chi	-10.6
▁tillgänglighet	-10.6
▁försvar	-10.6001
märke	-10.6003
▁noll	-10.6008
▁glömt	-10.6013
▁uppdatering	-10.6015
▁hota	-10.6015
▁pan	-10.6019
▁Antal	-10.6023
▁skyldigheter	-10.6024
▁kraftigt	-10.6026
▁moralisk	-10.6028
▁PR	-10.6029
▁ikväll	-10.603
▁Jerusalem	-10.6033
▁ekologisk	-10.6033
▁jävla	-10.6033
▁konsumtion	-10.6033
▁söder	-10.6034
▁kedja	-10.6034
▁CD	-10.6038
­	-10.6039
▁väggar	-10.6039
▁flu	-10.6041
▁vänskap	-10.6042
▁bostads	-10.6045
▁utgång	-10.6045
▁vikten	-10.6049
▁Kort	-10.6054
▁tänkande	-10.6054
▁terapi	-10.6054
▁Anti	-10.6055
▁Kristi	-10.6056
stre	-10.6058
▁motsats	-10.6063
på	-10.6064
teckna	-10.6074
▁tillfällig	-10.6078
▁tolkning	-10.6083
▁figur	-10.6083
▁attraktiv	-10.6083
▁gatan	-10.6083
▁tjock	-10.6083
▁redovisning	-10.6083
▁inneha	-10.6089
▁Total	-10.6092
IT	-10.6099
▁Grand	-10.61
▁fysiskt	-10.6105
▁biljetter	-10.6106
näs	-10.611
▁Livet	-10.611
▁By	-10.6116
▁revolution	-10.613
▁Syn	-10.6131
▁hjärna	-10.6131
▁radera	-10.6132
▁annons	-10.6132
▁Kärlek	-10.6132
▁Webbplats	-10.6132
▁Kalifornien	-10.6132
▁biverkningar	-10.6132
▁återförsäljare	-10.6132
▁arkiv	-10.6132
▁Mamma	-10.6133
▁Johan	-10.6134
▁kommersiell	-10.6138
▁säkerställ	-10.6138
▁skådespelare	-10.6143
▁miljöer	-10.6144
▁hals	-10.6147
▁försökt	-10.6151
▁tvist	-10.6153
▁gräs	-10.6156
▁medverka	-10.6158
▁region	-10.616
▁Spe	-10.6164
▁övertyga	-10.6167
▁följt	-10.6168
▁friska	-10.6171
▁Rock	-10.6177
tterligare	-10.6181
▁kongress	-10.6182
▁tålamod	-10.6182
▁sönder	-10.6182
▁konstruera	-10.6182
▁uppstå	-10.6184
▁slutföra	-10.6186
byggnad	-10.6188
▁gäng	-10.6196
TT	-10.62
ED	-10.6207
ledande	-10.6208
▁designer	-10.6216
▁marin	-10.6216
▁allvar	-10.6218
▁personalen	-10.6218
▁råder	-10.622
▁lovar	-10.6223
▁storm	-10.6228
▁syd	-10.6231
▁konkret	-10.6232
▁misslyckas	-10.6232
▁Övrig	-10.6232
▁fruktansvär	-10.6232
▁Jorden	-10.6232
▁erkänd	-10.6234
▁webbläsare	-10.6235
▁metoden	-10.6235
▁fritid	-10.6239
född	-10.624
▁sexuella	-10.6247
ison	-10.6248
▁troligt	-10.6249
▁skogen	-10.625
▁Vo	-10.6251
▁AI	-10.6254
▁transaktion	-10.6255
▁Allah	-10.6261
▁passagerare	-10.6264
▁(1)	-10.6264
ford	-10.6265
▁järn	-10.6267
fatt	-10.6277
▁foton	-10.6279
▁Museum	-10.6282
▁akut	-10.6283
▁dejting	-10.6283
▁genomförande	-10.6286
ÄR	-10.6288
▁Juli	-10.6289
▁finansiell	-10.629
▁samlade	-10.6297
▁flygplatsen	-10.6299
▁helig	-10.631
bit	-10.6312
▁fastställs	-10.6317
▁Ali	-10.6317
▁1000	-10.6318
▁Polen	-10.6319
▁omgivning	-10.6321
▁varumärken	-10.6322
MA	-10.6323
▁kvinnorna	-10.6328
▁gynna	-10.6333
▁italienska	-10.6333
▁förklarade	-10.6335
▁bryter	-10.6335
▁utförs	-10.6338
▁antar	-10.6345
▁pop	-10.6346
▁bloggar	-10.6347
▁staterna	-10.6349
▁spridning	-10.635
▁lust	-10.6355
▁hösten	-10.6364
▁tillförlitlig	-10.6365
▁svär	-10.6367
varu	-10.6373
▁minnen	-10.6377
▁noggrann	-10.6383
▁tablett	-10.6384
▁kontant	-10.6384
▁tunn	-10.6384
▁bearbeta	-10.6385
▁imorgon	-10.6395
▁190	-10.6403
alitet	-10.6405
▁intryck	-10.641
meter	-10.6413
▁box	-10.6413
▁;)	-10.6415
▁användarna	-10.6417
▁64	-10.6417
▁Svenska	-10.6429
▁kyrka	-10.6432
14	-10.6432
▁Science	-10.6434
▁tycks	-10.6435
▁behörighet	-10.6437
IG	-10.6437
▁Sara	-10.644
▁misstänkt	-10.6441
▁samarbetet	-10.6448
▁utmana	-10.6448
▁kvartalet	-10.6449
▁3-	-10.645
ändig	-10.6454
▁isering	-10.6463
▁Sport	-10.6463
▁gent	-10.6464
▁parterna	-10.6464
▁Op	-10.6467
vinn	-10.6469
▁röka	-10.647
trä	-10.6476
▁månaderna	-10.6479
▁bedrägeri	-10.6486
▁fantasi	-10.6486
▁intelligens	-10.6486
▁förälder	-10.6486
▁ljug	-10.6486
▁pröva	-10.6486
övre	-10.6492
▁alternativet	-10.6495
▁näst	-10.6501
▁Cap	-10.6507
▁Kl	-10.6507
▁kontakter	-10.651
▁fastighets	-10.6522
▁perioder	-10.6522
▁integrerad	-10.6523
▁banken	-10.6525
▁köket	-10.6531
▁HERREN	-10.6537
▁ordentligt	-10.6537
▁seriös	-10.6537
▁torsdag	-10.6537
▁kollektiv	-10.6537
▁flaska	-10.6538
▁vädret	-10.6538
▁Irland	-10.6538
▁Utöv	-10.6544
period	-10.6545
höll	-10.6546
+	-10.6546
▁förebyggande	-10.6547
▁anställd	-10.6548
EM	-10.6563
▁ytan	-10.6564
krav	-10.6566
▁skön	-10.6569
iell	-10.6571
▁bandet	-10.6571
▁titt	-10.6573
▁Harry	-10.6573
▁uteslut	-10.6582
▁detsamma	-10.6585
▁mu	-10.6585
▁lopp	-10.6587
shop	-10.6588
^	-10.6589
▁Frank	-10.6589
▁session	-10.6589
▁radikal	-10.6589
▁längta	-10.6589
▁läk	-10.6592
▁skapelse	-10.6592
▁agent	-10.6592
▁ursprungligen	-10.6593
Fi	-10.6593
▁skämt	-10.6593
▁packa	-10.6594
▁konstigt	-10.6596
▁dansa	-10.6599
▁front	-10.6603
ST	-10.6606
▁flyttar	-10.6606
▁matchen	-10.6611
▁anläggning	-10.6612
pass	-10.6614
▁varma	-10.6614
▁CO	-10.6619
▁delade	-10.6619
▁Anders	-10.6624
▁regionala	-10.6627
▁löne	-10.663
▁anledningen	-10.6635
▁hållbara	-10.6636
▁konsumenter	-10.6641
▁fjärr	-10.6641
▁Thomas	-10.6641
▁reducera	-10.6641
▁antog	-10.6641
▁förbud	-10.6644
▁rull	-10.6645
zon	-10.6647
*	-10.6649
▁förändrats	-10.6649
▁titeln	-10.6649
15	-10.6655
▁marknadsförings	-10.6655
▁skin	-10.6668
▁Typ	-10.6669
mber	-10.6669
▁rac	-10.6672
▁Året	-10.6681
▁beställa	-10.6681
▁grekiska	-10.6682
ple	-10.6688
▁boll	-10.6693
▁disciplin	-10.6694
▁turnering	-10.6694
▁uttrycka	-10.6694
▁attraktion	-10.6694
▁omsorg	-10.6696
▁800	-10.67
programmet	-10.6705
Vad	-10.6707
▁kompis	-10.671
▁):	-10.671
▁steget	-10.6712
▁banan	-10.6717
▁föreställ	-10.6719
▁damm	-10.672
▁nordisk	-10.6723
▁Arbets	-10.6724
▁logga	-10.6724
▁rättigheterna	-10.6735
▁wh	-10.6735
▁angiv	-10.6737
▁vakt	-10.674
ption	-10.674
▁ningar	-10.6743
▁rubrik	-10.6746
▁Vatten	-10.6746
▁Njut	-10.6746
▁kronisk	-10.6746
IF	-10.6747
▁chock	-10.6747
▁varelser	-10.6748
linje	-10.6751
▁Hal	-10.6764
▁bränn	-10.6768
▁turist	-10.6769
TI	-10.6775
▁borg	-10.6776
▁interna	-10.678
▁Hall	-10.6781
▁allvarlig	-10.6782
▁poly	-10.679
▁detalj	-10.6791
▁frågorna	-10.6794
▁pågående	-10.6795
rämmande	-10.6797
▁anonym	-10.6799
▁evangeli	-10.6799
▁mäktig	-10.6799
▁direktivet	-10.68
Z	-10.6808
▁öron	-10.6809
▁kreativ	-10.6813
▁betona	-10.6814
▁nöjda	-10.6831
▁Inc	-10.6831
▁tysk	-10.6836
▁(3	-10.6837
▁underhållning	-10.6838
▁använts	-10.684
▁kak	-10.6845
omi	-10.6846
▁konsumenterna	-10.685
▁un	-10.6851
▁Richard	-10.6852
▁komfort	-10.6852
▁betyg	-10.6852
vision	-10.6853
▁troende	-10.6856
▁Free	-10.6856
▁kur	-10.6858
▁övertygad	-10.6868
▁orsaker	-10.6871
▁tillämpliga	-10.6874
▁blodet	-10.6878
▁dricker	-10.6884
▁priserna	-10.6887
▁pin	-10.6888
▁bed	-10.6893
▁Video	-10.6894
▁behåll	-10.6895
▁minnes	-10.6895
▁molekyl	-10.6906
▁liberal	-10.6906
▁DNA	-10.6906
▁Royal	-10.6906
▁Död	-10.6907
▁stränder	-10.6907
▁känslomässig	-10.6907
▁låda	-10.6907
▁blodtryck	-10.6908
▁tidningen	-10.6909
▁stabilitet	-10.691
▁linjen	-10.6912
▁III	-10.6913
▁mynt	-10.6915
▁byggd	-10.6916
▁slit	-10.692
▁förutsättning	-10.6924
▁sökt	-10.6925
▁begränsat	-10.6934
▁åldern	-10.6936
▁omedelbar	-10.6938
▁offentligt	-10.6938
▁Cu	-10.6947
▁Hä	-10.6953
kontroll	-10.6955
▁oändlig	-10.6959
▁humör	-10.696
▁granskning	-10.696
▁evigt	-10.696
▁styrkor	-10.6962
▁kallt	-10.6964
▁aning	-10.6964
språk	-10.6965
▁kabel	-10.6966
▁frys	-10.6967
▁ansåg	-10.6968
vård	-10.6969
kommit	-10.6972
▁enskild	-10.6978
▁Vita	-10.6979
▁tränare	-10.698
▁uppdateringar	-10.698
25	-10.6982
lån	-10.6984
▁månen	-10.6993
▁konvention	-10.6993
▁Användar	-10.6999
▁klasser	-10.7008
▁Undvik	-10.7014
▁smält	-10.7014
▁Digital	-10.7014
▁förknippa	-10.7014
▁stämmer	-10.7014
▁utvalda	-10.7014
▁kommentera	-10.7014
▁utgifter	-10.7015
▁sjunk	-10.7016
▁lyfta	-10.7017
▁kallat	-10.7018
▁Start	-10.7019
▁domare	-10.7022
▁Väg	-10.7037
▁sånt	-10.7038
▁motsatt	-10.7041
▁Mill	-10.7043
ND	-10.705
▁uppenbart	-10.7053
▁praktiskt	-10.7056
▁Gran	-10.7061
▁Nederländerna	-10.7068
▁territorium	-10.7068
▁High	-10.7068
▁geografisk	-10.7068
▁yoga	-10.7068
▁inuti	-10.7068
▁styrning	-10.7068
▁rådgivning	-10.7069
▁givetvis	-10.7071
CH	-10.7071
lunda	-10.7071
▁kniv	-10.7073
▁Bio	-10.7077
▁tredjedel	-10.708
▁karta	-10.7086
▁dörr	-10.7089
▁åsikt	-10.7094
▁vänder	-10.7097
▁ost	-10.7099
▁Nå	-10.7101
▁grundare	-10.7104
▁Bak	-10.711
▁exp	-10.7113
▁belöning	-10.7123
▁obligatorisk	-10.7123
▁portfölj	-10.7123
▁reparation	-10.7123
▁smartphone	-10.7123
▁sällskap	-10.7123
▁imponerande	-10.7127
▁objektiv	-10.7129
vatten	-10.7134
▁Gilla	-10.7136
lutning	-10.7139
▁telefonen	-10.7139
▁tillväxten	-10.7147
visning	-10.7147
▁Real	-10.7152
▁snälla	-10.7152
bildning	-10.7156
▁Spelar	-10.7157
▁byn	-10.7161
jäl	-10.7161
▁Vidare	-10.7161
itu	-10.7165
▁mur	-10.7172
▁Stan	-10.7172
överensstämmelse	-10.7177
▁litteratur	-10.7177
▁studio	-10.7178
▁långsamt	-10.7178
▁stödjer	-10.7178
▁dött	-10.7182
▁stycket	-10.7182
▁storleken	-10.7183
▁ägaren	-10.7183
▁byrån	-10.7184
AL	-10.7185
▁nämnde	-10.7186
▁håret	-10.7194
▁säljare	-10.7205
▁Stora	-10.7212
▁framgångsrikt	-10.7214
▁ät	-10.7216
▁katter	-10.7223
▁choklad	-10.7233
▁kollegor	-10.7233
▁koncentrera	-10.7233
▁distrikt	-10.7233
▁substans	-10.7233
▁tjugo	-10.7233
▁förbehåll	-10.7233
▁avkastning	-10.7233
▁variation	-10.7233
▁baby	-10.7236
▁ideal	-10.7236
▁långsiktiga	-10.7242
▁<	-10.7243
▁avsnittet	-10.7244
▁fäll	-10.7249
▁real	-10.7249
▁anfall	-10.725
▁nämna	-10.7251
▁förluster	-10.7253
▁skönt	-10.726
▁tyd	-10.7262
▁läsning	-10.7262
▁förläng	-10.7265
▁Cam	-10.7266
▁skapande	-10.727
▁punkterna	-10.7271
▁44	-10.728
▁fysik	-10.7288
▁samarbets	-10.7288
▁League	-10.7288
▁Också	-10.7288
▁administrer	-10.7288
▁trupp	-10.7289
▁Smart	-10.7289
▁bostäder	-10.7289
▁rikedom	-10.729
oxid	-10.7291
▁runda	-10.7292
▁generationer	-10.7296
▁Ställ	-10.7301
IC	-10.7302
▁Resultat	-10.7313
▁Tar	-10.7317
▁registrerade	-10.7317
▁kemikalier	-10.7317
▁Steve	-10.7322
▁Kap	-10.7323
▁Mose	-10.7323
▁appen	-10.7324
▁HD	-10.7326
▁skatter	-10.7331
hydr	-10.7332
▁plattformar	-10.7332
▁rättfärdig	-10.7339
▁bortom	-10.7341
¤	-10.7344
▁landsbygd	-10.7344
▁Familj	-10.7344
▁lägst	-10.7344
▁rekord	-10.7344
▁Blue	-10.7344
▁arbetstagare	-10.7346
▁benäg	-10.7347
▁konung	-10.7347
▁släpptes	-10.735
grad	-10.7353
▁apparat	-10.7355
▁Berg	-10.736
▁mediciner	-10.736
▁bett	-10.7365
▁balansera	-10.7373
▁mäss	-10.738
▁förening	-10.7381
▁vagn	-10.7381
▁fastighet	-10.7383
▁droger	-10.7394
▁sjuka	-10.7395
▁bekräftar	-10.7396
▁Hor	-10.7398
▁förvånad	-10.74
▁redigera	-10.74
▁funkar	-10.74
▁besvara	-10.74
▁regim	-10.7401
▁sänka	-10.7401
▁Market	-10.7401
▁Sätt	-10.7401
▁isolera	-10.7401
▁May	-10.7407
▁rat	-10.7409
▁Mak	-10.7418
ball	-10.7423
▁minnas	-10.7428
▁scenen	-10.7441
▁länken	-10.7441
▁ledig	-10.7448
▁vanor	-10.7448
▁tillverkar	-10.7456
▁legitim	-10.7457
▁onödig	-10.7457
▁uppvärmning	-10.7457
▁ömsesidig	-10.7457
▁kalender	-10.7457
▁tycka	-10.7457
▁försvinna	-10.7457
▁brun	-10.7458
▁tillåtet	-10.7458
▁slutänd	-10.7459
▁kvalificerad	-10.7459
▁numera	-10.747
▁dramatisk	-10.7472
▁SE	-10.7472
▁Full	-10.7477
▁känsliga	-10.748
▁talang	-10.7482
▁Camp	-10.7484
▁aktuell	-10.7484
▁Karl	-10.7489
▁tjänsterna	-10.749
▁lura	-10.7492
▁besökte	-10.7494
▁formell	-10.7498
▁kombinerar	-10.7498
▁farligt	-10.7505
gav	-10.7507
▁Tim	-10.7513
ifikation	-10.7514
▁Grund	-10.7514
▁optimera	-10.7514
▁överträdelse	-10.7514
▁Berlin	-10.7514
▁färsk	-10.7514
▁skylt	-10.7514
▁rådgivare	-10.7516
▁sysselsättning	-10.7516
▁ång	-10.752
▁klok	-10.752
▁ankomst	-10.7523
namn	-10.7524
▁ligt	-10.7525
TA	-10.7526
märkning	-10.7528
OL	-10.7529
▁billiga	-10.7534
▁mästare	-10.7541
▁genomförandet	-10.7546
▁tidig	-10.7548
▁träffat	-10.7548
▁hårda	-10.7549
▁tillfälligt	-10.7549
▁praktiken	-10.7551
▁Spela	-10.7552
▁Sin	-10.7553
▁misstänk	-10.7559
skatt	-10.7562
▁återställ	-10.7563
▁tråd	-10.7569
För	-10.757
▁existens	-10.7571
▁intelligent	-10.7571
▁livslängd	-10.7571
▁omfattning	-10.7571
▁återigen	-10.7571
▁ledningen	-10.7572
▁påpeka	-10.7574
▁externa	-10.7576
▁försvars	-10.7579
Point	-10.7579
▁citat	-10.7579
kräm	-10.758
▁negativ	-10.7585
försäkring	-10.7585
▁85	-10.7588
▁Lång	-10.759
▁Går	-10.7595
▁stig	-10.7597
▁ansiktet	-10.7597
▁stolta	-10.7601
▁andliga	-10.7602
▁vanligen	-10.7602
▁harmoni	-10.7609
klass	-10.761
▁tion	-10.7614
sajt	-10.7618
▁klagomål	-10.7628
▁konsekvent	-10.7628
▁Speciell	-10.7628
▁spegla	-10.7628
▁check	-10.7628
▁onsdag	-10.7628
▁mineral	-10.7632
▁cool	-10.764
▁Chan	-10.7645
▁koncern	-10.7647
▁operativ	-10.7647
chef	-10.7648
▁rapportering	-10.7655
▁Väl	-10.7655
▁dusch	-10.7656
▁motståndare	-10.7665
egel	-10.7666
▁städerna	-10.7666
▁landskap	-10.7671
▁tjänare	-10.7675
▁förebygga	-10.7675
IM	-10.7675
bruk	-10.7678
▁fördelning	-10.7682
SD	-10.7683
▁Skillnad	-10.7686
▁tisdag	-10.7686
▁Texas	-10.7686
▁museum	-10.7686
postadress	-10.7687
▁Next	-10.7687
▁sakna	-10.7689
▁montera	-10.7689
▁Fortsätt	-10.7689
▁AR	-10.7691
▁skadliga	-10.7692
▁vald	-10.7699
▁sover	-10.7704
▁vägg	-10.771
politik	-10.7716
▁läkar	-10.7717
grip	-10.7724
▁operativsystem	-10.7725
▁anger	-10.7732
▁bitar	-10.7733
▁ell	-10.7733
▁Kam	-10.7736
▁rötter	-10.774
▁turister	-10.7741
park	-10.7743
▁toalett	-10.7744
▁tävla	-10.7744
▁faktur	-10.7744
▁deltagarna	-10.7744
▁United	-10.7744
▁beundra	-10.7744
▁Berätta	-10.7745
▁redovisa	-10.7745
▁dubbla	-10.7746
▁00	-10.7747
▁revision	-10.7748
▁§	-10.7748
▁kommitté	-10.7749
▁rött	-10.7749
▁störningar	-10.7751
▁Gal	-10.7761
mannen	-10.7763
▁nätter	-10.7765
▁final	-10.7771
▁tvekan	-10.7774
▁övningar	-10.7776
▁föräldrarna	-10.7777
▁Redan	-10.7779
▁medlemsstaten	-10.7784
▁begreppet	-10.7785
ektiv	-10.7796
▁måltid	-10.7799
▁itet	-10.7802
▁pojkar	-10.7803
▁Smith	-10.7803
▁anklaga	-10.7803
▁vävnad	-10.7803
▁Ljus	-10.7803
▁levde	-10.7803
▁nationer	-10.7805
▁genomfört	-10.7806
▁duktig	-10.7808
▁Beach	-10.7809
▁Form	-10.781
CO	-10.7812
▁Big	-10.7818
▁tillfredsställ	-10.782
▁praktik	-10.7823
▁sko	-10.7824
▁känslig	-10.7832
▁begå	-10.7832
▁grä	-10.7834
▁kraftfulla	-10.784
arter	-10.7841
▁250	-10.785
▁sparar	-10.7853
▁[1]	-10.7862
▁minoritet	-10.7862
▁provins	-10.7862
▁pilot	-10.7863
▁överstig	-10.7863
▁Möt	-10.7865
▁index	-10.7866
▁Life	-10.7867
▁rev	-10.7869
▁konton	-10.7883
▁orka	-10.7884
▁matcher	-10.7884
▁etablerade	-10.7886
▁enorma	-10.7886
▁stiga	-10.7893
▁web	-10.7896
▁utvecklare	-10.7896
kall	-10.7896
▁ängel	-10.7906
▁stötta	-10.7908
▁kungen	-10.7914
▁upphovsrätt	-10.7921
▁förnybar	-10.7921
▁visuell	-10.7922
▁mystisk	-10.7923
▁kursen	-10.7925
▁Sim	-10.7925
▁modig	-10.7925
▁sammanlag	-10.7927
projekt	-10.7937
▁chatt	-10.794
▁43	-10.7941
▁parlamentet	-10.7944
▁rolig	-10.7947
▁medlemmarna	-10.795
▁sov	-10.795
▁Mid	-10.7953
the	-10.796
▁föreningen	-10.7966
▁räknar	-10.7971
▁delarna	-10.7974
▁Ford	-10.7979
▁partier	-10.798
▁inbyggd	-10.798
▁sämre	-10.798
▁överlämna	-10.798
▁sannolikhet	-10.798
▁prövning	-10.798
▁penis	-10.7981
▁genast	-10.7983
▁kläd	-10.7988
ING	-10.7988
▁uttala	-10.7995
–	-10.7997
▁penning	-10.8003
▁höst	-10.8003
▁yrke	-10.8015
▁tillämplig	-10.8016
skilda	-10.802
▁Fall	-10.8022
▁värdera	-10.8024
resa	-10.8025
▁fiender	-10.8028
▁120	-10.8029
barhet	-10.8032
▁texter	-10.8033
NTE	-10.8037
▁Världs	-10.804
▁administration	-10.804
▁ledamöter	-10.804
▁reflektera	-10.804
▁återbetalning	-10.804
▁Islam	-10.804
▁Student	-10.804
▁·	-10.804
▁dygn	-10.804
▁ISO	-10.8041
win	-10.8042
▁skörd	-10.8043
▁€	-10.8044
▁idealisk	-10.8046
▁Undra	-10.8046
▁böj	-10.8049
säkerhet	-10.805
▁skett	-10.805
▁angående	-10.8051
▁läggs	-10.806
▁Risk	-10.8062
▁tillverkaren	-10.8066
▁haha	-10.807
▁mö	-10.8073
dlar	-10.8074
▁medlemskap	-10.8081
▁utforma	-10.8089
▁samtid	-10.809
▁Mad	-10.8093
▁grönsaker	-10.81
▁glömmer	-10.81
▁Ung	-10.8104
▁ställde	-10.8104
▁filter	-10.8105
▁trädgården	-10.8106
▁rörlighet	-10.8108
▁Award	-10.8109
▁råka	-10.8111
[	-10.8118
▁föreställning	-10.8118
igenom	-10.8118
▁strålning	-10.8118
▁time	-10.8119
▁tävlingen	-10.8142
▁brister	-10.8143
▁rapporterade	-10.815
▁3)	-10.8153
▁infektioner	-10.8155
BS	-10.8157
▁Bri	-10.8157
▁officiellt	-10.8159
▁Afghanistan	-10.8161
▁befogenhet	-10.8161
▁dröj	-10.8161
▁överlevnad	-10.8161
▁tystnad	-10.8164
▁irritera	-10.8164
▁genomförs	-10.8166
lov	-10.8166
▁chefer	-10.8175
järn	-10.8181
▁ler	-10.819
▁rulla	-10.8192
ward	-10.8192
verksamma	-10.8195
▁anpassade	-10.8199
▁avsedd	-10.82
▁Personlig	-10.8207
▁gäll	-10.8209
▁chi	-10.8221
▁diskriminering	-10.8222
▁eliminera	-10.8222
▁mäklare	-10.8222
▁tråkig	-10.8222
▁överraskning	-10.8222
▁jämställdhet	-10.8222
▁rabatt	-10.8222
▁hellre	-10.8222
▁Upptäck	-10.8222
▁simma	-10.8224
▁visning	-10.8226
▁skicklig	-10.8229
▁Plus	-10.8232
▁huvudsak	-10.8233
▁Fyr	-10.8236
▁falska	-10.8236
▁fyr	-10.8241
▁IV	-10.8243
▁lagstiftningen	-10.8244
▁smärt	-10.8248
▁handeln	-10.8253
▁meddelade	-10.8257
▁Jesu	-10.8259
▁mail	-10.8272
MS	-10.8274
▁arrangera	-10.8283
▁kopiera	-10.8283
▁expandera	-10.8283
▁Luc	-10.8283
▁änglar	-10.8284
▁ansöka	-10.8287
▁inträffar	-10.8289
▁Mobil	-10.8291
stift	-10.8294
▁billigare	-10.8296
plikt	-10.8303
AP	-10.8303
▁studenterna	-10.831
▁konflikter	-10.8324
▁kontoret	-10.8325
▁Prov	-10.8326
▁TM	-10.8326
▁kortare	-10.8329
▁bekvämt	-10.8332
▁bal	-10.8332
▁nyckeln	-10.8338
▁Media	-10.8339
ntroduktion	-10.8345
▁Schweiz	-10.8345
▁Ukraina	-10.8345
▁däribland	-10.8345
▁prioritera	-10.8345
▁tidskrift	-10.8345
▁[-]	-10.8345
▁strikt	-10.8345
▁Work	-10.8345
▁Johannes	-10.8346
▁Slutligen	-10.8348
alisera	-10.8352
▁konstant	-10.8355
▁Pal	-10.8358
▁@	-10.8358
TS	-10.8358
▁negativt	-10.8361
▁stjärna	-10.8371
▁Eva	-10.8375
▁46	-10.8387
▁rakt	-10.84
▁osäker	-10.8402
▁förfarandet	-10.8403
▁Sju	-10.8403
▁ständig	-10.8403
▁Innehåll	-10.8407
▁muslimsk	-10.8407
▁förnuft	-10.8407
▁uppgradera	-10.8407
▁öppning	-10.8407
▁kopia	-10.8407
▁inspelning	-10.8408
▁videon	-10.8413
▁utarbeta	-10.8414
▁rymden	-10.8429
▁idén	-10.8429
▁butiken	-10.8439
▁föreningar	-10.844
▁flod	-10.8442
▁planeten	-10.8443
▁bull	-10.8449
heim	-10.8451
▁fonden	-10.8451
▁inställ	-10.8454
nsåg	-10.8461
▁organisk	-10.8465
När	-10.8466
▁arkitekt	-10.8467
▁Instagram	-10.847
▁diplom	-10.847
▁hjälte	-10.847
▁samordna	-10.847
▁såklart	-10.847
▁human	-10.8471
udi	-10.8472
field	-10.8477
▁amerikaner	-10.8479
▁mång	-10.8487
myndighet	-10.8488
▁förmåner	-10.8492
▁därifrån	-10.8499
▁lanserade	-10.8503
▁barndom	-10.8504
▁Resultatet	-10.8504
▁nämnda	-10.8506
▁47	-10.8507
▁ägande	-10.8507
▁transportera	-10.8508
▁blomma	-10.8518
▁vd	-10.8521
▁Open	-10.8528
▁President	-10.8532
▁ambition	-10.8532
▁Abraham	-10.8532
▁försämr	-10.8532
▁välkänd	-10.8532
▁siffra	-10.8533
▁meditation	-10.8534
▁Vänlig	-10.8535
▁attityd	-10.8537
▁öga	-10.8538
▁genomförde	-10.8538
▁Probleme	-10.8542
work	-10.8543
▁stilla	-10.8544
▁erkännande	-10.8549
▁max	-10.8549
▁automatisk	-10.8551
vetenskap	-10.8552
▁minskade	-10.8559
▁ling	-10.8566
▁förbindelser	-10.8573
▁Ze	-10.858
▁Nik	-10.8584
←	-10.8596
▁Jämför	-10.8596
▁högkvalitativ	-10.8596
▁konsumera	-10.8596
▁kärnvapen	-10.8596
▁placering	-10.8596
▁www	-10.8596
▁försvann	-10.8596
▁Centre	-10.8596
Naturligtvis	-10.8596
▁lastbil	-10.8597
▁Gaml	-10.8598
▁källan	-10.8599
▁drycker	-10.8605
▁Tank	-10.8609
▁öarna	-10.8612
▁produktiv	-10.8613
▁döma	-10.8614
▁Kong	-10.8615
▁tvivel	-10.8618
▁Lab	-10.8626
▁skulder	-10.8626
▁Internationella	-10.8635
▁kära	-10.8639
▁föräldra	-10.8649
▁bollen	-10.8651
▁ansvaret	-10.8659
▁Thailand	-10.8659
▁arrangemang	-10.8659
▁influens	-10.8659
▁nyfiken	-10.8659
▁teoretisk	-10.8659
▁tröst	-10.8659
▁krossa	-10.866
▁förverkliga	-10.866
▁uppehåll	-10.866
▁certifikat	-10.866
▁välkommen	-10.8661
▁citera	-10.8663
▁ögat	-10.8663
▁Love	-10.8666
växt	-10.8668
▁motion	-10.8672
▁detaljerad	-10.8674
▁aspekt	-10.8674
▁anställ	-10.8674
▁spra	-10.8675
▁kalorier	-10.8679
▁principen	-10.8681
▁istisk	-10.8685
▁sårbar	-10.8698
TC	-10.8702
▁upplevelsen	-10.8704
▁romantisk	-10.8712
▁bostad	-10.8714
▁sortiment	-10.8724
▁College	-10.8724
▁Malmö	-10.8724
▁syndrom	-10.8724
▁väggen	-10.8724
▁blott	-10.8724
▁tillverkade	-10.8724
▁grym	-10.8726
▁magnet	-10.8727
▁Ring	-10.8727
▁asyl	-10.8727
▁USB	-10.8727
▁lung	-10.8733
▁hyr	-10.8734
▁överdriv	-10.8737
Ö	-10.8745
▁mätning	-10.875
▁snäll	-10.8755
▁väntade	-10.8756
celler	-10.8762
▁riskerar	-10.8762
▁falsk	-10.8773
▁flytt	-10.8777
▁ryggen	-10.8777
▁hej	-10.8782
▁sjukhuset	-10.8786
▁proportion	-10.8788
▁Louis	-10.8788
▁hungrig	-10.8788
▁inriktning	-10.8788
▁välbefinnande	-10.8788
▁federal	-10.8788
▁Skicka	-10.8789
▁Bygg	-10.879
▁utformat	-10.8797
▁ER	-10.8798
▁''	-10.8799
▁presenterade	-10.8804
▁Lund	-10.8806
▁fördraget	-10.8813
▁trådlös	-10.8815
sjuk	-10.8816
▁avancerad	-10.8819
▁nöt	-10.8825
▁mötte	-10.8828
▁sände	-10.883
▁singel	-10.8831
▁lägenheter	-10.8832
▁bränna	-10.8835
lossning	-10.884
▁uttrycklig	-10.8842
bul	-10.8849
▁utrikes	-10.8853
▁terapeut	-10.8853
▁Regissör	-10.8853
▁vägledning	-10.8853
▁givit	-10.8853
▁minimera	-10.8853
▁interaktion	-10.8853
▁nöd	-10.8853
▁Marknad	-10.8853
▁ECB	-10.8854
▁surf	-10.8857
▁hu	-10.886
dik	-10.886
▁plantera	-10.8862
▁vilda	-10.8865
▁bota	-10.8868
▁Mary	-10.8875
examen	-10.8875
▁tele	-10.8877
▁doser	-10.8879
▁rutiner	-10.8891
▁trycket	-10.8907
▁avslöjar	-10.8909
▁Perfekt	-10.8918
▁israelisk	-10.8918
▁försörjning	-10.8918
▁förorening	-10.892
▁Vänta	-10.8921
▁institut	-10.8923
▁förenkla	-10.8924
▁klassisk	-10.8924
▁ingå	-10.8925
▁servera	-10.8926
▁träng	-10.8927
▁master	-10.8927
▁skrik	-10.893
seende	-10.8933
▁4:	-10.8935
▁ovanför	-10.8935
▁inomhus	-10.8936
▁180	-10.894
▁atom	-10.894
▁danska	-10.8942
▁förväntade	-10.8945
▁förbättringar	-10.8961
▁Fan	-10.8972
▁förslaget	-10.8982
▁1980	-10.8984
▁absorbera	-10.8984
▁aggressiv	-10.8984
▁associera	-10.8984
▁bibehåll	-10.8984
▁flexibel	-10.8984
▁neutral	-10.8984
▁Grupp	-10.8984
▁premiärminister	-10.8985
▁EG	-10.8985
▁Tips	-10.8985
▁Miljö	-10.8985
▁stuga	-10.8986
▁leende	-10.8987
▁mörkret	-10.8987
▁Dal	-10.899
▁batterier	-10.8991
▁halt	-10.8993
▁Comp	-10.8995
▁Team	-10.8998
▁utrusta	-10.9
▁troligen	-10.9001
▁fotografi	-10.901
▁mjukvara	-10.9011
▁stånd	-10.9021
▁golv	-10.9029
▁plikt	-10.9031
▁skede	-10.9035
▁flykting	-10.9036
▁föreslå	-10.9043
▁nivåerna	-10.9045
kurs	-10.9046
▁koldioxid	-10.905
▁skrivbord	-10.905
▁intellektuell	-10.905
▁åldrar	-10.905
▁återhämtning	-10.905
▁återvinning	-10.905
▁Öppna	-10.905
▁Club	-10.905
▁skift	-10.9051
▁njur	-10.9051
▁Lokal	-10.9054
▁rengöring	-10.9057
▁USD	-10.9058
▁gåvor	-10.9059
▁producenter	-10.9063
▁föda	-10.9066
bon	-10.9081
▁kandidater	-10.9083
▁listor	-10.9086
nät	-10.909
▁moral	-10.9091
▁generationen	-10.9093
▁gram	-10.9095
▁fastigheter	-10.9099
▁böckerna	-10.9101
▁recensioner	-10.9101
stora	-10.9107
▁anläggningen	-10.9108
▁700	-10.9111
▁Sv	-10.9112
prov	-10.9113
▁möjligheterna	-10.9114
▁YouTube	-10.9117
▁etikett	-10.9117
▁fönstret	-10.9117
▁olyckor	-10.9117
▁1998	-10.9117
▁nackdel	-10.9117
▁släng	-10.9117
▁tjänstemän	-10.9118
▁Staden	-10.9118
▁befria	-10.9121
▁lektioner	-10.9122
▁tumör	-10.9123
▁verkställande	-10.9125
▁ätit	-10.9127
skilt	-10.9132
▁rapporterar	-10.9136
velat	-10.9137
vagn	-10.915
▁paus	-10.915
▁egenskap	-10.9159
▁49	-10.9159
NS	-10.9161
▁Ram	-10.9166
▁ovanligt	-10.9167
▁Fel	-10.9168
▁producent	-10.9172
▁galen	-10.9172
▁Eric	-10.9174
▁parken	-10.9175
▁41	-10.9181
▁bytt	-10.9182
▁indikator	-10.9184
▁prognos	-10.9184
▁sevärdheter	-10.9184
▁vandring	-10.9184
▁klinik	-10.9184
▁intervall	-10.9184
▁museet	-10.9184
▁upphäv	-10.9184
▁flott	-10.9185
▁Säkerhet	-10.9187
▁Cho	-10.919
▁parkering	-10.9191
▁grip	-10.9192
bär	-10.9193
▁inbegripet	-10.9202
▁mässig	-10.9205
▁Will	-10.9206
▁Serie	-10.9207
industrin	-10.9208
(	-10.9208
ekonomi	-10.9208
▁förlängning	-10.9214
▁NA	-10.9216
▁kontinent	-10.9216
▁trender	-10.9217
▁logisk	-10.9231
▁säte	-10.924
▁Steg	-10.9242
▁städa	-10.9252
▁upphov	-10.9252
vious	-10.9252
▁deltog	-10.9252
våning	-10.9254
▁59	-10.9254
▁Bob	-10.9257
▁otrolig	-10.9259
givning	-10.926
▁sålde	-10.9261
▁visum	-10.9263
▁laddning	-10.9269
▁importera	-10.9272
▁ägde	-10.928
uri	-10.9285
▁utformad	-10.9308
well	-10.9312
▁Kyrkan	-10.932
▁Österrike	-10.932
▁silver	-10.932
▁realtid	-10.9321
▁funnit	-10.9326
▁Kurs	-10.9327
ekommande	-10.9331
▁stav	-10.9332
▁UN	-10.9332
▁önskan	-10.9333
▁MP	-10.9334
▁gråta	-10.9339
▁implementera	-10.934
▁stiger	-10.934
▁inträffa	-10.9354
▁loppet	-10.9361
▁hinn	-10.9362
▁sektion	-10.9364
▁samarbetar	-10.9381
eroende	-10.9387
föreskrifter	-10.9388
▁distribuera	-10.9388
▁gitarr	-10.9388
▁sväng	-10.9391
▁armar	-10.9393
▁doft	-10.9393
▁reform	-10.9395
▁snabbast	-10.9395
▁Förstå	-10.9395
▁knut	-10.9396
▁relatera	-10.9399
▁uppnått	-10.9399
▁gradvis	-10.94
▁option	-10.9401
▁skadlig	-10.9402
amtliga	-10.9404
▁Wild	-10.9408
▁1900	-10.9408
▁tvingade	-10.9412
BA	-10.9414
▁dop	-10.9419
▁Mel	-10.9421
▁stämning	-10.9433
▁skick	-10.9443
▁bruka	-10.9444
▁extern	-10.9451
▁förändrade	-10.9454
driv	-10.9456
▁Helsingfors	-10.9457
▁ignorera	-10.9457
cigarett	-10.9457
▁sjunga	-10.9457
▁omdömen	-10.9458
▁cyber	-10.9459
▁tj	-10.9459
▁snack	-10.9463
▁info	-10.9465
▁ingång	-10.9466
▁antagande	-10.9472
▁kampanjer	-10.9473
▁utformade	-10.9477
▁fack	-10.948
bal	-10.9489
▁golvet	-10.9489
organ	-10.9505
▁biblioteket	-10.9514
flytande	-10.9514
▁godkänna	-10.9515
▁vägrar	-10.9524
▁psyko	-10.9525
▁främling	-10.9527
vägagångssätt	-10.9527
Г	-10.9527
▁Research	-10.9527
▁elegant	-10.9527
▁evolution	-10.9527
▁indirekt	-10.9527
▁önskemål	-10.9527
▁metabol	-10.9527
▁utskott	-10.9527
▁ifrågasätt	-10.9527
▁inredning	-10.9527
▁himla	-10.9527
lement	-10.9528
▁free	-10.9528
▁auto	-10.9529
▁migration	-10.9529
▁ansökningar	-10.953
▁porträtt	-10.953
US	-10.9535
utveckling	-10.954
▁Cal	-10.9548
▁bron	-10.9555
▁Santa	-10.9555
▁domän	-10.9555
PS	-10.956
▁revolutionär	-10.9562
▁smal	-10.9566
▁Fadern	-10.9566
▁mild	-10.9571
▁artister	-10.9596
▁Brasilien	-10.9597
▁laboratorie	-10.9597
▁tempel	-10.9597
▁kolumn	-10.9597
▁Sydafrika	-10.9597
▁gömm	-10.9597
▁Amerikansk	-10.9599
▁Effekt	-10.9599
▁Energi	-10.9599
▁förekomst	-10.9604
mark	-10.9609
ledamot	-10.9615
▁svaga	-10.9622
▁Store	-10.9626
▁begränsning	-10.9631
▁båtar	-10.9632
▁avslutade	-10.9633
▁rättslig	-10.9634
▁bränd	-10.9639
▁planerade	-10.9645
▁utövar	-10.9646
▁ful	-10.9648
försörj	-10.9649
▁albumet	-10.9655
▁sidorna	-10.9657
kod	-10.9657
▁Bell	-10.9657
Hur	-10.9658
▁verkställ	-10.9659
▁klädd	-10.9661
▁Dam	-10.9665
överskridande	-10.9665
▁logistik	-10.9667
▁resenärer	-10.9667
▁fossil	-10.9667
▁veterinär	-10.9667
▁tempo	-10.9668
▁HP	-10.9669
▁kreativitet	-10.967
▁vilse	-10.967
▁väska	-10.9674
▁historier	-10.9692
▁normer	-10.97
▁årligen	-10.9703
▁dokumentera	-10.9703
TO	-10.9734
▁procedur	-10.9738
▁belöna	-10.9738
▁glasögon	-10.9738
▁uppföljning	-10.9738
▁1970	-10.9738
▁annanstans	-10.9738
▁drink	-10.9738
▁minimal	-10.9738
▁Tillbak	-10.9738
▁Framför	-10.9746
▁ledsen	-10.9748
gle	-10.9751
▁elev	-10.9758
Han	-10.9761
▁terror	-10.9764
resultat	-10.9766
IP	-10.9768
gångs	-10.9776
▁sakta	-10.9783
▁Lake	-10.9783
▁troll	-10.9792
▁begrav	-10.9799
▁satellit	-10.9809
▁Mellanöstern	-10.9809
▁krävde	-10.9809
▁välsignelse	-10.9809
▁webbsida	-10.9809
▁turné	-10.9809
▁utformning	-10.9809
▁gissa	-10.9811
▁bekvämlighet	-10.9811
▁Priset	-10.9812
▁Användning	-10.9813
▁motivation	-10.9816
▁kyss	-10.9818
▁livstid	-10.9821
▁fransk	-10.9821
▁gården	-10.9823
cal	-10.9825
▁gran	-10.9827
▁189	-10.9837
▁magi	-10.9837
▁loss	-10.9842
▁körning	-10.9843
:00	-10.9844
ough	-10.9849
▁närmar	-10.9854
▁riskerna	-10.9855
▁leksaker	-10.9861
stock	-10.9871
▁efteråt	-10.9878
▁knappen	-10.9878
▁Alternativ	-10.9881
▁Health	-10.9881
▁Manchester	-10.9881
▁Mexiko	-10.9881
▁Public	-10.9881
▁välsigna	-10.9881
▁överflöd	-10.9881
▁skräck	-10.9881
▁dödsfall	-10.9882
▁modifiera	-10.9882
▁ränte	-10.9882
▁konstitution	-10.9882
▁Saint	-10.9882
▁munnen	-10.9883
▁iPad	-10.9883
▁flygbolag	-10.9884
▁fortsättning	-10.9886
uch	-10.9893
foga	-10.9899
▁bestånd	-10.9906
▁berättelsen	-10.9915
adress	-10.9923
▁sekund	-10.9927
▁funktionell	-10.9943
▁Top	-10.9953
ii	-10.9954
▁Rapport	-10.9954
▁antibiotika	-10.9954
▁bearbetning	-10.9954
▁flexibilitet	-10.9954
▁fördjupa	-10.9954
▁kyrkor	-10.9954
▁viktminskning	-10.9954
▁1996	-10.9954
▁ekosystem	-10.9954
▁Lycklig	-10.9954
▁knappast	-10.9955
▁förberedelse	-10.9961
▁medeltid	-10.9961
ifiering	-10.9963
▁broder	-10.9963
▁Place	-10.9966
▁praktisk	-10.9972
▁Petr	-10.9977
▁måltider	-10.9979
▁rutin	-10.998
▁samråd	-10.9981
▁Tag	-10.9986
▁uttag	-11.0007
▁tänd	-11.0012
▁Kör	-11.0015
▁taket	-11.0019
▁prioritering	-11.0027
▁Bättre	-11.0027
▁inlärning	-11.0027
▁Charles	-11.0027
▁Excel	-11.0027
▁Stöd	-11.0027
▁Snart	-11.0027
▁broms	-11.0027
▁skugga	-11.0027
▁förresten	-11.0027
▁Vegas	-11.0028
▁religiös	-11.0029
▁arbetskraft	-11.003
▁kommando	-11.003
▁beloppet	-11.0031
▁systematisk	-11.0031
▁Hör	-11.0032
▁Union	-11.0037
▁berget	-11.0039
institut	-11.0042
lysning	-11.0043
▁Stu	-11.0047
▁yttrande	-11.0047
▁omöjlig	-11.0048
pill	-11.0054
>	-11.0056
▁andlig	-11.0065
▁66	-11.0083
▁regeringar	-11.0084
▁återvänder	-11.0092
▁skäm	-11.0095
▁Rose	-11.0096
▁klassificera	-11.01
▁växel	-11.01
▁ventil	-11.01
▁sändning	-11.01
▁White	-11.01
▁indikera	-11.01
▁långvarig	-11.01
lackjack	-11.0101
▁Verklig	-11.0102
▁Behandling	-11.0103
▁ock	-11.0104
▁°	-11.0104
house	-11.0107
▁Book	-11.0109
▁cm	-11.0115
▁engelsk	-11.0115
▁mix	-11.0118
▁paketet	-11.0123
▁besättning	-11.0131
▁strävan	-11.0136
▁bestäm	-11.0143
mbi	-11.0144
▁Motor	-11.0144
▁88	-11.0147
mbo	-11.0156
lista	-11.0156
▁iaktta	-11.0162
▁Association	-11.0174
▁avsevärt	-11.0174
▁feedback	-11.0174
▁Company	-11.0174
▁interagera	-11.0174
▁segment	-11.0174
▁axel	-11.0174
▁utvidga	-11.0175
▁anordna	-11.0175
ngefär	-11.0175
wood	-11.0176
▁produktivitet	-11.0177
▁hyper	-11.0177
▁kemi	-11.0177
▁Angeles	-11.0178
▁Pay	-11.0181
▁bosatt	-11.0183
▁svaghet	-11.0184
▁Satan	-11.019
fritt	-11.0192
▁protester	-11.0206
▁grov	-11.0208
▁%)	-11.0223
position	-11.0224
mail	-11.023
▁Sist	-11.0242
▁återkomma	-11.0248
▁matematik	-11.0249
▁distans	-11.0249
▁verifiera	-11.0249
▁Water	-11.025
▁humor	-11.025
sägelse	-11.025
▁taxi	-11.025
▁Allmän	-11.0251
▁alltmer	-11.0253
▁Johnson	-11.0257
▁söner	-11.0258
▁ångra	-11.0266
▁bredd	-11.0267
▁uppenbar	-11.0271
▁Läng	-11.0274
▁Press	-11.0279
▁psykologisk	-11.0286
▁hylla	-11.0292
▁gränserna	-11.0298
▁inledde	-11.0301
▁kg	-11.0317
▁civilisation	-11.0324
▁flickvän	-11.0324
▁Standard	-11.0324
▁fängsla	-11.0324
▁besegra	-11.0324
▁servrar	-11.0324
▁fullkomlig	-11.0324
▁pressmeddelande	-11.0324
▁avvikelse	-11.0325
▁upplevt	-11.0325
▁Mellan	-11.0325
▁funktionalitet	-11.0326
▁fiskar	-11.0326
▁samordning	-11.0326
▁Läkar	-11.0326
▁krets	-11.0327
▁arbetsdag	-11.0335
▁intill	-11.0337
count	-11.034
▁Kim	-11.0343
▁salu	-11.0344
▁dokumentation	-11.0346
▁växla	-11.0351
▁cu	-11.0359
▁konstnärlig	-11.0367
▁nano	-11.0382
back	-11.0389
▁orsakerna	-11.039
▁Borde	-11.0399
▁Industri	-11.04
▁Lämna	-11.04
▁palestinsk	-11.04
▁utbetalning	-11.04
▁övergrepp	-11.04
▁elektronik	-11.04
▁kejsar	-11.04
▁tillskott	-11.04
▁Disney	-11.04
▁odds	-11.04
▁Snabb	-11.04
▁netto	-11.04
▁Madrid	-11.0401
▁dotterbolag	-11.0401
▁arbetslöshet	-11.0401
▁Små	-11.0402
▁OK	-11.0403
▁bistånd	-11.0406
▁European	-11.0411
▁Eu	-11.0415
▁mapp	-11.0415
▁Out	-11.0416
▁1800	-11.0418
▁likhet	-11.0421
▁brä	-11.0427
▁djupare	-11.043
källa	-11.0441
▁drama	-11.0442
▁Simon	-11.0443
▁grannar	-11.0447
▁77	-11.0451
▁Pap	-11.0457
board	-11.0461
▁Tele	-11.0462
▁intag	-11.0465
▁märklig	-11.0465
▁bott	-11.0476
▁Tjänsten	-11.0476
▁Utveckling	-11.0476
▁inflammation	-11.0476
▁pojkvän	-11.0476
▁skräp	-11.0476
▁åstadkomma	-11.0476
▁1997	-11.0476
▁marginal	-11.0476
▁CBD	-11.0476
▁Sanningen	-11.0477
▁förvaring	-11.0477
▁terrorism	-11.0478
▁Ingenting	-11.0481
▁debut	-11.0481
▁förbjudet	-11.0483
▁365	-11.0483
▁skrämmande	-11.0486
▁innovativ	-11.0486
▁utesluta	-11.0494
▁uppenbarelse	-11.0495
®	-11.051
bringa	-11.0512
▁samverkan	-11.0513
koppling	-11.0524
▁epi	-11.053
▁line	-11.0533
▁utrustad	-11.0534
ugh	-11.054
▁900	-11.0541
PP	-11.0549
ó	-11.0553
▁Regeringen	-11.0553
▁certifiering	-11.0553
▁mekanisk	-11.0553
▁misslyckande	-11.0553
▁föreläsning	-11.0553
▁injektion	-11.0553
▁materiell	-11.0553
▁kraftig	-11.0557
▁Bush	-11.0568
▁turism	-11.0572
▁stadga	-11.0572
legat	-11.0574
▁Projektet	-11.0579
▁tävlingar	-11.0581
nummer	-11.059
bri	-11.0593
▁96	-11.0595
afrika	-11.0596
▁bestämd	-11.0601
▁rutt	-11.0606
europa	-11.0611
OP	-11.0614
teknik	-11.0617
▁gräv	-11.0621
▁Krist	-11.0626
▁rengör	-11.0627
lösning	-11.0627
▁Chicago	-11.0631
▁Nordkorea	-11.0631
▁förmågor	-11.0631
▁historik	-11.0631
▁invandring	-11.0631
▁1995	-11.0631
▁paradis	-11.0631
▁stjäl	-11.0632
▁Vol	-11.0632
▁hypo	-11.0634
▁motverka	-11.0635
▁anspråk	-11.0637
▁mission	-11.0637
▁heltid	-11.0637
vänt	-11.0639
▁norsk	-11.0641
▁realistisk	-11.065
abla	-11.0653
▁förvaltar	-11.0653
▁översätta	-11.0653
uppgifter	-11.0661
▁Run	-11.0665
▁armén	-11.0676
▁over	-11.0697
erfarna	-11.0702
▁kameror	-11.0709
▁omvandling	-11.0709
▁oundviklig	-11.0709
▁spektrum	-11.0709
▁framträdande	-11.0709
▁Region	-11.0709
▁nominera	-11.0709
▁ansvarsfull	-11.0709
▁Lätt	-11.0709
▁skänk	-11.0709
▁rättegång	-11.0709
▁Senast	-11.071
▁kärnkraft	-11.071
▁sprocessen	-11.071
▁grafik	-11.071
▁Plats	-11.0714
▁reformer	-11.0716
handling	-11.0719
kål	-11.0723
▁uppgå	-11.0728
förändringar	-11.0731
▁chip	-11.0733
EEG	-11.0735
jätte	-11.0744
light	-11.0744
▁decennier	-11.0746
tillstånd	-11.0747
▁parlament	-11.0756
strid	-11.0773
▁Aldrig	-11.0788
▁Florida	-11.0788
▁Project	-11.0788
▁återhämta	-11.0788
▁återspegla	-11.0788
▁överhuvudtaget	-11.0788
▁prägla	-11.0788
▁steroid	-11.0788
▁tillbehör	-11.0788
▁jättebra	-11.0788
▁Önska	-11.0788
▁överklaga	-11.0788
▁intyg	-11.0789
▁gränssnitt	-11.0789
▁massiv	-11.0792
▁Fördelar	-11.0793
▁Term	-11.0797
▁framgår	-11.0802
▁utmanande	-11.0805
serien	-11.0807
▁hekt	-11.0808
▁rensa	-11.0819
▁=)	-11.0822
inklusive	-11.0824
▁skur	-11.0832
▁säkrare	-11.085
▁Europe	-11.0856
▁fartyget	-11.0866
▁Jehova	-11.0867
▁angrepp	-11.0867
▁drottning	-11.0867
▁inspektion	-11.0867
▁kamrat	-11.0867
▁lansering	-11.0867
dirigera	-11.0867
▁erkänner	-11.0867
▁innehavare	-11.0869
▁spegel	-11.0869
▁Robin	-11.0872
▁sammansättning	-11.0875
▁Modern	-11.0875
▁självständighet	-11.0877
▁uppror	-11.0877
▁Brand	-11.0884
▁Law	-11.0885
▁programmen	-11.0885
▁uppåt	-11.0892
▁list	-11.09
▁stimul	-11.0908
▁frigör	-11.0909
▁enhetlig	-11.0914
town	-11.0917
▁konkurrenter	-11.0923
▁VM	-11.0924
▁skedd	-11.0939
▁komplicera	-11.094
▁stjärnan	-11.0945
▁givet	-11.0946
▁Netflix	-11.0947
▁Xbox	-11.0947
▁bekräftelse	-11.0947
▁gymnasie	-11.0947
▁observation	-11.0947
▁1994	-11.0947
▁insamling	-11.0947
▁Anledning	-11.0947
▁predika	-11.0947
▁>>	-11.0948
▁ideologi	-11.095
▁fiber	-11.095
▁vrid	-11.0952
▁Angel	-11.0954
▁spets	-11.0956
klimatförändring	-11.0957
▁exportera	-11.0959
ally	-11.096
▁from	-11.0961
▁sålt	-11.0963
▁brittisk	-11.0964
▁Ski	-11.0966
▁Light	-11.0968
▁certifierad	-11.097
▁kirurgi	-11.0973
Alla	-11.0986
▁ovanlig	-11.0991
▁närmast	-11.0994
▁hållit	-11.0996
▁Syd	-11.0998
▁Manne	-11.1006
▁flexibla	-11.1028
▁insulin	-11.1028
▁konkurrera	-11.1028
▁progressiv	-11.1028
▁sjukskötersk	-11.1028
▁sökmotor	-11.1028
▁Lägenhet	-11.1028
▁sammanställ	-11.1028
▁Lyssna	-11.1028
▁Arbete	-11.1028
▁vätska	-11.1028
▁påstå	-11.1028
▁Tech	-11.1041
▁förbrukning	-11.1045
▁kostnadsfri	-11.105
▁bärbar	-11.1053
▁klocka	-11.1055
▁(2)	-11.1056
▁herre	-11.1065
▁institutet	-11.1066
▁Forskar	-11.1078
▁Atla	-11.1082
▁farlig	-11.1084
▁expansion	-11.1109
▁konvertera	-11.1109
▁premiär	-11.1109
▁övertygelse	-11.1109
▁romersk	-11.1109
▁Scott	-11.1109
▁Donald	-11.1109
▁kristall	-11.1109
▁tillträde	-11.111
▁förespråka	-11.111
▁Skydd	-11.1111
▁flykt	-11.1113
▁brygg	-11.1116
▁slö	-11.1116
▁syre	-11.1116
▁tunnel	-11.1117
riminal	-11.1118
▁minimi	-11.112
▁hiss	-11.1122
▁1,5	-11.1123
▁utmärkelse	-11.1125
▁målsättning	-11.1133
▁tidningar	-11.1135
▁Fly	-11.1139
▁blom	-11.1148
▁kompisar	-11.1166
▁Cup	-11.1176
▁Jul	-11.118
▁57	-11.1189
▁administratör	-11.1191
▁ceremoni	-11.1191
▁kyckling	-11.1191
▁ödmjuk	-11.1191
▁Mindre	-11.1191
▁Brown	-11.1193
▁bildades	-11.1194
▁beträffande	-11.1194
▁välfärd	-11.1194
▁högra	-11.1195
▁<3	-11.1196
▁Chris	-11.1196
▁antagit	-11.1206
▁västra	-11.1209
▁Guide	-11.1212
skärm	-11.123
▁översikt	-11.1231
▁komponent	-11.1232
▁nedgång	-11.1238
▁lyx	-11.1247
▁inriktad	-11.1249
▁Honom	-11.1262
▁Öka	-11.1263
▁Människan	-11.1274
▁konversation	-11.1274
▁VPN	-11.1274
▁Kommun	-11.1274
▁humanitär	-11.1274
▁renovera	-11.1274
▁gärningar	-11.1274
▁mogna	-11.1274
▁tendens	-11.1274
▁Blogg	-11.1274
ontrollera	-11.1274
▁upptagen	-11.1275
▁allergi	-11.1275
▁tårar	-11.1276
▁dyrt	-11.1276
▁monster	-11.1279
▁offra	-11.128
▁läggning	-11.1281
▁klubbar	-11.1281
▁Klar	-11.1285
▁recension	-11.1293
▁vågor	-11.1294
▁Sho	-11.1295
▁fotografera	-11.1297
▁lönsam	-11.1305
▁skratt	-11.131
▁artist	-11.1313
▁jack	-11.1317
väv	-11.1326
▁Mah	-11.1326
▁Spelet	-11.1328
▁Sym	-11.1346
Och	-11.135
í	-11.1357
▁Bryssel	-11.1357
▁godkänner	-11.1357
▁tvivla	-11.1357
▁Space	-11.1357
▁returnera	-11.1357
▁medvetet	-11.1358
▁Pengar	-11.1358
▁aktör	-11.136
▁saknade	-11.1361
▁visdom	-11.1361
▁grepp	-11.1363
▁Nytt	-11.1364
▁inslag	-11.1368
▁handled	-11.1372
▁upphandling	-11.1372
▁Kontroll	-11.1376
▁188	-11.1388
▁inträffade	-11.1391
book	-11.1393
▁stäm	-11.1394
cancer	-11.1398
▁hyll	-11.14
▁fungerande	-11.1424
▁Music	-11.1425
▁återgå	-11.1425
▁enklast	-11.1427
▁märkning	-11.1431
▁rörlig	-11.1432
▁Leon	-11.1436
▁läkemedlet	-11.1441
▁tobak	-11.1441
▁Samsung	-11.1441
▁Wood	-11.1441
▁Studio	-11.1441
postmeddelande	-11.1441
▁anlita	-11.1441
▁smitta	-11.1441
▁division	-11.1442
▁Airport	-11.1443
▁borgerlig	-11.1443
▁abort	-11.1443
▁lindra	-11.1444
▁foder	-11.1448
▁begravning	-11.1453
▁gris	-11.1456
▁Haha	-11.1457
▁osäkerhet	-11.1458
▁2,5	-11.146
▁dokumentär	-11.1463
vakt	-11.1466
▁Forskare	-11.1476
▁regional	-11.1477
▁osv	-11.149
▁landskapet	-11.1491
▁lysa	-11.1493
▁exempl	-11.1494
▁Sov	-11.1496
▁uppskattning	-11.1496
▁daglig	-11.1497
▁67	-11.1497
▁Kas	-11.1508
▁fukt	-11.1515
ø	-11.1526
▁1960	-11.1526
▁arbetsmiljö	-11.1526
▁registret	-11.1526
▁tillgodose	-11.1526
▁ultimat	-11.1526
▁diagram	-11.1526
▁utgångspunkt	-11.1526
▁jackpot	-11.1526
▁stream	-11.1526
▁garage	-11.1526
▁Djur	-11.1526
▁Grön	-11.1526
▁prins	-11.1526
▁hantverk	-11.1527
▁utsätts	-11.1528
▁Food	-11.153
▁Beslut	-11.1533
▁River	-11.1538
print	-11.1544
▁återvände	-11.1553
▁lim	-11.1564
▁DU	-11.1575
ström	-11.1578
▁störst	-11.1579
▁Olik	-11.1583
▁Förslag	-11.1594
▁Tru	-11.1599
▁Lars	-11.16
▁Gro	-11.1603
▁värdering	-11.161
▁Tjänster	-11.1611
▁besviken	-11.1611
▁oskyldig	-11.1611
▁rekrytering	-11.1611
▁Foundation	-11.1611
▁västerländsk	-11.1611
▁parallell	-11.1611
▁Aktiv	-11.1611
▁reparera	-11.1611
▁proffs	-11.1611
▁hedra	-11.1612
vuxit	-11.1612
▁oväntad	-11.1612
▁lojalitet	-11.1612
▁coach	-11.1614
▁Huset	-11.1615
▁relaterad	-11.1616
▁intim	-11.1616
▁Nedan	-11.1618
▁Human	-11.162
▁massage	-11.1622
▁Maj	-11.163
▁rosa	-11.1636
▁högtid	-11.1643
▁Senare	-11.1651
▁98	-11.1653
även	-11.167
▁inteckning	-11.1686
från	-11.1696
▁belastning	-11.1697
▁Journal	-11.1697
▁katolsk	-11.1697
▁värdepapper	-11.1697
▁företrädare	-11.1697
▁Alexander	-11.1697
▁fingrar	-11.1697
▁anvisningar	-11.1698
▁Färg	-11.1698
▁svamp	-11.1699
▁**	-11.1699
▁Golf	-11.17
▁Back	-11.1701
▁lampa	-11.1701
▁husdjur	-11.1701
▁vinkel	-11.1703
▁Skön	-11.1705
Att	-11.1705
▁Server	-11.1706
▁Rådet	-11.1716
▁hälsosamma	-11.1717
▁retur	-11.172
▁ego	-11.1726
▁186	-11.1733
röd	-11.1738
grund	-11.1741
enheter	-11.1755
löshet	-11.1756
▁EUR	-11.1759
▁fakultet	-11.1784
▁Bridge	-11.1784
▁näringsämnen	-11.1784
▁orättvis	-11.1784
▁Photo	-11.1784
▁lämpa	-11.1784
▁revisor	-11.1784
▁stiftelse	-11.1785
▁Gratis	-11.1785
▁värma	-11.1785
▁idiot	-11.1785
▁slottet	-11.1785
▁långivare	-11.1787
▁kalk	-11.1788
▁Poker	-11.1789
▁svett	-11.1791
▁50%	-11.18
▁kaos	-11.1807
▁konsekvens	-11.1808
▁slåss	-11.1813
▁Namn	-11.1826
▁studerande	-11.1837
▁Fisk	-11.1842
▁förutsätt	-11.1857
▁Universitet	-11.1872
▁applicera	-11.1872
▁hänvisning	-11.1872
▁läppar	-11.1872
▁skilsmässa	-11.1872
▁bröt	-11.1872
▁trettio	-11.1872
▁katalog	-11.1872
▁synpunkter	-11.1872
▁titlar	-11.1872
▁General	-11.1872
▁formulera	-11.1873
▁förlåta	-11.1873
▁utställningar	-11.1873
▁Express	-11.1874
▁överskrid	-11.1874
▁Utbildning	-11.1874
▁införliva	-11.1876
▁Finans	-11.1877
▁kretsar	-11.1878
öljaktligen	-11.188
▁heder	-11.1881
lägga	-11.1882
▁applikation	-11.1884
▁tredjeland	-11.1889
▁inblandade	-11.189
▁buk	-11.1899
tadium	-11.1905
▁fras	-11.1907
kaffa	-11.191
material	-11.1917
▁Fire	-11.1923
▁pil	-11.1923
färd	-11.1931
börd	-11.1935
▁menyn	-11.1938
▁Key	-11.1938
▁konventionell	-11.1944
▁trum	-11.1947
▁bokstav	-11.1959
▁sångare	-11.196
▁Hollywood	-11.196
▁omröstning	-11.196
▁auktion	-11.1961
▁Fokus	-11.1961
▁bindande	-11.1961
▁förutsatt	-11.1961
▁diagnostisera	-11.1961
▁Medicin	-11.1961
▁Text	-11.1962
▁Svår	-11.1962
▁Vanligt	-11.1965
▁krona	-11.1968
▁MBA	-11.1969
ifiera	-11.1971
▁invandrare	-11.1973
▁indisk	-11.1973
▁bönder	-11.1979
▁ytor	-11.1983
▁bussar	-11.1986
▁inrikta	-11.1987
▁kontrast	-11.1992
▁förnya	-11.1993
▁befintlig	-11.1995
▁head	-11.2002
▁väv	-11.2003
mästare	-11.2006
kommissionen	-11.2006
fält	-11.2007
▁lägg	-11.2007
▁Jean	-11.2009
▁Qui	-11.2015
▁Högst	-11.202
▁Erik	-11.2027
▁förvalta	-11.2028
lund	-11.2049
▁kunglig	-11.205
kostnadseffektiv	-11.205
▁regissera	-11.205
▁systrar	-11.205
▁enzym	-11.205
▁Hitler	-11.205
▁asiatisk	-11.205
▁assist	-11.205
▁framöver	-11.205
▁Gaza	-11.205
▁Arbeta	-11.2051
▁Baby	-11.2051
▁Länk	-11.2051
▁Resort	-11.2053
▁möts	-11.2054
krig	-11.2056
▁360	-11.2057
▁känslighet	-11.2058
▁reservera	-11.2061
▁mätningar	-11.2077
▁action	-11.2078
▁Marx	-11.2082
▁smärtsam	-11.2085
▁översyn	-11.2086
irst	-11.2095
▁Nordamerika	-11.2099
▁Hav	-11.213
▁deklaration	-11.214
▁korruption	-11.214
▁sanktioner	-11.214
▁kritisera	-11.214
▁Koranen	-11.214
▁Putin	-11.214
▁separera	-11.2141
▁sfär	-11.2141
▁uppfinning	-11.2141
▁given	-11.2144
▁missförstå	-11.2144
▁with	-11.2145
ittle	-11.2156
▁upplösning	-11.2156
▁larm	-11.2158
▁Direkt	-11.2158
▁imponerad	-11.2159
▁Off	-11.219
▁Projekt	-11.22
▁län	-11.2202
▁effektivare	-11.2209
mall	-11.2219
▁Område	-11.2224
▁stämma	-11.2224
villkor	-11.2227
▁entusiast	-11.2231
▁Singapore	-11.2231
▁homosexuell	-11.2231
▁miljövänlig	-11.2231
▁parametrar	-11.2231
▁påskynda	-11.2231
▁strejk	-11.2231
▁1993	-11.2231
▁Vetenskap	-11.2231
▁avbryta	-11.2231
▁vibration	-11.2231
▁Michel	-11.2231
▁brud	-11.2231
▁opposition	-11.2231
▁återkalla	-11.2232
▁Privat	-11.2232
▁Radio	-11.2232
▁puls	-11.2233
▁Läge	-11.2233
▁förlita	-11.2248
▁finska	-11.2251
▁Audi	-11.2253
▁(3)	-11.2254
▁laser	-11.2255
▁trick	-11.2257
▁Åk	-11.2263
▁exemplar	-11.2265
▁återstå	-11.227
▁tank	-11.2271
▁upplevd	-11.2277
▁Frans	-11.2292
▁skådespel	-11.2302
▁Walk	-11.2307
▁fran	-11.2307
kommande	-11.2317
demokrater	-11.2322
£	-11.2323
▁Belgien	-11.2323
▁Kostnad	-11.2323
▁emellan	-11.2323
▁klassificering	-11.2323
▁palats	-11.2323
▁klättra	-11.2323
▁huvudkontor	-11.2323
▁Orsak	-11.2323
▁trauma	-11.2323
▁tillåtna	-11.2325
▁Valley	-11.2325
▁Organ	-11.2326
▁Nobel	-11.2326
ograf	-11.2326
▁väsen	-11.2326
väpna	-11.2327
▁ärenden	-11.2327
▁Holland	-11.2328
▁drömmen	-11.2329
▁panik	-11.2331
▁miljard	-11.2339
▁domstolar	-11.2345
▁utdelning	-11.2362
▁tyg	-11.2369
▁rättighet	-11.2371
maskin	-11.2372
▁Ash	-11.2387
▁Gall	-11.239
▁Palm	-11.2391
▁Känd	-11.2394
▁East	-11.2396
▁statistisk	-11.24
â	-11.2415
¥	-11.2415
▁besparing	-11.2415
▁demonstration	-11.2415
▁kungariket	-11.2415
▁respons	-11.2415
▁Snälla	-11.2415
▁tvungna	-11.2415
▁Oscar	-11.2415
▁partiklar	-11.2415
▁täckning	-11.2415
▁Securit	-11.2416
▁Lycka	-11.2416
innehav	-11.2417
▁ambassadör	-11.2418
▁SEK	-11.2419
▁angrip	-11.2422
nnars	-11.2422
▁ovanstående	-11.2422
▁passiv	-11.2425
▁krypto	-11.2427
▁mandat	-11.2431
▁ledarna	-11.2449
▁Kill	-11.2458
▁armé	-11.2459
▁Financ	-11.2472
abilitet	-11.2476
▁slipp	-11.2483
▁verksam	-11.2488
▁Portugal	-11.2509
▁aluminium	-11.2509
▁bekymmer	-11.2509
▁levnads	-11.2509
▁signifikant	-11.2509
▁Cloud	-11.2509
▁korrigera	-11.2509
▁campus	-11.2509
▁DVD	-11.2509
▁centralbank	-11.2509
▁Multi	-11.2509
▁såhär	-11.2509
▁förfrågan	-11.251
▁kilo	-11.2511
▁Jones	-11.2516
▁LED	-11.2517
▁hugg	-11.2518
▁mysig	-11.2521
▁firm	-11.2529
▁Juda	-11.2529
▁skogar	-11.2533
▁löpande	-11.2539
▁passagerar	-11.2543
▁trivs	-11.2543
cast	-11.2548
▁psykologi	-11.2561
▁stadig	-11.257
▁Lill	-11.2573
▁Justin	-11.2583
▁smutsig	-11.2595
▁sammanfatta	-11.2596
▁förhoppning	-11.26
▁FÖR	-11.2603
▁ackumul	-11.2603
▁blödning	-11.2603
▁bokstäver	-11.2603
▁medborgarskap	-11.2603
▁spädbarn	-11.2603
▁volontär	-11.2603
▁workshop	-11.2603
▁Vietnam	-11.2603
▁afrikansk	-11.2603
▁Okej	-11.2603
▁krasch	-11.2603
▁kammare	-11.2603
▁Henry	-11.2604
▁slakt	-11.2604
▁dyrka	-11.2604
▁hälsovård	-11.2604
gången	-11.2607
▁hyres	-11.2609
▁teologi	-11.2614
▁skarp	-11.2644
▁protest	-11.2658
▁Fader	-11.2662
ility	-11.268
▁kvalificer	-11.2695
▁regissör	-11.2698
‐	-11.2698
▁Joseph	-11.2698
▁Technology	-11.2698
▁dräkt	-11.2698
▁utnämn	-11.2698
▁vertikal	-11.2698
▁syskon	-11.2698
▁nycklar	-11.2698
▁skåp	-11.2698
▁åtanke	-11.2698
▁Regler	-11.2698
▁Control	-11.2698
▁kollaps	-11.2699
▁generös	-11.27
▁bibel	-11.2703
▁företräde	-11.2703
▁förhands	-11.2707
▁Spring	-11.2708
▁Night	-11.2717
▁Roll	-11.274
▁Minst	-11.2743
▁regelbunde	-11.2761
▁obehaglig	-11.2777
gram	-11.2783
▁skrämm	-11.2788
▁diamant	-11.2794
▁våldtäkt	-11.2794
▁Clinton	-11.2794
▁jordbävning	-11.2794
▁monument	-11.2794
▁allierade	-11.2794
▁biskop	-11.2794
▁isolering	-11.2794
▁matlagning	-11.2794
▁programmering	-11.2794
▁besitt	-11.2795
▁smink	-11.2795
▁guida	-11.2795
▁ombud	-11.2796
▁Way	-11.2799
▁stadsdel	-11.2799
▁fastställts	-11.2801
▁sörj	-11.2802
▁logik	-11.2802
▁inträde	-11.2803
▁drabbats	-11.2804
▁Great	-11.2811
▁etnisk	-11.2814
▁Personal	-11.2817
▁blek	-11.2818
vitamin	-11.2848
kommer	-11.2848
▁tål	-11.2875
ship	-11.2876
▁cookie	-11.2877
▁Shop	-11.2878
▁Köpenhamn	-11.2891
▁Plötslig	-11.2891
▁Sovjetunionen	-11.2891
▁blodsocker	-11.2891
▁suverän	-11.2891
▁Skrift	-11.2891
▁bagage	-11.2891
▁Kultur	-11.2891
▁huvudvärk	-11.2891
▁galleri	-11.2891
▁evighet	-11.2891
▁redskap	-11.2892
▁galax	-11.2892
▁Uppgifter	-11.2892
▁osynlig	-11.2892
▁förhandla	-11.2892
▁våningen	-11.2892
▁Direct	-11.2893
▁SEO	-11.2896
▁tredjepart	-11.2896
▁Villkor	-11.2899
▁bestämmelse	-11.2915
▁Cost	-11.292
▁mördare	-11.2921
▁nyår	-11.2932
▁framställning	-11.294
städer	-11.2944
▁relativ	-11.2958
▁Karta	-11.2964
▁Frågor	-11.2989
▁frälsning	-11.2989
▁sekretess	-11.2989
▁splittra	-11.2989
▁tvilling	-11.2989
▁1989	-11.2989
▁Ekonomi	-11.2989
▁Taylor	-11.2989
▁Förbered	-11.2989
▁fäder	-11.2989
▁tröja	-11.2989
▁tennis	-11.2989
▁kryssning	-11.2989
▁besked	-11.2989
▁high	-11.2989
▁valutor	-11.299
▁odling	-11.299
▁desperat	-11.299
▁slappna	-11.299
▁assistent	-11.2991
▁piller	-11.2991
▁nervös	-11.2991
▁Betyd	-11.2992
▁Dating	-11.2993
▁Prag	-11.2994
▁Jackson	-11.2994
▁möss	-11.2997
▁Liber	-11.2998
▁öva	-11.2999
▁universell	-11.3004
▁basis	-11.301
▁Sommar	-11.3011
▁portal	-11.3017
▁hårdare	-11.3027
släpp	-11.3031
nnor	-11.3037
▁04	-11.3039
▁Basera	-11.3041
▁uppmärksam	-11.3052
produkter	-11.3073
▁Problem	-11.3073
▁ambassad	-11.3085
lang	-11.3088
▁Amsterdam	-11.3088
▁Palestina	-11.3088
▁Special	-11.3088
▁kompromiss	-11.3088
▁kriminell	-11.3088
▁tvärtom	-11.3088
▁överväldiga	-11.3088
▁1984	-11.3088
▁cirkel	-11.3088
▁underrättelse	-11.3088
▁lampor	-11.3089
▁aktieägare	-11.309
▁fördelaktig	-11.309
▁Garden	-11.309
▁arbetsuppgifter	-11.3091
▁avskaffa	-11.3091
▁Slot	-11.3091
▁regelverk	-11.3092
▁tropisk	-11.3092
▁ilska	-11.3092
▁Källa	-11.3092
mässiga	-11.3102
▁(200	-11.3103
▁Farm	-11.3104
▁uppvisa	-11.3112
▁regleras	-11.3121
▁lott	-11.3135
▁lyxig	-11.3142
trafik	-11.3145
produktion	-11.3145
▁Uppsa	-11.3166
folk	-11.317
sökande	-11.3172
▁inbördeskrig	-11.3188
ekretesspolicy	-11.3188
▁GDPR	-11.3188
▁Skottland	-11.3188
▁algoritm	-11.3188
▁exceptionell	-11.3188
▁hybrid	-11.3188
▁kollektion	-11.3188
▁kompensera	-11.3188
▁misslyckad	-11.3188
▁nyhetsbrev	-11.3188
▁åklagar	-11.3188
▁århundradet	-11.3188
▁anländer	-11.3188
▁1991	-11.3188
▁Linux	-11.3188
▁hygien	-11.3188
▁interaktiv	-11.3188
▁Galax	-11.3189
▁benämn	-11.3189
▁hunger	-11.3189
▁fynd	-11.3189
▁autonom	-11.3189
▁drömmer	-11.3189
▁telefonnummer	-11.3189
synsmyndighet	-11.319
▁Queen	-11.319
▁tidsperiod	-11.319
▁programmera	-11.3197
▁komplicerad	-11.3198
abell	-11.3198
▁Mike	-11.3202
▁Väx	-11.3204
▁Assa	-11.3207
▁kub	-11.321
▁Ladd	-11.3211
▁Spara	-11.3212
▁Laur	-11.3219
▁sekundär	-11.3221
▁Coll	-11.3251
▁avstå	-11.3281
▁slump	-11.3285
▁County	-11.3289
▁förlåtelse	-11.3289
▁Philip	-11.3289
▁auktorisera	-11.3289
▁björn	-11.3289
▁Moskva	-11.3289
▁terrass	-11.3289
▁tatuering	-11.3289
▁kryptering	-11.3289
▁Polisen	-11.329
▁entré	-11.329
▁trailer	-11.329
▁smycke	-11.329
▁grill	-11.329
▁piano	-11.329
▁gjut	-11.329
▁antagligen	-11.3291
▁identisk	-11.3291
▁påståenden	-11.3295
▁nazist	-11.3295
▁föredrag	-11.3313
▁solid	-11.3314
▁Leta	-11.3321
nemang	-11.3322
▁Topp	-11.3324
lidit	-11.3325
=	-11.3348
shot	-11.3354
▁komposit	-11.3365
▁giftig	-11.3368
▁Kai	-11.3383
▁konservativ	-11.3391
▁preferenser	-11.3391
▁rekrytera	-11.3391
▁århundraden	-11.3391
▁Jakob	-11.3392
▁kopior	-11.3392
▁Strategi	-11.3392
▁initial	-11.3392
▁Partner	-11.3392
▁numret	-11.3392
▁likvärdig	-11.3392
▁stroke	-11.3392
▁likadant	-11.3392
▁erövra	-11.3392
▁sovjet	-11.3392
▁ersätter	-11.3392
▁Klass	-11.3393
▁Upplev	-11.3397
▁kapten	-11.3398
▁försvunnit	-11.3398
▁rejäl	-11.3398
▁överförs	-11.3403
▁new	-11.3404
terapi	-11.3411
▁utspela	-11.3435
▁decenni	-11.3446
▁värdig	-11.345
▁filosof	-11.3452
innan	-11.3454
▁Call	-11.3461
▁Föräldrar	-11.3495
▁Organisation	-11.3495
▁barmhärtig	-11.3495
▁beskattning	-11.3495
▁identifiering	-11.3495
▁komplikationer	-11.3495
▁obligation	-11.3495
▁sammanfattning	-11.3495
▁Östersjö	-11.3495
▁råvaror	-11.3495
▁Kvalitet	-11.3495
▁Network	-11.3495
▁måttlig	-11.3495
▁ondska	-11.3495
▁skruv	-11.3495
▁Josef	-11.3495
▁Edward	-11.3495
▁divers	-11.3495
▁agenda	-11.3495
▁klassiker	-11.3496
▁Francisco	-11.3496
▁musikalisk	-11.3496
▁Beskrivning	-11.3497
leverantörer	-11.3498
▁underrätta	-11.3499
▁frånvaro	-11.3502
▁fascinerande	-11.3504
▁porn	-11.3518
▁idrottare	-11.3523
▁förkorta	-11.3539
▁Long	-11.3545
ämne	-11.3547
▁Stå	-11.3553
bundna	-11.3554
nesisk	-11.3556
▁apotek	-11.3599
▁Education	-11.3599
▁cannabis	-11.3599
▁kolesterol	-11.3599
▁renovering	-11.3599
▁roulette	-11.3599
▁bitcoin	-11.3599
▁vittnesbörd	-11.3599
▁spelautomat	-11.3599
▁meningsfull	-11.3599
▁Yoga	-11.3599
▁nedladdning	-11.36
▁bokstavligen	-11.3601
▁centret	-11.3601
stitution	-11.3606
▁Jonas	-11.3608
rodde	-11.3612
▁Saab	-11.3614
▁Roger	-11.3616
▁kvarter	-11.3616
sprut	-11.3627
▁Namne	-11.3657
organisation	-11.366
görelse	-11.3672
▁trott	-11.3692
▁klargör	-11.3694
▁allergisk	-11.3703
▁Society	-11.3704
▁Teknik	-11.3704
▁mångsidig	-11.3704
▁templet	-11.3704
▁åldrande	-11.3704
▁överensstämmer	-11.3704
▁flaskor	-11.3704
▁Kunskap	-11.3704
▁hårddisk	-11.3704
lärjungar	-11.3704
▁Sweden	-11.3704
▁kapitalismen	-11.3704
▁räntor	-11.3704
▁kärleksfull	-11.3704
▁Watch	-11.3704
▁pistol	-11.3705
▁släck	-11.3706
▁akademi	-11.3706
▁antyd	-11.3706
▁invånarn	-11.3706
▁Möjlighet	-11.3709
▁1950	-11.371
▁porr	-11.371
▁doktorand	-11.371
▁Good	-11.3713
▁neka	-11.3713
▁Drive	-11.3715
▁optisk	-11.3718
▁opera	-11.3748
▁förekomma	-11.3752
åtgärder	-11.3753
▁Opera	-11.3756
▁tveka	-11.376
hälso	-11.3767
drift	-11.3768
datum	-11.3772
▁grafisk	-11.3778
▁rått	-11.378
▁Yu	-11.3783
▁kommunal	-11.3785
▁träff	-11.3791
▁kapitalistisk	-11.3805
▁Line	-11.3809
▁Down	-11.381
▁Victoria	-11.381
▁auktoritet	-11.381
▁jurisdiktion	-11.381
▁palestinier	-11.381
▁självförtroende	-11.381
▁välgörenhet	-11.381
▁överträffa	-11.381
▁Zeeland	-11.381
▁Adobe	-11.381
▁robust	-11.381
▁emotionell	-11.3811
▁Sälj	-11.3811
▁Albert	-11.3811
▁sänkt	-11.3811
▁specifikationer	-11.3812
▁trovärdig	-11.3814
▁bakåt	-11.3816
▁:-)	-11.3816
▁museer	-11.3818
▁lönsamhet	-11.3819
▁finger	-11.382
▁begått	-11.3824
graph	-11.3825
▁Arab	-11.3828
▁Pappa	-11.383
▁Stäng	-11.3832
▁kvinno	-11.3843
▁Kuba	-11.3865
▁spänn	-11.3904
▁rysk	-11.3912
rustning	-11.3915
▁Språk	-11.3918
▁WordPress	-11.3918
▁erbjöd	-11.3918
▁kognitiv	-11.3918
▁mirakel	-11.3918
▁frustrera	-11.3918
▁sämst	-11.3918
▁utsidan	-11.3918
▁BNP	-11.3918
▁Således	-11.3918
rikesminister	-11.3918
▁Libyen	-11.3918
▁teckne	-11.3918
▁övervinna	-11.3919
▁Cancer	-11.392
▁publicering	-11.392
▁klost	-11.3921
▁moment	-11.3926
▁feminist	-11.3928
▁bitter	-11.393
▁rasism	-11.3931
▁Jobb	-11.3931
▁hemifrån	-11.3933
▁besatt	-11.3947
▁Orde	-11.3955
boll	-11.397
normal	-11.3984
▁bestå	-11.3984
behandling	-11.3986
analys	-11.3986
ibel	-11.4002
	-11.4027
▁Analytics	-11.4027
▁Rekommendera	-11.4027
▁besvikelse	-11.4027
▁extraordinär	-11.4027
▁funktionshinder	-11.4027
▁kompetent	-11.4027
▁plånbok	-11.4027
▁popularitet	-11.4027
▁slutgiltig	-11.4027
▁spektakulär	-11.4027
▁1986	-11.4027
▁solidaritet	-11.4027
▁uppgradering	-11.4027
▁1992	-11.4027
▁GUD	-11.4027
▁Ocean	-11.4027
▁fattig	-11.4027
▁arkeolog	-11.4028
▁socio	-11.4029
▁Prata	-11.4032
▁Bou	-11.4063
äldigt	-11.4065
▁skoj	-11.4082
▁vettig	-11.4091
pprätthåll	-11.4106
▁fött	-11.4112
▁charmig	-11.4122
▁kylskåp	-11.4136
▁Argentina	-11.4137
▁Elizabeth	-11.4137
▁Hjärt	-11.4137
▁Innovation	-11.4137
▁Utveckla	-11.4137
▁anknytning	-11.4137
▁illegal	-11.4137
▁kalcium	-11.4137
▁konfiguration	-11.4137
▁kosttillskott	-11.4137
▁räckvidd	-11.4137
▁maximera	-11.4137
▁Process	-11.4137
▁HIV	-11.4137
▁arbetsmarknaden	-11.4137
▁Dubai	-11.4137
▁BBC	-11.4137
▁intensitet	-11.4137
▁brottslighet	-11.4137
▁försvaga	-11.4137
▁sjunger	-11.4137
▁revidera	-11.4137
▁Ryan	-11.4137
▁syrisk	-11.4138
▁Christian	-11.4139
▁fredlig	-11.4139
▁trappa	-11.4139
▁feber	-11.414
▁betydelsefull	-11.414
▁förvärra	-11.414
phone	-11.414
▁belys	-11.4141
▁Jeff	-11.4142
skrivning	-11.4143
▁Premie	-11.4144
▁Svensk	-11.4148
ittills	-11.4149
▁värdighet	-11.415
▁Trail	-11.4155
▁Brist	-11.4162
publ	-11.4168
▁inneb	-11.4172
▁kå	-11.4189
▁stjärn	-11.4194
▁ranka	-11.4195
kunskap	-11.4204
departementet	-11.4248
▁ambitiös	-11.4248
▁baksidan	-11.4248
▁chaufför	-11.4248
▁efterlevnad	-11.4248
▁förfäder	-11.4248
▁konfigurera	-11.4248
▁obekväm	-11.4248
▁prioritet	-11.4248
▁aptit	-11.4248
▁bädd	-11.4248
▁prinsessa	-11.4248
▁episod	-11.4248
▁Förlåt	-11.4249
▁soldat	-11.4249
▁kompatibel	-11.425
▁???	-11.4251
▁skilj	-11.4253
▁gömd	-11.4254
▁lektion	-11.4255
▁målgrupp	-11.4259
▁brutal	-11.4286
▁sido	-11.4287
köp	-11.4301
hållnings	-11.432
▁Foto	-11.4335
▁glid	-11.4339
kjut	-11.4345
▁legend	-11.436
▁vulkan	-11.436
~	-11.436
▁artificiell	-11.436
▁distributör	-11.436
▁föregångare	-11.436
▁manipulera	-11.436
▁tandläkare	-11.436
▁transparent	-11.436
▁utplåna	-11.436
▁kanadensisk	-11.436
▁PDF	-11.436
▁diesel	-11.436
▁föreslagna	-11.436
▁pizza	-11.436
▁Analys	-11.436
▁anteckningar	-11.436
▁yngst	-11.4361
▁bunden	-11.4361
▁höjdpunkt	-11.4362
▁Erbjudande	-11.4364
▁Show	-11.4366
▁förutse	-11.4371
▁rättfärdighet	-11.4371
serie	-11.4398
befolkningen	-11.443
▁självklar	-11.446
ödelse	-11.4471
▁anhängar	-11.4474
▁banbrytande	-11.4474
▁hunnit	-11.4474
▁immateriell	-11.4474
▁kvalité	-11.4474
▁mardröm	-11.4474
▁utskrift	-11.4474
▁kunnig	-11.4474
▁Material	-11.4474
▁attrahera	-11.4474
▁Mountain	-11.4474
▁oklart	-11.4474
▁blomstra	-11.4475
▁stryk	-11.4475
▁bensin	-11.4475
▁konkurs	-11.4475
▁bankkonto	-11.4476
▁sammanträde	-11.4477
▁taktik	-11.4483
▁Luft	-11.4484
▁beteckna	-11.4484
▁lyder	-11.4486
▁halvår	-11.4486
▁jämförbar	-11.4488
▁umgå	-11.4488
▁toxi	-11.4489
▁makar	-11.4499
▁kommission	-11.45
böcker	-11.4545
▁kontra	-11.4553
▁norm	-11.4571
kött	-11.4573
▁luftkonditioner	-11.4589
▁Chrome	-11.4589
▁beskrev	-11.4589
▁facilitet	-11.4589
▁instruktör	-11.4589
▁orientera	-11.4589
▁restriktioner	-11.4589
▁webbsidor	-11.4589
▁lådor	-11.4589
▁avundsjuk	-11.4589
▁tidsfrist	-11.4589
▁skylla	-11.4589
▁domännamn	-11.4589
▁utgåva	-11.4589
▁ståndpunkt	-11.4589
▁nationalpark	-11.4589
▁övergiv	-11.459
▁svält	-11.4591
ncer	-11.4591
▁prestera	-11.4591
▁stammar	-11.4592
▁Pack	-11.4593
▁mormor	-11.4596
▁home	-11.4597
▁GPS	-11.4597
▁Nordic	-11.4602
▁antag	-11.4605
▁finaste	-11.4609
▁förbindelse	-11.463
morgon	-11.4639
▁hydro	-11.467
▁luta	-11.4672
▁Festival	-11.4705
▁Republiken	-11.4705
▁kännedom	-11.4705
▁medlemsländer	-11.4705
▁otillräcklig	-11.4705
▁representation	-11.4705
▁succé	-11.4705
▁prototyp	-11.4705
▁redaktör	-11.4705
▁shoppa	-11.4705
▁insidan	-11.4705
▁häftig	-11.4705
▁kollega	-11.4705
▁brottsling	-11.4705
▁blyg	-11.4705
▁scenario	-11.4706
▁tjuv	-11.4706
▁Tesla	-11.4707
▁återkommer	-11.4707
lämning	-11.4708
▁Rysk	-11.4715
▁hängiv	-11.472
▁Tillverka	-11.473
▁Hunt	-11.4744
▁vecko	-11.4748
▁signera	-11.4767
klipp	-11.4779
▁inbegrip	-11.4792
▁glöd	-11.4803
▁biologi	-11.4819
}	-11.4822
▁Förbättra	-11.4822
▁Medelhavet	-11.4822
▁Pakistan	-11.4822
▁infektera	-11.4822
▁livskvalitet	-11.4822
{	-11.4823
▁Nyckel	-11.4823
▁navigera	-11.4823
▁management	-11.4823
▁Klimat	-11.4823
▁släktingar	-11.4823
▁spräng	-11.4823
▁befattning	-11.4823
▁beslutsfattande	-11.4823
▁bänk	-11.4823
▁Metod	-11.4823
▁tragisk	-11.4823
▁tält	-11.4824
▁singlar	-11.4824
▁lotteri	-11.4824
▁växthus	-11.4824
▁ugn	-11.4825
annerligen	-11.4827
▁döttrar	-11.4827
▁påminnelse	-11.4828
▁konstverk	-11.4832
▁berika	-11.4844
▁Match	-11.4859
förfarande	-11.4898
ansvarig	-11.4898
instrument	-11.4898
fördraget	-11.4898
frukt	-11.4899
brytning	-11.4931
▁lojal	-11.494
▁Venezuela	-11.4942
▁illusion	-11.4942
▁olycklig	-11.4942
▁tolerans	-11.4942
▁intrång	-11.4942
▁uppriktig	-11.4942
▁inaktiv	-11.4942
▁instinkt	-11.4942
▁Kommentar	-11.4942
▁mönstr	-11.4942
▁morgondagen	-11.4942
▁ritual	-11.4942
▁Stefan	-11.4942
▁tyngd	-11.4942
▁anbud	-11.4942
▁förfrågningar	-11.4942
▁högtalare	-11.4942
▁ändamålsenlig	-11.4942
▁beklaga	-11.4942
▁Connect	-11.4942
▁fetma	-11.4942
▁Manager	-11.4942
craft	-11.4943
▁Transport	-11.4943
▁avsiktlig	-11.4944
▁Avsnitt	-11.4947
▁Lady	-11.495
▁Potter	-11.495
▁kartlägg	-11.4951
stjärnig	-11.4959
▁islamisk	-11.4966
▁fuktig	-11.4969
Varför	-11.5019
soft	-11.5052
▁psykolog	-11.5058
ortfarande	-11.5059
lägsen	-11.5059
▁down	-11.5061
ntegritetspolicy	-11.5062
▁Fantastisk	-11.5062
▁hjältar	-11.5062
▁kundservice	-11.5062
▁miljöpåverkan	-11.5062
▁proletariatet	-11.5062
▁djävul	-11.5062
▁gigantisk	-11.5062
▁incident	-11.5062
▁prenumeration	-11.5062
▁Kvinnan	-11.5062
▁oljor	-11.5062
▁Kropp	-11.5062
▁Peking	-11.5062
▁Återigen	-11.5062
▁montering	-11.5062
▁hänför	-11.5062
▁Kraft	-11.5062
▁analog	-11.5062
▁bröstcancer	-11.5062
▁barnbarn	-11.5062
modligen	-11.5063
▁Ungern	-11.5063
▁offren	-11.5065
▁ramverk	-11.5067
▁life	-11.507
▁enkät	-11.5071
▁givn	-11.5072
▁svåraste	-11.5074
▁Parti	-11.509
▁ingrediens	-11.512
▁sorglig	-11.5126
▁Deltagar	-11.5128
funktion	-11.514
ödra	-11.5143
sektorn	-11.5146
fartyg	-11.517
▁pedagogisk	-11.5173
▁fascinera	-11.5173
▁Säker	-11.5179
▁Akademi	-11.5184
▁Förändring	-11.5184
▁Profeten	-11.5184
▁Styrelsen	-11.5184
▁facebook	-11.5184
▁intervention	-11.5184
▁ordinarie	-11.5184
▁sponsor	-11.5184
▁älskling	-11.5184
▁återbetala	-11.5184
llustration	-11.5184
▁Samhäll	-11.5184
▁Sydkorea	-11.5184
▁hobby	-11.5184
▁skulptur	-11.5184
▁överskott	-11.5184
▁gummi	-11.5184
▁spontan	-11.5184
▁bägge	-11.5184
▁Square	-11.5184
▁befrielse	-11.5184
▁axlar	-11.5184
▁upplysningar	-11.5184
▁Normal	-11.5184
▁konsol	-11.5184
▁plåga	-11.5184
▁Dream	-11.5184
▁hårdvara	-11.5184
▁förnyelse	-11.5184
▁skivor	-11.5184
▁ansikts	-11.5184
▁rymlig	-11.5185
▁Störst	-11.5185
▁innebörd	-11.5185
▁vindkraft	-11.5185
▁Aktie	-11.5186
▁Ändra	-11.5187
▁Mail	-11.5187
▁Trust	-11.5189
▁bingo	-11.5191
▁stycke	-11.5191
▁socialistisk	-11.5224
metoder	-11.5244
▁Main	-11.5261
rapport	-11.5266
▁vackrast	-11.5271
▁Sitt	-11.5279
▁försvunn	-11.53
neralsekreterare	-11.5307
▁Majoritet	-11.5307
▁allihop	-11.5307
▁astronom	-11.5307
▁cirkulär	-11.5307
▁förvirring	-11.5307
▁kvantitet	-11.5307
▁logotyp	-11.5307
▁misslyckat	-11.5307
▁reflektion	-11.5307
▁synkroniser	-11.5307
▁Åtgärd	-11.5307
▁ackreditera	-11.5307
▁öknen	-11.5307
▁klockor	-11.5308
▁bråk	-11.5308
▁byxor	-11.5308
▁fientlig	-11.5308
sexualitet	-11.5308
▁legendarisk	-11.5308
▁Gräns	-11.5308
▁drivkraft	-11.531
▁automatiserad	-11.531
▁fordra	-11.531
▁Institution	-11.531
▁affärsområde	-11.5311
▁irländsk	-11.5311
▁lagstifta	-11.5315
▁Gate	-11.5317
▁ansträng	-11.5334
familjemedlemmar	-11.5347
växla	-11.5389
medborgare	-11.5389
▁bistå	-11.5414
▁kryp	-11.5415
narkotika	-11.5432
▁Charlie	-11.5432
▁fullborda	-11.5432
▁potatis	-11.5432
▁testosteron	-11.5432
▁JAG	-11.5432
▁Jacob	-11.5432
▁Stephen	-11.5432
▁bomull	-11.5432
▁initiera	-11.5432
▁genuin	-11.5432
▁debitera	-11.5433
▁förebild	-11.5433
▁kusin	-11.5433
▁krydd	-11.5433
▁Girl	-11.5433
▁allians	-11.5433
▁regelbundna	-11.5433
▁Nokia	-11.5433
▁Byggnad	-11.5433
▁Suite	-11.5433
▁rytm	-11.5434
▁meningslös	-11.5436
▁genomförd	-11.5438
▁Extra	-11.5441
▁upplaga	-11.5456
väckande	-11.5497
▁drick	-11.5515
▁Möjlig	-11.5554
▁erfaren	-11.5554
▁Demokrati	-11.5559
▁Försäljning	-11.5559
▁Saudiarabien	-11.5559
▁differen	-11.5559
▁ekvation	-11.5559
▁optimering	-11.5559
▁utsåg	-11.5559
▁Domstolen	-11.5559
▁Funktion	-11.5559
▁Teknisk	-11.5559
▁hämnd	-11.5559
▁mestadels	-11.5559
▁rundtur	-11.5559
▁pulver	-11.5559
▁Söder	-11.5559
▁omgiven	-11.5559
▁Fjär	-11.5559
▁promenera	-11.5559
▁Generell	-11.5559
▁ihjäl	-11.5559
▁samvete	-11.5559
▁fusion	-11.5559
▁Helige	-11.5559
▁sistnämnda	-11.5559
▁Handling	-11.5559
▁Boston	-11.556
▁astma	-11.556
▁Nyheter	-11.556
▁bifoga	-11.556
nblick	-11.5562
▁Heart	-11.5563
▁körkort	-11.5564
▁Boende	-11.5568
▁författar	-11.5594
kläder	-11.5644
fredsställelse	-11.565
▁ideell	-11.5683
▁Wikipedia	-11.5687
▁bidrog	-11.5687
▁college	-11.5687
▁fräsch	-11.5687
▁fundamental	-11.5687
▁förolämp	-11.5687
▁motorcykel	-11.5687
▁olympisk	-11.5687
▁pjäs	-11.5687
▁indikation	-11.5687
▁August	-11.5687
▁migranter	-11.5687
▁exponera	-11.5687
▁defekt	-11.5687
▁delegera	-11.5687
nvasion	-11.5687
▁förfogande	-11.5687
▁fibrer	-11.5687
▁Ansvar	-11.5688
▁Sydney	-11.5688
▁rationell	-11.5688
▁stereo	-11.5688
▁Nationell	-11.5688
▁sovrummet	-11.5689
▁komedi	-11.5689
▁makro	-11.569
▁fullgöra	-11.5693
▁tänkbar	-11.5716
▁slip	-11.5732
▁Tillgång	-11.5749
ställe	-11.5776
▁ekonom	-11.5787
▁åtfölj	-11.5802
▁Church	-11.5817
▁Registrer	-11.5817
▁Hälso	-11.5817
▁Venedig	-11.5817
▁avsaknad	-11.5817
▁matematisk	-11.5817
▁population	-11.5817
▁navigering	-11.5817
▁Undersökning	-11.5817
▁stöld	-11.5817
▁äpple	-11.5817
▁varaktighet	-11.5817
▁France	-11.5817
▁kollektivtrafik	-11.5817
▁sallad	-11.5818
▁Fyll	-11.5818
▁miljömässig	-11.5818
▁låtsas	-11.5818
▁Tower	-11.5818
▁mjukvar	-11.5818
▁vrede	-11.5818
▁etapp	-11.5818
▁knyt	-11.5818
▁drev	-11.5819
▁invändning	-11.5819
▁kryptera	-11.582
▁brinna	-11.5821
▁plagg	-11.5822
▁sprit	-11.5823
▁Cirk	-11.5823
▁slumpmässig	-11.5823
▁charm	-11.5836
kommen	-11.5843
witch	-11.585
▁härskar	-11.5862
▁tillvaro	-11.5863
▁förbruka	-11.5876
femtio	-11.5905
amarbetspartners	-11.5916
▁framkalla	-11.5933
▁okunnig	-11.5949
▁Drottning	-11.5949
▁MSEK	-11.5949
▁Patienter	-11.5949
▁hjärtsjukdom	-11.5949
▁moské	-11.5949
▁obalans	-11.5949
▁propaganda	-11.5949
▁referera	-11.5949
▁Åtminstone	-11.5949
▁Access	-11.5949
▁uppfostra	-11.5949
▁parkeringsplats	-11.5949
▁diktatur	-11.5949
▁Född	-11.5949
▁bokföring	-11.5949
otify	-11.5949
▁dedikerad	-11.5951
▁blixt	-11.5954
ödande	-11.5954
ashion	-11.5972
▁egentlig	-11.6026
▁Korea	-11.6037
▁officiell	-11.6077
kanal	-11.6078
▁Historien	-11.6082
▁Scientolog	-11.6082
▁explosion	-11.6082
▁lagstadgad	-11.6082
▁premium	-11.6082
▁privilegier	-11.6082
▁riskfaktor	-11.6082
▁seminarier	-11.6082
▁vampyr	-11.6082
tvärvetenskaplig	-11.6082
▁barriär	-11.6082
▁förvirrad	-11.6082
▁underskott	-11.6082
▁FBI	-11.6082
▁abstrakt	-11.6082
▁bälte	-11.6082
▁gestalt	-11.6082
▁utsedd	-11.6082
▁Henrik	-11.6082
▁subjekt	-11.6083
▁sajten	-11.6083
▁View	-11.6083
shirt	-11.6083
▁Röst	-11.6084
▁touch	-11.6084
▁finländsk	-11.6085
▁mervärde	-11.6088
▁donera	-11.609
▁uthållig	-11.6104
▁sparka	-11.6108
▁krama	-11.6117
▁kommunistisk	-11.6142
problem	-11.6173
färg	-11.6174
lagstiftning	-11.6174
▁utgiv	-11.6207
oskop	-11.6207
▁incitament	-11.6211
▁Eventuell	-11.6217
▁Swedish	-11.6217
▁access	-11.6217
▁community	-11.6217
▁elektricitet	-11.6217
▁handikapp	-11.6217
▁kvalitativ	-11.6217
▁magnifik	-11.6217
▁Paradis	-11.6217
▁sponsra	-11.6217
▁apostlar	-11.6217
▁böter	-11.6217
▁café	-11.6217
▁dagsläget	-11.6217
▁mikrofon	-11.6217
▁fyrtio	-11.6217
▁Tredje	-11.6217
▁skåda	-11.6217
konjunkt	-11.6217
▁Mästare	-11.6217
▁hypotes	-11.6217
▁Idé	-11.6218
▁lättnad	-11.6222
▁jurist	-11.6233
▁psyk	-11.625
akademiker	-11.6306
hjälp	-11.6311
följande	-11.6311
▁imponera	-11.6313
▁behörig	-11.6342
▁angeläg	-11.6344
▁Utställning	-11.6354
▁kidnapp	-11.6354
¶	-11.6354
▁Academy	-11.6354
▁Bluetooth	-11.6354
▁Outlook	-11.6354
▁Parlament	-11.6354
▁Traditionell	-11.6354
▁analytiker	-11.6354
▁magnesium	-11.6354
▁pionjär	-11.6354
▁praktisera	-11.6354
▁synvinkel	-11.6354
▁transplantation	-11.6354
▁Böcker	-11.6354
▁Libanon	-11.6354
▁1967	-11.6354
▁livmoder	-11.6354
▁hjälm	-11.6354
affärsverksamhet	-11.6354
▁Prince	-11.6354
▁Miami	-11.6354
▁prostata	-11.6354
▁ultra	-11.6354
▁Mount	-11.6354
▁tveksam	-11.6354
▁power	-11.6355
▁konsolider	-11.6355
▁instans	-11.6355
▁ivrig	-11.6355
▁Town	-11.6355
▁tårta	-11.6355
▁Index	-11.6356
▁Gissa	-11.6356
▁Dark	-11.6357
▁hemskt	-11.6359
▁leksak	-11.6394
▁Ursprunglig	-11.6412
▁mött	-11.6415
▁Beställ	-11.6424
timmars	-11.6426
arbeta	-11.6436
skuld	-11.6474
trip	-11.6484
▁Buddha	-11.6493
▁Edinburgh	-11.6493
▁Grattis	-11.6493
▁Lissabon	-11.6493
▁Nintendo	-11.6493
▁PayPal	-11.6493
▁Youtube	-11.6493
▁business	-11.6493
▁immunförsvar	-11.6493
▁layout	-11.6493
▁uthyrning	-11.6493
▁Nigeria	-11.6493
▁Sammanfattning	-11.6493
▁Verksamhet	-11.6493
▁dynamik	-11.6493
▁gynnsam	-11.6493
▁impuls	-11.6493
▁hälsning	-11.6493
▁ockupera	-11.6493
▁obegränsad	-11.6493
▁återfinn	-11.6494
▁skrek	-11.6494
infarkt	-11.6494
▁plasma	-11.6495
▁våningar	-11.6495
vecklingsländer	-11.6495
▁vegan	-11.6496
▁förtjus	-11.6496
▁detekter	-11.6499
▁zoo	-11.6501
▁fördubbla	-11.6503
▁arbetsgivar	-11.6505
▁valider	-11.6505
framkallande	-11.6512
▁skandal	-11.6533
shire	-11.6546
▁föredra	-11.6555
efaller	-11.657
▁inskränk	-11.6591
▁Råd	-11.6603
▁italiensk	-11.6631
▁fackförening	-11.6634
▁Absolut	-11.6634
▁Erfarenhet	-11.6634
▁Indonesien	-11.6634
▁affärsmodell	-11.6634
▁befann	-11.6634
▁förbränning	-11.6634
▁science	-11.6634
▁skildra	-11.6634
▁Rädd	-11.6634
▁komplement	-11.6634
▁sekvens	-11.6634
koldioxidutsläpp	-11.6634
▁1969	-11.6634
▁Andreas	-11.6634
▁Record	-11.6634
▁tillbaks	-11.6634
▁arbetarklassen	-11.6634
▁camping	-11.6634
▁utsökt	-11.6634
▁bjöd	-11.6634
▁Kväll	-11.6634
▁uppståndelse	-11.6634
▁Product	-11.6634
▁Låg	-11.6634
▁skräddarsydd	-11.6635
▁Snow	-11.6635
▁hälsoproblem	-11.6635
▁detaljhandel	-11.6635
▁Flytta	-11.6636
▁världsklass	-11.6636
▁Märk	-11.6637
▁Court	-11.6638
▁harmonisera	-11.6643
▁regera	-11.6656
grering	-11.666
▁taggad	-11.6679
flyttning	-11.6694
fällig	-11.6701
▁kemikalie	-11.6702
▁bakterie	-11.6703
konferens	-11.6733
standard	-11.6733
▁vattn	-11.6757
▁Francis	-11.6775
▁vardagsrum	-11.6776
▁Micro	-11.6777
▁Development	-11.6777
▁Filippinerna	-11.6777
▁Intressant	-11.6777
▁Säsong	-11.6777
▁Utforska	-11.6777
▁Utmärkt	-11.6777
▁adoptera	-11.6777
▁analytisk	-11.6777
▁bevittna	-11.6777
▁bläddra	-11.6777
▁elefant	-11.6777
▁korridor	-11.6777
▁redigering	-11.6777
▁utflykt	-11.6777
▁yttrandefrihet	-11.6777
▁kafé	-11.6777
▁1977	-11.6777
▁Arthur	-11.6777
▁fördröj	-11.6777
▁mödrar	-11.6777
▁fjäll	-11.6777
▁dekoration	-11.6777
▁kvot	-11.6777
▁rebell	-11.6778
▁skikt	-11.6778
▁dekorera	-11.678
▁smuts	-11.6789
▁pelare	-11.6789
▁Patric	-11.68
▁väldig	-11.6806
▁återvän	-11.682
▁trogn	-11.6825
▁kirurg	-11.6874
partiet	-11.6878
▁certifiera	-11.6881
sarbete	-11.6922
▁Corporation	-11.6922
▁Tokyo	-11.6922
▁förmögenhet	-11.6922
▁hockey	-11.6922
▁illustrera	-11.6922
▁prestigefylld	-11.6922
▁rehabilitering	-11.6922
▁toppmöte	-11.6922
▁avskräck	-11.6922
▁oväntat	-11.6922
▁1983	-11.6922
▁Carolina	-11.6922
▁WHO	-11.6922
▁långsammare	-11.6922
▁[2]	-11.6922
▁Affärs	-11.6922
▁ingrepp	-11.6922
▁beredning	-11.6922
▁minimum	-11.6922
▁grabb	-11.6922
▁Civil	-11.6922
▁springer	-11.6922
▁streck	-11.6922
▁föreslog	-11.6922
▁lymf	-11.6922
▁befallning	-11.6923
▁trång	-11.6923
▁utrota	-11.6923
▁point	-11.6923
▁(5)	-11.6923
▁Operation	-11.6923
▁värna	-11.6925
shavare	-11.6928
▁premie	-11.6929
eställningar	-11.6973
nämnda	-11.7025
lovade	-11.7025
▁implementer	-11.7026
▁glukos	-11.7069
▁Exchange	-11.7069
▁Halloween	-11.7069
▁Historisk	-11.7069
▁Kommunikation	-11.7069
▁Solutions	-11.7069
▁bekostnad	-11.7069
▁destruktiv	-11.7069
▁erkänt	-11.7069
▁frekvent	-11.7069
▁matsmältning	-11.7069
▁nikotin	-11.7069
▁nödsituation	-11.7069
▁schweizisk	-11.7069
▁spekulation	-11.7069
▁surfplatt	-11.7069
▁uppfann	-11.7069
▁autentisk	-11.7069
▁terräng	-11.7069
▁1988	-11.7069
▁[3]	-11.7069
▁Flash	-11.7069
▁härstamma	-11.7069
▁Dublin	-11.7069
▁Kaffe	-11.7069
▁nederländsk	-11.7069
▁pussel	-11.7069
▁kablar	-11.7069
▁förskott	-11.7069
▁vädja	-11.7069
▁månatlig	-11.7069
▁interiör	-11.7069
▁Fundera	-11.7069
▁sprick	-11.707
▁Gjor	-11.7071
▁Susan	-11.7071
▁Surf	-11.7072
▁indian	-11.7076
shantering	-11.7077
ädret	-11.7146
tusentals	-11.7174
Kevin	-11.7178
▁kvadrat	-11.7218
▁Azure	-11.7218
▁Kroatien	-11.7218
▁Rumänien	-11.7218
▁Tillgänglig	-11.7218
▁abonnemang	-11.7218
▁befälhavare	-11.7218
▁egyptisk	-11.7218
▁koalition	-11.7218
▁oförglömlig	-11.7218
▁olämplig	-11.7218
▁osannolik	-11.7218
▁osäkra	-11.7218
▁Andrew	-11.7218
▁Brexit	-11.7218
▁Statistik	-11.7218
▁balkong	-11.7218
▁dysfunktion	-11.7218
▁ockupation	-11.7218
▁orgasm	-11.7218
▁1973	-11.7218
▁1975	-11.7218
▁1971	-11.7218
▁1982	-11.7218
▁Cookie	-11.7218
▁Framtiden	-11.7218
▁mammor	-11.7218
▁akvari	-11.7218
▁sjöfart	-11.7218
▁autism	-11.7218
▁Relation	-11.7218
▁signatur	-11.7219
▁socialdemokrat	-11.7219
▁thai	-11.722
▁underskatta	-11.7222
▁uppmaning	-11.7228
otaliga	-11.724
▁törst	-11.7252
▁graf	-11.7269
▁familjemedlem	-11.7321
verktyg	-11.7326
kväll	-11.7336
▁motstå	-11.7363
arbetstillfällen	-11.7369
▁Executi	-11.7369
▁Manhattan	-11.7369
▁Sydamerika	-11.7369
▁gyllen	-11.7369
▁nordväst	-11.7369
▁statsminister	-11.7369
▁subvention	-11.7369
▁uppföljare	-11.7369
▁Energy	-11.7369
▁inloggning	-11.7369
▁livslång	-11.7369
▁1968	-11.7369
▁derivat	-11.7369
▁filtrera	-11.7369
▁kompakt	-11.7369
▁Wilson	-11.7369
▁Olymp	-11.7369
▁mötesplats	-11.737
▁kvadratmeter	-11.737
▁Ljud	-11.737
▁Earth	-11.737
▁uppfinna	-11.737
▁Modell	-11.737
▁basket	-11.737
▁palm	-11.737
▁upprörd	-11.7371
▁spred	-11.7371
▁insistera	-11.7371
▁display	-11.7371
savgift	-11.7371
▁offline	-11.7371
▁föränderlig	-11.7378
▁blond	-11.738
ntligen	-11.7401
botten	-11.748
▁Populär	-11.7523
▁Ursäkta	-11.7523
▁antioxidant	-11.7523
▁cirkulation	-11.7523
▁garderob	-11.7523
▁katedral	-11.7523
▁kompensation	-11.7523
▁mexikansk	-11.7523
▁oförändrad	-11.7523
▁slutanvändar	-11.7523
▁sofistikerad	-11.7523
▁korrigering	-11.7523
▁önskningar	-11.7523
▁arrestera	-11.7523
▁diameter	-11.7523
▁1700-	-11.7523
▁Gustav	-11.7523
▁Palace	-11.7523
▁kostym	-11.7523
▁löjlig	-11.7523
▁bubbla	-11.7523
▁Fungera	-11.7524
▁naglar	-11.7524
▁voro	-11.7524
▁Fakta	-11.7524
▁NASA	-11.7524
▁Titel	-11.7524
▁vardagsrummet	-11.7524
▁bostadsområde	-11.7524
▁överlägse	-11.7527
▁Bruk	-11.7527
▁Cash	-11.7527
▁utmärk	-11.7535
▁uppdelad	-11.7539
kterie	-11.7591
stängd	-11.7611
bjudande	-11.7614
▁public	-11.7618
oxy	-11.7658
▁Adventure	-11.768
▁Cypern	-11.768
▁Hongkong	-11.768
▁användarvänlig	-11.768
▁cocktail	-11.768
▁folkomröstning	-11.768
▁förföljelse	-11.768
▁konfrontera	-11.768
▁lantbruk	-11.768
▁oönskade	-11.768
▁specificera	-11.768
▁utgjorde	-11.768
▁välmående	-11.768
▁Definition	-11.768
▁cirkulera	-11.768
▁geometri	-11.768
▁halvtimme	-11.768
▁world	-11.768
▁1974	-11.768
▁Machine	-11.768
▁beslutsfattar	-11.768
▁höft	-11.768
▁kontext	-11.768
▁frälst	-11.768
▁Eleverna	-11.768
▁Veckan	-11.768
▁fullfölj	-11.768
▁router	-11.768
droppar	-11.768
▁poesi	-11.768
▁skynda	-11.7681
▁beröva	-11.7681
vändningsområden	-11.7682
▁författning	-11.7686
▁kudd	-11.7699
▁redogör	-11.7708
▁starkast	-11.7729
▁Snö	-11.7759
infektion	-11.7795
▁Cambridge	-11.7838
▁IKEA	-11.7838
▁Limited	-11.7838
▁Liverpool	-11.7838
▁PlayStation	-11.7838
▁adekvat	-11.7838
▁behövt	-11.7838
▁kosmetisk	-11.7838
▁näringsidkare	-11.7838
▁prisbelönt	-11.7838
▁tangentbord	-11.7838
▁telefonsamtal	-11.7838
▁trakasser	-11.7838
è	-11.7838
▁Björn	-11.7838
▁bekymra	-11.7838
▁beredskap	-11.7838
▁explodera	-11.7838
▁raffin	-11.7838
▁1945	-11.7838
▁Frukt	-11.7838
▁väskor	-11.7838
▁snurra	-11.7838
▁Kenya	-11.7839
▁arkitektonisk	-11.7839
▁Present	-11.7839
▁frilans	-11.7839
▁antenn	-11.7839
▁vapne	-11.7839
▁McCa	-11.7842
▁tavla	-11.7843
▁problematisk	-11.7854
▁Förlora	-11.7857
▁flöda	-11.7921
▁vägleda	-11.7931
▁Skatte	-11.7942
ordförande	-11.7956
ikaså	-11.7967
▁irrit	-11.7992
▁bekämpning	-11.7996
▁koordinat	-11.8
▁Bulgarien	-11.8
▁Dokument	-11.8
▁Mexico	-11.8
▁Skandinavien	-11.8
▁betjäna	-11.8
▁budbärare	-11.8
▁fysiologi	-11.8
▁förutspå	-11.8
▁horisontell	-11.8
▁intuitiv	-11.8
▁manifestation	-11.8
▁monopol	-11.8
▁odödlig	-11.8
▁parfym	-11.8
▁preliminär	-11.8
▁representativ	-11.8
❤	-11.8
▁Politik	-11.8
elhavs	-11.8
▁ALLT	-11.8
▁Religion	-11.8
▁screen	-11.8
▁lobby	-11.8
▁Front	-11.8
▁Vänster	-11.8
▁FDA	-11.8
▁Sofia	-11.8
▁språng	-11.8
▁Drömm	-11.8
▁artrit	-11.8
lydnad	-11.8
▁animerad	-11.8002
▁styv	-11.8002
▁girl	-11.8002
▁Hundar	-11.8003
▁begåvad	-11.8005
tigande	-11.802
▁betalningsmetod	-11.8026
▁Capita	-11.803
▁yrkesmässig	-11.8037
rticle	-11.8055
▁släp	-11.8126
▁inblandad	-11.813
front	-11.8132
imension	-11.8159
▁anständig	-11.8163
▁Jessica	-11.8164
▁Kompositör	-11.8164
▁Toyota	-11.8164
▁champagne	-11.8164
▁fingeravtryck	-11.8164
▁konfidentiell	-11.8164
▁konstruktiv	-11.8164
▁midnatt	-11.8164
▁mysterium	-11.8164
▁podcast	-11.8164
▁sydväst	-11.8164
▁Department	-11.8164
▁Högskola	-11.8164
▁Oxford	-11.8164
▁befäst	-11.8164
▁censur	-11.8164
▁dämpa	-11.8164
▁tragedi	-11.8164
▁understryk	-11.8164
▁1985	-11.8164
▁1987	-11.8164
▁opinion	-11.8164
▁uppsägning	-11.8164
▁micro	-11.8164
▁nyfikn	-11.8164
▁Bruce	-11.8164
▁guvern	-11.8164
▁Gaming	-11.8164
▁clown	-11.8164
▁läder	-11.8164
▁imperie	-11.8164
▁transfer	-11.8164
▁spänd	-11.8165
▁estetisk	-11.8165
▁blue	-11.8166
▁pastor	-11.8167
▁biträda	-11.8168
▁drastisk	-11.817
▁Adria	-11.8171
▁muntlig	-11.8171
▁värk	-11.8172
▁Framgång	-11.8187
▁obehag	-11.8193
▁jäs	-11.8195
▁samverka	-11.8254
butik	-11.8282
skillnad	-11.8286
jölk	-11.8328
▁Bestäm	-11.833
▁Federal	-11.833
▁Kategori	-11.833
▁Original	-11.833
▁Review	-11.833
▁Taiwan	-11.833
▁Yahoo	-11.833
▁Yttrande	-11.833
▁behärska	-11.833
▁eftersträva	-11.833
▁gästfrihet	-11.833
▁konvertering	-11.833
▁livscykel	-11.833
▁riksdagen	-11.833
▁sekreterare	-11.833
▁tålmodig	-11.833
▁uppkopplad	-11.833
▁Gabriel	-11.833
▁McDonald	-11.833
▁Välkomna	-11.833
▁fråge	-11.833
▁mekanik	-11.833
▁melodi	-11.833
▁whisky	-11.833
\	-11.833
▁Explorer	-11.833
▁Estland	-11.833
tillbörlig	-11.833
▁April	-11.833
▁Nätverk	-11.833
▁fjol	-11.833
▁sänker	-11.833
▁Chelsea	-11.833
▁Ronald	-11.833
▁läskig	-11.8331
▁Gemensam	-11.8331
amerikanska	-11.8364
▁plötslig	-11.8369
frågor	-11.8456
▁luftfart	-11.8458
▁Föreställ	-11.847
följd	-11.8476
▁webbläsar	-11.849
▁Administration	-11.85
▁Tjeckien	-11.85
▁frustration	-11.85
▁omställning	-11.85
▁simulering	-11.85
▁växling	-11.85
▁blankett	-11.85
▁epidemi	-11.85
▁julklapp	-11.85
▁holländsk	-11.85
▁prospekt	-11.85
▁tidsåld	-11.85
▁Hämta	-11.85
▁Anmäl	-11.85
▁Castle	-11.85
▁Margaret	-11.85
▁återförena	-11.85
▁distinkt	-11.85
▁Räkna	-11.85
▁näsan	-11.85
▁mutation	-11.85
▁Berättelse	-11.85
▁fläkt	-11.85
▁Beräkn	-11.85
▁upptagna	-11.85
▁Begränsa	-11.8501
▁Våga	-11.8501
▁spermie	-11.8501
▁Koppl	-11.8502
▁påstådd	-11.8502
▁Mörk	-11.8503
▁Nicol	-11.8506
▁ruiner	-11.8506
THE	-11.8576
▁erbjud	-11.858
tvätt	-11.8628
<	-11.8629
kulturell	-11.8629
kapital	-11.863
ergiförbrukning	-11.8633
vånande	-11.8672
▁Council	-11.8672
▁Hospital	-11.8672
▁Kommitté	-11.8672
▁Universal	-11.8672
▁adapter	-11.8672
▁kupong	-11.8672
▁solljus	-11.8672
▁särskilj	-11.8672
▁återanvända	-11.8672
▁bemyndiga	-11.8672
▁botemedel	-11.8672
▁dricksvatten	-11.8672
▁hämtning	-11.8672
▁dilemma	-11.8672
▁1917	-11.8672
▁Arsenal	-11.8672
▁2021	-11.8672
▁klyft	-11.8672
▁företeelse	-11.8672
▁parasit	-11.8672
▁återvinna	-11.8672
▁stämpla	-11.8672
▁Lewis	-11.8672
▁recense	-11.8672
▁tweet	-11.8672
▁plugga	-11.8672
▁beordra	-11.8673
▁Ämne	-11.8673
▁kväve	-11.8673
hål	-11.878
laddning	-11.8802
temperatur	-11.8804
album	-11.8804
▁amerikan	-11.8811
vånar	-11.8844
▁personuppgifts	-11.8848
▁Bangkok	-11.8848
▁Colombia	-11.8848
▁Latinamerika	-11.8848
▁Magazine	-11.8848
▁Malaysia	-11.8848
▁evakuer	-11.8848
▁förutsäga	-11.8848
▁källkod	-11.8848
▁preventiv	-11.8848
▁territorier	-11.8848
▁underjordisk	-11.8848
▁Konsument	-11.8848
▁förvräng	-11.8848
▁grödor	-11.8848
▁release	-11.8848
▁sympati	-11.8848
▁överlåtelse	-11.8848
▁Support	-11.8848
▁omfamna	-11.8848
▁1972	-11.8848
▁överblick	-11.8848
▁BMW	-11.8848
▁Edition	-11.8848
▁Situation	-11.8848
▁ballong	-11.8848
▁formulering	-11.8848
▁befordra	-11.8848
▁beslö	-11.8848
▁ogilla	-11.8848
▁forntid	-11.8848
▁deklarera	-11.8848
▁okänt	-11.8848
▁gluten	-11.8848
▁tillåtelse	-11.8848
▁ocean	-11.8848
▁Upprep	-11.8849
rivacy	-11.8849
▁gnist	-11.885
worth	-11.885
principen	-11.8983
metoden	-11.8983
▁Sjukdom	-11.9026
▁exploater	-11.9026
▁Advanced	-11.9026
▁Country	-11.9026
▁Elektro	-11.9026
▁Kennedy	-11.9026
▁Lincoln	-11.9026
▁Shanghai	-11.9026
▁blodkärl	-11.9026
▁förmiddagen	-11.9026
▁iTunes	-11.9026
▁koffein	-11.9026
▁kvantitativ	-11.9026
▁lättillgänglig	-11.9026
▁manifestera	-11.9026
▁ojämlikhet	-11.9026
▁organisatorisk	-11.9026
▁ortodox	-11.9026
▁stipendie	-11.9026
▁zombie	-11.9026
▁öfver	-11.9026
▁Uppdatera	-11.9026
▁1965	-11.9026
▁Samuel	-11.9026
▁läroplan	-11.9026
▁Engelska	-11.9026
▁hepatit	-11.9026
▁Hilton	-11.9026
▁flash	-11.9026
▁frisyr	-11.9026
▁Daily	-11.9026
▁Hälsa	-11.9026
▁kvick	-11.9026
▁Bloom	-11.9026
▁Lodge	-11.9026
▁API	-11.9026
▁Meddelande	-11.9026
▁nederlag	-11.9026
▁världsarv	-11.9026
▁knulla	-11.9026
▁Album	-11.9026
▁Kapital	-11.9026
▁Behov	-11.9027
▁toxicit	-11.9027
erformance	-11.9028
▁förankr	-11.9028
▁fresta	-11.9033
1962	-11.9033
▁utlova	-11.9037
▁påtaglig	-11.9042
snål	-11.9061
skedjan	-11.9107
ergieffektivitet	-11.913
▁offentliggjor	-11.9146
▁kalori	-11.9152
diabetes	-11.9164
användning	-11.9179
nedsatt	-11.9182
dubbl	-11.9192
ivetvis	-11.9208
▁Australia	-11.9208
▁Matthew	-11.9208
▁Professor	-11.9208
▁Verktyg	-11.9208
▁behaglig	-11.9208
▁etablering	-11.9208
▁fragment	-11.9208
▁inneboende	-11.9208
▁marijuana	-11.9208
▁medkänsla	-11.9208
▁oavsiktlig	-11.9208
●	-11.9774
“	-11.9927
`	-11.997
@	-12.0331
ç	-12.0583
ñ	-12.0583
à	-12.0795
#	-12.1651
−	-12.1933
ô	-12.2683
′	-12.2683
️	-12.2683
š	-12.2946
©	-12.3217
ā	-12.3217
$	-12.3451
æ	-12.3494
×	-12.4074
	-12.4377
ú	-12.469
É	-12.5012
ã	-12.5012
⁄	-12.5012
ë	-12.5346
α	-12.569
ć	-12.569
Â	-12.6803
„	-12.6803
û	-12.7203
±	-12.7619
Ü	-12.8509
î	-12.8985
č	-12.8985
▸	-12.9485
ï	-13.0011
ð	-13.0011
ل	-13.0011
►	-13.0567
§	-13.1111
≥	-13.1155
א	-13.178
ş	-13.2447
€	-13.3117
‹	-13.3161
	-13.3161
👍	-13.3161
😍	-13.3161
ž	-13.393
°	-13.472
β	-13.4763
	-13.4763
و	-13.4763
ł	-13.4763
ğ	-13.4763
|	-13.5629
ß	-13.5673
ي	-13.5673
Š	-13.5673
😛	-13.6673
ı	-13.6673
«	-13.774
ا	-13.7784
م	-13.7784
ĺ	-13.7784
ه	-13.7784
ń	-13.7784
ō	-13.7784
‒	-13.7784
🏼	-13.7784
Ó	-13.7784
Î	-13.9034
ʹ	-13.9034
ι	-13.9034
¬	-13.9034
õ	-13.9034
ạ	-13.9034
✔	-13.9034
🏻	-13.9034
🙁	-13.9034
Á	-13.9034
ê	-14.0462
θ	-14.0462
	-14.0462
γ	-14.0462
ع	-14.0462
ن	-14.0462
ę	-14.0462
س	-14.0462
ν	-14.0462
‘	-14.2085
ə	-14.2129
¿	-14.2129
Ă	-14.2129
ς	-14.2129
σ	-14.2129
◄	-14.2129
	-14.2129
Č	-14.2129
ī	-14.2129
œ	-14.2129
‭	-14.2129
民	-14.2129
•	-14.4086
а	-14.4129
	-14.4129
ε	-14.4129
ο	-14.4129
ρ	-14.4129
◆	-14.4129
	-14.4129
	-14.4129
🤣	-14.4129
Ç	-14.4129
ū	-14.4129
‚	-14.4129
ṛ	-14.4129
国	-14.4129
Ž	-14.6629
ί	-14.6629
λ	-14.6629
	-14.6629
ò	-14.6629
ù	-14.6629
ý	-14.6629
ǧ	-14.6629
δ	-14.6629
ص	-14.6629
ṇ	-14.6629
†	-14.6629
▪	-14.6629
○	-14.6629
◾	-14.6629
	-14.6629
	-14.6629
💙	-14.6629
💜	-14.6629
ő	-14.6629
Í	-14.6629
й	-14.6629
‬	-14.6629
ṣ	-14.6629
國	-14.6629
中	-14.6629
ḥ	-14.9962
ά	-14.9962
φ	-14.9962
ω	-14.9962
ì	-14.9962
đ	-14.9962
ē	-14.9962
þ	-14.9962
ă	-14.9962
ą	-14.9962
τ	-14.9962
К	-14.9962
е	-14.9962
и	-14.9962
р	-14.9962
ӓ	-14.9962
د	-14.9962
ى	-14.9962
≤	-14.9962
♣	-14.9962
❑	-14.9962
❓	-14.9962
・	-14.9962
軍	-14.9962
︎	-14.9962
💤	-14.9962
😇	-14.9962
¡	-14.9962
ė	-14.9962
ẹ	-14.9962
¢	-14.9962
ر	-14.9962
超	-14.9962
	-15.4962
	-15.4962
ș	-15.4962
ɛ	-15.4962
χ	-15.4962
უ	-15.4962
ż	-15.4962
ت	-15.4962
ح	-15.4962
‡	-15.4962
ÿ	-15.4962
ư	-15.4962
Α	-15.4962
Β	-15.4962
Σ	-15.4962
κ	-15.4962
ό	-15.4962
д	-15.4962
ј	-15.4962
ج	-15.4962
ก	-15.4962
ọ	-15.4962
‍	-15.4962
―	-15.4962
↵	-15.4962
∙	-15.4962
√	-15.4962
≈	-15.4962
□	-15.4962
◦	-15.4962
☆	-15.4962
⚘	-15.4962
✅	-15.4962
✎	-15.4962
✰	-15.4962
❥	-15.4962
万	-15.4962
会	-15.4962
岁	-15.4962
눉	-15.4962
	-15.4962
	-15.4962
	-15.4962
	-15.4962
	-15.4962
	-15.4962
😕	-15.4962
😜	-15.4962
😝	-15.4962
🙌	-15.4962
🤔	-15.4962
🤗	-15.4962
🤯	-15.4962
ś	-15.4962
Д	-15.4962
ร	-15.4962
团	-15.4962
🙈	-16.4889
😬	-16.489
😎	-16.4891
😋	-16.4892
💖	-16.4893
	-16.4894
足	-16.4895
赛	-16.4896
联	-16.4897
球	-16.4898
人	-16.4899
主	-16.49
ン	-16.4901
コ	-16.4902
♪	-16.4903
Ґ	-16.4904
О	-16.4905
ή	-16.4906
Ω	-16.4907
̊	-16.4908
̃	-16.4909
ɑ	-16.491
ǔ	-16.4911
ơ	-16.4912
Ś	-16.4913
Đ	-16.4914
Þ	-16.4915
😦	-16.4916
😢	-16.4917
革	-16.4918
命	-16.4919
◊	-16.492
ἀ	-16.4921
·	-16.4922
—	-16.4922
Δ	-16.4922
💚	-16.4923
💕	-16.4924
👏	-16.4925
	-16.4926
⭐	-16.4927
☝	-16.4928
π	-16.4929
ʼ	-16.493
ţ	-16.4931
Ş	-16.4932
😘	-16.4933
😅	-16.4934
😃	-16.4935
▶	-16.4936
Õ	-16.4937
Æ	-16.4938
🙏	-16.4939
😄	-16.494
😂	-16.4941
★	-16.4942
ƒ	-16.4943
↑	-16.4944
♡	-16.4945
☺	-16.4946
	-16.4947
̈	-16.4948
ˮ	-16.4949
Ø	-16.495
μ	-16.4951
😊	-16.4952
✓	-16.4953
▌	-16.4954
■	-16.4955
😀	-16.4956
😉	-16.4957
♥	-16.4958
›	-16.4959
́	-16.496
→	-16.4961
Μ	-16.4962
с	-16.4962
ތ	-16.4962
ข	-16.4962
ส	-16.4962
ุ	-16.4962
ც	-16.4962
ხ	-16.4962
▲	-16.4962
春	-16.4962
Ñ	-16.4962
С	-16.4962
Ṭ	-16.4962
ờ	-16.4962
▽	-16.4962
Ā	-16.4962
	-16.4962
	-16.4962
	-16.4962
Ë	-16.4962
Ð	-16.4962
Ò	-16.4962
Ú	-16.4962
Ý	-16.4962
÷	-16.4962
ě	-16.4962
ħ	-16.4962
İ	-16.4962
ķ	-16.4962
Ł	-16.4962
ų	-16.4962
Ż	-16.4962
ǒ	-16.4962
ɒ	-16.4962
ɡ	-16.4962
ɣ	-16.4962
ɸ	-16.4962
ˆ	-16.4962
ˈ	-16.4962
ˌ	-16.4962
ː	-16.4962
̂	-16.4962
̶	-16.4962
Γ	-16.4962
Ε	-16.4962
Θ	-16.4962
Φ	-16.4962
η	-16.4962
ύ	-16.4962
А	-16.4962
Б	-16.4962
В	-16.4962
Е	-16.4962
И	-16.4962
Н	-16.4962
П	-16.4962
Т	-16.4962
Э	-16.4962
Я	-16.4962
в	-16.4962
г	-16.4962
л	-16.4962
м	-16.4962
н	-16.4962
т	-16.4962
ц	-16.4962
ы	-16.4962
ӧ	-16.4962
ד	-16.4962
צ	-16.4962
ة	-16.4962
ث	-16.4962
ނ	-16.4962
ަ	-16.4962
ާ	-16.4962
ต	-16.4962
ธ	-16.4962
น	-16.4962
ย	-16.4962
ะ	-16.4962
ั	-16.4962
ิ	-16.4962
ี	-16.4962
เ	-16.4962
ი	-16.4962
რ	-16.4962
Ḥ	-16.4962
ṅ	-16.4962
Ṣ	-16.4962
ṭ	-16.4962
ả	-16.4962
ầ	-16.4962
ễ	-16.4962
ệ	-16.4962
ỉ	-16.4962
ị	-16.4962
ủ	-16.4962
ἐ	-16.4962
‣	-16.4962
※	-16.4962
⁃	-16.4962
₤	-16.4962
↓	-16.4962
↩	-16.4962
⇑	-16.4962
⇒	-16.4962
⇨	-16.4962
∈	-16.4962
∑	-16.4962
∞	-16.4962
⋅	-16.4962
▷	-16.4962
▼	-16.4962
▾	-16.4962
☐	-16.4962
☒	-16.4962
☕	-16.4962
☟	-16.4962
☭	-16.4962
♦	-16.4962
♧	-16.4962
♫	-16.4962
✌	-16.4962
✗	-16.4962
➜	-16.4962
➥	-16.4962
⟵	-16.4962
⟶	-16.4962
⦁	-16.4962
オ	-16.4962
ニ	-16.4962
ビ	-16.4962
リ	-16.4962
五	-16.4962
光	-16.4962
公	-16.4962
军	-16.4962
协	-16.4962
台	-16.4962
司	-16.4962
山	-16.4962
式	-16.4962
月	-16.4962
株	-16.4962
楚	-16.4962
海	-16.4962
湾	-16.4962
灣	-16.4962
狂	-16.4962
珞	-16.4962
社	-16.4962
秋	-16.4962
空	-16.4962
箇	-16.4962
级	-16.4962
聯	-16.4962
臺	-16.4962
航	-16.4962
言	-16.4962
賽	-16.4962
鈥	-16.4962
镜	-16.4962
낍	-16.4962
책	-16.4962
	-16.4962
	-16.4962
	-16.4962
	-16.4962
	-16.4962
	-16.4962
	-16.4962
	-16.4962
	-16.4962
	-16.4962
	-16.4962
	-16.4962
	-16.4962
	-16.4962
	-16.4962
	-16.4962
	-16.4962
	-16.4962
	-16.4962
	-16.4962
	-16.4962
	-16.4962
	-16.4962
	-16.4962
￼	-16.4962
🇨	-16.4962
🌞	-16.4962
🌷	-16.4962
🌸	-16.4962
🍀	-16.4962
🍦	-16.4962
🍰	-16.4962
🍳	-16.4962
🍴	-16.4962
🎁	-16.4962
🎈	-16.4962
🎉	-16.4962
🎨	-16.4962
🎶	-16.4962
🎼	-16.4962
🏆	-16.4962
🏽	-16.4962
🐞	-16.4962
🐲	-16.4962
🐴	-16.4962
🐾	-16.4962
👁	-16.4962
👇	-16.4962
👌	-16.4962
💔	-16.4962
💥	-16.4962
💪	-16.4962
💰	-16.4962
📌	-16.4962
📚	-16.4962
📷	-16.4962
🔸	-16.4962
🖤	-16.4962
🗞	-16.4962
😁	-16.4962
😆	-16.4962
😔	-16.4962
😖	-16.4962
😞	-16.4962
😠	-16.4962
😫	-16.4962
😭	-16.4962
😳	-16.4962
😶	-16.4962
🙆	-16.4962
🙉	-16.4962
🤙	-16.4962
🤛	-16.4962
🤩	-16.4962
🥂	-16.4962
🥇	-16.4962
🦋	-16.4962
🦌	-16.4962
🧡	-16.4962
À	-16.4962
ǎ	-16.4962
ḳ	-16.4962
Π	-16.4962
о	-16.4962
ك	-16.4962
ڤ	-16.4962
世	-16.4962
共	-16.4962
华	-16.4962
協	-16.4962
和	-16.4962
大	-16.4962
會	-16.4962
有	-16.4962
江	-16.4962
界	-16.4962
級	-16.4962
结	-16.4962
锦	-16.4962
际	-16.4962
限	-16.4962
集	-16.4962
🙂	-16.4962
