<unk>	0
<s>	0
</s>	0
▁e	-0
▁s	-1
▁a	-2
▁d	-3
▁i	-4
▁n	-5
▁t	-6
▁f	-7
▁o	-8
er	-9
▁r	-10
▁m	-11
▁.	-12
tt	-13
▁k	-14
ll	-15
▁v	-16
▁h	-17
ar	-18
en	-19
▁en	-20
▁l	-21
▁b	-22
ör	-23
an	-24
▁er	-25
▁p	-26
är	-27
et	-28
▁g	-29
ch	-30
▁in	-31
in	-32
▁u	-33
▁,	-34
om	-35
▁och	-36
▁för	-37
▁att	-38
st	-39
▁de	-40
▁ti	-41
▁är	-42
ig	-43
ed	-44
ag	-45
▁av	-46
nd	-47
on	-48
ra	-49
▁som	-50
ka	-51
ti	-52
▁D	-53
▁till	-54
▁ar	-55
or	-56
▁st	-57
▁vi	-58
▁om	-59
te	-60
na	-61
▁på	-62
▁ä	-63
▁med	-64
de	-65
▁j	-66
ing	-67
ck	-68
▁det	-69
▁et	-70
▁na	-71
▁S	-72
pp	-73
▁var	-74
▁an	-75
ån	-76
▁den	-77
ro	-78
el	-79
ss	-80
kt	-81
at	-82
▁ut	-83
al	-84
▁du	-85
▁inte	-86
år	-87
▁har	-88
▁M	-89
▁ing	-90
▁ö	-91
▁re	-92
▁-	-93
▁be	-94
▁V	-95
sk	-96
▁sk	-97
▁1	-98
▁or	-99
am	-100
▁H	-101
▁vä	-102
ter	-103
▁A	-104
▁ett	-105
▁li	-106
▁ning	-107
re	-108
▁ell	-109
li	-110
▁kan	-111
and	-112
▁F	-113
▁E	-114
åg	-115
lla	-116
ri	-117
▁0	-118
▁era	-119
än	-120
▁ska	-121
▁nd	-122
il	-123
▁c	-124
▁J	-125
▁ri	-126
▁jag	-127
tta	-128
▁I	-129
▁T	-130
▁ig	-131
ver	-132
▁and	-133
▁fr	-134
ta	-135
▁upp	-136
▁2	-137
▁?	-138
em	-139
▁el	-140
▁B	-141
▁lä	-142
ur	-143
ad	-144
▁Det	-145
▁eller	-146
▁P	-147
▁å	-148
▁sä	-149
ång	-150
era	-151
ot	-152
▁N	-153
sta	-154
▁pro	-155
▁"	-156
▁y	-157
▁O	-158
▁:	-159
▁tr	-160
ma	-161
la	-162
▁K	-163
ni	-164
▁sam	-165
▁ku	-166
▁så	-167
▁från	-168
mer	-169
▁(	-170
▁”	-171
ld	-172
▁rä	-173
▁sp	-174
▁lig	-175
▁G	-176
▁L	-177
lig	-178
▁)	-179
da	-180
▁C	-181
äl	-182
▁ha	-183
▁än	-184
▁min	-185
▁ver	-186
vä	-187
▁ommer	-188
▁över	-189
▁någ	-190
se	-191
▁men	-192
▁ng	-193
▁nde	-194
▁le	-195
▁und	-196
▁di	-197
▁Jag	-198
▁si	-199
▁ll	-200
ol	-201
▁!	-202
▁när	-203
▁gör	-204
▁te	-205
▁han	-206
▁R	-207
▁ion	-208
us	-209
▁ör	-210
▁ef	-211
het	-212
▁se	-213
▁vara	-214
ort	-215
▁bar	-216
▁De	-217
inn	-218
ve	-219
▁het	-220
ak	-221
▁kom	-222
▁tid	-223
ut	-224
▁gen	-225
▁ati	-226
▁man	-227
ne	-228
▁am	-229
are	-230
▁kon	-231
▁ta	-232
ru	-233
ft	-234
ud	-235
yck	-236
▁al	-237
▁sig	-238
▁sin	-239
▁år	-240
▁are	-241
▁bl	-242
▁din	-243
it	-244
od	-245
ssa	-246
ska	-247
▁ny	-248
▁Vi	-249
▁all	-250
▁under	-251
lj	-252
▁fö	-253
▁9	-254
▁må	-255
▁ni	-256
pa	-257
▁hå	-258
▁sl	-259
▁alla	-260
▁3	-261
▁U	-262
▁lo	-263
▁ko	-264
ram	-265
ste	-266
▁ne	-267
▁dig	-268
vi	-269
sa	-270
▁ande	-271
▁fa	-272
▁verk	-273
▁ock	-274
så	-275
kti	-276
bb	-277
▁efter	-278
▁hel	-279
lle	-280
▁kl	-281
▁ra	-282
va	-283
▁mi	-284
▁gi	-285
▁del	-286
ent	-287
▁5	-288
▁anvä	-289
▁it	-290
▁ation	-291
▁här	-292
so	-293
▁ty	-294
▁dag	-295
▁ex	-296
▁hand	-297
un	-298
inns	-299
gi	-300
▁där	-301
▁gång	-302
gg	-303
▁mer	-304
▁Den	-305
▁också	-306
▁håll	-307
▁finns	-308
▁genom	-309
▁4	-310
▁För	-311
▁andra	-312
ju	-313
bet	-314
▁ner	-315
▁bli	-316
ök	-317
▁erna	-318
äll	-319
ven	-320
▁id	-321
▁ering	-322
▁at	-323
▁män	-324
fö	-325
▁per	-326
▁ka	-327
si	-328
▁mö	-329
▁–	-330
▁mig	-331
▁nu	-332
▁hon	-333
ans	-334
▁liv	-335
▁dem	-336
▁fl	-337
▁hö	-338
▁ro	-339
▁as	-340
ats	-341
▁hj	-342
▁detta	-343
▁lö	-344
tio	-345
▁bara	-346
▁vär	-347
▁myck	-348
vå	-349
▁rätt	-350
▁få	-351
▁vill	-352
ord	-353
▁mot	-354
▁8	-355
▁of	-356
▁is	-357
▁6	-358
▁rsta	-359
▁tt	-360
▁W	-361
▁kr	-362
▁göra	-363
▁ju	-364
▁vad	-365
ilj	-366
cka	-367
▁ns	-368
▁nt	-369
▁em	-370
▁änd	-371
öv	-372
▁sätt	-373
▁fi	-374
▁rbet	-375
äng	-376
▁po	-377
öd	-378
▁7	-379
▁pl	-380
▁En	-381
▁gru	-382
ånga	-383
▁hä	-384
ark	-385
▁bör	-386
▁land	-387
▁jäl	-388
▁tro	-389
▁samma	-390
▁eg	-391
▁någon	-392
▁Men	-393
▁beh	-394
▁vår	-395
▁nda	-396
▁w	-397
▁ho	-398
▁hi	-399
▁vid	-400
▁ur	-401
▁hur	-402
▁ge	-403
▁fram	-404
▁nä	-405
edan	-406
▁la	-407
▁ly	-408
je	-409
ci	-410
▁kulle	-411
▁lag	-412
▁tj	-413
var	-414
▁vet	-415
▁lu	-416
▁oss	-417
▁denna	-418
▁mo	-419
fe	-420
▁ma	-421
▁on	-422
▁tal	-423
▁ätt	-424
ga	-425
▁ighet	-426
▁Om	-427
▁mm	-428
▁va	-429
▁handl	-430
▁sy	-431
▁bo	-432
le	-433
ke	-434
▁vil	-435
▁un	-436
nan	-437
▁oli	-438
um	-439
▁även	-440
▁else	-441
▁ord	-442
▁Du	-443
åd	-444
▁nder	-445
▁nst	-446
▁männi	-447
ja	-448
▁by	-449
art	-450
▁inf	-451
▁ed	-452
▁led	-453
▁rld	-454
▁tä	-455
ker	-456
▁do	-457
▁bra	-458
▁spel	-459
ell	-460
▁sa	-461
ger	-462
▁trä	-463
▁gt	-464
▁ga	-465
▁to	-466
▁/	-467
▁Och	-468
▁måste	-469
▁nn	-470
▁många	-471
riv	-472
▁vå	-473
nad	-474
▁får	-475
▁nad	-476
ser	-477
▁ber	-478
▁hade	-479
▁etag	-480
▁ul	-481
▁orm	-482
▁något	-483
▁då	-484
▁ingar	-485
▁In	-486
▁hjäl	-487
▁vis	-488
▁behöv	-489
▁hjälp	-490
▁es	-491
▁jälv	-492
▁for	-493
▁ol	-494
▁res	-495
▁gra	-496
▁ment	-497
vec	-498
▁kund	-499
▁ag	-500
▁dessa	-501
▁allt	-502
▁perso	-503
▁bil	-504
▁Ä	-505
▁pa	-506
▁ts	-507
▁ba	-508
yd	-509
▁kra	-510
▁nlig	-511
▁utvec	-512
▁dat	-513
▁tre	-514
ning	-515
▁åt	-516
▁eri	-517
tte	-518
tik	-519
▁rt	-520
▁inom	-521
▁val	-522
▁ter	-523
▁gå	-524
▁två	-525
ul	-526
▁möj	-527
ce	-528
▁samt	-529
▁ser	-530
▁des	-531
▁sm	-532
▁tjä	-533
▁skor	-534
▁sak	-535
▁sina	-536
igt	-537
▁dukt	-538
tur	-539
▁hu	-540
▁red	-541
▁stä	-542
▁spe	-543
▁hem	-544
▁ek	-545
he	-546
▁Detta	-547
▁barn	-548
▁utan	-549
▁Han	-550
▁ellan	-551
▁ade	-552
▁När	-553
ff	-554
stä	-555
▁dr	-556
▁går	-557
▁rel	-558
▁vilk	-559
▁stå	-560
dan	-561
▁mark	-562
tiv	-563
▁följ	-564
▁grund	-565
▁dera	-566
▁dom	-567
▁Hur	-568
▁nya	-569
▁yst	-570
▁rlden	-571
▁bi	-572
▁åter	-573
▁Var	-574
▁möjl	-575
▁ystem	-576
▁mat	-577
▁Vad	-578
▁milj	-579
▁ans	-580
▁ende	-581
▁tra	-582
▁ch	-583
▁met	-584
▁gj	-585
▁akt	-586
▁ligen	-587
▁hög	-588
▁gr	-589
▁natio	-590
▁börja	-591
der	-592
▁gl	-593
▁der	-594
▁ditt	-595
▁tag	-596
▁bä	-597
▁vän	-598
▁str	-599
unkt	-600
▁våra	-601
▁kä	-602
▁gram	-603
▁kun	-604
▁igt	-605
▁olika	-606
▁kö	-607
▁me	-608
▁lös	-609
▁rö	-610
▁kri	-611
▁väg	-612
▁ers	-613
▁lå	-614
▁sök	-615
▁vikti	-616
▁reg	-617
▁van	-618
▁hela	-619
åga	-620
▁komm	-621
▁säger	-622
ill	-623
▁dina	-624
▁sedan	-625
▁tar	-626
ie	-627
▁gift	-628
▁cent	-629
▁några	-630
▁före	-631
▁sju	-632
▁blir	-633
▁ve	-634
▁deras	-635
▁ran	-636
▁varje	-637
▁fy	-638
▁väl	-639
▁nna	-640
▁akti	-641
▁fall	-642
og	-643
▁tet	-644
▁kla	-645
▁br	-646
▁inne	-647
ens	-648
ssi	-649
▁pre	-650
▁par	-651
▁gg	-652
▁bet	-653
tid	-654
▁bå	-655
▁skriv	-656
ko	-657
mn	-658
▁skapa	-659
▁ent	-660
..	-661
▁x	-662
▁mål	-663
▁ger	-664
▁ad	-665
▁änn	-666
▁ck	-667
▁sto	-668
▁stor	-669
▁skall	-670
▁ry	-671
▁mär	-672
▁lång	-673
▁org	-674
▁erade	-675
▁ställ	-676
ekt	-677
▁Gud	-678
emp	-679
▁ort	-680
▁tän	-681
▁lltid	-682
▁svar	-683
▁kv	-684
▁um	-685
▁bland	-686
▁sti	-687
▁honom	-688
▁kt	-689
▁hör	-690
▁ingen	-691
ov	-692
▁tan	-693
▁hus	-694
▁im	-695
▁kunna	-696
▁äl	-697
▁erar	-698
sök	-699
▁;	-700
▁fri	-701
▁kän	-702
öm	-703
▁egen	-704
▁tiv	-705
▁sitt	-706
▁hen	-707
ali	-708
bil	-709
00	-710
▁fort	-711
olk	-712
▁il	-713
▁lats	-714
▁nster	-715
▁ioner	-716
▁säker	-717
▁lever	-718
dr	-719
▁jä	-720
▁komp	-721
es	-722
▁nal	-723
▁ens	-724
vis	-725
▁ss	-726
▁we	-727
ev	-728
▁iv	-729
▁pp	-730
▁plats	-731
▁hitta	-732
▁Att	-733
ske	-734
▁skap	-735
▁visa	-736
▁nk	-737
▁hans	-738
lja	-739
▁erb	-740
▁ru	-741
▁tek	-742
fi	-743
▁helt	-744
▁art	-745
▁nligt	-746
▁dess	-747
▁henne	-748
stå	-749
ara	-750
▁kti	-751
▁råg	-752
▁uni	-753
▁[	-754
▁bor	-755
▁föra	-756
ärs	-757
▁bygg	-758
▁est	-759
▁slu	-760
eg	-761
▁blem	-762
▁pri	-763
▁tlig	-764
▁mitt	-765
▁varit	-766
▁ung	-767
▁ce	-768
▁jo	-769
▁väx	-770
▁fu	-771
▁eng	-772
yr	-773
▁verka	-774
▁Så	-775
▁ald	-776
▁vin	-777
to	-778
▁ättre	-779
▁ld	-780
▁form	-781
tter	-782
råd	-783
▁lit	-784
▁itet	-785
▁enhet	-786
▁rn	-787
▁mest	-788
▁ab	-789
▁sjuk	-790
▁gäll	-791
▁sv	-792
▁nen	-793
▁bästa	-794
▁plan	-795
▁nings	-796
▁annan	-797
▁nella	-798
ärd	-799
▁komma	-800
▁mp	-801
▁stat	-802
▁områd	-803
sä	-804
▁utom	-805
▁kro	-806
▁fly	-807
▁fil	-808
llt	-809
▁krä	-810
▁...	-811
▁äm	-812
uro	-813
▁tiden	-814
▁anske	-815
▁örstå	-816
▁rd	-817
▁medel	-818
▁erbju	-819
▁organ	-820
▁ist	-821
▁rätta	-822
▁bok	-823
▁dela	-824
▁webb	-825
▁nl	-826
▁nnat	-827
▁ram	-828
▁orsk	-829
▁stånd	-830
▁kort	-831
▁rbets	-832
▁lite	-833
end	-834
▁da	-835
▁sluta	-836
lu	-837
▁rbeta	-838
▁tekni	-839
man	-840
▁tu	-841
ine	-842
▁kap	-843
▁troll	-844
mm	-845
▁slut	-846
▁ant	-847
▁arand	-848
▁fråga	-849
▁bort	-850
▁mä	-851
▁nvä	-852
▁stora	-853
▁arna	-854
▁tör	-855
▁nvänd	-856
▁aldri	-857
▁hos	-858
▁kling	-859
skap	-860
▁ild	-861
ir	-862
▁exemp	-863
vud	-864
▁läm	-865
▁kraft	-866
▁nästa	-867
▁typ	-868
▁lägg	-869
▁my	-870
▁Ch	-871
▁us	-872
▁Med	-873
▁vanli	-874
▁stöd	-875
▁app	-876
▁ändr	-877
▁amilj	-878
▁häl	-879
▁rum	-880
▁vinn	-881
gr	-882
▁grupp	-883
▁inn	-884
▁flera	-885
▁jobb	-886
▁gre	-887
▁int	-888
▁saker	-889
▁artik	-890
▁baka	-891
▁bu	-892
▁omm	-893
▁Ett	-894
rå	-895
▁US	-896
▁tryck	-897
▁blev	-898
▁innan	-899
▁op	-900
ik	-901
▁sättn	-902
▁ast	-903
▁sta	-904
ärt	-905
▁inter	-906
tal	-907
▁lj	-908
▁lik	-909
▁På	-910
▁Y	-911
▁mus	-912
sto	-913
▁risk	-914
ok	-915
▁Har	-916
di	-917
▁god	-918
▁ill	-919
▁ki	-920
▁huvud	-921
▁su	-922
▁ara	-923
▁kil	-924
▁ön	-925
▁erad	-926
▁folk	-927
▁tyck	-928
▁ster	-929
▁natur	-930
▁tror	-931
▁älska	-932
▁lämna	-933
▁amhet	-934
▁EU	-935
▁]	-936
▁gjord	-937
rån	-938
▁lin	-939
▁ull	-940
▁äg	-941
▁'	-942
▁råd	-943
▁läng	-944
akti	-945
as	-946
▁histo	-947
sio	-948
id	-949
▁aren	-950
▁nytt	-951
▁fatta	-952
▁igen	-953
cke	-954
▁stö	-955
ann	-956
▁“	-957
▁tala	-958
▁kropp	-959
▁delar	-960
▁Alla	-961
ono	-962
▁miljö	-963
▁ali	-964
▁oci	-965
▁värde	-966
▁lär	-967
▁pi	-968
▁miss	-969
▁verks	-970
▁anta	-971
▁liga	-972
▁ndast	-973
▁igare	-974
▁avs	-975
▁slag	-976
▁opp	-977
▁ub	-978
▁ekono	-979
▁månad	-980
▁vänta	-981
▁ier	-982
▁jekt	-983
▁engar	-984
▁fick	-985
▁erson	-986
▁känd	-987
▁hålla	-988
▁ned	-989
▁etyd	-990
▁ate	-991
▁ink	-992
▁tter	-993
ärn	-994
▁Är	-995
▁go	-996
▁punkt	-997
ef	-998
▁vinno	-999
▁förb	-1000
▁Till	-1001
▁nivå	-1002
▁dra	-1003
▁dagar	-1004
▁uro	-1005
▁stru	-1006
▁tta	-1007
▁värd	-1008
▁enter	-1009
▁ff	-1010
▁öka	-1011
▁vatte	-1012
▁lika	-1013
▁data	-1014
fek	-1015
▁ak	-1016
▁Hon	-1017
▁särs	-1018
▁ard	-1019
▁kunde	-1020
▁ofta	-1021
▁styr	-1022
▁ap	-1023
▁Ö	-1024
▁Där	-1025
▁St	-1026
▁bestä	-1027
▁ngre	-1028
ande	-1029
▁rbete	-1030
▁effek	-1031
ang	-1032
▁funkt	-1033
▁ligg	-1034
▁både	-1035
▁ky	-1036
▁bol	-1037
▁ella	-1038
ge	-1039
▁ej	-1040
▁regi	-1041
▁etal	-1042
is	-1043
▁aktiv	-1044
▁ocial	-1045
▁gjort	-1046
▁svara	-1047
▁spela	-1048
▁Å	-1049
ella	-1050
▁lem	-1051
▁säga	-1052
▁The	-1053
▁rod	-1054
▁Man	-1055
▁stad	-1056
▁dö	-1057
▁bro	-1058
▁slä	-1059
▁ändra	-1060
▁USA	-1061
▁centr	-1062
▁ind	-1063
▁tat	-1064
▁tio	-1065
▁Som	-1066
▁ntal	-1067
▁leva	-1068
go	-1069
▁Ef	-1070
▁äld	-1071
▁gam	-1072
▁mina	-1073
▁ark	-1074
▁Efter	-1075
▁ust	-1076
▁redan	-1077
▁bak	-1078
▁Varfö	-1079
▁lev	-1080
me	-1081
▁ldigt	-1082
▁tänk	-1083
▁ådan	-1084
ung	-1085
▁isat	-1086
▁kar	-1087
▁besök	-1088
▁idag	-1089
▁son	-1090
▁tor	-1091
▁ond	-1092
▁heten	-1093
▁spec	-1094
▁eh	-1095
▁mindr	-1096
▁fortf	-1097
▁ic	-1098
▁jord	-1099
▁gäng	-1100
▁dock	-1101
▁stud	-1102
▁kvali	-1103
▁inklu	-1104
▁pel	-1105
lut	-1106
▁änner	-1107
▁ök	-1108
▁ven	-1109
▁tyg	-1110
▁ndra	-1111
▁skt	-1112
▁står	-1113
▁tur	-1114
▁trans	-1115
▁Denna	-1116
▁vissa	-1117
▁uropa	-1118
▁fast	-1119
▁ac	-1120
▁ets	-1121
▁bru	-1122
▁ors	-1123
▁Se	-1124
▁Här	-1125
▁tg	-1126
▁träff	-1127
▁kor	-1128
▁tv	-1129
▁emot	-1130
▁Nu	-1131
▁Lä	-1132
▁iska	-1133
▁rodu	-1134
▁ult	-1135
▁minsk	-1136
lä	-1137
▁z	-1138
▁Inte	-1139
ank	-1140
hä	-1141
▁ubli	-1142
▁Pro	-1143
▁namn	-1144
▁relat	-1145
del	-1146
▁isk	-1147
kal	-1148
▁Co	-1149
▁fel	-1150
▁ton	-1151
▁ortsä	-1152
▁cess	-1153
▁off	-1154
ina	-1155
mä	-1156
▁flyg	-1157
▁nner	-1158
ssio	-1159
▁Und	-1160
▁run	-1161
▁co	-1162
dd	-1163
▁nergi	-1164
▁Jo	-1165
▁giv	-1166
▁ikt	-1167
▁up	-1168
▁fung	-1169
▁cy	-1170
▁Ma	-1171
▁Ne	-1172
▁fär	-1173
▁stnad	-1174
▁tgärd	-1175
▁äker	-1176
▁tit	-1177
▁förs	-1178
▁säk	-1179
▁ring	-1180
▁sö	-1181
▁täll	-1182
▁mu	-1183
▁rm	-1184
▁lems	-1185
▁enda	-1186
▁visar	-1187
▁drag	-1188
▁inans	-1189
▁ei	-1190
▁ten	-1191
▁lösn	-1192
▁Under	-1193
▁if	-1194
▁arbet	-1195
▁hår	-1196
▁vårt	-1197
kä	-1198
▁rågor	-1199
▁gängl	-1200
▁iga	-1201
▁lut	-1202
▁livet	-1203
▁träd	-1204
▁fem	-1205
sl	-1206
urop	-1207
▁mar	-1208
meri	-1209
▁öpp	-1210
▁rapp	-1211
▁rad	-1212
▁nära	-1213
▁10	-1214
▁räck	-1215
▁därfö	-1216
▁mor	-1217
▁miljo	-1218
▁fler	-1219
▁dj	-1220
▁fot	-1221
▁rik	-1222
▁rikti	-1223
▁lan	-1224
▁tim	-1225
▁tad	-1226
▁tel	-1227
▁nkel	-1228
▁nds	-1229
▁neb	-1230
▁ting	-1231
▁nö	-1232
▁ost	-1233
ia	-1234
tera	-1235
▁tog	-1236
▁steg	-1237
▁tera	-1238
▁hy	-1239
▁ob	-1240
▁livs	-1241
▁lycka	-1242
▁nebär	-1243
▁hjärt	-1244
vest	-1245
▁nöd	-1246
▁samhä	-1247
▁nvest	-1248
▁klara	-1249
▁gener	-1250
▁betal	-1251
▁rappo	-1252
▁mynd	-1253
▁ana	-1254
▁sex	-1255
▁ktion	-1256
▁fatt	-1257
▁ultat	-1258
råk	-1259
▁händ	-1260
▁veten	-1261
▁kam	-1262
▁eslut	-1263
▁just	-1264
▁asera	-1265
▁fru	-1266
▁hets	-1267
▁tion	-1268
▁pra	-1269
▁io	-1270
ku	-1271
▁sol	-1272
ho	-1273
▁svår	-1274
▁amman	-1275
▁ala	-1276
▁orsak	-1277
▁Be	-1278
▁konst	-1279
▁driv	-1280
pe	-1281
ende	-1282
▁såg	-1283
▁törre	-1284
▁th	-1285
▁no	-1286
▁lesta	-1287
▁nskap	-1288
▁eras	-1289
▁mma	-1290
▁blo	-1291
▁nog	-1292
▁nera	-1293
▁ev	-1294
▁jälva	-1295
för	-1296
▁ög	-1297
po	-1298
▁ou	-1299
▁syn	-1300
▁Ta	-1301
▁lek	-1302
▁runt	-1303
▁issio	-1304
▁logi	-1305
▁%	-1306
▁gem	-1307
▁ings	-1308
▁dagen	-1309
▁stark	-1310
▁vecka	-1311
▁vänd	-1312
mi	-1313
▁rs	-1314
▁rep	-1315
▁nads	-1316
veri	-1317
▁räk	-1318
▁Sveri	-1319
▁gemen	-1320
ydd	-1321
▁kilt	-1322
▁llet	-1323
▁öppna	-1324
▁hant	-1325
▁rikt	-1326
▁erial	-1327
▁låt	-1328
▁gick	-1329
▁film	-1330
▁sen	-1331
▁naste	-1332
▁röst	-1333
▁rekt	-1334
▁äst	-1335
▁iell	-1336
pt	-1337
kto	-1338
▁utbil	-1339
▁mod	-1340
far	-1341
▁resa	-1342
▁konto	-1343
▁samar	-1344
▁nter	-1345
▁ännu	-1346
▁intre	-1347
▁sko	-1348
▁passa	-1349
▁&	-1350
▁tri	-1351
▁ifrån	-1352
▁kvar	-1353
▁märk	-1354
▁nabb	-1355
▁gel	-1356
▁dning	-1357
ansk	-1358
▁varfö	-1359
lek	-1360
▁tisk	-1361
▁sidan	-1362
▁regl	-1363
ign	-1364
verk	-1365
▁söker	-1366
▁djur	-1367
▁Kan	-1368
▁läs	-1369
▁ång	-1370
▁eb	-1371
▁släpp	-1372
▁esign	-1373
▁oliti	-1374
▁lära	-1375
▁bolag	-1376
▁hund	-1377
▁test	-1378
▁nkelt	-1379
▁port	-1380
▁elser	-1381
os	-1382
▁behov	-1383
▁anti	-1384
▁Dessa	-1385
▁lle	-1386
▁räm	-1387
▁örj	-1388
▁ja	-1389
▁nativ	-1390
▁ärlek	-1391
▁tred	-1392
▁åg	-1393
▁ionen	-1394
▁nta	-1395
▁sida	-1396
▁nline	-1397
▁kicka	-1398
▁enare	-1399
▁reko	-1400
▁gn	-1401
▁arn	-1402
▁örsök	-1403
▁ndig	-1404
gen	-1405
▁part	-1406
▁satt	-1407
▁skö	-1408
▁små	-1409
▁kansk	-1410
▁ud	-1411
▁tyd	-1412
▁lim	-1413
▁tredj	-1414
▁fakti	-1415
▁ont	-1416
▁ilder	-1417
ber	-1418
▁enk	-1419
▁kol	-1420
▁täck	-1421
▁lokal	-1422
▁språk	-1423
▁rr	-1424
▁året	-1425
▁idigt	-1426
▁musik	-1427
▁skydd	-1428
▁begr	-1429
▁ins	-1430
▁bild	-1431
▁begrä	-1432
▁livit	-1433
▁vilka	-1434
▁reci	-1435
▁ik	-1436
▁antas	-1437
▁’	-1438
dag	-1439
▁färg	-1440
▁nor	-1441
▁recis	-1442
▁fått	-1443
▁bero	-1444
▁lätt	-1445
▁od	-1446
gör	-1447
▁rde	-1448
▁tress	-1449
åt	-1450
▁pres	-1451
▁ndigt	-1452
▁ål	-1453
▁anc	-1454
▁alter	-1455
rid	-1456
▁metod	-1457
ori	-1458
▁nell	-1459
▁död	-1460
▁isera	-1461
▁ker	-1462
▁sn	-1463
▁jäm	-1464
▁ib	-1465
▁misk	-1466
▁avtal	-1467
ha	-1468
▁hav	-1469
▁kring	-1470
▁leda	-1471
▁inget	-1472
ari	-1473
▁eiska	-1474
▁växt	-1475
▁länge	-1476
▁ytter	-1477
▁roll	-1478
▁sent	-1479
▁sälj	-1480
▁ft	-1481
▁icke	-1482
äns	-1483
▁teck	-1484
▁gilla	-1485
▁fyll	-1486
▁eriod	-1487
▁klart	-1488
▁ättra	-1489
ob	-1490
▁hopp	-1491
▁olo	-1492
▁veta	-1493
▁kvinn	-1494
▁lora	-1495
▁minut	-1496
▁mmend	-1497
▁tydli	-1498
▁rör	-1499
▁fyra	-1500
▁erfar	-1501
▁tack	-1502
▁Ty	-1503
rev	-1504
▁gtvis	-1505
▁teckn	-1506
▁bry	-1507
▁känna	-1508
▁naden	-1509
fte	-1510
▁Ja	-1511
▁ann	-1512
▁via	-1513
▁borg	-1514
▁komst	-1515
▁krav	-1516
▁Även	-1517
▁riv	-1518
▁vård	-1519
▁relse	-1520
▁oll	-1521
▁fann	-1522
▁kräv	-1523
▁timma	-1524
▁urs	-1525
▁pla	-1526
▁nga	-1527
▁nte	-1528
▁fin	-1529
▁rande	-1530
deo	-1531
▁sni	-1532
▁allmä	-1533
▁rågan	-1534
▁års	-1535
▁titta	-1536
ic	-1537
▁gräns	-1538
▁välja	-1539
▁vak	-1540
▁vensk	-1541
▁tning	-1542
▁lar	-1543
▁låg	-1544
▁tud	-1545
▁lex	-1546
▁llk	-1547
▁bruk	-1548
▁sse	-1549
▁poli	-1550
▁Vil	-1551
▁tom	-1552
▁Fr	-1553
▁Wi	-1554
▁ögon	-1555
▁nödvä	-1556
▁änsk	-1557
▁ang	-1558
▁denti	-1559
▁räckl	-1560
▁ret	-1561
▁gar	-1562
▁oppas	-1563
▁dy	-1564
▁ndas	-1565
▁ameri	-1566
▁skill	-1567
▁gu	-1568
▁Ca	-1569
▁dia	-1570
▁ren	-1571
▁elare	-1572
▁tudie	-1573
▁lad	-1574
▁sett	-1575
▁llt	-1576
▁fä	-1577
▁itu	-1578
▁taden	-1579
▁lam	-1580
▁ron	-1581
▁kalla	-1582
▁sade	-1583
▁klass	-1584
▁stort	-1585
▁rom	-1586
▁vilja	-1587
▁köpa	-1588
▁medan	-1589
▁talet	-1590
▁snitt	-1591
▁sj	-1592
▁rike	-1593
▁Upp	-1594
▁enlig	-1595
▁änskl	-1596
▁ådana	-1597
▁hin	-1598
▁ste	-1599
▁llkor	-1600
▁hal	-1601
▁grad	-1602
▁lla	-1603
▁ffe	-1604
ydda	-1605
▁konf	-1606
▁rnet	-1607
ini	-1608
▁rist	-1609
▁sive	-1610
▁kydda	-1611
▁prata	-1612
▁stu	-1613
▁erat	-1614
▁san	-1615
▁ultur	-1616
▁inga	-1617
gd	-1618
▁000	-1619
som	-1620
▁dare	-1621
▁ffekt	-1622
▁skatt	-1623
▁tids	-1624
▁Fi	-1625
▁blod	-1626
▁vand	-1627
▁ay	-1628
▁båda	-1629
▁ategi	-1630
▁els	-1631
▁the	-1632
▁egna	-1633
▁pati	-1634
▁liten	-1635
▁ca	-1636
▁Ha	-1637
▁yck	-1638
▁krig	-1639
▁etala	-1640
▁Ut	-1641
▁nabbt	-1642
▁Z	-1643
▁sna	-1644
▁pris	-1645
str	-1646
▁20	-1647
▁räd	-1648
▁inner	-1649
▁vers	-1650
▁vinna	-1651
ål	-1652
▁nam	-1653
▁nj	-1654
▁Min	-1655
▁kvä	-1656
▁kommu	-1657
okus	-1658
▁asin	-1659
▁fokus	-1660
▁ext	-1661
▁»	-1662
▁ena	-1663
▁vu	-1664
▁först	-1665
▁alt	-1666
▁unive	-1667
▁ism	-1668
▁dater	-1669
▁skada	-1670
▁bygga	-1671
▁rig	-1672
▁rna	-1673
▁Då	-1674
▁rvi	-1675
▁kväll	-1676
▁ue	-1677
▁elt	-1678
▁gla	-1679
rist	-1680
▁Många	-1681
▁lltså	-1682
▁aut	-1683
▁ria	-1684
▁ir	-1685
▁tverk	-1686
▁ote	-1687
▁svårt	-1688
▁räkna	-1689
▁samla	-1690
su	-1691
▁gångs	-1692
▁fe	-1693
▁öd	-1694
▁andet	-1695
▁profe	-1696
▁rivat	-1697
▁ljus	-1698
▁ec	-1699
▁bio	-1700
▁sikt	-1701
▁örord	-1702
rek	-1703
▁ituat	-1704
▁möte	-1705
▁tills	-1706
▁Jes	-1707
▁iella	-1708
▁lista	-1709
▁mängd	-1710
▁tjäna	-1711
▁*	-1712
▁glob	-1713
▁ork	-1714
▁dell	-1715
▁örjan	-1716
▁inna	-1717
▁helst	-1718
▁asino	-1719
▁Mo	-1720
▁snabb	-1721
▁15	-1722
▁fiera	-1723
▁ia	-1724
▁disk	-1725
▁medle	-1726
▁ack	-1727
▁ris	-1728
▁örs	-1729
▁bete	-1730
▁hälso	-1731
▁offen	-1732
▁titut	-1733
▁Dess	-1734
▁erä	-1735
▁ngen	-1736
▁ses	-1737
▁Guds	-1738
▁märke	-1739
▁yr	-1740
▁gri	-1741
▁ehöv	-1742
▁förf	-1743
▁he	-1744
▁ntakt	-1745
▁långt	-1746
▁uts	-1747
▁anal	-1748
▁ktur	-1749
▁rvice	-1750
▁regis	-1751
▁sc	-1752
▁jämfö	-1753
▁Ho	-1754
▁New	-1755
▁öv	-1756
▁ramfö	-1757
▁ref	-1758
▁ntegr	-1759
▁sista	-1760
▁nhet	-1761
▁Allt	-1762
ital	-1763
▁demo	-1764
▁norm	-1765
▁valt	-1766
▁morgo	-1767
▁efini	-1768
▁läsa	-1769
▁telef	-1770
▁hell	-1771
▁os	-1772
▁Joh	-1773
▁bank	-1774
▁rlds	-1775
▁Ni	-1776
▁30	-1777
vid	-1778
▁pass	-1779
▁takt	-1780
ön	-1781
▁Läs	-1782
▁licka	-1783
▁ien	-1784
▁inför	-1785
▁borde	-1786
▁hindr	-1787
▁ps	-1788
▁slå	-1789
▁äldra	-1790
▁döda	-1791
▁tell	-1792
▁af	-1793
▁gamla	-1794
▁minst	-1795
▁prov	-1796
▁ggnad	-1797
▁förut	-1798
▁sådan	-1799
▁mör	-1800
▁anför	-1801
▁gaste	-1802
▁tex	-1803
▁trän	-1804
▁önska	-1805
▁ey	-1806
▁ident	-1807
▁ndare	-1808
▁möt	-1809
▁cir	-1810
▁mån	-1811
▁ensio	-1812
▁perfe	-1813
▁ror	-1814
▁rolig	-1815
▁rat	-1816
▁ari	-1817
▁stisk	-1818
▁divid	-1819
▁hälsa	-1820
▁aktio	-1821
▁eln	-1822
▁haft	-1823
▁nien	-1824
▁dålig	-1825
▁ok	-1826
▁stall	-1827
▁stand	-1828
änk	-1829
▁text	-1830
▁konsu	-1831
vo	-1832
▁ritt	-1833
ow	-1834
fic	-1835
▁Fö	-1836
▁brott	-1837
▁pelar	-1838
▁•	-1839
▁ini	-1840
▁lån	-1841
▁X	-1842
▁Gen	-1843
▁video	-1844
▁utr	-1845
▁fanns	-1846
▁trakt	-1847
▁Re	-1848
ller	-1849
▁blogg	-1850
▁Q	-1851
▁ute	-1852
▁likt	-1853
▁öring	-1854
▁bed	-1855
▁dju	-1856
▁ordn	-1857
▁allas	-1858
▁ublic	-1859
▁bud	-1860
▁godkä	-1861
▁handa	-1862
▁såsom	-1863
cker	-1864
▁vem	-1865
▁Därfö	-1866
▁tvi	-1867
▁lägga	-1868
▁värld	-1869
▁ville	-1870
▁vikt	-1871
▁Av	-1872
▁sera	-1873
▁idé	-1874
▁gy	-1875
▁Ingen	-1876
▁syfte	-1877
▁ina	-1878
▁sag	-1879
▁mmel	-1880
▁sats	-1881
▁gav	-1882
▁ori	-1883
▁ologi	-1884
▁mam	-1885
▁ox	-1886
▁högre	-1887
▁sid	-1888
▁ktiv	-1889
omm	-1890
▁berg	-1891
▁djup	-1892
▁hemma	-1893
▁ommit	-1894
▁doku	-1895
▁nsvar	-1896
▁lutio	-1897
ong	-1898
▁Jesus	-1899
▁ffärs	-1900
▁ransk	-1901
▁akta	-1902
▁vack	-1903
▁Sedan	-1904
▁astig	-1905
▁serie	-1906
▁klä	-1907
▁emi	-1908
▁Ro	-1909
▁ot	-1910
▁klar	-1911
▁sign	-1912
▁öj	-1913
▁Europ	-1914
▁antör	-1915
▁mt	-1916
▁lic	-1917
▁måga	-1918
▁gansk	-1919
▁stans	-1920
rig	-1921
▁öp	-1922
▁iellt	-1923
▁ysi	-1924
▁ärd	-1925
▁dröm	-1926
▁domar	-1927
▁Vä	-1928
▁pe	-1929
▁meter	-1930
▁regio	-1931
▁sätta	-1932
▁käm	-1933
▁eta	-1934
▁ov	-1935
▁Låt	-1936
▁röd	-1937
▁lopp	-1938
▁gital	-1939
▁tarta	-1940
▁12	-1941
▁rer	-1942
▁direk	-1943
jä	-1944
▁regel	-1945
kat	-1946
▁skil	-1947
▁aste	-1948
▁foto	-1949
▁tradi	-1950
▁åld	-1951
▁chef	-1952
▁mmar	-1953
▁ow	-1954
▁itta	-1955
▁genhe	-1956
▁öcker	-1957
nå	-1958
▁sra	-1959
▁dags	-1960
▁säkra	-1961
▁dro	-1962
▁tot	-1963
▁bund	-1964
▁vägen	-1965
▁gått	-1966
▁Eller	-1967
▁Fa	-1968
▁ägg	-1969
▁kven	-1970
▁tänka	-1971
▁nå	-1972
▁edel	-1973
▁bered	-1974
▁dator	-1975
▁litik	-1976
▁krift	-1977
▁pte	-1978
▁stol	-1979
▁veck	-1980
▁uppnå	-1981
▁srael	-1982
▁välj	-1983
▁lytta	-1984
▁Sam	-1985
▁let	-1986
▁räver	-1987
urs	-1988
▁kamp	-1989
▁redo	-1990
▁total	-1991
▁inal	-1992
▁Ny	-1993
▁rec	-1994
▁amma	-1995
▁mini	-1996
ht	-1997
▁bin	-1998
▁äta	-1999
▁mobil	-2000
▁ott	-2001
▁rim	-2002
▁enkla	-2003
▁itter	-2004
▁log	-2005
▁last	-2006
▁fika	-2007
pr	-2008
▁au	-2009
▁uari	-2010
▁Varje	-2011
▁eende	-2012
▁ions	-2013
▁mna	-2014
▁Vem	-2015
ps	-2016
▁Bo	-2017
▁maj	-2018
▁sch	-2019
▁lands	-2020
▁halv	-2021
▁hållb	-2022
▁emang	-2023
bi	-2024
▁vare	-2025
▁bryt	-2026
▁kolan	-2027
led	-2028
▁erens	-2029
▁Uni	-2030
▁visn	-2031
▁heter	-2032
▁roduc	-2033
▁ert	-2034
▁tälla	-2035
▁Genom	-2036
▁rsi	-2037
▁luft	-2038
▁anled	-2039
▁Nä	-2040
▁kal	-2041
▁elekt	-2042
▁mst	-2043
▁uella	-2044
▁vecko	-2045
▁kare	-2046
▁varu	-2047
▁rsite	-2048
▁krävs	-2049
tel	-2050
▁bilda	-2051
▁jobba	-2052
▁speci	-2053
▁Le	-2054
▁ym	-2055
▁ham	-2056
av	-2057
▁rå	-2058
▁dec	-2059
▁åren	-2060
▁bef	-2061
▁bedöm	-2062
▁anstä	-2063
▁rakti	-2064
▁äkers	-2065
▁extra	-2066
▁dde	-2067
▁ras	-2068
▁Vill	-2069
▁urspr	-2070
▁läke	-2071
dra	-2072
▁färd	-2073
▁skär	-2074
▁delen	-2075
▁ih	-2076
▁sagt	-2077
▁tenti	-2078
▁post	-2079
▁nöj	-2080
▁arm	-2081
▁sten	-2082
▁fasts	-2083
▁redit	-2084
▁ålder	-2085
▁Vid	-2086
▁ända	-2087
▁ool	-2088
▁mamma	-2089
▁följa	-2090
▁vo	-2091
▁dre	-2092
▁nikat	-2093
▁grip	-2094
▁limat	-2095
▁jö	-2096
▁rit	-2097
▁typer	-2098
▁tas	-2099
ant	-2100
▁exi	-2101
▁nci	-2102
▁cha	-2103
▁kost	-2104
▁lt	-2105
▁motor	-2106
▁urang	-2107
▁ändå	-2108
▁lutet	-2109
▁säkr	-2110
▁agera	-2111
▁perat	-2112
▁err	-2113
▁makt	-2114
▁fullt	-2115
hi	-2116
▁nät	-2117
▁mera	-2118
▁glad	-2119
ldi	-2120
▁tidig	-2121
▁cell	-2122
▁skol	-2123
▁ilm	-2124
▁rämst	-2125
▁ank	-2126
▁ncip	-2127
▁rtera	-2128
▁njut	-2129
▁saml	-2130
▁Kina	-2131
▁tatio	-2132
▁bäst	-2133
▁bidra	-2134
ou	-2135
▁äll	-2136
▁örsv	-2137
▁parti	-2138
▁bär	-2139
▁ital	-2140
▁ysisk	-2141
▁oog	-2142
▁erätt	-2143
▁utrus	-2144
▁ämp	-2145
▁Från	-2146
▁nupp	-2147
▁ele	-2148
▁nne	-2149
▁batt	-2150
▁rot	-2151
▁cyk	-2152
▁född	-2153
▁oogle	-2154
▁rihet	-2155
▁snart	-2156
▁ial	-2157
▁huset	-2158
▁ommar	-2159
▁exa	-2160
▁ihåg	-2161
▁ci	-2162
▁ask	-2163
▁nsa	-2164
▁match	-2165
▁mplig	-2166
▁Stor	-2167
▁amb	-2168
▁garan	-2169
▁sakna	-2170
▁sitiv	-2171
▁brä	-2172
▁orna	-2173
▁gamm	-2174
▁stil	-2175
▁artne	-2176
▁innov	-2177
▁kriva	-2178
▁inlä	-2179
▁grati	-2180
▁ssna	-2181
bar	-2182
▁stra	-2183
▁nande	-2184
▁ars	-2185
▁ler	-2186
▁Ju	-2187
▁pän	-2188
▁trö	-2189
▁vux	-2190
▁mstol	-2191
vl	-2192
▁ämpa	-2193
▁event	-2194
▁gud	-2195
▁nsp	-2196
▁låta	-2197
▁ppen	-2198
▁eltag	-2199
▁terr	-2200
▁ening	-2201
▁iktig	-2202
▁ancer	-2203
▁nspir	-2204
▁lön	-2205
▁itt	-2206
▁50	-2207
▁bart	-2208
▁mass	-2209
nda	-2210
▁rda	-2211
▁ringa	-2212
▁ai	-2213
▁dri	-2214
▁bord	-2215
▁europ	-2216
tion	-2217
▁eget	-2218
▁Tack	-2219
▁fälle	-2220
▁klag	-2221
gn	-2222
kar	-2223
rä	-2224
▁net	-2225
▁läge	-2226
▁stod	-2227
gär	-2228
▁känn	-2229
▁Inter	-2230
▁begär	-2231
▁forma	-2232
▁dd	-2233
▁mrå	-2234
▁ärdig	-2235
cep	-2236
▁glö	-2237
▁häm	-2238
▁kret	-2239
▁sann	-2240
▁ublik	-2241
▁gsta	-2242
▁numm	-2243
▁topp	-2244
▁dande	-2245
ärk	-2246
▁ehövs	-2247
▁grepp	-2248
▁mråde	-2249
▁lett	-2250
▁kämpa	-2251
▁ellt	-2252
▁lust	-2253
▁gelsk	-2254
▁rning	-2255
▁spekt	-2256
▁tanna	-2257
▁äkert	-2258
▁25	-2259
▁lock	-2260
ktio	-2261
▁Cha	-2262
▁tand	-2263
▁uell	-2264
▁Ge	-2265
▁spår	-2266
▁relig	-2267
▁resen	-2268
▁äns	-2269
▁disku	-2270
▁Sp	-2271
▁omb	-2272
▁avori	-2273
nit	-2274
▁älj	-2275
▁ndel	-2276
▁Ko	-2277
▁grön	-2278
▁arnen	-2279
▁resul	-2280
▁rädda	-2281
▁bakom	-2282
▁lassi	-2283
ts	-2284
▁amp	-2285
▁litet	-2286
▁kna	-2287
▁oav	-2288
▁sym	-2289
▁La	-2290
▁plac	-2291
▁nadsf	-2292
åll	-2293
▁ära	-2294
▁accep	-2295
▁pelet	-2296
▁dör	-2297
▁äs	-2298
▁euro	-2299
▁viss	-2300
▁age	-2301
▁sel	-2302
▁gott	-2303
▁gef	-2304
▁nsi	-2305
▁+	-2306
▁temp	-2307
▁stärk	-2308
▁gat	-2309
▁kul	-2310
▁gefär	-2311
▁rien	-2312
▁konse	-2313
▁nellt	-2314
▁rakt	-2315
bu	-2316
▁tagit	-2317
▁ativ	-2318
yk	-2319
▁rv	-2320
▁döm	-2321
▁skild	-2322
hop	-2323
▁iet	-2324
▁hörig	-2325
▁äsong	-2326
▁rand	-2327
▁nistr	-2328
▁spara	-2329
▁istä	-2330
▁boken	-2331
kan	-2332
▁trera	-2333
▁iva	-2334
▁lera	-2335
▁smärt	-2336
▁hundr	-2337
jk	-2338
▁Sa	-2339
▁xt	-2340
▁mät	-2341
▁änsl	-2342
▁ordon	-2343
▁psyk	-2344
▁etalj	-2345
be	-2346
▁bas	-2347
▁vap	-2348
▁ollar	-2349
▁tälle	-2350
▁rg	-2351
▁Ind	-2352
▁fic	-2353
▁stift	-2354
ös	-2355
▁md	-2356
▁tus	-2357
▁abso	-2358
▁llda	-2359
▁naly	-2360
▁Idag	-2361
▁våld	-2362
▁Över	-2363
▁kvens	-2364
▁ördel	-2365
▁ass	-2366
▁äldre	-2367
▁lid	-2368
▁erkä	-2369
▁samb	-2370
▁innas	-2371
▁utgör	-2372
▁No	-2373
▁goda	-2374
▁kapa	-2375
▁sidor	-2376
▁hot	-2377
▁låter	-2378
▁sanni	-2379
▁kurs	-2380
▁etter	-2381
▁100	-2382
▁märkt	-2383
▁Di	-2384
▁ete	-2385
▁änslo	-2386
▁ros	-2387
▁natt	-2388
▁kända	-2389
▁aktie	-2390
▁tanke	-2391
▁träng	-2392
▁ong	-2393
▁ske	-2394
▁efolk	-2395
▁utman	-2396
▁EG	-2397
▁ebo	-2398
▁trots	-2399
▁ilj	-2400
väm	-2401
▁ekväm	-2402
▁mmels	-2403
ons	-2404
▁ndar	-2405
▁namne	-2406
▁styrk	-2407
▁ood	-2408
▁John	-2409
▁ljud	-2410
▁ärlig	-2411
▁ihop	-2412
▁ovan	-2413
▁knapp	-2414
▁ater	-2415
▁atisk	-2416
▁polis	-2417
▁mörk	-2418
▁ssio	-2419
▁Vilka	-2420
▁rumme	-2421
▁Po	-2422
▁bad	-2423
▁frä	-2424
▁arki	-2425
▁issa	-2426
▁skäl	-2427
▁Nästa	-2428
▁tider	-2429
▁mag	-2430
▁sjö	-2431
▁ator	-2432
▁mare	-2433
▁märks	-2434
▁meni	-2435
▁nyttj	-2436
▁11	-2437
▁nom	-2438
▁takta	-2439
▁ich	-2440
▁mana	-2441
▁värt	-2442
▁lay	-2443
▁Frank	-2444
▁fulla	-2445
▁riska	-2446
▁Tänk	-2447
▁unio	-2448
▁krati	-2449
▁änsla	-2450
▁övrig	-2451
▁An	-2452
▁otter	-2453
▁Din	-2454
▁fjä	-2455
▁nent	-2456
▁varli	-2457
▁mmer	-2458
▁varor	-2459
▁rin	-2460
▁varig	-2461
▁ättet	-2462
▁Vissa	-2463
▁Su	-2464
▁ess	-2465
▁kyldi	-2466
▁skan	-2467
▁brist	-2468
▁nyhet	-2469
▁Vår	-2470
▁fria	-2471
▁ose	-2472
▁riär	-2473
▁reste	-2474
▁sitio	-2475
▁skrev	-2476
▁opul	-2477
▁rare	-2478
▁rådet	-2479
▁kyl	-2480
▁cirka	-2481
▁delta	-2482
▁admi	-2483
▁vinst	-2484
▁Sch	-2485
▁olen	-2486
▁ston	-2487
▁ua	-2488
▁ratur	-2489
▁tusen	-2490
olm	-2491
▁dor	-2492
▁nämn	-2493
▁uss	-2494
▁strä	-2495
▁ges	-2496
▁sma	-2497
▁icin	-2498
▁impo	-2499
▁uper	-2500
▁askin	-2501
▁our	-2502
▁instä	-2503
▁Th	-2504
▁rra	-2505
▁Hans	-2506
▁arty	-2507
▁indus	-2508
▁leder	-2509
▁mässi	-2510
▁nterv	-2511
▁>	-2512
▁team	-2513
▁blick	-2514
▁Ex	-2515
▁tank	-2516
▁ådant	-2517
▁tig	-2518
▁ester	-2519
▁bj	-2520
▁gär	-2521
▁lys	-2522
▁fas	-2523
▁mati	-2524
▁rätte	-2525
Vi	-2526
▁exakt	-2527
▁ägare	-2528
▁Bra	-2529
▁atio	-2530
▁enbar	-2531
▁frukt	-2532
▁opulä	-2533
▁teter	-2534
▁drick	-2535
▁nstru	-2536
▁sprid	-2537
▁Fac	-2538
▁nch	-2539
▁ämn	-2540
▁dern	-2541
▁dubb	-2542
▁fört	-2543
▁ades	-2544
▁tävl	-2545
▁start	-2546
▁undra	-2547
▁aff	-2548
▁rymm	-2549
▁lagen	-2550
▁All	-2551
▁grafi	-2552
▁träck	-2553
▁stopp	-2554
▁ress	-2555
▁analy	-2556
▁$	-2557
▁kry	-2558
▁ilmen	-2559
▁ttack	-2560
▁berö	-2561
▁ustr	-2562
▁ash	-2563
▁fli	-2564
▁tru	-2565
▁forsk	-2566
▁bib	-2567
▁entar	-2568
▁tjärn	-2569
▁höra	-2570
▁åk	-2571
▁Nord	-2572
▁boll	-2573
▁expo	-2574
▁sste	-2575
▁kräft	-2576
▁ight	-2577
▁18	-2578
▁ats	-2579
▁aglig	-2580
▁kh	-2581
▁andi	-2582
▁engag	-2583
▁dä	-2584
▁usi	-2585
▁bilar	-2586
▁minne	-2587
▁visas	-2588
▁ebook	-2589
▁känns	-2590
▁try	-2591
▁Mi	-2592
▁sor	-2593
mb	-2594
▁ep	-2595
▁ämne	-2596
▁hjä	-2597
▁kriti	-2598
▁merik	-2599
▁oavse	-2600
▁glas	-2601
▁ktivi	-2602
▁butik	-2603
▁elsen	-2604
▁vapen	-2605
▁hit	-2606
▁höll	-2607
▁krist	-2608
▁ea	-2609
▁ake	-2610
▁ata	-2611
▁kopp	-2612
▁rskap	-2613
▁undvi	-2614
ry	-2615
▁öjlig	-2616
▁latt	-2617
▁våna	-2618
get	-2619
▁tna	-2620
▁drog	-2621
▁nens	-2622
▁synd	-2623
▁vackr	-2624
per	-2625
▁tc	-2626
▁stro	-2627
▁agens	-2628
▁estår	-2629
▁klaga	-2630
▁nland	-2631
▁linj	-2632
▁ensam	-2633
▁gärna	-2634
▁locka	-2635
▁trafi	-2636
▁edia	-2637
▁mal	-2638
▁sla	-2639
▁Tysk	-2640
▁erti	-2641
▁hård	-2642
inne	-2643
▁unga	-2644
▁indu	-2645
▁nnen	-2646
▁reso	-2647
▁strid	-2648
▁fik	-2649
▁dist	-2650
▁emål	-2651
▁edelb	-2652
▁Ry	-2653
▁eck	-2654
▁eti	-2655
▁rädd	-2656
▁varm	-2657
▁vandl	-2658
rag	-2659
▁16	-2660
▁Res	-2661
▁sky	-2662
▁ttr	-2663
▁roni	-2664
▁sker	-2665
▁opti	-2666
▁motiv	-2667
▁Kon	-2668
▁leg	-2669
▁lunda	-2670
▁dress	-2671
▁konve	-2672
▁ui	-2673
göra	-2674
▁jan	-2675
▁kör	-2676
▁medve	-2677
▁närva	-2678
▁vgöra	-2679
▁q	-2680
▁its	-2681
▁gnos	-2682
▁gård	-2683
▁stör	-2684
▁arnet	-2685
▁ås	-2686
▁alans	-2687
▁ember	-2688
▁satte	-2689
▁gas	-2690
▁not	-2691
▁ndow	-2692
▁anges	-2693
▁smart	-2694
▁atum	-2695
▁nalys	-2696
▁ämnen	-2697
serv	-2698
▁Gör	-2699
▁com	-2700
▁bserv	-2701
▁riset	-2702
▁stäng	-2703
▁mn	-2704
▁bred	-2705
▁atego	-2706
▁täcka	-2707
▁dam	-2708
▁hört	-2709
▁nöjd	-2710
▁ndows	-2711
▁Sy	-2712
▁cit	-2713
▁iser	-2714
▁stik	-2715
▁etags	-2716
▁litär	-2717
▁offic	-2718
▁TV	-2719
▁riser	-2720
▁ojk	-2721
▁skä	-2722
▁lykt	-2723
▁tecke	-2724
▁fre	-2725
▁löj	-2726
▁vit	-2727
▁edan	-2728
▁fund	-2729
▁finna	-2730
▁ormat	-2731
▁köp	-2732
▁mnd	-2733
▁band	-2734
▁orden	-2735
▁stödj	-2736
▁yrkan	-2737
▁grä	-2738
▁term	-2739
▁nled	-2740
▁skog	-2741
▁tida	-2742
▁delni	-2743
▁eal	-2744
▁slig	-2745
▁sökte	-2746
▁sh	-2747
▁insk	-2748
▁tab	-2749
▁korre	-2750
▁sem	-2751
▁lleg	-2752
▁tatet	-2753
rem	-2754
▁vor	-2755
▁kung	-2756
▁oäng	-2757
▁fattn	-2758
▁nr	-2759
▁gare	-2760
▁följd	-2761
▁13	-2762
▁oppla	-2763
▁ottag	-2764
juk	-2765
▁ms	-2766
▁anser	-2767
▁fylla	-2768
▁resta	-2769
▁—	-2770
▁so	-2771
▁mjuk	-2772
▁erier	-2773
▁Mer	-2774
▁ökn	-2775
▁brev	-2776
▁höga	-2777
▁og	-2778
▁vandr	-2779
▁kre	-2780
▁jätte	-2781
▁relev	-2782
▁våg	-2783
▁Samt	-2784
▁sport	-2785
▁rk	-2786
▁ela	-2787
▁eld	-2788
▁rek	-2789
▁häng	-2790
▁drabb	-2791
▁Sto	-2792
▁lott	-2793
▁ness	-2794
▁jd	-2795
▁nuva	-2796
▁likso	-2797
▁skott	-2798
▁tillf	-2799
▁ax	-2800
▁meta	-2801
▁Finns	-2802
▁ativa	-2803
▁gress	-2804
▁kholm	-2805
▁parat	-2806
▁skilj	-2807
▁mb	-2808
▁alls	-2809
▁é	-2810
▁oid	-2811
▁auto	-2812
▁kärn	-2813
▁rier	-2814
▁gativ	-2815
▁lubb	-2816
▁gravi	-2817
▁känsl	-2818
▁läg	-2819
▁rar	-2820
▁appa	-2821
▁respe	-2822
▁rrens	-2823
▁Dan	-2824
▁idrag	-2825
▁reda	-2826
▁xtrem	-2827
▁öds	-2828
▁udget	-2829
▁yckli	-2830
▁nus	-2831
▁atur	-2832
▁flöd	-2833
▁närma	-2834
▁Wo	-2835
▁versi	-2836
▁ie	-2837
▁Storb	-2838
▁landa	-2839
▁ritan	-2840
▁oly	-2841
▁svå	-2842
▁äkt	-2843
▁aktär	-2844
▁havet	-2845
▁vig	-2846
▁ntio	-2847
▁svåra	-2848
▁her	-2849
▁rre	-2850
▁tyr	-2851
▁årig	-2852
▁pansk	-2853
▁ström	-2854
▁vänli	-2855
▁Al	-2856
▁mars	-2857
▁ame	-2858
▁kuld	-2859
▁amtal	-2860
▁täder	-2861
▁lln	-2862
▁rök	-2863
▁ktor	-2864
▁erren	-2865
▁tabil	-2866
▁ulär	-2867
▁ökar	-2868
▁kreat	-2869
▁traff	-2870
▁ach	-2871
▁teo	-2872
▁tes	-2873
▁14	-2874
▁Ska	-2875
▁ail	-2876
▁yta	-2877
▁förra	-2878
▁nnons	-2879
▁dg	-2880
▁skärm	-2881
▁ome	-2882
▁enar	-2883
▁eror	-2884
▁juni	-2885
▁ernas	-2886
▁nse	-2887
▁ckel	-2888
▁lita	-2889
▁lova	-2890
▁säng	-2891
▁ptemb	-2892
▁Mark	-2893
▁lugn	-2894
▁Ryss	-2895
▁hone	-2896
▁högt	-2897
▁värme	-2898
▁sku	-2899
▁åra	-2900
▁vart	-2901
▁ira	-2902
▁Vilk	-2903
▁aktum	-2904
▁exist	-2905
▁kolla	-2906
▁lätta	-2907
▁strin	-2908
▁taten	-2909
▁anj	-2910
▁dik	-2911
▁rke	-2912
▁ålet	-2913
▁bevis	-2914
▁ivil	-2915
▁ondon	-2916
▁rämja	-2917
ård	-2918
▁El	-2919
▁graf	-2920
▁svag	-2921
▁konku	-2922
▁dgård	-2923
▁unnit	-2924
▁Sk	-2925
▁ity	-2926
▁äng	-2927
▁arhet	-2928
▁åde	-2929
▁Stoc	-2930
▁rikta	-2931
▁talar	-2932
▁dit	-2933
▁rak	-2934
▁röv	-2935
▁sanno	-2936
▁als	-2937
▁ften	-2938
▁ektio	-2939
▁läggn	-2940
▁glä	-2941
▁ski	-2942
▁bind	-2943
▁lans	-2944
▁värv	-2945
▁allet	-2946
▁lilla	-2947
▁parla	-2948
▁end	-2949
▁revo	-2950
▁#	-2951
▁40	-2952
▁rus	-2953
▁ribu	-2954
▁té	-2955
▁sal	-2956
▁mlig	-2957
▁scen	-2958
▁yn	-2959
▁Följ	-2960
▁ingår	-2961
EN	-2962
▁aka	-2963
▁söka	-2964
▁läder	-2965
▁massa	-2966
▁kant	-2967
▁lagar	-2968
▁eo	-2969
▁ssi	-2970
▁rymme	-2971
▁trand	-2972
▁oft	-2973
▁iera	-2974
▁remi	-2975
▁arlig	-2976
▁kasta	-2977
▁sälja	-2978
▁ley	-2979
▁anna	-2980
▁iler	-2981
▁jut	-2982
▁ence	-2983
▁själ	-2984
▁aktig	-2985
▁iös	-2986
▁rygg	-2987
▁fakto	-2988
▁iz	-2989
▁domen	-2990
▁illig	-2991
▁mena	-2992
▁ormer	-2993
▁oga	-2994
▁pple	-2995
▁satta	-2996
▁ril	-2997
▁hålls	-2998
▁kta	-2999
▁atti	-3000
▁para	-3001
ani	-3002
▁aket	-3003
▁Sc	-3004
▁iff	-3005
▁leta	-3006
▁vars	-3007
▁urser	-3008
▁villi	-3009
▁mul	-3010
▁välko	-3011
▁ngel	-3012
▁rift	-3013
▁arder	-3014
▁II	-3015
▁isti	-3016
▁nses	-3017
▁aktu	-3018
▁tak	-3019
▁pänna	-3020
▁kod	-3021
▁linje	-3022
▁ago	-3023
▁hat	-3024
▁avid	-3025
▁pt	-3026
▁mber	-3027
▁annen	-3028
▁sinne	-3029
▁varet	-3030
▁lju	-3031
▁gger	-3032
▁antag	-3033
▁längd	-3034
▁stati	-3035
▁ling	-3036
▁lanet	-3037
▁press	-3038
emi	-3039
▁når	-3040
▁nnor	-3041
▁rang	-3042
▁smak	-3043
▁anslu	-3044
▁ansök	-3045
▁gä	-3046
▁År	-3047
▁oka	-3048
▁görs	-3049
▁känt	-3050
▁lack	-3051
▁lini	-3052
▁mask	-3053
▁ämpn	-3054
▁stone	-3055
▁ree	-3056
▁fred	-3057
▁rid	-3058
▁ntag	-3059
▁sänd	-3060
▁affär	-3061
▁Kom	-3062
▁hol	-3063
▁medic	-3064
▁sub	-3065
▁bjud	-3066
▁fisk	-3067
▁kall	-3068
▁koppl	-3069
▁ah	-3070
▁dry	-3071
▁nar	-3072
▁rab	-3073
▁revi	-3074
▁taget	-3075
▁sum	-3076
▁ågra	-3077
▁orta	-3078
fa	-3079
▁24	-3080
▁fäl	-3081
▁gal	-3082
▁affe	-3083
▁idig	-3084
▁värr	-3085
▁ilden	-3086
▁bis	-3087
▁ept	-3088
▁ick	-3089
▁kyr	-3090
▁ägna	-3091
▁frika	-3092
▁autom	-3093
▁imp	-3094
▁emisk	-3095
▁teten	-3096
▁arken	-3097
▁visat	-3098
▁äster	-3099
▁vgi	-3100
▁kris	-3101
▁visio	-3102
▁höj	-3103
▁vel	-3104
▁redd	-3105
▁Tru	-3106
▁vgift	-3107
▁omp	-3108
▁chans	-3109
▁avse	-3110
▁erso	-3111
▁repa	-3112
▁tö	-3113
▁full	-3114
▁rten	-3115
▁änni	-3116
▁eleve	-3117
▁km	-3118
▁jul	-3119
▁citet	-3120
▁katte	-3121
▁tempe	-3122
äg	-3123
▁nger	-3124
▁otek	-3125
▁ladda	-3126
▁Gre	-3127
▁orge	-3128
▁orite	-3129
▁sekto	-3130
co	-3131
▁enkel	-3132
▁ndera	-3133
kte	-3134
▁ect	-3135
▁gon	-3136
▁ken	-3137
▁mani	-3138
▁star	-3139
▁rukar	-3140
▁17	-3141
▁ral	-3142
▁unik	-3143
▁ökand	-3144
▁­	-3145
▁häv	-3146
▁eder	-3147
▁rots	-3148
▁sköt	-3149
▁bilen	-3150
▁kli	-3151
▁skri	-3152
▁enni	-3153
▁mång	-3154
▁väga	-3155
▁atori	-3156
▁sov	-3157
▁roma	-3158
▁Ameri	-3159
▁kombi	-3160
▁terar	-3161
▁vände	-3162
▁gol	-3163
▁gran	-3164
▁AB	-3165
▁derar	-3166
▁ommun	-3167
▁Bar	-3168
▁lås	-3169
▁park	-3170
▁sluts	-3171
▁roa	-3172
▁llor	-3173
▁Krist	-3174
▁anden	-3175
▁ekomm	-3176
▁kron	-3177
▁ombin	-3178
▁nnand	-3179
▁plo	-3180
▁unt	-3181
▁Pre	-3182
▁max	-3183
▁okto	-3184
▁öreg	-3185
▁elvis	-3186
▁yk	-3187
▁You	-3188
▁ona	-3189
▁tin	-3190
▁varo	-3191
▁tänkt	-3192
▁Tre	-3193
▁aria	-3194
▁lipp	-3195
▁initi	-3196
▁otell	-3197
▁FN	-3198
▁Str	-3199
▁assa	-3200
▁derna	-3201
▁agi	-3202
▁klo	-3203
▁fekt	-3204
▁kaff	-3205
▁kände	-3206
▁pul	-3207
▁lapp	-3208
▁ehåll	-3209
▁kilda	-3210
▁överf	-3211
▁nti	-3212
▁tips	-3213
▁vatt	-3214
▁äter	-3215
▁aul	-3216
▁olag	-3217
▁säg	-3218
▁redi	-3219
▁reds	-3220
vik	-3221
▁far	-3222
▁likat	-3223
▁Li	-3224
▁ew	-3225
▁vac	-3226
▁dent	-3227
▁rkes	-3228
▁rmed	-3229
▁timm	-3230
▁tten	-3231
▁ive	-3232
▁fäll	-3233
▁trol	-3234
▁etens	-3235
▁natte	-3236
▁flu	-3237
▁tåg	-3238
▁cept	-3239
▁mmen	-3240
▁öregå	-3241
▁duc	-3242
▁lse	-3243
▁glar	-3244
▁allar	-3245
▁iP	-3246
▁cka	-3247
▁lot	-3248
▁lus	-3249
▁förd	-3250
▁inre	-3251
▁Pa	-3252
▁sie	-3253
▁bunde	-3254
▁arg	-3255
▁urn	-3256
▁ndsk	-3257
▁erk	-3258
▁ratt	-3259
▁bje	-3260
▁hämta	-3261
▁=	-3262
dern	-3263
▁egi	-3264
▁ersä	-3265
▁heml	-3266
▁ikte	-3267
▁städ	-3268
▁källa	-3269
▁For	-3270
▁båt	-3271
▁ine	-3272
▁len	-3273
▁ndiga	-3274
▁eter	-3275
▁ssant	-3276
▁gd	-3277
▁ph	-3278
▁etab	-3279
▁tant	-3280
▁atser	-3281
▁atter	-3282
▁ontin	-3283
▁ern	-3284
▁öva	-3285
▁byte	-3286
▁ille	-3287
▁ulera	-3288
▁alen	-3289
▁sorg	-3290
▁erare	-3291
▁Spa	-3292
▁rch	-3293
▁Dr	-3294
▁Lu	-3295
▁svart	-3296
▁tycke	-3297
▁gil	-3298
▁gent	-3299
▁rätts	-3300
▁Två	-3301
▁dje	-3302
▁pisk	-3303
▁tast	-3304
▁delse	-3305
▁möjli	-3306
▁yt	-3307
▁Nya	-3308
▁alb	-3309
▁kie	-3310
▁åll	-3311
▁ttare	-3312
▁Bl	-3313
▁Mic	-3314
▁edl	-3315
▁ömn	-3316
▁grav	-3317
▁aster	-3318
▁ian	-3319
▁ssa	-3320
▁fina	-3321
▁ound	-3322
▁Do	-3323
▁gö	-3324
▁ato	-3325
▁Ste	-3326
▁lsk	-3327
ttr	-3328
▁bes	-3329
▁rea	-3330
▁åka	-3331
▁amin	-3332
▁vida	-3333
▁ndvik	-3334
▁rb	-3335
▁ben	-3336
▁intr	-3337
▁vari	-3338
▁Go	-3339
▁iss	-3340
▁olk	-3341
▁smä	-3342
▁rnan	-3343
▁rän	-3344
▁rlig	-3345
▁tats	-3346
▁nove	-3347
▁växa	-3348
▁coo	-3349
▁exp	-3350
▁nnan	-3351
▁rdet	-3352
▁tekt	-3353
▁tals	-3354
▁rl	-3355
ay	-3356
▁eko	-3357
▁hud	-3358
▁ifi	-3359
▁tts	-3360
▁alko	-3361
▁dans	-3362
▁kemi	-3363
▁nare	-3364
▁nsti	-3365
▁rter	-3366
▁Eng	-3367
▁guld	-3368
▁vlig	-3369
▁nnar	-3370
▁enast	-3371
▁erspe	-3372
▁ästar	-3373
▁tam	-3374
▁urk	-3375
▁ee	-3376
▁sökt	-3377
▁ement	-3378
▁kning	-3379
▁kär	-3380
▁ägs	-3381
▁anad	-3382
▁mik	-3383
▁ntra	-3384
▁eam	-3385
▁urg	-3386
▁kompo	-3387
▁skola	-3388
▁Sen	-3389
▁ppa	-3390
▁bättr	-3391
▁träde	-3392
▁uellt	-3393
▁gh	-3394
▁kyrk	-3395
▁dskap	-3396
▁Hel	-3397
▁nord	-3398
▁nste	-3399
▁tivt	-3400
▁obe	-3401
▁aris	-3402
▁illi	-3403
▁ågon	-3404
▁Bi	-3405
▁rtu	-3406
▁ridi	-3407
▁stämm	-3408
▁ug	-3409
▁out	-3410
▁uta	-3411
▁bri	-3412
▁ech	-3413
▁nsl	-3414
▁rsä	-3415
▁over	-3416
lar	-3417
▁21	-3418
▁IS	-3419
▁ivt	-3420
▁ökad	-3421
▁fra	-3422
▁ngt	-3423
▁ostad	-3424
▁ix	-3425
▁tem	-3426
▁arti	-3427
▁esta	-3428
▁apper	-3429
▁mord	-3430
▁oför	-3431
▁vning	-3432
▁emo	-3433
▁drar	-3434
▁amen	-3435
▁:)	-3436
▁äger	-3437
▁Si	-3438
▁dar	-3439
▁ean	-3440
▁kel	-3441
▁lod	-3442
▁gera	-3443
▁eet	-3444
▁rth	-3445
▁tekn	-3446
▁60	-3447
▁Sh	-3448
▁lägs	-3449
▁nsten	-3450
▁ordet	-3451
▁lk	-3452
▁hände	-3453
▁oni	-3454
▁rsätt	-3455
all	-3456
▁Bu	-3457
▁tis	-3458
▁oende	-3459
▁nka	-3460
▁ook	-3461
▁tål	-3462
▁läst	-3463
▁tslig	-3464
...	-3465
▁arc	-3466
▁ebr	-3467
▁ekt	-3468
▁Komm	-3469
▁logg	-3470
▁edj	-3471
▁nsy	-3472
▁järn	-3473
▁öns	-3474
▁sare	-3475
▁ätter	-3476
▁pli	-3477
▁even	-3478
▁rest	-3479
▁snar	-3480
▁ssor	-3481
▁usti	-3482
▁He	-3483
▁illa	-3484
▁rese	-3485
▁ällan	-3486
▁ngs	-3487
▁rans	-3488
▁ilk	-3489
▁gäst	-3490
▁flick	-3491
▁täckt	-3492
▁undar	-3493
ca	-3494
▁oso	-3495
▁lf	-3496
▁Her	-3497
▁use	-3498
▁väst	-3499
▁givar	-3500
gå	-3501
▁imi	-3502
▁Hu	-3503
▁prä	-3504
▁rri	-3505
▁set	-3506
▁ött	-3507
▁fält	-3508
▁nf	-3509
▁Mus	-3510
▁chen	-3511
▁siell	-3512
▁gro	-3513
▁alisk	-3514
▁ckan	-3515
▁illar	-3516
▁årt	-3517
▁ffer	-3518
▁brans	-3519
▁rott	-3520
▁unika	-3521
▁Stu	-3522
▁old	-3523
▁ons	-3524
▁ual	-3525
▁varn	-3526
▁gistr	-3527
TE	-3528
▁blå	-3529
▁apan	-3530
▁tent	-3531
▁stads	-3532
▁Ac	-3533
▁Tid	-3534
▁amm	-3535
▁nat	-3536
▁ther	-3537
▁tliga	-3538
▁cc	-3539
▁kn	-3540
▁fo	-3541
▁kat	-3542
▁ttn	-3543
▁änt	-3544
▁kine	-3545
▁befin	-3546
▁erlig	-3547
▁ntern	-3548
▁tater	-3549
▁ary	-3550
▁llo	-3551
▁Först	-3552
▁ental	-3553
▁ständ	-3554
▁tets	-3555
▁bjekt	-3556
▁Gra	-3557
▁oxi	-3558
▁dörr	-3559
▁itat	-3560
▁llig	-3561
▁edlem	-3562
▁bit	-3563
▁Ins	-3564
▁nsn	-3565
▁aner	-3566
▁ergi	-3567
▁ppet	-3568
▁sson	-3569
EB	-3570
ki	-3571
▁IN	-3572
▁tei	-3573
▁vag	-3574
▁ymp	-3575
▁back	-3576
▁ansen	-3577
▁ocker	-3578
▁ER	-3579
▁arv	-3580
▁atal	-3581
▁ismen	-3582
▁eum	-3583
▁oin	-3584
▁tanda	-3585
▁ct	-3586
▁rder	-3587
▁tema	-3588
▁mde	-3589
▁koll	-3590
▁ngst	-3591
▁erter	-3592
bo	-3593
▁1,	-3594
▁19	-3595
AS	-3596
▁utl	-3597
▁dele	-3598
▁iske	-3599
▁nvis	-3600
▁gramm	-3601
▁öm	-3602
▁tik	-3603
▁sion	-3604
▁ös	-3605
▁him	-3606
▁pport	-3607
▁lon	-3608
▁äck	-3609
▁mell	-3610
▁nack	-3611
▁nsk	-3612
▁tun	-3613
▁älls	-3614
xi	-3615
▁Na	-3616
▁ite	-3617
▁ller	-3618
▁nstr	-3619
▁enten	-3620
▁Bro	-3621
▁flyt	-3622
▁vert	-3623
ith	-3624
▁ladd	-3625
▁Gro	-3626
▁dep	-3627
▁cirk	-3628
▁ycket	-3629
▁ega	-3630
▁odu	-3631
▁anlä	-3632
▁platt	-3633
▁To	-3634
▁IT	-3635
▁nc	-3636
▁lti	-3637
▁lekt	-3638
▁rika	-3639
▁vita	-3640
▁sliga	-3641
▁zo	-3642
▁sul	-3643
▁värm	-3644
▁Fråga	-3645
▁fånga	-3646
▁oy	-3647
▁obb	-3648
▁kast	-3649
▁tend	-3650
▁turn	-3651
▁långs	-3652
▁arla	-3653
▁vänt	-3654
▁nader	-3655
▁riget	-3656
▁hamn	-3657
▁tänd	-3658
▁hjärn	-3659
▁ilket	-3660
▁Tw	-3661
▁vik	-3662
▁omin	-3663
▁örer	-3664
▁allad	-3665
▁ln	-3666
▁åla	-3667
▁enne	-3668
▁lags	-3669
im	-3670
▁non	-3671
▁Sw	-3672
▁ero	-3673
▁isa	-3674
▁vla	-3675
▁akad	-3676
▁serv	-3677
▁pal	-3678
▁orit	-3679
▁atten	-3680
▁Tu	-3681
▁aga	-3682
▁ama	-3683
▁gui	-3684
▁ansk	-3685
▁beta	-3686
▁äkte	-3687
▁ilo	-3688
▁olog	-3689
▁arter	-3690
▁Mu	-3691
▁ace	-3692
▁dis	-3693
▁ange	-3694
▁Val	-3695
▁lls	-3696
▁line	-3697
▁sant	-3698
▁Ar	-3699
▁nic	-3700
▁hårt	-3701
▁sist	-3702
▁larna	-3703
▁22	-3704
▁orn	-3705
▁bära	-3706
▁lant	-3707
▁tti	-3708
▁fier	-3709
▁peri	-3710
▁ium	-3711
▁tret	-3712
▁So	-3713
▁wi	-3714
▁atör	-3715
▁edra	-3716
▁ligt	-3717
▁klare	-3718
▁nes	-3719
▁tle	-3720
▁inst	-3721
▁alien	-3722
▁avset	-3723
▁ndb	-3724
▁tråd	-3725
▁sökan	-3726
zi	-3727
▁ile	-3728
▁esti	-3729
▁aw	-3730
▁mda	-3731
▁nha	-3732
▁Barn	-3733
▁oris	-3734
▁troli	-3735
urr	-3736
▁brö	-3737
▁tfö	-3738
▁rund	-3739
▁mmand	-3740
lan	-3741
▁rst	-3742
▁acka	-3743
▁ttne	-3744
▁erv	-3745
▁fett	-3746
▁hoppa	-3747
▁fta	-3748
▁oro	-3749
▁ova	-3750
▁uto	-3751
▁yra	-3752
▁pti	-3753
▁osta	-3754
▁ordna	-3755
▁ption	-3756
▁SE	-3757
▁Un	-3758
▁WEB	-3759
▁lym	-3760
▁own	-3761
▁enta	-3762
▁And	-3763
▁rop	-3764
▁krit	-3765
▁tiska	-3766
▁mas	-3767
▁one	-3768
▁ästa	-3769
▁siska	-3770
▁talie	-3771
▁IP	-3772
▁az	-3773
▁odl	-3774
▁atar	-3775
▁kali	-3776
▁jt	-3777
▁ric	-3778
▁ändsk	-3779
ole	-3780
▁soci	-3781
▁tande	-3782
▁hop	-3783
▁ärm	-3784
▁osof	-3785
▁kolle	-3786
▁aller	-3787
▁testa	-3788
▁äd	-3789
▁alm	-3790
▁dos	-3791
▁ead	-3792
▁lat	-3793
▁igur	-3794
▁rent	-3795
▁uden	-3796
▁Få	-3797
▁alk	-3798
▁erma	-3799
▁rdig	-3800
▁200	-3801
▁dels	-3802
▁infl	-3803
▁steri	-3804
▁varta	-3805
▁epp	-3806
▁nej	-3807
▁num	-3808
▁cker	-3809
▁hov	-3810
▁kild	-3811
▁ndag	-3812
▁vete	-3813
ES	-3814
▁arl	-3815
▁dio	-3816
▁pac	-3817
▁nsad	-3818
▁ikter	-3819
▁mäl	-3820
▁sho	-3821
▁ener	-3822
▁kläd	-3823
▁erver	-3824
▁ktera	-3825
▁visst	-3826
▁Pi	-3827
▁mning	-3828
▁ssion	-3829
▁iti	-3830
▁mil	-3831
▁nni	-3832
▁Hotel	-3833
▁terna	-3834
▁vd	-3835
▁500	-3836
▁åda	-3837
▁öte	-3838
▁cera	-3839
▁aker	-3840
▁älte	-3841
▁ael	-3842
▁can	-3843
▁inns	-3844
▁hämt	-3845
▁_	-3846
▁ale	-3847
▁hål	-3848
▁see	-3849
▁äri	-3850
▁Euro	-3851
▁nsch	-3852
▁varar	-3853
▁‘	-3854
▁Lo	-3855
▁plö	-3856
▁tol	-3857
▁ire	-3858
▁rys	-3859
▁inder	-3860
du	-3861
mo	-3862
za	-3863
▁gend	-3864
▁ldra	-3865
▁örli	-3866
AR	-3867
▁cs	-3868
▁arb	-3869
▁sar	-3870
▁tav	-3871
IS	-3872
▁cin	-3873
▁vore	-3874
▁Andr	-3875
▁nning	-3876
▁jud	-3877
▁ddag	-3878
▁ivet	-3879
▁medl	-3880
▁minn	-3881
▁ämpl	-3882
▁iddag	-3883
▁ående	-3884
▁oc	-3885
▁ito	-3886
▁iver	-3887
▁bb	-3888
▁ili	-3889
▁ure	-3890
▁imal	-3891
▁ition	-3892
▁27	-3893
▁Vet	-3894
▁iat	-3895
▁uti	-3896
▁utöv	-3897
▁vind	-3898
▁Gå	-3899
▁San	-3900
▁ide	-3901
▁rser	-3902
▁vitt	-3903
▁sland	-3904
▁yd	-3905
▁mos	-3906
▁rön	-3907
▁fysi	-3908
▁valde	-3909
▁sb	-3910
▁ensi	-3911
▁xter	-3912
▁åverk	-3913
▁(1	-3914
▁28	-3915
▁sf	-3916
▁abel	-3917
▁ftar	-3918
int	-3919
▁2.	-3920
▁23	-3921
▁bel	-3922
▁kön	-3923
▁önd	-3924
▁edda	-3925
▁ister	-3926
▁ls	-3927
▁inb	-3928
▁pås	-3929
▁ansa	-3930
▁nget	-3931
▁omar	-3932
▁rame	-3933
▁telse	-3934
AT	-3935
ER	-3936
▁®	-3937
▁aha	-3938
▁api	-3939
▁ies	-3940
▁nge	-3941
▁tte	-3942
▁gene	-3943
▁ktör	-3944
OS	-3945
▁chi	-3946
▁tär	-3947
▁reat	-3948
▁undan	-3949
▁mmo	-3950
▁nio	-3951
▁pec	-3952
▁fart	-3953
▁lede	-3954
▁ärer	-3955
▁enser	-3956
▁skick	-3957
ner	-3958
▁zon	-3959
▁eran	-3960
▁1.	-3961
▁xu	-3962
▁adi	-3963
▁doms	-3964
▁ient	-3965
▁orum	-3966
▁svär	-3967
AN	-3968
▁ds	-3969
▁pu	-3970
▁yss	-3971
▁indi	-3972
▁ktive	-3973
▁tillb	-3974
▁atch	-3975
▁ender	-3976
▁pr	-3977
▁Net	-3978
▁ami	-3979
▁dum	-3980
▁ime	-3981
▁lyg	-3982
▁jack	-3983
▁rett	-3984
▁älko	-3985
▁gerar	-3986
▁laner	-3987
orm	-3988
▁rick	-3989
▁skad	-3990
▁rh	-3991
▁Rom	-3992
▁cks	-3993
▁ideo	-3994
▁rdes	-3995
▁stan	-3996
▁ano	-3997
▁nden	-3998
▁vald	-3999
▁andel	-4000
▁gonen	-4001
▁äljer	-4002
tu	-4003
uni	-4004
▁ckor	-4005
▁mmit	-4006
▁rnen	-4007
▁andli	-4008
▁ani	-4009
▁ngo	-4010
▁uff	-4011
▁rtik	-4012
▁alist	-4013
▁fan	-4014
▁golv	-4015
▁rdag	-4016
▁nån	-4017
▁bets	-4018
▁mått	-4019
▁tist	-4020
▁stern	-4021
▁CO	-4022
▁Mal	-4023
▁nan	-4024
▁pop	-4025
▁länd	-4026
▁räkn	-4027
▁aj	-4028
▁gne	-4029
▁ygg	-4030
▁köpt	-4031
▁tron	-4032
▁70	-4033
▁ove	-4034
▁uth	-4035
▁gande	-4036
▁ore	-4037
▁sys	-4038
▁katt	-4039
▁länk	-4040
▁nomi	-4041
▁sult	-4042
▁mmuni	-4043
▁Ku	-4044
▁Ser	-4045
▁rka	-4046
▁örd	-4047
▁dato	-4048
▁ontor	-4049
▁öl	-4050
▁nim	-4051
▁itel	-4052
▁rmon	-4053
▁kapet	-4054
tto	-4055
▁My	-4056
▁las	-4057
▁mmun	-4058
▁ågot	-4059
ET	-4060
▁Pe	-4061
▁rj	-4062
▁maski	-4063
▁dog	-4064
▁lor	-4065
▁tto	-4066
▁uid	-4067
▁ktig	-4068
▁neka	-4069
▁rets	-4070
▁högst	-4071
▁rhåll	-4072
▁estä	-4073
▁iali	-4074
▁pänn	-4075
▁läsar	-4076
▁lvis	-4077
▁rena	-4078
▁rome	-4079
▁agand	-4080
lo	-4081
▁ml	-4082
▁wa	-4083
▁vån	-4084
▁smen	-4085
▁xuell	-4086
▁vs	-4087
▁ebb	-4088
▁llm	-4089
▁öda	-4090
▁önsk	-4091
▁släkt	-4092
▁häst	-4093
▁nsats	-4094
▁tligt	-4095
▁<	-4096
▁26	-4097
▁Ob	-4098
▁xi	-4099
▁stig	-4100
▁gåend	-4101
▁elle	-4102
▁llmän	-4103
▁gul	-4104
▁nts	-4105
▁repre	-4106
▁varan	-4107
▁mg	-4108
▁kad	-4109
▁nov	-4110
▁olu	-4111
▁rån	-4112
▁31	-4113
▁90	-4114
▁dge	-4115
▁erg	-4116
▁nis	-4117
▁Kö	-4118
▁amn	-4119
▁eut	-4120
▁Anvä	-4121
▁kott	-4122
▁sand	-4123
▁mr	-4124
▁Tra	-4125
▁ema	-4126
▁ght	-4127
▁rren	-4128
▁skull	-4129
▁lja	-4130
▁ffic	-4131
▁lade	-4132
▁insta	-4133
kn	-4134
▁80	-4135
▁lob	-4136
▁tic	-4137
▁ikal	-4138
▁rgani	-4139
▁ous	-4140
▁ted	-4141
▁ärs	-4142
▁anne	-4143
▁entr	-4144
▁onde	-4145
▁annar	-4146
▁flytt	-4147
▁36	-4148
▁Is	-4149
▁oo	-4150
▁lia	-4151
▁ugg	-4152
▁egel	-4153
▁kten	-4154
LL	-4155
▁arat	-4156
▁asta	-4157
▁enad	-4158
▁vist	-4159
▁istan	-4160
▁ungen	-4161
En	-4162
▁Mat	-4163
▁obl	-4164
▁stjä	-4165
▁örja	-4166
▁nform	-4167
▁nsikt	-4168
må	-4169
▁svi	-4170
▁tsk	-4171
▁alis	-4172
▁arie	-4173
▁nska	-4174
▁ialis	-4175
▁nabba	-4176
IN	-4177
▁eru	-4178
▁ture	-4179
▁vann	-4180
▁Ad	-4181
▁arma	-4182
▁live	-4183
▁utsä	-4184
▁appar	-4185
▁deln	-4186
▁otal	-4187
▁moder	-4188
▁Vol	-4189
▁ain	-4190
▁ere	-4191
▁lov	-4192
▁sör	-4193
▁opera	-4194
▁edd	-4195
▁lli	-4196
▁ndr	-4197
▁pol	-4198
▁ensk	-4199
▁pare	-4200
▁rama	-4201
▁real	-4202
▁eräkn	-4203
▁reser	-4204
▁35	-4205
▁dal	-4206
▁los	-4207
▁tår	-4208
▁ever	-4209
▁kter	-4210
▁ntar	-4211
usi	-4212
▁fte	-4213
▁get	-4214
▁anmä	-4215
▁nkurr	-4216
▁ument	-4217
▁igh	-4218
▁iko	-4219
▁kit	-4220
▁oti	-4221
▁ford	-4222
▁imma	-4223
▁ånge	-4224
▁åste	-4225
▁elo	-4226
▁ita	-4227
▁uer	-4228
▁tina	-4229
▁estin	-4230
▁skaps	-4231
ya	-4232
▁wn	-4233
▁drö	-4234
▁kop	-4235
▁nto	-4236
▁sia	-4237
▁arta	-4238
▁ogra	-4239
▁tilla	-4240
▁ase	-4241
▁alif	-4242
▁fint	-4243
▁lind	-4244
▁arens	-4245
▁känne	-4246
▁MS	-4247
▁lb	-4248
▁tm	-4249
▁rsk	-4250
▁sci	-4251
▁kå	-4252
▁xis	-4253
▁essi	-4254
▁spek	-4255
▁akten	-4256
▁ansva	-4257
Om	-4258
▁«	-4259
▁Får	-4260
▁cho	-4261
▁lib	-4262
▁shi	-4263
▁dati	-4264
▁grek	-4265
▁diska	-4266
▁udi	-4267
▁rval	-4268
▁sked	-4269
▁förbi	-4270
▁bot	-4271
▁ynd	-4272
▁öde	-4273
▁kors	-4274
▁yfte	-4275
▁ateri	-4276
▁mment	-4277
▁fer	-4278
▁kriv	-4279
▁lösa	-4280
▁Herre	-4281
▁lab	-4282
▁tiga	-4283
▁vant	-4284
▁ldern	-4285
isk	-4286
▁EC	-4287
▁grå	-4288
▁mek	-4289
▁rag	-4290
▁anni	-4291
▁nalen	-4292
▁union	-4293
▁AI	-4294
▁pen	-4295
▁trå	-4296
▁llen	-4297
▁ppar	-4298
▁rant	-4299
▁allti	-4300
▁ike	-4301
▁nso	-4302
▁omo	-4303
▁uri	-4304
▁Före	-4305
▁nser	-4306
▁tick	-4307
▁vild	-4308
▁örst	-4309
▁miner	-4310
▁Con	-4311
▁mple	-4312
▁ane	-4313
▁dta	-4314
▁ise	-4315
▁eral	-4316
▁kill	-4317
▁ktan	-4318
▁öder	-4319
▁örstö	-4320
▁gna	-4321
▁veri	-4322
▁ya	-4323
▁ene	-4324
▁öll	-4325
▁ader	-4326
▁aler	-4327
▁eger	-4328
▁mode	-4329
▁spro	-4330
▁etisk	-4331
Du	-4332
ala	-4333
▁Tom	-4334
▁ilt	-4335
▁aten	-4336
▁likna	-4337
▁nerna	-4338
▁VI	-4339
▁tch	-4340
▁jälp	-4341
▁vrig	-4342
▁Fu	-4343
▁ux	-4344
▁kos	-4345
▁mate	-4346
▁vakt	-4347
▁berör	-4348
lit	-4349
▁ance	-4350
▁skal	-4351
▁nslut	-4352
▁mak	-4353
▁änk	-4354
▁ggar	-4355
▁olla	-4356
▁onst	-4357
▁rera	-4358
▁föror	-4359
▁itali	-4360
▁ratio	-4361
▁Ba	-4362
▁lje	-4363
▁mel	-4364
▁olv	-4365
▁rov	-4366
▁kala	-4367
▁aktor	-4368
▁ke	-4369
▁alu	-4370
▁jet	-4371
▁yft	-4372
▁skrä	-4373
ana	-4374
▁ear	-4375
▁aska	-4376
▁artin	-4377
▁förde	-4378
▁3.	-4379
▁300	-4380
▁elig	-4381
▁ndes	-4382
▁låtar	-4383
▁ograf	-4384
▁vända	-4385
▁As	-4386
▁lv	-4387
▁rti	-4388
▁agen	-4389
▁orda	-4390
▁spar	-4391
▁klusi	-4392
▁törer	-4393
▁kiv	-4394
▁ump	-4395
▁ycke	-4396
▁2,	-4397
▁lver	-4398
▁derlä	-4399
▁45	-4400
...]	-4401
▁rou	-4402
▁ryt	-4403
▁tolk	-4404
▁[...]	-4405
▁iru	-4406
▁orr	-4407
▁pan	-4408
▁ID	-4409
▁Bri	-4410
▁Mar	-4411
▁ush	-4412
▁onal	-4413
▁tika	-4414
▁lobal	-4415
▁cro	-4416
▁dda	-4417
▁ntä	-4418
▁peisk	-4419
▁ropa	-4420
▁ryck	-4421
▁tälld	-4422
▁Ri	-4423
▁mon	-4424
▁tip	-4425
▁rdra	-4426
▁ttre	-4427
▁konce	-4428
▁råk	-4429
▁yda	-4430
▁åva	-4431
▁lska	-4432
▁torm	-4433
▁imera	-4434
▁unden	-4435
jt	-4436
▁Chi	-4437
▁inc	-4438
▁olj	-4439
▁ora	-4440
▁arad	-4441
▁nism	-4442
▁essio	-4443
+]	-4444
▁PC	-4445
▁[+]	-4446
▁yl	-4447
▁bju	-4448
▁rry	-4449
▁rend	-4450
▁tvär	-4451
▁SS	-4452
▁ota	-4453
▁skl	-4454
▁åta	-4455
▁egra	-4456
▁esök	-4457
▁ennes	-4458
ED	-4459
▁tå	-4460
▁inv	-4461
▁oto	-4462
▁Fran	-4463
▁amer	-4464
▁bler	-4465
BA	-4466
▁Dom	-4467
▁asa	-4468
▁ndo	-4469
▁ogi	-4470
▁pot	-4471
▁aser	-4472
▁drat	-4473
▁byggd	-4474
▁itera	-4475
▁tutio	-4476
▁Ga	-4477
▁Lin	-4478
▁ige	-4479
▁ish	-4480
▁mej	-4481
▁tum	-4482
▁Mon	-4483
▁vila	-4484
▁erska	-4485
▁🙂	-4486
▁che	-4487
▁eka	-4488
▁terie	-4489
jek	-4490
▁29	-4491
pert	-4492
▁byt	-4493
▁rob	-4494
▁ukt	-4495
▁onen	-4496
▁vent	-4497
▁betet	-4498
▁utför	-4499
▁ban	-4500
▁rut	-4501
▁spo	-4502
▁enti	-4503
▁onom	-4504
▁nerar	-4505
▁objek	-4506
▁xpert	-4507
PS	-4508
▁Ur	-4509
▁enn	-4510
▁egis	-4511
▁nkar	-4512
▁tift	-4513
▁tore	-4514
▁ägar	-4515
▁Ra	-4516
▁erm	-4517
▁ift	-4518
▁lbe	-4519
▁dräg	-4520
▁juta	-4521
▁oder	-4522
▁orer	-4523
▁bestå	-4524
▁eriet	-4525
▁rf	-4526
▁ado	-4527
▁ath	-4528
▁iel	-4529
▁kte	-4530
▁kva	-4531
▁King	-4532
▁tner	-4533
▁uvud	-4534
▁Ir	-4535
▁gry	-4536
▁nåt	-4537
▁pon	-4538
▁nsat	-4539
▁ordi	-4540
▁rock	-4541
▁föres	-4542
▁ip	-4543
▁lld	-4544
▁löm	-4545
▁utse	-4546
▁ångar	-4547
ard	-4548
rik	-4549
▁ket	-4550
▁nåd	-4551
▁assi	-4552
▁meka	-4553
▁nast	-4554
▁emlig	-4555
▁tners	-4556
▁Da	-4557
▁oe	-4558
▁uk	-4559
▁oml	-4560
▁smi	-4561
▁isto	-4562
▁ttig	-4563
▁amera	-4564
▁ditio	-4565
▁tagen	-4566
▁gren	-4567
▁EN	-4568
▁Me	-4569
▁pek	-4570
▁anda	-4571
▁ingå	-4572
▁uppe	-4573
▁tagar	-4574
▁verkn	-4575
▁rp	-4576
▁ngd	-4577
▁gärn	-4578
▁ttsl	-4579
▁kland	-4580
▁cel	-4581
▁ldi	-4582
▁ynt	-4583
▁kert	-4584
▁list	-4585
▁försä	-4586
▁törst	-4587
▁AR	-4588
▁Te	-4589
▁nut	-4590
▁rap	-4591
▁sat	-4592
▁gdom	-4593
AC	-4594
▁fyr	-4595
▁ltar	-4596
▁nnit	-4597
▁tvis	-4598
▁ifier	-4599
▁We	-4600
▁evi	-4601
▁gni	-4602
▁mid	-4603
▁gatan	-4604
▁lskar	-4605
▁manne	-4606
▁Pu	-4607
▁ice	-4608
▁uck	-4609
▁llar	-4610
▁orti	-4611
▁rofe	-4612
▁tali	-4613
▁teor	-4614
▁pulär	-4615
De	-4616
pass	-4617
▁rto	-4618
▁uel	-4619
▁entu	-4620
▁ilen	-4621
▁isar	-4622
▁llde	-4623
▁luta	-4624
▁rali	-4625
▁npass	-4626
AD	-4627
▁ales	-4628
▁osit	-4629
▁tele	-4630
▁ikten	-4631
▁ktu	-4632
▁arker	-4633
▁Åh	-4634
▁inj	-4635
▁mpo	-4636
▁ärt	-4637
▁öga	-4638
▁elat	-4639
▁ören	-4640
▁adern	-4641
▁eu	-4642
▁eat	-4643
▁edi	-4644
▁beha	-4645
▁mnar	-4646
▁nade	-4647
▁rött	-4648
▁tona	-4649
▁Hi	-4650
▁aro	-4651
▁efo	-4652
▁ein	-4653
▁alli	-4654
▁rmen	-4655
▁xemp	-4656
▁ierar	-4657
▁ontra	-4658
▁lm	-4659
▁dja	-4660
▁ono	-4661
▁iner	-4662
▁laga	-4663
▁surs	-4664
▁unge	-4665
▁ytan	-4666
▁anger	-4667
▁venti	-4668
▁nia	-4669
▁opi	-4670
▁fara	-4671
▁grat	-4672
▁navi	-4673
▁usta	-4674
▁ligga	-4675
▁4.	-4676
▁imo	-4677
▁löd	-4678
▁nce	-4679
▁ura	-4680
▁äga	-4681
▁elli	-4682
▁enom	-4683
▁erry	-4684
▁plik	-4685
▁pråk	-4686
▁mling	-4687
▁→	-4688
▁agn	-4689
▁eli	-4690
▁gli	-4691
▁ony	-4692
▁röm	-4693
▁king	-4694
▁lägen	-4695
▁nders	-4696
▁titel	-4697
▁Gu	-4698
▁ao	-4699
▁nol	-4700
▁anan	-4701
▁tall	-4702
▁änka	-4703
▁On	-4704
fatt	-4705
▁avi	-4706
▁rgi	-4707
▁söt	-4708
▁nsam	-4709
▁drömm	-4710
▁mfatt	-4711
▁OS	-4712
▁åd	-4713
▁itar	-4714
▁ltur	-4715
▁reak	-4716
▁vakn	-4717
▁svärd	-4718
▁växte	-4719
AM	-4720
▁Ki	-4721
▁nnu	-4722
▁unk	-4723
▁konc	-4724
▁plin	-4725
▁åters	-4726
jal	-4727
▁lg	-4728
▁lka	-4729
▁rida	-4730
▁tunn	-4731
▁tvec	-4732
▁ament	-4733
IT	-4734
▁|	-4735
▁VD	-4736
▁ERR	-4737
▁Kor	-4738
▁Pri	-4739
▁lät	-4740
▁rle	-4741
▁Spel	-4742
▁meny	-4743
▁inist	-4744
zz	-4745
▁je	-4746
▁Reg	-4747
▁nisk	-4748
▁odde	-4749
▁ropp	-4750
▁Green	-4751
▁istor	-4752
▁ljare	-4753
▁tw	-4754
▁Lär	-4755
▁mmi	-4756
▁mår	-4757
▁ibel	-4758
▁lass	-4759
▁norr	-4760
▁orter	-4761
▁klad	-4762
▁torr	-4763
▁usik	-4764
▁anken	-4765
▁produ	-4766
▁dv	-4767
▁Mac	-4768
▁hil	-4769
▁ika	-4770
▁igar	-4771
▁ingr	-4772
▁bruka	-4773
▁rallt	-4774
▁By	-4775
▁bla	-4776
▁mpa	-4777
▁sty	-4778
▁nion	-4779
▁nsta	-4780
▁tati	-4781
▁anlig	-4782
▁darna	-4783
▁matis	-4784
▁partn	-4785
ink	-4786
▁3,	-4787
▁öra	-4788
▁tive	-4789
▁tull	-4790
▁tivet	-4791
▁Hä	-4792
▁cu	-4793
▁lien	-4794
▁raft	-4795
▁ttas	-4796
▁gator	-4797
OR	-4798
▁(2	-4799
▁ES	-4800
▁PS	-4801
▁dh	-4802
▁ids	-4803
▁vam	-4804
▁dram	-4805
▁låna	-4806
▁näst	-4807
▁tämm	-4808
▁vali	-4809
▁Volvo	-4810
▁anter	-4811
▁proce	-4812
hl	-4813
▁lp	-4814
▁don	-4815
▁jär	-4816
▁ders	-4817
▁fest	-4818
▁läck	-4819
▁ände	-4820
▁@	-4821
▁IV	-4822
▁kni	-4823
▁top	-4824
▁arri	-4825
▁hall	-4826
▁ntat	-4827
▁rins	-4828
▁ränd	-4829
▁urin	-4830
hu	-4831
▁Kar	-4832
▁kut	-4833
▁hota	-4834
▁kompe	-4835
▁popul	-4836
▁sning	-4837
▁tenar	-4838
▁tyder	-4839
▁gan	-4840
▁eläg	-4841
▁skön	-4842
▁stid	-4843
▁tate	-4844
▁förmå	-4845
▁dyr	-4846
▁evo	-4847
▁ubb	-4848
▁edic	-4849
▁ndre	-4850
▁ttra	-4851
▁still	-4852
▁vanor	-4853
AG	-4854
▁Au	-4855
▁Br	-4856
▁Red	-4857
▁hed	-4858
▁utb	-4859
▁juda	-4860
▁lick	-4861
▁rska	-4862
▁låten	-4863
▁75	-4864
▁nig	-4865
▁onu	-4866
▁Hall	-4867
▁evan	-4868
▁fors	-4869
▁grej	-4870
▁mand	-4871
▁rver	-4872
▁labor	-4873
▁́	-4874
▁CD	-4875
▁wo	-4876
▁mart	-4877
▁tern	-4878
▁mun	-4879
▁amla	-4880
▁ving	-4881
▁insti	-4882
▁rvera	-4883
ind	-4884
▁aken	-4885
▁give	-4886
▁isst	-4887
▁krat	-4888
▁mole	-4889
äld	-4890
▁Aw	-4891
▁mpi	-4892
▁nas	-4893
▁seg	-4894
▁vas	-4895
▁ntro	-4896
▁omen	-4897
▁vtal	-4898
▁lojal	-4899
▁tterl	-4900
▁Af	-4901
▁NA	-4902
▁nag	-4903
▁sil	-4904
▁usk	-4905
▁dras	-4906
▁erli	-4907
▁oner	-4908
▁rank	-4909
▁tora	-4910
▁tors	-4911
▁äder	-4912
▁inska	-4913
▁itets	-4914
PA	-4915
▁CB	-4916
▁400	-4917
▁esa	-4918
▁rne	-4919
▁ula	-4920
▁akna	-4921
CC	-4922
MS	-4923
ph	-4924
▁Wall	-4925
▁gräs	-4926
▁llvar	-4927
▁tåend	-4928
ab	-4929
▁Ru	-4930
▁lte	-4931
▁utf	-4932
▁mith	-4933
▁noll	-4934
▁rasi	-4935
▁rium	-4936
▁aning	-4937
▁bs	-4938
▁ffi	-4939
▁nyt	-4940
▁pin	-4941
▁ölj	-4942
▁erera	-4943
▁neral	-4944
▁32	-4945
▁Er	-4946
▁TM	-4947
▁egl	-4948
▁iot	-4949
▁vna	-4950
▁ista	-4951
▁mann	-4952
▁litte	-4953
age	-4954
▁onf	-4955
▁bliv	-4956
▁sajt	-4957
▁elade	-4958
▁prise	-4959
▁runda	-4960
▁niv	-4961
▁pto	-4962
▁arde	-4963
▁ddar	-4964
▁enis	-4965
▁förr	-4966
▁lter	-4967
▁mpor	-4968
▁nått	-4969
▁ätts	-4970
▁ERREN	-4971
TA	-4972
ris	-4973
▁Or	-4974
▁ola	-4975
▁ved	-4976
▁öro	-4977
▁anli	-4978
▁damm	-4979
▁iskt	-4980
▁sing	-4981
▁ssar	-4982
▁ander	-4983
▁III	-4984
▁Ung	-4985
▁abo	-4986
▁acc	-4987
▁add	-4988
▁gie	-4989
▁kvi	-4990
▁sit	-4991
▁medi	-4992
EC	-4993
▁Ben	-4994
▁Max	-4995
▁Ver	-4996
▁lea	-4997
▁onn	-4998
▁atta	-4999
▁golf	-5000
▁olly	-5001
▁ärsk	-5002
▁150	-5003
▁rac	-5004
▁töv	-5005
▁slös	-5006
▁anska	-5007
▁mente	-5008
▁AS	-5009
▁Tur	-5010
▁hind	-5011
▁utgå	-5012
▁ät	-5013
▁Fil	-5014
▁Mil	-5015
▁emp	-5016
▁rse	-5017
▁öne	-5018
▁dant	-5019
▁Mr	-5020
▁Dig	-5021
▁Sha	-5022
▁Tro	-5023
▁por	-5024
▁ifik	-5025
▁tiva	-5026
▁älsk	-5027
▁arf	-5028
▁kämp	-5029
▁rust	-5030
▁juder	-5031
▁tions	-5032
▁ww	-5033
▁gga	-5034
▁ytt	-5035
▁Rock	-5036
▁gand	-5037
▁stin	-5038
CA	-5039
▁za	-5040
▁arr	-5041
▁bur	-5042
▁sån	-5043
▁ärg	-5044
▁elen	-5045
▁kärl	-5046
▁rgan	-5047
▁5.	-5048
▁adr	-5049
▁mbi	-5050
▁tma	-5051
▁öta	-5052
▁ehov	-5053
▁erie	-5054
▁inse	-5055
▁kunn	-5056
▁nken	-5057
▁vins	-5058
▁attar	-5059
▁estäm	-5060
▁håret	-5061
▁ollen	-5062
).	-5063
DA	-5064
th	-5065
▁Bli	-5066
▁ISO	-5067
▁gno	-5068
▁atin	-5069
▁ikti	-5070
▁orma	-5071
▁rati	-5072
▁rber	-5073
▁vard	-5074
▁ären	-5075
▁ektor	-5076
▁garna	-5077
no	-5078
ale	-5079
▁Kr	-5080
▁dw	-5081
▁abs	-5082
▁nel	-5083
▁ckså	-5084
▁emin	-5085
▁ungl	-5086
▁turer	-5087
KA	-5088
▁Del	-5089
▁abe	-5090
▁sio	-5091
▁Leag	-5092
▁ekni	-5093
▁ngsl	-5094
▁sför	-5095
▁laget	-5096
▁mater	-5097
▁väska	-5098
▁33	-5099
▁Hej	-5100
▁aku	-5101
▁cis	-5102
▁eso	-5103
▁övr	-5104
▁mman	-5105
▁turi	-5106
▁uler	-5107
ama	-5108
▁ldr	-5109
▁rev	-5110
▁ekan	-5111
▁jort	-5112
▁orts	-5113
▁pand	-5114
▁titt	-5115
▁karen	-5116
▁ntera	-5117
ato	-5118
▁AT	-5119
▁ST	-5120
▁aci	-5121
▁ego	-5122
▁esi	-5123
▁ino	-5124
▁ppo	-5125
▁ruk	-5126
▁mans	-5127
▁sort	-5128
▁time	-5129
▁ulti	-5130
▁inneb	-5131
▁skade	-5132
▁telle	-5133
IV	-5134
ji	-5135
▁ign	-5136
▁teg	-5137
▁www	-5138
▁nere	-5139
▁trum	-5140
▁örsä	-5141
▁terad	-5142
ON	-5143
▁AD	-5144
▁vice	-5145
▁yper	-5146
▁redni	-5147
▁AP	-5148
▁Ka	-5149
▁UN	-5150
▁ks	-5151
▁ble	-5152
▁lub	-5153
▁oda	-5154
▁ommu	-5155
▁onte	-5156
▁pend	-5157
▁rade	-5158
▁vägg	-5159
▁tiger	-5160
▁väldi	-5161
EA	-5162
▁Cy	-5163
▁HD	-5164
▁Ph	-5165
▁aus	-5166
▁elg	-5167
▁ndni	-5168
▁obil	-5169
▁erats	-5170
▁inneh	-5171
▁kande	-5172
▁ndska	-5173
▁Lö	-5174
▁Ti	-5175
▁alv	-5176
▁ndå	-5177
▁ager	-5178
▁ball	-5179
▁glig	-5180
▁papp	-5181
▁dukti	-5182
▁latio	-5183
OM	-5184
▁Va	-5185
▁agg	-5186
▁ibi	-5187
▁löt	-5188
▁rah	-5189
▁sli	-5190
▁esul	-5191
▁tone	-5192
▁ndrar	-5193
▁ulära	-5194
▁€	-5195
▁;)	-5196
▁Fo	-5197
▁odi	-5198
▁pna	-5199
▁tap	-5200
▁glöm	-5201
▁orru	-5202
▁vamp	-5203
▁öras	-5204
▁artie	-5205
▁ntals	-5206
▁§	-5207
▁kg	-5208
▁dur	-5209
▁ols	-5210
▁oper	-5211
▁pper	-5212
▁esten	-5213
▁rligt	-5214
▁·	-5215
▁AC	-5216
▁Tj	-5217
▁lyck	-5218
▁nit	-5219
▁ntu	-5220
▁rds	-5221
▁Vart	-5222
▁ggen	-5223
▁sexu	-5224
▁medie	-5225
▁terin	-5226
IM	-5227
sh	-5228
▁Fl	-5229
▁Bur	-5230
▁Car	-5231
▁ape	-5232
▁ave	-5233
▁rio	-5234
▁anor	-5235
▁leka	-5236
▁mind	-5237
▁mpan	-5238
▁nitt	-5239
▁rörd	-5240
▁eni	-5241
▁gåv	-5242
▁isc	-5243
▁ugn	-5244
▁öst	-5245
▁pela	-5246
▁isken	-5247
▁orier	-5248
IA	-5249
RA	-5250
▁bö	-5251
▁vl	-5252
hite	-5253
▁Cro	-5254
▁juk	-5255
▁lyd	-5256
▁idor	-5257
▁ific	-5258
▁låda	-5259
▁mant	-5260
▁torn	-5261
▁stade	-5262
▁tråki	-5263
▁ii	-5264
▁ye	-5265
▁abb	-5266
▁dds	-5267
▁ips	-5268
▁ofi	-5269
▁you	-5270
▁andr	-5271
▁nnis	-5272
▁olis	-5273
▁öräld	-5274
▁Cu	-5275
▁[-	-5276
▁ECB	-5277
▁USD	-5278
▁ggs	-5279
▁ikta	-5280
▁lagg	-5281
▁räng	-5282
▁Per	-5283
▁[-]	-5284
▁dan	-5285
▁imm	-5286
▁ior	-5287
▁knä	-5288
▁lda	-5289
▁pis	-5290
▁röt	-5291
▁Jesu	-5292
▁gast	-5293
▁ljan	-5294
▁omna	-5295
▁lagga	-5296
▁lärar	-5297
▁nolog	-5298
ami	-5299
▁Spe	-5300
▁fon	-5301
▁aret	-5302
▁diri	-5303
▁iden	-5304
▁riti	-5305
▁pande	-5306
▁änlig	-5307
▁but	-5308
▁låd	-5309
▁vir	-5310
▁äte	-5311
▁Matt	-5312
▁erfe	-5313
▁herr	-5314
▁insp	-5315
▁kydd	-5316
▁pote	-5317
▁delad	-5318
▁ntion	-5319
▁34	-5320
▁Ap	-5321
▁Art	-5322
▁USB	-5323
▁afe	-5324
▁omf	-5325
▁alle	-5326
▁bili	-5327
▁fråg	-5328
▁kern	-5329
▁rupp	-5330
▁skyld	-5331
IC	-5332
NA	-5333
▁65	-5334
▁Väl	-5335
▁pos	-5336
▁asti	-5337
▁rafi	-5338
▁rtal	-5339
▁rings	-5340
▁←	-5341
▁ån	-5342
▁gde	-5343
▁isn	-5344
▁osa	-5345
▁rem	-5346
▁sha	-5347
▁tla	-5348
▁ktar	-5349
▁lämp	-5350
▁malt	-5351
▁pans	-5352
▁radi	-5353
▁sekt	-5354
BC	-5355
aga	-5356
▁Big	-5357
▁rts	-5358
▁yre	-5359
▁INTE	-5360
▁gita	-5361
▁leri	-5362
▁ålde	-5363
▁åtar	-5364
▁Tv	-5365
▁600	-5366
▁Los	-5367
▁ada	-5368
▁con	-5369
▁ica	-5370
▁lva	-5371
▁uld	-5372
▁uma	-5373
▁anen	-5374
▁ensa	-5375
▁krik	-5376
▁napp	-5377
▁näll	-5378
▁tale	-5379
▁trik	-5380
▁arier	-5381
▁rafik	-5382
▁risti	-5383
▁ånger	-5384
▁4,	-5385
▁Of	-5386
▁ngr	-5387
▁iljö	-5388
▁marg	-5389
▁älla	-5390
▁splan	-5391
ba	-5392
▁0,	-5393
▁PR	-5394
▁VP	-5395
▁Ali	-5396
▁hems	-5397
▁oken	-5398
▁ppna	-5399
▁skon	-5400
▁smed	-5401
▁tött	-5402
▁ektro	-5403
▁ramgå	-5404
yl	-5405
▁42	-5406
▁IC	-5407
▁Bet	-5408
▁One	-5409
▁Sök	-5410
▁atr	-5411
▁cas	-5412
▁iOS	-5413
▁ked	-5414
▁nak	-5415
▁rip	-5416
▁rma	-5417
▁tec	-5418
▁Mari	-5419
▁appo	-5420
▁dade	-5421
▁edag	-5422
▁sökn	-5423
▁trag	-5424
▁änta	-5425
▁örde	-5426
▁allat	-5427
IG	-5428
▁^	-5429
▁AL	-5430
▁IK	-5431
▁oa	-5432
▁én	-5433
▁Sho	-5434
▁eto	-5435
▁gor	-5436
▁ivi	-5437
▁jön	-5438
▁lac	-5439
▁tni	-5440
▁andl	-5441
▁seri	-5442
▁velat	-5443
▁Pal	-5444
▁kin	-5445
▁nsu	-5446
▁lämn	-5447
▁triv	-5448
▁yckl	-5449
▁ämna	-5450
▁ärmed	-5451
på	-5452
▁IF	-5453
▁Hem	-5454
▁hyr	-5455
▁mix	-5456
▁nkt	-5457
▁sso	-5458
▁erlä	-5459
▁eten	-5460
▁evel	-5461
▁arina	-5462
▁arnas	-5463
▁gråta	-5464
ax	-5465
▁Cl	-5466
▁ags	-5467
▁ode	-5468
▁svä	-5469
▁iter	-5470
▁otor	-5471
▁herra	-5472
▁stitu	-5473
▁vande	-5474
▁vilda	-5475
TS	-5476
▁¤	-5477
▁uc	-5478
▁Don	-5479
▁edo	-5480
▁isi	-5481
▁rmo	-5482
▁fran	-5483
▁info	-5484
▁meri	-5485
▁ront	-5486
▁lette	-5487
▁magne	-5488
DP	-5489
EL	-5490
UD	-5491
▁Shi	-5492
▁edb	-5493
▁sår	-5494
▁ölja	-5495
▁örra	-5496
▁Saint	-5497
▁isten	-5498
▁ressa	-5499
unk	-5500
▁Az	-5501
▁HP	-5502
▁Hö	-5503
▁Ke	-5504
▁aa	-5505
▁ze	-5506
▁ftig	-5507
▁ädda	-5508
▁ional	-5509
▁lyser	-5510
IF	-5511
▁48	-5512
▁AM	-5513
▁EM	-5514
▁cm	-5515
▁Hos	-5516
▁his	-5517
▁pet	-5518
▁sis	-5519
▁äro	-5520
▁atan	-5521
▁finn	-5522
▁mall	-5523
▁teri	-5524
▁uset	-5525
▁Brasi	-5526
▁iksom	-5527
▁oi	-5528
▁Köp	-5529
▁duk	-5530
▁les	-5531
▁rko	-5532
▁vib	-5533
▁ärn	-5534
▁arer	-5535
▁arte	-5536
▁trar	-5537
▁orten	-5538
▁parte	-5539
▁tiskt	-5540
▁turné	-5541
▁villa	-5542
ID	-5543
▁OK	-5544
▁Fre	-5545
▁elä	-5546
▁nart	-5547
▁rell	-5548
▁tart	-5549
▁vern	-5550
▁behör	-5551
▁drink	-5552
sse	-5553
▁55	-5554
▁Bru	-5555
▁föd	-5556
▁gif	-5557
▁jur	-5558
▁lir	-5559
▁töd	-5560
▁usa	-5561
▁lace	-5562
▁pter	-5563
▁rmar	-5564
▁nktio	-5565
▁uppmä	-5566
wa	-5567
▁2:	-5568
▁AN	-5569
▁OR	-5570
▁(1)	-5571
▁250	-5572
▁drä	-5573
▁glu	-5574
▁kum	-5575
▁lug	-5576
▁mit	-5577
▁ante	-5578
▁itiv	-5579
▁tero	-5580
▁prest	-5581
▁rader	-5582
▁ummer	-5583
yo	-5584
▁VM	-5585
▁Air	-5586
▁Cla	-5587
▁Dag	-5588
▁Går	-5589
▁rlo	-5590
▁gruv	-5591
▁talt	-5592
▁ttar	-5593
▁ldrig	-5594
▁stera	-5595
ÖR	-5596
▁1)	-5597
▁1:	-5598
▁hej	-5599
▁ole	-5600
▁khet	-5601
▁remo	-5602
▁ssan	-5603
▁tabl	-5604
ek	-5605
▁Cli	-5606
▁Mag	-5607
▁skå	-5608
▁tät	-5609
▁ösa	-5610
▁emen	-5611
▁epar	-5612
▁este	-5613
▁ktet	-5614
▁rian	-5615
▁tung	-5616
▁atsen	-5617
▁exper	-5618
▁kultu	-5619
▁unger	-5620
TC	-5621
US	-5622
xa	-5623
▁CS	-5624
▁äv	-5625
▁Cra	-5626
▁dru	-5627
▁dika	-5628
▁enna	-5629
▁tomt	-5630
▁yrke	-5631
▁White	-5632
▁ången	-5633
Är	-5634
rit	-5635
▁CN	-5636
▁Fe	-5637
▁fj	-5638
▁een	-5639
▁eff	-5640
▁sär	-5641
▁aran	-5642
▁lakt	-5643
▁änns	-5644
▁chatt	-5645
▁entre	-5646
▁niver	-5647
fé	-5648
▁39	-5649
▁App	-5650
▁jon	-5651
▁lip	-5652
▁roj	-5653
▁til	-5654
▁Stat	-5655
▁främ	-5656
▁gden	-5657
▁inan	-5658
▁side	-5659
▁netto	-5660
hy	-5661
▁DV	-5662
▁ALL	-5663
▁VPN	-5664
▁ako	-5665
▁agan	-5666
▁ivare	-5667
▁posit	-5668
▁raser	-5669
ly	-5670
▁37	-5671
▁CBD	-5672
▁mla	-5673
▁nju	-5674
▁pit	-5675
▁pub	-5676
▁anke	-5677
▁börj	-5678
▁gade	-5679
▁nist	-5680
▁okal	-5681
▁ortf	-5682
▁rita	-5683
▁taxi	-5684
▁vagn	-5685
▁vana	-5686
▁vine	-5687
▁ljard	-5688
▁vriga	-5689
eo	-5690
nn	-5691
bild	-5692
▁gin	-5693
▁ense	-5694
▁gråt	-5695
▁rfar	-5696
▁erans	-5697
▁tbild	-5698
▁..	-5699
▁7.	-5700
▁Gr	-5701
▁vy	-5702
▁Bor	-5703
▁Sex	-5704
▁apa	-5705
▁aur	-5706
▁bba	-5707
▁lok	-5708
▁mne	-5709
▁endo	-5710
▁ngde	-5711
▁ulle	-5712
▁ycka	-5713
▁valda	-5714
▁vågar	-5715
BS	-5716
oni	-5717
▁38	-5718
▁99	-5719
▁öt	-5720
▁Nej	-5721
▁ipp	-5722
▁nvi	-5723
▁sme	-5724
▁syr	-5725
▁ibla	-5726
▁mens	-5727
▁sisk	-5728
▁tork	-5729
▁unna	-5730
▁öppn	-5731
▁liter	-5732
EK	-5733
II	-5734
▁ht	-5735
▁xa	-5736
▁ava	-5737
▁läd	-5738
▁nty	-5739
▁yll	-5740
▁ärb	-5741
▁ärv	-5742
▁able	-5743
▁deri	-5744
▁frik	-5745
▁nazi	-5746
▁pital	-5747
OL	-5748
▁Ã	-5749
▁(3	-5750
▁Mö	-5751
▁PD	-5752
▁Xb	-5753
▁oh	-5754
▁äk	-5755
▁dej	-5756
▁nre	-5757
▁rmi	-5758
▁ruv	-5759
▁web	-5760
▁book	-5761
▁demi	-5762
▁derb	-5763
▁nano	-5764
▁orde	-5765
▁rgen	-5766
▁tade	-5767
▁tage	-5768
▁väng	-5769
▁ådet	-5770
▁örse	-5771
▁atorn	-5772
▁indra	-5773
▁läkar	-5774
AP	-5775
EM	-5776
ata	-5777
▁BM	-5778
▁SP	-5779
▁nb	-5780
▁zi	-5781
▁elb	-5782
▁hip	-5783
▁kur	-5784
▁ovi	-5785
▁rie	-5786
▁idan	-5787
▁kilj	-5788
▁kåda	-5789
▁lest	-5790
▁lund	-5791
▁njur	-5792
▁rate	-5793
▁tube	-5794
▁vrid	-5795
▁cklar	-5796
▁eland	-5797
▁herre	-5798
▁klipp	-5799
▁trejk	-5800
▁yssna	-5801
▁°	-5802
▁Gi	-5803
▁IM	-5804
▁MP	-5805
▁vt	-5806
▁äx	-5807
▁ekv	-5808
▁erf	-5809
▁reb	-5810
▁rol	-5811
▁ödd	-5812
▁edde	-5813
▁enny	-5814
▁ntas	-5815
▁tong	-5816
▁torg	-5817
▁unkt	-5818
▁yggd	-5819
▁kerna	-5820
▁lland	-5821
▁ustri	-5822
pi	-5823
xy	-5824
ral	-5825
▁5,	-5826
▁Oc	-5827
▁Wa	-5828
▁Ven	-5829
▁eer	-5830
▁fak	-5831
▁gig	-5832
▁nöt	-5833
▁rro	-5834
▁sve	-5835
▁onta	-5836
▁rbju	-5837
▁rman	-5838
▁rosa	-5839
▁tier	-5840
▁tort	-5841
▁ägen	-5842
▁asser	-5843
▁indre	-5844
▁onomi	-5845
▁rulla	-5846
▁uktio	-5847
▁SD	-5848
▁120	-5849
▁Fem	-5850
▁dve	-5851
▁now	-5852
▁enen	-5853
▁ivna	-5854
▁rint	-5855
▁tman	-5856
▁örda	-5857
▁iklar	-5858
▁ktivt	-5859
▁tuell	-5860
▁ärare	-5861
ze	-5862
ame	-5863
▁2)	-5864
▁6.	-5865
▁Cru	-5866
▁Day	-5867
▁itl	-5868
▁nin	-5869
▁täv	-5870
▁dyrt	-5871
▁geri	-5872
▁iati	-5873
▁nkla	-5874
▁riga	-5875
▁rost	-5876
▁yhet	-5877
▁bilit	-5878
▁lades	-5879
▁tårar	-5880
▁iö	-5881
▁Åt	-5882
▁Vis	-5883
▁eak	-5884
▁eha	-5885
▁obi	-5886
▁slo	-5887
▁ands	-5888
▁ette	-5889
▁gara	-5890
▁geni	-5891
▁hata	-5892
▁idar	-5893
▁okus	-5894
▁grann	-5895
▁hedra	-5896
▁later	-5897
▁lyckl	-5898
▁oppar	-5899
▁mf	-5900
▁800	-5901
▁Bil	-5902
▁day	-5903
▁nik	-5904
▁elef	-5905
▁road	-5906
▁tatu	-5907
BI	-5908
oo	-5909
▁3:	-5910
▁Hus	-5911
▁byn	-5912
▁esl	-5913
▁fal	-5914
▁Vara	-5915
▁eria	-5916
▁logo	-5917
▁rabb	-5918
▁rdin	-5919
▁Unive	-5920
▁amnet	-5921
▁avgör	-5922
▁baser	-5923
CH	-5924
▁95	-5925
▁NS	-5926
▁ys	-5927
▁Inn	-5928
▁Son	-5929
▁ssn	-5930
▁arke	-5931
▁gall	-5932
▁grep	-5933
▁icer	-5934
▁ntan	-5935
▁orre	-5936
▁unni	-5937
▁ativt	-5938
▁bjuda	-5939
▁ngent	-5940
▁8.	-5941
▁IR	-5942
▁TH	-5943
▁Las	-5944
▁alj	-5945
▁cia	-5946
▁nap	-5947
▁täl	-5948
▁ynn	-5949
▁amil	-5950
▁enet	-5951
▁kisk	-5952
▁mage	-5953
▁nnov	-5954
▁oten	-5955
▁ramar	-5956
▁Sö	-5957
▁ÄR	-5958
▁öf	-5959
▁Lag	-5960
▁dol	-5961
▁oke	-5962
▁Erik	-5963
▁gräv	-5964
▁llmä	-5965
▁maxi	-5966
▁sena	-5967
▁tori	-5968
▁unde	-5969
▁utsi	-5970
▁lämpa	-5971
▁ratis	-5972
▁toria	-5973
TP	-5974
▁RO	-5975
▁Sq	-5976
▁cC	-5977
ligt	-5978
▁bul	-5979
▁emb	-5980
▁lta	-5981
▁rno	-5982
▁roi	-5983
▁snö	-5984
▁sst	-5985
▁töt	-5986
▁vul	-5987
▁öke	-5988
▁gori	-5989
▁ilda	-5990
▁imen	-5991
▁karp	-5992
▁kräp	-5993
▁mmet	-5994
▁ttis	-5995
▁vidd	-5996
▁terat	-5997
ena	-5998
▁Ce	-5999
▁GB	-6000
▁Ol	-6001
▁Vo	-6002
▁Com	-6003
▁FÖR	-6004
▁ety	-6005
▁fen	-6006
▁opt	-6007
▁osi	-6008
▁åna	-6009
▁erra	-6010
▁imer	-6011
▁trak	-6012
▁ukti	-6013
▁urer	-6014
▁range	-6015
▁cr	-6016
▁GDP	-6017
▁rki	-6018
▁äge	-6019
▁digt	-6020
▁elev	-6021
▁kras	-6022
▁lank	-6023
▁mätt	-6024
▁offe	-6025
▁orat	-6026
▁with	-6027
▁akter	-6028
▁mycke	-6029
▁ntrol	-6030
▁rekti	-6031
▁torer	-6032
ui	-6033
▁43	-6034
▁OM	-6035
▁DVD	-6036
▁kju	-6037
▁GDPR	-6038
▁cock	-6039
▁llan	-6040
▁mråd	-6041
▁ntor	-6042
▁oppa	-6043
▁rull	-6044
NP	-6045
▁85	-6046
▁MA	-6047
▁abl	-6048
▁bbl	-6049
▁dmi	-6050
▁ful	-6051
▁gle	-6052
▁iso	-6053
▁jor	-6054
▁näs	-6055
▁smo	-6056
▁yan	-6057
▁onse	-6058
▁rive	-6059
▁lände	-6060
▁magen	-6061
sko	-6062
▁vb	-6063
▁700	-6064
▁Dra	-6065
▁blä	-6066
▁lio	-6067
▁mad	-6068
▁ype	-6069
▁amar	-6070
▁lden	-6071
▁ntet	-6072
▁ntre	-6073
▁oman	-6074
▁omet	-6075
▁raka	-6076
▁rsak	-6077
▁råge	-6078
▁stal	-6079
▁tivi	-6080
▁tjän	-6081
▁ierna	-6082
gga	-6083
▁AF	-6084
▁Dy	-6085
▁Män	-6086
▁Wil	-6087
▁die	-6088
▁dop	-6089
▁klu	-6090
▁rlä	-6091
▁rog	-6092
▁tré	-6093
▁uda	-6094
▁ckte	-6095
▁iset	-6096
▁kono	-6097
▁käll	-6098
▁nker	-6099
▁olle	-6100
▁sdag	-6101
▁usen	-6102
▁ämst	-6103
▁armor	-6104
▁gifte	-6105
▁sions	-6106
▁struk	-6107
▁41	-6108
▁IG	-6109
▁Bay	-6110
▁EES	-6111
▁Ger	-6112
▁May	-6113
▁mhä	-6114
▁sed	-6115
▁siv	-6116
▁ård	-6117
▁ömd	-6118
▁juri	-6119
▁lsen	-6120
▁mink	-6121
▁onve	-6122
▁rkar	-6123
▁rarna	-6124
▁satio	-6125
HO	-6126
IP	-6127
ex	-6128
▁Ul	-6129
▁NAS	-6130
▁enry	-6131
▁leve	-6132
▁lukt	-6133
▁more	-6134
▁reta	-6135
▁sonen	-6136
▁styre	-6137
▁tteri	-6138
-)	-6139
ep	-6140
op	-6141
▁£	-6142
▁Cre	-6143
▁Lab	-6144
▁SEK	-6145
▁Säg	-6146
▁asi	-6147
▁nth	-6148
▁ntr	-6149
▁erks	-6150
▁etro	-6151
▁tike	-6152
▁tock	-6153
▁varg	-6154
▁agage	-6155
▁alite	-6156
▁amero	-6157
▁dräkt	-6158
▁tenen	-6159
▁trapp	-6160
zo	-6161
che	-6162
▁(5	-6163
▁51	-6164
▁FA	-6165
▁LED	-6166
▁ule	-6167
▁ärr	-6168
▁anik	-6169
▁atri	-6170
▁ensen	-6171
▁table	-6172
zy	-6173
▁‐	-6174
▁DC	-6175
▁Rö	-6176
▁db	-6177
▁kök	-6178
▁ndu	-6179
▁vol	-6180
▁häls	-6181
▁rata	-6182
▁egler	-6183
▁galax	-6184
▁grade	-6185
▁istri	-6186
▁nsera	-6187
▁ormal	-6188
▁ranch	-6189
▁skilt	-6190
▁slava	-6191
▁trick	-6192
▁Ly	-6193
▁Wh	-6194
▁MBA	-6195
▁SEO	-6196
▁Tar	-6197
▁alo	-6198
▁enb	-6199
▁eno	-6200
▁kab	-6201
▁nek	-6202
▁rce	-6203
▁rex	-6204
▁spr	-6205
▁öjl	-6206
▁ört	-6207
▁Will	-6208
▁adda	-6209
▁kata	-6210
▁nnie	-6211
▁rall	-6212
▁slor	-6213
▁pisod	-6214
▁turen	-6215
▁ärnan	-6216
uch	-6217
▁RA	-6218
▁SK	-6219
▁bbe	-6220
▁egå	-6221
▁jus	-6222
▁nlä	-6223
▁tlä	-6224
▁umm	-6225
▁yrk	-6226
▁yte	-6227
▁Marx	-6228
▁ifte	-6229
▁ivit	-6230
▁strö	-6231
▁förvä	-6232
▁nskar	-6233
by	-6234
sy	-6235
▁(4	-6236
▁CE	-6237
▁CF	-6238
▁DU	-6239
▁GM	-6240
▁UK	-6241
▁nål	-6242
▁nön	-6243
▁oki	-6244
▁spä	-6245
▁yli	-6246
▁ated	-6247
▁nesi	-6248
▁rede	-6249
▁rele	-6250
▁kamer	-6251
▁kanal	-6252
▁marin	-6253
▁strat	-6254
▁veder	-6255
xo	-6256
min	-6257
ppa	-6258
▁46	-6259
▁=)	-6260
▁Kl	-6261
▁LE	-6262
▁MT	-6263
▁ON	-6264
▁Ya	-6265
▁hn	-6266
▁Mig	-6267
▁Mot	-6268
▁axi	-6269
▁bön	-6270
▁grö	-6271
▁oku	-6272
▁rty	-6273
▁abba	-6274
▁asen	-6275
▁fini	-6276
▁grov	-6277
▁rusa	-6278
▁ttan	-6279
▁grill	-6280
▁kapar	-6281
▁strer	-6282
▁änkte	-6283
LC	-6284
fta	-6285
omo	-6286
▁--	-6287
▁SA	-6288
▁dn	-6289
▁yo	-6290
▁Än	-6291
▁Kul	-6292
▁llä	-6293
▁pad	-6294
▁vat	-6295
▁ävl	-6296
▁dens	-6297
▁fång	-6298
▁kels	-6299
▁låne	-6300
▁pert	-6301
▁rkan	-6302
▁skin	-6303
▁ägge	-6304
▁entor	-6305
▁onera	-6306
jo	-6307
wi	-6308
ÄR	-6309
vel	-6310
▁%.	-6311
▁ET	-6312
▁HT	-6313
▁It	-6314
▁NY	-6315
▁dl	-6316
▁1,5	-6317
▁Bla	-6318
▁Vir	-6319
▁esk	-6320
▁mum	-6321
▁Netw	-6322
▁aven	-6323
▁iven	-6324
▁mhet	-6325
▁römm	-6326
▁vidg	-6327
▁väll	-6328
▁yrka	-6329
▁gigan	-6330
▁kapit	-6331
▁rexit	-6332
cy	-6333
ren	-6334
änn	-6335
▁1-	-6336
▁AV	-6337
▁DS	-6338
▁PM	-6339
▁SM	-6340
▁UR	-6341
▁Up	-6342
▁py	-6343
▁Cho	-6344
▁PDF	-6345
▁any	-6346
▁dko	-6347
▁rdo	-6348
▁sas	-6349
▁åne	-6350
▁öar	-6351
▁Saab	-6352
▁ndlä	-6353
▁puls	-6354
▁raff	-6355
▁rasa	-6356
▁udet	-6357
▁vall	-6358
▁Roger	-6359
▁hotar	-6360
▁kript	-6361
▁trikt	-6362
▁änder	-6363
▁CC	-6364
▁Nå	-6365
▁gm	-6366
▁BNP	-6367
▁Ned	-6368
▁iam	-6369
▁oms	-6370
▁ädd	-6371
▁äls	-6372
▁Cent	-6373
▁Comm	-6374
▁Road	-6375
▁alta	-6376
▁aror	-6377
▁erbj	-6378
▁holm	-6379
▁infö	-6380
▁mari	-6381
▁ekter	-6382
▁ktiva	-6383
▁serve	-6384
▁teran	-6385
▁änker	-6386
EF	-6387
oth	-6388
res	-6389
▁44	-6390
▁64	-6391
▁Mä	-6392
▁Za	-6393
▁dk	-6394
▁kog	-6395
▁koj	-6396
▁mpl	-6397
▁ope	-6398
▁rfa	-6399
▁uft	-6400
▁anin	-6401
▁elni	-6402
▁isio	-6403
▁lari	-6404
▁nsin	-6405
▁orsa	-6406
▁reni	-6407
▁attas	-6408
▁iesel	-6409
▁lampa	-6410
HL	-6411
pas	-6412
▁6,	-6413
▁Kim	-6414
▁dök	-6415
▁ese	-6416
▁kne	-6417
▁lis	-6418
▁vek	-6419
▁itan	-6420
▁lder	-6421
▁slav	-6422
▁tram	-6423
▁täng	-6424
▁ålig	-6425
▁ållb	-6426
▁ycker	-6427
DS	-6428
▁̈	-6429
ten	-6430
▁<3	-6431
▁CV	-6432
▁50%	-6433
▁Alz	-6434
▁Bir	-6435
▁GUD	-6436
▁Law	-6437
▁aly	-6438
▁läk	-6439
▁mgå	-6440
▁sif	-6441
▁tie	-6442
▁agar	-6443
▁amhä	-6444
▁drev	-6445
▁ekla	-6446
▁erce	-6447
▁förä	-6448
▁hava	-6449
▁ktis	-6450
▁kvot	-6451
▁läpp	-6452
▁oden	-6453
▁slan	-6454
▁tält	-6455
▁vält	-6456
▁anpas	-6457
▁katio	-6458
▁nglig	-6459
▁state	-6460
PP	-6461
cu	-6462
▁	-6463
adi	-6464
pru	-6465
ras	-6466
▁9.	-6467
▁>>	-6468
▁AA	-6469
▁EL	-6470
▁BBC	-6471
▁Bel	-6472
▁GPS	-6473
▁HIV	-6474
▁ckt	-6475
▁dla	-6476
▁igg	-6477
▁ivs	-6478
▁lie	-6479
▁tha	-6480
▁Gall	-6481
▁kull	-6482
▁loka	-6483
▁mala	-6484
▁sinn	-6485
▁vett	-6486
▁drack	-6487
▁ogisk	-6488
▁okala	-6489
▁otera	-6490
▁rspru	-6491
▁trivs	-6492
▁8,	-6493
▁CR	-6494
▁dvi	-6495
▁iär	-6496
▁lst	-6497
▁nås	-6498
▁sle	-6499
▁lagd	-6500
▁nali	-6501
▁nnes	-6502
▁ouis	-6503
▁främj	-6504
▁försv	-6505
▁mmare	-6506
▁spänn	-6507
▁tatis	-6508
DE	-6509
▁Ve	-6510
▁Zi	-6511
▁Dro	-6512
▁Kör	-6513
▁Pet	-6514
▁Sig	-6515
▁Top	-6516
▁dvs	-6517
▁eda	-6518
▁oma	-6519
▁rey	-6520
▁rös	-6521
▁Well	-6522
▁fter	-6523
▁odel	-6524
▁spri	-6525
▁trös	-6526
▁ttet	-6527
▁värn	-6528
▁dumma	-6529
▁essan	-6530
▁gerad	-6531
▁ndrea	-6532
▁tragi	-6533
irl	-6534
▁72	-6535
▁Ci	-6536
▁tl	-6537
▁Nig	-6538
▁ams	-6539
▁neg	-6540
▁nos	-6541
▁omg	-6542
▁rbu	-6543
▁bile	-6544
▁cial	-6545
▁egrä	-6546
▁livi	-6547
▁närm	-6548
▁trus	-6549
▁ängd	-6550
▁artan	-6551
▁hette	-6552
▁lyder	-6553
▁sstat	-6554
▁tunna	-6555
do	-6556
oma	-6557
▁47	-6558
▁52	-6559
▁RS	-6560
▁aps	-6561
▁irk	-6562
▁lap	-6563
▁rav	-6564
▁ösn	-6565
▁Line	-6566
▁bbar	-6567
▁edig	-6568
▁nnas	-6569
▁onto	-6570
▁sido	-6571
▁tare	-6572
▁trig	-6573
▁ändn	-6574
▁ärde	-6575
▁alaxy	-6576
▁atern	-6577
▁lådor	-6578
▁marna	-6579
▁nedre	-6580
rat	-6581
▁66	-6582
▁LA	-6583
▁Pl	-6584
▁UV	-6585
▁dé	-6586
▁rc	-6587
▁Små	-6588
▁brå	-6589
▁exu	-6590
▁kåp	-6591
▁nfö	-6592
▁rif	-6593
▁sad	-6594
▁tai	-6595
▁alay	-6596
▁bjek	-6597
▁isen	-6598
▁iten	-6599
▁ivan	-6600
▁lang	-6601
▁love	-6602
▁låsa	-6603
▁rann	-6604
▁rutt	-6605
▁ytte	-6606
▁påver	-6607
ING	-6608
ins	-6609
ssn	-6610
tti	-6611
▁uf	-6612
▁Lee	-6613
▁Par	-6614
▁Pat	-6615
▁dim	-6616
▁epa	-6617
▁spå	-6618
▁Show	-6619
▁abil	-6620
▁bola	-6621
▁egat	-6622
▁etod	-6623
▁illu	-6624
▁ktie	-6625
▁late	-6626
▁riva	-6627
▁tuga	-6628
▁unda	-6629
▁erika	-6630
▁ndern	-6631
▁niska	-6632
▁tereo	-6633
▁ussin	-6634
FC	-6635
ML	-6636
▁CP	-6637
▁NO	-6638
▁ae	-6639
▁uv	-6640
▁(2)	-6641
▁Bob	-6642
▁Cry	-6643
▁ING	-6644
▁ady	-6645
▁rja	-6646
▁ärl	-6647
▁arne	-6648
▁atet	-6649
▁atte	-6650
▁eart	-6651
▁enge	-6652
▁loss	-6653
▁otta	-6654
▁pern	-6655
▁rige	-6656
▁tätt	-6657
▁ånga	-6658
▁Virgi	-6659
▁llene	-6660
▁ntlig	-6661
▁orien	-6662
▁{	-6663
▁›	-6664
▁7,	-6665
▁HR	-6666
▁VR	-6667
▁hr	-6668
▁xp	-6669
▁atu	-6670
▁bon	-6671
▁fle	-6672
▁ido	-6673
▁mba	-6674
▁ple	-6675
▁sbe	-6676
▁toc	-6677
▁Call	-6678
▁Land	-6679
▁Vare	-6680
▁agra	-6681
▁alit	-6682
▁eman	-6683
▁glid	-6684
▁hare	-6685
▁inge	-6686
▁issi	-6687
▁ldre	-6688
▁uren	-6689
▁äste	-6690
▁dagli	-6691
▁judan	-6692
▁matta	-6693
▁sande	-6694
▁serad	-6695
▁vilar	-6696
AL	-6697
▁~	-6698
ské	-6699
▁3)	-6700
▁Gl	-6701
▁js	-6702
▁DNA	-6703
▁Jon	-6704
▁Typ	-6705
▁amo	-6706
▁evä	-6707
▁mbo	-6708
▁rni	-6709
▁row	-6710
▁vec	-6711
▁akar	-6712
▁ally	-6713
▁arib	-6714
▁arin	-6715
▁funk	-6716
▁liti	-6717
▁niti	-6718
▁räns	-6719
▁uter	-6720
▁ämfö	-6721
▁pring	-6722
MA	-6723
Så	-6724
iv	-6725
chi	-6726
▁49	-6727
▁SV	-6728
▁xe	-6729
▁Dou	-6730
▁Gri	-6731
▁Hot	-6732
▁JAG	-6733
▁Van	-6734
▁bre	-6735
▁bus	-6736
▁ida	-6737
▁kas	-6738
▁uns	-6739
▁Förs	-6740
▁ding	-6741
▁inen	-6742
▁nurr	-6743
▁onsu	-6744
▁fören	-6745
▁hotet	-6746
▁inera	-6747
▁ktisk	-6748
▁naken	-6749
▁orisk	-6750
▁römma	-6751
▁tiker	-6752
▁track	-6753
▁ussel	-6754
▁♥	-6755
▁Må	-6756
▁180	-6757
▁Isa	-6758
▁Såg	-6759
▁ått	-6760
▁Girl	-6761
▁Tala	-6762
▁demy	-6763
▁inat	-6764
▁ndan	-6765
▁olik	-6766
▁riel	-6767
▁roli	-6768
▁öter	-6769
▁ingsp	-6770
▁marxi	-6771
▁rasen	-6772
NS	-6773
of	-6774
▁2-	-6775
▁kk	-6776
▁Sun	-6777
▁Tow	-6778
▁eed	-6779
▁hor	-6780
▁onc	-6781
▁rib	-6782
▁öjd	-6783
▁Nato	-6784
▁bråd	-6785
▁egio	-6786
▁elet	-6787
▁enin	-6788
▁etar	-6789
▁föro	-6790
▁gate	-6791
▁iljo	-6792
▁lare	-6793
▁lice	-6794
▁rsen	-6795
▁sper	-6796
▁tmin	-6797
▁täkt	-6798
▁utik	-6799
▁rustn	-6800
▁trupp	-6801
vs	-6802
▁tf	-6803
▁Cas	-6804
▁Gal	-6805
▁Hör	-6806
▁air	-6807
▁ila	-6808
▁kår	-6809
▁nns	-6810
▁raf	-6811
▁uka	-6812
▁akor	-6813
▁edit	-6814
▁espe	-6815
▁kede	-6816
▁mpel	-6817
▁ndri	-6818
▁omli	-6819
▁omma	-6820
▁älso	-6821
▁myndi	-6822
▁rinna	-6823
▁ämför	-6824
AB	-6825
▁kj	-6826
▁365	-6827
▁Bal	-6828
▁Cor	-6829
▁asp	-6830
▁bso	-6831
▁esp	-6832
▁had	-6833
▁hiv	-6834
▁kus	-6835
▁bull	-6836
▁ered	-6837
▁matt	-6838
▁oter	-6839
▁resp	-6840
▁skul	-6841
▁ärda	-6842
▁hotos	-6843
▁karak	-6844
▁redig	-6845
▁sverk	-6846
▁törta	-6847
▁öljer	-6848
wan	-6849
▁4:	-6850
▁qu	-6851
▁Old	-6852
▁WHO	-6853
▁cke	-6854
▁eek	-6855
▁flä	-6856
▁jäs	-6857
▁lum	-6858
▁nfo	-6859
▁Brad	-6860
▁MSEK	-6861
▁afar	-6862
▁akob	-6863
▁alet	-6864
▁andy	-6865
▁cher	-6866
▁enor	-6867
▁etta	-6868
▁häll	-6869
▁kand	-6870
▁krek	-6871
▁nerg	-6872
▁ollo	-6873
▁pins	-6874
▁rinc	-6875
▁rvel	-6876
▁tine	-6877
▁valp	-6878
▁väva	-6879
▁änkt	-6880
▁örut	-6881
▁ammar	-6882
▁icera	-6883
▁moské	-6884
▁omple	-6885
▁rival	-6886
▁ögsta	-6887
▁}	-6888
hoo	-6889
odo	-6890
▁SL	-6891
▁FBI	-6892
▁Mid	-6893
▁Ram	-6894
▁ius	-6895
▁sek	-6896
▁sur	-6897
▁ude	-6898
▁ärk	-6899
▁adel	-6900
▁asse	-6901
▁kaka	-6902
▁lati	-6903
▁once	-6904
▁rofi	-6905
▁tlan	-6906
▁trin	-6907
▁Forex	-6908
▁enrik	-6909
▁karna	-6910
▁lämpl	-6911
▁metri	-6912
▁neder	-6913
▁ptera	-6914
▁staka	-6915
▁tavla	-6916
▁touch	-6917
HA	-6918
ny	-6919
zer	-6920
▁(6	-6921
▁Ea	-6922
▁CIA	-6923
▁Pla	-6924
▁Sri	-6925
▁Wal	-6926
▁ads	-6927
▁dvä	-6928
▁göd	-6929
▁lif	-6930
▁pil	-6931
▁twi	-6932
▁xpo	-6933
▁Mach	-6934
▁alar	-6935
▁edöm	-6936
▁icka	-6937
▁ines	-6938
▁korr	-6939
▁mpar	-6940
▁rdar	-6941
▁spir	-6942
▁stel	-6943
▁vänl	-6944
▁årti	-6945
▁artor	-6946
▁onisk	-6947
▁ontro	-6948
▁otstå	-6949
▁redje	-6950
OP	-6951
▁¶	-6952
▁54	-6953
▁56	-6954
▁ji	-6955
▁2,5	-6956
▁Jan	-6957
▁Vin	-6958
▁dok	-6959
▁gag	-6960
▁löv	-6961
▁mur	-6962
▁tau	-6963
▁vic	-6964
▁ägt	-6965
▁Hell	-6966
▁appy	-6967
▁arkt	-6968
▁café	-6969
▁elek	-6970
▁elly	-6971
▁gata	-6972
▁ider	-6973
▁pnad	-6974
▁sken	-6975
▁vens	-6976
▁xtra	-6977
▁istra	-6978
▁träda	-6979
▁vaken	-6980
IL	-6981
TH	-6982
▁ü	-6983
▁AG	-6984
▁Kn	-6985
▁Che	-6986
▁EUR	-6987
▁Ord	-6988
▁dad	-6989
▁eve	-6990
▁ffa	-6991
▁gis	-6992
▁ias	-6993
▁jun	-6994
▁rai	-6995
▁Nint	-6996
▁ckra	-6997
▁dinb	-6998
▁ekto	-6999
▁ersi	-7000
▁iste	-7001
▁läkt	-7002
▁raci	-7003
▁chain	-7004
▁krona	-7005
▁motta	-7006
▁tårta	-7007
CD	-7008
Hz	-7009
RI	-7010
ue	-7011
ota	-7012
▁5:	-7013
▁EF	-7014
▁Gy	-7015
▁Nor	-7016
▁She	-7017
▁Tim	-7018
▁gad	-7019
▁ngi	-7020
▁ador	-7021
▁aper	-7022
▁dana	-7023
▁halt	-7024
▁llti	-7025
▁mull	-7026
▁nför	-7027
▁otani	-7028
▁pirit	-7029
▁uster	-7030
▁vulka	-7031
HD	-7032
RS	-7033
ct	-7034
ano	-7035
one	-7036
▁#1	-7037
▁IB	-7038
▁NI	-7039
▁bal	-7040
▁dek	-7041
▁iks	-7042
▁rym	-7043
▁sug	-7044
▁syk	-7045
▁umä	-7046
▁örr	-7047
▁ckar	-7048
▁edle	-7049
▁hyll	-7050
▁ilar	-7051
▁kolo	-7052
▁mots	-7053
▁orga	-7054
▁afari	-7055
▁atien	-7056
▁avslu	-7057
▁egion	-7058
▁gning	-7059
▁nagla	-7060
▁omali	-7061
▁rthur	-7062
▁¥	-7063
cha	-7064
▁67	-7065
▁NE	-7066
▁Oh	-7067
▁PL	-7068
▁FDA	-7069
▁God	-7070
▁gir	-7071
▁lom	-7072
▁rve	-7073
▁tir	-7074
▁utt	-7075
▁Kine	-7076
▁anka	-7077
▁emma	-7078
▁ermi	-7079
▁esse	-7080
▁kryp	-7081
▁lara	-7082
▁less	-7083
▁nier	-7084
▁okyo	-7085
▁rast	-7086
▁räna	-7087
▁vask	-7088
▁verg	-7089
▁yfta	-7090
▁ylan	-7091
▁ågar	-7092
▁andar	-7093
▁astor	-7094
▁ramme	-7095
▁rutal	-7096
ere	-7097
▁59	-7098
▁EA	-7099
▁NU	-7100
▁(3)	-7101
▁900	-7102
▁Eva	-7103
▁ION	-7104
▁Klo	-7105
▁Not	-7106
▁Pol	-7107
▁ftf	-7108
▁ici	-7109
▁ils	-7110
▁mir	-7111
▁new	-7112
▁Niko	-7113
▁alti	-7114
▁läka	-7115
▁rala	-7116
▁varv	-7117
▁korna	-7118
▁rbara	-7119
▁sugen	-7120
▁trång	-7121
▁urren	-7122
▁vagin	-7123
▁väsko	-7124
LS	-7125
bel	-7126
cho	-7127
ont	-7128
▁58	-7129
▁62	-7130
▁BS	-7131
▁TR	-7132
▁:-)	-7133
▁Ann	-7134
▁Bör	-7135
▁Urs	-7136
▁fet	-7137
▁gda	-7138
▁rdr	-7139
▁vax	-7140
▁atth	-7141
▁dygn	-7142
▁essa	-7143
▁ghet	-7144
▁grät	-7145
▁kväl	-7146
▁kärm	-7147
▁like	-7148
▁ngli	-7149
▁nklu	-7150
▁pera	-7151
▁ssad	-7152
▁verb	-7153
▁yska	-7154
▁acker	-7155
▁entin	-7156
▁grott	-7157
▁pning	-7158
OT	-7159
ffa	-7160
▁ED	-7161
▁Zo	-7162
▁yc	-7163
▁Åk	-7164
▁Sir	-7165
▁Tag	-7166
▁Win	-7167
▁def	-7168
▁län	-7169
▁lög	-7170
▁sbo	-7171
▁soc	-7172
▁ves	-7173
▁von	-7174
▁Bell	-7175
▁Last	-7176
▁aura	-7177
▁base	-7178
▁befo	-7179
▁enya	-7180
▁ffek	-7181
▁kick	-7182
▁race	-7183
▁tsen	-7184
▁will	-7185
▁ålla	-7186
▁attan	-7187
▁celle	-7188
▁cockt	-7189
▁ecken	-7190
▁galna	-7191
▁staur	-7192
åå	-7193
iga	-7194
▁Cr	-7195
▁DI	-7196
▁LL	-7197
▁TT	-7198
▁Ze	-7199
▁cD	-7200
▁Dem	-7201
▁Liv	-7202
▁irm	-7203
▁lme	-7204
▁lun	-7205
▁löp	-7206
▁mbe	-7207
▁mni	-7208
▁sät	-7209
▁äpp	-7210
▁Bull	-7211
▁NASA	-7212
▁Shak	-7213
▁gard	-7214
▁glöd	-7215
▁ouri	-7216
▁täta	-7217
▁vega	-7218
▁voro	-7219
▁värk	-7220
▁väve	-7221
▁eckan	-7222
▁erami	-7223
▁essen	-7224
▁lemma	-7225
▁lille	-7226
▁nulla	-7227
▁rusta	-7228
På	-7229
QL	-7230
ane	-7231
vlo	-7232
▁!!	-7233
▁63	-7234
▁Am	-7235
▁GP	-7236
▁LT	-7237
▁MB	-7238
▁PP	-7239
▁PV	-7240
▁sw	-7241
▁HÄR	-7242
▁flo	-7243
▁gly	-7244
▁ndy	-7245
▁pps	-7246
▁chip	-7247
▁förl	-7248
▁låst	-7249
▁nand	-7250
▁ocka	-7251
▁resi	-7252
▁room	-7253
▁rran	-7254
▁tans	-7255
▁ature	-7256
▁rskar	-7257
▁tavlo	-7258
▁ulver	-7259
▁yssla	-7260
HS	-7261
Nu	-7262
ath	-7263
▁Jä	-7264
▁LO	-7265
▁OL	-7266
▁10.	-7267
▁Ari	-7268
▁arh	-7269
▁iro	-7270
▁ndi	-7271
▁pic	-7272
▁spa	-7273
▁tax	-7274
▁tea	-7275
▁tul	-7276
▁IKEA	-7277
▁Varn	-7278
▁enas	-7279
▁ffen	-7280
▁flik	-7281
▁hann	-7282
▁labb	-7283
▁nten	-7284
▁peci	-7285
▁ttat	-7286
▁ullo	-7287
▁umme	-7288
▁ampan	-7289
▁immar	-7290
▁ingsb	-7291
▁kanna	-7292
▁kyrka	-7293
▁llade	-7294
▁milit	-7295
),	-7296
NG	-7297
fo	-7298
anc	-7299
win	-7300
▁57	-7301
▁78	-7302
▁88	-7303
▁96	-7304
▁NF	-7305
▁abi	-7306
▁fit	-7307
▁kak	-7308
▁kij	-7309
▁opa	-7310
▁åge	-7311
▁ALLT	-7312
▁ankr	-7313
▁cens	-7314
▁elar	-7315
▁ewis	-7316
▁gynn	-7317
▁hels	-7318
▁kart	-7319
▁load	-7320
▁ntli	-7321
▁ogen	-7322
▁pill	-7323
▁pray	-7324
▁rial	-7325
▁trer	-7326
▁ätte	-7327
▁åtal	-7328
▁antin	-7329
▁check	-7330
▁erett	-7331
▁flest	-7332
▁rodde	-7333
▁tagna	-7334
▁tramp	-7335
10	-7336
▁3-	-7337
▁77	-7338
▁AU	-7339
▁GT	-7340
▁IL	-7341
▁OP	-7342
▁ws	-7343
odge	-7344
▁ABB	-7345
▁Mån	-7346
▁Ray	-7347
▁iii	-7348
▁käl	-7349
▁slö	-7350
▁öpt	-7351
▁örk	-7352
▁Herr	-7353
▁anno	-7354
▁hatt	-7355
▁jazz	-7356
▁korn	-7357
▁mast	-7358
▁ppor	-7359
▁ramp	-7360
▁ärar	-7361
▁Bruce	-7362
▁järta	-7363
▁oyota	-7364
▁rgare	-7365
▁vändn	-7366
▁ätten	-7367
Ni	-7368
SA	-7369
ua	-7370
▁❤	-7371
ene	-7372
geo	-7373
▁53	-7374
▁EP	-7375
▁Mü	-7376
▁NG	-7377
▁SF	-7378
▁SO	-7379
▁nm	-7380
▁Bad	-7381
▁Cup	-7382
▁Rou	-7383
▁War	-7384
▁dle	-7385
▁dul	-7386
▁glo	-7387
▁kru	-7388
▁pga	-7389
▁sof	-7390
▁äke	-7391
▁åkt	-7392
▁diga	-7393
▁dump	-7394
▁edni	-7395
▁fjol	-7396
▁förv	-7397
▁girl	-7398
▁gryn	-7399
▁lart	-7400
▁lima	-7401
▁nick	-7402
▁prit	-7403
▁rång	-7404
▁vika	-7405
▁Shang	-7406
▁Yahoo	-7407
▁aiwan	-7408
▁chips	-7409
▁igger	-7410
▁lånet	-7411
▁polit	-7412
▁retro	-7413
CE	-7414
wn	-7415
ås	-7416
▁9,	-7417
▁sq	-7418
▁Bre	-7419
▁Nov	-7420
▁cri	-7421
▁nod	-7422
▁olt	-7423
▁omi	-7424
▁rla	-7425
▁tvä	-7426
▁Napo	-7427
▁Wind	-7428
▁With	-7429
▁acob	-7430
▁amne	-7431
▁arra	-7432
▁drak	-7433
▁erre	-7434
▁gang	-7435
▁ratu	-7436
▁ravi	-7437
▁rens	-7438
▁site	-7439
▁stre	-7440
▁tark	-7441
▁tsko	-7442
▁well	-7443
▁äkna	-7444
▁ämta	-7445
▁ånad	-7446
▁öker	-7447
▁arine	-7448
▁ktiga	-7449
▁linse	-7450
▁ngels	-7451
▁raket	-7452
▁ttade	-7453
CK	-7454
IO	-7455
▁\	-7456
add	-7457
▁).	-7458
▁00	-7459
▁Je	-7460
▁RE	-7461
▁pg	-7462
▁tz	-7463
▁130	-7464
▁Col	-7465
▁ege	-7466
▁etr	-7467
▁ima	-7468
▁ltr	-7469
▁olm	-7470
▁roy	-7471
▁tia	-7472
▁våt	-7473
▁war	-7474
▁ögs	-7475
▁Ball	-7476
▁Kate	-7477
▁NING	-7478
▁anse	-7479
▁ills	-7480
▁karn	-7481
▁likn	-7482
▁ntin	-7483
▁näpp	-7484
▁ogle	-7485
▁rukt	-7486
▁vidi	-7487
▁ablar	-7488
▁bläck	-7489
▁lossa	-7490
▁miska	-7491
▁seras	-7492
SE	-7493
ah	-7494
ero	-7495
ski	-7496
▁BB	-7497
▁EV	-7498
▁Io	-7499
▁UC	-7500
▁API	-7501
▁BMW	-7502
▁Kal	-7503
▁Sju	-7504
▁VIP	-7505
▁cra	-7506
▁haj	-7507
▁hyd	-7508
▁kno	-7509
▁kts	-7510
▁mem	-7511
▁oln	-7512
▁pam	-7513
▁ray	-7514
▁rbi	-7515
▁vun	-7516
▁ADHD	-7517
▁Cell	-7518
▁Vari	-7519
▁aily	-7520
▁anza	-7521
▁brud	-7522
▁därv	-7523
▁ggan	-7524
▁iker	-7525
▁illy	-7526
▁jakt	-7527
▁kons	-7528
▁märt	-7529
▁rkad	-7530
▁släp	-7531
▁ulta	-7532
▁undr	-7533
▁alomo	-7534
▁anyon	-7535
▁erbar	-7536
▁följe	-7537
▁golfb	-7538
▁hetta	-7539
▁hylla	-7540
▁ision	-7541
▁lagom	-7542
▁ledar	-7543
▁llnad	-7544
▁trasi	-7545
▁trian	-7546
▁tråka	-7547
▁töter	-7548
▁urgeo	-7549
udo	-7550
▁98	-7551
▁DJ	-7552
▁hm	-7553
▁360	-7554
▁Joe	-7555
▁NAT	-7556
▁Ron	-7557
▁cen	-7558
▁idi	-7559
▁nem	-7560
▁nkl	-7561
▁pru	-7562
▁arao	-7563
▁attn	-7564
▁ckad	-7565
▁eali	-7566
▁elak	-7567
▁ello	-7568
▁have	-7569
▁irek	-7570
▁irka	-7571
▁mbry	-7572
▁mmig	-7573
▁nton	-7574
▁olic	-7575
▁oria	-7576
▁rchi	-7577
▁valf	-7578
▁vets	-7579
▁väld	-7580
▁Cross	-7581
▁arväl	-7582
▁druck	-7583
▁ingsa	-7584
ace	-7585
amo	-7586
▁MD	-7587
▁SU	-7588
▁lc	-7589
▁ÄN	-7590
▁160	-7591
▁3,5	-7592
▁Act	-7593
▁Now	-7594
▁Pac	-7595
▁Ros	-7596
▁Tio	-7597
▁eva	-7598
▁gym	-7599
▁ipe	-7600
▁ped	-7601
▁rga	-7602
▁sun	-7603
▁Öka	-7604
▁Care	-7605
▁arit	-7606
▁dumt	-7607
▁emat	-7608
▁enat	-7609
▁etch	-7610
▁head	-7611
▁ltag	-7612
▁näsa	-7613
▁pack	-7614
▁riet	-7615
▁tree	-7616
▁unds	-7617
▁utfö	-7618
▁ärme	-7619
▁Lodge	-7620
▁apten	-7621
▁levan	-7622
▁oligt	-7623
▁renhe	-7624
▁resid	-7625
▁rosor	-7626
▁tirra	-7627
▁upong	-7628
GA	-7629
TO	-7630
up	-7631
bra	-7632
kla	-7633
▁**	-7634
▁83	-7635
▁MC	-7636
▁RF	-7637
host	-7638
▁Fox	-7639
▁Ing	-7640
▁Kry	-7641
▁cko	-7642
▁hyp	-7643
▁iol	-7644
▁lko	-7645
▁pår	-7646
▁rta	-7647
▁éer	-7648
▁doxa	-7649
▁gatu	-7650
▁grym	-7651
▁hire	-7652
▁ighe	-7653
▁ione	-7654
▁kult	-7655
▁llin	-7656
▁luor	-7657
▁olid	-7658
▁rave	-7659
▁rbar	-7660
▁ruta	-7661
▁tami	-7662
▁tava	-7663
▁trau	-7664
▁ukta	-7665
▁very	-7666
▁älsa	-7667
▁ataly	-7668
▁brått	-7669
▁irekt	-7670
▁ivers	-7671
▁jeans	-7672
▁kassa	-7673
▁konom	-7674
▁lande	-7675
▁räffa	-7676
▁tunne	-7677
LA	-7678
UT	-7679
eli	-7680
usa	-7681
▁At	-7682
▁Ax	-7683
▁HB	-7684
▁IQ	-7685
▁Oj	-7686
▁XP	-7687
▁wh	-7688
▁Klä	-7689
▁Tor	-7690
▁ddi	-7691
▁git	-7692
▁got	-7693
▁lsa	-7694
▁mme	-7695
▁pat	-7696
▁Mate	-7697
▁aida	-7698
▁gnad	-7699
▁isku	-7700
▁klau	-7701
▁leon	-7702
▁moti	-7703
▁otiv	-7704
▁prat	-7705
▁ride	-7706
▁rond	-7707
▁räni	-7708
▁stop	-7709
▁urse	-7710
▁ydda	-7711
▁ammer	-7712
▁innor	-7713
▁linga	-7714
▁nlägg	-7715
▁nthon	-7716
▁print	-7717
▁rinne	-7718
▁taket	-7719
▁tripp	-7720
▁●	-7721
▁😉	-7722
ECD	-7723
jäl	-7724
ken	-7725
▁",	-7726
▁AK	-7727
▁DR	-7728
▁Eu	-7729
▁TC	-7730
▁nv	-7731
▁Fri	-7732
▁IKT	-7733
▁Ian	-7734
▁Nut	-7735
▁OCH	-7736
▁Set	-7737
▁asy	-7738
▁ebe	-7739
▁she	-7740
▁ssy	-7741
▁ALLA	-7742
▁Davi	-7743
▁Lena	-7744
▁Mall	-7745
▁arco	-7746
▁iger	-7747
▁kram	-7748
▁lmer	-7749
▁majs	-7750
▁ntel	-7751
▁ocks	-7752
▁orry	-7753
▁tarm	-7754
▁toki	-7755
▁trod	-7756
▁urra	-7757
▁väte	-7758
▁wall	-7759
▁äran	-7760
▁örat	-7761
▁byggn	-7762
▁finit	-7763
▁lyssn	-7764
▁matte	-7765
▁naten	-7766
▁äller	-7767
OD	-7768
Se	-7769
ye	-7770
▁`	-7771
ele	-7772
▁Dj	-7773
▁Em	-7774
▁FS	-7775
▁Id	-7776
▁PH	-7777
▁SC	-7778
▁TI	-7779
▁pH	-7780
▁Ät	-7781
▁Ber	-7782
▁Brö	-7783
▁DET	-7784
▁IoT	-7785
▁SMS	-7786
▁Tog	-7787
▁Ume	-7788
▁agd	-7789
▁big	-7790
▁bly	-7791
▁bow	-7792
▁ery	-7793
▁hef	-7794
▁inr	-7795
▁kto	-7796
▁lak	-7797
▁lma	-7798
▁nmä	-7799
▁näm	-7800
▁pda	-7801
▁upe	-7802
▁äss	-7803
▁HTML	-7804
▁OECD	-7805
▁Veri	-7806
▁date	-7807
▁idni	-7808
▁mone	-7809
▁nsen	-7810
▁plit	-7811
▁read	-7812
▁ross	-7813
▁skar	-7814
▁såra	-7815
▁udan	-7816
▁visk	-7817
▁änds	-7818
▁dring	-7819
▁edare	-7820
▁front	-7821
▁knäck	-7822
▁laggo	-7823
▁mband	-7824
▁tulit	-7825
▁ydlig	-7826
ac	-7827
fv	-7828
ART	-7829
▁CA	-7830
▁TS	-7831
▁10%	-7832
▁110	-7833
▁140	-7834
▁LAN	-7835
▁Lad	-7836
▁Rio	-7837
▁fie	-7838
▁hag	-7839
▁jej	-7840
▁lyc	-7841
▁lök	-7842
▁rgå	-7843
▁tay	-7844
▁ubl	-7845
▁Dell	-7846
▁Kris	-7847
▁Roma	-7848
▁call	-7849
▁etra	-7850
▁glut	-7851
▁hett	-7852
▁hier	-7853
▁maka	-7854
▁nark	-7855
▁nett	-7856
▁punk	-7857
▁rack	-7858
▁sche	-7859
▁yckt	-7860
▁äcke	-7861
▁fjäll	-7862
▁garen	-7863
▁latse	-7864
▁pdate	-7865
▁rycke	-7866
▁ttera	-7867
EE	-7868
fs	-7869
ler	-7870
▁71	-7871
▁GR	-7872
▁Ip	-7873
▁LÄ	-7874
▁350	-7875
▁Bed	-7876
▁CNN	-7877
▁Hög	-7878
▁Jim	-7879
▁KOM	-7880
▁VER	-7881
▁fro	-7882
▁lba	-7883
▁ory	-7884
▁pay	-7885
▁tyv	-7886
▁urb	-7887
▁win	-7888
▁arré	-7889
▁elst	-7890
▁etan	-7891
▁gaml	-7892
▁grän	-7893
▁hack	-7894
▁hoto	-7895
▁sser	-7896
▁talk	-7897
▁tapp	-7898
▁tral	-7899
▁wart	-7900
▁Ghost	-7901
▁inger	-7902
▁kabin	-7903
▁rabba	-7904
IB	-7905
UR	-7906
alo	-7907
▁1/	-7908
▁74	-7909
▁DE	-7910
▁JA	-7911
▁SG	-7912
▁Sl	-7913
▁åh	-7914
▁COM	-7915
▁Dru	-7916
▁Hår	-7917
▁Möt	-7918
▁NHL	-7919
▁Rod	-7920
▁SIM	-7921
▁Sea	-7922
▁gay	-7923
▁kes	-7924
▁lax	-7925
▁oko	-7926
▁onk	-7927
▁rge	-7928
▁räs	-7929
▁sav	-7930
▁wit	-7931
▁Ross	-7932
▁Turn	-7933
▁anny	-7934
▁atyr	-7935
▁dägg	-7936
▁inko	-7937
▁keln	-7938
▁kers	-7939
▁lift	-7940
▁spen	-7941
▁ssen	-7942
▁ters	-7943
▁tune	-7944
▁elefo	-7945
▁glatt	-7946
▁prote	-7947
▁romer	-7948
▁sakra	-7949
▁skare	-7950
▁sslan	-7951
▁stock	-7952
▁suger	-7953
ilb	-7954
▁(9	-7955
▁68	-7956
▁86	-7957
▁92	-7958
▁97	-7959
▁BC	-7960
▁DD	-7961
▁GS	-7962
▁PA	-7963
▁Tr	-7964
▁mj	-7965
▁oj	-7966
▁td	-7967
▁vr	-7968
▁(5)	-7969
▁80%	-7970
▁90%	-7971
▁CAD	-7972
▁Far	-7973
▁Inf	-7974
▁SSL	-7975
▁Sin	-7976
▁Tel	-7977
▁URL	-7978
▁bay	-7979
▁cry	-7980
▁eur	-7981
▁lef	-7982
▁nea	-7983
▁rlu	-7984
▁uli	-7985
▁Gali	-7986
▁Genè	-7987
▁Glen	-7988
▁Know	-7989
▁Tall	-7990
▁adre	-7991
▁asso	-7992
▁burn	-7993
▁egär	-7994
▁ersk	-7995
▁evis	-7996
▁gäld	-7997
▁heim	-7998
▁hejd	-7999
▁ikat	-8000
▁lern	-8001
▁long	-8002
▁mpli	-8003
▁nnon	-8004
▁nova	-8005
▁oler	-8006
▁räda	-8007
▁öran	-8008
▁Labor	-8009
▁genui	-8010
▁gruva	-8011
▁ieber	-8012
▁natri	-8013
▁orgon	-8014
▁piral	-8015
▁tenne	-8016
▁tiell	-8017
▁trend	-8018
ap	-8019
án	-8020
ür	-8021
mar	-8022
oro	-8023
ump	-8024
uto	-8025
▁(7	-8026
▁4-	-8027
▁CH	-8028
▁FE	-8029
▁FI	-8030
▁LG	-8031
▁MW	-8032
▁NC	-8033
▁Ok	-8034
▁[1	-8035
▁kW	-8036
▁(4)	-8037
▁30%	-8038
▁Ala	-8039
▁Era	-8040
▁Fel	-8041
▁THE	-8042
▁Ter	-8043
▁Väg	-8044
▁amå	-8045
▁anm	-8046
▁anu	-8047
▁rdf	-8048
▁utg	-8049
▁zat	-8050
▁IPCC	-8051
▁Wine	-8052
▁akto	-8053
▁bran	-8054
▁däck	-8055
▁erge	-8056
▁igan	-8057
▁korp	-8058
▁mnen	-8059
▁mond	-8060
▁mäss	-8061
▁ngla	-8062
▁rjan	-8063
▁stag	-8064
▁sted	-8065
▁trat	-8066
▁ulin	-8067
▁watt	-8068
▁ärke	-8069
▁ögre	-8070
▁arren	-8071
▁arwin	-8072
▁faldi	-8073
▁green	-8074
▁nasti	-8075
▁panel	-8076
▁poner	-8077
▁sikte	-8078
▁slavi	-8079
▁vinga	-8080
KT	-8081
io	-8082
Ent	-8083
alt	-8084
amm	-8085
iki	-8086
rie	-8087
▁69	-8088
▁6:	-8089
▁DA	-8090
▁FC	-8091
▁MR	-8092
▁Ye	-8093
▁1,2	-8094
▁125	-8095
▁AIF	-8096
▁Abu	-8097
▁Ahl	-8098
▁Web	-8099
▁Zen	-8100
▁cam	-8101
▁das	-8102
▁enj	-8103
▁ilä	-8104
▁lyn	-8105
▁mok	-8106
▁oph	-8107
▁orb	-8108
▁oul	-8109
▁Bird	-8110
▁Kron	-8111
▁Mara	-8112
▁Roth	-8113
▁Whit	-8114
▁akom	-8115
▁bell	-8116
▁eell	-8117
▁elin	-8118
▁elta	-8119
▁gläd	-8120
▁högs	-8121
▁know	-8122
▁lise	-8123
▁mejl	-8124
▁obba	-8125
▁ouch	-8126
▁ryta	-8127
▁suga	-8128
▁Commo	-8129
▁bländ	-8130
▁etEnt	-8131
▁glans	-8132
▁graph	-8133
▁karta	-8134
▁listi	-8135
▁mbryo	-8136
▁meron	-8137
▁nagel	-8138
▁stell	-8139
▁tiken	-8140
▁villo	-8141
▁viset	-8142
GO	-8143
ux	-8144
OTE	-8145
ito	-8146
▁4)	-8147
▁5-	-8148
▁73	-8149
▁79	-8150
▁Ag	-8151
▁Ej	-8152
▁HS	-8153
▁Oy	-8154
▁df	-8155
▁Bit	-8156
▁Kni	-8157
▁SQL	-8158
▁Sky	-8159
▁VII	-8160
▁Whe	-8161
▁eth	-8162
▁ivå	-8163
▁lav	-8164
▁llå	-8165
▁ogl	-8166
▁rbo	-8167
▁rje	-8168
▁vri	-8169
▁Finn	-8170
▁Gran	-8171
▁Lett	-8172
▁Viss	-8173
▁anar	-8174
▁cken	-8175
▁ckni	-8176
▁dorf	-8177
▁ecka	-8178
▁ging	-8179
▁huse	-8180
▁ilje	-8181
▁krap	-8182
▁lper	-8183
▁mont	-8184
▁nstä	-8185
▁otel	-8186
▁publ	-8187
▁rton	-8188
▁svin	-8189
▁tenn	-8190
▁ttad	-8191
▁antal	-8192
▁dumpa	-8193
▁gräse	-8194
▁hydra	-8195
▁jorde	-8196
▁limin	-8197
▁lånar	-8198
▁matto	-8199
▁mosom	-8200
▁nting	-8201
▁rlean	-8202
▁slätt	-8203
▁tigit	-8204
▁umber	-8205
TT	-8206
cq	-8207
if	-8208
nu	-8209
ät	-8210
ros	-8211
uri	-8212
▁61	-8213
▁76	-8214
▁NP	-8215
▁XX	-8216
▁iC	-8217
▁tk	-8218
▁yu	-8219
▁Bow	-8220
▁Fin	-8221
▁How	-8222
▁Key	-8223
▁LIG	-8224
▁Les	-8225
▁Log	-8226
▁Mul	-8227
▁NET	-8228
▁dic	-8229
▁efe	-8230
▁eft	-8231
▁egn	-8232
▁eme	-8233
▁hio	-8234
▁kle	-8235
▁pus	-8236
▁rte	-8237
▁Main	-8238
▁Math	-8239
▁Plaz	-8240
▁allo	-8241
▁dapt	-8242
▁enus	-8243
▁ftet	-8244
▁hypo	-8245
▁ilde	-8246
▁lame	-8247
▁näna	-8248
▁ocke	-8249
▁ommy	-8250
▁pall	-8251
▁pets	-8252
▁rone	-8253
▁stab	-8254
▁tagb	-8255
▁uvar	-8256
▁åsom	-8257
▁ahara	-8258
▁ardin	-8259
▁atoli	-8260
▁berry	-8261
▁ersio	-8262
▁ffici	-8263
▁galet	-8264
▁itisk	-8265
▁jligt	-8266
▁level	-8267
▁nator	-8268
▁seudo	-8269
YS	-8270
▁−	-8271
IFA	-8272
han	-8273
▁Lt	-8274
▁Sv	-8275
▁^^	-8276
▁ABC	-8277
▁PVC	-8278
▁[1]	-8279
▁eny	-8280
▁ims	-8281
▁kåd	-8282
▁oun	-8283
▁rdi	-8284
▁rgo	-8285
▁vie	-8286
▁ysk	-8287
▁äde	-8288
▁Nutr	-8289
▁UNES	-8290
▁acon	-8291
▁ambo	-8292
▁asts	-8293
▁jude	-8294
▁kate	-8295
▁knep	-8296
▁kärp	-8297
▁lisk	-8298
▁mbin	-8299
▁nday	-8300
▁odkä	-8301
▁oste	-8302
▁prin	-8303
▁skåd	-8304
▁tagg	-8305
▁tens	-8306
▁vere	-8307
▁wich	-8308
▁ångt	-8309
▁anane	-8310
▁assac	-8311
▁ettsy	-8312
▁gruvo	-8313
▁gräva	-8314
▁nakna	-8315
▁ourci	-8316
▁riter	-8317
▁trigg	-8318
ox	-8319
rd	-8320
sé	-8321
▁".	-8322
▁82	-8323
▁??	-8324
▁CT	-8325
▁EK	-8326
▁ME	-8327
▁Ow	-8328
▁SÅ	-8329
▁Vl	-8330
▁WW	-8331
▁tp	-8332
▁xx	-8333
oghu	-8334
▁0,5	-8335
▁10,	-8336
▁2-3	-8337
▁20%	-8338
▁Kam	-8339
▁Leo	-8340
▁Mak	-8341
▁SAS	-8342
▁Tal	-8343
▁cer	-8344
▁kaf	-8345
▁neo	-8346
▁neu	-8347
▁oth	-8348
▁ply	-8349
▁rpa	-8350
▁rup	-8351
▁tok	-8352
▁umb	-8353
▁väv	-8354
▁åri	-8355
▁örn	-8356
▁UOTE	-8357
▁airo	-8358
▁aiti	-8359
▁anga	-8360
▁cket	-8361
▁dlar	-8362
▁dåra	-8363
▁ekti	-8364
▁ente	-8365
▁garn	-8366
▁grop	-8367
▁inci	-8368
▁kikt	-8369
▁krot	-8370
▁kust	-8371
▁lama	-8372
▁mail	-8373
▁nant	-8374
▁nded	-8375
▁olig	-8376
▁ombi	-8377
▁tads	-8378
▁trai	-8379
▁ukar	-8380
▁vans	-8381
▁väkt	-8382
▁yter	-8383
▁ögst	-8384
▁östa	-8385
▁Creek	-8386
▁arato	-8387
▁lager	-8388
▁nedra	-8389
▁nnull	-8390
▁oster	-8391
▁pruta	-8392
▁slave	-8393
▁tomat	-8394
▁train	-8395
LT	-8396
ND	-8397
UF	-8398
bs	-8399
mu	-8400
▁â	-8401
ada	-8402
daq	-8403
omi	-8404
rak	-8405
ylo	-8406
▁5%	-8407
▁87	-8408
▁93	-8409
▁DM	-8410
▁FM	-8411
▁RP	-8412
▁UP	-8413
▁ez	-8414
▁ée	-8415
▁Bos	-8416
▁Cir	-8417
▁Fit	-8418
▁Kol	-8419
▁Nel	-8420
▁asc	-8421
▁cli	-8422
▁ddy	-8423
▁eds	-8424
▁fat	-8425
▁haf	-8426
▁jup	-8427
▁nab	-8428
▁ogg	-8429
▁orw	-8430
▁sfa	-8431
▁stj	-8432
▁såt	-8433
▁tee	-8434
▁thy	-8435
▁Borg	-8436
▁Coca	-8437
▁Juan	-8438
▁Neil	-8439
▁Själ	-8440
▁amel	-8441
▁ango	-8442
▁anns	-8443
▁anto	-8444
▁esso	-8445
▁etti	-8446
▁ilit	-8447
▁ilke	-8448
▁kain	-8449
▁kalb	-8450
▁kalk	-8451
▁klam	-8452
▁kval	-8453
▁lens	-8454
▁nsök	-8455
▁phia	-8456
▁plåt	-8457
▁pred	-8458
▁ridd	-8459
▁rlek	-8460
▁teen	-8461
▁thon	-8462
▁tour	-8463
▁urre	-8464
▁vala	-8465
▁vera	-8466
▁viol	-8467
▁xakt	-8468
▁Burma	-8469
▁Trail	-8470
▁achel	-8471
▁ektiv	-8472
▁gross	-8473
▁hotel	-8474
▁jacka	-8475
▁lamma	-8476
▁nalis	-8477
▁tomer	-8478
▁vavel	-8479
▁vslut	-8480
▁välde	-8481
LD	-8482
▁😀	-8483
hon	-8484
ila	-8485
sti	-8486
örd	-8487
▁%,	-8488
▁(8	-8489
▁AW	-8490
▁BA	-8491
▁FB	-8492
▁GO	-8493
▁MO	-8494
▁PE	-8495
▁SI	-8496
▁Us	-8497
▁Yo	-8498
▁yp	-8499
▁1.1	-8500
▁450	-8501
▁Cri	-8502
▁DIY	-8503
▁Dal	-8504
▁Oil	-8505
▁Pil	-8506
▁eci	-8507
▁gue	-8508
▁tej	-8509
▁tua	-8510
▁urp	-8511
▁urt	-8512
▁väs	-8513
▁way	-8514
▁Burn	-8515
▁Jacq	-8516
▁José	-8517
▁Lost	-8518
▁NATO	-8519
▁Navi	-8520
▁Theo	-8521
▁arda	-8522
▁empe	-8523
▁enkl	-8524
▁erte	-8525
▁etty	-8526
▁iala	-8527
▁izof	-8528
▁jäna	-8529
▁kara	-8530
▁kola	-8531
▁kran	-8532
▁llum	-8533
▁pion	-8534
▁soja	-8535
▁stöt	-8536
▁this	-8537
▁turk	-8538
▁vilt	-8539
▁ägga	-8540
▁Grace	-8541
▁Gradu	-8542
▁grovt	-8543
▁gränd	-8544
▁illåt	-8545
▁ionss	-8546
▁lappa	-8547
▁orris	-8548
▁place	-8549
▁rally	-8550
▁ratte	-8551
▁rench	-8552
▁rerna	-8553
▁rotat	-8554
▁rtifi	-8555
▁teret	-8556
▁tigar	-8557
▁tomte	-8558
MI	-8559
eri	-8560
eti	-8561
▁#2	-8562
▁EX	-8563
▁OD	-8564
▁Xi	-8565
▁cA	-8566
▁cK	-8567
▁tb	-8568
▁xy	-8569
▁1-2	-8570
▁CPU	-8571
▁DIN	-8572
▁HPV	-8573
▁IAS	-8574
▁IMF	-8575
▁Kli	-8576
▁Leg	-8577
▁Pia	-8578
▁Who	-8579
▁doc	-8580
▁iaf	-8581
▁kik	-8582
▁lts	-8583
▁mes	-8584
▁nfl	-8585
▁omn	-8586
▁opo	-8587
▁tsa	-8588
▁Circ	-8589
▁Dafa	-8590
▁FIFA	-8591
▁Heri	-8592
▁amme	-8593
▁dget	-8594
▁erva	-8595
▁esid	-8596
▁gain	-8597
▁itär	-8598
▁lins	-8599
▁nski	-8600
▁oend	-8601
▁ruto	-8602
▁situ	-8603
▁sstä	-8604
▁teel	-8605
▁tide	-8606
▁toxi	-8607
▁Vladi	-8608
▁asdaq	-8609
▁chack	-8610
▁fläck	-8611
▁glamo	-8612
▁grind	-8613
▁helle	-8614
▁lindr	-8615
▁revol	-8616
▁råtto	-8617
▁ånade	-8618
IK	-8619
IR	-8620
ey	-8621
ip	-8622
ub	-8623
zb	-8624
öt	-8625
▁ø	-8626
▁■	-8627
avy	-8628
ico	-8629
jud	-8630
uru	-8631
▁91	-8632
▁DN	-8633
▁GA	-8634
▁MM	-8635
▁Yu	-8636
▁AND	-8637
▁ATT	-8638
▁Ame	-8639
▁BMI	-8640
▁Cop	-8641
▁Dry	-8642
▁NBA	-8643
▁Nev	-8644
▁Via	-8645
▁Wii	-8646
▁bat	-8647
▁esu	-8648
▁ged	-8649
▁gua	-8650
▁kät	-8651
▁llâ	-8652
▁nav	-8653
▁ney	-8654
▁ttf	-8655
▁unn	-8656
▁viv	-8657
▁äre	-8658
▁Bali	-8659
▁Bowl	-8660
▁Haag	-8661
▁IFRS	-8662
▁Lead	-8663
▁Mång	-8664
▁acks	-8665
▁arka	-8666
▁avet	-8667
▁bedö	-8668
▁dome	-8669
▁enhe	-8670
▁erba	-8671
▁gena	-8672
▁gris	-8673
▁hana	-8674
▁kada	-8675
▁mäll	-8676
▁omis	-8677
▁pilg	-8678
▁pott	-8679
▁rary	-8680
▁resu	-8681
▁rmat	-8682
▁rspr	-8683
▁tyle	-8684
▁uppl	-8685
▁uran	-8686
▁vani	-8687
▁yard	-8688
▁äckl	-8689
▁ärva	-8690
▁admin	-8691
▁andal	-8692
▁eella	-8693
▁gärde	-8694
▁idiga	-8695
▁ieter	-8696
▁onfer	-8697
▁ranso	-8698
▁rbjud	-8699
▁roati	-8700
▁roppe	-8701
▁rulle	-8702
▁rångl	-8703
▁störs	-8704
▁truck	-8705
▁valid	-8706
▁vampa	-8707
▁yoghu	-8708
BE	-8709
OW	-8710
hn	-8711
js	-8712
mp	-8713
ng	-8714
sb	-8715
we	-8716
wo	-8717
▁©	-8718
ile	-8719
ira	-8720
ome	-8721
uty	-8722
émo	-8723
▁1%	-8724
▁89	-8725
▁CL	-8726
▁Ky	-8727
▁LS	-8728
▁RT	-8729
▁SW	-8730
▁Blå	-8731
▁CFD	-8732
▁CRM	-8733
▁Cat	-8734
▁Fan	-8735
▁IRA	-8736
▁Kle	-8737
▁Ltd	-8738
▁MIN	-8739
▁agl	-8740
▁ais	-8741
▁cip	-8742
▁dsl	-8743
▁erc	-8744
▁erd	-8745
▁lve	-8746
▁ots	-8747
▁pak	-8748
▁rns	-8749
▁rva	-8750
▁rät	-8751
▁thi	-8752
▁äms	-8753
▁Comi	-8754
▁Kill	-8755
▁Nath	-8756
▁Zimb	-8757
▁alys	-8758
▁anie	-8759
▁edie	-8760
▁gart	-8761
▁genu	-8762
▁haga	-8763
▁klot	-8764
▁kock	-8765
▁korv	-8766
▁mine	-8767
▁mper	-8768
▁narc	-8769
▁nsus	-8770
▁ntis	-8771
▁onny	-8772
▁pell	-8773
▁rage	-8774
▁rrow	-8775
▁trid	-8776
▁trip	-8777
▁tröm	-8778
▁addam	-8779
▁enetr	-8780
▁ennsy	-8781
▁genus	-8782
▁ldrar	-8783
▁metro	-8784
▁ngäld	-8785
▁okémo	-8786
▁prakt	-8787
▁remsa	-8788
▁sladd	-8789
▁torrt	-8790
▁urray	-8791
HC	-8792
UM	-8793
VI	-8794
kr	-8795
ISS	-8796
elo	-8797
hua	-8798
mme	-8799
rum	-8800
▁5)	-8801
▁94	-8802
▁FL	-8803
▁Jr	-8804
▁MÅ	-8805
▁ND	-8806
▁hv	-8807
▁iu	-8808
▁tn	-8809
▁uo	-8810
▁2.1	-8811
▁70%	-8812
▁LÄS	-8813
▁MIT	-8814
▁Mix	-8815
▁Out	-8816
▁RAM	-8817
▁Run	-8818
▁aba	-8819
▁arq	-8820
▁cal	-8821
▁cap	-8822
▁dow	-8823
▁gio	-8824
▁håg	-8825
▁irr	-8826
▁kov	-8827
▁sim	-8828
▁tve	-8829
▁uva	-8830
▁vli	-8831
▁Duty	-8832
▁Lock	-8833
▁Nack	-8834
▁akan	-8835
▁alia	-8836
▁astr	-8837
▁eser	-8838
▁fakt	-8839
▁hort	-8840
▁inso	-8841
▁leep	-8842
▁lila	-8843
▁limi	-8844
▁name	-8845
▁nons	-8846
▁orte	-8847
▁rger	-8848
▁rice	-8849
▁rowd	-8850
▁supp	-8851
▁tugg	-8852
▁vide	-8853
▁värg	-8854
▁ädel	-8855
▁Stock	-8856
▁adres	-8857
▁amför	-8858
▁anati	-8859
▁apita	-8860
▁erant	-8861
▁hajar	-8862
▁kräkt	-8863
▁lånat	-8864
▁rerar	-8865
▁sitet	-8866
▁tinge	-8867
▁utter	-8868
FF	-8869
cs	-8870
ary	-8871
emo	-8872
ido	-8873
ino	-8874
isp	-8875
lin	-8876
sso	-8877
ush	-8878
▁6-	-8879
▁Ab	-8880
▁BT	-8881
▁CM	-8882
▁LP	-8883
▁MI	-8884
▁cG	-8885
▁gb	-8886
▁CEO	-8887
▁DNS	-8888
▁IBM	-8889
▁IRS	-8890
▁Mål	-8891
▁OBS	-8892
▁RIG	-8893
▁Rum	-8894
▁Rut	-8895
▁SIS	-8896
▁Vit	-8897
▁XII	-8898
▁atl	-8899
▁bun	-8900
▁efa	-8901
▁lvi	-8902
▁mpe	-8903
▁odd	-8904
▁rsa	-8905
▁rud	-8906
▁räv	-8907
▁sms	-8908
▁ssä	-8909
▁ume	-8910
▁ält	-8911
▁ögt	-8912
▁LEGO	-8913
▁Maya	-8914
▁Sean	-8915
▁Siri	-8916
▁Varm	-8917
▁Vatt	-8918
▁bulk	-8919
▁gull	-8920
▁hima	-8921
▁iens	-8922
▁iona	-8923
▁kens	-8924
▁kupp	-8925
▁lamm	-8926
▁mula	-8927
▁odul	-8928
▁otte	-8929
▁ovis	-8930
▁reud	-8931
▁sack	-8932
▁seei	-8933
▁song	-8934
▁stam	-8935
▁syst	-8936
▁tavn	-8937
▁tätn	-8938
▁wait	-8939
▁änge	-8940
▁Låtar	-8941
▁amtid	-8942
▁druvo	-8943
▁faran	-8944
▁grova	-8945
▁indel	-8946
▁iolog	-8947
▁issen	-8948
▁klang	-8949
▁lekna	-8950
▁ligan	-8951
▁ramla	-8952
▁resse	-8953
▁rving	-8954
▁trimm	-8955
Då	-8956
▁	-8957
AST	-8958
agi	-8959
ake	-8960
aro	-8961
▁%)	-8962
▁8:	-8963
▁BI	-8964
▁HE	-8965
▁Hy	-8966
▁KK	-8967
▁NN	-8968
▁PO	-8969
▁RI	-8970
▁XL	-8971
▁cL	-8972
▁13.	-8973
▁3.1	-8974
▁ALD	-8975
▁Box	-8976
▁Cle	-8977
▁Glä	-8978
▁Hub	-8979
▁LCD	-8980
▁MEN	-8981
▁NFL	-8982
▁Ner	-8983
▁Nån	-8984
▁Ret	-8985
▁THC	-8986
▁dot	-8987
▁eod	-8988
▁has	-8989
▁haw	-8990
▁jde	-8991
▁loo	-8992
▁osk	-8993
▁otb	-8994
▁pip	-8995
▁pir	-8996
▁sut	-8997
▁udd	-8998
▁yde	-8999
▁AIDS	-9000
▁Coll	-9001
▁Drug	-9002
▁Eras	-9003
▁Hopp	-9004
▁Isak	-9005
▁Room	-9006
▁Trek	-9007
▁aden	-9008
▁anis	-9009
▁ause	-9010
▁drän	-9011
▁efte	-9012
▁ekom	-9013
▁estå	-9014
▁grus	-9015
▁hard	-9016
▁hytt	-9017
▁itte	-9018
▁järt	-9019
▁knän	-9020
▁lpha	-9021
▁mund	-9022
▁nard	-9023
▁ogga	-9024
▁oren	-9025
▁orro	-9026
▁pann	-9027
▁proj	-9028
▁rdom	-9029
▁ruar	-9030
▁tgör	-9031
▁trim	-9032
▁tura	-9033
▁ulls	-9034
▁vilo	-9035
▁vörd	-9036
▁ärft	-9037
▁ärma	-9038
▁Blanc	-9039
▁Bosch	-9040
▁Lotto	-9041
▁atsal	-9042
▁atson	-9043
▁aturn	-9044
▁lusiv	-9045
▁raini	-9046
▁rliga	-9047
▁tipsa	-9048
▁ukten	-9049
▁undet	-9050
BT	-9051
CS	-9052
EG	-9053
Gå	-9054
▁Г	-9055
▁▌	-9056
TER	-9057
dex	-9058
emy	-9059
ham	-9060
olo	-9061
rai	-9062
ran	-9063
urt	-9064
vey	-9065
▁AH	-9066
▁FO	-9067
▁GE	-9068
▁GL	-9069
▁GU	-9070
▁Hz	-9071
▁NT	-9072
▁Nr	-9073
▁SN	-9074
▁SR	-9075
▁TN	-9076
▁bp	-9077
▁cd	-9078
▁eB	-9079
▁ij	-9080
▁oz	-9081
råki	-9082
▁(6)	-9083
▁12.	-9084
▁Bry	-9085
▁EPA	-9086
▁GMO	-9087
▁KTH	-9088
▁Kit	-9089
▁Koh	-9090
▁MHz	-9091
▁NSA	-9092
▁PRO	-9093
▁Rob	-9094
▁Sol	-9095
▁Way	-9096
▁afa	-9097
▁cre	-9098
▁dex	-9099
▁erp	-9100
▁erö	-9101
▁fts	-9102
▁gge	-9103
▁hän	-9104
▁idd	-9105
▁igi	-9106
▁kea	-9107
▁köt	-9108
▁lyx	-9109
▁msk	-9110
▁rme	-9111
▁say	-9112
▁spi	-9113
▁tsf	-9114
▁ttl	-9115
▁äft	-9116
▁älv	-9117
▁ärf	-9118
▁Bred	-9119
▁Dame	-9120
▁Grad	-9121
▁Grey	-9122
▁Lawr	-9123
▁MacB	-9124
▁Natt	-9125
▁Nova	-9126
▁TILL	-9127
▁Vera	-9128
▁aram	-9129
▁bird	-9130
▁dejt	-9131
▁eckn	-9132
▁ffär	-9133
▁lemi	-9134
▁lent	-9135
▁link	-9136
▁make	-9137
▁mers	-9138
▁moni	-9139
▁ndor	-9140
▁nutr	-9141
▁paus	-9142
▁ping	-9143
▁pryd	-9144
▁ramm	-9145
▁ship	-9146
▁tejp	-9147
▁visi	-9148
▁ågor	-9149
▁Tråki	-9150
▁alvin	-9151
▁dränk	-9152
▁gissn	-9153
▁heder	-9154
▁låder	-9155
▁ndela	-9156
▁niser	-9157
▁rylar	-9158
▁stran	-9159
▁tadga	-9160
▁tapla	-9161
▁titla	-9162
▁trave	-9163
▁vilke	-9164
FE	-9165
VA	-9166
zu	-9167
▁81	-9168
▁BP	-9169
▁JP	-9170
▁Oz	-9171
▁Ps	-9172
▁Rw	-9173
▁UA	-9174
▁UT	-9175
▁Zh	-9176
▁[2	-9177
▁yg	-9178
▁240	-9179
▁AFP	-9180
▁Age	-9181
▁Aru	-9182
▁BIM	-9183
▁DEN	-9184
▁Mos	-9185
▁SVT	-9186
▁Wel	-9187
▁aft	-9188
▁cif	-9189
▁cup	-9190
▁fåt	-9191
▁how	-9192
▁ljö	-9193
▁lof	-9194
▁rkä	-9195
▁rsl	-9196
▁xan	-9197
▁ydd	-9198
▁ÄLS	-9199
▁Bing	-9200
▁EESK	-9201
▁Mani	-9202
▁Rome	-9203
▁Vall	-9204
▁akre	-9205
▁alfa	-9206
▁ancy	-9207
▁bach	-9208
▁cend	-9209
▁dame	-9210
▁edar	-9211
▁emis	-9212
▁expe	-9213
▁fant	-9214
▁hårf	-9215
▁jäst	-9216
▁kuli	-9217
▁litu	-9218
▁mmor	-9219
▁mort	-9220
▁nork	-9221
▁ocus	-9222
▁oldi	-9223
▁ontr	-9224
▁ranz	-9225
▁tjur	-9226
▁tärn	-9227
▁öljd	-9228
▁Peace	-9229
▁agdad	-9230
▁anari	-9231
▁aring	-9232
▁atera	-9233
▁eremy	-9234
▁etero	-9235
▁finne	-9236
▁gnäll	-9237
▁hotad	-9238
▁modul	-9239
▁mänsk	-9240
▁namma	-9241
▁nerad	-9242
▁nvent	-9243
▁onaco	-9244
▁ravid	-9245
▁råtta	-9246
▁satan	-9247
▁sedel	-9248
▁tella	-9249
▁terap	-9250
▁trali	-9251
▁ummor	-9252
▁vanna	-9253
hh	-9254
STE	-9255
ash	-9256
eni	-9257
▁0.	-9258
▁7:	-9259
▁IA	-9260
▁TA	-9261
▁UD	-9262
▁VA	-9263
▁mw	-9264
▁1.2	-9265
▁25%	-9266
▁40%	-9267
▁;-)	-9268
▁Dam	-9269
▁Ent	-9270
▁GHz	-9271
▁Gru	-9272
▁Guy	-9273
▁IGT	-9274
▁LLC	-9275
▁Mor	-9276
▁Ons	-9277
▁Rea	-9278
▁Roy	-9279
▁Say	-9280
▁Trö	-9281
▁UFC	-9282
▁Use	-9283
▁Vul	-9284
▁Zoo	-9285
▁bac	-9286
▁djö	-9287
▁dug	-9288
▁ekl	-9289
▁gap	-9290
▁gst	-9291
▁jdz	-9292
▁llu	-9293
▁lår	-9294
▁myt	-9295
▁oba	-9296
▁phy	-9297
▁tif	-9298
▁uci	-9299
▁yon	-9300
▁Alab	-9301
▁	-9302
e	-9303
a	-9304
r	-9305
t	-9306
n	-9307
i	-9308
s	-9309
l	-9310
d	-9311
o	-9312
m	-9313
g	-9314
k	-9315
v	-9316
ä	-9317
f	-9318
h	-9319
u	-9320
p	-9321
ö	-9322
å	-9323
.	-9324
c	-9325
b	-9326
j	-9327
,	-9328
y	-9329
D	-9330
S	-9331
0	-9332
M	-9333
A	-9334
-	-9335
V	-9336
1	-9337
E	-9338
H	-9339
F	-9340
I	-9341
T	-9342
2	-9343
B	-9344
x	-9345
?	-9346
J	-9347
P	-9348
N	-9349
O	-9350
:	-9351
K	-9352
"	-9353
C	-9354
)	-9355
G	-9356
L	-9357
R	-9358
(	-9359
”	-9360
!	-9361
U	-9362
w	-9363
5	-9364
3	-9365
9	-9366
4	-9367
6	-9368
8	-9369
7	-9370
–	-9371
W	-9372
/	-9373
z	-9374
Ä	-9375
;	-9376
é	-9377
]	-9378
[	-9379
Y	-9380
%	-9381
'	-9382
Ö	-9383
“	-9384
Å	-9385
&	-9386
X	-9387
’	-9388
Z	-9389
Q	-9390
*	-9391
q	-9392
»	-9393
+	-9394
•	-9395
>	-9396
$	-9397
—	-9398
#	-9399
­	-9400
=	-9401
_	-9402
‘	-9403
<	-9404
®	-9405
Ã	-9406
«	-9407
🙂	-9408
ü	-9409
|	-9410
→	-9411
@	-9412
á	-9413
́	-9414
^	-9415
§	-9416
€	-9417
¤	-9418
·	-9419
←	-9420
°	-9421
â	-9422
Г	-9423
ó	-9424
í	-9425
ø	-9426
£	-9427
¥	-9428
è	-9429
‐	-9430
	-9431
̈	-9432
~	-9433
›	-9434
{	-9435
}	-9436
♥	-9437
¶	-9438
❤	-9439
\	-9440
●	-9441
😉	-9442
`	-9443
ç	-9444
ñ	-9445
à	-9446
−	-9447
ô	-9448
′	-9449
️	-9450
😀	-9451
š	-9452
■	-9453
©	-9454
ā	-9455
æ	-9456
×	-9457
	-9458
ú	-9459
▌	-9460
É	-9461
⁄	-9462
ã	-9463
ë	-9464
ć	-9465
α	-9466
̊	-9467
Â	-9468
„	-9469
û	-9470
±	-9471
Ü	-9472
î	-9473
č	-9474
▸	-9475
✓	-9476
😊	-9477
ï	-9478
ð	-9479
ل	-9480
μ	-9481
►	-9482
≥	-9483
א	-9484
ş	-9485
Ø	-9486
ˮ	-9487
‹	-9488
	-9489
👍	-9490
😍	-9491
ž	-9492
	-9493
ğ	-9494
ł	-9495
β	-9496
و	-9497
ß	-9498
Š	-9499
ي	-9500
ı	-9501
😛	-9502
	-9503
Ó	-9504
ĺ	-9505
ń	-9506
ō	-9507
ا	-9508
م	-9509
ه	-9510
‒	-9511
☺	-9512
♡	-9513
🏼	-9514
¬	-9515
Á	-9516
Î	-9517
õ	-9518
ʹ	-9519
ι	-9520
ạ	-9521
↑	-9522
✔	-9523
🏻	-9524
🙁	-9525
	-9526
ê	-9527
ę	-9528
γ	-9529
θ	-9530
ν	-9531
س	-9532
ع	-9533
ن	-9534
¿	-9535
Ă	-9536
Č	-9537
ī	-9538
œ	-9539
ƒ	-9540
ə	-9541
ς	-9542
σ	-9543
‭	-9544
◄	-9545
★	-9546
民	-9547
	-9548
😂	-9549
😄	-9550
🙏	-9551
	-9552
Æ	-9553
Ç	-9554
Õ	-9555
ū	-9556
ε	-9557
ο	-9558
ρ	-9559
а	-9560
ṛ	-9561
‚	-9562
▶	-9563
◆	-9564
国	-9565
	-9566
	-9567
😃	-9568
😅	-9569
😘	-9570
🤣	-9571
	-9572
Í	-9573
ò	-9574
ù	-9575
ý	-9576
ő	-9577
Ş	-9578
ţ	-9579
Ž	-9580
ǧ	-9581
ʼ	-9582
ί	-9583
δ	-9584
λ	-9585
π	-9586
й	-9587
ص	-9588
ṇ	-9589
ṣ	-9590
†	-9591
‬	-9592
▪	-9593
○	-9594
◾	-9595
☝	-9596
⭐	-9597
中	-9598
國	-9599
	-9600
	-9601
	-9602
👏	-9603
💕	-9604
💙	-9605
💚	-9606
💜	-9607
¡	-9608
¢	-9609
ì	-9610
þ	-9611
ă	-9612
ą	-9613
đ	-9614
ē	-9615
ė	-9616
̃	-9617
Δ	-9618
ά	-9619
τ	-9620
φ	-9621
ω	-9622
К	-9623
е	-9624
и	-9625
р	-9626
ӓ	-9627
د	-9628
ر	-9629
ى	-9630
ḥ	-9631
ẹ	-9632
ἀ	-9633
≤	-9634
◊	-9635
♣	-9636
❑	-9637
❓	-9638
・	-9639
命	-9640
超	-9641
軍	-9642
革	-9643
︎	-9644
💤	-9645
😇	-9646
😢	-9647
😦	-9648
Þ	-9649
ÿ	-9650
Đ	-9651
Ś	-9652
ś	-9653
ż	-9654
ơ	-9655
ư	-9656
ǔ	-9657
ș	-9658
ɑ	-9659
ɛ	-9660
Α	-9661
Β	-9662
Σ	-9663
Ω	-9664
ή	-9665
κ	-9666
χ	-9667
ό	-9668
Д	-9669
О	-9670
д	-9671
ј	-9672
Ґ	-9673
ت	-9674
ج	-9675
ح	-9676
ก	-9677
ร	-9678
უ	-9679
ọ	-9680
‍	-9681
―	-9682
‡	-9683
↵	-9684
∙	-9685
√	-9686
≈	-9687
□	-9688
◦	-9689
☆	-9690
♪	-9691
⚘	-9692
✅	-9693
✎	-9694
✰	-9695
❥	-9696
コ	-9697
ン	-9698
万	-9699
主	-9700
人	-9701
会	-9702
团	-9703
岁	-9704
球	-9705
联	-9706
赛	-9707
足	-9708
눉	-9709
	-9710
	-9711
	-9712
	-9713
	-9714
	-9715
	-9716
	-9717
	-9718
💖	-9719
😋	-9720
😎	-9721
😕	-9722
😜	-9723
😝	-9724
😬	-9725
🙈	-9726
🙌	-9727
🤔	-9728
🤗	-9729
🤯	-9730
	-9731
	-9732
	-9733
À	-9734
Ë	-9735
Ð	-9736
Ñ	-9737
Ò	-9738
Ú	-9739
Ý	-9740
÷	-9741
Ā	-9742
ě	-9743
ħ	-9744
İ	-9745
ķ	-9746
Ł	-9747
ų	-9748
Ż	-9749
ǎ	-9750
ǒ	-9751
ɒ	-9752
ɡ	-9753
ɣ	-9754
ɸ	-9755
ˆ	-9756
ˈ	-9757
ˌ	-9758
ː	-9759
̂	-9760
̶	-9761
Γ	-9762
Ε	-9763
Θ	-9764
Μ	-9765
Π	-9766
Φ	-9767
η	-9768
ύ	-9769
А	-9770
Б	-9771
В	-9772
Е	-9773
И	-9774
Н	-9775
П	-9776
С	-9777
Т	-9778
Э	-9779
Я	-9780
в	-9781
г	-9782
л	-9783
м	-9784
н	-9785
о	-9786
с	-9787
т	-9788
ц	-9789
ы	-9790
ӧ	-9791
ד	-9792
צ	-9793
ة	-9794
ث	-9795
ك	-9796
ڤ	-9797
ނ	-9798
ތ	-9799
ަ	-9800
ާ	-9801
ข	-9802
ต	-9803
ธ	-9804
น	-9805
ย	-9806
ส	-9807
ะ	-9808
ั	-9809
ิ	-9810
ี	-9811
ุ	-9812
เ	-9813
ი	-9814
რ	-9815
ც	-9816
ხ	-9817
Ḥ	-9818
ḳ	-9819
ṅ	-9820
Ṣ	-9821
Ṭ	-9822
ṭ	-9823
ả	-9824
ầ	-9825
ễ	-9826
ệ	-9827
ỉ	-9828
ị	-9829
ờ	-9830
ủ	-9831
ἐ	-9832
‣	-9833
※	-9834
⁃	-9835
₤	-9836
↓	-9837
↩	-9838
⇑	-9839
⇒	-9840
⇨	-9841
∈	-9842
∑	-9843
∞	-9844
⋅	-9845
▲	-9846
▷	-9847
▼	-9848
▽	-9849
▾	-9850
☐	-9851
☒	-9852
☕	-9853
☟	-9854
☭	-9855
♦	-9856
♧	-9857
♫	-9858
✌	-9859
✗	-9860
➜	-9861
➥	-9862
⟵	-9863
⟶	-9864
⦁	-9865
オ	-9866
ニ	-9867
ビ	-9868
リ	-9869
世	-9870
五	-9871
光	-9872
公	-9873
共	-9874
军	-9875
华	-9876
协	-9877
協	-9878
台	-9879
司	-9880
和	-9881
大	-9882
山	-9883
式	-9884
春	-9885
會	-9886
月	-9887
有	-9888
株	-9889
楚	-9890
江	-9891
海	-9892
湾	-9893
灣	-9894
狂	-9895
珞	-9896
界	-9897
社	-9898
秋	-9899
空	-9900
箇	-9901
級	-9902
级	-9903
结	-9904
聯	-9905
臺	-9906
航	-9907
言	-9908
賽	-9909
鈥	-9910
锦	-9911
镜	-9912
际	-9913
限	-9914
集	-9915
낍	-9916
책	-9917
	-9918
	-9919
	-9920
	-9921
	-9922
	-9923
	-9924
	-9925
	-9926
	-9927
	-9928
	-9929
	-9930
	-9931
	-9932
	-9933
	-9934
	-9935
	-9936
	-9937
	-9938
	-9939
	-9940
	-9941
￼	-9942
🇨	-9943
🌞	-9944
🌷	-9945
🌸	-9946
🍀	-9947
🍦	-9948
🍰	-9949
🍳	-9950
🍴	-9951
🎁	-9952
🎈	-9953
🎉	-9954
🎨	-9955
🎶	-9956
🎼	-9957
🏆	-9958
🏽	-9959
🐞	-9960
🐲	-9961
🐴	-9962
🐾	-9963
👁	-9964
👇	-9965
👌	-9966
💔	-9967
💥	-9968
💪	-9969
💰	-9970
📌	-9971
📚	-9972
📷	-9973
🔸	-9974
🖤	-9975
🗞	-9976
😁	-9977
😆	-9978
😔	-9979
😖	-9980
😞	-9981
😠	-9982
😫	-9983
😭	-9984
😳	-9985
😶	-9986
🙆	-9987
🙉	-9988
🤙	-9989
🤛	-9990
🤩	-9991
🥂	-9992
🥇	-9993
🦋	-9994
🦌	-9995
🧡	-9996
