<unk>	0
<s>	0
</s>	0
▁.	-3.47932
▁s	-3.66813
▁a	-3.88438
▁en	-3.90006
▁,	-4.2119
▁och	-4.25234
▁att	-4.27618
▁er	-4.28861
▁i	-4.28874
▁för	-4.35324
▁är	-4.51361
▁r	-4.66804
▁av	-4.70264
▁som	-4.72508
▁t	-4.75693
▁k	-4.80508
▁n	-4.83572
▁till	-4.86182
▁f	-4.94019
▁de	-4.97092
▁på	-4.98964
▁med	-5.07375
▁det	-5.0747
i	-5.08927
▁e	-5.09785
s	-5.16078
▁b	-5.2053
a	-5.31052
▁om	-5.32637
▁et	-5.33462
▁inte	-5.3592
▁p	-5.41818
▁har	-5.42342
▁den	-5.4583
e	-5.46809
▁-	-5.47061
o	-5.52089
▁du	-5.56594
▁S	-5.59964
▁ning	-5.62149
▁ett	-5.63588
▁ut	-5.63843
▁kan	-5.68169
t	-5.72167
▁d	-5.73429
▁be	-5.76358
▁ar	-5.76983
▁0	-5.78096
r	-5.78699
▁1	-5.81262
▁jag	-5.82713
▁na	-5.83628
▁ing	-5.8417
▁?	-5.87647
▁in	-5.8806
▁upp	-5.90315
▁g	-5.90737
n	-5.91161
▁vi	-5.91215
▁Det	-5.94875
▁eller	-5.96348
▁var	-6.01335
▁"	-6.04091
▁m	-6.04884
▁era	-6.05215
l	-6.05264
▁o	-6.07476
▁:	-6.08799
▁A	-6.09125
▁2	-6.09359
▁från	-6.11536
▁pro	-6.1266
▁”	-6.15707
▁(	-6.18392
▁så	-6.20549
▁)	-6.22274
▁M	-6.23583
▁I	-6.27073
▁B	-6.27975
▁ommer	-6.31024
▁över	-6.31177
▁Jag	-6.34667
▁!	-6.35746
▁T	-6.36692
▁nde	-6.37197
▁ska	-6.39552
▁F	-6.40081
▁vara	-6.40176
▁P	-6.43628
▁vä	-6.44781
▁E	-6.46265
▁när	-6.50899
▁K	-6.51931
▁H	-6.542
▁are	-6.54267
▁under	-6.59318
▁man	-6.59514
▁sig	-6.61476
▁9	-6.67317
.	-6.68736
▁sk	-6.68989
▁dig	-6.70259
▁lä	-6.70724
▁ande	-6.70921
▁verk	-6.72167
b	-6.72531
▁han	-6.72897
▁R	-6.73199
▁L	-6.73384
▁alla	-6.74587
▁efter	-6.74905
▁an	-6.75686
▁tid	-6.76207
nvä	-6.76358
▁D	-6.77035
▁ation	-6.78291
▁re	-6.79101
▁Vi	-6.79584
▁het	-6.79842
▁här	-6.80236
▁lig	-6.80985
▁hand	-6.81117
▁ion	-6.82356
▁G	-6.83214
▁där	-6.83244
▁ha	-6.83565
▁men	-6.84037
▁gång	-6.842
sk	-6.84647
▁Den	-6.85855
▁också	-6.85937
▁finns	-6.87441
▁mer	-6.87579
▁genom	-6.87655
f	-6.88073
▁andra	-6.88137
▁se	-6.90187
▁håll	-6.91775
▁din	-6.91948
▁ering	-6.92404
▁3	-6.934
▁För	-6.94518
▁min	-6.94535
▁–	-6.95631
▁än	-6.9567
▁C	-6.95836
▁mig	-6.96005
▁erna	-6.96676
▁år	-6.9676
▁5	-6.96894
▁el	-6.97708
▁kon	-6.98424
▁sin	-6.99533
▁detta	-7.00055
▁bara	-7.01113
▁ng	-7.01926
▁myck	-7.02178
▁N	-7.02789
▁vill	-7.02922
▁V	-7.03708
▁rätt	-7.03713
▁ig	-7.05554
▁ko	-7.05664
▁rsta	-7.06995
▁c	-7.0776
▁4	-7.08475
▁göra	-7.08527
▁vad	-7.08708
▁gör	-7.09563
▁De	-7.09603
fö	-7.10047
▁sätt	-7.10671
▁h	-7.11212
▁dem	-7.12289
▁or	-7.13611
▁En	-7.14528
▁samma	-7.14721
▁mot	-7.14974
▁någon	-7.15354
▁Men	-7.15515
▁8	-7.15766
▁hur	-7.17874
▁vid	-7.17979
▁fram	-7.18361
▁O	-7.19301
▁fö	-7.19814
▁kulle	-7.21058
▁ta	-7.21534
▁6	-7.22142
▁oss	-7.22808
▁denna	-7.23335
▁ner	-7.23425
▁få	-7.23491
▁7	-7.24312
▁ighet	-7.25066
▁Om	-7.2528
d	-7.25577
,	-7.25934
▁dag	-7.26281
▁nder	-7.27567
▁även	-7.28218
▁else	-7.28506
▁nu	-7.28532
▁Du	-7.2865
▁männ	-7.31441
▁bra	-7.33996
▁land	-7.34911
p	-7.35454
k	-7.3624
▁Och	-7.36775
▁/	-7.3699
▁måste	-7.38006
▁J	-7.3839
▁många	-7.38417
▁ge	-7.38715
▁får	-7.3971
▁hade	-7.40013
▁etag	-7.40529
▁något	-7.42064
▁ingar	-7.42894
▁allt	-7.43101
▁al	-7.43572
ehöv	-7.44141
▁hjälp	-7.44368
▁ment	-7.44465
atio	-7.44809
▁jälv	-7.44826
vec	-7.46925
▁dessa	-7.47507
▁pers	-7.47883
▁hä	-7.49371
▁ny	-7.49489
▁vikt	-7.5059
▁inom	-7.5212
▁dukt	-7.52346
▁två	-7.52624
▁möjl	-7.5336
▁y	-7.53652
▁samt	-7.53798
▁orm	-7.53821
▁skor	-7.54418
▁inf	-7.54644
▁åt	-7.54714
▁sina	-7.55628
g	-7.56005
en	-7.57074
▁Han	-7.57219
▁Detta	-7.57329
▁barn	-7.57342
▁utan	-7.57632
▁ellan	-7.57856
▁När	-7.58308
▁ts	-7.58596
▁hon	-7.58722
▁vilk	-7.58942
▁del	-7.59201
▁po	-7.59894
▁mark	-7.60484
▁des	-7.60813
▁grund	-7.60892
▁Hur	-7.61351
▁rlden	-7.61543
▁ju	-7.61702
▁nya	-7.61859
▁då	-7.62043
▁bli	-7.62163
▁åter	-7.62715
▁ystem	-7.62749
▁gt	-7.62931
▁lag	-7.62967
▁Vad	-7.63003
▁ende	-7.63428
stä	-7.63481
▁ni	-7.63639
lig	-7.64353
▁ligen	-7.64842
▁di	-7.64919
▁lös	-7.64949
▁börja	-7.66133
▁ditt	-7.67379
▁res	-7.67726
▁mo	-7.68623
▁stä	-7.68631
▁sam	-7.68642
▁våra	-7.69251
▁gram	-7.69553
▁olika	-7.69796
▁igt	-7.70145
▁vår	-7.70541
▁W	-7.70807
▁ade	-7.72659
▁gift	-7.72821
na	-7.7288
▁hela	-7.73182
▁går	-7.73256
▁säger	-7.73537
v	-7.74816
▁sedan	-7.74945
▁dina	-7.7514
▁cent	-7.75438
▁några	-7.75505
▁deras	-7.76025
▁blir	-7.76145
▁spel	-7.76276
▁varje	-7.76404
▁å	-7.76942
▁liv	-7.77682
▁fall	-7.77774
▁inne	-7.78511
▁hem	-7.79672
▁tjä	-7.7978
▁nda	-7.81314
kriv	-7.81885
▁skapa	-7.82505
▁led	-7.82568
▁mål	-7.82647
▁li	-7.82887
▁stor	-7.83038
▁gå	-7.84564
▁skall	-7.84796
▁tt	-7.84875
▁mat	-7.85512
▁tre	-7.85611
▁erade	-7.85942
▁lltid	-7.86387
▁bland	-7.86915
täll	-7.87029
▁honom	-7.87288
▁all	-7.87392
▁ex	-7.87393
▁as	-7.88017
▁före	-7.88659
▁ingen	-7.8886
▁kunna	-7.89233
▁ty	-7.9004
▁vet	-7.9036
▁Var	-7.90852
▁nt	-7.90862
▁stat	-7.91075
▁egen	-7.91239
▁sitt	-7.9149
▁väl	-7.91559
▁ns	-7.91598
▁erar	-7.92023
▁lats	-7.9203
er	-7.92586
▁fort	-7.92949
▁ger	-7.93221
▁nster	-7.93443
▁säker	-7.93644
▁ioner	-7.93657
▁lever	-7.93754
▁ord	-7.93969
▁l	-7.942
▁	-7.94334
▁komp	-7.94556
▁;	-7.94861
▁rikt	-7.95291
▁Att	-7.95473
▁hitta	-7.95545
▁plats	-7.95588
▁skap	-7.95931
▁väg	-7.96305
▁ser	-7.96505
▁te	-7.96703
▁helt	-7.97924
▁hans	-7.97952
▁henne	-7.981
m	-7.98118
▁nligt	-7.98236
äll	-7.98341
▁dess	-7.98477
▁tro	-7.98681
▁kund	-7.98884
▁följ	-7.99023
▁tekn	-7.99486
▁v	-7.998
▁blem	-7.99952
▁U	-8.00195
▁mitt	-8.00265
▁varit	-8.0051
u	-8.01731
▁Så	-8.02135
▁komm	-8.02587
▁nd	-8.02777
▁form	-8.02902
råd	-8.03191
▁ättre	-8.03274
▁itet	-8.0392
▁verka	-8.03945
▁tar	-8.0411
▁ra	-8.04128
▁tag	-8.04233
▁val	-8.04453
▁enhet	-8.04849
▁mest	-8.05054
▁ör	-8.05212
▁hö	-8.05329
▁sjuk	-8.06137
▁plan	-8.06234
▁bästa	-8.06365
▁annan	-8.06551
▁nen	-8.06749
▁nella	-8.06833
▁dela	-8.07136
▁komma	-8.07411
▁utom	-8.07611
▁web	-8.08323
▁of	-8.08426
▁sp	-8.08499
▁spec	-8.08592
▁bör	-8.08764
▁ans	-8.08985
bju	-8.08993
▁tiden	-8.09107
▁anske	-8.09173
▁örstå	-8.0921
▁tiv	-8.09482
▁rt	-8.096
▁dom	-8.09642
▁...	-8.09816
▁medel	-8.09926
▁organ	-8.10368
▁ung	-8.10473
▁ort	-8.11184
▁mi	-8.11317
▁rbet	-8.1134
▁nnat	-8.11355
▁st	-8.11512
an	-8.11588
tik	-8.11896
▁stånd	-8.11938
▁lite	-8.11993
▁kort	-8.12034
▁rätta	-8.12117
rand	-8.12705
▁sluta	-8.13414
▁tet	-8.13612
▁slut	-8.13639
▁u	-8.13679
▁Ä	-8.13716
ill	-8.1392
▁rbeta	-8.1396
▁ö	-8.13997
▁troll	-8.14027
▁fråga	-8.14362
▁um	-8.14374
▁bort	-8.14665
▁hos	-8.14727
▁hus	-8.14966
▁nvänd	-8.15134
ldri	-8.15157
▁kling	-8.15241
▁arna	-8.15441
▁stora	-8.15595
▁visa	-8.16218
▁exem	-8.16401
▁Inte	-8.16479
▁kla	-8.16764
▁kraft	-8.17038
▁nästa	-8.17873
▁Med	-8.18512
▁ändr	-8.18633
▁vanli	-8.18751
▁stöd	-8.18875
▁kom	-8.1896
▁it	-8.19085
▁Dess	-8.1912
▁vatt	-8.19137
▁amilj	-8.19147
▁vinn	-8.19198
▁hög	-8.19296
▁bo	-8.19572
▁namn	-8.19855
▁grupp	-8.1992
▁föra	-8.20077
▁and	-8.20328
▁lång	-8.20578
▁flera	-8.20824
▁saker	-8.21185
▁Gud	-8.21586
▁baka	-8.21751
▁Ett	-8.21814
▁tryck	-8.22288
▁blev	-8.22462
▁tänk	-8.22561
▁innan	-8.22647
ar	-8.22745
▁hel	-8.23242
▁nä	-8.23278
▁nad	-8.24028
▁risk	-8.2409
▁[	-8.24124
▁På	-8.24211
▁god	-8.24379
▁Har	-8.24573
▁tlig	-8.24919
▁huvud	-8.25038
▁str	-8.2534
▁erad	-8.25996
▁folk	-8.26114
▁tyck	-8.26285
▁ne	-8.26416
▁giv	-8.26615
▁natur	-8.26747
▁älska	-8.26816
▁lämna	-8.26881
▁kap	-8.27046
▁tror	-8.2719
▁amhet	-8.27215
▁]	-8.2736
▁gjord	-8.27394
▁ur	-8.27573
sä	-8.2767
▁hist	-8.27727
▁ull	-8.27851
▁to	-8.27946
▁'	-8.28631
▁by	-8.28765
▁der	-8.28828
▁bild	-8.29365
▁fatta	-8.29429
▁igen	-8.29456
▁EU	-8.30008
▁tala	-8.30033
▁aren	-8.30128
▁“	-8.30365
▁nal	-8.30559
▁kropp	-8.30589
▁stö	-8.30956
▁ligg	-8.31164
▁Alla	-8.31296
▁delar	-8.31307
▁miljö	-8.31452
▁ku	-8.31806
▁miss	-8.32552
▁värde	-8.32731
▁igare	-8.33109
▁öka	-8.33119
c	-8.33195
▁ndast	-8.332
kono	-8.33462
▁milj	-8.33487
▁styr	-8.33506
▁us	-8.33592
▁månad	-8.33697
▁slag	-8.33774
▁vänta	-8.33778
▁jekt	-8.33929
▁engar	-8.33967
▁fick	-8.3412
▁erson	-8.34206
▁liga	-8.34216
j	-8.34918
▁gg	-8.35043
▁Är	-8.35286
▁fri	-8.35589
▁värd	-8.35676
▁nivå	-8.35757
▁punkt	-8.35786
▁dagar	-8.3594
▁ho	-8.35984
▁stru	-8.35997
▁enter	-8.36261
ärs	-8.36321
▁hålla	-8.36352
▁ard	-8.36635
▁data	-8.3677
▁lika	-8.36803
▁Hon	-8.37027
▁ofta	-8.37549
▁kunde	-8.3764
▁Där	-8.38084
▁lle	-8.38399
li	-8.38767
▁ngre	-8.3891
▁do	-8.39069
▁tter	-8.3914
ffek	-8.39315
▁ella	-8.39371
▁rbete	-8.39588
▁både	-8.39682
▁ned	-8.4011
▁ndra	-8.40477
ve	-8.40514
unkt	-8.40608
▁aktiv	-8.40845
▁ocial	-8.40916
▁ej	-8.40929
▁gjort	-8.40957
▁regi	-8.40993
▁bok	-8.4103
▁mind	-8.41055
▁svara	-8.41211
▁leva	-8.41532
▁Lä	-8.41614
▁ga	-8.41674
▁stad	-8.41683
▁The	-8.41695
▁at	-8.41805
▁säga	-8.41859
▁tio	-8.41909
fter	-8.42052
▁Man	-8.42153
▁spela	-8.42286
▁USA	-8.42797
▁ändra	-8.4319
▁Som	-8.43196
▁sy	-8.43234
▁da	-8.43333
▁ntal	-8.43604
tag	-8.43727
▁hjär	-8.44048
▁ldigt	-8.44409
▁redan	-8.44498
▁besök	-8.44917
▁idag	-8.45139
elat	-8.45197
▁jord	-8.45675
tyd	-8.45733
▁mina	-8.45798
▁heten	-8.45809
▁w	-8.45933
▁teck	-8.46094
▁gäng	-8.46194
▁ster	-8.46249
▁dock	-8.46285
nklu	-8.46478
bil	-8.46519
▁lev	-8.46717
ansk	-8.46726
▁änner	-8.47076
▁tyg	-8.47608
tud	-8.47859
▁lö	-8.47939
▁trans	-8.47967
ung	-8.48009
▁står	-8.4807
▁uropa	-8.48385
▁fast	-8.48479
▁vissa	-8.48584
sat	-8.48779
▁Nu	-8.48993
▁Här	-8.49252
▁ly	-8.49273
▁träff	-8.49371
▁nlig	-8.49398
▁emot	-8.49759
▁skt	-8.49805
▁stå	-8.50322
▁rodu	-8.50553
▁iska	-8.50723
hä	-8.51055
▁Pro	-8.5127
▁ier	-8.51339
le	-8.51457
▁mma	-8.51466
▁rum	-8.51471
▁fel	-8.51578
▁son	-8.51965
▁cess	-8.52158
▁flyg	-8.52723
▁vis	-8.53047
▁nner	-8.53151
▁nergi	-8.53528
vä	-8.53797
▁träd	-8.53848
kä	-8.54375
▁mmen	-8.54487
▁tera	-8.54705
▁förb	-8.5485
▁stnad	-8.54877
▁tgärd	-8.54924
nd	-8.55322
▁lems	-8.55657
▁enda	-8.55739
▁drag	-8.5596
▁täll	-8.56
▁rik	-8.56011
y	-8.56024
▁inans	-8.56061
▁Under	-8.56266
▁vårt	-8.56284
▁visar	-8.56319
▁bygg	-8.56377
rbet	-8.5638
▁män	-8.56543
▁Se	-8.5657
▁isk	-8.56608
▁kö	-8.56758
▁pre	-8.5685
ssio	-8.57001
?	-8.57051
▁rågor	-8.57088
▁bil	-8.57522
▁livet	-8.57737
▁typ	-8.57765
▁ry	-8.57971
▁vers	-8.58013
▁fem	-8.58153
▁fler	-8.58431
▁iga	-8.58896
▁cy	-8.59248
▁Y	-8.59473
▁mö	-8.59606
sera	-8.59667
▁ting	-8.59987
)	-8.60077
▁sök	-8.60285
▁steg	-8.6049
▁nytt	-8.60596
▁lycka	-8.60694
▁nebär	-8.60703
▁tog	-8.60754
▁nds	-8.60763
▁Co	-8.60928
▁lik	-8.61064
▁nöd	-8.61239
▁nvest	-8.61309
▁råd	-8.61344
▁ktiv	-8.61378
▁gener	-8.61488
▁fatt	-8.61642
▁klara	-8.61674
▁mynd	-8.61675
meri	-8.61714
▁livs	-8.61972
▁ktion	-8.62024
▁pri	-8.62033
▁ultat	-8.62085
▁ets	-8.6211
▁nära	-8.6225
▁iv	-8.62321
▁veten	-8.62387
▁jus	-8.62403
▁eslut	-8.62469
▁ri	-8.62577
▁tv	-8.6283
▁jobb	-8.63229
▁rekt	-8.63249
▁mu	-8.63455
▁sol	-8.6367
▁reg	-8.63746
▁driv	-8.63986
▁amman	-8.64052
▁orsak	-8.64148
▁tisk	-8.64149
appo	-8.64277
▁konst	-8.64363
▁mp	-8.64622
▁törre	-8.64664
▁såg	-8.64721
ra	-8.64909
▁lära	-8.64929
▁nskap	-8.64938
▁lesta	-8.6496
urop	-8.65003
▁rö	-8.65043
:	-8.65184
▁lek	-8.65309
▁lägg	-8.6541
sio	-8.6551
ktio	-8.6553
▁nog	-8.65604
▁hets	-8.65886
▁su	-8.65909
▁nera	-8.66422
▁syn	-8.66479
▁runt	-8.66506
▁Be	-8.66547
▁bi	-8.66592
▁sak	-8.66708
▁logi	-8.6697
▁stark	-8.67192
▁ad	-8.67361
▁dagen	-8.67377
▁part	-8.6746
▁jälva	-8.67606
▁vecka	-8.67613
veri	-8.67766
ti	-8.67789
▁kilt	-8.67923
▁öppna	-8.6795
▁ara	-8.68079
▁erial	-8.6815
▁ens	-8.6817
▁vänd	-8.68225
▁llet	-8.68311
▁gick	-8.68358
▁film	-8.68486
▁nads	-8.6854
▁röst	-8.68915
▁naste	-8.68919
▁tu	-8.68962
▁lu	-8.69508
▁konto	-8.69734
te	-8.69795
▁sex	-8.69889
▁ännu	-8.70066
▁hör	-8.70076
▁Ch	-8.7021
▁ala	-8.70328
▁ter	-8.70368
▁hant	-8.70435
akti	-8.70461
▁märk	-8.70557
▁geme	-8.70571
▁&	-8.70719
▁kvar	-8.70791
▁passa	-8.70834
▁ifrån	-8.70939
▁resa	-8.71009
▁pres	-8.71118
▁anti	-8.71226
led	-8.71552
amar	-8.71602
▁dning	-8.71608
grä	-8.72106
▁söker	-8.72218
▁Kan	-8.72231
▁djur	-8.72236
▁regl	-8.72266
▁sidan	-8.72273
vali	-8.72381
▁olit	-8.72543
▁tion	-8.72784
▁släpp	-8.72802
▁esign	-8.72857
▁ings	-8.73038
▁test	-8.73122
▁bolag	-8.73211
▁tta	-8.73256
▁rad	-8.73496
▁nkelt	-8.73534
▁hund	-8.7363
▁port	-8.73656
▁eras	-8.73705
▁rest	-8.73724
▁behov	-8.73831
▁10	-8.74337
h	-8.74429
▁nativ	-8.74471
▁rld	-8.74478
▁hy	-8.74518
▁ärlek	-8.74549
▁sida	-8.74668
▁nline	-8.7487
▁elser	-8.74871
▁satt	-8.74902
▁ionen	-8.75002
▁In	-8.75117
▁enare	-8.75264
▁örsök	-8.75293
▁reko	-8.75348
▁gel	-8.75356
▁tur	-8.75357
▁skö	-8.75778
▁bruk	-8.75803
redj	-8.75984
▁ilder	-8.76123
▁små	-8.76177
ä	-8.764
▁lokal	-8.76466
▁språk	-8.76514
▁met	-8.76609
▁året	-8.76615
ven	-8.76624
▁musik	-8.76752
▁idigt	-8.76793
▁misk	-8.76987
▁skydd	-8.77042
▁livit	-8.77503
▁nst	-8.77622
▁ytte	-8.77674
▁färg	-8.77831
▁%	-8.77899
▁kar	-8.77949
▁’	-8.77997
▁reci	-8.78055
▁lätt	-8.78113
▁ton	-8.78191
▁fått	-8.78344
▁nell	-8.78716
▁tress	-8.78908
▁bero	-8.78959
▁vilka	-8.79151
▁ndigt	-8.79198
▁leda	-8.79275
▁alter	-8.79301
▁död	-8.79306
▁metod	-8.79387
w	-8.79663
in	-8.79892
▁jäm	-8.80024
far	-8.80482
▁kring	-8.80513
▁inget	-8.8094
▁Ö	-8.80974
▁sälj	-8.80977
▁avtal	-8.81025
▁växt	-8.8112
▁eiska	-8.81164
▁per	-8.81164
ch	-8.81172
▁roll	-8.8137
▁länge	-8.81427
▁fyll	-8.81537
▁krä	-8.81615
▁avs	-8.8171
▁isera	-8.81723
▁icke	-8.81753
▁låt	-8.81808
▁sent	-8.81934
▁gilla	-8.81985
▁eriod	-8.82034
▁klart	-8.82285
▁ättra	-8.82297
▁on	-8.82652
ntre	-8.83126
▁es	-8.83148
vinn	-8.83201
ydli	-8.83294
▁lora	-8.83339
▁minut	-8.83425
▁fyra	-8.83808
▁ber	-8.83962
▁tack	-8.84268
▁veta	-8.84362
▁Ty	-8.84469
▁gtvis	-8.84764
▁naden	-8.85275
▁känna	-8.85289
▁anta	-8.85345
▁borg	-8.85346
tal	-8.8541
▁rep	-8.85677
▁komst	-8.85796
▁ä	-8.85824
▁krav	-8.8592
▁pi	-8.86003
▁läsa	-8.86355
▁relse	-8.86369
▁vård	-8.86464
▁le	-8.86577
▁vak	-8.86616
▁grad	-8.86685
▁id	-8.86775
▁ins	-8.86807
▁sen	-8.87125
va	-8.87278
▁fil	-8.87339
▁rande	-8.87459
ktig	-8.87502
▁rågan	-8.87548
▁ell	-8.87591
llmä	-8.87675
▁titta	-8.87807
▁gräns	-8.88096
▁vensk	-8.88312
▁tning	-8.88509
▁välja	-8.88512
▁ed	-8.88588
▁x	-8.8875
▁nga	-8.88921
▁låg	-8.89268
▁lex	-8.89291
▁sse	-8.89322
icka	-8.89633
▁mod	-8.89642
▁händ	-8.89776
▁ögon	-8.9002
▁nter	-8.90195
▁bak	-8.90352
▁indu	-8.90439
▁oppas	-8.90472
▁ost	-8.90682
▁änsk	-8.90831
▁tudie	-8.90972
▁elare	-8.90988
▁tal	-8.91329
▁sett	-8.91414
▁taden	-8.9149
▁års	-8.91708
▁Wi	-8.91752
▁sade	-8.91826
▁ndas	-8.9189
dig	-8.9198
▁kalla	-8.92066
▁klass	-8.92143
▁dia	-8.92165
▁vilja	-8.92212
▁koll	-8.92439
▁talet	-8.92523
▁the	-8.92531
▁örs	-8.92547
▁snitt	-8.92551
▁köpa	-8.92628
▁Vilk	-8.92635
▁Upp	-8.92905
▁ådana	-8.93026
▁rike	-8.93116
▁stort	-8.9313
ic	-8.93225
▁llkor	-8.93247
▁rist	-8.93292
▁Mo	-8.93432
▁via	-8.93444
▁par	-8.93614
▁jä	-8.93861
▁co	-8.94079
▁rnet	-8.94142
▁kydda	-8.94496
▁sive	-8.94505
▁prata	-8.94602
▁stu	-8.94611
▁ultur	-8.94937
▁läs	-8.94991
▁000	-8.95118
▁art	-8.95146
▁hind	-8.95209
▁ffekt	-8.95236
▁skatt	-8.95248
▁rör	-8.95271
▁dare	-8.9531
▁ste	-8.95425
▁tell	-8.95479
▁blod	-8.95614
▁båda	-8.95649
▁dy	-8.95692
▁vand	-8.95724
▁egna	-8.95954
▁ategi	-8.96042
▁pati	-8.9609
▁Ut	-8.96173
▁und	-8.96205
▁krig	-8.9623
▁häls	-8.96266
▁etala	-8.9632
▁nabbt	-8.96386
▁ngen	-8.9648
▁lla	-8.96628
▁liten	-8.96668
▁io	-8.96748
▁pris	-8.96771
▁ck	-8.96965
edan	-8.97119
▁Ja	-8.97188
▁Mång	-8.9734
▁alt	-8.97711
▁inner	-8.97925
▁mä	-8.97933
▁fokus	-8.9804
▁vinna	-8.98269
▁Min	-8.98272
▁»	-8.98404
▁univ	-8.98742
▁trä	-8.98764
▁ist	-8.99173
▁ria	-8.99259
▁dater	-8.99327
▁smä	-8.99337
▁rn	-8.99358
▁skada	-8.99533
▁Då	-8.99599
▁kväll	-8.99823
▁först	-8.99836
▁lltså	-9.00034
▁exp	-9.00085
▁bygga	-9.00202
▁ond	-9.00309
▁rde	-9.0034
▁enlig	-9.0047
▁ue	-9.00516
▁tverk	-9.00539
▁svårt	-9.00556
▁erat	-9.00566
▁räkna	-9.00616
▁ro	-9.00813
▁ay	-9.00943
▁rivat	-9.00974
▁sikt	-9.01043
▁nna	-9.01074
▁ljus	-9.01269
▁örord	-9.01388
▁bio	-9.01466
▁förs	-9.01484
▁Ca	-9.01489
▁est	-9.01538
▁itua	-9.01574
▁kt	-9.01762
▁mängd	-9.02072
▁lista	-9.02099
▁lar	-9.02109
▁iella	-9.02263
▁app	-9.02274
▁möte	-9.02332
▁tjäna	-9.02415
tisk	-9.02652
or	-9.02688
▁Fi	-9.02804
▁timm	-9.02885
▁örjan	-9.02912
▁helst	-9.03017
▁ork	-9.0306
▁asino	-9.03089
▁rna	-9.03147
▁20	-9.03238
▁dell	-9.03283
nabb	-9.03296
▁Å	-9.03613
▁fiera	-9.03767
äckl	-9.03792
▁bry	-9.03829
kill	-9.04069
lå	-9.04086
▁andet	-9.04296
▁titut	-9.04309
▁bete	-9.04375
▁fakt	-9.04504
▁up	-9.04815
▁tj	-9.04924
▁bar	-9.0503
▁ant	-9.05151
▁märke	-9.05452
▁ntakt	-9.05565
▁hell	-9.05586
istr	-9.05739
▁ack	-9.05744
▁rvice	-9.05801
▁morg	-9.05827
▁ktur	-9.0586
egr	-9.05926
▁Guds	-9.06179
▁väx	-9.06211
▁New	-9.06365
▁inga	-9.06372
▁långt	-9.06417
▁*	-9.06755
▁tom	-9.0676
▁norm	-9.06839
▁täck	-9.07023
lob	-9.07062
▁sista	-9.07079
▁nhet	-9.07152
▁eln	-9.07176
▁Allt	-9.07275
▁ätt	-9.07512
fini	-9.07588
▁ref	-9.07796
▁bank	-9.07893
red	-9.07902
▁dra	-9.07931
▁öp	-9.08003
▁pass	-9.08044
▁svar	-9.08068
▁valt	-9.08082
▁la	-9.08212
ng	-9.0831
ft	-9.08349
ntas	-9.08354
▁viss	-9.08483
▁lo	-9.08619
▁rd	-9.08694
▁ja	-9.08735
▁licka	-9.08811
▁känd	-9.08845
▁inför	-9.09044
▁borde	-9.09259
ommu	-9.09281
▁ital	-9.09318
▁dö	-9.0942
ätt	-9.09575
▁log	-9.0958
▁minst	-9.09647
▁ggnad	-9.09673
▁äldr	-9.09688
▁gamla	-9.09702
▁sådan	-9.09756
▁demo	-9.09784
ig	-9.09793
▁gaste	-9.09906
▁förut	-9.09931
▁döda	-9.09936
▁anför	-9.09945
▁ses	-9.10089
▁äker	-9.10104
elef	-9.10193
▁trän	-9.10335
▁önska	-9.10386
▁ator	-9.10421
nlä	-9.10524
▁prov	-9.10526
▁ident	-9.10545
▁perf	-9.10697
▁ndare	-9.108
▁mån	-9.10828
▁hopp	-9.10864
▁bro	-9.10901
▁möt	-9.10959
▁fru	-9.11216
▁sju	-9.1136
▁rolig	-9.11407
ivid	-9.116
▁grav	-9.11853
▁haft	-9.11949
▁saml	-9.12055
▁nien	-9.12179
▁ve	-9.12268
▁hälsa	-9.12332
▁offe	-9.12332
▁stall	-9.12368
▁dålig	-9.12387
▁text	-9.12434
▁stand	-9.12458
▁ien	-9.12487
▁ndig	-9.12521
▁ca	-9.12524
▁30	-9.12581
▁ror	-9.12592
man	-9.12683
▁mus	-9.12696
▁ritt	-9.12912
▁brott	-9.13054
▁pelar	-9.13066
▁•	-9.13105
▁ru	-9.13154
▁ent	-9.13287
▁video	-9.13373
▁lam	-9.13524
▁trakt	-9.13565
▁blogg	-9.13618
▁fanns	-9.1371
▁amma	-9.13728
▁vän	-9.13772
▁va	-9.13792
amfö	-9.13895
▁likt	-9.1396
▁öring	-9.1414
▁bud	-9.14306
▁ublic	-9.14307
▁rakt	-9.14331
▁såsom	-9.14588
▁ordn	-9.14708
▁värld	-9.14736
▁vem	-9.14761
▁em	-9.1482
▁ati	-9.14846
▁ul	-9.1502
▁off	-9.15133
▁idé	-9.15262
▁grat	-9.15295
▁gav	-9.15372
▁syfte	-9.1543
▁Ingen	-9.15437
▁Av	-9.1548
▁tvi	-9.15528
▁mmel	-9.15536
▁lägga	-9.15551
▁sats	-9.15605
▁Q	-9.15792
▁Ni	-9.15793
▁högre	-9.15794
▁ologi	-9.15827
▁ommit	-9.1613
▁djup	-9.16131
▁berg	-9.16139
▁hemma	-9.16151
▁nsvar	-9.16308
onsu	-9.16321
▁Jesus	-9.16651
amla	-9.16681
▁vack	-9.16696
▁tri	-9.1678
▁lic	-9.16784
▁beta	-9.16797
▁serie	-9.16805
▁ock	-9.16892
▁klar	-9.16907
▁akta	-9.17026
▁ffär	-9.17115
▁krit	-9.17355
▁antör	-9.17368
▁Låt	-9.17374
▁måga	-9.17457
▁stans	-9.17638
▁domar	-9.17717
stig	-9.17731
▁iellt	-9.17751
▁dröm	-9.17777
▁meter	-9.1778
▁röd	-9.17937
▁sera	-9.17939
▁lopp	-9.18084
▁gital	-9.18115
▁ysi	-9.18138
▁tarta	-9.18157
irek	-9.18245
▁ey	-9.18283
▁aste	-9.18292
▁ic	-9.18369
▁regel	-9.18387
▁ville	-9.18395
▁ange	-9.18469
▁ransk	-9.18559
▁luti	-9.18669
▁Elle	-9.18735
▁j	-9.18789
▁chef	-9.18821
▁foto	-9.18948
▁öcker	-9.18978
▁mmar	-9.19058
▁itta	-9.19088
▁bund	-9.19481
▁spe	-9.19483
▁gått	-9.1955
▁säkra	-9.19606
▁vägen	-9.19623
▁edel	-9.19716
▁lass	-9.19887
▁veck	-9.19927
rus	-9.19976
döm	-9.20043
▁stol	-9.2005
▁dator	-9.20091
▁litik	-9.20104
▁ök	-9.20154
▁krift	-9.20162
▁uppnå	-9.20343
▁välj	-9.20391
▁srael	-9.20526
▁sign	-9.20579
▁glö	-9.20751
▁ker	-9.20794
▁allas	-9.20811
▁lytta	-9.20812
▁räver	-9.20896
▁kamp	-9.20949
▁Sam	-9.20974
▁uts	-9.21019
▁rec	-9.21027
it	-9.21053
▁tänka	-9.21115
▁total	-9.21117
▁Vä	-9.21211
▁last	-9.21286
▁redo	-9.213
▁äta	-9.21547
▁Re	-9.21636
▁mobil	-9.21639
▁läk	-9.21727
▁itter	-9.21769
▁inal	-9.21823
▁sätta	-9.21829
▁akti	-9.21918
▁uari	-9.22118
▁enkla	-9.22155
▁eende	-9.2219
▁mna	-9.22219
▁hav	-9.22327
▁fika	-9.22352
oku	-9.22503
ori	-9.22574
▁rim	-9.22712
▁Vem	-9.22746
▁Varj	-9.22854
▁äkt	-9.22862
▁nå	-9.22889
▁lut	-9.22896
▁emang	-9.2304
▁prof	-9.23276
▁kolan	-9.2334
▁visn	-9.23357
▁erens	-9.23452
▁Uni	-9.23648
de	-9.2386
▁heter	-9.23937
▁vån	-9.24133
enom	-9.24162
▁luft	-9.24282
▁cell	-9.24588
▁Ha	-9.2465
▁kare	-9.24694
▁dde	-9.24745
▁tälla	-9.24881
▁uella	-9.24935
▁Kom	-9.24955
▁ions	-9.25078
site	-9.2511
▁mt	-9.25265
för	-9.25356
▁lett	-9.25443
▁krävs	-9.25589
▁rs	-9.2571
em	-9.25946
▁ring	-9.25981
▁th	-9.2623
▁ou	-9.26366
lv	-9.26379
▁ust	-9.26399
▁köp	-9.26497
▁lands	-9.2666
▁dis	-9.2677
▁jobba	-9.26824
ac	-9.26849
▁mini	-9.26903
▁extra	-9.2697
▁åren	-9.27105
▁maj	-9.27287
▁un	-9.27342
▁berö	-9.2737
▁ch	-9.27371
▁ap	-9.274
▁ute	-9.27414
▁Vill	-9.27467
rspr	-9.275
▁färd	-9.27583
▁ool	-9.27704
▁sagt	-9.27764
▁post	-9.27786
▁hu	-9.2788
▁vo	-9.27889
▁natt	-9.27902
▁ön	-9.27948
▁delen	-9.27959
▁ill	-9.28065
▁15	-9.28126
▁grip	-9.28154
lä	-9.28175
▁dec	-9.28193
▁ålder	-9.28295
▁gy	-9.28335
▁jö	-9.28398
▁redit	-9.2844
▁sten	-9.28537
▁mamma	-9.28559
▁ända	-9.28673
▁ladd	-9.28714
▁Sk	-9.28751
▁ägg	-9.28755
pir	-9.28825
▁my	-9.28947
▁limat	-9.28961
▁typer	-9.2912
▁gre	-9.29171
ikat	-9.29227
▁lån	-9.2929
▁Vid	-9.29308
itio	-9.29324
▁kost	-9.29383
▁urang	-9.29644
▁säkr	-9.29648
▁motor	-9.29656
▁lutet	-9.29749
▁ändå	-9.29764
▁makt	-9.29934
▁ram	-9.30196
bb	-9.30239
▁agera	-9.30246
▁perat	-9.30273
▁följa	-9.30467
▁kal	-9.30475
▁fullt	-9.30638
▁glad	-9.30692
rt	-9.30692
▁skol	-9.30737
▁tidig	-9.31016
▁rämst	-9.31159
▁genh	-9.3119
▁ncip	-9.31364
▁sch	-9.31381
▁bäst	-9.31482
▁rot	-9.31604
▁nät	-9.31873
▁Kina	-9.31908
▁bidra	-9.31984
▁rtera	-9.32083
▁brä	-9.32092
▁is	-9.32134
▁ämp	-9.32321
▁orit	-9.32446
▁tas	-9.32581
▁Från	-9.32803
▁nupp	-9.32855
▁övr	-9.32856
atte	-9.32911
▁batt	-9.33109
▁gärn	-9.3323
▁oogle	-9.33323
▁rihet	-9.33329
▁född	-9.33333
▁rda	-9.33341
▁parti	-9.33396
▁ac	-9.33436
radi	-9.3347
▁huset	-9.33568
▁snart	-9.3359
▁ommar	-9.33673
▁ihåg	-9.33846
▁Ma	-9.33875
▁vare	-9.3391
▁ark	-9.34
▁gamm	-9.34295
▁rer	-9.34499
▁match	-9.34543
▁Stor	-9.34728
▁sitiv	-9.34793
▁ial	-9.34806
▁sakna	-9.34886
▁stil	-9.35129
▁terr	-9.35186
nnov	-9.35214
▁kriva	-9.35373
▁nsa	-9.3545
▁sti	-9.35497
rtne	-9.35615
▁orna	-9.35722
▁nande	-9.35779
▁ssna	-9.35779
▁mera	-9.3589
▁ång	-9.35952
▁ås	-9.3605
▁ina	-9.36263
lekt	-9.36481
▁deln	-9.36488
▁vux	-9.36504
▁mstol	-9.36608
!	-9.36609
▁ras	-9.36653
ift	-9.36933
▁Ge	-9.36935
▁ppen	-9.3697
▁gud	-9.37001
▁event	-9.37006
▁pänn	-9.37043
▁mar	-9.37138
▁ll	-9.37298
▁ämpa	-9.37343
▁ancer	-9.37378
ik	-9.37435
▁låta	-9.37484
▁mass	-9.37671
▁ism	-9.37713
å	-9.378
om	-9.37876
▁bord	-9.37887
▁ib	-9.379
rk	-9.37907
▁ening	-9.37936
▁lön	-9.38137
▁dent	-9.38197
▁euro	-9.3829
▁fot	-9.38306
▁eget	-9.38376
▁Ju	-9.38387
▁bart	-9.38397
▁läge	-9.3852
umm	-9.38607
▁ringa	-9.38689
▁Tack	-9.38704
▁ab	-9.38837
▁ka	-9.38865
▁ak	-9.38893
▁anna	-9.38953
▁fälle	-9.39042
▁stod	-9.39149
▁ast	-9.39149
▁tent	-9.39514
▁begär	-9.39581
ccep	-9.39686
▁lust	-9.39759
▁hämt	-9.39783
▁kret	-9.39816
▁ublik	-9.39901
▁dande	-9.40005
▁gsta	-9.4006
▁lock	-9.40076
▁grepp	-9.40124
▁topp	-9.40166
▁mråde	-9.40167
▁mät	-9.40171
▁kämpa	-9.40329
▁ehövs	-9.40355
▁gra	-9.40388
▁tanna	-9.40483
sök	-9.40514
▁spekt	-9.4056
▁kapa	-9.40646
▁trö	-9.40666
▁rning	-9.40758
▁spår	-9.40837
▁äkert	-9.40898
jut	-9.40902
▁ellt	-9.40908
▁gen	-9.413
▁amb	-9.41438
▁age	-9.41482
▁nne	-9.41519
▁forma	-9.4152
▁bor	-9.41588
▁itt	-9.41699
▁plac	-9.41837
▁lin	-9.41923
▁ff	-9.42005
▁arnen	-9.42064
med	-9.42064
▁grön	-9.42071
▁bakom	-9.42157
ku	-9.4224
▁trol	-9.42253
▁rädda	-9.42434
▁sym	-9.42466
bar	-9.42761
håll	-9.4279
▁net	-9.42823
▁pelet	-9.42829
▁kor	-9.42895
▁dat	-9.43158
▁gott	-9.43193
▁bas	-9.43339
▁temp	-9.43413
▁litet	-9.43485
▁+	-9.43489
▁bu	-9.43559
▁arm	-9.43571
▁gefär	-9.43634
▁ress	-9.43748
▁ustr	-9.43836
▁rien	-9.43953
▁Bo	-9.44159
▁sm	-9.44374
▁nellt	-9.44384
▁lid	-9.44454
▁döm	-9.44552
▁skild	-9.4459
▁rand	-9.44878
▁äsong	-9.44913
▁hörig	-9.44937
▁lera	-9.45014
▁ret	-9.45329
▁ål	-9.45338
▁Cha	-9.45472
▁spara	-9.45545
▁psy	-9.45546
▁ky	-9.45567
▁ndel	-9.45584
▁boken	-9.45671
esul	-9.45709
▁for	-9.45811
▁änsl	-9.45905
▁kam	-9.46044
▁rese	-9.46199
▁ordon	-9.46362
▁etalj	-9.46451
▁iet	-9.4646
▁ollar	-9.46674
änk	-9.46865
▁fic	-9.46877
▁tills	-9.46897
▁ild	-9.47069
▁våld	-9.47161
▁Över	-9.47165
▁llda	-9.47192
▁Idag	-9.47228
▁stra	-9.47324
▁ördel	-9.47326
▁kvens	-9.47342
▁iva	-9.47381
▁sel	-9.47469
▁tälle	-9.47633
al	-9.47711
▁utgör	-9.47776
▁akt	-9.47938
▁sidor	-9.48038
▁innas	-9.48092
▁äldre	-9.48141
▁Ta	-9.48189
▁X	-9.48429
▁låter	-9.48439
▁ren	-9.48442
▁fjä	-9.48473
▁samb	-9.48485
▁kurs	-9.48555
▁md	-9.48646
▁100	-9.48674
▁fi	-9.48739
rera	-9.48904
▁ong	-9.48979
imma	-9.49056
▁ce	-9.49203
▁gara	-9.49249
▁opt	-9.49285
▁märkt	-9.49331
▁12	-9.49422
▁orts	-9.49438
▁50	-9.49493
la	-9.49678
▁träng	-9.49682
▁amp	-9.49683
▁goda	-9.49724
folk	-9.49799
isku	-9.49952
▁kända	-9.49964
▁tanke	-9.49981
▁red	-9.49995
▁avse	-9.50085
ästa	-9.50185
▁ekväm	-9.50323
▁etter	-9.50374
▁mäss	-9.50455
▁änd	-9.50616
▁lit	-9.50673
▁ljud	-9.50747
▁ood	-9.50792
▁ttn	-9.50803
▁John	-9.50839
▁yckl	-9.5085
▁ihop	-9.50859
▁Ko	-9.50872
▁knapp	-9.50943
▁trot	-9.50988
▁kris	-9.5112
▁ndar	-9.51153
enti	-9.51157
▁ovan	-9.51164
▁mörk	-9.51244
▁os	-9.51307
▁issa	-9.51308
▁polis	-9.51558
▁sjö	-9.51816
▁bad	-9.51872
▁skäl	-9.51896
▁arki	-9.51918
▁Viss	-9.51962
bso	-9.52064
umme	-9.52074
▁tider	-9.52312
▁mare	-9.52314
▁kyl	-9.52393
▁takta	-9.52469
▁ose	-9.52473
▁värt	-9.52476
▁kons	-9.5256
▁tra	-9.52686
▁Frank	-9.52845
▁unio	-9.52929
▁ycke	-9.52946
▁tit	-9.52986
▁ros	-9.5301
▁imp	-9.53019
▁fulla	-9.53185
▁otter	-9.53238
▁krati	-9.53246
▁Din	-9.53334
▁EG	-9.53534
▁änsla	-9.53612
▁mmer	-9.53773
▁uper	-9.53816
▁ättet	-9.53879
▁Di	-9.53914
▁kyld	-9.53918
▁nov	-9.53993
gag	-9.54127
▁tor	-9.54135
▁åde	-9.54194
▁lay	-9.5423
▁varig	-9.54258
▁varor	-9.54338
▁Vår	-9.54537
▁ske	-9.54609
▁skrev	-9.54616
▁riär	-9.54629
▁atisk	-9.5465
▁ua	-9.54731
▁riska	-9.54772
järn	-9.54848
▁admi	-9.54863
▁brist	-9.54865
▁rådet	-9.54891
glig	-9.54909
▁au	-9.54952
▁delta	-9.55048
▁rare	-9.55048
▁nent	-9.55061
▁vinst	-9.55221
▁cirka	-9.55275
▁olen	-9.55337
▁ich	-9.5539
▁dik	-9.55457
▁tusen	-9.55658
▁lys	-9.55659
▁ratur	-9.55675
▁arty	-9.55797
▁cha	-9.55858
▁strä	-9.55859
▁askin	-9.56047
▁icin	-9.56088
▁fria	-9.56127
▁rä	-9.56247
▁No	-9.56348
▁fas	-9.56419
▁ec	-9.56426
▁tank	-9.56462
rist	-9.56566
yhet	-9.56574
▁leder	-9.56658
▁ativ	-9.56702
▁team	-9.56712
▁nö	-9.56763
▁Su	-9.56846
▁ådant	-9.56889
▁Ex	-9.5693
▁öv	-9.56941
ni	-9.56992
▁blick	-9.57066
▁ester	-9.57085
▁ot	-9.57172
▁ash	-9.57201
▁ci	-9.5731
▁ssio	-9.5748
▁All	-9.5748
▁exakt	-9.57516
▁frukt	-9.57626
Vi	-9.57633
▁ägare	-9.57635
▁teter	-9.57792
ilj	-9.57862
▁drick	-9.57916
pulä	-9.57935
▁ärlig	-9.57988
▁ang	-9.5806
▁Z	-9.58105
▁hjä	-9.58126
▁äst	-9.58217
prid	-9.58236
▁undra	-9.58366
▁start	-9.58549
▁träck	-9.58565
▁dern	-9.58605
ävl	-9.5864
▁stopp	-9.58701
▁lagen	-9.58802
▁åk	-9.58877
▁ttack	-9.58978
▁ilmen	-9.58981
▁grafi	-9.5909
ämn	-9.59178
▁intr	-9.59276
▁räck	-9.59349
▁he	-9.59353
▁forsk	-9.59372
yttj	-9.59379
naly	-9.59533
▁Po	-9.59534
▁andi	-9.59536
▁atio	-9.59618
anni	-9.5963
▁hit	-9.59665
▁mati	-9.5968
▁Nord	-9.5978
▁gera	-9.59811
▁boll	-9.60007
▁rra	-9.60036
▁ight	-9.60045
▁nch	-9.60073
▁$	-9.60163
▁sste	-9.60237
▁entar	-9.60373
▁bilar	-9.60402
▁ebook	-9.60455
▁gn	-9.60461
▁klä	-9.60533
▁Hans	-9.60586
▁ämne	-9.60612
▁minne	-9.60631
▁hår	-9.60711
▁ateg	-9.60746
▁dera	-9.60761
▁höra	-9.60808
▁känns	-9.60826
on	-9.60878
▁glas	-9.60901
▁leg	-9.60938
▁ges	-9.60986
▁unga	-9.61058
▁skan	-9.61067
▁gare	-9.61115
▁undv	-9.61158
▁dor	-9.61198
▁meni	-9.612
▁Th	-9.61223
▁oavs	-9.6124
▁ik	-9.61269
▁ake	-9.61278
▁vapen	-9.61287
▁butik	-9.61317
▁höll	-9.61429
▁latt	-9.61538
▁rskap	-9.61578
▁Jo	-9.61582
stru	-9.61636
▁öjlig	-9.61709
▁linj	-9.61854
▁nk	-9.61976
▁drog	-9.61997
▁ades	-9.62083
▁nland	-9.62109
▁estår	-9.6213
▁eal	-9.62141
▁synd	-9.6222
▁tts	-9.62237
▁Ho	-9.62241
▁trafi	-9.62249
▁klaga	-9.62254
▁ensam	-9.62299
▁agens	-9.62328
▁mana	-9.6254
▁hård	-9.62599
▁edia	-9.6262
▁visas	-9.62782
▁blo	-9.628
▁rädd	-9.62806
▁locka	-9.62868
▁our	-9.62874
▁ttr	-9.62886
▁ars	-9.62895
▁strid	-9.62968
▁stro	-9.62984
▁nnen	-9.62988
▁emål	-9.63087
▁ow	-9.63187
▁anc	-9.63358
▁jan	-9.63379
▁Finn	-9.634
▁roni	-9.63509
▁motiv	-9.63512
▁fik	-9.636
▁not	-9.63811
▁lunda	-9.63878
▁dress	-9.63934
▁vgöra	-9.64074
▁z	-9.64079
▁Res	-9.64146
▁elsen	-9.64157
▁sö	-9.64171
▁oppl	-9.64202
löd	-9.6428
▁Kon	-9.6432
▁ata	-9.6439
▁varm	-9.64399
▁iell	-9.6447
▁lill	-9.64492
▁gnos	-9.64508
▁arnet	-9.64545
▁ember	-9.64653
▁try	-9.64675
▁sker	-9.6472
▁nens	-9.64751
▁änn	-9.64774
▁alans	-9.64788
▁bjud	-9.64821
▁gård	-9.64846
▁smart	-9.64931
▁atum	-9.65082
▁lott	-9.65122
ri	-9.65164
serv	-9.65178
▁nalys	-9.65184
▁tc	-9.65215
▁ob	-9.6522
▁kör	-9.65225
▁riset	-9.65226
▁Gör	-9.65248
▁jd	-9.65273
▁com	-9.65278
▁ämnen	-9.65356
▁vär	-9.65401
▁iser	-9.65528
▁nöjd	-9.65534
juk	-9.65565
▁ndows	-9.65645
▁inst	-9.65705
▁fre	-9.65726
▁lykt	-9.65937
▁riser	-9.66038
▁term	-9.66043
▁edan	-9.66114
▁täcka	-9.66249
▁bred	-9.66348
▁fund	-9.66383
▁hört	-9.66412
▁ari	-9.66485
▁finna	-9.66507
▁ormat	-9.66508
▁band	-9.66549
▁yrkan	-9.66555
▁its	-9.6656
▁ui	-9.66567
▁bol	-9.66579
▁ness	-9.66587
▁25	-9.66647
▁Sy	-9.66674
▁gran	-9.6681
▁skog	-9.66854
▁orden	-9.66856
▁ok	-9.66869
▁erti	-9.66892
▁lär	-9.6699
▁ank	-9.67069
▁poli	-9.67124
▁liks	-9.67142
▁TV	-9.67154
▁kul	-9.67191
▁vänl	-9.67237
▁mnd	-9.67276
▁äng	-9.67297
▁sökte	-9.67306
▁tatet	-9.67495
▁go	-9.67507
▁hi	-9.6759
▁oäng	-9.67717
▁tna	-9.67963
▁gas	-9.68172
▁följd	-9.68214
▁tig	-9.68313
▁—	-9.6842
▁anser	-9.68481
▁erier	-9.68552
▁brev	-9.68585
täng	-9.68632
▁auto	-9.68671
▁emi	-9.68792
▁lln	-9.68815
▁lim	-9.68817
▁öd	-9.68836
▁läg	-9.68848
▁jätte	-9.68864
▁xtr	-9.68874
▁els	-9.69041
▁sport	-9.69325
▁fylla	-9.69456
▁>	-9.69463
▁frä	-9.69467
▁satte	-9.69481
▁appa	-9.6949
spe	-9.69535
▁rek	-9.69585
▁Mer	-9.69699
▁kärn	-9.69705
▁skott	-9.69761
▁eld	-9.69769
elev	-9.69855
▁kholm	-9.69911
▁gress	-9.69915
▁rå	-9.70095
▁löj	-9.70203
▁gativ	-9.70218
▁parat	-9.70221
▁rig	-9.70265
▁kung	-9.70318
▁ox	-9.70323
änsl	-9.70325
▁mmun	-9.70364
▁lubb	-9.70419
▁oid	-9.7042
▁rier	-9.70423
▁meta	-9.70437
▁ativa	-9.70503
▁revo	-9.70513
▁ler	-9.70622
▁idrag	-9.70665
▁atur	-9.70709
▁rrens	-9.70792
▁höga	-9.70812
▁rök	-9.70898
▁reda	-9.7092
▁udget	-9.70976
▁stör	-9.70976
tär	-9.71053
ine	-9.71126
▁rev	-9.71181
▁ame	-9.71208
▁Dan	-9.71263
▁närma	-9.71264
▁tyr	-9.71335
▁öds	-9.71556
▁insk	-9.71591
▁aktär	-9.71592
▁havet	-9.71616
▁oly	-9.71655
el	-9.71723
▁ti	-9.71735
▁ström	-9.71889
▁Wo	-9.71974
▁årig	-9.72064
▁sem	-9.72167
reat	-9.72169
▁svåra	-9.72184
▁täder	-9.72191
▁amtal	-9.72205
▁kuld	-9.72267
▁rän	-9.72268
▁rre	-9.72337
▁erren	-9.72384
▁ntio	-9.72432
▁traff	-9.72501
▁ktor	-9.72502
▁ulär	-9.72507
▁mars	-9.72739
▁yta	-9.72773
▁nnons	-9.72849
▁skärm	-9.72994
et	-9.7302
temb	-9.73177
▁lugn	-9.73179
▁kry	-9.73193
▁lova	-9.7323
▁juni	-9.73249
▁Sp	-9.73292
▁ckel	-9.73335
yss	-9.73411
▁anj	-9.73576
ka	-9.73686
▁alls	-9.73696
▁säng	-9.73698
▁graf	-9.73745
▁ökar	-9.73788
▁rea	-9.73825
▁värme	-9.73867
▁lita	-9.7388
▁exist	-9.74064
▁aktum	-9.74087
▁strin	-9.7413
▁yft	-9.74174
▁taten	-9.74183
▁ålet	-9.7422
▁skä	-9.74367
▁ondon	-9.74392
▁bevis	-9.74396
rabb	-9.74427
▁rämja	-9.74531
▁ma	-9.74533
▁svag	-9.74684
▁scen	-9.74834
▁dgård	-9.74838
▁mul	-9.74887
▁unnit	-9.749
▁teo	-9.74939
▁Stoc	-9.7509
▁arhet	-9.75121
D	-9.75122
▁högt	-9.75139
▁kä	-9.75212
vil	-9.75239
ha	-9.75254
▁lätta	-9.75355
▁ilj	-9.75416
▁ity	-9.75451
▁am	-9.75468
tu	-9.75668
▁värv	-9.75692
ölj	-9.75702
▁ira	-9.75743
▁dä	-9.75785
▁tes	-9.7581
▁ften	-9.75814
▁allet	-9.75915
▁q	-9.75945
ibu	-9.75979
ffic	-9.76089
▁eror	-9.76204
▁lans	-9.76326
▁tali	-9.7634
▁röv	-9.76482
▁rid	-9.7651
▁talar	-9.76751
itan	-9.76761
▁ingår	-9.76763
▁läder	-9.76785
▁landa	-9.76833
▁vit	-9.76913
▁té	-9.76922
▁förra	-9.76934
▁sta	-9.77032
▁rymme	-9.77161
▁lagar	-9.77269
▁hone	-9.77293
▁jo	-9.77341
änd	-9.77347
▁tru	-9.77368
▁remi	-9.77463
▁massa	-9.77488
▁pa	-9.77581
▁själ	-9.77768
▁Mi	-9.77807
▁ley	-9.77941
▁iler	-9.78057
▁kasta	-9.78065
▁söka	-9.7808
▁rygg	-9.78214
▁iös	-9.78322
▁stik	-9.78436
▁illig	-9.78463
▁nus	-9.78469
▁eck	-9.78523
▁domen	-9.7867
▁oga	-9.78736
▁pple	-9.78784
▁ormer	-9.78901
▁iera	-9.78922
▁Sc	-9.78942
▁kro	-9.78959
▁El	-9.78984
▁sälja	-9.79031
▁vig	-9.79271
▁oft	-9.79374
▁iff	-9.7955
▁urser	-9.79583
▁vin	-9.79737
▁ence	-9.79777
▁van	-9.79781
arla	-9.79782
▁leta	-9.79783
▁aket	-9.79791
▁ym	-9.79815
▁para	-9.80066
▁mor	-9.8007
▁tips	-9.80073
▁ngel	-9.80087
▁satta	-9.80112
▁ril	-9.80254
▁nses	-9.80377
▁arlig	-9.80441
▁jut	-9.80511
▁arder	-9.80513
▁kta	-9.80535
▁aktu	-9.80544
▁tan	-9.80555
▁ris	-9.80571
▁lju	-9.8063
▁svår	-9.80702
▁År	-9.80714
mpo	-9.80972
▁uss	-9.81017
▁rang	-9.81057
▁mber	-9.8136
▁linje	-9.81369
▁annen	-9.81383
▁lack	-9.81395
▁längd	-9.81425
▁40	-9.81515
▁gger	-9.81602
▁isti	-9.8166
▁lanet	-9.81706
▁sinne	-9.81753
▁hol	-9.81762
▁rift	-9.81766
▁ete	-9.8181
▁trand	-9.81816
▁klo	-9.81886
▁nnor	-9.81888
se	-9.81908
▁avid	-9.81986
▁ikt	-9.82054
▁smak	-9.82059
▁varet	-9.82062
▁16	-9.82123
▁ngs	-9.82204
▁känt	-9.82228
▁sko	-9.82249
▁mask	-9.82308
▁ham	-9.82379
▁stone	-9.82514
▁ept	-9.82532
▁dit	-9.8254
▁glä	-9.82605
▁ernas	-9.82689
▁åra	-9.82692
▁enar	-9.82693
▁affär	-9.82719
▁als	-9.82907
nslu	-9.83018
▁kall	-9.8312
▁taget	-9.83343
aff	-9.83356
▁dry	-9.83377
▁press	-9.83454
▁sub	-9.83563
▁ago	-9.83617
▁11	-9.8364
id	-9.83673
öv	-9.83689
▁affe	-9.83702
▁rab	-9.83946
▁fisk	-9.83967
▁ind	-9.83979
▁lan	-9.84001
▁ilden	-9.84016
▁tör	-9.84133
lag	-9.84136
▁fred	-9.84179
▁frika	-9.84229
▁18	-9.84261
▁yk	-9.84696
▁äster	-9.84709
▁teten	-9.84737
▁arken	-9.8476
z	-9.84811
▁arti	-9.84836
▁orge	-9.8502
▁skri	-9.85109
▁full	-9.85152
▁redi	-9.85188
uva	-9.85231
▁redd	-9.85241
▁ail	-9.85266
▁vgift	-9.85313
▁Tru	-9.85474
▁chans	-9.85491
▁sum	-9.85505
rö	-9.85554
▁ick	-9.85758
ark	-9.85803
▁kod	-9.85898
▁okt	-9.85932
▁erso	-9.85995
▁citet	-9.86018
▁mena	-9.8604
▁amen	-9.86068
▁gla	-9.86084
▁orta	-9.86125
▁rten	-9.8619
▁otek	-9.86219
utom	-9.86267
▁unik	-9.86287
▁bis	-9.86339
anno	-9.86343
ind	-9.86509
us	-9.86526
▁enkel	-9.86632
▁bef	-9.86693
▁Ny	-9.8673
▁bär	-9.86767
▁ect	-9.86831
▁resp	-9.86971
▁äll	-9.8699
▁repa	-9.87045
▁mång	-9.87066
▁­	-9.87083
▁kval	-9.87122
▁roma	-9.87229
▁nger	-9.87253
▁bilen	-9.87315
▁eder	-9.87336
bin	-9.8734
▁jul	-9.87392
▁teri	-9.87431
▁visat	-9.87495
▁ach	-9.87651
▁agi	-9.87661
▁ron	-9.87669
▁sh	-9.87775
▁star	-9.87808
▁sov	-9.87843
▁vart	-9.87881
▁plo	-9.87964
▁kyrk	-9.87991
▁Fö	-9.88057
▁ommun	-9.88062
ombi	-9.88086
▁unt	-9.8824
▁rak	-9.88477
▁ass	-9.88505
▁ax	-9.88519
▁derar	-9.88541
▁llor	-9.88632
▁sal	-9.88664
▁Pre	-9.88683
komm	-9.88778
▁park	-9.88788
▁nnan	-9.88804
ab	-9.88837
▁terar	-9.88877
ne	-9.8889
▁fta	-9.88959
▁isa	-9.88983
▁elvis	-9.89128
▁ken	-9.89137
▁cep	-9.89166
▁You	-9.89248
▁fekt	-9.89249
▁Go	-9.8934
▁räd	-9.89341
▁ess	-9.89461
▁otell	-9.89464
▁lipp	-9.89465
▁lås	-9.89479
▁hålls	-9.89492
N	-9.89524
▁ms	-9.89556
▁Str	-9.89579
▁aria	-9.8959
▁ägn	-9.89704
▁FN	-9.89777
▁öreg	-9.89783
ukar	-9.8985
▁ats	-9.89877
lko	-9.89962
▁ille	-9.90129
▁aul	-9.90174
▁ep	-9.90201
▁äter	-9.90268
▁sky	-9.90275
ekto	-9.90309
▁kilda	-9.90324
▁anal	-9.90381
▁vac	-9.9045
niti	-9.90454
▁derna	-9.90536
▁ten	-9.9057
▁säg	-9.90668
▁km	-9.90704
▁kände	-9.9075
vik	-9.90779
▁ling	-9.90812
▁assa	-9.90826
▁väga	-9.90842
▁älj	-9.90866
▁int	-9.9097
▁lot	-9.90984
▁enni	-9.91003
▁sion	-9.91015
▁tak	-9.91101
▁tten	-9.91203
▁nam	-9.91207
▁etens	-9.91243
▁tåg	-9.91277
▁fä	-9.91306
▁görs	-9.91341
▁ratt	-9.91376
▁reds	-9.91407
▁lse	-9.91413
▁läng	-9.91439
▁glar	-9.91874
▁inre	-9.91928
▁ol	-9.92036
orre	-9.92079
▁roa	-9.92128
▁städ	-9.92414
▁flu	-9.92538
▁ndsk	-9.92662
▁ral	-9.92679
▁iP	-9.92696
▁alen	-9.92737
▁tant	-9.92843
▁Tre	-9.92935
▁duc	-9.92942
▁kl	-9.93064
▁ikte	-9.93069
A	-9.93078
▁14	-9.93209
▁ont	-9.93209
▁källa	-9.93259
▁sie	-9.93282
▁tin	-9.93306
oppl	-9.93337
▁iz	-9.93384
▁båt	-9.93411
▁idig	-9.93453
▁fu	-9.93509
▁ssant	-9.93616
▁len	-9.93641
▁kol	-9.93642
▁iske	-9.93743
▁no	-9.9376
▁atser	-9.93761
▁gil	-9.93853
▁hot	-9.94033
▁ud	-9.9406
▁lt	-9.94121
▁byte	-9.94203
▁ulera	-9.94279
▁Ne	-9.94451
▁ndiga	-9.94468
ru	-9.94483
▁nti	-9.94621
åend	-9.94707
▁dje	-9.94755
▁åll	-9.94779
▁ali	-9.94946
▁sorg	-9.94988
▁ato	-9.95007
▁coo	-9.95034
▁Två	-9.95066
▁sc	-9.95155
▁omp	-9.95181
▁Spa	-9.95192
▁anden	-9.95312
isk	-9.95333
▁kie	-9.95339
▁ttare	-9.95386
▁ree	-9.95397
▁delse	-9.95433
▁svart	-9.95467
▁gent	-9.95572
▁ömn	-9.95613
▁fäll	-9.95632
▁use	-9.95695
▁tast	-9.95733
▁Nya	-9.95815
▁Bra	-9.95838
▁ound	-9.95884
▁rans	-9.95901
▁fina	-9.95971
▁aster	-9.962
▁olk	-9.96218
▁nn	-9.9625
▁amin	-9.96395
▁våg	-9.96415
▁ssa	-9.96447
▁urg	-9.96484
▁åka	-9.96578
▁urn	-9.96581
▁24	-9.96626
▁13	-9.96797
ce	-9.96823
▁urs	-9.96861
▁lapp	-9.96932
▁pp	-9.96976
▁nsi	-9.96986
▁alb	-9.96989
▁ater	-9.97026
▁tekt	-9.97272
fe	-9.97306
▁illi	-9.97388
▁tats	-9.97389
▁kant	-9.97497
▁nes	-9.97587
▁rnan	-9.97633
▁arg	-9.97633
▁ann	-9.9778
▁erare	-9.97823
▁eko	-9.97929
▁hud	-9.97973
▁eter	-9.98014
▁kemi	-9.98075
▁ive	-9.98125
ta	-9.98178
▁dans	-9.98193
▁rit	-9.98228
▁gh	-9.98238
▁guld	-9.9825
▁tad	-9.98268
▁La	-9.98275
▁rdet	-9.9831
▁rter	-9.98394
▁anad	-9.98401
▁onti	-9.98445
▁växa	-9.9845
▁usi	-9.98477
▁urk	-9.98614
▁nare	-9.98671
▁ästar	-9.98684
▁enast	-9.98767
▁otta	-9.98797
▁bin	-9.98913
▁tim	-9.98953
I	-9.98975
▁oka	-9.99067
▁ement	-9.99072
▁rgan	-9.99131
▁rus	-9.99182
▁kräv	-9.99193
▁allar	-9.99259
▁kning	-9.99283
▁nnar	-9.99284
▁tals	-9.99308
▁mik	-9.99429
▁ntra	-9.99488
▁ägs	-9.99525
▁arc	-9.99547
▁mord	-9.99558
▁obe	-9.99573
▁ug	-9.99645
▁eam	-9.99684
▁sökt	-9.99703
▁ppa	-9.99931
▁dskap	-10.0001
▁uellt	-10.0009
tio	-10.0013
▁Hel	-10.0015
▁Lu	-10.0022
▁nord	-10.0024
▁ridi	-10.0027
▁skola	-10.0041
▁ågon	-10.0044
▁alko	-10.0047
ättr	-10.0057
▁lska	-10.0066
▁gö	-10.0071
▁out	-10.0072
▁inn	-10.0078
▁Dr	-10.0098
tämm	-10.01
▁ag	-10.0108
▁rtu	-10.0108
q	-10.0133
▁over	-10.0135
▁kron	-10.0139
▁nste	-10.0144
▁rar	-10.0146
S	-10.0151
▁ostad	-10.0151
▁ökad	-10.0163
▁ian	-10.0164
▁träde	-10.0167
▁rom	-10.0173
▁apper	-10.0176
▁aris	-10.0182
▁vning	-10.0188
▁lus	-10.0217
▁fra	-10.0246
▁tivt	-10.0246
▁let	-10.0253
é	-10.0254
▁sä	-10.0259
▁lod	-10.0259
▁äger	-10.0259
▁ivt	-10.0262
▁emo	-10.0267
▁vida	-10.0283
▁drar	-10.0287
▁förd	-10.0289
▁#	-10.0308
▁llo	-10.0311
▁ix	-10.0318
▁lk	-10.0319
▁esta	-10.0321
▁nsl	-10.0323
▁ech	-10.0326
▁ordet	-10.0346
▁far	-10.035
lick	-10.036
x	-10.0368
▁läst	-10.037
▁känn	-10.0373
▁tål	-10.0377
▁nsten	-10.0378
▁:)	-10.0379
▁tat	-10.0384
▁må	-10.0385
st	-10.0385
tera	-10.039
▁cka	-10.0399
▁oende	-10.0419
▁rm	-10.0431
▁mani	-10.044
nand	-10.0441
▁ook	-10.0463
▁illa	-10.0463
▁ean	-10.0468
▁edj	-10.047
▁eet	-10.0475
▁logg	-10.0494
▁bri	-10.0494
▁dam	-10.0504
▁Euro	-10.0504
▁hände	-10.0507
▁we	-10.0517
▁årt	-10.0519
▁atter	-10.0522
▁nka	-10.0523
▁oli	-10.0525
▁snar	-10.0526
▁fly	-10.0532
▁järn	-10.0538
▁Mus	-10.0538
▁vald	-10.054
▁sare	-10.0552
▁ätter	-10.0558
▁usti	-10.0559
▁nsy	-10.0561
▁plat	-10.0565
▁olo	-10.0576
▁ssor	-10.0579
▁tab	-10.061
▁ela	-10.0612
▁Gå	-10.0621
▁ällan	-10.0621
▁oxi	-10.0634
▁gäst	-10.0652
▁öns	-10.0663
▁undar	-10.0666
▁ven	-10.0675
▁St	-10.0686
▁ilke	-10.0695
▁inna	-10.071
▁tema	-10.0712
▁väst	-10.0719
▁cc	-10.072
▁ött	-10.0726
▁täckt	-10.0741
▁ate	-10.0741
▁prä	-10.0746
▁sann	-10.0746
▁fält	-10.0747
▁nack	-10.0764
▁even	-10.0766
▁imi	-10.0772
▁vent	-10.0778
▁rk	-10.0779
▁tand	-10.078
▁siell	-10.0787
▁chen	-10.0789
år	-10.0796
▁eta	-10.0799
sätt	-10.0808
▁alisk	-10.0809
▁bru	-10.0812
▁17	-10.0815
▁vars	-10.0826
▁ngt	-10.083
▁nom	-10.0834
▁ckan	-10.0843
▁illar	-10.0843
▁lf	-10.0844
misk	-10.0849
▁ebr	-10.0853
▁ffer	-10.0857
▁ual	-10.0877
▁äg	-10.0879
▁aner	-10.088
2	-10.0908
▁fe	-10.0915
▁Ac	-10.0921
▁apan	-10.0931
▁rott	-10.0933
▁unika	-10.0933
▁ct	-10.096
▁Tid	-10.096
ndr	-10.0964
▁slu	-10.098
▁For	-10.0981
▁varo	-10.0989
▁disk	-10.0991
▁oni	-10.1013
▁Bro	-10.1021
▁tater	-10.1026
▁60	-10.1028
▁ther	-10.1038
▁pt	-10.104
▁Först	-10.1042
▁old	-10.1044
▁rch	-10.1044
abil	-10.1056
▁bjekt	-10.1056
▁oin	-10.107
▁edlem	-10.1073
▁blå	-10.1074
▁pte	-10.1081
▁non	-10.1093
▁ntern	-10.1095
▁nstr	-10.1097
▁rri	-10.1098
▁ew	-10.11
▁dörr	-10.1102
▁Hu	-10.1114
▁ppet	-10.112
▁llig	-10.1121
▁hat	-10.1133
▁back	-10.1135
▁ocker	-10.1153
▁ymp	-10.1154
▁sson	-10.1155
▁itat	-10.1158
▁ergi	-10.116
▁him	-10.1172
▁ismen	-10.1175
▁lekt	-10.118
▁ansen	-10.1188
▁katt	-10.1198
verk	-10.1218
▁max	-10.122
▁eum	-10.1229
▁tanda	-10.1238
▁lad	-10.1239
▁vert	-10.1243
▁llmä	-10.1245
▁takt	-10.1249
▁mde	-10.1269
▁ana	-10.1272
▁rder	-10.1274
▁serv	-10.1283
▁tliga	-10.1283
▁Ins	-10.1289
▁Do	-10.1294
▁Joh	-10.13
▁erter	-10.1307
3	-10.1309
mal	-10.1312
▁ngst	-10.1314
▁kter	-10.1317
▁konc	-10.132
▁kel	-10.1322
▁dd	-10.1324
▁odu	-10.1347
▁pport	-10.1352
▁fär	-10.1354
ek	-10.1355
▁mell	-10.137
▁ega	-10.1376
▁bit	-10.139
▁örj	-10.1402
▁vu	-10.1404
▁ary	-10.1413
▁ph	-10.1433
▁värm	-10.1434
▁ller	-10.1436
▁ons	-10.1439
▁cirk	-10.1439
▁enten	-10.1443
▁flyt	-10.1443
▁ös	-10.1454
ko	-10.146
▁dör	-10.1463
▁me	-10.147
▁arla	-10.149
▁erk	-10.1499
▁ite	-10.1503
▁gui	-10.1504
▁zo	-10.152
▁mal	-10.1548
▁kast	-10.1555
▁vita	-10.1565
▁Fråga	-10.1583
▁häl	-10.1588
▁lti	-10.1589
▁sliga	-10.159
▁fånga	-10.1594
▁vik	-10.1604
▁é	-10.1608
▁vla	-10.1611
▁tend	-10.1612
▁ome	-10.1625
▁riget	-10.1637
at	-10.1651
▁tei	-10.1653
▁oris	-10.1671
▁vänt	-10.1676
▁obb	-10.1681
▁nader	-10.1681
▁hamn	-10.1692
▁=	-10.1698
▁lon	-10.1706
▁örer	-10.1709
▁lant	-10.1709
▁åla	-10.1715
▁sant	-10.1717
▁andl	-10.1737
▁line	-10.1739
▁kat	-10.174
▁ilo	-10.1741
▁Tw	-10.1747
▁Al	-10.175
ojk	-10.1753
▁akad	-10.1756
▁ental	-10.1767
▁olog	-10.177
▁änt	-10.177
▁tänd	-10.1789
▁iss	-10.1791
är	-10.1818
▁rika	-10.1846
vi	-10.185
▁rth	-10.1857
▁arter	-10.1859
▁pal	-10.1868
▁Kö	-10.1885
▁uell	-10.1886
▁aga	-10.1887
▁rv	-10.189
▁yra	-10.1898
▁allad	-10.1901
▁Le	-10.1907
▁larna	-10.1911
▁fier	-10.1914
re	-10.1917
▁sist	-10.1917
▁nic	-10.1922
▁ln	-10.1926
▁hårt	-10.1931
▁An	-10.194
ågra	-10.1942
▁sla	-10.1945
▁äck	-10.1951
▁ure	-10.1952
▁mas	-10.1968
▁ova	-10.1969
▁hop	-10.1975
▁mör	-10.1984
▁ine	-10.1989
▁bära	-10.199
▁atör	-10.1996
▁fett	-10.2024
▁od	-10.2025
ed	-10.203
▁lls	-10.2045
▁edra	-10.2047
▁ldra	-10.2049
▁alien	-10.2052
▁num	-10.2054
▁ium	-10.2055
▁nha	-10.2065
▁nska	-10.2067
▁jäl	-10.2079
▁rund	-10.2106
▁sand	-10.2113
▁klare	-10.2118
▁af	-10.212
▁ansk	-10.2124
▁sökan	-10.2126
▁one	-10.213
▁Barn	-10.2132
tänd	-10.2139
▁iat	-10.2169
T	-10.2177
▁vel	-10.2178
▁peri	-10.2197
▁dele	-10.221
B	-10.2211
▁AB	-10.2227
▁medl	-10.2228
▁ult	-10.2237
▁elt	-10.2246
▁ption	-10.2247
▁ace	-10.2254
▁esti	-10.2257
▁kli	-10.226
▁WEB	-10.2272
▁Gro	-10.2273
▁mda	-10.2276
▁ama	-10.2305
▁rop	-10.2307
▁dep	-10.2319
▁lym	-10.2321
▁lags	-10.2322
ga	-10.2325
▁nar	-10.2328
▁tret	-10.2328
▁acka	-10.2338
▁own	-10.2346
▁hoppa	-10.2347
▁Tu	-10.2349
▁odl	-10.235
▁21	-10.236
▁siska	-10.2364
▁Bu	-10.2366
du	-10.2369
▁ästa	-10.2378
▁Val	-10.2397
▁osta	-10.2398
▁rst	-10.2399
▁mil	-10.24
▁hal	-10.2411
teri	-10.2412
▁ändsk	-10.2422
ad	-10.2429
▁ordna	-10.2437
▁vd	-10.2439
▁ah	-10.244
▁osof	-10.2453
▁ben	-10.2461
▁jt	-10.2468
▁pti	-10.2475
▁tande	-10.2477
▁II	-10.2479
▁ensi	-10.248
▁igur	-10.2482
▁set	-10.2484
▁ld	-10.2493
▁ald	-10.2493
▁tik	-10.2499
▁alk	-10.2502
▁ek	-10.2519
▁Få	-10.2523
▁enta	-10.2524
▁cera	-10.2525
▁kläd	-10.2526
▁aller	-10.253
▁Mu	-10.2535
▁tle	-10.2538
▁uden	-10.2542
▁Gre	-10.2548
▁hov	-10.2552
▁tol	-10.2566
▁tiska	-10.2569
git	-10.2575
▁dos	-10.2576
▁mag	-10.258
▁atar	-10.2584
▁kild	-10.2586
▁varn	-10.2587
▁pac	-10.2587
▁200	-10.2592
▁ott	-10.2594
▁Bl	-10.2601
▁ors	-10.2602
▁nej	-10.2609
▁cker	-10.2633
▁rent	-10.2633
▁epp	-10.2636
▁ric	-10.2636
▁erma	-10.264
▁fin	-10.266
▁kti	-10.2664
▁Ro	-10.2675
ja	-10.2698
▁varta	-10.2699
-	-10.2704
▁IT	-10.2706
▁nsad	-10.2709
▁aha	-10.2719
▁mos	-10.272
▁testa	-10.2724
▁åda	-10.2724
▁mäl	-10.2733
▁gu	-10.2737
▁ime	-10.2741
▁ehöv	-10.2748
▁ndag	-10.2757
▁mning	-10.2759
ro	-10.2767
▁Hotel	-10.2767
oci	-10.2768
▁ile	-10.2769
▁ikter	-10.2772
▁erver	-10.2784
efin	-10.279
▁öte	-10.2792
▁500	-10.2799
▁can	-10.2816
▁terna	-10.2817
▁ssion	-10.2817
▁älte	-10.2825
▁Li	-10.2829
▁skär	-10.2837
▁tråd	-10.2856
▁Pa	-10.2862
▁vete	-10.2877
▁hål	-10.2878
▁dio	-10.2889
▁arv	-10.2894
▁_	-10.2902
▁mn	-10.2925
▁‘	-10.2929
▁nsch	-10.2931
▁plö	-10.2935
▁orn	-10.2936
▁aker	-10.2954
▁inder	-10.2973
▁mm	-10.2981
▁fann	-10.3007
▁gend	-10.3011
▁ligt	-10.3013
▁fte	-10.3018
▁mmo	-10.3019
▁sho	-10.3024
vis	-10.3035
▁dro	-10.3051
1	-10.3056
▁nåt	-10.3066
ke	-10.3068
▁vore	-10.307
▁öra	-10.3089
▁ami	-10.3089
▁ående	-10.3094
▁iddag	-10.3095
ma	-10.3099
▁cin	-10.311
▁ddag	-10.3124
▁nning	-10.3131
▁rys	-10.3135
▁vitt	-10.3138
▁Bi	-10.3138
▁pec	-10.3142
▁atal	-10.3142
▁ivet	-10.315
▁ition	-10.3151
▁rame	-10.317
▁Vet	-10.3204
▁sland	-10.3209
▁ffic	-10.322
▁ub	-10.3224
▁ead	-10.3226
▁fysi	-10.3236
▁stan	-10.324
▁rser	-10.3241
▁ael	-10.3244
G	-10.3247
▁19	-10.3254
▁iver	-10.3256
▁ran	-10.3258
▁tär	-10.3258
▁xter	-10.3263
C	-10.3277
▁valde	-10.3298
▁rön	-10.3311
▁vind	-10.3327
▁tam	-10.3337
▁ito	-10.3339
▁ister	-10.3343
▁telse	-10.3346
▁gene	-10.335
▁edda	-10.3358
▁alm	-10.3372
▁adi	-10.3374
▁®	-10.3374
▁ktör	-10.3375
kes	-10.3396
▁fart	-10.3396
▁nget	-10.3401
▁mått	-10.341
ck	-10.342
▁undan	-10.3421
▁sys	-10.3423
▁dels	-10.3424
▁zon	-10.3431
▁vari	-10.3433
▁skick	-10.3434
▁lind	-10.3436
▁svär	-10.3458
▁abel	-10.3464
▁San	-10.347
▁enser	-10.3476
leve	-10.3485
▁kön	-10.3486
▁Kris	-10.3492
▁orum	-10.3497
▁neka	-10.3497
▁önd	-10.3511
▁jack	-10.3527
▁oti	-10.3546
▁indi	-10.3549
▁atch	-10.356
▁ient	-10.3561
P	-10.3576
▁lyg	-10.3581
▁laner	-10.3582
▁örd	-10.3596
▁erv	-10.36
▁wi	-10.361
▁tunn	-10.3622
▁rick	-10.3632
▁las	-10.3665
▁gonen	-10.3666
▁äljer	-10.3669
▁ideo	-10.3676
▁nc	-10.3682
alis	-10.3686
▁ckor	-10.3703
▁reat	-10.3703
▁utl	-10.3707
▁mmit	-10.3712
▁golv	-10.3724
▁uff	-10.3732
▁rnen	-10.3733
▁ide	-10.3743
▁ext	-10.3748
▁ktive	-10.3763
▁omar	-10.3781
▁alist	-10.3785
▁oro	-10.3792
▁ansa	-10.3793
▁exi	-10.3797
▁bets	-10.3801
▁skil	-10.381
▁rena	-10.3813
▁gne	-10.3823
▁cks	-10.3837
▁rett	-10.3857
▁minn	-10.386
▁rdes	-10.3862
▁oy	-10.3866
▁stjä	-10.387
▁ygg	-10.3873
▁skad	-10.3876
▁rdag	-10.3876
▁sult	-10.3877
▁tist	-10.3878
▁räkn	-10.3892
▁oj	-10.3894
▁nån	-10.3897
▁nge	-10.392
▁gande	-10.3924
▁länk	-10.394
▁lede	-10.394
▁ver	-10.3943
▁22	-10.3955
▁nomi	-10.396
▁ontor	-10.3971
▁los	-10.3977
▁tron	-10.3988
▁lja	-10.3989
▁see	-10.3991
▁stern	-10.3997
▁kapet	-10.3997
▁rmon	-10.4004
▁ove	-10.4022
▁ågot	-10.4023
▁öl	-10.4029
▁itel	-10.403
▁dato	-10.4044
▁dog	-10.4047
▁doms	-10.4049
▁aser	-10.4052
▁My	-10.4054
▁nio	-10.4058
▁rome	-10.4061
▁uid	-10.4072
▁ano	-10.4087
▁ev	-10.4089
▁högst	-10.409
▁aw	-10.41
▁arat	-10.4107
▁ender	-10.4108
form	-10.4109
E	-10.4125
▁ktig	-10.4138
▁olu	-10.4141
▁älk	-10.4141
▁edi	-10.4145
▁nni	-10.4146
▁lvis	-10.4154
uell	-10.4163
▁osi	-10.4165
▁vann	-10.4171
▁amer	-10.4174
▁org	-10.4176
▁essi	-10.4178
ex	-10.418
▁tis	-10.4181
må	-10.4181
▁bes	-10.4187
▁önsk	-10.4197
▁unge	-10.4209
▁släkt	-10.4217
▁pra	-10.4219
▁tfö	-10.4224
▁gul	-10.4228
▁elev	-10.4228
▁ili	-10.4236
▁rets	-10.424
▁tte	-10.4246
▁häst	-10.4247
▁ori	-10.4254
▁mann	-10.4255
▁api	-10.428
▁nsats	-10.428
▁öda	-10.4286
▁cs	-10.4298
▁Ku	-10.4307
▁dge	-10.4313
▁fan	-10.4328
▁rren	-10.4338
▁xi	-10.4344
▁uth	-10.436
▁eut	-10.4365
da	-10.4368
▁Gra	-10.4372
▁obl	-10.4374
▁hj	-10.4374
▁smen	-10.4374
gand	-10.4381
▁nim	-10.4385
▁rant	-10.4395
50	-10.4396
yd	-10.4396
▁kick	-10.4411
▁inb	-10.4422
▁kott	-10.4427
▁eb	-10.4428
▁äld	-10.4429
▁lli	-10.4431
▁lia	-10.4436
▁ema	-10.4436
▁ire	-10.4437
▁rån	-10.444
▁lade	-10.4443
▁nöj	-10.4445
▁stig	-10.4446
▁ebb	-10.4448
▁skull	-10.4464
▁vila	-10.4479
▁ous	-10.4495
▁elle	-10.4507
▁ght	-10.4508
▁tto	-10.4514
▁amm	-10.4521
▁Mat	-10.4527
▁lor	-10.4541
▁Ob	-10.4547
▁tligt	-10.4556
▁mb	-10.4564
epre	-10.4584
▁mär	-10.4584
▁anne	-10.4589
▁mman	-10.459
▁kit	-10.4596
▁flytt	-10.4596
▁ugg	-10.4602
▁egel	-10.4606
▁ontr	-10.4608
▁ike	-10.4622
▁ngd	-10.4626
▁kten	-10.4632
▁andel	-10.4632
▁herr	-10.4635
▁örja	-10.4635
M	-10.4638
▁nta	-10.4641
▁Ser	-10.4642
▁istan	-10.4645
▁28	-10.4661
▁lov	-10.4666
▁dre	-10.4677
▁hota	-10.4678
▁nabba	-10.4693
äkn	-10.4698
▁Mal	-10.4704
▁entr	-10.4704
▁öm	-10.4706
sikt	-10.4723
▁enad	-10.4732
▁onde	-10.4738
▁asta	-10.4742
▁vist	-10.4743
▁tic	-10.4746
▁ted	-10.4755
▁alis	-10.4757
▁svi	-10.4759
▁arie	-10.4774
▁rama	-10.4804
▁ärer	-10.4808
▁pol	-10.4821
▁appar	-10.4824
▁moder	-10.4828
K	-10.4832
▁opera	-10.4838
▁arma	-10.4847
▁xis	-10.4849
▁mple	-10.4862
▁uta	-10.4865
▁ture	-10.4869
▁nkur	-10.4877
▁oc	-10.4877
as	-10.4888
▁nts	-10.4889
▁rke	-10.4903
▁27	-10.4905
▁vant	-10.4906
▁drö	-10.4909
▁ument	-10.4912
▁Ad	-10.4916
▁otal	-10.492
▁ever	-10.4925
▁imma	-10.4927
▁sia	-10.4959
▁igh	-10.4963
▁ford	-10.4968
▁sku	-10.4969
ryt	-10.4975
▁mg	-10.498
▁ntar	-10.499
▁reser	-10.4991
▁pare	-10.5006
▁70	-10.5015
▁ånge	-10.5016
▁estin	-10.5019
▁tina	-10.502
▁sör	-10.503
▁mek	-10.5036
▁arta	-10.5056
▁23	-10.5057
▁im	-10.5062
▁tav	-10.5066
▁fint	-10.5086
ali	-10.5098
▁spek	-10.5105
▁akten	-10.5125
▁cho	-10.5132
Om	-10.5143
▁«	-10.5144
▁nser	-10.5146
▁rval	-10.5146
▁uer	-10.5164
th	-10.5169
▁kop	-10.5172
▁lib	-10.5177
▁udi	-10.5192
▁sked	-10.5215
ul	-10.5217
▁wn	-10.5219
dra	-10.5222
▁diska	-10.5222
▁gal	-10.5223
▁iko	-10.5225
▁öde	-10.5233
kal	-10.5235
▁uro	-10.5235
▁kriv	-10.5255
▁Herre	-10.5257
▁rlig	-10.5261
▁ov	-10.5263
▁Får	-10.5263
▁aten	-10.5271
▁ele	-10.5281
▁ldern	-10.5289
▁oner	-10.5293
nmä	-10.5297
▁ani	-10.5297
▁ale	-10.5302
▁live	-10.5304
▁unk	-10.5306
▁nden	-10.5309
O	-10.5316
▁yd	-10.5328
▁nto	-10.5339
▁ilt	-10.5341
▁anni	-10.5348
▁kors	-10.5357
ning	-10.5359
▁nalen	-10.5366
▁tiga	-10.5369
▁ynd	-10.538
▁union	-10.5389
▁sci	-10.5406
▁mode	-10.5407
▁tick	-10.5419
▁ppar	-10.5425
dag	-10.5449
▁veri	-10.5449
▁öll	-10.5454
▁ktan	-10.546
stö	-10.5461
▁mment	-10.5464
▁31	-10.5465
▁öder	-10.5496
▁bot	-10.5513
▁dta	-10.5528
▁spro	-10.5533
▁eger	-10.5566
slut	-10.5569
▁lsk	-10.5569
Du	-10.557
▁olv	-10.5584
▁Con	-10.5584
stå	-10.5586
▁arens	-10.5587
▁onen	-10.5594
▁pan	-10.5605
▁kad	-10.5611
H	-10.5612
▁torm	-10.5613
▁klus	-10.562
▁lje	-10.5624
▁Tom	-10.5631
▁ux	-10.5637
▁rin	-10.564
▁nte	-10.5642
▁rov	-10.5649
▁op	-10.5657
▁sto	-10.5659
▁förbi	-10.5667
▁edd	-10.5668
▁olla	-10.5684
▁nerna	-10.5686
▁aler	-10.5694
▁ain	-10.5699
ong	-10.5701
▁ance	-10.5704
▁get	-10.5709
▁To	-10.571
▁ggar	-10.5713
▁arl	-10.5713
▁anda	-10.5719
▁alu	-10.5721
▁vakt	-10.5724
▁ita	-10.5736
▁az	-10.5742
▁ota	-10.5745
▁aktor	-10.5747
▁jet	-10.5753
råk	-10.5758
▁onst	-10.5758
▁aska	-10.5772
▁Fa	-10.5774
OS	-10.5779
▁skrä	-10.578
lif	-10.5784
▁Net	-10.579
▁turn	-10.5792
▁omb	-10.5793
▁ase	-10.5794
▁ände	-10.5796
ho	-10.5797
"	-10.5807
▁slav	-10.5823
▁kiv	-10.5823
mo	-10.584
▁ograf	-10.5848
▁uck	-10.5851
▁300	-10.5854
▁kala	-10.5854
▁ader	-10.5856
▁ise	-10.5857
tar	-10.5859
▁änk	-10.5862
▁rou	-10.5872
4	-10.5874
▁eran	-10.5875
ber	-10.5879
▁ush	-10.5886
▁artin	-10.5888
▁törer	-10.5891
▁gat	-10.5892
▁tolk	-10.5894
▁spar	-10.5909
▁rera	-10.5912
▁etisk	-10.5919
bel	-10.5926
nsva	-10.5934
▁lver	-10.5939
▁ump	-10.5939
▁rj	-10.5947
▁dda	-10.5948
▁Pi	-10.595
▁nvi	-10.596
▁tika	-10.5962
▁iner	-10.5964
▁låtar	-10.5967
R	-10.5981
▁agen	-10.5982
▁inc	-10.5992
▁[...]	-10.5994
▁ore	-10.6003
rans	-10.6006
▁nso	-10.6015
▁rka	-10.6045
▁lobal	-10.6068
▁90	-10.6074
▁IP	-10.6083
▁bel	-10.6087
▁onal	-10.6095
▁iti	-10.6104
▁tch	-10.6106
▁peisk	-10.6106
▁dal	-10.6106
▁wa	-10.6107
▁arb	-10.6129
▁lämp	-10.613
▁ryck	-10.6145
kla	-10.6159
ca	-10.6165
▁ies	-10.6171
▁lv	-10.6173
F	-10.6178
aran	-10.618
▁olj	-10.6187
▁ola	-10.6192
▁gna	-10.6195
▁Bri	-10.6201
▁tele	-10.6207
▁yda	-10.6211
▁Fu	-10.6214
▁rska	-10.6217
▁tvär	-10.6224
▁ropa	-10.6228
▁uri	-10.6229
▁80	-10.6231
▁åva	-10.6242
▁råk	-10.6244
▁mate	-10.625
En	-10.6253
▁nism	-10.6256
▁vs	-10.6257
▁unden	-10.626
▁varan	-10.6277
▁ngo	-10.628
▁kill	-10.6291
▁[+]	-10.6294
▁elo	-10.6303
▁llen	-10.6327
▁ear	-10.6332
▁arad	-10.6344
▁list	-10.6345
um	-10.6347
co	-10.6347
▁nkel	-10.6347
▁ish	-10.6349
▁evi	-10.6349
▁orr	-10.6356
▁assi	-10.6371
▁Lin	-10.638
▁nkar	-10.6383
▁rry	-10.6422
▁egra	-10.6432
▁uk	-10.6439
▁Fran	-10.6442
▁rag	-10.6443
▁mel	-10.6445
▁ennes	-10.6446
▁ttre	-10.6448
▁rend	-10.6452
▁bler	-10.6483
▁26	-10.6485
ing	-10.6487
▁ryt	-10.6489
▁vor	-10.649
▁dar	-10.6492
▁cro	-10.6493
▁nåd	-10.6502
ow	-10.6509
▁byggd	-10.6544
▁Dom	-10.6546
▁bran	-10.658
▁erska	-10.6597
▁🙂	-10.6603
▁rob	-10.6612
▁gren	-10.663
▁oto	-10.6631
▁drat	-10.665
▁tti	-10.665
▁egis	-10.6671
▁lbe	-10.6674
bjek	-10.6679
▁eka	-10.668
▁xpert	-10.6682
äld	-10.6683
▁rust	-10.6684
▁ogi	-10.6692
▁Car	-10.6708
▁onom	-10.6711
▁ägar	-10.6712
▁nast	-10.6713
▁söt	-10.6715
▁dräg	-10.6723
▁ban	-10.6724
ry	-10.6726
▁hen	-10.6743
▁nce	-10.6756
▁gräs	-10.6761
▁itera	-10.6777
▁kven	-10.6778
▁za	-10.6784
▁eriet	-10.6788
▁oder	-10.6798
▁uvud	-10.6802
▁betet	-10.6812
▁rap	-10.6814
▁väld	-10.6816
▁King	-10.6819
▁ado	-10.6828
▁tore	-10.683
▁Mac	-10.6834
▁rock	-10.684
▁rat	-10.6852
▁lld	-10.6858
▁korr	-10.6875
▁mid	-10.6888
▁juta	-10.6895
▁ångar	-10.6903
▁meka	-10.6908
▁run	-10.6909
▁löm	-10.6914
▁uto	-10.6919
▁tners	-10.6923
▁orer	-10.6928
▁byt	-10.6931
het	-10.6946
▁Lea	-10.6963
▁inv	-10.6967
▁og	-10.6978
▁ika	-10.6989
▁gan	-10.6991
▁kva	-10.6996
▁nerar	-10.7003
▁lb	-10.7007
▁asa	-10.7012
▁ilen	-10.7018
▁äd	-10.7033
▁Före	-10.7045
▁ilm	-10.7051
▁nsk	-10.7074
gå	-10.7079
▁isto	-10.7085
▁ttig	-10.7091
▁ruk	-10.7093
▁tagen	-10.7096
▁tråk	-10.7114
▁ldi	-10.7116
▁bili	-10.7126
▁agn	-10.7134
▁yn	-10.7142
kna	-10.7149
▁kland	-10.7153
▁inj	-10.7162
▁ket	-10.7166
▁törst	-10.7171
▁che	-10.7174
▁mr	-10.7176
▁ono	-10.7176
▁utse	-10.7178
▁ingå	-10.7194
▁smi	-10.7205
▁ynt	-10.7205
▁gdom	-10.7211
ll	-10.7217
▁ssi	-10.7217
▁iel	-10.7218
▁fyr	-10.7219
▁Rom	-10.7219
▁cel	-10.7247
▁1,	-10.7249
BA	-10.7249
▁amera	-10.7253
▁shi	-10.7257
▁plik	-10.7258
▁pot	-10.7271
▁llar	-10.7273
▁ltar	-10.728
▁imo	-10.7291
▁tät	-10.7292
▁ädd	-10.7296
▁gatan	-10.7307
6	-10.7318
X	-10.7323
fier	-10.7323
▁kert	-10.7326
▁Chi	-10.7336
ci	-10.7336
▁pulär	-10.7337
van	-10.7348
▁lem	-10.7349
▁llde	-10.7357
▁eru	-10.7374
▁yt	-10.7375
pass	-10.7377
▁gni	-10.7415
▁ndo	-10.7423
▁nju	-10.7423
▁fara	-10.7441
▁elat	-10.7443
▁teor	-10.7444
▁ktu	-10.7445
▁mak	-10.7445
De	-10.7447
▁ift	-10.7453
▁isar	-10.7455
▁kte	-10.7473
▁rgi	-10.7481
▁top	-10.7483
▁rull	-10.7483
▁nj	-10.7487
▁ikten	-10.7497
▁åta	-10.7502
▁löd	-10.7504
▁uel	-10.7506
▁arker	-10.7506
▁xem	-10.7515
im	-10.7516
▁kos	-10.7521
▁efo	-10.7523
▁ales	-10.7524
▁uni	-10.7528
▁adern	-10.7542
▁öga	-10.7555
▁yl	-10.756
▁rött	-10.7574
▁ören	-10.7587
▁luta	-10.7589
▁tabl	-10.7609
▁rali	-10.7613
▁nsat	-10.7617
▁ini	-10.7617
▁ony	-10.7627
▁<	-10.7632
▁opi	-10.7633
▁ona	-10.7636
▁Åh	-10.7646
▁surs	-10.7657
▁ink	-10.7657
▁Kar	-10.7666
▁lg	-10.7672
▁ane	-10.7674
J	-10.7674
▁ice	-10.7675
▁tvis	-10.7675
▁aj	-10.768
▁rmen	-10.77
▁mnar	-10.7701
▁ierar	-10.7703
▁eat	-10.771
▁ytan	-10.7717
▁skal	-10.7722
V	-10.7727
▁mling	-10.7729
▁Tra	-10.773
▁skl	-10.7733
▁evo	-10.7738
▁ordi	-10.7743
▁tum	-10.7753
▁dja	-10.7761
▁→	-10.7769
▁tall	-10.7771
▁titel	-10.7771
▁So	-10.7778
▁navi	-10.7787
▁äga	-10.7795
▁rto	-10.7796
▁lka	-10.7804
▁mpo	-10.7806
▁anger	-10.7809
▁dram	-10.7818
▁jor	-10.7829
fatt	-10.784
▁entu	-10.785
dni	-10.7872
▁king	-10.7872
▁29	-10.7879
▁erry	-10.788
▁nsam	-10.7881
▁Pe	-10.7885
▁plin	-10.7889
▁tull	-10.7891
▁länd	-10.7896
▁lägen	-10.7898
▁änka	-10.7902
▁ltur	-10.7903
▁tona	-10.7904
L	-10.7908
za	-10.7913
▁35	-10.7913
▁svärd	-10.7913
▁reak	-10.7935
▁anan	-10.7946
me	-10.7951
▁tö	-10.7957
▁Nä	-10.7968
▁meny	-10.7972
▁åg	-10.7979
▁ein	-10.7993
▁erg	-10.7994
▁odde	-10.8003
▁kra	-10.8007
▁pen	-10.8013
▁rida	-10.8019
▁itar	-10.8029
▁usta	-10.8031
▁ukt	-10.8037
▁|	-10.8038
▁inist	-10.8056
▁Spel	-10.8056
▁oci	-10.8063
olog	-10.8071
▁spo	-10.8074
▁Gu	-10.8075
▁ljare	-10.8084
▁He	-10.8085
▁Green	-10.8092
▁hil	-10.8104
▁Reg	-10.811
▁ratio	-10.8111
▁urin	-10.8115
▁chi	-10.8131
▁ropp	-10.8133
▁We	-10.8139
▁ls	-10.8148
▁istor	-10.8167
▁abs	-10.8171
▁nade	-10.8172
▁hall	-10.8179
▁orter	-10.8184
▁elli	-10.8196
▁usik	-10.8199
▁mår	-10.8201
▁anken	-10.8208
Ã	-10.8217
▁växte	-10.8223
▁okal	-10.8229
▁tämm	-10.8229
mi	-10.823
▁orti	-10.8232
▁laga	-10.8242
▁ige	-10.8256
▁45	-10.8259
▁Pu	-10.8263
yder	-10.8263
▁darna	-10.8273
▁mej	-10.8273
▁Kor	-10.8283
▁edic	-10.8283
▁gon	-10.8289
▁läck	-10.8291
min	-10.8314
▁ath	-10.8316
▁nion	-10.8329
▁näst	-10.8335
▁låna	-10.8351
▁tivet	-10.8356
▁sid	-10.8357
▁gator	-10.8367
U	-10.8373
▁rins	-10.8395
▁raft	-10.8396
▁äv	-10.84
▁wo	-10.8402
men	-10.8406
▁Volvo	-10.8407
▁lagg	-10.8415
▁vag	-10.8419
▁norr	-10.8426
▁alli	-10.8439
▁kut	-10.8439
▁Hä	-10.844
▁meri	-10.8443
▁eral	-10.8456
▁dj	-10.8456
▁fest	-10.8457
▁torr	-10.8457
▁vas	-10.8458
▁anter	-10.8461
▁jur	-10.8469
...	-10.8471
▁lien	-10.8479
▁onu	-10.8482
▁@	-10.8502
▁nisk	-10.8521
▁klad	-10.8523
ge	-10.8527
od	-10.8552
▁vali	-10.8559
▁tenar	-10.8563
▁igar	-10.8567
▁mpa	-10.8568
▁anlig	-10.8569
ö	-10.8574
opul	-10.8581
▁ntat	-10.8593
▁VD	-10.8611
am	-10.8626
▁tip	-10.8627
▁golf	-10.8645
▁ERRE	-10.8646
▁tate	-10.8649
▁vanor	-10.8649
▁arri	-10.8659
▁rank	-10.8661
▁ytt	-10.8669
mera	-10.8677
▁stid	-10.8683
ak	-10.8689
7	-10.8692
▁ndre	-10.8694
▁nsta	-10.8698
▁juda	-10.8699
▁vamp	-10.87
▁ubb	-10.8719
▁krat	-10.873
▁abo	-10.8735
▁kär	-10.874
W	-10.8743
▁aka	-10.8748
▁Hall	-10.8751
▁EN	-10.8753
▁grej	-10.8753
▁Red	-10.8756
▁öst	-10.876
▁ula	-10.8766
▁labo	-10.8779
▁́	-10.8791
▁ränd	-10.8811
▁still	-10.8814
▁mart	-10.8827
▁mun	-10.8827
▁fors	-10.8828
▁lte	-10.8839
▁amla	-10.884
▁enis	-10.884
▁rvera	-10.8841
▁noll	-10.8852
▁ids	-10.8857
▁tern	-10.8897
▁bla	-10.8905
▁sning	-10.8908
▁ög	-10.8911
▁isst	-10.8915
▁nat	-10.892
▁Ol	-10.8931
”	-10.8932
▁lojal	-10.8939
▁mole	-10.8948
▁niv	-10.8956
▁vtal	-10.8964
▁tive	-10.8965
▁fli	-10.8992
▁ifik	-10.8995
▁acc	-10.9004
▁äder	-10.9005
▁rasi	-10.9009
▁amn	-10.9026
▁oll	-10.9026
▁aken	-10.9027
9	-10.9037
▁400	-10.9046
tat	-10.9056
▁pon	-10.9062
▁ID	-10.9068
▁dh	-10.9076
▁jude	-10.9076
▁llvar	-10.9089
▁mand	-10.909
▁ving	-10.909
▁äm	-10.9093
▁Wall	-10.9101
▁ttra	-10.9121
▁nia	-10.9126
▁don	-10.9131
▁Aw	-10.9133
▁rium	-10.9142
▁kin	-10.9151
▁mith	-10.9153
▁inska	-10.9165
▁sil	-10.9169
▁lm	-10.9181
▁kopp	-10.9187
▁likn	-10.9188
ET	-10.9194
▁mbi	-10.9197
▁seg	-10.9202
▁pto	-10.921
▁tora	-10.9215
▁Ung	-10.9218
▁bl	-10.9233
▁orma	-10.9243
▁Au	-10.9245
▁öj	-10.9248
▁Un	-10.9249
▁usk	-10.9254
▁sor	-10.9257
▁ya	-10.9258
▁ef	-10.9268
▁bliv	-10.9283
▁sajt	-10.9292
▁damm	-10.9303
▁ät	-10.9317
▁oo	-10.9326
EN	-10.9329
▁esa	-10.9331
▁tm	-10.9333
▁mmi	-10.9351
▁ddar	-10.9367
▁rse	-10.9387
▁lter	-10.9389
▁dras	-10.9394
▁gie	-10.9394
▁runda	-10.9395
▁mpor	-10.9398
▁ssar	-10.94
▁Max	-10.9421
▁NA	-10.9422
bo	-10.9428
▁elek	-10.9445
▁neral	-10.9455
he	-10.9457
▁III	-10.9461
▁Pri	-10.9487
▁olly	-10.9502
▁time	-10.9511
▁kni	-10.9532
mä	-10.9533
▁iot	-10.9545
▁nitt	-10.9552
▁anli	-10.9558
▁By	-10.9577
▁yr	-10.9584
lade	-10.959
▁prise	-10.9605
▁Lö	-10.9608
▁mpi	-10.9609
▁rne	-10.9619
▁ape	-10.9632
▁CO	-10.9632
▁nnu	-10.9652
▁utgå	-10.9653
▁ista	-10.9667
▁exa	-10.9671
▁älsk	-10.9672
▁anska	-10.9673
▁PC	-10.9673
ort	-10.9681
ati	-10.9684
▁dant	-10.9688
▁Rock	-10.9688
▁trad	-10.9702
▁2.	-10.9703
▁elg	-10.9703
▁icer	-10.9703
;	-10.9708
▁kämp	-10.9723
▁Ir	-10.9735
▁tma	-10.9739
▁ego	-10.9741
▁ärm	-10.9753
vel	-10.9769
▁Tro	-10.977
▁gruv	-10.9774
▁eu	-10.9798
▁Mil	-10.9798
▁kärl	-10.9798
▁kunn	-10.9806
▁sekt	-10.9809
▁gand	-10.9821
▁dr	-10.9828
▁gar	-10.9832
▁Dig	-10.9833
▁Fil	-10.9841
▁asse	-10.9847
lo	-10.9873
▁nders	-10.9886
läg	-10.9894
▁arde	-10.9895
▁tött	-10.9909
▁kvi	-10.9909
▁öro	-10.9913
▁nig	-10.9917
▁ehov	-10.9933
▁klag	-10.9933
▁håret	-10.9934
▁funk	-10.9945
▁ollen	-10.9951
▁nken	-10.9952
▁ikti	-10.9955
▁nut	-10.9971
▁lick	-10.9973
allt	-10.9977
▁gno	-10.9981
▁öta	-10.9981
▁ols	-10.9986
▁räk	-10.9994
▁ektor	-10.9997
▁garna	-11
▁tä	-11.0003
▁lät	-11.0007
▁ISO	-11.0016
di	-11.0019
▁TM	-11.0031
▁ckså	-11.0041
▁tsk	-11.0046
▁stin	-11.0049
▁sing	-11.0051
▁erie	-11.0066
▁ukti	-11.0066
▁ston	-11.0075
▁Ph	-11.0075
▁atin	-11.0079
▁gor	-11.0082
▁ektr	-11.009
enhe	-11.0095
▁1.	-11.0097
▁väska	-11.01
▁ekni	-11.0106
▁gry	-11.0112
▁vins	-11.0112
▁laget	-11.0117
▁marg	-11.0122
▁Lo	-11.0127
▁turer	-11.0127
▁tän	-11.0141
▁uler	-11.0143
¤	-11.0151
tab	-11.016
▁oda	-11.0165
▁emin	-11.0171
▁etal	-11.0179
▁pand	-11.0185
00	-11.0188
▁OS	-11.0198
▁ekan	-11.0206
ur	-11.0215
▁mater	-11.023
▁trum	-11.0238
▁sio	-11.0266
▁Del	-11.0267
▁rita	-11.0268
▁römm	-11.0269
▁Af	-11.0269
▁ppo	-11.0301
▁Bli	-11.0305
▁titt	-11.0307
▁teg	-11.0308
▁www	-11.032
▁tions	-11.0326
▁Hej	-11.0327
▁abe	-11.0331
▁emp	-11.0341
▁cis	-11.0361
▁elen	-11.0389
▁pend	-11.0391
▁adr	-11.0399
▁yper	-11.04
stäm	-11.0404
▁Bar	-11.0404
▁karen	-11.0419
▁löt	-11.0424
▁isc	-11.0427
▁rle	-11.0432
▁skade	-11.0448
lös	-11.045
▁tiger	-11.0451
▁amne	-11.0456
▁ommu	-11.0456
▁äls	-11.0458
▁nist	-11.0466
▁ämna	-11.0467
▁vice	-11.0475
▁nyt	-11.0481
▁terad	-11.0493
▁lub	-11.0494
set	-11.0501
lar	-11.0516
▁odi	-11.0524
ver	-11.0529
▁onte	-11.053
▁aku	-11.0533
▁omen	-11.0539
▁gga	-11.0541
▁ote	-11.0559
▁;)	-11.056
▁papp	-11.0567
▁vägg	-11.0573
▁ndes	-11.0574
▁pela	-11.0578
▁eso	-11.0579
ly	-11.0595
▁ball	-11.0596
▁gåv	-11.0596
▁imer	-11.0598
▁pul	-11.0607
▁Ar	-11.0632
▁töt	-11.0632
▁esul	-11.0636
▁tiva	-11.0642
▁ndska	-11.0654
▁cu	-11.0655
▁lj	-11.0659
▁€	-11.0668
▁onf	-11.0685
▁rio	-11.0686
▁Is	-11.0696
▁orru	-11.07
▁kande	-11.0709
▁oper	-11.0712
▁Cy	-11.0713
▁ura	-11.0715
▁erli	-11.0722
▁ckt	-11.0737
▁lyck	-11.0743
▁pla	-11.0767
▁pper	-11.0769
▁aci	-11.0772
tig	-11.0774
▁rti	-11.078
▁pu	-11.0785
▁·	-11.0787
▁US	-11.079
▁esten	-11.079
då	-11.0796
▁inse	-11.0801
▁Los	-11.0816
▁rligt	-11.0837
▁rade	-11.0841
▁USD	-11.0862
▁trik	-11.0864
▁ibi	-11.0866
▁Tj	-11.0877
▁vard	-11.0884
10	-11.0886
▁nel	-11.0887
▁ager	-11.0897
agar	-11.0899
▁2,	-11.0903
erad	-11.0906
▁tomt	-11.0919
▁tone	-11.0927
▁appo	-11.0927
▁ugn	-11.093
▁ggen	-11.094
▁ntu	-11.0952
ger	-11.0953
▁sma	-11.0971
▁orier	-11.0976
▁anor	-11.0976
▁mpan	-11.0977
▁erats	-11.0977
▁rörd	-11.0991
▁låda	-11.1008
▁rp	-11.1012
▁lyd	-11.1016
▁torn	-11.1017
▁ific	-11.103
▁you	-11.1032
▁Ur	-11.1041
NTE	-11.1042
▁por	-11.1049
▁idor	-11.1058
▁opp	-11.1059
ol	-11.1069
▁täv	-11.1074
▁Matt	-11.1076
▁ips	-11.1082
▁Mari	-11.1087
ett	-11.1092
8	-11.1095
ty	-11.1102
▁ivi	-11.1116
ör	-11.112
▁lea	-11.1129
▁rah	-11.113
▁yre	-11.1134
ner	-11.1146
▁nnis	-11.1147
▁juk	-11.1152
plan	-11.1155
▁Jesu	-11.1156
▁utb	-11.118
to	-11.12
▁ljan	-11.1212
▁but	-11.1213
▁[-]	-11.1213
▁ECB	-11.1215
▁gräv	-11.1216
▁osa	-11.1238
▁pans	-11.1238
▁räng	-11.1241
ofe	-11.1251
▁dds	-11.1253
0%	-11.1262
▁olis	-11.1269
▁kydd	-11.1289
▁lagga	-11.1292
▁rds	-11.1305
▁Pal	-11.1313
▁pande	-11.1325
▁mne	-11.1326
ika	-11.1327
▁gast	-11.1335
▁§	-11.1339
▁atan	-11.1342
▁rip	-11.1344
▁sat	-11.1351
▁finn	-11.1352
▁fråg	-11.1353
▁lda	-11.1355
▁utf	-11.1357
▁iden	-11.1358
▁sha	-11.136
▁nkt	-11.1373
▁äte	-11.1377
▁Ben	-11.1383
▁riva	-11.1386
▁aff	-11.1391
▁asti	-11.1395
kyld	-11.1401
←	-11.1402
▁xp	-11.1402
▁bj	-11.1408
▁USB	-11.1411
▁36	-11.1426
▁lva	-11.143
▁ble	-11.1432
▁pter	-11.1437
▁magn	-11.1438
▁ign	-11.1439
▁rupp	-11.144
▁ski	-11.1447
▁ntion	-11.1454
▁malt	-11.1462
▁Spe	-11.1464
▁leka	-11.1465
▁pote	-11.1467
▁ämfö	-11.1476
▁Me	-11.1478
▁kern	-11.1486
▁krik	-11.1491
5	-11.1503
▁andr	-11.1519
▁röt	-11.1521
▁sär	-11.1533
▁Art	-11.1533
▁Vart	-11.1533
ax	-11.1536
av	-11.1538
▁enne	-11.1556
▁Ga	-11.1561
xi	-11.1567
▁Väl	-11.1577
▁gita	-11.159
▁ålde	-11.1597
▁ront	-11.1601
ut	-11.1603
un	-11.161
▁bö	-11.1616
▁glig	-11.1623
▁rof	-11.1634
▁lakt	-11.1642
▁rafik	-11.166
▁gde	-11.1666
▁600	-11.1668
▁stade	-11.1672
▁tec	-11.1673
▁isn	-11.1676
▁dw	-11.1676
▁fon	-11.1679
▁Per	-11.1691
▁lp	-11.1701
Y	-11.1705
▁napp	-11.1714
▁IS	-11.1714
på	-11.1715
▁iljö	-11.1726
▁uld	-11.1728
▁ånger	-11.1743
▁arier	-11.1744
▁åtar	-11.1755
▁yss	-11.176
▁onn	-11.1761
▁AI	-11.1764
▁cas	-11.177
AS	-11.1778
▁Big	-11.1779
▁vl	-11.178
▁lac	-11.1785
ki	-11.1794
▁gro	-11.1798
▁én	-11.1806
▁vrig	-11.1809
.1	-11.1828
▁emen	-11.1828
▁ktar	-11.183
▁älla	-11.1832
▁låne	-11.1834
▁ander	-11.1835
era	-11.1836
▁oken	-11.1839
▁rings	-11.1852
▁Sök	-11.1862
▁leri	-11.1871
▁trag	-11.1891
▁dade	-11.1894
▁oav	-11.1903
▁con	-11.1925
▁One	-11.1927
▁örde	-11.1953
▁lämn	-11.1964
▁nsu	-11.1971
.2	-11.1983
▁ante	-11.1985
▁skon	-11.1987
▁lat	-11.1988
▁änta	-11.2001
att	-11.2004
▁tla	-11.2011
▁mix	-11.2014
gg	-11.2017
▁As	-11.202
▁ze	-11.2025
▁pna	-11.2028
▁Hos	-11.2042
▁ffi	-11.2046
▁afe	-11.2048
pe	-11.205
▁rac	-11.2058
▁Ap	-11.2066
▁posi	-11.2071
▁ada	-11.2077
▁ica	-11.2086
▁dan	-11.2098
▁jär	-11.2103
▁jön	-11.2108
▁gråta	-11.2108
▁ggs	-11.211
ER	-11.2113
▁arina	-11.2122
▁tale	-11.2129
▁alv	-11.2133
▁agg	-11.2136
▁radi	-11.2141
▁gråt	-11.2158
▁riv	-11.2163
▁Hem	-11.2167
▁anen	-11.2175
▁vilda	-11.2175
▁Tv	-11.2182
▁gri	-11.2184
▁Sain	-11.2197
▁32	-11.22
▁otor	-11.2201
▁pli	-11.2201
ny	-11.2207
▁röm	-11.2215
▁3.	-11.2222
ath	-11.2223
▁mall	-11.2232
▁elä	-11.2248
▁edb	-11.226
dar	-11.2268
▁Don	-11.2273
▁nor	-11.2275
▁his	-11.2276
▁hip	-11.2278
▁Of	-11.2279
titu	-11.2285
▁fran	-11.2292
▁ölja	-11.2299
hi	-11.2306
▁bju	-11.2316
▁vagn	-11.232
▁fini	-11.2328
BS	-11.2332
▁vern	-11.2335
▁rell	-11.2345
▁vana	-11.2349
▁lyser	-11.2354
▁75	-11.2354
▁les	-11.2362
▁ags	-11.2364
▁rtal	-11.2372
exu	-11.2377
▁grov	-11.2385
▁ked	-11.2392
▁edo	-11.2415
▁dej	-11.2417
▁nere	-11.2419
▁rmo	-11.2432
▁alle	-11.2443
▁vild	-11.2452
▁dum	-11.2457
▁sso	-11.246
▁ode	-11.2461
▁iks	-11.2466
▁turné	-11.248
ah	-11.2485
▁gif	-11.2516
▁tni	-11.252
ell	-11.2523
▁rmar	-11.2531
▁yll	-11.2538
▁uset	-11.254
▁vande	-11.2542
▁behör	-11.2544
▁örr	-11.2548
▁drink	-11.255
▁arf	-11.2553
▁Az	-11.2555
▁töd	-11.2556
▁äms	-11.2558
▁HD	-11.2563
my	-11.2565
▁ovi	-11.2577
▁orten	-11.2583
sp	-11.2584
xy	-11.2586
▁trar	-11.2587
▁öke	-11.259
30	-11.259
▁lace	-11.2596
▁pet	-11.2603
▁Fre	-11.2608
▁vil	-11.2611
▁trer	-11.2613
▁unde	-11.2625
▁Gal	-11.265
edni	-11.2657
sak	-11.2675
▁PS	-11.2675
▁til	-11.2677
▁Mar	-11.2678
som	-11.2685
▁rma	-11.2688
▁loss	-11.2689
▁(1)	-11.2689
▁itu	-11.269
▁itiv	-11.2698
▁Tur	-11.2702
▁cm	-11.2703
▁ER	-11.2704
▁ummer	-11.2705
▁ye	-11.2711
▁tero	-11.2718
sen	-11.2721
▁ior	-11.2723
▁adda	-11.2724
▁250	-11.274
▁agan	-11.2758
▁ldrig	-11.276
▁ip	-11.2765
▁Cla	-11.2765
▁Dag	-11.2766
▁rader	-11.2776
▁eff	-11.2788
▁aus	-11.279
▁naly	-11.2798
yk	-11.28
▁omna	-11.2814
ter	-11.2824
▁ssan	-11.2827
▁CD	-11.2833
▁rie	-11.284
▁läka	-11.2842
org	-11.2876
▁nart	-11.288
▁uma	-11.2893
▁rate	-11.2893
▁talt	-11.2894
▁Air	-11.2903
ent	-11.2907
▁tel	-11.291
▁Mag	-11.2918
▁gli	-11.2921
▁lank	-11.2922
▁vine	-11.2929
▁grö	-11.293
▁atsen	-11.2932
▁mon	-11.2941
läck	-11.2951
▁rlo	-11.2951
Q	-11.2952
▁Sha	-11.2957
▁rint	-11.2962
ack	-11.2964
▁unna	-11.2965
▁slig	-11.2974
▁ensa	-11.2974
▁ådan	-11.2975
▁ktet	-11.2977
▁White	-11.2997
▁yrke	-11.3013
▁OK	-11.3023
▁lok	-11.3029
▁iter	-11.3033
▁rsk	-11.304
etto	-11.304
gra	-11.3054
▁lug	-11.3057
▁chatt	-11.3057
Är	-11.3064
▁sis	-11.3068
▁ösa	-11.3071
▁unger	-11.3073
▁mage	-11.3074
▁ången	-11.3078
▁mit	-11.3079
▁lir	-11.3082
▁rts	-11.3083
▁roj	-11.3085
avi	-11.3086
▁taxi	-11.3087
▁ttar	-11.3098
ment	-11.3099
▁rko	-11.3103
▁föd	-11.3108
▁irk	-11.3108
▁gd	-11.3129
DA	-11.3131
▁sit	-11.3134
▁2:	-11.3138
▁Rö	-11.314
▁arte	-11.3145
äg	-11.3149
▁mla	-11.315
▁App	-11.3152
▁rian	-11.3158
ste	-11.3163
▁Cli	-11.3163
▁uf	-11.3165
▁Na	-11.3166
▁gden	-11.3169
▁VM	-11.317
IV	-11.3194
▁IV	-11.3195
▁riga	-11.3199
▁VPN	-11.3207
▁kräp	-11.321
▁ivare	-11.321
▁side	-11.3217
tre	-11.3225
,5	-11.3227
▁raser	-11.3234
▁nano	-11.3241
▁hyr	-11.3253
▁gade	-11.3255
▁anke	-11.3281
▁ljard	-11.3283
▁CBD	-11.3284
▁börj	-11.3293
▁3,	-11.3299
▁bur	-11.3318
PS	-11.3338
▁vriga	-11.3341
▁ruv	-11.3342
▁On	-11.3348
▁este	-11.335
▁tati	-11.335
▁dol	-11.3355
ultu	-11.3368
▁tork	-11.3374
▁Bet	-11.3377
▁1:	-11.3399
▁endo	-11.3411
▁tart	-11.3421
▁Ru	-11.343
▁amar	-11.3431
▁Cl	-11.3432
]	-11.3433
▁tube	-11.3438
▁bba	-11.3442
▁vågar	-11.3448
▁edde	-11.3459
▁ycka	-11.3464
▁cit	-11.3474
▁öppn	-11.3479
bild	-11.3483
▁rfar	-11.3494
▁1)	-11.3495
▁48	-11.3498
▁rgen	-11.3502
▁ibla	-11.3523
▁jon	-11.3523
▁Nej	-11.3528
▁vy	-11.3534
▁glu	-11.3535
▁oke	-11.355
wa	-11.3551
▁rymm	-11.3555
▁apa	-11.3555
▁ngr	-11.3565
▁nazi	-11.3577
▁nöt	-11.3585
lipp	-11.359
▁derb	-11.3595
▁vrid	-11.3598
▁näll	-11.36
▁rost	-11.361
▁kåda	-11.3615
▁pital	-11.3615
▁seri	-11.3619
▁egi	-11.3628
▁siv	-11.3643
▁able	-11.3646
vo	-11.3646
▁kum	-11.3656
▁ipp	-11.3665
▁hyll	-11.3667
▁obi	-11.3668
▁mant	-11.367
▁erans	-11.3671
▁Ã	-11.368
▁book	-11.3683
▁tyd	-11.3683
▁gin	-11.3686
▁frik	-11.3694
▁yan	-11.3705
▁usa	-11.3705
▁Mö	-11.3706
OR	-11.3706
▁33	-11.3713
▁aran	-11.3722
▁rg	-11.3723
▁grä	-11.3725
▁lund	-11.3736
▁njur	-11.3737
▁leve	-11.3739
▁Ven	-11.374
▁lta	-11.3746
▁Bras	-11.3746
▁indra	-11.3751
▁lest	-11.3752
▁trejk	-11.3753
▁cklar	-11.3755
▁yssna	-11.3759
▁glo	-11.3759
▁nty	-11.376
▁eland	-11.3764
ist	-11.3764
▁epa	-11.3775
AT	-11.3782
go	-11.3788
▁ödd	-11.3794
▁info	-11.3795
▁grå	-11.381
▁tade	-11.3812
▁idan	-11.3814
▁pit	-11.3821
▁Te	-11.3825
▁°	-11.3835
▁dop	-11.3842
▁fak	-11.3844
▁hoto	-11.3848
▁eli	-11.3848
▁ekv	-11.3849
▁herre	-11.386
▁lland	-11.3862
äkt	-11.3864
ärk	-11.3875
▁nek	-11.3879
▁tung	-11.3884
▁väng	-11.3885
▁Er	-11.389
▁tw	-11.3904
▁tier	-11.3904
▁enny	-11.3913
▁Ali	-11.3918
▁emb	-11.3918
▁indre	-11.392
▁eak	-11.3931
▁rol	-11.3937
▁atorn	-11.3938
▁kerna	-11.3938
rack	-11.3942
▁onta	-11.3959
▁ägen	-11.396
▁sme	-11.3962
CH	-11.3965
▁rod	-11.3976
▁geni	-11.3981
▁nit	-11.3983
▁ynn	-11.3987
▁cke	-11.3988
&	-11.3993
▁inan	-11.3997
▁iklar	-11.3999
▁ntas	-11.4007
▁ärare	-11.4011
▁rmi	-11.4017
▁nre	-11.4017
▁ubli	-11.4021
▁120	-11.4025
▁örda	-11.4027
▁nnov	-11.4028
▁syr	-11.4041
▁eh	-11.4043
▁eha	-11.4052
▁ntan	-11.4057
▁Oc	-11.4076
▁tårar	-11.4082
▁Day	-11.4091
▁ntr	-11.4098
▁tap	-11.4103
▁2)	-11.4109
ju	-11.411
▁yhet	-11.4115
▁dyrt	-11.4115
▁lip	-11.4118
▁rapp	-11.4123
▁llt	-11.4124
▁atr	-11.4128
▁fäl	-11.4129
iver	-11.4139
▁entre	-11.4151
▁estä	-11.4154
▁day	-11.4164
▁ulle	-11.4165
▁hedra	-11.4166
▁oppa	-11.4167
▁aur	-11.4167
▁esse	-11.4176
▁karp	-11.4182
▁rkar	-11.4186
▁later	-11.4192
▁öt	-11.4192
▁oppar	-11.4198
▁duk	-11.4201
▁hata	-11.4202
▁eten	-11.4207
▁Åt	-11.4208
▁tort	-11.4214
▁okus	-11.4214
▁orre	-11.4218
▁mam	-11.4219
▁gall	-11.4224
▁pop	-11.4225
▁tuell	-11.4232
▁rosa	-11.4244
▁Bil	-11.4246
▁800	-11.4259
▁abba	-11.4268
▁MS	-11.4273
▁road	-11.4286
▁rdin	-11.4286
▁elef	-11.4317
▁orat	-11.4318
▁her	-11.4323
▁65	-11.4335
▁snö	-11.434
▁iö	-11.4344
vot	-11.4355
▁mpli	-11.4355
▁liter	-11.4357
▁matt	-11.4358
▁avgör	-11.4358
sta	-11.4361
▁baser	-11.4377
AR	-11.4377
▁grep	-11.438
▁Fl	-11.4382
▁esi	-11.4385
▁IN	-11.4391
▁vap	-11.4399
by	-11.4405
▁unni	-11.4405
▁add	-11.4408
▁rspr	-11.4427
▁rabb	-11.4445
rapp	-11.4445
▁läd	-11.4452
par	-11.4468
▁vat	-11.4468
▁trak	-11.4473
▁Sö	-11.4474
▁imm	-11.4479
sy	-11.4484
▁slä	-11.4491
▁ögst	-11.4494
▁dve	-11.4499
▁ety	-11.4505
▁Erik	-11.4511
▁kras	-11.4526
▁mmet	-11.4527
▁itl	-11.4532
▁alj	-11.4545
▁oten	-11.4549
▁nik	-11.4559
▁slo	-11.456
▁amil	-11.4579
Z	-11.4608
/	-11.4613
▁Hö	-11.4616
▁Hus	-11.4622
▁ratis	-11.4626
▁pin	-11.4627
åge	-11.4629
▁ndr	-11.463
▁iso	-11.4632
▁3:	-11.4635
▁ativt	-11.4636
▁eria	-11.4641
▁toria	-11.4644
▁(1	-11.4654
▁issi	-11.4656
▁knä	-11.4657
▁ssn	-11.4665
▁stera	-11.4671
▁Tar	-11.4678
▁rman	-11.4704
▁Son	-11.4717
emo	-11.4726
▁elb	-11.4732
▁rut	-11.4737
▁esl	-11.4737
▁vib	-11.4739
▁tage	-11.4753
▁maxi	-11.4756
▁Will	-11.4759
▁FÖR	-11.4771
etw	-11.4779
▁Hi	-11.4784
▁Las	-11.4786
sh	-11.4795
▁sisk	-11.4795
▁iste	-11.4802
▁arke	-11.4825
bu	-11.4825
▁ttis	-11.483
▁4.	-11.483
▁dmi	-11.4833
▁cia	-11.4835
▁Sq	-11.4837
▁Inn	-11.4839
SA	-11.4839
▁Kal	-11.4839
zo	-11.4842
Г	-11.4852
▁with	-11.4859
▁Marx	-11.486
▁ntrol	-11.4875
▁öf	-11.4879
▁äge	-11.4893
▁42	-11.4894
ami	-11.4905
▁cen	-11.4912
▁urer	-11.4917
▁äx	-11.4919
▁tere	-11.4921
all	-11.4927
).	-11.4933
▁klu	-11.4933
▁GDPR	-11.4946
▁DVD	-11.4948
▁Dy	-11.4952
▁torer	-11.4952
▁cock	-11.4957
▁bbl	-11.4966
rd	-11.4971
▁rutt	-11.4975
▁anik	-11.4982
▁ful	-11.4989
▁Ri	-11.499
▁range	-11.4994
jo	-11.4996
▁orde	-11.5001
▁onve	-11.5004
▁ams	-11.501
▁rive	-11.5026
▁Ram	-11.5034
20	-11.5036
▁lagd	-11.5057
▁lden	-11.5063
▁akter	-11.5068
▁giga	-11.507
▁magen	-11.5089
▁mst	-11.5094
▁ype	-11.5119
▁tori	-11.5121
▁lände	-11.5125
▁bä	-11.513
▁ård	-11.5134
▁uda	-11.5138
▁ntor	-11.5139
stri	-11.5143
▁ense	-11.515
EM	-11.5151
▁39	-11.5156
60	-11.5157
uri	-11.5173
▁llan	-11.5178
der	-11.518
▁allat	-11.5186
▁sena	-11.5189
▁roi	-11.5198
▁37	-11.5209
▁vidd	-11.5213
¥	-11.5222
▁^	-11.5222
▁ierna	-11.5223
▁onse	-11.5224
▁reb	-11.5227
▁Män	-11.5244
▁4,	-11.5247
▁tré	-11.5254
do	-11.5269
tz	-11.527
▁olle	-11.5272
▁armor	-11.5274
▁ån	-11.5277
▁raka	-11.5279
tro	-11.5283
▁vede	-11.5285
ssa	-11.5293
▁nker	-11.5304
▁nål	-11.5306
ript	-11.5311
▁mari	-11.5319
▁utsi	-11.5327
ey	-11.5332
▁ömd	-11.5336
▁Bay	-11.5337
▁rarna	-11.5337
▁fy	-11.5341
▁AR	-11.5351
IT	-11.5354
▁agar	-11.5365
▁onsu	-11.5377
▁tie	-11.538
▁34	-11.5389
▁Ki	-11.5391
▁räm	-11.5398
▁urre	-11.5403
▁lukt	-11.5411
▁reta	-11.5413
▁xt	-11.5423
mgå	-11.545
▁Wil	-11.5462
▁lsen	-11.5469
▁skå	-11.547
▁Com	-11.5496
‐	-11.5505
▁£	-11.5505
▁agage	-11.5512
▁rdr	-11.5516
▁sonen	-11.5521
▁SEK	-11.5522
▁Ul	-11.5524
▁mad	-11.5525
▁iset	-11.5527
▁tenen	-11.5535
▁vb	-11.5542
ått	-11.5555
▁nedr	-11.556
▁dla	-11.5577
hy	-11.5582
▁tock	-11.5592
▁rki	-11.5593
▁rele	-11.5596
▁LED	-11.5608
▁deri	-11.5608
TS	-11.5609
▁tike	-11.561
▁omf	-11.5611
AN	-11.5614
▁vall	-11.5617
40	-11.563
▁more	-11.5631
▁alit	-11.5636
▁oter	-11.565
TA	-11.5657
ud	-11.5657
▁kri	-11.5672
▁mråd	-11.5688
▁galax	-11.5698
▁egler	-11.5701
▁ranch	-11.5704
▁yli	-11.5714
▁ands	-11.5729
▁slan	-11.5738
▁Kul	-11.5746
▁trick	-11.5751
á	-11.5759
▁öjl	-11.5778
▁koj	-11.5791
KT	-11.5792
▁smo	-11.5796
▁pisod	-11.5796
▁rbju	-11.5803
▁ysk	-11.5804
▁SEO	-11.5805
▁ärnan	-11.582
▁ruta	-11.5822
▁kök	-11.5827
▁Up	-11.5831
▁slor	-11.5841
▁Van	-11.5843
▁etro	-11.5844
▁rata	-11.5847
▁yrk	-11.586
▁Vara	-11.588
▁skin	-11.5891
▁enry	-11.5898
▁=)	-11.5909
▁åld	-11.591
▁oki	-11.5917
▁strö	-11.5919
▁May	-11.5928
▁ölj	-11.593
▁nnie	-11.5937
▁zi	-11.5953
▁vek	-11.5956
▁mgå	-11.596
▁mink	-11.5961
▁jud	-11.5963
▁lati	-11.5965
▁turen	-11.5969
▁ivit	-11.5975
▁VI	-11.5981
▁rog	-11.5986
▁tört	-11.5988
NS	-11.5989
pa	-11.599
▁puls	-11.5998
▁ifte	-11.6004
▁arin	-11.6006
▁axi	-11.6013
▁Well	-11.6026
▁marin	-11.604
▁Or	-11.6047
▁ensen	-11.6063
.3	-11.6066
▁yte	-11.6067
▁tenn	-11.6081
▁dri	-11.6099
▁rusa	-11.61
▁rem	-11.613
▁ule	-11.6132
▁änkte	-11.6133
IS	-11.6136
▁egl	-11.6136
25	-11.615
▁55	-11.615
▁bön	-11.6162
▁Ger	-11.6162
lu	-11.6173
amme	-11.6192
▁rått	-11.6198
▁ramar	-11.6209
▁rall	-11.6212
ton	-11.6213
▁nap	-11.6214
kter	-11.6216
▁Top	-11.6222
▁rce	-11.623
▁ÄR	-11.6236
▁nön	-11.6237
▁oku	-11.624
▁fång	-11.624
▁väll	-11.6245
▁Shi	-11.6246
▁Kim	-11.6248
▁rede	-11.6249
▁tjän	-11.625
RA	-11.6253
▁valp	-11.6264
▁rty	-11.6268
▁Mot	-11.6271
▁erbj	-11.6273
▁je	-11.6279
äng	-11.6281
▁strat	-11.6294
▁rexit	-11.6301
▁geri	-11.6302
▁lang	-11.6303
mm	-11.6303
▁kåp	-11.6309
▁rdo	-11.631
EL	-11.6312
▁rkan	-11.6317
▁Ly	-11.6324
▁amo	-11.6325
▁kanal	-11.6327
▁yrka	-11.6327
▁ole	-11.633
▁1,5	-11.6342
▁Comm	-11.6343
▁llä	-11.6354
▁anin	-11.6357
▁mhet	-11.6362
▁erce	-11.6363
▁trus	-11.6366
fin	-11.6367
ph	-11.6369
▁gle	-11.6372
▁ånad	-11.638
▁Mig	-11.6382
▁abl	-11.6387
▁iam	-11.6387
▁entor	-11.6397
▁UK	-11.6403
▁Roger	-11.6406
▁Saab	-11.6406
▁nklu	-11.6408
▁PDF	-11.641
▁now	-11.6423
▁udet	-11.644
▁spri	-11.6444
▁vol	-11.6446
▁trikt	-11.6464
AL	-11.6468
▁38	-11.6484
inne	-11.6495
per	-11.6495
▁ttan	-11.6498
▁öar	-11.65
▁Cru	-11.6505
ec	-11.651
▁BNP	-11.651
▁Road	-11.6512
▁spå	-11.6513
▁tivi	-11.6513
▁ouis	-11.6514
▁atri	-11.652
▁nin	-11.6521
▁änker	-11.6529
▁holm	-11.6532
▁rfa	-11.6538
IF	-11.654
▁ombi	-11.6546
hu	-11.6572
▁lie	-11.6575
▁Nå	-11.658
▁kju	-11.6583
▁die	-11.6586
▁%.	-11.6602
▁spr	-11.6606
í	-11.6606
▁dvi	-11.6616
▁uc	-11.6616
▁lder	-11.662
▁lampa	-11.663
▁mum	-11.6632
▁dump	-11.6639
▁spä	-11.6641
▁ägge	-11.6645
gel	-11.6647
,2	-11.6649
▁Nin	-11.6651
be	-11.6655
▁rasa	-11.666
sko	-11.6664
▁reni	-11.6665
▁pert	-11.6678
▁loka	-11.6678
▁häll	-11.6687
▁omet	-11.6704
▁Alz	-11.6728
▁AS	-11.6736
▁mans	-11.6741
PA	-11.6746
▁drev	-11.6754
je	-11.6755
▁mala	-11.6757
▁orsa	-11.6762
▁asen	-11.6766
▁Bla	-11.6767
▁itan	-11.6782
▁arne	-11.6783
▁serve	-11.6802
▁nnes	-11.6823
▁̈	-11.6833
▁tält	-11.6833
npas	-11.6836
▁GUD	-11.6837
▁Law	-11.6842
MP	-11.6844
▁läpp	-11.6847
▁nsin	-11.6847
▁<3	-11.6847
▁50%	-11.685
ach	-11.6852
CC	-11.6856
▁mba	-11.6863
▁täng	-11.6864
▁pad	-11.6878
ya	-11.688
▁värn	-11.6884
▁ört	-11.6893
▁raff	-11.6898
▁oden	-11.69
▁DC	-11.6901
▁sif	-11.6916
▁oman	-11.6942
▁	-11.6943
zi	-11.6944
▁BBC	-11.6951
▁halt	-11.6954
▁GPS	-11.6959
▁MP	-11.696
▁lap	-11.6967
▁ålig	-11.6974
▁tha	-11.6981
▁trivs	-11.699
TP	-11.6994
▁mf	-11.6995
▁nos	-11.701
▁PR	-11.7016
▁aut	-11.7016
▁Gall	-11.7024
▁hjäl	-11.7028
▁HP	-11.7032
▁cr	-11.7039
▁ktis	-11.7042
▁vett	-11.7042
stra	-11.7043
▁Sh	-11.7047
pänn	-11.7053
▁ido	-11.7055
▁kull	-11.7056
▁oh	-11.7063
▁cC	-11.7063
▁näs	-11.7065
▁Ned	-11.7066
▁vulk	-11.7083
▁lio	-11.7097
▁Mä	-11.7098
▁odel	-11.7104
ó	-11.7116
ez	-11.7121
▁ida	-11.714
▁tatis	-11.7141
IC	-11.715
▁ussi	-11.7161
▁99	-11.7166
▁Virg	-11.7169
▁race	-11.7179
▁nurr	-11.7181
▁dumma	-11.7185
▁aly	-11.7188
▁rey	-11.7191
▁DU	-11.7191
▁teran	-11.7198
▁neg	-11.72
▁ntro	-11.7203
▁essan	-11.7208
rämj	-11.7212
▁kur	-11.7215
▁Än	-11.7218
▁love	-11.7229
▁dvs	-11.7234
▁Kr	-11.7245
tin	-11.7247
▁dv	-11.7268
az	-11.7272
▁genu	-11.7286
▁arib	-11.7295
▁lyder	-11.7299
▁alta	-11.7307
▁cial	-11.7319
▁rbu	-11.7323
▁ttet	-11.7333
▁ängd	-11.7336
▁rib	-11.7338
▁alay	-11.7342
▁tteri	-11.7347
▁Nov	-11.7358
▁eda	-11.7368
▁gate	-11.7381
▁lådor	-11.7395
▁Dro	-11.7402
▁3)	-11.7416
▁artan	-11.7428
▁akar	-11.7429
▁ermi	-11.743
▁rif	-11.7438
▁Her	-11.7441
▁marna	-11.7444
▁lins	-11.7457
ze	-11.7459
CA	-11.7461
stat	-11.7461
▁late	-11.7471
▁Pat	-11.7481
▁bjek	-11.749
▁soc	-11.7491
▁illu	-11.7497
▁igg	-11.7501
ail	-11.7514
▁Lee	-11.7515
▁onto	-11.7519
▁tuga	-11.752
▁exu	-11.7522
▁dok	-11.7528
▁hette	-11.753
▁dyr	-11.7537
▁ys	-11.7546
▁arao	-11.7548
▁atern	-11.7557
▁adre	-11.756
SI	-11.7563
▁iese	-11.7565
▁egat	-11.757
▁rno	-11.76
▁mmare	-11.7605
▁låst	-11.7608
▁sido	-11.7609
ock	-11.7616
▁Line	-11.762
▁äste	-11.7625
▁Show	-11.763
▁pub	-11.7667
▁rja	-11.7673
▁låsa	-11.7681
▁rann	-11.7687
▁Bel	-11.7689
AP	-11.7694
▁åd	-11.7699
▁dé	-11.7699
▁43	-11.7705
▁41	-11.7709
▁lå	-11.7719
▁(2)	-11.7749
▁ady	-11.7757
▁trös	-11.7759
▁niska	-11.776
▁ebo	-11.7763
▁glid	-11.7768
▁gm	-11.7774
▁onc	-11.7778
▁eve	-11.7781
▁bola	-11.7809
▁mast	-11.781
▁nås	-11.7816
▁Hot	-11.7827
▁bus	-11.7829
▁Cry	-11.7834
lite	-11.7855
▁GB	-11.7859
▁ope	-11.7862
'	-11.7862
så	-11.7862
▁5.	-11.7868
▁›	-11.7868
▁{	-11.7868
▁niti	-11.7879
▁toc	-11.7884
▁Land	-11.7888
▁Bob	-11.7891
▁rige	-11.7892
▁Call	-11.7899
▁sty	-11.7905
▁eart	-11.7907
rupp	-11.7923
▁95	-11.7937
▁isen	-11.7938
▁judan	-11.7941
▁vält	-11.7944
▁CV	-11.7944
PC	-11.7944
▁närm	-11.7945
▁LA	-11.7952
▁rro	-11.7956
NT	-11.7962
ox	-11.7963
▁mbo	-11.7963
▁bso	-11.7968
▁matta	-11.7972
▁ttad	-11.798
pp	-11.7982
▁~	-11.7991
▁täkt	-11.7995
▁isi	-11.7996
öj	-11.7998
▁DNA	-11.8
RM	-11.8005
▁alo	-11.8009
▁Pol	-11.8013
▁bbar	-11.8019
▁Åk	-11.803
▁nett	-11.8035
▁AP	-11.8041
▁pring	-11.805
CS	-11.8051
▁MA	-11.8053
US	-11.8061
▁--	-11.8062
▁Cho	-11.8062
rasi	-11.8068
ast	-11.8077
▁hej	-11.8094
▁atet	-11.8096
▁ally	-11.8104
▁tår	-11.811
▁unda	-11.8111
▁våt	-11.8112
Så	-11.8115
▁naken	-11.8116
▁agra	-11.8119
▁enge	-11.8119
▁hotet	-11.8119
▁eell	-11.8121
▁ussel	-11.8121
▁JAG	-11.8126
▁Vol	-11.813
▁Wal	-11.814
▁mpl	-11.8145
▁rös	-11.8151
kob	-11.8166
▁tiker	-11.8173
▁Tala	-11.8185
▁sbe	-11.8185
▁Jon	-11.819
▁pern	-11.8191
▁hiv	-11.8202
▁ST	-11.8202
ES	-11.8203
▁uka	-11.8204
▁nabb	-11.8207
ID	-11.8222
▁vec	-11.8223
▁käll	-11.8224
▁galn	-11.8226
▁olik	-11.8234
▁VR	-11.8239
▁♥	-11.8239
▁Girl	-11.8242
mu	-11.8243
▁track	-11.8251
▁ple	-11.8252
▁gag	-11.826
▁180	-11.8261
▁Par	-11.8271
▁ivan	-11.8272
▁anka	-11.8274
▁egio	-11.8277
▁Nap	-11.828
▁ånga	-11.8289
▁nfo	-11.8293
iel	-11.8299
▁rinc	-11.8305
▁rasen	-11.831
tor	-11.8314
▁roli	-11.8316
▁xe	-11.8319
▁oso	-11.8323
oth	-11.8331
▁ndu	-11.8333
thon	-11.8333
▁lamm	-11.8337
▁bile	-11.8351
gger	-11.8355
▁Nig	-11.8382
▁öjd	-11.8383
▁Nato	-11.8392
▁öter	-11.8396
▁twi	-11.8399
▁gard	-11.8419
▁Isa	-11.8422
äck	-11.8434
▁5,	-11.8452
TH	-11.8474
▁ude	-11.8479
▁Såg	-11.8485
▁uv	-11.8493
▁>>	-11.8494
yl	-11.8501
▁rinna	-11.8511
▁ouri	-11.852
▁qu	-11.8521
▁edig	-11.8527
▁trin	-11.8535
▁umm	-11.8536
▁mili	-11.8538
▁dim	-11.854
▁slö	-11.8543
ala	-11.8549
▁akor	-11.8561
▁esp	-11.8572
▁46	-11.8575
ato	-11.8584
SE	-11.8588
ramp	-11.8593
▁ross	-11.8595
▁demy	-11.8598
▁Hör	-11.8611
▁Brad	-11.8612
▁Klo	-11.8616
▁EES	-11.8617
▁365	-11.8628
ligt	-11.8632
▁ekto	-11.8633
▁öljer	-11.8636
▁mpe	-11.864
▁ese	-11.8642
,8	-11.8656
▁rav	-11.866
▁tlan	-11.8676
▁tine	-11.8685
▁andy	-11.8689
▁ecka	-11.8699
▁bull	-11.8701
▁omma	-11.8704
rång	-11.8707
▁CIA	-11.871
▁bbe	-11.8714
▁liti	-11.8716
▁pins	-11.8721
▁näm	-11.8734
▁tek	-11.8737
▁ollo	-11.8738
▁kår	-11.874
ø	-11.8751
▁skul	-11.8751
▁moské	-11.8755
▁MSEK	-11.8755
▁Bor	-11.8756
▁WHO	-11.8756
▁krek	-11.8757
▁lst	-11.8757
▁Cro	-11.876
▁örut	-11.8762
▁Bal	-11.8769
▁elet	-11.8773
▁Rou	-11.8774
▁åna	-11.878
▁js	-11.8805
AC	-11.881
▁lare	-11.8817
▁inat	-11.882
▁raf	-11.8827
▁ING	-11.8839
▁vens	-11.8839
▁Mid	-11.8839
▁jäs	-11.8842
▁xa	-11.8843
AM	-11.8844
▁änkt	-11.8844
▁EA	-11.8855
▁espe	-11.8866
▁rvel	-11.8871
▁state	-11.8882
slu	-11.8886
▁}	-11.8889
▁tavla	-11.8892
▁Forex	-11.8892
▁FBI	-11.8894
OL	-11.8895
▁alet	-11.8899
▁44	-11.8905
ata	-11.8905
▁metri	-11.8908
▁touch	-11.8908
▁cher	-11.8911
▁väva	-11.8919
▁utik	-11.8925
sel	-11.8926
▁Shan	-11.8935
▁eman	-11.8936
▁stel	-11.8936
▁once	-11.8947
TO	-11.8963
▁lice	-11.8975
▁enrik	-11.899
▁sad	-11.9006
▁drak	-11.9008
▁51	-11.9009
▁Pet	-11.901
▁pira	-11.9012
▁ador	-11.9012
ira	-11.9013
uck	-11.9021
ash	-11.9024
▁triv	-11.9025
▁otstå	-11.9026
▁karna	-11.9029
▁bul	-11.9038
edje	-11.9045
▁Ce	-11.9051
LA	-11.9054
▁nns	-11.9062
▁göd	-11.9071
▁artor	-11.9087
▁4:	-11.9089
▁uns	-11.9094
▁AC	-11.9098
uk	-11.9105
▁äde	-11.9107
▁EM	-11.9114
▁orga	-11.9117
▁ramp	-11.9129
▁ltr	-11.913
▁ding	-11.9131
▁vå	-11.9137
ü	-11.9137
ker	-11.9152
▁irek	-11.9152
▁yc	-11.916
¶	-11.916
▁café	-11.9161
▁lis	-11.9177
▁pnad	-11.9178
OT	-11.9187
▁appy	-11.9195
rott	-11.9202
▁2,5	-11.9202
▁dox	-11.921
▁kryp	-11.9217
▁Herr	-11.9219
▁elly	-11.9224
▁mpar	-11.9224
▁ilar	-11.9234
AD	-11.9238
▁löv	-11.9238
▁tare	-11.9241
▁eed	-11.9243
taka	-11.9247
CT	-11.9261
▁Va	-11.9267
MA	-11.9271
ross	-11.9282
▁gata	-11.9286
-3	-11.9296
▁tårta	-11.93
▁nerg	-11.9301
▁ved	-11.9304
▁ora	-11.9312
▁chain	-11.9318
▁Ord	-11.9323
▁sper	-11.9323
▁kas	-11.9331
▁bon	-11.9341
▁gis	-11.9345
RI	-11.935
FC	-11.9366
▁bed	-11.9369
▁chip	-11.9384
5%	-11.9396
15	-11.9397
▁otan	-11.9401
▁ått	-11.9408
ou	-11.9413
▁ckad	-11.9413
HA	-11.9418
MS	-11.942
▁mur	-11.9437
▁pirit	-11.944
▁EUR	-11.9445
▁new	-11.9448
▁Niko	-11.9448
▁ylan	-11.9453
▁ines	-11.9457
▁iven	-11.946
▁kart	-11.9462
▁Hell	-11.9464
▁demi	-11.947
ull	-11.9472
ay	-11.9473
▁rast	-11.9479
▁stau	-11.9479
▁ogg	-11.9487
12	-11.9488
mb	-11.9491
▁asp	-11.9493
▁Ry	-11.9497
▁Tim	-11.95
▁Gy	-11.9504
▁raci	-11.9506
▁49	-11.9516
▁ndri	-11.9521
▁SD	-11.9523
▁vika	-11.9533
▁ias	-11.9538
▁essa	-11.9539
▁Ve	-11.9545
▁Cas	-11.9547
▁edle	-11.9548
▁85	-11.955
AB	-11.955
▁Tag	-11.956
▁mull	-11.9564
▁llti	-11.9566
▁stal	-11.9574
▁löp	-11.9578
▁ckar	-11.9585
▁rthur	-11.9585
▁eva	-11.9601
▁dad	-11.9605
▁AT	-11.9613
▁afari	-11.9614
▁egion	-11.9616
▁ji	-11.9616
su	-11.9621
▁Sri	-11.9626
▁xtra	-11.9636
▁infö	-11.9636
arak	-11.9645
▁icka	-11.9648
▁SE	-11.9652
▁arkt	-11.9656
▁ider	-11.9661
ick	-11.9663
▁atien	-11.9677
▁plit	-11.9677
▁air	-11.9678
▁rym	-11.9682
▁krona	-11.9684
▁edl	-11.9692
▁yck	-11.97
opp	-11.9708
▁less	-11.9716
▁tau	-11.9718
▁dana	-11.9719
▁verb	-11.972
▁okyo	-11.9728
▁ius	-11.973
▁ravi	-11.9733
zer	-11.9749
▁ågar	-11.975
▁bre	-11.9758
agla	-11.9762
▁enya	-11.9764
▁emma	-11.9768
▁resu	-11.9774
▁yssl	-11.9779
▁gda	-11.9784
▁tral	-11.9788
NA	-11.9789
ji	-11.979
▁vask	-11.9792
▁Oh	-11.9797
ov	-11.9813
▁will	-11.9843
lin	-11.9843
▁UN	-11.9863
▁Lag	-11.9864
▁UV	-11.9867
▁nick	-11.987
▁aper	-11.9874
▁(3)	-11.9876
▁lög	-11.9879
▁kolo	-11.9882
▁vax	-11.9891
Å	-11.9893
▁isio	-11.9896
▁ersi	-11.9903
▁Sir	-11.9907
▁lisk	-11.9911
▁Tal	-11.9912
▁rbara	-11.9915
ruck	-11.9915
▁ämt	-11.9916
▁win	-11.9916
▁72	-11.9922
ux	-11.9929
MI	-11.9936
▁grät	-11.9938
▁flo	-11.9949
▁%)	-11.9959
ron	-11.9965
▁nton	-11.9965
▁asin	-11.9976
▁korna	-11.998
▁Jan	-11.9995
ST	-11.9995
▁lom	-11.9996
▁kväl	-12.0007
▁gad	-12.0019
▁ndan	-12.0022
▁:-)	-12.0024
▁dygn	-12.0025
▁Urs	-12.0025
▁arit	-12.0032
lat	-12.0032
up	-12.0034
▁ves	-12.0035
▁AD	-12.0039
0	-12.0043
▁rati	-12.0048
▁nier	-12.0053
▁läkt	-12.0055
▁6,	-12.0063
IN	-12.0075
▁kono	-12.0081
▁ssad	-12.0088
▁War	-12.0095
▁vic	-12.0096
▁Ros	-12.0097
▁rens	-12.0114
TC	-12.0115
▁lise	-12.012
SP	-12.0123
▁prit	-12.0125
tw	-12.013
iz	-12.0136
▁tans	-12.0137
▁Vare	-12.0139
▁sur	-12.0143
eder	-12.0147
esta	-12.0155
▁ålla	-12.0158
EA	-12.0162
▁yst	-12.0165
ipp	-12.0179
▁gärd	-12.0179
▁mbe	-12.0184
▁Cup	-12.0189
▁ils	-12.0217
▁Shak	-12.022
▁pning	-12.022
▁flik	-12.0221
▁5:	-12.0223
▁ecken	-12.0226
åt	-12.0232
▁Eva	-12.0239
aket	-12.0244
IA	-12.0252
▁Last	-12.0253
▁lme	-12.0254
ple	-12.0255
▁Bell	-12.0256
ris	-12.0256
▁fal	-12.0258
▁Må	-12.0274
▁ffek	-12.0294
▁aura	-12.0295
▁alar	-12.0296
▁anno	-12.0301
atu	-12.0301
SD	-12.0303
▁lif	-12.0313
stor	-12.032
▁NASA	-12.0332
▁lemma	-12.0332
▁Dam	-12.0334
▁äl	-12.0348
▁64	-12.035
▁stre	-12.0351
▁nulla	-12.0351
▁Bull	-12.0352
▁värk	-12.036
▁Liv	-12.036
OM	-12.0365
▁ngli	-12.0366
▁sken	-12.0388
PU	-12.0393
▁OM	-12.0397
▁ntin	-12.0398
▁sinn	-12.0398
▁ndern	-12.0398
▁cD	-12.0404
▁Jac	-12.0405
▁gly	-12.0407
▁umme	-12.0422
▁8,	-12.0424
▁oln	-12.0432
▁had	-12.0442
▁veg	-12.045
▁adel	-12.045
CO	-12.0454
▁kij	-12.0473
▁anar	-12.0473
▁sät	-12.0479
▁ima	-12.048
▁opa	-12.0481
oul	-12.0483
På	-12.0487
▁Lan	-12.0488
▁ulver	-12.0489
▁umb	-12.0491
▁load	-12.0493
▁HÄR	-12.0493
▁voro	-12.05
▁SA	-12.051
▁room	-12.051
70	-12.0524
▁pray	-12.053
▁base	-12.0532
▁urge	-12.0535
▁ifi	-12.0543
▁abi	-12.0561
▁Che	-12.0562
▁Ross	-12.0569
azi	-12.0577
ärm	-12.0579
▁äk	-12.0584
▁tapp	-12.0603
avlo	-12.0612
▁ered	-12.0625
▁rran	-12.0629
▁47	-12.063
ED	-12.0631
▁tea	-12.0631
▁Lab	-12.0633
▁ndy	-12.0635
–	-12.0641
▁IKEA	-12.0645
▁girl	-12.0645
▁gynn	-12.0647
▁hatt	-12.0659
▁kus	-12.0668
Nu	-12.067
lest	-12.0671
▁labb	-12.0675
▁llade	-12.0692
▁ampan	-12.0697
▁ogen	-12.0705
▁Win	-12.0708
GA	-12.0712
app	-12.0714
▁mme	-12.072
▁Grad	-12.0722
▁lun	-12.0722
▁äcke	-12.0729
ley	-12.0731
nnor	-12.0749
ith	-12.075
gen	-12.0755
▁ntli	-12.0756
+	-12.0756
▁aps	-12.0757
▁glut	-12.0763
▁expe	-12.0768
▁rni	-12.0769
▁åge	-12.0784
▁immar	-12.08
▁Und	-12.0805
▁ALLT	-12.0806
nza	-12.0818
ius	-12.0822
▁ewis	-12.0823
MC	-12.0826
DR	-12.0836
▁Sin	-12.0839
▁mir	-12.084
▁lab	-12.0846
MF	-12.085
▁tsen	-12.0871
▁gam	-12.088
afa	-12.0898
▁väve	-12.0898
GT	-12.0906
▁Mån	-12.0927
tf	-12.0929
▁ature	-12.0937
▁SP	-12.0949
RO	-12.0956
▁oyota	-12.097
▁Ari	-12.097
▁Bruce	-12.097
▁jazz	-12.0971
▁sbo	-12.0976
▁pps	-12.0977
▁vagi	-12.0981
▁sug	-12.0983
▁ray	-12.099
▁ads	-12.099
äpp	-12.0991
▁järta	-12.0998
▁10.	-12.0999
▁Ray	-12.1002
▁ABB	-12.101
▁peci	-12.1013
ix	-12.1025
▁like	-12.1031
▁Dou	-12.1036
▁52	-12.1037
▁ankr	-12.1039
LM	-12.1049
▁sof	-12.1057
▁tagna	-12.1069
▁nol	-12.1069
▁AM	-12.107
▁ppor	-12.1072
▁öpp	-12.1073
▁Fin	-12.1074
nu	-12.1079
▁mni	-12.1079
▁åtal	-12.1086
▁Dem	-12.1088
uch	-12.1088
▁ätten	-12.1107
▁livi	-12.111
▁kräk	-12.1128
▁(2	-12.1133
▁Yahoo	-12.1137
▁räff	-12.1137
▁aiwan	-12.1137
▁olig	-12.1139
▁well	-12.1145
▁nten	-12.1152
▁äke	-12.1158
▁Mü	-12.1161
▁roy	-12.117
IP	-12.117
▁fjol	-12.1174
▁olm	-12.1182
hl	-12.1184
▁0,	-12.1193
LLA	-12.1197
▁kran	-12.1199
▁chips	-12.1206
▁emat	-12.1207
rått	-12.1212
▁såra	-12.1213
▁ouch	-12.1215
▁retro	-12.1231
▁edni	-12.1231
LC	-12.1232
▁tami	-12.1234
▁66	-12.1236
lätt	-12.1254
rå	-12.1254
▁Bad	-12.1267
▁rång	-12.1273
▁amme	-12.1275
▁acob	-12.1308
rigg	-12.131
▁eek	-12.1312
▁varv	-12.1321
▁korn	-12.1337
ripp	-12.134
IO	-12.1343
▁gä	-12.1345
▁leon	-12.1348
irra	-12.1354
ham	-12.1356
▁olic	-12.1356
▁alom	-12.1363
▁trat	-12.1364
▁gang	-12.1379
▁rial	-12.1382
▁alti	-12.1385
▁tark	-12.1389
▁Dö	-12.1389
▁long	-12.139
▁suge	-12.1396
▁kaka	-12.1399
ILL	-12.1407
▁Wind	-12.1408
▁Lett	-12.1413
▁Ball	-12.1416
▁llin	-12.142
KA	-12.1432
▁pera	-12.1435
▁ratu	-12.1437
▁jun	-12.1438
▁dle	-12.1459
FP	-12.1461
▁\	-12.1479
▁rain	-12.1482
▁NING	-12.1483
▁drän	-12.1483
▁ablar	-12.1487
▁lusi	-12.1487
▁släp	-12.1487
▁very	-12.1494
▁trau	-12.1501
▁Kate	-12.1505
▁iii	-12.1507
FS	-12.1508
▁site	-12.151
▁rchi	-12.1511
▁7,	-12.1517
▁pel	-12.1518
▁ogle	-12.1521
▁VIP	-12.1523
rick	-12.1526
▁luor	-12.1529
80	-12.153
▁API	-12.1534
▁llu	-12.1539
▁ruto	-12.154
laz	-12.154
illa	-12.1542
▁Ron	-12.1545
taly	-12.1549
▁opo	-12.1554
▁CC	-12.1569
▁näpp	-12.1573
▁ögs	-12.1584
▁PM	-12.1584
▁gatu	-12.1585
▁åkt	-12.1586
▁trip	-12.159
▁Vo	-12.1598
▁lob	-12.16
▁lyss	-12.1605
▁ätte	-12.1608
▁llk	-12.161
▁Dra	-12.1624
▁tune	-12.1637
▁ege	-12.1638
▁BMW	-12.1654
▁ADHD	-12.1654
▁anyon	-12.1655
▁jakt	-12.1656
▁lma	-12.166
▁SS	-12.1661
OTE	-12.1665
11	-12.1665
▁Ät	-12.1677
▁aily	-12.1677
▁Cell	-12.1679
▁rvi	-12.168
▁illy	-12.1691
▁Gen	-12.1691
▁rbi	-12.1693
▁EC	-12.1697
▁elar	-12.1699
Ni	-12.1705
▁nand	-12.1708
▁AA	-12.1708
▁brud	-12.1729
▁lagom	-12.1735
▁trå	-12.1743
ägg	-12.1747
▁suga	-12.175
▁rkad	-12.1761
▁ision	-12.1764
▁67	-12.1785
▁hetta	-12.1792
▁ON	-12.1798
TM	-12.18
▁sul	-12.1804
bon	-12.1812
▁7.	-12.1821
▁ello	-12.183
▁fie	-12.1834
▁mbry	-12.1834
▁arväl	-12.1835
▁head	-12.1838
▁von	-12.1838
▁jean	-12.1838
▁Cross	-12.1845
EX	-12.1851
▁360	-12.1852
SC	-12.1853
▁mmig	-12.1859
▁RA	-12.1864
upp	-12.1869
ub	-12.187
▁ggan	-12.1873
▁hor	-12.1878
SS	-12.188
▁ulta	-12.1884
▁NU	-12.1889
▁rai	-12.1895
▁ici	-12.1896
ahl	-12.1933
▁wan	-12.1935
▁lima	-12.1939
▁elta	-12.195
▁undr	-12.1952
▁rems	-12.1953
ladd	-12.1968
▁She	-12.1969
▁limi	-12.1976
odo	-12.1984
CR	-12.199
▁asi	-12.2008
RC	-12.2009
▁Lodge	-12.2014
▁Ye	-12.2018
▁tava	-12.2018
▁apten	-12.2026
▁rosor	-12.2034
▁3,5	-12.2038
▁grym	-12.204
▁58	-12.2059
▁hier	-12.2066
▁karn	-12.2071
▁CE	-12.2073
eck	-12.2076
zy	-12.2077
▁lsa	-12.2079
var	-12.2084
▁Now	-12.2086
▁lax	-12.2088
▁CA	-12.2091
90	-12.2093
▁Gran	-12.2093
▁tus	-12.2097
▁Dj	-12.2101
▁59	-12.2104
cy	-12.2111
▁näsa	-12.2111
▁Klä	-12.2114
iro	-12.2123
näck	-12.2127
▁riet	-12.2141
▁Bru	-12.2145
abin	-12.2159
▁pack	-12.2176
▁oria	-12.2178
PE	-12.2179
▁onk	-12.2185
▁git	-12.2186
▁rave	-12.2189
▁ipe	-12.2191
-4	-12.2193
>	-12.2195
▁Varn	-12.2207
▁kult	-12.2209
▁mejl	-12.221
▁hire	-12.2213
▁aida	-12.2223
▁Fox	-12.2225
▁käl	-12.2226
▁kassa	-12.2227
▁HR	-12.2228
OD	-12.223
▁Nor	-12.223
▁äss	-12.2234
▁gym	-12.2235
ON	-12.2237
ler	-12.2246
▁éer	-12.2251
▁Col	-12.2255
▁war	-12.2257
â	-12.2259
▁äft	-12.2263
▁gnad	-12.2265
▁Kry	-12.2274
▁54	-12.2287
▁gris	-12.23
DS	-12.23
▁Ax	-12.2314
odde	-12.2316
▁bal	-12.2319
ring	-12.2321
▁Pac	-12.2327
.4	-12.2332
▁älsa	-12.2363
▁maka	-12.2365
▁konom	-12.2367
▁prat	-12.2383
▁tarm	-12.2387
▁ES	-12.2388
Ä	-12.2393
▁plåt	-12.2396
▁sed	-12.24
CE	-12.2407
▁prut	-12.2409
▁Um	-12.2411
gare	-12.2412
▁Kol	-12.2412
▁jej	-12.2417
▁stop	-12.2418
▁ydda	-12.2419
▁print	-12.2419
▁56	-12.2422
▁Joe	-12.2424
▁ighe	-12.2439
lägg	-12.2445
iser	-12.2446
▁Veri	-12.2447
▁ammer	-12.2447
▁isku	-12.2462
▁pis	-12.2465
sch	-12.2466
▁därv	-12.2468
▁Les	-12.2468
BT	-12.2471
.5	-12.2473
▁mmon	-12.248
▁ärme	-12.2482
▁druv	-12.2483
▁toki	-12.2484
.0	-12.2487
▁Bur	-12.25
▁taket	-12.2503
ML	-12.2506
▁mem	-12.2507
ari	-12.251
rin	-12.2515
▁IC	-12.2539
▁ebe	-12.2541
▁kaf	-12.2543
▁ills	-12.2552
▁Lei	-12.2553
AX	-12.2567
mer	-12.2568
▁Neil	-12.2569
▁DJ	-12.2573
ECD	-12.2578
▁●	-12.258
▁😉	-12.258
▁wall	-12.2586
ås	-12.2594
▁Ing	-12.2597
▁ullo	-12.2605
▁Kam	-12.2605
▁pam	-12.2605
▁rond	-12.2609
QL	-12.2611
▁hypo	-12.2611
▁tagg	-12.2612
▁tun	-12.2615
▁naten	-12.2616
▁ntel	-12.2616
▁Sig	-12.2617
akt	-12.262
▁#1	-12.2622
▁fit	-12.2624
ulit	-12.2628
▁Lena	-12.2628
▁lmer	-12.2642
▁llna	-12.2656
▁TT	-12.2656
▁eur	-12.2668
atri	-12.2673
▁ED	-12.2695
▁Sun	-12.2696
jäl	-12.2701
▁nmä	-12.2701
▁rlu	-12.2702
lla	-12.2709
▁lko	-12.2713
▁seras	-12.2729
▁eg	-12.273
erry	-12.2732
HC	-12.2732
IM	-12.2734
▁Whit	-12.2744
▁Oj	-12.2761
▁kåd	-12.2764
▁idi	-12.2769
▁Mall	-12.2772
▁HTML	-12.2777
▁`	-12.2777
▁ION	-12.2779
▁mband	-12.278
▁ü	-12.2782
▁agda	-12.2785
▁enas	-12.2794
▁Kron	-12.2796
▁edare	-12.2803
▁got	-12.2805
IL	-12.2806
▁dring	-12.2814
NC	-12.2815
▁AV	-12.2821
ront	-12.2823
▁Tog	-12.2825
▁SMS	-12.2829
epp	-12.2833
EC	-12.284
▁örat	-12.2857
▁Tel	-12.2858
CP	-12.2858
▁nika	-12.2867
▁urse	-12.2867
▁udan	-12.2868
Se	-12.2871
▁rga	-12.2875
oT	-12.2881
▁Far	-12.2892
MG	-12.2898
▁cam	-12.2899
LS	-12.2902
▁FI	-12.2909
▁ubl	-12.2909
▁lyc	-12.2918
▁linga	-12.2921
▁tz	-12.2924
▁Run	-12.2928
▁cko	-12.2932
▁Sho	-12.2933
▁tras	-12.2936
PM	-12.2938
▁mes	-12.2941
▁punk	-12.2944
▁gale	-12.2957
▁GO	-12.2963
▁kil	-12.2963
▁prak	-12.2965
▁mone	-12.2972
▁ourc	-12.2974
▁pdate	-12.2977
▁bly	-12.2977
▁Glen	-12.2983
ilg	-12.2984
UT	-12.2985
▁Fri	-12.2999
▁lök	-12.3
▁IF	-12.3001
▁oler	-12.3008
CI	-12.3012
▁pH	-12.3014
▁krap	-12.3018
▁call	-12.3018
tyr	-12.302
▁4)	-12.3024
▁wart	-12.3027
▁talk	-12.3031
ART	-12.3041
▁räv	-12.3041
eth	-12.3043
PO	-12.3052
▁Burn	-12.3055
yer	-12.3058
▁pus	-12.306
ras	-12.3065
▁game	-12.3066
FD	-12.3072
▁10%	-12.3075
lé	-12.3082
▁have	-12.3088
▁ndi	-12.3089
▁irm	-12.309
▁rack	-12.3093
▁korp	-12.3095
▁Labo	-12.3096
▁Zen	-12.3098
▁!!	-12.3103
NES	-12.3108
gu	-12.3113
▁Rio	-12.3131
▁ngol	-12.3132
▁burn	-12.3137
PP	-12.3137
▁IL	-12.3155
aldi	-12.3156
▁etch	-12.3161
▁gaml	-12.3162
▁bow	-12.3169
▁gay	-12.3171
▁ulin	-12.3177
▁Gar	-12.3177
▁asso	-12.3178
▁Ghost	-12.3181
▁CNN	-12.3181
▁heim	-12.3185
▁grän	-12.3186
▁NY	-12.3192
▁KOM	-12.3202
▁arré	-12.3207
▁mmis	-12.3208
▁hed	-12.322
▁ssy	-12.3221
▁Roma	-12.3225
yn	-12.3226
▁Ow	-12.3228
▁Väg	-12.3232
▁ory	-12.3234
▁anga	-12.3239
▁XP	-12.3242
▁350	-12.3246
▁asy	-12.3255
▁Cal	-12.3257
TI	-12.3257
▁pay	-12.3278
▁hack	-12.3284
TE	-12.3285
▁cap	-12.3296
▁tå	-12.3315
ug	-12.3316
PD	-12.3318
▁Rod	-12.3318
▁8.	-12.3327
ög	-12.3338
EK	-12.3345
lans	-12.3353
▁tyv	-12.3358
▁lba	-12.3366
rey	-12.3373
▁tour	-12.3373
▁she	-12.3379
kom	-12.3384
▁glatt	-12.3391
▁NHL	-12.3397
▁stock	-12.3398
▁sslan	-12.3402
VS	-12.3416
▁ws	-12.3424
▁gels	-12.3425
▁rge	-12.3428
▁tay	-12.3429
HS	-12.3434
▁RE	-12.3434
▁ramm	-12.3437
▁suger	-12.3438
▁DE	-12.344
son	-12.345
VT	-12.3454
▁tugg	-12.3469
▁yo	-12.3478
▁spa	-12.348
VA	-12.3484
▁nsen	-12.3487
▁Mul	-12.3491
nè	-12.3492
▁tok	-12.3508
SF	-12.3519
▁rjan	-12.3521
now	-12.3522
▁åh	-12.3547
▁63	-12.3552
▁nnon	-12.3557
ama	-12.357
▁OR	-12.358
▁skare	-12.3585
UR	-12.3586
▁Roo	-12.3587
-2	-12.3602
▁(5)	-12.3603
▁lern	-12.3604
▁ieber	-12.3605
▁unds	-12.3607
▁THE	-12.3608
▁watt	-12.3609
▁Know	-12.3617
▁Ver	-12.3619
III	-12.362
che	-12.3621
hua	-12.3622
▁SSL	-12.3628
▁date	-12.3629
▁grop	-12.3629
▁URL	-12.3629
▁sq	-12.3631
kt	-12.3636
▁NET	-12.364
▁Main	-12.3643
▁keln	-12.3644
▁90%	-12.3646
▁romer	-12.3647
▁egn	-12.365
▁IQ	-12.3653
▁kes	-12.3655
DC	-12.3677
▁hels	-12.3683
▁publ	-12.3686
rwin	-12.3687
▁bay	-12.369
▁pic	-12.369
▁Varm	-12.3691
),	-12.3692
35	-12.3692
▁upe	-12.3696
RS	-12.3697
▁ikat	-12.3698
gon	-12.3699
▁sag	-12.3704
▁aba	-12.3713
▁kik	-12.3721
▁Em	-12.3722
▁bell	-12.3736
TR	-12.3737
▁Mara	-12.3742
▁änds	-12.3747
▁kne	-12.3756
▁CAD	-12.376
▁MB	-12.3765
▁cry	-12.3781
DL	-12.3782
▁majs	-12.3792
▁rät	-12.3803
▁gruva	-12.3805
cu	-12.3812
▁rtan	-12.3812
▁IPCC	-12.382
▁sun	-12.382
▁(4)	-12.382
▁uran	-12.382
▁rbar	-12.383
▁arren	-12.3832
▁trig	-12.3837
▁Nutr	-12.3838
▁räs	-12.3839
8%	-12.3839
▁Bed	-12.3843
▁kärp	-12.3861
▁Who	-12.3861
▁kto	-12.3871
iell	-12.3871
▁kram	-12.3873
▁Eu	-12.3888
zz	-12.3904
▁Jä	-12.3904
ate	-12.3918
▁57	-12.3925
han	-12.393
▁COM	-12.393
▁iger	-12.3932
▁ocks	-12.3934
▁ilk	-12.3938
▁dic	-12.394
▁haga	-12.395
▁green	-12.3953
▁rmat	-12.3955
▁Wine	-12.3965
▁mont	-12.397
▁Bre	-12.3978
▁FA	-12.3981
▁kh	-12.3981
▁ogl	-12.3985
▁dorf	-12.3989
NG	-12.3997
▁78	-12.402
▁ambo	-12.4024
▁VII	-12.4026
ytt	-12.4031
HL	-12.4038
▁ngla	-12.4039
jar	-12.404
▁utma	-12.4042
▁etEnt	-12.4042
▁Bird	-12.4043
▁graph	-12.4043
ido	-12.4047
▁pall	-12.405
▁öran	-12.4053
▁lper	-12.4063
▁kara	-12.4064
▁mond	-12.4065
▁seud	-12.4067
▁lum	-12.4071
▁efe	-12.4072
▁Ahl	-12.4073
▁JA	-12.4076
▁inko	-12.4079
▁skåd	-12.4085
OP	-12.4085
dla	-12.4088
▁Fel	-12.4098
▁olt	-12.4104
▁AG	-12.4105
▁anu	-12.4106
mme	-12.4106
lean	-12.413
▁gläd	-12.4137
▁spen	-12.4138
oss	-12.4141
▁fro	-12.4144
▁karta	-12.4146
▁tiken	-12.4153
▁glam	-12.4159
▁AL	-12.4161
▁sche	-12.4163
▁tens	-12.4169
AG	-12.4173
▁viset	-12.4179
por	-12.419
ön	-12.422
▁peng	-12.422
▁främ	-12.4221
BO	-12.4223
▁ryta	-12.4225
ire	-12.4226
rah	-12.4227
IB	-12.423
▁vli	-12.4237
▁meron	-12.4238
-5	-12.4241
OK	-12.425
SM	-12.426
▁krot	-12.4264
▁prin	-12.4271
amma	-12.4271
▁dapt	-12.4276
▁umber	-12.4293
PL	-12.4304
▁ivå	-12.4308
▁00	-12.4308
▁Gil	-12.431
▁oko	-12.4325
▁Sky	-12.4336
▁rup	-12.4346
▁otel	-12.4355
▁Kin	-12.4366
▁sych	-12.4366
ros	-12.4382
▁elin	-12.4384
MO	-12.4384
▁vans	-12.4385
▁llå	-12.4394
unne	-12.4395
▁nant	-12.4403
▁6.	-12.4412
▁väv	-12.4414
▁anto	-12.4419
▁EP	-12.4425
SH	-12.4428
▁ssen	-12.4442
▁anse	-12.4447
▁gua	-12.4457
▁rbo	-12.4459
ther	-12.4468
▁ging	-12.4477
▁Ship	-12.4486
hara	-12.4488
lö	-12.4489
▁Dal	-12.4501
▁leep	-12.4502
TV	-12.4504
▁nova	-12.4508
lanc	-12.4508
▁Nel	-12.451
urma	-12.4522
▁erba	-12.4523
▁sser	-12.4527
▁Not	-12.4528
ray	-12.4529
▁vilt	-12.453
▁Key	-12.4539
▁uvar	-12.454
▁Kni	-12.4546
▁veni	-12.4547
▁vep	-12.4551
▁Mix	-12.4554
▁amel	-12.4555
▁akto	-12.4558
▁rgo	-12.4558
▁Plat	-12.4571
▁Borg	-12.4577
▁SIM	-12.4581
Ö	-12.4587
▁svin	-12.4587
án	-12.4591
IFA	-12.4595
▁karb	-12.4599
▁garn	-12.4604
null	-12.4608
▁Sea	-12.4609
aci	-12.4616
▁big	-12.4623
▁Oy	-12.4636
▁nark	-12.464
vy	-12.4653
CM	-12.4659
agor	-12.4669
▁53	-12.4671
▁Ok	-12.4675
▁rton	-12.4676
▁tree	-12.4691
EP	-12.47
▁RO	-12.4706
▁MD	-12.4709
▁ilje	-12.4711
länd	-12.4712
▁viol	-12.4713
iza	-12.4715
▁erge	-12.4719
▁mok	-12.4721
▁sfa	-12.4728
▁ekl	-12.4732
▁[1]	-12.4739
▁^^	-12.4739
▁−	-12.4739
▁❤	-12.4739
▁PVC	-12.4747
▁knep	-12.4747
▁wich	-12.4753
STE	-12.4761
oni	-12.4765
▁96	-12.4766
oghu	-12.477
▁väkt	-12.4785
age	-12.4785
▁ranc	-12.4798
▁Leo	-12.4798
▁6:	-12.4798
irc	-12.4799
▁anm	-12.4807
▁tram	-12.4809
▁elan	-12.4818
▁ims	-12.4818
TT	-12.4826
▁kate	-12.4826
▁acon	-12.4837
iki	-12.4848
▁trai	-12.4857
▁vri	-12.4861
RE	-12.4867
▁aiti	-12.4869
▁thi	-12.4869
LL	-12.4872
▁pulv	-12.4874
▁ukar	-12.4874
▁följe	-12.488
lek	-12.4888
▁MI	-12.4889
▁SI	-12.4896
▁Bit	-12.4904
▁ABC	-12.4907
▁nakna	-12.4919
▁lc	-12.4919
▁rpa	-12.4921
▁aldo	-12.4924
▁vera	-12.4924
▁77	-12.4928
DE	-12.493
▁neo	-12.4938
▁nday	-12.4951
▁Nav	-12.4952
▁nslu	-12.496
▁any	-12.496
ram	-12.496
▁bedö	-12.4961
▁GT	-12.4968
etro	-12.4974
▁Creek	-12.4986
▁uva	-12.4988
rak	-12.4998
▁VER	-12.5003
▁vere	-12.5005
▁hytt	-12.5007
ktiv	-12.5023
▁Mos	-12.5027
▁ddi	-12.5041
▁pott	-12.5043
▁train	-12.5045
▁Tor	-12.5056
BE	-12.5061
▁20%	-12.5075
▁hydr	-12.5079
99	-12.5083
▁teen	-12.5083
▁Xi	-12.509
uz	-12.5092
▁kust	-12.5096
▁yter	-12.5104
è	-12.5106
emy	-12.5113
▁kain	-12.5121
▁link	-12.5124
▁soja	-12.5126
▁sikte	-12.5144
▁thon	-12.5151
▁oster	-12.5155
▁ridd	-12.5165
ldre	-12.5171
▁Era	-12.5175
▁Id	-12.5176
▁ply	-12.5179
▁AF	-12.5181
ATO	-12.519
▁cif	-12.5194
▁kalk	-12.5199
▁ocke	-12.5201
▁stam	-12.5207
▁98	-12.5212
07	-12.5223
▁hio	-12.5224
▁read	-12.5227
*	-12.5228
▁Vlad	-12.5234
▁Trail	-12.5234
▁phia	-12.5237
▁â	-12.5238
▁vavel	-12.5239
▁hotel	-12.5243
▁5%	-12.5243
▁BA	-12.5254
▁NI	-12.5254
▁tax	-12.5267
rimm	-12.5268
▁ddy	-12.5284
▁rtif	-12.5288
▁10,	-12.5292
▁SÅ	-12.5293
▁toxi	-12.5299
▁Wat	-12.5302
▁mper	-12.5302
▁cip	-12.5304
▁Juan	-12.5305
▁klam	-12.5312
.6	-12.5313
▁Kit	-12.5313
▁ilde	-12.5322
▁LO	-12.5331
▁airo	-12.5338
▁oun	-12.534
ew	-12.5348
▁neu	-12.5358
▁onfe	-12.5359
▁tomer	-12.5359
abo	-12.5364
▁Nev	-12.5366
▁asda	-12.5377
▁FC	-12.5383
SR	-12.5384
▁nlä	-12.5384
▁urd	-12.5384
AY	-12.5386
▁kät	-12.5392
OW	-12.5394
▁turk	-12.5396
örd	-12.5406
▁PRO	-12.5423
▁amå	-12.5442
▁arh	-12.5444
▁prem	-12.5444
▁gain	-12.5468
Hz	-12.547
DD	-12.5471
▁stöt	-12.5473
PG	-12.5484
<	-12.5486
▁😀	-12.549
▁DIY	-12.549
▁José	-12.5491
▁lager	-12.5498
uta	-12.5502
▁empe	-12.5504
▁Yu	-12.5504
▁gränd	-12.5506
▁orris	-12.5507
▁way	-12.5507
▁gap	-12.5507
3%	-12.5512
chel	-12.5513
▁Grace	-12.5513
▁thy	-12.5518
▁Oil	-12.5521
ess	-12.5522
▁rench	-12.5525
▁enkl	-12.5527
▁pion	-12.553
▁Zim	-12.5539
▁situ	-12.554
zof	-12.556
▁this	-12.5562
▁hyp	-12.5571
ippa	-12.558
▁AN	-12.558
▁Turn	-12.5593
OC	-12.5596
▁haka	-12.56
▁igan	-12.5601
▁leas	-12.5608
▁vun	-12.5611
▁1.1	-12.5611
▁rerna	-12.5612
▁eme	-12.5622
▁Mah	-12.5629
▁68	-12.5638
▁Lost	-12.5639
▁ango	-12.5645
▁ters	-12.5655
▁AND	-12.5657
phy	-12.5659
▁tule	-12.5663
▁ée	-12.5664
AO	-12.5665
▁yu	-12.5671
▁inci	-12.5678
uff	-12.5681
▁jacka	-12.5682
ret	-12.5684
▁allo	-12.5688
udd	-12.5688
ump	-12.5693
▁Iri	-12.5694
▁uli	-12.5718
▁oend	-12.5718
▁69	-12.5723
▁urv	-12.5737
▁iC	-12.5737
▁tyle	-12.5741
▁lame	-12.5751
▁tejp	-12.5753
▁Bowl	-12.5753
▁HPV	-12.5762
▁chack	-12.5763
nsy	-12.5765
▁lens	-12.5772
EF	-12.5776
▁tigar	-12.5777
SB	-12.578
▁lvi	-12.5782
▁BMI	-12.5788
▁esu	-12.5792
▁orb	-12.5793
▁EF	-12.5798
ré	-12.5802
▁%,	-12.5804
ator	-12.5804
▁käm	-12.5806
▁IR	-12.5819
▁5)	-12.5822
DI	-12.5824
her	-12.5831
PT	-12.5836
▁IAS	-12.5839
▁teel	-12.584
▁agl	-12.585
▁EX	-12.5857
GO	-12.5865
▁wit	-12.5865
BC	-12.5866
▁Ame	-12.5867
▁cA	-12.5876
▁ATT	-12.5877
▁yde	-12.5881
▁tif	-12.5887
erg	-12.5898
▁narc	-12.5898
▁pill	-12.5914
▁doc	-12.5914
▁nutr	-12.5917
▁62	-12.5918
▁CS	-12.5919
▁IRA	-12.5925
▁9,	-12.5927
▁oste	-12.5948
lvin	-12.595
▁iaf	-12.5957
SK	-12.5962
▁Ip	-12.597
CD	-12.5973
året	-12.5973
▁xy	-12.5981
▁83	-12.5984
▁py	-12.5994
one	-12.6008
UD	-12.6014
ā	-12.6023
▁llâh	-12.6023
▁IFRS	-12.6023
▁■	-12.6023
▁Haag	-12.6024
▁yard	-12.6024
▁**	-12.6024
▁PA	-12.6028
PR	-12.6029
emi	-12.603
27	-12.6038
▁onny	-12.6043
egär	-12.6046
▁ause	-12.6048
▁dget	-12.6055
lapp	-12.6066
▁lof	-12.6096
ally	-12.6107
▁lts	-12.6115
▁rdi	-12.6118
▁mah	-12.6118
▁gou	-12.6123
AF	-12.6124
▁Dry	-12.6129
▁trid	-12.6133
bra	-12.6134
▁IG	-12.6135
▁ndus	-12.6137
BP	-12.6146
▁aml	-12.6147
oli	-12.6158
ling	-12.6165
▁rary	-12.6165
▁lappa	-12.6173
▁make	-12.6187
ady	-12.619
▁truck	-12.6191
▁Hub	-12.6194
▁kola	-12.6201
DP	-12.621
edel	-12.6213
sal	-12.6216
agi	-12.6216
EE	-12.6218
▁gena	-12.6233
och	-12.6241
▁äckl	-12.6247
▁korv	-12.6249
▁rodd	-12.625
▁pell	-12.6251
IX	-12.6254
rekt	-12.6255
▁LG	-12.6265
▁vslu	-12.6266
▁lef	-12.6266
▁andal	-12.6282
▁fat	-12.6284
▁88	-12.6293
$	-12.6297
▁rulle	-12.6301
æ	-12.6301
▁©	-12.6301
▁LÄS	-12.6301
▁lyn	-12.6304
▁håg	-12.6305
▁urray	-12.6305
▁rrow	-12.6308
▁Ltd	-12.6309
▁1%	-12.6314
zu	-12.6319
▁Bali	-12.6324
bul	-12.6325
▁tjur	-12.6325
rich	-12.6333
2%	-12.6334
▁nsus	-12.6345
▁tena	-12.6364
-7	-12.637
▁Marg	-12.6383
▁gru	-12.6386
▁zz	-12.6389
▁Crai	-12.639
▁acke	-12.6404
▁urb	-12.6404
▁Eras	-12.6408
▁ney	-12.6411
▁bat	-12.6421
▁agog	-12.6424
ME	-12.6432
▁isse	-12.6436
▁eft	-12.6441
▁eij	-12.6444
▁DS	-12.6456
▁genus	-12.6459
▁trim	-12.6472
▁SM	-12.6476
▁ALD	-12.6478
ej	-12.6479
▁Rea	-12.6493
▁lump	-12.6494
▁Cat	-12.6498
tell	-12.6499
▁Shu	-12.6508
▁place	-12.6519
▁omis	-12.6522
▁odra	-12.6524
str	-12.6532
mpa	-12.654
CG	-12.6543
55	-12.6557
▁??	-12.658
’	-12.6583
▁LEGO	-12.6587
▁rowd	-12.6592
▁kock	-12.6596
▁ship	-12.6597
pru	-12.6612
6%	-12.6613
▁reud	-12.6619
▁70%	-12.662
▁Out	-12.6623
LE	-12.6624
lang	-12.6627
▁apita	-12.6627
▁admin	-12.6631
▁Coc	-12.6636
▁SN	-12.6637
28	-12.6639
▁Mål	-12.6641
ISS	-12.6641
▁sitet	-12.6647
▁Vel	-12.6655
▁Log	-12.6659
▁kea	-12.6676
▁EL	-12.6683
▁2.1	-12.669
mma	-12.6691
▁prid	-12.6692
▁mäll	-12.6694
▁lila	-12.6698
WS	-12.6698
▁värg	-12.6704
▁Stock	-12.6706
▁sek	-12.6712
▁efa	-12.6716
2,	-12.6722
▁tamp	-12.6731
▁ME	-12.6734
▁RI	-12.6736
LP	-12.6738
dex	-12.6754
▁ekom	-12.6756
▁utter	-12.6763
low	-12.677
▁pip	-12.6788
▁nkl	-12.6793
▁lama	-12.6794
▁xan	-12.68
▁gio	-12.6803
▁idiga	-12.6803
▁LAN	-12.6808
▁DIN	-12.6812
▁lånat	-12.6812
▁jorde	-12.6828
▁BI	-12.684
▁Fit	-12.6843
ikt	-12.6845
▁roc	-12.6852
▁87	-12.6865
gör	-12.6866
▁Sol	-12.6867
▁MW	-12.6868
jen	-12.6871
ESK	-12.6875
▁eser	-12.6882
RT	-12.6884
▁othi	-12.6885
mur	-12.6886
75	-12.6886
▁CEO	-12.6888
ryd	-12.6889
▁IBM	-12.6892
▁bulk	-12.6895
▁indel	-12.6896
▁RIG	-12.69
4%	-12.6904
▁pak	-12.6905
▁Glä	-12.6914
tid	-12.692
▁Tea	-12.6922
FA	-12.6925
▁rerar	-12.6926
▁RAM	-12.6929
▁rdom	-12.693
▁Box	-12.6938
▁loo	-12.6941
▁grus	-12.6949
▁dow	-12.6957
▁thri	-12.6959
FO	-12.6965
18	-12.6969
▁name	-12.697
▁cG	-12.6971
▁brå	-12.6972
▁idd	-12.6973
▁Koh	-12.6981
▁issen	-12.6985
16	-12.6985
▁#2	-12.6988
▁Nat	-12.6989
▁pil	-12.6994
▁",	-12.6995
▁IRS	-12.7
▁Kli	-12.7002
SU	-12.7011
▁Rum	-12.7011
▁FB	-12.7012
▁Siri	-12.7013
rend	-12.7016
▁Doo	-12.7018
▁jäst	-12.702
▁kupp	-12.7024
▁Blå	-12.7025
▁Lega	-12.7025
SN	-12.7042
▁arq	-12.7047
▁otte	-12.7048
▁Maya	-12.7053
▁Dor	-12.7062
▁okra	-12.7065
ddy	-12.7067
▁Vari	-12.7078
▁astu	-12.7095
▁Nea	-12.7099
▁ots	-12.7106
dri	-12.7107
▁enhe	-12.711
▁unne	-12.7114
tri	-12.7119
▁9.	-12.7123
▁71	-12.7132
TF	-12.7134
ary	-12.7136
▁alia	-12.7139
▁störs	-12.7142
▁74	-12.7146
aq	-12.7148
uka	-12.7154
▁NSA	-12.7162
ardi	-12.7166
LD	-12.7168
rik	-12.7177
▁gull	-12.7177
▁á	-12.7179
▁awk	-12.7179
	-12.7184
▁Lotto	-12.7184
▁AIDS	-12.7184
▁ljö	-12.7185
▁Bosch	-12.7185
▁lpha	-12.7187
▁NFL	-12.7187
▁Drug	-12.7189
Då	-12.7196
▁paus	-12.7198
▁LCD	-12.7198
▁vets	-12.7198
▁odd	-12.7198
▁Room	-12.72
▁atson	-12.7201
▁astr	-12.7207
▁MÅ	-12.7211
▁odul	-12.7215
▁ukten	-12.7221
▁Natt	-12.7222
▁efte	-12.7224
ÄR	-12.7231
17	-12.7236
▁Coll	-12.7245
RK	-12.7246
▁dex	-12.7253
▁älv	-12.7255
▁ranz	-12.7259
▁Nån	-12.7264
▁Cu	-12.7271
▁göt	-12.7278
▁naiv	-12.7281
▁vilo	-12.7285
▁Trek	-12.729
▁XL	-12.7291
▁ruar	-12.7291
49	-12.7291
▁rgar	-12.7296
▁Drak	-12.7296
▁main	-12.7308
▁hafv	-12.7314
▁rice	-12.7314
▁EPA	-12.732
▁järt	-12.7331
▁Alf	-12.7335
ving	-12.7337
gy	-12.7346
▁mund	-12.7357
SL	-12.7361
▁cal	-12.7366
kov	-12.7366
oz	-12.7368
▁13.	-12.7384
▁SO	-12.7385
▁Sigm	-12.7387
▁Say	-12.7395
dy	-12.7396
▁rush	-12.7408
▁giss	-12.7413
▁OP	-12.7417
▁how	-12.7419
asa	-12.7424
▁bac	-12.7432
LT	-12.7439
IE	-12.744
ito	-12.7448
HI	-12.7454
▁SIS	-12.7455
▁Wel	-12.7457
▁GM	-12.746
▁Cut	-12.7465
▁Bah	-12.7478
▁eds	-12.7479
AV	-12.7482
▁Coco	-12.7483
UM	-12.7483
▁yon	-12.7488
▁cK	-12.7489
ú	-12.7496
▁▌	-12.7496
▁(6)	-12.7497
▁låder	-12.7499
▁Cruz	-12.7501
Gå	-12.7502
▁tadga	-12.7502
▁Way	-12.7507
▁rylar	-12.7507
▁Г	-12.751
▁IM	-12.7517
▁pyr	-12.7518
▁ocus	-12.752
▁MHz	-12.7521
▁Lago	-12.7523
▁ågor	-12.7525
▁lyx	-12.7528
1%	-12.7533
▁örn	-12.7541
pid	-12.7543
▁Vera	-12.7543
▁Host	-12.7544
oke	-12.7545
▁pate	-12.7547
▁GMO	-12.7553
▁Boy	-12.7554
ici	-12.7557
▁hima	-12.7567
▁cup	-12.7569
▁Rap	-12.7573
95	-12.7574
EG	-12.7576
raz	-12.758
▁Dame	-12.7585
▁GA	-12.7587
alto	-12.7597
TU	-12.7601
▁PE	-12.7606
▁MO	-12.7618
our	-12.7635
upa	-12.7642
▁gart	-12.7645
▁Rome	-12.7647
▁enus	-12.7662
▁alge	-12.7665
▁bach	-12.7668
▁VA	-12.7672
▁orro	-12.7674
▁Use	-12.7677
▁ORD	-12.7678
uro	-12.7687
▁61	-12.7699
▁CH	-12.7701
▁UC	-12.7701
▁Rob	-12.7704
▁nans	-12.7705
ogra	-12.771
▁litu	-12.7714
osh	-12.7718
FK	-12.7722
▁imb	-12.7727
▁NC	-12.7729
▁yp	-12.7733
▁estå	-12.774
▁Kyl	-12.7741
▁xx	-12.7743
▁Hz	-12.7765
▁Kill	-12.7765
▁div	-12.7767
UP	-12.7779
▁Nog	-12.778
▁Cap	-12.7784
▁cid	-12.7789
▁86	-12.7796
DM	-12.7807
▁Peace	-12.7819
▁Låg	-12.782
▁onaco	-12.7821
▁alfa	-12.783
▁itte	-12.7831
▁Guy	-12.7833
▁törd	-12.7833
▁ydd	-12.7838
▁yahu	-12.7838
▁satan	-12.7838
rew	-12.7844
▁Craz	-12.7845
▁tapl	-12.7846
▁dott	-12.785
▁BIM	-12.785
NE	-12.7855
▁spol	-12.7858
▁12.	-12.7859
▁ET	-12.7865
▁ärma	-12.7873
▁ancy	-12.7886
▁Mam	-12.7888
jol	-12.7889
ubi	-12.789
GB	-12.7893
▁huse	-12.7895
▁240	-12.7898
▁MR	-12.7899
▁cend	-12.7905
▁lata	-12.7916
▁lent	-12.7918
oken	-12.792
2.	-12.7926
▁urat	-12.7929
▁ablo	-12.7937
▁krok	-12.7939
▁FL	-12.7943
uca	-12.796
▁Oz	-12.7961
▁emis	-12.7962
▁ält	-12.7963
▁Fan	-12.7964
▁fant	-12.7969
sey	-12.7969
▁ping	-12.7971
▁gräl	-12.7986
▁hårb	-12.7989
▁Age	-12.799
fal	-12.7995
▁tua	-12.8
GEN	-12.8002
▁Ont	-12.8004
▁sagd	-12.8023
▁RS	-12.8028
SO	-12.8032
▁whit	-12.8033
KE	-12.8045
▁nem	-12.8055
▁Vall	-12.8069
rum	-12.8081
▁76	-12.8083
▁ICA	-12.8083
▁73	-12.8093
▁sack	-12.8097
▁6)	-12.81
▁Hår	-12.8111
66	-12.8117
14	-12.8119
▁Lina	-12.812
kre	-12.8129
▁köt	-12.8129
▁Cle	-12.8131
▁anis	-12.8133
rie	-12.8137
PF	-12.8146
▁tärn	-12.8147
▁tran	-12.8148
ã	-12.8152
▁;-)	-12.8152
▁ÄLSK	-12.8153
▁djö	-12.8154
▁guay	-12.8156
▁hehe	-12.8157
▁ouver	-12.8158
▁Nano	-12.8159
▁opco	-12.816
▁rose	-12.816
▁vågat	-12.8162
▁dame	-12.8164
▁oba	-12.8164
▁moji	-12.8165
FI	-12.8167
▁say	-12.817
▁stuga	-12.817
▁hejd	-12.8171
▁Shel	-12.8172
▁urry	-12.8174
▁LLC	-12.8177
7%	-12.8178
▁äkr	-12.8178
▁Zoo	-12.8179
▁Roy	-12.818
▁phy	-12.8181
LO	-12.8186
▁Aru	-12.8191
▁BTC	-12.8197
▁PP	-12.8201
▁25%	-12.8208
▁mmor	-12.8215
▁DEN	-12.8218
▁nod	-12.8218
▁noo	-12.8222
law	-12.8232
▁Zu	-12.8235
▁käte	-12.824
▁nth	-12.8241
65	-12.8247
▁döva	-12.825
▁ummo	-12.8253
▁spik	-12.8257
▁arka	-12.8262
▁Hop	-12.8263
▁eB	-12.8269
▁8:	-12.827
TER	-12.8278
hol	-12.8281
▁bun	-12.8287
ube	-12.8288
KF	-12.8292
▁MEN	-12.8293
▁Bred	-12.8303
▁HE	-12.8308
racy	-12.8309
▁1.2	-12.831
▁Zo	-12.8311
▁lop	-12.8312
▁edar	-12.8317
▁Zi	-12.8328
▁Cit	-12.8328
21	-12.8336
▁lond	-12.8338
ugg	-12.8342
▁ez	-12.8343
▁abyl	-12.8344
KK	-12.8345
▁nemi	-12.8357
▁arch	-12.8368
▁Jay	-12.8375
▁AH	-12.8384
▁Hav	-12.8392
▁itz	-12.8392
37	-12.8395
▁brann	-12.84
▁åga	-12.8404
▁ALS	-12.8406
EI	-12.8409
▁vul	-12.841
26	-12.8428
MX	-12.843
KP	-12.8436
▁leo	-12.8451
22	-12.8454
▁Bou	-12.8459
▁DN	-12.8459
▁vanna	-12.8465
▁NS	-12.847
▁kov	-12.8472
▁grin	-12.8475
ofi	-12.8479
ć	-12.8497
▁ghe	-12.8498
▁nabol	-12.8498
▁Trö	-12.85
▁bug	-12.8501
▁olex	-12.8508
▁edal	-12.851
▁2%	-12.8511
▁GI	-12.8514
▁ETF	-12.8516
▁Lama	-12.8524
▁tjus	-12.8524
▁Cur	-12.8524
▁kokt	-12.8525
▁Brain	-12.8528
▁cript	-12.8529
RP	-12.8539
uki	-12.8542
▁Our	-12.8548
▁helg	-12.8548
▁rme	-12.8549
▁stran	-12.8556
▁Plato	-12.8557
▁herd	-12.8563
▁kW	-12.8576
▁Bus	-12.8581
▁zig	-12.8584
▁Oss	-12.8593
31	-12.8598
▁Lev	-12.8602
ntra	-12.8605
▁drig	-12.8611
▁tang	-12.8611
▁SV	-12.8613
13	-12.8617
▁Nja	-12.8619
rix	-12.8619
▁reti	-12.8624
▁odk	-12.8628
▁jaka	-12.8644
nz	-12.8644
▁iken	-12.8647
ice	-12.8647
▁ausa	-12.8651
ada	-12.8653
▁torp	-12.8653
▁79	-12.8657
▁nver	-12.8657
▁sms	-12.8658
axo	-12.8661
▁pard	-12.8663
rad	-12.8682
▁Kai	-12.8707
zel	-12.871
▁Vero	-12.8714
aya	-12.8716
▁CON	-12.8721
▁åkan	-12.8725
AK	-12.8728
▁Nät	-12.8735
▁Leon	-12.8735
▁GP	-12.8736
ule	-12.8737
EST	-12.8737
▁ydli	-12.8743
▁Sel	-12.8747
▁lisa	-12.8764
▁Dre	-12.8766
▁gst	-12.8773
FT	-12.878
▁SEB	-12.8785
▁male	-12.8789
▁92	-12.8792
▁någo	-12.8799
▁TE	-12.88
aaS	-12.8805
isi	-12.8808
▁etyl	-12.8821
har	-12.8824
▁myt	-12.8825
▁kink	-12.8828
▁drad	-12.8842
▁pann	-12.8846
▁kå	-12.8849
š	-12.885
▁Wii	-12.8854
̊	-12.8854
▁Wheel	-12.8854
▁dräp	-12.8854
▁irror	-12.8854
▁DR	-12.8855
▁tång	-12.8856
▁HTTP	-12.8856
▁knopp	-12.8857
▁jogg	-12.8858
▁oz	-12.8858
▁kvm	-12.8859
▁lert	-12.886
▁azak	-12.8861
▁eyno	-12.8861
▁style	-12.8861
▁ÅF	-12.8865
▁:(	-12.8866
▁arbor	-12.887
▁UPS	-12.887
▁ndhi	-12.887
▁hood	-12.8875
▁stedt	-12.8875
cul	-12.8878
▁Shell	-12.8881
▁agul	-12.8881
▁Mir	-12.8882
▁kubi	-12.8885
▁who	-12.8887
▁Naz	-12.8892
▁TED	-12.8895
▁ditor	-12.8899
▁högs	-12.8904
▁merit	-12.8914
▁Aur	-12.8926
▁arth	-12.8931
tick	-12.8934
FF	-12.8935
▁750	-12.8939
RL	-12.8939
▁aram	-12.8939
hari	-12.8943
▁kuli	-12.8944
▁salt	-12.8945
45	-12.8955
▁yg	-12.8955
▁ruka	-12.8958
▁Vers	-12.8979
▁Roch	-12.8986
▁sim	-12.8995
▁Mak	-12.8995
VF	-12.8999
▁otent	-12.9
▁oldi	-12.9002
MM	-12.9009
▁ped	-12.901
▁Rai	-12.9011
▁oren	-12.9019
▁SK	-12.903
▁AK	-12.9043
YP	-12.9045
issa	-12.9074
▁vink	-12.9076
INA	-12.9077
▁ACK	-12.9087
▁löjt	-12.9087
▁tring	-12.909
FM	-12.909
▁öjli	-12.9101
▁trop	-12.9108
▁rez	-12.9117
▁nali	-12.9121
▁NT	-12.9122
▁BS	-12.9124
▁HA	-12.9127
▁uci	-12.9132
▁Bon	-12.9138
▁rigo	-12.9139
▁Ted	-12.9159
ND	-12.9163
yth	-12.9174
GI	-12.9176
46	-12.9176
▁tex	-12.9181
▁CT	-12.9192
▁arate	-12.9194
▁CSS	-12.9196
39	-12.9199
▁kass	-12.9202
▁tipp	-12.9204
▁boy	-12.9208
DF	-12.921
UL	-12.9212
Ta	-12.9216
-1	-12.9217
▁[2]	-12.9224
▁(9)	-12.9224
▁heart	-12.9225
▁É	-12.9225
▁hvad	-12.9225
▁×	-12.9225
▁kakor	-12.9226
hock	-12.9228
▁Grill	-12.9228
▁jour	-12.923
▁Jazz	-12.9231
▁Corr	-12.9232
▁shu	-12.9232
▁vigd	-12.9235
▁Mkr	-12.924
▁tmi	-12.9242
▁75%	-12.9244
▁Hyr	-12.9244
▁lain	-12.9246
▁cast	-12.9248
agh	-12.9253
04	-12.9269
▁2.0	-12.927
▁8.1	-12.9271
▁elhi	-12.9273
▁galan	-12.9279
▁82	-12.9281
▁liff	-12.9283
ING	-12.9284
▁illo	-12.9289
▁ranco	-12.9292
▁MIN	-12.9299
bjud	-12.9308
▁Non	-12.931
eps	-12.931
ritt	-12.9311
▁ämn	-12.9313
▁vass	-12.9316
▁drade	-12.9317
▁tain	-12.9325
▁IBS	-12.9331
ér	-12.9333
rat	-12.9336
▁SKA	-12.9336
▁(4	-12.9338
kh	-12.9341
▁tigg	-12.9345
▁FM	-12.9345
uto	-12.935
▁tabu	-12.9362
▁hore	-12.9366
odal	-12.9377
▁gasen	-12.9379
▁tryp	-12.9398
▁genen	-12.9402
▁Mayo	-12.941
▁MC	-12.9426
▁pok	-12.9433
▁ppe	-12.9436
We	-12.9437
24	-12.9439
▁river	-12.9447
▁Eri	-12.946
▁jk	-12.9464
▁xu	-12.9465
▁best	-12.9481
▁HS	-12.9483
▁ampa	-12.949
ork	-12.9509
▁Gag	-12.9512
ENT	-12.9513
▁agli	-12.9514
▁LE	-12.9515
▁kado	-12.9516
▁haja	-12.9522
▁lpin	-12.9525
▁iant	-12.9526
▁MIT	-12.9526
▁ndela	-12.9532
▁97	-12.9538
IK	-12.9538
▁Lean	-12.9539
trik	-12.954
▁Kur	-12.9542
irmi	-12.9543
▁lave	-12.9546
▁kade	-12.9546
not	-12.9548
▁ammal	-12.9559
▁uz	-12.956
▁zar	-12.9562
▁lår	-12.9566
76	-12.9575
eja	-12.9576
▁RF	-12.9577
85	-12.9581
▁Rä	-12.9592
▁kub	-12.9592
ky	-12.9594
-6	-12.9601
Â	-12.9609
▁à	-12.9612
▁SG	-12.9614
▁MAN	-12.9624
▁PHP	-12.9628
▁Prix	-12.9631
▁bout	-12.9632
sion	-12.9637
opco	-12.9637
FID	-12.9639
▁anama	-12.964
▁nsak	-12.9642
▁ndon	-12.9643
IR	-12.9647
▁alaga	-12.9658
▁vels	-12.9662
VO	-12.9666
▁ipa	-12.9677
▁Pier	-12.9684
▁170	-12.9686
▁bao	-12.9687
▁AU	-12.969
▁hun	-12.9693
uzz	-12.9699
▁kakao	-12.9702
▁urner	-12.9704
▁arda	-12.9705
▁cyto	-12.9706
▁rsl	-12.9709
▁LP	-12.9715
▁oshi	-12.9718
▁Gru	-12.9725
▁ppi	-12.9731
BR	-12.9747
▁dåd	-12.9747
▁ZE	-12.975
VI	-12.9775
▁93	-12.9777
▁pice	-12.9782
▁IX	-12.9791
▁BB	-12.9792
▁SER	-12.9802
▁äka	-12.9807
▁NO	-12.9807
▁Cre	-12.9808
GC	-12.9809
old	-12.9819
▁gree	-12.9825
▁amf	-12.9825
ÖR	-12.9825
▁Cow	-12.9832
▁rson	-12.9832
▁Lön	-12.9833
▁Gau	-12.9833
▁WW	-12.9836
vent	-12.9839
▁89	-12.986
▁eks	-12.9863
pro	-12.987
▁Cole	-12.987
enz	-12.9887
oxi	-12.9894
▁trio	-12.9903
hop	-12.9908
SG	-12.9912
▁tep	-12.9914
▁chu	-12.9928
▁akel	-12.9929
▁11.	-12.9932
read	-12.9943
▁Ida	-12.9949
▁uddi	-12.995
FR	-12.9955
▁ESO	-12.9955
▁row	-12.9956
MB	-12.9958
▁dsa	-12.9966
▁torv	-12.9971
▁lytt	-12.9976
▁Vind	-12.9982
▁kafé	-12.999
▁ICO	-12.9994
CL	-12.9994
▁ekn	-13.0004
û	-13.0009
▁„	-13.0009
▁SSAB	-13.0009
▁FAQ	-13.0009
▁OF	-13.001
▁arald	-13.0011
▁irth	-13.0015
▁ajak	-13.0015
▁bbey	-13.0015
▁oost	-13.0017
▁imber	-13.0018
▁UPP	-13.0018
▁sekel	-13.0021
▁drift	-13.0024
▁ppl	-13.0025
▁Train	-13.0025
▁lanom	-13.003
▁nné	-13.0032
▁NFC	-13.0035
▁FEU	-13.0036
▁ophie	-13.0038
▁lton	-13.0039
izz	-13.004
▁kån	-13.0049
ATE	-13.0049
▁morf	-13.0052
▁almar	-13.0057
▁pat	-13.0069
▁lger	-13.0069
▁7:	-13.0083
▁List	-13.0086
▁låd	-13.0097
▁15%	-13.0098
▁läm	-13.0098
▁MED	-13.0101
▁isb	-13.0102
▁1/	-13.0102
▁ussa	-13.0103
▁ICT	-13.0104
▁than	-13.0107
nock	-13.011
cus	-13.0111
▁15.	-13.0126
▁udde	-13.0132
▁neur	-13.0134
▁anas	-13.0141
▁Wri	-13.0156
68	-13.016
▁lavo	-13.0184
▁allon	-13.0186
ITT	-13.0192
▁Mor	-13.0197
▁wai	-13.0201
war	-13.0201
▁CDC	-13.0208
▁Pay	-13.0209
avid	-13.0209
▁Shin	-13.0212
23	-13.022
▁bety	-13.0226
ISA	-13.0241
▁lickr	-13.0245
▁Cam	-13.0255
▁olan	-13.0256
Wh	-13.0262
▁ngio	-13.0267
▁innar	-13.0273
AST	-13.0275
1.	-13.0281
▁TEN	-13.0288
▁santo	-13.0296
▁ohn	-13.0307
▁fol	-13.0309
FE	-13.0309
▁Ret	-13.0314
NU	-13.0316
▁opul	-13.0321
▁UR	-13.0332
▁alib	-13.0338
▁Geno	-13.034
▁möd	-13.0356
▁SF	-13.036
▁SL	-13.0371
xakt	-13.0374
▁GE	-13.0376
▁uar	-13.0383
▁Yal	-13.0383
▁PI	-13.0385
▁ambu	-13.0393
▁grev	-13.0393
19	-13.0393
▁Neo	-13.0395
▁nimm	-13.04
▁Wy	-13.0403
▁sator	-13.0405
▁iris	-13.0408
▁(5	-13.0411
▁haw	-13.0412
▁unn	-13.042
▁alam	-13.042
°	-13.0422
▁LC	-13.0425
±	-13.0426
▁where	-13.0426
EO	-13.0426
▁eymar	-13.0427
BI	-13.0428
▁ogram	-13.043
HR	-13.0433
▁jell	-13.0435
▁unny	-13.0436
▁99%	-13.0438
▁Why	-13.0446
▁pade	-13.0447
▁nowd	-13.046
▁tella	-13.0462
▁apit	-13.0469
lmon	-13.047
▁Usa	-13.047
▁175	-13.0472
dge	-13.0474
▁oute	-13.0481
pres	-13.0482
▁Bry	-13.049
▁Off	-13.0494
▁SSM	-13.0494
▁mour	-13.0496
33	-13.0502
▁RT	-13.0502
thei	-13.0503
uth	-13.0507
lab	-13.051
▁iM	-13.0513
▁lds	-13.0515
▁ermo	-13.0515
▁Röd	-13.0516
▁nåde	-13.0516
YS	-13.0518
▁Six	-13.052
▁IE	-13.0521
▁cCo	-13.0522
olo	-13.0522
▁ISIS	-13.0525
56	-13.0525
▁ANDE	-13.0528
sid	-13.053
▁ogra	-13.0532
hur	-13.0533
▁94	-13.0538
ñ	-13.0548
▁lve	-13.0549
▁MY	-13.0554
PV	-13.0555
▁tape	-13.0559
▁Gib	-13.0563
isse	-13.0566
▁Wing	-13.0566
▁auer	-13.0566
▁Gay	-13.0567
MT	-13.0571
▁vni	-13.0571
▁mack	-13.0576
BD	-13.0585
pho	-13.0587
▁MT	-13.0591
vans	-13.0592
▁9:	-13.0593
▁taxa	-13.0593
▁Rut	-13.0594
▁lore	-13.0602
▁SAP	-13.0602
▁usel	-13.0605
▁EBA	-13.0606
▁FF	-13.0613
▁cow	-13.0618
▁USS	-13.0619
▁ennan	-13.0619
umla	-13.0621
▁ennor	-13.0627
▁stäm	-13.0627
usto	-13.0635
▁DD	-13.0639
52	-13.0641
▁gaf	-13.0642
▁oppe	-13.0648
kan	-13.0649
ury	-13.0661
▁Byt	-13.0677
▁lna	-13.0678
▁(3	-13.0679
▁NCC	-13.0681
▁ondo	-13.0684
AE	-13.0691
▁low	-13.0694
▁lava	-13.0695
RB	-13.0696
▁Dog	-13.0699
CF	-13.0704
▁20.	-13.0706
▁valv	-13.0706
uder	-13.0708
▁TR	-13.0718
▁apse	-13.0719
kel	-13.0723
▁Bai	-13.0724
▁dale	-13.0726
▁rger	-13.0727
salo	-13.0727
▁rete	-13.0738
ADE	-13.0745
▁Wan	-13.0746
▁EMS	-13.0747
▁UND	-13.0748
▁ruck	-13.0762
IG	-13.0778
▁outi	-13.0782
BG	-13.0783
▁arsh	-13.0793
▁lde	-13.0796
▁nou	-13.0797
▁PL	-13.0804
▁NDE	-13.0805
tron	-13.0818
41	-13.0821
ögre	-13.0825
alar	-13.0833
▁ROM	-13.0834
poni	-13.0838
ider	-13.0849
▁KAN	-13.0851
GM	-13.0855
ute	-13.0858
▁peace	-13.0861
▁LIGEN	-13.0861
▁Grif	-13.0861
▁akota	-13.0862
▁rnold	-13.0862
▁jäkl	-13.0862
▁obyl	-13.0863
VER	-13.0864
▁egre	-13.0865
▁hyfs	-13.0865
▁vrak	-13.0867
▁urton	-13.0871
▁ulos	-13.0873
▁flät	-13.0874
▁asca	-13.0874
▁Dawn	-13.0876
▁acto	-13.0876
▁ersp	-13.0878
▁arak	-13.088
▁EBI	-13.0882
rink	-13.0882
▁ndora	-13.0883
AND	-13.0884
9%	-13.0885
▁LNG	-13.0885
II	-13.0886
▁101	-13.0887
▁...”	-13.0888
▁alph	-13.089
▁Dix	-13.0896
▁MTV	-13.0899
▁Viol	-13.0907
▁lugg	-13.0908
▁Map	-13.091
▁SPA	-13.0916
▁azar	-13.0919
MR	-13.092
▁herde	-13.092
▁Yun	-13.0921
▁apte	-13.0928
.7	-13.093
TIP	-13.0935
dame	-13.0937
▁novo	-13.0948
▁rtis	-13.0954
▁itty	-13.0962
▁orra	-13.0969
▁Soul	-13.097
▁ntum	-13.0973
väng	-13.0988
▁may	-13.0989
WA	-13.0996
mar	-13.0997
▁VIS	-13.1007
TL	-13.101
▁kryt	-13.1025
▁PT	-13.1028
▁Mrs	-13.103
▁DI	-13.1031
▁SCA	-13.1032
▁osu	-13.1043
HO	-13.1051
▁AAA	-13.1058
▁arvey	-13.1062
MD	-13.1088
▁lanc	-13.1088
▁1).	-13.1089
nst	-13.1091
▁uis	-13.1132
DK	-13.1145
▁erby	-13.1147
▁lamp	-13.1149
kåp	-13.1151
▁ryan	-13.1153
apa	-13.1159
ago	-13.1163
▁Ola	-13.1168
esh	-13.1174
▁nari	-13.1177
▁dali	-13.1205
▁wil	-13.1207
cos	-13.1211
▁lato	-13.1218
▁gåta	-13.1223
▁ESA	-13.1224
PH	-13.1236
▁SJ	-13.1242
ish	-13.1246
▁Ale	-13.1247
ahn	-13.1257
▁NV	-13.127
▁Öl	-13.127
rmor	-13.1271
▁"-	-13.1271
▁Job	-13.1279
▁kula	-13.1282
CU	-13.1298
UN	-13.1302
▁nacke	-13.1303
▁lips	-13.1307
▁NYC	-13.1316
▁zu	-13.1317
▁zill	-13.1318
▁kodil	-13.1319
▁Crow	-13.1321
▁osca	-13.1326
▁tukt	-13.1328
▁tårna	-13.1333
▁Nest	-13.1334
▁//	-13.1349
▁ssla	-13.135
avy	-13.1354
izb	-13.1357
▁homa	-13.1358
▁boot	-13.1362
▁phop	-13.1366
▁STOR	-13.138
▁XC	-13.1384
▁nep	-13.1389
▁heja	-13.1389
▁oros	-13.1392
32	-13.1394
▁OH	-13.1407
▁Klei	-13.141
▁Track	-13.142
▁dröv	-13.1423
UE	-13.1425
▁buy	-13.1426
▁ware	-13.1431
▁Pedr	-13.1435
▁IK	-13.1437
▁Wad	-13.1443
▁tail	-13.1449
▁Fuj	-13.1451
▁Low	-13.1481
got	-13.1481
▁Shah	-13.1484
TD	-13.1487
69	-13.1492
▁addl	-13.1494
▁ägo	-13.1497
▁Roms	-13.1506
▁oller	-13.151
▁anana	-13.1514
▁beck	-13.1515
▁inkl	-13.1516
▁PU	-13.1516
▁pens	-13.1521
▁ily	-13.1526
▁äf	-13.1528
CB	-13.1528
idd	-13.1528
▁vö	-13.1529
▁Thu	-13.1533
▁MSC	-13.1537
▁Ting	-13.1539
▁map	-13.1539
▁ÄN	-13.1541
▁hån	-13.155
▁Varg	-13.1552
▁lint	-13.1554
▁ART	-13.1556
▁amai	-13.156
▁Grä	-13.1571
TG	-13.1586
▁sarr	-13.1588
DB	-13.159
agga	-13.1597
▁ISS	-13.1603
88	-13.1608
▁yga	-13.1613
▁mach	-13.1618
▁COP	-13.1619
▁skål	-13.1627
▁Bala	-13.1636
63	-13.1641
▁12,	-13.1642
▁rilla	-13.1658
▁SW	-13.1663
off	-13.1668
▁ercy	-13.1673
▁psi	-13.1686
▁Can	-13.1697
▁unta	-13.17
ook	-13.1703
▁UI	-13.1707
▁jl	-13.1717
KO	-13.1723
▁PO	-13.1724
▁kip	-13.1731
ota	-13.1748
▁enzi	-13.1755
▁kåt	-13.1765
▁tåt	-13.1772
▁Vy	-13.1784
▁cop	-13.1785
à	-13.1787
▁Nep	-13.1787
▁slam	-13.1788
î	-13.1791
č	-13.1791
▁(7)	-13.1791
▁Zeus	-13.1791
▁BBQ	-13.1791
▁rowth	-13.1792
▁reeze	-13.1794
42	-13.1797
▁Maker	-13.18
▁108	-13.1804
▁3%	-13.1804
▁ömma	-13.1807
▁CFO	-13.1807
▁lakan	-13.1808
▁yond	-13.1811
▁MTG	-13.1812
▁Doug	-13.1818
▁gold	-13.1823
▁ACE	-13.1826
▁Giga	-13.1826
Ty	-13.1826
TW	-13.1826
▁arion	-13.1826
▁dwin	-13.1831
▁döv	-13.1831
43	-13.1832
▁llad	-13.1834
▁xD	-13.1835
▁athy	-13.1836
▁bdul	-13.1839
▁etis	-13.184
for	-13.1842
▁urra	-13.1842
▁ISKA	-13.1845
▁Malin	-13.1847
yri	-13.1851
▁Mau	-13.1852
▁asan	-13.1853
edge	-13.1855
▁Cox	-13.1873
UF	-13.1877
▁kväv	-13.188
▁kabel	-13.1883
▁ooth	-13.1888
▁trex	-13.1889
▁TDA	-13.1905
▁BY	-13.1905
com	-13.1909
RY	-13.191
RF	-13.1914
jer	-13.1926
▁llis	-13.1931
▁vagg	-13.1935
▁Foo	-13.1936
STA	-13.1937
▁lbu	-13.1938
▁arpa	-13.1945
▁abal	-13.1946
▁21,	-13.1947
VC	-13.1955
▁loft	-13.1957
57	-13.1961
▁llf	-13.1968
▁razz	-13.197
▁toft	-13.1976
▁eodo	-13.1978
▁MAS	-13.1979
CN	-13.1982
▁Led	-13.1988
ón	-13.1996
▁18,	-13.1996
▁CR	-13.1997
▁RSP	-13.2002
▁herp	-13.2004
▁Trea	-13.2007
▁11,	-13.2022
unna	-13.2029
▁open	-13.203
UB	-13.2032
isha	-13.2043
▁BC	-13.2044
▁ercu	-13.205
▁kål	-13.205
64	-13.2068
▁XS	-13.2068
▁17.	-13.2079
▁box	-13.2079
▁tiser	-13.2082
BN	-13.2097
▁kåla	-13.2114
▁olda	-13.2116
▁nci	-13.2119
▁kapp	-13.2123
SV	-13.2128
egel	-13.213
▁ågo	-13.2139
▁Rad	-13.2139
▁VAR	-13.2142
▁IVA	-13.2148
▁18.	-13.2157
ACE	-13.2164
isé	-13.217
▁ncy	-13.2176
▁hora	-13.2179
▁Maj	-13.2181
rash	-13.219
▁EV	-13.2193
PI	-13.2201
DU	-13.2202
▁unc	-13.2204
▁Alm	-13.2212
ylo	-13.2213
▁isel	-13.2217
▁izz	-13.2222
EFA	-13.223
▁orwe	-13.2232
38	-13.2233
▁orne	-13.2233
▁clip	-13.2233
▁Hit	-13.2244
▁stna	-13.2244
LF	-13.2247
LER	-13.2251
▁XX	-13.2252
▁Yar	-13.2261
▁wea	-13.2269
▁onne	-13.2272
zzo	-13.2276
▁lav	-13.2278
-0	-13.2279
spa	-13.2281
DO	-13.2286
onki	-13.229
try	-13.2291
▁[4]	-13.2291
▸	-13.2291
▁SUV	-13.2291
▁Bruno	-13.2292
▁gaard	-13.2292
▁Snö	-13.2292
▁Only	-13.2292
▁Gaia	-13.2295
▁Zlat	-13.2295
▁taxo	-13.2297
▁Boot	-13.2298
▁Riga	-13.2299
RIS	-13.23
▁eresa	-13.2301
▁Lil	-13.2301
▁hawk	-13.2305
▁only	-13.2305
▁Yell	-13.2307
▁rvod	-13.2314
▁Ladin	-13.2316
▁ERP	-13.2317
▁yy	-13.2319
oid	-13.2319
▁AMD	-13.2319
▁COD	-13.2323
▁hvar	-13.2325
▁ssur	-13.2327
▁Saw	-13.233
▁Cris	-13.2332
LR	-13.2334
TSD	-13.2334
EV	-13.2335
▁hib	-13.2335
▁telj	-13.2335
▁luck	-13.2337
▁Lås	-13.2338
lam	-13.234
▁HTC	-13.2341
44	-13.2343
▁lady	-13.2344
/4	-13.2347
▁320	-13.2348
▁lärd	-13.235
▁Drag	-13.2358
▁SEC	-13.237
▁OL	-13.2374
▁vene	-13.238
GH	-13.2381
▁MAT	-13.2388
▁NR	-13.2391
▁olli	-13.2403
HT	-13.2404
▁PET	-13.2412
▁here	-13.2413
asse	-13.2421
▁yri	-13.2423
CAA	-13.243
▁panna	-13.2434
GL	-13.2439
▁chy	-13.244
▁ulit	-13.2443
▁ckli	-13.2445
▁AQ	-13.2451
▁ICC	-13.2452
cent	-13.2453
▁Boss	-13.2461
▁dju	-13.247
▁orner	-13.247
▁anit	-13.2478
▁lmen	-13.2482
▁äxt	-13.2485
▁ölje	-13.2486
▁Nad	-13.2492
▁auna	-13.2507
▁Pia	-13.2507
▁TU	-13.2513
▁Zw	-13.2515
ÅR	-13.2518
▁reml	-13.2522
▁MX	-13.2522
▁EOS	-13.2523
hipp	-13.2523
▁dni	-13.2525
hus	-13.2532
▁ritz	-13.2533
▁liss	-13.2536
▁nco	-13.2551
▁Wire	-13.2553
▁pole	-13.2556
▁Pig	-13.2562
DT	-13.2567
tho	-13.2572
UC	-13.2577
▁asic	-13.2581
▁81	-13.2586
▁bock	-13.26
SW	-13.2616
▁ece	-13.2619
▁lou	-13.262
▁Ull	-13.2622
▁lau	-13.2642
vin	-13.2665
▁näck	-13.2674
▁null	-13.2682
▁Mali	-13.2685
▁ulan	-13.2688
▁TA	-13.2695
▁SAM	-13.2704
▁mjäl	-13.2717
▁odge	-13.2725
▁KI	-13.275
▁ikon	-13.2757
▁loc	-13.2764
▁gräd	-13.2768
LUS	-13.2771
GS	-13.2778
▁QR	-13.278
▁olin	-13.2783
No	-13.2788
▁Shir	-13.2804
▁Kri	-13.2804
KS	-13.2812
▁zer	-13.2812
­	-13.2814
ï	-13.2818
ð	-13.2818
▁Zür	-13.2818
▁huket	-13.2818
▁yjam	-13.2819
▁α	-13.282
▁Name	-13.282
▁STI	-13.282
▁Feel	-13.2822
▁släta	-13.2822
▁snack	-13.2825
/5	-13.2825
ATA	-13.2827
OG	-13.2835
▁XIV	-13.2839
▁unck	-13.2847
▁erpen	-13.2848
ARA	-13.2849
▁kruk	-13.285
▁phic	-13.285
▁Dahl	-13.2852
▁rich	-13.2853
lyv	-13.2854
▁XI	-13.2855
▁102	-13.2857
▁OY	-13.2858
▁guy	-13.2858
HF	-13.2859
▁fax	-13.286
AH	-13.2861
▁Alto	-13.2864
▁VET	-13.2866
▁Grove	-13.2867
▁käten	-13.2873
▁Nix	-13.2875
▁empel	-13.2875
lank	-13.2877
▁krin	-13.289
▁Leg	-13.2893
azz	-13.2894
▁eader	-13.2895
▁mab	-13.2895
▁Gö	-13.2905
tex	-13.2908
▁ACT	-13.2912
▁Rub	-13.2915
▁oge	-13.2921
▁Nair	-13.2921
ect	-13.2922
omma	-13.2924
▁pillo	-13.2933
▁NDA	-13.294
▁säl	-13.2942
▁andom	-13.2962
▁ldo	-13.2967
▁BER	-13.2972
▁guru	-13.2977
▁cky	-13.298
▁vilj	-13.2981
▁lly	-13.2988
VR	-13.2991
▁Tol	-13.2992
▁ergu	-13.2993
▁Gw	-13.2993
▁NG	-13.2995
▁amve	-13.2998
ADI	-13.3015
59	-13.3016
▁TC	-13.3022
▁PH	-13.3036
▁eith	-13.3043
abel	-13.3047
▁vred	-13.3052
▁Nora	-13.3052
▁Hera	-13.3058
▁orw	-13.306
▁blog	-13.3065
▁AIK	-13.3065
iaz	-13.3069
anas	-13.3071
▁MAC	-13.3074
▁hemm	-13.3078
▁Choc	-13.3081
▁alab	-13.3088
OV	-13.3089
opy	-13.309
rov	-13.309
▁NAS	-13.3095
▁SOS	-13.3099
▁malm	-13.31
▁onna	-13.3113
▁cre	-13.3139
pto	-13.3143
▁ardy	-13.3146
▁umin	-13.315
53	-13.3159
▁kyn	-13.318
▁Are	-13.3186
▁endy	-13.3186
toma	-13.3188
▁kak	-13.3191
ESS	-13.3198
odul	-13.3198
▁lugo	-13.3202
wan	-13.3217
▁Xia	-13.3218
▁erud	-13.3218
▁ELAT	-13.3232
ison	-13.3235
gla	-13.3251
oder	-13.3252
▁lvar	-13.3255
▁ucc	-13.3261
INK	-13.3265
In	-13.3287
▁vast	-13.3289
▁Eat	-13.3308
79	-13.3313
▁SU	-13.3325
▁ulmi	-13.3328
rvey	-13.3351
▁Ladi	-13.3353
▁mist	-13.3368
▁❤️	-13.3373
▁YCKE	-13.3373
▁Craw	-13.3373
▁Zelda	-13.3373
▁Fidel	-13.3373
▁Loop	-13.3373
▁Råd	-13.3374
▁LIVE	-13.3374
VP	-13.3376
▁Zack	-13.3379
▁atrix	-13.3381
▁shire	-13.3383
RAM	-13.3383
ANT	-13.3386
▁4%	-13.3386
▁NBC	-13.3395
▁loop	-13.3399
▁AUC	-13.3399
▁CAT	-13.34
enol	-13.34
▁coll	-13.3402
▁Vul	-13.3403
▁lavi	-13.3404
▁DAG	-13.3409
▁elux	-13.3409
▁Brew	-13.341
▁Kram	-13.341
▁Thom	-13.3413
▁Lapp	-13.342
▁Rit	-13.342
▁krill	-13.3421
▁ulso	-13.3422
▁gyll	-13.3425
▁Kat	-13.3427
ACH	-13.343
▁Alt	-13.3432
▁RTP	-13.3438
▁HAR	-13.3439
▁armel	-13.344
▁TSD	-13.3442
MV	-13.3445
▁indle	-13.345
▁MRI	-13.3453
▁MMA	-13.3455
▁gues	-13.3459
EU	-13.3466
▁Chip	-13.3466
▁zy	-13.3466
▁ARM	-13.3483
TB	-13.3484
▁gala	-13.3488
HP	-13.3496
rud	-13.3496
etup	-13.3499
▁verl	-13.3504
EAD	-13.3519
▁BET	-13.3522
▁pei	-13.3524
▁:/	-13.3527
▁narr	-13.353
lco	-13.3532
▁Buy	-13.3542
▁lifv	-13.3545
uge	-13.3546
▁POP	-13.3553
yw	-13.3556
GF	-13.3559
▁Vald	-13.3566
72	-13.3566
▁Mad	-13.3568
▁Bale	-13.3578
wer	-13.3586
▁eave	-13.3586
▁WP	-13.3592
▁OSS	-13.3595
▁sååå	-13.3597
ypno	-13.3597
▁Shee	-13.3597
▁anner	-13.3599
▁cale	-13.3608
▁arton	-13.3611
▁UCL	-13.3636
▁lådan	-13.3641
▁PCI	-13.3662
09	-13.3663
▁TER	-13.3675
KG	-13.3675
▁IEL	-13.3678
▁ethy	-13.368
lifv	-13.3683
▁Maso	-13.3691
▁91	-13.3691
yah	-13.3694
kli	-13.3696
61	-13.3706
▁ALL	-13.3711
ORT	-13.3716
BM	-13.3719
lash	-13.3721
▁SOL	-13.3724
kor	-13.3727
SX	-13.3729
▁BP	-13.3732
LK	-13.3767
▁ssam	-13.3768
rodi	-13.3772
▁16.	-13.3815
▁pina	-13.3818
uvre	-13.3819
▁esis	-13.382
▁span	-13.3823
▁resh	-13.3841
igga	-13.3845
lima	-13.3848
▁Gas	-13.3853
uggu	-13.3854
▁Hum	-13.3856
▁arry	-13.3857
▁Ras	-13.3863
ATT	-13.3872
▁Ohl	-13.389
▁Fas	-13.3893
▁#3	-13.3896
win	-13.3913
▁FT	-13.3914
rev	-13.3915
▁GIF	-13.392
▁ophi	-13.3922
LB	-13.3928
WI	-13.3932
orum	-13.3949
▁NEJ	-13.3961
▁***	-13.3961
▁trofé	-13.3961
▁►	-13.3961
▁Nür	-13.3961
▁bajs	-13.3962
▁snål	-13.3962
▁eekly	-13.3962
▁ndorf	-13.3962
▁Bulk	-13.3962
▁hejdå	-13.3964
▁ahá	-13.3964
▁opez	-13.3966
▁RISE	-13.3966
rifv	-13.3966
▁Marta	-13.3968
▁tkin	-13.3969
▁xxx	-13.397
▁888	-13.3972
▁asket	-13.3973
▁Haza	-13.3975
▁leph	-13.3976
AI	-13.3979
▁OCD	-13.398
▁rubel	-13.3981
▁rumpa	-13.3981
DAG	-13.3981
▁ebron	-13.3984
▁4.0	-13.3989
▁ddic	-13.3989
▁OTC	-13.3992
▁Turin	-13.3993
▁jek	-13.3995
▁krim	-13.4001
▁Loan	-13.4002
▁Chase	-13.4003
▁CMS	-13.4003
▁sulf	-13.4005
▁oyle	-13.4006
▁ESS	-13.4008
▁ermon	-13.401
▁Jäm	-13.401
▁litz	-13.4013
▁#4	-13.4013
pua	-13.4015
▁uett	-13.4018
▁yang	-13.4019
▁PÅ	-13.402
▁udge	-13.402
▁roach	-13.4021
ativ	-13.403
▁kurd	-13.403
▁Rudo	-13.4031
▁trail	-13.4031
▁116	-13.4032
mel	-13.4033
▁wain	-13.4033
▁PMS	-13.4033
▁hum	-13.4043
hoot	-13.4048
▁Jes	-13.4059
OCK	-13.4063
▁Hole	-13.4064
unny	-13.4067
▁irri	-13.407
▁naiva	-13.4079
▁IIS	-13.408
ååå	-13.4088
▁ydra	-13.4094
▁rigg	-13.4096
▁arson	-13.4097
▁ocket	-13.4097
▁JE	-13.4112
▁260	-13.4116
▁ROI	-13.4121
▁IEC	-13.4122
▁ppel	-13.4126
▁Shot	-13.4128
▁lead	-13.4131
86	-13.4131
▁cum	-13.4133
77	-13.4138
▁#5	-13.414
74	-13.4143
▁Gera	-13.4148
▁Luk	-13.415
▁10:	-13.4152
▁(6	-13.4157
▁Blu	-13.416
▁urri	-13.4173
AU	-13.4175
▁liot	-13.4184
▁raw	-13.4185
▁iang	-13.4191
say	-13.4201
edal	-13.4203
La	-13.4217
▁ndro	-13.4217
▁feb	-13.4231
▁SSD	-13.4238
.8	-13.424
▁whi	-13.4242
▁Kay	-13.4245
▁stak	-13.4252
▁achu	-13.4256
▁sted	-13.4265
▁ATP	-13.4266
BF	-13.4267
oë	-13.4268
▁vest	-13.4276
läkt	-13.4286
▁ahra	-13.4289
1,	-13.4293
▁ONE	-13.431
abla	-13.4311
▁atom	-13.432
▁iros	-13.4333
▁gles	-13.4334
jab	-13.4341
▁fys	-13.4344
▁lso	-13.4352
▁gora	-13.4353
▁CB	-13.436
▁FIA	-13.4365
▁Gun	-13.4369
▁lake	-13.4372
▁Dot	-13.4374
WE	-13.4377
▁rgon	-13.4379
▁14.	-13.4381
▁tbi	-13.4398
▁Hamm	-13.4399
LY	-13.441
▁Valp	-13.4419
▁INF	-13.4425
HD	-13.4431
▁senas	-13.4435
BL	-13.4436
▁LTI	-13.4439
dro	-13.444
Sc	-13.4443
▁Biz	-13.4453
▁döp	-13.4453
alma	-13.4468
GD	-13.4477
▁riz	-13.4492
▁oC	-13.4492
▁näva	-13.4511
▁LL	-13.4515
trui	-13.4518
▁Sim	-13.4519
▁ries	-13.4519
▁FAT	-13.452
▁mamm	-13.4522
/3	-13.4558
araj	-13.4564
▁wic	-13.4566
ASH	-13.4576
▁NICEF	-13.4586
▁(8)	-13.4586
▁NYSE	-13.4587
▁gips	-13.4587
▁Visby	-13.4587
▁IONEN	-13.4587
▁jelf	-13.4587
▁️	-13.4587
▁ARE	-13.4588
▁töki	-13.4589
▁Verde	-13.4589
ÄND	-13.459
▁Zach	-13.4591
▁olton	-13.4592
▁anät	-13.4592
▁vräk	-13.4594
▁84	-13.4594
BK	-13.4595
pur	-13.4596
▁Rus	-13.4597
▁made	-13.4597
▁Alga	-13.4598
▁urple	-13.4598
▁ouls	-13.4598
▁105	-13.4603
▁Navy	-13.4604
▁ekka	-13.4605
▁giri	-13.4606
▁Hoff	-13.4606
▁eddit	-13.4609
▁gnu	-13.461
▁Bern	-13.461
RX	-13.4613
ghan	-13.4615
▁Silv	-13.4615
▁Urin	-13.4617
▁erese	-13.4618
62	-13.4619
tim	-13.4621
My	-13.4622
▁farm	-13.463
▁argot	-13.4637
▁119	-13.4641
▁slem	-13.4641
▁yatt	-13.4641
▁Brig	-13.4644
▁CPA	-13.4652
▁CNS	-13.4654
▁í	-13.4663
▁OO	-13.4667
▁Vilh	-13.4669
▁tuna	-13.4671
▁Hip	-13.4674
▁Rip	-13.4679
▁TOR	-13.469
▁Ink	-13.4692
▁Root	-13.4694
▁mapp	-13.4702
ache	-13.4702
▁neum	-13.4716
▁Lou	-13.4717
▁Inge	-13.4736
TX	-13.4738
▁DIA	-13.4738
▁artha	-13.4741
BB	-13.4744
▁Bode	-13.4752
▁Gat	-13.4753
UK	-13.4757
▁inati	-13.4761
▁Nåt	-13.4763
▁roxi	-13.4764
cky	-13.4772
▁lört	-13.4773
▁yur	-13.4773
▁amra	-13.4778
▁hish	-13.4781
▁bott	-13.4781
▁GIS	-13.4784
▁urh	-13.479
▁kjul	-13.4791
WR	-13.4798
scal	-13.4802
NF	-13.4819
▁ibir	-13.4825
▁GS	-13.4832
▁emet	-13.4838
▁tigen	-13.4838
▁Baa	-13.4838
▁knät	-13.4839
▁FX	-13.4843
▁eoul	-13.4845
▁ç	-13.4852
KL	-13.4867
▁Inc	-13.4876
▁Cola	-13.4876
▁ESF	-13.4876
▁pike	-13.488
▁omez	-13.489
▁renz	-13.4902
▁stery	-13.4904
ICK	-13.491
▁XVI	-13.4912
▁yah	-13.4917
▁kanot	-13.4919
▁Ham	-13.4924
ever	-13.4937
hod	-13.4939
▁UM	-13.494
▁Pira	-13.4945
▁håna	-13.4951
ALL	-13.4963
ädd	-13.498
▁upra	-13.4984
▁Taj	-13.499
▁JU	-13.5006
etz	-13.5008
RR	-13.5011
▁ulse	-13.5011
▁buss	-13.5014
kij	-13.5044
loy	-13.5045
▁WE	-13.505
▁Sham	-13.5051
▁nubb	-13.5052
GG	-13.5056
▁lerad	-13.506
▁cach	-13.5062
AW	-13.5062
▁nsel	-13.5071
une	-13.5073
con	-13.5081
cca	-13.5098
34	-13.5103
illy	-13.5104
▁VC	-13.5116
tiz	-13.513
54	-13.5137
hir	-13.5141
▁kini	-13.5173
▁Zene	-13.5183
änt	-13.519
▁Kil	-13.5195
▁GL	-13.5197
▁ntom	-13.5203
KB	-13.5204
WD	-13.5205
FL	-13.5213
(	-13.5226
67	-13.5233
▁SEA	-13.5239
ijk	-13.5242
▁ITS	-13.5243
▁SLU	-13.5246
▁them	-13.5248
ACK	-13.5251
Ü	-13.5253
ş	-13.5253
▁lcomm	-13.5253
▁eirut	-13.5253
▁rozen	-13.5253
▁XXX	-13.5253
▁NSKA	-13.5254
▁1,0	-13.5254
▁alawi	-13.5257
▁rcad	-13.5258
▁UAE	-13.5259
▁tajm	-13.5259
▁OU	-13.5259
▁zzy	-13.5263
▁skik	-13.5265
▁icut	-13.5267
▁melon	-13.5267
▁Ferd	-13.5268
▁leros	-13.5268
▁lux	-13.5272
▁jacu	-13.5277
▁dmon	-13.5279
▁ARD	-13.5281
löv	-13.5282
▁MIG	-13.5285
▁Zhu	-13.5287
▁Zoom	-13.5289
▁racy	-13.5297
▁amka	-13.5297
▁256	-13.5302
▁cLa	-13.5305
▁Slam	-13.5305
poli	-13.5306
▁yron	-13.5309
▁6-	-13.5312
ggar	-13.5312
▁phil	-13.5314
▁mish	-13.5315
▁ugab	-13.5318
▁tigma	-13.532
ARD	-13.5325
GR	-13.5326
▁KOL	-13.5331
▁trava	-13.5334
▁vici	-13.5335
nzi	-13.5337
▁ETT	-13.5347
ykt	-13.5348
lero	-13.5349
▁ruit	-13.5358
▁Grac	-13.5362
▁sula	-13.5366
▁tigm	-13.5371
▁märg	-13.5373
▁OJ	-13.5375
▁bury	-13.5377
▁AES	-13.5383
▁BDS	-13.5385
▁Gråt	-13.5386
▁Pad	-13.5388
=	-13.5942
ë	-13.6346
%	-13.6541
ô	-13.6687
#	-13.6711
ž	-13.6736
	-13.757
ł	-13.757
€	-13.8475
ß	-13.8479
ل	-13.8479
§	-13.9475
α	-13.9475
}	-13.9475
—	-13.9475
ı	-13.9479
😛	-13.9479
ç	-14.0537
|	-14.0586
ĺ	-14.059
ń	-14.059
ō	-14.059
ه	-14.059
و	-14.059
‒	-14.059
🏼	-14.059
ا	-14.059
»	-14.1836
•	-14.1836
ι	-14.184
õ	-14.184
ạ	-14.184
✔	-14.184
🏻	-14.184
🙁	-14.184
×	-14.3265
~	-14.3265
γ	-14.3269
ę	-14.3269
θ	-14.3269
ν	-14.3269
ê	-14.3269
ع	-14.3269
ن	-14.3269
_	-14.4931
®	-14.4931
σ	-14.4935
م	-14.4935
ي	-14.4935
Ă	-14.4935
Č	-14.4935
ƒ	-14.4935
ə	-14.4935
ς	-14.4935
‭	-14.4935
◄	-14.4935
★	-14.4935
	-14.4935
😂	-14.4935
¿	-14.4935
ī	-14.4935
⁄	-14.6737
️	-14.6931
ε	-14.6935
ο	-14.6935
	-14.6935
Æ	-14.6935
ū	-14.6935
ρ	-14.6935
а	-14.6935
‚	-14.6935
◆	-14.6935
	-14.6935
	-14.6935
😅	-14.6935
🤣	-14.6935
国	-14.6935
👍	-14.9431
É	-14.9431
“	-14.9431
ṣ	-14.9435
λ	-14.9435
Í	-14.9435
ò	-14.9435
ù	-14.9435
ý	-14.9435
ő	-14.9435
ţ	-14.9435
ʼ	-14.9435
ί	-14.9435
й	-14.9435
س	-14.9435
ṇ	-14.9435
†	-14.9435
▪	-14.9435
○	-14.9435
◾	-14.9435
⭐	-14.9435
國	-14.9435
	-14.9435
	-14.9435
💙	-14.9435
ص	-14.9435
þ	-15.2769
¢	-15.2769
ă	-15.2769
ą	-15.2769
đ	-15.2769
ē	-15.2769
ğ	-15.2769
̃	-15.2769
ά	-15.2769
φ	-15.2769
К	-15.2769
е	-15.2769
и	-15.2769
ӓ	-15.2769
د	-15.2769
ر	-15.2769
ى	-15.2769
ḥ	-15.2769
ἀ	-15.2769
♣	-15.2769
❑	-15.2769
・	-15.2769
超	-15.2769
軍	-15.2769
︎	-15.2769
💤	-15.2769
ì	-15.2769
р	-15.2769
❤	-15.7765
\	-15.7765
{	-15.7765
«	-15.7765
ј	-15.7769
ÿ	-15.7769
ǔ	-15.7769
ɑ	-15.7769
Α	-15.7769
Σ	-15.7769
κ	-15.7769
χ	-15.7769
ό	-15.7769
Д	-15.7769
д	-15.7769
ت	-15.7769
ج	-15.7769
ح	-15.7769
ก	-15.7769
ร	-15.7769
ọ	-15.7769
‍	-15.7769
―	-15.7769
‡	-15.7769
↵	-15.7769
∙	-15.7769
√	-15.7769
≈	-15.7769
□	-15.7769
◦	-15.7769
⚘	-15.7769
✅	-15.7769
✎	-15.7769
✰	-15.7769
❥	-15.7769
コ	-15.7769
ン	-15.7769
万	-15.7769
会	-15.7769
团	-15.7769
岁	-15.7769
联	-15.7769
赛	-15.7769
	-15.7769
	-15.7769
	-15.7769
	-15.7769
	-15.7769
	-15.7769
	-15.7769
	-15.7769
😕	-15.7769
😜	-15.7769
😝	-15.7769
🙌	-15.7769
🤔	-15.7769
🤗	-15.7769
🤯	-15.7769
უ	-15.7769
🙈	-16.7672
😬	-16.7673
😎	-16.7674
😋	-16.7675
💖	-16.7676
	-16.7677
눉	-16.7678
足	-16.7679
球	-16.768
人	-16.7681
主	-16.7682
♪	-16.7683
☆	-16.7684
Ґ	-16.7685
О	-16.7686
ή	-16.7687
Ω	-16.7688
Β	-16.7689
ɛ	-16.769
ș	-16.7691
ư	-16.7692
ơ	-16.7693
ż	-16.7694
ś	-16.7695
Ś	-16.7696
Đ	-16.7697
Þ	-16.7698
😦	-16.7699
😢	-16.77
😇	-16.7701
革	-16.7702
命	-16.7703
❓	-16.7704
◊	-16.7705
≤	-16.7706
ẹ	-16.7707
ω	-16.7708
τ	-16.7709
Δ	-16.771
ė	-16.7711
¡	-16.7712
💜	-16.7713
💚	-16.7714
💕	-16.7715
👏	-16.7716
	-16.7717
中	-16.7718
☝	-16.7719
‬	-16.772
π	-16.7721
δ	-16.7722
ǧ	-16.7723
Ž	-16.7724
Ş	-16.7725
	-16.7726
😘	-16.7727
😃	-16.7728
▶	-16.7729
ṛ	-16.773
Õ	-16.7731
Ç	-16.7732
🙏	-16.7733
😄	-16.7734
民	-16.7735
œ	-16.7736
	-16.7737
↑	-16.7738
Î	-16.7739
Á	-16.774
♡	-16.7741
☺	-16.7742
Ó	-16.7743
	-16.7744
Š	-16.7745
	-16.7746
ˮ	-16.7747
Ø	-16.7748
א	-16.7749
≥	-16.775
μ	-16.7751
😊	-16.7752
✓	-16.7753
▌	-16.7754
😀	-16.7755
′	-16.7756
−	-16.7757
`	-16.7758
😉	-16.7759
●	-16.776
›	-16.7761
̈	-16.7762
£	-16.7763
·	-16.7764
́	-16.7765
¬	-16.7765
ʹ	-16.7765
β	-16.7765
‹	-16.7765
😍	-16.7765
^	-16.7765
►	-16.7765
„	-16.7765
©	-16.7765
■	-16.7765
	-16.7765
→	-16.7765
♥	-16.7765
@	-16.7766
🙂	-16.7767
‘	-16.7768
リ	-16.7768
台	-16.7768
會	-16.7768
湾	-16.7768
灣	-16.7768
Ł	-16.7769
	-16.7769
	-16.7769
	-16.7769
À	-16.7769
Ë	-16.7769
Ð	-16.7769
Ñ	-16.7769
Ò	-16.7769
Ú	-16.7769
Ý	-16.7769
÷	-16.7769
Ā	-16.7769
ě	-16.7769
ħ	-16.7769
İ	-16.7769
ķ	-16.7769
ų	-16.7769
Ż	-16.7769
ǎ	-16.7769
ǒ	-16.7769
ɒ	-16.7769
ɡ	-16.7769
ɣ	-16.7769
ɸ	-16.7769
ˆ	-16.7769
ˈ	-16.7769
ˌ	-16.7769
ː	-16.7769
̂	-16.7769
̶	-16.7769
Γ	-16.7769
Ε	-16.7769
Θ	-16.7769
Μ	-16.7769
Π	-16.7769
η	-16.7769
ύ	-16.7769
А	-16.7769
Б	-16.7769
В	-16.7769
Е	-16.7769
И	-16.7769
Н	-16.7769
П	-16.7769
С	-16.7769
Т	-16.7769
Э	-16.7769
Я	-16.7769
в	-16.7769
г	-16.7769
л	-16.7769
м	-16.7769
н	-16.7769
с	-16.7769
ы	-16.7769
ӧ	-16.7769
ד	-16.7769
צ	-16.7769
ة	-16.7769
ث	-16.7769
ك	-16.7769
ڤ	-16.7769
ނ	-16.7769
ތ	-16.7769
ަ	-16.7769
ާ	-16.7769
ข	-16.7769
ต	-16.7769
ธ	-16.7769
น	-16.7769
ย	-16.7769
ส	-16.7769
ะ	-16.7769
ั	-16.7769
ิ	-16.7769
ี	-16.7769
ุ	-16.7769
เ	-16.7769
ი	-16.7769
რ	-16.7769
ც	-16.7769
ხ	-16.7769
Ḥ	-16.7769
ḳ	-16.7769
ṅ	-16.7769
Ṣ	-16.7769
Ṭ	-16.7769
ṭ	-16.7769
ả	-16.7769
ầ	-16.7769
ễ	-16.7769
ệ	-16.7769
ỉ	-16.7769
ị	-16.7769
ủ	-16.7769
ἐ	-16.7769
‣	-16.7769
※	-16.7769
⁃	-16.7769
₤	-16.7769
↓	-16.7769
↩	-16.7769
⇑	-16.7769
⇒	-16.7769
⇨	-16.7769
∈	-16.7769
∑	-16.7769
∞	-16.7769
⋅	-16.7769
▲	-16.7769
▷	-16.7769
▼	-16.7769
▽	-16.7769
▾	-16.7769
☐	-16.7769
☒	-16.7769
☕	-16.7769
☟	-16.7769
☭	-16.7769
♦	-16.7769
♧	-16.7769
♫	-16.7769
✌	-16.7769
✗	-16.7769
➜	-16.7769
➥	-16.7769
⟵	-16.7769
⟶	-16.7769
⦁	-16.7769
オ	-16.7769
ニ	-16.7769
ビ	-16.7769
世	-16.7769
五	-16.7769
光	-16.7769
公	-16.7769
共	-16.7769
军	-16.7769
协	-16.7769
協	-16.7769
司	-16.7769
和	-16.7769
大	-16.7769
山	-16.7769
式	-16.7769
春	-16.7769
月	-16.7769
有	-16.7769
楚	-16.7769
江	-16.7769
海	-16.7769
狂	-16.7769
珞	-16.7769
社	-16.7769
秋	-16.7769
空	-16.7769
箇	-16.7769
級	-16.7769
级	-16.7769
结	-16.7769
聯	-16.7769
臺	-16.7769
航	-16.7769
言	-16.7769
賽	-16.7769
鈥	-16.7769
锦	-16.7769
镜	-16.7769
际	-16.7769
限	-16.7769
集	-16.7769
낍	-16.7769
책	-16.7769
	-16.7769
	-16.7769
	-16.7769
	-16.7769
	-16.7769
	-16.7769
	-16.7769
	-16.7769
	-16.7769
	-16.7769
	-16.7769
	-16.7769
	-16.7769
	-16.7769
	-16.7769
	-16.7769
	-16.7769
	-16.7769
	-16.7769
	-16.7769
	-16.7769
	-16.7769
	-16.7769
	-16.7769
￼	-16.7769
🇨	-16.7769
🌞	-16.7769
🌷	-16.7769
🌸	-16.7769
🍀	-16.7769
🍦	-16.7769
🍰	-16.7769
🍳	-16.7769
🍴	-16.7769
🎁	-16.7769
🎈	-16.7769
🎉	-16.7769
🎨	-16.7769
🎶	-16.7769
🎼	-16.7769
🏆	-16.7769
🏽	-16.7769
🐞	-16.7769
🐲	-16.7769
🐴	-16.7769
🐾	-16.7769
👁	-16.7769
👇	-16.7769
👌	-16.7769
💔	-16.7769
💥	-16.7769
💪	-16.7769
💰	-16.7769
📌	-16.7769
📚	-16.7769
📷	-16.7769
🔸	-16.7769
🖤	-16.7769
🗞	-16.7769
😁	-16.7769
😆	-16.7769
😔	-16.7769
😖	-16.7769
😞	-16.7769
😠	-16.7769
😫	-16.7769
😭	-16.7769
😳	-16.7769
😶	-16.7769
🙆	-16.7769
🙉	-16.7769
🤙	-16.7769
🤛	-16.7769
🤩	-16.7769
🥂	-16.7769
🥇	-16.7769
🦋	-16.7769
🦌	-16.7769
🧡	-16.7769
ц	-16.7769
ờ	-16.7769
株	-16.7769
[	-16.7769
Φ	-16.7769
о	-16.7769
т	-16.7769
华	-16.7769
界	-16.7769
