<unk>	0
<s>	0
</s>	0
▁e	-0
▁s	-1
▁a	-2
▁d	-3
▁i	-4
▁n	-5
▁t	-6
▁f	-7
▁o	-8
er	-9
▁r	-10
▁m	-11
▁.	-12
tt	-13
▁k	-14
ll	-15
▁v	-16
▁h	-17
ar	-18
en	-19
▁en	-20
▁l	-21
▁b	-22
ör	-23
an	-24
▁er	-25
▁p	-26
är	-27
et	-28
▁g	-29
ch	-30
▁in	-31
in	-32
▁u	-33
▁,	-34
om	-35
▁och	-36
▁för	-37
▁att	-38
st	-39
▁de	-40
▁ti	-41
▁är	-42
ig	-43
ed	-44
ag	-45
▁av	-46
nd	-47
on	-48
ra	-49
▁som	-50
ka	-51
ti	-52
▁D	-53
▁till	-54
▁ar	-55
or	-56
▁st	-57
▁vi	-58
▁om	-59
te	-60
na	-61
▁på	-62
▁ä	-63
▁med	-64
de	-65
▁j	-66
ing	-67
ck	-68
▁det	-69
▁et	-70
▁na	-71
▁S	-72
pp	-73
▁var	-74
▁an	-75
ån	-76
▁den	-77
ro	-78
el	-79
ss	-80
kt	-81
at	-82
▁ut	-83
al	-84
▁du	-85
▁inte	-86
år	-87
▁har	-88
▁M	-89
▁ing	-90
▁ö	-91
▁re	-92
▁-	-93
▁be	-94
▁V	-95
sk	-96
▁sk	-97
▁1	-98
▁or	-99
am	-100
▁H	-101
▁vä	-102
ter	-103
▁A	-104
▁ett	-105
▁li	-106
▁ning	-107
re	-108
▁ell	-109
li	-110
▁kan	-111
and	-112
▁F	-113
▁E	-114
åg	-115
lla	-116
ri	-117
▁0	-118
▁era	-119
än	-120
▁ska	-121
▁nd	-122
il	-123
▁c	-124
▁J	-125
▁ri	-126
▁jag	-127
tta	-128
▁I	-129
▁T	-130
▁ig	-131
ver	-132
▁and	-133
▁fr	-134
ta	-135
▁upp	-136
▁2	-137
▁?	-138
em	-139
▁el	-140
▁B	-141
▁lä	-142
ur	-143
ad	-144
▁Det	-145
▁eller	-146
▁P	-147
▁å	-148
▁sä	-149
ång	-150
era	-151
ot	-152
▁N	-153
sta	-154
▁pro	-155
▁"	-156
▁y	-157
▁O	-158
▁:	-159
▁tr	-160
ma	-161
la	-162
▁K	-163
ni	-164
▁sam	-165
▁ku	-166
▁så	-167
▁från	-168
mer	-169
▁(	-170
▁”	-171
ld	-172
▁rä	-173
▁sp	-174
▁lig	-175
▁G	-176
▁L	-177
lig	-178
▁)	-179
da	-180
▁C	-181
äl	-182
▁ha	-183
▁än	-184
▁min	-185
▁ver	-186
vä	-187
▁ommer	-188
▁över	-189
▁någ	-190
se	-191
▁men	-192
▁ng	-193
▁nde	-194
▁le	-195
▁und	-196
▁di	-197
▁Jag	-198
▁si	-199
▁ll	-200
ol	-201
▁!	-202
▁när	-203
▁gör	-204
▁te	-205
▁han	-206
▁R	-207
▁ion	-208
us	-209
▁ör	-210
▁ef	-211
het	-212
▁se	-213
▁vara	-214
ort	-215
▁bar	-216
▁De	-217
inn	-218
ve	-219
▁het	-220
ak	-221
▁kom	-222
▁tid	-223
ut	-224
▁gen	-225
▁ati	-226
▁man	-227
ne	-228
▁am	-229
are	-230
▁kon	-231
▁ta	-232
ru	-233
ft	-234
ud	-235
yck	-236
▁al	-237
▁sig	-238
▁sin	-239
▁år	-240
▁are	-241
▁bl	-242
▁din	-243
it	-244
od	-245
ssa	-246
ska	-247
▁ny	-248
▁Vi	-249
▁all	-250
▁under	-251
lj	-252
▁fö	-253
▁9	-254
▁må	-255
▁ni	-256
pa	-257
▁hå	-258
▁sl	-259
▁alla	-260
▁3	-261
▁U	-262
▁lo	-263
▁ko	-264
ram	-265
ste	-266
▁ne	-267
▁dig	-268
vi	-269
sa	-270
▁ande	-271
▁fa	-272
▁verk	-273
▁ock	-274
så	-275
kti	-276
bb	-277
▁efter	-278
▁hel	-279
lle	-280
▁kl	-281
▁ra	-282
va	-283
▁mi	-284
▁gi	-285
▁del	-286
ent	-287
▁5	-288
▁anvä	-289
▁it	-290
▁ation	-291
▁här	-292
so	-293
▁ty	-294
▁dag	-295
▁ex	-296
▁hand	-297
un	-298
inns	-299
gi	-300
▁där	-301
▁gång	-302
gg	-303
▁mer	-304
▁Den	-305
▁också	-306
▁håll	-307
▁finns	-308
▁genom	-309
▁4	-310
▁För	-311
▁andra	-312
ju	-313
bet	-314
▁ner	-315
▁bli	-316
ök	-317
▁erna	-318
äll	-319
ven	-320
▁id	-321
▁ering	-322
▁at	-323
▁män	-324
fö	-325
▁per	-326
▁ka	-327
si	-328
▁mö	-329
▁–	-330
▁mig	-331
▁nu	-332
▁hon	-333
ans	-334
▁liv	-335
▁dem	-336
▁fl	-337
▁hö	-338
▁ro	-339
▁as	-340
ats	-341
▁hj	-342
▁detta	-343
▁lö	-344
tio	-345
▁bara	-346
▁vär	-347
▁myck	-348
vå	-349
▁rätt	-350
▁få	-351
▁vill	-352
ord	-353
▁mot	-354
▁8	-355
▁of	-356
▁is	-357
▁6	-358
▁rsta	-359
▁tt	-360
▁W	-361
▁kr	-362
▁göra	-363
▁ju	-364
▁vad	-365
ilj	-366
cka	-367
▁ns	-368
▁nt	-369
▁em	-370
▁änd	-371
öv	-372
▁sätt	-373
▁fi	-374
▁rbet	-375
äng	-376
▁po	-377
öd	-378
▁7	-379
▁pl	-380
▁En	-381
▁gru	-382
ånga	-383
▁hä	-384
ark	-385
▁bör	-386
▁land	-387
▁jäl	-388
▁tro	-389
▁samma	-390
▁eg	-391
▁någon	-392
▁Men	-393
▁beh	-394
▁vår	-395
▁nda	-396
▁w	-397
▁ho	-398
▁hi	-399
▁vid	-400
▁ur	-401
▁hur	-402
▁ge	-403
▁fram	-404
▁nä	-405
edan	-406
▁la	-407
▁ly	-408
je	-409
ci	-410
▁kulle	-411
▁lag	-412
▁tj	-413
var	-414
▁vet	-415
▁lu	-416
▁oss	-417
▁denna	-418
▁mo	-419
fe	-420
▁ma	-421
▁on	-422
▁tal	-423
▁ätt	-424
ga	-425
▁ighet	-426
▁Om	-427
▁mm	-428
▁va	-429
▁handl	-430
▁sy	-431
▁bo	-432
le	-433
ke	-434
▁vil	-435
▁un	-436
nan	-437
▁oli	-438
um	-439
▁även	-440
▁else	-441
▁ord	-442
▁Du	-443
åd	-444
▁nder	-445
▁nst	-446
▁männi	-447
ja	-448
▁by	-449
art	-450
▁inf	-451
▁ed	-452
▁led	-453
▁rld	-454
▁tä	-455
ker	-456
▁do	-457
▁bra	-458
▁spel	-459
ell	-460
▁sa	-461
ger	-462
▁trä	-463
▁gt	-464
▁ga	-465
▁to	-466
▁/	-467
▁Och	-468
▁måste	-469
▁nn	-470
▁många	-471
riv	-472
▁vå	-473
nad	-474
▁får	-475
▁nad	-476
ser	-477
▁ber	-478
▁hade	-479
▁etag	-480
▁ul	-481
▁orm	-482
▁något	-483
▁då	-484
▁ingar	-485
▁In	-486
▁hjäl	-487
▁vis	-488
▁behöv	-489
▁hjälp	-490
▁es	-491
▁jälv	-492
▁for	-493
▁ol	-494
▁res	-495
▁gra	-496
▁ment	-497
vec	-498
▁kund	-499
▁ag	-500
▁dessa	-501
▁allt	-502
▁perso	-503
▁bil	-504
▁Ä	-505
▁pa	-506
▁ts	-507
▁ba	-508
yd	-509
▁kra	-510
▁nlig	-511
▁utvec	-512
▁dat	-513
▁tre	-514
ning	-515
▁åt	-516
▁eri	-517
tte	-518
tik	-519
▁rt	-520
▁inom	-521
▁val	-522
▁ter	-523
▁gå	-524
▁två	-525
ul	-526
▁möj	-527
ce	-528
▁samt	-529
▁ser	-530
▁des	-531
▁sm	-532
▁tjä	-533
▁skor	-534
▁sak	-535
▁sina	-536
igt	-537
▁dukt	-538
tur	-539
▁hu	-540
▁red	-541
▁stä	-542
▁spe	-543
▁hem	-544
▁ek	-545
he	-546
▁Detta	-547
▁barn	-548
▁utan	-549
▁Han	-550
▁ellan	-551
▁ade	-552
▁När	-553
ff	-554
stä	-555
▁dr	-556
▁går	-557
▁rel	-558
▁vilk	-559
▁stå	-560
dan	-561
▁mark	-562
tiv	-563
▁följ	-564
▁grund	-565
▁dera	-566
▁dom	-567
▁Hur	-568
▁nya	-569
▁yst	-570
▁rlden	-571
▁bi	-572
▁åter	-573
▁Var	-574
▁möjl	-575
▁ystem	-576
▁mat	-577
▁Vad	-578
▁milj	-579
▁ans	-580
▁ende	-581
▁tra	-582
▁ch	-583
▁met	-584
▁gj	-585
▁akt	-586
▁ligen	-587
▁hög	-588
▁gr	-589
▁natio	-590
▁börja	-591
der	-592
▁gl	-593
▁der	-594
▁ditt	-595
▁tag	-596
▁bä	-597
▁vän	-598
▁str	-599
unkt	-600
▁våra	-601
▁kä	-602
▁gram	-603
▁kun	-604
▁igt	-605
▁olika	-606
▁kö	-607
▁me	-608
▁lös	-609
▁rö	-610
▁kri	-611
▁väg	-612
▁ers	-613
▁lå	-614
▁sök	-615
▁vikti	-616
▁reg	-617
▁van	-618
▁hela	-619
åga	-620
▁komm	-621
▁säger	-622
ill	-623
▁dina	-624
▁sedan	-625
▁tar	-626
ie	-627
▁gift	-628
▁cent	-629
▁några	-630
▁före	-631
▁sju	-632
▁blir	-633
▁ve	-634
▁deras	-635
▁ran	-636
▁varje	-637
▁fy	-638
▁väl	-639
▁nna	-640
▁akti	-641
▁fall	-642
og	-643
▁tet	-644
▁kla	-645
▁br	-646
▁inne	-647
ens	-648
ssi	-649
▁pre	-650
▁par	-651
▁gg	-652
▁bet	-653
tid	-654
▁bå	-655
▁skriv	-656
ko	-657
mn	-658
▁skapa	-659
▁ent	-660
..	-661
▁x	-662
▁mål	-663
▁ger	-664
▁ad	-665
▁änn	-666
▁ck	-667
▁sto	-668
▁stor	-669
▁skall	-670
▁ry	-671
▁mär	-672
▁lång	-673
▁org	-674
▁erade	-675
▁ställ	-676
ekt	-677
▁Gud	-678
emp	-679
▁ort	-680
▁tän	-681
▁lltid	-682
▁svar	-683
▁kv	-684
▁um	-685
▁bland	-686
▁sti	-687
▁honom	-688
▁kt	-689
▁hör	-690
▁ingen	-691
ov	-692
▁tan	-693
▁hus	-694
▁im	-695
▁kunna	-696
▁äl	-697
▁erar	-698
sök	-699
▁;	-700
▁fri	-701
▁kän	-702
öm	-703
▁egen	-704
▁tiv	-705
▁sitt	-706
▁hen	-707
ali	-708
bil	-709
00	-710
▁fort	-711
olk	-712
▁il	-713
▁lats	-714
▁nster	-715
▁ioner	-716
▁säker	-717
▁lever	-718
dr	-719
▁jä	-720
▁komp	-721
es	-722
▁nal	-723
▁ens	-724
vis	-725
▁ss	-726
▁we	-727
ev	-728
▁iv	-729
▁pp	-730
▁plats	-731
▁hitta	-732
▁Att	-733
ske	-734
▁skap	-735
▁visa	-736
▁nk	-737
▁hans	-738
lja	-739
▁erb	-740
▁ru	-741
▁tek	-742
fi	-743
▁helt	-744
▁art	-745
▁nligt	-746
▁dess	-747
▁henne	-748
stå	-749
ara	-750
▁kti	-751
▁råg	-752
▁uni	-753
▁[	-754
▁bor	-755
▁föra	-756
ärs	-757
▁bygg	-758
▁est	-759
▁slu	-760
eg	-761
▁blem	-762
▁pri	-763
▁tlig	-764
▁mitt	-765
▁varit	-766
▁ung	-767
▁ce	-768
▁jo	-769
▁väx	-770
▁fu	-771
▁eng	-772
yr	-773
▁verka	-774
▁Så	-775
▁ald	-776
▁vin	-777
to	-778
▁ättre	-779
▁ld	-780
▁form	-781
tter	-782
råd	-783
▁lit	-784
▁itet	-785
▁enhet	-786
▁rn	-787
▁mest	-788
▁ab	-789
▁sjuk	-790
▁gäll	-791
▁sv	-792
▁nen	-793
▁bästa	-794
▁plan	-795
▁nings	-796
▁annan	-797
▁nella	-798
ärd	-799
▁komma	-800
▁mp	-801
▁stat	-802
▁områd	-803
sä	-804
▁utom	-805
▁kro	-806
▁fly	-807
▁fil	-808
llt	-809
▁krä	-810
▁...	-811
▁äm	-812
uro	-813
▁tiden	-814
▁anske	-815
▁örstå	-816
▁rd	-817
▁medel	-818
▁erbju	-819
▁organ	-820
▁ist	-821
▁rätta	-822
▁bok	-823
▁dela	-824
▁webb	-825
▁nl	-826
▁nnat	-827
▁ram	-828
▁orsk	-829
▁stånd	-830
▁kort	-831
▁rbets	-832
▁lite	-833
end	-834
▁da	-835
▁sluta	-836
lu	-837
▁rbeta	-838
▁tekni	-839
man	-840
▁tu	-841
ine	-842
▁kap	-843
▁troll	-844
mm	-845
▁slut	-846
▁ant	-847
▁arand	-848
▁fråga	-849
▁bort	-850
▁mä	-851
▁nvä	-852
▁stora	-853
▁arna	-854
▁tör	-855
▁nvänd	-856
▁aldri	-857
▁hos	-858
▁kling	-859
skap	-860
▁ild	-861
ir	-862
▁exemp	-863
vud	-864
▁läm	-865
▁kraft	-866
▁nästa	-867
▁typ	-868
▁lägg	-869
▁my	-870
▁Ch	-871
▁us	-872
▁Med	-873
▁vanli	-874
▁stöd	-875
▁app	-876
▁ändr	-877
▁amilj	-878
▁häl	-879
▁rum	-880
▁vinn	-881
gr	-882
▁grupp	-883
▁inn	-884
▁flera	-885
▁jobb	-886
▁gre	-887
▁int	-888
▁saker	-889
▁artik	-890
▁baka	-891
▁bu	-892
▁omm	-893
▁Ett	-894
rå	-895
▁US	-896
▁tryck	-897
▁blev	-898
▁innan	-899
▁op	-900
ik	-901
▁sättn	-902
▁ast	-903
▁sta	-904
ärt	-905
▁inter	-906
tal	-907
▁lj	-908
▁lik	-909
▁På	-910
▁Y	-911
▁mus	-912
sto	-913
▁risk	-914
ok	-915
▁Har	-916
di	-917
▁god	-918
▁ill	-919
▁ki	-920
▁huvud	-921
▁su	-922
▁ara	-923
▁kil	-924
▁ön	-925
▁erad	-926
▁folk	-927
▁tyck	-928
▁ster	-929
▁natur	-930
▁tror	-931
▁älska	-932
▁lämna	-933
▁amhet	-934
▁EU	-935
▁]	-936
▁gjord	-937
rån	-938
▁lin	-939
▁ull	-940
▁äg	-941
▁'	-942
▁råd	-943
▁läng	-944
akti	-945
as	-946
▁histo	-947
sio	-948
id	-949
▁aren	-950
▁nytt	-951
▁fatta	-952
▁igen	-953
cke	-954
▁stö	-955
ann	-956
▁“	-957
▁tala	-958
▁kropp	-959
▁delar	-960
▁Alla	-961
ono	-962
▁miljö	-963
▁ali	-964
▁oci	-965
▁värde	-966
▁lär	-967
▁pi	-968
▁miss	-969
▁verks	-970
▁anta	-971
▁liga	-972
▁ndast	-973
▁igare	-974
▁avs	-975
▁slag	-976
▁opp	-977
▁ub	-978
▁ekono	-979
▁månad	-980
▁vänta	-981
▁ier	-982
▁jekt	-983
▁engar	-984
▁fick	-985
▁erson	-986
▁känd	-987
▁hålla	-988
▁ned	-989
▁etyd	-990
▁ate	-991
▁ink	-992
▁tter	-993
ärn	-994
▁Är	-995
▁go	-996
▁punkt	-997
ef	-998
▁vinno	-999
▁förb	-1000
▁Till	-1001
▁nivå	-1002
▁dra	-1003
▁dagar	-1004
▁uro	-1005
▁stru	-1006
▁tta	-1007
▁värd	-1008
▁enter	-1009
▁ff	-1010
▁öka	-1011
▁vatte	-1012
▁lika	-1013
▁data	-1014
fek	-1015
▁ak	-1016
▁Hon	-1017
▁särs	-1018
▁ard	-1019
▁kunde	-1020
▁ofta	-1021
▁styr	-1022
▁ap	-1023
▁Ö	-1024
▁Där	-1025
▁St	-1026
▁bestä	-1027
▁ngre	-1028
ande	-1029
▁rbete	-1030
▁effek	-1031
ang	-1032
▁funkt	-1033
▁ligg	-1034
▁både	-1035
▁ky	-1036
▁bol	-1037
▁ella	-1038
ge	-1039
▁ej	-1040
▁regi	-1041
▁etal	-1042
is	-1043
▁aktiv	-1044
▁ocial	-1045
▁gjort	-1046
▁svara	-1047
▁spela	-1048
▁Å	-1049
ella	-1050
▁lem	-1051
▁säga	-1052
▁The	-1053
▁rod	-1054
▁Man	-1055
▁stad	-1056
▁dö	-1057
▁bro	-1058
▁slä	-1059
▁ändra	-1060
▁USA	-1061
▁centr	-1062
▁ind	-1063
▁tat	-1064
▁tio	-1065
▁Som	-1066
▁ntal	-1067
▁leva	-1068
go	-1069
▁Ef	-1070
▁äld	-1071
▁gam	-1072
▁mina	-1073
▁ark	-1074
▁Efter	-1075
▁ust	-1076
▁redan	-1077
▁bak	-1078
▁Varfö	-1079
▁lev	-1080
me	-1081
▁ldigt	-1082
▁tänk	-1083
▁ådan	-1084
ung	-1085
▁isat	-1086
▁kar	-1087
▁besök	-1088
▁idag	-1089
▁son	-1090
▁tor	-1091
▁ond	-1092
▁heten	-1093
▁spec	-1094
▁eh	-1095
▁mindr	-1096
▁fortf	-1097
▁ic	-1098
▁jord	-1099
▁gäng	-1100
▁dock	-1101
▁stud	-1102
▁kvali	-1103
▁inklu	-1104
▁pel	-1105
lut	-1106
▁änner	-1107
▁ök	-1108
▁ven	-1109
▁tyg	-1110
▁ndra	-1111
▁skt	-1112
▁står	-1113
▁tur	-1114
▁trans	-1115
▁Denna	-1116
▁vissa	-1117
▁uropa	-1118
▁fast	-1119
▁ac	-1120
▁ets	-1121
▁bru	-1122
▁ors	-1123
▁Se	-1124
▁Här	-1125
▁tg	-1126
▁träff	-1127
▁kor	-1128
▁tv	-1129
▁emot	-1130
▁Nu	-1131
▁Lä	-1132
▁iska	-1133
▁rodu	-1134
▁ult	-1135
▁minsk	-1136
lä	-1137
▁z	-1138
▁Inte	-1139
ank	-1140
hä	-1141
▁ubli	-1142
▁Pro	-1143
▁namn	-1144
▁relat	-1145
del	-1146
▁isk	-1147
kal	-1148
▁Co	-1149
▁fel	-1150
▁ton	-1151
▁ortsä	-1152
▁cess	-1153
▁off	-1154
ina	-1155
mä	-1156
▁flyg	-1157
▁nner	-1158
ssio	-1159
▁Und	-1160
▁run	-1161
▁co	-1162
dd	-1163
▁nergi	-1164
▁Jo	-1165
▁giv	-1166
▁ikt	-1167
▁up	-1168
▁fung	-1169
▁cy	-1170
▁Ma	-1171
▁Ne	-1172
▁fär	-1173
▁stnad	-1174
▁tgärd	-1175
▁äker	-1176
▁tit	-1177
▁förs	-1178
▁säk	-1179
▁ring	-1180
▁sö	-1181
▁täll	-1182
▁mu	-1183
▁rm	-1184
▁lems	-1185
▁enda	-1186
▁visar	-1187
▁drag	-1188
▁inans	-1189
▁ei	-1190
▁ten	-1191
▁lösn	-1192
▁Under	-1193
▁if	-1194
▁arbet	-1195
▁hår	-1196
▁vårt	-1197
kä	-1198
▁rågor	-1199
▁gängl	-1200
▁iga	-1201
▁lut	-1202
▁livet	-1203
▁träd	-1204
▁fem	-1205
sl	-1206
urop	-1207
▁mar	-1208
meri	-1209
▁öpp	-1210
▁rapp	-1211
▁rad	-1212
▁nära	-1213
▁10	-1214
▁räck	-1215
▁därfö	-1216
▁mor	-1217
▁miljo	-1218
▁fler	-1219
▁dj	-1220
▁fot	-1221
▁rik	-1222
▁rikti	-1223
▁lan	-1224
▁tim	-1225
▁tad	-1226
▁tel	-1227
▁nkel	-1228
▁nds	-1229
▁neb	-1230
▁ting	-1231
▁nö	-1232
▁ost	-1233
ia	-1234
tera	-1235
▁tog	-1236
▁steg	-1237
▁tera	-1238
▁hy	-1239
▁ob	-1240
▁livs	-1241
▁lycka	-1242
▁nebär	-1243
▁hjärt	-1244
vest	-1245
▁nöd	-1246
▁samhä	-1247
▁nvest	-1248
▁klara	-1249
▁gener	-1250
▁betal	-1251
▁rappo	-1252
▁mynd	-1253
▁ana	-1254
▁sex	-1255
▁ktion	-1256
▁fatt	-1257
▁ultat	-1258
råk	-1259
▁händ	-1260
▁veten	-1261
▁kam	-1262
▁eslut	-1263
▁just	-1264
▁asera	-1265
▁fru	-1266
▁hets	-1267
▁tion	-1268
▁pra	-1269
▁io	-1270
ku	-1271
▁sol	-1272
ho	-1273
▁svår	-1274
▁amman	-1275
▁ala	-1276
▁orsak	-1277
▁Be	-1278
▁konst	-1279
▁driv	-1280
pe	-1281
ende	-1282
▁såg	-1283
▁törre	-1284
▁th	-1285
▁no	-1286
▁lesta	-1287
▁nskap	-1288
▁eras	-1289
▁mma	-1290
▁blo	-1291
▁nog	-1292
▁nera	-1293
▁ev	-1294
▁jälva	-1295
för	-1296
▁ög	-1297
po	-1298
▁ou	-1299
▁syn	-1300
▁Ta	-1301
▁lek	-1302
▁runt	-1303
▁issio	-1304
▁logi	-1305
▁%	-1306
▁gem	-1307
▁ings	-1308
▁dagen	-1309
▁stark	-1310
▁vecka	-1311
▁vänd	-1312
mi	-1313
▁rs	-1314
▁rep	-1315
▁nads	-1316
veri	-1317
▁räk	-1318
▁Sveri	-1319
▁gemen	-1320
ydd	-1321
▁kilt	-1322
▁llet	-1323
▁öppna	-1324
▁hant	-1325
▁rikt	-1326
▁erial	-1327
▁låt	-1328
▁gick	-1329
▁film	-1330
▁sen	-1331
▁naste	-1332
▁röst	-1333
▁rekt	-1334
▁äst	-1335
▁iell	-1336
pt	-1337
kto	-1338
▁utbil	-1339
▁mod	-1340
far	-1341
▁resa	-1342
▁konto	-1343
▁samar	-1344
▁nter	-1345
▁ännu	-1346
▁intre	-1347
▁sko	-1348
▁passa	-1349
▁&	-1350
▁tri	-1351
▁ifrån	-1352
▁kvar	-1353
▁märk	-1354
▁nabb	-1355
▁gel	-1356
▁dning	-1357
ansk	-1358
▁varfö	-1359
lek	-1360
▁tisk	-1361
▁sidan	-1362
▁regl	-1363
ign	-1364
verk	-1365
▁söker	-1366
▁djur	-1367
▁Kan	-1368
▁läs	-1369
▁ång	-1370
▁eb	-1371
▁släpp	-1372
▁esign	-1373
▁oliti	-1374
▁lära	-1375
▁bolag	-1376
▁hund	-1377
▁test	-1378
▁nkelt	-1379
▁port	-1380
▁elser	-1381
os	-1382
▁behov	-1383
▁anti	-1384
▁Dessa	-1385
▁lle	-1386
▁räm	-1387
▁örj	-1388
▁ja	-1389
▁nativ	-1390
▁ärlek	-1391
▁tred	-1392
▁åg	-1393
▁ionen	-1394
▁nta	-1395
▁sida	-1396
▁nline	-1397
▁kicka	-1398
▁enare	-1399
▁reko	-1400
▁gn	-1401
▁arn	-1402
▁örsök	-1403
▁ndig	-1404
gen	-1405
▁part	-1406
▁satt	-1407
▁skö	-1408
▁små	-1409
▁kansk	-1410
▁ud	-1411
▁tyd	-1412
▁lim	-1413
▁tredj	-1414
▁fakti	-1415
▁ont	-1416
▁ilder	-1417
ber	-1418
▁enk	-1419
▁kol	-1420
▁täck	-1421
▁lokal	-1422
▁språk	-1423
▁rr	-1424
▁året	-1425
▁idigt	-1426
▁musik	-1427
▁skydd	-1428
▁begr	-1429
▁ins	-1430
▁bild	-1431
▁begrä	-1432
▁livit	-1433
▁vilka	-1434
▁reci	-1435
▁ik	-1436
▁antas	-1437
▁’	-1438
dag	-1439
▁färg	-1440
▁nor	-1441
▁recis	-1442
▁fått	-1443
▁bero	-1444
▁lätt	-1445
▁od	-1446
gör	-1447
▁rde	-1448
▁tress	-1449
åt	-1450
▁pres	-1451
▁ndigt	-1452
▁ål	-1453
▁anc	-1454
▁alter	-1455
rid	-1456
▁metod	-1457
ori	-1458
▁nell	-1459
▁död	-1460
▁isera	-1461
▁ker	-1462
▁sn	-1463
▁jäm	-1464
▁ib	-1465
▁misk	-1466
▁avtal	-1467
ha	-1468
▁hav	-1469
▁kring	-1470
▁leda	-1471
▁inget	-1472
ari	-1473
▁eiska	-1474
▁växt	-1475
▁länge	-1476
▁ytter	-1477
▁roll	-1478
▁sent	-1479
▁sälj	-1480
▁ft	-1481
▁icke	-1482
äns	-1483
▁teck	-1484
▁gilla	-1485
▁fyll	-1486
▁eriod	-1487
▁klart	-1488
▁ättra	-1489
ob	-1490
▁hopp	-1491
▁olo	-1492
▁veta	-1493
▁kvinn	-1494
▁lora	-1495
▁minut	-1496
▁mmend	-1497
▁tydli	-1498
▁rör	-1499
▁fyra	-1500
▁erfar	-1501
▁tack	-1502
▁Ty	-1503
rev	-1504
▁gtvis	-1505
▁teckn	-1506
▁bry	-1507
▁känna	-1508
▁naden	-1509
fte	-1510
▁Ja	-1511
▁ann	-1512
▁via	-1513
▁borg	-1514
▁komst	-1515
▁krav	-1516
▁Även	-1517
▁riv	-1518
▁vård	-1519
▁relse	-1520
▁oll	-1521
▁fann	-1522
▁kräv	-1523
▁timma	-1524
▁urs	-1525
▁pla	-1526
▁nga	-1527
▁nte	-1528
▁fin	-1529
▁rande	-1530
deo	-1531
▁sni	-1532
▁allmä	-1533
▁rågan	-1534
▁års	-1535
▁titta	-1536
ic	-1537
▁gräns	-1538
▁välja	-1539
▁vak	-1540
▁vensk	-1541
▁tning	-1542
▁lar	-1543
▁låg	-1544
▁tud	-1545
▁lex	-1546
▁llk	-1547
▁bruk	-1548
▁sse	-1549
▁poli	-1550
▁Vil	-1551
▁tom	-1552
▁Fr	-1553
▁Wi	-1554
▁ögon	-1555
▁nödvä	-1556
▁änsk	-1557
▁ang	-1558
▁denti	-1559
▁räckl	-1560
▁ret	-1561
▁gar	-1562
▁oppas	-1563
▁dy	-1564
▁ndas	-1565
▁ameri	-1566
▁skill	-1567
▁gu	-1568
▁Ca	-1569
▁dia	-1570
▁ren	-1571
▁elare	-1572
▁tudie	-1573
▁lad	-1574
▁sett	-1575
▁llt	-1576
▁fä	-1577
▁itu	-1578
▁taden	-1579
▁lam	-1580
▁ron	-1581
▁kalla	-1582
▁sade	-1583
▁klass	-1584
▁stort	-1585
▁rom	-1586
▁vilja	-1587
▁köpa	-1588
▁medan	-1589
▁talet	-1590
▁snitt	-1591
▁sj	-1592
▁rike	-1593
▁Upp	-1594
▁enlig	-1595
▁änskl	-1596
▁ådana	-1597
▁hin	-1598
▁ste	-1599
▁llkor	-1600
▁hal	-1601
▁grad	-1602
▁lla	-1603
▁ffe	-1604
ydda	-1605
▁konf	-1606
▁rnet	-1607
ini	-1608
▁rist	-1609
▁sive	-1610
▁kydda	-1611
▁prata	-1612
▁stu	-1613
▁erat	-1614
▁san	-1615
▁ultur	-1616
▁inga	-1617
gd	-1618
▁000	-1619
som	-1620
▁dare	-1621
▁ffekt	-1622
▁skatt	-1623
▁tids	-1624
▁Fi	-1625
▁blod	-1626
▁vand	-1627
▁ay	-1628
▁båda	-1629
▁ategi	-1630
▁els	-1631
▁the	-1632
▁egna	-1633
▁pati	-1634
▁liten	-1635
▁ca	-1636
▁Ha	-1637
▁yck	-1638
▁krig	-1639
▁etala	-1640
▁Ut	-1641
▁nabbt	-1642
▁Z	-1643
▁sna	-1644
▁pris	-1645
str	-1646
▁20	-1647
▁räd	-1648
▁inner	-1649
▁vers	-1650
▁vinna	-1651
ål	-1652
▁nam	-1653
▁nj	-1654
▁Min	-1655
▁kvä	-1656
▁kommu	-1657
okus	-1658
▁asin	-1659
▁fokus	-1660
▁ext	-1661
▁»	-1662
▁ena	-1663
▁vu	-1664
▁först	-1665
▁alt	-1666
▁unive	-1667
▁ism	-1668
▁dater	-1669
▁skada	-1670
▁bygga	-1671
▁rig	-1672
▁rna	-1673
▁Då	-1674
▁rvi	-1675
▁kväll	-1676
▁ue	-1677
▁elt	-1678
▁gla	-1679
rist	-1680
▁Många	-1681
▁lltså	-1682
▁aut	-1683
▁ria	-1684
▁ir	-1685
▁tverk	-1686
▁ote	-1687
▁svårt	-1688
▁räkna	-1689
▁samla	-1690
su	-1691
▁gångs	-1692
▁fe	-1693
▁öd	-1694
▁andet	-1695
▁profe	-1696
▁rivat	-1697
▁ljus	-1698
▁ec	-1699
▁bio	-1700
▁sikt	-1701
▁örord	-1702
rek	-1703
▁ituat	-1704
▁möte	-1705
▁tills	-1706
▁Jes	-1707
▁iella	-1708
▁lista	-1709
▁mängd	-1710
▁tjäna	-1711
▁*	-1712
▁glob	-1713
▁ork	-1714
▁dell	-1715
▁örjan	-1716
▁inna	-1717
▁helst	-1718
▁asino	-1719
▁Mo	-1720
▁snabb	-1721
▁15	-1722
▁fiera	-1723
▁ia	-1724
▁disk	-1725
▁medle	-1726
▁ack	-1727
▁ris	-1728
▁örs	-1729
▁bete	-1730
▁hälso	-1731
▁offen	-1732
▁titut	-1733
▁Dess	-1734
▁erä	-1735
▁ngen	-1736
▁ses	-1737
▁Guds	-1738
▁märke	-1739
▁yr	-1740
▁gri	-1741
▁ehöv	-1742
▁förf	-1743
▁he	-1744
▁ntakt	-1745
▁långt	-1746
▁uts	-1747
▁anal	-1748
▁ktur	-1749
▁rvice	-1750
▁regis	-1751
▁sc	-1752
▁jämfö	-1753
▁Ho	-1754
▁New	-1755
▁öv	-1756
▁ramfö	-1757
▁ref	-1758
▁ntegr	-1759
▁sista	-1760
▁nhet	-1761
▁Allt	-1762
ital	-1763
▁demo	-1764
▁norm	-1765
▁valt	-1766
▁morgo	-1767
▁efini	-1768
▁läsa	-1769
▁telef	-1770
▁hell	-1771
▁os	-1772
▁Joh	-1773
▁bank	-1774
▁rlds	-1775
▁Ni	-1776
▁30	-1777
vid	-1778
▁pass	-1779
▁takt	-1780
ön	-1781
▁Läs	-1782
▁licka	-1783
▁ien	-1784
▁inför	-1785
▁borde	-1786
▁hindr	-1787
▁ps	-1788
▁slå	-1789
▁äldra	-1790
▁döda	-1791
▁tell	-1792
▁af	-1793
▁gamla	-1794
▁minst	-1795
▁prov	-1796
▁ggnad	-1797
▁förut	-1798
▁sådan	-1799
▁mör	-1800
▁anför	-1801
▁gaste	-1802
▁tex	-1803
▁trän	-1804
▁önska	-1805
▁ey	-1806
▁ident	-1807
▁ndare	-1808
▁möt	-1809
▁cir	-1810
▁mån	-1811
▁ensio	-1812
▁perfe	-1813
▁ror	-1814
▁rolig	-1815
▁rat	-1816
▁ari	-1817
▁stisk	-1818
▁divid	-1819
▁hälsa	-1820
▁aktio	-1821
▁eln	-1822
▁haft	-1823
▁nien	-1824
▁dålig	-1825
▁ok	-1826
▁stall	-1827
▁stand	-1828
änk	-1829
▁text	-1830
▁konsu	-1831
vo	-1832
▁ritt	-1833
ow	-1834
fic	-1835
▁Fö	-1836
▁brott	-1837
▁pelar	-1838
▁•	-1839
▁ini	-1840
▁lån	-1841
▁X	-1842
▁Gen	-1843
▁video	-1844
▁utr	-1845
▁fanns	-1846
▁trakt	-1847
▁Re	-1848
ller	-1849
▁blogg	-1850
▁Q	-1851
▁ute	-1852
▁likt	-1853
▁öring	-1854
▁bed	-1855
▁dju	-1856
▁ordn	-1857
▁allas	-1858
▁ublic	-1859
▁bud	-1860
▁godkä	-1861
▁handa	-1862
▁såsom	-1863
cker	-1864
▁vem	-1865
▁Därfö	-1866
▁tvi	-1867
▁lägga	-1868
▁värld	-1869
▁ville	-1870
▁vikt	-1871
▁Av	-1872
▁sera	-1873
▁idé	-1874
▁gy	-1875
▁Ingen	-1876
▁syfte	-1877
▁ina	-1878
▁sag	-1879
▁mmel	-1880
▁sats	-1881
▁gav	-1882
▁ori	-1883
▁ologi	-1884
▁mam	-1885
▁ox	-1886
▁högre	-1887
▁sid	-1888
▁ktiv	-1889
omm	-1890
▁berg	-1891
▁djup	-1892
▁hemma	-1893
▁ommit	-1894
▁doku	-1895
▁nsvar	-1896
▁lutio	-1897
ong	-1898
▁Jesus	-1899
▁ffärs	-1900
▁ransk	-1901
▁akta	-1902
▁vack	-1903
▁Sedan	-1904
▁astig	-1905
▁serie	-1906
▁klä	-1907
▁emi	-1908
▁Ro	-1909
▁ot	-1910
▁klar	-1911
▁sign	-1912
▁öj	-1913
▁Europ	-1914
▁antör	-1915
▁mt	-1916
▁lic	-1917
▁måga	-1918
▁gansk	-1919
▁stans	-1920
rig	-1921
▁öp	-1922
▁iellt	-1923
▁ysi	-1924
▁ärd	-1925
▁dröm	-1926
▁domar	-1927
▁Vä	-1928
▁pe	-1929
▁meter	-1930
▁regio	-1931
▁sätta	-1932
▁käm	-1933
▁eta	-1934
▁ov	-1935
▁Låt	-1936
▁röd	-1937
▁lopp	-1938
▁gital	-1939
▁tarta	-1940
▁12	-1941
▁rer	-1942
▁direk	-1943
jä	-1944
▁regel	-1945
kat	-1946
▁skil	-1947
▁aste	-1948
▁foto	-1949
▁tradi	-1950
▁åld	-1951
▁chef	-1952
▁mmar	-1953
▁ow	-1954
▁itta	-1955
▁genhe	-1956
▁öcker	-1957
nå	-1958
▁sra	-1959
▁dags	-1960
▁säkra	-1961
▁dro	-1962
▁tot	-1963
▁bund	-1964
▁vägen	-1965
▁gått	-1966
▁Eller	-1967
▁Fa	-1968
▁ägg	-1969
▁kven	-1970
▁tänka	-1971
▁nå	-1972
▁edel	-1973
▁bered	-1974
▁dator	-1975
▁litik	-1976
▁krift	-1977
▁pte	-1978
▁stol	-1979
▁veck	-1980
▁uppnå	-1981
▁srael	-1982
▁välj	-1983
▁lytta	-1984
▁Sam	-1985
▁let	-1986
▁räver	-1987
urs	-1988
▁kamp	-1989
▁redo	-1990
▁total	-1991
▁inal	-1992
▁Ny	-1993
▁rec	-1994
▁amma	-1995
▁mini	-1996
ht	-1997
▁bin	-1998
▁äta	-1999
▁mobil	-2000
▁ott	-2001
▁rim	-2002
▁enkla	-2003
▁itter	-2004
▁log	-2005
▁last	-2006
▁fika	-2007
pr	-2008
▁au	-2009
▁uari	-2010
▁Varje	-2011
▁eende	-2012
▁ions	-2013
▁mna	-2014
▁Vem	-2015
ps	-2016
▁Bo	-2017
▁maj	-2018
▁sch	-2019
▁lands	-2020
▁halv	-2021
▁hållb	-2022
▁emang	-2023
bi	-2024
▁vare	-2025
▁bryt	-2026
▁kolan	-2027
led	-2028
▁erens	-2029
▁Uni	-2030
▁visn	-2031
▁heter	-2032
▁roduc	-2033
▁ert	-2034
▁tälla	-2035
▁Genom	-2036
▁rsi	-2037
▁luft	-2038
▁anled	-2039
▁Nä	-2040
▁kal	-2041
▁elekt	-2042
▁mst	-2043
▁uella	-2044
▁vecko	-2045
▁kare	-2046
▁varu	-2047
▁rsite	-2048
▁krävs	-2049
tel	-2050
▁bilda	-2051
▁jobba	-2052
▁speci	-2053
▁Le	-2054
▁ym	-2055
▁ham	-2056
av	-2057
▁rå	-2058
▁dec	-2059
▁åren	-2060
▁bef	-2061
▁bedöm	-2062
▁anstä	-2063
▁rakti	-2064
▁äkers	-2065
▁extra	-2066
▁dde	-2067
▁ras	-2068
▁Vill	-2069
▁urspr	-2070
▁läke	-2071
dra	-2072
▁färd	-2073
▁skär	-2074
▁delen	-2075
▁ih	-2076
▁sagt	-2077
▁tenti	-2078
▁post	-2079
▁nöj	-2080
▁arm	-2081
▁sten	-2082
▁fasts	-2083
▁redit	-2084
▁ålder	-2085
▁Vid	-2086
▁ända	-2087
▁ool	-2088
▁mamma	-2089
▁följa	-2090
▁vo	-2091
▁dre	-2092
▁nikat	-2093
▁grip	-2094
▁limat	-2095
▁jö	-2096
▁rit	-2097
▁typer	-2098
▁tas	-2099
ant	-2100
▁exi	-2101
▁nci	-2102
▁cha	-2103
▁kost	-2104
▁lt	-2105
▁motor	-2106
▁urang	-2107
▁ändå	-2108
▁lutet	-2109
▁säkr	-2110
▁agera	-2111
▁perat	-2112
▁err	-2113
▁makt	-2114
▁fullt	-2115
hi	-2116
▁nät	-2117
▁mera	-2118
▁glad	-2119
ldi	-2120
▁tidig	-2121
▁cell	-2122
▁skol	-2123
▁ilm	-2124
▁rämst	-2125
▁ank	-2126
▁ncip	-2127
▁rtera	-2128
▁njut	-2129
▁saml	-2130
▁Kina	-2131
▁tatio	-2132
▁bäst	-2133
▁bidra	-2134
ou	-2135
▁äll	-2136
▁örsv	-2137
▁parti	-2138
▁bär	-2139
▁ital	-2140
▁ysisk	-2141
▁oog	-2142
▁erätt	-2143
▁utrus	-2144
▁ämp	-2145
▁Från	-2146
▁nupp	-2147
▁ele	-2148
▁nne	-2149
▁batt	-2150
▁rot	-2151
▁cyk	-2152
▁född	-2153
▁oogle	-2154
▁rihet	-2155
▁snart	-2156
▁ial	-2157
▁huset	-2158
▁ommar	-2159
▁exa	-2160
▁ihåg	-2161
▁ci	-2162
▁ask	-2163
▁nsa	-2164
▁match	-2165
▁mplig	-2166
▁Stor	-2167
▁amb	-2168
▁garan	-2169
▁sakna	-2170
▁sitiv	-2171
▁brä	-2172
▁orna	-2173
▁gamm	-2174
▁stil	-2175
▁artne	-2176
▁innov	-2177
▁kriva	-2178
▁inlä	-2179
▁grati	-2180
▁ssna	-2181
bar	-2182
▁stra	-2183
▁nande	-2184
▁ars	-2185
▁ler	-2186
▁Ju	-2187
▁pän	-2188
▁trö	-2189
▁vux	-2190
▁mstol	-2191
vl	-2192
▁ämpa	-2193
▁event	-2194
▁gud	-2195
▁nsp	-2196
▁låta	-2197
▁ppen	-2198
▁eltag	-2199
▁terr	-2200
▁ening	-2201
▁iktig	-2202
▁ancer	-2203
▁nspir	-2204
▁lön	-2205
▁itt	-2206
▁50	-2207
▁bart	-2208
▁mass	-2209
nda	-2210
▁rda	-2211
▁ringa	-2212
▁ai	-2213
▁dri	-2214
▁bord	-2215
▁europ	-2216
tion	-2217
▁eget	-2218
▁Tack	-2219
▁fälle	-2220
▁klag	-2221
gn	-2222
kar	-2223
rä	-2224
▁net	-2225
▁läge	-2226
▁stod	-2227
gär	-2228
▁känn	-2229
▁Inter	-2230
▁begär	-2231
▁forma	-2232
▁dd	-2233
▁mrå	-2234
▁ärdig	-2235
cep	-2236
▁glö	-2237
▁häm	-2238
▁kret	-2239
▁sann	-2240
▁ublik	-2241
▁gsta	-2242
▁numm	-2243
▁topp	-2244
▁dande	-2245
ärk	-2246
▁ehövs	-2247
▁grepp	-2248
▁mråde	-2249
▁lett	-2250
▁kämpa	-2251
▁ellt	-2252
▁lust	-2253
▁gelsk	-2254
▁rning	-2255
▁spekt	-2256
▁tanna	-2257
▁äkert	-2258
▁25	-2259
▁lock	-2260
ktio	-2261
▁Cha	-2262
▁tand	-2263
▁uell	-2264
▁Ge	-2265
▁spår	-2266
▁relig	-2267
▁resen	-2268
▁äns	-2269
▁disku	-2270
▁Sp	-2271
▁omb	-2272
▁avori	-2273
nit	-2274
▁älj	-2275
▁ndel	-2276
▁Ko	-2277
▁grön	-2278
▁arnen	-2279
▁resul	-2280
▁rädda	-2281
▁bakom	-2282
▁lassi	-2283
ts	-2284
▁amp	-2285
▁litet	-2286
▁kna	-2287
▁oav	-2288
▁sym	-2289
▁La	-2290
▁plac	-2291
▁nadsf	-2292
åll	-2293
▁ära	-2294
▁accep	-2295
▁pelet	-2296
▁dör	-2297
▁äs	-2298
▁euro	-2299
▁viss	-2300
▁age	-2301
▁sel	-2302
▁gott	-2303
▁gef	-2304
▁nsi	-2305
▁+	-2306
▁temp	-2307
▁stärk	-2308
▁gat	-2309
▁kul	-2310
▁gefär	-2311
▁rien	-2312
▁konse	-2313
▁nellt	-2314
▁rakt	-2315
bu	-2316
▁tagit	-2317
▁ativ	-2318
yk	-2319
▁rv	-2320
▁döm	-2321
▁skild	-2322
hop	-2323
▁iet	-2324
▁hörig	-2325
▁äsong	-2326
▁rand	-2327
▁nistr	-2328
▁spara	-2329
▁istä	-2330
▁boken	-2331
kan	-2332
▁trera	-2333
▁iva	-2334
▁lera	-2335
▁smärt	-2336
▁hundr	-2337
jk	-2338
▁Sa	-2339
▁xt	-2340
▁mät	-2341
▁änsl	-2342
▁ordon	-2343
▁psyk	-2344
▁etalj	-2345
be	-2346
▁bas	-2347
▁vap	-2348
▁ollar	-2349
▁tälle	-2350
▁rg	-2351
▁Ind	-2352
▁fic	-2353
▁stift	-2354
ös	-2355
▁md	-2356
▁tus	-2357
▁abso	-2358
▁llda	-2359
▁naly	-2360
▁Idag	-2361
▁våld	-2362
▁Över	-2363
▁kvens	-2364
▁ördel	-2365
▁ass	-2366
▁äldre	-2367
▁lid	-2368
▁erkä	-2369
▁samb	-2370
▁innas	-2371
▁utgör	-2372
▁No	-2373
▁goda	-2374
▁kapa	-2375
▁sidor	-2376
▁hot	-2377
▁låter	-2378
▁sanni	-2379
▁kurs	-2380
▁etter	-2381
▁100	-2382
▁märkt	-2383
▁Di	-2384
▁ete	-2385
▁änslo	-2386
▁ros	-2387
▁natt	-2388
▁kända	-2389
▁aktie	-2390
▁tanke	-2391
▁träng	-2392
▁ong	-2393
▁ske	-2394
▁efolk	-2395
▁utman	-2396
▁EG	-2397
▁ebo	-2398
▁trots	-2399
▁ilj	-2400
väm	-2401
▁ekväm	-2402
▁mmels	-2403
ons	-2404
▁ndar	-2405
▁namne	-2406
▁styrk	-2407
▁ood	-2408
▁John	-2409
▁ljud	-2410
▁ärlig	-2411
▁ihop	-2412
▁ovan	-2413
▁knapp	-2414
▁ater	-2415
▁atisk	-2416
▁polis	-2417
▁mörk	-2418
▁ssio	-2419
▁Vilka	-2420
▁rumme	-2421
▁Po	-2422
▁bad	-2423
▁frä	-2424
▁arki	-2425
▁issa	-2426
▁skäl	-2427
▁Nästa	-2428
▁tider	-2429
▁mag	-2430
▁sjö	-2431
▁ator	-2432
▁mare	-2433
▁märks	-2434
▁meni	-2435
▁nyttj	-2436
▁11	-2437
▁nom	-2438
▁takta	-2439
▁ich	-2440
▁mana	-2441
▁värt	-2442
▁lay	-2443
▁Frank	-2444
▁fulla	-2445
▁riska	-2446
▁Tänk	-2447
▁unio	-2448
▁krati	-2449
▁änsla	-2450
▁övrig	-2451
▁An	-2452
▁otter	-2453
▁Din	-2454
▁fjä	-2455
▁nent	-2456
▁varli	-2457
▁mmer	-2458
▁varor	-2459
▁rin	-2460
▁varig	-2461
▁ättet	-2462
▁Vissa	-2463
▁Su	-2464
▁ess	-2465
▁kyldi	-2466
▁skan	-2467
▁brist	-2468
▁nyhet	-2469
▁Vår	-2470
▁fria	-2471
▁ose	-2472
▁riär	-2473
▁reste	-2474
▁sitio	-2475
▁skrev	-2476
▁opul	-2477
▁rare	-2478
▁rådet	-2479
▁kyl	-2480
▁cirka	-2481
▁delta	-2482
▁admi	-2483
▁vinst	-2484
▁Sch	-2485
▁olen	-2486
▁ston	-2487
▁ua	-2488
▁ratur	-2489
▁tusen	-2490
olm	-2491
▁dor	-2492
▁nämn	-2493
▁uss	-2494
▁strä	-2495
▁ges	-2496
▁sma	-2497
▁icin	-2498
▁impo	-2499
▁uper	-2500
▁askin	-2501
▁our	-2502
▁instä	-2503
▁Th	-2504
▁rra	-2505
▁Hans	-2506
▁arty	-2507
▁indus	-2508
▁leder	-2509
▁mässi	-2510
▁nterv	-2511
▁>	-2512
▁team	-2513
▁blick	-2514
▁Ex	-2515
▁tank	-2516
▁ådant	-2517
▁tig	-2518
▁ester	-2519
▁bj	-2520
▁gär	-2521
▁lys	-2522
▁fas	-2523
▁mati	-2524
▁rätte	-2525
Vi	-2526
▁exakt	-2527
▁ägare	-2528
▁Bra	-2529
▁atio	-2530
▁enbar	-2531
▁frukt	-2532
▁opulä	-2533
▁teter	-2534
▁drick	-2535
▁nstru	-2536
▁sprid	-2537
▁Fac	-2538
▁nch	-2539
▁ämn	-2540
▁dern	-2541
▁dubb	-2542
▁fört	-2543
▁ades	-2544
▁tävl	-2545
▁start	-2546
▁undra	-2547
▁aff	-2548
▁rymm	-2549
▁lagen	-2550
▁All	-2551
▁grafi	-2552
▁träck	-2553
▁stopp	-2554
▁ress	-2555
▁analy	-2556
▁$	-2557
▁kry	-2558
▁ilmen	-2559
▁ttack	-2560
▁berö	-2561
▁ustr	-2562
▁ash	-2563
▁fli	-2564
▁tru	-2565
▁forsk	-2566
▁bib	-2567
▁entar	-2568
▁tjärn	-2569
▁höra	-2570
▁åk	-2571
▁Nord	-2572
▁boll	-2573
▁expo	-2574
▁sste	-2575
▁kräft	-2576
▁ight	-2577
▁18	-2578
▁ats	-2579
▁aglig	-2580
▁kh	-2581
▁andi	-2582
▁engag	-2583
▁dä	-2584
▁usi	-2585
▁bilar	-2586
▁minne	-2587
▁visas	-2588
▁ebook	-2589
▁känns	-2590
▁try	-2591
▁Mi	-2592
▁sor	-2593
mb	-2594
▁ep	-2595
▁ämne	-2596
▁hjä	-2597
▁kriti	-2598
▁merik	-2599
▁oavse	-2600
▁glas	-2601
▁ktivi	-2602
▁butik	-2603
▁elsen	-2604
▁vapen	-2605
▁hit	-2606
▁höll	-2607
▁krist	-2608
▁ea	-2609
▁ake	-2610
▁ata	-2611
▁kopp	-2612
▁rskap	-2613
▁undvi	-2614
ry	-2615
▁öjlig	-2616
▁latt	-2617
▁våna	-2618
get	-2619
▁tna	-2620
▁drog	-2621
▁nens	-2622
▁synd	-2623
▁vackr	-2624
per	-2625
▁tc	-2626
▁stro	-2627
▁agens	-2628
▁estår	-2629
▁klaga	-2630
▁nland	-2631
▁linj	-2632
▁ensam	-2633
▁gärna	-2634
▁locka	-2635
▁trafi	-2636
▁edia	-2637
▁mal	-2638
▁sla	-2639
▁Tysk	-2640
▁erti	-2641
▁hård	-2642
inne	-2643
▁unga	-2644
▁indu	-2645
▁nnen	-2646
▁reso	-2647
▁strid	-2648
▁fik	-2649
▁dist	-2650
▁emål	-2651
▁edelb	-2652
▁Ry	-2653
▁eck	-2654
▁eti	-2655
▁rädd	-2656
▁varm	-2657
▁vandl	-2658
rag	-2659
▁16	-2660
▁Res	-2661
▁sky	-2662
▁ttr	-2663
▁roni	-2664
▁sker	-2665
▁opti	-2666
▁motiv	-2667
▁Kon	-2668
▁leg	-2669
▁lunda	-2670
▁dress	-2671
▁konve	-2672
▁ui	-2673
göra	-2674
▁jan	-2675
▁kör	-2676
▁medve	-2677
▁närva	-2678
▁vgöra	-2679
▁q	-2680
▁its	-2681
▁gnos	-2682
▁gård	-2683
▁stör	-2684
▁arnet	-2685
▁ås	-2686
▁alans	-2687
▁ember	-2688
▁satte	-2689
▁gas	-2690
▁not	-2691
▁ndow	-2692
▁anges	-2693
▁smart	-2694
▁atum	-2695
▁nalys	-2696
▁ämnen	-2697
serv	-2698
▁Gör	-2699
▁com	-2700
▁bserv	-2701
▁riset	-2702
▁stäng	-2703
▁mn	-2704
▁bred	-2705
▁atego	-2706
▁täcka	-2707
▁dam	-2708
▁hört	-2709
▁nöjd	-2710
▁ndows	-2711
▁Sy	-2712
▁cit	-2713
▁iser	-2714
▁stik	-2715
▁etags	-2716
▁litär	-2717
▁offic	-2718
▁TV	-2719
▁riser	-2720
▁ojk	-2721
▁skä	-2722
▁lykt	-2723
▁tecke	-2724
▁fre	-2725
▁löj	-2726
▁vit	-2727
▁edan	-2728
▁fund	-2729
▁finna	-2730
▁ormat	-2731
▁köp	-2732
▁mnd	-2733
▁band	-2734
▁orden	-2735
▁stödj	-2736
▁yrkan	-2737
▁grä	-2738
▁term	-2739
▁nled	-2740
▁skog	-2741
▁tida	-2742
▁delni	-2743
▁eal	-2744
▁slig	-2745
▁sökte	-2746
▁sh	-2747
▁insk	-2748
▁tab	-2749
▁korre	-2750
▁sem	-2751
▁lleg	-2752
▁tatet	-2753
rem	-2754
▁vor	-2755
▁kung	-2756
▁oäng	-2757
▁fattn	-2758
▁nr	-2759
▁gare	-2760
▁följd	-2761
▁13	-2762
▁oppla	-2763
▁ottag	-2764
juk	-2765
▁ms	-2766
▁anser	-2767
▁fylla	-2768
▁resta	-2769
▁—	-2770
▁so	-2771
▁mjuk	-2772
▁erier	-2773
▁Mer	-2774
▁ökn	-2775
▁brev	-2776
▁höga	-2777
▁og	-2778
▁vandr	-2779
▁kre	-2780
▁jätte	-2781
▁relev	-2782
▁våg	-2783
▁Samt	-2784
▁sport	-2785
▁rk	-2786
▁ela	-2787
▁eld	-2788
▁rek	-2789
▁häng	-2790
▁drabb	-2791
▁Sto	-2792
▁lott	-2793
▁ness	-2794
▁jd	-2795
▁nuva	-2796
▁likso	-2797
▁skott	-2798
▁tillf	-2799
▁ax	-2800
▁meta	-2801
▁Finns	-2802
▁ativa	-2803
▁gress	-2804
▁kholm	-2805
▁parat	-2806
▁skilj	-2807
▁mb	-2808
▁alls	-2809
▁é	-2810
▁oid	-2811
▁auto	-2812
▁kärn	-2813
▁rier	-2814
▁gativ	-2815
▁lubb	-2816
▁gravi	-2817
▁känsl	-2818
▁läg	-2819
▁rar	-2820
▁appa	-2821
▁respe	-2822
▁rrens	-2823
▁Dan	-2824
▁idrag	-2825
▁reda	-2826
▁xtrem	-2827
▁öds	-2828
▁udget	-2829
▁yckli	-2830
▁nus	-2831
▁atur	-2832
▁flöd	-2833
▁närma	-2834
▁Wo	-2835
▁versi	-2836
▁ie	-2837
▁Storb	-2838
▁landa	-2839
▁ritan	-2840
▁oly	-2841
▁svå	-2842
▁äkt	-2843
▁aktär	-2844
▁havet	-2845
▁vig	-2846
▁ntio	-2847
▁svåra	-2848
▁her	-2849
▁rre	-2850
▁tyr	-2851
▁årig	-2852
▁pansk	-2853
▁ström	-2854
▁vänli	-2855
▁Al	-2856
▁mars	-2857
▁ame	-2858
▁kuld	-2859
▁amtal	-2860
▁täder	-2861
▁lln	-2862
▁rök	-2863
▁ktor	-2864
▁erren	-2865
▁tabil	-2866
▁ulär	-2867
▁ökar	-2868
▁kreat	-2869
▁traff	-2870
▁ach	-2871
▁teo	-2872
▁tes	-2873
▁14	-2874
▁Ska	-2875
▁ail	-2876
▁yta	-2877
▁förra	-2878
▁nnons	-2879
▁dg	-2880
▁skärm	-2881
▁ome	-2882
▁enar	-2883
▁eror	-2884
▁juni	-2885
▁ernas	-2886
▁nse	-2887
▁ckel	-2888
▁lita	-2889
▁lova	-2890
▁säng	-2891
▁ptemb	-2892
▁Mark	-2893
▁lugn	-2894
▁Ryss	-2895
▁hone	-2896
▁högt	-2897
▁värme	-2898
▁sku	-2899
▁åra	-2900
▁vart	-2901
▁ira	-2902
▁Vilk	-2903
▁aktum	-2904
▁exist	-2905
▁kolla	-2906
▁lätta	-2907
▁strin	-2908
▁taten	-2909
▁anj	-2910
▁dik	-2911
▁rke	-2912
▁ålet	-2913
▁bevis	-2914
▁ivil	-2915
▁ondon	-2916
▁rämja	-2917
ård	-2918
▁El	-2919
▁graf	-2920
▁svag	-2921
▁konku	-2922
▁dgård	-2923
▁unnit	-2924
▁Sk	-2925
▁ity	-2926
▁äng	-2927
▁arhet	-2928
▁åde	-2929
▁Stoc	-2930
▁rikta	-2931
▁talar	-2932
▁dit	-2933
▁rak	-2934
▁röv	-2935
▁sanno	-2936
▁als	-2937
▁ften	-2938
▁ektio	-2939
▁läggn	-2940
▁glä	-2941
▁ski	-2942
▁bind	-2943
▁lans	-2944
▁värv	-2945
▁allet	-2946
▁lilla	-2947
▁parla	-2948
▁end	-2949
▁revo	-2950
▁#	-2951
▁40	-2952
▁rus	-2953
▁ribu	-2954
▁té	-2955
▁sal	-2956
▁mlig	-2957
▁scen	-2958
▁yn	-2959
▁Följ	-2960
▁ingår	-2961
EN	-2962
▁aka	-2963
▁söka	-2964
▁läder	-2965
▁massa	-2966
▁kant	-2967
▁lagar	-2968
▁eo	-2969
▁ssi	-2970
▁rymme	-2971
▁trand	-2972
▁oft	-2973
▁iera	-2974
▁remi	-2975
▁arlig	-2976
▁kasta	-2977
▁sälja	-2978
▁ley	-2979
▁anna	-2980
▁iler	-2981
▁jut	-2982
▁ence	-2983
▁själ	-2984
▁aktig	-2985
▁iös	-2986
▁rygg	-2987
▁fakto	-2988
▁iz	-2989
▁domen	-2990
▁illig	-2991
▁mena	-2992
▁ormer	-2993
▁oga	-2994
▁pple	-2995
▁satta	-2996
▁ril	-2997
▁hålls	-2998
▁kta	-2999
▁atti	-3000
▁para	-3001
ani	-3002
▁aket	-3003
▁Sc	-3004
▁iff	-3005
▁leta	-3006
▁vars	-3007
▁urser	-3008
▁villi	-3009
▁mul	-3010
▁välko	-3011
▁ngel	-3012
▁rift	-3013
▁arder	-3014
▁II	-3015
▁isti	-3016
▁nses	-3017
▁aktu	-3018
▁tak	-3019
▁pänna	-3020
▁kod	-3021
▁linje	-3022
▁ago	-3023
▁hat	-3024
▁avid	-3025
▁pt	-3026
▁mber	-3027
▁annen	-3028
▁sinne	-3029
▁varet	-3030
▁lju	-3031
▁gger	-3032
▁antag	-3033
▁längd	-3034
▁stati	-3035
▁ling	-3036
▁lanet	-3037
▁press	-3038
emi	-3039
▁når	-3040
▁nnor	-3041
▁rang	-3042
▁smak	-3043
▁anslu	-3044
▁ansök	-3045
▁gä	-3046
▁År	-3047
▁oka	-3048
▁görs	-3049
▁känt	-3050
▁lack	-3051
▁lini	-3052
▁mask	-3053
▁ämpn	-3054
▁stone	-3055
▁ree	-3056
▁fred	-3057
▁rid	-3058
▁ntag	-3059
▁sänd	-3060
▁affär	-3061
▁Kom	-3062
▁hol	-3063
▁medic	-3064
▁sub	-3065
▁bjud	-3066
▁fisk	-3067
▁kall	-3068
▁koppl	-3069
▁ah	-3070
▁dry	-3071
▁nar	-3072
▁rab	-3073
▁revi	-3074
▁taget	-3075
▁sum	-3076
▁ågra	-3077
▁orta	-3078
fa	-3079
▁24	-3080
▁fäl	-3081
▁gal	-3082
▁affe	-3083
▁idig	-3084
▁värr	-3085
▁ilden	-3086
▁bis	-3087
▁ept	-3088
▁ick	-3089
▁kyr	-3090
▁ägna	-3091
▁frika	-3092
▁autom	-3093
▁imp	-3094
▁emisk	-3095
▁teten	-3096
▁arken	-3097
▁visat	-3098
▁äster	-3099
▁vgi	-3100
▁kris	-3101
▁visio	-3102
▁höj	-3103
▁vel	-3104
▁redd	-3105
▁Tru	-3106
▁vgift	-3107
▁omp	-3108
▁chans	-3109
▁avse	-3110
▁erso	-3111
▁repa	-3112
▁tö	-3113
▁full	-3114
▁rten	-3115
▁änni	-3116
▁eleve	-3117
▁km	-3118
▁jul	-3119
▁citet	-3120
▁katte	-3121
▁tempe	-3122
äg	-3123
▁nger	-3124
▁otek	-3125
▁ladda	-3126
▁Gre	-3127
▁orge	-3128
▁orite	-3129
▁sekto	-3130
co	-3131
▁enkel	-3132
▁ndera	-3133
kte	-3134
▁ect	-3135
▁gon	-3136
▁ken	-3137
▁mani	-3138
▁star	-3139
▁rukar	-3140
▁17	-3141
▁ral	-3142
▁unik	-3143
▁ökand	-3144
▁­	-3145
▁häv	-3146
▁eder	-3147
▁rots	-3148
▁sköt	-3149
▁bilen	-3150
▁kli	-3151
▁skri	-3152
▁enni	-3153
▁mång	-3154
▁väga	-3155
▁atori	-3156
▁sov	-3157
▁roma	-3158
▁Ameri	-3159
▁kombi	-3160
▁terar	-3161
▁vände	-3162
▁gol	-3163
▁gran	-3164
▁AB	-3165
▁derar	-3166
▁ommun	-3167
▁Bar	-3168
▁lås	-3169
▁park	-3170
▁sluts	-3171
▁roa	-3172
▁llor	-3173
▁Krist	-3174
▁anden	-3175
▁ekomm	-3176
▁kron	-3177
▁ombin	-3178
▁nnand	-3179
▁plo	-3180
▁unt	-3181
▁Pre	-3182
▁max	-3183
▁okto	-3184
▁öreg	-3185
▁elvis	-3186
▁yk	-3187
▁You	-3188
▁ona	-3189
▁tin	-3190
▁varo	-3191
▁tänkt	-3192
▁Tre	-3193
▁aria	-3194
▁lipp	-3195
▁initi	-3196
▁otell	-3197
▁FN	-3198
▁Str	-3199
▁assa	-3200
▁derna	-3201
▁agi	-3202
▁klo	-3203
▁fekt	-3204
▁kaff	-3205
▁kände	-3206
▁pul	-3207
▁lapp	-3208
▁ehåll	-3209
▁kilda	-3210
▁överf	-3211
▁nti	-3212
▁tips	-3213
▁vatt	-3214
▁äter	-3215
▁aul	-3216
▁olag	-3217
▁säg	-3218
▁redi	-3219
▁reds	-3220
vik	-3221
▁far	-3222
▁likat	-3223
▁Li	-3224
▁ew	-3225
▁vac	-3226
▁dent	-3227
▁rkes	-3228
▁rmed	-3229
▁timm	-3230
▁tten	-3231
▁ive	-3232
▁fäll	-3233
▁trol	-3234
▁etens	-3235
▁natte	-3236
▁flu	-3237
▁tåg	-3238
▁cept	-3239
▁mmen	-3240
▁öregå	-3241
▁duc	-3242
▁lse	-3243
▁glar	-3244
▁allar	-3245
▁iP	-3246
▁cka	-3247
▁lot	-3248
▁lus	-3249
▁förd	-3250
▁inre	-3251
▁Pa	-3252
▁sie	-3253
▁bunde	-3254
▁arg	-3255
▁urn	-3256
▁ndsk	-3257
▁erk	-3258
▁ratt	-3259
▁bje	-3260
▁hämta	-3261
▁=	-3262
dern	-3263
▁egi	-3264
▁ersä	-3265
▁heml	-3266
▁ikte	-3267
▁städ	-3268
▁källa	-3269
▁For	-3270
▁båt	-3271
▁ine	-3272
▁len	-3273
▁ndiga	-3274
▁eter	-3275
▁ssant	-3276
▁gd	-3277
▁ph	-3278
▁etab	-3279
▁tant	-3280
▁atser	-3281
▁atter	-3282
▁ontin	-3283
▁ern	-3284
▁öva	-3285
▁byte	-3286
▁ille	-3287
▁ulera	-3288
▁alen	-3289
▁sorg	-3290
▁erare	-3291
▁Spa	-3292
▁rch	-3293
▁Dr	-3294
▁Lu	-3295
▁svart	-3296
▁tycke	-3297
▁gil	-3298
▁gent	-3299
▁rätts	-3300
▁Två	-3301
▁dje	-3302
▁pisk	-3303
▁tast	-3304
▁delse	-3305
▁möjli	-3306
▁yt	-3307
▁Nya	-3308
▁alb	-3309
▁kie	-3310
▁åll	-3311
▁ttare	-3312
▁Bl	-3313
▁Mic	-3314
▁edl	-3315
▁ömn	-3316
▁grav	-3317
▁aster	-3318
▁ian	-3319
▁ssa	-3320
▁fina	-3321
▁ound	-3322
▁Do	-3323
▁gö	-3324
▁ato	-3325
▁Ste	-3326
▁lsk	-3327
ttr	-3328
▁bes	-3329
▁rea	-3330
▁åka	-3331
▁amin	-3332
▁vida	-3333
▁ndvik	-3334
▁rb	-3335
▁ben	-3336
▁intr	-3337
▁vari	-3338
▁Go	-3339
▁iss	-3340
▁olk	-3341
▁smä	-3342
▁rnan	-3343
▁rän	-3344
▁rlig	-3345
▁tats	-3346
▁nove	-3347
▁växa	-3348
▁coo	-3349
▁exp	-3350
▁nnan	-3351
▁rdet	-3352
▁tekt	-3353
▁tals	-3354
▁rl	-3355
ay	-3356
▁eko	-3357
▁hud	-3358
▁ifi	-3359
▁tts	-3360
▁alko	-3361
▁dans	-3362
▁kemi	-3363
▁nare	-3364
▁nsti	-3365
▁rter	-3366
▁Eng	-3367
▁guld	-3368
▁vlig	-3369
▁nnar	-3370
▁enast	-3371
▁erspe	-3372
▁ästar	-3373
▁tam	-3374
▁urk	-3375
▁ee	-3376
▁sökt	-3377
▁ement	-3378
▁kning	-3379
▁kär	-3380
▁ägs	-3381
▁anad	-3382
▁mik	-3383
▁ntra	-3384
▁eam	-3385
▁urg	-3386
▁kompo	-3387
▁skola	-3388
▁Sen	-3389
▁ppa	-3390
▁bättr	-3391
▁träde	-3392
▁uellt	-3393
▁gh	-3394
▁kyrk	-3395
▁dskap	-3396
▁Hel	-3397
▁nord	-3398
▁nste	-3399
▁tivt	-3400
▁obe	-3401
▁aris	-3402
▁illi	-3403
▁ågon	-3404
▁Bi	-3405
▁rtu	-3406
▁ridi	-3407
▁stämm	-3408
▁ug	-3409
▁out	-3410
▁uta	-3411
▁bri	-3412
▁ech	-3413
▁nsl	-3414
▁rsä	-3415
▁over	-3416
lar	-3417
▁21	-3418
▁IS	-3419
▁ivt	-3420
▁ökad	-3421
▁fra	-3422
▁ngt	-3423
▁ostad	-3424
▁ix	-3425
▁tem	-3426
▁arti	-3427
▁esta	-3428
▁apper	-3429
▁mord	-3430
▁oför	-3431
▁vning	-3432
▁emo	-3433
▁drar	-3434
▁amen	-3435
▁:)	-3436
▁äger	-3437
▁Si	-3438
▁dar	-3439
▁ean	-3440
▁kel	-3441
▁lod	-3442
▁gera	-3443
▁eet	-3444
▁rth	-3445
▁tekn	-3446
▁60	-3447
▁Sh	-3448
▁lägs	-3449
▁nsten	-3450
▁ordet	-3451
▁lk	-3452
▁hände	-3453
▁oni	-3454
▁rsätt	-3455
all	-3456
▁Bu	-3457
▁tis	-3458
▁oende	-3459
▁nka	-3460
▁ook	-3461
▁tål	-3462
▁läst	-3463
▁tslig	-3464
...	-3465
▁arc	-3466
▁ebr	-3467
▁ekt	-3468
▁Komm	-3469
▁logg	-3470
▁edj	-3471
▁nsy	-3472
▁järn	-3473
▁öns	-3474
▁sare	-3475
▁ätter	-3476
▁pli	-3477
▁even	-3478
▁rest	-3479
▁snar	-3480
▁ssor	-3481
▁usti	-3482
▁He	-3483
▁illa	-3484
▁rese	-3485
▁ällan	-3486
▁ngs	-3487
▁rans	-3488
▁ilk	-3489
▁gäst	-3490
▁flick	-3491
▁täckt	-3492
▁undar	-3493
ca	-3494
▁oso	-3495
▁lf	-3496
▁Her	-3497
▁use	-3498
▁väst	-3499
▁givar	-3500
gå	-3501
▁imi	-3502
▁Hu	-3503
▁prä	-3504
▁rri	-3505
▁set	-3506
▁ött	-3507
▁fält	-3508
▁nf	-3509
▁Mus	-3510
▁chen	-3511
▁siell	-3512
▁gro	-3513
▁alisk	-3514
▁ckan	-3515
▁illar	-3516
▁årt	-3517
▁ffer	-3518
▁brans	-3519
▁rott	-3520
▁unika	-3521
▁Stu	-3522
▁old	-3523
▁ons	-3524
▁ual	-3525
▁varn	-3526
▁gistr	-3527
TE	-3528
▁blå	-3529
▁apan	-3530
▁tent	-3531
▁stads	-3532
▁Ac	-3533
▁Tid	-3534
▁amm	-3535
▁nat	-3536
▁ther	-3537
▁tliga	-3538
▁cc	-3539
▁kn	-3540
▁fo	-3541
▁kat	-3542
▁ttn	-3543
▁änt	-3544
▁kine	-3545
▁befin	-3546
▁erlig	-3547
▁ntern	-3548
▁tater	-3549
▁ary	-3550
▁llo	-3551
▁Först	-3552
▁ental	-3553
▁ständ	-3554
▁tets	-3555
▁bjekt	-3556
▁Gra	-3557
▁oxi	-3558
▁dörr	-3559
▁itat	-3560
▁llig	-3561
▁edlem	-3562
▁bit	-3563
▁Ins	-3564
▁nsn	-3565
▁aner	-3566
▁ergi	-3567
▁ppet	-3568
▁sson	-3569
EB	-3570
ki	-3571
▁IN	-3572
▁tei	-3573
▁vag	-3574
▁ymp	-3575
▁back	-3576
▁ansen	-3577
▁ocker	-3578
▁ER	-3579
▁arv	-3580
▁atal	-3581
▁ismen	-3582
▁eum	-3583
▁oin	-3584
▁tanda	-3585
▁ct	-3586
▁rder	-3587
▁tema	-3588
▁mde	-3589
▁koll	-3590
▁ngst	-3591
▁erter	-3592
bo	-3593
▁1,	-3594
▁19	-3595
AS	-3596
▁utl	-3597
▁dele	-3598
▁iske	-3599
▁nvis	-3600
▁gramm	-3601
▁öm	-3602
▁tik	-3603
▁sion	-3604
▁ös	-3605
▁him	-3606
▁pport	-3607
▁lon	-3608
▁äck	-3609
▁mell	-3610
▁nack	-3611
▁nsk	-3612
▁tun	-3613
▁älls	-3614
xi	-3615
▁Na	-3616
▁ite	-3617
▁ller	-3618
▁nstr	-3619
▁enten	-3620
▁Bro	-3621
▁flyt	-3622
▁vert	-3623
ith	-3624
▁ladd	-3625
▁Gro	-3626
▁dep	-3627
▁cirk	-3628
▁ycket	-3629
▁ega	-3630
▁odu	-3631
▁anlä	-3632
▁platt	-3633
▁To	-3634
▁IT	-3635
▁nc	-3636
▁lti	-3637
▁lekt	-3638
▁rika	-3639
▁vita	-3640
▁sliga	-3641
▁zo	-3642
▁sul	-3643
▁värm	-3644
▁Fråga	-3645
▁fånga	-3646
▁oy	-3647
▁obb	-3648
▁kast	-3649
▁tend	-3650
▁turn	-3651
▁långs	-3652
▁arla	-3653
▁vänt	-3654
▁nader	-3655
▁riget	-3656
▁hamn	-3657
▁tänd	-3658
▁hjärn	-3659
▁ilket	-3660
▁Tw	-3661
▁vik	-3662
▁omin	-3663
▁örer	-3664
▁allad	-3665
▁ln	-3666
▁åla	-3667
▁enne	-3668
▁lags	-3669
im	-3670
▁non	-3671
▁Sw	-3672
▁ero	-3673
▁isa	-3674
▁vla	-3675
▁akad	-3676
▁serv	-3677
▁pal	-3678
▁orit	-3679
▁atten	-3680
▁Tu	-3681
▁aga	-3682
▁ama	-3683
▁gui	-3684
▁ansk	-3685
▁beta	-3686
▁äkte	-3687
▁ilo	-3688
▁olog	-3689
▁arter	-3690
▁Mu	-3691
▁ace	-3692
▁dis	-3693
▁ange	-3694
▁Val	-3695
▁lls	-3696
▁line	-3697
▁sant	-3698
▁Ar	-3699
▁nic	-3700
▁hårt	-3701
▁sist	-3702
▁larna	-3703
▁22	-3704
▁orn	-3705
▁bära	-3706
▁lant	-3707
▁tti	-3708
▁fier	-3709
▁peri	-3710
▁ium	-3711
▁tret	-3712
▁So	-3713
▁wi	-3714
▁atör	-3715
▁edra	-3716
▁ligt	-3717
▁klare	-3718
▁nes	-3719
▁tle	-3720
▁inst	-3721
▁alien	-3722
▁avset	-3723
▁ndb	-3724
▁tråd	-3725
▁sökan	-3726
zi	-3727
▁ile	-3728
▁esti	-3729
▁aw	-3730
▁mda	-3731
▁nha	-3732
▁Barn	-3733
▁oris	-3734
▁troli	-3735
urr	-3736
▁brö	-3737
▁tfö	-3738
▁rund	-3739
▁mmand	-3740
lan	-3741
▁rst	-3742
▁acka	-3743
▁ttne	-3744
▁erv	-3745
▁fett	-3746
▁hoppa	-3747
▁fta	-3748
▁oro	-3749
▁ova	-3750
▁uto	-3751
▁yra	-3752
▁pti	-3753
▁osta	-3754
▁ordna	-3755
▁ption	-3756
▁SE	-3757
▁Un	-3758
▁WEB	-3759
▁lym	-3760
▁own	-3761
▁enta	-3762
▁And	-3763
▁rop	-3764
▁krit	-3765
▁tiska	-3766
▁mas	-3767
▁one	-3768
▁ästa	-3769
▁siska	-3770
▁talie	-3771
▁IP	-3772
▁az	-3773
▁odl	-3774
▁atar	-3775
▁kali	-3776
▁jt	-3777
▁ric	-3778
▁ändsk	-3779
ole	-3780
▁soci	-3781
▁tande	-3782
▁hop	-3783
▁ärm	-3784
▁osof	-3785
▁kolle	-3786
▁aller	-3787
▁testa	-3788
▁äd	-3789
▁alm	-3790
▁dos	-3791
▁ead	-3792
▁lat	-3793
▁igur	-3794
▁rent	-3795
▁uden	-3796
▁Få	-3797
▁alk	-3798
▁erma	-3799
▁rdig	-3800
▁200	-3801
▁dels	-3802
▁infl	-3803
▁steri	-3804
▁varta	-3805
▁epp	-3806
▁nej	-3807
▁num	-3808
▁cker	-3809
▁hov	-3810
▁kild	-3811
▁ndag	-3812
▁vete	-3813
ES	-3814
▁arl	-3815
▁dio	-3816
▁pac	-3817
▁nsad	-3818
▁ikter	-3819
▁mäl	-3820
▁sho	-3821
▁ener	-3822
▁kläd	-3823
▁erver	-3824
▁ktera	-3825
▁visst	-3826
▁Pi	-3827
▁mning	-3828
▁ssion	-3829
▁iti	-3830
▁mil	-3831
▁nni	-3832
▁Hotel	-3833
▁terna	-3834
▁vd	-3835
▁500	-3836
▁åda	-3837
▁öte	-3838
▁cera	-3839
▁aker	-3840
▁älte	-3841
▁ael	-3842
▁can	-3843
▁inns	-3844
▁hämt	-3845
▁_	-3846
▁ale	-3847
▁hål	-3848
▁see	-3849
▁äri	-3850
▁Euro	-3851
▁nsch	-3852
▁varar	-3853
▁‘	-3854
▁Lo	-3855
▁plö	-3856
▁tol	-3857
▁ire	-3858
▁rys	-3859
▁inder	-3860
du	-3861
mo	-3862
za	-3863
▁gend	-3864
▁ldra	-3865
▁örli	-3866
AR	-3867
▁cs	-3868
▁arb	-3869
▁sar	-3870
▁tav	-3871
IS	-3872
▁cin	-3873
▁vore	-3874
▁Andr	-3875
▁nning	-3876
▁jud	-3877
▁ddag	-3878
▁ivet	-3879
▁medl	-3880
▁minn	-3881
▁ämpl	-3882
▁iddag	-3883
▁ående	-3884
▁oc	-3885
▁ito	-3886
▁iver	-3887
▁bb	-3888
▁ili	-3889
▁ure	-3890
▁imal	-3891
▁ition	-3892
▁27	-3893
▁Vet	-3894
▁iat	-3895
▁uti	-3896
▁utöv	-3897
▁vind	-3898
▁Gå	-3899
▁San	-3900
▁ide	-3901
▁rser	-3902
▁vitt	-3903
▁sland	-3904
▁yd	-3905
▁mos	-3906
▁rön	-3907
▁fysi	-3908
▁valde	-3909
▁sb	-3910
▁ensi	-3911
▁xter	-3912
▁åverk	-3913
▁(1	-3914
▁28	-3915
▁sf	-3916
▁abel	-3917
▁ftar	-3918
int	-3919
▁2.	-3920
▁23	-3921
▁bel	-3922
▁kön	-3923
▁önd	-3924
▁edda	-3925
▁ister	-3926
▁ls	-3927
▁inb	-3928
▁pås	-3929
▁ansa	-3930
▁nget	-3931
▁omar	-3932
▁rame	-3933
▁telse	-3934
AT	-3935
ER	-3936
▁®	-3937
▁aha	-3938
▁api	-3939
▁ies	-3940
▁nge	-3941
▁tte	-3942
▁gene	-3943
▁ktör	-3944
OS	-3945
▁chi	-3946
▁tär	-3947
▁reat	-3948
▁undan	-3949
▁mmo	-3950
▁nio	-3951
▁pec	-3952
▁fart	-3953
▁lede	-3954
▁ärer	-3955
▁enser	-3956
▁skick	-3957
ner	-3958
▁zon	-3959
▁eran	-3960
▁1.	-3961
▁xu	-3962
▁adi	-3963
▁doms	-3964
▁ient	-3965
▁orum	-3966
▁svär	-3967
AN	-3968
▁ds	-3969
▁pu	-3970
▁yss	-3971
▁indi	-3972
▁ktive	-3973
▁tillb	-3974
▁atch	-3975
▁ender	-3976
▁pr	-3977
▁Net	-3978
▁ami	-3979
▁dum	-3980
▁ime	-3981
▁lyg	-3982
▁jack	-3983
▁rett	-3984
▁älko	-3985
▁gerar	-3986
▁laner	-3987
orm	-3988
▁rick	-3989
▁skad	-3990
▁rh	-3991
▁Rom	-3992
▁cks	-3993
▁ideo	-3994
▁rdes	-3995
▁stan	-3996
▁ano	-3997
▁nden	-3998
▁vald	-3999
▁andel	-4000
▁gonen	-4001
▁äljer	-4002
tu	-4003
uni	-4004
▁ckor	-4005
▁mmit	-4006
▁rnen	-4007
▁andli	-4008
▁ani	-4009
▁ngo	-4010
▁uff	-4011
▁rtik	-4012
▁alist	-4013
▁fan	-4014
▁golv	-4015
▁rdag	-4016
▁nån	-4017
▁bets	-4018
▁mått	-4019
▁tist	-4020
▁stern	-4021
▁CO	-4022
▁Mal	-4023
▁nan	-4024
▁pop	-4025
▁länd	-4026
▁räkn	-4027
▁aj	-4028
▁gne	-4029
▁ygg	-4030
▁köpt	-4031
▁tron	-4032
▁70	-4033
▁ove	-4034
▁uth	-4035
▁gande	-4036
▁ore	-4037
▁sys	-4038
▁katt	-4039
▁länk	-4040
▁nomi	-4041
▁sult	-4042
▁mmuni	-4043
▁Ku	-4044
▁Ser	-4045
▁rka	-4046
▁örd	-4047
▁dato	-4048
▁ontor	-4049
▁öl	-4050
▁nim	-4051
▁itel	-4052
▁rmon	-4053
▁kapet	-4054
tto	-4055
▁My	-4056
▁las	-4057
▁mmun	-4058
▁ågot	-4059
ET	-4060
▁Pe	-4061
▁rj	-4062
▁maski	-4063
▁dog	-4064
▁lor	-4065
▁tto	-4066
▁uid	-4067
▁ktig	-4068
▁neka	-4069
▁rets	-4070
▁högst	-4071
▁rhåll	-4072
▁estä	-4073
▁iali	-4074
▁pänn	-4075
▁läsar	-4076
▁lvis	-4077
▁rena	-4078
▁rome	-4079
▁agand	-4080
lo	-4081
▁ml	-4082
▁wa	-4083
▁vån	-4084
▁smen	-4085
▁xuell	-4086
▁vs	-4087
▁ebb	-4088
▁llm	-4089
▁öda	-4090
▁önsk	-4091
▁släkt	-4092
▁häst	-4093
▁nsats	-4094
▁tligt	-4095
▁<	-4096
▁26	-4097
▁Ob	-4098
▁xi	-4099
▁stig	-4100
▁gåend	-4101
▁elle	-4102
▁llmän	-4103
▁gul	-4104
▁nts	-4105
▁repre	-4106
▁varan	-4107
▁mg	-4108
▁kad	-4109
▁nov	-4110
▁olu	-4111
▁rån	-4112
▁31	-4113
▁90	-4114
▁dge	-4115
▁erg	-4116
▁nis	-4117
▁Kö	-4118
▁amn	-4119
▁eut	-4120
▁Anvä	-4121
▁kott	-4122
▁sand	-4123
▁mr	-4124
▁Tra	-4125
▁ema	-4126
▁ght	-4127
▁rren	-4128
▁skull	-4129
▁lja	-4130
▁ffic	-4131
▁lade	-4132
▁insta	-4133
kn	-4134
▁80	-4135
▁lob	-4136
▁tic	-4137
▁ikal	-4138
▁rgani	-4139
▁ous	-4140
▁ted	-4141
▁ärs	-4142
▁anne	-4143
▁entr	-4144
▁onde	-4145
▁annar	-4146
▁flytt	-4147
▁36	-4148
▁Is	-4149
▁oo	-4150
▁lia	-4151
▁ugg	-4152
▁egel	-4153
▁kten	-4154
LL	-4155
▁arat	-4156
▁asta	-4157
▁enad	-4158
▁vist	-4159
▁istan	-4160
▁ungen	-4161
En	-4162
▁Mat	-4163
▁obl	-4164
▁stjä	-4165
▁örja	-4166
▁nform	-4167
▁nsikt	-4168
må	-4169
▁svi	-4170
▁tsk	-4171
▁alis	-4172
▁arie	-4173
▁nska	-4174
▁ialis	-4175
▁nabba	-4176
IN	-4177
▁eru	-4178
▁ture	-4179
▁vann	-4180
▁Ad	-4181
▁arma	-4182
▁live	-4183
▁utsä	-4184
▁appar	-4185
▁deln	-4186
▁otal	-4187
▁moder	-4188
▁Vol	-4189
▁ain	-4190
▁ere	-4191
▁lov	-4192
▁sör	-4193
▁opera	-4194
▁edd	-4195
▁lli	-4196
▁ndr	-4197
▁pol	-4198
▁ensk	-4199
▁pare	-4200
▁rama	-4201
▁real	-4202
▁eräkn	-4203
▁reser	-4204
▁35	-4205
▁dal	-4206
▁los	-4207
▁tår	-4208
▁ever	-4209
▁kter	-4210
▁ntar	-4211
usi	-4212
▁fte	-4213
▁get	-4214
▁anmä	-4215
▁nkurr	-4216
▁ument	-4217
▁igh	-4218
▁iko	-4219
▁kit	-4220
▁oti	-4221
▁ford	-4222
▁imma	-4223
▁ånge	-4224
▁åste	-4225
▁elo	-4226
▁ita	-4227
▁uer	-4228
▁tina	-4229
▁estin	-4230
▁skaps	-4231
ya	-4232
▁wn	-4233
▁drö	-4234
▁kop	-4235
▁nto	-4236
▁sia	-4237
▁arta	-4238
▁ogra	-4239
▁tilla	-4240
▁ase	-4241
▁alif	-4242
▁fint	-4243
▁lind	-4244
▁arens	-4245
▁känne	-4246
▁MS	-4247
▁lb	-4248
▁tm	-4249
▁rsk	-4250
▁sci	-4251
▁kå	-4252
▁xis	-4253
▁essi	-4254
▁spek	-4255
▁akten	-4256
▁ansva	-4257
Om	-4258
▁«	-4259
▁Får	-4260
▁cho	-4261
▁lib	-4262
▁shi	-4263
▁dati	-4264
▁grek	-4265
▁diska	-4266
▁udi	-4267
▁rval	-4268
▁sked	-4269
▁förbi	-4270
▁bot	-4271
▁ynd	-4272
▁öde	-4273
▁kors	-4274
▁yfte	-4275
▁ateri	-4276
▁mment	-4277
▁fer	-4278
▁kriv	-4279
▁lösa	-4280
▁Herre	-4281
▁lab	-4282
▁tiga	-4283
▁vant	-4284
▁ldern	-4285
isk	-4286
▁EC	-4287
▁grå	-4288
▁mek	-4289
▁rag	-4290
▁anni	-4291
▁nalen	-4292
▁union	-4293
▁AI	-4294
▁pen	-4295
▁trå	-4296
▁llen	-4297
▁ppar	-4298
▁rant	-4299
▁allti	-4300
▁ike	-4301
▁	-4302
e	-4303
a	-4304
r	-4305
t	-4306
n	-4307
i	-4308
s	-4309
l	-4310
d	-4311
o	-4312
m	-4313
g	-4314
k	-4315
v	-4316
ä	-4317
f	-4318
h	-4319
u	-4320
p	-4321
ö	-4322
å	-4323
.	-4324
c	-4325
b	-4326
j	-4327
,	-4328
y	-4329
D	-4330
S	-4331
0	-4332
M	-4333
A	-4334
-	-4335
V	-4336
1	-4337
E	-4338
H	-4339
F	-4340
I	-4341
T	-4342
2	-4343
B	-4344
x	-4345
?	-4346
J	-4347
P	-4348
N	-4349
O	-4350
:	-4351
K	-4352
"	-4353
C	-4354
)	-4355
G	-4356
L	-4357
R	-4358
(	-4359
”	-4360
!	-4361
U	-4362
w	-4363
5	-4364
3	-4365
9	-4366
4	-4367
6	-4368
8	-4369
7	-4370
–	-4371
W	-4372
/	-4373
z	-4374
Ä	-4375
;	-4376
é	-4377
]	-4378
[	-4379
Y	-4380
%	-4381
'	-4382
Ö	-4383
“	-4384
Å	-4385
&	-4386
X	-4387
’	-4388
Z	-4389
Q	-4390
*	-4391
q	-4392
»	-4393
+	-4394
•	-4395
>	-4396
$	-4397
—	-4398
#	-4399
­	-4400
=	-4401
_	-4402
‘	-4403
<	-4404
®	-4405
Ã	-4406
«	-4407
🙂	-4408
ü	-4409
|	-4410
→	-4411
@	-4412
á	-4413
́	-4414
^	-4415
§	-4416
€	-4417
¤	-4418
·	-4419
←	-4420
°	-4421
â	-4422
Г	-4423
ó	-4424
í	-4425
ø	-4426
£	-4427
¥	-4428
è	-4429
‐	-4430
	-4431
̈	-4432
~	-4433
›	-4434
{	-4435
}	-4436
♥	-4437
¶	-4438
❤	-4439
\	-4440
●	-4441
😉	-4442
`	-4443
ç	-4444
ñ	-4445
à	-4446
−	-4447
ô	-4448
′	-4449
️	-4450
😀	-4451
š	-4452
■	-4453
©	-4454
ā	-4455
æ	-4456
×	-4457
	-4458
ú	-4459
▌	-4460
É	-4461
⁄	-4462
ã	-4463
ë	-4464
ć	-4465
α	-4466
̊	-4467
Â	-4468
„	-4469
û	-4470
±	-4471
Ü	-4472
î	-4473
č	-4474
▸	-4475
✓	-4476
😊	-4477
ï	-4478
ð	-4479
ل	-4480
μ	-4481
►	-4482
≥	-4483
א	-4484
ş	-4485
Ø	-4486
ˮ	-4487
‹	-4488
	-4489
👍	-4490
😍	-4491
ž	-4492
	-4493
ğ	-4494
ł	-4495
β	-4496
و	-4497
ß	-4498
Š	-4499
ي	-4500
ı	-4501
😛	-4502
	-4503
Ó	-4504
ĺ	-4505
ń	-4506
ō	-4507
ا	-4508
م	-4509
ه	-4510
‒	-4511
☺	-4512
♡	-4513
🏼	-4514
¬	-4515
Á	-4516
Î	-4517
õ	-4518
ʹ	-4519
ι	-4520
ạ	-4521
↑	-4522
✔	-4523
🏻	-4524
🙁	-4525
	-4526
ê	-4527
ę	-4528
γ	-4529
θ	-4530
ν	-4531
س	-4532
ع	-4533
ن	-4534
¿	-4535
Ă	-4536
Č	-4537
ī	-4538
œ	-4539
ƒ	-4540
ə	-4541
ς	-4542
σ	-4543
‭	-4544
◄	-4545
★	-4546
民	-4547
	-4548
😂	-4549
😄	-4550
🙏	-4551
	-4552
Æ	-4553
Ç	-4554
Õ	-4555
ū	-4556
ε	-4557
ο	-4558
ρ	-4559
а	-4560
ṛ	-4561
‚	-4562
▶	-4563
◆	-4564
国	-4565
	-4566
	-4567
😃	-4568
😅	-4569
😘	-4570
🤣	-4571
	-4572
Í	-4573
ò	-4574
ù	-4575
ý	-4576
ő	-4577
Ş	-4578
ţ	-4579
Ž	-4580
ǧ	-4581
ʼ	-4582
ί	-4583
δ	-4584
λ	-4585
π	-4586
й	-4587
ص	-4588
ṇ	-4589
ṣ	-4590
†	-4591
‬	-4592
▪	-4593
○	-4594
◾	-4595
☝	-4596
⭐	-4597
中	-4598
國	-4599
	-4600
	-4601
	-4602
👏	-4603
💕	-4604
💙	-4605
💚	-4606
💜	-4607
¡	-4608
¢	-4609
ì	-4610
þ	-4611
ă	-4612
ą	-4613
đ	-4614
ē	-4615
ė	-4616
̃	-4617
Δ	-4618
ά	-4619
τ	-4620
φ	-4621
ω	-4622
К	-4623
е	-4624
и	-4625
р	-4626
ӓ	-4627
د	-4628
ر	-4629
ى	-4630
ḥ	-4631
ẹ	-4632
ἀ	-4633
≤	-4634
◊	-4635
♣	-4636
❑	-4637
❓	-4638
・	-4639
命	-4640
超	-4641
軍	-4642
革	-4643
︎	-4644
💤	-4645
😇	-4646
😢	-4647
😦	-4648
Þ	-4649
ÿ	-4650
Đ	-4651
Ś	-4652
ś	-4653
ż	-4654
ơ	-4655
ư	-4656
ǔ	-4657
ș	-4658
ɑ	-4659
ɛ	-4660
Α	-4661
Β	-4662
Σ	-4663
Ω	-4664
ή	-4665
κ	-4666
χ	-4667
ό	-4668
Д	-4669
О	-4670
д	-4671
ј	-4672
Ґ	-4673
ت	-4674
ج	-4675
ح	-4676
ก	-4677
ร	-4678
უ	-4679
ọ	-4680
‍	-4681
―	-4682
‡	-4683
↵	-4684
∙	-4685
√	-4686
≈	-4687
□	-4688
◦	-4689
☆	-4690
♪	-4691
⚘	-4692
✅	-4693
✎	-4694
✰	-4695
❥	-4696
コ	-4697
ン	-4698
万	-4699
主	-4700
人	-4701
会	-4702
团	-4703
岁	-4704
球	-4705
联	-4706
赛	-4707
足	-4708
눉	-4709
	-4710
	-4711
	-4712
	-4713
	-4714
	-4715
	-4716
	-4717
	-4718
💖	-4719
😋	-4720
😎	-4721
😕	-4722
😜	-4723
😝	-4724
😬	-4725
🙈	-4726
🙌	-4727
🤔	-4728
🤗	-4729
🤯	-4730
	-4731
	-4732
	-4733
À	-4734
Ë	-4735
Ð	-4736
Ñ	-4737
Ò	-4738
Ú	-4739
Ý	-4740
÷	-4741
Ā	-4742
ě	-4743
ħ	-4744
İ	-4745
ķ	-4746
Ł	-4747
ų	-4748
Ż	-4749
ǎ	-4750
ǒ	-4751
ɒ	-4752
ɡ	-4753
ɣ	-4754
ɸ	-4755
ˆ	-4756
ˈ	-4757
ˌ	-4758
ː	-4759
̂	-4760
̶	-4761
Γ	-4762
Ε	-4763
Θ	-4764
Μ	-4765
Π	-4766
Φ	-4767
η	-4768
ύ	-4769
А	-4770
Б	-4771
В	-4772
Е	-4773
И	-4774
Н	-4775
П	-4776
С	-4777
Т	-4778
Э	-4779
Я	-4780
в	-4781
г	-4782
л	-4783
м	-4784
н	-4785
о	-4786
с	-4787
т	-4788
ц	-4789
ы	-4790
ӧ	-4791
ד	-4792
צ	-4793
ة	-4794
ث	-4795
ك	-4796
ڤ	-4797
ނ	-4798
ތ	-4799
ަ	-4800
ާ	-4801
ข	-4802
ต	-4803
ธ	-4804
น	-4805
ย	-4806
ส	-4807
ะ	-4808
ั	-4809
ิ	-4810
ี	-4811
ุ	-4812
เ	-4813
ი	-4814
რ	-4815
ც	-4816
ხ	-4817
Ḥ	-4818
ḳ	-4819
ṅ	-4820
Ṣ	-4821
Ṭ	-4822
ṭ	-4823
ả	-4824
ầ	-4825
ễ	-4826
ệ	-4827
ỉ	-4828
ị	-4829
ờ	-4830
ủ	-4831
ἐ	-4832
‣	-4833
※	-4834
⁃	-4835
₤	-4836
↓	-4837
↩	-4838
⇑	-4839
⇒	-4840
⇨	-4841
∈	-4842
∑	-4843
∞	-4844
⋅	-4845
▲	-4846
▷	-4847
▼	-4848
▽	-4849
▾	-4850
☐	-4851
☒	-4852
☕	-4853
☟	-4854
☭	-4855
♦	-4856
♧	-4857
♫	-4858
✌	-4859
✗	-4860
➜	-4861
➥	-4862
⟵	-4863
⟶	-4864
⦁	-4865
オ	-4866
ニ	-4867
ビ	-4868
リ	-4869
世	-4870
五	-4871
光	-4872
公	-4873
共	-4874
军	-4875
华	-4876
协	-4877
協	-4878
台	-4879
司	-4880
和	-4881
大	-4882
山	-4883
式	-4884
春	-4885
會	-4886
月	-4887
有	-4888
株	-4889
楚	-4890
江	-4891
海	-4892
湾	-4893
灣	-4894
狂	-4895
珞	-4896
界	-4897
社	-4898
秋	-4899
空	-4900
箇	-4901
級	-4902
级	-4903
结	-4904
聯	-4905
臺	-4906
航	-4907
言	-4908
賽	-4909
鈥	-4910
锦	-4911
镜	-4912
际	-4913
限	-4914
集	-4915
낍	-4916
책	-4917
	-4918
	-4919
	-4920
	-4921
	-4922
	-4923
	-4924
	-4925
	-4926
	-4927
	-4928
	-4929
	-4930
	-4931
	-4932
	-4933
	-4934
	-4935
	-4936
	-4937
	-4938
	-4939
	-4940
	-4941
￼	-4942
🇨	-4943
🌞	-4944
🌷	-4945
🌸	-4946
🍀	-4947
🍦	-4948
🍰	-4949
🍳	-4950
🍴	-4951
🎁	-4952
🎈	-4953
🎉	-4954
🎨	-4955
🎶	-4956
🎼	-4957
🏆	-4958
🏽	-4959
🐞	-4960
🐲	-4961
🐴	-4962
🐾	-4963
👁	-4964
👇	-4965
👌	-4966
💔	-4967
💥	-4968
💪	-4969
💰	-4970
📌	-4971
📚	-4972
📷	-4973
🔸	-4974
🖤	-4975
🗞	-4976
😁	-4977
😆	-4978
😔	-4979
😖	-4980
😞	-4981
😠	-4982
😫	-4983
😭	-4984
😳	-4985
😶	-4986
🙆	-4987
🙉	-4988
🤙	-4989
🤛	-4990
🤩	-4991
🥂	-4992
🥇	-4993
🦋	-4994
🦌	-4995
🧡	-4996
