<unk>	0
<s>	0
</s>	0
▁.	-3.47583
▁s	-3.66174
▁a	-3.88138
▁en	-3.89643
▁,	-4.20839
▁och	-4.24876
▁att	-4.27235
▁er	-4.29084
▁i	-4.29905
▁för	-4.34958
▁är	-4.50952
▁r	-4.67185
▁av	-4.70137
▁som	-4.72154
▁t	-4.76018
▁k	-4.82303
▁n	-4.84526
▁till	-4.85862
▁f	-4.946
▁de	-4.9654
▁på	-4.98629
▁med	-5.07021
▁det	-5.07127
▁e	-5.10145
i	-5.17678
▁b	-5.19843
s	-5.2436
▁om	-5.32905
▁et	-5.33162
▁p	-5.34335
▁inte	-5.35619
a	-5.36625
▁har	-5.41979
▁den	-5.44739
▁-	-5.46734
e	-5.52418
▁du	-5.56472
▁S	-5.61585
▁ning	-5.61797
▁ett	-5.63247
▁ut	-5.65056
▁kan	-5.68383
t	-5.70746
o	-5.70935
▁d	-5.73675
▁ar	-5.77265
▁be	-5.77536
▁0	-5.77934
▁1	-5.81251
▁na	-5.82145
▁jag	-5.82355
▁ing	-5.83826
▁in	-5.85108
▁?	-5.8735
r	-5.88413
▁vi	-5.88958
▁upp	-5.89957
▁g	-5.94021
▁Det	-5.94522
▁eller	-5.95998
n	-5.98455
▁m	-6.00618
▁var	-6.01068
▁"	-6.03783
l	-6.03902
▁era	-6.04475
▁o	-6.06075
▁:	-6.08613
▁2	-6.09443
▁A	-6.10998
▁från	-6.11178
▁pro	-6.12508
▁”	-6.15375
▁(	-6.18433
▁så	-6.20321
▁)	-6.2193
▁M	-6.25119
▁I	-6.28267
▁B	-6.29443
▁ommer	-6.30668
▁över	-6.3082
▁Jag	-6.34311
▁!	-6.35392
▁nde	-6.36769
▁ska	-6.39205
▁vara	-6.39868
▁F	-6.41327
▁vä	-6.44937
▁T	-6.45052
▁P	-6.45393
▁E	-6.46343
▁när	-6.50591
▁K	-6.52974
▁are	-6.54031
▁H	-6.55337
▁under	-6.58962
▁man	-6.59004
▁sig	-6.61131
▁9	-6.67221
▁sk	-6.69448
▁dig	-6.69921
▁lä	-6.69995
.	-6.70175
▁ande	-6.70528
▁verk	-6.71848
▁han	-6.72361
▁alla	-6.74255
▁efter	-6.74548
▁L	-6.75429
▁an	-6.75617
▁tid	-6.75836
▁re	-6.75967
nvä	-6.7605
▁R	-6.76382
▁D	-6.77451
▁ation	-6.77931
▁Vi	-6.79234
▁het	-6.79493
▁här	-6.79868
b	-6.8002
▁lig	-6.8065
▁hand	-6.81332
▁ion	-6.82108
▁där	-6.82895
▁men	-6.83799
▁gång	-6.83844
▁ha	-6.85158
▁också	-6.8558
▁Den	-6.86911
▁finns	-6.87102
▁genom	-6.87284
▁andra	-6.8778
▁G	-6.879
▁mer	-6.88296
▁se	-6.88824
▁håll	-6.91509
▁din	-6.91616
▁ering	-6.92074
▁än	-6.93569
▁3	-6.93998
▁För	-6.94177
▁min	-6.94559
f	-6.95057
▁–	-6.95302
▁mig	-6.95652
▁år	-6.96184
▁erna	-6.96311
▁5	-6.96888
▁el	-6.97408
▁C	-6.99062
▁sin	-6.99443
▁detta	-6.99743
▁bara	-7.00754
▁ng	-7.01694
▁myck	-7.01821
▁	-7.02398
▁kon	-7.02581
▁vill	-7.02633
▁V	-7.02983
▁rätt	-7.0337
▁ko	-7.0362
▁ig	-7.05212
▁h	-7.06074
▁N	-7.06263
▁rsta	-7.06669
▁De	-7.07717
▁göra	-7.08137
▁vad	-7.08354
▁c	-7.0864
▁4	-7.08752
▁gör	-7.09287
▁sätt	-7.10288
fö	-7.11759
▁dem	-7.12141
▁En	-7.1418
▁samma	-7.1436
▁mot	-7.14662
▁någon	-7.14996
▁Men	-7.15195
sk	-7.1546
▁8	-7.15805
▁hur	-7.17514
▁vid	-7.17726
▁fram	-7.18004
k	-7.18118
▁fö	-7.19604
▁O	-7.20648
▁kulle	-7.207
d	-7.2116
▁ta	-7.21679
▁6	-7.22359
▁oss	-7.2251
▁denna	-7.22987
▁få	-7.23151
▁ner	-7.23285
▁7	-7.2461
▁ighet	-7.24709
▁Om	-7.24935
▁dag	-7.25931
,	-7.27126
▁nu	-7.27363
▁nder	-7.27501
▁även	-7.2786
▁else	-7.28182
▁Du	-7.28345
▁männ	-7.31659
▁bra	-7.33166
▁land	-7.3464
▁Och	-7.36417
▁/	-7.36634
▁ge	-7.3743
▁måste	-7.37658
▁många	-7.38057
▁får	-7.39328
▁hade	-7.39664
▁J	-7.39907
▁etag	-7.40177
▁or	-7.40781
▁något	-7.41706
▁ingar	-7.42586
▁allt	-7.42838
▁al	-7.43435
▁hjälp	-7.44014
▁ment	-7.4415
▁jälv	-7.44498
en	-7.44901
▁dessa	-7.47152
vec	-7.47638
ehöv	-7.47903
▁ny	-7.49222
atio	-7.50186
▁hä	-7.50427
▁inom	-7.51779
▁dukt	-7.5225
▁två	-7.52267
▁möjl	-7.53003
▁orm	-7.53185
▁samt	-7.53406
g	-7.53884
▁skor	-7.54059
▁y	-7.54132
▁åt	-7.54239
▁inf	-7.54384
▁sina	-7.55232
p	-7.5601
▁vikt	-7.56279
▁Han	-7.56909
▁barn	-7.5698
▁Detta	-7.57004
▁utan	-7.57284
▁ellan	-7.57493
▁del	-7.5763
▁ju	-7.57636
▁När	-7.57961
▁hon	-7.58383
▁vilk	-7.58618
▁po	-7.59096
▁des	-7.59959
▁mark	-7.60123
▁grund	-7.60535
▁di	-7.60549
▁Hur	-7.6099
▁rlden	-7.61191
▁ts	-7.61437
▁nya	-7.61465
▁då	-7.61666
▁bli	-7.61873
▁ni	-7.62288
▁åter	-7.62382
▁ystem	-7.62391
▁lag	-7.62484
▁gt	-7.62576
▁Vad	-7.62647
▁ende	-7.63386
stä	-7.63516
▁ligen	-7.64522
▁lös	-7.64593
▁res	-7.64765
▁börja	-7.65774
▁ditt	-7.67027
▁våra	-7.68867
▁gram	-7.69253
▁mo	-7.69384
▁olika	-7.69438
▁igt	-7.69825
▁stä	-7.69948
▁vår	-7.70171
▁gift	-7.72465
▁ade	-7.72587
▁hela	-7.72805
▁går	-7.72861
▁säger	-7.73181
▁sedan	-7.74545
▁dina	-7.74714
lig	-7.74759
▁cent	-7.75087
▁några	-7.75165
▁W	-7.7533
▁deras	-7.7566
▁blir	-7.75759
▁spel	-7.75974
▁varje	-7.76046
▁fall	-7.77415
▁liv	-7.77474
er	-7.78125
▁inne	-7.78181
v	-7.78506
▁å	-7.79204
▁hem	-7.79307
▁tjä	-7.79426
▁nda	-7.80968
kriv	-7.81389
na	-7.81978
▁skapa	-7.82119
▁led	-7.82195
▁mål	-7.82289
▁tre	-7.82508
▁stor	-7.82718
▁ex	-7.83569
▁gå	-7.84214
▁skall	-7.84452
ä	-7.84571
▁mat	-7.8508
▁as	-7.85559
▁erade	-7.85649
▁tt	-7.85725
▁lltid	-7.86029
täll	-7.86365
▁bland	-7.8656
▁honom	-7.86932
▁all	-7.87284
▁före	-7.8854
▁ingen	-7.88634
▁kunna	-7.88878
▁väl	-7.88993
u	-7.89178
▁ns	-7.89689
▁ty	-7.8982
▁vet	-7.89902
▁li	-7.90359
▁stat	-7.90823
▁egen	-7.90885
▁sitt	-7.91149
▁lats	-7.91673
▁ger	-7.91897
▁erar	-7.91974
▁fort	-7.92596
▁nster	-7.93094
▁säker	-7.93286
▁ioner	-7.9336
▁lever	-7.93406
▁ord	-7.93667
▁komp	-7.94286
▁;	-7.94582
▁Var	-7.94885
▁Att	-7.95141
▁hitta	-7.9519
▁plats	-7.95216
▁skap	-7.95568
▁te	-7.95674
▁väg	-7.95969
▁l	-7.96461
▁rikt	-7.96652
▁komm	-7.96899
▁tro	-7.97082
▁hans	-7.97458
▁helt	-7.97577
▁nt	-7.97601
▁ser	-7.97638
▁henne	-7.97743
m	-7.97814
▁nligt	-7.9789
▁dess	-7.98098
▁sam	-7.98178
▁kund	-7.98557
▁följ	-7.98685
▁tekn	-7.99167
▁blem	-7.99595
▁tag	-7.99753
▁mitt	-7.99912
▁varit	-8.00161
▁v	-8.00692
▁Så	-8.01941
▁nd	-8.02112
▁form	-8.02595
▁ättre	-8.02918
erso	-8.03235
▁verka	-8.03467
▁itet	-8.03601
▁U	-8.03872
▁tar	-8.03929
▁ra	-8.04458
▁enhet	-8.04519
▁val	-8.04616
▁mest	-8.04698
▁sjuk	-8.05772
▁plan	-8.05885
▁bästa	-8.0598
▁annan	-8.06188
▁ör	-8.06229
▁nella	-8.0647
▁st	-8.06578
▁nen	-8.06829
▁dela	-8.0692
råd	-8.06936
▁komma	-8.07087
▁hö	-8.07138
▁utom	-8.07289
▁web	-8.07746
▁of	-8.07746
▁sp	-8.07826
▁bör	-8.08432
bju	-8.08613
▁anske	-8.0881
▁ans	-8.08811
▁tiden	-8.08813
▁örstå	-8.08852
▁ung	-8.09221
▁tiv	-8.0923
▁medel	-8.09617
▁...	-8.0971
▁organ	-8.1001
▁dom	-8.10068
▁mi	-8.10129
ar	-8.10363
▁rt	-8.10645
▁nnat	-8.11008
▁rbet	-8.11173
▁stånd	-8.11582
▁rätta	-8.11663
▁kort	-8.11688
▁lite	-8.11689
▁sluta	-8.13029
▁slut	-8.13346
▁ö	-8.1347
▁rbeta	-8.13565
▁troll	-8.1367
▁fråga	-8.14003
▁tet	-8.14263
▁bort	-8.14311
▁hos	-8.14349
▁nvänd	-8.14776
▁hus	-8.14861
▁kling	-8.14883
▁arna	-8.15061
▁stora	-8.15193
▁Ä	-8.15465
▁um	-8.15724
▁visa	-8.15924
▁kla	-8.16162
▁Inte	-8.16402
rand	-8.16473
▁u	-8.16577
▁kraft	-8.16681
ldri	-8.16752
▁nästa	-8.17483
an	-8.17589
▁and	-8.18111
▁Med	-8.18164
▁ändr	-8.18304
▁vanli	-8.18394
▁bo	-8.18586
▁kom	-8.1874
▁föra	-8.18749
▁amilj	-8.18789
▁stöd	-8.18995
▁hög	-8.19006
▁vatt	-8.19263
▁grupp	-8.19562
▁namn	-8.19594
▁Dess	-8.1963
▁spec	-8.19779
▁lång	-8.20212
▁it	-8.20378
▁flera	-8.20444
▁exem	-8.20759
▁saker	-8.20839
▁Gud	-8.21275
▁baka	-8.21381
▁Ett	-8.21476
▁tryck	-8.21931
▁tänk	-8.22106
▁blev	-8.22116
▁innan	-8.22285
c	-8.22376
▁hel	-8.22935
▁risk	-8.23869
▁På	-8.23897
tik	-8.23918
▁nad	-8.23966
▁nä	-8.23986
▁god	-8.24045
▁Har	-8.24265
▁tlig	-8.24359
▁[	-8.24629
▁str	-8.24677
▁huvud	-8.2468
▁ne	-8.24708
▁folk	-8.25799
▁erad	-8.25863
▁tyck	-8.25937
▁to	-8.26294
▁natur	-8.26392
▁älska	-8.26456
▁lämna	-8.26521
▁giv	-8.26624
▁tror	-8.2682
▁amhet	-8.26857
▁kap	-8.26889
▁]	-8.27019
▁gjord	-8.27037
▁vinn	-8.27237
▁ull	-8.27807
▁ur	-8.28265
▁by	-8.28321
▁'	-8.28384
▁fatta	-8.29046
▁bild	-8.29119
▁igen	-8.29167
▁hist	-8.29351
▁EU	-8.29611
▁tala	-8.297
▁stö	-8.29902
▁der	-8.29912
▁aren	-8.29993
▁kropp	-8.30232
▁“	-8.30453
▁nal	-8.30557
äll	-8.30805
▁ligg	-8.30865
▁delar	-8.30945
▁Alla	-8.30956
ti	-8.30976
▁miljö	-8.31096
▁ku	-8.31665
▁miss	-8.322
▁värde	-8.32349
▁igare	-8.32759
▁ndast	-8.3286
▁slag	-8.3299
▁milj	-8.33126
▁styr	-8.33156
▁pers	-8.33241
▁månad	-8.3334
▁vänta	-8.33418
▁jekt	-8.33572
▁engar	-8.3366
▁liga	-8.3375
▁fick	-8.33769
▁erson	-8.33843
▁us	-8.34073
▁öka	-8.34617
▁Är	-8.34905
▁punkt	-8.35294
▁fri	-8.35317
▁värd	-8.35347
▁nivå	-8.35399
▁dagar	-8.35604
▁stru	-8.35675
▁hålla	-8.35857
li	-8.36125
ansk	-8.36244
▁gg	-8.36245
▁enter	-8.36248
▁data	-8.36391
▁lika	-8.36455
▁Hon	-8.36668
ärs	-8.36689
▁ho	-8.3686
▁ofta	-8.37191
▁kunde	-8.37245
▁ned	-8.37471
▁do	-8.3775
▁Där	-8.37756
▁ard	-8.37875
▁lle	-8.381
▁ngre	-8.38569
ffek	-8.38979
▁tter	-8.39061
▁ella	-8.39113
▁rbete	-8.39191
▁både	-8.39325
▁ndra	-8.40147
▁aktiv	-8.40488
▁ga	-8.40551
▁ocial	-8.40559
▁gjort	-8.40614
▁ej	-8.40683
▁bok	-8.40698
▁svara	-8.40843
fter	-8.41066
▁at	-8.41163
▁leva	-8.41173
▁regi	-8.41253
▁The	-8.41329
▁stad	-8.41369
▁säga	-8.41494
▁tio	-8.41774
kono	-8.41799
▁Man	-8.41827
▁spela	-8.41869
▁da	-8.42017
▁sy	-8.42277
▁Lä	-8.42386
▁USA	-8.42438
▁ändra	-8.42794
▁Som	-8.42858
▁ntal	-8.43156
▁hjär	-8.43509
▁ldigt	-8.44052
▁redan	-8.44096
▁besök	-8.44554
▁idag	-8.44772
▁mina	-8.45269
▁jord	-8.4533
▁heten	-8.45539
▁gäng	-8.45845
ill	-8.45881
▁dock	-8.45928
elat	-8.45991
▁lev	-8.46157
▁teck	-8.46301
▁ster	-8.46399
nklu	-8.467
▁änner	-8.46718
bil	-8.47084
▁tyg	-8.47265
▁lö	-8.47321
▁trans	-8.47602
▁står	-8.47689
tud	-8.47738
▁uropa	-8.48028
▁fast	-8.48195
▁vissa	-8.48225
▁w	-8.48728
▁nlig	-8.48746
▁Här	-8.48932
▁träff	-8.49013
▁Nu	-8.49153
▁emot	-8.49406
▁ly	-8.49712
▁skt	-8.49733
▁ort	-8.49764
ung	-8.49788
tyd	-8.49938
▁stå	-8.50005
▁rodu	-8.50291
▁iska	-8.50397
▁Pro	-8.50912
▁rum	-8.50939
▁fel	-8.51437
▁cess	-8.518
▁son	-8.51895
▁flyg	-8.52367
▁ier	-8.5246
▁vis	-8.52542
▁nner	-8.52783
tag	-8.52808
▁isk	-8.52829
▁ri	-8.53129
▁nergi	-8.53169
▁rik	-8.5352
▁träd	-8.53534
▁mma	-8.53599
vä	-8.53624
▁förb	-8.54138
▁män	-8.54256
kä	-8.54316
▁mmen	-8.54363
▁stnad	-8.5452
▁tgärd	-8.54566
▁tera	-8.54613
j	-8.55083
▁lems	-8.55292
▁enda	-8.55529
▁täll	-8.55575
▁drag	-8.55608
▁inans	-8.55709
▁pre	-8.55759
▁Under	-8.55909
▁visar	-8.55937
▁vårt	-8.55978
▁bygg	-8.56033
▁kö	-8.56228
rbet	-8.56355
▁rågor	-8.56732
▁lik	-8.56758
ssio	-8.56958
▁bil	-8.57269
▁cy	-8.57385
▁livet	-8.57399
▁ry	-8.57422
▁typ	-8.57647
▁vers	-8.57669
▁fem	-8.57748
▁Se	-8.57931
▁fler	-8.58119
▁iga	-8.58127
ra	-8.58226
?	-8.58616
▁mö	-8.59552
▁ting	-8.59732
▁steg	-8.60161
▁tog	-8.60226
▁nds	-8.60313
▁lycka	-8.60334
▁nebär	-8.60345
▁nytt	-8.60587
▁nöd	-8.60896
▁ets	-8.60934
▁nvest	-8.60952
meri	-8.61054
▁gener	-8.61135
▁råd	-8.61183
sera	-8.61189
▁klara	-8.61307
▁mynd	-8.61318
▁fatt	-8.6138
▁ens	-8.6147
▁livs	-8.61503
▁nära	-8.61637
▁ktion	-8.61668
▁ultat	-8.61728
▁pri	-8.61853
▁ktiv	-8.61905
▁veten	-8.62062
▁eslut	-8.62114
akti	-8.62325
▁iv	-8.62436
▁tv	-8.62852
▁jobb	-8.62904
▁reg	-8.62934
▁sol	-8.63356
▁mu	-8.63392
▁rekt	-8.63459
▁driv	-8.6363
▁amman	-8.63684
▁orsak	-8.63795
ve	-8.63951
▁konst	-8.64064
▁tisk	-8.64101
ktio	-8.64293
▁törre	-8.64307
unkt	-8.64369
▁såg	-8.64559
▁nskap	-8.64578
nd	-8.646
▁lesta	-8.64603
▁rö	-8.64627
▁lära	-8.64785
le	-8.64786
▁lek	-8.64843
urop	-8.64987
▁lägg	-8.65091
▁nog	-8.6525
▁hets	-8.65253
▁Co	-8.65783
▁nera	-8.65974
▁sök	-8.65996
▁syn	-8.6608
▁Y	-8.66146
▁runt	-8.66154
▁sak	-8.66384
▁logi	-8.66564
▁stark	-8.66839
▁dagen	-8.67088
▁Be	-8.67118
▁jälva	-8.67136
▁vecka	-8.67235
▁part	-8.67249
veri	-8.67319
▁orts	-8.67353
▁lu	-8.674
sio	-8.67532
orsk	-8.67545
▁kilt	-8.67566
▁öppna	-8.67591
▁erial	-8.67798
▁llet	-8.67978
▁ara	-8.67984
▁gick	-8.67999
▁nads	-8.68107
▁film	-8.68134
▁sex	-8.68241
▁su	-8.68337
▁jus	-8.68388
▁naste	-8.68555
▁röst	-8.68565
▁vänd	-8.69017
▁konto	-8.69383
▁hör	-8.69684
▁ännu	-8.69706
▁tu	-8.70203
▁märk	-8.70235
▁ter	-8.70247
▁hant	-8.70248
▁&	-8.70371
)	-8.70379
▁kvar	-8.70438
▁passa	-8.70458
▁ifrån	-8.70582
▁resa	-8.70647
▁Ch	-8.70677
▁pres	-8.70925
▁anti	-8.71053
▁ad	-8.71059
:	-8.71093
▁dning	-8.71256
appo	-8.7184
▁söker	-8.71877
▁djur	-8.71878
▁sidan	-8.71903
▁Kan	-8.71906
▁regl	-8.71919
▁släpp	-8.72444
▁tion	-8.72469
▁esign	-8.72499
amar	-8.72502
in	-8.72549
▁In	-8.72558
▁ings	-8.72715
▁anta	-8.72776
▁eras	-8.72812
y	-8.72814
▁test	-8.72823
▁bolag	-8.72996
▁tta	-8.73145
▁nkelt	-8.73178
▁rad	-8.73237
▁port	-8.73304
▁hund	-8.73308
▁behov	-8.73473
grä	-8.73546
▁nativ	-8.74125
▁rld	-8.74149
▁ärlek	-8.74188
▁sida	-8.74346
▁10	-8.74417
▁elser	-8.74421
▁hy	-8.74449
▁nline	-8.74514
▁ionen	-8.74759
▁satt	-8.74811
▁örsök	-8.74935
▁reko	-8.74981
▁enare	-8.75018
led	-8.75101
▁bruk	-8.75507
redj	-8.75664
▁ilder	-8.75774
▁små	-8.75831
▁lokal	-8.76108
▁tur	-8.76255
▁året	-8.76307
▁musik	-8.76393
▁idigt	-8.76439
▁språk	-8.76479
▁mind	-8.7661
▁avs	-8.76667
▁misk	-8.76682
▁skydd	-8.76684
ven	-8.76717
▁livit	-8.77148
▁skö	-8.7747
▁färg	-8.77474
▁%	-8.77643
▁lätt	-8.77814
▁met	-8.77815
▁’	-8.77822
▁ton	-8.77932
▁fått	-8.77994
▁reci	-8.78288
▁nell	-8.78477
▁ala	-8.78501
▁bero	-8.78547
▁tress	-8.78553
▁vilka	-8.78687
▁ndigt	-8.7885
▁alter	-8.78977
▁död	-8.78999
▁metod	-8.79029
▁leda	-8.79084
▁kar	-8.79441
▁mp	-8.79552
▁jäm	-8.79673
▁per	-8.79945
▁kring	-8.80153
▁avtal	-8.80525
▁ytte	-8.80575
▁sälj	-8.80651
▁inget	-8.80739
▁växt	-8.80799
▁eiska	-8.80809
▁roll	-8.81023
sä	-8.81045
▁länge	-8.81061
▁isera	-8.81191
▁fyll	-8.81211
▁krä	-8.81243
▁icke	-8.81396
▁sent	-8.81557
▁gilla	-8.81634
▁eriod	-8.81676
▁klart	-8.81934
▁ättra	-8.81944
▁bi	-8.82179
vinn	-8.82698
▁on	-8.82722
▁es	-8.82837
ydli	-8.82936
▁lora	-8.82979
▁minut	-8.8307
▁nst	-8.83323
▁ber	-8.83378
▁fyra	-8.83446
▁olit	-8.83673
▁rest	-8.83873
▁tack	-8.83908
▁veta	-8.83932
▁Ö	-8.8407
▁Ty	-8.84119
▁rep	-8.84196
▁låt	-8.84285
▁gtvis	-8.84409
▁känna	-8.84922
▁naden	-8.84965
▁borg	-8.84983
▁timm	-8.84996
▁komst	-8.85451
▁krav	-8.85563
▁ins	-8.85897
▁relse	-8.86011
▁vård	-8.86163
▁grad	-8.86417
▁läsa	-8.86847
ktig	-8.87116
▁rande	-8.87131
▁rågan	-8.87194
▁fil	-8.87217
llmä	-8.87287
ch	-8.87444
▁titta	-8.87449
▁geme	-8.87565
▁x	-8.87569
▁ell	-8.87575
▁gräns	-8.87737
▁vak	-8.87784
te	-8.87806
▁vensk	-8.87944
▁välja	-8.8813
▁tning	-8.88169
▁ä	-8.88257
▁le	-8.88264
▁örs	-8.88348
▁nga	-8.88628
▁låg	-8.88912
▁lex	-8.88932
▁mod	-8.89236
▁händ	-8.89452
▁id	-8.89472
▁ögon	-8.89662
▁io	-8.89698
▁bak	-8.90015
▁oppas	-8.9011
▁nter	-8.90306
▁ed	-8.90346
▁sse	-8.90347
▁ost	-8.90448
▁tudie	-8.90614
▁elare	-8.90637
▁änsk	-8.90656
▁års	-8.91057
▁sett	-8.91058
▁taden	-8.91141
▁ndas	-8.91382
▁tal	-8.91399
▁Wi	-8.91692
va	-8.91701
▁kalla	-8.91708
▁sade	-8.91765
▁klass	-8.91787
▁vilja	-8.91856
▁dia	-8.91862
▁par	-8.92115
▁talet	-8.92176
▁snitt	-8.92194
h	-8.92224
dig	-8.92241
▁köpa	-8.92247
▁Vilk	-8.92363
▁sen	-8.92532
▁Upp	-8.92547
▁ådana	-8.92664
▁rike	-8.92776
▁stort	-8.92814
▁llkor	-8.9289
▁via	-8.92993
▁jä	-8.93301
▁läs	-8.93332
▁rist	-8.93533
▁stu	-8.93536
▁the	-8.93756
▁und	-8.93775
▁rnet	-8.93797
▁kydda	-8.94136
▁sive	-8.94162
▁prata	-8.94244
▁ultur	-8.94579
▁bry	-8.94615
▁ro	-8.94665
▁000	-8.94757
▁Mo	-8.94874
▁ffekt	-8.94874
▁skatt	-8.94946
▁dare	-8.94975
▁rör	-8.95012
▁gel	-8.95038
▁blod	-8.95265
▁båda	-8.95293
▁dy	-8.95569
▁egna	-8.95604
▁ategi	-8.95643
▁ste	-8.95657
▁art	-8.95671
▁ck	-8.95698
▁pati	-8.95772
▁tell	-8.95783
▁Ut	-8.95827
▁krig	-8.95929
▁vand	-8.95944
▁etala	-8.95965
▁nabbt	-8.96026
▁ngen	-8.96265
▁liten	-8.96312
▁pris	-8.96377
▁häls	-8.96526
▁lla	-8.9685
▁Ja	-8.96857
▁pi	-8.96906
▁Mång	-8.96993
▁inner	-8.97483
▁co	-8.97593
▁koll	-8.97658
▁fokus	-8.97682
▁förs	-8.97726
▁vinna	-8.9778
▁ist	-8.97787
▁mä	-8.97848
▁»	-8.98047
▁Min	-8.98056
edan	-8.98074
▁univ	-8.98278
▁exp	-8.98618
▁alt	-8.98704
ni	-8.98771
▁trä	-8.98801
▁dater	-8.98985
▁enlig	-8.99076
▁skada	-8.9918
▁Då	-8.99247
▁nna	-8.99341
▁kväll	-8.99468
▁off	-8.99522
tal	-8.99551
▁lltså	-8.99676
▁bygga	-8.99795
▁ria	-8.99886
▁rn	-8.99963
▁ue	-9.00128
▁ond	-9.00133
▁först	-9.00171
▁tverk	-9.00182
▁svårt	-9.00204
▁räkna	-9.00286
▁rivat	-9.00617
▁sikt	-9.00775
▁rde	-9.00829
▁ljus	-9.0089
▁örord	-9.01031
▁bio	-9.01085
▁Ca	-9.01137
tisk	-9.01341
▁itua	-9.01359
ic	-9.01429
▁erat	-9.0147
▁est	-9.01569
▁mängd	-9.01714
▁lista	-9.01741
far	-9.01749
▁iella	-9.01925
▁möte	-9.0195
▁Fi	-9.0197
▁tjäna	-9.02042
▁app	-9.02162
▁rna	-9.02471
▁örjan	-9.02552
▁beta	-9.02612
▁ork	-9.02657
▁helst	-9.02674
▁asino	-9.02728
nabb	-9.02749
▁lar	-9.02979
▁kt	-9.03339
▁dell	-9.0335
▁fiera	-9.03403
▁smä	-9.03521
▁ay	-9.03592
▁20	-9.03727
▁titut	-9.03951
▁bete	-9.03993
▁andet	-9.04129
▁samh	-9.0415
▁tj	-9.0435
▁ant	-9.04513
lå	-9.04599
kill	-9.04782
vali	-9.05014
▁märke	-9.05057
▁ntakt	-9.05207
▁hell	-9.05253
▁inga	-9.05379
▁bar	-9.05423
▁rvice	-9.05443
▁ktur	-9.05505
▁Å	-9.05561
▁indu	-9.05594
▁Guds	-9.05711
▁väx	-9.05857
▁New	-9.06005
▁långt	-9.06092
▁norm	-9.06489
▁täck	-9.06673
▁sista	-9.0672
▁nhet	-9.06821
▁Allt	-9.06924
▁*	-9.06972
▁ack	-9.0703
▁saml	-9.07048
▁ätt	-9.07265
▁ref	-9.07456
ntre	-9.07508
▁bank	-9.07543
▁öp	-9.07655
▁pass	-9.07753
▁valt	-9.07768
▁svar	-9.07768
▁eln	-9.08
▁licka	-9.0843
▁känd	-9.08555
▁inför	-9.087
▁up	-9.0872
▁ital	-9.0879
▁borde	-9.08885
▁demo	-9.08968
▁viss	-9.09138
▁tom	-9.09188
▁log	-9.0928
▁gamla	-9.09287
▁ggnad	-9.09316
▁rd	-9.09327
▁minst	-9.09377
▁sådan	-9.09402
▁döda	-9.09535
▁gaste	-9.09546
▁anför	-9.09587
▁förut	-9.09626
elef	-9.09734
▁äker	-9.09738
▁ja	-9.09755
▁äldr	-9.09862
▁ses	-9.09953
▁trän	-9.09955
▁önska	-9.10021
▁dra	-9.10028
w	-9.1008
▁ident	-9.10187
▁dö	-9.10239
▁prov	-9.10247
▁ator	-9.10301
▁perf	-9.10342
▁ve	-9.10363
▁ndare	-9.10443
▁mån	-9.10456
▁la	-9.10464
▁vän	-9.10475
▁hopp	-9.10534
▁möt	-9.10656
▁fru	-9.1081
lä	-9.10886
▁sju	-9.10935
▁bro	-9.11032
▁rolig	-9.11043
▁lo	-9.11506
▁haft	-9.11577
▁nien	-9.11908
▁hälsa	-9.11929
▁dålig	-9.12001
▁stall	-9.12013
▁text	-9.12076
▁stand	-9.12131
▁ndig	-9.12161
▁ror	-9.12195
▁grav	-9.123
▁mus	-9.12418
egr	-9.12472
▁va	-9.12544
▁ritt	-9.12564
▁brott	-9.12689
▁pelar	-9.12705
▁•	-9.12748
▁hind	-9.12898
▁video	-9.13013
▁30	-9.13117
▁trakt	-9.13226
▁blogg	-9.1326
▁fanns	-9.13339
ng	-9.13513
▁amma	-9.13614
▁likt	-9.13749
▁lit	-9.13759
▁öring	-9.13788
lob	-9.13935
▁bud	-9.13945
▁ublic	-9.1395
▁ca	-9.1406
▁såsom	-9.14269
▁ordn	-9.14337
▁värld	-9.14378
▁vem	-9.14407
amfö	-9.14509
▁is	-9.14816
or	-9.14916
▁idé	-9.14917
▁gav	-9.14953
▁Ingen	-9.1508
▁lägga	-9.15144
▁lam	-9.15188
▁mmel	-9.15199
▁Av	-9.15226
▁sats	-9.15276
▁ologi	-9.15442
▁högre	-9.1545
▁syfte	-9.15469
▁tvi	-9.15546
▁ien	-9.15609
▁djup	-9.15773
▁ommit	-9.15775
▁berg	-9.15789
▁hemma	-9.15793
▁nsvar	-9.15951
▁uts	-9.16209
äckl	-9.16257
▁ru	-9.16263
▁Jesus	-9.16287
▁vack	-9.16352
▁klar	-9.1655
▁ock	-9.16596
▁lic	-9.16626
▁serie	-9.16721
▁ffär	-9.16738
▁akta	-9.16746
▁antör	-9.17012
▁måga	-9.17099
▁stans	-9.17267
stig	-9.17267
▁em	-9.17294
istr	-9.17339
▁domar	-9.1739
▁iellt	-9.17401
▁meter	-9.1745
▁krit	-9.17453
▁Låt	-9.1749
▁rakt	-9.17496
▁dröm	-9.17503
de	-9.1761
▁röd	-9.17637
▁lopp	-9.17728
▁gital	-9.17758
▁tarta	-9.17816
▁ville	-9.17845
▁aste	-9.17942
▁regel	-9.18033
ft	-9.18051
▁tri	-9.18085
▁ul	-9.18309
▁ransk	-9.18326
▁ange	-9.1845
▁chef	-9.18462
▁foto	-9.1854
onsu	-9.18592
▁öcker	-9.18622
▁mmar	-9.18664
▁sera	-9.18674
▁itta	-9.18726
▁spe	-9.19009
▁gått	-9.192
▁bund	-9.19247
▁säkra	-9.19276
▁vägen	-9.19325
▁edel	-9.19419
▁ey	-9.19423
▁veck	-9.19636
▁lass	-9.19657
▁litik	-9.19714
▁stol	-9.19716
▁dator	-9.19723
▁krift	-9.19808
▁allas	-9.19923
▁glö	-9.19949
▁ati	-9.19965
▁uppnå	-9.19985
▁välj	-9.20063
▁sign	-9.20078
▁Q	-9.20121
▁ic	-9.20141
▁srael	-9.20168
▁ysi	-9.2018
▁Ni	-9.20212
▁grat	-9.20227
▁rs	-9.20233
ätt	-9.20285
▁rec	-9.20294
▁lytta	-9.20454
▁räver	-9.20539
ntas	-9.20554
▁kamp	-9.2059
▁tänka	-9.20671
▁total	-9.20753
ivid	-9.20775
ig	-9.20788
▁redo	-9.20912
▁last	-9.20947
▁äta	-9.21194
▁sätta	-9.21209
▁Vä	-9.21261
it	-9.21261
▁mobil	-9.21279
▁ent	-9.21313
▁itter	-9.21463
amla	-9.21507
▁inal	-9.21572
▁uari	-9.2176
▁enkla	-9.21764
▁eende	-9.21833
▁prof	-9.21858
▁mna	-9.21873
▁fika	-9.2196
▁j	-9.22127
▁ker	-9.22231
döm	-9.22257
▁Re	-9.22289
▁rim	-9.22299
▁hav	-9.22349
▁Vem	-9.22379
rus	-9.22381
▁Varj	-9.22411
▁äkt	-9.22506
▁emang	-9.22683
oku	-9.22727
▁kolan	-9.22986
▁visn	-9.23007
▁lut	-9.23008
▁erens	-9.23165
▁Uni	-9.23309
▁Sam	-9.23334
man	-9.23462
▁kval	-9.23555
▁luti	-9.2374
▁heter	-9.23793
▁ram	-9.23835
▁vån	-9.2384
▁luft	-9.23926
▁fakt	-9.23989
▁läk	-9.24117
▁cell	-9.24291
▁ions	-9.24303
▁kare	-9.2442
▁tälla	-9.24443
▁uella	-9.2457
site	-9.24664
▁akti	-9.24869
▁nå	-9.25095
▁lett	-9.252
▁krävs	-9.25209
▁dde	-9.25671
▁mini	-9.2576
▁ring	-9.25928
irek	-9.2593
▁lands	-9.25981
▁ute	-9.25985
▁köp	-9.26251
nlä	-9.26281
ommu	-9.26365
▁jobba	-9.26405
▁mt	-9.2646
för	-9.26485
▁extra	-9.26616
▁åren	-9.26922
▁maj	-9.2698
▁Vill	-9.27099
▁färd	-9.27233
▁berö	-9.27277
▁ool	-9.27341
▁sagt	-9.27399
▁post	-9.27472
▁delen	-9.27706
▁grip	-9.27795
▁ålder	-9.27937
▁lån	-9.2802
▁ön	-9.28076
▁redit	-9.28093
▁mamma	-9.28199
▁ända	-9.28307
▁ägg	-9.28442
▁ladd	-9.2848
▁jö	-9.28495
pir	-9.28496
▁sten	-9.28502
▁limat	-9.28607
▁un	-9.28713
▁th	-9.28786
▁typer	-9.288
▁ap	-9.28885
▁dec	-9.28904
▁intr	-9.28914
▁kost	-9.29113
▁offe	-9.29129
▁15	-9.2913
▁Vid	-9.29134
▁gäl	-9.29199
▁ou	-9.29218
▁gy	-9.29232
▁hu	-9.29234
▁urang	-9.29287
▁motor	-9.29293
▁säkr	-9.29322
▁lutet	-9.29401
▁ändå	-9.29401
▁ust	-9.29449
▁makt	-9.29587
▁natt	-9.29874
▁agera	-9.29888
▁perat	-9.29921
▁följa	-9.29992
▁fullt	-9.30288
▁glad	-9.3035
▁ka	-9.30416
▁skol	-9.30418
▁ill	-9.3056
▁Ha	-9.30564
▁tidig	-9.3066
▁my	-9.3067
▁morg	-9.30672
▁vo	-9.30847
▁rämst	-9.30884
▁ncip	-9.31006
atte	-9.31063
▁bäst	-9.31159
ift	-9.31179
▁nät	-9.31434
▁ch	-9.31522
▁sch	-9.31542
▁Kina	-9.31566
▁bidra	-9.31626
▁rtera	-9.31684
▁brä	-9.31824
▁isa	-9.31895
▁ämp	-9.32012
ori	-9.32232
▁tas	-9.32248
▁Från	-9.32446
▁nupp	-9.32503
itio	-9.32603
▁rda	-9.32705
▁kris	-9.32735
▁batt	-9.3282
rspr	-9.32881
▁gärn	-9.32907
▁parti	-9.3292
▁vare	-9.32944
▁oogle	-9.32965
▁rihet	-9.32974
▁född	-9.32979
▁huset	-9.33237
▁snart	-9.33238
▁orit	-9.33288
▁ommar	-9.33319
▁ihåg	-9.33488
▁gamm	-9.33943
▁match	-9.34188
▁ark	-9.34216
indr	-9.34348
▁Stor	-9.34398
▁sitiv	-9.34437
et	-9.34472
▁sakna	-9.3452
▁stil	-9.34761
▁terr	-9.3483
▁kriva	-9.34988
▁nsa	-9.35156
▁orna	-9.35191
icka	-9.35256
▁mera	-9.35322
▁ssna	-9.35406
▁nande	-9.35509
▁ång	-9.3561
▁ial	-9.35823
▁Ma	-9.36066
▁vux	-9.36145
nnov	-9.36167
▁gra	-9.36168
▁arti	-9.36247
▁mstol	-9.3625
▁ppen	-9.36613
▁gud	-9.36632
▁event	-9.36655
▁pänn	-9.36711
▁ras	-9.36749
▁kal	-9.36903
▁ämpa	-9.3695
▁ancer	-9.37027
▁låta	-9.37072
▁rer	-9.37085
▁ina	-9.37335
▁mass	-9.37341
▁mar	-9.3743
▁Elle	-9.37522
▁övr	-9.3757
▁bord	-9.37582
▁ism	-9.37726
▁lön	-9.37762
▁Ge	-9.37925
▁ab	-9.37967
▁eget	-9.38019
▁bart	-9.38065
▁ening	-9.38135
▁läge	-9.38176
▁euro	-9.3828
▁ringa	-9.38292
▁Tack	-9.38342
▁fot	-9.38366
är	-9.38473
▁fälle	-9.38666
▁stod	-9.38818
▁fi	-9.38937
▁genh	-9.39207
▁begär	-9.39225
▁mät	-9.39263
ccep	-9.39355
hä	-9.39395
▁hämt	-9.39429
▁lust	-9.39446
!	-9.39448
▁kret	-9.39455
▁ublik	-9.39547
▁ök	-9.39572
▁Ju	-9.39656
▁dande	-9.39679
▁räck	-9.39737
▁lock	-9.39753
▁grepp	-9.39765
▁ac	-9.39774
▁topp	-9.39777
▁gsta	-9.39794
▁mråde	-9.39807
▁ehövs	-9.39957
▁kämpa	-9.39965
▁tanna	-9.40147
al	-9.40176
▁anna	-9.40204
▁spekt	-9.40209
▁rning	-9.40434
▁ll	-9.4047
▁spår	-9.40472
▁äkert	-9.40559
▁ib	-9.40573
▁ellt	-9.40574
▁trö	-9.40685
▁sm	-9.40711
rtne	-9.40798
sat	-9.40836
▁kor	-9.40999
▁forma	-9.41034
▁kapa	-9.41086
em	-9.41148
▁Sk	-9.41176
▁age	-9.41183
▁amb	-9.41185
sök	-9.41276
▁dis	-9.41481
▁plac	-9.4151
umm	-9.41538
rt	-9.41622
▁grön	-9.41707
▁arnen	-9.41711
▁tent	-9.418
▁bakom	-9.41802
med	-9.4191
tio	-9.42108
▁sym	-9.42132
▁rädda	-9.42154
▁tills	-9.42207
håll	-9.42285
om	-9.42365
▁ast	-9.4244
▁pelet	-9.42471
▁gen	-9.42473
bar	-9.42495
▁Kom	-9.42785
▁gott	-9.4284
fini	-9.42995
▁litet	-9.43198
▁temp	-9.43252
▁bu	-9.43275
▁gefär	-9.43277
▁kick	-9.43363
▁ff	-9.43461
▁ustr	-9.43566
▁net	-9.43657
▁rien	-9.43665
▁nne	-9.43845
▁nellt	-9.44052
▁trol	-9.44114
▁itt	-9.44225
▁skild	-9.4425
▁Cha	-9.44313
▁lid	-9.44331
▁döm	-9.44355
▁äsong	-9.44555
▁bor	-9.44556
▁hörig	-9.44582
▁lera	-9.44641
▁psy	-9.44874
▁ål	-9.44925
isat	-9.44978
▁avse	-9.45021
▁spara	-9.45178
▁bas	-9.45226
▁+	-9.45242
▁boken	-9.45359
▁gre	-9.4542
▁ndel	-9.45444
▁arm	-9.45634
▁rand	-9.45855
▁ordon	-9.46008
▁änsl	-9.46044
▁etalj	-9.46095
▁ollar	-9.4631
▁fic	-9.46352
▁ret	-9.46475
▁våld	-9.46804
▁Över	-9.46807
▁llda	-9.46826
▁Idag	-9.46866
▁stra	-9.46875
▁ress	-9.46911
▁kam	-9.46947
▁kvens	-9.4697
▁ördel	-9.46972
▁for	-9.47094
▁tälle	-9.47193
▁Bo	-9.47356
▁utgör	-9.47418
▁dat	-9.47452
▁ild	-9.47526
▁fjä	-9.47601
▁akt	-9.47666
▁sidor	-9.47681
▁innas	-9.47709
▁kons	-9.47711
▁äldre	-9.47738
▁iet	-9.47766
▁ky	-9.47773
▁samb	-9.47958
▁red	-9.48007
▁iva	-9.48066
▁låter	-9.48129
▁kurs	-9.48193
▁100	-9.48312
▁sti	-9.48412
▁gara	-9.48516
▁ong	-9.4898
▁märkt	-9.49004
▁sel	-9.49048
▁md	-9.49171
▁goda	-9.49256
folk	-9.493
▁ce	-9.49312
▁träng	-9.49336
▁kända	-9.49557
▁tanke	-9.49599
▁ti	-9.49785
▁ekväm	-9.49965
▁ak	-9.49979
▁änd	-9.50024
▁mäss	-9.50125
▁12	-9.50216
▁ljud	-9.50402
▁ood	-9.50411
▁John	-9.50474
▁ihop	-9.50491
esul	-9.50573
▁knapp	-9.50586
▁50	-9.50608
▁yckl	-9.50681
▁ndar	-9.50736
▁ovan	-9.50802
ku	-9.50841
▁mörk	-9.50897
▁Ko	-9.50931
▁amp	-9.51153
▁polis	-9.5116
▁issa	-9.51196
▁etter	-9.51242
å	-9.51407
▁sjö	-9.51468
▁arki	-9.51473
▁skäl	-9.51541
▁bad	-9.51561
ac	-9.51621
radi	-9.51627
ikat	-9.51722
▁kyl	-9.51803
bso	-9.51856
▁mare	-9.51961
▁Ta	-9.52054
▁värt	-9.521
▁takta	-9.52102
▁ose	-9.52125
▁tider	-9.52244
▁Frank	-9.52497
▁unio	-9.52567
▁ren	-9.5263
▁os	-9.52716
ästa	-9.52811
▁fulla	-9.52839
▁otter	-9.52898
▁krati	-9.52931
▁ros	-9.52982
▁ycke	-9.53002
▁Din	-9.53084
▁änsla	-9.53214
rk	-9.53349
▁öv	-9.53421
▁mmer	-9.53447
▁trot	-9.53496
▁uper	-9.53515
▁ättet	-9.53535
▁tit	-9.53587
glig	-9.53694
st	-9.53739
▁kyld	-9.53838
▁varig	-9.53904
▁lay	-9.5392
▁varor	-9.53947
▁Vår	-9.54184
▁deln	-9.54231
▁atisk	-9.54242
▁skrev	-9.54257
▁brist	-9.54277
▁EG	-9.54281
▁riär	-9.54295
▁riska	-9.54307
la	-9.54318
▁imp	-9.54399
▁ske	-9.54465
▁admi	-9.5452
▁rådet	-9.54554
▁delta	-9.54742
▁nent	-9.54749
▁rare	-9.54811
▁vinst	-9.54869
▁rot	-9.54873
▁cirka	-9.54899
▁ua	-9.54919
▁olen	-9.54993
ta	-9.55043
isku	-9.55227
▁tusen	-9.55317
▁ratur	-9.55322
▁ich	-9.55339
▁arty	-9.55431
▁åde	-9.55493
▁strä	-9.55596
▁fria	-9.55667
▁askin	-9.55696
▁icin	-9.55739
▁ci	-9.55798
▁tor	-9.55805
▁fas	-9.55939
▁tank	-9.56161
▁lys	-9.56162
enti	-9.56182
▁team	-9.56355
▁leder	-9.56398
▁ativ	-9.56451
▁Til	-9.56482
ävl	-9.5651
▁ådant	-9.56534
▁Ex	-9.5655
▁cha	-9.56591
▁ärlig	-9.56638
yhet	-9.56676
▁blick	-9.56707
▁opt	-9.56715
isk	-9.56741
▁ester	-9.56769
enom	-9.56913
▁ås	-9.5695
Vi	-9.57025
▁ssio	-9.57086
▁Di	-9.57142
▁tra	-9.57163
▁exakt	-9.57167
▁Viss	-9.57187
▁frukt	-9.5727
▁ägare	-9.57271
▁All	-9.57353
gag	-9.57456
ri	-9.57477
▁teter	-9.57528
▁drick	-9.57554
▁dik	-9.57589
prid	-9.57763
▁äst	-9.57839
▁undra	-9.58019
yttj	-9.5805
▁start	-9.582
▁hjä	-9.58201
▁dern	-9.58208
▁träck	-9.58213
▁ec	-9.58313
▁stopp	-9.58342
ka	-9.58407
▁rä	-9.58433
▁lagen	-9.58566
▁ttack	-9.5863
▁ilmen	-9.5863
▁grafi	-9.58669
▁åk	-9.58734
bb	-9.58915
pulä	-9.5903
▁ash	-9.59092
ilj	-9.59097
▁andi	-9.591
naly	-9.59142
järn	-9.59395
▁Nord	-9.59425
▁meni	-9.59659
▁boll	-9.59674
▁ight	-9.59693
▁funk	-9.59819
▁sste	-9.59879
▁Hans	-9.59885
▁mati	-9.60066
▁bilar	-9.60074
▁ebook	-9.60097
▁entar	-9.60128
▁ang	-9.60169
▁hår	-9.60197
▁ämne	-9.60266
▁minne	-9.60283
▁höra	-9.60396
▁Po	-9.60427
▁ges	-9.60433
▁känns	-9.60436
▁rra	-9.60461
lekt	-9.60463
▁X	-9.60491
▁glas	-9.60525
▁hit	-9.60701
▁gn	-9.60734
▁klä	-9.60761
▁ateg	-9.60795
▁vapen	-9.60932
▁unga	-9.60934
▁oavs	-9.60946
▁butik	-9.60949
▁skan	-9.60959
▁gare	-9.61003
▁dor	-9.6108
▁höll	-9.61086
▁dera	-9.61124
▁Jo	-9.61126
▁ake	-9.61162
lv	-9.61214
▁rskap	-9.61216
▁latt	-9.61218
▁au	-9.61225
▁nö	-9.61316
▁öjlig	-9.6135
▁ades	-9.6139
ik	-9.61492
▁linj	-9.61508
▁rese	-9.61578
▁mana	-9.61638
▁drog	-9.61644
▁forsk	-9.61741
▁nland	-9.61771
▁estår	-9.61772
▁klaga	-9.6189
▁trafi	-9.61893
▁synd	-9.61909
▁agens	-9.61954
▁ensam	-9.61985
▁Su	-9.62163
▁No	-9.62212
▁visas	-9.62225
▁edia	-9.62241
▁hård	-9.6226
stru	-9.62297
▁leg	-9.62339
▁blo	-9.62396
▁stro	-9.62454
▁locka	-9.62469
▁rädd	-9.62492
▁ars	-9.62525
▁strid	-9.62607
▁nnen	-9.62632
▁eal	-9.62648
▁emål	-9.62729
▁nch	-9.62748
▁atio	-9.62758
ämn	-9.62825
▁ttr	-9.62835
▁jan	-9.63029
▁roni	-9.63092
▁motiv	-9.63164
▁fik	-9.63174
▁lin	-9.63404
▁Th	-9.63495
▁lunda	-9.63515
▁dress	-9.63576
▁$	-9.63596
▁undv	-9.63629
▁not	-9.6368
▁elsen	-9.63685
▁vgöra	-9.63716
▁Res	-9.63749
▁Ho	-9.63871
▁Kon	-9.63923
▁he	-9.64025
▁gnos	-9.64139
▁oppl	-9.6416
▁arnet	-9.6419
▁nens	-9.64206
▁try	-9.64249
▁ember	-9.64296
▁varm	-9.64333
▁alans	-9.64406
▁bjud	-9.64482
▁iell	-9.64538
▁smart	-9.64573
▁gård	-9.64607
serv	-9.64674
▁atum	-9.64738
▁sker	-9.64749
▁anc	-9.64768
▁nalys	-9.64822
▁riset	-9.64878
▁Gör	-9.64911
▁our	-9.64942
▁ämnen	-9.64984
▁kör	-9.64986
löd	-9.65098
▁gera	-9.65136
▁jd	-9.65157
▁nöjd	-9.65184
▁ndows	-9.65291
▁iser	-9.65404
▁ob	-9.65487
▁bred	-9.65518
▁lykt	-9.65589
▁lott	-9.65621
▁riser	-9.65683
▁term	-9.65711
▁täcka	-9.65836
▁lär	-9.6591
▁fre	-9.65915
▁ari	-9.65936
anni	-9.6605
▁fund	-9.66053
▁edan	-9.66054
▁vär	-9.66057
▁sö	-9.66071
▁hört	-9.66082
▁finna	-9.66143
▁ormat	-9.66182
▁yrkan	-9.66196
▁ata	-9.66231
▁bol	-9.66232
▁Sy	-9.66409
▁its	-9.66447
▁skog	-9.66505
▁ui	-9.66527
▁ik	-9.66542
▁gran	-9.66544
▁orden	-9.66598
▁ness	-9.66653
▁band	-9.66776
▁kul	-9.66816
▁tc	-9.66848
juk	-9.66872
▁poli	-9.66915
▁sökte	-9.66925
▁mnd	-9.66975
▁tatet	-9.67153
▁tna	-9.67157
▁äng	-9.67289
▁oäng	-9.67389
▁ank	-9.67399
▁TV	-9.67455
▁tig	-9.67597
▁ttn	-9.67614
▁auto	-9.67891
▁lln	-9.67973
▁följd	-9.67977
▁gas	-9.6802
▁—	-9.68064
▁nk	-9.68078
▁25	-9.6815
▁erier	-9.68203
▁brev	-9.68222
▁anser	-9.68226
▁jätte	-9.68516
▁hi	-9.68585
▁öd	-9.68632
▁go	-9.68711
▁sport	-9.6897
▁fylla	-9.69021
▁lill	-9.69121
▁satte	-9.69126
▁frä	-9.69207
▁tts	-9.6932
▁kärn	-9.69338
▁skott	-9.69428
täng	-9.69479
▁com	-9.69496
▁kholm	-9.69553
▁gress	-9.69558
▁z	-9.69651
▁kung	-9.69746
▁insk	-9.69769
▁appa	-9.69782
▁löj	-9.69791
▁ow	-9.69841
▁gativ	-9.69861
▁parat	-9.69885
▁revo	-9.69887
▁Mer	-9.69932
▁rek	-9.70004
▁meta	-9.70004
▁mmun	-9.70011
▁els	-9.70013
▁oid	-9.70028
▁lubb	-9.70067
▁ativa	-9.70107
▁eld	-9.70117
▁rier	-9.70155
▁vänl	-9.70231
▁höga	-9.70308
▁idrag	-9.70309
▁ma	-9.70374
jut	-9.7038
▁ox	-9.70402
▁rrens	-9.70418
▁stör	-9.70527
▁ame	-9.70584
▁reda	-9.7061
▁udget	-9.70619
▁>	-9.70636
▁atur	-9.70666
▁rök	-9.70749
ojk	-9.70789
▁närma	-9.709
▁tyr	-9.70922
elev	-9.70926
▁Dan	-9.70962
▁öds	-9.71148
▁aktär	-9.71234
▁havet	-9.71272
▁oly	-9.7129
▁rå	-9.7134
▁rig	-9.71402
el	-9.71476
▁läg	-9.71479
▁ström	-9.71533
▁Mi	-9.71578
▁årig	-9.71711
▁svåra	-9.71796
▁täder	-9.71835
▁amtal	-9.71844
▁kuld	-9.71932
▁ler	-9.7205
▁erren	-9.72099
▁traff	-9.72145
▁ulär	-9.72161
▁ktor	-9.72171
▁sem	-9.72239
änsl	-9.72257
▁erti	-9.7227
▁rän	-9.72286
▁rre	-9.72309
on	-9.72385
▁yta	-9.72483
▁nnons	-9.72487
▁Wo	-9.72493
temb	-9.72709
▁mars	-9.72717
▁kry	-9.72728
▁lugn	-9.72815
▁skärm	-9.7282
▁lova	-9.72855
▁ntio	-9.72919
▁juni	-9.72963
▁ok	-9.72968
▁ckel	-9.72973
▁alls	-9.73044
yss	-9.73078
▁ökar	-9.73295
▁lim	-9.73337
▁Sp	-9.73468
▁graf	-9.73483
▁värme	-9.73492
vi	-9.73632
spe	-9.73645
▁säng	-9.73673
▁liks	-9.73714
▁exist	-9.73716
▁aktum	-9.73735
▁lita	-9.73785
▁strin	-9.73811
▁taten	-9.73845
▁ålet	-9.73874
rabb	-9.74013
▁ondon	-9.74036
▁bevis	-9.74072
▁stik	-9.74126
▁rämja	-9.74178
▁teo	-9.74197
▁svag	-9.74327
▁scen	-9.7448
▁dgård	-9.74481
▁skä	-9.74547
▁unnit	-9.74552
▁Stoc	-9.74704
▁mul	-9.74712
▁arhet	-9.74786
▁högt	-9.7485
▁lätta	-9.74916
▁ity	-9.75036
ibu	-9.75248
▁anj	-9.7527
▁värv	-9.75336
vil	-9.75402
ölj	-9.75423
▁ften	-9.75542
▁tes	-9.75593
▁allet	-9.75614
▁q	-9.75657
▁eror	-9.75795
änd	-9.75819
▁lans	-9.75919
▁landa	-9.76123
▁röv	-9.76133
▁nov	-9.76187
▁té	-9.76263
▁talar	-9.76305
▁ingår	-9.76421
▁läder	-9.76486
▁emi	-9.76506
▁dä	-9.76521
▁tali	-9.76634
▁hone	-9.76713
▁rid	-9.76807
▁rymme	-9.76825
▁nnan	-9.76835
ffic	-9.7688
▁lagar	-9.76991
▁massa	-9.77091
▁remi	-9.77092
▁ilj	-9.7718
▁nus	-9.77548
▁söka	-9.77552
▁ley	-9.77584
▁kasta	-9.77694
▁iler	-9.77752
▁rygg	-9.77855
▁Finn	-9.77934
▁iös	-9.77965
▁förra	-9.78121
▁illig	-9.78126
mpo	-9.78175
▁själ	-9.78212
red	-9.7826
▁eck	-9.78347
▁oga	-9.78386
▁pple	-9.78412
▁domen	-9.78416
▁sälja	-9.78609
▁kro	-9.78709
▁ormer	-9.7872
▁ence	-9.79021
▁oft	-9.79113
▁iera	-9.79174
▁urser	-9.79242
▁kä	-9.7932
▁iff	-9.79342
▁vig	-9.79399
▁leta	-9.79419
▁aket	-9.79496
▁vin	-9.79583
▁Sc	-9.79608
▁satta	-9.7964
▁arlig	-9.79688
▁tips	-9.7973
▁mor	-9.79747
▁para	-9.79772
▁tru	-9.79813
▁sta	-9.79868
▁ngel	-9.79873
▁nses	-9.80059
▁otta	-9.80085
▁aktu	-9.80196
▁ira	-9.80265
▁lju	-9.80296
▁ym	-9.80318
▁arder	-9.80362
▁svår	-9.80363
▁xtr	-9.8041
▁dent	-9.80414
▁jut	-9.8069
▁rang	-9.80753
▁Z	-9.80754
▁trand	-9.80808
▁ril	-9.80915
▁linje	-9.80979
▁yft	-9.81008
▁tan	-9.81013
▁annen	-9.81034
▁lack	-9.81048
▁längd	-9.81083
▁ngs	-9.81162
▁mber	-9.81273
▁40	-9.81304
▁kta	-9.81309
▁gger	-9.81336
▁lanet	-9.81365
▁ot	-9.81377
▁sinne	-9.81413
▁hol	-9.81434
▁rift	-9.81496
▁År	-9.81504
▁ernas	-9.8155
▁nnor	-9.81566
▁isti	-9.81608
▁smak	-9.81722
▁avid	-9.81829
▁känt	-9.8187
▁ete	-9.81953
▁åra	-9.8197
▁varet	-9.82098
▁stone	-9.82147
▁ept	-9.82187
▁ham	-9.82308
▁affär	-9.82363
▁sko	-9.82363
▁uss	-9.82423
arla	-9.82429
▁El	-9.82477
▁pa	-9.82501
▁van	-9.82521
▁glä	-9.82568
nslu	-9.8265
ne	-9.82707
▁kall	-9.82763
▁press	-9.82949
▁vit	-9.8295
▁dry	-9.82992
▁taget	-9.8304
▁ago	-9.83041
▁sub	-9.83055
▁tör	-9.83091
▁fred	-9.83093
umme	-9.8313
▁rab	-9.83294
▁affe	-9.83335
▁mask	-9.83354
▁16	-9.83388
▁ilden	-9.83682
▁rea	-9.83737
▁frika	-9.83876
öv	-9.83966
▁dit	-9.83997
▁fisk	-9.8402
▁als	-9.84033
▁klo	-9.84056
▁gla	-9.84058
▁bef	-9.84242
▁äster	-9.84371
▁arken	-9.84439
▁teten	-9.8447
▁no	-9.84658
▁orge	-9.84672
▁skri	-9.84688
▁redi	-9.84761
▁ont	-9.84799
▁full	-9.84815
ered	-9.84835
▁yk	-9.84847
▁redd	-9.84921
▁vgift	-9.84955
▁orta	-9.84977
▁Tru	-9.85074
▁chans	-9.85139
aff	-9.85413
▁mena	-9.85521
▁citet	-9.85666
▁kod	-9.85738
▁ris	-9.85742
▁am	-9.85866
▁otek	-9.85868
▁bis	-9.85951
▁unik	-9.85966
▁ass	-9.85989
▁jo	-9.86022
▁rten	-9.86086
utom	-9.86235
▁enkel	-9.86263
▁11	-9.8637
▁Ny	-9.86371
▁visat	-9.86407
▁ect	-9.8648
imma	-9.86605
▁repa	-9.86677
▁­	-9.8673
▁mång	-9.86769
▁roma	-9.8684
at	-9.86902
ågra	-9.8691
▁18	-9.86975
▁bilen	-9.87016
▁bär	-9.87071
▁sum	-9.87135
▁nger	-9.87184
▁eder	-9.8734
▁jul	-9.87415
▁agi	-9.87418
▁sov	-9.87455
▁ers	-9.87463
▁Fö	-9.87507
▁ess	-9.87577
▁amen	-9.8759
▁plo	-9.87636
▁kyrk	-9.87671
▁ommun	-9.87704
▁star	-9.87713
▁ick	-9.8778
▁unt	-9.879
▁enar	-9.87951
▁inst	-9.87962
▁derar	-9.88223
▁hålls	-9.88225
▁ax	-9.8823
▁llor	-9.88248
▁ron	-9.88347
▁lan	-9.88389
▁park	-9.88391
se	-9.88406
▁terar	-9.88459
▁äll	-9.88627
▁erso	-9.88631
komm	-9.88666
▁Pre	-9.88669
▁ail	-9.88674
▁lås	-9.88698
▁elvis	-9.88794
▁You	-9.88892
▁ikt	-9.88898
▁fekt	-9.88941
tu	-9.88974
▁vart	-9.8898
▁räd	-9.89038
▁otell	-9.89104
▁lipp	-9.89141
▁aria	-9.89214
▁Str	-9.89237
▁cep	-9.89249
▁FN	-9.89451
▁rak	-9.8953
▁int	-9.8982
▁assa	-9.89864
▁äter	-9.8992
▁kilda	-9.89944
▁aul	-9.89975
▁vac	-9.90075
▁derna	-9.9012
▁ägn	-9.90132
▁görs	-9.90213
▁sh	-9.90224
▁ats	-9.90229
▁väga	-9.90288
▁anal	-9.90306
▁kände	-9.90333
▁säg	-9.90348
vik	-9.90531
▁kl	-9.90614
▁ms	-9.90663
▁roa	-9.90687
▁öreg	-9.9076
▁sion	-9.90852
▁etens	-9.90889
▁tåg	-9.90934
▁reds	-9.91025
▁lse	-9.91046
anno	-9.9107
▁tten	-9.91115
▁läng	-9.91138
▁älj	-9.91193
▁bin	-9.91268
▁ratt	-9.91374
▁nam	-9.91499
▁glar	-9.91505
▁sky	-9.91749
▁inre	-9.91861
▁km	-9.91881
▁ol	-9.91905
▁flu	-9.92088
▁sann	-9.92093
▁iP	-9.92097
▁Tre	-9.92112
▁ndsk	-9.92176
▁ind	-9.92249
▁ille	-9.92363
▁städ	-9.9237
▁tant	-9.92614
▁Go	-9.92616
▁alen	-9.92636
▁kol	-9.92678
ekto	-9.92711
▁ikte	-9.92714
▁källa	-9.92893
▁idig	-9.93045
▁båt	-9.93078
▁ssant	-9.93264
▁atser	-9.93424
▁nn	-9.9343
▁lot	-9.93455
▁14	-9.93458
▁sal	-9.93484
▁iz	-9.93513
re	-9.93513
▁duc	-9.93701
▁fäll	-9.93811
▁byte	-9.9383
▁ep	-9.93908
▁ulera	-9.93919
▁sie	-9.93948
▁ling	-9.93975
▁ndiga	-9.94036
▁len	-9.94144
rö	-9.94229
▁dje	-9.94373
▁gil	-9.94383
▁ral	-9.9442
▁fä	-9.94458
▁coo	-9.94507
▁sorg	-9.94523
▁ach	-9.94548
▁fta	-9.94583
▁hot	-9.94602
▁Två	-9.94708
▁enni	-9.94744
▁åll	-9.94746
▁Spa	-9.94796
▁anden	-9.94911
▁omp	-9.94969
▁ttare	-9.95043
▁delse	-9.95067
▁tak	-9.95106
▁svart	-9.95139
▁kie	-9.95199
▁ken	-9.95199
▁ato	-9.95232
▁gent	-9.95243
▁ömn	-9.95245
åend	-9.9538
▁Nya	-9.95416
▁tast	-9.95482
▁ound	-9.95535
▁fina	-9.95655
▁nsi	-9.95675
▁urg	-9.95794
▁rans	-9.95795
▁aster	-9.95892
▁olk	-9.95903
▁amin	-9.96016
▁våg	-9.96073
ind	-9.96159
▁ive	-9.9622
▁åka	-9.96232
▁lt	-9.96288
▁urn	-9.96345
▁ree	-9.96389
▁tin	-9.96496
▁fu	-9.96559
▁lapp	-9.96621
▁nti	-9.96815
▁urs	-9.96867
▁illi	-9.96902
▁tekt	-9.97011
▁tats	-9.9706
▁rnan	-9.97254
änk	-9.97371
ko	-9.97425
▁13	-9.975
▁ud	-9.97555
▁hud	-9.97653
▁usi	-9.97654
▁kemi	-9.97707
▁alb	-9.97758
▁erare	-9.97834
▁dans	-9.97859
▁guld	-9.97904
▁iske	-9.9793
▁gh	-9.97977
▁eko	-9.98009
▁rdet	-9.98012
▁växa	-9.98014
▁24	-9.98114
▁anad	-9.98205
▁enast	-9.9832
▁ästar	-9.98321
▁oka	-9.984
▁ssa	-9.98403
▁urk	-9.98428
▁disk	-9.98446
▁allar	-9.98508
▁ten	-9.98514
▁arg	-9.98708
itan	-9.98717
▁nare	-9.98723
▁ement	-9.98739
▁tals	-9.98802
▁kräv	-9.98897
▁nnar	-9.98922
▁ater	-9.98949
▁rgan	-9.98956
▁kning	-9.98967
▁rter	-9.98978
▁ägs	-9.99152
▁tad	-9.99154
▁obe	-9.99158
misk	-9.99178
▁ntra	-9.99193
▁mord	-9.99258
▁mik	-9.99279
▁eam	-9.99326
▁sökt	-9.99354
▁oli	-9.99357
▁ug	-9.99372
▁ppa	-9.99459
▁nes	-9.99513
▁use	-9.99585
▁alko	-9.99596
▁dskap	-9.99657
▁hal	-9.99673
▁uellt	-9.99738
▁Hel	-9.99788
▁ridi	-9.99845
▁ann	-9.9992
▁nord	-9.99924
▁skola	-9.99992
▁ågon	-10.0008
▁kant	-10.0026
▁änn	-10.0042
▁out	-10.0046
oppl	-10.0061
▁rtu	-10.0063
▁Dr	-10.0077
▁arc	-10.0082
tämm	-10.0084
▁nste	-10.0091
▁eter	-10.0096
▁over	-10.0101
▁kron	-10.0102
▁ostad	-10.0117
▁träde	-10.0121
▁ökad	-10.0135
▁apper	-10.0145
▁vning	-10.0153
▁lska	-10.0175
▁ali	-10.0176
▁mani	-10.0185
▁ela	-10.0187
▁gö	-10.0199
▁Euro	-10.0218
▁tivt	-10.0221
▁äger	-10.0225
▁emo	-10.0227
▁La	-10.0229
▁let	-10.0229
▁ivt	-10.0229
▁Ne	-10.0235
▁vida	-10.0236
▁drar	-10.0247
▁lus	-10.0253
▁St	-10.0262
▁eta	-10.0267
▁aris	-10.0282
▁Lu	-10.0284
▁nsl	-10.0288
rist	-10.0295
▁llo	-10.03
▁lk	-10.031
▁tim	-10.0312
▁ordet	-10.0317
▁tat	-10.032
▁ix	-10.0323
▁esta	-10.0325
lick	-10.0328
▁tål	-10.0342
▁nsten	-10.0346
▁lod	-10.0347
▁cka	-10.0352
▁känn	-10.0353
▁läst	-10.0376
▁Bra	-10.0381
▁oende	-10.0383
lko	-10.039
▁:)	-10.0394
▁onti	-10.04
▁rar	-10.0409
ha	-10.0414
▁ook	-10.0429
▁edj	-10.0438
▁logg	-10.046
tera	-10.0462
▁Kris	-10.0463
▁hände	-10.0464
▁fly	-10.0491
▁usti	-10.0492
▁snar	-10.0497
▁illa	-10.0504
▁rus	-10.0505
▁må	-10.0519
▁järn	-10.0521
▁nsy	-10.0522
▁ätter	-10.0527
▁rom	-10.0527
▁ssor	-10.054
D	-10.0556
▁nka	-10.0556
▁fra	-10.0557
▁far	-10.0557
▁nju	-10.0558
▁ian	-10.0565
fe	-10.057
▁korr	-10.0572
▁eet	-10.0572
▁dam	-10.0576
▁sare	-10.0583
▁ällan	-10.0585
▁vald	-10.0586
▁vars	-10.0589
år	-10.0596
▁varo	-10.0598
▁ech	-10.0606
▁öns	-10.0615
▁gäst	-10.0616
▁Mus	-10.0618
▁undar	-10.0633
▁rm	-10.0645
▁oxi	-10.0645
▁Gå	-10.0663
▁tema	-10.067
▁inna	-10.0684
▁ilke	-10.0687
▁olo	-10.0692
▁ött	-10.0693
▁#	-10.0701
▁väst	-10.0706
▁täckt	-10.0709
▁fält	-10.0712
▁even	-10.0732
▁nack	-10.0732
▁ven	-10.0739
▁sc	-10.0741
▁siell	-10.0743
▁imi	-10.0751
▁chen	-10.0756
▁äg	-10.0762
▁prä	-10.0768
▁ean	-10.0773
▁alisk	-10.0775
▁lf	-10.0803
▁illar	-10.0806
▁ckan	-10.0807
sätt	-10.0808
▁nstr	-10.0811
reat	-10.0818
▁ffer	-10.0825
▁ebr	-10.0826
▁bri	-10.0828
▁ngt	-10.084
▁ual	-10.0848
▁cc	-10.087
ine	-10.0877
▁ana	-10.0886
▁rott	-10.0892
▁unika	-10.0894
▁tand	-10.0895
▁apan	-10.0898
▁vent	-10.092
▁Tid	-10.0921
▁årt	-10.0942
▁tab	-10.0946
▁Ac	-10.0948
rera	-10.0978
▁slu	-10.0998
▁tater	-10.0998
▁ther	-10.0999
▁aner	-10.1009
▁bjekt	-10.102
▁Först	-10.1021
▁blå	-10.1036
▁edlem	-10.1037
▁pte	-10.104
▁oin	-10.1051
▁ntern	-10.1054
▁dörr	-10.1063
▁llig	-10.1081
▁ppet	-10.1086
▁konc	-10.1092
▁nom	-10.1096
▁rri	-10.1098
▁back	-10.1098
▁itat	-10.1106
▁non	-10.1113
us	-10.1116
▁sson	-10.1117
▁ocker	-10.1123
▁ergi	-10.1128
▁For	-10.1141
▁ismen	-10.1143
▁we	-10.115
ukar	-10.116
▁ansen	-10.1164
ark	-10.1168
▁ymp	-10.1168
▁17	-10.1169
▁me	-10.1171
▁eum	-10.1178
verk	-10.1185
▁max	-10.1187
▁tanda	-10.1198
▁him	-10.12
▁vert	-10.1213
▁old	-10.1218
▁takt	-10.1218
▁hat	-10.1228
▁tliga	-10.123
▁lekt	-10.1244
▁Ins	-10.126
▁llmä	-10.1263
▁Joh	-10.1265
▁mde	-10.1282
▁ngst	-10.1294
▁rder	-10.1295
▁vu	-10.1296
▁pport	-10.1317
▁serv	-10.1317
▁bru	-10.133
▁katt	-10.1342
▁mell	-10.1347
S	-10.1348
▁lad	-10.1352
▁60	-10.1354
▁ega	-10.1357
▁örj	-10.1363
kti	-10.1364
▁häl	-10.137
▁bit	-10.1374
▁kter	-10.1377
▁värm	-10.1404
▁cirk	-10.1407
▁flyt	-10.1408
▁erter	-10.141
▁odu	-10.1412
▁vik	-10.142
▁fär	-10.1422
▁oris	-10.1429
▁dör	-10.1434
▁ew	-10.1434
▁ös	-10.1447
▁ary	-10.1453
▁gui	-10.1455
▁enten	-10.1459
▁ate	-10.1465
▁ons	-10.1493
▁arla	-10.1511
▁kast	-10.1521
▁ag	-10.1542
▁Fråga	-10.1547
▁tei	-10.1547
▁lti	-10.1554
▁Hu	-10.1554
▁vita	-10.1555
▁fånga	-10.1558
▁sliga	-10.1562
▁vla	-10.157
▁rk	-10.1575
▁ct	-10.1578
ättr	-10.1587
▁tend	-10.159
▁oni	-10.1599
▁riget	-10.1603
▁ental	-10.1604
vis	-10.1609
▁obb	-10.1636
▁rch	-10.1638
▁ller	-10.1646
▁hamn	-10.1654
▁kel	-10.166
▁vänt	-10.166
▁line	-10.1661
▁nader	-10.1677
▁lant	-10.1679
▁åla	-10.1684
▁lon	-10.1688
▁örer	-10.1688
▁teri	-10.1699
▁Tw	-10.1705
▁akad	-10.1722
▁sant	-10.1731
▁Bro	-10.1742
▁olog	-10.175
▁zo	-10.1758
▁aga	-10.1759
ru	-10.1765
▁atter	-10.1766
▁förd	-10.1768
▁tänd	-10.177
▁iss	-10.1779
▁mal	-10.178
▁medl	-10.1785
▁rika	-10.1807
▁ome	-10.1813
▁änt	-10.1815
▁sä	-10.1822
▁äck	-10.1823
▁ors	-10.1828
▁ln	-10.1832
▁=	-10.1833
▁rth	-10.1839
▁Le	-10.1843
▁fe	-10.1844
▁pt	-10.1857
▁nic	-10.1859
▁arter	-10.1861
▁ite	-10.1862
▁uell	-10.1863
▁dd	-10.1873
▁larna	-10.1873
olag	-10.1877
▁ilo	-10.1878
▁yra	-10.1879
▁fier	-10.1897
▁hårt	-10.1898
A	-10.1923
▁allad	-10.1925
▁kat	-10.1935
▁mör	-10.1944
▁pp	-10.1945
▁bära	-10.1949
▁atör	-10.1962
▁Do	-10.1967
▁sist	-10.1968
▁ium	-10.1987
▁fett	-10.1991
▁plat	-10.1996
▁nha	-10.2004
▁edra	-10.2014
▁ldra	-10.2016
▁mas	-10.2017
▁alien	-10.2019
▁ace	-10.2034
▁lls	-10.204
▁num	-10.2046
▁rit	-10.2048
yd	-10.2078
▁klare	-10.2078
▁rund	-10.208
▁rev	-10.2088
▁sökan	-10.2089
▁Barn	-10.2093
▁An	-10.2103
abil	-10.2123
▁dele	-10.2124
▁ure	-10.2125
▁one	-10.2129
▁é	-10.213
▁ova	-10.2138
▁ansk	-10.2151
▁peri	-10.2152
leve	-10.2165
▁nska	-10.2177
I	-10.2184
ombi	-10.2187
▁ption	-10.2211
▁Al	-10.2216
▁mda	-10.2228
▁esti	-10.2229
▁WEB	-10.2236
▁AB	-10.2236
mal	-10.2238
▁rke	-10.2243
▁lags	-10.2251
▁dep	-10.2255
▁Gro	-10.2261
▁pal	-10.2268
▁acka	-10.2288
ce	-10.2289
▁lym	-10.2291
▁hoppa	-10.2301
▁own	-10.2305
▁odl	-10.2315
▁siska	-10.2331
▁elt	-10.2332
▁tret	-10.2333
▁ästa	-10.2368
▁osta	-10.2372
▁ändsk	-10.2379
▁elek	-10.238
▁ordna	-10.2388
id	-10.2396
▁osof	-10.2417
▁hop	-10.2427
▁jt	-10.2436
▁II	-10.2439
▁igur	-10.2452
▁tande	-10.2457
▁cera	-10.2463
▁tle	-10.2464
▁vd	-10.2472
teri	-10.2473
q	-10.2494
▁Få	-10.2497
▁Val	-10.2503
▁uden	-10.2508
ab	-10.2513
▁hov	-10.2517
▁tiska	-10.2518
▁sla	-10.2522
2	-10.2528
▁efin	-10.2541
▁alk	-10.2547
▁vel	-10.2551
▁21	-10.2551
▁rst	-10.2552
▁kild	-10.2553
▁ine	-10.2554
▁200	-10.2556
tänd	-10.256
▁dos	-10.2562
▁ric	-10.2566
▁pac	-10.2567
▁nej	-10.257
▁atar	-10.2574
▁tik	-10.2582
▁aha	-10.2583
▁ensi	-10.2588
▁rent	-10.2596
▁ult	-10.2602
▁cker	-10.2604
▁erma	-10.261
kto	-10.2615
▁varn	-10.2617
▁kli	-10.2617
niti	-10.262
▁af	-10.2627
▁ott	-10.2631
oci	-10.2633
▁tråd	-10.2639
▁kläd	-10.2649
▁mm	-10.2657
▁rop	-10.2657
▁pti	-10.2659
▁Bl	-10.2677
▁mäl	-10.2678
▁nsad	-10.2679
▁Mu	-10.2684
▁testa	-10.2684
nand	-10.2686
▁åda	-10.2691
▁aller	-10.2692
▁ama	-10.2701
▁varta	-10.2701
▁fin	-10.2723
▁mning	-10.2727
▁ndag	-10.2727
▁ikter	-10.2728
▁Hotel	-10.2732
ib	-10.2733
▁ile	-10.274
▁Tu	-10.2751
3	-10.2754
▁öte	-10.2757
▁erver	-10.2762
▁500	-10.2763
▁vari	-10.2764
▁ssion	-10.277
▁terna	-10.2779
ndr	-10.2782
▁nåt	-10.2783
▁älte	-10.2788
▁dio	-10.28
▁can	-10.2803
▁rv	-10.2803
▁skär	-10.2819
▁orn	-10.283
▁epp	-10.2837
peci	-10.2839
▁iat	-10.284
▁hål	-10.2841
▁vete	-10.2854
▁enta	-10.2875
▁nsch	-10.2892
▁plö	-10.2898
▁‘	-10.292
▁_	-10.2921
▁mmo	-10.2938
▁Li	-10.294
▁ime	-10.2947
▁inder	-10.2966
bin	-10.2971
▁fann	-10.2976
▁gend	-10.2985
▁mil	-10.2991
▁tol	-10.3003
▁aker	-10.3011
▁kti	-10.3012
▁erk	-10.3014
▁vore	-10.3033
▁ehöv	-10.305
▁ående	-10.3058
▁iddag	-10.3059
▁ligt	-10.3071
era	-10.3072
▁rys	-10.3087
▁ddag	-10.3087
▁cin	-10.3089
▁atal	-10.3094
▁Bi	-10.3095
ns	-10.3095
▁nning	-10.3101
▁skil	-10.3102
▁arv	-10.3105
du	-10.3116
▁ition	-10.3116
▁sho	-10.3116
▁ivet	-10.3122
▁vitt	-10.3149
▁nte	-10.3154
ed	-10.3165
▁Fa	-10.3167
▁öra	-10.3176
▁ek	-10.3178
▁rame	-10.3183
▁sland	-10.3187
▁Vet	-10.3191
▁ald	-10.3193
▁ld	-10.3199
▁fysi	-10.32
▁od	-10.3206
▁ffic	-10.3211
▁ami	-10.3224
ökn	-10.3227
▁xter	-10.323
▁rser	-10.323
▁andl	-10.3242
▁ph	-10.3243
▁ead	-10.3245
▁iver	-10.3246
▁nar	-10.3249
▁stan	-10.3261
▁valde	-10.3262
▁mn	-10.3263
▁mag	-10.327
▁rön	-10.3279
▁Gre	-10.329
▁pec	-10.3302
▁telse	-10.331
▁Bu	-10.3316
▁gene	-10.3317
▁ister	-10.3317
▁edda	-10.3322
▁19	-10.3322
x	-10.3323
▁vind	-10.3323
ek	-10.3328
▁Pa	-10.333
▁aser	-10.3333
▁®	-10.3339
▁ktör	-10.334
▁dels	-10.3344
as	-10.3356
▁fart	-10.3366
▁mått	-10.3376
▁undan	-10.3387
▁nget	-10.3389
▁zon	-10.339
▁skick	-10.3398
▁mos	-10.3403
▁IT	-10.3405
▁abel	-10.3412
▁ito	-10.3417
▁bes	-10.3417
▁mpli	-10.3417
▁ran	-10.3419
▁svär	-10.3421
▁trad	-10.3424
▁ael	-10.3436
▁kön	-10.3444
▁sys	-10.3447
▁orum	-10.3458
▁dro	-10.3468
▁neka	-10.3471
▁oro	-10.3474
▁alm	-10.3477
▁ben	-10.348
▁tär	-10.3482
▁San	-10.3486
▁jack	-10.3494
▁indi	-10.3497
▁enser	-10.3498
▁ient	-10.3519
▁atch	-10.3526
▁önd	-10.3546
▁lyg	-10.3549
▁laner	-10.3551
▁örd	-10.3592
▁utl	-10.3594
ke	-10.3595
▁rick	-10.3599
▁las	-10.3609
▁lind	-10.3624
▁ideo	-10.363
▁gonen	-10.3632
▁äljer	-10.3636
so	-10.3639
▁reat	-10.3664
▁ckor	-10.3666
▁mmit	-10.3678
▁golv	-10.3687
▁exi	-10.369
▁rnen	-10.3707
▁ktive	-10.3708
▁tam	-10.3721
▁adi	-10.374
▁ansa	-10.3744
▁gels	-10.3745
▁alist	-10.3754
▁ext	-10.3761
▁rena	-10.3775
▁minn	-10.3787
▁wi	-10.3787
▁cks	-10.3787
▁tunn	-10.3794
▁gne	-10.3801
▁rdes	-10.3805
▁bets	-10.3806
▁uff	-10.381
▁ver	-10.3816
▁räkn	-10.3823
▁rett	-10.3826
▁gu	-10.3834
ing	-10.3836
▁stjä	-10.3836
ali	-10.3837
▁rdag	-10.3838
▁Ro	-10.384
▁sult	-10.3851
▁nån	-10.386
▁tist	-10.3871
▁set	-10.3874
▁lede	-10.3877
▁gande	-10.3893
▁länk	-10.39
uva	-10.3908
▁nomi	-10.391
▁org	-10.3912
▁nge	-10.3914
▁omar	-10.3925
▁ontor	-10.3935
▁stern	-10.3952
▁doms	-10.3961
▁skad	-10.3963
▁ove	-10.3965
▁kapet	-10.3968
▁22	-10.3968
▁rmon	-10.3969
▁Kö	-10.3984
▁dato	-10.3985
▁ågot	-10.3987
▁ide	-10.3989
▁itel	-10.3997
▁fte	-10.3997
▁öl	-10.4002
▁nio	-10.4006
N	-10.4008
▁dog	-10.4017
▁tron	-10.4025
▁ub	-10.4027
▁rome	-10.403
▁uid	-10.4039
▁oy	-10.4051
▁högst	-10.406
form	-10.4066
▁see	-10.4075
▁nc	-10.4082
må	-10.4106
ro	-10.4117
▁lvis	-10.4118
▁ori	-10.4119
▁api	-10.4124
▁sand	-10.4124
▁ah	-10.4136
▁ano	-10.4142
▁vann	-10.4149
▁älk	-10.4153
▁erv	-10.4154
▁önsk	-10.4156
▁cs	-10.4161
▁tfö	-10.4171
alis	-10.4172
▁ktig	-10.4175
▁släkt	-10.4182
▁uta	-10.4184
▁gul	-10.419
▁oti	-10.4191
ck	-10.4207
▁äld	-10.4218
▁tte	-10.4222
▁häst	-10.4223
▁rets	-10.4224
▁ender	-10.423
▁tis	-10.4233
▁essi	-10.4237
▁los	-10.4241
▁nsats	-10.4242
▁öda	-10.4246
▁rren	-10.4254
▁dge	-10.4282
ll	-10.4304
▁hj	-10.4308
▁arat	-10.4316
▁edi	-10.4321
▁My	-10.4331
▁eut	-10.4335
▁pra	-10.4339
▁Tän	-10.434
▁uth	-10.4357
▁ema	-10.4378
50	-10.4381
▁ev	-10.4388
▁lja	-10.439
▁nim	-10.4391
▁rant	-10.4398
▁fan	-10.4398
▁kott	-10.4404
▁inb	-10.4411
▁Ku	-10.4426
▁skull	-10.4428
▁nöj	-10.4429
▁tto	-10.4432
▁lade	-10.4447
gand	-10.4458
▁stig	-10.4472
▁elle	-10.4473
▁smen	-10.4474
▁ght	-10.4474
da	-10.4475
▁Ob	-10.449
▁olu	-10.4503
▁lor	-10.4507
▁amm	-10.4528
1	-10.4531
▁tligt	-10.4539
▁obl	-10.4547
▁nta	-10.455
▁Mat	-10.4554
▁flytt	-10.4562
▁lia	-10.4564
▁egel	-10.4569
▁anne	-10.457
▁herr	-10.4594
▁örja	-10.4598
▁istan	-10.4609
▁andel	-10.4618
▁kten	-10.4627
▁rån	-10.4628
▁lov	-10.4636
▁aw	-10.4641
▁ire	-10.4647
▁amer	-10.4655
▁nabba	-10.4659
ad	-10.4687
rfar	-10.4698
▁onde	-10.4702
▁vila	-10.4722
▁ugg	-10.4723
▁alis	-10.4733
orre	-10.4739
▁arie	-10.4747
▁gal	-10.4755
▁ike	-10.4756
▁tic	-10.4767
▁öm	-10.4779
▁dre	-10.4785
▁rama	-10.4786
▁appar	-10.4787
▁ted	-10.4793
▁arma	-10.4794
▁ebb	-10.4795
▁mman	-10.48
▁opera	-10.4801
▁moder	-10.4801
▁entr	-10.4801
▁nts	-10.4805
▁xis	-10.4811
▁ture	-10.4822
▁mple	-10.4827
▁Geno	-10.4833
▁vist	-10.4836
▁nkur	-10.4841
▁mär	-10.4847
▁meri	-10.4851
▁enad	-10.4851
▁resp	-10.4853
▁drö	-10.4863
▁hota	-10.4873
▁otal	-10.4873
▁ument	-10.4876
▁vant	-10.4878
▁Ser	-10.4881
▁28	-10.4895
▁sia	-10.4898
▁ever	-10.4901
▁kit	-10.4918
▁trer	-10.4935
▁igh	-10.4936
▁asta	-10.4948
▁imma	-10.4949
ter	-10.495
▁ford	-10.4963
▁ntar	-10.4971
▁reser	-10.4973
▁ånge	-10.4975
▁70	-10.4981
▁estin	-10.4983
▁tina	-10.4989
▁pare	-10.4989
▁cho	-10.4999
▁mek	-10.5006
▁oc	-10.5008
tar	-10.5019
▁sku	-10.5021
▁ous	-10.5051
▁lib	-10.5057
▁fint	-10.5067
▁mg	-10.5072
▁spek	-10.5078
▁arta	-10.5089
Om	-10.5091
▁akten	-10.5094
▁rlig	-10.5097
kal	-10.5103
gå	-10.5105
▁«	-10.5108
▁pol	-10.5108
▁Ad	-10.5112
sta	-10.5113
▁rita	-10.5119
▁udi	-10.512
▁rval	-10.5123
and	-10.5128
▁kop	-10.5138
▁uer	-10.5138
▁nser	-10.5154
▁omb	-10.5156
▁wn	-10.5169
▁unge	-10.5172
▁sör	-10.5179
ga	-10.518
▁lli	-10.5183
▁öde	-10.5186
▁sked	-10.519
espe	-10.5192
▁diska	-10.5206
▁eb	-10.5213
▁23	-10.5213
▁Får	-10.5216
▁Herre	-10.522
▁live	-10.5231
▁uro	-10.5235
▁lsk	-10.5243
der	-10.5244
▁ldern	-10.5253
▁ontr	-10.5262
▁iko	-10.5272
▁nto	-10.5275
▁mb	-10.5281
▁tav	-10.5297
▁sci	-10.5314
▁ele	-10.5322
▁kors	-10.5323
epre	-10.5325
▁aten	-10.5327
▁tiga	-10.5328
▁op	-10.5332
T	-10.5339
▁ngd	-10.5342
▁ynd	-10.5348
▁nalen	-10.5349
▁union	-10.535
▁ov	-10.5366
sikt	-10.5382
▁tick	-10.5385
▁ppar	-10.5386
▁svi	-10.539
▁ilt	-10.5393
▁ota	-10.5404
▁Mal	-10.541
slut	-10.5413
▁anni	-10.5427
orgo	-10.5428
▁öll	-10.5428
▁mment	-10.5436
▁ktan	-10.5438
rans	-10.5453
▁öder	-10.5465
▁nden	-10.5465
ning	-10.5476
▁xi	-10.5483
▁ili	-10.5495
▁oner	-10.5495
▁spro	-10.5496
▁kriv	-10.5497
▁olv	-10.5509
▁veri	-10.5521
Du	-10.5522
▁eger	-10.5527
▁arens	-10.5531
▁kad	-10.5545
dra	-10.5558
▁dta	-10.5572
▁Con	-10.5574
▁onen	-10.5584
▁edd	-10.5586
▁torm	-10.5587
▁bot	-10.5591
stå	-10.5594
▁förbi	-10.5595
▁rj	-10.5599
▁ux	-10.5601
▁27	-10.5612
▁im	-10.5612
git	-10.5641
▁nerna	-10.5642
▁Tom	-10.5653
▁olla	-10.5657
▁mode	-10.5662
nmä	-10.5664
▁ance	-10.5664
▁uto	-10.5667
▁arl	-10.569
▁ggar	-10.569
▁vakt	-10.5695
▁rov	-10.5696
▁aktor	-10.5711
▁aler	-10.5715
▁jet	-10.5718
men	-10.5725
▁onst	-10.5728
▁mann	-10.5732
▁alu	-10.5733
▁turn	-10.575
▁elev	-10.5765
▁lje	-10.5765
▁aska	-10.5785
▁kala	-10.5799
▁ump	-10.5799
▁skrä	-10.581
▁ograf	-10.5812
▁kiv	-10.5813
efin	-10.5814
▁ore	-10.5817
▁300	-10.5817
▁nsk	-10.5843
▁ush	-10.5844
▁az	-10.5846
▁törer	-10.586
▁31	-10.5863
▁tolk	-10.5863
▁rou	-10.5865
▁spar	-10.5889
▁lver	-10.5906
lif	-10.5909
▁dda	-10.5919
▁ise	-10.5923
▁tika	-10.5928
▁låtar	-10.5929
nsva	-10.5931
▁artin	-10.5932
▁ase	-10.5945
▁get	-10.5951
dag	-10.5951
▁etisk	-10.5956
▁[...]	-10.5958
▁ngo	-10.5958
▁änk	-10.5966
▁agen	-10.5971
▁ita	-10.6027
-	-10.603
▁sto	-10.6031
▁lobal	-10.6032
▁Gra	-10.6033
▁arb	-10.6035
▁rera	-10.6047
▁rapp	-10.6049
uell	-10.6052
▁nso	-10.6059
▁yd	-10.606
▁onal	-10.6061
▁peisk	-10.6071
▁ygg	-10.6077
▁ader	-10.6086
▁rka	-10.6112
▁tch	-10.6112
▁ryck	-10.6117
▁90	-10.6121
▁ies	-10.6127
▁tele	-10.6136
▁kill	-10.6138
▁olj	-10.6156
▁yda	-10.6167
ma	-10.6182
▁mate	-10.6184
▁ropa	-10.6185
En	-10.6186
▁tvär	-10.6192
▁orr	-10.6201
▁åva	-10.6206
▁lämp	-10.6209
▁råk	-10.6218
▁80	-10.6218
▁anda	-10.6218
▁ale	-10.622
▁nism	-10.6223
▁To	-10.6224
▁bel	-10.6227
▁unden	-10.6235
▁[+]	-10.6258
▁gna	-10.6268
▁ish	-10.6268
▁ombi	-10.6277
▁inc	-10.6287
▁nkel	-10.6311
▁gat	-10.6321
▁lv	-10.6332
▁rska	-10.6333
▁assi	-10.6352
▁arad	-10.6353
▁il	-10.6357
▁varan	-10.6358
enhe	-10.6362
▁rry	-10.6372
▁egra	-10.6384
▁cro	-10.6391
▁Mar	-10.6399
▁ärer	-10.6402
▁ennes	-10.6405
▁elo	-10.6406
▁Fran	-10.6406
▁Lin	-10.6448
▁rend	-10.645
▁bler	-10.6452
▁llen	-10.6453
▁list	-10.6456
▁vor	-10.6458
kes	-10.6475
▁IP	-10.6494
▁ryt	-10.6495
▁uk	-10.6498
▁vs	-10.6509
▁ttre	-10.6515
▁Dom	-10.653
▁byggd	-10.6544
nno	-10.6564
▁🙂	-10.6568
▁erska	-10.6591
▁rin	-10.6592
bel	-10.6592
kla	-10.6593
▁gren	-10.6606
▁Mac	-10.6615
▁ände	-10.6618
▁drat	-10.6621
▁dal	-10.6625
▁egis	-10.6635
▁xpert	-10.6647
aran	-10.6652
ja	-10.6656
▁ytt	-10.6666
▁oto	-10.6667
het	-10.6667
▁uck	-10.6675
stö	-10.6679
▁ägar	-10.668
▁rob	-10.668
▁dräg	-10.6689
▁unk	-10.6692
▁Net	-10.67
▁lbe	-10.6707
▁nkar	-10.6721
▁itera	-10.6722
▁gräs	-10.6726
▁Fu	-10.6728
▁kven	-10.6729
▁söt	-10.6738
▁eka	-10.674
▁dar	-10.6741
jälp	-10.6744
▁eriet	-10.6756
▁uvud	-10.6766
▁rap	-10.6778
▁oder	-10.6789
▁tore	-10.679
▁betet	-10.6791
▁26	-10.6794
▁ani	-10.6795
▁King	-10.6798
▁rock	-10.6803
▁lld	-10.6828
höv	-10.6833
▁kva	-10.6839
▁ado	-10.6858
▁yn	-10.6862
▁juta	-10.6866
▁nce	-10.687
▁nåd	-10.687
▁ångar	-10.687
▁meka	-10.6871
▁onom	-10.6876
▁evi	-10.6881
▁löm	-10.6885
▁orer	-10.6887
▁tners	-10.6887
▁äd	-10.689
▁ear	-10.6893
▁hen	-10.6894
▁byt	-10.6915
▁Före	-10.6917
▁ban	-10.6918
▁osi	-10.6925
▁uri	-10.693
tre	-10.6931
▁og	-10.6939
▁nsat	-10.6946
▁rust	-10.6955
▁nika	-10.6956
▁mel	-10.6969
ex	-10.6976
▁nerar	-10.6986
▁ola	-10.6986
▁che	-10.6989
▁tråk	-10.6995
▁ilen	-10.6999
bjek	-10.7004
▁rag	-10.7006
▁ilm	-10.703
z	-10.7039
▁inv	-10.7041
▁konv	-10.7042
▁ttig	-10.7053
4	-10.7058
▁isto	-10.7059
▁agn	-10.7082
▁tagen	-10.709
▁ldi	-10.7093
C	-10.7102
▁run	-10.7106
th	-10.7107
▁bili	-10.7108
▁kland	-10.7125
▁törst	-10.7137
▁utse	-10.715
▁ruk	-10.7157
▁ingå	-10.7173
▁ynt	-10.7173
▁gdom	-10.7177
▁nist	-10.7178
▁Bri	-10.7183
▁Rom	-10.7184
▁fyr	-10.7187
▁amera	-10.7193
▁1,	-10.7202
▁llar	-10.7221
▁cel	-10.7225
▁Chi	-10.7226
▁plik	-10.7227
ärk	-10.7239
▁ltar	-10.7245
▁tti	-10.7247
▁gatan	-10.7271
▁inj	-10.7282
▁kert	-10.7288
▁pulär	-10.7302
mo	-10.7319
fier	-10.7321
▁llde	-10.7325
▁yt	-10.7327
▁Pi	-10.7328
pass	-10.7331
▁pot	-10.7335
▁mak	-10.7342
▁So	-10.7342
▁iel	-10.7357
▁kopp	-10.7359
▁kte	-10.7362
De	-10.7367
▁ain	-10.7372
▁teor	-10.7402
▁fara	-10.7403
▁åta	-10.7423
▁isar	-10.7427
▁rat	-10.7427
▁ift	-10.7429
▁lb	-10.7429
▁shi	-10.7431
▁Car	-10.7432
▁iti	-10.7437
▁ika	-10.7441
▁nast	-10.7445
▁kos	-10.7449
▁imo	-10.7452
▁za	-10.7459
▁ikten	-10.7461
▁ice	-10.747
▁asa	-10.7471
▁pan	-10.7472
▁arker	-10.7477
▁ales	-10.7478
▁ogi	-10.7482
▁uel	-10.7484
▁efo	-10.7489
▁smi	-10.7494
▁top	-10.75
▁adern	-10.7503
▁öga	-10.7512
▁löd	-10.7538
▁Lea	-10.754
▁rött	-10.7541
▁ssi	-10.7542
▁ini	-10.755
▁luta	-10.7553
▁uni	-10.7553
▁ket	-10.7554
▁tät	-10.7557
▁rgi	-10.7559
▁tabl	-10.7567
▁gni	-10.7574
▁ören	-10.7576
▁rali	-10.7581
▁ony	-10.7585
▁ordi	-10.7592
▁ktu	-10.7604
▁opi	-10.7605
▁surs	-10.7623
▁iner	-10.7625
▁tvis	-10.7644
▁lem	-10.7646
▁mnar	-10.7656
▁ierar	-10.7669
▁Nä	-10.7671
▁evo	-10.7679
▁ytan	-10.7679
▁elat	-10.7689
▁ratio	-10.7689
▁mling	-10.7693
▁dja	-10.7694
▁Åh	-10.7697
tab	-10.7704
▁mpo	-10.7706
▁lg	-10.7706
▁rmen	-10.773
▁→	-10.7733
▁titel	-10.7737
▁entu	-10.7739
▁väld	-10.7743
▁ona	-10.7743
▁skal	-10.7756
▁äga	-10.776
▁anger	-10.7765
ller	-10.7772
▁nj	-10.7774
▁slav	-10.7778
▁rto	-10.7778
▁ono	-10.7807
fatt	-10.7808
▁skl	-10.7815
▁navi	-10.7825
▁ndo	-10.7827
▁<	-10.7829
▁erry	-10.783
▁tall	-10.7839
▁tona	-10.7841
▁niv	-10.7842
▁plin	-10.7848
▁orti	-10.7851
▁nsam	-10.7853
▁yl	-10.7858
ell	-10.786
▁mid	-10.7861
▁lägen	-10.7862
▁ltur	-10.7867
▁länd	-10.787
▁änka	-10.7877
▁svärd	-10.788
äld	-10.7899
▁lka	-10.79
▁reak	-10.7905
▁ekon	-10.7905
ow	-10.791
▁king	-10.7924
▁meny	-10.7928
to	-10.7942
▁usta	-10.7947
"	-10.7955
ati	-10.7968
åste	-10.797
▁odde	-10.7973
▁anan	-10.7973
▁tull	-10.798
▁rida	-10.7986
▁eran	-10.7994
▁tum	-10.8
▁|	-10.8002
OS	-10.801
▁rumm	-10.8012
▁Spel	-10.8027
▁itar	-10.8032
▁inist	-10.8036
▁oci	-10.8039
▁okt	-10.8045
olog	-10.8045
▁ljare	-10.8051
▁ukt	-10.8051
▁Green	-10.8059
▁Reg	-10.8082
▁ropp	-10.8091
é	-10.8104
▁inn	-10.8105
▁abs	-10.8107
▁urin	-10.8116
▁istor	-10.8126
▁laga	-10.8131
▁elli	-10.8133
mi	-10.8134
▁glo	-10.814
▁nvi	-10.8146
▁ige	-10.8154
▁orter	-10.8161
P	-10.8164
▁mår	-10.8165
▁växte	-10.8168
▁usik	-10.8169
▁eat	-10.8176
▁anken	-10.8177
ör	-10.8184
▁45	-10.8194
▁ink	-10.8202
▁spo	-10.8205
▁35	-10.8212
▁mej	-10.8218
▁sid	-10.8219
▁Kor	-10.8222
▁tämm	-10.8227
emen	-10.8232
ul	-10.8233
▁darna	-10.8236
▁ls	-10.8261
▁nade	-10.8263
▁läck	-10.8267
▁29	-10.8271
▁hall	-10.8275
▁okal	-10.8284
slig	-10.83
▁nion	-10.8305
▁tö	-10.8309
▁näst	-10.8312
▁hil	-10.8317
▁gator	-10.8331
▁tivet	-10.8334
▁alli	-10.8341
▁ein	-10.8343
▁vali	-10.8347
▁raft	-10.8357
▁dram	-10.8358
▁rins	-10.8358
▁We	-10.8367
▁Volvo	-10.8371
▁ane	-10.8372
▁norr	-10.8382
▁torr	-10.839
▁mpa	-10.8419
▁fest	-10.8431
äkn	-10.8443
▁anter	-10.8458
▁@	-10.8466
▁lien	-10.8471
▁kra	-10.8471
▁onu	-10.8475
▁Kar	-10.8483
▁lagg	-10.8487
ö	-10.8491
▁anlig	-10.8498
▁klad	-10.8503
ndus	-10.852
BA	-10.8523
▁tsk	-10.8524
▁vas	-10.8527
▁tenar	-10.8528
▁låna	-10.8536
▁nisk	-10.8538
▁ntat	-10.8546
opul	-10.8552
van	-10.8558
▁edic	-10.8566
B	-10.8574
▁VD	-10.8586
▁dj	-10.8588
▁ERRE	-10.8589
▁tip	-10.8592
▁krea	-10.8601
▁tate	-10.8608
▁Hä	-10.8609
▁golf	-10.8611
kna	-10.8611
G	-10.8613
▁vanor	-10.8613
▁igar	-10.8618
▁aj	-10.8626
▁rank	-10.8635
▁stid	-10.8654
▁äm	-10.8663
▁juda	-10.8671
▁vamp	-10.8675
▁ndre	-10.8684
me	-10.8686
▁wo	-10.8687
▁krat	-10.8709
▁grej	-10.8714
▁Hall	-10.8718
▁bl	-10.8726
▁kär	-10.8732
▁ädd	-10.8734
mä	-10.8737
▁Red	-10.874
▁chi	-10.8741
▁wa	-10.8746
▁́	-10.8755
▁nsta	-10.8757
▁gan	-10.8765
▁arri	-10.8766
▁fors	-10.8779
▁ids	-10.8785
▁ula	-10.8791
▁ränd	-10.8791
▁labo	-10.8795
▁amn	-10.8802
▁rvera	-10.8806
▁gon	-10.8806
▁still	-10.881
▁mart	-10.8815
▁abo	-10.8818
▁mbi	-10.8842
▁mun	-10.8842
▁lte	-10.8844
▁ath	-10.8855
ort	-10.8855
▁tern	-10.8858
▁amla	-10.8865
ber	-10.8873
▁kut	-10.8889
▁isst	-10.8893
▁tive	-10.8895
▁noll	-10.8902
▁lojal	-10.8903
▁mole	-10.8906
▁vtal	-10.8925
▁sning	-10.8951
▁He	-10.8961
▁ifik	-10.8962
▁äder	-10.8971
▁vag	-10.8971
▁rasi	-10.8974
▁öst	-10.8978
▁mr	-10.8979
6	-10.8989
...	-10.9005
▁400	-10.901
▁eru	-10.9013
▁ttra	-10.9015
▁aken	-10.9018
▁Aw	-10.9044
▁llvar	-10.9054
▁Wall	-10.9065
▁Tra	-10.9098
min	-10.9101
▁rium	-10.9105
▁mith	-10.9114
▁Gu	-10.9124
▁inska	-10.9132
▁rull	-10.9141
▁nia	-10.9147
▁tora	-10.9174
▁oll	-10.9176
▁Ung	-10.9185
▁pto	-10.9189
rek	-10.9204
▁Pe	-10.9213
▁öj	-10.922
▁acc	-10.9222
▁bla	-10.9225
▁sajt	-10.9261
emp	-10.9271
▁damm	-10.9273
▁ubb	-10.9278
▁bliv	-10.9286
▁seg	-10.93
mera	-10.9312
▁mmi	-10.932
▁ddar	-10.932
▁dras	-10.9324
▁kin	-10.9327
▁ät	-10.9329
▁pen	-10.9332
▁runda	-10.9353
▁mpor	-10.9355
▁fo	-10.9356
▁esa	-10.9357
▁orma	-10.9359
▁lter	-10.9363
▁ssar	-10.9363
▁mpi	-10.937
▁Max	-10.9406
▁erg	-10.9409
▁gie	-10.9416
▁usk	-10.9419
▁mand	-10.9423
▁III	-10.943
▁neral	-10.9435
▁Si	-10.9454
▁ef	-10.9454
▁Pri	-10.9464
▁olly	-10.9467
tär	-10.9474
▁eral	-10.948
M	-10.9508
▁rse	-10.9514
is	-10.9528
sa	-10.9539
ge	-10.9546
▁dh	-10.9548
▁anli	-10.9548
▁prise	-10.9552
▁nitt	-10.9573
▁jur	-10.9575
▁täv	-10.9579
dni	-10.958
▁time	-10.9591
▁bran	-10.9591
▁iot	-10.9608
▁kr	-10.9608
▁Au	-10.9624
▁utgå	-10.9628
▁nat	-10.9631
▁anska	-10.9635
▁nni	-10.9635
▁älsk	-10.9641
▁Rock	-10.9649
▁ego	-10.9653
▁nders	-10.9656
▁tma	-10.9657
▁dant	-10.9662
▁ög	-10.9663
▁EN	-10.9668
iti	-10.967
▁2.	-10.9684
▁kämp	-10.9689
▁nnu	-10.9694
▁klag	-10.9707
▁rne	-10.9728
▁gruv	-10.9741
▁xem	-10.975
▁enis	-10.976
▁kärl	-10.976
▁Ir	-10.9762
▁kunn	-10.977
Ã	-10.9811
▁rle	-10.982
▁exa	-10.9821
▁sor	-10.9826
▁Mil	-10.9833
▁Fil	-10.9844
▁gry	-10.986
▁sil	-10.9871
▁ID	-10.9875
▁tött	-10.9881
▁ista	-10.9887
omm	-10.9887
▁don	-10.9889
▁ehov	-10.9897
▁håret	-10.99
▁PC	-10.9901
▁kni	-10.9902
▁gar	-10.9905
▁Pu	-10.9912
▁oo	-10.9914
▁ollen	-10.9916
▁gand	-10.9921
▁nken	-10.9932
▁öro	-10.9933
▁gno	-10.995
▁öta	-10.9957
▁ektor	-10.996
▁garna	-10.9964
▁TM	-10.9965
▁Tro	-10.9965
▁stin	-10.9965
▁Dig	-10.9972
ver	-10.9974
allt	-10.9977
▁ya	-10.9977
läg	-10.9981
▁räk	-10.9981
▁ston	-10.9996
▁lick	-11.0001
▁1.	-11.0004
▁pon	-11.0005
▁ckså	-11.0006
▁arde	-11.0021
▁sekt	-11.0025
▁nuv	-11.0028
▁nig	-11.0058
▁atin	-11.0058
▁ekni	-11.0071
▁ISO	-11.0072
▁väska	-11.0073
▁ektr	-11.0077
▁imer	-11.0094
▁kvi	-11.0095
▁tän	-11.0095
▁marg	-11.0097
▁By	-11.0103
▁turer	-11.0104
▁laget	-11.0105
ci	-11.0106
¤	-11.0115
▁uler	-11.0121
▁vins	-11.0125
▁emin	-11.0127
▁erie	-11.014
▁gor	-11.0149
ist	-11.0155
ssa	-11.0157
▁ving	-11.0162
ry	-11.0169
▁Af	-11.0171
▁Hej	-11.0182
▁ekan	-11.0186
▁etal	-11.0188
▁onf	-11.0193
▁rsk	-11.02
▁lm	-11.0203
▁trum	-11.0208
▁mater	-11.0239
00	-11.024
▁tions	-11.0247
lös	-11.025
▁ndes	-11.0258
▁likn	-11.0276
▁fli	-11.0276
▁icer	-11.0282
▁www	-11.0284
▁titt	-11.0295
▁ppo	-11.0302
▁tm	-11.0323
▁cis	-11.0326
fin	-11.0328
▁römm	-11.0328
▁ape	-11.0334
arfö	-11.034
▁pand	-11.0356
▁yper	-11.0363
▁pend	-11.0371
▁emp	-11.0374
▁teg	-11.0385
▁karen	-11.0393
▁NA	-11.0393
▁abe	-11.0394
▁adr	-11.0406
▁yr	-11.0409
▁vice	-11.0417
▁tiger	-11.0422
▁ote	-11.0428
▁ikti	-11.0429
▁ämna	-11.0438
ryt	-11.0445
▁gga	-11.0454
▁lub	-11.0458
▁terad	-11.0463
▁ommu	-11.0468
▁äls	-11.047
▁skade	-11.0471
7	-11.0472
▁löt	-11.0483
lla	-11.0491
▁nyt	-11.0492
▁elen	-11.0498
▁lät	-11.0511
stäm	-11.0512
▁Un	-11.0514
▁pela	-11.0515
▁onte	-11.052
▁papp	-11.0529
▁Sa	-11.0536
ove	-11.0537
▁vägg	-11.0552
▁ols	-11.0556
▁äv	-11.0556
▁ball	-11.0558
;	-11.0559
▁CO	-11.0564
▁tiva	-11.0569
▁aci	-11.0591
▁oda	-11.0593
yder	-11.0602
▁utb	-11.0605
▁ukti	-11.0606
▁ndska	-11.0614
▁elg	-11.0615
ubb	-11.0617
▁aka	-11.0625
il	-11.0629
▁Bli	-11.0632
▁;)	-11.0633
▁uti	-11.0635
▁amne	-11.0642
▁isc	-11.0647
▁orru	-11.0656
▁Cy	-11.0658
pråk	-11.066
▁lj	-11.0662
▁esul	-11.0666
▁oper	-11.0683
▁sär	-11.07
▁odi	-11.0704
inns	-11.0713
▁nut	-11.0719
▁lyck	-11.072
▁ski	-11.0727
vel	-11.073
lar	-11.073
▁pper	-11.0733
▁inse	-11.0734
▁Ph	-11.0738
▁eu	-11.0746
▁·	-11.0751
▁Tj	-11.0756
▁esten	-11.0767
tig	-11.0798
▁USD	-11.0811
▁rligt	-11.0812
▁kande	-11.0834
▁ibi	-11.0837
▁ager	-11.0844
9	-11.0859
▁OS	-11.0861
▁ärm	-11.0865
ots	-11.0868
▁trik	-11.0886
▁ntu	-11.0892
▁ugn	-11.0894
▁sing	-11.0894
▁2,	-11.0911
▁opp	-11.0913
▁tone	-11.0913
▁rade	-11.0925
▁sio	-11.0927
▁US	-11.0928
▁mpan	-11.0935
▁ggen	-11.0936
▁tomt	-11.0938
▁orier	-11.0944
▁erats	-11.095
▁anor	-11.0956
F	-11.0962
▁rörd	-11.0969
▁aku	-11.0969
▁låda	-11.0972
▁torn	-11.0975
liti	-11.0989
▁you	-11.0995
▁ific	-11.1
R	-11.1006
▁por	-11.1009
▁rah	-11.1017
▁lyd	-11.1028
▁idor	-11.1031
▁nnis	-11.104
▁ips	-11.1042
▁nel	-11.1044
▁appo	-11.1045
▁pul	-11.1051
▁sma	-11.1056
▁Matt	-11.1068
▁pans	-11.1071
▁ckt	-11.1075
▁komb	-11.1109
NTE	-11.112
▁Jesu	-11.1126
plan	-11.1131
▁ECB	-11.1148
nna	-11.1162
▁€	-11.1167
▁Lö	-11.117
▁ljan	-11.1173
▁[-]	-11.1178
▁yre	-11.118
▁Mari	-11.1184
▁gräv	-11.1188
▁dds	-11.1194
▁erli	-11.1222
▁but	-11.1227
es	-11.1234
▁rds	-11.1236
att	-11.1244
▁lagga	-11.125
▁räng	-11.1256
▁kydd	-11.1258
▁olis	-11.1261
tne	-11.1264
▁gåv	-11.1267
”	-11.1271
10	-11.1277
▁lda	-11.1288
▁ble	-11.1293
▁rof	-11.1303
▁utf	-11.1305
▁bj	-11.1308
▁pande	-11.1309
▁gast	-11.1314
▁eso	-11.1318
▁fråg	-11.132
▁juk	-11.132
▁ura	-11.1324
▁Los	-11.1329
▁rio	-11.133
▁äte	-11.1339
▁finn	-11.1363
←	-11.1366
▁vard	-11.1373
▁USB	-11.1376
▁36	-11.1378
▁lva	-11.1381
kyld	-11.1392
▁Ol	-11.1397
▁leka	-11.1404
▁Spe	-11.141
▁ntion	-11.1413
▁rupp	-11.1413
▁iden	-11.1424
▁pote	-11.1427
▁malt	-11.1433
▁kern	-11.1436
▁Del	-11.1438
▁Is	-11.1442
▁lea	-11.145
▁Art	-11.1469
▁atan	-11.147
▁osa	-11.1472
▁ämfö	-11.1476
▁krik	-11.1482
co	-11.1486
▁riva	-11.1492
▁asti	-11.1503
▁rti	-11.1505
▁Vart	-11.1518
ong	-11.1519
▁nkt	-11.1527
▁xp	-11.1529
▁röt	-11.1534
lusi	-11.1539
ie	-11.1541
ofe	-11.1549
▁jor	-11.1551
▁Väl	-11.1552
▁gita	-11.1555
▁§	-11.1561
▁andr	-11.1563
▁ålde	-11.1564
tt	-11.1565
▁glig	-11.1567
0%	-11.1573
▁Ur	-11.1581
▁töt	-11.1583
▁ront	-11.159
▁rp	-11.1596
▁ign	-11.16
på	-11.1614
▁stade	-11.1614
▁Me	-11.1615
▁omen	-11.1619
då	-11.1622
▁rafik	-11.1624
▁600	-11.1632
sp	-11.1635
▁isn	-11.1648
▁tec	-11.1652
▁pter	-11.1658
di	-11.166
▁aff	-11.1681
▁ivi	-11.1683
▁iljö	-11.169
▁slig	-11.1702
▁ånger	-11.1713
▁arier	-11.1714
▁onn	-11.1717
▁mne	-11.1723
▁gde	-11.1731
▁yss	-11.1743
▁tä	-11.1746
▁bö	-11.1749
▁åtar	-11.176
▁Ar	-11.176
▁fon	-11.1765
▁uld	-11.1778
▁vrig	-11.1779
▁Big	-11.1781
▁älla	-11.1781
▁rings	-11.1781
▁lat	-11.1785
▁rip	-11.1791
▁Hos	-11.1794
▁leri	-11.1801
.1	-11.1804
▁ktar	-11.181
▁lakt	-11.1811
▁oken	-11.1814
▁As	-11.184
▁oav	-11.1841
▁Sök	-11.1842
▁vl	-11.1866
▁con	-11.1877
▁One	-11.1891
▁lac	-11.1894
▁dade	-11.1902
▁emen	-11.1902
▁Ap	-11.1904
▁napp	-11.1919
▁örde	-11.192
▁lämn	-11.1929
▁fl	-11.1938
▁afe	-11.1947
▁åg	-11.1948
▁nsu	-11.1955
▁ica	-11.1959
▁pu	-11.1959
▁ffi	-11.1963
▁én	-11.1973
▁gråt	-11.1977
▁skon	-11.1978
▁ggs	-11.1983
▁änta	-11.2007
▁Per	-11.2007
tat	-11.2013
▁vil	-11.2018
▁Ben	-11.2018
▁pla	-11.2026
▁pna	-11.2032
▁jön	-11.2063
▁gråta	-11.207
alv	-11.2072
▁tale	-11.208
som	-11.2081
▁3.	-11.2089
▁arina	-11.209
lo	-11.2111
▁Hem	-11.2119
bo	-11.213
▁ante	-11.2133
▁vilda	-11.2136
▁Don	-11.2147
av	-11.2151
▁radi	-11.2156
▁Tv	-11.2159
▁otor	-11.2165
▁rtal	-11.2165
▁röm	-11.2188
▁cas	-11.219
▁rac	-11.2205
titu	-11.2206
▁Of	-11.2207
▁edb	-11.2212
▁tyd	-11.2217
▁mall	-11.2219
▁magn	-11.2224
onf	-11.2233
äng	-11.2249
▁ölja	-11.2252
▁rie	-11.2261
▁edo	-11.2268
▁fran	-11.2271
▁Ga	-11.2293
▁ander	-11.2293
▁vagn	-11.2299
▁nere	-11.2303
▁vern	-11.2304
▁Bar	-11.2325
▁lyser	-11.2329
▁lp	-11.2334
▁ags	-11.2339
▁grov	-11.2341
erad	-11.2343
▁pli	-11.2346
▁tla	-11.2365
▁jär	-11.2374
▁dan	-11.2375
▁vana	-11.2379
öj	-11.2395
▁enne	-11.2399
▁dej	-11.2407
▁anen	-11.2408
▁Az	-11.2412
▁alv	-11.2421
kt	-11.2424
ner	-11.2437
▁his	-11.2438
▁vild	-11.2439
▁turné	-11.2444
▁fini	-11.2453
▁Sain	-11.2454
▁vande	-11.2463
▁AI	-11.2466
▁dw	-11.2469
▁itu	-11.2473
E	-11.2496
▁agg	-11.25
▁rmar	-11.2504
▁drink	-11.2513
▁ode	-11.2515
▁uset	-11.2516
ment	-11.2522
▁elä	-11.2531
my	-11.2539
▁hip	-11.2541
▁orten	-11.2546
▁arf	-11.2555
▁behör	-11.2555
▁lace	-11.2557
▁rmo	-11.2559
▁trar	-11.2563
tä	-11.2585
▁töd	-11.2603
▁tero	-11.2603
▁HD	-11.2618
▁öke	-11.2621
▁mix	-11.2622
▁låne	-11.2624
▁områ	-11.2628
▁alle	-11.2631
▁Fre	-11.2631
▁agan	-11.2633
▁bju	-11.2633
.2	-11.2651
▁(1)	-11.2654
▁omna	-11.2667
▁ummer	-11.2669
▁rell	-11.267
▁adda	-11.267
▁rb	-11.2679
um	-11.2694
▁sat	-11.2694
▁jäl	-11.2695
▁itiv	-11.2697
▁Pal	-11.2698
▁250	-11.2703
▁cm	-11.2711
▁PS	-11.2713
ho	-11.2715
▁ldrig	-11.2725
▁nor	-11.2741
▁jude	-11.2749
▁Dag	-11.275
▁les	-11.2754
▁rader	-11.2768
ca	-11.2768
▁ssan	-11.2782
▁Cla	-11.2786
▁Air	-11.2791
▁yll	-11.2821
▁loss	-11.2821
▁nart	-11.2823
▁75	-11.285
▁ze	-11.2851
▁naly	-11.2863
▁ovi	-11.2885
▁atsen	-11.2902
läck	-11.2903
▁talt	-11.2913
▁lank	-11.2915
▁rlo	-11.292
▁riv	-11.292
▁ety	-11.2933
▁unna	-11.2937
▁ådan	-11.2938
▁rma	-11.294
▁cu	-11.2954
▁White	-11.296
▁rint	-11.2965
▁näll	-11.2972
▁yrke	-11.2975
▁ktet	-11.2984
Är	-11.3002
▁til	-11.3002
30	-11.3007
▁rate	-11.3008
▁gif	-11.3008
▁ior	-11.3009
▁eff	-11.3013
▁chatt	-11.3024
▁ösa	-11.3029
▁asse	-11.3035
▁vine	-11.3039
▁CD	-11.304
▁roj	-11.3044
▁ången	-11.3052
▁taxi	-11.3056
▁posi	-11.3057
▁unde	-11.3058
▁iks	-11.3065
▁unger	-11.3071
▁OK	-11.3073
▁gri	-11.3077
ika	-11.3096
ag	-11.3104
▁ys	-11.3105
▁riga	-11.3116
▁App	-11.3124
▁trag	-11.3131
▁ttar	-11.3136
äg	-11.3138
▁Cli	-11.3139
▁rian	-11.3144
am	-11.315
▁gden	-11.3152
▁rfar	-11.3161
▁VPN	-11.3172
▁rts	-11.3172
▁VM	-11.3173
▁ivare	-11.3179
,5	-11.318
▁rko	-11.3181
▁hyr	-11.3193
▁arte	-11.3193
▁nano	-11.3194
▁side	-11.3196
io	-11.3197
ly	-11.3205
▁raser	-11.3217
ty	-11.3228
▁lok	-11.3233
ut	-11.3236
▁tni	-11.3236
▁mla	-11.3243
▁ljard	-11.3248
▁CBD	-11.3249
▁börj	-11.3251
K	-11.3256
▁gade	-11.3266
▁mage	-11.3266
▁anke	-11.3269
▁ruv	-11.3279
O	-11.3299
▁vriga	-11.3301
▁este	-11.3302
▁32	-11.3302
▁föd	-11.3306
▁bur	-11.3334
ur	-11.3336
▁ruka	-11.3339
▁gro	-11.3354
▁kräp	-11.3354
ultu	-11.3356
▁tork	-11.3358
▁tube	-11.3377
▁2:	-11.3391
▁ensa	-11.3395
▁vågar	-11.3417
▁bba	-11.3424
▁jon	-11.3429
▁ycka	-11.3434
▁1)	-11.3439
▁öppn	-11.3445
▁tart	-11.3447
bild	-11.3462
▁edde	-11.3468
▁oke	-11.3468
▁endo	-11.348
▁info	-11.3485
▁rgen	-11.3489
▁Nej	-11.3491
▁3,	-11.3495
▁vy	-11.3496
▁tati	-11.3498
▁ibla	-11.3507
ak	-11.3508
▁lir	-11.3522
▁nazi	-11.3523
▁rymm	-11.3524
▁uma	-11.3534
▁derb	-11.3543
lipp	-11.3549
▁sha	-11.3557
▁vrid	-11.3564
▁pital	-11.3575
▁kåda	-11.3578
▁klus	-11.3578
▁Tur	-11.3581
▁1:	-11.3591
▁aran	-11.3592
▁dum	-11.3594
▁iter	-11.3596
▁obi	-11.3612
▁able	-11.3614
▁fak	-11.3619
▁egi	-11.362
▁seri	-11.363
▁48	-11.3634
▁book	-11.3641
▁IS	-11.3643
▁sis	-11.3644
▁mit	-11.3648
▁issi	-11.3653
▁Ã	-11.3665
▁ip	-11.3671
▁ngr	-11.3691
▁tap	-11.3691
gr	-11.3694
▁nty	-11.3699
▁lund	-11.3706
▁kum	-11.3711
▁gli	-11.3712
▁Cl	-11.3714
▁trejk	-11.3718
▁cklar	-11.372
▁yssna	-11.3723
▁indra	-11.3723
▁erans	-11.3729
▁lest	-11.3734
▁Te	-11.3741
▁frik	-11.3742
im	-11.375
▁grå	-11.3758
▁ödd	-11.377
▁tung	-11.3771
▁njur	-11.3784
▁estä	-11.3788
▁gd	-11.3792
▁eland	-11.3793
org	-11.3801
▁°	-11.3801
▁idan	-11.3804
▁ekv	-11.3814
▁dop	-11.3817
▁herre	-11.3818
▁yan	-11.3825
▁grä	-11.3832
▁lland	-11.3834
▁enny	-11.3834
▁amar	-11.384
▁hoto	-11.3849
▁eak	-11.385
▁rost	-11.3856
▁cit	-11.3858
ett	-11.3862
▁uf	-11.387
▁Ali	-11.387
avi	-11.3871
▁nöt	-11.3878
▁atorn	-11.3885
▁indre	-11.3888
▁kerna	-11.3898
▁tier	-11.3901
▁väng	-11.3902
▁ye	-11.3914
▁tw	-11.3918
▁lug	-11.3918
▁esi	-11.3925
▁ägen	-11.3931
▁tade	-11.3931
▁Bras	-11.3932
▁usa	-11.3939
od	-11.394
&	-11.3943
▁Mag	-11.3945
ts	-11.3958
▁ipp	-11.3961
▁iklar	-11.3966
exu	-11.3969
▁geni	-11.3973
▁ynn	-11.3976
▁2)	-11.3977
▁ubli	-11.3978
▁onta	-11.3981
▁120	-11.3988
▁syr	-11.399
▁örda	-11.3991
▁rspr	-11.4002
8	-11.4013
▁eha	-11.4024
edni	-11.404
▁dr	-11.4044
▁hyll	-11.4045
▁rol	-11.4048
▁tårar	-11.4052
▁Day	-11.4052
▁ntan	-11.4057
▁rmi	-11.406
▁leve	-11.4068
▁dyrt	-11.4078
▁ärare	-11.4087
▁mon	-11.409
▁fäl	-11.4093
▁tuell	-11.4097
▁ntas	-11.4107
ent	-11.4108
▁sme	-11.4112
▁ada	-11.4114
▁day	-11.4115
etw	-11.4116
▁inan	-11.4119
▁hedra	-11.413
xi	-11.4135
▁Oc	-11.4135
▁karp	-11.414
▁nnov	-11.4147
▁sit	-11.4159
▁dol	-11.4159
▁later	-11.416
▁oppar	-11.4161
▁oppa	-11.4163
▁okus	-11.4169
▁ulle	-11.4171
▁yhet	-11.4175
▁entre	-11.4182
▁mam	-11.4189
▁Bet	-11.4191
▁emb	-11.4193
▁rosa	-11.4195
▁tort	-11.4204
▁Åt	-11.4206
▁lta	-11.4211
▁Rö	-11.4213
▁800	-11.4223
▁gall	-11.4229
rack	-11.4233
▁orre	-11.4238
▁rkar	-11.4243
▁abba	-11.4245
▁grö	-11.4254
▁Mö	-11.4254
▁Sha	-11.4267
▁rdin	-11.427
▁utma	-11.427
ack	-11.4277
▁65	-11.4293
▁rod	-11.4294
▁öt	-11.4297
▁Hö	-11.4301
▁orat	-11.4306
▁road	-11.4308
▁llt	-11.4308
▁snö	-11.431
▁Bil	-11.4316
▁avgör	-11.4322
▁liter	-11.4329
▁grep	-11.433
▁apa	-11.4345
▁baser	-11.4355
▁tel	-11.4362
▁unni	-11.4374
BS	-11.4401
▁epa	-11.4409
▁hata	-11.4411
▁eh	-11.442
ath	-11.4422
▁aus	-11.4443
▁nre	-11.4452
etto	-11.4452
▁itl	-11.4459
▁sso	-11.4465
▁trak	-11.4467
▁vap	-11.4473
▁Ven	-11.4477
▁Erik	-11.448
▁kras	-11.4483
rapp	-11.4494
▁dve	-11.4504
▁Fl	-11.4506
▁mmet	-11.4506
ger	-11.4507
▁Er	-11.4509
▁elef	-11.4517
▁Ru	-11.4524
▁siv	-11.4529
▁oten	-11.453
▁eria	-11.4534
▁pop	-11.4539
▁amil	-11.455
▁iö	-11.4553
▁Hus	-11.4555
▁On	-11.4562
▁stera	-11.4567
▁pit	-11.4569
▁aur	-11.4575
▁ögst	-11.4577
▁ratis	-11.4587
▁ssn	-11.46
▁toria	-11.4605
▁IV	-11.4609
▁ativt	-11.4609
▁33	-11.462
▁alj	-11.4632
▁(1	-11.4646
▁rman	-11.4657
▁läka	-11.4661
▁elb	-11.4668
ol	-11.4669
▁lip	-11.4677
sti	-11.4695
▁esl	-11.4695
▁3:	-11.4698
▁maxi	-11.47
sak	-11.47
▁tage	-11.4712
5	-11.4724
▁Las	-11.473
▁4.	-11.4739
▁vat	-11.4745
▁FÖR	-11.4749
▁Son	-11.4763
▁Sq	-11.4766
▁Sö	-11.4767
▁cia	-11.4779
▁utr	-11.4781
▁arke	-11.4785
▁ttis	-11.4789
▁knä	-11.479
▁läd	-11.4792
▁Inn	-11.4807
▁mant	-11.4822
▁with	-11.4822
▁dmi	-11.4823
▁Marx	-11.4827
▁ntrol	-11.4843
▁öf	-11.4846
▁äge	-11.4864
IV	-11.4868
▁resu	-11.487
▁irk	-11.4878
▁äx	-11.4881
▁tori	-11.4895
▁orde	-11.4905
▁vib	-11.4907
▁GDPR	-11.491
▁DVD	-11.4912
▁atr	-11.4915
▁urer	-11.4918
▁cock	-11.4923
▁torer	-11.4923
▁glu	-11.4924
▁anik	-11.4936
▁MS	-11.4942
▁range	-11.4945
▁Ki	-11.4962
sen	-11.4968
▁onve	-11.4969
▁bbl	-11.4973
Г	-11.4982
▁jud	-11.4988
▁örr	-11.4992
]	-11.4993
▁rive	-11.4997
▁ndr	-11.4998
▁akter	-11.5013
▁lden	-11.5033
▁slo	-11.5044
▁rutt	-11.5044
▁magen	-11.5055
▁uda	-11.5062
▁ype	-11.5081
▁nik	-11.5086
▁lände	-11.5096
▁ntor	-11.511
dar	-11.5111
▁llan	-11.5129
evi	-11.5148
▁add	-11.5149
60	-11.5154
▁cke	-11.5167
▁onse	-11.5172
▁fy	-11.5173
▁ierna	-11.5185
¥	-11.5186
▁^	-11.5186
▁Män	-11.5211
ript	-11.5233
▁rbju	-11.5235
▁armor	-11.5243
▁reb	-11.5244
akto	-11.5245
▁pet	-11.5251
▁olle	-11.5253
▁tré	-11.528
▁onsu	-11.528
▁raka	-11.5285
▁nker	-11.5287
▁Bay	-11.5296
▁rarna	-11.5299
▁ntr	-11.5299
▁Gal	-11.5303
▁utsi	-11.5303
▁ömd	-11.5305
▁näm	-11.5325
▁vidd	-11.534
▁nål	-11.5344
▁mst	-11.5377
▁ful	-11.5381
▁räm	-11.5386
▁lukt	-11.5391
20	-11.5393
▁37	-11.5397
▁iset	-11.5404
▁rele	-11.5414
▁Will	-11.5422
▁lsen	-11.5428
▁lagd	-11.5431
erie	-11.545
▁rki	-11.5452
▁And	-11.5454
▁sena	-11.5454
▁nit	-11.5459
▁kri	-11.5462
▁gin	-11.5462
▁ense	-11.5465
ki	-11.5468
‐	-11.5469
▁Wil	-11.5469
▁SEK	-11.5475
▁agage	-11.5481
▁Kal	-11.5498
▁tenen	-11.5507
▁reta	-11.5513
ade	-11.5513
▁mråd	-11.5518
▁skå	-11.5518
▁sonen	-11.552
▁vb	-11.5523
lni	-11.5523
he	-11.5537
▁4,	-11.5546
▁rg	-11.5553
▁tock	-11.5555
▁duk	-11.5562
▁klu	-11.5563
▁omf	-11.5564
▁LED	-11.5568
▁tike	-11.5569
▁42	-11.5575
▁slan	-11.5577
no	-11.558
▁Tar	-11.5585
▁Ri	-11.5587
▁more	-11.5588
▁ård	-11.5588
▁agar	-11.5592
▁Dy	-11.5639
▁roi	-11.5642
stri	-11.566
▁galax	-11.5665
▁ranch	-11.5668
▁egler	-11.5669
▁Vara	-11.5695
▁rabb	-11.5704
▁trick	-11.5708
▁esse	-11.5714
▁ands	-11.5714
▁Kul	-11.5734
▁öjl	-11.5749
▁cen	-11.5754
lag	-11.5757
▁Ul	-11.576
▁pisod	-11.576
▁34	-11.5762
▁SEO	-11.5764
▁tere	-11.5765
▁Up	-11.578
▁enry	-11.5787
▁ärnan	-11.5793
▁nek	-11.5803
▁rata	-11.5803
▁etro	-11.5812
▁nnie	-11.5817
40	-11.5827
▁slor	-11.5828
▁yrk	-11.5829
▁ramar	-11.5837
▁urre	-11.5843
▁nati	-11.585
X	-11.5859
▁=)	-11.5872
▁eli	-11.5882
▁strö	-11.5886
▁åld	-11.5894
▁ked	-11.5897
▁kök	-11.5901
▁ivit	-11.5939
▁allat	-11.5941
▁smo	-11.5943
EN	-11.5946
▁rusa	-11.5951
▁puls	-11.5952
▁ifte	-11.5958
▁turen	-11.5959
L	-11.5961
▁rut	-11.5963
vot	-11.5964
▁sisk	-11.5972
▁Hi	-11.5989
▁ams	-11.5991
▁May	-11.6003
▁marin	-11.6005
par	-11.6016
.3	-11.6016
▁eten	-11.6018
▁matt	-11.6026
▁yte	-11.6033
▁Well	-11.6035
▁vall	-11.6039
▁deri	-11.6047
▁erbj	-11.6049
▁ensen	-11.6052
▁dla	-11.6054
▁geri	-11.6058
▁rce	-11.6059
▁ule	-11.606
▁axi	-11.6067
▁avor	-11.607
▁oter	-11.6081
tro	-11.6082
lade	-11.609
▁änkte	-11.6096
▁imm	-11.6107
CH	-11.6109
▁arin	-11.6116
▁alit	-11.612
▁bön	-11.6121
go	-11.6132
▁skin	-11.6137
▁xt	-11.6144
).	-11.6146
by	-11.6148
▁yli	-11.6151
▁rått	-11.6165
▁nön	-11.6178
ET	-11.6181
▁tjän	-11.6187
▁55	-11.6188
▁Top	-11.6203
mm	-11.6208
▁vek	-11.6216
▁rall	-11.6225
▁mad	-11.6232
▁fång	-11.6243
▁atri	-11.6246
▁Kim	-11.6247
▁valp	-11.6248
▁ÄR	-11.6248
▁mari	-11.6248
▁mink	-11.6251
▁ruta	-11.6253
▁oki	-11.6261
▁rexit	-11.6266
▁rty	-11.6267
▁strat	-11.6284
▁eve	-11.6285
▁lang	-11.6291
▁yrka	-11.6291
▁rog	-11.6292
▁gle	-11.6297
▁mans	-11.63
▁1,5	-11.6306
PS	-11.6314
▁Mot	-11.6316
▁tivi	-11.6319
rätt	-11.6326
▁rkan	-11.6328
▁Comm	-11.6328
▁mhet	-11.6342
pe	-11.6346
▁llä	-11.635
▁Mig	-11.6355
▁now	-11.6358
▁spri	-11.6363
▁Roger	-11.637
▁Saab	-11.6371
▁PDF	-11.6372
▁gi	-11.6376
▁giga	-11.6385
▁Lo	-11.6392
räkn	-11.64
▁ånad	-11.64
▁udet	-11.6408
▁rede	-11.641
▁anin	-11.6418
▁Ger	-11.6423
▁kanal	-11.6428
▁entor	-11.6431
▁trikt	-11.6434
▁abl	-11.6445
za	-11.6454
set	-11.6455
▁BNP	-11.6476
▁Road	-11.6477
▁lati	-11.6482
▁ouis	-11.6483
▁rdo	-11.6483
▁Ly	-11.6485
▁trus	-11.6486
hy	-11.6491
tor	-11.6492
▁mgå	-11.6498
▁änker	-11.65
▁holm	-11.6501
▁öar	-11.6503
▁iste	-11.6516
▁pin	-11.652
▁oku	-11.6522
▁spr	-11.6524
▁rfa	-11.6537
gg	-11.6541
▁Nå	-11.655
▁Ram	-11.6552
▁dok	-11.6557
▁38	-11.6562
▁%.	-11.6564
inne	-11.6568
▁ttan	-11.6573
▁ägge	-11.6581
,2	-11.6593
▁lampa	-11.6594
▁rasa	-11.6595
▁lder	-11.6604
▁bä	-11.6609
▁rdr	-11.6612
esta	-11.662
▁iso	-11.6639
▁loka	-11.6647
ju	-11.6651
▁ysk	-11.6653
V	-11.6657
▁reni	-11.666
▁egl	-11.667
▁kju	-11.6687
▁orsa	-11.6687
kter	-11.6687
▁Alz	-11.669
agar	-11.6698
▁ER	-11.6699
▁iam	-11.6709
▁drev	-11.6718
▁mum	-11.6723
▁serve	-11.6728
▁pert	-11.673
▁gr	-11.6735
▁nap	-11.6773
▁spä	-11.6795
▁tie	-11.6796
▁tört	-11.6796
▁̈	-11.6797
▁mala	-11.6798
▁tält	-11.6798
▁£	-11.6809
▁<3	-11.6813
▁50%	-11.6813
▁Law	-11.6817
▁läpp	-11.6819
▁GUD	-11.6819
▁nnes	-11.6826
▁raff	-11.6827
▁asen	-11.6829
be	-11.6848
▁nsin	-11.6851
▁erce	-11.6855
▁värn	-11.6858
▁Com	-11.6862
▁dvi	-11.6876
▁itan	-11.6878
▁oden	-11.6892
npas	-11.6894
▁ålig	-11.6902
▁UK	-11.6904
▁arne	-11.6905
▁	-11.6907
▁koj	-11.691
▁BBC	-11.6911
▁GPS	-11.6918
▁divi	-11.6931
▁nklu	-11.6945
▁trivs	-11.6947
▁sif	-11.695
▁ört	-11.6954
▁ktis	-11.6965
emo	-11.6971
▁väll	-11.6971
▁Gall	-11.6982
▁hjäl	-11.6994
▁täng	-11.7007
pänn	-11.7009
▁häll	-11.7009
▁mpl	-11.7012
▁tteri	-11.7017
▁vulk	-11.704
▁her	-11.7049
▁lins	-11.7056
▁rey	-11.7062
▁odel	-11.7078
▁kull	-11.7083
▁Van	-11.7095
▁tatis	-11.71
▁DC	-11.7115
▁vol	-11.7117
▁VI	-11.7133
rämj	-11.7134
sy	-11.7135
▁Än	-11.714
▁teran	-11.7145
▁dump	-11.7153
rasi	-11.7155
▁ntro	-11.7159
all	-11.7164
▁ole	-11.7164
▁99	-11.7165
▁nurr	-11.7166
/	-11.7167
▁nett	-11.7167
▁essan	-11.717
▁dumma	-11.7188
▁dvs	-11.7191
▁love	-11.7211
▁aut	-11.7212
▁käll	-11.722
▁Na	-11.7245
▁AR	-11.725
▁ida	-11.7258
▁halt	-11.7261
▁lyder	-11.7268
▁3)	-11.7269
H	-11.7273
▁genu	-11.7277
▁Ned	-11.7279
▁rbu	-11.7283
▁cial	-11.7287
▁alta	-11.7288
ligt	-11.7288
▁neg	-11.7303
▁alay	-11.7309
▁ängd	-11.7313
▁Ba	-11.7319
▁MP	-11.7326
▁omet	-11.7338
ppna	-11.7344
▁Bla	-11.7352
▁lådor	-11.736
si	-11.737
▁nin	-11.7375
▁kåp	-11.7378
▁39	-11.738
▁arib	-11.738
▁dri	-11.7382
▁lio	-11.7395
▁race	-11.7396
▁ttet	-11.7398
▁ölj	-11.7402
▁marna	-11.7404
▁äms	-11.7407
▁artan	-11.741
▁oman	-11.7419
▁eda	-11.7428
▁Dro	-11.7439
▁init	-11.7447
▁ved	-11.745
▁gate	-11.7456
▁Lee	-11.7485
▁bjek	-11.7493
▁tuga	-11.7494
▁hette	-11.7497
▁sido	-11.7501
▁onto	-11.7502
▁atern	-11.7507
▁kur	-11.7507
stat	-11.7511
▁zi	-11.7515
▁Line	-11.752
▁illu	-11.7531
▁dyr	-11.7542
▁rib	-11.7545
▁mmare	-11.7548
▁egat	-11.7551
▁Virg	-11.7554
▁rem	-11.7558
▁exu	-11.7575
▁Pat	-11.7581
▁pub	-11.7587
▁PR	-11.759
▁HP	-11.759
▁Show	-11.7594
▁rif	-11.7596
▁lap	-11.7599
▁arao	-11.76
▁näs	-11.7601
▁pad	-11.7602
▁dé	-11.7603
do	-11.7605
▁late	-11.7608
▁Cru	-11.7609
▁äste	-11.7611
▁DU	-11.7612
▁rno	-11.7627
▁akar	-11.7639
▁låsa	-11.7653
pa	-11.7654
ått	-11.7656
▁trös	-11.7661
jo	-11.7662
▁tha	-11.7677
▁Mä	-11.7681
tte	-11.7699
▁nos	-11.7702
bu	-11.7706
▁ady	-11.7707
lini	-11.7709
▁Or	-11.7713
▁(2)	-11.7716
▁nås	-11.7718
▁niska	-11.7726
▁vett	-11.7729
▁glid	-11.774
lite	-11.774
▁uc	-11.775
ste	-11.7754
▁åd	-11.7755
▁Cry	-11.7774
▁Bel	-11.7775
▁5.	-11.7775
▁bola	-11.7794
▁spå	-11.7802
DA	-11.7828
▁hej	-11.7833
▁{	-11.7833
▁ebo	-11.7837
▁låst	-11.7845
▁Bob	-11.7846
▁xu	-11.7847
▁GB	-11.7859
▁Call	-11.7861
▁eart	-11.7861
▁rige	-11.7865
je	-11.7866
▁onc	-11.7877
pp	-11.7881
▁täkt	-11.7884
▁mf	-11.7887
▁judan	-11.7904
▁soc	-11.7926
▁isen	-11.7928
▁lå	-11.7934
25	-11.7941
▁matta	-11.7943
▁die	-11.7947
▁95	-11.7953
▁Land	-11.7954
▁agra	-11.7955
▁toc	-11.7956
▁DNA	-11.796
rupp	-11.7974
▁--	-11.7975
▁bbar	-11.7977
▁iese	-11.7992
▁dv	-11.7998
▁pring	-11.8018
▁Ti	-11.8019
▁slä	-11.803
▁närm	-11.8045
▁mba	-11.8058
Så	-11.8064
▁xe	-11.8073
▁~	-11.808
▁ally	-11.8083
▁ope	-11.8083
▁rann	-11.8087
per	-11.809
gel	-11.8091
▁ussel	-11.8091
▁cC	-11.8093
▁hotet	-11.8095
▁rja	-11.8095
▁naken	-11.8099
▁våt	-11.8137
▁Tala	-11.8137
▁tiker	-11.8143
▁41	-11.815
▁Åk	-11.8156
▁JAG	-11.8159
▁unda	-11.816
kob	-11.816
råk	-11.8163
▁Jon	-11.8165
▁mbo	-11.8182
▁mast	-11.8186
▁VR	-11.8186
▁hiv	-11.8187
▁track	-11.8187
▁ivan	-11.8193
▁pern	-11.8193
▁utve	-11.8198
▁Nig	-11.8199
▁›	-11.8203
▁♥	-11.8203
▁rös	-11.8206
▁Girl	-11.8206
▁Va	-11.8215
▁180	-11.8224
▁ånga	-11.8228
▁olik	-11.8231
▁egio	-11.8238
▁bile	-11.8242
▁niti	-11.8248
▁rinc	-11.8265
▁Wal	-11.8285
▁atet	-11.8288
▁roli	-11.8288
▁rasen	-11.8293
ock	-11.8318
ami	-11.8333
▁vält	-11.8335
▁twi	-11.8336
▁öjd	-11.8352
▁Nato	-11.8353
KT	-11.8356
▁öter	-11.8368
iver	-11.8368
▁bus	-11.837
▁elta	-11.8372
ER	-11.8377
▁enge	-11.84
▁ån	-11.8413
yk	-11.8413
▁uka	-11.8424
stra	-11.8426
▁nabb	-11.8428
▁gard	-11.8432
▁Nap	-11.844
▁Nov	-11.8443
▁Sh	-11.8447
▁>>	-11.8459
sko	-11.846
TP	-11.8461
▁lst	-11.8479
▁ido	-11.8484
▁rinna	-11.8484
▁Shi	-11.8485
▁qu	-11.8496
så	-11.8504
▁Par	-11.8515
▁akor	-11.8546
▁demy	-11.8549
▁trin	-11.855
▁edig	-11.8551
os	-11.8564
ramp	-11.8576
▁Hot	-11.8578
▁sbe	-11.8585
▁Såg	-11.8586
▁365	-11.8591
un	-11.8592
▁lamm	-11.8594
▁stal	-11.8598
▁Hör	-11.86
▁öljer	-11.86
▁ude	-11.8604
▁xa	-11.8606
▁andy	-11.8609
U	-11.8619
▁dim	-11.8621
▁CV	-11.8624
▁åna	-11.8635
▁nfo	-11.8639
▁galn	-11.8643
▁EES	-11.8645
▁tlan	-11.8652
▁bull	-11.8668
slu	-11.8668
▁esp	-11.867
▁bbe	-11.8674
gger	-11.8679
▁pins	-11.8684
▁43	-11.8694
vo	-11.8696
▁sty	-11.8697
▁ouri	-11.8706
▁5,	-11.8709
▁Rou	-11.8716
▁ollo	-11.8716
▁omma	-11.8717
▁WHO	-11.872
▁MSEK	-11.872
▁moské	-11.8721
▁46	-11.8721
▁skul	-11.8726
▁ese	-11.8728
amme	-11.8729
▁alo	-11.8733
▁state	-11.8738
▁rro	-11.874
▁örut	-11.8741
▁anle	-11.8753
▁Gen	-11.8761
▁eman	-11.8763
▁uns	-11.8771
▁slö	-11.8778
▁vens	-11.879
▁uv	-11.8792
▁demi	-11.8794
▁rvel	-11.8795
▁bätt	-11.8798
▁utik	-11.8799
▁Mid	-11.8807
thon	-11.8813
▁gm	-11.8831
▁änkt	-11.8834
▁Ce	-11.884
▁js	-11.8845
▁}	-11.8855
▁FBI	-11.8856
▁Forex	-11.886
▁jäs	-11.8868
▁touch	-11.8871
▁tavla	-11.8873
▁metri	-11.8878
▁cher	-11.8888
▁väva	-11.8888
trem	-11.8894
▁cr	-11.8895
▁stel	-11.8896
rång	-11.8902
▁espe	-11.8903
▁lice	-11.8908
▁once	-11.8908
▁gist	-11.8933
▁krek	-11.8962
▁anka	-11.8972
▁elet	-11.8973
▁karna	-11.8982
ny	-11.899
▁otstå	-11.899
▁lare	-11.9001
▁ador	-11.9009
▁CIA	-11.9018
▁råg	-11.9023
▁rav	-11.9034
▁göd	-11.9059
▁enrik	-11.9061
▁artor	-11.9064
▁Brad	-11.9073
MP	-11.9077
▁ekto	-11.9087
▁oso	-11.9102
▁yck	-11.9105
▁tenn	-11.9108
▁ndu	-11.9111
▁alet	-11.9113
▁inat	-11.9115
▁4:	-11.9123
¶	-11.9125
▁café	-11.9125
▁Cho	-11.9132
▁Ry	-11.9135
▁mili	-11.9138
▁liti	-11.914
▁drak	-11.9144
▁ravi	-11.9152
▁Herr	-11.9152
▁pnad	-11.9157
▁umm	-11.9164
▁2,5	-11.9166
▁appy	-11.9175
▁kryp	-11.9176
▁elly	-11.9188
▁mpar	-11.9188
▁tek	-11.9199
▁51	-11.9199
▁orga	-11.9207
'	-11.9212
sit	-11.9216
▁löv	-11.9219
▁Pet	-11.922
▁je	-11.9221
▁chip	-11.9228
uri	-11.9231
-3	-11.9258
lat	-11.9259
▁ple	-11.926
▁gata	-11.9262
▁ilar	-11.9263
▁tårta	-11.9272
▁Pol	-11.9282
▁Ord	-11.9283
▁chain	-11.9289
▁vede	-11.9294
▁tine	-11.9297
ker	-11.9298
▁raf	-11.93
▁lie	-11.9319
▁lis	-11.9319
▁isi	-11.9322
▁amo	-11.9327
▁isio	-11.9333
W	-11.9336
▁nerg	-11.9344
▁triv	-11.9358
äpp	-11.936
▁kår	-11.9383
▁IN	-11.9393
▁EUR	-11.9396
▁pirit	-11.9407
▁new	-11.9413
▁ndri	-11.9417
▁Niko	-11.9422
▁raci	-11.9436
▁ermi	-11.9438
▁ramp	-11.9442
▁Tim	-11.9445
ärt	-11.945
▁ecka	-11.9458
▁Cas	-11.9461
▁ines	-11.9464
▁sper	-11.9468
▁iven	-11.9493
▁äde	-11.9501
▁ylan	-11.9502
▁edle	-11.9512
▁Kr	-11.9525
▁bedö	-11.9525
▁85	-11.9526
▁llti	-11.953
▁xtra	-11.9536
▁sad	-11.9538
▁rthur	-11.9549
▁49	-11.9556
▁löp	-11.9557
mma	-11.9561
edje	-11.9562
▁sug	-11.9564
▁afari	-11.9565
▁vec	-11.9572
▁Tag	-11.9576
▁egion	-11.9578
▁bso	-11.9579
▁ckar	-11.9581
▁asp	-11.9581
▁mull	-11.9582
▁Hell	-11.9596
hu	-11.9602
▁drä	-11.9618
▁gis	-11.9622
▁krona	-11.9622
▁44	-11.9644
▁dana	-11.9662
▁stau	-11.9662
▁atien	-11.9669
▁less	-11.9671
▁verb	-11.9673
▁edl	-11.9675
▁rym	-11.9685
▁infö	-11.9688
▁okyo	-11.9694
▁rast	-11.9708
▁vask	-11.9709
▁vå	-11.9715
▁ckad	-11.9715
▁ågar	-11.9716
▁arkt	-11.9717
▁dad	-11.9719
▁tare	-11.9737
▁enya	-11.975
TH	-11.9752
▁bul	-11.9755
IF	-11.976
▁Oh	-11.9761
▁icka	-11.9766
▁ding	-11.977
▁Sri	-11.9771
▁tau	-11.9771
▁kolo	-11.9781
jort	-11.9781
▁will	-11.9802
▁mur	-11.9803
▁LA	-11.9804
▁lög	-11.9805
ten	-11.9817
▁emma	-11.9818
pti	-11.9833
▁aper	-11.9837
▁nick	-11.9841
▁(3)	-11.9842
▁%)	-11.9846
▁AP	-11.985
▁bon	-11.9862
▁ora	-11.9869
▁rbara	-11.9878
▁dox	-11.9878
▁eed	-11.9882
▁gda	-11.9892
▁Vare	-11.9893
▁win	-11.9893
▁vax	-11.9893
kine	-11.9895
▁grät	-11.9907
▁ius	-11.9913
▁korna	-11.994
▁yssl	-11.9942
▁Cro	-11.9948
▁nns	-11.9954
▁nton	-11.9956
▁plit	-11.9956
▁kväl	-11.9971
▁Urs	-11.9972
▁essa	-11.9976
▁igg	-11.9983
▁dygn	-11.9989
▁:-)	-11.9991
▁SD	-11.9992
▁läkt	-12.0003
▁Klo	-12.0011
▁Jan	-12.0011
▁ross	-12.0032
▁Grad	-12.0051
▁gag	-12.0053
latt	-12.0057
▁asin	-12.0068
▁ssad	-12.0069
▁Sir	-12.0072
▁EA	-12.0078
▁Isa	-12.0119
▁mme	-12.0122
▁gärd	-12.0162
▁gad	-12.0171
▁mbe	-12.0174
▁ålla	-12.0176
▁Eva	-12.02
▁ima	-12.0205
▁lme	-12.0205
▁ecken	-12.0207
▁rati	-12.021
▁72	-12.0217
▁Må	-12.0219
▁Last	-12.022
▁irek	-12.023
▁pning	-12.0231
öp	-12.0234
▁adre	-12.0237
ala	-12.0242
▁flik	-12.0244
▁nier	-12.0244
▁Shak	-12.025
▁Jac	-12.0267
▁lisk	-12.0269
▁tans	-12.027
▁Bell	-12.0287
▁aldr	-12.0289
▁aura	-12.0294
▁NASA	-12.0296
▁ltr	-12.0298
▁kas	-12.0298
▁lemma	-12.0299
▁aly	-12.0308
▁drän	-12.0317
▁Bull	-12.0321
▁rens	-12.033
▁Nin	-12.0333
▁ndan	-12.0334
▁ifi	-12.0339
▁Liv	-12.0341
▁lom	-12.0346
▁cD	-12.0348
▁yst	-12.0355
▁bre	-12.0355
▁tral	-12.0365
▁eva	-12.0366
▁yc	-12.037
▁ngli	-12.0372
▁värk	-12.0372
ax	-12.0388
▁nulla	-12.0392
▁alax	-12.0399
▁otan	-12.0417
▁ider	-12.0428
På	-12.0435
▁prit	-12.0437
▁voro	-12.0437
▁livi	-12.0445
▁HÄR	-12.0453
▁ulver	-12.0455
▁ttad	-12.0458
▁kij	-12.0459
▁load	-12.046
▁base	-12.0462
▁umme	-12.0471
▁ils	-12.0479
▁room	-12.048
▁tår	-12.0482
▁pray	-12.0483
taka	-12.0488
▁Lab	-12.0495
▁äl	-12.0497
tin	-12.051
▁ndern	-12.0514
▁ämt	-12.0523
nnit	-12.0526
stor	-12.0534
▁64	-12.0562
▁Ross	-12.057
▁oln	-12.0575
▁ndy	-12.0593
▁sät	-12.0596
▁ntli	-12.0604
▁IKEA	-12.0609
▁6,	-12.061
▁girl	-12.0611
▁sinn	-12.062
▁gynn	-12.0625
Nu	-12.0631
▁labb	-12.0633
▁OM	-12.0643
▁UV	-12.0648
▁8,	-12.065
▁ves	-12.0659
▁llade	-12.0659
▁ampan	-12.0662
▁Bal	-12.0664
gen	-12.0667
▁MA	-12.0674
ple	-12.0676
▁rran	-12.0676
hi	-12.068
ruck	-12.0681
▁flo	-12.0684
▁aps	-12.0686
▁ogen	-12.0687
nza	-12.069
nit	-12.0697
▁åge	-12.07
▁väve	-12.0727
▁pps	-12.0747
▁immar	-12.075
▁ogg	-12.0751
▁ALLT	-12.0771
▁lise	-12.0772
▁ewis	-12.0781
▁urge	-12.0781
12	-12.0805
▁5:	-12.0809
▁air	-12.0811
ldre	-12.0813
▁lab	-12.0827
▁Vol	-12.0864
▁bed	-12.0865
▁glut	-12.0866
▁adel	-12.0871
▁ature	-12.0871
5%	-12.0877
lest	-12.0881
▁ias	-12.0887
isto	-12.0888
▁Mån	-12.0889
rig	-12.0892
▁alar	-12.0898
enna	-12.0901
▁ersi	-12.0902
▁hatt	-12.0904
,8	-12.0912
▁opa	-12.0915
▁ntin	-12.092
▁Bruce	-12.0935
▁jazz	-12.0935
▁oyota	-12.0936
▁ads	-12.0939
lle	-12.0953
▁Ray	-12.0957
15	-12.0959
▁10.	-12.0961
▁järta	-12.0962
▁sur	-12.0964
uck	-12.0965
▁lif	-12.0968
▁ABB	-12.0981
▁tsen	-12.0982
▁ankr	-12.099
▁ramm	-12.0992
▁eell	-12.0995
▁kart	-12.1003
EM	-12.1006
mgå	-12.1014
▁Dou	-12.1015
▁ppor	-12.1021
▁öpp	-12.1023
▁lun	-12.1025
lu	-12.1025
▁tagna	-12.1029
▁vika	-12.1035
▁(2	-12.1038
▁sbo	-12.1048
▁åtal	-12.1064
▁Gy	-12.1067
yggd	-12.108
▁War	-12.1081
▁kono	-12.1088
▁Yahoo	-12.1101
▁aiwan	-12.1102
▁ätten	-12.1106
▁räff	-12.1106
▁Mü	-12.1106
PU	-12.1107
▁äke	-12.111
▁0,	-12.1122
▁well	-12.1132
▁fjol	-12.1133
PA	-12.114
▁retro	-12.1155
Q	-12.1159
▁sof	-12.1162
▁ffek	-12.1162
▁chips	-12.1166
▁edni	-12.1168
▁eek	-12.1171
▁AS	-12.1177
▁ji	-12.1181
ah	-12.1186
▁Ros	-12.1188
▁Ra	-12.1197
▁tami	-12.1197
▁Cup	-12.1201
ya	-12.1204
▁olm	-12.1212
▁Win	-12.122
▁emat	-12.1222
▁66	-12.1248
▁like	-12.1263
▁had	-12.1268
▁47	-12.1271
▁Dem	-12.1273
▁acob	-12.1275
▁kus	-12.1276
ot	-12.1282
GT	-12.1285
▁Bad	-12.1287
▁Dam	-12.1301
▁leon	-12.1314
▁korn	-12.1315
▁gly	-12.133
▁äcke	-12.1336
lätt	-12.1337
▁olic	-12.1339
rigg	-12.1348
nku	-12.1351
▁vic	-12.1355
▁gang	-12.1358
tf	-12.1362
▁Wind	-12.1362
▁long	-12.1366
▁anno	-12.1371
▁ratu	-12.1372
▁rång	-12.1372
▁Ball	-12.1384
▁rial	-12.139
este	-12.1399
Ni	-12.1402
▁ögs	-12.1405
▁oh	-12.1415
▁rchi	-12.1422
▁mni	-12.1431
▁Lag	-12.1433
▁llin	-12.1435
spr	-12.1439
ripp	-12.1442
▁\	-12.1443
▁roy	-12.1448
▁NING	-12.1448
▁tapp	-12.1448
▁släp	-12.1449
▁ablar	-12.1453
▁very	-12.1458
ILL	-12.1462
▁Kate	-12.1462
▁kaka	-12.1462
▁alti	-12.1465
▁7,	-12.1474
▁ussi	-12.1478
▁ogle	-12.1483
▁kran	-12.1509
▁AC	-12.1514
▁lyss	-12.1515
▁ätte	-12.1516
▁luor	-12.1518
▁Ve	-12.1522
▁gatu	-12.1532
AS	-12.1533
▁ruto	-12.1533
▁API	-12.1534
arak	-12.1548
▁näpp	-12.1549
80	-12.1549
▁VIP	-12.1551
▁ici	-12.1556
▁ray	-12.1557
▁Kin	-12.156
afa	-12.156
▁nten	-12.1564
åt	-12.1574
▁tune	-12.1581
▁52	-12.1585
ägg	-12.159
▁lma	-12.1608
ull	-12.1608
▁åkt	-12.1614
LLA	-12.1618
▁ADHD	-12.1618
▁BMW	-12.1619
FC	-12.162
▁anyon	-12.162
▁trau	-12.1625
▁jakt	-12.1627
▁llk	-12.1631
▁tark	-12.1654
▁pira	-12.1655
▁gam	-12.1655
MF	-12.1659
▁aily	-12.1662
▁Ari	-12.1665
▁Und	-12.1666
▁illy	-12.1668
gare	-12.1669
▁ege	-12.1676
oth	-12.168
▁brud	-12.1691
RM	-12.1698
▁ision	-12.1701
▁lagom	-12.1712
▁rkad	-12.1734
▁Ron	-12.1734
▁iii	-12.1745
▁nol	-12.1749
▁lima	-12.1773
▁von	-12.1782
▁mbry	-12.1798
▁arväl	-12.18
▁head	-12.1803
▁Cross	-12.1809
▁abi	-12.1813
▁jean	-12.1815
▁360	-12.1815
▁67	-12.1819
▁ulta	-12.1823
▁mmig	-12.1827
ndl	-12.1828
ets	-12.1835
xy	-12.1839
ande	-12.1843
▁ello	-12.1851
▁ggan	-12.1855
▁Vo	-12.1892
▁sken	-12.1906
▁hetta	-12.1907
▁erf	-12.1911
▁rbi	-12.1925
▁7.	-12.193
▁rain	-12.1934
▁jun	-12.1949
▁pera	-12.1951
▁kult	-12.1964
ari	-12.1966
ld	-12.1979
▁Lodge	-12.1979
▁lob	-12.1981
▁apten	-12.1992
abin	-12.1996
▁rosor	-12.2
▁3,5	-12.2002
ladd	-12.2003
▁oj	-12.2011
▁grym	-12.2015
sv	-12.2017
▁pel	-12.2023
▁suga	-12.2031
▁Now	-12.2033
▁karn	-12.2036
▁tava	-12.2042
▁lsa	-12.2044
▁rems	-12.2056
▁hier	-12.2056
atu	-12.2061
▁undr	-12.2061
▁58	-12.2066
äck	-12.2066
▁Gran	-12.2069
näck	-12.2076
▁kräk	-12.2077
▁elar	-12.208
▁näsa	-12.2097
90	-12.2098
▁Varn	-12.2101
▁gä	-12.2101
▁oria	-12.2104
▁Tal	-12.2108
▁59	-12.211
ton	-12.2116
▁rave	-12.2119
▁ipe	-12.2128
▁fal	-12.2131
▁PM	-12.2134
▁rai	-12.2156
▁pack	-12.2162
▁riet	-12.2165
-4	-12.2166
FP	-12.2174
▁Dra	-12.2177
▁hire	-12.2179
▁varv	-12.218
▁Neil	-12.2181
avlo	-12.2187
▁Cell	-12.2188
▁Pac	-12.2188
▁SE	-12.2192
äkt	-12.2193
▁kassa	-12.2211
▁gym	-12.2219
▁litt	-12.222
sh	-12.2221
▁Her	-12.2222
▁Kry	-12.2224
▁éer	-12.2226
▁Klä	-12.2228
▁mejl	-12.2235
▁Ax	-12.2241
▁äft	-12.2251
▁ullo	-12.2262
▁aida	-12.2263
zer	-12.2263
▁nedr	-12.2263
▁gnad	-12.2264
▁alom	-12.2268
▁lusi	-12.2281
▁vagi	-12.2283
▁rni	-12.23
▁käl	-12.2302
▁tus	-12.2303
▁fie	-12.2304
▁älsa	-12.2314
.4	-12.2331
▁kara	-12.2338
▁Joe	-12.2351
▁ills	-12.2351
▁konom	-12.2358
rd	-12.2366
▁plåt	-12.2373
▁kaf	-12.2377
▁prat	-12.2378
▁äss	-12.2381
nu	-12.2381
▁ighe	-12.2383
▁ydda	-12.2383
▁print	-12.2385
lägg	-12.2388
CA	-12.239
▁mir	-12.239
▁Shan	-12.2392
ris	-12.2397
MS	-12.2403
▁Veri	-12.2405
▁sul	-12.2406
▁gris	-12.2417
▁stop	-12.2422
▁toki	-12.2423
po	-12.243
▁trat	-12.243
▁taket	-12.243
▁prut	-12.2431
ås	-12.244
▁DJ	-12.2441
▁ått	-12.2444
tsl	-12.2449
▁tarm	-12.2452
▁ammer	-12.2458
▁maka	-12.2465
var	-12.247
▁druv	-12.2472
▁visi	-12.2485
▁site	-12.2496
▁tea	-12.2496
▁tagg	-12.2501
▁arit	-12.2502
▁umb	-12.2508
OM	-12.2517
ey	-12.2522
ECD	-12.2523
▁onk	-12.254
▁54	-12.2544
rott	-12.2545
▁●	-12.2545
▁😉	-12.2545
▁wall	-12.2555
▁hypo	-12.2571
11	-12.2574
▁veg	-12.2574
▁seras	-12.2576
▁pam	-12.2576
▁därv	-12.258
ata	-12.2588
▁ärme	-12.2589
▁Lena	-12.2593
▁EM	-12.2612
▁rga	-12.2642
▁rond	-12.2645
▁naten	-12.2652
ud	-12.2661
▁Oj	-12.2662
▁limi	-12.2682
ith	-12.2685
▁Ing	-12.2689
OTE	-12.269
▁git	-12.2692
▁dle	-12.2695
▁NU	-12.2697
▁Whit	-12.2715
oT	-12.2717
▁Kam	-12.2732
▁Mall	-12.2734
▁kåd	-12.2736
▁`	-12.2741
▁HTML	-12.2741
▁Nor	-12.2744
▁mband	-12.2748
▁Kron	-12.2756
▁isku	-12.2756
▁ered	-12.276
▁Fox	-12.2763
▁agda	-12.2767
▁edare	-12.2769
▁dring	-12.2776
▁SMS	-12.2777
ato	-12.2782
TO	-12.2785
70	-12.2785
▁ntel	-12.2786
▁Tog	-12.2799
▁cko	-12.2807
▁urse	-12.2811
ov	-12.2815
▁lko	-12.282
BT	-12.2826
▁udan	-12.2832
▁linga	-12.2834
sel	-12.2838
zo	-12.2838
▁pH	-12.2839
▁örat	-12.2844
▁ebe	-12.2855
▁eur	-12.2865
▁olig	-12.287
MI	-12.287
▁CE	-12.2885
kar	-12.2894
▁ourc	-12.2898
▁have	-12.2905
▁nmä	-12.2906
▁punk	-12.2907
▁ubl	-12.2916
▁bly	-12.2918
▁jej	-12.2926
▁lyc	-12.2933
▁mone	-12.2935
▁pdate	-12.2941
mer	-12.2944
▁lmer	-12.295
▁Glen	-12.2951
▁ouch	-12.2967
taly	-12.2981
▁call	-12.2987
▁wart	-12.2987
▁lax	-12.2989
▁krap	-12.2991
▁Burn	-12.3013
▁HR	-12.3015
▁trip	-12.302
▁10%	-12.3035
▁oler	-12.304
▁Lett	-12.3044
ss	-12.3048
▁räv	-12.3055
Se	-12.3071
MG	-12.3082
▁rack	-12.3085
▁korp	-12.309
▁rvi	-12.3093
rick	-12.3095
▁burn	-12.3105
▁gay	-12.3105
▁talk	-12.3111
▁sq	-12.3115
mand	-12.3116
▁Väg	-12.3119
▁ssy	-12.3121
den	-12.3122
▁mpe	-12.3125
▁gaml	-12.3128
▁mmon	-12.313
▁8.	-12.3131
▁ON	-12.3136
▁Rio	-12.3141
▁CNN	-12.3145
▁Ghost	-12.3146
▁grän	-12.3149
ämst	-12.3153
▁Labo	-12.3153
▁Sun	-12.3155
▁heim	-12.316
▁arré	-12.3162
▁TT	-12.3165
▁Ow	-12.3168
▁Roma	-12.3172
▁asy	-12.3178
▁rlu	-12.3178
vid	-12.3179
▁ulin	-12.3179
▁KOM	-12.3185
tyr	-12.3187
▁!!	-12.3194
nti	-12.3196
▁Col	-12.3199
laz	-12.3208
▁350	-12.3208
▁asso	-12.3209
▁ws	-12.321
LM	-12.3215
int	-12.3221
▁pay	-12.323
▁mmis	-12.3231
▁amme	-12.3233
▁Ät	-12.3237
yfte	-12.3246
▁hack	-12.3258
▁lba	-12.3258
illa	-12.3285
▁XP	-12.3295
▁hed	-12.3296
FD	-12.3305
▁SA	-12.3307
▁war	-12.3324
▁cap	-12.333
upp	-12.335
NES	-12.3352
▁tay	-12.3356
▁hor	-12.336
▁NHL	-12.3361
▁stock	-12.3363
▁sslan	-12.3367
▁tyv	-12.3381
▁glatt	-12.3387
▁pis	-12.3392
▁mem	-12.3393
▁AM	-12.3398
▁hels	-12.3398
▁Dj	-12.3398
▁suger	-12.3403
▁dire	-12.3403
ant	-12.3405
▁AA	-12.3406
▁äk	-12.3411
▁RA	-12.3413
▁ory	-12.3428
▁Bor	-12.343
▁idi	-12.3436
VT	-12.3444
▁yo	-12.3446
▁Fri	-12.3451
ede	-12.3452
▁got	-12.3459
▁tour	-12.3461
ast	-12.3465
▁peci	-12.3467
▁Tel	-12.347
▁game	-12.3472
now	-12.3473
▁date	-12.3475
▁opo	-12.3484
▁äns	-12.3492
▁rjan	-12.3496
▁llna	-12.3514
HC	-12.3517
▁Mul	-12.3523
nnor	-12.3534
▁lern	-12.3538
▁nnon	-12.3544
▁Sig	-12.356
▁upe	-12.3566
▁tz	-12.3568
▁(5)	-12.3568
▁ieber	-12.3569
▁keln	-12.3573
-2	-12.3574
▁SSL	-12.3574
▁Know	-12.3581
▁anar	-12.3582
▁watt	-12.3587
▁kil	-12.359
▁4)	-12.3593
ring	-12.3595
rwin	-12.3595
▁90%	-12.3608
▁URL	-12.3609
▁romer	-12.3613
CT	-12.3616
odde	-12.3616
▁egn	-12.3624
▁grop	-12.3626
▁bay	-12.3635
▁änds	-12.3639
▁63	-12.3644
▁trå	-12.3645
▁majs	-12.3654
▁Roo	-12.3661
▁publ	-12.3665
▁wan	-12.3665
PC	-12.3665
▁Main	-12.3667
▁AT	-12.3672
DR	-12.3678
▁CC	-12.3679
▁nsen	-12.3694
ted	-12.3696
aket	-12.3698
▁unds	-12.3699
▁IQ	-12.3723
gla	-12.3726
▁SS	-12.3737
▁enas	-12.3739
tw	-12.3741
▁tabi	-12.3749
▁gruva	-12.3758
kom	-12.3759
▁THE	-12.3762
▁ocks	-12.3773
▁IPCC	-12.3784
▁(4)	-12.3785
▁rbar	-12.3789
ira	-12.3797
mu	-12.3801
▁mes	-12.3804
▁skare	-12.3805
▁Fin	-12.3806
▁ilk	-12.3809
nè	-12.3816
▁kärp	-12.3817
▁arren	-12.3821
▁Nutr	-12.3822
iser	-12.3827
are	-12.387
▁57	-12.3873
TS	-12.3876
DL	-12.3876
▁trig	-12.388
▁bow	-12.3884
▁Wine	-12.3886
▁COM	-12.3899
▁sun	-12.3904
app	-12.3907
▁ambo	-12.3909
▁pic	-12.391
▁Varm	-12.3931
▁green	-12.3932
▁sche	-12.3948
▁kram	-12.3949
▁fit	-12.3965
▁ogl	-12.3974
▁dorf	-12.3983
▁vli	-12.3989
▁mont	-12.399
▁Lei	-12.3991
▁VII	-12.3997
▁AD	-12.4
MC	-12.4006
▁graph	-12.4006
▁etEnt	-12.4007
▁Mara	-12.4007
▁Bird	-12.401
▁öran	-12.4013
▁Kol	-12.4013
▁Ahl	-12.4025
▁ikat	-12.403
▁lper	-12.4032
▁mond	-12.4033
▁Sin	-12.4035
kan	-12.404
▁#1	-12.4042
agla	-12.406
▁skåd	-12.4067
▁Bed	-12.4068
▁låte	-12.4088
lava	-12.4096
▁bal	-12.4106
▁karta	-12.4112
▁6.	-12.4114
▁78	-12.4117
su	-12.4121
▁tiken	-12.4127
▁MB	-12.4129
ront	-12.4131
och	-12.4131
▁rtan	-12.4131
▁gem	-12.4134
cy	-12.4138
▁rge	-12.414
▁viset	-12.4141
▁ngla	-12.4153
▁56	-12.4156
▁ndi	-12.4162
▁tugg	-12.4162
▁haga	-12.4163
-5	-12.4164
▁peng	-12.4179
▁nark	-12.4179
▁Fel	-12.4185
iel	-12.4186
eri	-12.4203
▁ryta	-12.421
ID	-12.4216
▁meron	-12.4221
▁dapt	-12.4243
NS	-12.4247
▁främ	-12.4248
▁umber	-12.4251
▁ION	-12.4264
▁nova	-12.4266
▁sfa	-12.4269
35	-12.4272
▁ivå	-12.4272
▁Not	-12.4278
▁Sky	-12.4283
▁gläd	-12.4288
▁ING	-12.4289
III	-12.4295
▁lök	-12.4297
▁rmat	-12.4307
▁etch	-12.4312
▁oko	-12.4319
▁pall	-12.4321
▁otel	-12.4324
▁inko	-12.4325
▁tens	-12.4329
tri	-12.4332
▁asi	-12.4335
zi	-12.4341
▁kh	-12.4354
▁CAD	-12.4356
▁llå	-12.4361
▁expe	-12.4363
▁uran	-12.4373
opp	-12.4376
rik	-12.4393
jäl	-12.4407
▁åh	-12.4412
▁vep	-12.442
▁spa	-12.4424
▁hän	-12.4428
▁sych	-12.4431
▁efe	-12.4433
▁vans	-12.4433
▁rgo	-12.4434
▁NET	-12.4441
▁Who	-12.4443
kta	-12.445
▁krot	-12.4469
▁leep	-12.447
ross	-12.4478
lanc	-12.448
▁SIM	-12.4486
▁Key	-12.4487
▁uvar	-12.4498
▁stre	-12.45
▁vri	-12.4503
▁elin	-12.4506
▁spen	-12.4508
▁kes	-12.4508
▁beh	-12.4511
HL	-12.4514
iv	-12.4515
azi	-12.4519
ikt	-12.452
urma	-12.4526
▁upon	-12.4557
▁rton	-12.456
▁cry	-12.4563
ilg	-12.4566
▁anto	-12.458
▁Oy	-12.4583
▁anga	-12.4585
▁garn	-12.4608
op	-12.4613
ail	-12.4614
▁Jä	-12.4618
▁ging	-12.4625
▁svin	-12.4627
▁abil	-12.4637
▁Che	-12.4637
åge	-12.465
▁rbo	-12.4661
▁ilje	-12.4661
▁vilt	-12.4664
gar	-12.4664
ff	-12.4665
VS	-12.4667
▁pus	-12.4669
▁prin	-12.4677
▁Em	-12.4698
▁^^	-12.4703
▁−	-12.4703
▁[1]	-12.4704
▁❤	-12.4704
▁knep	-12.4709
▁PVC	-12.471
TV	-12.4717
▁ngol	-12.4717
HS	-12.4719
▁wich	-12.4719
▁nand	-12.4725
▁seud	-12.4726
▁Borg	-12.4727
oghu	-12.4732
▁ims	-12.4733
IO	-12.4737
▁eg	-12.4743
IFA	-12.4743
▁ssen	-12.4755
▁Vis	-12.4757
▁tram	-12.4761
▁kate	-12.4763
▁acon	-12.4763
▁trai	-12.4769
▁suge	-12.4778
▁följe	-12.4779
▁dic	-12.478
▁Eu	-12.4785
▁veni	-12.4793
SA	-12.4795
▁glam	-12.4797
▁nakna	-12.4824
▁53	-12.4824
unne	-12.4826
äkna	-12.4828
str	-12.4832
OR	-12.4835
▁ABC	-12.485
▁rodd	-12.4852
▁kto	-12.4861
lé	-12.4866
▁Les	-12.4868
agor	-12.487
por	-12.4885
▁MD	-12.4906
▁väkt	-12.4909
lean	-12.4921
▁kät	-12.4921
▁rpa	-12.4922
zy	-12.4926
▁nday	-12.4931
▁Sea	-12.4936
▁ukar	-12.494
),	-12.4945
▁Creek	-12.495
länd	-12.4971
▁Tor	-12.4972
ras	-12.4974
eder	-12.4979
▁AV	-12.4989
▁aldo	-12.5003
▁amel	-12.5005
99	-12.5006
▁Bit	-12.5007
▁erge	-12.501
▁train	-12.5018
▁lum	-12.5019
SI	-12.5023
▁rät	-12.5028
▁vere	-12.5028
up	-12.5029
▁sikte	-12.5031
ler	-12.5034
▁20%	-12.5035
▁link	-12.5042
odo	-12.5065
▁kik	-12.5069
▁VER	-12.5072
▁pulv	-12.508
ick	-12.5082
ach	-12.5082
▁kain	-12.5082
AX	-12.5085
▁soja	-12.5091
▁viol	-12.5099
▁77	-12.5105
mpa	-12.5106
▁nslu	-12.5108
▁airo	-12.511
emy	-12.5118
▁GT	-12.512
▁6:	-12.512
▁yter	-12.5134
▁mok	-12.5138
▁NY	-12.5139
▁ridd	-12.5143
▁kne	-12.5149
▁ekl	-12.5152
▁thon	-12.5152
▁ply	-12.5156
▁ocke	-12.5156
▁hio	-12.5183
ATO	-12.5192
▁vavel	-12.5202
▁Trail	-12.5202
▁oster	-12.5204
▁Vlad	-12.5204
▁olt	-12.5212
▁iger	-12.5215
▁read	-12.5216
▁cip	-12.5218
▁hotel	-12.5218
▁kust	-12.522
▁phia	-12.5224
ite	-12.523
▁ilde	-12.5236
ktiv	-12.5237
▁kalk	-12.5238
▁erba	-12.5243
▁ddy	-12.5244
▁5%	-12.5249
▁JA	-12.525
▁10,	-12.5258
iell	-12.526
▁Juan	-12.5274
ML	-12.5274
▁Leo	-12.5279
▁cif	-12.528
▁anm	-12.528
▁pott	-12.5282
lit	-12.5283
▁Run	-12.5291
▁hytt	-12.5295
▁mins	-12.5303
wa	-12.5308
▁asda	-12.5315
LC	-12.5333
▁vun	-12.5344
▁teen	-12.5349
rak	-12.535
▁rtif	-12.5353
▁Nev	-12.5373
örd	-12.5374
▁iC	-12.5374
▁SÅ	-12.5376
▁tomer	-12.5381
▁utfö	-12.5383
▁tree	-12.5387
▁PRO	-12.5395
.0	-12.5408
ama	-12.5409
▁arh	-12.5412
▁gua	-12.5414
▁toxi	-12.5414
▁cam	-12.5416
▁räs	-12.543
TA	-12.543
Y	-12.5439
ash	-12.545
▁😀	-12.5454
▁DIY	-12.5454
▁José	-12.5455
▁Kni	-12.5456
Hz	-12.5459
▁way	-12.5467
▁gain	-12.5471
▁Grace	-12.5472
▁thy	-12.5472
▁gränd	-12.5475
▁orris	-12.5476
▁empe	-12.5478
▁Era	-12.548
▁fro	-12.5483
▁rench	-12.5487
▁elad	-12.5498
uk	-12.5499
▁situ	-12.5503
▁this	-12.5513
▁turk	-12.5516
▁Ok	-12.5517
phy	-12.5518
▁Zim	-12.5522
ser	-12.5526
zof	-12.5528
▁inci	-12.5531
▁pion	-12.5539
AO	-12.5542
▁vera	-12.5544
▁DE	-12.5544
mb	-12.5544
CR	-12.5545
▁Oil	-12.5546
TM	-12.5562
▁enkl	-12.5562
▁1.1	-12.5571
▁5)	-12.5573
▁rerna	-12.5578
▁ée	-12.5579
▁amå	-12.5585
▁ST	-12.5589
▁Lost	-12.5607
az	-12.5607
rekt	-12.5614
▁allo	-12.5615
▁jacka	-12.5617
▁sser	-12.5621
▁Nel	-12.5622
▁lame	-12.5642
07	-12.5642
▁hydr	-12.5654
▁EP	-12.5657
▁tok	-12.5659
▁oun	-12.567
▁Turn	-12.5674
▁anse	-12.5675
▁lens	-12.569
▁Coc	-12.5695
tet	-12.5707
0	-12.5709
▁tejp	-12.5717
▁big	-12.5719
▁oend	-12.5721
▁eme	-12.5722
▁HPV	-12.5724
▁Bowl	-12.5724
▁chack	-12.5728
null	-12.5728
▁trim	-12.5729
▁ters	-12.5745
▁tigar	-12.5745
▁Lan	-12.5745
nsy	-12.5756
▁tyle	-12.5765
▁%,	-12.5766
▁68	-12.5767
▁tun	-12.5773
▁96	-12.5777
▁käm	-12.5784
▁69	-12.5789
▁leas	-12.5792
ög	-12.5796
son	-12.5807
▁ango	-12.5808
▁lager	-12.5808
▁Ame	-12.581
▁esu	-12.581
rry	-12.582
▁teel	-12.5832
J	-12.5833
PD	-12.5836
oul	-12.584
ögre	-12.584
▁narc	-12.5845
▁Dö	-12.5846
yl	-12.5851
rah	-12.5853
▁ATT	-12.5856
▁irm	-12.5859
▁nant	-12.5866
▁62	-12.5876
▁Ip	-12.5877
BO	-12.5878
▁iaf	-12.5895
chel	-12.5901
▁sed	-12.5901
▁wit	-12.5906
fo	-12.5919
ó	-12.5937
▁klam	-12.5943
rått	-12.596
lans	-12.5961
CC	-12.5961
ulit	-12.5963
fa	-12.5963
▁nutr	-12.5964
27	-12.5965
xakt	-12.5971
ART	-12.5986
▁llâh	-12.5987
▁IFRS	-12.5987
▁■	-12.5988
▁**	-12.5988
▁BMI	-12.5991
▁yard	-12.5992
▁Haag	-12.5995
hara	-12.5996
▁oste	-12.5997
▁doc	-12.6
ray	-12.6008
▁Wa	-12.6012
▁onny	-12.6015
▁mah	-12.6027
▁dget	-12.6032
ulla	-12.6042
cker	-12.6058
▁Dry	-12.6078
ally	-12.6082
ram	-12.6091
rati	-12.6093
▁rary	-12.6093
▁anu	-12.6093
▁lappa	-12.6096
erry	-12.61
▁83	-12.6103
▁AND	-12.612
▁9,	-12.6124
▁ED	-12.6133
▁Hub	-12.6135
rad	-12.6141
▁truck	-12.6143
▁Rod	-12.6147
ara	-12.6147
tz	-12.6149
▁Ship	-12.6164
▁IRA	-12.6171
▁llu	-12.6186
▁Kit	-12.6193
▁00	-12.6195
ahl	-12.6198
▁IF	-12.6205
▁lts	-12.6206
▁rulle	-12.6211
▁agl	-12.6217
▁eft	-12.6221
▁SP	-12.6223
▁lof	-12.6223
▁korv	-12.6237
▁trid	-12.6246
NA	-12.6251
▁andal	-12.6263
▁©	-12.6265
▁rup	-12.6266
▁urray	-12.6268
▁håg	-12.627
▁CS	-12.6275
▁Ltd	-12.6276
▁rrow	-12.6276
▁ney	-12.6277
▁Mos	-12.6282
▁Bali	-12.6285
▁nsus	-12.6298
▁tjur	-12.6304
ani	-12.6313
-7	-12.6323
▁ALD	-12.6326
▁kola	-12.6328
PM	-12.6331
▁Nat	-12.6331
▁stam	-12.6344
▁88	-12.6348
▁såra	-12.6369
▁bell	-12.6378
lek	-12.6383
▁igan	-12.639
▁Eras	-12.6397
▁Bru	-12.6397
ay	-12.6398
▁tjär	-12.6405
▁genus	-12.641
▁aml	-12.6412
US	-12.6418
▁place	-12.642
▁tras	-12.6426
olla	-12.645
án	-12.6451
▁98	-12.6451
▁tax	-12.6463
▁gou	-12.6464
dex	-12.6473
sch	-12.6481
▁begr	-12.6489
lapp	-12.6489
atri	-12.6491
edel	-12.6494
28	-12.6515
low	-12.6528
▁uli	-12.654
ling	-12.6548
ady	-12.6548
▁make	-12.655
▁LEGO	-12.6551
▁Marg	-12.6553
▁rowd	-12.6557
▁mper	-12.656
gra	-12.6562
han	-12.6564
▁kock	-12.6567
6%	-12.657
▁admin	-12.6573
▁ekom	-12.6574
▁70%	-12.6583
▁opul	-12.6584
▁apita	-12.6596
▁Out	-12.6598
▁lump	-12.6603
▁efa	-12.6606
rin	-12.6612
▁Mål	-12.6614
▁tena	-12.6618
▁sitet	-12.6618
▁reud	-12.6618
▁proc	-12.6619
▁aiti	-12.6626
▁agog	-12.6627
▁â	-12.6632
▁AF	-12.6632
AT	-12.6637
▁odra	-12.6645
BP	-12.6646
▁2.1	-12.665
▁kea	-12.6657
▁ship	-12.666
ley	-12.6665
eth	-12.6666
▁Gil	-12.6667
▁lama	-12.6668
▁karb	-12.6681
▁jorde	-12.6683
▁värg	-12.6683
▁rdi	-12.6686
▁lila	-12.6713
▁FC	-12.6714
▁pell	-12.6719
▁idiga	-12.672
▁Stock	-12.6724
▁she	-12.6725
ntra	-12.673
▁tif	-12.6741
▁pyr	-12.675
▁tå	-12.675
UR	-12.6755
▁DIN	-12.6772
▁äckl	-12.6784
▁lånat	-12.6789
RC	-12.6791
▁xan	-12.6802
▁grus	-12.6817
▁EC	-12.6823
▁emis	-12.6826
▁yde	-12.6835
18	-12.6839
▁mäll	-12.6843
▁CEO	-12.6848
▁ause	-12.6855
▁RIG	-12.6856
▁IBM	-12.6862
.6	-12.6862
▁bulk	-12.6864
▁dow	-12.6866
▁Vari	-12.687
▁nkl	-12.688
▁Shu	-12.6882
▁rerar	-12.6893
▁omis	-12.6899
▁lyn	-12.69
CS	-12.6902
gör	-12.6902
▁IRS	-12.6902
▁Box	-12.6902
▁indel	-12.6906
▁roc	-12.6912
▁1%	-12.6913
irra	-12.6918
▁Doo	-12.692
▁Koh	-12.692
▁thri	-12.6922
▁akto	-12.6922
▁FB	-12.6924
▁rdom	-12.6928
pel	-12.6928
▁neo	-12.6929
▁LÄS	-12.6934
▁pil	-12.6947
▁gale	-12.6948
▁Crai	-12.6948
▁Tea	-12.6948
▁brå	-12.6954
▁Xi	-12.6958
uff	-12.6959
CG	-12.6964
▁issen	-12.6964
▁arq	-12.6968
▁Siri	-12.6968
essa	-12.6969
▁Blå	-12.6972
oli	-12.6974
▁bac	-12.6976
▁best	-12.6976
ESK	-12.6979
▁vets	-12.6982
▁9.	-12.6987
IX	-12.6994
▁Maya	-12.6996
▁Lega	-12.7005
▁orb	-12.7008
▁kupp	-12.7008
▁störs	-12.7015
▁Glä	-12.7019
▁neu	-12.7021
▁othi	-12.7022
▁Sta	-12.704
▁MW	-12.704
55	-12.7045
▁UN	-12.7046
▁aba	-12.7053
▁Fit	-12.7055
▁odk	-12.7055
.5	-12.7062
▁",	-12.7063
erg	-12.7064
▁RAM	-12.7071
▁87	-12.7073
▁71	-12.7079
▁jäst	-12.708
▁astu	-12.7093
▁pill	-12.7098
▁alia	-12.71
ädda	-12.7106
$	-12.7111
▁main	-12.7118
▁Wat	-12.712
tid	-12.7121
ök	-12.7123
▁Sol	-12.7124
dr	-12.7125
▁enhe	-12.7131
Då	-12.7142
▁lef	-12.7143
	-12.7148
▁AIDS	-12.7148
▁gull	-12.7149
▁Bosch	-12.7149
▁NFL	-12.715
▁Drug	-12.715
▁eser	-12.7151
▁Lotto	-12.7152
▁lpha	-12.7155
▁LCD	-12.7159
▁ljö	-12.7159
▁Room	-12.7166
▁atson	-12.7166
▁odd	-12.7168
▁paus	-12.7169
nny	-12.7177
17	-12.7182
CO	-12.7183
▁efte	-12.719
ap	-12.7191
▁otte	-12.7193
ther	-12.7194
▁ukten	-12.7197
▁rice	-12.7199
▁LG	-12.7199
▁XL	-12.7202
▁Far	-12.7205
ec	-12.7206
▁älv	-12.7217
▁odul	-12.7217
▁74	-12.7218
IB	-12.7219
49	-12.722
▁gena	-12.7226
▁Nån	-12.7229
▁Coll	-12.7234
gon	-12.7238
▁Natt	-12.7239
▁stöt	-12.7241
▁ranz	-12.7247
▁utter	-12.7248
SE	-12.7248
▁ots	-12.7251
▁isse	-12.7252
CP	-12.7253
▁gio	-12.7256
▁Sigm	-12.7272
EX	-12.7281
▁ruar	-12.7295
▁järt	-12.7301
▁FI	-12.7311
▁vilo	-12.7311
▁Say	-12.7312
aldi	-12.7312
▁yon	-12.732
▁name	-12.7321
▁how	-12.7329
▁uva	-12.7329
▁vslu	-12.7347
▁Lago	-12.735
▁sek	-12.735
emi	-12.7351
▁13.	-12.7353
▁rush	-12.7356
▁mund	-12.7357
OK	-12.736
STE	-12.7361
▁xy	-12.7365
2,	-12.737
▁lvi	-12.737
WS	-12.7376
lö	-12.7376
+	-12.7382
ate	-12.7383
che	-12.7387
NT	-12.7396
▁Drak	-12.7403
▁giss	-12.7403
▁Rea	-12.7406
▁Coco	-12.7406
SS	-12.7414
▁Trek	-12.7415
▁OR	-12.7422
16	-12.7431
▁idd	-12.7431
SD	-12.7437
▁pak	-12.7443
aci	-12.7443
▁EPA	-12.7444
Gå	-12.7447
▁Id	-12.745
8%	-12.7457
▁▌	-12.746
▁Cruz	-12.7462
▁(6)	-12.7463
▁tadga	-12.7466
▁låder	-12.7467
▁Way	-12.7471
▁Kill	-12.7471
▁Hår	-12.7471
▁rylar	-12.7473
▁ocus	-12.7478
▁MHz	-12.7484
▁lyx	-12.7485
▁GO	-12.7485
▁ågor	-12.7486
▁hima	-12.7487
▁Vera	-12.7489
▁Cut	-12.7492
1%	-12.7493
▁Cat	-12.7497
▁Wel	-12.7509
▁GMO	-12.7519
▁orro	-12.7519
▁Gar	-12.7519
▁Sho	-12.7523
▁eds	-12.7525
ici	-12.7525
▁Г	-12.7528
▁Alf	-12.7531
▁Dame	-12.7537
amt	-12.7542
▁huse	-12.7543
kön	-12.7544
▁SIS	-12.7545
▁dex	-12.7552
▁#2	-12.7559
▁cG	-12.757
hua	-12.7582
▁bach	-12.7589
ina	-12.7589
▁IAS	-12.759
▁ndus	-12.7593
▁elan	-12.7594
▁Hz	-12.7602
▁hafv	-12.7604
▁astr	-12.7605
alto	-12.7606
▁fat	-12.7611
▁Rum	-12.7616
▁naiv	-12.762
▁onfe	-12.7634
▁Use	-12.7634
▁IR	-12.7649
EL	-12.7654
–	-12.7664
▁estå	-12.7668
▁urb	-12.7678
▁alge	-12.7684
nt	-12.7684
▁gart	-12.7689
ius	-12.7699
▁pate	-12.7704
▁cK	-12.771
vy	-12.771
▁Rome	-12.7715
75	-12.7723
▁Rob	-12.7723
▁tipp	-12.7729
▁artn	-12.7735
▁Zen	-12.7738
akt	-12.774
KA	-12.7744
rey	-12.7748
▁nlä	-12.775
▁NSA	-12.7755
▁Iri	-12.7767
CD	-12.7773
▁Nog	-12.7776
▁Peace	-12.7783
▁onaco	-12.7785
age	-12.7785
▁BIM	-12.7788
ISS	-12.779
ph	-12.7793
▁Guy	-12.7795
▁litu	-12.7796
▁yahu	-12.7799
▁satan	-12.7802
▁sagd	-12.7802
▁ranc	-12.7807
▁alfa	-12.7811
▁CA	-12.7812
ön	-12.7813
▁Kyl	-12.7813
▁12.	-12.7814
▁ydd	-12.7819
Z	-12.782
▁LAN	-12.7831
dj	-12.7838
▁ancy	-12.7844
▁Oz	-12.7846
▁ausa	-12.7846
▁86	-12.7851
▁MI	-12.7853
▁Dal	-12.7858
▁240	-12.7859
▁Bred	-12.7877
▁Craz	-12.789
▁cend	-12.789
llum	-12.7896
▁gap	-12.7897
▁61	-12.79
▁Låg	-12.7903
nn	-12.7929
▁haka	-12.7943
▁pip	-12.7947
lin	-12.7959
▁Hop	-12.7964
▁itz	-12.7972
rimm	-12.7977
▁Age	-12.7994
iro	-12.8004
▁ablo	-12.8011
▁eB	-12.8013
▁whit	-12.8017
▁örn	-12.803
▁nis	-12.8037
▁Nav	-12.8044
▁cA	-12.8046
▁Yu	-12.8047
DS	-12.8058
▁krok	-12.8063
▁??	-12.8064
▁say	-12.8064
oké	-12.8071
▁sack	-12.8072
▁RS	-12.8072
▁anis	-12.8073
▁Nea	-12.808
▁phy	-12.8082
end	-12.8084
▁tärn	-12.8088
OW	-12.8096
’	-12.8096
4%	-12.8097
▁åga	-12.8106
ã	-12.8116
▁;-)	-12.8117
▁fant	-12.8119
▁guay	-12.8119
▁djö	-12.8122
▁Nano	-12.8122
▁ouver	-12.8123
▁ÄLSK	-12.8124
▁Zoo	-12.8126
▁Lina	-12.8127
▁LLC	-12.8132
▁vågat	-12.8133
▁opco	-12.8137
▁urry	-12.8139
▁lent	-12.814
▁stuga	-12.814
▁hejd	-12.8141
▁Shel	-12.8142
LS	-12.8143
▁Roy	-12.8148
▁BTC	-12.8152
▁gräl	-12.8152
▁cid	-12.8153
▁VA	-12.8154
yn	-12.8155
▁Aru	-12.816
▁25%	-12.8164
yer	-12.8164
NC	-12.8167
▁mmor	-12.8167
▁pane	-12.8168
▁73	-12.8178
▁edar	-12.8202
▁kW	-12.8202
▁spik	-12.8205
▁DEN	-12.821
▁lata	-12.8214
▁visk	-12.8221
▁DS	-12.8225
rich	-12.8228
▁dame	-12.8229
▁hyp	-12.8241
▁abyl	-12.8241
ew	-12.825
▁prak	-12.8254
KF	-12.8255
▁Naz	-12.8256
▁1.2	-12.8257
▁högs	-12.8267
▁enus	-12.827
▁tul	-12.827
▁prem	-12.8274
▁hårb	-12.828
mme	-12.829
▁brann	-12.8291
▁nemi	-12.8294
▁Plat	-12.8297
▁FA	-12.8302
ärm	-12.8303
▁döva	-12.8303
▁Jay	-12.8307
▁bun	-12.8311
▁tamp	-12.8318
▁lond	-12.833
▁urat	-12.8338
ux	-12.8346
▁tua	-12.835
▁Boy	-12.835
▁Kli	-12.8369
▁Cle	-12.8371
eck	-12.8372
ba	-12.8375
PP	-12.8378
lvin	-12.8378
▁IC	-12.8381
racy	-12.8384
▁Wii	-12.8385
▁8:	-12.8392
▁törd	-12.8398
▁Trö	-12.8399
▁vanna	-12.84
SQL	-12.8406
GEN	-12.8406
bon	-12.8408
<	-12.8418
MA	-12.8426
▁dott	-12.8428
▁iali	-12.8435
▁76	-12.8447
▁ält	-12.8454
▁thi	-12.8456
TC	-12.8461
▁nabol	-12.8465
HA	-12.8466
TI	-12.8471
▁ETF	-12.8474
▁olex	-12.8487
NG	-12.8491
ofi	-12.8493
▁PA	-12.8493
oken	-12.8494
▁cript	-12.8494
▁Lama	-12.8497
ran	-12.8498
▁Plato	-12.8499
▁Brain	-12.8499
▁tjus	-12.8501
ido	-12.8503
dri	-12.8513
sey	-12.8515
▁yu	-12.8521
▁6)	-12.8523
▁edal	-12.8526
jol	-12.853
▁herd	-12.854
▁spol	-12.8541
▁Um	-12.8545
▁79	-12.8547
▁Hav	-12.8559
▁Our	-12.8567
▁Oss	-12.8575
▁ALS	-12.8576
▁stran	-12.8581
ST	-12.8587
ED	-12.8587
UT	-12.8588
▁song	-12.8588
▁torp	-12.8596
▁ORD	-12.8597
▁Vero	-12.861
GA	-12.8611
▁tran	-12.8615
▁prid	-12.862
ving	-12.8634
▁pry	-12.8635
SU	-12.8638
▁kokt	-12.8639
iz	-12.8644
▁bat	-12.8649
▁Leon	-12.8653
▁ärma	-12.8658
▁loo	-12.8667
▁helg	-12.8669
▁sms	-12.867
▁drig	-12.8675
▁CON	-12.8678
▁92	-12.8679
▁MEN	-12.8681
▁ummo	-12.8688
▁åkan	-12.8689
▁cup	-12.8691
FS	-12.8704
erin	-12.871
▁jaka	-12.8717
▁rose	-12.8717
amma	-12.8728
AST	-12.8734
dla	-12.8737
▁NI	-12.8746
▁kubi	-12.8755
pi	-12.8756
▁GM	-12.8762
▁AG	-12.8763
▁GP	-12.8771
▁någo	-12.8772
▁Nät	-12.8772
ary	-12.8774
dl	-12.8774
▁lisa	-12.8777
▁iken	-12.8782
▁nem	-12.8782
ess	-12.8787
▁nans	-12.8794
▁oldi	-12.8799
gi	-12.8807
▁Vall	-12.8807
uro	-12.8813
ator	-12.8817
▁nver	-12.8817
̊	-12.8818
▁Wheel	-12.882
▁knopp	-12.882
▁rme	-12.8822
▁pard	-12.8822
▁irror	-12.8824
▁rez	-12.8826
▁ÅF	-12.8827
▁kvm	-12.8828
▁ndhi	-12.8829
▁:(	-12.883
▁style	-12.8831
▁hood	-12.8832
▁dräp	-12.8835
▁TED	-12.8835
▁UPS	-12.8837
▁stedt	-12.8837
▁eyno	-12.8838
▁azak	-12.8843
45	-12.8848
▁Aur	-12.8852
▁Shell	-12.8853
▁HTTP	-12.8858
▁ditor	-12.8872
▁Corr	-12.8872
▁agul	-12.8873
agi	-12.8873
▁arbor	-12.888
▁tirr	-12.8882
▁itte	-12.8891
▁arth	-12.8898
▁750	-12.8901
▁Fan	-12.8901
▁lert	-12.891
bul	-12.8913
▁jogg	-12.8915
▁etyl	-12.8915
▁tång	-12.8916
▁rgar	-12.8917
▁MÅ	-12.8937
▁Bah	-12.8938
▁Roch	-12.894
▁rigo	-12.8942
▁drad	-12.8947
▁Host	-12.8954
▁SEB	-12.8964
▁awk	-12.8969
▁otent	-12.8969
▁ICA	-12.8975
▁kink	-12.8977
▁Cu	-12.8977
13	-12.8994
▁ping	-12.8999
▁merit	-12.9001
ox	-12.9008
unna	-12.9014
jar	-12.9016
▁Coo	-12.902
PT	-12.9021
▁kuli	-12.9028
▁Ont	-12.9032
▁öjli	-12.9039
▁ppe	-12.9051
hang	-12.9052
one	-12.9055
FK	-12.9057
37	-12.9061
▁tring	-12.9061
tell	-12.9062
▁rbe	-12.9068
▁lop	-12.9075
▁pann	-12.9092
uka	-12.9095
▁tex	-12.9102
▁arate	-12.9103
axo	-12.9108
*	-12.9111
LP	-12.9114
ej	-12.9118
▁river	-12.912
tick	-12.9126
▁nod	-12.9141
▁vink	-12.9147
ub	-12.9148
▁tigg	-12.9162
▁CSS	-12.9162
▁OP	-12.9169
▁löjt	-12.9173
▁Ver	-12.9174
▁82	-12.9178
EST	-12.9179
65	-12.918
We	-12.9182
▁male	-12.9183
▁[2]	-12.9189
▁div	-12.9189
▁(9)	-12.9189
▁hvad	-12.9189
▁×	-12.919
▁kakor	-12.9191
▁hehe	-12.9191
▁Grill	-12.9192
Ta	-12.9193
▁Jazz	-12.9193
▁heart	-12.9196
▁jour	-12.9197
▁75%	-12.9205
▁Ted	-12.9208
▁Mkr	-12.9209
▁boy	-12.9211
VF	-12.9212
▁2.0	-12.9212
ardi	-12.9216
▁elhi	-12.9219
▁nali	-12.9223
issa	-12.9227
▁ranco	-12.9228
▁py	-12.9231
▁uste	-12.9233
▁8.1	-12.9233
▁liff	-12.9248
▁galan	-12.925
▁Ye	-12.9252
▁salt	-12.9254
ogra	-12.9262
▁tabu	-12.9262
▁derl	-12.9265
aq	-12.9273
▁ZE	-12.9273
▁Vers	-12.9276
▁cal	-12.9277
gy	-12.9277
▁ACK	-12.9286
▁kub	-12.9298
▁Hyr	-12.9299
▁drade	-12.93
gga	-12.9302
▁any	-12.9316
31	-12.9317
▁cast	-12.9318
▁SV	-12.9336
▁hore	-12.9338
BE	-12.9338
TR	-12.9341
enz	-12.9345
24	-12.9356
▁Bur	-12.9357
uzz	-12.9372
SB	-12.9373
iki	-12.9386
▁gasen	-12.9388
▁Bre	-12.9389
▁rake	-12.9392
wo	-12.9402
ES	-12.9403
ham	-12.9406
▁SG	-12.9411
oss	-12.9419
▁IG	-12.9427
▁Cit	-12.9431
RT	-12.9437
▁Mam	-12.9446
76	-12.9453
▁genen	-12.9454
▁(4	-12.9457
AM	-12.9459
▁agli	-12.9461
▁Lean	-12.9462
▁97	-12.9469
▁gree	-12.9481
ipp	-12.9496
▁zig	-12.9496
▁kado	-12.9498
▁bug	-12.9499
▁ddi	-12.9502
odal	-12.9506
eg	-12.9506
ippa	-12.9516
▁MAN	-12.9528
▁ammal	-12.9532
▁nsak	-12.9541
KK	-12.9542
TT	-12.9542
▁haja	-12.9546
▁gst	-12.9551
▁lår	-12.9563
fl	-12.9564
▁IBS	-12.9569
Â	-12.9573
▁PHP	-12.9584
▁à	-12.9584
▁Bou	-12.9587
▁Prix	-12.9587
7%	-12.9588
▁ppi	-12.959
▁yg	-12.9596
▁myt	-12.9596
INA	-12.96
▁anama	-12.9602
SN	-12.9603
FID	-12.9607
▁tain	-12.961
CM	-12.9611
irmi	-12.9611
▁MIT	-12.9623
GC	-12.9624
egär	-12.963
▁ydli	-12.9632
▁170	-12.9633
▁alaga	-12.9636
oni	-12.9646
▁kakao	-12.9648
▁Non	-12.9652
eja	-12.9653
▁kov	-12.9672
▁FM	-12.9674
▁amf	-12.9675
▁zz	-12.9676
▁oshi	-12.9676
▁hun	-12.9678
PF	-12.9679
▁ndon	-12.9685
mur	-12.9685
▁yp	-12.9695
▁bout	-12.9696
▁neur	-12.9702
▁ämn	-12.9702
▁urner	-12.9706
▁gros	-12.9707
▁ghe	-12.9712
▁wai	-12.9717
▁Pier	-12.9721
▁RF	-12.9721
▁cyto	-12.9723
▁LP	-12.9725
DC	-12.9738
▁tmi	-12.9742
ré	-12.9743
▁Cow	-12.9745
▁She	-12.9752
▁lave	-12.9774
▁ppl	-12.9776
aaS	-12.9778
ros	-12.9778
▁Cal	-12.9781
UM	-12.9782
>	-12.9788
jk	-12.9794
▁ped	-12.9799
▁Cole	-12.9802
▁ampa	-12.9807
SR	-12.9807
2.	-12.9809
opco	-12.9809
▁rson	-12.9815
hl	-12.9822
▁vigd	-12.9825
▁Lön	-12.9836
▁RO	-12.9838
▁2%	-12.9842
▁89	-12.9851
▁Gau	-12.9864
▁vels	-12.9869
vent	-12.9869
AD	-12.9869
cul	-12.9877
▁GI	-12.988
▁iant	-12.9884
▁11.	-12.9884
▁sama	-12.9893
rka	-12.9893
▁eks	-12.9897
▁Lev	-12.9902
▁ICT	-12.9906
▁bao	-12.9911
▁tang	-12.992
▁torv	-12.9939
▁akel	-12.9939
▁uddi	-12.9939
▁pice	-12.9942
ans	-12.9947
▁oren	-12.9948
▁ipa	-12.9956
▁kafé	-12.9957
▁köt	-12.9959
kre	-12.9961
▁ekn	-12.9962
▁ICO	-12.997
ix	-12.997
▁„	-12.9974
nock	-12.9974
▁FAQ	-12.9975
▁SSAB	-12.9976
▁imber	-12.9979
▁bbey	-12.9979
▁irth	-12.9979
26	-12.9982
▁sekel	-12.9984
▁arald	-12.9987
95	-12.9988
▁leo	-12.9989
▁ajak	-12.9989
▁Bry	-12.9991
▁Nja	-12.9992
▁drift	-12.9992
▁lytt	-12.9993
▁NFC	-12.9993
▁Train	-12.9996
▁lanom	-12.9997
▁oost	-12.9999
▁lton	-12.9999
▁ophie	-13
rat	-13.0001
▁Ida	-13.001
▁1/	-13.0014
▁FEU	-13.0017
2%	-13.0023
▁MED	-13.0043
▁Wri	-13.0044
▁almar	-13.0044
▁lger	-13.0048
▁15%	-13.005
DM	-13.0053
enne	-13.0093
▁vass	-13.0095
▁Cir	-13.0099
▁15.	-13.0102
AY	-13.0104
▁List	-13.0112
▁than	-13.0115
RL	-13.0115
▁lpin	-13.0117
▁ndela	-13.0127
▁BB	-13.0134
▁santo	-13.0143
▁CDC	-13.0144
▁nné	-13.0149
MX	-13.015
▁row	-13.0153
ito	-13.0157
▁allon	-13.0158
▁bety	-13.0161
▁lavo	-13.0161
▁morf	-13.0164
ISA	-13.0177
▁WW	-13.018
▁lickr	-13.0186
▁grev	-13.0186
▁Vind	-13.0195
pru	-13.0201
▁gru	-13.0204
▁Pay	-13.0205
▁grin	-13.0211
▁innar	-13.0211
IT	-13.0263
▁DN	-13.0266
▁ondo	-13.0267
kov	-13.027
RS	-13.027
omo	-13.0281
▁BA	-13.0283
▁Mai	-13.0286
BD	-13.0288
ille	-13.0294
Wh	-13.0302
19	-13.0304
▁UC	-13.0307
▁dome	-13.0312
▁sator	-13.0318
▁iM	-13.0325
▁oba	-13.0329
mp	-13.0329
ella	-13.0332
▁ANDE	-13.034
▁ussa	-13.0344
33	-13.0348
▁nimm	-13.0363
▁ESO	-13.0373
▁SM	-13.0373
▁iris	-13.0375
▁BI	-13.0387
▁lds	-13.0389
±	-13.039
▁where	-13.0391
▁Gib	-13.0392
▁ogram	-13.0395
YP	-13.0396
▁ume	-13.0396
▁eymar	-13.0397
ING	-13.04
▁99%	-13.0401
▁ngio	-13.0401
▁urv	-13.0405
▁Why	-13.0408
▁unny	-13.041
▁ez	-13.0411
▁oute	-13.0414
▁SSM	-13.0417
▁ersp	-13.0424
▁175	-13.0431
▁nowd	-13.0437
▁jell	-13.0449
▁alib	-13.045
GB	-13.0452
TF	-13.0455
bjud	-13.0457
▁novo	-13.0457
▁tapl	-13.0459
▁ogra	-13.0462
▁mour	-13.0462
56	-13.0466
▁Usa	-13.0469
▁nåde	-13.047
▁Off	-13.0476
▁Neo	-13.0477
▁apit	-13.0478
ird	-13.0479
▁Gay	-13.0484
▁Yo	-13.0485
▁tura	-13.049
▁ISIS	-13.0491
tron	-13.05
▁uci	-13.0504
▁NCC	-13.0507
▁unne	-13.0511
▁Röd	-13.0513
▁kass	-13.0516
▁tule	-13.0518
▁Six	-13.052
SF	-13.0521
▁UPP	-13.0526
ini	-13.0547
▁uar	-13.0549
▁mack	-13.0553
▁AL	-13.0554
▁lore	-13.0558
▁udde	-13.0559
thei	-13.0559
▁(5	-13.056
iza	-13.0566
vans	-13.0569
▁rsl	-13.0575
hol	-13.0575
▁cow	-13.0578
▁dåd	-13.0584
▁Wing	-13.0585
▁auer	-13.0587
IA	-13.0602
▁zar	-13.0609
▁Byt	-13.0612
▁olan	-13.0614
▁7:	-13.0615
▁USS	-13.0616
▁dale	-13.0631
▁TEN	-13.0637
▁gaf	-13.0637
öva	-13.0661
isé	-13.0661
▁rger	-13.0662
▁20.	-13.0664
▁fol	-13.0666
▁taxa	-13.0667
▁cCo	-13.0669
▁EMS	-13.0671
▁haw	-13.0673
▁ennor	-13.068
▁ennan	-13.0683
▁ruck	-13.0684
▁lava	-13.0684
▁outi	-13.0686
66	-13.0689
▁ME	-13.069
pres	-13.0691
▁valv	-13.0701
▁vni	-13.0703
▁aram	-13.0706
▁alam	-13.0714
▁kryt	-13.072
▁may	-13.0726
▁äka	-13.0728
▁reti	-13.0736
▁trop	-13.0745
ska	-13.0749
ragi	-13.0776
▁väv	-13.0778
vs	-13.0779
▁MC	-13.078
▁rva	-13.0783
mar	-13.0792
▁tella	-13.0797
▁KAN	-13.0804
▁Dix	-13.0807
▁RE	-13.081
▁Map	-13.0817
▁LIGEN	-13.0825
▁peace	-13.0825
▁rnold	-13.0826
▁akota	-13.0826
har	-13.0827
▁SAP	-13.0827
▁hyfs	-13.0832
▁MR	-13.0832
▁vrak	-13.0833
▁obyl	-13.0833
▁urton	-13.0833
▁EBA	-13.0833
▁illo	-13.0836
▁asca	-13.0837
▁LNG	-13.084
1.	-13.0841
▁Dawn	-13.0842
▁alph	-13.0842
▁gge	-13.0843
▁stäm	-13.0846
▁AU	-13.0846
▁EBI	-13.0847
▁egre	-13.0851
▁101	-13.0853
▁flät	-13.0856
▁MTV	-13.086
▁Grif	-13.0874
▁lugg	-13.0875
tö	-13.0877
▁Yun	-13.0879
▁herde	-13.0881
▁ndora	-13.0881
▁Soul	-13.0885
41	-13.0886
▁ulos	-13.0889
▁apte	-13.0892
▁trio	-13.0895
▁acto	-13.0897
▁azar	-13.0903
AP	-13.0905
TIP	-13.0909
▁itty	-13.0915
▁SER	-13.0917
▁jk	-13.0927
kärm	-13.0929
▁CT	-13.0937
lj	-13.0939
▁apse	-13.0941
▁lde	-13.0947
vin	-13.0947
▁ntum	-13.0954
poni	-13.0963
SG	-13.0965
uth	-13.097
▁arda	-13.0974
▁arsh	-13.0974
ice	-13.0984
▁BS	-13.0985
▁Bon	-13.0986
väng	-13.0987
▁pade	-13.0987
▁rtis	-13.0989
▁gans	-13.1001
ens	-13.1001
kåp	-13.1002
uta	-13.1009
▁trav	-13.1012
21	-13.1013
ITT	-13.1021
▁(3	-13.1023
▁lain	-13.1028
▁1).	-13.1028
▁Mah	-13.103
▁Mrs	-13.1031
nde	-13.1034
▁göt	-13.1034
▁ohn	-13.1048
▁anst	-13.1053
sid	-13.1053
pid	-13.1059
▁IX	-13.1062
▁erby	-13.1064
▁orra	-13.1067
▁low	-13.1071
▁lamp	-13.1072
▁Rap	-13.1082
▁arka	-13.1085
▁acke	-13.109
▁urd	-13.1091
▁ESA	-13.1099
▁arvey	-13.1107
▁VIS	-13.1115
▁jäkl	-13.1116
SK	-13.112
QL	-13.1124
▁Ola	-13.1141
bi	-13.1145
▁inkl	-13.1154
ust	-13.1158
▁IL	-13.1162
rmor	-13.1166
nom	-13.1178
▁...”	-13.1182
etro	-13.1204
▁Öl	-13.1209
▁oros	-13.121
▁wil	-13.1213
▁dali	-13.1218
tiv	-13.1218
▁kå	-13.1221
▁nacke	-13.1222
▁Job	-13.1222
▁Eri	-13.1232
▁låd	-13.1241
ump	-13.1242
OL	-13.1243
avy	-13.1251
▁kade	-13.1253
UP	-13.1277
▁arch	-13.128
▁lint	-13.1282
▁Crow	-13.1285
-6	-13.1285
▁käte	-13.1291
▁tårna	-13.1292
▁osca	-13.1299
ubi	-13.1305
▁SF	-13.1308
▁kodil	-13.1308
izb	-13.1311
▁94	-13.1316
▁amai	-13.1318
RO	-13.1322
▁homa	-13.1322
▁phop	-13.1324
▁tail	-13.1328
▁boot	-13.1332
TER	-13.1334
▁MIN	-13.1334
▁sim	-13.1356
▁Track	-13.1356
▁ryan	-13.136
of	-13.1361
▁ssla	-13.1361
▁Nest	-13.1362
▁Vel	-13.1366
▁nou	-13.137
▁DR	-13.1372
▁behö	-13.1374
usto	-13.1374
▁ware	-13.1391
hur	-13.1399
▁Shah	-13.1405
▁rote	-13.141
▁Roms	-13.1413
▁Low	-13.1416
▁anana	-13.1422
▁INGE	-13.1423
▁unn	-13.1428
▁STOR	-13.1429
ou	-13.1444
▁Mix	-13.145
▁dröv	-13.145
▁ART	-13.1455
▁PT	-13.1456
▁addl	-13.1458
▁oppe	-13.1458
▁buy	-13.1459
▁Ale	-13.1467
▁ily	-13.147
88	-13.1478
▁lips	-13.1489
▁pens	-13.1491
▁shu	-13.1501
▁Mor	-13.1503
osh	-13.1505
rew	-13.1508
▁Rut	-13.151
▁frö	-13.1521
▁usel	-13.1528
TD	-13.1529
ork	-13.1531
▁Kai	-13.1532
▁llf	-13.1532
dy	-13.1534
▁Bus	-13.1538
▁nse	-13.1542
▁PP	-13.155
63	-13.1555
▁ägo	-13.1559
tra	-13.1561
▁Bala	-13.1562
▁Mak	-13.1564
▁kip	-13.1566
epp	-13.1572
SC	-13.1573
▁map	-13.1576
▁ambu	-13.1577
▁Kur	-13.1578
▁ercy	-13.1579
dame	-13.1583
▁lina	-13.1583
▁kån	-13.1585
▁12,	-13.16
▁beck	-13.1604
▁kula	-13.161
▁rve	-13.1615
▁MSC	-13.1616
DP	-13.1616
▁XC	-13.1623
bra	-13.1624
▁Nep	-13.1626
SH	-13.163
▁IE	-13.163
▁läm	-13.1632
▁vö	-13.1633
▁osu	-13.1633
lys	-13.1635
runn	-13.164
lang	-13.1645
▁Ret	-13.1648
▁9:	-13.1649
▁who	-13.1655
ren	-13.1656
salo	-13.1659
▁Klei	-13.1662
▁Varg	-13.1672
▁enzi	-13.1676
klu	-13.1677
▁tep	-13.1687
▁Shin	-13.1691
ron	-13.1692
14	-13.1702
▁Dog	-13.1702
▁arak	-13.1702
▁stak	-13.1703
▁Ting	-13.1705
°	-13.171
▁ercu	-13.1719
43	-13.172
sto	-13.1729
▁COP	-13.1731
rink	-13.1743
▁unta	-13.1745
▁NYC	-13.175
▁yga	-13.1751
iaz	-13.1751
▁BBQ	-13.1755
▁rilla	-13.1756
▁rowth	-13.1756
▁Zeus	-13.1756
▁(7)	-13.1757
▁ACE	-13.1758
▁Vy	-13.1759
▁reeze	-13.176
▁itti	-13.1761
68	-13.1763
▁CFO	-13.1765
▁Maker	-13.1765
▁skål	-13.1765
▁108	-13.1766
Ty	-13.1766
▁Wy	-13.1766
▁lakan	-13.1771
chi	-13.1771
▁gold	-13.1772
▁MTG	-13.1773
-1	-13.1774
TW	-13.1777
▁yond	-13.1782
▁EX	-13.1783
▁Doug	-13.1786
▁xD	-13.1787
VER	-13.1789
▁NV	-13.179
▁dwin	-13.1793
▁ISKA	-13.1793
ji	-13.1798
oro	-13.18
▁zill	-13.1802
▁ömma	-13.1804
▁XS	-13.1805
esh	-13.1807
try	-13.1807
uch	-13.1809
▁mach	-13.1812
▁Malin	-13.1815
▁TDA	-13.182
▁ooth	-13.1822
▁athy	-13.1823
▁nco	-13.1825
rakt	-13.1825
▁EF	-13.1826
▁Pedr	-13.1826
▁bdul	-13.1826
42	-13.1829
▁kväv	-13.1834
FA	-13.1839
▁heja	-13.1847
▁kabel	-13.185
▁arion	-13.1851
bor	-13.1867
▁lav	-13.1874
▁eodo	-13.1878
▁RSP	-13.1885
▁döv	-13.1887
▁ngag	-13.1888
rend	-13.189
▁Cox	-13.189
▁box	-13.1891
▁eij	-13.1895
▁HS	-13.1902
▁alai	-13.1905
▁21,	-13.1907
▁vagg	-13.1914
▁DD	-13.1914
▁loft	-13.1915
▁Cap	-13.1919
▁oller	-13.1922
▁ågo	-13.1923
▁lbu	-13.1929
▁93	-13.1933
▁NDE	-13.1935
▁toft	-13.1937
▁IVA	-13.1942
agh	-13.1947
▁cop	-13.1951
egel	-13.1954
▁OH	-13.1955
▁SL	-13.1957
▁äf	-13.196
▁abal	-13.1969
zz	-13.1972
▁18,	-13.1974
▁11,	-13.1978
▁llad	-13.1987
▁llis	-13.1996
▁haj	-13.2008
▁herp	-13.2011
▁Foo	-13.2015
trik	-13.2016
ENT	-13.2016
SAS	-13.2021
DU	-13.2023
▁tiser	-13.2025
▁olda	-13.2028
▁RT	-13.2034
gan	-13.2034
▁ncy	-13.2034
▁17.	-13.2034
64	-13.2034
▁rete	-13.2035
57	-13.2036
ATE	-13.2041
umla	-13.2041
ute	-13.2054
CU	-13.2059
▁bråt	-13.2064
▁FL	-13.208
tas	-13.2088
KP	-13.2091
▁dsa	-13.2098
▁18.	-13.2111
edge	-13.2113
▁Maj	-13.2121
rs	-13.2122
zzo	-13.2123
▁clip	-13.2127
PR	-13.2142
▁razz	-13.2144
II	-13.2151
▁Wire	-13.2155
AK	-13.2157
▁kåla	-13.2161
PO	-13.2161
▁gräd	-13.2161
▁slam	-13.2166
▁hora	-13.2176
▁asan	-13.2193
▁olli	-13.2199
▁FF	-13.2207
▁moji	-13.2211
▁kål	-13.2215
▁taxo	-13.2222
onki	-13.223
fi	-13.223
sion	-13.2231
▁nci	-13.2233
ón	-13.2237
BC	-13.2239
ica	-13.224
ryd	-13.2253
▁stna	-13.2254
▁erth	-13.2254
▁hib	-13.2255
▁✓	-13.2255
▁😊	-13.2255
▸	-13.2255
▁[4]	-13.2255
▁SEC	-13.2256
▁SUV	-13.2256
▁Only	-13.2256
▁Snö	-13.2257
▁gaard	-13.2259
▁GE	-13.2259
▁Gaia	-13.2262
▁Riga	-13.2266
▁COD	-13.2267
▁only	-13.2268
▁AMD	-13.227
▁Bruno	-13.2271
▁ERP	-13.2272
04	-13.2272
▁hawk	-13.2272
▁Boot	-13.2275
▁Zlat	-13.2276
▁HTC	-13.2277
▁NS	-13.2277
▁orwe	-13.2277
9%	-13.2279
▁Ladin	-13.228
▁Mao	-13.2286
▁eresa	-13.2287
FO	-13.2289
rix	-13.2293
aya	-13.2295
rie	-13.2301
▁onne	-13.2304
▁lady	-13.2305
▁320	-13.2309
▁trex	-13.2309
▁Lås	-13.231
▁luck	-13.2313
TSD	-13.2314
PL	-13.2314
lan	-13.232
▁telj	-13.2321
▁Drag	-13.2321
No	-13.2326
▁ICC	-13.233
ich	-13.2334
▁MT	-13.2337
▁AAA	-13.2337
▁Cris	-13.2339
pro	-13.234
▁grer	-13.2341
▁"-	-13.235
▁Thu	-13.2358
▁Zw	-13.2362
ire	-13.2364
▁kvo	-13.2364
MO	-13.2365
▁kyr	-13.2374
▁Yell	-13.2375
▁ölje	-13.2378
RA	-13.2379
rash	-13.2379
▁oge	-13.238
RF	-13.2386
AV	-13.2388
▁kapp	-13.2388
▁chy	-13.2393
GH	-13.2393
▁panna	-13.2393
gär	-13.2396
cent	-13.2396
BN	-13.2399
▁here	-13.2404
▁XI	-13.2406
▁ssur	-13.2407
ez	-13.2413
▁Mayo	-13.2417
▁tryp	-13.242
▁timi	-13.2421
rum	-13.2423
▁ckli	-13.243
▁orner	-13.2432
▁ulit	-13.2435
▁auna	-13.2439
▁lna	-13.2442
▁lärd	-13.2445
▁EOS	-13.2449
▁ibe	-13.245
▁äxt	-13.2459
▁lve	-13.246
DK	-13.2461
▁afa	-13.2464
▁pole	-13.2468
▁reml	-13.2479
▁oz	-13.2482
iq	-13.2485
▁Rä	-13.2489
▁NAS	-13.249
▁Can	-13.2495
▁VAR	-13.2496
▁dju	-13.2497
▁Fuj	-13.2498
▁Zo	-13.25
▁lmen	-13.2506
▁ttl	-13.2507
▁iber	-13.2508
▁fax	-13.2512
▁jl	-13.2515
▁ritz	-13.2515
sam	-13.2517
▁Giga	-13.2523
uto	-13.2526
jen	-13.2526
▁PET	-13.2528
▁hvar	-13.2531
▁Mali	-13.2537
▁asic	-13.2542
kor	-13.2549
▁UR	-13.2556
▁chu	-13.2557
dres	-13.256
tan	-13.2563
lab	-13.2565
▁Mir	-13.2566
▁bock	-13.2571
▁mj	-13.2581
▁isel	-13.2589
▁Ze	-13.2593
aga	-13.2594
▁BC	-13.2596
EFA	-13.2599
▁tukt	-13.2601
▁Rub	-13.2611
▁orw	-13.2616
▁gåta	-13.262
AB	-13.2621
isha	-13.2623
▁AN	-13.2625
▁Gru	-13.2633
▁Hera	-13.2642
▁vaga	-13.2645
▁vsk	-13.2646
eps	-13.2662
uca	-13.2664
▁SI	-13.2667
▁Cam	-13.2671
▁SAM	-13.2672
GS	-13.2686
▁bere	-13.269
▁ows	-13.2691
▁okra	-13.2693
▁ROM	-13.2696
▁ece	-13.2702
▁odge	-13.2711
▁alab	-13.2715
▁nsik	-13.2716
▁nth	-13.2719
▁lato	-13.272
got	-13.2721
▁MAT	-13.2727
▁QR	-13.2728
▁SOS	-13.273
▁arpa	-13.2733
etz	-13.2739
▁Pia	-13.2739
▁loc	-13.2748
▁xx	-13.275
alar	-13.2751
ard	-13.2751
öd	-13.2754
▁mab	-13.2754
CAA	-13.2762
­	-13.2763
VO	-13.2772
▁tria	-13.2774
LUS	-13.2777
▁xo	-13.2781
▁ELAT	-13.2781
▁Zür	-13.2782
▁huket	-13.2782
ytt	-13.2789
▁α	-13.2789
lyv	-13.279
TG	-13.2791
cha	-13.2794
▁yjam	-13.2798
uz	-13.28
▁81	-13.28
▁rsa	-13.2805
▁Dahl	-13.2806
▁XIV	-13.2808
▁phic	-13.2808
▁Name	-13.281
▁Shir	-13.2813
▁//	-13.2815
▁unck	-13.2816
▁guy	-13.2817
▁102	-13.2818
▁Alto	-13.2819
▁släta	-13.2819
▁Feel	-13.2819
▁vene	-13.2821
▁käten	-13.2825
▁Grove	-13.2829
ATA	-13.283
oid	-13.2833
izz	-13.2838
▁pok	-13.284
abel	-13.2844
▁snack	-13.2846
▁Nair	-13.2848
▁ACT	-13.285
▁erpen	-13.2855
▁pillo	-13.2856
▁Gw	-13.2862
▁näck	-13.2865
▁ISS	-13.2872
▁ikon	-13.2874
▁Boss	-13.2877
▁OF	-13.2878
▁krin	-13.288
▁AK	-13.2883
▁Sel	-13.289
▁eader	-13.2901
▁MAC	-13.2906
▁NC	-13.291
▁vred	-13.291
aski	-13.2914
▁etis	-13.2919
▁Trå	-13.293
▁Nix	-13.293
▁eith	-13.2934
▁Yal	-13.2941
▁lly	-13.2943
▁guru	-13.2944
▁lami	-13.2945
▁empel	-13.2946
▁cky	-13.2949
▁8)	-13.295
▁amve	-13.2957
ACE	-13.2963
▁andom	-13.2968
▁Choc	-13.2977
raz	-13.2977
▁AH	-13.2979
▁UCL	-13.298
▁AIK	-13.2983
▁malm	-13.2992
▁väsk	-13.2996
▁cos	-13.2997
tex	-13.2999
▁HA	-13.3008
▁vaka	-13.3013
dge	-13.3014
▁zer	-13.3015
▁fun	-13.3017
iji	-13.3019
for	-13.302
32	-13.3021
▁Nora	-13.3029
▁säl	-13.3037
▁UND	-13.3041
CE	-13.3043
oxy	-13.3045
▁vilj	-13.3048
ON	-13.305
▁blog	-13.3058
▁isb	-13.307
59	-13.3083
▁ardy	-13.3084
▁endy	-13.3086
abo	-13.309
▁open	-13.3094
BR	-13.3104
▁eid	-13.312
▁lw	-13.3122
▁rich	-13.3123
▁Xia	-13.3123
▁omeo	-13.3123
ret	-13.3125
▁OY	-13.3142
▁Log	-13.3146
▁Isaa	-13.3149
▁lane	-13.3166
▁TE	-13.3181
▁SCA	-13.3209
TU	-13.322
▁grot	-13.3221
▁sag	-13.3232
▁lings	-13.3234
LER	-13.3237
▁ulan	-13.3242
nor	-13.3242
SM	-13.3243
▁ermo	-13.3249
▁null	-13.325
22	-13.3258
▁MX	-13.326
äkra	-13.3267
hop	-13.3267
ider	-13.3271
▁Zi	-13.3273
ug	-13.3276
▁umin	-13.3277
NU	-13.3284
▁hemm	-13.3286
ule	-13.3292
▁meto	-13.3295
året	-13.3296
▁Saw	-13.3314
MM	-13.3316
▁uz	-13.3322
▁SJ	-13.3327
ADI	-13.3336
▁μ	-13.3337
▁❤️	-13.3337
▁Zelda	-13.3337
▁lvar	-13.3338
▁Loop	-13.3338
▁YCKE	-13.334
▁Fidel	-13.3341
isse	-13.3342
▁AUC	-13.3344
▁Råd	-13.3345
▁rche	-13.3345
▁LIVE	-13.3346
▁MRI	-13.3349
▁move	-13.3349
▁MO	-13.3349
▁shire	-13.3351
▁Zack	-13.3353
▁Nie	-13.3354
EA	-13.3355
nga	-13.3359
▁alte	-13.3361
▁Brew	-13.3363
SP	-13.3364
▁Ah	-13.3364
HF	-13.3367
EU	-13.337
▁orc	-13.3372
▁NBC	-13.3372
▁Lapp	-13.3372
▁Alm	-13.3376
▁MMA	-13.3376
▁Kram	-13.3379
▁elux	-13.3385
GM	-13.3386
▁Tol	-13.3387
▁TSD	-13.3388
▁RTP	-13.339
▁armel	-13.3403
▁loop	-13.3403
▁Buy	-13.3407
▁krill	-13.3408
val	-13.3409
▁indle	-13.341
▁atrix	-13.3413
▁ulso	-13.3414
▁sååå	-13.3414
▁ARM	-13.3415
▁mjäl	-13.3417
ü	-13.342
▁Ön	-13.3428
▁nari	-13.3435
aco	-13.3438
▁POP	-13.3438
▁Craw	-13.3441
ACH	-13.3444
▁rel	-13.3445
SV	-13.3458
ARA	-13.3464
▁ulmi	-13.3466
▁zy	-13.347
▁kruk	-13.347
orum	-13.347
▁pei	-13.3473
▁läsk	-13.3479
SX	-13.3481
lmon	-13.3481
▁Shee	-13.3483
In	-13.3498
▁Ladi	-13.3504
▁iq	-13.3511
▁arton	-13.3517
VC	-13.3521
▁Bale	-13.3522
BI	-13.3524
▁ND	-13.3527
▁olin	-13.3532
▁cale	-13.3536
rvey	-13.3538
▁SEA	-13.354
ddy	-13.3541
▁PCI	-13.355
▁gyll	-13.3554
▁gues	-13.3555
▁coll	-13.3564
▁ES	-13.3568
▁IEL	-13.358
▁SKA	-13.3588
▁É	-13.3592
▁lådan	-13.3593
ury	-13.3596
▁anit	-13.3604
▁ardi	-13.361
▁verl	-13.3613
▁eave	-13.3614
▁lägr	-13.3617
lash	-13.3618
▁ethy	-13.3618
irc	-13.3623
.7	-13.3624
▁eT	-13.3633
▁lifv	-13.3635
MT	-13.3642
▁ATP	-13.3642
lifv	-13.3643
▁såret	-13.3645
23	-13.3646
öt	-13.3647
BG	-13.3649
CI	-13.3653
▁lugo	-13.3655
▁narr	-13.3656
▁gala	-13.3661
▁saw	-13.3676
▁Lil	-13.3679
oë	-13.3696
▁kyn	-13.3696
fal	-13.3697
lank	-13.3707
ritt	-13.3713
▁VET	-13.3714
▁etz	-13.372
85	-13.3722
▁Thom	-13.3724
oke	-13.3726
▁born	-13.3743
▁psi	-13.3745
▁zu	-13.3751
▁laf	-13.3753
apa	-13.3754
▁Cre	-13.376
▁ÄN	-13.3769
▁WP	-13.3775
hipp	-13.3778
sal	-13.378
▁Fine	-13.3781
read	-13.3783
▁16.	-13.3783
▁onna	-13.3786
DAG	-13.3789
▁manna	-13.3789
AE	-13.3791
nz	-13.3792
▁erud	-13.3794
▁anner	-13.3796
▁HAR	-13.3803
cho	-13.3804
▁Ohl	-13.3807
▁CAT	-13.3808
FM	-13.3809
▁Gag	-13.381
▁Sv	-13.3813
ino	-13.3814
▁OSS	-13.3817
▁esis	-13.382
▁Trea	-13.3823
▁feb	-13.3833
▁SN	-13.3839
rov	-13.3845
▁ddic	-13.3845
▁Nio	-13.3847
▁hill	-13.3853
kat	-13.3853
39	-13.3854
▁NO	-13.3856
▁FT	-13.3858
ski	-13.3862
▁GIF	-13.3864
MV	-13.3865
▁tave	-13.3866
▁ethe	-13.387
UE	-13.387
nsk	-13.3871
▁#5	-13.3884
▁ffe	-13.3884
asse	-13.3887
▁tomi	-13.3888
▁BER	-13.389
del	-13.3896
▁rgon	-13.3897
▁Maso	-13.3907
lev	-13.3918
▁rusn	-13.3922
▁***	-13.3926
▁trofé	-13.3926
▁eekly	-13.3926
▁►	-13.3926
▁NEJ	-13.3926
▁PÅ	-13.3927
▁Nür	-13.3927
▁hejdå	-13.3928
PG	-13.3928
▁Bulk	-13.3929
▁ALL	-13.393
▁snål	-13.3932
▁opez	-13.3932
▁bajs	-13.3934
▁ndorf	-13.3934
▁urra	-13.3935
▁888	-13.3936
▁4.0	-13.394
▁OTC	-13.394
▁rota	-13.3941
▁leph	-13.3941
▁asket	-13.3943
▁rubel	-13.3946
cus	-13.3948
▁ems	-13.3949
▁ahá	-13.3949
▁ebron	-13.395
▁IIS	-13.3951
▁CMS	-13.3954
▁jek	-13.3955
▁ophi	-13.3955
▁OCD	-13.3956
▁Hum	-13.3958
PV	-13.396
▁rumpa	-13.3963
▁litz	-13.3964
law	-13.3966
▁Haza	-13.3967
▁fald	-13.3968
▁oyle	-13.3969
▁Chase	-13.3971
▁ermon	-13.3975
▁Marta	-13.3976
▁PMS	-13.3976
EAD	-13.3977
▁Turin	-13.398
▁udge	-13.398
▁roach	-13.3981
MR	-13.3981
▁Loan	-13.3982
opy	-13.3985
KG	-13.3986
▁IEC	-13.3986
▁116	-13.3991
▁yang	-13.3992
▁käns	-13.3993
▁Rudo	-13.3995
▁wain	-13.3995
▁KI	-13.4
▁tkin	-13.4
▁kurd	-13.4001
▁möd	-13.4001
▁ROI	-13.4001
▁MAS	-13.4005
▁trail	-13.4008
▁sulf	-13.4008
▁krim	-13.4011
▁indo	-13.4015
86	-13.4017
hus	-13.4019
▁toni	-13.402
▁nake	-13.4023
▁Jäm	-13.4028
▁resh	-13.4028
▁:/	-13.4038
▁såå	-13.404
▁RISE	-13.4048
toma	-13.4053
▁Hole	-13.4053
LR	-13.4053
▁4%	-13.4055
▁cum	-13.4057
▁omme	-13.4057
▁arson	-13.4065
▁izz	-13.4068
▁naiva	-13.4069
▁Alt	-13.4073
▁rigg	-13.4075
▁260	-13.4076
poli	-13.4081
▁osie	-13.4086
iva	-13.4093
rodi	-13.4093
▁rite	-13.4102
din	-13.4102
orex	-13.4103
▁10:	-13.4108
läkt	-13.4116
▁Jes	-13.4116
▁hån	-13.4117
▁Wan	-13.4119
▁ocket	-13.4125
▁91	-13.413
tiz	-13.4133
▁Luk	-13.4142
VA	-13.4143
▁enton	-13.4144
77	-13.4145
▁Blu	-13.415
▁änne	-13.4152
unny	-13.4153
AG	-13.4155
▁Rit	-13.4161
hari	-13.4162
▁achu	-13.4164
▁#3	-13.4164
▁ertil	-13.417
▁ndro	-13.4172
rifv	-13.4175
BF	-13.4176
rato	-13.4176
BK	-13.4177
,0	-13.4178
vey	-13.4182
nov	-13.4188
AN	-13.4189
▁arry	-13.4205
ison	-13.4208
▁Dor	-13.421
▁Viol	-13.4213
edal	-13.422
▁PO	-13.4229
BM	-13.4229
DD	-13.4233
▁lead	-13.4235
DT	-13.4239
▁ahra	-13.4241
è	-13.4244
igan	-13.4244
▁FIA	-13.4254
rit	-13.4264
▁ppel	-13.4266
▁fys	-13.4269
▁valk	-13.4271
DB	-13.4272
▁iang	-13.4273
▁Gras	-13.4275
▁gung	-13.4277
GI	-13.4283
▁Hamm	-13.429
▁iros	-13.4292
ilb	-13.4296
▁påve	-13.4302
LT	-13.4306
fy	-13.4307
▁nz	-13.4309
▁mac	-13.4314
La	-13.432
▁amh	-13.4327
.8	-13.4333
▁whi	-13.4334
▁oC	-13.4334
RB	-13.4336
▁gora	-13.4338
nst	-13.4358
▁kåt	-13.4358
▁senas	-13.4362
▁vela	-13.4364
▁STI	-13.4368
▁gles	-13.4368
▁uett	-13.4368
jab	-13.437
▁14.	-13.4372
▁lake	-13.4382
▁LO	-13.4395
▁Gö	-13.44
▁Gala	-13.44
▁TA	-13.4412
▁tåt	-13.4415
▁cre	-13.4417
ouch	-13.4417
trui	-13.442
▁tuli	-13.4425
ada	-13.4427
AND	-13.4432
DF	-13.4435
let	-13.4435
▁arbo	-13.4439
▁sÃ	-13.4445
▁Klag	-13.4446
▁Shot	-13.4453
▁PL	-13.4454
hon	-13.4457
IP	-13.4457
52	-13.4459
EK	-13.4462
38	-13.4466
▁tred	-13.4469
▁Valp	-13.4483
▁Gera	-13.4491
▁rmal	-13.4496
▁UI	-13.4496
▁BP	-13.4497
enol	-13.4513
▁ssam	-13.4514
▁Eat	-13.4517
▁Mad	-13.4525
▁AQ	-13.4527
▁tuna	-13.453
eh	-13.4532
▁usse	-13.4532
uvre	-13.4535
▁Biz	-13.4539
▁kv	-13.454
kel	-13.4541
▁uis	-13.4544
LA	-13.4545
uggu	-13.4545
′′	-13.4551
▁א	-13.4551
▁NICEF	-13.4551
▁IONEN	-13.4551
▁Visby	-13.4551
▁Am	-13.4552
▁(8)	-13.4552
▁NYSE	-13.4553
▁vräk	-13.4553
▁Verde	-13.4554
▁saga	-13.4554
▁töki	-13.4555
▁️	-13.4556
▁SSD	-13.4557
▁olton	-13.4558
My	-13.4558
▁jelf	-13.4559
▁riz	-13.456
▁urple	-13.456
▁gips	-13.4561
▁ouls	-13.4562
▁3%	-13.4562
▁Navy	-13.4566
▁105	-13.4568
▁Hoff	-13.457
▁Zene	-13.4572
▁Alga	-13.4574
▁ARE	-13.4575
▁eddit	-13.4575
▁ekka	-13.4577
▁anät	-13.4577
▁Bern	-13.4582
▁Urin	-13.4585
▁fes	-13.4586
▁Zach	-13.4586
ghan	-13.4594
▁Brig	-13.4594
▁argot	-13.4596
▁comi	-13.4597
▁erese	-13.4601
79	-13.4602
▁119	-13.4603
▁kari	-13.4604
▁Grä	-13.4605
▁Nåt	-13.4611
kli	-13.4611
▁gnu	-13.4615
í	-13.4618
▁Vilh	-13.4619
▁tbi	-13.4623
▁tape	-13.4624
TX	-13.4625
▁omez	-13.4625
▁Lou	-13.4631
▁Rip	-13.4633
▁näva	-13.4643
▁slem	-13.4648
/3	-13.4649
rar	-13.465
▁Näs	-13.4653
▁patr	-13.4654
AL	-13.4659
▁Root	-13.4659
▁döp	-13.4662
▁CPA	-13.4663
▁yatt	-13.4664
▁Are	-13.4665
▁neum	-13.4669
72	-13.4677
ylo	-13.4678
RP	-13.4684
▁artha	-13.4685
▁eoul	-13.4693
▁(6	-13.4694
▁Inge	-13.4699
azz	-13.47
▁mery	-13.4703
▁ESF	-13.4704
▁Get	-13.4708
▁ONE	-13.4708
AF	-13.471
▁klon	-13.4712
▁Silv	-13.4712
▁Rai	-13.4715
▁krö	-13.4725
▁XII	-13.4734
▁hish	-13.4737
▁lört	-13.475
ky	-13.475
▁mile	-13.4755
▁elge	-13.4755
STA	-13.4757
ego	-13.4757
▁vast	-13.4758
▁öre	-13.4772
RX	-13.4777
▁kjul	-13.4785
RIS	-13.4786
▁örst	-13.4786
PH	-13.4791
▁Mia	-13.4791
▁kab	-13.4792
▁etho	-13.4792
▁lyt	-13.4794
▁SPA	-13.4799
▁reli	-13.4804
▁Hip	-13.4804
▁ibir	-13.4805
tivi	-13.4807
▁knät	-13.4817
▁Fun	-13.4838
▁ssal	-13.4844
▁stery	-13.4854
scal	-13.4857
▁Cola	-13.4865
MB	-13.4866
▁giri	-13.4876
▁BET	-13.4878
▁håna	-13.4878
▁renz	-13.4881
sq	-13.4891
▁XVI	-13.4892
▁XX	-13.49
▁mags	-13.4905
araj	-13.4908
OD	-13.4908
▁Sham	-13.4911
▁ertz	-13.4919
▁tigen	-13.4926
té	-13.4929
abba	-13.4935
▁Rami	-13.4937
▁owe	-13.4945
▁lso	-13.4961
▁emet	-13.4962
lus	-13.4965
▁liot	-13.4967
dd	-13.4972
OP	-13.4977
▁:-	-13.4978
1,	-13.4982
gh	-13.4983
▁roxi	-13.4988
▁NR	-13.4991
▁LTI	-13.4995
46	-13.4996
▁Pil	-13.4999
▁urh	-13.501
pur	-13.5021
▁llio	-13.5025
▁ABL	-13.5025
oner	-13.5027
▁sted	-13.5032
HR	-13.5035
▁LC	-13.5035
▁ERT	-13.5037
▁Inc	-13.5039
▁buss	-13.5042
▁ITS	-13.5044
rsak	-13.5056
ral	-13.5058
▁Gråt	-13.506
UD	-13.5061
▁Pira	-13.5067
44	-13.5071
lima	-13.5076
▁BY	-13.5079
▁mapp	-13.5083
▁mamm	-13.5085
▁Gas	-13.5088
▁imb	-13.5092
▁tr	-13.5093
▁atom	-13.5094
▁Turi	-13.5095
▁Kat	-13.5096
yw	-13.5099
▁nno	-13.5103
▁lux	-13.5108
▁kanot	-13.5109
▁oran	-13.5113
EI	-13.5114
EF	-13.5121
▁atis	-13.5125
à	-13.5128
▁pale	-13.5133
▁idn	-13.5137
iral	-13.514
▁xxx	-13.514
▁lerad	-13.5145
gu	-13.5155
▁#4	-13.5163
▁Ink	-13.5164
▁sley	-13.5164
▁GIS	-13.5167
▁ljar	-13.5169
▁Rå	-13.517
rw	-13.517
▁Dot	-13.5171
lid	-13.5173
cky	-13.5177
▁inati	-13.5177
▁RI	-13.5178
hock	-13.5184
▁vici	-13.5188
ura	-13.5191
34	-13.5197
▁CNS	-13.5198
alt	-13.5199
TL	-13.5199
▁DAG	-13.5202
▁nneb	-13.5206
ken	-13.5212
▁SLU	-13.5213
GL	-13.5214
▁nös	-13.5216
▁eirut	-13.5218
▁idra	-13.5218
▁lcomm	-13.5218
▁rozen	-13.522
▁UAE	-13.5221
▁alawi	-13.5222
▁tajm	-13.5223
67	-13.5224
ACK	-13.5225
rac	-13.5227
▁1,0	-13.5228
▁rcad	-13.5229
▁MIG	-13.5232
▁inno	-13.5233
▁icut	-13.5233
▁6-	-13.5234
sse	-13.5234
▁zzy	-13.5234
VP	-13.5237
▁NSKA	-13.5239
▁Zhu	-13.5241
▁farm	-13.5241
▁pina	-13.5244
-0	-13.5246
DO	-13.5248
53	-13.525
▁mish	-13.5251
▁melon	-13.5251
ola	-13.5252
▁Ferd	-13.5253
▁Slam	-13.5253
▁KOL	-13.5255
▁FX	-13.5256
▁Zoom	-13.5256
▁cach	-13.5257
oy	-13.5257
uki	-13.5258
▁256	-13.5261
▁jacu	-13.5265
▁Tai	-13.5269
ahn	-13.5271
cu	-13.5271
▁leros	-13.5272
▁TC	-13.5273
▁ugab	-13.5276
▁yron	-13.528
▁tigma	-13.528
▁ibl	-13.5282
▁pike	-13.5284
▁tomo	-13.5286
▁5-	-13.5288
ativ	-13.5289
▁Taj	-13.5289
jer	-13.5296
▁aldi	-13.5296
▁bury	-13.5299
▁dni	-13.5303
krat	-13.5305
▁lavi	-13.5309
▁Dale	-13.5319
VI	-13.5321
▁vest	-13.5322
▁Cub	-13.5322
war	-13.5335
▁ETT	-13.5337
▁ydra	-13.5337
▁racy	-13.5342
▁lågor	-13.535
ppa	-13.5352
▁märg	-13.5353
▁trava	-13.5358
rev	-13.5361
▁them	-13.5362
▁Minh	-13.5368
▁bass	-13.5369
LB	-13.5369
▁Aga	-13.537
▁tigm	-13.5372
▁phil	-13.5373
▁Cop	-13.5373
▁amra	-13.5377
abla	-13.5378
▁ergu	-13.538
▁magi	-13.538
▁Zha	-13.5381
ins	-13.5383
LN	-13.5389
otat	-13.5389
▁::	-13.5391
▁Shap	-13.5402
▁onos	-13.5402
▁cue	-13.5403
▁ermu	-13.5404
▁Kay	-13.5418
▁bott	-13.542
▁ucca	-13.5422
ror	-13.5422
▁Cock	-13.5423
▁ssl	-13.5424
änt	-13.5429
▁tude	-13.5434
▁ruit	-13.5447
▁lamin	-13.5455
▁then	-13.5457
▁Rex	-13.5457
▁mis	-13.5457
▁sårar	-13.5457
54	-13.5458
▁ET	-13.5461
▁Bour	-13.5466
▁kupo	-13.5468
▁addy	-13.5468
rot	-13.5471
▁sön	-13.5476
▁BDS	-13.548
▁myc	-13.5481
▁unch	-13.5485
▁Jul	-13.549
▁84	-13.5491
▁Hit	-13.5492
avid	-13.5492
▁Ham	-13.5501
▁ucc	-13.5502
▁á	-13.5504
▁nsel	-13.5504
▁SU	-13.5514
▁law	-13.5516
▁CB	-13.5524
mt	-13.5529
pt	-13.5531
▁hum	-13.5533
▁Vine	-13.5535
▁TOR	-13.554
▁nzo	-13.5551
▁22.	-13.5556
lero	-13.5564
▁dmon	-13.5566
▁Gill	-13.5568
CN	-13.5569
▁sula	-13.557
▁ucka	-13.5577
▁chau	-13.5578
▁iron	-13.5581
▁Gat	-13.5582
▁cLa	-13.5585
▁Die	-13.5588
▁Wit	-13.5589
ATT	-13.5595
▁kini	-13.5599
▁knut	-13.56
ok	-13.5602
▁ETS	-13.5603
▁opel	-13.5606
aka	-13.5607
▁asset	-13.5607
ita	-13.5608
Ge	-13.5618
NCE	-13.5625
▁ulse	-13.563
res	-13.5638
LD	-13.5638
▁wic	-13.5642
illy	-13.5657
4.	-13.5678
▁Cur	-13.5695
▁Noa	-13.5698
ér	-13.5703
▁Nets	-13.572
▁kräm	-13.5721
orw	-13.5728
▁lou	-13.5729
▁naz	-13.5731
▁tric	-13.5732
▁Gren	-13.5733
4,	-13.5733
▁Nob	-13.5739
▁asel	-13.574
▁acha	-13.5747
alw	-13.5752
RK	-13.5753
▁ESS	-13.5757
cos	-13.5759
RY	-13.5769
▁ennet	-13.577
▁lots	-13.5776
▁Bai	-13.5777
▁iec	-13.578
ANT	-13.5781
ESS	-13.5782
né	-13.5783
ypno	-13.5785
▁EPP	-13.5798
▁IPA	-13.5799
▁Bran	-13.5799
▁Sim	-13.5809
▁echa	-13.5809
▁skyl	-13.581
8,	-13.5814
09	-13.5817
▁PI	-13.5819
▁ORT	-13.5819
SW	-13.582
▁SK	-13.5822
▁llg	-13.5829
yah	-13.584
▁25.	-13.5856
▁Grac	-13.5867
▁span	-13.5875
▁ILO	-13.5876
▁CES	-13.5881
omma	-13.5886
(	-13.5888
▁tve	-13.5892
▁Too	-13.5894
▁ntom	-13.5897
▁kurv	-13.5898
▁....	-13.5899
▁achi	-13.5899
▁IMO	-13.5907
AU	-13.5908
▁AES	-13.591
▁FAT	-13.5911
▁akao	-13.5911
KAB	-13.5912
▁ribe	-13.5914
▁stj	-13.5917
ça	-13.5919
edi	-13.592
▁amka	-13.5927
▁pico	-13.5929
eech	-13.5931
▁Ø	-13.5931
▁ˮ	-13.5931
▁≥	-13.5931
▁	-13.5931
▁(!)	-13.5932
▁Café	-13.5933
adi	-13.5933
▁warz	-13.5934
▁urpur	-13.5935
▁tälje	-13.5937
WR	-13.594
VB	-13.5942
▁ndré	-13.5942
▁rakow	-13.5942
▁JOB	-13.5942
HD	-13.5942
▁rohi	-13.5942
▁Birg	-13.5943
▁ASSA	-13.5943
EPP	-13.5943
ord	-13.5946
▁''	-13.5946
▁jävel	-13.5947
▁ySQL	-13.5948
igga	-13.5948
▁wald	-13.595
odul	-13.595
▁arthy	-13.5952
▁SKR	-13.5953
▁Hay	-13.5955
▁Dai	-13.5956
▁ndor	-13.5959
▁slexi	-13.5963
▁Cree	-13.5965
▁droit	-13.5965
ICA	-13.5967
▁tyli	-13.5969
▁ebbi	-13.5971
wi	-13.5973
rrow	-13.5974
▁Jö	-13.5977
WA	-13.5977
▁SET	-13.5978
▁cta	-13.5981
▁SSE	-13.5981
▁Lös	-13.5984
▁Hodg	-13.5985
▁132	-13.5987
▁Puls	-13.5991
▁DIA	-13.5992
▁vud	-13.5995
▁auder	-13.5996
UST	-13.5998
▁låset	-13.5998
▁1.5	-13.5999
▁Uran	-13.6004
Ja	-13.6006
▁113	-13.6009
her	-13.6009
▁osul	-13.6011
▁Fy	-13.6011
▁7)	-13.6014
▁oux	-13.6018
aw	-13.6018
▁senik	-13.6018
▁nep	-13.6019
not	-13.6022
▁mrs	-13.6025
Av	-13.603
▁eaco	-13.6032
36	-13.6033
/4	-13.6035
▁Havs	-13.604
▁LCH	-13.6041
▁Seth	-13.6044
▁igge	-13.6044
▁Joy	-13.6045
▁eidi	-13.6049
▁Volt	-13.6053
▁ganer	-13.6055
▁bid	-13.606
isi	-13.6061
▁yler	-13.6063
▁Wah	-13.6064
▁Led	-13.6067
▁Burg	-13.6069
▁Cor	-13.6073
HT	-13.6074
▁26,	-13.6078
lump	-13.6082
▁Pig	-13.6083
ć	-13.6087
▁DB	-13.6094
axi	-13.6094
▁Norm	-13.6102
▁luto	-13.6105
▁games	-13.6108
▁gov	-13.6108
▁gill	-13.6112
▁ries	-13.6113
▁Bord	-13.6114
▁asto	-13.6114
▁flit	-13.6115
▁tius	-13.6115
▁EL	-13.6121
▁pedi	-13.6125
▁IND	-13.6142
▁nthe	-13.6143
ecke	-13.6143
▁KB	-13.6152
▁owa	-13.6156
ång	-13.6156
▁sarr	-13.616
TE	-13.616
▁NDA	-13.6161
▁stång	-13.617
▁töm	-13.6175
▁amoa	-13.618
▁EV	-13.6189
▁teno	-13.6199
ats	-13.62
▁AIR	-13.6206
agne	-13.6245
▁gröt	-13.6246
mpel	-13.6252
▁scal	-13.6255
▁anjo	-13.6258
▁bult	-13.6258
▁andor	-13.6258
mero	-13.626
dé	-13.6261
▁made	-13.6264
▁ALM	-13.6267
▁liss	-13.6269
nne	-13.6276
▁nubb	-13.6279
▁orne	-13.628
▁Yah	-13.6281
udd	-13.6282
bro	-13.6287
69	-13.6303
▁Kil	-13.6307
ån	-13.6307
▁ogis	-13.6308
▁ÄRL	-13.6323
tim	-13.6325
▁rbor	-13.6335
▁Alc	-13.6344
PE	-13.6348
▁GL	-13.6351
▁pid	-13.6353
▁Maur	-13.6354
olo	-13.6356
ever	-13.6356
die	-13.6359
UF	-13.6359
▁plät	-13.6361
▁cus	-13.6369
▁SOL	-13.6379
urin	-13.6386
▁Jet	-13.6391
▁SSI	-13.6393
▁lol	-13.6395
lco	-13.6397
▁aty	-13.64
▁BIT	-13.6404
ilw	-13.6425
▁OJ	-13.6426
▁Pad	-13.6435
▁Karo	-13.6441
▁skik	-13.6442
▁ntw	-13.645
sma	-13.6453
▁mise	-13.6455
▁NER	-13.6457
▁arza	-13.6462
▁Doc	-13.6463
▁Kri	-13.6464
art	-13.6466
▁vinge	-13.6467
▁Leg	-13.647
▁trac	-13.6473
tax	-13.648
▁tyl	-13.6482
▁teni	-13.6482
ion	-13.6486
58	-13.649
ÄR	-13.6495
▁bris	-13.6508
▁kak	-13.651
▁Fas	-13.6523
▁BIO	-13.6529
▁GSM	-13.6535
agda	-13.6538
▁bram	-13.6538
PN	-13.6545
▁alz	-13.6552
▁Bris	-13.6555
▁IA	-13.6556
▁lefv	-13.6556
ze	-13.6556
gw	-13.6557
▁disp	-13.6565
▁Vul	-13.6565
äta	-13.6566
▁VC	-13.6576
daga	-13.6581
WF	-13.659
▁eis	-13.6596
NHC	-13.6597
nzi	-13.6608
▁LL	-13.6619
▁VW	-13.662
öm	-13.6625
▁lmi	-13.6629
▁inai	-13.6631
FI	-13.6631
▁ldo	-13.6632
▁Lot	-13.6647
▁UNI	-13.6652
3%	-13.666
esi	-13.6667
▁Grå	-13.6668
▁Hol	-13.6671
▁Nad	-13.6672
els	-13.6682
PEG	-13.6682
▁lime	-13.6685
EFL	-13.6688
dro	-13.6695
▁Daw	-13.6695
▁agreb	-13.6701
▁VoIP	-13.6701
▁>>>	-13.6701
▁‹	-13.6702
▁😍	-13.6702
▁CNBC	-13.6702
▁rphek	-13.6702
▁Cairn	-13.6705
▁baum	-13.6706
▁kton	-13.6706
▁!!!	-13.6706
▁Gul	-13.6707
▁uddy	-13.6707
▁bodd	-13.6709
▁(0)	-13.6709
kij	-13.6711
▁KDE	-13.6714
▁Shaw	-13.6714
▁DIG	-13.6714
▁Cus	-13.6715
▁GMT	-13.6715
▁zip	-13.6716
▁ngf	-13.6718
▁acao	-13.672
▁addin	-13.6724
▁ontus	-13.6729
▁brush	-13.6732
▁129	-13.6735
hoot	-13.6737
▁otton	-13.6737
▁106	-13.6737
▁pdf	-13.6737
iru	-13.6737
▁urri	-13.674
▁miral	-13.6743
▁egina	-13.6745
▁TER	-13.6749
▁gage	-13.6752
▁drama	-13.6758
▁linor	-13.6761
▁väse	-13.6763
▁cer	-13.6765
▁daho	-13.6765
rn	-13.6765
▁Draw	-13.6767
TK	-13.6769
▁21:	-13.677
▁krut	-13.6774
▁3,2	-13.6778
▁340	-13.6781
▁Bros	-13.6781
▁ARD	-13.6782
▁lanc	-13.6789
ACT	-13.6791
▁Git	-13.6794
▁Kap	-13.6798
▁pika	-13.6801
▁root	-13.6802
▁Haga	-13.6805
▁PD	-13.6806
▁SR	-13.6807
day	-13.6809
ASD	-13.681
▁Ey	-13.6813
▁6%	-13.6813
EMS	-13.682
aj	-13.6824
CF	-13.6829
▁uang	-13.683
▁Rubi	-13.684
OCK	-13.6841
▁GA	-13.6844
▁lves	-13.6845
IST	-13.6847
CB	-13.6848
▁vift	-13.6851
▁GS	-13.6852
▁NNI	-13.6854
▁pix	-13.6858
▁dala	-13.686
▁Verg	-13.6872
▁ETA	-13.688
▁pecia	-13.6883
ylon	-13.6884
▁Cos	-13.6888
▁hma	-13.689
zzi	-13.6891
our	-13.6891
▁Xero	-13.6893
▁Sail	-13.6895
▁chill	-13.6902
▁dont	-13.6903
▁BRA	-13.6906
▁SO	-13.6907
▁Liz	-13.6911
nel	-13.6914
▁sinki	-13.6917
MD	-13.692
▁våf	-13.6922
VR	-13.6923
▁OME	-13.6925
▁udd	-13.6933
AH	-13.6936
sex	-13.6939
pua	-13.694
▁UD	-13.6942
▁IDE	-13.6945
▁rise	-13.6945
ida	-13.6946
▁evy	-13.695
LUT	-13.6956
nsio	-13.6963
▁vept	-13.6967
elle	-13.6971
▁CR	-13.6974
▁unc	-13.6974
▁wea	-13.6978
▁tön	-13.6979
▁urr	-13.6979
▁SCC	-13.6981
▁nave	-13.6985
▁icki	-13.6987
onal	-13.6987
ALL	-13.699
IC	-13.6991
AID	-13.6992
▁Boat	-13.7
▁otti	-13.7002
▁hamp	-13.7004
▁Rus	-13.7005
Ps	-13.7005
rby	-13.7014
öljd	-13.7014
▁TR	-13.7027
▁clea	-13.7028
▁jail	-13.703
▁terb	-13.7033
▁alan	-13.7035
pri	-13.7037
▁mju	-13.7041
og	-13.7044
▁TP	-13.7047
zel	-13.7049
”.	-13.7052
▁lynn	-13.7055
▁drab	-13.7057
▁JP	-13.7058
▁eiss	-13.7062
än	-13.7064
▁luga	-13.7065
ized	-13.7067
▁NIB	-13.7067
▁Pole	-13.708
▁borr	-13.7083
▁Gris	-13.7086
▁riad	-13.709
▁roms	-13.7091
▁ison	-13.7093
▁atie	-13.7095
▁Pine	-13.7097
▁sau	-13.7103
▁Palo	-13.7105
▁resc	-13.7119
▁DSL	-13.712
▁Von	-13.7128
▁opra	-13.7131
▁Whi	-13.7132
▁Glu	-13.7135
▁töte	-13.7141
say	-13.715
▁urio	-13.7152
asa	-13.7153
hade	-13.7155
▁9)	-13.7158
▁fore	-13.7158
▁hoj	-13.7161
▁toj	-13.7163
▁cL	-13.7163
▁Vald	-13.7164
▁hote	-13.7171
▁Rost	-13.7174
▁Vag	-13.7181
▁1-	-13.7185
▁ewa	-13.7187
und	-13.719
▁TO	-13.7198
▁bdel	-13.7199
▁neko	-13.72
FE	-13.7203
▁osv	-13.7209
▁8%	-13.7218
▁zoo	-13.7221
läs	-13.7228
ole	-13.7229
▁Gun	-13.7232
▁PE	-13.7232
AW	-13.7234
zda	-13.7234
aly	-13.7235
▁mide	-13.7243
▁PEC	-13.7244
▁Hul	-13.7244
▁crap	-13.7268
▁apar	-13.7276
91	-13.7284
▁Bren	-13.7284
▁NAD	-13.7284
▁kapi	-13.7287
▁sytt	-13.7287
▁rash	-13.7289
▁gåvo	-13.7295
▁omm	-13.7297
▁IMA	-13.7308
▁Bio	-13.731
▁urro	-13.7312
win	-13.7318
▁CAN	-13.7319
▁gelo	-13.732
▁sits	-13.7324
sco	-13.7337
▁anz	-13.7337
3,	-13.7338
ädd	-13.7338
▁MAR	-13.7344
▁UM	-13.7344
UI	-13.7349
LL	-13.7352
▁Rein	-13.7354
▁Kno	-13.7356
oxi	-13.7356
IS	-13.7362
▁DI	-13.7362
▁Kiw	-13.7365
ance	-13.7374
▁yur	-13.7378
2:	-13.7382
thw	-13.7382
▁atw	-13.7385
▁åder	-13.7387
▁INI	-13.7389
▁eeve	-13.7391
▁xte	-13.7392
▁ó	-13.7399
5.	-13.7406
tho	-13.7411
▁Byn	-13.7415
▁ubbe	-13.7415
▁mph	-13.7422
ADE	-13.7422
VD	-13.7428
▁jama	-13.7428
NI	-13.7434
▁phi	-13.7435
▁nebu	-13.745
▁NT	-13.7457
udo	-13.7457
rol	-13.7459
▁Int	-13.746
▁Shar	-13.7461
▁kamm	-13.7463
▁jump	-13.7465
▁LIG	-13.7466
▁ieb	-13.7471
▁geno	-13.7471
▁Hag	-13.7477
▁RV	-13.7481
ämp	-13.7483
IG	-13.7483
ÄND	-13.7485
#	-13.749
IGA	-13.749
▁ISK	-13.749
FTA	-13.7499
rite	-13.7506
lam	-13.7508
▁upra	-13.751
▁enz	-13.7514
INK	-13.7515
get	-13.7522
KB	-13.7529
AFE	-13.7531
	-13.7534
▁=(	-13.7535
cum	-13.7535
▁yeah	-13.7535
▁guard	-13.7535
liv	-13.7536
▁Plain	-13.7537
▁olph	-13.7537
▁mosa	-13.7537
▁PG	-13.7539
▁issue	-13.7542
▁ntrum	-13.7542
▁ühr	-13.7542
▁Tåg	-13.7549
IKA	-13.7549
▁1⁄	-13.755
LAT	-13.7551
▁jenk	-13.7551
▁Lec	-13.7552
▁hman	-13.7552
▁GEM	-13.7553
AAB	-13.7554
▁kV	-13.7555
▁grow	-13.7557
▁Sale	-13.7558
▁Odd	-13.7561
hil	-13.7565
▁droom	-13.7565
▁Isla	-13.7566
▁Fiji	-13.7567
▁relik	-13.7567
▁HT	-13.7568
MEA	-13.7569
▁ucle	-13.757
▁RC	-13.7574
▁ulce	-13.7576
▁brus	-13.758
ÅR	-13.7581
▁Sava	-13.7584
▁144	-13.7584
EPA	-13.7587
▁aux	-13.7588
▁nobb	-13.7591
▁amse	-13.7591
alla	-13.7592
▁SME	-13.7593
▁apné	-13.7593
▁Åsa	-13.7593
▁103	-13.7595
▁grum	-13.7596
▁ngya	-13.7597
▁Noel	-13.7598
▁erome	-13.7598
▁Picc	-13.7598
▁osh	-13.76
▁otox	-13.76
▁halka	-13.7601
hman	-13.7601
▁dvd	-13.7601
▁bål	-13.7603
▁hmer	-13.7605
▁välv	-13.7606
▁auss	-13.7607
rind	-13.761
▁knip	-13.7613
▁Zoe	-13.7615
▁ASP	-13.762
▁Agra	-13.7621
ARD	-13.7623
ORD	-13.7628
▁ripp	-13.763
▁HL	-13.7635
Jo	-13.7635
IR	-13.7639
GF	-13.7639
ARC	-13.7641
▁ÅDE	-13.7642
isa	-13.7647
▁Let	-13.7656
▁tub	-13.7656
▁Cra	-13.7657
▁#6	-13.7658
▁BV	-13.7658
▁ewel	-13.7659
WC	-13.7662
▁rånar	-13.7664
▁hopa	-13.7664
mw	-13.7665
▁Sahl	-13.7666
▁enise	-13.7668
▁Saba	-13.7669
▁stain	-13.767
▁noma	-13.7671
▁NIH	-13.7671
▁MK	-13.7673
▁IK	-13.7673
▁volu	-13.7674
▁Wad	-13.7676
▁TN	-13.7679
▁dhd	-13.7686
▁Zed	-13.7687
▁Zho	-13.7688
ymme	-13.7689
▁natra	-13.7698
löv	-13.7698
▁MM	-13.7698
▁NOA	-13.7701
WI	-13.7705
▁7-	-13.7707
max	-13.7711
▁IFS	-13.7713
▁täd	-13.7719
▁31,	-13.7723
dor	-13.7726
▁TAN	-13.7726
ITA	-13.773
fil	-13.7732
▁TB	-13.7735
▁lopa	-13.7743
▁hyrd	-13.7744
▁eere	-13.7744
NGO	-13.7744
afée	-13.7744
▁Faz	-13.7749
▁ERC	-13.7755
▁Vulk	-13.7758
olle	-13.7761
▁SAT	-13.7763
▁Zeni	-13.7764
▁AX	-13.7767
▁Croc	-13.777
OE	-13.7777
▁ruin	-13.778
▁slät	-13.7782
▁kina	-13.7785
▁näsb	-13.7785
▁XV	-13.7787
▁dah	-13.7789
▁mbal	-13.7791
▁Chip	-13.7793
2)	-13.7794
▁lmon	-13.7796
ev	-13.78
▁Gla	-13.7806
oir	-13.7808
▁10)	-13.7813
▁SSR	-13.7813
▁ydi	-13.7817
▁(7	-13.7819
DE	-13.7819
dis	-13.7829
▁Riz	-13.7833
▁sfä	-13.7841
▁Gräs	-13.7841
▁kno	-13.7846
mel	-13.7848
▁dix	-13.7848
▁Prat	-13.7854
▁ssee	-13.786
▁27.	-13.7864
FN	-13.7864
KL	-13.7865
lor	-13.787
▁Ras	-13.7871
ota	-13.7886
▁Lia	-13.7895
▁Fara	-13.79
oder	-13.79
yth	-13.791
EOS	-13.7917
ors	-13.7923
▁kru	-13.7937
▁bah	-13.7938
log	-13.794
rädd	-13.7943
SL	-13.7943
rita	-13.7956
▁Tou	-13.7958
▁øll	-13.7961
▁BT	-13.7961
▁LEE	-13.7962
▁knäb	-13.7975
▁kojs	-13.798
▁Laz	-13.7982
less	-13.7983
mos	-13.7986
▁Äh	-13.7987
▁urch	-13.7993
▁prio	-13.7998
▁elik	-13.7999
asi	-13.8
▁pold	-13.8023
▁ndol	-13.8024
▁Pla	-13.8028
▁60.	-13.8031
ykt	-13.8042
▁asha	-13.8043
▁(=	-13.8043
▁è	-13.8045
hov	-13.8045
unt	-13.8047
▁JE	-13.8052
▁MY	-13.8056
dus	-13.8062
pre	-13.8068
går	-13.808
▁tårt	-13.8086
▁CN	-13.8096
▁loan	-13.8097
▁kura	-13.8099
97	-13.8114
▁DF	-13.8115
▁job	-13.8119
96	-13.8125
▁mA	-13.8133
▁CAM	-13.8141
lagg	-13.8148
sumo	-13.8154
ivo	-13.8155
▁mou	-13.8159
ORT	-13.8179
▁elph	-13.818
▁dike	-13.818
mbo	-13.8183
▁dler	-13.8188
asy	-13.8189
▁WC	-13.82
SO	-13.8205
if	-13.8206
▁KA	-13.8213
▁värf	-13.822
▁kalv	-13.8222
▁lich	-13.8228
▁BAR	-13.8228
▁CP	-13.8228
▁Jaz	-13.8231
89	-13.8237
▁åtta	-13.8237
▁gins	-13.8242
▁TS	-13.8245
nä	-13.8245
▁urvi	-13.8246
▁Grin	-13.8249
▁trån	-13.8249
▁arim	-13.8257
▁midt	-13.8261
▁yah	-13.8269
NE	-13.8271
▁limm	-13.8271
▁USE	-13.8278
▁ours	-13.8283
tez	-13.8287
▁Cale	-13.829
▁03	-13.8292
▁Zon	-13.8297
▁hof	-13.8298
▁olst	-13.8298
▁pist	-13.8304
▁pat	-13.8308
▁Nott	-13.8328
▁Thi	-13.8334
▁OB	-13.8334
ekt	-13.8335
▁kir	-13.8338
hel	-13.8341
▁Bore	-13.8344
▁ADA	-13.8344
▁(:	-13.8345
▁ilja	-13.8346
▁CDN	-13.8347
▁Tale	-13.8347
LO	-13.8348
▁VIN	-13.8349
▁ESR	-13.8351
▁car	-13.8354
▁Bode	-13.8357
tomi	-13.8361
▁NG	-13.8361
▁4-	-13.8363
ía	-13.8369
äft	-13.8375
mla	-13.8377
▁FSC	-13.8377
▁Myt	-13.838
RW	-13.8388
▁ARC	-13.839
▁Bok	-13.8393
mör	-13.8397
▁DIT	-13.8398
▁XXX	-13.8398
=	-13.8401
lave	-13.8401
▁noo	-13.8415
▁RÅN	-13.842
▁BF	-13.8423
€	-13.8424
RAM	-13.8431
▁mess	-13.8432
98	-13.8433
▁Zip	-13.8435
hand	-13.8437
ily	-13.8437
AEA	-13.8438
▁was	-13.8442
Må	-13.8443
ل	-13.8443
▁Š	-13.8443
▁JYSK	-13.8443
▁[5]	-13.8443
▁[6]	-13.8443
▁lláh	-13.8443
rinn	-13.8444
▁(?)	-13.8444
▁thlon	-13.8444
▁β	-13.8444
▁Faith	-13.8445
▁VICE	-13.8446
▁arfur	-13.8446
▁eims	-13.8448
dapt	-13.8448
▁Onc	-13.845
▁ntosh	-13.845
▁norge	-13.845
▁witz	-13.8451
▁Vrid	-13.8455
▁(8	-13.8456
▁192	-13.8457
▁Laos	-13.8458
▁FOI	-13.8462
▁LAND	-13.8463
▁5-6	-13.8464
IE	-13.8464
IME	-13.8465
▁ÄSTA	-13.8465
▁Wher	-13.8465
▁bbott	-13.8469
▁Lån	-13.847
▁krök	-13.8471
råp	-13.8471
▁Puh	-13.8472
▁BAT	-13.8473
▁CZ	-13.8474
▁Nail	-13.8475
▁ESG	-13.8476
▁Dre	-13.8477
▁AUD	-13.8477
▁melo	-13.8478
pto	-13.8479
▁RITA	-13.848
ELL	-13.8481
ARE	-13.8488
▁IRL	-13.8488
▁1/3	-13.849
asko	-13.849
agga	-13.849
▁Gibb	-13.8491
▁136	-13.8492
▁ucer	-13.8493
▁ECO	-13.8493
▁lfon	-13.8493
▁riton	-13.8494
▁PV	-13.8494
▁elvi	-13.8495
▁oulo	-13.8496
▁Once	-13.8497
▁weav	-13.8499
▁nilla	-13.85
IMO	-13.8504
WD	-13.8505
▁243	-13.8505
▁vail	-13.8507
▁Roh	-13.851
▁leck	-13.851
▁trap	-13.851
▁Arag	-13.8512
▁GRAT	-13.8517
MU	-13.8517
▁sådd	-13.8518
48	-13.8518
▁ÅR	-13.8519
cer	-13.8519
▁Kha	-13.8522
▁ngina	-13.8522
▁lau	-13.8523
▁HE	-13.8525
usal	-13.8525
▁Bart	-13.8525
nox	-13.8526
▁Nåd	-13.8527
laze	-13.8529
▁arron	-13.8529
▁unner	-13.853
▁Lagu	-13.8535
▁MER	-13.8536
▁inky	-13.8539
▁WE	-13.8539
▁rillo	-13.8539
▁sham	-13.8541
Sc	-13.8542
▁WD	-13.8546
▁NHS	-13.8547
▁->	-13.8548
▁TRE	-13.8549
SRI	-13.8549
▁VP	-13.855
▁39.	-13.8553
▁Arm	-13.8561
▁ML	-13.8561
▁llery	-13.8564
▁jätt	-13.8571
▁layh	-13.8575
▁RON	-13.8575
▁RAF	-13.8576
▁215	-13.8583
▁LR	-13.8584
ION	-13.8597
▁Gap	-13.8597
anas	-13.8605
▁Rune	-13.8606
▁GR	-13.8606
SCI	-13.8613
▁Kod	-13.8614
▁traz	-13.8615
etup	-13.8617
RPG	-13.8619
▁reas	-13.8619
▁huka	-13.8621
ASA	-13.8622
▁alik	-13.8622
▁slet	-13.8623
▁Noth	-13.8625
ijk	-13.8625
▁sato	-13.8627
▁Aid	-13.8629
▁225	-13.863
▁lose	-13.863
upa	-13.863
▁FPS	-13.8634
KO	-13.8636
▁TU	-13.8639
▁Kik	-13.8642
▁Kir	-13.8643
ucc	-13.8648
▁kev	-13.8652
QUI	-13.8653
▁PU	-13.8654
▁spån	-13.8654
▁rvo	-13.8658
▁eide	-13.8658
▁nev	-13.8661
▁Sve	-13.8662
▁enzel	-13.8666
▁onth	-13.8668
▁SHA	-13.8669
åne	-13.8672
▁ussia	-13.8676
▁EMU	-13.8677
62	-13.8678
ú	-13.8685
▁piru	-13.8687
lja	-13.869
▁Ya	-13.8692
jal	-13.8693
▁ardon	-13.8693
▁uber	-13.8695
▁foul	-13.8698
▁7%	-13.8701
▁LE	-13.8701
eep	-13.8702
ise	-13.8706
▁lero	-13.8706
itt	-13.8707
ojal	-13.871
▁Born	-13.8711
udde	-13.8713
▁08	-13.8714
▁fix	-13.8717
▁Gry	-13.8718
▁apu	-13.8719
▁xyl	-13.872
▁Less	-13.8722
▁vävs	-13.8723
sø	-13.8725
▁amal	-13.8726
lock	-13.8734
ME	-13.8735
á	-13.8736
UTS	-13.8737
▁Rad	-13.8738
▁Ege	-13.8745
UB	-13.8758
▁aleo	-13.8759
74	-13.8766
▁POS	-13.877
▁drol	-13.8772
wer	-13.8773
▁ifu	-13.8778
▁kre	-13.8781
ík	-13.8781
▁lies	-13.8784
irch	-13.8807
ink	-13.8807
EO	-13.8809
▁laka	-13.881
▁sumb	-13.8812
we	-13.8815
vant	-13.8817
â	-13.8817
old	-13.8818
▁bald	-13.8821
umba	-13.8826
▁Sara	-13.8837
▁ddis	-13.884
▁Pala	-13.8842
If	-13.8846
▁rivi	-13.8869
IAC	-13.8871
▁oula	-13.8874
▁DX	-13.8877
FT	-13.8882
ult	-13.8885
▁orah	-13.8891
▁MG	-13.8904
▁hin	-13.8908
▁TI	-13.892
OCE	-13.8922
▁tamm	-13.8937
▁kalp	-13.8945
▁UT	-13.8946
assa	-13.8947
säk	-13.895
▁Unb	-13.8951
ló	-13.8961
▁OPA	-13.8969
▁IDF	-13.8969
▁Rik	-13.897
▁LEV	-13.8973
▁enza	-13.8974
ply	-13.8975
▁rahm	-13.8976
▁lc	-13.8977
▁AHA	-13.8979
▁knas	-13.8979
WE	-13.898
▁klin	-13.898
▁pjäl	-13.8981
▁ully	-13.8982
▁INF	-13.8998
acy	-13.9003
itz	-13.9007
73	-13.9008
▁Gin	-13.9015
▁Nam	-13.9019
▁rudg	-13.9024
▁rine	-13.9026
▁ULT	-13.9045
▁CHA	-13.9053
▁vaja	-13.9056
▁OD	-13.9067
▁Zin	-13.9068
▁SC	-13.9073
▁Lek	-13.9073
▁wee	-13.9083
yck	-13.9089
NAN	-13.9089
zu	-13.9093
▁KPI	-13.9098
▁nåda	-13.9101
mour	-13.9106
▁arwi	-13.9108
hod	-13.9109
▁COO	-13.9122
▁obje	-13.9122
▁Tap	-13.9124
▁lbs	-13.9128
▁ESC	-13.9129
▁alvi	-13.9129
▁tela	-13.9131
cel	-13.9137
ynt	-13.9138
ggar	-13.9139
▁enyl	-13.9148
FU	-13.9154
OI	-13.9163
▁KD	-13.9167
▁Ull	-13.9168
▁Num	-13.9181
▁Hy	-13.9183
▁ACC	-13.9185
▁joj	-13.9194
▁amah	-13.9202
▁FR	-13.9204
▁XM	-13.9207
▁NH	-13.9211
▁Côt	-13.9211
pig	-13.9224
ana	-13.9224
▁IPO	-13.9224
GG	-13.9229
zzy	-13.9229
▁isker	-13.9233
agel	-13.9235
▁RAD	-13.9238
▁LER	-13.9239
▁01	-13.9242
Do	-13.9242
▁ø	-13.9245
▁ruts	-13.9245
▁IM	-13.9246
▁SB	-13.9247
▁vane	-13.9249
▁math	-13.925
yri	-13.9257
oc	-13.9263
▁Crom	-13.9263
▁Bend	-13.9264
▁Fei	-13.9265
uga	-13.9278
▁Ropa	-13.9279
▁andan	-13.9279
LES	-13.9282
▁bou	-13.9283
▁Ive	-13.9288
▁ahli	-13.9293
RAT	-13.9295
gs	-13.9297
▁Zhan	-13.9297
nyo	-13.9305
Be	-13.931
aldo	-13.9314
▁Yar	-13.9317
▁knö	-13.9326
ELT	-13.9327
ager	-13.9333
▁FS	-13.9339
▁Yi	-13.9341
eq	-13.9344
rel	-13.9345
▁Gir	-13.9347
▁Kid	-13.9348
▁modig	-13.9349
▁XD	-13.9353
mor	-13.9353
▁cut	-13.9354
▁raw	-13.9359
com	-13.9361
▁NVI	-13.9367
▁ARN	-13.9368
▁Pic	-13.9373
▁dB	-13.9377
▁BIG	-13.9379
▁PPE	-13.9382
▁3-	-13.9382
▁kåpa	-13.9383
▁IO	-13.9386
▁ENT	-13.9393
▁dhi	-13.9397
RI	-13.9397
▁FRA	-13.9404
▁Mala	-13.9412
▁Zig	-13.9414
▁odr	-13.9421
CL	-13.9423
▁rvod	-13.9424
▁llie	-13.9424
}	-13.9424
—	-13.9425
loy	-13.9425
▁Wai	-13.9426
wan	-13.9426
▁Zay	-13.9427
vana	-13.9429
▁FAR	-13.9442
▁[3]	-13.9443
😛	-13.9443
▁icchu	-13.9443
▁eeney	-13.9444
▁obago	-13.9444
▁OLED	-13.9444
▁§§	-13.9444
▁sipp	-13.9445
▁guez	-13.9445
▁SvD	-13.9445
▁ELEC	-13.9445
▁URE	-13.9446
▁uyana	-13.9446
▁👍	-13.9446
▁rgery	-13.9449
▁hutan	-13.9451
oogl	-13.9451
▁norré	-13.9451
▁HOME	-13.9453
▁EMA	-13.9454
▁FOX	-13.9454
▁Shack	-13.9455
▁EVA	-13.9455
▁Zamb	-13.9456
/5	-13.9457
▁Brå	-13.946
▁CJ	-13.9462
ajo	-13.9463
▁Crest	-13.9463
HB	-13.9464
▁Fager	-13.9465
▁Said	-13.9467
cc	-13.9467
▁Ååå	-13.9471
▁Nett	-13.9472
▁kjö	-13.9472
▁CK	-13.9473
anny	-13.9474
▁IFT	-13.9474
▁Liga	-13.9477
▁tavl	-13.948
HP	-13.948
▁KGB	-13.9481
▁patra	-13.9481
SY	-13.9482
▁ISH	-13.9483
▁Rud	-13.9483
VAC	-13.9483
▁laim	-13.9484
▁Klau	-13.9486
pr	-13.9486
▁rvode	-13.9487
▁chem	-13.9487
▁label	-13.9488
▁65%	-13.9492
▁GH	-13.9492
▁Klan	-13.9494
▁plc	-13.9495
▁ARK	-13.9495
▁pikar	-13.9496
▁Pico	-13.9496
▁edul	-13.9497
▁Doha	-13.9499
▁RJ	-13.95
▁njou	-13.9501
▁50.	-13.9501
▁NEW	-13.9502
▁uji	-13.9503
▁sugn	-13.9505
▁akh	-13.9506
▁azaa	-13.9508
▁EHF	-13.951
▁nop	-13.951
SIC	-13.9511
▁Logo	-13.9512
▁ulz	-13.9516
▁PLC	-13.9517
▁2.5	-13.9517
▁ffus	-13.9518
▁gig	-13.9519
▁114	-13.9526
▁Saig	-13.9528
CAM	-13.9529
▁152	-13.9531
▁123	-13.9531
▁122	-13.9534
▁Shea	-13.9535
▁ncho	-13.9535
▁pru	-13.9536
▁SVE	-13.9537
▁CIR	-13.954
▁17:	-13.954
▁Vinn	-13.9542
29	-13.9543
▁giro	-13.9544
▁amaz	-13.9545
▁RW	-13.9553
rem	-13.9553
▁whee	-13.9556
▁spö	-13.9557
▁mojis	-13.9558
riga	-13.956
▁11)	-13.9562
▁TIA	-13.9562
iss	-13.9566
▁urder	-13.9572
KE	-13.9572
▁Loss	-13.9578
appa	-13.9581
▁RR	-13.9583
▁Whea	-13.9584
▁poxi	-13.959
▁alsh	-13.9592
▁Sue	-13.9596
▁Tax	-13.9601
▁ttja	-13.9602
ACC	-13.9602
▁KV	-13.9608
▁Zul	-13.9612
igh	-13.9613
▁risp	-13.9614
▁lief	-13.9615
▁Tab	-13.9615
▁BE	-13.9616
VG	-13.9619
NST	-13.9621
▁rämj	-13.9622
▁RB	-13.9625
▁VPS	-13.9626
▁rviv	-13.9629
ARS	-13.9629
ACS	-13.9632
▁9.2	-13.9633
▁Bari	-13.9635
GP	-13.9636
▁nanny	-13.9647
▁urdu	-13.9654
▁hey	-13.9656
▁ohan	-13.9656
▁LUT	-13.9663
▁SIP	-13.9663
▁Yea	-13.9665
▁plas	-13.9667
▁ouche	-13.9668
▁112	-13.9669
▁cost	-13.9671
▁irri	-13.9671
▁27,	-13.968
û	-13.9681
▁20:	-13.9685
▁Hede	-13.9685
▁Sick	-13.9687
idd	-13.969
▁tinel	-13.9697
▁02	-13.9699
▁Vann	-13.9705
▁aleb	-13.9707
▁Hal	-13.9714
▁Knu	-13.9716
jon	-13.9718
▁MCT	-13.9724
KD	-13.9728
▁HER	-13.9729
▁urman	-13.9734
pare	-13.9737
▁takar	-13.9737
▁kupa	-13.9738
arbo	-13.9739
▁Pub	-13.9742
▁Trä	-13.9744
▁säck	-13.9746
nas	-13.9749
▁abat	-13.9755
▁CI	-13.9755
Å	-13.9755
TN	-13.976
▁Dau	-13.9766
aza	-13.9767
▁doll	-13.9768
▁ERN	-13.9768
here	-13.977
▁trud	-13.9779
out	-13.9786
▁FIT	-13.979
▁agag	-13.9793
▁vul	-13.9797
▁alak	-13.9799
▁Lip	-13.9808
▁frag	-13.9812
▁rcha	-13.9819
▁thor	-13.9822
%	-13.9825
▁Tung	-13.9826
▁phen	-13.9827
lett	-13.9829
ANA	-13.9841
▁tårö	-13.9842
▁hitt	-13.9843
▁ntz	-13.9844
SCA	-13.9844
▁nkara	-13.9846
▁moxi	-13.9846
OG	-13.9848
▁Yay	-13.9854
▁yy	-13.9856
MEN	-13.9861
▁Tok	-13.9863
▁ÖR	-13.9868
▁oach	-13.9879
lax	-13.9881
▁nike	-13.9884
DI	-13.9887
▁thro	-13.989
mod	-13.9893
▁pick	-13.9894
▁abbi	-13.9895
▁mash	-13.9898
▁lvin	-13.9898
▁Haz	-13.9903
ND	-13.9904
▁TD	-13.9915
▁vunn	-13.9917
▁fle	-13.9918
▁wal	-13.992
▁rail	-13.992
▁MIL	-13.9923
tol	-13.9929
ā	-13.993
▁agh	-13.9933
▁asum	-13.9935
▁näv	-13.9936
▁MSM	-13.9938
83	-13.994
▁Mixe	-13.9953
▁angi	-13.9953
▁erec	-13.9959
▁grun	-13.9961
AMA	-13.9966
▁cul	-13.997
▁onis	-13.9975
VL	-13.998
NF	-13.998
ace	-13.9981
▁Xen	-13.9983
urné	-13.999
GD	-13.9999
▁ties	-14
▁eps	-14.0001
uji	-14.0006
▁ival	-14.0008
▁mås	-14.0015
▁card	-14.0015
KER	-14.0019
▁elio	-14.0023
▁PH	-14.0024
phi	-14.0026
▁most	-14.0027
▁happ	-14.0031
FG	-14.0037
▁CIM	-14.0037
▁ikla	-14.0038
▁sana	-14.0041
cci	-14.0044
▁efi	-14.0046
▁gue	-14.0056
▁RAN	-14.0059
▁eert	-14.0065
bab	-14.0069
jä	-14.0073
▁ADD	-14.0079
84	-14.008
▁eba	-14.0086
▁MH	-14.0095
ugna	-14.01
▁Sak	-14.0108
▁numb	-14.0117
▁tomm	-14.0126
▁moor	-14.0135
rä	-14.0145
▁wah	-14.0166
▁í	-14.0172
▁AME	-14.0184
▁PCB	-14.0189
▁boat	-14.019
▁mixa	-14.0195
bré	-14.0198
oxa	-14.0199
▁Ala	-14.0218
▁äkr	-14.0222
▁ISP	-14.0223
dik	-14.0224
▁anas	-14.0225
ë	-14.0225
ivar	-14.0226
▁auri	-14.0229
▁Seik	-14.0239
tur	-14.0239
▁nja	-14.024
▁ahua	-14.0247
▁LT	-14.0249
▁alva	-14.0251
▁sej	-14.0253
tta	-14.0254
GR	-14.0256
opa	-14.0259
▁gynt	-14.0259
▁olem	-14.0259
▁pep	-14.0263
▁Zum	-14.0264
hal	-14.0279
▁midd	-14.0281
▁ebel	-14.029
▁""	-14.0299
hhh	-14.0303
▁effe	-14.0305
▁MIC	-14.0316
ISK	-14.0324
▁EQ	-14.0324
▁ASC	-14.0327
▁cle	-14.0335
▁FOR	-14.0336
ang	-14.0338
▁Löv	-14.0341
tus	-14.0346
▁jev	-14.0351
▁Chea	-14.0353
cca	-14.0354
▁Giv	-14.0356
▁IVE	-14.0356
▁xb	-14.0356
3:	-14.0356
▁öö	-14.036
:2	-14.0361
▁pili	-14.0361
51	-14.0363
▁EGF	-14.0365
izu	-14.0366
▁sale	-14.0374
▁jod	-14.0375
▁emme	-14.0375
▁tyla	-14.0375
▁Nik	-14.0376
▁slip	-14.0378
▁NPC	-14.038
nye	-14.0383
▁Ost	-14.0384
HO	-14.0384
FF	-14.039
▁lash	-14.0393
▁ayan	-14.0394
▁OU	-14.0398
IDE	-14.04
FR	-14.0412
▁asch	-14.0412
IN	-14.0413
▁Ky	-14.0414
To	-14.0415
▁torf	-14.0415
umb	-14.0415
▁KO	-14.0416
gl	-14.0418
TET	-14.0429
▁model	-14.0436
▁ampu	-14.0437
▁Hud	-14.0439
▁lox	-14.0442
hia	-14.0444
gt	-14.0448
▁alah	-14.0448
liga	-14.0456
BL	-14.0459
▁tumb	-14.0463
top	-14.0463
▁tho	-14.0463
▁DEL	-14.0464
▁Kw	-14.047
▁Burl	-14.0473
▁RAT	-14.0482
▁SAR	-14.0491
▁1–	-14.0492
EH	-14.0492
▁code	-14.0494
mmet	-14.0494
▁MOR	-14.0503
▁toke	-14.0506
▁orte	-14.0506
▁USC	-14.0507
▁immo	-14.0512
▁irac	-14.0515
▁PAL	-14.0522
▁Phi	-14.0524
▁LTE	-14.0535
|	-14.0536
ÄSTA	-14.0537
nurr	-14.0538
▁PAC	-14.0538
vamp	-14.0551
▁	-14.0554
ń	-14.0554
ه	-14.0554
‒	-14.0554
▁Ó	-14.0554
▁☺	-14.0554
▁♡	-14.0554
🏼	-14.0554
▁üsse	-14.0554
▁Zadar	-14.0555
▁ğan	-14.0555
▁zhou	-14.0556
PER	-14.0556
▁OPEC	-14.0558
▁knop	-14.0558
VM	-14.0559
▁jeep	-14.056
UK	-14.056
▁razil	-14.0561
▁ury	-14.0561
▁Logan	-14.0563
▁çao	-14.0564
▁lham	-14.0567
▁uchi	-14.0568
▁hmet	-14.0569
▁kröp	-14.057
vall	-14.0571
OA	-14.0571
▁aisy	-14.0571
▁336	-14.0573
▁hub	-14.0576
▁171	-14.0578
▁gosse	-14.0578
▁GPL	-14.0579
▁205	-14.0579
▁vez	-14.058
▁Zhe	-14.0581
▁Crew	-14.0582
▁drant	-14.0583
▁WTC	-14.0584
▁dded	-14.0588
▁ESP	-14.0591
▁Sala	-14.0592
▁Nico	-14.0593
▁hjel	-14.0593
▁dez	-14.0593
fat	-14.0593
▁Raw	-14.0595
▁[9	-14.0595
▁alone	-14.0595
IFE	-14.0596
USE	-14.0598
OGR	-14.0599
ARK	-14.0599
▁$2	-14.06
SOP	-14.06
tack	-14.0601
▁285	-14.0602
▁grass	-14.0607
▁ersh	-14.0608
▁Mart	-14.0611
▁169	-14.0612
cco	-14.0613
jan	-14.0613
ache	-14.0615
▁broad	-14.0616
▁ür	-14.0618
▁asco	-14.0618
▁Loe	-14.0619
▁ROFI	-14.062
▁DM	-14.062
USD	-14.0621
▁Hj	-14.0622
▁9%	-14.0624
ECO	-14.0627
▁FCC	-14.0628
▁3,8	-14.0629
TRA	-14.0629
▁ahve	-14.0631
▁mynt	-14.0632
▁opy	-14.0634
WT	-14.0636
▁AUS	-14.0637
▁39,	-14.0638
▁Sahi	-14.0638
▁eho	-14.0638
▁usso	-14.0642
▁lance	-14.0644
SIK	-14.0649
▁pap	-14.0651
PI	-14.0651
▁Mau	-14.0655
▁SLA	-14.0656
kra	-14.0658
▁ousin	-14.0661
▁LIM	-14.0661
▁tudi	-14.0665
▁18)	-14.0672
▁feel	-14.0674
▁Xeno	-14.0674
▁Burb	-14.0678
seum	-14.0679
▁Brick	-14.068
▁crem	-14.0681
uce	-14.0681
▁hwa	-14.0685
1:	-14.0689
ICK	-14.0691
▁Curt	-14.0694
▁PLM	-14.07
▁riso	-14.0701
▁NE	-14.0701
▁Haft	-14.0701
▁:'	-14.0706
alma	-14.071
▁ucha	-14.071
CIT	-14.071
lips	-14.0712
▁drap	-14.0712
▁tem	-14.072
▁luss	-14.0722
▁Negr	-14.0725
FB	-14.0727
RED	-14.0729
▁ussy	-14.073
NR	-14.0731
ocu	-14.0737
Po	-14.0739
▁comp	-14.0741
▁33.	-14.0742
▁shak	-14.0744
▁vuls	-14.0747
▁ør	-14.075
▁yth	-14.0757
kh	-14.0759
▁spy	-14.076
æ	-14.076
▁grid	-14.076
▁SDR	-14.0765
▁oose	-14.0769
▁Wra	-14.0771
IFT	-14.0774
▁Mahm	-14.0775
▁Kain	-14.0776
▁indy	-14.0777
▁PBS	-14.0781
▁Ash	-14.0782
▁32.	-14.0788
ukt	-14.0788
47	-14.079
▁AY	-14.0793
hir	-14.0795
▁Riva	-14.08
▁Niz	-14.0801
lux	-14.0805
▁Rök	-14.0809
▁Lette	-14.0814
▁Zy	-14.0815
▁CAR	-14.0816
▁Bloo	-14.0817
▁niff	-14.0819
eger	-14.082
▁8-	-14.0825
▁grey	-14.083
ish	-14.0832
▁Bron	-14.0833
▁niss	-14.084
▁Vild	-14.084
▁shock	-14.084
▁gath	-14.0844
▁Vend	-14.0846
▁lung	-14.0846
▁esos	-14.0853
▁ilvr	-14.0856
EY	-14.0857
▁pire	-14.0859
ôte	-14.086
▁SW	-14.086
lex	-14.0863
▁Nou	-14.0875
con	-14.088
▁Hale	-14.0882
▁matra	-14.0889
▁29.	-14.0897
▁ç	-14.0897
PY	-14.09
▁Dji	-14.0916
ITE	-14.0921
thro	-14.0922
PK	-14.0923
▁wana	-14.0928
▁kena	-14.0929
▁Vern	-14.0935
▁UA	-14.0938
link	-14.0939
dó	-14.0941
uft	-14.0944
gasa	-14.0945
vept	-14.0948
▁Mik	-14.0949
thma	-14.0955
▁nöl	-14.0956
rå	-14.0964
BV	-14.0964
▁GU	-14.0965
▁pine	-14.0972
osé	-14.0977
▁Meg	-14.098
▁ndur	-14.0983
rger	-14.0986
▁half	-14.0987
▁Shei	-14.099
nni	-14.0993
▁Alo	-14.0994
don	-14.1
▁DA	-14.1001
ltz	-14.1001
oll	-14.1006
▁garv	-14.1007
tod	-14.1007
▁assel	-14.101
▁sago	-14.1015
▁Como	-14.1024
agn	-14.1025
On	-14.1026
▁Wu	-14.1033
pra	-14.1038
▁MOS	-14.1039
öck	-14.104
est	-14.1042
EE	-14.1044
alax	-14.1045
▁BAS	-14.1049
▁edw	-14.1051
▁lean	-14.1055
▁GD	-14.1055
▁skift	-14.1056
umab	-14.1066
▁Bas	-14.1073
▁ISA	-14.1076
▁(#	-14.1077
▁måst	-14.1077
öl	-14.1078
▁hein	-14.1088
TTA	-14.1104
▁lz	-14.1111
▁alim	-14.1125
▁Boro	-14.1126
rupt	-14.1127
aze	-14.113
▁DP	-14.113
▁moon	-14.1131
▁Krat	-14.1137
▁Form	-14.1142
▁Isi	-14.1143
rug	-14.1146
rza	-14.1154
▁ELSE	-14.1158
cz	-14.1159
ame	-14.1168
▁erran	-14.1173
▁paj	-14.1174
▁gÃ	-14.1174
▁alil	-14.1178
▁Gab	-14.1185
nöt	-14.119
årar	-14.119
awa	-14.1191
▁lak	-14.1192
DY	-14.1195
▁adal	-14.1202
▁Bot	-14.1222
lugo	-14.1229
▁lleri	-14.123
▁Gri	-14.1231
▁Pop	-14.1231
ić	-14.1233
▁ahl	-14.1241
run	-14.1247
▁gaff	-14.1249
▁PB	-14.1261
▁mbu	-14.1276
silo	-14.1277
ETA	-14.128
▁Sed	-14.1282
▁take	-14.1282
▁llus	-14.1282
TB	-14.1283
NO	-14.1284
▁Lill	-14.1287
▁armo	-14.1291
▁dwo	-14.1295
▁ww	-14.1297
.”	-14.1298
oca	-14.1301
▁caus	-14.1306
AIS	-14.1307
▁COT	-14.1313
use	-14.1318
▁aemo	-14.1323
▁IEN	-14.1329
▁vurm	-14.1331
fel	-14.1338
olf	-14.1343
emb	-14.1345
▁EFS	-14.1354
▁VEN	-14.1364
▁kutt	-14.1366
ost	-14.1368
▁uru	-14.1383
inn	-14.1385
dom	-14.1393
▁herm	-14.14
▁NP	-14.1404
HI	-14.1409
kro	-14.1414
Ox	-14.142
▁Raj	-14.1425
ivi	-14.1429
▁rtz	-14.1434
LE	-14.1438
▁REA	-14.1441
▁NAT	-14.1443
▁ECH	-14.145
▁kitt	-14.1455
▁tou	-14.1461
▁adid	-14.1467
▁athe	-14.1472
▁ibbo	-14.1476
▁alie	-14.1485
▁?!	-14.1488
lim	-14.1494
▁cub	-14.1497
▁Sula	-14.151
▁Fett	-14.1513
▁EK	-14.1518
▁tair	-14.1519
▁STAR	-14.152
▁CNT	-14.152
▁Brun	-14.1521
berr	-14.1524
▁ltan	-14.1525
▁BD	-14.1531
▁MAG	-14.1545
▁Petr	-14.1548
▁Lam	-14.155
▁Arg	-14.1551
▁irig	-14.1552
▁IBC	-14.1554
▁hipp	-14.1555
låg	-14.1558
▁råna	-14.1567
▁joh	-14.1581
COM	-14.1586
:8	-14.1589
▁aug	-14.1589
▁UVA	-14.1589
▁OW	-14.159
▁oud	-14.1591
kin	-14.1593
▁WR	-14.16
▁mex	-14.1601
unga	-14.1603
▁uot	-14.1604
▁Hof	-14.1604
ÖR	-14.1606
lot	-14.1615
▁nolo	-14.162
▁Blo	-14.1627
sha	-14.1634
▁FAA	-14.1637
▁>.	-14.1637
▁OL	-14.1645
▁SEM	-14.1645
▁pint	-14.1646
▁AZ	-14.1648
▁sther	-14.1649
fec	-14.1651
▁lca	-14.1652
▁CAP	-14.1653
▁IGH	-14.1658
anor	-14.1665
▁dac	-14.1674
ensi	-14.168
▁Nil	-14.1687
▁BEH	-14.1691
eak	-14.1692
▁myn	-14.1698
igur	-14.1701
▁asma	-14.1709
cou	-14.1717
IM	-14.1722
bla	-14.1725
▁drum	-14.1727
▁Fou	-14.1728
lew	-14.173
▁heat	-14.173
▁RIP	-14.1736
ELA	-14.1743
KC	-14.175
KV	-14.1761
▁cou	-14.1762
ÖN	-14.1764
én	-14.1768
▁PCO	-14.1769
nick	-14.177
RE	-14.1771
▁XR	-14.1772
hor	-14.1773
åtar	-14.1776
▁alau	-14.1776
las	-14.1778
▁ilis	-14.1784
▁bäck	-14.1784
▁Zei	-14.1785
α	-14.1785
»	-14.1786
•	-14.1786
▁KON	-14.1787
ÄTT	-14.1788
▁NOT	-14.1788
▁amsa	-14.179
▁TL	-14.1791
▁raz	-14.1793
▁BIS	-14.1795
▁Á	-14.1804
▁Î	-14.1804
▁↑	-14.1804
✔	-14.1804
🙁	-14.1804
▁oakim	-14.1804
▁GNSS	-14.1804
▁JÄLV	-14.1804
▁Craps	-14.1804
▁ASAP	-14.1805
▁iyadh	-14.1805
▁Ååh	-14.1805
wald	-14.1805
▁-.-	-14.1806
▁Burke	-14.1806
▁Yan	-14.1807
▁Niño	-14.1807
▁PK	-14.1807
▁eiler	-14.181
▁SDG	-14.1811
▁CEC	-14.1812
▁CET	-14.1814
▁---	-14.1816
▁UTC	-14.1817
▁VÅR	-14.1819
▁GÖR	-14.1819
▁ndalf	-14.1819
avaj	-14.182
▁amage	-14.1821
▁venge	-14.1823
igg	-14.1823
▁Whale	-14.1824
▁Fig	-14.1824
▁yrne	-14.1825
▁eact	-14.1826
▁Zac	-14.1826
lt	-14.1826
▁Maud	-14.1827
▁INGA	-14.1828
▁OPE	-14.1828
▁ahoe	-14.1828
▁pide	-14.1829
▁ucho	-14.183
▁NL	-14.1831
▁FSL	-14.1832
▁Maze	-14.1836
▁bbot	-14.1837
▁rause	-14.184
OB	-14.184
▁CFS	-14.184
IU	-14.184
1⁄	-14.1841
▁Gym	-14.1842
-)	-14.1843
▁OCK	-14.1843
▁Lact	-14.1845
UX	-14.1848
LAD	-14.1849
▁PER	-14.185
▁193	-14.185
".	-14.1851
Ex	-14.1851
▁raud	-14.1853
▁KL	-14.1854
▁CMA	-14.1855
lake	-14.1855
henz	-14.1855
ann	-14.1857
▁oldem	-14.1858
▁ancho	-14.1859
▁ovat	-14.186
▁osco	-14.1862
▁SLAG	-14.1862
▁eppig	-14.1864
▁ruger	-14.1868
▁puts	-14.1869
ASH	-14.187
▁EIT	-14.187
▁mnon	-14.1871
▁AW	-14.1873
lugg	-14.1875
DEN	-14.1875
rra	-14.1875
▁Doll	-14.1875
▁BR	-14.1878
▁swap	-14.1878
amm	-14.1878
▁nook	-14.1878
▁vrål	-14.188
OLL	-14.1881
▁grace	-14.1881
▁Suza	-14.1882
SPA	-14.1882
▁Moab	-14.1886
AI	-14.1887
▁TART	-14.1887
▁kimr	-14.1888
▁ådro	-14.1888
▁akim	-14.1888
▁Melo	-14.1888
äsa	-14.1888
▁CFR	-14.1889
▁lada	-14.1889
▁2–	-14.1895
pho	-14.1897
▁Mayor	-14.1899
▁ttj	-14.1899
lon	-14.19
▁Goal	-14.1901
▁TX	-14.1902
▁hepp	-14.1903
IDI	-14.1905
LAR	-14.1906
▁Noak	-14.1906
▁Copp	-14.1907
▁21)	-14.1908
▁pect	-14.1912
ney	-14.1912
▁OO	-14.1913
dan	-14.1913
uza	-14.1914
▁Novg	-14.1917
▁metoo	-14.1918
PAC	-14.1919
▁irch	-14.1921
ppnå	-14.1922
▁upac	-14.1924
▁Yum	-14.1924
▁urti	-14.1925
jd	-14.1926
CAG	-14.1926
BW	-14.193
▁tow	-14.1932
▁naro	-14.1934
OTH	-14.1938
▁aq	-14.194
▁Lax	-14.1941
▁Noir	-14.1945
▁Fey	-14.195
▁mist	-14.1953
▁Reel	-14.1954
▁NSF	-14.1958
▁Grav	-14.1961
▁llva	-14.1961
▁aleh	-14.1962
litz	-14.1965
81	-14.1967
▁REN	-14.197
▁vävd	-14.197
▁essed	-14.1971
▁PORT	-14.1973
▁Gol	-14.1974
OST	-14.1974
skl	-14.1974
▁kruv	-14.1974
▁louc	-14.1977
▁ltz	-14.1979
krit	-14.198
▁calc	-14.1984
ziz	-14.199
▁JC	-14.1992
XL	-14.1994
mne	-14.1994
▁lmos	-14.1995
▁oooo	-14.1999
tjar	-14.2
▁Plata	-14.2001
▁hype	-14.2007
▁aico	-14.201
▁karm	-14.2014
▁irdi	-14.2023
▁boj	-14.2026
▁STS	-14.2028
HET	-14.203
▁SNS	-14.203
▁veny	-14.2033
▁Doh	-14.2033
NNA	-14.2035
▁VERA	-14.2037
▁onz	-14.2038
▁mfit	-14.2039
▁STOP	-14.2039
▁Zur	-14.2045
▁lesh	-14.2047
▁elsh	-14.2049
▁draw	-14.2052
▁oty	-14.2054
▁Koll	-14.2054
▁ktum	-14.2055
▁RM	-14.2058
▁hugg	-14.206
▁pjä	-14.2061
HQ	-14.2061
▁RN	-14.2065
rex	-14.207
▁grou	-14.2075
▁IGA	-14.2076
▁atja	-14.2078
▁ÄF	-14.2079
▁Kau	-14.2079
▁plag	-14.2081
▁came	-14.2082
▁Sie	-14.2083
asc	-14.2086
▁Tip	-14.2089
▁ajas	-14.2091
ulo	-14.2093
sho	-14.2094
▁orri	-14.2095
▁putt	-14.2099
▁ANT	-14.2103
▁rew	-14.2105
▁Ships	-14.2109
▁Tao	-14.2113
▁HB	-14.2118
▁lyst	-14.212
ake	-14.2123
lad	-14.2124
▁ahari	-14.2126
▁aube	-14.2127
▁atek	-14.2128
▁Yes	-14.2129
▁LOVE	-14.2131
▁evin	-14.2137
▁ATC	-14.2147
EG	-14.2148
▁MMO	-14.2148
uber	-14.2155
▁Nell	-14.2155
▁IDS	-14.2155
▁LAB	-14.2157
ure	-14.216
▁cyan	-14.2162
▁CL	-14.2163
▁such	-14.2163
▁usz	-14.2163
▁möda	-14.2165
▁NCI	-14.2166
▁GN	-14.2168
äss	-14.2169
▁Eld	-14.2169
tad	-14.2182
▁Nex	-14.2184
▁teps	-14.2184
OV	-14.2185
▁husse	-14.2189
▁Haw	-14.2189
EMA	-14.2191
▁asun	-14.2192
▁thos	-14.2195
mink	-14.2199
▁35.	-14.2212
▁BSD	-14.2217
▁laren	-14.2224
REN	-14.2227
▁trips	-14.2229
áp	-14.223
DX	-14.2233
▁wat	-14.2237
tré	-14.2241
mba	-14.2243
▁ermit	-14.2245
▁erlin	-14.2249
▁AE	-14.2261
▁rutan	-14.2264
▁JS	-14.2269
▁Neu	-14.2271
▁Saj	-14.2272
ACO	-14.2272
▁Nag	-14.2276
▁lånen	-14.2277
▁Brus	-14.228
▁ICF	-14.2281
▁toil	-14.2281
▁orbo	-14.2292
▁RTS	-14.2294
93	-14.2295
▁(9	-14.2295
ooth	-14.2295
▁doz	-14.2298
▁UB	-14.2299
▁much	-14.2302
▁KG	-14.2306
▁kash	-14.2308
▁såren	-14.2311
▁But	-14.2312
uf	-14.2322
the	-14.2325
▁ircu	-14.2327
jor	-14.2329
ró	-14.2331
▁SX	-14.2338
cau	-14.234
▁FRI	-14.2343
▁NZ	-14.2343
▁kaj	-14.2344
▁Dyr	-14.235
▁VIK	-14.235
▁tham	-14.2353
▁wear	-14.2373
▁pup	-14.2373
▁SMH	-14.2376
OF	-14.2378
▁TEM	-14.2382
▁Bain	-14.2384
▁pyte	-14.2386
▁orod	-14.2392
GO	-14.2392
▁Zel	-14.2393
▁neck	-14.2398
▁LGB	-14.2398
▁ICE	-14.2399
▁Cel	-14.24
vine	-14.2406
anne	-14.2419
▁PAN	-14.2423
▁xid	-14.2424
▁BM	-14.2434
▁Dx	-14.2437
▁wad	-14.2439
▁ezo	-14.2441
▁unco	-14.2442
▁laus	-14.2444
▁maz	-14.2444
▁kins	-14.2448
▁illä	-14.2451
▁STE	-14.2452
▁piel	-14.2453
▁lisn	-14.246
▁Ion	-14.246
▁tagne	-14.2463
▁ETC	-14.2466
▁NN	-14.2467
▁wir	-14.2469
▁Aro	-14.2475
rid	-14.2476
få	-14.2483
3.	-14.249
▁Shep	-14.2493
▁Wille	-14.2493
Ha	-14.2497
▁CH	-14.2502
▁HET	-14.2514
oza	-14.2516
▁UNE	-14.2531
▁idos	-14.2532
▁anya	-14.2533
▁Rope	-14.2533
land	-14.2536
▁Hear	-14.2541
▁umab	-14.2543
▁pud	-14.2546
shi	-14.2548
sin	-14.2548
▁liz	-14.2553
näll	-14.2554
▁Zu	-14.2555
▁SEL	-14.2558
GY	-14.2561
▁gapa	-14.2569
idi	-14.257
▁rusen	-14.2572
▁telo	-14.2576
▁Damm	-14.2579
▁Ox	-14.2585
3)	-14.2588
tó	-14.2594
åsom	-14.26
▁JU	-14.2601
▁NYH	-14.2602
RAL	-14.2604
▁xima	-14.2608
lose	-14.2612
▁akra	-14.2613
LIG	-14.2613
▁neke	-14.2618
▁ELL	-14.2619
EB	-14.262
▁arly	-14.2626
nth	-14.2627
pan	-14.2629
▁arot	-14.263
aph	-14.2631
▁arbe	-14.2633
▁oble	-14.2634
▁IGE	-14.2634
▁veli	-14.2637
▁roth	-14.2638
▁pow	-14.2639
▁Zid	-14.2643
▁pir	-14.2645
▁ATE	-14.2651
▁Tub	-14.2652
spa	-14.2654
▁fron	-14.2655
amp	-14.2662
▁cust	-14.2669
▁ruga	-14.2669
▁EMC	-14.2677
▁PCS	-14.2689
▁jak	-14.269
▁olat	-14.2698
▁Itu	-14.2699
▁cto	-14.2701
OC	-14.2701
ale	-14.2701
▁iU	-14.2702
▁LY	-14.2703
▁CAL	-14.271
▁phal	-14.2716
uvo	-14.273
nar	-14.2739
▁Lad	-14.2741
loss	-14.2742
▁lega	-14.2742
iff	-14.2743
▁plut	-14.2746
halt	-14.2748
▁råga	-14.2761
fve	-14.2765
resc	-14.2768
▁pach	-14.2769
ect	-14.277
▁hero	-14.2773
▁Rid	-14.2776
▁STR	-14.2784
▁ERM	-14.2786
gna	-14.2787
▁rath	-14.2791
▁24.	-14.2792
▁MU	-14.2806
▁Malo	-14.2812
urvi	-14.2813
nk	-14.2819
▁usla	-14.2821
6,	-14.2822
OT	-14.2824
nutt	-14.2827
▁Zer	-14.2827
▁NED	-14.2832
▁case	-14.2834
▁Kiri	-14.2843
EP	-14.2844
orph	-14.2848
▁bau	-14.2855
▁jälk	-14.2863
▁glim	-14.2867
94	-14.2871
▁Zor	-14.2872
▁IDC	-14.2876
▁vex	-14.2881
▁MID	-14.2887
▁Rada	-14.2892
pet	-14.2897
▁ousi	-14.2897
▁Nec	-14.2902
):	-14.2905
▁Wh	-14.2917
▁elmo	-14.2925
ł	-14.2927
▁rodo	-14.2932
▁REG	-14.2935
▁IES	-14.2935
ers	-14.294
▁CLI	-14.2941
▁ORR	-14.2944
ruf	-14.2944
ora	-14.2945
▁umba	-14.2954
▁shot	-14.2957
▁Ivo	-14.2958
duc	-14.2959
ebo	-14.2975
▁aila	-14.2981
▁reme	-14.2997
▁Cob	-14.3
▁XE	-14.3006
nda	-14.301
▁Nava	-14.3011
ylax	-14.3017
▁näss	-14.3018
rät	-14.3019
▁RIM	-14.302
▁lura	-14.3021
▁sarm	-14.3023
▁orni	-14.3027
▁ü	-14.3033
▁Sabi	-14.3038
▁umie	-14.3043
ybo	-14.3043
▁EW	-14.3045
▁aifa	-14.3046
xo	-14.3051
▁Kras	-14.307
ös	-14.3072
▁sabo	-14.3072
▁ADE	-14.3074
ket	-14.3076
▁phor	-14.3081
auf	-14.3082
▁Yam	-14.3083
▁QT	-14.3083
▁eena	-14.3091
YS	-14.31
GON	-14.3108
▁arci	-14.3114
▁HSB	-14.3121
▁WSP	-14.3121
ampa	-14.3124
åta	-14.3132
▁Sé	-14.3134
▁ania	-14.3135
▁KUL	-14.3144
▁Elm	-14.3147
▁teka	-14.3148
ÄLL	-14.3148
▁BUS	-14.315
ote	-14.3152
▁ygge	-14.3153
▁DAA	-14.3158
LK	-14.3162
ño	-14.3163
▁trup	-14.3164
▁tamb	-14.3164
▁sax	-14.3174
▁rsät	-14.3176
▁TEC	-14.318
▁OT	-14.3184
skot	-14.3185
▁EB	-14.3189
▁EFT	-14.3192
ÄLD	-14.3201
▁shee	-14.3205
▁FAN	-14.3207
▁Wiz	-14.3208
ilur	-14.3212
Åh	-14.3217
UU	-14.3217
nad	-14.3219
usen	-14.322
++	-14.3221
▁APP	-14.3227
jäs	-14.3227
▁ERS	-14.3227
EEE	-14.323
BB	-14.3232
▁TÜV	-14.3233
▁	-14.3233
▁′	-14.3233
▁DHCP	-14.3233
▁wrong	-14.3233
▁raków	-14.3233
▁roso	-14.3233
▁IDEO	-14.3233
rog	-14.3234
▁NOVA	-14.3234
▁¬	-14.3235
▁ʹ	-14.3235
▁JER	-14.3235
▁Ralf	-14.3235
▁aragd	-14.3236
▁ufry	-14.3236
▁07	-14.3236
▁-->	-14.3236
▁leece	-14.3237
▁Wharf	-14.3237
▁hydda	-14.3237
▁EQT	-14.3237
▁NW	-14.3237
▁2?	-14.3237
▁ulox	-14.3238
▁WASH	-14.3238
▁Zappa	-14.3238
▁yoga	-14.3239
▁YES	-14.324
▁njoy	-14.324
▁SIN	-14.3242
dum	-14.3242
▁orfu	-14.3242
▁Heron	-14.3243
LY	-14.3244
▁uigi	-14.3244
▁TAC	-14.3244
Ju	-14.3245
▁(+	-14.3245
▁vonne	-14.3245
▁nösk	-14.3247
▁HUA	-14.3247
▁ERD	-14.3247
▁irrig	-14.3248
▁Calc	-14.3249
▁QX	-14.3249
▁jers	-14.325
▁NK	-14.325
▁ahiti	-14.3251
▁feira	-14.3252
WG	-14.3252
▁anban	-14.3253
▁relax	-14.3253
▁IONS	-14.3253
▁33%	-14.3253
▁OLY	-14.3253
▁mjö	-14.3253
▁urban	-14.3256
▁XK	-14.3258
▁KRAM	-14.3258
▁Trag	-14.3259
▁ahdi	-14.3259
▁93%	-14.3259
▁yri	-14.3259
▁339	-14.3261
▁666	-14.3262
▁NRA	-14.3262
▁Tutu	-14.3264
▁gifva	-14.3265
▁182	-14.3268
▁6.5	-14.3268
oré	-14.3268
▁GRO	-14.3269
▁TOP	-14.3272
▁Löw	-14.3273
▁5.0	-14.3274
▁LOL	-14.3275
▁Tät	-14.3276
▁306	-14.3276
▁odos	-14.3278
▁23%	-14.328
▁[]	-14.328
▁inis	-14.3282
▁IPC	-14.3285
▁yelo	-14.3285
▁Giza	-14.3286
▁Nöt	-14.3287
▁Naka	-14.3287
▁amad	-14.3292
▁egga	-14.3293
▁Setup	-14.3294
▁174	-14.3298
▁YOU	-14.3299
NAT	-14.3302
▁PSN	-14.3305
pna	-14.3308
▁FEL	-14.331
▁opho	-14.3311
▁8,8	-14.3312
▁ESD	-14.3315
KR	-14.3315
▁TCO	-14.3318
▁Magna	-14.3321
brio	-14.3321
ULT	-14.3321
ISC	-14.3321
▁Date	-14.3322
▁146	-14.3322
▁tajt	-14.3323
▁umla	-14.3326
▁ANC	-14.333
klo	-14.333
▁stead	-14.3331
EAR	-14.3332
▁Peel	-14.3334
ASP	-14.3335
▁DAY	-14.3338
▁ddo	-14.334
▁4),	-14.3343
uski	-14.3344
IES	-14.3346
▁trypt	-14.3347
▁shaw	-14.3347
▁ARA	-14.3349
AME	-14.3358
▁Italy	-14.3359
▁RX	-14.3363
▁CG	-14.3373
▁INE	-14.3376
▁OTAL	-14.3377
NNER	-14.3377
▁RH	-14.3378
▁TAR	-14.3379
▁LIB	-14.3384
▁IRR	-14.3396
▁istro	-14.3397
č	-14.3398
▁oley	-14.3402
▁JB	-14.3404
▁Shoe	-14.3406
▁elos	-14.3408
OME	-14.3409
▁eech	-14.3411
▁göm	-14.3411
▁16)	-14.3413
▁pho	-14.3423
▁Tam	-14.3425
▁xxi	-14.3427
▁Dim	-14.3428
▁laine	-14.3428
▁Zaha	-14.3431
▁oone	-14.3432
▁KR	-14.3433
▁NAM	-14.3433
ikki	-14.3435
▁32,	-14.3436
yond	-14.3439
▁traw	-14.344
MCA	-14.3442
MMA	-14.3443
▁Zoh	-14.3443
▁RIT	-14.3451
▁Spy	-14.3452
iko	-14.3452
rop	-14.3453
RV	-14.3453
▁ATO	-14.3457
▁adla	-14.3458
usi	-14.346
:3	-14.3463
▁skim	-14.3466
▁någ	-14.3474
▁Gruv	-14.3474
▁42.	-14.3476
▁WI	-14.3478
▁GEN	-14.3487
hâte	-14.3489
▁HCM	-14.3493
OH	-14.3494
race	-14.35
▁Shai	-14.3501
▁phin	-14.3506
▁LK	-14.3516
rgi	-14.3517
▁enga	-14.3517
▁luf	-14.3519
▁Åre	-14.3523
lau	-14.3526
▁15)	-14.3526
▁+1	-14.3527
▁uzz	-14.3534
AC	-14.3538
▁hew	-14.3542
▁TRO	-14.3546
non	-14.3552
oz	-14.3554
▁edici	-14.3559
▁remer	-14.3567
IDA	-14.3568
▁FP	-14.3573
WP	-14.3575
xa	-14.3577
▁RP	-14.358
hau	-14.358
▁rews	-14.3583
▁ggna	-14.3584
▁Cé	-14.3585
▁ELS	-14.3589
▁Såå	-14.359
▁Yog	-14.3591
▁Gel	-14.3592
▁pepp	-14.3599
IND	-14.3601
dit	-14.3602
▁HF	-14.3605
▁kräll	-14.3605
▁Laga	-14.3608
▁0%	-14.3612
mmer	-14.3612
afs	-14.3616
▁Sato	-14.3617
▁fodr	-14.3625
▁uman	-14.3626
▁coat	-14.3629
ism	-14.363
▁vulv	-14.3636
▁Wol	-14.3637
▁larv	-14.3639
▁ÄTT	-14.3647
▁Öh	-14.3648
▁SYN	-14.3654
▁eshu	-14.3656
▁idou	-14.3658
▁yca	-14.3659
▁ragg	-14.366
NV	-14.3661
▁rudi	-14.3665
▁russ	-14.3668
▁KM	-14.3673
87	-14.3679
▁left	-14.3681
▁Unf	-14.3683
▁olom	-14.3685
▁lipo	-14.3688
▁kråk	-14.3694
▁Brau	-14.3696
▁elga	-14.3696
▁Tri	-14.3699
rm	-14.37
▁JD	-14.3701
▁UF	-14.3707
agra	-14.371
▁Zol	-14.3711
▁gluk	-14.3715
rush	-14.3717
▁LN	-14.3718
▁orch	-14.3724
▁AKT	-14.3726
▁amz	-14.3729
ula	-14.3729
mes	-14.3733
owl	-14.3733
▁cce	-14.3737
▁arsan	-14.3738
▁Shoo	-14.3742
▁Rez	-14.3766
▁()	-14.3768
▁ELT	-14.3769
▁Volc	-14.3773
▁gupp	-14.3774
▁Pul	-14.3777
▁bsol	-14.3778
▁mira	-14.3779
▁26.	-14.3781
▁clu	-14.3781
▁Lex	-14.3787
▁ECC	-14.3793
▁Ef	-14.3796
▁Dol	-14.3799
irro	-14.3806
uzu	-14.381
mat	-14.3811
El	-14.3811
▁ALT	-14.3812
off	-14.3818
▁Mixa	-14.3819
▁mphi	-14.3819
▁Cros	-14.3823
▁moss	-14.3826
▁Brit	-14.3828
▁olam	-14.3832
▁ADC	-14.3832
▁KF	-14.384
▁(;	-14.384
▁node	-14.384
NB	-14.384
▁RADE	-14.3849
▁UP	-14.3853
▁Kro	-14.3855
▁akho	-14.3856
▁oby	-14.3857
▁Put	-14.3858
bot	-14.386
KY	-14.3866
▁ermis	-14.3869
▁wha	-14.3876
▁etno	-14.3879
▁Buen	-14.3882
▁ryth	-14.3883
▁OC	-14.3889
▁TF	-14.3892
VÅ	-14.3897
▁kaja	-14.3897
ewa	-14.3906
▁Roc	-14.3911
DAP	-14.3918
BU	-14.3925
ANS	-14.3927
cap	-14.3935
▁Yod	-14.3939
▁swa	-14.3941
SSC	-14.3941
zza	-14.3949
▁rteg	-14.3952
caz	-14.3963
▁ercer	-14.3967
▁feti	-14.3971
▁thal	-14.398
▁Had	-14.3982
awn	-14.3984
mbi	-14.3994
▁DOC	-14.3996
oxo	-14.3996
raci	-14.3998
▁ianc	-14.3998
slo	-14.3999
osse	-14.4001
▁Coat	-14.4004
▁AML	-14.4006
ød	-14.4016
ozi	-14.4018
låt	-14.4018
yto	-14.4022
nus	-14.4022
▁senal	-14.4023
▁MRS	-14.4026
áv	-14.4027
achi	-14.4036
yron	-14.4037
61	-14.4038
▁Goss	-14.4045
▁maria	-14.4051
imm	-14.4055
▁vitj	-14.4056
▁sour	-14.407
▁nipp	-14.4074
▁án	-14.4088
hoto	-14.4092
▁liab	-14.4094
CES	-14.4098
▁Älv	-14.4098
▁Ery	-14.4099
▁zab	-14.41
▁umar	-14.4103
ppy	-14.4112
▁adam	-14.4115
▁nche	-14.4132
▁UKA	-14.4132
▁aiko	-14.4133
▁tuta	-14.4134
▁aban	-14.4135
▁gama	-14.4137
nen	-14.4148
ophi	-14.4166
▁usan	-14.4178
oulo	-14.4183
åg	-14.419
▁Ono	-14.4192
▁Shiv	-14.4199
iwi	-14.4205
MH	-14.4206
▁Foge	-14.4209
▁OND	-14.4213
0+	-14.4216
Co	-14.4245
▁hou	-14.4248
▁Alg	-14.425
▁rox	-14.4252
▁ESL	-14.4254
▁ALA	-14.4268
▁niz	-14.4273
š	-14.4273
▁nke	-14.4278
▁gura	-14.428
▁jel	-14.4289
▁pex	-14.429
ric	-14.4297
ddo	-14.4314
▁writ	-14.4315
▁NIS	-14.4318
ado	-14.4324
▁peni	-14.4329
▁used	-14.4341
▁smid	-14.4343
cop	-14.4346
DGE	-14.4351
TEN	-14.4351
▁SNP	-14.4357
▁Came	-14.436
▁xii	-14.436
▁urai	-14.4361
ååå	-14.4367
▁osad	-14.4369
▁ð	-14.4376
▁wid	-14.4377
lack	-14.4377
▁NF	-14.4378
▁INS	-14.4379
▁amur	-14.4382
▁QA	-14.4386
▁cF	-14.4387
▁Fee	-14.4395
▁ssos	-14.441
▁itis	-14.4411
▁ANS	-14.4413
leus	-14.4422
zil	-14.4423
▁osia	-14.4425
chy	-14.4433
VV	-14.4433
LEN	-14.4435
åååå	-14.4443
▁step	-14.445
▁Bean	-14.4451
:9	-14.4458
ín	-14.4459
▁enice	-14.4465
dwi	-14.4474
rez	-14.4479
KEN	-14.4485
ORE	-14.4487
ria	-14.4487
ABA	-14.449
ndow	-14.4495
oda	-14.4498
▁lix	-14.4498
▁ulmo	-14.4502
mul	-14.4503
▁#8	-14.4508
▁HC	-14.4514
NP	-14.4527
▁pone	-14.4529
▁eX	-14.4539
▁Rak	-14.4543
▁vou	-14.4547
▁RIV	-14.4555
▁Sab	-14.4558
▁Tak	-14.4567
▁urva	-14.4571
ep	-14.4574
▁CF	-14.4576
▁STA	-14.4577
mun	-14.4577
▁llra	-14.4578
gal	-14.4581
▁Gus	-14.4597
kiv	-14.4598
▁ESM	-14.46
▁Lol	-14.4607
uge	-14.4608
DV	-14.4609
▁guer	-14.4611
▁IPR	-14.4613
ohm	-14.4615
▁hear	-14.4619
▁olei	-14.462
▁Luc	-14.463
▁limp	-14.4633
▁irmi	-14.4638
▁yvä	-14.4639
▁OPC	-14.4646
▁ATS	-14.4648
EV	-14.4667
▁GW	-14.4678
▁kläde	-14.468
ago	-14.468
▁gun	-14.4682
lato	-14.4682
MES	-14.4689
AKT	-14.4704
SKT	-14.4711
usta	-14.4719
▁Neg	-14.472
▁Pie	-14.4723
▁EE	-14.4726
▁NEA	-14.4728
åhl	-14.4731
▁wara	-14.4733
ashi	-14.4738
ova	-14.4743
▁nob	-14.4746
▁CW	-14.475
▁PLO	-14.4756
▁Gli	-14.4764
▁tenc	-14.4778
▁5!	-14.4781
asso	-14.4781
▁CAS	-14.4782
▁volt	-14.4784
▁limb	-14.4787
ob	-14.4788
▁isch	-14.4792
▁varj	-14.4792
▁AIM	-14.4807
▁HQ	-14.4819
tter	-14.4825
sol	-14.4825
ouri	-14.4827
▁Rode	-14.4835
gli	-14.4837
▁attoo	-14.4838
ALT	-14.4838
▁ayy	-14.4843
▁anou	-14.4846
▁Pod	-14.4848
trix	-14.4849
▁OG	-14.4849
▁båd	-14.485
plex	-14.4852
▁åve	-14.4855
FL	-14.4857
lopp	-14.4857
ike	-14.4865
▁UDI	-14.4867
flo	-14.4867
▁JR	-14.4867
🏻	-14.4874
و	-14.4877
®	-14.4881
▁ÅLL	-14.4891
neu	-14.4894
kry	-14.4895
ə	-14.4899
ι	-14.4899
ي	-14.4899
Č	-14.4899
ƒ	-14.4899
ς	-14.4899
σ	-14.4899
‭	-14.4899
▁😄	-14.4899
▁🙏	-14.4899
◄	-14.4899
★	-14.4899
	-14.4899
▁AARP	-14.49
▁IBAN	-14.49
▁Bronx	-14.49
▁fejd	-14.4901
▁θ	-14.4902
▁Graph	-14.4902
▁jidd	-14.4902
▁SOPA	-14.4904
▁GULD	-14.4904
▁(§	-14.4905
▁ewitt	-14.4905
▁Ü	-14.4905
▁1⁄4	-14.4907
▁OUND	-14.4908
▁piri	-14.4909
▁IGN	-14.4909
▁AGO	-14.4909
VIEW	-14.4909
▁agui	-14.491
▁welt	-14.491
otox	-14.4911
▁ewey	-14.4911
▁eimar	-14.4912
▁laps	-14.4914
▁#9	-14.4915
▁Glee	-14.4916
▁OE	-14.4917
▁stè	-14.4917
▁RÅGA	-14.492
gum	-14.4921
▁TOX	-14.4922
OWN	-14.4923
▁3/4	-14.4925
▁epot	-14.4926
▁truth	-14.4929
▁foot	-14.4929
▁nnel	-14.4929
▁SOA	-14.493
▁JOH	-14.493
▁Load	-14.4934
▁äspa	-14.4935
▁AGI	-14.4936
–5	-14.4937
▁GAD	-14.4937
▁ASA	-14.4938
▁CDP	-14.4942
▁Loh	-14.4943
rre	-14.4943
▁VEM	-14.4945
▁alaf	-14.4946
▁leur	-14.4948
leep	-14.4949
▁AIG	-14.495
▁släde	-14.495
▁ropi	-14.4951
▁vaj	-14.4955
▁DV	-14.4958
▁STÅ	-14.4958
▁MPH	-14.4958
ONE	-14.4958
▁öror	-14.4959
▁ouza	-14.4959
▁92%	-14.496
▁38%	-14.496
ÅNG	-14.496
LAM	-14.4961
▁lanck	-14.4961
rès	-14.4962
sig	-14.4963
▁odom	-14.4964
▁3.6	-14.4966
▁Puy	-14.4967
EAF	-14.4968
▁LES	-14.4968
ÖD	-14.497
▁dlib	-14.4973
▁onata	-14.4977
▁ssé	-14.4977
oské	-14.4979
▁470	-14.498
▁REX	-14.4983
▁NX	-14.4983
▁armé	-14.4983
▁Naft	-14.4986
▁idja	-14.4986
▁2-1	-14.4991
▁TQ	-14.4991
▁SIA	-14.4991
NET	-14.4995
▁TNT	-14.4997
HK	-14.4998
NAL	-14.4998
ONS	-14.5003
▁ojal	-14.5004
▁PID	-14.5006
▁ucch	-14.501
▁adm	-14.5012
▁311	-14.5013
GW	-14.5015
▁KK	-14.5018
▁Chips	-14.502
▁PTA	-14.502
▁urum	-14.5021
AAP	-14.5021
▁dyk	-14.5022
▁MJ	-14.5022
hè	-14.5023
DAN	-14.5024
▁pitz	-14.5027
▁hirt	-14.5028
▁ORK	-14.503
▁glyf	-14.5033
▁MSD	-14.5034
▁425	-14.5035
▁keep	-14.5036
▁GTI	-14.5036
▁SFO	-14.5037
▁feed	-14.5037
▁Silo	-14.5037
ylan	-14.5039
▁SIL	-14.5039
▁JK	-14.5042
▁Zan	-14.5043
LH	-14.5047
▁PPC	-14.5051
▁igga	-14.5055
▁HRM	-14.5062
DEL	-14.5062
VIS	-14.5063
IZ	-14.5067
UN	-14.507
▁Fix	-14.5078
▁ndry	-14.5078
▁ASD	-14.5079
▁$5	-14.508
▁Triv	-14.5085
åren	-14.5088
▁nits	-14.509
▁lodg	-14.5091
▁guns	-14.5094
SIN	-14.5095
▁Cran	-14.5097
▁2!	-14.5097
▁Rått	-14.51
vox	-14.5101
CW	-14.5102
RES	-14.5103
MIC	-14.5113
▁irab	-14.5115
▁430	-14.512
▁HCV	-14.512
▁SBU	-14.5121
NX	-14.5121
▁IAB	-14.5122
larv	-14.5122
▁anco	-14.5126
▁RK	-14.5128
DN	-14.513
gil	-14.5132
▁nitz	-14.5134
▁LX	-14.5139
▁ayman	-14.5142
▁AAC	-14.5143
▁Sila	-14.5148
dí	-14.515
▁aros	-14.5155
roke	-14.5157
QI	-14.5157
ARI	-14.5157
▁rong	-14.5158
▁NCS	-14.5159
▁Isli	-14.5161
▁oluna	-14.5162
▁imbr	-14.5172
▁orpe	-14.5174
▁haps	-14.5178
▁Abs	-14.5187
▁Amp	-14.519
KS	-14.5192
▁POL	-14.5194
ribb	-14.5196
▁gnac	-14.5199
▁INNO	-14.5201
▁wap	-14.5204
4:	-14.5205
▁Rain	-14.5207
▁Roam	-14.5209
▁oot	-14.5209
▁IU	-14.5212
▁Neh	-14.5215
▁apac	-14.5217
▁yrol	-14.5219
▁seas	-14.522
▁3?	-14.5225
CCP	-14.5227
▁lirt	-14.5229
▁UPM	-14.5231
OY	-14.5232
▁ulfi	-14.5236
▁ubri	-14.5241
ô	-14.5242
▁nchy	-14.5243
PET	-14.5244
▁Baa	-14.5246
hopi	-14.5247
▁ulsa	-14.525
▁Vert	-14.525
▁ACH	-14.5251
▁Long	-14.5252
▁ICN	-14.5254
7,	-14.5255
▁ilga	-14.5259
atz	-14.5261
▁psul	-14.5263
▁hees	-14.5264
▁XVII	-14.5271
▁Agi	-14.5273
▁vius	-14.5277
▁elay	-14.5279
▁PGD	-14.528
bdo	-14.528
sula	-14.528
▁irro	-14.5286
▁elec	-14.5287
CAT	-14.5292
YN	-14.5293
▁Pau	-14.5295
▁IME	-14.5296
▁Brec	-14.5298
▁cN	-14.5305
▁Soon	-14.5308
▁awke	-14.532
▁ecch	-14.5321
▁HV	-14.5323
9,	-14.5324
▁Tham	-14.5331
▁lais	-14.5336
ulca	-14.5337
mmi	-14.5342
▁biz	-14.5343
▁éj	-14.5347
▁Kran	-14.5348
EEA	-14.5354
▁icos	-14.5358
▁herb	-14.5377
▁oji	-14.5378
▁ARB	-14.5381
▁stage	-14.5388
OX	-14.5394
▁Tej	-14.5395
▁XXV	-14.5396
Mi	-14.5401
▁ansea	-14.5403
IH	-14.5409
▁Agg	-14.541
arma	-14.5418
▁rios	-14.5421
upra	-14.5421
▁FAB	-14.5421
▁oth	-14.5425
▁oré	-14.5427
▁ldr	-14.5427
▁cabo	-14.5429
▁Qu	-14.5432
agan	-14.5436
▁Choo	-14.5441
▁oxic	-14.5442
rco	-14.5447
▁chak	-14.5451
▁runs	-14.5451
▁gju	-14.5452
▁Eco	-14.546
▁aryl	-14.5465
PAS	-14.5469
▁tolp	-14.5479
▁shap	-14.5481
SOL	-14.5482
ugga	-14.5486
▁diti	-14.5489
▁CRP	-14.5496
ass	-14.5502
▁tåra	-14.5505
▁spor	-14.551
▁raus	-14.551
▁rilli	-14.5513
MAT	-14.5513
rub	-14.5515
▁gött	-14.5517
▁ILL	-14.5521
▁Ware	-14.5522
laji	-14.5525
▁tac	-14.5536
▁ulag	-14.5538
▁Cups	-14.5539
urz	-14.5541
▁elis	-14.5547
NNS	-14.5548
▁Graz	-14.5553
▁VT	-14.5554
urs	-14.5557
aus	-14.5563
▁Zam	-14.5563
▁hå	-14.5567
▁hyd	-14.5567
▁Sadi	-14.5572
▁type	-14.5574
▁ylin	-14.5576
hat	-14.5577
aha	-14.5583
uma	-14.5586
▁SÄ	-14.5586
▁osol	-14.5587
▁Rott	-14.5591
▁beba	-14.5591
llâ	-14.5596
▁SMF	-14.5601
▁urit	-14.5604
▁ayon	-14.5605
▁jaj	-14.5607
åh	-14.5618
▁zil	-14.5627
1"	-14.563
▁ruz	-14.5634
▁bruck	-14.5636
jun	-14.5638
▁Noc	-14.5638
▁ouli	-14.564
▁albo	-14.5645
▁räsn	-14.5648
üll	-14.5653
▁VS	-14.5657
▁useb	-14.5662
ide	-14.5662
ASB	-14.5667
krä	-14.5668
CAN	-14.5669
▁lotte	-14.5669
esu	-14.5673
▁EAR	-14.5682
▁28.	-14.5683
▁fÃ	-14.569
odil	-14.5692
▁poni	-14.5694
▁IOT	-14.5695
▁egle	-14.5702
▁FOS	-14.5703
▁eise	-14.5712
SON	-14.5712
VH	-14.5714
▁Hage	-14.5721
▁ilos	-14.5727
▁Hier	-14.5741
alj	-14.5741
▁IFM	-14.5744
rani	-14.5752
▁Cobr	-14.5756
▁ÄNDA	-14.5757
ABE	-14.5758
éu	-14.5765
▁life	-14.5778
▁tepp	-14.578
verb	-14.578
uti	-14.5788
▁mild	-14.579
tail	-14.5791
▁vank	-14.5792
▁atus	-14.5793
aste	-14.5795
uger	-14.5801
▁ruis	-14.5801
▁nath	-14.5806
ott	-14.5808
▁älg	-14.5808
▁ggig	-14.5809
STP	-14.5809
▁AMS	-14.5818
IK	-14.5835
▁naya	-14.5836
▁Did	-14.5842
▁09	-14.5856
▁ISM	-14.5856
cis	-14.5859
escu	-14.5864
▁dice	-14.5881
▁abir	-14.5882
▁Nour	-14.5886
▁tator	-14.589
VX	-14.5896
øya	-14.5898
xx	-14.5904
uddi	-14.5907
▁zim	-14.5908
▁ekke	-14.5927
▁vrån	-14.5929
▁gona	-14.5937
▁nnul	-14.594
▁kärt	-14.5949
raj	-14.595
aken	-14.5951
▁fero	-14.5952
▁Heh	-14.5956
▁04	-14.5957
ssé	-14.5958
▁nza	-14.5959
▁Boo	-14.5965
▁ADR	-14.5965
▁CCP	-14.5967
IL	-14.597
rap	-14.5984
Kay	-14.5986
▁lego	-14.5988
▁KC	-14.5988
▁Nj	-14.5995
▁key	-14.5997
lb	-14.5999
▁Volg	-14.6014
ube	-14.6017
▁Nee	-14.6024
▁OFF	-14.6033
▁theo	-14.6035
▁DO	-14.6036
hell	-14.6044
▁2"	-14.6048
OTS	-14.6048
▁erfu	-14.6049
▁imri	-14.605
yrk	-14.6051
tade	-14.6057
Ag	-14.6061
0)	-14.6069
78	-14.6076
NTA	-14.6079
▁icero	-14.6085
fu	-14.6085
▁eckl	-14.6092
6.	-14.6098
CK	-14.6098
▁limo	-14.6102
xb	-14.6106
CAP	-14.6107
▁Cruc	-14.6108
▁APA	-14.6113
▁Crus	-14.6114
▁wp	-14.6116
▁LD	-14.6133
▁krus	-14.6146
zma	-14.6146
hwa	-14.6149
▁Goj	-14.6149
tråk	-14.6153
VEN	-14.6154
▁INK	-14.6155
▁MET	-14.6156
7:	-14.6162
imo	-14.6164
ban	-14.6175
abi	-14.6179
yft	-14.6182
▁ONT	-14.6184
▁INT	-14.6187
▁IFA	-14.6197
IFF	-14.6198
inj	-14.6203
▁angu	-14.6206
▁zza	-14.621
▁SAK	-14.6216
▁SRI	-14.622
▁neuv	-14.622
ASS	-14.6222
Ah	-14.6223
▁Pip	-14.6224
bug	-14.6228
air	-14.6231
psar	-14.6234
▁rubb	-14.6238
▁Paf	-14.6238
▁Aris	-14.6238
til	-14.6243
▁nanda	-14.6243
▁ERI	-14.6244
▁åååå	-14.6256
▁lipi	-14.6256
▁Rot	-14.6258
▁Dump	-14.6264
▁NEV	-14.6267
kemo	-14.6275
▁VAN	-14.629
lay	-14.6296
▁Must	-14.6297
▁acus	-14.6301
▁Nah	-14.6301
inz	-14.6306
▁tosh	-14.6307
▁Chop	-14.6325
▁pult	-14.6329
rí	-14.633
▁erez	-14.6343
▁Shia	-14.6344
▁ahu	-14.6348
▁ulp	-14.6355
▁?"	-14.6362
▁dí	-14.6365
ogue	-14.6366
▁cite	-14.637
▁NYA	-14.6373
fay	-14.638
▁won	-14.6385
▁lco	-14.6402
▁yeon	-14.6405
▁inja	-14.6407
dox	-14.6407
▁SAB	-14.6409
▁lé	-14.6416
▁NABB	-14.6419
▁Ove	-14.642
åns	-14.6424
ecki	-14.6426
ETE	-14.6427
▁Pai	-14.6436
▁leis	-14.6439
▁LAG	-14.6445
orp	-14.6453
XE	-14.6458
▁AVI	-14.6465
rost	-14.6469
▁JUD	-14.6481
▁ITA	-14.6482
ø	-14.6485
sis	-14.6486
YG	-14.6491
▁Dax	-14.6495
▁NJ	-14.6498
▁rait	-14.6504
▁APT	-14.6506
▁ï	-14.6509
▁loat	-14.6509
hake	-14.6512
▁NAB	-14.6515
▁jj	-14.6515
▁oza	-14.6515
▁INFO	-14.6519
▁amid	-14.652
▁eyw	-14.6521
▁2”	-14.6525
Mo	-14.653
NIE	-14.6531
▁Pep	-14.6533
dal	-14.6534
▁ISI	-14.6534
▁vrå	-14.6548
▁awa	-14.6559
Mr	-14.6565
▁lamb	-14.6566
limm	-14.6575
▁Shre	-14.6576
▁HK	-14.6584
▁Bir	-14.6592
▁rois	-14.6594
ejsa	-14.6602
agge	-14.6605
sul	-14.6605
ank	-14.6605
▁Alai	-14.6607
▁Nei	-14.6611
älja	-14.6613
▁Node	-14.662
▁Lok	-14.662
▁Gos	-14.6628
rud	-14.6636
ezz	-14.6642
▁Bust	-14.6642
▁Soh	-14.6643
▁IVO	-14.6647
▁flö	-14.6648
▁OMME	-14.6649
▁KS	-14.6657
ún	-14.6659
ECA	-14.666
lib	-14.6662
▁Hess	-14.6668
▁nodd	-14.6668
jälv	-14.6674
▁SCI	-14.6678
▁NB	-14.6681
Ö	-14.6683
▁lven	-14.6684
▁UE	-14.6691
bal	-14.6696
▁kard	-14.6699
mí	-14.6701
▁CHO	-14.6702
aser	-14.6711
▁GOD	-14.6712
▁rach	-14.6712
▁QS	-14.6718
lubb	-14.6718
▁TY	-14.672
▁ROS	-14.6721
▁alini	-14.6727
gång	-14.6728
mst	-14.6729
▁HAN	-14.6729
▁minor	-14.6733
▁RIS	-14.6742
▁apto	-14.6748
NGA	-14.6748
▁HOR	-14.6754
▁ÄND	-14.6756
▁eyma	-14.6759
▁PEF	-14.6759
▁PIC	-14.676
▁EFI	-14.676
î	-14.6764
▁CRT	-14.6764
▁lith	-14.6766
HE	-14.6767
▁hâ	-14.6772
GRA	-14.678
▁Maho	-14.678
▁Bars	-14.6781
kål	-14.6784
▁COR	-14.6787
▁gato	-14.6792
KN	-14.6798
▁ursu	-14.6802
▁CRI	-14.6803
exa	-14.6806
▁GRE	-14.6809
jja	-14.6809
▁NAND	-14.6814
ept	-14.6823
▁ENS	-14.6828
mé	-14.6829
AGE	-14.6837
▁PAR	-14.6838
MOT	-14.684
▁CTA	-14.6841
▁JO	-14.6851
ags	-14.6852
▁EPO	-14.6853
▁Klu	-14.6854
▁Fråg	-14.6855
▁DÅ	-14.6855
DIS	-14.6858
UND	-14.6859
ôn	-14.6866
▁ssue	-14.6867
▁CX	-14.6867
▁AEG	-14.6869
▁NIK	-14.6869
atch	-14.6872
▁MOD	-14.6873
▁VAC	-14.6874
▁ifrå	-14.6874
▁Unc	-14.6874
▁dipp	-14.6875
ÄNN	-14.6876
▁EJ	-14.6876
️	-14.688
uss	-14.6881
▁MOT	-14.6882
▁OZ	-14.6883
UC	-14.6885
WH	-14.689
▁MSI	-14.6893
hé	-14.6893
▁NSK	-14.6894
▁(0	-14.6897
▁VOC	-14.6897
▁TUD	-14.6898
JUT	-14.6898
ν	-14.6899
а	-14.6899
	-14.6899
Æ	-14.6899
ū	-14.6899
ε	-14.6899
‚	-14.6899
▁/.../	-14.6899
▁[8]	-14.6899
▁Õ	-14.6899
▁▶	-14.6899
▁😘	-14.6899
◆	-14.6899
国	-14.6899
	-14.6899
	-14.6899
لي	-14.6899
▁WIFI	-14.6899
▁ṛ	-14.69
▁:-(	-14.69
▁türk	-14.69
▁ORLD	-14.69
▁XNUM	-14.69
▁HOLM	-14.6901
▁Fylk	-14.6901
▁SÖK	-14.6902
▁¿	-14.6902
▁😂	-14.6902
▁thlm	-14.6902
▁ITIL	-14.6902
▁OÜ	-14.6902
▁ITED	-14.6903
▁SAN	-14.6904
▁=>	-14.6904
▁SOHO	-14.6904
▁rrrr	-14.6905
▁Zebra	-14.6906
▁ILAG	-14.6906
▁ع	-14.6906
▁jemn	-14.6906
▁ÖSK	-14.6907
▁ginx	-14.6908
▁Slav	-14.6909
▁våda	-14.6909
hmet	-14.6909
jad	-14.6909
▁ohoo	-14.6909
▁grod	-14.6909
▁Pegg	-14.691
Ät	-14.6911
▁bazo	-14.6911
lâ	-14.6911
▁Leila	-14.6913
▁rvest	-14.6913
▁561	-14.6914
▁eyton	-14.6914
▁AGE	-14.6917
▁ibran	-14.6917
▁Za	-14.6918
▁wold	-14.6918
▁bbw	-14.6918
ûd	-14.692
Få	-14.692
▁3/5	-14.6922
▁IVET	-14.6923
▁???	-14.6923
▁wiki	-14.6925
▁FULL	-14.6926
▁Lobo	-14.6926
▁OSE	-14.6927
▁hahh	-14.6927
▁hrid	-14.6927
▁Hulk	-14.6928
▁Saud	-14.6929
▁Salo	-14.693
▁Brush	-14.693
▁AEA	-14.6931
▁lâ	-14.6931
▁noob	-14.6931
▁WHAT	-14.6931
▁claw	-14.6932
▁crime	-14.6933
▁4.7	-14.6933
ESO	-14.6933
▁Irina	-14.6934
▁Siege	-14.6934
▁jewe	-14.6935
▁ooge	-14.6938
▁WAY	-14.6939
EEK	-14.6939
▁ozna	-14.6939
▁344	-14.6939
▁peed	-14.694
▁NSCL	-14.694
EGA	-14.694
▁CIS	-14.694
kte	-14.6941
ALA	-14.6942
▁62%	-14.6943
▁HI	-14.6943
▁ÄL	-14.6943
▁LYCK	-14.6943
▁HON	-14.6944
▁Trim	-14.6945
HEA	-14.6945
▁7.0	-14.6946
▁Capra	-14.6947
▁rish	-14.6947
HM	-14.6948
▁3%.	-14.6951
▁Puig	-14.6952
▁Sør	-14.6953
▁LICK	-14.6953
▁SLE	-14.6953
▁Lü	-14.6954
▁78%	-14.6955
ldi	-14.6955
OTO	-14.6955
EMO	-14.6955
▁ssues	-14.6958
▁Bread	-14.6958
▁chim	-14.6959
▁asrin	-14.696
▁scot	-14.6961
▁NOW	-14.6962
▁ikki	-14.6963
▁QC	-14.6964
āh	-14.6965
AIC	-14.6965
SEK	-14.6967
ORK	-14.6968
▁262	-14.6968
▁ün	-14.6971
▁saver	-14.6971
▁OX	-14.6971
▁chita	-14.6972
▁semid	-14.6975
▁pezi	-14.6978
▁IMD	-14.6979
▁161	-14.698
▁aher	-14.6983
oxic	-14.6983
▁TEL	-14.6985
▁770	-14.6985
▁ljest	-14.6986
▁phon	-14.6987
▁Mixer	-14.6988
▁CTM	-14.6988
▁nora	-14.6988
alí	-14.699
▁î	-14.6991
▁13%	-14.6993
▁voie	-14.6993
▁Pizz	-14.6994
kott	-14.6994
▁foam	-14.6994
▁usay	-14.6994
ifi	-14.6995
▁AJ	-14.6997
OSE	-14.6997
▁wave	-14.6998
ICS	-14.7
▁His	-14.7
▁virv	-14.7
▁SAL	-14.7003
▁agus	-14.7004
▁damp	-14.7004
▁nmu	-14.7004
OU	-14.7006
▁DSA	-14.7007
▁Cart	-14.7008
▁ohem	-14.7008
UMP	-14.701
▁AKP	-14.701
rase	-14.701
▁BMX	-14.701
▁Zhi	-14.7013
▁egri	-14.7014
▁fuge	-14.7017
▁BRIC	-14.7018
▁IAM	-14.7021
▁yrid	-14.7022
OTA	-14.7022
▁aggan	-14.7024
▁Hota	-14.7025
▁myot	-14.7026
áz	-14.7029
▁ICS	-14.7033
▁Sour	-14.7035
▁rook	-14.7036
ILD	-14.7036
YD	-14.7037
▁kay	-14.7037
▁295	-14.7037
▁Vali	-14.7038
▁OWE	-14.7039
▁HSA	-14.7039
▁Cabo	-14.704
MAC	-14.7041
▁56.	-14.7046
▁(<	-14.7046
▁Rib	-14.7048
▁drej	-14.7048
ICO	-14.705
▁ildo	-14.706
▁yaz	-14.7062
▁rinn	-14.7063
une	-14.7066
▁Valb	-14.7066
▁AST	-14.7074
▁ulv	-14.7074
▁mony	-14.7077
▁rugg	-14.7078
▁FJ	-14.7079
ehm	-14.7079
▁aiki	-14.7085
SHA	-14.7085
▁arrey	-14.7087
▁veva	-14.7089
ück	-14.709
KEL	-14.7091
▁Jaq	-14.7095
TEK	-14.7095
▁taph	-14.7098
orm	-14.71
jsa	-14.7102
▁wala	-14.7103
▁wak	-14.7104
▁rph	-14.7106
WW	-14.711
▁OOD	-14.711
▁hoek	-14.7112
▁cE	-14.7113
▁ergus	-14.7116
▁Hits	-14.7116
▁urian	-14.7117
▁Velo	-14.7119
▁LOU	-14.712
tel	-14.7121
ooz	-14.7121
▁FEM	-14.7123
▁yes	-14.713
▁Viola	-14.713
▁appan	-14.7132
▁ndow	-14.7132
▁SMA	-14.7133
▁52.	-14.7134
ULL	-14.7135
OPE	-14.7136
imb	-14.7136
▁ragt	-14.7137
▁TET	-14.7137
▁skip	-14.7137
zid	-14.714
TOR	-14.7143
▁ampon	-14.7144
▁tafs	-14.7144
▁OUR	-14.7145
KTA	-14.7145
WO	-14.7146
BH	-14.7146
▁vaku	-14.7146
▁akka	-14.7148
IBS	-14.7149
▁lyth	-14.7152
▁uisa	-14.7153
▁Riv	-14.7154
▁Ches	-14.7154
ANK	-14.7155
PAM	-14.716
▁6).	-14.716
▁Trap	-14.7162
▁nfor	-14.7162
▁LEO	-14.7162
▁urdo	-14.7163
▁arish	-14.7164
▁Colb	-14.7175
▁myth	-14.7176
ril	-14.7176
▁HH	-14.7183
▁rtw	-14.7184
▁SPC	-14.7185
ony	-14.719
▁LM	-14.719
▁ossum	-14.7193
▁Plate	-14.7194
▁ylon	-14.7196
▁said	-14.7197
▁Knä	-14.7198
▁arais	-14.7202
▁Butt	-14.7202
TES	-14.7206
▁LH	-14.7208
▁othe	-14.7209
▁yaj	-14.7211
▁Sur	-14.7214
▁Trai	-14.7216
ès	-14.7221
AGL	-14.7222
▁acca	-14.7223
▁LIKE	-14.7227
▁Vax	-14.723
atur	-14.7234
addl	-14.7235
▁TOL	-14.724
▁laz	-14.725
▁ROTE	-14.725
▁Chee	-14.725
ß	-14.7251
▁GLO	-14.7253
▁mpere	-14.7253
▁Mut	-14.7254
liz	-14.7255
pal	-14.7256
PEP	-14.7257
▁STEM	-14.7257
▁eater	-14.7262
▁Shou	-14.7263
▁š	-14.7264
▁STM	-14.7265
▁OLVE	-14.7267
▁whol	-14.7267
▁Bast	-14.7269
clav	-14.7269
▁lpa	-14.7271
▁FSF	-14.7274
▁zac	-14.7276
▁thens	-14.7279
URA	-14.7284
hul	-14.7286
RAV	-14.7286
▁iwan	-14.7286
▁Wro	-14.7289
zek	-14.729
▁nope	-14.7298
roda	-14.73
▁kald	-14.7301
bly	-14.7301
IPA	-14.7302
uni	-14.7309
VET	-14.731
iá	-14.7314
▁Tuna	-14.7317
SAT	-14.7317
▁VIA	-14.732
▁wår	-14.7323
▁LIV	-14.7324
▁chew	-14.7327
▁pasm	-14.7329
▁SAD	-14.733
▁molo	-14.7331
▁flak	-14.7335
REK	-14.7337
▁JT	-14.7339
▁RDE	-14.7339
▁Ledd	-14.7339
▁höfv	-14.734
▁CCL	-14.7341
▁alex	-14.7346
▁thir	-14.7348
▁VG	-14.7349
VAR	-14.735
▁yam	-14.7351
▁ebul	-14.7355
▁WES	-14.7356
vla	-14.7361
ilo	-14.7363
▁arche	-14.7363
▁hymn	-14.7364
▁ohm	-14.7367
▁EST	-14.7367
▁aph	-14.7373
mol	-14.738
omb	-14.7384
▁SY	-14.7388
▁tupa	-14.7393
▁veld	-14.7397
uya	-14.7399
▁voil	-14.74
▁EDT	-14.74
arto	-14.7401
▁usci	-14.7405
01	-14.7415
▁meth	-14.7416
▁EO	-14.7419
▁laxa	-14.7421
▁CAF	-14.7423
▁LU	-14.7425
▁Sai	-14.7428
uid	-14.7428
▁Gräv	-14.7431
▁Capr	-14.7432
▁yum	-14.7434
▁RG	-14.7436
▁saia	-14.7437
nér	-14.7442
▁ipho	-14.745
▁onoma	-14.7454
ørn	-14.7457
YU	-14.7461
▁Plag	-14.7465
▁aish	-14.7466
▁okh	-14.7467
▁ér	-14.7469
▁awit	-14.7469
ODA	-14.7479
▁emli	-14.748
▁Bosc	-14.7482
▁yria	-14.7483
DQ	-14.7483
▁kham	-14.7491
▁esbo	-14.7491
OSS	-14.7495
▁uus	-14.7496
▁Lott	-14.7502
▁nsw	-14.7504
▁asil	-14.7512
▁dpi	-14.7514
▁Loll	-14.7514
▁SIC	-14.7518
▁kytt	-14.752
▁msc	-14.7523
▁onem	-14.7523
▁HG	-14.7524
▁tymp	-14.7528
▁ssez	-14.7533
leas	-14.754
▁dvan	-14.754
▁Mass	-14.7542
▁llab	-14.7544
amo	-14.7546
▁HII	-14.7552
▁ERU	-14.7559
▁indh	-14.7563
▁Pir	-14.7563
RR	-14.7568
▁1”	-14.7569
▁Rose	-14.7576
▁zek	-14.7588
ahoo	-14.7591
RAC	-14.7594
▁Rey	-14.7597
eux	-14.7599
▁CM	-14.7603
▁Zeno	-14.7606
▁Sedg	-14.7608
▁DSD	-14.7608
▁shut	-14.7609
▁törs	-14.7612
▁ayle	-14.7614
AMI	-14.7617
▁obai	-14.7617
▁bash	-14.7618
TRO	-14.762
fva	-14.7629
▁VCH	-14.7631
RER	-14.7638
▁GSP	-14.764
▁sect	-14.7642
▁AMB	-14.7645
▁gåfv	-14.7649
▁naja	-14.765
yz	-14.7655
inki	-14.7657
▁Nim	-14.7659
elec	-14.766
ruk	-14.7661
älv	-14.7662
▁gaba	-14.7663
▁asim	-14.7673
CPA	-14.768
▁Låta	-14.7682
▁akum	-14.7685
▁toy	-14.7687
▁OLO	-14.7687
▁chic	-14.7689
▁nez	-14.7692
▁Moy	-14.7697
åka	-14.7699
▁Grim	-14.7707
▁neth	-14.7713
▁Tram	-14.7715
▁ulf	-14.7716
▁Ris	-14.7719
GIS	-14.7737
ERS	-14.7741
lá	-14.7741
▁nopp	-14.7748
NH	-14.7755
mus	-14.7755
▁Klin	-14.7763
▁Dop	-14.7764
▁RAV	-14.7775
JI	-14.7782
▁auro	-14.7787
ôm	-14.7789
DAR	-14.7792
▁ansl	-14.78
▁acho	-14.7802
▁gän	-14.7803
▁UNC	-14.7809
▁rau	-14.7813
isso	-14.7815
▁Xu	-14.7816
CAS	-14.7826
lov	-14.7828
▁Elk	-14.7834
▁joll	-14.7842
▁Vela	-14.7844
▁ziz	-14.7845
ned	-14.7849
teg	-14.7849
▁urul	-14.7851
▁rossi	-14.7855
bah	-14.7856
▁xil	-14.7859
▁kym	-14.786
▁Mira	-14.7862
▁Kle	-14.7867
TEG	-14.7867
▁ypo	-14.7871
▁Mod	-14.7874
▁#7	-14.7875
pon	-14.7878
nack	-14.7884
▁LLA	-14.7892
▁Drän	-14.7898
▁chuc	-14.7899
▁Kök	-14.7914
näpp	-14.7916
▁fuck	-14.792
nan	-14.792
▁TG	-14.7921
kon	-14.7923
▁Kaz	-14.7926
osa	-14.7928
▁vey	-14.7929
▁piss	-14.793
éli	-14.793
enni	-14.7931
▁ourg	-14.7933
FJ	-14.7941
ive	-14.7955
ní	-14.7962
SSE	-14.7963
▁UBS	-14.7965
trol	-14.797
▁Sax	-14.7971
▁ltro	-14.7979
▁LUE	-14.7981
PB	-14.7981
kab	-14.7986
▁uval	-14.7989
▁KOR	-14.7992
▁hiss	-14.8003
nzo	-14.8003
AMS	-14.8006
host	-14.801
▁nosa	-14.8011
ape	-14.8014
▁Legi	-14.8016
▁PPG	-14.802
▁goja	-14.8023
▁lele	-14.8024
AZ	-14.8029
▁ucia	-14.8034
▁CHM	-14.8034
▁orec	-14.8035
RAS	-14.8037
▁arab	-14.8041
▁iZ	-14.8041
OOP	-14.8041
▁järv	-14.8042
esus	-14.8045
▁ODE	-14.8052
▁RINC	-14.8053
more	-14.8054
▁uiz	-14.8054
psi	-14.8061
▁Volu	-14.8062
fw	-14.8066
▁ECS	-14.8075
Ve	-14.8078
▁ribb	-14.8081
vé	-14.8085
▁hash	-14.8085
ĺ	-14.8093
▁bög	-14.8099
väll	-14.81
▁kej	-14.8102
▁isle	-14.8105
▁athi	-14.8109
can	-14.8111
bet	-14.8116
▁okia	-14.8127
▁tsuk	-14.8131
▁EAL	-14.8133
▁AMC	-14.8138
▁æ	-14.8139
▁MAA	-14.8164
▁WH	-14.8172
ı	-14.8173
EAN	-14.8177
INI	-14.8178
raw	-14.8179
▁vese	-14.818
▁ROP	-14.818
NL	-14.8185
BEL	-14.8186
ogi	-14.8187
▁amro	-14.8202
▁offi	-14.8203
LF	-14.8205
roz	-14.8209
ITS	-14.8211
ugg	-14.8212
▁FAS	-14.8213
ajt	-14.8214
▁lurv	-14.8215
pen	-14.8216
▁Rat	-14.822
▁MTB	-14.8226
▁ouga	-14.8229
▁eine	-14.8236
▁lley	-14.8238
▁edge	-14.8246
▁2-	-14.8253
▁Rass	-14.8262
ima	-14.8268
▁Aim	-14.827
▁orty	-14.8286
▁HPB	-14.8293
▁Bow	-14.8297
ATU	-14.8299
have	-14.8304
▁odus	-14.8305
▁FIL	-14.8306
urg	-14.8308
AR	-14.8329
Dr	-14.8331
▁Tho	-14.8332
▁ltri	-14.8338
▁aile	-14.8341
▁Kab	-14.8346
ATS	-14.8347
▁zen	-14.8347
▁neon	-14.8351
▁PUB	-14.8354
▁Kia	-14.8361
xal	-14.8365
▁AMA	-14.8366
▁ACS	-14.8366
▁goni	-14.837
▁nyw	-14.838
▁BETA	-14.8382
▁Ginn	-14.8385
▁rdy	-14.8406
pla	-14.841
▁exam	-14.8412
urn	-14.8415
▁nato	-14.8416
▁UKT	-14.8417
ial	-14.8423
iggi	-14.8424
▁gol	-14.843
ña	-14.8432
▁ÖL	-14.8433
AHA	-14.8438
▁yph	-14.8443
LV	-14.8447
len	-14.8448
▁SOC	-14.8453
▁Sauv	-14.8454
▁Cab	-14.8454
▁CSA	-14.8455
VEL	-14.8462
▁kato	-14.847
▁utty	-14.8473
VU	-14.8475
▁eeee	-14.8483
▁toll	-14.8484
PPA	-14.8492
▁tash	-14.8494
ECH	-14.8504
▁UNIC	-14.8506
▁USP	-14.8508
▁nthi	-14.8512
▁MSR	-14.8518
06	-14.852
hos	-14.8528
▁riza	-14.8529
▁LS	-14.8529
);	-14.8532
aint	-14.8534
ajak	-14.8539
▁Saad	-14.8543
▁OST	-14.8545
▁mura	-14.8549
nol	-14.855
▁STO	-14.8564
▁urle	-14.8566
BY	-14.8567
TAL	-14.857
▁whe	-14.8572
▁GRA	-14.8572
▁arpe	-14.8583
▁acan	-14.8586
▁MIS	-14.8591
▁Syd	-14.8599
▁Lew	-14.86
▁reth	-14.8606
▁eye	-14.8608
▁alma	-14.8613
▁chai	-14.8613
▁Noo	-14.8618
nce	-14.8621
▁EI	-14.8632
▁APE	-14.8634
ela	-14.8634
sed	-14.8639
amb	-14.8639
utz	-14.8639
▁eeze	-14.8639
▁Gunn	-14.8647
▁roz	-14.8659
▁Ghe	-14.8665
▁Pell	-14.8667
▁Bak	-14.8681
▁Tee	-14.8682
ž	-14.8688
turn	-14.8692
▁kary	-14.8696
▁Veo	-14.8699
▁Clo	-14.8705
zra	-14.8706
tán	-14.8712
▁Corv	-14.8715
luta	-14.8718
KOM	-14.8721
ş	-14.8728
▁Pea	-14.8739
▁skot	-14.874
▁$3	-14.8743
▁urpe	-14.8748
1)	-14.8753
▁ashi	-14.8756
ush	-14.8763
▁“.	-14.8766
▁yett	-14.8767
▁rvan	-14.8772
[...]
