<unk>	0
<s>	0
</s>	0
er	-0
en	-1
▁s	-2
ar	-3
▁a	-4
in	-5
▁d	-6
et	-7
▁f	-8
an	-9
ll	-10
▁o	-11
▁m	-12
tt	-13
ör	-14
ti	-15
▁v	-16
är	-17
▁h	-18
▁k	-19
om	-20
▁b	-21
▁p	-22
st	-23
ch	-24
ig	-25
▁för	-26
on	-27
▁och	-28
▁att	-29
or	-30
de	-31
▁en	-32
▁i	-33
na	-34
ing	-35
ka	-36
än	-37
▁l	-38
▁t	-39
ra	-40
▁in	-41
ed	-42
▁är	-43
▁g	-44
▁.	-45
ag	-46
▁u	-47
▁ti	-48
▁n	-49
▁av	-50
▁som	-51
el	-52
is	-53
ta	-54
▁r	-55
▁D	-56
▁,	-57
▁till	-58
ter	-59
▁det	-60
te	-61
▁e	-62
ck	-63
▁på	-64
es	-65
▁med	-66
lig	-67
pp	-68
ning	-69
nd	-70
▁vi	-71
ro	-72
▁S	-73
▁de	-74
ån	-75
am	-76
as	-77
▁den	-78
▁st	-79
al	-80
▁var	-81
▁j	-82
ver	-83
▁om	-84
år	-85
kt	-86
▁inte	-87
▁har	-88
at	-89
tion	-90
▁M	-91
▁an	-92
il	-93
ett	-94
ller	-95
em	-96
and	-97
▁ut	-98
ri	-99
äl	-100
▁V	-101
▁du	-102
der	-103
▁H	-104
ätt	-105
li	-106
re	-107
▁A	-108
▁kan	-109
da	-110
▁ett	-111
lla	-112
ur	-113
▁F	-114
▁fr	-115
ande	-116
▁sk	-117
åg	-118
ade	-119
are	-120
▁kom	-121
it	-122
▁E	-123
het	-124
ad	-125
sk	-126
▁ö	-127
un	-128
▁Det	-129
ol	-130
▁jag	-131
▁be	-132
▁I	-133
▁T	-134
mer	-135
▁J	-136
den	-137
▁upp	-138
▁1	-139
▁B	-140
sta	-141
äg	-142
ska	-143
ot	-144
ång	-145
▁eller	-146
▁P	-147
▁ska	-148
sa	-149
▁pro	-150
▁så	-151
▁N	-152
ma	-153
si	-154
▁O	-155
▁K	-156
▁2	-157
för	-158
▁från	-159
änd	-160
ek	-161
▁sp	-162
▁(	-163
itt	-164
▁-	-165
ru	-166
ort	-167
ent	-168
▁?	-169
äm	-170
▁G	-171
▁"	-172
ut	-173
▁L	-174
nder	-175
ker	-176
inn	-177
▁ar	-178
▁C	-179
ser	-180
▁li	-181
la	-182
▁någ	-183
▁er	-184
fter	-185
▁sam	-186
▁över	-187
us	-188
▁”	-189
▁kommer	-190
yck	-191
va	-192
▁kon	-193
kti	-194
ud	-195
ligt	-196
isk	-197
▁han	-198
▁min	-199
▁R	-200
▁när	-201
▁Jag	-202
ara	-203
▁all	-204
▁gör	-205
äll	-206
era	-207
▁re	-208
änn	-209
liga	-210
og	-211
ram	-212
um	-213
ss	-214
jäl	-215
ff	-216
ul	-217
ster	-218
▁tr	-219
▁:	-220
var	-221
ell	-222
▁din	-223
▁man	-224
▁sig	-225
le	-226
▁å	-227
äng	-228
▁vara	-229
ste	-230
▁anv	-231
▁under	-232
▁Vi	-233
bet	-234
▁c	-235
ven	-236
▁na	-237
00	-238
iska	-239
gi	-240
▁sin	-241
▁dig	-242
▁må	-243
▁år	-244
▁beh	-245
ull	-246
▁U	-247
del	-248
ens	-249
▁and	-250
je	-251
▁men	-252
ess	-253
▁per	-254
ans	-255
så	-256
▁fa	-257
▁gen	-258
yg	-259
▁!	-260
▁vär	-261
ve	-262
bb	-263
ik	-264
▁här	-265
ft	-266
▁hel	-267
▁ny	-268
▁)	-269
▁ver	-270
▁där	-271
▁För	-272
▁alla	-273
pa	-274
inns	-275
dig	-276
▁efter	-277
ga	-278
▁or	-279
▁ha	-280
▁fl	-281
tal	-282
ju	-283
ne	-284
od	-285
▁ock	-286
ger	-287
▁bli	-288
art	-289
son	-290
se	-291
▁del	-292
▁också	-293
▁vill	-294
▁Den	-295
arna	-296
ic	-297
att	-298
▁finns	-299
du	-300
▁andra	-301
rä	-302
▁se	-303
ak	-304
▁sl	-305
ok	-306
▁sy	-307
▁vis	-308
sl	-309
▁än	-310
id	-311
▁En	-312
▁dag	-313
▁ex	-314
▁mig	-315
ycket	-316
▁mer	-317
..	-318
ling	-319
ats	-320
ill	-321
öd	-322
sam	-323
öj	-324
▁ä	-325
▁–	-326
▁genom	-327
▁In	-328
▁ing	-329
ilj	-330
▁detta	-331
▁dem	-332
▁bör	-333
os	-334
▁hon	-335
ord	-336
▁De	-337
▁bara	-338
ci	-339
itet	-340
▁fram	-341
edan	-342
per	-343
▁mycket	-344
▁pl	-345
▁3	-346
▁ta	-347
ningar	-348
▁arbet	-349
vå	-350
▁verk	-351
ligen	-352
land	-353
▁po	-354
▁väl	-355
▁vid	-356
▁W	-357
und	-358
▁vad	-359
ånga	-360
▁kun	-361
▁20	-362
ark	-363
▁mot	-364
▁få	-365
terna	-366
▁vil	-367
tioner	-368
ningen	-369
ja	-370
for	-371
▁ka	-372
tiv	-373
▁kl	-374
▁spel	-375
▁göra	-376
▁pr	-377
hå	-378
rå	-379
▁Men	-380
▁någon	-381
▁person	-382
▁ber	-383
▁res	-384
kl	-385
▁des	-386
ist	-387
▁bes	-388
▁hur	-389
gen	-390
▁rätt	-391
änder	-392
▁själ	-393
▁bet	-394
ulle	-395
heter	-396
ella	-397
est	-398
▁for	-399
▁...	-400
cka	-401
ld	-402
▁sta	-403
vis	-404
ök	-405
lem	-406
▁Om	-407
▁denna	-408
▁sätt	-409
▁oss	-410
opp	-411
sp	-412
ring	-413
eras	-414
▁Du	-415
▁vår	-416
▁ni	-417
▁hö	-418
▁använd	-419
▁kv	-420
▁liv	-421
▁säg	-422
▁nu	-423
ni	-424
▁gru	-425
▁bar	-426
▁skulle	-427
yr	-428
▁stor	-429
▁männ	-430
▁allt	-431
▁produ	-432
äk	-433
nan	-434
ant	-435
▁behö	-436
nad	-437
▁förs	-438
rig	-439
▁bil	-440
ier	-441
ende	-442
sion	-443
▁vet	-444
öl	-445
stå	-446
skap	-447
▁le	-448
ock	-449
▁även	-450
men	-451
ken	-452
yd	-453
▁tid	-454
▁måste	-455
▁många	-456
▁Och	-457
▁får	-458
▁br	-459
ts	-460
ktig	-461
▁hade	-462
etag	-463
▁5	-464
som	-465
▁hjäl	-466
▁utan	-467
tid	-468
ber	-469
▁St	-470
▁då	-471
▁något	-472
kel	-473
▁människ	-474
▁ser	-475
sätt	-476
öm	-477
nings	-478
▁barn	-479
ce	-480
▁bra	-481
▁19	-482
ket	-483
ställ	-484
▁bl	-485
äst	-486
▁sä	-487
▁4	-488
▁första	-489
veck	-490
▁gång	-491
▁201	-492
▁inne	-493
▁dessa	-494
pl	-495
ön	-496
▁vå	-497
▁mo	-498
dag	-499
rar	-500
ända	-501
sti	-502
▁ra	-503
▁hå	-504
▁Ä	-505
ost	-506
ala	-507
▁möj	-508
lighet	-509
▁w	-510
aren	-511
▁ma	-512
ick	-513
▁inom	-514
▁di	-515
ästa	-516
oll	-517
lika	-518
▁två	-519
ass	-520
▁komm	-521
▁hand	-522
▁ju	-523
▁utveck	-524
▁själv	-525
ation	-526
uro	-527
▁sina	-528
else	-529
▁fort	-530
▁fråg	-531
vs	-532
▁led	-533
▁hem	-534
▁företag	-535
▁kont	-536
▁of	-537
▁lag	-538
▁människor	-539
▁Han	-540
▁hög	-541
ellan	-542
stem	-543
▁åt	-544
op	-545
▁Detta	-546
▁När	-547
vi	-548
ering	-549
jän	-550
bil	-551
äd	-552
lden	-553
▁int	-554
man	-555
nat	-556
▁ty	-557
nar	-558
vär	-559
håll	-560
di	-561
▁säker	-562
▁te	-563
▁Hur	-564
digt	-565
åt	-566
▁sm	-567
iga	-568
des	-569
▁nya	-570
▁sa	-571
▁milj	-572
im	-573
vet	-574
tat	-575
ölj	-576
▁fun	-577
verk	-578
▁Vad	-579
▁mellan	-580
▁Var	-581
ia	-582
▁ditt	-583
▁vä	-584
sen	-585
▁världen	-586
▁börj	-587
det	-588
erna	-589
▁lö	-590
▁behöver	-591
mation	-592
ytt	-593
▁gj	-594
▁våra	-595
▁olika	-596
▁gå	-597
▁läng	-598
lev	-599
ack	-600
ägg	-601
ir	-602
mar	-603
▁åter	-604
▁hela	-605
jär	-606
▁infor	-607
ott	-608
▁stör	-609
ele	-610
▁sitt	-611
▁fin	-612
▁säger	-613
lar	-614
▁dina	-615
he	-616
▁sedan	-617
ygg	-618
▁kän	-619
▁gl	-620
▁grund	-621
tera	-622
▁några	-623
▁deras	-624
▁förb	-625
pel	-626
gång	-627
▁varje	-628
ran	-629
all	-630
erade	-631
▁An	-632
▁mark	-633
ära	-634
kter	-635
rän	-636
fatt	-637
ov	-638
gram	-639
org	-640
▁ig	-641
▁blir	-642
ktion	-643
ub	-644
edel	-645
andet	-646
▁6	-647
tur	-648
ry	-649
▁enda	-650
▁tjän	-651
▁information	-652
ob	-653
▁väg	-654
ress	-655
▁par	-656
▁skall	-657
▁skri	-658
▁sv	-659
▁sen	-660
skt	-661
▁proc	-662
▁slut	-663
▁honom	-664
ika	-665
▁hitt	-666
▁Gud	-667
▁200	-668
▁äl	-669
kar	-670
▁kö	-671
net	-672
▁samma	-673
▁går	-674
änner	-675
gan	-676
pe	-677
▁alltid	-678
ann	-679
▁ans	-680
ien	-681
▁vän	-682
▁tro	-683
heten	-684
▁fy	-685
▁fil	-686
usi	-687
▁/	-688
▁läg	-689
anska	-690
enter	-691
▁änd	-692
▁bå	-693
▁al	-694
▁Så	-695
ets	-696
▁7	-697
ktigt	-698
kon	-699
min	-700
▁spe	-701
nas	-702
kom	-703
▁hans	-704
▁hen	-705
▁Att	-706
▁helt	-707
juk	-708
▁ur	-709
▁lä	-710
alt	-711
sy	-712
▁ch	-713
igt	-714
▁beg	-715
▁ly	-716
▁ger	-717
▁;	-718
▁ingen	-719
▁kra	-720
ske	-721
ati	-722
▁Euro	-723
dan	-724
▁ge	-725
▁dess	-726
olk	-727
par	-728
blem	-729
fr	-730
dom	-731
nader	-732
▁läm	-733
▁reg	-734
▁samt	-735
▁varit	-736
▁områ	-737
äller	-738
▁lång	-739
▁vilket	-740
▁so	-741
▁pen	-742
skar	-743
gar	-744
▁följ	-745
res	-746
far	-747
ba	-748
▁Med	-749
▁we	-750
▁system	-751
erar	-752
▁plan	-753
▁akti	-754
ättre	-755
▁kunna	-756
▁8	-757
▁tre	-758
ind	-759
▁eg	-760
skil	-761
str	-762
▁använda	-763
utom	-764
orde	-765
▁ri	-766
▁mitt	-767
▁[	-768
ang	-769
älla	-770
▁si	-771
▁tän	-772
▁hu	-773
ke	-774
▁tek	-775
ingar	-776
▁arti	-777
▁bästa	-778
ellt	-779
▁eff	-780
▁gra	-781
▁ord	-782
ie	-783
▁mål	-784
▁erb	-785
tta	-786
ina	-787
▁Har	-788
▁fall	-789
▁först	-790
kten	-791
▁bättre	-792
ow	-793
▁).	-794
▁behand	-795
▁best	-796
pt	-797
▁fri	-798
▁annan	-799
▁lever	-800
eg	-801
▁et	-802
▁program	-803
ät	-804
▁9	-805
▁speci	-806
ly	-807
ldrig	-808
gifter	-809
▁van	-810
▁organ	-811
▁fär	-812
▁igen	-813
▁val	-814
▁webb	-815
empel	-816
ål	-817
▁problem	-818
sten	-819
äck	-820
▁annat	-821
erad	-822
nen	-823
ine	-824
▁tar	-825
▁medlem	-826
▁lite	-827
rum	-828
▁mest	-829
rag	-830
▁10	-831
xt	-832
▁dom	-833
▁un	-834
dre	-835
unt	-836
▁aldrig	-837
▁Sk	-838
kta	-839
▁sna	-840
▁hos	-841
▁ve	-842
bar	-843
▁vin	-844
▁svar	-845
▁rel	-846
lek	-847
▁förl	-848
talet	-849
ast	-850
ppen	-851
istor	-852
uta	-853
▁komma	-854
▁uni	-855
lut	-856
▁tekn	-857
igheter	-858
ator	-859
▁on	-860
▁mat	-861
vud	-862
ung	-863
▁lig	-864
▁Ch	-865
jekt	-866
gör	-867
▁egen	-868
▁komp	-869
teg	-870
▁stora	-871
liti	-872
naden	-873
met	-874
arbet	-875
▁flera	-876
vänd	-877
▁kvinn	-878
anden	-879
▁Kan	-880
▁jo	-881
▁eftersom	-882
▁bort	-883
▁mis	-884
olog	-885
iskt	-886
ktiga	-887
▁snabb	-888
▁lo	-889
▁met	-890
ata	-891
tionella	-892
oner	-893
▁rå	-894
▁blev	-895
jer	-896
ug	-897
▁US	-898
▁bok	-899
baka	-900
ef	-901
▁Ett	-902
▁På	-903
▁hän	-904
ingen	-905
▁plats	-906
▁fam	-907
▁off	-908
anta	-909
▁kr	-910
▁sjuk	-911
sm	-912
tig	-913
▁Hon	-914
▁häl	-915
▁exempel	-916
ner	-917
▁lär	-918
▁ner	-919
▁vatt	-920
under	-921
▁form	-922
▁ofta	-923
▁full	-924
▁kro	-925
öka	-926
▁förv	-927
ard	-928
▁enligt	-929
▁sn	-930
mans	-931
▁krä	-932
▁utveckling	-933
▁Pro	-934
▁tror	-935
ings	-936
▁dire	-937
▁innan	-938
ote	-939
eller	-940
▁Y	-941
▁verkligen	-942
▁män	-943
▁nam	-944
▁Alla	-945
▁land	-946
▁Re	-947
▁tidig	-948
▁tillbaka	-949
▁hör	-950
▁mö	-951
▁regi	-952
nes	-953
ektiv	-954
▁pra	-955
▁hjär	-956
▁forsk	-957
▁gäller	-958
tiva	-959
ler	-960
ab	-961
stånd	-962
▁natur	-963
▁stöd	-964
▁my	-965
tionen	-966
ärskil	-967
▁ställ	-968
kor	-969
▁kontro	-970
▁histor	-971
▁föränd	-972
▁Man	-973
tag	-974
▁Är	-975
farande	-976
▁bland	-977
▁fick	-978
▁berätt	-979
▁“	-980
▁tal	-981
ultat	-982
▁Till	-983
▁tra	-984
▁dri	-985
▁lå	-986
tar	-987
000	-988
ap	-989
▁Som	-990
ust	-991
ades	-992
konom	-993
atser	-994
▁saker	-995
▁hjälp	-996
▁Där	-997
▁huvud	-998
▁god	-999
elser	-1000
orna	-1001
jud	-1002
▁pre	-1003
▁kär	-1004
▁skyd	-1005
io	-1006
ren	-1007
ib	-1008
ktor	-1009
vit	-1010
▁Ne	-1011
onen	-1012
▁rör	-1013
▁pris	-1014
sammans	-1015
▁All	-1016
▁kanske	-1017
▁politi	-1018
led	-1019
kri	-1020
hets	-1021
▁förm	-1022
▁tv	-1023
▁organis	-1024
▁kunde	-1025
▁hus	-1026
▁sak	-1027
▁bef	-1028
▁em	-1029
▁ekonom	-1030
▁und	-1031
▁bygg	-1032
▁sådan	-1033
▁produkter	-1034
▁y	-1035
hand	-1036
av	-1037
▁red	-1038
▁kost	-1039
▁både	-1040
▁tag	-1041
▁Ö	-1042
▁trä	-1043
▁EU	-1044
▁använder	-1045
▁artikel	-1046
▁särskil	-1047
lägg	-1048
▁Fr	-1049
räck	-1050
▁data	-1051
▁lik	-1052
▁öpp	-1053
▁familj	-1054
lic	-1055
älj	-1056
yl	-1057
▁Kom	-1058
▁jobb	-1059
▁lätt	-1060
▁håll	-1061
erat	-1062
▁personer	-1063
▁rek	-1064
▁fle	-1065
öker	-1066
▁Ar	-1067
▁gam	-1068
nade	-1069
▁ens	-1070
rid	-1071
▁erbju	-1072
kade	-1073
▁bek	-1074
plats	-1075
▁bas	-1076
▁tiden	-1077
▁mina	-1078
▁äg	-1079
▁USA	-1080
▁Å	-1081
▁säga	-1082
▁Här	-1083
▁redan	-1084
▁gjort	-1085
tet	-1086
▁pla	-1087
tu	-1088
amp	-1089
▁lös	-1090
alitet	-1091
▁Efter	-1092
▁im	-1093
▁el	-1094
ycker	-1095
årt	-1096
▁Ma	-1097
▁dock	-1098
▁gi	-1099
▁idag	-1100
▁bo	-1101
▁Nu	-1102
▁Jo	-1103
rätt	-1104
▁mindre	-1105
ten	-1106
▁dö	-1107
▁fortfarande	-1108
las	-1109
▁interna	-1110
▁ob	-1111
▁tidigare	-1112
▁kor	-1113
teri	-1114
mär	-1115
ras	-1116
aste	-1117
▁tillsammans	-1118
▁soci	-1119
▁pres	-1120
▁enkel	-1121
▁Se	-1122
▁Varför	-1123
▁vissa	-1124
upp	-1125
▁endast	-1126
tan	-1127
nads	-1128
▁kons	-1129
▁ligger	-1130
▁vatten	-1131
enskap	-1132
äs	-1133
▁väldigt	-1134
rist	-1135
▁kul	-1136
▁förstå	-1137
▁fel	-1138
▁Denna	-1139
▁stud	-1140
▁verksam	-1141
▁kort	-1142
▁dr	-1143
▁sid	-1144
▁”.	-1145
▁procent	-1146
▁kli	-1147
▁sti	-1148
ym	-1149
▁inf	-1150
▁läk	-1151
▁inkl	-1152
orm	-1153
vers	-1154
räns	-1155
ret	-1156
rott	-1157
▁rö	-1158
▁kall	-1159
▁bak	-1160
▁ansvar	-1161
▁tjänster	-1162
bild	-1163
▁to	-1164
▁fast	-1165
ion	-1166
▁folk	-1167
äv	-1168
▁hjälpa	-1169
▁bestäm	-1170
▁ytt	-1171
▁resultat	-1172
fi	-1173
▁väx	-1174
▁pengar	-1175
▁flyg	-1176
häll	-1177
▁inneb	-1178
▁värld	-1179
▁inter	-1180
gär	-1181
▁pri	-1182
▁fortsätt	-1183
▁tim	-1184
▁möjligt	-1185
▁ad	-1186
ergi	-1187
▁längre	-1188
▁18	-1189
▁ele	-1190
jur	-1191
▁15	-1192
gäng	-1193
tro	-1194
▁Des	-1195
▁före	-1196
▁styr	-1197
▁största	-1198
ekt	-1199
▁Under	-1200
ay	-1201
▁beslut	-1202
▁projekt	-1203
▁sex	-1204
▁fot	-1205
▁stu	-1206
tiska	-1207
män	-1208
▁dagar	-1209
▁känner	-1210
▁fem	-1211
äder	-1212
uter	-1213
▁fler	-1214
▁därför	-1215
▁typ	-1216
amma	-1217
olag	-1218
▁kvinnor	-1219
▁länder	-1220
▁främ	-1221
▁intress	-1222
▁ro	-1223
▁grupp	-1224
ämp	-1225
▁vårt	-1226
▁dra	-1227
▁bety	-1228
klar	-1229
▁The	-1230
▁ne	-1231
varande	-1232
▁skol	-1233
▁stra	-1234
▁konst	-1235
▁behandling	-1236
cis	-1237
me	-1238
▁nät	-1239
▁jäm	-1240
▁förbätt	-1241
▁skapa	-1242
▁namn	-1243
▁arbete	-1244
so	-1245
▁Vil	-1246
▁utt	-1247
▁Mar	-1248
▁veck	-1249
föra	-1250
bart	-1251
ha	-1252
▁används	-1253
▁henne	-1254
ationer	-1255
▁samhäll	-1256
van	-1257
▁räd	-1258
håller	-1259
▁rum	-1260
ligare	-1261
▁".	-1262
▁död	-1263
▁Europa	-1264
▁12	-1265
▁op	-1266
ige	-1267
▁rapp	-1268
ktioner	-1269
ori	-1270
vent	-1271
▁aktiv	-1272
▁visar	-1273
▁bor	-1274
▁nära	-1275
lam	-1276
ästan	-1277
▁cent	-1278
▁lika	-1279
▁orsa	-1280
▁viktigt	-1281
▁nog	-1282
▁star	-1283
▁nivå	-1284
▁flesta	-1285
▁miljö	-1286
▁energi	-1287
från	-1288
▁tillgäng	-1289
▁ung	-1290
▁öka	-1291
▁hund	-1292
▁runt	-1293
▁gjorde	-1294
▁kommun	-1295
▁mas	-1296
dera	-1297
dar	-1298
▁Be	-1299
▁gem	-1300
▁hitta	-1301
▁syn	-1302
▁'	-1303
bland	-1304
▁kvar	-1305
▁prof	-1306
▁åtgär	-1307
▁Sver	-1308
▁större	-1309
▁avs	-1310
▁konta	-1311
line	-1312
▁betal	-1313
▁bel	-1314
iv	-1315
▁fråga	-1316
äpp	-1317
port	-1318
orter	-1319
▁ter	-1320
▁skap	-1321
▁allmän	-1322
▁själva	-1323
▁by	-1324
fin	-1325
ännu	-1326
▁000	-1327
▁Ut	-1328
▁ännu	-1329
merik	-1330
gel	-1331
▁ög	-1332
cer	-1333
red	-1334
▁bed	-1335
▁börjar	-1336
▁pa	-1337
ister	-1338
▁händer	-1339
▁ned	-1340
▁ih	-1341
ds	-1342
▁hopp	-1343
▁hålla	-1344
▁samarbet	-1345
▁direkt	-1346
▁varför	-1347
pi	-1348
one	-1349
▁ön	-1350
▁aff	-1351
ice	-1352
ission	-1353
hör	-1354
▁kunder	-1355
▁vilken	-1356
sättning	-1357
▁innebär	-1358
ook	-1359
▁hennes	-1360
▁omfatt	-1361
slag	-1362
▁tred	-1363
▁ol	-1364
▁senaste	-1365
tra	-1366
▁fru	-1367
ften	-1368
▁inve	-1369
▁part	-1370
ktiskt	-1371
▁Dessa	-1372
akt	-1373
▁Kon	-1374
▁mar	-1375
▁str	-1376
▁viktiga	-1377
▁ban	-1378
andel	-1379
▁utbild	-1380
terial	-1381
derar	-1382
▁livet	-1383
ex	-1384
otell	-1385
ktur	-1386
åga	-1387
eter	-1388
▁indi	-1389
fer	-1390
▁små	-1391
▁enkelt	-1392
cen	-1393
oende	-1394
cke	-1395
ansi	-1396
▁frågor	-1397
▁samman	-1398
▁risk	-1399
▁rep	-1400
tions	-1401
▁nöd	-1402
▁lu	-1403
änk	-1404
▁30	-1405
▁Sam	-1406
▁Vis	-1407
tr	-1408
▁tur	-1409
▁loka	-1410
▁dagen	-1411
▁&	-1412
ater	-1413
▁älskar	-1414
jus	-1415
går	-1416
derna	-1417
▁fått	-1418
▁nytt	-1419
▁blivit	-1420
▁står	-1421
▁inför	-1422
▁Mo	-1423
▁musi	-1424
▁tycker	-1425
tidigt	-1426
ps	-1427
ös	-1428
▁möjlighet	-1429
rat	-1430
▁Min	-1431
▁nästan	-1432
råk	-1433
▁bid	-1434
▁trans	-1435
▁kri	-1436
▁vilka	-1437
▁),	-1438
▁erbjuder	-1439
ringar	-1440
▁sol	-1441
örer	-1442
▁tillgång	-1443
illar	-1444
ument	-1445
tas	-1446
▁inget	-1447
▁mynd	-1448
verka	-1449
▁bru	-1450
▁särskilt	-1451
ity	-1452
▁kör	-1453
inner	-1454
▁affär	-1455
peiska	-1456
▁amerik	-1457
bru	-1458
tade	-1459
▁uppgifter	-1460
▁ytter	-1461
▁webbplats	-1462
ari	-1463
elsen	-1464
tis	-1465
▁länge	-1466
vä	-1467
▁euro	-1468
alis	-1469
▁senare	-1470
▁posi	-1471
▁Le	-1472
▁Ja	-1473
▁id	-1474
giv	-1475
▁far	-1476
▁hår	-1477
▁icke	-1478
▁just	-1479
unkt	-1480
▁arbets	-1481
ral	-1482
▁kropp	-1483
väg	-1484
ommen	-1485
▁ana	-1486
ständ	-1487
fik	-1488
dent	-1489
ris	-1490
▁Inte	-1491
▁teknik	-1492
cker	-1493
▁uppf	-1494
▁kärlek	-1495
▁alterna	-1496
▁Gen	-1497
▁Sverige	-1498
fri	-1499
▁Allt	-1500
▁miljoner	-1501
▁via	-1502
iten	-1503
andra	-1504
ående	-1505
▁pub	-1506
▁uppt	-1507
▁funger	-1508
▁bild	-1509
▁gånger	-1510
▁fyra	-1511
▁finansi	-1512
inna	-1513
▁Li	-1514
▁ren	-1515
▁tog	-1516
ställa	-1517
ge	-1518
▁besök	-1519
▁gick	-1520
▁sjukdom	-1521
ons	-1522
ligtvis	-1523
▁tan	-1524
▁delar	-1525
▁möjlig	-1526
▁material	-1527
▁spela	-1528
▁tredje	-1529
med	-1530
▁steg	-1531
▁Al	-1532
tivt	-1533
terar	-1534
▁erf	-1535
▁fanta	-1536
▁effektiv	-1537
▁medlems	-1538
▁11	-1539
eln	-1540
int	-1541
denti	-1542
▁Sp	-1543
dern	-1544
nitt	-1545
▁Även	-1546
sök	-1547
▁sade	-1548
▁sj	-1549
▁förlor	-1550
▁landet	-1551
▁Ty	-1552
▁såg	-1553
▁började	-1554
▁faktiskt	-1555
itu	-1556
▁förhåll	-1557
▁0	-1558
yrk	-1559
▁veta	-1560
▁desig	-1561
▁nödvänd	-1562
form	-1563
▁gången	-1564
ktiv	-1565
▁byg	-1566
▁Go	-1567
lag	-1568
▁ko	-1569
▁lära	-1570
vid	-1571
satt	-1572
fär	-1573
▁stort	-1574
iner	-1575
▁bi	-1576
bara	-1577
ron	-1578
▁Då	-1579
usive	-1580
▁invester	-1581
sin	-1582
▁träff	-1583
sikt	-1584
▁rekommen	-1585
no	-1586
rev	-1587
▁funktion	-1588
co	-1589
▁värde	-1590
ighet	-1591
▁kvalitet	-1592
uti	-1593
val	-1594
▁näm	-1595
▁199	-1596
▁bud	-1597
▁disk	-1598
▁ab	-1599
yn	-1600
▁And	-1601
orden	-1602
▁djur	-1603
tering	-1604
▁Jes	-1605
▁online	-1606
stru	-1607
ct	-1608
▁hal	-1609
▁produkt	-1610
▁Någ	-1611
▁%	-1612
▁egna	-1613
▁månader	-1614
▁båda	-1615
delse	-1616
▁dator	-1617
▁sidan	-1618
▁håller	-1619
ött	-1620
▁Ro	-1621
tisk	-1622
▁Sa	-1623
hus	-1624
▁handlar	-1625
▁tillämp	-1626
▁16	-1627
uella	-1628
▁avsl	-1629
▁fann	-1630
▁köpa	-1631
▁mode	-1632
▁skill	-1633
fäll	-1634
▁emot	-1635
▁vänner	-1636
▁nästa	-1637
▁framti	-1638
▁mänsk	-1639
▁reger	-1640
▁rik	-1641
Jag	-1642
▁arbetar	-1643
▁app	-1644
▁Upp	-1645
▁erfaren	-1646
rade	-1647
sera	-1648
▁medan	-1649
▁minska	-1650
▁Her	-1651
▁välja	-1652
▁mär	-1653
▁erna	-1654
▁kraft	-1655
▁liten	-1656
▁fi	-1657
▁behov	-1658
omm	-1659
ond	-1660
▁fok	-1661
▁snabbt	-1662
▁marknads	-1663
▁områden	-1664
▁timmar	-1665
▁köp	-1666
▁Ta	-1667
▁precis	-1668
ux	-1669
ror	-1670
▁nå	-1671
▁blod	-1672
syn	-1673
▁tillräck	-1674
kning	-1675
▁framgång	-1676
▁Z	-1677
▁öv	-1678
▁kontroll	-1679
kte	-1680
ore	-1681
▁åtgärder	-1682
▁17	-1683
▁användning	-1684
nande	-1685
▁ljus	-1686
▁svårt	-1687
▁krig	-1688
▁pati	-1689
lick	-1690
▁året	-1691
▁Fa	-1692
▁vack	-1693
▁kalla	-1694
▁the	-1695
▁fas	-1696
▁13	-1697
asin	-1698
▁förvän	-1699
▁begräns	-1700
▁staden	-1701
▁äm	-1702
▁pass	-1703
▁följande	-1704
▁föräl	-1705
▁hjälper	-1706
enti	-1707
hol	-1708
icka	-1709
▁san	-1710
▁ac	-1711
tionell	-1712
▁identi	-1713
mb	-1714
alen	-1715
▁kund	-1716
ork	-1717
▁indu	-1718
fall	-1719
▁produktion	-1720
▁50	-1721
drag	-1722
▁riktigt	-1723
▁varandra	-1724
▁beskri	-1725
▁Bar	-1726
▁ann	-1727
▁marknaden	-1728
mat	-1729
rik	-1730
▁sett	-1731
▁innehåll	-1732
▁Många	-1733
▁fördel	-1734
▁innehåller	-1735
▁Av	-1736
▁25	-1737
sh	-1738
bin	-1739
▁ytterligare	-1740
▁Sh	-1741
▁pol	-1742
▁inga	-1743
öst	-1744
▁alternativ	-1745
elef	-1746
▁100	-1747
▁råd	-1748
▁.”	-1749
▁go	-1750
▁lycka	-1751
▁slag	-1752
ogra	-1753
▁stat	-1754
▁Sy	-1755
▁roll	-1756
▁univers	-1757
pen	-1758
▁mäng	-1759
▁bilder	-1760
▁början	-1761
▁Co	-1762
▁Dess	-1763
▁analy	-1764
▁process	-1765
▁glob	-1766
▁ögon	-1767
get	-1768
▁hy	-1769
▁ute	-1770
▁Guds	-1771
▁ang	-1772
hålla	-1773
▁känna	-1774
ktyg	-1775
▁träd	-1776
pul	-1777
▁”,	-1778
▁sådana	-1779
▁kontroller	-1780
avs	-1781
ölja	-1782
kän	-1783
▁New	-1784
▁antal	-1785
▁fantasti	-1786
▁rättigheter	-1787
▁test	-1788
▁flytt	-1789
ember	-1790
▁klass	-1791
▁fungerar	-1792
▁14	-1793
▁helst	-1794
▁medic	-1795
▁området	-1796
▁inklusive	-1797
▁verksamhet	-1798
▁Per	-1799
▁mil	-1800
▁minuter	-1801
▁Res	-1802
▁långt	-1803
▁gener	-1804
▁sista	-1805
eder	-1806
▁kar	-1807
▁Ex	-1808
fte	-1809
▁sö	-1810
fier	-1811
olu	-1812
ou	-1813
▁resa	-1814
▁bolag	-1815
▁konk	-1816
▁världens	-1817
▁bö	-1818
▁gr	-1819
▁visa	-1820
▁anställ	-1821
▁offent	-1822
oli	-1823
▁tack	-1824
▁förut	-1825
▁",	-1826
▁betyder	-1827
▁gar	-1828
▁mä	-1829
▁borde	-1830
▁tillfäll	-1831
▁tem	-1832
▁(1	-1833
▁perf	-1834
▁gamla	-1835
samma	-1836
ment	-1837
▁mag	-1838
▁situ	-1839
▁forskning	-1840
▁registr	-1841
▁at	-1842
▁Joh	-1843
▁aktivitet	-1844
▁användas	-1845
▁Ska	-1846
▁gillar	-1847
borg	-1848
▁vidare	-1849
▁sven	-1850
up	-1851
use	-1852
anser	-1853
▁samtidigt	-1854
▁års	-1855
spel	-1856
▁musik	-1857
▁blog	-1858
tala	-1859
▁släpp	-1860
▁miss	-1861
▁Vill	-1862
▁haft	-1863
▁minst	-1864
spr	-1865
▁läsa	-1866
ism	-1867
▁Vid	-1868
▁Fran	-1869
▁gemens	-1870
▁natt	-1871
▁internationella	-1872
▁film	-1873
▁kopp	-1874
▁•	-1875
▁upplev	-1876
▁kol	-1877
vande	-1878
▁meddel	-1879
handa	-1880
▁viktig	-1881
▁historia	-1882
▁låt	-1883
▁elekt	-1884
▁villkor	-1885
▁defin	-1886
▁Läs	-1887
ationen	-1888
▁tyd	-1889
▁räk	-1890
▁X	-1891
▁teck	-1892
tes	-1893
▁förord	-1894
▁su	-1895
▁vem	-1896
förs	-1897
▁Därför	-1898
▁verkar	-1899
▁säkerhet	-1900
▁börja	-1901
▁föres	-1902
▁sh	-1903
▁cir	-1904
▁handel	-1905
▁förbättra	-1906
dade	-1907
▁sek	-1908
sprung	-1909
ox	-1910
▁kultur	-1911
▁Ny	-1912
över	-1913
▁verktyg	-1914
▁mör	-1915
stitu	-1916
▁högre	-1917
rust	-1918
▁sag	-1919
lingar	-1920
▁integ	-1921
ration	-1922
▁vetenskap	-1923
ui	-1924
vara	-1925
▁utman	-1926
▁Sedan	-1927
stället	-1928
▁någonsin	-1929
avsett	-1930
▁medvet	-1931
▁kunskap	-1932
▁»	-1933
▁sök	-1934
▁ål	-1935
▁hotell	-1936
▁enlighet	-1937
▁tillverk	-1938
▁skicka	-1939
▁hemma	-1940
▁Jesus	-1941
▁ganska	-1942
▁So	-1943
omen	-1944
▁fanns	-1945
▁Stor	-1946
ännande	-1947
▁föd	-1948
▁partner	-1949
▁tillhanda	-1950
▁stad	-1951
fta	-1952
nit	-1953
oder	-1954
vice	-1955
▁spelar	-1956
▁Fin	-1957
▁Ni	-1958
enta	-1959
▁lämna	-1960
▁medel	-1961
▁utveckl	-1962
ki	-1963
▁*	-1964
▁Ber	-1965
▁exper	-1966
▁dok	-1967
▁sida	-1968
issionen	-1969
sra	-1970
▁inv	-1971
▁lin	-1972
▁ansl	-1973
▁utb	-1974
▁dröm	-1975
▁såsom	-1976
▁Hel	-1977
▁ins	-1978
▁sociala	-1979
▁Eller	-1980
stol	-1981
▁jord	-1982
▁stan	-1983
▁spelare	-1984
fika	-1985
▁idé	-1986
ekter	-1987
▁Or	-1988
▁tor	-1989
tals	-1990
▁vide	-1991
skaper	-1992
▁Bl	-1993
▁prin	-1994
▁ville	-1995
▁Ad	-1996
▁insta	-1997
vat	-1998
▁språk	-1999
▁vägen	-2000
▁stand	-2001
▁produc	-2002
ppa	-2003
▁extra	-2004
staur	-2005
▁tänka	-2006
srael	-2007
▁framför	-2008
växt	-2009
cep	-2010
ession	-2011
▁uppfy	-2012
▁kallas	-2013
▁uppn	-2014
20	-2015
▁alltså	-2016
▁kur	-2017
emang	-2018
▁utbildning	-2019
▁medicin	-2020
▁version	-2021
▁vilja	-2022
komst	-2023
▁Fl	-2024
▁låg	-2025
▁kväll	-2026
▁dy	-2027
▁föräld	-2028
ue	-2029
▁’	-2030
tik	-2031
▁känn	-2032
▁jämför	-2033
▁tradi	-2034
▁kräver	-2035
diga	-2036
sol	-2037
▁trän	-2038
▁mobil	-2039
rek	-2040
▁arbeta	-2041
ali	-2042
▁Uni	-2043
gift	-2044
▁mask	-2045
▁Varje	-2046
ton	-2047
▁Genom	-2048
▁Par	-2049
▁utanför	-2050
Det	-2051
igh	-2052
▁känsl	-2053
▁ursprung	-2054
ubb	-2055
ting	-2056
▁använ	-2057
▁ovan	-2058
stad	-2059
▁koll	-2060
▁popul	-2061
▁ibland	-2062
lament	-2063
▁brott	-2064
▁krävs	-2065
▁tillräckligt	-2066
▁Q	-2067
lin	-2068
ologi	-2069
ummer	-2070
mal	-2071
▁cy	-2072
▁heller	-2073
▁Ser	-2074
▁typer	-2075
▁platser	-2076
nova	-2077
len	-2078
atur	-2079
▁fatt	-2080
lex	-2081
iss	-2082
vor	-2083
▁försöker	-2084
▁het	-2085
▁käns	-2086
▁fören	-2087
▁anled	-2088
▁kombin	-2089
▁lägga	-2090
▁jorden	-2091
gru	-2092
▁utveckla	-2093
▁parti	-2094
ho	-2095
▁dör	-2096
▁äta	-2097
▁konkur	-2098
▁."	-2099
▁uppnå	-2100
uppgifter	-2101
mera	-2102
▁skatt	-2103
full	-2104
▁maj	-2105
▁skydd	-2106
▁Vem	-2107
ösa	-2108
lien	-2109
▁område	-2110
öv	-2111
▁He	-2112
▁ant	-2113
▁åren	-2114
▁förklar	-2115
▁höj	-2116
▁tills	-2117
ulla	-2118
▁försök	-2119
ester	-2120
▁kamp	-2121
▁ry	-2122
▁älska	-2123
▁tillstånd	-2124
▁färg	-2125
▁leva	-2126
stående	-2127
▁möjligheter	-2128
▁systemet	-2129
▁telef	-2130
▁mor	-2131
▁läkem	-2132
enhet	-2133
▁ändå	-2134
fic	-2135
uld	-2136
sb	-2137
ian	-2138
▁public	-2139
▁utom	-2140
▁inb	-2141
▁insp	-2142
▁lämp	-2143
▁slutet	-2144
▁akt	-2145
räd	-2146
▁morg	-2147
ph	-2148
▁For	-2149
▁fred	-2150
▁Dessutom	-2151
ont	-2152
▁log	-2153
▁följa	-2154
▁Th	-2155
▁Mer	-2156
märk	-2157
▁vecka	-2158
▁påverk	-2159
▁anp	-2160
▁skriver	-2161
post	-2162
▁försälj	-2163
▁kommit	-2164
▁hälso	-2165
▁fortsätta	-2166
▁Pa	-2167
▁skriva	-2168
▁användare	-2169
▁amerikanska	-2170
▁redo	-2171
▁sagt	-2172
▁!!	-2173
▁Sta	-2174
▁Goog	-2175
▁norm	-2176
▁Ingen	-2177
pro	-2178
▁kam	-2179
▁vanliga	-2180
usen	-2181
vän	-2182
▁Från	-2183
▁fortsätter	-2184
▁Ha	-2185
▁Tro	-2186
kla	-2187
▁dju	-2188
▁uppda	-2189
▁snart	-2190
▁do	-2191
stag	-2192
ryck	-2193
▁genomför	-2194
stat	-2195
▁ihåg	-2196
▁skyl	-2197
▁öppna	-2198
▁säkerhets	-2199
▁ris	-2200
▁klar	-2201
▁tagit	-2202
▁allvar	-2203
▁gär	-2204
▁skad	-2205
age	-2206
▁Använd	-2207
▁Te	-2208
▁bäst	-2209
▁lyss	-2210
▁ja	-2211
▁pas	-2212
▁tänker	-2213
▁kontakt	-2214
lad	-2215
▁fys	-2216
▁rapporter	-2217
iti	-2218
▁ham	-2219
▁bevis	-2220
▁leverant	-2221
▁24	-2222
▁dist	-2223
fråg	-2224
▁gran	-2225
▁utrust	-2226
pper	-2227
cept	-2228
▁Låt	-2229
▁hälsa	-2230
▁inklu	-2231
▁tillväxt	-2232
0-	-2233
▁hittar	-2234
▁förh	-2235
▁event	-2236
▁regel	-2237
▁beroende	-2238
▁egent	-2239
ansk	-2240
▁digi	-2241
▁grän	-2242
).	-2243
stri	-2244
▁nde	-2245
▁stru	-2246
vik	-2247
▁glöm	-2248
▁krav	-2249
▁gratis	-2250
▁indivi	-2251
ancer	-2252
▁punkt	-2253
▁frågan	-2254
▁ford	-2255
▁Pl	-2256
▁match	-2257
▁tjänst	-2258
▁erbjud	-2259
▁myndigheter	-2260
▁fly	-2261
▁chef	-2262
▁påverka	-2263
bri	-2264
▁mots	-2265
ny	-2266
▁företaget	-2267
▁mon	-2268
öt	-2269
▁eget	-2270
▁titt	-2271
▁platt	-2272
▁läs	-2273
otter	-2274
▁innova	-2275
aga	-2276
▁fö	-2277
▁Enligt	-2278
▁ev	-2279
ys	-2280
▁rikt	-2281
▁hoppas	-2282
▁universitet	-2283
▁kroppen	-2284
ko	-2285
▁sluta	-2286
▁ändra	-2287
tem	-2288
▁ton	-2289
yss	-2290
▁avtal	-2291
▁design	-2292
▁kommunika	-2293
▁exp	-2294
▁Tack	-2295
our	-2296
bel	-2297
unda	-2298
▁stå	-2299
föring	-2300
▁ålder	-2301
▁ekonomiska	-2302
▁säl	-2303
▁tj	-2304
▁sju	-2305
samhet	-2306
po	-2307
rit	-2308
▁vux	-2309
▁ske	-2310
tegi	-2311
▁pot	-2312
▁relig	-2313
▁väljer	-2314
▁upptäck	-2315
emi	-2316
seende	-2317
▁nätverk	-2318
▁dela	-2319
▁framtiden	-2320
▁Google	-2321
iod	-2322
▁bakom	-2323
▁stäng	-2324
▁defini	-2325
▁Israel	-2326
▁funktioner	-2327
uni	-2328
▁Ge	-2329
▁utför	-2330
▁säkert	-2331
gera	-2332
band	-2333
▁bygga	-2334
▁låter	-2335
ong	-2336
▁ben	-2337
dant	-2338
her	-2339
▁dat	-2340
▁följer	-2341
▁autom	-2342
▁undersök	-2343
ng	-2344
rym	-2345
▁deltag	-2346
rip	-2347
▁fisk	-2348
▁erfarenhet	-2349
▁garan	-2350
▁Europeiska	-2351
ög	-2352
▁klimat	-2353
▁medlemssta	-2354
▁lad	-2355
ement	-2356
kring	-2357
▁försäk	-2358
etter	-2359
▁kvinna	-2360
▁princi	-2361
▁z	-2362
▁stol	-2363
▁behövs	-2364
▁lösningar	-2365
nt	-2366
▁imp	-2367
▁regl	-2368
▁start	-2369
▁läkemedel	-2370
▁skär	-2371
▁egentligen	-2372
cc	-2373
▁gått	-2374
▁försv	-2375
▁repres	-2376
mare	-2377
repp	-2378
äcka	-2379
▁Car	-2380
▁säk	-2381
minist	-2382
nda	-2383
▁bri	-2384
▁gott	-2385
kas	-2386
▁me	-2387
indra	-2388
▁mamma	-2389
iet	-2390
▁författ	-2391
▁oro	-2392
▁Ind	-2393
▁Kina	-2394
▁ca	-2395
lade	-2396
▁läkare	-2397
efär	-2398
räff	-2399
▁Inter	-2400
▁istället	-2401
lit	-2402
atter	-2403
▁undvi	-2404
▁studen	-2405
juta	-2406
ollar	-2407
▁smär	-2408
▁regler	-2409
▁studier	-2410
▁son	-2411
▁kostnader	-2412
▁halv	-2413
▁veckan	-2414
dde	-2415
▁psy	-2416
▁kapi	-2417
▁ring	-2418
▁förordning	-2419
▁Idag	-2420
▁nationella	-2421
dagen	-2422
bruk	-2423
▁äldre	-2424
▁betala	-2425
▁40	-2426
▁fe	-2427
▁era	-2428
▁goda	-2429
▁]	-2430
▁tillgängliga	-2431
▁utgör	-2432
ich	-2433
▁ram	-2434
▁engel	-2435
ident	-2436
▁stark	-2437
▁potenti	-2438
▁Ti	-2439
▁minn	-2440
▁vikt	-2441
▁finnas	-2442
▁veckor	-2443
▁Över	-2444
resser	-2445
skning	-2446
ligheten	-2447
ins	-2448
▁tio	-2449
▁bete	-2450
▁liknande	-2451
▁våld	-2452
▁resp	-2453
▁service	-2454
kat	-2455
▁gud	-2456
▁ifrån	-2457
stans	-2458
▁detal	-2459
▁förstår	-2460
▁App	-2461
serna	-2462
▁198	-2463
▁Sen	-2464
står	-2465
arder	-2466
▁svår	-2467
▁storlek	-2468
▁bär	-2469
▁gav	-2470
ansch	-2471
▁uppmärk	-2472
▁dokument	-2473
stift	-2474
▁lek	-2475
▁syfte	-2476
▁topp	-2477
▁månad	-2478
▁förber	-2479
▁skydda	-2480
väl	-2481
▁nor	-2482
▁delen	-2483
▁skada	-2484
▁trots	-2485
▁bal	-2486
▁motor	-2487
▁politiska	-2488
åra	-2489
▁kna	-2490
▁mass	-2491
▁närheten	-2492
mt	-2493
▁makt	-2494
gå	-2495
▁skapar	-2496
▁John	-2497
▁anti	-2498
▁Vilka	-2499
▁risker	-2500
nien	-2501
klart	-2502
▁nöj	-2503
▁strategi	-2504
ey	-2505
pr	-2506
▁säkerställa	-2507
▁övert	-2508
▁böcker	-2509
▁igenom	-2510
▁betyd	-2511
▁kring	-2512
▁sann	-2513
▁Din	-2514
▁bred	-2515
▁sep	-2516
▁viss	-2517
▁him	-2518
▁känd	-2519
▁Univers	-2520
▁21	-2521
▁Hans	-2522
▁klart	-2523
vera	-2524
▁förslag	-2525
▁Po	-2526
▁bry	-2527
▁personuppgifter	-2528
▁polis	-2529
▁studie	-2530
ställning	-2531
▁luft	-2532
▁resur	-2533
▁La	-2534
▁tillå	-2535
▁upple	-2536
▁skolan	-2537
läggande	-2538
ceb	-2539
▁häm	-2540
ält	-2541
▁kred	-2542
enting	-2543
▁människa	-2544
én	-2545
▁Sch	-2546
ferens	-2547
▁prakti	-2548
▁domstol	-2549
▁Bo	-2550
▁Vår	-2551
system	-2552
▁Vissa	-2553
▁sätta	-2554
...	-2555
▁faktor	-2556
▁viktigaste	-2557
nam	-2558
cent	-2559
▁opera	-2560
ies	-2561
▁övrig	-2562
▁samarbete	-2563
eb	-2564
▁list	-2565
ham	-2566
vning	-2567
▁röst	-2568
ätta	-2569
platser	-2570
cy	-2571
okra	-2572
asino	-2573
▁titta	-2574
riär	-2575
▁boken	-2576
▁tu	-2577
usk	-2578
länd	-2579
raft	-2580
▁accep	-2581
siv	-2582
▁lokala	-2583
gag	-2584
▁Vär	-2585
▁leda	-2586
▁säson	-2587
▁Kanske	-2588
▁bestämm	-2589
ula	-2590
▁text	-2591
▁gammal	-2592
▁dro	-2593
EG	-2594
örj	-2595
▁sättet	-2596
ip	-2597
▁plac	-2598
tional	-2599
▁perfekt	-2600
▁+	-2601
▁hantera	-2602
▁svenska	-2603
ämpa	-2604
▁enhet	-2605
▁la	-2606
▁cirka	-2607
▁hjärta	-2608
▁foku	-2609
▁kara	-2610
spl	-2611
▁va	-2612
▁ljud	-2613
▁beräk	-2614
▁försöka	-2615
▁förändring	-2616
▁rådet	-2617
▁enheter	-2618
▁struktur	-2619
▁industri	-2620
▁skillnad	-2621
ativ	-2622
önster	-2623
▁kommissionen	-2624
▁organisation	-2625
anda	-2626
▁Wind	-2627
lo	-2628
aket	-2629
bund	-2630
ttag	-2631
▁bransch	-2632
▁Tänk	-2633
▁kyrk	-2634
smedel	-2635
▁förmåga	-2636
ici	-2637
▁rele	-2638
▁omkring	-2639
väm	-2640
▁Ka	-2641
▁täv	-2642
▁rädd	-2643
▁påverkar	-2644
▁tas	-2645
▁utn	-2646
▁automati	-2647
▁mänskliga	-2648
äkt	-2649
▁utmär	-2650
▁organisationer	-2651
▁$	-2652
▁lån	-2653
▁behöva	-2654
bu	-2655
sak	-2656
lands	-2657
▁2018	-2658
ER	-2659
ank	-2660
ash	-2661
▁låta	-2662
▁leder	-2663
▁vinna	-2664
▁nödvändigt	-2665
▁föräldrar	-2666
▁bad	-2667
▁käll	-2668
▁Fil	-2669
▁lokal	-2670
vin	-2671
▁bib	-2672
▁stjär	-2673
▁samband	-2674
▁administ	-2675
rad	-2676
äss	-2677
▁kn	-2678
▁rapport	-2679
▁Con	-2680
▁Dan	-2681
▁dags	-2682
▁ungefär	-2683
▁os	-2684
▁engag	-2685
▁känns	-2686
▁Di	-2687
▁begär	-2688
vo	-2689
▁2.	-2690
▁blogg	-2691
skatt	-2692
qu	-2693
▁stället	-2694
▁internet	-2695
▁grundläggande	-2696
ona	-2697
cebook	-2698
▁högsta	-2699
▁sådant	-2700
Vi	-2701
ograf	-2702
▁döda	-2703
agn	-2704
▁restaur	-2705
olution	-2706
▁antalet	-2707
ild	-2708
▁Gör	-2709
▁rev	-2710
▁förf	-2711
▁bedöm	-2712
ows	-2713
▁intresse	-2714
▁sem	-2715
▁gärna	-2716
▁anställda	-2717
▁Gl	-2718
▁Ra	-2719
▁spelet	-2720
▁lösning	-2721
▁medlemmar	-2722
▁arbetet	-2723
▁telefon	-2724
▁Ob	-2725
▁rätts	-2726
▁dollar	-2727
▁tillhör	-2728
▁favor	-2729
▁sker	-2730
▁förek	-2731
bas	-2732
▁ihop	-2733
▁milit	-2734
▁stopp	-2735
jut	-2736
▁hållbar	-2737
▁medborg	-2738
▁oavsett	-2739
▁mängd	-2740
▁består	-2741
▁kredit	-2742
▁erbjuda	-2743
▁höra	-2744
äker	-2745
▁anpass	-2746
▁vak	-2747
talt	-2748
▁her	-2749
▁lön	-2750
emål	-2751
▁personal	-2752
▁europeiska	-2753
▁förändringar	-2754
ca	-2755
▁anges	-2756
▁närvarande	-2757
▁no	-2758
▁buti	-2759
▁häst	-2760
▁skäl	-2761
kan	-2762
▁1,	-2763
lingen	-2764
ald	-2765
ycka	-2766
▁patienter	-2767
▁profession	-2768
▁Kommer	-2769
▁upprätt	-2770
ium	-2771
▁ej	-2772
▁2015	-2773
delser	-2774
▁favorit	-2775
▁1.	-2776
holm	-2777
▁lösa	-2778
▁berätta	-2779
▁standard	-2780
umär	-2781
▁bekrä	-2782
▁grupper	-2783
▁drabb	-2784
tionellt	-2785
▁kapital	-2786
rakt	-2787
▁chans	-2788
aler	-2789
iteten	-2790
▁ersätt	-2791
▁samhället	-2792
▁utvecklingen	-2793
▁berör	-2794
▁197	-2795
▁2016	-2796
cember	-2797
▁konto	-2798
▁affärs	-2799
▁nummer	-2800
▁speciellt	-2801
▁prata	-2802
▁fullt	-2803
▁söker	-2804
▁uppen	-2805
visa	-2806
rep	-2807
▁År	-2808
teras	-2809
▁2017	-2810
▁vård	-2811
▁relev	-2812
▁reser	-2813
▁enskil	-2814
▁rom	-2815
förande	-2816
▁Ste	-2817
▁Ver	-2818
▁Spel	-2819
▁—	-2820
▁Windows	-2821
▁framgångs	-2822
rikt	-2823
▁höga	-2824
▁kontor	-2825
▁lagstift	-2826
▁nr	-2827
▁ande	-2828
▁tryck	-2829
▁bit	-2830
▁vackra	-2831
iz	-2832
lunda	-2833
▁omedel	-2834
▁programmet	-2835
ffe	-2836
▁säll	-2837
sterna	-2838
vde	-2839
anger	-2840
ndag	-2841
▁tje	-2842
▁relater	-2843
▁Eftersom	-2844
rom	-2845
▁godk	-2846
▁inst	-2847
▁visas	-2848
anu	-2849
▁intresser	-2850
let	-2851
▁arna	-2852
▁huset	-2853
öp	-2854
ogen	-2855
▁Pre	-2856
▁San	-2857
mande	-2858
▁team	-2859
▁behör	-2860
▁fjär	-2861
terade	-2862
▁president	-2863
▁Dag	-2864
antag	-2865
▁unga	-2866
▁avgör	-2867
▁Stock	-2868
▁konkurr	-2869
▁fastställ	-2870
allt	-2871
▁färdig	-2872
▁liksom	-2873
▁överva	-2874
▁ledande	-2875
▁Finns	-2876
▁tri	-2877
▁anslut	-2878
▁namnet	-2879
▁nuvarande	-2880
▁>	-2881
erti	-2882
▁konf	-2883
▁karriär	-2884
▁varumär	-2885
we	-2886
▁Ju	-2887
▁Ph	-2888
▁uppdrag	-2889
▁60	-2890
to	-2891
▁TV	-2892
▁fol	-2893
efter	-2894
▁underhåll	-2895
com	-2896
enden	-2897
▁York	-2898
▁befolk	-2899
ekan	-2900
uell	-2901
▁port	-2902
▁uttryck	-2903
ood	-2904
ktär	-2905
▁mod	-2906
▁fyll	-2907
▁glas	-2908
▁lyck	-2909
fa	-2910
▁blå	-2911
▁Nord	-2912
ektiva	-2913
vel	-2914
rekt	-2915
▁lug	-2916
▁2014	-2917
▁alls	-2918
ektion	-2919
▁Storbri	-2920
▁dessutom	-2921
▁skön	-2922
▁ökar	-2923
talien	-2924
▁metoder	-2925
▁direktiv	-2926
ppar	-2927
▁komment	-2928
▁städer	-2929
▁livsmedel	-2930
▁Tysk	-2931
▁frukt	-2932
▁modell	-2933
▁hot	-2934
▁nega	-2935
▁let	-2936
▁brän	-2937
teck	-2938
▁brö	-2939
▁behå	-2940
▁radi	-2941
▁morgon	-2942
▁period	-2943
▁tekniska	-2944
▁högt	-2945
▁tala	-2946
▁vare	-2947
▁vitt	-2948
▁förra	-2949
▁tecken	-2950
EN	-2951
▁ständ	-2952
▁engelska	-2953
▁Storbritan	-2954
▁juni	-2955
▁enkla	-2956
▁talar	-2957
▁ledare	-2958
▁december	-2959
▁anledning	-2960
▁ingenting	-2961
▁specifika	-2962
ure	-2963
stra	-2964
kerna	-2965
tember	-2966
▁Facebook	-2967
▁förhållande	-2968
åde	-2969
▁privat	-2970
▁Interna	-2971
▁transport	-2972
fiera	-2973
▁Själ	-2974
▁spår	-2975
▁ansök	-2976
jen	-2977
sch	-2978
▁Väl	-2979
▁sub	-2980
snitt	-2981
▁Hopp	-2982
▁klas	-2983
▁rädda	-2984
ftet	-2985
▁hum	-2986
▁dotter	-2987
▁installer	-2988
▁196	-2989
▁fart	-2990
▁perio	-2991
▁prote	-2992
▁förvär	-2993
▁utnytt	-2994
▁Ryss	-2995
kterna	-2996
▁tusen	-2997
▁social	-2998
skri	-2999
skott	-3000
▁psyk	-3001
anuari	-3002
▁undvika	-3003
läg	-3004
▁Kar	-3005
▁vita	-3006
▁utform	-3007
ivil	-3008
vill	-3009
▁rym	-3010
▁karaktär	-3011
orer	-3012
▁pun	-3013
▁bank	-3014
▁dubb	-3015
▁Stockholm	-3016
ake	-3017
▁kem	-3018
▁anlägg	-3019
▁barnen	-3020
▁post	-3021
▁video	-3022
▁Vilken	-3023
▁överens	-3024
▁antingen	-3025
▁bestämmelser	-3026
orn	-3027
por	-3028
icro	-3029
ines	-3030
▁bost	-3031
▁Andra	-3032
visning	-3033
ffa	-3034
▁sten	-3035
▁Tur	-3036
▁rad	-3037
▁tjä	-3038
▁nyck	-3039
ach	-3040
▁Del	-3041
▁ingår	-3042
▁lista	-3043
▁förvalt	-3044
▁studenter	-3045
edd	-3046
sel	-3047
▁cancer	-3048
▁skyldig	-3049
▁fullständ	-3050
▁kommentar	-3051
när	-3052
tit	-3053
itter	-3054
▁någonting	-3055
▁län	-3056
▁ning	-3057
▁visade	-3058
▁aktiviteter	-3059
▁Mark	-3060
▁beror	-3061
▁välkom	-3062
▁co	-3063
▁sch	-3064
▁tol	-3065
▁Komm	-3066
▁processen	-3067
▁22	-3068
▁od	-3069
▁absol	-3070
▁inlägg	-3071
▁maskin	-3072
▁gemenskap	-3073
nor	-3074
▁glad	-3075
▁poäng	-3076
▁förstör	-3077
▁presenter	-3078
▁Lo	-3079
samt	-3080
▁Lond	-3081
lik	-3082
till	-3083
▁Pla	-3084
▁tun	-3085
▁ensam	-3086
▁bilden	-3087
▁förändra	-3088
▁are	-3089
▁menar	-3090
▁genera	-3091
▁2013	-3092
▁kateg	-3093
▁visste	-3094
▁politik	-3095
▁Kv	-3096
▁Sm	-3097
▁kron	-3098
spro	-3099
▁Amer	-3100
▁förhållanden	-3101
ystem	-3102
▁budget	-3103
▁kläder	-3104
▁ena	-3105
▁anser	-3106
▁offici	-3107
▁globala	-3108
▁personliga	-3109
stone	-3110
▁Internet	-3111
ink	-3112
ita	-3113
▁We	-3114
sida	-3115
orier	-3116
▁skilj	-3117
▁januari	-3118
▁#	-3119
▁Su	-3120
▁To	-3121
▁konsek	-3122
ober	-3123
▁stäm	-3124
skapet	-3125
▁lilla	-3126
parlament	-3127
▁forskare	-3128
be	-3129
▁23	-3130
▁sälj	-3131
▁modern	-3132
boll	-3133
▁heter	-3134
▁lagen	-3135
▁uppfatt	-3136
▁ek	-3137
trem	-3138
klara	-3139
▁exakt	-3140
▁attack	-3141
▁gemensam	-3142
▁extrem	-3143
▁kompet	-3144
▁familjen	-3145
kort	-3146
▁Männ	-3147
▁fordon	-3148
▁september	-3149
ana	-3150
rande	-3151
▁fokus	-3152
urg	-3153
▁mars	-3154
▁sinn	-3155
▁skrev	-3156
▁bus	-3157
astig	-3158
▁Våra	-3159
▁Person	-3160
▁trafik	-3161
öts	-3162
▁scen	-3163
avid	-3164
▁vacker	-3165
▁regeringen	-3166
oden	-3167
▁bon	-3168
▁kompl	-3169
▁kre	-3170
strin	-3171
rument	-3172
▁konsum	-3173
▁medlemsstaterna	-3174
▁anses	-3175
▁ämnen	-3176
beroende	-3177
▁trädgår	-3178
▁AB	-3179
ifrån	-3180
▁ström	-3181
▁bidrag	-3182
▁utrustning	-3183
▁jätt	-3184
▁tids	-3185
▁region	-3186
▁as	-3187
assa	-3188
plan	-3189
▁ide	-3190
▁jul	-3191
▁täck	-3192
▁elektron	-3193
▁njuta	-3194
▁mottag	-3195
▁centrum	-3196
za	-3197
▁Hå	-3198
▁kända	-3199
▁lägger	-3200
fe	-3201
▁3.	-3202
▁II	-3203
▁grön	-3204
▁forsknings	-3205
▁sma	-3206
▁Bara	-3207
th	-3208
amen	-3209
minstone	-3210
anc	-3211
▁Er	-3212
uellt	-3213
emot	-3214
▁stress	-3215
nal	-3216
vår	-3217
▁fång	-3218
▁livs	-3219
▁opti	-3220
▁havet	-3221
▁berättar	-3222
▁Europaparlament	-3223
▁vap	-3224
▁säkra	-3225
▁effektivt	-3226
▁egenskaper	-3227
▁he	-3228
▁Följ	-3229
▁skick	-3230
▁effekt	-3231
▁lämnar	-3232
▁vanligt	-3233
▁gemensamma	-3234
▁webbplatser	-3235
▁berg	-3236
▁David	-3237
▁Några	-3238
▁27	-3239
värr	-3240
värt	-3241
▁mus	-3242
▁skriv	-3243
orlunda	-3244
▁tillgänglig	-3245
▁:)	-3246
deras	-3247
▁spar	-3248
ktober	-3249
▁avses	-3250
▁levande	-3251
ars	-3252
ama	-3253
fulla	-3254
▁klubb	-3255
▁utrym	-3256
▁filmen	-3257
▁Gra	-3258
isera	-3259
▁regelbund	-3260
vida	-3261
▁poj	-3262
▁stö	-3263
▁gläd	-3264
▁säng	-3265
▁Ibland	-3266
▁avsnitt	-3267
▁miljarder	-3268
kul	-3269
▁otro	-3270
▁nivåer	-3271
▁central	-3272
set	-3273
ansa	-3274
▁Tra	-3275
▁sov	-3276
▁öppen	-3277
▁London	-3278
▁kommunikation	-3279
ftar	-3280
▁jud	-3281
▁tyck	-3282
▁vars	-3283
dering	-3284
▁medier	-3285
▁priset	-3286
▁framtid	-3287
inder	-3288
▁utvär	-3289
▁institu	-3290
tisti	-3291
▁Micro	-3292
▁flick	-3293
▁Hoppas	-3294
▁sektor	-3295
▁fortsatt	-3296
ns	-3297
▁mid	-3298
▁fäng	-3299
▁vanligtvis	-3300
tiga	-3301
▁civil	-3302
▁km	-3303
erings	-3304
satta	-3305
▁grad	-3306
▁Nästa	-3307
▁meter	-3308
▁trodde	-3309
▁avsluta	-3310
▁Storbritannien	-3311
▁ges	-3312
serar	-3313
▁2012	-3314
▁integr	-3315
▁stabil	-3316
ningarna	-3317
▁Finland	-3318
▁genomsnitt	-3319
▁Två	-3320
▁Park	-3321
▁främst	-3322
▁känsla	-3323
▁önskar	-3324
▁Tyskland	-3325
ena	-3326
▁Bus	-3327
tande	-3328
▁paket	-3329
peratur	-3330
ologiska	-3331
▁Bes	-3332
▁Bra	-3333
▁slå	-3334
licka	-3335
▁bord	-3336
terier	-3337
▁delta	-3338
▁uttal	-3339
jan	-3340
amål	-3341
ftig	-3342
▁fört	-3343
rings	-3344
▁FN	-3345
▁Sc	-3346
▁bill	-3347
▁mång	-3348
▁analys	-3349
▁respek	-3350
▁ändamål	-3351
värd	-3352
▁mol	-3353
givare	-3354
▁religi	-3355
▁Människ	-3356
mi	-3357
▁Com	-3358
▁Hen	-3359
▁tit	-3360
▁konstru	-3361
▁marknad	-3362
▁uppskatt	-3363
licy	-3364
slam	-3365
▁strä	-3366
▁tips	-3367
▁University	-3368
▁webbplatsen	-3369
▁28	-3370
▁häng	-3371
klag	-3372
▁sän	-3373
▁äter	-3374
▁demokra	-3375
▁Ryssland	-3376
lös	-3377
▁El	-3378
tive	-3379
▁arki	-3380
▁kapa	-3381
▁bekväm	-3382
▁Frankri	-3383
▁Företag	-3384
▁oktober	-3385
▁annorlunda	-3386
öna	-3387
▁ho	-3388
▁Dom	-3389
▁åka	-3390
▁oberoende	-3391
▁ag	-3392
▁sälja	-3393
▁Hotell	-3394
▁Nation	-3395
▁spännande	-3396
▁offentliga	-3397
pril	-3398
▁kry	-3399
▁2010	-3400
▁synd	-3401
▁initi	-3402
▁omfattande	-3403
▁26	-3404
ygga	-3405
▁kolla	-3406
▁folket	-3407
▁lärare	-3408
▁världs	-3409
jor	-3410
▁36	-3411
▁press	-3412
igheten	-3413
▁bygger	-3414
▁fallet	-3415
▁vol	-3416
▁djup	-3417
▁kände	-3418
hi	-3419
xi	-3420
▁Nya	-3421
▁job	-3422
▁kal	-3423
▁tankar	-3424
▁sannoli	-3425
▁Gu	-3426
▁500	-3427
▁Bil	-3428
▁kap	-3429
blick	-3430
▁sport	-3431
▁Pr	-3432
ture	-3433
▁lägg	-3434
▁fungera	-3435
▁kontakta	-3436
▁kontrollera	-3437
▁avslöj	-3438
▁intell	-3439
▁tidigt	-3440
cess	-3441
▁höll	-3442
▁inre	-3443
▁lägre	-3444
▁utfor	-3445
▁föremål	-3446
▁populära	-3447
kal	-3448
▁ok	-3449
inal	-3450
▁Eng	-3451
▁skra	-3452
▁datum	-3453
▁finansiella	-3454
stit	-3455
▁båt	-3456
▁nov	-3457
▁stär	-3458
▁litet	-3459
▁därmed	-3460
▁ungdom	-3461
▁undantag	-3462
ola	-3463
itta	-3464
▁våg	-3465
▁musk	-3466
▁bidra	-3467
▁sidor	-3468
▁Lu	-3469
▁hundra	-3470
▁special	-3471
▁fantastiska	-3472
▁gol	-3473
bord	-3474
▁förhand	-3475
▁inkluderar	-3476
lå	-3477
ärn	-3478
edda	-3479
▁Pol	-3480
▁amb	-3481
▁vänta	-3482
▁kommande	-3483
igen	-3484
onom	-3485
▁gui	-3486
▁ste	-3487
stitut	-3488
▁besöka	-3489
▁inspir	-3490
orge	-3491
ulti	-3492
bum	-3493
▁?”	-3494
▁dis	-3495
▁visat	-3496
▁försvar	-3497
▁tom	-3498
liv	-3499
▁?"	-3500
▁Må	-3501
▁företags	-3502
▁betydelse	-3503
gra	-3504
tter	-3505
▁långa	-3506
▁fastig	-3507
▁ställa	-3508
▁absolut	-3509
▁användar	-3510
▁Gam	-3511
citet	-3512
▁hård	-3513
▁Själv	-3514
▁elever	-3515
ikro	-3516
▁anm	-3517
▁jobbet	-3518
▁lyssna	-3519
▁motstånd	-3520
▁görs	-3521
▁reda	-3522
▁göras	-3523
▁gravid	-3524
tor	-3525
▁söm	-3526
▁etab	-3527
▁bilar	-3528
▁missl	-3529
ydd	-3530
▁iP	-3531
▁Bet	-3532
▁knapp	-3533
▁konven	-3534
▁försäljning	-3535
åd	-3536
▁uts	-3537
▁söka	-3538
▁tving	-3539
▁vuxna	-3540
odligen	-3541
▁enbart	-3542
ager	-3543
grund	-3544
▁Fram	-3545
▁sla	-3546
▁träning	-3547
▁Am	-3548
▁pat	-3549
tiskt	-3550
▁spen	-3551
▁känslor	-3552
▁resurser	-3553
▁tänk	-3554
▁semester	-3555
▁snabbare	-3556
▁verkliga	-3557
lack	-3558
▁deb	-3559
▁ång	-3560
▁2011	-3561
▁Trots	-3562
▁övertyg	-3563
stäm	-3564
▁2019	-3565
▁leverantör	-3566
fl	-3567
ekta	-3568
▁Air	-3569
▁ret	-3570
punkt	-3571
▁borta	-3572
▁nedan	-3573
▁filmer	-3574
▁avseende	-3575
▁projektet	-3576
▁(2	-3577
▁bu	-3578
kohol	-3579
▁dagens	-3580
ökt	-3581
▁35	-3582
▁ör	-3583
▁Vet	-3584
▁inled	-3585
isering	-3586
spektiv	-3587
▁4.	-3588
ågan	-3589
▁växt	-3590
▁sitter	-3591
▁förhindra	-3592
atten	-3593
sidan	-3594
▁varor	-3595
▁ekonomi	-3596
▁förekom	-3597
medel	-3598
verkan	-3599
▁vapen	-3600
▁moderna	-3601
▁åtminstone	-3602
▁internationell	-3603
ynd	-3604
ustra	-3605
▁gruppen	-3606
▁asp	-3607
▁sjun	-3608
▁sång	-3609
ländska	-3610
▁utvecklas	-3611
ign	-3612
▁krist	-3613
rarna	-3614
▁stod	-3615
sioner	-3616
▁uppgift	-3617
▁Dr	-3618
▁drag	-3619
▁sätter	-3620
cel	-3621
▁tab	-3622
▁kärn	-3623
▁priva	-3624
▁Tre	-3625
▁hud	-3626
▁klin	-3627
▁block	-3628
▁detalj	-3629
▁jämfört	-3630
ix	-3631
dags	-3632
änderna	-3633
▁särskilda	-3634
▁omedelbart	-3635
▁Ab	-3636
▁föred	-3637
egående	-3638
ställningar	-3639
▁medlemsstat	-3640
ilje	-3641
▁häv	-3642
▁symb	-3643
▁författare	-3644
▁tåg	-3645
äster	-3646
▁starka	-3647
▁framtida	-3648
▁konstnär	-3649
▁Mal	-3650
▁känt	-3651
▁baserat	-3652
▁upplevelse	-3653
nars	-3654
▁siff	-3655
▁bilen	-3656
▁risken	-3657
▁nyligen	-3658
ocker	-3659
▁reak	-3660
▁Först	-3661
▁Frankrike	-3662
▁Cl	-3663
▁dit	-3664
▁2009	-3665
▁cook	-3666
▁uppm	-3667
▁växa	-3668
▁brukar	-3669
▁fotboll	-3670
ish	-3671
▁köper	-3672
▁växer	-3673
▁natten	-3674
▁patient	-3675
▁ak	-3676
mark	-3677
▁2008	-3678
▁gräns	-3679
▁distri	-3680
▁huvudsak	-3681
▁ständigt	-3682
▁produkten	-3683
ight	-3684
orld	-3685
usti	-3686
▁Spe	-3687
▁gett	-3688
▁certi	-3689
▁tanke	-3690
▁barnet	-3691
▁kyrkan	-3692
▁starkt	-3693
▁övriga	-3694
▁allmänna	-3695
▁hört	-3696
▁former	-3697
▁möjliga	-3698
▁nämligen	-3699
▁Br	-3700
▁uppman	-3701
▁problemet	-3702
stro	-3703
▁ent	-3704
▁kök	-3705
▁pan	-3706
▁värme	-3707
▁Herren	-3708
▁belopp	-3709
▁x	-3710
amer	-3711
likt	-3712
rala	-3713
▁kön	-3714
▁mät	-3715
▁attra	-3716
▁batter	-3717
▁resten	-3718
▁perspektiv	-3719
eck	-3720
▁band	-3721
▁idéer	-3722
▁kampan	-3723
sättningar	-3724
▁Cent	-3725
▁britt	-3726
▁metod	-3727
▁platsen	-3728
▁november	-3729
▁sjukdomar	-3730
▁instrument	-3731
▁resultatet	-3732
▁2,	-3733
edag	-3734
följ	-3735
▁Off	-3736
▁arg	-3737
tryck	-3738
▁april	-3739
ills	-3740
ocka	-3741
▁kop	-3742
känna	-3743
▁bilj	-3744
▁häls	-3745
▁köra	-3746
▁tjäna	-3747
▁proces	-3748
▁hjärtat	-3749
▁personlig	-3750
▁relationer	-3751
arm	-3752
ith	-3753
åda	-3754
▁Ho	-3755
▁es	-3756
rodu	-3757
▁Nej	-3758
▁värd	-3759
▁Någon	-3760
▁miljön	-3761
▁tänkte	-3762
▁strateg	-3763
▁intressant	-3764
▁Do	-3765
▁Hot	-3766
▁fakt	-3767
▁sommar	-3768
▁ställe	-3769
oni	-3770
▁On	-3771
▁Tw	-3772
▁besl	-3773
▁möte	-3774
gående	-3775
▁Arbet	-3776
▁hände	-3777
▁lanser	-3778
▁mannen	-3779
▁Gro	-3780
▁sym	-3781
▁antag	-3782
▁lagar	-3783
▁ordet	-3784
▁super	-3785
istiska	-3786
▁rätten	-3787
▁offentlig	-3788
▁gas	-3789
▁rut	-3790
▁sty	-3791
▁guld	-3792
▁juli	-3793
▁utmärkt	-3794
▁modeller	-3795
▁personen	-3796
▁handlingar	-3797
ya	-3798
▁stil	-3799
▁närma	-3800
▁objekt	-3801
▁sjukhus	-3802
▁70	-3803
▁Tim	-3804
▁erk	-3805
▁nord	-3806
▁hända	-3807
▁trygg	-3808
▁interv	-3809
▁kallar	-3810
▁temperatur	-3811
▁Tr	-3812
bygg	-3813
atsen	-3814
▁Trum	-3815
▁dest	-3816
unnit	-3817
▁smart	-3818
▁profil	-3819
▁frågade	-3820
omb	-3821
soft	-3822
öter	-3823
▁mun	-3824
▁Första	-3825
▁börjat	-3826
▁planet	-3827
han	-3828
betal	-3829
▁Paul	-3830
▁räck	-3831
▁Krist	-3832
▁rätta	-3833
▁förest	-3834
▁kompetens	-3835
ome	-3836
agnos	-3837
▁avanc	-3838
▁framåt	-3839
▁priser	-3840
▁kallade	-3841
▁fördelar	-3842
▁omfattar	-3843
▁statisti	-3844
▁naturliga	-3845
▁Ed	-3846
dens	-3847
maren	-3848
sering	-3849
old	-3850
▁Reg	-3851
▁ill	-3852
▁solen	-3853
▁Samtidigt	-3854
▁rekommenderar	-3855
lat	-3856
▁gäll	-3857
▁skog	-3858
▁passar	-3859
▁stödja	-3860
▁symbol	-3861
▁vinter	-3862
▁alkohol	-3863
▁lättare	-3864
anien	-3865
▁brist	-3866
▁prest	-3867
▁stanna	-3868
▁vattnet	-3869
ile	-3870
▁ses	-3871
▁yrk	-3872
▁mikro	-3873
▁svart	-3874
▁miljon	-3875
▁Fort	-3876
▁flytta	-3877
▁promen	-3878
▁starta	-3879
▁tydligt	-3880
its	-3881
▁Sn	-3882
▁Beh	-3883
▁Gre	-3884
▁kontin	-3885
▁pension	-3886
▁=	-3887
▁rän	-3888
frika	-3889
▁oför	-3890
▁läser	-3891
▁baserade	-3892
▁Microsoft	-3893
▁31	-3894
▁dog	-3895
▁hänsyn	-3896
▁vänster	-3897
oso	-3898
ump	-3899
▁pal	-3900
▁vinn	-3901
▁smärta	-3902
▁uppmunt	-3903
▁handling	-3904
▁betydande	-3905
▁Ko	-3906
▁önsk	-3907
▁beröm	-3908
▁nätet	-3909
▁serie	-3910
▁behandla	-3911
▁Kl	-3912
▁fåg	-3913
liote	-3914
släpp	-3915
▁vart	-3916
▁unika	-3917
▁unders	-3918
▁väntar	-3919
▁194	-3920
▁Mon	-3921
▁dep	-3922
▁mån	-3923
ungen	-3924
▁omöj	-3925
▁äger	-3926
erande	-3927
▁Apple	-3928
▁jurid	-3929
AR	-3930
▁Jap	-3931
endet	-3932
▁närmare	-3933
klare	-3934
▁pappa	-3935
▁oftast	-3936
▁träffa	-3937
▁kristna	-3938
▁konsekven	-3939
▁historiska	-3940
bert	-3941
▁kvali	-3942
▁yrkes	-3943
▁ävent	-3944
▁frihet	-3945
eda	-3946
sla	-3947
▁Hem	-3948
▁Mitt	-3949
entera	-3950
▁bostad	-3951
▁skador	-3952
▁kommersi	-3953
ira	-3954
sson	-3955
▁musli	-3956
delning	-3957
▁mening	-3958
▁papper	-3959
siva	-3960
▁fria	-3961
▁annon	-3962
▁dåligt	-3963
▁förfar	-3964
▁orsaka	-3965
bry	-3966
▁80	-3967
▁Sw	-3968
▁Paris	-3969
▁anmäl	-3970
▁målet	-3971
▁Skulle	-3972
▁arkite	-3973
▁fartyg	-3974
▁komplex	-3975
EB	-3976
▁90	-3977
▁Bu	-3978
▁195	-3979
▁Just	-3980
▁prov	-3981
▁flykt	-3982
▁massa	-3983
troende	-3984
▁kunnat	-3985
▁straff	-3986
▁faktorer	-3987
▁regering	-3988
▁kung	-3989
▁följd	-3990
kast	-3991
▁Bro	-3992
▁ökad	-3993
▁transa	-3994
▁koncent	-3995
▁ski	-3996
delsen	-3997
▁kines	-3998
▁ögonblick	-3999
▁relaterade	-4000
tic	-4001
▁dans	-4002
▁nytta	-4003
▁obser	-4004
▁spara	-4005
▁flygplats	-4006
▁situation	-4007
▁exempelvis	-4008
▁förståelse	-4009
amm	-4010
ora	-4011
▁sjö	-4012
oritet	-4013
▁uppleva	-4014
▁individu	-4015
▁historien	-4016
),	-4017
▁ök	-4018
▁ras	-4019
delar	-4020
▁bidrar	-4021
▁kompon	-4022
▁utföra	-4023
▁handels	-4024
▁samhälle	-4025
▁upptäcka	-4026
▁Ga	-4027
unch	-4028
▁trev	-4029
▁Produ	-4030
▁färger	-4031
▁privata	-4032
▁svarade	-4033
▁effekter	-4034
jöl	-4035
och	-4036
▁29	-4037
▁gla	-4038
▁gjor	-4039
bruari	-4040
▁jobba	-4041
▁leverans	-4042
IN	-4043
▁5.	-4044
▁kött	-4045
▁hastig	-4046
▁Mac	-4047
▁bro	-4048
▁lov	-4049
rådet	-4050
▁Mich	-4051
verket	-4052
▁främja	-4053
▁närings	-4054
▁beteende	-4055
▁digitala	-4056
▁förmodligen	-4057
▁naturligtvis	-4058
les	-4059
vand	-4060
▁nöjd	-4061
▁återv	-4062
▁befint	-4063
▁pratar	-4064
▁server	-4065
▁dej	-4066
anter	-4067
larna	-4068
▁tillverka	-4069
▁eventuella	-4070
IS	-4071
vån	-4072
▁bev	-4073
▁max	-4074
▁såväl	-4075
▁industrin	-4076
go	-4077
oga	-4078
rus	-4079
▁fett	-4080
▁muse	-4081
▁bonus	-4082
▁fjärde	-4083
▁omständ	-4084
▁sanningen	-4085
▁leverantörer	-4086
00-	-4087
▁Vän	-4088
▁roman	-4089
▁saknar	-4090
▁baserad	-4091
▁korrekt	-4092
▁rörelse	-4093
bo	-4094
▁Sl	-4095
▁Rom	-4096
▁läst	-4097
siktig	-4098
▁inträff	-4099
▁marknader	-4100
▁fantastisk	-4101
▁bön	-4102
▁drift	-4103
▁mekan	-4104
▁allmänhet	-4105
▁identifier	-4106
uer	-4107
▁förstås	-4108
▁genomföra	-4109
▁Im	-4110
▁Si	-4111
atan	-4112
göra	-4113
▁Pri	-4114
▁stund	-4115
venemang	-4116
▁militär	-4117
▁processer	-4118
nu	-4119
▁IT	-4120
▁Jer	-4121
▁arm	-4122
▁dubbel	-4123
▁faktum	-4124
▁bakgrund	-4125
▁Je	-4126
▁grå	-4127
▁Svar	-4128
▁förd	-4129
▁kill	-4130
▁misst	-4131
▁Vilket	-4132
▁roligt	-4133
▁föreskri	-4134
terad	-4135
▁Välj	-4136
▁tyst	-4137
▁värt	-4138
▁Program	-4139
▁avstånd	-4140
▁utrymme	-4141
▁International	-4142
▁ba	-4143
▁svara	-4144
▁värdet	-4145
▁nödvändiga	-4146
ES	-4147
yll	-4148
▁Mot	-4149
tning	-4150
ämpar	-4151
▁utred	-4152
▁Mycket	-4153
▁förlora	-4154
▁tillåter	-4155
likationer	-4156
▁Em	-4157
lare	-4158
llop	-4159
▁Ben	-4160
▁kaffe	-4161
▁instru	-4162
▁älskade	-4163
▁au	-4164
▁sim	-4165
▁hårt	-4166
▁åtta	-4167
▁World	-4168
▁samtliga	-4169
▁avgörande	-4170
own	-4171
▁Lär	-4172
▁ansi	-4173
▁järn	-4174
▁snar	-4175
▁etabl	-4176
▁listan	-4177
▁fysiska	-4178
▁marknadsföring	-4179
tad	-4180
▁Da	-4181
▁skola	-4182
▁dricka	-4183
▁skapat	-4184
▁medborgare	-4185
▁tillhandahålla	-4186
▁ir	-4187
▁nogg	-4188
derade	-4189
▁lyckas	-4190
▁Ac	-4191
▁Me	-4192
varo	-4193
våra	-4194
▁gre	-4195
liken	-4196
▁skor	-4197
▁koncer	-4198
▁perioden	-4199
▁ursprungliga	-4200
vas	-4201
cial	-4202
▁Gru	-4203
▁Stud	-4204
▁funder	-4205
▁reklam	-4206
▁diagnos	-4207
▁kommitt	-4208
formation	-4209
▁investeringar	-4210
til	-4211
örd	-4212
▁End	-4213
▁Und	-4214
bolag	-4215
▁album	-4216
▁Austra	-4217
minister	-4218
▁möjligheten	-4219
▁Ca	-4220
uvud	-4221
▁Vårt	-4222
▁recept	-4223
▁verket	-4224
ellertid	-4225
▁normalt	-4226
ban	-4227
▁läge	-4228
▁samtal	-4229
▁staten	-4230
▁totala	-4231
struktur	-4232
▁människan	-4233
▁ts	-4234
issa	-4235
ssel	-4236
▁lju	-4237
gande	-4238
▁....	-4239
▁utby	-4240
▁inten	-4241
▁äkten	-4242
▁misstag	-4243
▁automatiskt	-4244
▁grä	-4245
deles	-4246
▁sömn	-4247
upport	-4248
▁multi	-4249
frågan	-4250
▁bibliote	-4251
▁händelser	-4252
▁Ba	-4253
▁Net	-4254
hålls	-4255
▁hänt	-4256
▁kand	-4257
▁allra	-4258
▁dålig	-4259
▁intervju	-4260
▁ekonomisk	-4261
eds	-4262
▁ci	-4263
ativt	-4264
ringa	-4265
ression	-4266
▁enskilda	-4267
▁principer	-4268
▁verksamheten	-4269
▁informationen	-4270
garna	-4271
▁väst	-4272
▁svåra	-4273
▁relation	-4274
▁konferens	-4275
ida	-4276
▁Gr	-4277
▁Ri	-4278
▁it	-4279
▁Dig	-4280
rakta	-4281
▁akade	-4282
ötsligt	-4283
ligheter	-4284
▁befinner	-4285
▁behöriga	-4286
▁februari	-4287
tio	-4288
ult	-4289
otten	-4290
terat	-4291
▁brev	-4292
▁kurs	-4293
▁vinst	-4294
▁lägenhet	-4295
▁konkurrens	-4296
▁ordförande	-4297
▁Pen	-4298
▁Barn	-4299
▁sprid	-4300
▁önska	-4301
▁	-4302
e	-4303
a	-4304
r	-4305
t	-4306
n	-4307
i	-4308
s	-4309
l	-4310
d	-4311
o	-4312
m	-4313
g	-4314
k	-4315
v	-4316
ä	-4317
f	-4318
h	-4319
u	-4320
p	-4321
ö	-4322
å	-4323
.	-4324
c	-4325
b	-4326
j	-4327
,	-4328
y	-4329
D	-4330
S	-4331
0	-4332
M	-4333
A	-4334
-	-4335
V	-4336
1	-4337
E	-4338
H	-4339
F	-4340
I	-4341
T	-4342
2	-4343
B	-4344
x	-4345
?	-4346
J	-4347
P	-4348
N	-4349
O	-4350
:	-4351
K	-4352
"	-4353
C	-4354
)	-4355
G	-4356
L	-4357
R	-4358
(	-4359
”	-4360
!	-4361
U	-4362
w	-4363
5	-4364
3	-4365
9	-4366
4	-4367
6	-4368
8	-4369
7	-4370
–	-4371
W	-4372
/	-4373
z	-4374
Ä	-4375
;	-4376
é	-4377
]	-4378
[	-4379
Y	-4380
%	-4381
'	-4382
Ö	-4383
“	-4384
Å	-4385
&	-4386
X	-4387
’	-4388
Z	-4389
Q	-4390
*	-4391
q	-4392
»	-4393
+	-4394
•	-4395
>	-4396
$	-4397
—	-4398
#	-4399
­	-4400
=	-4401
_	-4402
‘	-4403
<	-4404
®	-4405
Ã	-4406
«	-4407
🙂	-4408
ü	-4409
|	-4410
→	-4411
@	-4412
á	-4413
́	-4414
^	-4415
§	-4416
€	-4417
¤	-4418
·	-4419
←	-4420
°	-4421
â	-4422
Г	-4423
ó	-4424
í	-4425
ø	-4426
£	-4427
¥	-4428
è	-4429
‐	-4430
	-4431
~	-4432
›	-4433
{	-4434
}	-4435
♥	-4436
¶	-4437
❤	-4438
\	-4439
●	-4440
😉	-4441
`	-4442
ç	-4443
ñ	-4444
à	-4445
−	-4446
ô	-4447
′	-4448
️	-4449
😀	-4450
š	-4451
■	-4452
©	-4453
ā	-4454
æ	-4455
×	-4456
	-4457
ú	-4458
▌	-4459
É	-4460
ã	-4461
⁄	-4462
ë	-4463
ć	-4464
α	-4465
Â	-4466
„	-4467
û	-4468
±	-4469
Ü	-4470
î	-4471
č	-4472
▸	-4473
✓	-4474
😊	-4475
ï	-4476
ð	-4477
ل	-4478
μ	-4479
►	-4480
≥	-4481
א	-4482
ş	-4483
Ø	-4484
ˮ	-4485
̈	-4486
‹	-4487
	-4488
👍	-4489
😍	-4490
ž	-4491
	-4492
ğ	-4493
ł	-4494
β	-4495
و	-4496
ß	-4497
Š	-4498
ي	-4499
ı	-4500
😛	-4501
	-4502
Ó	-4503
ĺ	-4504
ń	-4505
ō	-4506
ا	-4507
م	-4508
ه	-4509
‒	-4510
☺	-4511
♡	-4512
🏼	-4513
¬	-4514
Á	-4515
Î	-4516
õ	-4517
ʹ	-4518
ι	-4519
ạ	-4520
↑	-4521
✔	-4522
🏻	-4523
🙁	-4524
	-4525
ê	-4526
ę	-4527
γ	-4528
θ	-4529
ν	-4530
س	-4531
ع	-4532
ن	-4533
¿	-4534
Ă	-4535
Č	-4536
ī	-4537
œ	-4538
ƒ	-4539
ə	-4540
ς	-4541
σ	-4542
‭	-4543
◄	-4544
★	-4545
民	-4546
	-4547
😂	-4548
😄	-4549
🙏	-4550
	-4551
Æ	-4552
Ç	-4553
Õ	-4554
ū	-4555
ε	-4556
ο	-4557
ρ	-4558
а	-4559
ṛ	-4560
‚	-4561
▶	-4562
◆	-4563
国	-4564
	-4565
	-4566
😃	-4567
😅	-4568
😘	-4569
🤣	-4570
	-4571
Í	-4572
ò	-4573
ù	-4574
ý	-4575
ő	-4576
Ş	-4577
ţ	-4578
Ž	-4579
ǧ	-4580
ʼ	-4581
ί	-4582
δ	-4583
λ	-4584
π	-4585
й	-4586
ص	-4587
ṇ	-4588
ṣ	-4589
†	-4590
‬	-4591
▪	-4592
○	-4593
◾	-4594
☝	-4595
⭐	-4596
中	-4597
國	-4598
	-4599
	-4600
	-4601
👏	-4602
💕	-4603
💙	-4604
💚	-4605
💜	-4606
¡	-4607
¢	-4608
ì	-4609
þ	-4610
ă	-4611
ą	-4612
đ	-4613
ē	-4614
ė	-4615
Δ	-4616
ά	-4617
τ	-4618
φ	-4619
ω	-4620
К	-4621
е	-4622
и	-4623
р	-4624
ӓ	-4625
د	-4626
ر	-4627
ى	-4628
ḥ	-4629
ẹ	-4630
ἀ	-4631
≤	-4632
◊	-4633
♣	-4634
❑	-4635
❓	-4636
・	-4637
命	-4638
超	-4639
軍	-4640
革	-4641
︎	-4642
💤	-4643
😇	-4644
😢	-4645
😦	-4646
Þ	-4647
ÿ	-4648
Đ	-4649
Ś	-4650
ś	-4651
ż	-4652
ơ	-4653
ư	-4654
ǔ	-4655
ș	-4656
ɑ	-4657
ɛ	-4658
̃	-4659
̊	-4660
Α	-4661
Β	-4662
Σ	-4663
Ω	-4664
ή	-4665
κ	-4666
χ	-4667
ό	-4668
Д	-4669
О	-4670
д	-4671
ј	-4672
Ґ	-4673
ت	-4674
ج	-4675
ح	-4676
ก	-4677
ร	-4678
უ	-4679
ọ	-4680
‍	-4681
―	-4682
‡	-4683
↵	-4684
∙	-4685
√	-4686
≈	-4687
□	-4688
◦	-4689
☆	-4690
♪	-4691
⚘	-4692
✅	-4693
✎	-4694
✰	-4695
❥	-4696
コ	-4697
ン	-4698
万	-4699
主	-4700
人	-4701
会	-4702
团	-4703
岁	-4704
球	-4705
联	-4706
赛	-4707
足	-4708
눉	-4709
	-4710
	-4711
	-4712
	-4713
	-4714
	-4715
	-4716
	-4717
	-4718
💖	-4719
😋	-4720
😎	-4721
😕	-4722
😜	-4723
😝	-4724
😬	-4725
🙈	-4726
🙌	-4727
🤔	-4728
🤗	-4729
🤯	-4730
	-4731
	-4732
	-4733
À	-4734
Ë	-4735
Ð	-4736
Ñ	-4737
Ò	-4738
Ú	-4739
Ý	-4740
÷	-4741
Ā	-4742
ě	-4743
ħ	-4744
İ	-4745
ķ	-4746
Ł	-4747
ų	-4748
Ż	-4749
ǎ	-4750
ǒ	-4751
ɒ	-4752
ɡ	-4753
ɣ	-4754
ɸ	-4755
ˆ	-4756
ˈ	-4757
ˌ	-4758
ː	-4759
̂	-4760
̶	-4761
Γ	-4762
Ε	-4763
Θ	-4764
Μ	-4765
Π	-4766
Φ	-4767
η	-4768
ύ	-4769
А	-4770
Б	-4771
В	-4772
Е	-4773
И	-4774
Н	-4775
П	-4776
С	-4777
Т	-4778
Э	-4779
Я	-4780
в	-4781
г	-4782
л	-4783
м	-4784
н	-4785
о	-4786
с	-4787
т	-4788
ц	-4789
ы	-4790
ӧ	-4791
ד	-4792
צ	-4793
ة	-4794
ث	-4795
ك	-4796
ڤ	-4797
ނ	-4798
ތ	-4799
ަ	-4800
ާ	-4801
ข	-4802
ต	-4803
ธ	-4804
น	-4805
ย	-4806
ส	-4807
ะ	-4808
ั	-4809
ิ	-4810
ี	-4811
ุ	-4812
เ	-4813
ი	-4814
რ	-4815
ც	-4816
ხ	-4817
Ḥ	-4818
ḳ	-4819
ṅ	-4820
Ṣ	-4821
Ṭ	-4822
ṭ	-4823
ả	-4824
ầ	-4825
ễ	-4826
ệ	-4827
ỉ	-4828
ị	-4829
ờ	-4830
ủ	-4831
ἐ	-4832
‣	-4833
※	-4834
⁃	-4835
₤	-4836
↓	-4837
↩	-4838
⇑	-4839
⇒	-4840
⇨	-4841
∈	-4842
∑	-4843
∞	-4844
⋅	-4845
▲	-4846
▷	-4847
▼	-4848
▽	-4849
▾	-4850
☐	-4851
☒	-4852
☕	-4853
☟	-4854
☭	-4855
♦	-4856
♧	-4857
♫	-4858
✌	-4859
✗	-4860
➜	-4861
➥	-4862
⟵	-4863
⟶	-4864
⦁	-4865
オ	-4866
ニ	-4867
ビ	-4868
リ	-4869
世	-4870
五	-4871
光	-4872
公	-4873
共	-4874
军	-4875
华	-4876
协	-4877
協	-4878
台	-4879
司	-4880
和	-4881
大	-4882
山	-4883
式	-4884
春	-4885
會	-4886
月	-4887
有	-4888
株	-4889
楚	-4890
江	-4891
海	-4892
湾	-4893
灣	-4894
狂	-4895
珞	-4896
界	-4897
社	-4898
秋	-4899
空	-4900
箇	-4901
級	-4902
级	-4903
结	-4904
聯	-4905
臺	-4906
航	-4907
言	-4908
賽	-4909
鈥	-4910
锦	-4911
镜	-4912
际	-4913
限	-4914
集	-4915
낍	-4916
책	-4917
	-4918
	-4919
	-4920
	-4921
	-4922
	-4923
	-4924
	-4925
	-4926
	-4927
	-4928
	-4929
	-4930
	-4931
	-4932
	-4933
	-4934
	-4935
	-4936
	-4937
	-4938
	-4939
	-4940
	-4941
￼	-4942
🇨	-4943
🌞	-4944
🌷	-4945
🌸	-4946
🍀	-4947
🍦	-4948
🍰	-4949
🍳	-4950
🍴	-4951
🎁	-4952
🎈	-4953
🎉	-4954
🎨	-4955
🎶	-4956
🎼	-4957
🏆	-4958
🏽	-4959
🐞	-4960
🐲	-4961
🐴	-4962
🐾	-4963
👁	-4964
👇	-4965
👌	-4966
💔	-4967
💥	-4968
💪	-4969
💰	-4970
📌	-4971
📚	-4972
📷	-4973
🔸	-4974
🖤	-4975
🗞	-4976
😁	-4977
😆	-4978
😔	-4979
😖	-4980
😞	-4981
😠	-4982
😫	-4983
😭	-4984
😳	-4985
😶	-4986
🙆	-4987
🙉	-4988
🤙	-4989
🤛	-4990
🤩	-4991
🥂	-4992
🥇	-4993
🦋	-4994
🦌	-4995
🧡	-4996
