<unk>	0
<s>	0
</s>	0
er	-0
en	-1
▁s	-2
ar	-3
▁a	-4
in	-5
▁d	-6
et	-7
▁f	-8
an	-9
ll	-10
▁o	-11
▁m	-12
tt	-13
ör	-14
ti	-15
▁v	-16
är	-17
▁h	-18
▁k	-19
om	-20
▁b	-21
▁p	-22
st	-23
ch	-24
ig	-25
▁för	-26
on	-27
▁och	-28
▁att	-29
or	-30
de	-31
▁en	-32
▁i	-33
na	-34
ing	-35
ka	-36
än	-37
▁l	-38
▁t	-39
ra	-40
▁in	-41
ed	-42
▁är	-43
▁g	-44
▁.	-45
ag	-46
▁u	-47
▁ti	-48
▁n	-49
▁av	-50
▁som	-51
el	-52
is	-53
ta	-54
▁r	-55
▁D	-56
▁,	-57
▁till	-58
ter	-59
▁det	-60
te	-61
▁e	-62
ck	-63
▁på	-64
es	-65
▁med	-66
lig	-67
pp	-68
ning	-69
nd	-70
▁vi	-71
ro	-72
▁S	-73
▁de	-74
ån	-75
am	-76
as	-77
▁den	-78
▁st	-79
al	-80
▁var	-81
▁j	-82
ver	-83
▁om	-84
år	-85
kt	-86
▁inte	-87
▁har	-88
at	-89
tion	-90
▁M	-91
▁an	-92
il	-93
ett	-94
ller	-95
em	-96
and	-97
▁ut	-98
ri	-99
äl	-100
▁V	-101
▁du	-102
der	-103
▁H	-104
ätt	-105
li	-106
re	-107
▁A	-108
▁kan	-109
da	-110
▁ett	-111
lla	-112
ur	-113
▁F	-114
▁fr	-115
ande	-116
▁sk	-117
åg	-118
ade	-119
are	-120
▁kom	-121
it	-122
▁E	-123
het	-124
ad	-125
sk	-126
▁ö	-127
un	-128
▁Det	-129
ol	-130
▁jag	-131
▁be	-132
▁I	-133
▁T	-134
mer	-135
▁J	-136
den	-137
▁upp	-138
▁1	-139
▁B	-140
sta	-141
äg	-142
ska	-143
ot	-144
ång	-145
▁eller	-146
▁P	-147
▁ska	-148
sa	-149
▁pro	-150
▁så	-151
▁N	-152
ma	-153
si	-154
▁O	-155
▁K	-156
▁2	-157
för	-158
▁från	-159
änd	-160
ek	-161
▁sp	-162
▁(	-163
itt	-164
▁-	-165
ru	-166
ort	-167
ent	-168
▁?	-169
äm	-170
▁G	-171
▁"	-172
ut	-173
▁L	-174
nder	-175
ker	-176
inn	-177
▁ar	-178
▁C	-179
ser	-180
▁li	-181
la	-182
▁någ	-183
▁er	-184
fter	-185
▁sam	-186
▁över	-187
us	-188
▁”	-189
▁kommer	-190
yck	-191
va	-192
▁kon	-193
kti	-194
ud	-195
ligt	-196
isk	-197
▁han	-198
▁min	-199
▁R	-200
▁när	-201
▁Jag	-202
ara	-203
▁all	-204
▁gör	-205
äll	-206
era	-207
▁re	-208
änn	-209
liga	-210
og	-211
ram	-212
um	-213
ss	-214
jäl	-215
ff	-216
ul	-217
ster	-218
▁tr	-219
▁:	-220
var	-221
ell	-222
▁din	-223
▁man	-224
▁sig	-225
le	-226
▁å	-227
äng	-228
▁vara	-229
ste	-230
▁anv	-231
▁under	-232
▁Vi	-233
bet	-234
▁c	-235
ven	-236
▁na	-237
00	-238
iska	-239
gi	-240
▁sin	-241
▁dig	-242
▁må	-243
▁år	-244
▁beh	-245
ull	-246
▁U	-247
del	-248
ens	-249
▁and	-250
je	-251
▁men	-252
ess	-253
▁per	-254
ans	-255
så	-256
▁fa	-257
▁gen	-258
yg	-259
▁!	-260
▁vär	-261
ve	-262
bb	-263
ik	-264
▁här	-265
ft	-266
▁hel	-267
▁ny	-268
▁)	-269
▁ver	-270
▁där	-271
▁För	-272
▁alla	-273
pa	-274
inns	-275
dig	-276
▁efter	-277
ga	-278
▁or	-279
▁ha	-280
▁fl	-281
tal	-282
ju	-283
ne	-284
od	-285
▁ock	-286
ger	-287
▁bli	-288
art	-289
son	-290
se	-291
▁del	-292
▁också	-293
▁vill	-294
▁Den	-295
arna	-296
ic	-297
att	-298
▁finns	-299
du	-300
▁andra	-301
rä	-302
▁se	-303
ak	-304
▁sl	-305
ok	-306
▁sy	-307
▁vis	-308
sl	-309
▁än	-310
id	-311
▁En	-312
▁dag	-313
▁ex	-314
▁mig	-315
ycket	-316
▁mer	-317
..	-318
ling	-319
ats	-320
ill	-321
öd	-322
sam	-323
öj	-324
▁ä	-325
▁–	-326
▁genom	-327
▁In	-328
▁ing	-329
ilj	-330
▁detta	-331
▁dem	-332
▁bör	-333
os	-334
▁hon	-335
ord	-336
▁De	-337
▁bara	-338
ci	-339
itet	-340
▁fram	-341
edan	-342
per	-343
▁mycket	-344
▁pl	-345
▁3	-346
▁ta	-347
ningar	-348
▁arbet	-349
vå	-350
▁verk	-351
ligen	-352
land	-353
▁po	-354
▁väl	-355
▁vid	-356
▁W	-357
und	-358
▁vad	-359
ånga	-360
▁kun	-361
▁20	-362
ark	-363
▁mot	-364
▁få	-365
terna	-366
▁vil	-367
tioner	-368
ningen	-369
ja	-370
for	-371
▁ka	-372
tiv	-373
▁kl	-374
▁spel	-375
▁göra	-376
▁pr	-377
hå	-378
rå	-379
▁Men	-380
▁någon	-381
▁person	-382
▁ber	-383
▁res	-384
kl	-385
▁des	-386
ist	-387
▁bes	-388
▁hur	-389
gen	-390
▁rätt	-391
änder	-392
▁själ	-393
▁bet	-394
ulle	-395
heter	-396
ella	-397
est	-398
▁for	-399
▁...	-400
cka	-401
ld	-402
▁sta	-403
vis	-404
ök	-405
lem	-406
▁Om	-407
▁denna	-408
▁sätt	-409
▁oss	-410
opp	-411
sp	-412
ring	-413
eras	-414
▁Du	-415
▁vår	-416
▁ni	-417
▁hö	-418
▁använd	-419
▁kv	-420
▁liv	-421
▁säg	-422
▁nu	-423
ni	-424
▁gru	-425
▁bar	-426
▁skulle	-427
yr	-428
▁stor	-429
▁männ	-430
▁allt	-431
▁produ	-432
äk	-433
nan	-434
ant	-435
▁behö	-436
nad	-437
▁förs	-438
rig	-439
▁bil	-440
ier	-441
ende	-442
sion	-443
▁vet	-444
öl	-445
stå	-446
skap	-447
▁le	-448
ock	-449
▁även	-450
men	-451
ken	-452
yd	-453
▁tid	-454
▁måste	-455
▁många	-456
▁Och	-457
▁får	-458
▁br	-459
ts	-460
ktig	-461
▁hade	-462
etag	-463
▁5	-464
som	-465
▁hjäl	-466
▁utan	-467
tid	-468
ber	-469
▁St	-470
▁då	-471
▁något	-472
kel	-473
▁människ	-474
▁ser	-475
sätt	-476
öm	-477
nings	-478
▁barn	-479
ce	-480
▁bra	-481
▁19	-482
ket	-483
ställ	-484
▁bl	-485
äst	-486
▁sä	-487
▁4	-488
▁första	-489
veck	-490
▁gång	-491
▁201	-492
▁inne	-493
▁dessa	-494
pl	-495
ön	-496
▁vå	-497
▁mo	-498
dag	-499
rar	-500
ända	-501
sti	-502
▁ra	-503
▁hå	-504
▁Ä	-505
ost	-506
ala	-507
▁möj	-508
lighet	-509
▁w	-510
aren	-511
▁ma	-512
ick	-513
▁inom	-514
▁di	-515
ästa	-516
oll	-517
lika	-518
▁två	-519
ass	-520
▁komm	-521
▁hand	-522
▁ju	-523
▁utveck	-524
▁själv	-525
ation	-526
uro	-527
▁sina	-528
else	-529
▁fort	-530
▁fråg	-531
vs	-532
▁led	-533
▁hem	-534
▁företag	-535
▁kont	-536
▁of	-537
▁lag	-538
▁människor	-539
▁Han	-540
▁hög	-541
ellan	-542
stem	-543
▁åt	-544
op	-545
▁Detta	-546
▁När	-547
vi	-548
ering	-549
jän	-550
bil	-551
äd	-552
lden	-553
▁int	-554
man	-555
nat	-556
▁ty	-557
nar	-558
vär	-559
håll	-560
di	-561
▁säker	-562
▁te	-563
▁Hur	-564
digt	-565
åt	-566
▁sm	-567
iga	-568
des	-569
▁nya	-570
▁sa	-571
▁milj	-572
im	-573
vet	-574
tat	-575
ölj	-576
▁fun	-577
verk	-578
▁Vad	-579
▁mellan	-580
▁Var	-581
ia	-582
▁ditt	-583
▁vä	-584
sen	-585
▁världen	-586
▁börj	-587
det	-588
erna	-589
▁lö	-590
▁behöver	-591
mation	-592
ytt	-593
▁gj	-594
▁våra	-595
▁olika	-596
▁gå	-597
▁läng	-598
lev	-599
ack	-600
ägg	-601
ir	-602
mar	-603
▁åter	-604
▁hela	-605
jär	-606
▁infor	-607
ott	-608
▁stör	-609
ele	-610
▁sitt	-611
▁fin	-612
▁säger	-613
lar	-614
▁dina	-615
he	-616
▁sedan	-617
ygg	-618
▁kän	-619
▁gl	-620
▁grund	-621
tera	-622
▁några	-623
▁deras	-624
▁förb	-625
pel	-626
gång	-627
▁varje	-628
ran	-629
all	-630
erade	-631
▁An	-632
▁mark	-633
ära	-634
kter	-635
rän	-636
fatt	-637
ov	-638
gram	-639
org	-640
▁ig	-641
▁blir	-642
ktion	-643
ub	-644
edel	-645
andet	-646
▁6	-647
tur	-648
ry	-649
▁enda	-650
▁tjän	-651
▁information	-652
ob	-653
▁väg	-654
ress	-655
▁par	-656
▁skall	-657
▁skri	-658
▁sv	-659
▁sen	-660
skt	-661
▁proc	-662
▁slut	-663
▁honom	-664
ika	-665
▁hitt	-666
▁Gud	-667
▁200	-668
▁äl	-669
kar	-670
▁kö	-671
net	-672
▁samma	-673
▁går	-674
änner	-675
gan	-676
pe	-677
▁alltid	-678
ann	-679
▁ans	-680
ien	-681
▁vän	-682
▁tro	-683
heten	-684
▁fy	-685
▁fil	-686
usi	-687
▁/	-688
▁läg	-689
anska	-690
enter	-691
▁änd	-692
▁bå	-693
▁al	-694
▁Så	-695
ets	-696
▁7	-697
ktigt	-698
kon	-699
min	-700
▁spe	-701
nas	-702
kom	-703
▁hans	-704
▁hen	-705
▁Att	-706
▁helt	-707
juk	-708
▁ur	-709
▁lä	-710
alt	-711
sy	-712
▁ch	-713
igt	-714
▁beg	-715
▁ly	-716
▁ger	-717
▁;	-718
▁ingen	-719
▁kra	-720
ske	-721
ati	-722
▁Euro	-723
dan	-724
▁ge	-725
▁dess	-726
olk	-727
par	-728
blem	-729
fr	-730
dom	-731
nader	-732
▁läm	-733
▁reg	-734
▁samt	-735
▁varit	-736
▁områ	-737
äller	-738
▁lång	-739
▁vilket	-740
▁so	-741
▁pen	-742
skar	-743
gar	-744
▁följ	-745
res	-746
far	-747
ba	-748
▁Med	-749
▁we	-750
▁system	-751
erar	-752
▁plan	-753
▁akti	-754
ättre	-755
▁kunna	-756
▁8	-757
▁tre	-758
ind	-759
▁eg	-760
skil	-761
str	-762
▁använda	-763
utom	-764
orde	-765
▁ri	-766
▁mitt	-767
▁[	-768
ang	-769
älla	-770
▁si	-771
▁tän	-772
▁hu	-773
ke	-774
▁tek	-775
ingar	-776
▁arti	-777
▁bästa	-778
ellt	-779
▁eff	-780
▁gra	-781
▁ord	-782
ie	-783
▁mål	-784
▁erb	-785
tta	-786
ina	-787
▁Har	-788
▁fall	-789
▁först	-790
kten	-791
▁bättre	-792
ow	-793
▁).	-794
▁behand	-795
▁best	-796
pt	-797
▁fri	-798
▁annan	-799
▁lever	-800
eg	-801
▁et	-802
▁program	-803
ät	-804
▁9	-805
▁speci	-806
ly	-807
ldrig	-808
gifter	-809
▁van	-810
▁organ	-811
▁fär	-812
▁igen	-813
▁val	-814
▁webb	-815
empel	-816
ål	-817
▁problem	-818
sten	-819
äck	-820
▁annat	-821
erad	-822
nen	-823
ine	-824
▁tar	-825
▁medlem	-826
▁lite	-827
rum	-828
▁mest	-829
rag	-830
▁10	-831
xt	-832
▁dom	-833
▁un	-834
dre	-835
unt	-836
▁aldrig	-837
▁Sk	-838
kta	-839
▁sna	-840
▁hos	-841
▁ve	-842
bar	-843
▁vin	-844
▁svar	-845
▁rel	-846
lek	-847
▁förl	-848
talet	-849
ast	-850
ppen	-851
istor	-852
uta	-853
▁komma	-854
▁uni	-855
lut	-856
▁tekn	-857
igheter	-858
ator	-859
▁on	-860
▁mat	-861
vud	-862
ung	-863
▁lig	-864
▁Ch	-865
jekt	-866
gör	-867
▁egen	-868
▁komp	-869
teg	-870
▁stora	-871
liti	-872
naden	-873
met	-874
arbet	-875
▁flera	-876
vänd	-877
▁kvinn	-878
anden	-879
▁Kan	-880
▁jo	-881
▁eftersom	-882
▁bort	-883
▁mis	-884
olog	-885
iskt	-886
ktiga	-887
▁snabb	-888
▁lo	-889
▁met	-890
ata	-891
tionella	-892
oner	-893
▁rå	-894
▁blev	-895
jer	-896
ug	-897
▁US	-898
▁bok	-899
baka	-900
ef	-901
▁Ett	-902
▁På	-903
▁hän	-904
ingen	-905
▁plats	-906
▁fam	-907
▁off	-908
anta	-909
▁kr	-910
▁sjuk	-911
sm	-912
tig	-913
▁Hon	-914
▁häl	-915
▁exempel	-916
ner	-917
▁lär	-918
▁ner	-919
▁vatt	-920
under	-921
▁form	-922
▁ofta	-923
▁full	-924
▁kro	-925
öka	-926
▁förv	-927
ard	-928
▁enligt	-929
▁sn	-930
mans	-931
▁krä	-932
▁utveckling	-933
▁Pro	-934
▁tror	-935
ings	-936
▁dire	-937
▁innan	-938
ote	-939
eller	-940
▁Y	-941
▁verkligen	-942
▁män	-943
▁nam	-944
▁Alla	-945
▁land	-946
▁Re	-947
▁tidig	-948
▁tillbaka	-949
▁hör	-950
▁mö	-951
▁regi	-952
nes	-953
ektiv	-954
▁pra	-955
▁hjär	-956
▁forsk	-957
▁gäller	-958
tiva	-959
ler	-960
ab	-961
stånd	-962
▁natur	-963
▁stöd	-964
▁my	-965
tionen	-966
ärskil	-967
▁ställ	-968
kor	-969
▁kontro	-970
▁histor	-971
▁föränd	-972
▁Man	-973
tag	-974
▁Är	-975
farande	-976
▁bland	-977
▁fick	-978
▁berätt	-979
▁“	-980
▁tal	-981
ultat	-982
▁Till	-983
▁tra	-984
▁dri	-985
▁lå	-986
tar	-987
000	-988
ap	-989
▁Som	-990
ust	-991
ades	-992
konom	-993
atser	-994
▁saker	-995
▁hjälp	-996
▁Där	-997
▁huvud	-998
▁god	-999
elser	-1000
orna	-1001
jud	-1002
▁pre	-1003
▁kär	-1004
▁skyd	-1005
io	-1006
ren	-1007
ib	-1008
ktor	-1009
vit	-1010
▁Ne	-1011
onen	-1012
▁rör	-1013
▁pris	-1014
sammans	-1015
▁All	-1016
▁kanske	-1017
▁politi	-1018
led	-1019
kri	-1020
hets	-1021
▁förm	-1022
▁tv	-1023
▁organis	-1024
▁kunde	-1025
▁hus	-1026
▁sak	-1027
▁bef	-1028
▁em	-1029
▁ekonom	-1030
▁und	-1031
▁bygg	-1032
▁sådan	-1033
▁produkter	-1034
▁y	-1035
hand	-1036
av	-1037
▁red	-1038
▁kost	-1039
▁både	-1040
▁tag	-1041
▁Ö	-1042
▁trä	-1043
▁EU	-1044
▁använder	-1045
▁artikel	-1046
▁särskil	-1047
lägg	-1048
▁Fr	-1049
räck	-1050
▁data	-1051
▁lik	-1052
▁öpp	-1053
▁familj	-1054
lic	-1055
älj	-1056
yl	-1057
▁Kom	-1058
▁jobb	-1059
▁lätt	-1060
▁håll	-1061
erat	-1062
▁personer	-1063
▁rek	-1064
▁fle	-1065
öker	-1066
▁Ar	-1067
▁gam	-1068
nade	-1069
▁ens	-1070
rid	-1071
▁erbju	-1072
kade	-1073
▁bek	-1074
plats	-1075
▁bas	-1076
▁tiden	-1077
▁mina	-1078
▁äg	-1079
▁USA	-1080
▁Å	-1081
▁säga	-1082
▁Här	-1083
▁redan	-1084
▁gjort	-1085
tet	-1086
▁pla	-1087
tu	-1088
amp	-1089
▁lös	-1090
alitet	-1091
▁Efter	-1092
▁im	-1093
▁el	-1094
ycker	-1095
årt	-1096
▁Ma	-1097
▁dock	-1098
▁gi	-1099
▁idag	-1100
▁bo	-1101
▁Nu	-1102
▁Jo	-1103
rätt	-1104
▁mindre	-1105
ten	-1106
▁dö	-1107
▁fortfarande	-1108
las	-1109
▁interna	-1110
▁ob	-1111
▁tidigare	-1112
▁kor	-1113
teri	-1114
mär	-1115
ras	-1116
aste	-1117
▁tillsammans	-1118
▁soci	-1119
▁pres	-1120
▁enkel	-1121
▁Se	-1122
▁Varför	-1123
▁vissa	-1124
upp	-1125
▁endast	-1126
tan	-1127
nads	-1128
▁kons	-1129
▁ligger	-1130
▁vatten	-1131
enskap	-1132
äs	-1133
▁väldigt	-1134
rist	-1135
▁kul	-1136
▁förstå	-1137
▁fel	-1138
▁Denna	-1139
▁stud	-1140
▁verksam	-1141
▁kort	-1142
▁dr	-1143
▁sid	-1144
▁”.	-1145
▁procent	-1146
▁kli	-1147
▁sti	-1148
ym	-1149
▁inf	-1150
▁läk	-1151
▁inkl	-1152
orm	-1153
vers	-1154
räns	-1155
ret	-1156
rott	-1157
▁rö	-1158
▁kall	-1159
▁bak	-1160
▁ansvar	-1161
▁tjänster	-1162
bild	-1163
▁to	-1164
▁fast	-1165
ion	-1166
▁folk	-1167
äv	-1168
▁hjälpa	-1169
▁bestäm	-1170
▁ytt	-1171
▁resultat	-1172
fi	-1173
▁väx	-1174
▁pengar	-1175
▁flyg	-1176
häll	-1177
▁inneb	-1178
▁värld	-1179
▁inter	-1180
gär	-1181
▁pri	-1182
▁fortsätt	-1183
▁tim	-1184
▁möjligt	-1185
▁ad	-1186
ergi	-1187
▁längre	-1188
▁18	-1189
▁ele	-1190
jur	-1191
▁15	-1192
gäng	-1193
tro	-1194
▁Des	-1195
▁före	-1196
▁styr	-1197
▁största	-1198
ekt	-1199
▁Under	-1200
ay	-1201
▁beslut	-1202
▁projekt	-1203
▁sex	-1204
▁fot	-1205
▁stu	-1206
tiska	-1207
män	-1208
▁dagar	-1209
▁känner	-1210
▁fem	-1211
äder	-1212
uter	-1213
▁fler	-1214
▁därför	-1215
▁typ	-1216
amma	-1217
olag	-1218
▁kvinnor	-1219
▁länder	-1220
▁främ	-1221
▁intress	-1222
▁ro	-1223
▁grupp	-1224
ämp	-1225
▁vårt	-1226
▁dra	-1227
▁bety	-1228
klar	-1229
▁The	-1230
▁ne	-1231
varande	-1232
▁skol	-1233
▁stra	-1234
▁konst	-1235
▁behandling	-1236
cis	-1237
me	-1238
▁nät	-1239
▁jäm	-1240
▁förbätt	-1241
▁skapa	-1242
▁namn	-1243
▁arbete	-1244
so	-1245
▁Vil	-1246
▁utt	-1247
▁Mar	-1248
▁veck	-1249
föra	-1250
bart	-1251
ha	-1252
▁används	-1253
▁henne	-1254
ationer	-1255
▁samhäll	-1256
van	-1257
▁räd	-1258
håller	-1259
▁rum	-1260
ligare	-1261
▁".	-1262
▁död	-1263
▁Europa	-1264
▁12	-1265
▁op	-1266
ige	-1267
▁rapp	-1268
ktioner	-1269
ori	-1270
vent	-1271
▁aktiv	-1272
▁visar	-1273
▁bor	-1274
▁nära	-1275
lam	-1276
ästan	-1277
▁cent	-1278
▁lika	-1279
▁orsa	-1280
▁viktigt	-1281
▁nog	-1282
▁star	-1283
▁nivå	-1284
▁flesta	-1285
▁miljö	-1286
▁energi	-1287
från	-1288
▁tillgäng	-1289
▁ung	-1290
▁öka	-1291
▁hund	-1292
▁runt	-1293
▁gjorde	-1294
▁kommun	-1295
▁mas	-1296
dera	-1297
dar	-1298
▁Be	-1299
▁gem	-1300
▁hitta	-1301
▁syn	-1302
▁'	-1303
bland	-1304
▁kvar	-1305
▁prof	-1306
▁åtgär	-1307
▁Sver	-1308
▁större	-1309
▁avs	-1310
▁konta	-1311
line	-1312
▁betal	-1313
▁bel	-1314
iv	-1315
▁fråga	-1316
äpp	-1317
port	-1318
orter	-1319
▁ter	-1320
▁skap	-1321
▁allmän	-1322
▁själva	-1323
▁by	-1324
fin	-1325
ännu	-1326
▁000	-1327
▁Ut	-1328
▁ännu	-1329
merik	-1330
gel	-1331
▁ög	-1332
cer	-1333
red	-1334
▁bed	-1335
▁börjar	-1336
▁pa	-1337
ister	-1338
▁händer	-1339
▁ned	-1340
▁ih	-1341
ds	-1342
▁hopp	-1343
▁hålla	-1344
▁samarbet	-1345
▁direkt	-1346
▁varför	-1347
pi	-1348
one	-1349
▁ön	-1350
▁aff	-1351
ice	-1352
ission	-1353
hör	-1354
▁kunder	-1355
▁vilken	-1356
sättning	-1357
▁innebär	-1358
ook	-1359
▁hennes	-1360
▁omfatt	-1361
slag	-1362
▁tred	-1363
▁ol	-1364
▁senaste	-1365
tra	-1366
▁fru	-1367
ften	-1368
▁inve	-1369
▁part	-1370
ktiskt	-1371
▁Dessa	-1372
akt	-1373
▁Kon	-1374
▁mar	-1375
▁str	-1376
▁viktiga	-1377
▁ban	-1378
andel	-1379
▁utbild	-1380
terial	-1381
derar	-1382
▁livet	-1383
ex	-1384
otell	-1385
ktur	-1386
åga	-1387
eter	-1388
▁indi	-1389
fer	-1390
▁små	-1391
▁enkelt	-1392
cen	-1393
oende	-1394
cke	-1395
ansi	-1396
▁frågor	-1397
▁samman	-1398
▁risk	-1399
▁rep	-1400
tions	-1401
▁nöd	-1402
▁lu	-1403
änk	-1404
▁30	-1405
▁Sam	-1406
▁Vis	-1407
tr	-1408
▁tur	-1409
▁loka	-1410
▁dagen	-1411
▁&	-1412
ater	-1413
▁älskar	-1414
jus	-1415
går	-1416
derna	-1417
▁fått	-1418
▁nytt	-1419
▁blivit	-1420
▁står	-1421
▁inför	-1422
▁Mo	-1423
▁musi	-1424
▁tycker	-1425
tidigt	-1426
ps	-1427
ös	-1428
▁möjlighet	-1429
rat	-1430
▁Min	-1431
▁nästan	-1432
råk	-1433
▁bid	-1434
▁trans	-1435
▁kri	-1436
▁vilka	-1437
▁),	-1438
▁erbjuder	-1439
ringar	-1440
▁sol	-1441
örer	-1442
▁tillgång	-1443
illar	-1444
ument	-1445
tas	-1446
▁inget	-1447
▁mynd	-1448
verka	-1449
▁bru	-1450
▁särskilt	-1451
ity	-1452
▁kör	-1453
inner	-1454
▁affär	-1455
peiska	-1456
▁amerik	-1457
bru	-1458
tade	-1459
▁uppgifter	-1460
▁ytter	-1461
▁webbplats	-1462
ari	-1463
elsen	-1464
tis	-1465
▁länge	-1466
vä	-1467
▁euro	-1468
alis	-1469
▁senare	-1470
▁posi	-1471
▁Le	-1472
▁Ja	-1473
▁id	-1474
giv	-1475
▁far	-1476
▁hår	-1477
▁icke	-1478
▁just	-1479
unkt	-1480
▁arbets	-1481
ral	-1482
▁kropp	-1483
väg	-1484
ommen	-1485
▁ana	-1486
ständ	-1487
fik	-1488
dent	-1489
ris	-1490
▁Inte	-1491
▁teknik	-1492
cker	-1493
▁uppf	-1494
▁kärlek	-1495
▁alterna	-1496
▁Gen	-1497
▁Sverige	-1498
fri	-1499
▁Allt	-1500
▁miljoner	-1501
▁via	-1502
iten	-1503
andra	-1504
ående	-1505
▁pub	-1506
▁uppt	-1507
▁funger	-1508
▁bild	-1509
▁gånger	-1510
▁fyra	-1511
▁finansi	-1512
inna	-1513
▁Li	-1514
▁ren	-1515
▁tog	-1516
ställa	-1517
ge	-1518
▁besök	-1519
▁gick	-1520
▁sjukdom	-1521
ons	-1522
ligtvis	-1523
▁tan	-1524
▁delar	-1525
▁möjlig	-1526
▁material	-1527
▁spela	-1528
▁tredje	-1529
med	-1530
▁steg	-1531
▁Al	-1532
tivt	-1533
terar	-1534
▁erf	-1535
▁fanta	-1536
▁effektiv	-1537
▁medlems	-1538
▁11	-1539
eln	-1540
int	-1541
denti	-1542
▁Sp	-1543
dern	-1544
nitt	-1545
▁Även	-1546
sök	-1547
▁sade	-1548
▁sj	-1549
▁förlor	-1550
▁landet	-1551
▁Ty	-1552
▁såg	-1553
▁började	-1554
▁faktiskt	-1555
itu	-1556
▁förhåll	-1557
▁0	-1558
yrk	-1559
▁veta	-1560
▁desig	-1561
▁nödvänd	-1562
form	-1563
▁gången	-1564
ktiv	-1565
▁byg	-1566
▁Go	-1567
lag	-1568
▁ko	-1569
▁lära	-1570
vid	-1571
satt	-1572
fär	-1573
▁stort	-1574
iner	-1575
▁bi	-1576
bara	-1577
ron	-1578
▁Då	-1579
usive	-1580
▁invester	-1581
sin	-1582
▁träff	-1583
sikt	-1584
▁rekommen	-1585
no	-1586
rev	-1587
▁funktion	-1588
co	-1589
▁värde	-1590
ighet	-1591
▁kvalitet	-1592
uti	-1593
val	-1594
▁näm	-1595
▁199	-1596
▁bud	-1597
▁disk	-1598
▁ab	-1599
yn	-1600
▁And	-1601
orden	-1602
▁djur	-1603
tering	-1604
▁Jes	-1605
▁online	-1606
stru	-1607
ct	-1608
▁hal	-1609
▁produkt	-1610
▁Någ	-1611
▁%	-1612
▁egna	-1613
▁månader	-1614
▁båda	-1615
delse	-1616
▁dator	-1617
▁sidan	-1618
▁håller	-1619
ött	-1620
▁Ro	-1621
tisk	-1622
▁Sa	-1623
hus	-1624
▁handlar	-1625
▁tillämp	-1626
▁16	-1627
uella	-1628
▁avsl	-1629
▁fann	-1630
▁köpa	-1631
▁mode	-1632
▁skill	-1633
fäll	-1634
▁emot	-1635
▁vänner	-1636
▁nästa	-1637
▁framti	-1638
▁mänsk	-1639
▁reger	-1640
▁rik	-1641
Jag	-1642
▁arbetar	-1643
▁app	-1644
▁Upp	-1645
▁erfaren	-1646
rade	-1647
sera	-1648
▁medan	-1649
▁minska	-1650
▁Her	-1651
▁välja	-1652
▁mär	-1653
▁erna	-1654
▁kraft	-1655
▁liten	-1656
▁fi	-1657
▁behov	-1658
omm	-1659
ond	-1660
▁fok	-1661
▁snabbt	-1662
▁marknads	-1663
▁områden	-1664
▁timmar	-1665
▁köp	-1666
▁Ta	-1667
▁precis	-1668
ux	-1669
ror	-1670
▁nå	-1671
▁blod	-1672
syn	-1673
▁tillräck	-1674
kning	-1675
▁framgång	-1676
▁Z	-1677
▁öv	-1678
▁kontroll	-1679
kte	-1680
ore	-1681
▁åtgärder	-1682
▁17	-1683
▁användning	-1684
nande	-1685
▁ljus	-1686
▁svårt	-1687
▁krig	-1688
▁pati	-1689
lick	-1690
▁året	-1691
▁Fa	-1692
▁vack	-1693
▁kalla	-1694
▁the	-1695
▁fas	-1696
▁13	-1697
asin	-1698
▁förvän	-1699
▁begräns	-1700
▁staden	-1701
▁äm	-1702
▁pass	-1703
▁följande	-1704
▁föräl	-1705
▁hjälper	-1706
enti	-1707
hol	-1708
icka	-1709
▁san	-1710
▁ac	-1711
tionell	-1712
▁identi	-1713
mb	-1714
alen	-1715
▁kund	-1716
ork	-1717
▁indu	-1718
fall	-1719
▁produktion	-1720
▁50	-1721
drag	-1722
▁riktigt	-1723
▁varandra	-1724
▁beskri	-1725
▁Bar	-1726
▁ann	-1727
▁marknaden	-1728
mat	-1729
rik	-1730
▁sett	-1731
▁innehåll	-1732
▁Många	-1733
▁fördel	-1734
▁innehåller	-1735
▁Av	-1736
▁25	-1737
sh	-1738
bin	-1739
▁ytterligare	-1740
▁Sh	-1741
▁pol	-1742
▁inga	-1743
öst	-1744
▁alternativ	-1745
elef	-1746
▁100	-1747
▁råd	-1748
▁.”	-1749
▁go	-1750
▁lycka	-1751
▁slag	-1752
ogra	-1753
▁stat	-1754
▁Sy	-1755
▁roll	-1756
▁univers	-1757
pen	-1758
▁mäng	-1759
▁bilder	-1760
▁början	-1761
▁Co	-1762
▁Dess	-1763
▁analy	-1764
▁process	-1765
▁glob	-1766
▁ögon	-1767
get	-1768
▁hy	-1769
▁ute	-1770
▁Guds	-1771
▁ang	-1772
hålla	-1773
▁känna	-1774
ktyg	-1775
▁träd	-1776
pul	-1777
▁”,	-1778
▁sådana	-1779
▁kontroller	-1780
avs	-1781
ölja	-1782
kän	-1783
▁New	-1784
▁antal	-1785
▁fantasti	-1786
▁rättigheter	-1787
▁test	-1788
▁flytt	-1789
ember	-1790
▁klass	-1791
▁fungerar	-1792
▁14	-1793
▁helst	-1794
▁medic	-1795
▁området	-1796
▁inklusive	-1797
▁verksamhet	-1798
▁Per	-1799
▁mil	-1800
▁minuter	-1801
▁Res	-1802
▁långt	-1803
▁gener	-1804
▁sista	-1805
eder	-1806
▁kar	-1807
▁Ex	-1808
fte	-1809
▁sö	-1810
fier	-1811
olu	-1812
ou	-1813
▁resa	-1814
▁bolag	-1815
▁konk	-1816
▁världens	-1817
▁bö	-1818
▁gr	-1819
▁visa	-1820
▁anställ	-1821
▁offent	-1822
oli	-1823
▁tack	-1824
▁förut	-1825
▁",	-1826
▁betyder	-1827
▁gar	-1828
▁mä	-1829
▁borde	-1830
▁tillfäll	-1831
▁tem	-1832
▁(1	-1833
▁perf	-1834
▁gamla	-1835
samma	-1836
ment	-1837
▁mag	-1838
▁situ	-1839
▁forskning	-1840
▁registr	-1841
▁at	-1842
▁Joh	-1843
▁aktivitet	-1844
▁användas	-1845
▁Ska	-1846
▁gillar	-1847
borg	-1848
▁vidare	-1849
▁sven	-1850
up	-1851
use	-1852
anser	-1853
▁samtidigt	-1854
▁års	-1855
spel	-1856
▁musik	-1857
▁blog	-1858
tala	-1859
▁släpp	-1860
▁miss	-1861
▁Vill	-1862
▁haft	-1863
▁minst	-1864
spr	-1865
▁läsa	-1866
ism	-1867
▁Vid	-1868
▁Fran	-1869
▁gemens	-1870
▁natt	-1871
▁internationella	-1872
▁film	-1873
▁kopp	-1874
▁•	-1875
▁upplev	-1876
▁kol	-1877
vande	-1878
▁meddel	-1879
handa	-1880
▁viktig	-1881
▁historia	-1882
▁låt	-1883
▁elekt	-1884
▁villkor	-1885
▁defin	-1886
▁Läs	-1887
ationen	-1888
▁tyd	-1889
▁räk	-1890
▁X	-1891
▁teck	-1892
tes	-1893
▁förord	-1894
▁su	-1895
▁vem	-1896
förs	-1897
▁Därför	-1898
▁verkar	-1899
▁säkerhet	-1900
▁börja	-1901
▁föres	-1902
▁sh	-1903
▁cir	-1904
▁handel	-1905
▁förbättra	-1906
dade	-1907
▁sek	-1908
sprung	-1909
ox	-1910
▁kultur	-1911
▁Ny	-1912
över	-1913
▁verktyg	-1914
▁mör	-1915
stitu	-1916
▁högre	-1917
rust	-1918
▁sag	-1919
lingar	-1920
▁integ	-1921
ration	-1922
▁vetenskap	-1923
ui	-1924
vara	-1925
▁utman	-1926
▁Sedan	-1927
stället	-1928
▁någonsin	-1929
avsett	-1930
▁medvet	-1931
▁kunskap	-1932
▁»	-1933
▁sök	-1934
▁ål	-1935
▁hotell	-1936
▁enlighet	-1937
▁tillverk	-1938
▁skicka	-1939
▁hemma	-1940
▁Jesus	-1941
▁ganska	-1942
▁So	-1943
omen	-1944
▁fanns	-1945
▁Stor	-1946
ännande	-1947
▁föd	-1948
▁partner	-1949
▁tillhanda	-1950
▁stad	-1951
fta	-1952
nit	-1953
oder	-1954
vice	-1955
▁spelar	-1956
▁Fin	-1957
▁Ni	-1958
enta	-1959
▁lämna	-1960
▁medel	-1961
▁utveckl	-1962
ki	-1963
▁*	-1964
▁Ber	-1965
▁exper	-1966
▁dok	-1967
▁sida	-1968
issionen	-1969
sra	-1970
▁inv	-1971
▁lin	-1972
▁ansl	-1973
▁utb	-1974
▁dröm	-1975
▁såsom	-1976
▁Hel	-1977
▁ins	-1978
▁sociala	-1979
▁Eller	-1980
stol	-1981
▁jord	-1982
▁stan	-1983
▁spelare	-1984
fika	-1985
▁idé	-1986
ekter	-1987
▁Or	-1988
▁tor	-1989
tals	-1990
▁vide	-1991
skaper	-1992
▁Bl	-1993
▁prin	-1994
▁ville	-1995
▁Ad	-1996
▁insta	-1997
vat	-1998
▁språk	-1999
▁vägen	-2000
▁stand	-2001
▁produc	-2002
ppa	-2003
▁extra	-2004
staur	-2005
▁tänka	-2006
srael	-2007
▁framför	-2008
växt	-2009
cep	-2010
ession	-2011
▁uppfy	-2012
▁kallas	-2013
▁uppn	-2014
20	-2015
▁alltså	-2016
▁kur	-2017
emang	-2018
▁utbildning	-2019
▁medicin	-2020
▁version	-2021
▁vilja	-2022
komst	-2023
▁Fl	-2024
▁låg	-2025
▁kväll	-2026
▁dy	-2027
▁föräld	-2028
ue	-2029
▁’	-2030
tik	-2031
▁känn	-2032
▁jämför	-2033
▁tradi	-2034
▁kräver	-2035
diga	-2036
sol	-2037
▁trän	-2038
▁mobil	-2039
rek	-2040
▁arbeta	-2041
ali	-2042
▁Uni	-2043
gift	-2044
▁mask	-2045
▁Varje	-2046
ton	-2047
▁Genom	-2048
▁Par	-2049
▁utanför	-2050
Det	-2051
igh	-2052
▁känsl	-2053
▁ursprung	-2054
ubb	-2055
ting	-2056
▁använ	-2057
▁ovan	-2058
stad	-2059
▁koll	-2060
▁popul	-2061
▁ibland	-2062
lament	-2063
▁brott	-2064
▁krävs	-2065
▁tillräckligt	-2066
▁Q	-2067
lin	-2068
ologi	-2069
ummer	-2070
mal	-2071
▁cy	-2072
▁heller	-2073
▁Ser	-2074
▁typer	-2075
▁platser	-2076
nova	-2077
len	-2078
atur	-2079
▁fatt	-2080
lex	-2081
iss	-2082
vor	-2083
▁försöker	-2084
▁het	-2085
▁käns	-2086
▁fören	-2087
▁anled	-2088
▁kombin	-2089
▁lägga	-2090
▁jorden	-2091
gru	-2092
▁utveckla	-2093
▁parti	-2094
ho	-2095
▁dör	-2096
▁äta	-2097
▁konkur	-2098
▁."	-2099
▁uppnå	-2100
uppgifter	-2101
mera	-2102
▁skatt	-2103
full	-2104
▁maj	-2105
▁skydd	-2106
▁Vem	-2107
ösa	-2108
lien	-2109
▁område	-2110
öv	-2111
▁He	-2112
▁ant	-2113
▁åren	-2114
▁förklar	-2115
▁höj	-2116
▁tills	-2117
ulla	-2118
▁försök	-2119
ester	-2120
▁kamp	-2121
▁ry	-2122
▁älska	-2123
▁tillstånd	-2124
▁färg	-2125
▁leva	-2126
stående	-2127
▁möjligheter	-2128
▁systemet	-2129
▁telef	-2130
▁mor	-2131
▁läkem	-2132
enhet	-2133
▁ändå	-2134
fic	-2135
uld	-2136
sb	-2137
ian	-2138
▁public	-2139
▁utom	-2140
▁inb	-2141
▁insp	-2142
▁lämp	-2143
▁slutet	-2144
▁akt	-2145
räd	-2146
▁morg	-2147
ph	-2148
▁For	-2149
▁fred	-2150
▁Dessutom	-2151
ont	-2152
▁log	-2153
▁följa	-2154
▁Th	-2155
▁Mer	-2156
märk	-2157
▁vecka	-2158
▁påverk	-2159
▁anp	-2160
▁skriver	-2161
post	-2162
▁försälj	-2163
▁kommit	-2164
▁hälso	-2165
▁fortsätta	-2166
▁Pa	-2167
▁skriva	-2168
▁användare	-2169
▁amerikanska	-2170
▁redo	-2171
▁sagt	-2172
▁!!	-2173
▁Sta	-2174
▁Goog	-2175
▁norm	-2176
▁Ingen	-2177
pro	-2178
▁kam	-2179
▁vanliga	-2180
usen	-2181
vän	-2182
▁Från	-2183
▁fortsätter	-2184
▁Ha	-2185
▁Tro	-2186
kla	-2187
▁dju	-2188
▁uppda	-2189
▁snart	-2190
▁do	-2191
stag	-2192
ryck	-2193
▁genomför	-2194
stat	-2195
▁ihåg	-2196
▁skyl	-2197
▁öppna	-2198
▁säkerhets	-2199
▁ris	-2200
▁klar	-2201
▁tagit	-2202
▁allvar	-2203
▁gär	-2204
▁skad	-2205
age	-2206
▁Använd	-2207
▁Te	-2208
▁bäst	-2209
▁lyss	-2210
▁ja	-2211
▁pas	-2212
▁tänker	-2213
▁kontakt	-2214
lad	-2215
▁fys	-2216
▁rapporter	-2217
iti	-2218
▁ham	-2219
▁bevis	-2220
▁leverant	-2221
▁24	-2222
▁dist	-2223
fråg	-2224
▁gran	-2225
▁utrust	-2226
pper	-2227
cept	-2228
▁Låt	-2229
▁hälsa	-2230
▁inklu	-2231
▁tillväxt	-2232
0-	-2233
▁hittar	-2234
▁förh	-2235
▁event	-2236
▁regel	-2237
▁beroende	-2238
▁egent	-2239
ansk	-2240
▁digi	-2241
▁grän	-2242
).	-2243
stri	-2244
▁nde	-2245
▁stru	-2246
vik	-2247
▁glöm	-2248
▁krav	-2249
▁gratis	-2250
▁indivi	-2251
ancer	-2252
▁punkt	-2253
▁frågan	-2254
▁ford	-2255
▁Pl	-2256
▁match	-2257
▁tjänst	-2258
▁erbjud	-2259
▁myndigheter	-2260
▁fly	-2261
▁chef	-2262
▁påverka	-2263
bri	-2264
▁mots	-2265
ny	-2266
▁företaget	-2267
▁mon	-2268
öt	-2269
▁eget	-2270
▁titt	-2271
▁platt	-2272
▁läs	-2273
otter	-2274
▁innova	-2275
aga	-2276
▁fö	-2277
▁Enligt	-2278
▁ev	-2279
ys	-2280
▁rikt	-2281
▁hoppas	-2282
▁universitet	-2283
▁kroppen	-2284
ko	-2285
▁sluta	-2286
▁ändra	-2287
tem	-2288
▁ton	-2289
yss	-2290
▁avtal	-2291
▁design	-2292
▁kommunika	-2293
▁exp	-2294
▁Tack	-2295
our	-2296
bel	-2297
unda	-2298
▁stå	-2299
föring	-2300
▁ålder	-2301
▁ekonomiska	-2302
▁säl	-2303
▁tj	-2304
▁sju	-2305
samhet	-2306
po	-2307
rit	-2308
▁vux	-2309
▁ske	-2310
tegi	-2311
▁pot	-2312
▁relig	-2313
▁väljer	-2314
▁upptäck	-2315
emi	-2316
seende	-2317
▁nätverk	-2318
▁dela	-2319
▁framtiden	-2320
▁Google	-2321
iod	-2322
▁bakom	-2323
▁stäng	-2324
▁defini	-2325
▁Israel	-2326
▁funktioner	-2327
uni	-2328
▁Ge	-2329
▁utför	-2330
▁säkert	-2331
gera	-2332
band	-2333
▁bygga	-2334
▁låter	-2335
ong	-2336
▁ben	-2337
dant	-2338
her	-2339
▁dat	-2340
▁följer	-2341
▁autom	-2342
▁undersök	-2343
ng	-2344
rym	-2345
▁deltag	-2346
rip	-2347
▁fisk	-2348
▁erfarenhet	-2349
▁garan	-2350
▁Europeiska	-2351
ög	-2352
▁klimat	-2353
▁medlemssta	-2354
▁lad	-2355
ement	-2356
kring	-2357
▁försäk	-2358
etter	-2359
▁kvinna	-2360
▁princi	-2361
▁z	-2362
▁stol	-2363
▁behövs	-2364
▁lösningar	-2365
nt	-2366
▁imp	-2367
▁regl	-2368
▁start	-2369
▁läkemedel	-2370
▁skär	-2371
▁egentligen	-2372
cc	-2373
▁gått	-2374
▁försv	-2375
▁repres	-2376
mare	-2377
repp	-2378
äcka	-2379
▁Car	-2380
▁säk	-2381
minist	-2382
nda	-2383
▁bri	-2384
▁gott	-2385
kas	-2386
▁me	-2387
indra	-2388
▁mamma	-2389
iet	-2390
▁författ	-2391
▁oro	-2392
▁Ind	-2393
▁Kina	-2394
▁ca	-2395
lade	-2396
▁läkare	-2397
efär	-2398
räff	-2399
▁Inter	-2400
▁istället	-2401
lit	-2402
atter	-2403
▁undvi	-2404
▁studen	-2405
juta	-2406
ollar	-2407
▁smär	-2408
▁regler	-2409
▁studier	-2410
▁son	-2411
▁kostnader	-2412
▁halv	-2413
▁veckan	-2414
dde	-2415
▁psy	-2416
▁kapi	-2417
▁ring	-2418
▁förordning	-2419
▁Idag	-2420
▁nationella	-2421
dagen	-2422
bruk	-2423
▁äldre	-2424
▁betala	-2425
▁40	-2426
▁fe	-2427
▁era	-2428
▁goda	-2429
▁]	-2430
▁tillgängliga	-2431
▁utgör	-2432
ich	-2433
▁ram	-2434
▁engel	-2435
ident	-2436
▁stark	-2437
▁potenti	-2438
▁Ti	-2439
▁minn	-2440
▁vikt	-2441
▁finnas	-2442
▁veckor	-2443
▁Över	-2444
resser	-2445
skning	-2446
ligheten	-2447
ins	-2448
▁tio	-2449
▁bete	-2450
▁liknande	-2451
▁våld	-2452
▁resp	-2453
▁service	-2454
kat	-2455
▁gud	-2456
▁ifrån	-2457
stans	-2458
▁detal	-2459
▁förstår	-2460
▁App	-2461
serna	-2462
▁198	-2463
▁Sen	-2464
står	-2465
arder	-2466
▁svår	-2467
▁storlek	-2468
▁bär	-2469
▁gav	-2470
ansch	-2471
▁uppmärk	-2472
▁dokument	-2473
stift	-2474
▁lek	-2475
▁syfte	-2476
▁topp	-2477
▁månad	-2478
▁förber	-2479
▁skydda	-2480
väl	-2481
▁nor	-2482
▁delen	-2483
▁skada	-2484
▁trots	-2485
▁bal	-2486
▁motor	-2487
▁politiska	-2488
åra	-2489
▁kna	-2490
▁mass	-2491
▁närheten	-2492
mt	-2493
▁makt	-2494
gå	-2495
▁skapar	-2496
▁John	-2497
▁anti	-2498
▁Vilka	-2499
▁risker	-2500
nien	-2501
klart	-2502
▁nöj	-2503
▁strategi	-2504
ey	-2505
pr	-2506
▁säkerställa	-2507
▁övert	-2508
▁böcker	-2509
▁igenom	-2510
▁betyd	-2511
▁kring	-2512
▁sann	-2513
▁Din	-2514
▁bred	-2515
▁sep	-2516
▁viss	-2517
▁him	-2518
▁känd	-2519
▁Univers	-2520
▁21	-2521
▁Hans	-2522
▁klart	-2523
vera	-2524
▁förslag	-2525
▁Po	-2526
▁bry	-2527
▁personuppgifter	-2528
▁polis	-2529
▁studie	-2530
ställning	-2531
▁luft	-2532
▁resur	-2533
▁La	-2534
▁tillå	-2535
▁upple	-2536
▁skolan	-2537
läggande	-2538
ceb	-2539
▁häm	-2540
ält	-2541
▁kred	-2542
enting	-2543
▁människa	-2544
én	-2545
▁Sch	-2546
ferens	-2547
▁prakti	-2548
▁domstol	-2549
▁Bo	-2550
▁Vår	-2551
system	-2552
▁Vissa	-2553
▁sätta	-2554
...	-2555
▁faktor	-2556
▁viktigaste	-2557
nam	-2558
cent	-2559
▁opera	-2560
ies	-2561
▁övrig	-2562
▁samarbete	-2563
eb	-2564
▁list	-2565
ham	-2566
vning	-2567
▁röst	-2568
ätta	-2569
platser	-2570
cy	-2571
okra	-2572
asino	-2573
▁titta	-2574
riär	-2575
▁boken	-2576
▁tu	-2577
usk	-2578
länd	-2579
raft	-2580
▁accep	-2581
siv	-2582
▁lokala	-2583
gag	-2584
▁Vär	-2585
▁leda	-2586
▁säson	-2587
▁Kanske	-2588
▁bestämm	-2589
ula	-2590
▁text	-2591
▁gammal	-2592
▁dro	-2593
EG	-2594
örj	-2595
▁sättet	-2596
ip	-2597
▁plac	-2598
tional	-2599
▁perfekt	-2600
▁+	-2601
▁hantera	-2602
▁svenska	-2603
ämpa	-2604
▁enhet	-2605
▁la	-2606
▁cirka	-2607
▁hjärta	-2608
▁foku	-2609
▁kara	-2610
spl	-2611
▁va	-2612
▁ljud	-2613
▁beräk	-2614
▁försöka	-2615
▁förändring	-2616
▁rådet	-2617
▁enheter	-2618
▁struktur	-2619
▁industri	-2620
▁skillnad	-2621
ativ	-2622
önster	-2623
▁kommissionen	-2624
▁organisation	-2625
anda	-2626
▁Wind	-2627
lo	-2628
aket	-2629
bund	-2630
ttag	-2631
▁bransch	-2632
▁Tänk	-2633
▁kyrk	-2634
smedel	-2635
▁förmåga	-2636
ici	-2637
▁rele	-2638
▁omkring	-2639
väm	-2640
▁Ka	-2641
▁täv	-2642
▁rädd	-2643
▁påverkar	-2644
▁tas	-2645
▁utn	-2646
▁automati	-2647
▁mänskliga	-2648
äkt	-2649
▁utmär	-2650
▁organisationer	-2651
▁$	-2652
▁lån	-2653
▁behöva	-2654
bu	-2655
sak	-2656
lands	-2657
▁2018	-2658
ER	-2659
ank	-2660
ash	-2661
▁låta	-2662
▁leder	-2663
▁vinna	-2664
▁nödvändigt	-2665
▁föräldrar	-2666
▁bad	-2667
▁käll	-2668
▁Fil	-2669
▁lokal	-2670
vin	-2671
▁bib	-2672
▁stjär	-2673
▁samband	-2674
▁administ	-2675
rad	-2676
äss	-2677
▁kn	-2678
▁rapport	-2679
▁Con	-2680
▁Dan	-2681
▁dags	-2682
▁ungefär	-2683
▁os	-2684
▁engag	-2685
▁känns	-2686
▁Di	-2687
▁begär	-2688
vo	-2689
▁2.	-2690
▁blogg	-2691
skatt	-2692
qu	-2693
▁stället	-2694
▁internet	-2695
▁grundläggande	-2696
ona	-2697
cebook	-2698
▁högsta	-2699
▁sådant	-2700
Vi	-2701
ograf	-2702
▁döda	-2703
agn	-2704
▁restaur	-2705
olution	-2706
▁antalet	-2707
ild	-2708
▁Gör	-2709
▁rev	-2710
▁förf	-2711
▁bedöm	-2712
ows	-2713
▁intresse	-2714
▁sem	-2715
▁gärna	-2716
▁anställda	-2717
▁Gl	-2718
▁Ra	-2719
▁spelet	-2720
▁lösning	-2721
▁medlemmar	-2722
▁arbetet	-2723
▁telefon	-2724
▁Ob	-2725
▁rätts	-2726
▁dollar	-2727
▁tillhör	-2728
▁favor	-2729
▁sker	-2730
▁förek	-2731
bas	-2732
▁ihop	-2733
▁milit	-2734
▁stopp	-2735
jut	-2736
▁hållbar	-2737
▁medborg	-2738
▁oavsett	-2739
▁mängd	-2740
▁består	-2741
▁kredit	-2742
▁erbjuda	-2743
▁höra	-2744
äker	-2745
▁anpass	-2746
▁vak	-2747
talt	-2748
▁her	-2749
▁lön	-2750
emål	-2751
▁personal	-2752
▁europeiska	-2753
▁förändringar	-2754
ca	-2755
▁anges	-2756
▁närvarande	-2757
▁no	-2758
▁buti	-2759
▁häst	-2760
▁skäl	-2761
kan	-2762
▁1,	-2763
lingen	-2764
ald	-2765
ycka	-2766
▁patienter	-2767
▁profession	-2768
▁Kommer	-2769
▁upprätt	-2770
ium	-2771
▁ej	-2772
▁2015	-2773
delser	-2774
▁favorit	-2775
▁1.	-2776
holm	-2777
▁lösa	-2778
▁berätta	-2779
▁standard	-2780
umär	-2781
▁bekrä	-2782
▁grupper	-2783
▁drabb	-2784
tionellt	-2785
▁kapital	-2786
rakt	-2787
▁chans	-2788
aler	-2789
iteten	-2790
▁ersätt	-2791
▁samhället	-2792
▁utvecklingen	-2793
▁berör	-2794
▁197	-2795
▁2016	-2796
cember	-2797
▁konto	-2798
▁affärs	-2799
▁nummer	-2800
▁speciellt	-2801
▁prata	-2802
▁fullt	-2803
▁söker	-2804
▁uppen	-2805
visa	-2806
rep	-2807
▁År	-2808
teras	-2809
▁2017	-2810
▁vård	-2811
▁relev	-2812
▁reser	-2813
▁enskil	-2814
▁rom	-2815
förande	-2816
▁Ste	-2817
▁Ver	-2818
▁Spel	-2819
▁—	-2820
▁Windows	-2821
▁framgångs	-2822
rikt	-2823
▁höga	-2824
▁kontor	-2825
▁lagstift	-2826
▁nr	-2827
▁ande	-2828
▁tryck	-2829
▁bit	-2830
▁vackra	-2831
iz	-2832
lunda	-2833
▁omedel	-2834
▁programmet	-2835
ffe	-2836
▁säll	-2837
sterna	-2838
vde	-2839
anger	-2840
ndag	-2841
▁tje	-2842
▁relater	-2843
▁Eftersom	-2844
rom	-2845
▁godk	-2846
▁inst	-2847
▁visas	-2848
anu	-2849
▁intresser	-2850
let	-2851
▁arna	-2852
▁huset	-2853
öp	-2854
ogen	-2855
▁Pre	-2856
▁San	-2857
mande	-2858
▁team	-2859
▁behör	-2860
▁fjär	-2861
terade	-2862
▁president	-2863
▁Dag	-2864
antag	-2865
▁unga	-2866
▁avgör	-2867
▁Stock	-2868
▁konkurr	-2869
▁fastställ	-2870
allt	-2871
▁färdig	-2872
▁liksom	-2873
▁överva	-2874
▁ledande	-2875
▁Finns	-2876
▁tri	-2877
▁anslut	-2878
▁namnet	-2879
▁nuvarande	-2880
▁>	-2881
erti	-2882
▁konf	-2883
▁karriär	-2884
▁varumär	-2885
we	-2886
▁Ju	-2887
▁Ph	-2888
▁uppdrag	-2889
▁60	-2890
to	-2891
▁TV	-2892
▁fol	-2893
efter	-2894
▁underhåll	-2895
com	-2896
enden	-2897
▁York	-2898
▁befolk	-2899
ekan	-2900
uell	-2901
▁port	-2902
▁uttryck	-2903
ood	-2904
ktär	-2905
▁mod	-2906
▁fyll	-2907
▁glas	-2908
▁lyck	-2909
fa	-2910
▁blå	-2911
▁Nord	-2912
ektiva	-2913
vel	-2914
rekt	-2915
▁lug	-2916
▁2014	-2917
▁alls	-2918
ektion	-2919
▁Storbri	-2920
▁dessutom	-2921
▁skön	-2922
▁ökar	-2923
talien	-2924
▁metoder	-2925
▁direktiv	-2926
ppar	-2927
▁komment	-2928
▁städer	-2929
▁livsmedel	-2930
▁Tysk	-2931
▁frukt	-2932
▁modell	-2933
▁hot	-2934
▁nega	-2935
▁let	-2936
▁brän	-2937
teck	-2938
▁brö	-2939
▁behå	-2940
▁radi	-2941
▁morgon	-2942
▁period	-2943
▁tekniska	-2944
▁högt	-2945
▁tala	-2946
▁vare	-2947
▁vitt	-2948
▁förra	-2949
▁tecken	-2950
EN	-2951
▁ständ	-2952
▁engelska	-2953
▁Storbritan	-2954
▁juni	-2955
▁enkla	-2956
▁talar	-2957
▁ledare	-2958
▁december	-2959
▁anledning	-2960
▁ingenting	-2961
▁specifika	-2962
ure	-2963
stra	-2964
kerna	-2965
tember	-2966
▁Facebook	-2967
▁förhållande	-2968
åde	-2969
▁privat	-2970
▁Interna	-2971
▁transport	-2972
fiera	-2973
▁Själ	-2974
▁spår	-2975
▁ansök	-2976
jen	-2977
sch	-2978
▁Väl	-2979
▁sub	-2980
snitt	-2981
▁Hopp	-2982
▁klas	-2983
▁rädda	-2984
ftet	-2985
▁hum	-2986
▁dotter	-2987
▁installer	-2988
▁196	-2989
▁fart	-2990
▁perio	-2991
▁prote	-2992
▁förvär	-2993
▁utnytt	-2994
▁Ryss	-2995
kterna	-2996
▁tusen	-2997
▁social	-2998
skri	-2999
skott	-3000
▁psyk	-3001
anuari	-3002
▁undvika	-3003
läg	-3004
▁Kar	-3005
▁vita	-3006
▁utform	-3007
ivil	-3008
vill	-3009
▁rym	-3010
▁karaktär	-3011
orer	-3012
▁pun	-3013
▁bank	-3014
▁dubb	-3015
▁Stockholm	-3016
ake	-3017
▁kem	-3018
▁anlägg	-3019
▁barnen	-3020
▁post	-3021
▁video	-3022
▁Vilken	-3023
▁överens	-3024
▁antingen	-3025
▁bestämmelser	-3026
orn	-3027
por	-3028
icro	-3029
ines	-3030
▁bost	-3031
▁Andra	-3032
visning	-3033
ffa	-3034
▁sten	-3035
▁Tur	-3036
▁rad	-3037
▁tjä	-3038
▁nyck	-3039
ach	-3040
▁Del	-3041
▁ingår	-3042
▁lista	-3043
▁förvalt	-3044
▁studenter	-3045
edd	-3046
sel	-3047
▁cancer	-3048
▁skyldig	-3049
▁fullständ	-3050
▁kommentar	-3051
när	-3052
tit	-3053
itter	-3054
▁någonting	-3055
▁län	-3056
▁ning	-3057
▁visade	-3058
▁aktiviteter	-3059
▁Mark	-3060
▁beror	-3061
▁välkom	-3062
▁co	-3063
▁sch	-3064
▁tol	-3065
▁Komm	-3066
▁processen	-3067
▁22	-3068
▁od	-3069
▁absol	-3070
▁inlägg	-3071
▁maskin	-3072
▁gemenskap	-3073
nor	-3074
▁glad	-3075
▁poäng	-3076
▁förstör	-3077
▁presenter	-3078
▁Lo	-3079
samt	-3080
▁Lond	-3081
lik	-3082
till	-3083
▁Pla	-3084
▁tun	-3085
▁ensam	-3086
▁bilden	-3087
▁förändra	-3088
▁are	-3089
▁menar	-3090
▁genera	-3091
▁2013	-3092
▁kateg	-3093
▁visste	-3094
▁politik	-3095
▁Kv	-3096
▁Sm	-3097
▁kron	-3098
spro	-3099
▁Amer	-3100
▁förhållanden	-3101
ystem	-3102
▁budget	-3103
▁kläder	-3104
▁ena	-3105
▁anser	-3106
▁offici	-3107
▁globala	-3108
▁personliga	-3109
stone	-3110
▁Internet	-3111
ink	-3112
ita	-3113
▁We	-3114
sida	-3115
orier	-3116
▁skilj	-3117
▁januari	-3118
▁#	-3119
▁Su	-3120
▁To	-3121
▁konsek	-3122
ober	-3123
▁stäm	-3124
skapet	-3125
▁lilla	-3126
parlament	-3127
▁forskare	-3128
be	-3129
▁23	-3130
▁sälj	-3131
▁modern	-3132
boll	-3133
▁heter	-3134
▁lagen	-3135
▁uppfatt	-3136
▁ek	-3137
trem	-3138
klara	-3139
▁exakt	-3140
▁attack	-3141
▁gemensam	-3142
▁extrem	-3143
▁kompet	-3144
▁familjen	-3145
kort	-3146
▁Männ	-3147
▁fordon	-3148
▁september	-3149
ana	-3150
rande	-3151
▁fokus	-3152
urg	-3153
▁mars	-3154
▁sinn	-3155
▁skrev	-3156
▁bus	-3157
astig	-3158
▁Våra	-3159
▁Person	-3160
▁trafik	-3161
öts	-3162
▁scen	-3163
avid	-3164
▁vacker	-3165
▁regeringen	-3166
oden	-3167
▁bon	-3168
▁kompl	-3169
▁kre	-3170
strin	-3171
rument	-3172
▁konsum	-3173
▁medlemsstaterna	-3174
▁anses	-3175
▁ämnen	-3176
beroende	-3177
▁trädgår	-3178
▁AB	-3179
ifrån	-3180
▁ström	-3181
▁bidrag	-3182
▁utrustning	-3183
▁jätt	-3184
▁tids	-3185
▁region	-3186
▁as	-3187
assa	-3188
plan	-3189
▁ide	-3190
▁jul	-3191
▁täck	-3192
▁elektron	-3193
▁njuta	-3194
▁mottag	-3195
▁centrum	-3196
za	-3197
▁Hå	-3198
▁kända	-3199
▁lägger	-3200
fe	-3201
▁3.	-3202
▁II	-3203
▁grön	-3204
▁forsknings	-3205
▁sma	-3206
▁Bara	-3207
th	-3208
amen	-3209
minstone	-3210
anc	-3211
▁Er	-3212
uellt	-3213
emot	-3214
▁stress	-3215
nal	-3216
vår	-3217
▁fång	-3218
▁livs	-3219
▁opti	-3220
▁havet	-3221
▁berättar	-3222
▁Europaparlament	-3223
▁vap	-3224
▁säkra	-3225
▁effektivt	-3226
▁egenskaper	-3227
▁he	-3228
▁Följ	-3229
▁skick	-3230
▁effekt	-3231
▁lämnar	-3232
▁vanligt	-3233
▁gemensamma	-3234
▁webbplatser	-3235
▁berg	-3236
▁David	-3237
▁Några	-3238
▁27	-3239
värr	-3240
värt	-3241
▁mus	-3242
▁skriv	-3243
orlunda	-3244
▁tillgänglig	-3245
▁:)	-3246
deras	-3247
▁spar	-3248
ktober	-3249
▁avses	-3250
▁levande	-3251
ars	-3252
ama	-3253
fulla	-3254
▁klubb	-3255
▁utrym	-3256
▁filmen	-3257
▁Gra	-3258
isera	-3259
▁regelbund	-3260
vida	-3261
▁poj	-3262
▁stö	-3263
▁gläd	-3264
▁säng	-3265
▁Ibland	-3266
▁avsnitt	-3267
▁miljarder	-3268
kul	-3269
▁otro	-3270
▁nivåer	-3271
▁central	-3272
set	-3273
ansa	-3274
▁Tra	-3275
▁sov	-3276
▁öppen	-3277
▁London	-3278
▁kommunikation	-3279
ftar	-3280
▁jud	-3281
▁tyck	-3282
▁vars	-3283
dering	-3284
▁medier	-3285
▁priset	-3286
▁framtid	-3287
inder	-3288
▁utvär	-3289
▁institu	-3290
tisti	-3291
▁Micro	-3292
▁flick	-3293
▁Hoppas	-3294
▁sektor	-3295
▁fortsatt	-3296
ns	-3297
▁mid	-3298
▁fäng	-3299
▁vanligtvis	-3300
tiga	-3301
▁civil	-3302
▁km	-3303
erings	-3304
satta	-3305
▁grad	-3306
▁Nästa	-3307
▁meter	-3308
▁trodde	-3309
▁avsluta	-3310
▁Storbritannien	-3311
▁ges	-3312
serar	-3313
▁2012	-3314
▁integr	-3315
▁stabil	-3316
ningarna	-3317
▁Finland	-3318
▁genomsnitt	-3319
▁Två	-3320
▁Park	-3321
▁främst	-3322
▁känsla	-3323
▁önskar	-3324
▁Tyskland	-3325
ena	-3326
▁Bus	-3327
tande	-3328
▁paket	-3329
peratur	-3330
ologiska	-3331
▁Bes	-3332
▁Bra	-3333
▁slå	-3334
licka	-3335
▁bord	-3336
terier	-3337
▁delta	-3338
▁uttal	-3339
jan	-3340
amål	-3341
ftig	-3342
▁fört	-3343
rings	-3344
▁FN	-3345
▁Sc	-3346
▁bill	-3347
▁mång	-3348
▁analys	-3349
▁respek	-3350
▁ändamål	-3351
värd	-3352
▁mol	-3353
givare	-3354
▁religi	-3355
▁Människ	-3356
mi	-3357
▁Com	-3358
▁Hen	-3359
▁tit	-3360
▁konstru	-3361
▁marknad	-3362
▁uppskatt	-3363
licy	-3364
slam	-3365
▁strä	-3366
▁tips	-3367
▁University	-3368
▁webbplatsen	-3369
▁28	-3370
▁häng	-3371
klag	-3372
▁sän	-3373
▁äter	-3374
▁demokra	-3375
▁Ryssland	-3376
lös	-3377
▁El	-3378
tive	-3379
▁arki	-3380
▁kapa	-3381
▁bekväm	-3382
▁Frankri	-3383
▁Företag	-3384
▁oktober	-3385
▁annorlunda	-3386
öna	-3387
▁ho	-3388
▁Dom	-3389
▁åka	-3390
▁oberoende	-3391
▁ag	-3392
▁sälja	-3393
▁Hotell	-3394
▁Nation	-3395
▁spännande	-3396
▁offentliga	-3397
pril	-3398
▁kry	-3399
▁2010	-3400
▁synd	-3401
▁initi	-3402
▁omfattande	-3403
▁26	-3404
ygga	-3405
▁kolla	-3406
▁folket	-3407
▁lärare	-3408
▁världs	-3409
jor	-3410
▁36	-3411
▁press	-3412
igheten	-3413
▁bygger	-3414
▁fallet	-3415
▁vol	-3416
▁djup	-3417
▁kände	-3418
hi	-3419
xi	-3420
▁Nya	-3421
▁job	-3422
▁kal	-3423
▁tankar	-3424
▁sannoli	-3425
▁Gu	-3426
▁500	-3427
▁Bil	-3428
▁kap	-3429
blick	-3430
▁sport	-3431
▁Pr	-3432
ture	-3433
▁lägg	-3434
▁fungera	-3435
▁kontakta	-3436
▁kontrollera	-3437
▁avslöj	-3438
▁intell	-3439
▁tidigt	-3440
cess	-3441
▁höll	-3442
▁inre	-3443
▁lägre	-3444
▁utfor	-3445
▁föremål	-3446
▁populära	-3447
kal	-3448
▁ok	-3449
inal	-3450
▁Eng	-3451
▁skra	-3452
▁datum	-3453
▁finansiella	-3454
stit	-3455
▁båt	-3456
▁nov	-3457
▁stär	-3458
▁litet	-3459
▁därmed	-3460
▁ungdom	-3461
▁undantag	-3462
ola	-3463
itta	-3464
▁våg	-3465
▁musk	-3466
▁bidra	-3467
▁sidor	-3468
▁Lu	-3469
▁hundra	-3470
▁special	-3471
▁fantastiska	-3472
▁gol	-3473
bord	-3474
▁förhand	-3475
▁inkluderar	-3476
lå	-3477
ärn	-3478
edda	-3479
▁Pol	-3480
▁amb	-3481
▁vänta	-3482
▁kommande	-3483
igen	-3484
onom	-3485
▁gui	-3486
▁ste	-3487
stitut	-3488
▁besöka	-3489
▁inspir	-3490
orge	-3491
ulti	-3492
bum	-3493
▁?”	-3494
▁dis	-3495
▁visat	-3496
▁försvar	-3497
▁tom	-3498
liv	-3499
▁?"	-3500
▁Må	-3501
▁företags	-3502
▁betydelse	-3503
gra	-3504
tter	-3505
▁långa	-3506
▁fastig	-3507
▁ställa	-3508
▁absolut	-3509
▁användar	-3510
▁Gam	-3511
citet	-3512
▁hård	-3513
▁Själv	-3514
▁elever	-3515
ikro	-3516
▁anm	-3517
▁jobbet	-3518
▁lyssna	-3519
▁motstånd	-3520
▁görs	-3521
▁reda	-3522
▁göras	-3523
▁gravid	-3524
tor	-3525
▁söm	-3526
▁etab	-3527
▁bilar	-3528
▁missl	-3529
ydd	-3530
▁iP	-3531
▁Bet	-3532
▁knapp	-3533
▁konven	-3534
▁försäljning	-3535
åd	-3536
▁uts	-3537
▁söka	-3538
▁tving	-3539
▁vuxna	-3540
odligen	-3541
▁enbart	-3542
ager	-3543
grund	-3544
▁Fram	-3545
▁sla	-3546
▁träning	-3547
▁Am	-3548
▁pat	-3549
tiskt	-3550
▁spen	-3551
▁känslor	-3552
▁resurser	-3553
▁tänk	-3554
▁semester	-3555
▁snabbare	-3556
▁verkliga	-3557
lack	-3558
▁deb	-3559
▁ång	-3560
▁2011	-3561
▁Trots	-3562
▁övertyg	-3563
stäm	-3564
▁2019	-3565
▁leverantör	-3566
fl	-3567
ekta	-3568
▁Air	-3569
▁ret	-3570
punkt	-3571
▁borta	-3572
▁nedan	-3573
▁filmer	-3574
▁avseende	-3575
▁projektet	-3576
▁(2	-3577
▁bu	-3578
kohol	-3579
▁dagens	-3580
ökt	-3581
▁35	-3582
▁ör	-3583
▁Vet	-3584
▁inled	-3585
isering	-3586
spektiv	-3587
▁4.	-3588
ågan	-3589
▁växt	-3590
▁sitter	-3591
▁förhindra	-3592
atten	-3593
sidan	-3594
▁varor	-3595
▁ekonomi	-3596
▁förekom	-3597
medel	-3598
verkan	-3599
▁vapen	-3600
▁moderna	-3601
▁åtminstone	-3602
▁internationell	-3603
ynd	-3604
ustra	-3605
▁gruppen	-3606
▁asp	-3607
▁sjun	-3608
▁sång	-3609
ländska	-3610
▁utvecklas	-3611
ign	-3612
▁krist	-3613
rarna	-3614
▁stod	-3615
sioner	-3616
▁uppgift	-3617
▁Dr	-3618
▁drag	-3619
▁sätter	-3620
cel	-3621
▁tab	-3622
▁kärn	-3623
▁priva	-3624
▁Tre	-3625
▁hud	-3626
▁klin	-3627
▁block	-3628
▁detalj	-3629
▁jämfört	-3630
ix	-3631
dags	-3632
änderna	-3633
▁särskilda	-3634
▁omedelbart	-3635
▁Ab	-3636
▁föred	-3637
egående	-3638
ställningar	-3639
▁medlemsstat	-3640
ilje	-3641
▁häv	-3642
▁symb	-3643
▁författare	-3644
▁tåg	-3645
äster	-3646
▁starka	-3647
▁framtida	-3648
▁konstnär	-3649
▁Mal	-3650
▁känt	-3651
▁baserat	-3652
▁upplevelse	-3653
nars	-3654
▁siff	-3655
▁bilen	-3656
▁risken	-3657
▁nyligen	-3658
ocker	-3659
▁reak	-3660
▁Först	-3661
▁Frankrike	-3662
▁Cl	-3663
▁dit	-3664
▁2009	-3665
▁cook	-3666
▁uppm	-3667
▁växa	-3668
▁brukar	-3669
▁fotboll	-3670
ish	-3671
▁köper	-3672
▁växer	-3673
▁natten	-3674
▁patient	-3675
▁ak	-3676
mark	-3677
▁2008	-3678
▁gräns	-3679
▁distri	-3680
▁huvudsak	-3681
▁ständigt	-3682
▁produkten	-3683
ight	-3684
orld	-3685
usti	-3686
▁Spe	-3687
▁gett	-3688
▁certi	-3689
▁tanke	-3690
▁barnet	-3691
▁kyrkan	-3692
▁starkt	-3693
▁övriga	-3694
▁allmänna	-3695
▁hört	-3696
▁former	-3697
▁möjliga	-3698
▁nämligen	-3699
▁Br	-3700
▁uppman	-3701
▁problemet	-3702
stro	-3703
▁ent	-3704
▁kök	-3705
▁pan	-3706
▁värme	-3707
▁Herren	-3708
▁belopp	-3709
▁x	-3710
amer	-3711
likt	-3712
rala	-3713
▁kön	-3714
▁mät	-3715
▁attra	-3716
▁batter	-3717
▁resten	-3718
▁perspektiv	-3719
eck	-3720
▁band	-3721
▁idéer	-3722
▁kampan	-3723
sättningar	-3724
▁Cent	-3725
▁britt	-3726
▁metod	-3727
▁platsen	-3728
▁november	-3729
▁sjukdomar	-3730
▁instrument	-3731
▁resultatet	-3732
▁2,	-3733
edag	-3734
följ	-3735
▁Off	-3736
▁arg	-3737
tryck	-3738
▁april	-3739
ills	-3740
ocka	-3741
▁kop	-3742
känna	-3743
▁bilj	-3744
▁häls	-3745
▁köra	-3746
▁tjäna	-3747
▁proces	-3748
▁hjärtat	-3749
▁personlig	-3750
▁relationer	-3751
arm	-3752
ith	-3753
åda	-3754
▁Ho	-3755
▁es	-3756
rodu	-3757
▁Nej	-3758
▁värd	-3759
▁Någon	-3760
▁miljön	-3761
▁tänkte	-3762
▁strateg	-3763
▁intressant	-3764
▁Do	-3765
▁Hot	-3766
▁fakt	-3767
▁sommar	-3768
▁ställe	-3769
oni	-3770
▁On	-3771
▁Tw	-3772
▁besl	-3773
▁möte	-3774
gående	-3775
▁Arbet	-3776
▁hände	-3777
▁lanser	-3778
▁mannen	-3779
▁Gro	-3780
▁sym	-3781
▁antag	-3782
▁lagar	-3783
▁ordet	-3784
▁super	-3785
istiska	-3786
▁rätten	-3787
▁offentlig	-3788
▁gas	-3789
▁rut	-3790
▁sty	-3791
▁guld	-3792
▁juli	-3793
▁utmärkt	-3794
▁modeller	-3795
▁personen	-3796
▁handlingar	-3797
ya	-3798
▁stil	-3799
▁närma	-3800
▁objekt	-3801
▁sjukhus	-3802
▁70	-3803
▁Tim	-3804
▁erk	-3805
▁nord	-3806
▁hända	-3807
▁trygg	-3808
▁interv	-3809
▁kallar	-3810
▁temperatur	-3811
▁Tr	-3812
bygg	-3813
atsen	-3814
▁Trum	-3815
▁dest	-3816
unnit	-3817
▁smart	-3818
▁profil	-3819
▁frågade	-3820
omb	-3821
soft	-3822
öter	-3823
▁mun	-3824
▁Första	-3825
▁börjat	-3826
▁planet	-3827
han	-3828
betal	-3829
▁Paul	-3830
▁räck	-3831
▁Krist	-3832
▁rätta	-3833
▁förest	-3834
▁kompetens	-3835
ome	-3836
agnos	-3837
▁avanc	-3838
▁framåt	-3839
▁priser	-3840
▁kallade	-3841
▁fördelar	-3842
▁omfattar	-3843
▁statisti	-3844
▁naturliga	-3845
▁Ed	-3846
dens	-3847
maren	-3848
sering	-3849
old	-3850
▁Reg	-3851
▁ill	-3852
▁solen	-3853
▁Samtidigt	-3854
▁rekommenderar	-3855
lat	-3856
▁gäll	-3857
▁skog	-3858
▁passar	-3859
▁stödja	-3860
▁symbol	-3861
▁vinter	-3862
▁alkohol	-3863
▁lättare	-3864
anien	-3865
▁brist	-3866
▁prest	-3867
▁stanna	-3868
▁vattnet	-3869
ile	-3870
▁ses	-3871
▁yrk	-3872
▁mikro	-3873
▁svart	-3874
▁miljon	-3875
▁Fort	-3876
▁flytta	-3877
▁promen	-3878
▁starta	-3879
▁tydligt	-3880
its	-3881
▁Sn	-3882
▁Beh	-3883
▁Gre	-3884
▁kontin	-3885
▁pension	-3886
▁=	-3887
▁rän	-3888
frika	-3889
▁oför	-3890
▁läser	-3891
▁baserade	-3892
▁Microsoft	-3893
▁31	-3894
▁dog	-3895
▁hänsyn	-3896
▁vänster	-3897
oso	-3898
ump	-3899
▁pal	-3900
▁vinn	-3901
▁smärta	-3902
▁uppmunt	-3903
▁handling	-3904
▁betydande	-3905
▁Ko	-3906
▁önsk	-3907
▁beröm	-3908
▁nätet	-3909
▁serie	-3910
▁behandla	-3911
▁Kl	-3912
▁fåg	-3913
liote	-3914
släpp	-3915
▁vart	-3916
▁unika	-3917
▁unders	-3918
▁väntar	-3919
▁194	-3920
▁Mon	-3921
▁dep	-3922
▁mån	-3923
ungen	-3924
▁omöj	-3925
▁äger	-3926
erande	-3927
▁Apple	-3928
▁jurid	-3929
AR	-3930
▁Jap	-3931
endet	-3932
▁närmare	-3933
klare	-3934
▁pappa	-3935
▁oftast	-3936
▁träffa	-3937
▁kristna	-3938
▁konsekven	-3939
▁historiska	-3940
bert	-3941
▁kvali	-3942
▁yrkes	-3943
▁ävent	-3944
▁frihet	-3945
eda	-3946
sla	-3947
▁Hem	-3948
▁Mitt	-3949
entera	-3950
▁bostad	-3951
▁skador	-3952
▁kommersi	-3953
ira	-3954
sson	-3955
▁musli	-3956
delning	-3957
▁mening	-3958
▁papper	-3959
siva	-3960
▁fria	-3961
▁annon	-3962
▁dåligt	-3963
▁förfar	-3964
▁orsaka	-3965
bry	-3966
▁80	-3967
▁Sw	-3968
▁Paris	-3969
▁anmäl	-3970
▁målet	-3971
▁Skulle	-3972
▁arkite	-3973
▁fartyg	-3974
▁komplex	-3975
EB	-3976
▁90	-3977
▁Bu	-3978
▁195	-3979
▁Just	-3980
▁prov	-3981
▁flykt	-3982
▁massa	-3983
troende	-3984
▁kunnat	-3985
▁straff	-3986
▁faktorer	-3987
▁regering	-3988
▁kung	-3989
▁följd	-3990
kast	-3991
▁Bro	-3992
▁ökad	-3993
▁transa	-3994
▁koncent	-3995
▁ski	-3996
delsen	-3997
▁kines	-3998
▁ögonblick	-3999
▁relaterade	-4000
tic	-4001
▁dans	-4002
▁nytta	-4003
▁obser	-4004
▁spara	-4005
▁flygplats	-4006
▁situation	-4007
▁exempelvis	-4008
▁förståelse	-4009
amm	-4010
ora	-4011
▁sjö	-4012
oritet	-4013
▁uppleva	-4014
▁individu	-4015
▁historien	-4016
),	-4017
▁ök	-4018
▁ras	-4019
delar	-4020
▁bidrar	-4021
▁kompon	-4022
▁utföra	-4023
▁handels	-4024
▁samhälle	-4025
▁upptäcka	-4026
▁Ga	-4027
unch	-4028
▁trev	-4029
▁Produ	-4030
▁färger	-4031
▁privata	-4032
▁svarade	-4033
▁effekter	-4034
jöl	-4035
och	-4036
▁29	-4037
▁gla	-4038
▁gjor	-4039
bruari	-4040
▁jobba	-4041
▁leverans	-4042
IN	-4043
▁5.	-4044
▁kött	-4045
▁hastig	-4046
▁Mac	-4047
▁bro	-4048
▁lov	-4049
rådet	-4050
▁Mich	-4051
verket	-4052
▁främja	-4053
▁närings	-4054
▁beteende	-4055
▁digitala	-4056
▁förmodligen	-4057
▁naturligtvis	-4058
les	-4059
vand	-4060
▁nöjd	-4061
▁återv	-4062
▁befint	-4063
▁pratar	-4064
▁server	-4065
▁dej	-4066
anter	-4067
larna	-4068
▁tillverka	-4069
▁eventuella	-4070
IS	-4071
vån	-4072
▁bev	-4073
▁max	-4074
▁såväl	-4075
▁industrin	-4076
go	-4077
oga	-4078
rus	-4079
▁fett	-4080
▁muse	-4081
▁bonus	-4082
▁fjärde	-4083
▁omständ	-4084
▁sanningen	-4085
▁leverantörer	-4086
00-	-4087
▁Vän	-4088
▁roman	-4089
▁saknar	-4090
▁baserad	-4091
▁korrekt	-4092
▁rörelse	-4093
bo	-4094
▁Sl	-4095
▁Rom	-4096
▁läst	-4097
siktig	-4098
▁inträff	-4099
▁marknader	-4100
▁fantastisk	-4101
▁bön	-4102
▁drift	-4103
▁mekan	-4104
▁allmänhet	-4105
▁identifier	-4106
uer	-4107
▁förstås	-4108
▁genomföra	-4109
▁Im	-4110
▁Si	-4111
atan	-4112
göra	-4113
▁Pri	-4114
▁stund	-4115
venemang	-4116
▁militär	-4117
▁processer	-4118
nu	-4119
▁IT	-4120
▁Jer	-4121
▁arm	-4122
▁dubbel	-4123
▁faktum	-4124
▁bakgrund	-4125
▁Je	-4126
▁grå	-4127
▁Svar	-4128
▁förd	-4129
▁kill	-4130
▁misst	-4131
▁Vilket	-4132
▁roligt	-4133
▁föreskri	-4134
terad	-4135
▁Välj	-4136
▁tyst	-4137
▁värt	-4138
▁Program	-4139
▁avstånd	-4140
▁utrymme	-4141
▁International	-4142
▁ba	-4143
▁svara	-4144
▁värdet	-4145
▁nödvändiga	-4146
ES	-4147
yll	-4148
▁Mot	-4149
tning	-4150
ämpar	-4151
▁utred	-4152
▁Mycket	-4153
▁förlora	-4154
▁tillåter	-4155
likationer	-4156
▁Em	-4157
lare	-4158
llop	-4159
▁Ben	-4160
▁kaffe	-4161
▁instru	-4162
▁älskade	-4163
▁au	-4164
▁sim	-4165
▁hårt	-4166
▁åtta	-4167
▁World	-4168
▁samtliga	-4169
▁avgörande	-4170
own	-4171
▁Lär	-4172
▁ansi	-4173
▁järn	-4174
▁snar	-4175
▁etabl	-4176
▁listan	-4177
▁fysiska	-4178
▁marknadsföring	-4179
tad	-4180
▁Da	-4181
▁skola	-4182
▁dricka	-4183
▁skapat	-4184
▁medborgare	-4185
▁tillhandahålla	-4186
▁ir	-4187
▁nogg	-4188
derade	-4189
▁lyckas	-4190
▁Ac	-4191
▁Me	-4192
varo	-4193
våra	-4194
▁gre	-4195
liken	-4196
▁skor	-4197
▁koncer	-4198
▁perioden	-4199
▁ursprungliga	-4200
vas	-4201
cial	-4202
▁Gru	-4203
▁Stud	-4204
▁funder	-4205
▁reklam	-4206
▁diagnos	-4207
▁kommitt	-4208
formation	-4209
▁investeringar	-4210
til	-4211
örd	-4212
▁End	-4213
▁Und	-4214
bolag	-4215
▁album	-4216
▁Austra	-4217
minister	-4218
▁möjligheten	-4219
▁Ca	-4220
uvud	-4221
▁Vårt	-4222
▁recept	-4223
▁verket	-4224
ellertid	-4225
▁normalt	-4226
ban	-4227
▁läge	-4228
▁samtal	-4229
▁staten	-4230
▁totala	-4231
struktur	-4232
▁människan	-4233
▁ts	-4234
issa	-4235
ssel	-4236
▁lju	-4237
gande	-4238
▁....	-4239
▁utby	-4240
▁inten	-4241
▁äkten	-4242
▁misstag	-4243
▁automatiskt	-4244
▁grä	-4245
deles	-4246
▁sömn	-4247
upport	-4248
▁multi	-4249
frågan	-4250
▁bibliote	-4251
▁händelser	-4252
▁Ba	-4253
▁Net	-4254
hålls	-4255
▁hänt	-4256
▁kand	-4257
▁allra	-4258
▁dålig	-4259
▁intervju	-4260
▁ekonomisk	-4261
eds	-4262
▁ci	-4263
ativt	-4264
ringa	-4265
ression	-4266
▁enskilda	-4267
▁principer	-4268
▁verksamheten	-4269
▁informationen	-4270
garna	-4271
▁väst	-4272
▁svåra	-4273
▁relation	-4274
▁konferens	-4275
ida	-4276
▁Gr	-4277
▁Ri	-4278
▁it	-4279
▁Dig	-4280
rakta	-4281
▁akade	-4282
ötsligt	-4283
ligheter	-4284
▁befinner	-4285
▁behöriga	-4286
▁februari	-4287
tio	-4288
ult	-4289
otten	-4290
terat	-4291
▁brev	-4292
▁kurs	-4293
▁vinst	-4294
▁lägenhet	-4295
▁konkurrens	-4296
▁ordförande	-4297
▁Pen	-4298
▁Barn	-4299
▁sprid	-4300
▁önska	-4301
▁Förutom	-4302
▁Oavsett	-4303
▁ansökan	-4304
AS	-4305
▁45	-4306
▁äng	-4307
▁möta	-4308
erades	-4309
▁kvällen	-4310
▁medarbet	-4311
▁effektiva	-4312
▁plattform	-4313
▁meddelande	-4314
▁My	-4315
ycke	-4316
ägen	-4317
▁ten	-4318
▁spri	-4319
▁uppe	-4320
▁tillb	-4321
▁öppet	-4322
▁hälften	-4323
fil	-4324
sso	-4325
pati	-4326
▁hat	-4327
▁Medan	-4328
ks	-4329
▁No	-4330
▁strå	-4331
▁tittar	-4332
▁hemsida	-4333
▁jordbruk	-4334
rav	-4335
▁tider	-4336
▁funnit	-4337
▁kriget	-4338
▁National	-4339
▁kontrakt	-4340
by	-4341
bis	-4342
▁Ur	-4343
stera	-4344
▁glädje	-4345
▁överväg	-4346
▁distribu	-4347
▁kombination	-4348
▁användningen	-4349
▁uppmärksamhet	-4350
kra	-4351
...]	-4352
iness	-4353
▁sant	-4354
▁jobbar	-4355
▁rummet	-4356
▁tillägg	-4357
▁besökare	-4358
▁överallt	-4359
edi	-4360
lir	-4361
sar	-4362
▁am	-4363
kost	-4364
ören	-4365
▁ägg	-4366
sikter	-4367
▁[...]	-4368
▁grunden	-4369
▁minskar	-4370
▁tvi	-4371
▁digital	-4372
gy	-4373
pun	-4374
▁por	-4375
▁2020	-4376
▁cykel	-4377
▁trött	-4378
tionerna	-4379
▁unionen	-4380
▁aut	-4381
ktiva	-4382
▁Jack	-4383
▁tillåt	-4384
entation	-4385
▁intressen	-4386
▁prestanda	-4387
out	-4388
ower	-4389
AN	-4390
▁Skri	-4391
▁Will	-4392
▁mjuk	-4393
▁sats	-4394
▁balans	-4395
▁regelbundet	-4396
mel	-4397
ödra	-4398
▁Hög	-4399
▁Mat	-4400
▁rob	-4401
sland	-4402
▁Utan	-4403
▁moti	-4404
▁svag	-4405
arskap	-4406
sträng	-4407
▁union	-4408
▁överg	-4409
EU	-4410
jar	-4411
▁af	-4412
▁fu	-4413
ence	-4414
▁Col	-4415
▁tum	-4416
▁klock	-4417
▁konser	-4418
▁underl	-4419
▁Trump	-4420
▁linje	-4421
▁Center	-4422
▁ordning	-4423
▁situationer	-4424
▁omständigheter	-4425
dor	-4426
ree	-4427
▁Gå	-4428
▁SE	-4429
▁Håll	-4430
▁branschen	-4431
▁färdigheter	-4432
▁ink	-4433
▁hjärt	-4434
▁planer	-4435
▁lagstiftning	-4436
jör	-4437
sdag	-4438
▁fal	-4439
▁Star	-4440
ställd	-4441
▁stolt	-4442
vt	-4443
▁Mc	-4444
▁beho	-4445
▁förk	-4446
▁kris	-4447
▁slags	-4448
▁frågar	-4449
▁familje	-4450
▁nyheter	-4451
pan	-4452
abet	-4453
ctor	-4454
räde	-4455
estiv	-4456
▁arran	-4457
▁ägare	-4458
▁formul	-4459
▁hittade	-4460
▁evenemang	-4461
▁misslycka	-4462
▁!”	-4463
▁seg	-4464
▁drog	-4465
▁klag	-4466
tifrån	-4467
▁avtalet	-4468
▁bolaget	-4469
▁cookies	-4470
mos	-4471
rare	-4472
▁sal	-4473
perat	-4474
▁jour	-4475
▁islam	-4476
▁överra	-4477
▁betrakta	-4478
iel	-4479
▁Kor	-4480
▁gro	-4481
fullt	-4482
ugusti	-4483
▁rådets	-4484
▁begäran	-4485
▁sammanh	-4486
▁­	-4487
▁dyr	-4488
▁cell	-4489
▁drar	-4490
▁turn	-4491
▁vägg	-4492
▁berörda	-4493
▁populär	-4494
▁relevanta	-4495
riska	-4496
skrig	-4497
ssoci	-4498
▁2007	-4499
▁fina	-4500
▁casino	-4501
▁skrift	-4502
▁varier	-4503
▁behövde	-4504
▁naturen	-4505
▁ansträng	-4506
▁uppenbar	-4507
▁tillämpas	-4508
▁identifiera	-4509
TE	-4510
▁IS	-4511
▁filer	-4512
▁tekni	-4513
givning	-4514
ådespel	-4515
▁styrka	-4516
handling	-4517
▁äventyr	-4518
▁familjer	-4519
▁installa	-4520
ear	-4521
▁[1	-4522
▁fo	-4523
▁Äl	-4524
▁skul	-4525
▁stri	-4526
▁Hotel	-4527
▁stats	-4528
▁franska	-4529
▁snarare	-4530
▁perfekta	-4531
▁finansiering	-4532
▁WEB	-4533
▁sur	-4534
▁Kvinn	-4535
▁element	-4536
▁centrala	-4537
▁behandlas	-4538
pla	-4539
▁ed	-4540
▁änt	-4541
▁mjöl	-4542
▁olyck	-4543
▁representer	-4544
▁situationen	-4545
The	-4546
▁!"	-4547
▁Fri	-4548
▁Val	-4549
▁Fast	-4550
▁döds	-4551
▁ryska	-4552
▁fönster	-4553
▁fotograf	-4554
▁intresserad	-4555
.”	-4556
ea	-4557
dela	-4558
▁Bib	-4559
▁hit	-4560
▁2006	-4561
▁valt	-4562
▁förmån	-4563
▁alltför	-4564
▁främsta	-4565
▁överlev	-4566
▁artikeln	-4567
▁intellig	-4568
▁officiella	-4569
▁Bel	-4570
▁Gar	-4571
marna	-4572
▁City	-4573
▁bröllop	-4574
rastruktur	-4575
steg	-4576
▁sån	-4577
▁klara	-4578
ningsvis	-4579
▁äntligen	-4580
▁uppfyller	-4581
▁utvecklings	-4582
Om	-4583
häm	-4584
ica	-4585
▁nej	-4586
enser	-4587
▁fält	-4588
▁lärt	-4589
▁tera	-4590
▁hundar	-4591
▁begrepp	-4592
▁traditionella	-4593
stig	-4594
▁gym	-4595
▁sägs	-4596
▁Åter	-4597
▁fritt	-4598
▁igång	-4599
▁visst	-4600
▁massor	-4601
▁introdu	-4602
▁fött	-4603
▁katt	-4604
▁Fråga	-4605
▁förny	-4606
▁valet	-4607
▁gällande	-4608
bok	-4609
dat	-4610
atte	-4611
örja	-4612
▁Ele	-4613
▁Jon	-4614
▁Sol	-4615
▁samla	-4616
▁idrott	-4617
▁konver	-4618
▁förlust	-4619
▁uppstår	-4620
▁sannolikt	-4621
▁myndigheterna	-4622
ärer	-4623
▁dos	-4624
▁vore	-4625
▁media	-4626
enterna	-4627
▁totalt	-4628
▁Kristus	-4629
▁koncept	-4630
▁uppfyll	-4631
▁händelse	-4632
▁parlament	-4633
▁‘	-4634
▁Met	-4635
▁utbud	-4636
▁aktiva	-4637
▁skrivit	-4638
▁kapacitet	-4639
▁Jam	-4640
ismen	-4641
▁tjej	-4642
▁resul	-4643
▁omvand	-4644
▁bestämma	-4645
▁kunskaper	-4646
▁emellertid	-4647
akta	-4648
▁193	-4649
▁You	-4650
saker	-4651
▁lager	-4652
▁längs	-4653
▁Un	-4654
▁Japan	-4655
▁Peter	-4656
▁aktie	-4657
▁taget	-4658
ssystem	-4659
▁faller	-4660
▁föddes	-4661
▁augusti	-4662
▁th	-4663
slut	-4664
▁300	-4665
▁Lin	-4666
ografi	-4667
vision	-4668
▁klicka	-4669
▁skatte	-4670
▁behålla	-4671
▁kostnad	-4672
▁alldeles	-4673
▁initiativ	-4674
igur	-4675
ward	-4676
▁Van	-4677
▁inl	-4678
▁lägen	-4679
▁Restaur	-4680
▁Spanien	-4681
▁förklara	-4682
▁position	-4683
▁medarbetare	-4684
pekt	-4685
tids	-4686
▁besk	-4687
▁Innan	-4688
▁offer	-4689
▁utfär	-4690
▁förrän	-4691
▁värden	-4692
▁omfattas	-4693
▁individer	-4694
▁utmaningar	-4695
,5	-4696
ney	-4697
▁At	-4698
äger	-4699
▁rim	-4700
▁Behöver	-4701
▁Italien	-4702
▁säsongen	-4703
▁Människor	-4704
kv	-4705
bud	-4706
råd	-4707
aner	-4708
▁Red	-4709
▁yng	-4710
▁välj	-4711
▁celler	-4712
▁säsong	-4713
▁hantering	-4714
▁internationellt	-4715
sor	-4716
way	-4717
▁Ir	-4718
▁vari	-4719
▁kamer	-4720
▁godkän	-4721
▁ansvarig	-4722
▁sommaren	-4723
▁uppfylla	-4724
▁myndigheten	-4725
mo	-4726
uc	-4727
edom	-4728
▁stre	-4729
▁ting	-4730
▁klassi	-4731
▁överför	-4732
▁behandlingen	-4733
sle	-4734
pten	-4735
▁Ter	-4736
▁ref	-4737
▁döden	-4738
▁sitta	-4739
▁valuta	-4740
▁minister	-4741
▁självständ	-4742
-1	-4743
AT	-4744
zon	-4745
part	-4746
▁mera	-4747
▁mörk	-4748
▁höger	-4749
▁premi	-4750
ställer	-4751
▁adress	-4752
▁terror	-4753
▁avgifter	-4754
▁administra	-4755
▁erfarenheter	-4756
▁infrastruktur	-4757
.1	-4758
tim	-4759
▁kil	-4760
▁sår	-4761
digare	-4762
rekven	-4763
▁synner	-4764
▁gränser	-4765
▁huvudet	-4766
▁kulture	-4767
▁otroligt	-4768
▁konsument	-4769
gas	-4770
rika	-4771
▁tex	-4772
skydd	-4773
▁Mina	-4774
▁avläg	-4775
▁inneh	-4776
▁System	-4777
▁naturligt	-4778
oxid	-4779
▁Mål	-4780
▁Arti	-4781
▁Char	-4782
▁Deras	-4783
▁lämnade	-4784
▁insatser	-4785
▁tekniker	-4786
OS	-4787
hone	-4788
▁döm	-4789
ledes	-4790
lings	-4791
▁unik	-4792
▁Medlem	-4793
▁nyckel	-4794
▁sträck	-4795
▁öppnar	-4796
▁exister	-4797
▁skapade	-4798
▁experter	-4799
▁medveten	-4800
▁definitivt	-4801
▁respektive	-4802
dri	-4803
ire	-4804
räm	-4805
itar	-4806
oren	-4807
▁imm	-4808
inska	-4809
▁rent	-4810
▁ladda	-4811
▁stads	-4812
▁timme	-4813
▁Island	-4814
▁Välkom	-4815
▁utmaning	-4816
▁byggnader	-4817
▁etc	-4818
▁dial	-4819
▁bevilj	-4820
▁verkligheten	-4821
▁Qu	-4822
skol	-4823
▁utl	-4824
undra	-4825
varen	-4826
▁rika	-4827
▁ökat	-4828
▁köpte	-4829
▁ramen	-4830
▁slutar	-4831
issionens	-4832
▁produktions	-4833
▁IN	-4834
▁ga	-4835
anna	-4836
▁Vol	-4837
▁väs	-4838
▁Black	-4839
▁Inget	-4840
▁invån	-4841
▁separ	-4842
▁tyska	-4843
▁ökade	-4844
ripande	-4845
▁England	-4846
▁landets	-4847
do	-4848
itel	-4849
slös	-4850
äget	-4851
▁Sim	-4852
▁Syd	-4853
istan	-4854
▁Slut	-4855
▁last	-4856
▁lopp	-4857
▁filoso	-4858
▁undrar	-4859
ike	-4860
▁is	-4861
▁föra	-4862
▁sist	-4863
▁stim	-4864
▁tand	-4865
▁finna	-4866
▁himlen	-4867
▁källor	-4868
▁ändringar	-4869
▁undersökning	-4870
▁bära	-4871
▁igår	-4872
▁vist	-4873
dighet	-4874
gången	-4875
serade	-4876
bilitet	-4877
eringar	-4878
▁mönster	-4879
▁Resultat	-4880
▁därefter	-4881
▁organisationen	-4882
mål	-4883
▁prova	-4884
▁diskus	-4885
▁global	-4886
▁syftar	-4887
▁ställning	-4888
kej	-4889
▁rök	-4890
▁Båda	-4891
▁Sven	-4892
▁utifrån	-4893
▁någonstans	-4894
▁revolution	-4895
ath	-4896
▁(3	-4897
ckar	-4898
▁nån	-4899
rikes	-4900
▁Pris	-4901
▁parker	-4902
▁inkomst	-4903
▁orsakar	-4904
▁samhälls	-4905
▁berättade	-4906
gn	-4907
öva	-4908
▁ert	-4909
▁Musi	-4910
handel	-4911
▁marker	-4912
▁bearbet	-4913
▁dagarna	-4914
▁ledning	-4915
▁ställer	-4916
ET	-4917
ley	-4918
öte	-4919
▁IP	-4920
▁kyr	-4921
▁back	-4922
▁mått	-4923
▁promenad	-4924
▁versionen	-4925
▁amerikansk	-4926
lu	-4927
▁Få	-4928
▁ku	-4929
▁Ham	-4930
ritet	-4931
ägare	-4932
▁laget	-4933
▁minim	-4934
▁sympt	-4935
ologisk	-4936
▁ansikte	-4937
au	-4938
ony	-4939
▁Don	-4940
▁Alex	-4941
▁fing	-4942
▁Endast	-4943
▁ökning	-4944
▁engagemang	-4945
iam	-4946
uth	-4947
▁Op	-4948
▁Bit	-4949
▁fan	-4950
sträck	-4951
▁möten	-4952
▁tjänsten	-4953
▁fon	-4954
iltig	-4955
▁blom	-4956
▁skäm	-4957
▁Något	-4958
▁ingred	-4959
▁riktiga	-4960
▁positiva	-4961
▁tillfälle	-4962
ric	-4963
▁vir	-4964
kraft	-4965
▁2004	-4966
▁territ	-4967
▁förläng	-4968
▁utforska	-4969
▁skillnaden	-4970
▁vetenskapliga	-4971
ensk	-4972
tten	-4973
▁Sal	-4974
▁sål	-4975
ssätt	-4976
▁fela	-4977
▁fest	-4978
▁prot	-4979
▁tänkt	-4980
agement	-4981
▁kropps	-4982
▁tillfr	-4983
▁databas	-4984
▁egendom	-4985
▁artiklar	-4986
▁länderna	-4987
▁religion	-4988
▁förlorade	-4989
▁gemensamt	-4990
▁32	-4991
coin	-4992
▁Tom	-4993
▁hyr	-4994
▁kart	-4995
▁radio	-4996
▁resan	-4997
program	-4998
▁format	-4999
▁betalar	-5000
▁positiv	-5001
▁riktlin	-5002
ms	-5003
das	-5004
▁höjd	-5005
▁pool	-5006
företag	-5007
▁aktivt	-5008
▁dåliga	-5009
▁ögonen	-5010
▁innehållet	-5011
▁tillgångar	-5012
gin	-5013
▁byta	-5014
▁exkl	-5015
▁symt	-5016
▁tren	-5017
▁vand	-5018
▁andel	-5019
▁säljer	-5020
▁söndag	-5021
▁respekt	-5022
ada	-5023
rien	-5024
▁Pal	-5025
rimin	-5026
▁2005	-5027
▁Natur	-5028
▁brand	-5029
▁infly	-5030
▁vägar	-5031
▁kunden	-5032
▁aktuella	-5033
▁försökte	-5034
▁leverera	-5035
▁betalnings	-5036
▁Sci	-5037
▁moder	-5038
▁strid	-5039
▁väsent	-5040
▁lämpliga	-5041
▁tusentals	-5042
▁befintliga	-5043
▁förtroende	-5044
▁innovation	-5045
rak	-5046
▁Dis	-5047
▁lunch	-5048
▁moral	-5049
▁väder	-5050
▁Öster	-5051
▁konsta	-5052
▁spelade	-5053
▁stranden	-5054
▁företagets	-5055
▁utbildnings	-5056
lan	-5057
▁Cor	-5058
▁Dock	-5059
▁Port	-5060
▁Tror	-5061
▁föret	-5062
▁recen	-5063
station	-5064
▁extremt	-5065
▁förstär	-5066
▁förvand	-5067
▁detaljer	-5068
▁pengarna	-5069
▁överensstäm	-5070
▁produktionen	-5071
ekar	-5072
essor	-5073
▁Forsk	-5074
▁stimul	-5075
▁kommunic	-5076
▁brittiska	-5077
▁synnerhet	-5078
▁försäkring	-5079
dex	-5080
esi	-5081
▁sent	-5082
etiska	-5083
▁mitten	-5084
▁vanlig	-5085
▁nationell	-5086
▁människorna	-5087
ej	-5088
▁ont	-5089
▁snö	-5090
▁orig	-5091
▁förel	-5092
▁letar	-5093
▁använt	-5094
▁iPhone	-5095
▁serien	-5096
▁omöjligt	-5097
201	-5098
vård	-5099
▁upph	-5100
repren	-5101
▁Group	-5102
▁guide	-5103
▁nivån	-5104
▁skull	-5105
▁bränsle	-5106
▁polisen	-5107
▁regionen	-5108
▁relativt	-5109
▁utvecklar	-5110
▁sammanhang	-5111
▁pe	-5112
orts	-5113
tika	-5114
▁reag	-5115
▁Europ	-5116
▁Saker	-5117
▁order	-5118
▁undan	-5119
ledning	-5120
▁nation	-5121
▁toppen	-5122
▁Twitter	-5123
▁rekommenda	-5124
▁MS	-5125
▁hä	-5126
vist	-5127
▁2000	-5128
▁Hade	-5129
▁helg	-5130
ington	-5131
▁Precis	-5132
▁datorn	-5133
▁kraven	-5134
▁befolkningen	-5135
ht	-5136
ycken	-5137
▁Inga	-5138
▁glada	-5139
▁doktor	-5140
▁kallad	-5141
▁upphör	-5142
▁däremot	-5143
▁beskriver	-5144
▁certifier	-5145
ask	-5146
▁lid	-5147
ativa	-5148
▁park	-5149
▁spän	-5150
▁bröst	-5151
▁gröna	-5152
▁dörren	-5153
▁föresl	-5154
▁inrätt	-5155
▁kompis	-5156
▁kurser	-5157
▁överle	-5158
▁frukost	-5159
▁motsvar	-5160
▁morgonen	-5161
▁reglerna	-5162
▁unionens	-5163
xis	-5164
▁75	-5165
▁ul	-5166
dels	-5167
▁191	-5168
▁fix	-5169
▁åld	-5170
jänst	-5171
▁Förs	-5172
ometer	-5173
▁påstå	-5174
▁annars	-5175
▁svarar	-5176
deringar	-5177
▁skiljer	-5178
▁förändras	-5179
läs	-5180
▁hj	-5181
roid	-5182
▁Får	-5183
▁når	-5184
▁tål	-5185
▁fysi	-5186
▁beakt	-5187
▁bedri	-5188
▁parter	-5189
▁support	-5190
▁hittills	-5191
▁skådespel	-5192
ool	-5193
agen	-5194
▁ade	-5195
▁mak	-5196
ander	-5197
ftigt	-5198
▁2003	-5199
ortera	-5200
▁möter	-5201
▁plast	-5202
▁boende	-5203
▁Business	-5204
▁förlorar	-5205
▁plattfor	-5206
▁kommentarer	-5207
▁professionella	-5208
▁ep	-5209
pack	-5210
▁art	-5211
▁vit	-5212
▁Rätt	-5213
▁teor	-5214
▁vann	-5215
▁givet	-5216
▁stoppa	-5217
zz	-5218
bef	-5219
▁Hela	-5220
▁sing	-5221
▁Super	-5222
▁shopp	-5223
▁ändras	-5224
▁negativa	-5225
▁upplever	-5226
▁programvara	-5227
▁tillverkare	-5228
här	-5229
oth	-5230
vna	-5231
gres	-5232
▁Asi	-5233
▁Hus	-5234
▁olja	-5235
▁väls	-5236
rummet	-5237
▁minns	-5238
▁tvätt	-5239
▁Indien	-5240
▁fattig	-5241
▁fysisk	-5242
▁dagliga	-5243
▁växande	-5244
▁lösningen	-5245
▁plötsligt	-5246
▁äktenskap	-5247
wa	-5248
säg	-5249
äls	-5250
▁mg	-5251
▁Bri	-5252
▁One	-5253
▁kyl	-5254
orgon	-5255
▁vind	-5256
tastro	-5257
▁expon	-5258
ekterna	-5259
▁handla	-5260
▁socker	-5261
▁status	-5262
▁drömmar	-5263
▁rättsliga	-5264
Den	-5265
bler	-5266
▁Nor	-5267
▁kat	-5268
▁äld	-5269
ekten	-5270
▁Coll	-5271
▁regn	-5272
▁vacc	-5273
▁åker	-5274
▁Bästa	-5275
▁tjänar	-5276
▁allvarliga	-5277
LL	-5278
ura	-5279
▁da	-5280
kopp	-5281
utat	-5282
▁eld	-5283
▁ked	-5284
▁sli	-5285
▁Tjän	-5286
▁mäss	-5287
mosfär	-5288
▁driva	-5289
▁enorm	-5290
▁högst	-5291
▁hörde	-5292
eringen	-5293
▁svarta	-5294
▁använde	-5295
▁frivill	-5296
▁utsläpp	-5297
NA	-5298
▁<	-5299
ube	-5300
▁kos	-5301
▁Mart	-5302
▁lagt	-5303
▁röda	-5304
▁sjön	-5305
▁appar	-5306
▁bryta	-5307
▁fakta	-5308
▁maxim	-5309
▁senast	-5310
▁förutom	-5311
▁Australien	-5312
ise	-5313
vir	-5314
inera	-5315
sområ	-5316
▁Glob	-5317
▁sänd	-5318
tation	-5319
▁mångf	-5320
▁kronor	-5321
▁priori	-5322
▁tydlig	-5323
▁allmänt	-5324
▁ändring	-5325
▁maskiner	-5326
▁särskild	-5327
▁bestämmer	-5328
ställningen	-5329
▁resultaten	-5330
▁Tor	-5331
risti	-5332
▁blomm	-5333
▁ledde	-5334
▁enheten	-5335
▁frekven	-5336
▁Tidigare	-5337
▁förlorat	-5338
▁deltagare	-5339
▁verklighet	-5340
ase	-5341
▁mm	-5342
▁obe	-5343
▁out	-5344
▁huru	-5345
▁märk	-5346
splats	-5347
▁finner	-5348
▁utsikt	-5349
▁studien	-5350
▁fängelse	-5351
▁huvudstad	-5352
▁integritet	-5353
▁fantastiskt	-5354
yp	-5355
ose	-5356
iden	-5357
▁dum	-5358
▁bruk	-5359
▁slog	-5360
meddel	-5361
▁Bland	-5362
▁Måste	-5363
▁policy	-5364
▁allmänheten	-5365
djur	-5366
gångs	-5367
råket	-5368
▁isol	-5369
▁Samma	-5370
▁drama	-5371
▁tvungen	-5372
▁grundades	-5373
▁identitet	-5374
▁kinesiska	-5375
▁Fo	-5376
▁Wi	-5377
▁Vin	-5378
▁löp	-5379
organ	-5380
▁iväg	-5381
▁huden	-5382
▁långsi	-5383
▁skolor	-5384
▁svensk	-5385
▁passion	-5386
▁företagen	-5387
▁0,	-5388
▁Än	-5389
▁urs	-5390
▁Änd	-5391
▁Hjäl	-5392
▁kast	-5393
atiska	-5394
▁motiver	-5395
▁ekonomin	-5396
▁framsteg	-5397
▁planerar	-5398
▁speciell	-5399
▁betydligt	-5400
▁förväntas	-5401
lor	-5402
nik	-5403
▁Int	-5404
▁Ditt	-5405
▁Folk	-5406
▁Inom	-5407
▁bilda	-5408
samling	-5409
▁avfall	-5410
▁finans	-5411
▁gäster	-5412
▁skratt	-5413
▁fokusera	-5414
▁kriterier	-5415
▁speciella	-5416
▁villkoren	-5417
▁människors	-5418
▁självklart	-5419
mö	-5420
ema	-5421
ädd	-5422
▁fj	-5423
▁lab	-5424
lande	-5425
▁flex	-5426
▁hind	-5427
sätter	-5428
▁skräm	-5429
▁hittat	-5430
▁hjärnan	-5431
▁italien	-5432
▁domstolen	-5433
▁uppmärksam	-5434
▁tillhandahåller	-5435
ots	-5436
berg	-5437
▁kod	-5438
jande	-5439
▁boll	-5440
▁stam	-5441
▁ster	-5442
ässiga	-5443
▁vända	-5444
▁middag	-5445
▁samord	-5446
▁talade	-5447
▁Världen	-5448
▁producera	-5449
OR	-5450
ned	-5451
▁??	-5452
▁Na	-5453
enten	-5454
abetes	-5455
▁källa	-5456
▁skuld	-5457
▁Tyvärr	-5458
▁stöder	-5459
liggande	-5460
▁besöker	-5461
▁sektorn	-5462
▁tilldel	-5463
▁bedömning	-5464
▁entrepren	-5465
▁Fam	-5466
tiker	-5467
▁Pres	-5468
▁mord	-5469
▁sova	-5470
▁minne	-5471
▁sluts	-5472
▁snabba	-5473
▁värsta	-5474
▁innehålla	-5475
▁restauranger	-5476
mon	-5477
▁sc	-5478
▁gyn	-5479
utera	-5480
▁Best	-5481
▁Plan	-5482
▁foto	-5483
▁James	-5484
▁mesta	-5485
▁utbil	-5486
▁värre	-5487
▁tillsyn	-5488
ställande	-5489
▁Därefter	-5490
▁undersöka	-5491
▁potentiella	-5492
ene	-5493
burg	-5494
ital	-5495
risk	-5496
▁Mad	-5497
▁con	-5498
ältet	-5499
▁2001	-5500
▁flas	-5501
▁dynam	-5502
▁dating	-5503
▁föredrar	-5504
▁vanligaste	-5505
▁«	-5506
lys	-5507
rant	-5508
▁jap	-5509
▁tru	-5510
▁gäst	-5511
▁spro	-5512
▁mjölk	-5513
▁total	-5514
▁budskap	-5515
▁ställen	-5516
▁Istället	-5517
▁begränsad	-5518
▁försiktig	-5519
▁universum	-5520
▁skillnader	-5521
börj	-5522
orth	-5523
▁flag	-5524
▁ideal	-5525
▁södra	-5526
ination	-5527
▁Histor	-5528
▁sekret	-5529
▁atmosfär	-5530
▁utsträck	-5531
▁beaktande	-5532
▁medicinska	-5533
ID	-5534
uk	-5535
▁(19	-5536
▁Sök	-5537
▁bem	-5538
angel	-5539
▁Comm	-5540
▁född	-5541
draget	-5542
▁gjorts	-5543
▁svaret	-5544
▁garanti	-5545
▁mängder	-5546
▁skickar	-5547
▁politisk	-5548
▁motsvarande	-5549
ugg	-5550
vrig	-5551
▁pil	-5552
stern	-5553
▁fien	-5554
▁live	-5555
▁skil	-5556
▁gilla	-5557
▁resor	-5558
▁aktier	-5559
▁invand	-5560
▁Författ	-5561
▁behandlar	-5562
▁rapporten	-5563
▁Information	-5564
sna	-5565
öja	-5566
iges	-5567
mord	-5568
tida	-5569
▁ack	-5570
▁bur	-5571
▁sil	-5572
▁låga	-5573
▁smak	-5574
▁tunn	-5575
äkerhet	-5576
▁Klicka	-5577
▁skydds	-5578
▁förbund	-5579
▁princip	-5580
▁student	-5581
▁definier	-5582
▁sekunder	-5583
▁uttalande	-5584
ano	-5585
▁Wh	-5586
iljö	-5587
sist	-5588
ågor	-5589
▁Bill	-5590
▁immun	-5591
▁heliga	-5592
▁stärka	-5593
▁Välkommen	-5594
▁förklarar	-5595
cks	-5596
mor	-5597
▁lör	-5598
▁tju	-5599
person	-5600
▁avser	-5601
▁dokum	-5602
▁korta	-5603
▁Master	-5604
▁ersätta	-5605
▁förtjän	-5606
▁Sveriges	-5607
▁kvalific	-5608
▁myndighet	-5609
▁Restauranger	-5610
ew	-5611
▁rygg	-5612
▁förlu	-5613
skriget	-5614
ael	-5615
cens	-5616
iker	-5617
▁köpt	-5618
artner	-5619
▁himmel	-5620
▁tyvärr	-5621
▁affärer	-5622
▁erbjudanden	-5623
▁33	-5624
gien	-5625
▁Ana	-5626
▁begå	-5627
▁minut	-5628
▁revolu	-5629
▁arbetsm	-5630
▁lämplig	-5631
▁åtkomst	-5632
▁närmaste	-5633
▁överensk	-5634
Du	-5635
▁EN	-5636
ange	-5637
inär	-5638
▁Mil	-5639
▁Wal	-5640
▁don	-5641
önstr	-5642
▁Institu	-5643
▁återhäm	-5644
▁lämpligt	-5645
▁säkerheten	-5646
▁komponenter	-5647
ance	-5648
nali	-5649
▁!!!	-5650
▁bio	-5651
▁göm	-5652
▁nio	-5653
▁ämne	-5654
▁poker	-5655
innande	-5656
▁institut	-5657
▁utsträckning	-5658
fen	-5659
▁Hall	-5660
▁bedr	-5661
▁länk	-5662
klarna	-5663
▁demon	-5664
▁urval	-5665
▁bilaga	-5666
▁flexib	-5667
▁perman	-5668
▁samlar	-5669
teringar	-5670
▁behovet	-5671
▁förpack	-5672
▁krafter	-5673
▁investera	-5674
▁förfaranden	-5675
ec	-5676
▁2-	-5677
▁ru	-5678
▁tak	-5679
▁Play	-5680
▁bror	-5681
▁sinne	-5682
▁roliga	-5683
▁varken	-5684
▁närvaro	-5685
▁premiär	-5686
▁skickas	-5687
▁Gi	-5688
▁PC	-5689
▁öl	-5690
skra	-5691
▁Dem	-5692
▁Nam	-5693
▁prä	-5694
▁Post	-5695
▁avsk	-5696
▁illa	-5697
▁lugn	-5698
▁vidta	-5699
▁Syftet	-5700
▁driver	-5701
▁marken	-5702
▁undervis	-5703
▁Företaget	-5704
oo	-5705
▁ns	-5706
▁nas	-5707
tiden	-5708
▁bedö	-5709
▁åtag	-5710
▁Maria	-5711
▁valde	-5712
▁Mellan	-5713
▁avgift	-5714
ektioner	-5715
▁studera	-5716
alisering	-5717
▁diskuter	-5718
▁medlemsstater	-5719
▁EC	-5720
barn	-5721
träd	-5722
▁bod	-5723
derat	-5724
▁Webb	-5725
▁Trans	-5726
▁varmt	-5727
iration	-5728
▁delvis	-5729
▁kommen	-5730
▁kostar	-5731
▁tyckte	-5732
▁mängden	-5733
▁territori	-5734
▁ersättning	-5735
ale	-5736
▁1:	-5737
▁3,	-5738
tell	-5739
▁400	-5740
ikali	-5741
okoll	-5742
▁ager	-5743
▁mötet	-5744
▁förvänt	-5745
▁potential	-5746
▁ekonomiskt	-5747
kall	-5748
▁Jan	-5749
▁väd	-5750
▁olag	-5751
föränd	-5752
▁agera	-5753
▁barns	-5754
▁gifta	-5755
▁sällan	-5756
▁vinner	-5757
▁Danmark	-5758
▁allting	-5759
▁startade	-5760
▁förbereda	-5761
▁tillfreds	-5762
▁Egy	-5763
▁räkna	-5764
▁Online	-5765
▁konfli	-5766
▁minsta	-5767
delsedag	-5768
▁Android	-5769
▁Israels	-5770
▁enklare	-5771
▁general	-5772
▁tekniken	-5773
▁statistik	-5774
▁användaren	-5775
ED	-5776
kad	-5777
vig	-5778
▁Hej	-5779
▁Köp	-5780
▁Stu	-5781
▁oer	-5782
▁Stre	-5783
▁förbi	-5784
▁grader	-5785
▁metall	-5786
▁riktig	-5787
▁chansen	-5788
▁rättfär	-5789
▁annonser	-5790
▁katastro	-5791
▁34	-5792
▁VI	-5793
vikt	-5794
▁Bas	-5795
▁Glöm	-5796
▁dött	-5797
▁fint	-5798
▁ända	-5799
ktiska	-5800
▁djupt	-5801
▁testa	-5802
▁typen	-5803
▁glömma	-5804
▁transp	-5805
▁uppstå	-5806
▁anpassa	-5807
▁erbjuds	-5808
▁förbjud	-5809
▁anslutning	-5810
▁berättelse	-5811
▁inställning	-5812
▁tillgängligt	-5813
kes	-5814
sav	-5815
▁exist	-5816
▁akadem	-5817
▁Michael	-5818
▁sanning	-5819
▁restaurang	-5820
▁efterfrågan	-5821
▁Can	-5822
▁säm	-5823
▁Bolag	-5824
▁brett	-5825
▁robot	-5826
▁lämnat	-5827
▁Medlems	-5828
▁förflut	-5829
▁kvinnan	-5830
▁funktionen	-5831
▁underlätta	-5832
ffer	-5833
▁Mag	-5834
▁fen	-5835
▁Data	-5836
▁Holl	-5837
▁stål	-5838
▁forum	-5839
▁jätte	-5840
▁lider	-5841
▁export	-5842
▁förmed	-5843
▁upprep	-5844
▁tillför	-5845
▁huruvida	-5846
▁informations	-5847
+]	-5848
▁[+]	-5849
▁lock	-5850
▁röra	-5851
▁arter	-5852
givande	-5853
▁hemmet	-5854
systemet	-5855
▁ansluta	-5856
▁besluta	-5857
▁orsaken	-5858
▁riktning	-5859
▁politiken	-5860
▁anläggningar	-5861
▁SS	-5862
▁sum	-5863
▁Turki	-5864
▁licen	-5865
öteborg	-5866
▁ansikt	-5867
▁växter	-5868
▁övrigt	-5869
▁rättvisa	-5870
▁fortsatte	-5871
▁godkännande	-5872
▁uppfattning	-5873
▁professionell	-5874
dad	-5875
uri	-5876
ängd	-5877
▁Mor	-5878
▁Grek	-5879
▁Muse	-5880
▁tull	-5881
adress	-5882
ästare	-5883
▁fulla	-5884
▁datorer	-5885
▁månaden	-5886
▁underbara	-5887
▁meddelanden	-5888
ep	-5889
plo	-5890
▁37	-5891
atin	-5892
sled	-5893
yrån	-5894
▁der	-5895
ftiga	-5896
grupp	-5897
ierna	-5898
▁grek	-5899
▁Angel	-5900
▁måndag	-5901
▁räcker	-5902
▁Problem	-5903
▁misstän	-5904
▁ansvarar	-5905
▁dagligen	-5906
▁kontinuer	-5907
▁motsvarar	-5908
▁utvecklats	-5909
."	-5910
tema	-5911
ämna	-5912
▁Rob	-5913
äkter	-5914
▁Verk	-5915
▁gift	-5916
▁livss	-5917
▁yngre	-5918
▁kämpar	-5919
▁protein	-5920
▁webbläs	-5921
▁relevant	-5922
▁acceptera	-5923
▁konkurren	-5924
▁föregående	-5925
▁generation	-5926
▁innovativa	-5927
▁effektivitet	-5928
▁förutsättning	-5929
rop	-5930
▁ax	-5931
atch	-5932
umer	-5933
alifor	-5934
istisk	-5935
▁seger	-5936
▁Alltså	-5937
▁Europe	-5938
▁hinder	-5939
▁medvetna	-5940
▁original	-5941
▁föreställ	-5942
▁avancerade	-5943
▁depression	-5944
ila	-5945
ior	-5946
jun	-5947
stav	-5948
tain	-5949
▁Fler	-5950
▁hjul	-5951
▁lita	-5952
▁varm	-5953
▁Norge	-5954
▁invol	-5955
▁Robert	-5956
▁syster	-5957
▁upptag	-5958
▁vision	-5959
▁komplet	-5960
▁spanska	-5961
▁journali	-5962
ous	-5963
komm	-5964
vägs	-5965
▁Ken	-5966
▁jäv	-5967
▁Tech	-5968
▁tråd	-5969
▁Office	-5970
▁Europas	-5971
▁exklusi	-5972
▁konstig	-5973
▁national	-5974
▁positivt	-5975
▁förtjänar	-5976
▁framgångsrika	-5977
▁🙂	-5978
▁gal	-5979
▁Bank	-5980
▁bryr	-5981
▁sorg	-5982
▁årets	-5983
▁Bibeln	-5984
▁besvik	-5985
▁botten	-5986
ferenser	-5987
▁förmågan	-5988
▁marknadsför	-5989
▁intresserade	-5990
ON	-5991
lid	-5992
▁48	-5993
iens	-5994
▁hål	-5995
▁nåt	-5996
kväll	-5997
▁Prof	-5998
▁Regi	-5999
▁dryg	-6000
▁olje	-6001
▁sikt	-6002
▁slår	-6003
skraft	-6004
▁yttre	-6005
▁Afrika	-6006
▁festiv	-6007
▁licens	-6008
▁rädsla	-6009
▁syssel	-6010
▁Amerika	-6011
▁gränsen	-6012
▁kreativ	-6013
▁Göteborg	-6014
▁trädgård	-6015
▁fullständigt	-6016
ege	-6017
hem	-6018
ican	-6019
skan	-6020
▁sky	-6021
▁Hand	-6022
▁horm	-6023
stiska	-6024
▁Flera	-6025
▁Hitta	-6026
▁dimen	-6027
▁läste	-6028
▁symtom	-6029
▁uppgra	-6030
▁arbetat	-6031
▁bestämt	-6032
▁funnits	-6033
▁symptom	-6034
▁utomhus	-6035
▁arbetade	-6036
▁samtycke	-6037
▁starkare	-6038
▁utnyttja	-6039
▁ingredien	-6040
öda	-6041
▁Cy	-6042
empl	-6043
eten	-6044
▁Visa	-6045
▁desto	-6046
▁utöka	-6047
▁Kanada	-6048
▁lämnas	-6049
▁reflek	-6050
▁tanken	-6051
▁tidiga	-6052
▁beslutet	-6053
▁kunderna	-6054
▁utseende	-6055
▁fokuserar	-6056
▁strategier	-6057
▁överföring	-6058
▁kostnaderna	-6059
RA	-6060
rera	-6061
skon	-6062
skor	-6063
▁Bok	-6064
▁yta	-6065
▁Både	-6066
▁förvå	-6067
▁krigs	-6068
▁parad	-6069
▁avsikt	-6070
▁juster	-6071
▁kamera	-6072
▁mobila	-6073
▁byggnad	-6074
▁klockan	-6075
▁juridiska	-6076
▁sjukdomen	-6077
▁underteck	-6078
▁Kommissionen	-6079
uts	-6080
▁4,	-6081
ware	-6082
juder	-6083
▁äkta	-6084
▁fiske	-6085
▁fylla	-6086
▁redig	-6087
▁knappt	-6088
▁räknas	-6089
▁samlas	-6090
▁signal	-6091
▁texten	-6092
▁berömda	-6093
▁aspekter	-6094
▁kemikali	-6095
▁passager	-6096
▁tillfällen	-6097
yra	-6098
éer	-6099
▁6.	-6100
onym	-6101
▁Ama	-6102
▁Pub	-6103
eland	-6104
melse	-6105
▁Wash	-6106
▁anord	-6107
▁ledam	-6108
▁Känner	-6109
▁anklag	-6110
▁billig	-6111
▁europe	-6112
▁examen	-6113
▁minuters	-6114
▁betalning	-6115
▁represent	-6116
▁befolkning	-6117
▁födelsedag	-6118
▁tillfället	-6119
▁tillämpning	-6120
▁överenskomm	-6121
▁tillverkning	-6122
▁upprätthålla	-6123
▁Sna	-6124
mering	-6125
▁Obser	-6126
▁livsl	-6127
▁norra	-6128
▁tonår	-6129
troller	-6130
▁operat	-6131
▁bekämpa	-6132
▁lyckades	-6133
▁partners	-6134
▁kvalitets	-6135
▁politiker	-6136
▁teknologi	-6137
▁kvaliteten	-6138
▁Tillsammans	-6139
▁investerings	-6140
▁rekommenderas	-6141
rör	-6142
▁150	-6143
▁Dri	-6144
iment	-6145
ränsa	-6146
▁liga	-6147
▁delas	-6148
▁Syrien	-6149
▁planen	-6150
▁stater	-6151
▁sträng	-6152
▁återkom	-6153
▁spelarna	-6154
▁ungdomar	-6155
▁fullständig	-6156
mid	-6157
▁com	-6158
▁trå	-6159
▁Thom	-6160
▁däck	-6161
▁etik	-6162
använd	-6163
▁aller	-6164
terings	-6165
▁Casino	-6166
staterna	-6167
▁flickor	-6168
▁teknisk	-6169
▁diskutera	-6170
▁förekommer	-6171
br	-6172
yal	-6173
lats	-6174
ppna	-6175
▁Pet	-6176
▁nom	-6177
▁Home	-6178
▁advo	-6179
▁Huvud	-6180
▁Obama	-6181
ffektiv	-6182
▁förbin	-6183
▁normala	-6184
▁effekten	-6185
▁introduc	-6186
▁rörelser	-6187
▁spendera	-6188
▁klassific	-6189
bon	-6190
▁99	-6191
▁ST	-6192
over	-6193
▁bin	-6194
arens	-6195
▁bröd	-6196
▁plus	-6197
▁vila	-6198
▁Herre	-6199
▁tacka	-6200
▁vuxen	-6201
verkade	-6202
▁Hennes	-6203
▁praxis	-6204
▁lärande	-6205
▁beskrivs	-6206
▁föreslår	-6207
atu	-6208
▁65	-6209
▁7.	-6210
nivå	-6211
▁Lag	-6212
ifier	-6213
ktade	-6214
▁Iran	-6215
▁rull	-6216
▁lärde	-6217
▁ämnet	-6218
▁makten	-6219
▁ordent	-6220
▁Särskil	-6221
▁globalt	-6222
▁invånare	-6223
▁kommittén	-6224
▁Management	-6225
▁kategorier	-6226
▁investerare	-6227
▁övergripande	-6228
▁transaktioner	-6229
PS	-6230
▁Tid	-6231
▁fara	-6232
▁ringa	-6233
▁ljuset	-6234
▁butiker	-6235
▁kapitel	-6236
▁språket	-6237
▁diabetes	-6238
▁viktigare	-6239
▁allvarligt	-6240
▁2:	-6241
▁95	-6242
▁Ry	-6243
▁ap	-6244
exik	-6245
▁påm	-6246
▁spr	-6247
▁vät	-6248
telef	-6249
▁Stra	-6250
▁noga	-6251
▁sand	-6252
dioxid	-6253
▁maten	-6254
▁formen	-6255
▁implem	-6256
▁äldsta	-6257
▁Turkiet	-6258
▁förvärv	-6259
▁samling	-6260
▁skönhet	-6261
▁påverkas	-6262
▁AI	-6263
anti	-6264
tgär	-6265
varu	-6266
juter	-6267
åriga	-6268
▁Matt	-6269
▁anta	-6270
▁pröv	-6271
▁real	-6272
jukdom	-6273
amerika	-6274
▁center	-6275
▁handen	-6276
▁nyhets	-6277
länderna	-6278
▁händerna	-6279
▁kostnads	-6280
▁Washington	-6281
▁användarna	-6282
▁tillförlit	-6283
BA	-6284
aby	-6285
arta	-6286
troll	-6287
▁Ofta	-6288
▁ladd	-6289
▁mani	-6290
▁Kolla	-6291
▁hämta	-6292
▁släkt	-6293
▁flicka	-6294
▁oerhör	-6295
▁skaffa	-6296
▁William	-6297
▁känslan	-6298
▁socialt	-6299
▁återupp	-6300
▁förvänta	-6301
▁förflutna	-6302
▁kvinnliga	-6303
▁professor	-6304
▁kommunicera	-6305
▁transporter	-6306
weiz	-6307
▁Eli	-6308
serad	-6309
▁rund	-6310
▁repub	-6311
▁aktiver	-6312
▁startar	-6313
▁vinster	-6314
▁informer	-6315
▁övervakning	-6316
▁försäljnings	-6317
åp	-6318
ipp	-6319
ski	-6320
back	-6321
tima	-6322
▁Lad	-6323
▁Pra	-6324
vapen	-6325
▁Dina	-6326
▁belö	-6327
▁tolk	-6328
▁fatta	-6329
▁virtu	-6330
▁överl	-6331
▁auktor	-6332
▁sekund	-6333
▁släppa	-6334
▁granska	-6335
▁inbland	-6336
▁American	-6337
▁arbetare	-6338
▁överleva	-6339
▁varumärke	-6340
▁förklaring	-6341
▁installera	-6342
▁inställningar	-6343
OM	-6344
cin	-6345
oms	-6346
hovs	-6347
värm	-6348
▁HER	-6349
▁Lib	-6350
▁Jose	-6351
▁avse	-6352
▁fans	-6353
▁havs	-6354
▁sens	-6355
▁seri	-6356
▁Gener	-6357
▁human	-6358
▁retur	-6359
▁Martin	-6360
bildning	-6361
▁således	-6362
▁tillämpa	-6363
▁deltagande	-6364
▁fastställa	-6365
▁produkterna	-6366
▁förordningen	-6367
▁1-	-6368
▁PS	-6369
iler	-6370
inar	-6371
▁väv	-6372
▁Rich	-6373
▁tron	-6374
ktions	-6375
▁gudom	-6376
▁gälla	-6377
▁lösen	-6378
▁pågår	-6379
▁stånd	-6380
▁bordet	-6381
▁beställ	-6382
▁farliga	-6383
▁naturlig	-6384
▁demokrati	-6385
▁diskrimin	-6386
▁produktiv	-6387
ua	-6388
ical	-6389
▁Sex	-6390
tider	-6391
▁Inne	-6392
▁ange	-6393
▁mini	-6394
▁tung	-6395
▁inbeg	-6396
▁batteri	-6397
▁hotellet	-6398
▁återförs	-6399
▁rekommendera	-6400
▁instruktioner	-6401
olf	-6402
▁55	-6403
▁Pe	-6404
▁oly	-6405
gress	-6406
▁2002	-6407
▁Flyg	-6408
▁West	-6409
▁blad	-6410
▁ndet	-6411
▁stig	-6412
▁urin	-6413
▁bevar	-6414
▁Försök	-6415
▁förvir	-6416
▁lyssnar	-6417
▁punkter	-6418
vetenskap	-6419
▁bilderna	-6420
▁beskrivning	-6421
▁upplevelser	-6422
▁kommersiella	-6423
▁institutioner	-6424
En	-6425
▁39	-6426
▁Åh	-6427
ägna	-6428
▁tår	-6429
▁årh	-6430
ätter	-6431
▁Adam	-6432
▁befri	-6433
iserade	-6434
▁expert	-6435
▁luften	-6436
▁Älskar	-6437
▁tenderar	-6438
▁kostnaden	-6439
▁religiösa	-6440
▁undervisning	-6441
bi	-6442
fart	-6443
▁fyr	-6444
▁sor	-6445
▁okej	-6446
▁domän	-6447
▁ligga	-6448
▁låtar	-6449
▁mörka	-6450
alisera	-6451
▁termin	-6452
▁skärmen	-6453
▁verklig	-6454
betalning	-6455
▁referens	-6456
▁protokoll	-6457
▁inflytande	-6458
uel	-6459
▁ot	-6460
ider	-6461
skär	-6462
▁War	-6463
assad	-6464
▁arab	-6465
▁ingå	-6466
▁Asien	-6467
▁hatar	-6468
▁satte	-6469
ättning	-6470
▁helvet	-6471
▁normal	-6472
▁plocka	-6473
▁täcker	-6474
▁lycklig	-6475
▁påverkan	-6476
▁spelaren	-6477
▁nödvändig	-6478
▁investering	-6479
▁bestämmelserna	-6480
jöd	-6481
fort	-6482
▁Kär	-6483
▁Sec	-6484
▁omd	-6485
▁diet	-6486
▁frid	-6487
▁hyra	-6488
▁make	-6489
asinon	-6490
giften	-6491
▁kille	-6492
▁strål	-6493
▁Design	-6494
▁School	-6495
▁palest	-6496
▁vunnit	-6497
▁ångest	-6498
▁Artikel	-6499
▁avsedda	-6500
▁politiskt	-6501
▁praktiska	-6502
▁uppgifterna	-6503
▁värderingar	-6504
De	-6505
▁®	-6506
▁→	-6507
unn	-6508
▁38	-6509
▁OS	-6510
hail	-6511
lapp	-6512
uren	-6513
▁Bay	-6514
▁Jäm	-6515
▁Max	-6516
▁dik	-6517
▁mej	-6518
cenni	-6519
litet	-6520
rater	-6521
serat	-6522
språk	-6523
▁kors	-6524
▁Nästan	-6525
▁länkar	-6526
▁läsare	-6527
▁utbyte	-6528
▁Bitcoin	-6529
▁sökande	-6530
▁möjliggör	-6531
▁utomlands	-6532
▁Självklart	-6533
▁riktlinjer	-6534
AC	-6535
IT	-6536
▁Ag	-6537
▁smi	-6538
rycka	-6539
▁Anna	-6540
▁irri	-6541
cessen	-6542
skande	-6543
▁avdel	-6544
▁drygt	-6545
▁femte	-6546
▁modul	-6547
▁orden	-6548
▁sanna	-6549
▁besvär	-6550
▁svårare	-6551
▁användes	-6552
▁varierar	-6553
▁förväntar	-6554
▁diskussion	-6555
▁q	-6556
▁Rel	-6557
▁Tek	-6558
▁rub	-6559
alism	-6560
unden	-6561
▁kryp	-6562
▁rymd	-6563
▁show	-6564
▁Ytter	-6565
▁kräva	-6566
▁pålit	-6567
önstret	-6568
▁George	-6569
veckling	-6570
▁koncern	-6571
▁eleverna	-6572
▁flygplan	-6573
▁militära	-6574
▁betraktas	-6575
▁ledarskap	-6576
▁klimatföränd	-6577
CA	-6578
öll	-6579
▁Ke	-6580
▁Cam	-6581
▁Far	-6582
konto	-6583
oster	-6584
▁nerv	-6585
▁onda	-6586
▁Speci	-6587
▁Sådan	-6588
▁nyfik	-6589
▁hänvis	-6590
▁biljett	-6591
▁blommor	-6592
▁decenni	-6593
▁komplic	-6594
▁lyckats	-6595
▁inverkan	-6596
▁muslimer	-6597
▁kilometer	-6598
▁nätverket	-6599
▁fördelarna	-6600
▁försvinner	-6601
▁människans	-6602
▁applikationer	-6603
▁Medlemsstaterna	-6604
urs	-6605
▁Mu	-6606
▁us	-6607
igar	-6608
▁Led	-6609
▁röd	-6610
brott	-6611
varan	-6612
▁mäta	-6613
▁mött	-6614
▁bebis	-6615
▁läget	-6616
▁skjut	-6617
▁virus	-6618
▁helhet	-6619
▁saknas	-6620
▁smarta	-6621
▁sovrum	-6622
▁sängen	-6623
▁Projekt	-6624
▁vardags	-6625
▁livsstil	-6626
▁operativ	-6627
▁översätt	-6628
▁fattigdom	-6629
▁utländska	-6630
▁effekterna	-6631
▁försäkrings	-6632
▁förutsättningar	-6633
▁pi	-6634
▁Kun	-6635
värda	-6636
▁100%	-6637
▁Lite	-6638
▁bist	-6639
frågas	-6640
▁House	-6641
▁byggt	-6642
▁märke	-6643
▁rekry	-6644
▁växte	-6645
▁Christ	-6646
▁förare	-6647
▁gjorda	-6648
▁muslim	-6649
▁slutade	-6650
▁arbetstag	-6651
▁arkitektur	-6652
▁jämförelse	-6653
▁kommunikations	-6654
deo	-6655
osi	-6656
cipl	-6657
änns	-6658
▁Bal	-6659
▁Lik	-6660
▁anl	-6661
▁arv	-6662
▁lyx	-6663
▁gåva	-6664
▁träna	-6665
ulation	-6666
▁begära	-6667
▁hävdar	-6668
▁väster	-6669
▁fattiga	-6670
▁kampanj	-6671
▁skyddar	-6672
▁tävling	-6673
▁kategori	-6674
▁reaktion	-6675
▁shopping	-6676
▁stjärnor	-6677
▁koldioxid	-6678
▁Föregående	-6679
gj	-6680
ls	-6681
ze	-6682
bes	-6683
▁Bre	-6684
▁Bur	-6685
▁Läg	-6686
▁rop	-6687
▁you	-6688
▁klän	-6689
▁drivs	-6690
▁styra	-6691
▁Street	-6692
▁skapas	-6693
▁strand	-6694
▁förhopp	-6695
▁kristen	-6696
▁separat	-6697
▁ansvariga	-6698
▁samhällen	-6699
▁standarder	-6700
▁(4	-6701
gick	-6702
▁Bud	-6703
▁Kul	-6704
▁ers	-6705
▁mår	-6706
▁pop	-6707
▁syd	-6708
▁Herr	-6709
▁Sing	-6710
▁Tour	-6711
▁föll	-6712
äkring	-6713
▁skärm	-6714
▁utval	-6715
▁Barcel	-6716
▁Frågan	-6717
▁biverk	-6718
▁Observera	-6719
▁hastighet	-6720
▁|	-6721
cil	-6722
▁gu	-6723
ford	-6724
lösa	-6725
ness	-6726
▁192	-6727
▁Fun	-6728
▁Pat	-6729
▁söt	-6730
▁Fakt	-6731
▁leta	-6732
▁helgen	-6733
▁kandida	-6734
▁öppnade	-6735
▁involver	-6736
▁noggrant	-6737
▁uppmanar	-6738
▁förfarande	-6739
▁representerar	-6740
bär	-6741
jet	-6742
▁3:	-6743
▁VD	-6744
▁Che	-6745
▁Hos	-6746
▁högk	-6747
▁tema	-6748
orator	-6749
rister	-6750
▁inkom	-6751
▁slott	-6752
▁täcka	-6753
derande	-6754
▁exempl	-6755
▁förväg	-6756
▁hästar	-6757
▁stjärn	-6758
▁årliga	-6759
▁stannar	-6760
▁upphovs	-6761
▁kulturella	-6762
▁mobiltelef	-6763
▁begränsningar	-6764
ii	-6765
my	-6766
yo	-6767
ridge	-6768
▁camp	-6769
▁tolv	-6770
▁följde	-6771
▁hindra	-6772
▁kampen	-6773
▁muskel	-6774
▁partiet	-6775
▁träffar	-6776
▁slutligen	-6777
▁accepterar	-6778
▁yr	-6779
idat	-6780
sivt	-6781
▁Ali	-6782
▁Bli	-6783
▁Fot	-6784
▁God	-6785
▁fack	-6786
▁fäst	-6787
▁kläd	-6788
▁rock	-6789
▁frisk	-6790
▁skott	-6791
▁unikt	-6792
▁åstad	-6793
hållande	-6794
▁föroren	-6795
▁stadens	-6796
▁uppvärm	-6797
▁åsikter	-6798
▁rörelsen	-6799
▁underbar	-6800
▁uppsättning	-6801
▁behandlingar	-6802
på	-6803
ogg	-6804
udi	-6805
rann	-6806
▁lät	-6807
▁kust	-6808
▁nack	-6809
▁para	-6810
▁reduc	-6811
▁veter	-6812
▁Amazon	-6813
▁deltar	-6814
▁dialog	-6815
▁sammans	-6816
▁vitamin	-6817
▁mångfald	-6818
▁tidpunkt	-6819
▁bakterier	-6820
▁producerar	-6821
▁kommissionens	-6822
ago	-6823
▁Son	-6824
▁Tex	-6825
▁hom	-6826
▁hyp	-6827
eteck	-6828
ology	-6829
▁buss	-6830
ktivet	-6831
▁Green	-6832
▁Skapa	-6833
▁fånga	-6834
▁orsak	-6835
▁Faktum	-6836
▁klarar	-6837
▁utförs	-6838
▁ansvars	-6839
▁begränsa	-6840
▁bekräfta	-6841
▁lösenord	-6842
▁mänsklig	-6843
▁klassiska	-6844
▁materialet	-6845
▁42	-6846
usal	-6847
▁dvs	-6848
▁pul	-6849
istik	-6850
pport	-6851
splan	-6852
▁moln	-6853
vatten	-6854
▁andas	-6855
▁bodde	-6856
▁inser	-6857
▁längd	-6858
▁låten	-6859
▁snygg	-6860
▁titel	-6861
▁våren	-6862
▁ombord	-6863
▁sprida	-6864
▁Egypten	-6865
▁Kvinnor	-6866
▁eftermid	-6867
▁grundval	-6868
▁medicinsk	-6869
▁erbjudande	-6870
▁berättelser	-6871
▁elektroniska	-6872
▁revolutionen	-6873
In	-6874
mp	-6875
ega	-6876
yer	-6877
juka	-6878
unds	-6879
▁600	-6880
▁Rad	-6881
▁kni	-6882
▁Besök	-6883
▁Grund	-6884
▁butik	-6885
▁explo	-6886
▁fabri	-6887
▁floden	-6888
▁import	-6889
▁insats	-6890
▁rengör	-6891
sprogram	-6892
▁bloggen	-6893
▁fysiskt	-6894
▁tacksam	-6895
▁utrikes	-6896
▁vackert	-6897
▁kreativa	-6898
▁statliga	-6899
▁minskning	-6900
▁versioner	-6901
▁varumärken	-6902
DA	-6903
PA	-6904
wn	-6905
aks	-6906
syl	-6907
▁5,	-6908
amod	-6909
ones	-6910
▁Cap	-6911
▁ism	-6912
▁skö	-6913
▁HERR	-6914
▁rena	-6915
▁absor	-6916
▁ering	-6917
▁färre	-6918
▁solda	-6919
▁avgöra	-6920
▁fredag	-6921
▁konsul	-6922
▁kändes	-6923
▁matema	-6924
▁vikten	-6925
▁fenomen	-6926
▁förblir	-6927
▁gjordes	-6928
▁kameran	-6929
▁oerhört	-6930
▁sällsyn	-6931
▁innefatt	-6932
▁missbruk	-6933
▁sträcker	-6934
▁återförsälj	-6935
▁verksamheter	-6936
▁förväntningar	-6937
bio	-6938
gor	-6939
▁up	-6940
▁Ung	-6941
▁ori	-6942
oklad	-6943
ännen	-6944
▁nämn	-6945
▁åkte	-6946
sdagen	-6947
▁belys	-6948
▁hjärn	-6949
▁hållet	-6950
▁Däremot	-6951
▁erkänna	-6952
▁försökt	-6953
▁kemiska	-6954
▁miljöer	-6955
▁siffror	-6956
▁Grekland	-6957
▁bestämde	-6958
▁designer	-6959
▁formulär	-6960
▁komplett	-6961
▁existerar	-6962
▁planering	-6963
▁artiklarna	-6964
▁intressanta	-6965
IG	-6966
IV	-6967
bor	-6968
eta	-6969
▁dyg	-6970
given	-6971
räder	-6972
▁Inve	-6973
▁hall	-6974
▁salt	-6975
▁Konta	-6976
▁influ	-6977
▁hamnar	-6978
▁resurs	-6979
▁spelat	-6980
▁ursäkt	-6981
▁Exempel	-6982
▁flyttade	-6983
▁förebygg	-6984
▁hanterar	-6985
▁innebära	-6986
▁byggnaden	-6987
▁positioner	-6988
▁förvaltning	-6989
▁personlighet	-6990
▁världskriget	-6991
▁mänskligheten	-6992
day	-6993
kod	-6994
urt	-6995
▁Soci	-6996
▁inse	-6997
▁svär	-6998
▁torr	-6999
▁glömt	-7000
▁råder	-7001
punkter	-7002
▁Global	-7003
▁utöver	-7004
▁planera	-7005
▁argument	-7006
▁berättig	-7007
▁förekomm	-7008
▁register	-7009
▁bibliotek	-7010
▁skyldigheter	-7011
▁undersökningar	-7012
ac	-7013
gg	-7014
▁64	-7015
▁Tan	-7016
▁ond	-7017
avare	-7018
lades	-7019
▁King	-7020
▁driv	-7021
▁Börja	-7022
▁Neder	-7023
▁Power	-7024
▁navig	-7025
▁teori	-7026
lösning	-7027
▁israel	-7028
▁krimin	-7029
▁möbler	-7030
▁teater	-7031
▁lidande	-7032
▁uppfölj	-7033
▁tjänstem	-7034
▁välkomna	-7035
▁samarbetet	-7036
▁sammanfatt	-7037
▁tillräcklig	-7038
10	-7039
EC	-7040
▁Af	-7041
▁CD	-7042
▁Day	-7043
▁Fem	-7044
▁Ing	-7045
▁sko	-7046
▁Lägg	-7047
▁terr	-7048
▁Livet	-7049
▁Organ	-7050
▁klipp	-7051
▁panel	-7052
▁rösta	-7053
▁associ	-7054
▁fältet	-7055
▁besluts	-7056
▁kraftigt	-7057
▁självmord	-7058
▁begränsade	-7059
▁svårigheter	-7060
▁konsekvenser	-7061
ww	-7062
▁́	-7063
bra	-7064
ino	-7065
mot	-7066
▁10.	-7067
▁Fär	-7068
▁Sky	-7069
▁hed	-7070
▁trö	-7071
▁1999	-7072
▁falla	-7073
▁kasta	-7074
itterat	-7075
▁ikväll	-7076
▁inspel	-7077
▁hjälpte	-7078
▁metoden	-7079
▁kreditkort	-7080
malt	-7081
▁Beg	-7082
▁Spa	-7083
▁bre	-7084
▁vag	-7085
givna	-7086
▁Irak	-7087
▁sked	-7088
usalem	-7089
▁kalen	-7090
ligator	-7091
▁Arbets	-7092
▁Bilder	-7093
▁hjärna	-7094
▁vintern	-7095
▁vänskap	-7096
▁sexuella	-7097
▁Jerusalem	-7098
▁specialis	-7099
▁fastställs	-7100
rog	-7101
ugh	-7102
alax	-7103
fikt	-7104
inne	-7105
omål	-7106
sorg	-7107
▁kir	-7108
▁loj	-7109
▁Juli	-7110
▁fira	-7111
ssning	-7112
▁Visst	-7113
▁gatan	-7114
▁gator	-7115
▁skala	-7116
▁inflam	-7117
▁röster	-7118
▁stänga	-7119
▁hälsosam	-7120
▁övervaka	-7121
▁livsmedels	-7122
▁universitetet	-7123
▁PR	-7124
▁Out	-7125
▁Rock	-7126
cancer	-7127
▁Ander	-7128
▁flyga	-7129
▁gjord	-7130
▁lovar	-7131
terande	-7132
▁Daniel	-7133
▁Kärlek	-7134
▁giltig	-7135
▁tester	-7136
▁Kalifor	-7137
▁hjärtan	-7138
▁springa	-7139
▁modellen	-7140
▁träffade	-7141
▁levererar	-7142
▁flygplatsen	-7143
▁gemenskapen	-7144
▁genomsnittliga	-7145
hl	-7146
box	-7147
▁):	-7148
▁5-	-7149
▁;)	-7150
ette	-7151
etts	-7152
itch	-7153
rest	-7154
▁Ord	-7155
▁Sil	-7156
▁Bygg	-7157
▁Unit	-7158
▁gäng	-7159
▁Allah	-7160
▁antar	-7161
▁figur	-7162
▁förbru	-7163
▁osäker	-7164
▁spelen	-7165
▁sönder	-7166
▁åtgärd	-7167
▁aktörer	-7168
▁tålamod	-7169
▁kongress	-7170
▁uttrycka	-7171
▁underrätt	-7172
▁återvända	-7173
▁framgångsrik	-7174
dem	-7175
vak	-7176
▁8.	-7177
lass	-7178
▁Pay	-7179
▁Rep	-7180
skrid	-7181
▁rött	-7182
▁Målet	-7183
▁hålls	-7184
▁skepp	-7185
▁stött	-7186
▁Övrig	-7187
▁Jorden	-7188
▁kontra	-7189
▁minnes	-7190
▁spelas	-7191
▁betalas	-7192
▁konkret	-7193
▁Följande	-7194
▁ambassad	-7195
▁fruktans	-7196
▁hållbara	-7197
▁styrelse	-7198
▁vistelse	-7199
▁Barcelona	-7200
▁månaderna	-7201
▁samarbeta	-7202
▁utvecklat	-7203
▁misslyckas	-7204
▁Ytterligare	-7205
▁inspiration	-7206
▁konventionen	-7207
vic	-7208
▁Hol	-7209
▁Hum	-7210
▁Tal	-7211
livet	-7212
▁1000	-7213
▁Live	-7214
▁legi	-7215
▁noll	-7216
▁North	-7217
▁föreb	-7218
▁smärt	-7219
▁Museum	-7220
▁banker	-7221
▁dejting	-7222
▁drabbas	-7223
▁staterna	-7224
▁upptäckt	-7225
▁permanent	-7226
▁italienska	-7227
▁alternativet	-7228
fy	-7229
bla	-7230
röst	-7231
▁Las	-7232
▁flö	-7233
arnas	-7234
▁Hitt	-7235
▁Swed	-7236
▁pojk	-7237
▁uttr	-7238
sation	-7239
▁beton	-7240
▁inred	-7241
▁bryter	-7242
▁förvar	-7243
▁lagras	-7244
▁utgång	-7245
▁flyttar	-7246
▁imorgon	-7247
▁detsamma	-7248
▁förstöra	-7249
▁århundra	-7250
▁experiment	-7251
▁garanterar	-7252
▁personligt	-7253
▁anledningen	-7254
▁Fi	-7255
oris	-7256
▁190	-7257
▁box	-7258
korea	-7259
▁Wall	-7260
▁ener	-7261
▁inci	-7262
▁tuff	-7263
ttning	-7264
▁aning	-7265
▁foton	-7266
▁varia	-7267
▁Social	-7268
▁sorter	-7269
▁högskol	-7270
▁analyser	-7271
▁parterna	-7272
▁reaktioner	-7273
▁genomförande	-7274
▁individuella	-7275
EA	-7276
god	-7277
hag	-7278
öjd	-7279
bjud	-7280
onde	-7281
▁inj	-7282
varna	-7283
▁Phil	-7284
▁takt	-7285
▁älsk	-7286
period	-7287
▁Sport	-7288
▁bistå	-7289
▁lätta	-7290
▁tycks	-7291
onerande	-7292
▁försvars	-7293
▁kvartalet	-7294
▁eventuellt	-7295
▁konstruktion	-7296
äld	-7297
▁1)	-7298
▁CB	-7299
anen	-7300
litt	-7301
slan	-7302
annes	-7303
issör	-7304
phone	-7305
▁(201	-7306
▁Jord	-7307
▁gren	-7308
▁jakt	-7309
▁nått	-7310
▁utgå	-7311
▁väck	-7312
▁ytan	-7313
nummer	-7314
▁Konst	-7315
▁kyrka	-7316
▁köket	-7317
▁målen	-7318
▁bandet	-7319
▁steget	-7320
▁använts	-7321
▁evangel	-7322
▁tydliga	-7323
▁bedräger	-7324
▁frågorna	-7325
▁komplexa	-7326
▁kontakter	-7327
▁problemen	-7328
▁intelligens	-7329
EL	-7330
els	-7331
▁Ass	-7332
▁Bru	-7333
▁Ock	-7334
▁osk	-7335
▁Samt	-7336
▁Grand	-7337
▁Harry	-7338
▁Hjälp	-7339
▁Skriv	-7340
▁söder	-7341
▁HERREN	-7342
▁inbygg	-7343
▁vädret	-7344
▁kroppar	-7345
▁renover	-7346
▁tittade	-7347
▁utnyttj	-7348
▁begränsat	-7349
▁regionala	-7350
▁tradition	-7351
▁ordentligt	-7352
▁utvecklade	-7353
▁förbättring	-7354
▁författaren	-7355
▁konsumenter	-7356
▁förebyggande	-7357
▁rättigheterna	-7358
eld	-7359
nis	-7360
▁3-	-7361
▁85	-7362
▁UN	-7363
juda	-7364
▁Lou	-7365
erare	-7366
stisk	-7367
▁Test	-7368
▁elim	-7369
▁förr	-7370
▁hell	-7371
▁fasta	-7372
▁signa	-7373
▁avslut	-7374
▁männen	-7375
▁skogen	-7376
▁titeln	-7377
▁tjejer	-7378
▁brukade	-7379
▁session	-7380
▁konstigt	-7381
▁pågående	-7382
▁specifik	-7383
▁återställa	-7384
▁ursprungligen	-7385
gl	-7386
uma	-7387
fekt	-7388
▁äga	-7389
vända	-7390
barhet	-7391
▁Titta	-7392
▁antog	-7393
▁dekor	-7394
▁kämpa	-7395
itation	-7396
▁Thomas	-7397
▁förbud	-7398
▁förlåt	-7399
▁hållas	-7400
▁rollen	-7401
inerande	-7402
▁bredvid	-7403
▁redovis	-7404
▁strävar	-7405
▁grekiska	-7406
▁garantera	-7407
▁styrelsen	-7408
▁förbättrar	-7409
▁förändrats	-7410
▁offentligt	-7411
▁behandlings	-7412
▁traditionell	-7413
▁tillämpningen	-7414
Vad	-7415
▁(5	-7416
▁AS	-7417
▁Män	-7418
▁fir	-7419
▁nåd	-7420
fören	-7421
▁Väst	-7422
▁byrå	-7423
▁jack	-7424
▁neut	-7425
▁togs	-7426
▁Fören	-7427
▁tunga	-7428
▁uppst	-7429
▁hustru	-7430
▁minnen	-7431
▁omsorg	-7432
▁åldern	-7433
▁Förenta	-7434
▁discipl	-7435
▁överträ	-7436
▁Programmet	-7437
▁direktivet	-7438
▁graviditet	-7439
2]	-7440
fon	-7441
tern	-7442
▁Exp	-7443
▁Mel	-7444
▁golf	-7445
▁lett	-7446
resten	-7447
▁följt	-7448
▁krets	-7449
▁liber	-7450
▁nöjda	-7451
▁resen	-7452
▁Vatten	-7453
▁bedöma	-7454
▁blodet	-7455
▁fötter	-7456
▁hunden	-7457
▁stycken	-7458
▁förening	-7459
▁områdena	-7460
▁priserna	-7461
▁trygghet	-7462
▁varelser	-7463
▁infektion	-7464
▁specifikt	-7465
▁tillväxten	-7466
▁betalningar	-7467
▁passagerare	-7468
▁presenterar	-7469
▁tillämpliga	-7470
fun	-7471
önt	-7472
bile	-7473
ders	-7474
▁bom	-7475
aller	-7476
▁Kort	-7477
▁kallt	-7478
tgärder	-7479
▁linjen	-7480
▁forskar	-7481
▁orsaker	-7482
▁penning	-7483
ställdhet	-7484
▁laborator	-7485
▁konsumenterna	-7486
▁underhållning	-7487
▁Lå	-7488
ague	-7489
▁Wil	-7490
ction	-7491
▁Carl	-7492
▁Vita	-7493
▁förn	-7494
▁hamn	-7495
andard	-7496
ighets	-7497
▁betyg	-7498
▁judar	-7499
▁verka	-7500
▁bröder	-7501
▁friska	-7502
▁tagits	-7503
▁Richard	-7504
▁dricker	-7505
▁troende	-7506
▁perioder	-7507
▁storleken	-7508
▁biverkningar	-7509
add	-7510
▁44	-7511
▁Mr	-7512
fors	-7513
sbyg	-7514
vall	-7515
årig	-7516
▁DNA	-7517
▁III	-7518
▁leg	-7519
▁obj	-7520
rätts	-7521
▁rese	-7522
▁sper	-7523
slaget	-7524
▁denne	-7525
▁hårda	-7526
▁katal	-7527
▁molek	-7528
▁vänder	-7529
▁Svenska	-7530
▁bostads	-7531
▁geograf	-7532
▁känslom	-7533
▁träffas	-7534
▁blandning	-7535
▁tidningen	-7536
CC	-7537
cha	-7538
ico	-7539
dium	-7540
plom	-7541
änga	-7542
▁Cre	-7543
▁Rek	-7544
▁ind	-7545
▁öde	-7546
▁höja	-7547
▁ligt	-7548
▁ovän	-7549
▁oänd	-7550
▁sånt	-7551
▁work	-7552
▁ansåg	-7553
▁evigt	-7554
▁humör	-7555
▁talas	-7556
▁Tycker	-7557
▁hösten	-7558
▁näring	-7559
▁matchen	-7560
▁sjukvår	-7561
▁styrkor	-7562
▁analysera	-7563
▁biljetter	-7564
▁praktiskt	-7565
▁uppenbart	-7566
ics	-7567
tog	-7568
▁As	-7569
alth	-7570
ghan	-7571
nipp	-7572
ugga	-7573
▁Läk	-7574
▁Tri	-7575
earch	-7576
erats	-7577
▁njut	-7578
▁näst	-7579
sikten	-7580
▁dryck	-7581
▁jävla	-7582
▁rutin	-7583
▁sjuka	-7584
▁andras	-7585
▁droger	-7586
teriella	-7587
▁stämmer	-7588
▁utvalda	-7589
▁beskriva	-7590
▁utgifter	-7591
▁känneteck	-7592
▁upptäcker	-7593
▁hållbarhet	-7594
30	-7595
.000	-7596
iera	-7597
star	-7598
▁Kän	-7599
▁High	-7600
frihet	-7601
ningom	-7602
verant	-7603
▁appen	-7604
▁gymna	-7605
▁håret	-7606
▁inuti	-7607
▁Kommun	-7608
▁repara	-7609
▁baseras	-7610
▁gillade	-7611
▁kärleks	-7612
▁sakerna	-7613
▁verkade	-7614
▁givetvis	-7615
▁litterat	-7616
▁avdelning	-7617
▁rådgivning	-7618
▁långsiktiga	-7619
▁territorium	-7620
▁Nederländerna	-7621
▁framgångsrikt	-7622
kare	-7623
orma	-7624
umin	-7625
▁800	-7626
▁gri	-7627
▁öms	-7628
yrkan	-7629
▁löst	-7630
ländsk	-7631
▁Stora	-7632
▁byrån	-7633
▁hoppa	-7634
▁nings	-7635
▁skönt	-7636
▁utvid	-7637
▁öster	-7638
▁Utöver	-7639
▁Vidare	-7640
▁patent	-7641
▁roller	-7642
▁utsätt	-7643
▁ändrar	-7644
▁kanaler	-7645
▁stycket	-7646
▁tillåta	-7647
▁portfölj	-7648
▁överväga	-7649
▁obligator	-7650
▁sekretess	-7651
▁utvärdera	-7652
▁flyktingar	-7653
▁Kalifornien	-7654
▁imponerande	-7655
▁ingredienser	-7656
▁um	-7657
loud	-7658
ymer	-7659
ödet	-7660
▁Sov	-7661
▁rab	-7662
▁Word	-7663
▁tabl	-7664
ations	-7665
ibland	-7666
timent	-7667
▁nomin	-7668
▁tredj	-7669
ktighet	-7670
stagram	-7671
▁snälla	-7672
▁bokstav	-7673
▁ifrågas	-7674
▁stödjer	-7675
▁uteslut	-7676
▁beräknas	-7677
▁kliniska	-7678
▁långsamt	-7679
▁människo	-7680
▁avsnittet	-7681
▁punkterna	-7682
▁administrativa	-7683
olt	-7684
▁Hal	-7685
▁num	-7686
fritt	-7687
ismer	-7688
ition	-7689
litik	-7690
▁Mind	-7691
▁inri	-7692
▁speg	-7693
▁förbe	-7694
▁kanal	-7695
▁överh	-7696
▁avkast	-7697
▁brotts	-7698
▁dörrar	-7699
▁kolleg	-7700
▁länken	-7701
▁unions	-7702
▁choklad	-7703
▁jordens	-7704
▁placera	-7705
▁vinnare	-7706
▁överdri	-7707
▁distrikt	-7708
▁bekräftar	-7709
▁småningom	-7710
▁uppskattar	-7711
▁anledningar	-7712
▁partnerskap	-7713
▁nödvändigtvis	-7714
MS	-7715
cle	-7716
uff	-7717
▁Kö	-7718
▁Ul	-7719
▁Inf	-7720
▁Sara	-7721
▁bett	-7722
▁bind	-7723
celler	-7724
▁Också	-7725
▁Skill	-7726
▁locka	-7727
▁varma	-7728
▁veder	-7729
▁League	-7730
▁behåll	-7731
▁bortom	-7732
▁konton	-7733
▁linjer	-7734
▁scenen	-7735
▁stolta	-7736
▁turist	-7737
▁ansiktet	-7738
▁bostäder	-7739
▁flykting	-7740
▁försvara	-7741
▁regioner	-7742
▁personalen	-7743
▁ES	-7744
▁Hy	-7745
elat	-7746
väma	-7747
▁Liv	-7748
ionen	-7749
▁Ford	-7750
▁dörr	-7751
▁höst	-7752
▁röka	-7753
▁Andre	-7754
▁fylld	-7755
▁orätt	-7756
▁säljs	-7757
vention	-7758
▁hormon	-7759
▁rekord	-7760
▁tänder	-7761
▁byggdes	-7762
▁lagring	-7763
▁förknipp	-7764
▁landsbyg	-7765
▁släpptes	-7766
▁Institute	-7767
▁kombinerar	-7768
ole	-7769
una	-7770
▁Bi	-7771
▁HD	-7772
frik	-7773
▁Ger	-7774
▁Går	-7775
▁Nat	-7776
▁byn	-7777
▁hyd	-7778
▁lågt	-7779
ässigt	-7780
▁State	-7781
▁femin	-7782
▁forma	-7783
▁inköp	-7784
▁lands	-7785
▁funkar	-7786
▁införa	-7787
▁minnas	-7788
▁tabell	-7789
▁farligt	-7790
▁förteck	-7791
▁komfort	-7792
▁släpper	-7793
▁avlägsna	-7794
▁vanligen	-7795
▁hemlighet	-7796
▁telefonen	-7797
▁förklarade	-7798
▁presentera	-7799
▁tillfälligt	-7800
▁genomförandet	-7801
log	-7802
mas	-7803
sky	-7804
▁00	-7805
▁Sun	-7806
▁onö	-7807
fikat	-7808
▁Vart	-7809
▁ikon	-7810
▁nere	-7811
▁pred	-7812
▁rike	-7813
▁domin	-7814
▁imper	-7815
▁prins	-7816
▁tycka	-7817
▁Annars	-7818
▁Dagens	-7819
▁Filmen	-7820
▁fångar	-7821
▁koppla	-7822
▁numera	-7823
▁skilja	-7824
▁släpps	-7825
▁ömsesi	-7826
▁andliga	-7827
▁besökte	-7828
▁externa	-7829
▁individ	-7830
▁pratade	-7831
▁kärleken	-7832
▁sannolik	-7833
▁tillåtet	-7834
▁kollektiv	-7835
▁praktiken	-7836
▁hundratals	-7837
jä	-7838
ble	-7839
▁AR	-7840
▁CO	-7841
ulin	-7842
▁Bor	-7843
▁ort	-7844
▁diam	-7845
▁Säker	-7846
▁Värld	-7847
▁dusch	-7848
▁fågel	-7849
▁genet	-7850
▁impon	-7851
▁Amerik	-7852
▁Berlin	-7853
▁killar	-7854
▁billiga	-7855
▁delarna	-7856
▁klubben	-7857
▁musiken	-7858
▁tjänste	-7859
▁parkering	-7860
▁tillhandahålls	-7861
För	-7862
but	-7863
zer	-7864
▁ky	-7865
ätte	-7866
ögon	-7867
▁Cro	-7868
▁saj	-7869
niska	-7870
usion	-7871
▁matt	-7872
▁norr	-7873
▁term	-7874
skatta	-7875
▁Medel	-7876
▁anger	-7877
▁otill	-7878
▁Afghan	-7879
▁Utveck	-7880
▁betalt	-7881
▁civila	-7882
▁tvivel	-7883
▁sexuell	-7884
▁tjänare	-7885
▁trevlig	-7886
▁tvingas	-7887
▁existens	-7888
▁skadliga	-7889
▁återigen	-7890
▁levereras	-7891
▁arbetsgivare	-7892
Fi	-7893
vil	-7894
imer	-7895
smål	-7896
▁Big	-7897
▁Möj	-7898
▁Sti	-7899
▁Fred	-7900
▁oroa	-7901
▁miner	-7902
▁saken	-7903
▁sover	-7904
▁debatt	-7905
▁enorma	-7906
▁profet	-7907
▁separa	-7908
arknaden	-7909
▁högkval	-7910
▁jämföra	-7911
▁klasser	-7912
alistiska	-7913
värdheter	-7914
▁klagomål	-7915
▁soldater	-7916
meddelande	-7917
▁Webbplats	-7918
▁kvinnorna	-7919
▁läkemedels	-7920
▁registrera	-7921
▁föräldrarna	-7922
▁registrering	-7923
gav	-7924
egas	-7925
fund	-7926
löst	-7927
sing	-7928
skop	-7929
▁Bry	-7930
▁Häl	-7931
▁Kat	-7932
▁Pan	-7933
▁fab	-7934
▁sat	-7935
yggen	-7936
▁Camp	-7937
▁Next	-7938
▁Real	-7939
▁Stat	-7940
▁mans	-7941
▁succ	-7942
▁utöv	-7943
▁Ännu	-7944
▁Count	-7945
▁Texas	-7946
▁Volvo	-7947
▁bekym	-7948
▁spons	-7949
▁tjugo	-7950
▁museum	-7951
▁vaccin	-7952
▁skadade	-7953
▁landskap	-7954
▁främmande	-7955
▁koncernen	-7956
▁fastighets	-7957
▁huvudsakliga	-7958
IA	-7959
of	-7960
▁§	-7961
bby	-7962
oid	-7963
pon	-7964
emed	-7965
indu	-7966
ions	-7967
▁Aut	-7968
▁Mid	-7969
▁ära	-7970
▁toal	-7971
andina	-7972
▁Polen	-7973
▁Redan	-7974
▁Royal	-7975
▁lyfta	-7976
▁neder	-7977
▁smuts	-7978
▁Undvik	-7979
▁United	-7980
▁beredd	-7981
▁hjälpt	-7982
▁korrig	-7983
▁publik	-7984
▁sparar	-7985
▁tvekan	-7986
spartner	-7987
▁kompati	-7988
▁omfatta	-7989
▁skatter	-7990
▁återvin	-7991
▁kandidat	-7992
▁Problemet	-7993
▁begreppet	-7994
▁funktions	-7995
▁katastrof	-7996
▁kraftfulla	-7997
▁störningar	-7998
▁utvecklare	-7999
▁kontrollerar	-8000
▁Os	-8001
amin	-8002
iter	-8003
namn	-8004
täck	-8005
ament	-8006
▁Miss	-8007
▁dyra	-8008
▁hung	-8009
ckerna	-8010
▁Beach	-8011
▁Smith	-8012
▁citat	-8013
▁levde	-8014
▁månen	-8015
▁neuro	-8016
▁tjock	-8017
▁vanor	-8018
▁Sådana	-8019
▁inrikt	-8020
▁ningar	-8021
▁öppnas	-8022
▁avslapp	-8023
▁rättvis	-8024
▁faktiska	-8025
▁tänkande	-8026
▁informera	-8027
▁anläggning	-8028
▁strukturer	-8029
▁medlemmarna	-8030
▁verksamhets	-8031
▁marknadsförings	-8032
jk	-8033
asa	-8034
ily	-8035
▁2)	-8036
etto	-8037
gent	-8038
llar	-8039
pris	-8040
▁Lab	-8041
▁Los	-8042
▁[1]	-8043
delen	-8044
▁Ukra	-8045
▁South	-8046
▁index	-8047
▁legen	-8048
▁refor	-8049
▁utöva	-8050
▁beteck	-8051
▁bevara	-8052
▁fåglar	-8053
▁liknar	-8054
▁terapi	-8055
▁Service	-8056
▁födelse	-8057
▁negativ	-8058
▁översti	-8059
▁Särskilt	-8060
▁kollegor	-8061
▁känsliga	-8062
▁majoritet	-8063
▁minoritet	-8064
▁trädgården	-8065
▁generationer	-8066
fli	-8067
▁Inc	-8068
▁Mig	-8069
▁Ren	-8070
▁fra	-8071
▁lev	-8072
skade	-8073
temot	-8074
▁läggs	-8075
▁Associ	-8076
▁kungar	-8077
▁syftet	-8078
▁flertal	-8079
▁anställd	-8080
▁allvarlig	-8081
▁dimension	-8082
▁ledningen	-8083
▁sammanlag	-8084
▁förbereder	-8085
▁skyldighet	-8086
AG	-8087
IC	-8088
Var	-8089
öme	-8090
▁4-	-8091
▁Sv	-8092
styr	-8093
▁Kap	-8094
ospel	-8095
▁haha	-8096
▁lade	-8097
▁olog	-8098
▁tapp	-8099
▁Mamma	-8100
▁Mexik	-8101
▁penis	-8102
▁skogs	-8103
▁sämre	-8104
rations	-8105
▁bekräf	-8106
▁genast	-8107
▁återvän	-8108
▁kopplade	-8109
▁noggrann	-8110
▁överföra	-8111
▁regerings	-8112
▁tävlingen	-8113
▁tjänsterna	-8114
▁framförallt	-8115
▁personligen	-8116
▁plattformar	-8117
▁uppdateringar	-8118
▁lagstiftningen	-8119
▁·	-8120
▁€	-8121
omi	-8122
reg	-8123
rup	-8124
▁IV	-8125
▁Ze	-8126
▁wh	-8127
aser	-8128
▁ISO	-8129
▁Säg	-8130
▁Land	-8131
▁Ljus	-8132
▁Stör	-8133
▁boka	-8134
▁yoga	-8135
ssnitt	-8136
▁Islam	-8137
▁Ställ	-8138
▁Thail	-8139
▁lugnt	-8140
▁major	-8141
▁skett	-8142
▁spekt	-8143
▁spåra	-8144
identen	-8145
isation	-8146
▁kortet	-8147
▁lördag	-8148
▁utsatt	-8149
▁ägaren	-8150
▁bekvämt	-8151
▁judiska	-8152
▁present	-8153
skridande	-8154
▁angående	-8155
▁beställa	-8156
▁japanska	-8157
▁förluster	-8158
▁rådgivare	-8159
▁kemikalier	-8160
▁kontrollen	-8161
▁lägenheter	-8162
▁infektioner	-8163
▁installation	-8164
US	-8165
ers	-8166
fly	-8167
llt	-8168
ury	-8169
▁43	-8170
▁Fe	-8171
fört	-8172
hite	-8173
inas	-8174
▁(1)	-8175
▁202	-8176
▁250	-8177
▁Kro	-8178
▁fet	-8179
ämnen	-8180
▁Full	-8181
▁Kung	-8182
▁krän	-8183
▁skid	-8184
▁tråk	-8185
▁tvär	-8186
▁2015.	-8187
▁Award	-8188
▁blick	-8189
▁kriti	-8190
▁strax	-8191
▁falska	-8192
▁filter	-8193
▁katter	-8194
▁videon	-8195
trollera	-8196
▁glömmer	-8197
▁handeln	-8198
▁muskler	-8199
▁kulturen	-8200
▁nätverks	-8201
▁anpassade	-8202
▁europeisk	-8203
▁upptäckte	-8204
▁officiellt	-8205
▁Kontrollera	-8206
dda	-8207
föd	-8208
onn	-8209
cing	-8210
wood	-8211
▁Ven	-8212
▁Abra	-8213
▁Bild	-8214
▁Sand	-8215
▁föds	-8216
▁rakt	-8217
▁skit	-8218
ickade	-8219
igenom	-8220
▁ansöka	-8221
▁expand	-8222
▁försam	-8223
▁kvanti	-8224
▁livets	-8225
▁obehag	-8226
▁Helsing	-8227
▁fantasi	-8228
▁förstod	-8229
▁station	-8230
▁intäkter	-8231
▁städerna	-8232
▁yttrande	-8233
▁genomförs	-8234
▁resolution	-8235
▁Afghanistan	-8236
▁entreprenör	-8237
▁medvetenhet	-8238
▁studenterna	-8239
▁förhållandet	-8240
▁rapportering	-8241
▁utbildningen	-8242
▁tillgänglighet	-8243
▁SK	-8244
▁TM	-8245
▁ark	-8246
▁rem	-8247
ktivt	-8248
produ	-8249
▁Karl	-8250
▁Plus	-8251
▁dras	-8252
▁lamp	-8253
▁Kristi	-8254
▁banken	-8255
▁färgen	-8256
▁försen	-8257
▁hellre	-8258
▁kursen	-8259
▁Upptäck	-8260
▁hushåll	-8261
▁kortare	-8262
▁nyckeln	-8263
minskning	-8264
▁gentemot	-8265
▁kontoret	-8266
▁negativt	-8267
▁intellekt	-8268
▁inträffar	-8269
▁patienten	-8270
▁förfarandet	-8271
▁återförsäljare	-8272
-]	-8273
jö	-8274
mm	-8275
rer	-8276
▁vd	-8277
▁pus	-8278
varig	-8279
▁Anti	-8280
▁diag	-8281
▁idén	-8282
▁lung	-8283
▁Ändå	-8284
iserad	-8285
▁banan	-8286
▁cigar	-8287
▁volym	-8288
▁Paulus	-8289
▁härlig	-8290
▁påbörj	-8291
▁rymden	-8292
sområden	-8293
▁försörj	-8294
▁slutföra	-8295
▁billigare	-8296
▁tillkänna	-8297
▁försäljningen	-8298
OL	-8299
▁@	-8300
bör	-8301
lle	-8302
näm	-8303
▁46	-8304
▁6,	-8305
ydda	-8306
▁Bak	-8307
▁Gui	-8308
▁Ron	-8309
▁Vir	-8310
▁[-]	-8311
▁hav	-8312
▁Form	-8313
▁Life	-8314
▁Lyck	-8315
▁låna	-8316
gemang	-8317
▁Reger	-8318
▁passa	-8319
▁sorts	-8320
punkten	-8321
▁avsedd	-8322
▁längst	-8323
▁vänlig	-8324
▁Digital	-8325
▁Schweiz	-8326
▁stjärna	-8327
▁tidskri	-8328
▁Johannes	-8329
▁arbetspl	-8330
▁minskade	-8331
▁Slutligen	-8332
▁däribland	-8333
▁inkludera	-8334
▁webbläsare	-8335
AM	-8336
ite	-8337
rel	-8338
▁AT	-8339
▁ox	-8340
imen	-8341
▁Art	-8342
▁Dat	-8343
▁Ext	-8344
▁Kri	-8345
▁dam	-8346
▁lan	-8347
▁ros	-8348
▁tät	-8349
cykel	-8350
okrat	-8351
rekta	-8352
▁Blue	-8353
▁Fall	-8354
▁Förl	-8355
▁Open	-8356
▁alli	-8357
▁tank	-8358
▁förnu	-8359
▁grann	-8360
▁packa	-8361
▁talet	-8362
▁valut	-8363
▁åsikt	-8364
biotika	-8365
▁badrum	-8366
▁orolig	-8367
▁ökande	-8368
▁utarbet	-8369
▁ansvaret	-8370
▁styrning	-8371
▁tränings	-8372
▁Speciellt	-8373
▁uppdatera	-8374
▁säkerställer	-8375
/2	-8376
När	-8377
▁47	-8378
amet	-8379
osit	-8380
otta	-8381
speg	-8382
▁Fru	-8383
▁Tar	-8384
▁cer	-8385
igger	-8386
jerna	-8387
▁Pass	-8388
▁Styr	-8389
▁baby	-8390
▁herr	-8391
▁itet	-8392
▁samm	-8393
▁avvik	-8394
▁barnd	-8395
▁beska	-8396
▁Irland	-8397
▁diplom	-8398
▁källan	-8399
▁nämnda	-8400
▁Science	-8401
▁fiender	-8402
▁punkten	-8403
▁såklart	-8404
inationer	-8405
▁balanser	-8406
▁därifrån	-8407
▁trevligt	-8408
▁turister	-8409
▁Instagram	-8410
▁principen	-8411
▁Resultatet	-8412
▁beställning	-8413
▁uppdatering	-8414
▁ansträngningar	-8415
AD	-8416
IM	-8417
ual	-8418
▁9.	-8419
▁Ön	-8420
jung	-8421
otek	-8422
shop	-8423
▁Tag	-8424
▁Wik	-8425
▁ist	-8426
▁tel	-8427
värde	-8428
▁Ande	-8429
▁välk	-8430
landet	-8431
vation	-8432
▁motiv	-8433
▁smitt	-8434
eration	-8435
▁bollen	-8436
▁fördju	-8437
▁försäm	-8438
▁Abraham	-8439
▁Antalet	-8440
▁avslöja	-8441
▁rikedom	-8442
▁konstitu	-8443
▁Författare	-8444
▁upplevelsen	-8445
▁förvaltnings	-8446
▁diskriminering	-8447
oc	-8448
▁←	-8449
hal	-8450
års	-8451
▁AD	-8452
▁ID	-8453
urit	-8454
uten	-8455
ådet	-8456
▁120	-8457
▁est	-8458
▁ran	-8459
▁www	-8460
varor	-8461
▁Skol	-8462
villkor	-8463
▁anfall	-8464
▁bergen	-8465
▁entusi	-8466
▁fabrik	-8467
▁fattar	-8468
▁ryggen	-8469
▁räknar	-8470
▁ställs	-8471
▁väggen	-8472
▁Berätta	-8473
▁lastbil	-8474
▁träffat	-8475
▁väntade	-8476
▁försvann	-8477
▁kalorier	-8478
▁lyckliga	-8479
▁sällskap	-8480
▁förebygga	-8481
▁kärnvapen	-8482
▁högkvalita	-8483
▁Internationella	-8484
PR	-8485
utt	-8486
▁Va	-8487
▁Nik	-8488
▁Ram	-8489
▁Rum	-8490
▁Sig	-8491
▁Win	-8492
▁rid	-8493
▁sed	-8494
▁sel	-8495
▁öga	-8496
annen	-8497
taget	-8498
ändan	-8499
▁Kost	-8500
▁Lång	-8501
▁kära	-8502
ftelse	-8503
tement	-8504
▁Musik	-8505
▁ignor	-8506
▁pojke	-8507
▁revis	-8508
▁rykte	-8509
▁tyder	-8510
▁dubbla	-8511
▁hittas	-8512
▁inbjud	-8513
▁kritik	-8514
ologiskt	-8515
▁arbeten	-8516
▁föreläs	-8517
▁förverk	-8518
▁hindrar	-8519
▁tränare	-8520
▁Thailand	-8521
▁handlare	-8522
▁riskerar	-8523
▁kraftfull	-8524
▁operation	-8525
▁slutändan	-8526
▁välkommen	-8527
▁föreskrivs	-8528
▁konflikter	-8529
▁arrangemang	-8530
▁presenteras	-8531
▁strategiska	-8532
▁Naturligtvis	-8533
▁förekommande	-8534
cia	-8535
▁4:	-8536
▁EG	-8537
▁Kn	-8538
ladd	-8539
omer	-8540
ther	-8541
▁Dra	-8542
▁Jen	-8543
▁USB	-8544
▁kak	-8545
▁kej	-8546
▁mel	-8547
sidor	-8548
▁Jesu	-8549
▁asyl	-8550
▁bibe	-8551
▁grym	-8552
▁utse	-8553
▁vice	-8554
▁övre	-8555
östern	-8556
▁Frank	-8557
▁Malmö	-8558
▁charm	-8559
▁födda	-8560
▁slump	-8561
▁snäll	-8562
▁magnet	-8563
räffande	-8564
▁College	-8565
▁brister	-8566
▁syndrom	-8567
▁trycket	-8568
▁avslöjar	-8569
▁placeras	-8570
▁populärt	-8571
utveckling	-8572
▁grönsaker	-8573
▁sjukhuset	-8574
▁sortiment	-8575
con	-8576
▁''	-8577
▁ER	-8578
▁ia	-8579
▁og	-8580
▁oh	-8581
gade	-8582
ream	-8583
skad	-8584
▁Mos	-8585
▁ler	-8586
rasil	-8587
still	-8588
▁INTE	-8589
▁Mary	-8590
▁hörn	-8591
arbete	-8592
iteter	-8593
ledare	-8594
mannen	-8595
▁Smart	-8596
▁Video	-8597
▁chatt	-8598
▁feder	-8599
▁toler	-8600
emedlem	-8601
ktionen	-8602
▁motion	-8603
▁propor	-8604
▁skjuta	-8605
▁terape	-8606
▁välbef	-8607
▁advokat	-8608
▁hungrig	-8609
▁frekvens	-8610
▁konflikt	-8611
▁påminner	-8612
▁arbetslös	-8613
▁fördraget	-8614
▁kombinera	-8615
▁biologiska	-8616
▁deltagarna	-8617
▁fastigheter	-8618
▁registrerade	-8619
che	-8620
▁5:	-8621
▁il	-8622
▁oj	-8623
lopp	-8624
▁Bio	-8625
▁ECB	-8626
anten	-8627
atisk	-8628
▁agen	-8629
▁Media	-8630
▁Techn	-8631
▁givit	-8632
▁romer	-8633
ordning	-8634
▁aggres	-8635
▁köpare	-8636
▁splitt	-8637
▁texter	-8638
▁Bolaget	-8639
▁drycker	-8640
▁interak	-8641
▁räkning	-8642
▁Kontakta	-8643
▁Regissör	-8644
▁förutsäg	-8645
▁nationer	-8646
▁nivåerna	-8647
▁avancerad	-8648
▁bestående	-8649
▁blodtryck	-8650
▁förslaget	-8651
▁underbart	-8652
▁innefattar	-8653
▁vägledning	-8654
▁möjligheterna	-8655
ary	-8656
oro	-8657
ors	-8658
▁--	-8659
▁Mi	-8660
elle	-8661
järn	-8662
känt	-8663
▁180	-8664
▁bos	-8665
agång	-8666
ripet	-8667
verna	-8668
▁Njut	-8669
▁gräs	-8670
▁ling	-8671
▁skar	-8672
ekonom	-8673
gångar	-8674
▁Gamla	-8675
▁bitar	-8676
▁hyres	-8677
▁insåg	-8678
▁kopia	-8679
▁optim	-8680
▁rubri	-8681
▁satsa	-8682
▁annons	-8683
▁bekant	-8684
▁bildar	-8685
▁chefer	-8686
▁exakta	-8687
▁fyller	-8688
▁harmon	-8689
▁intill	-8690
▁lokalt	-8691
▁uppnås	-8692
▁Central	-8693
▁Herrens	-8694
▁bloggar	-8695
▁butiken	-8696
▁inomhus	-8697
▁kraften	-8698
▁meddela	-8699
▁ovanför	-8700
▁böckerna	-8701
▁drabbade	-8702
▁verkligt	-8703
▁rapporterar	-8704
▁utvärdering	-8705
▁skådespelare	-8706
MA	-8707
ee	-8708
bit	-8709
▁!)	-8710
▁Is	-8711
▁ic	-8712
ingo	-8713
osex	-8714
▁Kur	-8715
▁Ten	-8716
▁Bang	-8717
▁Hong	-8718
▁Sätt	-8719
▁intr	-8720
▁präg	-8721
▁städ	-8722
▁surf	-8723
▁ation	-8724
▁djupa	-8725
▁sänka	-8726
▁Market	-8727
▁begrav	-8728
▁chefen	-8729
▁ingång	-8730
▁lägsta	-8731
▁parken	-8732
▁flexibel	-8733
▁förmåner	-8734
▁observer	-8735
▁skickade	-8736
▁troligen	-8737
▁jordbruks	-8738
▁mediciner	-8739
▁uppmuntra	-8740
▁integrerad	-8741
▁miljontals	-8742
▁jämställdhet	-8743
▁premiärminister	-8744
ate	-8745
hyd	-8746
▁?!	-8747
▁AP	-8748
▁Ly	-8749
Tube	-8750
tiet	-8751
▁bag	-8752
▁iga	-8753
▁utö	-8754
▁Club	-8755
▁Vall	-8756
▁golv	-8757
▁gram	-8758
▁tyng	-8759
▁Polis	-8760
▁blind	-8761
▁grönt	-8762
▁skämt	-8763
▁talat	-8764
▁uppre	-8765
▁öarna	-8766
chester	-8767
dafrika	-8768
ämpning	-8769
▁delade	-8770
▁kallat	-8771
▁kompen	-8772
▁krisen	-8773
▁poster	-8774
▁tillbe	-8775
▁årtion	-8776
▁läsning	-8777
▁skratta	-8778
▁vittnes	-8779
▁grundare	-8780
▁ovanligt	-8781
▁skrivbord	-8782
7)	-8783
BC	-8784
dd	-8785
ÖR	-8786
▁41	-8787
▁49	-8788
igan	-8789
ogni	-8790
▁Lan	-8791
▁Pop	-8792
▁Sur	-8793
▁iOS	-8794
▁1998	-8795
▁Dire	-8796
▁Hill	-8797
▁bytt	-8798
▁löne	-8799
▁ätit	-8800
ologin	-8801
▁Spela	-8802
▁avbry	-8803
▁hölls	-8804
▁vakna	-8805
▁vilda	-8806
▁anonym	-8807
▁uppkom	-8808
▁YouTube	-8809
▁föreslå	-8810
▁olyckor	-8811
▁attacker	-8812
▁fönstret	-8813
▁kroppens	-8814
▁åstadkom	-8815
▁forskarna	-8816
▁Stockholms	-8817
▁elektriska	-8818
▁konsekvent	-8819
jon	-8820
osh	-8821
oss	-8822
stä	-8823
▁59	-8824
▁Pi	-8825
nare	-8826
▁Fer	-8827
▁Web	-8828
▁ost	-8829
▁tysk	-8830
▁ögat	-8831
edagog	-8832
nderna	-8833
▁velat	-8834
▁anteck	-8835
▁domare	-8836
▁dödade	-8837
▁master	-8838
▁utgöra	-8839
▁önskan	-8840
▁indikat	-8841
▁matcher	-8842
▁skulder	-8843
▁filosofi	-8844
▁övningar	-8845
postadress	-8846
▁inbegripet	-8847
▁beslutsfatt	-8848
▁sevärdheter	-8849
6)	-8850
flö	-8851
fru	-8852
rin	-8853
öje	-8854
▁Wa	-8855
ject	-8856
▁Acc	-8857
vious	-8858
▁feed	-8859
▁frig	-8860
▁lukt	-8861
▁soli	-8862
▁sakna	-8863
▁visum	-8864
▁Brasil	-8865
▁Indust	-8866
▁agerar	-8867
▁deltog	-8868
▁förbli	-8869
▁stiger	-8870
röstning	-8871
teringen	-8872
▁gammalt	-8873
▁kategor	-8874
▁licensi	-8875
▁bolagets	-8876
▁framträd	-8877
▁nordiska	-8878
▁slutliga	-8879
▁exponering	-8880
▁föreningen	-8881
▁medlemskap	-8882
▁rapportera	-8883
▁samarbetar	-8884
▁elektronisk	-8885
▁publicerade	-8886
-)	-8887
PN	-8888
äx	-8889
läk	-8890
sid	-8891
enda	-8892
essi	-8893
redi	-8894
väst	-8895
▁Tem	-8896
▁Typ	-8897
▁tox	-8898
ekret	-8899
kulär	-8900
öcker	-8901
▁News	-8902
▁Tips	-8903
▁borg	-8904
▁kämp	-8905
dition	-8906
savtal	-8907
▁.....	-8908
▁fjärr	-8909
▁kabel	-8910
▁utesl	-8911
▁Gillar	-8912
▁Samman	-8913
▁belast	-8914
▁loppet	-8915
▁silver	-8916
▁långsam	-8917
▁tillväg	-8918
▁Fortsätt	-8919
▁Samtliga	-8920
▁förälder	-8921
▁utformad	-8922
▁meddelade	-8923
▁familjemedlem	-8924
▁tillverknings	-8925
IF	-8926
ody	-8927
▁MP	-8928
ebra	-8929
kala	-8930
rike	-8931
work	-8932
ömen	-8933
▁iak	-8934
▁Helt	-8935
▁Work	-8936
▁papp	-8937
▁trag	-8938
rätten	-8939
värtom	-8940
▁2014.	-8941
▁2018.	-8942
▁Johan	-8943
▁gitar	-8944
▁inhem	-8945
skottet	-8946
▁mäster	-8947
▁vägrar	-8948
▁välsig	-8949
▁främjar	-8950
▁uppnått	-8951
▁föreslag	-8952
▁planeten	-8953
▁generellt	-8954
▁stabilitet	-8955
▁återbetalning	-8956
TA	-8957
ces	-8958
▁AN	-8959
▁tw	-8960
fisk	-8961
tics	-8962
ulen	-8963
▁USD	-8964
▁isk	-8965
▁Cast	-8966
▁köns	-8967
▁laga	-8968
▁lögn	-8969
▁mamm	-8970
▁prop	-8971
▁skiv	-8972
lement	-8973
licera	-8974
▁Fanta	-8975
▁Förra	-8976
▁metab	-8977
▁värda	-8978
▁Palest	-8979
▁Victor	-8980
▁djuren	-8981
▁golvet	-8982
▁kusten	-8983
▁normer	-8984
▁sjunga	-8985
▁vaknar	-8986
▁Francis	-8987
▁klassen	-8988
▁omdömen	-8989
▁orsakas	-8990
▁tillgod	-8991
▁Personer	-8992
▁flytande	-8993
▁företräd	-8994
▁intensiv	-8995
▁järnvägs	-8996
▁föreningar	-8997
▁Helsingfors	-8998
▁biblioteket	-8999
▁redovisning	-9000
▁vetenskaplig	-9001
▁undersökningen	-9002
bl	-9003
▁HP	-9004
▁Ol	-9005
▁[3	-9006
▁öd	-9007
ader	-9008
pany	-9009
revs	-9010
▁Kli	-9011
▁ion	-9012
▁lys	-9013
▁mal	-9014
▁öst	-9015
etnam	-9016
▁Gold	-9017
▁akut	-9018
▁fond	-9019
▁2017.	-9020
▁Store	-9021
▁erade	-9022
▁lagra	-9023
▁påmin	-9024
▁Fadern	-9025
▁rötter	-9026
▁mäklare	-9027
▁pappers	-9028
▁sidorna	-9029
▁stänger	-9030
▁utföras	-9031
▁Research	-9032
▁egenskap	-9033
▁hanteras	-9034
▁porträtt	-9035
▁publiken	-9036
▁önskemål	-9037
agångssätt	-9038
▁planerade	-9039
▁överhuvud	-9040
▁övertygad	-9041
▁förhållandena	-9042
▁medlemsstaten	-9043
CH	-9044
dap	-9045
spo	-9046
agra	-9047
bien	-9048
cera	-9049
gård	-9050
play	-9051
urar	-9052
året	-9053
▁Dam	-9054
▁Que	-9055
▁knä	-9056
ktorn	-9057
▁mynt	-9058
ktorer	-9059
rering	-9060
sköter	-9061
▁aktör	-9062
▁kolum	-9063
▁Liksom	-9064
▁Norden	-9065
▁presta	-9066
▁tempel	-9067
▁Alterna	-9068
▁albumet	-9069
▁beskriv	-9070
▁fullkom	-9071
▁gymnasi	-9072
▁minskat	-9073
▁årligen	-9074
▁konstant	-9075
▁kritiska	-9076
▁reagerar	-9077
▁tekniskt	-9078
▁framställ	-9079
▁erkännande	-9080
▁inriktning	-9081
▁produceras	-9082
▁konferensen	-9083
▁förbättringar	-9084
▁huvudsakligen	-9085
Han	-9086
Hur	-9087
oto	-9088
uck	-9089
dell	-9090
edia	-9091
isch	-9092
roll	-9093
▁Bon	-9094
▁Chi	-9095
▁Top	-9096
▁Mass	-9097
▁damm	-9098
▁foss	-9099
▁kvad	-9100
▁leka	-9101
▁serv	-9102
▁söta	-9103
egräns	-9104
kontor	-9105
▁Analy	-9106
▁Times	-9107
▁anvis	-9108
▁bered	-9109
▁löfte	-9110
▁Årets	-9111
osystem	-9112
▁Skicka	-9113
▁dubbelt	-9114
▁enskild	-9115
▁färdiga	-9116
▁isering	-9117
▁rutiner	-9118
▁timmars	-9119
partement	-9120
▁Vänligen	-9121
▁logistik	-9122
▁riskerna	-9123
▁kampanjer	-9124
▁kreativitet	-9125
▁plattformen	-9126
▁kontinuerligt	-9127
UD	-9128
ety	-9129
ini	-9130
▁Sö	-9131
fast	-9132
▁Fal	-9133
▁Hit	-9134
▁Jim	-9135
▁Ros	-9136
iskop	-9137
slösa	-9138
▁Före	-9139
▁kram	-9140
▁lust	-9141
▁mail	-9142
▁mira	-9143
▁njur	-9144
▁pren	-9145
oriter	-9146
▁2013.	-9147
▁2016.	-9148
▁danska	-9149
▁hälsan	-9150
▁ledsen	-9151
▁proced	-9152
▁upplys	-9153
▁väntat	-9154
undation	-9155
▁Framför	-9156
▁Perfekt	-9157
▁Ukraina	-9158
▁indiker	-9159
▁knappen	-9160
▁stående	-9161
▁sökning	-9162
▁funderar	-9163
▁kommitté	-9164
▁prenumer	-9165
▁signaler	-9166
▁akademiska	-9167
▁annanstans	-9168
▁genomföras	-9169
▁publiceras	-9170
▁värdefulla	-9171
▁recensioner	-9172
▁välbefinnande	-9173
CO	-9174
col	-9175
end	-9176
ule	-9177
▁Ev	-9178
jord	-9179
king	-9180
örde	-9181
▁189	-9182
▁20-	-9183
▁Kim	-9184
▁Log	-9185
▁Tit	-9186
▁itu	-9187
angen	-9188
unger	-9189
verse	-9190
ättar	-9191
ulette	-9192
▁medie	-9193
▁ränta	-9194
▁valda	-9195
▁Priset	-9196
▁gården	-9197
▁motiva	-9198
▁myster	-9199
▁närmar	-9200
▁satell	-9201
▁syften	-9202
▁uppfin	-9203
▁vardag	-9204
▁barnets	-9205
▁chanser	-9206
▁efteråt	-9207
▁fordons	-9208
▁förhind	-9209
▁kommand	-9210
▁skriven	-9211
▁välsign	-9212
▁Previous	-9213
▁fotbolls	-9214
▁meningen	-9215
▁förväntade	-9216
▁litteratur	-9217
▁berättelsen	-9218
▁Mellanöstern	-9219
▁demokratiska	-9220
.)	-9221
rem	-9222
ason	-9223
jack	-9224
ydde	-9225
▁700	-9226
▁Aff	-9227
▁Len	-9228
▁fav	-9229
▁not	-9230
▁pum	-9231
ansen	-9232
olska	-9233
▁Chic	-9234
▁bomb	-9235
▁dröj	-9236
▁hyll	-9237
▁iPad	-9238
▁prim	-9239
▁ägde	-9240
asinot	-9241
▁blods	-9242
▁doser	-9243
▁dölja	-9244
▁klätt	-9245
▁rätte	-9246
▁vände	-9247
▁övers	-9248
▁Health	-9249
▁Mexiko	-9250
▁fiende	-9251
▁munnen	-9252
▁skräck	-9253
▁stilla	-9254
▁verkan	-9255
▁bestånd	-9256
▁fundera	-9257
▁praktik	-9258
▁växthus	-9259
▁Världens	-9260
▁arabiska	-9261
▁dödsfall	-9262
▁kulturer	-9263
▁kvinnors	-9264
▁flygbolag	-9265
▁Manchester	-9266
▁enastående	-9267
▁majoriteten	-9268
▁motståndare	-9269
__	-9270
hu	-9271
röm	-9272
ush	-9273
wer	-9274
▁cm	-9275
▁Åt	-9276
börd	-9277
disk	-9278
inkl	-9279
oter	-9280
äkra	-9281
ässa	-9282
▁Ban	-9283
▁Blu	-9284
▁mog	-9285
smynd	-9286
▁1996	-9287
▁mörd	-9288
▁flexi	-9289
▁frakt	-9290
▁taket	-9291
sområde	-9292
▁Barnen	-9293
▁kyrkor	-9294
▁trycka	-9295
▁genomgå	-9296
▁intryck	-9297
▁mästare	-9298
▁skyddet	-9299
▁ungdoms	-9300
▁Finlands	-9301
▁	-9302
e	-9303
a	-9304
r	-9305
t	-9306
n	-9307
i	-9308
s	-9309
l	-9310
d	-9311
o	-9312
m	-9313
g	-9314
k	-9315
v	-9316
ä	-9317
f	-9318
h	-9319
u	-9320
p	-9321
ö	-9322
å	-9323
.	-9324
c	-9325
b	-9326
j	-9327
,	-9328
y	-9329
D	-9330
S	-9331
0	-9332
M	-9333
A	-9334
-	-9335
V	-9336
1	-9337
E	-9338
H	-9339
F	-9340
I	-9341
T	-9342
2	-9343
B	-9344
x	-9345
?	-9346
J	-9347
P	-9348
N	-9349
O	-9350
:	-9351
K	-9352
"	-9353
C	-9354
)	-9355
G	-9356
L	-9357
R	-9358
(	-9359
”	-9360
!	-9361
U	-9362
w	-9363
5	-9364
3	-9365
9	-9366
4	-9367
6	-9368
8	-9369
7	-9370
–	-9371
W	-9372
/	-9373
z	-9374
Ä	-9375
;	-9376
é	-9377
]	-9378
[	-9379
Y	-9380
%	-9381
'	-9382
Ö	-9383
“	-9384
Å	-9385
&	-9386
X	-9387
’	-9388
Z	-9389
Q	-9390
*	-9391
q	-9392
»	-9393
+	-9394
•	-9395
>	-9396
$	-9397
—	-9398
#	-9399
­	-9400
=	-9401
_	-9402
‘	-9403
<	-9404
®	-9405
Ã	-9406
«	-9407
🙂	-9408
ü	-9409
|	-9410
→	-9411
@	-9412
á	-9413
́	-9414
^	-9415
§	-9416
€	-9417
¤	-9418
·	-9419
←	-9420
°	-9421
â	-9422
Г	-9423
ó	-9424
í	-9425
ø	-9426
£	-9427
¥	-9428
è	-9429
‐	-9430
	-9431
~	-9432
›	-9433
{	-9434
}	-9435
♥	-9436
¶	-9437
❤	-9438
\	-9439
●	-9440
😉	-9441
`	-9442
ç	-9443
ñ	-9444
à	-9445
−	-9446
ô	-9447
′	-9448
️	-9449
😀	-9450
š	-9451
■	-9452
©	-9453
ā	-9454
æ	-9455
×	-9456
	-9457
ú	-9458
▌	-9459
É	-9460
ã	-9461
⁄	-9462
ë	-9463
ć	-9464
α	-9465
Â	-9466
„	-9467
û	-9468
±	-9469
Ü	-9470
î	-9471
č	-9472
▸	-9473
✓	-9474
😊	-9475
ï	-9476
ð	-9477
ل	-9478
μ	-9479
►	-9480
≥	-9481
א	-9482
ş	-9483
Ø	-9484
ˮ	-9485
̈	-9486
‹	-9487
	-9488
👍	-9489
😍	-9490
ž	-9491
	-9492
ğ	-9493
ł	-9494
β	-9495
و	-9496
ß	-9497
Š	-9498
ي	-9499
ı	-9500
😛	-9501
	-9502
Ó	-9503
ĺ	-9504
ń	-9505
ō	-9506
ا	-9507
م	-9508
ه	-9509
‒	-9510
☺	-9511
♡	-9512
🏼	-9513
¬	-9514
Á	-9515
Î	-9516
õ	-9517
ʹ	-9518
ι	-9519
ạ	-9520
↑	-9521
✔	-9522
🏻	-9523
🙁	-9524
	-9525
ê	-9526
ę	-9527
γ	-9528
θ	-9529
ν	-9530
س	-9531
ع	-9532
ن	-9533
¿	-9534
Ă	-9535
Č	-9536
ī	-9537
œ	-9538
ƒ	-9539
ə	-9540
ς	-9541
σ	-9542
‭	-9543
◄	-9544
★	-9545
民	-9546
	-9547
😂	-9548
😄	-9549
🙏	-9550
	-9551
Æ	-9552
Ç	-9553
Õ	-9554
ū	-9555
ε	-9556
ο	-9557
ρ	-9558
а	-9559
ṛ	-9560
‚	-9561
▶	-9562
◆	-9563
国	-9564
	-9565
	-9566
😃	-9567
😅	-9568
😘	-9569
🤣	-9570
	-9571
Í	-9572
ò	-9573
ù	-9574
ý	-9575
ő	-9576
Ş	-9577
ţ	-9578
Ž	-9579
ǧ	-9580
ʼ	-9581
ί	-9582
δ	-9583
λ	-9584
π	-9585
й	-9586
ص	-9587
ṇ	-9588
ṣ	-9589
†	-9590
‬	-9591
▪	-9592
○	-9593
◾	-9594
☝	-9595
⭐	-9596
中	-9597
國	-9598
	-9599
	-9600
	-9601
👏	-9602
💕	-9603
💙	-9604
💚	-9605
💜	-9606
¡	-9607
¢	-9608
ì	-9609
þ	-9610
ă	-9611
ą	-9612
đ	-9613
ē	-9614
ė	-9615
Δ	-9616
ά	-9617
τ	-9618
φ	-9619
ω	-9620
К	-9621
е	-9622
и	-9623
р	-9624
ӓ	-9625
د	-9626
ر	-9627
ى	-9628
ḥ	-9629
ẹ	-9630
ἀ	-9631
≤	-9632
◊	-9633
♣	-9634
❑	-9635
❓	-9636
・	-9637
命	-9638
超	-9639
軍	-9640
革	-9641
︎	-9642
💤	-9643
😇	-9644
😢	-9645
😦	-9646
Þ	-9647
ÿ	-9648
Đ	-9649
Ś	-9650
ś	-9651
ż	-9652
ơ	-9653
ư	-9654
ǔ	-9655
ș	-9656
ɑ	-9657
ɛ	-9658
̃	-9659
̊	-9660
Α	-9661
Β	-9662
Σ	-9663
Ω	-9664
ή	-9665
κ	-9666
χ	-9667
ό	-9668
Д	-9669
О	-9670
д	-9671
ј	-9672
Ґ	-9673
ت	-9674
ج	-9675
ح	-9676
ก	-9677
ร	-9678
უ	-9679
ọ	-9680
‍	-9681
―	-9682
‡	-9683
↵	-9684
∙	-9685
√	-9686
≈	-9687
□	-9688
◦	-9689
☆	-9690
♪	-9691
⚘	-9692
✅	-9693
✎	-9694
✰	-9695
❥	-9696
コ	-9697
ン	-9698
万	-9699
主	-9700
人	-9701
会	-9702
团	-9703
岁	-9704
球	-9705
联	-9706
赛	-9707
足	-9708
눉	-9709
	-9710
	-9711
	-9712
	-9713
	-9714
	-9715
	-9716
	-9717
	-9718
💖	-9719
😋	-9720
😎	-9721
😕	-9722
😜	-9723
😝	-9724
😬	-9725
🙈	-9726
🙌	-9727
🤔	-9728
🤗	-9729
🤯	-9730
	-9731
	-9732
	-9733
À	-9734
Ë	-9735
Ð	-9736
Ñ	-9737
Ò	-9738
Ú	-9739
Ý	-9740
÷	-9741
Ā	-9742
ě	-9743
ħ	-9744
İ	-9745
ķ	-9746
Ł	-9747
ų	-9748
Ż	-9749
ǎ	-9750
ǒ	-9751
ɒ	-9752
ɡ	-9753
ɣ	-9754
ɸ	-9755
ˆ	-9756
ˈ	-9757
ˌ	-9758
ː	-9759
̂	-9760
̶	-9761
Γ	-9762
Ε	-9763
Θ	-9764
Μ	-9765
Π	-9766
Φ	-9767
η	-9768
ύ	-9769
А	-9770
Б	-9771
В	-9772
Е	-9773
И	-9774
Н	-9775
П	-9776
С	-9777
Т	-9778
Э	-9779
Я	-9780
в	-9781
г	-9782
л	-9783
м	-9784
н	-9785
о	-9786
с	-9787
т	-9788
ц	-9789
ы	-9790
ӧ	-9791
ד	-9792
צ	-9793
ة	-9794
ث	-9795
ك	-9796
ڤ	-9797
ނ	-9798
ތ	-9799
ަ	-9800
ާ	-9801
ข	-9802
ต	-9803
ธ	-9804
น	-9805
ย	-9806
ส	-9807
ะ	-9808
ั	-9809
ิ	-9810
ี	-9811
ุ	-9812
เ	-9813
ი	-9814
რ	-9815
ც	-9816
ხ	-9817
Ḥ	-9818
ḳ	-9819
ṅ	-9820
Ṣ	-9821
Ṭ	-9822
ṭ	-9823
ả	-9824
ầ	-9825
ễ	-9826
ệ	-9827
ỉ	-9828
ị	-9829
ờ	-9830
ủ	-9831
ἐ	-9832
‣	-9833
※	-9834
⁃	-9835
₤	-9836
↓	-9837
↩	-9838
⇑	-9839
⇒	-9840
⇨	-9841
∈	-9842
∑	-9843
∞	-9844
⋅	-9845
▲	-9846
▷	-9847
▼	-9848
▽	-9849
▾	-9850
☐	-9851
☒	-9852
☕	-9853
☟	-9854
☭	-9855
♦	-9856
♧	-9857
♫	-9858
✌	-9859
✗	-9860
➜	-9861
➥	-9862
⟵	-9863
⟶	-9864
⦁	-9865
オ	-9866
ニ	-9867
ビ	-9868
リ	-9869
世	-9870
五	-9871
光	-9872
公	-9873
共	-9874
军	-9875
华	-9876
协	-9877
協	-9878
台	-9879
司	-9880
和	-9881
大	-9882
山	-9883
式	-9884
春	-9885
會	-9886
月	-9887
有	-9888
株	-9889
楚	-9890
江	-9891
海	-9892
湾	-9893
灣	-9894
狂	-9895
珞	-9896
界	-9897
社	-9898
秋	-9899
空	-9900
箇	-9901
級	-9902
级	-9903
结	-9904
聯	-9905
臺	-9906
航	-9907
言	-9908
賽	-9909
鈥	-9910
锦	-9911
镜	-9912
际	-9913
限	-9914
集	-9915
낍	-9916
책	-9917
	-9918
	-9919
	-9920
	-9921
	-9922
	-9923
	-9924
	-9925
	-9926
	-9927
	-9928
	-9929
	-9930
	-9931
	-9932
	-9933
	-9934
	-9935
	-9936
	-9937
	-9938
	-9939
	-9940
	-9941
￼	-9942
🇨	-9943
🌞	-9944
🌷	-9945
🌸	-9946
🍀	-9947
🍦	-9948
🍰	-9949
🍳	-9950
🍴	-9951
🎁	-9952
🎈	-9953
🎉	-9954
🎨	-9955
🎶	-9956
🎼	-9957
🏆	-9958
🏽	-9959
🐞	-9960
🐲	-9961
🐴	-9962
🐾	-9963
👁	-9964
👇	-9965
👌	-9966
💔	-9967
💥	-9968
💪	-9969
💰	-9970
📌	-9971
📚	-9972
📷	-9973
🔸	-9974
🖤	-9975
🗞	-9976
😁	-9977
😆	-9978
😔	-9979
😖	-9980
😞	-9981
😠	-9982
😫	-9983
😭	-9984
😳	-9985
😶	-9986
🙆	-9987
🙉	-9988
🤙	-9989
🤛	-9990
🤩	-9991
🥂	-9992
🥇	-9993
🦋	-9994
🦌	-9995
🧡	-9996
