[UNK]	0
[CLS]	1
[SEP]	2
[PAD]	3
[MASK]	4
!	5
"	6
#	7
$	8
%	9
&	10
'	11
(	12
)	13
*	14
+	15
,	16
-	17
.	18
/	19
0	20
1	21
2	22
3	23
4	24
5	25
6	26
7	27
8	28
9	29
:	30
;	31
<	32
=	33
>	34
?	35
@	36
[	37
\	38
]	39
^	40
_	41
`	42
a	43
b	44
c	45
d	46
e	47
f	48
g	49
h	50
i	51
j	52
k	53
l	54
m	55
n	56
o	57
p	58
q	59
r	60
s	61
t	62
u	63
v	64
w	65
x	66
y	67
z	68
{	69
|	70
}	71
~	72
	73
	74
	75
	76
	77
	78
	79
	80
	81
	82
	83
	84
¡	85
¢	86
£	87
¤	88
¥	89
§	90
©	91
«	92
¬	93
­	94
®	95
°	96
±	97
¶	98
·	99
»	100
¿	101
×	102
ß	103
à	104
á	105
â	106
ã	107
ä	108
å	109
æ	110
ç	111
è	112
é	113
ê	114
ë	115
ì	116
í	117
î	118
ï	119
ð	120
ñ	121
ò	122
ó	123
ô	124
õ	125
ö	126
÷	127
ø	128
ù	129
ú	130
û	131
ü	132
ý	133
þ	134
ÿ	135
ā	136
ă	137
ą	138
ć	139
č	140
đ	141
ē	142
ė	143
ę	144
ě	145
ğ	146
ħ	147
ī	148
ı	149
ķ	150
ĺ	151
ł	152
ń	153
ō	154
ő	155
œ	156
ś	157
ş	158
š	159
ţ	160
ū	161
ų	162
ż	163
ž	164
ƒ	165
ơ	166
ư	167
ǎ	168
ǒ	169
ǔ	170
ǧ	171
ș	172
ɑ	173
ɒ	174
ə	175
ɛ	176
ɡ	177
ɣ	178
ɸ	179
ʹ	180
ʼ	181
ˆ	182
ˈ	183
ˌ	184
ː	185
ˮ	186
́	187
̂	188
̃	189
̇	190
̈	191
̊	192
̶	193
ά	194
ή	195
ί	196
α	197
β	198
γ	199
δ	200
ε	201
η	202
θ	203
ι	204
κ	205
λ	206
μ	207
ν	208
ο	209
π	210
ρ	211
ς	212
σ	213
τ	214
φ	215
χ	216
ω	217
ό	218
ύ	219
а	220
б	221
в	222
г	223
д	224
е	225
и	226
й	227
к	228
л	229
м	230
н	231
о	232
п	233
р	234
с	235
т	236
ц	237
ы	238
э	239
я	240
ј	241
ґ	242
ӓ	243
ӧ	244
א	245
ד	246
צ	247
ا	248
ة	249
ت	250
ث	251
ج	252
ح	253
د	254
ر	255
س	256
ص	257
ع	258
ك	259
ل	260
م	261
ن	262
ه	263
و	264
ى	265
ي	266
ڤ	267
ނ	268
ތ	269
ަ	270
ާ	271
ก	272
ข	273
ต	274
ธ	275
น	276
ย	277
ร	278
ส	279
ะ	280
ั	281
ิ	282
ี	283
ุ	284
เ	285
ი	286
რ	287
უ	288
ც	289
ხ	290
ḥ	291
ḳ	292
ṅ	293
ṇ	294
ṛ	295
ṣ	296
ṭ	297
ạ	298
ả	299
ầ	300
ẹ	301
ễ	302
ệ	303
ỉ	304
ị	305
ọ	306
ờ	307
ủ	308
ἀ	309
ἐ	310
​	311
‌	312
‍	313
‎	314
‏	315
‐	316
‒	317
–	318
—	319
―	320
‘	321
’	322
‚	323
“	324
”	325
„	326
†	327
‡	328
•	329
‣	330
‬	331
‭	332
′	333
‹	334
›	335
※	336
⁃	337
⁄	338
₤	339
€	340
←	341
↑	342
→	343
↓	344
↩	345
↵	346
⇑	347
⇒	348
⇨	349
∈	350
∑	351
−	352
∙	353
√	354
∞	355
≈	356
≤	357
≥	358
⋅	359
▌	360
■	361
□	362
▪	363
▲	364
▶	365
▷	366
▸	367
►	368
▼	369
▽	370
▾	371
◄	372
◆	373
◊	374
○	375
●	376
◦	377
◾	378
★	379
☆	380
☐	381
☒	382
☕	383
☝	384
☟	385
☭	386
☺	387
♡	388
♣	389
♥	390
♦	391
♧	392
♪	393
♫	394
⚘	395
✅	396
✌	397
✎	398
✓	399
✔	400
✗	401
✰	402
❑	403
❓	404
❤	405
❥	406
➜	407
➥	408
⟵	409
⟶	410
⦁	411
⭐	412
オ	413
コ	414
ニ	415
ビ	416
リ	417
ン	418
・	419
万	420
世	421
中	422
主	423
五	424
人	425
会	426
光	427
公	428
共	429
军	430
华	431
协	432
協	433
台	434
司	435
命	436
和	437
团	438
国	439
國	440
大	441
山	442
岁	443
式	444
春	445
會	446
月	447
有	448
株	449
楚	450
民	451
江	452
海	453
湾	454
灣	455
狂	456
珞	457
球	458
界	459
社	460
秋	461
空	462
箇	463
級	464
级	465
结	466
联	467
聯	468
臺	469
航	470
言	471
賽	472
赛	473
超	474
足	475
軍	476
鈥	477
锦	478
镜	479
际	480
限	481
集	482
革	483
낍	484
눉	485
책	486
	487
	488
	489
	490
	491
	492
	493
	494
	495
	496
	497
	498
	499
	500
	501
	502
	503
	504
	505
	506
	507
	508
	509
	510
	511
	512
	513
	514
	515
	516
	517
	518
	519
	520
	521
	522
	523
	524
	525
	526
︎	527
️	528
﻿	529
￼	530
�	531
🇨	532
🌞	533
🌷	534
🌸	535
🍀	536
🍦	537
🍰	538
🍳	539
🍴	540
🎁	541
🎈	542
🎉	543
🎨	544
🎶	545
🎼	546
🏆	547
🏻	548
🏼	549
🏽	550
🐞	551
🐲	552
🐴	553
🐾	554
👁	555
👇	556
👌	557
👍	558
👏	559
💔	560
💕	561
💖	562
💙	563
💚	564
💜	565
💤	566
💥	567
💪	568
💰	569
📌	570
📚	571
📷	572
🔸	573
🖤	574
🗞	575
😀	576
😁	577
😂	578
😃	579
😄	580
😅	581
😆	582
😇	583
😉	584
😊	585
😋	586
😍	587
😎	588
😔	589
😕	590
😖	591
😘	592
😛	593
😜	594
😝	595
😞	596
😠	597
😢	598
😦	599
😫	600
😬	601
😭	602
😳	603
😶	604
🙁	605
🙂	606
🙆	607
🙈	608
🙉	609
🙌	610
🙏	611
🤔	612
🤗	613
🤙	614
🤛	615
🤣	616
🤩	617
🤯	618
🥂	619
🥇	620
🦋	621
🦌	622
🧡	623
🧩	624
##c	625
##o	626
##t	627
##y	628
##b	629
##p	630
##3	631
##d	632
##2	633
##5	634
##ö	635
##r	636
##a	637
##e	638
##n	639
##i	640
##s	641
##k	642
##l	643
##u	644
##g	645
##ä	646
##å	647
##m	648
##h	649
##v	650
##w	651
##f	652
##x	653
##j	654
##z	655
##9	656
##6	657
##0	658
##1	659
##ā	660
##í	661
##7	662
##á	663
##q	664
##ü	665
##é	666
##8	667
##​	668
##г	669
##è	670
##û	671
##ú	672
##4	673
##)	674
##ñ	675
##(	676
##:	677
##â	678
##ó	679
##ø	680
##/	681
##]	682
##.	683
##?	684
##"	685
##😝	686
##🌞	687
##;	688
##+	689
##_	690
##-	691
##^	692
##à	693
##,	694
##î	695
##ã	696
##'	697
##ë	698
##œ	699
##ş	700
##’	701
##«	702
##ӓ	703
##ă	704
##>	705
##ò	706
##”	707
##🌸	708
##	709
##	710
##ô	711
##|	712
##ū	713
##ư	714
##ờ	715
##ύ	716
##σ	717
##ι	718
##ς	719
##@	720
##{	721
##ž	722
##ć	723
##ė	724
##č	725
##š	726
##õ	727
##ğ	728
##ن	729
##د	730
##=	731
##\	732
##ð	733
##ł	734
##к	735
##е	736
##а	737
##*	738
##ê	739
##👌	740
##🏼	741
##ả	742
##ç	743
##‘	744
###	745
##æ	746
##<	747
##�	748
##ÿ	749
##[	750
##⇑	751
##ę	752
##￼	753
##ː	754
##🌷	755
##!	756
##😔	757
##🤯	758
##ő	759
##	760
##ı	761
##👍	762
##ß	763
##‭	764
##😘	765
##ý	766
##	767
##ạ	768
##ل	769
##ى	770
##€	771
##ˆ	772
##ρ	773
##γ	774
##ε	775
##ν	776
##τ	777
##ό	778
##α	779
##φ	780
##ά	781
##э	782
##д	783
##&	784
##国	785
##足	786
##球	787
##协	788
##会	789
##超	790
##级	791
##联	792
##赛	793
##限	794
##公	795
##司	796
##	797
##🏻	798
##þ	799
##•	800
##🎉	801
##🎈	802
##🎁	803
##‡	804
##ާ	805
##ނ	806
##ަ	807
##†	808
##江	809
##际	810
##%	811
##⁃	812
##ي	813
##ه	814
##ƒ	815
##🍰	816
##🥂	817
##ï	818
##ē	819
##ο	820
##δ	821
##ż	822
##🙌	823
##▽	824
##~	825
##»	826
##ʹ	827
##}	828
##ī	829
##̃	830
##ɑ	831
##❤	832
##ẹ	833
##ţ	834
##ș	835
##¬	836
##★	837
##☆	838
##¿	839
##ǔ	840
##ə	841
##ɣ	842
##ӧ	843
##›	844
##н	845
##“	846
##秋	847
##航	848
##空	849
##ا	850
##و	851
##′	852
##ṭ	853
##﻿	854
##ɛ	855
##ų	856
##ō	857
##ị	858
##🤛	859
##湾	860
##民	861
##主	862
##💤	863
##и	864
##м	865
##т	866
##р	867
##о	868
##в	869
##🤣	870
##🦌	871
##ر	872
##س	873
##ك	874
##ت	875
##箇	876
##山	877
##λ	878
##$	879
##▼	880
##◄	881
##►	882
##命	883
##軍	884
##ح	885
##ṛ	886
##ṅ	887
##ґ	888
##ј	889
##ầ	890
##🏆	891
##ì	892
##‐	893
##团	894
##ệ	895
##≈	896
##`	897
##🍀	898
##χ	899
##η	900
##ù	901
##ơ	902
##đ	903
##ุ	904
##ข	905
##ธ	906
##น	907
##ะ	908
##ц	909
##م	910
##ン	911
##ビ	912
##ニ	913
##§	914
##­	915
##κ	916
##ǧ	917
##ĺ	918
##式	919
##社	920
##オ	921
##リ	922
##コ	923
##📚	924
##ě	925
##ǒ	926
##ί	927
##言	928
##ś	929
##●	930
##–	931
##¡	932
##ج	933
##	934
##უ	935
##ც	936
##რ	937
##ი	938
##ń	939
##❓	940
##ṣ	941
##ṇ	942
##책	943
##	944
##ủ	945
##ọ	946
##ع	947
##🏽	948
##‌	949
##ω	950
##💚	951
##😍	952
##ة	953
##ή	954
##θ	955
##ễ	956
##β	957
##	958
##ḳ	959
##с	960
##ы	961
##й	962
##̇	963
##革	964
##军	965
##华	966
##人	967
##共	968
##和	969
##万	970
##岁	971
##光	972
##↵	973
##✎	974
##灣	975
##國	976
##⚘	977
##💜	978
##🦋	979
##🐞	980
##😇	981
##ą	982
##ķ	983
##	984
##п	985
##ḥ	986
##ǎ	987
##ص	988
##海	989
##協	990
##會	991
##級	992
##聯	993
##賽	994
##ั	995
##ก	996
##เ	997
##ี	998
##ย	999
##ร	1000
##ต	1001
##ิ	1002
##界	1003
##大	1004
##结	1005
##л	1006
##er	1007
##en	1008
##ar	1009
##tt	1010
##an	1011
##et	1012
##ll	1013
##ör	1014
##in	1015
##om	1016
##st	1017
för	1018
oc	1019
##ig	1020
och	1021
##on	1022
att	1023
en	1024
##or	1025
##de	1026
in	1027
##at	1028
##är	1029
##ka	1030
##ing	1031
är	1032
##ed	1033
##ag	1034
de	1035
##ill	1036
##än	1037
av	1038
##na	1039
##is	1040
##ra	1041
##kt	1042
det	1043
som	1044
till	1045
på	1046
st	1047
##el	1048
med	1049
vi	1050
##al	1051
##te	1052
an	1053
##lig	1054
den	1055
##pp	1056
##ck	1057
##ning	1058
##der	1059
##am	1060
##ro	1061
##ter	1062
##ån	1063
##ion	1064
var	1065
om	1066
##as	1067
##it	1068
##es	1069
##iv	1070
har	1071
jag	1072
##un	1073
inte	1074
du	1075
##ver	1076
fr	1077
ut	1078
##il	1079
##id	1080
##em	1081
##ller	1082
kan	1083
##and	1084
##ad	1085
ett	1086
##ade	1087
##ur	1088
##ätt	1089
sk	1090
##re	1091
kom	1092
##äl	1093
##ol	1094
##ande	1095
##åg	1096
##år	1097
all	1098
##are	1099
##het	1100
be	1101
##ik	1102
##da	1103
##ot	1104
##ss	1105
upp	1106
##ent	1107
##sk	1108
##mer	1109
##ut	1110
så	1111
pro	1112
eller	1113
##ation	1114
un	1115
##li	1116
ska	1117
##sta	1118
sp	1119
##ång	1120
##äg	1121
##itt	1122
##ans	1123
##ens	1124
från	1125
##ort	1126
##ell	1127
##för	1128
re	1129
när	1130
##us	1131
ar	1132
##isk	1133
men	1134
##le	1135
min	1136
##ta	1137
sam	1138
##äm	1139
någ	1140
##äll	1141
##vän	1142
##ud	1143
kon	1144
över	1145
han	1146
##um	1147
kommer	1148
tr	1149
##ist	1150
##tta	1151
er	1152
bar	1153
##fter	1154
##inn	1155
##iska	1156
##sa	1157
##ma	1158
##den	1159
##la	1160
##yck	1161
##ligt	1162
man	1163
##era	1164
gör	1165
##ks	1166
än	1167
##dra	1168
under	1169
##og	1170
##var	1171
se	1172
##liga	1173
##ker	1174
fa	1175
din	1176
##ul	1177
##jäl	1178
##ff	1179
##ers	1180
##ram	1181
använ	1182
##ic	1183
sig	1184
gr	1185
detta	1186
##änn	1187
##ser	1188
alla	1189
där	1190
här	1191
år	1192
vara	1193
##ste	1194
gen	1195
##ull	1196
##gen	1197
##bet	1198
pr	1199
##lar	1200
##je	1201
beh	1202
dig	1203
må	1204
sin	1205
efter	1206
vad	1207
##se	1208
##äng	1209
##igt	1210
ny	1211
ha	1212
##ft	1213
fl	1214
or	1215
hel	1216
##ska	1217
hur	1218
20	1219
vär	1220
##dr	1221
allt	1222
tid	1223
##yg	1224
sy	1225
##bb	1226
dess	1227
ex	1228
vill	1229
kun	1230
hon	1231
ta	1232
##ster	1233
##orm	1234
vis	1235
##os	1236
kr	1237
##del	1238
##ne	1239
bl	1240
finn	1241
sl	1242
##ats	1243
##att	1244
ver	1245
##od	1246
finns	1247
##erna	1248
##pa	1249
te	1250
##åll	1251
andra	1252
##ri	1253
ocks	1254
också	1255
##ger	1256
mer	1257
##ukt	1258
##art	1259
br	1260
dag	1261
genom	1262
##ok	1263
##iga	1264
##im	1265
vil	1266
##ven	1267
mig	1268
##sl	1269
##itet	1270
tv	1271
pl	1272
##ycket	1273
##ju	1274
##öd	1275
##ling	1276
vid	1277
##ningar	1278
mot	1279
bara	1280
##öj	1281
bör	1282
##..	1283
väl	1284
bli	1285
dem	1286
denna	1287
##ve	1288
fram	1289
le	1290
nu	1291
##ess	1292
mycket	1293
##va	1294
arbet	1295
##und	1296
##ekt	1297
res	1298
##per	1299
##ord	1300
pers	1301
ber	1302
##ch	1303
spel	1304
##ilj	1305
sa	1306
##ci	1307
##ligen	1308
få	1309
del	1310
##ikt	1311
##edan	1312
##arna	1313
##ier	1314
##ga	1315
mar	1316
person	1317
vår	1318
någon	1319
al	1320
##ånga	1321
##ant	1322
bes	1323
själ	1324
##ja	1325
ka	1326
##ningen	1327
liv	1328
bet	1329
göra	1330
##ställ	1331
använd	1332
ann	1333
stor	1334
förs	1335
rätt	1336
ty	1337
även	1338
##gi	1339
bil	1340
kv	1341
##ella	1342
skull	1343
hö	1344
##lem	1345
##ighet	1346
...	1347
##ket	1348
eu	1349
##ld	1350
##ust	1351
många	1352
männ	1353
li	1354
då	1355
sätt	1356
lä	1357
skulle	1358
oss	1359
säg	1360
dessa	1361
prod	1362
##vis	1363
##eras	1364
##opp	1365
##rå	1366
ser	1367
behö	1368
inf	1369
vet	1370
sä	1371
##riv	1372
##kar	1373
##00	1374
##eg	1375
##tr	1376
##lighet	1377
##nad	1378
barn	1379
bra	1380
fö	1381
kl	1382
##ala	1383
##ende	1384
##sp	1385
ma	1386
måste	1387
ch	1388
##ass	1389
reg	1390
##ost	1391
utan	1392
får	1393
människ	1394
##op	1395
##tal	1396
hade	1397
komm	1398
##cka	1399
##kom	1400
hjäl	1401
##ock	1402
mo	1403
##yr	1404
något	1405
##ken	1406
vå	1407
##ien	1408
ni	1409
första	1410
##dag	1411
str	1412
19	1413
##oll	1414
me	1415
##ia	1416
##etag	1417
##öm	1418
produkt	1419
201	1420
##nings	1421
##håll	1422
nä	1423
##tern	1424
##iskt	1425
##ir	1426
inne	1427
##ber	1428
fråg	1429
##sätt	1430
först	1431
två	1432
##ick	1433
vä	1434
##ön	1435
kän	1436
gång	1437
##ater	1438
själv	1439
##ök	1440
##veck	1441
##jän	1442
kont	1443
##land	1444
företag	1445
##ov	1446
##ce	1447
##gr	1448
##if	1449
inom	1450
sm	1451
fort	1452
hem	1453
vikt	1454
##äd	1455
möj	1456
gl	1457
##som	1458
hand	1459
led	1460
##sam	1461
of	1462
lag	1463
fin	1464
utveck	1465
människor	1466
for	1467
hög	1468
jo	1469
##åt	1470
##ativ	1471
sv	1472
fun	1473
sedan	1474
na	1475
##ult	1476
åt	1477
sina	1478
nya	1479
##ann	1480
##else	1481
varje	1482
verk	1483
samt	1484
di	1485
##mar	1486
##yn	1487
##ering	1488
slut	1489
th	1490
##ellan	1491
##stem	1492
våra	1493
##pl	1494
##upp	1495
##änder	1496
##kn	1497
##br	1498
säker	1499
##bil	1500
##akt	1501
##lj	1502
par	1503
##pt	1504
milj	1505
mellan	1506
ditt	1507
eg	1508
behöver	1509
##kl	1510
tjän	1511
gå	1512
euro	1513
dat	1514
##det	1515
lö	1516
ge	1517
några	1518
ing	1519
åter	1520
##erade	1521
##men	1522
per	1523
börj	1524
gud	1525
##yd	1526
##ionen	1527
hela	1528
##aren	1529
we	1530
##lika	1531
akt	1532
##enter	1533
##ingar	1534
läg	1535
##kr	1536
##lev	1537
olika	1538
läng	1539
gj	1540
##man	1541
tro	1542
deras	1543
dina	1544
kö	1545
pol	1546
##änd	1547
stör	1548
sen	1549
bä	1550
ans	1551
##ioner	1552
##alt	1553
väg	1554
fil	1555
sitt	1556
##jär	1557
säger	1558
##str	1559
dr	1560
enda	1561
lär	1562
##enska	1563
##ormation	1564
vän	1565
ingen	1566
##erar	1567
##ts	1568
mark	1569
##gång	1570
##sen	1571
##ygg	1572
##ba	1573
##bar	1574
so	1575
##io	1576
håll	1577
information	1578
##ott	1579
hitt	1580
##vär	1581
hans	1582
##ika	1583
blir	1584
art	1585
land	1586
inn	1587
förb	1588
##ie	1589
##äck	1590
bå	1591
##des	1592
ra	1593
##gram	1594
##iss	1595
grund	1596
samma	1597
##org	1598
hen	1599
skall	1600
tän	1601
ju	1602
##anska	1603
##av	1604
ba	1605
##ef	1606
ur	1607
tre	1608
intern	1609
proc	1610
går	1611
ne	1612
honom	1613
##ationer	1614
pa	1615
##atur	1616
fy	1617
alltid	1618
ja	1619
##ets	1620
on	1621
##lden	1622
följ	1623
##fatt	1624
tal	1625
ro	1626
rel	1627
varför	1628
).	1629
ind	1630
##ida	1631
vilket	1632
##ub	1633
##änner	1634
system	1635
helt	1636
##ang	1637
##par	1638
##kon	1639
spe	1640
svar	1641
lo	1642
##gan	1643
stud	1644
##pel	1645
program	1646
mitt	1647
världen	1648
200	1649
mat	1650
ger	1651
##ffekt	1652
va	1653
##äv	1654
sn	1655
kra	1656
sju	1657
ord	1658
##nas	1659
##uv	1660
plan	1661
komp	1662
best	1663
ly	1664
##skap	1665
the	1666
läm	1667
vin	1668
intr	1669
##gar	1670
lång	1671
dom	1672
##dom	1673
fall	1674
mål	1675
##amn	1676
##rekt	1677
bästa	1678
enligt	1679
områ	1680
fakt	1681
värld	1682
skriv	1683
van	1684
##kel	1685
##ske	1686
bo	1687
val	1688
kall	1689
##blem	1690
varit	1691
tekn	1692
##nader	1693
eftersom	1694
ant	1695
##skar	1696
speci	1697
##all	1698
##äller	1699
##ke	1700
##me	1701
använda	1702
##far	1703
bort	1704
##dan	1705
effekt	1706
##åller	1707
bätt	1708
kunna	1709
medlem	1710
id	1711
##jekt	1712
##verk	1713
erb	1714
webb	1715
bättre	1716
##ksam	1717
behand	1718
##erad	1719
##skil	1720
problem	1721
##olk	1722
##ellt	1723
##atten	1724
pen	1725
##tter	1726
organ	1727
fär	1728
10	1729
##orde	1730
lever	1731
mus	1732
##utom	1733
förl	1734
##ings	1735
hän	1736
##ål	1737
tar	1738
före	1739
lite	1740
pre	1741
ve	1742
sna	1743
ställ	1744
annan	1745
form	1746
off	1747
äl	1748
met	1749
##drig	1750
##min	1751
stad	1752
##igare	1753
hos	1754
kvinn	1755
##fr	1756
po	1757
##digt	1758
exem	1759
tra	1760
##pe	1761
kanske	1762
rikt	1763
aldrig	1764
artik	1765
##ägg	1766
##gifter	1767
igen	1768
full	1769
mest	1770
annat	1771
##istor	1772
flera	1773
öpp	1774
##ades	1775
forsk	1776
bok	1777
därför	1778
##ine	1779
##xt	1780
stora	1781
rå	1782
##ly	1783
idag	1784
fast	1785
##tera	1786
##pr	1787
##ingen	1788
##heten	1789
fam	1790
innan	1791
##gär	1792
##lut	1793
##igheter	1794
##vet	1795
tror	1796
kär	1797
part	1798
lig	1799
komma	1800
natur	1801
##uvud	1802
snabb	1803
ofta	1804
et	1805
exempel	1806
##ug	1807
mö	1808
ob	1809
syn	1810
##iva	1811
he	1812
häl	1813
stat	1814
##kv	1815
vissa	1816
and	1817
pla	1818
blev	1819
kro	1820
##ym	1821
gra	1822
##enskap	1823
##klar	1824
histor	1825
plats	1826
##ard	1827
##arbet	1828
tillba	1829
män	1830
##anden	1831
bland	1832
##ow	1833
##olog	1834
ner	1835
namn	1836
sh	1837
ad	1838
utveckling	1839
huvud	1840
gam	1841
saker	1842
kontro	1843
##jer	1844
la	1845
hör	1846
##gör	1847
tillbaka	1848
berätt	1849
##nar	1850
##rakt	1851
pris	1852
hjär	1853
##unt	1854
im	1855
red	1856
##unkt	1857
direkt	1858
##mans	1859
is	1860
##met	1861
stöd	1862
god	1863
verkligen	1864
kort	1865
co	1866
##naden	1867
sär	1868
##ånd	1869
bas	1870
hjälp	1871
##nes	1872
lik	1873
fick	1874
förän	1875
gäller	1876
hus	1877
star	1878
##nen	1879
##öka	1880
##ial	1881
go	1882
##konom	1883
möjlighet	1884
em	1885
##andet	1886
tur	1887
internation	1888
mina	1889
grupp	1890
##orna	1891
##äns	1892
sådan	1893
skyd	1894
både	1895
artikel	1896
##sten	1897
tim	1898
särskil	1899
##ote	1900
bygg	1901
##kte	1902
polit	1903
##ip	1904
##erat	1905
risk	1906
soci	1907
##rar	1908
##ib	1909
##ung	1910
förm	1911
##farande	1912
rör	1913
##iken	1914
dock	1915
##uc	1916
organis	1917
##ultat	1918
endast	1919
kar	1920
sjuk	1921
tag	1922
##jud	1923
kost	1924
lå	1925
##vent	1926
tidigare	1927
ekonom	1928
nation	1929
##atser	1930
##kor	1931
kunde	1932
kli	1933
beslut	1934
##ära	1935
kropp	1936
##elser	1937
produkter	1938
mind	1939
##ående	1940
bef	1941
##ob	1942
##tid	1943
familj	1944
fle	1945
##sammans	1946
app	1947
lätt	1948
ab	1949
##oner	1950
redan	1951
tillsammans	1952
##ition	1953
##ister	1954
rö	1955
personer	1956
resultat	1957
använder	1958
jobb	1959
aktiv	1960
konst	1961
##led	1962
vilka	1963
pres	1964
trans	1965
vatten	1966
lös	1967
kor	1968
ens	1969
cent	1970
amer	1971
##sst	1972
vårt	1973
hopp	1974
##anta	1975
##ument	1976
mindre	1977
##lägg	1978
si	1979
projekt	1980
sol	1981
data	1982
inkl	1983
##heter	1984
des	1985
webbpl	1986
vilken	1987
##bild	1988
##derna	1989
tiden	1990
fel	1991
usa	1992
funkt	1993
erbju	1994
flyg	1995
fortfarande	1996
utr	1997
##alitet	1998
##kade	1999
säga	2000
sid	2001
ele	2002
folk	2003
##amp	2004
fly	2005
int	2006
##ina	2007
gjort	2008
dö	2009
##cker	2010
fot	2011
enkel	2012
fe	2013
##ions	2014
her	2015
väldigt	2016
död	2017
##ivers	2018
låt	2019
##ycker	2020
##ationen	2021
##orn	2022
förstå	2023
egen	2024
##öker	2025
tjänster	2026
##ast	2027
verksam	2028
fortsätt	2029
ligger	2030
ener	2031
##istr	2032
##drar	2033
ansvar	2034
niv	2035
känner	2036
eng	2037
##hand	2038
##äff	2039
##sikt	2040
bestäm	2041
”.	2042
procent	2043
sex	2044
##iker	2045
fler	2046
ang	2047
##slut	2048
##äk	2049
##aste	2050
styr	2051
typ	2052
far	2053
svår	2054
pat	2055
##ler	2056
##stånd	2057
fem	2058
säkerhet	2059
##ive	2060
klar	2061
bel	2062
antal	2063
kvinnor	2064
vem	2065
15	2066
##nade	2067
väx	2068
##nu	2069
##nads	2070
pengar	2071
18	2072
ac	2073
jäm	2074
mä	2075
##rätt	2076
fråga	2077
##ynd	2078
ter	2079
univers	2080
hjälpa	2081
skapa	2082
##rott	2083
tack	2084
läs	2085
inneb	2086
skol	2087
000	2088
at	2089
##män	2090
längre	2091
största	2092
prof	2093
möjligt	2094
ban	2095
##häll	2096
länder	2097
just	2098
främ	2099
ung	2100
##jur	2101
dagar	2102
tillg	2103
behandling	2104
hitta	2105
##dera	2106
##takt	2107
näst	2108
ol	2109
hår	2110
europe	2111
bety	2112
läk	2113
##gon	2114
bild	2115
rum	2116
##tag	2117
räd	2118
12	2119
ned	2120
nät	2121
äg	2122
förbätt	2123
rapp	2124
dra	2125
to	2126
##sy	2127
##uk	2128
##ige	2129
pass	2130
förv	2131
##mär	2132
kommun	2133
##uter	2134
utbild	2135
veck	2136
##äder	2137
gener	2138
lika	2139
##går	2140
##lek	2141
##olag	2142
samhäll	2143
kontakt	2144
miljö	2145
utt	2146
lit	2147
hennes	2148
orsa	2149
##kommen	2150
mas	2151
san	2152
används	2153
nära	2154
arbete	2155
##ata	2156
##varande	2157
finans	2158
##ämp	2159
##älj	2160
gem	2161
),	2162
inget	2163
ännu	2164
lin	2165
henne	2166
".	2167
inve	2168
lu	2169
ry	2170
viktigt	2171
##anc	2172
europa	2173
##derar	2174
##ivt	2175
visar	2176
##las	2177
nästa	2178
nivå	2179
tillgäng	2180
allmän	2181
by	2182
nog	2183
##bart	2184
##föra	2185
kraft	2186
ön	2187
##håller	2188
##ivit	2189
älskar	2190
##ice	2191
åtgär	2192
##äpp	2193
livet	2194
##ligare	2195
runt	2196
sver	2197
el	2198
titt	2199
aff	2200
gjorde	2201
betal	2202
bed	2203
##orter	2204
större	2205
##form	2206
arbets	2207
nästan	2208
flesta	2209
energi	2210
##rum	2211
kvar	2212
avs	2213
skap	2214
själva	2215
ana	2216
mater	2217
und	2218
koll	2219
ib	2220
fi	2221
##son	2222
##idigt	2223
##ner	2224
tycker	2225
samarbet	2226
##kan	2227
##eter	2228
inter	2229
små	2230
##line	2231
ytter	2232
loka	2233
pub	2234
##iella	2235
börjar	2236
ih	2237
senaste	2238
tred	2239
##olut	2240
änd	2241
##net	2242
##ställa	2243
särskilt	2244
händer	2245
hålla	2246
com	2247
##amma	2248
##edel	2249
kat	2250
post	2251
##port	2252
förändr	2253
su	2254
sak	2255
##vs	2256
##ider	2257
##äst	2258
amerik	2259
##orer	2260
##lic	2261
besk	2262
samman	2263
kons	2264
##ity	2265
30	2266
frågor	2267
nytt	2268
webbplats	2269
##giv	2270
dagen	2271
uppf	2272
mon	2273
tan	2274
viktiga	2275
gill	2276
innebär	2277
am	2278
kör	2279
medan	2280
ca	2281
##itu	2282
skydd	2283
köp	2284
##ori	2285
##jus	2286
enkelt	2287
inför	2288
##ift	2289
##bo	2290
##cis	2291
##hör	2292
##cke	2293
desig	2294
##ultur	2295
delar	2296
##slag	2297
mis	2298
nöd	2299
båda	2300
bid	2301
##ha	2302
##ct	2303
fri	2304
##andel	2305
inst	2306
##icka	2307
##ternativ	2308
##otell	2309
##uella	2310
sc	2311
uppgifter	2312
affär	2313
##ren	2314
tillgång	2315
##tar	2316
senare	2317
spr	2318
innehåll	2319
11	2320
klass	2321
alternativ	2322
sj	2323
står	2324
behov	2325
mynd	2326
##oende	2327
pos	2328
fyra	2329
påver	2330
online	2331
fått	2332
hotell	2333
blivit	2334
erbjuder	2335
gu	2336
##one	2337
steg	2338
spela	2339
##ital	2340
precis	2341
icke	2342
##räck	2343
samtidigt	2344
ögon	2345
medlemsst	2346
##ism	2347
##sättning	2348
##tro	2349
begr	2350
ren	2351
##örer	2352
##fer	2353
##iet	2354
.”	2355
##int	2356
bud	2357
mag	2358
dessutom	2359
##jut	2360
##est	2361
##andra	2362
ibland	2363
öka	2364
länge	2365
via	2366
##essen	2367
rad	2368
omfatt	2369
erf	2370
##ind	2371
ljus	2372
material	2373
inga	2374
tem	2375
bor	2376
funger	2377
öv	2378
kultur	2379
miss	2380
##elsen	2381
tog	2382
##fin	2383
sverige	2384
tredje	2385
##ral	2386
tel	2387
kap	2388
hal	2389
##eln	2390
glob	2391
sjukdom	2392
##väg	2393
såg	2394
gar	2395
gre	2396
europeiska	2397
gick	2398
##äkt	2399
skill	2400
hy	2401
##ate	2402
miljoner	2403
##ften	2404
##pekt	2405
##van	2406
##ständ	2407
kommiss	2408
mil	2409
häls	2410
##ativa	2411
förlor	2412
##ös	2413
##pen	2414
gånger	2415
##rat	2416
rekommen	2417
disk	2418
punkt	2419
kunder	2420
##full	2421
reger	2422
började	2423
faktiskt	2424
förhåll	2425
##inna	2426
do	2427
jord	2428
framtid	2429
djur	2430
100	2431
##bin	2432
##sett	2433
följande	2434
##råk	2435
kvalitet	2436
stort	2437
invester	2438
##raf	2439
##ny	2440
håller	2441
sky	2442
ål	2443
##ligtvis	2444
##fekt	2445
mode	2446
byg	2447
sade	2448
bu	2449
avtal	2450
##dern	2451
emot	2452
bolag	2453
uppt	2454
nödvän	2455
199	2456
analy	2457
son	2458
##ari	2459
näm	2460
##nitt	2461
träff	2462
arbetar	2463
ytterligare	2464
##iner	2465
intres	2466
driv	2467
##lla	2468
test	2469
veta	2470
lära	2471
##okus	2472
medic	2473
16	2474
nå	2475
trän	2476
bilder	2477
visa	2478
##ond	2479
hoppas	2480
värde	2481
gången	2482
verksamhet	2483
fokus	2484
blod	2485
mär	2486
ident	2487
##kän	2488
##tra	2489
föräl	2490
marknads	2491
##bara	2492
##så	2493
mänsk	2494
erfaren	2495
##vä	2496
##usive	2497
##fär	2498
pop	2499
start	2500
##atis	2501
förklar	2502
sådana	2503
timmar	2504
fann	2505
kontroller	2506
låg	2507
##itut	2508
unders	2509
beskriv	2510
vänner	2511
17	2512
sch	2513
13	2514
tillämp	2515
köpa	2516
##ry	2517
##hol	2518
månader	2519
sym	2520
sidan	2521
##satt	2522
kräv	2523
skad	2524
##ations	2525
jes	2526
krist	2527
förbättra	2528
kontroll	2529
svårt	2530
handlar	2531
egna	2532
##ian	2533
##ament	2534
framgång	2535
25	2536
##syn	2537
handel	2538
indust	2539
##mat	2540
råd	2541
##delse	2542
##hus	2543
liten	2544
områden	2545
snabbt	2546
varandra	2547
mor	2548
äm	2549
inklusive	2550
vidare	2551
året	2552
priv	2553
krä	2554
ir	2555
begräns	2556
välja	2557
##asin	2558
##fäll	2559
förvän	2560
åtgärder	2561
guds	2562
gamla	2563
fanta	2564
roll	2565
erna	2566
new	2567
cy	2568
##ph	2569
tillräck	2570
hjälper	2571
världens	2572
##kra	2573
börja	2574
fantast	2575
##ession	2576
teknik	2577
50	2578
##co	2579
krig	2580
14	2581
##nat	2582
##rev	2583
musik	2584
gillar	2585
perfekt	2586
riktigt	2587
##drag	2588
innehåller	2589
hot	2590
##delar	2591
användning	2592
träd	2593
##ike	2594
serv	2595
##kring	2596
medlemsstat	2597
film	2598
blog	2599
##spr	2600
ins	2601
alltså	2602
besök	2603
internet	2604
internationella	2605
borde	2606
##ckt	2607
fys	2608
sett	2609
mäng	2610
slag	2611
##sin	2612
forskning	2613
##med	2614
sista	2615
vide	2616
##lick	2617
området	2618
ben	2619
my	2620
registr	2621
trots	2622
##strukt	2623
ute	2624
kur	2625
##fall	2626
kärlek	2627
fungerar	2628
talet	2629
kol	2630
tot	2631
##inner	2632
produc	2633
sö	2634
insp	2635
prin	2636
cir	2637
början	2638
##nande	2639
##vid	2640
con	2641
it	2642
kyr	2643
ändra	2644
hun	2645
minst	2646
minuter	2647
upplev	2648
känna	2649
defin	2650
medel	2651
marknaden	2652
##orgon	2653
långt	2654
känn	2655
inb	2656
tor	2657
helst	2658
sök	2659
aktivitet	2660
elekt	2661
resa	2662
”,	2663
minska	2664
dy	2665
vetenskap	2666
villkor	2667
."	2668
situ	2669
vers	2670
spar	2671
offent	2672
##lja	2673
oav	2674
##by	2675
anställ	2676
##ux	2677
fred	2678
stand	2679
joh	2680
bö	2681
förut	2682
betyder	2683
tillfäll	2684
kopp	2685
##ember	2686
##ium	2687
##up	2688
beg	2689
##medel	2690
as	2691
",	2692
##alen	2693
##ten	2694
jämför	2695
##iter	2696
gemens	2697
##öst	2698
##lag	2699
livs	2700
års	2701
släpp	2702
##iera	2703
staden	2704
exper	2705
mobil	2706
port	2707
##dar	2708
##ansk	2709
##kning	2710
integr	2711
kunskap	2712
##rikt	2713
ag	2714
framför	2715
##ifier	2716
förord	2717
teck	2718
trad	2719
design	2720
sag	2721
föd	2722
tyd	2723
fören	2724
mör	2725
verkar	2726
lev	2727
landet	2728
historia	2729
läsa	2730
verkt	2731
##ator	2732
hund	2733
användas	2734
##borg	2735
nor	2736
tänk	2737
posit	2738
popul	2739
rom	2740
insta	2741
utman	2742
haft	2743
spelare	2744
glöm	2745
dröm	2746
företaget	2747
äld	2748
vägen	2749
hemma	2750
högre	2751
ko	2752
spelar	2753
käll	2754
föres	2755
inv	2756
dok	2757
##anter	2758
färg	2759
maj	2760
ganska	2761
##förs	2762
##kur	2763
förmåg	2764
papp	2765
no	2766
os	2767
##for	2768
idé	2769
##handa	2770
hjärt	2771
ev	2772
norm	2773
kombin	2774
era	2775
##ident	2776
##ograf	2777
såsom	2778
sociala	2779
indiv	2780
fanns	2781
mask	2782
nord	2783
ändå	2784
oper	2785
##kas	2786
tillhanda	2787
språk	2788
medvet	2789
anled	2790
##cept	2791
myndighet	2792
författ	2793
specif	2794
##sprung	2795
ursprung	2796
frågan	2797
komple	2798
jesus	2799
log	2800
public	2801
någonsin	2802
kväll	2803
sida	2804
##ds	2805
ville	2806
##lingar	2807
kam	2808
##ay	2809
##ue	2810
systemet	2811
medicin	2812
bit	2813
iställ	2814
verktyg	2815
fo	2816
istället	2817
skicka	2818
oavsett	2819
lämna	2820
enlighet	2821
bi	2822
lycka	2823
makt	2824
utbildning	2825
lad	2826
meddel	2827
##ons	2828
##efon	2829
kallas	2830
elektr	2831
##komst	2832
känsl	2833
mic	2834
arbeta	2835
kn	2836
##ännande	2837
bib	2838
undv	2839
pe	2840
yo	2841
extra	2842
ed	2843
mass	2844
fatt	2845
utveckl	2846
snart	2847
kommissionen	2848
ovan	2849
brott	2850
##its	2851
##stol	2852
kamp	2853
##uari	2854
uppfy	2855
##staur	2856
utanför	2857
##rael	2858
vilja	2859
ske	2860
amerikanska	2861
restaur	2862
israel	2863
kräver	2864
##enhet	2865
utveckla	2866
##öv	2867
uppn	2868
##fte	2869
försöker	2870
##växt	2871
##illa	2872
rättigheter	2873
##ält	2874
##emang	2875
lyck	2876
upptä	2877
##ring	2878
lyss	2879
uppd	2880
##gift	2881
ton	2882
##bl	2883
ifr	2884
ste	2885
##sm	2886
##yl	2887
användare	2888
bäst	2889
förh	2890
käns	2891
höj	2892
platser	2893
goog	2894
lägga	2895
öppna	2896
utom	2897
ram	2898
tillräckligt	2899
event	2900
##fri	2901
##rift	2902
respekt	2903
konkur	2904
krävs	2905
innov	2906
dör	2907
##tte	2908
försälj	2909
##ferens	2910
följa	2911
tänka	2912
##ologi	2913
tills	2914
gratis	2915
beroende	2916
##ienter	2917
meto	2918
äta	2919
imp	2920
##ubb	2921
##sb	2922
##lik	2923
##omen	2924
prakt	2925
##lament	2926
##ars	2927
##ärt	2928
bru	2929
redo	2930
pot	2931
färd	2932
##ummer	2933
läkem	2934
##vara	2935
erbjud	2936
heller	2937
##ge	2938
fisk	2939
mamma	2940
social	2941
universitet	2942
institut	2943
sän	2944
tänker	2945
##ng	2946
lämp	2947
regel	2948
slutet	2949
vanliga	2950
bal	2951
##tem	2952
##age	2953
anslut	2954
område	2955
##ump	2956
älska	2957
##ork	2958
rapporter	2959
##ite	2960
dec	2961
uppnå	2962
dokument	2963
##uppgifter	2964
rev	2965
dist	2966
##mera	2967
##ko	2968
##orden	2969
sta	2970
kund	2971
leva	2972
abs	2973
##val	2974
åren	2975
match	2976
skriva	2977
anp	2978
tillverk	2979
morgon	2980
fran	2981
##ösa	2982
##ert	2983
text	2984
##vor	2985
##igh	2986
skriver	2987
dju	2988
service	2989
stan	2990
exp	2991
låter	2992
##rån	2993
vecka	2994
jorden	2995
24	2996
glad	2997
bek	2998
bevis	2999
chef	3000
tillväxt	3001
egent	3002
leverant	3003
inklu	3004
opt	3005
##kta	3006
##ivet	3007
begär	3008
##dagen	3009
hälsa	3010
län	3011
##ns	3012
grän	3013
##äs	3014
##unda	3015
frukt	3016
övr	3017
allvar	3018
typer	3019
dela	3020
säkerhets	3021
konc	3022
autom	3023
gär	3024
##ies	3025
##ore	3026
genomför	3027
intress	3028
utrust	3029
fortsätter	3030
kommit	3031
krav	3032
effektiv	3033
räk	3034
deltag	3035
ph	3036
ring	3037
##uld	3038
kal	3039
##stad	3040
stäng	3041
sagt	3042
ford	3043
fortsätta	3044
ihåg	3045
mu	3046
##kla	3047
titta	3048
erfarenhet	3049
##hålla	3050
kommunik	3051
##lin	3052
##ifrån	3053
hittar	3054
funktion	3055
!!	3056
skr	3057
programmet	3058
ass	3059
enhet	3060
jan	3061
platt	3062
bry	3063
relig	3064
telefon	3065
njut	3066
##ting	3067
tradition	3068
##get	3069
kroppen	3070
ho	3071
svenska	3072
klimat	3073
terr	3074
president	3075
skär	3076
viktig	3077
car	3078
gamm	3079
engel	3080
tjänst	3081
psy	3082
vol	3083
stu	3084
gav	3085
isl	3086
mots	3087
sem	3088
##ev	3089
##unn	3090
rik	3091
polis	3092
special	3093
40	3094
##isera	3095
hanter	3096
utför	3097
lösningar	3098
ålder	3099
google	3100
##ämt	3101
nde	3102
het	3103
säl	3104
##äcker	3105
tom	3106
regl	3107
vux	3108
stol	3109
##ancer	3110
nej	3111
rädd	3112
him	3113
bakom	3114
gol	3115
sommar	3116
eget	3117
##ps	3118
##ey	3119
följer	3120
##öt	3121
##napp	3122
hud	3123
bak	3124
ekonomiska	3125
oro	3126
princi	3127
förslag	3128
fas	3129
repr	3130
egentligen	3131
mod	3132
topp	3133
förber	3134
tillstånd	3135
förstår	3136
##rod	3137
##knar	3138
##ton	3139
##band	3140
patienter	3141
säkert	3142
kvinna	3143
väljer	3144
läkare	3145
##unden	3146
rådet	3147
##eder	3148
##okrat	3149
##isering	3150
avslut	3151
bygga	3152
fol	3153
##iod	3154
behövs	3155
##ester	3156
##als	3157
domstol	3158
boken	3159
bad	3160
##punkt	3161
studenter	3162
kapital	3163
##föring	3164
liknande	3165
##otter	3166
potent	3167
förvänt	3168
läkemedel	3169
böcker	3170
ändr	3171
gott	3172
##ys	3173
nationella	3174
sann	3175
dro	3176
##ips	3177
admin	3178
kostnader	3179
##seende	3180
##samma	3181
antalet	3182
wh	3183
våld	3184
goda	3185
##aga	3186
regler	3187
undersök	3188
##ide	3189
##indra	3190
betala	3191
misst	3192
industri	3193
##stå	3194
198	3195
mån	3196
halv	3197
##dant	3198
bro	3199
casin	3200
förändra	3201
förordning	3202
äldre	3203
##ras	3204
försv	3205
prest	3206
detal	3207
konto	3208
gått	3209
##likt	3210
stark	3211
repres	3212
känns	3213
plac	3214
flygpl	3215
röst	3216
bill	3217
ande	3218
skolan	3219
utmär	3220
månad	3221
ark	3222
chans	3223
kina	3224
inspir	3225
dan	3226
##rag	3227
studier	3228
möjligheter	3229
cl	3230
##mare	3231
berätta	3232
veckan	3233
luft	3234
bär	3235
dator	3236
ga	3237
bete	3238
speciellt	3239
lokala	3240
team	3241
personuppgifter	3242
administr	3243
klart	3244
lokal	3245
##iz	3246
strukt	3247
##cep	3248
##edit	3249
##efär	3250
##ölj	3251
rapport	3252
struktur	3253
strat	3254
ungefär	3255
dis	3256
gro	3257
hum	3258
skapar	3259
tillgängliga	3260
##skr	3261
dags	3262
tio	3263
##lade	3264
prov	3265
21	3266
##dde	3267
stjär	3268
säson	3269
veckor	3270
bred	3271
studie	3272
##kvens	3273
but	3274
##mande	3275
analys	3276
uppmär	3277
flytt	3278
uppmärksam	3279
knapp	3280
##ningarna	3281
##ollar	3282
standard	3283
##bol	3284
##ak	3285
utgör	3286
spelet	3287
syfte	3288
##uell	3289
finnas	3290
kem	3291
##ionens	3292
känd	3293
let	3294
vir	3295
##atter	3296
politiska	3297
betyd	3298
ljud	3299
omkring	3300
syft	3301
nöj	3302
##ific	3303
##lad	3304
resur	3305
framtiden	3306
cirka	3307
##fa	3308
viss	3309
sluta	3310
ifrån	3311
sal	3312
fördelar	3313
##delser	3314
bestämm	3315
medlemsstaterna	3316
lån	3317
pal	3318
täv	3319
funktioner	3320
tje	3321
##ansch	3322
##be	3323
bon	3324
john	3325
##arder	3326
stö	3327
närheten	3328
presenter	3329
strateg	3330
##stift	3331
fre	3332
##spel	3333
sim	3334
##äss	3335
liksom	3336
##atar	3337
stra	3338
tysk	3339
##stans	3340
delen	3341
mars	3342
kring	3343
affärs	3344
säkerställa	3345
##iti	3346
arbetet	3347
hantera	3348
högsta	3349
##ret	3350
##väl	3351
konf	3352
##book	3353
föräldrar	3354
##gå	3355
tillver	3356
##klart	3357
##ligheten	3358
max	3359
samarbete	3360
##juk	3361
människa	3362
sätta	3363
skydda	3364
igenom	3365
kin	3366
face	3367
försök	3368
video	3369
utl	3370
exakt	3371
##bel	3372
##ont	3373
medborg	3374
krit	3375
##uss	3376
förra	3377
##bruk	3378
##ställning	3379
accep	3380
välj	3381
skillnad	3382
gammal	3383
##över	3384
##enting	3385
##ttag	3386
offic	3387
blogg	3388
ap	3389
tit	3390
##diga	3391
##läggande	3392
##nam	3393
##iteten	3394
viktigaste	3395
##rin	3396
sättet	3397
hållbar	3398
huset	3399
ingenting	3400
namnet	3401
profession	3402
individ	3403
jun	3404
##mun	3405
reser	3406
skyld	3407
tas	3408
uttr	3409
super	3410
##so	3411
##repp	3412
sport	3413
sov	3414
##fråg	3415
kul	3416
wind	3417
##fik	3418
sekt	3419
leda	3420
bank	3421
kron	3422
försöka	3423
grundläggande	3424
ras	3425
##itter	3426
60	3427
##riär	3428
barnen	3429
dollar	3430
##cc	3431
tagit	3432
mänskliga	3433
uppdater	3434
skön	3435
##istan	3436
ej	3437
##ckte	3438
bransch	3439
psyk	3440
komment	3441
bedöm	3442
förmåga	3443
lön	3444
intresse	3445
##her	3446
upple	3447
personal	3448
2018	3449
jur	3450
vack	3451
milit	3452
od	3453
##anger	3454
us	3455
prata	3456
påverkar	3457
##ämpa	3458
sådant	3459
stock	3460
##spl	3461
sub	3462
lägg	3463
engag	3464
##pan	3465
vinna	3466
organisation	3467
fjär	3468
jud	3469
rätts	3470
leder	3471
mid	3472
stopp	3473
kredit	3474
nr	3475
utvecklingen	3476
hjärta	3477
central	3478
filmen	3479
prote	3480
brö	3481
låta	3482
söker	3483
glas	3484
bost	3485
sön	3486
uppen	3487
plattform	3488
säll	3489
##len	3490
##anda	3491
favor	3492
medlemmar	3493
skäl	3494
nätverk	3495
tw	3496
samband	3497
behöva	3498
##lands	3499
##larna	3500
stället	3501
nödvändigt	3502
##ong	3503
##terna	3504
enheter	3505
anställda	3506
da	3507
skick	3508
vit	3509
rep	3510
lagstift	3511
##ash	3512
visste	3513
blå	3514
demokrat	3515
2015	3516
bre	3517
försä	3518
##ativt	3519
##verkan	3520
samhället	3521
##iell	3522
undvika	3523
##kes	3524
##krä	3525
förändringar	3526
##ment	3527
197	3528
ital	3529
favorit	3530
tillhör	3531
konkurr	3532
gärna	3533
relater	3534
karakt	3535
##nytt	3536
##dig	3537
förf	3538
park	3539
anpass	3540
##ins	3541
förutom	3542
sten	3543
politik	3544
transport	3545
natt	3546
upprätt	3547
fyll	3548
22	3549
##tion	3550
unga	3551
forskare	3552
intresser	3553
are	3554
nummer	3555
2016	3556
##ows	3557
tala	3558
##uellt	3559
##står	3560
sker	3561
bekv	3562
vård	3563
##ät	3564
##istiska	3565
består	3566
cancer	3567
kolla	3568
gäll	3569
kill	3570
nyck	3571
wor	3572
bekrä	3573
mängd	3574
neg	3575
tus	3576
berg	3577
förvalt	3578
##ierna	3579
fullt	3580
aut	3581
##ek	3582
omedel	3583
##tes	3584
muse	3585
tids	3586
höga	3587
ihop	3588
engelska	3589
ten	3590
ensam	3591
uppska	3592
2017	3593
kontor	3594
modell	3595
yr	3596
enskil	3597
höra	3598
erbjuda	3599
skog	3600
lösa	3601
finansier	3602
grupper	3603
privat	3604
vackra	3605
priset	3606
regeringen	3607
es	3608
##iens	3609
ryss	3610
framgångs	3611
tips	3612
##emål	3613
berör	3614
lug	3615
närvarande	3616
ansök	3617
relev	3618
världs	3619
anges	3620
kontrollera	3621
ersätt	3622
högt	3623
national	3624
juni	3625
ham	3626
uppdrag	3627
##ension	3628
ansikt	3629
partner	3630
facebook	3631
överva	3632
drabb	3633
##holm	3634
ii	3635
stå	3636
##assa	3637
kommentar	3638
##ett	3639
varum	3640
hems	3641
varumär	3642
vitt	3643
nuvarande	3644
mal	3645
underhåll	3646
karriär	3647
absolut	3648
fart	3649
##nan	3650
##sak	3651
blom	3652
obser	3653
windows	3654
##ban	3655
beräk	3656
af	3657
tol	3658
trö	3659
modern	3660
process	3661
förekom	3662
befolk	3663
livsmedel	3664
december	3665
våg	3666
utform	3667
jul	3668
nedan	3669
sw	3670
##bud	3671
##rik	3672
##lunda	3673
sek	3674
motiv	3675
spår	3676
objekt	3677
dubb	3678
behör	3679
avgör	3680
##ffe	3681
dagens	3682
bilden	3683
ledande	3684
organisationer	3685
enkla	3686
direktiv	3687
tekniska	3688
lösning	3689
##cy	3690
webbplatsen	3691
bestämmelser	3692
##ient	3693
vare	3694
arna	3695
grön	3696
motor	3697
lista	3698
familjen	3699
förvär	3700
2014	3701
fastställ	3702
installer	3703
##efter	3704
kateg	3705
tecken	3706
anlägg	3707
##rade	3708
##visa	3709
juli	3710
antingen	3711
ok	3712
##edd	3713
visas	3714
qu	3715
sälj	3716
##agn	3717
2013	3718
##ald	3719
##itann	3720
period	3721
metoder	3722
alls	3723
storbr	3724
rym	3725
##lit	3726
inlägg	3727
sma	3728
ständ	3729
##system	3730
förhållande	3731
automat	3732
lagen	3733
##olution	3734
förändring	3735
stockholm	3736
##antag	3737
processen	3738
vanligtvis	3739
gemenskap	3740
flick	3741
ret	3742
arm	3743
ledare	3744
ök	3745
skada	3746
ep	3747
mol	3748
utnytt	3749
##atsen	3750
region	3751
bus	3752
##amm	3753
avsnitt	3754
ökar	3755
##kret	3756
maskin	3757
storbritann	3758
##inga	3759
##ids	3760
författare	3761
web	3762
lilla	3763
##of	3764
##ish	3765
brist	3766
##trem	3767
196	3768
talar	3769
önskar	3770
aktiviteter	3771
nov	3772
produktion	3773
##förande	3774
##rib	3775
någonting	3776
deb	3777
stil	3778
adr	3779
sep	3780
problemet	3781
säkra	3782
##inal	3783
försö	3784
##allt	3785
fullständ	3786
kre	3787
pan	3788
extrem	3789
ning	3790
##jen	3791
vart	3792
budget	3793
karaktär	3794
##tida	3795
förr	3796
##visning	3797
smart	3798
scen	3799
don	3800
dotter	3801
york	3802
##mark	3803
poj	3804
23	3805
målet	3806
grad	3807
rädda	3808
ide	3809
##teck	3810
döda	3811
fördel	3812
job	3813
vacker	3814
forsknings	3815
herren	3816
septem	3817
##bör	3818
##én	3819
tryck	3820
september	3821
bla	3822
civ	3823
##kort	3824
menar	3825
förstör	3826
gemensam	3827
eta	3828
resultatet	3829
bur	3830
jätt	3831
##åra	3832
atta	3833
faktum	3834
global	3835
prem	3836
beror	3837
lond	3838
##skott	3839
därmed	3840
personliga	3841
kommunikation	3842
januari	3843
häst	3844
överens	3845
klicka	3846
centrum	3847
konsum	3848
bidrag	3849
civil	3850
##snitt	3851
##ställningar	3852
perio	3853
lyssna	3854
mi	3855
ingår	3856
trädgår	3857
hom	3858
vatt	3859
##boll	3860
##aler	3861
##uta	3862
vänta	3863
konse	3864
marknad	3865
globala	3866
##ners	3867
stre	3868
mottag	3869
skå	3870
därefter	3871
fordon	3872
##rip	3873
användar	3874
gruppen	3875
fest	3876
kontakta	3877
hälso	3878
utrustning	3879
center	3880
projektet	3881
ce	3882
dans	3883
##stående	3884
klubb	3885
vänt	3886
micro	3887
##äster	3888
kompet	3889
häm	3890
ru	3891
anser	3892
ström	3893
elektron	3894
ytt	3895
chr	3896
trodde	3897
casino	3898
visade	3899
##ändska	3900
dav	3901
##under	3902
##ifiera	3903
drag	3904
tillå	3905
skilj	3906
##enta	3907
00	3908
sinn	3909
##läg	3910
föreg	3911
trä	3912
balans	3913
övriga	3914
##undet	3915
handling	3916
##ffa	3917
lägger	3918
##za	3919
behöv	3920
gläd	3921
stäm	3922
kval	3923
##strument	3924
##skra	3925
hamn	3926
##ipp	3927
##erande	3928
tillåt	3929
skrev	3930
kung	3931
500	3932
mannen	3933
cook	3934
förhållanden	3935
heter	3936
otro	3937
##stone	3938
ämnen	3939
regelb	3940
sannol	3941
can	3942
arg	3943
njuta	3944
27	3945
intell	3946
ordet	3947
webbplatser	3948
fång	3949
utvär	3950
char	3951
##ategi	3952
air	3953
##xa	3954
##qu	3955
ober	3956
sla	3957
##20	3958
rec	3959
återvän	3960
gemensamma	3961
folket	3962
vars	3963
kyrkan	3964
fält	3965
okt	3966
##...	3967
##stra	3968
##terar	3969
kry	3970
genomsnitt	3971
kända	3972
stress	3973
2010	3974
bön	3975
mång	3976
delta	3977
elever	3978
tillgänglig	3979
anledning	3980
slå	3981
amb	3982
lic	3983
##yt	3984
##let	3985
##ätta	3986
häng	3987
##öts	3988
anses	3989
aust	3990
berättar	3991
ungdom	3992
försvar	3993
km	3994
lämnar	3995
naturligtvis	3996
##ober	3997
##res	3998
konvent	3999
värd	4000
korrekt	4001
främst	4002
28	4003
skra	4004
datum	4005
musk	4006
london	4007
fortsatt	4008
26	4009
vanligt	4010
effektivt	4011
påverka	4012
nämn	4013
levande	4014
godk	4015
?"	4016
band	4017
##nor	4018
jack	4019
populära	4020
##orlunda	4021
anm	4022
havet	4023
britt	4024
lärare	4025
##parlament	4026
europaparlament	4027
undantag	4028
uppskatt	4029
col	4030
ig	4031
##när	4032
paket	4033
##minstone	4034
fäng	4035
##emot	4036
fön	4037
kläder	4038
utrym	4039
cert	4040
##edda	4041
båt	4042
mult	4043
tyvär	4044
2012	4045
åtminstone	4046
ot	4047
##istik	4048
strategi	4049
godkän	4050
nivåer	4051
definit	4052
storbritannien	4053
##ena	4054
server	4055
stabil	4056
lans	4057
äter	4058
##iver	4059
spännande	4060
kände	4061
oberoende	4062
?”	4063
ill	4064
##ppar	4065
press	4066
tyvärr	4067
##ikro	4068
spen	4069
miljarder	4070
tyskland	4071
:)	4072
##ama	4073
kapa	4074
uttal	4075
avses	4076
frihet	4077
op	4078
finland	4079
oktober	4080
36	4081
apr	4082
##gera	4083
##vik	4084
##jö	4085
##igen	4086
##els	4087
utfor	4088
##enskaper	4089
poäng	4090
känsla	4091
bord	4092
##ca	4093
##fl	4094
dest	4095
uppfatt	4096
reakt	4097
mät	4098
upph	4099
baserat	4100
omfattande	4101
ak	4102
fn	4103
##ure	4104
visst	4105
försäljning	4106
sång	4107
söm	4108
##ilt	4109
samtliga	4110
fantastiska	4111
resten	4112
handels	4113
resurser	4114
ges	4115
##liggör	4116
önsk	4117
tidigt	4118
block	4119
infl	4120
sälja	4121
70	4122
##bas	4123
förhand	4124
inre	4125
net	4126
out	4127
varm	4128
behåll	4129
##dags	4130
förmod	4131
stär	4132
##urg	4133
digit	4134
version	4135
offentliga	4136
ryssland	4137
ek	4138
avsl	4139
bekräft	4140
sat	4141
##enden	4142
tab	4143
fallet	4144
finansiella	4145
åka	4146
##esser	4147
##peratur	4148
annorlunda	4149
##klag	4150
##ologiska	4151
tankar	4152
##ham	4153
##amål	4154
##icy	4155
ändamål	4156
hin	4157
##ystem	4158
frankr	4159
asp	4160
vita	4161
digital	4162
produkten	4163
2011	4164
university	4165
##bygg	4166
##lement	4167
gravid	4168
ip	4169
##ara	4170
höll	4171
##ustr	4172
risken	4173
fotograf	4174
##tet	4175
##bord	4176
enbart	4177
nyligen	4178
bygger	4179
inled	4180
övert	4181
trå	4182
träning	4183
förhindra	4184
islam	4185
david	4186
avslöj	4187
guld	4188
föremål	4189
samtal	4190
kommande	4191
lägre	4192
##iellt	4193
tänkte	4194
80	4195
##ho	4196
fört	4197
##idan	4198
##skning	4199
alko	4200
företags	4201
sitter	4202
djup	4203
35	4204
gas	4205
sur	4206
planet	4207
sidor	4208
sanningen	4209
inkluderar	4210
litet	4211
trafik	4212
hård	4213
semester	4214
alkohol	4215
##ycka	4216
föred	4217
syd	4218
moderna	4219
särskilda	4220
##givare	4221
utmärkt	4222
licens	4223
uts	4224
fungera	4225
exempelvis	4226
patient	4227
jämfört	4228
vuxna	4229
90	4230
tåg	4231
vinn	4232
##ach	4233
##ark	4234
##ona	4235
besö	4236
fotboll	4237
bekväm	4238
april	4239
##deras	4240
besöka	4241
infekt	4242
långa	4243
##oritet	4244
##släpp	4245
barnet	4246
solen	4247
bidra	4248
separ	4249
bilen	4250
filmer	4251
leverantör	4252
hit	4253
je	4254
söka	4255
##blick	4256
##fulla	4257
restauranger	4258
bilar	4259
##öna	4260
meter	4261
baserade	4262
detalj	4263
rut	4264
##satta	4265
konstnär	4266
ul	4267
##äcka	4268
##fe	4269
ställa	4270
internationell	4271
allmänna	4272
bolaget	4273
mun	4274
serie	4275
ekonomi	4276
identifier	4277
pappa	4278
##mor	4279
alb	4280
kärn	4281
betydelse	4282
instrument	4283
##orge	4284
##amin	4285
växt	4286
spara	4287
intressant	4288
konferens	4289
värme	4290
mac	4291
missl	4292
brukar	4293
kompetens	4294
beakt	4295
välkom	4296
klin	4297
##ea	4298
##kul	4299
##nal	4300
exist	4301
verkliga	4302
##spro	4303
jobbet	4304
kön	4305
##orier	4306
visat	4307
rätten	4308
snabbare	4309
kampan	4310
november	4311
vänster	4312
siff	4313
grek	4314
uttryck	4315
recept	4316
däremot	4317
2019	4318
musli	4319
natten	4320
##jan	4321
##amen	4322
##ica	4323
självklart	4324
känslor	4325
kines	4326
vapen	4327
flykt	4328
sant	4329
##cel	4330
##lös	4331
göras	4332
leverans	4333
specifika	4334
distrib	4335
övertyg	4336
##bolag	4337
görs	4338
##ygga	4339
reda	4340
##phone	4341
ent	4342
media	4343
antag	4344
centra	4345
##bru	4346
partners	4347
omedelbart	4348
etabl	4349
kop	4350
stod	4351
varor	4352
egenskaper	4353
borta	4354
oftast	4355
sjun	4356
förmodligen	4357
matt	4358
famil	4359
myndigheter	4360
lov	4361
##end	4362
sty	4363
uppgift	4364
2008	4365
öppen	4366
historien	4367
##färd	4368
batter	4369
##enn	4370
gräns	4371
leg	4372
storlek	4373
platsen	4374
flex	4375
svart	4376
2009	4377
bonus	4378
läge	4379
nämligen	4380
dog	4381
##sch	4382
framtida	4383
rob	4384
flytta	4385
hjärtat	4386
gränser	4387
avseende	4388
personen	4389
dit	4390
ts	4391
##gra	4392
##ement	4393
kaffe	4394
snar	4395
massa	4396
idéer	4397
häv	4398
sätter	4399
##erades	4400
bio	4401
tjäna	4402
sil	4403
serien	4404
jour	4405
starka	4406
anmäl	4407
avanc	4408
pri	4409
händelser	4410
buss	4411
##ern	4412
##ifik	4413
belopp	4414
interv	4415
tävling	4416
ke	4417
medier	4418
utsikt	4419
motstånd	4420
människan	4421
smär	4422
utvecklas	4423
gett	4424
köper	4425
passar	4426
giv	4427
städer	4428
profil	4429
sjö	4430
temperatur	4431
31	4432
uppman	4433
kompon	4434
starkt	4435
symbol	4436
upplevelse	4437
bakgr	4438
##hav	4439
##värd	4440
jär	4441
mikro	4442
frågade	4443
ständigt	4444
frankrike	4445
dri	4446
##ya	4447
##ills	4448
live	4449
möjliga	4450
väntar	4451
metod	4452
##we	4453
##asser	4454
skatt	4455
span	4456
lek	4457
känt	4458
trev	4459
växer	4460
sjukdomar	4461
trygg	4462
miljön	4463
sjukhus	4464
växa	4465
##itekt	4466
##pol	4467
##garna	4468
##he	4469
real	4470
##use	4471
manag	4472
lagar	4473
möte	4474
hört	4475
totalt	4476
hä	4477
sven	4478
##dering	4479
huvudsak	4480
stanna	4481
närmare	4482
perspekt	4483
international	4484
tanke	4485
world	4486
##etr	4487
ena	4488
initi	4489
hast	4490
hall	4491
annars	4492
terror	4493
modeller	4494
industrin	4495
järn	4496
akade	4497
tu	4498
##mon	4499
närma	4500
promen	4501
köra	4502
fåg	4503
läser	4504
diagn	4505
miljon	4506
historiska	4507
regering	4508
arkitekt	4509
##ich	4510
bilje	4511
former	4512
kallar	4513
rekommenderar	4514
jurid	4515
kapac	4516
##igheten	4517
träffa	4518
eventuella	4519
ses	4520
##atör	4521
##entr	4522
ökad	4523
##älla	4524
trump	4525
kontin	4526
naturliga	4527
komplett	4528
smärta	4529
rän	4530
##ocka	4531
##sättningar	4532
handlingar	4533
lättare	4534
kristna	4535
föregående	4536
##äker	4537
saknar	4538
##ydd	4539
hände	4540
priser	4541
##pro	4542
förfar	4543
personlig	4544
##klam	4545
förlust	4546
attack	4547
aug	4548
##tan	4549
##ith	4550
undrar	4551
framåt	4552
rätta	4553
lägenhet	4554
##soft	4555
fartyg	4556
gat	4557
paul	4558
ställe	4559
baserad	4560
lugn	4561
##iot	4562
intens	4563
herr	4564
äkt	4565
##ood	4566
börjat	4567
processer	4568
hända	4569
stödja	4570
föresl	4571
bibli	4572
vattnet	4573
oför	4574
##ppa	4575
beröm	4576
##bert	4577
behandla	4578
bostad	4579
ävent	4580
##rali	4581
uppre	4582
betrakt	4583
kommitt	4584
##samt	4585
##tligen	4586
##vin	4587
äntligen	4588
album	4589
##lo	4590
##vera	4591
fria	4592
plöts	4593
aktie	4594
svara	4595
betydande	4596
fjärde	4597
29	4598
cr	4599
supp	4600
##eda	4601
bev	4602
kommers	4603
##betal	4604
dåligt	4605
normalt	4606
yrkes	4607
sort	4608
##imer	4609
omöj	4610
kalla	4611
nätet	4612
tydligt	4613
black	4614
tum	4615
åtta	4616
mening	4617
staten	4618
apple	4619
up	4620
##lex	4621
kallade	4622
omfattar	4623
straff	4624
##iel	4625
hänsyn	4626
upptäckt	4627
relaterade	4628
kött	4629
hol	4630
ment	4631
äger	4632
dej	4633
skil	4634
paris	4635
roligt	4636
microsoft	4637
nas	4638
tjänsten	4639
korr	4640
dia	4641
##ckar	4642
informationen	4643
svarade	4644
transakt	4645
##öter	4646
##igur	4647
##idande	4648
skjut	4649
parlament	4650
hittade	4651
kärle	4652
jobba	4653
avtalet	4654
skador	4655
älskade	4656
medborgare	4657
drift	4658
##imal	4659
##frika	4660
australi	4661
fal	4662
##sel	4663
##följ	4664
##amer	4665
unika	4666
##drat	4667
faktorer	4668
digitala	4669
värt	4670
##gående	4671
värdet	4672
##ighets	4673
obe	4674
rörelse	4675
samhälle	4676
##bor	4677
194	4678
mekan	4679
effekter	4680
you	4681
##rodukt	4682
sömn	4683
##ror	4684
##endet	4685
##kast	4686
såväl	4687
läst	4688
marknadsföring	4689
privata	4690
beteende	4691
kand	4692
##ada	4693
användningen	4694
främja	4695
ögonblick	4696
fantastisk	4697
bibliote	4698
igår	4699
##iger	4700
tyst	4701
hej	4702
##own	4703
fett	4704
förståelse	4705
aspekt	4706
eli	4707
listan	4708
mön	4709
##ence	4710
avdel	4711
skor	4712
##ård	4713
##hets	4714
195	4715
##klare	4716
följd	4717
relationer	4718
koncentr	4719
iser	4720
situation	4721
leverantörer	4722
konflikt	4723
##lat	4724
inc	4725
##ana	4726
förtro	4727
##sson	4728
##iment	4729
turk	4730
febr	4731
install	4732
konsekvens	4733
will	4734
##xid	4735
##ingarna	4736
fru	4737
pratar	4738
verksamheten	4739
##ight	4740
äktenskap	4741
utföra	4742
rese	4743
begrepp	4744
uppleva	4745
försäkr	4746
kunnat	4747
dålig	4748
väst	4749
fir	4750
##kö	4751
försikt	4752
##ocker	4753
present	4754
rådets	4755
nöjd	4756
##po	4757
ordförande	4758
bidrar	4759
ladd	4760
syftet	4761
ansökan	4762
##ismen	4763
reklam	4764
##delsen	4765
hälften	4766
befint	4767
ryska	4768
kurs	4769
representer	4770
tillägg	4771
strå	4772
nytta	4773
starta	4774
##skraft	4775
##oga	4776
verket	4777
välkommen	4778
princip	4779
##tande	4780
##red	4781
##derade	4782
##unch	4783
möjligheten	4784
förlora	4785
upptäcka	4786
februari	4787
ec	4788
omständ	4789
äng	4790
##trä	4791
klock	4792
##erings	4793
trött	4794
ps	4795
grunden	4796
annon	4797
##akter	4798
gjor	4799
relation	4800
kriget	4801
avgörande	4802
gäster	4803
##alog	4804
utby	4805
##ics	4806
brand	4807
position	4808
italien	4809
intervju	4810
cell	4811
erkän	4812
plus	4813
risker	4814
nödvändiga	4815
besökare	4816
dyr	4817
ist	4818
valt	4819
##fta	4820
stats	4821
##entals	4822
genomföra	4823
##gress	4824
dubbel	4825
jätte	4826
##jöl	4827
familje	4828
august	4829
sci	4830
unionen	4831
marknader	4832
##otten	4833
invest	4834
kandid	4835
city	4836
gif	4837
##verket	4838
utsläpp	4839
skillnaden	4840
föresk	4841
cookies	4842
perspektiv	4843
akadem	4844
45	4845
even	4846
tving	4847
förstås	4848
uppenbar	4849
konkurrens	4850
tillåter	4851
brev	4852
eme	4853
##änderna	4854
filer	4855
vinst	4856
inträff	4857
ekonomisk	4858
ara	4859
franska	4860
kontrakt	4861
skola	4862
enskilda	4863
##stid	4864
##atiska	4865
##edag	4866
allmänhet	4867
fysiska	4868
300	4869
##uro	4870
förd	4871
kunden	4872
dricka	4873
appar	4874
noggr	4875
investeringar	4876
tillhandahålla	4877
perioden	4878
utrymme	4879
ör	4880
##omb	4881
allra	4882
konser	4883
kvällen	4884
rent	4885
ång	4886
lyckas	4887
represent	4888
rock	4889
prova	4890
arr	4891
valet	4892
skapat	4893
coll	4894
överallt	4895
prim	4896
turn	4897
meddelande	4898
misstag	4899
cit	4900
sing	4901
sist	4902
##les	4903
##tryck	4904
långsikt	4905
ursprungliga	4906
jon	4907
##ämpar	4908
totala	4909
##llop	4910
##ink	4911
omgiv	4912
##ssel	4913
ref	4914
tex	4915
infor	4916
anti	4917
radio	4918
lagstiftning	4919
intresserad	4920
automatiskt	4921
##kad	4922
skatte	4923
erk	4924
röda	4925
hårt	4926
dokt	4927
massor	4928
bröllop	4929
sats	4930
åsikt	4931
##eds	4932
##ita	4933
##karen	4934
back	4935
rummet	4936
säsong	4937
överväg	4938
##ycke	4939
2000	4940
jobbar	4941
tittar	4942
polisen	4943
hemsida	4944
initiativ	4945
##cess	4946
##rande	4947
##eck	4948
omv	4949
naturen	4950
glädje	4951
##varo	4952
svåra	4953
myndigheterna	4954
underl	4955
play	4956
situationen	4957
kris	4958
##minister	4959
cykel	4960
definier	4961
##sig	4962
##lare	4963
##aner	4964
##llertid	4965
skrift	4966
##skol	4967
stolt	4968
emellertid	4969
sand	4970
##istisk	4971
....	4972
moder	4973
intressen	4974
identifiera	4975
hundar	4976
militär	4977
behöriga	4978
adress	4979
evenemang	4980
mjuk	4981
resultaten	4982
##struktur	4983
drog	4984
##pi	4985
##arskap	4986
##deles	4987
funn	4988
effektiva	4989
hänt	4990
möta	4991
befinner	4992
uppmärksamhet	4993
##frågan	4994
konsumenter	4995
##ask	4996
lägen	4997
guide	4998
innovation	4999
element	5000
minskar	5001
fina	5002
snarare	5003
uppe	5004
överg	5005
migr	5006
klag	5007
frågar	5008
budskap	5009
annonser	5010
tider	5011
##oci	5012
seg	5013
##värt	5014
one	5015
##part	5016
##gn	5017
##gande	5018
tyska	5019
last	5020
prestanda	5021
plötsligt	5022
instrukt	5023
##ise	5024
##ungen	5025
dum	5026
fabr	5027
orig	5028
##grupp	5029
parker	5030
##äckning	5031
artikeln	5032
##ms	5033
##hi	5034
attrakt	5035
samla	5036
överra	5037
svag	5038
student	5039
behandlingen	5040
medarbet	5041
linje	5042
tillhandahåll	5043
ladda	5044
ky	5045
mjöl	5046
2020	5047
cor	5048
fan	5049
gym	5050
##stäm	5051
alldeles	5052
vak	5053
herre	5054
expert	5055
centrala	5056
rim	5057
vd	5058
##iness	5059
prot	5060
intellig	5061
##ht	5062
skul	5063
årets	5064
dating	5065
döden	5066
garanter	5067
branschen	5068
äventyr	5069
inrikt	5070
smärt	5071
japan	5072
utvecklings	5073
kors	5074
ägare	5075
kollekt	5076
begäran	5077
camp	5078
dos	5079
dim	5080
veg	5081
vore	5082
koncept	5083
hittills	5084
öppet	5085
olyck	5086
förklara	5087
kamer	5088
misstän	5089
tjej	5090
[...	5091
gift	5092
jer	5093
kil	5094
öster	5095
##ortera	5096
##iserade	5097
ordning	5098
formul	5099
[...]	5100
resan	5101
2007	5102
planer	5103
synd	5104
traditionella	5105
regelbundet	5106
rök	5107
sån	5108
tera	5109
##bis	5110
konver	5111
##ligheter	5112
lager	5113
studien	5114
poker	5115
situationer	5116
sommaren	5117
utnyttj	5118
##zon	5119
utöver	5120
familjer	5121
köpte	5122
domstolen	5123
##vänd	5124
infra	5125
##astro	5126
hälsos	5127
källa	5128
##ypt	5129
##jör	5130
master	5131
nyckel	5132
!”	5133
kasin	5134
##tor	5135
##mos	5136
##sträng	5137
drar	5138
##ikal	5139
energ	5140
skåde	5141
behövde	5142
pet	5143
pra	5144
##han	5145
##ati	5146
##tering	5147
flo	5148
letar	5149
sannolikt	5150
tun	5151
##terade	5152
fritt	5153
minister	5154
##skaper	5155
angel	5156
mäst	5157
kapit	5158
perfekta	5159
relevanta	5160
business	5161
fönster	5162
##änk	5163
cha	5164
länderna	5165
palest	5166
mart	5167
takt	5168
höger	5169
längs	5170
valuta	5171
stads	5172
styrka	5173
neder	5174
ägg	5175
berörda	5176
kapacitet	5177
kust	5178
##melse	5179
avstånd	5180
plast	5181
organisationen	5182
kostnad	5183
klara	5184
slags	5185
himlen	5186
gällande	5187
##ställer	5188
förny	5189
ansträng	5190
fruk	5191
närings	5192
tidpunkt	5193
orsaka	5194
konsument	5195
total	5196
kod	5197
rull	5198
filos	5199
idrott	5200
förmån	5201
general	5202
experter	5203
religi	5204
officiella	5205
hyr	5206
tech	5207
##ställningen	5208
indik	5209
otroligt	5210
ax	5211
nån	5212
varier	5213
produktions	5214
slutligen	5215
2006	5216
##änning	5217
utbud	5218
överlev	5219
##rika	5220
sammanh	5221
myndigheten	5222
augusti	5223
iphone	5224
tand	5225
yng	5226
##fullt	5227
kombination	5228
!"	5229
##anen	5230
grå	5231
tve	5232
någonstans	5233
##igheterna	5234
verkligheten	5235
2004	5236
format	5237
tillämpas	5238
##skrig	5239
celler	5240
definitivt	5241
aukt	5242
gal	5243
mera	5244
nat	5245
##ställd	5246
främsta	5247
associ	5248
skådespel	5249
minns	5250
lärt	5251
urs	5252
uppfyller	5253
färdigheter	5254
utforska	5255
fon	5256
kos	5257
mel	5258
pil	5259
sägs	5260
behandlas	5261
museum	5262
katt	5263
konstrukt	5264
nyheter	5265
fakta	5266
ansvarig	5267
innehållet	5268
omvand	5269
givet	5270
jam	5271
##vel	5272
##kap	5273
stund	5274
självständ	5275
snö	5276
status	5277
utred	5278
föddes	5279
utmaningar	5280
säsongen	5281
hål	5282
lunch	5283
alltför	5284
väder	5285
##entera	5286
svaret	5287
artiklar	5288
diskuss	5289
hotel	5290
repub	5291
svensk	5292
döm	5293
ku	5294
##vo	5295
utifrån	5296
huvudet	5297
support	5298
infrastruktur	5299
kart	5300
öst	5301
##dela	5302
spa	5303
##ningsvis	5304
händelse	5305
döds	5306
hantering	5307
spanien	5308
bin	5309
eld	5310
igång	5311
sår	5312
##eri	5313
ingr	5314
ert	5315
order	5316
egypt	5317
individer	5318
uppfyll	5319
brittiska	5320
frukost	5321
las	5322
rä	5323
säng	5324
##liken	5325
##ora	5326
faller	5327
aktiva	5328
pengarna	5329
internationellt	5330
profet	5331
kristus	5332
europaparlamentet	5333
##th	5334
##ix	5335
värden	5336
kriter	5337
##stru	5338
##unnit	5339
group	5340
behålla	5341
diabet	5342
uppstår	5343
samling	5344
parti	5345
etc	5346
bitco	5347
sent	5348
##rad	5349
##ders	5350
omd	5351
##eringen	5352
svarta	5353
pool	5354
##press	5355
databas	5356
foto	5357
orsaker	5358
##ctor	5359
född	5360
tusentals	5361
distribut	5362
##bok	5363
landets	5364
öppnar	5365
shopp	5366
taget	5367
passag	5368
garant	5369
kurser	5370
invån	5371
ändringar	5372
ting	5373
##pas	5374
##uer	5375
##rifter	5376
##träd	5377
##annar	5378
datorn	5379
bestämma	5380
fing	5381
sens	5382
avgifter	5383
andel	5384
##ild	5385
193	5386
företagets	5387
laget	5388
senast	5389
sitta	5390
förbli	5391
färger	5392
naturligt	5393
byggnader	5394
sprid	5395
ursäkt	5396
##gas	5397
##mel	5398
##ssystem	5399
amerikansk	5400
twitter	5401
fördrag	5402
tekniker	5403
mäss	5404
fli	5405
rika	5406
##ward	5407
##stag	5408
tilldel	5409
människorna	5410
insatser	5411
versionen	5412
medarbetare	5413
sikt	5414
##mi	5415
##issa	5416
##saker	5417
kunskaper	5418
arbetsl	5419
riktlin	5420
applik	5421
profess	5422
omfattas	5423
sympt	5424
källor	5425
undersökning	5426
human	5427
förrän	5428
##way	5429
inkomst	5430
avläg	5431
prat	5432
##ney	5433
dagarna	5434
resul	5435
adv	5436
beläg	5437
potential	5438
##stån	5439
stim	5440
##rider	5441
finna	5442
förläng	5443
island	5444
lopp	5445
inl	5446
##edom	5447
##undra	5448
unik	5449
##talet	5450
förlorade	5451
uppfylla	5452
gemensamt	5453
bod	5454
ven	5455
##iär	5456
##deringar	5457
överför	5458
slutar	5459
möten	5460
lösningen	5461
allmänt	5462
integritet	5463
bevilj	5464
hj	5465
ökade	5466
dåliga	5467
förbjud	5468
holl	5469
##go	5470
##steg	5471
riktiga	5472
andro	5473
moral	5474
reglerna	5475
stranden	5476
synner	5477
samhälls	5478
hundra	5479
höjd	5480
ökat	5481
oke	5482
##ail	5483
##sv	5484
väs	5485
forum	5486
kvinnan	5487
utbildnings	5488
uttry	5489
symt	5490
mad	5491
##områ	5492
lämnade	5493
show	5494
skydds	5495
robot	5496
lju	5497
vand	5498
##marna	5499
##örj	5500
förel	5501
##oren	5502
##ile	5503
reag	5504
##ley	5505
##ledes	5506
kast	5507
produktionen	5508
policy	5509
##änsle	5510
england	5511
skapade	5512
dynam	5513
medveten	5514
respektive	5515
länk	5516
rapporten	5517
kommentarer	5518
bära	5519
regn	5520
timme	5521
försökte	5522
mönster	5523
ade	5524
fj	5525
gi	5526
##mål	5527
##dex	5528
vist	5529
bearbet	5530
##icera	5531
gröna	5532
heliga	5533
expl	5534
möjliggör	5535
ledning	5536
jap	5537
2003	5538
##ugg	5539
tanken	5540
positiv	5541
butik	5542
syftar	5543
kinesiska	5544
ns	5545
ökning	5546
exkl	5547
aktuella	5548
2005	5549
egendom	5550
lita	5551
orsakar	5552
kommissionens	5553
vetenskapliga	5554
specifik	5555
ramen	5556
revolution	5557
territ	5558
engagemang	5559
festiv	5560
christ	5561
bakgrund	5562
förtroende	5563
ingred	5564
iv	5565
sum	5566
##yll	5567
##dat	5568
##wer	5569
föra	5570
utgång	5571
storle	5572
betalnings	5573
fredag	5574
positiva	5575
säljer	5576
promenad	5577
arab	5578
okej	5579
lör	5580
mg	5581
mm	5582
bröst	5583
der	5584
ira	5585
allting	5586
parad	5587
vacc	5588
betalar	5589
ansikte	5590
ingrediens	5591
sel	5592
parter	5593
transp	5594
förvand	5595
ögonen	5596
middag	5597
brän	5598
användaren	5599
företagen	5600
##ange	5601
tekniken	5602
ställning	5603
byta	5604
expon	5605
toppen	5606
32	5607
tillfr	5608
##ssätt	5609
sål	5610
spelade	5611
offer	5612
berättade	5613
tillgångar	5614
hotellet	5615
södra	5616
förhopp	5617
stoppa	5618
ät	5619
##öva	5620
avsikt	5621
ställer	5622
felakt	5623
extremt	5624
75	5625
oh	5626
##skom	5627
ont	5628
aktivt	5629
deltagare	5630
home	5631
skratt	5632
upphov	5633
lat	5634
sänd	5635
##inska	5636
##nali	5637
teor	5638
regionen	5639
svär	5640
leverera	5641
universum	5642
olja	5643
lämpliga	5644
certifier	5645
journali	5646
ti	5647
##ärer	5648
språ	5649
##ägare	5650
repar	5651
mått	5652
tvätt	5653
boende	5654
##ologisk	5655
beskrivning	5656
drömmar	5657
tillverkare	5658
komponenter	5659
omöjligt	5660
##ose	5661
##iden	5662
sjukv	5663
nationell	5664
identitet	5665
tillfälle	5666
detaljer	5667
stimul	5668
400	5669
lock	5670
##ran	5671
##ual	5672
##entligt	5673
infly	5674
sluts	5675
fokusera	5676
kyl	5677
vägar	5678
morgonen	5679
befolkningen	5680
förtjän	5681
befintliga	5682
kir	5683
##wa	5684
enheten	5685
ster	5686
således	5687
unionens	5688
revis	5689
väster	5690
rekommend	5691
erbjudanden	5692
virus	5693
##gj	5694
undan	5695
referens	5696
##ogen	5697
flag	5698
högst	5699
tänkt	5700
kraven	5701
##kraft	5702
villkoren	5703
management	5704
feder	5705
gö	5706
skott	5707
sign	5708
förstär	5709
planerar	5710
vanlig	5711
särskild	5712
nivån	5713
önska	5714
erfarenheter	5715
fantastiskt	5716
fysisk	5717
offentlig	5718
överensstäm	5719
mångf	5720
fant	5721
lar	5722
##burg	5723
inrätt	5724
tacksam	5725
glada	5726
socker	5727
tål	5728
åker	5729
##derat	5730
tidiga	5731
##sterna	5732
testa	5733
bränsle	5734
handla	5735
utvecklar	5736
##eringar	5737
relativt	5738
svarar	5739
skrivit	5740
huvudstad	5741
förlorar	5742
diabetes	5743
pension	5744
satt	5745
##fiken	5746
##arr	5747
##onom	5748
tillsyn	5749
##företag	5750
##bilitet	5751
dörren	5752
golf	5753
förvärv	5754
mr	5755
##oc	5756
##brott	5757
##mo	5758
##ören	5759
sec	5760
använt	5761
strä	5762
statistik	5763
ange	5764
orsak	5765
skillnader	5766
professionella	5767
ideal	5768
speg	5769
2001	5770
kompis	5771
mord	5772
vann	5773
##ance	5774
##ington	5775
##äls	5776
förbin	5777
publik	5778
restaurang	5779
huden	5780
sovrum	5781
negativa	5782
tusen	5783
boll	5784
##ometer	5785
varken	5786
minne	5787
syri	5788
dagliga	5789
lekt	5790
grav	5791
hjärnan	5792
banker	5793
allvarliga	5794
synnerhet	5795
alex	5796
##ikes	5797
vision	5798
##dels	5799
köpt	5800
mitten	5801
hörde	5802
upplever	5803
entre	5804
original	5805
rot	5806
##uth	5807
tjänar	5808
indien	5809
##pren	5810
nerv	5811
orsaken	5812
maskiner	5813
kategori	5814
dvs	5815
når	5816
##bef	5817
##imera	5818
förpa	5819
samord	5820
ända	5821
isol	5822
##ibel	5823
växande	5824
bedömning	5825
observera	5826
sammanhang	5827
ali	5828
hed	5829
ked	5830
tunn	5831
friv	5832
demon	5833
rengör	5834
motsvar	5835
sektorn	5836
premiär	5837
skiljer	5838
##atera	5839
använde	5840
släkt	5841
resor	5842
grundades	5843
funktions	5844
analyser	5845
fiske	5846
religion	5847
ack	5848
wal	5849
##uck	5850
##hop	5851
##agram	5852
påstå	5853
upphör	5854
##ycken	5855
tviv	5856
kallad	5857
möter	5858
sjön	5859
beskriver	5860
räkna	5861
finansiering	5862
föredrar	5863
australien	5864
frivill	5865
##bler	5866
överle	5867
nyhet	5868
meta	5869
snabba	5870
mötet	5871
sanning	5872
##ripande	5873
fängelse	5874
priori	5875
omständigheter	5876
inse	5877
vari	5878
191	5879
sova	5880
älsk	5881
himmel	5882
förändras	5883
##säg	5884
##dret	5885
verklighet	5886
mängden	5887
invand	5888
betydligt	5889
kronor	5890
rättsliga	5891
strål	5892
33	5893
day	5894
gäst	5895
enorm	5896
helg	5897
bruk	5898
lagt	5899
metall	5900
oblig	5901
ekonomin	5902
revolut	5903
entrepren	5904
bakter	5905
finner	5906
mex	5907
driva	5908
house	5909
mur	5910
tju	5911
##vist	5912
##rimin	5913
##gick	5914
kläd	5915
programvara	5916
allmänheten	5917
märk	5918
ändras	5919
övrigt	5920
smak	5921
mjölk	5922
bot	5923
dikt	5924
##sorg	5925
framsteg	5926
##ioxid	5927
landskap	5928
vinter	5929
ljuset	5930
osäker	5931
bryta	5932
bitcoin	5933
mill	5934
ros	5935
öl	5936
##ox	5937
##bi	5938
##ura	5939
##etiska	5940
##igera	5941
avfall	5942
##ämn	5943
slog	5944
informations	5945
begränsad	5946
bibeln	5947
hälsosam	5948
list	5949
##sdag	5950
##ionella	5951
tron	5952
värre	5953
värsta	5954
välsig	5955
besöker	5956
högskol	5957
atmos	5958
behovet	5959
lämplig	5960
##lan	5961
skuld	5962
dialog	5963
##ube	5964
speciell	5965
speciella	5966
immun	5967
skolor	5968
atmosfär	5969
##ool	5970
tillbr	5971
aktier	5972
förlåt	5973
politisk	5974
generation	5975
##roduc	5976
bem	5977
fien	5978
##kopp	5979
flas	5980
bestämmer	5981
ämne	5982
författaren	5983
vaccin	5984
ic	5985
war	5986
åh	5987
##tel	5988
##itation	5989
efterfrågan	5990
ledde	5991
##pression	5992
förlorat	5993
jordbru	5994
driver	5995
producera	5996
papper	5997
normal	5998
dam	5999
##zz	6000
norr	6001
fattig	6002
##splats	6003
misslycka	6004
est	6005
tvungen	6006
födels	6007
nio	6008
##meddel	6009
potentiella	6010
stjärn	6011
virt	6012
stöder	6013
skickar	6014
kvalific	6015
fen	6016
##ex	6017
##sla	6018
##uten	6019
diet	6020
vända	6021
urval	6022
beslutet	6023
medicinska	6024
skräm	6025
stärka	6026
iväg	6027
not	6028
stig	6029
skaffa	6030
##lekt	6031
haha	6032
åtkomst	6033
återh	6034
låga	6035
anledningen	6036
studera	6037
avlägs	6038
??	6039
oly	6040
##enskom	6041
uppm	6042
##ensioner	6043
ersättning	6044
bilaga	6045
roliga	6046
motsvarande	6047
förväntas	6048
sällan	6049
klockan	6050
ran	6051
tull	6052
##tas	6053
överenskom	6054
huruv	6055
bror	6056
människors	6057
antar	6058
investera	6059
huruvida	6060
cam	6061
nom	6062
stål	6063
marken	6064
säkerheten	6065
hittat	6066
tillhandahåller	6067
vanligaste	6068
uttalande	6069
närmaste	6070
android	6071
rygg	6072
##tto	6073
export	6074
##stern	6075
##berg	6076
talade	6077
maten	6078
affärer	6079
mängder	6080
##ässiga	6081
filosof	6082
wa	6083
avser	6084
##liggande	6085
##sky	6086
minsta	6087
tyckte	6088
behandlar	6089
##köp	6090
rem	6091
wi	6092
##pla	6093
##djur	6094
harmon	6095
utstr	6096
perman	6097
vind	6098
bedr	6099
innehålla	6100
principer	6101
james	6102
göm	6103
##ls	6104
##xis	6105
##aten	6106
mesta	6107
snälla	6108
undersöka	6109
eleverna	6110
depression	6111
skö	6112
spro	6113
överl	6114
gran	6115
box	6116
rädsla	6117
försäkring	6118
förfaranden	6119
förpack	6120
gyn	6121
mc	6122
tår	6123
avgift	6124
beställ	6125
spanska	6126
##orth	6127
flö	6128
kunderna	6129
##ställande	6130
ställen	6131
retur	6132
##börj	6133
försäkrings	6134
föreskriv	6135
professor	6136
high	6137
ms	6138
stam	6139
övergång	6140
##givning	6141
##hael	6142
chansen	6143
beaktande	6144
ama	6145
säm	6146
tj	6147
##ias	6148
förne	6149
arter	6150
##ican	6151
delvis	6152
##jänst	6153
nav	6154
gjorts	6155
diskrimin	6156
varmt	6157
3d	6158
34	6159
räcker	6160
##utera	6161
##mö	6162
##kall	6163
vidta	6164
bilderna	6165
make	6166
produkterna	6167
baby	6168
##angel	6169
tillverkning	6170
förbereda	6171
brett	6172
sekunder	6173
##to	6174
##iges	6175
##atisk	6176
##ila	6177
ledarskap	6178
valde	6179
kostar	6180
ekonomiskt	6181
kropps	6182
funktionen	6183
kyrk	6184
tydlig	6185
lämpligt	6186
arrang	6187
37	6188
hindra	6189
jäv	6190
##ås	6191
##mord	6192
##rav	6193
detsamma	6194
maria	6195
fint	6196
fara	6197
termin	6198
förklarar	6199
anslutning	6200
frekvens	6201
hat	6202
##ary	6203
##ledning	6204
sveriges	6205
bedriv	6206
tema	6207
agera	6208
metoden	6209
djupt	6210
fördelarna	6211
professionell	6212
ersätta	6213
cro	6214
salt	6215
##ior	6216
##liv	6217
##läs	6218
##ionerna	6219
närvaro	6220
rättvisa	6221
löp	6222
norra	6223
sinne	6224
kapitel	6225
##skriget	6226
tolk	6227
enklare	6228
##ändr	6229
samlar	6230
spelarna	6231
roy	6232
teknologi	6233
office	6234
växter	6235
olje	6236
rekommenderas	6237
school	6238
hor	6239
peter	6240
vinner	6241
##ivitet	6242
läste	6243
##sätter	6244
byggnad	6245
katastro	6246
uteslut	6247
mörd	6248
anpassa	6249
förflut	6250
språket	6251
ager	6252
gala	6253
röd	6254
##ktig	6255
uppgra	6256
effekten	6257
kvaliteten	6258
meddelanden	6259
48	6260
99	6261
afrika	6262
ell	6263
illa	6264
sammans	6265
seger	6266
dryg	6267
##handling	6268
sjukdomen	6269
hundrat	6270
känslan	6271
texten	6272
!!!	6273
spendera	6274
advok	6275
utsträckning	6276
##hl	6277
vila	6278
krafter	6279
politiken	6280
olag	6281
passion	6282
tillgängligt	6283
bedö	6284
förmågan	6285
gifta	6286
##king	6287
##äde	6288
station	6289
spekt	6290
överföring	6291
appen	6292
major	6293
skickas	6294
protein	6295
kreativ	6296
godkännande	6297
doktor	6298
exklus	6299
sli	6300
##ec	6301
##gat	6302
##örd	6303
##ikanska	6304
rest	6305
undervis	6306
dagligen	6307
regiss	6308
domin	6309
styrelsen	6310
effektivitet	6311
befolkning	6312
anläggningar	6313
utnyttja	6314
tråd	6315
lim	6316
##ab	6317
företr	6318
pröv	6319
försam	6320
barns	6321
hemmet	6322
ledam	6323
åtag	6324
återkom	6325
förbi	6326
intäkt	6327
cap	6328
diskuter	6329
michael	6330
gränsen	6331
acceptera	6332
kontinuer	6333
reflekt	6334
dj	6335
fyr	6336
horm	6337
storm	6338
##ase	6339
##innande	6340
bröd	6341
datorer	6342
berättelse	6343
hushåll	6344
uppgifterna	6345
green	6346
kristen	6347
kostnaderna	6348
installera	6349
hämta	6350
nederl	6351
passager	6352
##ståndet	6353
sorg	6354
##ista	6355
##okoll	6356
##barn	6357
##ikali	6358
urin	6359
planen	6360
dött	6361
glömma	6362
utomhus	6363
##fatta	6364
vitamin	6365
avancerade	6366
hjul	6367
38	6368
kanal	6369
minim	6370
##tals	6371
gudom	6372
teknisk	6373
främj	6374
interakt	6375
startade	6376
kemikali	6377
hell	6378
nåt	6379
##arch	6380
inställningar	6381
##iserad	6382
tillför	6383
##teras	6384
frid	6385
spelaren	6386
liber	6387
##sområ	6388
korta	6389
betalning	6390
diskutera	6391
söder	6392
utmaning	6393
israels	6394
tonår	6395
göte	6396
födelsedag	6397
39	6398
pc	6399
äkta	6400
##vikt	6401
##förändr	6402
förklaring	6403
erbjuds	6404
free	6405
framgångsrika	6406
flickor	6407
biljett	6408
shopping	6409
tillfreds	6410
bag	6411
liga	6412
##rid	6413
##kare	6414
##ots	6415
uppstå	6416
juster	6417
typen	6418
universitetet	6419
uppfattning	6420
cre	6421
däck	6422
hatar	6423
##äderna	6424
rek	6425
syssel	6426
##unds	6427
robert	6428
webbläs	6429
politiker	6430
röra	6431
kostnaden	6432
analyt	6433
##ografi	6434
strategier	6435
street	6436
ungdomar	6437
kämpar	6438
norge	6439
wash	6440
##lösa	6441
##ited	6442
utfärd	6443
signal	6444
lämnat	6445
invol	6446
kamera	6447
leta	6448
hinder	6449
järnväg	6450
underlätta	6451
yngre	6452
aller	6453
##bon	6454
anklag	6455
slår	6456
##öja	6457
marker	6458
lider	6459
faktor	6460
förmed	6461
amerika	6462
ansvarar	6463
mobila	6464
yout	6465
innovativa	6466
relevant	6467
moln	6468
omdöm	6469
65	6470
[+	6471
botten	6472
oer	6473
bryr	6474
sträng	6475
lärande	6476
power	6477
riktning	6478
globalt	6479
investerings	6480
positivt	6481
länkar	6482
knappt	6483
bestämmelserna	6484
table	6485
juridiska	6486
symtom	6487
youtube	6488
[+]	6489
fånga	6490
gilt	6491
stater	6492
fatta	6493
samtycke	6494
tour	6495
##orium	6496
komplex	6497
varumärke	6498
fortsatte	6499
välkomna	6500
##amerika	6501
symptom	6502
uppmunt	6503
göteborg	6504
jakt	6505
rich	6506
##vill	6507
##onym	6508
kanada	6509
näring	6510
underbara	6511
undervisning	6512
##yrån	6513
fulla	6514
medlemsstater	6515
investerare	6516
kolon	6517
minuters	6518
begå	6519
medvetna	6520
övervakning	6521
fullständigt	6522
lukt	6523
yoga	6524
##over	6525
##yp	6526
##handel	6527
##ath	6528
##ktiga	6529
påm	6530
hav	6531
helvet	6532
statliga	6533
imorgon	6534
utvecklats	6535
flygplats	6536
skönhet	6537
fullständig	6538
yttre	6539
fantas	6540
motsvarar	6541
##lor	6542
##umer	6543
##stav	6544
krim	6545
life	6546
vädret	6547
##sstil	6548
låtar	6549
deltagande	6550
starkare	6551
titel	6552
desto	6553
berömda	6554
fans	6555
king	6556
##por	6557
##iam	6558
ock	6559
utseende	6560
##ola	6561
##ssk	6562
sekret	6563
examen	6564
blu	6565
livsl	6566
##iforn	6567
smar	6568
återigen	6569
introduc	6570
150	6571
förvänta	6572
sökande	6573
makten	6574
modul	6575
upptag	6576
syster	6577
användarna	6578
partiet	6579
ämnet	6580
räknas	6581
försvars	6582
transporter	6583
big	6584
cd	6585
litter	6586
pul	6587
top	6588
##my	6589
##ano	6590
anta	6591
slott	6592
europas	6593
vinster	6594
klassific	6595
färdig	6596
multi	6597
muslim	6598
förtjänar	6599
pu	6600
##bra	6601
inh	6602
anord	6603
skiv	6604
upply	6605
blad	6606
livsstil	6607
människans	6608
klipp	6609
byrå	6610
marknadsför	6611
bekämpa	6612
intresserade	6613
dal	6614
sve	6615
um	6616
lett	6617
vänligen	6618
kvinnliga	6619
låten	6620
belö	6621
åtgärd	6622
schem	6623
normala	6624
lyckades	6625
vuxen	6626
rymd	6627
trädgård	6628
muslimer	6629
kommittén	6630
irak	6631
bos	6632
mem	6633
por	6634
tung	6635
wall	6636
tak	6637
##osit	6638
arbetat	6639
arbetade	6640
##råd	6641
##ege	6642
lösen	6643
##ändsk	6644
##stret	6645
webbs	6646
formen	6647
##kväll	6648
socialt	6649
bestämt	6650
förordningen	6651
undvik	6652
skärm	6653
funnits	6654
95	6655
fu	6656
yta	6657
##skor	6658
##uti	6659
minnes	6660
##drarna	6661
##sled	6662
lämnas	6663
effekterna	6664
time	6665
kostnads	6666
fokuserar	6667
ursprungligen	6668
koncern	6669
klimatförändr	6670
ångest	6671
övergripande	6672
hämt	6673
lan	6674
franc	6675
bebis	6676
##skon	6677
underteck	6678
mail	6679
vät	6680
väv	6681
obama	6682
allvarligt	6683
skönt	6684
protokoll	6685
il	6686
##sil	6687
##ware	6688
##inar	6689
##atik	6690
samlas	6691
orden	6692
nack	6693
##kry	6694
fylla	6695
labor	6696
händerna	6697
rena	6698
hyp	6699
krigs	6700
tillfällen	6701
äldsta	6702
skärmen	6703
butiker	6704
sekund	6705
föreslår	6706
aspekter	6707
invånare	6708
drygt	6709
55	6710
div	6711
##äckt	6712
##änsa	6713
tillämpa	6714
##eland	6715
rekry	6716
thom	6717
riktig	6718
forskarna	6719
utrikes	6720
förvå	6721
kommunicera	6722
träna	6723
kursen	6724
tillfället	6725
mörka	6726
fasc	6727
upprätthålla	6728
flicka	6729
washington	6730
smarta	6731
##hundra	6732
##erats	6733
##inst	6734
##skan	6735
market	6736
veter	6737
adam	6738
påverkas	6739
prins	6740
demokrati	6741
syrien	6742
vent	6743
##oo	6744
##ua	6745
##ison	6746
gransk	6747
arbetare	6748
delas	6749
läget	6750
luften	6751
begränsa	6752
kvalitets	6753
ansluta	6754
destin	6755
hastighet	6756
utbyte	6757
praxis	6758
dol	6759
ikväll	6760
##tim	6761
##lande	6762
##mid	6763
anna	6764
##ivå	6765
månaden	6766
seri	6767
##bryt	6768
##back	6769
naturlig	6770
startar	6771
ringa	6772
danmark	6773
förekommer	6774
##systemet	6775
turkiet	6776
oj	6777
rund	6778
tacka	6779
teater	6780
store	6781
programvar	6782
rörelser	6783
schwe	6784
lyssnar	6785
blommor	6786
arkitektur	6787
martin	6788
tillförlit	6789
tis	6790
##lats	6791
##idge	6792
sko	6793
##enten	6794
##uts	6795
strand	6796
befri	6797
noga	6798
beskrivs	6799
iran	6800
lycklig	6801
flygplan	6802
##roduktion	6803
william	6804
ox	6805
index	6806
utöka	6807
##sav	6808
lärde	6809
andre	6810
grader	6811
rekommendera	6812
praktiska	6813
oerhör	6814
biver	6815
og	6816
##nit	6817
##skt	6818
##fort	6819
##idig	6820
##ssa	6821
havs	6822
viktigare	6823
west	6824
matem	6825
förvir	6826
sanna	6827
materialet	6828
##kända	6829
torr	6830
assist	6831
livsmedels	6832
##betalning	6833
kärleken	6834
ast	6835
figur	6836
rop	6837
ers	6838
jose	6839
bay	6840
domän	6841
belys	6842
hyra	6843
kampen	6844
badrum	6845
riktlinjer	6846
bedräg	6847
##iler	6848
##tain	6849
tax	6850
brå	6851
##juter	6852
vikten	6853
handen	6854
2002	6855
lyx	6856
import	6857
farliga	6858
nätverket	6859
samarbetet	6860
nödvändig	6861
förutsättningar	6862
tolv	6863
kommersiella	6864
mångfald	6865
fattigdom	6866
fack	6867
spelen	6868
återupp	6869
femte	6870
tele	6871
mänskligheten	6872
söt	6873
jämförelse	6874
givetvis	6875
demonstr	6876
förflutna	6877
dram	6878
nik	6879
##pers	6880
insikt	6881
påverkan	6882
arbetstag	6883
planera	6884
american	6885
act	6886
läsare	6887
försäljnings	6888
resurs	6889
vackert	6890
informer	6891
religiösa	6892
fördraget	6893
jordbruks	6894
schweiz	6895
bist	6896
##ned	6897
##använd	6898
avse	6899
##samling	6900
verklig	6901
boka	6902
ligga	6903
politiskt	6904
katol	6905
bloggen	6906
inbland	6907
släppa	6908
populär	6909
utländska	6910
kille	6911
batteri	6912
överleva	6913
mår	6914
##ule	6915
##antera	6916
##lapp	6917
numera	6918
##vapen	6919
personalen	6920
besvär	6921
planering	6922
färre	6923
hänvis	6924
fastställa	6925
andas	6926
hjärn	6927
klarar	6928
begrav	6929
placera	6930
tenderar	6931
skogs	6932
argument	6933
diagnost	6934
församling	6935
passer	6936
ze	6937
##ress	6938
pågår	6939
stånd	6940
##iven	6941
kändes	6942
snygg	6943
reduc	6944
sovj	6945
gälla	6946
bordet	6947
separat	6948
cer	6949
##ac	6950
##iat	6951
##kningar	6952
##ze	6953
##ttning	6954
##kter	6955
vice	6956
utval	6957
##ängd	6958
mej	6959
diam	6960
återförs	6961
saknas	6962
klassiska	6963
missbruk	6964
inbeg	6965
asien	6966
operativ	6967
kreativa	6968
muskel	6969
college	6970
ndet	6971
bevar	6972
resp	6973
skyddar	6974
punkter	6975
begränsningar	6976
upplevelser	6977
utomlands	6978
institutioner	6979
yttrande	6980
bibliotek	6981
satte	6982
600	6983
myn	6984
##inär	6985
tren	6986
teori	6987
onda	6988
stadens	6989
berättelser	6990
dörr	6991
förvaltning	6992
modellen	6993
pojk	6994
kampanj	6995
bostads	6996
lösenord	6997
hustr	6998
if	6999
##aritet	7000
pålit	7001
##ättning	7002
gåva	7003
svårare	7004
sängen	7005
undersökningar	7006
maxim	7007
panel	7008
transaktioner	7009
science	7010
inflytande	7011
ess	7012
frakt	7013
kalen	7014
que	7015
sun	7016
täcker	7017
##cil	7018
##fart	7019
##atch	7020
århundra	7021
brut	7022
priserna	7023
kold	7024
fattiga	7025
avsluta	7026
kryp	7027
influ	7028
varierar	7029
nomin	7030
##jöd	7031
inverkan	7032
upps	7033
värderingar	7034
##giften	7035
köket	7036
komplic	7037
förebygg	7038
byggt	7039
rörelsen	7040
rösta	7041
avsedda	7042
evangel	7043
medicinsk	7044
försvinner	7045
swed	7046
hästar	7047
diagnos	7048
kameran	7049
42	7050
aud	7051
agen	7052
##yckt	7053
##uf	7054
##ones	7055
inser	7056
denne	7057
##derande	7058
frit	7059
skand	7060
##vänt	7061
helgen	7062
personlighet	7063
kasta	7064
egenskap	7065
george	7066
##värm	7067
kära	7068
konstater	7069
mäta	7070
sammanfatt	7071
##renskraft	7072
märke	7073
konkurrenskraft	7074
decenn	7075
optim	7076
hållbarhet	7077
söndag	7078
iii	7079
hill	7080
vo	7081
##do	7082
##uel	7083
inkom	7084
frisk	7085
utöv	7086
uppvärm	7087
arv	7088
användes	7089
kvant	7090
##klass	7091
längd	7092
vintern	7093
jordens	7094
förväntar	7095
inspiration	7096
reaktion	7097
fäst	7098
noll	7099
”)	7100
##hy	7101
förare	7102
föroren	7103
barcel	7104
fadern	7105
eftermid	7106
männen	7107
klasser	7108
##assad	7109
byggnaden	7110
upptäck	7111
kräva	7112
inspel	7113
experiment	7114
lyckats	7115
intressanta	7116
kemiska	7117
militära	7118
observ	7119
konventionen	7120
betraktas	7121
floden	7122
num	7123
pi	7124
åkte	7125
##js	7126
anl	7127
årliga	7128
helhet	7129
plocka	7130
vänskap	7131
berättig	7132
imper	7133
ansvars	7134
fira	7135
tillämpning	7136
insats	7137
sällsyn	7138
partnerskap	7139
styra	7140
kilometer	7141
applikationer	7142
väsent	7143
##rör	7144
##srätt	7145
##uster	7146
stannar	7147
##idor	7148
minskning	7149
översätt	7150
underbar	7151
lät	7152
uppfölj	7153
stjärnor	7154
elektroniska	7155
amazon	7156
vag	7157
bett	7158
##skär	7159
unions	7160
fader	7161
##ffer	7162
gren	7163
flor	7164
##juder	7165
slutade	7166
##plet	7167
##värda	7168
ball	7169
rött	7170
växte	7171
träffar	7172
implem	7173
kommunikations	7174
flyttade	7175
accepterar	7176
ambassad	7177
uppmanar	7178
gjorda	7179
ukra	7180
förre	7181
##ago	7182
##iller	7183
gräs	7184
personligen	7185
föll	7186
register	7187
lands	7188
onöd	7189
love	7190
staterna	7191
bolagets	7192
1999	7193
mänsklig	7194
romant	7195
begära	7196
traditionell	7197
misslyck	7198
hävdar	7199
formulär	7200
az	7201
##cent	7202
##ringar	7203
dep	7204
ansvariga	7205
samhällen	7206
skapas	7207
hyll	7208
drivs	7209
nåd	7210
fysiskt	7211
standarder	7212
skepp	7213
förväntningar	7214
word	7215
##yer	7216
stift	7217
##iko	7218
unikt	7219
##isterna	7220
allah	7221
pred	7222
thail	7223
##plant	7224
artiklarna	7225
hoppa	7226
tjänsterna	7227
1990	7228
mobiltel	7229
erbjudande	7230
eur	7231
ken	7232
pin	7233
##out	7234
##ome	7235
förfarande	7236
##ical	7237
grann	7238
legen	7239
deltar	7240
192	7241
öppnade	7242
hunden	7243
reserv	7244
auto	7245
afg	7246
rubr	7247
europaparlamentets	7248
representerar	7249
erkänna	7250
noggrant	7251
katastrof	7252
involver	7253
lust	7254
mom	7255
rit	7256
täcka	7257
vunnit	7258
##dor	7259
##ienska	7260
##hö	7261
##ernen	7262
##ätter	7263
konstru	7264
betyg	7265
chok	7266
självmord	7267
tjänstem	7268
lovar	7269
världskriget	7270
musiken	7271
sexuella	7272
förväg	7273
kulturella	7274
flygplatsen	7275
billiga	7276
italienska	7277
gemenskapen	7278
kommitté	7279
kärleks	7280
bodde	7281
fenomen	7282
byrån	7283
cra	7284
fet	7285
gn	7286
##una	7287
##wn	7288
förenta	7289
##atet	7290
grand	7291
che	7292
neuro	7293
följde	7294
kvinnorna	7295
träffade	7296
versioner	7297
framförallt	7298
glömt	7299
kreditkort	7300
silver	7301
biljetter	7302
majoriteten	7303
bom	7304
dyg	7305
åstad	7306
##hag	7307
##tts	7308
##atörer	7309
uppsättning	7310
minnen	7311
chi	7312
förbud	7313
möbler	7314
foton	7315
##äkra	7316
behandlingar	7317
cirkul	7318
your	7319
absor	7320
ändring	7321
judar	7322
fältet	7323
siffror	7324
åsikter	7325
46	7326
##bes	7327
##kro	7328
##mp	7329
##här	7330
utförs	7331
skit	7332
minut	7333
##cipl	7334
personligt	7335
##plik	7336
rab	7337
##organ	7338
vall	7339
styrelse	7340
producerar	7341
kyrka	7342
koppla	7343
infektion	7344
existerar	7345
förhoppningsvis	7346
oerhört	7347
koldioxid	7348
")	7349
kök	7350
nic	7351
##ymer	7352
##eteck	7353
##itioner	7354
prop	7355
##usal	7356
mall	7357
forskar	7358
##ption	7359
ingå	7360
hållbara	7361
problemen	7362
##ugga	7363
state	7364
##ology	7365
sprida	7366
kaliforn	7367
hanterar	7368
titeln	7369
skyldig	7370
övervaka	7371
kriterier	7372
revolutionen	7373
sekretess	7374
förebyggande	7375
##ii	7376
##kat	7377
##uch	7378
ombord	7379
##urt	7380
spän	7381
granska	7382
våren	7383
klo	7384
kontra	7385
grundval	7386
loj	7387
sha	7388
ism	7389
konstigt	7390
generellt	7391
alternativet	7392
oroa	7393
##splan	7394
hamnar	7395
tabell	7396
grekland	7397
egypten	7398
64	7399
gäng	7400
lidande	7401
ww	7402
minsk	7403
##juka	7404
röster	7405
timmars	7406
inbjud	7407
eventuellt	7408
fruktans	7409
tjejer	7410
varumärken	7411
garanti	7412
sorter	7413
vel	7414
##amod	7415
samm	7416
ering	7417
##erska	7418
tester	7419
sträcker	7420
190	7421
tjänste	7422
gjord	7423
målen	7424
##ugh	7425
kraftigt	7426
hjärtan	7427
genomförande	7428
deltagarna	7429
stänga	7430
strax	7431
framgångsrik	7432
avgöra	7433
begreppet	7434
gjordes	7435
förblir	7436
tålamod	7437
återförsälj	7438
44	7439
kämpa	7440
sus	7441
inuti	7442
ort	7443
hållet	7444
bestämde	7445
miljöer	7446
tillräcklig	7447
registrera	7448
ifråg	7449
kategorier	7450
försökt	7451
sånt	7452
choklad	7453
ron	7454
win	7455
##ländska	7456
dekor	7457
##isa	7458
uppmun	7459
spelat	7460
champ	7461
aktörer	7462
levererar	7463
flyga	7464
innebära	7465
samarbeta	7466
föräldrarna	7467
skogen	7468
graviditet	7469
grekiska	7470
##havare	7471
fabrik	7472
permanent	7473
biverkningar	7474
uppmuntr	7475
ever	7476
##bär	7477
##pade	7478
##hel	7479
##fil	7480
##ale	7481
##pper	7482
##terat	7483
resen	7484
hösten	7485
frågorna	7486
råder	7487
term	7488
##ction	7489
springa	7490
föreningen	7491
nyckeln	7492
debatt	7493
klubben	7494
parlamentet	7495
kandidat	7496
lördag	7497
fukt	7498
line	7499
tyck	7500
##lades	7501
##ford	7502
skala	7503
neut	7504
ond	7505
fastighets	7506
förbättring	7507
fix	7508
dricker	7509
tuff	7510
gatan	7511
herrens	7512
bakterier	7513
jävla	7514
björ	7515
mans	7516
open	7517
##ensa	7518
konkret	7519
tidningen	7520
funkar	7521
falla	7522
karta	7523
patent	7524
jämställd	7525
doser	7526
begränsade	7527
registrering	7528
utvecklat	7529
förslaget	7530
stämmer	7531
trygghet	7532
installation	7533
konsekvenser	7534
parkering	7535
barcelona	7536
fond	7537
ios	7538
##sh	7539
inställning	7540
varelser	7541
parterna	7542
penning	7543
##kvent	7544
hjärna	7545
hjälpte	7546
gillade	7547
##box	7548
renover	7549
rådgivning	7550
myst	7551
anställd	7552
matchen	7553
tillväxten	7554
arkiv	7555
flyttar	7556
individuella	7557
vinnare	7558
vistelse	7559
storleken	7560
passagerare	7561
afr	7562
byn	7563
north	7564
förvar	7565
##verks	7566
sked	7567
signa	7568
annons	7569
återställa	7570
roller	7571
besluts	7572
förbättrar	7573
kontakter	7574
inspekt	7575
idén	7576
koncernen	7577
bredvid	7578
konfigur	7579
fastställs	7580
elimin	7581
jerusal	7582
obligator	7583
jerusalem	7584
):	7585
bol	7586
drott	7587
##på	7588
##ep	7589
##mot	7590
##omål	7591
##ros	7592
##ssning	7593
strid	7594
turist	7595
lätta	7596
ägaren	7597
begränsat	7598
regionala	7599
##flöd	7600
reaktioner	7601
invandr	7602
galax	7603
wood	7604
##rah	7605
miner	7606
fasta	7607
##undna	7608
filtr	7609
håret	7610
garantera	7611
rollen	7612
specifikt	7613
komplexa	7614
phil	7615
bryter	7616
återvända	7617
genomsnittliga	7618
återhämt	7619
;)	7620
suc	7621
way	7622
##gor	7623
##onen	7624
##alit	7625
omsorg	7626
underrätt	7627
motion	7628
hemlighet	7629
iso	7630
sold	7631
tank	7632
åldern	7633
discipl	7634
sönder	7635
killar	7636
underhållning	7637
##sprogram	7638
uttrycka	7639
japanska	7640
åstadkom	7641
oänd	7642
ytan	7643
##ele	7644
varma	7645
vardags	7646
##ivna	7647
dusch	7648
utgå	7649
överst	7650
spelas	7651
troende	7652
hålls	7653
vanligen	7654
femin	7655
linjen	7656
betalas	7657
budd	7658
månaderna	7659
analysera	7660
intelligens	7661
tunga	7662
misslyckas	7663
85	7664
800	7665
gram	7666
lamp	7667
ost	7668
wik	7669
##cancer	7670
friska	7671
##skande	7672
genet	7673
marg	7674
säkr	7675
##språk	7676
föreb	7677
svårigheter	7678
betalningar	7679
interna	7680
1000	7681
nått	7682
inbygg	7683
tydliga	7684
nordiska	7685
uppdatera	7686
månen	7687
drabbas	7688
sannolik	7689
trevlig	7690
hundratals	7691
dna	7692
äga	7693
##röst	7694
förteck	7695
##ague	7696
##utveck	7697
födelse	7698
lagras	7699
imm	7700
direktivet	7701
cool	7702
##korea	7703
kolleg	7704
comp	7705
blodet	7706
praktiskt	7707
inkludera	7708
sällskap	7709
molek	7710
förstöra	7711
utvärdera	7712
tråk	7713
garanterar	7714
43	7715
bandet	7716
ån	7717
stick	7718
aning	7719
komfort	7720
gruv	7721
##bry	7722
kallt	7723
hårda	7724
institu	7725
känneteck	7726
studenterna	7727
bröder	7728
avdelning	7729
litteratur	7730
mos	7731
##still	7732
##oth	7733
##icitet	7734
villa	7735
krets	7736
##period	7737
beton	7738
geograf	7739
##ious	7740
blandning	7741
applic	7742
##onerande	7743
action	7744
kvartalet	7745
lågt	7746
brotts	7747
imponerande	7748
skyldigheter	7749
tävlingen	7750
drick	7751
tycks	7752
bind	7753
cb	7754
katter	7755
nag	7756
torn	7757
##dens	7758
##ögon	7759
stilla	7760
##ionell	7761
kanaler	7762
##ush	7763
överdr	7764
använts	7765
##annes	7766
troligen	7767
sover	7768
next	7769
sammanlag	7770
steget	7771
carl	7772
nöjda	7773
patienten	7774
flyktingar	7775
dejting	7776
utvalda	7777
borg	7778
hi	7779
vänder	7780
##atiskt	7781
harry	7782
överträ	7783
kungen	7784
verkade	7785
rättigheterna	7786
filter	7787
ordentligt	7788
stödjer	7789
kroppar	7790
atl	7791
tittade	7792
investering	7793
koppling	7794
utvecklade	7795
avsnittet	7796
kliniska	7797
thomas	7798
down	7799
wil	7800
##ness	7801
##mas	7802
pågående	7803
beach	7804
##umin	7805
##ico	7806
##juda	7807
höst	7808
brasil	7809
antib	7810
bortom	7811
medlemmarna	7812
game	7813
utbildningen	7814
fattar	7815
brukade	7816
bedöma	7817
ifrågas	7818
award	7819
cat	7820
dar	7821
los	7822
ris	7823
##verka	7824
fräls	7825
bergen	7826
marx	7827
fötter	7828
smitt	7829
möjlig	7830
##samhet	7831
dryck	7832
hållas	7833
antog	7834
behandlings	7835
förändrats	7836
konsult	7837
##inerande	7838
tillämpningen	7839
offentligt	7840
operation	7841
anledningar	7842
känslom	7843
redovis	7844
långsiktiga	7845
instruktioner	7846
techn	7847
strävar	7848
nederländerna	7849
nö	7850
over	7851
tes	7852
##ille	7853
##fören	7854
##ännen	7855
##delning	7856
blue	7857
berlin	7858
livets	7859
lagring	7860
långsamt	7861
etike	7862
solid	7863
togs	7864
punkterna	7865
skyl	7866
evigt	7867
höja	7868
försäljningen	7869
telefonen	7870
humör	7871
kritik	7872
museet	7873
uppskattar	7874
ingredienser	7875
richard	7876
gir	7877
rid	7878
##anke	7879
avkast	7880
påsk	7881
stycken	7882
utgifter	7883
uppkom	7884
##ordin	7885
följt	7886
verksamheter	7887
tillgänglighet	7888
tillämpliga	7889
områdena	7890
måndag	7891
administrativa	7892
presenterar	7893
bostäder	7894
scenen	7895
skådespelare	7896
sovjet	7897
förresten	7898
jämställdhet	7899
cal	7900
dre	7901
kg	7902
pens	7903
##bre	7904
##mit	7905
##ander	7906
##eto	7907
inköp	7908
##edia	7909
avl	7910
##itch	7911
##add	7912
spons	7913
därifrån	7914
##spart	7915
dipl	7916
polen	7917
lou	7918
banken	7919
verksamhets	7920
handeln	7921
news	7922
kombinera	7923
impon	7924
daniel	7925
rutin	7926
##lösning	7927
överväga	7928
rekord	7929
ovänt	7930
##räff	7931
utvid	7932
sper	7933
verka	7934
##vall	7935
##ierade	7936
kortet	7937
tagits	7938
sexuell	7939
europeisk	7940
träffas	7941
genomförandet	7942
perioder	7943
trädgården	7944
tillåta	7945
trevligt	7946
citat	7947
klagomål	7948
pratade	7949
territorium	7950
paradis	7951
sjukvård	7952
överensstämmelse	7953
hormon	7954
].	7955
sara	7956
tänder	7957
öde	7958
öms	7959
##ron	7960
##jor	7961
##dem	7962
skäm	7963
skämt	7964
ändrar	7965
saj	7966
mosk	7967
löst	7968
återvin	7969
landsb	7970
karl	7971
nätverks	7972
videon	7973
##fors	7974
läkemedels	7975
ansiktet	7976
besökte	7977
regissör	7978
diplom	7979
landsbyg	7980
gh	7981
git	7982
ligt	7983
passa	7984
##pet	7985
##ez	7986
##nats	7987
##irekt	7988
##gl	7989
##äva	7990
##éer	7991
anger	7992
såv	7993
league	7994
saken	7995
konton	7996
##knipp	7997
ansåg	7998
talas	7999
bokstav	8000
andliga	8001
angående	8002
galler	8003
uppenbart	8004
surf	8005
fågel	8006
hiv	8007
ker	8008
kram	8009
röka	8010
sed	8011
veder	8012
##nummer	8013
##känn	8014
förknipp	8015
##verksam	8016
##skå	8017
trupp	8018
andras	8019
final	8020
##alth	8021
sjuka	8022
farligt	8023
arbetsgivare	8024
förhållandet	8025
upptäcker	8026
beskriva	8027
dörrar	8028
distrikt	8029
säljs	8030
tillhandahålls	8031
föreläs	8032
diskriminering	8033
nings	8034
tok	8035
##tog	8036
##ningom	8037
##terad	8038
##skydd	8039
##litt	8040
skatter	8041
externa	8042
resolution	8043
programmer	8044
lyft	8045
färgen	8046
sakerna	8047
baseras	8048
byggdes	8049
##ibla	8050
småningom	8051
##frihet	8052
knappen	8053
##jukdom	8054
substans	8055
framgångsrikt	8056
civila	8057
abb	8058
eva	8059
ikon	8060
lam	8061
vänd	8062
##effekt	8063
##nämn	8064
##orma	8065
stycket	8066
utsätt	8067
##emon	8068
undra	8069
årig	8070
tidig	8071
jordbruk	8072
sparar	8073
portfölj	8074
bekym	8075
undersökningen	8076
fylld	8077
afghan	8078
kalifornien	8079
ion	8080
rat	8081
##gel	8082
ära	8083
deklar	8084
##isser	8085
försvara	8086
funderar	8087
tredj	8088
rapportering	8089
droger	8090
lagstiftningen	8091
beräknas	8092
certifik	8093
upphovsrätt	8094
royal	8095
bir	8096
fer	8097
##ris	8098
##ah	8099
inställ	8100
##ismer	8101
alli	8102
regioner	8103
högkv	8104
troll	8105
förbe	8106
##domen	8107
##fritt	8108
forskningen	8109
coun	8110
främmande	8111
missa	8112
instagram	8113
jesu	8114
förening	8115
glömmer	8116
källan	8117
länken	8118
volym	8119
skyldighet	8120
nödvändigtvis	8121
kontoret	8122
kvalit	8123
bekräftar	8124
hustru	8125
##ttio	8126
såklart	8127
härlig	8128
orätt	8129
tapp	8130
##osition	8131
vägg	8132
nere	8133
linjer	8134
spring	8135
skadliga	8136
benäg	8137
förutsättning	8138
släpptes	8139
porträtt	8140
stolta	8141
officiellt	8142
negativ	8143
anläggning	8144
mira	8145
fotbolls	8146
förfarandet	8147
informera	8148
ömses	8149
rike	8150
##nis	8151
##vd	8152
##ino	8153
front	8154
bevara	8155
överh	8156
sevärd	8157
##ulin	8158
genast	8159
beredd	8160
##arnas	8161
människo	8162
studio	8163
vanor	8164
penis	8165
konstant	8166
kulturen	8167
johan	8168
kombinerar	8169
fåglar	8170
noggrann	8171
terapi	8172
fonden	8173
institute	8174
cle	8175
ll	8176
lund	8177
införa	8178
spåra	8179
##usion	8180
minnas	8181
nyfiken	8182
kungar	8183
hjälpt	8184
smith	8185
återbetalning	8186
times	8187
magn	8188
förklarade	8189
dyra	8190
tillfälligt	8191
släpper	8192
utvecklare	8193
principen	8194
presentera	8195
##ässigt	8196
huvudsakliga	8197
tvivel	8198
soldater	8199
.)	8200
bang	8201
ling	8202
##cessen	8203
##ökt	8204
##knings	8205
utöva	8206
##skriv	8207
erhåll	8208
##drom	8209
betalt	8210
tycka	8211
längst	8212
lyfta	8213
berättelsen	8214
möjligheterna	8215
kraftfull	8216
släpps	8217
praktiken	8218
clo	8219
club	8220
apost	8221
bekvämt	8222
skilja	8223
tillåtet	8224
fångar	8225
utvärdering	8226
existens	8227
research	8228
texas	8229
mynt	8230
www	8231
49	8232
bomb	8233
hd	8234
mamm	8235
##räd	8236
##kande	8237
##ula	8238
##inav	8239
##ckerna	8240
##adress	8241
syda	8242
##cha	8243
##annen	8244
störningar	8245
pack	8246
medlemskap	8247
liknar	8248
##bildning	8249
sankt	8250
delarna	8251
tränings	8252
föräldra	8253
offentliggör	8254
institutet	8255
uppdatering	8256
judiska	8257
charm	8258
otill	8259
lugnt	8260
mp	8261
##log	8262
##omi	8263
förnu	8264
påpe	8265
anfall	8266
anonym	8267
##ili	8268
beställning	8269
visum	8270
beträff	8271
handlare	8272
slutföra	8273
##knat	8274
tjänare	8275
vänlig	8276
levereras	8277
låna	8278
rådgivare	8279
föds	8280
mörk	8281
positioner	8282
pappers	8283
allvarlig	8284
volvo	8285
##punkter	8286
uppdateringar	8287
plattformar	8288
tvingas	8289
hyres	8290
republiken	8291
avlägsna	8292
kemikalier	8293
kollegor	8294
förnuft	8295
47	8296
ler	8297
opp	8298
py	8299
##df	8300
##övar	8301
##sing	8302
##arens	8303
enorma	8304
united	8305
minoritet	8306
överföra	8307
efteråt	8308
kab	8309
läkaren	8310
##ission	8311
##efoner	8312
book	8313
jämföra	8314
banan	8315
irri	8316
lyckliga	8317
expan	8318
beteck	8319
works	8320
grönt	8321
infektioner	8322
##polit	8323
fördju	8324
konsumenterna	8325
premiärminister	8326
##meddelande	8327
överläm	8328
##ble	8329
##äver	8330
##skop	8331
triv	8332
pren	8333
##yggen	8334
##riften	8335
rättvis	8336
sträv	8337
south	8338
rosa	8339
kraften	8340
skadade	8341
myster	8342
hungr	8343
portug	8344
majoritet	8345
medvetenhet	8346
praktik	8347
frank	8348
muskler	8349
avslöja	8350
ultra	8351
avancerad	8352
falska	8353
entreprenör	8354
hellre	8355
bb	8356
bing	8357
lung	8358
mats	8359
rakt	8360
tm	8361
##nivå	8362
##ttar	8363
städerna	8364
vardag	8365
omfatta	8366
beställa	8367
underbart	8368
##sluter	8369
tvärt	8370
##ifi	8371
poster	8372
kontrollerar	8373
bloggar	8374
definition	8375
agent	8376
förenade	8377
upptäckte	8378
automatis	8379
tvekan	8380
konstruktion	8381
latin	8382
advokat	8383
intäkter	8384
41	8385
cm	8386
ey	8387
mand	8388
ningar	8389
rand	8390
##ked	8391
anmär	8392
202	8393
rättfär	8394
sof	8395
baks	8396
faktiska	8397
valut	8398
öppnas	8399
ansvaret	8400
jämn	8401
avslapp	8402
levde	8403
tänkande	8404
billigare	8405
strukturer	8406
stjärna	8407
butiken	8408
##ladd	8409
##namn	8410
dubbla	8411
recensioner	8412
flexibel	8413
sämre	8414
marknadsförings	8415
antibiot	8416
asy	8417
bul	8418
lut	8419
##sdagen	8420
##stod	8421
städ	8422
medie	8423
utskott	8424
översättning	8425
##varu	8426
ingång	8427
locka	8428
kompens	8429
##vetenskap	8430
styrning	8431
generationer	8432
kraftfulla	8433
publiken	8434
notera	8435
##former	8436
känsliga	8437
orolig	8438
förberedel	8439
intellekt	8440
konferensen	8441
miljontals	8442
albumet	8443
lägenheten	8444
nob	8445
##bit	8446
##kod	8447
dele	8448
skre	8449
prost	8450
blind	8451
tvär	8452
försen	8453
försäm	8454
info	8455
ledningen	8456
ledsen	8457
kortare	8458
flertal	8459
djuren	8460
kontrollen	8461
250	8462
##temot	8463
förbereder	8464
läggs	8465
bollen	8466
webbläsare	8467
lade	8468
##äp	8469
##iserar	8470
tillkänn	8471
progn	8472
##anser	8473
##bby	8474
##ospel	8475
blick	8476
##träff	8477
poly	8478
##värde	8479
health	8480
turister	8481
olog	8482
commun	8483
tränare	8484
kopplade	8485
roman	8486
optimer	8487
##områden	8488
belysning	8489
nar	8490
riv	8491
##ean	8492
avvik	8493
utsatt	8494
##ssnitt	8495
##istiskt	8496
tidsk	8497
##rick	8498
förluster	8499
head	8500
feed	8501
rapportera	8502
övre	8503
##itering	8504
found	8505
elektriska	8506
skett	8507
##smål	8508
presidenten	8509
rikedom	8510
##skridande	8511
fjärr	8512
demokratiska	8513
sjukhuset	8514
försiktig	8515
vakna	8516
republik	8517
festival	8518
uppmuntra	8519
ai	8520
astr	8521
ryggen	8522
well	8523
##tio	8524
##wood	8525
##rop	8526
utarbet	8527
##ota	8528
##öjd	8529
fundera	8530
lägsta	8531
##kreter	8532
ansöka	8533
vägledning	8534
##strar	8535
drycker	8536
lab	8537
good	8538
##vention	8539
120	8540
avsedd	8541
servic	8542
slaget	8543
böckerna	8544
chefen	8545
white	8546
strategiska	8547
usd	8548
anpassade	8549
grönsaker	8550
pojke	8551
mix	8552
kärnvapen	8553
konflikter	8554
terape	8555
mästare	8556
##höll	8557
59	8558
hp	8559
vakt	8560
##ibilitet	8561
##tton	8562
tillbe	8563
varning	8564
##esk	8565
skar	8566
##ämnen	8567
grym	8568
helsing	8569
släng	8570
genomförs	8571
förstod	8572
##celler	8573
naz	8574
måltid	8575
abra	8576
hyper	8577
regerings	8578
registrerade	8579
johannes	8580
teamet	8581
##igenom	8582
satsa	8583
obehag	8584
biblioteket	8585
pilot	8586
räknar	8587
arbetslös	8588
afghanistan	8589
högkvalit	8590
700	8591
​​	8592
vibr	8593
anteck	8594
gentemot	8595
##spunkt	8596
datask	8597
löne	8598
##minskning	8599
##gärder	8600
riskerar	8601
dras	8602
upplevelsen	8603
negativt	8604
toler	8605
nämnda	8606
inträffar	8607
arabiska	8608
återförsäljare	8609
gul	8610
ri	8611
ss	8612
ug	8613
usb	8614
##oid	8615
##pat	8616
##itera	8617
##äda	8618
##fly	8619
##ene	8620
dead	8621
påbörj	8622
strikt	8623
##eld	8624
##asa	8625
##ript	8626
vilda	8627
tvätta	8628
beska	8629
försörj	8630
bilda	8631
barnets	8632
regim	8633
innefatt	8634
packa	8635
hörn	8636
rykte	8637
konsul	8638
köpare	8639
producenter	8640
födda	8641
operatör	8642
bibe	8643
vågar	8644
anläggningen	8645
rymden	8646
ungdoms	8647
ignor	8648
ultim	8649
paulus	8650
presentation	8651
rekommendation	8652
fiender	8653
return	8654
divis	8655
[-	8656
cla	8657
card	8658
lt	8659
mog	8660
olj	8661
vr	8662
öga	8663
##rater	8664
##löst	8665
enter	8666
##atorer	8667
meddela	8668
reform	8669
trag	8670
därib	8671
##slös	8672
arbetspl	8673
dels	8674
##gien	8675
inomhus	8676
snäll	8677
tekniskt	8678
prev	8679
fastigheter	8680
introduktion	8681
läsning	8682
övningar	8683
minskade	8684
förutsäg	8685
ovanför	8686
lokalt	8687
plattformen	8688
malmö	8689
##cykel	8690
flykting	8691
sorts	8692
sortiment	8693
ecb	8694
lägenheter	8695
förmåner	8696
filosofi	8697
thailand	8698
[-]	8699
däribland	8700
call	8701
cup	8702
kla	8703
work	8704
##tm	8705
##ius	8706
##milj	8707
##jun	8708
##rass	8709
utse	8710
åriga	8711
brom	8712
arbeten	8713
säkerställer	8714
fyller	8715
flygbolag	8716
tox	8717
arbetsmark	8718
vetenskaplig	8719
djupa	8720
utformad	8721
ökande	8722
##ammation	8723
skratta	8724
krisen	8725
lastbil	8726
arrangemang	8727
''	8728
bat	8729
water	8730
##cing	8731
##dition	8732
inred	8733
from	8734
frustr	8735
brister	8736
välbef	8737
delade	8738
verkligt	8739
##ynda	8740
grundare	8741
road	8742
domare	8743
graf	8744
punkten	8745
1998	8746
irland	8747
insåg	8748
integration	8749
integrerad	8750
##försä	8751
##smäss	8752
chefer	8753
##byggnad	8754
kopia	8755
flexibilitet	8756
anmälan	8757
ansträngningar	8758
space	8759
profeten	8760
exponering	8761
påminner	8762
bull	8763
pir	8764
##riska	8765
avsk	8766
tillväg	8767
##alett	8768
##urer	8769
##ski	8770
proport	8771
fav	8772
extern	8773
##speg	8774
##landet	8775
smuts	8776
möjligen	8777
paus	8778
lys	8779
tempel	8780
mediciner	8781
logistik	8782
förvaltnings	8783
elektronisk	8784
planeten	8785
leksaker	8786
texter	8787
beläget	8788
förbindelser	8789
certifikat	8790
abraham	8791
--	8792
fund	8793
isk	8794
nut	8795
put	8796
##cer	8797
##our	8798
##pn	8799
##sf	8800
splitt	8801
##ämning	8802
##ulär	8803
##ject	8804
slump	8805
väggen	8806
långsam	8807
ställs	8808
styrkor	8809
kvinnors	8810
konsol	8811
träffat	8812
aggress	8813
kniv	8814
golv	8815
what	8816
försvann	8817
exakta	8818
vittnes	8819
väntade	8820
entus	8821
rekommendationer	8822
programvaran	8823
förebygga	8824
gissa	8825
njur	8826
öd	8827
öarna	8828
östra	8829
##ire	8830
förverk	8831
frig	8832
grip	8833
mary	8834
kabel	8835
tyder	8836
tyng	8837
##äddar	8838
slutänd	8839
sound	8840
hittas	8841
komposit	8842
partik	8843
historiskt	8844
##ologiskt	8845
mäklare	8846
oliv	8847
sonen	8848
populärt	8849
foss	8850
redovisning	8851
phot	8852
presenteras	8853
förekommande	8854
konvention	8855
illustr	8856
akut	8857
hindrar	8858
ipad	8859
kampanjer	8860
kejs	8861
föreskrivs	8862
kreativitet	8863
slutändan	8864
givit	8865
long	8866
##östern	8867
meditation	8868
skräck	8869
progress	8870
trycket	8871
framträd	8872
mellanöstern	8873
##barhet	8874
gården	8875
vaknar	8876
direktör	8877
sidorna	8878
ation	8879
monster	8880
placeras	8881
bekräfta	8882
attacker	8883
fönstret	8884
avslöjar	8885
kasinon	8886
association	8887
krimin	8888
kim	8889
les	8890
ore	8891
tion	8892
with	8893
##san	8894
##gade	8895
##edlem	8896
##emedlem	8897
årtion	8898
bron	8899
chic	8900
västra	8901
lögn	8902
pay	8903
place	8904
##astående	8905
180	8906
access	8907
förälder	8908
söta	8909
biologiska	8910
sänka	8911
fordons	8912
simul	8913
stabilitet	8914
önskan	8915
skjuta	8916
avdelningen	8917
##träde	8918
journalist	8919
tjugo	8920
disciplin	8921
sevärdheter	8922
!)	8923
how	8924
iak	8925
pump	8926
set	8927
##ural	8928
##rog	8929
##äget	8930
manif	8931
motorn	8932
bestående	8933
syndrom	8934
riskerna	8935
flytande	8936
förbättringar	8937
nivåerna	8938
magnet	8939
temat	8940
blodtryck	8941
cyber	8942
medlemsstaten	8943
fysik	8944
sökning	8945
vetenskapen	8946
food	8947
räkning	8948
gammalt	8949
sektor	8950
konsekvent	8951
jackp	8952
satell	8953
distribu	8954
sjunga	8955
intensiv	8956
ätit	8957
beslutsfatt	8958
##utveckling	8959
tillkännag	8960
innefattar	8961
damm	8962
iga	8963
räck	8964
##ew	8965
förkort	8966
realt	8967
tri	8968
träng	8969
präg	8970
verkställande	8971
slutliga	8972
para	8973
målt	8974
händelsen	8975
coach	8976
intill	8977
bildar	8978
arbetsgiv	8979
bitar	8980
rapporterar	8981
uppnås	8982
bekant	8983
golvet	8984
##gås	8985
glasögon	8986
drabbade	8987
maskinen	8988
##ripet	8989
beloppet	8990
erkännande	8991
skulder	8992
distribution	8993
olymp	8994
taxi	8995
prenumer	8996
51	8997
fra	8998
listor	8999
plikt	9000
tät	9001
##rings	9002
##agång	9003
fry	9004
utställningen	9005
skic	9006
##umul	9007
fläck	9008
hong	9009
parken	9010
inner	9011
roule	9012
etn	9013
toalett	9014
##rafik	9015
1980	9016
knappast	9017
observer	9018
dubbelt	9019
akademiska	9020
olyckor	9021
loppet	9022
##osex	9023
agerar	9024
företräd	9025
liberal	9026
allerg	9027
skickade	9028
?!	9029
danska	9030
ef	9031
ifall	9032
rna	9033
ögat	9034
##igering	9035
##terande	9036
##uren	9037
flöd	9038
helige	9039
taket	9040
##chester	9041
##egång	9042
klätt	9043
laga	9044
vägrar	9045
talat	9046
skrivbord	9047
kallat	9048
##göra	9049
byggnads	9050
konstitut	9051
betydelsen	9052
torsdag	9053
ovanligt	9054
expans	9055
kategor	9056
mätning	9057
gymnas	9058
dimension	9059
idrotts	9060
%)	9061
cigare	9062
ea	9063
ets	9064
svän	9065
##åta	9066
##star	9067
##station	9068
stående	9069
victor	9070
##terings	9071
utro	9072
##idiga	9073
kanad	9074
skid	9075
##årds	9076
härligt	9077
bränn	9078
plat	9079
##anten	9080
##ustrin	9081
fött	9082
viktminskning	9083
lednings	9084
proced	9085
##ologin	9086
kroppens	9087
rötter	9088
dagars	9089
##taget	9090
designer	9091
glömde	9092
föreslag	9093
läkemed	9094
institution	9095
stockholms	9096
hölls	9097
auktor	9098
orsakerna	9099
metabol	9100
upplys	9101
velat	9102
gitarr	9103
66	9104
kämp	9105
len	9106
mess	9107
pic	9108
pedag	9109
##inne	9110
måla	9111
bered	9112
##bror	9113
##ipul	9114
dödade	9115
belast	9116
##rummet	9117
postadress	9118
alternativa	9119
itet	9120
dokum	9121
matcher	9122
stänger	9123
gold	9124
utgöra	9125
upprepa	9126
koncentration	9127
välsign	9128
inbegripet	9129
mobiltelefon	9130
signaler	9131
pedagog	9132
54	9133
ah	9134
cur	9135
##con	9136
##sas	9137
##fon	9138
##que	9139
stiger	9140
slots	9141
leka	9142
deltog	9143
.....	9144
kommand	9145
param	9146
point	9147
adop	9148
skyddet	9149
finansiell	9150
samarbetar	9151
##industrin	9152
övning	9153
1996	9154
kolum	9155
contro	9156
mörkret	9157
publicerade	9158
praktisk	9159
tillverkaren	9160
kritiska	9161
önskemål	9162
rutiner	9163
palestin	9164
reagerar	9165
##villkor	9166
arbetstagare	9167
##röstning	9168
gla	9169
jim	9170
mam	9171
##cle	9172
förk	9173
detekt	9174
skam	9175
flu	9176
nick	9177
jac	9178
långvar	9179
familjemedlem	9180
uttag	9181
värdefulla	9182
medelhav	9183
publicera	9184
meddelade	9185
tillverknings	9186
veget	9187
dödsfall	9188
tunnel	9189
avkastning	9190
bott	9191
lant	9192
ya	9193
##plikt	9194
##dade	9195
##ee	9196
##jon	9197
##-)	9198
##isco	9199
##ården	9200
##lix	9201
närmar	9202
präst	9203
express	9204
##iering	9205
1900	9206
hållbart	9207
##äckande	9208
##alla	9209
transpar	9210
compan	9211
itu	9212
##tement	9213
kalorier	9214
reserver	9215
1970	9216
slapp	9217
övertygad	9218
främjar	9219
inhem	9220
##institut	9221
såvida	9222
tvärtom	9223
kull	9224
kard	9225
##oss	9226
##gäng	9227
såhär	9228
översikt	9229
##seffekt	9230
värda	9231
bridge	9232
resort	9233
användnings	9234
lagra	9235
löfte	9236
statens	9237
dölja	9238
styrels	9239
atom	9240
tillgod	9241
orsakas	9242
fiber	9243
klassen	9244
föreningar	9245
normer	9246
logga	9247
ålders	9248
patienterna	9249
tillverkar	9250
anpassning	9251
bush	9252
paketet	9253
munnen	9254
vegas	9255
kusten	9256
inlär	9257
omdömen	9258
veterinär	9259
pojkvän	9260
ukraina	9261
feedback	9262
helsingfors	9263
välbefinnande	9264
bond	9265
cli	9266
cry	9267
dvd	9268
kok	9269
tör	9270
##anerna	9271
påmin	9272
ankomst	9273
fris	9274
överflöd	9275
trend	9276
##slan	9277
kvad	9278
##try	9279
parall	9280
artist	9281
indirekt	9282
planerade	9283
intryck	9284
light	9285
organisera	9286
european	9287
toba	9288
erade	9289
hanteras	9290
utföras	9291
konsumtion	9292
förhållandena	9293
satan	9294
gränserna	9295
motståndare	9296
ränta	9297
skilsmäss	9298
funnit	9299
campus	9300
ansträngning	9301
diskussion	9302
näringsl	9303
överhuvud	9304
tillvägagång	9305
tillvägagångssätt	9306
900	9307
fit	9308
gb	9309
pum	9310
torg	9311
##ega	9312
##har	9313
##väst	9314
##vinna	9315
förbruk	9316
enastående	9317
##edi	9318
##isch	9319
##alys	9320
##aming	9321
utsk	9322
##åriga	9323
##sköter	9324
spot	9325
armen	9326
årligen	9327
framställ	9328
besvik	9329
##egr	9330
gåvor	9331
aktör	9332
filen	9333
kompat	9334
valda	9335
trapp	9336
fullkom	9337
stödet	9338
byggd	9339
sjuksköter	9340
magiska	9341
1997	9342
märker	9343
irr	9344
produceras	9345
inbör	9346
känslig	9347
färdiga	9348
homosex	9349
huvudsakligen	9350
ängel	9351
inriktning	9352
minskat	9353
beträffande	9354
company	9355
mt	9356
pel	9357
##ety	9358
injekt	9359
##isar	9360
##ätte	9361
bell	9362
kongr	9363
manipul	9364
##serv	9365
härliga	9366
##osystem	9367
klaga	9368
chock	9369
check	9370
hemliga	9371
löser	9372
##partement	9373
##kontor	9374
grafik	9375
lås	9376
fire	9377
sakna	9378
märkt	9379
kunskaps	9380
stannade	9381
enskild	9382
ansökningar	9383
flickvän	9384
civilis	9385
isering	9386
öron	9387
representant	9388
uppehåll	9389
kontinuerligt	9390
järnvägs	9391
previous	9392
57	9393
ekv	9394
kyck	9395
pod	9396
vm	9397
vandra	9398
yt	9399
##rom	9400
##jerna	9401
varia	9402
frist	9403
spänning	9404
##iskop	9405
minnet	9406
##varor	9407
marina	9408
liter	9409
dröj	9410
planerat	9411
annanstans	9412
law	9413
redigera	9414
##oriter	9415
hälsan	9416
publiceras	9417
distans	9418
genomföras	9419
administration	9420
väntat	9421
elektronik	9422
canna	9423
igt	9424
dosen	9425
huvudstaden	9426
förvånad	9427
foundation	9428
##kreterare	9429
tillbehör	9430
67	9431
88	9432
ada	9433
ela	9434
gum	9435
hu	9436
pian	9437
vul	9438
##pråk	9439
##aller	9440
##angen	9441
##emi	9442
meningen	9443
konsten	9444
syften	9445
##cia	9446
##rådet	9447
may	9448
mega	9449
##ydro	9450
rolig	9451
skriven	9452
189	9453
ägde	9454
##troll	9455
institutionen	9456
förväntade	9457
who	9458
enklaste	9459
pojkar	9460
gradvis	9461
hänger	9462
bekväma	9463
växthus	9464
sammanfattning	9465
antibiotika	9466
roulette	9467
##egräns	9468
77	9469
96	9470
lid	9471
pdf	9472
river	9473
##ateras	9474
##roll	9475
arch	9476
eric	9477
manchester	9478
därigenom	9479
##beth	9480
##ödda	9481
rättegång	9482
verkan	9483
dire	9484
##ydde	9485
vände	9486
musikal	9487
syns	9488
count	9489
fiende	9490
intervall	9491
mont	9492
kulturer	9493
blods	9494
modifier	9495
humor	9496
salu	9497
tillverka	9498
protest	9499
omedelbar	9500
okänd	9501
inflammation	9502
välkomnar	9503
spridning	9504
mexiko	9505
skrämmande	9506
tjock	9507
katolska	9508
52	9509
böj	9510
cast	9511
gd	9512
##anna	9513
frö	9514
prolet	9515
trycka	9516
eröv	9517
fak	9518
##skad	9519
genomgå	9520
##jack	9521
##irig	9522
finlands	9523
##pten	9524
artister	9525
emp	9526
centre	9527
soldat	9528
intag	9529
lind	9530
nämna	9531
##antering	9532
försvinna	9533
kronisk	9534
relaterad	9535
smartphone	9536
airport	9537
ekosystem	9538
utredning	9539
flaska	9540
##play	9541
muslimska	9542
matematik	9543
##person	9544
frigör	9545
"?	9546
cop	9547
hop	9548
katten	9549
key	9550
squ	9551
wild	9552
##risk	9553
##ira	9554
##kör	9555
##jande	9556
##enda	9557
##tten	9558
fördela	9559
insättning	9560
tillträde	9561
påven	9562
##ury	9563
menyn	9564
hant	9565
blin	9566
återf	9567
netto	9568
etiska	9569
rörande	9570
##tiden	9571
kristi	9572
evolution	9573
medvetande	9574
bevisa	9575
ringer	9576
flickan	9577
återvänder	9578
kampanjen	9579
etablerade	9580
upprepade	9581
kandidater	9582
segment	9583
konceptet	9584
nyhetsb	9585
olycka	9586
uppvärmning	9587
uppmuntrar	9588
resenärer	9589
molekyl	9590
cloud	9591
56	9592
98	9593
ound	9594
piz	9595
piller	9596
##xor	9597
##inerna	9598
insamling	9599
utsatta	9600
späd	9601
saint	9602
##gav	9603
urban	9604
flyger	9605
ägs	9606
byte	9607
skyddas	9608
affären	9609
halva	9610
anställning	9611
massage	9612
strategin	9613
tillhörande	9614
hänga	9615
fartyget	9616
blackjack	9617
korru	9618
teorin	9619
##skyld	9620
tjänstemän	9621
pensions	9622
get	9623
ian	9624
santa	9625
uk	9626
##made	9627
##etnam	9628
##onn	9629
init	9630
##verant	9631
skör	9632
proff	9633
skal	9634
manus	9635
##lings	9636
##iktion	9637
chatt	9638
handlade	9639
synder	9640
##ower	9641
lake	9642
besluta	9643
intyg	9644
interag	9645
mission	9646
1995	9647
dyker	9648
provin	9649
stjärnan	9650
medlemsstaternas	9651
autent	9652
besökt	9653
##sprojekt	9654
häft	9655
##äkerhet	9656
firar	9657
expertis	9658
angeles	9659
tiderna	9660
önskade	9661
funktionsh	9662
schema	9663
avsevärt	9664
skandinav	9665
%.	9666
01	9667
gig	9668
kit	9669
kog	9670
sop	9671
##bul	9672
äro	9673
stjäl	9674
vietnam	9675
konung	9676
alltmer	9677
tvist	9678
beseg	9679
##plan	9680
paret	9681
återspeg	9682
trop	9683
vänliga	9684
robin	9685
partier	9686
rörlighet	9687
aktivera	9688
skapades	9689
norden	9690
utmaningen	9691
lyckligtvis	9692
engelsk	9693
specialist	9694
ljudet	9695
johnson	9696
bedömningen	9697
utformade	9698
charles	9699
båten	9700
båtar	9701
##elset	9702
förhandlingar	9703
batterier	9704
jättebra	9705
gråta	9706
överenskommelse	9707
gudomliga	9708
sydafrika	9709
##miljö	9710
favoriter	9711
kvadrat	9712
kongressen	9713
likt	9714
morm	9715
njuter	9716
puss	9717
##kelse	9718
##fo	9719
##agen	9720
frans	9721
plåg	9722
##chef	9723
klänning	9724
finska	9725
återstår	9726
loss	9727
skrivet	9728
fibr	9729
comm	9730
tillgången	9731
insulin	9732
upplevt	9733
sökmot	9734
eviga	9735
sände	9736
dokumentet	9737
bekämp	9738
funktionalitet	9739
heten	9740
tennis	9741
beräkna	9742
fullständiga	9743
regeringens	9744
cru	9745
konsert	9746
singel	9747
sensor	9748
lektioner	9749
enormt	9750
stjärnorna	9751
##savtal	9752
trender	9753
kalender	9754
##försäkring	9755
hekt	9756
kid	9757
nätter	9758
run	9759
ud	9760
xbox	9761
##cus	9762
##ywood	9763
##bla	9764
##mes	9765
tillskott	9766
stiga	9767
samlade	9768
översyn	9769
tall	9770
krista	9771
slit	9772
##opol	9773
##knik	9774
väggar	9775
förbund	9776
relationen	9777
långiv	9778
##arbete	9779
add	9780
redakt	9781
koranen	9782
1800	9783
##havar	9784
tredjedel	9785
medelst	9786
tydligen	9787
utmanande	9788
publicerades	9789
israeliska	9790
dokumentär	9791
kundens	9792
gränssnitt	9793
skräddar	9794
prestation	9795
tillverkas	9796
kinas	9797
judarna	9798
regional	9799
dotterbolag	9800
djupare	9801
klinisk	9802
hästen	9803
övergrepp	9804
förbjudet	9805
journalister	9806
virtuella	9807
olagligt	9808
exklusiva	9809
ledamöter	9810
bistånd	9811
säkrare	9812
chicago	9813
fakult	9814
eeg	9815
night	9816
ped	9817
sund	9818
tt	9819
watch	9820
##bell	9821
##bien	9822
##gilt	9823
##flix	9824
##ini	9825
föraren	9826
end	9827
##änningar	9828
omsättning	9829
##ivande	9830
uppror	9831
report	9832
tidning	9833
##iteter	9834
bob	9835
trafiken	9836
historier	9837
bildas	9838
amerikaner	9839
##slaget	9840
1994	9841
begränsning	9842
skyldiga	9843
##börd	9844
365	9845
laser	9846
##koppling	9847
överenskomm	9848
granskning	9849
ceremon	9850
cbd	9851
brasilien	9852
workshop	9853
ia	9854
mala	9855
mba	9856
oft	9857
äpp	9858
##rike	9859
##eum	9860
##gre	9861
##hamn	9862
##stat	9863
##ony	9864
##vers	9865
##utbildning	9866
##innan	9867
vild	9868
##ydds	9869
indian	9870
husdjur	9871
byggde	9872
fixa	9873
förbättras	9874
vetenskaps	9875
restaurangen	9876
klimatet	9877
uppdaterad	9878
läggas	9879
söner	9880
uppenbara	9881
hemsidan	9882
varumärket	9883
godkända	9884
spenderar	9885
netflix	9886
siffr	9887
journal	9888
temperaturen	9889
mekanismer	9890
principerna	9891
primära	9892
österrike	9893
resulterar	9894
explo	9895
utgångspunkt	9896
svärd	9897
restrikt	9898
tisdag	9899
rabatt	9900
neutral	9901
ödm	9902
måltider	9903
läkemedlet	9904
oundvik	9905
dop	9906
kub	9907
sor	9908
sir	9909
tat	9910
##cast	9911
##oven	9912
##pning	9913
##work	9914
##ank	9915
ärligt	9916
##iserat	9917
stro	9918
anvis	9919
skära	9920
##day	9921
##dran	9922
ext	9923
blöd	9924
sall	9925
kapten	9926
diagram	9927
gård	9928
spekul	9929
music	9930
sexuellt	9931
veckorna	9932
lokaler	9933
bubb	9934
knut	9935
rapporterade	9936
disney	9937
officer	9938
scenar	9939
krypt	9940
definitionen	9941
köns	9942
arranger	9943
vaknade	9944
rimlig	9945
högskolan	9946
djäv	9947
sällsynta	9948
florida	9949
72	9950
fä	9951
hydro	9952
ving	9953
##oster	9954
##nd	9955
##vård	9956
ärlig	9957
ankn	9958
sköt	9959
trick	9960
##skade	9961
berget	9962
##che	9963
saud	9964
bespar	9965
statist	9966
intu	9967
dödar	9968
nedgång	9969
förvån	9970
##gård	9971
förändringen	9972
missför	9973
regeringar	9974
testet	9975
kontrolleras	9976
förutsatt	9977
##fria	9978
##likhet	9979
tomt	9980
reglering	9981
konkurrenter	9982
behörighet	9983
argent	9984
multip	9985
gränsöver	9986
symboler	9987
energin	9988
tidpunkten	9989
explos	9990
slutsatser	9991
sprocessen	9992
spektrum	9993
livslängd	9994
terapeut	9995
=)	9996
luc	9997
nan	9998
ration	9999
