<unk>	0
<s>	0
</s>	0
.	-3.22844
s	-3.85795
,	-3.8953
▁och	-3.97169
▁att	-4.00742
▁är	-4.26871
▁i	-4.31128
▁för	-4.43511
en	-4.43763
▁en	-4.45851
▁som	-4.48137
▁av	-4.49062
t	-4.6239
a	-4.68494
▁på	-4.76044
▁det	-4.79559
▁	-4.79618
▁till	-4.88353
er	-4.88495
▁med	-4.96536
▁har	-5.1424
▁inte	-5.15523
▁den	-5.19727
n	-5.25513
▁de	-5.27603
▁om	-5.29085
▁du	-5.29598
r	-5.30682
▁ett	-5.37388
-	-5.40814
▁kan	-5.42429
▁jag	-5.54759
?	-5.57228
ar	-5.67433
▁Det	-5.70535
▁eller	-5.70776
e	-5.71527
et	-5.71797
:	-5.729
d	-5.77845
na	-5.80306
▁från	-5.83639
▁vi	-5.85246
▁var	-5.89506
de	-5.95087
▁(	-5.9711
▁så	-5.97611
▁kommer	-6.09007
▁Jag	-6.14313
)	-6.15994
!	-6.1811
▁vara	-6.3187
▁sig	-6.32636
▁man	-6.40535
▁dig	-6.4339
▁"	-6.4405
▁I	-6.44632
▁in	-6.45964
▁Vi	-6.46072
▁ska	-6.4616
▁här	-6.47858
▁han	-6.47968
▁när	-6.48441
▁alla	-6.49019
▁upp	-6.49235
▁ut	-6.52568
▁över	-6.53558
▁men	-6.56532
▁också	-6.57497
▁finns	-6.59677
▁Den	-6.59934
erna	-6.60413
▁andra	-6.60491
▁din	-6.64234
▁mer	-6.65399
▁mig	-6.67947
▁under	-6.6797
▁De	-6.70584
▁än	-6.70727
▁”	-6.71857
▁detta	-6.72352
▁ha	-6.72945
▁–	-6.73189
▁mycket	-6.75847
▁år	-6.76364
re	-6.76735
▁bara	-6.77216
▁-	-6.77748
▁En	-6.7853
▁vill	-6.79532
o	-6.81478
y	-6.81688
▁dem	-6.81903
▁vad	-6.82045
▁göra	-6.82375
▁där	-6.82709
i	-6.84301
k	-6.84362
▁sin	-6.8463
▁S	-6.86822
m	-6.8714
▁Men	-6.87688
▁För	-6.88961
▁efter	-6.90604
▁gör	-6.91208
▁hur	-6.93065
▁genom	-6.93807
g	-6.94421
▁oss	-6.95335
▁Om	-6.95446
▁Du	-6.9602
▁denna	-6.96439
an	-6.97069
▁skulle	-6.98369
in	-7.00505
▁se	-7.00985
▁få	-7.01915
▁vid	-7.01941
ning	-7.07476
▁nu	-7.07509
▁även	-7.07536
ande	-7.09043
or	-7.09085
▁måste	-7.09736
▁många	-7.1016
▁mot	-7.1017
"	-7.10307
▁min	-7.10367
are	-7.10834
▁får	-7.11161
▁Och	-7.11204
▁hade	-7.11991
▁något	-7.1379
▁någon	-7.15217
▁ta	-7.15562
nde	-7.15726
▁bra	-7.16062
ade	-7.16775
▁första	-7.17583
▁A	-7.18049
▁dessa	-7.19453
”	-7.19472
▁Han	-7.24395
/	-7.24561
▁två	-7.24982
▁inom	-7.26562
S	-7.26715
it	-7.27627
▁sina	-7.27689
▁sätt	-7.29186
▁allt	-7.29715
▁utan	-7.30022
▁hon	-7.30049
arna	-7.30627
al	-7.31355
at	-7.31417
▁Detta	-7.31442
▁När	-7.31484
l	-7.31912
...	-7.32221
ta	-7.32513
▁då	-7.33191
▁bli	-7.33874
▁del	-7.3435
▁be	-7.34381
p	-7.3494
▁Hur	-7.35482
▁tid	-7.35715
▁nya	-7.3597
▁ni	-7.35993
ing	-7.36331
▁s	-7.36985
▁barn	-7.37632
▁människor	-7.37852
▁mellan	-7.38146
ens	-7.38526
▁ditt	-7.38911
▁Vad	-7.39313
v	-7.39966
▁behöver	-7.40055
▁vår	-7.41236
▁olika	-7.41267
▁våra	-7.41623
da	-7.41775
▁1	-7.432
▁hela	-7.43503
▁själv	-7.43547
j	-7.44446
▁säger	-7.45331
as	-7.45357
▁P	-7.45698
▁sedan	-7.46454
st	-7.46833
ts	-7.46956
▁några	-7.47192
▁dina	-7.47561
▁deras	-7.47607
▁varje	-7.48205
ad	-7.48286
▁E	-7.50107
f	-7.50952
▁o	-7.50992
▁dag	-7.51416
▁G	-7.52011
▁blir	-7.52853
▁rätt	-7.53193
P	-7.5427
▁B	-7.54539
▁K	-7.55128
för	-7.5578
▁skall	-7.56916
h	-7.57016
ä	-7.57532
▁2	-7.57703
▁honom	-7.58901
▁C	-7.59163
▁19	-7.59233
T	-7.59946
C	-7.60111
▁vet	-7.60328
;	-7.60895
▁alltid	-7.61307
liga	-7.62215
es	-7.63539
▁sitt	-7.63706
D	-7.64408
lig	-7.64517
▁F	-7.64748
▁samma	-7.65047
het	-7.65274
M	-7.65511
▁går	-7.66274
).	-7.66461
▁fram	-7.66559
on	-7.66933
iska	-7.67129
▁helt	-7.68398
▁liv	-7.68443
▁Att	-7.68526
om	-7.68642
ska	-7.69161
▁3	-7.69444
▁ny	-7.70255
är	-7.70394
▁använda	-7.70487
▁vilket	-7.72265
▁varit	-7.72314
▁Så	-7.72487
▁O	-7.72736
▁världen	-7.72744
▁T	-7.72821
▁ser	-7.72934
▁bör	-7.73158
▁information	-7.73433
▁kunna	-7.73608
B	-7.73681
▁e	-7.74404
ma	-7.75081
▁k	-7.75495
▁hans	-7.7562
▁stor	-7.75682
ck	-7.75753
u	-7.75931
ter	-7.76169
▁ge	-7.76186
el	-7.76696
A	-7.77061
ra	-7.777
▁gå	-7.77712
ut	-7.77796
ö	-7.78132
▁bästa	-7.78394
▁bättre	-7.79102
▁ger	-7.79796
▁p	-7.79835
b	-7.80228
▁lite	-7.80863
▁5	-7.81026
▁annan	-7.82393
▁M	-7.82764
▁hem	-7.82794
ligt	-7.82962
▁ingen	-7.83029
ig	-7.83576
us	-7.84066
▁er	-7.84271
▁annat	-7.84813
des	-7.85277
▁hos	-7.8534
▁mitt	-7.85492
le	-7.85581
F	-7.85603
ering	-7.85774
▁aldrig	-7.86584
te	-7.87045
▁mest	-7.87213
▁Har	-7.87235
▁tre	-7.87576
▁L	-7.88543
▁H	-7.89459
▁dess	-7.89577
ur	-7.89623
I	-7.89646
▁Re	-7.89683
▁företag	-7.8981
la	-7.90201
▁komma	-7.91231
il	-7.91397
sk	-7.91476
▁gång	-7.91931
▁D	-7.92005
▁ju	-7.92139
ka	-7.92149
▁Med	-7.92153
K	-7.92409
▁grund	-7.926
▁flera	-7.9278
▁tar	-7.93136
c	-7.93322
R	-7.93464
▁eftersom	-7.93881
L	-7.93957
ul	-7.94059
ol	-7.94173
▁stora	-7.94262
▁Gud	-7.94394
is	-7.94404
E	-7.94439
▁kom	-7.9558
▁blev	-7.9562
▁bort	-7.95897
▁Ett	-7.95925
▁4	-7.96056
▁På	-7.96323
H	-7.96326
.”	-7.9653
▁re	-7.96758
be	-7.96837
tal	-7.97282
G	-7.97658
▁väl	-7.97891
se	-7.98356
▁an	-7.98914
▁verkligen	-7.99153
▁fall	-7.99234
▁of	-7.99353
▁tror	-7.99428
▁tillbaka	-7.99904
▁samt	-8.00281
▁Hon	-8.00387
kt	-8.00523
▁10	-8.0064
▁innan	-8.00644
▁gäller	-8.00673
▁f	-8.00862
▁enligt	-8.00872
▁fick	-8.03571
▁Är	-8.04242
ne	-8.05645
tt	-8.05802
▁“	-8.05961
▁Som	-8.06232
2	-8.06318
der	-8.07336
▁kunde	-8.0734
▁g	-8.07516
▁Alla	-8.07942
▁R	-8.08004
▁saker	-8.08981
▁kanske	-8.09018
▁ofta	-8.09268
▁hjälp	-8.0977
▁skapa	-8.09775
iga	-8.09861
▁spel	-8.10097
▁St	-8.10308
man	-8.10436
."	-8.10588
▁åt	-8.1133
O	-8.11387
N	-8.11499
▁t	-8.11632
x	-8.11663
▁både	-8.11798
▁In	-8.12162
▁använder	-8.12297
▁mål	-8.1246
]	-8.12665
ningar	-8.12847
▁Nu	-8.12917
ri	-8.13048
▁säga	-8.13305
▁personer	-8.1358
▁igen	-8.13756
▁exempel	-8.14337
▁problem	-8.14718
▁EU	-8.14885
z	-8.1497
▁bland	-8.15337
▁Be	-8.15566
▁redan	-8.15746
ce	-8.15826
▁USA	-8.16134
ns	-8.16605
ry	-8.16875
▁Här	-8.16922
▁dock	-8.17178
▁idag	-8.17399
▁hand	-8.17546
▁mindre	-8.17688
▁fortfarande	-8.17774
▁sp	-8.18134
V	-8.18182
▁mina	-8.1823
▁tidigare	-8.18365
▁före	-8.18515
▁plats	-8.18584
▁gjort	-8.1897
▁ord	-8.19575
▁ligger	-8.19582
▁tillsammans	-8.19715
▁endast	-8.19805
▁väldigt	-8.20251
▁vissa	-8.20649
ro	-8.20665
ic	-8.20762
▁mat	-8.20763
va	-8.21002
▁ner	-8.21058
▁Varför	-8.21202
ningen	-8.21735
▁a	-8.22046
▁Man	-8.22241
▁procent	-8.2238
mp	-8.22474
U	-8.22633
▁...	-8.22762
ga	-8.22956
ation	-8.22966
▁sa	-8.23405
▁form	-8.23416
▁Var	-8.23432
um	-8.24068
▁Se	-8.2472
▁hjälpa	-8.24852
▁möjligt	-8.25439
▁vatten	-8.25527
▁längre	-8.25537
▁folk	-8.25644
▁väg	-8.257
▁N	-8.26178
1	-8.26623
▁pengar	-8.27027
▁Ja	-8.27284
ik	-8.27353
å	-8.27597
▁hitta	-8.27621
▁Till	-8.27635
▁största	-8.27644
ia	-8.27891
▁The	-8.27977
▁hög	-8.28602
sta	-8.28636
▁gjorde	-8.29047
”.	-8.29257
ex	-8.29276
▁person	-8.29648
w	-8.29743
▁artikel	-8.29885
▁Under	-8.30281
▁känner	-8.30323
▁därför	-8.30401
▁tiden	-8.30788
▁produkter	-8.30853
to	-8.30974
▁enda	-8.31031
▁slut	-8.31089
▁egen	-8.31436
▁An	-8.3179
5	-8.31932
▁20	-8.32238
era	-8.32409
▁beslut	-8.3243
▁henne	-8.32503
▁kvinnor	-8.32845
id	-8.32957
),	-8.32963
▁innebär	-8.33034
ed	-8.33048
ion	-8.33144
3	-8.33587
▁vårt	-8.33764
isk	-8.33931
lo	-8.33967
tion	-8.34114
▁används	-8.3511
▁6	-8.35238
▁c	-8.36806
'	-8.37061
▁flesta	-8.37136
▁Kan	-8.37193
ton	-8.37222
▁hålla	-8.37324
▁b	-8.37466
▁dagar	-8.37756
▁viktigt	-8.37994
▁namn	-8.3839
▁runt	-8.38473
▁energi	-8.38843
▁land	-8.3892
▁Min	-8.39074
den	-8.39176
▁Ni	-8.39496
▁större	-8.39525
▁visar	-8.39771
▁data	-8.39855
▁7	-8.39907
▁lätt	-8.39955
▁V	-8.40219
▁fler	-8.40641
▁Sverige	-8.41027
os	-8.41455
▁stöd	-8.41829
gen	-8.4201
vis	-8.42134
lag	-8.42535
▁ännu	-8.42728
tor	-8.43094
▁ur	-8.4325
erade	-8.43593
▁fråga	-8.43758
▁själva	-8.4388
▁tro	-8.43917
▁lika	-8.44126
▁nära	-8.44337
ger	-8.44572
▁vilken	-8.44675
var	-8.45059
▁fel	-8.45065
▁börjar	-8.45121
▁senaste	-8.45196
pp	-8.45316
▁livet	-8.45454
ör	-8.45473
nings	-8.45615
ni	-8.45742
▁varför	-8.45745
▁arbete	-8.46006
▁8	-8.46012
▁åter	-8.46187
▁kort	-8.46216
ja	-8.46309
ll	-8.46437
▁val	-8.46586
▁hennes	-8.46956
min	-8.47023
▁älskar	-8.47591
▁Dessa	-8.47762
ir	-8.47824
".	-8.47831
co	-8.47852
▁enkelt	-8.4801
4	-8.48263
me	-8.48294
ke	-8.48508
▁Ta	-8.48522
ste	-8.48671
▁fem	-8.49086
▁Inte	-8.49586
ell	-8.49611
▁direkt	-8.49626
▁bil	-8.49638
itet	-8.49858
land	-8.50231
▁fått	-8.50253
▁tycker	-8.50381
▁blivit	-8.50399
▁spela	-8.50761
▁erbjuder	-8.50769
ot	-8.50825
▁per	-8.50966
▁vilka	-8.51047
år	-8.51161
▁nästan	-8.51188
else	-8.51296
▁Efter	-8.51339
av	-8.51544
talet	-8.51856
▁just	-8.52093
▁nytt	-8.52164
▁särskilt	-8.52211
▁typ	-8.52242
▁inget	-8.52327
▁dom	-8.52449
▁18	-8.52561
▁frågor	-8.52624
▁Europa	-8.5288
▁står	-8.5292
▁and	-8.53111
▁[	-8.53302
▁länge	-8.53452
▁W	-8.53559
▁senare	-8.54501
ld	-8.54557
▁Mo	-8.54598
▁tjänster	-8.54687
di	-8.55058
▁m	-8.55078
ge	-8.55128
äck	-8.55389
▁miljö	-8.55433
▁&	-8.55644
▁länder	-8.55665
ch	-8.56022
li	-8.56091
ie	-8.56542
▁icke	-8.56571
rätt	-8.56611
▁arbets	-8.56773
ek	-8.56874
▁miljoner	-8.57059
▁fast	-8.57105
und	-8.57387
▁15	-8.57668
▁gånger	-8.57976
än	-8.58157
igt	-8.5819
ling	-8.58371
son	-8.58383
ju	-8.58507
Jag	-8.58782
▁Av	-8.58867
▁fyra	-8.58922
▁händer	-8.59079
▁Bo	-8.59137
mi	-8.59336
▁små	-8.59691
▁Även	-8.59828
▁000	-8.59878
▁arbetar	-8.59967
men	-8.60061
▁lära	-8.60145
▁kvar	-8.60542
▁all	-8.61002
▁faktiskt	-8.61167
▁J	-8.61201
▁sex	-8.61222
▁veta	-8.61512
ställ	-8.61593
▁Le	-8.61597
▁ned	-8.61773
▁gick	-8.61999
▁god	-8.62019
▁dagen	-8.62286
▁inför	-8.62335
▁system	-8.62475
▁köpa	-8.63046
▁året	-8.63062
▁par	-8.63065
upp	-8.63349
▁30	-8.6344
▁välja	-8.6344
▁lag	-8.63652
ist	-8.63928
gi	-8.64004
▁började	-8.64044
im	-8.64097
▁tog	-8.64119
▁sade	-8.64198
▁delar	-8.64256
▁utveckla	-8.64306
ets	-8.64403
▁lång	-8.64749
▁online	-8.64877
▁handlar	-8.65406
ella	-8.65407
▁kärlek	-8.65857
▁utveckling	-8.65874
▁musik	-8.66116
▁sak	-8.66119
ment	-8.66156
mo	-8.66211
▁såg	-8.66268
00	-8.66334
▁först	-8.66425
op	-8.66481
ti	-8.66496
▁förbättra	-8.66522
▁stort	-8.6666
sh	-8.66811
spel	-8.66991
’	-8.66994
▁Då	-8.67265
▁borde	-8.67278
ak	-8.67413
▁egna	-8.67581
lar	-8.67605
bo	-8.67969
▁varandra	-8.67985
W	-8.68011
▁12	-8.68315
▁båda	-8.68653
th	-8.6871
▁vän	-8.68748
▁vänner	-8.6897
▁bok	-8.68974
▁nästa	-8.69075
ighet	-8.69282
▁kunder	-8.6933
▁jobb	-8.69622
bi	-8.69647
▁emot	-8.69837
▁h	-8.69874
skap	-8.69943
▁timmar	-8.6997
ng	-8.70098
ster	-8.70245
▁Ba	-8.70293
▁roll	-8.70683
▁känna	-8.70754
▁verksamhet	-8.7084
▁snabbt	-8.70844
▁bo	-8.71058
▁U	-8.71725
ver	-8.71844
▁gången	-8.71859
▁precis	-8.71978
▁program	-8.72026
bu	-8.72109
gg	-8.72136
▁medan	-8.72195
▁svårt	-8.72328
▁håller	-8.72332
%	-8.72339
▁the	-8.72413
tan	-8.72507
▁9	-8.72512
ve	-8.72719
▁förstå	-8.7282
▁via	-8.73044
mma	-8.73064
iv	-8.73112
▁behov	-8.73114
▁liten	-8.73445
akt	-8.73447
▁användning	-8.73492
nd	-8.73536
▁steg	-8.73822
▁djur	-8.74139
▁tredje	-8.74353
▁män	-8.7444
▁möjlighet	-8.7444
▁hjälper	-8.74448
▁projekt	-8.74593
samma	-8.74687
▁riktigt	-8.74915
▁ytterligare	-8.7495
▁innehåller	-8.74969
▁resultat	-8.75012
▁Många	-8.75028
åt	-8.75264
ly	-8.75347
till	-8.75418
▁Ut	-8.75596
hi	-8.75702
▁Ro	-8.75742
▁huvud	-8.75922
▁rum	-8.76153
▁inga	-8.76154
6	-8.76186
fall	-8.76211
ring	-8.76537
▁st	-8.76685
▁Allt	-8.76905
▁Al	-8.76962
▁början	-8.77157
▁Co	-8.77182
▁död	-8.77235
▁betala	-8.77304
ick	-8.77328
am	-8.77534
▁sett	-8.77626
▁sådana	-8.78198
▁långt	-8.78222
▁kvalitet	-8.78228
val	-8.78297
▁tillgång	-8.78301
bb	-8.78346
▁åtgärder	-8.78504
▁läsa	-8.7859
orna	-8.78615
▁fungerar	-8.78616
▁inklusive	-8.78656
verk	-8.78727
▁/	-8.78786
▁följande	-8.7881
▁design	-8.78996
▁bild	-8.79119
▁nog	-8.79155
pa	-8.79195
tro	-8.79195
▁New	-8.79336
▁sådan	-8.79436
▁Jo	-8.79564
▁Ma	-8.79585
ha	-8.79629
▁minuter	-8.79694
kar	-8.79705
▁lämna	-8.79707
▁Mar	-8.79725
ism	-8.79726
▁Läs	-8.79827
▁sista	-8.79909
od	-8.79917
ord	-8.79992
▁antal	-8.8029
▁staden	-8.80488
▁pris	-8.805
▁betyder	-8.80531
▁produkt	-8.80634
do	-8.80669
del	-8.81026
▁kon	-8.81196
▁kr	-8.81493
ill	-8.81514
▁risk	-8.81647
▁full	-8.81798
▁helst	-8.81881
▁hus	-8.8197
mar	-8.81994
ten	-8.82025
pe	-8.82427
tar	-8.82653
8	-8.82738
▁gillar	-8.83063
▁gamla	-8.83093
▁samtidigt	-8.8313
▁Guds	-8.83174
▁minst	-8.83225
vi	-8.83499
▁far	-8.83541
▁visa	-8.83589
▁minska	-8.83638
▁Li	-8.83643
lä	-8.83725
ci	-8.83809
▁sidan	-8.84014
▁lär	-8.84166
▁haft	-8.84208
▁forskning	-8.84303
plan	-8.84405
pi	-8.84429
▁uppgifter	-8.84473
▁börja	-8.84727
▁familj	-8.84794
▁internationella	-8.8492
▁kontroll	-8.85013
ty	-8.85034
▁•	-8.85045
▁öppna	-8.85103
▁månader	-8.85456
▁Ra	-8.85671
Det	-8.85767
▁alternativ	-8.85987
▁kontakt	-8.86555
▁ca	-8.86718
”,	-8.8689
▁Vill	-8.8697
▁vidare	-8.87038
▁vem	-8.87213
▁verkar	-8.8739
tid	-8.87394
ant	-8.87552
▁utbildning	-8.87692
▁ljus	-8.8771
▁högre	-8.8784
ack	-8.87842
▁behandling	-8.88118
▁Därför	-8.88203
un	-8.88205
äng	-8.88237
▁någonsin	-8.88402
▁syn	-8.88407
▁ro	-8.88466
▁arbeta	-8.88475
▁La	-8.88597
▁användas	-8.88609
▁film	-8.88895
▁hemma	-8.88942
20	-8.89043
▁världens	-8.89065
▁svar	-8.89192
up	-8.89273
▁Sedan	-8.89517
▁Ha	-8.89527
van	-8.89681
▁fanns	-8.89729
ren	-8.89747
▁ganska	-8.89876
ber	-8.89985
▁vilja	-8.90543
▁16	-8.90623
▁%	-8.90701
isering	-8.90815
▁ansvar	-8.90831
▁skriva	-8.90976
▁enlighet	-8.91227
7	-8.91235
▁såsom	-8.91277
▁öka	-8.91283
▁bilder	-8.91305
▁Jesus	-8.91341
▁färg	-8.91504
▁tänka	-8.91822
Vi	-8.91838
▁ändra	-8.92063
▁punkt	-8.92135
▁Eller	-8.92156
ndet	-8.92214
▁bor	-8.92435
▁resa	-8.9262
▁sociala	-8.92634
",	-8.92794
▁ka	-8.92976
ät	-8.92991
▁kunskap	-8.93122
gar	-8.93172
▁kallas	-8.93307
▁11	-8.93553
erad	-8.93583
ho	-8.93666
aren	-8.93961
▁historia	-8.93994
▁alltså	-8.94206
io	-8.94599
tra	-8.94611
ca	-8.94631
▁stad	-8.94738
▁Låt	-8.94876
▁landet	-8.94946
▁Pro	-8.95102
tur	-8.95307
▁Sa	-8.95335
é	-8.95362
▁Ar	-8.95363
rna	-8.95377
nar	-8.95504
▁kräver	-8.95586
▁tur	-8.95589
▁dra	-8.95702
▁hälsa	-8.95805
▁skydda	-8.95893
mon	-8.96056
▁lägga	-8.96071
led	-8.96095
▁v	-8.96226
len	-8.96241
▁syfte	-8.96334
ron	-8.96438
▁värld	-8.96518
▁Lo	-8.96634
isera	-8.96671
▁spelar	-8.96793
ft	-8.96813
▁material	-8.96879
▁samman	-8.96905
▁utanför	-8.96913
▁heller	-8.96956
▁krävs	-8.97023
▁äta	-8.97237
▁ibland	-8.97586
▁tillräckligt	-8.97591
▁låg	-8.97866
▁marknaden	-8.97878
▁Genom	-8.97897
ru	-8.98073
▁50	-8.98209
▁sol	-8.98254
▁försöker	-8.98368
sion	-8.98457
ki	-8.98481
all	-8.98484
system	-8.98842
▁regler	-8.99243
vin	-8.99436
▁kör	-8.99439
form	-8.99492
▁förordning	-8.99495
je	-8.99574
ven	-8.99694
kom	-8.99706
▁kroppen	-8.99795
▁å	-8.99911
▁följa	-9.00111
▁ex	-9.0012
▁rättigheter	-9.00205
▁lever	-9.00408
dom	-9.005
▁video	-9.00612
eller	-9.00899
▁13	-9.00904
▁språk	-9.00918
ow	-9.01033
▁sagt	-9.01061
▁webbplats	-9.01125
▁Vem	-9.01239
▁hel	-9.0128
▁ändå	-9.01289
dag	-9.01399
▁17	-9.01526
▁bygga	-9.01528
▁samarbete	-9.01549
go	-9.01719
ran	-9.01757
▁jorden	-9.01759
▁ute	-9.01921
mer	-9.0213
▁säker	-9.02305
▁skada	-9.02423
▁leva	-9.02517
▁Dessutom	-9.02577
▁Ka	-9.0268
ala	-9.02726
▁pro	-9.02742
▁Na	-9.02897
▁bäst	-9.02995
▁skillnad	-9.03083
▁kraft	-9.03113
▁mamma	-9.03303
▁Si	-9.03338
håll	-9.03522
▁14	-9.03582
gel	-9.03673
▁fortsätta	-9.03708
▁d	-9.03765
heten	-9.0377
▁100	-9.03788
▁teknik	-9.03825
som	-9.0388
▁fri	-9.03903
▁områden	-9.04092
ok	-9.04121
▁extra	-9.04147
▁framför	-9.04158
▁ville	-9.04177
est	-9.04258
slag	-9.04473
▁konst	-9.04508
▁Kina	-9.04541
▁dela	-9.04567
▁affärs	-9.04624
ier	-9.04634
▁tala	-9.04684
▁kl	-9.04692
▁fortsätter	-9.04744
bar	-9.04768
▁sida	-9.04958
ator	-9.0501
▁Varj	-9.0523
åg	-9.05306
ång	-9.05309
▁skydd	-9.05333
▁ålder	-9.05358
▁ihåg	-9.0537
▁vägen	-9.05386
▁spelare	-9.0541
▁snart	-9.05475
9	-9.05687
▁funktion	-9.05932
▁rör	-9.05999
▁kultur	-9.06001
▁Ingen	-9.06231
▁värde	-9.06311
rö	-9.06325
ister	-9.06641
▁skriver	-9.06649
▁Från	-9.06742
▁besök	-9.06745
▁Vid	-9.06762
lin	-9.06871
▁grupp	-9.06898
▁vecka	-9.07017
▁Google	-9.07062
▁uppnå	-9.07141
▁slutet	-9.0723
ken	-9.07266
▁tänker	-9.07275
10	-9.07285
ön	-9.07378
▁25	-9.07539
med	-9.0766
kon	-9.07677
▁amerikanska	-9.07679
▁hantera	-9.07706
▁låt	-9.07797
▁te	-9.07854
▁Ca	-9.07883
▁klass	-9.08069
▁veckor	-9.08121
ett	-9.08135
lu	-9.08187
em	-9.08264
skydd	-9.08283
age	-9.08441
tag	-9.08481
▁hittar	-9.0849
yn	-9.0855
aste	-9.08586
▁Ne	-9.08651
▁säkerhet	-9.08687
▁for	-9.08715
sch	-9.08722
ba	-9.08737
att	-9.08748
mb	-9.0879
▁plan	-9.0881
▁säkerhets	-9.08889
▁halv	-9.08984
▁viktig	-9.09027
▁gratis	-9.09109
▁kommissionen	-9.09139
gång	-9.09171
▁Sk	-9.09177
▁el	-9.09364
▁viktiga	-9.09472
fa	-9.09617
stad	-9.09708
▁flyg	-9.09878
▁kommit	-9.09941
(	-9.10071
▁eget	-9.10227
▁erfarenhet	-9.10261
▁ja	-9.10414
företag	-9.10781
vå	-9.10863
och	-9.10965
po	-9.1109
▁utför	-9.11153
▁gammal	-9.11201
▁verktyg	-9.11478
▁tagit	-9.11482
no	-9.11754
com	-9.11814
▁Me	-9.11835
mat	-9.11942
▁vinna	-9.11946
ac	-9.12069
träd	-9.12081
mål	-9.12235
▁standard	-9.12405
▁al	-9.12591
▁hoppas	-9.12643
▁tio	-9.12744
tu	-9.12761
erat	-9.12766
▁Kom	-9.12877
▁Tack	-9.12908
▁kvinna	-9.13096
▁läkare	-9.13152
▁typer	-9.13408
mm	-9.13431
▁åren	-9.1353
▁års	-9.13556
▁Te	-9.13704
▁krav	-9.13839
▁vänta	-9.139
▁månad	-9.13918
▁bakom	-9.13931
▁råd	-9.14232
▁X	-9.14253
▁väljer	-9.14339
▁intresse	-9.14389
lighet	-9.14446
ung	-9.14522
▁titta	-9.14569
▁nå	-9.14611
▁hör	-9.14679
fi	-9.14842
ine	-9.14897
▁gav	-9.14926
▁framtiden	-9.14966
sam	-9.14972
▁ekonomiska	-9.15028
lev	-9.15036
▁användare	-9.153
▁tack	-9.15319
ug	-9.1535
ian	-9.15463
▁beroende	-9.15543
nad	-9.15599
▁behövs	-9.15632
▁leda	-9.15691
ock	-9.15733
sp	-9.16004
bara	-9.16367
ort	-9.16375
ny	-9.16432
▁egentligen	-9.16566
▁Europeiska	-9.1669
▁berätta	-9.1698
sättning	-9.16983
▁tillväxt	-9.17005
si	-9.17107
▁tillstånd	-9.17149
ko	-9.17157
▁nivå	-9.17161
▁li	-9.17215
▁ögon	-9.17277
ip	-9.1744
▁bank	-9.17796
▁fl	-9.17896
ium	-9.17916
stånd	-9.17918
▁området	-9.17943
▁döda	-9.17986
äll	-9.18016
tin	-9.18021
dy	-9.18076
0	-9.18139
▁kropp	-9.18159
▁lokal	-9.18173
lan	-9.18208
▁blod	-9.18223
▁istället	-9.1823
▁Mer	-9.18437
tik	-9.18471
▁Gu	-9.18498
▁innehåll	-9.18518
▁Lu	-9.18532
▁behöva	-9.187
▁säkert	-9.18768
fin	-9.18784
▁to	-9.18979
▁veckan	-9.18993
äg	-9.19011
▁Där	-9.19038
▁äldre	-9.1906
▁röst	-9.19093
satt	-9.19164
▁tryck	-9.19174
par	-9.19317
▁telefon	-9.19389
ans	-9.19664
▁»	-9.19696
▁perfekt	-9.19725
▁Tänk	-9.19785
▁sk	-9.20054
▁klimat	-9.20085
iskt	-9.20151
drag	-9.20165
▁No	-9.20169
▁Använd	-9.20279
ner	-9.2044
▁följer	-9.20556
▁tillgängliga	-9.20623
▁finnas	-9.20682
▁match	-9.20701
▁gått	-9.2079
▁kul	-9.20804
▁nationella	-9.20856
rum	-9.20964
▁utgör	-9.21098
▁skapar	-9.21208
tiska	-9.2128
▁läkemedel	-9.21303
Y	-9.21306
san	-9.21312
▁kontrollera	-9.21361
▁ru	-9.21461
▁goda	-9.21539
▁Z	-9.21545
▁Idag	-9.21568
▁rädda	-9.21601
▁förstår	-9.21844
▁favorit	-9.21865
ub	-9.21881
liv	-9.21934
▁krig	-9.21942
▁frågan	-9.21949
▁trots	-9.22168
▁test	-9.22247
▁pa	-9.22287
▁Över	-9.22434
▁miss	-9.22453
▁skicka	-9.22506
▁gott	-9.2251
▁marknads	-9.22656
▁platser	-9.22737
▁Di	-9.22748
▁natur	-9.2277
kort	-9.22785
▁närheten	-9.22802
lägg	-9.22988
▁vin	-9.22992
▁prata	-9.2306
▁Hu	-9.23078
▁låter	-9.23101
▁försäljning	-9.23371
post	-9.23464
▁kund	-9.23471
tiv	-9.23677
kan	-9.23693
▁sju	-9.23739
▁träd	-9.23806
väg	-9.23807
▁president	-9.2399
▁viss	-9.24004
▁böcker	-9.24111
▁säkerställa	-9.2423
cy	-9.24241
▁hotell	-9.24326
▁post	-9.24402
▁rad	-9.24455
red	-9.24615
▁personuppgifter	-9.24635
▁kring	-9.24888
stra	-9.24928
net	-9.24986
erar	-9.25105
J	-9.25154
▁Vilka	-9.25262
▁svenska	-9.25356
▁påverka	-9.25425
▁hy	-9.25433
▁samband	-9.25523
▁område	-9.25534
▁*	-9.25663
▁Vår	-9.25669
▁viktigaste	-9.25686
▁Din	-9.25726
▁känd	-9.25733
▁Nästa	-9.25743
▁konto	-9.25766
fe	-9.26155
▁igenom	-9.26217
▁Su	-9.26498
▁avtal	-9.26525
▁verk	-9.26852
▁hot	-9.26893
▁klart	-9.27169
EG	-9.27233
X	-9.27327
▁nätverk	-9.27413
▁förhållande	-9.2751
▁värd	-9.27693
rat	-9.27752
▁medlemmar	-9.27771
▁Vissa	-9.27845
▁40	-9.28045
▁erbjuda	-9.28063
▁patienter	-9.28076
▁kommunikation	-9.28136
▁företaget	-9.28189
▁cirka	-9.28249
▁lokala	-9.28274
▁w	-9.28387
▁Wi	-9.28497
▁vä	-9.28517
ey	-9.28543
tim	-9.28663
▁dator	-9.28702
▁ifrån	-9.28712
sätt	-9.28971
▁Upp	-9.29002
▁personal	-9.29011
▁exakt	-9.29066
▁bl	-9.29136
▁samhället	-9.29288
▁försöka	-9.2929
▁studie	-9.293
▁He	-9.2933
▁El	-9.29512
▁partner	-9.2954
▁kar	-9.29546
▁Ju	-9.29673
las	-9.29681
▁la	-9.29729
▁To	-9.2983
▁tag	-9.2994
▁makt	-9.30005
▁människa	-9.30026
dra	-9.30072
by	-9.30145
nden	-9.30235
▁maj	-9.30342
▁Kanske	-9.30399
▁sluta	-9.30521
▁Sp	-9.30528
ab	-9.30597
tri	-9.30632
▁påverkar	-9.30645
▁mag	-9.30695
▁identifiera	-9.30921
▁direktiv	-9.30948
▁Sen	-9.31038
▁liknande	-9.31048
▁möjligheter	-9.31143
▁politiska	-9.31248
▁Fa	-9.31258
sten	-9.31277
▁24	-9.31517
▁text	-9.31737
▁omkring	-9.31751
▁service	-9.31899
▁kände	-9.31941
▁bygg	-9.31952
▁känns	-9.32148
▁dö	-9.32167
▁Bu	-9.32231
▁villkor	-9.32278
fo	-9.32318
▁skäl	-9.32326
▁sjukdom	-9.32359
▁undvika	-9.325
▁grundläggande	-9.32559
▁högsta	-9.32666
ong	-9.32686
▁0	-9.32707
▁vanliga	-9.32728
stående	-9.32965
▁social	-9.33007
ep	-9.33023
lösa	-9.33071
▁leder	-9.33086
du	-9.33128
▁föräldrar	-9.33133
▁Ge	-9.3327
▁lek	-9.33302
▁ungefär	-9.33389
▁ske	-9.33466
▁orsaka	-9.33522
▁låta	-9.33567
ku	-9.33592
rop	-9.33613
▁hår	-9.33699
vet	-9.33701
▁uttryck	-9.33721
program	-9.33807
▁mänskliga	-9.33921
▁sättet	-9.33992
ret	-9.34105
▁internet	-9.34181
▁fungera	-9.34212
▁bi	-9.3435
ance	-9.34448
▁skolan	-9.34468
▁sådant	-9.34509
▁Go	-9.34724
ler	-9.3478
▁anti	-9.34813
▁fin	-9.34889
dan	-9.34919
▁medel	-9.34924
▁oavsett	-9.34927
▁Gör	-9.35062
▁gärna	-9.35069
sin	-9.35131
▁består	-9.35159
eri	-9.35184
bil	-9.35344
▁hjärta	-9.35641
!!	-9.35725
▁behandla	-9.35747
▁höra	-9.35756
▁mängd	-9.35797
▁$	-9.35861
▁Ho	-9.35863
ff	-9.35986
▁närvarande	-9.35995
tter	-9.36108
▁Y	-9.36109
▁Pi	-9.36127
▁Do	-9.36153
▁frukt	-9.36224
▁or	-9.36251
we	-9.36577
▁dollar	-9.36633
▁sätta	-9.36648
▁styr	-9.36656
▁Å	-9.36673
▁antalet	-9.36728
▁inne	-9.36823
▁sen	-9.36874
ER	-9.36908
▁sker	-9.37016
anska	-9.37034
ys	-9.37182
▁kommun	-9.37223
▁storlek	-9.37539
ity	-9.37547
▁ihop	-9.37587
▁anges	-9.37588
ate	-9.3759
▁brott	-9.37729
▁period	-9.37744
ting	-9.37801
▁2018	-9.37803
▁boken	-9.37869
▁unga	-9.37967
▁ö	-9.38
fr	-9.38005
bok	-9.38097
▁Kommer	-9.381
mor	-9.38138
wa	-9.38152
–	-9.38159
▁Car	-9.38221
▁Finland	-9.38234
▁son	-9.38374
rar	-9.38462
▁va	-9.38502
▁delen	-9.38507
▁ljud	-9.38532
▁privat	-9.38629
hu	-9.38646
eg	-9.38654
▁stället	-9.38702
▁blogg	-9.39066
per	-9.39286
▁söker	-9.39343
tjänster	-9.39405
▁funktioner	-9.39487
▁skrev	-9.39838
▁europeiska	-9.39851
▁Con	-9.3988
▁ej	-9.39934
▁förändringar	-9.40075
teknik	-9.40084
▁transport	-9.40097
▁bär	-9.40128
EN	-9.40178
▁speciellt	-9.40271
▁anställda	-9.40271
▁våld	-9.40283
▁framgång	-9.40314
▁ra	-9.4034
▁lyssna	-9.40381
▁Windows	-9.40432
▁nr	-9.4053
bud	-9.40543
▁vikt	-9.40628
50	-9.40942
met	-9.40967
ära	-9.41001
vä	-9.41026
▁bu	-9.41191
▁träning	-9.41313
▁fordon	-9.41329
▁ovan	-9.41428
▁Ska	-9.41578
▁spara	-9.41715
▁hälso	-9.41749
gör	-9.41776
▁lån	-9.41829
▁All	-9.41842
▁regeringen	-9.41881
ud	-9.42003
▁kung	-9.42009
▁2015	-9.42103
Ä	-9.42157
▁träffa	-9.4225
▁Hans	-9.42269
kl	-9.42334
▁bar	-9.42363
▁fort	-9.42403
stat	-9.42413
▁bas	-9.42479
▁nuvarande	-9.42584
▁höga	-9.42646
gan	-9.42671
▁Eftersom	-9.42724
▁Tro	-9.42833
▁York	-9.42844
▁liksom	-9.42855
▁dessutom	-9.42996
ologi	-9.43059
▁engelska	-9.43138
far	-9.43193
▁sälja	-9.43282
dig	-9.43308
▁världs	-9.43312
▁förhindra	-9.43456
▁alls	-9.43542
slut	-9.43552
▁natt	-9.43587
▁'	-9.4361
▁talar	-9.43669
gra	-9.43696
▁studier	-9.43953
▁Bra	-9.44006
tta	-9.4402
▁John	-9.44067
ard	-9.44157
▁gräns	-9.44258
lek	-9.44323
port	-9.4435
ligen	-9.44529
▁Finns	-9.44559
▁försök	-9.44647
▁Po	-9.44708
▁lista	-9.4477
▁ensam	-9.44781
▁främja	-9.44866
▁chef	-9.44889
lt	-9.44894
▁spelet	-9.45048
▁december	-9.45158
▁lösningar	-9.45196
istiska	-9.45274
skriv	-9.45277
▁Storbritannien	-9.45315
▁ingenting	-9.45362
▁stå	-9.45375
▁genomför	-9.45425
▁San	-9.45429
▁2016	-9.45429
30	-9.45598
▁fred	-9.45603
▁hund	-9.4562
▁mo	-9.45654
▁lugn	-9.45661
lö	-9.4572
▁barnen	-9.45811
uk	-9.45848
pro	-9.45855
lopp	-9.4587
▁2017	-9.45958
▁ledande	-9.45967
ika	-9.46007
▁Ri	-9.46027
kor	-9.46077
▁delta	-9.46106
▁organ	-9.46256
▁juni	-9.46358
▁Facebook	-9.46415
▁Kon	-9.46501
▁lägenhet	-9.46685
▁högt	-9.46788
▁ökar	-9.46818
elsen	-9.46918
▁sm	-9.4692
▁lösa	-9.47094
▁håll	-9.47156
ham	-9.47355
▁tra	-9.47363
▁21	-9.47479
på	-9.47494
▁redo	-9.47524
▁vård	-9.47615
▁universitet	-9.47632
ernas	-9.4766
▁studera	-9.47703
▁Park	-9.47787
▁säkra	-9.47827
▁Tyskland	-9.47849
▁euro	-9.47857
▁Barn	-9.47987
▁era	-9.48006
▁Ryssland	-9.48009
▁visade	-9.48053
▁avsluta	-9.48096
▁Stockholm	-9.4817
▁antingen	-9.48171
▁pre	-9.4822
?"	-9.48308
lor	-9.48352
produkter	-9.48462
▁l	-9.48513
▁Dr	-9.48641
▁by	-9.48689
▁Ö	-9.48749
ssystem	-9.48846
ble	-9.48851
▁leverera	-9.48851
vara	-9.48907
▁producera	-9.4897
▁lilla	-9.48983
▁mars	-9.49016
?”	-9.49029
▁flytta	-9.49033
▁Andra	-9.49054
▁någonting	-9.49073
▁ingår	-9.49105
▁fullt	-9.49122
▁samla	-9.49211
▁Da	-9.49238
▁förändring	-9.4927
▁beror	-9.49282
▁gr	-9.49292
▁karriär	-9.49366
tryck	-9.4939
▁Israel	-9.49407
ull	-9.49555
▁anledning	-9.49585
▁Th	-9.49626
hy	-9.49636
▁utföra	-9.49707
gå	-9.49743
det	-9.49858
▁dags	-9.49944
▁Vilken	-9.49956
let	-9.50012
▁sam	-9.50033
ställning	-9.50052
ban	-9.50053
▁visste	-9.50054
▁absolut	-9.50119
klar	-9.50126
stor	-9.50156
▁London	-9.50284
▁köp	-9.50323
▁stat	-9.50352
▁Sam	-9.5043
▁mor	-9.50559
▁klar	-9.50609
▁sl	-9.50642
▁glad	-9.5067
▁bio	-9.50745
handel	-9.50787
▁snabb	-9.50824
lös	-9.509
▁60	-9.50901
▁globala	-9.5095
konto	-9.50966
▁Pri	-9.51003
▁vackra	-9.51086
▁tecken	-9.51116
tru	-9.5114
▁Ko	-9.51221
▁januari	-9.51275
▁stark	-9.51325
ls	-9.51336
▁förra	-9.5137
▁katt	-9.51381
▁TV	-9.51419
ct	-9.51419
tiden	-9.51543
▁analys	-9.51558
berg	-9.51586
▁bevis	-9.51673
▁Herren	-9.51825
▁anser	-9.51858
lj	-9.51961
▁utvecklingen	-9.51973
▁tekniska	-9.52002
▁fokus	-9.52012
▁luft	-9.52117
hus	-9.52143
▁inre	-9.52227
ina	-9.52291
▁Ti	-9.52292
▁betydelse	-9.52414
ap	-9.52466
iva	-9.52473
delning	-9.52506
▁förslag	-9.52533
ies	-9.5262
▁visas	-9.52712
▁Tre	-9.52714
▁september	-9.5278
▁Internet	-9.52787
▁systemet	-9.52822
ppa	-9.52848
ationer	-9.52932
går	-9.53004
▁personliga	-9.53068
andet	-9.53074
▁dokument	-9.5308
nade	-9.53094
▁ber	-9.53095
▁placera	-9.53119
öj	-9.53141
▁familjen	-9.5322
▁anses	-9.53296
▁Ny	-9.53356
eras	-9.53434
▁me	-9.53455
▁personlig	-9.53647
gu	-9.53729
▁sjuk	-9.53831
▁installera	-9.53855
▁arbetet	-9.53963
▁regering	-9.53981
▁tjäna	-9.54001
▁Fi	-9.54126
▁medlemsstaterna	-9.54126
äst	-9.54137
▁uppdrag	-9.5418
unt	-9.54244
▁2014	-9.54326
dda	-9.54376
sats	-9.54386
▁Våra	-9.54387
▁tjänst	-9.54398
▁modern	-9.5441
▁tillhör	-9.54487
▁gud	-9.54495
▁älska	-9.5451
▁kolla	-9.54631
▁Europaparlament	-9.54633
gre	-9.54652
▁barnet	-9.54665
▁framtid	-9.54704
▁ung	-9.54793
les	-9.548
che	-9.54808
ök	-9.54817
▁tillgänglig	-9.54821
▁utmärkt	-9.54937
systemet	-9.5495
▁värme	-9.54979
­	-9.55167
▁brist	-9.55238
and	-9.5528
▁stress	-9.553
fil	-9.5532
▁fördel	-9.55451
▁tri	-9.55465
▁lägre	-9.55513
▁jobba	-9.55526
▁kol	-9.55693
▁utnyttja	-9.55713
▁uppgift	-9.55768
▁främst	-9.55816
▁sidor	-9.55883
▁berättar	-9.55915
han	-9.55945
▁mening	-9.55947
▁gen	-9.56
▁Bi	-9.56024
▁gemensamma	-9.56053
ley	-9.56073
▁karaktär	-9.56118
▁fatta	-9.56138
bild	-9.56217
▁ladda	-9.56219
▁namnet	-9.56239
▁avses	-9.56331
▁själ	-9.56428
▁inlägg	-9.56455
▁enheter	-9.56533
▁ställa	-9.56548
▁Några	-9.56559
▁menar	-9.56673
off	-9.56692
▁stil	-9.56727
▁Ex	-9.56838
▁organisation	-9.56847
▁avseende	-9.56909
▁njuta	-9.56965
▁#	-9.57018
tjänst	-9.57065
▁läge	-9.57105
cu	-9.57115
▁berg	-9.57176
▁studenter	-9.57184
▁Er	-9.57219
ins	-9.57247
äv	-9.57248
komst	-9.57256
▁förändra	-9.57326
▁Ga	-9.57349
▁kväll	-9.57395
▁Par	-9.57458
brott	-9.57555
eringen	-9.5761
sel	-9.5767
dagen	-9.57715
metod	-9.57793
▁mark	-9.57816
he	-9.57931
▁medicin	-9.57945
▁—	-9.5796
kel	-9.57998
▁vanligt	-9.58039
▁lösning	-9.58104
▁uppdatera	-9.58145
▁tankar	-9.58158
ang	-9.58213
▁förmåga	-9.58238
wi	-9.58242
▁publicera	-9.58266
▁cancer	-9.58398
▁Ru	-9.58405
▁Or	-9.585
▁kontakta	-9.58588
▁huset	-9.5861
▁blå	-9.58615
▁politik	-9.58626
▁led	-9.58636
lat	-9.5866
▁bit	-9.58671
ismen	-9.58719
▁genomföra	-9.58743
▁webbplatsen	-9.5879
▁miljarder	-9.58854
▁chans	-9.58951
ps	-9.58968
gård	-9.58988
nner	-9.58991
▁team	-9.59013
▁medlem	-9.59016
▁känslor	-9.59031
▁korrekt	-9.59037
▁trodde	-9.59047
br	-9.59068
▁önskar	-9.59093
▁öppen	-9.59217
▁David	-9.59224
▁rik	-9.59371
▁Mu	-9.59383
▁tas	-9.59385
fri	-9.59414
▁tillhandahålla	-9.59437
▁dans	-9.59473
▁Bara	-9.59527
yl	-9.59571
▁lämnar	-9.59585
▁vanligtvis	-9.59599
+	-9.59688
▁kända	-9.59693
▁app	-9.59799
▁nödvändigt	-9.5992
▁vare	-9.59946
▁frihet	-9.59977
▁organisationer	-9.60001
▁forskare	-9.60004
▁process	-9.6012
▁företags	-9.60122
▁start	-9.60158
låt	-9.60194
▁mobil	-9.60204
11	-9.60212
▁minne	-9.60291
▁Hoppas	-9.60301
▁registrera	-9.60321
▁kapital	-9.60357
▁my	-9.60386
▁kor	-9.60452
tioner	-9.60455
▁kallade	-9.60541
▁Ibland	-9.60543
följ	-9.60561
▁lik	-9.60659
▁2013	-9.60683
▁gift	-9.60709
ive	-9.60729
▁University	-9.60847
▁lägger	-9.60856
▁ledare	-9.60894
▁forsknings	-9.60898
▁effektivt	-9.60978
▁havet	-9.61004
▁annorlunda	-9.6103
▁metod	-9.61105
▁enkel	-9.61117
▁anpassa	-9.61127
▁jul	-9.61151
lys	-9.61228
bel	-9.61235
▁skriv	-9.61244
▁Hel	-9.61268
▁fil	-9.61277
▁kontor	-9.61327
▁dröm	-9.61348
▁poäng	-9.61359
▁trädgård	-9.61407
▁sv	-9.61454
▁Två	-9.61474
▁on	-9.61584
▁Hotell	-9.61586
▁Ad	-9.61674
▁For	-9.6169
▁casino	-9.61696
▁offentliga	-9.61709
▁filmen	-9.61743
▁Tra	-9.61768
▁bilden	-9.61827
▁parti	-9.61835
utveckling	-9.61894
»	-9.61899
nes	-9.61943
▁oktober	-9.61949
▁spännande	-9.61962
▁äter	-9.61964
▁År	-9.62005
▁beteende	-9.62031
▁hållbar	-9.6204
▁budget	-9.62066
▁djup	-9.62111
▁åka	-9.6214
gon	-9.62202
ker	-9.62238
▁lärare	-9.62264
▁fa	-9.62265
▁rädd	-9.62326
▁lov	-9.62388
▁kredit	-9.62434
▁testa	-9.62561
▁bad	-9.62568
19	-9.62635
▁förlora	-9.62635
ings	-9.62678
råd	-9.62833
ifrån	-9.62846
▁bidra	-9.62866
ark	-9.62892
erande	-9.63039
▁FN	-9.63092
fu	-9.6314
▁Frankrike	-9.63251
tes	-9.63297
sikt	-9.63333
my	-9.63342
rad	-9.634
▁ren	-9.63418
fl	-9.63433
▁ton	-9.63435
▁därmed	-9.63442
▁metoder	-9.63449
▁bygger	-9.63511
▁Fr	-9.63549
▁prov	-9.63565
▁Nya	-9.63621
▁besöka	-9.63702
▁morgon	-9.6375
ris	-9.63753
lik	-9.63906
ox	-9.63954
▁AB	-9.63995
▁Del	-9.64176
▁pappa	-9.64204
ari	-9.64214
rå	-9.64277
gräns	-9.64356
▁fantastiska	-9.64371
▁visat	-9.64373
15	-9.64409
▁tal	-9.6443
elser	-9.64448
▁Trots	-9.64506
▁jord	-9.64507
▁part	-9.64508
▁Nord	-9.64549
ms	-9.64569
▁livs	-9.64639
▁undantag	-9.64654
▁2010	-9.64801
▁effekt	-9.64836
▁strid	-9.64878
▁inkluderar	-9.64918
▁Ki	-9.64931
▁marknadsföring	-9.6505
▁tidigt	-9.65074
lle	-9.65125
▁oberoende	-9.65156
og	-9.65492
teckning	-9.65518
▁handla	-9.65537
▁slag	-9.65539
▁heter	-9.65654
▁finansiella	-9.65667
▁populära	-9.65684
▁km	-9.65689
▁Håll	-9.65713
ssa	-9.65768
▁smärta	-9.65793
▁levande	-9.65868
▁ben	-9.65894
handla	-9.65926
▁förlust	-9.65958
▁22	-9.66009
▁aktiviteter	-9.66029
ym	-9.66101
ografi	-9.66221
lit	-9.6624
▁ga	-9.66391
ay	-9.665
ats	-9.66508
▁ho	-9.66542
klass	-9.66548
ske	-9.6656
problem	-9.6666
▁underhåll	-9.66712
ror	-9.66786
▁:	-9.66911
▁bry	-9.66952
▁sport	-9.66979
▁omfattande	-9.67008
▁kyrkan	-9.67122
här	-9.67185
män	-9.67233
▁lycklig	-9.67259
▁häng	-9.67263
▁pe	-9.67333
▁smak	-9.67354
▁synd	-9.67365
göra	-9.67371
▁y	-9.67375
AR	-9.67381
ice	-9.67496
▁glas	-9.67502
▁So	-9.67515
▁diskutera	-9.67649
▁no	-9.67694
▁snabbare	-9.67823
au	-9.67854
▁stund	-9.6789
▁internationell	-9.67922
▁lagstiftning	-9.67923
▁meter	-9.68032
▁Enlig	-9.68036
▁nedan	-9.68142
snitt	-9.68148
if	-9.68167
▁tips	-9.68197
▁skuld	-9.68224
▁ma	-9.68239
sson	-9.68289
▁spår	-9.68295
▁Apple	-9.68295
▁relation	-9.68398
▁he	-9.68436
▁jobbet	-9.68541
▁personen	-9.68563
▁höll	-9.68654
▁af	-9.68712
syn	-9.68746
▁medlemsstat	-9.68777
▁webbplatser	-9.68783
skott	-9.68812
▁enhet	-9.6882
▁innovation	-9.68829
▁känsla	-9.68971
▁co	-9.68987
▁Sc	-9.68994
▁länk	-9.69043
▁webb	-9.69124
▁kläder	-9.69154
▁följd	-9.6921
vit	-9.69244
▁egenskaper	-9.69275
▁enbart	-9.69277
▁Vä	-9.69309
▁le	-9.6936
örer	-9.69396
ledning	-9.69432
bri	-9.69435
12	-9.69475
▁risker	-9.69614
▁använt	-9.6964
▁kombination	-9.69691
▁inspirera	-9.69823
▁samhälle	-9.6984
▁tanke	-9.69869
▁sinne	-9.69962
läge	-9.69984
▁söka	-9.70012
▁spendera	-9.70024
▁reda	-9.70058
▁Chi	-9.70065
vid	-9.70073
▁modell	-9.70105
▁Kr	-9.70189
ou	-9.70231
▁medier	-9.70275
▁ras	-9.70347
rör	-9.70376
▁trafik	-9.70384
our	-9.70393
ras	-9.70401
sidan	-9.70463
värd	-9.70479
kr	-9.70481
så	-9.7062
▁vuxna	-9.70625
▁mil	-9.70634
▁hemsida	-9.70648
▁2012	-9.70787
ationen	-9.7079
▁ämnen	-9.70879
int	-9.70953
000	-9.7099
▁brukar	-9.71026
▁åtminstone	-9.71029
▁jämfört	-9.71134
▁trans	-9.71147
ix	-9.71149
▁svara	-9.71182
▁alkohol	-9.71231
▁stanna	-9.7124
▁digital	-9.71248
▁ty	-9.7127
minister	-9.71307
▁kommande	-9.71327
▁omedelbart	-9.71392
▁vetenskap	-9.71427
▁Bar	-9.71431
▁verkliga	-9.71444
▁folket	-9.71537
▁:)	-9.71582
▁hä	-9.71618
▁produkten	-9.71623
▁nyligen	-9.71701
▁särskilda	-9.71793
ec	-9.71911
▁köra	-9.71918
▁My	-9.72023
nor	-9.72027
▁Fler	-9.72042
▁religion	-9.72045
▁lagen	-9.72046
▁enkla	-9.7207
▁fas	-9.72177
▁moderna	-9.72238
▁långa	-9.72278
▁hud	-9.72292
▁planet	-9.72301
▁di	-9.72378
kän	-9.72416
▁Just	-9.72512
▁hjärtat	-9.72514
▁framtida	-9.72516
hör	-9.72556
▁föremål	-9.72717
ades	-9.72728
▁ekonomi	-9.72735
▁ledning	-9.72768
bet	-9.72782
▁mån	-9.7285
▁nämligen	-9.72866
▁natten	-9.72953
▁stödja	-9.72965
▁svart	-9.72976
▁växa	-9.72996
▁växer	-9.73075
▁fira	-9.73127
istisk	-9.7317
▁köper	-9.73186
▁förklara	-9.73219
▁ne	-9.73244
lad	-9.73301
byrå	-9.73354
▁programmet	-9.73382
gående	-9.7339
▁effektiv	-9.7343
▁2011	-9.73514
kontroll	-9.73577
▁hamn	-9.73584
▁tydlig	-9.73591
▁starta	-9.73677
▁Ser	-9.73679
▁allmänna	-9.73681
▁övriga	-9.73693
▁guld	-9.7377
stan	-9.73771
▁skapat	-9.73778
▁acceptera	-9.73822
tisk	-9.73897
▁kaffe	-9.73903
visa	-9.73906
▁känt	-9.7391
▁ständigt	-9.74013
rän	-9.74041
▁handels	-9.74061
hand	-9.74063
▁hämta	-9.7411
▁utrymme	-9.74113
for	-9.74122
▁po	-9.7415
▁ly	-9.74201
▁strategi	-9.74206
nu	-9.74219
eln	-9.74327
▁hopp	-9.74458
kning	-9.74504
▁>	-9.74511
publ	-9.74599
▁hände	-9.74724
▁bilen	-9.74733
▁grupper	-9.74886
▁kallar	-9.75039
▁We	-9.75093
▁borta	-9.75114
▁april	-9.75157
▁november	-9.75157
▁användar	-9.75224
▁Mat	-9.75234
▁möjliga	-9.75264
ah	-9.75371
▁sitter	-9.75389
▁dit	-9.75418
▁tv	-9.75466
▁utvecklas	-9.75507
ight	-9.75535
▁befinn	-9.75588
▁nummer	-9.75613
över	-9.75617
▁sten	-9.75622
▁hört	-9.75738
▁rörelse	-9.7581
▁Dag	-9.75811
▁idéer	-9.75828
▁plattform	-9.75836
pris	-9.7584
▁fot	-9.76002
▁semester	-9.76004
▁juli	-9.76038
ast	-9.7611
▁resten	-9.76116
▁dotter	-9.76173
▁utrustning	-9.76176
▁serie	-9.76181
▁beräkna	-9.76233
▁staten	-9.7624
▁fallet	-9.76249
▁tänkte	-9.7626
▁Gra	-9.76267
▁myndigheter	-9.76279
▁satt	-9.76286
▁Mi	-9.76296
▁intressant	-9.76362
▁starkt	-9.76396
▁dr	-9.76455
▁läs	-9.76581
▁Först	-9.76624
namn	-9.76638
▁maskin	-9.76724
bra	-9.76753
vel	-9.76853
▁resurser	-9.76879
▁ring	-9.76963
▁stör	-9.77097
▁gett	-9.77168
▁grad	-9.77181
ost	-9.77208
kla	-9.77218
▁Pa	-9.77233
▁Första	-9.7724
200	-9.77267
▁Ke	-9.7732
▁Ty	-9.77451
part	-9.77512
▁förståelse	-9.77549
Q	-9.77574
fyll	-9.77585
▁kön	-9.77595
En	-9.77597
40	-9.77607
za	-9.77625
EU	-9.77626
▁leverans	-9.77683
fråga	-9.77709
▁omfattar	-9.77747
ellt	-9.77757
▁centrum	-9.77758
band	-9.7776
delar	-9.7779
▁utom	-9.77796
▁begränsa	-9.77837
De	-9.77904
▁vapen	-9.77937
▁uppleva	-9.7794
▁rekommenderar	-9.77943
▁definiera	-9.78042
▁lättare	-9.78051
▁framåt	-9.78066
▁färdig	-9.78148
▁van	-9.78172
▁as	-9.78265
▁bilar	-9.78276
▁byggnad	-9.78355
▁aktiv	-9.78427
cent	-9.78443
lade	-9.78637
säkerhet	-9.78654
▁händelse	-9.78659
mmer	-9.78731
▁frågade	-9.78743
IS	-9.78782
[	-9.78786
vig	-9.78796
▁90	-9.788
▁hända	-9.78819
▁topp	-9.78819
▁massa	-9.78888
roll	-9.78943
▁kurs	-9.78997
▁historien	-9.79162
▁handel	-9.79182
▁dagens	-9.7919
stod	-9.7925
▁Trump	-9.79255
▁specifika	-9.79274
ther	-9.79325
rade	-9.79334
iserade	-9.79335
▁börjat	-9.7934
▁passar	-9.79373
▁Samtidigt	-9.79464
▁vidta	-9.79469
ski	-9.79489
▁samtal	-9.79547
▁super	-9.79587
▁båt	-9.7959
▁hittade	-9.79593
läng	-9.79645
▁sömn	-9.79684
▁uppmuntra	-9.79684
▁naturliga	-9.79701
▁slå	-9.7975
vård	-9.7977
▁tydligt	-9.79835
▁upplevelse	-9.79888
▁betydande	-9.79918
▁litet	-9.79941
ax	-9.79977
▁skapade	-9.80007
▁Microsoft	-9.80126
▁2019	-9.80154
▁70	-9.80189
▁kost	-9.8019
rakt	-9.80199
▁Nor	-9.80235
▁planera	-9.80309
▁Val	-9.8032
behandling	-9.80329
▁varumärke	-9.80335
▁Nej	-9.80384
one	-9.80439
▁kompetens	-9.80466
▁projektet	-9.80526
risk	-9.8057
punkt	-9.80592
före	-9.80615
▁risken	-9.80624
way	-9.80628
ES	-9.80664
▁läser	-9.80669
▁fokusera	-9.80671
▁närmare	-9.80676
▁snö	-9.807
▁stod	-9.80727
18	-9.80736
▁publik	-9.80793
▁klicka	-9.80801
▁23	-9.8085
lic	-9.80853
▁glädje	-9.80856
▁special	-9.80977
▁oftast	-9.8099
▁mannen	-9.81024
▁Per	-9.81042
lock	-9.81054
▁stoppa	-9.81137
▁Samma	-9.81177
▁Välj	-9.81305
avtal	-9.81358
öl	-9.81453
ph	-9.8147
rig	-9.81472
▁löp	-9.81473
▁äger	-9.81476
medel	-9.81486
▁fru	-9.8153
▁Svar	-9.81558
▁klara	-9.81569
▁500	-9.8159
▁industri	-9.8162
vikt	-9.8162
ons	-9.81672
▁problemet	-9.81688
af	-9.81727
▁timme	-9.81756
▁art	-9.81763
▁straff	-9.8179
▁sanningen	-9.81834
▁lycka	-9.81851
information	-9.81852
▁hänsyn	-9.81914
zon	-9.8192
För	-9.82032
▁aktivitet	-9.82096
app	-9.82114
▁starka	-9.82127
▁möta	-9.8214
▁80	-9.82166
▁unika	-9.82216
▁Qu	-9.82273
▁tillägg	-9.82289
▁struktur	-9.82298
▁priset	-9.82322
▁behålla	-9.8239
▁Skull	-9.82401
▁Fram	-9.82442
kraft	-9.82459
▁familje	-9.82462
▁avgörande	-9.82479
grupp	-9.82502
ram	-9.82551
▁koppla	-9.82591
▁hindra	-9.82597
vers	-9.82607
▁Am	-9.82728
▁upptäcka	-9.82792
▁Någon	-9.82805
▁tävling	-9.82831
▁2008	-9.82845
▁princip	-9.82936
▁exempelvis	-9.82938
aktig	-9.82981
ros	-9.82981
▁ökad	-9.83011
▁städer	-9.83087
▁sommar	-9.83132
▁trä	-9.83175
▁kap	-9.83192
rick	-9.83197
▁ad	-9.83245
▁Hög	-9.8328
▁ges	-9.83293
▁Japan	-9.83307
▁Mac	-9.83309
▁vänster	-9.8334
▁Lär	-9.83372
▁vinst	-9.83478
bor	-9.83513
▁ställe	-9.83525
isten	-9.83613
▁Paris	-9.83614
por	-9.83619
▁väntar	-9.83637
▁Mitt	-9.83639
tyg	-9.8367
▁Com	-9.83708
▁fett	-9.83722
▁välkomna	-9.83735
▁bonus	-9.83735
▁kalla	-9.83779
typ	-9.83882
▁bidrar	-9.8389
▁Före	-9.83907
▁fantastisk	-9.83922
område	-9.8394
▁200	-9.84
▁varor	-9.84078
▁effektiva	-9.84132
▁meddelande	-9.84136
▁tillämpa	-9.8417
▁uppmärksamhet	-9.84229
ov	-9.84234
▁resultatet	-9.84259
bygg	-9.84369
▁kristna	-9.84428
▁Dom	-9.84481
▁bedömning	-9.84486
▁händelser	-9.84512
▁regn	-9.84553
ET	-9.84626
▁dog	-9.84672
▁dåligt	-9.84674
▁Pol	-9.84701
▁produktion	-9.8475
material	-9.84793
▁fr	-9.84822
▁eventuella	-9.84865
▁dos	-9.84924
▁lagar	-9.84939
▁undersökning	-9.8503
▁ursprung	-9.85067
▁Tim	-9.85109
▁bakgrund	-9.85125
▁ögonblick	-9.85126
▁naturligtvis	-9.85138
▁ordet	-9.85164
▁privata	-9.85172
bart	-9.85304
▁trött	-9.85355
stå	-9.85406
17	-9.85413
14	-9.85429
▁tom	-9.8546
bas	-9.85493
▁intressen	-9.85532
▁pension	-9.8554
eringar	-9.85596
▁saknar	-9.85601
▁27	-9.85625
programmet	-9.85628
området	-9.85634
▁skatte	-9.85648
torn	-9.85702
▁nytta	-9.85773
▁källa	-9.85809
ägare	-9.85817
▁såväl	-9.85836
station	-9.85876
▁svarade	-9.85885
produktion	-9.85986
▁Hi	-9.86012
▁anmäl	-9.86072
▁ram	-9.8614
▁medborgare	-9.8626
▁digitala	-9.86275
▁pratar	-9.8628
▁faktum	-9.86292
▁uppfylla	-9.86303
▁2009	-9.86316
▁lön	-9.86317
▁Fast	-9.86351
lån	-9.86431
lösning	-9.86482
▁behövde	-9.86528
▁förmodligen	-9.86528
▁dricka	-9.86529
dia	-9.86547
samt	-9.86625
▁utsikt	-9.86714
▁militär	-9.86785
▁nöjd	-9.86837
▁intervju	-9.86854
▁gas	-9.86937
▁naturen	-9.86946
▁bevara	-9.86961
▁mät	-9.86966
▁Mor	-9.87048
sky	-9.87104
iker	-9.87107
▁rygg	-9.87136
▁fjärde	-9.87239
baserade	-9.87243
▁sång	-9.873
▁idé	-9.87367
The	-9.87409
▁sjukdomar	-9.87476
▁motor	-9.87482
▁tillåter	-9.87496
▁tvinga	-9.87508
tagande	-9.87541
▁häst	-9.87566
industrin	-9.8758
▁tjänste	-9.87601
▁datum	-9.87636
▁inkomst	-9.87702
▁tids	-9.87708
▁28	-9.87779
▁drift	-9.87799
ningarna	-9.87845
ual	-9.87864
▁fortsatt	-9.87872
▁tittar	-9.87928
▁ansikte	-9.87947
väl	-9.87963
▁Bro	-9.88058
▁vattnet	-9.88092
▁processen	-9.88106
▁scen	-9.88107
enhet	-9.88205
▁situation	-9.88216
▁kasta	-9.88251
skrift	-9.88253
möte	-9.88271
tänk	-9.88328
ya	-9.88453
▁fastställa	-9.88462
▁ordning	-9.88504
▁nödvändiga	-9.88521
▁rekommendera	-9.88525
ob	-9.88538
▁bak	-9.88652
▁International	-9.88676
▁historiska	-9.88681
▁läst	-9.88684
▁ursprungliga	-9.88727
▁författare	-9.88749
▁samtliga	-9.8876
fon	-9.88804
aktion	-9.88858
▁fisk	-9.8893
ledare	-9.88992
bolag	-9.88999
▁batteri	-9.89049
pan	-9.89077
▁utforska	-9.8909
▁bön	-9.89097
film	-9.8911
▁Tid	-9.89117
▁prova	-9.89125
▁temperatur	-9.89137
▁lansera	-9.89187
▁Fo	-9.89247
ite	-9.8929
▁fördelar	-9.89291
▁märke	-9.89324
▁Va	-9.89342
▁fina	-9.89369
▁(1	-9.89373
▁äventyr	-9.89408
uc	-9.89409
▁roligt	-9.8942
▁utöva	-9.89448
▁symbol	-9.89528
▁mod	-9.89564
data	-9.8962
▁Vilket	-9.89646
▁trevlig	-9.89657
ater	-9.89682
bin	-9.89772
▁nationell	-9.89816
▁bolag	-9.89824
▁relationer	-9.89838
▁Sol	-9.8996
▁möte	-9.89998
▁priser	-9.90007
projekt	-9.90016
▁tillverka	-9.90036
▁Fl	-9.90038
▁ön	-9.90104
▁ordförande	-9.9011
▁global	-9.90131
dro	-9.90182
▁ersätta	-9.90183
▁brev	-9.90221
▁rätta	-9.90236
▁Fråga	-9.90263
▁tillverkning	-9.90275
resa	-9.90298
lim	-9.90311
▁objekt	-9.90314
▁besökare	-9.90343
▁totala	-9.90378
con	-9.90445
▁tåg	-9.90472
pri	-9.90475
▁skjut	-9.90481
▁misstag	-9.90522
löst	-9.90545
▁eld	-9.90549
▁sätter	-9.90569
▁solen	-9.90574
▁Q	-9.90635
cha	-9.90667
▁investeringar	-9.90694
kä	-9.90727
▁Hem	-9.90771
▁linje	-9.90781
▁Cha	-9.90807
▁fysiska	-9.90815
skt	-9.90836
▁amerikansk	-9.9093
▁instrument	-9.90965
▁allra	-9.91043
värde	-9.91062
▁press	-9.91253
▁Vet	-9.91295
!”	-9.91323
▁dålig	-9.91338
▁jätte	-9.91365
▁väst	-9.91373
▁sträck	-9.91383
vo	-9.91454
▁Pre	-9.91462
▁automatiskt	-9.91465
▁Fri	-9.91495
▁normalt	-9.91499
språk	-9.91511
line	-9.91574
▁su	-9.91586
oni	-9.91603
hem	-9.91652
▁baserat	-9.91674
▁lyckas	-9.91705
▁behöriga	-9.91776
gruppen	-9.9181
hantering	-9.9182
▁version	-9.91821
▁människan	-9.91955
▁åtta	-9.91969
▁valt	-9.91986
▁Rom	-9.91997
▁förstås	-9.92015
ica	-9.92023
▁älskade	-9.92027
▁enskilda	-9.92031
plats	-9.92033
▁perspektiv	-9.92035
▁(19	-9.92075
▁uttalande	-9.92106
▁Mycket	-9.92112
▁multi	-9.92112
▁dubbel	-9.92113
▁mörk	-9.92288
vetenskap	-9.92313
▁handlingar	-9.92353
▁massor	-9.92353
▁februari	-9.92362
▁fängelse	-9.92362
▁mikro	-9.92363
▁hälften	-9.92364
▁hänt	-9.92369
▁nivåer	-9.92432
▁kunnat	-9.92447
▁+	-9.92458
▁träna	-9.92467
▁dis	-9.92531
mä	-9.92587
ial	-9.92593
▁informera	-9.92642
▁anta	-9.92726
givare	-9.92762
ött	-9.92787
byggnad	-9.92828
▁generation	-9.92954
ller	-9.93032
▁ändamål	-9.93122
▁Stor	-9.93148
▁=	-9.93182
oo	-9.93183
▁organisera	-9.93196
▁konvention	-9.93204
verksamhet	-9.93226
!"	-9.93279
▁ägg	-9.93293
fer	-9.93329
▁Oavsett	-9.93368
▁presentera	-9.93377
iz	-9.93486
▁utmaningar	-9.93514
▁hårt	-9.93551
▁ägare	-9.9363
kol	-9.93636
heter	-9.93653
arbete	-9.9372
kurs	-9.93728
zz	-9.93766
när	-9.93777
▁tjej	-9.93797
▁drog	-9.93818
räkning	-9.93824
▁bolaget	-9.93868
▁Förutom	-9.93876
▁överallt	-9.93879
▁kunden	-9.93934
▁värt	-9.93961
ach	-9.94015
▁domstol	-9.94034
▁World	-9.9413
▁tema	-9.94162
▁bidrag	-9.9418
▁förvänta	-9.94213
▁miljön	-9.94265
▁Vårt	-9.94295
▁född	-9.94305
ding	-9.94309
▁faktorer	-9.94317
▁Ord	-9.94353
▁lös	-9.94382
mod	-9.94395
cc	-9.94412
▁möjligheten	-9.94435
mark	-9.94478
nivå	-9.94538
25	-9.9454
▁sjö	-9.94625
of	-9.94629
rapport	-9.94629
▁äktenskap	-9.94641
▁nätet	-9.94664
▁kött	-9.94668
▁separat	-9.94756
▁handling	-9.94795
▁ekonomisk	-9.94813
▁vita	-9.94846
▁öppet	-9.94897
▁engagera	-9.94898
don	-9.94923
▁Wa	-9.95063
pol	-9.95106
gift	-9.95162
▁sköt	-9.95257
▁server	-9.95288
▁obe	-9.95356
▁regelbundet	-9.95412
▁Medan	-9.95429
▁försäkring	-9.95527
▁styrka	-9.95616
vänd	-9.9563
▁finansiering	-9.95636
▁syfta	-9.95678
▁allmänhet	-9.95702
▁sant	-9.95708
oli	-9.95811
stig	-9.95818
▁ström	-9.95851
grupper	-9.95912
In	-9.95936
70	-9.95955
▁bekräfta	-9.95958
▁term	-9.95971
▁livsmedel	-9.96039
▁National	-9.96055
▁skär	-9.96184
▁Italien	-9.96189
▁klä	-9.96202
▁växt	-9.96255
▁polis	-9.96359
▁Verk	-9.96423
▁jobbar	-9.96447
▁Ph	-9.96544
pass	-9.96573
▁stats	-9.96617
▁bränsle	-9.96626
▁minskar	-9.96684
▁pass	-9.96693
▁bära	-9.96726
▁garantera	-9.96739
▁målet	-9.96746
▁Son	-9.96781
▁avstånd	-9.96816
▁position	-9.96868
▁26	-9.96907
▁stolt	-9.96918
▁bestämma	-9.96972
▁reklam	-9.96973
lid	-9.97061
ction	-9.97138
▁kvällen	-9.97168
▁Air	-9.97244
▁säsong	-9.9726
▁söt	-9.9727
▁Gå	-9.97287
▁vacker	-9.97322
▁Utan	-9.97356
skatt	-9.97379
▁Följ	-9.97413
miljö	-9.97477
▁köpte	-9.97524
▁grön	-9.97588
▁byta	-9.9763
▁kostnader	-9.97666
larna	-9.97682
Den	-9.97686
marknaden	-9.97694
▁Tur	-9.97731
▁do	-9.97855
▁agera	-9.97869
▁papper	-9.97939
▁ko	-9.97946
▁hit	-9.98026
▁Spanien	-9.98026
▁åtgärd	-9.98048
▁Far	-9.98048
▁finans	-9.98105
▁rapport	-9.98257
▁[...]	-9.98292
▁Center	-9.98298
▁central	-9.98306
▁omständigheter	-9.98347
lon	-9.98361
▁rikta	-9.98436
ence	-9.9844
▁fånga	-9.98478
tel	-9.98518
OS	-9.98524
*	-9.98532
▁Bli	-9.98561
▁Her	-9.98571
▁avslöja	-9.98597
▁svensk	-9.98634
▁teori	-9.98794
▁Star	-9.98814
▁drag	-9.98833
▁Sha	-9.98833
▁Mon	-9.98848
▁berörda	-9.98877
lam	-9.9888
▁ersättning	-9.98906
▁snarare	-9.99092
ult	-9.99124
▁unionen	-9.99134
världen	-9.99239
▁tradition	-9.99239
▁svår	-9.99269
stid	-9.99282
under	-9.99333
dor	-9.99393
▁inkludera	-9.99402
▁verklig	-9.99469
sök	-9.99557
▁berättelse	-9.99586
60	-9.99659
▁buss	-9.99659
mal	-9.99664
▁relevanta	-9.99723
▁bekväm	-9.99732
▁so	-9.99752
▁teknisk	-9.99799
▁franska	-9.99833
iff	-9.99835
▁räkna	-9.99897
▁tidpunkt	-10
kin	-10.0001
▁ökning	-10.0002
▁utmaning	-10.0003
AS	-10.0003
AT	-10.0014
▁Få	-10.0022
▁hundar	-10.0027
process	-10.0031
▁Gi	-10.0036
▁bin	-10.0041
▁Hotel	-10.0044
kast	-10.0044
▁förstör	-10.0045
▁kräva	-10.0045
▁hjärt	-10.0048
▁frågar	-10.0053
illa	-10.0055
▁valuta	-10.0056
▁utvecklar	-10.0066
▁förvaltning	-10.0069
▁skador	-10.007
▁underlätta	-10.0072
▁2020	-10.0079
▁centrala	-10.0082
▁band	-10.0088
▁fält	-10.0089
▁fullständig	-10.0094
▁fotograf	-10.0096
▁Själv	-10.0098
▁uppfyller	-10.0098
▁You	-10.0099
▁äntligen	-10.0099
▁kris	-10.0099
▁tillämpas	-10.0101
▁Mal	-10.0107
▁avsnitt	-10.011
▁förhållanden	-10.0114
▁Je	-10.0122
▁lita	-10.0122
▁alltför	-10.0122
lista	-10.0124
slaget	-10.0125
visning	-10.0133
▁kampanj	-10.0134
ish	-10.0139
spelare	-10.0139
IN	-10.0143
RA	-10.015
▁Kar	-10.0152
▁förtroende	-10.0153
▁rymd	-10.0153
▁England	-10.0153
▁islam	-10.0156
gick	-10.0158
▁gällande	-10.0158
▁igång	-10.0159
▁gränser	-10.0168
▁trygg	-10.0168
▁Människor	-10.0168
▁bilda	-10.0178
ient	-10.0181
▁kombinera	-10.0186
▁främsta	-10.0187
▁you	-10.0189
▁slags	-10.0191
skor	-10.0194
områden	-10.0196
▁filmer	-10.0199
▁sko	-10.02
▁färdigheter	-10.0209
▁31	-10.0209
▁konferens	-10.0222
▁må	-10.0227
▁förut	-10.0228
▁vänlig	-10.0231
▁sannolikt	-10.0236
▁radio	-10.0236
▁II	-10.0236
▁Can	-10.0236
▁Hitta	-10.0238
rådet	-10.0245
▁begäran	-10.0246
pen	-10.0252
bro	-10.0259
ink	-10.026
▁vore	-10.0265
kra	-10.0276
▁Fin	-10.0277
gas	-10.0291
▁lo	-10.0295
▁Tom	-10.0297
▁medarbetare	-10.0298
▁detaljer	-10.0303
▁perfekta	-10.0306
▁kriget	-10.0314
▁skor	-10.0324
▁investera	-10.0325
ture	-10.0331
▁ansökan	-10.0331
▁prestanda	-10.0333
▁Cor	-10.0335
▁kropps	-10.0339
▁hård	-10.0342
▁ämne	-10.0344
▁totalt	-10.0344
▁effekter	-10.0347
▁emellertid	-10.0347
®	-10.0347
dik	-10.0351
▁spelade	-10.0356
que	-10.0357
▁respekt	-10.0359
▁restaurang	-10.0367
▁Mark	-10.0367
▁bröllop	-10.0375
▁WEB	-10.0375
▁alldeles	-10.0375
▁Kristus	-10.0376
enta	-10.0378
villkor	-10.038
▁kärn	-10.0381
get	-10.0382
▁Sök	-10.0386
hop	-10.0388
▁herr	-10.0395
▁pol	-10.0396
out	-10.0398
Om	-10.0403
▁‘	-10.0406
maskin	-10.041
stol	-10.0413
▁tyska	-10.0417
Du	-10.0417
▁lämnade	-10.0421
▁paket	-10.0425
▁situationer	-10.0425
▁sägs	-10.0425
▁promenad	-10.0431
▁rent	-10.0434
▁uppstår	-10.0439
▁nyheter	-10.0441
mot	-10.0445
▁traditionella	-10.0449
▁professionell	-10.0453
▁intresserad	-10.0457
▁resultera	-10.0459
▁IT	-10.0461
▁föddes	-10.0466
▁svåra	-10.0467
▁marknad	-10.047
▁ski	-10.0471
▁rå	-10.0476
▁budskap	-10.0477
▁användningen	-10.0477
▁svag	-10.0478
▁gemenskap	-10.0479
läggning	-10.0482
log	-10.0482
▁sanning	-10.0487
▁augusti	-10.0488
uppgifter	-10.049
▁yrkes	-10.0495
län	-10.0495
▁produktions	-10.0503
▁officiella	-10.0505
▁belopp	-10.0506
▁behandlas	-10.0506
▁hi	-10.0519
▁programvara	-10.052
pre	-10.0523
vatten	-10.0523
▁individ	-10.0525
▁fartyg	-10.0529
▁unik	-10.0531
▁sök	-10.0532
▁City	-10.0532
▁Sch	-10.0536
▁omfattas	-10.0539
▁förbjud	-10.054
▁offentlig	-10.0541
organ	-10.0543
▁Australien	-10.0545
▁vitt	-10.055
▁utvecklings	-10.0551
▁Euro	-10.0553
▁rösta	-10.0561
▁begär	-10.0566
spekt	-10.0567
▁samhälls	-10.0573
årig	-10.0574
▁visst	-10.0577
nummer	-10.0581
uff	-10.0583
samhet	-10.0584
▁rök	-10.0592
▁förrän	-10.0595
▁användbar	-10.0595
▁ryska	-10.0596
▁tillämpning	-10.0599
▁guide	-10.06
▁underbar	-10.0609
&	-10.0609
▁rådets	-10.061
▁skrivit	-10.0613
▁finna	-10.0614
sprogram	-10.0616
▁War	-10.0617
varande	-10.0617
satser	-10.0619
▁sommaren	-10.0625
▁idrott	-10.0631
dal	-10.0635
▁Spel	-10.0637
Å	-10.0638
▁nej	-10.064
▁skönhet	-10.0641
bruk	-10.0646
sätta	-10.0648
nation	-10.0657
yrk	-10.0658
▁våg	-10.066
▁Peter	-10.0663
▁butik	-10.0665
▁otroligt	-10.0672
▁längs	-10.0684
▁höjd	-10.0686
▁internationellt	-10.0687
▁definitivt	-10.0688
▁respektive	-10.0689
må	-10.0692
▁2000	-10.0693
samling	-10.07
▁Ol	-10.0711
▁artikeln	-10.0713
▁hjärnan	-10.0716
▁samtycke	-10.0718
ze	-10.072
▁stu	-10.0725
borg	-10.0725
▁vanlig	-10.0725
dagar	-10.0726
▁överens	-10.0729
hav	-10.0729
▁op	-10.0734
jor	-10.0734
▁ändringar	-10.0736
▁individer	-10.0737
▁färger	-10.0744
har	-10.0746
▁Folk	-10.0747
▁kust	-10.0748
▁platsen	-10.075
grad	-10.0754
▁fe	-10.0757
▁Behöver	-10.0757
kommer	-10.0757
▁Innan	-10.0758
▁drar	-10.076
▁utsläpp	-10.0763
▁lärt	-10.0766
▁recept	-10.0769
ef	-10.077
Ã	-10.0776
▁bestämmelser	-10.0779
rika	-10.0785
▁fan	-10.0796
ress	-10.0802
▁mjuk	-10.0804
▁Island	-10.0806
▁utfärda	-10.0807
▁etc	-10.0808
▁go	-10.0816
▁mar	-10.0823
▁fi	-10.0827
▁människorna	-10.0832
▁skol	-10.0835
▁bevilja	-10.0836
ställa	-10.0838
pel	-10.084
▁genomsnitt	-10.0844
▁uppskatta	-10.0845
mission	-10.0846
▁undan	-10.0852
▁möjliggör	-10.0854
rikt	-10.0854
▁öppnar	-10.0855
gången	-10.086
chi	-10.0864
ordning	-10.0868
▁kategori	-10.0875
ström	-10.0876
▁döden	-10.0877
▁evenemang	-10.0877
▁bred	-10.0877
▁konstnär	-10.0881
lov	-10.0886
▁konkurrens	-10.0888
▁Kommissionen	-10.0893
AN	-10.0895
▁familjer	-10.0902
frågor	-10.0903
▁tyst	-10.0906
▁analysera	-10.0908
▁notera	-10.0915
▁konsument	-10.0917
▁verkligheten	-10.0919
▁situationen	-10.0921
▁himlen	-10.0923
▁Indien	-10.0923
▁allmänheten	-10.0924
▁2007	-10.0927
▁därefter	-10.093
▁skyldig	-10.0933
▁uppfattning	-10.0935
▁flygplats	-10.0936
rus	-10.0938
prov	-10.0944
▁utifrån	-10.0946
▁helg	-10.0947
▁cookies	-10.0948
▁myndigheterna	-10.0948
SA	-10.096
givande	-10.0962
▁Ve	-10.0963
▁?	-10.0969
▁nåd	-10.097
grip	-10.0975
▁sub	-10.0975
▁str	-10.0982
▁aktiva	-10.0982
▁System	-10.0982
▁någonstans	-10.0982
▁rätten	-10.0987
▁gäster	-10.0994
aktiv	-10.0999
tch	-10.1
▁gruppen	-10.1001
▁Ab	-10.1002
▁brand	-10.1004
▁Sal	-10.1004
▁övervaka	-10.1013
▁skr	-10.1023
▁tilldela	-10.103
▁varm	-10.1033
▁undrar	-10.1037
▁snabba	-10.1038
funktion	-10.1045
▁utbilda	-10.1048
▁fria	-10.1051
▁Inter	-10.1053
unk	-10.1077
▁kapacitet	-10.1078
test	-10.1078
▁anslutning	-10.1078
▁berättade	-10.1078
▁utseende	-10.108
politik	-10.1086
▁ökade	-10.1091
▁ch	-10.1094
tic	-10.1096
iter	-10.1101
▁identitet	-10.1102
mak	-10.1139
▁informationen	-10.1142
▁strategisk	-10.1148
▁valde	-10.1154
▁trend	-10.1155
▁App	-10.116
▁slutar	-10.1162
▁framsteg	-10.1165
▁riktning	-10.1167
▁förlorar	-10.1182
ända	-10.1186
▁lämnat	-10.1189
▁nån	-10.1191
▁Bri	-10.1193
▁Båda	-10.1193
▁flicka	-10.1193
▁kod	-10.1196
▁ansvarig	-10.1202
▁igår	-10.1212
▁adress	-10.1216
▁ökat	-10.1218
former	-10.1218
▁35	-10.1219
▁grunden	-10.1222
anda	-10.1222
▁iPhone	-10.1223
▁Group	-10.1223
▁balans	-10.1225
OR	-10.1225
kultur	-10.1237
tio	-10.1238
pla	-10.1238
▁Plan	-10.1244
rik	-10.1247
tagare	-10.1249
▁leverantörer	-10.1253
▁Börja	-10.1254
drar	-10.1258
▁kommentarer	-10.1259
▁naturligt	-10.1265
▁tillfälle	-10.1267
gin	-10.1277
kade	-10.1277
▁tänkt	-10.1284
▁rimlig	-10.1285
▁Köp	-10.1285
ket	-10.1289
▁profil	-10.1294
▁aktie	-10.1299
▁verksamheten	-10.1303
▁inse	-10.1303
▁Hy	-10.1304
regler	-10.1307
13	-10.1309
ib	-10.131
▁park	-10.1315
▁skola	-10.1319
▁sikt	-10.1324
ifiering	-10.1325
ID	-10.1326
▁kors	-10.133
sänd	-10.1331
▁förklaring	-10.1333
▁effektivitet	-10.1335
▁säljer	-10.1344
vent	-10.1345
▁Inget	-10.1351
▁ba	-10.1351
ali	-10.1352
varu	-10.1355
▁huvudet	-10.1356
▁hemlighet	-10.1357
▁hörde	-10.1362
▁höger	-10.1363
åriga	-10.1368
▁valet	-10.1372
▁former	-10.1372
▁vardag	-10.1374
▁försökte	-10.1376
▁Afrika	-10.1377
iteten	-10.1387
▁Miss	-10.1392
burg	-10.1395
▁förlorade	-10.1395
▁regel	-10.1399
fic	-10.1403
▁fly	-10.1407
▁högst	-10.1407
▁Produkt	-10.1409
▁konstatera	-10.141
▁roliga	-10.1413
▁Skapa	-10.1415
▁Än	-10.1419
▁lämplig	-10.142
▁hoppa	-10.1423
ux	-10.1423
cker	-10.1423
▁fönster	-10.1424
▁utbud	-10.1439
barn	-10.1441
▁Bal	-10.1442
▁Ham	-10.1444
▁driva	-10.1446
▁meddela	-10.1447
▁ställer	-10.1447
▁allvarliga	-10.1448
mö	-10.1448
pot	-10.1452
▁leverantör	-10.1453
avgift	-10.1457
▁användaren	-10.1459
▁positiv	-10.1469
▁bryta	-10.147
▁Något	-10.1471
center	-10.1472
▁erfarenheter	-10.148
▁bransch	-10.149
▁Mina	-10.1493
kostnader	-10.1496
▁tacksam	-10.1499
▁fiske	-10.15
▁riktiga	-10.1501
▁snygg	-10.1502
▁synnerhet	-10.1502
▁kommunicera	-10.1502
▁ramen	-10.1511
▁berör	-10.1511
▁kille	-10.1514
▁undervisning	-10.1517
▁kasino	-10.1534
▁kvinnan	-10.1537
dri	-10.1538
▁29	-10.154
▁media	-10.154
16	-10.1546
försäkring	-10.1548
▁orsakar	-10.1549
▁hundra	-10.1551
bank	-10.1552
▁Dock	-10.1554
▁betalar	-10.1557
reg	-10.1562
▁befintliga	-10.1564
▁arm	-10.1564
▁rädsla	-10.1565
▁mörda	-10.1565
▁Endast	-10.1565
▁dryck	-10.1566
ppar	-10.1574
▁startade	-10.1577
zi	-10.1582
▁gemensamt	-10.1584
▁extremt	-10.1585
ics	-10.1586
▁Gre	-10.1586
▁(20	-10.1588
▁behandlingen	-10.1589
▁samling	-10.1591
▁hittat	-10.1592
DA	-10.1592
▁sitta	-10.1595
▁licens	-10.1596
▁tusentals	-10.1597
▁försvara	-10.1599
▁listan	-10.1611
gjord	-10.1622
▁student	-10.1625
grepp	-10.1625
▁skull	-10.1627
▁relativt	-10.1627
▁kämpa	-10.1627
▁datorn	-10.1628
▁stärka	-10.1629
▁boende	-10.1633
▁Paul	-10.1633
▁2006	-10.1633
▁lu	-10.1634
▁Kund	-10.1636
▁egendom	-10.1636
eriet	-10.1639
▁klaga	-10.1643
her	-10.1643
▁verket	-10.1649
▁polisen	-10.165
smedel	-10.1651
▁tappa	-10.1651
▁bibliotek	-10.1652
▁mänsklig	-10.1653
▁ögonen	-10.166
▁diskussion	-10.166
▁däremot	-10.166
▁engagemang	-10.1661
▁bro	-10.1662
▁felaktig	-10.1664
▁brittiska	-10.1664
byte	-10.1671
q	-10.1674
▁annonser	-10.1676
strategi	-10.1678
pl	-10.1679
▁sur	-10.1679
▁nödvändig	-10.168
press	-10.1685
▁upphör	-10.1685
oid	-10.1686
▁oför	-10.1687
▁positiva	-10.169
▁söndag	-10.1692
▁beskriver	-10.1692
▁demokrati	-10.1694
terapi	-10.1696
▁nät	-10.1699
▁ledde	-10.1702
▁omöjligt	-10.1703
djur	-10.1703
▁middag	-10.1704
▁aktuella	-10.1709
förmåga	-10.171
verktyg	-10.1712
▁rese	-10.1712
▁Hade	-10.1713
▁foto	-10.1719
▁väsentlig	-10.1724
▁tyckte	-10.1724
▁drömmar	-10.1727
▁offer	-10.173
▁överväga	-10.173
▁Mil	-10.1742
▁Pu	-10.1743
▁använde	-10.1744
▁huden	-10.1755
organisation	-10.1759
▁passion	-10.176
▁nyckel	-10.176
▁dåliga	-10.1766
▁glada	-10.1768
▁närvaro	-10.1769
dge	-10.1769
▁Väst	-10.1771
▁installation	-10.1773
resultat	-10.1774
eu	-10.1776
▁Twitter	-10.1789
▁lunch	-10.1789
▁moln	-10.1789
▁Saker	-10.1794
▁säng	-10.1794
bit	-10.1794
▁Maria	-10.1798
▁andel	-10.1802
▁helhet	-10.1806
▁letar	-10.1807
läsning	-10.1812
▁sökande	-10.1815
▁hittills	-10.1821
▁annars	-10.1821
▁skiljer	-10.1821
▁släppa	-10.1822
▁befolkningen	-10.1824
▁port	-10.1824
▁plast	-10.1826
▁order	-10.1827
.[	-10.1836
▁ange	-10.1842
ew	-10.1846
stöd	-10.1846
▁processer	-10.1846
▁rapportera	-10.1847
▁moder	-10.1852
▁passera	-10.1853
▁Företaget	-10.1853
rande	-10.1859
▁Lag	-10.1862
▁300	-10.1867
▁lämpliga	-10.187
▁kommentar	-10.1881
▁sent	-10.1884
▁förse	-10.1886
ogen	-10.189
▁filer	-10.1891
▁2004	-10.1892
▁Ros	-10.1894
▁planer	-10.1897
▁locka	-10.1902
▁aktivt	-10.1902
▁taget	-10.1903
▁upptäckt	-10.1903
upplevelse	-10.1905
▁kunskaper	-10.1912
▁Art	-10.1913
kod	-10.1915
▁Precis	-10.1919
▁upplever	-10.1919
▁undersöka	-10.192
▁bekämpa	-10.192
▁förbi	-10.1921
▁möjlig	-10.1925
▁enorm	-10.1931
▁torr	-10.1934
▁betalnings	-10.1936
▁plötsligt	-10.1937
▁oro	-10.1941
sprocessen	-10.1945
ino	-10.195
▁Amerika	-10.1952
▁kallad	-10.1957
blad	-10.196
▁fysisk	-10.196
▁skratta	-10.1964
king	-10.1964
lösningar	-10.1966
▁graviditet	-10.1967
▁Konst	-10.1973
▁Ch	-10.1975
▁principer	-10.1982
▁befolkning	-10.1983
▁Business	-10.1985
▁frukost	-10.1985
▁’	-10.1986
▁särskild	-10.1992
▁cykel	-10.1997
▁når	-10.2001
▁IP	-10.2004
▁resan	-10.2006
▁respektera	-10.2007
▁överföring	-10.2007
▁organisationen	-10.2017
▁allmän	-10.2018
▁möter	-10.2019
▁dör	-10.2024
▁vision	-10.2024
▁Pat	-10.2025
▁Blo	-10.2026
▁Tri	-10.2032
nät	-10.2036
▁kontrakt	-10.2045
▁Red	-10.2048
▁Rätt	-10.2051
▁bilaga	-10.2054
▁förutom	-10.2057
▁väder	-10.2059
linje	-10.2059
▁rep	-10.2059
▁kostnad	-10.206
▁toppen	-10.2064
enheter	-10.2065
▁stabil	-10.2066
▁bruk	-10.2068
▁gäst	-10.2077
▁bestämmer	-10.2084
▁symptom	-10.2084
▁symtom	-10.2084
producent	-10.2084
▁senast	-10.2087
▁svarar	-10.2087
▁miljon	-10.2092
▁speciell	-10.2095
lapp	-10.2097
▁negativa	-10.2101
utbildning	-10.2102
fatta	-10.2103
tiskt	-10.2104
▁njut	-10.2106
▁värdet	-10.2112
▁värdefull	-10.2113
ical	-10.2113
▁förändras	-10.2114
▁sova	-10.2115
▁sjukhus	-10.2117
▁majoritet	-10.2117
39	-10.2119
▁dagliga	-10.2123
▁överleva	-10.2129
▁växande	-10.213
-1	-10.2132
▁verklighet	-10.2134
▁ting	-10.2137
▁integrera	-10.2137
▁rest	-10.214
▁mun	-10.2142
din	-10.2145
▁out	-10.215
▁sammanhang	-10.2151
▁profet	-10.2151
day	-10.2151
▁Får	-10.2157
▁morgonen	-10.2164
▁pengarna	-10.2167
kop	-10.2167
park	-10.2168
▁experter	-10.2169
lus	-10.217
jon	-10.2175
▁parter	-10.2176
inte	-10.2177
▁judar	-10.2178
▁Bor	-10.2183
▁takt	-10.2185
▁sy	-10.2186
▁professionella	-10.2192
▁grundades	-10.2192
▁Ben	-10.2198
position	-10.2199
▁total	-10.2199
▁West	-10.22
▁bränn	-10.22
▁vann	-10.2201
▁landets	-10.2208
▁unionens	-10.2213
▁tvungen	-10.2218
▁cell	-10.2222
▁finner	-10.2222
jer	-10.223
▁Hol	-10.2232
▁Ur	-10.2236
▁köpt	-10.2236
▁tjänar	-10.2245
▁nio	-10.2248
▁komplett	-10.2251
▁förbereda	-10.2252
dimension	-10.2252
▁utvärdera	-10.2252
▁tillgångar	-10.2253
▁Inga	-10.2255
▁tillräcklig	-10.2256
köp	-10.2258
▁hållbarhet	-10.2273
▁tider	-10.2275
▁minns	-10.2276
▁förlorat	-10.2277
▁Visst	-10.2281
▁rak	-10.2284
▁Service	-10.2286
▁Tidigare	-10.2286
▁Slut	-10.2286
▁am	-10.2293
▁fantastiskt	-10.2293
▁utsatt	-10.2293
▁hastighet	-10.23
▁statistik	-10.2302
▁initiativ	-10.2303
▁innehålla	-10.2306
ili	-10.2306
grund	-10.2308
▁Ag	-10.2309
▁boll	-10.2313
▁Super	-10.2323
▁2005	-10.2326
▁stranden	-10.2329
eb	-10.233
▁skillnaden	-10.2331
▁källor	-10.2331
▁teknologi	-10.2334
▁lagt	-10.2334
▁tillhandahåller	-10.2335
▁upprätta	-10.2338
▁fäst	-10.2342
▁rättvisa	-10.2345
sättningen	-10.2346
▁förfarande	-10.2347
▁missa	-10.2348
▁Bland	-10.2351
▁allmänt	-10.2352
▁Bästa	-10.2352
▁betydligt	-10.2354
▁mångfald	-10.2354
▁frivillig	-10.2354
▁kritisk	-10.2355
▁metall	-10.2362
kropp	-10.2363
sarbete	-10.2367
änder	-10.2373
Måste	-10.2376
graf	-10.2386
▁ont	-10.2386
▁avsikt	-10.2388
▁rekommendation	-10.2388
▁fakta	-10.2388
▁lager	-10.2389
▁åker	-10.2391
▁Dera	-10.2392
▁experiment	-10.2396
▁deltagare	-10.2396
flykt	-10.2398
▁planerar	-10.2405
▁skaffa	-10.2409
▁ungdomar	-10.2415
▁dörren	-10.2421
▁öppnade	-10.2421
▁självklart	-10.2422
▁Robert	-10.2422
▁Bank	-10.2425
▁skatt	-10.2426
▁make	-10.2427
▁Ry	-10.2432
▁gröna	-10.2434
▁konsekvenser	-10.2436
▁potential	-10.2436
▁Mot	-10.2437
▁aktier	-10.2441
▁gravid	-10.2444
▁godkännande	-10.2455
▁Inom	-10.2461
▁mental	-10.2461
stör	-10.2462
▁olja	-10.247
▁förmån	-10.2471
▁faller	-10.2474
▁protein	-10.2475
▁dagarna	-10.2486
knapp	-10.2487
▁Hela	-10.2487
▁leta	-10.2491
▁värsta	-10.2491
▁värre	-10.2492
▁rummet	-10.2492
▁socker	-10.2492
chef	-10.2493
▁godkänd	-10.2494
ON	-10.2494
▁element	-10.2495
▁huvudstad	-10.2497
▁dyr	-10.2499
▁oroa	-10.2501
▁kyl	-10.2503
▁nation	-10.2505
▁back	-10.2505
förändringar	-10.2513
▁företagets	-10.2516
▁speciella	-10.2517
▁Che	-10.2518
▁kinesiska	-10.2523
produkt	-10.2524
kall	-10.2525
förbund	-10.2527
mästare	-10.2528
▁föredrar	-10.253
▁ägna	-10.253
▁modeller	-10.2532
▁vanligaste	-10.2533
▁förväntas	-10.2534
▁tidiga	-10.2539
▁Bre	-10.254
▁iväg	-10.254
▁utställning	-10.2541
▁kär	-10.2547
▁potentiella	-10.2553
▁And	-10.2558
▁Därefter	-10.2562
▁utöka	-10.2568
▁beaktande	-10.2568
vakt	-10.257
TI	-10.2574
given	-10.2592
▁innehållet	-10.2593
▁riktlinjer	-10.2596
▁löfte	-10.2596
▁mänskligheten	-10.2597
▁institution	-10.2599
▁mått	-10.2607
▁svarta	-10.2608
▁stjärnor	-10.2612
▁mjölk	-10.2615
▁Post	-10.2619
▁skolor	-10.2624
▁försiktig	-10.2626
▁motivera	-10.2628
_	-10.2631
▁kronor	-10.2631
▁Istället	-10.2631
▁James	-10.2631
▁knä	-10.2633
▁beskrivning	-10.2636
▁Försök	-10.2645
▁mg	-10.265
▁Ly	-10.2653
▁rådet	-10.2656
▁säsongen	-10.2661
▁besöker	-10.2665
▁minut	-10.2665
▁Tyvärr	-10.2666
▁södra	-10.2666
▁påbörja	-10.2666
▁flickor	-10.2666
▁ursäkt	-10.2666
▁kompis	-10.2667
▁komplettera	-10.2667
▁Norge	-10.2672
▁domstolen	-10.2676
▁slog	-10.2679
▁mus	-10.268
▁ändras	-10.268
▁ställning	-10.2688
låda	-10.2688
▁beställning	-10.2689
▁släppt	-10.2697
▁Dan	-10.2701
▁utbildnings	-10.2701
▁fredag	-10.2704
▁sekunder	-10.2708
▁traditionell	-10.2709
▁Ditt	-10.2716
flöde	-10.2728
old	-10.2729
▁Bet	-10.2729
design	-10.273
liggande	-10.2731
▁pl	-10.2733
▁skickar	-10.2735
▁förutsättningar	-10.2736
▁motsvarande	-10.2737
▁överför	-10.2738
ned	-10.2739
▁tusen	-10.2742
▁Anna	-10.2743
▁kunderna	-10.2747
▁registrering	-10.2752
▁öde	-10.2753
▁vakna	-10.2759
▁support	-10.2763
uck	-10.2766
▁45	-10.2768
▁kamp	-10.2771
▁påstå	-10.278
▁sorg	-10.2782
▁Restauranger	-10.2789
▁vetenskapliga	-10.2789
▁röda	-10.2802
ago	-10.2804
bell	-10.2807
▁fritt	-10.2807
▁siffror	-10.2808
▁atmosfär	-10.2808
ologiska	-10.2811
nivåer	-10.2816
TA	-10.2819
▁reser	-10.282
åk	-10.2823
skapet	-10.2827
flu	-10.2837
▁förvärva	-10.284
PS	-10.2844
▁tyvärr	-10.2844
▁myndigheten	-10.2847
▁sexuell	-10.2848
ath	-10.2849
▁Stad	-10.2855
▁diagnos	-10.286
▁närmaste	-10.2864
▁infrastruktur	-10.2864
▁laget	-10.2865
▁Tor	-10.2866
▁koncept	-10.2871
▁attacker	-10.2875
▁behandlar	-10.2877
mun	-10.288
▁Obama	-10.288
▁Kanada	-10.2882
komma	-10.2884
▁utvecklade	-10.2885
kal	-10.2888
▁journalist	-10.2889
▁medveten	-10.289
▁byggnader	-10.2894
gram	-10.2894
▁utbyte	-10.2896
jäl	-10.2897
▁öst	-10.2899
▁referens	-10.2902
rike	-10.2903
▁samlar	-10.2907
▁mitten	-10.2907
▁bostads	-10.2911
▁Office	-10.2917
kur	-10.2918
▁Institute	-10.292
alla	-10.2924
panel	-10.2929
▁begränsad	-10.2929
▁sist	-10.2938
▁Bok	-10.2938
01	-10.2942
plattform	-10.2946
95	-10.2949
hat	-10.295
▁utsträckning	-10.2952
▁dating	-10.2953
▁tillbringa	-10.2953
▁debatt	-10.2953
▁Information	-10.2954
▁Iran	-10.2956
väv	-10.2956
landet	-10.2959
▁allting	-10.2963
▁förklarar	-10.2968
▁längd	-10.2968
▁marknader	-10.2969
▁fabrik	-10.2977
▁Lin	-10.2981
vad	-10.2985
▁integritet	-10.2989
▁förvandla	-10.2989
PA	-10.299
▁Dia	-10.2993
fattning	-10.2996
kommittén	-10.3
▁mode	-10.3015
▁studien	-10.3016
IV	-10.3019
▁fylla	-10.3024
▁Klicka	-10.3025
▁granska	-10.3027
!!!	-10.303
▁pool	-10.3033
full	-10.3035
▁låga	-10.3039
vision	-10.3044
▁databas	-10.3051
▁operation	-10.3056
▁artiklar	-10.3057
analys	-10.306
▁avlägsna	-10.3062
▁Välkommen	-10.3062
▁ända	-10.3066
▁ert	-10.3067
kul	-10.3069
▁professor	-10.3073
▁extrem	-10.3075
▁marken	-10.3078
▁vända	-10.3082
Z	-10.3092
▁fest	-10.3093
▁klubb	-10.3093
aga	-10.3095
▁Världen	-10.3099
▁himmel	-10.3099
IT	-10.3101
▁lämpligt	-10.3103
▁Åter	-10.3111
▁stöder	-10.3113
AC	-10.3117
▁delvis	-10.3118
perioden	-10.3119
▁arv	-10.3119
▁Met	-10.3129
▁ti	-10.3135
▁live	-10.3135
▁maximal	-10.3136
▁tand	-10.3136
period	-10.3138
isterna	-10.3138
ges	-10.3139
ving	-10.314
▁Kor	-10.3141
org	-10.3142
▁detalj	-10.3145
▁öl	-10.3146
▁mängder	-10.3152
▁upptäckte	-10.3154
top	-10.3157
▁inrätta	-10.3158
ställda	-10.3163
struktur	-10.3167
mässiga	-10.317
historisk	-10.3173
▁original	-10.3173
▁upprätthålla	-10.3173
▁utrusta	-10.3173
▁Jack	-10.3174
▁Dess	-10.3175
▁glömma	-10.3177
▁fotboll	-10.3178
ness	-10.3179
▁kök	-10.3184
▁Van	-10.3184
ansk	-10.3188
▁national	-10.3188
▁uppmärksamma	-10.3196
▁svaret	-10.3201
▁generera	-10.3205
▁exklusiv	-10.321
▁hänvisa	-10.321
▁lördag	-10.321
▁finansiera	-10.321
▁orsak	-10.3215
▁Black	-10.3215
▁hål	-10.3216
lett	-10.3216
64	-10.3218
vik	-10.3219
▁con	-10.322
▁gemensam	-10.322
▁orsaker	-10.322
bord	-10.3224
ici	-10.3226
▁medicinska	-10.3231
▁variera	-10.324
▁Ver	-10.3242
▁sjukvård	-10.3243
▁varken	-10.3245
▁sällan	-10.3247
CA	-10.3248
▁fötter	-10.3249
▁beredd	-10.3249
nov	-10.3252
▁vägar	-10.3254
▁Master	-10.3256
▁etablera	-10.3258
▁tänk	-10.3259
▁avfall	-10.3259
rek	-10.326
▁avser	-10.3262
▁Fu	-10.3263
▁varmt	-10.3263
▁satsa	-10.3266
▁arbetsplats	-10.3267
▁enklare	-10.327
ius	-10.3281
▁roman	-10.3282
▁permanent	-10.3285
▁Syrien	-10.3285
ire	-10.3287
▁rutin	-10.3288
handling	-10.3293
▁urval	-10.3295
▁kostar	-10.3297
24	-10.331
▁talade	-10.3311
▁träffade	-10.3316
sida	-10.332
▁glöm	-10.3324
▁grav	-10.333
▁universum	-10.3332
▁publicerade	-10.3334
▁Port	-10.3336
▁jämförelse	-10.3339
▁intensiv	-10.334
lly	-10.3345
oc	-10.3346
▁bror	-10.3348
▁tillverkare	-10.3348
▁önska	-10.3352
<	-10.336
▁Syftet	-10.336
▁argument	-10.336
▁definition	-10.336
▁motstånd	-10.3361
▁olaglig	-10.3361
▁Lägg	-10.3363
snivå	-10.3363
▁erbjuds	-10.3368
▁driver	-10.3372
▁Kl	-10.3375
EC	-10.338
ST	-10.3381
▁aktivera	-10.3384
ney	-10.3393
tern	-10.3394
▁She	-10.3397
▁lagra	-10.3397
▁Android	-10.3398
▁Författare	-10.3398
▁vila	-10.3398
▁Danmark	-10.3398
▁VI	-10.3398
▁2003	-10.3403
▁efterfrågan	-10.3407
21	-10.3409
▁restauranger	-10.3422
▁heliga	-10.3427
2)	-10.3429
▁[+]	-10.3436
▁huruvida	-10.3436
▁Hjälp	-10.3436
▁bröd	-10.3439
▁ekonomin	-10.3444
Vad	-10.3447
▁förening	-10.3448
huset	-10.3451
▁riktig	-10.3458
RO	-10.3461
▁ändring	-10.3462
▁garanti	-10.3463
färg	-10.3463
emi	-10.3466
serv	-10.3468
▁medlemsstater	-10.3471
▁Bitcoin	-10.3474
▁ansluta	-10.3474
▁Casino	-10.3475
▁politisk	-10.3491
MA	-10.3494
▁Home	-10.3495
▁ställen	-10.35
▁verka	-10.3501
▁regionen	-10.3504
▁uppstå	-10.3506
▁styra	-10.3507
evolution	-10.3512
▁brett	-10.3512
▁skriftlig	-10.3516
▁Pla	-10.3516
▁rid	-10.3516
▁insatser	-10.352
▁djupt	-10.3521
bör	-10.3521
▁äga	-10.3525
▁fortsatte	-10.3528
▁hälsosam	-10.353
▁sand	-10.3531
▁lät	-10.3532
▁normal	-10.3536
▁vinner	-10.3538
▁Visa	-10.354
lär	-10.354
pati	-10.3544
dol	-10.3546
ierna	-10.355
▁Online	-10.3551
▁poker	-10.3552
järn	-10.3558
förande	-10.356
▁mesta	-10.3561
▁knappt	-10.3566
▁skil	-10.3567
▁depression	-10.357
▁komplex	-10.3577
OM	-10.3581
kör	-10.3581
▁ekonomiskt	-10.3583
väx	-10.3589
▁grå	-10.3589
▁motsvarar	-10.3589
▁dialog	-10.3589
▁räcker	-10.3589
▁yngre	-10.3589
▁lås	-10.3593
low	-10.3594
▁föregående	-10.3595
livet	-10.36
modell	-10.3602
88	-10.3602
▁dagligen	-10.3604
▁baserad	-10.3607
▁fann	-10.3607
▁chansen	-10.361
▁relevant	-10.3614
sökning	-10.3616
▁koncern	-10.362
▁x	-10.3621
EL	-10.3624
▁Glöm	-10.3629
▁rättsliga	-10.363
▁Studie	-10.3632
▁innovativa	-10.3635
frihet	-10.3637
85	-10.3638
abel	-10.3639
▁resultaten	-10.3643
förhållanden	-10.3647
▁tår	-10.3653
▁Auto	-10.3654
▁Em	-10.366
gna	-10.3665
▁kontinuerlig	-10.3667
▁Turkiet	-10.3667
▁återvända	-10.3668
skri	-10.3669
▁tuff	-10.3673
möjligheter	-10.3676
▁2001	-10.3676
▁lyft	-10.368
vor	-10.3682
celler	-10.3684
▁länderna	-10.3685
RI	-10.3687
▁Hej	-10.369
▁skickas	-10.369
▁tillgängligt	-10.3693
▁medför	-10.3695
▁betalning	-10.3695
▁versionen	-10.3696
▁ansvarar	-10.3698
▁affärer	-10.3699
Ö	-10.3705
sjukdom	-10.3706
▁Michael	-10.3706
▁övrigt	-10.3706
▁Skriv	-10.3706
▁beskriva	-10.3708
▁rättfärdig	-10.3709
▁utvecklats	-10.3711
iella	-10.3711
kemi	-10.3714
▁måndag	-10.3715
▁Mc	-10.3715
▁kraven	-10.3717
▁följde	-10.3717
plikt	-10.3721
▁Gar	-10.3726
▁ob	-10.3726
▁minsta	-10.3727
▁övervakning	-10.3729
▁stan	-10.3731
version	-10.3733
▁underbara	-10.3736
▁Sådan	-10.374
mus	-10.3741
▁lögn	-10.3745
▁förtjänar	-10.3746
bry	-10.375
▁reaktion	-10.375
cle	-10.3751
▁format	-10.3752
operatör	-10.3758
▁Stat	-10.3758
▁insats	-10.3759
▁avancerade	-10.3765
▁diet	-10.3774
veck	-10.3775
ören	-10.378
pin	-10.3782
▁🙂	-10.3785
▁vind	-10.379
▁Bild	-10.3791
▁status	-10.3794
▁Martin	-10.3796
▁synlig	-10.3796
iserad	-10.38
▁framgångsrika	-10.3801
▁aspekter	-10.3811
▁farliga	-10.3811
hal	-10.3812
▁samarbeta	-10.3815
▁Global	-10.3824
▁involvera	-10.3824
▁yttre	-10.3824
motor	-10.3825
front	-10.3829
▁Bru	-10.3837
▁Israels	-10.3838
over	-10.384
▁wi	-10.384
▁mej	-10.3841
▁patient	-10.3844
▁döds	-10.3845
Fi	-10.3848
1)	-10.385
én	-10.3858
▁Lite	-10.3861
▁präst	-10.3864
▁kritik	-10.3864
▁mäta	-10.3873
skräck	-10.3877
▁jo	-10.3878
▁orolig	-10.3881
CC	-10.3882
▁vaccin	-10.3882
▁Tu	-10.3885
▁fint	-10.3888
▁medicinsk	-10.3888
▁hotellet	-10.3889
▁smärt	-10.3889
▁stads	-10.3889
▁Data	-10.3897
▁One	-10.3899
▁Herre	-10.39
▁starkare	-10.3904
▁uppenbara	-10.3904
▁Alltså	-10.3907
▁positivt	-10.3908
▁elever	-10.3912
mannen	-10.3912
text	-10.3915
▁perioden	-10.3927
ctor	-10.3934
▁celler	-10.3936
▁Göteborg	-10.3944
▁Bibeln	-10.3944
▁ringa	-10.3944
▁passa	-10.3945
▁utomhus	-10.3945
▁Natur	-10.3949
▁orsaken	-10.395
gångar	-10.3969
AM	-10.397
▁möten	-10.3971
▁Win	-10.3971
▁God	-10.3973
sajt	-10.3978
verket	-10.3979
attack	-10.3982
▁släkt	-10.3984
alternativ	-10.3985
▁syster	-10.3986
bär	-10.3987
▁Besök	-10.3988
▁berömda	-10.3989
▁resor	-10.3993
▁desto	-10.3994
▁tekniker	-10.3995
▁underteckna	-10.3995
▁lider	-10.3996
▁fond	-10.4006
▁civil	-10.4007
▁fokuserar	-10.4011
▁röra	-10.4013
▁livsmedels	-10.4014
LA	-10.4016
▁hyra	-10.4018
▁sprida	-10.4024
46	-10.4027
▁åtkomst	-10.4031
▁spanska	-10.4032
▁Ya	-10.4033
▁konflikt	-10.4035
föring	-10.4036
gått	-10.4038
▁Mont	-10.4039
ident	-10.4048
vänt	-10.4055
▁Bur	-10.4056
▁Mag	-10.4057
användning	-10.4062
▁ljuset	-10.4065
▁inflytande	-10.4065
▁Design	-10.4065
▁Både	-10.4065
▁Hennes	-10.4065
▁politiker	-10.4065
▁förväntningar	-10.4065
▁plocka	-10.4066
böcker	-10.4067
branschen	-10.4067
frågan	-10.4073
▁lyckades	-10.4073
▁rapporter	-10.4073
kande	-10.4075
▁inköp	-10.4084
▁Tal	-10.4087
▁fyll	-10.4088
▁nerv	-10.4089
föd	-10.4095
▁Bil	-10.4103
▁bestämt	-10.4105
▁fattiga	-10.4105
▁eleverna	-10.4106
▁ledarskap	-10.4106
sätter	-10.4106
platser	-10.4107
▁grader	-10.4108
länder	-10.4108
▁förekommer	-10.411
▁byggt	-10.4111
▁Ed	-10.4113
▁födelsedag	-10.412
▁slår	-10.4121
▁stål	-10.4121
▁hantering	-10.4121
▁juridiska	-10.4124
▁lösningen	-10.4136
innan	-10.4137
▁norra	-10.414
barhet	-10.4143
▁rika	-10.4143
▁livsstil	-10.4147
rätten	-10.4147
▁vinter	-10.4148
>	-10.4148
back	-10.4148
▁tunn	-10.415
▁förvärv	-10.415
jan	-10.4156
44	-10.4156
politiken	-10.4157
▁deltagande	-10.4157
▁behovet	-10.4161
▁växter	-10.4165
▁rena	-10.4168
▁Sky	-10.4173
▁bevisa	-10.4173
▁hushåll	-10.4177
▁smart	-10.4182
ji	-10.4184
▁introducera	-10.4187
▁beskrivs	-10.4188
▁Kolla	-10.4188
▁olje	-10.4188
▁botten	-10.4188
fund	-10.4189
▁hav	-10.4193
▁upprepa	-10.4197
▁beräkning	-10.4198
▁vandra	-10.42
▁skärm	-10.4204
side	-10.4204
vill	-10.4206
▁sjön	-10.4208
▁Ku	-10.4213
dera	-10.4215
22	-10.4221
▁Management	-10.4228
▁Huvud	-10.4228
▁blommor	-10.4228
▁klipp	-10.4233
▁mord	-10.4237
the	-10.4239
▁äkta	-10.4243
▁Må	-10.4247
▁villkoren	-10.4252
▁läste	-10.4259
sområden	-10.426
▁nåt	-10.426
▁(2	-10.4264
▁robot	-10.427
▁Tillsammans	-10.427
▁primär	-10.427
▁lidande	-10.427
▁arbetsgivare	-10.4273
hl	-10.4273
play	-10.4277
ary	-10.4283
▁investerare	-10.4285
rummet	-10.4286
▁illa	-10.429
▁Lan	-10.4299
▁föreslår	-10.43
▁överföra	-10.4301
qui	-10.4303
▁gifta	-10.4305
▁mönster	-10.4305
myndighet	-10.4306
67	-10.4307
anter	-10.4307
▁Kvinnor	-10.4311
▁ingredienser	-10.4311
▁resolution	-10.4311
▁äldsta	-10.4311
▁stänga	-10.4311
▁bröst	-10.4313
▁export	-10.4314
▁tillåta	-10.4318
▁förlåt	-10.4323
fel	-10.4324
NA	-10.4325
▁lärande	-10.4327
▁avtalet	-10.4327
▁fullständigt	-10.4334
cept	-10.4335
▁Känner	-10.4338
▁gemenskapen	-10.4344
ford	-10.4348
▁funnits	-10.4352
▁Egypten	-10.4353
▁invånare	-10.4353
▁recension	-10.4353
▁George	-10.4353
▁inspiration	-10.4359
▁smarta	-10.436
▁fylld	-10.436
▁bud	-10.4365
▁jordbruk	-10.4368
mu	-10.437
▁bedöm	-10.437
▁inställning	-10.4371
skär	-10.4375
såtgärder	-10.4376
▁personlighet	-10.4376
▁Ac	-10.438
▁Fil	-10.4381
avtalet	-10.4381
slagen	-10.4384
▁viktigare	-10.4388
ländsk	-10.439
▁400	-10.4391
▁globalt	-10.4393
ich	-10.4394
▁förflutna	-10.4395
▁Asien	-10.4395
sko	-10.4397
stick	-10.4399
▁avdelning	-10.4403
▁utvärdering	-10.4406
86	-10.4409
▁nä	-10.4414
▁mobila	-10.4419
49	-10.4425
▁volym	-10.4426
▁normala	-10.4429
▁urin	-10.4431
tyck	-10.4431
▁dödade	-10.4434
▁hinder	-10.4437
▁reglerna	-10.4443
ländska	-10.4444
▁Bill	-10.4447
▁bord	-10.4447
▁läsare	-10.4455
▁gåva	-10.4457
92	-10.4464
fulla	-10.4464
▁avgift	-10.4468
▁populär	-10.4473
▁tillfällen	-10.4474
▁korta	-10.4476
▁företagen	-10.4476
▁Hill	-10.4478
▁tacka	-10.4478
▁album	-10.4478
träff	-10.4479
fördraget	-10.4482
sektorn	-10.4484
▁komponenter	-10.4488
hä	-10.4488
▁Cla	-10.4492
▁lyssnar	-10.4493
▁lärde	-10.4495
fria	-10.4502
baserad	-10.4503
▁psykisk	-10.4503
▁månaden	-10.4504
▁människo	-10.4511
▁kvinnliga	-10.4515
▁Dra	-10.4517
tyder	-10.4517
skog	-10.4517
▁hemmet	-10.4518
▁tanken	-10.4518
▁Washington	-10.4521
▁inbjud	-10.4521
lement	-10.4522
▁utredning	-10.4522
▁Särskil	-10.4522
institut	-10.4524
vida	-10.4534
▁slav	-10.4534
▁arter	-10.4534
▁jämföra	-10.4535
diska	-10.454
▁tät	-10.4541
märke	-10.4542
▁övergång	-10.4545
hel	-10.4548
▁kraftfull	-10.4553
▁händerna	-10.4555
format	-10.4559
▁giltig	-10.4564
▁således	-10.4564
▁Ofta	-10.4565
▁akademisk	-10.4565
▁basera	-10.4567
▁avgöra	-10.4569
▁bekant	-10.4571
▁mängden	-10.4574
▁myndighet	-10.4575
▁Stra	-10.4577
▁Cre	-10.4578
▁patienten	-10.4578
källa	-10.4581
glar	-10.4582
kanal	-10.4582
▁spänning	-10.4585
leverantörer	-10.4587
▁investerings	-10.4588
▁rekommenderas	-10.4589
▁förneka	-10.4591
operativ	-10.4592
▁frid	-10.4597
▁Test	-10.4604
▁vuxen	-10.4607
▁klockan	-10.4607
ming	-10.4608
▁växte	-10.4615
▁fixa	-10.4616
▁plus	-10.4618
makt	-10.4618
▁ungdom	-10.4619
4)	-10.462
▁King	-10.4642
användare	-10.4646
▁ok	-10.4647
alitet	-10.4647
▁tak	-10.4648
row	-10.4648
▁hörn	-10.4649
▁William	-10.4649
▁kapitel	-10.4649
▁erbjudanden	-10.4651
▁rit	-10.4653
hjälp	-10.4656
▁Bilder	-10.4656
▁intresserade	-10.4659
ssystemet	-10.4661
▁tull	-10.4663
▁fiende	-10.467
relaterade	-10.4672
skärm	-10.4673
▁produktionen	-10.4681
▁investering	-10.4683
▁räknas	-10.4684
▁gälla	-10.4685
▁ligga	-10.4687
▁allvarligt	-10.4688
▁tenderar	-10.4693
▁Arbets	-10.4693
▁arbetade	-10.4693
▁hästar	-10.4697
▁lukt	-10.4697
döme	-10.4698
▁arbetat	-10.4705
▁erbjudande	-10.4706
▁kriterier	-10.4719
▁missbruk	-10.4719
▁Pan	-10.4723
▁block	-10.473
▁affär	-10.4732
▁tänder	-10.4744
ljus	-10.4746
▁gul	-10.4747
▁uppfatta	-10.4756
▁tillverkar	-10.4756
▁grann	-10.476
▁kämpar	-10.4762
partner	-10.4763
▁tron	-10.4765
▁medvetna	-10.4765
värm	-10.4766
tank	-10.4767
▁tung	-10.4768
▁pågår	-10.4774
▁beakta	-10.4774
hot	-10.4775
AD	-10.4777
BA	-10.4777
▁Bygg	-10.4779
▁observera	-10.4779
▁församling	-10.4782
▁dominera	-10.4783
75	-10.4789
▁hatar	-10.4789
▁kopp	-10.479
mis	-10.48
▁sjukdomen	-10.4803
▁katastrof	-10.4805
cho	-10.4808
▁seger	-10.4808
ure	-10.4812
LL	-10.4813
skrav	-10.4817
▁europeisk	-10.4819
▁landskap	-10.4822
▁pojke	-10.4823
▁mass	-10.4823
▁omvandla	-10.4823
▁killar	-10.4825
skå	-10.4826
▁satte	-10.4829
▁virus	-10.4829
marknad	-10.483
utrustning	-10.4831
examen	-10.4832
▁pop	-10.4836
arbeta	-10.4838
▁försäkra	-10.484
▁disk	-10.4845
▁Älskar	-10.4845
▁diabetes	-10.4847
då	-10.4848
ingenjör	-10.4851
▁kandidat	-10.4858
▁Amazon	-10.4867
▁utomlands	-10.4867
▁låna	-10.487
trafik	-10.4875
▁betrakta	-10.4877
▁längst	-10.4878
syra	-10.4882
▁startar	-10.4882
▁omfatta	-10.4884
▁noga	-10.4885
▁avsedda	-10.4888
EM	-10.4891
stil	-10.4899
▁samlas	-10.4899
▁tjänsten	-10.4899
▁Sex	-10.4901
RE	-10.4911
▁Grekland	-10.4911
▁School	-10.4911
▁övergripande	-10.4911
▁nöje	-10.4911
förfarande	-10.4919
▁150	-10.4922
efter	-10.4927
▁red	-10.4929
tagning	-10.4931
gav	-10.4931
När	-10.4932
▁vinnare	-10.4941
▁svårare	-10.4943
▁kommersiella	-10.4947
▁32	-10.495
skolan	-10.4953
▁täcker	-10.4955
▁konkurrenskraft	-10.4956
▁införa	-10.4959
▁gro	-10.496
▁not	-10.4962
▁praktiska	-10.4966
▁bedöma	-10.4971
68	-10.4972
växt	-10.4973
lation	-10.4974
▁Företag	-10.4975
inne	-10.4975
▁State	-10.4977
fast	-10.4981
▁välj	-10.4987
US	-10.4992
▁Rik	-10.4995
▁åsikter	-10.4997
▁Bay	-10.4999
▁drygt	-10.5
▁Bolaget	-10.5
▁muskler	-10.5
▁helvete	-10.5
▁Irak	-10.5
▁Uni	-10.5007
▁relaterade	-10.5007
▁undervisa	-10.5009
standard	-10.5009
sport	-10.501
▁mörka	-10.5011
cell	-10.5013
TM	-10.5014
▁serien	-10.5014
▁påverkas	-10.5015
▁lyckats	-10.5015
ED	-10.5016
▁syd	-10.502
▁förpackning	-10.502
▁konsult	-10.5021
▁Flyg	-10.5022
▁Kung	-10.5023
▁känslan	-10.5027
▁lin	-10.5028
▁beslutet	-10.5029
▁självständig	-10.503
▁datorer	-10.5032
olog	-10.5034
▁Lind	-10.5035
▁hjärtan	-10.5038
▁förväntar	-10.5042
▁appar	-10.5043
▁Trans	-10.5043
▁anläggning	-10.5044
▁försvinner	-10.5044
▁okej	-10.5044
▁världskriget	-10.5045
▁muskel	-10.5045
▁Pass	-10.5046
▁protest	-10.5046
▁Trä	-10.5049
▁flygplan	-10.505
▁avgifter	-10.5051
▁återställa	-10.5053
77	-10.5054
▁lagring	-10.5055
start	-10.5057
fritt	-10.5057
IC	-10.5064
▁onda	-10.5065
Han	-10.5066
tum	-10.5068
▁moral	-10.5068
▁erkänna	-10.5069
▁artist	-10.5077
▁rike	-10.5077
▁ämnet	-10.5079
▁vinster	-10.5083
▁långsiktig	-10.5089
▁inverkan	-10.5089
▁rykte	-10.5089
▁utrikes	-10.509
▁typisk	-10.509
▁→	-10.5091
▁förfaranden	-10.5091
▁unions	-10.5092
▁fara	-10.5094
▁Adam	-10.5094
▁varierar	-10.5104
▁Led	-10.5105
MS	-10.5109
▁Max	-10.5114
66	-10.5115
skrifter	-10.5118
IF	-10.5124
▁odla	-10.5127
▁översättning	-10.5127
▁begära	-10.5129
försörjning	-10.5134
▁järnväg	-10.5138
▁denne	-10.5138
mil	-10.5141
▁makten	-10.5142
▁förväg	-10.5142
folk	-10.5152
▁bestämde	-10.5158
▁stiga	-10.5158
▁rättvis	-10.516
bli	-10.516
▁fundera	-10.5161
▁Tour	-10.5162
▁sanna	-10.5169
▁examen	-10.517
▁spelaren	-10.5172
▁PC	-10.5175
bak	-10.5179
▁Social	-10.5179
▁kilometer	-10.5179
kunnig	-10.518
▁Föregående	-10.5181
kant	-10.5181
▁prestation	-10.5181
▁hävdar	-10.5182
▁religiösa	-10.5186
▁pålitlig	-10.519
▁frisk	-10.5192
▁utländska	-10.5195
▁Känn	-10.5198
▁Åh	-10.5201
47	-10.5203
▁North	-10.5203
▁saknas	-10.5206
tider	-10.521
▁femte	-10.5211
halt	-10.5212
▁fördelarna	-10.5212
80	-10.5218
▁Land	-10.5218
▁elektronisk	-10.5225
▁Central	-10.5225
▁Artikel	-10.5225
▁Forskning	-10.5225
▁spelarna	-10.5232
▁säkerheten	-10.5233
fal	-10.5234
▁motiv	-10.5236
▁kurser	-10.5242
▁slutade	-10.5249
▁minskning	-10.5251
▁användes	-10.5254
värdet	-10.5258
▁betraktas	-10.526
teckna	-10.5263
TT	-10.5267
trar	-10.5267
▁noggrant	-10.527
▁Las	-10.5272
▁vistelse	-10.5272
nnan	-10.5274
uv	-10.5276
▁100%	-10.5278
▁advokat	-10.5284
ball	-10.5284
▁faktor	-10.5285
▁policy	-10.5285
paket	-10.5286
▁ytterst	-10.5287
röv	-10.5287
▁Col	-10.5293
▁Liv	-10.5297
99	-10.5299
AP	-10.5302
▁förstöra	-10.5302
43	-10.5312
▁länkar	-10.5315
▁uppmanar	-10.5316
▁sovrum	-10.5316
▁hormon	-10.5316
▁ångest	-10.5316
▁representerar	-10.5317
▁flyttade	-10.5318
▁stängd	-10.5319
▁mötet	-10.5322
▁mår	-10.5323
▁naturlig	-10.5325
▁byggd	-10.5328
▁Au	-10.5334
▁Shi	-10.5335
▁stater	-10.5337
▁aktörer	-10.5339
▁expert	-10.534
▁enheten	-10.5344
▁okänd	-10.5344
Ja	-10.5344
▁sky	-10.5346
adress	-10.5347
kring	-10.5348
▁hårda	-10.5349
▁On	-10.535
▁institutioner	-10.535
▁militära	-10.5358
kostnad	-10.5361
SE	-10.5362
▁komplicera	-10.5362
▁optimal	-10.5362
▁Självklart	-10.5362
▁bebis	-10.5363
▁sträng	-10.5365
▁känslig	-10.5369
▁turist	-10.5371
▁röd	-10.5372
▁Matt	-10.5378
jo	-10.5391
▁revolution	-10.5393
▁havs	-10.5404
.....	-10.5405
▁Street	-10.5409
▁hustru	-10.5413
▁blockera	-10.5419
▁forum	-10.542
▁Carl	-10.5421
▁salt	-10.5422
kommit	-10.5423
▁Kal	-10.5426
taget	-10.5434
▁mm	-10.5435
83	-10.5435
studier	-10.5436
▁Play	-10.5437
skrivning	-10.5437
ställningar	-10.5444
bland	-10.5447
▁mobiltelefon	-10.5456
▁immun	-10.5457
65	-10.5458
▁sände	-10.5459
golv	-10.5463
cin	-10.5467
▁anledningar	-10.5468
▁accepterar	-10.5473
effektiv	-10.5486
win	-10.5486
▁människans	-10.5489
▁arg	-10.549
fång	-10.5493
▁blick	-10.5498
▁hävda	-10.55
butik	-10.55
▁tvätta	-10.5501
▁slutligen	-10.5501
▁fattigdom	-10.5502
▁shopping	-10.5502
▁överraska	-10.5503
41	-10.551
▁bokning	-10.5515
▁luften	-10.5516
forskning	-10.5517
▁låtar	-10.5521
▁mask	-10.5521
▁spåra	-10.5526
▁Dina	-10.553
▁jordbruks	-10.5533
▁drivs	-10.5534
▁1:	-10.5536
▁leg	-10.5538
▁boka	-10.5544
▁patent	-10.5549
▁House	-10.5549
▁Grund	-10.5549
▁gudomlig	-10.555
åring	-10.5557
▁tillfället	-10.5557
ÄR	-10.556
▁36	-10.5568
▁skyddar	-10.5572
69	-10.5575
▁årliga	-10.5579
45	-10.5581
▁socialt	-10.5585
▁American	-10.5591
▁Barcelona	-10.5596
▁tolv	-10.5596
märkning	-10.5596
▁bodde	-10.5597
▁täcka	-10.5597
sälj	-10.5597
▁begränsningar	-10.5598
▁anställning	-10.5598
udd	-10.5601
kvalitet	-10.5611
▁ombord	-10.5612
▁grundval	-10.5613
▁klarar	-10.5615
bol	-10.5616
▁unikt	-10.5618
▁Frågan	-10.5619
▁födelse	-10.5626
▁Säg	-10.5639
▁demokratisk	-10.564
ativa	-10.5641
@	-10.5643
▁möbler	-10.5643
▁Faktum	-10.5643
▁representant	-10.5643
▁Invest	-10.5644
▁dvs	-10.5644
▁springa	-10.5645
▁deltar	-10.565
älsk	-10.565
tog	-10.5653
givna	-10.5654
▁distribution	-10.5654
▁Ande	-10.5662
▁röster	-10.5666
datum	-10.5668
▁helgen	-10.5669
hög	-10.5673
▁specialisera	-10.5674
▁Dig	-10.5677
födda	-10.5679
▁present	-10.568
läpp	-10.5681
▁insikt	-10.5685
▁maskiner	-10.5688
▁förmågan	-10.5688
▁oerhört	-10.5691
▁vunnit	-10.5691
▁färre	-10.5691
▁muslimer	-10.5691
▁åkte	-10.5691
▁fåglar	-10.5702
▁yta	-10.5705
▁tjejer	-10.5706
▁sann	-10.5708
▁stannar	-10.5714
▁tunga	-10.5722
▁dam	-10.5723
▁rapporten	-10.5723
▁sängen	-10.5726
team	-10.5731
▁Wal	-10.5732
▁styrelse	-10.5736
laddning	-10.5738
▁Observera	-10.5739
▁sällsynt	-10.5739
▁Däremot	-10.5739
▁Volvo	-10.5739
▁inser	-10.574
▁slott	-10.5745
▁filosofi	-10.5748
35	-10.5748
ware	-10.5749
▁Sun	-10.5752
▁Alex	-10.5754
ini	-10.5757
▁station	-10.5758
72	-10.576
hin	-10.5763
▁magisk	-10.5768
▁stam	-10.5772
▁Im	-10.5777
▁konstruktion	-10.5777
▁VD	-10.5782
▁förblir	-10.5784
▁fysiskt	-10.5785
▁Musik	-10.5787
▁Program	-10.5788
▁hjärn	-10.5789
▁tolka	-10.5789
▁producerar	-10.5789
▁kal	-10.5796
▁kulturella	-10.5798
männen	-10.5806
▁drabbade	-10.5811
79	-10.582
SS	-10.5828
▁effekterna	-10.5828
▁Cy	-10.5829
ägg	-10.583
Re	-10.583
▁självmord	-10.5835
▁elektroniska	-10.5836
▁kreativa	-10.5838
▁åtagande	-10.5838
sjuk	-10.5839
▁1990	-10.584
fisk	-10.584
▁påverkan	-10.5842
▁gym	-10.5845
▁överenskommelse	-10.5847
▁Wall	-10.5849
skift	-10.5851
▁uppgifterna	-10.586
▁laglig	-10.5861
▁försökt	-10.5882
▁hamnar	-10.5884
▁flertal	-10.5884
á	-10.5884
▁Exempel	-10.5884
▁lösenord	-10.5884
▁godkänt	-10.5884
stift	-10.5885
box	-10.5888
▁bestämmelserna	-10.5888
Och	-10.5892
▁märkt	-10.5894
▁använd	-10.5896
▁real	-10.59
▁säkerställ	-10.59
lycka	-10.5901
▁vintern	-10.5906
tjänsten	-10.5912
▁framgångsrik	-10.5912
▁planering	-10.5915
▁uppsättning	-10.592
▁klassiska	-10.5921
▁Christ	-10.5924
▁instruktioner	-10.5929
▁existerar	-10.5931
▁representera	-10.5932
▁Programmet	-10.5934
sområdet	-10.5934
▁värderingar	-10.5935
▁Titta	-10.5938
▁peka	-10.5945
▁samhällen	-10.5955
▁industrin	-10.5967
vol	-10.5969
▁vetenskaplig	-10.597
alism	-10.5977
▁Green	-10.5978
▁bröder	-10.5978
▁smidig	-10.5982
▁fastställs	-10.5982
▁skogs	-10.5986
▁Daniel	-10.599
▁bilderna	-10.599
▁blind	-10.5991
▁|	-10.5992
▁2002	-10.5995
tjäna	-10.6001
▁markera	-10.6002
▁föll	-10.6004
An	-10.6006
▁Ob	-10.6011
▁vackert	-10.6016
▁hjälpte	-10.6016
▁flyga	-10.6019
▁blandning	-10.6019
▁resurs	-10.6023
bilder	-10.6026
▁kall	-10.6026
▁tekniken	-10.6027
företaget	-10.603
hall	-10.6031
▁Jerusalem	-10.6031
▁virtuell	-10.6031
▁South	-10.6031
känna	-10.6032
säkra	-10.6032
▁sorter	-10.6036
▁reserv	-10.6037
▁individuell	-10.6039
▁vänskap	-10.6042
krig	-10.6043
▁intressanta	-10.6047
▁revolutionen	-10.6047
slutning	-10.6052
▁kok	-10.6053
▁ban	-10.6056
tillstånd	-10.6058
▁politiskt	-10.6059
▁ikväll	-10.6059
CH	-10.606
▁praxis	-10.606
▁butiker	-10.6061
▁import	-10.607
person	-10.6071
▁entreprenör	-10.6074
▁beröm	-10.6077
▁doktor	-10.6078
givning	-10.608
▁general	-10.6081
▁exponering	-10.6081
23	-10.6081
▁Hos	-10.6082
▁kreditkort	-10.6083
priset	-10.6085
ekonomi	-10.6086
-3	-10.6093
▁Kristi	-10.6094
▁Ul	-10.6095
▁Gold	-10.6096
▁andas	-10.6098
▁skadade	-10.6099
familj	-10.61
die	-10.6111
duk	-10.6111
▁utöver	-10.6115
▁värden	-10.6115
59	-10.612
▁fans	-10.6123
▁stol	-10.6123
öva	-10.6124
▁allvar	-10.6125
▁Kalifornien	-10.613
▁tålamod	-10.613
ü	-10.613
▁söder	-10.613
▁75	-10.6132
▁tillfällig	-10.6133
▁Nä	-10.6134
▁norr	-10.614
▁Day	-10.6146
▁branschen	-10.6148
ulär	-10.615
automat	-10.6152
▁begrepp	-10.6156
▁träffar	-10.6159
▁språket	-10.616
▁skit	-10.6168
▁glömt	-10.617
▁tydliga	-10.6172
känd	-10.6178
▁misslyckas	-10.618
▁gruv	-10.6182
▁hjärna	-10.6182
▁genetisk	-10.6184
▁motsats	-10.6185
▁koll	-10.6187
▁annons	-10.6188
▁genomsnittliga	-10.6189
▁eftermiddag	-10.6189
varo	-10.6192
rygg	-10.6193
▁kraftigt	-10.6193
▁hunden	-10.6195
▁dikt	-10.6195
▁skickade	-10.6196
▁Följande	-10.6196
▁Game	-10.6197
vänlig	-10.6197
utveckla	-10.6202
myndigheten	-10.6203
▁övertyga	-10.6204
region	-10.6206
▁stopp	-10.6206
▁gränsen	-10.6211
▁Wo	-10.6214
serien	-10.6216
karna	-10.6221
▁artiklarna	-10.6223
▁fotbolls	-10.6223
▁spelat	-10.6226
lämna	-10.6226
▁biverkningar	-10.623
▁stimulera	-10.623
▁sönder	-10.623
▁fritid	-10.6231
▁jämn	-10.6231
▁Live	-10.6231
▁vitamin	-10.6232
EA	-10.6232
tagna	-10.6235
mitt	-10.6235
▁kameran	-10.6238
▁levererar	-10.6238
mmor	-10.624
▁kommersiell	-10.6241
stav	-10.6242
nätverk	-10.6245
▁kampen	-10.6247
▁Eli	-10.6251
medlem	-10.6251
undersökning	-10.6253
konst	-10.6254
▁hanterar	-10.6255
5%	-10.6256
▁uppmana	-10.6258
▁ab	-10.6269
▁industriell	-10.6272
bott	-10.6276
länderna	-10.6278
gle	-10.6278
▁lovar	-10.6279
▁meddelanden	-10.628
▁Övrig	-10.6281
▁golf	-10.6281
▁ekologisk	-10.6282
▁texten	-10.6283
”)	-10.6283
▁existera	-10.6286
▁våga	-10.629
▁erkänd	-10.629
▁tabell	-10.6293
0.000	-10.63
▁krafter	-10.6302
▁sänk	-10.6302
▁antar	-10.6309
▁bakterier	-10.631
▁slutföra	-10.6316
▁Livet	-10.6316
▁torka	-10.632
▁Sv	-10.6328
▁konsert	-10.6332
▁tjock	-10.6333
▁klient	-10.6334
leverantör	-10.6334
▁universitetet	-10.6339
5)	-10.6342
82	-10.6342
▁fader	-10.6343
▁Medlemsstaterna	-10.6343
▁produkterna	-10.6344
▁Grand	-10.6346
▁noll	-10.6347
kunskap	-10.6354
▁By	-10.6356
▁jäm	-10.6365
▁kemiska	-10.6375
▁garanterar	-10.6377
▁frö	-10.6379
63	-10.638
▁förbättring	-10.6382
jag	-10.6382
▁Museum	-10.6383
▁besvär	-10.6383
kamrat	-10.6384
▁omgivning	-10.6384
mässigt	-10.6384
▁gärning	-10.6386
▁Johan	-10.6386
▁Tru	-10.6388
▁potentiell	-10.6395
▁däck	-10.6395
▁Total	-10.6397
tech	-10.6397
▁köpare	-10.6399
▁AI	-10.6401
lie	-10.6405
▁drabbas	-10.6405
▁Sand	-10.6407
▁nord	-10.6408
blick	-10.641
▁medverka	-10.6414
▁imorgon	-10.6423
▁Rock	-10.6427
▁Science	-10.6434
▁jävla	-10.6434
▁show	-10.6434
▁dejting	-10.6434
▁Power	-10.6434
bon	-10.6434
▁Ci	-10.6434
▁kontant	-10.6435
▁begå	-10.6438
▁Jord	-10.6439
▁kvinnorna	-10.6443
▁jä	-10.6447
last	-10.6447
▁kvartalet	-10.6449
▁Kort	-10.6451
▁begränsade	-10.6457
figur	-10.6458
fullt	-10.6462
▁vikten	-10.6463
▁infektion	-10.6463
▁Målet	-10.6464
▁kamera	-10.6472
SI	-10.6473
▁italienska	-10.6476
▁friska	-10.6479
▁hållbara	-10.6481
▁Webbplats	-10.6486
▁misstänkt	-10.6486
▁tycks	-10.6488
▁bloggen	-10.6493
▁attraktiv	-10.6494
▁strand	-10.6508
▁versioner	-10.651
▁Sara	-10.6513
▁sexuella	-10.6513
▁genomförande	-10.6519
kedjan	-10.6525
▁författaren	-10.6526
▁individuella	-10.6529
organisationer	-10.6534
▁eventuellt	-10.6535
^	-10.6537
▁konstruera	-10.6538
▁fastighets	-10.6538
▁intryck	-10.6538
▁skilja	-10.6541
▁föds	-10.6542
▁skärmen	-10.6547
▁partnerskap	-10.6548
▁finansiell	-10.6551
▁satsning	-10.6552
▁komplexa	-10.6556
städer	-10.6558
åldern	-10.656
▁Hal	-10.6561
▁uttrycka	-10.6561
▁trygghet	-10.6565
strid	-10.6566
▁höja	-10.6571
▁lagras	-10.6571
▁näst	-10.6575
▁försvars	-10.6579
▁skyldigheter	-10.658
▁Act	-10.6581
▁Polen	-10.6582
▁neuro	-10.6585
▁lan	-10.6586
▁röka	-10.6586
▁Fem	-10.6589
▁Ytterligare	-10.6589
▁dynamisk	-10.6589
▁ordentligt	-10.6589
▁ursprungligen	-10.6591
▁antog	-10.6594
6)	-10.6596
▁Cu	-10.6598
▁bryter	-10.6603
jord	-10.6604
▁terrorist	-10.6605
sprojekt	-10.6605
▁statliga	-10.6605
▁koppling	-10.6607
▁tittade	-10.661
▁förändrats	-10.6613
▁råder	-10.6624
vandring	-10.6626
▁Ali	-10.6632
▁dyk	-10.6633
▁orätt	-10.6638
28	-10.6639
kväll	-10.6639
▁noggrann	-10.6642
▁intelligens	-10.6642
▁tolkning	-10.6642
▁fantasi	-10.6642
▁torsdag	-10.6642
▁Frank	-10.6642
▁anpassning	-10.6642
▁fukt	-10.6642
▁gynna	-10.6642
▁nått	-10.6643
▁grej	-10.6644
▁konstigt	-10.6652
▁vägra	-10.6655
09	-10.6662
▁tillgänglighet	-10.6663
▁flygplatsen	-10.6666
▁gräs	-10.6668
balans	-10.6671
▁fack	-10.6675
▁utmana	-10.6675
gh	-10.6675
▁presentation	-10.6677
▁fångar	-10.6678
▁sc	-10.6679
▁teckna	-10.668
▁övertygad	-10.6684
▁Anti	-10.6686
▁Fort	-10.6686
▁frekvens	-10.6687
▁specifik	-10.6689
▁flyktingar	-10.6693
▁seriös	-10.6694
▁konkret	-10.6694
▁akut	-10.6695
▁insättning	-10.6697
▁badrum	-10.6699
▁Don	-10.67
qu	-10.6701
▁Syn	-10.6712
▁sug	-10.6713
ryck	-10.6714
▁mal	-10.6717
▁bearbeta	-10.672
▁Jorden	-10.6722
BS	-10.6729
fred	-10.6729
▁grekiska	-10.6731
▁strävar	-10.6733
▁Lev	-10.6735
trä	-10.674
▁intern	-10.674
▁gam	-10.6741
▁Harry	-10.6742
▁nämna	-10.6747
▁Irland	-10.6748
▁bredvid	-10.6748
▁radera	-10.6749
▁hållet	-10.6753
▁webbläsare	-10.6753
▁III	-10.6755
▁skapelse	-10.6756
▁hösten	-10.6758
▁Mamma	-10.6759
nöt	-10.6763
▁jakt	-10.6764
▁Cap	-10.6767
▁offentligt	-10.6769
▁undvik	-10.677
konferens	-10.6774
▁tillämpliga	-10.6775
▁pri	-10.6777
▁termin	-10.6778
lunda	-10.6782
cil	-10.6783
index	-10.6783
innehåll	-10.6784
meter	-10.679
aff	-10.6795
▁fågel	-10.6796
▁köket	-10.6799
▁kronisk	-10.6801
▁tillförlitlig	-10.6802
substans	-10.6803
nämnd	-10.6806
▁förmedla	-10.6807
▁anledningen	-10.681
▁Chan	-10.681
oxid	-10.6815
behåller	-10.6824
▁personligt	-10.6824
▁fulla	-10.6825
▁närings	-10.6827
07	-10.6836
08	-10.684
48	-10.6841
▁tillsyn	-10.6842
▁tu	-10.6848
▁hypo	-10.6853
▁fenomen	-10.6854
molekyl	-10.6854
▁dricker	-10.6854
▁integration	-10.6854
▁Njut	-10.6855
▁stycken	-10.6856
▁blodtryck	-10.6857
▁slit	-10.6858
▁tum	-10.686
▁rulla	-10.6862
▁pågående	-10.6862
▁förklarade	-10.6864
steg	-10.6866
▁Juli	-10.6867
▁allvarlig	-10.6869
▁arkitektur	-10.6873
▁integrerad	-10.6878
kräm	-10.6885
▁styrelsen	-10.6885
▁Inc	-10.6886
skaffa	-10.689
uri	-10.6891
ifier	-10.6905
▁HERREN	-10.6908
▁ansåg	-10.6908
▁regionala	-10.6911
▁minnen	-10.6912
postadress	-10.6913
▁känslomässig	-10.6914
fältet	-10.6918
▁förutsättning	-10.6919
▁passagerare	-10.692
▁Allah	-10.6928
▁kallt	-10.6931
▁transaktioner	-10.6934
dokument	-10.6937
▁rock	-10.6937
▁transaktion	-10.6937
kris	-10.6944
▁justera	-10.6946
▁berättelser	-10.6946
▁Sport	-10.695
logi	-10.6954
▁förbli	-10.6954
CO	-10.6956
▁följt	-10.6956
lli	-10.6958
▁säljs	-10.6961
▁fjärr	-10.6962
▁Kärlek	-10.6962
▁Thomas	-10.6962
▁oändlig	-10.6962
▁kommentera	-10.6963
▁medvetande	-10.6963
▁web	-10.6963
ologisk	-10.6964
▁Fly	-10.6964
▁tillämpningen	-10.6967
▁1999	-10.6968
▁omedelbar	-10.6973
▁skott	-10.6975
▁enskild	-10.6976
MI	-10.6976
74	-10.6977
▁Leo	-10.6977
zo	-10.698
OL	-10.6984
▁dyra	-10.6984
platsen	-10.6985
▁koncentration	-10.6986
▁1000	-10.6987
princip	-10.6992
Hur	-10.6994
▁nordisk	-10.6998
besök	-10.6999
▁signal	-10.7001
rörelsen	-10.7002
▁hjul	-10.7003
ever	-10.7003
▁best	-10.7005
NS	-10.7011
▁Richard	-10.7016
▁anonym	-10.7016
▁reducera	-10.7016
▁utvalda	-10.7016
▁uppenbart	-10.7017
▁givetvis	-10.7017
▁sånt	-10.7019
▁klänning	-10.702
▁öron	-10.7022
▁bomb	-10.7026
central	-10.7032
87	-10.7035
▁biljett	-10.7036
serie	-10.7038
33	-10.7045
kläder	-10.7046
▁utmärk	-10.7048
73	-10.7049
▁baserade	-10.7049
▁Anders	-10.7052
▁förbättrar	-10.7052
▁ordna	-10.7053
▁motsatt	-10.7054
▁tvist	-10.7061
▁kreativ	-10.7062
gräv	-10.7063
▁specifikt	-10.7063
▁Web	-10.7066
▁konsumenter	-10.7068
▁parterna	-10.707
▁nivån	-10.707
administration	-10.7071
▁vädret	-10.7071
▁Vatten	-10.7071
▁omsorg	-10.7073
arbetare	-10.7075
▁ränta	-10.708
▁effekten	-10.7081
hopp	-10.7084
▁logga	-10.7084
▁konsumenterna	-10.7085
prövning	-10.7088
▁Hall	-10.7092
▁gillade	-10.7092
▁gjorda	-10.7097
AL	-10.7099
▁marin	-10.7101
sjö	-10.7103
32	-10.7106
värdering	-10.711
▁helig	-10.7112
▁Svenska	-10.7113
71	-10.7113
▁föreställning	-10.7115
hållning	-10.7116
▁region	-10.7116
fäst	-10.7122
▁presenterar	-10.7124
▁användarna	-10.7124
▁framgångsrikt	-10.7125
▁territorium	-10.7126
▁Royal	-10.7126
▁radikal	-10.7126
överensstämmelse	-10.7126
▁inuti	-10.7126
▁stränder	-10.7126
▁långsiktiga	-10.7127
▁blodet	-10.713
issa	-10.7131
▁åsikt	-10.7132
▁rättigheterna	-10.7133
98	-10.7138
▁US	-10.7138
▁brukade	-10.7139
▁dött	-10.7143
energi	-10.7146
politisk	-10.7157
▁SS	-10.7158
▁kroppar	-10.7169
37	-10.7169
▁aning	-10.717
▁skyldighet	-10.7171
musik	-10.7171
▁Bla	-10.7174
krets	-10.7177
KA	-10.7178
▁Undvik	-10.7181
▁förälder	-10.7181
▁humör	-10.7181
▁skämt	-10.7181
neutral	-10.7181
▁evigt	-10.7181
distrikt	-10.7182
▁imponerande	-10.7184
▁Typ	-10.7186
▁nödvändigtvis	-10.7188
fält	-10.7189
▁skogen	-10.7189
▁anställd	-10.7195
▁färd	-10.7196
vägg	-10.7199
▁håret	-10.7206
cancer	-10.7213
hastighet	-10.7213
▁samlade	-10.7213
▁Person	-10.7214
▁nöjda	-10.722
▁Utöv	-10.722
▁administrativa	-10.7221
schef	-10.7222
tori	-10.7226
▁Vidare	-10.7227
▁partiet	-10.7232
▁kollektiv	-10.7236
▁koncentrera	-10.7237
▁tvätt	-10.7238
gal	-10.724
umma	-10.7244
iell	-10.7245
▁event	-10.7246
▁praktiskt	-10.7255
▁33	-10.7256
betalning	-10.7256
▁betona	-10.7266
klubb	-10.7268
▁kostnaderna	-10.727
amerikan	-10.7272
▁Nation	-10.7275
▁uppskattar	-10.7275
▁flyttar	-10.7277
kontroller	-10.7278
▁pröva	-10.728
▁Antal	-10.7281
▁lett	-10.7283
▁bekräftar	-10.7287
flo	-10.7289
▁Video	-10.729
cing	-10.729
▁Sin	-10.729
fekt	-10.729
▁League	-10.7292
▁Nederländerna	-10.7292
¤	-10.7292
▁småningom	-10.7292
▁smartphone	-10.7293
bereder	-10.7296
▁Steve	-10.7297
styrning	-10.7298
bul	-10.7299
58	-10.73
▁Året	-10.7306
27	-10.731
▁steget	-10.7311
krav	-10.7314
▁strukturer	-10.7317
▁utgång	-10.7321
▁tele	-10.7324
behov	-10.7326
▁upptäcker	-10.7327
teknologi	-10.7327
▁väggar	-10.7328
▁begränsat	-10.7332
nivån	-10.7333
▁tredjedel	-10.7338
▁foton	-10.7338
▁regioner	-10.7338
▁månaderna	-10.7341
▁skådespelare	-10.7346
▁skugg	-10.7349
apparat	-10.7349
▁släpper	-10.7349
▁chock	-10.7351
▁Cam	-10.7352
▁varumärken	-10.7352
seende	-10.7352
vän	-10.7353
▁Fre	-10.7354
▁variant	-10.7356
▁undersökningar	-10.7366
▁interna	-10.7366
▁beställa	-10.7367
▁destination	-10.737
▁600	-10.7371
färd	-10.7378
lagstiftning	-10.7384
76	-10.7387
▁gener	-10.7387
")	-10.7392
▁medvetenhet	-10.7393
▁titeln	-10.7399
36	-10.74
▁Också	-10.7405
▁tjugo	-10.7405
▁funkar	-10.7405
▁numera	-10.7406
▁Råd	-10.7406
▁återförsäljare	-10.7406
▁stämmer	-10.7406
massa	-10.7407
▁Väg	-10.7408
▁;)	-10.7409
▁stödjer	-10.7409
▁släpptes	-10.7414
gren	-10.7426
▁intäkter	-10.7427
▁berättiga	-10.7428
▁besökte	-10.7431
klocka	-10.7434
meddelande	-10.7437
▁skönt	-10.7442
▁kombinerar	-10.745
▁last	-10.7454
▁mätning	-10.746
▁mäktig	-10.7462
▁ömsesidig	-10.7462
▁försvinna	-10.7462
▁yoga	-10.7462
▁snälla	-10.7462
▁Annars	-10.7464
▁arbetstagare	-10.7466
▁långsamt	-10.7466
▁påpeka	-10.747
fartyg	-10.747
62	-10.7471
▁stjärna	-10.7471
▁Tele	-10.7472
▁bortom	-10.7478
▁svårigheter	-10.7479
▁PS	-10.748
▁samarbets	-10.7483
▁Un	-10.7486
▁OS	-10.7487
▁strategier	-10.749
▁Stora	-10.7492
▁överstig	-10.75
cykel	-10.75
▁kyrka	-10.7502
▁genomförandet	-10.7506
▁alternativet	-10.7513
▁praktiken	-10.7514
▁lust	-10.7515
▁generationer	-10.7517
TC	-10.7518
▁onödig	-10.7519
▁komfort	-10.7519
▁reaktioner	-10.752
▁dörrar	-10.7521
▁tycka	-10.7523
▁titt	-10.7524
▁uppdatering	-10.7526
▁MS	-10.7528
▁CO	-10.7528
▁Tycke	-10.7531
räv	-10.7532
▁Ställ	-10.7535
▁tillhandahålls	-10.7537
▁poly	-10.7538
04	-10.7539
▁Resultat	-10.7543
▁kliniska	-10.7545
▁pratade	-10.7546
▁vänder	-10.755
instrument	-10.7555
samhälle	-10.7555
▁externa	-10.7555
▁driv	-10.7557
▁ändrar	-10.756
▁stolta	-10.756
▁lyfta	-10.7562
▁Market	-10.7564
▁Cal	-10.7565
▁inleda	-10.7566
kräft	-10.7576
▁tvivel	-10.7577
▁slump	-10.7577
▁släpps	-10.7577
▁belöning	-10.7577
▁färsk	-10.7578
61	-10.7579
▁besvara	-10.7579
▁vanligen	-10.7581
▁Filmen	-10.7583
▁olycka	-10.7583
▁titel	-10.7583
▁ansiktet	-10.7584
begränsning	-10.7584
gul	-10.7584
sidor	-10.7586
▁Mill	-10.7587
▁ankomst	-10.7588
▁penning	-10.7591
▁ideal	-10.7592
▁överlämna	-10.7593
▁verkade	-10.7594
hon	-10.7595
▁Gran	-10.76
▁civila	-10.7601
▁höj	-10.7602
värden	-10.7602
26	-10.7602
kopplad	-10.7604
▁upplevelser	-10.7606
fog	-10.7614
Alla	-10.7614
genom	-10.7617
▁kallat	-10.7619
31	-10.7625
skola	-10.7626
▁applikationer	-10.7628
▁Män	-10.7631
▁tillfälligt	-10.7632
▁choklad	-10.7634
▁Familj	-10.7634
▁hundratals	-10.7634
certifikat	-10.7635
▁troende	-10.764
▁strål	-10.764
▁konung	-10.7642
bilar	-10.7643
▁tidig	-10.7644
▁tänkande	-10.7645
▁stabilitet	-10.7653
▁droger	-10.7655
temot	-10.7658
▁Dagens	-10.7659
▁Stan	-10.7661
kriget	-10.7662
gud	-10.7664
▁Berg	-10.7664
▁varelser	-10.7665
bolaget	-10.7665
▁Free	-10.7666
▁övning	-10.7667
personal	-10.7671
ökning	-10.7677
▁förebygga	-10.768
kommitté	-10.768
vagn	-10.7686
▁pump	-10.7687
▁CD	-10.7691
vir	-10.7692
prognos	-10.7693
glasögon	-10.7693
▁Hor	-10.7693
▁tablett	-10.7693
▁återigen	-10.7693
▁beundra	-10.7693
▁baby	-10.7694
▁onsdag	-10.7695
▁huvudsakliga	-10.7697
ward	-10.7699
spår	-10.7702
▁kvalificerad	-10.7713
▁följ	-10.7714
▁omfattning	-10.7715
▁sover	-10.7718
▁Form	-10.7721
▁tvekan	-10.7721
▁inneha	-10.7722
middag	-10.7723
konvention	-10.7731
present	-10.7731
▁Real	-10.7734
▁billiga	-10.7735
▁läkar	-10.7736
▁enorma	-10.7739
sfär	-10.7743
funktioner	-10.7744
▁mottagare	-10.7745
▁huvudsak	-10.7745
IP	-10.7746
▁festival	-10.7746
▁klagomål	-10.7751
▁kollegor	-10.7751
▁smuts	-10.7751
▁Next	-10.7751
▁levde	-10.7752
▁tillåtet	-10.7753
▁kraftfulla	-10.7758
▁Karl	-10.776
ING	-10.7761
effekt	-10.7767
▁Bio	-10.7767
beslut	-10.7769
qua	-10.777
▁konsumtion	-10.7773
▁sparar	-10.7778
53	-10.778
▁dramatisk	-10.7783
▁Camp	-10.7784
▁träffat	-10.7785
server	-10.7786
känsla	-10.779
drift	-10.7792
längd	-10.7797
▁Mose	-10.7803
▁faktiska	-10.781
▁Texas	-10.781
▁tävla	-10.781
[1]	-10.781
▁överträdelse	-10.781
▁Nå	-10.7813
▁teater	-10.7814
olja	-10.7815
▁DNA	-10.7815
90	-10.7816
▁skön	-10.7817
▁behörighet	-10.7818
från	-10.782
udi	-10.7821
▁Berlin	-10.7825
▁Kap	-10.7828
▁ansvariga	-10.7831
▁löne	-10.7838
▁farligt	-10.7838
▁redovisning	-10.7841
▁kostnaden	-10.7843
▁klubben	-10.7844
▁behandlingar	-10.7845
▁sänka	-10.7845
saker	-10.7845
DE	-10.7851
▁soldater	-10.7852
▁sända	-10.7853
straff	-10.7854
▁skadliga	-10.7854
källor	-10.7856
▁damm	-10.7857
blå	-10.7858
hållande	-10.786
▁staterna	-10.7867
▁legitim	-10.7869
▁Skillnad	-10.7869
▁anklaga	-10.7869
▁High	-10.787
▁tisdag	-10.787
▁Ännu	-10.787
▁Död	-10.7871
▁redovisa	-10.7873
▁liknar	-10.7874
▁Beach	-10.7876
▁underhållning	-10.7877
▁sim	-10.788
▁Cra	-10.7883
▁föräldrarna	-10.7886
▁tysk	-10.7887
▁undra	-10.7887
museet	-10.7887
▁utarbeta	-10.7889
▁gäng	-10.789
▁talang	-10.789
kommen	-10.789
▁minnas	-10.7896
▁kategorier	-10.7898
▁angiv	-10.7905
▁48	-10.7908
▁kemikalier	-10.791
stock	-10.7912
▁delade	-10.7914
▁Går	-10.7914
kapital	-10.7916
▁registrerade	-10.7922
video	-10.7923
olyckor	-10.7928
▁Digital	-10.7929
▁Speciell	-10.793
▁Sätt	-10.793
▁manuell	-10.7931
▁specialist	-10.7935
▁upphovsrätt	-10.7936
▁frys	-10.7937
▁§	-10.7938
dlar	-10.7938
ouch	-10.794
syndrom	-10.7943
▁förebyggande	-10.7944
work	-10.7946
märken	-10.7948
brev	-10.7948
▁sysselsättning	-10.795
policy	-10.7968
boll	-10.7974
▁skala	-10.7974
ändring	-10.7978
▁andliga	-10.7986
mäl	-10.7988
▁främmande	-10.7988
▁sämre	-10.7988
▁intelligent	-10.7988
▁existens	-10.7988
▁schema	-10.7989
▁avkastning	-10.799
▁genast	-10.7992
▁mystisk	-10.7993
▁ansöka	-10.7997
▁Gal	-10.7997
▁skepp	-10.7999
▁Sim	-10.8
▁pan	-10.8002
▁Mål	-10.8002
▁anläggningar	-10.8003
▁avsnittet	-10.8005
not	-10.8005
▁skett	-10.8014
▁Ford	-10.8017
▁tillämplig	-10.8017
▁aktuell	-10.8018
spelet	-10.8018
▁nätter	-10.802
förbrukning	-10.8023
▁Redan	-10.8023
▁bloggar	-10.8033
▁institut	-10.8038
▁materialet	-10.8043
▁rolig	-10.8044
▁konsekvent	-10.8049
▁sannolikhet	-10.8049
▁optimera	-10.8049
▁framförallt	-10.8049
▁minoritet	-10.8049
▁uppvärmning	-10.8049
▁Blue	-10.8049
▁penis	-10.805
▁Smart	-10.805
▁inbyggd	-10.805
▁isolera	-10.8051
▁återbetalning	-10.8051
▁Berätta	-10.8052
▁förnybar	-10.8052
▁rött	-10.8058
▁kontrollerar	-10.8059
▁reagera	-10.806
▁cool	-10.806
koncernen	-10.8061
▁Problemet	-10.8066
ative	-10.8077
▁utforma	-10.8082
▁tjänare	-10.8085
räd	-10.8089
flyg	-10.809
▁domare	-10.8092
▁parlamentet	-10.8098
▁frakt	-10.8099
▁negativ	-10.8103
▁järn	-10.8107
▁Smith	-10.8109
▁·	-10.811
▁strax	-10.8111
▁glömmer	-10.8111
▁sakna	-10.8115
▁Big	-10.8115
▁Award	-10.8117
▁duktig	-10.812
▁May	-10.8126
▁summa	-10.8127
▁lung	-10.8132
▁Lång	-10.8133
modeller	-10.8138
▁idealisk	-10.8138
värt	-10.8139
pack	-10.8145
koppling	-10.8152
hälsa	-10.8152
▁förhandlingar	-10.8156
trans	-10.8159
▁japanska	-10.8161
▁lura	-10.8163
▁Förstå	-10.8167
▁konkurrent	-10.817
▁obehag	-10.817
▁dygn	-10.817
▁reflektera	-10.817
▁överraskning	-10.817
▁United	-10.817
▁hellre	-10.817
▁drabba	-10.817
▁nätverket	-10.817
▁Ljus	-10.8171
▁tonåring	-10.8171
▁fö	-10.8172
▁rikedom	-10.8172
▁angående	-10.818
▁Kontrollera	-10.8183
▁flöde	-10.8185
▁tystnad	-10.8188
▁99	-10.819
▁HD	-10.8196
▁bekvämt	-10.8205
brist	-10.8207
▁fiender	-10.8209
lott	-10.821
▁motståndare	-10.8211
▁protokoll	-10.8213
▁inträffar	-10.8215
▁positioner	-10.8217
ansvarig	-10.8218
▁höst	-10.8219
▁Spelar	-10.8221
▁byn	-10.8224
lön	-10.8225
Mo	-10.8226
▁svär	-10.8227
▁Afghanistan	-10.8232
▁Världs	-10.8232
▁eliminera	-10.8232
▁Student	-10.8232
▁irritera	-10.8232
▁reparation	-10.8232
▁ISO	-10.8233
▁inställningar	-10.8233
▁skicklig	-10.8234
▁mynt	-10.8234
▁ved	-10.8236
▁objektiv	-10.8239
▁Mak	-10.8239
▁Paulus	-10.8239
▁(1)	-10.8241
▁Personlig	-10.8247
▁ingå	-10.8251
itch	-10.8254
▁spridning	-10.8254
hö	-10.8261
▁meddelade	-10.8262
skilda	-10.8263
▁avsedd	-10.8264
▁Jesu	-10.827
kampanj	-10.8275
▁kortare	-10.8277
▁Start	-10.8285
utan	-10.8285
▁bett	-10.8288
▁förnya	-10.8291
29	-10.8291
avdelning	-10.8291
▁simma	-10.8293
▁expandera	-10.8293
▁visuell	-10.8293
▁Ung	-10.8294
▁cykla	-10.8297
röst	-10.8303
▁Fortsätt	-10.8305
▁billigare	-10.8306
▁anger	-10.8306
▁bedrägeri	-10.8309
▁betyg	-10.831
▁turister	-10.8311
▁Mid	-10.8316
▁37	-10.8319
ägarna	-10.8323
▁osäker	-10.8323
assi	-10.8329
▁biljetter	-10.8329
▁negativt	-10.8331
skillnad	-10.8338
läcka	-10.8342
▁65	-10.8342
ndra	-10.8342
▁förvånad	-10.8344
nnie	-10.8348
personer	-10.8348
förordningen	-10.8349
▁arrangera	-10.8355
▁pojkar	-10.8355
▁sällskap	-10.8355
▁[-]	-10.8356
▁smält	-10.8356
▁uppgradera	-10.8356
▁Ändå	-10.8356
field	-10.8356
▁praktik	-10.8361
▁arbetsmarknad	-10.8361
▁uttala	-10.8361
▁rörlighet	-10.8362
▁Möt	-10.8362
bre	-10.8366
▁gu	-10.8367
scen	-10.8377
äkta	-10.8381
processer	-10.8387
▁Opera	-10.8389
använd	-10.8392
▁dörr	-10.8396
▁etablerade	-10.84
rap	-10.8413
▁Risk	-10.8414
▁kongress	-10.8418
▁gjord	-10.8418
▁grönsaker	-10.8418
▁operativsystem	-10.8419
väsen	-10.8419
▁Slutligen	-10.8419
▁mineral	-10.8421
▁imperi	-10.8424
▁Fall	-10.8435
stämning	-10.8437
▁Undra	-10.8437
fest	-10.8437
▁råka	-10.844
▁måltid	-10.8441
▁Zo	-10.8442
▁Ze	-10.8443
▁Spi	-10.8445
▁juridisk	-10.8452
▁därifrån	-10.8454
ush	-10.846
=	-10.8464
range	-10.8468
▁fran	-10.847
lossning	-10.8473
▁citat	-10.8478
▁Schweiz	-10.8481
▁litteratur	-10.8481
▁Ukraina	-10.8481
▁däribland	-10.8481
▁check	-10.8481
put	-10.8482
Min	-10.8486
▁harmoni	-10.8487
▁42	-10.8491
▁inrikta	-10.8496
▁fyr	-10.8497
▁kära	-10.8497
▁studenterna	-10.8499
▁ständig	-10.851
▁balansera	-10.8512
▁klinisk	-10.8516
kommissionen	-10.8517
mail	-10.8519
▁tränare	-10.8519
▁Spela	-10.852
▁barndom	-10.8522
medlemmar	-10.8525
bal	-10.8528
▁sektorn	-10.8536
mekanism	-10.8537
▁Väl	-10.8539
▁högkvalitativ	-10.8544
▁granskning	-10.8544
▁arkiv	-10.8544
▁Upptäck	-10.8544
▁liberal	-10.8544
▁toalett	-10.8544
▁redigera	-10.8544
▁livslängd	-10.8545
▁såklart	-10.8545
▁Johannes	-10.8545
▁skörd	-10.8546
▁strikt	-10.8548
▁storm	-10.8551
▁Film	-10.8551
löshet	-10.8552
▁konstant	-10.8555
▁amerikaner	-10.8558
▁bostad	-10.8563
varor	-10.8572
▁tidningen	-10.8573
▁erkännande	-10.8579
▁styrkor	-10.8581
▁Op	-10.8584
▁officiellt	-10.8586
▁förvalta	-10.8589
hälso	-10.8592
▁floden	-10.8594
▁ansträngningar	-10.8595
itation	-10.8599
well	-10.8605
arrangemang	-10.8608
▁ambition	-10.8608
▁kalorier	-10.8608
▁slutändan	-10.8608
▁Centre	-10.8608
▁försvann	-10.8608
▁föreskrivs	-10.8608
▁kärnvapen	-10.8608
▁spegla	-10.861
▁förekommande	-10.861
▁Tjänste	-10.8614
TV	-10.8614
tagarna	-10.8617
▁räknar	-10.8619
▁psykolog	-10.8625
▁disciplin	-10.8632
lätt	-10.8634
▁packa	-10.8638
▁lade	-10.8639
▁Resultatet	-10.8645
▁geo	-10.8648
beroende	-10.8651
ville	-10.8653
profil	-10.866
▁Kam	-10.866
▁Mass	-10.8668
▁dubbla	-10.867
▁prioritera	-10.8672
▁www	-10.8672
▁överlevnad	-10.8672
▁pilot	-10.8672
▁stycket	-10.8673
▁Malmö	-10.8673
▁blott	-10.8675
▁signaler	-10.8681
▁jämför	-10.8684
atorisk	-10.8686
▁ängel	-10.8689
▁mång	-10.8693
▁transportera	-10.8703
fan	-10.8709
andra	-10.8712
▁kosta	-10.8713
▁reglering	-10.8715
▁Kong	-10.8717
fonden	-10.8721
▁ögat	-10.8726
stycke	-10.873
▁presenterade	-10.8731
▁jämställdhet	-10.8736
▁konsumera	-10.8736
▁nyfiken	-10.8736
▁påminner	-10.8737
▁←	-10.8738
▁välkommen	-10.874
båt	-10.8742
▁34	-10.8747
▁sov	-10.8747
▁ytan	-10.8754
LI	-10.8755
▁anlände	-10.8757
▁meta	-10.8764
▁romantisk	-10.8766
55	-10.877
▁stilla	-10.878
▁trådlös	-10.8782
▁grip	-10.8784
96	-10.8784
gjort	-10.8785
«	-10.8787
▁riskerar	-10.8794
▁auto	-10.8797
▁Naturligtvis	-10.8801
▁Regissör	-10.8801
▁välbefinnande	-10.8801
▁College	-10.8801
▁federal	-10.8801
belopp	-10.8802
▁minimera	-10.8802
▁kniv	-10.8802
▁tj	-10.8803
media	-10.8804
▁250	-10.8805
▁utgifter	-10.8806
▁Open	-10.8807
bädd	-10.8809
▁tvär	-10.8811
vek	-10.8812
åtgärd	-10.8818
▁stäm	-10.882
▁bibehåll	-10.882
▁populärt	-10.882
▁Fan	-10.8827
▁vilda	-10.8829
▁anfall	-10.883
▁platt	-10.8831
38	-10.8832
vitt	-10.8834
▁rapporterade	-10.8837
57	-10.8843
märkt	-10.8843
pal	-10.8848
▁männen	-10.885
▁judiska	-10.8853
▁avslöjar	-10.8857
bildning	-10.8857
▁utformat	-10.8858
sektion	-10.886
▁ökande	-10.886
▁Media	-10.8865
inflammation	-10.8867
▁INTE	-10.8867
▁Internationella	-10.8867
▁Jämför	-10.8867
▁Thailand	-10.8867
▁innefattar	-10.8867
▁flaska	-10.8867
▁Islam	-10.8868
MO	-10.8875
▁grym	-10.8876
▁parlament	-10.8879
''	-10.888
▁attityd	-10.8889
▁öga	-10.889
▁bestående	-10.8898
▁släng	-10.8899
▁säljare	-10.8915
vu	-10.8918
▁minskade	-10.8922
▁hungrig	-10.8932
▁kopiera	-10.8933
▁Eva	-10.8933
▁miljontals	-10.8933
stärker	-10.8933
Cloud	-10.8933
▁Lös	-10.8934
▁insåg	-10.8935
▁Tips	-10.8936
▁betalningar	-10.8942
▁troligen	-10.8943
▁Mobil	-10.8944
▁ovanför	-10.8955
förstå	-10.8961
▁Lund	-10.8962
Är	-10.8962
▁inomhus	-10.8963
linjer	-10.8964
▁haha	-10.8966
▁väntade	-10.8976
▁120	-10.898
ttle	-10.8984
effekter	-10.8987
▁forskar	-10.8987
ith	-10.899
▁direktör	-10.8994
▁fyller	-10.8998
▁Instagram	-10.8999
▁premiärminister	-10.8999
▁Innehåll	-10.8999
▁förnuft	-10.8999
▁kalender	-10.8999
▁krossa	-10.8999
▁vd	-10.9
▁flykting	-10.9
▁session	-10.9
rädd	-10.9002
▁citera	-10.9003
▁gatan	-10.9005
▁deltagarna	-10.9006
▁variation	-10.9006
▁meditation	-10.901
▁Plus	-10.9012
▁föreslå	-10.902
▁skatter	-10.9026
▁lastbil	-10.9031
▁föräldra	-10.9036
▁rörelser	-10.9038
▁55	-10.9039
▁känsliga	-10.9045
▁förväntade	-10.9046
▁åldrar	-10.9051
kapacitet	-10.9053
partiet	-10.9053
service	-10.9054
transport	-10.9054
▁sårbar	-10.9058
fönstret	-10.9065
▁Abraham	-10.9065
▁YouTube	-10.9065
▁flexibel	-10.9065
▁lägsta	-10.9065
▁teoretisk	-10.9065
▁övre	-10.9065
▁muslimsk	-10.9065
▁snäll	-10.9065
▁mötte	-10.9065
▁kvant	-10.9066
indikator	-10.9066
▁Lokal	-10.9069
skolor	-10.9072
ple	-10.9072
▁1980	-10.9073
▁vägledning	-10.9074
▁kristen	-10.9077
belastning	-10.908
▁änglar	-10.909
▁detaljerad	-10.9092
▁rapporterar	-10.9093
centrum	-10.9093
Li	-10.9097
▁kopplade	-10.9098
▁yrke	-10.9102
▁falsk	-10.9109
▁begreppet	-10.9111
riktad	-10.9117
studie	-10.9119
expert	-10.9121
▁Fel	-10.9122
▁rötter	-10.9123
▁info	-10.9129
▁elektro	-10.9132
▁nöd	-10.9132
▁Kontakta	-10.9132
▁sevärdheter	-10.9132
▁verkställande	-10.9132
▁befogenhet	-10.9132
▁register	-10.9133
▁nackdel	-10.9133
▁velat	-10.9133
▁kopia	-10.9133
▁fastställt	-10.9133
▁ECB	-10.9133
▁studio	-10.9134
▁sensor	-10.9134
död	-10.9136
▁leende	-10.9136
▁singel	-10.9139
▁konflikter	-10.9146
▁ovanligt	-10.9151
▁38	-10.9157
▁Ring	-10.9158
▁avancerad	-10.9167
▁attraktion	-10.917
▁Life	-10.9184
▁förenkla	-10.919
▁upphov	-10.9192
right	-10.9193
▁ledig	-10.9195
°	-10.92
▁aggressiv	-10.92
▁rekord	-10.92
▁ätit	-10.92
▁överflöd	-10.9202
▁ägde	-10.9202
▁hyres	-10.9202
▁bostäder	-10.9202
▁USB	-10.9206
▁ställde	-10.9206
marknader	-10.9206
▁deltog	-10.921
▁idén	-10.9213
▁Fred	-10.9222
▁önskan	-10.9226
▁Mary	-10.9226
▁grundare	-10.9227
▁aspekt	-10.9232
oci	-10.9234
▁otrolig	-10.924
▁kanaler	-10.9241
aktiviteter	-10.9241
▁väcka	-10.9246
▁koldioxid	-10.9257
▁inträffa	-10.9261
föreningar	-10.9263
▁Mel	-10.9265
▁implementera	-10.9268
▁intellektuell	-10.9268
▁President	-10.9268
▁rabatt	-10.9268
▁Club	-10.9268
▁Gamla	-10.9268
▁Miljö	-10.9268
▁förverkliga	-10.9269
▁Perfekt	-10.9269
▁Skicka	-10.9269
▁rådgivning	-10.927
▁realtid	-10.927
▁motion	-10.9272
▁danska	-10.9273
▁läggs	-10.9277
god	-10.9279
▁sålde	-10.928
▁bota	-10.928
▁Tank	-10.9285
▁Steg	-10.9286
Att	-10.9288
▁Samtlig	-10.929
ämnen	-10.9291
▁gråta	-10.9303
bränd	-10.9303
▁belysning	-10.9311
hål	-10.9314
▁mono	-10.9317
▁utformad	-10.9321
â	-10.9337
▁absorbera	-10.9337
▁Louis	-10.9337
struktiv	-10.9337
marginal	-10.9337
▁siffra	-10.9337
▁Grupp	-10.9337
▁Gillar	-10.9337
förslag	-10.9337
▁blomma	-10.9338
▁gilla	-10.9339
skador	-10.9341
▁revision	-10.9343
stream	-10.9344
▁brun	-10.9346
▁biologiska	-10.9347
board	-10.935
holm	-10.9352
7)	-10.9359
▁falska	-10.9361
▁städerna	-10.9362
▁flod	-10.9363
▁uppnått	-10.9367
06	-10.9368
42	-10.9369
▁punkterna	-10.9371
▁mur	-10.9382
punkter	-10.939
infektion	-10.9395
månad	-10.9398
stjärna	-10.94
▁klassisk	-10.9402
▁Sydafrika	-10.9406
▁distribuera	-10.9406
överskridande	-10.9406
▁proportion	-10.9406
▁ignorera	-10.9406
▁ledamöter	-10.9406
▁Work	-10.9407
förändring	-10.9408
▁nationer	-10.9412
lampa	-10.942
▁samarbetar	-10.9423
▁hej	-10.9428
▁gradvis	-10.9433
▁döma	-10.9434
tillverkare	-10.9437
▁godkänna	-10.9444
▁automatisk	-10.945
▁USD	-10.9456
▁800	-10.946
kommunikation	-10.9465
▁agerar	-10.9466
▁Ram	-10.9469
▁generellt	-10.947
vägagångssätt	-10.9475
▁associera	-10.9475
▁elegant	-10.9475
▁främling	-10.9475
▁inbegripet	-10.9475
▁indirekt	-10.9475
Г	-10.9475
▁Kyrkan	-10.9475
▁cyber	-10.9475
▁sjunga	-10.9475
▁himla	-10.9478
▁mörkret	-10.9479
▁linjer	-10.948
▁chatt	-10.948
▁elektriska	-10.9484
▁slutlig	-10.9491
▁plantera	-10.9494
▁nyckeln	-10.9502
▁vaknar	-10.9502
plikation	-10.9502
cal	-10.9511
▁organisk	-10.9513
▁Will	-10.953
▁Helsingfors	-10.9545
▁önskemål	-10.9545
▁Öppna	-10.9545
▁Österrike	-10.9545
▁bandet	-10.9546
▁återhämtning	-10.9546
▁mjukvara	-10.9547
▁Cro	-10.9553
▁antagande	-10.9555
▁föda	-10.9559
▁Team	-10.9559
▁importera	-10.956
▁«	-10.956
▁final	-10.9563
▁diskriminering	-10.9564
▁återställ	-10.9569
▁extern	-10.9575
▁figur	-10.9583
▁egenskap	-10.9588
▁Cho	-10.9598
book	-10.9601
▁årligen	-10.9602
▁Fadern	-10.9604
historia	-10.9607
▁skadlig	-10.9612
▁Research	-10.9615
▁njur	-10.9615
▁human	-10.9616
▁interaktion	-10.9616
▁nämnda	-10.9616
▁funnit	-10.9617
▁städa	-10.9625
▁vilse	-10.9629
▁skid	-10.9631
▁Wild	-10.9634
▁€	-10.9637
▁Off	-10.9639
ljud	-10.9644
▁utformade	-10.9645
anslutning	-10.966
▁bal	-10.9672
höll	-10.968
▁formulär	-10.9681
intresse	-10.9681
▁arkitekt	-10.9682
▁log	-10.9685
▁Vänligen	-10.9686
▁vävnad	-10.9686
▁annanstans	-10.9687
▁Sho	-10.9689
▁hylla	-10.969
ough	-10.9692
▁kreativitet	-10.9694
övning	-10.9694
▁galen	-10.9695
▁Dal	-10.9695
▁räddning	-10.9709
▁Cit	-10.9715
▁Bob	-10.9716
▁livstid	-10.9718
▁fysik	-10.9719
▁begrav	-10.9728
▁fördöm	-10.9732
gåva	-10.9737
▁UN	-10.9749
▁nämnde	-10.975
klipp	-10.975
▁avslutade	-10.9756
▁Santa	-10.9756
▁välsignelse	-10.9758
▁tempel	-10.9758
▁Liksom	-10.9758
▁krävde	-10.9758
▁minimal	-10.9759
▁turnering	-10.976
▁flagga	-10.9765
▁befria	-10.9776
▁Love	-10.9777
▁förändrade	-10.978
▁Comp	-10.9781
▁Användare	-10.9783
nytt	-10.9784
▁mail	-10.9791
▁Full	-10.9795
drive	-10.9796
▁terror	-10.9796
höjd	-10.9798
▁infektioner	-10.9799
▁stötta	-10.9799
▁bytt	-10.9811
kontakt	-10.9822
häv	-10.9828
head	-10.9829
▁Mellanöstern	-10.983
departement	-10.983
dräkt	-10.983
▁huvudsakligen	-10.9831
▁munnen	-10.9831
▁sökning	-10.9831
▁nyhets	-10.9835
▁ledsen	-10.984
light	-10.9842
inställningar	-10.9858
▁funderar	-10.9862
▁psyko	-10.9863
▁produktiv	-10.9863
▁närmar	-10.9864
vägar	-10.987
▁tumör	-10.9885
planering	-10.9885
05	-10.9891
▁Effekt	-10.9902
▁Brasilien	-10.9902
▁konstitution	-10.9902
▁knappast	-10.9902
▁välsigna	-10.9902
▁viktminskning	-10.9902
▁uppskattning	-10.9903
▁rådgivare	-10.9905
▁gissa	-10.9906
▁fördjupa	-10.9912
▁efteråt	-10.9923
▁dömd	-10.9925
bind	-10.9925
lås	-10.9951
skada	-10.9955
▁Store	-10.9959
författare	-10.9969
förlust	-10.9969
▁Lake	-10.9973
▁Mexiko	-10.9975
▁Previous	-10.9975
▁fossil	-10.9975
▁Charles	-10.9975
▁flytande	-10.9975
▁montera	-10.9975
wood	-10.9976
▁vag	-10.9976
▁omdömen	-10.9976
▁förresten	-10.9976
▁Vegas	-10.9976
▁utformning	-10.9976
▁kyss	-10.9978
▁atom	-10.9978
▁enastående	-10.9981
▁latin	-10.9983
▁enklaste	-10.9983
▁Säkerhet	-10.9984
▁vägrar	-10.9985
▁böj	-10.9986
▁Union	-10.9992
faktorer	-10.9993
▁sekund	-11
▁praktisk	-11.0007
lay	-11.0015
▁samråd	-11.0017
▁återvänder	-11.0018
▁omöjlig	-11.0019
▁Saint	-11.002
▁tillverkade	-11.0026
LO	-11.0035
▁Alternativ	-11.0049
▁antibiotika	-11.0049
▁inbördes	-11.0049
▁rengöring	-11.0049
▁dölja	-11.0049
▁indikera	-11.005
▁inledde	-11.005
▁iPad	-11.0051
▁Vänta	-11.0051
▁dödsfall	-11.0052
▁doft	-11.0053
▁tröst	-11.0054
house	-11.0055
kameror	-11.0058
▁Flo	-11.0066
▁ställs	-11.0067
skåp	-11.0072
▁parkering	-11.0073
97	-11.0074
▁paus	-11.0075
▁hjälte	-11.0076
tusen	-11.008
ammar	-11.0088
metrisk	-11.0097
näs	-11.0098
▁upprepade	-11.011
▁planerade	-11.0117
▁näringsliv	-11.012
▁Manchester	-11.0123
▁flexibilitet	-11.0123
▁silver	-11.0123
▁avsevärt	-11.0123
▁interagera	-11.0123
▁inriktning	-11.0123
▁Stöd	-11.0123
▁snack	-11.0124
anläggning	-11.0125
▁bekvämlighet	-11.0126
▁Priset	-11.0126
▁plug	-11.0126
affär	-11.0126
▁Angeles	-11.0127
▁1998	-11.013
▁ångra	-11.013
▁Personer	-11.0131
▁östra	-11.0138
▁banan	-11.0142
▁Behandling	-11.0151
▁webbsida	-11.0157
▁forskarna	-11.0158
zy	-11.0161
▁uppdateringar	-11.0161
▁uni	-11.0162
▁sakta	-11.017
▁alltmer	-11.0179
lem	-11.0185
europa	-11.0187
hotell	-11.0188
▁anpassade	-11.0192
befolkning	-11.0193
försäljning	-11.0194
▁tvingade	-11.0194
▁Association	-11.0197
▁decennier	-11.0197
▁känneteckna	-11.0197
▁Fyra	-11.0197
▁utvidga	-11.0197
▁långvarig	-11.0198
historik	-11.0198
▁fastigheter	-11.0199
▁stiger	-11.0199
▁offentliggöra	-11.02
▁belöna	-11.02
▁agent	-11.02
▁provins	-11.0201
▁systematisk	-11.0203
▁arbetskraft	-11.0204
sägelse	-11.0205
morgon	-11.0212
▁max	-11.0216
▁Dam	-11.0219
▁tråd	-11.0235
▁Pal	-11.0247
mall	-11.025
lack	-11.0251
▁reagerar	-11.0259
▁Kör	-11.0267
överföring	-11.027
▁gitarr	-11.0272
▁överklaga	-11.0273
▁upplevt	-11.0273
▁skrivbord	-11.0274
▁inredning	-11.0275
▁undersökt	-11.0275
▁free	-11.0276
▁fransk	-11.0277
▁arabiska	-11.0277
▁bull	-11.0278
▁1996	-11.0278
▁bosatt	-11.0283
▁Satan	-11.029
▁svärd	-11.0292
▁stannade	-11.03
▁investerar	-11.0304
bringa	-11.0307
▁övergrepp	-11.0307
▁samordna	-11.0316
▁rapportering	-11.0317
34	-11.0318
▁säg	-11.032
anläggningar	-11.0326
94	-11.0327
stein	-11.0328
tävling	-11.0345
▁arab	-11.0347
EEG	-11.0348
▁matematik	-11.0348
▁palestinsk	-11.0348
▁Company	-11.0348
▁kolumn	-11.0348
ministeriet	-11.0349
▁anordna	-11.0349
▁pressmeddelande	-11.0349
▁taxi	-11.0349
▁Snart	-11.0349
▁leksaker	-11.0349
▁samordning	-11.035
innehavare	-11.0353
▁sjukhuset	-11.0354
tecken	-11.0354
▁flytt	-11.0358
89	-11.0358
▁eko	-11.0365
▁salu	-11.0368
▁sortiment	-11.0372
▁motivation	-11.0378
norm	-11.0379
▁dyker	-11.038
▁djupare	-11.0383
lib	-11.0386
Med	-11.0387
▁Användning	-11.04
klädd	-11.04
93	-11.0403
▁önskade	-11.0403
▁Up	-11.0405
▁ägande	-11.0406
▁Kim	-11.0406
500	-11.0407
gjut	-11.0409
view	-11.0418
**	-11.0423
▁märklig	-11.0425
▁Health	-11.0425
▁Public	-11.0425
▁Rapport	-11.0425
▁Standard	-11.0425
▁pojkvän	-11.0425
▁verifiera	-11.0425
▁fängsla	-11.0425
▁civilisation	-11.0425
▁besegra	-11.0425
▁Snabb	-11.0425
▁White	-11.043
▁modig	-11.0431
virus	-11.0434
▁gåvor	-11.0434
▁Motor	-11.0434
▁måltider	-11.0434
▁ägs	-11.0435
▁motverka	-11.0436
▁Mannen	-11.0437
flagg	-11.0437
▁vardagsrum	-11.0439
▁ansträngning	-11.044
▁dotterbolag	-11.0444
▁erhålla	-11.0452
▁armar	-11.0456
▁museum	-11.0461
▁Excel	-11.0465
deklaration	-11.0467
▁kyrkor	-11.0469
▁andning	-11.0482
▁HP	-11.0486
intag	-11.0486
▁tillträde	-11.0487
▁innovativ	-11.0487
03	-11.049
kunder	-11.0492
inklusive	-11.0499
▁yttrande	-11.0501
▁Bättre	-11.0501
▁åstadkomma	-11.0501
ó	-11.0502
▁Disney	-11.0502
▁Tillbaka	-11.0502
▁humor	-11.0502
▁CBD	-11.0502
▁öppning	-11.0502
▁portfölj	-11.0503
▁drink	-11.0504
▁trovärdig	-11.0505
▁skrämmande	-11.0508
▁Johnson	-11.0512
▁kabel	-11.0518
▁elev	-11.0519
värdig	-11.0522
▁utbetalning	-11.0522
ology	-11.0526
▁mut	-11.053
▁kram	-11.053
blom	-11.0535
▁Place	-11.0551
▁Press	-11.0552
▁albumet	-11.0567
2013	-11.0568
▁Borde	-11.0576
resor	-11.0576
▁Tag	-11.0577
erbjudande	-11.0577
utrymme	-11.0578
▁Madrid	-11.0579
▁etikett	-11.0579
▁ränte	-11.0579
▁förbindelser	-11.058
▁Mellan	-11.0581
rubb	-11.0582
▁förbjudet	-11.0592
lampor	-11.0597
kedja	-11.0599
▁Water	-11.0601
kommande	-11.0601
handlingar	-11.0602
▁förbättringar	-11.0608
match	-11.0626
styrka	-11.0635
▁Energi	-11.0641
▁Bell	-11.0643
Detta	-11.065
▁Tjänsten	-11.065
Varför	-11.0657
▁kirurgi	-11.0657
▁Nordkorea	-11.0657
▁placering	-11.0657
omvandling	-11.0657
▁stänger	-11.0657
▁uppföljning	-11.0658
▁betalt	-11.0658
▁regim	-11.0659
▁kärnkraft	-11.0659
▁söner	-11.0659
postmeddelande	-11.066
▁ansvarsfull	-11.066
▁Vol	-11.0664
trogen	-11.0666
drivna	-11.0667
▁broder	-11.0672
▁svaghet	-11.0672
▁heta	-11.0673
vagnar	-11.068
▁uppenbarelse	-11.0686
▁migration	-11.0688
▁Små	-11.0689
▁frigör	-11.0689
▁mäklare	-11.0691
▁flygbolag	-11.0691
▁Projektet	-11.0693
▁ekosystem	-11.0697
▁relatera	-11.0705
medicin	-11.0718
▁Fick	-11.0725
02	-11.0727
▁Chicago	-11.0736
▁klassificera	-11.0736
▁logistik	-11.0736
▁återhämta	-11.0736
▁återspegla	-11.0736
▁överhuvudtaget	-11.0736
▁förberedelse	-11.0736
▁oundviklig	-11.0736
▁skräp	-11.0736
▁förberedd	-11.0736
▁metabol	-11.0736
▁jättebra	-11.0738
formation	-11.0739
▁stjäl	-11.074
▁utmanande	-11.0748
▁produktivitet	-11.0749
▁terrorism	-11.075
▁försiktighet	-11.0752
▁Utveckling	-11.0754
▁grannar	-11.0773
▁Mig	-11.0782
▁Namn	-11.0782
▁certifiera	-11.0789
▁likhet	-11.0792
yri	-11.0801
▁Top	-11.0805
▁grov	-11.0811
▁rörande	-11.0815
länk	-11.0815
▁feedback	-11.0815
ceremoni	-11.0815
▁kejsar	-11.0815
▁märka	-11.0815
webbplats	-11.0815
bedömning	-11.0816
▁heltid	-11.0819
storlek	-11.082
▁1997	-11.0821
▁taket	-11.0822
▁master	-11.0825
NE	-11.083
town	-11.0832
▁Bush	-11.0834
▁framgår	-11.0837
▁strålning	-11.0837
▁samverkan	-11.0846
lyft	-11.0851
▁Lika	-11.0871
▁Fördelar	-11.0875
▁religiös	-11.0884
▁brä	-11.0894
▁Florida	-11.0895
▁Industri	-11.0895
▁Jehova	-11.0895
▁Netflix	-11.0895
▁flickvän	-11.0895
▁modifiera	-11.0895
▁golvet	-11.0896
▁distans	-11.0896
signal	-11.0896
benägna	-11.0897
▁Allmän	-11.0899
▁laboratorie	-11.0899
▁porträtt	-11.0902
▁Ever	-11.0903
▁expertis	-11.0903
▁Krist	-11.0904
▁dokumentera	-11.0919
▁självständighet	-11.0921
▁psykologisk	-11.0921
▁Kur	-11.0944
▁andlig	-11.0946
artikel	-11.0946
▁kandidater	-11.0949
▁strävan	-11.095
▁realistisk	-11.0951
▁mild	-11.0953
▁armén	-11.0953
status	-11.0955
skivor	-11.0955
▁elektrisk	-11.0965
▁översätta	-11.0966
▁erkänner	-11.0976
▁injektion	-11.0976
▁gymnasie	-11.0976
▁misslyckande	-11.0976
▁medelstora	-11.0976
▁Forskare	-11.0976
aktivitet	-11.0978
frukt	-11.0978
jobb	-11.098
▁hyper	-11.0982
▁fastställd	-11.0982
▁1995	-11.0986
▁European	-11.0987
▁tänd	-11.099
▁domän	-11.1003
städ	-11.1004
▁störningar	-11.1011
▁konstnärlig	-11.1013
▁riva	-11.1014
▁upphandling	-11.1021
ansvar	-11.1021
▁skratt	-11.103
normal	-11.1035
▁Hör	-11.1039
cast	-11.1045
▁biologisk	-11.1049
▁Term	-11.1053
räkna	-11.1053
blo	-11.1054
▁Lämna	-11.1057
▁flexibla	-11.1057
▁Erbjud	-11.1057
▁konkurrera	-11.1057
▁Regeringen	-11.1057
▁därigenom	-11.1057
▁Donald	-11.1057
▁odds	-11.1057
▁inlärning	-11.1057
▁övertygelse	-11.1058
▁skedde	-11.1058
▁Lätt	-11.1058
▁knut	-11.1058
▁Arbete	-11.1059
▁funktionalitet	-11.1059
huvud	-11.106
▁arbetslöshet	-11.106
▁Region	-11.1062
▁återvinning	-11.1069
vapen	-11.107
▁kostnadsfri	-11.1071
place	-11.1075
▁Plats	-11.1075
▁bredare	-11.108
▁Tech	-11.1093
▁närmast	-11.1107
kvalificera	-11.111
▁saknade	-11.1112
faktor	-11.1116
▁säkrare	-11.1117
unch	-11.1118
metri	-11.112
▁Lab	-11.1131
sköt	-11.1132
sekvens	-11.1138
administratör	-11.1139
▁beträffande	-11.1139
▁antagit	-11.1139
▁Scott	-11.1139
▁Lägenhet	-11.1139
▁netto	-11.114
▁minimi	-11.114
▁turné	-11.114
▁revolutionär	-11.1141
—	-11.1142
tillväxt	-11.1145
▁Book	-11.1156
▁västra	-11.116
▁Ski	-11.1165
▁lyx	-11.1172
▁bredd	-11.118
cel	-11.1181
▁iaktta	-11.1186
▁Simon	-11.1199
▁Skydd	-11.12
▁Europe	-11.121
▁Brand	-11.1212
▁tredjeland	-11.1215
▁ambassad	-11.1219
▁konvertera	-11.1222
▁kyckling	-11.1222
▁steroid	-11.1222
tolerans	-11.1222
▁mekanisk	-11.1222
▁bestå	-11.1222
▁fullkomlig	-11.1222
▁Önska	-11.1223
tillgänglig	-11.1226
specifik	-11.1226
▁Robin	-11.1227
▁sväng	-11.1229
▁engelsk	-11.1229
kammare	-11.1231
▁epi	-11.1233
▁föreställa	-11.1235
▁Arch	-11.1236
▁Pay	-11.1237
▁Äg	-11.124
▁högra	-11.1242
▁bildades	-11.1244
▁förvåna	-11.1248
▁bistånd	-11.1248
▁VM	-11.1268
▁medlemskap	-11.127
100	-11.1299
í	-11.1305
▁administrera	-11.1305
▁försämra	-11.1305
▁godkänner	-11.1305
▁nämnt	-11.1305
▁progressiv	-11.1305
▁Project	-11.1305
▁återstår	-11.1305
▁förstärka	-11.1305
▁växel	-11.1305
[2]	-11.1306
▁sökmotor	-11.1306
▁skänk	-11.1306
▁Brown	-11.1307
▁Xbox	-11.1307
▁logisk	-11.1309
▁broms	-11.1309
▁700	-11.1309
säsong	-11.131
dubbla	-11.131
resurser	-11.131
▁Sanningen	-11.1321
▁Angel	-11.1321
▁verksam	-11.1323
fordon	-11.1325
▁from	-11.1328
▁Cri	-11.1329
▁inträffade	-11.1339
▁Sym	-11.1345
▁Law	-11.1346
▁öarna	-11.1346
▁option	-11.1347
programmen	-11.1347
▁övningar	-11.1352
▁180	-11.1357
▁värdera	-11.137
▁målsättning	-11.1374
VA	-11.1375
ugh	-11.1381
▁sjätte	-11.1389
▁Aldrig	-11.1389
▁humanitär	-11.1389
▁Mindre	-11.139
▁returnera	-11.139
▁upptagen	-11.1391
▁Music	-11.1393
▁anlita	-11.1394
biljett	-11.1394
vitamin	-11.1394
▁visdom	-11.1395
▁1994	-11.1395
▁nano	-11.1397
▁Nordamerika	-11.1401
▁365	-11.1402
print	-11.1404
▁Alltid	-11.1423
▁Pap	-11.1427
▁Log	-11.1437
▁syre	-11.1438
▁Öka	-11.1446
lund	-11.1452
kvarter	-11.1454
▁dokumentation	-11.1472
registret	-11.1474
▁Bryssel	-11.1474
▁satellit	-11.1474
ø	-11.1474
▁tillgodose	-11.1474
▁utgångspunkt	-11.1474
▁resenärer	-11.1474
▁Samsung	-11.1474
▁spegel	-11.1474
strejk	-11.1474
▁tendens	-11.1474
▁nominera	-11.1474
▁rättegång	-11.1476
▁Airport	-11.1477
▁predika	-11.1477
▁kommando	-11.1479
▁Blogg	-11.1479
▁välfärd	-11.1479
▁Medlem	-11.148
▁Ingenting	-11.1481
▁flott	-11.1481
▁svett	-11.1483
liknande	-11.1485
▁ideologi	-11.149
bidrag	-11.1491
▁osv	-11.1509
▁återvände	-11.151
▁enhetlig	-11.1514
fram	-11.1518
beredning	-11.1528
våg	-11.1536
▁massiv	-11.1538
date	-11.1542
▁fiskar	-11.1548
▁brittisk	-11.1549
▁ödmjuk	-11.1559
▁besviken	-11.1559
▁fruktansvärd	-11.1559
▁oskyldig	-11.1559
björn	-11.1559
▁paradis	-11.1559
▁Lyssna	-11.1559
▁arbetsmiljö	-11.1566
▁Nedan	-11.1567
▁Guide	-11.1572
▁Beslut	-11.1575
▁invandring	-11.1586
down	-11.1598
▁bestämd	-11.1601
▁historier	-11.1601
▁kulturell	-11.1603
▁angeläg	-11.1605
kött	-11.1625
▁loss	-11.1625
91	-11.1631
häng	-11.1633
▁Cup	-11.1644
▁dop	-11.1644
skäl	-11.1645
▁observation	-11.1646
▁Foundation	-11.1646
▁Journal	-11.1646
▁vuxit	-11.1646
▁spektrum	-11.1646
▁framträdande	-11.1646
▁parallell	-11.1646
▁reparera	-11.1647
▁oväntad	-11.1648
▁täckt	-11.1648
▁Olika	-11.1648
▁besättning	-11.1649
flaskor	-11.1649
▁husdjur	-11.165
festival	-11.1653
hundra	-11.1655
▁anspråk	-11.1658
▁Haha	-11.1661
▁River	-11.1663
▁lindra	-11.1667
skuld	-11.1673
förbindelse	-11.1674
▁begravning	-11.1681
▁Jul	-11.1688
Vår	-11.1693
▁Lars	-11.1701
polis	-11.1724
▁förmågor	-11.1733
▁bjuder	-11.1733
▁konversation	-11.1733
▁erfarna	-11.1733
▁fingrar	-11.1733
▁avbryta	-11.1733
▁Golf	-11.1733
▁automatisera	-11.1734
▁Färg	-11.1734
▁skylt	-11.1735
▁avvikelse	-11.1735
▁exportera	-11.1735
▁knappen	-11.1735
▁abort	-11.1735
▁långivare	-11.1736
katalog	-11.1736
▁Grön	-11.1737
förvaltning	-11.1741
temperatur	-11.1741
▁debut	-11.1747
▁Chris	-11.1749
▁Regi	-11.1753
läsare	-11.1754
▁störst	-11.1761
industri	-11.1764
dörr	-11.1775
▁1,5	-11.1776
▁osäkerhet	-11.1805
▁fotografera	-11.1806
▁drottning	-11.182
▁expansion	-11.182
▁elektronik	-11.182
uthyrning	-11.182
▁lämpa	-11.182
▁Alexander	-11.182
▁Studio	-11.182
▁monster	-11.182
▁ansökningar	-11.1821
▁Djur	-11.1821
▁romersk	-11.1821
▁införliva	-11.1824
▁miljövänlig	-11.1824
öljaktligen	-11.1825
▁Food	-11.1826
▁prins	-11.1828
“	-11.1829
▁rensa	-11.1837
▁slåss	-11.1838
▁inblandade	-11.1839
Gud	-11.185
▁cigarett	-11.1858
▁hedra	-11.1863
▁stött	-11.1863
plex	-11.1868
▁fungerande	-11.187
▁troligt	-11.1881
▁Universitet	-11.1909
▁procedur	-11.1909
▁prägla	-11.1909
regissör	-11.1909
▁skilsmässa	-11.1909
▁applicera	-11.1909
▁Aktiv	-11.1909
hjältar	-11.1909
▁bröt	-11.1909
▁värdepapper	-11.191
▁idiot	-11.191
▁trettio	-11.191
borgerliga	-11.191
rubrik	-11.1911
▁israeliska	-11.1912
▁förutsatt	-11.1912
numret	-11.1913
▁normer	-11.1916
▁regional	-11.1917
round	-11.1917
▁visum	-11.1921
pump	-11.1923
guide	-11.1924
▁psyk	-11.1943
block	-11.1948
▁retur	-11.1952
▁gris	-11.1966
relaterad	-11.1971
▁Sov	-11.1982
▁hälsosamma	-11.1995
▁läkemedlet	-11.1998
▁ansluter	-11.1998
▁Resort	-11.1999
▁time	-11.1999
▁medvetet	-11.2
▁synpunkter	-11.2
▁tobak	-11.2
▁Kommun	-11.2001
▁Wood	-11.2001
▁växla	-11.2002
▁offra	-11.2005
▁läppar	-11.2007
kamera	-11.2014
▁heder	-11.2014
▁Server	-11.2017
▁framöver	-11.2018
▁kaos	-11.2023
▁filter	-11.2024
hörande	-11.2029
▁Marx	-11.2032
AND	-11.2039
▁hiss	-11.204
▁sträva	-11.2052
förhållande	-11.2061
▁kraftig	-11.2063
▁förlita	-11.2075
▁sammansättning	-11.2079
▁fakultet	-11.2088
▁Hollywood	-11.2088
▁invandrare	-11.2088
▁jackpot	-11.2088
▁landsbygden	-11.2088
▁hänvisning	-11.2088
▁inhemska	-11.2088
▁Fokus	-11.2088
▁näringsämnen	-11.2088
▁kritisera	-11.2088
▁Gratis	-11.2089
▁Pengar	-11.2089
▁återkalla	-11.209
▁sammanfatta	-11.2092
▁Gaza	-11.2093
▁Finans	-11.2093
▁förespråka	-11.2096
▁vackraste	-11.2101
formulär	-11.2102
mässa	-11.2103
▁Cook	-11.2103
▁Express	-11.2108
▁Human	-11.211
byggande	-11.2115
▁imponerad	-11.2123
▁Nytt	-11.2124
▁aktör	-11.2135
mässig	-11.2174
▁utnämn	-11.2179
▁Singapore	-11.2179
▁Människan	-11.2179
▁kontrast	-11.2179
▁grafik	-11.2179
▁ventil	-11.2179
▁Down	-11.2181
▁separera	-11.2181
▁axel	-11.2183
▁America	-11.219
kategori	-11.2191
direktiv	-11.2191
finansiering	-11.2191
väst	-11.221
▁underliggande	-11.2211
£	-11.2271
▁regissera	-11.2271
klassificering	-11.2271
▁introduktion	-11.2271
▁påskynda	-11.2271
▁Hitler	-11.2271
▁revisor	-11.2271
▁Röda	-11.2271
▁huvudkontor	-11.2271
▁möts	-11.2271
▁Space	-11.2271
▁utspela	-11.2272
färdig	-11.2272
▁dropp	-11.2273
▁tillåtna	-11.2274
▁mogna	-11.2274
▁Putin	-11.2274
▁förvaring	-11.2275
▁uppfinning	-11.2275
▁panik	-11.2275
▁Åk	-11.2283
frekvens	-11.2284
medborgare	-11.2284
mönster	-11.2284
▁Light	-11.2288
synsmyndighet	-11.2289
▁rosa	-11.2301
vinst	-11.2303
▁Jean	-11.232
▁Projekt	-11.2321
▁sökte	-11.2329
▁Hav	-11.2334
¥	-11.2363
▁Lyckligtvis	-11.2363
▁Ungefär	-11.2363
▁kungariket	-11.2363
▁rekrytering	-11.2363
▁nämns	-11.2363
▁förhoppningsvis	-11.2363
▁välkända	-11.2363
▁VPN	-11.2363
▁bindande	-11.2364
▁vrid	-11.2364
▁Länk	-11.2365
▁utsätts	-11.2366
▁bokstav	-11.2366
▁Utbildning	-11.2366
▁Valley	-11.2366
▁smitta	-11.2367
▁Läge	-11.2368
▁Foto	-11.2371
▁Skön	-11.2373
▁träng	-11.2374
objekt	-11.2377
bundna	-11.238
centra	-11.2384
ship	-11.2386
luft	-11.2388
▁bedriva	-11.2392
▁Whi	-11.2394
▁hållit	-11.2406
▁veterinär	-11.2437
terapeut	-11.2454
▁Belgien	-11.2457
▁bearbetning	-11.2457
▁homosexuell	-11.2457
▁Kostnad	-11.2457
▁tvungna	-11.2457
▁Amerikanska	-11.2457
▁1800-	-11.2457
▁1900-	-11.2457
▁garage	-11.2457
▁diagnostisera	-11.2457
▁Privat	-11.2458
banor	-11.2458
▁Bridge	-11.2458
▁Poker	-11.2462
▁ovanstående	-11.2462
▁angrip	-11.2468
▁snabbaste	-11.247
▁belägen	-11.2471
▁förutse	-11.2476
▁drama	-11.2484
idé	-11.2498
skript	-11.251
▁konsekvens	-11.2515
▁lönsam	-11.2528
▁reservera	-11.2536
▁360	-11.2539
▁ego	-11.2542
bekämpning	-11.2546
EX	-11.2547
▁Vietnam	-11.2551
▁auktion	-11.2551
▁företrädare	-11.2551
▁Vetenskap	-11.2551
▁tillbehör	-11.2551
▁tvivla	-11.2551
▁beläget	-11.2551
kedjor	-11.2552
▁Koranen	-11.2552
▁brud	-11.2552
▁anvisningar	-11.2552
▁licensiera	-11.2553
▁Organ	-11.2556
▁Arbeta	-11.2556
▁drömmen	-11.2562
domstolen	-11.2566
▁krypto	-11.2568
▁ställt	-11.257
▁Audi	-11.2571
samarbete	-11.2573
▁statistisk	-11.2575
▁Palm	-11.2581
mög	-11.2584
▁dokumentär	-11.2591
▁rutt	-11.2595
▁turism	-11.2602
lateral	-11.2602
▁Känd	-11.2618
situation	-11.2634
algoritm	-11.2646
▁aluminium	-11.2646
▁signifikant	-11.2646
▁spädbarn	-11.2646
‐	-11.2646
▁Oscar	-11.2646
▁systrar	-11.2646
▁åtanke	-11.2646
▁inflation	-11.2647
▁stängt	-11.2647
▁generös	-11.2647
▁Photo	-11.2647
▁klättra	-11.2647
▁renovera	-11.2647
▁trauma	-11.2647
▁centralbank	-11.2648
▁lojalitet	-11.2649
▁befintlig	-11.2651
▁Nobel	-11.2652
▁with	-11.2653
▁Holland	-11.2654
▁upphäva	-11.2655
▁Jones	-11.2656
▁slakt	-11.2657
▁förhoppning	-11.2657
84	-11.2661
kål	-11.2662
▁Öster	-11.2662
anordning	-11.2664
ordförande	-11.2667
rodde	-11.2669
slå	-11.2669
▁kristall	-11.2669
▁bidragit	-11.2672
pengar	-11.2675
▁Erik	-11.2678
▁finska	-11.2678
baserat	-11.2685
▁Coll	-11.2732
album	-11.2734
ifikation	-11.2742
▁Portugal	-11.2743
▁bekymmer	-11.2743
▁korruption	-11.2743
▁levnads	-11.2743
▁servrar	-11.2743
▁svamp	-11.2743
▁Michel	-11.2743
▁Direkt	-11.2743
konservativ	-11.2743
centret	-11.2748
▁kilo	-11.2748
▁uttryckligen	-11.2749
▁hantverk	-11.2752
▁Night	-11.2754
▁drabbats	-11.2755
▁förhands	-11.2757
▁50%	-11.2759
kontrakt	-11.276
syfte	-11.2761
▁genomfördes	-11.277
▁trivs	-11.2771
▁Bäst	-11.2778
▁kyrko	-11.2783
ekonomisk	-11.2788
▁Radio	-11.2788
▁givet	-11.2838
▁Köpenhamn	-11.284
▁emellan	-11.284
▁exemplar	-11.284
▁regelbunden	-11.284
▁Clinton	-11.284
▁insulin	-11.284
▁Läkare	-11.284
▁DVD	-11.284
▁matlagning	-11.284
▁Multi	-11.284
▁East	-11.2841
▁förutsätter	-11.2841
▁aktieägare	-11.2841
redaktör	-11.2843
▁skådespel	-11.2844
▁Baby	-11.2852
▁mysig	-11.2863
mängd	-11.2865
ålder	-11.2867
1.1	-11.2878
▁företräde	-11.2911
▁Karta	-11.2928
▁Vanligtvis	-11.2938
▁blodsocker	-11.2938
▁bokstäver	-11.2938
▁frälsning	-11.2938
▁vertikal	-11.2938
▁volontär	-11.2938
chaufför	-11.2938
▁korrigera	-11.2938
▁evighet	-11.2938
▁medborgarna	-11.2938
▁guida	-11.2939
▁formulera	-11.294
▁miljard	-11.294
▁vittnen	-11.294
▁desperat	-11.2941
▁Text	-11.2942
kryptering	-11.2943
▁1993	-11.2944
▁Tryck	-11.2946
känslig	-11.2948
▁Spring	-11.295
lang	-11.2953
▁varenda	-11.2954
helst	-11.2976
försök	-11.2977
skiva	-11.2977
▁skarp	-11.2978
▁högtid	-11.298
▁Gall	-11.2986
stone	-11.2997
2.1	-11.3002
▁skrämm	-11.3029
▁Skrift	-11.3037
▁Sovjetunionen	-11.3037
▁jordbävning	-11.3037
▁workshop	-11.3037
▁överväldiga	-11.3037
▁diamant	-11.3037
▁tvärtom	-11.3037
▁proffs	-11.3037
▁slappna	-11.3037
▁Uppsala	-11.3037
▁passiv	-11.3038
▁vibration	-11.3038
▁>>	-11.3038
▁soffa	-11.3042
▁Jackson	-11.3042
▁arbetsuppgifter	-11.3043
arbets	-11.3045
▁Därmed	-11.3046
▁underrätta	-11.3054
▁föredrag	-11.3063
▁armé	-11.307
träning	-11.3076
forskare	-11.3083
▁anime	-11.3095
▁Mah	-11.3102
▁mapp	-11.3108
▁Förbered	-11.3135
▁Amsterdam	-11.3137
▁Beroende	-11.3137
▁Förhoppningsvis	-11.3137
▁Skottland	-11.3137
▁Technology	-11.3137
▁medborgarskap	-11.3137
▁universell	-11.3137
▁campus	-11.3137
▁allierade	-11.3137
▁biskop	-11.3137
▁syskon	-11.3137
▁tennis	-11.3137
▁nervös	-11.3137
▁underrättelse	-11.3137
▁Regler	-11.3137
▁Henry	-11.3138
kollektion	-11.3138
▁huvudvärk	-11.3138
▁etnisk	-11.3141
▁1989	-11.3143
▁ilska	-11.3144
teori	-11.3145
▁kinesisk	-11.3146
▁mix	-11.3147
▁mandat	-11.3152
▁förlänga	-11.3154
konstruktion	-11.3158
universitet	-11.3158
▁allergi	-11.3163
pension	-11.3167
▁inträde	-11.3169
skepp	-11.3172
▁900	-11.3175
▁sekretess	-11.3178
▁komponent	-11.318
▁Fader	-11.3183
▁förbehåll	-11.3201
▁regelverk	-11.3204
värld	-11.3209
▁passagerar	-11.3214
▁stadsdel	-11.3232
▁nedgång	-11.3236
▁egypt	-11.3238
▁exceptionell	-11.3238
▁sanktioner	-11.3238
▁århundradet	-11.3238
▁County	-11.3238
▁Joseph	-11.3238
▁splittra	-11.3238
▁Ekonomi	-11.3238
▁Moskva	-11.3238
▁Frågor	-11.3238
▁hunger	-11.3238
▁SEO	-11.3238
▁undersöker	-11.3238
▁Uppgifter	-11.3238
▁misslyckad	-11.3239
▁coach	-11.3241
▁drömmer	-11.3245
▁bibel	-11.3246
▁Villkor	-11.3247
▁angrepp	-11.3249
▁eventuell	-11.3253
akademi	-11.3254
▁benämn	-11.3258
institution	-11.3266
▁Mike	-11.3282
▁Spara	-11.3284
▁bönder	-11.3288
ibel	-11.3292
▁Walk	-11.3309
▁lyxig	-11.3314
Institut	-11.333
▁stadig	-11.3334
▁försvunnit	-11.334
▁nybörjare	-11.334
▁antagligen	-11.334
▁århundraden	-11.334
▁bagage	-11.334
▁Forskarna	-11.334
▁enskilt	-11.334
▁initial	-11.334
kvalifikation	-11.334
▁förkunna	-11.334
▁likadant	-11.334
▁nyhetsbrev	-11.334
▁foder	-11.334
▁likvärdig	-11.3341
▁opposition	-11.3341
▁osynlig	-11.3341
snedsättning	-11.3342
▁telefonnummer	-11.3343
▁relativ	-11.3345
▁fiber	-11.3345
▁Dating	-11.3346
▁uteslutande	-11.3347
▁legend	-11.3347
▁LED	-11.3349
▁rejäl	-11.335
kommission	-11.3351
▁tidsperiod	-11.3351
▁åtfölj	-11.3357
▁laser	-11.3357
▁Point	-11.336
▁identisk	-11.3371
läkare	-11.3374
▁interaktiv	-11.3381
▁Roll	-11.339
▁Basera	-11.3396
▁sekundär	-11.3401
plattor	-11.3402
▁massage	-11.343
säker	-11.3443
▁Föräldrar	-11.3443
▁GDPR	-11.3443
▁Snälla	-11.3443
▁kompromiss	-11.3443
▁suverän	-11.3443
▁Strategi	-11.3443
▁Taylor	-11.3443
▁trupper	-11.3443
▁Anledningen	-11.3443
▁stroke	-11.3443
▁norska	-11.3443
▁vätska	-11.3443
▁Linux	-11.3444
▁Francisco	-11.3444
pulver	-11.3445
▁Källa	-11.3446
▁enzym	-11.3447
▁Upplev	-11.3451
▁krona	-11.3453
▁Garden	-11.3454
▁moraliska	-11.3454
▁ersätter	-11.3455
▁Personal	-11.3456
▁uppmärksam	-11.3466
människor	-11.3467
lokal	-11.347
▁torg	-11.3473
tips	-11.3478
pression	-11.3483
pröva	-11.349
▁2,5	-11.3525
▁Education	-11.3547
▁Plötsligt	-11.3547
▁blödning	-11.3547
▁cannabis	-11.3547
▁influensa	-11.3547
▁kompensera	-11.3547
▁kriminell	-11.3547
▁rekrytera	-11.3547
▁avslappnad	-11.3547
▁galax	-11.3547
▁Philip	-11.3547
▁Intresse	-11.3547
▁<3	-11.3547
▁piano	-11.3547
▁Josef	-11.3548
▁omröstning	-11.3548
▁törst	-11.355
▁musikalisk	-11.355
▁Queen	-11.3551
▁smink	-11.3551
▁Beskrivning	-11.3554
▁fascinerande	-11.3554
▁överträffa	-11.3557
▁Väx	-11.3561
▁förlåtelse	-11.3571
telefon	-11.3572
direktör	-11.3572
styrelsen	-11.3573
▁blek	-11.3592
▁tveka	-11.3608
hjul	-11.3611
abilitet	-11.3612
▁Yu	-11.3651
▁ultimata	-11.3652
▁vittnesbörd	-11.3652
▁våldtäkt	-11.3652
▁Palestina	-11.3652
▁tvilling	-11.3652
▁bitcoin	-11.3652
▁sprider	-11.3652
▁Affär	-11.3652
▁autonom	-11.3652
▁mångsidig	-11.3652
▁sammanlagt	-11.3653
▁Special	-11.3653
▁Edward	-11.3653
▁överensstämmer	-11.3653
▁Control	-11.3653
▁titlar	-11.3653
▁meningsfull	-11.3655
▁asyl	-11.3657
phone	-11.3657
▁kärleksfull	-11.3658
▁Saab	-11.3665
▁kvinnlig	-11.3667
firma	-11.3669
▁inspektion	-11.3679
volym	-11.3681
▁rand	-11.3684
graph	-11.3686
bänk	-11.3687
fredsställande	-11.3689
ämne	-11.3725
▁generell	-11.3746
▁välgörenhet	-11.3759
▁Zeeland	-11.3759
▁Sweden	-11.3759
▁Kultur	-11.3759
▁Kvalitet	-11.3759
▁ondska	-11.3759
▁SEK	-11.3759
▁råvaror	-11.3759
▁Lycka	-11.376
▁bokstavligen	-11.376
stjärnig	-11.376
▁Direct	-11.3763
▁bemöt	-11.3763
▁bakåt	-11.3766
▁MBA	-11.3769
▁begått	-11.3786
bibliotek	-11.3786
student	-11.3787
▁Möjlighet	-11.3792
▁bestämmelse	-11.3815
▁Topp	-11.3827
▁utreda	-11.3831
▁allergisk	-11.3838
▁stämma	-11.384
▁WordPress	-11.3866
▁erbjöd	-11.3866
▁palestinier	-11.3866
▁självförtroende	-11.3866
transplantation	-11.3866
▁geografiska	-11.3866
▁Network	-11.3866
▁erövra	-11.3866
▁Således	-11.3866
höjning	-11.3866
▁tatuering	-11.3867
▁övervinna	-11.3867
▁high	-11.3867
▁division	-11.3868
▁doktorand	-11.3871
stängning	-11.3873
▁1991	-11.3873
▁applikation	-11.3878
förorening	-11.388
▁filosof	-11.388
▁action	-11.3881
▁kemisk	-11.3884
▁lönsamhet	-11.3891
▁Kuba	-11.3903
erfarenhet	-11.3904
kvot	-11.3908
▁återgå	-11.391
soft	-11.3914
▁Klass	-11.3916
▁förkorta	-11.3918
▁rasism	-11.3926
oskop	-11.3962
▁Teknik	-11.3975
▁jurisdiktion	-11.3975
	-11.3975
▁auktoritet	-11.3975
▁besvikelse	-11.3975
▁funktionshinder	-11.3975
▁kompetent	-11.3975
▁parametrar	-11.3975
▁popularitet	-11.3975
▁roulette	-11.3975
▁spektakulär	-11.3975
▁terrass	-11.3975
▁bjuda	-11.3975
▁Sälj	-11.3975
▁brutal	-11.3975
▁FÖR	-11.3975
▁BNP	-11.3975
▁hektar	-11.3975
▁Partner	-11.3975
▁isolering	-11.3975
▁sprang	-11.3975
▁Libyen	-11.3975
▁robust	-11.3975
▁sovjet	-11.3975
▁överlevde	-11.3975
▁valutor	-11.3976
▁Albert	-11.3976
▁innehav	-11.3976
▁kretsar	-11.3979
▁nedladdning	-11.3979
poäng	-11.398
▁mekanismer	-11.3987
▁åldrande	-11.3991
▁tål	-11.4003
bestämmelser	-11.4005
support	-11.4006
naturlig	-11.402
card	-11.4022
▁grill	-11.4027
regering	-11.4033
maste	-11.4057
▁Slot	-11.4059
▁sammanfattning	-11.4079
artiklar	-11.4081
fredsställelse	-11.4085
▁Analytics	-11.4085
▁Society	-11.4085
▁kognitiv	-11.4085
▁slutgiltig	-11.4085
▁åklagar	-11.4085
▁afrikansk	-11.4085
▁illegal	-11.4085
▁Kunskap	-11.4085
▁förvärra	-11.4085
▁Victoria	-11.4085
▁Adobe	-11.4085
▁anslutna	-11.4085
▁Marknads	-11.4085
▁Dubai	-11.4085
▁Yoga	-11.4085
▁sjunger	-11.4085
▁arkeolog	-11.4085
▁revidera	-11.4085
▁shoppa	-11.4088
▁porr	-11.409
▁1984	-11.4091
▁vinkel	-11.4093
▁föreskrifter	-11.4094
▁Syd	-11.4097
▁orkar	-11.4098
▁påståenden	-11.4098
▁ytter	-11.4162
inflammatorisk	-11.4196
▁Alzheimer	-11.4196
▁Argentina	-11.4196
▁förfäder	-11.4196
▁kosttillskott	-11.4196
▁luftkonditioner	-11.4196
▁obekväm	-11.4196
▁olycklig	-11.4196
▁Organisation	-11.4196
▁diagram	-11.4196
▁Jakob	-11.4196
▁fäder	-11.4196
▁komplikationer	-11.4196
▁nazist	-11.4196
▁emotionell	-11.4196
▁kylskåp	-11.4196
▁Christian	-11.4199
▁baksidan	-11.4199
▁testamente	-11.42
▁hälsovård	-11.42
▁fristående	-11.4206
▁chip	-11.4208
▁Styr	-11.4208
▁betydelsefull	-11.4215
utskottet	-11.422
kylning	-11.4223
garanti	-11.423
▁Arab	-11.4235
▁charmig	-11.4252
3.1	-11.4304
fix	-11.4306
▁kapitalistisk	-11.4307
▁diplom	-11.4307
▁Process	-11.4308
▁solidaritet	-11.4308
~	-11.4308
▁Rekommendera	-11.4308
▁extraordinär	-11.4308
▁mirakel	-11.4308
▁prioriteringar	-11.4308
▁räckvidd	-11.4308
▁Hjärt	-11.4308
▁transparent	-11.4308
▁västerländska	-11.4308
▁maximera	-11.4308
▁ifrågasätta	-11.4308
▁Utveckla	-11.4308
▁BBC	-11.4308
▁föreslagna	-11.4308
▁tredjeparts	-11.4308
▁försvaga	-11.4309
▁Cancer	-11.4309
▁upplevde	-11.4309
▁entré	-11.4309
implantat	-11.4311
▁återkommande	-11.4311
▁uppriktig	-11.4311
▁Jeff	-11.4312
▁föregångare	-11.4312
▁logik	-11.4313
▁bankkonto	-11.4316
1.2	-11.4319
koncept	-11.4346
social	-11.4352
lämning	-11.4375
▁ört	-11.4383
▁opera	-11.4407
▁socio	-11.4411
hämtning	-11.442
Omdirigera	-11.4422
▁Elizabeth	-11.4422
▁Mountain	-11.4422
▁ambitiös	-11.4422
▁hunnit	-11.4422
▁kalcium	-11.4422
▁monument	-11.4422
▁Innovation	-11.4422
▁aptit	-11.4422
▁utplåna	-11.4422
▁efterlevnad	-11.4422
▁föreligger	-11.4422
▁Okej	-11.4422
▁bedriver	-11.4422
▁Språk	-11.4422
mästerskap	-11.4422
▁gällde	-11.4422
▁programmering	-11.4422
▁Ocean	-11.4422
▁attrahera	-11.4422
▁ansluten	-11.4422
▁tandläkare	-11.4422
▁hårddisk	-11.4422
▁Analys	-11.4423
▁hette	-11.4424
▁materiella	-11.4425
▁Väldig	-11.4425
▁väcker	-11.4426
ambassadör	-11.4426
▁Show	-11.4426
▁puls	-11.4427
▁partiklar	-11.4431
▁programmera	-11.4434
förbränning	-11.4439
▁cookie	-11.4441
sidig	-11.4445
▁larm	-11.4446
▁rysk	-11.4455
protokoll	-11.4457
perspektiv	-11.4457
högskolan	-11.4468
▁kvinno	-11.448
▁motorväg	-11.4481
lägenhet	-11.45
▁Chrome	-11.4537
▁apotek	-11.4537
▁banbrytande	-11.4537
▁cirkel	-11.4537
▁kolesterol	-11.4537
▁prioritet	-11.4537
cirkulation	-11.4537
▁avundsjuk	-11.4537
▁respons	-11.4537
▁renovering	-11.4537
▁brottslighet	-11.4537
▁Premier	-11.4537
▁förekomsten	-11.4537
▁oklart	-11.4537
▁skruv	-11.4538
lådor	-11.454
▁kapitalismen	-11.4541
▁mormor	-11.4543
▁påminna	-11.4544
▁klassiker	-11.4544
▁konkurs	-11.4544
▁jämförbar	-11.4546
▁Drive	-11.4551
jämn	-11.4551
▁Spec	-11.4556
▁höjdpunkt	-11.4561
fotograf	-11.4578
nål	-11.4594
▁General	-11.4595
förvaltare	-11.4596
skikt	-11.4602
▁israel	-11.4648
›	-11.4653
▁Festival	-11.4653
▁otillräcklig	-11.4653
▁anknytning	-11.4653
▁artificiell	-11.4653
▁beskrev	-11.4653
▁pizza	-11.4653
▁uppenbarligen	-11.4653
▁vulkan	-11.4653
▁yrkesverksamma	-11.4653
▁blomstra	-11.4653
▁episod	-11.4653
▁tidsfrist	-11.4653
▁PDF	-11.4653
▁nycklar	-11.4654
▁blyg	-11.4654
▁nationalpark	-11.4654
▁Tesla	-11.4655
▁ranka	-11.4663
▁Svensk	-11.4682
fabrik	-11.4691
bränsle	-11.4691
▁värma	-11.4697
Ingen	-11.4703
▁dyrka	-11.4705
kryss	-11.4707
2012	-11.4719
▁Problem	-11.4738
skytt	-11.4743
Joh	-11.4743
kredit	-11.4748
{	-11.4771
}	-11.4771
▁mardröm	-11.4771
▁Medelhavet	-11.4771
▁templet	-11.4771
▁gömd	-11.4771
▁släktingar	-11.4771
▁palats	-11.4771
craft	-11.4771
▁besked	-11.4771
▁webbsidor	-11.4772
▁livskvalitet	-11.4773
▁Little	-11.4773
▁Dröm	-11.4778
▁bensin	-11.4779
▁Ladda	-11.4781
händelse	-11.481
papper	-11.4845
spiration	-11.4873
▁spänn	-11.4877
▁optisk	-11.4882
▁utesluta	-11.4882
▁Förbättra	-11.489
▁Galaxy	-11.489
▁Republiken	-11.489
▁Venezuela	-11.489
▁exemplet	-11.489
▁identifiering	-11.489
▁konfigurera	-11.489
▁prinsessa	-11.489
▁längtar	-11.489
▁trailer	-11.489
bälte	-11.489
▁ändamålsenlig	-11.4891
▁domännamn	-11.4891
▁möss	-11.4891
▁svält	-11.4891
▁tragisk	-11.4892
▁Kursen	-11.4894
▁morgondagen	-11.4895
▁medlemsländer	-11.4895
▁Potter	-11.4897
▁vecko	-11.4909
▁japansk	-11.4909
utövare	-11.491
▁framkalla	-11.492
▁Pappa	-11.4923
medvetna	-11.4931
strand	-11.4931
▁feminist	-11.4965
brytning	-11.4976
blogg	-11.4976
▁återvinn	-11.4998
▁lojal	-11.5008
prenumeration	-11.501
▁Hittills	-11.501
▁Pakistan	-11.501
▁beslutsfattande	-11.501
▁kolhydrater	-11.501
▁kriminal	-11.501
▁manipulera	-11.501
▁miljöpåverkan	-11.501
▁pedagogisk	-11.501
▁plånbok	-11.501
▁återbetala	-11.501
▁Material	-11.501
▁Klimat	-11.501
▁påminnelse	-11.501
▁beskattning	-11.5011
▁ståndpunkt	-11.5011
▁anteckningar	-11.5011
▁hänför	-11.5011
▁bröstcancer	-11.5011
ntegritetspolicy	-11.5011
▁Ungern	-11.5011
▁:-)	-11.5012
▁Watch	-11.5012
▁Transport	-11.5012
▁döttrar	-11.5015
▁museer	-11.5022
▁sido	-11.5044
operation	-11.5062
▁upptäck	-11.5071
▁vettig	-11.5094
▁bistå	-11.5108
utnyttjande	-11.5113
▁hacka	-11.5129
▁Statistik	-11.5132
▁gigantisk	-11.5132
▁navigera	-11.5132
▁tråkigt	-11.5132
▁umgås	-11.5132
▁bägge	-11.5132
▁innebörd	-11.5132
▁management	-11.5132
▁Square	-11.5132
inskränk	-11.5132
▁häftig	-11.5132
▁Peking	-11.5132
▁glöd	-11.5132
▁Kropp	-11.5133
▁Manager	-11.5133
▁Illu	-11.5133
▁uppträder	-11.5133
▁innehöll	-11.5134
2016	-11.5136
▁Opti	-11.5151
▁soldat	-11.5175
uppdatering	-11.5176
Allt	-11.5183
▁Älska	-11.5192
▁förkasta	-11.5222
neralsekreterare	-11.5231
point	-11.5239
▁fascinera	-11.5248
mottagning	-11.5252
▁Fantastisk	-11.5256
▁Fortfarande	-11.5256
▁Profeten	-11.5256
▁fruktansvärt	-11.5256
▁njöt	-11.5256
▁ordinarie	-11.5256
▁Åtgärd	-11.5256
♥	-11.5256
dynamik	-11.5256
▁Sydkorea	-11.5256
▁allihop	-11.5256
▁hobby	-11.5256
▁spontan	-11.5256
▁älskling	-11.5256
▁Stefan	-11.5256
▁preferenser	-11.5256
▁rymlig	-11.5256
▁obligation	-11.5256
▁uppgradering	-11.5256
▁agenda	-11.5256
▁drivkraft	-11.5257
▁vindkraft	-11.5257
▁kundservice	-11.5258
fördröj	-11.5261
familjemedlemmar	-11.5267
receptor	-11.5296
annonser	-11.5305
▁betyda	-11.5373
flyttning	-11.5374
▁blackjack	-11.5381
▁cirkulär	-11.5381
▁facebook	-11.5381
▁förknippade	-11.5381
▁kvalité	-11.5381
▁prototyp	-11.5381
▁Majoritet	-11.5381
▁diesel	-11.5381
▁ansöker	-11.5381
▁skylla	-11.5381
▁Kraft	-11.5381
▁Akademi	-11.5381
▁sekretesspolicy	-11.5381
▁genuin	-11.5381
▁plåga	-11.5382
▁Styrelsen	-11.5382
▁Connect	-11.5382
▁ansikts	-11.5382
▁fetma	-11.5382
▁rubriken	-11.5382
▁debitera	-11.5383
▁signera	-11.5385
break	-11.5389
▁meningslös	-11.5392
fibrer	-11.5399
▁administrativ	-11.5415
#	-11.5428
belysning	-11.5428
komponenter	-11.5428
investering	-11.5428
casino	-11.5428
värk	-11.5453
▁vägleda	-11.5487
▁Bou	-11.5487
▁erfaren	-11.5496
besparing	-11.5505
▁illusion	-11.5507
▁testosteron	-11.5507
▁republikan	-11.5507
▁sistnämnda	-11.5507
▁bomull	-11.5507
▁JAG	-11.5507
▁Äntligen	-11.5507
arrangör	-11.5507
▁hämnd	-11.5507
▁Återigen	-11.5507
▁Nyckel	-11.5507
▁ihjäl	-11.5508
▁bråk	-11.5508
▁regelbundna	-11.5508
optimering	-11.5508
▁Nokia	-11.5508
▁astma	-11.5508
▁föroreningar	-11.5508
▁samtida	-11.5508
▁troligtvis	-11.551
▁naken	-11.5511
▁delegera	-11.5511
▁vrede	-11.5512
▁specifikationer	-11.5515
▁sändning	-11.5517
bevakning	-11.5526
▁fånge	-11.553
sekreterare	-11.5533
komposit	-11.5534
▁upplaga	-11.5545
Nej	-11.5557
budget	-11.5561
mänsklig	-11.5564
syntes	-11.5586
▁Förmodligen	-11.5635
▁bidrog	-11.5635
▁obligatoriska	-11.5635
▁kopior	-11.5636
▁erhållit	-11.5636
▁förvirring	-11.5636
▁befrielse	-11.5636
▁officer	-11.5636
▁Kommentar	-11.5636
▁Söder	-11.5636
▁Jacob	-11.5636
▁förfogande	-11.5636
▁kollega	-11.5636
▁Helige	-11.5636
▁rationell	-11.5636
▁First	-11.5636
▁bifoga	-11.5636
▁Sydney	-11.5636
▁Handling	-11.5636
▁promenera	-11.5636
▁Gräns	-11.5636
▁samvete	-11.5636
▁Boston	-11.5637
▁kryssning	-11.5637
▁stryk	-11.5638
▁infektera	-11.5638
egistrera	-11.5638
▁kloka	-11.564
▁Aktie	-11.564
▁sammanträde	-11.5647
▁analog	-11.5648
▁judisk	-11.5676
sexuell	-11.5685
▁Namne	-11.5692
försäljare	-11.5692
▁Boende	-11.5712
mätning	-11.5712
▁prestera	-11.5729
▁Frans	-11.5746
display	-11.5754
▁Security	-11.5765
▁Access	-11.5765
▁Wikipedia	-11.5765
▁narkotika	-11.5765
▁olympisk	-11.5765
▁proletariatet	-11.5765
▁reflektion	-11.5765
▁avsaknad	-11.5765
▁Domstolen	-11.5765
▁Funktion	-11.5765
▁pistol	-11.5765
▁Försäljning	-11.5766
▁lotteri	-11.5766
▁offren	-11.5766
▁kollektivtrafik	-11.5766
▁fullborda	-11.5766
▁förnyelse	-11.5767
▁stiftelse	-11.5767
▁makro	-11.5768
▁sovrummet	-11.5768
▁axlar	-11.5769
5.1	-11.5772
grön	-11.5805
upplysning	-11.5815
kriterier	-11.582
förmåner	-11.585
▁Möjlig	-11.5857
▁kryp	-11.5864
Herre	-11.5866
▁Church	-11.5897
▁Saudiarabien	-11.5897
▁Stephen	-11.5897
▁Venedig	-11.5897
▁anhängare	-11.5897
▁college	-11.5897
▁fundamental	-11.5897
▁ljuger	-11.5897
▁representation	-11.5897
▁August	-11.5897
▁sponsor	-11.5897
▁väckte	-11.5897
▁Dream	-11.5897
▁mestadels	-11.5897
▁kusin	-11.5897
▁senior	-11.5897
▁Tower	-11.5898
▁parkeringsplats	-11.5898
▁Patienter	-11.5898
▁upplysningar	-11.5898
▁hjärtsjukdom	-11.5898
▁Fyll	-11.59
▁invändning	-11.5901
▁lagstifta	-11.5902
▁Heart	-11.5904
kyld	-11.5929
generator	-11.5948
medlemsstat	-11.595
katastrof	-11.5951
$	-11.5951
referens	-11.5956
▁fråge	-11.5994
resterande	-11.6023
▁abstrakt	-11.603
▁restriktioner	-11.603
▁Åtminstone	-11.603
▁MSEK	-11.603
▁matematisk	-11.603
frekvent	-11.603
▁syriska	-11.603
▁medeltida	-11.603
▁tyngd	-11.6031
▁referera	-11.6031
barriär	-11.6031
shirt	-11.6031
▁återfinn	-11.6032
▁låtsas	-11.6032
▁andetag	-11.6034
ocyt	-11.6044
▁donera	-11.6048
rättigheter	-11.6072
special	-11.6086
praxis	-11.6086
övervakning	-11.6086
▁charm	-11.6099
▁ansöknings	-11.611
▁Säker	-11.6149
▁Hälso	-11.6165
▁förflytta	-11.6165
▁elektricitet	-11.6165
▁ljuga	-11.6165
▁magnifik	-11.6165
▁premium	-11.6165
▁Teknisk	-11.6165
▁dagsläget	-11.6165
▁mottagit	-11.6165
▁FBI	-11.6165
▁initiera	-11.6166
▁brinna	-11.6166
▁spräng	-11.6166
▁varaktighet	-11.6166
▁scenario	-11.6166
▁motorcykel	-11.6167
▁ritual	-11.6167
▁lysande	-11.6167
▁intensitet	-11.6168
▁Sjö	-11.6168
missbruk	-11.6223
ansökan	-11.6223
kämpa	-11.6226
▁incitament	-11.6233
framkallande	-11.6273
kostnadseffektiv	-11.6288
▁Outlook	-11.6302
analytiker	-11.6302
¶	-11.6302
▁Demokrati	-11.6302
▁exponera	-11.6302
▁magnesium	-11.6302
▁synvinkel	-11.6302
▁vampyr	-11.6302
▁Charlie	-11.6302
▁instinkt	-11.6302
▁Böcker	-11.6302
▁misstänker	-11.6302
▁efterföljande	-11.6302
▁1960-	-11.6303
▁gummi	-11.6303
▁Prince	-11.6303
▁Född	-11.6303
▁livmoder	-11.6303
▁galleri	-11.6303
▁prostata	-11.6303
[3]	-11.6303
▁ivrig	-11.6304
▁tveksam	-11.6304
▁etapp	-11.6304
▁förvirrad	-11.6305
▁utsedd	-11.6305
ponent	-11.6306
▁Handels	-11.6306
▁fyrtio	-11.6316
▁Disc	-11.6335
utsläpp	-11.6339
vattnet	-11.6362
▁imponera	-11.638
▁finländsk	-11.6384
tavla	-11.6393
ehållstillstånd	-11.6441
▁Academy	-11.6441
▁Drottning	-11.6441
▁Edinburgh	-11.6441
▁Lissabon	-11.6441
▁Nintendo	-11.6441
▁Traditionell	-11.6441
▁fräsch	-11.6441
▁skulptur	-11.6441
▁Grattis	-11.6441
▁PayPal	-11.6441
▁akademiker	-11.6441
▁anklagelser	-11.6441
▁världsledande	-11.6441
▁tält	-11.6441
▁kvarstår	-11.6441
▁Miami	-11.6441
▁erektion	-11.6441
▁Henrik	-11.6442
▁tjuv	-11.6443
▁Röst	-11.6444
▁grafisk	-11.6448
koldioxidutsläpp	-11.6464
▁Korea	-11.6468
▁behörig	-11.647
mottagar	-11.6492
vilja	-11.6498
infrastruktur	-11.6502
förklaring	-11.6503
fokus	-11.6503
fyra	-11.6507
▁Bluetooth	-11.6582
▁Eventuell	-11.6582
▁Historien	-11.6582
▁Indonesien	-11.6582
▁Swedish	-11.6582
▁Ursprunglig	-11.6582
▁Youtube	-11.6582
▁immunförsvar	-11.6582
▁Buddha	-11.6582
▁ockupera	-11.6582
▁Nigeria	-11.6582
▁befann	-11.6582
▁arbetarklassen	-11.6582
▁sponsra	-11.6582
▁flydde	-11.6582
▁apostlar	-11.6583
▁Town	-11.6583
▁sammanlagd	-11.6584
▁utsökt	-11.6585
▁döpt	-11.6587
▁sprit	-11.6588
▁skräddarsydd	-11.6617
▁Blå	-11.6626
djup	-11.6658
▁handikapp	-11.6671
▁tvångs	-11.6717
▁Francis	-11.6723
▁Development	-11.6725
▁asiatiska	-11.6725
▁bläddra	-11.6725
▁brutit	-11.6725
▁ekvation	-11.6725
▁kvalitativ	-11.6725
▁potatis	-11.6725
▁succé	-11.6725
▁Libanon	-11.6725
▁uppfostra	-11.6725
▁Record	-11.6725
▁Andreas	-11.6725
▁Tredje	-11.6725
▁diktatur	-11.6725
▁döljer	-11.6725
▁Muslim	-11.6725
▁praktisera	-11.6725
▁Paradis	-11.6725
korridor	-11.6725
▁obegränsad	-11.6725
kalkyl	-11.6725
▁vegan	-11.6726
▁utrota	-11.6727
▁Märk	-11.6727
▁knyt	-11.6729
▁Utforska	-11.673
▁dekorera	-11.6733
försäkringsbolag	-11.6737
gevär	-11.6764
berättelse	-11.679
minskning	-11.6792
▁Samarbet	-11.6826
▁Filippinerna	-11.687
▁Intressant	-11.687
▁illustrera	-11.687
▁logotyp	-11.687
▁nämner	-11.687
▁sjuksköterska	-11.687
▁smycken	-11.687
▁översvämning	-11.687
▁komplement	-11.687
▁mönstr	-11.687
▁British	-11.687
▁elefant	-11.687
▁sprids	-11.687
▁öknen	-11.687
▁överdriven	-11.687
▁bevittna	-11.687
▁migranter	-11.687
▁yttrandefrihet	-11.6871
▁föreslog	-11.6871
▁Girl	-11.6871
▁Snow	-11.6871
▁Index	-11.6871
▁högtalare	-11.6871
▁uppfyllt	-11.6872
▁fientlig	-11.6872
mekanik	-11.6873
▁Fredrik	-11.6874
orienterad	-11.6874
▁Court	-11.6874
sprung	-11.6877
▁Sakna	-11.6881
bygd	-11.6899
▁harmonisera	-11.6899
diabetes	-11.6937
batteri	-11.6937
▁officiell	-11.6976
abonnemang	-11.7017
▁Halloween	-11.7017
▁dröjsmål	-11.7017
▁matsmältning	-11.7017
▁privilegier	-11.7017
▁Corporation	-11.7017
▁Solutions	-11.7017
▁Spotify	-11.7017
▁intrång	-11.7017
▁menstruation	-11.7017
▁ogiltig	-11.7017
▁olämplig	-11.7017
▁oväntat	-11.7017
▁äpple	-11.7017
▁autentisk	-11.7017
▁intervention	-11.7017
▁WHO	-11.7017
▁kristendomen	-11.7017
▁långsammare	-11.7017
▁sjunker	-11.7017
▁nikotin	-11.7017
▁Micro	-11.7017
▁nödsituation	-11.7017
▁springer	-11.7017
▁allians	-11.7018
▁vädja	-11.7018
release	-11.702
▁sänt	-11.702
▁härstamma	-11.7021
▁kryptera	-11.7022
▁sjunka	-11.7023
▁burk	-11.7033
kablar	-11.7047
affärsverksamhet	-11.7086
kompetens	-11.7087
mjölk	-11.7087
omfattande	-11.7087
▁regera	-11.7087
egenskaper	-11.7091
▁läka	-11.7126
Pojk	-11.7162
▁access	-11.7166
▁Rumänien	-11.7166
▁ackumulera	-11.7166
▁oförglömlig	-11.7166
▁osannolik	-11.7166
▁incident	-11.7166
▁Carolina	-11.7166
▁autism	-11.7166
▁impuls	-11.7166
förhållningssätt	-11.7166
▁moské	-11.7166
▁Dublin	-11.7166
▁trång	-11.7167
▁indikation	-11.7167
▁Rädd	-11.7167
▁plagg	-11.7167
▁Mästare	-11.7167
▁Product	-11.7167
▁stängs	-11.7167
world	-11.7168
▁Modell	-11.7168
▁Järn	-11.7168
▁Skatte	-11.7169
▁befallning	-11.7169
▁underskatta	-11.7179
▁uppmaning	-11.7184
▁jurist	-11.7187
▁hinna	-11.7188
▁italiensk	-11.7195
protein	-11.7238
0,000	-11.7242
amarbetspartners	-11.7253
bränn	-11.7256
ämning	-11.7276
relationer	-11.7291
▁Manhattan	-11.7318
▁Tokyo	-11.7318
▁kvadratmeter	-11.7318
▁Absolut	-11.7318
▁Azure	-11.7318
▁dysfunktion	-11.7318
▁Östersjön	-11.7318
▁Andrew	-11.7318
▁balkong	-11.7318
▁café	-11.7318
doktrin	-11.7318
▁gynnsam	-11.7318
▁orgasm	-11.7318
▁Svårt	-11.7318
▁flög	-11.7318
▁Flash	-11.7318
▁otaliga	-11.7318
▁spelautomater	-11.7318
▁erkänt	-11.7318
▁stöta	-11.7319
▁Sydamerika	-11.7319
▁signatur	-11.7319
arbetstillfällen	-11.7319
▁diplomatisk	-11.7319
▁insistera	-11.7321
▁auktoriserad	-11.7334
förmedling	-11.7338
▁socialdemokrat	-11.7348
båge	-11.737
screen	-11.7387
symbol	-11.7392
installation	-11.7392
fönster	-11.7392
▁Exchange	-11.7472
▁Kroatien	-11.7472
▁arrestera	-11.7472
▁illustration	-11.7472
▁pionjär	-11.7472
▁Erfarenhet	-11.7472
▁Säsong	-11.7472
▁adoptera	-11.7472
▁antioxidant	-11.7472
▁pjäs	-11.7472
▁Brexit	-11.7472
▁terräng	-11.7472
▁NASA	-11.7472
▁Arthur	-11.7472
▁camping	-11.7472
▁minimum	-11.7472
▁offline	-11.7472
▁1700-	-11.7472
▁Historisk	-11.7472
▁Expert	-11.7472
▁Kinesisk	-11.7472
▁klockor	-11.7472
▁grabb	-11.7472
▁uppfann	-11.7472
▁voro	-11.7472
▁uppståndelse	-11.7473
ponering	-11.7473
▁galna	-11.7473
▁uppföljare	-11.7474
▁komedi	-11.7474
korrigering	-11.7475
▁interiör	-11.7477
▁McCa	-11.7478
▁Fundera	-11.7487
stadiet	-11.7496
▁släp	-11.7517
tillfälle	-11.7547
marknadsföring	-11.7548
prestanda	-11.7549
valuta	-11.7551
▁bakterie	-11.7574
möjlig	-11.7617
▁sjöfart	-11.7626
è	-11.7628
▁Generellt	-11.7628
▁bjöd	-11.7628
▁folkomröstning	-11.7628
▁oförändrad	-11.7628
▁oönskade	-11.7628
▁sofistikerad	-11.7628
▁spekulation	-11.7628
▁välmående	-11.7628
▁lantbruk	-11.7628
▁understryk	-11.7628
▁mödrar	-11.7628
▁Wilson	-11.7628
▁beskrivit	-11.7628
▁halvtimme	-11.7628
▁konfrontera	-11.7628
▁Civil	-11.7628
▁Eleverna	-11.7628
▁rymmer	-11.7628
▁Magnus	-11.7628
▁klokt	-11.7628
▁utgjorde	-11.7628
▁Earth	-11.7629
▁entusiastisk	-11.7629
▁kollapsa	-11.763
▁upprörd	-11.7632
initiativ	-11.7634
▁kemikalie	-11.7677
▁zoo	-11.7677
certifierad	-11.7679
styrd	-11.7706
redovisning	-11.7707
vilket	-11.7707
tillverkning	-11.7707
patienter	-11.7707
▁misstänks	-11.7778
▁Adventure	-11.7787
▁Hongkong	-11.7787
▁Tillgänglig	-11.7787
▁frälst	-11.7787
▁glukos	-11.7787
▁gyllene	-11.7787
▁implementering	-11.7787
▁olycks	-11.7787
▁rehabilitering	-11.7787
▁Cambridge	-11.7787
▁Definition	-11.7787
▁Energy	-11.7787
▁Kommunikation	-11.7787
▁Limited	-11.7787
▁PlayStation	-11.7787
▁ockupation	-11.7787
▁Vädret	-11.7787
▁sannerligen	-11.7787
▁Cypern	-11.7787
▁IKEA	-11.7787
▁pussel	-11.7787
▁önskningar	-11.7787
▁snurra	-11.7787
▁förmögenhet	-11.7787
▁författarna	-11.7787
▁invasion	-11.7787
▁iallafall	-11.7787
▁räcka	-11.7787
▁Palace	-11.7787
▁tillhandahåll	-11.7787
▁räntor	-11.7787
▁plasma	-11.7787
▁Medicine	-11.7787
▁fastställer	-11.7787
▁Mänsklig	-11.7787
▁oljor	-11.7787
source	-11.7788
mätare	-11.7788
▁Ljud	-11.7788
▁poesi	-11.7788
▁mötesplats	-11.7788
▁löv	-11.7788
▁förföljelse	-11.7791
▁Surf	-11.7794
▁blond	-11.7795
▁Kenya	-11.7796
▁föränderlig	-11.7804
ergiförbrukning	-11.781
▁materiel	-11.7817
▁upphöj	-11.7848
definiera	-11.7868
nyckel	-11.7868
leverans	-11.7868
skjutning	-11.7882
▁webbläsar	-11.7931
▁Björn	-11.7948
▁Bulgarien	-11.7948
▁Executive	-11.7948
▁Financial	-11.7948
▁Liverpool	-11.7948
▁Mexico	-11.7948
▁Skandinavien	-11.7948
▁bedrivs	-11.7948
▁explodera	-11.7948
▁garderob	-11.7948
▁navigering	-11.7948
▁näringsidkare	-11.7948
❤	-11.7948
\	-11.8278
😉	-11.9722
●	-11.9722
`	-11.9918
ñ	-12.0531
ç	-12.0531
à	-12.0744
−	-12.1881
€	-12.2552
️	-12.2631
😀	-12.2631
ô	-12.2631
′	-12.2631
■	-12.2895
š	-12.2895
©	-12.3165
ā	-12.3165
æ	-12.3443
×	-12.4023
	-12.4326
ú	-12.4638
ã	-12.4961
⁄	-12.4961
É	-12.4961
ë	-12.5294
ć	-12.5639
α	-12.5639
|	-12.6671
Â	-12.6751
„	-12.6751
û	-12.7151
±	-12.7568
Ü	-12.8457
§	-12.8853
č	-12.8933
î	-12.8933
▸	-12.9433
😊	-12.9433
ï	-12.9959
ð	-12.9959
ل	-12.9959
►	-13.0515
א	-13.1728
ş	-13.2395
•	-13.303
	-13.3109
ˮ	-13.3109
‹	-13.3109
👍	-13.3109
😍	-13.3109
ž	-13.3878
‘	-13.4632
ğ	-13.4712
ł	-13.4712
و	-13.4712
	-13.4712
β	-13.4712
ي	-13.5621
ß	-13.5621
Š	-13.5621
ı	-13.6621
😛	-13.6621
ō	-13.7732
	-13.7732
ĺ	-13.7732
ا	-13.7732
م	-13.7732
ń	-13.7732
ه	-13.7732
‒	-13.7732
☺	-13.7732
🏼	-13.7732
Ó	-13.7732
Á	-13.8982
¬	-13.8982
🏻	-13.8982
õ	-13.8982
ʹ	-13.8982
ạ	-13.8982
✔	-13.8982
🙁	-13.8982
ι	-13.8982
Î	-13.8982
ę	-14.041
γ	-14.041
ν	-14.041
ن	-14.041
	-14.041
θ	-14.041
س	-14.041
ع	-14.041
ê	-14.041
ə	-14.2077
‭	-14.2077
Ă	-14.2077
	-14.2077
ī	-14.2077
ς	-14.2077
◄	-14.2077
😂	-14.2077
😄	-14.2077
¿	-14.2077
Č	-14.2077
œ	-14.2077
🙏	-14.2077
σ	-14.2077
→	-14.3998
ṛ	-14.4077
а	-14.4077
Ç	-14.4077
ο	-14.4077
ρ	-14.4077
◆	-14.4077
	-14.4077
	-14.4077
😅	-14.4077
😘	-14.4077
🤣	-14.4077
	-14.4077
ū	-14.4077
‚	-14.4077
ε	-14.4077
国	-14.4077
ί	-14.6577
λ	-14.6577
國	-14.6577
ù	-14.6577
	-14.6577
Í	-14.6577
ò	-14.6577
ʼ	-14.6577
δ	-14.6577
‬	-14.6577
▪	-14.6577
○	-14.6577
◾	-14.6577
⭐	-14.6577
	-14.6577
💙	-14.6577
💜	-14.6577
ý	-14.6577
ő	-14.6577
Ž	-14.6577
ص	-14.6577
†	-14.6577
й	-14.6577
中	-14.6577
·	-14.9831
←	-14.9831
φ	-14.991
р	-14.991
К	-14.991
ر	-14.991
¡	-14.991
ì	-14.991
þ	-14.991
ą	-14.991
đ	-14.991
ė	-14.991
ά	-14.991
τ	-14.991
ω	-14.991
е	-14.991
د	-14.991
ى	-14.991
❑	-14.991
❓	-14.991
軍	-14.991
︎	-14.991
💤	-14.991
😇	-14.991
ă	-14.9911
ē	-14.9911
ӓ	-14.9911
¢	-14.9911
и	-14.9911
ḥ	-14.9911
超	-14.9911
უ	-15.491
岁	-15.491
κ	-15.491
χ	-15.491
ј	-15.491
⚘	-15.491
ż	-15.491
ÿ	-15.491
ś	-15.491
ư	-15.491
ɛ	-15.491
Α	-15.491
ό	-15.491
д	-15.491
ت	-15.491
ج	-15.491
ح	-15.491
ọ	-15.491
‍	-15.491
↵	-15.491
∙	-15.491
√	-15.491
◦	-15.491
☆	-15.491
✅	-15.491
✰	-15.491
❥	-15.491
	-15.491
	-15.491
	-15.491
	-15.491
	-15.491
	-15.491
	-15.491
	-15.491
💖	-15.491
😕	-15.491
😜	-15.491
😝	-15.491
🙌	-15.491
🤔	-15.491
🤗	-15.491
🤯	-15.491
Σ	-15.4911
―	-15.4911
‡	-15.4911
✎	-15.4911
Д	-15.4911
万	-15.4911
团	-15.4911
ก	-15.4911
ร	-15.4911
会	-15.4911
🙂	-16.4837
🙈	-16.4842
😬	-16.4843
😎	-16.4844
😋	-16.4845
	-16.4846
눉	-16.4847
足	-16.4848
赛	-16.4849
联	-16.485
球	-16.4851
人	-16.4852
主	-16.4853
ン	-16.4854
コ	-16.4855
♪	-16.4856
□	-16.4857
≈	-16.4858
Ґ	-16.4859
О	-16.486
ή	-16.4861
Ω	-16.4862
Β	-16.4863
̃	-16.4864
ɑ	-16.4865
ș	-16.4866
ǔ	-16.4867
ơ	-16.4868
Ś	-16.4869
Đ	-16.487
Þ	-16.4871
😦	-16.4872
😢	-16.4873
革	-16.4874
命	-16.4875
・	-16.4876
♣	-16.4877
◊	-16.4878
≤	-16.4879
ἀ	-16.488
ẹ	-16.4881
Δ	-16.4882
💚	-16.4883
💕	-16.4884
👏	-16.4885
	-16.4886
	-16.4887
☝	-16.4888
ṣ	-16.4889
ṇ	-16.489
π	-16.4891
ǧ	-16.4892
ţ	-16.4893
Ş	-16.4894
😃	-16.4895
▶	-16.4896
Õ	-16.4897
Æ	-16.4898
民	-16.4899
★	-16.49
ƒ	-16.4901
	-16.4902
↑	-16.4903
♡	-16.4904
̈	-16.4905
Ø	-16.4906
≥	-16.4907
μ	-16.4908
✓	-16.4909
▌	-16.491
Μ	-16.491
ც	-16.491
ხ	-16.491
ύ	-16.491
Б	-16.491
с	-16.491
ތ	-16.491
ާ	-16.491
ข	-16.491
ธ	-16.491
ส	-16.491
ุ	-16.491
春	-16.491
狂	-16.491
秋	-16.491
言	-16.491
🎉	-16.491
🤙	-16.491
Ú	-16.491
ě	-16.491
Ḥ	-16.491
☕	-16.491
🍦	-16.491
	-16.491
	-16.491
À	-16.491
Ë	-16.491
Ð	-16.491
Ñ	-16.491
Ò	-16.491
Ý	-16.491
÷	-16.491
ħ	-16.491
İ	-16.491
ķ	-16.491
Ł	-16.491
ų	-16.491
Ż	-16.491
ǎ	-16.491
ǒ	-16.491
ɒ	-16.491
ɡ	-16.491
ɣ	-16.491
ɸ	-16.491
ˆ	-16.491
ˈ	-16.491
ˌ	-16.491
ː	-16.491
̊	-16.491
̶	-16.491
Γ	-16.491
Ε	-16.491
Θ	-16.491
Φ	-16.491
η	-16.491
А	-16.491
В	-16.491
Е	-16.491
И	-16.491
Н	-16.491
П	-16.491
С	-16.491
Т	-16.491
Э	-16.491
Я	-16.491
в	-16.491
г	-16.491
л	-16.491
м	-16.491
н	-16.491
о	-16.491
т	-16.491
ц	-16.491
ы	-16.491
ӧ	-16.491
ד	-16.491
ة	-16.491
ك	-16.491
ڤ	-16.491
ނ	-16.491
ަ	-16.491
ต	-16.491
น	-16.491
ะ	-16.491
ิ	-16.491
ი	-16.491
რ	-16.491
ḳ	-16.491
ṅ	-16.491
Ṣ	-16.491
Ṭ	-16.491
ṭ	-16.491
ả	-16.491
ầ	-16.491
ễ	-16.491
ệ	-16.491
ị	-16.491
ủ	-16.491
ἐ	-16.491
‣	-16.491
※	-16.491
⁃	-16.491
₤	-16.491
↓	-16.491
↩	-16.491
⇑	-16.491
⇒	-16.491
⇨	-16.491
∑	-16.491
∞	-16.491
⋅	-16.491
▲	-16.491
▷	-16.491
▼	-16.491
▽	-16.491
▾	-16.491
☐	-16.491
☒	-16.491
☟	-16.491
☭	-16.491
♦	-16.491
♧	-16.491
♫	-16.491
✌	-16.491
✗	-16.491
➜	-16.491
➥	-16.491
⟶	-16.491
⦁	-16.491
ニ	-16.491
ビ	-16.491
世	-16.491
五	-16.491
光	-16.491
军	-16.491
協	-16.491
台	-16.491
司	-16.491
山	-16.491
會	-16.491
月	-16.491
有	-16.491
楚	-16.491
江	-16.491
海	-16.491
湾	-16.491
灣	-16.491
珞	-16.491
空	-16.491
箇	-16.491
级	-16.491
结	-16.491
臺	-16.491
航	-16.491
賽	-16.491
鈥	-16.491
锦	-16.491
镜	-16.491
际	-16.491
限	-16.491
集	-16.491
낍	-16.491
책	-16.491
	-16.491
	-16.491
	-16.491
	-16.491
	-16.491
	-16.491
	-16.491
	-16.491
	-16.491
	-16.491
	-16.491
	-16.491
	-16.491
	-16.491
	-16.491
	-16.491
	-16.491
	-16.491
	-16.491
	-16.491
	-16.491
	-16.491
	-16.491
￼	-16.491
🇨	-16.491
🌞	-16.491
🌷	-16.491
🌸	-16.491
🍀	-16.491
🍰	-16.491
🍳	-16.491
🍴	-16.491
🎁	-16.491
🎈	-16.491
🎨	-16.491
🎶	-16.491
🎼	-16.491
🏆	-16.491
🏽	-16.491
🐞	-16.491
🐲	-16.491
🐴	-16.491
👁	-16.491
👇	-16.491
👌	-16.491
💔	-16.491
💥	-16.491
💪	-16.491
💰	-16.491
📌	-16.491
📚	-16.491
📷	-16.491
🖤	-16.491
🗞	-16.491
😁	-16.491
😆	-16.491
😔	-16.491
😖	-16.491
😞	-16.491
😠	-16.491
😫	-16.491
😭	-16.491
😳	-16.491
😶	-16.491
🙆	-16.491
🙉	-16.491
🤛	-16.491
🤩	-16.491
🥂	-16.491
🥇	-16.491
🦋	-16.491
🦌	-16.491
🧡	-16.491
⟵	-16.4911
	-16.4911
צ	-16.4911
ỉ	-16.4911
ờ	-16.4911
∈	-16.4911
	-16.4911
🐾	-16.4911
🔸	-16.4911
Ā	-16.4911
ث	-16.4911
Π	-16.4911
ย	-16.4911
ั	-16.4911
ี	-16.4911
เ	-16.4911
オ	-16.4911
リ	-16.4911
公	-16.4911
共	-16.4911
协	-16.4911
和	-16.4911
大	-16.4911
式	-16.4911
株	-16.4911
界	-16.4911
社	-16.4911
級	-16.4911
聯	-16.4911
́	-16.4911
华	-16.4911
