<unk>	0
<s>	0
</s>	0
▁.	-3.50253
▁s	-3.67249
▁a	-3.89082
▁en	-3.91682
▁,	-4.23512
▁och	-4.27555
▁i	-4.28959
▁att	-4.29912
▁er	-4.30096
▁för	-4.37273
▁är	-4.53423
▁r	-4.64191
▁av	-4.72653
▁t	-4.74685
▁som	-4.74848
▁k	-4.79621
▁n	-4.82961
▁till	-4.8841
▁f	-4.95375
i	-4.97755
▁de	-4.98584
s	-4.99373
▁på	-5.01295
▁e	-5.07646
▁med	-5.08986
▁det	-5.0989
a	-5.16124
▁b	-5.19896
e	-5.26405
▁om	-5.33589
▁et	-5.34741
o	-5.37034
▁inte	-5.38237
▁p	-5.3996
▁har	-5.44685
t	-5.4503
▁den	-5.48309
▁-	-5.49153
▁S	-5.53813
▁du	-5.58363
r	-5.58605
▁ut	-5.63914
▁ning	-5.64477
▁ett	-5.66016
n	-5.68591
▁kan	-5.70068
▁d	-5.71166
▁ar	-5.76438
▁be	-5.7822
▁0	-5.80106
l	-5.81958
▁1	-5.82603
▁na	-5.83428
▁jag	-5.85034
▁ing	-5.8635
▁g	-5.88299
▁in	-5.88632
▁?	-5.89853
▁vi	-5.91466
▁upp	-5.92637
▁Det	-5.97221
▁eller	-5.98671
▁m	-6.0182
▁var	-6.02066
▁A	-6.02259
▁o	-6.05615
▁"	-6.06195
▁era	-6.06887
▁2	-6.09308
▁:	-6.1091
▁från	-6.13856
▁pro	-6.16044
▁M	-6.17919
▁”	-6.18028
▁(	-6.19583
▁så	-6.22667
▁I	-6.2296
▁B	-6.23454
▁)	-6.24597
▁ommer	-6.33344
▁över	-6.33499
▁T	-6.33531
▁Jag	-6.3699
▁F	-6.37515
▁!	-6.37736
▁nde	-6.38213
▁ska	-6.40541
▁P	-6.40636
▁E	-6.41329
▁vara	-6.42622
▁K	-6.45134
▁vä	-6.4532
▁H	-6.49959
▁när	-6.52636
b	-6.56919
▁are	-6.57006
▁man	-6.58058
.	-6.59965
▁under	-6.6164
f	-6.63564
▁sig	-6.63811
▁9	-6.65758
▁R	-6.67332
▁L	-6.68289
▁D	-6.6863
▁sk	-6.68887
▁lä	-6.69738
▁ande	-6.71965
▁dig	-6.72611
▁an	-6.72886
d	-6.73906
▁verk	-6.74412
▁han	-6.74974
▁re	-6.75375
▁G	-6.75568
▁alla	-6.75894
▁efter	-6.77227
p	-6.78198
▁tid	-6.78511
nvä	-6.78803
sk	-6.79658
▁ation	-6.80617
▁het	-6.80854
▁Vi	-6.81032
▁C	-6.81432
▁här	-6.82594
▁lig	-6.82979
▁ha	-6.83103
▁hand	-6.83594
▁ion	-6.84755
▁där	-6.85121
▁men	-6.86066
▁gång	-6.86523
▁mer	-6.87384
▁också	-6.88258
▁Den	-6.88271
▁finns	-6.89763
▁genom	-6.89977
▁andra	-6.90458
▁N	-6.90943
▁3	-6.91357
▁5	-6.91427
▁se	-6.92659
k	-6.9349
▁din	-6.93824
▁håll	-6.93916
▁V	-6.94002
▁el	-6.94519
▁ering	-6.94773
▁min	-6.9566
▁För	-6.96742
▁än	-6.9736
▁år	-6.97756
▁–	-6.97951
▁mig	-6.98347
▁kon	-6.98688
▁erna	-6.99113
▁c	-7.00169
▁ng	-7.00839
▁sin	-7.01279
▁O	-7.0188
▁detta	-7.02463
▁4	-7.02584
▁bara	-7.03445
▁ig	-7.03502
▁ko	-7.03816
▁myck	-7.04499
▁vill	-7.05152
▁rätt	-7.05961
▁rsta	-7.09308
▁De	-7.09758
▁göra	-7.10928
▁vad	-7.11042
fö	-7.11451
▁gör	-7.11713
▁h	-7.12171
▁8	-7.12437
▁sätt	-7.12927
▁or	-7.13169
▁dem	-7.13369
,	-7.14362
g	-7.1654
▁samma	-7.17037
▁En	-7.17211
▁mot	-7.17346
▁6	-7.1758
▁någon	-7.17673
en	-7.17819
▁Men	-7.17906
▁vid	-7.19033
▁7	-7.20022
▁hur	-7.20218
▁fö	-7.20481
▁fram	-7.2068
▁ner	-7.23282
▁kulle	-7.23376
▁ta	-7.24625
▁få	-7.2464
▁oss	-7.25157
▁denna	-7.25741
▁nder	-7.27191
▁ighet	-7.27385
▁Om	-7.2765
er	-7.27978
▁dag	-7.28575
▁nu	-7.30055
y	-7.30076
▁även	-7.3054
▁else	-7.30704
▁Du	-7.31071
m	-7.31435
v	-7.31906
u	-7.32507
▁männ	-7.33961
▁bra	-7.35264
▁J	-7.36163
▁land	-7.37057
▁/	-7.38918
▁y	-7.39096
▁Och	-7.39106
▁al	-7.3937
▁måste	-7.40326
▁många	-7.40746
▁ge	-7.40859
▁får	-7.4215
▁hade	-7.42342
▁etag	-7.42854
atio	-7.43192
▁något	-7.44383
na	-7.44737
▁ingar	-7.45305
▁allt	-7.45516
ehöv	-7.46449
▁hjälp	-7.46687
▁ment	-7.4701
▁jälv	-7.47069
vec	-7.48164
▁ny	-7.49415
▁dessa	-7.49893
▁hä	-7.50235
▁pers	-7.50256
▁orm	-7.52863
▁vikt	-7.52919
▁inom	-7.54477
▁dukt	-7.54655
▁inf	-7.54941
lig	-7.54943
▁två	-7.5495
▁åt	-7.5537
▁möjl	-7.5568
an	-7.55936
▁	-7.55967
▁samt	-7.56205
▁skor	-7.56785
▁ni	-7.57391
▁po	-7.58042
▁sina	-7.58109
▁ju	-7.58616
▁W	-7.58661
▁Han	-7.5953
▁barn	-7.59679
▁Detta	-7.59714
▁utan	-7.60118
▁ellan	-7.60215
▁När	-7.60634
▁lag	-7.60993
▁hon	-7.61015
▁vilk	-7.61182
▁del	-7.61415
▁ts	-7.61919
▁di	-7.62067
▁mark	-7.62819
▁grund	-7.63212
stä	-7.63543
▁Hur	-7.63717
▁rlden	-7.63871
▁då	-7.63993
▁bli	-7.64246
▁nya	-7.64313
▁des	-7.64543
▁mo	-7.64705
▁ystem	-7.65069
▁åter	-7.6507
▁Vad	-7.65341
▁gt	-7.65877
▁ende	-7.65974
▁å	-7.66499
▁res	-7.66726
▁li	-7.6696
▁ligen	-7.67217
▁lös	-7.67351
▁stä	-7.68007
▁börja	-7.68457
▁ditt	-7.69713
▁sam	-7.69977
▁våra	-7.71655
▁gram	-7.71837
▁olika	-7.72109
▁vår	-7.72633
▁igt	-7.72687
▁ade	-7.73844
ar	-7.74345
▁gift	-7.75145
in	-7.75298
▁hela	-7.75563
▁går	-7.75612
▁säger	-7.75861
▁sedan	-7.77214
▁dina	-7.7767
▁cent	-7.77748
▁några	-7.77749
▁deras	-7.78358
▁liv	-7.78501
▁blir	-7.78547
▁spel	-7.78556
▁varje	-7.7872
▁all	-7.78946
j	-7.79313
▁tjä	-7.79877
▁fall	-7.80146
▁inne	-7.80838
▁nda	-7.81236
▁v	-7.81285
▁hem	-7.81579
▁nt	-7.81586
▁Var	-7.82036
▁U	-7.82807
▁mat	-7.82989
▁ex	-7.83232
▁tre	-7.83344
kriv	-7.84312
▁led	-7.84599
▁skapa	-7.84891
▁mål	-7.84975
▁stor	-7.85168
▁as	-7.8573
▁ort	-7.85763
▁tt	-7.85764
▁gå	-7.86371
▁l	-7.86701
▁skall	-7.87129
le	-7.87408
▁väl	-7.87665
▁tag	-7.88034
▁erade	-7.88371
▁ty	-7.88563
▁lltid	-7.88706
▁bland	-7.89236
▁vet	-7.89495
▁honom	-7.89617
täll	-7.89654
▁ör	-7.90942
▁ingen	-7.91363
▁kunna	-7.91553
▁stat	-7.9168
li	-7.91926
▁ra	-7.91938
▁te	-7.91978
äll	-7.92448
ra	-7.92464
▁ger	-7.92561
▁ns	-7.9326
▁egen	-7.93546
▁ord	-7.93685
▁sitt	-7.93805
▁före	-7.94296
▁lats	-7.9439
▁val	-7.95037
▁fort	-7.95233
▁erar	-7.95341
c	-7.95496
▁nster	-7.95784
▁säker	-7.95964
▁ioner	-7.96072
▁lever	-7.96086
▁;	-7.96392
▁komp	-7.96821
▁nd	-7.97191
▁ser	-7.97249
▁rikt	-7.97769
▁Att	-7.97799
▁hitta	-7.97868
▁plats	-7.97921
▁skap	-7.98419
▁väg	-7.98618
▁tro	-7.98821
▁tar	-7.99621
▁följ	-8.00089
▁helt	-8.00328
▁henne	-8.0042
▁nligt	-8.00597
▁hans	-8.00642
▁sp	-8.00772
▁dess	-8.00878
▁kund	-8.01116
▁komm	-8.01119
▁tekn	-8.01782
▁blem	-8.02271
▁Så	-8.0248
▁mitt	-8.02575
råd	-8.02588
▁varit	-8.02952
ill	-8.03673
▁tiv	-8.03932
▁ö	-8.04538
▁form	-8.05155
▁ättre	-8.05599
▁hö	-8.06129
▁itet	-8.06262
▁verka	-8.06562
▁u	-8.06886
▁enhet	-8.07221
▁mi	-8.07254
▁mest	-8.07371
bju	-8.07571
sä	-8.07972
▁rt	-8.08411
▁sjuk	-8.08467
▁plan	-8.08555
▁um	-8.08576
▁bästa	-8.08709
▁annan	-8.08894
▁Ä	-8.09049
▁nella	-8.09192
or	-8.09364
▁nen	-8.09633
▁komma	-8.09839
▁utom	-8.10012
▁dela	-8.10188
▁ans	-8.10233
▁of	-8.10645
▁lite	-8.10754
▁web	-8.10786
▁and	-8.10908
▁spec	-8.10959
▁bör	-8.1108
▁...	-8.11428
▁anske	-8.11511
▁tiden	-8.11518
▁örstå	-8.11531
▁dom	-8.11941
▁ung	-8.12236
▁medel	-8.12566
▁organ	-8.12686
▁ne	-8.13112
▁rbet	-8.13494
▁nnat	-8.13719
▁stånd	-8.14262
▁kort	-8.14448
▁rätta	-8.14671
▁ur	-8.14804
rand	-8.15174
▁sluta	-8.15815
▁slut	-8.15897
▁tet	-8.1631
▁rbeta	-8.16362
▁troll	-8.16366
▁hus	-8.16385
▁fråga	-8.16687
▁bort	-8.17025
tik	-8.17143
▁hos	-8.17175
▁nä	-8.17382
▁nvänd	-8.17454
▁kla	-8.17516
ldri	-8.17553
▁kling	-8.17554
▁arna	-8.17944
▁stora	-8.18028
▁bo	-8.18042
▁visa	-8.18368
▁it	-8.18709
▁exem	-8.18725
▁Inte	-8.1874
▁kraft	-8.1936
▁to	-8.19717
▁nästa	-8.202
▁st	-8.2025
▁hög	-8.20518
▁Med	-8.2088
▁ändr	-8.20902
▁vanli	-8.21075
▁vatt	-8.2112
▁stöd	-8.21238
ve	-8.21319
▁vinn	-8.21466
▁amilj	-8.21468
▁kom	-8.21563
▁Dess	-8.2184
▁grupp	-8.22233
▁namn	-8.22283
▁hel	-8.22726
▁lång	-8.22814
▁flera	-8.23198
▁saker	-8.23525
▁[	-8.23549
▁Gud	-8.23818
▁baka	-8.24113
▁Ett	-8.2414
▁ull	-8.24378
h	-8.24485
▁tryck	-8.2461
▁ku	-8.24695
▁str	-8.24753
▁blev	-8.2478
▁tänk	-8.24804
▁innan	-8.24986
▁ga	-8.25073
▁gg	-8.25146
w	-8.25519
▁do	-8.2565
te	-8.26026
▁föra	-8.26195
▁risk	-8.26395
▁På	-8.26628
▁god	-8.26653
▁der	-8.26779
▁nad	-8.26965
▁Har	-8.27048
▁tlig	-8.27284
▁huvud	-8.27358
▁folk	-8.28437
▁tyck	-8.28616
▁kap	-8.28765
▁giv	-8.28923
▁natur	-8.29068
▁erad	-8.29116
▁älska	-8.29142
▁lämna	-8.29205
▁amhet	-8.29535
▁tror	-8.29616
▁EU	-8.29668
▁]	-8.29683
▁gjord	-8.29715
▁hist	-8.30034
▁w	-8.3024
▁'	-8.30442
▁us	-8.30555
on	-8.31675
▁stö	-8.31729
▁fatta	-8.31806
▁igen	-8.31821
▁ho	-8.3184
▁by	-8.31841
▁bild	-8.32025
▁tala	-8.32434
)	-8.32497
▁“	-8.32685
▁kropp	-8.32909
▁aren	-8.33064
it	-8.3331
▁nal	-8.33397
▁Alla	-8.33638
▁miljö	-8.33779
▁delar	-8.33812
▁ligg	-8.34079
å	-8.34495
▁miss	-8.34874
nd	-8.35106
▁värde	-8.35146
▁öka	-8.35412
▁igare	-8.3542
ri	-8.35502
▁ndast	-8.35589
▁styr	-8.35656
▁ri	-8.35697
kono	-8.35728
▁milj	-8.35776
tyd	-8.35895
▁månad	-8.36022
▁vänta	-8.36117
▁slag	-8.36131
▁jekt	-8.36247
▁engar	-8.36292
▁fick	-8.36438
▁erson	-8.36525
:	-8.3666
▁da	-8.3686
▁liga	-8.37032
ärs	-8.37428
▁ned	-8.37534
▁Är	-8.37736
▁stad	-8.37894
▁värd	-8.37916
▁ard	-8.37936
▁nivå	-8.38078
▁punkt	-8.38124
▁fri	-8.38252
▁dagar	-8.38288
▁stru	-8.38312
▁enter	-8.38498
▁tter	-8.38508
▁lö	-8.38551
▁hålla	-8.39013
▁data	-8.39132
ffek	-8.39202
▁lika	-8.39493
▁Hon	-8.3951
▁lle	-8.39867
▁ofta	-8.39905
▁kunde	-8.401
▁Där	-8.40408
▁sy	-8.40782
▁ngre	-8.41261
▁ella	-8.41752
▁både	-8.42003
▁rbete	-8.42035
A	-8.42358
la	-8.4273
unkt	-8.42791
▁ndra	-8.42925
▁aktiv	-8.43142
▁ocial	-8.43238
▁gjort	-8.43277
▁regi	-8.43374
▁bok	-8.43379
el	-8.43404
▁svara	-8.43572
▁mind	-8.4361
▁lev	-8.43727
▁ej	-8.43787
▁Lä	-8.43848
fter	-8.43883
▁leva	-8.44047
▁The	-8.44083
▁säga	-8.442
▁at	-8.44226
▁tio	-8.44267
▁ster	-8.44637
▁ly	-8.44661
nklu	-8.4473
▁spela	-8.44767
▁Man	-8.44813
I	-8.44839
▁USA	-8.4512
ung	-8.45305
C	-8.4557
▁ändra	-8.45623
▁Som	-8.45648
▁hjär	-8.4611
▁ntal	-8.46115
▁jord	-8.46533
▁ldigt	-8.4673
▁redan	-8.46827
▁besök	-8.47235
elat	-8.47426
▁idag	-8.4746
vä	-8.47823
S	-8.48227
▁heten	-8.4826
▁Co	-8.48311
▁teck	-8.48428
▁gäng	-8.48501
▁mina	-8.48536
▁dock	-8.48647
bil	-8.48701
vali	-8.48808
al	-8.49127
▁änner	-8.49399
▁Nu	-8.49599
T	-8.49624
tag	-8.49813
▁tyg	-8.49965
▁ier	-8.50315
▁mp	-8.50368
▁trans	-8.50383
▁står	-8.50465
▁Y	-8.5054
▁uropa	-8.50706
▁fast	-8.50809
E	-8.50928
▁vissa	-8.50965
▁lik	-8.5121
▁tu	-8.5127
ansk	-8.51302
▁Här	-8.51583
▁träff	-8.51691
tud	-8.51703
▁son	-8.51769
▁nlig	-8.51873
▁stå	-8.51975
▁emot	-8.521
D	-8.52437
▁rum	-8.52455
▁kar	-8.52472
▁skt	-8.52718
sat	-8.52869
▁rodu	-8.52879
ch	-8.52911
▁kö	-8.52952
▁iska	-8.53154
hä	-8.53357
▁vis	-8.53399
▁tera	-8.53525
▁Pro	-8.53659
▁pri	-8.5375
va	-8.54094
z	-8.54268
▁cess	-8.54477
▁fel	-8.54721
▁bil	-8.54982
▁flyg	-8.55049
▁ry	-8.55077
▁mma	-8.55202
▁nner	-8.55476
▁nergi	-8.55829
▁träd	-8.56124
▁mmen	-8.56131
kä	-8.56493
▁pre	-8.56808
▁cy	-8.57045
?	-8.57145
▁isk	-8.57195
▁stnad	-8.57197
▁ter	-8.57222
▁tgärd	-8.57244
ti	-8.57707
▁hy	-8.57993
▁Be	-8.58008
▁lems	-8.58011
▁män	-8.58192
▁rik	-8.5825
▁drag	-8.58303
▁täll	-8.58343
ssio	-8.58348
▁inans	-8.58351
▁förb	-8.58451
▁bygg	-8.58577
▁Under	-8.58585
▁Se	-8.58597
▁enda	-8.58746
▁visar	-8.58763
rbet	-8.58774
▁vårt	-8.58829
▁mu	-8.59154
▁iv	-8.59235
▁lu	-8.59357
▁rågor	-8.59409
▁lek	-8.5974
▁livet	-8.60091
▁typ	-8.60159
▁vers	-8.60422
▁mö	-8.605
▁fem	-8.6056
P	-8.60631
▁ad	-8.60654
▁fler	-8.60663
▁pi	-8.60665
▁iga	-8.60751
▁nytt	-8.60804
L	-8.6091
sio	-8.61022
▁es	-8.62127
▁sök	-8.62387
▁ting	-8.62469
sera	-8.62795
▁steg	-8.62834
▁tog	-8.62865
▁10	-8.62932
▁ä	-8.62942
R	-8.62948
▁tta	-8.62999
▁lycka	-8.63021
▁nebär	-8.63023
▁rö	-8.6311
ta	-8.63115
▁nds	-8.63339
▁nöd	-8.63587
▁nvest	-8.6363
▁Ch	-8.63637
▁ktiv	-8.63686
▁råd	-8.63698
▁gener	-8.63839
appo	-8.6386
▁ara	-8.63873
▁fatt	-8.63933
▁mynd	-8.63999
▁klara	-8.64072
▁x	-8.64093
▁ktion	-8.6435
ng	-8.64371
▁ala	-8.64381
▁ultat	-8.64399
▁livs	-8.64555
meri	-8.64679
▁veten	-8.64774
▁eslut	-8.64803
▁ed	-8.65018
▁nära	-8.65282
▁jobb	-8.65471
▁rekt	-8.65594
G	-8.65671
▁In	-8.65884
▁reg	-8.66137
▁driv	-8.66303
▁tv	-8.66323
▁amman	-8.66428
▁tisk	-8.66445
▁orsak	-8.66468
tal	-8.66743
▁konst	-8.66763
▁sol	-8.66772
▁su	-8.66904
▁törre	-8.66989
ma	-8.67203
▁ets	-8.67223
▁nskap	-8.67269
▁lesta	-8.67285
▁såg	-8.67372
▁lära	-8.6751
▁lägg	-8.67688
▁nog	-8.67929
▁ro	-8.6797
de	-8.68525
▁rad	-8.68527
▁syn	-8.68831
▁bi	-8.68836
▁runt	-8.68841
▁nera	-8.68871
▁hets	-8.68924
▁%	-8.68957
ktio	-8.69244
▁logi	-8.69339
▁stark	-8.69527
▁sak	-8.69711
▁dagen	-8.69795
▁part	-8.69874
▁vecka	-8.6998
veri	-8.70169
▁jälva	-8.70197
▁kilt	-8.70235
▁öppna	-8.70274
F	-8.70343
▁jus	-8.7037
▁erial	-8.70463
amar	-8.7052
▁gick	-8.7067
▁llet	-8.70771
▁film	-8.70832
▁vänd	-8.70933
▁nads	-8.71026
▁ens	-8.71076
▁röst	-8.71232
▁naste	-8.71235
▁sex	-8.71287
far	-8.71437
▁per	-8.71566
▁konto	-8.7205
▁geme	-8.72155
B	-8.72242
▁hör	-8.72368
▁ännu	-8.72395
▁märk	-8.72679
▁tur	-8.7275
▁&	-8.7304
▁kvar	-8.73108
▁passa	-8.7321
▁ifrån	-8.7326
▁hant	-8.73447
▁met	-8.73543
▁resa	-8.736
▁pres	-8.73608
▁le	-8.73639
▁anti	-8.73746
re	-8.7383
▁dning	-8.73942
led	-8.74209
grä	-8.74405
urop	-8.74425
ven	-8.74437
▁djur	-8.74555
▁söker	-8.74574
▁tal	-8.74585
▁regl	-8.74656
▁sidan	-8.74668
▁Kan	-8.748
▁la	-8.74964
▁olit	-8.7504
▁tion	-8.75109
▁släpp	-8.75121
▁esign	-8.75177
▁gel	-8.75225
▁test	-8.75423
icka	-8.75517
▁bolag	-8.75529
▁rest	-8.75733
▁nkelt	-8.75869
▁Wi	-8.75904
▁hund	-8.75962
▁port	-8.75972
▁behov	-8.76149
▁ings	-8.76203
▁nativ	-8.76784
▁rld	-8.76786
▁on	-8.76844
▁ärlek	-8.76846
▁sida	-8.76964
▁nline	-8.77191
▁und	-8.77221
▁satt	-8.77239
▁ionen	-8.77488
▁elser	-8.77505
▁örsök	-8.77616
▁enare	-8.77633
M	-8.77664
▁reko	-8.77724
▁id	-8.77756
▁eras	-8.77872
▁skö	-8.7802
▁bruk	-8.78179
redj	-8.78317
▁ilder	-8.78452
▁små	-8.78562
ne	-8.78699
▁anta	-8.78741
▁lokal	-8.78776
▁språk	-8.78835
▁året	-8.78992
▁lo	-8.7903
▁musik	-8.79076
▁idigt	-8.79152
et	-8.79344
▁misk	-8.79349
▁skydd	-8.79362
ic	-8.79419
▁nst	-8.79852
▁livit	-8.79854
O	-8.80017
▁färg	-8.80158
ig	-8.80188
▁’	-8.80318
▁lätt	-8.80327
▁reci	-8.80447
▁krä	-8.80567
▁fått	-8.80625
▁ytte	-8.80746
▁nell	-8.81163
▁ton	-8.81198
▁Ö	-8.8122
▁tress	-8.81232
▁bero	-8.81523
▁död	-8.81585
▁ndigt	-8.81587
▁alter	-8.81648
▁metod	-8.8171
om	-8.81727
▁vilka	-8.81734
▁leda	-8.81958
▁art	-8.82271
▁jäm	-8.82378
▁kring	-8.82907
▁ck	-8.83116
▁sälj	-8.83218
▁växt	-8.83419
▁inget	-8.83442
▁eiska	-8.83484
▁avtal	-8.83558
ntre	-8.8365
▁roll	-8.8371
akti	-8.8371
▁fyll	-8.83778
▁länge	-8.83779
▁ell	-8.83789
▁låt	-8.84032
▁isera	-8.84068
▁icke	-8.84136
▁sent	-8.84163
ydli	-8.84167
▁gilla	-8.84301
▁eriod	-8.84356
▁ber	-8.84609
▁ättra	-8.84635
▁klart	-8.84678
▁rd	-8.84831
lä	-8.8536
vinn	-8.85512
▁lora	-8.85709
▁minut	-8.8578
▁jä	-8.85849
▁Å	-8.85862
ik	-8.85976
▁tri	-8.86134
▁fyra	-8.8614
▁ve	-8.86368
▁tack	-8.86729
▁veta	-8.86946
▁rep	-8.86981
st	-8.87061
▁gtvis	-8.87088
▁Ca	-8.87223
▁ins	-8.8739
▁Ty	-8.87396
▁bry	-8.87544
ä	-8.87559
▁känna	-8.87634
▁naden	-8.8765
▁borg	-8.87697
▁lla	-8.87722
▁ost	-8.88028
▁komst	-8.88136
▁sen	-8.88183
▁krav	-8.88254
▁sse	-8.88277
▁vand	-8.88615
▁relse	-8.88689
▁vak	-8.88902
▁vård	-8.88932
▁ul	-8.88935
▁avs	-8.89037
▁grad	-8.89066
▁läsa	-8.89199
▁fil	-8.89683
dig	-8.8981
▁rande	-8.89837
▁rågan	-8.89869
▁Ja	-8.90013
llmä	-8.90091
▁titta	-8.90143
▁gräns	-8.90398
ktig	-8.90426
▁låg	-8.90607
▁vensk	-8.90643
▁mod	-8.90653
▁par	-8.90734
▁Mo	-8.9082
▁tning	-8.90869
▁välja	-8.90897
▁ria	-8.91527
▁ste	-8.91579
▁alt	-8.9158
▁lex	-8.91622
▁händ	-8.92025
▁nga	-8.92132
ni	-8.92133
▁ögon	-8.92344
▁co	-8.92497
us	-8.92549
▁nter	-8.9256
▁ist	-8.92604
▁bak	-8.9279
▁oppas	-8.92801
▁indu	-8.93075
▁dy	-8.93093
▁änsk	-8.932
▁stu	-8.93263
▁tudie	-8.9329
▁elare	-8.93299
▁taden	-8.93802
▁sett	-8.93955
▁sade	-8.94143
▁the	-8.9433
▁kalla	-8.9443
▁klass	-8.94466
▁ndas	-8.9449
▁vilja	-8.94526
▁års	-8.94794
▁dia	-8.94808
▁talet	-8.94824
▁snitt	-8.94872
▁est	-8.94946
▁Vilk	-8.94973
▁köpa	-8.95003
▁va	-8.95073
▁Upp	-8.95219
▁ådana	-8.95358
▁koll	-8.95373
▁llkor	-8.95567
▁rike	-8.95597
▁rist	-8.95599
▁stort	-8.95738
ft	-8.96309
▁tell	-8.9645
▁rnet	-8.96489
▁fakt	-8.96787
ad	-8.96812
▁kydda	-8.96826
▁sive	-8.96844
▁prata	-8.96909
K	-8.9715
▁ultur	-8.97261
▁000	-8.97438
▁exp	-8.97539
▁ffekt	-8.97541
▁skatt	-8.97592
▁rn	-8.97633
▁via	-8.97645
▁örs	-8.97666
lå	-8.97666
▁dare	-8.97674
▁hind	-8.97704
▁läs	-8.97706
▁j	-8.97781
▁rör	-8.97826
▁blod	-8.97961
▁båda	-8.97969
▁dra	-8.98207
▁tra	-8.98232
▁egna	-8.98258
▁ategi	-8.984
▁pati	-8.9844
▁app	-8.9851
▁krig	-8.98548
▁häls	-8.98558
▁etala	-8.98565
ka	-8.98579
▁nabbt	-8.98688
▁ngen	-8.98752
▁Z	-8.98908
man	-8.98935
▁Ut	-8.99024
▁liten	-8.99197
▁pris	-8.99232
▁ru	-8.99382
▁Mång	-8.99628
▁lar	-8.997
▁mä	-8.99804
▁Min	-9.00119
▁sikt	-9.00313
▁fokus	-9.00361
▁inner	-9.00455
ur	-9.00536
N	-9.00695
▁»	-9.00724
▁ja	-9.00748
▁vinna	-9.00772
▁ätt	-9.00809
▁trä	-9.00838
▁ond	-9.00958
▁univ	-9.01068
▁lam	-9.0108
rk	-9.01577
▁Fi	-9.01608
ga	-9.01627
▁dater	-9.01657
▁ca	-9.01779
▁up	-9.01792
▁smä	-9.01825
▁skada	-9.01955
▁20	-9.02056
▁Då	-9.02083
▁kväll	-9.02132
▁Ma	-9.02206
▁lltså	-9.02354
▁ant	-9.02416
▁bygga	-9.02645
▁ue	-9.02701
▁tverk	-9.02863
▁svårt	-9.02919
▁räkna	-9.02959
U	-9.02983
H	-9.03047
▁ator	-9.03206
▁först	-9.03266
▁rivat	-9.03306
▁rde	-9.03431
▁ljus	-9.03638
▁enlig	-9.03645
▁nna	-9.03684
▁örord	-9.03708
▁itua	-9.03744
▁timm	-9.03839
▁bio	-9.03921
at	-9.04065
▁tj	-9.04139
lob	-9.04182
3	-9.04327
▁prof	-9.04351
▁mängd	-9.04392
▁lista	-9.04431
▁iella	-9.0463
nabb	-9.04679
▁tjäna	-9.04752
▁möte	-9.04755
▁*	-9.04855
▁tom	-9.04917
▁örjan	-9.05256
▁Ni	-9.05258
V	-9.05315
▁helst	-9.05349
▁asino	-9.05389
▁erat	-9.05452
tisk	-9.05611
▁io	-9.05686
▁öp	-9.05696
▁ork	-9.05702
edan	-9.0572
▁ack	-9.06047
▁fiera	-9.0611
▁dell	-9.06272
▁titut	-9.06632
▁rna	-9.06867
▁bete	-9.06876
2	-9.06891
▁kt	-9.06904
se	-9.07288
ätt	-9.07289
▁dö	-9.07625
▁andet	-9.07664
▁em	-9.07812
▁bar	-9.0782
▁ntakt	-9.07889
▁märke	-9.07908
egr	-9.07938
red	-9.08049
▁rvice	-9.08121
▁th	-9.08179
▁ktur	-9.08208
▁hell	-9.0827
ha	-9.08298
▁väx	-9.08399
▁morg	-9.08457
▁nå	-9.0859
▁New	-9.08693
▁Guds	-9.0874
äckl	-9.08841
istr	-9.08886
▁långt	-9.0896
▁norm	-9.09157
kill	-9.09182
▁täck	-9.09188
▁ay	-9.09353
▁ic	-9.09418
▁sista	-9.09424
▁nhet	-9.09537
▁Allt	-9.09652
em	-9.09812
fini	-9.09864
▁svar	-9.10114
▁bank	-9.10221
▁pass	-9.10289
▁ref	-9.10494
▁eln	-9.10596
▁ök	-9.10611
▁un	-9.1062
▁ill	-9.1063
▁ock	-9.1068
▁valt	-9.10821
▁inga	-9.10845
▁ap	-9.10854
▁känd	-9.11028
▁saml	-9.1113
▁licka	-9.11175
▁ka	-9.11198
▁inför	-9.11351
▁ati	-9.11368
▁perf	-9.11619
▁borde	-9.11656
▁log	-9.11882
rt	-9.1193
▁gamla	-9.11993
▁ital	-9.11994
▁ggnad	-9.11994
▁viss	-9.12002
▁minst	-9.12055
▁sådan	-9.12078
▁gaste	-9.12242
▁anför	-9.12269
▁äker	-9.12312
▁döda	-9.1237
▁vän	-9.12488
▁ab	-9.12504
▁rakt	-9.12509
▁äldr	-9.12681
▁trän	-9.12711
▁bro	-9.12724
▁önska	-9.1273
▁förut	-9.12856
▁ident	-9.12876
▁demo	-9.12905
▁hopp	-9.13124
▁mån	-9.13133
▁lic	-9.13227
▁ndare	-9.1323
▁prov	-9.13266
elef	-9.13292
▁möt	-9.13352
ivid	-9.13592
▁ses	-9.13595
▁fru	-9.13743
▁rolig	-9.13759
▁30	-9.13764
▁sju	-9.13906
▁amma	-9.13973
bb	-9.14272
▁off	-9.14281
▁haft	-9.14293
ac	-9.1432
▁Bo	-9.14456
▁grav	-9.14462
▁mmar	-9.14478
▁kor	-9.14589
▁nien	-9.1465
ro	-9.14674
▁stall	-9.14694
▁dålig	-9.1473
▁ndig	-9.14733
▁hälsa	-9.14745
▁text	-9.14748
▁förs	-9.14797
▁stand	-9.148
▁ring	-9.14815
irek	-9.14859
rus	-9.1493
▁Ha	-9.14962
▁ou	-9.15039
▁ros	-9.1531
▁ritt	-9.15331
▁brott	-9.15375
▁spe	-9.1539
▁pelar	-9.15396
▁•	-9.15425
▁sera	-9.15438
▁mus	-9.1547
▁X	-9.1554
▁ent	-9.15576
▁ey	-9.15668
▁video	-9.157
▁trakt	-9.15894
▁blogg	-9.1594
▁ll	-9.15955
▁fanns	-9.16063
▁Q	-9.16209
▁vo	-9.16316
▁öring	-9.16476
▁likt	-9.16528
▁ublic	-9.16628
▁bud	-9.16732
amfö	-9.16784
▁såsom	-9.16885
▁ror	-9.16921
▁offe	-9.17041
▁värld	-9.17056
▁vem	-9.17147
▁ordn	-9.17215
▁ras	-9.17395
▁idé	-9.17591
ntas	-9.17608
ul	-9.17649
▁grat	-9.17693
▁gav	-9.17701
▁syfte	-9.17751
▁Ingen	-9.17751
1	-9.1778
▁mmel	-9.17847
▁sats	-9.17862
▁ien	-9.1788
ku	-9.17982
▁lägga	-9.18007
▁ast	-9.18011
▁högre	-9.18147
▁ologi	-9.18174
▁uts	-9.18216
▁tvi	-9.18242
▁djup	-9.1845
▁ommit	-9.18453
▁berg	-9.18484
▁Av	-9.18491
▁hemma	-9.18517
▁nsvar	-9.18626
▁Re	-9.18649
▁Jesus	-9.18986
▁vack	-9.19049
▁serie	-9.19081
lv	-9.19316
▁ffär	-9.19337
▁klar	-9.19359
▁akta	-9.1945
▁krit	-9.19473
▁Vä	-9.19473
nlä	-9.19547
▁Låt	-9.19688
▁antör	-9.1969
▁måga	-9.19781
▁dröm	-9.19972
▁stans	-9.19992
stig	-9.2007
▁domar	-9.20084
▁iellt	-9.20132
▁ysi	-9.20151
▁meter	-9.20153
▁mar	-9.20248
▁röd	-9.20349
▁lopp	-9.20404
▁gital	-9.20444
▁tarta	-9.20465
onsu	-9.20484
▁ram	-9.20526
▁aste	-9.20611
▁regel	-9.20708
▁luti	-9.20811
radi	-9.20894
▁ange	-9.20912
▁ransk	-9.20912
▁kal	-9.20996
▁Elle	-9.21008
▁chef	-9.21157
▁öcker	-9.21299
▁foto	-9.21322
▁ville	-9.21531
▁itta	-9.21552
▁beta	-9.21582
ori	-9.2165
▁is	-9.21657
▁akti	-9.21772
▁bund	-9.21783
▁ark	-9.21825
▁gått	-9.21849
▁ac	-9.21931
döm	-9.21973
▁säkra	-9.21997
▁vägen	-9.22017
ed	-9.22045
▁edel	-9.22072
▁veck	-9.22107
lo	-9.22158
▁gre	-9.22186
▁genh	-9.22238
▁lass	-9.22247
▁ägg	-9.22288
▁glö	-9.22406
▁stol	-9.22436
▁dator	-9.22436
▁hav	-9.22444
▁litik	-9.22445
▁krift	-9.22482
▁hu	-9.22493
▁uppnå	-9.22664
▁välj	-9.22703
▁srael	-9.22848
ommu	-9.2304
6	-9.23091
▁lytta	-9.23121
▁räver	-9.23216
▁kamp	-9.23311
▁rec	-9.23326
▁15	-9.23404
▁total	-9.23454
▁Sam	-9.23542
▁tänka	-9.23649
▁last	-9.23656
▁redo	-9.23697
▁sign	-9.23857
▁äta	-9.23906
▁mobil	-9.23963
▁ch	-9.24091
▁itter	-9.24105
ck	-9.24309
▁allas	-9.24436
▁uari	-9.24437
▁Varj	-9.24492
▁enkla	-9.24505
▁eende	-9.24511
▁inal	-9.24593
▁fika	-9.24746
▁sätta	-9.24803
site	-9.2493
▁mna	-9.24957
▁läk	-9.25002
4	-9.25053
▁äkt	-9.25088
▁Vem	-9.25095
▁gy	-9.2511
oku	-9.25164
▁maj	-9.25202
▁lut	-9.25308
▁emang	-9.2536
enom	-9.25385
amla	-9.25395
▁No	-9.25446
▁rim	-9.25492
▁ker	-9.25617
bar	-9.25632
▁kolan	-9.25668
▁erens	-9.25803
▁visn	-9.25865
▁Uni	-9.26019
▁vån	-9.2602
▁natt	-9.26381
▁Ta	-9.26399
▁Kom	-9.26518
▁ak	-9.26522
▁luft	-9.26609
▁heter	-9.26627
lekt	-9.26703
▁ren	-9.2688
▁ci	-9.26887
▁cell	-9.27021
▁uella	-9.27289
▁my	-9.27305
▁dis	-9.27319
▁tälla	-9.27359
▁dde	-9.27372
▁kare	-9.27413
ce	-9.27691
▁gen	-9.2776
▁lett	-9.27882
▁ust	-9.27935
▁krävs	-9.27959
da	-9.28009
ikat	-9.28068
▁bu	-9.28276
▁lin	-9.28443
▁ions	-9.28576
▁köp	-9.28853
▁ff	-9.28893
för	-9.29006
▁sti	-9.2915
▁jobba	-9.29293
▁extra	-9.29297
▁åren	-9.29676
▁lands	-9.29687
!	-9.29723
▁berö	-9.29833
▁Vill	-9.29897
▁färd	-9.29923
▁ång	-9.29952
▁gara	-9.30031
▁sagt	-9.3007
▁ool	-9.3007
▁mini	-9.30097
▁post	-9.30166
rspr	-9.30191
▁lån	-9.30327
▁mt	-9.30342
▁delen	-9.30444
▁grip	-9.30492
▁ås	-9.30529
▁sch	-9.30599
▁ålder	-9.30621
▁jö	-9.30635
▁redit	-9.30829
▁mamma	-9.30864
pir	-9.311
▁sten	-9.31124
▁ända	-9.31155
▁limat	-9.31271
▁ladd	-9.31316
▁dec	-9.31358
▁typer	-9.315
itio	-9.3155
▁ön	-9.31605
▁kost	-9.31727
▁säkr	-9.31889
▁urang	-9.31964
▁lutet	-9.32079
▁ändå	-9.32096
▁motor	-9.32131
▁Vid	-9.32192
▁arm	-9.32247
▁makt	-9.32344
▁tor	-9.32496
▁perat	-9.32591
▁agera	-9.32596
ö	-9.32916
▁fullt	-9.33013
▁nö	-9.33057
▁glad	-9.33058
▁skol	-9.33091
▁följa	-9.33107
▁tidig	-9.33395
▁rämst	-9.3348
▁rot	-9.33567
▁ncip	-9.33683
▁bäst	-9.33723
▁ret	-9.33856
▁trö	-9.34029
ge	-9.34169
▁Kina	-9.34207
▁ute	-9.34222
▁z	-9.34277
▁bidra	-9.34306
▁brä	-9.34408
▁rtera	-9.34537
▁ämp	-9.34583
▁dent	-9.3476
▁os	-9.34786
▁nät	-9.34851
id	-9.34887
▁nne	-9.35011
▁Från	-9.35124
▁he	-9.35154
▁tent	-9.35241
▁tas	-9.35248
▁nupp	-9.35256
▁övr	-9.35276
▁orit	-9.35394
▁ina	-9.35463
▁rs	-9.35488
▁batt	-9.35505
▁gärn	-9.35551
▁oogle	-9.35643
▁född	-9.35645
▁rihet	-9.35654
▁ål	-9.35846
▁parti	-9.35863
▁huset	-9.35908
▁snart	-9.35957
▁ommar	-9.35962
ry	-9.36062
▁ihåg	-9.36166
▁12	-9.36167
ke	-9.3623
▁amb	-9.36242
▁rer	-9.36286
▁Ju	-9.36407
▁gra	-9.36474
▁gamm	-9.36586
▁euro	-9.36636
vi	-9.36702
▁nsa	-9.36854
▁match	-9.36889
▁hi	-9.36926
▁Stor	-9.37014
▁ok	-9.37107
▁sitiv	-9.37113
▁rda	-9.37199
é	-9.37231
▁sakna	-9.37237
▁ial	-9.37278
▁stil	-9.3749
nnov	-9.375
▁kriva	-9.37717
▁stra	-9.37823
▁terr	-9.37913
▁nande	-9.38077
▁Ge	-9.38078
▁ssna	-9.38084
▁orna	-9.38243
▁bas	-9.38486
▁au	-9.38521
ko	-9.3869
▁vux	-9.38829
▁vare	-9.38879
▁mstol	-9.38928
rtne	-9.38933
▁Sk	-9.39084
▁ppen	-9.39312
▁itt	-9.39313
▁event	-9.39357
▁pänn	-9.39365
▁mera	-9.39408
▁gud	-9.39423
9	-9.39555
▁ancer	-9.39745
▁ämpa	-9.39746
▁låta	-9.39876
▁mass	-9.40022
▁avse	-9.4007
▁ism	-9.40113
▁rä	-9.4013
ab	-9.40145
▁bord	-9.40155
▁Ro	-9.40167
▁plac	-9.40256
▁ol	-9.40376
▁Jo	-9.40422
▁fot	-9.40568
▁eget	-9.4067
-	-9.40724
▁lön	-9.40733
▁ank	-9.40834
▁bart	-9.40865
▁läge	-9.40981
▁ening	-9.40998
umm	-9.41061
▁Tack	-9.41071
▁ringa	-9.41199
▁rig	-9.41377
▁amp	-9.41407
▁fälle	-9.41418
▁stod	-9.41508
▁deln	-9.41651
ift	-9.41763
▁begär	-9.41879
ccep	-9.42022
▁mät	-9.42096
▁hämt	-9.4211
▁kret	-9.42114
▁dat	-9.42122
▁lust	-9.42187
▁ublik	-9.42225
▁dande	-9.42324
▁gsta	-9.4233
▁lock	-9.42339
▁anna	-9.42407
▁mråde	-9.4244
▁grepp	-9.4245
▁net	-9.42469
▁topp	-9.42546
▁ib	-9.42659
▁kämpa	-9.42666
x	-9.42671
▁ehövs	-9.42719
▁tanna	-9.42819
sök	-9.42837
▁spekt	-9.42911
ru	-9.42923
▁spår	-9.4314
▁rning	-9.43164
▁akt	-9.43274
▁äkert	-9.43346
▁ellt	-9.43442
▁kapa	-9.43726
7	-9.439
▁red	-9.43963
▁sm	-9.44113
▁forma	-9.44171
▁arnen	-9.44362
▁grön	-9.44402
atte	-9.44417
rera	-9.4448
▁bakom	-9.44489
▁cha	-9.44702
▁lit	-9.44715
▁rädda	-9.44823
▁ativ	-9.44869
▁sym	-9.44893
▁ild	-9.44903
am	-9.44977
ine	-9.45049
ow	-9.45065
håll	-9.45097
▁pelet	-9.45149
▁age	-9.45156
med	-9.45268
▁Ko	-9.45276
▁bor	-9.45393
▁gott	-9.45495
▁+	-9.45728
jut	-9.45729
▁temp	-9.45731
▁ob	-9.45953
▁gefär	-9.45954
▁lera	-9.45978
5	-9.45984
▁änd	-9.46107
me	-9.46166
▁litet	-9.46223
▁ce	-9.4626
▁rien	-9.46365
▁ustr	-9.46596
▁Cha	-9.46757
▁nellt	-9.46888
▁Ho	-9.46909
▁döm	-9.46929
▁skild	-9.46933
▁trol	-9.47072
▁äsong	-9.47233
▁for	-9.47233
▁lid	-9.47235
▁rand	-9.47235
▁hörig	-9.47267
▁psy	-9.47376
▁ress	-9.47478
tu	-9.4757
▁iva	-9.47724
▁spara	-9.47891
▁ndel	-9.47988
▁boken	-9.4804
th	-9.48197
▁änsl	-9.48302
▁kam	-9.4832
▁am	-9.48351
▁Le	-9.4854
▁etalj	-9.48767
▁ordon	-9.48769
▁our	-9.4894
▁ollar	-9.49029
▁hjä	-9.49039
▁ont	-9.4907
▁nov	-9.49143
▁fic	-9.49344
▁fi	-9.49471
▁våld	-9.49482
▁Över	-9.49488
▁llda	-9.49546
▁Idag	-9.4955
▁äst	-9.4963
▁nk	-9.49631
▁ördel	-9.49667
▁kvens	-9.49695
▁imp	-9.49732
▁ky	-9.49752
▁50	-9.49808
▁vär	-9.49867
8	-9.50043
▁utgör	-9.50082
änk	-9.50106
▁tälle	-9.50191
▁iet	-9.50217
▁sidor	-9.50335
mi	-9.50428
▁innas	-9.50492
▁kris	-9.50522
▁fjä	-9.50596
▁äldre	-9.50599
esul	-9.50728
▁låter	-9.5082
▁kurs	-9.50825
▁samb	-9.50945
▁100	-9.51002
ell	-9.51021
▁lys	-9.51253
▁kä	-9.51363
▁sta	-9.51494
▁ong	-9.51605
▁ma	-9.51641
▁ti	-9.51844
▁märkt	-9.51859
ästa	-9.51987
▁träng	-9.52048
folk	-9.52113
▁ang	-9.52308
▁md	-9.52315
▁goda	-9.52329
▁opt	-9.5239
▁tanke	-9.52395
▁kända	-9.52405
▁kul	-9.52457
▁ekväm	-9.52643
▁EG	-9.52664
▁mäss	-9.52774
▁admi	-9.52863
▁yckl	-9.52894
▁ljud	-9.53102
▁ihop	-9.5314
▁ood	-9.53159
▁John	-9.53197
▁åk	-9.5322
▁knapp	-9.53264
▁ovan	-9.53559
▁mörk	-9.53592
▁ot	-9.53593
bso	-9.53766
▁trot	-9.53778
umme	-9.53834
▁ua	-9.5385
▁polis	-9.53966
▁Su	-9.54017
▁ndar	-9.54063
▁issa	-9.54078
▁etter	-9.54113
▁sjö	-9.54138
▁kyl	-9.54248
▁skäl	-9.5427
▁ari	-9.54554
▁arki	-9.5466
imma	-9.54676
▁pa	-9.54688
▁go	-9.54808
▁takta	-9.54842
▁bad	-9.54859
▁Po	-9.54888
▁mare	-9.54891
▁ycke	-9.55022
▁värt	-9.55028
▁ag	-9.55067
▁ose	-9.55079
▁tider	-9.55103
▁Frank	-9.55177
▁unio	-9.55199
▁ess	-9.55243
▁lay	-9.55295
gag	-9.55314
mo	-9.5535
▁fulla	-9.55562
▁otter	-9.55563
▁krati	-9.55593
▁räck	-9.55735
▁rra	-9.55887
▁Di	-9.55894
▁änsla	-9.56018
▁lim	-9.56072
▁mmer	-9.56074
▁uper	-9.56156
▁ättet	-9.56193
▁Din	-9.56313
▁intr	-9.56328
▁åde	-9.56415
▁sel	-9.56725
▁varig	-9.56739
▁kyld	-9.56742
▁Ne	-9.56804
▁Vår	-9.56901
▁skrev	-9.56934
▁Viss	-9.56937
▁atisk	-9.5695
▁riär	-9.56954
ak	-9.57099
▁tit	-9.57128
▁rådet	-9.57235
▁brist	-9.57237
ämn	-9.57247
▁varor	-9.57338
▁ttn	-9.57382
▁riska	-9.5739
▁delta	-9.57462
▁rare	-9.57527
▁vinst	-9.57565
um	-9.57603
▁cirka	-9.57639
▁nent	-9.5767
▁olen	-9.57685
isku	-9.57712
▁tig	-9.5779
▁lt	-9.5785
▁ec	-9.57873
▁rese	-9.57903
▁ratur	-9.57978
▁tusen	-9.57991
▁strä	-9.58154
glig	-9.58242
▁arty	-9.58317
▁askin	-9.58377
▁ske	-9.58387
▁icin	-9.58441
järn	-9.585
ek	-9.58547
▁ich	-9.58667
▁fria	-9.58715
▁tank	-9.58728
▁hår	-9.58805
▁äng	-9.58814
▁fas	-9.59047
▁team	-9.59067
▁dor	-9.59158
▁dik	-9.59175
▁leder	-9.59182
▁ådant	-9.59226
▁Th	-9.59292
▁Ex	-9.59343
▁tills	-9.59366
▁ester	-9.59416
▁blick	-9.59431
▁bol	-9.59594
prid	-9.59599
yhet	-9.59779
▁exakt	-9.5982
▁All	-9.59877
▁frukt	-9.59945
pulä	-9.59949
▁ägare	-9.5999
▁ash	-9.60195
▁ssio	-9.60207
▁drick	-9.60211
▁teter	-9.60239
▁ler	-9.60511
▁eck	-9.60589
▁undra	-9.60705
▁träck	-9.60897
▁start	-9.60947
Vi	-9.60952
▁stopp	-9.6102
▁ärlig	-9.61099
▁La	-9.61139
▁oj	-9.61173
▁dern	-9.61214
▁gn	-9.61223
▁$	-9.61285
▁ilmen	-9.61309
▁lagen	-9.61315
▁xtr	-9.61315
▁ttack	-9.61327
spe	-9.61374
rist	-9.61467
▁grafi	-9.61475
▁no	-9.61573
▁öv	-9.61623
▁anc	-9.61665
▁forsk	-9.61713
år	-9.61792
▁blo	-9.61793
▁ake	-9.61981
▁entar	-9.62019
▁atio	-9.62021
▁Nord	-9.62095
▁sste	-9.62192
▁kry	-9.62228
▁hit	-9.62381
▁ight	-9.62428
▁boll	-9.6243
ut	-9.62475
ol	-9.62671
▁11	-9.62688
▁18	-9.627
ävl	-9.62769
▁ebook	-9.62775
▁bilar	-9.62781
▁ämne	-9.62852
▁andi	-9.62893
▁nch	-9.62908
▁mati	-9.62954
▁lås	-9.63004
▁minne	-9.63099
▁kons	-9.63165
▁känns	-9.63214
▁klä	-9.63268
▁ateg	-9.6339
▁leg	-9.63396
▁höra	-9.63418
▁glas	-9.63423
▁eal	-9.63607
▁vapen	-9.63611
▁butik	-9.63645
ilj	-9.63677
▁Hans	-9.63699
▁25	-9.63751
▁höll	-9.63766
▁oavs	-9.63785
naly	-9.63825
▁rskap	-9.63916
▁gare	-9.63964
▁latt	-9.64
▁öjlig	-9.64036
▁try	-9.64057
▁linj	-9.6411
▁unga	-9.64139
▁atur	-9.64227
▁lln	-9.64322
▁drog	-9.64332
▁ges	-9.64352
W	-9.64378
▁nland	-9.6443
▁estår	-9.64444
▁fta	-9.64562
▁trafi	-9.6457
▁ensam	-9.64606
▁klaga	-9.64632
▁synd	-9.64685
▁agens	-9.64688
▁meni	-9.6475
anni	-9.64826
▁edia	-9.64971
▁hård	-9.64971
▁dera	-9.65039
▁rädd	-9.65062
▁undv	-9.65098
▁ades	-9.65189
▁locka	-9.65287
▁strid	-9.65306
▁tts	-9.65376
▁emål	-9.65408
▁gera	-9.65459
▁nnen	-9.6548
q	-9.65496
▁mor	-9.65503
▁skan	-9.65526
▁visas	-9.65565
▁frä	-9.65567
▁ui	-9.65614
▁ow	-9.65655
▁Finn	-9.65694
▁ttr	-9.657
▁motiv	-9.65834
▁lill	-9.65873
▁emi	-9.65888
▁roni	-9.65917
▁jan	-9.65951
▁tör	-9.66162
▁lunda	-9.66213
▁dress	-9.66254
▁vgöra	-9.66394
▁stro	-9.66399
▁not	-9.66399
▁inst	-9.66429
▁ars	-9.66544
▁fik	-9.6657
▁uss	-9.66579
▁q	-9.66588
▁rang	-9.66658
▁Res	-9.6671
▁arnet	-9.66826
▁sö	-9.66833
▁gnos	-9.66856
▁mana	-9.66969
▁alans	-9.66973
▁ember	-9.66982
enti	-9.67082
▁bjud	-9.67184
▁Kon	-9.67201
▁oppl	-9.6721
▁smart	-9.67249
▁elsen	-9.67316
▁atum	-9.67426
▁gård	-9.67474
yttj	-9.67488
serv	-9.67489
stru	-9.67501
▁sker	-9.67511
▁nalys	-9.67525
▁riset	-9.6755
▁lott	-9.67568
▁hot	-9.67583
▁Gör	-9.67586
▁nens	-9.6759
löd	-9.67601
▁lär	-9.6762
▁com	-9.67647
▁ämnen	-9.67748
▁jd	-9.67798
▁nöjd	-9.67875
juk	-9.67881
▁iell	-9.67914
▁kör	-9.67933
▁Dr	-9.67938
▁ndows	-9.67966
▁iser	-9.67971
▁varm	-9.67996
▁ud	-9.6807
▁gla	-9.68128
▁lykt	-9.68255
▁gas	-9.68317
▁riser	-9.68431
X	-9.68492
▁edan	-9.68508
▁term	-9.68516
▁kro	-9.68519
▁löj	-9.68547
▁TV	-9.68586
▁stör	-9.68602
▁ten	-9.68655
▁bred	-9.687
▁ame	-9.68708
▁fund	-9.68709
▁täcka	-9.68713
▁ormat	-9.68811
▁yrkan	-9.68833
▁finna	-9.68867
▁band	-9.68892
▁ness	-9.68988
▁hört	-9.68993
tär	-9.69072
▁tc	-9.69195
▁skog	-9.69199
▁gran	-9.69271
▁orden	-9.69281
▁auto	-9.69291
▁fre	-9.69446
▁ata	-9.69463
▁erti	-9.69591
▁poli	-9.69601
▁its	-9.69628
▁sökte	-9.69723
▁tatet	-9.69851
▁mnd	-9.69855
▁oäng	-9.70002
▁liks	-9.70004
▁Mi	-9.70252
aff	-9.70297
▁—	-9.7074
▁följd	-9.70792
▁brev	-9.70889
▁anser	-9.70946
▁erier	-9.70947
▁öd	-9.70977
▁mul	-9.71008
▁jätte	-9.71185
▁ilj	-9.71275
▁Sy	-9.71301
▁pp	-9.71408
elev	-9.71485
▁jo	-9.71599
▁sport	-9.71651
▁tru	-9.71686
▁ox	-9.71698
▁satte	-9.71729
▁>	-9.71786
▁fylla	-9.71967
▁läg	-9.72032
▁skott	-9.72083
▁appa	-9.72083
▁kärn	-9.72108
▁rak	-9.72119
▁Stoc	-9.72124
▁kholm	-9.72231
▁gress	-9.72238
▁vänl	-9.72292
▁rå	-9.72413
orre	-9.72441
▁gativ	-9.72532
▁tna	-9.72543
änsl	-9.72633
▁parat	-9.72647
▁eld	-9.72669
▁mmun	-9.72685
täng	-9.72696
▁lubb	-9.72753
▁elev	-9.7277
▁kung	-9.72852
▁rier	-9.72877
▁oid	-9.7291
▁revo	-9.72931
▁idrag	-9.72986
▁ativa	-9.73025
itan	-9.7305
▁Mer	-9.73112
▁meta	-9.7312
▁rek	-9.73164
▁rrens	-9.73166
▁udget	-9.73288
▁rök	-9.73328
▁rid	-9.7338
▁reda	-9.73477
▁höga	-9.73565
änd	-9.73657
▁van	-9.73675
▁änn	-9.73695
vil	-9.73764
▁tan	-9.73782
▁närma	-9.73864
▁16	-9.73899
▁aktär	-9.73916
▁havet	-9.73928
im	-9.73974
▁öds	-9.73986
▁Dan	-9.74126
▁ström	-9.74214
▁oly	-9.74218
▁dä	-9.74258
▁insk	-9.74328
▁årig	-9.74454
▁täder	-9.74511
reat	-9.74533
▁amtal	-9.74537
▁svåra	-9.74577
▁nn	-9.74595
▁tyr	-9.7461
▁kuld	-9.74663
▁ntio	-9.74713
▁erren	-9.74744
▁ktor	-9.74747
co	-9.74775
▁traff	-9.74822
▁ulär	-9.74832
▁els	-9.74858
▁rän	-9.75042
yss	-9.75105
▁nnons	-9.75128
ho	-9.75211
▁yta	-9.75219
temb	-9.75256
▁skärm	-9.7532
▁mars	-9.75464
▁lugn	-9.75532
▁juni	-9.75568
ja	-9.75605
▁ali	-9.75606
▁säng	-9.75611
▁ckel	-9.7565
▁Wo	-9.75672
▁lova	-9.75686
bin	-9.75825
▁sem	-9.75867
▁rit	-9.75961
▁graf	-9.76043
▁ik	-9.76145
▁skä	-9.76207
▁anj	-9.76254
▁värme	-9.76259
▁exist	-9.76382
▁mb	-9.76408
▁lita	-9.76424
▁ökar	-9.76428
▁aktum	-9.76444
▁rre	-9.76517
▁taten	-9.76546
▁yft	-9.76555
▁ålet	-9.76556
▁strin	-9.76575
▁ondon	-9.76742
▁bevis	-9.76775
▁rämja	-9.76845
▁ail	-9.76898
▁arti	-9.77
▁svag	-9.77008
▁scen	-9.77099
▁dgård	-9.77159
▁alls	-9.7718
▁ind	-9.77188
▁unnit	-9.77237
▁arhet	-9.77493
sen	-9.77634
▁glä	-9.7785
▁lätta	-9.77884
▁teo	-9.77885
▁högt	-9.77928
▁ep	-9.77994
▁Do	-9.78034
ölj	-9.78052
▁värv	-9.78056
ark	-9.7814
▁ften	-9.78205
▁vig	-9.78233
▁allet	-9.78237
▁lan	-9.78344
▁#	-9.78431
rabb	-9.78611
▁ity	-9.78702
▁lans	-9.78795
ibu	-9.78831
▁röv	-9.78957
▁läder	-9.79074
▁Bra	-9.79125
▁Sp	-9.79147
▁tali	-9.79186
▁ater	-9.79211
▁ick	-9.79214
▁ingår	-9.79245
as	-9.79305
▁tes	-9.79324
▁lse	-9.79361
gg	-9.79418
▁talar	-9.79431
öv	-9.79446
▁rymme	-9.79499
▁13	-9.79563
▁rus	-9.79611
▁ym	-9.79662
▁remi	-9.79751
▁lagar	-9.79753
▁té	-9.79908
▁massa	-9.79929
▁tad	-9.80003
ffic	-9.80017
▁landa	-9.80054
▁sä	-9.80078
▁själ	-9.80123
▁vin	-9.80345
▁iler	-9.80349
▁ley	-9.80399
▁kasta	-9.80437
▁hone	-9.80493
▁ass	-9.80537
▁stik	-9.80538
▁iös	-9.80544
▁rygg	-9.80549
▁söka	-9.80597
▁vit	-9.80791
▁illig	-9.80827
▁iera	-9.80851
rö	-9.80868
ekto	-9.80915
▁pple	-9.81068
▁ssa	-9.81075
▁ago	-9.81098
▁domen	-9.81121
▁ril	-9.81293
ing	-9.81422
▁dit	-9.81442
▁ira	-9.81503
▁ormer	-9.81535
▁sälja	-9.81563
▁ris	-9.81608
▁oga	-9.81699
▁Sc	-9.81847
▁iff	-9.81888
▁urser	-9.81911
▁oft	-9.82198
▁leta	-9.82205
▁ven	-9.82239
▁aket	-9.8227
▁kol	-9.82281
▁ham	-9.82288
▁tips	-9.82449
bo	-9.82516
▁rev	-9.82559
▁para	-9.82597
▁ach	-9.82632
▁ngel	-9.82648
▁satta	-9.82661
▁nses	-9.82713
▁äg	-9.82724
▁lju	-9.82808
▁svår	-9.8285
▁aktu	-9.82889
▁arder	-9.82923
▁40	-9.83015
▁eror	-9.83049
▁nus	-9.83066
▁arlig	-9.83144
▁El	-9.83205
▁14	-9.8333
ly	-9.83342
▁gö	-9.83385
▁rm	-9.83436
▁År	-9.8346
▁förra	-9.837
▁mber	-9.83755
▁lack	-9.83761
▁annen	-9.8378
▁sinne	-9.83782
▁längd	-9.83787
▁linje	-9.83803
▁jut	-9.83805
▁len	-9.83809
▁ence	-9.83859
▁rea	-9.84015
▁lanet	-9.84037
▁rift	-9.84048
isk	-9.84136
▁gger	-9.84155
▁trand	-9.84212
▁klo	-9.84245
▁nnor	-9.84246
▁isti	-9.84323
▁smak	-9.84378
▁amen	-9.84385
▁ron	-9.84422
▁känt	-9.84529
▁ikt	-9.84599
nslu	-9.84617
▁hol	-9.84665
▁stone	-9.84717
▁ling	-9.84722
▁åg	-9.84824
▁mask	-9.84924
▁varet	-9.84952
▁avid	-9.84952
▁ept	-9.84999
▁kta	-9.85022
▁affär	-9.85039
▁ax	-9.85155
Y	-9.85158
▁rk	-9.85223
▁nnan	-9.85423
▁Al	-9.85429
▁cka	-9.85449
▁taget	-9.85674
▁resp	-9.85711
▁sub	-9.85717
▁oli	-9.85731
▁bef	-9.85824
▁kod	-9.85866
▁isa	-9.85901
▁Tre	-9.85903
▁åll	-9.85944
▁kall	-9.86043
▁affe	-9.86048
▁press	-9.86092
▁dry	-9.86103
▁als	-9.86112
▁ats	-9.86159
▁sh	-9.8625
ukar	-9.86282
▁ilden	-9.86358
▁fisk	-9.86367
▁ngs	-9.86513
▁fred	-9.86577
▁frika	-9.86594
▁ernas	-9.86834
▁skri	-9.8689
▁nam	-9.8689
he	-9.86931
▁sko	-9.86946
▁åra	-9.8695
▁sal	-9.86958
▁rab	-9.87008
▁äster	-9.87035
▁arken	-9.87094
▁teten	-9.87191
▁redi	-9.87204
▁unt	-9.8725
▁ral	-9.87281
▁yk	-9.87302
ca	-9.87311
▁ann	-9.87404
▁orge	-9.87598
▁vgift	-9.87633
▁full	-9.87642
▁redd	-9.87645
▁chans	-9.87813
▁iss	-9.87883
▁Tru	-9.8792
▁ms	-9.88017
▁nsi	-9.8807
▁okt	-9.88115
▁urg	-9.88139
▁citet	-9.88337
▁erso	-9.88476
▁unik	-9.88554
▁otek	-9.88571
▁rten	-9.8871
lag	-9.88763
▁Euro	-9.88769
ci	-9.88849
▁enkel	-9.88886
▁hat	-9.88976
▁bär	-9.88987
▁star	-9.89094
▁bis	-9.89137
▁äll	-9.89288
▁ect	-9.89291
▁mång	-9.89364
▁­	-9.89403
▁idig	-9.8953
▁repa	-9.89586
▁Ny	-9.89597
▁sum	-9.89642
▁eder	-9.89659
tera	-9.89668
▁bilen	-9.89699
▁roma	-9.89733
ombi	-9.89836
▁sov	-9.89928
▁hal	-9.9004
▁agi	-9.90237
▁kyrk	-9.9032
▁nger	-9.90364
▁visat	-9.90375
niti	-9.90377
▁ommun	-9.90405
anno	-9.90431
utom	-9.90441
▁Fö	-9.90496
▁jul	-9.90511
▁anal	-9.9052
▁orta	-9.90525
ind	-9.90561
▁mena	-9.90578
komm	-9.90615
▁omp	-9.90618
arla	-9.90738
▁plo	-9.90755
▁enar	-9.90774
▁mal	-9.908
▁urs	-9.90892
ll	-9.91017
▁derar	-9.91056
▁llor	-9.91057
▁iz	-9.9118
▁fä	-9.91209
▁park	-9.91291
▁roa	-9.91359
▁Pre	-9.91434
▁elvis	-9.91474
uva	-9.91526
▁You	-9.91567
▁fekt	-9.91571
▁cep	-9.91573
▁terar	-9.91595
▁ete	-9.91612
▁Str	-9.91693
▁24	-9.91704
▁max	-9.91714
▁otell	-9.91764
▁lipp	-9.91807
▁räd	-9.91859
▁öreg	-9.9187
▁kron	-9.91879
rans	-9.91919
▁Go	-9.92016
%	-9.92197
kes	-9.92233
▁aria	-9.92269
▁otta	-9.92304
▁lapp	-9.92319
▁FN	-9.92359
mpo	-9.92382
gra	-9.92494
▁sky	-9.92531
▁äter	-9.92616
▁Hu	-9.92625
▁kilda	-9.927
▁vac	-9.92724
▁ver	-9.92895
▁nti	-9.92928
▁säg	-9.92957
▁våg	-9.92992
▁derna	-9.93063
▁flu	-9.93069
vik	-9.93131
▁älj	-9.93152
▁Hel	-9.93194
▁kände	-9.93287
▁ille	-9.93337
▁sion	-9.93425
▁etens	-9.9346
▁tåg	-9.93595
▁tak	-9.93689
▁lot	-9.93721
▁assa	-9.93763
▁läng	-9.93779
▁ratt	-9.9379
▁tten	-9.9383
▁hålls	-9.93851
▁wa	-9.93862
▁lus	-9.93883
är	-9.93886
▁ors	-9.93906
▁ato	-9.93908
▁reds	-9.93994
▁väga	-9.94009
▁bru	-9.94106
▁17	-9.94137
▁glar	-9.94495
di	-9.94657
▁od	-9.94726
▁åka	-9.94732
▁vart	-9.94739
▁fu	-9.94764
▁urn	-9.94799
▁AB	-9.9491
▁inre	-9.95007
▁out	-9.95101
▁ndsk	-9.95142
▁ons	-9.95213
▁städ	-9.95301
▁tant	-9.95367
▁ikte	-9.95367
▁teri	-9.95382
▁görs	-9.954
▁ägn	-9.95414
▁alen	-9.95446
▁ken	-9.95486
▁källa	-9.95506
▁tin	-9.95545
▁båt	-9.95671
▁enni	-9.95696
▁aul	-9.95805
▁ek	-9.95849
▁sie	-9.95886
▁eko	-9.9592
▁ssant	-9.95962
▁atser	-9.9612
▁duc	-9.96191
▁gil	-9.96194
▁ree	-9.96384
▁byte	-9.96619
▁ulera	-9.9662
▁ew	-9.96631
▁ndiga	-9.96971
ndr	-9.96976
▁kl	-9.97018
▁dje	-9.9709
▁Li	-9.97172
▁wi	-9.97181
åend	-9.97195
▁use	-9.97223
▁ran	-9.9729
▁lk	-9.97304
▁Två	-9.97384
▁int	-9.97444
▁sorg	-9.97518
▁Spa	-9.97551
▁coo	-9.97609
▁gu	-9.97642
▁ttare	-9.97649
▁vu	-9.97706
▁kie	-9.97825
▁delse	-9.97893
▁ömn	-9.9799
▁svart	-9.98015
▁iske	-9.98102
▁gent	-9.98156
▁ound	-9.98217
▁op	-9.98245
▁Nya	-9.98258
▁bin	-9.98258
▁tast	-9.9827
▁fäll	-9.98352
▁fina	-9.98418
▁é	-9.98464
▁rans	-9.98506
▁Bu	-9.98573
▁ate	-9.98597
▁gh	-9.98635
▁olk	-9.98642
▁aster	-9.98749
▁Lu	-9.9878
▁amin	-9.98847
oppl	-9.98916
vis	-9.98988
▁ega	-9.99113
▁km	-9.99115
▁arg	-9.9925
▁ug	-9.99324
▁dd	-9.99327
▁iP	-9.99392
▁tekt	-9.99542
▁we	-9.99548
▁anden	-9.9974
▁tats	-9.99822
▁alb	-9.99872
▁rom	-9.99897
▁rnan	-10.0023
▁aris	-10.0033
▁kemi	-10.0035
▁dans	-10.0036
▁tim	-10.0043
▁hud	-10.0045
hi	-10.0058
▁illi	-10.006
▁guld	-10.006
▁rter	-10.0061
▁enast	-10.0078
▁rdet	-10.0092
▁rch	-10.0097
▁växa	-10.0097
▁anad	-10.0106
▁ästar	-10.0109
▁urk	-10.0116
▁oka	-10.0117
▁nes	-10.0124
▁ive	-10.0124
▁rth	-10.0129
▁ana	-10.0131
▁usi	-10.0133
▁sc	-10.0133
▁rgan	-10.0137
▁ement	-10.014
▁kräv	-10.0149
▁erare	-10.0156
▁aga	-10.0158
all	-10.016
▁serv	-10.0164
▁kning	-10.0172
▁Gra	-10.0173
▁nnar	-10.0185
▁ntra	-10.019
▁mord	-10.02
▁nare	-10.0204
▁dam	-10.0209
▁ägs	-10.0212
▁äck	-10.0225
▁sann	-10.0227
▁sökt	-10.0231
▁arc	-10.0233
▁dskap	-10.0234
▁obe	-10.0234
▁tals	-10.0236
▁mik	-10.0238
▁ppa	-10.0241
▁disk	-10.0248
▁uellt	-10.0248
▁nord	-10.0255
▁alko	-10.0275
▁ågon	-10.0277
▁old	-10.0284
▁ridi	-10.0285
▁eam	-10.0288
▁skola	-10.0291
tämm	-10.0291
▁mas	-10.0292
▁ian	-10.0298
ättr	-10.0311
▁far	-10.0322
▁nar	-10.0349
▁allar	-10.0366
▁eter	-10.0367
▁lska	-10.0375
▁over	-10.0381
▁nste	-10.0386
▁pra	-10.0388
▁ostad	-10.039
▁ld	-10.0395
▁rtu	-10.0402
▁apper	-10.0417
▁vning	-10.0421
▁ökad	-10.0422
▁rar	-10.0422
▁me	-10.0429
▁nsl	-10.0432
▁må	-10.0434
▁tab	-10.0442
▁träde	-10.0443
▁äger	-10.049
▁ph	-10.0502
▁lod	-10.051
▁bri	-10.0513
▁ime	-10.0521
▁let	-10.0522
▁ivt	-10.0547
▁drar	-10.055
▁inna	-10.0566
▁tivt	-10.0567
▁ordet	-10.0578
▁esta	-10.058
▁känn	-10.0587
▁emo	-10.0589
▁nack	-10.0602
▁llo	-10.0604
▁tål	-10.0607
▁nsten	-10.0626
▁ech	-10.0641
▁:)	-10.0645
lick	-10.0648
▁oende	-10.0648
▁inn	-10.0651
▁läst	-10.0655
▁kant	-10.0666
▁ebr	-10.0667
▁ix	-10.0675
▁ook	-10.0693
▁ela	-10.0713
▁edj	-10.0713
lko	-10.0726
du	-10.0727
▁logg	-10.0734
▁kti	-10.0735
▁vida	-10.0742
▁illa	-10.0747
▁og	-10.0755
▁rv	-10.0756
▁snar	-10.0759
▁him	-10.0759
▁Pa	-10.0769
▁hände	-10.0769
tio	-10.0774
▁järn	-10.078
▁fra	-10.0781
▁katt	-10.079
▁plat	-10.0792
▁sare	-10.0795
▁ätter	-10.0796
▁usti	-10.0804
▁ssor	-10.081
▁eet	-10.0816
ex	-10.0817
▁fly	-10.0821
▁Mus	-10.0821
▁tat	-10.0825
▁kra	-10.0832
▁nsy	-10.0858
▁ällan	-10.0858
▁kat	-10.0862
▁mil	-10.0863
▁lf	-10.0865
▁21	-10.0881
▁odu	-10.0883
▁gäst	-10.0884
▁nka	-10.0884
▁oxi	-10.0885
▁olo	-10.0898
▁undar	-10.0901
▁ilke	-10.0907
▁kel	-10.091
▁öns	-10.0913
▁årt	-10.0938
▁nstr	-10.0944
▁tema	-10.095
▁ött	-10.095
▁Bi	-10.0965
▁prä	-10.0975
ty	-10.0976
▁fält	-10.0982
▁lad	-10.0984
▁mani	-10.0984
▁häl	-10.0988
▁Bl	-10.0988
▁cc	-10.099
▁väst	-10.099
▁siell	-10.0996
▁täckt	-10.0999
▁even	-10.1003
▁tand	-10.1012
▁vald	-10.1019
▁lon	-10.1035
▁chen	-10.1038
▁vent	-10.1045
▁alisk	-10.1049
▁ean	-10.1051
sätt	-10.1063
▁gal	-10.1063
▁aner	-10.1085
▁illar	-10.1088
▁60	-10.1093
▁ffer	-10.1098
▁ckan	-10.11
▁öte	-10.1113
▁slu	-10.1117
▁ual	-10.1124
abil	-10.1124
ki	-10.1125
▁Bro	-10.1145
▁Gå	-10.1151
▁örd	-10.1163
▁apan	-10.1165
▁unika	-10.1176
▁rott	-10.118
▁nom	-10.1189
▁imi	-10.1201
▁Val	-10.1203
▁vik	-10.121
▁Tid	-10.1212
▁ure	-10.1237
▁For	-10.1251
▁tater	-10.1262
▁Ac	-10.1265
▁bjekt	-10.129
▁ngt	-10.1295
▁Först	-10.1298
▁edlem	-10.1304
▁ther	-10.1305
▁tam	-10.1319
▁blå	-10.1322
uell	-10.1332
▁dörr	-10.1341
▁oni	-10.1346
▁mmo	-10.1349
▁ntern	-10.135
▁ppet	-10.1352
▁ult	-10.1353
misk	-10.1354
▁sson	-10.1361
▁ergi	-10.1368
▁llig	-10.1369
▁onti	-10.1377
▁sant	-10.139
▁back	-10.1391
▁ocker	-10.1392
▁ymp	-10.1393
▁ine	-10.1397
▁ismen	-10.1412
▁pte	-10.1413
▁nåt	-10.1426
▁itat	-10.1435
▁nic	-10.1441
▁ansen	-10.1451
verk	-10.1456
▁lekt	-10.147
▁oin	-10.1472
▁tanda	-10.148
▁llmä	-10.1482
▁ald	-10.1489
▁erter	-10.15
▁takt	-10.1506
▁vert	-10.1511
▁rri	-10.1514
▁rder	-10.1517
▁eum	-10.1526
▁Joh	-10.1528
▁ct	-10.1531
nand	-10.1548
▁tliga	-10.1569
▁mde	-10.157
▁19	-10.1573
▁ome	-10.1575
▁pport	-10.158
▁ngst	-10.1582
▁fär	-10.1588
▁amm	-10.1603
▁Ins	-10.1603
▁kter	-10.1611
mal	-10.1616
▁varo	-10.1625
lar	-10.1628
▁örj	-10.1642
▁=	-10.1645
▁mell	-10.1646
▁ller	-10.1649
▁cirk	-10.1665
▁flyt	-10.1676
▁värm	-10.1677
▁enten	-10.1692
▁eta	-10.1699
▁vars	-10.1708
▁non	-10.1711
▁dör	-10.1723
▁vel	-10.1751
▁pec	-10.1757
▁atter	-10.1757
▁kast	-10.1764
▁gui	-10.1779
▁ös	-10.178
▁zo	-10.1781
▁Gro	-10.1782
▁sliga	-10.1811
▁oris	-10.1811
▁Fråga	-10.1814
▁fånga	-10.1814
▁ott	-10.1815
▁vla	-10.1821
od	-10.1826
▁pal	-10.1828
▁tik	-10.1859
▁tend	-10.1863
▁riget	-10.1865
▁lti	-10.1866
▁bit	-10.1879
▁arla	-10.1884
▁vita	-10.1903
▁ln	-10.1911
▁nader	-10.1929
▁vänt	-10.1932
▁obb	-10.1935
EN	-10.1935
▁hamn	-10.1936
▁yd	-10.1938
▁ah	-10.1962
▁gat	-10.1966
▁lant	-10.1969
▁örer	-10.1978
▁akad	-10.1995
▁olog	-10.1997
▁ama	-10.1997
efin	-10.1999
▁åla	-10.2008
▁num	-10.201
▁tei	-10.2011
▁IT	-10.2026
▁Tw	-10.2033
▁ric	-10.2034
▁tänd	-10.2035
▁elt	-10.2037
▁aha	-10.2044
▁line	-10.2048
▁sist	-10.2054
▁öra	-10.2077
▁förd	-10.2082
▁arter	-10.2086
▁mm	-10.2105
▁uell	-10.2116
▁ub	-10.2125
▁rika	-10.2131
▁fier	-10.2146
▁larna	-10.2148
▁nni	-10.2156
▁tär	-10.2168
▁nska	-10.2169
▁nha	-10.218
▁ite	-10.2181
▁hårt	-10.2183
▁yra	-10.2197
▁ilo	-10.2198
▁ental	-10.2199
▁org	-10.2199
▁kli	-10.2215
▁änt	-10.2225
▁fe	-10.2227
▁atör	-10.2229
▁hop	-10.2233
▁bära	-10.2233
▁ova	-10.2242
▁mör	-10.2251
▁ary	-10.2253
0	-10.2259
▁fett	-10.2276
▁ldra	-10.2285
▁konc	-10.2287
▁alien	-10.2291
▁allad	-10.2292
▁Mu	-10.2295
▁lls	-10.23
▁pac	-10.2302
▁mag	-10.2304
▁Kö	-10.2304
▁edra	-10.2307
▁one	-10.2327
▁mos	-10.233
▁rund	-10.2335
▁rop	-10.2342
▁jäl	-10.2344
ER	-10.235
▁nta	-10.2354
▁sand	-10.2365
▁Barn	-10.2367
▁sökan	-10.238
ber	-10.2382
▁klare	-10.2387
▁ansk	-10.2418
▁orn	-10.2454
▁ium	-10.2459
▁pt	-10.2469
▁Gre	-10.2472
▁ption	-10.248
▁atal	-10.2483
▁im	-10.2499
▁peri	-10.25
▁WEB	-10.2503
▁Tu	-10.251
oci	-10.2525
▁esti	-10.2532
za	-10.2538
▁skil	-10.2553
▁sla	-10.2572
▁mda	-10.258
▁lym	-10.2582
▁siska	-10.2582
▁own	-10.2591
dra	-10.2593
▁acka	-10.2597
0%	-10.2599
▁odl	-10.2602
▁hoppa	-10.2603
▁alm	-10.261
▁rka	-10.2624
▁iat	-10.263
▁dro	-10.2633
▁ästa	-10.2637
50	-10.2645
▁ändsk	-10.2657
▁osta	-10.2667
▁eb	-10.2672
tänd	-10.2674
▁tret	-10.2675
▁ensi	-10.268
▁osof	-10.2683
▁atar	-10.2697
▁pti	-10.2698
▁erk	-10.2698
▁lm	-10.27
▁cera	-10.2702
▁II	-10.2706
▁ordna	-10.2709
▁Sha	-10.2712
▁jack	-10.2714
▁tande	-10.2722
▁igur	-10.2741
▁An	-10.2749
▁lags	-10.2755
ton	-10.2755
▁jt	-10.2759
ull	-10.276
sh	-10.2761
▁kläd	-10.277
▁nto	-10.2771
▁uden	-10.2775
▁vd	-10.2785
▁hov	-10.279
ah	-10.2792
▁aller	-10.2793
▁mäl	-10.2794
▁alk	-10.2799
▁lov	-10.2804
▁kild	-10.2809
▁mn	-10.281
▁api	-10.2821
▁rin	-10.2823
▁200	-10.2826
▁Få	-10.2841
▁tiska	-10.2842
▁ace	-10.2849
▁nej	-10.2853
▁ead	-10.2864
▁epp	-10.2866
▁cker	-10.287
▁rent	-10.2879
▁andl	-10.2882
▁rst	-10.2904
▁sto	-10.2911
▁lli	-10.2914
▁dele	-10.2929
▁ise	-10.2938
▁åda	-10.2946
▁sho	-10.2951
▁nsad	-10.2964
▁testa	-10.2977
▁Ku	-10.2983
▁dos	-10.2983
▁ehöv	-10.2992
▁mning	-10.2996
▁Hotel	-10.2999
▁tol	-10.3007
▁rån	-10.3019
▁ori	-10.3019
▁ndag	-10.3021
▁tte	-10.3031
▁varta	-10.3031
▁500	-10.3032
▁ssion	-10.3048
▁älte	-10.3053
▁ikter	-10.3055
▁terna	-10.3065
▁22	-10.3068
▁erver	-10.3075
▁skär	-10.3081
▁arv	-10.3092
▁hål	-10.3102
▁ema	-10.3118
▁tråd	-10.3121
▁fte	-10.3122
▁Pi	-10.3123
▁ies	-10.313
▁_	-10.3134
▁can	-10.3157
▁nsch	-10.3159
▁‘	-10.3161
▁plö	-10.3162
ax	-10.3174
▁aker	-10.3176
ES	-10.3187
▁gene	-10.3193
▁inder	-10.3202
▁Mal	-10.3212
go	-10.3227
▁ide	-10.3229
▁yl	-10.3237
▁fann	-10.3238
▁rome	-10.324
▁vete	-10.3255
▁tle	-10.3261
▁gend	-10.327
▁tunn	-10.328
▁dio	-10.3287
må	-10.331
▁fin	-10.331
▁vore	-10.3322
▁ående	-10.3326
▁iddag	-10.3327
▁imma	-10.3343
▁varn	-10.3348
▁ddag	-10.3358
▁nning	-10.338
▁ition	-10.3384
▁rat	-10.339
▁vitt	-10.3395
▁ivet	-10.3403
▁tti	-10.3419
▁erma	-10.342
▁rys	-10.3432
▁sland	-10.3444
▁ffic	-10.3451
▁Vet	-10.3461
▁fysi	-10.3465
▁cin	-10.3466
▁gar	-10.3471
▁af	-10.3472
▁rame	-10.3479
ET	-10.3481
het	-10.3489
▁rser	-10.3492
▁xter	-10.3493
▁nc	-10.3499
▁dep	-10.3514
▁dge	-10.3518
▁oc	-10.3519
▁enta	-10.3525
▁stan	-10.3525
,5	-10.3538
▁set	-10.3543
▁valde	-10.3551
▁ligt	-10.3553
▁28	-10.3574
▁ls	-10.3575
▁rön	-10.3575
▁iver	-10.3578
▁telse	-10.3578
▁ister	-10.3579
▁edda	-10.3605
▁®	-10.3606
▁ktör	-10.3608
▁IP	-10.3608
▁ev	-10.3609
▁oro	-10.3613
▁vind	-10.3614
▁ele	-10.3624
▁ani	-10.3626
▁mått	-10.3635
▁fart	-10.3647
▁ito	-10.365
▁arat	-10.3661
▁undan	-10.3661
▁skick	-10.3664
▁nget	-10.3666
▁zon	-10.3677
▁ben	-10.3682
ning	-10.3685
▁svär	-10.3687
▁ami	-10.3692
▁rj	-10.3699
▁vann	-10.3702
▁ota	-10.3704
▁neka	-10.3708
▁önd	-10.3719
▁ile	-10.372
▁To	-10.3723
▁ture	-10.3723
▁enser	-10.3733
▁lind	-10.3736
▁orum	-10.3738
▁abel	-10.374
▁änk	-10.3754
▁kön	-10.3764
teri	-10.3774
▁Kris	-10.3776
▁ient	-10.3779
▁las	-10.3797
▁atch	-10.3798
hu	-10.3804
▁laner	-10.382
▁dels	-10.3821
▁grä	-10.383
▁lyg	-10.3832
▁oti	-10.3832
▁uk	-10.3836
▁indi	-10.3845
▁mman	-10.3856
▁rick	-10.3859
alis	-10.3859
un	-10.3862
▁aser	-10.3868
▁sys	-10.3884
▁gonen	-10.39
▁äljer	-10.3906
▁adi	-10.3913
J	-10.3919
▁igh	-10.3921
▁ideo	-10.3921
OS	-10.3931
▁ckor	-10.394
▁aw	-10.3945
▁reat	-10.395
▁arta	-10.3953
▁lat	-10.3956
▁golv	-10.3957
▁oy	-10.3959
▁uff	-10.3963
▁mmit	-10.3963
▁rnen	-10.3985
▁ire	-10.3994
▁ike	-10.3994
▁27	-10.401
▁San	-10.4014
▁nim	-10.4018
▁alist	-10.4025
▁yr	-10.4027
ud	-10.4039
▁bets	-10.4044
▁ktive	-10.4051
▁gul	-10.4074
▁tist	-10.4091
▁Rom	-10.4099
▁stjä	-10.4102
▁sult	-10.4107
▁Fa	-10.411
▁ygg	-10.4113
▁svi	-10.4115
▁rdag	-10.4118
▁räkn	-10.4122
▁ansa	-10.4124
Q	-10.4127
▁rdes	-10.4136
▁fan	-10.4147
▁cks	-10.416
▁ext	-10.416
▁gande	-10.4162
▁rett	-10.4169
▁23	-10.4171
▁nån	-10.4171
▁länk	-10.4173
gå	-10.4176
▁amer	-10.4177
▁gne	-10.4177
▁tav	-10.4192
▁länd	-10.4195
▁ontor	-10.42
▁nomi	-10.4207
▁Lin	-10.4212
▁rena	-10.4214
▁exi	-10.4219
▁ear	-10.422
ver	-10.4224
▁rmon	-10.4228
▁lja	-10.4231
▁kapet	-10.4237
▁lor	-10.4238
▁ågot	-10.4253
bel	-10.426
▁omar	-10.4271
▁tis	-10.4274
▁öm	-10.4278
▁Lo	-10.4284
▁dato	-10.4284
▁stern	-10.4287
▁itel	-10.4288
▁vari	-10.429
▁lede	-10.4294
▁ove	-10.4305
ny	-10.4315
▁minn	-10.4316
▁uid	-10.432
▁dog	-10.4328
▁högst	-10.4329
▁tron	-10.4332
▁ift	-10.4336
form	-10.4339
▁ano	-10.4342
tro	-10.4347
▁öl	-10.4349
▁äld	-10.4362
▁älk	-10.4365
▁mär	-10.4368
▁hj	-10.4371
▁ender	-10.4374
▁los	-10.4377
vel	-10.4378
▁lvis	-10.4381
▁skad	-10.4385
▁essi	-10.4385
▁doms	-10.4385
▁olu	-10.439
▁kad	-10.4408
▁lv	-10.4417
▁ktig	-10.4423
▁önsk	-10.4428
▁släkt	-10.4437
ox	-10.4438
▁sku	-10.4453
▁rren	-10.4454
▁tto	-10.4461
▁anne	-10.4465
▁My	-10.4473
▁nio	-10.4477
▁entr	-10.4486
▁tfö	-10.4494
▁ael	-10.4495
▁häst	-10.4499
▁pan	-10.4501
IS	-10.4512
▁drö	-10.4516
▁nsats	-10.452
▁rets	-10.4534
▁öda	-10.4543
xi	-10.455
van	-10.4584
▁mak	-10.459
▁omb	-10.4591
kna	-10.4592
▁smen	-10.4593
▁obl	-10.461
ack	-10.4619
slut	-10.4627
▁nge	-10.4628
▁tore	-10.4638
▁utl	-10.4646
▁che	-10.4646
▁see	-10.4649
▁nöj	-10.4656
▁tiga	-10.4658
▁kott	-10.4661
▁xi	-10.4677
▁eut	-10.4678
▁dre	-10.4683
▁stig	-10.4696
▁skull	-10.4703
▁lade	-10.4706
▁vor	-10.4714
▁ebb	-10.4715
▁rant	-10.472
▁az	-10.4736
▁uth	-10.4746
ock	-10.4748
▁ght	-10.4757
▁elle	-10.4766
gand	-10.4783
▁pol	-10.4799
▁egel	-10.4816
▁unge	-10.4822
▁ugg	-10.4833
▁31	-10.4836
▁äd	-10.4837
▁erv	-10.4838
▁flytt	-10.4841
▁tligt	-10.4854
▁edi	-10.4855
▁arb	-10.4855
▁ous	-10.4865
▁kär	-10.4868
▁inb	-10.4869
▁örja	-10.4876
▁Mat	-10.4877
▁Pe	-10.488
▁kten	-10.4884
▁istan	-10.4893
sikt	-10.4895
▁rama	-10.4903
▁nabba	-10.4912
stå	-10.4915
äkn	-10.4916
▁Ob	-10.4916
▁70	-10.4944
▁herr	-10.4946
▁lb	-10.4956
▁orr	-10.4966
▁asta	-10.4993
▁pul	-10.4995
▁cs	-10.5017
▁onde	-10.502
▁gna	-10.5033
▁edd	-10.5035
▁alis	-10.5036
epre	-10.5037
▁arie	-10.504
▁lem	-10.5051
▁tic	-10.5054
▁opera	-10.5075
▁moder	-10.5078
▁appar	-10.5079
▁iko	-10.5079
▁mple	-10.5089
▁xis	-10.5093
ör	-10.5093
▁Bri	-10.5102
▁ngo	-10.5104
▁26	-10.5109
▁nkur	-10.5113
En	-10.5124
▁vist	-10.5131
▁ili	-10.5133
▁mg	-10.5135
▁lia	-10.5137
▁ument	-10.5142
▁andel	-10.5154
▁vant	-10.5176
▁ever	-10.5186
▁osi	-10.5187
▁hota	-10.5188
▁ntar	-10.5199
▁ale	-10.5201
▁rac	-10.5205
▁ford	-10.5208
▁otal	-10.5209
▁Ga	-10.5219
▁vila	-10.5235
▁ted	-10.5259
▁nte	-10.5262
▁estin	-10.5274
▁ånge	-10.5277
▁bes	-10.5281
▁tina	-10.5286
▁rera	-10.5286
▁arma	-10.5289
▁ryt	-10.5289
▁mek	-10.5294
▁reser	-10.5294
▁pare	-10.5304
▁kit	-10.5306
▁ola	-10.5307
▁sia	-10.531
ssa	-10.5311
zz	-10.5313
▁bot	-10.5322
▁cho	-10.5322
▁Tra	-10.5327
▁fint	-10.5332
▁ado	-10.5336
kal	-10.5339
▁oll	-10.5343
▁spek	-10.5348
▁akten	-10.5365
AN	-10.5374
▁«	-10.5376
▁rval	-10.5383
▁nser	-10.5384
▁nts	-10.5398
▁sör	-10.5401
▁Ser	-10.5403
Om	-10.5408
▁ngd	-10.542
▁lib	-10.5433
att	-10.5439
▁ita	-10.5442
▁ontr	-10.5442
▁nisk	-10.5446
kla	-10.5448
app	-10.5454
▁äm	-10.547
▁uer	-10.5473
▁ef	-10.5473
▁öde	-10.5476
▁diska	-10.5476
▁Herre	-10.5478
▁kop	-10.5481
▁sked	-10.5491
▁udi	-10.5494
▁kriv	-10.5497
▁Får	-10.55
▁dal	-10.5509
AR	-10.551
▁ldern	-10.5523
▁egi	-10.5529
nmä	-10.554
▁aten	-10.5543
dag	-10.5547
▁wn	-10.5558
▁sid	-10.5558
▁vag	-10.557
▁unk	-10.5574
▁juda	-10.5575
IN	-10.5588
▁ilt	-10.5596
▁oner	-10.5609
▁Fu	-10.5614
▁enad	-10.5614
▁ynd	-10.5616
▁Net	-10.5618
▁nalen	-10.5623
▁tick	-10.5632
▁ov	-10.5641
▁union	-10.5642
▁inc	-10.5653
▁anni	-10.5656
▁kva	-10.5659
▁anda	-10.5684
▁ppar	-10.5685
▁Ad	-10.5694
▁öll	-10.5702
▁kors	-10.5702
▁lsk	-10.5709
▁ndo	-10.5715
▁live	-10.5722
▁ktan	-10.5722
▁uro	-10.5736
stö	-10.5737
▁mmi	-10.5739
▁spro	-10.5739
▁öder	-10.5741
▁rlig	-10.5745
▁mode	-10.5752
▁veri	-10.5761
▁mment	-10.5766
▁ika	-10.5767
ati	-10.5772
▁shi	-10.579
▁NA	-10.5809
AS	-10.5814
▁eger	-10.5817
▁ög	-10.5825
▁olv	-10.584
Du	-10.5844
▁onen	-10.5855
▁klus	-10.5861
▁lje	-10.5868
▁ux	-10.5875
▁rov	-10.5887
▁torm	-10.5888
▁alu	-10.5898
ong	-10.5913
▁ode	-10.5919
▁arens	-10.5921
▁dta	-10.5929
▁Tom	-10.593
▁gan	-10.5933
▁sci	-10.5933
▁ggar	-10.5945
▁iner	-10.5956
▁förbi	-10.596
▁iti	-10.5961
▁nerna	-10.5964
▁aktor	-10.598
AT	-10.5981
▁je	-10.5985
▁ance	-10.5985
råk	-10.5985
▁Con	-10.5986
▁olla	-10.5989
▁öj	-10.5998
▁aler	-10.6
▁nåd	-10.6002
▁skrä	-10.6007
▁uck	-10.6008
▁eran	-10.6013
▁vakt	-10.6013
▁jet	-10.6022
▁onst	-10.6025
"	-10.6037
▁rou	-10.604
▁aska	-10.6042
tat	-10.6044
▁nden	-10.6059
▁kiv	-10.6062
▁ograf	-10.6079
▁300	-10.6087
▁turn	-10.6089
▁tele	-10.6101
▁90	-10.6104
▁pot	-10.6132
▁tolk	-10.6133
▁törer	-10.6133
▁slav	-10.6136
äkt	-10.6139
▁kala	-10.6144
▁ump	-10.6144
▁ush	-10.6145
▁artin	-10.615
▁rag	-10.6157
▁etisk	-10.6165
▁1,	-10.6172
▁lver	-10.6175
▁agen	-10.6197
▁ader	-10.6208
▁ände	-10.6209
▁pen	-10.621
▁spar	-10.6215
Ä	-10.622
▁uta	-10.622
▁[...]	-10.6226
▁lämp	-10.6226
▁ore	-10.6228
▁låtar	-10.6232
▁tika	-10.6237
▁mej	-10.6247
BA	-10.6258
▁spo	-10.6259
▁ärer	-10.626
▁ink	-10.6275
▁mel	-10.6281
▁get	-10.6282
dni	-10.6285
▁lobal	-10.63
▁cro	-10.6311
▁80	-10.6314
▁za	-10.6315
▁dda	-10.6317
▁peisk	-10.6338
▁onal	-10.6345
ph	-10.6347
▁nso	-10.6354
zi	-10.6355
▁rska	-10.6363
▁ryck	-10.6383
▁rull	-10.6383
▁ase	-10.6391
▁oto	-10.6394
ett	-10.6425
▁olj	-10.643
lif	-10.645
▁tvär	-10.6456
▁ruk	-10.6468
▁ropa	-10.6476
▁uri	-10.648
▁råk	-10.6482
▁aka	-10.6485
▁nism	-10.6489
▁åva	-10.649
▁yda	-10.6499
▁unden	-10.65
▁[+]	-10.6526
▁ya	-10.6532
▁tch	-10.6538
▁list	-10.6548
▁Ru	-10.655
▁arl	-10.6554
nsva	-10.6556
mera	-10.6557
▁nkel	-10.6572
▁ish	-10.6579
▁trik	-10.6599
ger	-10.6606
▁tö	-10.6608
▁bö	-10.662
▁ennes	-10.665
▁kill	-10.6651
▁nkar	-10.6653
▁mate	-10.6669
▁Fran	-10.6672
▁yt	-10.6674
▁assi	-10.6676
▁bler	-10.6688
▁arad	-10.6719
▁lp	-10.6727
▁ttre	-10.6734
▁evi	-10.6736
▁rend	-10.6745
▁egra	-10.678
▁vas	-10.6789
▁mid	-10.6803
▁ona	-10.6808
▁Ur	-10.6811
▁byggd	-10.6813
▁run	-10.6816
▁Dom	-10.6825
▁rap	-10.6827
▁bel	-10.6831
▁🙂	-10.6835
▁erska	-10.6839
▁ote	-10.6842
▁nju	-10.6859
.1	-10.6897
▁rob	-10.6902
ju	-10.6902
bjek	-10.691
▁xpert	-10.6914
▁fli	-10.6922
▁rry	-10.6926
äld	-10.6931
▁elo	-10.6931
▁lbe	-10.6934
▁gren	-10.6939
▁vs	-10.6944
▁CO	-10.6945
▁ägar	-10.6946
▁ukt	-10.6947
▁egis	-10.6953
▁drat	-10.6954
▁dräg	-10.6954
▁29	-10.6957
▁fara	-10.6963
▁Chi	-10.6967
▁söt	-10.6972
▁Lea	-10.6972
hy	-10.6978
▁nast	-10.698
▁IN	-10.6985
▁onom	-10.6988
mä	-10.6992
▁llen	-10.7019
/	-10.7029
▁eriet	-10.7031
▁uvud	-10.7034
▁kven	-10.7035
▁dar	-10.7043
▁oder	-10.7049
▁itera	-10.7061
▁King	-10.7072
▁rust	-10.7078
▁Nä	-10.7078
▁gro	-10.7083
▁asa	-10.7083
▁betet	-10.7094
▁lld	-10.7098
▁gräs	-10.7099
▁hen	-10.7104
▁eka	-10.712
▁ogi	-10.7124
▁ångar	-10.7133
▁tum	-10.7142
▁Gu	-10.7145
ort	-10.7145
▁meka	-10.7153
▁tners	-10.7155
▁rock	-10.7166
▁juta	-10.7174
▁löm	-10.7182
▁gry	-10.7183
ü	-10.7195
▁varan	-10.7218
▁åta	-10.7236
▁nj	-10.7247
▁byt	-10.725
▁Mac	-10.7258
▁ilen	-10.7267
▁nce	-10.7271
▁lg	-10.7274
▁ilm	-10.7284
▁orer	-10.7286
▁tråk	-10.7335
▁ttig	-10.7337
bu	-10.7343
▁nerar	-10.7344
▁tagen	-10.737
▁ath	-10.7371
▁isto	-10.7376
▁låna	-10.7377
▁agn	-10.7377
▁adr	-10.7378
ug	-10.7389
▁kland	-10.7392
▁ldi	-10.7398
▁dj	-10.7399
▁törst	-10.7406
ya	-10.7418
▁fyr	-10.7435
▁gri	-10.744
▁ono	-10.7442
▁gdom	-10.7443
▁ynt	-10.7447
▁inj	-10.7473
fier	-10.7483
▁plik	-10.7495
▁inv	-10.7497
▁ltar	-10.75
▁35	-10.7511
▁ban	-10.7528
▁gatan	-10.7537
▁ssi	-10.7537
▁amera	-10.7546
SA	-10.7554
ofe	-10.7561
▁cel	-10.7564
▁pulär	-10.757
▁llar	-10.7574
▁ID	-10.7575
▁utse	-10.7592
▁Car	-10.7595
▁kert	-10.7605
▁llde	-10.7605
pass	-10.7608
▁ingå	-10.7622
▁ädd	-10.7623
▁mpa	-10.7631
▁tät	-10.764
▁rgi	-10.7662
▁PC	-10.7663
▁elat	-10.767
▁Före	-10.7683
på	-10.7699
▁anan	-10.7707
▁emp	-10.7719
▁isar	-10.772
▁rto	-10.7722
▁arker	-10.7732
▁teor	-10.7734
▁jär	-10.7737
▁xem	-10.775
▁yn	-10.775
▁ikten	-10.7751
▁Åh	-10.7758
▁top	-10.7768
▁gni	-10.7775
▁efo	-10.7779
▁ket	-10.778
▁adern	-10.7782
▁ales	-10.7788
▁uel	-10.7789
▁gruv	-10.7792
▁IS	-10.7797
▁rali	-10.7801
▁löd	-10.7803
▁väld	-10.7804
▁ktu	-10.7811
▁rött	-10.7812
▁öga	-10.7829
▁uni	-10.7837
RA	-10.7856
▁<	-10.7869
▁ören	-10.7876
▁luta	-10.7876
▁surs	-10.7882
▁imo	-10.7888
▁rti	-10.7889
▁nsat	-10.7905
▁ony	-10.7918
▁rmen	-10.7935
▁45	-10.794
▁mling	-10.7957
▁opi	-10.7962
▁mnar	-10.797
yder	-10.7971
▁ierar	-10.7972
▁ytan	-10.7973
▁äls	-10.7992
▁→	-10.8001
▁tvis	-10.8005
▁titel	-10.8009
▁evo	-10.8015
▁Kar	-10.8022
▁tati	-10.8023
▁jude	-10.8042
▁kte	-10.8052
▁smi	-10.8052
De	-10.8055
fatt	-10.8058
▁dja	-10.807
▁äga	-10.8076
▁cu	-10.8079
▁lka	-10.8084
”	-10.8085
▁Pu	-10.8086
▁tabl	-10.8092
▁anger	-10.8095
opul	-10.8102
▁eat	-10.8116
▁navi	-10.8116
▁plin	-10.8127
▁nsam	-10.8134
▁itar	-10.8138
▁ltur	-10.8139
▁dram	-10.8147
▁svärd	-10.8153
▁jor	-10.8156
▁ordi	-10.8157
▁abs	-10.8161
▁lägen	-10.8162
▁norr	-10.8178
▁ppo	-10.8178
▁ice	-10.8181
▁We	-10.8182
▁mpo	-10.8192
▁änka	-10.8192
▁reak	-10.8204
▁king	-10.822
▁odde	-10.8229
▁chi	-10.8231
▁bili	-10.8237
▁tona	-10.8238
▁yss	-10.8248
▁tull	-10.8248
▁tä	-10.8253
Å	-10.8264
olog	-10.8267
▁|	-10.827
▁inist	-10.8271
▁ytt	-10.8281
▁Spel	-10.8298
▁rida	-10.8305
▁usta	-10.8308
▁tall	-10.8316
▁ljare	-10.8318
▁entu	-10.8328
▁Green	-10.8329
▁Reg	-10.8358
▁oci	-10.8358
▁VD	-10.8367
▁ape	-10.8371
▁istor	-10.8378
avi	-10.8382
▁skl	-10.8384
▁hil	-10.8386
▁ropp	-10.8389
▁anken	-10.844
Ã	-10.8447
▁usik	-10.8448
▁urin	-10.8464
▁tämm	-10.8464
▁iel	-10.8466
▁Lö	-10.8467
▁Pri	-10.8471
▁meny	-10.8472
▁hall	-10.8482
▁mår	-10.8484
...	-10.8497
▁orter	-10.8499
▁darna	-10.8507
▁edic	-10.8523
LL	-10.8526
▁växte	-10.8531
PA	-10.8542
▁erry	-10.8548
allt	-10.8549
▁ula	-10.8551
▁näst	-10.8559
▁läck	-10.8566
▁lok	-10.8591
▁gator	-10.8599
▁elli	-10.86
▁mun	-10.8606
▁tivet	-10.8613
▁Hä	-10.8616
▁bla	-10.862
▁kopp	-10.8621
▁raft	-10.8622
▁nade	-10.8623
▁nion	-10.8626
]	-10.8634
▁Volvo	-10.8639
▁tip	-10.8643
sy	-10.8664
TA	-10.8674
läg	-10.8675
▁okal	-10.8675
▁rins	-10.8679
▁VI	-10.8683
▁EN	-10.8683
▁fest	-10.8693
▁anter	-10.8711
rack	-10.8718
min	-10.8722
▁@	-10.8734
▁ERRE	-10.8734
▁Kor	-10.8745
▁äv	-10.8752
OM	-10.8756
dar	-10.876
▁onu	-10.8771
▁torr	-10.8771
▁lien	-10.8783
▁klad	-10.8795
▁tenar	-10.8798
DA	-10.8802
▁nut	-10.8802
▁gon	-10.8814
▁her	-10.882
▁dh	-10.8822
▁les	-10.8828
▁onf	-10.8848
▁iks	-10.885
▁anlig	-10.8855
▁IV	-10.886
▁golf	-10.8877
▁vanor	-10.8887
▁pon	-10.889
▁rod	-10.8893
▁labo	-10.8893
▁By	-10.8894
▁tate	-10.8905
▁stid	-10.891
▁ntat	-10.8914
▁rank	-10.8914
▁ndre	-10.892
▁laga	-10.8925
▁vamp	-10.8926
▁ubb	-10.8952
▁igar	-10.8958
▁lick	-10.8961
▁lagg	-10.8962
▁lea	-10.8967
▁wo	-10.8968
á	-10.8974
▁nsta	-10.8976
▁pli	-10.8983
by	-10.8985
IT	-10.8989
CA	-10.8993
▁grej	-10.8996
▁krat	-10.9009
▁arri	-10.901
▁Hall	-10.9012
▁ura	-10.9021
▁́	-10.9023
▁niv	-10.9023
▁öst	-10.9034
▁kut	-10.9036
▁onn	-10.9048
▁Red	-10.9063
▁amla	-10.9063
NA	-10.9067
▁rvera	-10.9073
▁lj	-10.9075
▁noll	-10.9077
▁still	-10.9085
▁ränd	-10.9088
▁Tur	-10.9103
▁ein	-10.9107
▁fors	-10.9109
▁Un	-10.9111
▁CD	-10.9142
▁Los	-10.9145
▁acc	-10.9152
CC	-10.9163
▁mart	-10.9164
▁lojal	-10.9171
ipp	-10.918
▁vtal	-10.9209
▁isst	-10.9213
▁amn	-10.9213
▁sning	-10.9224
▁ifik	-10.9224
▁mole	-10.9228
▁äder	-10.9231
▁enis	-10.9236
▁lte	-10.9249
▁tern	-10.9252
▁tla	-10.9261
▁ids	-10.9264
▁400	-10.928
▁aken	-10.9312
▁llvar	-10.9321
▁Wall	-10.9332
▁nnu	-10.9336
▁AI	-10.9336
SS	-10.9348
▁rasi	-10.9362
▁Gal	-10.9366
EC	-10.9375
▁rium	-10.9382
▁mith	-10.9385
▁ölj	-10.9388
OR	-10.9389
lade	-10.94
▁ttra	-10.9404
▁tive	-10.9414
▁abo	-10.9421
▁ndr	-10.9427
▁inska	-10.943
ON	-10.9433
AD	-10.9474
▁Ung	-10.9476
▁pto	-10.9504
kter	-10.9514
▁sajt	-10.9524
▁Aw	-10.9524
ring	-10.9525
▁Hö	-10.9533
▁sil	-10.9534
▁ER	-10.9535
▁usk	-10.9544
▁damm	-10.9545
▁kni	-10.9552
▁seg	-10.9557
▁ving	-10.9575
▁tora	-10.9581
▁mbi	-10.9587
▁bliv	-10.9588
▁Au	-10.9622
▁ddar	-10.9628
▁opp	-10.9631
▁uc	-10.9639
▁lter	-10.9643
▁runda	-10.9644
▁gie	-10.965
▁mpor	-10.9657
▁ät	-10.9662
▁Max	-10.9676
▁III	-10.9685
▁ssar	-10.9692
▁skå	-10.9693
▁TM	-10.9705
lös	-10.9728
▁dras	-10.9731
men	-10.9736
▁US	-10.9745
▁olly	-10.9745
MS	-10.9747
▁nitt	-10.9752
▁mand	-10.9756
▁glu	-10.9762
▁OS	-10.9796
▁neral	-10.98
▁esa	-10.9801
▁Shi	-10.9837
▁tike	-10.9855
▁time	-10.9864
▁ego	-10.9867
▁don	-10.9867
KA	-10.9876
▁iot	-10.988
▁gor	-10.9887
IF	-10.9889
▁dant	-10.9897
▁anli	-10.9899
▁utgå	-10.9899
▁älsk	-10.9899
▁ista	-10.9907
▁prise	-10.9915
▁Rock	-10.9917
▁sekt	-10.9923
▁anska	-10.9934
;	-10.9939
▁kämp	-10.994
ix	-10.9949
▁bur	-10.9953
▁nig	-10.9965
▁nist	-10.9994
▁kunn	-10.9997
▁mpi	-11.0037
▁icer	-11.0037
ST	-11.005
▁kärl	-11.0061
▁Mil	-11.0063
▁gand	-11.0068
▁Tro	-11.0077
▁ikti	-11.0101
▁Fil	-11.0136
▁ukti	-11.0142
▁knä	-11.0145
▁Dig	-11.0155
▁ehov	-11.0161
▁håret	-11.0168
▁tött	-11.017
AM	-11.0186
AC	-11.0189
▁ollen	-11.0197
▁öta	-11.02
▁nken	-11.0201
▁ektor	-11.0216
▁låda	-11.0217
▁klag	-11.0221
▁garna	-11.0228
▁räk	-11.0233
▁gno	-11.0245
▁funk	-11.0246
▁ISO	-11.0247
▁ibi	-11.0249
.2	-11.0257
▁Hej	-11.0274
▁ckså	-11.0276
▁tän	-11.0282
▁stin	-11.0292
▁kvi	-11.0297
stäm	-11.032
▁ekni	-11.0332
▁väska	-11.0334
▁36	-11.034
▁atin	-11.0341
▁erie	-11.0353
▁marg	-11.0375
▁laget	-11.0379
¤	-11.0383
▁uler	-11.0385
▁vins	-11.0388
▁elg	-11.0403
▁ols	-11.0406
▁llt	-11.041
▁turer	-11.0414
▁rne	-11.0415
▁pand	-11.0425
▁arde	-11.0448
▁ekan	-11.045
▁ektr	-11.0451
60	-11.046
IV	-11.0462
▁emin	-11.0463
▁Bli	-11.0465
▁trum	-11.0477
▁jur	-11.0478
▁tap	-11.0478
▁isc	-11.0481
tz	-11.0482
▁pla	-11.0491
▁täv	-11.0499
org	-11.05
▁oda	-11.0507
ach	-11.0518
▁teg	-11.0526
par	-11.0542
).	-11.0543
▁www	-11.0552
▁römm	-11.0554
▁mater	-11.0554
▁titt	-11.0574
▁sio	-11.0575
▁Hos	-11.0581
▁add	-11.0582
▁abe	-11.0611
▁rse	-11.062
▁töt	-11.0628
▁yper	-11.0633
00	-11.0633
▁pend	-11.0637
▁Ph	-11.066
▁tions	-11.0663
▁ommu	-11.0667
▁Cro	-11.0675
▁ämna	-11.0678
▁tiger	-11.07
▁AR	-11.0722
▁finn	-11.0727
ID	-11.073
▁karen	-11.0741
ika	-11.0741
▁Bar	-11.076
▁cis	-11.076
▁lub	-11.0762
▁skade	-11.0775
▁vice	-11.0775
▁lva	-11.0777
▁terad	-11.078
▁cas	-11.0781
▁pela	-11.0786
▁(1	-11.0796
▁dw	-11.0815
▁;)	-11.0815
▁nsu	-11.0818
▁inse	-11.0825
▁amne	-11.0832
▁gåv	-11.0838
▁rah	-11.0839
▁Bal	-11.0842
▁löt	-11.0848
▁papp	-11.0861
▁odi	-11.0866
▁asse	-11.0871
▁esul	-11.0881
▁HD	-11.0895
▁onte	-11.0897
▁elen	-11.0898
▁€	-11.09
tre	-11.0901
▁vägg	-11.0911
▁ndska	-11.0919
▁32	-11.0932
▁ball	-11.0934
▁oper	-11.0953
▁orru	-11.0956
▁§	-11.096
▁ntu	-11.0962
▁lyck	-11.0975
BS	-11.0981
▁pper	-11.0989
▁eso	-11.1012
PS	-11.1014
▁·	-11.1019
▁esten	-11.1026
▁rligt	-11.1046
▁USD	-11.1056
▁Las	-11.1068
etto	-11.1093
▁kande	-11.11
ND	-11.1101
▁Cy	-11.1142
NTE	-11.1146
▁lå	-11.1152
▁ugn	-11.1187
upp	-11.1192
▁ggen	-11.1215
▁orier	-11.1218
akt	-11.1226
▁rade	-11.1233
▁Mari	-11.1236
TT	-11.1238
▁rörd	-11.1239
IM	-11.1261
▁mpan	-11.1261
▁you	-11.1262
▁ific	-11.1262
▁ips	-11.1272
←	-11.1634
Z	-11.256
Г	-11.2565
ó	-11.3592
&	-11.4224
í	-11.4395
ø	-11.4564
*	-11.5173
â	-11.5454
¥	-11.5454
è	-11.5454
‐	-11.5737
Ö	-11.6528
'	-11.6528
+	-11.7738
>	-11.925
¶	-11.9393
–	-11.9526
❤	-12.1038
(	-12.1363
\	-12.1369
ç	-12.3621
ñ	-12.3621
à	-12.3834
^	-12.4728
<	-12.5716
ô	-12.5722
️	-12.5722
š	-12.5985
■	-12.5985
©	-12.6255
ā	-12.6255
$	-12.6528
æ	-12.6533
’	-12.6813
×	-12.7113
	-12.7416
ú	-12.7728
É	-12.8051
⁄	-12.8051
ã	-12.8384
ë	-12.8384
ć	-12.8729
α	-12.8729
̊	-12.9086
=	-12.9451
Â	-12.9841
„	-12.9841
û	-13.0241
°	-13.0653
±	-13.0658
#	-13.1087
Ü	-13.1547
î	-13.2023
č	-13.2023
§	-13.2518
▸	-13.2523
­	-13.3044
ï	-13.305
ð	-13.305
ل	-13.305
►	-13.3605
ş	-13.5485
‹	-13.6199
👍	-13.6199
😍	-13.6199
ž	-13.6969
ł	-13.7802
و	-13.7802
	-13.7802
ğ	-13.7802
β	-13.7802
€	-13.8706
ß	-13.8711
ي	-13.8711
}	-13.9706
—	-13.9706
ı	-13.9711
😛	-13.9711
|	-14.0817
ĺ	-14.0822
ا	-14.0822
م	-14.0822
ń	-14.0822
ō	-14.0822
ه	-14.0822
‒	-14.0822
🏼	-14.0822
»	-14.2067
•	-14.2067
ạ	-14.2072
¬	-14.2072
õ	-14.2072
ʹ	-14.2072
ι	-14.2072
✔	-14.2072
🏻	-14.2072
🙁	-14.2072
~	-14.3495
γ	-14.3501
ν	-14.3501
س	-14.3501
ع	-14.3501
ن	-14.3501
ê	-14.3501
ę	-14.3501
θ	-14.3501
_	-14.5162
®	-14.5162
¿	-14.5167
Ă	-14.5167
Č	-14.5167
ƒ	-14.5167
ə	-14.5167
ς	-14.5167
σ	-14.5167
‭	-14.5167
◄	-14.5167
★	-14.5167
	-14.5167
😂	-14.5167
ī	-14.5167
	-14.7167
Æ	-14.7167
ε	-14.7167
ο	-14.7167
‚	-14.7167
◆	-14.7167
	-14.7167
	-14.7167
😅	-14.7167
🤣	-14.7167
ū	-14.7167
а	-14.7167
国	-14.7167
ρ	-14.7167
“	-14.9662
Í	-14.9667
ò	-14.9667
ù	-14.9667
ý	-14.9667
ő	-14.9667
ţ	-14.9667
ʼ	-14.9667
ί	-14.9667
λ	-14.9667
й	-14.9667
ṇ	-14.9667
ṣ	-14.9667
†	-14.9667
▪	-14.9667
○	-14.9667
◾	-14.9667
⭐	-14.9667
國	-14.9667
	-14.9667
	-14.9667
💙	-14.9667
ص	-14.9667
þ	-15.3001
¢	-15.3001
ì	-15.3001
ă	-15.3001
ą	-15.3001
đ	-15.3001
ē	-15.3001
̃	-15.3001
ά	-15.3001
φ	-15.3001
К	-15.3001
е	-15.3001
د	-15.3001
ر	-15.3001
ى	-15.3001
ḥ	-15.3001
ἀ	-15.3001
♣	-15.3001
❑	-15.3001
・	-15.3001
軍	-15.3001
︎	-15.3001
💤	-15.3001
ӓ	-15.3001
и	-15.3001
р	-15.3001
超	-15.3001
{	-15.7996
«	-15.7996
ј	-15.8001
ج	-15.8001
Σ	-15.8001
ÿ	-15.8001
ǔ	-15.8001
ɑ	-15.8001
Α	-15.8001
κ	-15.8001
χ	-15.8001
ό	-15.8001
Д	-15.8001
д	-15.8001
ت	-15.8001
ح	-15.8001
ร	-15.8001
უ	-15.8001
ọ	-15.8001
‍	-15.8001
―	-15.8001
‡	-15.8001
↵	-15.8001
∙	-15.8001
√	-15.8001
≈	-15.8001
□	-15.8001
◦	-15.8001
⚘	-15.8001
✅	-15.8001
✎	-15.8001
✰	-15.8001
❥	-15.8001
コ	-15.8001
ン	-15.8001
万	-15.8001
团	-15.8001
岁	-15.8001
联	-15.8001
赛	-15.8001
	-15.8001
	-15.8001
	-15.8001
	-15.8001
	-15.8001
	-15.8001
	-15.8001
	-15.8001
😕	-15.8001
😜	-15.8001
😝	-15.8001
🙌	-15.8001
🤔	-15.8001
🤗	-15.8001
🤯	-15.8001
ก	-15.8001
会	-15.8001
🙈	-16.7904
😬	-16.7905
😎	-16.7906
😋	-16.7907
💖	-16.7908
	-16.7909
눉	-16.791
足	-16.7911
球	-16.7912
人	-16.7913
主	-16.7914
♪	-16.7915
☆	-16.7916
Ґ	-16.7917
О	-16.7918
ή	-16.7919
Ω	-16.792
Β	-16.7921
ɛ	-16.7922
ș	-16.7923
ư	-16.7924
ơ	-16.7925
ż	-16.7926
ś	-16.7927
Ś	-16.7928
Đ	-16.7929
Þ	-16.793
😦	-16.7931
😢	-16.7932
😇	-16.7933
革	-16.7934
命	-16.7935
❓	-16.7936
◊	-16.7937
≤	-16.7938
ẹ	-16.7939
ω	-16.794
τ	-16.7941
Δ	-16.7942
ė	-16.7943
¡	-16.7944
💜	-16.7945
💚	-16.7946
💕	-16.7947
👏	-16.7948
	-16.7949
中	-16.795
☝	-16.7951
‬	-16.7952
π	-16.7953
δ	-16.7954
ǧ	-16.7955
Ž	-16.7956
Ş	-16.7957
	-16.7958
😘	-16.7959
😃	-16.796
▶	-16.7961
ṛ	-16.7962
Õ	-16.7963
Ç	-16.7964
🙏	-16.7965
😄	-16.7966
民	-16.7967
œ	-16.7968
	-16.7969
↑	-16.797
Î	-16.7971
Á	-16.7972
♡	-16.7973
☺	-16.7974
Ó	-16.7975
	-16.7976
Š	-16.7977
	-16.7978
ˮ	-16.7979
Ø	-16.798
א	-16.7981
≥	-16.7982
μ	-16.7983
😊	-16.7984
✓	-16.7985
▌	-16.7986
😀	-16.7987
′	-16.7988
−	-16.7989
`	-16.799
😉	-16.7991
●	-16.7992
›	-16.7993
̈	-16.7994
£	-16.7995
·	-16.7996
	-16.7996
♥	-16.7996
→	-16.7996
́	-16.7997
@	-16.7998
🙂	-16.7999
‘	-16.8
ṅ	-16.8001
Ṭ	-16.8001
∈	-16.8001
⟵	-16.8001
🍦	-16.8001
	-16.8001
	-16.8001
	-16.8001
À	-16.8001
Ë	-16.8001
Ð	-16.8001
Ñ	-16.8001
Ò	-16.8001
Ú	-16.8001
Ý	-16.8001
÷	-16.8001
Ā	-16.8001
ě	-16.8001
ħ	-16.8001
İ	-16.8001
ķ	-16.8001
ų	-16.8001
Ż	-16.8001
ǎ	-16.8001
ǒ	-16.8001
ɒ	-16.8001
ɡ	-16.8001
ɣ	-16.8001
ɸ	-16.8001
ˆ	-16.8001
ˈ	-16.8001
ˌ	-16.8001
ː	-16.8001
̂	-16.8001
̶	-16.8001
Γ	-16.8001
Ε	-16.8001
Θ	-16.8001
Μ	-16.8001
Π	-16.8001
Φ	-16.8001
η	-16.8001
ύ	-16.8001
А	-16.8001
Б	-16.8001
В	-16.8001
Е	-16.8001
Н	-16.8001
П	-16.8001
Т	-16.8001
Э	-16.8001
Я	-16.8001
в	-16.8001
г	-16.8001
л	-16.8001
м	-16.8001
н	-16.8001
о	-16.8001
т	-16.8001
ц	-16.8001
ы	-16.8001
ӧ	-16.8001
ד	-16.8001
צ	-16.8001
ة	-16.8001
ث	-16.8001
ك	-16.8001
ڤ	-16.8001
ނ	-16.8001
ތ	-16.8001
ަ	-16.8001
ާ	-16.8001
ต	-16.8001
ธ	-16.8001
น	-16.8001
ย	-16.8001
ส	-16.8001
ะ	-16.8001
ั	-16.8001
ิ	-16.8001
ี	-16.8001
ุ	-16.8001
เ	-16.8001
ი	-16.8001
რ	-16.8001
ხ	-16.8001
Ḥ	-16.8001
ḳ	-16.8001
Ṣ	-16.8001
ṭ	-16.8001
ả	-16.8001
ầ	-16.8001
ễ	-16.8001
ệ	-16.8001
ỉ	-16.8001
ị	-16.8001
ờ	-16.8001
ủ	-16.8001
ἐ	-16.8001
‣	-16.8001
※	-16.8001
⁃	-16.8001
₤	-16.8001
↓	-16.8001
↩	-16.8001
⇑	-16.8001
⇒	-16.8001
⇨	-16.8001
∑	-16.8001
∞	-16.8001
⋅	-16.8001
▲	-16.8001
▷	-16.8001
▼	-16.8001
▽	-16.8001
▾	-16.8001
☐	-16.8001
☒	-16.8001
☕	-16.8001
☟	-16.8001
☭	-16.8001
♦	-16.8001
♧	-16.8001
♫	-16.8001
✌	-16.8001
✗	-16.8001
➜	-16.8001
➥	-16.8001
⟶	-16.8001
⦁	-16.8001
オ	-16.8001
ニ	-16.8001
ビ	-16.8001
リ	-16.8001
世	-16.8001
五	-16.8001
光	-16.8001
公	-16.8001
共	-16.8001
军	-16.8001
华	-16.8001
协	-16.8001
協	-16.8001
司	-16.8001
大	-16.8001
山	-16.8001
式	-16.8001
會	-16.8001
月	-16.8001
株	-16.8001
楚	-16.8001
江	-16.8001
海	-16.8001
狂	-16.8001
珞	-16.8001
界	-16.8001
社	-16.8001
秋	-16.8001
空	-16.8001
箇	-16.8001
級	-16.8001
结	-16.8001
聯	-16.8001
臺	-16.8001
航	-16.8001
言	-16.8001
賽	-16.8001
鈥	-16.8001
锦	-16.8001
镜	-16.8001
际	-16.8001
限	-16.8001
集	-16.8001
낍	-16.8001
책	-16.8001
	-16.8001
	-16.8001
	-16.8001
	-16.8001
	-16.8001
	-16.8001
	-16.8001
	-16.8001
	-16.8001
	-16.8001
	-16.8001
	-16.8001
	-16.8001
	-16.8001
	-16.8001
	-16.8001
	-16.8001
	-16.8001
	-16.8001
	-16.8001
	-16.8001
	-16.8001
	-16.8001
	-16.8001
￼	-16.8001
🇨	-16.8001
🌞	-16.8001
🌷	-16.8001
🌸	-16.8001
🍀	-16.8001
🍰	-16.8001
🍳	-16.8001
🍴	-16.8001
🎁	-16.8001
🎈	-16.8001
🎉	-16.8001
🎨	-16.8001
🎶	-16.8001
🎼	-16.8001
🏆	-16.8001
🏽	-16.8001
🐞	-16.8001
🐲	-16.8001
🐴	-16.8001
🐾	-16.8001
👁	-16.8001
👇	-16.8001
👌	-16.8001
💔	-16.8001
💥	-16.8001
💪	-16.8001
💰	-16.8001
📌	-16.8001
📚	-16.8001
📷	-16.8001
🔸	-16.8001
🖤	-16.8001
🗞	-16.8001
😁	-16.8001
😆	-16.8001
😔	-16.8001
😖	-16.8001
😞	-16.8001
😠	-16.8001
😫	-16.8001
😭	-16.8001
😳	-16.8001
😶	-16.8001
🙆	-16.8001
🙉	-16.8001
🤙	-16.8001
🤛	-16.8001
🤩	-16.8001
🥂	-16.8001
🥇	-16.8001
🦋	-16.8001
🦌	-16.8001
🧡	-16.8001
Ł	-16.8001
С	-16.8001
[	-16.8001
И	-16.8001
с	-16.8001
ข	-16.8001
ც	-16.8001
台	-16.8001
和	-16.8001
春	-16.8001
有	-16.8001
湾	-16.8001
灣	-16.8001
级	-16.8001
