[UNK]	0
[CLS]	1
[SEP]	2
[PAD]	3
[MASK]	4
!	5
"	6
#	7
$	8
%	9
&	10
'	11
(	12
)	13
*	14
+	15
,	16
-	17
.	18
/	19
0	20
1	21
2	22
3	23
4	24
5	25
6	26
7	27
8	28
9	29
:	30
;	31
<	32
=	33
>	34
?	35
@	36
[	37
\	38
]	39
^	40
_	41
`	42
a	43
b	44
c	45
d	46
e	47
f	48
g	49
h	50
i	51
j	52
k	53
l	54
m	55
n	56
o	57
p	58
q	59
r	60
s	61
t	62
u	63
v	64
w	65
x	66
y	67
z	68
{	69
|	70
}	71
~	72
	73
	74
	75
	76
	77
	78
	79
	80
	81
	82
	83
	84
¡	85
¢	86
£	87
¤	88
¥	89
§	90
©	91
«	92
¬	93
­	94
®	95
°	96
±	97
¶	98
·	99
»	100
¿	101
×	102
ß	103
à	104
á	105
â	106
ã	107
ä	108
å	109
æ	110
ç	111
è	112
é	113
ê	114
ë	115
ì	116
í	117
î	118
ï	119
ð	120
ñ	121
ò	122
ó	123
ô	124
õ	125
ö	126
÷	127
ø	128
ù	129
ú	130
û	131
ü	132
ý	133
þ	134
ÿ	135
ā	136
ă	137
ą	138
ć	139
č	140
đ	141
ē	142
ė	143
ę	144
ě	145
ğ	146
ħ	147
ī	148
ı	149
ķ	150
ĺ	151
ł	152
ń	153
ō	154
ő	155
œ	156
ś	157
ş	158
š	159
ţ	160
ū	161
ų	162
ż	163
ž	164
ƒ	165
ơ	166
ư	167
ǎ	168
ǒ	169
ǔ	170
ǧ	171
ș	172
ɑ	173
ɒ	174
ə	175
ɛ	176
ɡ	177
ɣ	178
ɸ	179
ʹ	180
ʼ	181
ˆ	182
ˈ	183
ˌ	184
ː	185
ˮ	186
́	187
̃	188
̇	189
̈	190
̊	191
̶	192
ά	193
ή	194
ί	195
α	196
β	197
γ	198
δ	199
ε	200
η	201
θ	202
ι	203
κ	204
λ	205
μ	206
ν	207
ο	208
π	209
ρ	210
ς	211
σ	212
τ	213
φ	214
χ	215
ω	216
ό	217
ύ	218
а	219
б	220
в	221
г	222
д	223
е	224
и	225
й	226
к	227
л	228
м	229
н	230
о	231
п	232
р	233
с	234
т	235
ц	236
ы	237
э	238
я	239
ј	240
ґ	241
ӓ	242
ӧ	243
א	244
ד	245
צ	246
ا	247
ة	248
ت	249
ث	250
ج	251
ح	252
د	253
ر	254
س	255
ص	256
ع	257
ك	258
ل	259
م	260
ن	261
ه	262
و	263
ى	264
ي	265
ڤ	266
ނ	267
ތ	268
ަ	269
ާ	270
ก	271
ข	272
ต	273
ธ	274
น	275
ย	276
ร	277
ส	278
ะ	279
ั	280
ิ	281
ี	282
ุ	283
เ	284
ი	285
რ	286
უ	287
ც	288
ხ	289
ḥ	290
ḳ	291
ṅ	292
ṇ	293
ṛ	294
ṣ	295
ṭ	296
ạ	297
ả	298
ầ	299
ẹ	300
ễ	301
ệ	302
ỉ	303
ị	304
ọ	305
ờ	306
ủ	307
ἀ	308
ἐ	309
​	310
‌	311
‍	312
‎	313
‏	314
‐	315
‒	316
–	317
—	318
―	319
‘	320
’	321
‚	322
“	323
”	324
„	325
†	326
‡	327
•	328
‣	329
‬	330
‭	331
′	332
‹	333
›	334
※	335
⁃	336
⁄	337
₤	338
€	339
←	340
↑	341
→	342
↓	343
↩	344
↵	345
⇑	346
⇒	347
⇨	348
∈	349
∑	350
−	351
∙	352
√	353
∞	354
≈	355
≤	356
≥	357
⋅	358
▌	359
■	360
□	361
▪	362
▲	363
▶	364
▷	365
▸	366
►	367
▼	368
▽	369
▾	370
◄	371
◆	372
◊	373
○	374
●	375
◦	376
◾	377
★	378
☆	379
☐	380
☒	381
☕	382
☝	383
☟	384
☭	385
☺	386
♡	387
♣	388
♥	389
♦	390
♧	391
♪	392
♫	393
⚘	394
✅	395
✌	396
✎	397
✓	398
✔	399
✗	400
✰	401
❑	402
❓	403
❤	404
❥	405
➜	406
➥	407
⟵	408
⟶	409
⦁	410
⭐	411
オ	412
コ	413
ニ	414
ビ	415
リ	416
ン	417
・	418
万	419
世	420
中	421
主	422
五	423
人	424
会	425
光	426
公	427
共	428
军	429
华	430
协	431
協	432
台	433
司	434
命	435
和	436
团	437
国	438
國	439
大	440
山	441
岁	442
式	443
春	444
會	445
月	446
有	447
株	448
楚	449
民	450
江	451
海	452
湾	453
灣	454
狂	455
珞	456
球	457
界	458
社	459
秋	460
空	461
箇	462
級	463
级	464
结	465
联	466
聯	467
臺	468
航	469
言	470
賽	471
赛	472
超	473
足	474
軍	475
鈥	476
锦	477
镜	478
际	479
限	480
集	481
革	482
낍	483
눉	484
책	485
	486
	487
	488
	489
	490
	491
	492
	493
	494
	495
	496
	497
	498
	499
	500
	501
	502
	503
	504
	505
	506
	507
	508
	509
	510
	511
	512
	513
	514
	515
	516
	517
	518
	519
	520
	521
	522
	523
	524
	525
︎	526
️	527
﻿	528
￼	529
�	530
🇨	531
🌞	532
🌷	533
🌸	534
🍀	535
🍦	536
🍰	537
🍳	538
🍴	539
🎁	540
🎈	541
🎉	542
🎨	543
🎶	544
🎼	545
🏆	546
🏻	547
🏼	548
🏽	549
🐞	550
🐲	551
🐴	552
🐾	553
👁	554
👇	555
👌	556
👍	557
👏	558
💔	559
💕	560
💖	561
💙	562
💚	563
💜	564
💤	565
💥	566
💪	567
💰	568
📌	569
📚	570
📷	571
🔸	572
🖤	573
🗞	574
😀	575
😁	576
😂	577
😃	578
😄	579
😅	580
😆	581
😇	582
😉	583
😊	584
😋	585
😍	586
😎	587
😔	588
😕	589
😖	590
😘	591
😛	592
😜	593
😝	594
😞	595
😠	596
😢	597
😦	598
😫	599
😬	600
😭	601
😳	602
😶	603
🙁	604
🙂	605
🙆	606
🙈	607
🙉	608
🙌	609
🙏	610
🤔	611
🤗	612
🤙	613
🤛	614
🤣	615
🤩	616
🤯	617
🥂	618
🥇	619
🦋	620
🦌	621
🧡	622
🧩	623
##i	624
##k	625
##t	626
##a	627
##o	628
##u	629
##m	630
##e	631
##n	632
##r	633
##ä	634
##s	635
##p	636
##l	637
##h	638
##j	639
##g	640
##d	641
##f	642
##y	643
##b	644
##v	645
##ö	646
##å	647
##2	648
##c	649
##w	650
##z	651
##x	652
##.	653
##6	654
##0	655
##1	656
##5	657
##7	658
##)	659
##'	660
##"	661
##]	662
##é	663
##á	664
##4	665
##,	666
##9	667
##3	668
##’	669
##”	670
##+	671
##8	672
##💚	673
##:	674
##ò	675
##è	676
##ă	677
##q	678
##ó	679
##ĺ	680
##_	681
##â	682
##>	683
##*	684
##ü	685
##=	686
##{	687
##\	688
##?	689
##!	690
##ñ	691
##à	692
##š	693
##ć	694
##⚘	695
##💜	696
##🦋	697
##🐞	698
##😇	699
##/	700
##ð	701
##ō	702
##ç	703
##<	704
##🤣	705
##г	706
##í	707
##ṛ	708
##ṣ	709
##ṇ	710
##-	711
##;	712
##č	713
##ø	714
##ã	715
##ž	716
##к	717
##е	718
##а	719
##ş	720
##ǧ	721
##“	722
##و	723
##ر	724
##ة	725
##ő	726
##æ	727
##ê	728
##û	729
##»	730
##ƒ	731
##(	732
##�	733
##—	734
##	735
##	736
##õ	737
##î	738
##ύ	739
##σ	740
##ι	741
##ς	742
##ú	743
##س	744
##ك	745
##ت	746
##ا	747
##ن	748
##[	749
##ơ	750
##}	751
##ā	752
##þ	753
##^	754
##​	755
##✎	756
##❤	757
##😊	758
##👍	759
##–	760
##ń	761
##α	762
##λ	763
##ο	764
##ν	765
##$	766
##💙	767
##«	768
##ǔ	769
##ī	770
##ł	771
##­	772
##❓	773
##ğ	774
##ه	775
##🏼	776
##†	777
##界	778
##人	779
##民	780
##大	781
##团	782
##结	783
##万	784
##岁	785
##ô	786
##°	787
##ı	788
##ï	789
##	790
##~	791
##●	792
##ì	793
##œ	794
##◾	795
##л	796
##☺	797
##&	798
##ӓ	799
##|	800
##ά	801
##ρ	802
##ح	803
##م	804
##د	805
##п	806
##ص	807
##ė	808
##€	809
##ạ	810
##§	811
##›	812
##ʹ	813
##ẹ	814
##©	815
##🌷	816
##🏻	817
##限	818
##公	819
##司	820
##ë	821
##ε	822
##δ	823
##ω	824
##ί	825
##‘	826
##γ	827
##ή	828
##τ	829
##ē	830
##й	831
##😍	832
##ل	833
##ي	834
##ǎ	835
##ū	836
##	837
##¿	838
##ˆ	839
##¬	840
##′	841
##•	842
##	843
##⇑	844
##ß	845
##`	846
##э	847
##д	848
##	849
##ù	850
##	851
##ː	852
##ั	853
##ก	854
##เ	855
##ี	856
##ย	857
##ร	858
##ต	859
##ิ	860
##🌞	861
##£	862
##‎	863
##ý	864
##%	865
##ż	866
##¢	867
##光	868
##책	869
##國	870
##足	871
##球	872
##協	873
##會	874
##超	875
##級	876
##聯	877
##賽	878
##秋	879
##航	880
##空	881
##‌	882
##←	883
##đ	884
##	885
##ś	886
##ę	887
###	888
##ع	889
##უ	890
##ც	891
##რ	892
##ი	893
##®	894
##‭	895
##¤	896
##ą	897
##н	898
##😅	899
##	900
##ґ	901
##🍰	902
##🥂	903
##̃	904
##ɑ	905
##ḳ	906
##ķ	907
##‹	908
##🏆	909
##	910
##≥	911
##♥	912
##‐	913
##ṅ	914
##ン	915
##ビ	916
##ニ	917
##😂	918
##🍀	919
##и	920
##м	921
##т	922
##р	923
##о	924
##в	925
##ާ	926
##ނ	927
##ަ	928
##ţ	929
##湾	930
##主	931
##国	932
##→	933
##💤	934
##ḥ	935
##🏽	936
##箇	937
##山	938
##ư	939
##軍	940
##ӧ	941
##	942
##😕	943
##β	944
##😔	945
##🤯	946
##ệ	947
##命	948
##ÿ	949
##⁃	950
##协	951
##会	952
##级	953
##联	954
##赛	955
##±	956
##ễ	957
##с	958
##ы	959
##ầ	960
##@	961
##ủ	962
##	963
##🌸	964
##📚	965
##−	966
##■	967
##海	968
##	969
##χ	970
##η	971
##⭐	972
##😝	973
##ị	974
##ě	975
##ǒ	976
##̇	977
##式	978
##社	979
##オ	980
##リ	981
##コ	982
##革	983
##军	984
##﻿	985
##ș	986
##😁	987
##ɛ	988
##ə	989
##ờ	990
##	991
##★	992
##☆	993
##	994
##ọ	995
##🙂	996
##θ	997
##φ	998
##ј	999
##▼	1000
##◄	1001
##►	1002
##ц	1003
##κ	1004
##🙌	1005
##↵	1006
##	1007
##‡	1008
##≈	1009
##😘	1010
##👌	1011
##🤛	1012
##ج	1013
##ų	1014
##灣	1015
##ุ	1016
##ข	1017
##ธ	1018
##น	1019
##ะ	1020
##	1021
##ى	1022
##▽	1023
##ả	1024
##🎉	1025
##🎈	1026
##🎁	1027
##🦌	1028
##ṭ	1029
##华	1030
##共	1031
##和	1032
##江	1033
##际	1034
##ό	1035
##💖	1036
##ɣ	1037
##¡	1038
##言	1039
##￼	1040
##er	1041
##en	1042
##ar	1043
##tt	1044
##an	1045
##et	1046
##ll	1047
##ör	1048
##in	1049
##om	1050
##st	1051
##ig	1052
oc	1053
för	1054
och	1055
##on	1056
att	1057
##or	1058
##de	1059
##at	1060
in	1061
en	1062
##är	1063
##ka	1064
##ing	1065
är	1066
##ed	1067
##ag	1068
##ill	1069
##än	1070
##na	1071
de	1072
##is	1073
av	1074
##kt	1075
##ra	1076
det	1077
som	1078
till	1079
på	1080
##el	1081
##te	1082
med	1083
##al	1084
vi	1085
st	1086
##lig	1087
##nd	1088
##pp	1089
den	1090
##ning	1091
##ck	1092
##ter	1093
##am	1094
##as	1095
##ro	1096
##ion	1097
var	1098
##es	1099
##it	1100
##ån	1101
om	1102
##iv	1103
har	1104
jag	1105
du	1106
inte	1107
an	1108
##id	1109
##ver	1110
##il	1111
##and	1112
fr	1113
##em	1114
##ade	1115
ut	1116
##ad	1117
##ller	1118
kan	1119
ett	1120
##ur	1121
##ätt	1122
##re	1123
##ol	1124
##äl	1125
##der	1126
##ande	1127
kom	1128
sk	1129
##år	1130
##åg	1131
##sk	1132
##het	1133
##are	1134
all	1135
##ss	1136
##ik	1137
##un	1138
be	1139
##ut	1140
##ot	1141
##ent	1142
##mer	1143
upp	1144
##ens	1145
##da	1146
så	1147
##för	1148
##ation	1149
eller	1150
##li	1151
##sta	1152
##ång	1153
##ans	1154
##äg	1155
##itt	1156
ska	1157
pro	1158
från	1159
sp	1160
##ell	1161
##ort	1162
##us	1163
när	1164
##le	1165
##isk	1166
##ru	1167
men	1168
##ta	1169
re	1170
##äm	1171
någ	1172
min	1173
##vän	1174
##äll	1175
##ud	1176
##nder	1177
sam	1178
##ist	1179
##sa	1180
##iska	1181
##inn	1182
över	1183
##tta	1184
kommer	1185
han	1186
##fter	1187
##ma	1188
kon	1189
##ligt	1190
bar	1191
##la	1192
##yck	1193
ar	1194
##ks	1195
##den	1196
gör	1197
##ers	1198
##var	1199
##erna	1200
tr	1201
##og	1202
man	1203
##liga	1204
under	1205
##um	1206
##ul	1207
din	1208
##ff	1209
##era	1210
##ic	1211
##jäl	1212
##ram	1213
##ker	1214
##ats	1215
##ste	1216
använ	1217
se	1218
detta	1219
sig	1220
##änn	1221
alla	1222
##bet	1223
där	1224
##gen	1225
fa	1226
här	1227
vara	1228
and	1229
##lar	1230
##ull	1231
##ska	1232
##se	1233
år	1234
gen	1235
dig	1236
må	1237
efter	1238
sin	1239
##ri	1240
##je	1241
vad	1242
##igt	1243
##äng	1244
beh	1245
##ft	1246
ny	1247
##os	1248
hur	1249
hel	1250
20	1251
allt	1252
ha	1253
##yg	1254
##bb	1255
fl	1256
dess	1257
##att	1258
##del	1259
tid	1260
än	1261
##sl	1262
##orm	1263
vär	1264
pr	1265
hon	1266
##sp	1267
vill	1268
##od	1269
ex	1270
finn	1271
##est	1272
##ne	1273
##ld	1274
##arna	1275
vis	1276
##pa	1277
##art	1278
or	1279
##ger	1280
finns	1281
##åll	1282
andra	1283
er	1284
ta	1285
bl	1286
ocks	1287
också	1288
##ok	1289
##ser	1290
sl	1291
mer	1292
sy	1293
genom	1294
##iga	1295
ver	1296
##rä	1297
##ven	1298
##du	1299
##..	1300
##ningen	1301
##öd	1302
##itet	1303
##ju	1304
mig	1305
##ling	1306
vil	1307
dag	1308
##ycket	1309
##im	1310
tv	1311
##ch	1312
##ord	1313
##öj	1314
vid	1315
##ekt	1316
dem	1317
##eck	1318
väl	1319
bör	1320
denna	1321
bli	1322
mot	1323
bara	1324
fram	1325
##va	1326
mycket	1327
##ningar	1328
nu	1329
##ess	1330
##per	1331
##ilj	1332
##ier	1333
##ligen	1334
##erson	1335
pl	1336
##ikt	1337
##ant	1338
##ci	1339
få	1340
kun	1341
##edan	1342
##änd	1343
##ark	1344
##und	1345
arbet	1346
br	1347
##ster	1348
någon	1349
##bl	1350
##ånga	1351
##ak	1352
ber	1353
##all	1354
res	1355
le	1356
vår	1357
själ	1358
##ja	1359
person	1360
##ga	1361
del	1362
spel	1363
##rå	1364
göra	1365
##ställ	1366
ann	1367
även	1368
##vis	1369
##ella	1370
##eras	1371
bes	1372
liv	1373
förs	1374
använd	1375
##ighet	1376
bet	1377
skull	1378
##gi	1379
stor	1380
ty	1381
kr	1382
hö	1383
många	1384
eu	1385
un	1386
skulle	1387
...	1388
kv	1389
##ering	1390
då	1391
dessa	1392
männ	1393
rätt	1394
##opp	1395
oss	1396
säg	1397
##riv	1398
##00	1399
##lighet	1400
behö	1401
lä	1402
sätt	1403
bil	1404
##kar	1405
##ktion	1406
te	1407
##op	1408
##ket	1409
li	1410
##form	1411
##tal	1412
##nad	1413
vet	1414
##ost	1415
ser	1416
##ass	1417
gru	1418
##ber	1419
##ende	1420
bra	1421
##ring	1422
##öl	1423
måste	1424
##ala	1425
##stå	1426
sä	1427
utan	1428
##iskt	1429
får	1430
##cka	1431
hade	1432
barn	1433
##yr	1434
människ	1435
produ	1436
##kom	1437
##ov	1438
##erade	1439
##ock	1440
##håll	1441
##pl	1442
något	1443
##som	1444
##oll	1445
##ien	1446
första	1447
hjäl	1448
vå	1449
utv	1450
##sam	1451
##öm	1452
##sätt	1453
19	1454
##dag	1455
##etag	1456
##ir	1457
201	1458
##tern	1459
##aren	1460
##ök	1461
komm	1462
ni	1463
##if	1464
ch	1465
kl	1466
##äst	1467
två	1468
##ia	1469
##eg	1470
reg	1471
ju	1472
##bil	1473
själv	1474
##ick	1475
##tr	1476
##ön	1477
##jän	1478
inne	1479
mo	1480
##åt	1481
inom	1482
##kl	1483
fort	1484
##ets	1485
##ce	1486
sa	1487
##ann	1488
##ken	1489
of	1490
##sm	1491
vikt	1492
hem	1493
##ativ	1494
sv	1495
##tid	1496
fråg	1497
människor	1498
gl	1499
möj	1500
gång	1501
sm	1502
hög	1503
##ästa	1504
gr	1505
sedan	1506
##ult	1507
##rar	1508
sina	1509
##akt	1510
fin	1511
jo	1512
varje	1513
##av	1514
nya	1515
##men	1516
##stem	1517
våra	1518
##ellan	1519
företag	1520
##änder	1521
hand	1522
th	1523
utveck	1524
slut	1525
verk	1526
åt	1527
##erar	1528
##yd	1529
kont	1530
##man	1531
##pt	1532
sen	1533
##äd	1534
ditt	1535
behöver	1536
##else	1537
mellan	1538
##gr	1539
##sen	1540
led	1541
di	1542
##gång	1543
for	1544
euro	1545
kän	1546
##enter	1547
##bar	1548
eg	1549
några	1550
säker	1551
lag	1552
##ölj	1553
mat	1554
##des	1555
##lev	1556
##lika	1557
åter	1558
##nings	1559
milj	1560
hela	1561
gud	1562
börj	1563
al	1564
##eri	1565
olika	1566
##kon	1567
##ts	1568
##vär	1569
fun	1570
gå	1571
vä	1572
deras	1573
##org	1574
dina	1575
##kn	1576
läng	1577
dat	1578
##jär	1579
##alt	1580
tro	1581
sitt	1582
stör	1583
##enska	1584
gj	1585
säger	1586
##andet	1587
grund	1588
##ott	1589
##formation	1590
enda	1591
ge	1592
##ygg	1593
förb	1594
kö	1595
##ef	1596
ma	1597
##ba	1598
we	1599
##mar	1600
lär	1601
##ionen	1602
produkt	1603
hans	1604
ans	1605
mark	1606
hitt	1607
blir	1608
vän	1609
##ap	1610
bå	1611
##ägg	1612
inn	1613
ingen	1614
so	1615
##anska	1616
##iss	1617
##gram	1618
).	1619
##det	1620
tjän	1621
änd	1622
##ys	1623
##ationer	1624
akt	1625
fil	1626
##edel	1627
skall	1628
hen	1629
håll	1630
##fatt	1631
lö	1632
##rig	1633
pol	1634
##nar	1635
##ika	1636
art	1637
##rat	1638
##atur	1639
intern	1640
honom	1641
par	1642
tän	1643
information	1644
##nas	1645
##lem	1646
alltid	1647
##pel	1648
##erad	1649
samma	1650
tre	1651
##lden	1652
varför	1653
##land	1654
##ang	1655
ur	1656
vilket	1657
går	1658
##br	1659
ing	1660
väg	1661
först	1662
##sy	1663
##fr	1664
##änner	1665
##par	1666
##pr	1667
##ades	1668
ne	1669
##ie	1670
##skap	1671
mitt	1672
##ffekt	1673
helt	1674
följ	1675
svar	1676
200	1677
ro	1678
läg	1679
##min	1680
##ål	1681
proc	1682
spe	1683
##arbet	1684
tal	1685
##dom	1686
##juk	1687
lång	1688
##ske	1689
##verk	1690
bästa	1691
rel	1692
dr	1693
##gar	1694
samt	1695
##ack	1696
##far	1697
världen	1698
enligt	1699
the	1700
läm	1701
per	1702
##kel	1703
##nader	1704
##skar	1705
##blem	1706
##rekt	1707
varit	1708
##äller	1709
##ellt	1710
stud	1711
hu	1712
##tter	1713
värld	1714
vin	1715
eftersom	1716
##io	1717
mar	1718
ord	1719
ger	1720
använda	1721
##heten	1722
plats	1723
##åller	1724
såd	1725
kall	1726
dom	1727
##ow	1728
fakt	1729
bort	1730
##ksam	1731
##skil	1732
bätt	1733
ly	1734
förl	1735
bättre	1736
van	1737
ant	1738
kunna	1739
##orde	1740
##str	1741
##utom	1742
speci	1743
##olk	1744
##rum	1745
webb	1746
##ät	1747
erb	1748
kra	1749
##plats	1750
##igare	1751
id	1752
skriv	1753
mål	1754
##atten	1755
fall	1756
##upp	1757
lite	1758
on	1759
##ast	1760
lo	1761
##gan	1762
sna	1763
annan	1764
##jekt	1765
##digt	1766
##vet	1767
##app	1768
##anden	1769
##ida	1770
hän	1771
medlem	1772
komp	1773
10	1774
ald	1775
##gifter	1776
pen	1777
best	1778
val	1779
hos	1780
##erat	1781
##lin	1782
kanske	1783
kvinn	1784
aldrig	1785
exem	1786
##amn	1787
##sst	1788
##lut	1789
##pe	1790
äl	1791
##ym	1792
mest	1793
effekt	1794
igen	1795
##ingen	1796
##gör	1797
annat	1798
pre	1799
sn	1800
off	1801
flera	1802
tar	1803
##hand	1804
##istor	1805
mus	1806
ad	1807
artik	1808
##under	1809
##äk	1810
plan	1811
##olog	1812
rikt	1813
därför	1814
fär	1815
##igheter	1816
##xt	1817
##ppen	1818
lu	1819
idag	1820
inv	1821
behand	1822
program	1823
problem	1824
##gär	1825
##sb	1826
##orna	1827
stora	1828
lever	1829
##ind	1830
fast	1831
##ob	1832
tror	1833
innan	1834
em	1835
##pro	1836
##vud	1837
intr	1838
stad	1839
ofta	1840
snabb	1841
ob	1842
tekn	1843
exempel	1844
str	1845
##ub	1846
##ank	1847
##nen	1848
tra	1849
natur	1850
vissa	1851
full	1852
##kv	1853
konst	1854
komma	1855
fam	1856
kär	1857
##iva	1858
.”	1859
##mans	1860
##nes	1861
##enskap	1862
##klar	1863
##ab	1864
blev	1865
tillba	1866
stat	1867
##ition	1868
##åd	1869
forsk	1870
##tera	1871
##iken	1872
##ationen	1873
##ard	1874
##naden	1875
ställ	1876
häl	1877
##met	1878
organ	1879
##äns	1880
##jer	1881
##vs	1882
kro	1883
form	1884
##unt	1885
tillbaka	1886
he	1887
bo	1888
bland	1889
und	1890
sär	1891
gam	1892
met	1893
bok	1894
##led	1895
verkligen	1896
huvud	1897
system	1898
hjär	1899
lig	1900
inf	1901
fy	1902
im	1903
land	1904
##sten	1905
krä	1906
int	1907
sö	1908
hör	1909
områ	1910
män	1911
##rätt	1912
god	1913
gäller	1914
berätt	1915
##ote	1916
##konom	1917
fick	1918
##ung	1919
sjuk	1920
##stånd	1921
internation	1922
##unkt	1923
histor	1924
sådan	1925
##ingar	1926
mina	1927
både	1928
direkt	1929
##ära	1930
my	1931
mö	1932
##bild	1933
särskil	1934
part	1935
##jud	1936
saker	1937
gra	1938
ner	1939
före	1940
lik	1941
namn	1942
red	1943
hjälp	1944
sak	1945
."	1946
##kte	1947
artikel	1948
po	1949
sh	1950
##vent	1951
##kor	1952
##ultat	1953
go	1954
endast	1955
föränd	1956
##farande	1957
soci	1958
pla	1959
dock	1960
ind	1961
stöd	1962
tidigare	1963
rö	1964
##ib	1965
kunde	1966
##rakt	1967
tim	1968
utveckling	1969
mind	1970
familj	1971
öpp	1972
##sammans	1973
co	1974
##lägg	1975
##aget	1976
möjlighet	1977
försö	1978
##ip	1979
fle	1980
redan	1981
##fin	1982
##oner	1983
##kade	1984
tillsammans	1985
##orn	1986
kontro	1987
kort	1988
lätt	1989
##cker	1990
tur	1991
använder	1992
ste	1993
##heter	1994
##sför	1995
##anta	1996
beslut	1997
##alitet	1998
vilka	1999
ja	2000
risk	2001
##ister	2002
ekonom	2003
personer	2004
inst	2005
nation	2006
kli	2007
##sn	2008
vårt	2009
jobb	2010
mindre	2011
pres	2012
kar	2013
inkl	2014
pris	2015
amer	2016
##ydd	2017
förm	2018
is	2019
vilken	2020
erbju	2021
hus	2022
##ivt	2023
##ct	2024
fortfarande	2025
##nade	2026
usa	2027
##ivers	2028
hopp	2029
ab	2030
säga	2031
##ioner	2032
enkel	2033
resultat	2034
väldigt	2035
##err	2036
##ycker	2037
##mär	2038
webbplats	2039
##sin	2040
rör	2041
##dat	2042
##aste	2043
),	2044
si	2045
##ras	2046
fortsätt	2047
ligger	2048
ele	2049
##sikt	2050
##iker	2051
##slut	2052
##nu	2053
bygg	2054
egen	2055
##äv	2056
##ina	2057
gjort	2058
död	2059
eng	2060
känner	2061
förstå	2062
lå	2063
sol	2064
##ive	2065
flyg	2066
##giv	2067
folk	2068
##sf	2069
polit	2070
##ett	2071
fler	2072
##ly	2073
##amp	2074
procent	2075
kor	2076
”.	2077
låt	2078
##ust	2079
vem	2080
##kta	2081
kvinnor	2082
##elser	2083
fel	2084
fem	2085
svår	2086
ener	2087
vatten	2088
bas	2089
##dr	2090
##las	2091
##går	2092
organis	2093
fly	2094
kost	2095
trans	2096
antal	2097
##ivå	2098
##tro	2099
klar	2100
##ug	2101
fot	2102
skapa	2103
sex	2104
inneb	2105
pengar	2106
produkter	2107
##rott	2108
##häll	2109
15	2110
##istr	2111
hjälpa	2112
18	2113
bestäm	2114
längre	2115
största	2116
pat	2117
tiden	2118
möjligt	2119
##väg	2120
jäm	2121
##tag	2122
tack	2123
##jur	2124
tillg	2125
ka	2126
##ke	2127
väx	2128
##ös	2129
##ige	2130
##spro	2131
##bland	2132
just	2133
näst	2134
##uter	2135
hitta	2136
univers	2137
##gon	2138
##äder	2139
far	2140
ol	2141
bety	2142
sid	2143
##mat	2144
främ	2145
##räck	2146
ansvar	2147
##ktioner	2148
projekt	2149
app	2150
europe	2151
##orter	2152
000	2153
dö	2154
##män	2155
fråga	2156
##bart	2157
typ	2158
##bo	2159
##sh	2160
##lek	2161
säkerhet	2162
förbätt	2163
framtid	2164
ung	2165
hår	2166
cent	2167
##ämp	2168
##ivitet	2169
12	2170
##älj	2171
##kommen	2172
##anc	2173
räd	2174
##sig	2175
##ligare	2176
##varande	2177
##ner	2178
utt	2179
hennes	2180
##håller	2181
##ek	2182
länder	2183
bef	2184
ned	2185
används	2186
prof	2187
läk	2188
ang	2189
##ksamhet	2190
dagar	2191
ännu	2192
läs	2193
lika	2194
veck	2195
bel	2196
inget	2197
su	2198
##ler	2199
henne	2200
##ret	2201
lit	2202
nära	2203
##ori	2204
konta	2205
".	2206
viktigt	2207
##ata	2208
##net	2209
orsa	2210
tag	2211
gem	2212
nästa	2213
gener	2214
nog	2215
pass	2216
inför	2217
allmän	2218
kommun	2219
fru	2220
tillgäng	2221
##port	2222
hund	2223
trä	2224
runt	2225
samhäll	2226
älskar	2227
europa	2228
##son	2229
större	2230
titt	2231
##orer	2232
nästan	2233
ön	2234
marknad	2235
flesta	2236
själva	2237
styr	2238
gjorde	2239
sver	2240
visar	2241
syn	2242
san	2243
##me	2244
lös	2245
##ivit	2246
##lic	2247
##hör	2248
ry	2249
kvar	2250
invest	2251
##med	2252
tycker	2253
samtid	2254
äg	2255
skol	2256
##ity	2257
##vä	2258
star	2259
tred	2260
##ften	2261
aff	2262
##olut	2263
senaste	2264
##ism	2265
finans	2266
ih	2267
rapp	2268
ytter	2269
bak	2270
livet	2271
särskilt	2272
dra	2273
koll	2274
##tar	2275
rad	2276
##ha	2277
##van	2278
utbild	2279
nät	2280
##ask	2281
börjar	2282
behandling	2283
händer	2284
##äpp	2285
##amma	2286
##ice	2287
små	2288
##gå	2289
##slag	2290
bed	2291
##line	2292
to	2293
##raf	2294
##andel	2295
##ument	2296
samarbet	2297
amerik	2298
##one	2299
innebär	2300
bild	2301
by	2302
##itu	2303
##kriv	2304
##gru	2305
##kter	2306
kunder	2307
##uder	2308
rum	2309
##els	2310
loka	2311
gill	2312
##ativa	2313
mis	2314
medan	2315
##sstat	2316
viktiga	2317
nytt	2318
##tä	2319
##rik	2320
##ider	2321
##bara	2322
com	2323
enkelt	2324
##eln	2325
hålla	2326
##essen	2327
##ultur	2328
betal	2329
##cis	2330
##ift	2331
##jus	2332
genomför	2333
åtgär	2334
post	2335
##erial	2336
##otell	2337
##uella	2338
##elsen	2339
30	2340
båda	2341
nöd	2342
##ay	2343
skap	2344
##cke	2345
ac	2346
##anter	2347
##icka	2348
##ry	2349
senare	2350
samman	2351
##ringar	2352
förv	2353
11	2354
bek	2355
##fär	2356
##spr	2357
##ral	2358
erbjuder	2359
##oende	2360
påver	2361
fått	2362
##sättning	2363
kons	2364
##ari	2365
##ital	2366
##jut	2367
inter	2368
uppf	2369
fyra	2370
##oder	2371
blivit	2372
samtidigt	2373
kör	2374
tillgång	2375
##iella	2376
spela	2377
ana	2378
kat	2379
##örer	2380
står	2381
bid	2382
arbete	2383
precis	2384
ögon	2385
##ny	2386
icke	2387
dessutom	2388
affär	2389
tjänster	2390
ibland	2391
moder	2392
fi	2393
##eter	2394
##pekt	2395
##rukt	2396
##ställa	2397
köp	2398
öka	2399
omfatt	2400
bilder	2401
utför	2402
##lag	2403
am	2404
hotell	2405
råd	2406
##bru	2407
funger	2408
dagen	2409
delar	2410
länge	2411
miljö	2412
kraft	2413
inga	2414
sverige	2415
via	2416
##andra	2417
pos	2418
grupp	2419
##fekt	2420
##iner	2421
##for	2422
##ständ	2423
online	2424
##ternativ	2425
glob	2426
tredje	2427
##hus	2428
energi	2429
frågor	2430
me	2431
steg	2432
##sett	2433
innehåll	2434
miljoner	2435
medlemsstat	2436
mag	2437
##fer	2438
förlor	2439
europeiska	2440
##satt	2441
kropp	2442
##yll	2443
begr	2444
##co	2445
klass	2446
gånger	2447
test	2448
desig	2449
##ons	2450
##vänd	2451
faktiskt	2452
såg	2453
##ont	2454
sj	2455
mil	2456
erf	2457
rekommen	2458
behov	2459
##så	2460
gick	2461
##bin	2462
##råk	2463
hal	2464
##ligtvis	2465
stort	2466
##ond	2467
gre	2468
100	2469
..	2470
tel	2471
öv	2472
tog	2473
uppgifter	2474
data	2475
##sats	2476
199	2477
##ystem	2478
bud	2479
kund	2480
tem	2481
##kra	2482
ytterligare	2483
skydd	2484
började	2485
kommiss	2486
gu	2487
##kän	2488
##fråg	2489
##alen	2490
##okus	2491
jord	2492
veta	2493
##hol	2494
emot	2495
skill	2496
reger	2497
ljus	2498
##nat	2499
hoppas	2500
el	2501
byg	2502
##delar	2503
##spel	2504
##ings	2505
häls	2506
kap	2507
håller	2508
gar	2509
föräl	2510
disk	2511
bor	2512
miss	2513
upptä	2514
##usive	2515
följande	2516
sjukdom	2517
sade	2518
förut	2519
##öst	2520
##itut	2521
sc	2522
sådana	2523
##inna	2524
blod	2525
lära	2526
lin	2527
ren	2528
##atis	2529
fann	2530
pa	2531
##rev	2532
djur	2533
16	2534
##ron	2535
##ph	2536
##fall	2537
et	2538
träff	2539
##rade	2540
##full	2541
mänsk	2542
tillämp	2543
låg	2544
intres	2545
fokus	2546
ident	2547
##iet	2548
##fäll	2549
krist	2550
köpa	2551
svårt	2552
##ament	2553
vack	2554
jes	2555
jämför	2556
kultur	2557
##asin	2558
mynd	2559
##ns	2560
egna	2561
bu	2562
bru	2563
pop	2564
##olag	2565
##ins	2566
timmar	2567
forskning	2568
snabbt	2569
erfaren	2570
13	2571
vänner	2572
visa	2573
inklusive	2574
månader	2575
##ert	2576
framgång	2577
medic	2578
besö	2579
näm	2580
vidare	2581
##lick	2582
priv	2583
förvän	2584
gången	2585
##tra	2586
##antast	2587
liten	2588
funktion	2589
##yl	2590
##kas	2591
##ater	2592
trän	2593
##ession	2594
kvalitet	2595
fantast	2596
förklar	2597
hjälper	2598
beskriv	2599
handlar	2600
gamla	2601
17	2602
nivå	2603
##pen	2604
välja	2605
tillräck	2606
alternativ	2607
börja	2608
perfekt	2609
världens	2610
25	2611
##kning	2612
innehåller	2613
##its	2614
riktigt	2615
new	2616
gillar	2617
##res	2618
##yn	2619
##delse	2620
##cent	2621
##be	2622
alltså	2623
##syn	2624
internationella	2625
borde	2626
##ifier	2627
##dar	2628
kontroller	2629
guds	2630
fri	2631
användning	2632
start	2633
##inner	2634
unders	2635
sym	2636
sista	2637
14	2638
##ansk	2639
##ren	2640
##red	2641
punkt	2642
åtgärder	2643
värde	2644
arbetar	2645
fungerar	2646
##dition	2647
varandra	2648
##snitt	2649
tot	2650
material	2651
året	2652
trots	2653
begräns	2654
##ten	2655
##nande	2656
roll	2657
början	2658
##vid	2659
sett	2660
mon	2661
förhåll	2662
minst	2663
##ograf	2664
vide	2665
driv	2666
sch	2667
minuter	2668
framför	2669
oav	2670
avs	2671
kärlek	2672
mär	2673
ens	2674
##ian	2675
##ux	2676
hot	2677
långt	2678
fys	2679
internet	2680
##ikation	2681
fö	2682
##kur	2683
offent	2684
50	2685
##orgon	2686
känna	2687
cir	2688
blog	2689
##ningarna	2690
mäng	2691
##stad	2692
ute	2693
##ember	2694
betyder	2695
ir	2696
joh	2697
”,	2698
##ruktur	2699
at	2700
##ium	2701
avtal	2702
",	2703
minska	2704
helst	2705
ben	2706
##ölja	2707
serv	2708
defin	2709
verksamhet	2710
äm	2711
##öv	2712
gemens	2713
besök	2714
elekt	2715
känn	2716
##up	2717
##borg	2718
musik	2719
##kan	2720
##orden	2721
krig	2722
förh	2723
##uppgifter	2724
sidan	2725
##över	2726
mode	2727
kyr	2728
##älla	2729
handel	2730
släpp	2731
pub	2732
mor	2733
fred	2734
träd	2735
kol	2736
##ars	2737
rekommender	2738
användas	2739
##ident	2740
verkar	2741
##alis	2742
##äck	2743
förord	2744
##lingar	2745
##ge	2746
bi	2747
##ies	2748
skad	2749
rå	2750
tyd	2751
såsom	2752
##trä	2753
tillfäll	2754
##spl	2755
mobil	2756
bö	2757
läsa	2758
högre	2759
sag	2760
##oden	2761
film	2762
strat	2763
haft	2764
äld	2765
föres	2766
##ktyg	2767
##by	2768
sky	2769
talet	2770
##äss	2771
la	2772
integr	2773
##rikt	2774
glöm	2775
situ	2776
registr	2777
mör	2778
##ösa	2779
##vara	2780
förbättra	2781
spr	2782
anställ	2783
ganska	2784
popul	2785
##handa	2786
##stol	2787
kunskap	2788
staden	2789
cy	2790
##förs	2791
##stället	2792
do	2793
##als	2794
spelar	2795
tor	2796
##ern	2797
rom	2798
maj	2799
dröm	2800
##ator	2801
##cept	2802
##int	2803
lev	2804
fanns	2805
##ine	2806
##assa	2807
indiv	2808
utman	2809
ändå	2810
sociala	2811
##omen	2812
tillhanda	2813
stand	2814
##sprung	2815
##tem	2816
föd	2817
tänk	2818
nord	2819
anled	2820
någonsin	2821
hemma	2822
norm	2823
ursprung	2824
jesus	2825
##ev	2826
utbildning	2827
kopp	2828
##lade	2829
##äkt	2830
hy	2831
istället	2832
oavsett	2833
son	2834
nå	2835
##fri	2836
##ående	2837
hjärt	2838
ev	2839
kontakt	2840
fören	2841
herr	2842
idé	2843
undv	2844
##sv	2845
kombin	2846
public	2847
##iera	2848
indu	2849
##ärt	2850
skicka	2851
spar	2852
komple	2853
##ännande	2854
kallas	2855
lycka	2856
landet	2857
enlighet	2858
##växt	2859
ca	2860
medel	2861
papp	2862
sök	2863
exper	2864
resa	2865
##efon	2866
insta	2867
##illa	2868
historia	2869
kontroll	2870
mic	2871
##igheten	2872
ve	2873
##staur	2874
vetenskap	2875
lämna	2876
uppn	2877
utanför	2878
snart	2879
känsl	2880
ovan	2881
produktion	2882
##enhet	2883
villkor	2884
vers	2885
inb	2886
##ernas	2887
författ	2888
kur	2889
ål	2890
##fte	2891
kräver	2892
isra	2893
##gre	2894
##ckt	2895
extra	2896
##samma	2897
fe	2898
##unn	2899
##ite	2900
##rift	2901
vägen	2902
försöker	2903
arbeta	2904
teknik	2905
upplev	2906
##gn	2907
yo	2908
##drag	2909
##eringen	2910
##eringar	2911
utveckla	2912
amerikanska	2913
##cc	2914
##rån	2915
bäst	2916
##gift	2917
goog	2918
##rust	2919
spelare	2920
kommissionen	2921
her	2922
##vor	2923
##ender	2924
teck	2925
restaur	2926
utom	2927
dok	2928
tillräckligt	2929
tradition	2930
krävs	2931
kn	2932
medvet	2933
års	2934
##ton	2935
##ork	2936
vilja	2937
##komst	2938
lyss	2939
specif	2940
respekt	2941
aktivitet	2942
##emang	2943
ville	2944
##ummer	2945
heller	2946
##lad	2947
gratis	2948
##lament	2949
konkur	2950
design	2951
pri	2952
företaget	2953
marknaden	2954
ålder	2955
innov	2956
områden	2957
##punkt	2958
##ivet	2959
öppna	2960
port	2961
event	2962
tänka	2963
äta	2964
##nam	2965
dec	2966
##ssystem	2967
##produ	2968
##terna	2969
##ält	2970
##ifrån	2971
frågan	2972
färg	2973
lyck	2974
tänker	2975
##ferens	2976
insp	2977
kväll	2978
lämp	2979
prakt	2980
följa	2981
##ore	2982
vanliga	2983
oper	2984
nor	2985
tan	2986
lad	2987
rättigheter	2988
##gra	2989
regel	2990
makt	2991
##ps	2992
##fl	2993
##ide	2994
uppdat	2995
medicin	2996
läkem	2997
användare	2998
meddel	2999
ag	3000
bit	3001
##age	3002
##åga	3003
rik	3004
ter	3005
##omm	3006
##band	3007
mamma	3008
sida	3009
##inci	3010
egent	3011
slutet	3012
##get	3013
produc	3014
redo	3015
dy	3016
posit	3017
abs	3018
no	3019
##ligheten	3020
inkluder	3021
mass	3022
peri	3023
leva	3024
älska	3025
dju	3026
åren	3027
##smedel	3028
!!	3029
terr	3030
##ue	3031
ford	3032
allvar	3033
##ester	3034
lägga	3035
fatt	3036
ram	3037
jorden	3038
fortsätter	3039
universitet	3040
begär	3041
skriva	3042
bib	3043
##kla	3044
##ubl	3045
pot	3046
##ting	3047
sek	3048
språk	3049
glad	3050
skriver	3051
fortsätta	3052
con	3053
##dagen	3054
ihåg	3055
dör	3056
ra	3057
##hålla	3058
hittar	3059
sän	3060
##igh	3061
##mera	3062
sagt	3063
kamp	3064
beroende	3065
##äs	3066
##ämt	3067
kam	3068
dela	3069
titta	3070
vecka	3071
tills	3072
föräld	3073
erbjud	3074
intress	3075
##fa	3076
stan	3077
##system	3078
anslut	3079
##uld	3080
##pres	3081
uppnå	3082
ba	3083
##öjd	3084
ban	3085
##val	3086
gär	3087
isl	3088
##stående	3089
gamm	3090
##okrat	3091
log	3092
tjänst	3093
morgon	3094
##öt	3095
området	3096
24	3097
län	3098
relig	3099
dist	3100
svenska	3101
jan	3102
fisk	3103
##sid	3104
match	3105
njut	3106
verktyg	3107
social	3108
brott	3109
google	3110
försälj	3111
färd	3112
car	3113
säl	3114
exp	3115
kroppen	3116
##ey	3117
låter	3118
mu	3119
##eder	3120
månad	3121
president	3122
ph	3123
käns	3124
sju	3125
##iz	3126
##ald	3127
hälsa	3128
bakom	3129
##ött	3130
avslut	3131
nej	3132
autom	3133
eget	3134
övr	3135
ass	3136
##stri	3137
utl	3138
kommit	3139
kal	3140
stäng	3141
anp	3142
viktig	3143
erfarenhet	3144
bevis	3145
arbets	3146
deltag	3147
rapporter	3148
egentligen	3149
fol	3150
fo	3151
förstår	3152
##cy	3153
försv	3154
telefon	3155
mask	3156
##iter	3157
vux	3158
##iteten	3159
him	3160
opt	3161
oro	3162
psy	3163
##ko	3164
##so	3165
##ologi	3166
ekonomiska	3167
##len	3168
förber	3169
skyd	3170
behövs	3171
it	3172
engel	3173
gav	3174
##mare	3175
##mark	3176
##lingen	3177
väljer	3178
dokument	3179
misst	3180
förvänt	3181
hud	3182
##ips	3183
topp	3184
text	3185
klimat	3186
sann	3187
##ash	3188
tillstånd	3189
omk	3190
röst	3191
institut	3192
bygga	3193
##ionens	3194
slag	3195
typer	3196
tillväxt	3197
##seende	3198
198	3199
40	3200
##lys	3201
##iens	3202
kvinna	3203
nationella	3204
säkert	3205
gott	3206
sem	3207
##uss	3208
förf	3209
##ienter	3210
ändra	3211
##ate	3212
##arder	3213
##ancer	3214
##unda	3215
##rag	3216
rädd	3217
bill	3218
##ension	3219
##ubb	3220
##istiska	3221
följer	3222
goda	3223
äldre	3224
bal	3225
känns	3226
gol	3227
stå	3228
bry	3229
betala	3230
ko	3231
##mande	3232
##eller	3233
antalet	3234
läkemedel	3235
##lla	3236
förordning	3237
wh	3238
##cep	3239
studenter	3240
##efär	3241
speciellt	3242
lokala	3243
##tte	3244
stark	3245
utmär	3246
##organ	3247
bad	3248
tillverk	3249
kna	3250
personuppgifter	3251
##iti	3252
chans	3253
tom	3254
ham	3255
os	3256
##väl	3257
##reg	3258
##ific	3259
##stift	3260
krav	3261
kina	3262
##skra	3263
ungefär	3264
21	3265
##mun	3266
##bud	3267
enhet	3268
läkare	3269
##vår	3270
dro	3271
inspir	3272
vol	3273
rev	3274
våld	3275
##indra	3276
klart	3277
##bygg	3278
##läg	3279
potent	3280
##aga	3281
utgör	3282
ton	3283
detal	3284
tillgängliga	3285
##stans	3286
##larna	3287
gått	3288
betyd	3289
berätta	3290
ifr	3291
veckor	3292
stol	3293
polis	3294
finnas	3295
ske	3296
uppmär	3297
##ana	3298
skär	3299
##kvens	3300
boken	3301
##terar	3302
räk	3303
##ollar	3304
bro	3305
##atar	3306
##erades	3307
cirka	3308
casin	3309
##of	3310
##uell	3311
liknande	3312
framtiden	3313
veckan	3314
##ansch	3315
repres	3316
individ	3317
hum	3318
pe	3319
##ynd	3320
##stid	3321
princi	3322
omkring	3323
##bund	3324
##we	3325
syft	3326
bred	3327
admin	3328
bank	3329
marknadsför	3330
##bol	3331
skapar	3332
##klart	3333
israel	3334
närheten	3335
regl	3336
##äkring	3337
##book	3338
##kort	3339
luft	3340
liksom	3341
park	3342
tio	3343
domstol	3344
känd	3345
platser	3346
##anger	3347
plac	3348
tysk	3349
viss	3350
presenter	3351
john	3352
avgör	3353
service	3354
##ställning	3355
högsta	3356
ho	3357
##områ	3358
kring	3359
tje	3360
överför	3361
##sområ	3362
grän	3363
gro	3364
mod	3365
##veck	3366
##enting	3367
exakt	3368
kred	3369
stra	3370
förra	3371
sluta	3372
föräldrar	3373
accep	3374
##läggande	3375
frukt	3376
skydda	3377
va	3378
##bel	3379
##lös	3380
##dde	3381
##ttform	3382
ring	3383
##kat	3384
##igheterna	3385
prest	3386
viktigaste	3387
let	3388
##står	3389
dator	3390
säkerställa	3391
ingenting	3392
igenom	3393
kapital	3394
hantera	3395
##ativt	3396
bär	3397
gammal	3398
face	3399
sim	3400
jun	3401
pal	3402
strä	3403
##yt	3404
hållbar	3405
##part	3406
##ttag	3407
grundläggande	3408
försöka	3409
profession	3410
böcker	3411
jud	3412
##äker	3413
##20	3414
fördelar	3415
##riär	3416
kem	3417
ifrån	3418
bon	3419
kin	3420
##bör	3421
fört	3422
syfte	3423
aktiv	3424
politiska	3425
wind	3426
##företag	3427
max	3428
kommunikation	3429
##arnas	3430
välj	3431
##erande	3432
konf	3433
##lo	3434
ark	3435
##skatt	3436
ensam	3437
medborg	3438
människa	3439
2018	3440
offic	3441
##ions	3442
sådant	3443
sov	3444
delen	3445
påverkar	3446
dis	3447
upple	3448
programmet	3449
##ckte	3450
team	3451
sättet	3452
område	3453
tillver	3454
##vändigt	3455
dags	3456
milit	3457
##teck	3458
vir	3459
##ogen	3460
##rip	3461
prata	3462
barnen	3463
##ows	3464
lokal	3465
skillnad	3466
mänskliga	3467
jur	3468
lön	3469
mots	3470
##sch	3471
uppen	3472
##itter	3473
skolan	3474
samarbete	3475
blogg	3476
standard	3477
ej	3478
##olit	3479
skön	3480
psyk	3481
dollar	3482
fjär	3483
##ish	3484
##sak	3485
säson	3486
dan	3487
komment	3488
##önster	3489
##otter	3490
##grupp	3491
nödvänd	3492
##nytt	3493
undersök	3494
##ören	3495
##ktor	3496
förändring	3497
nr	3498
##ment	3499
##lands	3500
ljud	3501
utveckl	3502
flytt	3503
försök	3504
behöva	3505
nödvändigt	3506
kron	3507
##ierna	3508
##ations	3509
##plan	3510
vinna	3511
hjärta	3512
söker	3513
##färd	3514
halv	3515
##uellt	3516
regler	3517
##värd	3518
##järn	3519
##holm	3520
jap	3521
bestämm	3522
patienter	3523
super	3524
tagit	3525
##anda	3526
visste	3527
##amm	3528
imp	3529
engag	3530
undvika	3531
samband	3532
2015	3533
##handling	3534
197	3535
chef	3536
##verkan	3537
tit	3538
låta	3539
bolag	3540
leverant	3541
##aler	3542
spelet	3543
systemet	3544
skyld	3545
era	3546
ital	3547
kul	3548
##ämpa	3549
verksam	3550
krit	3551
sätta	3552
intresse	3553
lån	3554
förutom	3555
favor	3556
leder	3557
##efter	3558
resur	3559
leda	3560
stock	3561
gärna	3562
##jen	3563
filmen	3564
studier	3565
fas	3566
frank	3567
##emål	3568
##visa	3569
består	3570
säll	3571
##ve	3572
uttr	3573
##vin	3574
##ong	3575
upprätt	3576
2016	3577
##qu	3578
tillhör	3579
neg	3580
omedel	3581
2017	3582
häst	3583
sal	3584
##rym	3585
sker	3586
bekv	3587
##...	3588
strateg	3589
##erare	3590
enskil	3591
reser	3592
....	3593
erbjuda	3594
skick	3595
höga	3596
rapport	3597
##enn	3598
##ement	3599
utrust	3600
##istan	3601
kredit	3602
ii	3603
##én	3604
närvarande	3605
konto	3606
bost	3607
satt	3608
täv	3609
berör	3610
uppfyll	3611
vackra	3612
engelska	3613
but	3614
natt	3615
##kes	3616
unga	3617
konkurr	3618
##delser	3619
60	3620
##ah	3621
fre	3622
demokrat	3623
namnet	3624
ryss	3625
##end	3626
##inne	3627
##umär	3628
stället	3629
anges	3630
##skol	3631
ansikt	3632
tas	3633
privat	3634
favorit	3635
relev	3636
juni	3637
rä	3638
nuvarande	3639
förekom	3640
as	3641
brö	3642
ihop	3643
od	3644
sub	3645
##rän	3646
stopp	3647
mängd	3648
.)	3649
nätverk	3650
absolut	3651
aut	3652
lov	3653
prote	3654
december	3655
bre	3656
nedan	3657
##ng	3658
utform	3659
studie	3660
kontrollera	3661
kommentar	3662
kill	3663
skäl	3664
funktioner	3665
möjligheter	3666
samhället	3667
windows	3668
livsmedel	3669
intresser	3670
facebook	3671
##ners	3672
##ndag	3673
##utveck	3674
mars	3675
fastställ	3676
obser	3677
drabb	3678
anställda	3679
industri	3680
ersätt	3681
2014	3682
bedöm	3683
yr	3684
vit	3685
medlemmar	3686
##olution	3687
##räd	3688
bekrä	3689
regeringen	3690
##egi	3691
##po	3692
##fik	3693
##skott	3694
##lunda	3695
##ologiska	3696
organisation	3697
22	3698
2013	3699
ide	3700
tus	3701
##ial	3702
enkla	3703
##edd	3704
##agn	3705
vitt	3706
varumär	3707
antingen	3708
webbplatsen	3709
framgångs	3710
##her	3711
karakt	3712
##lit	3713
##ärer	3714
##ppar	3715
juli	3716
##itann	3717
dagens	3718
storbr	3719
höra	3720
käll	3721
nov	3722
ras	3723
##bord	3724
underhåll	3725
högt	3726
lösningar	3727
fordon	3728
##ekan	3729
##likt	3730
utvecklingen	3731
##enten	3732
vanligtvis	3733
medlemsstaterna	3734
förvär	3735
dubb	3736
analys	3737
vak	3738
##rid	3739
sta	3740
##allt	3741
kri	3742
vare	3743
##sav	3744
##ffa	3745
jul	3746
##ds	3747
##fil	3748
ständ	3749
196	3750
##he	3751
##rib	3752
behör	3753
forskare	3754
stockholm	3755
storbritann	3756
tol	3757
##iell	3758
##boll	3759
studer	3760
arbetet	3761
##trem	3762
direktiv	3763
##tes	3764
vatt	3765
sport	3766
motiv	3767
ledande	3768
önskar	3769
dav	3770
##ban	3771
##nda	3772
mal	3773
mid	3774
alls	3775
sep	3776
någonting	3777
administr	3778
beräk	3779
förslag	3780
##atiskt	3781
##tering	3782
grön	3783
fullt	3784
lilla	3785
##öka	3786
nyck	3787
tala	3788
tank	3789
wor	3790
##rad	3791
struktur	3792
utnytt	3793
huset	3794
##följ	3795
deb	3796
##betal	3797
##visning	3798
glas	3799
fullständ	3800
ed	3801
national	3802
befolk	3803
janu	3804
##skning	3805
##beroende	3806
lagstift	3807
karriär	3808
ökar	3809
##ffe	3810
blå	3811
af	3812
vart	3813
##förande	3814
##umenter	3815
personal	3816
familjen	3817
anpass	3818
septem	3819
bus	3820
flick	3821
##urg	3822
extrem	3823
tekniska	3824
förändringar	3825
föreg	3826
avsnitt	3827
central	3828
?”	3829
sälj	3830
september	3831
modern	3832
ret	3833
##rike	3834
?"	3835
lond	3836
tw	3837
##ham	3838
##stone	3839
menar	3840
ansök	3841
faktum	3842
##grund	3843
installer	3844
kre	3845
beror	3846
transport	3847
gemensam	3848
därmed	3849
civ	3850
##splats	3851
ok	3852
bilden	3853
förstör	3854
##åra	3855
ingår	3856
herren	3857
##ändska	3858
sma	3859
döda	3860
bol	3861
york	3862
##enta	3863
överva	3864
globala	3865
qu	3866
##igen	3867
energ	3868
video	3869
januari	3870
därefter	3871
visas	3872
personliga	3873
analy	3874
hom	3875
mik	3876
problemet	3877
kontakta	3878
ap	3879
##sd	3880
region	3881
poj	3882
inlägg	3883
arm	3884
talar	3885
##ikationer	3886
upph	3887
överens	3888
##ipp	3889
enheter	3890
objekt	3891
civil	3892
tips	3893
kärn	3894
gemenskap	3895
bla	3896
rym	3897
smart	3898
##öja	3899
job	3900
trodde	3901
rädda	3902
tillå	3903
värd	3904
##ix	3905
vänt	3906
##sprogram	3907
##isering	3908
web	3909
muse	3910
##öts	3911
tillåt	3912
bete	3913
övriga	3914
dest	3915
##liggör	3916
anser	3917
klicka	3918
tecken	3919
micro	3920
23	3921
vänta	3922
##bruk	3923
cancer	3924
otro	3925
kostnader	3926
lyssna	3927
jätt	3928
tä	3929
städer	3930
förhållande	3931
##let	3932
##ena	3933
kung	3934
vård	3935
säkra	3936
##sida	3937
ytt	3938
##bas	3939
ena	3940
##emot	3941
skilj	3942
##skon	3943
regelbund	3944
sannol	3945
mol	3946
mång	3947
eta	3948
##ober	3949
00	3950
lägg	3951
##oc	3952
vars	3953
undant	3954
mak	3955
behöv	3956
##parlament	3957
##ho	3958
skrev	3959
char	3960
##program	3961
finansier	3962
gemensamma	3963
##ach	3964
##ex	3965
##rande	3966
skada	3967
rep	3968
kontor	3969
okt	3970
elektron	3971
resultatet	3972
anledning	3973
intell	3974
2010	3975
konse	3976
##klag	3977
anses	3978
målet	3979
priset	3980
##ure	3981
chr	3982
fyll	3983
don	3984
oför	3985
##vik	3986
prem	3987
delta	3988
europaparlament	3989
naturligtvis	3990
partner	3991
ep	3992
främst	3993
prov	3994
genomsnitt	3995
ungdom	3996
häm	3997
sw	3998
##enden	3999
##organis	4000
fördel	4001
uppskatt	4002
fortsatt	4003
process	4004
trädgår	4005
njuta	4006
##etens	4007
##ärder	4008
gläd	4009
london	4010
avsl	4011
arg	4012
lösning	4013
öppen	4014
##talet	4015
påverka	4016
kateg	4017
budget	4018
david	4019
##orlunda	4020
##use	4021
utvärder	4022
metoder	4023
air	4024
mä	4025
##pan	4026
motor	4027
britt	4028
åtmin	4029
amb	4030
visade	4031
vanligt	4032
förmåga	4033
utfor	4034
aust	4035
##aktion	4036
##bok	4037
tyvär	4038
##ligheter	4039
2012	4040
träning	4041
åtminstone	4042
500	4043
##kost	4044
##za	4045
##ilt	4046
##strin	4047
berättar	4048
tillgänglig	4049
sla	4050
kända	4051
lägger	4052
plattform	4053
populära	4054
folket	4055
ga	4056
##enskaper	4057
godkän	4058
elever	4059
storbritannien	4060
dans	4061
finland	4062
förvalt	4063
tyvärr	4064
ins	4065
spår	4066
hjärn	4067
##sproc	4068
##satta	4069
slå	4070
synd	4071
lämnar	4072
kolla	4073
avses	4074
oktober	4075
##ycka	4076
spännande	4077
brist	4078
miljarder	4079
tyskland	4080
trum	4081
förmod	4082
författare	4083
27	4084
##iver	4085
rec	4086
uttal	4087
apr	4088
cook	4089
fång	4090
äter	4091
##blick	4092
##aterade	4093
sten	4094
effektiv	4095
godk	4096
flygplats	4097
korrekt	4098
kostnad	4099
önsk	4100
väst	4101
digit	4102
##räff	4103
försvar	4104
samtliga	4105
fantastiska	4106
häng	4107
varm	4108
kval	4109
lista	4110
stress	4111
försäljning	4112
##gera	4113
mottag	4114
kände	4115
fäng	4116
##ama	4117
##amål	4118
##ifiera	4119
:)	4120
inre	4121
lagen	4122
resten	4123
övert	4124
##pac	4125
##rument	4126
modell	4127
vap	4128
##ress	4129
offentliga	4130
detalj	4131
visst	4132
finansiella	4133
ryssland	4134
mult	4135
##vida	4136
##öp	4137
##atiska	4138
inled	4139
mening	4140
effektivt	4141
fn	4142
km	4143
publ	4144
##still	4145
##kast	4146
stö	4147
stre	4148
##amen	4149
##spekt	4150
ordet	4151
annorlunda	4152
knapp	4153
col	4154
fart	4155
tidigt	4156
sälja	4157
ak	4158
ot	4159
åka	4160
stil	4161
bransch	4162
regering	4163
##istik	4164
havet	4165
##peratur	4166
musk	4167
28	4168
katt	4169
##xa	4170
föred	4171
##edda	4172
projektet	4173
scen	4174
##jan	4175
##ics	4176
2011	4177
kläder	4178
kyrkan	4179
oberoende	4180
söm	4181
nyligen	4182
lösa	4183
26	4184
ill	4185
jack	4186
ru	4187
##ona	4188
##ätta	4189
lägre	4190
gravid	4191
can	4192
lans	4193
##amin	4194
stjärn	4195
sanningen	4196
bygger	4197
enbart	4198
##verket	4199
uppfatt	4200
digital	4201
användar	4202
omfattande	4203
inkluderar	4204
##ich	4205
36	4206
ip	4207
##när	4208
##fe	4209
real	4210
##aket	4211
särskilda	4212
university	4213
islam	4214
##bolag	4215
##jänster	4216
exempelvis	4217
##mon	4218
##ran	4219
insats	4220
sitter	4221
tänkte	4222
infl	4223
uppdrag	4224
jämfört	4225
levande	4226
##skydd	4227
alko	4228
##givare	4229
bidra	4230
##fulla	4231
aktiviteter	4232
april	4233
fest	4234
stär	4235
fungera	4236
##iellt	4237
attack	4238
moderna	4239
dotter	4240
##50	4241
ledare	4242
tankar	4243
utmärkt	4244
casino	4245
out	4246
##iot	4247
##pla	4248
##kap	4249
spender	4250
##icy	4251
global	4252
period	4253
batt	4254
##sson	4255
mannen	4256
missl	4257
##imer	4258
##inder	4259
##samt	4260
bekväm	4261
guld	4262
##iel	4263
##aner	4264
vita	4265
##urna	4266
välkom	4267
internationell	4268
webbplatser	4269
fotograf	4270
sat	4271
##yp	4272
heter	4273
mån	4274
##öna	4275
hård	4276
besöka	4277
##les	4278
##bum	4279
##struktur	4280
separ	4281
poäng	4282
bekräft	4283
##rör	4284
server	4285
gräns	4286
grad	4287
##gående	4288
nummer	4289
anm	4290
barnet	4291
##orier	4292
skra	4293
beakt	4294
politik	4295
restauranger	4296
stabil	4297
undantag	4298
alkohol	4299
au	4300
##tet	4301
##rel	4302
syd	4303
organisationer	4304
pati	4305
allmänna	4306
höll	4307
snabbare	4308
betydelse	4309
definit	4310
cert	4311
ek	4312
hit	4313
behåll	4314
självklart	4315
risken	4316
##grepp	4317
maskin	4318
##ypt	4319
##esser	4320
däremot	4321
##centr	4322
november	4323
exist	4324
djup	4325
övertyg	4326
matt	4327
##ärn	4328
fotboll	4329
ämnen	4330
långa	4331
2019	4332
##orge	4333
lärare	4334
special	4335
spara	4336
känslor	4337
intressant	4338
##ställningar	4339
pappa	4340
jobbet	4341
sing	4342
##bes	4343
##cel	4344
identifier	4345
känsla	4346
##vård	4347
kines	4348
##endet	4349
stäm	4350
##berg	4351
kommande	4352
verkliga	4353
vuxna	4354
balans	4355
pers	4356
våg	4357
brukar	4358
omedelbart	4359
förest	4360
##ismen	4361
valut	4362
oftast	4363
position	4364
förmodligen	4365
sant	4366
vinn	4367
##inst	4368
##ills	4369
##ica	4370
##dels	4371
motstånd	4372
produkten	4373
##lex	4374
##slös	4375
2009	4376
musli	4377
sur	4378
vänster	4379
nämligen	4380
70	4381
##kr	4382
avseende	4383
tryck	4384
2008	4385
solen	4386
centrum	4387
bidrag	4388
##phone	4389
kön	4390
utrym	4391
klubb	4392
framtida	4393
marknadsföring	4394
lic	4395
##erats	4396
återvän	4397
etabl	4398
je	4399
##mål	4400
##ca	4401
##rala	4402
80	4403
bilen	4404
rätts	4405
##lat	4406
##hav	4407
##gj	4408
föremål	4409
##tryck	4410
utvecklas	4411
##frågan	4412
frihet	4413
förhindra	4414
uttryck	4415
natten	4416
ent	4417
press	4418
borta	4419
karaktär	4420
31	4421
net	4422
##kande	4423
##kret	4424
##erier	4425
##ygga	4426
ges	4427
visat	4428
köper	4429
antag	4430
avanc	4431
##ningsm	4432
tving	4433
##änderna	4434
svart	4435
fallet	4436
sjun	4437
hjärtat	4438
mun	4439
snar	4440
##sel	4441
##ith	4442
uppman	4443
block	4444
reda	4445
litet	4446
tu	4447
skatt	4448
ställa	4449
söka	4450
sång	4451
görs	4452
baserat	4453
passar	4454
cl	4455
pan	4456
manag	4457
elektr	4458
göras	4459
flytta	4460
frankrike	4461
dos	4462
##tion	4463
##kten	4464
befin	4465
personen	4466
flex	4467
totalt	4468
##anen	4469
tab	4470
##bert	4471
ständigt	4472
dit	4473
möjliga	4474
##uro	4475
människan	4476
historien	4477
växer	4478
säkerhets	4479
investering	4480
starkt	4481
.[	4482
frågade	4483
öst	4484
närmare	4485
växa	4486
stanna	4487
na	4488
sidor	4489
90	4490
dog	4491
underl	4492
annars	4493
smär	4494
väntar	4495
ändamål	4496
##arbete	4497
dri	4498
##ood	4499
närma	4500
filmer	4501
meter	4502
huvudsak	4503
skå	4504
distrib	4505
##soft	4506
häv	4507
ku	4508
sommar	4509
medier	4510
konvent	4511
trygg	4512
leg	4513
datum	4514
processen	4515
rekommenderar	4516
##sidan	4517
båt	4518
##inal	4519
uppgift	4520
miljon	4521
##pris	4522
siff	4523
##använd	4524
försäkring	4525
idéer	4526
eventuella	4527
gäll	4528
bev	4529
klin	4530
mac	4531
ökad	4532
fad	4533
funder	4534
##lt	4535
##stru	4536
planet	4537
hört	4538
##troll	4539
##kul	4540
##han	4541
##andid	4542
läser	4543
##jänst	4544
trev	4545
naturliga	4546
##rali	4547
hände	4548
saknar	4549
lättare	4550
massa	4551
sven	4552
infekt	4553
föregående	4554
sil	4555
##ocka	4556
initi	4557
berg	4558
föresl	4559
jurid	4560
##sdag	4561
aug	4562
framåt	4563
personlig	4564
känt	4565
kallar	4566
##edag	4567
gett	4568
förhand	4569
omöj	4570
##ild	4571
utsikt	4572
##sättningar	4573
undrar	4574
observer	4575
##maren	4576
##delning	4577
änt	4578
träffa	4579
komplett	4580
sty	4581
##leken	4582
rek	4583
betrakt	4584
kontin	4585
börjat	4586
starka	4587
licens	4588
span	4589
köra	4590
äntligen	4591
fu	4592
kommers	4593
plöts	4594
beröm	4595
tjäna	4596
lugn	4597
normalt	4598
version	4599
uppre	4600
kompetens	4601
interv	4602
betydande	4603
##öter	4604
stod	4605
##ada	4606
##press	4607
omfattar	4608
##kad	4609
kristna	4610
##stäm	4611
paul	4612
tydligt	4613
rut	4614
förd	4615
växt	4616
behandla	4617
##ox	4618
##skomm	4619
dåligt	4620
svara	4621
innovation	4622
microsoft	4623
vapen	4624
kop	4625
##nt	4626
##iden	4627
promen	4628
bilar	4629
##skraft	4630
fjärde	4631
black	4632
band	4633
##ror	4634
##ction	4635
mikro	4636
äkt	4637
##karen	4638
drag	4639
hända	4640
specifika	4641
bostad	4642
ses	4643
anlägg	4644
sätter	4645
partners	4646
flykt	4647
yrkes	4648
center	4649
äger	4650
##igur	4651
skog	4652
recept	4653
konc	4654
egenskaper	4655
##otten	4656
australi	4657
##lare	4658
apple	4659
myndigheter	4660
terror	4661
akade	4662
##sc	4663
rob	4664
symbol	4665
digitala	4666
smärta	4667
da	4668
tåg	4669
##sled	4670
resurser	4671
dej	4672
##liote	4673
##ump	4674
tyst	4675
##kont	4676
såväl	4677
unika	4678
194	4679
stödja	4680
jobba	4681
privata	4682
##jar	4683
roligt	4684
trafik	4685
historiska	4686
##unnit	4687
igår	4688
kallade	4689
bakgrund	4690
35	4691
eli	4692
##delsen	4693
serien	4694
##klam	4695
fantastisk	4696
world	4697
anmäl	4698
järn	4699
supp	4700
åtta	4701
paris	4702
svarade	4703
hänsyn	4704
international	4705
op	4706
##säg	4707
##entals	4708
värder	4709
storlek	4710
##asser	4711
sjukhus	4712
##sut	4713
kalla	4714
##frika	4715
bonus	4716
ävent	4717
##vill	4718
media	4719
##vers	4720
uts	4721
##imal	4722
##råd	4723
intro	4724
kaffe	4725
utföra	4726
grupper	4727
avstånd	4728
##terade	4729
##unch	4730
diagn	4731
##arbetare	4732
##elserna	4733
pratar	4734
ögonblick	4735
##brott	4736
##rika	4737
dålig	4738
rätten	4739
möte	4740
bidrar	4741
temperatur	4742
arkite	4743
medborgare	4744
bord	4745
##ms	4746
varor	4747
##klare	4748
hälften	4749
kampan	4750
fåg	4751
##zon	4752
lek	4753
##gress	4754
lägenhet	4755
febru	4756
##ea	4757
hittade	4758
ekonomi	4759
främja	4760
syftet	4761
uppleva	4762
bön	4763
##äster	4764
försikt	4765
parlament	4766
konstru	4767
##ias	4768
förny	4769
välkommen	4770
läst	4771
album	4772
vinst	4773
staten	4774
älskade	4775
sand	4776
##aktioner	4777
##jöl	4778
##oritet	4779
##istisk	4780
ryska	4781
##pektiv	4782
vattnet	4783
grå	4784
gäst	4785
will	4786
##fta	4787
##iger	4788
live	4789
##skapet	4790
straff	4791
uppenbar	4792
äktenskap	4793
förtro	4794
omständ	4795
utsl	4796
gruppen	4797
turk	4798
ec	4799
fett	4800
##tande	4801
##ode	4802
##på	4803
##ya	4804
##ink	4805
kunnat	4806
förstås	4807
genomföra	4808
förlora	4809
strategi	4810
you	4811
italien	4812
tanke	4813
august	4814
##ungen	4815
hej	4816
möjligheten	4817
allmänhet	4818
upptäcka	4819
nödvändiga	4820
pension	4821
inc	4822
##skrig	4823
##steg	4824
##iment	4825
##värt	4826
förändra	4827
##teras	4828
nytta	4829
erkän	4830
relation	4831
semester	4832
tillåter	4833
februari	4834
coll	4835
starta	4836
utrustning	4837
befint	4838
##rats	4839
##vand	4840
omgiv	4841
##skriv	4842
värt	4843
representer	4844
samtal	4845
trött	4846
lagar	4847
miljön	4848
leverans	4849
hårt	4850
avgörande	4851
nöjd	4852
##gas	4853
##list	4854
värme	4855
rätta	4856
journa	4857
förståelse	4858
rådets	4859
buss	4860
pet	4861
##ht	4862
##omb	4863
##ita	4864
franska	4865
##ikat	4866
informationen	4867
##äkerhet	4868
sömn	4869
mät	4870
skr	4871
allra	4872
överallt	4873
situation	4874
överväg	4875
erk	4876
användningen	4877
serie	4878
långsikt	4879
totala	4880
fysiska	4881
tillhandahålla	4882
uppmärksam	4883
enskilda	4884
29	4885
gas	4886
grä	4887
ment	4888
##isen	4889
##ower	4890
noggr	4891
samhälle	4892
##ence	4893
stund	4894
dricka	4895
kunden	4896
sjukdomar	4897
ursprungliga	4898
##ssel	4899
handling	4900
##gången	4901
ställe	4902
lyckas	4903
kandid	4904
ink	4905
nyhet	4906
kött	4907
sci	4908
tum	4909
##garna	4910
skapat	4911
##utveckling	4912
bolaget	4913
konsekvens	4914
##llop	4915
förhållanden	4916
lab	4917
##gande	4918
##stat	4919
##ulär	4920
sist	4921
åsikt	4922
##th	4923
utred	4924
följd	4925
forsknings	4926
automatiskt	4927
##sky	4928
konferens	4929
bilje	4930
infor	4931
intens	4932
gat	4933
sort	4934
##ämpar	4935
hall	4936
hemsida	4937
ekonomisk	4938
instrument	4939
dyr	4940
##pas	4941
##ora	4942
##ssätt	4943
prova	4944
##venemang	4945
aktie	4946
ordförande	4947
introdu	4948
dia	4949
fält	4950
##elt	4951
vardag	4952
##varo	4953
emeller	4954
röda	4955
jobbar	4956
emellertid	4957
!”	4958
jon	4959
##indu	4960
##deles	4961
besökare	4962
akadem	4963
lju	4964
rent	4965
##hu	4966
##eda	4967
naturen	4968
metod	4969
behöriga	4970
beteende	4971
cit	4972
##person	4973
##onser	4974
tillägg	4975
spring	4976
plus	4977
##own	4978
ström	4979
befinner	4980
skillnaden	4981
##oga	4982
unionen	4983
##knik	4984
platsen	4985
tittar	4986
konkurrens	4987
300	4988
sats	4989
##wa	4990
äng	4991
##speri	4992
brand	4993
##ocker	4994
stolt	4995
bröllop	4996
snarare	4997
rän	4998
##bef	4999
##öte	5000
order	5001
grunden	5002
##naderna	5003
konstnär	5004
vacker	5005
cookies	5006
##skaper	5007
orig	5008
klock	5009
##sträng	5010
möta	5011
trump	5012
ara	5013
aspekt	5014
paket	5015
##ance	5016
överra	5017
2000	5018
relationer	5019
kompon	5020
obe	5021
garanter	5022
massor	5023
plötsligt	5024
fal	5025
##isera	5026
nätet	5027
ke	5028
##tan	5029
minskar	5030
koncentr	5031
hänt	5032
present	5033
höj	5034
##stag	5035
inl	5036
##ley	5037
2020	5038
##ställd	5039
frågar	5040
tillhandahåll	5041
princip	5042
bur	5043
##fun	5044
##rummet	5045
hälsos	5046
fir	5047
##pat	5048
alldeles	5049
svåra	5050
identifiera	5051
uppmärksamhet	5052
säsong	5053
veg	5054
##mos	5055
förfar	5056
dum	5057
##verant	5058
alltför	5059
svag	5060
handlingar	5061
artikeln	5062
##kraft	5063
sprid	5064
ansökan	5065
!"	5066
sån	5067
ref	5068
signa	5069
##ierar	5070
läge	5071
kapit	5072
intresserad	5073
intervju	5074
city	5075
##iness	5076
##agen	5077
stats	5078
utö	5079
##ycke	5080
hittills	5081
konsumenter	5082
##hund	5083
##ivån	5084
tyska	5085
centrala	5086
##pacitet	5087
##ec	5088
skrift	5089
##ktionen	5090
##...]	5091
vore	5092
##yss	5093
##iserade	5094
reklam	5095
tids	5096
klag	5097
funn	5098
kvällen	5099
misstän	5100
regelbundet	5101
last	5102
##eds	5103
2007	5104
ång	5105
##kningar	5106
##yller	5107
konser	5108
traditionella	5109
polisen	5110
[...]	5111
mart	5112
##dela	5113
årets	5114
former	5115
##astro	5116
öppet	5117
neder	5118
hälso	5119
nivåer	5120
avslöj	5121
gif	5122
mjuk	5123
utöver	5124
valet	5125
risker	5126
##ctor	5127
ladda	5128
represent	5129
fartyg	5130
hol	5131
##ppa	5132
##pper	5133
utby	5134
##ierade	5135
gjor	5136
faktorer	5137
döden	5138
profil	5139
köpte	5140
install	5141
behövde	5142
intellig	5143
drift	5144
eld	5145
##hem	5146
##äls	5147
priser	5148
glädje	5149
samla	5150
##rikes	5151
palest	5152
sannolikt	5153
öster	5154
##ara	5155
angel	5156
investeringar	5157
##arskap	5158
##inska	5159
tjänsten	5160
effekter	5161
effektiva	5162
orsak	5163
perfekta	5164
situationen	5165
##jör	5166
##ög	5167
uppe	5168
##ningsvis	5169
##minister	5170
händelser	5171
tjej	5172
relevanta	5173
gällande	5174
kil	5175
rock	5176
##ira	5177
##xid	5178
##despel	5179
vari	5180
omd	5181
tex	5182
berörda	5183
??	5184
gym	5185
igång	5186
jam	5187
##sök	5188
##uth	5189
fina	5190
resultaten	5191
upptäckt	5192
##ight	5193
letar	5194
vd	5195
##läs	5196
tidpunkt	5197
förklara	5198
japan	5199
otroligt	5200
kasin	5201
nån	5202
rim	5203
##uc	5204
slutligen	5205
2006	5206
behandlingen	5207
drog	5208
gift	5209
##polit	5210
##ward	5211
##ödra	5212
##draget	5213
belopp	5214
orsaka	5215
hundar	5216
tillämpas	5217
modeller	5218
business	5219
cor	5220
arr	5221
##åtgär	5222
urs	5223
famil	5224
turn	5225
bibliote	5226
misstag	5227
up	5228
##kopp	5229
##liv	5230
##oren	5231
##kall	5232
##saker	5233
någonstans	5234
2004	5235
definitivt	5236
iphone	5237
valt	5238
##mel	5239
skjut	5240
hast	5241
höger	5242
datab	5243
främsta	5244
kombination	5245
##skad	5246
##rifter	5247
förbli	5248
studien	5249
##meddel	5250
uppfyller	5251
back	5252
sommaren	5253
begrepp	5254
överlev	5255
smärt	5256
äventyr	5257
gal	5258
##nivå	5259
ansträng	5260
##ney	5261
besk	5262
dating	5263
familjer	5264
begäran	5265
augusti	5266
bab	5267
##föra	5268
självständ	5269
utrymme	5270
##iam	5271
##näm	5272
utifrån	5273
##sex	5274
filer	5275
sjö	5276
religi	5277
förtjän	5278
officiella	5279
##por	5280
arbetsm	5281
klara	5282
kriget	5283
rådet	5284
himlen	5285
utforska	5286
45	5287
listan	5288
tand	5289
##eb	5290
strå	5291
värdet	5292
behandlas	5293
intressen	5294
kollekt	5295
upplevelse	5296
spanien	5297
##marna	5298
##medel	5299
fria	5300
skor	5301
##annar	5302
shopp	5303
beläg	5304
##slaget	5305
sägs	5306
egypt	5307
idrott	5308
söndag	5309
internationellt	5310
föddes	5311
verksamheten	5312
brittiska	5313
initiativ	5314
drar	5315
evenemang	5316
avläg	5317
minns	5318
master	5319
parker	5320
kamer	5321
europaparlamentet	5322
perspektiv	5323
promenad	5324
skul	5325
193	5326
dial	5327
etc	5328
bitco	5329
militär	5330
bestämmelser	5331
dam	5332
##rastruktur	5333
##föränd	5334
verkligheten	5335
lägen	5336
play	5337
arkitekt	5338
##gick	5339
kristus	5340
camp	5341
förel	5342
##atisk	5343
utst	5344
överl	5345
appl	5346
ägg	5347
nyckel	5348
mera	5349
##vo	5350
##vikt	5351
uppstår	5352
resul	5353
senast	5354
sitta	5355
lärt	5356
svaret	5357
förläng	5358
bestämma	5359
lunch	5360
##handel	5361
##edom	5362
##skan	5363
datorn	5364
hotel	5365
tusentals	5366
mekan	5367
nat	5368
##tas	5369
##au	5370
##arens	5371
förrän	5372
seg	5373
konsument	5374
omfattas	5375
situationer	5376
meddelande	5377
skådespel	5378
##ktorn	5379
svarta	5380
strid	5381
öppnar	5382
rörelse	5383
total	5384
brev	5385
kos	5386
tru	5387
##dex	5388
##ander	5389
195	5390
impl	5391
förmåg	5392
olyck	5393
rök	5394
tun	5395
längs	5396
invån	5397
frukost	5398
uppfylla	5399
twitter	5400
behålla	5401
hyr	5402
mjöl	5403
sent	5404
##bis	5405
##vist	5406
##ställer	5407
skador	5408
##produkter	5409
färdigheter	5410
svensk	5411
diabet	5412
fan	5413
##lösa	5414
##go	5415
##burg	5416
##etiska	5417
föret	5418
tillb	5419
##uren	5420
nyheter	5421
##imul	5422
##antering	5423
sammanh	5424
avtalet	5425
island	5426
slags	5427
fing	5428
holl	5429
##örj	5430
##ledes	5431
unik	5432
väder	5433
appar	5434
allmänt	5435
lagstiftning	5436
one	5437
##gat	5438
##bi	5439
##issa	5440
möjliggör	5441
inträff	5442
gemensamt	5443
bevilj	5444
nöj	5445
prot	5446
dåliga	5447
väs	5448
instru	5449
givet	5450
hamn	5451
oke	5452
##vel	5453
##arr	5454
andro	5455
prat	5456
förbjud	5457
uttry	5458
group	5459
dim	5460
sår	5461
##).	5462
ingr	5463
finna	5464
filos	5465
pengarna	5466
england	5467
diskuss	5468
född	5469
expert	5470
##mot	5471
ande	5472
människorna	5473
företagets	5474
berättade	5475
amerikansk	5476
oh	5477
##jo	5478
##ägare	5479
aktiva	5480
riktiga	5481
huvudet	5482
förlorade	5483
utmaning	5484
respektive	5485
kontrakt	5486
försökte	5487
synner	5488
##ässiga	5489
herre	5490
ökat	5491
slutar	5492
2003	5493
naturligt	5494
skapade	5495
integritet	5496
mel	5497
##set	5498
##sla	5499
##lande	5500
##skor	5501
##uten	5502
språ	5503
exkl	5504
##ställningen	5505
2005	5506
sanning	5507
säljer	5508
christ	5509
bod	5510
hun	5511
pil	5512
ökade	5513
effektivitet	5514
landets	5515
utmaningar	5516
territ	5517
ps	5518
sikt	5519
##onom	5520
medarbetare	5521
allting	5522
brän	5523
kvinnan	5524
riktlin	5525
kräv	5526
syftar	5527
##iär	5528
##uer	5529
##pon	5530
##pack	5531
##iljö	5532
återupp	5533
händelse	5534
timme	5535
##sfull	5536
kommissionens	5537
##grader	5538
prestanda	5539
kommentarer	5540
kinesiska	5541
##porter	5542
utbud	5543
fakta	5544
adv	5545
##ologisk	5546
färger	5547
profet	5548
guide	5549
förhopp	5550
human	5551
republ	5552
okej	5553
fönster	5554
jer	5555
##oo	5556
##effekt	5557
##djur	5558
##dern	5559
##entligt	5560
bära	5561
mad	5562
##san	5563
omvand	5564
migr	5565
parter	5566
##pren	5567
förvand	5568
ögonen	5569
innehållet	5570
upphov	5571
lör	5572
##isten	5573
##visar	5574
##barn	5575
felakt	5576
##splan	5577
##försälj	5578
individer	5579
positiva	5580
extremt	5581
32	5582
lid	5583
pra	5584
södra	5585
avsikt	5586
expl	5587
finansiering	5588
hä	5589
väd	5590
##utbild	5591
reag	5592
huru	5593
ert	5594
##komm	5595
aktuella	5596
passag	5597
kommunic	5598
myndigheterna	5599
museum	5600
patient	5601
distribut	5602
support	5603
nav	5604
vägg	5605
##hi	5606
egendom	5607
profess	5608
sympt	5609
religion	5610
domstolen	5611
skratt	5612
omöjligt	5613
elem	5614
fli	5615
säng	5616
##zz	5617
##oth	5618
näring	5619
##rimin	5620
annonser	5621
högst	5622
##back	5623
adress	5624
byta	5625
##ripande	5626
leverantörer	5627
föra	5628
parad	5629
stranden	5630
nationell	5631
stoppa	5632
förtroende	5633
las	5634
##ometer	5635
##aten	5636
##isterna	5637
blom	5638
lämnade	5639
leverera	5640
orsakar	5641
betalar	5642
motsvar	5643
ansikte	5644
cam	5645
ven	5646
##driv	5647
ställer	5648
således	5649
heliga	5650
tider	5651
spelade	5652
ordning	5653
infly	5654
fantastiskt	5655
##åtgärder	5656
ax	5657
##over	5658
##ington	5659
koncept	5660
sign	5661
fabr	5662
verket	5663
bröst	5664
resan	5665
lager	5666
ändring	5667
2001	5668
poker	5669
byggnad	5670
nåd	5671
rull	5672
##tel	5673
##srätt	5674
##fart	5675
##ila	5676
användaren	5677
191	5678
general	5679
styrka	5680
symt	5681
arab	5682
##irekt	5683
##eta	5684
ändringar	5685
förlust	5686
förmån	5687
medveten	5688
##namn	5689
lämpliga	5690
överensstäm	5691
management	5692
##till	5693
demon	5694
slutsats	5695
relativt	5696
världs	5697
toppen	5698
##börj	5699
engagemang	5700
mångf	5701
befintliga	5702
fant	5703
tål	5704
##hop	5705
##way	5706
##inen	5707
upphör	5708
tidiga	5709
rese	5710
##jukdom	5711
skola	5712
gränser	5713
ingred	5714
##ise	5715
##ikanska	5716
repar	5717
unionens	5718
gröna	5719
väster	5720
aktivt	5721
mitten	5722
erfarenheter	5723
fysisk	5724
ramen	5725
##ool	5726
##styr	5727
tillför	5728
tillfr	5729
##ckar	5730
##ile	5731
##ots	5732
syri	5733
##ikal	5734
särskild	5735
betalning	5736
hotellet	5737
positiv	5738
##systemet	5739
professionella	5740
cell	5741
åld	5742
##ors	5743
andel	5744
##ansvar	5745
faller	5746
kunskaper	5747
testa	5748
regn	5749
tillfälle	5750
negativa	5751
alex	5752
nik	5753
sinn	5754
##repren	5755
##skär	5756
##bilitet	5757
vanlig	5758
tacksam	5759
experter	5760
hållbarhet	5761
ingrediens	5762
33	5763
bakt	5764
ira	5765
mas	5766
##iges	5767
svarar	5768
skrivit	5769
ont	5770
cykel	5771
ladd	5772
allvarliga	5773
databas	5774
synnerhet	5775
kart	5776
##änning	5777
varken	5778
processer	5779
artiklar	5780
universum	5781
identitet	5782
beskriver	5783
offentlig	5784
tanken	5785
upplever	5786
dvs	5787
källa	5788
##agram	5789
##orth	5790
##spart	5791
dagliga	5792
##sätter	5793
##eriet	5794
snö	5795
hörde	5796
baserad	5797
glada	5798
morgonen	5799
feder	5800
lat	5801
##liggande	5802
planerar	5803
huvudstad	5804
plast	5805
indien	5806
##ccin	5807
bio	5808
inkomst	5809
vist	5810
##ivill	5811
överle	5812
grundades	5813
##kväll	5814
förändras	5815
födels	5816
kurs	5817
hjärnan	5818
hed	5819
når	5820
taget	5821
##ngre	5822
inse	5823
påstå	5824
##skade	5825
teor	5826
utvecklar	5827
##pression	5828
##ioxid	5829
fokusera	5830
myndighet	5831
moral	5832
förvärv	5833
föredrar	5834
diabetes	5835
mäst	5836
vann	5837
wal	5838
inrätt	5839
bearbet	5840
##fören	5841
använt	5842
hav	5843
##ange	5844
##vetenskap	5845
##fullt	5846
##sområden	5847
skiljer	5848
observera	5849
400	5850
höjd	5851
mg	5852
sens	5853
##rapp	5854
##verksamhet	5855
använde	5856
blomm	5857
rekommend	5858
expon	5859
huden	5860
betydligt	5861
skönhet	5862
certifier	5863
åker	5864
##ycken	5865
verklighet	5866
förstär	5867
student	5868
pool	5869
växande	5870
rummet	5871
##skriget	5872
-,	5873
celler	5874
tilldel	5875
förlåt	5876
möter	5877
länderna	5878
befolkningen	5879
kab	5880
west	5881
##mi	5882
##mord	5883
enorm	5884
tänkt	5885
måltid	5886
mex	5887
restaurang	5888
leverantör	5889
cap	5890
mr	5891
frivill	5892
##bryt	5893
kallad	5894
##ström	5895
snabba	5896
orsaken	5897
versionen	5898
golf	5899
fj	5900
kod	5901
inrikt	5902
finner	5903
sova	5904
ändras	5905
format	5906
nerv	5907
##ugg	5908
ansvarig	5909
ange	5910
passion	5911
lösningen	5912
##sprocessen	5913
bem	5914
##rom	5915
sec	5916
flag	5917
dagarna	5918
tvätt	5919
##smål	5920
forum	5921
fastighet	5922
linje	5923
dynam	5924
australien	5925
##ås	5926
##ath	5927
värre	5928
värsta	5929
##chef	5930
framsteg	5931
vinter	5932
allmänheten	5933
##träd	5934
dörren	5935
himmel	5936
revolution	5937
##området	5938
hälsosam	5939
##mosfär	5940
##ii	5941
##hel	5942
##bor	5943
fritt	5944
måndag	5945
välsig	5946
tech	5947
svär	5948
köpt	5949
speciella	5950
invand	5951
infrastruktur	5952
grek	5953
besöker	5954
deltagare	5955
säsongen	5956
misslycka	5957
omständigheter	5958
bitcoin	5959
##jul	5960
samord	5961
affärs	5962
garant	5963
fien	5964
skil	5965
##skat	5966
##ansen	5967
revis	5968
bestämmer	5969
drömmar	5970
övrigt	5971
räkna	5972
##områden	5973
virt	5974
iväg	5975
##ford	5976
stimul	5977
uppm	5978
människors	5979
speciell	5980
förlorar	5981
vetenskapliga	5982
bibeln	5983
utsläpp	5984
närings	5985
##spol	5986
tvungen	5987
kommitt	5988
laget	5989
##världen	5990
budskap	5991
rengör	5992
föreskriv	5993
lämplig	5994
förväntas	5995
undersökning	5996
ideal	5997
vand	5998
avfall	5999
efterfrågan	6000
takt	6001
begränsad	6002
kyrk	6003
norr	6004
potentiella	6005
skickar	6006
sel	6007
##ura	6008
##itation	6009
tviv	6010
##ställande	6011
tjänar	6012
tillgångar	6013
atmosfär	6014
middag	6015
föreställ	6016
hål	6017
##jande	6018
speg	6019
##värde	6020
##snivå	6021
organisationen	6022
hundra	6023
tillhandahåller	6024
priori	6025
familje	6026
ökning	6027
##mor	6028
##fiken	6029
isol	6030
bryta	6031
motsvarande	6032
stärka	6033
##stra	6034
helg	6035
##bler	6036
försäk	6037
handla	6038
aktier	6039
vägled	6040
antar	6041
offer	6042
##olutionen	6043
producera	6044
länk	6045
huruvida	6046
sum	6047
tju	6048
åh	6049
##ortera	6050
ända	6051
kapacitet	6052
förlorat	6053
anledningen	6054
vanligaste	6055
fattig	6056
##grupper	6057
kronor	6058
sällan	6059
rapporten	6060
butik	6061
närmaste	6062
sammanhang	6063
##imera	6064
##risk	6065
##atch	6066
återh	6067
hittat	6068
##angel	6069
immun	6070
##räckning	6071
kriter	6072
stöder	6073
gäster	6074
ät	6075
##rarna	6076
##lats	6077
avser	6078
minsta	6079
ledde	6080
jordbru	6081
fängelse	6082
james	6083
##xis	6084
förk	6085
##eland	6086
##osition	6087
haha	6088
slog	6089
släkt	6090
tyckte	6091
perman	6092
oblig	6093
##ube	6094
##änsle	6095
undan	6096
ägare	6097
radio	6098
driver	6099
erbjudanden	6100
tillverkning	6101
entrepren	6102
android	6103
rika	6104
##ire	6105
##ep	6106
##här	6107
##ale	6108
referens	6109
sammans	6110
##ädd	6111
planer	6112
generation	6113
mesta	6114
##ssystemet	6115
flexib	6116
skräm	6117
##oci	6118
##ckta	6119
##örd	6120
##information	6121
##derna	6122
barns	6123
företagen	6124
återkom	6125
roliga	6126
kompis	6127
innehålla	6128
låga	6129
villkoren	6130
sekunder	6131
studera	6132
premiär	6133
döm	6134
kast	6135
mill	6136
##ior	6137
##mö	6138
##mas	6139
##ican	6140
snälla	6141
behandlar	6142
status	6143
möten	6144
##box	6145
sekret	6146
robot	6147
territori	6148
ack	6149
boll	6150
kir	6151
##ionella	6152
##olver	6153
minne	6154
vision	6155
metall	6156
rädsla	6157
undersö	6158
reglerna	6159
tusen	6160
home	6161
peter	6162
tera	6163
tunn	6164
##bon	6165
skuld	6166
vidta	6167
##unds	6168
marken	6169
investera	6170
bedriv	6171
driva	6172
varmt	6173
bin	6174
war	6175
begå	6176
spanska	6177
överträ	6178
mått	6179
delvis	6180
##sättningen	6181
löp	6182
sveriges	6183
ljuset	6184
förklarar	6185
beaktande	6186
dikt	6187
kyl	6188
säm	6189
us	6190
öl	6191
##ac	6192
##umer	6193
##ländska	6194
##urn	6195
skott	6196
##uts	6197
##stav	6198
helhet	6199
medicinska	6200
chansen	6201
räcker	6202
bedömning	6203
3d	6204
##itionen	6205
skatte	6206
överen	6207
bilaga	6208
##tals	6209
nio	6210
statistik	6211
##sprodu	6212
uttalande	6213
kvalific	6214
göm	6215
high	6216
##una	6217
##mid	6218
attra	6219
##ängd	6220
ersättning	6221
kraven	6222
programvara	6223
mängden	6224
lämpligt	6225
djupt	6226
förflut	6227
brett	6228
eleverna	6229
original	6230
element	6231
rygg	6232
##sna	6233
##ero	6234
detsamma	6235
skaffa	6236
specialis	6237
boende	6238
soldat	6239
politisk	6240
kostar	6241
##gruppen	6242
hyp	6243
författaren	6244
socker	6245
##jor	6246
##arch	6247
förne	6248
enklare	6249
##sstil	6250
rekommenderas	6251
norra	6252
källor	6253
##ail	6254
##skt	6255
##ival	6256
##ensioner	6257
arbetsplats	6258
urval	6259
grader	6260
ekonomiskt	6261
##sprojekt	6262
olag	6263
sjön	6264
myndigheten	6265
mängder	6266
fördelarna	6267
ersätta	6268
trädgård	6269
75	6270
ali	6271
nom	6272
##ware	6273
storm	6274
##rop	6275
harmon	6276
reaktion	6277
tråd	6278
##önstr	6279
behovet	6280
skickas	6281
klockan	6282
hind	6283
##lass	6284
##åk	6285
##add	6286
##urs	6287
##oppet	6288
fint	6289
show	6290
beskrivning	6291
professionell	6292
34	6293
ager	6294
lekt	6295
##nummer	6296
##esk	6297
##ola	6298
dryg	6299
tekniken	6300
beslutet	6301
byggnader	6302
lita	6303
ämne	6304
micha	6305
analyser	6306
utsträckning	6307
##kningen	6308
##oss	6309
##innande	6310
överg	6311
##ffer	6312
dagligen	6313
##arknaden	6314
##erings	6315
valde	6316
baserade	6317
förbereda	6318
kategori	6319
refle	6320
mm	6321
mord	6322
tår	6323
##uk	6324
##do	6325
minim	6326
samlar	6327
##okoll	6328
##knar	6329
ekonomin	6330
bedö	6331
diskuter	6332
kristen	6333
uteslut	6334
agera	6335
kapitel	6336
fen	6337
gyn	6338
ros	6339
##ary	6340
diet	6341
maten	6342
maria	6343
gjorts	6344
tillgängligt	6345
konflikt	6346
kontinuer	6347
exklus	6348
professor	6349
hell	6350
tull	6351
stål	6352
försam	6353
mötet	6354
olja	6355
##frågor	6356
startade	6357
tydlig	6358
kreativ	6359
ama	6360
giv	6361
nack	6362
rem	6363
ting	6364
vinner	6365
##lan	6366
##bär	6367
begra	6368
uppgrader	6369
spa	6370
regionen	6371
domin	6372
webbläs	6373
tekniker	6374
kunderna	6375
school	6376
papper	6377
israels	6378
avancerade	6379
dj	6380
der	6381
fon	6382
underbara	6383
##vapen	6384
bror	6385
##smynd	6386
vända	6387
##ikali	6388
relaterade	6389
vind	6390
söder	6391
dött	6392
perioden	6393
detaljer	6394
acceptera	6395
bot	6396
##utera	6397
##ls	6398
utgång	6399
##erika	6400
känslan	6401
anpassa	6402
virus	6403
##ez	6404
##lades	6405
##dem	6406
##ake	6407
rättvisa	6408
smar	6409
ledning	6410
talade	6411
!!!	6412
erbjuds	6413
framgångsrika	6414
utnyttja	6415
smak	6416
födelsedag	6417
göte	6418
jäv	6419
lock	6420
oer	6421
avse	6422
påm	6423
##ationerna	6424
närvaro	6425
##leks	6426
gudom	6427
roy	6428
##väx	6429
bilderna	6430
diskrimin	6431
yout	6432
tonår	6433
filosof	6434
afrika	6435
fyr	6436
depression	6437
seger	6438
##anten	6439
läste	6440
affärer	6441
vaccin	6442
38	6443
iv	6444
yngre	6445
förvar	6446
##ited	6447
gran	6448
företags	6449
##fritt	6450
office	6451
hundrat	6452
doktor	6453
anslutning	6454
##sområdet	6455
rättsliga	6456
förtjänar	6457
appen	6458
est	6459
hatar	6460
nåt	6461
norge	6462
sorg	6463
anklag	6464
##vänt	6465
värden	6466
##hållanden	6467
anti	6468
ansvarar	6469
innovativa	6470
ungdomar	6471
[+	6472
].	6473
##ris	6474
##ares	6475
bryr	6476
##yrån	6477
regiss	6478
##annen	6479
lagt	6480
robert	6481
bedr	6482
globalt	6483
glömma	6484
fortsatte	6485
[+]	6486
röd	6487
wash	6488
äkta	6489
enheten	6490
vila	6491
involver	6492
ställen	6493
mej	6494
undersöka	6495
positivt	6496
tävling	6497
knappt	6498
spendera	6499
järnväg	6500
motsvarar	6501
michael	6502
göteborg	6503
39	6504
mc	6505
sli	6506
tolk	6507
##lik	6508
##fly	6509
avsk	6510
lämnat	6511
green	6512
diskutera	6513
fasc	6514
##skolan	6515
lördag	6516
lar	6517
sinne	6518
##cess	6519
##stjänster	6520
frid	6521
seri	6522
##iforn	6523
ställning	6524
imorgon	6525
hushåll	6526
servic	6527
relevant	6528
dubbel	6529
yttre	6530
godkännande	6531
komponenter	6532
shopping	6533
37	6534
mönster	6535
ult	6536
##oster	6537
##vd	6538
underteck	6539
export	6540
slår	6541
##assad	6542
##upplev	6543
teknisk	6544
##givning	6545
medlemsstater	6546
##kända	6547
##resa	6548
##ässigt	6549
vitamin	6550
befolkning	6551
desto	6552
make	6553
juridiska	6554
uppmunt	6555
bos	6556
not	6557
##tts	6558
##atet	6559
uppstå	6560
##riter	6561
åtag	6562
återigen	6563
starkare	6564
hämta	6565
välkomna	6566
berömda	6567
##måga	6568
konver	6569
##språk	6570
syssel	6571
##kland	6572
europas	6573
utvecklats	6574
##betalning	6575
fullständigt	6576
advok	6577
mångfald	6578
big	6579
tillsyn	6580
beställ	6581
helvet	6582
livsstil	6583
vägar	6584
cro	6585
##sil	6586
tron	6587
rättfärd	6588
##ringen	6589
klimatföränd	6590
principer	6591
förekommer	6592
##industrin	6593
fantas	6594
irak	6595
48	6596
hor	6597
##lor	6598
##éer	6599
kanada	6600
arv	6601
undervisning	6602
##spolit	6603
blu	6604
bränsle	6605
##desig	6606
##värda	6607
vänligen	6608
kvinnliga	6609
amerika	6610
sjukdomen	6611
etik	6612
lyckades	6613
leta	6614
mjölk	6615
%.	6616
salt	6617
tender	6618
##jet	6619
##fort	6620
##ättning	6621
spekt	6622
##ämnen	6623
människans	6624
åtkomst	6625
lärande	6626
socialt	6627
fara	6628
##former	6629
fokuserar	6630
mörd	6631
utomhus	6632
street	6633
##oper	6634
##öll	6635
##center	6636
##ningsför	6637
redig	6638
150	6639
uppgifterna	6640
minuters	6641
normala	6642
ursprungligen	6643
produktionen	6644
##fatta	6645
introduc	6646
omdöm	6647
youtube	6648
99	6649
botten	6650
ifråg	6651
lider	6652
##igande	6653
##ele	6654
##amerika	6655
##verktyg	6656
##uti	6657
##leverant	6658
ledarskap	6659
datorer	6660
obama	6661
korta	6662
röra	6663
växter	6664
förvå	6665
##produktion	6666
kemikali	6667
lim	6668
##iat	6669
##js	6670
##stud	6671
förr	6672
##iten	6673
sål	6674
spelarna	6675
##ege	6676
förbi	6677
marknader	6678
samtycke	6679
sammanfatt	6680
katastro	6681
äldsta	6682
allvarligt	6683
muslimer	6684
föreslår	6685
drygt	6686
pu	6687
##oms	6688
##ktig	6689
##seffekt	6690
spelaren	6691
##smed	6692
##entera	6693
berättelse	6694
fredag	6695
termin	6696
sekund	6697
insatser	6698
gifta	6699
dram	6700
hyll	6701
list	6702
mem	6703
##kare	6704
##län	6705
fatta	6706
bröd	6707
säkerheten	6708
lösen	6709
policy	6710
lämnas	6711
investerare	6712
skolor	6713
bekämpa	6714
påverkas	6715
tillämpning	6716
förvänta	6717
beskrivs	6718
major	6719
normal	6720
tillverkare	6721
cre	6722
gala	6723
og	6724
##ones	6725
##atik	6726
avgifter	6727
utseende	6728
utrikes	6729
##celler	6730
thom	6731
politiker	6732
händerna	6733
räknas	6734
house	6735
skönt	6736
syrien	6737
gi	6738
ikväll	6739
##bu	6740
franc	6741
##lapp	6742
livsl	6743
lärde	6744
produkterna	6745
##ology	6746
kurser	6747
danmark	6748
flickor	6749
turkiet	6750
vädret	6751
horm	6752
hinder	6753
##fakt	6754
##anal	6755
##bransch	6756
belö	6757
schwe	6758
fullständig	6759
installera	6760
tillfreds	6761
aller	6762
##yer	6763
##änsa	6764
##idan	6765
##istiskt	6766
slott	6767
syster	6768
resor	6769
viktigare	6770
ledam	6771
lagring	6772
matem	6773
fylla	6774
undvik	6775
konkurren	6776
##baserade	6777
muslim	6778
förfaranden	6779
funnits	6780
överenskomm	6781
gilt	6782
passer	6783
rich	6784
tung	6785
##juter	6786
arbetat	6787
union	6788
riktning	6789
statliga	6790
noga	6791
förvir	6792
populär	6793
länkar	6794
språket	6795
smarta	6796
oerhör	6797
42	6798
biver	6799
##ius	6800
##vatten	6801
##cer	6802
##wood	6803
förpack	6804
##ase	6805
uppst	6806
samling	6807
samlas	6808
andre	6809
tacka	6810
delas	6811
liber	6812
veter	6813
hemmet	6814
förutsättning	6815
märk	6816
##flöd	6817
deltagande	6818
bestämmelserna	6819
uppfattning	6820
auktor	6821
fader	6822
william	6823
invånare	6824
bay	6825
oj	6826
tillämpa	6827
anna	6828
arter	6829
prins	6830
riktig	6831
kärleken	6832
befri	6833
åtgärd	6834
rena	6835
startar	6836
praktiska	6837
överföring	6838
iii	6839
varumärke	6840
ångest	6841
symtom	6842
):	6843
bag	6844
ky	6845
##gl	6846
##gin	6847
ock	6848
##cks	6849
minnes	6850
##erska	6851
månaden	6852
arbetstag	6853
våren	6854
##egr	6855
iran	6856
ansluta	6857
kommersiella	6858
power	6859
##melse	6860
##rare	6861
##onym	6862
inbland	6863
anta	6864
##ätter	6865
##tain	6866
##delningen	6867
##klass	6868
jose	6869
2002	6870
adam	6871
fastställa	6872
träna	6873
##resultat	6874
##cykel	6875
vuxen	6876
intresserade	6877
koncern	6878
givetvis	6879
symptom	6880
div	6881
kämpar	6882
avl	6883
##iler	6884
frit	6885
livs	6886
##värm	6887
lyx	6888
söt	6889
bestämt	6890
sanna	6891
begränsa	6892
släppa	6893
rekommendera	6894
inbeg	6895
valuta	6896
underlätta	6897
rekry	6898
övergripande	6899
day	6900
pc	6901
##örerna	6902
##ema	6903
##föring	6904
##giften	6905
effekterna	6906
programvar	6907
kvaliteten	6908
utländska	6909
##savtal	6910
schweiz	6911
dol	6912
fånga	6913
illa	6914
mår	6915
##tog	6916
århund	6917
numera	6918
arbetade	6919
effekten	6920
färre	6921
american	6922
femte	6923
katol	6924
vackert	6925
mörka	6926
universitetet	6927
överleva	6928
washington	6929
tenderar	6930
sänd	6931
##hjäl	6932
##10	6933
pågår	6934
##urer	6935
##ical	6936
##serv	6937
juster	6938
##sbe	6939
sträng	6940
stater	6941
saknas	6942
ämnet	6943
##försäkring	6944
medvetna	6945
färdig	6946
sovrum	6947
upprätthålla	6948
martin	6949
förmågan	6950
flicka	6951
king	6952
##känn	6953
##bit	6954
##ssam	6955
samm	6956
lett	6957
kändes	6958
##barhet	6959
##sföretag	6960
##sfall	6961
låtar	6962
grekland	6963
##behandling	6964
tillfällen	6965
mobila	6966
komplex	6967
texten	6968
protein	6969
analyt	6970
informer	6971
riktlinjer	6972
tillförlit	6973
bist	6974
gälla	6975
nä	6976
##out	6977
##ymer	6978
fran	6979
##repp	6980
verklig	6981
##kontroll	6982
geograf	6983
ligga	6984
parti	6985
klassiska	6986
skyddar	6987
kold	6988
lyssnar	6989
##ladd	6990
##byggande	6991
ringa	6992
religiösa	6993
blommor	6994
##log	6995
##iserad	6996
##skande	6997
mail	6998
krafter	6999
boka	7000
##sfri	7001
registrering	7002
utomlands	7003
potential	7004
militära	7005
nödvändig	7006
separat	7007
litter	7008
##ule	7009
##pi	7010
##länderna	7011
förväg	7012
stam	7013
andas	7014
pröv	7015
##spunkt	7016
##kval	7017
metoden	7018
svårare	7019
meddelanden	7020
asien	7021
kille	7022
kreativa	7023
tillbring	7024
fattigdom	7025
förflutna	7026
##skare	7027
##juka	7028
##ordin	7029
användarna	7030
store	7031
vikten	7032
domän	7033
förlu	7034
##problem	7035
uppfölj	7036
förväntar	7037
hyra	7038
inspiration	7039
titel	7040
täcker	7041
cd	7042
por	7043
wall	7044
yoga	7045
##jöd	7046
##bre	7047
inser	7048
##terat	7049
upptag	7050
användes	7051
192	7052
snygg	7053
lug	7054
luften	7055
farliga	7056
##material	7057
typen	7058
klassific	7059
avsedda	7060
mobiltel	7061
decenn	7062
försvinner	7063
gränsen	7064
tolv	7065
debatt	7066
college	7067
95	7068
##uel	7069
##ånd	7070
##kam	7071
pålit	7072
denne	7073
varierar	7074
underbar	7075
tax	7076
handen	7077
återförsälj	7078
george	7079
forskarna	7080
förmed	7081
låten	7082
klarar	7083
mänskligheten	7084
förklaring	7085
torr	7086
makten	7087
##institut	7088
betraktas	7089
arrang	7090
demonstr	7091
aud	7092
kust	7093
##hantering	7094
inverkan	7095
##ros	7096
skiv	7097
barcel	7098
##släg	7099
##juder	7100
slutade	7101
##brid	7102
flygplan	7103
nämn	7104
bloggen	7105
kolon	7106
kampen	7107
pojk	7108
rymd	7109
swed	7110
dialog	7111
north	7112
tis	7113
##hag	7114
##eteck	7115
förre	7116
insikt	7117
bevar	7118
##ännen	7119
orden	7120
gransk	7121
diam	7122
vinster	7123
sjukvård	7124
foto	7125
bruk	7126
romant	7127
lyckats	7128
operativ	7129
lösenord	7130
##egräns	7131
65	7132
?!	7133
hindra	7134
mur	7135
##hov	7136
##ano	7137
skand	7138
relat	7139
stadens	7140
växte	7141
förutsättningar	7142
avsluta	7143
optim	7144
avgöra	7145
sällsyn	7146
free	7147
yttrande	7148
biljett	7149
kommunicera	7150
inflytande	7151
ast	7152
top	7153
åkte	7154
##ness	7155
##löst	7156
##iller	7157
medför	7158
##asa	7159
årliga	7160
##öjligheter	7161
komplic	7162
planera	7163
naturlig	7164
konstat	7165
kräva	7166
rösta	7167
##rafik	7168
affärsm	7169
tema	7170
jordens	7171
sökande	7172
övervakning	7173
mäta	7174
hävdar	7175
navig	7176
##spolicy	7177
##branschen	7178
noll	7179
##röst	7180
##star	7181
smid	7182
köket	7183
##rater	7184
fira	7185
1990	7186
accepterar	7187
maxim	7188
representerar	7189
science	7190
utbyte	7191
ursäkt	7192
ukra	7193
##tor	7194
##skr	7195
flor	7196
pred	7197
##vall	7198
##ierad	7199
##samling	7200
##sätta	7201
vänskap	7202
onöd	7203
transporter	7204
tour	7205
1999	7206
funktionen	7207
fysiskt	7208
traditionell	7209
lycklig	7210
ambassad	7211
misslyck	7212
uppmanar	7213
styra	7214
signal	7215
implem	7216
##önstret	7217
.»	7218
agen	7219
##ual	7220
##uch	7221
avgift	7222
personligen	7223
öppnade	7224
styrelsen	7225
samarbetet	7226
intressanta	7227
demokrati	7228
##villkor	7229
diagnos	7230
noggrant	7231
nomin	7232
fäst	7233
onda	7234
##mo	7235
##pol	7236
##cancer	7237
##ingarna	7238
##isa	7239
##ids	7240
##uta	7241
eftermid	7242
##plet	7243
thail	7244
vintern	7245
marker	7246
imper	7247
politiskt	7248
skapas	7249
mänsklig	7250
sängen	7251
skärm	7252
afg	7253
elektroniska	7254
aspekter	7255
baby	7256
väsent	7257
amazon	7258
ess	7259
##hl	7260
##fam	7261
förenta	7262
inkom	7263
##iseras	7264
stu	7265
stannar	7266
##sakt	7267
deltar	7268
unikt	7269
life	7270
##bilar	7271
självmord	7272
kära	7273
tillfället	7274
placera	7275
europaparlamentets	7276
labor	7277
kameran	7278
eur	7279
ond	7280
##pass	7281
##gor	7282
vice	7283
frisk	7284
allah	7285
världskriget	7286
utförs	7287
drivs	7288
fattiga	7289
osäker	7290
skärmen	7291
kemiska	7292
influ	7293
diagnost	7294
inköp	7295
parkering	7296
46	7297
tj	7298
##katt	7299
##ago	7300
##skv	7301
##skrid	7302
uppvärm	7303
##varor	7304
motsats	7305
lovar	7306
framförallt	7307
inbjud	7308
kursen	7309
medicinsk	7310
hästar	7311
åsikter	7312
strål	7313
bodde	7314
bedräg	7315
600	7316
act	7317
åstad	7318
##ienska	7319
##ty	7320
##ino	7321
##skill	7322
helgen	7323
utval	7324
##bry	7325
ingå	7326
inträ	7327
försökt	7328
transaktion	7329
evangel	7330
prim	7331
billiga	7332
table	7333
##speriod	7334
55	7335
hämt	7336
rot	7337
##my	7338
##etoder	7339
##inar	7340
präst	7341
##cipl	7342
gåva	7343
vät	7344
strand	7345
byggt	7346
marknads	7347
jämförelse	7348
kaliforn	7349
judar	7350
bolagets	7351
kreditkort	7352
argument	7353
egypten	7354
förhoppningsvis	7355
jordbruks	7356
konkurrenskraft	7357
oerhört	7358
koldioxid	7359
dyg	7360
hat	7361
vel	7362
##edjan	7363
##ionerna	7364
ombord	7365
utfärd	7366
överst	7367
följde	7368
##data	7369
bestämde	7370
nätverket	7371
##alisering	7372
standarder	7373
inbygg	7374
begära	7375
italienska	7376
krimin	7377
erkänna	7378
installation	7379
kilometer	7380
az	7381
##föd	7382
##wn	7383
uppmun	7384
personligt	7385
kvant	7386
champ	7387
grand	7388
egenskap	7389
##ysning	7390
sexuella	7391
generellt	7392
kulturella	7393
sträcker	7394
uppmuntr	7395
hill	7396
rund	7397
påverkan	7398
##amod	7399
beg	7400
##usal	7401
minnen	7402
##samhet	7403
hållbara	7404
artiklarna	7405
konstigt	7406
import	7407
träffade	7408
eventuellt	7409
producerar	7410
destin	7411
##huvud	7412
förblir	7413
tålamod	7414
il	7415
pin	7416
vall	7417
##mask	7418
##nats	7419
##har	7420
##gade	7421
##best	7422
##aritet	7423
påbörj	7424
##likter	7425
minut	7426
varav	7427
##oklad	7428
plocka	7429
legen	7430
urin	7431
##slagen	7432
renover	7433
fruktans	7434
existerar	7435
jakt	7436
pay	7437
ww	7438
yta	7439
##our	7440
inuti	7441
underrätt	7442
neuro	7443
grav	7444
förbättring	7445
definition	7446
associ	7447
observ	7448
täcka	7449
moln	7450
muskel	7451
silver	7452
sånt	7453
hastighet	7454
permanent	7455
cat	7456
word	7457
##sdagen	7458
##con	7459
anord	7460
fack	7461
##iering	7462
levererar	7463
hjälpte	7464
kostnaden	7465
innebära	7466
orsaker	7467
glömt	7468
sprida	7469
your	7470
term	7471
maskiner	7472
flyttade	7473
otill	7474
##funktion	7475
däck	7476
##ios	7477
##oter	7478
##mm	7479
##riska	7480
##pet	7481
##ögon	7482
träffar	7483
herrens	7484
##punkter	7485
stänga	7486
förväntningar	7487
strax	7488
förvaltning	7489
upprep	7490
bom	7491
lind	7492
rab	7493
vent	7494
vunnit	7495
##omål	7496
påsk	7497
hanterar	7498
##komma	7499
190	7500
##aktiv	7501
grundval	7502
förbund	7503
kvinnorna	7504
röster	7505
hoppa	7506
flyga	7507
föll	7508
hjärtan	7509
dricker	7510
44	7511
cr	7512
ul	7513
##aller	7514
##fon	7515
##alternativ	7516
besvär	7517
##ption	7518
funkar	7519
##ologiskt	7520
myst	7521
rött	7522
hunden	7523
kraftigt	7524
föräldr	7525
oroa	7526
stånd	7527
##lösning	7528
varumärken	7529
genomsnittliga	7530
tuff	7531
elimin	7532
##skyld	7533
springa	7534
majoriteten	7535
biverkningar	7536
barcelona	7537
are	7538
ander	7539
##30	7540
##verksam	7541
##ush	7542
konkret	7543
##ändsk	7544
##stern	7545
choklad	7546
stads	7547
hjärna	7548
##givna	7549
operat	7550
individuella	7551
frekvens	7552
siffror	7553
värderingar	7554
asy	7555
nivån	7556
tyck	7557
##äkter	7558
inred	7559
oms	7560
##skop	7561
##ico	7562
däri	7563
##ieras	7564
kris	7565
kärleks	7566
reduc	7567
samarbeta	7568
gillade	7569
institutioner	7570
bredvid	7571
tjejer	7572
fastställs	7573
flygplatsen	7574
graviditet	7575
##kontor	7576
protokoll	7577
jerusal	7578
praxis	7579
grekiska	7580
återhämt	7581
jerusalem	7582
.,	7583
kök	7584
pul	7585
##bs	7586
##cell	7587
##llen	7588
##itch	7589
##rick	7590
tve	7591
personlighet	7592
lät	7593
teater	7594
förbin	7595
musiken	7596
föreb	7597
indik	7598
jämställd	7599
förbättrar	7600
industrin	7601
hamnar	7602
##sområde	7603
titeln	7604
branschen	7605
lidande	7606
misslyckas	7607
begrav	7608
kalen	7609
ox	7610
oänd	7611
index	7612
##edlem	7613
##ktiga	7614
##umin	7615
202	7616
examen	7617
hösten	7618
forskar	7619
##järna	7620
loj	7621
state	7622
##onerande	7623
olje	7624
läsare	7625
konsum	7626
interna	7627
komplexa	7628
framgångsrik	7629
partnerskap	7630
uttrycka	7631
rop	7632
sus	7633
##fisk	7634
##ckerna	7635
##skost	7636
##ssa	7637
bett	7638
hantering	7639
##ospel	7640
resolution	7641
spelen	7642
##egor	7643
##kvent	7644
sönder	7645
##troller	7646
kasta	7647
samhällen	7648
betalas	7649
genomförande	7650
känneteck	7651
##rustning	7652
modul	7653
satte	7654
kostnaderna	7655
sannolik	7656
återvända	7657
parlamentet	7658
garanterar	7659
afr	7660
hjul	7661
um	7662
##nitt	7663
##tto	7664
##ome	7665
##iserar	7666
##ilitet	7667
tidsk	7668
arbetsl	7669
spelas	7670
##annes	7671
##tiden	7672
granska	7673
återställa	7674
förbe	7675
vanligen	7676
fulla	7677
kors	7678
registrera	7679
förstöra	7680
kampanj	7681
gjordes	7682
obligator	7683
kämpa	7684
##rut	7685
attrakt	7686
##dagar	7687
lagras	7688
south	7689
faktor	7690
box	7691
håret	7692
tredj	7693
tillämpningen	7694
begränsade	7695
##ografi	7696
cirkul	7697
absor	7698
japanska	7699
drabbas	7700
konsekvenser	7701
,"	7702
fans	7703
sun	7704
##gu	7705
pågående	7706
##rot	7707
övergång	7708
tak	7709
brut	7710
personalen	7711
spelat	7712
beton	7713
##ious	7714
lou	7715
##sbyg	7716
institu	7717
femin	7718
applic	7719
tittade	7720
1000	7721
begränsningar	7722
råder	7723
specifikt	7724
regionala	7725
stämmer	7726
hundratals	7727
cer	7728
wik	7729
##ibilitet	7730
##taget	7731
##anna	7732
##angen	7733
##ison	7734
stilla	7735
varma	7736
kompl	7737
miner	7738
orätt	7739
hemlighet	7740
hålls	7741
time	7742
sammanlag	7743
##inerande	7744
alternativet	7745
offentligt	7746
nordiska	7747
känslom	7748
bryter	7749
skyldig	7750
killar	7751
övervaka	7752
bakterier	7753
fenomen	7754
41	7755
ball	7756
cra	7757
mamm	7758
##kör	7759
##histor	7760
##fi	7761
inspel	7762
stött	7763
##verka	7764
materi	7765
kallt	7766
antib	7767
##aliteten	7768
lågt	7769
tillräcklig	7770
fiske	7771
phil	7772
butiker	7773
gemenskapen	7774
katastrof	7775
öron	7776
##utt	7777
##nät	7778
##gäng	7779
##antera	7780
förteck	7781
fördraget	7782
använts	7783
brasil	7784
smitt	7785
väv	7786
troligen	7787
market	7788
sover	7789
ordentligt	7790
##projekt	7791
budd	7792
garantera	7793
matchen	7794
revolutionen	7795
##stiden	7796
imponerande	7797
jävla	7798
drott	7799
ken	7800
ori	7801
open	7802
ze	7803
##oka	7804
##jas	7805
föroren	7806
bebis	7807
##ställda	7808
next	7809
##ugh	7810
koppla	7811
analysera	7812
utvalda	7813
tycks	7814
;)	7815
mont	7816
nag	7817
##orma	7818
##ären	7819
##ague	7820
##änk	7821
dekor	7822
friska	7823
fräls	7824
utöv	7825
##iko	7826
rest	7827
andras	7828
##blad	7829
kontra	7830
bortom	7831
formen	7832
##gård	7833
skillnader	7834
tydliga	7835
praktiskt	7836
kamera	7837
arkiv	7838
utvecklat	7839
publik	7840
rubr	7841
patienten	7842
intelligens	7843
##utbildning	7844
techn	7845
galax	7846
64	7847
cal	7848
ovänt	7849
wil	7850
äga	7851
##pråk	7852
end	7853
##tekn	7854
##ägna	7855
betyg	7856
##ckade	7857
##värder	7858
parterna	7859
antog	7860
##ymp	7861
förändrats	7862
foton	7863
katal	7864
fix	7865
tillämpliga	7866
begränsat	7867
kyrka	7868
versioner	7869
##byggnad	7870
strävar	7871
strategier	7872
kliniska	7873
långsiktiga	7874
begreppet	7875
award	7876
dal	7877
hyd	7878
##tv	7879
##atta	7880
##höll	7881
##ze	7882
##ere	7883
##omet	7884
dusch	7885
##rest	7886
beach	7887
##ota	7888
tapp	7889
hållet	7890
långsamt	7891
planen	7892
##anke	7893
berättig	7894
transaktioner	7895
utbildnings	7896
jordbruk	7897
materialet	7898
förordningen	7899
idén	7900
specifik	7901
tjänsterna	7902
uppenbart	7903
bordet	7904
##meddelande	7905
passagerare	7906
ifrågas	7907
thomas	7908
richard	7909
dna	7910
ever	7911
gn	7912
mäkt	7913
nic	7914
##df	7915
##fält	7916
skäm	7917
##ordningen	7918
utvid	7919
hållas	7920
landsbyg	7921
turist	7922
hårda	7923
##fors	7924
timmars	7925
nyckeln	7926
uppskattar	7927
stjärnor	7928
förresten	7929
43	7930
##sliga	7931
frig	7932
##emon	7933
##adress	7934
sevärd	7935
därifrån	7936
##gångar	7937
##göra	7938
partiet	7939
stödjer	7940
cool	7941
lätta	7942
iso	7943
solid	7944
kontakter	7945
genomförandet	7946
##huset	7947
tele	7948
flyttar	7949
skyldigheter	7950
framgångsrikt	7951
administrativa	7952
vinnare	7953
tunga	7954
ron	7955
rid	7956
##hal	7957
##ille	7958
##ole	7959
skogen	7960
tråk	7961
##skam	7962
##riften	7963
##cha	7964
kungen	7965
##alla	7966
resen	7967
##vention	7968
klipp	7969
kvartalet	7970
beskriva	7971
nått	7972
evigt	7973
presenterar	7974
tillåta	7975
trevlig	7976
infektion	7977
kalifornien	7978
##kod	7979
##knings	7980
##tm	7981
##jun	7982
förkn	7983
förslaget	7984
##esid	7985
##litt	7986
##anser	7987
##icitet	7988
externa	7989
erhåll	7990
.....	7991
##ifikat	7992
##alth	7993
tjänstem	7994
baseras	7995
assist	7996
undersökningar	7997
bröder	7998
tabell	7999
trygghet	8000
biljetter	8001
nederländerna	8002
vistelse	8003
territorium	8004
ti	8005
vag	8006
##ned	8007
##ene	8008
##ård	8009
##usion	8010
tidig	8011
rättigheterna	8012
##plom	8013
##smäss	8014
högkval	8015
ansåg	8016
marx	8017
angående	8018
steget	8019
blodet	8020
anledningar	8021
carl	8022
daniel	8023
impon	8024
dejting	8025
överväga	8026
klagomål	8027
gjorda	8028
nöjda	8029
##rapport	8030
bedöma	8031
århundra	8032
mats	8033
ån	8034
##fs	8035
##öde	8036
##ningom	8037
##urt	8038
komfort	8039
beund	8040
trö	8041
##ogg	8042
slä	8043
verkade	8044
livets	8045
##värdet	8046
troende	8047
aktörer	8048
förebyggande	8049
##korea	8050
byggnaden	8051
brukade	8052
anställd	8053
erbjudande	8054
humör	8055
ansiktet	8056
love	8057
beräknas	8058
katter	8059
tillhandahålls	8060
figur	8061
rit	8062
##käns	8063
##hyd	8064
##bö	8065
intera	8066
harry	8067
utgå	8068
##lister	8069
spons	8070
minskning	8071
genet	8072
##sport	8073
##grän	8074
ändrar	8075
neut	8076
röka	8077
##läggning	8078
upptäcker	8079
träffas	8080
experiment	8081
telefonen	8082
konfigur	8083
säljs	8084
##igenom	8085
civila	8086
utvärdera	8087
veder	8088
kanal	8089
sked	8090
alli	8091
skatter	8092
överdriv	8093
##kommer	8094
grann	8095
##värden	8096
längd	8097
följt	8098
problemen	8099
småningom	8100
fötter	8101
tillfälligt	8102
bekräftar	8103
överläm	8104
applikationer	8105
pratade	8106
distribution	8107
björ	8108
gäng	8109
hiv	8110
nut	8111
sorter	8112
täck	8113
vänder	8114
öms	8115
inställningar	8116
station	8117
skö	8118
##juda	8119
kryp	8120
rättvis	8121
möjlig	8122
teknologi	8123
månaderna	8124
besökte	8125
kombinerar	8126
##loud	8127
upphovsrätt	8128
omsorg	8129
800	8130
dar	8131
mos	8132
##köp	8133
##sing	8134
##lu	8135
upps	8136
syda	8137
berlin	8138
kläd	8139
diplom	8140
datask	8141
##efoner	8142
filtr	8143
polen	8144
##platser	8145
programmer	8146
saken	8147
coun	8148
karl	8149
byggdes	8150
ansvariga	8151
videon	8152
atl	8153
släpptes	8154
glömmer	8155
uppdatera	8156
studenterna	8157
nödvändigtvis	8158
avsnittet	8159
månen	8160
kandidat	8161
instruktioner	8162
ingredienser	8163
förknipp	8164
fet	8165
kg	8166
los	8167
##mod	8168
##bra	8169
##tton	8170
stift	8171
##cken	8172
##skå	8173
såklart	8174
##makt	8175
fasta	8176
genast	8177
##rådet	8178
storleken	8179
höst	8180
##avtal	8181
dryck	8182
falla	8183
lust	8184
berättelser	8185
möbler	8186
sakerna	8187
patent	8188
införa	8189
rollen	8190
släpper	8191
sparar	8192
praktiken	8193
arbetsgivare	8194
tillväxten	8195
stolta	8196
jämställdhet	8197
institute	8198
ömsesid	8199
!)	8200
ios	8201
mall	8202
sar	8203
öde	8204
##åriga	8205
##ski	8206
beställning	8207
spän	8208
##gener	8209
flas	8210
league	8211
hjälpt	8212
planering	8213
farligt	8214
likad	8215
jesu	8216
offentliggör	8217
torsdag	8218
baks	8219
presentera	8220
reserv	8221
funderar	8222
koncer	8223
arkitektur	8224
afghan	8225
##pal	8226
##inerna	8227
##aterial	8228
utarbet	8229
andliga	8230
floden	8231
tidningen	8232
motion	8233
roller	8234
målen	8235
levereras	8236
bokstav	8237
öppnas	8238
främmande	8239
uppdatering	8240
droger	8241
skepp	8242
##område	8243
apost	8244
##organisationer	8245
klubben	8246
huvudsakliga	8247
www	8248
föräldrarna	8249
aning	8250
abb	8251
avkast	8252
påpe	8253
bevara	8254
##ensen	8255
undervis	8256
härlig	8257
nyfiken	8258
##osit	8259
##delen	8260
##odo	8261
##sätts	8262
mosk	8263
längst	8264
hustru	8265
byn	8266
missa	8267
bekym	8268
märke	8269
majoritet	8270
##gnos	8271
inkludera	8272
judiska	8273
officiellt	8274
bekvämt	8275
texas	8276
tvivel	8277
royal	8278
sammant	8279
51	8280
lan	8281
tok	8282
##sas	8283
inställning	8284
enorma	8285
##edia	8286
##rog	8287
##ader	8288
uppsättning	8289
prop	8290
##istrat	8291
##speg	8292
försvara	8293
läget	8294
liknar	8295
platt	8296
besluts	8297
europeisk	8298
succ	8299
tillgänglighet	8300
jämföra	8301
skadliga	8302
upplevelser	8303
portug	8304
sovjet	8305
negativ	8306
modellen	8307
trevligt	8308
informera	8309
kriterier	8310
ign	8311
mand	8312
passa	8313
##park	8314
##länder	8315
##ges	8316
##fyll	8317
##åter	8318
##isar	8319
##teknik	8320
stycken	8321
##yggen	8322
männen	8323
##plant	8324
smith	8325
blandning	8326
##ledare	8327
nere	8328
##nuft	8329
120	8330
behandlingar	8331
kraftfull	8332
operation	8333
dyra	8334
expand	8335
deltagarna	8336
##ield	8337
tvingas	8338
##användning	8339
lugnt	8340
bibliotek	8341
litteratur	8342
dru	8343
fra	8344
wi	8345
dele	8346
anonym	8347
##ickade	8348
efteråt	8349
tvekan	8350
beredd	8351
beträff	8352
tycka	8353
##undersök	8354
kroppar	8355
förklarade	8356
släpps	8357
kombinera	8358
förbereder	8359
halvt	8360
verksamheter	8361
tillåtet	8362
trädgården	8363
batteri	8364
flyktingar	8365
föreläs	8366
skådespelare	8367
paradis	8368
hellre	8369
##demokrat	8370
mira	8371
##sreg	8372
##stör	8373
tillkänn	8374
anger	8375
##skjut	8376
##ensa	8377
reaktioner	8378
översättning	8379
##sluter	8380
kungar	8381
bergen	8382
innefatt	8383
högskol	8384
utvecklade	8385
##ission	8386
##ologin	8387
game	8388
instagram	8389
sexuell	8390
##sproblem	8391
250	8392
kontrollerar	8393
levde	8394
kritik	8395
homo	8396
fördju	8397
utöva	8398
överensstämmelse	8399
research	8400
premiärminister	8401
action	8402
gram	8403
pack	8404
tänder	8405
##off	8406
##anerna	8407
##inav	8408
##station	8409
förare	8410
omfatta	8411
utöka	8412
skämt	8413
##året	8414
barnd	8415
triv	8416
verka	8417
##gav	8418
faktiska	8419
penning	8420
konstant	8421
karta	8422
upptäck	8423
allvarlig	8424
##havare	8425
avancerad	8426
##politik	8427
kommittén	8428
hormon	8429
höja	8430
##ista	8431
##jord	8432
##ces	8433
##rass	8434
varelser	8435
##emedlem	8436
##ream	8437
minnas	8438
underbart	8439
villa	8440
annons	8441
united	8442
##opro	8443
gjord	8444
myster	8445
times	8446
låna	8447
upptäckte	8448
##temot	8449
##frihet	8450
förenade	8451
aggress	8452
perioder	8453
länken	8454
billigare	8455
grönt	8456
utvärdering	8457
##stillstånd	8458
##relaterade	8459
noggrann	8460
sämre	8461
antibiot	8462
opp	8463
##que	8464
##inär	8465
förfarande	8466
##ängen	8467
tillträ	8468
utsatt	8469
##ssnitt	8470
##anskt	8471
##ällor	8472
tvärt	8473
##ordning	8474
betalt	8475
miljöm	8476
troll	8477
lukt	8478
svårigheter	8479
kraftfulla	8480
punkter	8481
redovis	8482
miljontals	8483
dataskydd	8484
astr	8485
bul	8486
git	8487
gir	8488
nö	8489
förnuft	8490
anmär	8491
##ury	8492
sektorn	8493
tvär	8494
försen	8495
teori	8496
regioner	8497
ledsen	8498
förbud	8499
talas	8500
##finans	8501
kortare	8502
styrels	8503
commun	8504
skadade	8505
volvo	8506
discipl	8507
koncernen	8508
bang	8509
cb	8510
kram	8511
##mynd	8512
##pn	8513
##halt	8514
still	8515
##verks	8516
spåra	8517
trend	8518
blue	8519
##imen	8520
försäm	8521
chi	8522
slutföra	8523
förstod	8524
lyfta	8525
##sstyr	8526
flertal	8527
lyckliga	8528
badrum	8529
överföra	8530
charm	8531
club	8532
hungr	8533
regissör	8534
##läk	8535
##ini	8536
förverk	8537
##nades	8538
##ads	8539
skre	8540
skett	8541
##iklar	8542
##ogn	8543
fav	8544
helsing	8545
släng	8546
##ifi	8547
penis	8548
tagits	8549
förhind	8550
föds	8551
bibe	8552
orolig	8553
intellekt	8554
citat	8555
obehag	8556
latin	8557
högkvalit	8558
49	8559
52	8560
85	8561
bir	8562
hd	8563
tenn	8564
usd	8565
win	8566
##mes	8567
##ee	8568
##lerna	8569
##fli	8570
förse	8571
##ili	8572
##ulin	8573
##jack	8574
##try	8575
tjänste	8576
rörelser	8577
generationer	8578
styrelse	8579
magn	8580
övre	8581
avsedd	8582
födelse	8583
notera	8584
försäljningen	8585
lokalt	8586
tävlingen	8587
drick	8588
anläggningar	8589
konstruktion	8590
konsumenterna	8591
lägenheten	8592
inträffar	8593
däribland	8594
bind	8595
##ula	8596
##ws	8597
##isser	8598
skala	8599
##varen	8600
##smin	8601
sof	8602
formul	8603
genomförs	8604
togs	8605
avslapp	8606
förening	8607
fattar	8608
negativt	8609
webbläsare	8610
uppmuntra	8611
asyl	8612
eva	8613
ikon	8614
lung	8615
num	8616
nob	8617
ör	8618
##plikt	8619
##fast	8620
##valt	8621
##stöd	8622
##olja	8623
gentemot	8624
##ript	8625
havs	8626
##cial	8627
lägsta	8628
riskerar	8629
priserna	8630
##satser	8631
kniv	8632
kärnvapen	8633
molek	8634
avslöja	8635
##boken	8636
flykting	8637
fåglar	8638
hyres	8639
allerg	8640
gh	8641
pi	8642
sed	8643
##af	8644
##bjud	8645
##stjänst	8646
##urser	8647
##sspel	8648
##arknad	8649
krän	8650
##hållande	8651
grym	8652
konton	8653
säkerställer	8654
återf	8655
altern	8656
tjänare	8657
##arbetet	8658
formulär	8659
abra	8660
kollegor	8661
##onto	8662
missbruk	8663
irland	8664
dörr	8665
knappen	8666
undersökningen	8667
substans	8668
vittnes	8669
fångar	8670
kvalit	8671
paulus	8672
republiken	8673
arabiska	8674
exponering	8675
ultim	8676
kemikalier	8677
thailand	8678
47	8679
[-	8680
usb	8681
vänd	8682
ytan	8683
##king	8684
##ustr	8685
##ural	8686
##jerna	8687
##bell	8688
##åta	8689
meddela	8690
fris	8691
##skom	8692
##sköter	8693
##innan	8694
##osystem	8695
pren	8696
ort	8697
arbetslös	8698
##visningar	8699
krets	8700
##irig	8701
##bilder	8702
##minskning	8703
tester	8704
förutsäg	8705
##fria	8706
ovanför	8707
porträtt	8708
inspekt	8709
rike	8710
vakna	8711
skilja	8712
kategorier	8713
muskler	8714
satsa	8715
surf	8716
elektriska	8717
konventionen	8718
avlägsna	8719
ignor	8720
bandet	8721
frakt	8722
gul	8723
que	8724
​​	8725
##jon	8726
utgifter	8727
skit	8728
skid	8729
proje	8730
barnets	8731
##egång	8732
återvin	8733
ansöka	8734
fyller	8735
korrig	8736
frustr	8737
##medlem	8738
ägaren	8739
förhållandet	8740
johannes	8741
praktik	8742
djupa	8743
banker	8744
förberedel	8745
white	8746
strategiska	8747
vågar	8748
fadern	8749
fundera	8750
##skridande	8751
förebygga	8752
[-]	8753
59	8754
:-	8755
call	8756
lott	8757
nan	8758
##work	8759
##60	8760
dead	8761
##isch	8762
påmin	8763
varning	8764
skar	8765
uppträ	8766
trag	8767
välbef	8768
##jänsten	8769
frågorna	8770
final	8771
verkligt	8772
prev	8773
##prov	8774
staterna	8775
health	8776
good	8777
ansvaret	8778
##spris	8779
1998	8780
automatis	8781
found	8782
bostäder	8783
dubbla	8784
insåg	8785
fiender	8786
påminner	8787
diskriminering	8788
rakt	8789
##dda	8790
##bank	8791
stycket	8792
anteck	8793
sko	8794
##lista	8795
minoritet	8796
överv	8797
##bby	8798
slump	8799
##ändan	8800
##opt	8801
check	8802
möjligen	8803
slutför	8804
##gräns	8805
rosa	8806
snäll	8807
färgen	8808
tekniskt	8809
##abol	8810
landskap	8811
intill	8812
berättelsen	8813
politiken	8814
delarna	8815
skyldighet	8816
utformad	8817
väntade	8818
elektronisk	8819
##organisation	8820
försiktig	8821
albumet	8822
journalist	8823
vardags	8824
avslöjar	8825
##sfullt	8826
återförsäljare	8827
54	8828
700	8829
bing	8830
cla	8831
ic	8832
lamp	8833
ris	8834
öga	8835
##tur	8836
##mus	8837
##ttio	8838
förkort	8839
##edi	8840
tillväg	8841
front	8842
utse	8843
kanad	8844
splitt	8845
##steknik	8846
flu	8847
mellanö	8848
180	8849
träffat	8850
punkterna	8851
integration	8852
registrerade	8853
arbetsgiv	8854
##skrav	8855
presenteras	8856
resurs	8857
förekommande	8858
return	8859
publiken	8860
scenen	8861
rekord	8862
sorts	8863
falska	8864
beläget	8865
mobiltelefon	8866
tillkännag	8867
--	8868
mys	8869
ökande	8870
”)	8871
##och	8872
##häng	8873
##hamn	8874
##fund	8875
##cing	8876
##stitut	8877
stick	8878
anfall	8879
bestående	8880
manch	8881
vilda	8882
##gien	8883
slutändan	8884
dire	8885
hittas	8886
långsam	8887
kompens	8888
forskningen	8889
turister	8890
##etten	8891
kvinnors	8892
blodtryck	8893
integrerad	8894
populärt	8895
foss	8896
försvann	8897
##marknad	8898
exakta	8899
föreskrivs	8900
entreprenör	8901
cle	8902
clin	8903
gissa	8904
lam	8905
rand	8906
##kro	8907
##fest	8908
##ått	8909
from	8910
##stall	8911
##umul	8912
extern	8913
##ifest	8914
register	8915
##åldern	8916
kompat	8917
familjemedlem	8918
rapportera	8919
##elset	8920
tempel	8921
förälder	8922
ovanligt	8923
rikedom	8924
presidenten	8925
##skottet	8926
vaknar	8927
konvention	8928
kejs	8929
afghanistan	8930
innefattar	8931
abraham	8932
dras	8933
ryggen	8934
##made	8935
##ean	8936
##ekonom	8937
##ding	8938
##bc	8939
##intr	8940
##atori	8941
##agång	8942
##natt	8943
##ktighet	8944
kanaler	8945
##skaff	8946
årtion	8947
hong	8948
##ektorn	8949
tyder	8950
läkaren	8951
##komsten	8952
lyft	8953
utbildningen	8954
betalningar	8955
assoc	8956
1980	8957
konflikter	8958
##programmet	8959
önskan	8960
västra	8961
illustr	8962
##gjor	8963
naz	8964
gatan	8965
##örjning	8966
fabrik	8967
reflekt	8968
advokat	8969
inbegrip	8970
sevärdheter	8971
beslutsfatt	8972
ai	8973
cont	8974
iak	8975
nak	8976
ära	8977
dep	8978
tilläg	8979
såhär	8980
progress	8981
överflöd	8982
förbru	8983
##gås	8984
konsult	8985
djuren	8986
biologiska	8987
föreslag	8988
##bolaget	8989
grönsaker	8990
works	8991
lagstiftningen	8992
pojke	8993
galler	8994
östra	8995
fågel	8996
soldater	8997
kim	8998
ost	8999
pek	9000
##ku	9001
##yper	9002
##bed	9003
##cle	9004
##stor	9005
##aden	9006
skickade	9007
resp	9008
inomhus	9009
slutliga	9010
verkställande	9011
lögn	9012
##rätten	9013
##vägen	9014
comp	9015
news	9016
##behör	9017
feed	9018
uppnås	9019
känsliga	9020
rapporterar	9021
what	9022
malmö	9023
multi	9024
bund	9025
gri	9026
##kultur	9027
##öden	9028
##alet	9029
##itz	9030
try	9031
blind	9032
tvätta	9033
chic	9034
##trans	9035
mary	9036
konstitut	9037
mynt	9038
##ipul	9039
##datum	9040
rykte	9041
bekant	9042
medelhav	9043
gammalt	9044
placeras	9045
prestation	9046
sällskap	9047
räknar	9048
underhållning	9049
knappast	9050
distribu	9051
akademiska	9052
kasinon	9053
lägenheter	9054
näringsl	9055
garanti	9056
ätit	9057
bollen	9058
fritid	9059
cigare	9060
danska	9061
ifall	9062
lopp	9063
mog	9064
njur	9065
##äver	9066
inhem	9067
avvik	9068
vild	9069
stig	9070
proport	9071
minister	9072
##skatta	9073
helige	9074
bilda	9075
studio	9076
flytande	9077
betydelsen	9078
##oriter	9079
compan	9080
rådgivning	9081
kroppens	9082
minskade	9083
tänkande	9084
dokumenter	9085
food	9086
demokratiska	9087
läggs	9088
##sprocess	9089
recensioner	9090
##play	9091
ecb	9092
ansträngningar	9093
rekommendationer	9094
##sprodukter	9095
hindrar	9096
agerar	9097
##service	9098
")	9099
"?	9100
bat	9101
hp	9102
lut	9103
mix	9104
with	9105
##iro	9106
##äppen	9107
##sg	9108
##fel	9109
##__	9110
##strä	9111
##ati	9112
städ	9113
##nderna	9114
##ulära	9115
beteck	9116
##ktionerna	9117
##berätt	9118
##ifik	9119
road	9120
##sbas	9121
##sbes	9122
hörn	9123
samarbetar	9124
etn	9125
föreningen	9126
sjuka	9127
toler	9128
##skontroll	9129
realtid	9130
skratta	9131
existens	9132
kopia	9133
velat	9134
homosex	9135
mellanöstern	9136
byrån	9137
fund	9138
mam	9139
over	9140
ran	9141
tes	9142
ögat	9143
##omer	9144
meditation	9145
fry	9146
##dera	9147
##ike	9148
##förhållanden	9149
##usen	9150
plug	9151
dels	9152
deltog	9153
självför	9154
##kläder	9155
sänka	9156
principen	9157
dubbelt	9158
kategor	9159
planeten	9160
gymnas	9161
välsign	9162
rabatt	9163
alternativa	9164
inbegripet	9165
sön	9166
##car	9167
##omi	9168
ensamma	9169
##ätte	9170
upplys	9171
härligt	9172
may	9173
roule	9174
antik	9175
historiskt	9176
kortet	9177
korru	9178
tränare	9179
johan	9180
praktisk	9181
dörrar	9182
kalorier	9183
tillverkar	9184
##ammation	9185
reserver	9186
bekräfta	9187
rymden	9188
önskemål	9189
##gjort	9190
infektioner	9191
##edagog	9192
erkännande	9193
överlevnad	9194
how	9195
kard	9196
py	9197
ten	9198
##ou	9199
##ety	9200
##oler	9201
överhuvud	9202
##slan	9203
delade	9204
1900	9205
viktminskning	9206
hållbart	9207
långvar	9208
kallat	9209
##sstrat	9210
direktivet	9211
dödade	9212
dödsfall	9213
##ismens	9214
finansiell	9215
##gått	9216
miljöer	9217
medlemsstaternas	9218
magnet	9219
1996	9220
mörk	9221
sonen	9222
försäljnings	9223
enskild	9224
källan	9225
akut	9226
övertygad	9227
skjuta	9228
profeten	9229
##design	9230
bull	9231
bomb	9232
fro	9233
kak	9234
kämp	9235
öd	9236
##sma	9237
##disk	9238
##bro	9239
##strat	9240
##amet	9241
såvida	9242
##iskop	9243
meningen	9244
##last	9245
manifest	9246
##stekn	9247
åriga	9248
årligen	9249
##ighets	9250
domare	9251
skrivbord	9252
händelsen	9253
temat	9254
nämnda	9255
handels	9256
kopplade	9257
meddelade	9258
##itering	9259
##marknaden	9260
institution	9261
1970	9262
##innehåll	9263
museet	9264
städerna	9265
konsekvent	9266
hölls	9267
##trädande	9268
francis	9269
pojkvän	9270
tvärtom	9271
damm	9272
dvd	9273
fond	9274
pir	9275
rat	9276
riv	9277
##kult	9278
##hast	9279
##bal	9280
##vi	9281
##text	9282
vibr	9283
##day	9284
närmar	9285
hanteras	9286
brister	9287
##kons	9288
inner	9289
vägrar	9290
kraften	9291
onsdag	9292
medlemmarna	9293
musikal	9294
intäkter	9295
indirekt	9296
access	9297
##central	9298
värdefulla	9299
pappers	9300
vetenskaplig	9301
medvetenhet	9302
phot	9303
förväntade	9304
fjärr	9305
butiken	9306
##sprogrammet	9307
munnen	9308
panel	9309
sortiment	9310
skilsmäss	9311
kontinuerligt	9312
tillvägagång	9313
jim	9314
mom	9315
mess	9316
pic	9317
##usk	9318
##vern	9319
beställa	9320
prin	9321
visum	9322
plat	9323
besvik	9324
kryss	9325
##partem	9326
söta	9327
möjligheterna	9328
jac	9329
##givande	9330
transpar	9331
främjar	9332
postadress	9333
köpare	9334
utföras	9335
roman	9336
hyper	9337
publicerade	9338
läkemed	9339
##sidor	9340
expans	9341
ambition	9342
satan	9343
huvudsakligen	9344
##ebra	9345
##motor	9346
pilot	9347
republik	9348
vägledning	9349
tisdag	9350
prenumer	9351
välbefinnande	9352
("	9353
cm	9354
put	9355
sund	9356
work	9357
##ega	9358
##fen	9359
##ben	9360
##ttill	9361
##oro	9362
skam	9363
arbetare	9364
bron	9365
leka	9366
##sättnings	9367
filter	9368
parall	9369
189	9370
olymp	9371
rådgivare	9372
magiska	9373
1997	9374
monster	9375
glömde	9376
vetenskapen	9377
inbör	9378
produceras	9379
gold	9380
civilis	9381
enastående	9382
##panel	9383
festival	9384
certifikat	9385
sjunga	9386
vegas	9387
företräd	9388
##upplevelse	9389
##analys	9390
förluster	9391
frigör	9392
tillvägagångssätt	9393
72	9394
cup	9395
vakt	9396
##ked	9397
##jö	9398
##gel	9399
##fot	9400
##ble	9401
##båt	9402
##väst	9403
##enheter	9404
enter	9405
deklar	9406
skrä	9407
klätt	9408
grundare	9409
annanstans	9410
##handlingar	9411
bokning	9412
##läggningar	9413
rörelsen	9414
orsakas	9415
styrkor	9416
toal	9417
missför	9418
kristi	9419
publiceras	9420
förfölj	9421
utgöra	9422
tillverka	9423
stabilitet	9424
sjukhuset	9425
##odeller	9426
##sperioden	9427
implementer	9428
beträffande	9429
gitarr	9430
gd	9431
räck	9432
vr	9433
##enda	9434
##ony	9435
##aming	9436
##rester	9437
skräck	9438
skräd	9439
uppfin	9440
##vända	9441
trender	9442
##beth	9443
kvad	9444
che	9445
hemliga	9446
sound	9447
medlemskap	9448
fastigheter	9449
riskerna	9450
##iviteter	9451
ägde	9452
bildar	9453
betalnings	9454
genomföras	9455
märker	9456
bloggar	9457
kolum	9458
banken	9459
bush	9460
flickvän	9461
slapp	9462
jackp	9463
underlätt	9464
nyhetsb	9465
funnit	9466
förvånad	9467
divis	9468
ukraina	9469
association	9470
,”	9471
kid	9472
kyck	9473
lt	9474
##ima	9475
##kun	9476
##dy	9477
##dam	9478
##ywood	9479
##lle	9480
##ismer	9481
##emi	9482
utsk	9483
utfär	9484
minskat	9485
eric	9486
taket	9487
##tida	9488
poly	9489
##bror	9490
##verkare	9491
älsk	9492
rötter	9493
radi	9494
##alisera	9495
knä	9496
stannade	9497
protest	9498
drabbade	9499
enklaste	9500
anpassade	9501
väntat	9502
##konto	9503
orsakerna	9504
skulder	9505
programvaran	9506
uppmuntrar	9507
##partement	9508
67	9509
lant	9510
##si	9511
##onn	9512
stero	9513
##terad	9514
skade	9515
därigenom	9516
##paket	9517
klä	9518
klaga	9519
##ydde	9520
talat	9521
drycker	9522
##lines	9523
ställs	9524
##sindu	9525
patien	9526
funktionsh	9527
##centrum	9528
mörkret	9529
optimer	9530
##film	9531
okänd	9532
välkomnar	9533
satell	9534
återvänder	9535
inlär	9536
##meddelanden	9537
reagerar	9538
skrämmande	9539
kreativitet	9540
omdömen	9541
manchester	9542
ah	9543
bond	9544
pdf	9545
##tio	9546
##tjänst	9547
##sor	9548
##supp	9549
##dade	9550
##fo	9551
##bul	9552
##cast	9553
##tterna	9554
##stin	9555
##start	9556
viet	9557
victor	9558
måla	9559
##cia	9560
##cif	9561
beseg	9562
smuts	9563
##pten	9564
intryck	9565
flyger	9566
european	9567
syns	9568
publicera	9569
områdena	9570
logga	9571
försvinna	9572
itu	9573
airport	9574
ipad	9575
gränsöver	9576
##jukdomar	9577
##familj	9578
upprepade	9579
previous	9580
88	9581
jak	9582
tör	9583
vm	9584
vul	9585
##ua	9586
##dig	9587
##stora	9588
inje	9589
##iserat	9590
##roll	9591
präg	9592
krypt	9593
löfte	9594
väggen	9595
##ledning	9596
##ibel	9597
coach	9598
##sfor	9599
##shus	9600
skyddas	9601
paus	9602
industr	9603
portfölj	9604
distrikt	9605
matcher	9606
institutet	9607
teamet	9608
administration	9609
glasögon	9610
##baserad	9611
hänger	9612
multip	9613
entus	9614
flexibilitet	9615
leksaker	9616
biblioteket	9617
terape	9618
##flykt	9619
66	9620
fer	9621
ound	9622
squ	9623
tät	9624
vo	9625
##to	9626
##gilt	9627
##don	9628
##xor	9629
stiger	9630
utställningen	9631
årig	9632
visdom	9633
livstid	9634
lagra	9635
locka	9636
planerade	9637
##ämpning	9638
önskade	9639
interag	9640
blods	9641
besökt	9642
##produkt	9643
volym	9644
johnson	9645
ringer	9646
simul	9647
tillhörande	9648
auto	9649
fylld	9650
gradvis	9651
muslimska	9652
katolska	9653
konsumtion	9654
feedback	9655
dölja	9656
kull	9657
morm	9658
mäss	9659
oft	9660
santa	9661
ug	9662
##ous	9663
##but	9664
##öva	9665
##tten	9666
förhandling	9667
##sklass	9668
arch	9669
fac	9670
resort	9671
kommand	9672
chock	9673
##enterna	9674
löser	9675
##iew	9676
rolig	9677
långiv	9678
##uppgift	9679
besluta	9680
förbättringar	9681
nätverks	9682
skapades	9683
fiende	9684
böckerna	9685
kontrollen	9686
bevisa	9687
canna	9688
ekosystem	9689
rutin	9690
blackjack	9691
fältet	9692
palestin	9693
angeles	9694
arranger	9695
djäv	9696
avsevärt	9697
borg	9698
eeg	9699
låd	9700
piz	9701
tat	9702
wa	9703
water	9704
wild	9705
##landet	9706
##jt	9707
##fram	9708
##ergi	9709
##kal	9710
dun	9711
skyl	9712
##skilj	9713
##sse	9714
prolet	9715
armen	9716
trycka	9717
##rimer	9718
alltmer	9719
synder	9720
##komp	9721
gren	9722
återbetalning	9723
återspeg	9724
robin	9725
trapp	9726
fullkom	9727
statens	9728
info	9729
sjuksköter	9730
##bildning	9731
count	9732
##vägar	9733
oliv	9734
##board	9735
belysning	9736
ägs	9737
##färg	9738
halva	9739
1995	9740
nämna	9741
åldern	9742
uppdateringar	9743
dyker	9744
institutionen	9745
kronisk	9746
behörighet	9747
##följande	9748
pojkar	9749
jättebra	9750
bekväma	9751
djupare	9752
gråta	9753
firar	9754
campus	9755
diskussion	9756
huvudstaden	9757
mästare	9758
rengöring	9759
helsingfors	9760
cli	9761
card	9762
hekt	9763
kok	9764
ms	9765
rak	9766
tend	9767
well	9768
##di	9769
påven	9770
stjäl	9771
skug	9772
##utsl	9773
spot	9774
manipul	9775
heltid	9776
eröv	9777
finlands	9778
ledningen	9779
återstår	9780
upplevt	9781
primär	9782
golvet	9783
parken	9784
omedelbar	9785
utformade	9786
fullständiga	9787
jätte	9788
charles	9789
hänga	9790
spenderar	9791
förbjudet	9792
##spartners	9793
enormt	9794
arbetstagare	9795
tjock	9796
##böcker	9797
sydafrika	9798
company	9799
patienterna	9800
vietnam	9801
58	9802
900	9803
cur	9804
gla	9805
katten	9806
mans	9807
pian	9808
pedagog	9809
torn	9810
##mh	9811
##fre	9812
##bla	9813
##cus	9814
##40	9815
fördela	9816
##ningens	9817
övergrepp	9818
konung	9819
##okument	9820
##vision	9821
saint	9822
finska	9823
produktivitet	9824
##prom	9825
marina	9826
förbättras	9827
comm	9828
förvån	9829
mediciner	9830
tydligen	9831
utmanande	9832
##ferenser	9833
##grad	9834
humor	9835
modifier	9836
salu	9837
växthus	9838
##odell	9839
österrike	9840
madrid	9841
virtuella	9842
tjugo	9843
olagligt	9844
utgångspunkt	9845
gudomliga	9846
##glöm	9847
skräddar	9848
"-	9849
01	9850
56	9851
bott	9852
les	9853
long	9854
njuter	9855
xbox	9856
ye	9857
##uma	9858
##jön	9859
äro	9860
frist	9861
utsatta	9862
##dap	9863
##varna	9864
manus	9865
fakult	9866
##ierat	9867
rättegång	9868
liter	9869
rörlighet	9870
konsol	9871
konsul	9872
1994	9873
förutsatt	9874
födda	9875
publicerades	9876
lyckligtvis	9877
uppdaterad	9878
stänger	9879
israeliska	9880
kritiska	9881
varumärket	9882
argent	9883
regeringens	9884
motståndare	9885
introduktion	9886
koncentration	9887
resulterar	9888
bränsl	9889
mexiko	9890
exklusiva	9891
ojäm	9892
brasilien	9893
favoriter	9894
##flix	9895
57	9896
clar	9897
ekv	9898
gig	9899
mp	9900
norden	9901
pod	9902
##itera	9903
##rorna	9904
##ye	9905
##ygen	9906
##vad	9907
##viken	9908
##12	9909
##raff	9910
##verkar	9911
uppåt	9912
späd	9913
##slin	9914
motorn	9915
bränn	9916
...”	9917
säkr	9918
nick	9919
ansö	9920
##äkra	9921
place	9922
organisera	9923
1800	9924
centre	9925
medlemsstaten	9926
kundens	9927
irriter	9928
cyber	9929
kontoret	9930
etablerade	9931
netflix	9932
ängel	9933
humanit	9934
##kommit	9935
församling	9936
bistånd	9937
##känsla	9938
oundvik	9939
cast	9940
len	9941
puss	9942
sall	9943
##sar	9944
##jk	9945
##eto	9946
##eten	9947
stro	9948
varia	9949
ankn	9950
##lipp	9951
##ulen	9952
blin	9953
bered	9954
användbara	9955
klasser	9956
saud	9957
hemsidan	9958
##aktiva	9959
laga	9960
trop	9961
vände	9962
##proc	9963
husdjur	9964
sidorna	9965
samhälls	9966
tillgången	9967
scott	9968
färdiga	9969
golv	9970
disney	9971
tillverkas	9972
energin	9973
smartphone	9974
syndrom	9975
festiv	9976
kusten	9977
##priset	9978
kampanjer	9979
erkänner	9980
intensiv	9981
presentation	9982
förfarandet	9983
uppehåll	9984
##koppling	9985
filosofi	9986
ledamöter	9987
primära	9988
antibiotika	9989
tillträde	9990
cbd	9991
roulette	9992
överhuvudtaget	9993
kvadrat	9994
oftare	9995
53	9996
down	9997
lade	9998
nas	9999
##gs	10000
##igr	10001
##atorer	10002
ärlig	10003
avdelning	10004
##teringen	10005
utbr	10006
skör	10007
skru	10008
##unna	10009
##utrustning	10010
##otyp	10011
minnet	10012
sams	10013
tri	10014
##ffs	10015
härliga	10016
blott	10017
syften	10018
##värk	10019
vänlig	10020
intet	10021
##snät	10022
rörande	10023
byggde	10024
dödar	10025
koranen	10026
övning	10027
guid	10028
line	10029
kulturer	10030
utmaningen	10031
redovisning	10032
föräldra	10033
chefer	10034
autent	10035
vaknade	10036
stockholms	10037
##slösningar	10038
skandinav	10039
säkrare	10040
gum	10041
kyss	10042
vandra	10043
way	10044
##tän	10045
##männ	10046
##mäst	10047
##eum	10048
##åda	10049
##strar	10050
##städer	10051
##onen	10052
tilltal	10053
stjärna	10054
ankomst	10055
skapel	10056
menade	10057
tall	10058
slots	10059
framställ	10060
framgår	10061
berä	10062
sakta	10063
verkan	10064
filen	10065
relationen	10066
dröj	10067
hänvisar	10068
jobbat	10069
sexuellt	10070
framtidens	10071
märkt	10072
undviker	10073
bitar	10074
who	10075
judarna	10076
##börd	10077
singel	10078
klinisk	10079
tidpunkten	10080
företrä	10081
häft	10082
##fartyg	10083
granskning	10084
sällsynta	10085
avkastning	10086
foundation	10087
ib	10088
jas	10089
jos	10090
kogn	10091
mut	10092
sor	10093
svän	10094
sir	10095
##az	10096
##arden	10097
##ores	10098
ärligt	10099
##änningar	10100
avst	10101
avbry	10102
##tell	10103
varenda	10104
prognos	10105
spänning	10106
##takt	10107
manliga	10108
##sekonom	10109
##ime	10110
välgör	10111
brid	10112
barnens	10113
tales	10114
skriven	10115
planerat	10116
##dröm	10117
tox	10118
fixa	10119
kontrolleras	10120
definieras	10121
law	10122
anställning	10123
sände	10124
potentiellt	10125
bredare	10126
administrat	10127
##partiet	10128
maximal	10129
ljudet	10130
utvecklare	10131
skyldiga	10132
flickan	10133
plattformar	10134
godkända	10135
##kapital	10136
utredning	10137
texter	10138
kyrkans	10139
tunnel	10140
redigera	10141
matematik	10142
operativsystem	10143
återhämtning	10144
bob	10145
ded	10146
if	10147
ker	10148
öarna	10149
##mån	10150
##moder	10151
##light	10152
utnäm	10153
##sked	10154
hant	10155
##varon	10156
efterlev	10157
nyår	10158
##perio	10159
leende	10160
##smän	10161
högra	10162
gåvor	10163
proced	10164
spekul	10165
komposit	10166
music	10167
##sbygg	10168
book	10169
intu	10170
she	10171
##ipend	10172
188	10173
radika	10174
kulturen	10175
##försvar	10176
medelstora	10177
ovanstående	10178
logistik	10179
engelsk	10180
kinas	10181
hästen	10182
regional	10183
premium	10184
plattformen	10185
båten	10186
upprepa	10187
##sledande	10188
bakgrunden	10189
konferensen	10190
palestinska	10191
secur	10192
slottet	10193
taxi	10194
chicago	10195
ödm	10196
''	10197
(”	10198
cru	10199
cry	10200
gall	10201
nätter	10202
ped	10203
pel	10204
”?	10205
##oven	10206
##läng	10207
##ball	10208
##erv	10209
##ines	10210
förde	10211
entr	10212
##raft	10213
tillbehör	10214
##amer	10215
anlit	10216
sektor	10217
##ygien	10218
värda	10219
slit	10220
##iktion	10221
alumin	10222
väcka	10223
lög	10224
##ikern	10225
amerikaner	10226
##beller	10227
värdepa	10228
videor	10229
fysik	10230
handeln	10231
##byte	10232
##företaget	10233
uppenbara	10234
utvecklades	10235
##pool	10236
donald	10237
dotterbolag	10238
antagligen	10239
närmast	10240
anmälan	10241
scient	10242
ränta	10243
mjukvar	10244
måltider	10245
space	10246
passerar	10247
skedde	10248
gränsöverskridande	10249
citer	10250
edu	10251
elev	10252
tob	10253
##ova	10254
##sarbete	10255
##yra	10256
##atörer	10257
desp	10258
##eman	10259
##älsa	10260
skän	10261
##lekar	10262
##spla	10263
ext	10264
tvung	10265
##gressen	10266
störningar	10267
filipp	10268
webben	10269
loss	10270
stränder	10271
konsten	10272
grafik	10273
##given	10274
kaos	10275
ytterst	10276
sjätte	10277
hälsan	10278
linjer	10279
##ässig	10280
koppling	10281
eviga	10282
respektera	10283
brotts	10284
carol	10285
rapporterade	10286
billigt	10287
##organisationen	10288
fängsl	10289
definitionen	10290
positioner	10291
kandidater	10292
dyrt	10293
änglar	10294
expertis	10295
samsung	10296
bif	10297
ce	10298
key	10299
likt	10300
osv	10301
river	10302
##ute	10303
##rin	10304
##fé	10305
##stil	10306
##eliga	10307
##ssäkerhet	10308
upply	10309
##ämning	10310
konvers	10311
blöd	10312
chatt	10313
aktuell	10314
head	10315
steve	10316
eleg	10317
byggd	10318
##lycka	10319
dagars	10320
veckorna	10321
benägna	10322
förbättrad	10323
upplevelsen	10324
avslutas	10325
förfly	10326
kungliga	10327
godkänner	10328
graviditeten	10329
365	10330
##delserna	10331
dosen	10332
kollektivt	10333
överenskommelse	10334
florida	10335
%)	10336
>>	10337
asp	10338
cop	10339
cloud	10340
kub	10341
lake	10342
ri	10343
wood	10344
yt	10345
##igger	10346
fördrag	10347
##enser	10348
spök	10349
samlade	10350
##ripa	10351
plant	10352
##lighetens	10353
handlare	10354
##api	10355
löften	10356
vanor	10357
exemp	10358
invas	10359
obegräns	10360
önska	10361
bildas	10362
bildades	10363
erfarna	10364
föresk	10365
drömmen	10366
agent	10367
termer	10368
känslig	10369
tomt	10370
julen	10371
mäklare	10372
slåss	10373
##gjorde	10374
anläggningen	10375
tystnad	10376
utsö	10377
kabel	10378
upptagen	10379
sammanlagt	10380
söner	10381
ash	10382
dop	10383
host	10384
lund	10385
lys	10386
mätt	10387
mala	10388
night	10389
oskyld	10390
rod	10391
set	10392
sop	10393
##vag	10394
##cs	10395
föraren	10396
##edig	10397
##alin	10398
variera	10399
utspel	10400
utbetal	10401
##urgi	10402
##skort	10403
##delningar	10404
besviken	10405
producent	10406
moun	10407
antas	10408
snygga	10409
ställde	10410
myt	10411
yttersta	10412
energieffekt	10413
kropps	10414
regeringar	10415
tränar	10416
evolution	10417
restaurangen	10418
kosta	10419
broder	10420
individuellt	10421
strategisk	10422
##skola	10423
beräkna	10424
recension	10425
korrekta	10426
föredrag	10427
gränserna	10428
östers	10429
förhandlingar	10430
långsiktigt	10431
inträffade	10432
slutsatsen	10433
flexibla	10434
ackred	10435
services	10436
veterinär	10437
##födda	10438
kalender	10439
##skostnader	10440
aluminium	10441
ked	10442
nar	10443
nark	10444
nationer	10445
old	10446
olycka	10447
pär	10448
piller	10449
rost	10450
äpp	10451
åtal	10452
##nation	10453
##fång	10454
##ttar	10455
##stan	10456
##atör	10457
##ktorer	10458
##itiva	10459
inteck	10460
##ils	10461
##otiska	10462
mini	10463
##istiken	10464
##räkt	10465
fortsatta	10466
svett	10467
paret	10468
klickar	10469
##sinformation	10470
affären	10471
fiber	10472
omfattning	10473
miljövän	10474
jordb	10475
distans	10476
vuxit	10477
förbered	10478
bryssel	10479
##vården	10480
asi	10481
återvände	10482
##befolk	10483
principerna	10484
självständighet	10485
hollywood	10486
dimension	10487
##eleverant	10488
förbehåller	10489
workshop	10490
hop	10491
kla	10492
ll	10493
##ew	10494
##hy	10495
##bana	10496
##agon	10497
##iseringen	10498
##olf	10499
uppror	10500
uppgiften	10501
uppskatta	10502
##ämm	10503
##inns	10504
fläck	10505
flash	10506
prom	10507
##eställ	10508
blad	10509
verifier	10510
beskatt	10511
liby	10512
##ative	10513
verkställ	10514
störst	10515
##domen	10516
valda	10517
##sförs	10518
fire	10519
övningar	10520
cyk	10521
drömmer	10522
medvetet	10523
utmärkta	10524
volont	10525
upprätta	10526
1960	10527
armén	10528
kärnkraft	10529
detaljerad	10530
manager	10531
konsekvenserna	10532
rekommendation	10533
invandrare	10534
väsentliga	10535
##läkare	10536
kanadens	10537
bens	10538
böj	10539
bjuder	10540
jung	10541
torg	10542
##kär	10543
##osa	10544
##otta	10545
##bers	10546
##com	10547
##arter	10548
def	10549
##ame	10550
omsättning	10551
skära	10552
##sken	10553
##anslut	10554
##isteriet	10555
prag	10556
slaget	10557
tvill	10558
framöver	10559
användbar	10560
krisen	10561
##irus	10562
##bilda	10563
##smetoder	10564
trovärd	10565
metabol	10566
huvudkontor	10567
hjärts	10568
gratt	10569
poster	10570
indiska	10571
belast	10572
samhällets	10573
körde	10574
fungerande	10575
klassen	10576
hälsov	10577
linjen	10578
begränsas	10579
kyrkor	10580
medvetande	10581
normer	10582
meddelandet	10583
sända	10584
klimatet	10585
strukturer	10586
regelbunden	10587
godkänt	10588
stjärnorna	10589
attacker	10590
batterier	10591
##ville	10592
journalister	10593
mental	10594
konserv	10595
mjukvara	10596
sekretes	10597
tolkning	10598
spektrum	10599
tredjeland	10600
bindande	10601
96	10602
hi	10603
litt	10604
mov	10605
pak	10606
ration	10607
tyg	10608
tang	10609
##kron	10610
##nare	10611
##bid	10612
##stäver	10613
enz	10614
##illkor	10615
##ktligen	10616
stiga	10617
omröst	10618
utställning	10619
##ättningen	10620
bestånd	10621
närliggande	10622
därav	10623
express	10624
##igaste	10625
plån	10626
story	10627
läkar	10628
##formen	10629
##smiljö	10630
##gren	10631
troligt	10632
artister	10633
gilla	10634
tredjedel	10635
magen	10636
privil	10637
##byrå	10638
mörker	10639
levnad	10640
##punkten	10641
socialdemokrat	10642
tjeck	10643
aktivera	10644
industriella	10645
vittnen	10646
energik	10647
##besök	10648
##personer	10649
veget	10650
intelligent	10651
##nämnda	10652
möjliggöra	10653
explos	10654
svärd	10655
flexibel	10656
sysselsättning	10657
eftermiddagen	10658
åstadkomma	10659
tatu	10660
jordbäv	10661
?)	10662
fönstret	10663
rog	10664
session	10665
##lär	10666
##cin	10667
##cation	10668
##row	10669
skild	10670
seo	10671
tidning	10672
##sländer	10673
##che	10674
##chen	10675
fåtal	10676
..."	10677
##egier	10678
mose	10679
##klubb	10680
matlag	10681
alt	10682
##knat	10683
##bai	10684
löper	10685
##obe	10686
sökte	10687
indian	10688
touch	10689
tredjepart	10690
designer	10691
1993	10692
rekommenderade	10693
simma	10694
tillverkaren	10695
bedömningen	10696
dansa	10697
insulin	10698
separata	10699
maskinen	10700
fukt	10701
kommersiell	10702
##påverkan	10703
spridning	10704
signaler	10705
representant	10706
fartyget	10707
rimlig	10708
konceptet	10709
åldrar	10710
teorin	10711
näringsämnen	10712
##spolitik	10713
inblandade	10714
##hjälp	10715
louis	10716
tennis	10717
molekyl	10718
##gjorda	10719
=)	10720
galen	10721
loppet	10722
##hs	10723
##ymen	10724
##vt	10725
förplikt	10726
##ray	10727
strikt	10728
stipend	10729
anlän	10730
uppför	10731
översv	10732
övervikt	10733
nybörj	10734
##gerliga	10735
välfärd	10736
lee	10737
högtal	10738
handlade	10739
trettio	10740
talang	10741
add	10742
##sbolag	10743
emellan	10744
stadium	10745
bokstäver	10746
partier	10747
stödet	10748
beslutat	10749
flygbolag	10750
186	10751
typiskt	10752
läsning	10753
##oney	10754
mega	10755
gula	10756
##spelet	10757
benen	10758
släppt	10759
nordkorea	10760
traditioner	10761
följaktligen	10762
rapportering	10763
pekar	10764
ringde	10765
tillverkade	10766
##schef	10767
engagera	10768
chefen	10769
utnyttjar	10770
anpassning	10771
effektivare	10772
##paciteten	10773
religiös	10774
förmåner	10775
sinnen	10776
atmosfären	10777
hypote	10778
sammanfattning	10779
livslängd	10780
inhemska	10781
62	10782
77	10783
98	10784
],	10785
ef	10786
get	10787
givit	10788
wifi	10789
zo	10790
##ji	10791
##jort	10792
##onger	10793
##atorn	10794
##tech	10795
medie	10796
stack	10797
ansluter	10798
##hets	10799
##iket	10800
uppgick	10801
##förvalt	10802
sper	10803
report	10804
underliggande	10805
##icin	10806
härrör	10807
vert	10808
##dubb	10809
##blå	10810
kontant	10811
återv	10812
faktur	10813
emp	10814
snabbaste	10815
direkta	10816
möts	10817
farma	10818
##fallet	10819
bubb	10820
starten	10821
hero	10822
himla	10823
vinnande	10824
class	10825
juridisk	10826
rutiner	10827
klagar	10828
##spartner	10829
federala	10830
tilldelas	10831
klimatförändringar	10832
lugna	10833
##gorit	10834
resenärer	10835
läkemedlet	10836
gdpr	10837
grattis	10838
63	10839
biskop	10840
gb	10841
ki	10842
mcc	10843
ov	10844
pick	10845
ving	10846
vpn	10847
wars	10848
yng	10849
##ace	10850
##field	10851
ocean	10852
meddelar	10853
densamma	10854
komprom	10855
allas	10856
samverkan	10857
översikt	10858
##stein	10859
anden	10860
värmen	10861
välkända	10862
själar	10863
kommentera	10864
##konstru	10865
artist	10866
##domar	10867
vinden	10868
skrivet	10869
##sstäm	10870
strider	10871
kross	10872
nedladd	10873
rumän	10874
klassisk	10875
mission	10876
släppte	10877
traditionellt	10878
förändringen	10879
importer	10880
vackraste	10881
autonom	10882
epis	10883
brittisk	10884
kostnadseffekt	10885
##stillfäll	10886
föreställa	10887
##skommitt	10888
jones	10889
konsert	10890
smärtan	10891
olyckor	10892
diskussioner	10893
inriktning	10894
helvetet	10895
uppvärmning	10896
lojalitet	10897
68	10898
cash	10899
iron	10900
osyn	10901
##kelse	10902
##må	10903
##mit	10904
##närer	10905
##rans	10906
##hur	10907
##fru	10908
##11	10909
##stock	10910
inform	10911
##ager	10912
avstå	10913
##ningss	10914
##esi	10915
##ily	10916
frest	10917
fransk	10918
##lie	10919
menyn	10920
samråd	10921
överklag	10922
##spår	10923
##vakt	10924
teorier	10925
saab	10926
##sman	10927
alp	10928
kallades	10929
##kvalitet	10930
stöds	10931
##isterande	10932
litar	10933
##sons	10934
accel	10935
great	10936
##resser	10937
värdefull	10938
begränsar	10939
monument	10940
servrar	10941
definiera	10942
nordamerika	10943
termen	10944
##ights	10945
1984	10946
1989	10947
inspirerad	10948
##point	10949
armé	10950
väntas	10951
360	10952
inflammation	10953
singap	10954
identifierar	10955
anläggning	10956
bonusar	10957
omdirig	10958
##skador	10959
helvete	10960
valley	10961
påskynd	10962
tråkigt	10963
project	10964
cas	10965
dölj	10966
isa	10967
pum	10968
pump	10969
##kyl	10970
##oks	10971
##mässigt	10972
##ressen	10973
##wan	10974
##win	10975
##ory	10976
påverk	10977
##itor	10978
anne	10979
##skningar	10980
provin	10981
träng	10982
årlig	10983
hack	10984
excel	10985
tai	10986
##vakning	10987
arbetskraft	10988
människo	10989
##sättas	10990
regisser	10991
sms	10992
lux	10993
tackar	10994
justera	10995
synpunkter	10996
köpen	10997
missade	10998
nämns	10999
##staden	11000
kolhyd	11001
##alismen	11002
##träff	11003
torka	11004
strävan	11005
uttrycker	11006
fastställas	11007
extrema	11008
centralt	11009
ansökningar	11010
tillåtna	11011
chris	11012
äktenskapet	11013
uppmärksamma	11014
mentala	11015
förmågor	11016
effektiviteten	11017
felaktigt	11018
signifik	11019
andelen	11020
alexander	11021
frivilliga	11022
invandring	11023
##leverantörer	11024
överstiger	11025
technology	11026
ade	11027
bow	11028
uk	11029
åklag	11030
##kol	11031
##mt	11032
##mässiga	11033
##pnade	11034
##sters	11035
##ionell	11036
utsätts	11037
except	11038
tayl	11039
kommenter	11040
##smarknaden	11041
smör	11042
##värld	11043
mach	11044
hittades	11045
mött	11046
##sned	11047
belgien	11048
##fråga	11049
linux	11050
packa	11051
etiska	11052
tillfälliga	11053
integrera	11054
registrerar	11055
publicerat	11056
ålders	11057
##esterol	11058
brown	11059
kritisk	11060
##heimer	11061
##instrument	11062
gatorna	11063
representanter	11064
ansträngning	11065
hunger	11066
väggar	11067
laser	11068
##rapporter	11069
uppgradera	11070
fonden	11071
arrangemang	11072
wordpress	11073
ventil	11074
landsbygden	11075
flaska	11076
cn	11077
cons	11078
fut	11079
ike	11080
mi	11081
ray	11082
tam	11083
##een	11084
##lä	11085
##lopp	11086
##vest	11087
##ttor	11088
##etod	11089
##test	11090
stunder	11091
##verän	11092
sköt	11093
refer	11094
minimera	11095
arke	11096
erik	11097
##arklass	11098
brit	11099
leon	11100
personuppgift	11101
glass	11102
grill	11103
miljard	11104
##brist	11105
##sbest	11106
fastän	11107
light	11108
historier	11109
nationellt	11110
abort	11111
dödliga	11112
kaff	11113
uttag	11114
byter	11115
designen	11116
märka	11117
definierar	11118
hybrid	11119
##namnet	11120
norska	11121
stängt	11122
röstade	11123
digitalt	11124
beaktas	11125
pressmeddelande	11126
##uropa	11127
symboler	11128
temperaturen	11129
kampanjen	11130
ränte	11131
kosmet	11132
migration	11133
##brytande	11134
##släget	11135
strålning	11136
neutral	11137
mandat	11138
underlättar	11139
tvungna	11140
fit	11141
vett	11142
våga	11143
watch	11144
##äson	11145
##dd	11146
##fas	11147
##yo	11148
##vatt	11149
##stjärn	11150
avrätt	11151
##itim	11152
##iven	11153
duktig	11154
##ders	11155
##ågor	11156
##skåd	11157
##ikerna	11158
upphandling	11159
##elle	11160
##mail	11161
kong	11162
trick	11163
##estern	11164
orkar	11165
reson	11166
själen	11167
smäl	11168
grannar	11169
återbetal	11170
artific	11171
##pröv	11172
anton	11173
adop	11174
formel	11175
mötte	11176
point	11177
döds	11178
kommunen	11179
investerar	11180
skapats	11181
fungerade	11182
testet	11183
1991	11184
##svikt	11185
knut	11186
conne	11187
uppnått	11188
banan	11189
tillverkad	11190
utrustade	11191
förekomsten	11192
pojken	11193
läggas	11194
terrorism	11195
långsiktig	11196
origin	11197
##pati	11198
hamnen	11199
vandring	11200
speglar	11201
bedrägeri	11202
tjänstemän	11203
bekymmer	11204
inbörde	11205
slappna	11206
kyckling	11207
cannabis	11208
county	11209
##mhärt	11210
##perioden	11211
little	11212
83	11213
apt	11214
bn	11215
bri	11216
kus	11217
nin	11218
oön	11219
pap	11220
sud	11221
sara	11222
##tc	11223
##hyr	11224
##yser	11225
##åld	11226
##departement	11227
##ates	11228
insk	11229
##itament	11230
anspråk	11231
utru	11232
##ikationen	11233
uppger	11234
##enskt	11235
##sekret	11236
##riper	11237
##fton	11238
##spe	11239
daglig	11240
##ierande	11241
berget	11242
användbart	11243
kännas	11244
lagligt	11245
##kong	11246
troligtvis	11247
löne	11248
riktar	11249
blanda	11250
games	11251
sha	11252
shar	11253
steph	11254
folkh	11255
##sfl	11256
femton	11257
##täkt	11258
spelautom	11259
mild	11260
buff	11261
föda	11262
irr	11263
##svillkor	11264
##flyg	11265
telefonnummer	11266
##regler	11267
elektronik	11268
bidragit	11269
uttryckligen	11270
elektrisk	11271
first	11272
##nivåer	11273
belägen	11274
löpande	11275
lektioner	11276
tårar	11277
lockar	11278
åtaganden	11279
gifter	11280
nämnde	11281
inkomster	11282
anders	11283
community	11284
nobel	11285
årtionden	11286
78	11287
divers	11288
ell	11289
eder	11290
kass	11291
non	11292
run	11293
##lock	11294
##gg	11295
##fan	11296
##bandet	11297
insättning	11298
stri	11299
varorna	11300
##itiv	11301
frans	11302
utk	11303
utbilda	11304
bell	11305
skadar	11306
revid	11307
reformer	11308
överläg	11309
armar	11310
##erskap	11311
trygga	11312
##ängden	11313
##slösa	11314
##ody	11315
slot	11316
syre	11317
##ords	11318
bröt	11319
##opol	11320
##dagens	11321
hemligheter	11322
hands	11323
diagram	11324
##kondition	11325
##kontroller	11326
geor	11327
##issar	11328
ändrade	11329
löst	11330
penn	11331
abonn	11332
dödades	11333
##trol	11334
kapten	11335
justin	11336
farlig	11337
synliga	11338
##känt	11339
elektro	11340
skadad	11341
torra	11342
arbetsuppgifter	11343
##belt	11344
simon	11345
juris	11346
engagerade	11347
drabbats	11348
säljare	11349
stärker	11350
jean	11351
filmerna	11352
gästerna	11353
uppenbarligen	11354
krävde	11355
kommitté	11356
försäkra	11357
kompisar	11358
ackumul	11359
fascinerande	11360
tillsynsmynd	11361
konkreta	11362
ceremon	11363
sovjetun	11364
exemplar	11365
04	11366
gun	11367
gard	11368
ler	11369
##mann	11370
##ytt	11371
detekt	11372
stav	11373
##essa	11374
anländer	11375
skal	11376
överväl	11377
trycket	11378
tröst	11379
fair	11380
org	11381
##....	11382
tvist	11383
hjälte	11384
##önt	11385
åtanke	11386
##front	11387
platserna	11388
vana	11389
musiker	11390
intyg	11391
hörs	11392
sakna	11393
generera	11394
kollap	11395
##havaren	11396
genomfördes	11397
##sprinci	11398
förutsätter	11399
punkten	11400
ämnes	11401
eventuell	11402
hamna	11403
breda	11404
fastställts	11405
föregång	11406
mottagare	11407
hårdare	11408
kopiera	11409
incitament	11410
mätning	11411
terapi	11412
##studier	11413
joseph	11414
likadant	11415
barndom	11416
terapeut	11417
nybörjare	11418
köpenhamn	11419
taylor	11420
**	11421
dc	11422
listor	11423
sock	11424
vamp	11425
##hen	11426
##yk	11427
avdelningen	11428
tillämpar	11429
påstår	11430
##åren	11431
##ental	11432
reste	11433
barmhärt	11434
härifrån	11435
##sek	11436
syskon	11437
tvång	11438
##cium	11439
arbeten	11440
##sterdam	11441
svaga	11442
gården	11443
##sstud	11444
engine	11445
187	11446
döma	11447
fibr	11448
amsterdam	11449
missat	11450
minskad	11451
##splanen	11452
koppar	11453
automatisk	11454
folks	11455
dokumentet	11456
förfog	11457
räddade	11458
chanser	11459
bankerna	11460
gränssnitt	11461
strategin	11462
motivation	11463
apote	11464
folkets	11465
illeg	11466
båtar	11467
tåget	11468
försiktigt	11469
konkurrensen	11470
##jobb	11471
återkommer	11472
seriöst	11473
##leverantör	11474
destination	11475
disciplin	11476
respons	11477
fundament	11478
älskling	11479
heta	11480
mba	11481
porn	11482
rank	11483
##iets	11484
##ualitet	11485
##hera	11486
##hall	11487
##vade	11488
##etisk	11489
attit	11490
##oriska	11491
##orerna	11492
##esa	11493
utställningar	11494
upplag	11495
##författ	11496
rejäl	11497
aren	11498
behåller	11499
tiderna	11500
##sperson	11501
blick	11502
unger	11503
gruv	11504
##ökning	11505
kontot	11506
längden	11507
väger	11508
webbsida	11509
##sbel	11510
trail	11511
konstnärer	11512
##able	11513
förändrar	11514
america	11515
##erry	11516
##forskning	11517
magi	11518
mage	11519
alternativt	11520
##behov	11521
kunskapen	11522
respekterar	11523
operativa	11524
gärningar	11525
##ötet	11526
optimal	11527
koordin	11528
debatten	11529
##house	11530
godkänd	11531
scenar	11532
siffrorna	11533
bussen	11534
väsentligt	11535
bränna	11536
skrattar	11537
moraliska	11538
spektak	11539
tillbringa	11540
porr	11541
förhindrar	11542
mamman	11543
företrädare	11544
##splattform	11545
attityd	11546
92	11547
aer	11548
dott	11549
dys	11550
gps	11551
ml	11552
pok	11553
pix	11554
tja	11555
##iar	11556
##uck	11557
##grä	11558
##dan	11559
##viv	11560
##öda	11561
##stand	11562
##igg	11563
##aminer	11564
##skont	11565
nyheten	11566
##slöst	11567
tyng	11568
kommuna	11569
finan	11570
slutat	11571
markera	11572
vänliga	11573
##syra	11574
domen	11575
förlåta	11576
snön	11577
historisk	11578
direktör	11579
##märken	11580
växel	11581
suverän	11582
tagg	11583
##elsens	11584
##anterna	11585
linda	11586
månaders	11587
mörkt	11588
cyklar	11589
sökning	11590
skyddet	11591
luftkondition	11592
inlägget	11593
upphäv	11594
beteenden	11595
branscher	11596
hårddisk	11597
##sledare	11598
aktieägare	11599
corpor	11600
självständigt	11601
nackdelar	11602
##likhet	11603
##osteron	11604
sålde	11605
belöning	11606
liberal	11607
eftermiddag	11608
tabletter	11609
absorb	11610
hungrig	11611
föreskrifter	11612
.’	11613
79	11614
97	11615
jen	11616
pist	11617
##aa	11618
##äkta	11619
##dens	11620
##dos	11621
##xit	11622
##ania	11623
insamling	11624
##ckande	11625
##ivande	11626
sköter	11627
##ansök	11628
##äget	11629
prost	11630
kongressen	11631
nyss	11632
flod	11633
tappa	11634
personerna	11635
rättvist	11636
##ifikation	11637
klänning	11638
##bilje	11639
##klin	11640
##annan	11641
svenskt	11642
dies	11643
forex	11644
henry	11645
vägrade	11646
viner	11647
trafiken	11648
undra	11649
huvudvärk	11650
##etts	11651
##tagande	11652
lösas	11653
##höriga	11654
lokaler	11655
videos	11656
sprang	11657
föreningar	11658
lady	11659
massage	11660
intresset	11661
avslutar	11662
tillståndet	11663
tomma	11664
regleras	11665
reglering	11666
medborgarskap	11667
enskilt	11668
studerande	11669
batter	11670
doser	11671
##användare	11672
journal	11673
beloppet	11674
förlängning	11675
kosttill	11676
felaktiga	11677
venez	11678
upphöra	11679
summan	11680
uteslutande	11681
förvaring	11682
geografiska	11683
inbyggda	11684
eliminera	11685
förbindelser	11686
sköld	11687
bokstavligen	11688
självförtro	11689
kategorin	11690
jakob	11691
vulkan	11692
dedik	11693
%,	11694
foder	11695
hr	11696
möd	11697
okända	11698
”-	11699
##krig	11700
##ax	11701
##pers	11702
##hän	11703
##gol	11704
##drar	11705
##öarna	11706
##infl	11707
##teringar	11708
utgår	11709
##real	11710
##skultur	11711
##unk	11712
bestå	11713
##istens	11714
överförs	11715
##ogör	11716
##ogra	11717
sext	11718
efterfråg	11719
tappar	11720
synes	11721
brun	11722
beredda	11723
##smaterial	11724
##avtalet	11725
ego	11726
alz	11727
algorit	11728
längtar	11729
paramet	11730
förloss	11731
fastigheten	11732
landskapet	11733
kommuner	11734
körs	11735
testament	11736
miles	11737
telefoner	11738
templet	11739
skydds	11740
jordan	11741
##östra	11742
##resor	11743
terrass	11744
kalcium	11745
1986	11746
whisk	11747
##weet	11748
psykiska	11749
konkurrenter	11750
ersätter	11751
förvärva	11752
edward	11753
modernt	11754
hämtar	11755
##sprocesser	11756
lanserades	11757
vinnaren	11758
komplettera	11759
eliza	11760
omgivande	11761
segment	11762
reagera	11763
revision	11764
undersöker	11765
kontinuerlig	11766
fonder	11767
##bridge	11768
buddh	11769
mirakel	11770
skräp	11771
desperat	11772
singapore	11773
ikea	11774
71	11775
89	11776
sd	11777
yog	11778
##iod	11779
##ain	11780
##mannen	11781
##prå	11782
##jic	11783
##jöt	11784
##arv	11785
##aterna	11786
insidan	11787
##kalla	11788
##eled	11789
ombud	11790
utsidan	11791
##olen	11792
allierade	11793
##univers	11794
upprör	11795
spets	11796
minimal	11797
hann	11798
##skal	11799
läsk	11800
återvänd	11801
mah	11802
aktör	11803
rose	11804
jobbigt	11805
patri	11806
styrs	11807
##medvet	11808
bakåt	11809
##habil	11810
intervall	11811
tillämplig	11812
funktionalitet	11813
funktionsned	11814
kolesterol	11815
lyssnade	11816
uppdateras	11817
professionellt	11818
mike	11819
mångsid	11820
premier	11821
flygplatser	11822
överraskning	11823
palestina	11824
rökning	11825
##kommitt	11826
frivillig	11827
dynamiska	11828
konflikten	11829
påminn	11830
klimatförändring	11831
analytics	11832
sweden	11833
marketing	11834
drottning	11835
ultimata	11836
korruption	11837
skilsmässa	11838
putin	11839
spädbarn	11840
education	11841
mountain	11842
94	11843
bägg	11844
elden	11845
hygien	11846
pier	11847
##kant	11848
##mb	11849
##jung	11850
##kass	11851
utsett	11852
##urch	11853
uppdel	11854
##vard	11855
manuellt	11856
behoven	11857
flask	11858
bespar	11859
rättighet	11860
##formulär	11861
våningen	11862
hemifrån	11863
##ydda	11864
##keln	11865
marie	11866
antika	11867
##ologer	11868
society	11869
utvecklings	11870
förmid	11871
förstått	11872
##ette	11873
1992	11874
##spelare	11875
missn	11876
tillräckliga	11877
schema	11878
innovativ	11879
anslutna	11880
tjänsteleverant	11881
religioner	11882
optimera	11883
gavs	11884
##registr	11885
presenterade	11886
medborgarna	11887
##ogenheter	11888
motsäg	11889
psykisk	11890
uttrycket	11891
absoluta	11892
killen	11893
stenar	11894
jackson	11895
specialist	11896
kinesisk	11897
blockera	11898
falsk	11899
##politiken	11900
holland	11901
beviljas	11902
nådde	11903
slutsatser	11904
frivilligt	11905
återkommande	11906
förnekar	11907
uppföljning	11908
århundraden	11909
uppsala	11910
nöje	11911
alzheimer	11912
balt	11913
het	11914
mir	11915
pala	11916
tiot	11917
##kok	11918
##miljö	11919
##situ	11920
##hög	11921
##cal	11922
##wor	11923
##inter	11924
##agda	11925
avunds	11926
varar	11927
angivna	11928
##oli	11929
##föroren	11930
träder	11931
##ositionen	11932
erhålla	11933
bero	11934
##yror	11935
##ockar	11936
1950	11937
##ify	11938
##konvent	11939
mardröm	11940
look	11941
kompet	11942
berättat	11943
förändrade	11944
##shistor	11945
befäl	11946
generationen	11947
runtom	11948
110	11949
utfört	11950
##brukning	11951
ljusa	11952
hotar	11953
integrerade	11954
sprider	11955
##svatten	11956
publicerad	11957
raka	11958
försvunnit	11959
räddning	11960
utmärkel	11961
individuell	11962
brexit	11963
varumärkes	11964
retur	11965
kärnan	11966
förvaltnings	11967
lanserar	11968
tvingades	11969
sjunger	11970
panik	11971
hävdade	11972
terrorist	11973
förnybar	11974
utsläppen	11975
jonas	11976
konstnären	11977
utövar	11978
lastbil	11979
rimliga	11980
överlåt	11981
överensstämmer	11982
förlåtelse	11983
kylskå	11984
dolda	11985
sällsynt	11986
##skrider	11987
ilska	11988
berättigade	11989
baksidan	11990
portugal	11991
##bedöm	11992
fristående	11993
välgörenhet	11994
bridge	11995
inteckning	11996
kosttillskott	11997
bjud	11998
dök	11999
fat	12000
gest	12001
kit	12002
koden	12003
lindra	12004
##mät	12005
##sskydd	12006
##lö	12007
##jade	12008
##ful	12009
##vande	12010
##vens	12011
##edvet	12012
##napp	12013
##asy	12014
fril	12015
utpl	12016
##skäl	12017
uppdraget	12018
##ensionen	12019
spir	12020
##umb	12021
##uls	12022
blädd	12023
synen	12024
motsatta	12025
motverka	12026
serb	12027
saj	12028
företagare	12029
that	12030
alfa	12031
grundade	12032
soft	12033
urban	12034
förlag	12035
##strans	12036
erbjöd	12037
fallen	12038
##sförmåga	12039
typiska	12040
nedre	12041
belägg	12042
orsakade	12043
passera	12044
byte	12045
##satte	12046
testosteron	12047
budskapet	12048
trädet	12049
billig	12050
##löshet	12051
odds	12052
karaktärer	12053
##banken	12054
installerar	12055
regelbundna	12056
bristande	12057
önskat	12058
kommersiellt	12059
ögonblicket	12060
försiktighet	12061
##handeln	12062
mekanismer	12063
nato	12064
inflyt	12065
påståenden	12066
kvalificerad	12067
omdöme	12068
pålitlig	12069
laborator	12070
laboratori	12071
motsatsen	12072
moskva	12073
bingo	12074
räckvid	12075
mormor	12076
stroke	12077
ackrediter	12078
matlagning	12079
bnp	12080
jurisd	12081
73	12082
dream	12083
east	12084
got	12085
gyll	12086
lang	12087
past	12088
##okt	12089
##rus	12090
##sre	12091
##ländsk	12092
##hr	12093
##gt	12094
##well	12095
##arm	12096
##ane	12097
##inari	12098
##stod	12099
inslag	12100
ärenden	12101
##ters	12102
varelse	12103
anbud	12104
skift	12105
skyll	12106
beklag	12107
read	12108
samlat	12109
samfund	12110
översyn	12111
##ict	12112
##arth	12113
ork	12114
##räde	12115
vidtas	12116
framträdande	12117
##bered	12118
slutgilt	12119
##ottag	12120
ändrats	12121
systems	12122
party	12123
namnen	12124
shir	12125
costa	12126
beslutade	12127
##materi	12128
angrepp	12129
finansiera	12130
posten	12131
130	12132
begränsning	12133
levt	12134
kombinationen	12135
kompletter	12136
extraordin	12137
fattas	12138
textil	12139
palats	12140
sträva	12141
förändringarna	12142
odla	12143
ständig	12144
##splatser	12145
väntan	12146
slakt	12147
godkänts	12148
ekologiska	12149
##listan	12150
överraskande	12151
obekv	12152
skulpt	12153
resultera	12154
##auf	12155
hälsosamt	12156
församlingen	12157
fantasi	12158
##faktorer	12159
maximalt	12160
otillräck	12161
zeeland	12162
antogs	12163
återvinning	12164
##sindustrin	12165
funktionshinder	12166
anknyt	12167
##befolkningen	12168
bägge	12169
);	12170
.'	12171
69	12172
86	12173
mjuka	12174
pund	12175
wow	12176
##iff	12177
##låt	12178
##lust	12179
##faren	12180
##eng	12181
##stam	12182
föröd	12183
init	12184
avled	12185
##rol	12186
vardagen	12187
anim	12188
##orton	12189
##lav	12190
##laren	12191
existerande	12192
mervärde	12193
##iljön	12194
besl	12195
##000	12196
sätts	12197
klocka	12198
självt	12199
mata	12200
återställ	12201
polar	12202
gård	12203
##farandet	12204
marin	12205
advent	12206
heart	12207
sökt	12208
stegen	12209
beslutar	12210
klient	12211
##gården	12212
##olutioner	12213
##slagstift	12214
amerikan	12215
acade	12216
schem	12217
fötterna	12218
##splaner	12219
romerska	12220
##cktes	12221
erbjudandet	12222
religionen	12223
oscar	12224
inspirerande	12225
titlar	12226
tävlingar	12227
utnyttjas	12228
fyllt	12229
godkänna	12230
cookie	12231
matte	12232
föreslå	12233
anmäla	12234
paketet	12235
gifte	12236
##kallande	12237
pratat	12238
västerländska	12239
samordning	12240
skottland	12241
tonåringar	12242
förmedla	12243
konstaterar	12244
dygnet	12245
sannolikheten	12246
komplikationer	12247
utseendet	12248
föreslagna	12249
expansion	12250
injektion	12251
långivare	12252
proletari	12253
08	12254
bbc	12255
horn	12256
kick	12257
lyd	12258
mt	12259
nok	12260
nice	12261
oklart	12262
pga	12263
rida	12264
##jörer	12265
##bek	12266
##15	12267
##ani	12268
försk	12269
inställ	12270
deal	12271
##rades	12272
uthyr	12273
##urar	12274
##ures	12275
##ikon	12276
sålunda	12277
rehabil	12278
arsen	12279
härom	12280
andlig	12281
blyg	12282
##antiska	12283
##yrer	12284
sabb	12285
högtid	12286
väcker	12287
soff	12288
roligare	12289
lyfter	12290
vanligare	12291
##ologier	12292
##rättsliga	12293
graden	12294
saknade	12295
solut	12296
korset	12297
##ship	12298
drack	12299
testar	12300
benäm	12301
morse	12302
tillfällig	12303
dyka	12304
titan	12305
protester	12306
industriell	12307
identifieras	12308
utsikten	12309
bussar	12310
intervjuer	12311
tidsfr	12312
överlevde	12313
invånarna	12314
symptomen	12315
axel	12316
certifiering	12317
idealisk	12318
summa	12319
fascin	12320
##spolitiken	12321
uppstod	12322
predik	12323
misslyckande	12324
materiella	12325
francisco	12326
elegant	12327
venezuel	12328
elizabeth	12329
!?	12330
87	12331
93	12332
fäder	12333
hil	12334
mist	12335
näs	12336
rub	12337
öar	12338
ökningen	12339
##oid	12340
##nest	12341
##äda	12342
##col	12343
förste	12344
förfrågan	12345
##aton	12346
avsak	12347
##ktis	12348
animer	12349
animal	12350
upprikt	12351
spont	12352
rester	12353
##ffin	12354
pröva	12355
liban	12356
##anner	12357
this	12358
åtfölj	12359
ledarna	12360
ingenjör	12361
lands	12362
låtsas	12363
främling	12364
##shantering	12365
förbättrade	12366
befall	12367
tittat	12368
byrå	12369
kunders	12370
bekanta	12371
konsumer	12372
skillnaderna	12373
garage	12374
160	12375
140	12376
prioritet	12377
control	12378
ansluten	12379
fiskar	12380
avslutade	12381
dokumentation	12382
förfäder	12383
räkning	12384
strategiskt	12385
skickat	12386
break	12387
utformat	12388
slav	12389
legiti	12390
siffran	12391
stolthet	12392
kasino	12393
ursäkta	12394
arbetsmiljö	12395
generalsekret	12396
reparation	12397
##helst	12398
entreprenörer	12399
kirurg	12400
åtagande	12401
solidaritet	12402
bulgar	12403
pizza	12404
hektar	12405
skräddars	12406
)?	12407
fur	12408
gab	12409
his	12410
poll	12411
ritu	12412
trust	12413
##karna	12414
##äva	12415
##pnad	12416
##flas	12417
##anpass	12418
förvis	12419
föref	12420
inh	12421
des	12422
##iser	12423
##ammat	12424
##ionellt	12425
fräs	12426
samvet	12427
undervisa	12428
##öjning	12429
plas	12430
arbetarna	12431
##blin	12432
besvara	12433
serier	12434
senior	12435
europ	12436
störa	12437
köks	12438
lämnats	12439
##oween	12440
adobe	12441
immateri	12442
intag	12443
gravida	12444
tillgodo	12445
betalat	12446
teman	12447
elva	12448
friheten	12449
##överföring	12450
nås	12451
vetenskapligt	12452
upplevde	12453
rapporterats	12454
inspirera	12455
##läge	12456
casinon	12457
marknadsföra	12458
leverantören	12459
ansikten	12460
etablera	12461
temperaturer	12462
uppenbarelse	12463
##ways	12464
dumma	12465
arbetsmarknad	12466
bearbetning	12467
förstärka	12468
himmelen	12469
bedriva	12470
harmoni	12471
##verksamma	12472
##verksamheten	12473
wikip	12474
hydro	12475
tappat	12476
interaktion	12477
paradiset	12478
toalett	12479
##utsläpp	12480
care	12481
hunnit	12482
lod	12483
lay	12484
m2	12485
plikt	12486
rh	12487
russ	12488
##ming	12489
##hn	12490
##etik	12491
##etiskt	12492
##stider	12493
invänd	12494
påbör	12495
##nden	12496
##itar	12497
dubai	12498
anför	12499
##ense	12500
##ägen	12501
spin	12502
##iskor	12503
##iction	12504
systrar	12505
##ödet	12506
##arken	12507
arbetarklass	12508
brom	12509
tysta	12510
##format	12511
##hållning	12512
lednings	12513
##verkande	12514
bortsett	12515
antis	12516
##platsen	12517
snow	12518
##meter	12519
indones	12520
##ystemet	12521
##frågningar	12522
mänsklighetens	12523
forskningsprojekt	12524
##ografiska	12525
atom	12526
råvaror	12527
mobile	12528
registrerat	12529
uppdaterade	12530
race	12531
banbrytande	12532
jane	12533
exporter	12534
koka	12535
##bundet	12536
kemi	12537
konfident	12538
##bordet	12539
installeras	12540
ambiti	12541
islamiska	12542
hitler	12543
köns	12544
network	12545
tvinga	12546
gällde	12547
opera	12548
gräs	12549
halloween	12550
inlogg	12551
##funktioner	12552
???	12553
besked	12554
förbjudna	12555
christian	12556
krävande	12557
omvandla	12558
felaktig	12559
sinnet	12560
##skärm	12561
skilda	12562
återhäm	12563
bedriver	12564
kvalificerade	12565
cross	12566
rekrytering	12567
smidigt	12568
fruktansvärt	12569
bomull	12570
afrikanska	12571
mineral	12572
rubriken	12573
anmärknings	12574
clinton	12575
kompletterande	12576
76	12577
82	12578
dow	12579
ere	12580
lille	12581
##lån	12582
##hot	12583
##fver	12584
##vägg	12585
##zer	12586
##agra	12587
##agne	12588
devel	12589
##ktigt	12590
medföra	12591
sträck	12592
stigande	12593
sköts	12594
##ikel	12595
beb	12596
beat	12597
##oten	12598
uppgår	12599
##förbrukning	12600
närm	12601
##sektorn	12602
##chel	12603
##essan	12604
##block	12605
##ally	12606
persons	12607
##ifa	12608
självklar	12609
##ikapp	12610
netto	12611
talets	12612
##domstol	12613
lyder	12614
färdigt	12615
statistiken	12616
hette	12617
co2	12618
centra	12619
suite	12620
sanktioner	12621
radera	12622
viktigast	12623
grej	12624
skyddade	12625
##phones	12626
mänskligt	12627
hotet	12628
sparas	12629
sökanden	12630
young	12631
färgerna	12632
fox	12633
sträcka	12634
##partment	12635
verksamma	12636
rasism	12637
underhållande	12638
användarens	12639
attacken	12640
kameror	12641
föreligger	12642
patientens	12643
tacksamhet	12644
teoretiska	12645
certifierade	12646
fienden	12647
släktingar	12648
diskuterar	12649
tillfredsställande	12650
auktoritet	12651
relaterad	12652
##inarie	12653
indikerar	12654
betonar	12655
imponerad	12656
århundradet	12657
fetma	12658
kretsar	12659
nyhetsbrev	12660
självförtroende	12661
74	12662
bm	12663
kas	12664
now	12665
tätt	12666
##ois	12667
##nivån	12668
##gna	12669
##yon	12670
##cen	12671
##omy	12672
förstånd	12673
fördubb	12674
##tex	12675
##terande	12676
varifrån	12677
varierande	12678
##ese	12679
##årig	12680
sålt	12681
proffs	12682
arts	12683
arrester	12684
helig	12685
plag	12686
living	12687
livskv	12688
unions	12689
bilag	12690
##kommun	12691
##samtal	12692
klas	12693
##skepp	12694
dominerande	12695
idiot	12696
exemplet	12697
imm	12698
intim	12699
likvärd	12700
poängen	12701
shop	12702
turism	12703
klick	12704
klienter	12705
byggas	12706
genererar	12707
frukter	12708
utbildade	12709
genomförts	12710
skapad	12711
testat	12712
medical	12713
standarden	12714
kontakten	12715
älskad	12716
osäkerhet	12717
##lösningar	12718
förekomma	12719
##utvecklingen	12720
##hammed	12721
tillåts	12722
bristen	12723
##rörelsen	12724
jeff	12725
sjunde	12726
avståndet	12727
omgiven	12728
hälsosamma	12729
body	12730
bröstcancer	12731
åldrande	12732
federal	12733
sammansättning	12734
robotar	12735
specialiserade	12736
etikett	12737
legendar	12738
##historia	12739
vederbör	12740
björn	12741
propag	12742
trivs	12743
astronom	12744
skrevs	12745
högkvalitativa	12746
arbetslöshet	12747
##musik	12748
olympiska	12749
victoria	12750
entusia	12751
omdirigerad	12752
diesel	12753
ea	12754
fäl	12755
runda	12756
##miss	12757
##hd	12758
##öpp	12759
##ttning	12760
##etenskap	12761
##strå	12762
förakt	12763
##oniska	12764
medarbet	12765
##ado	12766
##ätts	12767
##rep	12768
uppförande	12769
upplösning	12770
##staller	12771
spins	12772
närhet	12773
genu	12774
flott	12775
tidningar	12776
prel	12777
villig	12778
tav	12779
##akes	12780
delstat	12781
besvar	12782
besatt	12783
läppar	12784
sätten	12785
säte	12786
##annat	12787
svamp	12788
differ	12789
återstående	12790
samtycker	12791
##sstand	12792
snur	12793
riktade	12794
##profil	12795
metro	12796
jazz	12797
##ctive	12798
basen	12799
rädslan	12800
befogenheter	12801
likaså	12802
##vanor	12803
genomfört	12804
halvår	12805
nivåerna	12806
fredagen	12807
sony	12808
kombineras	12809
öppnades	12810
verktyget	12811
foster	12812
drop	12813
ersättas	12814
storbritanniens	12815
studerar	12816
fördelen	12817
##kostnader	12818
godkänn	12819
##relat	12820
singlar	12821
ändamålsen	12822
legitim	12823
betrakta	12824
yrkesverksamma	12825
omgivning	12826
misstänker	12827
rimligt	12828
applikation	12829
stimulera	12830
vandrar	12831
sekretess	12832
decennier	12833
stuga	12834
inträde	12835
umgås	12836
förteckning	12837
trösk	12838
programmering	12839
atlant	12840
kungariket	12841
avbryta	12842
narkot	12843
sekretesspolicy	12844
acceler	12845
09	12846
bjuda	12847
cv	12848
fish	12849
gel	12850
löj	12851
lida	12852
nap	12853
njöt	12854
pion	12855
rus	12856
tänderna	12857
##öser	12858
##cos	12859
##ctr	12860
##erligen	12861
##örja	12862
##oma	12863
förfall	12864
##orisk	12865
##inger	12866
##agar	12867
dev	12868
avsett	12869
tillskott	12870
dennes	12871
##ionde	12872
anhäng	12873
##old	12874
##mers	12875
restri	12876
happ	12877
visser	12878
##period	12879
kunn	12880
##ave	12881
utvecklad	12882
leds	12883
lagrar	12884
lagstad	12885
längsta	12886
förbjuda	12887
mari	12888
ordinarie	12889
webbsidor	12890
krasch	12891
##appar	12892
hänvisa	12893
färsk	12894
behandlade	12895
ställas	12896
bour	12897
hörnet	12898
likvid	12899
redskap	12900
redogör	12901
jämn	12902
##tagare	12903
kapa	12904
typisk	12905
veckans	12906
styrning	12907
synkron	12908
samtida	12909
köparen	12910
utförts	12911
kopplas	12912
know	12913
sannerligen	12914
##atex	12915
våldtäkt	12916
placering	12917
lönsamhet	12918
##vinkel	12919
yrke	12920
fordonet	12921
##ribut	12922
otroliga	12923
##skonferens	12924
trädgårdar	12925
uttalanden	12926
detaljerade	12927
beakta	12928
identifiering	12929
##krets	12930
fördöm	12931
nyheterna	12932
akademisk	12933
misstänkta	12934
idrottare	12935
riktlinjerna	12936
nervös	12937
##fordon	12938
arbetsplatsen	12939
vindkraft	12940
bagage	12941
avlid	12942
komplicerade	12943
mystiska	12944
sannolikhet	12945
obligatoriska	12946
galaxy	12947
:-)	12948
medelhavet	12949
##västra	12950
satellit	12951
törst	12952
gyllene	12953
aqu	12954
has	12955
pitt	12956
##iterna	12957
##tade	12958
##säkerhet	12959
##löp	12960
##vide	12961
enk	12962
medium	12963
stul	12964
##adels	12965
##ågs	12966
##sko	12967
##skl	12968
##ssin	12969
##oty	12970
##otin	12971
därtill	12972
##pern	12973
##ställen	12974
annans	12975
##visade	12976
förson	12977
mott	12978
svull	12979
##senhet	12980
alan	12981
paras	12982
hug	12983
kravet	12984
mestadels	12985
trailer	12986
intäkt	12987
rösten	12988
ägna	12989
toy	12990
rummen	12991
interi	12992
körning	12993
miljöpåverkan	12994
missbru	12995
skadlig	12996
innovationer	12997
##ältet	12998
##lägga	12999
individen	13000
överföras	13001
prestig	13002
bärbara	13003
psykologi	13004
undvikas	13005
demokratin	13006
brevet	13007
##savtalet	13008
utnyttjande	13009
debut	13010
anpassas	13011
mäter	13012
gaza	13013
kostnads	13014
stjärnan	13015
australiens	13016
gråter	13017
omständigheterna	13018
förhållandena	13019
sistnämnda	13020
höjer	13021
svåraste	13022
utmaningarna	13023
förvandla	13024
förvandlas	13025
symtomen	13026
isolering	13027
sjöng	13028
##flödet	13029
snyggt	13030
ansågs	13031
överdriven	13032
uppträder	13033
anteckningar	13034
växthusgas	13035
argentina	13036
security	13037
översväm	13038
visserligen	13039
kru	13040
lars	13041
made	13042
potter	13043
sri	13044
wien	13045
yah	13046
##ni	13047
##pu	13048
##cl	13049
förtr	13050
stående	13051
anat	13052
befatt	13053
##stest	13054
härlighet	13055
##ulla	13056
##ria	13057
##ängande	13058
##slor	13059
##räkning	13060
##öjda	13061
lear	13062
försum	13063
kväv	13064
##tala	13065
säk	13066
##ockey	13067
chil	13068
innehöll	13069
sval	13070
smink	13071
högskolan	13072
finaste	13073
ther	13074
polska	13075
##fron	13076
världar	13077
ordningen	13078
valid	13079
##nesium	13080
##läggningen	13081
turen	13082
besluten	13083
låsa	13084
185	13085
införliv	13086
syntet	13087
##väckande	13088
tillämpningar	13089
åtgärderna	13090
##aliserade	13091
kopplad	13092
ovanliga	13093
lyckligt	13094
sovrummet	13095
display	13096
virgin	13097
löner	13098
genomsnittlig	13099
mottagaren	13100
inledande	13101
##plattform	13102
bekräftelse	13103
övertygade	13104
##beslut	13105
böner	13106
aktieäg	13107
satsning	13108
varianter	13109
arbetsmarknaden	13110
kollektiv	13111
##sfulla	13112
##ansvarig	13113
poolen	13114
attraktion	13115
bedömer	13116
given	13117
förutsättningarna	13118
insikter	13119
vätska	13120
inredning	13121
frälsning	13122
filtrera	13123
expandera	13124
girl	13125
vittnesbörd	13126
övervinna	13127
##sstrategi	13128
##hastighet	13129
jacob	13130
square	13131
ödmjuk	13132
lögner	13133
##iarab	13134
anknytning	13135
develop	13136
pall	13137
rap	13138
rensa	13139
tort	13140
##ki	13141
##möjligheter	13142
##sänd	13143
##junkt	13144
##glas	13145
##vig	13146
##vas	13147
##vit	13148
##cil	13149
##80	13150
##ariska	13151
##ante	13152
ingång	13153
##ärerna	13154
##illgäng	13155
##alism	13156
dussin	13157
##andras	13158
##reen	13159
skrifter	13160
skriften	13161
##utrym	13162
##iske	13163
reform	13164
##nett	13165
syriska	13166
bråd	13167
någons	13168
##smöjligheter	13169
##ningsbara	13170
albert	13171
läger	13172
drink	13173
marg	13174
ordna	13175
##linje	13176
##handlare	13177
obs	13178
##rätta	13179
öppnat	13180
instrukt	13181
elef	13182
electr	13183
foten	13184
projektets	13185
träden	13186
körkort	13187
kraftfullt	13188
kundservice	13189
framgångar	13190
##resurser	13191
märken	13192
biom	13193
biologisk	13194
spräng	13195
doft	13196
nordic	13197
mich	13198
tjejen	13199
tävla	13200
blått	13201
fyllda	13202
utforma	13203
uppfattas	13204
balansen	13205
valutor	13206
jeho	13207
##ikatorer	13208
akademiker	13209
statsminister	13210
misstänkt	13211
turné	13212
playstation	13213
finger	13214
bakteri	13215
flagg	13216
överträdelser	13217
lektion	13218
involverade	13219
blueto	13220
väsentlig	13221
inträffa	13222
förverkliga	13223
arbetsgivaren	13224
photos	13225
moment	13226
tendens	13227
ansöker	13228
saudiarab	13229
wikipedia	13230
bluetooth	13231
61	13232
jess	13233
pj	13234
ts	13235
tram	13236
xx	13237
##iop	13238
##känd	13239
##uper	13240
##mass	13241
##muse	13242
##rigt	13243
##serna	13244
##ple	13245
##gud	13246
##dör	13247
##fit	13248
##ögen	13249
##24	13250
##casin	13251
##stal	13252
##strakt	13253
##edral	13254
##ktygen	13255
omb	13256
utav	13257
uppbygg	13258
övergången	13259
trim	13260
genetiska	13261
tidsperiod	13262
genombrott	13263
##cher	13264
personens	13265
storlekar	13266
innebar	13267
moon	13268
åtn	13269
åtskill	13270
forma	13271
##konst	13272
trott	13273
grundar	13274
läraren	13275
hållit	13276
svaren	13277
##strid	13278
snacka	13279
händelserna	13280
preferenser	13281
obal	13282
##ards	13283
organiska	13284
hepat	13285
partiklar	13286
basis	13287
##bour	13288
kommunist	13289
magnesium	13290
missar	13291
ether	13292
##inskt	13293
1700	13294
videok	13295
blogga	13296
popularitet	13297
feber	13298
avslutat	13299
hamburg	13300
reglerar	13301
kristall	13302
##filmer	13303
säljaren	13304
repet	13305
oföränd	13306
motorcykel	13307
fängelset	13308
scener	13309
##urope	13310
intensiva	13311
ljuger	13312
upptäcktes	13313
skrattade	13314
self	13315
diskuteras	13316
##bärare	13317
rättfärdighet	13318
tillfredsställ	13319
tungt	13320
kyla	13321
agenda	13322
ultra	13323
attraktiv	13324
bibehålla	13325
intellektuella	13326
långvarig	13327
bränslen	13328
påskynda	13329
signifikant	13330
testamentet	13331
tillgodose	13332
corn	13333
ialla	13334
kult	13335
kup	13336
meg	13337
nöt	13338
ss	13339
sfär	13340
tt	13341
́s	13342
##kin	13343
##mets	13344
##männen	13345
##pot	13346
##pital	13347
##hing	13348
##fu	13349
##fir	13350
##zy	13351
##aria	13352
##stationen	13353
förol	13354
inch	13355
##agd	13356
##illar	13357
medal	13358
##album	13359
vilar	13360
varandras	13361
utkast	13362
utbrott	13363
##skningen	13364
##sslut	13365
##iki	13366
samtalet	13367
##ffar	13368
##ftet	13369
honung	13370
##cir	13371
##ändare	13372
beta	13373
forn	13374
parf	13375
emitt	13376
statligt	13377
like	13378
familjens	13379
##sförhållanden	13380
##aliteter	13381
kore	13382
betyda	13383
synlig	13384
kvarter	13385
ägnar	13386
ihjäl	13387
småföretag	13388
samarbeten	13389
köpet	13390
borttag	13391
##äckande	13392
medeltida	13393
författarna	13394
##faller	13395
dokumentär	13396
autism	13397
lovat	13398
anpassad	13399
okunn	13400
slaver	13401
kostnadsfri	13402
rättslig	13403
trevliga	13404
receptet	13405
turkiska	13406
mentor	13407
variation	13408
evenemanget	13409
skulden	13410
filoso	13411
##motorer	13412
väggarna	13413
venedig	13414
nike	13415
databasen	13416
kirurgi	13417
undersökt	13418
sämsta	13419
doktorand	13420
tillbringade	13421
maximala	13422
implementera	13423
inbjudan	13424
kännetecknas	13425
deleger	13426
reflektera	13427
peking	13428
ltd	13429
interagera	13430
connect	13431
jehova	13432
iallafall	13433
aids	13434
cos	13435
grip	13436
mum	13437
munt	13438
ple	13439
summer	13440
åkt	13441
öm	13442
##ianska	13443
##ialen	13444
##kvar	13445
##kins	13446
##kött	13447
##ryck	13448
##livet	13449
##god	13450
##bad	13451
##inkt	13452
##atal	13453
ärende	13454
##edy	13455
stere	13456
##ningssystem	13457
kant	13458
##ikansk	13459
trib	13460
##spir	13461
ersatt	13462
plåg	13463
krom	13464
church	13465
##aktör	13466
återgå	13467
para	13468
##iday	13469
kvinnlig	13470
snitt	13471
planeras	13472
##sbek	13473
konstaterade	13474
ställt	13475
likhet	13476
##märke	13477
dödas	13478
basket	13479
##vägs	13480
kollar	13481
samarbetspartners	13482
skapande	13483
skapelse	13484
påverkade	13485
bidrog	13486
magaz	13487
förlorad	13488
grepp	13489
##krafter	13490
besöket	13491
##centret	13492
romer	13493
googles	13494
##produktionen	13495
operationen	13496
##flöde	13497
##ashion	13498
röstar	13499
1983	13500
kapitalistiska	13501
officiell	13502
boston	13503
lovade	13504
vitaminer	13505
##rädande	13506
##savgifter	13507
strukturen	13508
ekologisk	13509
specialister	13510
sånger	13511
skriftligt	13512
intelligenta	13513
uttryckt	13514
döttrar	13515
rättfärdig	13516
ledamot	13517
imperial	13518
fackfören	13519
ropade	13520
föroreningar	13521
kontrast	13522
sarah	13523
success	13524
styrelseled	13525
parametrar	13526
funktionsnedsättning	13527
prestigef	13528
03	13529
ble	13530
fäll	13531
hå	13532
”).	13533
##etter	13534
##då	13535
##fc	13536
##vitt	13537
##zo	13538
##inlägg	13539
##inrikt	13540
förkast	13541
##illstånd	13542
##ände	13543
##änningen	13544
varnar	13545
uthåll	13546
sken	13547
##ikop	13548
##ential	13549
menstru	13550
barer	13551
exec	13552
##iteter	13553
tvingar	13554
uni	13555
innehar	13556
hemlig	13557
##aktivitet	13558
kontanter	13559
gudar	13560
##bay	13561
ordför	13562
##sban	13563
konstverk	13564
tillbaks	13565
formellt	13566
mötes	13567
rörliga	13568
##sfun	13569
organiserad	13570
projekten	13571
125	13572
bekost	13573
borgerliga	13574
registreras	13575
hamnade	13576
placerade	13577
utrustningen	13578
rysslands	13579
odd	13580
sports	13581
motivera	13582
mäster	13583
utforskar	13584
inleda	13585
auktion	13586
konventionella	13587
förhandla	13588
kopior	13589
skogar	13590
förnyelse	13591
econom	13592
dyrare	13593
satsningar	13594
installationen	13595
##sökande	13596
militären	13597
camping	13598
passager	13599
flagga	13600
mordet	13601
servicen	13602
josef	13603
##kampan	13604
skivor	13605
optimala	13606
astma	13607
paypal	13608
tredjel	13609
oväntade	13610
##undersökning	13611
sofistik	13612
familjemedlemmar	13613
upplysningar	13614
kämpade	13615
lådan	13616
skapelsen	13617
asiatiska	13618
kolhydrater	13619
narkotika	13620
anhängare	13621
styrelseledam	13622
fashion	13623
kev	13624
lord	13625
msek	13626
oöver	13627
sänder	13628
ökn	13629
##kit	13630
##tp	13631
##ai	13632
##riga	13633
##säck	13634
##hotell	13635
##ftt	13636
##anläggningar	13637
##inkar	13638
##ign	13639
##atum	13640
inaktiv	13641
engång	13642
defekt	13643
avskaff	13644
tillit	13645
view	13646
##andets	13647
upphand	13648
understr	13649
sektorer	13650
andning	13651
2030	13652
villiga	13653
blo	13654
##imension	13655
vidtag	13656
betjän	13657
##oppa	13658
grunderna	13659
regul	13660
##bility	13661
handikapp	13662
återfören	13663
väsen	13664
vänstra	13665
internt	13666
svarat	13667
margin	13668
offren	13669
##sbru	13670
##objekt	13671
emma	13672
mete	13673
sjukvården	13674
##ibliote	13675
korten	13676
karib	13677
förmögen	13678
dödlig	13679
femtio	13680
transfer	13681
##hället	13682
europeiskt	13683
befog	13684
styrkan	13685
rysk	13686
halsen	13687
funktionella	13688
märkte	13689
knän	13690
specific	13691
distra	13692
brottsl	13693
oroar	13694
förfal	13695
potentiell	13696
skept	13697
prestationer	13698
##loss	13699
##look	13700
flyttat	13701
japansk	13702
industrier	13703
studerade	13704
beräkning	13705
uppskattning	13706
klubbar	13707
karaktären	13708
springer	13709
svaghet	13710
dimensioner	13711
blomma	13712
fabriken	13713
föreställningar	13714
förkun	13715
##bonus	13716
seriös	13717
fantasy	13718
ockup	13719
koncernens	13720
romantiska	13721
navigera	13722
onödiga	13723
känslomässiga	13724
förknippade	13725
##finansiering	13726
påminna	13727
cigaretter	13728
tesla	13729
välsignelse	13730
##frekvens	13731
lysande	13732
döljer	13733
inskrän	13734
förfogande	13735
ungern	13736
dottern	13737
obekväm	13738
07	13739
bis	13740
bie	13741
dark	13742
ees	13743
esc	13744
lisa	13745
mika	13746
niger	13747
pm	13748
town	13749
ups	13750
vig	13751
ägar	13752
##iem	13753
##äste	13754
##him	13755
##dis	13756
förg	13757
fördr	13758
förtryck	13759
inifrån	13760
##amas	13761
##rob	13762
##skedjan	13763
##ssektorn	13764
##unnen	13765
översatt	13766
efterföljande	13767
##oke	13768
##change	13769
lew	13770
##visas	13771
##taliga	13772
regeln	13773
##trän	13774
glöd	13775
smal	13776
produktiv	13777
vägarna	13778
margar	13779
lyn	13780
valdes	13781
kärna	13782
grabb	13783
instäm	13784
##tagen	13785
drama	13786
toba	13787
byar	13788
köpas	13789
##lagen	13790
##yllda	13791
klassiker	13792
kundtjänst	13793
hälsopro	13794
märkning	13795
##övning	13796
bönder	13797
evig	13798
experim	13799
riket	13800
potatis	13801
matcha	13802
stängd	13803
hamas	13804
placerar	13805
beräkningen	13806
energy	13807
##examen	13808
chrome	13809
color	13810
columb	13811
serverar	13812
sydney	13813
utrymmen	13814
etablerat	13815
uppmanas	13816
hävda	13817
kuba	13818
colle	13819
trötthet	13820
utredningen	13821
söndagen	13822
apparater	13823
permanenta	13824
alice	13825
larm	13826
horison	13827
förvirring	13828
domännamn	13829
förlusten	13830
inbyggd	13831
operatörer	13832
mineraler	13833
skrek	13834
queen	13835
naken	13836
djävulen	13837
libyen	13838
provinsen	13839
sovjetunionen	13840
skylla	13841
.+	13842
91	13843
][	13844
cia	13845
fals	13846
gis	13847
miam	13848
rust	13849
sess	13850
vre	13851
##massa	13852
##mält	13853
##nandet	13854
##säker	13855
##hatt	13856
##gro	13857
##bur	13858
##ves	13859
##inburg	13860
##agnet	13861
##ktiska	13862
somliga	13863
##ela	13864
städa	13865
##ivat	13866
##olyck	13867
skjort	13868
##ssy	13869
bea	13870
##förklar	13871
##ångt	13872
minus	13873
trip	13874
mann	13875
sea	13876
##bete	13877
andetag	13878
##rium	13879
hawa	13880
tidens	13881
##spass	13882
orange	13883
livmoder	13884
rätter	13885
brad	13886
##kommande	13887
##ifikationer	13888
chauf	13889
##smask	13890
hemskt	13891
grat	13892
joe	13893
produktens	13894
ingenjörer	13895
henrik	13896
informations	13897
##synen	13898
rele	13899
##garant	13900
marock	13901
programmen	13902
statlig	13903
flest	13904
stefan	13905
klippa	13906
rörde	13907
främlingar	13908
tagen	13909
passande	13910
ägt	13911
uppfost	13912
scand	13913
förklaras	13914
skadan	13915
skype	13916
cykl	13917
kontaktar	13918
förenkl	13919
toppm	13920
1982	13921
seminari	13922
tillverknings	13923
skede	13924
##webb	13925
kapitalet	13926
palm	13927
judisk	13928
maximera	13929
officer	13930
subjekt	13931
lovande	13932
nedanför	13933
bedöms	13934
karakter	13935
ständiga	13936
1967	13937
tolkas	13938
##banan	13939
##splatsen	13940
täckt	13941
charlie	13942
finansieras	13943
outlook	13944
bönen	13945
erkänd	13946
satsar	13947
självständig	13948
förlänga	13949
kosm	13950
diskussionen	13951
omvandlas	13952
signatur	13953
kartan	13954
fjäll	13955
##ukos	13956
minimum	13957
kristendomen	13958
gynnar	13959
göteborgs	13960
advokater	13961
ogilt	13962
williams	13963
swedish	13964
champagne	13965
tveksam	13966
komplement	13967
genetiskt	13968
##plantation	13969
tvärvetenskap	13970
avslappnad	13971
homosexuella	13972
blodsocker	13973
pakistan	13974
##stillfällen	13975
british	13976
artificiell	13977
##departementet	13978
alzheimers	13979
development	13980
execut	13981
84	13982
bitter	13983
dre	13984
gator	13985
hinner	13986
kh	13987
kny	13988
lissa	13989
nit	13990
nasa	13991
vas	13992
##iral	13993
##uf	13994
##uli	13995
##umera	13996
##rition	13997
##fat	13998
##yder	13999
##bt	14000
##vir	14001
föras	14002
##nast	14003
##raxis	14004
anvisningar	14005
anhöriga	14006
##adel	14007
skån	14008
##ården	14009
##unes	14010
beställningar	14011
uppsäg	14012
##förbruk	14013
##ången	14014
##orten	14015
trycker	14016
flöde	14017
genomgått	14018
verifiera	14019
dagsläget	14020
välstånd	14021
välbe	14022
välkomst	14023
lejon	14024
##ifer	14025
##bileum	14026
mount	14027
force	14028
förbrän	14029
änden	14030
##arbeten	14031
världsklass	14032
vinet	14033
sådär	14034
##strätt	14035
trad	14036
naturens	14037
låda	14038
184	14039
kaka	14040
frukta	14041
ryan	14042
##rafiken	14043
åtgärden	14044
anal	14045
##cover	14046
träffades	14047
råkar	14048
drömma	14049
utmanar	14050
kopplat	14051
michel	14052
##produc	14053
##fabr	14054
logik	14055
förväntat	14056
hobby	14057
engagerad	14058
utformning	14059
drabbades	14060
kreativt	14061
elektroniskt	14062
budgeten	14063
trumps	14064
multim	14065
publikationer	14066
colomb	14067
batteriet	14068
stämma	14069
försäkrings	14070
starkaste	14071
1940	14072
##version	14073
mätningar	14074
ljuga	14075
avslöjade	14076
hastigheten	14077
avlägs	14078
utbudet	14079
överlever	14080
insekter	14081
virtuell	14082
kastar	14083
konvertera	14084
terminal	14085
giltigt	14086
##maskin	14087
protokollet	14088
moduler	14089
ömsesidigt	14090
bunden	14091
näringsliv	14092
##processen	14093
festivalen	14094
beräknar	14095
tangent	14096
vertika	14097
spelautomater	14098
räckvidd	14099
solutions	14100
").	14101
aw	14102
cc	14103
kne	14104
kenn	14105
nil	14106
oral	14107
sas	14108
soll	14109
töm	14110
vrid	14111
##ih	14112
##tat	14113
##mäl	14114
##eing	14115
##slig	14116
##lott	14117
##dor	14118
##direkt	14119
##inte	14120
##inas	14121
##infekt	14122
##ända	14123
##tella	14124
##asis	14125
##rogen	14126
uppkopp	14127
##förlust	14128
spam	14129
meny	14130
##ämd	14131
##erspel	14132
helikop	14133
värm	14134
exam	14135
orgas	14136
motorer	14137
barnbarn	14138
##samlingen	14139
##ape	14140
##skapande	14141
världsh	14142
världsledande	14143
antioxid	14144
onlin	14145
hänför	14146
hänvisning	14147
adresser	14148
adressen	14149
share	14150
jobbade	14151
##sfakt	14152
1500	14153
bestämd	14154
##shot	14155
införandet	14156
kvartal	14157
kollega	14158
konsumera	14159
elit	14160
kulturell	14161
träningen	14162
släppas	14163
registrerad	14164
uppnåd	14165
medvetandet	14166
regelverk	14167
producenter	14168
inkluderande	14169
racing	14170
folkom	14171
1988	14172
badrummet	14173
##regel	14174
stolen	14175
##bola	14176
domstolens	14177
accepta	14178
##sche	14179
1977	14180
kritiskt	14181
uppfyllda	14182
malta	14183
värdighet	14184
hämnd	14185
surfa	14186
##gjord	14187
terrorister	14188
opin	14189
##sägare	14190
värdering	14191
##personal	14192
skriftlig	14193
kilo	14194
shoppa	14195
damer	14196
nöjes	14197
integritetspolicy	14198
kommunicerar	14199
inrätta	14200
föreställningen	14201
immunförsvar	14202
referenser	14203
exklusiv	14204
dramatiskt	14205
förpackning	14206
romantisk	14207
##inarier	14208
egenskaperna	14209
attraktiva	14210
katalog	14211
##tvätt	14212
fördjupa	14213
opposition	14214
fossil	14215
kompatibel	14216
piano	14217
humanitära	14218
##amerikanska	14219
hälsovård	14220
roger	14221
ninten	14222
utrustad	14223
barmhärtighet	14224
##konventionen	14225
##farenhet	14226
academy	14227
prelim	14228
saudiarabien	14229
hepatit	14230
miami	14231
06	14232
05	14233
cu	14234
dil	14235
ig	14236
low	14237
rang	14238
rio	14239
sva	14240
vs	14241
zomb	14242
##sbr	14243
##hamm	14244
##fol	14245
##vol	14246
##ql	14247
förskott	14248
##dell	14249
ingick	14250
##iserats	14251
tillfråg	14252
##terings	14253
##esco	14254
##ivna	14255
##fördelar	14256
frånvaro	14257
##erav	14258
anda	14259
hava	14260
flydde	14261
##sländerna	14262
genomgår	14263
##just	14264
##ordförande	14265
framstående	14266
deltid	14267
liver	14268
##ople	14269
##kompon	14270
##plat	14271
mobb	14272
smycken	14273
gry	14274
återkall	14275
tros	14276
förbinder	14277
förbjuder	14278
lärarna	14279
ändrat	14280
ross	14281
lyser	14282
målning	14283
##linjen	14284
offline	14285
rikta	14286
##sby	14287
obest	14288
konstrukt	14289
huvuden	14290
parts	14291
prisbel	14292
abstrakt	14293
olämp	14294
befann	14295
läsaren	14296
kvarstår	14297
rader	14298
radikal	14299
come	14300
postmeddelanden	14301
skapare	14302
buller	14303
förklaringen	14304
alternativen	14305
##ifiering	14306
trädde	14307
song	14308
publicerar	14309
sökmotor	14310
bibel	14311
automatiska	14312
golden	14313
##skraften	14314
##parten	14315
1973	14316
drabbar	14317
glaset	14318
edinburg	14319
säljas	14320
gemenskapens	14321
oförglöm	14322
uppskattas	14323
argumenter	14324
inleds	14325
inledde	14326
månat	14327
bevitt	14328
förnybara	14329
grät	14330
backup	14331
sjöfart	14332
trupper	14333
tillbringar	14334
måndagen	14335
kriterierna	14336
kastade	14337
diktatur	14338
förneka	14339
showen	14340
botan	14341
uppstått	14342
##smedborg	14343
uppstån	14344
relaterat	14345
mammor	14346
##jungar	14347
sorters	14348
country	14349
##sminister	14350
lampor	14351
clear	14352
näringslivet	14353
luther	14354
utskrift	14355
blinda	14356
uppehållstillstånd	14357
konversation	14358
föregångare	14359
utplå	14360
immateriella	14361
öknen	14362
##förbrukningen	14363
folkomröst	14364
blek	14365
ci	14366
emer	14367
equ	14368
fbi	14369
gay	14370
isen	14371
lill	14372
lem	14373
oupp	14374
tower	14375
ytor	14376
öva	14377
##ric	14378
##läm	14379
##hjul	14380
##diga	14381
##vil	14382
##åå	14383
##stur	14384
stop	14385
utro	14386
##admin	14387
kanalen	14388
kompa	14389
##usentals	14390
nyfik	14391
vilsel	14392
motstå	14393
##ove	14394
##ego	14395
alger	14396
talan	14397
vinkel	14398
luck	14399
##obi	14400
trade	14401
gaming	14402
godis	14403
förändrat	14404
##snummer	14405
hoppar	14406
byggs	14407
flertalet	14408
##anced	14409
sugen	14410
investment	14411
##väsen	14412
regerings	14413
brud	14414
hotade	14415
herrar	14416
noterade	14417
psyko	14418
osann	14419
veckors	14420
bredd	14421
tysklands	14422
kapitalismen	14423
lönsam	14424
psykologiska	14425
psykiat	14426
1969	14427
analysen	14428
användarvän	14429
sydkorea	14430
elektricitet	14431
tryggt	14432
##status	14433
kasinot	14434
turnering	14435
##anderätt	14436
implant	14437
western	14438
dynamisk	14439
garantier	14440
gömmer	14441
##saktiviteter	14442
tufft	14443
##iliteter	14444
vävnad	14445
oväntat	14446
utvidg	14447
tibet	14448
##ttonde	14449
förverklig	14450
surfpla	14451
vardagsrum	14452
##sbeslut	14453
kardi	14454
besvikelse	14455
klättra	14456
##donald	14457
podcast	14458
irriterande	14459
entré	14460
brottslighet	14461
kanadensiska	14462
aptit	14463
##författare	14464
##spersonal	14465
restriktioner	14466
magazine	14467
350	14468
ala	14469
amin	14470
figh	14471
gli	14472
grott	14473
had	14474
kent	14475
kell	14476
kassa	14477
mes	14478
nationen	14479
otaliga	14480
pig	14481
rig	14482
rights	14483
vy	14484
##tjänster	14485
##ose	14486
##oft	14487
##nie	14488
##pm	14489
##lund	14490
##invest	14491
##igna	14492
##onder	14493
##terapi	14494
##ropp	14495
omger	14496
hard	14497
##idor	14498
##emellan	14499
##olin	14500
##oto	14501
samlats	14502
nyfödda	14503
viljan	14504
framträ	14505
##ställe	14506
annon	14507
grunder	14508
##ckas	14509
##smäst	14510
##aktivt	14511
##stemperatur	14512
ledar	14513
lärjungar	14514
##fred	14515
vinsten	14516
lym	14517
##sstats	14518
##sstraff	14519
intrång	14520
konstiga	14521
kroat	14522
möss	14523
cockta	14524
##ivåer	14525
##tage	14526
farm	14527
synvinkel	14528
precision	14529
gruppens	14530
garden	14531
erfarenheten	14532
nämner	14533
funktionerna	14534
specifikationer	14535
aktiviteten	14536
känslighet	14537
##aldo	14538
stängda	14539
oroliga	14540
koffe	14541
poliser	14542
kemisk	14543
väljs	14544
lokalbefolkningen	14545
flyttas	14546
1974	14547
skicklighet	14548
killarna	14549
organisationens	14550
behörig	14551
beräkningar	14552
energis	14553
objektet	14554
behövas	14555
populäraste	14556
lansera	14557
insatsen	14558
övertyga	14559
antagits	14560
##ningsmetoder	14561
befintlig	14562
komponent	14563
lördagen	14564
laddning	14565
laddas	14566
gömma	14567
arbetsplatser	14568
limited	14569
##sbehandling	14570
mobiltelefoner	14571
sköta	14572
halvtim	14573
långsammare	14574
deprimer	14575
##framkallande	14576
värdepapper	14577
carolina	14578
malays	14579
utspelar	14580
entusiast	14581
happy	14582
executive	14583
'.	14584
02	14585
amat	14586
cs	14587
dor	14588
ela	14589
edition	14590
gur	14591
hag	14592
kä	14593
note	14594
tänd	14595
åk	14596
##raget	14597
##stt	14598
##dets	14599
##yler	14600
##vning	14601
##éerna	14602
förfrågningar	14603
indel	14604
avbrott	14605
somal	14606
##ningssätt	14607
dur	14608
##identer	14609
##andan	14610
bevä	14611
##tav	14612
trenden	14613
därpå	14614
behag	14615
motsatt	14616
barack	14617
framme	14618
resmål	14619
försörjning	14620
betong	14621
##dags	14622
chip	14623
sena	14624
lärop	14625
lärjung	14626
sour	14627
ingrepp	14628
vägnar	14629
nett	14630
##ålder	14631
peru	14632
målsättning	14633
##uppfatt	14634
lova	14635
bestod	14636
adhd	14637
travel	14638
boskap	14639
systemen	14640
##sföränd	14641
##givaren	14642
farmor	14643
kollade	14644
##hai	14645
skapandet	14646
fungerat	14647
designad	14648
milstol	14649
##kraften	14650
nämnt	14651
tränings	14652
##pengar	14653
förordningar	14654
doug	14655
automation	14656
utländsk	14657
stått	14658
tillverkningen	14659
inspirerade	14660
modig	14661
odöd	14662
proteiner	14663
retro	14664
museer	14665
uppskattade	14666
fotografier	14667
existera	14668
balanserad	14669
tillhandahållande	14670
sprids	14671
galna	14672
beskrev	14673
mekaniska	14674
##arrang	14675
##styrka	14676
prioriteringar	14677
binära	14678
olagliga	14679
tonåring	14680
utrikesminister	14681
andreas	14682
ockuper	14683
avlopp	14684
evangeliet	14685
kriminella	14686
begravning	14687
oändliga	14688
applicera	14689
tabellen	14690
matsmält	14691
succé	14692
fördjup	14693
##bjudanden	14694
ignorera	14695
transparent	14696
division	14697
spotify	14698
pussel	14699
efterlevnad	14700
kompositör	14701
##anslutning	14702
corporation	14703
##kommunikation	14704
tredjeländer	14705
kevin	14706
nintendo	14707
canc	14708
dyl	14709
fda	14710
göd	14711
lapp	14712
money	14713
nätt	14714
oil	14715
pant	14716
rita	14717
##rit	14718
##dist	14719
##båg	14720
##byrån	14721
##zi	14722
##ür	14723
##arer	14724
##any	14725
##infar	14726
##stopp	14727
medierna	14728
##aser	14729
##emit	14730
##andes	14731
sköna	14732
skugg	14733
##sska	14734
##une	14735
konungen	14736
##steuropa	14737
##rim	14738
##rie	14739
##slo	14740
##sland	14741
vilse	14742
arbetstillfällen	14743
användandet	14744
##gia	14745
......	14746
läck	14747
##yrkan	14748
chile	14749
innehav	14750
##kläd	14751
sväl	14752
laglig	14753
##värme	14754
geomet	14755
maje	14756
aktuellt	14757
kvinnans	14758
##sbrott	14759
##process	14760
striden	14761
trakass	14762
heal	14763
systematiskt	14764
fynd	14765
möt	14766
short	14767
röker	14768
lättnad	14769
##sfil	14770
tacksamma	14771
ansvarsfullt	14772
nedsatt	14773
hundarna	14774
nödsitu	14775
uppfann	14776
magister	14777
kommission	14778
elisa	14779
förutse	14780
kännedom	14781
fredrik	14782
##aliseringen	14783
böter	14784
doktorn	14785
##atoriska	14786
publicering	14787
laddar	14788
##graden	14789
banks	14790
försvag	14791
people	14792
bloggare	14793
psykolog	14794
utformningen	14795
julia	14796
julkla	14797
tolka	14798
ungdoms	14799
försvars	14800
musklerna	14801
bekvämlighet	14802
sjunker	14803
datumet	14804
föreslog	14805
##ilding	14806
italiensk	14807
erkända	14808
representera	14809
profiler	14810
variant	14811
gymmet	14812
1930	14813
konsumenten	14814
##gatan	14815
hamnat	14816
migranter	14817
nikotin	14818
vistas	14819
olaglig	14820
trådlösa	14821
gynn	14822
klassificering	14823
fruktansvärda	14824
kryptering	14825
progressiva	14826
civilisation	14827
steroider	14828
skugga	14829
mp3	14830
dröjsmål	14831
östersjön	14832
anlände	14833
fitness	14834
stephen	14835
##ansökan	14836
påminnelse	14837
nokia	14838
libanon	14839
generalsekreterare	14840
pionjär	14841
bekostnad	14842
traditionen	14843
osannol	14844
aga	14845
cab	14846
earth	14847
fert	14848
kapp	14849
obet	14850
qa	14851
tet	14852
uv	14853
##oy	14854
##oider	14855
##uda	14856
##stjärna	14857
förn	14858
##ormer	14859
ärendet	14860
##änkande	14861
##eligt	14862
stir	14863
##ppers	14864
omt	14865
omega	14866
##idens	14867
skur	14868
##skog	14869
##ikar	14870
##utsikt	14871
##entlig	14872
spor	14873
spell	14874
överskott	14875
manhatt	14876
##ligaste	14877
##skada	14878
behär	14879
flög	14880
präster	14881
eran	14882
##cho	14883
##öjt	14884
##ilja	14885
spelets	14886
kvitt	14887
bilarna	14888
##ops	14889
series	14890
##hållare	14891
hemland	14892
handlingen	14893
lagom	14894
never	14895
talare	14896
fallit	14897
valen	14898
stränderna	14899
likväl	14900
fortsättningen	14901
lås	14902
låtit	14903
##orial	14904
marknadens	14905
ägande	14906
bytte	14907
##sstaten	14908
testas	14909
guider	14910
perfektion	14911
användningsområden	14912
förhållningssätt	14913
drive	14914
fysi	14915
mors	14916
cykla	14917
##försörjning	14918
förenkla	14919
konkurs	14920
ramar	14921
intressenter	14922
arbetsdagar	14923
volymen	14924
potentialen	14925
luftföroren	14926
1971	14927
1975	14928
utformats	14929
midnatt	14930
debiter	14931
öppenhet	14932
austral	14933
akvar	14934
lanseringen	14935
##plac	14936
fotografi	14937
serveras	14938
klockor	14939
koncentrera	14940
tjejerna	14941
reparera	14942
ingredienserna	14943
näringsid	14944
spegel	14945
sammanhanget	14946
regissören	14947
##upplevelsen	14948
hormoner	14949
koncernchef	14950
klassificeras	14951
champion	14952
ståndpunkt	14953
arbetslösa	14954
mammas	14955
awards	14956
aggressiva	14957
director	14958
tryckt	14959
kolumn	14960
inlärning	14961
förhandlingarna	14962
tropiska	14963
##mästare	14964
jason	14965
administratör	14966
filippinerna	14967
financial	14968
##ograph	14969
näsan	14970
##sslutande	14971
##eravtryck	14972
alar	14973
bjöd	14974
cens	14975
dansk	14976
hier	14977
hinna	14978
mü	14979
mell	14980
ping	14981
pur	14982
rens	14983
zoo	14984
’,	14985
##ij	14986
##tjän	14987
##oat	14988
##mats	14989
##lov	14990
##ljus	14991
##yft	14992
##65	14993
##stre	14994
förint	14995
attity	14996
##order	14997
ensta	14998
somna	14999
##alm	15000
stru	15001
jaga	15002
##emen	15003
utgången	15004
kanten	15005
skörd	15006
spion	15007
spred	15008
närstående	15009
##lever	15010
samlades	15011
##sapp	15012
kongress	15013
##ogas	15014
visuella	15015
verktygen	15016
##imeter	15017
blixt	15018
##pert	15019
vården	15020
##gie	15021
hjältar	15022
##sättare	15023
##kontakt	15024
löv	15025
studierna	15026
anth	15027
101	15028
hospital	15029
prevent	15030
planerad	15031
plantera	15032
stry	15033
bokföring	15034
##stenar	15035
code	15036
försöket	15037
site	15038
elegan	15039
bestäms	15040
nedåt	15041
kommunistiska	15042
omfattningen	15043
kraftig	15044
grupperna	15045
garder	15046
diskret	15047
biologi	15048
förena	15049
kompletta	15050
experimen	15051
fisken	15052
njutning	15053
färdas	15054
itunes	15055
1985	15056
##regl	15057
enheterna	15058
review	15059
casinot	15060
vaken	15061
1968	15062
vattent	15063
installerat	15064
smartphones	15065
epide	15066
glädjen	15067
digitalisering	15068
bekräftade	15069
djupet	15070
elektrom	15071
siffra	15072
överväger	15073
##industri	15074
räntan	15075
lastbilar	15076
kollektiva	15077
resulterade	15078
kontraktet	15079
melod	15080
omvandling	15081
heders	15082
bearbeta	15083
sensor	15084
tilldelats	15085
forumet	15086
taktik	15087
beställde	15088
bistå	15089
pålitliga	15090
diamant	15091
onödigt	15092
influensa	15093
azure	15094
##maskiner	15095
oxford	15096
känslomässigt	15097
mäktiga	15098
skäms	15099
täckning	15100
moses	15101
random	15102
etniska	15103
gymnasiet	15104
kakor	15105
missförstånd	15106
skylt	15107
konsolid	15108
##konstruktion	15109
luxem	15110
oönskade	15111
tyngd	15112
prostata	15113
whisky	15114
inflytelser	15115
legitima	15116
befogenhet	15117
nigeria	15118
falskt	15119
vrede	15120
enstaka	15121
aa	15122
ale	15123
fusion	15124
nam	15125
pv	15126
sion	15127
von	15128
voro	15129
zon	15130
##offer	15131
##put	15132
##post	15133
##länd	15134
##väv	15135
##zar	15136
##arl	15137
##stu	15138
föränder	15139
##deklar	15140
injic	15141
avbild	15142
avdelningar	15143
tillskriv	15144
##eld	15145
stone	15146
omedvet	15147
dublin	15148
##verken	15149
fräl	15150
##ree	15151
komedi	15152
skanska	15153
##skriter	15154
##ents	15155
##föräl	15156
spå	15157
konfron	15158
arena	15159
varaktighet	15160
eftersträ	15161
##osof	15162
pressen	15163
exchange	15164
##rädet	15165
demens	15166
##perter	15167
delning	15168
besitt	15169
klokt	15170
regimen	15171
jude	15172
hemligt	15173
ledaren	15174
##konf	15175
grundat	15176
marknaderna	15177
##issionen	15178
tjänade	15179
arthur	15180
ingående	15181
vägra	15182
långtid	15183
studenten	15184
älskat	15185
hörsel	15186
parten	15187
rösträtt	15188
##ibla	15189
kapaciteten	15190
universal	15191
nedgång	15192
läkarna	15193
önskad	15194
drast	15195
bytt	15196
bekämpning	15197
katedral	15198
##kurs	15199
iranska	15200
café	15201
pappan	15202
uppnår	15203
koal	15204
##yndigheten	15205
luftfart	15206
skönheten	15207
1972	15208
smaka	15209
rymmer	15210
smartare	15211
otrolig	15212
ambul	15213
insist	15214
recens	15215
inleddes	15216
kläderna	15217
lanserade	15218
hårdvara	15219
fåglarna	15220
##zonen	15221
##odellen	15222
peters	15223
erkänn	15224
konstnärliga	15225
skriftliga	15226
österrik	15227
initiativet	15228
##förändringar	15229
olyckan	15230
rulla	15231
masker	15232
kartor	15233
wales	15234
mexikanska	15235
rengöra	15236
##smyndigheten	15237
gudomlig	15238
granne	15239
märkligt	15240
tillförlitlig	15241
konkurrenskraftiga	15242
mystisk	15243
oändligt	15244
förbehåll	15245
##fältet	15246
nutrition	15247
deleg	15248
redovisas	15249
ikoniska	15250
vardagsrummet	15251
##sformer	15252
tornet	15253
year	15254
jungfru	15255
##sstämman	15256
dysfunktion	15257
klimatförändringarna	15258
flaskan	15259
palace	15260
frilans	15261
beklagar	15262
tortyr	15263
photoshop	15264
understry	15265
lissabon	15266
solljus	15267
koffein	15268
.(	15269
ate	15270
adap	15271
bun	15272
bitt	15273
fiska	15274
gt	15275
jet	15276
jenn	15277
mb	15278
tå	15279
ted	15280
tip	15281
vans	15282
##uum	15283
##nan	15284
##position	15285
##das	15286
##digande	15287
##ötter	15288
##32	15289
##etoden	15290
fördes	15291
##orienter	15292
##isont	15293
##element	15294
viagra	15295
stal	15296
##cket	15297
##roppar	15298
varmare	15299
varannan	15300
duktiga	15301
##emin	15302
utställ	15303
##rey	15304
skot	15305
skjuter	15306
##års	15307
##skuld	15308
bevarande	15309
såna	15310
baren	15311
tröj	15312
##icyn	15313
hatt	15314
excell	15315
##lings	15316
respon	15317
##visningen	15318
läder	15319
kläm	15320
hemska	15321
##värdigt	15322
väska	15323
väckte	15324
talib	15325
förlita	15326
skrivs	15327
skrivna	15328
skrivas	15329
adri	15330
färska	15331
luc	15332
leveran	15333
boenden	15334
blandas	15335
blandade	15336
metal	15337
godhet	15338
nationerna	15339
typerna	15340
##ämpande	15341
utbildad	15342
betalade	15343
testade	15344
greps	15345
tillämpligt	15346
##centra	15347
verksamhets	15348
skadas	15349
tydligare	15350
föresprå	15351
##försörj	15352
anledningarna	15353
##äktige	15354
evighet	15355
skickades	15356
designers	15357
uppdateringen	15358
medicinen	15359
exped	15360
optioner	15361
osäkra	15362
våldet	15363
våldsamma	15364
domstolar	15365
presenterades	15366
lånet	15367
##skolor	15368
räcka	15369
bröderna	15370
vittnar	15371
förvärvet	15372
utnyttj	15373
makro	15374
slavar	15375
detaljerna	15376
stötta	15377
bekräftat	15378
stabila	15379
övertygande	15380
kompletterar	15381
petro	15382
stunden	15383
konferenser	15384
vardagliga	15385
tandläkare	15386
skådespelaren	15387
fingrar	15388
fingeravtryck	15389
beviljats	15390
migrations	15391
explorer	15392
exploder	15393
cambridge	15394
fabriker	15395
mångfal	15396
certifierad	15397
utesluta	15398
##sfrihet	15399
misslyckats	15400
ondska	15401
##fonden	15402
operatör	15403
ångra	15404
flaskor	15405
tokyo	15406
luktar	15407
asylsökande	15408
substanser	15409
iakttag	15410
avvikelser	15411
musikaliska	15412
återspeglar	15413
sjuksköterska	15414
kvadratmeter	15415
sväng	15416
##ämmelser	15417
bensin	15418
tredjeparts	15419
sperm	15420
yngsta	15421
överväldigande	15422
mödrar	15423
förvisso	15424
återhämta	15425
livskvalitet	15426
liverpool	15427
.«	15428
5g	15429
ay	15430
ey	15431
ful	15432
hip	15433
oy	15434
pas	15435
ringen	15436
rönt	15437
sad	15438
##ians	15439
##mart	15440
##mående	15441
##sö	15442
##säson	15443
##dokument	15444
##batt	15445
##öder	15446
##arie	15447
##inställningar	15448
##ated	15449
inde	15450
inrikes	15451
##inga	15452
##inge	15453
department	15454
stycke	15455
varningar	15456
omfam	15457
anställa	15458
##vert	15459
##vering	15460
utdelning	15461
skin	15462
skiva	15463
##skans	15464
##skyl	15465
allsm	15466
##dav	15467
##ägenhet	15468
prospekt	15469
##lett	15470
minuten	15471
##saj	15472
##saken	15473
artr	15474
tröja	15475
manu	15476
härstam	15477
nyare	15478
##artiklar	15479
syss	15480
välmående	15481
börda	15482
branden	15483
##ckad	15484
smala	15485
längtan	15486
speed	15487
perform	15488
domar	15489
skrivande	15490
fastställer	15491
snabbast	15492
traum	15493
hebre	15494
board	15495
intra	15496
##rätter	15497
gods	15498
##unge	15499
##snivån	15500
karol	15501
hoppade	15502
fots	15503
jämnt	15504
1200	15505
raden	15506
bytas	15507
##sprid	15508
##pektivet	15509
fokuserade	15510
kvalitets	15511
kontrollerade	15512
monopol	15513
märket	15514
##iana	15515
definierade	15516
hjärtinfar	15517
lyckad	15518
utomjord	15519
noterar	15520
bana	15521
kalkyl	15522
deltagit	15523
förberedd	15524
##skraven	15525
inspirerar	15526
låne	15527
1965	15528
5000	15529
uppfattar	15530
##relation	15531
sydamerika	15532
övertygelse	15533
vågor	15534
sångare	15535
befinna	15536
dragit	15537
##sexamen	15538
dialogen	15539
avsiktligt	15540
passagerar	15541
hedra	15542
jordbruket	15543
attraktioner	15544
uppmuntras	15545
rättfärdiga	15546
förpackningar	15547
prövning	15548
ambassadör	15549
diagnosen	15550
dygn	15551
neurolog	15552
drottningen	15553
ånger	15554
##gränssnitt	15555
dricksvatten	15556
allergisk	15557
tolerans	15558
fullkomligt	15559
stjäla	15560
##människor	15561
crypt	15562
blödning	15563
fläckar	15564
##bidrag	15565
plånbok	15566
påverkat	15567
adekv	15568
bläddra	15569
sajten	15570
rehabilitering	15571
soffan	15572
##ammatoriska	15573
mariju	15574
##uropeiska	15575
lewis	15576
tobaks	15577
hälsoproblem	15578
cow	15579
fos	15580
gil	15581
häll	15582
hata	15583
jers	15584
ket	15585
okänt	15586
sco	15587
’.	15588
##kus	15589
##ough	15590
##ui	15591
##mn	15592
##rets	15593
##sjukdom	15594
##hål	15595
##brev	15596
##vå	15597
##vagn	15598
##70	15599
##intag	15600
##inkomst	15601
förbl	15602
förhör	15603
medi	15604
medgivande	15605
##algi	15606
vik	15607
stall	15608
##terades	15609
##ives	15610
anslag	15611
frö	15612
frön	15613
##skift	15614
##otyper	15615
##förordningen	15616
##ägaren	15617
överblick	15618
##ttack	15619
undervisar	15620
underjord	15621
##umret	15622
##jälp	15623
##genom	15624
##odos	15625
blank	15626
synas	15627
genomgå	15628
vidtar	15629
krydd	15630
läpp	15631
##berry	15632
våt	15633
chelse	15634
kloka	15635
##trar	15636
##smässiga	15637
smek	15638
##fattande	15639
##brut	15640
onorm	15641
beställer	15642
tarm	15643
##kventa	15644
godt	15645
shang	15646
java	15647
riskera	15648
organiserade	15649
transpor	15650
olj	15651
oljor	15652
synligt	15653
åtgärda	15654
magic	15655
klassrum	15656
designa	15657
övrig	15658
##satsen	15659
guard	15660
##erto	15661
monet	15662
märks	15663
more	15664
utmana	15665
##temedel	15666
tänkbara	15667
lyckan	15668
begärt	15669
dropp	15670
skärmar	15671
accepteras	15672
##belast	15673
bestämmelse	15674
1979	15675
fastställande	15676
motiverade	15677
nycklar	15678
nationalpark	15679
anpassar	15680
smaken	15681
övervakas	15682
##baserat	15683
metoderna	15684
förvaltningen	15685
önskningar	15686
blockerar	15687
intervjun	15688
fördö	15689
1945	15690
gästfrihet	15691
representerade	15692
skriker	15693
intensivt	15694
3000	15695
beskydd	15696
instruktionerna	15697
sårbar	15698
christop	15699
tålmod	15700
moraliskt	15701
walk	15702
cellerna	15703
revolutionära	15704
selekt	15705
bedrivs	15706
begått	15707
överträdelse	15708
givande	15709
##skväll	15710
area	15711
ropar	15712
arbetslivet	15713
obligatorisk	15714
absorber	15715
##gränsen	15716
högkvalitativ	15717
återfinns	15718
##stitution	15719
fossila	15720
kejsaren	15721
distribuera	15722
cigarett	15723
välsignelser	15724
kidnapp	15725
utfärda	15726
##cifika	15727
tobak	15728
volontär	15729
rumänien	15730
kommenterar	15731
machine	15732
leonard	15733
jurisdiktion	15734
arsenal	15735
förefaller	15736
samvete	15737
antisemit	15738
indonesien	15739
erektion	15740
legendariska	15741
nyfikna	15742
kroatien	15743
marijuana	15744
?.	15745
bast	15746
cig	15747
gon	15748
gate	15749
hov	15750
hert	15751
hockey	15752
ore	15753
rf	15754
rån	15755
rans	15756
rov	15757
rick	15758
wo	15759
åttonde	15760
##tons	15761
##oon	15762
##uff	15763
##modeller	15764
##mottag	15765
##slar	15766
##vux	15767
##öta	15768
##qvist	15769
##ston	15770
##stjänsten	15771
##defin	15772
ingången	15773
inställningen	15774
##kamera	15775
avveck	15776
avhandling	15777
tillade	15778
##elig	15779
harvard	15780
anständ	15781
##idas	15782
##verkade	15783
utdrag	15784
utrot	15785
skry	15786
##skin	15787
##sskatt	15788
beord	15789
uppkommer	15790
prover	15791
##ular	15792
härmed	15793
##skaliga	15794
efterhand	15795
##osam	15796
flit	15797
##gering	15798
tvister	15799
##ordon	15800
arbetstid	15801
1920	15802
##öken	15803
cha	15804
chat	15805
regim	15806
safar	15807
smält	15808
than	15809
##ydlig	15810
##ptop	15811
väck	15812
georg	15813
lärar	15814
produktutveckling	15815
parag	15816
##äten	15817
riktad	15818
invig	15819
##sbegräns	15820
train	15821
boy	15822
botemedel	15823
direktören	15824
förebild	15825
karin	15826
organismer	15827
##ugor	15828
fars	15829
farfar	15830
apples	15831
säkerhetskop	15832
unge	15833
synsätt	15834
rykt	15835
skolorna	15836
raderas	15837
accept	15838
kört	15839
utförde	15840
amnest	15841
testning	15842
grejer	15843
budbärare	15844
tempor	15845
screen	15846
djuret	15847
identiska	15848
framgången	15849
175	15850
##redit	15851
##övervakning	15852
släppts	15853
ovanpå	15854
produktions	15855
operationer	15856
sänker	15857
morgondagens	15858
bevisar	15859
slagit	15860
1987	15861
semestern	15862
tony	15863
bankkonto	15864
frukten	15865
fjärran	15866
kritiker	15867
fasen	15868
upprätthåll	15869
omedelbara	15870
odling	15871
skälen	15872
##savgift	15873
##head	15874
objektiv	15875
destrukt	15876
inflation	15877
tuffa	15878
##priser	15879
förhands	15880
upprepar	15881
upprepas	15882
dejt	15883
förtroendet	15884
änglarna	15885
##beford	15886
representation	15887
natural	15888
trupp	15889
##splanering	15890
annonsering	15891
databaser	15892
mexico	15893
affärsverksamhet	15894
tvivlar	15895
agerande	15896
segern	15897
mcdonald	15898
##faktor	15899
befrielse	15900
inblandad	15901
schweiziska	15902
geografiskt	15903
smidig	15904
transporteras	15905
sammanlagda	15906
portugis	15907
förberedelse	15908
##____	15909
pyram	15910
##kunskap	15911
smutsiga	15912
keram	15913
omröstning	15914
högtalare	15915
##atexamen	15916
tillfredsställelse	15917
prestigefyllda	15918
meteor	15919
dilem	15920
##hammad	15921
edinburgh	15922
artrit	15923
bb	15924
bug	15925
cel	15926
giss	15927
kw	15928
nul	15929
ora	15930
our	15931
tält	15932
uber	15933
##räng	15934
##liva	15935
##hopp	15936
##händer	15937
##féer	15938
##bibliote	15939
##ttit	15940
##anne	15941
##oman	15942
förank	15943
insättningar	15944
##iserande	15945
påstående	15946
påfölj	15947
##elin	15948
medkänsla	15949
##esiska	15950
omvärlden	15951
##iderna	15952
utåt	15953
allen	15954
upphets	15955
regi	15956
repl	15957
##vari	15958
##varu	15959
##umma	15960
##ffär	15961
andan	15962
åring	15963
##rier	15964
värma	15965
##språ	15966
blond	15967
slösa	15968
framställning	15969
##visor	15970
sägas	15971
våningar	15972
klor	15973
inneha	15974
hemligheten	15975
glukos	15976
företagande	15977
forna	15978
mater	15979
väte	15980
svarts	15981
sned	15982
intrycket	15983
stadigt	15984
##metoder	15985
formella	15986
undrade	15987
##kore	15988
timmen	15989
timmarna	15990
cour	15991
kortsikt	15992
lättillgäng	15993
solned	15994
klarat	15995
växla	15996
orsakat	15997
passiv	15998
infördes	15999
amerikanskt	16000
acc	16001
acco	16002
##juta	16003
halvan	16004
skyddad	16005
1600	16006
etiop	16007
##aterala	16008
##ynn	16009
##redo	16010
kärlekens	16011
minskas	16012
drömt	16013
nordöstra	16014
##cca	16015
meddelas	16016
sjukt	16017
utlänningar	16018
seminarier	16019
enhetlig	16020
johnny	16021
räckte	16022
##utvecklare	16023
##filer	16024
##banor	16025
small	16026
quest	16027
föredra	16028
bekvämligheter	16029
mattan	16030
jeans	16031
panor	16032
försäkringsbolag	16033
svenskar	16034
föreslås	16035
berömd	16036
fördär	16037
robust	16038
##sledam	16039
ångrar	16040
family	16041
sjöar	16042
inträffat	16043
nervsystemet	16044
flaggan	16045
stimulerar	16046
sjönk	16047
analyserar	16048
gynna	16049
bluff	16050
introducerades	16051
hyllning	16052
tillförlitliga	16053
audio	16054
överstiga	16055
underrätta	16056
tveka	16057
tidskriften	16058
##kört	16059
buddha	16060
wilson	16061
##värdering	16062
##köping	16063
utarbeta	16064
sammantaget	16065
lanka	16066
##undersökningar	16067
mysterium	16068
##myndigheten	16069
evaku	16070
##skomp	16071
sticker	16072
beslutsfattande	16073
obegränsad	16074
oskyldiga	16075
energieffektivitet	16076
regisserad	16077
luftkonditionering	16078
avundsjuk	16079
förödande	16080
gabri	16081
immigr	16082
yahoo	16083
jessica	16084
mångfalden	16085
,+	16086
es	16087
mönstret	16088
pad	16089
sle	16090
tm	16091
tig	16092
yes	16093
##lish	16094
##höj	16095
##die	16096
##fva	16097
##frastruktur	16098
##buss	16099
##vorna	16100
##cd	16101
##cts	16102
##wi	16103
##wer	16104
##18	16105
##90	16106
##anas	16107
##omo	16108
förö	16109
dell	16110
avskil	16111
avkopp	16112
varu	16113
varan	16114
vardera	16115
utma	16116
utbetalning	16117
skorna	16118
##ungar	16119
##rund	16120
reuter	16121
överge	16122
överskrider	16123
hanteringen	16124
underlag	16125
##skaffa	16126
värdel	16127
print	16128
##spraxis	16129
brinner	16130
broms	16131
resande	16132
krång	16133
##ligheterna	16134
läcker	16135
klädd	16136
##bilden	16137
##smannen	16138
frågeställ	16139
ledt	16140
säkerställ	16141
##bab	16142
informationssystem	16143
##brän	16144
##syk	16145
##princi	16146
följas	16147
drän	16148
##faranden	16149
studios	16150
komposition	16151
##erator	16152
indikatorer	16153
karma	16154
isär	16155
hoppet	16156
182	16157
jämlikhet	16158
sanningar	16159
rykten	16160
skolans	16161
tool	16162
byråk	16163
magiskt	16164
klassrummet	16165
beskrivningen	16166
monte	16167
krigs	16168
förespråk	16169
cypern	16170
kopplar	16171
##växten	16172
conta	16173
logiskt	16174
länka	16175
matchar	16176
avslutades	16177
kali	16178
telefonsamtal	16179
grov	16180
förtviv	16181
människas	16182
militärt	16183
demokratisk	16184
privatliv	16185
bedömningar	16186
middagen	16187
tillåtas	16188
genomsnittet	16189
hjärnans	16190
rutt	16191
omöjlig	16192
styre	16193
mikrofon	16194
dragon	16195
utses	16196
höjden	16197
giftiga	16198
självständiga	16199
bevilja	16200
förhoppningar	16201
[...]
