<unk>	0
<s>	0
</s>	0
er	-0
en	-1
▁s	-2
ar	-3
▁a	-4
in	-5
▁d	-6
et	-7
▁f	-8
an	-9
ll	-10
▁o	-11
▁m	-12
tt	-13
ör	-14
ti	-15
▁v	-16
är	-17
▁h	-18
▁k	-19
om	-20
▁b	-21
▁p	-22
st	-23
ch	-24
ig	-25
▁för	-26
on	-27
▁och	-28
▁att	-29
or	-30
de	-31
▁en	-32
▁i	-33
na	-34
ing	-35
ka	-36
än	-37
▁l	-38
▁t	-39
ra	-40
▁in	-41
ed	-42
▁är	-43
▁g	-44
▁.	-45
ag	-46
▁u	-47
▁ti	-48
▁n	-49
▁av	-50
▁som	-51
el	-52
is	-53
ta	-54
▁r	-55
▁D	-56
▁,	-57
▁till	-58
ter	-59
▁det	-60
te	-61
▁e	-62
ck	-63
▁på	-64
es	-65
▁med	-66
lig	-67
pp	-68
ning	-69
nd	-70
▁vi	-71
ro	-72
▁S	-73
▁de	-74
ån	-75
am	-76
as	-77
▁den	-78
▁st	-79
al	-80
▁var	-81
▁j	-82
ver	-83
▁om	-84
år	-85
kt	-86
▁inte	-87
▁har	-88
at	-89
tion	-90
▁M	-91
▁an	-92
il	-93
ett	-94
ller	-95
em	-96
and	-97
▁ut	-98
ri	-99
äl	-100
▁V	-101
▁du	-102
der	-103
▁H	-104
ätt	-105
li	-106
re	-107
▁A	-108
▁kan	-109
da	-110
▁ett	-111
lla	-112
ur	-113
▁F	-114
▁fr	-115
ande	-116
▁sk	-117
åg	-118
ade	-119
are	-120
▁kom	-121
it	-122
▁E	-123
het	-124
ad	-125
sk	-126
▁ö	-127
un	-128
▁Det	-129
ol	-130
▁jag	-131
▁be	-132
▁I	-133
▁T	-134
mer	-135
▁J	-136
den	-137
▁upp	-138
▁1	-139
▁B	-140
sta	-141
äg	-142
ska	-143
ot	-144
ång	-145
▁eller	-146
▁P	-147
▁ska	-148
sa	-149
▁pro	-150
▁så	-151
▁N	-152
ma	-153
si	-154
▁O	-155
▁K	-156
▁2	-157
för	-158
▁från	-159
änd	-160
ek	-161
▁sp	-162
▁(	-163
itt	-164
▁-	-165
ru	-166
ort	-167
ent	-168
▁?	-169
äm	-170
▁G	-171
▁"	-172
ut	-173
▁L	-174
nder	-175
ker	-176
inn	-177
▁ar	-178
▁C	-179
ser	-180
▁li	-181
la	-182
▁någ	-183
▁er	-184
fter	-185
▁sam	-186
▁över	-187
us	-188
▁”	-189
▁kommer	-190
yck	-191
va	-192
▁kon	-193
kti	-194
ud	-195
ligt	-196
isk	-197
▁han	-198
▁min	-199
▁R	-200
▁när	-201
▁Jag	-202
ara	-203
▁all	-204
▁gör	-205
äll	-206
era	-207
▁re	-208
änn	-209
liga	-210
og	-211
ram	-212
um	-213
ss	-214
jäl	-215
ff	-216
ul	-217
ster	-218
▁tr	-219
▁:	-220
var	-221
ell	-222
▁din	-223
▁man	-224
▁sig	-225
le	-226
▁å	-227
äng	-228
▁vara	-229
ste	-230
▁anv	-231
▁under	-232
▁Vi	-233
bet	-234
▁c	-235
ven	-236
▁na	-237
00	-238
iska	-239
gi	-240
▁sin	-241
▁dig	-242
▁må	-243
▁år	-244
▁beh	-245
ull	-246
▁U	-247
del	-248
ens	-249
▁and	-250
je	-251
▁men	-252
ess	-253
▁per	-254
ans	-255
så	-256
▁fa	-257
▁gen	-258
yg	-259
▁!	-260
▁vär	-261
ve	-262
bb	-263
ik	-264
▁här	-265
ft	-266
▁hel	-267
▁ny	-268
▁)	-269
▁ver	-270
▁där	-271
▁För	-272
▁alla	-273
pa	-274
inns	-275
dig	-276
▁efter	-277
ga	-278
▁or	-279
▁ha	-280
▁fl	-281
tal	-282
ju	-283
ne	-284
od	-285
▁ock	-286
ger	-287
▁bli	-288
art	-289
son	-290
se	-291
▁del	-292
▁också	-293
▁vill	-294
▁Den	-295
arna	-296
ic	-297
att	-298
▁finns	-299
du	-300
▁andra	-301
rä	-302
▁se	-303
ak	-304
▁sl	-305
ok	-306
▁sy	-307
▁vis	-308
sl	-309
▁än	-310
id	-311
▁En	-312
▁dag	-313
▁ex	-314
▁mig	-315
ycket	-316
▁mer	-317
..	-318
ling	-319
ats	-320
ill	-321
öd	-322
sam	-323
öj	-324
▁ä	-325
▁–	-326
▁genom	-327
▁In	-328
▁ing	-329
ilj	-330
▁detta	-331
▁dem	-332
▁bör	-333
os	-334
▁hon	-335
ord	-336
▁De	-337
▁bara	-338
ci	-339
itet	-340
▁fram	-341
edan	-342
per	-343
▁mycket	-344
▁pl	-345
▁3	-346
▁ta	-347
ningar	-348
▁arbet	-349
vå	-350
▁verk	-351
ligen	-352
land	-353
▁po	-354
▁väl	-355
▁vid	-356
▁W	-357
und	-358
▁vad	-359
ånga	-360
▁kun	-361
▁20	-362
ark	-363
▁mot	-364
▁få	-365
terna	-366
▁vil	-367
tioner	-368
ningen	-369
ja	-370
for	-371
▁ka	-372
tiv	-373
▁kl	-374
▁spel	-375
▁göra	-376
▁pr	-377
hå	-378
rå	-379
▁Men	-380
▁någon	-381
▁person	-382
▁ber	-383
▁res	-384
kl	-385
▁des	-386
ist	-387
▁bes	-388
▁hur	-389
gen	-390
▁rätt	-391
änder	-392
▁själ	-393
▁bet	-394
ulle	-395
heter	-396
ella	-397
est	-398
▁for	-399
▁...	-400
cka	-401
ld	-402
▁sta	-403
vis	-404
ök	-405
lem	-406
▁Om	-407
▁denna	-408
▁sätt	-409
▁oss	-410
opp	-411
sp	-412
ring	-413
eras	-414
▁Du	-415
▁vår	-416
▁ni	-417
▁hö	-418
▁använd	-419
▁kv	-420
▁liv	-421
▁säg	-422
▁nu	-423
ni	-424
▁gru	-425
▁bar	-426
▁skulle	-427
yr	-428
▁stor	-429
▁männ	-430
▁allt	-431
▁produ	-432
äk	-433
nan	-434
ant	-435
▁behö	-436
nad	-437
▁förs	-438
rig	-439
▁bil	-440
ier	-441
ende	-442
sion	-443
▁vet	-444
öl	-445
stå	-446
skap	-447
▁le	-448
ock	-449
▁även	-450
men	-451
ken	-452
yd	-453
▁tid	-454
▁måste	-455
▁många	-456
▁Och	-457
▁får	-458
▁br	-459
ts	-460
ktig	-461
▁hade	-462
etag	-463
▁5	-464
som	-465
▁hjäl	-466
▁utan	-467
tid	-468
ber	-469
▁St	-470
▁då	-471
▁något	-472
kel	-473
▁människ	-474
▁ser	-475
sätt	-476
öm	-477
nings	-478
▁barn	-479
ce	-480
▁bra	-481
▁19	-482
ket	-483
ställ	-484
▁bl	-485
äst	-486
▁sä	-487
▁4	-488
▁första	-489
veck	-490
▁gång	-491
▁201	-492
▁inne	-493
▁dessa	-494
pl	-495
ön	-496
▁vå	-497
▁mo	-498
dag	-499
rar	-500
ända	-501
sti	-502
▁ra	-503
▁hå	-504
▁Ä	-505
ost	-506
ala	-507
▁möj	-508
lighet	-509
▁w	-510
aren	-511
▁ma	-512
ick	-513
▁inom	-514
▁di	-515
ästa	-516
oll	-517
lika	-518
▁två	-519
ass	-520
▁komm	-521
▁hand	-522
▁ju	-523
▁utveck	-524
▁själv	-525
ation	-526
uro	-527
▁sina	-528
else	-529
▁fort	-530
▁fråg	-531
vs	-532
▁led	-533
▁hem	-534
▁företag	-535
▁kont	-536
▁of	-537
▁lag	-538
▁människor	-539
▁Han	-540
▁hög	-541
ellan	-542
stem	-543
▁åt	-544
op	-545
▁Detta	-546
▁När	-547
vi	-548
ering	-549
jän	-550
bil	-551
äd	-552
lden	-553
▁int	-554
man	-555
nat	-556
▁ty	-557
nar	-558
vär	-559
håll	-560
di	-561
▁säker	-562
▁te	-563
▁Hur	-564
digt	-565
åt	-566
▁sm	-567
iga	-568
des	-569
▁nya	-570
▁sa	-571
▁milj	-572
im	-573
vet	-574
tat	-575
ölj	-576
▁fun	-577
verk	-578
▁Vad	-579
▁mellan	-580
▁Var	-581
ia	-582
▁ditt	-583
▁vä	-584
sen	-585
▁världen	-586
▁börj	-587
det	-588
erna	-589
▁lö	-590
▁behöver	-591
mation	-592
ytt	-593
▁gj	-594
▁våra	-595
▁olika	-596
▁gå	-597
▁läng	-598
lev	-599
ack	-600
ägg	-601
ir	-602
mar	-603
▁åter	-604
▁hela	-605
jär	-606
▁infor	-607
ott	-608
▁stör	-609
ele	-610
▁sitt	-611
▁fin	-612
▁säger	-613
lar	-614
▁dina	-615
he	-616
▁sedan	-617
ygg	-618
▁kän	-619
▁gl	-620
▁grund	-621
tera	-622
▁några	-623
▁deras	-624
▁förb	-625
pel	-626
gång	-627
▁varje	-628
ran	-629
all	-630
erade	-631
▁An	-632
▁mark	-633
ära	-634
kter	-635
rän	-636
fatt	-637
ov	-638
gram	-639
org	-640
▁ig	-641
▁blir	-642
ktion	-643
ub	-644
edel	-645
andet	-646
▁6	-647
tur	-648
ry	-649
▁enda	-650
▁tjän	-651
▁information	-652
ob	-653
▁väg	-654
ress	-655
▁par	-656
▁skall	-657
▁skri	-658
▁sv	-659
▁sen	-660
skt	-661
▁proc	-662
▁slut	-663
▁honom	-664
ika	-665
▁hitt	-666
▁Gud	-667
▁200	-668
▁äl	-669
kar	-670
▁kö	-671
net	-672
▁samma	-673
▁går	-674
änner	-675
gan	-676
pe	-677
▁alltid	-678
ann	-679
▁ans	-680
ien	-681
▁vän	-682
▁tro	-683
heten	-684
▁fy	-685
▁fil	-686
usi	-687
▁/	-688
▁läg	-689
anska	-690
enter	-691
▁änd	-692
▁bå	-693
▁al	-694
▁Så	-695
ets	-696
▁7	-697
ktigt	-698
kon	-699
min	-700
▁spe	-701
nas	-702
kom	-703
▁hans	-704
▁hen	-705
▁Att	-706
▁helt	-707
juk	-708
▁ur	-709
▁lä	-710
alt	-711
sy	-712
▁ch	-713
igt	-714
▁beg	-715
▁ly	-716
▁ger	-717
▁;	-718
▁ingen	-719
▁kra	-720
ske	-721
ati	-722
▁Euro	-723
dan	-724
▁ge	-725
▁dess	-726
olk	-727
par	-728
blem	-729
fr	-730
dom	-731
nader	-732
▁läm	-733
▁reg	-734
▁samt	-735
▁varit	-736
▁områ	-737
äller	-738
▁lång	-739
▁vilket	-740
▁so	-741
▁pen	-742
skar	-743
gar	-744
▁följ	-745
res	-746
far	-747
ba	-748
▁Med	-749
▁we	-750
▁system	-751
erar	-752
▁plan	-753
▁akti	-754
ättre	-755
▁kunna	-756
▁8	-757
▁tre	-758
ind	-759
▁eg	-760
skil	-761
str	-762
▁använda	-763
utom	-764
orde	-765
▁ri	-766
▁mitt	-767
▁[	-768
ang	-769
älla	-770
▁si	-771
▁tän	-772
▁hu	-773
ke	-774
▁tek	-775
ingar	-776
▁arti	-777
▁bästa	-778
ellt	-779
▁eff	-780
▁gra	-781
▁ord	-782
ie	-783
▁mål	-784
▁erb	-785
tta	-786
ina	-787
▁Har	-788
▁fall	-789
▁först	-790
kten	-791
▁bättre	-792
ow	-793
▁).	-794
▁behand	-795
▁best	-796
pt	-797
▁fri	-798
▁annan	-799
▁lever	-800
eg	-801
▁et	-802
▁program	-803
ät	-804
▁9	-805
▁speci	-806
ly	-807
ldrig	-808
gifter	-809
▁van	-810
▁organ	-811
▁fär	-812
▁igen	-813
▁val	-814
▁webb	-815
empel	-816
ål	-817
▁problem	-818
sten	-819
äck	-820
▁annat	-821
erad	-822
nen	-823
ine	-824
▁tar	-825
▁medlem	-826
▁lite	-827
rum	-828
▁mest	-829
rag	-830
▁10	-831
xt	-832
▁dom	-833
▁un	-834
dre	-835
unt	-836
▁aldrig	-837
▁Sk	-838
kta	-839
▁sna	-840
▁hos	-841
▁ve	-842
bar	-843
▁vin	-844
▁svar	-845
▁rel	-846
lek	-847
▁förl	-848
talet	-849
ast	-850
ppen	-851
istor	-852
uta	-853
▁komma	-854
▁uni	-855
lut	-856
▁tekn	-857
igheter	-858
ator	-859
▁on	-860
▁mat	-861
vud	-862
ung	-863
▁lig	-864
▁Ch	-865
jekt	-866
gör	-867
▁egen	-868
▁komp	-869
teg	-870
▁stora	-871
liti	-872
naden	-873
met	-874
arbet	-875
▁flera	-876
vänd	-877
▁kvinn	-878
anden	-879
▁Kan	-880
▁jo	-881
▁eftersom	-882
▁bort	-883
▁mis	-884
olog	-885
iskt	-886
ktiga	-887
▁snabb	-888
▁lo	-889
▁met	-890
ata	-891
tionella	-892
oner	-893
▁rå	-894
▁blev	-895
jer	-896
ug	-897
▁US	-898
▁bok	-899
baka	-900
ef	-901
▁Ett	-902
▁På	-903
▁hän	-904
ingen	-905
▁plats	-906
▁fam	-907
▁off	-908
anta	-909
▁kr	-910
▁sjuk	-911
sm	-912
tig	-913
▁Hon	-914
▁häl	-915
▁exempel	-916
ner	-917
▁lär	-918
▁ner	-919
▁vatt	-920
under	-921
▁form	-922
▁ofta	-923
▁full	-924
▁kro	-925
öka	-926
▁förv	-927
ard	-928
▁enligt	-929
▁sn	-930
mans	-931
▁krä	-932
▁utveckling	-933
▁Pro	-934
▁tror	-935
ings	-936
▁dire	-937
▁innan	-938
ote	-939
eller	-940
▁Y	-941
▁verkligen	-942
▁män	-943
▁nam	-944
▁Alla	-945
▁land	-946
▁Re	-947
▁tidig	-948
▁tillbaka	-949
▁hör	-950
▁mö	-951
▁regi	-952
nes	-953
ektiv	-954
▁pra	-955
▁hjär	-956
▁forsk	-957
▁gäller	-958
tiva	-959
ler	-960
ab	-961
stånd	-962
▁natur	-963
▁stöd	-964
▁my	-965
tionen	-966
ärskil	-967
▁ställ	-968
kor	-969
▁kontro	-970
▁histor	-971
▁föränd	-972
▁Man	-973
tag	-974
▁Är	-975
farande	-976
▁bland	-977
▁fick	-978
▁berätt	-979
▁“	-980
▁tal	-981
ultat	-982
▁Till	-983
▁tra	-984
▁dri	-985
▁lå	-986
tar	-987
000	-988
ap	-989
▁Som	-990
ust	-991
ades	-992
konom	-993
atser	-994
▁saker	-995
▁hjälp	-996
▁Där	-997
▁huvud	-998
▁god	-999
elser	-1000
orna	-1001
jud	-1002
▁pre	-1003
▁kär	-1004
▁skyd	-1005
io	-1006
ren	-1007
ib	-1008
ktor	-1009
vit	-1010
▁Ne	-1011
onen	-1012
▁rör	-1013
▁pris	-1014
sammans	-1015
▁All	-1016
▁kanske	-1017
▁politi	-1018
led	-1019
kri	-1020
hets	-1021
▁förm	-1022
▁tv	-1023
▁organis	-1024
▁kunde	-1025
▁hus	-1026
▁sak	-1027
▁bef	-1028
▁em	-1029
▁ekonom	-1030
▁und	-1031
▁bygg	-1032
▁sådan	-1033
▁produkter	-1034
▁y	-1035
hand	-1036
av	-1037
▁red	-1038
▁kost	-1039
▁både	-1040
▁tag	-1041
▁Ö	-1042
▁trä	-1043
▁EU	-1044
▁använder	-1045
▁artikel	-1046
▁särskil	-1047
lägg	-1048
▁Fr	-1049
räck	-1050
▁data	-1051
▁lik	-1052
▁öpp	-1053
▁familj	-1054
lic	-1055
älj	-1056
yl	-1057
▁Kom	-1058
▁jobb	-1059
▁lätt	-1060
▁håll	-1061
erat	-1062
▁personer	-1063
▁rek	-1064
▁fle	-1065
öker	-1066
▁Ar	-1067
▁gam	-1068
nade	-1069
▁ens	-1070
rid	-1071
▁erbju	-1072
kade	-1073
▁bek	-1074
plats	-1075
▁bas	-1076
▁tiden	-1077
▁mina	-1078
▁äg	-1079
▁USA	-1080
▁Å	-1081
▁säga	-1082
▁Här	-1083
▁redan	-1084
▁gjort	-1085
tet	-1086
▁pla	-1087
tu	-1088
amp	-1089
▁lös	-1090
alitet	-1091
▁Efter	-1092
▁im	-1093
▁el	-1094
ycker	-1095
årt	-1096
▁Ma	-1097
▁dock	-1098
▁gi	-1099
▁idag	-1100
▁bo	-1101
▁Nu	-1102
▁Jo	-1103
rätt	-1104
▁mindre	-1105
ten	-1106
▁dö	-1107
▁fortfarande	-1108
las	-1109
▁interna	-1110
▁ob	-1111
▁tidigare	-1112
▁kor	-1113
teri	-1114
mär	-1115
ras	-1116
aste	-1117
▁tillsammans	-1118
▁soci	-1119
▁pres	-1120
▁enkel	-1121
▁Se	-1122
▁Varför	-1123
▁vissa	-1124
upp	-1125
▁endast	-1126
tan	-1127
nads	-1128
▁kons	-1129
▁ligger	-1130
▁vatten	-1131
enskap	-1132
äs	-1133
▁väldigt	-1134
rist	-1135
▁kul	-1136
▁förstå	-1137
▁fel	-1138
▁Denna	-1139
▁stud	-1140
▁verksam	-1141
▁kort	-1142
▁dr	-1143
▁sid	-1144
▁”.	-1145
▁procent	-1146
▁kli	-1147
▁sti	-1148
ym	-1149
▁inf	-1150
▁läk	-1151
▁inkl	-1152
orm	-1153
vers	-1154
räns	-1155
ret	-1156
rott	-1157
▁rö	-1158
▁kall	-1159
▁bak	-1160
▁ansvar	-1161
▁tjänster	-1162
bild	-1163
▁to	-1164
▁fast	-1165
ion	-1166
▁folk	-1167
äv	-1168
▁hjälpa	-1169
▁bestäm	-1170
▁ytt	-1171
▁resultat	-1172
fi	-1173
▁väx	-1174
▁pengar	-1175
▁flyg	-1176
häll	-1177
▁inneb	-1178
▁värld	-1179
▁inter	-1180
gär	-1181
▁pri	-1182
▁fortsätt	-1183
▁tim	-1184
▁möjligt	-1185
▁ad	-1186
ergi	-1187
▁längre	-1188
▁18	-1189
▁ele	-1190
jur	-1191
▁15	-1192
gäng	-1193
tro	-1194
▁Des	-1195
▁före	-1196
▁styr	-1197
▁största	-1198
ekt	-1199
▁Under	-1200
ay	-1201
▁beslut	-1202
▁projekt	-1203
▁sex	-1204
▁fot	-1205
▁stu	-1206
tiska	-1207
män	-1208
▁dagar	-1209
▁känner	-1210
▁fem	-1211
äder	-1212
uter	-1213
▁fler	-1214
▁därför	-1215
▁typ	-1216
amma	-1217
olag	-1218
▁kvinnor	-1219
▁länder	-1220
▁främ	-1221
▁intress	-1222
▁ro	-1223
▁grupp	-1224
ämp	-1225
▁vårt	-1226
▁dra	-1227
▁bety	-1228
klar	-1229
▁The	-1230
▁ne	-1231
varande	-1232
▁skol	-1233
▁stra	-1234
▁konst	-1235
▁behandling	-1236
cis	-1237
me	-1238
▁nät	-1239
▁jäm	-1240
▁förbätt	-1241
▁skapa	-1242
▁namn	-1243
▁arbete	-1244
so	-1245
▁Vil	-1246
▁utt	-1247
▁Mar	-1248
▁veck	-1249
föra	-1250
bart	-1251
ha	-1252
▁används	-1253
▁henne	-1254
ationer	-1255
▁samhäll	-1256
van	-1257
▁räd	-1258
håller	-1259
▁rum	-1260
ligare	-1261
▁".	-1262
▁död	-1263
▁Europa	-1264
▁12	-1265
▁op	-1266
ige	-1267
▁rapp	-1268
ktioner	-1269
ori	-1270
vent	-1271
▁aktiv	-1272
▁visar	-1273
▁bor	-1274
▁nära	-1275
lam	-1276
ästan	-1277
▁cent	-1278
▁lika	-1279
▁orsa	-1280
▁viktigt	-1281
▁nog	-1282
▁star	-1283
▁nivå	-1284
▁flesta	-1285
▁miljö	-1286
▁energi	-1287
från	-1288
▁tillgäng	-1289
▁ung	-1290
▁öka	-1291
▁hund	-1292
▁runt	-1293
▁gjorde	-1294
▁kommun	-1295
▁mas	-1296
dera	-1297
dar	-1298
▁Be	-1299
▁gem	-1300
▁hitta	-1301
▁syn	-1302
▁'	-1303
bland	-1304
▁kvar	-1305
▁prof	-1306
▁åtgär	-1307
▁Sver	-1308
▁större	-1309
▁avs	-1310
▁konta	-1311
line	-1312
▁betal	-1313
▁bel	-1314
iv	-1315
▁fråga	-1316
äpp	-1317
port	-1318
orter	-1319
▁ter	-1320
▁skap	-1321
▁allmän	-1322
▁själva	-1323
▁by	-1324
fin	-1325
ännu	-1326
▁000	-1327
▁Ut	-1328
▁ännu	-1329
merik	-1330
gel	-1331
▁ög	-1332
cer	-1333
red	-1334
▁bed	-1335
▁börjar	-1336
▁pa	-1337
ister	-1338
▁händer	-1339
▁ned	-1340
▁ih	-1341
ds	-1342
▁hopp	-1343
▁hålla	-1344
▁samarbet	-1345
▁direkt	-1346
▁varför	-1347
pi	-1348
one	-1349
▁ön	-1350
▁aff	-1351
ice	-1352
ission	-1353
hör	-1354
▁kunder	-1355
▁vilken	-1356
sättning	-1357
▁innebär	-1358
ook	-1359
▁hennes	-1360
▁omfatt	-1361
slag	-1362
▁tred	-1363
▁ol	-1364
▁senaste	-1365
tra	-1366
▁fru	-1367
ften	-1368
▁inve	-1369
▁part	-1370
ktiskt	-1371
▁Dessa	-1372
akt	-1373
▁Kon	-1374
▁mar	-1375
▁str	-1376
▁viktiga	-1377
▁ban	-1378
andel	-1379
▁utbild	-1380
terial	-1381
derar	-1382
▁livet	-1383
ex	-1384
otell	-1385
ktur	-1386
åga	-1387
eter	-1388
▁indi	-1389
fer	-1390
▁små	-1391
▁enkelt	-1392
cen	-1393
oende	-1394
cke	-1395
ansi	-1396
▁frågor	-1397
▁samman	-1398
▁risk	-1399
▁rep	-1400
tions	-1401
▁nöd	-1402
▁lu	-1403
änk	-1404
▁30	-1405
▁Sam	-1406
▁Vis	-1407
tr	-1408
▁tur	-1409
▁loka	-1410
▁dagen	-1411
▁&	-1412
ater	-1413
▁älskar	-1414
jus	-1415
går	-1416
derna	-1417
▁fått	-1418
▁nytt	-1419
▁blivit	-1420
▁står	-1421
▁inför	-1422
▁Mo	-1423
▁musi	-1424
▁tycker	-1425
tidigt	-1426
ps	-1427
ös	-1428
▁möjlighet	-1429
rat	-1430
▁Min	-1431
▁nästan	-1432
råk	-1433
▁bid	-1434
▁trans	-1435
▁kri	-1436
▁vilka	-1437
▁),	-1438
▁erbjuder	-1439
ringar	-1440
▁sol	-1441
örer	-1442
▁tillgång	-1443
illar	-1444
ument	-1445
tas	-1446
▁inget	-1447
▁mynd	-1448
verka	-1449
▁bru	-1450
▁särskilt	-1451
ity	-1452
▁kör	-1453
inner	-1454
▁affär	-1455
peiska	-1456
▁amerik	-1457
bru	-1458
tade	-1459
▁uppgifter	-1460
▁ytter	-1461
▁webbplats	-1462
ari	-1463
elsen	-1464
tis	-1465
▁länge	-1466
vä	-1467
▁euro	-1468
alis	-1469
▁senare	-1470
▁posi	-1471
▁Le	-1472
▁Ja	-1473
▁id	-1474
giv	-1475
▁far	-1476
▁hår	-1477
▁icke	-1478
▁just	-1479
unkt	-1480
▁arbets	-1481
ral	-1482
▁kropp	-1483
väg	-1484
ommen	-1485
▁ana	-1486
ständ	-1487
fik	-1488
dent	-1489
ris	-1490
▁Inte	-1491
▁teknik	-1492
cker	-1493
▁uppf	-1494
▁kärlek	-1495
▁alterna	-1496
▁Gen	-1497
▁Sverige	-1498
fri	-1499
▁Allt	-1500
▁miljoner	-1501
▁via	-1502
iten	-1503
andra	-1504
ående	-1505
▁pub	-1506
▁uppt	-1507
▁funger	-1508
▁bild	-1509
▁gånger	-1510
▁fyra	-1511
▁finansi	-1512
inna	-1513
▁Li	-1514
▁ren	-1515
▁tog	-1516
ställa	-1517
ge	-1518
▁besök	-1519
▁gick	-1520
▁sjukdom	-1521
ons	-1522
ligtvis	-1523
▁tan	-1524
▁delar	-1525
▁möjlig	-1526
▁material	-1527
▁spela	-1528
▁tredje	-1529
med	-1530
▁steg	-1531
▁Al	-1532
tivt	-1533
terar	-1534
▁erf	-1535
▁fanta	-1536
▁effektiv	-1537
▁medlems	-1538
▁11	-1539
eln	-1540
int	-1541
denti	-1542
▁Sp	-1543
dern	-1544
nitt	-1545
▁Även	-1546
sök	-1547
▁sade	-1548
▁sj	-1549
▁förlor	-1550
▁landet	-1551
▁Ty	-1552
▁såg	-1553
▁började	-1554
▁faktiskt	-1555
itu	-1556
▁förhåll	-1557
▁0	-1558
yrk	-1559
▁veta	-1560
▁desig	-1561
▁nödvänd	-1562
form	-1563
▁gången	-1564
ktiv	-1565
▁byg	-1566
▁Go	-1567
lag	-1568
▁ko	-1569
▁lära	-1570
vid	-1571
satt	-1572
fär	-1573
▁stort	-1574
iner	-1575
▁bi	-1576
bara	-1577
ron	-1578
▁Då	-1579
usive	-1580
▁invester	-1581
sin	-1582
▁träff	-1583
sikt	-1584
▁rekommen	-1585
no	-1586
rev	-1587
▁funktion	-1588
co	-1589
▁värde	-1590
ighet	-1591
▁kvalitet	-1592
uti	-1593
val	-1594
▁näm	-1595
▁199	-1596
▁bud	-1597
▁disk	-1598
▁ab	-1599
yn	-1600
▁And	-1601
orden	-1602
▁djur	-1603
tering	-1604
▁Jes	-1605
▁online	-1606
stru	-1607
ct	-1608
▁hal	-1609
▁produkt	-1610
▁Någ	-1611
▁%	-1612
▁egna	-1613
▁månader	-1614
▁båda	-1615
delse	-1616
▁dator	-1617
▁sidan	-1618
▁håller	-1619
ött	-1620
▁Ro	-1621
tisk	-1622
▁Sa	-1623
hus	-1624
▁handlar	-1625
▁tillämp	-1626
▁16	-1627
uella	-1628
▁avsl	-1629
▁fann	-1630
▁köpa	-1631
▁mode	-1632
▁skill	-1633
fäll	-1634
▁emot	-1635
▁vänner	-1636
▁nästa	-1637
▁framti	-1638
▁mänsk	-1639
▁reger	-1640
▁rik	-1641
Jag	-1642
▁arbetar	-1643
▁app	-1644
▁Upp	-1645
▁erfaren	-1646
rade	-1647
sera	-1648
▁medan	-1649
▁minska	-1650
▁Her	-1651
▁välja	-1652
▁mär	-1653
▁erna	-1654
▁kraft	-1655
▁liten	-1656
▁fi	-1657
▁behov	-1658
omm	-1659
ond	-1660
▁fok	-1661
▁snabbt	-1662
▁marknads	-1663
▁områden	-1664
▁timmar	-1665
▁köp	-1666
▁Ta	-1667
▁precis	-1668
ux	-1669
ror	-1670
▁nå	-1671
▁blod	-1672
syn	-1673
▁tillräck	-1674
kning	-1675
▁framgång	-1676
▁Z	-1677
▁öv	-1678
▁kontroll	-1679
kte	-1680
ore	-1681
▁åtgärder	-1682
▁17	-1683
▁användning	-1684
nande	-1685
▁ljus	-1686
▁svårt	-1687
▁krig	-1688
▁pati	-1689
lick	-1690
▁året	-1691
▁Fa	-1692
▁vack	-1693
▁kalla	-1694
▁the	-1695
▁fas	-1696
▁13	-1697
asin	-1698
▁förvän	-1699
▁begräns	-1700
▁staden	-1701
▁äm	-1702
▁pass	-1703
▁följande	-1704
▁föräl	-1705
▁hjälper	-1706
enti	-1707
hol	-1708
icka	-1709
▁san	-1710
▁ac	-1711
tionell	-1712
▁identi	-1713
mb	-1714
alen	-1715
▁kund	-1716
ork	-1717
▁indu	-1718
fall	-1719
▁produktion	-1720
▁50	-1721
drag	-1722
▁riktigt	-1723
▁varandra	-1724
▁beskri	-1725
▁Bar	-1726
▁ann	-1727
▁marknaden	-1728
mat	-1729
rik	-1730
▁sett	-1731
▁innehåll	-1732
▁Många	-1733
▁fördel	-1734
▁innehåller	-1735
▁Av	-1736
▁25	-1737
sh	-1738
bin	-1739
▁ytterligare	-1740
▁Sh	-1741
▁pol	-1742
▁inga	-1743
öst	-1744
▁alternativ	-1745
elef	-1746
▁100	-1747
▁råd	-1748
▁.”	-1749
▁go	-1750
▁lycka	-1751
▁slag	-1752
ogra	-1753
▁stat	-1754
▁Sy	-1755
▁roll	-1756
▁univers	-1757
pen	-1758
▁mäng	-1759
▁bilder	-1760
▁början	-1761
▁Co	-1762
▁Dess	-1763
▁analy	-1764
▁process	-1765
▁glob	-1766
▁ögon	-1767
get	-1768
▁hy	-1769
▁ute	-1770
▁Guds	-1771
▁ang	-1772
hålla	-1773
▁känna	-1774
ktyg	-1775
▁träd	-1776
pul	-1777
▁”,	-1778
▁sådana	-1779
▁kontroller	-1780
avs	-1781
ölja	-1782
kän	-1783
▁New	-1784
▁antal	-1785
▁fantasti	-1786
▁rättigheter	-1787
▁test	-1788
▁flytt	-1789
ember	-1790
▁klass	-1791
▁fungerar	-1792
▁14	-1793
▁helst	-1794
▁medic	-1795
▁området	-1796
▁inklusive	-1797
▁verksamhet	-1798
▁Per	-1799
▁mil	-1800
▁minuter	-1801
▁Res	-1802
▁långt	-1803
▁gener	-1804
▁sista	-1805
eder	-1806
▁kar	-1807
▁Ex	-1808
fte	-1809
▁sö	-1810
fier	-1811
olu	-1812
ou	-1813
▁resa	-1814
▁bolag	-1815
▁konk	-1816
▁världens	-1817
▁bö	-1818
▁gr	-1819
▁visa	-1820
▁anställ	-1821
▁offent	-1822
oli	-1823
▁tack	-1824
▁förut	-1825
▁",	-1826
▁betyder	-1827
▁gar	-1828
▁mä	-1829
▁borde	-1830
▁tillfäll	-1831
▁tem	-1832
▁(1	-1833
▁perf	-1834
▁gamla	-1835
samma	-1836
ment	-1837
▁mag	-1838
▁situ	-1839
▁forskning	-1840
▁registr	-1841
▁at	-1842
▁Joh	-1843
▁aktivitet	-1844
▁användas	-1845
▁Ska	-1846
▁gillar	-1847
borg	-1848
▁vidare	-1849
▁sven	-1850
up	-1851
use	-1852
anser	-1853
▁samtidigt	-1854
▁års	-1855
spel	-1856
▁musik	-1857
▁blog	-1858
tala	-1859
▁släpp	-1860
▁miss	-1861
▁Vill	-1862
▁haft	-1863
▁minst	-1864
spr	-1865
▁läsa	-1866
ism	-1867
▁Vid	-1868
▁Fran	-1869
▁gemens	-1870
▁natt	-1871
▁internationella	-1872
▁film	-1873
▁kopp	-1874
▁•	-1875
▁upplev	-1876
▁kol	-1877
vande	-1878
▁meddel	-1879
handa	-1880
▁viktig	-1881
▁historia	-1882
▁låt	-1883
▁elekt	-1884
▁villkor	-1885
▁defin	-1886
▁Läs	-1887
ationen	-1888
▁tyd	-1889
▁räk	-1890
▁X	-1891
▁teck	-1892
tes	-1893
▁förord	-1894
▁su	-1895
▁vem	-1896
förs	-1897
▁Därför	-1898
▁verkar	-1899
▁säkerhet	-1900
▁börja	-1901
▁föres	-1902
▁sh	-1903
▁cir	-1904
▁handel	-1905
▁förbättra	-1906
dade	-1907
▁sek	-1908
sprung	-1909
ox	-1910
▁kultur	-1911
▁Ny	-1912
över	-1913
▁verktyg	-1914
▁mör	-1915
stitu	-1916
▁högre	-1917
rust	-1918
▁sag	-1919
lingar	-1920
▁integ	-1921
ration	-1922
▁vetenskap	-1923
ui	-1924
vara	-1925
▁utman	-1926
▁Sedan	-1927
stället	-1928
▁någonsin	-1929
avsett	-1930
▁medvet	-1931
▁kunskap	-1932
▁»	-1933
▁sök	-1934
▁ål	-1935
▁hotell	-1936
▁enlighet	-1937
▁tillverk	-1938
▁skicka	-1939
▁hemma	-1940
▁Jesus	-1941
▁ganska	-1942
▁So	-1943
omen	-1944
▁fanns	-1945
▁Stor	-1946
ännande	-1947
▁föd	-1948
▁partner	-1949
▁tillhanda	-1950
▁stad	-1951
fta	-1952
nit	-1953
oder	-1954
vice	-1955
▁spelar	-1956
▁Fin	-1957
▁Ni	-1958
enta	-1959
▁lämna	-1960
▁medel	-1961
▁utveckl	-1962
ki	-1963
▁*	-1964
▁Ber	-1965
▁exper	-1966
▁dok	-1967
▁sida	-1968
issionen	-1969
sra	-1970
▁inv	-1971
▁lin	-1972
▁ansl	-1973
▁utb	-1974
▁dröm	-1975
▁såsom	-1976
▁Hel	-1977
▁ins	-1978
▁sociala	-1979
▁Eller	-1980
stol	-1981
▁jord	-1982
▁stan	-1983
▁spelare	-1984
fika	-1985
▁idé	-1986
ekter	-1987
▁Or	-1988
▁tor	-1989
tals	-1990
▁vide	-1991
skaper	-1992
▁Bl	-1993
▁prin	-1994
▁ville	-1995
▁Ad	-1996
▁insta	-1997
vat	-1998
▁språk	-1999
▁vägen	-2000
▁stand	-2001
▁produc	-2002
ppa	-2003
▁extra	-2004
staur	-2005
▁tänka	-2006
srael	-2007
▁framför	-2008
växt	-2009
cep	-2010
ession	-2011
▁uppfy	-2012
▁kallas	-2013
▁uppn	-2014
20	-2015
▁alltså	-2016
▁kur	-2017
emang	-2018
▁utbildning	-2019
▁medicin	-2020
▁version	-2021
▁vilja	-2022
komst	-2023
▁Fl	-2024
▁låg	-2025
▁kväll	-2026
▁dy	-2027
▁föräld	-2028
ue	-2029
▁’	-2030
tik	-2031
▁känn	-2032
▁jämför	-2033
▁tradi	-2034
▁kräver	-2035
diga	-2036
sol	-2037
▁trän	-2038
▁mobil	-2039
rek	-2040
▁arbeta	-2041
ali	-2042
▁Uni	-2043
gift	-2044
▁mask	-2045
▁Varje	-2046
ton	-2047
▁Genom	-2048
▁Par	-2049
▁utanför	-2050
Det	-2051
igh	-2052
▁känsl	-2053
▁ursprung	-2054
ubb	-2055
ting	-2056
▁använ	-2057
▁ovan	-2058
stad	-2059
▁koll	-2060
▁popul	-2061
▁ibland	-2062
lament	-2063
▁brott	-2064
▁krävs	-2065
▁tillräckligt	-2066
▁Q	-2067
lin	-2068
ologi	-2069
ummer	-2070
mal	-2071
▁cy	-2072
▁heller	-2073
▁Ser	-2074
▁typer	-2075
▁platser	-2076
nova	-2077
len	-2078
atur	-2079
▁fatt	-2080
lex	-2081
iss	-2082
vor	-2083
▁försöker	-2084
▁het	-2085
▁käns	-2086
▁fören	-2087
▁anled	-2088
▁kombin	-2089
▁lägga	-2090
▁jorden	-2091
gru	-2092
▁utveckla	-2093
▁parti	-2094
ho	-2095
▁dör	-2096
▁äta	-2097
▁konkur	-2098
▁."	-2099
▁uppnå	-2100
uppgifter	-2101
mera	-2102
▁skatt	-2103
full	-2104
▁maj	-2105
▁skydd	-2106
▁Vem	-2107
ösa	-2108
lien	-2109
▁område	-2110
öv	-2111
▁He	-2112
▁ant	-2113
▁åren	-2114
▁förklar	-2115
▁höj	-2116
▁tills	-2117
ulla	-2118
▁försök	-2119
ester	-2120
▁kamp	-2121
▁ry	-2122
▁älska	-2123
▁tillstånd	-2124
▁färg	-2125
▁leva	-2126
stående	-2127
▁möjligheter	-2128
▁systemet	-2129
▁telef	-2130
▁mor	-2131
▁läkem	-2132
enhet	-2133
▁ändå	-2134
fic	-2135
uld	-2136
sb	-2137
ian	-2138
▁public	-2139
▁utom	-2140
▁inb	-2141
▁insp	-2142
▁lämp	-2143
▁slutet	-2144
▁akt	-2145
räd	-2146
▁morg	-2147
ph	-2148
▁For	-2149
▁fred	-2150
▁Dessutom	-2151
ont	-2152
▁log	-2153
▁följa	-2154
▁Th	-2155
▁Mer	-2156
märk	-2157
▁vecka	-2158
▁påverk	-2159
▁anp	-2160
▁skriver	-2161
post	-2162
▁försälj	-2163
▁kommit	-2164
▁hälso	-2165
▁fortsätta	-2166
▁Pa	-2167
▁skriva	-2168
▁användare	-2169
▁amerikanska	-2170
▁redo	-2171
▁sagt	-2172
▁!!	-2173
▁Sta	-2174
▁Goog	-2175
▁norm	-2176
▁Ingen	-2177
pro	-2178
▁kam	-2179
▁vanliga	-2180
usen	-2181
vän	-2182
▁Från	-2183
▁fortsätter	-2184
▁Ha	-2185
▁Tro	-2186
kla	-2187
▁dju	-2188
▁uppda	-2189
▁snart	-2190
▁do	-2191
stag	-2192
ryck	-2193
▁genomför	-2194
stat	-2195
▁ihåg	-2196
▁skyl	-2197
▁öppna	-2198
▁säkerhets	-2199
▁ris	-2200
▁klar	-2201
▁tagit	-2202
▁allvar	-2203
▁gär	-2204
▁skad	-2205
age	-2206
▁Använd	-2207
▁Te	-2208
▁bäst	-2209
▁lyss	-2210
▁ja	-2211
▁pas	-2212
▁tänker	-2213
▁kontakt	-2214
lad	-2215
▁fys	-2216
▁rapporter	-2217
iti	-2218
▁ham	-2219
▁bevis	-2220
▁leverant	-2221
▁24	-2222
▁dist	-2223
fråg	-2224
▁gran	-2225
▁utrust	-2226
pper	-2227
cept	-2228
▁Låt	-2229
▁hälsa	-2230
▁inklu	-2231
▁tillväxt	-2232
0-	-2233
▁hittar	-2234
▁förh	-2235
▁event	-2236
▁regel	-2237
▁beroende	-2238
▁egent	-2239
ansk	-2240
▁digi	-2241
▁grän	-2242
).	-2243
stri	-2244
▁nde	-2245
▁stru	-2246
vik	-2247
▁glöm	-2248
▁krav	-2249
▁gratis	-2250
▁indivi	-2251
ancer	-2252
▁punkt	-2253
▁frågan	-2254
▁ford	-2255
▁Pl	-2256
▁match	-2257
▁tjänst	-2258
▁erbjud	-2259
▁myndigheter	-2260
▁fly	-2261
▁chef	-2262
▁påverka	-2263
bri	-2264
▁mots	-2265
ny	-2266
▁företaget	-2267
▁mon	-2268
öt	-2269
▁eget	-2270
▁titt	-2271
▁platt	-2272
▁läs	-2273
otter	-2274
▁innova	-2275
aga	-2276
▁fö	-2277
▁Enligt	-2278
▁ev	-2279
ys	-2280
▁rikt	-2281
▁hoppas	-2282
▁universitet	-2283
▁kroppen	-2284
ko	-2285
▁sluta	-2286
▁ändra	-2287
tem	-2288
▁ton	-2289
yss	-2290
▁avtal	-2291
▁design	-2292
▁kommunika	-2293
▁exp	-2294
▁Tack	-2295
our	-2296
bel	-2297
unda	-2298
▁stå	-2299
föring	-2300
▁ålder	-2301
▁ekonomiska	-2302
▁säl	-2303
▁tj	-2304
▁sju	-2305
samhet	-2306
po	-2307
rit	-2308
▁vux	-2309
▁ske	-2310
tegi	-2311
▁pot	-2312
▁relig	-2313
▁väljer	-2314
▁upptäck	-2315
emi	-2316
seende	-2317
▁nätverk	-2318
▁dela	-2319
▁framtiden	-2320
▁Google	-2321
iod	-2322
▁bakom	-2323
▁stäng	-2324
▁defini	-2325
▁Israel	-2326
▁funktioner	-2327
uni	-2328
▁Ge	-2329
▁utför	-2330
▁säkert	-2331
gera	-2332
band	-2333
▁bygga	-2334
▁låter	-2335
ong	-2336
▁ben	-2337
dant	-2338
her	-2339
▁dat	-2340
▁följer	-2341
▁autom	-2342
▁undersök	-2343
ng	-2344
rym	-2345
▁deltag	-2346
rip	-2347
▁fisk	-2348
▁erfarenhet	-2349
▁garan	-2350
▁Europeiska	-2351
ög	-2352
▁klimat	-2353
▁medlemssta	-2354
▁lad	-2355
ement	-2356
kring	-2357
▁försäk	-2358
etter	-2359
▁kvinna	-2360
▁princi	-2361
▁z	-2362
▁stol	-2363
▁behövs	-2364
▁lösningar	-2365
nt	-2366
▁imp	-2367
▁regl	-2368
▁start	-2369
▁läkemedel	-2370
▁skär	-2371
▁egentligen	-2372
cc	-2373
▁gått	-2374
▁försv	-2375
▁repres	-2376
mare	-2377
repp	-2378
äcka	-2379
▁Car	-2380
▁säk	-2381
minist	-2382
nda	-2383
▁bri	-2384
▁gott	-2385
kas	-2386
▁me	-2387
indra	-2388
▁mamma	-2389
iet	-2390
▁författ	-2391
▁oro	-2392
▁Ind	-2393
▁Kina	-2394
▁ca	-2395
lade	-2396
▁läkare	-2397
efär	-2398
räff	-2399
▁Inter	-2400
▁istället	-2401
lit	-2402
atter	-2403
▁undvi	-2404
▁studen	-2405
juta	-2406
ollar	-2407
▁smär	-2408
▁regler	-2409
▁studier	-2410
▁son	-2411
▁kostnader	-2412
▁halv	-2413
▁veckan	-2414
dde	-2415
▁psy	-2416
▁kapi	-2417
▁ring	-2418
▁förordning	-2419
▁Idag	-2420
▁nationella	-2421
dagen	-2422
bruk	-2423
▁äldre	-2424
▁betala	-2425
▁40	-2426
▁fe	-2427
▁era	-2428
▁goda	-2429
▁]	-2430
▁tillgängliga	-2431
▁utgör	-2432
ich	-2433
▁ram	-2434
▁engel	-2435
ident	-2436
▁stark	-2437
▁potenti	-2438
▁Ti	-2439
▁minn	-2440
▁vikt	-2441
▁finnas	-2442
▁veckor	-2443
▁Över	-2444
resser	-2445
skning	-2446
ligheten	-2447
ins	-2448
▁tio	-2449
▁bete	-2450
▁liknande	-2451
▁våld	-2452
▁resp	-2453
▁service	-2454
kat	-2455
▁gud	-2456
▁ifrån	-2457
stans	-2458
▁detal	-2459
▁förstår	-2460
▁App	-2461
serna	-2462
▁198	-2463
▁Sen	-2464
står	-2465
arder	-2466
▁svår	-2467
▁storlek	-2468
▁bär	-2469
▁gav	-2470
ansch	-2471
▁uppmärk	-2472
▁dokument	-2473
stift	-2474
▁lek	-2475
▁syfte	-2476
▁topp	-2477
▁månad	-2478
▁förber	-2479
▁skydda	-2480
väl	-2481
▁nor	-2482
▁delen	-2483
▁skada	-2484
▁trots	-2485
▁bal	-2486
▁motor	-2487
▁politiska	-2488
åra	-2489
▁kna	-2490
▁mass	-2491
▁närheten	-2492
mt	-2493
▁makt	-2494
gå	-2495
▁skapar	-2496
▁John	-2497
▁anti	-2498
▁Vilka	-2499
▁risker	-2500
nien	-2501
klart	-2502
▁nöj	-2503
▁strategi	-2504
ey	-2505
pr	-2506
▁säkerställa	-2507
▁övert	-2508
▁böcker	-2509
▁igenom	-2510
▁betyd	-2511
▁kring	-2512
▁sann	-2513
▁Din	-2514
▁bred	-2515
▁sep	-2516
▁viss	-2517
▁him	-2518
▁känd	-2519
▁Univers	-2520
▁21	-2521
▁Hans	-2522
▁klart	-2523
vera	-2524
▁förslag	-2525
▁Po	-2526
▁bry	-2527
▁personuppgifter	-2528
▁polis	-2529
▁studie	-2530
ställning	-2531
▁luft	-2532
▁resur	-2533
▁La	-2534
▁tillå	-2535
▁upple	-2536
▁skolan	-2537
läggande	-2538
ceb	-2539
▁häm	-2540
ält	-2541
▁kred	-2542
enting	-2543
▁människa	-2544
én	-2545
▁Sch	-2546
ferens	-2547
▁prakti	-2548
▁domstol	-2549
▁Bo	-2550
▁Vår	-2551
system	-2552
▁Vissa	-2553
▁sätta	-2554
...	-2555
▁faktor	-2556
▁viktigaste	-2557
nam	-2558
cent	-2559
▁opera	-2560
ies	-2561
▁övrig	-2562
▁samarbete	-2563
eb	-2564
▁list	-2565
ham	-2566
vning	-2567
▁röst	-2568
ätta	-2569
platser	-2570
cy	-2571
okra	-2572
asino	-2573
▁titta	-2574
riär	-2575
▁boken	-2576
▁tu	-2577
usk	-2578
länd	-2579
raft	-2580
▁accep	-2581
siv	-2582
▁lokala	-2583
gag	-2584
▁Vär	-2585
▁leda	-2586
▁säson	-2587
▁Kanske	-2588
▁bestämm	-2589
ula	-2590
▁text	-2591
▁gammal	-2592
▁dro	-2593
EG	-2594
örj	-2595
▁sättet	-2596
ip	-2597
▁plac	-2598
tional	-2599
▁perfekt	-2600
▁+	-2601
▁hantera	-2602
▁svenska	-2603
ämpa	-2604
▁enhet	-2605
▁la	-2606
▁cirka	-2607
▁hjärta	-2608
▁foku	-2609
▁kara	-2610
spl	-2611
▁va	-2612
▁ljud	-2613
▁beräk	-2614
▁försöka	-2615
▁förändring	-2616
▁rådet	-2617
▁enheter	-2618
▁struktur	-2619
▁industri	-2620
▁skillnad	-2621
ativ	-2622
önster	-2623
▁kommissionen	-2624
▁organisation	-2625
anda	-2626
▁Wind	-2627
lo	-2628
aket	-2629
bund	-2630
ttag	-2631
▁bransch	-2632
▁Tänk	-2633
▁kyrk	-2634
smedel	-2635
▁förmåga	-2636
ici	-2637
▁rele	-2638
▁omkring	-2639
väm	-2640
▁Ka	-2641
▁täv	-2642
▁rädd	-2643
▁påverkar	-2644
▁tas	-2645
▁utn	-2646
▁automati	-2647
▁mänskliga	-2648
äkt	-2649
▁utmär	-2650
▁organisationer	-2651
▁$	-2652
▁lån	-2653
▁behöva	-2654
bu	-2655
sak	-2656
lands	-2657
▁2018	-2658
ER	-2659
ank	-2660
ash	-2661
▁låta	-2662
▁leder	-2663
▁vinna	-2664
▁nödvändigt	-2665
▁föräldrar	-2666
▁bad	-2667
▁käll	-2668
▁Fil	-2669
▁lokal	-2670
vin	-2671
▁bib	-2672
▁stjär	-2673
▁samband	-2674
▁administ	-2675
rad	-2676
äss	-2677
▁kn	-2678
▁rapport	-2679
▁Con	-2680
▁Dan	-2681
▁dags	-2682
▁ungefär	-2683
▁os	-2684
▁engag	-2685
▁känns	-2686
▁Di	-2687
▁begär	-2688
vo	-2689
▁2.	-2690
▁blogg	-2691
skatt	-2692
qu	-2693
▁stället	-2694
▁internet	-2695
▁grundläggande	-2696
ona	-2697
cebook	-2698
▁högsta	-2699
▁sådant	-2700
Vi	-2701
ograf	-2702
▁döda	-2703
agn	-2704
▁restaur	-2705
olution	-2706
▁antalet	-2707
ild	-2708
▁Gör	-2709
▁rev	-2710
▁förf	-2711
▁bedöm	-2712
ows	-2713
▁intresse	-2714
▁sem	-2715
▁gärna	-2716
▁anställda	-2717
▁Gl	-2718
▁Ra	-2719
▁spelet	-2720
▁lösning	-2721
▁medlemmar	-2722
▁arbetet	-2723
▁telefon	-2724
▁Ob	-2725
▁rätts	-2726
▁dollar	-2727
▁tillhör	-2728
▁favor	-2729
▁sker	-2730
▁förek	-2731
bas	-2732
▁ihop	-2733
▁milit	-2734
▁stopp	-2735
jut	-2736
▁hållbar	-2737
▁medborg	-2738
▁oavsett	-2739
▁mängd	-2740
▁består	-2741
▁kredit	-2742
▁erbjuda	-2743
▁höra	-2744
äker	-2745
▁anpass	-2746
▁vak	-2747
talt	-2748
▁her	-2749
▁lön	-2750
emål	-2751
▁personal	-2752
▁europeiska	-2753
▁förändringar	-2754
ca	-2755
▁anges	-2756
▁närvarande	-2757
▁no	-2758
▁buti	-2759
▁häst	-2760
▁skäl	-2761
kan	-2762
▁1,	-2763
lingen	-2764
ald	-2765
ycka	-2766
▁patienter	-2767
▁profession	-2768
▁Kommer	-2769
▁upprätt	-2770
ium	-2771
▁ej	-2772
▁2015	-2773
delser	-2774
▁favorit	-2775
▁1.	-2776
holm	-2777
▁lösa	-2778
▁berätta	-2779
▁standard	-2780
umär	-2781
▁bekrä	-2782
▁grupper	-2783
▁drabb	-2784
tionellt	-2785
▁kapital	-2786
rakt	-2787
▁chans	-2788
aler	-2789
iteten	-2790
▁ersätt	-2791
▁samhället	-2792
▁utvecklingen	-2793
▁berör	-2794
▁197	-2795
▁2016	-2796
cember	-2797
▁konto	-2798
▁affärs	-2799
▁nummer	-2800
▁speciellt	-2801
▁prata	-2802
▁fullt	-2803
▁söker	-2804
▁uppen	-2805
visa	-2806
rep	-2807
▁År	-2808
teras	-2809
▁2017	-2810
▁vård	-2811
▁relev	-2812
▁reser	-2813
▁enskil	-2814
▁rom	-2815
förande	-2816
▁Ste	-2817
▁Ver	-2818
▁Spel	-2819
▁—	-2820
▁Windows	-2821
▁framgångs	-2822
rikt	-2823
▁höga	-2824
▁kontor	-2825
▁lagstift	-2826
▁nr	-2827
▁ande	-2828
▁tryck	-2829
▁bit	-2830
▁vackra	-2831
iz	-2832
lunda	-2833
▁omedel	-2834
▁programmet	-2835
ffe	-2836
▁säll	-2837
sterna	-2838
vde	-2839
anger	-2840
ndag	-2841
▁tje	-2842
▁relater	-2843
▁Eftersom	-2844
rom	-2845
▁godk	-2846
▁inst	-2847
▁visas	-2848
anu	-2849
▁intresser	-2850
let	-2851
▁arna	-2852
▁huset	-2853
öp	-2854
ogen	-2855
▁Pre	-2856
▁San	-2857
mande	-2858
▁team	-2859
▁behör	-2860
▁fjär	-2861
terade	-2862
▁president	-2863
▁Dag	-2864
antag	-2865
▁unga	-2866
▁avgör	-2867
▁Stock	-2868
▁konkurr	-2869
▁fastställ	-2870
allt	-2871
▁färdig	-2872
▁liksom	-2873
▁överva	-2874
▁ledande	-2875
▁Finns	-2876
▁tri	-2877
▁anslut	-2878
▁namnet	-2879
▁nuvarande	-2880
▁>	-2881
erti	-2882
▁konf	-2883
▁karriär	-2884
▁varumär	-2885
we	-2886
▁Ju	-2887
▁Ph	-2888
▁uppdrag	-2889
▁60	-2890
to	-2891
▁TV	-2892
▁fol	-2893
efter	-2894
▁underhåll	-2895
com	-2896
enden	-2897
▁York	-2898
▁befolk	-2899
ekan	-2900
uell	-2901
▁port	-2902
▁uttryck	-2903
ood	-2904
ktär	-2905
▁mod	-2906
▁fyll	-2907
▁glas	-2908
▁lyck	-2909
fa	-2910
▁blå	-2911
▁Nord	-2912
ektiva	-2913
vel	-2914
rekt	-2915
▁lug	-2916
▁2014	-2917
▁alls	-2918
ektion	-2919
▁Storbri	-2920
▁dessutom	-2921
▁skön	-2922
▁ökar	-2923
talien	-2924
▁metoder	-2925
▁direktiv	-2926
ppar	-2927
▁komment	-2928
▁städer	-2929
▁livsmedel	-2930
▁Tysk	-2931
▁frukt	-2932
▁modell	-2933
▁hot	-2934
▁nega	-2935
▁let	-2936
▁brän	-2937
teck	-2938
▁brö	-2939
▁behå	-2940
▁radi	-2941
▁morgon	-2942
▁period	-2943
▁tekniska	-2944
▁högt	-2945
▁tala	-2946
▁vare	-2947
▁vitt	-2948
▁förra	-2949
▁tecken	-2950
EN	-2951
▁ständ	-2952
▁engelska	-2953
▁Storbritan	-2954
▁juni	-2955
▁enkla	-2956
▁talar	-2957
▁ledare	-2958
▁december	-2959
▁anledning	-2960
▁ingenting	-2961
▁specifika	-2962
ure	-2963
stra	-2964
kerna	-2965
tember	-2966
▁Facebook	-2967
▁förhållande	-2968
åde	-2969
▁privat	-2970
▁Interna	-2971
▁transport	-2972
fiera	-2973
▁Själ	-2974
▁spår	-2975
▁ansök	-2976
jen	-2977
sch	-2978
▁Väl	-2979
▁sub	-2980
snitt	-2981
▁Hopp	-2982
▁klas	-2983
▁rädda	-2984
ftet	-2985
▁hum	-2986
▁dotter	-2987
▁installer	-2988
▁196	-2989
▁fart	-2990
▁perio	-2991
▁prote	-2992
▁förvär	-2993
▁utnytt	-2994
▁Ryss	-2995
kterna	-2996
▁tusen	-2997
▁social	-2998
skri	-2999
skott	-3000
▁psyk	-3001
anuari	-3002
▁undvika	-3003
läg	-3004
▁Kar	-3005
▁vita	-3006
▁utform	-3007
ivil	-3008
vill	-3009
▁rym	-3010
▁karaktär	-3011
orer	-3012
▁pun	-3013
▁bank	-3014
▁dubb	-3015
▁Stockholm	-3016
ake	-3017
▁kem	-3018
▁anlägg	-3019
▁barnen	-3020
▁post	-3021
▁video	-3022
▁Vilken	-3023
▁överens	-3024
▁antingen	-3025
▁bestämmelser	-3026
orn	-3027
por	-3028
icro	-3029
ines	-3030
▁bost	-3031
▁Andra	-3032
visning	-3033
ffa	-3034
▁sten	-3035
▁Tur	-3036
▁rad	-3037
▁tjä	-3038
▁nyck	-3039
ach	-3040
▁Del	-3041
▁ingår	-3042
▁lista	-3043
▁förvalt	-3044
▁studenter	-3045
edd	-3046
sel	-3047
▁cancer	-3048
▁skyldig	-3049
▁fullständ	-3050
▁kommentar	-3051
när	-3052
tit	-3053
itter	-3054
▁någonting	-3055
▁län	-3056
▁ning	-3057
▁visade	-3058
▁aktiviteter	-3059
▁Mark	-3060
▁beror	-3061
▁välkom	-3062
▁co	-3063
▁sch	-3064
▁tol	-3065
▁Komm	-3066
▁processen	-3067
▁22	-3068
▁od	-3069
▁absol	-3070
▁inlägg	-3071
▁maskin	-3072
▁gemenskap	-3073
nor	-3074
▁glad	-3075
▁poäng	-3076
▁förstör	-3077
▁presenter	-3078
▁Lo	-3079
samt	-3080
▁Lond	-3081
lik	-3082
till	-3083
▁Pla	-3084
▁tun	-3085
▁ensam	-3086
▁bilden	-3087
▁förändra	-3088
▁are	-3089
▁menar	-3090
▁genera	-3091
▁2013	-3092
▁kateg	-3093
▁visste	-3094
▁politik	-3095
▁Kv	-3096
▁Sm	-3097
▁kron	-3098
spro	-3099
▁Amer	-3100
▁förhållanden	-3101
ystem	-3102
▁budget	-3103
▁kläder	-3104
▁ena	-3105
▁anser	-3106
▁offici	-3107
▁globala	-3108
▁personliga	-3109
stone	-3110
▁Internet	-3111
ink	-3112
ita	-3113
▁We	-3114
sida	-3115
orier	-3116
▁skilj	-3117
▁januari	-3118
▁#	-3119
▁Su	-3120
▁To	-3121
▁konsek	-3122
ober	-3123
▁stäm	-3124
skapet	-3125
▁lilla	-3126
parlament	-3127
▁forskare	-3128
be	-3129
▁23	-3130
▁sälj	-3131
▁modern	-3132
boll	-3133
▁heter	-3134
▁lagen	-3135
▁uppfatt	-3136
▁ek	-3137
trem	-3138
klara	-3139
▁exakt	-3140
▁attack	-3141
▁gemensam	-3142
▁extrem	-3143
▁kompet	-3144
▁familjen	-3145
kort	-3146
▁Männ	-3147
▁fordon	-3148
▁september	-3149
ana	-3150
rande	-3151
▁fokus	-3152
urg	-3153
▁mars	-3154
▁sinn	-3155
▁skrev	-3156
▁bus	-3157
astig	-3158
▁Våra	-3159
▁Person	-3160
▁trafik	-3161
öts	-3162
▁scen	-3163
avid	-3164
▁vacker	-3165
▁regeringen	-3166
oden	-3167
▁bon	-3168
▁kompl	-3169
▁kre	-3170
strin	-3171
rument	-3172
▁konsum	-3173
▁medlemsstaterna	-3174
▁anses	-3175
▁ämnen	-3176
beroende	-3177
▁trädgår	-3178
▁AB	-3179
ifrån	-3180
▁ström	-3181
▁bidrag	-3182
▁utrustning	-3183
▁jätt	-3184
▁tids	-3185
▁region	-3186
▁as	-3187
assa	-3188
plan	-3189
▁ide	-3190
▁jul	-3191
▁täck	-3192
▁elektron	-3193
▁njuta	-3194
▁mottag	-3195
▁centrum	-3196
za	-3197
▁Hå	-3198
▁kända	-3199
▁lägger	-3200
fe	-3201
▁3.	-3202
▁II	-3203
▁grön	-3204
▁forsknings	-3205
▁sma	-3206
▁Bara	-3207
th	-3208
amen	-3209
minstone	-3210
anc	-3211
▁Er	-3212
uellt	-3213
emot	-3214
▁stress	-3215
nal	-3216
vår	-3217
▁fång	-3218
▁livs	-3219
▁opti	-3220
▁havet	-3221
▁berättar	-3222
▁Europaparlament	-3223
▁vap	-3224
▁säkra	-3225
▁effektivt	-3226
▁egenskaper	-3227
▁he	-3228
▁Följ	-3229
▁skick	-3230
▁effekt	-3231
▁lämnar	-3232
▁vanligt	-3233
▁gemensamma	-3234
▁webbplatser	-3235
▁berg	-3236
▁David	-3237
▁Några	-3238
▁27	-3239
värr	-3240
värt	-3241
▁mus	-3242
▁skriv	-3243
orlunda	-3244
▁tillgänglig	-3245
▁:)	-3246
deras	-3247
▁spar	-3248
ktober	-3249
▁avses	-3250
▁levande	-3251
ars	-3252
ama	-3253
fulla	-3254
▁klubb	-3255
▁utrym	-3256
▁filmen	-3257
▁Gra	-3258
isera	-3259
▁regelbund	-3260
vida	-3261
▁poj	-3262
▁stö	-3263
▁gläd	-3264
▁säng	-3265
▁Ibland	-3266
▁avsnitt	-3267
▁miljarder	-3268
kul	-3269
▁otro	-3270
▁nivåer	-3271
▁central	-3272
set	-3273
ansa	-3274
▁Tra	-3275
▁sov	-3276
▁öppen	-3277
▁London	-3278
▁kommunikation	-3279
ftar	-3280
▁jud	-3281
▁tyck	-3282
▁vars	-3283
dering	-3284
▁medier	-3285
▁priset	-3286
▁framtid	-3287
inder	-3288
▁utvär	-3289
▁institu	-3290
tisti	-3291
▁Micro	-3292
▁flick	-3293
▁Hoppas	-3294
▁sektor	-3295
▁fortsatt	-3296
ns	-3297
▁mid	-3298
▁fäng	-3299
▁vanligtvis	-3300
tiga	-3301
▁civil	-3302
▁km	-3303
erings	-3304
satta	-3305
▁grad	-3306
▁Nästa	-3307
▁meter	-3308
▁trodde	-3309
▁avsluta	-3310
▁Storbritannien	-3311
▁ges	-3312
serar	-3313
▁2012	-3314
▁integr	-3315
▁stabil	-3316
ningarna	-3317
▁Finland	-3318
▁genomsnitt	-3319
▁Två	-3320
▁Park	-3321
▁främst	-3322
▁känsla	-3323
▁önskar	-3324
▁Tyskland	-3325
ena	-3326
▁Bus	-3327
tande	-3328
▁paket	-3329
peratur	-3330
ologiska	-3331
▁Bes	-3332
▁Bra	-3333
▁slå	-3334
licka	-3335
▁bord	-3336
terier	-3337
▁delta	-3338
▁uttal	-3339
jan	-3340
amål	-3341
ftig	-3342
▁fört	-3343
rings	-3344
▁FN	-3345
▁Sc	-3346
▁bill	-3347
▁mång	-3348
▁analys	-3349
▁respek	-3350
▁ändamål	-3351
värd	-3352
▁mol	-3353
givare	-3354
▁religi	-3355
▁Människ	-3356
mi	-3357
▁Com	-3358
▁Hen	-3359
▁tit	-3360
▁konstru	-3361
▁marknad	-3362
▁uppskatt	-3363
licy	-3364
slam	-3365
▁strä	-3366
▁tips	-3367
▁University	-3368
▁webbplatsen	-3369
▁28	-3370
▁häng	-3371
klag	-3372
▁sän	-3373
▁äter	-3374
▁demokra	-3375
▁Ryssland	-3376
lös	-3377
▁El	-3378
tive	-3379
▁arki	-3380
▁kapa	-3381
▁bekväm	-3382
▁Frankri	-3383
▁Företag	-3384
▁oktober	-3385
▁annorlunda	-3386
öna	-3387
▁ho	-3388
▁Dom	-3389
▁åka	-3390
▁oberoende	-3391
▁ag	-3392
▁sälja	-3393
▁Hotell	-3394
▁Nation	-3395
▁spännande	-3396
▁offentliga	-3397
pril	-3398
▁kry	-3399
▁2010	-3400
▁synd	-3401
▁initi	-3402
▁omfattande	-3403
▁26	-3404
ygga	-3405
▁kolla	-3406
▁folket	-3407
▁lärare	-3408
▁världs	-3409
jor	-3410
▁36	-3411
▁press	-3412
igheten	-3413
▁bygger	-3414
▁fallet	-3415
▁vol	-3416
▁djup	-3417
▁kände	-3418
hi	-3419
xi	-3420
▁Nya	-3421
▁job	-3422
▁kal	-3423
▁tankar	-3424
▁sannoli	-3425
▁Gu	-3426
▁500	-3427
▁Bil	-3428
▁kap	-3429
blick	-3430
▁sport	-3431
▁Pr	-3432
ture	-3433
▁lägg	-3434
▁fungera	-3435
▁kontakta	-3436
▁kontrollera	-3437
▁avslöj	-3438
▁intell	-3439
▁tidigt	-3440
cess	-3441
▁höll	-3442
▁inre	-3443
▁lägre	-3444
▁utfor	-3445
▁föremål	-3446
▁populära	-3447
kal	-3448
▁ok	-3449
inal	-3450
▁Eng	-3451
▁skra	-3452
▁datum	-3453
▁finansiella	-3454
stit	-3455
▁båt	-3456
▁nov	-3457
▁stär	-3458
▁litet	-3459
▁därmed	-3460
▁ungdom	-3461
▁undantag	-3462
ola	-3463
itta	-3464
▁våg	-3465
▁musk	-3466
▁bidra	-3467
▁sidor	-3468
▁Lu	-3469
▁hundra	-3470
▁special	-3471
▁fantastiska	-3472
▁gol	-3473
bord	-3474
▁förhand	-3475
▁inkluderar	-3476
lå	-3477
ärn	-3478
edda	-3479
▁Pol	-3480
▁amb	-3481
▁vänta	-3482
▁kommande	-3483
igen	-3484
onom	-3485
▁gui	-3486
▁ste	-3487
stitut	-3488
▁besöka	-3489
▁inspir	-3490
orge	-3491
ulti	-3492
bum	-3493
▁?”	-3494
▁dis	-3495
▁visat	-3496
▁försvar	-3497
▁tom	-3498
liv	-3499
▁?"	-3500
▁Må	-3501
▁företags	-3502
▁betydelse	-3503
gra	-3504
tter	-3505
▁långa	-3506
▁fastig	-3507
▁ställa	-3508
▁absolut	-3509
▁användar	-3510
▁Gam	-3511
citet	-3512
▁hård	-3513
▁Själv	-3514
▁elever	-3515
ikro	-3516
▁anm	-3517
▁jobbet	-3518
▁lyssna	-3519
▁motstånd	-3520
▁görs	-3521
▁reda	-3522
▁göras	-3523
▁gravid	-3524
tor	-3525
▁söm	-3526
▁etab	-3527
▁bilar	-3528
▁missl	-3529
ydd	-3530
▁iP	-3531
▁Bet	-3532
▁knapp	-3533
▁konven	-3534
▁försäljning	-3535
åd	-3536
▁uts	-3537
▁söka	-3538
▁tving	-3539
▁vuxna	-3540
odligen	-3541
▁enbart	-3542
ager	-3543
grund	-3544
▁Fram	-3545
▁sla	-3546
▁träning	-3547
▁Am	-3548
▁pat	-3549
tiskt	-3550
▁spen	-3551
▁känslor	-3552
▁resurser	-3553
▁tänk	-3554
▁semester	-3555
▁snabbare	-3556
▁verkliga	-3557
lack	-3558
▁deb	-3559
▁ång	-3560
▁2011	-3561
▁Trots	-3562
▁övertyg	-3563
stäm	-3564
▁2019	-3565
▁leverantör	-3566
fl	-3567
ekta	-3568
▁Air	-3569
▁ret	-3570
punkt	-3571
▁borta	-3572
▁nedan	-3573
▁filmer	-3574
▁avseende	-3575
▁projektet	-3576
▁(2	-3577
▁bu	-3578
kohol	-3579
▁dagens	-3580
ökt	-3581
▁35	-3582
▁ör	-3583
▁Vet	-3584
▁inled	-3585
isering	-3586
spektiv	-3587
▁4.	-3588
ågan	-3589
▁växt	-3590
▁sitter	-3591
▁förhindra	-3592
atten	-3593
sidan	-3594
▁varor	-3595
▁ekonomi	-3596
▁förekom	-3597
medel	-3598
verkan	-3599
▁vapen	-3600
▁moderna	-3601
▁åtminstone	-3602
▁internationell	-3603
ynd	-3604
ustra	-3605
▁gruppen	-3606
▁asp	-3607
▁sjun	-3608
▁sång	-3609
ländska	-3610
▁utvecklas	-3611
ign	-3612
▁krist	-3613
rarna	-3614
▁stod	-3615
sioner	-3616
▁uppgift	-3617
▁Dr	-3618
▁drag	-3619
▁sätter	-3620
cel	-3621
▁tab	-3622
▁kärn	-3623
▁priva	-3624
▁Tre	-3625
▁hud	-3626
▁klin	-3627
▁block	-3628
▁detalj	-3629
▁jämfört	-3630
ix	-3631
dags	-3632
änderna	-3633
▁särskilda	-3634
▁omedelbart	-3635
▁Ab	-3636
▁föred	-3637
egående	-3638
ställningar	-3639
▁medlemsstat	-3640
ilje	-3641
▁häv	-3642
▁symb	-3643
▁författare	-3644
▁tåg	-3645
äster	-3646
▁starka	-3647
▁framtida	-3648
▁konstnär	-3649
▁Mal	-3650
▁känt	-3651
▁baserat	-3652
▁upplevelse	-3653
nars	-3654
▁siff	-3655
▁bilen	-3656
▁risken	-3657
▁nyligen	-3658
ocker	-3659
▁reak	-3660
▁Först	-3661
▁Frankrike	-3662
▁Cl	-3663
▁dit	-3664
▁2009	-3665
▁cook	-3666
▁uppm	-3667
▁växa	-3668
▁brukar	-3669
▁fotboll	-3670
ish	-3671
▁köper	-3672
▁växer	-3673
▁natten	-3674
▁patient	-3675
▁ak	-3676
mark	-3677
▁2008	-3678
▁gräns	-3679
▁distri	-3680
▁huvudsak	-3681
▁ständigt	-3682
▁produkten	-3683
ight	-3684
orld	-3685
usti	-3686
▁Spe	-3687
▁gett	-3688
▁certi	-3689
▁tanke	-3690
▁barnet	-3691
▁kyrkan	-3692
▁starkt	-3693
▁övriga	-3694
▁allmänna	-3695
▁hört	-3696
▁former	-3697
▁möjliga	-3698
▁nämligen	-3699
▁Br	-3700
▁uppman	-3701
▁problemet	-3702
stro	-3703
▁ent	-3704
▁kök	-3705
▁pan	-3706
▁värme	-3707
▁Herren	-3708
▁belopp	-3709
▁x	-3710
amer	-3711
likt	-3712
rala	-3713
▁kön	-3714
▁mät	-3715
▁attra	-3716
▁batter	-3717
▁resten	-3718
▁perspektiv	-3719
eck	-3720
▁band	-3721
▁idéer	-3722
▁kampan	-3723
sättningar	-3724
▁Cent	-3725
▁britt	-3726
▁metod	-3727
▁platsen	-3728
▁november	-3729
▁sjukdomar	-3730
▁instrument	-3731
▁resultatet	-3732
▁2,	-3733
edag	-3734
följ	-3735
▁Off	-3736
▁arg	-3737
tryck	-3738
▁april	-3739
ills	-3740
ocka	-3741
▁kop	-3742
känna	-3743
▁bilj	-3744
▁häls	-3745
▁köra	-3746
▁tjäna	-3747
▁proces	-3748
▁hjärtat	-3749
▁personlig	-3750
▁relationer	-3751
arm	-3752
ith	-3753
åda	-3754
▁Ho	-3755
▁es	-3756
rodu	-3757
▁Nej	-3758
▁värd	-3759
▁Någon	-3760
▁miljön	-3761
▁tänkte	-3762
▁strateg	-3763
▁intressant	-3764
▁Do	-3765
▁Hot	-3766
▁fakt	-3767
▁sommar	-3768
▁ställe	-3769
oni	-3770
▁On	-3771
▁Tw	-3772
▁besl	-3773
▁möte	-3774
gående	-3775
▁Arbet	-3776
▁hände	-3777
▁lanser	-3778
▁mannen	-3779
▁Gro	-3780
▁sym	-3781
▁antag	-3782
▁lagar	-3783
▁ordet	-3784
▁super	-3785
istiska	-3786
▁rätten	-3787
▁offentlig	-3788
▁gas	-3789
▁rut	-3790
▁sty	-3791
▁guld	-3792
▁juli	-3793
▁utmärkt	-3794
▁modeller	-3795
▁personen	-3796
▁handlingar	-3797
ya	-3798
▁stil	-3799
▁närma	-3800
▁objekt	-3801
▁sjukhus	-3802
▁70	-3803
▁Tim	-3804
▁erk	-3805
▁nord	-3806
▁hända	-3807
▁trygg	-3808
▁interv	-3809
▁kallar	-3810
▁temperatur	-3811
▁Tr	-3812
bygg	-3813
atsen	-3814
▁Trum	-3815
▁dest	-3816
unnit	-3817
▁smart	-3818
▁profil	-3819
▁frågade	-3820
omb	-3821
soft	-3822
öter	-3823
▁mun	-3824
▁Första	-3825
▁börjat	-3826
▁planet	-3827
han	-3828
betal	-3829
▁Paul	-3830
▁räck	-3831
▁Krist	-3832
▁rätta	-3833
▁förest	-3834
▁kompetens	-3835
ome	-3836
agnos	-3837
▁avanc	-3838
▁framåt	-3839
▁priser	-3840
▁kallade	-3841
▁fördelar	-3842
▁omfattar	-3843
▁statisti	-3844
▁naturliga	-3845
▁Ed	-3846
dens	-3847
maren	-3848
sering	-3849
old	-3850
▁Reg	-3851
▁ill	-3852
▁solen	-3853
▁Samtidigt	-3854
▁rekommenderar	-3855
lat	-3856
▁gäll	-3857
▁skog	-3858
▁passar	-3859
▁stödja	-3860
▁symbol	-3861
▁vinter	-3862
▁alkohol	-3863
▁lättare	-3864
anien	-3865
▁brist	-3866
▁prest	-3867
▁stanna	-3868
▁vattnet	-3869
ile	-3870
▁ses	-3871
▁yrk	-3872
▁mikro	-3873
▁svart	-3874
▁miljon	-3875
▁Fort	-3876
▁flytta	-3877
▁promen	-3878
▁starta	-3879
▁tydligt	-3880
its	-3881
▁Sn	-3882
▁Beh	-3883
▁Gre	-3884
▁kontin	-3885
▁pension	-3886
▁=	-3887
▁rän	-3888
frika	-3889
▁oför	-3890
▁läser	-3891
▁baserade	-3892
▁Microsoft	-3893
▁31	-3894
▁dog	-3895
▁hänsyn	-3896
▁vänster	-3897
oso	-3898
ump	-3899
▁pal	-3900
▁vinn	-3901
▁smärta	-3902
▁uppmunt	-3903
▁handling	-3904
▁betydande	-3905
▁Ko	-3906
▁önsk	-3907
▁beröm	-3908
▁nätet	-3909
▁serie	-3910
▁behandla	-3911
▁Kl	-3912
▁fåg	-3913
liote	-3914
släpp	-3915
▁vart	-3916
▁unika	-3917
▁unders	-3918
▁väntar	-3919
▁194	-3920
▁Mon	-3921
▁dep	-3922
▁mån	-3923
ungen	-3924
▁omöj	-3925
▁äger	-3926
erande	-3927
▁Apple	-3928
▁jurid	-3929
AR	-3930
▁Jap	-3931
endet	-3932
▁närmare	-3933
klare	-3934
▁pappa	-3935
▁oftast	-3936
▁träffa	-3937
▁kristna	-3938
▁konsekven	-3939
▁historiska	-3940
bert	-3941
▁kvali	-3942
▁yrkes	-3943
▁ävent	-3944
▁frihet	-3945
eda	-3946
sla	-3947
▁Hem	-3948
▁Mitt	-3949
entera	-3950
▁bostad	-3951
▁skador	-3952
▁kommersi	-3953
ira	-3954
sson	-3955
▁musli	-3956
delning	-3957
▁mening	-3958
▁papper	-3959
siva	-3960
▁fria	-3961
▁annon	-3962
▁dåligt	-3963
▁förfar	-3964
▁orsaka	-3965
bry	-3966
▁80	-3967
▁Sw	-3968
▁Paris	-3969
▁anmäl	-3970
▁målet	-3971
▁Skulle	-3972
▁arkite	-3973
▁fartyg	-3974
▁komplex	-3975
EB	-3976
▁90	-3977
▁Bu	-3978
▁195	-3979
▁Just	-3980
▁prov	-3981
▁flykt	-3982
▁massa	-3983
troende	-3984
▁kunnat	-3985
▁straff	-3986
▁faktorer	-3987
▁regering	-3988
▁kung	-3989
▁följd	-3990
kast	-3991
▁Bro	-3992
▁ökad	-3993
▁transa	-3994
▁koncent	-3995
▁ski	-3996
delsen	-3997
▁kines	-3998
▁ögonblick	-3999
▁relaterade	-4000
tic	-4001
▁dans	-4002
▁nytta	-4003
▁obser	-4004
▁spara	-4005
▁flygplats	-4006
▁situation	-4007
▁exempelvis	-4008
▁förståelse	-4009
amm	-4010
ora	-4011
▁sjö	-4012
oritet	-4013
▁uppleva	-4014
▁individu	-4015
▁historien	-4016
),	-4017
▁ök	-4018
▁ras	-4019
delar	-4020
▁bidrar	-4021
▁kompon	-4022
▁utföra	-4023
▁handels	-4024
▁samhälle	-4025
▁upptäcka	-4026
▁Ga	-4027
unch	-4028
▁trev	-4029
▁Produ	-4030
▁färger	-4031
▁privata	-4032
▁svarade	-4033
▁effekter	-4034
jöl	-4035
och	-4036
▁29	-4037
▁gla	-4038
▁gjor	-4039
bruari	-4040
▁jobba	-4041
▁leverans	-4042
IN	-4043
▁5.	-4044
▁kött	-4045
▁hastig	-4046
▁Mac	-4047
▁bro	-4048
▁lov	-4049
rådet	-4050
▁Mich	-4051
verket	-4052
▁främja	-4053
▁närings	-4054
▁beteende	-4055
▁digitala	-4056
▁förmodligen	-4057
▁naturligtvis	-4058
les	-4059
vand	-4060
▁nöjd	-4061
▁återv	-4062
▁befint	-4063
▁pratar	-4064
▁server	-4065
▁dej	-4066
anter	-4067
larna	-4068
▁tillverka	-4069
▁eventuella	-4070
IS	-4071
vån	-4072
▁bev	-4073
▁max	-4074
▁såväl	-4075
▁industrin	-4076
go	-4077
oga	-4078
rus	-4079
▁fett	-4080
▁muse	-4081
▁bonus	-4082
▁fjärde	-4083
▁omständ	-4084
▁sanningen	-4085
▁leverantörer	-4086
00-	-4087
▁Vän	-4088
▁roman	-4089
▁saknar	-4090
▁baserad	-4091
▁korrekt	-4092
▁rörelse	-4093
bo	-4094
▁Sl	-4095
▁Rom	-4096
▁läst	-4097
siktig	-4098
▁inträff	-4099
▁marknader	-4100
▁fantastisk	-4101
▁bön	-4102
▁drift	-4103
▁mekan	-4104
▁allmänhet	-4105
▁identifier	-4106
uer	-4107
▁förstås	-4108
▁genomföra	-4109
▁Im	-4110
▁Si	-4111
atan	-4112
göra	-4113
▁Pri	-4114
▁stund	-4115
venemang	-4116
▁militär	-4117
▁processer	-4118
nu	-4119
▁IT	-4120
▁Jer	-4121
▁arm	-4122
▁dubbel	-4123
▁faktum	-4124
▁bakgrund	-4125
▁Je	-4126
▁grå	-4127
▁Svar	-4128
▁förd	-4129
▁kill	-4130
▁misst	-4131
▁Vilket	-4132
▁roligt	-4133
▁föreskri	-4134
terad	-4135
▁Välj	-4136
▁tyst	-4137
▁värt	-4138
▁Program	-4139
▁avstånd	-4140
▁utrymme	-4141
▁International	-4142
▁ba	-4143
▁svara	-4144
▁värdet	-4145
▁nödvändiga	-4146
ES	-4147
yll	-4148
▁Mot	-4149
tning	-4150
ämpar	-4151
▁utred	-4152
▁Mycket	-4153
▁förlora	-4154
▁tillåter	-4155
likationer	-4156
▁Em	-4157
lare	-4158
llop	-4159
▁Ben	-4160
▁kaffe	-4161
▁instru	-4162
▁älskade	-4163
▁au	-4164
▁sim	-4165
▁hårt	-4166
▁åtta	-4167
▁World	-4168
▁samtliga	-4169
▁avgörande	-4170
own	-4171
▁Lär	-4172
▁ansi	-4173
▁järn	-4174
▁snar	-4175
▁etabl	-4176
▁listan	-4177
▁fysiska	-4178
▁marknadsföring	-4179
tad	-4180
▁Da	-4181
▁skola	-4182
▁dricka	-4183
▁skapat	-4184
▁medborgare	-4185
▁tillhandahålla	-4186
▁ir	-4187
▁nogg	-4188
derade	-4189
▁lyckas	-4190
▁Ac	-4191
▁Me	-4192
varo	-4193
våra	-4194
▁gre	-4195
liken	-4196
▁skor	-4197
▁koncer	-4198
▁perioden	-4199
▁ursprungliga	-4200
vas	-4201
cial	-4202
▁Gru	-4203
▁Stud	-4204
▁funder	-4205
▁reklam	-4206
▁diagnos	-4207
▁kommitt	-4208
formation	-4209
▁investeringar	-4210
til	-4211
örd	-4212
▁End	-4213
▁Und	-4214
bolag	-4215
▁album	-4216
▁Austra	-4217
minister	-4218
▁möjligheten	-4219
▁Ca	-4220
uvud	-4221
▁Vårt	-4222
▁recept	-4223
▁verket	-4224
ellertid	-4225
▁normalt	-4226
ban	-4227
▁läge	-4228
▁samtal	-4229
▁staten	-4230
▁totala	-4231
struktur	-4232
▁människan	-4233
▁ts	-4234
issa	-4235
ssel	-4236
▁lju	-4237
gande	-4238
▁....	-4239
▁utby	-4240
▁inten	-4241
▁äkten	-4242
▁misstag	-4243
▁automatiskt	-4244
▁grä	-4245
deles	-4246
▁sömn	-4247
upport	-4248
▁multi	-4249
frågan	-4250
▁bibliote	-4251
▁händelser	-4252
▁Ba	-4253
▁Net	-4254
hålls	-4255
▁hänt	-4256
▁kand	-4257
▁allra	-4258
▁dålig	-4259
▁intervju	-4260
▁ekonomisk	-4261
eds	-4262
▁ci	-4263
ativt	-4264
ringa	-4265
ression	-4266
▁enskilda	-4267
▁principer	-4268
▁verksamheten	-4269
▁informationen	-4270
garna	-4271
▁väst	-4272
▁svåra	-4273
▁relation	-4274
▁konferens	-4275
ida	-4276
▁Gr	-4277
▁Ri	-4278
▁it	-4279
▁Dig	-4280
rakta	-4281
▁akade	-4282
ötsligt	-4283
ligheter	-4284
▁befinner	-4285
▁behöriga	-4286
▁februari	-4287
tio	-4288
ult	-4289
otten	-4290
terat	-4291
▁brev	-4292
▁kurs	-4293
▁vinst	-4294
▁lägenhet	-4295
▁konkurrens	-4296
▁ordförande	-4297
▁Pen	-4298
▁Barn	-4299
▁sprid	-4300
▁önska	-4301
▁Förutom	-4302
▁Oavsett	-4303
▁ansökan	-4304
AS	-4305
▁45	-4306
▁äng	-4307
▁möta	-4308
erades	-4309
▁kvällen	-4310
▁medarbet	-4311
▁effektiva	-4312
▁plattform	-4313
▁meddelande	-4314
▁My	-4315
ycke	-4316
ägen	-4317
▁ten	-4318
▁spri	-4319
▁uppe	-4320
▁tillb	-4321
▁öppet	-4322
▁hälften	-4323
fil	-4324
sso	-4325
pati	-4326
▁hat	-4327
▁Medan	-4328
ks	-4329
▁No	-4330
▁strå	-4331
▁tittar	-4332
▁hemsida	-4333
▁jordbruk	-4334
rav	-4335
▁tider	-4336
▁funnit	-4337
▁kriget	-4338
▁National	-4339
▁kontrakt	-4340
by	-4341
bis	-4342
▁Ur	-4343
stera	-4344
▁glädje	-4345
▁överväg	-4346
▁distribu	-4347
▁kombination	-4348
▁användningen	-4349
▁uppmärksamhet	-4350
kra	-4351
...]	-4352
iness	-4353
▁sant	-4354
▁jobbar	-4355
▁rummet	-4356
▁tillägg	-4357
▁besökare	-4358
▁överallt	-4359
edi	-4360
lir	-4361
sar	-4362
▁am	-4363
kost	-4364
ören	-4365
▁ägg	-4366
sikter	-4367
▁[...]	-4368
▁grunden	-4369
▁minskar	-4370
▁tvi	-4371
▁digital	-4372
gy	-4373
pun	-4374
▁por	-4375
▁2020	-4376
▁cykel	-4377
▁trött	-4378
tionerna	-4379
▁unionen	-4380
▁aut	-4381
ktiva	-4382
▁Jack	-4383
▁tillåt	-4384
entation	-4385
▁intressen	-4386
▁prestanda	-4387
out	-4388
ower	-4389
AN	-4390
▁Skri	-4391
▁Will	-4392
▁mjuk	-4393
▁sats	-4394
▁balans	-4395
▁regelbundet	-4396
mel	-4397
ödra	-4398
▁Hög	-4399
▁Mat	-4400
▁rob	-4401
sland	-4402
▁Utan	-4403
▁moti	-4404
▁svag	-4405
arskap	-4406
sträng	-4407
▁union	-4408
▁överg	-4409
EU	-4410
jar	-4411
▁af	-4412
▁fu	-4413
ence	-4414
▁Col	-4415
▁tum	-4416
▁klock	-4417
▁konser	-4418
▁underl	-4419
▁Trump	-4420
▁linje	-4421
▁Center	-4422
▁ordning	-4423
▁situationer	-4424
▁omständigheter	-4425
dor	-4426
ree	-4427
▁Gå	-4428
▁SE	-4429
▁Håll	-4430
▁branschen	-4431
▁färdigheter	-4432
▁ink	-4433
▁hjärt	-4434
▁planer	-4435
▁lagstiftning	-4436
jör	-4437
sdag	-4438
▁fal	-4439
▁Star	-4440
ställd	-4441
▁stolt	-4442
vt	-4443
▁Mc	-4444
▁beho	-4445
▁förk	-4446
▁kris	-4447
▁slags	-4448
▁frågar	-4449
▁familje	-4450
▁nyheter	-4451
pan	-4452
abet	-4453
ctor	-4454
räde	-4455
estiv	-4456
▁arran	-4457
▁ägare	-4458
▁formul	-4459
▁hittade	-4460
▁evenemang	-4461
▁misslycka	-4462
▁!”	-4463
▁seg	-4464
▁drog	-4465
▁klag	-4466
tifrån	-4467
▁avtalet	-4468
▁bolaget	-4469
▁cookies	-4470
mos	-4471
rare	-4472
▁sal	-4473
perat	-4474
▁jour	-4475
▁islam	-4476
▁överra	-4477
▁betrakta	-4478
iel	-4479
▁Kor	-4480
▁gro	-4481
fullt	-4482
ugusti	-4483
▁rådets	-4484
▁begäran	-4485
▁sammanh	-4486
▁­	-4487
▁dyr	-4488
▁cell	-4489
▁drar	-4490
▁turn	-4491
▁vägg	-4492
▁berörda	-4493
▁populär	-4494
▁relevanta	-4495
riska	-4496
skrig	-4497
ssoci	-4498
▁2007	-4499
▁fina	-4500
▁casino	-4501
▁skrift	-4502
▁varier	-4503
▁behövde	-4504
▁naturen	-4505
▁ansträng	-4506
▁uppenbar	-4507
▁tillämpas	-4508
▁identifiera	-4509
TE	-4510
▁IS	-4511
▁filer	-4512
▁tekni	-4513
givning	-4514
ådespel	-4515
▁styrka	-4516
handling	-4517
▁äventyr	-4518
▁familjer	-4519
▁installa	-4520
ear	-4521
▁[1	-4522
▁fo	-4523
▁Äl	-4524
▁skul	-4525
▁stri	-4526
▁Hotel	-4527
▁stats	-4528
▁franska	-4529
▁snarare	-4530
▁perfekta	-4531
▁finansiering	-4532
▁WEB	-4533
▁sur	-4534
▁Kvinn	-4535
▁element	-4536
▁centrala	-4537
▁behandlas	-4538
pla	-4539
▁ed	-4540
▁änt	-4541
▁mjöl	-4542
▁olyck	-4543
▁representer	-4544
▁situationen	-4545
The	-4546
▁!"	-4547
▁Fri	-4548
▁Val	-4549
▁Fast	-4550
▁döds	-4551
▁ryska	-4552
▁fönster	-4553
▁fotograf	-4554
▁intresserad	-4555
.”	-4556
ea	-4557
dela	-4558
▁Bib	-4559
▁hit	-4560
▁2006	-4561
▁valt	-4562
▁förmån	-4563
▁alltför	-4564
▁främsta	-4565
▁överlev	-4566
▁artikeln	-4567
▁intellig	-4568
▁officiella	-4569
▁Bel	-4570
▁Gar	-4571
marna	-4572
▁City	-4573
▁bröllop	-4574
rastruktur	-4575
steg	-4576
▁sån	-4577
▁klara	-4578
ningsvis	-4579
▁äntligen	-4580
▁uppfyller	-4581
▁utvecklings	-4582
Om	-4583
häm	-4584
ica	-4585
▁nej	-4586
enser	-4587
▁fält	-4588
▁lärt	-4589
▁tera	-4590
▁hundar	-4591
▁begrepp	-4592
▁traditionella	-4593
stig	-4594
▁gym	-4595
▁sägs	-4596
▁Åter	-4597
▁fritt	-4598
▁igång	-4599
▁visst	-4600
▁massor	-4601
▁introdu	-4602
▁fött	-4603
▁katt	-4604
▁Fråga	-4605
▁förny	-4606
▁valet	-4607
▁gällande	-4608
bok	-4609
dat	-4610
atte	-4611
örja	-4612
▁Ele	-4613
▁Jon	-4614
▁Sol	-4615
▁samla	-4616
▁idrott	-4617
▁konver	-4618
▁förlust	-4619
▁uppstår	-4620
▁sannolikt	-4621
▁myndigheterna	-4622
ärer	-4623
▁dos	-4624
▁vore	-4625
▁media	-4626
enterna	-4627
▁totalt	-4628
▁Kristus	-4629
▁koncept	-4630
▁uppfyll	-4631
▁händelse	-4632
▁parlament	-4633
▁‘	-4634
▁Met	-4635
▁utbud	-4636
▁aktiva	-4637
▁skrivit	-4638
▁kapacitet	-4639
▁Jam	-4640
ismen	-4641
▁tjej	-4642
▁resul	-4643
▁omvand	-4644
▁bestämma	-4645
▁kunskaper	-4646
▁emellertid	-4647
akta	-4648
▁193	-4649
▁You	-4650
saker	-4651
▁lager	-4652
▁längs	-4653
▁Un	-4654
▁Japan	-4655
▁Peter	-4656
▁aktie	-4657
▁taget	-4658
ssystem	-4659
▁faller	-4660
▁föddes	-4661
▁augusti	-4662
▁th	-4663
slut	-4664
▁300	-4665
▁Lin	-4666
ografi	-4667
vision	-4668
▁klicka	-4669
▁skatte	-4670
▁behålla	-4671
▁kostnad	-4672
▁alldeles	-4673
▁initiativ	-4674
igur	-4675
ward	-4676
▁Van	-4677
▁inl	-4678
▁lägen	-4679
▁Restaur	-4680
▁Spanien	-4681
▁förklara	-4682
▁position	-4683
▁medarbetare	-4684
pekt	-4685
tids	-4686
▁besk	-4687
▁Innan	-4688
▁offer	-4689
▁utfär	-4690
▁förrän	-4691
▁värden	-4692
▁omfattas	-4693
▁individer	-4694
▁utmaningar	-4695
,5	-4696
ney	-4697
▁At	-4698
äger	-4699
▁rim	-4700
▁Behöver	-4701
▁Italien	-4702
▁säsongen	-4703
▁Människor	-4704
kv	-4705
bud	-4706
råd	-4707
aner	-4708
▁Red	-4709
▁yng	-4710
▁välj	-4711
▁celler	-4712
▁säsong	-4713
▁hantering	-4714
▁internationellt	-4715
sor	-4716
way	-4717
▁Ir	-4718
▁vari	-4719
▁kamer	-4720
▁godkän	-4721
▁ansvarig	-4722
▁sommaren	-4723
▁uppfylla	-4724
▁myndigheten	-4725
mo	-4726
uc	-4727
edom	-4728
▁stre	-4729
▁ting	-4730
▁klassi	-4731
▁överför	-4732
▁behandlingen	-4733
sle	-4734
pten	-4735
▁Ter	-4736
▁ref	-4737
▁döden	-4738
▁sitta	-4739
▁valuta	-4740
▁minister	-4741
▁självständ	-4742
-1	-4743
AT	-4744
zon	-4745
part	-4746
▁mera	-4747
▁mörk	-4748
▁höger	-4749
▁premi	-4750
ställer	-4751
▁adress	-4752
▁terror	-4753
▁avgifter	-4754
▁administra	-4755
▁erfarenheter	-4756
▁infrastruktur	-4757
.1	-4758
tim	-4759
▁kil	-4760
▁sår	-4761
digare	-4762
rekven	-4763
▁synner	-4764
▁gränser	-4765
▁huvudet	-4766
▁kulture	-4767
▁otroligt	-4768
▁konsument	-4769
gas	-4770
rika	-4771
▁tex	-4772
skydd	-4773
▁Mina	-4774
▁avläg	-4775
▁inneh	-4776
▁System	-4777
▁naturligt	-4778
oxid	-4779
▁Mål	-4780
▁Arti	-4781
▁Char	-4782
▁Deras	-4783
▁lämnade	-4784
▁insatser	-4785
▁tekniker	-4786
OS	-4787
hone	-4788
▁döm	-4789
ledes	-4790
lings	-4791
▁unik	-4792
▁Medlem	-4793
▁nyckel	-4794
▁sträck	-4795
▁öppnar	-4796
▁exister	-4797
▁skapade	-4798
▁experter	-4799
▁medveten	-4800
▁definitivt	-4801
▁respektive	-4802
dri	-4803
ire	-4804
räm	-4805
itar	-4806
oren	-4807
▁imm	-4808
inska	-4809
▁rent	-4810
▁ladda	-4811
▁stads	-4812
▁timme	-4813
▁Island	-4814
▁Välkom	-4815
▁utmaning	-4816
▁byggnader	-4817
▁etc	-4818
▁dial	-4819
▁bevilj	-4820
▁verkligheten	-4821
▁Qu	-4822
skol	-4823
▁utl	-4824
undra	-4825
varen	-4826
▁rika	-4827
▁ökat	-4828
▁köpte	-4829
▁ramen	-4830
▁slutar	-4831
issionens	-4832
▁produktions	-4833
▁IN	-4834
▁ga	-4835
anna	-4836
▁Vol	-4837
▁väs	-4838
▁Black	-4839
▁Inget	-4840
▁invån	-4841
▁separ	-4842
▁tyska	-4843
▁ökade	-4844
ripande	-4845
▁England	-4846
▁landets	-4847
do	-4848
itel	-4849
slös	-4850
äget	-4851
▁Sim	-4852
▁Syd	-4853
istan	-4854
▁Slut	-4855
▁last	-4856
▁lopp	-4857
▁filoso	-4858
▁undrar	-4859
ike	-4860
▁is	-4861
▁föra	-4862
▁sist	-4863
▁stim	-4864
▁tand	-4865
▁finna	-4866
▁himlen	-4867
▁källor	-4868
▁ändringar	-4869
▁undersökning	-4870
▁bära	-4871
▁igår	-4872
▁vist	-4873
dighet	-4874
gången	-4875
serade	-4876
bilitet	-4877
eringar	-4878
▁mönster	-4879
▁Resultat	-4880
▁därefter	-4881
▁organisationen	-4882
mål	-4883
▁prova	-4884
▁diskus	-4885
▁global	-4886
▁syftar	-4887
▁ställning	-4888
kej	-4889
▁rök	-4890
▁Båda	-4891
▁Sven	-4892
▁utifrån	-4893
▁någonstans	-4894
▁revolution	-4895
ath	-4896
▁(3	-4897
ckar	-4898
▁nån	-4899
rikes	-4900
▁Pris	-4901
▁parker	-4902
▁inkomst	-4903
▁orsakar	-4904
▁samhälls	-4905
▁berättade	-4906
gn	-4907
öva	-4908
▁ert	-4909
▁Musi	-4910
handel	-4911
▁marker	-4912
▁bearbet	-4913
▁dagarna	-4914
▁ledning	-4915
▁ställer	-4916
ET	-4917
ley	-4918
öte	-4919
▁IP	-4920
▁kyr	-4921
▁back	-4922
▁mått	-4923
▁promenad	-4924
▁versionen	-4925
▁amerikansk	-4926
lu	-4927
▁Få	-4928
▁ku	-4929
▁Ham	-4930
ritet	-4931
ägare	-4932
▁laget	-4933
▁minim	-4934
▁sympt	-4935
ologisk	-4936
▁ansikte	-4937
au	-4938
ony	-4939
▁Don	-4940
▁Alex	-4941
▁fing	-4942
▁Endast	-4943
▁ökning	-4944
▁engagemang	-4945
iam	-4946
uth	-4947
▁Op	-4948
▁Bit	-4949
▁fan	-4950
sträck	-4951
▁möten	-4952
▁tjänsten	-4953
▁fon	-4954
iltig	-4955
▁blom	-4956
▁skäm	-4957
▁Något	-4958
▁ingred	-4959
▁riktiga	-4960
▁positiva	-4961
▁tillfälle	-4962
ric	-4963
▁vir	-4964
kraft	-4965
▁2004	-4966
▁territ	-4967
▁förläng	-4968
▁utforska	-4969
▁skillnaden	-4970
▁vetenskapliga	-4971
ensk	-4972
tten	-4973
▁Sal	-4974
▁sål	-4975
ssätt	-4976
▁fela	-4977
▁fest	-4978
▁prot	-4979
▁tänkt	-4980
agement	-4981
▁kropps	-4982
▁tillfr	-4983
▁databas	-4984
▁egendom	-4985
▁artiklar	-4986
▁länderna	-4987
▁religion	-4988
▁förlorade	-4989
▁gemensamt	-4990
▁32	-4991
coin	-4992
▁Tom	-4993
▁hyr	-4994
▁kart	-4995
▁radio	-4996
▁resan	-4997
program	-4998
▁format	-4999
▁betalar	-5000
▁positiv	-5001
▁riktlin	-5002
ms	-5003
das	-5004
▁höjd	-5005
▁pool	-5006
företag	-5007
▁aktivt	-5008
▁dåliga	-5009
▁ögonen	-5010
▁innehållet	-5011
▁tillgångar	-5012
gin	-5013
▁byta	-5014
▁exkl	-5015
▁symt	-5016
▁tren	-5017
▁vand	-5018
▁andel	-5019
▁säljer	-5020
▁söndag	-5021
▁respekt	-5022
ada	-5023
rien	-5024
▁Pal	-5025
rimin	-5026
▁2005	-5027
▁Natur	-5028
▁brand	-5029
▁infly	-5030
▁vägar	-5031
▁kunden	-5032
▁aktuella	-5033
▁försökte	-5034
▁leverera	-5035
▁betalnings	-5036
▁Sci	-5037
▁moder	-5038
▁strid	-5039
▁väsent	-5040
▁lämpliga	-5041
▁tusentals	-5042
▁befintliga	-5043
▁förtroende	-5044
▁innovation	-5045
rak	-5046
▁Dis	-5047
▁lunch	-5048
▁moral	-5049
▁väder	-5050
▁Öster	-5051
▁konsta	-5052
▁spelade	-5053
▁stranden	-5054
▁företagets	-5055
▁utbildnings	-5056
lan	-5057
▁Cor	-5058
▁Dock	-5059
▁Port	-5060
▁Tror	-5061
▁föret	-5062
▁recen	-5063
station	-5064
▁extremt	-5065
▁förstär	-5066
▁förvand	-5067
▁detaljer	-5068
▁pengarna	-5069
▁överensstäm	-5070
▁produktionen	-5071
ekar	-5072
essor	-5073
▁Forsk	-5074
▁stimul	-5075
▁kommunic	-5076
▁brittiska	-5077
▁synnerhet	-5078
▁försäkring	-5079
dex	-5080
esi	-5081
▁sent	-5082
etiska	-5083
▁mitten	-5084
▁vanlig	-5085
▁nationell	-5086
▁människorna	-5087
ej	-5088
▁ont	-5089
▁snö	-5090
▁orig	-5091
▁förel	-5092
▁letar	-5093
▁använt	-5094
▁iPhone	-5095
▁serien	-5096
▁omöjligt	-5097
201	-5098
vård	-5099
▁upph	-5100
repren	-5101
▁Group	-5102
▁guide	-5103
▁nivån	-5104
▁skull	-5105
▁bränsle	-5106
▁polisen	-5107
▁regionen	-5108
▁relativt	-5109
▁utvecklar	-5110
▁sammanhang	-5111
▁pe	-5112
orts	-5113
tika	-5114
▁reag	-5115
▁Europ	-5116
▁Saker	-5117
▁order	-5118
▁undan	-5119
ledning	-5120
▁nation	-5121
▁toppen	-5122
▁Twitter	-5123
▁rekommenda	-5124
▁MS	-5125
▁hä	-5126
vist	-5127
▁2000	-5128
▁Hade	-5129
▁helg	-5130
ington	-5131
▁Precis	-5132
▁datorn	-5133
▁kraven	-5134
▁befolkningen	-5135
ht	-5136
ycken	-5137
▁Inga	-5138
▁glada	-5139
▁doktor	-5140
▁kallad	-5141
▁upphör	-5142
▁däremot	-5143
▁beskriver	-5144
▁certifier	-5145
ask	-5146
▁lid	-5147
ativa	-5148
▁park	-5149
▁spän	-5150
▁bröst	-5151
▁gröna	-5152
▁dörren	-5153
▁föresl	-5154
▁inrätt	-5155
▁kompis	-5156
▁kurser	-5157
▁överle	-5158
▁frukost	-5159
▁motsvar	-5160
▁morgonen	-5161
▁reglerna	-5162
▁unionens	-5163
xis	-5164
▁75	-5165
▁ul	-5166
dels	-5167
▁191	-5168
▁fix	-5169
▁åld	-5170
jänst	-5171
▁Förs	-5172
ometer	-5173
▁påstå	-5174
▁annars	-5175
▁svarar	-5176
deringar	-5177
▁skiljer	-5178
▁förändras	-5179
läs	-5180
▁hj	-5181
roid	-5182
▁Får	-5183
▁når	-5184
▁tål	-5185
▁fysi	-5186
▁beakt	-5187
▁bedri	-5188
▁parter	-5189
▁support	-5190
▁hittills	-5191
▁skådespel	-5192
ool	-5193
agen	-5194
▁ade	-5195
▁mak	-5196
ander	-5197
ftigt	-5198
▁2003	-5199
ortera	-5200
▁möter	-5201
▁plast	-5202
▁boende	-5203
▁Business	-5204
▁förlorar	-5205
▁plattfor	-5206
▁kommentarer	-5207
▁professionella	-5208
▁ep	-5209
pack	-5210
▁art	-5211
▁vit	-5212
▁Rätt	-5213
▁teor	-5214
▁vann	-5215
▁givet	-5216
▁stoppa	-5217
zz	-5218
bef	-5219
▁Hela	-5220
▁sing	-5221
▁Super	-5222
▁shopp	-5223
▁ändras	-5224
▁negativa	-5225
▁upplever	-5226
▁programvara	-5227
▁tillverkare	-5228
här	-5229
oth	-5230
vna	-5231
gres	-5232
▁Asi	-5233
▁Hus	-5234
▁olja	-5235
▁väls	-5236
rummet	-5237
▁minns	-5238
▁tvätt	-5239
▁Indien	-5240
▁fattig	-5241
▁fysisk	-5242
▁dagliga	-5243
▁växande	-5244
▁lösningen	-5245
▁plötsligt	-5246
▁äktenskap	-5247
wa	-5248
säg	-5249
äls	-5250
▁mg	-5251
▁Bri	-5252
▁One	-5253
▁kyl	-5254
orgon	-5255
▁vind	-5256
tastro	-5257
▁expon	-5258
ekterna	-5259
▁handla	-5260
▁socker	-5261
▁status	-5262
▁drömmar	-5263
▁rättsliga	-5264
Den	-5265
bler	-5266
▁Nor	-5267
▁kat	-5268
▁äld	-5269
ekten	-5270
▁Coll	-5271
▁regn	-5272
▁vacc	-5273
▁åker	-5274
▁Bästa	-5275
▁tjänar	-5276
▁allvarliga	-5277
LL	-5278
ura	-5279
▁da	-5280
kopp	-5281
utat	-5282
▁eld	-5283
▁ked	-5284
▁sli	-5285
▁Tjän	-5286
▁mäss	-5287
mosfär	-5288
▁driva	-5289
▁enorm	-5290
▁högst	-5291
▁hörde	-5292
eringen	-5293
▁svarta	-5294
▁använde	-5295
▁frivill	-5296
▁utsläpp	-5297
NA	-5298
▁<	-5299
ube	-5300
▁kos	-5301
▁Mart	-5302
▁lagt	-5303
▁röda	-5304
▁sjön	-5305
▁appar	-5306
▁bryta	-5307
▁fakta	-5308
▁maxim	-5309
▁senast	-5310
▁förutom	-5311
▁Australien	-5312
ise	-5313
vir	-5314
inera	-5315
sområ	-5316
▁Glob	-5317
▁sänd	-5318
tation	-5319
▁mångf	-5320
▁kronor	-5321
▁priori	-5322
▁tydlig	-5323
▁allmänt	-5324
▁ändring	-5325
▁maskiner	-5326
▁särskild	-5327
▁bestämmer	-5328
ställningen	-5329
▁resultaten	-5330
▁Tor	-5331
risti	-5332
▁blomm	-5333
▁ledde	-5334
▁enheten	-5335
▁frekven	-5336
▁Tidigare	-5337
▁förlorat	-5338
▁deltagare	-5339
▁verklighet	-5340
ase	-5341
▁mm	-5342
▁obe	-5343
▁out	-5344
▁huru	-5345
▁märk	-5346
splats	-5347
▁finner	-5348
▁utsikt	-5349
▁studien	-5350
▁fängelse	-5351
▁huvudstad	-5352
▁integritet	-5353
▁fantastiskt	-5354
yp	-5355
ose	-5356
iden	-5357
▁dum	-5358
▁bruk	-5359
▁slog	-5360
meddel	-5361
▁Bland	-5362
▁Måste	-5363
▁policy	-5364
▁allmänheten	-5365
djur	-5366
gångs	-5367
råket	-5368
▁isol	-5369
▁Samma	-5370
▁drama	-5371
▁tvungen	-5372
▁grundades	-5373
▁identitet	-5374
▁kinesiska	-5375
▁Fo	-5376
▁Wi	-5377
▁Vin	-5378
▁löp	-5379
organ	-5380
▁iväg	-5381
▁huden	-5382
▁långsi	-5383
▁skolor	-5384
▁svensk	-5385
▁passion	-5386
▁företagen	-5387
▁0,	-5388
▁Än	-5389
▁urs	-5390
▁Änd	-5391
▁Hjäl	-5392
▁kast	-5393
atiska	-5394
▁motiver	-5395
▁ekonomin	-5396
▁framsteg	-5397
▁planerar	-5398
▁speciell	-5399
▁betydligt	-5400
▁förväntas	-5401
lor	-5402
nik	-5403
▁Int	-5404
▁Ditt	-5405
▁Folk	-5406
▁Inom	-5407
▁bilda	-5408
samling	-5409
▁avfall	-5410
▁finans	-5411
▁gäster	-5412
▁skratt	-5413
▁fokusera	-5414
▁kriterier	-5415
▁speciella	-5416
▁villkoren	-5417
▁människors	-5418
▁självklart	-5419
mö	-5420
ema	-5421
ädd	-5422
▁fj	-5423
▁lab	-5424
lande	-5425
▁flex	-5426
▁hind	-5427
sätter	-5428
▁skräm	-5429
▁hittat	-5430
▁hjärnan	-5431
▁italien	-5432
▁domstolen	-5433
▁uppmärksam	-5434
▁tillhandahåller	-5435
ots	-5436
berg	-5437
▁kod	-5438
jande	-5439
▁boll	-5440
▁stam	-5441
▁ster	-5442
ässiga	-5443
▁vända	-5444
▁middag	-5445
▁samord	-5446
▁talade	-5447
▁Världen	-5448
▁producera	-5449
OR	-5450
ned	-5451
▁??	-5452
▁Na	-5453
enten	-5454
abetes	-5455
▁källa	-5456
▁skuld	-5457
▁Tyvärr	-5458
▁stöder	-5459
liggande	-5460
▁besöker	-5461
▁sektorn	-5462
▁tilldel	-5463
▁bedömning	-5464
▁entrepren	-5465
▁Fam	-5466
tiker	-5467
▁Pres	-5468
▁mord	-5469
▁sova	-5470
▁minne	-5471
▁sluts	-5472
▁snabba	-5473
▁värsta	-5474
▁innehålla	-5475
▁restauranger	-5476
mon	-5477
▁sc	-5478
▁gyn	-5479
utera	-5480
▁Best	-5481
▁Plan	-5482
▁foto	-5483
▁James	-5484
▁mesta	-5485
▁utbil	-5486
▁värre	-5487
▁tillsyn	-5488
ställande	-5489
▁Därefter	-5490
▁undersöka	-5491
▁potentiella	-5492
ene	-5493
burg	-5494
ital	-5495
risk	-5496
▁Mad	-5497
▁con	-5498
ältet	-5499
▁2001	-5500
▁flas	-5501
▁dynam	-5502
▁dating	-5503
▁föredrar	-5504
▁vanligaste	-5505
▁«	-5506
lys	-5507
rant	-5508
▁jap	-5509
▁tru	-5510
▁gäst	-5511
▁spro	-5512
▁mjölk	-5513
▁total	-5514
▁budskap	-5515
▁ställen	-5516
▁Istället	-5517
▁begränsad	-5518
▁försiktig	-5519
▁universum	-5520
▁skillnader	-5521
börj	-5522
orth	-5523
▁flag	-5524
▁ideal	-5525
▁södra	-5526
ination	-5527
▁Histor	-5528
▁sekret	-5529
▁atmosfär	-5530
▁utsträck	-5531
▁beaktande	-5532
▁medicinska	-5533
ID	-5534
uk	-5535
▁(19	-5536
▁Sök	-5537
▁bem	-5538
angel	-5539
▁Comm	-5540
▁född	-5541
draget	-5542
▁gjorts	-5543
▁svaret	-5544
▁garanti	-5545
▁mängder	-5546
▁skickar	-5547
▁politisk	-5548
▁motsvarande	-5549
ugg	-5550
vrig	-5551
▁pil	-5552
stern	-5553
▁fien	-5554
▁live	-5555
▁skil	-5556
▁gilla	-5557
▁resor	-5558
▁aktier	-5559
▁invand	-5560
▁Författ	-5561
▁behandlar	-5562
▁rapporten	-5563
▁Information	-5564
sna	-5565
öja	-5566
iges	-5567
mord	-5568
tida	-5569
▁ack	-5570
▁bur	-5571
▁sil	-5572
▁låga	-5573
▁smak	-5574
▁tunn	-5575
äkerhet	-5576
▁Klicka	-5577
▁skydds	-5578
▁förbund	-5579
▁princip	-5580
▁student	-5581
▁definier	-5582
▁sekunder	-5583
▁uttalande	-5584
ano	-5585
▁Wh	-5586
iljö	-5587
sist	-5588
ågor	-5589
▁Bill	-5590
▁immun	-5591
▁heliga	-5592
▁stärka	-5593
▁Välkommen	-5594
▁förklarar	-5595
cks	-5596
mor	-5597
▁lör	-5598
▁tju	-5599
person	-5600
▁avser	-5601
▁dokum	-5602
▁korta	-5603
▁Master	-5604
▁ersätta	-5605
▁förtjän	-5606
▁Sveriges	-5607
▁kvalific	-5608
▁myndighet	-5609
▁Restauranger	-5610
ew	-5611
▁rygg	-5612
▁förlu	-5613
skriget	-5614
ael	-5615
cens	-5616
iker	-5617
▁köpt	-5618
artner	-5619
▁himmel	-5620
▁tyvärr	-5621
▁affärer	-5622
▁erbjudanden	-5623
▁33	-5624
gien	-5625
▁Ana	-5626
▁begå	-5627
▁minut	-5628
▁revolu	-5629
▁arbetsm	-5630
▁lämplig	-5631
▁åtkomst	-5632
▁närmaste	-5633
▁överensk	-5634
Du	-5635
▁EN	-5636
ange	-5637
inär	-5638
▁Mil	-5639
▁Wal	-5640
▁don	-5641
önstr	-5642
▁Institu	-5643
▁återhäm	-5644
▁lämpligt	-5645
▁säkerheten	-5646
▁komponenter	-5647
ance	-5648
nali	-5649
▁!!!	-5650
▁bio	-5651
▁göm	-5652
▁nio	-5653
▁ämne	-5654
▁poker	-5655
innande	-5656
▁institut	-5657
▁utsträckning	-5658
fen	-5659
▁Hall	-5660
▁bedr	-5661
▁länk	-5662
klarna	-5663
▁demon	-5664
▁urval	-5665
▁bilaga	-5666
▁flexib	-5667
▁perman	-5668
▁samlar	-5669
teringar	-5670
▁behovet	-5671
▁förpack	-5672
▁krafter	-5673
▁investera	-5674
▁förfaranden	-5675
ec	-5676
▁2-	-5677
▁ru	-5678
▁tak	-5679
▁Play	-5680
▁bror	-5681
▁sinne	-5682
▁roliga	-5683
▁varken	-5684
▁närvaro	-5685
▁premiär	-5686
▁skickas	-5687
▁Gi	-5688
▁PC	-5689
▁öl	-5690
skra	-5691
▁Dem	-5692
▁Nam	-5693
▁prä	-5694
▁Post	-5695
▁avsk	-5696
▁illa	-5697
▁lugn	-5698
▁vidta	-5699
▁Syftet	-5700
▁driver	-5701
▁marken	-5702
▁undervis	-5703
▁Företaget	-5704
oo	-5705
▁ns	-5706
▁nas	-5707
tiden	-5708
▁bedö	-5709
▁åtag	-5710
▁Maria	-5711
▁valde	-5712
▁Mellan	-5713
▁avgift	-5714
ektioner	-5715
▁studera	-5716
alisering	-5717
▁diskuter	-5718
▁medlemsstater	-5719
▁EC	-5720
barn	-5721
träd	-5722
▁bod	-5723
derat	-5724
▁Webb	-5725
▁Trans	-5726
▁varmt	-5727
iration	-5728
▁delvis	-5729
▁kommen	-5730
▁kostar	-5731
▁tyckte	-5732
▁mängden	-5733
▁territori	-5734
▁ersättning	-5735
ale	-5736
▁1:	-5737
▁3,	-5738
tell	-5739
▁400	-5740
ikali	-5741
okoll	-5742
▁ager	-5743
▁mötet	-5744
▁förvänt	-5745
▁potential	-5746
▁ekonomiskt	-5747
kall	-5748
▁Jan	-5749
▁väd	-5750
▁olag	-5751
föränd	-5752
▁agera	-5753
▁barns	-5754
▁gifta	-5755
▁sällan	-5756
▁vinner	-5757
▁Danmark	-5758
▁allting	-5759
▁startade	-5760
▁förbereda	-5761
▁tillfreds	-5762
▁Egy	-5763
▁räkna	-5764
▁Online	-5765
▁konfli	-5766
▁minsta	-5767
delsedag	-5768
▁Android	-5769
▁Israels	-5770
▁enklare	-5771
▁general	-5772
▁tekniken	-5773
▁statistik	-5774
▁användaren	-5775
ED	-5776
kad	-5777
vig	-5778
▁Hej	-5779
▁Köp	-5780
▁Stu	-5781
▁oer	-5782
▁Stre	-5783
▁förbi	-5784
▁grader	-5785
▁metall	-5786
▁riktig	-5787
▁chansen	-5788
▁rättfär	-5789
▁annonser	-5790
▁katastro	-5791
▁34	-5792
▁VI	-5793
vikt	-5794
▁Bas	-5795
▁Glöm	-5796
▁dött	-5797
▁fint	-5798
▁ända	-5799
ktiska	-5800
▁djupt	-5801
▁testa	-5802
▁typen	-5803
▁glömma	-5804
▁transp	-5805
▁uppstå	-5806
▁anpassa	-5807
▁erbjuds	-5808
▁förbjud	-5809
▁anslutning	-5810
▁berättelse	-5811
▁inställning	-5812
▁tillgängligt	-5813
kes	-5814
sav	-5815
▁exist	-5816
▁akadem	-5817
▁Michael	-5818
▁sanning	-5819
▁restaurang	-5820
▁efterfrågan	-5821
▁Can	-5822
▁säm	-5823
▁Bolag	-5824
▁brett	-5825
▁robot	-5826
▁lämnat	-5827
▁Medlems	-5828
▁förflut	-5829
▁kvinnan	-5830
▁funktionen	-5831
▁underlätta	-5832
ffer	-5833
▁Mag	-5834
▁fen	-5835
▁Data	-5836
▁Holl	-5837
▁stål	-5838
▁forum	-5839
▁jätte	-5840
▁lider	-5841
▁export	-5842
▁förmed	-5843
▁upprep	-5844
▁tillför	-5845
▁huruvida	-5846
▁informations	-5847
+]	-5848
▁[+]	-5849
▁lock	-5850
▁röra	-5851
▁arter	-5852
givande	-5853
▁hemmet	-5854
systemet	-5855
▁ansluta	-5856
▁besluta	-5857
▁orsaken	-5858
▁riktning	-5859
▁politiken	-5860
▁anläggningar	-5861
▁SS	-5862
▁sum	-5863
▁Turki	-5864
▁licen	-5865
öteborg	-5866
▁ansikt	-5867
▁växter	-5868
▁övrigt	-5869
▁rättvisa	-5870
▁fortsatte	-5871
▁godkännande	-5872
▁uppfattning	-5873
▁professionell	-5874
dad	-5875
uri	-5876
ängd	-5877
▁Mor	-5878
▁Grek	-5879
▁Muse	-5880
▁tull	-5881
adress	-5882
ästare	-5883
▁fulla	-5884
▁datorer	-5885
▁månaden	-5886
▁underbara	-5887
▁meddelanden	-5888
ep	-5889
plo	-5890
▁37	-5891
atin	-5892
sled	-5893
yrån	-5894
▁der	-5895
ftiga	-5896
grupp	-5897
ierna	-5898
▁grek	-5899
▁Angel	-5900
▁måndag	-5901
▁räcker	-5902
▁Problem	-5903
▁misstän	-5904
▁ansvarar	-5905
▁dagligen	-5906
▁kontinuer	-5907
▁motsvarar	-5908
▁utvecklats	-5909
."	-5910
tema	-5911
ämna	-5912
▁Rob	-5913
äkter	-5914
▁Verk	-5915
▁gift	-5916
▁livss	-5917
▁yngre	-5918
▁kämpar	-5919
▁protein	-5920
▁webbläs	-5921
▁relevant	-5922
▁acceptera	-5923
▁konkurren	-5924
▁föregående	-5925
▁generation	-5926
▁innovativa	-5927
▁effektivitet	-5928
▁förutsättning	-5929
rop	-5930
▁ax	-5931
atch	-5932
umer	-5933
alifor	-5934
istisk	-5935
▁seger	-5936
▁Alltså	-5937
▁Europe	-5938
▁hinder	-5939
▁medvetna	-5940
▁original	-5941
▁föreställ	-5942
▁avancerade	-5943
▁depression	-5944
ila	-5945
ior	-5946
jun	-5947
stav	-5948
tain	-5949
▁Fler	-5950
▁hjul	-5951
▁lita	-5952
▁varm	-5953
▁Norge	-5954
▁invol	-5955
▁Robert	-5956
▁syster	-5957
▁upptag	-5958
▁vision	-5959
▁komplet	-5960
▁spanska	-5961
▁journali	-5962
ous	-5963
komm	-5964
vägs	-5965
▁Ken	-5966
▁jäv	-5967
▁Tech	-5968
▁tråd	-5969
▁Office	-5970
▁Europas	-5971
▁exklusi	-5972
▁konstig	-5973
▁national	-5974
▁positivt	-5975
▁förtjänar	-5976
▁framgångsrika	-5977
▁🙂	-5978
▁gal	-5979
▁Bank	-5980
▁bryr	-5981
▁sorg	-5982
▁årets	-5983
▁Bibeln	-5984
▁besvik	-5985
▁botten	-5986
ferenser	-5987
▁förmågan	-5988
▁marknadsför	-5989
▁intresserade	-5990
ON	-5991
lid	-5992
▁48	-5993
iens	-5994
▁hål	-5995
▁nåt	-5996
kväll	-5997
▁Prof	-5998
▁Regi	-5999
▁dryg	-6000
▁olje	-6001
▁sikt	-6002
▁slår	-6003
skraft	-6004
▁yttre	-6005
▁Afrika	-6006
▁festiv	-6007
▁licens	-6008
▁rädsla	-6009
▁syssel	-6010
▁Amerika	-6011
▁gränsen	-6012
▁kreativ	-6013
▁Göteborg	-6014
▁trädgård	-6015
▁fullständigt	-6016
ege	-6017
hem	-6018
ican	-6019
skan	-6020
▁sky	-6021
▁Hand	-6022
▁horm	-6023
stiska	-6024
▁Flera	-6025
▁Hitta	-6026
▁dimen	-6027
▁läste	-6028
▁symtom	-6029
▁uppgra	-6030
▁arbetat	-6031
▁bestämt	-6032
▁funnits	-6033
▁symptom	-6034
▁utomhus	-6035
▁arbetade	-6036
▁samtycke	-6037
▁starkare	-6038
▁utnyttja	-6039
▁ingredien	-6040
öda	-6041
▁Cy	-6042
empl	-6043
eten	-6044
▁Visa	-6045
▁desto	-6046
▁utöka	-6047
▁Kanada	-6048
▁lämnas	-6049
▁reflek	-6050
▁tanken	-6051
▁tidiga	-6052
▁beslutet	-6053
▁kunderna	-6054
▁utseende	-6055
▁fokuserar	-6056
▁strategier	-6057
▁överföring	-6058
▁kostnaderna	-6059
RA	-6060
rera	-6061
skon	-6062
skor	-6063
▁Bok	-6064
▁yta	-6065
▁Både	-6066
▁förvå	-6067
▁krigs	-6068
▁parad	-6069
▁avsikt	-6070
▁juster	-6071
▁kamera	-6072
▁mobila	-6073
▁byggnad	-6074
▁klockan	-6075
▁juridiska	-6076
▁sjukdomen	-6077
▁underteck	-6078
▁Kommissionen	-6079
uts	-6080
▁4,	-6081
ware	-6082
juder	-6083
▁äkta	-6084
▁fiske	-6085
▁fylla	-6086
▁redig	-6087
▁knappt	-6088
▁räknas	-6089
▁samlas	-6090
▁signal	-6091
▁texten	-6092
▁berömda	-6093
▁aspekter	-6094
▁kemikali	-6095
▁passager	-6096
▁tillfällen	-6097
yra	-6098
éer	-6099
▁6.	-6100
onym	-6101
▁Ama	-6102
▁Pub	-6103
eland	-6104
melse	-6105
▁Wash	-6106
▁anord	-6107
▁ledam	-6108
▁Känner	-6109
▁anklag	-6110
▁billig	-6111
▁europe	-6112
▁examen	-6113
▁minuters	-6114
▁betalning	-6115
▁represent	-6116
▁befolkning	-6117
▁födelsedag	-6118
▁tillfället	-6119
▁tillämpning	-6120
▁överenskomm	-6121
▁tillverkning	-6122
▁upprätthålla	-6123
▁Sna	-6124
mering	-6125
▁Obser	-6126
▁livsl	-6127
▁norra	-6128
▁tonår	-6129
troller	-6130
▁operat	-6131
▁bekämpa	-6132
▁lyckades	-6133
▁partners	-6134
▁kvalitets	-6135
▁politiker	-6136
▁teknologi	-6137
▁kvaliteten	-6138
▁Tillsammans	-6139
▁investerings	-6140
▁rekommenderas	-6141
rör	-6142
▁150	-6143
▁Dri	-6144
iment	-6145
ränsa	-6146
▁liga	-6147
▁delas	-6148
▁Syrien	-6149
▁planen	-6150
▁stater	-6151
▁sträng	-6152
▁återkom	-6153
▁spelarna	-6154
▁ungdomar	-6155
▁fullständig	-6156
mid	-6157
▁com	-6158
▁trå	-6159
▁Thom	-6160
▁däck	-6161
▁etik	-6162
använd	-6163
▁aller	-6164
terings	-6165
▁Casino	-6166
staterna	-6167
▁flickor	-6168
▁teknisk	-6169
▁diskutera	-6170
▁förekommer	-6171
br	-6172
yal	-6173
lats	-6174
ppna	-6175
▁Pet	-6176
▁nom	-6177
▁Home	-6178
▁advo	-6179
▁Huvud	-6180
▁Obama	-6181
ffektiv	-6182
▁förbin	-6183
▁normala	-6184
▁effekten	-6185
▁introduc	-6186
▁rörelser	-6187
▁spendera	-6188
▁klassific	-6189
bon	-6190
▁99	-6191
▁ST	-6192
over	-6193
▁bin	-6194
arens	-6195
▁bröd	-6196
▁plus	-6197
▁vila	-6198
▁Herre	-6199
▁tacka	-6200
▁vuxen	-6201
verkade	-6202
▁Hennes	-6203
▁praxis	-6204
▁lärande	-6205
▁beskrivs	-6206
▁föreslår	-6207
atu	-6208
▁65	-6209
▁7.	-6210
nivå	-6211
▁Lag	-6212
ifier	-6213
ktade	-6214
▁Iran	-6215
▁rull	-6216
▁lärde	-6217
▁ämnet	-6218
▁makten	-6219
▁ordent	-6220
▁Särskil	-6221
▁globalt	-6222
▁invånare	-6223
▁kommittén	-6224
▁Management	-6225
▁kategorier	-6226
▁investerare	-6227
▁övergripande	-6228
▁transaktioner	-6229
PS	-6230
▁Tid	-6231
▁fara	-6232
▁ringa	-6233
▁ljuset	-6234
▁butiker	-6235
▁kapitel	-6236
▁språket	-6237
▁diabetes	-6238
▁viktigare	-6239
▁allvarligt	-6240
▁2:	-6241
▁95	-6242
▁Ry	-6243
▁ap	-6244
exik	-6245
▁påm	-6246
▁spr	-6247
▁vät	-6248
telef	-6249
▁Stra	-6250
▁noga	-6251
▁sand	-6252
dioxid	-6253
▁maten	-6254
▁formen	-6255
▁implem	-6256
▁äldsta	-6257
▁Turkiet	-6258
▁förvärv	-6259
▁samling	-6260
▁skönhet	-6261
▁påverkas	-6262
▁AI	-6263
anti	-6264
tgär	-6265
varu	-6266
juter	-6267
åriga	-6268
▁Matt	-6269
▁anta	-6270
▁pröv	-6271
▁real	-6272
jukdom	-6273
amerika	-6274
▁center	-6275
▁handen	-6276
▁nyhets	-6277
länderna	-6278
▁händerna	-6279
▁kostnads	-6280
▁Washington	-6281
▁användarna	-6282
▁tillförlit	-6283
BA	-6284
aby	-6285
arta	-6286
troll	-6287
▁Ofta	-6288
▁ladd	-6289
▁mani	-6290
▁Kolla	-6291
▁hämta	-6292
▁släkt	-6293
▁flicka	-6294
▁oerhör	-6295
▁skaffa	-6296
▁William	-6297
▁känslan	-6298
▁socialt	-6299
▁återupp	-6300
▁förvänta	-6301
▁förflutna	-6302
▁kvinnliga	-6303
▁professor	-6304
▁kommunicera	-6305
▁transporter	-6306
weiz	-6307
▁Eli	-6308
serad	-6309
▁rund	-6310
▁repub	-6311
▁aktiver	-6312
▁startar	-6313
▁vinster	-6314
▁informer	-6315
▁övervakning	-6316
▁försäljnings	-6317
åp	-6318
ipp	-6319
ski	-6320
back	-6321
tima	-6322
▁Lad	-6323
▁Pra	-6324
vapen	-6325
▁Dina	-6326
▁belö	-6327
▁tolk	-6328
▁fatta	-6329
▁virtu	-6330
▁överl	-6331
▁auktor	-6332
▁sekund	-6333
▁släppa	-6334
▁granska	-6335
▁inbland	-6336
▁American	-6337
▁arbetare	-6338
▁överleva	-6339
▁varumärke	-6340
▁förklaring	-6341
▁installera	-6342
▁inställningar	-6343
OM	-6344
cin	-6345
oms	-6346
hovs	-6347
värm	-6348
▁HER	-6349
▁Lib	-6350
▁Jose	-6351
▁avse	-6352
▁fans	-6353
▁havs	-6354
▁sens	-6355
▁seri	-6356
▁Gener	-6357
▁human	-6358
▁retur	-6359
▁Martin	-6360
bildning	-6361
▁således	-6362
▁tillämpa	-6363
▁deltagande	-6364
▁fastställa	-6365
▁produkterna	-6366
▁förordningen	-6367
▁1-	-6368
▁PS	-6369
iler	-6370
inar	-6371
▁väv	-6372
▁Rich	-6373
▁tron	-6374
ktions	-6375
▁gudom	-6376
▁gälla	-6377
▁lösen	-6378
▁pågår	-6379
▁stånd	-6380
▁bordet	-6381
▁beställ	-6382
▁farliga	-6383
▁naturlig	-6384
▁demokrati	-6385
▁diskrimin	-6386
▁produktiv	-6387
ua	-6388
ical	-6389
▁Sex	-6390
tider	-6391
▁Inne	-6392
▁ange	-6393
▁mini	-6394
▁tung	-6395
▁inbeg	-6396
▁batteri	-6397
▁hotellet	-6398
▁återförs	-6399
▁rekommendera	-6400
▁instruktioner	-6401
olf	-6402
▁55	-6403
▁Pe	-6404
▁oly	-6405
gress	-6406
▁2002	-6407
▁Flyg	-6408
▁West	-6409
▁blad	-6410
▁ndet	-6411
▁stig	-6412
▁urin	-6413
▁bevar	-6414
▁Försök	-6415
▁förvir	-6416
▁lyssnar	-6417
▁punkter	-6418
vetenskap	-6419
▁bilderna	-6420
▁beskrivning	-6421
▁upplevelser	-6422
▁kommersiella	-6423
▁institutioner	-6424
En	-6425
▁39	-6426
▁Åh	-6427
ägna	-6428
▁tår	-6429
▁årh	-6430
ätter	-6431
▁Adam	-6432
▁befri	-6433
iserade	-6434
▁expert	-6435
▁luften	-6436
▁Älskar	-6437
▁tenderar	-6438
▁kostnaden	-6439
▁religiösa	-6440
▁undervisning	-6441
bi	-6442
fart	-6443
▁fyr	-6444
▁sor	-6445
▁okej	-6446
▁domän	-6447
▁ligga	-6448
▁låtar	-6449
▁mörka	-6450
alisera	-6451
▁termin	-6452
▁skärmen	-6453
▁verklig	-6454
betalning	-6455
▁referens	-6456
▁protokoll	-6457
▁inflytande	-6458
uel	-6459
▁ot	-6460
ider	-6461
skär	-6462
▁War	-6463
assad	-6464
▁arab	-6465
▁ingå	-6466
▁Asien	-6467
▁hatar	-6468
▁satte	-6469
ättning	-6470
▁helvet	-6471
▁normal	-6472
▁plocka	-6473
▁täcker	-6474
▁lycklig	-6475
▁påverkan	-6476
▁spelaren	-6477
▁nödvändig	-6478
▁investering	-6479
▁bestämmelserna	-6480
jöd	-6481
fort	-6482
▁Kär	-6483
▁Sec	-6484
▁omd	-6485
▁diet	-6486
▁frid	-6487
▁hyra	-6488
▁make	-6489
asinon	-6490
giften	-6491
▁kille	-6492
▁strål	-6493
▁Design	-6494
▁School	-6495
▁palest	-6496
▁vunnit	-6497
▁ångest	-6498
▁Artikel	-6499
▁avsedda	-6500
▁politiskt	-6501
▁praktiska	-6502
▁uppgifterna	-6503
▁värderingar	-6504
De	-6505
▁®	-6506
▁→	-6507
unn	-6508
▁38	-6509
▁OS	-6510
hail	-6511
lapp	-6512
uren	-6513
▁Bay	-6514
▁Jäm	-6515
▁Max	-6516
▁dik	-6517
▁mej	-6518
cenni	-6519
litet	-6520
rater	-6521
serat	-6522
språk	-6523
▁kors	-6524
▁Nästan	-6525
▁länkar	-6526
▁läsare	-6527
▁utbyte	-6528
▁Bitcoin	-6529
▁sökande	-6530
▁möjliggör	-6531
▁utomlands	-6532
▁Självklart	-6533
▁riktlinjer	-6534
AC	-6535
IT	-6536
▁Ag	-6537
▁smi	-6538
rycka	-6539
▁Anna	-6540
▁irri	-6541
cessen	-6542
skande	-6543
▁avdel	-6544
▁drygt	-6545
▁femte	-6546
▁modul	-6547
▁orden	-6548
▁sanna	-6549
▁besvär	-6550
▁svårare	-6551
▁användes	-6552
▁varierar	-6553
▁förväntar	-6554
▁diskussion	-6555
▁q	-6556
▁Rel	-6557
▁Tek	-6558
▁rub	-6559
alism	-6560
unden	-6561
▁kryp	-6562
▁rymd	-6563
▁show	-6564
▁Ytter	-6565
▁kräva	-6566
▁pålit	-6567
önstret	-6568
▁George	-6569
veckling	-6570
▁koncern	-6571
▁eleverna	-6572
▁flygplan	-6573
▁militära	-6574
▁betraktas	-6575
▁ledarskap	-6576
▁klimatföränd	-6577
CA	-6578
öll	-6579
▁Ke	-6580
▁Cam	-6581
▁Far	-6582
konto	-6583
oster	-6584
▁nerv	-6585
▁onda	-6586
▁Speci	-6587
▁Sådan	-6588
▁nyfik	-6589
▁hänvis	-6590
▁biljett	-6591
▁blommor	-6592
▁decenni	-6593
▁komplic	-6594
▁lyckats	-6595
▁inverkan	-6596
▁muslimer	-6597
▁kilometer	-6598
▁nätverket	-6599
▁fördelarna	-6600
▁försvinner	-6601
▁människans	-6602
▁applikationer	-6603
▁Medlemsstaterna	-6604
urs	-6605
▁Mu	-6606
▁us	-6607
igar	-6608
▁Led	-6609
▁röd	-6610
brott	-6611
varan	-6612
▁mäta	-6613
▁mött	-6614
▁bebis	-6615
▁läget	-6616
▁skjut	-6617
▁virus	-6618
▁helhet	-6619
▁saknas	-6620
▁smarta	-6621
▁sovrum	-6622
▁sängen	-6623
▁Projekt	-6624
▁vardags	-6625
▁livsstil	-6626
▁operativ	-6627
▁översätt	-6628
▁fattigdom	-6629
▁utländska	-6630
▁effekterna	-6631
▁försäkrings	-6632
▁förutsättningar	-6633
▁pi	-6634
▁Kun	-6635
värda	-6636
▁100%	-6637
▁Lite	-6638
▁bist	-6639
frågas	-6640
▁House	-6641
▁byggt	-6642
▁märke	-6643
▁rekry	-6644
▁växte	-6645
▁Christ	-6646
▁förare	-6647
▁gjorda	-6648
▁muslim	-6649
▁slutade	-6650
▁arbetstag	-6651
▁arkitektur	-6652
▁jämförelse	-6653
▁kommunikations	-6654
deo	-6655
osi	-6656
cipl	-6657
änns	-6658
▁Bal	-6659
▁Lik	-6660
▁anl	-6661
▁arv	-6662
▁lyx	-6663
▁gåva	-6664
▁träna	-6665
ulation	-6666
▁begära	-6667
▁hävdar	-6668
▁väster	-6669
▁fattiga	-6670
▁kampanj	-6671
▁skyddar	-6672
▁tävling	-6673
▁kategori	-6674
▁reaktion	-6675
▁shopping	-6676
▁stjärnor	-6677
▁koldioxid	-6678
▁Föregående	-6679
gj	-6680
ls	-6681
ze	-6682
bes	-6683
▁Bre	-6684
▁Bur	-6685
▁Läg	-6686
▁rop	-6687
▁you	-6688
▁klän	-6689
▁drivs	-6690
▁styra	-6691
▁Street	-6692
▁skapas	-6693
▁strand	-6694
▁förhopp	-6695
▁kristen	-6696
▁separat	-6697
▁ansvariga	-6698
▁samhällen	-6699
▁standarder	-6700
▁(4	-6701
gick	-6702
▁Bud	-6703
▁Kul	-6704
▁ers	-6705
▁mår	-6706
▁pop	-6707
▁syd	-6708
▁Herr	-6709
▁Sing	-6710
▁Tour	-6711
▁föll	-6712
äkring	-6713
▁skärm	-6714
▁utval	-6715
▁Barcel	-6716
▁Frågan	-6717
▁biverk	-6718
▁Observera	-6719
▁hastighet	-6720
▁|	-6721
cil	-6722
▁gu	-6723
ford	-6724
lösa	-6725
ness	-6726
▁192	-6727
▁Fun	-6728
▁Pat	-6729
▁söt	-6730
▁Fakt	-6731
▁leta	-6732
▁helgen	-6733
▁kandida	-6734
▁öppnade	-6735
▁involver	-6736
▁noggrant	-6737
▁uppmanar	-6738
▁förfarande	-6739
▁representerar	-6740
bär	-6741
jet	-6742
▁3:	-6743
▁VD	-6744
▁Che	-6745
▁Hos	-6746
▁högk	-6747
▁tema	-6748
orator	-6749
rister	-6750
▁inkom	-6751
▁slott	-6752
▁täcka	-6753
derande	-6754
▁exempl	-6755
▁förväg	-6756
▁hästar	-6757
▁stjärn	-6758
▁årliga	-6759
▁stannar	-6760
▁upphovs	-6761
▁kulturella	-6762
▁mobiltelef	-6763
▁begränsningar	-6764
ii	-6765
my	-6766
yo	-6767
ridge	-6768
▁camp	-6769
▁tolv	-6770
▁följde	-6771
▁hindra	-6772
▁kampen	-6773
▁muskel	-6774
▁partiet	-6775
▁träffar	-6776
▁slutligen	-6777
▁accepterar	-6778
▁yr	-6779
idat	-6780
sivt	-6781
▁Ali	-6782
▁Bli	-6783
▁Fot	-6784
▁God	-6785
▁fack	-6786
▁fäst	-6787
▁kläd	-6788
▁rock	-6789
▁frisk	-6790
▁skott	-6791
▁unikt	-6792
▁åstad	-6793
hållande	-6794
▁föroren	-6795
▁stadens	-6796
▁uppvärm	-6797
▁åsikter	-6798
▁rörelsen	-6799
▁underbar	-6800
▁uppsättning	-6801
▁behandlingar	-6802
på	-6803
ogg	-6804
udi	-6805
rann	-6806
▁lät	-6807
▁kust	-6808
▁nack	-6809
▁para	-6810
▁reduc	-6811
▁veter	-6812
▁Amazon	-6813
▁deltar	-6814
▁dialog	-6815
▁sammans	-6816
▁vitamin	-6817
▁mångfald	-6818
▁tidpunkt	-6819
▁bakterier	-6820
▁producerar	-6821
▁kommissionens	-6822
ago	-6823
▁Son	-6824
▁Tex	-6825
▁hom	-6826
▁hyp	-6827
eteck	-6828
ology	-6829
▁buss	-6830
ktivet	-6831
▁Green	-6832
▁Skapa	-6833
▁fånga	-6834
▁orsak	-6835
▁Faktum	-6836
▁klarar	-6837
▁utförs	-6838
▁ansvars	-6839
▁begränsa	-6840
▁bekräfta	-6841
▁lösenord	-6842
▁mänsklig	-6843
▁klassiska	-6844
▁materialet	-6845
▁42	-6846
usal	-6847
▁dvs	-6848
▁pul	-6849
istik	-6850
pport	-6851
splan	-6852
▁moln	-6853
vatten	-6854
▁andas	-6855
▁bodde	-6856
▁inser	-6857
▁längd	-6858
▁låten	-6859
▁snygg	-6860
▁titel	-6861
▁våren	-6862
▁ombord	-6863
▁sprida	-6864
▁Egypten	-6865
▁Kvinnor	-6866
▁eftermid	-6867
▁grundval	-6868
▁medicinsk	-6869
▁erbjudande	-6870
▁berättelser	-6871
▁elektroniska	-6872
▁revolutionen	-6873
In	-6874
mp	-6875
ega	-6876
yer	-6877
juka	-6878
unds	-6879
▁600	-6880
▁Rad	-6881
▁kni	-6882
▁Besök	-6883
▁Grund	-6884
▁butik	-6885
▁explo	-6886
▁fabri	-6887
▁floden	-6888
▁import	-6889
▁insats	-6890
▁rengör	-6891
sprogram	-6892
▁bloggen	-6893
▁fysiskt	-6894
▁tacksam	-6895
▁utrikes	-6896
▁vackert	-6897
▁kreativa	-6898
▁statliga	-6899
▁minskning	-6900
▁versioner	-6901
▁varumärken	-6902
DA	-6903
PA	-6904
wn	-6905
aks	-6906
syl	-6907
▁5,	-6908
amod	-6909
ones	-6910
▁Cap	-6911
▁ism	-6912
▁skö	-6913
▁HERR	-6914
▁rena	-6915
▁absor	-6916
▁ering	-6917
▁färre	-6918
▁solda	-6919
▁avgöra	-6920
▁fredag	-6921
▁konsul	-6922
▁kändes	-6923
▁matema	-6924
▁vikten	-6925
▁fenomen	-6926
▁förblir	-6927
▁gjordes	-6928
▁kameran	-6929
▁oerhört	-6930
▁sällsyn	-6931
▁innefatt	-6932
▁missbruk	-6933
▁sträcker	-6934
▁återförsälj	-6935
▁verksamheter	-6936
▁förväntningar	-6937
bio	-6938
gor	-6939
▁up	-6940
▁Ung	-6941
▁ori	-6942
oklad	-6943
ännen	-6944
▁nämn	-6945
▁åkte	-6946
sdagen	-6947
▁belys	-6948
▁hjärn	-6949
▁hållet	-6950
▁Däremot	-6951
▁erkänna	-6952
▁försökt	-6953
▁kemiska	-6954
▁miljöer	-6955
▁siffror	-6956
▁Grekland	-6957
▁bestämde	-6958
▁designer	-6959
▁formulär	-6960
▁komplett	-6961
▁existerar	-6962
▁planering	-6963
▁artiklarna	-6964
▁intressanta	-6965
IG	-6966
IV	-6967
bor	-6968
eta	-6969
▁dyg	-6970
given	-6971
räder	-6972
▁Inve	-6973
▁hall	-6974
▁salt	-6975
▁Konta	-6976
▁influ	-6977
▁hamnar	-6978
▁resurs	-6979
▁spelat	-6980
▁ursäkt	-6981
▁Exempel	-6982
▁flyttade	-6983
▁förebygg	-6984
▁hanterar	-6985
▁innebära	-6986
▁byggnaden	-6987
▁positioner	-6988
▁förvaltning	-6989
▁personlighet	-6990
▁världskriget	-6991
▁mänskligheten	-6992
day	-6993
kod	-6994
urt	-6995
▁Soci	-6996
▁inse	-6997
▁svär	-6998
▁torr	-6999
▁glömt	-7000
▁råder	-7001
punkter	-7002
▁Global	-7003
▁utöver	-7004
▁planera	-7005
▁argument	-7006
▁berättig	-7007
▁förekomm	-7008
▁register	-7009
▁bibliotek	-7010
▁skyldigheter	-7011
▁undersökningar	-7012
ac	-7013
gg	-7014
▁64	-7015
▁Tan	-7016
▁ond	-7017
avare	-7018
lades	-7019
▁King	-7020
▁driv	-7021
▁Börja	-7022
▁Neder	-7023
▁Power	-7024
▁navig	-7025
▁teori	-7026
lösning	-7027
▁israel	-7028
▁krimin	-7029
▁möbler	-7030
▁teater	-7031
▁lidande	-7032
▁uppfölj	-7033
▁tjänstem	-7034
▁välkomna	-7035
▁samarbetet	-7036
▁sammanfatt	-7037
▁tillräcklig	-7038
10	-7039
EC	-7040
▁Af	-7041
▁CD	-7042
▁Day	-7043
▁Fem	-7044
▁Ing	-7045
▁sko	-7046
▁Lägg	-7047
▁terr	-7048
▁Livet	-7049
▁Organ	-7050
▁klipp	-7051
▁panel	-7052
▁rösta	-7053
▁associ	-7054
▁fältet	-7055
▁besluts	-7056
▁kraftigt	-7057
▁självmord	-7058
▁begränsade	-7059
▁svårigheter	-7060
▁konsekvenser	-7061
ww	-7062
▁́	-7063
bra	-7064
ino	-7065
mot	-7066
▁10.	-7067
▁Fär	-7068
▁Sky	-7069
▁hed	-7070
▁trö	-7071
▁1999	-7072
▁falla	-7073
▁kasta	-7074
itterat	-7075
▁ikväll	-7076
▁inspel	-7077
▁hjälpte	-7078
▁metoden	-7079
▁kreditkort	-7080
malt	-7081
▁Beg	-7082
▁Spa	-7083
▁bre	-7084
▁vag	-7085
givna	-7086
▁Irak	-7087
▁sked	-7088
usalem	-7089
▁kalen	-7090
ligator	-7091
▁Arbets	-7092
▁Bilder	-7093
▁hjärna	-7094
▁vintern	-7095
▁vänskap	-7096
▁sexuella	-7097
▁Jerusalem	-7098
▁specialis	-7099
▁fastställs	-7100
rog	-7101
ugh	-7102
alax	-7103
fikt	-7104
inne	-7105
omål	-7106
sorg	-7107
▁kir	-7108
▁loj	-7109
▁Juli	-7110
▁fira	-7111
ssning	-7112
▁Visst	-7113
▁gatan	-7114
▁gator	-7115
▁skala	-7116
▁inflam	-7117
▁röster	-7118
▁stänga	-7119
▁hälsosam	-7120
▁övervaka	-7121
▁livsmedels	-7122
▁universitetet	-7123
▁PR	-7124
▁Out	-7125
▁Rock	-7126
cancer	-7127
▁Ander	-7128
▁flyga	-7129
▁gjord	-7130
▁lovar	-7131
terande	-7132
▁Daniel	-7133
▁Kärlek	-7134
▁giltig	-7135
▁tester	-7136
▁Kalifor	-7137
▁hjärtan	-7138
▁springa	-7139
▁modellen	-7140
▁träffade	-7141
▁levererar	-7142
▁flygplatsen	-7143
▁gemenskapen	-7144
▁genomsnittliga	-7145
hl	-7146
box	-7147
▁):	-7148
▁5-	-7149
▁;)	-7150
ette	-7151
etts	-7152
itch	-7153
rest	-7154
▁Ord	-7155
▁Sil	-7156
▁Bygg	-7157
▁Unit	-7158
▁gäng	-7159
▁Allah	-7160
▁antar	-7161
▁figur	-7162
▁förbru	-7163
▁osäker	-7164
▁spelen	-7165
▁sönder	-7166
▁åtgärd	-7167
▁aktörer	-7168
▁tålamod	-7169
▁kongress	-7170
▁uttrycka	-7171
▁underrätt	-7172
▁återvända	-7173
▁framgångsrik	-7174
dem	-7175
vak	-7176
▁8.	-7177
lass	-7178
▁Pay	-7179
▁Rep	-7180
skrid	-7181
▁rött	-7182
▁Målet	-7183
▁hålls	-7184
▁skepp	-7185
▁stött	-7186
▁Övrig	-7187
▁Jorden	-7188
▁kontra	-7189
▁minnes	-7190
▁spelas	-7191
▁betalas	-7192
▁konkret	-7193
▁Följande	-7194
▁ambassad	-7195
▁fruktans	-7196
▁hållbara	-7197
▁styrelse	-7198
▁vistelse	-7199
▁Barcelona	-7200
▁månaderna	-7201
▁samarbeta	-7202
▁utvecklat	-7203
▁misslyckas	-7204
▁Ytterligare	-7205
▁inspiration	-7206
▁konventionen	-7207
vic	-7208
▁Hol	-7209
▁Hum	-7210
▁Tal	-7211
livet	-7212
▁1000	-7213
▁Live	-7214
▁legi	-7215
▁noll	-7216
▁North	-7217
▁föreb	-7218
▁smärt	-7219
▁Museum	-7220
▁banker	-7221
▁dejting	-7222
▁drabbas	-7223
▁staterna	-7224
▁upptäckt	-7225
▁permanent	-7226
▁italienska	-7227
▁alternativet	-7228
fy	-7229
bla	-7230
röst	-7231
▁Las	-7232
▁flö	-7233
arnas	-7234
▁Hitt	-7235
▁Swed	-7236
▁pojk	-7237
▁uttr	-7238
sation	-7239
▁beton	-7240
▁inred	-7241
▁bryter	-7242
▁förvar	-7243
▁lagras	-7244
▁utgång	-7245
▁flyttar	-7246
▁imorgon	-7247
▁detsamma	-7248
▁förstöra	-7249
▁århundra	-7250
▁experiment	-7251
▁garanterar	-7252
▁personligt	-7253
▁anledningen	-7254
▁Fi	-7255
oris	-7256
▁190	-7257
▁box	-7258
korea	-7259
▁Wall	-7260
▁ener	-7261
▁inci	-7262
▁tuff	-7263
ttning	-7264
▁aning	-7265
▁foton	-7266
▁varia	-7267
▁Social	-7268
▁sorter	-7269
▁högskol	-7270
▁analyser	-7271
▁parterna	-7272
▁reaktioner	-7273
▁genomförande	-7274
▁individuella	-7275
EA	-7276
god	-7277
hag	-7278
öjd	-7279
bjud	-7280
onde	-7281
▁inj	-7282
varna	-7283
▁Phil	-7284
▁takt	-7285
▁älsk	-7286
period	-7287
▁Sport	-7288
▁bistå	-7289
▁lätta	-7290
▁tycks	-7291
onerande	-7292
▁försvars	-7293
▁kvartalet	-7294
▁eventuellt	-7295
▁konstruktion	-7296
äld	-7297
▁1)	-7298
▁CB	-7299
anen	-7300
litt	-7301
slan	-7302
annes	-7303
issör	-7304
phone	-7305
▁(201	-7306
▁Jord	-7307
▁gren	-7308
▁jakt	-7309
▁nått	-7310
▁utgå	-7311
▁väck	-7312
▁ytan	-7313
nummer	-7314
▁Konst	-7315
▁kyrka	-7316
▁köket	-7317
▁målen	-7318
▁bandet	-7319
▁steget	-7320
▁använts	-7321
▁evangel	-7322
▁tydliga	-7323
▁bedräger	-7324
▁frågorna	-7325
▁komplexa	-7326
▁kontakter	-7327
▁problemen	-7328
▁intelligens	-7329
EL	-7330
els	-7331
▁Ass	-7332
▁Bru	-7333
▁Ock	-7334
▁osk	-7335
▁Samt	-7336
▁Grand	-7337
▁Harry	-7338
▁Hjälp	-7339
▁Skriv	-7340
▁söder	-7341
▁HERREN	-7342
▁inbygg	-7343
▁vädret	-7344
▁kroppar	-7345
▁renover	-7346
▁tittade	-7347
▁utnyttj	-7348
▁begränsat	-7349
▁regionala	-7350
▁tradition	-7351
▁ordentligt	-7352
▁utvecklade	-7353
▁förbättring	-7354
▁författaren	-7355
▁konsumenter	-7356
▁förebyggande	-7357
▁rättigheterna	-7358
eld	-7359
nis	-7360
▁3-	-7361
▁85	-7362
▁UN	-7363
juda	-7364
▁Lou	-7365
erare	-7366
stisk	-7367
▁Test	-7368
▁elim	-7369
▁förr	-7370
▁hell	-7371
▁fasta	-7372
▁signa	-7373
▁avslut	-7374
▁männen	-7375
▁skogen	-7376
▁titeln	-7377
▁tjejer	-7378
▁brukade	-7379
▁session	-7380
▁konstigt	-7381
▁pågående	-7382
▁specifik	-7383
▁återställa	-7384
▁ursprungligen	-7385
gl	-7386
uma	-7387
fekt	-7388
▁äga	-7389
vända	-7390
barhet	-7391
▁Titta	-7392
▁antog	-7393
▁dekor	-7394
▁kämpa	-7395
itation	-7396
▁Thomas	-7397
▁förbud	-7398
▁förlåt	-7399
▁hållas	-7400
▁rollen	-7401
inerande	-7402
▁bredvid	-7403
▁redovis	-7404
▁strävar	-7405
▁grekiska	-7406
▁garantera	-7407
▁styrelsen	-7408
▁förbättrar	-7409
▁förändrats	-7410
▁offentligt	-7411
▁behandlings	-7412
▁traditionell	-7413
▁tillämpningen	-7414
Vad	-7415
▁(5	-7416
▁AS	-7417
▁Män	-7418
▁fir	-7419
▁nåd	-7420
fören	-7421
▁Väst	-7422
▁byrå	-7423
▁jack	-7424
▁neut	-7425
▁togs	-7426
▁Fören	-7427
▁tunga	-7428
▁uppst	-7429
▁hustru	-7430
▁minnen	-7431
▁omsorg	-7432
▁åldern	-7433
▁Förenta	-7434
▁discipl	-7435
▁överträ	-7436
▁Programmet	-7437
▁direktivet	-7438
▁graviditet	-7439
2]	-7440
fon	-7441
tern	-7442
▁Exp	-7443
▁Mel	-7444
▁golf	-7445
▁lett	-7446
resten	-7447
▁följt	-7448
▁krets	-7449
▁liber	-7450
▁nöjda	-7451
▁resen	-7452
▁Vatten	-7453
▁bedöma	-7454
▁blodet	-7455
▁fötter	-7456
▁hunden	-7457
▁stycken	-7458
▁förening	-7459
▁områdena	-7460
▁priserna	-7461
▁trygghet	-7462
▁varelser	-7463
▁infektion	-7464
▁specifikt	-7465
▁tillväxten	-7466
▁betalningar	-7467
▁passagerare	-7468
▁presenterar	-7469
▁tillämpliga	-7470
fun	-7471
önt	-7472
bile	-7473
ders	-7474
▁bom	-7475
aller	-7476
▁Kort	-7477
▁kallt	-7478
tgärder	-7479
▁linjen	-7480
▁forskar	-7481
▁orsaker	-7482
▁penning	-7483
ställdhet	-7484
▁laborator	-7485
▁konsumenterna	-7486
▁underhållning	-7487
▁Lå	-7488
ague	-7489
▁Wil	-7490
ction	-7491
▁Carl	-7492
▁Vita	-7493
▁förn	-7494
▁hamn	-7495
andard	-7496
ighets	-7497
▁betyg	-7498
▁judar	-7499
▁verka	-7500
▁bröder	-7501
▁friska	-7502
▁tagits	-7503
▁Richard	-7504
▁dricker	-7505
▁troende	-7506
▁perioder	-7507
▁storleken	-7508
▁biverkningar	-7509
add	-7510
▁44	-7511
▁Mr	-7512
fors	-7513
sbyg	-7514
vall	-7515
årig	-7516
▁DNA	-7517
▁III	-7518
▁leg	-7519
▁obj	-7520
rätts	-7521
▁rese	-7522
▁sper	-7523
slaget	-7524
▁denne	-7525
▁hårda	-7526
▁katal	-7527
▁molek	-7528
▁vänder	-7529
▁Svenska	-7530
▁bostads	-7531
▁geograf	-7532
▁känslom	-7533
▁träffas	-7534
▁blandning	-7535
▁tidningen	-7536
CC	-7537
cha	-7538
ico	-7539
dium	-7540
plom	-7541
änga	-7542
▁Cre	-7543
▁Rek	-7544
▁ind	-7545
▁öde	-7546
▁höja	-7547
▁ligt	-7548
▁ovän	-7549
▁oänd	-7550
▁sånt	-7551
▁work	-7552
▁ansåg	-7553
▁evigt	-7554
▁humör	-7555
▁talas	-7556
▁Tycker	-7557
▁hösten	-7558
▁näring	-7559
▁matchen	-7560
▁sjukvår	-7561
▁styrkor	-7562
▁analysera	-7563
▁biljetter	-7564
▁praktiskt	-7565
▁uppenbart	-7566
ics	-7567
tog	-7568
▁As	-7569
alth	-7570
ghan	-7571
nipp	-7572
ugga	-7573
▁Läk	-7574
▁Tri	-7575
earch	-7576
erats	-7577
▁njut	-7578
▁näst	-7579
sikten	-7580
▁dryck	-7581
▁jävla	-7582
▁rutin	-7583
▁sjuka	-7584
▁andras	-7585
▁droger	-7586
teriella	-7587
▁stämmer	-7588
▁utvalda	-7589
▁beskriva	-7590
▁utgifter	-7591
▁känneteck	-7592
▁upptäcker	-7593
▁hållbarhet	-7594
30	-7595
.000	-7596
iera	-7597
star	-7598
▁Kän	-7599
▁High	-7600
frihet	-7601
ningom	-7602
verant	-7603
▁appen	-7604
▁gymna	-7605
▁håret	-7606
▁inuti	-7607
▁Kommun	-7608
▁repara	-7609
▁baseras	-7610
▁gillade	-7611
▁kärleks	-7612
▁sakerna	-7613
▁verkade	-7614
▁givetvis	-7615
▁litterat	-7616
▁avdelning	-7617
▁rådgivning	-7618
▁långsiktiga	-7619
▁territorium	-7620
▁Nederländerna	-7621
▁framgångsrikt	-7622
kare	-7623
orma	-7624
umin	-7625
▁800	-7626
▁gri	-7627
▁öms	-7628
yrkan	-7629
▁löst	-7630
ländsk	-7631
▁Stora	-7632
▁byrån	-7633
▁hoppa	-7634
▁nings	-7635
▁skönt	-7636
▁utvid	-7637
▁öster	-7638
▁Utöver	-7639
▁Vidare	-7640
▁patent	-7641
▁roller	-7642
▁utsätt	-7643
▁ändrar	-7644
▁kanaler	-7645
▁stycket	-7646
▁tillåta	-7647
▁portfölj	-7648
▁överväga	-7649
▁obligator	-7650
▁sekretess	-7651
▁utvärdera	-7652
▁flyktingar	-7653
▁Kalifornien	-7654
▁imponerande	-7655
▁ingredienser	-7656
▁um	-7657
loud	-7658
ymer	-7659
ödet	-7660
▁Sov	-7661
▁rab	-7662
▁Word	-7663
▁tabl	-7664
ations	-7665
ibland	-7666
timent	-7667
▁nomin	-7668
▁tredj	-7669
ktighet	-7670
stagram	-7671
▁snälla	-7672
▁bokstav	-7673
▁ifrågas	-7674
▁stödjer	-7675
▁uteslut	-7676
▁beräknas	-7677
▁kliniska	-7678
▁långsamt	-7679
▁människo	-7680
▁avsnittet	-7681
▁punkterna	-7682
▁administrativa	-7683
olt	-7684
▁Hal	-7685
▁num	-7686
fritt	-7687
ismer	-7688
ition	-7689
litik	-7690
▁Mind	-7691
▁inri	-7692
▁speg	-7693
▁förbe	-7694
▁kanal	-7695
▁överh	-7696
▁avkast	-7697
▁brotts	-7698
▁dörrar	-7699
▁kolleg	-7700
▁länken	-7701
▁unions	-7702
▁choklad	-7703
▁jordens	-7704
▁placera	-7705
▁vinnare	-7706
▁överdri	-7707
▁distrikt	-7708
▁bekräftar	-7709
▁småningom	-7710
▁uppskattar	-7711
▁anledningar	-7712
▁partnerskap	-7713
▁nödvändigtvis	-7714
MS	-7715
cle	-7716
uff	-7717
▁Kö	-7718
▁Ul	-7719
▁Inf	-7720
▁Sara	-7721
▁bett	-7722
▁bind	-7723
celler	-7724
▁Också	-7725
▁Skill	-7726
▁locka	-7727
▁varma	-7728
▁veder	-7729
▁League	-7730
▁behåll	-7731
▁bortom	-7732
▁konton	-7733
▁linjer	-7734
▁scenen	-7735
▁stolta	-7736
▁turist	-7737
▁ansiktet	-7738
▁bostäder	-7739
▁flykting	-7740
▁försvara	-7741
▁regioner	-7742
▁personalen	-7743
▁ES	-7744
▁Hy	-7745
elat	-7746
väma	-7747
▁Liv	-7748
ionen	-7749
▁Ford	-7750
▁dörr	-7751
▁höst	-7752
▁röka	-7753
▁Andre	-7754
▁fylld	-7755
▁orätt	-7756
▁säljs	-7757
vention	-7758
▁hormon	-7759
▁rekord	-7760
▁tänder	-7761
▁byggdes	-7762
▁lagring	-7763
▁förknipp	-7764
▁landsbyg	-7765
▁släpptes	-7766
▁Institute	-7767
▁kombinerar	-7768
ole	-7769
una	-7770
▁Bi	-7771
▁HD	-7772
frik	-7773
▁Ger	-7774
▁Går	-7775
▁Nat	-7776
▁byn	-7777
▁hyd	-7778
▁lågt	-7779
ässigt	-7780
▁State	-7781
▁femin	-7782
▁forma	-7783
▁inköp	-7784
▁lands	-7785
▁funkar	-7786
▁införa	-7787
▁minnas	-7788
▁tabell	-7789
▁farligt	-7790
▁förteck	-7791
▁komfort	-7792
▁släpper	-7793
▁avlägsna	-7794
▁vanligen	-7795
▁hemlighet	-7796
▁telefonen	-7797
▁förklarade	-7798
▁presentera	-7799
▁tillfälligt	-7800
▁genomförandet	-7801
log	-7802
mas	-7803
sky	-7804
▁00	-7805
▁Sun	-7806
▁onö	-7807
fikat	-7808
▁Vart	-7809
▁ikon	-7810
▁nere	-7811
▁pred	-7812
▁rike	-7813
▁domin	-7814
▁imper	-7815
▁prins	-7816
▁tycka	-7817
▁Annars	-7818
▁Dagens	-7819
▁Filmen	-7820
▁fångar	-7821
▁koppla	-7822
▁numera	-7823
▁skilja	-7824
▁släpps	-7825
▁ömsesi	-7826
▁andliga	-7827
▁besökte	-7828
▁externa	-7829
▁individ	-7830
▁pratade	-7831
▁kärleken	-7832
▁sannolik	-7833
▁tillåtet	-7834
▁kollektiv	-7835
▁praktiken	-7836
▁hundratals	-7837
jä	-7838
ble	-7839
▁AR	-7840
▁CO	-7841
ulin	-7842
▁Bor	-7843
▁ort	-7844
▁diam	-7845
▁Säker	-7846
▁Värld	-7847
▁dusch	-7848
▁fågel	-7849
▁genet	-7850
▁impon	-7851
▁Amerik	-7852
▁Berlin	-7853
▁killar	-7854
▁billiga	-7855
▁delarna	-7856
▁klubben	-7857
▁musiken	-7858
▁tjänste	-7859
▁parkering	-7860
▁tillhandahålls	-7861
För	-7862
but	-7863
zer	-7864
▁ky	-7865
ätte	-7866
ögon	-7867
▁Cro	-7868
▁saj	-7869
niska	-7870
usion	-7871
▁matt	-7872
▁norr	-7873
▁term	-7874
skatta	-7875
▁Medel	-7876
▁anger	-7877
▁otill	-7878
▁Afghan	-7879
▁Utveck	-7880
▁betalt	-7881
▁civila	-7882
▁tvivel	-7883
▁sexuell	-7884
▁tjänare	-7885
▁trevlig	-7886
▁tvingas	-7887
▁existens	-7888
▁skadliga	-7889
▁återigen	-7890
▁levereras	-7891
▁arbetsgivare	-7892
Fi	-7893
vil	-7894
imer	-7895
smål	-7896
▁Big	-7897
▁Möj	-7898
▁Sti	-7899
▁Fred	-7900
▁oroa	-7901
▁miner	-7902
▁saken	-7903
▁sover	-7904
▁debatt	-7905
▁enorma	-7906
▁profet	-7907
▁separa	-7908
arknaden	-7909
▁högkval	-7910
▁jämföra	-7911
▁klasser	-7912
alistiska	-7913
värdheter	-7914
▁klagomål	-7915
▁soldater	-7916
meddelande	-7917
▁Webbplats	-7918
▁kvinnorna	-7919
▁läkemedels	-7920
▁registrera	-7921
▁föräldrarna	-7922
▁registrering	-7923
gav	-7924
egas	-7925
fund	-7926
löst	-7927
sing	-7928
skop	-7929
▁Bry	-7930
▁Häl	-7931
▁Kat	-7932
▁Pan	-7933
▁fab	-7934
▁sat	-7935
yggen	-7936
▁Camp	-7937
▁Next	-7938
▁Real	-7939
▁Stat	-7940
▁mans	-7941
▁succ	-7942
▁utöv	-7943
▁Ännu	-7944
▁Count	-7945
▁Texas	-7946
▁Volvo	-7947
▁bekym	-7948
▁spons	-7949
▁tjugo	-7950
▁museum	-7951
▁vaccin	-7952
▁skadade	-7953
▁landskap	-7954
▁främmande	-7955
▁koncernen	-7956
▁fastighets	-7957
▁huvudsakliga	-7958
IA	-7959
of	-7960
▁§	-7961
bby	-7962
oid	-7963
pon	-7964
emed	-7965
indu	-7966
ions	-7967
▁Aut	-7968
▁Mid	-7969
▁ära	-7970
▁toal	-7971
andina	-7972
▁Polen	-7973
▁Redan	-7974
▁Royal	-7975
▁lyfta	-7976
▁neder	-7977
▁smuts	-7978
▁Undvik	-7979
▁United	-7980
▁beredd	-7981
▁hjälpt	-7982
▁korrig	-7983
▁publik	-7984
▁sparar	-7985
▁tvekan	-7986
spartner	-7987
▁kompati	-7988
▁omfatta	-7989
▁skatter	-7990
▁återvin	-7991
▁kandidat	-7992
▁Problemet	-7993
▁begreppet	-7994
▁funktions	-7995
▁katastrof	-7996
▁kraftfulla	-7997
▁störningar	-7998
▁utvecklare	-7999
▁kontrollerar	-8000
▁Os	-8001
amin	-8002
iter	-8003
namn	-8004
täck	-8005
ament	-8006
▁Miss	-8007
▁dyra	-8008
▁hung	-8009
ckerna	-8010
▁Beach	-8011
▁Smith	-8012
▁citat	-8013
▁levde	-8014
▁månen	-8015
▁neuro	-8016
▁tjock	-8017
▁vanor	-8018
▁Sådana	-8019
▁inrikt	-8020
▁ningar	-8021
▁öppnas	-8022
▁avslapp	-8023
▁rättvis	-8024
▁faktiska	-8025
▁tänkande	-8026
▁informera	-8027
▁anläggning	-8028
▁strukturer	-8029
▁medlemmarna	-8030
▁verksamhets	-8031
▁marknadsförings	-8032
jk	-8033
asa	-8034
ily	-8035
▁2)	-8036
etto	-8037
gent	-8038
llar	-8039
pris	-8040
▁Lab	-8041
▁Los	-8042
▁[1]	-8043
delen	-8044
▁Ukra	-8045
▁South	-8046
▁index	-8047
▁legen	-8048
▁refor	-8049
▁utöva	-8050
▁beteck	-8051
▁bevara	-8052
▁fåglar	-8053
▁liknar	-8054
▁terapi	-8055
▁Service	-8056
▁födelse	-8057
▁negativ	-8058
▁översti	-8059
▁Särskilt	-8060
▁kollegor	-8061
▁känsliga	-8062
▁majoritet	-8063
▁minoritet	-8064
▁trädgården	-8065
▁generationer	-8066
fli	-8067
▁Inc	-8068
▁Mig	-8069
▁Ren	-8070
▁fra	-8071
▁lev	-8072
skade	-8073
temot	-8074
▁läggs	-8075
▁Associ	-8076
▁kungar	-8077
▁syftet	-8078
▁flertal	-8079
▁anställd	-8080
▁allvarlig	-8081
▁dimension	-8082
▁ledningen	-8083
▁sammanlag	-8084
▁förbereder	-8085
▁skyldighet	-8086
AG	-8087
IC	-8088
Var	-8089
öme	-8090
▁4-	-8091
▁Sv	-8092
styr	-8093
▁Kap	-8094
ospel	-8095
▁haha	-8096
▁lade	-8097
▁olog	-8098
▁tapp	-8099
▁Mamma	-8100
▁Mexik	-8101
▁penis	-8102
▁skogs	-8103
▁sämre	-8104
rations	-8105
▁bekräf	-8106
▁genast	-8107
▁återvän	-8108
▁kopplade	-8109
▁noggrann	-8110
▁överföra	-8111
▁regerings	-8112
▁tävlingen	-8113
▁tjänsterna	-8114
▁framförallt	-8115
▁personligen	-8116
▁plattformar	-8117
▁uppdateringar	-8118
▁lagstiftningen	-8119
▁·	-8120
▁€	-8121
omi	-8122
reg	-8123
rup	-8124
▁IV	-8125
▁Ze	-8126
▁wh	-8127
aser	-8128
▁ISO	-8129
▁Säg	-8130
▁Land	-8131
▁Ljus	-8132
▁Stör	-8133
▁boka	-8134
▁yoga	-8135
ssnitt	-8136
▁Islam	-8137
▁Ställ	-8138
▁Thail	-8139
▁lugnt	-8140
▁major	-8141
▁skett	-8142
▁spekt	-8143
▁spåra	-8144
identen	-8145
isation	-8146
▁kortet	-8147
▁lördag	-8148
▁utsatt	-8149
▁ägaren	-8150
▁bekvämt	-8151
▁judiska	-8152
▁present	-8153
skridande	-8154
▁angående	-8155
▁beställa	-8156
▁japanska	-8157
▁förluster	-8158
▁rådgivare	-8159
▁kemikalier	-8160
▁kontrollen	-8161
▁lägenheter	-8162
▁infektioner	-8163
▁installation	-8164
US	-8165
ers	-8166
fly	-8167
llt	-8168
ury	-8169
▁43	-8170
▁Fe	-8171
fört	-8172
hite	-8173
inas	-8174
▁(1)	-8175
▁202	-8176
▁250	-8177
▁Kro	-8178
▁fet	-8179
ämnen	-8180
▁Full	-8181
▁Kung	-8182
▁krän	-8183
▁skid	-8184
▁tråk	-8185
▁tvär	-8186
▁2015.	-8187
▁Award	-8188
▁blick	-8189
▁kriti	-8190
▁strax	-8191
▁falska	-8192
▁filter	-8193
▁katter	-8194
▁videon	-8195
trollera	-8196
▁glömmer	-8197
▁handeln	-8198
▁muskler	-8199
▁kulturen	-8200
▁nätverks	-8201
▁anpassade	-8202
▁europeisk	-8203
▁upptäckte	-8204
▁officiellt	-8205
▁Kontrollera	-8206
dda	-8207
föd	-8208
onn	-8209
cing	-8210
wood	-8211
▁Ven	-8212
▁Abra	-8213
▁Bild	-8214
▁Sand	-8215
▁föds	-8216
▁rakt	-8217
▁skit	-8218
ickade	-8219
igenom	-8220
▁ansöka	-8221
▁expand	-8222
▁försam	-8223
▁kvanti	-8224
▁livets	-8225
▁obehag	-8226
▁Helsing	-8227
▁fantasi	-8228
▁förstod	-8229
▁station	-8230
▁intäkter	-8231
▁städerna	-8232
▁yttrande	-8233
▁genomförs	-8234
▁resolution	-8235
▁Afghanistan	-8236
▁entreprenör	-8237
▁medvetenhet	-8238
▁studenterna	-8239
▁förhållandet	-8240
▁rapportering	-8241
▁utbildningen	-8242
▁tillgänglighet	-8243
▁SK	-8244
▁TM	-8245
▁ark	-8246
▁rem	-8247
ktivt	-8248
produ	-8249
▁Karl	-8250
▁Plus	-8251
▁dras	-8252
▁lamp	-8253
▁Kristi	-8254
▁banken	-8255
▁färgen	-8256
▁försen	-8257
▁hellre	-8258
▁kursen	-8259
▁Upptäck	-8260
▁hushåll	-8261
▁kortare	-8262
▁nyckeln	-8263
minskning	-8264
▁gentemot	-8265
▁kontoret	-8266
▁negativt	-8267
▁intellekt	-8268
▁inträffar	-8269
▁patienten	-8270
▁förfarandet	-8271
▁återförsäljare	-8272
-]	-8273
jö	-8274
mm	-8275
rer	-8276
▁vd	-8277
▁pus	-8278
varig	-8279
▁Anti	-8280
▁diag	-8281
▁idén	-8282
▁lung	-8283
▁Ändå	-8284
iserad	-8285
▁banan	-8286
▁cigar	-8287
▁volym	-8288
▁Paulus	-8289
▁härlig	-8290
▁påbörj	-8291
▁rymden	-8292
sområden	-8293
▁försörj	-8294
▁slutföra	-8295
▁billigare	-8296
▁tillkänna	-8297
▁försäljningen	-8298
OL	-8299
▁@	-8300
bör	-8301
lle	-8302
näm	-8303
▁46	-8304
▁6,	-8305
ydda	-8306
▁Bak	-8307
▁Gui	-8308
▁Ron	-8309
▁Vir	-8310
▁[-]	-8311
▁hav	-8312
▁Form	-8313
▁Life	-8314
▁Lyck	-8315
▁låna	-8316
gemang	-8317
▁Reger	-8318
▁passa	-8319
▁sorts	-8320
punkten	-8321
▁avsedd	-8322
▁längst	-8323
▁vänlig	-8324
▁Digital	-8325
▁Schweiz	-8326
▁stjärna	-8327
▁tidskri	-8328
▁Johannes	-8329
▁arbetspl	-8330
▁minskade	-8331
▁Slutligen	-8332
▁däribland	-8333
▁inkludera	-8334
▁webbläsare	-8335
AM	-8336
ite	-8337
rel	-8338
▁AT	-8339
▁ox	-8340
imen	-8341
▁Art	-8342
▁Dat	-8343
▁Ext	-8344
▁Kri	-8345
▁dam	-8346
▁lan	-8347
▁ros	-8348
▁tät	-8349
cykel	-8350
okrat	-8351
rekta	-8352
▁Blue	-8353
▁Fall	-8354
▁Förl	-8355
▁Open	-8356
▁alli	-8357
▁tank	-8358
▁förnu	-8359
▁grann	-8360
▁packa	-8361
▁talet	-8362
▁valut	-8363
▁åsikt	-8364
biotika	-8365
▁badrum	-8366
▁orolig	-8367
▁ökande	-8368
▁utarbet	-8369
▁ansvaret	-8370
▁styrning	-8371
▁tränings	-8372
▁Speciellt	-8373
▁uppdatera	-8374
▁säkerställer	-8375
/2	-8376
När	-8377
▁47	-8378
amet	-8379
osit	-8380
otta	-8381
speg	-8382
▁Fru	-8383
▁Tar	-8384
▁cer	-8385
igger	-8386
jerna	-8387
▁Pass	-8388
▁Styr	-8389
▁baby	-8390
▁herr	-8391
▁itet	-8392
▁samm	-8393
▁avvik	-8394
▁barnd	-8395
▁beska	-8396
▁Irland	-8397
▁diplom	-8398
▁källan	-8399
▁nämnda	-8400
▁Science	-8401
▁fiender	-8402
▁punkten	-8403
▁såklart	-8404
inationer	-8405
▁balanser	-8406
▁därifrån	-8407
▁trevligt	-8408
▁turister	-8409
▁Instagram	-8410
▁principen	-8411
▁Resultatet	-8412
▁beställning	-8413
▁uppdatering	-8414
▁ansträngningar	-8415
AD	-8416
IM	-8417
ual	-8418
▁9.	-8419
▁Ön	-8420
jung	-8421
otek	-8422
shop	-8423
▁Tag	-8424
▁Wik	-8425
▁ist	-8426
▁tel	-8427
värde	-8428
▁Ande	-8429
▁välk	-8430
landet	-8431
vation	-8432
▁motiv	-8433
▁smitt	-8434
eration	-8435
▁bollen	-8436
▁fördju	-8437
▁försäm	-8438
▁Abraham	-8439
▁Antalet	-8440
▁avslöja	-8441
▁rikedom	-8442
▁konstitu	-8443
▁Författare	-8444
▁upplevelsen	-8445
▁förvaltnings	-8446
▁diskriminering	-8447
oc	-8448
▁←	-8449
hal	-8450
års	-8451
▁AD	-8452
▁ID	-8453
urit	-8454
uten	-8455
ådet	-8456
▁120	-8457
▁est	-8458
▁ran	-8459
▁www	-8460
varor	-8461
▁Skol	-8462
villkor	-8463
▁anfall	-8464
▁bergen	-8465
▁entusi	-8466
▁fabrik	-8467
▁fattar	-8468
▁ryggen	-8469
▁räknar	-8470
▁ställs	-8471
▁väggen	-8472
▁Berätta	-8473
▁lastbil	-8474
▁träffat	-8475
▁väntade	-8476
▁försvann	-8477
▁kalorier	-8478
▁lyckliga	-8479
▁sällskap	-8480
▁förebygga	-8481
▁kärnvapen	-8482
▁högkvalita	-8483
▁Internationella	-8484
PR	-8485
utt	-8486
▁Va	-8487
▁Nik	-8488
▁Ram	-8489
▁Rum	-8490
▁Sig	-8491
▁Win	-8492
▁rid	-8493
▁sed	-8494
▁sel	-8495
▁öga	-8496
annen	-8497
taget	-8498
ändan	-8499
▁Kost	-8500
▁Lång	-8501
▁kära	-8502
ftelse	-8503
tement	-8504
▁Musik	-8505
▁ignor	-8506
▁pojke	-8507
▁revis	-8508
▁rykte	-8509
▁tyder	-8510
▁dubbla	-8511
▁hittas	-8512
▁inbjud	-8513
▁kritik	-8514
ologiskt	-8515
▁arbeten	-8516
▁föreläs	-8517
▁förverk	-8518
▁hindrar	-8519
▁tränare	-8520
▁Thailand	-8521
▁handlare	-8522
▁riskerar	-8523
▁kraftfull	-8524
▁operation	-8525
▁slutändan	-8526
▁välkommen	-8527
▁föreskrivs	-8528
▁konflikter	-8529
▁arrangemang	-8530
▁presenteras	-8531
▁strategiska	-8532
▁Naturligtvis	-8533
▁förekommande	-8534
cia	-8535
▁4:	-8536
▁EG	-8537
▁Kn	-8538
ladd	-8539
omer	-8540
ther	-8541
▁Dra	-8542
▁Jen	-8543
▁USB	-8544
▁kak	-8545
▁kej	-8546
▁mel	-8547
sidor	-8548
▁Jesu	-8549
▁asyl	-8550
▁bibe	-8551
▁grym	-8552
▁utse	-8553
▁vice	-8554
▁övre	-8555
östern	-8556
▁Frank	-8557
▁Malmö	-8558
▁charm	-8559
▁födda	-8560
▁slump	-8561
▁snäll	-8562
▁magnet	-8563
räffande	-8564
▁College	-8565
▁brister	-8566
▁syndrom	-8567
▁trycket	-8568
▁avslöjar	-8569
▁placeras	-8570
▁populärt	-8571
utveckling	-8572
▁grönsaker	-8573
▁sjukhuset	-8574
▁sortiment	-8575
con	-8576
▁''	-8577
▁ER	-8578
▁ia	-8579
▁og	-8580
▁oh	-8581
gade	-8582
ream	-8583
skad	-8584
▁Mos	-8585
▁ler	-8586
rasil	-8587
still	-8588
▁INTE	-8589
▁Mary	-8590
▁hörn	-8591
arbete	-8592
iteter	-8593
ledare	-8594
mannen	-8595
▁Smart	-8596
▁Video	-8597
▁chatt	-8598
▁feder	-8599
▁toler	-8600
emedlem	-8601
ktionen	-8602
▁motion	-8603
▁propor	-8604
▁skjuta	-8605
▁terape	-8606
▁välbef	-8607
▁advokat	-8608
▁hungrig	-8609
▁frekvens	-8610
▁konflikt	-8611
▁påminner	-8612
▁arbetslös	-8613
▁fördraget	-8614
▁kombinera	-8615
▁biologiska	-8616
▁deltagarna	-8617
▁fastigheter	-8618
▁registrerade	-8619
che	-8620
▁5:	-8621
▁il	-8622
▁oj	-8623
lopp	-8624
▁Bio	-8625
▁ECB	-8626
anten	-8627
atisk	-8628
▁agen	-8629
▁Media	-8630
▁Techn	-8631
▁givit	-8632
▁romer	-8633
ordning	-8634
▁aggres	-8635
▁köpare	-8636
▁splitt	-8637
▁texter	-8638
▁Bolaget	-8639
▁drycker	-8640
▁interak	-8641
▁räkning	-8642
▁Kontakta	-8643
▁Regissör	-8644
▁förutsäg	-8645
▁nationer	-8646
▁nivåerna	-8647
▁avancerad	-8648
▁bestående	-8649
▁blodtryck	-8650
▁förslaget	-8651
▁underbart	-8652
▁innefattar	-8653
▁vägledning	-8654
▁möjligheterna	-8655
ary	-8656
oro	-8657
ors	-8658
▁--	-8659
▁Mi	-8660
elle	-8661
järn	-8662
känt	-8663
▁180	-8664
▁bos	-8665
agång	-8666
ripet	-8667
verna	-8668
▁Njut	-8669
▁gräs	-8670
▁ling	-8671
▁skar	-8672
ekonom	-8673
gångar	-8674
▁Gamla	-8675
▁bitar	-8676
▁hyres	-8677
▁insåg	-8678
▁kopia	-8679
▁optim	-8680
▁rubri	-8681
▁satsa	-8682
▁annons	-8683
▁bekant	-8684
▁bildar	-8685
▁chefer	-8686
▁exakta	-8687
▁fyller	-8688
▁harmon	-8689
▁intill	-8690
▁lokalt	-8691
▁uppnås	-8692
▁Central	-8693
▁Herrens	-8694
▁bloggar	-8695
▁butiken	-8696
▁inomhus	-8697
▁kraften	-8698
▁meddela	-8699
▁ovanför	-8700
▁böckerna	-8701
▁drabbade	-8702
▁verkligt	-8703
▁rapporterar	-8704
▁utvärdering	-8705
▁skådespelare	-8706
MA	-8707
ee	-8708
bit	-8709
▁!)	-8710
▁Is	-8711
▁ic	-8712
ingo	-8713
osex	-8714
▁Kur	-8715
▁Ten	-8716
▁Bang	-8717
▁Hong	-8718
▁Sätt	-8719
▁intr	-8720
▁präg	-8721
▁städ	-8722
▁surf	-8723
▁ation	-8724
▁djupa	-8725
▁sänka	-8726
▁Market	-8727
▁begrav	-8728
▁chefen	-8729
▁ingång	-8730
▁lägsta	-8731
▁parken	-8732
▁flexibel	-8733
▁förmåner	-8734
▁observer	-8735
▁skickade	-8736
▁troligen	-8737
▁jordbruks	-8738
▁mediciner	-8739
▁uppmuntra	-8740
▁integrerad	-8741
▁miljontals	-8742
▁jämställdhet	-8743
▁premiärminister	-8744
ate	-8745
hyd	-8746
▁?!	-8747
▁AP	-8748
▁Ly	-8749
Tube	-8750
tiet	-8751
▁bag	-8752
▁iga	-8753
▁utö	-8754
▁Club	-8755
▁Vall	-8756
▁golv	-8757
▁gram	-8758
▁tyng	-8759
▁Polis	-8760
▁blind	-8761
▁grönt	-8762
▁skämt	-8763
▁talat	-8764
▁uppre	-8765
▁öarna	-8766
chester	-8767
dafrika	-8768
ämpning	-8769
▁delade	-8770
▁kallat	-8771
▁kompen	-8772
▁krisen	-8773
▁poster	-8774
▁tillbe	-8775
▁årtion	-8776
▁läsning	-8777
▁skratta	-8778
▁vittnes	-8779
▁grundare	-8780
▁ovanligt	-8781
▁skrivbord	-8782
7)	-8783
BC	-8784
dd	-8785
ÖR	-8786
▁41	-8787
▁49	-8788
igan	-8789
ogni	-8790
▁Lan	-8791
▁Pop	-8792
▁Sur	-8793
▁iOS	-8794
▁1998	-8795
▁Dire	-8796
▁Hill	-8797
▁bytt	-8798
▁löne	-8799
▁ätit	-8800
ologin	-8801
▁Spela	-8802
▁avbry	-8803
▁hölls	-8804
▁vakna	-8805
▁vilda	-8806
▁anonym	-8807
▁uppkom	-8808
▁YouTube	-8809
▁föreslå	-8810
▁olyckor	-8811
▁attacker	-8812
▁fönstret	-8813
▁kroppens	-8814
▁åstadkom	-8815
▁forskarna	-8816
▁Stockholms	-8817
▁elektriska	-8818
▁konsekvent	-8819
jon	-8820
osh	-8821
oss	-8822
stä	-8823
▁59	-8824
▁Pi	-8825
nare	-8826
▁Fer	-8827
▁Web	-8828
▁ost	-8829
▁tysk	-8830
▁ögat	-8831
edagog	-8832
nderna	-8833
▁velat	-8834
▁anteck	-8835
▁domare	-8836
▁dödade	-8837
▁master	-8838
▁utgöra	-8839
▁önskan	-8840
▁indikat	-8841
▁matcher	-8842
▁skulder	-8843
▁filosofi	-8844
▁övningar	-8845
postadress	-8846
▁inbegripet	-8847
▁beslutsfatt	-8848
▁sevärdheter	-8849
6)	-8850
flö	-8851
fru	-8852
rin	-8853
öje	-8854
▁Wa	-8855
ject	-8856
▁Acc	-8857
vious	-8858
▁feed	-8859
▁frig	-8860
▁lukt	-8861
▁soli	-8862
▁sakna	-8863
▁visum	-8864
▁Brasil	-8865
▁Indust	-8866
▁agerar	-8867
▁deltog	-8868
▁förbli	-8869
▁stiger	-8870
röstning	-8871
teringen	-8872
▁gammalt	-8873
▁kategor	-8874
▁licensi	-8875
▁bolagets	-8876
▁framträd	-8877
▁nordiska	-8878
▁slutliga	-8879
▁exponering	-8880
▁föreningen	-8881
▁medlemskap	-8882
▁rapportera	-8883
▁samarbetar	-8884
▁elektronisk	-8885
▁publicerade	-8886
-)	-8887
PN	-8888
äx	-8889
läk	-8890
sid	-8891
enda	-8892
essi	-8893
redi	-8894
väst	-8895
▁Tem	-8896
▁Typ	-8897
▁tox	-8898
ekret	-8899
kulär	-8900
öcker	-8901
▁News	-8902
▁Tips	-8903
▁borg	-8904
▁kämp	-8905
dition	-8906
savtal	-8907
▁.....	-8908
▁fjärr	-8909
▁kabel	-8910
▁utesl	-8911
▁Gillar	-8912
▁Samman	-8913
▁belast	-8914
▁loppet	-8915
▁silver	-8916
▁långsam	-8917
▁tillväg	-8918
▁Fortsätt	-8919
▁Samtliga	-8920
▁förälder	-8921
▁utformad	-8922
▁meddelade	-8923
▁familjemedlem	-8924
▁tillverknings	-8925
IF	-8926
ody	-8927
▁MP	-8928
ebra	-8929
kala	-8930
rike	-8931
work	-8932
ömen	-8933
▁iak	-8934
▁Helt	-8935
▁Work	-8936
▁papp	-8937
▁trag	-8938
rätten	-8939
värtom	-8940
▁2014.	-8941
▁2018.	-8942
▁Johan	-8943
▁gitar	-8944
▁inhem	-8945
skottet	-8946
▁mäster	-8947
▁vägrar	-8948
▁välsig	-8949
▁främjar	-8950
▁uppnått	-8951
▁föreslag	-8952
▁planeten	-8953
▁generellt	-8954
▁stabilitet	-8955
▁återbetalning	-8956
TA	-8957
ces	-8958
▁AN	-8959
▁tw	-8960
fisk	-8961
tics	-8962
ulen	-8963
▁USD	-8964
▁isk	-8965
▁Cast	-8966
▁köns	-8967
▁laga	-8968
▁lögn	-8969
▁mamm	-8970
▁prop	-8971
▁skiv	-8972
lement	-8973
licera	-8974
▁Fanta	-8975
▁Förra	-8976
▁metab	-8977
▁värda	-8978
▁Palest	-8979
▁Victor	-8980
▁djuren	-8981
▁golvet	-8982
▁kusten	-8983
▁normer	-8984
▁sjunga	-8985
▁vaknar	-8986
▁Francis	-8987
▁klassen	-8988
▁omdömen	-8989
▁orsakas	-8990
▁tillgod	-8991
▁Personer	-8992
▁flytande	-8993
▁företräd	-8994
▁intensiv	-8995
▁järnvägs	-8996
▁föreningar	-8997
▁Helsingfors	-8998
▁biblioteket	-8999
▁redovisning	-9000
▁vetenskaplig	-9001
▁undersökningen	-9002
bl	-9003
▁HP	-9004
▁Ol	-9005
▁[3	-9006
▁öd	-9007
ader	-9008
pany	-9009
revs	-9010
▁Kli	-9011
▁ion	-9012
▁lys	-9013
▁mal	-9014
▁öst	-9015
etnam	-9016
▁Gold	-9017
▁akut	-9018
▁fond	-9019
▁2017.	-9020
▁Store	-9021
▁erade	-9022
▁lagra	-9023
▁påmin	-9024
▁Fadern	-9025
▁rötter	-9026
▁mäklare	-9027
▁pappers	-9028
▁sidorna	-9029
▁stänger	-9030
▁utföras	-9031
▁Research	-9032
▁egenskap	-9033
▁hanteras	-9034
▁porträtt	-9035
▁publiken	-9036
▁önskemål	-9037
agångssätt	-9038
▁planerade	-9039
▁överhuvud	-9040
▁övertygad	-9041
▁förhållandena	-9042
▁medlemsstaten	-9043
CH	-9044
dap	-9045
spo	-9046
agra	-9047
bien	-9048
cera	-9049
gård	-9050
play	-9051
urar	-9052
året	-9053
▁Dam	-9054
▁Que	-9055
▁knä	-9056
ktorn	-9057
▁mynt	-9058
ktorer	-9059
rering	-9060
sköter	-9061
▁aktör	-9062
▁kolum	-9063
▁Liksom	-9064
▁Norden	-9065
▁presta	-9066
▁tempel	-9067
▁Alterna	-9068
▁albumet	-9069
▁beskriv	-9070
▁fullkom	-9071
▁gymnasi	-9072
▁minskat	-9073
▁årligen	-9074
▁konstant	-9075
▁kritiska	-9076
▁reagerar	-9077
▁tekniskt	-9078
▁framställ	-9079
▁erkännande	-9080
▁inriktning	-9081
▁produceras	-9082
▁konferensen	-9083
▁förbättringar	-9084
▁huvudsakligen	-9085
Han	-9086
Hur	-9087
oto	-9088
uck	-9089
dell	-9090
edia	-9091
isch	-9092
roll	-9093
▁Bon	-9094
▁Chi	-9095
▁Top	-9096
▁Mass	-9097
▁damm	-9098
▁foss	-9099
▁kvad	-9100
▁leka	-9101
▁serv	-9102
▁söta	-9103
egräns	-9104
kontor	-9105
▁Analy	-9106
▁Times	-9107
▁anvis	-9108
▁bered	-9109
▁löfte	-9110
▁Årets	-9111
osystem	-9112
▁Skicka	-9113
▁dubbelt	-9114
▁enskild	-9115
▁färdiga	-9116
▁isering	-9117
▁rutiner	-9118
▁timmars	-9119
partement	-9120
▁Vänligen	-9121
▁logistik	-9122
▁riskerna	-9123
▁kampanjer	-9124
▁kreativitet	-9125
▁plattformen	-9126
▁kontinuerligt	-9127
UD	-9128
ety	-9129
ini	-9130
▁Sö	-9131
fast	-9132
▁Fal	-9133
▁Hit	-9134
▁Jim	-9135
▁Ros	-9136
iskop	-9137
slösa	-9138
▁Före	-9139
▁kram	-9140
▁lust	-9141
▁mail	-9142
▁mira	-9143
▁njur	-9144
▁pren	-9145
oriter	-9146
▁2013.	-9147
▁2016.	-9148
▁danska	-9149
▁hälsan	-9150
▁ledsen	-9151
▁proced	-9152
▁upplys	-9153
▁väntat	-9154
undation	-9155
▁Framför	-9156
▁Perfekt	-9157
▁Ukraina	-9158
▁indiker	-9159
▁knappen	-9160
▁stående	-9161
▁sökning	-9162
▁funderar	-9163
▁kommitté	-9164
▁prenumer	-9165
▁signaler	-9166
▁akademiska	-9167
▁annanstans	-9168
▁genomföras	-9169
▁publiceras	-9170
▁värdefulla	-9171
▁recensioner	-9172
▁välbefinnande	-9173
CO	-9174
col	-9175
end	-9176
ule	-9177
▁Ev	-9178
jord	-9179
king	-9180
örde	-9181
▁189	-9182
▁20-	-9183
▁Kim	-9184
▁Log	-9185
▁Tit	-9186
▁itu	-9187
angen	-9188
unger	-9189
verse	-9190
ättar	-9191
ulette	-9192
▁medie	-9193
▁ränta	-9194
▁valda	-9195
▁Priset	-9196
▁gården	-9197
▁motiva	-9198
▁myster	-9199
▁närmar	-9200
▁satell	-9201
▁syften	-9202
▁uppfin	-9203
▁vardag	-9204
▁barnets	-9205
▁chanser	-9206
▁efteråt	-9207
▁fordons	-9208
▁förhind	-9209
▁kommand	-9210
▁skriven	-9211
▁välsign	-9212
▁Previous	-9213
▁fotbolls	-9214
▁meningen	-9215
▁förväntade	-9216
▁litteratur	-9217
▁berättelsen	-9218
▁Mellanöstern	-9219
▁demokratiska	-9220
.)	-9221
rem	-9222
ason	-9223
jack	-9224
ydde	-9225
▁700	-9226
▁Aff	-9227
▁Len	-9228
▁fav	-9229
▁not	-9230
▁pum	-9231
ansen	-9232
olska	-9233
▁Chic	-9234
▁bomb	-9235
▁dröj	-9236
▁hyll	-9237
▁iPad	-9238
▁prim	-9239
▁ägde	-9240
asinot	-9241
▁blods	-9242
▁doser	-9243
▁dölja	-9244
▁klätt	-9245
▁rätte	-9246
▁vände	-9247
▁övers	-9248
▁Health	-9249
▁Mexiko	-9250
▁fiende	-9251
▁munnen	-9252
▁skräck	-9253
▁stilla	-9254
▁verkan	-9255
▁bestånd	-9256
▁fundera	-9257
▁praktik	-9258
▁växthus	-9259
▁Världens	-9260
▁arabiska	-9261
▁dödsfall	-9262
▁kulturer	-9263
▁kvinnors	-9264
▁flygbolag	-9265
▁Manchester	-9266
▁enastående	-9267
▁majoriteten	-9268
▁motståndare	-9269
__	-9270
hu	-9271
röm	-9272
ush	-9273
wer	-9274
▁cm	-9275
▁Åt	-9276
börd	-9277
disk	-9278
inkl	-9279
oter	-9280
äkra	-9281
ässa	-9282
▁Ban	-9283
▁Blu	-9284
▁mog	-9285
smynd	-9286
▁1996	-9287
▁mörd	-9288
▁flexi	-9289
▁frakt	-9290
▁taket	-9291
sområde	-9292
▁Barnen	-9293
▁kyrkor	-9294
▁trycka	-9295
▁genomgå	-9296
▁intryck	-9297
▁mästare	-9298
▁skyddet	-9299
▁ungdoms	-9300
▁Finlands	-9301
▁beloppet	-9302
▁hållbart	-9303
▁knappast	-9304
programmet	-9305
▁belysning	-9306
▁ekosystem	-9307
▁försvinna	-9308
▁avkastning	-9309
▁finansiell	-9310
▁förberedel	-9311
▁ansträngning	-9312
▁flexibilitet	-9313
▁tillhandahåll	-9314
▁verkställande	-9315
▁viktminskning	-9316
TC	-9317
ffs	-9318
pet	-9319
via	-9320
▁"?	-9321
▁66	-9322
ulär	-9323
träde	-9324
versi	-9325
▁1990	-9326
▁Dags	-9327
▁Free	-9328
▁Fyra	-9329
agerar	-9330
anerna	-9331
havare	-9332
▁Snart	-9333
▁Vegas	-9334
▁angel	-9335
▁fläck	-9336
▁inlär	-9337
▁inner	-9338
▁kolon	-9339
▁östra	-9340
▁Bättre	-9341
▁Undrar	-9342
▁kungen	-9343
▁olycka	-9344
likation	-9345
▁affärsm	-9346
▁fördela	-9347
▁homosex	-9348
▁paketet	-9349
▁pedagog	-9350
▁rörande	-9351
▁direktör	-9352
▁enklaste	-9353
▁reserver	-9354
▁förresten	-9355
▁upprepade	-9356
▁etablerade	-9357
▁medvetande	-9358
▁uppmuntrar	-9359
▁återvänder	-9360
▁institution	-9361
▁anläggningen	-9362
▁arbetstagare	-9363
▁distribution	-9364
▁konkurrenskra	-9365
SA	-9366
▁^	-9367
▁°	-9368
▁7,	-9369
▁88	-9370
▁kg	-9371
iger	-9372
ände	-9373
▁Bir	-9374
▁Fel	-9375
▁Nob	-9376
▁Rik	-9377
▁drä	-9378
▁oav	-9379
▁ägs	-9380
▁Ever	-9381
▁Risk	-9382
▁Time	-9383
▁fris	-9384
fieras	-9385
inerna	-9386
▁Champ	-9387
▁White	-9388
▁rolig	-9389
▁venti	-9390
▁Energi	-9391
▁Mannen	-9392
▁flyger	-9393
▁fonden	-9394
▁skyddas	-9395
▁förvånad	-9396
▁planerat	-9397
▁alternativa	-9398
▁integration	-9399
▁tillhörande	-9400
TS	-9401
:00	-9402
dam	-9403
iro	-9404
isa	-9405
▁3)	-9406
cast	-9407
trol	-9408
▁ALL	-9409
▁ank	-9410
▁ess	-9411
▁flu	-9412
▁sön	-9413
▁Film	-9414
▁Förm	-9415
▁Prin	-9416
▁adop	-9417
▁lyft	-9418
▁måla	-9419
▁spök	-9420
▁Miljö	-9421
▁Santa	-9422
▁Sluta	-9423
▁dyker	-9424
▁fader	-9425
▁gåvor	-9426
▁intag	-9427
▁pilot	-9428
▁skräd	-9429
▁Öppna	-9430
▁museet	-9431
▁synder	-9432
sprojekt	-9433
▁Angeles	-9434
▁Company	-9435
▁läkemed	-9436
▁menings	-9437
▁utsatta	-9438
▁önskade	-9439
▁avsevärt	-9440
▁feedback	-9441
▁handlade	-9442
▁stannade	-9443
▁gränserna	-9444
▁publicera	-9445
▁utredning	-9446
▁funktionsh	-9447
▁Association	-9448
7.	-9449
gås	-9450
lie	-9451
ray	-9452
xor	-9453
▁8,	-9454
▁Az	-9455
moni	-9456
▁11.	-9457
▁Jud	-9458
▁Mus	-9459
▁fib	-9460
▁fry	-9461
▁jur	-9462
▁äro	-9463
ariat	-9464
elset	-9465
nifik	-9466
oment	-9467
änger	-9468
▁Book	-9469
▁gruv	-9470
▁ound	-9471
likhet	-9472
▁Känns	-9473
▁Water	-9474
▁beseg	-9475
▁cyber	-9476
▁gråta	-9477
▁nämna	-9478
▁Allmän	-9479
▁Centre	-9480
▁Staden	-9481
▁frigör	-9482
▁hänger	-9483
▁märker	-9484
▁Johnson	-9485
▁alltmer	-9486
▁partier	-9487
▁vänliga	-9488
▁Tillbaka	-9489
▁expertis	-9490
▁lednings	-9491
▁praktisk	-9492
▁skapades	-9493
▁återspeg	-9494
▁batterier	-9495
▁rörlighet	-9496
▁utformade	-9497
▁certifikat	-9498
▁presentation	-9499
▁förhandlingar	-9500
Men	-9501
ope	-9502
tto	-9503
▁OK	-9504
cell	-9505
▁Tje	-9506
▁kok	-9507
uther	-9508
änker	-9509
▁Auto	-9510
▁Fick	-9511
▁Mont	-9512
▁Pati	-9513
▁skrä	-9514
▁öron	-9515
lation	-9516
verkar	-9517
▁Start	-9518
▁final	-9519
▁heten	-9520
▁ängel	-9521
▁enormt	-9522
▁listor	-9523
▁minnet	-9524
▁pojkar	-9525
▁provin	-9526
▁vandra	-9527
ektionen	-9528
▁ankomst	-9529
▁anmälan	-9530
▁kvadrat	-9531
▁känslig	-9532
▁upplevt	-9533
▁Standard	-9534
▁maskinen	-9535
försäkring	-9536
▁Forskning	-9537
▁intervall	-9538
▁lektioner	-9539
▁orsakerna	-9540
▁välkomnar	-9541
▁representant	-9542
▁funktionalitet	-9543
ero	-9544
hel	-9545
que	-9546
row	-9547
park	-9548
vare	-9549
äkta	-9550
▁Små	-9551
▁ets	-9552
▁mix	-9553
kalla	-9554
ywood	-9555
▁Lika	-9556
▁Lind	-9557
▁Link	-9558
▁Flori	-9559
▁Snabb	-9560
▁hänga	-9561
▁uttag	-9562
äckande	-9563
▁Madrid	-9564
▁flaska	-9565
▁stödet	-9566
▁bistånd	-9567
▁djupare	-9568
▁gradvis	-9569
▁medelst	-9570
▁samlade	-9571
▁uppbygg	-9572
▁European	-9573
▁disciplin	-9574
▁förbjudet	-9575
▁ledamöter	-9576
▁tredjedel	-9577
▁övergrepp	-9578
▁elektronik	-9579
▁gemenskaps	-9580
▁tillverkas	-9581
▁dotterbolag	-9582
▁publicerades	-9583
xa	-9584
jäv	-9585
san	-9586
uch	-9587
anke	-9588
flix	-9589
gnos	-9590
lita	-9591
omet	-9592
räda	-9593
▁365	-9594
▁CBD	-9595
▁Cla	-9596
▁Kör	-9597
▁ell	-9598
▁idi	-9599
▁rot	-9600
▁Berg	-9601
▁Börj	-9602
▁Förh	-9603
▁eröv	-9604
▁mand	-9605
▁ocku	-9606
▁poly	-9607
▁sort	-9608
aritet	-9609
denter	-9610
iltiga	-9611
▁2012.	-9612
▁apost	-9613
▁front	-9614
▁klaga	-9615
▁återf	-9616
givaren	-9617
▁Sovjet	-9618
▁bildas	-9619
▁skilsm	-9620
▁trovär	-9621
▁ålders	-9622
baserade	-9623
koppling	-9624
▁engelsk	-9625
▁hemliga	-9626
▁härliga	-9627
▁magiska	-9628
▁mätning	-9629
▁Tjänsten	-9630
▁byggnads	-9631
▁revision	-9632
▁skyldiga	-9633
▁trafiken	-9634
▁Ingenting	-9635
▁historier	-9636
▁skrämmande	-9637
▁inflammation	-9638
0)	-9639
AP	-9640
EM	-9641
gt	-9642
ye	-9643
cus	-9644
tek	-9645
▁51	-9646
▁96	-9647
▁yt	-9648
▁Fre	-9649
▁Him	-9650
▁Jac	-9651
▁hej	-9652
▁klo	-9653
▁slä	-9654
▁veg	-9655
anner	-9656
edjan	-9657
innan	-9658
strar	-9659
▁Blir	-9660
▁Bush	-9661
▁Love	-9662
▁Steg	-9663
▁Team	-9664
▁bott	-9665
▁grav	-9666
▁salu	-9667
▁skam	-9668
▁tviv	-9669
trafik	-9670
▁Repub	-9671
▁filen	-9672
▁firar	-9673
▁försi	-9674
▁vågar	-9675
▁bevisa	-9676
▁etiska	-9677
▁fängsl	-9678
▁läggas	-9679
▁tvätta	-9680
▁Övriga	-9681
▁mörkret	-9682
▁segment	-9683
▁leksaker	-9684
▁misslyck	-9685
utbildning	-9686
▁recension	-9687
▁spenderar	-9688
▁veterinär	-9689
▁Österrike	-9690
▁anpassning	-9691
▁förbättras	-9692
▁konsumtion	-9693
▁resulterar	-9694
▁avdelningen	-9695
▁patienterna	-9696
▁CN	-9697
häng	-9698
made	-9699
ydds	-9700
▁igt	-9701
askin	-9702
▁1995	-9703
▁hant	-9704
▁späd	-9705
▁syns	-9706
ämning	-9707
▁Ordet	-9708
▁armén	-9709
▁beund	-9710
▁fysik	-9711
▁löser	-9712
▁skild	-9713
▁skära	-9714
▁stjäl	-9715
▁Familj	-9716
▁byggde	-9717
▁erhåll	-9718
▁inneha	-9719
▁nätter	-9720
▁ringer	-9721
▁slaget	-9722
▁tunnel	-9723
▁Charles	-9724
▁Chicago	-9725
▁anspråk	-9726
▁bekväma	-9727
▁lokaler	-9728
▁paradis	-9729
▁toalett	-9730
▁arranger	-9731
▁objektiv	-9732
▁veckorna	-9733
▁Brasilien	-9734
▁rapporterade	-9735
car	-9736
kör	-9737
ssa	-9738
▁AC	-9739
▁Id	-9740
▁Mö	-9741
▁Up	-9742
fria	-9743
tali	-9744
vens	-9745
▁dru	-9746
meter	-9747
ordin	-9748
▁Eric	-9749
▁skal	-9750
▁turk	-9751
▁ving	-9752
▁vänd	-9753
eställ	-9754
papper	-9755
▁Medic	-9756
▁dödar	-9757
▁fräls	-9758
▁repar	-9759
▁ärlig	-9760
politik	-9761
▁Public	-9762
▁Servic	-9763
▁grafik	-9764
▁prolet	-9765
▁övning	-9766
▁idrotts	-9767
▁oundvik	-9768
▁arkitekt	-9769
▁artister	-9770
▁koppling	-9771
▁sjukvård	-9772
▁spektrum	-9773
▁spänning	-9774
▁Sydafrika	-9775
▁gränsöver	-9776
▁spridning	-9777
▁uppenbara	-9778
▁organisera	-9779
▁sprocessen	-9780
▁tidpunkten	-9781
▁uppvärmning	-9782
▁vetenskapen	-9783
▁kontrolleras	-9784
▁rekommendation	-9785
▁överenskommelse	-9786
8)	-9787
VD	-9788
▁%.	-9789
▁=)	-9790
▁IK	-9791
aten	-9792
chef	-9793
olda	-9794
ripa	-9795
▁Sem	-9796
▁oft	-9797
aming	-9798
domar	-9799
domen	-9800
flykt	-9801
kande	-9802
ratör	-9803
▁dels	-9804
▁info	-9805
▁kval	-9806
ckning	-9807
ifiera	-9808
serien	-9809
▁Boken	-9810
▁Saint	-9811
▁drott	-9812
▁eviga	-9813
▁expan	-9814
▁förne	-9815
▁intyg	-9816
▁netto	-9817
▁trapp	-9818
▁trend	-9819
▁uppåt	-9820
ästerna	-9821
▁Aldrig	-9822
▁berget	-9823
▁motorn	-9824
▁måltid	-9825
▁oftare	-9826
▁restri	-9827
▁väggar	-9828
▁Florida	-9829
▁framgår	-9830
▁musiker	-9831
▁nyhetsb	-9832
▁säkrare	-9833
▁teorier	-9834
▁tiderna	-9835
▁jättebra	-9836
▁exklusiva	-9837
▁tillbehör	-9838
▁utmanande	-9839
▁gränssnitt	-9840
▁mekanismer	-9841
▁hemligheter	-9842
▁parlamentet	-9843
▁tillverkade	-9844
▁försiktighet	-9845
▁tillverkaren	-9846
▁överhuvudtaget	-9847
esk	-9848
eto	-9849
oty	-9850
▁Ec	-9851
▁Oh	-9852
▁VM	-9853
vita	-9854
▁naz	-9855
ioner	-9856
oider	-9857
skill	-9858
▁blin	-9859
ringen	-9860
▁Robin	-9861
▁dosen	-9862
▁liter	-9863
▁märkt	-9864
▁stiga	-9865
▁svärd	-9866
▁sände	-9867
rädande	-9868
▁Alltid	-9869
▁hjälte	-9870
▁spegel	-9871
▁teorin	-9872
▁uppror	-9873
▁angrepp	-9874
▁fotogra	-9875
▁mission	-9876
▁molekyl	-9877
▁primära	-9878
▁ställde	-9879
inklusive	-9880
▁erkänner	-9881
▁föräldra	-9882
▁olagligt	-9883
▁skräddar	-9884
▁stjärnan	-9885
▁omedelbar	-9886
▁resenärer	-9887
▁historiskt	-9888
▁insättning	-9889
▁programmen	-9890
▁anställning	-9891
▁antibiotika	-9892
▁huvudstaden	-9893
▁presidenten	-9894
▁industriella	-9895
EK	-9896
ias	-9897
kna	-9898
mma	-9899
▁>>	-9900
▁AL	-9901
▁mi	-9902
atar	-9903
brid	-9904
ilia	-9905
▁900	-9906
▁Cir	-9907
▁Lim	-9908
▁Put	-9909
▁Tel	-9910
▁che	-9911
ommun	-9912
rorna	-9913
ulera	-9914
ässig	-9915
▁1994	-9916
▁Jour	-9917
▁Kons	-9918
▁Xbox	-9919
▁from	-9920
▁over	-9921
▁pian	-9922
▁fiber	-9923
▁humor	-9924
▁missa	-9925
▁söner	-9926
▁jobbat	-9927
▁korrup	-9928
▁termer	-9929
institut	-9930
▁Netflix	-9931
▁benägna	-9932
▁kasinon	-9933
▁läkaren	-9934
▁pojkvän	-9935
isationen	-9936
▁aktivera	-9937
▁definieras	-9938
▁tjänstemän	-9939
▁ansökningar	-9940
▁arbetsplats	-9941
▁förbindelser	-9942
EEG	-9943
bul	-9944
ges	-9945
ysi	-9946
▁CS	-9947
Alla	-9948
ding	-9949
hera	-9950
mail	-9951
oler	-9952
olja	-9953
stan	-9954
urgi	-9955
äste	-9956
▁Por	-9957
▁Sak	-9958
▁emo	-9959
▁gli	-9960
acker	-9961
klass	-9962
råden	-9963
varon	-9964
▁..."	-9965
▁...”	-9966
▁Arch	-9967
▁Lyss	-9968
▁Stan	-9969
▁free	-9970
▁satt	-9971
▁spek	-9972
▁torg	-9973
ranter	-9974
▁Kinas	-9975
▁hyper	-9976
▁väcka	-9977
lagning	-9978
▁leende	-9979
▁ningen	-9980
▁return	-9981
▁sökmot	-9982
▁affären	-9983
▁bredare	-9984
▁insulin	-9985
▁närmast	-9986
▁progres	-9987
▁ssystem	-9988
▁tidning	-9989
▁trender	-9990
frikanska	-9991
▁modifier	-9992
▁möjligen	-9993
▁sexuellt	-9994
▁stränder	-9995
▁experimen	-9996
▁favoriter	-9997
▁stationer	-9998
▁användbara	-9999
▁medelstora	-10000
▁sjuksköter	-10001
▁Webbplatsen	-10002
▁forskningen	-10003
▁potentiellt	-10004
▁principerna	-10005
▁utvecklades	-10006
▁universitets	-10007
1.	-10008
gna	-10009
ids	-10010
▁56	-10011
▁57	-10012
▁By	-10013
icer	-10014
onto	-10015
plet	-10016
vern	-10017
▁1,5	-10018
▁Cru	-10019
▁Hör	-10020
▁Let	-10021
▁mys	-10022
▁web	-10023
ilegi	-10024
▁Mill	-10025
▁påpe	-10026
▁upps	-10027
▁utro	-10028
stiskt	-10029
▁Låter	-10030
▁Scott	-10031
▁black	-10032
▁canna	-10033
▁högra	-10034
▁löper	-10035
▁tvung	-10036
▁Donald	-10037
▁allier	-10038
▁föresp	-10039
▁galler	-10040
▁krista	-10041
▁skedde	-10042
▁tilläg	-10043
funktion	-10044
▁klickar	-10045
▁standar	-10046
▁Industri	-10047
▁hänvisar	-10048
▁utmärkel	-10049
▁därigenom	-10050
▁expansion	-10051
▁tillträde	-10052
▁behörighet	-10053
▁samhällets	-10054
▁operativsystem	-10055
ämn	-10056
▁(”	-10057
▁<3	-10058
▁Tv	-10059
▁2,5	-10060
▁Ara	-10061
▁Bed	-10062
▁Inn	-10063
▁Law	-10064
▁Ret	-10065
▁bot	-10066
▁böj	-10067
▁chi	-10068
▁ödm	-10069
adens	-10070
anskt	-10071
▁färd	-10072
▁kyck	-10073
▁vana	-10074
▁Honom	-10075
▁antas	-10076
▁blott	-10077
▁båtar	-10078
▁cerem	-10079
▁Beskri	-10080
▁Disney	-10081
▁Mindre	-10082
▁assist	-10083
▁faktur	-10084
▁fyllda	-10085
▁insikt	-10086
▁menade	-10087
▁primär	-10088
▁tenden	-10089
▁välfär	-10090
▁västra	-10091
resultat	-10092
▁konsult	-10093
▁servrar	-10094
▁starten	-10095
▁variera	-10096
▁bildades	-10097
▁kallades	-10098
▁läggning	-10099
▁orienter	-10100
▁palestin	-10101
▁undviker	-10102
▁uppehåll	-10103
▁översikt	-10104
▁platserna	-10105
▁virtuella	-10106
▁betydelsen	-10107
▁kongressen	-10108
▁smartphone	-10109
▁specialist	-10110
▁beträffande	-10111
▁fullständiga	-10112
▁mobiltelefon	-10113
▁översättning	-10114
BS	-10115
ah	-10116
mes	-10117
nie	-10118
pot	-10119
tex	-10120
åta	-10121
▁Ki	-10122
glöm	-10123
resa	-10124
sung	-10125
värk	-10126
ären	-10127
▁Act	-10128
▁Mur	-10129
▁VPN	-10130
▁asi	-10131
▁opp	-10132
▁Lake	-10133
▁Lätt	-10134
▁blöd	-10135
▁dyrt	-10136
▁fixa	-10137
▁förp	-10138
▁kass	-10139
▁loss	-10140
▁revi	-10141
▁skru	-10142
▁vild	-10143
vilegi	-10144
▁Carol	-10145
▁Event	-10146
▁Steve	-10147
▁benen	-10148
▁byggd	-10149
▁Håller	-10150
▁borger	-10151
▁diktat	-10152
▁singel	-10153
▁distans	-10154
▁elektri	-10155
▁energin	-10156
▁humanit	-10157
▁monster	-10158
▁avslutas	-10159
▁glasögon	-10160
▁korrekta	-10161
▁kunskaps	-10162
▁måltider	-10163
▁passerar	-10164
▁upptagen	-10165
▁gärningar	-10166
▁sällsynta	-10167
▁dokumentet	-10168
▁fördelning	-10169
▁meditation	-10170
▁strukturen	-10171
▁underhålls	-10172
▁varumärket	-10173
▁graviditeten	-10174
▁introduktion	-10175
▁offentliggör	-10176
▁programvaran	-10177
TM	-10178
Och	-10179
nät	-10180
▁BM	-10181
▁SP	-10182
posi	-10183
▁10-	-10184
▁188	-10185
▁Cra	-10186
▁sär	-10187
▁tob	-10188
▁Hjär	-10189
▁Läng	-10190
▁Nytt	-10191
tjänst	-10192
▁Exper	-10193
▁Music	-10194
▁Press	-10195
▁Space	-10196
▁okänd	-10197
▁sända	-10198
▁ultra	-10199
▁varan	-10200
uminium	-10201
▁Totalt	-10202
▁bjuder	-10203
▁klagar	-10204
▁rabatt	-10205
▁scenar	-10206
▁teamet	-10207
▁webben	-10208
rationen	-10209
▁Bryssel	-10210
▁ackredi	-10211
▁allergi	-10212
▁klinisk	-10213
▁musikal	-10214
▁troligt	-10215
▁förtryck	-10216
▁kalender	-10217
▁medvetet	-10218
▁sprogram	-10219
▁återstår	-10220
verantörer	-10221
▁godkänner	-10222
▁händelsen	-10223
▁tillskott	-10224
▁fungerande	-10225
▁inträffade	-10226
▁kompletter	-10227
▁upphandling	-10228
9)	-10229
rut	-10230
▁TH	-10231
▁ps	-10232
ilja	-10233
▁Mem	-10234
▁Sha	-10235
▁tör	-10236
ights	-10237
lerna	-10238
▁Haha	-10239
▁Ring	-10240
▁Stöd	-10241
▁Wood	-10242
▁byte	-10243
▁likt	-10244
▁ment	-10245
▁mill	-10246
▁syre	-10247
▁tret	-10248
▁Louis	-10249
▁foder	-10250
▁läger	-10251
▁Visste	-10252
▁besökt	-10253
▁bolags	-10254
▁gifter	-10255
▁intern	-10256
▁klocka	-10257
▁löften	-10258
▁rätter	-10259
▁sjätte	-10260
▁såvida	-10261
▁Airport	-10262
▁Samsung	-10263
▁beräkna	-10264
▁influen	-10265
▁skrivet	-10266
▁strider	-10267
▁strävan	-10268
▁Forskare	-10269
▁beslutat	-10270
▁felaktig	-10271
▁förmågor	-10272
▁godkända	-10273
▁ingenjör	-10274
▁reglering	-10275
▁definition	-10276
▁israeliska	-10277
▁landskapet	-10278
▁läkemedlet	-10279
▁tillgången	-10280
▁förbehåller	-10281
▁traditioner	-10282
▁journalister	-10283
eff	-10284
ory	-10285
▁54	-10286
▁DU	-10287
▁EM	-10288
▁GD	-10289
▁IF	-10290
▁PD	-10291
▁qu	-10292
cket	-10293
jörn	-10294
▁Dar	-10295
▁Mis	-10296
▁dop	-10297
▁lat	-10298
▁mem	-10299
▁äpp	-10300
emier	-10301
ällor	-10302
▁Djur	-10303
▁Food	-10304
▁astr	-10305
▁gård	-10306
▁mätt	-10307
▁paus	-10308
ändska	-10309
▁Defin	-10310
▁Lämna	-10311
▁horis	-10312
▁kosta	-10313
▁sköld	-10314
▁stöds	-10315
▁sätts	-10316
▁tvist	-10317
▁schema	-10318
▁Intress	-10319
▁diagram	-10320
▁utsätts	-10321
▁flexibla	-10322
▁utgångsp	-10323
sättningen	-10324
▁diagnosti	-10325
▁livslängd	-10326
▁ordningen	-10327
▁privilegi	-10328
▁registret	-10329
▁omfattning	-10330
▁stjärnorna	-10331
▁väsentliga	-10332
▁destination	-10333
4]	-10334
AL	-10335
ty	-10336
ås	-10337
hen	-10338
sål	-10339
ves	-10340
▁52	-10341
▁77	-10342
▁98	-10343
▁CE	-10344
▁FB	-10345
▁Yo	-10346
▁gn	-10347
slen	-10348
uden	-10349
▁Bob	-10350
▁Cup	-10351
▁rna	-10352
parts	-10353
▁Bost	-10354
▁Comp	-10355
▁Gran	-10356
▁Lund	-10357
▁iser	-10358
▁rosa	-10359
▁your	-10360
cation	-10361
▁Human	-10362
▁Nedan	-10363
▁Olika	-10364
▁båten	-10365
▁coach	-10366
▁fakul	-10367
▁halva	-10368
▁oskyl	-10369
▁pekar	-10370
▁storm	-10371
ktligen	-10372
▁Föräld	-10373
▁Namnet	-10374
▁Senare	-10375
▁högtal	-10376
▁parall	-10377
▁realis	-10378
▁sensor	-10379
▁välgör	-10380
delserna	-10381
sterande	-10382
▁erfarna	-10383
▁kronisk	-10384
▁kundens	-10385
▁manliga	-10386
▁massage	-10387
▁radikal	-10388
▁statens	-10389
▁besviken	-10390
▁koncentr	-10391
▁mjukvara	-10392
▁transpar	-10393
▁Sanningen	-10394
▁kampanjen	-10395
▁lojalitet	-10396
▁relaterad	-10397
▁tillbring	-10398
▁återvände	-10399
▁Foundation	-10400
▁relationen	-10401
▁begränsning	-10402
▁effektiviteten	-10403
ji	-10404
jo	-10405
ÄR	-10406
Att	-10407
bai	-10408
bäv	-10409
itz	-10410
▁**	-10411
▁”?	-10412
ckor	-10413
ktad	-10414
▁186	-10415
▁Ann	-10416
▁EUR	-10417
▁Syn	-10418
▁dal	-10419
▁osv	-10420
▁Back	-10421
▁Förb	-10422
▁Golf	-10423
▁Part	-10424
▁Rest	-10425
▁döma	-10426
▁eleg	-10427
▁insi	-10428
▁mats	-10429
▁tatu	-10430
atiskt	-10431
▁Chris	-10432
▁Rådet	-10433
▁Skott	-10434
▁Tiden	-10435
▁ernas	-10436
▁galen	-10437
▁vuxit	-10438
▁Anders	-10439
▁bespar	-10440
▁glömde	-10441
▁ljudet	-10442
▁mörker	-10443
▁njuter	-10444
▁reserv	-10445
▁rimlig	-10446
▁sinnen	-10447
▁själar	-10448
▁snygga	-10449
▁vinkel	-10450
atoriska	-10451
sledande	-10452
▁Förhopp	-10453
▁husdjur	-10454
▁körning	-10455
▁maximal	-10456
▁missför	-10457
▁varning	-10458
▁symboler	-10459
▁vinnande	-10460
▁Alexander	-10461
▁Projektet	-10462
▁begränsas	-10463
▁strategin	-10464
▁företagare	-10465
▁konvention	-10466
▁möjliggöra	-10467
▁regeringar	-10468
▁slutsatser	-10469
▁åstadkomma	-10470
▁företrädare	-10471
▁regeringens	-10472
▁värdepapper	-10473
▁konsekvenserna	-10474
IP	-10475
zi	-10476
ili	-10477
omo	-10478
vad	-10479
▁Dy	-10480
inst	-10481
otyp	-10482
▁50%	-10483
▁Bla	-10484
▁She	-10485
faren	-10486
▁Game	-10487
▁bron	-10488
▁kaos	-10489
▁plas	-10490
▁stry	-10491
▁taxi	-10492
▁tech	-10493
▁tele	-10494
▁tion	-10495
▁Poker	-10496
▁agent	-10497
▁logga	-10498
▁slåss	-10499
▁troll	-10500
ängning	-10501
▁Gratis	-10502
▁duktig	-10503
▁hästen	-10504
▁kasino	-10505
▁släppt	-10506
▁Östers	-10507
fikation	-10508
sområdet	-10509
▁billigt	-10510
▁torsdag	-10511
industrin	-10512
▁skapande	-10513
▁tolkning	-10514
▁utmärkta	-10515
▁bedrägeri	-10516
▁gudomliga	-10517
▁muslimska	-10518
▁strålning	-10519
▁tävlingar	-10520
▁lägenheten	-10521
▁studerande	-10522
▁näringsämnen	-10523
▁uppmärksamma	-10524
▁överraskning	-10525
▁förhoppningsvis	-10526
4)	-10527
inf	-10528
ios	-10529
wan	-10530
▁9,	-10531
▁Ox	-10532
▁nä	-10533
iken	-10534
rass	-10535
ugal	-10536
▁Fok	-10537
▁Tru	-10538
▁gul	-10539
▁kab	-10540
▁kla	-10541
▁klä	-10542
▁tyg	-10543
▁Cook	-10544
▁Fire	-10545
▁Mose	-10546
▁Röda	-10547
▁föda	-10548
▁imma	-10549
▁trum	-10550
▁check	-10551
▁heder	-10552
▁menyn	-10553
▁märka	-10554
ängande	-10555
▁nybörj	-10556
▁strids	-10557
▁studio	-10558
▁talang	-10559
▁Christi	-10560
▁Express	-10561
▁General	-10562
▁bokning	-10563
▁dödliga	-10564
▁helvete	-10565
▁komprom	-10566
▁kritisk	-10567
▁trettio	-10568
▁ansluter	-10569
▁hemsidan	-10570
▁misstänk	-10571
▁religiös	-10572
▁upprätta	-10573
▁yttersta	-10574
▁fastighet	-10575
▁fortsatta	-10576
▁matematik	-10577
▁mottagare	-10578
▁utbildade	-10579
▁amerikaner	-10580
▁frivilliga	-10581
▁inblandade	-10582
▁kandidater	-10583
▁synpunkter	-10584
▁tredjeland	-10585
▁överlevnad	-10586
▁Universitet	-10587
▁bedömningen	-10588
▁implementer	-10589
▁mänsklighet	-10590
▁registrerar	-10591
▁föreskrifter	-10592
▁individuellt	-10593
▁koncentration	-10594
11	-10595
skv	-10596
▁("	-10597
▁6-	-10598
eger	-10599
itor	-10600
oney	-10601
▁30-	-10602
▁MBA	-10603
▁gum	-10604
▁lar	-10605
gorit	-10606
seled	-10607
tabel	-10608
▁Bond	-10609
▁Fisk	-10610
▁Igår	-10611
▁ball	-10612
▁bana	-10613
▁beak	-10614
▁fasc	-10615
arater	-10616
▁ifall	-10617
▁kedja	-10618
▁krypt	-10619
▁nämns	-10620
▁stift	-10621
gruppen	-10622
utsläpp	-10623
▁Beslut	-10624
▁Lyssna	-10625
▁belägg	-10626
▁bränna	-10627
▁skadad	-10628
▁skapel	-10629
▁träder	-10630
▁åldrar	-10631
▁godkänt	-10632
▁konsert	-10633
▁kontant	-10634
▁ledaren	-10635
såtgärder	-10636
▁bindande	-10637
▁engagera	-10638
▁klimatet	-10639
▁kompisar	-10640
▁Hollywood	-10641
▁President	-10642
▁förutsatt	-10643
▁konceptet	-10644
▁tilldelas	-10645
▁Regeringen	-10646
▁atmosfären	-10647
▁invandrare	-10648
▁långsiktigt	-10649
▁temperaturen	-10650
2.	-10651
Är	-10652
obe	-10653
uss	-10654
väx	-10655
▁GB	-10656
▁It	-10657
▁[2	-10658
▁”)	-10659
ttis	-10660
▁Jak	-10661
▁Lee	-10662
▁Nic	-10663
▁Sym	-10664
▁enz	-10665
▁lam	-10666
bered	-10667
stein	-10668
▁Marx	-10669
▁möts	-10670
▁pack	-10671
▁plån	-10672
▁tomt	-10673
outube	-10674
strera	-10675
▁Borde	-10676
▁Brand	-10677
▁Engel	-10678
▁Excel	-10679
▁abonn	-10680
▁armar	-10681
▁himla	-10682
▁intui	-10683
▁lugna	-10684
▁magen	-10685
▁regis	-10686
▁runda	-10687
▁Hitler	-10688
▁absorb	-10689
▁action	-10690
▁slagen	-10691
▁strikt	-10692
▁vägled	-10693
▁väntas	-10694
▁Ungefär	-10695
▁bonusar	-10696
▁grannar	-10697
▁paramet	-10698
▁tystnad	-10699
▁uppgick	-10700
▁Förenade	-10701
▁densamma	-10702
▁designen	-10703
▁entusias	-10704
▁framöver	-10705
▁förmedla	-10706
▁inhemska	-10707
▁redigera	-10708
▁vänligen	-10709
▁användbar	-10710
▁arbetsdag	-10711
▁kostnadse	-10712
▁rengöring	-10713
▁uppgiften	-10714
▁vackraste	-10715
▁granskning	-10716
▁känslighet	-10717
▁landsbygden	-10718
▁identifierar	-10719
fé	-10720
cal	-10721
oom	-10722
▁ph	-10723
arth	-10724
fron	-10725
stin	-10726
▁Rec	-10727
▁Sus	-10728
▁car	-10729
issar	-10730
ittle	-10731
unter	-10732
▁Mars	-10733
▁Wars	-10734
▁beva	-10735
▁iskt	-10736
▁sfär	-10737
▁smäl	-10738
untain	-10739
▁Clint	-10740
▁Major	-10741
▁River	-10742
▁Satan	-10743
▁antik	-10744
▁fåtal	-10745
▁given	-10746
▁intet	-10747
▁litar	-10748
▁omgiv	-10749
▁sakta	-10750
▁subst	-10751
▁tales	-10752
▁tröst	-10753
▁tåget	-10754
▁Jämför	-10755
▁Region	-10756
▁Spelet	-10757
▁hamnen	-10758
▁inslag	-10759
▁stipen	-10760
▁testet	-10761
ditioner	-10762
▁Koranen	-10763
▁aktuell	-10764
▁deklara	-10765
▁direkta	-10766
▁gatorna	-10767
▁varorna	-10768
▁klänning	-10769
▁Nordkorea	-10770
▁intensiva	-10771
▁kunskapen	-10772
▁åtaganden	-10773
▁framtidens	-10774
▁föreställa	-10775
▁sanktioner	-10776
▁uppdaterad	-10777
▁upplösning	-10778
▁utmaningen	-10779
▁Amerikanska	-10780
▁Nordamerika	-10781
▁effektivare	-10782
▁komplettera	-10783
▁närliggande	-10784
▁definitionen	-10785
▁diskussioner	-10786
▁eftermiddagen	-10787
1)	-10788
II	-10789
RS	-10790
TT	-10791
ING	-10792
fam	-10793
ols	-10794
▁Ku	-10795
fton	-10796
ovår	-10797
rang	-10798
vard	-10799
även	-10800
▁(2)	-10801
▁How	-10802
▁agg	-10803
▁lög	-10804
▁näs	-10805
▁spa	-10806
▁vul	-10807
natur	-10808
pnade	-10809
ström	-10810
sätta	-10811
▁1993	-10812
▁Komp	-10813
▁Norm	-10814
▁eder	-10815
▁gavs	-10816
▁kull	-10817
▁line	-10818
▁sköt	-10819
▁Anled	-10820
▁Enter	-10821
▁Skall	-10822
▁ankny	-10823
▁befäl	-10824
▁fyllt	-10825
▁körde	-10826
▁laser	-10827
▁lösas	-10828
▁reson	-10829
▁simma	-10830
▁sökte	-10831
▁överv	-10832
▁Invest	-10833
▁Singap	-10834
▁fallen	-10835
▁finska	-10836
▁graden	-10837
▁lockar	-10838
▁opposi	-10839
▁ringde	-10840
▁sköter	-10841
▁trygga	-10842
▁värmen	-10843
antation	-10844
▁Medelha	-10845
▁Project	-10846
▁mentala	-10847
▁stunder	-10848
▁ytterst	-10849
▁balansen	-10850
▁exemplar	-10851
▁meddelar	-10852
▁miljövän	-10853
▁minimera	-10854
▁Vetenskap	-10855
▁begränsar	-10856
▁uppskatta	-10857
▁utnyttjar	-10858
▁utrustade	-10859
▁omsättning	-10860
▁överstiger	-10861
▁fastställas	-10862
▁underliggande	-10863
▁£	-10864
osa	-10865
sey	-10866
une	-10867
åne	-10868
▁53	-10869
▁58	-10870
▁67	-10871
▁cl	-10872
fici	-10873
opro	-10874
ript	-10875
ågar	-10876
▁12.	-10877
▁Bek	-10878
juden	-10879
sdags	-10880
ötter	-10881
▁bubb	-10882
▁kemi	-10883
▁pist	-10884
höriga	-10885
▁2020.	-10886
▁Huset	-10887
▁begra	-10888
▁hands	-10889
▁karta	-10890
▁kogni	-10891
▁reste	-10892
▁slots	-10893
▁varar	-10894
▁väsen	-10895
▁Handel	-10896
▁Valley	-10897
▁farlig	-10898
▁kontot	-10899
▁palats	-10900
▁samråd	-10901
▁spring	-10902
▁summan	-10903
▁änglar	-10904
läggning	-10905
▁Belgien	-10906
▁Förbätt	-10907
▁drömmen	-10908
▁emellan	-10909
▁extrema	-10910
▁motsats	-10911
▁släppte	-10912
▁ärenden	-10913
▁hantverk	-10914
▁importer	-10915
▁separata	-10916
▁tillåtna	-10917
▁eliminera	-10918
▁grupperna	-10919
▁integrera	-10920
▁kärnkraft	-10921
▁uttrycker	-10922
▁användbart	-10923
▁bakgrunden	-10924
▁förlängning	-10925
▁huvudkontor	-10926
▁meddelandet	-10927
▁förändringen	-10928
dh	-10929
oti	-10930
umb	-10931
▁"-	-10932
▁72	-10933
▁AM	-10934
▁Ap	-10935
▁FA	-10936
▁Vo	-10937
gjor	-10938
roke	-10939
▁Ill	-10940
▁Kra	-10941
▁McC	-10942
▁Psy	-10943
▁SEK	-10944
▁Sel	-10945
amman	-10946
eliga	-10947
itera	-10948
▁Kong	-10949
▁Tele	-10950
▁Upps	-10951
▁rest	-10952
▁vakt	-10953
gjorde	-10954
roppar	-10955
tament	-10956
▁Anton	-10957
▁Autom	-10958
▁grepp	-10959
▁viner	-10960
jänster	-10961
▁Bridge	-10962
▁Kyrkan	-10963
▁Snälla	-10964
▁bussen	-10965
▁katten	-10966
▁koloni	-10967
▁koppar	-10968
▁kännas	-10969
▁mandat	-10970
▁mental	-10971
▁samvet	-10972
▁livstid	-10973
▁miljard	-10974
▁speglar	-10975
▁tvungna	-10976
▁Rekommen	-10977
▁konserva	-10978
▁kungarik	-10979
▁täckning	-10980
▁välkända	-10981
▁respekter	-10982
▁tabletter	-10983
▁definierar	-10984
▁långsiktig	-10985
▁respektera	-10986
▁Lyckligtvis	-10987
▁marknaderna	-10988
▁ovanstående	-10989
▁tillståndet	-10990
NP	-10991
auf	-10992
hyr	-10993
lim	-10994
▁.»	-10995
▁DC	-10996
▁Lö	-10997
▁ke	-10998
cean	-10999
hamn	-11000
ityd	-11001
ktik	-11002
mhär	-11003
ston	-11004
vtal	-11005
ylor	-11006
▁Ari	-11007
▁DVD	-11008
▁Fly	-11009
▁Gem	-11010
▁LED	-11011
▁Lar	-11012
▁Lös	-11013
▁Nov	-11014
▁Rog	-11015
▁nag	-11016
▁Bäst	-11017
▁assi	-11018
▁gris	-11019
▁hörs	-11020
▁nark	-11021
▁skör	-11022
▁trop	-11023
▁tros	-11024
skydds	-11025
stolen	-11026
▁Cloud	-11027
▁Jones	-11028
▁Multi	-11029
▁avska	-11030
▁dansa	-11031
▁svaga	-11032
▁såhär	-11033
▁ämnes	-11034
esterol	-11035
▁Bestäm	-11036
▁Deltag	-11037
▁campus	-11038
▁kändis	-11039
▁märken	-11040
▁riktar	-11041
▁varian	-11042
▁videor	-11043
▁ärligt	-11044
usentals	-11045
▁beaktas	-11046
▁beläget	-11047
▁elektro	-11048
▁kameror	-11049
▁löpande	-11050
▁reprodu	-11051
▁röstade	-11052
▁Australi	-11053
▁Portugal	-11054
▁bekymmer	-11055
▁debatten	-11056
▁demokrat	-11057
▁filmerna	-11058
▁förplikt	-11059
▁hittades	-11060
▁motverka	-11061
▁signifik	-11062
▁aluminium	-11063
▁felaktigt	-11064
▁förfrågan	-11065
▁historisk	-11066
▁inkomster	-11067
▁samverkan	-11068
▁snabbaste	-11069
▁Resultaten	-11070
▁dokumenter	-11071
▁engagerade	-11072
▁konstnärer	-11073
▁strategisk	-11074
▁innovations	-11075
▁palestinska	-11076
▁restaurangen	-11077
▁utställningar	-11078
3)	-11079
5]	-11080
ain	-11081
gisk	-11082
kong	-11083
yder	-11084
▁FÖR	-11085
▁Kal	-11086
▁Ker	-11087
▁May	-11088
▁Spi	-11089
▁Str	-11090
▁nar	-11091
▁top	-11092
arken	-11093
trera	-11094
▁Dist	-11095
▁Mall	-11096
▁Mosk	-11097
▁Okej	-11098
▁entr	-11099
▁mild	-11100
▁slav	-11101
▁time	-11102
▁with	-11103
▁2009.	-11104
▁Henry	-11105
▁Radio	-11106
▁Simon	-11107
▁ackum	-11108
▁bränn	-11109
▁byter	-11110
▁skade	-11111
▁villa	-11112
▁Ekonom	-11113
▁Innova	-11114
▁bokstä	-11115
▁extern	-11116
▁fransk	-11117
▁hjärts	-11118
▁konung	-11119
▁krasch	-11120
▁stenar	-11121
▁stängt	-11122
▁uppger	-11123
▁vinden	-11124
▁volont	-11125
▁Vietnam	-11126
▁behoven	-11127
▁längden	-11128
▁motorer	-11129
▁realtid	-11130
▁skapats	-11131
▁terrori	-11132
▁utbetal	-11133
▁vittnen	-11134
▁överläm	-11135
▁flickvän	-11136
▁hälsovår	-11137
▁indirekt	-11138
▁juridisk	-11139
▁månaders	-11140
▁obegräns	-11141
▁workshop	-11142
▁arbetarna	-11143
▁värdefull	-11144
▁motivation	-11145
▁personerna	-11146
▁slutsatsen	-11147
▁Författaren	-11148
▁bearbetning	-11149
▁interaktion	-11150
▁medborgarskap	-11151
▁representanter	-11152
▁68	-11153
▁Ep	-11154
bour	-11155
oppa	-11156
ovas	-11157
tage	-11158
▁Bul	-11159
▁can	-11160
▁lås	-11161
▁pin	-11162
▁sci	-11163
▁tav	-11164
▁Call	-11165
▁Dead	-11166
▁Leon	-11167
▁Vara	-11168
▁lant	-11169
▁skåp	-11170
▁torn	-11171
nämnda	-11172
skrift	-11173
▁Brown	-11174
▁Steph	-11175
▁arkiv	-11176
▁präst	-11177
▁simul	-11178
▁tappa	-11179
▁torka	-11180
▁växel	-11181
delarna	-11182
▁Joseph	-11183
▁kolhyd	-11184
▁missat	-11185
▁störst	-11186
▁syskon	-11187
▁tackar	-11188
▁tränar	-11189
▁åtanke	-11190
▁belägen	-11191
▁föraren	-11192
▁härligt	-11193
▁inställ	-11194
▁istiska	-11195
▁lagligt	-11196
▁stärker	-11197
▁synliga	-11198
▁bidragit	-11199
▁fartyget	-11200
▁festival	-11201
▁webbsida	-11202
▁ökningen	-11203
plantation	-11204
▁beteenden	-11205
▁samarbets	-11206
▁verktyget	-11207
▁Technology	-11208
▁konsekvens	-11209
▁uttryckligen	-11210
▁utställningen	-11211
▁rekommenderade	-11212
2)	-11213
SK	-11214
kr	-11215
bro	-11216
eri	-11217
kär	-11218
owe	-11219
uba	-11220
åld	-11221
▁04	-11222
▁MT	-11223
▁PL	-11224
▁SD	-11225
▁Ve	-11226
cium	-11227
kron	-11228
olen	-11229
vidd	-11230
vien	-11231
weet	-11232
▁Cle	-11233
▁Deb	-11234
▁Edu	-11235
▁Ell	-11236
▁Fir	-11237
▁Squ	-11238
▁piz	-11239
ative	-11240
ensin	-11241
▁Jean	-11242
▁coll	-11243
▁flod	-11244
▁fukt	-11245
▁oliv	-11246
▁pump	-11247
▁åtal	-11248
sterar	-11249
▁1900-	-11250
▁2010.	-11251
▁Tryck	-11252
▁allas	-11253
▁armen	-11254
▁freds	-11255
▁hamna	-11256
▁ombud	-11257
▁tårar	-11258
▁väger	-11259
▁våldt	-11260
arklass	-11261
mhärtig	-11262
uppgift	-11263
▁......	-11264
▁anmärk	-11265
▁biskop	-11266
▁förvån	-11267
▁krävde	-11268
▁proffs	-11269
olutions	-11270
skningar	-11271
▁jordbäv	-11272
▁kopplad	-11273
▁kretsar	-11274
▁lämnats	-11275
▁slottet	-11276
spartners	-11277
sättnings	-11278
▁digitalt	-11279
▁drabbats	-11280
▁federala	-11281
▁konkreta	-11282
▁skyddade	-11283
▁efterfölj	-11284
▁fungerade	-11285
▁kategorin	-11286
▁terrorist	-11287
▁årtionden	-11288
▁Vanligtvis	-11289
▁prestation	-11290
▁fastställts	-11291
▁genomfördes	-11292
▁kommersiell	-11293
▁underlättar	-11294
▁generationen	-11295
▁entreprenörer	-11296
▁programmering	-11297
5)	-11298
50	-11299
6]	-11300
cs	-11301
mad	-11302
rea	-11303
▁78	-11304
▁AV	-11305
▁Hi	-11306
▁SM	-11307
gern	-11308
skåp	-11309
ätts	-11310
▁Gol	-11311
▁Kam	-11312
▁Rör	-11313
▁SEO	-11314
▁Sub	-11315
▁Tab	-11316
▁tes	-11317
attle	-11318
etisk	-11319
niens	-11320
uropa	-11321
▁Erik	-11322
▁mage	-11323
▁osyn	-11324
▁ägna	-11325
heimer	-11326
▁1800-	-11327
▁2008.	-11328
▁Köpen	-11329
▁Vänta	-11330
▁flott	-11331
▁galax	-11332
▁juris	-11333
▁kross	-11334
▁suver	-11335
▁torra	-11336
▁tvill	-11337
▁årlig	-11338
ikation	-11339
sterdam	-11340
▁Föränd	-11341
▁Kunden	-11342
▁kosmet	-11343
▁skadar	-11344
▁visdom	-11345
påverkan	-11346
▁Villkor	-11347
▁barnens	-11348
▁befogen	-11349
▁dödades	-11350
▁harmoni	-11351
▁judarna	-11352
▁redskap	-11353
▁solidar	-11354
▁styrkan	-11355
▁säljare	-11356
▁upphöra	-11357
▁varelse	-11358
olkningen	-11359
ustration	-11360
▁Hotellet	-11361
▁Services	-11362
▁behåller	-11363
▁bildning	-11364
▁centralt	-11365
▁försäkra	-11366
▁kanadens	-11367
▁klassisk	-11368
▁krävande	-11369
▁våningen	-11370
▁Uppgifter	-11371
▁definiera	-11372
▁evolution	-11373
▁huvudvärk	-11374
▁storlekar	-11375
▁terrorism	-11376
▁Skillnaden	-11377
▁blodsocker	-11378
▁detaljerad	-11379
▁operatörer	-11380
▁samordning	-11381
▁förutsätter	-11382
▁regelbunden	-11383
▁befogenheter	-11384
▁distributions	-11385
▁dokumentation	-11386
alj	-11387
hai	-11388
jön	-11389
▁MA	-11390
▁Ya	-11391
agne	-11392
alys	-11393
aria	-11394
napp	-11395
ords	-11396
▁Cal	-11397
▁Cat	-11398
▁Kir	-11399
▁Lux	-11400
▁Mak	-11401
antin	-11402
lines	-11403
▁1989	-11404
▁Prag	-11405
▁fund	-11406
▁high	-11407
▁kalk	-11408
▁lida	-11409
▁låda	-11410
▁utsl	-11411
▁Flick	-11412
▁elden	-11413
▁fäder	-11414
▁koden	-11415
▁mötte	-11416
▁skräp	-11417
service	-11418
▁Dating	-11419
▁Därmed	-11420
▁Justin	-11421
▁Resort	-11422
▁Taylor	-11423
▁besked	-11424
▁fiskar	-11425
▁gående	-11426
▁kravet	-11427
▁lindra	-11428
▁piller	-11429
▁portal	-11430
▁tennis	-11431
▁tisdag	-11432
vationer	-11433
▁Jackson	-11434
▁flickan	-11435
▁horison	-11436
▁hårdare	-11437
▁klubbar	-11438
▁nyfiken	-11439
▁passera	-11440
▁samfund	-11441
▁vaknade	-11442
▁varenda	-11443
▁förstått	-11444
▁tydligen	-11445
▁översväm	-11446
▁telefoner	-11447
▁intervjuer	-11448
▁karaktärer	-11449
▁konflikten	-11450
▁tillverkar	-11451
▁uppgradera	-11452
▁producenter	-11453
▁leverantören	-11454
▁återhämtning	-11455
HO	-11456
PP	-11457
▁76	-11458
▁Ah	-11459
▁Hö	-11460
anch	-11461
▁Tes	-11462
▁Way	-11463
▁fro	-11464
▁1984	-11465
▁1997	-11466
▁Akti	-11467
▁bröt	-11468
▁gest	-11469
▁gula	-11470
▁heta	-11471
▁levt	-11472
▁nöje	-11473
▁raka	-11474
▁sund	-11475
knings	-11476
känsla	-11477
▁Insta	-11478
▁Integ	-11479
▁facil	-11480
▁halvt	-11481
▁ljusa	-11482
▁mötes	-11483
▁panik	-11484
▁schem	-11485
▁tvång	-11486
osteron	-11487
▁cirkel	-11488
▁flödet	-11489
▁lotter	-11490
▁miljöm	-11491
▁slutat	-11492
▁sånger	-11493
▁utfärd	-11494
▁utövar	-11495
▁Använda	-11496
▁Rapport	-11497
▁Uppsala	-11498
▁demonst	-11499
▁förlåta	-11500
▁reagera	-11501
▁sammant	-11502
▁sträcka	-11503
▁tandläk	-11504
▁tvärtom	-11505
▁utbilda	-11506
▁ändrade	-11507
▁överväl	-11508
▁Beroende	-11509
▁Innehåll	-11510
▁Ursprung	-11511
▁brittisk	-11512
▁förvärva	-11513
▁helvetet	-11514
▁kommuner	-11515
▁regleras	-11516
▁spädbarn	-11517
▁vandring	-11518
▁Amsterdam	-11519
▁Palestina	-11520
▁elektrisk	-11521
▁förändrar	-11522
▁innehålls	-11523
▁operativa	-11524
▁aktieägare	-11525
▁inspirerad	-11526
▁religioner	-11527
▁tillämplig	-11528
▁väsentligt	-11529
▁implementera	-11530
▁Kommissionens	-11531
▁arbetsuppgifter	-11532
Ja	-11533
slo	-11534
▁Ak	-11535
▁Tu	-11536
ally	-11537
beth	-11538
enez	-11539
ship	-11540
▁50-	-11541
▁Ash	-11542
▁Eva	-11543
▁Gal	-11544
▁Gri	-11545
▁NAS	-11546
▁Pic	-11547
▁oön	-11548
▁set	-11549
ginal	-11550
merad	-11551
riper	-11552
ttill	-11553
äktig	-11554
▁GDPR	-11555
▁Mike	-11556
▁Wild	-11557
▁auto	-11558
▁bart	-11559
▁låne	-11560
▁smör	-11561
▁svet	-11562
▁säte	-11563
▁ytor	-11564
kulära	-11565
policy	-11566
▁Galax	-11567
▁Linux	-11568
▁Uppda	-11569
▁excep	-11570
▁farma	-11571
▁gifte	-11572
▁plikt	-11573
▁psyko	-11574
▁ränte	-11575
▁synes	-11576
▁åklag	-11577
▁Politi	-11578
▁bussar	-11579
▁dagars	-11580
▁daglig	-11581
▁hunger	-11582
▁hygien	-11583
▁härrör	-11584
▁intera	-11585
▁killen	-11586
▁påstår	-11587
▁samlat	-11588
▁titlar	-11589
▁Önskar	-11590
enskaper	-11591
▁algorit	-11592
▁autonom	-11593
▁drömmer	-11594
▁inbörde	-11595
▁kontors	-11596
▁ledarna	-11597
▁utbrott	-11598
▁Statisti	-11599
▁anländer	-11600
▁berättat	-11601
▁orsakade	-11602
▁rättvist	-11603
▁underlag	-11604
ttillskott	-11605
▁Skottland	-11606
▁dynamiska	-11607
▁tillämpar	-11608
▁inteckning	-11609
▁bekräftelse	-11610
▁departement	-11611
▁integrerade	-11612
▁utställning	-11613
▁äktenskapet	-11614
▁århundradet	-11615
▁återvinning	-11616
▁funktionsned	-11617
▁tillsynsmynd	-11618
▁självständigt	-11619
▁telefonnummer	-11620
▁Förhoppningsvis	-11621
7]	-11622
▁6:	-11623
▁86	-11624
lipp	-11625
uron	-11626
▁10,	-11627
▁Sin	-11628
▁ego	-11629
▁omt	-11630
▁zon	-11631
dirig	-11632
▁Dela	-11633
▁Topp	-11634
▁atom	-11635
▁cirk	-11636
▁cool	-11637
▁knut	-11638
▁leds	-11639
▁varu	-11640
ediker	-11641
staten	-11642
▁Dagen	-11643
▁avstå	-11644
▁chock	-11645
▁sköts	-11646
▁teman	-11647
▁utgår	-11648
citeten	-11649
▁County	-11650
▁Erbjud	-11651
▁Moskva	-11652
▁beakta	-11653
▁klient	-11654
▁norska	-11655
▁spekta	-11656
▁upphov	-11657
▁vätska	-11658
effektiv	-11659
kallande	-11660
▁America	-11661
▁Polisen	-11662
▁akademi	-11663
▁beredda	-11664
▁enskilt	-11665
▁etabler	-11666
▁justera	-11667
▁levnads	-11668
▁modernt	-11669
▁prestig	-11670
▁räddade	-11671
▁tilltal	-11672
▁trailer	-11673
▁vägrade	-11674
▁anslutna	-11675
▁föredrag	-11676
▁förnybar	-11677
▁generera	-11678
▁inlägget	-11679
▁omvandla	-11680
▁operatör	-11681
▁skrattar	-11682
▁verifier	-11683
▁åtagande	-11684
▁Forskarna	-11685
▁Singapore	-11686
▁branscher	-11687
▁moraliska	-11688
▁siffrorna	-11689
▁stimulera	-11690
▁antagligen	-11691
▁förlåtelse	-11692
▁incitament	-11693
▁nationellt	-11694
▁påståenden	-11695
▁undersöker	-11696
▁Anledningen	-11697
▁berättigade	-11698
▁geografiska	-11699
▁uteslutande	-11700
▁församlingen	-11701
irl	-11702
jöt	-11703
xit	-11704
▁0.	-11705
▁8:	-11706
▁Ci	-11707
▁Nå	-11708
▁Of	-11709
▁hi	-11710
anns	-11711
bell	-11712
llad	-11713
▁Est	-11714
▁Pek	-11715
▁cyk	-11716
▁kus	-11717
▁new	-11718
östra	-11719
▁arke	-11720
▁bund	-11721
▁elev	-11722
▁kejs	-11723
▁läsk	-11724
▁nyss	-11725
▁sänk	-11726
skynda	-11727
▁2011.	-11728
▁Elekt	-11729
▁Jakob	-11730
▁abort	-11731
▁manus	-11732
▁mörkt	-11733
▁nådde	-11734
▁paret	-11735
▁rejäl	-11736
▁stuga	-11737
▁styrs	-11738
▁summa	-11739
▁synen	-11740
▁tagen	-11741
▁anmäla	-11742
▁fattas	-11743
▁förfog	-11744
▁kapten	-11745
▁likvär	-11746
▁notera	-11747
▁numret	-11748
▁själen	-11749
▁stroke	-11750
▁ställt	-11751
▁turism	-11752
▁utspel	-11753
fattning	-11754
▁Partner	-11755
▁erhålla	-11756
▁hävdade	-11757
▁manipul	-11758
▁metabol	-11759
▁prognos	-11760
▁smärtan	-11761
▁typiskt	-11762
▁Administ	-11763
▁blockera	-11764
▁ersätter	-11765
▁konfigur	-11766
▁likadant	-11767
▁optimera	-11768
▁påskynda	-11769
▁satellit	-11770
▁utsläpps	-11771
▁överförs	-11772
verksamhet	-11773
yndigheten	-11774
▁mätningar	-11775
▁omgivande	-11776
▁sjukvårds	-11777
▁tidningar	-11778
konditioner	-11779
▁förbättrad	-11780
▁församling	-11781
▁försvunnit	-11782
▁journalist	-11783
▁lanserades	-11784
▁hastigheten	-11785
▁preferenser	-11786
▁århundraden	-11787
▁finansierings	-11788
dik	-11789
iki	-11790
ota	-11791
ria	-11792
sic	-11793
unk	-11794
ärt	-11795
▁(6	-11796
▁Gh	-11797
▁Ok	-11798
▁je	-11799
agan	-11800
iana	-11801
ille	-11802
umma	-11803
unna	-11804
ägge	-11805
▁13.	-11806
▁Cli	-11807
▁Pas	-11808
▁pel	-11809
▁sik	-11810
▁spi	-11811
▁stä	-11812
habil	-11813
light	-11814
ormor	-11815
skrav	-11816
teten	-11817
▁Long	-11818
▁anda	-11819
▁arre	-11820
▁cykl	-11821
▁egyp	-11822
▁hekt	-11823
▁obek	-11824
▁rand	-11825
▁rida	-11826
▁voly	-11827
oderna	-11828
▁Chrom	-11829
▁Costa	-11830
▁Eliza	-11831
▁Games	-11832
▁Karta	-11833
▁Prote	-11834
▁Putin	-11835
▁basis	-11836
▁bestå	-11837
▁breda	-11838
▁invas	-11839
▁smink	-11840
▁temat	-11841
zheimer	-11842
▁Argent	-11843
▁Edward	-11844
▁dygnet	-11845
▁fonder	-11846
▁nämnde	-11847
▁obliga	-11848
▁regeln	-11849
▁ultima	-11850
farenhet	-11851
▁Network	-11852
▁attityd	-11853
▁minskad	-11854
▁moduler	-11855
▁trycker	-11856
▁Institut	-11857
▁Kvalitet	-11858
▁grundade	-11859
▁inbyggda	-11860
▁lagrings	-11861
▁lyssnade	-11862
▁pensions	-11863
▁räddning	-11864
▁substans	-11865
▁systemen	-11866
användning	-11867
▁Francisco	-11868
▁eventuell	-11869
▁härlighet	-11870
▁återställ	-11871
▁barmhärtig	-11872
▁uppdateras	-11873
▁Beskrivning	-11874
▁intelligent	-11875
▁respekterar	-11876
▁fascinerande	-11877
▁konkurrenter	-11878
▁kvalificerad	-11879
▁marknadsföra	-11880
▁specialister	-11881
▁produktivitet	-11882
▁komplikationer	-11883
▁professionellt	-11884
▁sammanfattning	-11885
▁sysselsättning	-11886
▁pressmeddelande	-11887
Min	-11888
gad	-11889
ros	-11890
win	-11891
ågs	-11892
▁CF	-11893
▁CR	-11894
▁sw	-11895
▁wi	-11896
otin	-11897
▁Nät	-11898
▁Räd	-11899
▁kub	-11900
▁pod	-11901
▁rit	-11902
▁öar	-11903
Press	-11904
aktör	-11905
jörer	-11906
ockey	-11907
orton	-11908
rätta	-11909
▁Blev	-11910
▁Geor	-11911
▁Hund	-11912
▁Insp	-11913
▁Saab	-11914
▁Well	-11915
▁anim	-11916
▁aren	-11917
▁dies	-11918
▁dyka	-11919
▁fräs	-11920
▁kunn	-11921
▁magi	-11922
▁sken	-11923
ängden	-11924
▁Jonas	-11925
▁Saudi	-11926
▁Vägen	-11927
▁erkän	-11928
▁fasen	-11929
▁hotar	-11930
▁hydro	-11931
▁nämnd	-11932
▁turen	-11933
▁veget	-11934
▁Server	-11935
▁broder	-11936
▁hämtar	-11937
▁posten	-11938
▁skilda	-11939
▁synlig	-11940
▁trädet	-11941
laddning	-11942
▁Control	-11943
▁Holland	-11944
▁Journal	-11945
▁centret	-11946
▁konsten	-11947
▁kopiera	-11948
▁kvarter	-11949
▁optimal	-11950
▁sprider	-11951
▁volymen	-11952
▁älskare	-11953
▁Undersök	-11954
▁ansluten	-11955
▁beviljas	-11956
▁cannabis	-11957
▁prövning	-11958
▁psykiska	-11959
▁pålitlig	-11960
▁roulette	-11961
▁sektorer	-11962
▁ultimata	-11963
▁Education	-11964
▁Plötsligt	-11965
▁frivillig	-11966
▁nybörjare	-11967
▁spelautom	-11968
▁undervisa	-11969
▁verkställ	-11970
▁värdering	-11971
▁förhindrar	-11972
▁försiktigt	-11973
▁investerar	-11974
▁kolesterol	-11975
▁korruption	-11976
▁arbetskraft	-11977
▁arbetsmiljö	-11978
▁bokstavligen	-11979
▁tillräckliga	-11980
▁tillämpningar	-11981
gu	-11982
tts	-11983
▁69	-11984
▁79	-11985
▁AF	-11986
▁DS	-11987
▁UK	-11988
▁ll	-11989
▁ÄR	-11990
▁ät	-11991
blad	-11992
tigt	-11993
vanc	-11994
▁Ans	-11995
▁Ant	-11996
▁Bos	-11997
▁Key	-11998
▁Pak	-11999
▁ast	-12000
▁brå	-12001
födda	-12002
gräns	-12003
urity	-12004
▁Liby	-12005
▁Road	-12006
▁porr	-12007
annoli	-12008
levnad	-12009
männen	-12010
terapi	-12011
▁2019.	-12012
▁Night	-12013
▁Watch	-12014
▁bjuda	-12015
▁flöde	-12016
▁frest	-12017
▁herre	-12018
▁ister	-12019
▁plant	-12020
▁påven	-12021
demokra	-12022
ualitet	-12023
▁Sweden	-12024
▁andlig	-12025
▁avlägs	-12026
▁hållit	-12027
▁mångsi	-12028
▁pratat	-12029
▁reform	-12030
▁ringar	-12031
▁runtom	-12032
▁Society	-12033
▁angivna	-12034
▁casinon	-12035
▁flaskor	-12036
▁jobbigt	-12037
▁nyheten	-12038
▁rimliga	-12039
▁synkron	-12040
▁templet	-12041
▁överläg	-12042
ordningen	-12043
ättningen	-12044
▁absoluta	-12045
▁gästerna	-12046
▁hårddisk	-12047
▁motsatta	-12048
▁profiler	-12049
▁influensa	-12050
▁utvecklad	-12051
meddelanden	-12052
▁sammanlagt	-12053
▁åtgärderna	-12054
▁förverkliga	-12055
▁hållbarhets	-12056
▁uppföljning	-12057
▁ögonblicket	-12058
▁kommersiellt	-12059
▁presenterade	-12060
▁temperaturer	-12061
▁organisations	-12062
▁överensstämmer	-12063
hn	-12064
ads	-12065
tel	-12066
viv	-12067
äva	-12068
▁97	-12069
▁py	-12070
dubb	-12071
vdes	-12072
▁:-)	-12073
▁Ani	-12074
▁Hil	-12075
▁Sir	-12076
▁pär	-12077
▁tok	-12078
▁way	-12079
estäm	-12080
ivare	-12081
ockar	-12082
▁Jane	-12083
▁Pala	-12084
▁illu	-12085
▁ings	-12086
▁plug	-12087
▁sökt	-12088
▁tang	-12089
inarie	-12090
iserar	-12091
jekten	-12092
värdet	-12093
▁Adobe	-12094
▁Antar	-12095
▁Britt	-12096
▁Light	-12097
▁bakåt	-12098
▁skulp	-12099
▁störa	-12100
▁sålde	-12101
▁tomma	-12102
▁upply	-12103
▁uthyr	-12104
skrider	-12105
▁Världs	-12106
▁antogs	-12107
▁avtals	-12108
▁cyklar	-12109
▁finger	-12110
▁inlogg	-12111
▁konfig	-12112
▁okända	-12113
▁tvinga	-12114
▁utfört	-12115
▁vidtas	-12116
▁väntan	-12117
▁Special	-12118
▁Zeeland	-12119
▁upprepa	-12120
▁uppstod	-12121
▁ändrats	-12122
▁Victoria	-12123
▁anpassad	-12124
▁avslutar	-12125
▁bröllops	-12126
▁friheten	-12127
▁förhands	-12128
▁godkänts	-12129
▁jurisdik	-12130
▁kyckling	-12131
▁självför	-12132
▁övergång	-12133
▁allierade	-12134
▁beslutade	-12135
▁hälsosamt	-12136
▁lönsamhet	-12137
▁resultera	-12138
▁stationen	-12139
▁utnyttjas	-12140
▁överträff	-12141
▁auktoritet	-12142
▁frivilligt	-12143
▁förändrade	-12144
▁kollektiva	-12145
▁varumärkes	-12146
▁registrerat	-12147
▁framträdande	-12148
▁föroreningar	-12149
▁konkurrensen	-12150
▁utgångspunkt	-12151
▁sammansättning	-12152
▁självförtroende	-12153
12	-12154
HL	-12155
dy	-12156
fan	-12157
oph	-12158
pad	-12159
tte	-12160
▁Es	-12161
▁IC	-12162
/200	-12163
arma	-12164
edig	-12165
ense	-12166
fång	-12167
skam	-12168
slor	-12169
text	-12170
urch	-12171
▁BNP	-12172
▁Bad	-12173
▁Nil	-12174
▁Oli	-12175
▁dök	-12176
▁tig	-12177
onger	-12178
pning	-12179
▁Flas	-12180
▁Nick	-12181
▁Norr	-12182
▁armé	-12183
▁bero	-12184
▁körs	-12185
▁mann	-12186
▁ritu	-12187
ardröm	-12188
▁Motor	-12189
▁bergs	-12190
▁dolda	-12191
▁falsk	-12192
▁snitt	-12193
▁trivs	-12194
▁trösk	-12195
▁turné	-12196
försvar	-12197
vitamin	-12198
▁Cancer	-12199
▁besatt	-12200
▁bitter	-12201
▁erbjöd	-12202
▁femton	-12203
▁gitarr	-12204
▁inflyt	-12205
▁moment	-12206
▁tappar	-12207
▁uppdel	-12208
▁önskat	-12209
brytande	-12210
▁Förstår	-12211
▁Således	-12212
▁andelen	-12213
▁dediker	-12214
▁filosof	-12215
▁godkänd	-12216
▁mirakel	-12217
▁missade	-12218
▁neutral	-12219
▁ställas	-12220
▁utsidan	-12221
▁Marknads	-12222
▁attacken	-12223
▁belöning	-12224
▁hemifrån	-12225
▁katolska	-12226
▁lanserar	-12227
▁manuellt	-12228
▁motorväg	-12229
▁WordPress	-12230
▁invånarna	-12231
▁kontakten	-12232
▁partiklar	-12233
▁provinsen	-12234
▁tvingades	-12235
▁övervinna	-12236
▁automatisk	-12237
▁festivalen	-12238
▁finansiera	-12239
▁institutet	-12240
▁tillgodose	-12241
▁flygplatser	-12242
▁installerar	-12243
▁konstaterar	-12244
▁attraktioner	-12245
▁misslyckande	-12246
▁traditionellt	-12247
▁självständighet	-12248
ese	-12249
igg	-12250
odi	-12251
rey	-12252
▁1/	-12253
▁SV	-12254
bana	-12255
ktis	-12256
liva	-12257
ogör	-12258
ores	-12259
prov	-12260
valt	-12261
▁187	-12262
▁GUD	-12263
▁Ins	-12264
▁Old	-12265
▁Sea	-12266
▁möd	-12267
arter	-12268
▁1986	-12269
▁East	-12270
▁Java	-12271
▁Kron	-12272
▁Para	-12273
▁Your	-12274
▁bjud	-12275
▁djäv	-12276
▁halt	-12277
▁mata	-12278
▁mott	-12279
▁pund	-12280
▁utpl	-12281
▁Antal	-12282
▁Linda	-12283
▁Opera	-12284
▁Premi	-12285
▁Reser	-12286
▁accel	-12287
▁foten	-12288
▁hotet	-12289
▁hylla	-12290
▁missn	-12291
▁orkar	-12292
▁rader	-12293
▁slutg	-12294
amentet	-12295
enezuel	-12296
sländer	-12297
▁Kultur	-12298
▁Tanken	-12299
▁anhäng	-12300
▁drivna	-12301
▁garage	-12302
▁hektar	-12303
▁kopior	-12304
▁serier	-12305
▁sprang	-12306
▁trädde	-12307
▁träden	-12308
▁utbred	-12309
▁väcker	-12310
kontroll	-12311
personer	-12312
▁Studien	-12313
▁betalat	-12314
▁datumet	-12315
▁förfråg	-12316
▁kopplas	-12317
▁plånbok	-12318
▁psykisk	-12319
▁riktade	-12320
▁skickat	-12321
▁slappna	-12322
▁bränslen	-12323
▁färgerna	-12324
▁föregång	-12325
▁förnekar	-12326
▁godkänna	-12327
▁regional	-12328
▁roligare	-12329
▁stigande	-12330
▁vardagen	-12331
behandling	-12332
▁Analytics	-12333
▁Människan	-12334
▁observera	-12335
▁tjänstele	-12336
▁vanligare	-12337
▁överlevde	-12338
▁tonåringar	-12339
▁trädgårdar	-12340
▁existerande	-12341
▁kapaciteten	-12342
▁popularitet	-12343
▁solidaritet	-12344
▁identifieras	-12345
▁kontinuerlig	-12346
▁utrustningen	-12347
▁arbetsplatsen	-12348
▁västerländska	-12349
▁funktionshinder	-12350
ré	-12351
ful	-12352
the	-12353
▁9:	-12354
▁Nä	-12355
nisk	-12356
pool	-12357
sken	-12358
tsas	-12359
vakt	-12360
äson	-12361
▁Ark	-12362
▁BBC	-12363
▁Box	-12364
▁Gab	-12365
▁HIV	-12366
▁Rub	-12367
▁Sid	-12368
▁hol	-12369
▁ker	-12370
▁lay	-12371
▁nås	-12372
▁one	-12373
▁sus	-12374
redit	-12375
äppen	-12376
▁Gaza	-12377
▁Nära	-12378
▁Yoga	-12379
▁epis	-12380
▁exam	-12381
▁goog	-12382
▁grej	-12383
▁maxi	-12384
▁odla	-12385
▁pick	-12386
▁plag	-12387
▁snön	-12388
otiska	-12389
▁Dubai	-12390
▁Lycka	-12391
▁dagsl	-12392
▁drack	-12393
▁feber	-12394
▁illeg	-12395
▁läkar	-12396
▁marin	-12397
▁tysta	-12398
▁Engine	-12399
▁avunds	-12400
▁byggas	-12401
▁intens	-12402
▁kanten	-12403
▁kedjan	-12404
▁kärnan	-12405
▁lyfter	-12406
▁namnen	-12407
▁skrevs	-12408
▁tittat	-12409
▁ägande	-12410
▁kalcium	-12411
▁konfron	-12412
▁kunders	-12413
▁kylskåp	-12414
▁mineral	-12415
▁mäktiga	-12416
▁präster	-12417
▁sjunger	-12418
▁skrivna	-12419
▁vandrar	-12420
asinospel	-12421
ssäkerhet	-12422
▁bankerna	-12423
▁beslutar	-12424
▁etablera	-12425
▁fabriken	-12426
▁fötterna	-12427
▁hushålls	-12428
▁räckvidd	-12429
▁Argentina	-12430
▁Christian	-12431
▁Elizabeth	-12432
▁apparater	-12433
▁felaktiga	-12434
▁genererar	-12435
▁idrottare	-12436
▁innovativ	-12437
▁intresset	-12438
▁psykologi	-12439
▁utsläppen	-12440
▁verksamma	-12441
▁värdighet	-12442
▁anknytning	-12443
▁behandlade	-12444
▁fristående	-12445
▁materiella	-12446
▁parametrar	-12447
▁skilsmässa	-12448
▁tillbringa	-12449
▁överväldig	-12450
▁förbättrade	-12451
▁proletariat	-12452
▁tredjeparts	-12453
▁certifierade	-12454
▁kosttillskott	-12455
▁registrerings	-12456
▁arbetsmarknaden	-12457
▁konkurrenskraft	-12458
ums	-12459
▁7:	-12460
▁8-	-12461
▁89	-12462
▁GM	-12463
▁OM	-12464
▁].	-12465
nytt	-12466
▁11:	-12467
▁130	-12468
▁???	-12469
▁Cas	-12470
▁Isa	-12471
▁Mas	-12472
▁dys	-12473
▁ore	-12474
▁Anne	-12475
▁Nyck	-12476
▁fynd	-12477
▁gods	-12478
▁jämn	-12479
▁kniv	-12480
▁soff	-12481
dagens	-12482
märken	-12483
▁Great	-12484
▁Lägen	-12485
▁Villa	-12486
▁chauf	-12487
▁debut	-12488
▁föras	-12489
▁gissa	-12490
▁höjer	-12491
▁julen	-12492
▁rikta	-12493
▁skede	-12494
borgare	-12495
mässiga	-12496
▁Förlåt	-12497
▁advoka	-12498
▁ambiti	-12499
▁aspekt	-12500
▁multip	-12501
▁självt	-12502
▁stegen	-12503
▁upplag	-12504
▁givande	-12505
▁journal	-12506
▁motsatt	-12507
▁siffran	-12508
▁ständig	-12509
▁systrar	-12510
▁tråkigt	-12511
▁baksidan	-12512
▁förfäder	-12513
▁förstånd	-12514
▁reformer	-12515
▁republik	-12516
▁skrifter	-12517
▁sällsynt	-12518
▁tänderna	-12519
▁upplevde	-12520
▁utformat	-12521
ekreterare	-12522
▁Alzheimer	-12523
▁förstärka	-12524
▁prioritet	-12525
▁relaterat	-12526
▁dataskydds	-12527
▁handlingen	-12528
▁kompatibel	-12529
▁rättfärdig	-12530
▁förekomsten	-12531
▁försörjning	-12532
▁operationer	-12533
▁rapporterats	-12534
DE	-12535
cu	-12536
▁_	-12537
fat	-12538
nia	-12539
▁);	-12540
▁7-	-12541
▁PM	-12542
▁wa	-12543
ania	-12544
ball	-12545
▁10:	-12546
▁Atl	-12547
▁Avs	-12548
▁EES	-12549
▁Jul	-12550
▁Kol	-12551
▁Nin	-12552
▁PDF	-12553
▁Såg	-12554
▁Tok	-12555
▁alt	-12556
▁bif	-12557
▁myt	-12558
▁1980	-12559
▁Ange	-12560
▁Blog	-12561
▁Kund	-12562
▁Mach	-12563
▁Sant	-12564
▁Show	-12565
▁Sony	-12566
▁kaff	-12567
▁kyla	-12568
▁skep	-12569
▁sålt	-12570
etiskt	-12571
ipedia	-12572
skolan	-12573
▁2006.	-12574
▁Acade	-12575
▁Muham	-12576
▁Point	-12577
▁Spara	-12578
▁basen	-12579
▁domen	-12580
▁hette	-12581
▁kassa	-12582
▁ledar	-12583
▁rulla	-12584
▁sjöng	-12585
▁sonen	-12586
▁sväng	-12587
▁turer	-12588
▁ägnar	-12589
estival	-12590
fidenti	-12591
ästaren	-12592
▁Commun	-12593
▁Corpor	-12594
▁Frågor	-12595
▁befall	-12596
▁besvar	-12597
▁bunden	-12598
▁cookie	-12599
▁diesel	-12600
▁ersatt	-12601
▁förkor	-12602
▁tidens	-12603
▁villig	-12604
▁vulkan	-12605
▁Demokra	-12606
▁Premier	-12607
▁Väldigt	-12608
▁bedriva	-12609
▁bekanta	-12610
▁besvara	-12611
▁delning	-12612
▁frukter	-12613
▁fördrag	-12614
▁kanalen	-12615
▁robotar	-12616
▁valutor	-12617
▁artifici	-12618
▁kommunen	-12619
▁våldtäkt	-12620
▁avslutade	-12621
▁decennier	-12622
▁distribut	-12623
▁förhandla	-12624
▁utseendet	-12625
▁övergångs	-12626
▁dokumentär	-12627
▁ekologiska	-12628
▁föreslagna	-12629
▁republiken	-12630
▁installeras	-12631
▁transaktion	-12632
▁inspirerande	-12633
▁komplicerade	-12634
▁återkommande	-12635
▁förvaltningen	-12636
▁kvalificerade	-12637
▁rättfärdighet	-12638
9]	-12639
AB	-12640
tm	-12641
kok	-12642
▁94	-12643
▁ET	-12644
▁Fu	-12645
bror	-12646
ield	-12647
ited	-12648
opol	-12649
▁Abb	-12650
▁Bow	-12651
▁Bör	-12652
▁Hän	-12653
▁Job	-12654
▁Les	-12655
▁epi	-12656
▁gry	-12657
ittén	-12658
oween	-12659
saken	-12660
skärm	-12661
ulära	-12662
▁(200	-12663
▁Främ	-12664
▁Kamp	-12665
▁Mala	-12666
▁nyår	-12667
▁vagn	-12668
atorer	-12669
bruket	-12670
kommit	-12671
straff	-12672
ödande	-12673
▁Fader	-12674
▁Flytt	-12675
▁Ladda	-12676
▁Patri	-12677
▁förfl	-12678
▁ilska	-12679
▁ismen	-12680
▁latin	-12681
▁lyder	-12682
▁löner	-12683
▁mjuka	-12684
▁morse	-12685
▁riket	-12686
▁stått	-12687
okument	-12688
▁Väster	-12689
▁bensin	-12690
▁brevet	-12691
▁centra	-12692
▁dricks	-12693
▁förval	-12694
▁gällde	-12695
▁hunnit	-12696
▁kvalit	-12697
▁lighet	-12698
▁marina	-12699
▁oklart	-12700
▁sinnet	-12701
▁skogar	-12702
▁sparas	-12703
▁sträva	-12704
▁tappat	-12705
▁uppgår	-12706
▁vården	-12707
▁Arbetet	-12708
▁Clinton	-12709
▁betonar	-12710
▁etikett	-12711
▁hänvisa	-12712
▁konkurs	-12713
▁mardröm	-12714
▁medföra	-12715
▁råvaror	-12716
▁saknade	-12717
▁smidigt	-12718
▁vägarna	-12719
▁översyn	-12720
stiftning	-12721
▁Material	-12722
▁bedriver	-12723
▁föresprå	-12724
▁klienter	-12725
▁rättslig	-12726
▁stolthet	-12727
▁Göteborgs	-12728
▁omgivning	-12729
▁varianter	-12730
▁föreligger	-12731
▁reparation	-12732
▁samarbeten	-12733
▁tidsperiod	-12734
▁uppförande	-12735
befolkningen	-12736
▁banbrytande	-12737
▁definierade	-12738
▁individuell	-12739
▁kriterierna	-12740
▁uppdaterade	-12741
▁prestationer	-12742
▁förpackningar	-12743
▁förändringarna	-12744
asy	-12745
öps	-12746
▁92	-12747
▁Ru	-12748
flöd	-12749
syra	-12750
ving	-12751
yror	-12752
älso	-12753
▁1,2	-12754
▁140	-12755
▁15.	-12756
▁160	-12757
▁80-	-12758
▁Cry	-12759
▁GPS	-12760
▁huv	-12761
▁löj	-12762
essan	-12763
merar	-12764
tiven	-12765
▁Jobb	-12766
▁Text	-12767
▁Trän	-12768
▁bely	-12769
▁byar	-12770
▁börs	-12771
▁fäll	-12772
▁home	-12773
mpiska	-12774
vering	-12775
▁2007.	-12776
▁Aktiv	-12777
▁Child	-12778
▁Guide	-12779
▁Marie	-12780
▁gigan	-12781
▁nedre	-12782
Omdirig	-12783
innelse	-12784
isterna	-12785
itering	-12786
▁Galaxy	-12787
▁Little	-12788
▁Nordic	-12789
▁Tänker	-12790
▁antika	-12791
▁artist	-12792
▁avrätt	-12793
▁blomma	-12794
▁fallit	-12795
▁flagga	-12796
▁frustr	-12797
▁onsdag	-12798
▁skylla	-12799
▁stolen	-12800
▁typisk	-12801
▁elegant	-12802
▁kyrkans	-12803
▁lysande	-12804
▁mångfal	-12805
▁rimligt	-12806
▁tillåts	-12807
▁idealisk	-12808
▁instrukt	-12809
▁procedur	-12810
▁vederbör	-12811
▁väggarna	-12812
▁överklag	-12813
▁Användare	-12814
▁komponent	-12815
▁mänskligt	-12816
▁rättighet	-12817
▁webbsidor	-12818
Omdirigerad	-12819
▁framgångar	-12820
▁genomförts	-12821
▁industrier	-12822
▁ingenjörer	-12823
▁kommission	-12824
▁matlagning	-12825
▁publicerat	-12826
▁varierande	-12827
▁förteckning	-12828
▁tillfälliga	-12829
▁vittnesbörd	-12830
▁restriktioner	-12831
▁specialiserade	-12832
▁föreställningar	-12833
▁luftkonditioner	-12834
EF	-12835
▁	-12836
ius	-12837
yon	-12838
äta	-12839
▁-0	-12840
▁ov	-12841
lish	-12842
reen	-12843
▁1.1	-12844
▁360	-12845
▁Arm	-12846
▁Bab	-12847
▁day	-12848
▁nan	-12849
▁ägt	-12850
board	-12851
innes	-12852
lista	-12853
unnen	-12854
▁Dröm	-12855
▁Farm	-12856
▁Fatt	-12857
▁Lita	-12858
▁blyg	-12859
▁odds	-12860
▁rost	-12861
▁sson	-12862
▁tvek	-12863
icitet	-12864
▁Josef	-12865
▁Latin	-12866
▁Minst	-12867
▁Prova	-12868
▁Sista	-12869
▁gudar	-12870
▁klick	-12871
▁vibra	-12872
plantat	-12873
▁Lokala	-12874
▁applic	-12875
▁fritid	-12876
▁hybrid	-12877
▁imperi	-12878
▁materi	-12879
▁scener	-12880
▁soldat	-12881
▁Kunskap	-12882
▁Medical	-12883
▁brottsl	-12884
▁insidan	-12885
▁persons	-12886
▁pressen	-12887
▁typiska	-12888
▁världar	-12889
verksamma	-12890
▁avgiften	-12891
▁ersättas	-12892
▁exemplet	-12893
▁generals	-12894
▁kristall	-12895
▁kännedom	-12896
▁strömmar	-12897
▁störning	-12898
▁utrymmen	-12899
▁öppnades	-12900
ningsmedel	-12901
▁förekomma	-12902
▁indikerar	-12903
▁insamling	-12904
▁långivare	-12905
▁otillräck	-12906
▁producent	-12907
▁samtycker	-12908
▁uppdraget	-12909
▁Behandling	-12910
▁Republiken	-12911
▁diskuterar	-12912
▁hanterings	-12913
▁omvandling	-12914
▁standarden	-12915
▁teoretiska	-12916
▁återkommer	-12917
▁anmärknings	-12918
▁strategiskt	-12919
▁alternativen	-12920
▁certifiering	-12921
▁funktionerna	-12922
▁innovationer	-12923
▁underhållande	-12924
▁uppenbarligen	-12925
▁tillfredsställ	-12926
▁yrkesverksamma	-12927
NS	-12928
TI	-12929
td	-12930
Man	-12931
die	-12932
fis	-12933
obi	-12934
▁CV	-12935
▁Ky	-12936
▁eu	-12937
anon	-12938
arer	-12939
fver	-12940
hjäl	-12941
ikat	-12942
ison	-12943
kiat	-12944
utri	-12945
very	-12946
zine	-12947
▁Sju	-12948
▁Tja	-12949
▁ina	-12950
▁kup	-12951
▁kys	-12952
ampyr	-12953
etsen	-12954
otika	-12955
pital	-12956
umera	-12957
yllda	-12958
öljer	-12959
▁Good	-12960
▁fräl	-12961
▁kläm	-12962
▁larm	-12963
▁lott	-12964
▁läro	-12965
▁sign	-12966
▁syra	-12967
▁tätt	-12968
▁våga	-12969
bility	-12970
hället	-12971
västra	-12972
▁Conne	-12973
▁Enkel	-12974
▁Feder	-12975
▁First	-12976
▁Lever	-12977
▁Nobel	-12978
▁Parad	-12979
▁avlid	-12980
▁kapit	-12981
▁lådan	-12982
▁refer	-12983
▁skylt	-12984
▁undra	-12985
▁väska	-12986
fiering	-12987
försörj	-12988
ikanska	-12989
kningar	-12990
kningen	-12991
ologier	-12992
▁Klimat	-12993
▁Kursen	-12994
▁Modern	-12995
▁Resten	-12996
▁Teknik	-12997
▁bagage	-12998
▁dennes	-12999
▁förste	-13000
▁hörnet	-13001
▁instin	-13002
▁lagrar	-13003
▁livskv	-13004
▁prosta	-13005
▁testar	-13006
▁testat	-13007
▁upphäv	-13008
▁uppvis	-13009
▁älskad	-13010
▁avbryta	-13011
▁designa	-13012
▁fritids	-13013
▁färdigt	-13014
▁huvuden	-13015
▁indiska	-13016
▁katalog	-13017
▁regimen	-13018
▁rökning	-13019
▁rörliga	-13020
▁skadlig	-13021
▁skulden	-13022
▁skärmar	-13023
▁stadium	-13024
▁tendens	-13025
▁utförts	-13026
▁Detsamma	-13027
▁Tillverk	-13028
▁anpassas	-13029
▁ansikten	-13030
▁arrester	-13031
▁hållning	-13032
▁inträffa	-13033
▁monument	-13034
▁studerar	-13035
▁expandera	-13036
▁förvaring	-13037
▁imponerad	-13038
▁inredning	-13039
▁isolering	-13040
▁klassiker	-13041
▁konstverk	-13042
▁motsatsen	-13043
▁placering	-13044
▁påverkade	-13045
▁väsentlig	-13046
▁Medelhavet	-13047
▁kombineras	-13048
▁konstnären	-13049
▁management	-13050
▁misstänkta	-13051
▁släktingar	-13052
▁tillfällig	-13053
kommissionen	-13054
▁industriell	-13055
▁livskvalitet	-13056
▁skillnaderna	-13057
▁energieffektiv	-13058
OP	-13059
Se	-13060
TP	-13061
ane	-13062
ern	-13063
▁63	-13064
▁SL	-13065
▁vo	-13066
höll	-13067
kins	-13068
pern	-13069
seri	-13070
▁110	-13071
▁Dia	-13072
▁Eti	-13073
▁pet	-13074
▁rea	-13075
▁Änt	-13076
adels	-13077
agera	-13078
bilar	-13079
utism	-13080
▁Arab	-13081
▁Krig	-13082
▁Lady	-13083
▁Läge	-13084
▁Roll	-13085
▁cock	-13086
▁down	-13087
▁elva	-13088
▁holl	-13089
▁sido	-13090
▁snur	-13091
aganda	-13092
▁Forum	-13093
▁Messi	-13094
▁anbud	-13095
▁behag	-13096
▁fetma	-13097
▁piano	-13098
▁still	-13099
▁stock	-13100
▁uppri	-13101
▁vågor	-13102
området	-13103
▁Potter	-13104
▁Svaret	-13105
▁annans	-13106
▁ansågs	-13107
▁avsett	-13108
▁blanda	-13109
▁invänd	-13110
▁läppar	-13111
▁margin	-13112
▁stilar	-13113
▁ärende	-13114
▁öppnat	-13115
serligen	-13116
▁Avsnitt	-13117
▁Komment	-13118
▁Manager	-13119
▁Systems	-13120
▁besöket	-13121
▁förnuft	-13122
▁gravida	-13123
▁intrång	-13124
▁längtar	-13125
▁markera	-13126
▁villiga	-13127
fördraget	-13128
▁Hittills	-13129
▁Venezuel	-13130
▁förbjuda	-13131
▁himmelen	-13132
▁rubriken	-13133
▁tilläggs	-13134
▁undvikas	-13135
▁utesluta	-13136
▁Äntligen	-13137
▁anhängare	-13138
▁asiatiska	-13139
▁frälsning	-13140
▁fängelset	-13141
▁förbundet	-13142
▁förlusten	-13143
▁genomfört	-13144
▁inspirera	-13145
▁nyheterna	-13146
▁placerade	-13147
▁överföras	-13148
▁Användning	-13149
▁förvandlas	-13150
▁religionen	-13151
▁satsningar	-13152
▁substanser	-13153
▁ändamålsen	-13154
▁dimensioner	-13155
▁dominerande	-13156
▁involverade	-13157
▁medborgarna	-13158
▁protokollet	-13159
▁förfrågningar	-13160
▁överträdelser	-13161
▁högkvalitativa	-13162
▁intellektuella	-13163
▁kapitalistiska	-13164
▁klassificering	-13165
▁Storbritanniens	-13166
HA	-13167
pal	-13168
vag	-13169
▁4)	-13170
▁Eu	-13171
▁NY	-13172
▁ug	-13173
blin	-13174
onin	-13175
rier	-13176
öden	-13177
ögen	-13178
▁Ras	-13179
▁bul	-13180
▁enk	-13181
▁kid	-13182
▁que	-13183
▁ven	-13184
▁Drag	-13185
▁Glas	-13186
▁Kore	-13187
▁Mest	-13188
▁Sten	-13189
▁ambi	-13190
▁grip	-13191
▁kran	-13192
▁låsa	-13193
▁play	-13194
▁smet	-13195
▁wood	-13196
▁yrke	-13197
Varför	-13198
nesium	-13199
samtal	-13200
yllene	-13201
▁Priva	-13202
▁kakor	-13203
▁lovat	-13204
▁modig	-13205
▁oljor	-13206
▁slösa	-13207
▁stick	-13208
partiet	-13209
spolicy	-13210
▁Peking	-13211
▁kastar	-13212
▁kirurg	-13213
▁närhet	-13214
▁skapad	-13215
▁trauma	-13216
▁valdes	-13217
▁Kvinnan	-13218
▁bedömer	-13219
▁betrakt	-13220
▁folkets	-13221
▁grundar	-13222
▁rehabil	-13223
▁respons	-13224
▁utforma	-13225
▁barnbarn	-13226
▁förmögen	-13227
▁insikter	-13228
▁maximalt	-13229
▁mystiska	-13230
▁otroliga	-13231
▁svåraste	-13232
▁trötthet	-13233
▁Återigen	-13234
▁attraktiv	-13235
▁genetiska	-13236
▁mineraler	-13237
▁träffades	-13238
▁uppträder	-13239
▁Institutet	-13240
▁attraktion	-13241
▁hälsosamma	-13242
▁interagera	-13243
▁karaktären	-13244
▁kungariket	-13245
▁övertygade	-13246
▁Fortfarande	-13247
▁aktiviteten	-13248
▁bröstcancer	-13249
▁händelserna	-13250
▁kundservice	-13251
▁återstående	-13252
▁arbetarklass	-13253
▁uppskattning	-13254
▁utmaningarna	-13255
▁överraskande	-13256
▁miljöpåverkan	-13257
▁representerade	-13258
CD	-13259
▁Ã	-13260
▁›	-13261
ftt	-13262
ple	-13263
vie	-13264
▁EA	-13265
▁RA	-13266
▁SA	-13267
▁VR	-13268
smän	-13269
▁15-	-13270
▁Bag	-13271
▁Bat	-13272
▁Fol	-13273
▁Nas	-13274
▁Not	-13275
▁Ref	-13276
▁cor	-13277
▁non	-13278
derad	-13279
orial	-13280
▁Jeho	-13281
▁alfa	-13282
▁fril	-13283
▁pion	-13284
▁rens	-13285
▁spor	-13286
ologer	-13287
vtryck	-13288
▁Akade	-13289
▁Dream	-13290
▁Trust	-13291
▁barer	-13292
▁bägge	-13293
▁böner	-13294
▁drink	-13295
▁hobby	-13296
▁naken	-13297
▁skaff	-13298
▁spins	-13299
▁trott	-13300
▁täckt	-13301
▁umgås	-13302
▁Förstå	-13303
▁Square	-13304
▁Virgin	-13305
▁blinda	-13306
▁kartan	-13307
▁kvinno	-13308
▁märkte	-13309
▁nervös	-13310
▁sjunde	-13311
▁stämma	-13312
▁sättas	-13313
▁termen	-13314
▁tjejen	-13315
aliteter	-13316
partment	-13317
▁flyttas	-13318
▁järnväg	-13319
▁ledamot	-13320
▁längsta	-13321
stitution	-13322
▁Profeten	-13323
▁facebook	-13324
▁innehöll	-13325
▁reglerar	-13326
▁romerska	-13327
▁skulptur	-13328
▁älskling	-13329
▁överflöd	-13330
▁Styrelsen	-13331
▁bibehålla	-13332
▁bristande	-13333
▁databasen	-13334
▁etablerat	-13335
▁förnyelse	-13336
▁garantier	-13337
▁musklerna	-13338
▁ordinarie	-13339
▁uttrycket	-13340
▁vindkraft	-13341
▁reflektera	-13342
▁upptäcktes	-13343
▁Förmodligen	-13344
▁detaljerade	-13345
▁eftermiddag	-13346
▁underteckna	-13347
▁utnyttjande	-13348
▁fruktansvärt	-13349
▁upplysningar	-13350
▁vetenskapligt	-13351
▁administration	-13352
LC	-13353
må	-13354
▁♥	-13355
-10	-13356
Pal	-13357
app	-13358
kur	-13359
köp	-13360
▁08	-13361
▁TR	-13362
mers	-13363
orse	-13364
▁(3)	-13365
▁16.	-13366
▁Der	-13367
▁Pil	-13368
▁Rem	-13369
▁Tob	-13370
▁Vit	-13371
▁get	-13372
▁hiv	-13373
▁ian	-13374
▁åtn	-13375
edral	-13376
inari	-13377
ktisk	-13378
skola	-13379
▁(199	-13380
▁Alan	-13381
▁Disk	-13382
▁Emma	-13383
▁Göra	-13384
▁Line	-13385
▁Namn	-13386
▁Orig	-13387
▁Pier	-13388
▁genu	-13389
▁kilo	-13390
▁läck	-13391
▁njöt	-13392
▁spru	-13393
gjorda	-13394
▁Kines	-13395
▁Niger	-13396
▁broms	-13397
▁fient	-13398
▁föref	-13399
▁godis	-13400
▁köpet	-13401
▁mäter	-13402
▁pizza	-13403
▁skand	-13404
▁utplå	-13405
▁öknen	-13406
enheter	-13407
världen	-13408
▁Distri	-13409
▁Filipp	-13410
▁Upplev	-13411
▁honung	-13412
▁månads	-13413
▁predik	-13414
▁syntet	-13415
▁tillit	-13416
ektering	-13417
ringarna	-13418
▁Senaste	-13419
▁ackumul	-13420
▁borttag	-13421
▁bristen	-13422
▁bärbara	-13423
▁kastade	-13424
▁kirurgi	-13425
▁kopplat	-13426
▁lagstad	-13427
▁seriöst	-13428
▁slutför	-13429
▁stängda	-13430
▁suverän	-13431
▁svaghet	-13432
▁svenskt	-13433
▁tvingar	-13434
▁Familjen	-13435
▁Security	-13436
▁Skandina	-13437
▁amerikan	-13438
▁astronom	-13439
▁avslutat	-13440
▁budgeten	-13441
▁förlänga	-13442
▁legendar	-13443
▁luftfart	-13444
▁planeras	-13445
▁satsning	-13446
▁tonåring	-13447
▁åldrande	-13448
▁budskapet	-13449
▁konsumera	-13450
▁personens	-13451
▁uppfattas	-13452
▁attraktiva	-13453
▁diskuteras	-13454
▁förvirring	-13455
▁användarens	-13456
▁fastigheten	-13457
▁anteckningar	-13458
▁kompletterande	-13459
bre	-13460
oke	-13461
▁Py	-13462
natt	-13463
olin	-13464
slig	-13465
tail	-13466
tish	-13467
vade	-13468
view	-13469
▁90-	-13470
▁Död	-13471
▁JAG	-13472
▁Nok	-13473
▁Sui	-13474
▁cit	-13475
▁ful	-13476
▁göd	-13477
▁nöt	-13478
▁omb	-13479
▁rak	-13480
isker	-13481
sburg	-13482
skrän	-13483
visor	-13484
åring	-13485
▁Ball	-13486
▁Fair	-13487
▁Mini	-13488
▁Veck	-13489
▁Wien	-13490
▁life	-13491
▁meny	-13492
▁orna	-13493
▁pota	-13494
▁skur	-13495
▁vald	-13496
böcker	-13497
ektera	-13498
etooth	-13499
ungfru	-13500
▁Certi	-13501
▁Devel	-13502
▁Jacob	-13503
▁Kunde	-13504
▁Pappa	-13505
▁blått	-13506
▁dumma	-13507
▁dödas	-13508
▁färsk	-13509
▁försk	-13510
▁givna	-13511
▁hävda	-13512
▁rensa	-13513
▁skiva	-13514
▁succé	-13515
▁vilar	-13516
llafall	-13517
portera	-13518
uration	-13519
▁Action	-13520
▁Identi	-13521
▁Jehova	-13522
▁Landet	-13523
▁Living	-13524
▁Själva	-13525
▁Wester	-13526
▁betyda	-13527
▁bomull	-13528
▁elimin	-13529
▁förson	-13530
▁gråter	-13531
▁lampor	-13532
▁lögner	-13533
▁prover	-13534
▁resist	-13535
▁skugga	-13536
▁tornet	-13537
▁Charlie	-13538
▁ansöker	-13539
▁finaste	-13540
▁flyttat	-13541
▁innebar	-13542
▁kämpade	-13543
▁redogör	-13544
▁utbudet	-13545
▁utmanar	-13546
▁ambition	-13547
▁exporter	-13548
▁fordonet	-13549
▁fredagen	-13550
▁inriktad	-13551
▁konsumer	-13552
▁lyckligt	-13553
▁mjukvaru	-13554
▁sjukdoms	-13555
▁skapelse	-13556
▁öppenhet	-13557
▁Produkter	-13558
▁blackjack	-13559
▁metoderna	-13560
▁variation	-13561
▁konvertera	-13562
▁kraftfullt	-13563
▁nyhetsbrev	-13564
▁patientens	-13565
▁publicerad	-13566
▁referenser	-13567
▁troligtvis	-13568
▁avdelningar	-13569
▁förknippade	-13570
▁regelbundna	-13571
▁registreras	-13572
▁signifikant	-13573
▁testosteron	-13574
▁egenskaperna	-13575
▁upphovsrätts	-13576
▁beställningar	-13577
▁obligatoriska	-13578
▁sannolikheten	-13579
ert	-13580
ppy	-13581
▁.[	-13582
▁74	-13583
▁́s	-13584
arch	-13585
bank	-13586
bola	-13587
sche	-13588
stör	-13589
udio	-13590
unes	-13591
▁Fox	-13592
▁Föd	-13593
▁Ltd	-13594
▁Sma	-13595
▁Trä	-13596
▁kny	-13597
▁lim	-13598
▁mur	-13599
▁pga	-13600
▁utk	-13601
ckade	-13602
gener	-13603
huset	-13604
skare	-13605
stiga	-13606
tella	-13607
▁1991	-13608
▁Bell	-13609
▁Fjär	-13610
▁Lars	-13611
▁Rose	-13612
▁frön	-13613
▁guds	-13614
▁head	-13615
▁iran	-13616
▁isen	-13617
▁meta	-13618
▁prog	-13619
▁slit	-13620
andras	-13621
iction	-13622
städer	-13623
öjning	-13624
▁Heart	-13625
▁Oscar	-13626
▁Utmär	-13627
▁Young	-13628
▁astma	-13629
▁hämnd	-13630
▁ihjäl	-13631
▁jackp	-13632
▁lådor	-13633
▁manif	-13634
▁nervs	-13635
▁ordna	-13636
▁repet	-13637
▁sound	-13638
▁styre	-13639
▁svull	-13640
arabien	-13641
▁Barnet	-13642
▁Boston	-13643
▁Columb	-13644
▁Helige	-13645
▁bosatt	-13646
▁differ	-13647
▁fadern	-13648
▁fusion	-13649
▁laddar	-13650
▁missar	-13651
▁någons	-13652
▁pulver	-13653
▁radera	-13654
▁stycke	-13655
▁sänder	-13656
▁taktik	-13657
position	-13658
▁Försälj	-13659
▁Hittade	-13660
▁Nyheter	-13661
▁fienden	-13662
▁fördubb	-13663
▁giltigt	-13664
▁kraftig	-13665
▁körkort	-13666
▁omgiven	-13667
▁rundtur	-13668
▁samtida	-13669
▁typerna	-13670
▁boknings	-13671
▁exklusiv	-13672
▁insekter	-13673
▁kinesisk	-13674
▁njutning	-13675
▁presenta	-13676
▁reparera	-13677
▁trevliga	-13678
▁uttryckt	-13679
▁vinnaren	-13680
▁återvänd	-13681
▁åtgärden	-13682
▁Transport	-13683
▁behållare	-13684
▁biologisk	-13685
▁bokstäver	-13686
▁inledande	-13687
▁mestadels	-13688
▁narkotika	-13689
▁osäkerhet	-13690
▁proteiner	-13691
▁regelverk	-13692
▁varandras	-13693
▁borgerliga	-13694
▁europeiskt	-13695
▁kommentera	-13696
▁konfidenti	-13697
▁nervsystem	-13698
▁optimering	-13699
▁representa	-13700
▁sistnämnda	-13701
▁bedömningar	-13702
▁ministeriet	-13703
▁sannolikhet	-13704
▁Saudiarabien	-13705
▁homosexuella	-13706
▁kännetecknas	-13707
▁fotografering	-13708
▁institutionen	-13709
▁mänsklighetens	-13710
IL	-13711
Po	-13712
zy	-13713
ift	-13714
▁ED	-13715
▁NO	-13716
▁tå	-13717
aton	-13718
chen	-13719
film	-13720
fält	-13721
klin	-13722
look	-13723
▁70-	-13724
▁Era	-13725
▁Fed	-13726
▁Mah	-13727
▁Mir	-13728
▁Tai	-13729
▁Urs	-13730
▁Väx	-13731
▁ley	-13732
▁rus	-13733
▁svi	-13734
ikapp	-13735
kelse	-13736
unnar	-13737
▁Mail	-13738
▁Ryan	-13739
▁adap	-13740
▁bull	-13741
▁möss	-13742
▁rutt	-13743
itness	-13744
merade	-13745
▁Forex	-13746
▁Källa	-13747
▁Ocean	-13748
▁Solen	-13749
▁Tjeck	-13750
▁Tradi	-13751
▁Union	-13752
▁byggs	-13753
▁förol	-13754
▁gummi	-13755
▁miles	-13756
▁paras	-13757
▁patri	-13758
▁stere	-13759
▁svamp	-13760
▁svett	-13761
▁Ändra	-13762
atering	-13763
naderna	-13764
såldern	-13765
▁Mobile	-13766
▁Skolan	-13767
▁Sydney	-13768
▁bidrog	-13769
▁bönder	-13770
▁commun	-13771
▁fascin	-13772
▁formel	-13773
▁heltid	-13774
▁hänför	-13775
▁indika	-13776
▁likhet	-13777
▁nämner	-13778
▁poolen	-13779
▁räntan	-13780
▁skadan	-13781
▁synvin	-13782
▁varnar	-13783
▁åtfölj	-13784
brukning	-13785
fistiker	-13786
▁Googles	-13787
▁college	-13788
▁oföränd	-13789
▁påminna	-13790
▁singlar	-13791
▁syriska	-13792
▁trupper	-13793
▁uppfost	-13794
▁åtskill	-13795
▁Sydkorea	-13796
▁blödning	-13797
▁fundamen	-13798
▁insatsen	-13799
▁kvinnlig	-13800
▁optimala	-13801
▁ovanliga	-13802
▁profeten	-13803
stillstånd	-13804
▁Köpenhamn	-13805
▁Rysslands	-13806
▁Säkerhets	-13807
▁Wikipedia	-13808
▁drottning	-13809
▁familjens	-13810
▁förbjudna	-13811
▁högskolan	-13812
▁individen	-13813
▁kapitalet	-13814
▁kontanter	-13815
▁organiska	-13816
▁skrattade	-13817
▁skräddars	-13818
▁sovrummet	-13819
▁studerade	-13820
▁symptomen	-13821
▁Profession	-13822
▁ansöknings	-13823
▁formuläret	-13824
▁förfogande	-13825
▁motorcykel	-13826
▁skriftligt	-13827
▁uttalanden	-13828
▁Majoriteten	-13829
▁anvisningar	-13830
▁ersättnings	-13831
▁finansieras	-13832
▁organiserad	-13833
▁skicklighet	-13834
▁intelligenta	-13835
▁konstaterade	-13836
▁personuppgift	-13837
▁installationen	-13838
UR	-13839
jt	-13840
mf	-13841
opa	-13842
ynn	-13843
▁83	-13844
▁IM	-13845
▁LA	-13846
essa	-13847
ming	-13848
odge	-13849
ssin	-13850
stry	-13851
öjda	-13852
▁12:	-13853
▁184	-13854
▁3,5	-13855
▁Ang	-13856
▁CIA	-13857
▁Ray	-13858
▁Sri	-13859
▁Väg	-13860
▁air	-13861
▁gel	-13862
atorn	-13863
ruset	-13864
▁2030	-13865
▁Afri	-13866
▁Arts	-13867
▁Baby	-13868
▁Brad	-13869
▁Care	-13870
▁Flex	-13871
▁Kuba	-13872
▁Skär	-13873
▁axel	-13874
▁bråd	-13875
▁koka	-13876
▁krom	-13877
▁mosk	-13878
▁närm	-13879
▁syss	-13880
center	-13881
yggnad	-13882
▁Inför	-13883
▁Sarah	-13884
▁Tower	-13885
▁anten	-13886
▁avsak	-13887
▁delad	-13888
▁emitt	-13889
▁glass	-13890
▁klädd	-13891
▁stack	-13892
▁träda	-13893
▁tungt	-13894
▁vecko	-13895
▁väljs	-13896
elseled	-13897
tagande	-13898
▁Church	-13899
▁aktivi	-13900
▁blogga	-13901
▁dussin	-13902
▁hotade	-13903
▁inköps	-13904
▁korten	-13905
▁ljuger	-13906
▁låtsas	-13907
▁mordet	-13908
▁märket	-13909
▁pojken	-13910
▁rasism	-13911
▁ropade	-13912
▁snyggt	-13913
▁svarat	-13914
▁tolkas	-13915
▁undvik	-13916
▁Baserat	-13917
▁Indones	-13918
▁Omkring	-13919
▁Venedig	-13920
▁biologi	-13921
▁bitcoin	-13922
▁döttrar	-13923
▁fläckar	-13924
▁innehar	-13925
▁målning	-13926
▁protest	-13927
▁sångare	-13928
▁variant	-13929
▁vänstra	-13930
▁anhöriga	-13931
▁besluten	-13932
▁kungliga	-13933
▁navigera	-13934
▁specific	-13935
▁statligt	-13936
▁tolerans	-13937
▁batteriet	-13938
▁militären	-13939
▁utforskar	-13940
▁Innovation	-13941
▁ingrediens	-13942
▁mottagning	-13943
▁sjukvården	-13944
▁tacksamhet	-13945
▁utformning	-13946
▁befolknings	-13947
▁operationen	-13948
▁traditionen	-13949
▁funktionella	-13950
▁förklaringen	-13951
▁näringslivet	-13952
▁tillbringade	-13953
▁identifiering	-13954
▁undervisnings	-13955
▁digitalisering	-13956
▁kollektivtrafik	-13957
.,	-13958
tv	-13959
Har	-13960
blå	-13961
dha	-13962
kun	-13963
sil	-13964
tia	-13965
▁71	-13966
▁AA	-13967
▁Ek	-13968
▁HR	-13969
▁Ps	-13970
▁UV	-13971
agda	-13972
amot	-13973
byte	-13974
ikop	-13975
isky	-13976
▁60-	-13977
▁Aug	-13978
▁Eff	-13979
▁Ned	-13980
▁Pin	-13981
burgh	-13982
likan	-13983
ottag	-13984
stock	-13985
▁Arth	-13986
▁Jeff	-13987
▁MSEK	-13988
▁blek	-13989
▁eran	-13990
▁köks	-13991
▁obal	-13992
▁porn	-13993
elsens	-13994
länder	-13995
värden	-13996
▁1990-	-13997
▁Ansök	-13998
▁Drott	-13999
▁Sound	-14000
▁blixt	-14001
▁damer	-14002
▁helig	-14003
▁house	-14004
▁kryss	-14005
▁köpas	-14006
▁okunn	-14007
▁sköna	-14008
unionen	-14009
▁Albert	-14010
▁Högsta	-14011
▁Libyen	-14012
▁Parker	-14013
▁Stefan	-14014
▁anslag	-14015
▁beklag	-14016
▁destru	-14017
▁dyrare	-14018
▁femtio	-14019
▁glaset	-14020
▁hemlig	-14021
▁inleda	-14022
▁kartor	-14023
▁medium	-14024
▁offren	-14025
▁omdöme	-14026
▁röstar	-14027
▁rösten	-14028
▁satsar	-14029
▁utkast	-14030
▁Station	-14031
▁iserade	-14032
▁mässigt	-14033
▁olaglig	-14034
▁skrivas	-14035
▁Pakistan	-14036
▁diktatur	-14037
▁laddning	-14038
▁objektet	-14039
▁oväntade	-14040
▁uppmanas	-14041
▁Studenter	-14042
▁akademisk	-14043
▁fotografi	-14044
▁förklaras	-14045
▁handlings	-14046
▁trädgårds	-14047
▁ambassadör	-14048
▁växthusgas	-14049
▁Åtminstone	-14050
▁beräkningar	-14051
▁beskattning	-14052
▁konferenser	-14053
▁rättfärdiga	-14054
▁statistiken	-14055
▁hjärtsjukdom	-14056
▁riktlinjerna	-14057
▁tillverkarna	-14058
▁kombinationen	-14059
▁prioriteringar	-14060
8]	-14061
IK	-14062
sw	-14063
oma	-14064
▁MB	-14065
elim	-14066
iami	-14067
nest	-14068
stod	-14069
utit	-14070
▁Brö	-14071
▁Cop	-14072
▁FBI	-14073
▁Fab	-14074
▁Leo	-14075
▁Mär	-14076
▁Väd	-14077
▁myn	-14078
cipen	-14079
ioden	-14080
klaga	-14081
källa	-14082
otify	-14083
stats	-14084
▁Camb	-14085
▁Cons	-14086
▁Ener	-14087
▁Kopp	-14088
▁Lisa	-14089
▁Tala	-14090
▁View	-14091
▁ella	-14092
▁game	-14093
▁hatt	-14094
▁komb	-14095
▁oper	-14096
▁vrid	-14097
ftande	-14098
sbolag	-14099
▁Klass	-14100
▁Relig	-14101
▁Stäng	-14102
▁Tesla	-14103
▁argum	-14104
▁blank	-14105
▁blädd	-14106
▁bredd	-14107
▁gömma	-14108
▁kärna	-14109
▁oroar	-14110
▁pröva	-14111
▁ramar	-14112
▁städa	-14113
▁tagna	-14114
▁touch	-14115
▁tröja	-14116
inarier	-14117
junktur	-14118
▁Behand	-14119
▁Henrik	-14120
▁Pengar	-14121
▁Scient	-14122
▁bedöms	-14123
▁buller	-14124
▁byggda	-14125
▁drömma	-14126
▁festen	-14127
▁halsen	-14128
▁klippa	-14129
▁lovade	-14130
▁mentor	-14131
▁polska	-14132
▁riskfa	-14133
▁sajten	-14134
▁seriös	-14135
▁shoppa	-14136
▁showen	-14137
▁tryckt	-14138
▁uthåll	-14139
▁vampyr	-14140
▁viljan	-14141
▁ödmjuk	-14142
material	-14143
▁barriär	-14144
▁förfölj	-14145
▁likadan	-14146
▁missbru	-14147
▁onödiga	-14148
▁premium	-14149
▁schweiz	-14150
▁statlig	-14151
▁utställ	-14152
▁blandade	-14153
▁cellerna	-14154
▁formellt	-14155
▁historik	-14156
▁härifrån	-14157
▁motivera	-14158
▁märkning	-14159
▁placerar	-14160
▁tillsyns	-14161
▁uppstått	-14162
▁utbildad	-14163
▁övertyga	-14164
▁Historien	-14165
▁assistent	-14166
▁engagerad	-14167
▁förväntat	-14168
▁injektion	-14169
▁kulturell	-14170
▁medeltida	-14171
▁samlingar	-14172
▁träningen	-14173
▁verktygen	-14174
▁Exempelvis	-14175
▁afrikanska	-14176
▁demokratin	-14177
▁mottagaren	-14178
▁permanenta	-14179
▁seminarier	-14180
▁annonsering	-14181
▁erbjudandet	-14182
▁indikatorer	-14183
▁kontrollerade	-14184
▁känslomässiga	-14185
▁tvärvetenskap	-14186
▁konventionella	-14187
▁tillverkningen	-14188
▁inställningarna	-14189
▁é	-14190
bal	-14191
gon	-14192
off	-14193
uum	-14194
▁62	-14195
▁?)	-14196
fram	-14197
läng	-14198
skåd	-14199
vars	-14200
vits	-14201
▁Blå	-14202
▁Cha	-14203
▁Ess	-14204
▁Joe	-14205
▁Rio	-14206
▁fäl	-14207
▁vre	-14208
▁ått	-14209
Detta	-14210
ensen	-14211
gerar	-14212
patit	-14213
rator	-14214
redje	-14215
senal	-14216
ydnad	-14217
äsong	-14218
▁Agen	-14219
▁Beat	-14220
▁Expl	-14221
▁Nike	-14222
▁Skap	-14223
▁Vinn	-14224
▁anli	-14225
▁erad	-14226
▁hals	-14227
▁horn	-14228
▁love	-14229
▁sion	-14230
▁smal	-14231
jungar	-14232
opment	-14233
ostnad	-14234
ökning	-14235
▁2000-	-14236
▁Betal	-14237
▁Hamas	-14238
▁Liber	-14239
▁Lissa	-14240
▁Nokia	-14241
▁Roger	-14242
▁Söder	-14243
▁befog	-14244
▁buddh	-14245
▁flagg	-14246
▁ljuga	-14247
▁logik	-14248
▁lyser	-14249
▁mörda	-14250
▁nämnt	-14251
▁oförm	-14252
▁parts	-14253
▁råkar	-14254
▁smält	-14255
▁tolka	-14256
antaget	-14257
▁Sports	-14258
▁Tredje	-14259
▁Trumps	-14260
▁access	-14261
▁fossil	-14262
▁fyrtio	-14263
▁förtro	-14264
▁gynnar	-14265
▁hypote	-14266
▁kopier	-14267
▁mamman	-14268
▁matcha	-14269
▁minimi	-14270
▁mormor	-14271
▁riktad	-14272
utrition	-14273
▁Avtalet	-14274
▁British	-14275
▁Området	-14276
▁Swedish	-14277
▁bestämd	-14278
▁hamnade	-14279
▁kollega	-14280
▁kvalita	-14281
▁samlats	-14282
▁tangent	-14283
▁vinsten	-14284
▁Bolagets	-14285
▁fördjupa	-14286
▁förflytt	-14287
▁förlorad	-14288
▁hormoner	-14289
▁karakter	-14290
▁kontrast	-14291
▁kreativt	-14292
▁kritiskt	-14293
▁maximala	-14294
▁maximera	-14295
▁nationen	-14296
▁noterade	-14297
▁samtalet	-14298
▁serverar	-14299
▁tabellen	-14300
▁utrustad	-14301
▁utvärder	-14302
▁avslöjade	-14303
▁community	-14304
▁dagsläget	-14305
▁drabbades	-14306
▁genomgått	-14307
▁handikapp	-14308
▁kontaktar	-14309
▁långvarig	-14310
▁misstänkt	-14311
▁omvandlas	-14312
▁prestigef	-14313
▁skrivande	-14314
▁starkaste	-14315
▁uppfyllda	-14316
▁utskottet	-14317
▁viktigast	-14318
förbrukning	-14319
▁akademiker	-14320
▁avslappnad	-14321
▁hänvisning	-14322
▁kundtjänst	-14323
▁organismer	-14324
▁positionen	-14325
▁sofistiker	-14326
▁tillverkad	-14327
▁faciliteter	-14328
▁elektricitet	-14329
▁konversation	-14330
▁Sovjetunionen	-14331
▁genomsnittlig	-14332
Kr	-14333
zo	-14334
ame	-14335
bol	-14336
can	-14337
fit	-14338
ups	-14339
ute	-14340
▁84	-14341
▁Kr	-14342
▁NU	-14343
▁TS	-14344
bbel	-14345
eing	-14346
fari	-14347
grad	-14348
iser	-14349
slin	-14350
smed	-14351
strä	-14352
äkna	-14353
änka	-14354
▁PRO	-14355
▁cap	-14356
▁töm	-14357
attan	-14358
bonus	-14359
media	-14360
tendo	-14361
▁Card	-14362
▁Clas	-14363
▁Dark	-14364
▁Mika	-14365
▁Ther	-14366
▁erar	-14367
▁evig	-14368
▁hava	-14369
▁ojäm	-14370
▁tält	-14371
nation	-14372
sprodu	-14373
äktige	-14374
▁Alice	-14375
▁Brist	-14376
▁Color	-14377
▁Extra	-14378
▁Grupp	-14379
▁Hälso	-14380
▁Index	-14381
▁Initi	-14382
▁Malta	-14383
▁Miami	-14384
▁Mount	-14385
▁Titan	-14386
▁Total	-14387
▁börda	-14388
▁centr	-14389
▁field	-14390
▁ivrig	-14391
▁makro	-14392
▁mexik	-14393
▁power	-14394
▁rörde	-14395
▁sling	-14396
▁utlän	-14397
ektions	-14398
handels	-14399
områden	-14400
▁Report	-14401
▁Tänkte	-14402
▁byråer	-14403
▁dödlig	-14404
▁erkänd	-14405
▁hemskt	-14406
▁hoppar	-14407
▁museer	-14408
▁rummen	-14409
▁stängd	-14410
▁talare	-14411
hållning	-14412
▁Academy	-14413
▁Beställ	-14414
▁Libanon	-14415
▁Outlook	-14416
▁andetag	-14417
▁bolagen	-14418
▁engångs	-14419
▁försvag	-14420
▁inskrän	-14421
▁jobbade	-14422
▁konsoli	-14423
▁lagarna	-14424
▁lansera	-14425
▁menstru	-14426
▁nycklar	-14427
▁pionjär	-14428
▁släppas	-14429
▁smycken	-14430
▁tablett	-14431
▁terrass	-14432
▁trenden	-14433
▁veckors	-14434
▁volymer	-14435
▁Williams	-14436
▁fabriker	-14437
▁frånvaro	-14438
▁passande	-14439
▁prostata	-14440
▁söndagen	-14441
▁Bluetooth	-14442
▁Parlament	-14443
▁befintlig	-14444
▁inriktade	-14445
▁kommunist	-14446
▁magnesium	-14447
▁officiell	-14448
▁synvinkel	-14449
▁ursprungs	-14450
▁analytiker	-14451
▁fokuserade	-14452
▁främlingar	-14453
▁hjälpmedel	-14454
▁humanitära	-14455
▁misstänker	-14456
▁potentiell	-14457
▁småföretag	-14458
▁underrätta	-14459
▁ömsesidigt	-14460
▁anklagelser	-14461
▁beräkningen	-14462
▁föregångare	-14463
▁kolhydrater	-14464
▁medvetandet	-14465
▁välsignelse	-14466
▁anställnings	-14467
▁gemenskapens	-14468
▁psykologiska	-14469
▁självständig	-14470
▁barmhärtighet	-14471
▁efterföljande	-14472
▁kombinationer	-14473
▁publikationer	-14474
▁tillförlitliga	-14475
▁organisationens	-14476
▁transplantation	-14477
Don	-14478
agd	-14479
grä	-14480
hoo	-14481
ois	-14482
phy	-14483
▁%)	-14484
▁Oj	-14485
▁RS	-14486
▁vs	-14487
here	-14488
ivat	-14489
lock	-14490
mars	-14491
ouch	-14492
tets	-14493
yler	-14494
▁Fan	-14495
▁Ori	-14496
▁cle	-14497
▁frö	-14498
▁kly	-14499
▁kne	-14500
▁ätt	-14501
▁”).	-14502
appen	-14503
count	-14504
farkt	-14505
opera	-14506
oppet	-14507
seras	-14508
sport	-14509
öarna	-14510
▁Edin	-14511
▁Hold	-14512
▁Mega	-14513
▁forn	-14514
▁gynn	-14515
▁proj	-14516
▁rått	-14517
▁tall	-14518
▁årig	-14519
ilding	-14520
ositör	-14521
parten	-14522
stjärn	-14523
▁Ether	-14524
▁Jason	-14525
▁Rumän	-14526
▁Svårt	-14527
▁andan	-14528
▁aptit	-14529
▁behär	-14530
▁folkh	-14531
▁impul	-14532
▁kardi	-14533
▁skrek	-14534
▁vegan	-14535
alismen	-14536
istiskt	-14537
metoder	-14538
ständig	-14539
▁Access	-14540
▁Bilden	-14541
▁Bulgar	-14542
▁PayPal	-14543
▁Svensk	-14544
▁Ungern	-14545
▁cykeln	-14546
▁dragit	-14547
▁färdas	-14548
▁fördes	-14549
▁helige	-14550
▁hinner	-14551
▁inleds	-14552
▁istisk	-14553
▁korset	-14554
▁parten	-14555
▁regiss	-14556
▁rullar	-14557
▁teckna	-14558
lingarna	-14559
▁Grattis	-14560
▁Spelare	-14561
▁Youtube	-14562
▁drabbar	-14563
▁förutse	-14564
▁helikop	-14565
▁innehav	-14566
▁internt	-14567
▁komposi	-14568
▁lovande	-14569
▁panelen	-14570
▁resande	-14571
▁tjänade	-14572
▁visades	-14573
▁Användar	-14574
▁Nintendo	-14575
▁business	-14576
▁dynamisk	-14577
▁försöket	-14578
▁genomgår	-14579
▁kamrater	-14580
▁kvarstår	-14581
▁planerad	-14582
▁symtomen	-14583
▁uttrycks	-14584
▁välkomst	-14585
▁Edinburgh	-14586
▁doktorand	-14587
▁efterfråg	-14588
▁enheterna	-14589
▁förbinder	-14590
▁förvandla	-14591
▁målningar	-14592
▁projekten	-14593
▁Alzheimers	-14594
▁genombrott	-14595
▁projektets	-14596
▁ståndpunkt	-14597
▁evenemanget	-14598
▁noggrannhet	-14599
▁förpacknings	-14600
▁immunförsvar	-14601
▁spelautomater	-14602
▁representation	-14603
▁förhandlingarna	-14604
▁sekretesspolicy	-14605
▁specifikationer	-14606
ado	-14607
arv	-14608
eor	-14609
fva	-14610
jas	-14611
kam	-14612
uru	-14613
▁/2	-14614
▁2/	-14615
▁Au	-14616
▁iz	-14617
▁”-	-14618
ogan	-14619
ople	-14620
ross	-14621
situ	-14622
utik	-14623
▁17.	-14624
▁Dal	-14625
▁Råd	-14626
▁Sof	-14627
▁dan	-14628
▁fog	-14629
ecuti	-14630
flöde	-14631
kture	-14632
noser	-14633
ontan	-14634
solut	-14635
▁1969	-14636
▁1970	-14637
▁Hell	-14638
▁Milj	-14639
▁Phot	-14640
▁Sjuk	-14641
▁Snow	-14642
▁bjöd	-14643
▁elef	-14644
▁gluk	-14645
▁lill	-14646
▁lind	-14647
▁munt	-14648
▁past	-14649
▁stel	-14650
▁sval	-14651
sklass	-14652
teriör	-14653
▁Court	-14654
▁Fokus	-14655
▁Kväll	-14656
▁Prins	-14657
▁Regel	-14658
▁banor	-14659
▁champ	-14660
▁folkm	-14661
▁folks	-14662
▁följs	-14663
▁hinna	-14664
▁kvitt	-14665
▁nöjes	-14666
▁offra	-14667
▁regim	-14668
▁sjutt	-14669
▁sköta	-14670
▁telek	-14671
ecutive	-14672
grupper	-14673
▁Direkt	-14674
▁Kombin	-14675
▁Spring	-14676
▁animal	-14677
▁distra	-14678
▁flydde	-14679
▁flöden	-14680
▁ingick	-14681
▁komedi	-14682
▁laddas	-14683
▁resmål	-14684
▁slaver	-14685
▁stilen	-14686
▁säljas	-14687
▁tryggt	-14688
▁ändrat	-14689
oproblem	-14690
väckande	-14691
▁Absolut	-14692
▁Andreas	-14693
▁Stephen	-14694
▁dottern	-14695
▁förbrän	-14696
▁förlita	-14697
▁grunder	-14698
▁inbyggd	-14699
▁inledde	-14700
▁nedgång	-14701
▁olyckan	-14702
▁organet	-14703
▁science	-14704
▁sorters	-14705
▁tvister	-14706
▁uppstån	-14707
produkter	-14708
▁affärsmo	-14709
▁analysen	-14710
▁desperat	-14711
▁främling	-14712
▁hårdvara	-14713
▁kritiker	-14714
▁redaktör	-14715
▁samlades	-14716
▁strömmen	-14717
▁testning	-14718
▁tillbaks	-14719
▁turkiska	-14720
▁utsikten	-14721
▁välstånd	-14722
▁Tysklands	-14723
▁beräkning	-14724
▁fackfören	-14725
▁förändrat	-14726
▁skapelsen	-14727
▁skrivning	-14728
▁tacksamma	-14729
▁överlever	-14730
▁Alternativ	-14731
▁Indonesien	-14732
▁avvikelser	-14733
▁balanserad	-14734
▁komplement	-14735
▁uppskattas	-14736
▁vetenskaps	-14737
▁övergången	-14738
▁irriterande	-14739
▁potentialen	-14740
▁styrelseled	-14741
▁världsklass	-14742
▁elektroniskt	-14743
▁förordningar	-14744
▁hälsoproblem	-14745
▁världsledande	-14746
▁utrikesminister	-14747
1]	-14748
DR	-14749
Hz	-14750
cl	-14751
▁~	-14752
dvs	-14753
esh	-14754
lär	-14755
uen	-14756
urn	-14757
▁ml	-14758
agon	-14759
féer	-14760
kers	-14761
ljud	-14762
slar	-14763
unta	-14764
ylan	-14765
▁13:	-14766
▁Täv	-14767
▁ble	-14768
▁dil	-14769
▁hop	-14770
▁kru	-14771
▁nik	-14772
ffein	-14773
gerna	-14774
onder	-14775
panel	-14776
ändsk	-14777
▁Bull	-14778
▁Doug	-14779
▁Guld	-14780
▁Kell	-14781
▁Moon	-14782
▁Redo	-14783
▁bevä	-14784
▁inta	-14785
▁more	-14786
▁oral	-14787
bärare	-14788
change	-14789
melser	-14790
terats	-14791
▁1970-	-14792
▁Kevin	-14793
▁Monte	-14794
▁Utfor	-14795
▁fjäll	-14796
▁fördr	-14797
▁låtit	-14798
▁raden	-14799
▁rutan	-14800
▁skytt	-14801
▁tävla	-14802
▁vilse	-14803
rapport	-14804
timmars	-14805
viditet	-14806
▁Arthur	-14807
▁Fastig	-14808
▁Luther	-14809
▁Michel	-14810
▁Silver	-14811
▁bekämp	-14812
▁betong	-14813
▁bevitt	-14814
▁boskap	-14815
▁djupet	-14816
▁döljer	-14817
▁kollar	-14818
▁korrid	-14819
▁masker	-14820
[...]
