[UNK]	0
[CLS]	1
[SEP]	2
[PAD]	3
[MASK]	4
!	5
"	6
#	7
$	8
%	9
&	10
'	11
(	12
)	13
*	14
+	15
,	16
-	17
.	18
/	19
0	20
1	21
2	22
3	23
4	24
5	25
6	26
7	27
8	28
9	29
:	30
;	31
<	32
=	33
>	34
?	35
@	36
[	37
\	38
]	39
^	40
_	41
`	42
a	43
b	44
c	45
d	46
e	47
f	48
g	49
h	50
i	51
j	52
k	53
l	54
m	55
n	56
o	57
p	58
q	59
r	60
s	61
t	62
u	63
v	64
w	65
x	66
y	67
z	68
{	69
|	70
}	71
~	72
	73
	74
	75
	76
	77
	78
	79
	80
	81
	82
	83
	84
¡	85
¢	86
£	87
¤	88
¥	89
§	90
©	91
«	92
¬	93
­	94
®	95
°	96
±	97
¶	98
·	99
»	100
¿	101
×	102
ß	103
à	104
á	105
â	106
ã	107
ä	108
å	109
æ	110
ç	111
è	112
é	113
ê	114
ë	115
ì	116
í	117
î	118
ï	119
ð	120
ñ	121
ò	122
ó	123
ô	124
õ	125
ö	126
÷	127
ø	128
ù	129
ú	130
û	131
ü	132
ý	133
þ	134
ÿ	135
ā	136
ă	137
ą	138
ć	139
č	140
đ	141
ē	142
ė	143
ę	144
ě	145
ğ	146
ħ	147
ī	148
ı	149
ķ	150
ĺ	151
ł	152
ń	153
ō	154
ő	155
œ	156
ś	157
ş	158
š	159
ţ	160
ū	161
ų	162
ż	163
ž	164
ƒ	165
ơ	166
ư	167
ǎ	168
ǒ	169
ǔ	170
ǧ	171
ș	172
ɑ	173
ɒ	174
ə	175
ɛ	176
ɡ	177
ɣ	178
ɸ	179
ʹ	180
ʼ	181
ˆ	182
ˈ	183
ˌ	184
ː	185
ˮ	186
́	187
̂	188
̃	189
̇	190
̈	191
̊	192
̶	193
ά	194
ή	195
ί	196
α	197
β	198
γ	199
δ	200
ε	201
η	202
θ	203
ι	204
κ	205
λ	206
μ	207
ν	208
ο	209
π	210
ρ	211
ς	212
σ	213
τ	214
φ	215
χ	216
ω	217
ό	218
ύ	219
а	220
б	221
в	222
г	223
д	224
е	225
и	226
й	227
к	228
л	229
м	230
н	231
о	232
п	233
р	234
с	235
т	236
ц	237
ы	238
э	239
я	240
ј	241
ґ	242
ӓ	243
ӧ	244
א	245
ד	246
צ	247
ا	248
ة	249
ت	250
ث	251
ج	252
ح	253
د	254
ر	255
س	256
ص	257
ع	258
ك	259
ل	260
م	261
ن	262
ه	263
و	264
ى	265
ي	266
ڤ	267
ނ	268
ތ	269
ަ	270
ާ	271
ก	272
ข	273
ต	274
ธ	275
น	276
ย	277
ร	278
ส	279
ะ	280
ั	281
ิ	282
ี	283
ุ	284
เ	285
ი	286
რ	287
უ	288
ც	289
ხ	290
ḥ	291
ḳ	292
ṅ	293
ṇ	294
ṛ	295
ṣ	296
ṭ	297
ạ	298
ả	299
ầ	300
ẹ	301
ễ	302
ệ	303
ỉ	304
ị	305
ọ	306
ờ	307
ủ	308
ἀ	309
ἐ	310
​	311
‌	312
‍	313
‎	314
‏	315
‐	316
‒	317
–	318
—	319
―	320
‘	321
’	322
‚	323
“	324
”	325
„	326
†	327
‡	328
•	329
‣	330
‬	331
‭	332
′	333
‹	334
›	335
※	336
⁃	337
⁄	338
₤	339
€	340
←	341
↑	342
→	343
↓	344
↩	345
↵	346
⇑	347
⇒	348
⇨	349
∈	350
∑	351
−	352
∙	353
√	354
∞	355
≈	356
≤	357
≥	358
⋅	359
▌	360
■	361
□	362
▪	363
▲	364
▶	365
▷	366
▸	367
►	368
▼	369
▽	370
▾	371
◄	372
◆	373
◊	374
○	375
●	376
◦	377
◾	378
★	379
☆	380
☐	381
☒	382
☕	383
☝	384
☟	385
☭	386
☺	387
♡	388
♣	389
♥	390
♦	391
♧	392
♪	393
♫	394
⚘	395
✅	396
✌	397
✎	398
✓	399
✔	400
✗	401
✰	402
❑	403
❓	404
❤	405
❥	406
➜	407
➥	408
⟵	409
⟶	410
⦁	411
⭐	412
オ	413
コ	414
ニ	415
ビ	416
リ	417
ン	418
・	419
万	420
世	421
中	422
主	423
五	424
人	425
会	426
光	427
公	428
共	429
军	430
华	431
协	432
協	433
台	434
司	435
命	436
和	437
团	438
国	439
國	440
大	441
山	442
岁	443
式	444
春	445
會	446
月	447
有	448
株	449
楚	450
民	451
江	452
海	453
湾	454
灣	455
狂	456
珞	457
球	458
界	459
社	460
秋	461
空	462
箇	463
級	464
级	465
结	466
联	467
聯	468
臺	469
航	470
言	471
賽	472
赛	473
超	474
足	475
軍	476
鈥	477
锦	478
镜	479
际	480
限	481
集	482
革	483
낍	484
눉	485
책	486
	487
	488
	489
	490
	491
	492
	493
	494
	495
	496
	497
	498
	499
	500
	501
	502
	503
	504
	505
	506
	507
	508
	509
	510
	511
	512
	513
	514
	515
	516
	517
	518
	519
	520
	521
	522
	523
	524
	525
	526
︎	527
️	528
﻿	529
￼	530
�	531
🇨	532
🌞	533
🌷	534
🌸	535
🍀	536
🍦	537
🍰	538
🍳	539
🍴	540
🎁	541
🎈	542
🎉	543
🎨	544
🎶	545
🎼	546
🏆	547
🏻	548
🏼	549
🏽	550
🐞	551
🐲	552
🐴	553
🐾	554
👁	555
👇	556
👌	557
👍	558
👏	559
💔	560
💕	561
💖	562
💙	563
💚	564
💜	565
💤	566
💥	567
💪	568
💰	569
📌	570
📚	571
📷	572
🔸	573
🖤	574
🗞	575
😀	576
😁	577
😂	578
😃	579
😄	580
😅	581
😆	582
😇	583
😉	584
😊	585
😋	586
😍	587
😎	588
😔	589
😕	590
😖	591
😘	592
😛	593
😜	594
😝	595
😞	596
😠	597
😢	598
😦	599
😫	600
😬	601
😭	602
😳	603
😶	604
🙁	605
🙂	606
🙆	607
🙈	608
🙉	609
🙌	610
🙏	611
🤔	612
🤗	613
🤙	614
🤛	615
🤣	616
🤩	617
🤯	618
🥂	619
🥇	620
🦋	621
🦌	622
🧡	623
🧩	624
##i	625
##t	626
##a	627
##n	628
##p	629
##e	630
##s	631
##l	632
##o	633
##b	634
##ü	635
##r	636
##u	637
##c	638
##v	639
##k	640
##y	641
##m	642
##j	643
##h	644
##w	645
##d	646
##å	647
##é	648
##湾	649
##民	650
##主	651
##国	652
##g	653
##z	654
##f	655
##ö	656
##š	657
##æ	658
##x	659
##ä	660
##"	661
##6	662
##5	663
##4	664
##©	665
##q	666
##î	667
##8	668
##•	669
##1	670
##θ	671
##ə	672
##9	673
##2	674
##0	675
##ø	676
##í	677
##!	678
##,	679
##-	680
##ç	681
##–	682
##3	683
##ï	684
##г	685
##â	686
##.	687
##?	688
##ó	689
##ð	690
##*	691
##á	692
##ι	693
##δ	694
##ό	695
##^	696
##♥	697
##س	698
##ك	699
##و	700
##ت	701
##)	702
##ã	703
##ž	704
##à	705
##�	706
##<	707
##д	708
##ë	709
##7	710
##ú	711
##ô	712
##§	713
##+	714
###	715
##ę	716
##;	717
##ơ	718
##万	719
##岁	720
##ş	721
##'	722
##ß	723
##ą	724
##č	725
##≈	726
##ñ	727
##$	728
##]	729
##책	730
##🏽	731
##”	732
##团	733
##è	734
##û	735
##ā	736
##🌞	737
##¢	738
##​	739
##ł	740
##ő	741
##ć	742
##̇	743
##а	744
##:	745
##ن	746
##ا	747
##đ	748
##›	749
##ح	750
##م	751
##د	752
##/	753
##ʹ	754
##>	755
##ō	756
##命	757
##軍	758
##(	759
##ο	760
##γ	761
##ί	762
##α	763
##❤	764
##κ	765
##🌸	766
##ū	767
##ê	768
##~	769
##ḥ	770
##ј	771
##к	772
##п	773
##ń	774
##ṭ	775
##😝	776
##ή	777
##ν	778
##🏆	779
##=	780
##ı	781
##φ	782
##ά	783
##ς	784
##е	785
##ệ	786
##’	787
##🤣	788
##ɑ	789
##»	790
##с	791
##н	792
##ы	793
##超	794
##联	795
##赛	796
##й	797
##🏼	798
##ủ	799
##†	800
##👌	801
##ر	802
##ة	803
##海	804
##	805
##😅	806
##ه	807
##🍀	808
##👍	809
##ӓ	810
##ɣ	811
##λ	812
##ω	813
##🤛	814
##«	815
##◾	816
##|	817
##ṅ	818
##國	819
##足	820
##球	821
##協	822
##χ	823
##→	824
##ร	825
##ต	826
##э	827
##—	828
##ĺ	829
##🏻	830
##际	831
##😂	832
##′	833
##¤	834
##言	835
##ù	836
##м	837
##и	838
##œ	839
##ý	840
##{	841
##ビ	842
##ニ	843
##ص	844
##ờ	845
##ả	846
##华	847
##人	848
##共	849
##ī	850
##σ	851
##õ	852
##ε	853
##ẹ	854
##←	855
##	856
##ع	857
##¬	858
##\	859
##ل	860
##ي	861
##เ	862
##ก	863
##}	864
##%	865
##光	866
##ǔ	867
##ķ	868
##ṣ	869
##ṇ	870
##ˆ	871
##ธ	872
##น	873
##ะ	874
##ც	875
##უ	876
##რ	877
##ი	878
##大	879
##ґ	880
##►	881
##°	882
##ى	883
##£	884
##ų	885
##💤	886
##⭐	887
##	888
##ì	889
##秋	890
##航	891
##空	892
##■	893
##	894
##ă	895
##🌷	896
##ج	897
##&	898
##ò	899
##®	900
##级	901
##‹	902
##	903
##ц	904
##_	905
##‎	906
##ρ	907
##р	908
##	909
##😕	910
##ţ	911
##ē	912
##😍	913
##协	914
##💚	915
##ạ	916
##о	917
##в	918
##山	919
##級	920
##聯	921
##賽	922
##€	923
##オ	924
##リ	925
##コ	926
##ン	927
##🍰	928
##🥂	929
##ḳ	930
##“	931
##📚	932
##革	933
##限	934
##公	935
##司	936
##¿	937
##	938
##η	939
##🦌	940
##≥	941
##ǒ	942
##﻿	943
##式	944
##会	945
##军	946
##🙌	947
##ÿ	948
##ầ	949
##ğ	950
##þ	951
##er	952
##tt	953
de	954
##ll	955
en	956
##ar	957
##an	958
er	959
##ör	960
##en	961
in	962
oc	963
##in	964
för	965
och	966
##om	967
att	968
##st	969
ti	970
är	971
##et	972
##ig	973
##ed	974
##ra	975
av	976
##ag	977
##on	978
##nd	979
vi	980
som	981
det	982
##ka	983
##är	984
st	985
till	986
om	987
ar	988
##or	989
##ti	990
på	991
##te	992
##na	993
med	994
##de	995
##ing	996
et	997
den	998
var	999
na	1000
##pp	1001
an	1002
du	1003
##ån	1004
##ro	1005
re	1006
##ss	1007
ut	1008
##kt	1009
##ck	1010
jag	1011
##at	1012
##al	1013
har	1014
inte	1015
ing	1016
##el	1017
be	1018
sk	1019
##sk	1020
ett	1021
vä	1022
or	1023
##am	1024
##ter	1025
li	1026
kan	1027
ell	1028
##re	1029
ning	1030
##li	1031
##and	1032
fr	1033
lä	1034
era	1035
ska	1036
##lla	1037
##åg	1038
nd	1039
ri	1040
##år	1041
upp	1042
and	1043
##tta	1044
ig	1045
##il	1046
##ver	1047
##ri	1048
##ta	1049
##än	1050
el	1051
##em	1052
##ur	1053
eller	1054
##ad	1055
pro	1056
men	1057
så	1058
sä	1059
##ot	1060
##era	1061
##sta	1062
##la	1063
tr	1064
sam	1065
##ång	1066
##ma	1067
från	1068
han	1069
ku	1070
sp	1071
##ni	1072
##ld	1073
##mer	1074
##lig	1075
rä	1076
lig	1077
när	1078
ha	1079
min	1080
und	1081
se	1082
##äl	1083
##da	1084
över	1085
le	1086
ef	1087
än	1088
ver	1089
di	1090
##vä	1091
ommer	1092
si	1093
någ	1094
##se	1095
ng	1096
nde	1097
gör	1098
##ol	1099
man	1100
te	1101
ta	1102
ion	1103
##us	1104
kom	1105
bar	1106
##het	1107
##sa	1108
gen	1109
vara	1110
##ort	1111
##ve	1112
##inn	1113
tid	1114
het	1115
ll	1116
kon	1117
all	1118
under	1119
ör	1120
alla	1121
##ut	1122
ati	1123
##ne	1124
am	1125
##ks	1126
al	1127
ty	1128
##are	1129
din	1130
ny	1131
ni	1132
år	1133
fa	1134
##ud	1135
bl	1136
##ft	1137
ne	1138
sig	1139
fö	1140
sin	1141
##kti	1142
are	1143
##ru	1144
detta	1145
##od	1146
##it	1147
##ssa	1148
##ska	1149
efter	1150
ko	1151
lo	1152
må	1153
##lj	1154
ra	1155
här	1156
vad	1157
sl	1158
där	1159
hå	1160
##pa	1161
mi	1162
sa	1163
##ste	1164
##ram	1165
hur	1166
dig	1167
##ng	1168
##vi	1169
hel	1170
ande	1171
my	1172
##bb	1173
kl	1174
it	1175
ex	1176
hon	1177
gi	1178
##lle	1179
nu	1180
anvä	1181
##ker	1182
del	1183
##va	1184
##ent	1185
ation	1186
genom	1187
dag	1188
mer	1189
finn	1190
hand	1191
##gi	1192
finns	1193
id	1194
gång	1195
##so	1196
##gg	1197
##kså	1198
nä	1199
också	1200
ro	1201
håll	1202
andra	1203
##ju	1204
bli	1205
ner	1206
##bet	1207
erna	1208
at	1209
ka	1210
##ven	1211
män	1212
per	1213
ering	1214
##äll	1215
##fö	1216
##si	1217
mö	1218
vill	1219
fi	1220
mig	1221
ma	1222
verk	1223
fl	1224
as	1225
liv	1226
dem	1227
lö	1228
ju	1229
hö	1230
denna	1231
##ats	1232
hj	1233
få	1234
##tio	1235
ho	1236
bara	1237
vär	1238
is	1239
myck	1240
po	1241
##vå	1242
of	1243
rätt	1244
##un	1245
##ans	1246
mot	1247
kr	1248
va	1249
##ord	1250
la	1251
vid	1252
eg	1253
tt	1254
vår	1255
rsta	1256
ge	1257
em	1258
mo	1259
göra	1260
##ök	1261
##ilj	1262
ns	1263
nt	1264
##cka	1265
även	1266
vil	1267
änd	1268
ba	1269
##ch	1270
##öv	1271
pl	1272
sätt	1273
rbet	1274
bo	1275
mar	1276
hä	1277
##öd	1278
hi	1279
tro	1280
gru	1281
mång	1282
land	1283
ur	1284
bör	1285
jäl	1286
samma	1287
beh	1288
någon	1289
nda	1290
lu	1291
ly	1292
ch	1293
sy	1294
##le	1295
vet	1296
red	1297
fram	1298
tj	1299
lag	1300
##je	1301
många	1302
kulle	1303
oss	1304
##ke	1305
##var	1306
då	1307
dessa	1308
tal	1309
##fe	1310
säg	1311
bra	1312
ätt	1313
do	1314
mm	1315
ighet	1316
handl	1317
to	1318
##nan	1319
allt	1320
oli	1321
ord	1322
##um	1323
by	1324
else	1325
ga	1326
nder	1327
nst	1328
##åd	1329
männi	1330
res	1331
##ja	1332
on	1333
spel	1334
ed	1335
led	1336
inf	1337
tä	1338
rld	1339
gt	1340
får	1341
trä	1342
ag	1343
##ell	1344
par	1345
måste	1346
for	1347
nn	1348
##riv	1349
pa	1350
vå	1351
ber	1352
##nad	1353
ul	1354
nad	1355
gra	1356
hade	1357
th	1358
etag	1359
orm	1360
es	1361
vis	1362
tre	1363
något	1364
samt	1365
ingar	1366
hjäl	1367
ol	1368
två	1369
behöv	1370
hjälp	1371
##ser	1372
jälv	1373
val	1374
eu	1375
gå	1376
bil	1377
ment	1378
##vec	1379
kund	1380
hu	1381
ser	1382
perso	1383
##äng	1384
fu	1385
ts	1386
vilk	1387
kra	1388
mark	1389
bi	1390
eri	1391
åt	1392
följ	1393
##yd	1394
lå	1395
sm	1396
barn	1397
nlig	1398
sed	1399
utvec	1400
##ce	1401
rt	1402
dat	1403
ter	1404
##ning	1405
inom	1406
nya	1407
##tte	1408
hög	1409
sedan	1410
möj	1411
spe	1412
des	1413
hem	1414
jo	1415
sina	1416
skor	1417
tjä	1418
tra	1419
##igt	1420
dukt	1421
##tur	1422
varje	1423
stä	1424
dom	1425
ek	1426
går	1427
mat	1428
##ul	1429
utan	1430
str	1431
ade	1432
ellan	1433
##ff	1434
##ci	1435
##stä	1436
kri	1437
väg	1438
stå	1439
bä	1440
##dan	1441
##tiv	1442
grund	1443
dera	1444
yst	1445
rlden	1446
gr	1447
ad	1448
gl	1449
åter	1450
ystem	1451
möjl	1452
milj	1453
ingen	1454
stor	1455
kö	1456
ans	1457
met	1458
komm	1459
no	1460
ende	1461
gg	1462
ry	1463
gud	1464
me	1465
gj	1466
ligen	1467
akt	1468
##tik	1469
tag	1470
natio	1471
börja	1472
der	1473
##art	1474
ditt	1475
reg	1476
pre	1477
##unkt	1478
rö	1479
dess	1480
kä	1481
sto	1482
våra	1483
tän	1484
igt	1485
gram	1486
före	1487
olika	1488
vän	1489
van	1490
lös	1491
tar	1492
br	1493
ers	1494
##ts	1495
vikti	1496
hela	1497
uni	1498
dra	1499
ve	1500
väl	1501
cent	1502
##åga	1503
säger	1504
dina	1505
sju	1506
gift	1507
ung	1508
ran	1509
några	1510
fy	1511
blir	1512
deras	1513
##ie	1514
bet	1515
##der	1516
nna	1517
akti	1518
fall	1519
hans	1520
co	1521
kla	1522
we	1523
tet	1524
inne	1525
##ko	1526
##ens	1527
##ssi	1528
ger	1529
bå	1530
ent	1531
##mn	1532
skriv	1533
mål	1534
skapa	1535
änn	1536
org	1537
um	1538
kun	1539
llti	1540
skall	1541
im	1542
mär	1543
je	1544
lång	1545
erade	1546
ställ	1547
hus	1548
##emp	1549
kv	1550
lltid	1551
hör	1552
svar	1553
bland	1554
##..	1555
honom	1556
ab	1557
varfö	1558
tan	1559
eng	1560
äl	1561
kt	1562
fri	1563
kunna	1564
ss	1565
erar	1566
##sök	1567
dr	1568
iv	1569
kän	1570
sö	1571
##öm	1572
il	1573
hen	1574
egen	1575
tiv	1576
sti	1577
sitt	1578
ru	1579
ste	1580
##ali	1581
jä	1582
##dr	1583
fort	1584
##00	1585
##olk	1586
art	1587
lats	1588
nster	1589
ioner	1590
säker	1591
pp	1592
lever	1593
ens	1594
komp	1595
pri	1596
##bil	1597
nal	1598
nästa	1599
##vis	1600
the	1601
ce	1602
bor	1603
plats	1604
hitta	1605
##fi	1606
nk	1607
##ske	1608
skap	1609
visa	1610
inter	1611
tu	1612
rel	1613
##lja	1614
erb	1615
tek	1616
helt	1617
nligt	1618
henne	1619
est	1620
##ara	1621
kti	1622
råg	1623
##ov	1624
vin	1625
##stå	1626
föra	1627
##ärs	1628
bygg	1629
su	1630
slu	1631
try	1632
da	1633
blem	1634
mitt	1635
tlig	1636
varit	1637
ki	1638
väx	1639
ald	1640
us	1641
ind	1642
fråga	1643
lin	1644
verka	1645
gre	1646
##yr	1647
ld	1648
fil	1649
sv	1650
form	1651
mp	1652
ättre	1653
##tter	1654
stat	1655
lit	1656
...	1657
itet	1658
##råd	1659
rn	1660
äg	1661
enhet	1662
mest	1663
sjuk	1664
gäll	1665
nen	1666
bu	1667
bästa	1668
plan	1669
nings	1670
annan	1671
nella	1672
##ärd	1673
ram	1674
komma	1675
ja	1676
områd	1677
utom	1678
kro	1679
fly	1680
krä	1681
äm	1682
rd	1683
tiden	1684
mus	1685
anske	1686
örstå	1687
medel	1688
pi	1689
erbju	1690
un	1691
ist	1692
euro	1693
organ	1694
##cke	1695
bok	1696
nl	1697
dela	1698
rätta	1699
hos	1700
webb	1701
nnat	1702
ca	1703
orsk	1704
mä	1705
stånd	1706
kort	1707
sök	1708
ck	1709
rbets	1710
lite	1711
##end	1712
ant	1713
sluta	1714
kap	1715
##man	1716
därfö	1717
rbeta	1718
tekni	1719
##mm	1720
idag	1721
##ge	1722
troll	1723
slut	1724
arand	1725
app	1726
##lu	1727
bort	1728
nvä	1729
go	1730
stora	1731
nvänd	1732
arna	1733
tör	1734
typ	1735
aldri	1736
kling	1737
tänk	1738
ild	1739
##skap	1740
inn	1741
ble	1742
exemp	1743
##vud	1744
läm	1745
kraft	1746
tv	1747
lägg	1748
rum	1749
läs	1750
vissa	1751
vanli	1752
stöd	1753
ändr	1754
amilj	1755
häl	1756
vinn	1757
##gr	1758
##to	1759
grupp	1760
op	1761
int	1762
flera	1763
låt	1764
jobb	1765
saker	1766
artik	1767
baka	1768
omm	1769
sta	1770
god	1771
tryck	1772
blev	1773
##kna	1774
innan	1775
ast	1776
sättn	1777
##ärt	1778
lj	1779
##tal	1780
ara	1781
##rå	1782
risk	1783
ill	1784
ön	1785
##sto	1786
kil	1787
ap	1788
huvud	1789
##ok	1790
erad	1791
ac	1792
älska	1793
bro	1794
folk	1795
ster	1796
ali	1797
ull	1798
natur	1799
tror	1800
lämna	1801
##ik	1802
ci	1803
amhet	1804
san	1805
gjord	1806
råd	1807
tala	1808
läng	1809
##sio	1810
histo	1811
aren	1812
nytt	1813
fatta	1814
igen	1815
stö	1816
ned	1817
kropp	1818
ligg	1819
delar	1820
##ine	1821
sh	1822
##ono	1823
miljö	1824
oci	1825
miss	1826
liga	1827
avs	1828
värde	1829
ub	1830
verks	1831
slag	1832
ndast	1833
anta	1834
opp	1835
igare	1836
månad	1837
ekono	1838
vänta	1839
ier	1840
ink	1841
jekt	1842
fick	1843
engar	1844
öka	1845
##ef	1846
erson	1847
känd	1848
hålla	1849
ate	1850
etyd	1851
tter	1852
##ärn	1853
ard	1854
ff	1855
punkt	1856
vinno	1857
förb	1858
uro	1859
nivå	1860
dagar	1861
stru	1862
tta	1863
värd	1864
ic	1865
usa	1866
enter	1867
data	1868
lika	1869
vatte	1870
##fek	1871
mu	1872
särs	1873
nell	1874
kunde	1875
##di	1876
ofta	1877
ky	1878
##og	1879
styr	1880
ej	1881
bestä	1882
tack	1883
vilka	1884
kar	1885
ngre	1886
rbete	1887
##go	1888
bol	1889
effek	1890
kor	1891
funkt	1892
son	1893
både	1894
tur	1895
ella	1896
##ang	1897
rod	1898
star	1899
regi	1900
lle	1901
tio	1902
etal	1903
aktiv	1904
förs	1905
ocial	1906
gjort	1907
svara	1908
dö	1909
spela	1910
ie	1911
ue	1912
ven	1913
lem	1914
säga	1915
stad	1916
tor	1917
##ande	1918
tat	1919
ändra	1920
slä	1921
lev	1922
centr	1923
ark	1924
ntal	1925
gam	1926
ob	1927
leva	1928
äld	1929
mina	1930
ak	1931
bak	1932
ust	1933
redan	1934
eh	1935
orts	1936
sen	1937
ldigt	1938
ådan	1939
rs	1940
isat	1941
besök	1942
ond	1943
##me	1944
cy	1945
heten	1946
bru	1947
spec	1948
ari	1949
jord	1950
mindr	1951
fortf	1952
gäng	1953
up	1954
pel	1955
stud	1956
dock	1957
amer	1958
kvali	1959
inklu	1960
änner	1961
tyck	1962
##lut	1963
ök	1964
tyg	1965
ndra	1966
skt	1967
står	1968
trans	1969
ets	1970
fast	1971
uropa	1972
if	1973
tg	1974
vem	1975
##as	1976
träff	1977
emot	1978
fel	1979
iska	1980
ei	1981
lan	1982
ult	1983
rodu	1984
minsk	1985
isk	1986
ton	1987
namn	1988
off	1989
ubli	1990
##ga	1991
##hä	1992
##del	1993
relat	1994
ikt	1995
fem	1996
run	1997
##kal	1998
ortsä	1999
cess	2000
ele	2001
##mä	2002
flyg	2003
##id	2004
##dd	2005
nner	2006
io	2007
##ssio	2008
giv	2009
ins	2010
dj	2011
nergi	2012
ten	2013
ski	2014
fung	2015
hår	2016
rm	2017
##ina	2018
wi	2019
fär	2020
tit	2021
äker	2022
ring	2023
stnad	2024
tgärd	2025
drag	2026
fe	2027
täll	2028
##lä	2029
säk	2030
sex	2031
tim	2032
##sak	2033
lems	2034
##ns	2035
enda	2036
visar	2037
10	2038
inans	2039
lösn	2040
##ank	2041
rad	2042
arbet	2043
mor	2044
vårt	2045
##kä	2046
lut	2047
tel	2048
iga	2049
rågor	2050
##sl	2051
gängl	2052
hy	2053
livet	2054
rapp	2055
träd	2056
europ	2057
tog	2058
öpp	2059
nära	2060
ameri	2061
ting	2062
rik	2063
räck	2064
fot	2065
miljo	2066
fler	2067
rikti	2068
tad	2069
##gon	2070
nö	2071
ost	2072
kam	2073
nkel	2074
nds	2075
neb	2076
steg	2077
såg	2078
nter	2079
tera	2080
lycka	2081
##no	2082
livs	2083
nebär	2084
hjärt	2085
sol	2086
ana	2087
##vest	2088
nöd	2089
pra	2090
ala	2091
samhä	2092
nvest	2093
fru	2094
klara	2095
betal	2096
gener	2097
rappo	2098
mynd	2099
fatt	2100
just	2101
ktion	2102
ultat	2103
fan	2104
##mi	2105
##ku	2106
händ	2107
veten	2108
eslut	2109
asera	2110
sc	2111
hets	2112
tion	2113
ev	2114
eras	2115
sver	2116
svår	2117
blo	2118
##po	2119
##råk	2120
amman	2121
nog	2122
orsak	2123
mma	2124
konst	2125
driv	2126
##ende	2127
ou	2128
törre	2129
cha	2130
nskap	2131
lesta	2132
lik	2133
nera	2134
syn	2135
##för	2136
jälva	2137
gem	2138
issio	2139
runt	2140
logi	2141
eb	2142
ings	2143
sak	2144
stu	2145
ort	2146
stark	2147
dagen	2148
##pt	2149
vecka	2150
vänd	2151
rep	2152
lek	2153
ång	2154
nads	2155
sch	2156
sveri	2157
gemen	2158
llet	2159
##ydd	2160
kilt	2161
öppna	2162
ih	2163
rikt	2164
hant	2165
erial	2166
film	2167
gick	2168
ifr	2169
mod	2170
naste	2171
röst	2172
äst	2173
rekt	2174
##kto	2175
iell	2176
##far	2177
utbil	2178
rom	2179
resa	2180
konto	2181
tri	2182
samar	2183
##tera	2184
ännu	2185
##pe	2186
sko	2187
intre	2188
först	2189
he	2190
passa	2191
gel	2192
ib	2193
små	2194
ifrån	2195
kvar	2196
nabb	2197
dning	2198
##lek	2199
##ansk	2200
tom	2201
tisk	2202
sidan	2203
regl	2204
söker	2205
djur	2206
##ign	2207
släpp	2208
nor	2209
esign	2210
kol	2211
port	2212
lära	2213
oliti	2214
gu	2215
bolag	2216
test	2217
hund	2218
elser	2219
nkelt	2220
ionen	2221
behov	2222
anti	2223
räm	2224
ud	2225
ärlek	2226
örj	2227
nta	2228
nativ	2229
tred	2230
arn	2231
sida	2232
nline	2233
kicka	2234
satt	2235
enare	2236
lim	2237
ont	2238
reko	2239
örsök	2240
rr	2241
ndig	2242
skö	2243
part	2244
kansk	2245
tyd	2246
tredj	2247
fakti	2248
ilder	2249
enk	2250
lokal	2251
språk	2252
mb	2253
året	2254
##verk	2255
idigt	2256
musik	2257
ir	2258
skydd	2259
od	2260
begr	2261
bild	2262
begrä	2263
sn	2264
livit	2265
reci	2266
hav	2267
antas	2268
färg	2269
recis	2270
död	2271
fått	2272
lätt	2273
bero	2274
anc	2275
rde	2276
ål	2277
##is	2278
##gör	2279
tress	2280
pres	2281
ndigt	2282
jäm	2283
alter	2284
##rid	2285
metod	2286
ker	2287
isera	2288
kring	2289
##ori	2290
ft	2291
avtal	2292
misk	2293
##he	2294
inget	2295
hopp	2296
leda	2297
eiska	2298
växt	2299
länge	2300
ytter	2301
roll	2302
sälj	2303
sent	2304
icke	2305
ec	2306
pla	2307
teck	2308
gilla	2309
lar	2310
##äns	2311
klart	2312
eriod	2313
fyll	2314
rör	2315
ättra	2316
urs	2317
ron	2318
via	2319
olo	2320
borg	2321
dy	2322
fin	2323
bry	2324
veta	2325
lora	2326
kvinn	2327
minut	2328
mmend	2329
tydli	2330
fyra	2331
uts	2332
erfar	2333
full	2334
nå	2335
##rev	2336
gtvis	2337
teckn	2338
känna	2339
naden	2340
##fte	2341
riv	2342
krav	2343
komst	2344
pe	2345
oll	2346
bri	2347
vård	2348
relse	2349
kräv	2350
timma	2351
##su	2352
nga	2353
nte	2354
##deo	2355
af	2356
rande	2357
lad	2358
sni	2359
ann	2360
allmä	2361
rågan	2362
års	2363
gar	2364
låg	2365
ret	2366
titta	2367
##kor	2368
lam	2369
gräns	2370
välja	2371
vensk	2372
tning	2373
sse	2374
sj	2375
ren	2376
tud	2377
lex	2378
grad	2379
dia	2380
poli	2381
bruk	2382
vak	2383
ögon	2384
nödvä	2385
änsk	2386
denti	2387
oppas	2388
räckl	2389
sett	2390
itu	2391
ndas	2392
ik	2393
skill	2394
##ir	2395
unive	2396
elare	2397
tudie	2398
##ätt	2399
örs	2400
fä	2401
hal	2402
taden	2403
ps	2404
sade	2405
kalla	2406
stort	2407
klass	2408
vilja	2409
köpa	2410
medan	2411
hin	2412
talet	2413
os	2414
snitt	2415
rike	2416
enlig	2417
änskl	2418
##ob	2419
ådana	2420
llkor	2421
ay	2422
##gd	2423
ffe	2424
##ydda	2425
konf	2426
rnet	2427
rist	2428
sive	2429
kydda	2430
erat	2431
inga	2432
prata	2433
##ini	2434
20	2435
lla	2436
ultur	2437
rig	2438
000	2439
dare	2440
skatt	2441
ffekt	2442
tids	2443
els	2444
vers	2445
vand	2446
blod	2447
båda	2448
ategi	2449
nj	2450
egna	2451
pati	2452
liten	2453
nabbt	2454
sna	2455
ena	2456
krig	2457
etala	2458
nam	2459
pris	2460
räd	2461
##str	2462
inner	2463
vu	2464
vinna	2465
alt	2466
ok	2467
gri	2468
fok	2469
kvä	2470
##ino	2471
kommu	2472
ext	2473
fokus	2474
rna	2475
##ari	2476
yck	2477
ism	2478
gla	2479
dell	2480
bio	2481
ia	2482
skada	2483
dater	2484
ip	2485
bygga	2486
au	2487
elt	2488
rvi	2489
##tså	2490
kväll	2491
ria	2492
aut	2493
ote	2494
lltså	2495
new	2496
tverk	2497
svårt	2498
öd	2499
samla	2500
räkna	2501
##ha	2502
gångs	2503
ljus	2504
andet	2505
profe	2506
rivat	2507
sikt	2508
15	2509
örord	2510
ituat	2511
ack	2512
hell	2513
tills	2514
lista	2515
möte	2516
iella	2517
ork	2518
mängd	2519
tru	2520
tjäna	2521
disk	2522
glob	2523
inna	2524
örjan	2525
helst	2526
asino	2527
ris	2528
dd	2529
net	2530
snabb	2531
ses	2532
fiera	2533
medle	2534
##rk	2535
bete	2536
hälso	2537
offen	2538
titut	2539
krist	2540
ngen	2541
guds	2542
märke	2543
ehöv	2544
förf	2545
ntakt	2546
långt	2547
anal	2548
ktur	2549
rvice	2550
öv	2551
regis	2552
mån	2553
jämfö	2554
##rek	2555
norm	2556
ref	2557
30	2558
joh	2559
##som	2560
ramfö	2561
nhet	2562
demo	2563
ntegr	2564
mt	2565
sista	2566
möt	2567
valt	2568
slå	2569
##ital	2570
morgo	2571
läsa	2572
efini	2573
##ål	2574
telef	2575
bank	2576
##vo	2577
rlds	2578
pass	2579
ien	2580
tell	2581
täck	2582
nord	2583
ey	2584
##vid	2585
licka	2586
##ia	2587
takt	2588
inför	2589
borde	2590
hindr	2591
äldra	2592
gy	2593
döda	2594
prov	2595
gamla	2596
tex	2597
minst	2598
ggnad	2599
mör	2600
förut	2601
sådan	2602
gaste	2603
anför	2604
##pr	2605
trän	2606
bed	2607
rat	2608
önska	2609
ndare	2610
ident	2611
ror	2612
ensio	2613
err	2614
perfe	2615
haft	2616
dro	2617
rolig	2618
stisk	2619
divid	2620
hälsa	2621
aktio	2622
mam	2623
eln	2624
nien	2625
ini	2626
lån	2627
dålig	2628
stall	2629
##ön	2630
stand	2631
ritt	2632
klä	2633
text	2634
ow	2635
ox	2636
ute	2637
konsu	2638
##fic	2639
brott	2640
pelar	2641
ai	2642
so	2643
bud	2644
video	2645
utr	2646
trakt	2647
fanns	2648
blogg	2649
likt	2650
öring	2651
sag	2652
dju	2653
ina	2654
vikt	2655
allas	2656
ordn	2657
ublic	2658
såsom	2659
handa	2660
godkä	2661
##cker	2662
lägga	2663
tvi	2664
åg	2665
jes	2666
värld	2667
gav	2668
ville	2669
sid	2670
sera	2671
ori	2672
idé	2673
last	2674
syfte	2675
sats	2676
mmel	2677
vare	2678
ologi	2679
kal	2680
röd	2681
högre	2682
ktiv	2683
klar	2684
berg	2685
hemma	2686
ommit	2687
djup	2688
jesus	2689
vo	2690
nsvar	2691
doku	2692
lutio	2693
akta	2694
eta	2695
emi	2696
ot	2697
vack	2698
ransk	2699
ffärs	2700
12	2701
serie	2702
astig	2703
ov	2704
öj	2705
lic	2706
sign	2707
öp	2708
her	2709
antör	2710
gansk	2711
måga	2712
stans	2713
ärd	2714
log	2715
iellt	2716
ysi	2717
domar	2718
dröm	2719
meter	2720
käm	2721
regio	2722
sätta	2723
gital	2724
rer	2725
##kat	2726
lopp	2727
tarta	2728
direk	2729
ägg	2730
##jä	2731
skil	2732
regel	2733
foto	2734
aste	2735
åld	2736
rim	2737
let	2738
tradi	2739
itta	2740
##ong	2741
ange	2742
chef	2743
öcker	2744
mmar	2745
genhe	2746
sra	2747
tot	2748
##nå	2749
dags	2750
säkra	2751
äta	2752
bund	2753
vägen	2754
gått	2755
edel	2756
kven	2757
tänka	2758
##ht	2759
bin	2760
litik	2761
bered	2762
dator	2763
lär	2764
##ps	2765
pte	2766
krift	2767
stol	2768
veck	2769
uppnå	2770
ert	2771
srael	2772
inal	2773
välj	2774
lytta	2775
lld	2776
rec	2777
##urs	2778
räver	2779
mini	2780
redo	2781
dan	2782
maj	2783
kamp	2784
total	2785
##rig	2786
amma	2787
ott	2788
##ber	2789
mobil	2790
enkla	2791
itter	2792
ions	2793
fika	2794
uari	2795
eende	2796
ham	2797
bryt	2798
mna	2799
varu	2800
ock	2801
oa	2802
lands	2803
hållb	2804
halv	2805
emang	2806
##led	2807
kolan	2808
erens	2809
heter	2810
mal	2811
visn	2812
rsi	2813
roduc	2814
rå	2815
tälla	2816
dre	2817
luft	2818
anled	2819
elekt	2820
mst	2821
kare	2822
uella	2823
vecko	2824
cell	2825
rsite	2826
arm	2827
##gå	2828
krävs	2829
##tel	2830
ras	2831
dec	2832
bilda	2833
speci	2834
jobba	2835
ym	2836
ea	2837
bef	2838
rit	2839
lt	2840
åren	2841
bedöm	2842
äll	2843
anstä	2844
rakti	2845
äkers	2846
extra	2847
dde	2848
urspr	2849
rot	2850
läke	2851
färd	2852
jö	2853
skär	2854
delen	2855
nöj	2856
nät	2857
post	2858
tenti	2859
sagt	2860
sten	2861
ända	2862
##dra	2863
fasts	2864
redit	2865
ålder	2866
ool	2867
ang	2868
nci	2869
mamma	2870
makt	2871
följa	2872
nikat	2873
grip	2874
limat	2875
tas	2876
typer	2877
kost	2878
##op	2879
exi	2880
motor	2881
urang	2882
lutet	2883
ändå	2884
glad	2885
agera	2886
säkr	2887
perat	2888
batt	2889
fullt	2890
mera	2891
märk	2892
##ldi	2893
nsa	2894
##bi	2895
tidig	2896
kina	2897
skol	2898
ilm	2899
rämst	2900
njut	2901
rtera	2902
ital	2903
ncip	2904
ank	2905
saml	2906
bäst	2907
kul	2908
tatio	2909
bidra	2910
parti	2911
örsv	2912
ysisk	2913
erätt	2914
utrus	2915
nupp	2916
ämp	2917
ndo	2918
nne	2919
ial	2920
oog	2921
tig	2922
cyk	2923
rihet	2924
trö	2925
född	2926
oogle	2927
snart	2928
huset	2929
ask	2930
com	2931
ommar	2932
ihåg	2933
exa	2934
amb	2935
mag	2936
ler	2937
match	2938
mplig	2939
rg	2940
##ic	2941
##kar	2942
lön	2943
stil	2944
sitiv	2945
sakna	2946
garan	2947
lett	2948
brä	2949
gamm	2950
orna	2951
kriva	2952
artne	2953
innov	2954
stra	2955
grati	2956
inlä	2957
nande	2958
ars	2959
ssna	2960
50	2961
pr	2962
##bar	2963
låta	2964
bart	2965
lock	2966
##vl	2967
pän	2968
vux	2969
mstol	2970
bord	2971
ämpa	2972
event	2973
nsp	2974
ppen	2975
eltag	2976
klag	2977
terr	2978
dri	2979
ening	2980
iktig	2981
wo	2982
ancer	2983
mass	2984
nspir	2985
itt	2986
glö	2987
sel	2988
##nda	2989
rda	2990
viss	2991
ringa	2992
##tion	2993
eget	2994
beg	2995
25	2996
hot	2997
fälle	2998
lust	2999
age	3000
forma	3001
läge	3002
stod	3003
kret	3004
##cep	3005
begär	3006
mrå	3007
läg	3008
häm	3009
ärdig	3010
ublik	3011
dande	3012
gsta	3013
ellt	3014
numm	3015
topp	3016
##gn	3017
grepp	3018
ehövs	3019
mråde	3020
kämpa	3021
gno	3022
ms	3023
tand	3024
##ärk	3025
amp	3026
spekt	3027
tanna	3028
rning	3029
äkert	3030
gelsk	3031
md	3032
uell	3033
spår	3034
##ktio	3035
relig	3036
gro	3037
äns	3038
resen	3039
gat	3040
kna	3041
älj	3042
omb	3043
##nit	3044
disku	3045
avori	3046
ndel	3047
ros	3048
dör	3049
ära	3050
resul	3051
grön	3052
arnen	3053
rädda	3054
lassi	3055
bakom	3056
sym	3057
litet	3058
rv	3059
oav	3060
nadsf	3061
plac	3062
##åll	3063
äs	3064
##ou	3065
gott	3066
accep	3067
pelet	3068
nsi	3069
gn	3070
##rka	3071
iva	3072
temp	3073
gef	3074
döm	3075
stärk	3076
rakt	3077
gefär	3078
rien	3079
konse	3080
nellt	3081
ph	3082
tagit	3083
ativ	3084
bad	3085
rand	3086
bas	3087
psy	3088
skild	3089
iet	3090
xt	3091
natt	3092
mät	3093
hörig	3094
äsong	3095
nistr	3096
spara	3097
istä	3098
boken	3099
lera	3100
trera	3101
erren	3102
##jk	3103
vap	3104
smärt	3105
hundr	3106
ass	3107
änsl	3108
fic	3109
ordon	3110
lid	3111
etalj	3112
psyk	3113
tälle	3114
ollar	3115
stift	3116
tus	3117
abso	3118
naly	3119
llda	3120
våld	3121
kvens	3122
åk	3123
ördel	3124
fre	3125
köp	3126
äldre	3127
erkä	3128
utgör	3129
samb	3130
goda	3131
innas	3132
ong	3133
kapa	3134
sidor	3135
låter	3136
sanni	3137
ete	3138
kurs	3139
##ös	3140
etter	3141
100	3142
märkt	3143
änslo	3144
##bu	3145
##be	3146
kända	3147
ebo	3148
aktie	3149
ske	3150
träng	3151
tanke	3152
utman	3153
efolk	3154
john	3155
ilj	3156
nom	3157
ood	3158
vart	3159
trots	3160
##ons	3161
##väm	3162
ekväm	3163
ndar	3164
mmels	3165
11	3166
ua	3167
ljud	3168
styrk	3169
ihop	3170
namne	3171
ärlig	3172
mana	3173
dam	3174
wa	3175
issa	3176
polis	3177
ovan	3178
knapp	3179
ater	3180
mare	3181
atisk	3182
mörk	3183
dor	3184
ssio	3185
ator	3186
lay	3187
rumme	3188
ess	3189
frä	3190
kry	3191
arki	3192
skäl	3193
tider	3194
sjö	3195
märks	3196
kör	3197
meni	3198
nyttj	3199
ich	3200
our	3201
takta	3202
ep	3203
nent	3204
rin	3205
yrk	3206
värt	3207
uss	3208
frank	3209
fulla	3210
kyl	3211
riska	3212
krati	3213
änsla	3214
unio	3215
övrig	3216
otter	3217
fjä	3218
jan	3219
varli	3220
ose	3221
mmer	3222
varor	3223
nyhet	3224
varig	3225
ättet	3226
tc	3227
rea	3228
skan	3229
rk	3230
kyldi	3231
brist	3232
fria	3233
not	3234
reste	3235
skrev	3236
riär	3237
sitio	3238
fas	3239
rare	3240
opul	3241
rådet	3242
delta	3243
cirka	3244
sma	3245
olen	3246
admi	3247
vinst	3248
ston	3249
rele	3250
##olm	3251
uper	3252
kh	3253
ges	3254
ratur	3255
tusen	3256
nämn	3257
rra	3258
strä	3259
impo	3260
icin	3261
askin	3262
instä	3263
bj	3264
team	3265
ash	3266
leder	3267
arty	3268
indus	3269
mässi	3270
nterv	3271
sky	3272
blick	3273
max	3274
##ws	3275
lys	3276
tank	3277
ådant	3278
ester	3279
gär	3280
og	3281
##ant	3282
mati	3283
fac	3284
rätte	3285
atio	3286
ägare	3287
exakt	3288
enbar	3289
teter	3290
frukt	3291
opulä	3292
hit	3293
nr	3294
##mb	3295
fli	3296
nch	3297
sprid	3298
nstru	3299
drick	3300
dubb	3301
undra	3302
leg	3303
aff	3304
ämn	3305
fört	3306
start	3307
ela	3308
ades	3309
dern	3310
18	3311
lagen	3312
tävl	3313
rymm	3314
stopp	3315
varm	3316
ress	3317
träck	3318
grafi	3319
analy	3320
ii	3321
sla	3322
ttack	3323
ilmen	3324
dä	3325
boll	3326
berö	3327
bib	3328
ustr	3329
ight	3330
forsk	3331
expo	3332
ats	3333
tjärn	3334
entar	3335
sor	3336
höra	3337
ax	3338
sste	3339
kräft	3340
aglig	3341
gran	3342
usi	3343
##es	3344
andi	3345
engag	3346
minne	3347
bilar	3348
visas	3349
ui	3350
känns	3351
ebook	3352
cit	3353
ämne	3354
klaga	3355
bred	3356
vit	3357
its	3358
merik	3359
hjä	3360
kriti	3361
oavse	3362
ata	3363
ktivi	3364
glas	3365
kopp	3366
butik	3367
elsen	3368
vapen	3369
ake	3370
höll	3371
16	3372
rskap	3373
undvi	3374
öjlig	3375
latt	3376
tna	3377
våna	3378
nens	3379
synd	3380
drog	3381
vackr	3382
ah	3383
stro	3384
agens	3385
estår	3386
linj	3387
nland	3388
##per	3389
locka	3390
edia	3391
trafi	3392
ensam	3393
gärna	3394
reso	3395
eck	3396
##get	3397
erti	3398
tysk	3399
ttr	3400
grä	3401
hård	3402
eti	3403
you	3404
unga	3405
dist	3406
nnen	3407
indu	3408
ås	3409
strid	3410
gas	3411
fik	3412
emål	3413
edelb	3414
rädd	3415
vandl	3416
sker	3417
roni	3418
motiv	3419
opti	3420
lunda	3421
dress	3422
konve	3423
vgör	3424
medve	3425
närva	3426
vgöra	3427
ben	3428
lott	3429
stör	3430
gård	3431
hört	3432
gnos	3433
mn	3434
arnet	3435
alans	3436
ember	3437
satte	3438
atum	3439
smart	3440
anges	3441
riset	3442
nalys	3443
ämnen	3444
bser	3445
stäng	3446
tab	3447
bserv	3448
ame	3449
täcka	3450
atego	3451
13	3452
liks	3453
nöjd	3454
iser	3455
ndows	3456
band	3457
eal	3458
riser	3459
löj	3460
offic	3461
etags	3462
stik	3463
litär	3464
ojk	3465
vor	3466
edan	3467
sem	3468
skä	3469
tecke	3470
lykt	3471
ormat	3472
yrkan	3473
ira	3474
orden	3475
fund	3476
finna	3477
gal	3478
mnd	3479
stödj	3480
term	3481
sinn	3482
tida	3483
skog	3484
delni	3485
nled	3486
slig	3487
sökte	3488
insk	3489
ness	3490
korre	3491
gare	3492
kre	3493
lleg	3494
tatet	3495
kung	3496
oäng	3497
idra	3498
fattn	3499
##co	3500
följd	3501
jd	3502
eld	3503
mju	3504
vig	3505
oppla	3506
ottag	3507
anser	3508
resta	3509
##rem	3510
fylla	3511
sal	3512
erier	3513
mjuk	3514
brev	3515
rek	3516
höga	3517
ökn	3518
vandr	3519
jätte	3520
våg	3521
relev	3522
sport	3523
häng	3524
drabb	3525
tillf	3526
alls	3527
nuva	3528
skott	3529
likso	3530
skilj	3531
ativa	3532
parat	3533
storb	3534
meta	3535
gress	3536
kholm	3537
rar	3538
rier	3539
kärn	3540
nus	3541
oid	3542
gativ	3543
appa	3544
auto	3545
lubb	3546
reda	3547
gravi	3548
känsl	3549
respe	3550
oly	3551
rrens	3552
glä	3553
öds	3554
idrag	3555
udget	3556
xtrem	3557
rök	3558
yckli	3559
dg	3560
äkt	3561
##os	3562
##kn	3563
närma	3564
atur	3565
flöd	3566
14	3567
versi	3568
ritan	3569
ach	3570
end	3571
ome	3572
als	3573
årig	3574
landa	3575
svå	3576
aktär	3577
havet	3578
själ	3579
ntio	3580
ström	3581
svåra	3582
pansk	3583
rre	3584
vänli	3585
gd	3586
dit	3587
mars	3588
lans	3589
##fa	3590
kuld	3591
tes	3592
lln	3593
amtal	3594
täder	3595
ail	3596
tabil	3597
traff	3598
ktor	3599
kreat	3600
nnons	3601
ökar	3602
mul	3603
nse	3604
yta	3605
sku	3606
teo	3607
nar	3608
förra	3609
lova	3610
skärm	3611
åra	3612
enar	3613
eror	3614
lita	3615
ernas	3616
juni	3617
säng	3618
tw	3619
ckel	3620
ptemb	3621
pt	3622
hone	3623
lugn	3624
ryss	3625
40	3626
värme	3627
högt	3628
rus	3629
dik	3630
taten	3631
lätta	3632
kolla	3633
strin	3634
aktum	3635
exist	3636
rke	3637
anj	3638
bevis	3639
ålet	3640
ivil	3641
ondon	3642
ssi	3643
graf	3644
stoc	3645
unnit	3646
rämja	3647
bind	3648
##ård	3649
äng	3650
konku	3651
ity	3652
massa	3653
chi	3654
svag	3655
dgård	3656
cc	3657
åde	3658
arhet	3659
kant	3660
rikta	3661
röv	3662
värv	3663
talar	3664
aka	3665
sanno	3666
eo	3667
ektio	3668
läggn	3669
ften	3670
lilla	3671
allet	3672
tyr	3673
parla	3674
fo	3675
té	3676
revo	3677
ribu	3678
mlig	3679
vars	3680
kris	3681
scen	3682
ingår	3683
iz	3684
läder	3685
dry	3686
söka	3687
lagar	3688
hat	3689
ley	3690
rymme	3691
trand	3692
hol	3693
remi	3694
iera	3695
ling	3696
oft	3697
ence	3698
anna	3699
aw	3700
arlig	3701
sälja	3702
kasta	3703
klo	3704
iler	3705
iös	3706
jut	3707
kod	3708
mena	3709
villi	3710
rygg	3711
aktig	3712
fakto	3713
oga	3714
domen	3715
illig	3716
ormer	3717
gh	3718
yn	3719
satta	3720
pple	3721
iff	3722
pu	3723
hålls	3724
kta	3725
roma	3726
atti	3727
para	3728
aket	3729
spa	3730
ee	3731
far	3732
ril	3733
ngel	3734
urser	3735
leta	3736
vel	3737
kall	3738
välko	3739
kli	3740
vd	3741
arder	3742
rift	3743
nses	3744
len	3745
isti	3746
aktu	3747
rak	3748
kron	3749
pänna	3750
når	3751
avid	3752
rid	3753
linje	3754
bis	3755
lju	3756
varet	3757
mber	3758
annen	3759
sinne	3760
gä	3761
ken	3762
mani	3763
gger	3764
antag	3765
längd	3766
##emi	3767
lack	3768
stati	3769
24	3770
km	3771
ree	3772
press	3773
lanet	3774
nnor	3775
ekom	3776
rang	3777
oka	3778
ansök	3779
anslu	3780
sub	3781
smak	3782
bär	3783
görs	3784
mask	3785
känt	3786
pal	3787
sum	3788
##ckt	3789
rab	3790
lini	3791
ämpn	3792
stone	3793
fred	3794
sänd	3795
ntag	3796
affär	3797
gol	3798
medic	3799
fisk	3800
ågra	3801
bjud	3802
koppl	3803
ian	3804
revi	3805
jul	3806
taget	3807
imp	3808
orta	3809
tak	3810
affe	3811
ick	3812
ept	3813
idig	3814
ilden	3815
fäl	3816
kyr	3817
ral	3818
höj	3819
värr	3820
17	3821
vatt	3822
redd	3823
frika	3824
ägna	3825
ect	3826
sov	3827
autom	3828
teten	3829
emisk	3830
ago	3831
visat	3832
arken	3833
äster	3834
mil	3835
vgi	3836
visio	3837
##ani	3838
omp	3839
pul	3840
tö	3841
##ca	3842
vgift	3843
mon	3844
erso	3845
chans	3846
lås	3847
avse	3848
repa	3849
##kte	3850
änni	3851
nger	3852
rten	3853
eleve	3854
vari	3855
katte	3856
otek	3857
tempe	3858
citet	3859
lapp	3860
ladda	3861
mr	3862
sekto	3863
orge	3864
orite	3865
gon	3866
one	3867
##ry	3868
ndera	3869
roa	3870
enkel	3871
öre	3872
rukar	3873
ive	3874
unik	3875
ökand	3876
rots	3877
assa	3878
häv	3879
eder	3880
bilen	3881
sköt	3882
skri	3883
plo	3884
web	3885
agi	3886
gil	3887
enni	3888
atori	3889
väga	3890
kombi	3891
terar	3892
vände	3893
az	3894
lot	3895
park	3896
derar	3897
ommun	3898
anden	3899
sluts	3900
ew	3901
tin	3902
llor	3903
ekomm	3904
ona	3905
varo	3906
ombin	3907
yk	3908
nnand	3909
unt	3910
okto	3911
elvis	3912
tåg	3913
vac	3914
tänkt	3915
aria	3916
initi	3917
lipp	3918
otell	3919
aul	3920
sie	3921
derna	3922
fekt	3923
kaff	3924
kände	3925
nti	3926
tips	3927
överf	3928
kilda	3929
ehåll	3930
cka	3931
ssa	3932
äter	3933
arg	3934
duc	3935
redi	3936
lus	3937
lod	3938
reds	3939
olag	3940
fn	3941
dent	3942
##vik	3943
trol	3944
likat	3945
lse	3946
##bo	3947
timm	3948
natte	3949
flu	3950
tten	3951
rmed	3952
rkes	3953
fäll	3954
öva	3955
ine	3956
etens	3957
cept	3958
mmen	3959
båt	3960
öregå	3961
inre	3962
förd	3963
allar	3964
glar	3965
egi	3966
ratt	3967
mic	3968
coo	3969
bunde	3970
iss	3971
nf	3972
ndsk	3973
eter	3974
urn	3975
bje	3976
gö	3977
old	3978
sw	3979
hämta	3980
yt	3981
källa	3982
ille	3983
åll	3984
heml	3985
städ	3986
ersä	3987
ikte	3988
ndiga	3989
out	3990
andr	3991
ssant	3992
set	3993
atter	3994
nej	3995
atser	3996
tant	3997
ontin	3998
etab	3999
sorg	4000
##ki	4001
alen	4002
byte	4003
grav	4004
wh	4005
tast	4006
gent	4007
ulera	4008
rch	4009
erare	4010
åka	4011
tycke	4012
ato	4013
svart	4014
ound	4015
fång	4016
rätts	4017
pisk	4018
sho	4019
dje	4020
hud	4021
kie	4022
zo	4023
delse	4024
edl	4025
möjli	4026
ern	4027
bes	4028
ttare	4029
ader	4030
bb	4031
ömn	4032
alb	4033
aster	4034
ix	4035
kine	4036
tam	4037
varn	4038
fina	4039
nnan	4040
lsk	4041
rl	4042
vida	4043
olk	4044
ndvik	4045
urg	4046
rän	4047
rnan	4048
##ttr	4049
nat	4050
intr	4051
isa	4052
tats	4053
amin	4054
smä	4055
fra	4056
ifi	4057
kär	4058
nare	4059
rlig	4060
mik	4061
exp	4062
eko	4063
guld	4064
tekt	4065
nove	4066
växa	4067
rdet	4068
tals	4069
dans	4070
eam	4071
kemi	4072
rter	4073
use	4074
alko	4075
tts	4076
nsti	4077
vlig	4078
enast	4079
ct	4080
nnar	4081
erspe	4082
ästar	4083
ug	4084
ägs	4085
dar	4086
kning	4087
ement	4088
sökt	4089
line	4090
anad	4091
ech	4092
ntra	4093
urk	4094
ppa	4095
ågon	4096
bit	4097
esta	4098
gera	4099
kompo	4100
aris	4101
skola	4102
21	4103
tm	4104
tem	4105
##mo	4106
träde	4107
bättr	4108
uellt	4109
dskap	4110
rtu	4111
obe	4112
kyrk	4113
60	4114
nste	4115
tivt	4116
ivt	4117
illi	4118
over	4119
uta	4120
ridi	4121
stämm	4122
##lar	4123
rb	4124
nsl	4125
nc	4126
ökad	4127
ean	4128
kel	4129
ngt	4130
amen	4131
blå	4132
emo	4133
ostad	4134
mord	4135
arti	4136
apper	4137
vning	4138
oför	4139
oy	4140
rth	4141
drar	4142
:)	4143
lk	4144
ons	4145
äger	4146
eet	4147
king	4148
ulär	4149
tekn	4150
tis	4151
arc	4152
ordet	4153
nsten	4154
lägs	4155
##dag	4156
ebr	4157
oende	4158
hände	4159
oni	4160
rsätt	4161
con	4162
ekt	4163
ook	4164
tål	4165
nka	4166
läst	4167
logg	4168
tslig	4169
öns	4170
rest	4171
nsy	4172
edj	4173
järn	4174
pli	4175
ätter	4176
even	4177
lf	4178
sare	4179
ssor	4180
turn	4181
snar	4182
illa	4183
usti	4184
kat	4185
oso	4186
rans	4187
rese	4188
lon	4189
nack	4190
änt	4191
ngs	4192
ällan	4193
undar	4194
täckt	4195
imi	4196
ilk	4197
flick	4198
gäst	4199
##äg	4200
los	4201
givar	4202
väst	4203
rri	4204
ött	4205
chen	4206
prä	4207
fält	4208
siell	4209
rott	4210
lti	4211
vag	4212
alisk	4213
ual	4214
årt	4215
ckan	4216
illar	4217
dis	4218
brans	4219
ffer	4220
llo	4221
unika	4222
gistr	4223
tent	4224
apan	4225
stads	4226
amm	4227
pac	4228
ther	4229
brö	4230
oxi	4231
las	4232
grå	4233
tliga	4234
bel	4235
shi	4236
non	4237
erlig	4238
ary	4239
ttn	4240
tater	4241
ntern	4242
befin	4243
back	4244
ständ	4245
tets	4246
ental	4247
koll	4248
itat	4249
bjekt	4250
llig	4251
dörr	4252
edlem	4253
cs	4254
ller	4255
sson	4256
ppet	4257
ycket	4258
19	4259
ke	4260
oin	4261
ergi	4262
aner	4263
rika	4264
nsn	4265
rder	4266
ocker	4267
arv	4268
tei	4269
ansen	4270
ymp	4271
tema	4272
eum	4273
atal	4274
ismen	4275
öra	4276
tanda	4277
ace	4278
rock	4279
cro	4280
mde	4281
nsk	4282
erter	4283
ngst	4284
ite	4285
nvis	4286
iske	4287
tik	4288
utl	4289
sion	4290
dele	4291
gramm	4292
lant	4293
xi	4294
öm	4295
mell	4296
ös	4297
##xi	4298
vert	4299
him	4300
aga	4301
pport	4302
sha	4303
äck	4304
mas	4305
älls	4306
tun	4307
nstr	4308
enten	4309
flyt	4310
ladd	4311
sul	4312
dep	4313
ega	4314
ilo	4315
nic	4316
cirk	4317
ln	4318
erk	4319
anlä	4320
odu	4321
platt	4322
obb	4323
ya	4324
lekt	4325
##ith	4326
vita	4327
sliga	4328
kast	4329
nader	4330
fånga	4331
ama	4332
tend	4333
vik	4334
arla	4335
långs	4336
gui	4337
riget	4338
tråd	4339
tänd	4340
vänt	4341
enne	4342
hall	4343
örer	4344
hjärn	4345
hamn	4346
ilket	4347
ero	4348
omin	4349
allad	4350
lags	4351
herre	4352
vla	4353
åla	4354
hotel	4355
beta	4356
serv	4357
sant	4358
akad	4359
can	4360
ds	4361
kali	4362
pol	4363
tti	4364
atten	4365
orit	4366
22	4367
äkte	4368
ansk	4369
hop	4370
inst	4371
arter	4372
olog	4373
krit	4374
vol	4375
ligt	4376
sist	4377
lls	4378
api	4379
nes	4380
hårt	4381
larna	4382
ile	4383
ium	4384
peri	4385
fier	4386
edra	4387
bära	4388
fran	4389
ale	4390
lab	4391
cho	4392
sf	4393
tret	4394
tol	4395
klare	4396
atör	4397
värm	4398
rund	4399
rop	4400
fett	4401
tle	4402
län	4403
alien	4404
avset	4405
own	4406
nha	4407
oro	4408
ög	4409
orn	4410
ndb	4411
mos	4412
esti	4413
sökan	4414
mda	4415
ästa	4416
oris	4417
jt	4418
pti	4419
troli	4420
acka	4421
lat	4422
tfö	4423
##urr	4424
mmand	4425
rst	4426
##rä	4427
ttne	4428
ova	4429
enta	4430
erv	4431
hoppa	4432
epp	4433
fta	4434
osta	4435
yra	4436
uto	4437
nan	4438
ption	4439
ordna	4440
yr	4441
num	4442
atar	4443
ric	4444
hov	4445
##zi	4446
tiska	4447
dos	4448
ead	4449
siska	4450
talie	4451
odl	4452
ide	4453
sb	4454
äd	4455
arl	4456
ändsk	4457
cu	4458
iti	4459
nni	4460
see	4461
tande	4462
soci	4463
sar	4464
ärm	4465
alk	4466
kolle	4467
lym	4468
osof	4469
testa	4470
aller	4471
alm	4472
vind	4473
lder	4474
rent	4475
igur	4476
uden	4477
erma	4478
varta	4479
dio	4480
vete	4481
infl	4482
rdig	4483
200	4484
ls	4485
dels	4486
steri	4487
cker	4488
##lan	4489
kild	4490
ndag	4491
aker	4492
##za	4493
nsad	4494
ikter	4495
ktera	4496
mäl	4497
ener	4498
erver	4499
visst	4500
inns	4501
kläd	4502
kn	4503
mning	4504
ssion	4505
cera	4506
öte	4507
terna	4508
500	4509
ael	4510
ure	4511
åda	4512
cin	4513
hål	4514
valde	4515
älte	4516
arb	4517
varar	4518
hämt	4519
dv	4520
jud	4521
nån	4522
ire	4523
iver	4524
ted	4525
äri	4526
nio	4527
nsch	4528
##ger	4529
vitt	4530
plö	4531
kön	4532
rys	4533
aha	4534
iat	4535
inder	4536
dum	4537
tav	4538
ivet	4539
rh	4540
uti	4541
gend	4542
örli	4543
rön	4544
ldra	4545
pec	4546
ami	4547
28	4548
23	4549
27	4550
ili	4551
ito	4552
fann	4553
vore	4554
nning	4555
dal	4556
zon	4557
ående	4558
öl	4559
medl	4560
minn	4561
iddag	4562
ddag	4563
ämpl	4564
ition	4565
ngo	4566
pop	4567
bets	4568
imal	4569
don	4570
yd	4571
utöv	4572
jack	4573
ies	4574
rser	4575
sland	4576
mmo	4577
ml	4578
tte	4579
fysi	4580
rome	4581
xter	4582
åverk	4583
ensi	4584
abel	4585
rame	4586
önd	4587
reat	4588
adi	4589
ister	4590
ftar	4591
ike	4592
xu	4593
inb	4594
ansa	4595
edda	4596
omar	4597
pås	4598
nge	4599
nget	4600
telse	4601
golv	4602
##ner	4603
gene	4604
ktör	4605
bur	4606
fart	4607
undan	4608
lede	4609
ime	4610
ideo	4611
uk	4612
enser	4613
ärer	4614
mått	4615
atch	4616
dog	4617
skick	4618
eran	4619
stan	4620
ient	4621
ender	4622
orum	4623
doms	4624
svär	4625
vs	4626
yss	4627
tillb	4628
ktive	4629
indi	4630
rett	4631
vald	4632
lli	4633
tär	4634
nden	4635
rick	4636
llm	4637
lyg	4638
gerar	4639
älko	4640
laner	4641
skad	4642
katt	4643
cks	4644
ani	4645
ore	4646
andel	4647
nim	4648
rdes	4649
mg	4650
ano	4651
äljer	4652
gonen	4653
70	4654
ove	4655
##uni	4656
andli	4657
mmit	4658
rnen	4659
ckor	4660
kit	4661
uff	4662
rtik	4663
##ba	4664
alist	4665
gne	4666
rj	4667
rdag	4668
tist	4669
uth	4670
mate	4671
che	4672
stern	4673
ygg	4674
länd	4675
räkn	4676
sys	4677
köpt	4678
nomi	4679
gul	4680
tron	4681
veri	4682
rou	4683
gande	4684
pan	4685
##orm	4686
örd	4687
lor	4688
rka	4689
##int	4690
mmuni	4691
sult	4692
länk	4693
oo	4694
elle	4695
neka	4696
dato	4697
nov	4698
kapet	4699
ontor	4700
ågot	4701
26	4702
itel	4703
##ho	4704
rmon	4705
rena	4706
31	4707
ema	4708
get	4709
rån	4710
uid	4711
mmun	4712
nts	4713
maski	4714
tto	4715
högst	4716
ktig	4717
läsar	4718
rets	4719
rhåll	4720
estä	4721
iali	4722
stig	4723
pänn	4724
lvis	4725
nis	4726
agand	4727
rama	4728
ebb	4729
vån	4730
lia	4731
live	4732
smen	4733
släkt	4734
xuell	4735
90	4736
kad	4737
öda	4738
##hi	4739
nsats	4740
häst	4741
grek	4742
önsk	4743
eut	4744
nska	4745
eru	4746
erg	4747
tligt	4748
kill	4749
80	4750
dge	4751
trå	4752
lob	4753
lade	4754
gåend	4755
varan	4756
mid	4757
llmän	4758
repre	4759
fint	4760
aj	4761
ugg	4762
ors	4763
rall	4764
olu	4765
vann	4766
asta	4767
hej	4768
ain	4769
lja	4770
sand	4771
kott	4772
ffic	4773
ght	4774
kå	4775
##ya	4776
tic	4777
amn	4778
rren	4779
skull	4780
36	4781
bot	4782
ous	4783
insta	4784
35	4785
bla	4786
fer	4787
ikal	4788
erä	4789
sia	4790
##ole	4791
rgani	4792
otal	4793
tår	4794
ärs	4795
anne	4796
egel	4797
ungen	4798
entr	4799
flytt	4800
alis	4801
onde	4802
annar	4803
pen	4804
za	4805
kten	4806
svi	4807
enad	4808
ere	4809
vist	4810
istan	4811
arat	4812
obl	4813
stjä	4814
örja	4815
lov	4816
nabba	4817
nsikt	4818
nform	4819
ita	4820
tsk	4821
arie	4822
ture	4823
låtar	4824
ialis	4825
ase	4826
edd	4827
ever	4828
sör	4829
arma	4830
top	4831
appar	4832
utsä	4833
oe	4834
deln	4835
drö	4836
moder	4837
sci	4838
wn	4839
igh	4840
##usi	4841
opera	4842
kter	4843
mel	4844
pare	4845
ensk	4846
real	4847
ndr	4848
reser	4849
eräkn	4850
fte	4851
ford	4852
iko	4853
oti	4854
elo	4855
ntar	4856
ument	4857
tina	4858
anmä	4859
kop	4860
nkurr	4861
uer	4862
åste	4863
imma	4864
ånge	4865
ogra	4866
nut	4867
udi	4868
lib	4869
skaps	4870
estin	4871
cd	4872
tilla	4873
arta	4874
nto	4875
##...	4876
lind	4877
kala	4878
arens	4879
känne	4880
alif	4881
essi	4882
rsk	4883
uri	4884
xis	4885
spek	4886
åh	4887
vild	4888
ansva	4889
akten	4890
iso	4891
nig	4892
##tto	4893
diska	4894
mek	4895
dati	4896
ise	4897
jet	4898
kriv	4899
sked	4900
förbi	4901
kors	4902
rval	4903
rag	4904
ynd	4905
yfte	4906
öde	4907
mment	4908
ateri	4909
lösa	4910
vant	4911
tiga	4912
ldern	4913
anni	4914
örst	4915
union	4916
rant	4917
nalen	4918
rut	4919
ux	4920
omo	4921
ane	4922
llen	4923
allti	4924
nser	4925
ppar	4926
pei	4927
ban	4928
ear	4929
nso	4930
tick	4931
miner	4932
dta	4933
gna	4934
rf	4935
eger	4936
mple	4937
öll	4938
öder	4939
eral	4940
spro	4941
vakt	4942
mode	4943
jälp	4944
ktan	4945
örstö	4946
lv	4947
tå	4948
ene	4949
inc	4950
alu	4951
aler	4952
kos	4953
etisk	4954
ance	4955
likna	4956
nerna	4957
aten	4958
ilt	4959
tch	4960
vrig	4961
skal	4962
rob	4963
olla	4964
nslut	4965
onst	4966
berör	4967
aska	4968
rera	4969
rov	4970
##du	4971
föror	4972
orr	4973
änk	4974
ratio	4975
itali	4976
byt	4977
agen	4978
olv	4979
bili	4980
ggar	4981
lje	4982
aktor	4983
45	4984
asa	4985
yft	4986
skrä	4987
ora	4988
rti	4989
förde	4990
elig	4991
artin	4992
300	4993
rp	4994
tip	4995
spar	4996
ndes	4997
vända	4998
ograf	4999
orda	5000
klusi	5001
kiv	5002
törer	5003
lver	5004
ycke	5005
tall	5006
ropa	5007
ump	5008
sat	5009
rap	5010
ish	5011
derlä	5012
sann	5013
[...	5014
dda	5015
tolk	5016
ryt	5017
[...]	5018
aa	5019
iru	5020
ice	5021
tika	5022
ush	5023
onal	5024
lobal	5025
iel	5026
navi	5027
ntä	5028
peisk	5029
lg	5030
tum	5031
yl	5032
nas	5033
list	5034
unden	5035
tälld	5036
dh	5037
lska	5038
oto	5039
konce	5040
ttre	5041
green	5042
rdra	5043
olj	5044
pot	5045
yda	5046
åva	5047
skl	5048
ige	5049
imera	5050
arad	5051
torm	5052
nism	5053
essio	5054
nåt	5055
[+	5056
bju	5057
[+]	5058
ota	5059
rend	5060
gry	5061
tvär	5062
rry	5063
åta	5064
##jt	5065
egra	5066
cel	5067
nåd	5068
vent	5069
esök	5070
råk	5071
ennes	5072
eka	5073
ift	5074
ogi	5075
inv	5076
bler	5077
mej	5078
29	5079
itera	5080
pet	5081
ukt	5082
aser	5083
gren	5084
drat	5085
tutio	5086
byggd	5087
vila	5088
spo	5089
kni	5090
erska	5091
eat	5092
lb	5093
xper	5094
##ny	5095
onen	5096
terie	5097
imo	5098
iii	5099
bs	5100
kva	5101
##ard	5102
utför	5103
##jek	5104
betet	5105
egis	5106
enti	5107
tift	5108
vir	5109
orer	5110
nerar	5111
onom	5112
objek	5113
labor	5114
xpert	5115
iot	5116
oder	5117
nkar	5118
ägar	5119
tore	5120
wall	5121
lbe	5122
pon	5123
uvud	5124
nast	5125
bestå	5126
ath	5127
juta	5128
eriet	5129
meka	5130
dräg	5131
ket	5132
kte	5133
tner	5134
oh	5135
anan	5136
nsat	5137
ordi	5138
ado	5139
föres	5140
cr	5141
eli	5142
pc	5143
utse	5144
anda	5145
mac	5146
löm	5147
ångar	5148
assi	5149
emlig	5150
isto	5151
pek	5152
tners	5153
ät	5154
sit	5155
mari	5156
day	5157
oml	5158
ditio	5159
amera	5160
ttig	5161
smi	5162
tagen	5163
lp	5164
ngd	5165
gni	5166
ingå	5167
uppe	5168
verkn	5169
tagar	5170
fara	5171
gärn	5172
kland	5173
matt	5174
ttsl	5175
erm	5176
ldi	5177
törst	5178
försä	5179
kert	5180
ynt	5181
evi	5182
gli	5183
lm	5184
sil	5185
ura	5186
aro	5187
elat	5188
laga	5189
tali	5190
grat	5191
fyr	5192
gdom	5193
nnit	5194
tvis	5195
nia	5196
luta	5197
edi	5198
ltar	5199
ifier	5200
uck	5201
manne	5202
rofe	5203
mart	5204
söt	5205
gatan	5206
lskar	5207
npa	5208
uel	5209
orti	5210
teor	5211
llar	5212
isar	5213
ono	5214
rto	5215
pulär	5216
npass	5217
ao	5218
rali	5219
änka	5220
llde	5221
ales	5222
entu	5223
ktu	5224
ilen	5225
tele	5226
lka	5227
ze	5228
åd	5229
öga	5230
ören	5231
mak	5232
mpo	5233
ikten	5234
osit	5235
ein	5236
hed	5237
inj	5238
ärt	5239
arker	5240
nade	5241
nol	5242
lea	5243
rött	5244
unge	5245
äga	5246
adern	5247
avi	5248
beha	5249
tona	5250
erry	5251
mnar	5252
dja	5253
nce	5254
xemp	5255
iner	5256
efo	5257
alli	5258
ball	5259
opi	5260
ierar	5261
rmen	5262
ontra	5263
air	5264
surs	5265
röm	5266
cas	5267
venti	5268
anger	5269
ytan	5270
mfa	5271
pråk	5272
usta	5273
enom	5274
elli	5275
löd	5276
ligga	5277
lät	5278
lägen	5279
plik	5280
mling	5281
ww	5282
titel	5283
nders	5284
ony	5285
agn	5286
dram	5287
mår	5288
mpa	5289
mole	5290
zi	5291
nsam	5292
urin	5293
abb	5294
rgi	5295
drömm	5296
reak	5297
mfatt	5298
ltur	5299
nag	5300
##zz	5301
rida	5302
itar	5303
plin	5304
växte	5305
svärd	5306
unk	5307
vakn	5308
cl	5309
konc	5310
nisk	5311
nnu	5312
åters	5313
tvec	5314
vl	5315
##jal	5316
ament	5317
gan	5318
ht	5319
hil	5320
ika	5321
nel	5322
rle	5323
sq	5324
ye	5325
meny	5326
lass	5327
mmi	5328
inist	5329
esa	5330
sing	5331
sty	5332
tate	5333
ids	5334
ropp	5335
istor	5336
ljare	5337
norr	5338
odde	5339
herr	5340
usik	5341
ola	5342
orter	5343
igar	5344
klad	5345
vali	5346
grej	5347
evo	5348
ibel	5349
produ	5350
nion	5351
noll	5352
ryck	5353
torr	5354
anken	5355
iks	5356
ving	5357
ingr	5358
tati	5359
bruka	5360
rallt	5361
big	5362
jon	5363
nsta	5364
anlig	5365
lien	5366
hota	5367
tull	5368
partn	5369
matis	5370
darna	5371
tive	5372
raft	5373
road	5374
tivet	5375
gator	5376
tunn	5377
jär	5378
##ink	5379
proce	5380
låna	5381
ttas	5382
dyr	5383
vam	5384
##må	5385
anter	5386
näst	5387
tämm	5388
abs	5389
volvo	5390
dw	5391
pin	5392
läck	5393
rio	5394
seg	5395
lojal	5396
ände	5397
ders	5398
fest	5399
75	5400
arri	5401
ränd	5402
ntat	5403
edic	5404
rins	5405
sning	5406
ubb	5407
kut	5408
tyder	5409
kompe	5410
tenar	5411
popul	5412
uc	5413
förmå	5414
utb	5415
lick	5416
ndre	5417
eläg	5418
gall	5419
tern	5420
stid	5421
still	5422
skön	5423
ttra	5424
add	5425
vanor	5426
lte	5427
mand	5428
mun	5429
rska	5430
##hu	5431
juda	5432
fors	5433
låten	5434
rver	5435
ula	5436
amla	5437
tora	5438
onu	5439
acc	5440
evan	5441
car	5442
##ph	5443
sajt	5444
give	5445
vas	5446
insti	5447
rvera	5448
eso	5449
##lo	5450
inska	5451
omen	5452
mann	5453
isst	5454
krat	5455
dras	5456
mpi	5457
aken	5458
vtal	5459
ntro	5460
rank	5461
tterl	5462
tors	5463
akna	5464
cb	5465
usk	5466
äder	5467
erli	5468
oner	5469
itets	5470
håret	5471
400	5472
rne	5473
##hl	5474
##äld	5475
utf	5476
niv	5477
gräs	5478
32	5479
ista	5480
öro	5481
##th	5482
llvar	5483
iskt	5484
damm	5485
tåend	5486
).	5487
ffi	5488
mith	5489
##ab	5490
aning	5491
rium	5492
nyt	5493
rasi	5494
nått	5495
ved	5496
ölj	5497
erera	5498
arde	5499
litte	5500
neral	5501
mall	5502
egl	5503
onf	5504
ios	5505
cra	5506
vna	5507
win	5508
les	5509
golf	5510
tråki	5511
bal	5512
pto	5513
bliv	5514
runda	5515
prise	5516
turi	5517
elade	5518
isi	5519
lter	5520
enis	5521
förr	5522
atta	5523
ätts	5524
mpor	5525
ddar	5526
kvi	5527
anli	5528
ander	5529
rac	5530
rati	5531
abo	5532
ssar	5533
olly	5534
kult	5535
medi	5536
gie	5537
rust	5538
sån	5539
ärsk	5540
mix	5541
emp	5542
cia	5543
ica	5544
por	5545
töv	5546
vard	5547
anska	5548
mente	5549
slös	5550
150	5551
cm	5552
kg	5553
kno	5554
utgå	5555
adr	5556
hind	5557
rse	5558
öne	5559
abe	5560
älsk	5561
dant	5562
kin	5563
sli	5564
##nn	5565
tiva	5566
vägg	5567
erie	5568
ifik	5569
vice	5570
arf	5571
rev	5572
leag	5573
now	5574
tions	5575
kämp	5576
juder	5577
aci	5578
cli	5579
gand	5580
ytt	5581
ärg	5582
stin	5583
arr	5584
elen	5585
gga	5586
cis	5587
mba	5588
whi	5589
kärl	5590
33	5591
dru	5592
tma	5593
inse	5594
orma	5595
sio	5596
ips	5597
rgan	5598
aus	5599
ks	5600
öta	5601
attar	5602
ign	5603
tap	5604
kunn	5605
nken	5606
vins	5607
ehov	5608
mbi	5609
ollen	5610
estäm	5611
esi	5612
ikti	5613
rber	5614
time	5615
ären	5616
atin	5617
garna	5618
ektor	5619
ckså	5620
sför	5621
##im	5622
##age	5623
teg	5624
emin	5625
hiv	5626
laget	5627
ungl	5628
turer	5629
aku	5630
övr	5631
##sh	5632
väska	5633
ngsl	5634
rade	5635
ego	5636
mman	5637
ekni	5638
mater	5639
jort	5640
ldr	5641
nere	5642
uler	5643
ulti	5644
ape	5645
agg	5646
oda	5647
pand	5648
sort	5649
titt	5650
sek	5651
sis	5652
mans	5653
ekan	5654
inneb	5655
ppo	5656
karen	5657
ntera	5658
www	5659
skade	5660
trum	5661
räk	5662
telle	5663
yper	5664
ino	5665
terad	5666
örsä	5667
nb	5668
pna	5669
dur	5670
nit	5671
lub	5672
redni	5673
onte	5674
pend	5675
with	5676
väldi	5677
marg	5678
känn	5679
ommu	5680
tiger	5681
;)	5682
obil	5683
odi	5684
erats	5685
ave	5686
kande	5687
ndni	5688
ndska	5689
rip	5690
elg	5691
alv	5692
esul	5693
inneh	5694
ruk	5695
but	5696
glig	5697
##ära	5698
dukti	5699
ndå	5700
leka	5701
latio	5702
ager	5703
papp	5704
tone	5705
bö	5706
rah	5707
löt	5708
ulära	5709
ibi	5710
ndrar	5711
ada	5712
mit	5713
öst	5714
eni	5715
orru	5716
mind	5717
nitt	5718
lyck	5719
ols	5720
glöm	5721
ntals	5722
artie	5723
öras	5724
vamp	5725
rem	5726
ntu	5727
pper	5728
esten	5729
oper	5730
will	5731
rligt	5732
pat	5733
pos	5734
rds	5735
pis	5736
torn	5737
knä	5738
##ji	5739
medie	5740
isc	5741
terin	5742
ggen	5743
usd	5744
sexu	5745
hd	5746
ior	5747
lda	5748
anor	5749
tec	5750
juk	5751
lyd	5752
usb	5753
mpan	5754
rörd	5755
hyr	5756
ugn	5757
lac	5758
tale	5759
imm	5760
pela	5761
isken	5762
orier	5763
white	5764
34	5765
cla	5766
fon	5767
ific	5768
mant	5769
idor	5770
ofi	5771
gast	5772
låda	5773
stade	5774
hp	5775
hr	5776
fråg	5777
diri	5778
öräld	5779
olis	5780
rts	5781
ggs	5782
dds	5783
nnis	5784
[-	5785
låd	5786
räng	5787
vm	5788
alle	5789
iden	5790
lagg	5791
jesu	5792
ikta	5793
ecb	5794
65	5795
osa	5796
##pn	5797
omna	5798
lagga	5799
röt	5800
ljan	5801
lärar	5802
malt	5803
nolog	5804
[-]	5805
afe	5806
pande	5807
aret	5808
riti	5809
änlig	5810
isn	5811
gåv	5812
insp	5813
gb	5814
gm	5815
kydd	5816
ntion	5817
äte	5818
erfe	5819
netto	5820
rafi	5821
gif	5822
delad	5823
pote	5824
aur	5825
omf	5826
his	5827
rtal	5828
rupp	5829
kern	5830
skyld	5831
gor	5832
ode	5833
uma	5834
napp	5835
sekt	5836
åtar	5837
asti	5838
rings	5839
radi	5840
herra	5841
gig	5842
gde	5843
pans	5844
tla	5845
onn	5846
ktar	5847
tung	5848
lämp	5849
rafik	5850
lva	5851
rma	5852
uld	5853
vy	5854
yre	5855
##ana	5856
lette	5857
ngr	5858
gita	5859
atr	5860
krik	5861
ålde	5862
leri	5863
42	5864
600	5865
kur	5866
ensa	5867
eto	5868
nazi	5869
anen	5870
lee	5871
näll	5872
hems	5873
arier	5874
ånger	5875
trik	5876
risti	5877
ivi	5878
triv	5879
älla	5880
##ken	5881
splan	5882
gir	5883
bay	5884
smed	5885
ppna	5886
iljö	5887
nano	5888
este	5889
jön	5890
nkt	5891
skon	5892
nsu	5893
drink	5894
ramgå	5895
evel	5896
oken	5897
tött	5898
ektro	5899
turné	5900
ked	5901
sso	5902
tart	5903
xa	5904
änta	5905
allat	5906
örde	5907
edag	5908
dade	5909
sökn	5910
appo	5911
gin	5912
iter	5913
oi	5914
tni	5915
stit	5916
andl	5917
seri	5918
magne	5919
velat	5920
55	5921
well	5922
én	5923
eten	5924
lämn	5925
info	5926
glu	5927
sug	5928
ämna	5929
yckl	5930
ärmed	5931
sår	5932
uv	5933
erlä	5934
arina	5935
arnas	5936
gala	5937
gråta	5938
svä	5939
ava	5940
ags	5941
vande	5942
otor	5943
vilda	5944
stitu	5945
sär	5946
ölja	5947
meri	5948
##unk	5949
brasi	5950
onta	5951
edo	5952
vine	5953
isten	5954
rmo	5955
ront	5956
pub	5957
jur	5958
ole	5959
sve	5960
##ek	5961
##yl	5962
ressa	5963
örra	5964
saint	5965
edb	5966
48	5967
cal	5968
uf	5969
vul	5970
xb	5971
arte	5972
duk	5973
ional	5974
föd	5975
may	5976
lyser	5977
ftig	5978
gråt	5979
ädda	5980
rko	5981
##wa	5982
ärn	5983
äro	5984
vib	5985
lir	5986
atan	5987
tät	5988
teri	5989
uset	5990
iksom	5991
girl	5992
..	5993
bre	5994
nart	5995
##cc	5996
villa	5997
arer	5998
trar	5999
lace	6000
gruv	6001
parte	6002
drä	6003
bull	6004
orten	6005
tiskt	6006
een	6007
pit	6008
ante	6009
rell	6010
rita	6011
elä	6012
vern	6013
emen	6014
behör	6015
chatt	6016
riga	6017
cre	6018
gara	6019
nktio	6020
pter	6021
töd	6022
enna	6023
##lit	6024
rian	6025
uppmä	6026
lug	6027
sme	6028
ummer	6029
torg	6030
rmar	6031
tomt	6032
bul	6033
itiv	6034
nvi	6035
kum	6036
tero	6037
prest	6038
rader	6039
250	6040
db	6041
fj	6042
pd	6043
##pi	6044
til	6045
stera	6046
nik	6047
niver	6048
rate	6049
sas	6050
atri	6051
ttar	6052
talt	6053
bba	6054
rlo	6055
ldrig	6056
39	6057
apa	6058
khet	6059
sun	6060
vr	6061
tier	6062
remo	6063
##sse	6064
unger	6065
ssan	6066
tabl	6067
ådet	6068
nin	6069
vrid	6070
äv	6071
ösa	6072
##xa	6073
skå	6074
exper	6075
ktet	6076
call	6077
epar	6078
atsen	6079
vagn	6080
kultu	6081
##aga	6082
lip	6083
dika	6084
roj	6085
hip	6086
änns	6087
tube	6088
ången	6089
who	6090
yrke	6091
37	6092
dn	6093
dol	6094
eva	6095
mla	6096
nju	6097
olle	6098
pad	6099
ys	6100
inan	6101
aran	6102
##ris	6103
eff	6104
side	6105
nist	6106
roi	6107
lakt	6108
entre	6109
snö	6110
99	6111
ipp	6112
rol	6113
##fé	6114
lok	6115
rost	6116
tage	6117
främ	6118
endo	6119
gden	6120
ako	6121
kara	6122
vpn	6123
wil	6124
xp	6125
dej	6126
ense	6127
raser	6128
gade	6129
agan	6130
valda	6131
ivare	6132
posit	6133
38	6134
cry	6135
fal	6136
mf	6137
mad	6138
okal	6139
vt	6140
##eo	6141
anke	6142
taxi	6143
börj	6144
byn	6145
vana	6146
ljard	6147
ortf	6148
vriga	6149
cbd	6150
cru	6151
mne	6152
rfar	6153
sd	6154
tbil	6155
ulle	6156
erans	6157
erik	6158
nöt	6159
tårar	6160
tbild	6161
yll	6162
ycka	6163
öt	6164
orde	6165
##ami	6166
rie	6167
ngde	6168
vall	6169
syr	6170
bir	6171
able	6172
vågar	6173
pm	6174
tort	6175
##ze	6176
ärv	6177
varg	6178
liter	6179
läd	6180
mens	6181
sisk	6182
logo	6183
book	6184
unna	6185
tork	6186
öppn	6187
ibla	6188
njur	6189
grann	6190
nre	6191
pital	6192
ärb	6193
idan	6194
nty	6195
deri	6196
frik	6197
unkt	6198
rgen	6199
ovi	6200
##ui	6201
##ct	6202
väng	6203
läkar	6204
elb	6205
die	6206
tade	6207
örse	6208
rosa	6209
demi	6210
lund	6211
derb	6212
ruv	6213
indra	6214
rmi	6215
grill	6216
atorn	6217
kilj	6218
äx	6219
nap	6220
reb	6221
eland	6222
lest	6223
trejk	6224
abl	6225
ägen	6226
cklar	6227
klipp	6228
dvd	6229
yssna	6230
kåda	6231
dyrt	6232
eer	6233
ödd	6234
enny	6235
erf	6236
nato	6237
lland	6238
fak	6239
edde	6240
ekv	6241
ustri	6242
tong	6243
ntas	6244
kerna	6245
hata	6246
yggd	6247
rman	6248
uktio	6249
##ly	6250
rex	6251
örda	6252
ray	6253
slo	6254
esl	6255
rulla	6256
indre	6257
she	6258
asser	6259
rbju	6260
onomi	6261
asi	6262
dve	6263
tman	6264
##ak	6265
enen	6266
ärare	6267
ands	6268
unde	6269
geri	6270
ivna	6271
nkla	6272
tuell	6273
iklar	6274
ktivt	6275
120	6276
rint	6277
lades	6278
hedra	6279
ae	6280
dl	6281
yhet	6282
itl	6283
idar	6284
täv	6285
obi	6286
eha	6287
iati	6288
mage	6289
bilit	6290
bon	6291
eur	6292
iö	6293
tl	6294
war	6295
ette	6296
geni	6297
klu	6298
oppar	6299
okus	6300
later	6301
lyckl	6302
800	6303
95	6304
epa	6305
rro	6306
yan	6307
erra	6308
##oni	6309
elef	6310
llt	6311
rog	6312
ssn	6313
opt	6314
tatu	6315
gle	6316
avgör	6317
orre	6318
rabb	6319
baser	6320
kras	6321
eria	6322
tori	6323
eak	6324
gräv	6325
amnet	6326
3d	6327
oke	6328
öf	6329
arke	6330
ngent	6331
alo	6332
ntan	6333
grep	6334
unni	6335
icer	6336
ativt	6337
maxi	6338
bjuda	6339
bus	6340
bön	6341
gori	6342
täl	6343
enet	6344
amil	6345
alj	6346
nnov	6347
trak	6348
kisk	6349
ramar	6350
rdin	6351
sena	6352
oten	6353
rki	6354
ynn	6355
ratis	6356
%.	6357
lc	6358
oj	6359
pil	6360
sst	6361
vb	6362
wal	6363
utsi	6364
llmä	6365
näs	6366
emb	6367
terat	6368
range	6369
rno	6370
ilda	6371
lämpa	6372
toria	6373
netw	6374
magen	6375
fen	6376
lta	6377
osi	6378
ukti	6379
yo	6380
öke	6381
ety	6382
rive	6383
##ligt	6384
blä	6385
vidd	6386
marin	6387
mmet	6388
ful	6389
smo	6390
imen	6391
kräp	6392
karp	6393
töt	6394
ttis	6395
43	6396
fit	6397
imer	6398
sdag	6399
åna	6400
##ex	6401
raka	6402
urer	6403
lank	6404
elev	6405
gdpr	6406
orat	6407
galax	6408
41	6409
85	6410
ida	6411
jor	6412
vat	6413
##wi	6414
rekti	6415
saab	6416
digt	6417
mycke	6418
offe	6419
akter	6420
äge	6421
mätt	6422
torer	6423
dvs	6424
ntrol	6425
dmi	6426
kju	6427
mråd	6428
rc	6429
##yo	6430
##ral	6431
bell	6432
siv	6433
llan	6434
ntor	6435
onse	6436
rull	6437
lden	6438
ope	6439
oppa	6440
rsp	6441
bbl	6442
46	6443
hm	6444
stal	6445
row	6446
ntet	6447
ntre	6448
råge	6449
more	6450
lände	6451
700	6452
ias	6453
rsak	6454
ule	6455
ype	6456
##uch	6457
tivi	6458
oman	6459
omet	6460
##sko	6461
##rit	6462
leve	6463
kono	6464
amar	6465
tjän	6466
grade	6467
usen	6468
ierna	6469
pdf	6470
dc	6471
iam	6472
käll	6473
kök	6474
nker	6475
rlä	6476
uda	6477
lio	6478
tré	6479
sions	6480
ård	6481
gifte	6482
##gga	6483
iset	6484
ntr	6485
ämst	6486
ckte	6487
struk	6488
armor	6489
dk	6490
kk	6491
mhä	6492
rkar	6493
sad	6494
enry	6495
etro	6496
ndu	6497
mink	6498
seo	6499
satio	6500
juri	6501
nth	6502
plat	6503
onve	6504
rarna	6505
ömd	6506
lsen	6507
51	6508
bn	6509
ji	6510
##do	6511
##zo	6512
##zy	6513
eno	6514
tie	6515
lukt	6516
tock	6517
trapp	6518
tteri	6519
sonen	6520
reta	6521
styre	6522
dräkt	6523
cri	6524
mum	6525
##xy	6526
erks	6527
tike	6528
alz	6529
nek	6530
neg	6531
kab	6532
law	6533
agage	6534
ensen	6535
alite	6536
amero	6537
tenen	6538
mala	6539
puls	6540
##ren	6541
##-)	6542
ärr	6543
anik	6544
tai	6545
ört	6546
##che	6547
ormal	6548
umm	6549
kim	6550
trick	6551
rata	6552
table	6553
egler	6554
js	6555
enb	6556
lis	6557
##rik	6558
spr	6559
kate	6560
nsera	6561
track	6562
ranch	6563
istri	6564
häls	6565
oki	6566
öjl	6567
skilt	6568
grov	6569
slava	6570
gigan	6571
dna	6572
hn	6573
jus	6574
py	6575
rce	6576
##jo	6577
##fta	6578
##omo	6579
ärnan	6580
slor	6581
ross	6582
adda	6583
ivit	6584
turen	6585
kata	6586
nskar	6587
nnie	6588
pisod	6589
=)	6590
bbe	6591
cf	6592
tlä	6593
yte	6594
yli	6595
förvä	6596
##ppa	6597
rif	6598
ated	6599
egå	6600
marx	6601
strö	6602
grö	6603
nlä	6604
ifte	6605
axi	6606
rusa	6607
abba	6608
esk	6609
holm	6610
##by	6611
##xo	6612
oms	6613
inge	6614
kanal	6615
spä	6616
nesi	6617
sle	6618
asen	6619
rede	6620
rty	6621
kapar	6622
nön	6623
kamer	6624
nål	6625
strat	6626
veder	6627
44	6628
ese	6629
kne	6630
oku	6631
tram	6632
ävl	6633
##vel	6634
änkte	6635
sif	6636
room	6637
ttan	6638
strer	6639
fini	6640
låne	6641
rkan	6642
dumma	6643
--	6644
aven	6645
dens	6646
skin	6647
kull	6648
llä	6649
roger	6650
pert	6651
onera	6652
brå	6653
entor	6654
ägge	6655
slav	6656
kels	6657
rexit	6658
bt	6659
cor	6660
had	6661
iven	6662
lang	6663
mhet	6664
yrka	6665
öar	6666
any	6667
väll	6668
lie	6669
aly	6670
kog	6671
vidg	6672
änder	6673
römm	6674
rdo	6675
kapit	6676
dko	6677
gps	6678
sur	6679
åne	6680
##ml	6681
ndlä	6682
trig	6683
rasa	6684
raff	6685
mach	6686
dop	6687
agar	6688
tha	6689
kript	6690
äls	6691
trikt	6692
udet	6693
hotar	6694
64	6695
dök	6696
drev	6697
rfa	6698
ädd	6699
infö	6700
aror	6701
igg	6702
##änn	6703
hava	6704
änker	6705
dim	6706
alta	6707
loss	6708
isen	6709
agra	6710
serve	6711
teran	6712
tragi	6713
drack	6714
erbj	6715
ktiva	6716
mpl	6717
nedre	6718
ekter	6719
trivs	6720
bnp	6721
dvi	6722
isio	6723
uft	6724
ålig	6725
##cu	6726
##min	6727
attas	6728
rey	6729
orsa	6730
elni	6731
koj	6732
##pas	6733
mir	6734
itan	6735
nsin	6736
bow	6737
glo	6738
nos	6739
ivs	6740
state	6741
lari	6742
lampa	6743
reni	6744
ycker	6745
iesel	6746
cam	6747
eda	6748
täng	6749
anin	6750
läk	6751
läpp	6752
tea	6753
ams	6754
love	6755
rai	6756
ållb	6757
know	6758
66	6759
72	6760
>>	6761
dla	6762
mgå	6763
##ten	6764
erce	6765
förä	6766
atte	6767
omg	6768
anpas	6769
sim	6770
nglig	6771
amhä	6772
loka	6773
slan	6774
gis	6775
katio	6776
dou	6777
ekla	6778
vett	6779
vält	6780
kvot	6781
ktis	6782
oden	6783
bbc	6784
cup	6785
tält	6786
52	6787
bm	6788
ckt	6789
fter	6790
iär	6791
odel	6792
otera	6793
xe	6794
oma	6795
nali	6796
riva	6797
spänn	6798
rav	6799
ple	6800
bob	6801
marxi	6802
pic	6803
aps	6804
okala	6805
ogisk	6806
rspru	6807
lst	6808
yu	6809
##hy	6810
enn	6811
ärl	6812
hare	6813
roy	6814
värn	6815
lap	6816
lagd	6817
mmare	6818
onc	6819
låsa	6820
rös	6821
bran	6822
cial	6823
försv	6824
ouis	6825
nås	6826
nnes	6827
tunna	6828
tatis	6829
lådor	6830
främj	6831
cv	6832
dé	6833
ding	6834
ått	6835
nai	6836
spri	6837
unda	6838
##inne	6839
ido	6840
ttet	6841
tow	6842
onto	6843
edig	6844
vek	6845
gerad	6846
trös	6847
hotet	6848
essan	6849
ndrea	6850
47	6851
rbu	6852
##åt	6853
ärde	6854
livi	6855
trus	6856
närm	6857
leon	6858
ängd	6859
ally	6860
raf	6861
asp	6862
late	6863
egrä	6864
lyder	6865
bile	6866
stock	6867
artan	6868
jazz	6869
uns	6870
alay	6871
ånga	6872
hette	6873
show	6874
sstat	6875
bbar	6876
hor	6877
qu	6878
tare	6879
trin	6880
iten	6881
egat	6882
ändn	6883
marna	6884
once	6885
esp	6886
nnas	6887
café	6888
alaxy	6889
irk	6890
sido	6891
atern	6892
ösn	6893
nfö	6894
tf	6895
uka	6896
ytte	6897
##cy	6898
påver	6899
##ama	6900
exu	6901
matta	6902
fle	6903
bola	6904
nova	6905
ume	6906
ivan	6907
rutt	6908
bjek	6909
burn	6910
kåp	6911
glid	6912
49	6913
rja	6914
etod	6915
##ssn	6916
spå	6917
niska	6918
atet	6919
flo	6920
ndern	6921
erika	6922
sms	6923
tereo	6924
abil	6925
tuga	6926
ktie	6927
illu	6928
dana	6929
ussin	6930
eart	6931
otta	6932
sri	6933
arne	6934
naken	6935
uter	6936
pern	6937
ntlig	6938
vilar	6939
toc	6940
tätt	6941
ads	6942
ady	6943
bråd	6944
enge	6945
act	6946
arib	6947
rige	6948
orien	6949
llene	6950
virgi	6951
eve	6952
issi	6953
mk	6954
sbe	6955
äste	6956
##oma	6957
rib	6958
dagli	6959
nerg	6960
atu	6961
löv	6962
eman	6963
uren	6964
serad	6965
vec	6966
ldre	6967
alit	6968
sande	6969
akar	6970
mbo	6971
pring	6972
judan	6973
%)	6974
eed	6975
evä	6976
funk	6977
gad	6978
ped	6979
rni	6980
räns	6981
##ské	6982
etta	6983
liti	6984
lice	6985
sir	6986
amo	6987
niti	6988
rofi	6989
kas	6990
valp	6991
adre	6992
ämfö	6993
vulka	6994
kj	6995
nurr	6996
vera	6997
öter	6998
ermi	6999
inen	7000
inat	7001
inera	7002
fören	7003
tiker	7004
less	7005
lati	7006
moské	7007
onsu	7008
rann	7009
ktisk	7010
neder	7011
orisk	7012
ussel	7013
römma	7014
nm	7015
uo	7016
von	7017
xx	7018
##ii	7019
##ep	7020
##rat	7021
omi	7022
ndan	7023
riel	7024
roli	7025
kaka	7026
demy	7027
brad	7028
touch	7029
olik	7030
gate	7031
cop	7032
ingsp	7033
rasen	7034
180	7035
ees	7036
lare	7037
utik	7038
##fs	7039
enin	7040
ered	7041
föro	7042
vic	7043
etar	7044
elet	7045
kus	7046
sper	7047
##sek	7048
jun	7049
edit	7050
täkt	7051
nns	7052
rsen	7053
rival	7054
trupp	7055
öjd	7056
asse	7057
iljo	7058
rinc	7059
egio	7060
tmin	7061
pins	7062
rustn	7063
54	7064
afar	7065
bso	7066
cke	7067
dad	7068
ila	7069
kår	7070
pg	7071
utt	7072
##mp	7073
omli	7074
omma	7075
lif	7076
kand	7077
ndri	7078
andy	7079
tau	7080
kle	7081
resp	7082
espe	7083
älso	7084
mpel	7085
ämför	7086
akor	7087
myndi	7088
rinna	7089
eek	7090
kede	7091
sugen	7092
aid	7093
cp	7094
gag	7095
göd	7096
häll	7097
kram	7098
oter	7099
erre	7100
ärda	7101
arin	7102
skul	7103
alet	7104
how	7105
##chi	7106
cher	7107
redig	7108
dok	7109
forex	7110
jäs	7111
törta	7112
sverk	7113
ollo	7114
hotos	7115
365	7116
öljer	7117
karak	7118
bird	7119
56	7120
cn	7121
hag	7122
iq	7123
krek	7124
mw	7125
mur	7126
msek	7127
tine	7128
enor	7129
ärk	7130
väva	7131
änkt	7132
örut	7133
årti	7134
flä	7135
icera	7136
rvel	7137
xtra	7138
omple	7139
nfo	7140
ammar	7141
ögsta	7142
akob	7143
dvä	7144
fet	7145
fbi	7146
ius	7147
ptera	7148
tlan	7149
ude	7150
ws	7151
xpo	7152
##cd	7153
enrik	7154
sken	7155
tax	7156
alar	7157
nea	7158
lum	7159
adel	7160
metri	7161
staka	7162
karna	7163
way	7164
tavla	7165
wind	7166
lämpl	7167
ima	7168
iste	7169
icka	7170
##wan	7171
##zer	7172
ines	7173
stel	7174
spir	7175
race	7176
ider	7177
main	7178
redje	7179
edöm	7180
pay	7181
vänl	7182
drak	7183
artor	7184
mpar	7185
ägt	7186
rdar	7187
appy	7188
aper	7189
ffa	7190
korr	7191
ontro	7192
halt	7193
otstå	7194
gata	7195
twi	7196
onisk	7197
nutr	7198
nagla	7199
),	7200
59	7201
fat	7202
nför	7203
nint	7204
opa	7205
pnad	7206
td	7207
vens	7208
##cs	7209
def	7210
arkt	7211
nav	7212
elly	7213
trång	7214
sea	7215
ngi	7216
träda	7217
cockt	7218
istra	7219
elek	7220
vaken	7221
soc	7222
krona	7223
cen	7224
ekto	7225
pga	7226
ersi	7227
varv	7228
läkt	7229
##adi	7230
hack	7231
leo	7232
dinb	7233
raci	7234
löp	7235
motta	7236
gay	7237
ckra	7238
chain	7239
grät	7240
chip	7241
##hoo	7242
tårta	7243
got	7244
ici	7245
lom	7246
lara	7247
zen	7248
##ue	7249
dek	7250
tir	7251
like	7252
nier	7253
rast	7254
vax	7255
lager	7256
ador	7257
orga	7258
drän	7259
pirit	7260
mull	7261
uster	7262
otani	7263
galna	7264
egion	7265
nfl	7266
58	7267
67	7268
gning	7269
iro	7270
pv	7271
rve	7272
ylan	7273
##ota	7274
##vs	7275
omali	7276
verg	7277
örr	7278
atien	7279
alti	7280
mots	7281
vask	7282
emma	7283
##cha	7284
syk	7285
edle	7286
gly	7287
rym	7288
umä	7289
ilar	7290
ckar	7291
avslu	7292
korn	7293
hyll	7294
kolo	7295
gua	7296
gard	7297
lama	7298
watt	7299
esse	7300
kryp	7301
voro	7302
rala	7303
rthur	7304
afari	7305
62	7306
cat	7307
essa	7308
fda	7309
gda	7310
kru	7311
lme	7312
nand	7313
rdr	7314
yc	7315
yfta	7316
äk	7317
##of	7318
##ind	7319
anka	7320
andar	7321
räna	7322
hatt	7323
niko	7324
##odo	7325
load	7326
sab	7327
labb	7328
ege	7329
base	7330
ves	7331
ils	7332
ramme	7333
astor	7334
mbe	7335
okyo	7336
acker	7337
ågar	7338
grott	7339
cross	7340
ikea	7341
rutal	7342
900	7343
oz	7344
pam	7345
##hd	7346
##åå	7347
##fo	7348
enya	7349
atth	7350
väsko	7351
läka	7352
asin	7353
urren	7354
abi	7355
korna	7356
ftf	7357
rbara	7358
vagin	7359
:-)	7360
bat	7361
cle	7362
ffek	7363
ghet	7364
m2	7365
mem	7366
pera	7367
pning	7368
yska	7369
ålla	7370
##oo	7371
tia	7372
verb	7373
ngli	7374
värk	7375
nton	7376
##ffa	7377
entin	7378
kväl	7379
ssad	7380
nklu	7381
pill	7382
dygn	7383
peci	7384
ahl	7385
kärm	7386
gryn	7387
!!	7388
kart	7389
mü	7390
rud	7391
sbo	7392
tul	7393
##ere	7394
attan	7395
nasa	7396
lög	7397
tsen	7398
trag	7399
train	7400
ssl	7401
pps	7402
celle	7403
kick	7404
staur	7405
irm	7406
aura	7407
befo	7408
eckan	7409
ecken	7410
chips	7411
63	7412
mni	7413
nv	7414
tp	7415
äpp	7416
åge	7417
erami	7418
väve	7419
lille	7420
ndy	7421
sät	7422
ravi	7423
nulla	7424
lagom	7425
ätte	7426
täta	7427
glöd	7428
vega	7429
rusta	7430
cap	7431
lemma	7432
bruce	7433
ouri	7434
essen	7435
yahoo	7436
dump	7437
57	7438
88	7439
nod	7440
tn	7441
tans	7442
ocka	7443
förl	7444
resi	7445
##ala	7446
kanna	7447
trer	7448
tavl	7449
say	7450
idi	7451
nten	7452
##cho	7453
ulver	7454
låst	7455
brud	7456
ramp	7457
rodde	7458
pray	7459
rran	7460
ogen	7461
fox	7462
yssla	7463
rskar	7464
ature	7465
tavlo	7466
53	7467
78	7468
77	7469
96	7470
df	7471
mc	7472
rw	7473
##ill	7474
enas	7475
arh	7476
väld	7477
ndi	7478
elar	7479
hann	7480
neo	7481
milit	7482
mast	7483
ttat	7484
trasi	7485
umme	7486
ullo	7487
ffen	7488
ingsb	7489
llade	7490
gym	7491
ampan	7492
dame	7493
kyrka	7494
immar	7495
cens	7496
git	7497
käl	7498
lart	7499
##up	7500
##ane	7501
arra	7502
rial	7503
örk	7504
hels	7505
mah	7506
emat	7507
ntli	7508
åtal	7509
tagna	7510
date	7511
kij	7512
antin	7513
gynn	7514
ankr	7515
ewis	7516
lusi	7517
oyota	7518
ship	7519
check	7520
erett	7521
järta	7522
tramp	7523
flest	7524
col	7525
lun	7526
rång	7527
öpt	7528
##sy	7529
##rc	7530
##ua	7531
##anc	7532
ärar	7533
vika	7534
anno	7535
dul	7536
haj	7537
slö	7538
boy	7539
ätten	7540
våt	7541
olm	7542
ppor	7543
vändn	7544
head	7545
sof	7546
rgare	7547
dle	7548
gp	7549
kw	7550
mh	7551
rla	7552
tb	7553
tz	7554
äke	7555
åkt	7556
ånad	7557
##ac	7558
##bs	7559
##we	7560
ery	7561
förv	7562
##ont	7563
vip	7564
stre	7565
etr	7566
read	7567
lima	7568
igger	7569
elin	7570
very	7571
site	7572
nick	7573
diga	7574
hier	7575
edni	7576
valf	7577
stop	7578
prit	7579
##geo	7580
shang	7581
retro	7582
polit	7583
lånet	7584
aiwan	7585
shak	7586
fjol	7587
00	7588
98	7589
care	7590
gang	7591
iol	7592
iker	7593
irek	7594
rens	7595
rbi	7596
tvä	7597
wit	7598
äkna	7599
öker	7600
##ost	7601
##win	7602
arine	7603
napo	7604
anse	7605
##ata	7606
##ale	7607
##ski	7608
teen	7609
amne	7610
lossa	7611
näpp	7612
olt	7613
tark	7614
linse	7615
ämta	7616
ills	7617
acob	7618
ttade	7619
likn	7620
ratu	7621
ltr	7622
ngels	7623
raket	7624
ktiga	7625
tsko	7626
ision	7627
bläck	7628
bp	7629
hyd	7630
iri	7631
mj	7632
##io	7633
##sch	7634
anza	7635
ello	7636
miska	7637
host	7638
vidi	7639
mara	7640
joe	7641
ablar	7642
rukt	7643
karn	7644
prat	7645
pea	7646
seras	7647
ogle	7648
flik	7649
elak	7650
130	7651
aily	7652
lena	7653
ögs	7654
golfb	7655
bmw	7656
dm	7657
ipe	7658
kts	7659
nem	7660
pru	7661
rta	7662
une	7663
whe	7664
yon	7665
oria	7666
ride	7667
såra	7668
have	7669
undr	7670
llk	7671
llnad	7672
kons	7673
alomo	7674
nie	7675
därv	7676
urb	7677
urgeo	7678
ledar	7679
ulta	7680
följe	7681
trau	7682
trail	7683
adhd	7684
ggan	7685
märt	7686
ruta	7687
nkl	7688
erbar	7689
jakt	7690
illy	7691
släp	7692
hylla	7693
trian	7694
tripp	7695
hetta	7696
irka	7697
töter	7698
lodge	7699
rkad	7700
tråka	7701
grym	7702
druck	7703
anyon	7704
",	7705
cad	7706
eali	7707
iu	7708
sg	7709
##tti	7710
attn	7711
name	7712
ingsa	7713
unds	7714
lead	7715
llin	7716
alfa	7717
bly	7718
rack	7719
asy	7720
lax	7721
eme	7722
url	7723
vets	7724
dow	7725
mmig	7726
olic	7727
pack	7728
tree	7729
oln	7730
klau	7731
abu	7732
arao	7733
hyp	7734
mbry	7735
wow	7736
gatu	7737
ckad	7738
rchi	7739
arväl	7740
360	7741
oil	7742
oligt	7743
rga	7744
vun	7745
xy	7746
ån	7747
éer	7748
enat	7749
ärme	7750
arit	7751
pår	7752
etch	7753
utfö	7754
riet	7755
tay	7756
ione	7757
rave	7758
näsa	7759
box	7760
innor	7761
apten	7762
levan	7763
upong	7764
renhe	7765
ltag	7766
roth	7767
comi	7768
print	7769
rosor	7770
160	7771
gräse	7772
dumt	7773
tirra	7774
resid	7775
**	7776
83	7777
bd	7778
cko	7779
lsa	7780
lko	7781
lande	7782
rbar	7783
vri	7784
##ah	7785
##bra	7786
##kla	7787
##ome	7788
##one	7789
anu	7790
skar	7791
ighe	7792
räffa	7793
tava	7794
konom	7795
nett	7796
kassa	7797
maka	7798
moti	7799
hire	7800
luor	7801
doxa	7802
mme	7803
olid	7804
math	7805
jeans	7806
älsa	7807
das	7808
davi	7809
lina	7810
ebe	7811
ghost	7812
tami	7813
ataly	7814
tunne	7815
irekt	7816
ivers	7817
ukta	7818
knäck	7819
brått	7820
bowl	7821
peace	7822
ais	7823
ddi	7824
gnad	7825
hef	7826
otiv	7827
rinne	7828
zh	7829
##uf	7830
inr	7831
äran	7832
visk	7833
arco	7834
iger	7835
##add	7836
lei	7837
tapp	7838
ammer	7839
lost	7840
sav	7841
urra	7842
urse	7843
glam	7844
glut	7845
cock	7846
tune	7847
ubl	7848
isku	7849
aida	7850
majs	7851
äller	7852
gross	7853
lotto	7854
linga	7855
taket	7856
räni	7857
ydda	7858
nthon	7859
nlägg	7860
%,	7861
68	7862
71	7863
jim	7864
lma	7865
lmer	7866
long	7867
udan	7868
zu	7869
##ero	7870
ocks	7871
##ins	7872
äre	7873
etra	7874
inger	7875
väte	7876
orry	7877
näm	7878
matte	7879
nsen	7880
trod	7881
uran	7882
lyc	7883
lyssn	7884
toki	7885
tarm	7886
cos	7887
coll	7888
ssy	7889
tulit	7890
byggn	7891
hett	7892
rond	7893
finit	7894
ntel	7895
comm	7896
naten	7897
natri	7898
plit	7899
örat	7900
evis	7901
fro	7902
lba	7903
nmä	7904
pda	7905
wine	7906
yog	7907
äss	7908
##bel	7909
##fv	7910
viol	7911
eth	7912
etan	7913
##eli	7914
ory	7915
front	7916
idni	7917
ntin	7918
änds	7919
laggo	7920
edare	7921
agd	7922
graph	7923
tral	7924
rycke	7925
cow	7926
kto	7927
ssen	7928
dring	7929
upe	7930
alab	7931
romer	7932
mband	7933
mone	7934
key	7935
ydlig	7936
oecd	7937
html	7938
pilg	7939
74	7940
cnn	7941
dsl	7942
ikat	7943
jr	7944
lens	7945
nja	7946
nhl	7947
punk	7948
rgå	7949
uli	7950
wart	7951
yckt	7952
äcke	7953
vii	7954
vie	7955
elst	7956
eft	7957
##udo	7958
villo	7959
fie	7960
tok	7961
thi	7962
grind	7963
glen	7964
jej	7965
suger	7966
ttera	7967
gaml	7968
sche	7969
guy	7970
garen	7971
hoto	7972
110	7973
140	7974
nark	7975
latse	7976
bulk	7977
fjäll	7978
trigg	7979
pdate	7980
61	7981
69	7982
fb	7983
haga	7984
rge	7985
sser	7986
tk	7987
##wn	7988
amel	7989
tyv	7990
talk	7991
onk	7992
ters	7993
grän	7994
theo	7995
suga	7996
dägg	7997
gäld	7998
350	7999
arré	8000
rabba	8001
kabin	8002
97	8003
cer	8004
fm	8005
gs	8006
kes	8007
nh	8008
oko	8009
##kan	8010
ente	8011
##ena	8012
inko	8013
aru	8014
skare	8015
lift	8016
prote	8017
##oth	8018
trend	8019
spen	8020
##usa	8021
atyr	8022
ems	8023
bou	8024
doc	8025
job	8026
trat	8027
sslan	8028
rdf	8029
sakra	8030
kers	8031
anny	8032
gradu	8033
glatt	8034
asso	8035
keln	8036
hejd	8037
nagel	8038
elefo	8039
".	8040
79	8041
86	8042
92	8043
dot	8044
ez	8045
ging	8046
gali	8047
hv	8048
oul	8049
rlu	8050
##ty	8051
##bt	8052
ersk	8053
tiell	8054
ärke	8055
##ras	8056
lise	8057
elta	8058
räda	8059
lef	8060
genè	8061
genui	8062
öran	8063
kain	8064
map	8065
mack	8066
matto	8067
egär	8068
gruva	8069
lyn	8070
nnon	8071
grace	8072
oler	8073
trai	8074
novo	8075
orgon	8076
mpli	8077
piral	8078
oph	8079
korp	8080
ieber	8081
tenn	8082
tenne	8083
ouch	8084
oth	8085
lern	8086
whit	8087
ögre	8088
panel	8089
vinga	8090
73	8091
ecka	8092
oun	8093
wan	8094
yp	8095
zat	8096
erp	8097
erge	8098
sted	8099
stag	8100
arwin	8101
etent	8102
anm	8103
utg	8104
igan	8105
diy	8106
sikte	8107
ngla	8108
allo	8109
##uto	8110
amå	8111
mis	8112
asc	8113
mok	8114
ulin	8115
thy	8116
vala	8117
glans	8118
akto	8119
vani	8120
link	8121
rdi	8122
mäss	8123
ups	8124
heim	8125
tomb	8126
gull	8127
ipcc	8128
aif	8129
commo	8130
dorf	8131
slavi	8132
däck	8133
mnen	8134
rjan	8135
poner	8136
nasti	8137
arren	8138
faldi	8139
bländ	8140
76	8141
cg	8142
eell	8143
ipa	8144
ivå	8145
lper	8146
odd	8147
rpa	8148
sã	8149
uvar	8150
wel	8151
##ap	8152
##ux	8153
##uri	8154
enj	8155
erc	8156
viv	8157
stell	8158
orb	8159
##ame	8160
dic	8161
tee	8162
nev	8163
meron	8164
lav	8165
egn	8166
viset	8167
valid	8168
högs	8169
ryta	8170
coca	8171
ilä	8172
karta	8173
akom	8174
hypo	8175
roms	8176
lame	8177
gris	8178
otel	8179
lånar	8180
125	8181
pred	8182
msc	8183
gläd	8184
mont	8185
mond	8186
tiken	8187
obba	8188
dumpa	8189
listi	8190
mejl	8191
sql	8192
mbryo	8193
aja	8194
oste	8195
ogg	8196
pus	8197
rje	8198
rbo	8199
uru	8200
uva	8201
##ler	8202
stam	8203
nab	8204
anar	8205
has	8206
vere	8207
llå	8208
myt	8209
mosom	8210
nting	8211
plåt	8212
gruvo	8213
nstä	8214
pall	8215
huse	8216
krap	8217
rton	8218
brus	8219
umber	8220
ims	8221
ilde	8222
svin	8223
pip	8224
cken	8225
ckni	8226
antal	8227
stab	8228
cip	8229
ttad	8230
slätt	8231
limin	8232
plaz	8233
heri	8234
tigit	8235
ilje	8236
ogl	8237
ahara	8238
pets	8239
rlean	8240
publ	8241
jorde	8242
pvc	8243
hydra	8244
hk	8245
jligt	8246
rte	8247
rgo	8248
tens	8249
ysk	8250
åsom	8251
##cq	8252
enus	8253
erd	8254
ersio	8255
inci	8256
ocke	8257
väkt	8258
räs	8259
haf	8260
seudo	8261
efe	8262
tej	8263
low	8264
klam	8265
gill	8266
näna	8267
lök	8268
kran	8269
hio	8270
berry	8271
hub	8272
jos	8273
tagb	8274
rup	8275
dapt	8276
mpe	8277
ommy	8278
ardin	8279
level	8280
gue	8281
ftet	8282
rone	8283
soja	8284
wait	8285
gräva	8286
galet	8287
atoli	8288
nath	8289
nator	8290
itisk	8291
ffici	8292
knep	8293
??	8294
^^	8295
aq	8296
bc	8297
fs	8298
kåd	8299
np	8300
nant	8301
äde	8302
östa	8303
eny	8304
nakna	8305
skåd	8306
ettsy	8307
väv	8308
lisk	8309
riter	8310
mine	8311
lego	8312
blanc	8313
nep	8314
kola	8315
sack	8316
kaf	8317
mail	8318
jude	8319
ply	8320
urt	8321
nday	8322
brain	8323
gap	8324
gain	8325
eds	8326
thon	8327
tagg	8328
kval	8329
abc	8330
tua	8331
kik	8332
asts	8333
acon	8334
alib	8335
wich	8336
ångt	8337
tomo	8338
mbin	8339
odkä	8340
garn	8341
ambo	8342
prin	8343
esso	8344
ourci	8345
assac	8346
kärp	8347
disp	8348
anane	8349
xakt	8350
grovt	8351
unes	8352
82	8353
93	8354
bun	8355
dlar	8356
ekti	8357
eci	8358
olig	8359
pell	8360
sfa	8361
ukar	8362
vans	8363
wing	8364
yter	8365
zig	8366
åri	8367
##ür	8368
##mu	8369
##omi	8370
ombi	8371
anga	8372
##alt	8373
nded	8374
kust	8375
örn	8376
neu	8377
neil	8378
maya	8379
jup	8380
juan	8381
boot	8382
dåra	8383
this	8384
välde	8385
umb	8386
aba	8387
kikt	8388
grey	8389
krot	8390
cket	8391
arato	8392
nedra	8393
tads	8394
oster	8395
tomat	8396
irr	8397
oxy	8398
aiti	8399
airo	8400
kalk	8401
rotat	8402
grop	8403
slave	8404
mrs	8405
zoo	8406
ögst	8407
nnull	8408
creek	8409
uote	8410
pruta	8411
yoghu	8412
89	8413
87	8414
91	8415
bod	8416
bali	8417
hs	8418
iris	8419
lts	8420
nba	8421
ots	8422
rlek	8423
tsa	8424
ulla	8425
ée	8426
##ai	8427
##ås	8428
##án	8429
##örd	8430
##ene	8431
avet	8432
stj	8433
ango	8434
anns	8435
##alo	8436
etti	8437
etty	8438
väs	8439
ridd	8440
såt	8441
##daq	8442
vavel	8443
nsök	8444
urp	8445
urre	8446
door	8447
tour	8448
only	8449
mes	8450
imf	8451
ilke	8452
dahl	8453
lins	8454
jacka	8455
jacq	8456
pion	8457
anto	8458
tomer	8459
enkl	8460
lamma	8461
iaf	8462
ddy	8463
kalb	8464
råtto	8465
phia	8466
achel	8467
ilit	8468
dale	8469
burma	8470
vslut	8471
zimb	8472
cala	8473
nalis	8474
ektiv	8475
pig	8476
sr	8477
yard	8478
##ea	8479
##mar	8480
erte	8481
arda	8482
duty	8483
best	8484
orris	8485
lila	8486
##rie	8487
hana	8488
ionss	8489
llum	8490
ney	8491
ratte	8492
atl	8493
empe	8494
vilt	8495
lago	8496
pak	8497
esu	8498
teret	8499
jäna	8500
buy	8501
illåt	8502
circ	8503
stöt	8504
korv	8505
turk	8506
wii	8507
tomte	8508
place	8509
afa	8510
rench	8511
soul	8512
rerna	8513
ägga	8514
ltd	8515
iala	8516
tigar	8517
gränd	8518
izof	8519
lappa	8520
rally	8521
450	8522
rtifi	8523
drug	8524
esid	8525
josé	8526
81	8527
aram	8528
bmi	8529
dget	8530
eus	8531
fc	8532
fun	8533
gw	8534
ged	8535
gart	8536
hc	8537
ij	8538
oend	8539
rsa	8540
rva	8541
sstä	8542
##han	8543
enns	8544
erva	8545
tide	8546
##eti	8547
##rak	8548
omn	8549
orw	8550
sean	8551
lean	8552
teel	8553
amme	8554
tyle	8555
lou	8556
raini	8557
slam	8558
klang	8559
itär	8560
fifa	8561
asdaq	8562
ttf	8563
toxi	8564
agog	8565
trek	8566
dome	8567
gge	8568
ppe	8569
dafa	8570
lindr	8571
pia	8572
pir	8573
opo	8574
ico	8575
mula	8576
song	8577
obs	8578
hytt	8579
chack	8580
trim	8581
helle	8582
male	8583
gnu	8584
rary	8585
nski	8586
ruto	8587
vladi	8588
onfer	8589
revol	8590
hpv	8591
ånade	8592
cpu	8593
fläck	8594
glamo	8595
5g	8596
aik	8597
fou	8598
håg	8599
hum	8600
mäll	8601
nons	8602
sus	8603
##ira	8604
##jud	8605
##wo	8606
##ät	8607
dex	8608
enhe	8609
ärft	8610
ärva	8611
vide	8612
omis	8613
arka	8614
##tid	8615
##ato	8616
lisa	8617
uppl	8618
andal	8619
##uru	8620
haag	8621
div	8622
gena	8623
genu	8624
llâ	8625
klot	8626
pott	8627
krö	8628
bosch	8629
lyx	8630
resu	8631
valpa	8632
admin	8633
metro	8634
kät	8635
tara	8636
ranso	8637
rulle	8638
erba	8639
rns	8640
rspr	8641
rmat	8642
wire	8643
prakt	8644
ifrs	8645
acks	8646
truck	8647
bedö	8648
ieter	8649
gärde	8650
störs	8651
eella	8652
idiga	8653
roati	8654
why	8655
rbjud	8656
äckl	8657
kada	8658
crm	8659
roppe	8660
vampa	8661
cfd	8662
rångl	8663
fig	8664
hz	8665
lve	8666
lvi	8667
nz	8668
wat	8669
wri	8670
##aa	8671
##ub	8672
##émo	8673
##ano	8674
anie	8675
##ros	8676
hard	8677
##ele	8678
limi	8679
##res	8680
tröm	8681
spi	8682
rät	8683
haw	8684
ngäld	8685
iona	8686
genus	8687
fakt	8688
kock	8689
sladd	8690
sai	8691
gio	8692
idd	8693
nsf	8694
nsus	8695
vilo	8696
onny	8697
edie	8698
agl	8699
paus	8700
mper	8701
äms	8702
unn	8703
fant	8704
trip	8705
trid	8706
hehe	8707
okémo	8708
narc	8709
two	8710
ntis	8711
knu	8712
rage	8713
sitet	8714
torrt	8715
addam	8716
druvo	8717
ldrar	8718
remsa	8719
rrow	8720
enetr	8721
alys	8722
mhz	8723
urray	8724
ennsy	8725
94	8726
aal	8727
bag	8728
bing	8729
dali	8730
dns	8731
hort	8732
kb	8733
tve	8734
utter	8735
vli	8736
ädel	8737
##js	8738
##hon	8739
##gen	8740
erant	8741
inso	8742
indel	8743
arq	8744
orte	8745
rice	8746
efa	8747
änge	8748
siri	8749
amför	8750
alge	8751
kov	8752
loo	8753
lof	8754
saw	8755
värg	8756
chu	8757
eser	8758
älv	8759
ceo	8760
tugg	8761
supp	8762
svt	8763
ramm	8764
kräkt	8765
##mme	8766
astr	8767
alia	8768
akan	8769
tinge	8770
anati	8771
sca	8772
odul	8773
rerar	8774
råtta	8775
rger	8776
pryd	8777
phy	8778
nard	8779
where	8780
kea	8781
apita	8782
situ	8783
lånat	8784
##hua	8785
leep	8786
tätn	8787
lcd	8788
rowd	8789
adres	8790
hajar	8791
iolog	8792
tejp	8793
cut	8794
gun	8795
iens	8796
isak	8797
jde	8798
järt	8799
kens	8800
osk	8801
otte	8802
ovis	8803
xl	8804
yg	8805
åre	8806
##ip	8807
##hs	8808
##eri	8809
##dex	8810
dup	8811
reud	8812
igi	8813
##emo	8814
kupp	8815
räv	8816
ligan	8817
lekna	8818
amtid	8819
bac	8820
hima	8821
syst	8822
pate	8823
ält	8824
kth	8825
ssä	8826
jäst	8827
tura	8828
ramla	8829
##iki	8830
eba	8831
trimm	8832
irs	8833
lamm	8834
ause	8835
grova	8836
rving	8837
resse	8838
faran	8839
issen	8840
ögt	8841
seei	8842
knän	8843
tavn	8844
plato	8845
aids	8846
dränk	8847
wheel	8848
aud	8849
css	8850
eod	8851
egg	8852
itte	8853
lent	8854
ogga	8855
sut	8856
udd	8857
vörd	8858
yde	8859
##ey	8860
erem	8861
ärma	8862
visi	8863
anis	8864
dug	8865
rei	8866
##sso	8867
oren	8868
orro	8869
proj	8870
undet	8871
efte	8872
lop	8873
mers	8874
rose	8875
ttl	8876
thc	8877
tsf	8878
trave	8879
grus	8880
aden	8881
co2	8882
ruar	8883
estå	8884
rdom	8885
ulls	8886
cif	8887
mund	8888
kari	8889
tgör	8890
eid	8891
hårf	8892
luts	8893
ibm	8894
ontr	8895
sagor	8896
kale	8897
otb	8898
gnäll	8899
atson	8900
atsal	8901
löjt	8902
aturn	8903
rliga	8904
tipsa	8905
ukten	8906
lpha	8907
cale	8908
lawr	8909
lusiv	8910
fts	8911
hän	8912
jer	8913
msk	8914
ping	8915
rme	8916
uci	8917
xan	8918
yi	8919
äft	8920
##ec	8921
##ox	8922
##rt	8923
##hh	8924
deg	8925
dejt	8926
erö	8927
erin	8928
ärf	8929
stm	8930
nak	8931
lill	8932
ndor	8933
kub	8934
kuli	8935
sell	8936
ndela	8937
##vey	8938
niser	8939
koh	8940
ravid	8941
expe	8942
gissn	8943
finne	8944
roc	8945
kapp	8946
make	8947
vilke	8948
valve	8949
ekl	8950
stran	8951
köt	8952
rylar	8953
litu	8954
alic	8955
ffär	8956
lemi	8957
titla	8958
tadga	8959
chall	8960
modul	8961
nork	8962
hello	8963
ågor	8964
lönn	8965
php	8966
eckn	8967
moni	8968
macb	8969
heder	8970
hotad	8971
tapla	8972
alvin	8973
låder	8974
aft	8975
atera	8976
cend	8977
cole	8978
eks	8979
f1	8980
gst	8981
gmo	8982
kf	8983
lår	8984
mort	8985
oldi	8986
rkä	8987
tärn	8988
xd	8989
ydd	8990
##nt	8991
##ylo	8992
##hn	8993
##ham	8994
##ary	8995
ocus	8996
aring	8997
nada	8998
anst	8999
anari	9000
rez	9001
trong	9002
kubi	9003
ngl	9004
tella	9005
amy	9006
alto	9007
neur	9008
loop	9009
roos	9010
nerad	9011
mänsk	9012
fir	9013
fåt	9014
pok	9015
krans	9016
emis	9017
bach	9018
troja	9019
urry	9020
tjur	9021
mmor	9022
edar	9023
ulf	9024
thri	9025
vale	9026
sedel	9027
trali	9028
mata	9029
vanna	9030
ranz	9031
tugga	9032
ljö	9033
shell	9034
shui	9035
sona	9036
döva	9037
oba	9038
akel	9039
akre	9040
rsl	9041
terap	9042
ibn	9043
ancy	9044
afp	9045
iken	9046
namma	9047
grove	9048
ghz	9049
eesk	9050
240	9051
onaco	9052
etero	9053
lond	9054
yahu	9055
pole	9056
orex	9057
satan	9058
öljd	9059
ummor	9060
btc	9061
mkr	9062
nvent	9063
agdad	9064
eremy	9065
84	9066
;-)	9067
cie	9068
eq	9069
ece	9070
gärd	9071
htt	9072
hun	9073
jk	9074
mali	9075
nver	9076
nans	9077
nko	9078
odr	9079
rli	9080
wp	9081
was	9082
äf	9083
##sc	9084
##lin	9085
##bc	9086
##rin	9087
##ms	9088
##zu	9089
dea	9090
erit	9091
tif	9092
viter	9093
arp	9094
etf	9095
rise	9096
##ila	9097
##ile	9098
spik	9099
havi	9100
sec	9101
dier	9102
six	9103
llb	9104
llu	9105
llc	9106
aml	9107
alte	9108
nika	9109
merit	9110
kai	9111
maker	9112
isb	9113
lagda	9114
onens	9115
pard	9116
drake	9117
sött	9118
jay	9119
illb	9120
shel	9121
ateg	9122
iec	9123
djö	9124
tena	9125
ouver	9126
stuga	9127
röre	9128
bris	9129
rete	9130
okrat	9131
oxal	9132
veckl	9133
armin	9134
roten	9135
lert	9136
åkan	9137
jdz	9138
salt	9139
vågat	9140
hole	9141
pulve	9142
estau	9143
energ	9144
arbon	9145
leasi	9146
ufc	9147
cruz	9148
brann	9149
naiv	9150
guay	9151
tulen	9152
nklud	9153
llâh	9154
cod	9155
ede	9156
ibb	9157
lol	9158
nari	9159
pn	9160
ware	9161
ykt	9162
zy	9163
öpa	9164
##lon	9165
enz	9166
instr	9167
##agi	9168
arper	9169
etc	9170
reli	9171
hark	9172
orra	9173
orås	9174
liska	9175
river	9176
spru	9177
mang	9178
taj	9179
tain	9180
genen	9181
amf	9182
tyl	9183
nest	9184
kokt	9185
raw	9186
helg	9187
rof	9188
rote	9189
margi	9190
dåd	9191
talj	9192
doo	9193
mmoni	9194
##ump	9195
spele	9196
låte	9197
tari	9198
brig	9199
abylo	9200
drig	9201
stick	9202
jäkla	9203
born	9204
##fid	9205
gree	9206
rden	9207
mästr	9208
tört	9209
opco	9210
arate	9211
oppl	9212
karte	9213
korg	9214
torp	9215
ondo	9216
hårbo	9217
likar	9218
arner	9219
rigo	9220
rått	9221
nsion	9222
ourin	9223
rush	9224
tötte	9225
tamme	9226
ncer	9227
ektr	9228
ammal	9229
atalo	9230
sfalt	9231
ngoli	9232
fordo	9233
ucky	9234
style	9235
roadw	9236
lesb	9237
knopp	9238
itivt	9239
dling	9240
cript	9241
kjol	9242
rvey	9243
nabol	9244
:(	9245
eö	9246
eas	9247
fol	9248
hl	9249
hbo	9250
iant	9251
kot	9252
lr	9253
pag	9254
psi	9255
sång	9256
tång	9257
wc	9258
wy	9259
wto	9260
want	9261
##ee	9262
##cr	9263
##jé	9264
##zb	9265
erri	9266
viet	9267
omk	9268
duo	9269
rein	9270
skra	9271
kans	9272
ndhi	9273
elti	9274
tring	9275
dien	9276
någo	9277
ngag	9278
geno	9279
kona	9280
ampa	9281
neill	9282
raz	9283
##nga	9284
kly	9285
itz	9286
fås	9287
hood	9288
rättv	9289
vaka	9290
vidri	9291
onku	9292
ledge	9293
gåt	9294
bim	9295
sman	9296
ekn	9297
noa	9298
nou	9299
drad	9300
entat	9301
kvm	9302
arth	9303
vink	9304
lds	9305
forme	9306
cast	9307
appor	9308
aca	9309
ardi	9310
lemh	9311
ndras	9312
alai	9313
gels	9314
ibs	9315
neti	9316
otent	9317
öjli	9318
arsza	9319
dama	9320
galan	9321
ditor	9322
azak	9323
göt	9324
onsum	9325
arbor	9326
peng	9327
mmiss	9328
750	9329
crazy	9330
olex	9331
atrik	9332
asic	9333
hore	9334
äkra	9335
stedt	9336
irror	9337
agoga	9338
cur	9339
cus	9340
cari	9341
dt	9342
fla	9343
ghe	9344
gaga	9345
kål	9346
nsak	9347
nemi	9348
osu	9349
sara	9350
tmi	9351
tärk	9352
ussa	9353
ymme	9354
zel	9355
äsa	9356
åga	9357
##sm	9358
##rar	9359
##ran	9360
##vy	9361
##ye	9362
enä	9363
eren	9364
viii	9365
ompo	9366
omras	9367
etyl	9368
nac	9369
nata	9370
nacka	9371
natal	9372
skf	9373
frö	9374
rill	9375
elhi	9376
##ema	9377
seb	9378
siva	9379
tyrk	9380
faq	9381
need	9382
sau	9383
root	9384
kakor	9385
kafé	9386
mao	9387
lyft	9388
##umo	9389
agul	9390
tho	9391
ormul	9392
treas	9393
serar	9394
låsta	9395
rtan	9396
brän	9397
drade	9398
ranco	9399
ppli	9400
prid	9401
aldo	9402
antra	9403
ullt	9404
cid	9405
shot	9406
rodna	9407
släck	9408
brunn	9409
eiji	9410
ångs	9411
heart	9412
##hei	9413
ackra	9414
eyno	9415
hotat	9416
phi	9417
doro	9418
gasen	9419
salar	9420
awk	9421
gilb	9422
gryt	9423
zip	9424
##phy	9425
gbp	9426
crick	9427
apsel	9428
xxx	9429
hvad	9430
ophie	9431
gedig	9432
aalto	9433
4k	9434
b2	9435
bram	9436
dp	9437
eps	9438
hg	9439
iy	9440
jl	9441
jf	9442
kån	9443
lna	9444
rats	9445
rini	9446
uar	9447
vã	9448
vsk	9449
vrak	9450
wr	9451
xc	9452
xml	9453
åf	9454
åbo	9455
”.	9456
##oi	9457
##edo	9458
##rai	9459
ompe	9460
påve	9461
bec	9462
bett	9463
liser	9464
liff	9465
läsk	9466
ndon	9467
upple	9468
såå	9469
haka	9470
lega	9471
änna	9472
vero	9473
manti	9474
manna	9475
tabu	9476
llat	9477
alam	9478
alaga	9479
mili	9480
mai	9481
lava	9482
nslu	9483
hälle	9484
urv	9485
lytt	9486
sych	9487
lagr	9488
mmon	9489
topo	9490
gaf	9491
edal	9492
agli	9493
trea	9494
erid	9495
stäm	9496
nora	9497
cost	9498
ivot	9499
prix	9500
grev	9501
plane	9502
jaka	9503
japp	9504
pier	9505
innar	9506
astu	9507
apit	9508
santo	9509
torv	9510
rson	9511
cyp	9512
toni	9513
titan	9514
anama	9515
outi	9516
oute	9517
bildn	9518
larm	9519
nåja	9520
ayer	9521
trög	9522
mager	9523
kryt	9524
170	9525
urner	9526
gentl	9527
isab	9528
rocky	9529
xiii	9530
yah	9531
labs	9532
rundo	9533
lata	9534
pann	9535
tipse	9536
nash	9537
ausa	9538
btw	9539
kakao	9540
karto	9541
03	9542
3g	9543
4g	9544
cet	9545
cta	9546
cum	9547
ccep	9548
dsa	9549
döv	9550
dha	9551
fine	9552
jen	9553
kell	9554
lw	9555
lde	9556
lng	9557
lger	9558
mx	9559
nine	9560
nco	9561
oem	9562
pst	9563
sän	9564
tmä	9565
utta	9566
vf	9567
xs	9568
xvi	9569
zer	9570
äcker	9571
##sd	9572
##cl	9573
##zen	9574
##10	9575
init	9576
vise	9577
stn	9578
omed	9579
armer	9580
arch	9581
##ore	9582
eton	9583
harm	9584
ndlar	9585
##ada	9586
kula	9587
spol	9588
lekti	9589
sick	9590
allon	9591
nyc	9592
fax	9593
nei	9594
##rum	9595
sap	9596
klan	9597
gibra	9598
null	9599
roami	9600
kade	9601
maid	9602
kred	9603
mote	9604
boo	9605
urphy	9606
luna	9607
dott	9608
mmy	9609
too	9610
nné	9611
ulsi	9612
jour	9613
tagga	9614
vep	9615
ranta	9616
rance	9617
bety	9618
imber	9619
ivf	9620
ruck	9621
sluka	9622
svans	9623
....	9624
buck	9625
jaco	9626
pid	9627
unta	9628
gou	9629
arald	9630
aliv	9631
karbo	9632
cyto	9633
eis	9634
lanom	9635
fes	9636
tomi	9637
kolog	9638
uddi	9639
irth	9640
odk	9641
nåde	9642
brick	9643
lamp	9644
krige	9645
griff	9646
auer	9647
eye	9648
sagd	9649
lton	9650
ankar	9651
nnek	9652
drift	9653
itti	9654
rosen	9655
ämnar	9656
lingr	9657
ssab	9658
isaac	9659
temal	9660
ammet	9661
laby	9662
custo	9663
almar	9664
lore	9665
oost	9666
cdc	9667
sator	9668
spoli	9669
elato	9670
lickr	9671
knock	9672
sekel	9673
dräp	9674
skåp	9675
birmi	9676
rogra	9677
ndust	9678
bbey	9679
erceg	9680
%).	9681
sårad	9682
stjär	9683
aws	9684
dx	9685
eeli	9686
gf	9687
gus	9688
guru	9689
hbt	9690
iw	9691
jp	9692
jell	9693
mol	9694
nud	9695
okt	9696
put	9697
pts	9698
rã	9699
uz	9700
uste	9701
vni	9702
vstå	9703
xia	9704
zl	9705
äfta	9706
öpe	9707
##ax	9708
##gu	9709
##gel	9710
##öt	9711
##гr	9712
ennan	9713
##aro	9714
erke	9715
tior	9716
##ago	9717
vite	9718
nacke	9719
dura	9720
orf	9721
ndal	9722
riz	9723
sååå	9724
lep	9725
tep	9726
tech	9727
nimm	9728
fao	9729
sigma	9730
##ito	9731
lotta	9732
loft	9733
perf	9734
moto	9735
mour	9736
lyt	9737
nno	9738
than	9739
huk	9740
rtro	9741
rthei	9742
grand	9743
gröd	9744
käter	9745
coco	9746
ssu	9747
ssm	9748
ppi	9749
erby	9750
bygge	9751
sula	9752
dawn	9753
kid	9754
unny	9755
gold	9756
törd	9757
broad	9758
tenig	9759
håri	9760
ebi	9761
hey	9762
ftp	9763
lady	9764
eyer	9765
eymar	9766
ows	9767
ogram	9768
enden	9769
175	9770
olda	9771
ython	9772
arisé	9773
220	9774
ydli	9775
ygga	9776
zilla	9777
cbs	9778
craig	9779
atron	9780
gruvd	9781
walt	9782
ennor	9783
copco	9784
cnc	9785
ajak	9786
knuff	9787
eodal	9788
"-	9789
//	9790
dni	9791
hera	9792
homa	9793
jel	9794
låga	9795
mv	9796
mstä	9797
pta	9798
pine	9799
ryd	9800
rvo	9801
tbe	9802
uga	9803
vp	9804
xo	9805
yun	9806
yell	9807
ååå	9808
##pl	9809
##osa	9810
##jd	9811
##jen	9812
##har	9813
##12	9814
erta	9815
erve	9816
erme	9817
##iga	9818
arvey	9819
naul	9820
anf	9821
duke	9822
beck	9823
mend	9824
hane	9825
ngf	9826
llera	9827
atis	9828
nessa	9829
loe	9830
loc	9831
mia	9832
mazi	9833
jump	9834
hora	9835
krom	9836
valla	9837
most	9838
plc	9839
boss	9840
urd	9841
lux	9842
gaia	9843
edve	9844
pade	9845
thu	9846
valv	9847
grer	9848
adame	9849
mess	9850
coor	9851
entl	9852
ssalo	9853
ily	9854
kipp	9855
lint	9856
sväng	9857
...”	9858
pice	9859
ops	9860
opor	9861
arak	9862
illo	9863
apte	9864
cio	9865
ubro	9866
ict	9867
muta	9868
obyl	9869
lane	9870
timi	9871
101	9872
odral	9873
reti	9874
lami	9875
mtv	9876
herde	9877
malin	9878
näth	9879
ndora	9880
itty	9881
noma	9882
dore	9883
epres	9884
benz	9885
stört	9886
annah	9887
ncc	9888
atala	9889
amai	9890
oros	9891
yrus	9892
imeo	9893
kado	9894
rtis	9895
tumla	9896
anana	9897
urat	9898
crack	9899
bala	9900
isis	9901
550	9902
tödj	9903
akota	9904
rnold	9905
trén	9906
öruts	9907
rånge	9908
welc	9909
hafva	9910
urton	9911
acke	9912
dvik	9913
fos	9914
hut	9915
hod	9916
ied	9917
kink	9918
mri	9919
oas	9920
pk	9921
pã	9922
pens	9923
pani	9924
##iss	9925
##lat	9926
##her	9927
##ér	9928
##fsa	9929
##ql	9930
deo	9931
deli	9932
enri	9933
enzi	9934
enner	9935
ercy	9936
tipp	9937
tigg	9938
##ona	9939
vital	9940
vikar	9941
stna	9942
anera	9943
anit	9944
dun	9945
rilla	9946
##ilo	9947
sill	9948
tac	9949
tabi	9950
kont	9951
alco	9952
alph	9953
nih	9954
nice	9955
saxo	9956
daga	9957
rossa	9958
möd	9959
fis	9960
hof	9961
egre	9962
mou	9963
baha	9964
bout	9965
hill	9966
hizb	9967
urvo	9968
lugg	9969
chy	9970
##ley	9971
mmis	9972
toid	9973
gau	9974
uls	9975
grass	9976
olan	9977
hua	9978
hul	9979
bill	9980
meto	9981
endel	9982
bron	9983
cout	9984
klapp	9985
abul	9986
ssla	9987
rutte	9988
tuna	9989
suv	9990
indo	9991
mph	9992
krok	9993
kräk	9994
kräpp	9995
mäkla	9996
kapt	9997
iller	9998
acos	9999
