<unk>	0
<s>	0
</s>	0
.	-3.35377
s	-3.70612
,	-4.02057
▁och	-4.09743
▁att	-4.12905
en	-4.20144
▁	-4.2306
t	-4.24958
a	-4.25968
▁är	-4.39516
▁i	-4.40328
▁för	-4.47481
er	-4.4892
▁en	-4.58162
▁av	-4.58583
▁som	-4.59869
r	-4.80233
n	-4.82986
▁på	-4.87258
▁det	-4.92371
▁till	-4.99247
▁med	-5.06734
▁inte	-5.26263
▁har	-5.26889
▁den	-5.32093
ar	-5.37047
▁om	-5.37741
▁de	-5.38041
e	-5.39074
et	-5.39083
d	-5.39321
▁du	-5.41767
▁ett	-5.49962
-	-5.50204
▁kan	-5.54637
de	-5.64073
▁jag	-5.67325
?	-5.68724
na	-5.70184
:	-5.82452
▁Det	-5.83314
▁eller	-5.83395
▁vi	-5.89289
▁var	-5.91935
▁från	-5.96211
y	-6.05816
▁(	-6.06798
▁så	-6.07053
)	-6.19953
▁kommer	-6.21586
▁in	-6.22024
!	-6.25039
m	-6.26845
▁Jag	-6.26948
re	-6.3095
▁S	-6.32506
k	-6.33734
erna	-6.35514
g	-6.36777
▁I	-6.41451
▁ut	-6.41698
▁upp	-6.42022
▁sig	-6.44041
or	-6.45027
▁vara	-6.45321
i	-6.47065
▁över	-6.49941
▁man	-6.50609
an	-6.50869
l	-6.52472
in	-6.53117
▁Vi	-6.53835
▁ska	-6.55599
▁dig	-6.56059
▁"	-6.57032
▁när	-6.57038
ande	-6.57169
al	-6.58392
o	-6.58398
st	-6.58412
▁han	-6.59265
▁här	-6.59982
▁alla	-6.61689
▁men	-6.62024
p	-6.68303
▁under	-6.69531
▁också	-6.70064
▁be	-6.70766
▁finns	-6.72255
▁andra	-6.73065
▁Den	-6.73066
da	-6.75353
▁din	-6.76141
▁De	-6.76172
▁ha	-6.77107
ning	-6.78479
▁mig	-6.78636
▁mer	-6.7865
are	-6.79538
▁än	-6.8012
v	-6.81931
▁år	-6.83133
ta	-6.8464
▁”	-6.84917
▁detta	-6.85253
ade	-6.85572
ing	-6.85752
it	-6.85771
▁–	-6.85802
j	-6.86985
▁A	-6.87161
▁En	-6.87248
▁För	-6.87412
la	-6.88041
▁mycket	-6.8841
▁bara	-6.89915
▁dem	-6.90827
ä	-6.91529
▁vill	-6.92109
▁-	-6.92966
S	-6.93033
▁där	-6.93446
f	-6.93818
h	-6.94406
▁vad	-6.94629
▁göra	-6.95543
▁sin	-6.95711
at	-6.96376
▁efter	-6.96527
b	-6.96984
för	-6.99776
▁Men	-7.01009
▁B	-7.0114
▁P	-7.01176
▁min	-7.01266
u	-7.01885
▁s	-7.02008
A	-7.02124
▁gör	-7.03358
är	-7.03565
sk	-7.03961
▁ta	-7.04269
▁se	-7.04754
liga	-7.04867
te	-7.0495
▁hur	-7.05648
▁genom	-7.06332
▁Du	-7.06518
D	-7.06591
on	-7.07126
ck	-7.07158
arna	-7.0739
▁oss	-7.07943
▁Om	-7.07988
▁mot	-7.08408
▁denna	-7.09237
as	-7.09969
▁få	-7.10499
▁skulle	-7.10941
ad	-7.11571
▁C	-7.11726
▁vid	-7.14669
▁K	-7.14826
▁F	-7.14987
"	-7.15007
us	-7.15226
nde	-7.15615
ö	-7.16421
het	-7.16553
▁o	-7.16625
ra	-7.17147
iska	-7.18671
le	-7.18792
▁nu	-7.1944
tt	-7.19611
▁även	-7.20107
▁del	-7.20767
ter	-7.20969
ens	-7.21345
▁f	-7.21351
▁b	-7.21359
▁tid	-7.21987
▁måste	-7.22305
▁många	-7.22708
”	-7.2296
ut	-7.22961
ska	-7.23655
▁Och	-7.23792
▁får	-7.24143
C	-7.24263
es	-7.24329
2	-7.24404
I	-7.24443
▁Han	-7.24514
▁hade	-7.24778
▁an	-7.26111
▁något	-7.26357
ts	-7.2697
▁någon	-7.27777
▁E	-7.28165
▁bra	-7.28213
▁re	-7.28712
T	-7.29507
lig	-7.29898
▁M	-7.30357
▁första	-7.30536
P	-7.30981
kt	-7.31087
▁dessa	-7.32307
▁sätt	-7.34264
M	-7.34374
om	-7.3444
▁allt	-7.34917
▁barn	-7.35512
/	-7.35578
ig	-7.35675
▁dag	-7.35995
▁två	-7.36522
...	-7.36607
▁inom	-7.3662
▁O	-7.36666
ur	-7.36775
▁H	-7.368
▁p	-7.36891
E	-7.36908
ch	-7.37638
c	-7.382
ri	-7.38255
▁T	-7.38803
▁rätt	-7.38835
▁L	-7.3908
▁G	-7.3925
▁bli	-7.39268
▁19	-7.39938
ering	-7.4023
▁k	-7.41036
▁sina	-7.41056
il	-7.42183
▁ni	-7.42402
▁utan	-7.42564
▁då	-7.42631
▁hon	-7.42662
ic	-7.43302
▁3	-7.43333
3	-7.43352
▁människor	-7.43464
▁När	-7.44027
▁Detta	-7.44243
▁g	-7.44829
▁1	-7.4522
des	-7.45317
ul	-7.46207
ol	-7.47406
va	-7.47567
▁t	-7.48139
▁Hur	-7.4814
x	-7.48437
ka	-7.48679
▁nya	-7.49033
ligt	-7.49546
der	-7.50357
▁mellan	-7.50713
▁ditt	-7.51417
▁Vad	-7.51862
ör	-7.51904
▁behöver	-7.52622
▁vår	-7.52647
el	-7.53513
▁olika	-7.53835
▁st	-7.54709
▁våra	-7.54711
4	-7.55023
▁själv	-7.55115
ma	-7.5529
ne	-7.55426
ro	-7.56118
ation	-7.56146
▁hela	-7.56406
mp	-7.56767
å	-7.56852
id	-7.57409
um	-7.57481
▁säger	-7.57879
▁sitt	-7.57972
vis	-7.58561
▁Re	-7.5878
▁sedan	-7.59029
▁några	-7.59763
▁deras	-7.60134
▁varje	-7.60801
ik	-7.60884
▁dina	-7.61462
tion	-7.64519
tal	-7.64532
1	-7.64736
ll	-7.64809
be	-7.65086
B	-7.65247
z	-7.65651
▁blir	-7.65901
is	-7.662
ce	-7.66286
ia	-7.66585
se	-7.67296
ist	-7.68025
▁D	-7.6809
▁fram	-7.68327
ns	-7.68439
O	-7.68505
;	-7.6918
6	-7.69492
L	-7.69516
▁skall	-7.6959
5	-7.6964
▁e	-7.69901
).	-7.70185
▁ge	-7.70757
▁vet	-7.70904
▁2	-7.71397
▁honom	-7.71495
▁V	-7.7166
▁liv	-7.72439
▁Be	-7.72946
▁m	-7.73555
▁alltid	-7.73925
▁sp	-7.74493
iga	-7.74598
era	-7.74663
▁er	-7.74704
▁kunna	-7.75538
ställ	-7.75931
7	-7.76273
▁information	-7.77204
isk	-7.77573
▁samma	-7.77821
▁före	-7.78244
▁helt	-7.78275
▁ny	-7.78611
▁4	-7.78655
▁företag	-7.79135
▁St	-7.79513
▁går	-7.79805
li	-7.79938
▁gå	-7.80006
▁lite	-7.80381
var	-7.80609
ningar	-7.80704
und	-7.80743
F	-7.81075
▁använda	-7.81088
▁Att	-7.81241
ry	-7.81454
R	-7.81661
▁lag	-7.82196
▁åter	-7.8245
H	-7.82959
▁Så	-7.83067
▁stor	-7.83348
8	-7.83415
ningen	-7.83778
▁grund	-7.84264
▁vilket	-7.84818
▁R	-7.8506
▁världen	-7.851
▁varit	-7.85205
9	-7.85532
▁5	-7.8589
▁bör	-7.85927
am	-7.86161
ld	-7.86172
▁Med	-7.86782
ga	-7.87818
▁ser	-7.88207
▁väl	-7.88293
▁bort	-7.8848
▁a	-7.88558
V	-7.88641
▁An	-7.88658
▁hem	-7.88696
▁kom	-7.88883
pp	-7.89137
▁In	-7.89205
w	-7.89328
gen	-7.8965
▁mest	-7.89657
▁hans	-7.89744
ti	-7.89863
▁mitt	-7.89895
di	-7.89956
K	-7.90597
▁annan	-7.90733
▁Mo	-7.90848
▁bästa	-7.91106
▁ord	-7.91403
▁bättre	-7.91669
ster	-7.92644
ion	-7.92786
▁Har	-7.92981
▁ju	-7.94235
N	-7.94637
▁ger	-7.9494
op	-7.9527
▁ingen	-7.95814
G	-7.9606
ek	-7.96359
ver	-7.96628
▁tre	-7.9686
▁annat	-7.97389
lo	-7.97656
erade	-7.97885
▁väg	-7.9808
än	-7.98095
▁hos	-7.98185
os	-7.98199
ell	-7.98308
itet	-7.99142
▁aldrig	-7.99152
ex	-7.99706
▁komma	-8.0018
nd	-8.01052
▁dess	-8.01303
▁hög	-8.01452
tor	-8.01831
▁fall	-8.02314
skap	-8.0265
ke	-8.02736
▁Ma	-8.02939
00	-8.03676
▁skapa	-8.03824
▁c	-8.04009
nings	-8.04016
ok	-8.0404
ju	-8.04621
to	-8.04734
▁gång	-8.04764
▁of	-8.04826
▁N	-8.04986
▁bil	-8.05277
else	-8.05423
rätt	-8.05645
▁flera	-8.05739
verk	-8.05953
ring	-8.0642
▁eftersom	-8.06448
lu	-8.06469
ed	-8.06482
▁mål	-8.06571
▁Gud	-8.06682
sta	-8.06921
▁stora	-8.07507
lar	-8.07744
ligen	-8.07779
▁form	-8.07793
den	-8.07823
▁blev	-8.08234
▁samt	-8.08288
▁10	-8.08389
▁tar	-8.08493
mar	-8.08512
▁Ett	-8.08642
man	-8.0878
▁val	-8.08819
.”	-8.08839
▁På	-8.09007
mi	-8.09136
▁W	-8.09476
▁kon	-8.09581
gi	-8.09764
▁utveckla	-8.09799
▁U	-8.09897
▁kunde	-8.10284
land	-8.10898
äg	-8.1137
▁Hon	-8.11422
▁åt	-8.11426
▁verkligen	-8.11779
ot	-8.11812
▁tillbaka	-8.12473
ät	-8.12473
▁tror	-8.1248
min	-8.12688
▁spel	-8.13011
▁di	-8.13072
▁innan	-8.13206
▁gäller	-8.13241
▁bo	-8.13441
▁hjälp	-8.13441
▁Alla	-8.13657
ja	-8.13777
▁enligt	-8.14057
▁person	-8.14665
år	-8.1479
all	-8.14824
▁tro	-8.15037
iv	-8.15087
lä	-8.15305
▁fick	-8.16201
gång	-8.1624
]	-8.16572
▁plats	-8.16638
▁Är	-8.1677
ng	-8.16827
ack	-8.17076
igt	-8.17165
äng	-8.17174
akt	-8.17517
lag	-8.17697
men	-8.18389
tag	-8.18536
▁“	-8.18557
▁ner	-8.18725
▁Som	-8.19141
im	-8.19329
▁bland	-8.19594
av	-8.1968
ru	-8.20096
bo	-8.20155
0	-8.20167
ff	-8.20345
ger	-8.20522
co	-8.20663
▁sa	-8.21359
▁mat	-8.2145
▁kanske	-8.21616
▁6	-8.21737
▁ofta	-8.21816
▁saker	-8.22485
."	-8.22705
ir	-8.22722
▁h	-8.23214
bi	-8.23738
▁både	-8.24366
▁La	-8.24452
▁problem	-8.24821
▁Man	-8.24859
ge	-8.24917
▁använder	-8.24918
▁hitta	-8.25334
mer	-8.25488
▁Nu	-8.25733
▁säga	-8.25819
▁stat	-8.25883
▁pengar	-8.26194
po	-8.26405
▁igen	-8.26411
▁Se	-8.26416
▁Bo	-8.26537
äck	-8.26674
▁artikel	-8.26697
▁exempel	-8.26856
▁personer	-8.27047
▁arbets	-8.27293
ven	-8.27364
ans	-8.2739
▁EU	-8.27605
▁beslut	-8.2812
▁redan	-8.28413
▁fri	-8.28447
▁hand	-8.28619
▁USA	-8.28696
▁Till	-8.28814
ste	-8.29417
▁Här	-8.29655
▁dock	-8.29791
▁idag	-8.30091
▁mindre	-8.30258
ment	-8.30285
▁fortfarande	-8.30342
▁nå	-8.30785
▁tidigare	-8.30912
ton	-8.3094
ie	-8.31012
ha	-8.3131
met	-8.31321
ft	-8.31421
▁gjort	-8.31485
sättning	-8.31567
ighet	-8.31596
▁slut	-8.3175
ön	-8.31941
▁ligger	-8.3215
bu	-8.32238
▁tillsammans	-8.32283
▁endast	-8.32458
▁svar	-8.32458
▁Min	-8.32641
▁väldigt	-8.32819
tiv	-8.32991
▁Ja	-8.33083
kar	-8.33288
▁mina	-8.33303
▁7	-8.33518
talet	-8.33552
ba	-8.33568
ella	-8.33628
ick	-8.33631
▁vissa	-8.33709
▁Varför	-8.33762
tid	-8.33865
ran	-8.33928
ni	-8.34101
ling	-8.34106
pi	-8.34167
U	-8.34179
mma	-8.34649
▁Ta	-8.34846
▁vän	-8.34955
▁procent	-8.34957
▁lång	-8.34961
▁and	-8.35162
ställning	-8.35287
▁kvinnor	-8.35634
rik	-8.35644
me	-8.36249
▁miljö	-8.36336
▁far	-8.36347
▁Var	-8.36686
▁kort	-8.36688
'	-8.36708
),	-8.36824
▁sk	-8.37002
▁...	-8.3709
▁fråga	-8.37222
ak	-8.37451
▁egen	-8.3758
▁produkter	-8.37813
åt	-8.38024
iskt	-8.38067
▁möjligt	-8.38077
▁längre	-8.38106
▁folk	-8.38141
▁hjälpa	-8.38216
▁land	-8.38218
ant	-8.38239
▁vatten	-8.38244
▁fin	-8.38595
▁spela	-8.38621
un	-8.38734
mo	-8.38798
håll	-8.38948
▁Li	-8.38976
gel	-8.39061
▁Ro	-8.39376
tan	-8.39453
”.	-8.39543
ets	-8.39818
th	-8.39905
ci	-8.39972
▁största	-8.40168
▁8	-8.40229
▁Di	-8.40295
▁död	-8.40406
▁stöd	-8.40423
▁Le	-8.4078
▁The	-8.4095
vi	-8.40989
bar	-8.41081
▁Ba	-8.41101
▁produkt	-8.41198
▁nytt	-8.41449
▁gjorde	-8.41567
lev	-8.41665
fall	-8.41754
erad	-8.41893
em	-8.42024
▁dagar	-8.42086
ala	-8.42129
till	-8.42175
si	-8.42239
▁kr	-8.42262
▁fler	-8.42263
io	-8.42453
tar	-8.42821
▁Under	-8.42846
▁känner	-8.42891
▁fast	-8.42987
▁Co	-8.42998
sh	-8.43075
▁Ar	-8.43125
▁därför	-8.43149
sätt	-8.432
▁v	-8.43345
red	-8.4336
▁lär	-8.43523
▁Ha	-8.43627
▁gr	-8.44231
▁Ca	-8.44563
▁20	-8.44689
▁henne	-8.44702
▁Inte	-8.44738
é	-8.44774
ko	-8.44826
ill	-8.44925
tur	-8.44928
▁Al	-8.44954
fe	-8.45223
▁energi	-8.45471
od	-8.45481
▁fem	-8.45595
▁innebär	-8.45601
▁tiden	-8.45741
eg	-8.45809
▁Ka	-8.45821
upp	-8.46053
ab	-8.46114
▁ur	-8.4618
ord	-8.46382
▁Jo	-8.46397
▁enda	-8.46408
val	-8.46547
ly	-8.46579
ve	-8.46669
▁hör	-8.46703
▁Ni	-8.47292
▁används	-8.4745
▁vårt	-8.47495
▁all	-8.47512
▁dom	-8.47687
gar	-8.47711
bb	-8.47718
▁lämna	-8.47797
▁Kan	-8.47864
gg	-8.48089
kon	-8.4814
dom	-8.48346
ung	-8.4855
no	-8.4877
stånd	-8.49587
rna	-8.49613
▁flesta	-8.49704
▁sak	-8.4976
nad	-8.49918
ud	-8.49971
väg	-8.49975
▁hålla	-8.50432
hi	-8.50655
▁Sk	-8.50758
go	-8.50789
▁viktigt	-8.50863
%	-8.5089
▁runt	-8.51049
▁namn	-8.51054
▁ka	-8.51172
lan	-8.51543
▁par	-8.51599
▁typ	-8.5165
eras	-8.51931
▁dagen	-8.51941
▁större	-8.52134
▁lika	-8.52222
▁data	-8.52268
form	-8.52336
▁lätt	-8.52519
▁öka	-8.52575
▁visar	-8.52644
est	-8.52665
mm	-8.52786
erat	-8.52935
ken	-8.53113
vä	-8.532
▁länder	-8.53344
▁Sverige	-8.53594
son	-8.53628
▁inför	-8.53692
▁huvud	-8.53734
▁utveckling	-8.53753
▁18	-8.53934
▁J	-8.54083
▁just	-8.54187
▁öppna	-8.54425
▁Te	-8.54617
len	-8.54618
do	-8.54618
ty	-8.54656
ier	-8.54988
rö	-8.55103
▁ännu	-8.55266
isera	-8.55314
▁god	-8.55446
orna	-8.55577
ism	-8.55679
sök	-8.55689
lighet	-8.55763
ow	-8.55978
▁bok	-8.56087
van	-8.56374
▁kvar	-8.56445
stra	-8.56563
rar	-8.56667
sion	-8.56712
▁vilken	-8.57243
".	-8.57529
▁händer	-8.5753
▁fel	-8.57633
▁grupp	-8.57652
lj	-8.57693
▁syn	-8.5778
▁senaste	-8.57791
▁själva	-8.57795
▁råd	-8.58025
▁Vä	-8.58055
▁börjar	-8.58128
▁livet	-8.58133
▁To	-8.58284
▁arbete	-8.58636
vin	-8.58712
▁miss	-8.58727
ång	-8.58732
▁ö	-8.58767
▁sol	-8.58815
▁varför	-8.58955
▁pro	-8.59101
▁förstå	-8.59124
▁minska	-8.59262
kor	-8.59294
▁möjlighet	-8.59385
▁la	-8.59426
sp	-8.59449
del	-8.59596
▁ro	-8.59711
erar	-8.59898
’	-8.59907
▁hennes	-8.59953
ker	-8.60057
tra	-8.60097
▁direkt	-8.60195
▁Dessa	-8.60215
sats	-8.60292
▁älskar	-8.60316
kom	-8.60328
▁risk	-8.60366
▁fr	-8.60538
ho	-8.60655
▁enkelt	-8.60727
▁tredje	-8.60791
▁ga	-8.60981
▁nära	-8.61002
20	-8.61015
spel	-8.61081
ip	-8.6119
▁15	-8.61402
träd	-8.61504
▁hy	-8.61514
▁verk	-8.61624
▁ty	-8.61689
ock	-8.61953
▁verksamhet	-8.6197
▁ned	-8.62213
▁[	-8.62238
▁användning	-8.62258
▁Ch	-8.62354
tin	-8.62365
dra	-8.62716
▁tycker	-8.62947
▁blivit	-8.62974
▁fått	-8.63078
plan	-8.6328
▁erbjuder	-8.6331
samma	-8.63331
▁samman	-8.63365
▁börja	-8.63422
tu	-8.63558
▁vilka	-8.63616
og	-8.6365
▁Efter	-8.63908
▁nästan	-8.63988
▁pris	-8.64061
värd	-8.64163
satt	-8.64369
ug	-8.64651
nar	-8.64768
▁särskilt	-8.64779
▁inget	-8.64998
Ä	-8.65038
▁Da	-8.65212
▁behandling	-8.65272
▁frågor	-8.65328
▁arbeta	-8.65563
tro	-8.65661
▁Europa	-8.65676
▁co	-8.65678
▁män	-8.65722
▁Sa	-8.65779
▁först	-8.6581
▁står	-8.65813
▁länge	-8.66023
▁system	-8.66521
▁förbättra	-8.66833
▁per	-8.66945
fa	-8.66962
▁senare	-8.67123
åg	-8.67249
▁plan	-8.67296
marknad	-8.67449
▁betala	-8.67481
vet	-8.6749
ki	-8.67509
▁dö	-8.67638
sikt	-8.67776
pa	-8.68049
▁arbetar	-8.68058
▁te	-8.68116
▁köpa	-8.68125
▁tjänster	-8.68135
▁&	-8.68357
ca	-8.68392
▁behov	-8.68713
att	-8.68747
▁tillgång	-8.69121
▁icke	-8.69167
▁ma	-8.69191
▁rum	-8.69275
▁resultat	-8.69335
▁lära	-8.69421
▁program	-8.69592
▁kunder	-8.69648
▁miljoner	-8.69706
äll	-8.69711
▁skicka	-8.69915
fri	-8.69929
▁Ut	-8.69956
▁he	-8.69994
▁ändra	-8.70241
▁stad	-8.70565
ister	-8.70656
Jag	-8.70686
rän	-8.70691
▁Sp	-8.70828
▁hus	-8.70856
▁sex	-8.71106
▁9	-8.71129
▁30	-8.7124
stå	-8.7133
▁gånger	-8.71371
eri	-8.7145
▁fyra	-8.71576
▁kärlek	-8.71934
▁musik	-8.72019
pe	-8.72032
▁Mar	-8.72084
led	-8.72144
▁små	-8.72346
▁Även	-8.72396
▁ansvar	-8.72449
ber	-8.72609
följ	-8.72664
▁000	-8.72802
▁Av	-8.72834
up	-8.7309
▁Bi	-8.73145
eller	-8.73281
je	-8.73327
▁klass	-8.73439
kan	-8.73451
▁titta	-8.73541
mon	-8.73559
▁steg	-8.7357
▁rör	-8.73701
▁12	-8.73732
▁faktiskt	-8.73735
▁film	-8.73746
▁förlora	-8.73819
▁välja	-8.74314
med	-8.74436
▁full	-8.74452
▁kraft	-8.7446
heten	-8.74645
rat	-8.74652
ort	-8.74711
ym	-8.74735
aren	-8.74756
▁gick	-8.7479
▁nog	-8.7529
▁flyg	-8.75328
▁veta	-8.7564
rum	-8.75709
W	-8.75918
▁emot	-8.75997
kän	-8.761
ian	-8.76144
▁familj	-8.76498
▁tog	-8.7673
▁började	-8.76807
▁natur	-8.76816
▁året	-8.76831
▁färg	-8.7688
▁sade	-8.77435
▁online	-8.77447
▁innehåll	-8.77521
ls	-8.77552
slag	-8.77718
lö	-8.77749
▁läsa	-8.77999
▁do	-8.78041
ny	-8.78051
▁nivå	-8.78058
▁utbildning	-8.78213
▁handlar	-8.78227
▁besök	-8.78338
▁teknik	-8.78408
▁Pro	-8.785
▁borde	-8.78867
▁regler	-8.79185
▁tur	-8.79202
▁minst	-8.79242
cent	-8.79391
ron	-8.79804
▁Då	-8.79947
bel	-8.79981
▁röst	-8.80023
▁egna	-8.80146
▁tala	-8.80148
nes	-8.80176
▁vä	-8.80199
▁såg	-8.80223
▁Po	-8.80232
▁kropp	-8.80254
br	-8.8038
▁delar	-8.80402
▁varandra	-8.805
▁ljus	-8.805
▁stort	-8.8061
fr	-8.80638
tik	-8.80716
▁kunskap	-8.80774
äst	-8.8104
tiska	-8.81137
▁båda	-8.81221
▁nästa	-8.8125
▁jobb	-8.81382
▁vänner	-8.81553
iva	-8.81876
lin	-8.81949
▁blod	-8.82046
par	-8.82386
▁timmar	-8.82538
▁kl	-8.82543
▁Lo	-8.82554
log	-8.82664
far	-8.82864
äv	-8.82914
▁Allt	-8.82922
mb	-8.82954
▁dra	-8.82977
▁resa	-8.83159
▁landet	-8.83203
▁känna	-8.83208
klar	-8.83473
▁snabbt	-8.8357
▁roll	-8.83581
and	-8.83694
öj	-8.83719
går	-8.83769
yn	-8.83915
ologi	-8.84048
port	-8.84053
bolag	-8.84106
▁uppgifter	-8.84148
▁pl	-8.84276
mor	-8.84354
▁li	-8.84364
▁behandla	-8.84369
▁låg	-8.84472
▁precis	-8.84546
▁ko	-8.84568
▁alternativ	-8.84589
▁He	-8.84605
lös	-8.84749
▁ca	-8.84946
▁gången	-8.84985
drag	-8.85079
▁the	-8.8509
▁svårt	-8.85166
ac	-8.85192
▁spelar	-8.85257
▁hår	-8.85271
▁For	-8.85353
▁håller	-8.85387
▁värde	-8.85503
rakt	-8.8553
int	-8.85568
▁fil	-8.85646
▁Ra	-8.85926
age	-8.85947
▁lycka	-8.85983
▁ren	-8.86102
▁bild	-8.86296
if	-8.86609
kning	-8.86801
stående	-8.86862
gå	-8.86898
dag	-8.87009
▁liten	-8.87024
▁djur	-8.87044
▁konst	-8.87099
▁träffa	-8.87313
▁dator	-8.87374
▁projekt	-8.87442
▁ytterligare	-8.87518
bil	-8.87595
▁Många	-8.87596
▁samla	-8.87633
ov	-8.87791
ium	-8.87896
▁riktigt	-8.87933
▁hjälper	-8.87948
elsen	-8.88084
▁medan	-8.88109
fatta	-8.88295
▁innehåller	-8.88301
elser	-8.88366
▁månader	-8.88552
▁värd	-8.8856
Det	-8.88647
▁Kom	-8.88821
▁process	-8.88973
▁ex	-8.89144
▁inga	-8.89175
aste	-8.89212
▁tänka	-8.89228
▁kultur	-8.89306
▁skillnad	-8.89417
▁Si	-8.89438
▁rik	-8.89523
▁sl	-8.9015
fi	-8.9019
▁åtgärder	-8.90206
▁början	-8.90267
▁å	-8.90405
▁sett	-8.90564
▁Ga	-8.90616
slut	-8.90704
net	-8.90713
tri	-8.90732
mat	-8.90772
ator	-8.90802
tyg	-8.91004
▁kvalitet	-8.91004
▁sådan	-8.91097
▁punkt	-8.91173
▁sådana	-8.91273
▁inklusive	-8.91292
▁Fa	-8.91292
▁led	-8.91351
▁följande	-8.91371
▁fungerar	-8.91449
stat	-8.91548
yl	-8.91596
▁100	-8.91711
▁design	-8.91712
▁möte	-8.91791
▁Vill	-8.91849
▁minuter	-8.91878
grupp	-8.91897
▁New	-8.91904
uk	-8.91918
▁bi	-8.92199
▁Me	-8.9227
▁sista	-8.92279
hopp	-8.92284
▁långt	-8.92354
▁Läs	-8.92477
▁erfarenhet	-8.92596
liv	-8.92752
▁bilder	-8.92901
▁antal	-8.92985
▁betyder	-8.93086
▁bygg	-8.9318
lt	-8.93327
▁påverka	-8.93523
fin	-8.93574
ress	-8.93947
▁pa	-8.93973
we	-8.93978
ull	-8.9399
▁Upp	-8.93993
▁staden	-8.94142
▁mängd	-8.94162
fo	-8.9431
▁hel	-8.94445
▁helst	-8.94491
▁/	-8.94529
▁Wi	-8.94535
▁gräns	-8.94545
▁material	-8.94837
▁kvinna	-8.94902
▁visa	-8.94981
▁Mi	-8.95025
▁förändra	-8.95071
▁Bu	-8.95109
bruk	-8.95212
▁säker	-8.95273
▁su	-8.95339
pri	-8.95491
▁vidare	-8.9555
▁gillar	-8.95571
ndet	-8.95597
full	-8.95598
▁samtidigt	-8.95654
▁gamla	-8.95654
▁språk	-8.95665
handling	-8.95705
▁viss	-8.95925
▁berätta	-8.9597
▁Y	-8.96031
▁kontroll	-8.96055
ec	-8.96065
▁rättigheter	-8.96085
▁perfekt	-8.96159
▁for	-8.96268
fil	-8.96295
▁skydda	-8.96497
▁Vår	-8.9655
▁Guds	-8.96641
▁bl	-8.96767
▁bor	-8.96809
by	-8.96862
▁haft	-8.96903
▁skada	-8.96932
▁via	-8.96994
isering	-8.96999
▁månad	-8.97046
program	-8.97078
▁sidan	-8.97245
ationer	-8.97458
▁Go	-8.97529
▁•	-8.9762
öl	-8.97839
anska	-8.97855
▁internationella	-8.9813
▁Do	-8.98193
▁Z	-8.98198
▁ske	-8.98215
▁ögon	-8.98306
”,	-8.98328
yrk	-8.98423
illa	-8.98662
ting	-8.98733
ob	-8.98907
▁kontakt	-8.99294
sten	-8.99335
▁tv	-8.99473
▁sam	-8.99725
▁vem	-8.99819
▁verkar	-9.0033
san	-9.00433
vid	-9.00567
▁högre	-9.00698
▁krav	-9.00727
▁Därför	-9.00808
▁50	-9.00837
▁sy	-9.00978
sam	-9.00992
▁någonsin	-9.00995
▁hantera	-9.01161
▁16	-9.01236
▁11	-9.01243
▁mod	-9.01307
tter	-9.01441
nivå	-9.01471
▁hemma	-9.01552
▁styr	-9.0161
mål	-9.01653
dri	-9.01715
ang	-9.01749
he	-9.01818
▁dr	-9.01825
▁fanns	-9.01844
▁funktion	-9.01925
▁driv	-9.02011
▁Sedan	-9.02096
▁kund	-9.02137
företag	-9.0226
tim	-9.02298
▁vinna	-9.02313
ret	-9.02376
▁privat	-9.02425
▁Ne	-9.02431
▁Vid	-9.02472
▁ganska	-9.02489
▁användas	-9.02525
▁begränsa	-9.02619
▁säkerhet	-9.02633
▁världens	-9.02859
▁situation	-9.02919
▁låt	-9.02993
ku	-9.0303
▁aktiv	-9.03053
▁vilja	-9.03068
▁or	-9.03493
▁Jesus	-9.036
nden	-9.03619
tioner	-9.03634
▁forskning	-9.03669
hus	-9.03721
",	-9.03788
▁såsom	-9.03837
stor	-9.04105
▁tack	-9.04142
▁Använd	-9.04362
▁blogg	-9.04513
mö	-9.04567
▁enlighet	-9.04569
▁Eller	-9.04756
▁%	-9.04763
tryck	-9.04772
▁mo	-9.05078
▁Pla	-9.05088
▁sv	-9.05159
▁uppnå	-9.05284
▁Dr	-9.05341
stad	-9.05497
över	-9.05572
leverantör	-9.05619
▁me	-9.05641
▁sociala	-9.05813
▁skriva	-9.05888
han	-9.05919
ler	-9.06008
J	-9.06056
ris	-9.06075
sch	-9.06094
ard	-9.06159
▁17	-9.0624
▁ovan	-9.0629
Vi	-9.06341
▁mag	-9.06364
kra	-9.06497
▁fl	-9.06605
▁historia	-9.06648
▁on	-9.06656
▁alltså	-9.06744
ationen	-9.06777
▁viktiga	-9.06804
▁nä	-9.06913
▁no	-9.06948
▁Ingen	-9.07066
▁total	-9.07087
▁San	-9.07092
▁sen	-9.07129
▁Ju	-9.07174
▁kallas	-9.07178
▁ja	-9.07199
▁Ö	-9.0727
▁Låt	-9.07528
▁Na	-9.07685
bli	-9.0776
▁värld	-9.07799
lägg	-9.07833
▁mark	-9.07917
▁förvänta	-9.07966
▁kräver	-9.08154
ära	-9.0831
gu	-9.0834
ban	-9.08475
▁hälsa	-9.08476
▁affärs	-9.0852
eringen	-9.08537
bet	-9.08539
▁lägga	-9.08658
vå	-9.08712
sin	-9.08787
▁syfte	-9.08829
▁13	-9.08839
▁Ho	-9.089
ika	-9.08938
▁Ri	-9.08957
▁hotell	-9.09137
rade	-9.09283
▁lik	-9.0948
▁tillgänglig	-9.09525
▁heller	-9.09564
▁bär	-9.0959
▁krävs	-9.09591
▁to	-9.09673
▁utanför	-9.09692
▁marknaden	-9.09724
▁Å	-9.09741
▁No	-9.09876
▁ibland	-9.09883
▁äta	-9.09929
▁hä	-9.09967
▁företaget	-9.10063
▁sluta	-9.10205
▁tillräckligt	-9.1029
▁pre	-9.10419
dan	-9.1045
▁Genom	-9.10468
▁skydd	-9.10503
!!	-9.10611
lit	-9.10631
▁vänta	-9.1065
▁studie	-9.10802
ine	-9.11092
10	-9.1126
bild	-9.1128
▁sju	-9.11305
wi	-9.11319
▁försöker	-9.11423
▁kör	-9.11432
▁förordning	-9.11453
▁flytta	-9.11458
▁25	-9.11623
▁Kon	-9.11672
▁anledning	-9.11694
▁tag	-9.11721
tagande	-9.11745
▁uttryck	-9.11813
▁14	-9.1186
▁följa	-9.11863
▁halv	-9.11873
▁viktig	-9.11884
▁produktion	-9.11924
▁lever	-9.12258
▁spelare	-9.12296
bara	-9.12398
▁Ad	-9.1251
ap	-9.12557
▁redo	-9.12668
ep	-9.12772
system	-9.1292
▁Ex	-9.12989
värt	-9.13013
▁webbplats	-9.13056
▁erbjuda	-9.13147
dy	-9.13223
▁lån	-9.13432
▁video	-9.13473
▁dela	-9.13567
▁sagt	-9.13633
▁kroppen	-9.13688
post	-9.13771
ssa	-9.13773
▁Vem	-9.13823
▁ändå	-9.1383
mun	-9.13919
lek	-9.13927
ies	-9.13984
▁samarbete	-9.1404
dig	-9.1413
▁Sam	-9.14158
ight	-9.1416
▁Gra	-9.14371
▁döda	-9.144
per	-9.14462
▁köp	-9.14468
ong	-9.14477
▁jorden	-9.14506
läggning	-9.14555
▁kor	-9.14567
▁X	-9.14596
delning	-9.14748
▁säkerhets	-9.14815
som	-9.1482
▁användare	-9.14883
jor	-9.15019
▁leva	-9.1511
▁Dessutom	-9.15145
▁bäst	-9.15152
▁bygga	-9.15198
▁ålder	-9.15233
▁ställe	-9.15241
▁dålig	-9.15324
jäl	-9.15329
dda	-9.1534
▁prata	-9.15456
bud	-9.15462
ordning	-9.15479
plats	-9.15662
▁gen	-9.15719
▁El	-9.15783
▁vetenskap	-9.15784
▁bu	-9.15896
▁mamma	-9.15905
▁kontrollera	-9.15917
▁rapport	-9.1601
▁w	-9.16175
▁fortsätta	-9.16273
▁ski	-9.16379
kraft	-9.16414
▁villkor	-9.16467
▁makt	-9.16532
andet	-9.16606
▁Fr	-9.16625
▁rad	-9.16643
▁extra	-9.1674
▁områden	-9.16776
▁framför	-9.16778
▁ute	-9.16993
▁sida	-9.17033
lock	-9.17117
▁Kina	-9.17144
▁håll	-9.17211
▁Varj	-9.1725
gift	-9.17261
▁fortsätter	-9.1731
▁sjukdom	-9.17391
låt	-9.17477
ox	-9.1758
Q	-9.17612
nner	-9.17647
kol	-9.17706
medel	-9.17725
▁skol	-9.17765
▁kost	-9.17819
▁ville	-9.17843
+	-9.17937
▁ihåg	-9.17939
▁snart	-9.18046
tru	-9.18146
▁by	-9.1831
▁Pri	-9.18335
▁lista	-9.18343
50	-9.18394
delar	-9.18419
▁Gu	-9.1859
▁kväll	-9.1896
▁va	-9.19015
▁social	-9.19087
▁förklara	-9.19093
vänd	-9.19104
▁kalla	-9.19162
▁vecka	-9.19289
▁Från	-9.1931
stan	-9.1934
▁främst	-9.19416
▁växt	-9.19417
▁partner	-9.19426
▁tra	-9.19463
▁dokument	-9.19488
kall	-9.19515
▁art	-9.19546
▁Google	-9.19629
▁skriver	-9.19643
▁tänker	-9.19643
eringar	-9.19789
▁period	-9.19871
▁orsak	-9.19981
▁djup	-9.20057
▁slutet	-9.20221
skydd	-9.20249
▁handel	-9.20263
reg	-9.20321
fl	-9.20343
▁nätverk	-9.20379
▁Där	-9.20392
▁vägen	-9.20425
▁amerikanska	-9.20465
▁bank	-9.20516
▁text	-9.20565
▁veckor	-9.206
ef	-9.20678
pro	-9.20699
▁telefon	-9.20702
samling	-9.20905
[	-9.20996
pen	-9.21017
▁el	-9.21037
syn	-9.21078
▁0	-9.21272
▁region	-9.21352
läng	-9.21467
▁kommissionen	-9.21577
▁läkare	-9.21652
▁gratis	-9.21677
▁fysisk	-9.21678
▁luft	-9.21787
ländsk	-9.21801
▁utför	-9.21863
▁glad	-9.219
(	-9.21988
▁morgon	-9.22014
göra	-9.22069
▁hittar	-9.22101
läge	-9.22128
▁Hi	-9.22198
mä	-9.22203
ive	-9.22325
▁Lu	-9.2248
▁hjärta	-9.22489
▁bas	-9.225
ity	-9.22525
▁starta	-9.22633
wa	-9.22642
▁kommit	-9.22665
råd	-9.22675
▁lyssna	-9.22773
hu	-9.22778
▁eget	-9.22834
▁Car	-9.2284
▁fyll	-9.22969
EG	-9.22972
gra	-9.23016
▁personlig	-9.23197
▁normal	-9.23434
▁lämplig	-9.23656
▁gammal	-9.23767
cy	-9.23926
▁Din	-9.24058
ub	-9.24082
lle	-9.24098
▁tagit	-9.24125
▁års	-9.24132
▁fördel	-9.24184
▁verktyg	-9.24295
▁hoppas	-9.24439
▁my	-9.24583
com	-9.24617
unt	-9.2484
▁orsaka	-9.24854
gan	-9.24894
▁föräldrar	-9.24917
▁Hu	-9.24963
vara	-9.24981
bord	-9.25
kort	-9.2501
▁standard	-9.25137
▁medel	-9.25151
gör	-9.25533
▁positiv	-9.25562
ial	-9.25572
▁Tack	-9.2574
▁intresse	-9.2583
och	-9.25904
▁organisation	-9.2592
▁enkla	-9.26044
▁slag	-9.2605
X	-9.26175
▁ra	-9.26412
▁delta	-9.26513
▁bakom	-9.26538
▁mor	-9.2656
▁sm	-9.26611
▁tio	-9.26659
▁väljer	-9.26706
gon	-9.26766
▁inne	-9.26932
skott	-9.27112
▁test	-9.27207
sel	-9.27266
lik	-9.27289
komst	-9.27391
istiska	-9.27498
▁Israel	-9.27505
▁typer	-9.27511
▁gav	-9.27647
▁framtiden	-9.2777
▁marknads	-9.27815
▁internationell	-9.27835
punkt	-9.27863
▁brott	-9.27867
▁stå	-9.27911
▁planera	-9.28187
kel	-9.28187
▁behövs	-9.28199
skriv	-9.28204
▁beroende	-9.28229
ph	-9.28287
▁ekonomiska	-9.28289
▁Su	-9.28641
▁bro	-9.2867
▁mät	-9.28677
▁vikt	-9.28737
ägare	-9.28808
▁so	-9.28853
▁version	-9.29018
arbete	-9.29126
▁egentligen	-9.29135
▁tillväxt	-9.29263
▁Europeiska	-9.29273
betalning	-9.29294
känd	-9.29386
män	-9.29417
▁lek	-9.29535
▁grad	-9.2966
▁central	-9.29682
tisk	-9.29734
▁försök	-9.29812
vo	-9.29822
▁ru	-9.30016
lor	-9.30017
▁hund	-9.30066
▁po	-9.30084
▁bak	-9.30141
▁tillstånd	-9.303
hä	-9.30354
▁All	-9.30355
▁fisk	-9.30475
▁lokal	-9.3062
▁Ge	-9.30641
▁op	-9.30642
▁vin	-9.30814
▁istället	-9.30816
▁åren	-9.30843
▁ly	-9.3089
▁gott	-9.30916
▁stanna	-9.31072
▁politik	-9.31132
▁Con	-9.31184
gående	-9.31265
▁behöva	-9.31268
lott	-9.31389
nade	-9.31577
▁äldre	-9.31628
▁fungera	-9.31651
▁bevis	-9.31674
▁området	-9.31738
▁tillverka	-9.31852
▁veckan	-9.31904
▁spara	-9.31909
ient	-9.31967
▁So	-9.32007
▁transport	-9.3202
▁webb	-9.32021
▁Mer	-9.32045
▁organ	-9.32047
spekt	-9.32065
▁låta	-9.32098
▁publicera	-9.3211
▁special	-9.32231
▁säkert	-9.32234
▁Tänk	-9.32353
▁finnas	-9.32376
▁producera	-9.32473
▁leda	-9.32571
▁klimat	-9.32595
▁*	-9.32657
▁överför	-9.32679
▁»	-9.32695
olog	-9.32773
▁Hel	-9.32842
▁Or	-9.32868
▁universitet	-9.32891
▁följer	-9.3299
väx	-9.33029
▁tryck	-9.33033
▁match	-9.3316
Y	-9.33235
▁gått	-9.334
lim	-9.33436
▁chans	-9.33453
▁Je	-9.33462
ppa	-9.33497
app	-9.33642
▁nationella	-9.33682
▁läkemedel	-9.33816
bri	-9.33867
▁anti	-9.33882
▁40	-9.33921
ellt	-9.3399
▁Idag	-9.34209
▁utgör	-9.34225
off	-9.34356
▁tillgängliga	-9.34362
▁leverera	-9.34369
▁favorit	-9.34433
▁Mu	-9.34466
tänk	-9.3458
▁lösning	-9.34608
▁effekt	-9.34687
▁kul	-9.34778
▁krig	-9.34919
▁trots	-9.34929
▁användar	-9.34973
fråga	-9.34989
▁Över	-9.35098
▁sälja	-9.35159
▁rädda	-9.35193
▁frågan	-9.3524
▁slå	-9.3537
▁förstår	-9.354
▁tillämpa	-9.35428
▁närheten	-9.35455
stig	-9.35524
▁världs	-9.35572
▁hud	-9.35643
▁goda	-9.3566
järn	-9.35743
▁ung	-9.35848
ance	-9.35976
▁försäljning	-9.36053
ram	-9.36057
▁skapar	-9.36079
▁lön	-9.36276
▁säkerställa	-9.36308
ct	-9.36314
konto	-9.36316
▁låter	-9.36383
▁Ko	-9.3639
stol	-9.36519
du	-9.36555
▁president	-9.36558
föd	-9.36703
▁hälso	-9.36779
▁van	-9.36779
▁avtal	-9.36816
▁mobil	-9.36834
tjänst	-9.36856
på	-9.36879
▁böcker	-9.36882
▁kostnad	-9.37118
▁personuppgifter	-9.37208
lopp	-9.37211
systemet	-9.37307
▁kring	-9.37577
bok	-9.37613
▁platser	-9.37614
▁frukt	-9.37758
▁Ny	-9.37788
▁svenska	-9.37793
▁Vilka	-9.37831
▁Par	-9.3805
▁samband	-9.38093
må	-9.38094
▁modell	-9.38115
▁detalj	-9.38127
▁fan	-9.38129
▁gift	-9.38207
▁Nästa	-9.38219
▁viktigaste	-9.38272
▁John	-9.38345
myndighet	-9.38427
▁tillfälle	-9.38472
▁igenom	-9.38546
▁post	-9.38554
▁område	-9.38636
▁känd	-9.38892
▁träd	-9.38904
▁app	-9.38914
of	-9.39202
▁bred	-9.3921
▁klart	-9.3923
▁förmåga	-9.39318
▁mörk	-9.39546
kl	-9.39582
▁medlemsstat	-9.3959
▁konto	-9.39611
arbeta	-9.39886
▁mil	-9.40024
▁24	-9.40037
samt	-9.40195
▁medlemmar	-9.40201
▁topp	-9.40217
▁förhållande	-9.40222
visning	-9.40245
▁Vissa	-9.4052
▁avsluta	-9.40531
▁tjänst	-9.40561
▁Mat	-9.40581
▁räkna	-9.40787
▁cirka	-9.40817
▁kommunikation	-9.40827
▁lokala	-9.40873
▁as	-9.40884
q	-9.40906
▁medlem	-9.40979
▁följd	-9.41149
▁hot	-9.41195
▁al	-9.41198
hör	-9.41497
▁människa	-9.41607
lade	-9.41656
▁exakt	-9.41663
▁personal	-9.41732
▁högsta	-9.41971
▁dröm	-9.41985
▁genomför	-9.42001
▁ifrån	-9.42033
▁livs	-9.42132
ledning	-9.42149
▁ekonomi	-9.42251
larna	-9.42282
▁parti	-9.42395
▁Fo	-9.424
▁Bra	-9.42432
befolkning	-9.42448
▁bry	-9.4259
▁samhället	-9.42689
▁försöka	-9.42758
ismen	-9.42778
▁patienter	-9.42951
eln	-9.42962
▁Kanske	-9.42972
▁princip	-9.43037
▁säkra	-9.43118
▁allvarlig	-9.43223
förfarande	-9.43293
let	-9.43295
ända	-9.43308
▁industri	-9.43407
▁identifiera	-9.43489
▁liknande	-9.43491
▁pass	-9.4352
▁kol	-9.43532
▁maj	-9.43539
aktion	-9.43547
▁mening	-9.43604
▁direktiv	-9.43649
kla	-9.43767
▁ho	-9.43832
▁fantastisk	-9.43849
▁tanke	-9.43895
▁byggnad	-9.44055
▁hållbar	-9.44063
▁påverkar	-9.44128
▁omkring	-9.44171
▁presentera	-9.44194
▁investera	-9.44305
▁kommun	-9.44356
▁nödvändigt	-9.44373
▁politiska	-9.44389
▁fort	-9.44501
che	-9.44551
▁Tro	-9.44553
▁känsla	-9.44579
skrift	-9.44704
▁studenter	-9.44715
▁känns	-9.44717
▁service	-9.44762
▁kände	-9.44855
EN	-9.44891
vik	-9.44904
▁skäl	-9.44984
▁grundläggande	-9.45127
▁ram	-9.45202
rop	-9.45276
▁kapital	-9.45324
▁undvika	-9.45374
▁Kr	-9.45475
ström	-9.45553
▁länk	-9.45566
ley	-9.4569
▁spår	-9.45714
▁allmänhet	-9.45848
sky	-9.45926
▁ungefär	-9.45956
▁mänskliga	-9.45957
▁serie	-9.46025
gjord	-9.46135
▁Ska	-9.46224
▁registrera	-9.46234
▁aktie	-9.46296
get	-9.46388
one	-9.46487
▁vanliga	-9.4652
▁stark	-9.46612
▁internet	-9.46663
vision	-9.46674
▁lov	-9.46674
lösa	-9.46677
▁Wa	-9.46705
▁skolan	-9.46783
▁vackra	-9.46793
99	-9.47008
200	-9.47008
▁möjligheter	-9.47021
▁underhåll	-9.47158
ER	-9.47172
dagen	-9.4727
my	-9.47272
▁samhälle	-9.47417
▁leder	-9.47462
▁År	-9.47473
▁oavsett	-9.47495
for	-9.47616
▁gärna	-9.47639
▁består	-9.47639
nor	-9.47737
tagare	-9.4775
▁sådant	-9.47892
▁sättet	-9.47896
▁Gör	-9.47951
▁minne	-9.48249
▁konsument	-9.48344
ött	-9.48387
▁stör	-9.48393
▁Am	-9.48479
▁närvarande	-9.48488
▁$	-9.48499
ifrån	-9.48505
▁Stor	-9.48777
▁lo	-9.48894
ske	-9.48894
▁skriv	-9.48922
▁polis	-9.48955
åk	-9.49147
▁Sc	-9.49165
▁svart	-9.49174
▁dollar	-9.49201
▁tri	-9.49229
▁Tre	-9.49275
ök	-9.49381
vers	-9.49392
vel	-9.49426
▁sjö	-9.4944
▁'	-9.49458
▁individ	-9.49487
▁acceptera	-9.49488
▁tillhör	-9.49513
▁Fl	-9.4959
▁antalet	-9.49686
pris	-9.49726
vit	-9.49744
▁fokusera	-9.49792
▁storlek	-9.49982
▁dis	-9.50053
–	-9.50076
▁rädd	-9.50342
▁2018	-9.50369
▁sjuk	-9.50451
▁ihop	-9.50482
▁hamn	-9.5067
▁Kommer	-9.50705
▁tydlig	-9.50709
▁Finland	-9.50814
▁Fi	-9.50825
dik	-9.50908
skog	-9.50925
▁betydelse	-9.50936
▁ljud	-9.50937
▁anges	-9.50972
lösning	-9.50974
▁överens	-9.51042
▁anta	-9.51044
▁ring	-9.51201
middag	-9.51245
skri	-9.51265
▁höra	-9.51639
tiden	-9.5164
▁anpassa	-9.51676
▁unga	-9.51735
▁offentlig	-9.51741
bin	-9.51778
▁bar	-9.51801
▁fortsatt	-9.51983
teknik	-9.52004
▁dans	-9.5208
▁boken	-9.52113
▁domstol	-9.52135
▁framgång	-9.52289
▁satt	-9.52318
ller	-9.52398
▁skrev	-9.52407
▁maskin	-9.52426
▁europeiska	-9.52588
▁söker	-9.52616
▁stället	-9.52743
ssystem	-9.52768
tjänster	-9.528
▁ton	-9.52839
▁våld	-9.52852
▁kurs	-9.52874
drar	-9.52916
▁ej	-9.52948
▁anställda	-9.52966
▁Windows	-9.52999
▁intressant	-9.52999
▁unionen	-9.53149
▁drabba	-9.53157
▁klar	-9.53169
▁grön	-9.53264
▁fly	-9.53285
▁bekväm	-9.53298
▁förändringar	-9.53299
istisk	-9.53377
▁högt	-9.5341
▁funktioner	-9.53422
▁start	-9.53428
▁sker	-9.53522
▁Spel	-9.53556
▁kar	-9.53596
▁speciellt	-9.53666
▁Lin	-9.53667
▁fordon	-9.53749
▁säsong	-9.53897
▁träning	-9.54012
ham	-9.54045
▁nr	-9.54151
▁sätta	-9.54164
▁främja	-9.54349
our	-9.54367
▁kris	-9.54402
gräns	-9.54439
▁2015	-9.5467
▁kung	-9.54702
▁regeringen	-9.54756
▁We	-9.551
▁nuvarande	-9.55107
▁son	-9.55122
teckna	-9.5513
lys	-9.55206
▁Eftersom	-9.55289
▁strategi	-9.55327
▁euro	-9.55382
▁York	-9.55412
▁engelska	-9.55414
▁liksom	-9.55431
▁ekonomisk	-9.55539
▁rörelse	-9.55542
▁dessutom	-9.55564
▁global	-9.55781
▁rekommendera	-9.55813
▁vinst	-9.55881
▁natt	-9.55927
▁21	-9.5593
▁professionell	-9.56023
▁förhindra	-9.56024
ink	-9.56208
30	-9.56277
▁snabb	-9.56286
▁häst	-9.56301
▁tjäna	-9.56346
kontroll	-9.56436
publ	-9.56697
▁studier	-9.5678
givare	-9.56927
avtal	-9.56936
period	-9.57065
▁alls	-9.57132
▁Finns	-9.57158
rör	-9.57212
▁Pol	-9.57241
▁Tra	-9.57356
▁stil	-9.57406
▁ensam	-9.57546
▁december	-9.57726
▁framgångsrik	-9.57727
▁talar	-9.57738
iserade	-9.57849
▁Storbritannien	-9.57882
▁militär	-9.57883
mmer	-9.57897
▁2016	-9.57897
▁60	-9.5791
värde	-9.5794
▁ingenting	-9.57954
▁trans	-9.57964
▁lösningar	-9.58133
▁chef	-9.58161
▁spelet	-9.58172
▁lugn	-9.58196
▁fred	-9.58211
räkning	-9.58212
▁af	-9.58257
hantering	-9.58263
▁vård	-9.58291
grip	-9.58366
▁hård	-9.58404
teckning	-9.58434
▁testa	-9.58472
▁bit	-9.58486
språk	-9.5849
området	-9.585
▁gäst	-9.58501
rad	-9.58503
▁2017	-9.58525
ografi	-9.58538
skatt	-9.58603
▁verklighet	-9.58612
ble	-9.58629
▁pe	-9.58679
▁Cha	-9.58702
▁ledande	-9.58741
part	-9.58741
▁200	-9.58793
▁Fil	-9.58807
▁kommentar	-9.58826
▁traditionell	-9.58833
▁livsmedel	-9.58839
▁kolla	-9.58955
▁juni	-9.58955
▁Facebook	-9.58983
▁Dag	-9.59017
▁inre	-9.59022
12	-9.59057
▁höga	-9.59079
▁Pre	-9.59104
minister	-9.59124
▁Ty	-9.59127
▁lägenhet	-9.59143
▁glöm	-9.59253
▁Barn	-9.5936
▁lösa	-9.59386
änder	-9.59393
serv	-9.59452
▁relevant	-9.59458
▁mars	-9.59612
▁varumärke	-9.59618
▁Er	-9.59655
▁dör	-9.59783
borg	-9.59805
▁jäm	-9.59819
▁Pi	-9.59856
▁negativ	-9.59936
struktur	-9.59937
sidan	-9.60006
▁Th	-9.60073
▁meddelande	-9.60247
▁studera	-9.60294
▁sök	-9.60319
▁upplevelse	-9.60327
▁prov	-9.60335
▁Tyskland	-9.60416
▁forsknings	-9.60467
▁läst	-9.60521
▁Ryssland	-9.60577
produkter	-9.60601
▁Park	-9.60606
▁ursprung	-9.60649
AR	-9.60653
▁Ru	-9.60666
?"	-9.60721
▁Stockholm	-9.60737
▁antingen	-9.60741
▁risker	-9.60851
▁restaurang	-9.60898
▁And	-9.60917
▁mus	-9.60927
▁visade	-9.6093
▁ökar	-9.60993
▁Fråga	-9.61063
▁Mark	-9.61082
hand	-9.61155
cc	-9.6127
?”	-9.61334
person	-9.61409
▁uppgift	-9.61454
områden	-9.61523
▁lilla	-9.61551
▁någonting	-9.61692
▁Andra	-9.61748
▁beror	-9.61765
▁stu	-9.61806
▁Liv	-9.61819
▁ingår	-9.61856
▁karriär	-9.6187
▁medicin	-9.61935
▁förändring	-9.61981
▁struktur	-9.62032
▁Ac	-9.62228
▁förslag	-9.62333
▁Ti	-9.62378
årig	-9.62396
▁rå	-9.6243
▁brist	-9.62438
▁motor	-9.62472
▁Vilken	-9.62524
▁visste	-9.62567
kul	-9.62668
▁absolut	-9.62687
handel	-9.62822
▁London	-9.62851
▁människan	-9.62857
▁författare	-9.62867
▁fullt	-9.62935
▁Ki	-9.63014
▁fullständig	-9.63016
vig	-9.63181
projekt	-9.6323
▁utforma	-9.63266
▁undersökning	-9.63273
▁tecken	-9.63515
rådet	-9.63628
▁tjej	-9.63677
▁fokus	-9.63823
▁januari	-9.63842
▁nöjd	-9.63843
000	-9.6386
oo	-9.63911
▁TV	-9.63939
bra	-9.63987
▁Herren	-9.64011
fattning	-9.64023
▁rapportera	-9.64041
▁port	-9.64141
berg	-9.64175
▁utföra	-9.642
▁analys	-9.64207
▁dotter	-9.6421
▁allmän	-9.64319
▁familje	-9.64345
▁globala	-9.64439
uv	-9.64501
▁katt	-9.64712
▁anser	-9.64727
▁tekniska	-9.64884
hy	-9.65047
▁enheter	-9.6505
▁tillhandahåll	-9.65204
▁speciell	-9.6527
▁september	-9.65347
▁gemenskap	-9.65347
▁Internet	-9.65348
▁leta	-9.65349
*	-9.65429
klass	-9.65445
▁part	-9.65483
▁koppla	-9.65593
▁underbar	-9.65663
▁placera	-9.65686
bry	-9.65697
▁ansikte	-9.6576
▁anses	-9.65895
▁jul	-9.65926
▁förstör	-9.66027
▁visas	-9.66057
▁regering	-9.66096
baserade	-9.6618
▁extrem	-9.66193
▁modern	-9.66195
uc	-9.66292
▁utvecklingen	-9.66354
▁installera	-9.66363
länder	-9.66436
▁fru	-9.66469
alitet	-9.66473
▁framtid	-9.66503
▁Europaparlament	-9.66534
▁riktig	-9.66543
▁älska	-9.66558
▁medlemsstaterna	-9.66596
▁gud	-9.66612
11	-9.66677
▁gemensam	-9.6682
▁2014	-9.66893
▁starka	-9.66902
▁uppdrag	-9.66905
▁systemet	-9.6699
ix	-9.67034
▁vacker	-9.67049
lån	-9.67136
▁personliga	-9.6717
gre	-9.67212
▁obe	-9.67266
mod	-9.67291
▁ämne	-9.6749
▁städer	-9.67574
▁Ku	-9.67607
typ	-9.67693
färd	-9.67695
▁ras	-9.67712
▁Följ	-9.67729
­	-9.67734
▁värme	-9.67741
▁utmärkt	-9.67756
▁familjen	-9.67813
▁garantera	-9.67907
▁upptäckt	-9.67908
▁arbetet	-9.67914
▁stress	-9.67934
▁mån	-9.68053
▁officiell	-9.6808
▁lägre	-9.68081
▁intresserad	-9.68143
sson	-9.68209
▁Nord	-9.68331
▁Först	-9.68339
▁>	-9.68428
mässig	-9.6843
▁jobba	-9.68553
funktion	-9.68557
▁sidor	-9.68566
▁karaktär	-9.68601
▁Person	-9.68604
▁idé	-9.68617
▁gemensamma	-9.68657
▁Våra	-9.68705
▁ladda	-9.68813
▁ställa	-9.68858
▁generation	-9.68962
paket	-9.68963
▁längs	-9.68983
▁Bara	-9.6907
▁själ	-9.69113
▁avses	-9.69117
▁objekt	-9.69124
▁Några	-9.69125
▁avseende	-9.69126
▁fi	-9.69182
▁bio	-9.6923
▁namnet	-9.6924
▁inlägg	-9.6927
▁begär	-9.69359
▁Kor	-9.69361
▁barnet	-9.69452
▁klara	-9.69484
brott	-9.69511
lic	-9.69524
automat	-9.69563
▁Än	-9.69578
▁berättar	-9.69604
▁#	-9.69676
metod	-9.69737
▁berg	-9.6978
▁njuta	-9.69814
▁unik	-9.69826
15	-9.70028
▁drog	-9.70042
60	-9.70127
här	-9.70178
kä	-9.70188
▁skatte	-9.70257
▁Få	-9.70328
▁fånga	-9.70343
▁bekräfta	-9.70367
▁Val	-9.70389
▁reda	-9.70403
▁läs	-9.70547
pati	-9.70576
▁kontakta	-9.70609
▁—	-9.70668
▁uppdatera	-9.70714
▁tankar	-9.70717
IN	-9.70751
aktiv	-9.70775
ändring	-9.70872
▁Bri	-9.71061
▁känslor	-9.71247
▁miljarder	-9.71247
▁läge	-9.71323
▁utnyttja	-9.71352
ES	-9.71357
▁vanligt	-9.71364
▁term	-9.71377
oli	-9.71383
▁cancer	-9.71392
▁huset	-9.71403
▁team	-9.71407
▁Stat	-9.71504
IS	-9.71528
▁stolt	-9.71529
▁fatta	-9.71533
▁korrekt	-9.71605
▁berättelse	-9.71611
▁trodde	-9.71613
▁dyr	-9.7164
▁blå	-9.71708
nämnd	-9.71714
▁trygg	-9.71784
▁öppen	-9.71786
▁David	-9.71822
▁träna	-9.7186
fon	-9.7194
▁väst	-9.71945
▁webbplatsen	-9.71965
namn	-9.72084
▁genomföra	-9.72087
▁vanligtvis	-9.72197
gård	-9.72198
hal	-9.72218
▁önskar	-9.72234
▁Mal	-9.72306
▁tvinga	-9.7237
sälj	-9.72516
cykel	-9.72528
▁ledare	-9.7257
hav	-9.72688
ningarna	-9.7276
unk	-9.72785
konferens	-9.72869
▁Hoppas	-9.72869
väl	-9.72879
▁butik	-9.72899
skå	-9.7291
▁kända	-9.7304
köp	-9.73041
▁Ibland	-9.73051
▁2013	-9.73069
vård	-9.73085
politik	-9.73262
▁forskare	-9.73402
▁University	-9.73415
▁22	-9.73446
▁lägger	-9.73446
▁önska	-9.73516
▁linje	-9.73528
▁kallade	-9.73536
▁frihet	-9.73568
grepp	-9.73588
▁havet	-9.7359
▁annorlunda	-9.73597
▁metod	-9.73637
▁enkel	-9.73641
ford	-9.73692
▁specifika	-9.73714
▁kämpa	-9.73781
utveckling	-9.73812
»	-9.73812
▁bestämmelser	-9.7382
▁poäng	-9.73827
▁våg	-9.73903
▁lämnar	-9.73916
▁effektivt	-9.73948
▁trädgård	-9.73973
fu	-9.73981
givning	-9.73988
ction	-9.7399
▁Två	-9.74094
▁casino	-9.74149
▁Hotell	-9.74161
▁helg	-9.74298
▁psyk	-9.74331
▁Qu	-9.74351
▁(1	-9.74408
▁åka	-9.74441
▁kontor	-9.74463
▁position	-9.74472
oc	-9.74498
▁rök	-9.74511
▁oktober	-9.74517
▁spännande	-9.74517
▁beteende	-9.74517
▁budget	-9.74517
▁praktisk	-9.74521
▁organisationer	-9.74539
▁äter	-9.7462
investering	-9.7466
▁revolution	-9.74707
▁genomsnitt	-9.74782
▁kredit	-9.74877
▁kombinera	-9.74888
▁må	-9.74893
kostnad	-9.74934
lett	-9.74982
▁bidra	-9.74983
▁lärare	-9.75072
mal	-9.75141
▁Com	-9.75174
hem	-9.75198
lapp	-9.75427
▁trä	-9.75468
bygg	-9.75469
▁bilden	-9.75508
iz	-9.75516
graf	-9.75537
▁offentliga	-9.75538
fyll	-9.75542
kod	-9.7569
▁AB	-9.75746
▁Frankrike	-9.75818
övning	-9.7582
▁Företag	-9.75838
▁FN	-9.75925
▁använde	-9.75935
bor	-9.76005
▁tillämpning	-9.76005
▁Star	-9.76011
▁avsnitt	-9.76042
▁därmed	-9.76088
▁filmen	-9.76152
cu	-9.76158
▁Bro	-9.76191
chi	-9.76393
out	-9.76509
▁jord	-9.76514
▁park	-9.76556
▁jätte	-9.76569
▁kreativ	-9.76569
▁medier	-9.76654
▁metoder	-9.76751
▁press	-9.7678
▁pappa	-9.76787
▁Ph	-9.76876
▁avslöja	-9.76947
byrå	-9.76959
▁flygplats	-9.76976
cept	-9.76983
oni	-9.77045
▁Trots	-9.77096
kampanj	-9.77144
▁strid	-9.77162
▁undantag	-9.77181
säkerhet	-9.77224
industrin	-9.77351
▁2010	-9.77368
▁Sha	-9.77407
process	-9.77438
▁tidigt	-9.77514
▁marknadsföring	-9.77516
▁Nya	-9.77539
▁massa	-9.77571
▁bygger	-9.77674
▁vanlig	-9.77701
▁inkluderar	-9.7772
▁oberoende	-9.7773
▁Gre	-9.77829
▁förvärv	-9.77898
▁ökad	-9.77978
▁heter	-9.78042
handla	-9.78061
▁handla	-9.78133
▁fantastiska	-9.78155
fic	-9.78176
mak	-9.78183
station	-9.78218
▁agera	-9.78278
▁Håll	-9.78281
▁förlust	-9.78356
▁finansiella	-9.78421
åtgärd	-9.78437
▁levande	-9.78447
ou	-9.78506
problem	-9.78576
ned	-9.78605
▁Fin	-9.78609
▁uppskatta	-9.78719
ther	-9.78845
▁aktiviteter	-9.78869
▁smärta	-9.7894
press	-9.78958
ish	-9.79127
▁besöka	-9.79155
medlem	-9.79165
▁visat	-9.7921
NA	-9.79226
avgift	-9.7923
▁sekund	-9.79245
▁säng	-9.79306
▁omfattande	-9.79438
▁sport	-9.79534
▁hjärtat	-9.79579
present	-9.79673
▁km	-9.79716
AN	-9.79761
▁kyrkan	-9.79813
▁annons	-9.79826
▁lycklig	-9.7983
▁egenskaper	-9.80032
län	-9.80032
▁smak	-9.80051
▁populära	-9.80058
▁glas	-9.80058
▁ange	-9.80151
▁diskutera	-9.80217
▁relation	-9.80312
65	-9.80353
19	-9.80421
OS	-9.80427
▁snabbare	-9.8051
▁bön	-9.80559
▁meter	-9.8056
▁häng	-9.80586
▁tips	-9.80614
▁skuld	-9.80622
▁stund	-9.80633
▁lagstiftning	-9.80717
▁Apple	-9.80805
snitt	-9.80823
▁enbart	-9.80866
▁nedan	-9.80958
▁kategori	-9.81116
organisation	-9.81144
▁innovation	-9.81396
▁skr	-9.81422
▁jobbet	-9.81477
▁Enlig	-9.81516
▁patient	-9.81591
▁höll	-9.8164
▁bad	-9.81655
löst	-9.81752
▁medicinsk	-9.81787
▁institution	-9.81793
▁kläder	-9.8201
▁Vet	-9.82064
▁webbplatser	-9.82109
▁kombination	-9.82191
▁använt	-9.82254
▁fas	-9.82297
miljö	-9.82353
▁svår	-9.82362
ual	-9.82386
▁inspirera	-9.8239
kamera	-9.82454
▁Del	-9.82513
▁pol	-9.82581
institut	-9.8259
▁spendera	-9.82593
▁stabil	-9.82594
▁regel	-9.82699
▁hemsida	-9.82849
▁Gå	-9.82873
US	-9.82908
▁Air	-9.8296
▁brukar	-9.83034
▁elever	-9.83048
▁Dom	-9.8307
▁bidrag	-9.83088
komma	-9.83149
▁vuxna	-9.83193
▁2012	-9.8322
träff	-9.83298
▁tyst	-9.83308
▁digital	-9.83326
sökning	-9.83375
▁jämfört	-9.83396
▁röd	-9.83465
▁trafik	-9.83477
▁hjärt	-9.83563
▁utom	-9.83566
▁åtminstone	-9.83596
▁scen	-9.83648
▁vitt	-9.83681
▁synd	-9.83683
▁kommande	-9.83723
▁alkohol	-9.83799
▁otrolig	-9.83809
vikt	-9.83899
▁ämnen	-9.83911
▁:)	-9.83975
▁Gi	-9.84032
▁klä	-9.84046
▁söka	-9.84078
▁omedelbart	-9.84131
▁tillhandahålla	-9.84174
▁meddela	-9.84343
▁sinne	-9.84372
▁nyligen	-9.84457
zz	-9.84522
▁verkliga	-9.84604
▁religion	-9.84613
▁Fram	-9.84637
▁särskilda	-9.84671
▁svåra	-9.84719
▁folket	-9.84732
▁bilda	-9.84793
▁variera	-9.848
kurs	-9.84957
▁skil	-9.84964
▁rese	-9.85024
▁strand	-9.8507
▁föremål	-9.85336
▁nämligen	-9.85433
▁integrera	-9.85449
▁moderna	-9.85457
▁Just	-9.85482
▁växa	-9.85593
▁stödja	-9.85623
roll	-9.85633
▁mjuk	-9.85643
▁kärn	-9.85651
▁sann	-9.85653
▁växer	-9.85668
▁framtida	-9.85693
▁köra	-9.85704
▁planet	-9.85804
▁fotograf	-9.85879
lycka	-9.85909
▁smart	-9.8592
▁Mac	-9.85937
▁natten	-9.85965
13	-9.86037
▁potentiell	-9.86053
kapacitet	-9.86053
▁guld	-9.86059
▁2011	-9.86079
förvaltning	-9.86099
specifik	-9.86128
▁motstånd	-9.86176
▁Pu	-9.86238
▁övriga	-9.8626
▁hände	-9.8626
▁huvudsak	-9.86263
▁fot	-9.86265
▁ansvarig	-9.86332
▁svag	-9.86339
▁ändamål	-9.86469
▁kaffe	-9.86473
▁allmänna	-9.86489
▁fira	-9.86527
▁känt	-9.86538
▁programmet	-9.86589
expert	-9.8661
▁äga	-9.86673
▁förbjud	-9.86677
▁hämta	-9.8668
▁ständigt	-9.86731
▁My	-9.86824
▁utrymme	-9.86856
▁Fler	-9.86869
▁aktuell	-9.86885
infektion	-9.86886
▁kamp	-9.8689
▁effektiv	-9.8689
djur	-9.86988
▁Paul	-9.8711
▁köper	-9.87141
dge	-9.87149
▁90	-9.87182
▁Col	-9.87196
ET	-9.87217
▁23	-9.87268
ansk	-9.87499
▁nord	-9.87643
▁foto	-9.87684
▁november	-9.87725
▁Någon	-9.87725
▁april	-9.87725
hastighet	-9.87792
▁tjänste	-9.87804
▁enorm	-9.87806
baserad	-9.88019
▁kostnader	-9.88058
▁Samma	-9.88064
▁70	-9.8811
▁artiklar	-9.88148
▁sexuell	-9.8815
▁befinn	-9.88163
▁möjliga	-9.88198
teknologi	-9.88359
14	-9.88361
▁myndigheter	-9.8846
▁band	-9.88481
chef	-9.88544
▁semester	-9.88571
faktor	-9.88748
▁plattform	-9.88781
▁kap	-9.88813
▁beräkna	-9.88816
▁juli	-9.88833
▁bedöm	-9.88833
▁tänkte	-9.88898
▁nummer	-9.88993
▁fotboll	-9.88997
▁ledning	-9.88998
AT	-9.89043
▁utrustning	-9.89061
▁resten	-9.89155
▁förutsättning	-9.89215
ifier	-9.89261
▁färdig	-9.89269
verksamhet	-9.89305
▁80	-9.89315
▁kallar	-9.89335
känslig	-9.89409
▁politisk	-9.89431
▁bröd	-9.89435
EU	-9.89621
policy	-9.89646
▁idéer	-9.89647
▁effekter	-9.89691
skaffa	-9.89806
bell	-9.89837
▁vardag	-9.89887
▁fallet	-9.89895
▁starkt	-9.89909
▁resurser	-9.89954
ident	-9.90014
▁centrum	-9.90071
▁omfattar	-9.90081
biljett	-9.90139
▁leverans	-9.90204
▁konstnär	-9.90288
▁vapen	-9.90315
källor	-9.90377
▁kön	-9.9039
▁förståelse	-9.90395
▁gett	-9.90428
▁definiera	-9.90503
▁uppleva	-9.90521
line	-9.90717
▁framåt	-9.90723
40	-9.90737
▁Känn	-9.90743
▁lättare	-9.90754
18	-9.90783
▁styrelse	-9.90796
▁Chi	-9.90834
▁släppt	-9.90945
▁Första	-9.90958
▁Uni	-9.90975
linje	-9.9118
▁rekommenderar	-9.91235
stod	-9.91315
17	-9.91318
▁terror	-9.91375
▁händelse	-9.91411
▁hända	-9.91422
uppgifter	-9.91443
▁kök	-9.91474
relaterade	-9.91504
grad	-9.91557
▁27	-9.91635
▁bin	-9.91644
hop	-9.91704
▁Trump	-9.91812
▁naturliga	-9.91872
▁historien	-9.91929
▁frågade	-9.92003
äkta	-9.92018
▁Samtidigt	-9.92031
▁nyckel	-9.92034
behandling	-9.92043
▁medveten	-9.92065
▁Slut	-9.92076
▁passar	-9.92149
▁båt	-9.9217
▁försäkring	-9.92175
▁sömn	-9.92251
▁uppmuntra	-9.92251
zon	-9.92276
95	-9.92364
▁betydande	-9.92472
▁jordbruk	-9.92487
▁super	-9.92557
▁Microsoft	-9.92693
▁komplex	-9.92693
▁multi	-9.92695
▁2019	-9.92718
▁stäm	-9.92724
nummer	-9.9282
▁kompetens	-9.92915
▁beröm	-9.9293
80	-9.92944
▁Nej	-9.92957
pol	-9.93099
▁vinter	-9.93145
▁närmare	-9.9315
way	-9.9316
samhet	-9.93205
▁500	-9.93305
▁snö	-9.9333
▁stoppa	-9.93354
▁glädje	-9.9336
▁publik	-9.93362
▁klicka	-9.93376
▁samtal	-9.93408
examen	-9.9347
▁projektet	-9.93513
▁tydligt	-9.93537
▁mikro	-9.93585
möte	-9.93595
▁hittade	-9.93664
information	-9.93715
sänd	-9.93792
▁betrakta	-9.93808
kommitté	-9.93829
▁Välj	-9.9388
▁läser	-9.93884
ux	-9.93909
▁Sol	-9.94021
▁straff	-9.94042
▁oftast	-9.94081
▁löp	-9.94107
▁äger	-9.94141
▁mannen	-9.94182
flöde	-9.94197
▁stod	-9.94205
▁norr	-9.94213
För	-9.94268
▁timme	-9.94296
▁vidta	-9.94478
▁hänsyn	-9.94481
▁lagra	-9.9451
▁tillägg	-9.94521
band	-9.94614
▁bevara	-9.94655
▁sanningen	-9.94667
▁upptäcka	-9.94707
▁möta	-9.94713
pass	-9.94794
▁aktivitet	-9.94805
▁skapade	-9.94827
▁bransch	-9.9487
▁avgörande	-9.9494
mitt	-9.94995
▁problemet	-9.95031
▁behålla	-9.95049
meddelande	-9.95085
▁Skull	-9.95089
▁tävling	-9.9516
▁hindra	-9.95167
▁28	-9.95189
▁Nor	-9.95238
▁Wal	-9.95248
▁klubb	-9.95295
signal	-9.95298
röv	-9.95299
vänt	-9.95342
▁priset	-9.95347
vänlig	-9.95398
▁2008	-9.95445
bör	-9.95495
▁exempelvis	-9.95665
▁Svar	-9.9568
▁tung	-9.95736
▁unika	-9.95849
▁Hög	-9.95855
▁Japan	-9.95856
▁You	-9.95902
bak	-9.95953
▁vänster	-9.96043
▁utöva	-9.96105
▁Paris	-9.96222
säkra	-9.9625
▁effektiva	-9.96264
▁fett	-9.96281
▁välkomna	-9.96303
▁bonus	-9.96307
16	-9.9634
▁Tim	-9.96424
▁skärm	-9.96442
▁hävda	-9.96532
▁Mitt	-9.96588
område	-9.96702
material	-9.96711
vetenskap	-9.96711
▁händelser	-9.96735
referens	-9.96764
▁uppmärksamhet	-9.96804
▁bidrar	-9.96884
▁nation	-9.96938
▁märke	-9.96992
▁kristna	-9.97001
▁Lär	-9.97085
hot	-9.97108
▁regn	-9.97165
ward	-9.97239
▁sjukhus	-9.97244
▁väntar	-9.97251
▁arm	-9.97275
▁lyft	-9.9729
▁brittisk	-9.97457
programmet	-9.97483
▁resultatet	-9.97503
▁född	-9.97644
▁ögonblick	-9.97689
▁bakgrund	-9.97695
▁naturligtvis	-9.97728
▁inträffa	-9.97768
▁reaktion	-9.97813
produktion	-9.97911
▁dog	-9.97917
▁trött	-9.97923
75	-9.97926
▁pension	-9.97927
▁saknar	-9.98029
hål	-9.98092
▁etablera	-9.98155
▁eventuella	-9.98189
▁kär	-9.98246
▁bedömning	-9.98306
▁elektronisk	-9.98407
läpp	-9.98429
▁såväl	-9.98457
▁intressen	-9.98462
▁fält	-9.98485
▁svarade	-9.98501
▁medborgare	-9.98626
▁anmäl	-9.98633
kast	-9.98656
▁källa	-9.9879
▁faktum	-9.9886
▁sträva	-9.9886
▁vakna	-9.9887
▁uppfylla	-9.9888
▁2009	-9.98975
veck	-9.98989
▁kommersiell	-9.99057
▁behövde	-9.99096
▁förmodligen	-9.99096
▁dricka	-9.991
▁intervju	-9.99332
▁representera	-9.99335
▁rygg	-9.99336
modell	-9.99354
▁digitala	-9.9942
The	-9.9943
▁oför	-9.99462
▁höjd	-9.99498
▁Fast	-9.99512
▁civil	-9.99569
▁befintlig	-9.99569
▁licens	-9.99573
▁utsikt	-9.99711
▁roman	-9.99712
▁fjärde	-9.99806
▁pratar	-9.99817
figur	-9.99835
iella	-10.0001
▁drift	-10.0005
bank	-10.0008
▁tillåter	-10.0009
▁Van	-10.002
▁eld	-10.0042
▁inkomst	-10.0049
▁vattnet	-10.0052
▁datum	-10.0053
aktig	-10.0069
flu	-10.0073
vill	-10.0081
knapp	-10.0088
kin	-10.0088
ledare	-10.0092
▁sång	-10.0097
▁sjukdomar	-10.0104
▁fastställa	-10.0106
▁uppmana	-10.0121
▁International	-10.0124
▁historiska	-10.0126
märke	-10.0129
▁kasta	-10.0135
▁ursprungliga	-10.0138
▁nödvändiga	-10.0148
▁utforska	-10.0149
▁batteri	-10.0149
vatten	-10.0153
▁samtliga	-10.0162
▁Program	-10.0173
▁roligt	-10.0173
▁lansera	-10.0174
▁temperatur	-10.0189
organ	-10.0194
▁nationell	-10.0196
▁symbol	-10.0197
▁äventyr	-10.0198
▁Amerika	-10.0198
▁investeringar	-10.0202
25	-10.0211
▁Vilket	-10.0221
▁trevlig	-10.0224
▁försiktig	-10.0242
▁Tid	-10.0244
▁ordförande	-10.0246
▁26	-10.025
▁tom	-10.0256
▁skjut	-10.0271
▁ersätta	-10.0273
▁tillverkning	-10.0275
ifiering	-10.0285
film	-10.029
bibliotek	-10.0295
▁amerikansk	-10.03
▁misstag	-10.0307
▁prova	-10.0308
▁relationer	-10.0308
▁sub	-10.0312
▁besökare	-10.0316
▁hjärn	-10.0317
▁kraftfull	-10.0324
▁åsikt	-10.0325
▁tåg	-10.0326
park	-10.0329
räd	-10.0337
▁brev	-10.0344
▁Pat	-10.0347
RA	-10.0348
▁baserat	-10.0349
issa	-10.035
pel	-10.0367
▁juridisk	-10.0369
▁automatiskt	-10.0369
▁långsiktig	-10.0369
▁handlingar	-10.0375
▁instrument	-10.0381
▁allra	-10.0386
▁sträck	-10.0394
▁behöriga	-10.0418
▁avancerad	-10.0422
▁existera	-10.0422
▁öst	-10.0442
▁perspektiv	-10.0443
▁uttalande	-10.0444
position	-10.045
98	-10.0454
▁Hol	-10.046
▁Mycket	-10.0468
▁dubbel	-10.047
▁älskade	-10.0475
▁enskilda	-10.0475
byggnad	-10.0478
▁populär	-10.0488
▁rikta	-10.0489
▁inställning	-10.0489
▁februari	-10.0493
▁hälften	-10.0493
▁fängelse	-10.0493
▁hänt	-10.0496
▁åtta	-10.0497
▁faktorer	-10.05
▁grå	-10.0511
▁snabba	-10.0516
▁informera	-10.052
▁parter	-10.0536
▁massor	-10.054
▁samarbeta	-10.0546
▁bolaget	-10.0547
▁ägg	-10.0549
kväll	-10.0552
▁organisera	-10.0558
▁tjänar	-10.0564
▁konflikt	-10.0568
mark	-10.059
▁konkurrens	-10.0593
▁Oavsett	-10.0594
▁individuell	-10.0594
▁=	-10.0601
▁recept	-10.0603
▁fiende	-10.0604
▁konvention	-10.0606
▁kyl	-10.0614
sektorn	-10.0619
▁Förutom	-10.0644
▁tvätt	-10.0645
▁överallt	-10.0646
liggande	-10.0654
rapport	-10.0655
▁utmaningar	-10.0663
▁Blo	-10.0666
▁World	-10.067
▁höj	-10.0674
▁föreslå	-10.0695
▁Hem	-10.0696
▁nätet	-10.0697
▁kött	-10.0707
▁äktenskap	-10.0721
uppdatering	-10.0726
▁Rom	-10.0736
▁Ord	-10.074
▁separat	-10.074
▁arkitekt	-10.0746
▁öppet	-10.0747
▁engagera	-10.0747
effektiv	-10.0753
▁avsedd	-10.0754
▁tema	-10.0756
▁övertyga	-10.0768
70	-10.0768
que	-10.0775
▁server	-10.0798
▁innovativ	-10.0798
▁regelbundet	-10.0798
▁kinesisk	-10.0798
LL	-10.0819
▁herr	-10.0827
▁syfta	-10.0829
▁Fri	-10.0831
▁Verk	-10.0836
▁styrka	-10.0837
▁finansiering	-10.0839
givande	-10.0843
▁sköt	-10.0848
▁diagnos	-10.085
▁National	-10.085
resa	-10.0869
▁skär	-10.0873
▁Italien	-10.0876
▁Medan	-10.0881
▁hit	-10.0885
▁sant	-10.0888
▁bränsle	-10.0902
▁Jord	-10.0904
slaget	-10.0912
klipp	-10.0942
hel	-10.0946
▁bestämma	-10.0954
▁funnit	-10.0954
▁reklam	-10.0954
▁köpte	-10.0979
▁omständigheter	-10.098
▁erkänna	-10.098
▁mass	-10.0994
▁jobbar	-10.0999
▁Tur	-10.0999
▁leg	-10.1005
▁Utan	-10.1012
▁rest	-10.1022
▁papper	-10.1033
▁upprepa	-10.1035
▁söt	-10.1038
▁byta	-10.1042
motor	-10.1043
▁(19	-10.1044
▁Spanien	-10.1059
hin	-10.1069
världen	-10.1075
▁tradition	-10.1084
▁[...]	-10.1086
▁Center	-10.1089
lämna	-10.1096
Å	-10.1102
▁teori	-10.1119
åring	-10.1126
_	-10.1139
serie	-10.1145
▁svensk	-10.1148
▁ersättning	-10.1149
▁berörda	-10.115
▁inkludera	-10.1164
▁tillfällig	-10.1166
▁snarare	-10.1166
▁skyldighet	-10.1179
▁teknisk	-10.1186
burg	-10.1189
▁Människor	-10.1193
▁franska	-10.1199
▁finans	-10.1201
▁utmaning	-10.1202
▁ökning	-10.123
▁buss	-10.1233
▁tidpunkt	-10.1237
▁transaktion	-10.1248
▁turist	-10.1259
▁valuta	-10.1277
▁Bli	-10.1278
lement	-10.1283
▁skador	-10.1286
▁Jack	-10.1286
▁Hotel	-10.1299
▁kräva	-10.1304
döme	-10.1306
▁förhållanden	-10.1313
▁underlätta	-10.1328
bro	-10.1332
eriet	-10.1334
▁2020	-10.1338
studie	-10.1351
▁album	-10.1355
▁uppfyller	-10.1355
▁Själv	-10.1356
▁äntligen	-10.1356
spelare	-10.1359
▁sänk	-10.1359
▁verklig	-10.1399
▁31	-10.1401
▁you	-10.1406
▁förtroende	-10.141
▁England	-10.141
▁rymd	-10.141
▁islam	-10.141
▁gällande	-10.1415
▁Mål	-10.1424
box	-10.1429
▁alltför	-10.145
▁genomförande	-10.1454
▁begäran	-10.1458
▁färdigheter	-10.1465
▁hundar	-10.1467
▁sannolikt	-10.1492
▁Hitta	-10.1498
96	-10.1508
▁koll	-10.1519
<	-10.152
▁medarbetare	-10.152
▁vore	-10.1522
▁yta	-10.1533
TI	-10.1536
gick	-10.1547
▁fundera	-10.155
▁Sök	-10.156
▁kriget	-10.1565
märkt	-10.1565
villkor	-10.1574
▁prestanda	-10.1576
▁ansökan	-10.158
▁lita	-10.1581
▁radio	-10.1584
stift	-10.1588
▁respekt	-10.1589
maskin	-10.1601
▁emellertid	-10.1604
®	-10.1604
▁sägs	-10.1606
▁Kristus	-10.1632
▁bröllop	-10.1632
▁WEB	-10.1632
▁alldeles	-10.1632
▁grann	-10.1638
OR	-10.1659
koppling	-10.166
▁uppstår	-10.1661
▁omfattas	-10.1664
▁‘	-10.1665
lista	-10.1665
▁export	-10.1665
▁tand	-10.1683
▁promenad	-10.1688
▁tillämplig	-10.1688
▁nyheter	-10.1698
▁motiv	-10.1709
erbjudande	-10.171
▁roliga	-10.1711
männen	-10.1714
▁resultera	-10.1716
▁budskap	-10.1716
fog	-10.1726
▁föddes	-10.1726
▁sanning	-10.1734
krig	-10.1735
städer	-10.1743
▁belopp	-10.1744
▁national	-10.1744
▁augusti	-10.1745
▁kandidat	-10.1745
▁hundra	-10.1747
▁disk	-10.1752
▁slutlig	-10.1767
▁höst	-10.1773
▁programvara	-10.1779
▁ändringar	-10.1782
▁City	-10.1795
Ö	-10.1801
&	-10.1801
▁Australien	-10.1801
▁användbar	-10.1802
▁titel	-10.1803
▁Euro	-10.1817
▁Åter	-10.183
▁samhälls	-10.183
▁guide	-10.183
▁ryska	-10.1831
low	-10.1842
▁begrepp	-10.1849
>	-10.1859
▁självständig	-10.1859
▁skrivit	-10.1881
▁idrott	-10.1887
▁nej	-10.189
▁skönhet	-10.1911
▁Mag	-10.1913
▁Peter	-10.193
▁skön	-10.194
▁definitivt	-10.1945
▁respektive	-10.1946
▁2000	-10.195
tillverkare	-10.1954
▁hjärnan	-10.1955
kommer	-10.196
itation	-10.1962
▁samtycke	-10.1974
▁import	-10.1976
utbildning	-10.1976
▁Behöver	-10.2003
▁utsläpp	-10.2004
▁Folk	-10.2004
▁Innan	-10.2007
▁kust	-10.2009
▁notera	-10.2022
Ã	-10.2032
▁frisk	-10.2034
▁Tom	-10.2058
▁Island	-10.2065
affär	-10.2065
▁utfärda	-10.2071
▁etc	-10.2074
▁bevilja	-10.2091
▁flykting	-10.2091
frågor	-10.2094
▁möjliggör	-10.2113
▁undan	-10.2119
▁evenemang	-10.212
▁förebygga	-10.2127
amerikan	-10.2145
▁Kommissionen	-10.215
▁bestämd	-10.2179
▁himlen	-10.2179
▁därefter	-10.2179
▁Indien	-10.218
▁2007	-10.2188
▁skyldig	-10.2194
▁myndigheterna	-10.2199
▁analysera	-10.2202
▁uppfattning	-10.2209
▁skratta	-10.221
▁utifrån	-10.2214
golv	-10.2222
▁System	-10.2239
▁praktik	-10.2239
▁någonstans	-10.224
▁övervaka	-10.227
sjukdom	-10.2277
▁hälsosam	-10.2284
▁tilldela	-10.2298
▁släkt	-10.2299
▁forskar	-10.2305
▁anslutning	-10.2306
▁utbilda	-10.231
▁brand	-10.2324
▁utseende	-10.2329
▁klinisk	-10.2331
▁identitet	-10.2359
slutning	-10.2364
48	-10.2381
▁Resultat	-10.2389
▁kvinnlig	-10.2389
▁29	-10.24
▁betalnings	-10.2407
mission	-10.2407
▁tänkt	-10.2411
värm	-10.2414
▁framsteg	-10.242
▁Mil	-10.2428
▁riktning	-10.2429
kultur	-10.2433
▁vind	-10.2433
RI	-10.2441
▁Båda	-10.245
▁flicka	-10.2451
▁trend	-10.2454
▁naturligt	-10.247
▁iPhone	-10.248
▁Group	-10.248
▁parlament	-10.248
▁Börja	-10.2511
▁strategisk	-10.2513
▁tappa	-10.2532
vagn	-10.2542
▁rimlig	-10.2542
▁snäll	-10.2542
▁Köp	-10.2542
regler	-10.2554
kemi	-10.2556
frihet	-10.2558
▁Black	-10.2573
▁förklaring	-10.2573
▁säljer	-10.2575
▁effektivitet	-10.2577
branschen	-10.2581
försäkring	-10.2583
effekt	-10.2587
▁bröst	-10.2603
▁Inget	-10.2614
prov	-10.2614
▁hemlighet	-10.2624
▁försökte	-10.2627
komponenter	-10.2634
lov	-10.2634
▁Afrika	-10.2635
ON	-10.2637
▁dyk	-10.2649
play	-10.2658
▁Produkt	-10.2665
▁fönster	-10.2665
▁general	-10.2666
kedja	-10.2667
▁konstatera	-10.2667
▁reserv	-10.2681
▁Skapa	-10.2711
▁moral	-10.2716
▁utbud	-10.2716
barhet	-10.2717
▁Något	-10.2728
▁bryta	-10.273
stjärna	-10.2747
▁snygg	-10.2759
▁synnerhet	-10.2759
▁kommunicera	-10.2759
▁tacksam	-10.2768
▁berör	-10.2779
▁kille	-10.2782
▁Miss	-10.2786
▁undervisning	-10.279
▁kasino	-10.2791
vitamin	-10.2804
▁rädsla	-10.2822
▁dryck	-10.2822
▁mörda	-10.2822
▁Endast	-10.2823
▁förvåna	-10.2833
▁nödvändig	-10.2838
▁försvara	-10.284
▁Dock	-10.2848
▁tusentals	-10.2854
byte	-10.2858
▁upphör	-10.2861
front	-10.2864
▁extern	-10.2868
strategi	-10.2869
▁skull	-10.2879
▁stärka	-10.2885
▁rött	-10.2893
▁2006	-10.2895
▁boende	-10.2896
▁egendom	-10.29
▁utmana	-10.29
förmåga	-10.2901
verktyg	-10.2914
▁klaga	-10.2914
▁diskussion	-10.2917
▁engagemang	-10.2917
▁däremot	-10.2917
▁omöjligt	-10.2917
▁felaktig	-10.292
plikt	-10.2946
▁söndag	-10.2949
▁beskriver	-10.2949
terapi	-10.2955
▁Trans	-10.296
resultat	-10.2966
37	-10.2972
sprocessen	-10.2977
▁väsentlig	-10.2981
▁tyckte	-10.2981
▁förmån	-10.2984
▁offer	-10.2987
▁drömmar	-10.299
skrivning	-10.2993
▁överväga	-10.3005
▁installation	-10.3013
▁närvaro	-10.3017
läsning	-10.3021
▁passion	-10.3022
▁möjlig	-10.3032
stöd	-10.3038
▁elektro	-10.3043
▁Twitter	-10.3046
▁lunch	-10.3046
▁moln	-10.3047
▁Saker	-10.3061
▁experter	-10.3061
▁skadlig	-10.3065
▁sova	-10.3076
▁hittills	-10.3078
▁skiljer	-10.3078
▁släppa	-10.3078
▁annars	-10.3079
▁Maria	-10.3085
▁plast	-10.3085
▁helhet	-10.3086
▁sökande	-10.3086
upplevelse	-10.3097
konstruktion	-10.311
vandring	-10.3112
fält	-10.313
ekonomi	-10.313
trafik	-10.313
▁öga	-10.3138
▁konsekvenser	-10.3143
OM	-10.3147
▁2004	-10.3154
▁Kund	-10.3168
▁bekämpa	-10.3176
▁Precis	-10.3176
▁upplever	-10.3177
▁undersöka	-10.3182
▁särskild	-10.3199
katastrof	-10.3208
▁tunn	-10.3211
▁graviditet	-10.3212
▁torr	-10.3229
▁Business	-10.3241
▁frukost	-10.3241
▁rit	-10.3258
▁begå	-10.3263
▁locka	-10.3284
▁flod	-10.3285
▁andel	-10.3289
▁miljon	-10.3307
▁Rätt	-10.3308
▁förutom	-10.3309
▁respektera	-10.331
▁njut	-10.331
▁bilaga	-10.3311
▁värdefull	-10.3313
▁senast	-10.3331
▁väder	-10.3337
▁bestämmer	-10.3341
▁symptom	-10.3341
▁symtom	-10.3341
producent	-10.3341
laddning	-10.3341
▁majoritet	-10.3374
blad	-10.3381
▁växande	-10.3388
▁Konst	-10.3395
kvalitet	-10.3398
frekvens	-10.3407
▁sammanhang	-10.3407
▁profet	-10.3408
▁reagera	-10.3408
▁sjukvård	-10.3409
Måste	-10.3409
▁överleva	-10.341
innan	-10.3416
▁passera	-10.3425
▁bränn	-10.3432
förändringar	-10.3433
märkning	-10.3442
▁grundades	-10.3445
▁judar	-10.3461
▁tillräcklig	-10.3467
«	-10.3475
▁tvungen	-10.3475
▁ungdomar	-10.3475
▁gro	-10.3477
▁finner	-10.3484
grund	-10.3501
▁förbereda	-10.3509
dimension	-10.3509
▁utvärdera	-10.351
sjuk	-10.3519
▁Inga	-10.3534
▁eventuell	-10.3537
▁West	-10.3539
▁Service	-10.3542
▁sovrum	-10.3542
▁Tidigare	-10.3542
▁statistik	-10.3542
▁doktor	-10.3542
▁hållbarhet	-10.3546
kropp	-10.3548
▁falsk	-10.3551
39	-10.3562
▁Visst	-10.3575
▁åldra	-10.3577
▁Bästa	-10.3577
▁Super	-10.3583
älsk	-10.3584
▁2005	-10.3586
▁betydligt	-10.361
▁mångfald	-10.361
▁frivillig	-10.3611
▁metall	-10.3611
▁dörren	-10.3613
▁kritisk	-10.3614
▁upprätta	-10.3627
▁rekommendation	-10.3645
▁experiment	-10.3645
▁fakta	-10.3646
▁bostads	-10.3647
▁åker	-10.3658
▁deltagare	-10.3665
produkt	-10.3667
▁måltid	-10.3675
▁potential	-10.3679
▁självklart	-10.3679
▁Robert	-10.3679
▁olja	-10.3682
▁komplett	-10.3683
▁Bank	-10.3685
▁godkännande	-10.3693
▁protein	-10.3714
▁gravid	-10.3715
förbund	-10.3722
85	-10.374
▁komplettera	-10.3744
given	-10.3745
▁värsta	-10.3748
▁värre	-10.3749
▁socker	-10.3749
▁element	-10.3755
▁huvudstad	-10.3756
ämne	-10.3758
▁ansträngning	-10.3783
mästare	-10.3787
▁vanligaste	-10.3793
▁föredrar	-10.3794
▁ägna	-10.3804
55	-10.3812
festival	-10.3818
▁Därefter	-10.3818
aktivitet	-10.382
▁beaktande	-10.3825
▁utöka	-10.3826
flykt	-10.3843
▁mänskligheten	-10.3853
▁riktlinjer	-10.3853
▁löfte	-10.3853
▁stjärnor	-10.3853
▁immun	-10.3855
▁mått	-10.3876
▁Tjänste	-10.3888
▁passagerar	-10.3888
▁kronor	-10.3888
▁James	-10.3888
▁Istället	-10.3889
▁make	-10.39
▁beskrivning	-10.3902
▁knä	-10.3905
låda	-10.3913
▁Tyvärr	-10.3923
▁påbörja	-10.3923
▁södra	-10.3923
▁flickor	-10.3923
▁ursäkt	-10.3924
design	-10.3924
▁kompis	-10.3924
▁Norge	-10.3927
▁myndigheten	-10.393
pump	-10.3938
▁tusen	-10.3962
▁fredag	-10.3963
▁motsvarande	-10.3994
▁support	-10.3994
▁Restauranger	-10.4029
▁skådespel	-10.4029
▁sorg	-10.4034
▁motivera	-10.4054
panel	-10.4058
partner	-10.4065
▁siffror	-10.4065
▁atmosfär	-10.4065
hjul	-10.4095
▁tyvärr	-10.4101
▁närmaste	-10.4101
▁koncept	-10.4107
▁journalist	-10.4137
▁Obama	-10.4137
plattform	-10.4137
▁Kanada	-10.414
▁utbyte	-10.4156
praxis	-10.4173
▁Office	-10.4173
▁Institute	-10.4179
▁längd	-10.418
▁utsträckning	-10.4209
▁Information	-10.4209
▁dating	-10.421
▁debatt	-10.421
▁integritet	-10.4245
▁förvandla	-10.4246
dubbla	-10.4247
partiet	-10.4252
analys	-10.4253
▁attacker	-10.4258
▁Klicka	-10.4282
▁operation	-10.4284
Z	-10.4285
▁granska	-10.4292
▁pool	-10.4301
▁databas	-10.4303
pröva	-10.4305
▁Välkommen	-10.4319
▁avlägsna	-10.4319
▁professor	-10.4319
▁Världen	-10.4355
▁himmel	-10.4355
▁människo	-10.4358
▁generera	-10.4364
▁fond	-10.4373
▁maximal	-10.4392
▁varmt	-10.4417
historisk	-10.4428
▁original	-10.4429
▁upprätthålla	-10.4429
▁utrusta	-10.4431
qui	-10.4437
▁arbetsplats	-10.4439
▁glömma	-10.4442
brev	-10.4445
▁smärt	-10.4452
▁uppmärksamma	-10.4456
▁inrätta	-10.446
ålder	-10.446
▁exklusiv	-10.4467
▁lördag	-10.4467
▁hänvisa	-10.4467
▁biologisk	-10.4467
▁finansiera	-10.4467
förhållanden	-10.4472
▁jo	-10.4475
▁arv	-10.4476
färg	-10.4477
▁elektrisk	-10.4504
▁Social	-10.4504
▁sällan	-10.4504
▁Trä	-10.4506
▁fötter	-10.4507
▁beredd	-10.451
42	-10.4536
▁permanent	-10.4541
▁Syrien	-10.4541
drive	-10.4545
▁rutin	-10.4548
▁tveka	-10.4549
▁urval	-10.4558
▁universum	-10.4579
▁applikation	-10.4579
▁jämförelse	-10.4579
▁intensiv	-10.4583
cancer	-10.4587
▁Syftet	-10.4617
▁argument	-10.4617
▁definition	-10.4617
▁Lägg	-10.4617
▁olaglig	-10.462
▁arab	-10.4624
▁grav	-10.4631
▁Android	-10.4655
▁Danmark	-10.4655
▁efterfrågan	-10.4655
▁Författare	-10.4655
▁satsa	-10.466
▁2003	-10.4669
▁[+]	-10.4693
▁huruvida	-10.4693
▁Hjälp	-10.4693
▁aspekter	-10.4694
krets	-10.4719
▁Bitcoin	-10.4731
▁Casino	-10.4732
▁ansluta	-10.4732
▁lät	-10.4738
hög	-10.4746
evolution	-10.4768
▁italiensk	-10.4769
▁brett	-10.477
▁affärer	-10.4775
work	-10.4776
▁skriftlig	-10.4781
kommission	-10.4794
▁administrativ	-10.4808
▁depression	-10.4808
▁Online	-10.4808
▁Home	-10.4812
▁poker	-10.4816
sidor	-10.482
▁instruktion	-10.4846
▁motsvarar	-10.4846
▁yngre	-10.4846
▁räcker	-10.4846
▁dialog	-10.4846
möjligheter	-10.4858
▁föregående	-10.4861
▁Studie	-10.4885
▁Glöm	-10.4886
▁rättsliga	-10.489
▁orolig	-10.4895
▁Auto	-10.4896
▁kontinuerlig	-10.4924
▁Turkiet	-10.4924
▁kollektiv	-10.4924
▁tuff	-10.4924
▁återvända	-10.4929
▁2001	-10.4936
▁rid	-10.4945
▁auto	-10.4954
▁måndag	-10.4957
▁Michael	-10.4963
▁övrigt	-10.4963
▁begrav	-10.4963
▁rättfärdig	-10.4964
▁Skriv	-10.4964
▁beskriva	-10.4969
🙂	-10.5002
▁lögn	-10.5002
operatör	-10.5002
▁förtjänar	-10.5003
▁Sådan	-10.5011
▁aktivera	-10.503
▁återvände	-10.5053
▁Martin	-10.5069
▁Global	-10.5081
▁involvera	-10.5081
▁yttre	-10.5081
mannen	-10.5114
▁vaccin	-10.5121
▁kritik	-10.5121
▁präst	-10.5121
formulär	-10.5123
▁Natur	-10.5131
protokoll	-10.516
▁Problem	-10.5161
▁Alltså	-10.5161
▁uppenbara	-10.5162
skräck	-10.5167
alternativ	-10.5177
text	-10.5185
▁Göteborg	-10.52
▁Bibeln	-10.5201
mekanism	-10.5201
▁utomhus	-10.5203
användning	-10.5218
▁knappt	-10.5221
▁resor	-10.523
sajt	-10.5249
böcker	-10.5258
▁syster	-10.5259
▁desto	-10.526
▁koncern	-10.526
▁sprida	-10.5281
▁japansk	-10.5281
▁jämföra	-10.5285
▁åtkomst	-10.5292
sjö	-10.5297
▁inflytande	-10.5321
▁Design	-10.5322
▁Både	-10.5322
▁Hennes	-10.5322
▁förväntningar	-10.5322
▁plocka	-10.5326
ü	-10.5362
▁bestämt	-10.5362
▁fattiga	-10.5362
▁ledarskap	-10.5362
▁födelsedag	-10.5367
▁förekommer	-10.5369
▁Europe	-10.5398
▁livsstil	-10.5403
förbindelse	-10.5404
▁hushåll	-10.5417
▁introducera	-10.5444
▁beskrivs	-10.5445
▁Kolla	-10.5445
▁botten	-10.5446
▁olje	-10.5446
▁Huvud	-10.5485
▁Management	-10.5485
▁blommor	-10.5485
▁vandra	-10.5512
▁primär	-10.5526
▁Tillsammans	-10.5526
▁robot	-10.5527
▁lidande	-10.5527
▁arbetsgivare	-10.5533
▁Kvinnor	-10.5568
▁ingredienser	-10.5568
▁resolution	-10.5568
▁äldsta	-10.5568
▁stänga	-10.5569
▁tillåta	-10.5583
plikation	-10.5603
▁Egypten	-10.561
▁invånare	-10.561
▁recension	-10.561
▁George	-10.561
▁generell	-10.5614
såtgärder	-10.5647
▁förflutna	-10.5651
▁volym	-10.5651
▁Asien	-10.5653
sköt	-10.5659
▁hinder	-10.5694
▁nyhets	-10.5739
▁Blue	-10.5742
fördraget	-10.5755
källa	-10.5771
▁Washington	-10.5778
▁Projekt	-10.5778
▁inbjud	-10.5778
▁Särskil	-10.578
operativ	-10.578
▁utredning	-10.5781
användare	-10.5804
▁giltig	-10.5821
▁således	-10.5821
▁spänning	-10.5822
▁Ofta	-10.5822
▁akademisk	-10.5824
▁bekant	-10.5824
hjälp	-10.5848
▁förneka	-10.5856
▁vuxen	-10.5863
▁klockan	-10.5864
▁fixa	-10.5869
▁kyrko	-10.587
service	-10.5895
▁William	-10.5906
▁kapitel	-10.5906
▁inneha	-10.5915
▁gälla	-10.5942
▁kemikalie	-10.5949
▁tenderar	-10.5949
▁Arbets	-10.595
▁lukt	-10.5951
▁Bygg	-10.5993
▁skrämm	-10.5993
▁ligga	-10.6023
utrustning	-10.6023
▁europeisk	-10.6026
|	-10.6036
▁observera	-10.6036
▁Frank	-10.6037
▁beakta	-10.604
▁dominera	-10.604
▁fyr	-10.6074
▁omvandla	-10.608
▁tillförlitlig	-10.608
▁pojke	-10.608
ingenjör	-10.6084
▁killar	-10.6085
förbrukning	-10.6109
→	-10.6124
▁Amazon	-10.6124
▁utomlands	-10.6124
▁School	-10.6168
▁Grekland	-10.6168
▁övergripande	-10.6168
▁nöje	-10.617
standard	-10.6201
▁psykisk	-10.6212
▁täcker	-10.6213
▁konkurrenskraft	-10.6214
belysning	-10.6226
höll	-10.6247
▁drygt	-10.6256
▁konsult	-10.6256
▁förpackning	-10.6256
▁Bolaget	-10.6257
▁muskler	-10.6257
▁Flyg	-10.6257
▁helvete	-10.6258
▁Irak	-10.6259
▁Pass	-10.6259
▁armé	-10.626
▁odla	-10.6291
▁försvinner	-10.6301
▁världskriget	-10.6301
▁okej	-10.6301
▁protest	-10.6302
▁muskel	-10.6304
▁saknas	-10.6309
folk	-10.6332
▁samarbets	-10.634
▁unions	-10.6346
▁utrikes	-10.6346
▁inverkan	-10.6346
▁rykte	-10.6347
▁harmoni	-10.6363
behåller	-10.637
givna	-10.6372
▁demokratisk	-10.6391
▁religiösa	-10.6391
försörjning	-10.6391
▁kilometer	-10.6436
▁Föregående	-10.6436
kunnig	-10.6437
▁prestation	-10.6439
▁badrum	-10.644
▁North	-10.6454
▁pålitlig	-10.6457
▁Central	-10.6482
▁ytterst	-10.6482
▁Artikel	-10.6482
▁Forskning	-10.6482
apparat	-10.6497
▁advokat	-10.6527
▁noggrant	-10.6527
▁vistelse	-10.6533
▁hormon	-10.6573
▁ångest	-10.6573
▁stängd	-10.6595
kommit	-10.6617
▁komplicera	-10.6619
▁Självklart	-10.6619
▁optimal	-10.6619
▁nöd	-10.6619
▁sträng	-10.662
▁bebis	-10.6623
▁Street	-10.6667
förorening	-10.6684
forskning	-10.6709
▁mobiltelefon	-10.6712
▁fattigdom	-10.6759
▁shopping	-10.6759
▁överraska	-10.676
direktör	-10.6782
▁patent	-10.6806
▁House	-10.6806
▁gudomlig	-10.6807
▁Grund	-10.6807
sekvens	-10.6852
▁Barcelona	-10.6853
▁webbläsare	-10.6853
▁tolv	-10.6853
▁bodde	-10.6855
▁täcka	-10.6856
▁begränsningar	-10.6857
datum	-10.6859
▁födelse	-10.6896
▁osäker	-10.6899
@	-10.69
▁representant	-10.69
▁möbler	-10.69
▁Faktum	-10.69
▁Invest	-10.6901
▁dvs	-10.6901
▁springa	-10.6906
ansvarig	-10.6913
▁oerhört	-10.6948
▁vunnit	-10.6948
▁muslimer	-10.6948
▁färre	-10.6948
▁åkte	-10.6949
▁fåglar	-10.6953
▁strål	-10.6995
▁Däremot	-10.6996
▁Observera	-10.6996
▁sällsynt	-10.6996
▁Volvo	-10.6996
▁Musik	-10.7044
▁tolka	-10.7048
▁neuro	-10.709
▁självmord	-10.7092
á	-10.7141
▁lösenord	-10.7141
▁Exempel	-10.7141
▁godkänt	-10.7141
▁Kristi	-10.7141
disciplin	-10.7189
tjäna	-10.7193
▁Titta	-10.7195
▁resurs	-10.7203
▁entreprenör	-10.7228
▁Daniel	-10.7239
▁föll	-10.7239
▁smidig	-10.7239
▁fastställs	-10.7239
▁Namn	-10.7243
▁sände	-10.7269
▁Jerusalem	-10.7288
▁virtuell	-10.7288
▁South	-10.7288
familj	-10.7292
▁sorter	-10.7306
▁exponering	-10.7337
▁bokstav	-10.7337
▁kreditkort	-10.734
bundna	-10.7351
▁Kalifornien	-10.7387
▁tålamod	-10.7387
▁söder	-10.7387
utveckla	-10.7393
▁slutföra	-10.7403
▁misslyckas	-10.7437
undersökning	-10.7444
▁genetisk	-10.7446
▁yttrande	-10.7487
▁stimulera	-10.7487
▁biverkningar	-10.7487
▁israel	-10.7487
▁sönder	-10.7487
▁ekologisk	-10.7538
▁Övrig	-10.7538
▁golf	-10.7538
kunskap	-10.7547
0.000	-10.7554
▁stopp	-10.7564
▁tjock	-10.7589
▁kemiska	-10.7589
▁konsert	-10.759
▁torka	-10.7603
▁Museum	-10.7639
▁besvär	-10.764
kamrat	-10.7642
▁gärning	-10.7653
▁Science	-10.7691
▁jävla	-10.7691
▁dejting	-10.7691
▁show	-10.7691
▁Power	-10.7692
▁kontant	-10.7693
▁Webbplats	-10.7742
▁misstänkt	-10.7743
▁finansiell	-10.7757
^	-10.7794
▁konstruera	-10.7795
▁fastighets	-10.7795
▁allergi	-10.7795
rubrik	-10.7798
▁Ytterligare	-10.7846
▁dynamisk	-10.7846
▁ordentligt	-10.7846
▁antog	-10.7848
▁satsning	-10.7854
▁noggrann	-10.7899
▁intelligens	-10.7899
▁tolkning	-10.7899
▁torsdag	-10.7899
▁fantasi	-10.7899
▁anpassning	-10.7899
▁gynna	-10.7899
▁fukt	-10.79
▁presentation	-10.79
museum	-10.7902
▁grej	-10.7905
▁undvik	-10.791
▁seriös	-10.7951
▁konkret	-10.7951
▁akut	-10.7954
§	-10.8004
▁nämna	-10.8005
▁Irland	-10.8006
▁skapelse	-10.8035
▁kronisk	-10.806
substans	-10.8062
▁lojal	-10.8062
▁förmedla	-10.8067
läkare	-10.8094
▁stycken	-10.8111
molekyl	-10.8111
▁fenomen	-10.8111
▁dricker	-10.8111
▁integration	-10.8111
▁Njut	-10.8112
dokument	-10.8128
▁rulla	-10.8134
▁HERREN	-10.8165
▁känslomässig	-10.8165
postadress	-10.8165
▁ansåg	-10.8166
▁enskild	-10.8182
princip	-10.8183
▁omedelbar	-10.8184
central	-10.8185
kräm	-10.8212
▁fjärr	-10.8219
▁Thomas	-10.8219
▁Kärlek	-10.8219
▁oändlig	-10.8219
▁kommentera	-10.822
▁medvetande	-10.8221
kläder	-10.8239
politisk	-10.8246
▁utmärk	-10.8248
▁Richard	-10.8273
▁reducera	-10.8273
▁uppenbart	-10.8273
▁anonym	-10.8273
▁utvalda	-10.8273
▁klänning	-10.8281
▁logga	-10.8284
administration	-10.8328
▁vädret	-10.8328
▁Vatten	-10.8328
bereder	-10.8337
▁ränta	-10.8342
överensstämmelse	-10.8383
▁territorium	-10.8383
▁stränder	-10.8383
▁radikal	-10.8383
▁Royal	-10.8383
▁inuti	-10.8384
mäklare	-10.8385
▁utesluta	-10.839
▁anställd	-10.8418
€	-10.8438
▁Undvik	-10.8438
▁imponerande	-10.8438
▁skämt	-10.8438
▁förälder	-10.8438
▁humör	-10.8438
neutral	-10.8438
▁evigt	-10.8438
distrikt	-10.8438
klubb	-10.8461
▁koncentrera	-10.8493
▁event	-10.8495
▁sekretess	-10.8496
behov	-10.8518
¤	-10.8549
▁League	-10.8549
▁Nederländerna	-10.8549
▁smartphone	-10.8549
▁upptäcker	-10.8549
▁småningom	-10.8549
▁Steve	-10.8566
lagstiftning	-10.858
▁Tycke	-10.8592
▁destination	-10.8605
▁släpper	-10.8606
▁skugg	-10.8606
▁inrikta	-10.8607
▁Också	-10.8662
▁fascinera	-10.8662
▁återförsäljare	-10.8662
▁tjugo	-10.8662
▁funkar	-10.8662
▁Råd	-10.8663
▁stödjer	-10.8663
▁numera	-10.8664
temot	-10.868
styrning	-10.8714
▁ömsesidig	-10.8719
▁mäktig	-10.8719
▁försvinna	-10.8719
▁yoga	-10.8719
▁svårigheter	-10.8719
▁kyrka	-10.8723
▁påpeka	-10.8726
klocka	-10.8729
instrument	-10.8746
samhälle	-10.8747
koncernen	-10.8748
▁onödig	-10.8776
▁inblandad	-10.8776
▁komfort	-10.8776
situation	-10.8805
▁Utöv	-10.8808
kräft	-10.883
▁tvivel	-10.8833
▁slump	-10.8834
▁släpps	-10.8834
▁belöning	-10.8836
▁färsk	-10.884
begränsning	-10.8844
kopplad	-10.8866
höjd	-10.887
▁choklad	-10.8891
certifikat	-10.8891
▁Familj	-10.8891
▁hundratals	-10.8891
konvention	-10.8922
prognos	-10.8949
glasögon	-10.8949
▁tablett	-10.895
▁onsdag	-10.8953
▁beundra	-10.8954
▁kvalificerad	-10.8987
▁klagomål	-10.9008
▁kollegor	-10.9008
▁dramatisk	-10.9008
akademi	-10.9009
▁smuts	-10.9009
▁Next	-10.9009
från	-10.9015
blå	-10.9019
jämlik	-10.9044
bränd	-10.9061
▁behörighet	-10.9067
▁faktiska	-10.9067
▁Texas	-10.9067
·	-10.9185
=	-10.9656
←	-10.9801
°	-11.0457
â	-11.0593
Г	-11.0732
ó	-11.1758
—	-11.2334
í	-11.2562
ø	-11.2731
“	-11.3021
£	-11.3528
è	-11.362
¥	-11.362
‐	-11.3903
	-11.5232
~	-11.5565
›	-11.591
}	-11.6028
{	-11.6028
♥	-11.6512
#	-11.6619
$	-11.7142
¶	-11.7559
❤	-11.9205
\	-11.9535
●	-12.0979
😉	-12.0979
`	-12.1175
ç	-12.1788
ñ	-12.1788
à	-12.2
−	-12.3138
️	-12.3888
ô	-12.3888
′	-12.3888
😀	-12.3888
š	-12.4151
■	-12.4151
ā	-12.4422
©	-12.4422
æ	-12.4699
×	-12.5279
	-12.5582
ú	-12.5895
É	-12.6217
ã	-12.6217
⁄	-12.6217
ë	-12.6551
ć	-12.6896
α	-12.6896
„	-12.8008
Â	-12.8008
û	-12.8408
±	-12.8824
Ü	-12.9714
č	-13.019
î	-13.019
😊	-13.069
▸	-13.069
ï	-13.1216
ل	-13.1216
ð	-13.1216
►	-13.1772
א	-13.2985
ş	-13.3652
•	-13.4221
ˮ	-13.4366
‹	-13.4366
	-13.4366
👍	-13.4366
😍	-13.4366
ž	-13.5135
‘	-13.5824
ł	-13.5968
	-13.5968
ğ	-13.5968
و	-13.5968
β	-13.5968
Š	-13.6878
ß	-13.6878
ي	-13.6878
😛	-13.7878
ı	-13.7878
	-13.8989
ō	-13.8989
Ó	-13.8989
ĺ	-13.8989
ń	-13.8989
ا	-13.8989
ه	-13.8989
‒	-13.8989
☺	-13.8989
🏼	-13.8989
م	-13.8989
Î	-14.0239
¬	-14.0239
õ	-14.0239
Á	-14.0239
ạ	-14.0239
✔	-14.0239
🙁	-14.0239
ʹ	-14.0239
🏻	-14.0239
ι	-14.0239
	-14.1667
ę	-14.1667
θ	-14.1667
س	-14.1667
ع	-14.1667
ê	-14.1667
γ	-14.1667
ν	-14.1667
ن	-14.1667
‭	-14.3334
σ	-14.3334
Ă	-14.3334
¿	-14.3334
Č	-14.3334
œ	-14.3334
ς	-14.3334
◄	-14.3334
	-14.3334
😂	-14.3334
😄	-14.3334
🙏	-14.3334
ī	-14.3334
ə	-14.3334
国	-14.5334
	-14.5334
ο	-14.5334
ε	-14.5334
а	-14.5334
◆	-14.5334
	-14.5334
	-14.5334
😅	-14.5334
😘	-14.5334
🤣	-14.5334
Ç	-14.5334
ū	-14.5334
‚	-14.5334
ρ	-14.5334
ṛ	-14.5334
中	-14.7834
國	-14.7834
ί	-14.7834
‬	-14.7834
ý	-14.7834
ő	-14.7834
	-14.7834
ò	-14.7834
†	-14.7834
▪	-14.7834
○	-14.7834
◾	-14.7834
⭐	-14.7834
	-14.7834
💙	-14.7834
💜	-14.7834
ù	-14.7834
Ž	-14.7834
ʼ	-14.7834
Í	-14.7834
δ	-14.7834
λ	-14.7834
й	-14.7834
ص	-14.7834
超	-15.1167
ă	-15.1167
ḥ	-15.1167
ą	-15.1167
ē	-15.1167
ӓ	-15.1167
¡	-15.1167
¢	-15.1167
ì	-15.1167
đ	-15.1167
ė	-15.1167
τ	-15.1167
К	-15.1167
د	-15.1167
ى	-15.1167
❑	-15.1167
❓	-15.1167
軍	-15.1167
︎	-15.1167
💤	-15.1167
😇	-15.1167
е	-15.1167
þ	-15.1167
φ	-15.1167
ر	-15.1167
ά	-15.1167
р	-15.1167
ω	-15.1167
и	-15.1167
ก	-15.6167
	-15.6167
	-15.6167
ร	-15.6167
会	-15.6167
ت	-15.6167
ż	-15.6167
д	-15.6167
‡	-15.6167
ɛ	-15.6167
Α	-15.6167
ọ	-15.6167
‍	-15.6167
―	-15.6167
↵	-15.6167
∙	-15.6167
√	-15.6167
◦	-15.6167
☆	-15.6167
⚘	-15.6167
✅	-15.6167
✰	-15.6167
❥	-15.6167
万	-15.6167
团	-15.6167
岁	-15.6167
	-15.6167
	-15.6167
	-15.6167
	-15.6167
	-15.6167
	-15.6167
💖	-15.6167
😕	-15.6167
😜	-15.6167
😝	-15.6167
🙌	-15.6167
🤔	-15.6167
🤗	-15.6167
🤯	-15.6167
ś	-15.6167
ư	-15.6167
ح	-15.6167
✎	-15.6167
Σ	-15.6167
ÿ	-15.6167
κ	-15.6167
ό	-15.6167
ج	-15.6167
უ	-15.6167
χ	-15.6167
Д	-15.6167
ј	-15.6167
🙈	-16.6098
😬	-16.6099
😎	-16.61
😋	-16.6101
	-16.6102
눉	-16.6103
足	-16.6104
赛	-16.6105
联	-16.6106
球	-16.6107
人	-16.6108
主	-16.6109
ン	-16.611
コ	-16.6111
♪	-16.6112
□	-16.6113
≈	-16.6114
Ґ	-16.6115
О	-16.6116
ή	-16.6117
Ω	-16.6118
Β	-16.6119
̃	-16.612
ɑ	-16.6121
ș	-16.6122
ǔ	-16.6123
ơ	-16.6124
Ś	-16.6125
Đ	-16.6126
Þ	-16.6127
😦	-16.6128
😢	-16.6129
革	-16.613
命	-16.6131
・	-16.6132
♣	-16.6133
◊	-16.6134
≤	-16.6135
ἀ	-16.6136
ẹ	-16.6137
Δ	-16.6138
💚	-16.6139
💕	-16.614
👏	-16.6141
	-16.6142
	-16.6143
☝	-16.6144
ṣ	-16.6145
ṇ	-16.6146
π	-16.6147
ǧ	-16.6148
ţ	-16.6149
Ş	-16.615
😃	-16.6151
▶	-16.6152
Õ	-16.6153
Æ	-16.6154
民	-16.6155
★	-16.6156
ƒ	-16.6157
	-16.6158
↑	-16.6159
♡	-16.616
̈	-16.6161
Ø	-16.6162
≥	-16.6163
μ	-16.6164
✓	-16.6165
▌	-16.6166
協	-16.6167
會	-16.6167
ย	-16.6167
ี	-16.6167
เ	-16.6167
协	-16.6167
有	-16.6167
江	-16.6167
級	-16.6167
锦	-16.6167
际	-16.6167
集	-16.6167
İ	-16.6167
Ł	-16.6167
ث	-16.6167
⦁	-16.6167
台	-16.6167
Ż	-16.6167
צ	-16.6167
Ḥ	-16.6167
🍦	-16.6167
	-16.6167
	-16.6167
À	-16.6167
Ë	-16.6167
Ð	-16.6167
Ñ	-16.6167
Ò	-16.6167
Ú	-16.6167
Ý	-16.6167
÷	-16.6167
Ā	-16.6167
ħ	-16.6167
ķ	-16.6167
ų	-16.6167
ǎ	-16.6167
ǒ	-16.6167
ɒ	-16.6167
ɡ	-16.6167
ɣ	-16.6167
ɸ	-16.6167
ˆ	-16.6167
ˌ	-16.6167
̊	-16.6167
̶	-16.6167
Γ	-16.6167
Ε	-16.6167
Θ	-16.6167
Μ	-16.6167
Π	-16.6167
η	-16.6167
ύ	-16.6167
А	-16.6167
Б	-16.6167
В	-16.6167
Е	-16.6167
И	-16.6167
Н	-16.6167
П	-16.6167
С	-16.6167
Т	-16.6167
Э	-16.6167
Я	-16.6167
г	-16.6167
л	-16.6167
н	-16.6167
с	-16.6167
ы	-16.6167
ӧ	-16.6167
ד	-16.6167
ة	-16.6167
ك	-16.6167
ڤ	-16.6167
ަ	-16.6167
ต	-16.6167
ธ	-16.6167
น	-16.6167
ส	-16.6167
ะ	-16.6167
ั	-16.6167
ิ	-16.6167
ი	-16.6167
რ	-16.6167
ც	-16.6167
ḳ	-16.6167
ṅ	-16.6167
Ṣ	-16.6167
ṭ	-16.6167
ả	-16.6167
ầ	-16.6167
ễ	-16.6167
ệ	-16.6167
ỉ	-16.6167
ị	-16.6167
ờ	-16.6167
ἐ	-16.6167
‣	-16.6167
※	-16.6167
⁃	-16.6167
₤	-16.6167
↓	-16.6167
↩	-16.6167
⇑	-16.6167
⇒	-16.6167
⇨	-16.6167
∑	-16.6167
∞	-16.6167
⋅	-16.6167
▲	-16.6167
▷	-16.6167
▼	-16.6167
▽	-16.6167
▾	-16.6167
☐	-16.6167
☒	-16.6167
☕	-16.6167
☟	-16.6167
☭	-16.6167
♦	-16.6167
♧	-16.6167
♫	-16.6167
✌	-16.6167
✗	-16.6167
➜	-16.6167
➥	-16.6167
⟵	-16.6167
⟶	-16.6167
オ	-16.6167
ニ	-16.6167
リ	-16.6167
世	-16.6167
光	-16.6167
公	-16.6167
共	-16.6167
军	-16.6167
华	-16.6167
司	-16.6167
和	-16.6167
山	-16.6167
式	-16.6167
月	-16.6167
楚	-16.6167
海	-16.6167
湾	-16.6167
灣	-16.6167
狂	-16.6167
珞	-16.6167
界	-16.6167
社	-16.6167
空	-16.6167
箇	-16.6167
级	-16.6167
结	-16.6167
聯	-16.6167
臺	-16.6167
言	-16.6167
賽	-16.6167
鈥	-16.6167
镜	-16.6167
限	-16.6167
낍	-16.6167
책	-16.6167
	-16.6167
	-16.6167
	-16.6167
	-16.6167
	-16.6167
	-16.6167
	-16.6167
	-16.6167
	-16.6167
	-16.6167
	-16.6167
	-16.6167
	-16.6167
	-16.6167
	-16.6167
	-16.6167
	-16.6167
	-16.6167
	-16.6167
	-16.6167
	-16.6167
	-16.6167
	-16.6167
￼	-16.6167
🇨	-16.6167
🌞	-16.6167
🌷	-16.6167
🌸	-16.6167
🍀	-16.6167
🍰	-16.6167
🍳	-16.6167
🍴	-16.6167
🎁	-16.6167
🎈	-16.6167
🎉	-16.6167
🎨	-16.6167
🎶	-16.6167
🎼	-16.6167
🏆	-16.6167
🏽	-16.6167
🐞	-16.6167
🐲	-16.6167
🐴	-16.6167
🐾	-16.6167
👁	-16.6167
👇	-16.6167
👌	-16.6167
💔	-16.6167
💪	-16.6167
💰	-16.6167
📌	-16.6167
📚	-16.6167
📷	-16.6167
🖤	-16.6167
🗞	-16.6167
😁	-16.6167
😆	-16.6167
😔	-16.6167
😖	-16.6167
😞	-16.6167
😠	-16.6167
😫	-16.6167
😭	-16.6167
😳	-16.6167
😶	-16.6167
🙆	-16.6167
🙉	-16.6167
🤛	-16.6167
🤩	-16.6167
🥂	-16.6167
🥇	-16.6167
🦋	-16.6167
🦌	-16.6167
🧡	-16.6167
∈	-16.6167
	-16.6167
ě	-16.6167
ц	-16.6167
Ṭ	-16.6167
ủ	-16.6167
五	-16.6167
	-16.6167
💥	-16.6167
🔸	-16.6167
ˈ	-16.6167
ː	-16.6167
Φ	-16.6167
ނ	-16.6167
ތ	-16.6167
ާ	-16.6167
ข	-16.6167
ุ	-16.6167
ხ	-16.6167
ビ	-16.6167
春	-16.6167
秋	-16.6167
航	-16.6167
🤙	-16.6167
́	-16.6167
в	-16.6167
м	-16.6167
о	-16.6167
т	-16.6167
大	-16.6167
株	-16.6167
