<unk>	0
<s>	0
</s>	0
s	-3.6572
.	-3.70504
t	-3.89664
a	-3.95242
▁och	-4.09673
▁att	-4.12497
en	-4.27805
▁i	-4.34441
▁en	-4.36648
▁är	-4.39176
er	-4.41482
▁för	-4.47261
▁.	-4.53088
▁av	-4.57733
▁som	-4.60686
r	-4.65433
▁,	-4.71339
,	-4.71848
n	-4.78697
▁på	-4.87359
▁det	-4.92396
▁till	-4.9772
▁s	-5.03927
▁med	-5.06752
▁	-5.13375
d	-5.26346
▁inte	-5.26514
▁de	-5.26527
▁har	-5.26787
▁den	-5.30692
▁om	-5.37119
▁du	-5.41686
ar	-5.4279
et	-5.44446
▁ett	-5.49286
▁kan	-5.53328
e	-5.56301
de	-5.59252
na	-5.59967
▁jag	-5.66987
▁eller	-5.83066
▁Det	-5.8311
▁var	-5.87884
▁vi	-5.8792
y	-5.91174
-	-5.96046
▁från	-5.96199
▁-	-6.00485
▁(	-6.06806
▁?	-6.07201
▁så	-6.07335
m	-6.07485
▁"	-6.16053
g	-6.17093
ning	-6.17904
k	-6.18089
▁kommer	-6.21111
▁Jag	-6.26327
▁in	-6.31191
▁S	-6.31968
re	-6.3525
▁”	-6.35823
▁I	-6.38332
l	-6.41222
▁:	-6.42011
▁man	-6.43273
an	-6.44079
▁sig	-6.44263
▁vara	-6.45642
▁ut	-6.466
▁upp	-6.47294
▁ska	-6.47912
▁t	-6.49216
or	-6.49951
▁över	-6.53034
al	-6.54132
▁Vi	-6.54323
o	-6.54832
▁dig	-6.5541
▁när	-6.57247
in	-6.57789
▁han	-6.5806
▁men	-6.58239
p	-6.58452
▁här	-6.59019
▁alla	-6.60896
)	-6.60957
:	-6.63581
▁B	-6.65969
f	-6.66416
erna	-6.67457
ande	-6.68212
▁!	-6.69953
▁också	-6.70145
v	-6.70267
▁finns	-6.72172
▁Den	-6.7228
▁under	-6.72314
▁er	-6.72583
▁andra	-6.72716
▁a	-6.73272
▁ha	-6.73902
▁din	-6.74648
are	-6.74808
▁De	-6.74916
▁mer	-6.75564
▁än	-6.77981
▁mig	-6.78251
h	-6.78803
▁A	-6.79162
ing	-6.80667
▁–	-6.80771
▁år	-6.81235
?	-6.81576
j	-6.81901
▁där	-6.82626
i	-6.83694
ck	-6.84198
▁detta	-6.84555
▁För	-6.84799
da	-6.86004
▁bara	-6.86795
▁En	-6.87875
▁mycket	-6.88254
te	-6.89495
ra	-6.89786
it	-6.89845
▁K	-6.90184
nde	-6.90438
▁o	-6.90981
▁M	-6.91329
▁vill	-6.91516
▁e	-6.935
▁vad	-6.93775
▁göra	-6.94211
▁dem	-6.9479
▁sin	-6.95002
▁ta	-6.95698
b	-6.96091
▁genom	-6.96947
▁E	-6.9733
on	-6.9767
▁efter	-6.97764
▁se	-6.99505
▁gör	-7.0018
▁Men	-7.00695
▁C	-7.00765
ade	-7.00924
▁F	-7.0208
▁be	-7.03454
ä	-7.04394
▁min	-7.04812
▁hur	-7.05027
▁Du	-7.05885
kt	-7.05959
▁...	-7.06353
▁Om	-7.07297
at	-7.0739
ö	-7.07575
▁oss	-7.07587
▁mot	-7.076
▁)	-7.08073
▁denna	-7.09568
▁få	-7.09639
▁skulle	-7.10987
sk	-7.12037
▁P	-7.12162
▁vid	-7.1326
å	-7.13776
▁tid	-7.13839
c	-7.13858
▁nu	-7.14992
S	-7.1551
het	-7.15561
A	-7.16399
▁T	-7.17612
x	-7.17612
liga	-7.18301
la	-7.18303
era	-7.19914
▁även	-7.20115
▁G	-7.21226
▁måste	-7.22216
▁många	-7.22587
▁Och	-7.22745
▁Han	-7.23394
le	-7.23504
▁får	-7.24165
▁hade	-7.24674
ig	-7.25005
▁k	-7.25139
▁L	-7.25578
▁rätt	-7.2568
ad	-7.25972
▁något	-7.2624
▁bra	-7.26327
ation	-7.26416
▁någon	-7.27834
▁H	-7.28203
u	-7.29273
▁sätt	-7.29287
D	-7.29707
arna	-7.29938
▁första	-7.30492
▁del	-7.30676
▁O	-7.31479
är	-7.31659
▁re	-7.32354
▁g	-7.32457
▁dessa	-7.3257
för	-7.34029
▁allt	-7.34721
▁an	-7.348
▁p	-7.35131
ut	-7.35233
▁två	-7.3586
▁bli	-7.36297
▁inom	-7.36424
▁n	-7.36577
lig	-7.36785
ri	-7.37189
ch	-7.37474
▁ni	-7.37752
▁d	-7.41075
us	-7.41212
iska	-7.41215
▁na	-7.41216
ör	-7.41398
▁hon	-7.41749
▁sina	-7.41913
▁människor	-7.42174
▁3	-7.42234
▁då	-7.42284
!	-7.4229
▁utan	-7.42352
▁När	-7.43052
▁Detta	-7.43061
ering	-7.43718
▁dag	-7.44245
▁b	-7.44934
ma	-7.45417
I	-7.45614
▁barn	-7.45621
el	-7.4574
C	-7.45752
il	-7.46466
▁Hur	-7.47614
▁nya	-7.48455
der	-7.49256
▁19	-7.49856
pp	-7.49931
▁mellan	-7.5062
▁Vad	-7.50673
mp	-7.50739
▁vår	-7.51076
▁ditt	-7.51396
▁2	-7.52021
▁behöver	-7.52663
▁f	-7.52775
▁4	-7.53519
ic	-7.53858
▁olika	-7.53954
▁liv	-7.54083
▁själv	-7.54285
än	-7.54434
2	-7.54518
1	-7.55053
▁1	-7.55159
ur	-7.55291
▁våra	-7.55368
▁ar	-7.55707
▁sk	-7.55848
▁hela	-7.56072
5	-7.56369
P	-7.57221
id	-7.57285
▁sitt	-7.57413
▁säger	-7.57701
E	-7.58028
▁sedan	-7.58423
om	-7.58499
vis	-7.58741
▁5	-7.59374
ligt	-7.59414
▁några	-7.59621
ol	-7.59651
▁V	-7.5972
T	-7.59846
▁deras	-7.60086
▁varje	-7.60707
li	-7.61188
ka	-7.61795
z	-7.61918
va	-7.62017
▁dina	-7.62699
▁D	-7.6279
▁ge	-7.63336
des	-7.63828
isk	-7.64582
▁företag	-7.64788
M	-7.65348
ul	-7.65551
ne	-7.65932
▁blir	-7.66084
3	-7.6736
▁vet	-7.67403
ik	-7.67429
▁information	-7.675
iv	-7.67702
▁ny	-7.67763
▁R	-7.68269
4	-7.68655
▁skall	-7.69163
ed	-7.69176
ro	-7.69869
▁r	-7.71414
▁honom	-7.71529
ska	-7.71695
▁samma	-7.71704
O	-7.71946
es	-7.72859
ist	-7.73435
ion	-7.73666
▁alltid	-7.73676
se	-7.73789
▁går	-7.73948
▁kunna	-7.74206
▁gå	-7.74237
ce	-7.75921
▁/	-7.76225
ll	-7.77222
▁fram	-7.77638
▁världen	-7.77828
nd	-7.78132
▁lite	-7.78134
▁helt	-7.7814
▁U	-7.78351
w	-7.78457
▁St	-7.78794
▁stor	-7.79015
8	-7.79132
ningar	-7.79152
▁Med	-7.80171
▁grund	-7.80302
um	-7.80343
▁Att	-7.80546
else	-7.80742
▁Så	-7.81324
▁använda	-7.81554
is	-7.81751
iga	-7.82147
▁;	-7.82225
9	-7.82302
6	-7.82305
▁kom	-7.82343
tal	-7.82375
sta	-7.83136
lo	-7.8361
▁bo	-7.83855
▁bör	-7.8403
7	-7.84618
▁vilket	-7.84901
▁varit	-7.85314
▁ger	-7.854
▁N	-7.86696
▁6	-7.87126
R	-7.87481
▁bort	-7.8768
▁Re	-7.87794
▁An	-7.88521
▁ingen	-7.88775
▁mitt	-7.88894
▁mest	-7.89178
▁c	-7.892
▁hans	-7.89551
ie	-7.90273
▁fall	-7.90419
▁bästa	-7.90681
ga	-7.90869
▁hem	-7.91139
▁W	-7.91183
▁bättre	-7.91417
▁Har	-7.91702
▁Be	-7.92275
▁gång	-7.92395
ry	-7.92682
▁hitta	-7.92798
▁före	-7.92874
ver	-7.92972
▁10	-7.93887
lar	-7.94578
▁annan	-7.94696
tion	-7.9473
▁väl	-7.9494
▁tre	-7.9499
▁sp	-7.95039
▁7	-7.95513
▁val	-7.95947
ld	-7.96731
▁annat	-7.96864
▁komma	-7.97096
▁form	-7.97341
▁In	-7.97468
B	-7.97561
itet	-7.97632
▁hos	-7.97672
▁).	-7.97778
ke	-7.97778
▁Var	-7.97815
▁ju	-7.98013
/	-7.98058
L	-7.98139
0	-7.99034
▁lag	-7.99105
▁aldrig	-7.9915
ti	-7.99785
ru	-7.99907
▁ord	-8.00454
▁ser	-8.00695
▁dess	-8.00752
▁spel	-8.00813
▁skapa	-8.01202
N	-8.01586
im	-8.02139
ia	-8.0254
▁tar	-8.02567
▁Mo	-8.03795
▁samt	-8.0419
▁utveckla	-8.04591
ko	-8.04752
▁plats	-8.04835
un	-8.04976
▁eftersom	-8.05262
am	-8.05719
▁Gud	-8.05774
▁flera	-8.0604
▁di	-8.061
äll	-8.06131
▁8	-8.0624
▁stora	-8.06367
▁blev	-8.06733
▁v	-8.06977
und	-8.07295
äl	-8.07316
00	-8.07514
▁Ett	-8.07655
▁På	-8.07774
▁hjälp	-8.08169
▁mål	-8.08344
ell	-8.08387
ligen	-8.08531
ha	-8.0953
▁åt	-8.09765
F	-8.10049
▁kunde	-8.10097
ng	-8.10127
op	-8.10232
▁Hon	-8.10409
▁Li	-8.10483
▁of	-8.11339
▁m	-8.11387
▁problem	-8.11734
lä	-8.11808
di	-8.11819
▁tro	-8.1185
▁verkligen	-8.11881
▁innan	-8.11902
▁tror	-8.12067
▁Alla	-8.12228
▁tillbaka	-8.12291
▁enligt	-8.12668
▁gäller	-8.13132
▁bil	-8.13431
▁9	-8.13529
ex	-8.13856
ät	-8.13907
to	-8.14143
▁la	-8.14991
▁fick	-8.1517
ju	-8.15354
▁produkter	-8.1563
▁Är	-8.15691
tor	-8.15788
▁mat	-8.15969
▁bland	-8.15975
▁“	-8.16349
ven	-8.17002
all	-8.17041
▁Där	-8.17302
▁Se	-8.17356
▁hög	-8.17844
▁Som	-8.18005
pe	-8.18461
▁stå	-8.18561
▁ma	-8.18957
ge	-8.19101
▁hand	-8.1923
▁väg	-8.19298
tag	-8.19613
▁kort	-8.19856
ly	-8.20136
▁saker	-8.2023
ant	-8.20253
V	-8.20511
▁h	-8.20703
▁kanske	-8.20753
▁Man	-8.20972
▁l	-8.21006
▁ofta	-8.21487
▁Bo	-8.21526
be	-8.2168
▁system	-8.22148
H	-8.22171
var	-8.22321
ord	-8.22332
skap	-8.22511
▁[	-8.226
ff	-8.22692
ling	-8.22796
▁pengar	-8.23037
K	-8.2347
▁beslut	-8.23704
▁både	-8.23809
▁personer	-8.23889
▁Nu	-8.24144
br	-8.24163
▁åter	-8.24253
▁igen	-8.24612
▁EU	-8.24668
▁artikel	-8.2471
ok	-8.24835
▁använder	-8.2484
▁säga	-8.25217
▁all	-8.25607
ve	-8.25676
▁and	-8.25831
▁exempel	-8.25903
▁kon	-8.2665
igt	-8.2678
▁ner	-8.26834
▁fri	-8.27418
äck	-8.27511
▁USA	-8.27721
▁dock	-8.27814
ligger	-8.27867
▁Här	-8.28032
▁gjort	-8.28104
▁redan	-8.28157
ång	-8.28185
ism	-8.28221
min	-8.28353
▁stöd	-8.28411
sättning	-8.28412
år	-8.28647
▁Ja	-8.28661
▁ka	-8.28773
G	-8.29147
erade	-8.29155
je	-8.29253
ment	-8.29476
▁idag	-8.3002
▁land	-8.3008
▁mindre	-8.30174
▁nå	-8.30358
▁fortfarande	-8.30432
▁Min	-8.30442
▁vatten	-8.30625
▁fråga	-8.30682
▁tidigare	-8.30739
▁svar	-8.30825
▁slut	-8.30874
▁20	-8.31233
▁tillsammans	-8.31635
▁tiden	-8.31944
▁Varför	-8.32019
▁dagar	-8.32141
▁Till	-8.3215
▁endast	-8.32202
ot	-8.32548
▁spela	-8.326
▁väldigt	-8.32727
▁procent	-8.3273
ill	-8.32847
▁vissa	-8.33167
talet	-8.33401
ster	-8.33757
▁fin	-8.33999
▁mo	-8.34029
▁ur	-8.34137
co	-8.34141
verk	-8.34355
▁mina	-8.34359
bo	-8.34673
▁folk	-8.34771
▁kvinnor	-8.34801
▁person	-8.35027
▁Ro	-8.35066
gen	-8.35236
▁arbete	-8.35339
▁Ta	-8.35408
▁Co	-8.35538
"	-8.359
od	-8.35931
▁död	-8.36076
▁arbets	-8.36258
▁egen	-8.36273
▁program	-8.36478
▁Le	-8.36602
åt	-8.367
▁Ha	-8.37774
▁hjälpa	-8.38043
▁tjänster	-8.38047
▁data	-8.38103
▁utveckling	-8.38109
▁längre	-8.38279
▁möjligt	-8.3835
▁bild	-8.38511
▁The	-8.38665
▁dagen	-8.38727
▁18	-8.38753
▁Jo	-8.38807
vi	-8.39053
▁nytt	-8.39158
ci	-8.39226
ring	-8.39226
▁dom	-8.3949
▁co	-8.3976
▁största	-8.40056
▁gjorde	-8.40203
rat	-8.40314
gi	-8.40323
▁Under	-8.40477
son	-8.40737
▁bok	-8.40745
ak	-8.40806
tan	-8.40876
▁namn	-8.4089
▁lång	-8.41064
▁fler	-8.41485
▁hår	-8.41861
▁besök	-8.42084
▁verksamhet	-8.42226
▁Al	-8.42312
▁känner	-8.42326
▁fem	-8.42409
▁Dess	-8.42671
▁J	-8.4291
▁hör	-8.43028
▁därför	-8.43039
▁länder	-8.4318
▁Kan	-8.43343
▁li	-8.43444
”	-8.43468
▁or	-8.43533
▁far	-8.43771
▁energi	-8.43778
lå	-8.43809
äng	-8.4381
gel	-8.4399
▁Inte	-8.4438
▁La	-8.44386
▁et	-8.44417
▁henne	-8.44697
ow	-8.44797
▁hålla	-8.44825
▁behandling	-8.45163
▁lär	-8.45186
bar	-8.45229
▁kr	-8.45425
▁läs	-8.45426
▁Ni	-8.45468
▁innebär	-8.4572
isera	-8.4584
bi	-8.46217
▁ro	-8.46399
est	-8.46565
▁enda	-8.46787
land	-8.46973
os	-8.4713
▁Ar	-8.47187
▁teknik	-8.472
▁används	-8.47206
ger	-8.47661
▁Di	-8.4769
pi	-8.48011
▁fel	-8.48185
▁sak	-8.48219
ir	-8.48623
]	-8.48761
▁direkt	-8.49078
▁vårt	-8.49166
äg	-8.49369
me	-8.4944
▁frågor	-8.49448
ja	-8.4947
▁visar	-8.49539
▁lika	-8.49595
kor	-8.4971
▁öka	-8.49922
▁flesta	-8.49925
▁lätt	-8.5007
▁huvud	-8.50124
mi	-8.50367
gg	-8.5041
ber	-8.50459
ans	-8.50523
lu	-8.50575
▁runt	-8.50678
▁viktigt	-8.50791
▁just	-8.50829
▁sol	-8.50939
▁livet	-8.50991
▁plan	-8.51004
▁Sk	-8.51116
▁”.	-8.51361
▁Vilk	-8.51442
▁12	-8.51443
ft	-8.51721
▁kvar	-8.51896
▁öppna	-8.52013
▁'	-8.52056
th	-8.52089
▁större	-8.52094
▁syn	-8.52195
▁Sverige	-8.52447
ktion	-8.52522
▁inför	-8.52862
si	-8.52932
io	-8.53107
U	-8.53143
▁15	-8.53261
▁typ	-8.53342
rätt	-8.53456
▁användning	-8.53706
▁Te	-8.54483
▁000	-8.54672
▁le	-8.54921
bu	-8.55
▁ännu	-8.55026
▁fr	-8.55301
ast	-8.55332
▁par	-8.55378
ton	-8.55383
man	-8.55575
▁händer	-8.55819
mo	-8.56107
▁värde	-8.56204
▁ned	-8.5627
ste	-8.56279
▁börjar	-8.56321
ba	-8.56561
▁minska	-8.56699
▁vilken	-8.56724
▁äg	-8.56799
pa	-8.57048
▁varför	-8.5717
▁stad	-8.57406
▁älskar	-8.57423
▁miljö	-8.57482
▁arbetar	-8.57551
▁senaste	-8.5771
▁per	-8.57723
▁To	-8.5778
▁behov	-8.58038
▁möjlighet	-8.58071
▁30	-8.58124
ek	-8.58243
▁arbeta	-8.58569
ni	-8.5865
ho	-8.59077
▁kraft	-8.59252
tid	-8.59304
▁små	-8.59494
▁själva	-8.59705
é	-8.59706
öj	-8.59923
ab	-8.59946
▁Ca	-8.60021
▁hennes	-8.60027
▁regler	-8.60246
▁tredje	-8.60246
tar	-8.60306
▁Sa	-8.60435
ick	-8.60499
▁enkelt	-8.60568
▁tjänst	-8.60748
po	-8.60759
▁förstå	-8.60906
men	-8.60954
hi	-8.61415
▁resultat	-8.61511
▁kunder	-8.61917
▁full	-8.61924
▁&	-8.61929
▁blivit	-8.62206
▁fått	-8.62335
äk	-8.6241
▁tycker	-8.62566
▁he	-8.62755
▁god	-8.62757
▁Ut	-8.62764
▁Efter	-8.62797
▁börja	-8.62804
▁nära	-8.62848
mm	-8.63268
▁vilka	-8.6329
▁musik	-8.63472
▁erbjuder	-8.63531
▁nästan	-8.63626
▁te	-8.63765
▁Europa	-8.63905
ön	-8.63969
▁rör	-8.63986
▁tillgång	-8.64082
▁vän	-8.64237
▁utbildning	-8.64357
▁färg	-8.64388
mar	-8.64443
▁resa	-8.6457
▁inget	-8.64669
går	-8.64731
▁särskilt	-8.64754
▁lära	-8.64807
▁klass	-8.64933
med	-8.64985
▁lämna	-8.65066
stånd	-8.65114
ella	-8.65234
▁länge	-8.65494
stra	-8.65504
▁innehåll	-8.65595
sats	-8.6567
▁dra	-8.65854
öv	-8.65856
▁steg	-8.65887
erad	-8.65974
▁köpa	-8.66002
▁projekt	-8.66109
▁stat	-8.66221
▁förbättra	-8.66365
▁ansvar	-8.66375
▁ca	-8.66772
ty	-8.6678
▁kontroll	-8.66786
▁senare	-8.66815
tiska	-8.66824
▁pa	-8.66929
del	-8.66936
fall	-8.66971
ala	-8.67011
▁ö	-8.67088
▁icke	-8.6728
▁samman	-8.67464
no	-8.67556
▁),	-8.67832
▁sex	-8.67962
▁uppgifter	-8.68065
▁delar	-8.68155
▁Ch	-8.68256
▁råd	-8.6827
▁ändra	-8.6847
▁sa	-8.68513
lag	-8.68523
▁nivå	-8.68567
▁produkt	-8.68644
▁skicka	-8.68713
▁personlig	-8.68806
tter	-8.68881
do	-8.69001
▁alternativ	-8.69024
▁kärlek	-8.69026
▁bor	-8.69191
mma	-8.69424
ud	-8.69641
▁betala	-8.69701
▁do	-8.69705
▁hus	-8.69762
▁miljoner	-8.69774
▁ex	-8.6991
▁fyra	-8.69939
dom	-8.69992
▁året	-8.70061
▁hy	-8.70132
▁tv	-8.70225
ighet	-8.7025
▁Av	-8.70645
▁tog	-8.7072
vär	-8.70794
▁familj	-8.70887
▁gick	-8.70921
met	-8.70923
▁gen	-8.7113
▁material	-8.71361
▁rum	-8.71365
and	-8.71395
▁Även	-8.71443
▁gånger	-8.71778
lev	-8.71778
▁bl	-8.71899
▁handlar	-8.72191
▁w	-8.72191
▁titta	-8.72301
▁välja	-8.72518
tisk	-8.72554
▁on	-8.72854
up	-8.72922
▁punkt	-8.73032
▁ty	-8.73084
satt	-8.73086
▁förlora	-8.73253
ung	-8.73323
▁pl	-8.73323
▁ljus	-8.73353
▁led	-8.73357
▁kunskap	-8.73485
▁tala	-8.7367
▁".	-8.73684
▁Y	-8.7372
▁landet	-8.73777
▁faktiskt	-8.73907
▁började	-8.74037
sikt	-8.74102
sam	-8.74159
▁ko	-8.74181
dag	-8.74203
▁konst	-8.74291
▁11	-8.74322
ki	-8.74334
▁design	-8.74363
▁möte	-8.74427
▁0	-8.74672
▁nog	-8.7502
▁emot	-8.75024
▁rik	-8.7524
▁Pro	-8.75345
▁sade	-8.75477
▁roll	-8.756
▁först	-8.75742
sätt	-8.75788
gar	-8.76067
▁jobb	-8.76118
▁borde	-8.76173
▁veta	-8.76206
▁pris	-8.76244
▁kropp	-8.76406
▁fl	-8.76475
val	-8.76558
▁röst	-8.76692
▁online	-8.76695
▁såg	-8.76966
rar	-8.76985
ken	-8.77145
▁Då	-8.7715
mb	-8.77508
▁bygg	-8.77598
▁bi	-8.77609
gra	-8.77631
▁Sp	-8.77763
kar	-8.77843
▁gången	-8.77847
▁minst	-8.78053
▁kvalitet	-8.78085
▁timmar	-8.78225
▁åtgärder	-8.78405
▁vänner	-8.78598
▁fast	-8.78915
▁styr	-8.7896
▁känna	-8.79161
▁bilder	-8.79231
▁djur	-8.79299
tur	-8.79494
▁egna	-8.80077
▁å	-8.80095
▁läsa	-8.80145
▁båda	-8.80215
lighet	-8.80217
▁dator	-8.80345
bb	-8.80402
▁känd	-8.80443
▁män	-8.80481
ologi	-8.80503
age	-8.80576
▁%	-8.80631
▁the	-8.80647
▁varandra	-8.80665
▁nästa	-8.80679
▁språk	-8.80686
fri	-8.80847
▁sidan	-8.80961
▁fil	-8.80969
▁16	-8.81077
▁Bi	-8.81099
▁funktion	-8.8111
Jag	-8.81153
▁Allt	-8.81202
▁behandla	-8.81225
▁spelar	-8.81233
▁Fa	-8.81257
▁håller	-8.81365
▁tag	-8.81449
tro	-8.81566
▁samla	-8.81636
▁skillnad	-8.81879
▁stort	-8.81956
bel	-8.81976
eri	-8.82115
▁pro	-8.8227
▁Ra	-8.8229
▁erna	-8.82291
▁Si	-8.82605
▁skydd	-8.82718
▁låg	-8.82912
▁tur	-8.83151
▁me	-8.83201
▁precis	-8.8335
▁50	-8.83362
▁driv	-8.83412
by	-8.83429
▁va	-8.83578
▁krav	-8.83609
▁flyg	-8.83805
▁träffa	-8.83871
%	-8.84022
▁produktion	-8.84038
▁lycka	-8.84097
▁Mång	-8.84117
▁ja	-8.84304
▁månader	-8.84442
▁17	-8.8446
▁snabbt	-8.84555
håll	-8.8462
▁He	-8.84626
▁Mar	-8.84806
▁Da	-8.8504
go	-8.85125
▁liten	-8.85206
▁upptäck	-8.8545
▁områden	-8.8557
▁följande	-8.85584
änder	-8.85841
ister	-8.85954
▁svårt	-8.86125
rän	-8.86145
träd	-8.86322
▁visa	-8.86332
ull	-8.86332
lin	-8.86527
▁Lo	-8.86574
▁no	-8.86766
lan	-8.86789
▁ing	-8.86873
ub	-8.86883
▁inga	-8.86931
▁blod	-8.87153
if	-8.87201
▁marknaden	-8.87216
▁staden	-8.87232
▁Go	-8.87268
▁film	-8.87291
▁riktigt	-8.87381
▁13	-8.87394
▁el	-8.87444
stående	-8.87449
aste	-8.8745
▁ytterligare	-8.87586
▁sett	-8.87661
▁erfarenhet	-8.88049
▁medan	-8.88172
▁hjälper	-8.88177
▁natur	-8.88221
▁period	-8.88337
tta	-8.88369
vet	-8.88403
▁innehåller	-8.88557
▁minuter	-8.88836
▁mängd	-8.88911
▁Vä	-8.89114
▁skada	-8.89219
fe	-8.89288
▁Läs	-8.89369
▁rapport	-8.89757
kla	-8.89863
▁slag	-8.8989
▁.”	-8.89928
▁början	-8.89995
▁antal	-8.90017
▁sådan	-8.90103
▁hel	-8.90176
▁forskning	-8.90203
▁New	-8.90205
▁Vill	-8.90239
▁rättigheter	-8.90331
▁prov	-8.90361
▁märk	-8.90438
ativ	-8.90477
▁Upp	-8.90495
▁säkerhet	-8.90618
bil	-8.90746
lös	-8.90756
▁risk	-8.90882
ug	-8.90952
▁kontakt	-8.90957
▁helst	-8.91015
▁14	-8.91142
▁inklusive	-8.91181
▁Wi	-8.91261
▁Z	-8.9137
▁fungerar	-8.91446
▁påverka	-8.91474
▁ren	-8.91529
▁mark	-8.9162
tra	-8.91641
nes	-8.91753
▁hi	-8.91758
rik	-8.91796
ov	-8.91839
▁sådana	-8.91868
▁sista	-8.9189
▁kvinna	-8.92007
▁Mi	-8.92165
▁Do	-8.92265
▁långt	-8.92303
▁vä	-8.92404
▁aktiv	-8.92426
▁al	-8.92445
▁ri	-8.9267
▁viss	-8.92763
▁området	-8.92793
▁25	-8.92831
ök	-8.9284
▁värd	-8.93121
▁sam	-8.93238
▁betyder	-8.93307
▁låt	-8.93407
▁företaget	-8.93511
samma	-8.93653
par	-8.93788
▁gamla	-8.93799
▁y	-8.93818
▁Me	-8.94099
▁förändra	-8.94129
▁berätta	-8.94168
▁tänka	-8.94174
▁skydda	-8.94367
▁månad	-8.94369
▁Vår	-8.94406
tu	-8.94557
vik	-8.94759
ras	-8.94917
▁spelare	-8.94934
▁gillar	-8.95057
▁perfekt	-8.95123
▁situation	-8.9529
▁samtidigt	-8.95373
▁Guds	-8.95692
▁kl	-8.95697
▁vidare	-8.95725
▁politik	-8.95884
slag	-8.95915
▁släpp	-8.9596
og	-8.95985
▁Dr	-8.96017
▁mor	-8.96259
▁haft	-8.96425
led	-8.96435
▁historia	-8.96549
ium	-8.9676
gift	-8.96863
kel	-8.96899
▁•	-8.97059
▁vetenskap	-8.97344
▁blogg	-8.97569
▁skriva	-8.97762
▁villkor	-8.97815
▁ögon	-8.97837
▁kor	-8.98103
▁grupp	-8.98164
▁Pla	-8.98284
▁internationella	-8.98317
▁pass	-8.98477
▁studie	-8.98589
väg	-8.98707
▁användare	-8.98725
▁vem	-8.98775
▁tydlig	-8.98787
▁vinna	-8.9882
▁lägga	-8.98935
▁kultur	-8.99052
eller	-8.99078
▁hantera	-8.99183
uell	-8.99229
▁vilja	-8.99299
ator	-8.99369
▁begränsa	-8.99382
▁Ne	-8.99491
▁verkar	-8.99645
ier	-8.99943
▁verktyg	-8.99987
▁håll	-9.00045
dan	-9.00089
▁ly	-9.00186
▁bär	-9.00211
▁po	-9.00215
ip	-9.003
ien	-9.00331
ca	-9.00405
▁högre	-9.00482
▁förordning	-9.00491
▁tor	-9.00511
vin	-9.00547
▁Elle	-9.00582
▁framför	-9.00648
▁ske	-9.00654
▁mag	-9.00725
fatt	-9.00809
▁Viss	-9.00968
▁säkerhets	-9.00998
ban	-9.01001
▁vanligt	-9.01025
▁Kom	-9.01051
▁någonsin	-9.01063
▁hemma	-9.01257
▁rad	-9.01275
ika	-9.01339
▁organisation	-9.01393
▁privat	-9.01396
▁hotell	-9.01509
▁»	-9.01521
▁världens	-9.01523
▁lik	-9.016
▁hälsa	-9.01663
▁Använd	-9.01691
▁kör	-9.01706
▁for	-9.01748
▁ganska	-9.01802
ard	-9.01818
▁fanns	-9.01857
▁Ju	-9.01913
▁köp	-9.01934
▁”,	-9.01987
▁partner	-9.02026
▁For	-9.02067
▁Jesus	-9.02129
▁lu	-9.02138
kom	-9.02168
▁syfte	-9.02199
▁tack	-9.02226
▁värld	-9.02277
▁100	-9.02312
▁sida	-9.02502
▁tra	-9.02651
far	-9.02679
▁sluta	-9.02836
▁bank	-9.02904
orna	-9.03033
▁användas	-9.0304
▁lån	-9.03049
▁enlighet	-9.03082
▁Vid	-9.03165
▁*	-9.03167
▁nätverk	-9.03199
isering	-9.03267
mor	-9.03349
▁såsom	-9.03648
▁verk	-9.03668
▁bu	-9.03835
▁Å	-9.03987
▁ställ	-9.03989
äst	-9.04043
värd	-9.04152
▁dokument	-9.04276
▁app	-9.044
▁snabb	-9.04415
▁dela	-9.04431
▁bas	-9.04523
▁Ingen	-9.04556
▁video	-9.04673
uk	-9.04676
▁viktig	-9.04835
▁nde	-9.04884
▁Na	-9.04917
▁region	-9.05101
▁makt	-9.05135
▁Seda	-9.05159
▁ålder	-9.05285
▁text	-9.05302
▁uppfyll	-9.05377
▁No	-9.05388
▁flytta	-9.05399
▁sociala	-9.05406
pri	-9.0547
▁uppnå	-9.05512
▁alltså	-9.05666
port	-9.05787
▁Låt	-9.05895
▁version	-9.05932
▁framtid	-9.06104
▁äta	-9.06114
▁total	-9.06163
▁tryck	-9.06332
öm	-9.06348
▁medel	-9.06396
▁miss	-9.06483
▁kväll	-9.06491
▁samarbete	-9.06584
▁via	-9.06612
▁enhet	-9.06689
ku	-9.06764
▁tillgänglig	-9.06825
▁inne	-9.06908
▁område	-9.07088
▁kallas	-9.07135
▁dålig	-9.07184
▁’	-9.07213
▁by	-9.07241
kon	-9.07309
▁kräver	-9.07334
▁förvänta	-9.07617
▁fyll	-9.07621
▁halv	-9.07728
▁ville	-9.07833
▁vägen	-9.07902
▁viktiga	-9.08046
las	-9.08183
▁Genom	-9.0819
▁hä	-9.08244
▁ho	-9.0827
▁webbplats	-9.08333
▁het	-9.08359
▁pi	-9.0847
hand	-9.08527
▁uttryck	-9.08566
▁vänta	-9.08632
▁Ri	-9.08721
▁",	-9.08764
gå	-9.08787
▁pre	-9.08838
stad	-9.08885
▁systemet	-9.08974
▁utanför	-9.09005
▁op	-9.09011
▁Ho	-9.09032
▁San	-9.09107
▁test	-9.09122
▁standard	-9.09234
▁ibland	-9.09237
▁lever	-9.09275
▁krävs	-9.09426
▁ber	-9.09436
▁brott	-9.09704
liv	-9.09711
▁heller	-9.09752
▁Gra	-9.09827
▁parti	-9.09842
▁kroppen	-9.09918
▁års	-9.09962
▁växt	-9.10003
▁svår	-9.10008
▁tillräckligt	-9.1003
▁sjukdom	-9.10079
▁X	-9.10111
känn	-9.10253
ian	-9.10386
▁följa	-9.10409
▁lösning	-9.10442
▁säker	-9.10732
Det	-9.10992
▁anledning	-9.11075
vid	-9.11231
▁mu	-9.11317
yl	-9.11345
▁off	-9.11357
▁kund	-9.11358
▁mät	-9.1136
▁försöker	-9.11382
▁gre	-9.11639
▁döda	-9.11685
▁grad	-9.11827
▁my	-9.11863
▁unik	-9.11867
▁bygga	-9.11933
▁naturlig	-9.11938
▁jorden	-9.11941
▁Vem	-9.11961
▁gi	-9.12223
▁kontrollera	-9.12301
van	-9.12406
▁social	-9.12419
▁mamma	-9.12698
▁sagt	-9.1276
▁lo	-9.1294
▁förmåga	-9.13047
spel	-9.13051
▁leva	-9.13354
ine	-9.13398
▁gräns	-9.13447
▁organ	-9.13449
▁Pri	-9.13529
▁ring	-9.13542
'	-9.13668
fi	-9.13675
▁str	-9.13697
▁telefon	-9.13747
▁Kon	-9.13772
▁extra	-9.13787
fo	-9.13817
▁avtal	-9.13943
▁ändå	-9.13953
▁."	-9.1402
▁Sam	-9.1405
ang	-9.14062
▁sju	-9.14074
▁bäst	-9.14217
▁bro	-9.14306
▁tillstånd	-9.14372
▁läkare	-9.14529
▁konto	-9.1456
ight	-9.14607
▁prata	-9.14617
▁dy	-9.14656
▁förklara	-9.14669
lle	-9.14684
▁vecka	-9.14733
▁40	-9.14803
▁Bu	-9.14857
▁typer	-9.14892
▁affärs	-9.14915
▁vin	-9.14927
▁Dessutom	-9.14979
▁Gu	-9.15176
gan	-9.15308
▁jämför	-9.1538
▁bar	-9.15424
▁Lu	-9.15498
lj	-9.15606
▁slutet	-9.15679
öl	-9.15818
▁bidra	-9.15902
▁kommit	-9.16018
▁fortsätta	-9.16083
▁ton	-9.16311
▁Kina	-9.16341
▁skriver	-9.1668
▁luft	-9.16727
▁fastställ	-9.16804
▁kommissionen	-9.16804
▁Från	-9.17011
▁fortsätter	-9.17011
▁amerikanska	-9.17148
▁Hu	-9.17179
▁djup	-9.17427
▁morgon	-9.17438
▁fi	-9.17446
▁snart	-9.1754
ep	-9.17552
▁Google	-9.17635
▁central	-9.1764
▁intresse	-9.17647
▁beskriv	-9.17655
▁transport	-9.17749
▁ihåg	-9.17949
▁veckor	-9.17949
▁tillväxt	-9.18482
▁tagit	-9.18557
▁beroende	-9.18579
▁böcker	-9.18579
drag	-9.18627
myndighet	-9.18677
▁kalla	-9.18743
▁orsak	-9.18858
▁u	-9.18911
▁orsaka	-9.18935
▁tio	-9.18937
▁hjärta	-9.19099
▁van	-9.19189
▁främst	-9.19213
▁fa	-9.19282
▁träd	-9.19289
▁starta	-9.19322
▁Din	-9.1938
▁post	-9.19579
▁bevis	-9.19678
▁platser	-9.1968
▁24	-9.19778
ong	-9.1978
▁El	-9.19825
▁tänker	-9.19873
råd	-9.19876
ock	-9.19937
▁fysisk	-9.19958
▁lyssna	-9.20065
▁chef	-9.20065
▁glad	-9.20072
▁vikt	-9.20149
▁gratis	-9.20171
▁byggnad	-9.20202
log	-9.20333
▁normal	-9.20385
▁Mat	-9.20407
▁digital	-9.20502
▁försäljning	-9.206
▁Car	-9.20679
▁lokal	-9.20827
▁planera	-9.20839
▁son	-9.20846
kri	-9.21021
▁strategi	-9.21172
▁maskin	-9.21247
▁gav	-9.21387
▁möjligheter	-9.21534
▁match	-9.21546
▁kurs	-9.21582
▁försök	-9.21641
W	-9.21642
▁utför	-9.21652
▁lämplig	-9.22225
▁eget	-9.2224
full	-9.22365
▁gammal	-9.22553
▁positiv	-9.22553
▁Tack	-9.22606
▁föräldrar	-9.22609
▁marknads	-9.22614
▁effekt	-9.22849
▁Fi	-9.22856
▁universitet	-9.23213
▁frågan	-9.23221
▁hoppas	-9.2326
cy	-9.23287
▁gärn	-9.2337
▁åren	-9.2362
▁j	-9.23686
till	-9.24028
▁rörelse	-9.24039
▁lösningar	-9.24242
▁enkla	-9.24257
ny	-9.24329
▁akt	-9.24347
▁hund	-9.24388
▁krig	-9.24475
▁Po	-9.24807
lor	-9.24854
utom	-9.24865
▁personal	-9.24914
elsen	-9.25133
▁medlemmar	-9.25245
▁Su	-9.25352
len	-9.2559
▁Con	-9.25652
▁medlem	-9.25657
▁upplevelse	-9.25671
▁väljer	-9.25789
▁kul	-9.25838
mit	-9.26006
▁serie	-9.26042
▁anti	-9.26043
▁stäng	-9.26268
▁bakom	-9.26279
lock	-9.26299
▁ekonomiska	-9.26305
▁Israel	-9.2635
nter	-9.26384
▁ute	-9.26543
▁to	-9.26663
▁Mer	-9.26683
▁internationell	-9.26722
▁Hel	-9.26806
▁producera	-9.26807
▁Pe	-9.2699
che	-9.26994
▁kommunikation	-9.27036
EG	-9.27286
▁veckan	-9.27291
▁berg	-9.2733
▁hopp	-9.274
▁Europeiska	-9.27611
▁Ge	-9.27694
▁framtiden	-9.2772
jö	-9.27722
▁följer	-9.27878
▁All	-9.28052
fin	-9.2813
▁ram	-9.28186
▁Fo	-9.28188
▁spara	-9.28236
▁So	-9.28305
▁princip	-9.28305
system	-9.28331
ph	-9.28337
▁tal	-9.28375
▁låter	-9.28395
▁låta	-9.28412
▁behövs	-9.28421
▁läkemedel	-9.28537
▁service	-9.28654
▁egentligen	-9.28655
▁säkert	-9.28867
▁fly	-9.29035
▁gott	-9.29155
ori	-9.29184
▁gått	-9.29185
▁fan	-9.29342
bart	-9.29349
▁läge	-9.29488
▁gift	-9.29491
▁stanna	-9.29599
▁baserad	-9.29638
▁spår	-9.297
▁användar	-9.29733
▁ekonomi	-9.29752
▁Tänk	-9.29826
▁förhållande	-9.29939
▁publicera	-9.30061
▁skolan	-9.30277
▁Ty	-9.30355
▁behöva	-9.30416
▁direktiv	-9.30422
▁slå	-9.30444
let	-9.30518
▁mobil	-9.30583
▁vård	-9.3062
▁tillfälle	-9.30774
▁(1	-9.30857
▁istället	-9.3087
▁betalning	-9.30883
▁fungera	-9.30888
▁bestäm	-9.30934
▁hälso	-9.30967
▁kapital	-9.31251
▁chans	-9.31391
▁bry	-9.31398
▁stör	-9.31481
▁hot	-9.31508
▁äldre	-9.31609
▁bri	-9.31662
▁Idag	-9.31674
▁Över	-9.31687
▁funktioner	-9.31782
▁ning	-9.31906
▁studier	-9.31982
▁rädda	-9.321
▁finnas	-9.32358
▁nationella	-9.32359
gående	-9.32365
anska	-9.32444
▁ovan	-9.32665
▁struktur	-9.32694
▁favorit	-9.32816
▁räkna	-9.32816
▁liknande	-9.32818
upp	-9.32837
▁leverera	-9.32854
▁hud	-9.32994
▁medlemsstat	-9.3305
▁våld	-9.33059
▁Ny	-9.3311
du	-9.33118
▁]	-9.3319
▁utgör	-9.33206
▁president	-9.33425
▁z	-9.33434
▁skapar	-9.33508
fl	-9.33625
▁ifrån	-9.33756
form	-9.33773
▁storlek	-9.33939
▁Or	-9.34195
vänd	-9.34276
▁tillgängliga	-9.34336
▁sommar	-9.34339
▁världs	-9.34357
▁trots	-9.34475
▁stil	-9.34605
▁goda	-9.34682
▁topp	-9.34719
▁svenska	-9.34859
▁tri	-9.34926
he	-9.34994
▁Ad	-9.35067
▁Par	-9.35085
▁tillämpa	-9.3515
▁Pre	-9.35152
▁närheten	-9.35168
mon	-9.35201
▁Kr	-9.35266
▁patienter	-9.35346
▁säkra	-9.35404
▁bred	-9.35418
▁Hi	-9.35421
▁leda	-9.35459
▁förstår	-9.35469
▁samhället	-9.35505
▁John	-9.35526
▁länk	-9.35527
▁Ä	-9.35552
▁ru	-9.3556
syn	-9.35568
▁lösa	-9.35713
▁mil	-9.35714
▁grupper	-9.3584
▁känsla	-9.35899
▁60	-9.35902
▁motor	-9.35988
emot	-9.36195
▁politiska	-9.36279
▁linje	-9.36285
sel	-9.36303
▁igenom	-9.36308
ress	-9.36354
▁mörk	-9.36417
rakt	-9.36442
▁säkerställa	-9.36511
▁cha	-9.36558
teckna	-9.36731
▁kring	-9.3675
▁klart	-9.36903
▁Mu	-9.36928
▁Nästa	-9.37036
▁kostnad	-9.37055
▁människa	-9.37086
▁personuppgifter	-9.37166
▁Bra	-9.37212
▁ne	-9.37245
▁lista	-9.37286
▁sjö	-9.37318
▁minne	-9.37326
▁polis	-9.37346
yss	-9.37447
▁skol	-9.37461
som	-9.37509
▁mö	-9.37677
▁samband	-9.37795
▁Ste	-9.38012
▁lov	-9.38043
▁samhälle	-9.3807
▁domstol	-9.38199
anske	-9.38243
▁expert	-9.38307
▁aktie	-9.38414
Vi	-9.38416
ära	-9.38438
▁21	-9.3847
▁förändringar	-9.38473
▁viktigaste	-9.38486
▁Ö	-9.38533
ity	-9.38608
▁analys	-9.38633
gon	-9.38695
▁förslag	-9.38836
▁svart	-9.38897
▁trans	-9.38978
▁dröm	-9.39061
▁avsluta	-9.39072
▁nämn	-9.39157
▁Pi	-9.39249
ou	-9.39265
▁skäl	-9.39484
▁meddelande	-9.39568
▁tanke	-9.39582
▁kostnader	-9.39707
▁kar	-9.39969
▁kn	-9.40001
▁Ti	-9.40141
▁boken	-9.40174
▁tänk	-9.402
▁säsong	-9.4025
komst	-9.40328
▁studenter	-9.40566
▁förbered	-9.40645
▁delta	-9.40726
▁spelet	-9.40731
▁investera	-9.40775
män	-9.40778
▁ledare	-9.40783
▁+	-9.40923
▁erbjuda	-9.41029
▁identifiera	-9.41038
▁stark	-9.41038
▁cirka	-9.41038
ndra	-9.41069
lik	-9.41255
▁ljud	-9.41303
▁träning	-9.41308
▁högt	-9.41412
▁mening	-9.41498
▁undersökning	-9.41508
▁exakt	-9.41571
▁start	-9.41616
▁allvarlig	-9.41701
▁200	-9.41706
▁hamn	-9.41869
istiska	-9.4187
▁sök	-9.41933
▁lokala	-9.42084
▁inre	-9.42139
▁registrera	-9.42231
▁nödvändig	-9.42249
▁maj	-9.42251
▁hållbar	-9.42314
▁Tro	-9.4242
▁högsta	-9.42495
▁rådet	-9.425
20	-9.4256
▁anställda	-9.42588
▁anpassa	-9.42633
▁omkring	-9.42636
▁fort	-9.42694
▁underhåll	-9.42714
▁Fl	-9.42729
plan	-9.42761
ial	-9.42777
ance	-9.42862
▁vinst	-9.43022
▁fantastisk	-9.43142
▁sätta	-9.43151
▁$	-9.43198
▁Res	-9.43249
▁Kar	-9.43263
▁2018	-9.43305
▁sälj	-9.43354
▁kände	-9.43436
▁fordon	-9.43576
göra	-9.43628
▁försöka	-9.43658
▁mänskliga	-9.43784
▁frukt	-9.43786
▁ad	-9.43917
▁Finn	-9.4397
▁presentera	-9.44088
▁knapp	-9.4412
kul	-9.44157
▁sättet	-9.44229
▁undvika	-9.44253
▁kommun	-9.44254
▁sälja	-9.44344
▁påverkar	-9.44391
▁ungefär	-9.44391
▁Tre	-9.44438
▁grön	-9.44528
▁känns	-9.44547
▁leder	-9.4459
▁bit	-9.44624
▁ben	-9.44654
▁konsument	-9.44662
com	-9.44666
▁År	-9.44724
▁Stor	-9.4491
post	-9.44942
▁risker	-9.4504
▁log	-9.45051
▁skriv	-9.45074
▁vanliga	-9.45191
▁grundläggande	-9.45211
▁internet	-9.45214
▁brist	-9.45339
punkt	-9.45383
▁tjäna	-9.45389
▁allmänhet	-9.45415
▁nödvändigt	-9.45468
nnan	-9.45475
▁dags	-9.45891
▁fokusera	-9.46002
▁programmet	-9.46093
▁mon	-9.46128
▁klimat	-9.46194
▁bet	-9.46242
▁höra	-9.46264
▁tillverka	-9.46377
kraft	-9.4643
▁vackra	-9.46456
▁Ska	-9.46521
one	-9.46522
▁ry	-9.46561
▁Gör	-9.46628
▁Pol	-9.46679
▁enheter	-9.46813
▁cell	-9.46838
▁dollar	-9.46875
▁antalet	-9.46892
▁delen	-9.46951
▁Cha	-9.46984
▁ställe	-9.47143
▁metod	-9.47269
▁ihop	-9.47304
▁tillhör	-9.47431
▁oavsett	-9.47504
▁består	-9.47575
▁koppla	-9.47578
▁plattform	-9.47579
▁författare	-9.47582
▁lös	-9.47594
▁sprid	-9.47619
ive	-9.47647
▁rädd	-9.47706
▁unga	-9.47712
▁arbetet	-9.47891
▁klar	-9.47934
▁följd	-9.48092
▁huset	-9.48118
▁stället	-9.48152
▁organisationer	-9.48223
medel	-9.48247
ect	-9.48261
X	-9.48268
▁individ	-9.48269
▁metoder	-9.48309
▁försvar	-9.48393
▁unionen	-9.48423
▁närvarande	-9.48424
▁modell	-9.48476
▁butik	-9.48567
▁regeringen	-9.48797
sten	-9.48801
▁webb	-9.48845
▁framgång	-9.4885
▁häst	-9.48935
▁process	-9.48954
▁europeiska	-9.4896
▁Kommer	-9.49004
▁bolag	-9.49077
▁sådant	-9.4909
▁2015	-9.49136
stol	-9.49238
▁Finland	-9.49294
▁band	-9.49343
▁bak	-9.49396
▁mi	-9.49401
▁acceptera	-9.49709
▁ande	-9.49817
▁främja	-9.49853
▁ras	-9.49936
▁medicin	-9.49978
stre	-9.49988
uff	-9.50085
▁anges	-9.50088
▁fred	-9.50112
▁2016	-9.50141
ländsk	-9.50144
▁offentlig	-9.50252
▁ej	-9.50278
cc	-9.50306
▁betydelse	-9.5043
▁drabba	-9.50436
▁nummer	-9.50553
▁ekonomisk	-9.50559
▁uppenbar	-9.50617
▁skrev	-9.50722
▁2017	-9.50866
rum	-9.50872
▁klä	-9.50933
▁intressant	-9.51011
▁ledning	-9.51111
ifiera	-9.51121
▁trä	-9.51188
▁!!	-9.5122
▁Windows	-9.51303
▁—	-9.51304
▁lägenhet	-9.51304
▁visade	-9.51315
▁kung	-9.51319
▁Spel	-9.51322
gu	-9.51454
▁omfatta	-9.51462
▁förändring	-9.51493
▁We	-9.51565
▁utrustning	-9.51596
▁fu	-9.5179
▁söker	-9.51919
Y	-9.52045
▁fortsatt	-9.52055
▁speciellt	-9.5207
▁gl	-9.52174
we	-9.52176
▁redo	-9.5222
▁bekväm	-9.52331
▁sidor	-9.52369
▁special	-9.52456
▁Eftersom	-9.52503
▁lön	-9.52561
▁And	-9.52624
program	-9.52639
▁natt	-9.52687
▁euro	-9.52802
▁arna	-9.52817
▁position	-9.52858
▁tecken	-9.52927
▁Je	-9.53028
▁port	-9.53079
▁kontor	-9.53247
▁Enlig	-9.53329
▁team	-9.53352
▁professionell	-9.53668
▁engelska	-9.5367
▁obe	-9.53887
▁utvecklingen	-9.54193
ugg	-9.54211
kning	-9.54229
▁nuvarande	-9.54269
▁Först	-9.5429
▁global	-9.54313
▁ledande	-9.54385
▁Ex	-9.54409
▁karriär	-9.54419
▁objekt	-9.54419
▁restaurang	-9.54419
▁varumärke	-9.54419
▁talar	-9.54426
▁ung	-9.54541
nu	-9.54541
▁>	-9.54649
▁part	-9.54681
▁fatta	-9.54703
▁dö	-9.5471
ish	-9.54782
▁uppdrag	-9.54792
▁dans	-9.54838
▁Th	-9.54962
▁rekommendera	-9.54975
▁regel	-9.55078
▁barnen	-9.55088
▁forsknings	-9.55106
▁Än	-9.55123
▁1,	-9.55141
▁TV	-9.55166
▁York	-9.55176
▁förfarande	-9.55179
▁kolla	-9.55193
hus	-9.55467
ley	-9.55618
▁fördelar	-9.55618
▁fullt	-9.55641
▁namnet	-9.55649
▁skog	-9.55782
▁2014	-9.55785
▁värme	-9.55801
▁dessutom	-9.55831
▁gemenskap	-9.55938
▁Dag	-9.5597
▁familjen	-9.56034
▁kommentar	-9.56092
liksom	-9.56212
▁städer	-9.56245
▁militär	-9.56245
▁livsmedel	-9.56246
▁rå	-9.56305
▁park	-9.56323
emi	-9.56342
▁studera	-9.56399
▁skilj	-9.56404
▁gud	-9.56431
▁Barn	-9.56476
▁frihet	-9.56532
▁traditionell	-9.56588
givare	-9.56705
vel	-9.56747
▁aktiviteter	-9.56749
▁term	-9.56861
▁förhindra	-9.57015
▁testa	-9.57017
▁am	-9.57035
▁Storbritannien	-9.5717
▁uppgift	-9.57197
▁blå	-9.57221
▁december	-9.57325
▁ingenting	-9.57337
▁förlust	-9.57347
▁Mark	-9.57359
▁Ko	-9.57398
▁verklighet	-9.57398
▁juni	-9.57422
▁reda	-9.57468
▁Facebook	-9.5748
▁mars	-9.57538
hu	-9.57625
▁sker	-9.57641
▁höga	-9.57732
▁negativ	-9.57791
▁lugn	-9.57809
▁visas	-9.57815
▁framgångsrik	-9.57948
▁Sc	-9.58029
▁tekniska	-9.58037
▁dotter	-9.58144
’	-9.58149
▁anta	-9.58195
▁Fråga	-9.5826
▁utnyttja	-9.5826
ifrån	-9.58306
▁ämne	-9.58376
▁ladda	-9.58421
▁nivåer	-9.58435
our	-9.58611
▁befolkning	-9.58671
▁alls	-9.58683
▁relevant	-9.58731
▁tjej	-9.58732
▁Herren	-9.58733
▁ökar	-9.58788
olv	-9.58848
▁vita	-9.58878
▁fokus	-9.5893
▁Kor	-9.59013
▁anslut	-9.59027
▁Park	-9.59035
▁karaktär	-9.59046
▁sjuk	-9.5915
▁Mon	-9.59186
▁Stockholm	-9.59204
▁fo	-9.59337
▁22	-9.59433
▁ursprung	-9.59443
▁Tyskland	-9.59521
▁installera	-9.59521
▁nöjd	-9.59527
område	-9.59593
ER	-9.59653
▁bestämmelser	-9.5968
▁antingen	-9.59681
▁människan	-9.59772
▁katt	-9.59822
teckning	-9.59864
▁anläggning	-9.59871
▁Mari	-9.59876
▁sport	-9.59887
▁handel	-9.59926
▁Ryssland	-9.59998
▁Andra	-9.60108
▁forskare	-9.60225
mmer	-9.60284
▁lilla	-9.60322
▁trafik	-9.60482
▁cent	-9.60496
▁intresserad	-9.6053
▁Ac	-9.60722
▁nr	-9.60766
rop	-9.60772
▁fullständig	-9.60798
▁älska	-9.60862
▁fält	-9.60964
▁någonting	-9.60982
▁cancer	-9.60988
▁regering	-9.6102
▁placera	-9.6112
▁ingår	-9.61206
▁berättelse	-9.61282
▁rapportera	-9.6131
▁sten	-9.61365
▁våg	-9.61448
▁modern	-9.61457
▁beror	-9.61573
▁absolut	-9.61604
▁inlägg	-9.61604
▁mån	-9.61613
mera	-9.6165
▁handla	-9.6165
▁underbar	-9.61792
▁Tra	-9.61796
▁poäng	-9.61808
▁Euro	-9.61916
▁förstör	-9.61923
lopp	-9.61991
▁revolution	-9.62091
▁London	-9.62254
▁lagstiftning	-9.62254
▁ansvarig	-9.62399
▁kategori	-9.62417
▁2013	-9.62417
▁utforma	-9.62447
▁fas	-9.62478
▁bio	-9.62516
▁lärare	-9.62609
▁visste	-9.62658
▁fånga	-9.62805
▁jul	-9.62888
▁budget	-9.62909
▁allmän	-9.62966
▁riktig	-9.62972
▁fördel	-9.62978
▁kläder	-9.63002
▁processen	-9.63033
▁officiell	-9.63072
▁följ	-9.63191
▁Internet	-9.63237
▁ström	-9.63261
▁klara	-9.63308
▁januari	-9.63402
▁anser	-9.63414
▁#	-9.63608
▁Ph	-9.63609
fattande	-9.6361
▁väst	-9.63632
▁lägre	-9.63732
▁Ru	-9.63781
▁fru	-9.63798
▁idé	-9.6384
▁försäkring	-9.639
▁längs	-9.63913
mål	-9.63936
▁lagen	-9.63948
▁speciell	-9.64026
istisk	-9.64049
▁generation	-9.64066
▁gemensam	-9.64167
▁barnet	-9.64171
▁fisk	-9.64185
▁ensam	-9.64227
▁träna	-9.64229
▁Hoppa	-9.64232
vo	-9.64332
▁extrem	-9.64396
▁utföra	-9.64508
▁september	-9.64563
▁heter	-9.64617
▁gälla	-9.6481
▁beteende	-9.64897
▁tvinga	-9.64945
▁ansikte	-9.64947
▁ställa	-9.64957
▁Få	-9.65034
▁Person	-9.65068
J	-9.65151
▁globala	-9.65183
▁tips	-9.6524
▁nät	-9.6539
▁vacker	-9.65403
▁stress	-9.65421
▁scen	-9.65431
▁rök	-9.65518
▁själ	-9.65562
▁balans	-9.65569
▁Op	-9.65623
EN	-9.65736
▁tillhandahåll	-9.65841
▁Följ	-9.65906
▁casino	-9.65906
▁trädgård	-9.65906
▁kost	-9.65907
▁tankar	-9.6591
▁medlemsstaterna	-9.65919
▁70	-9.6593
▁anses	-9.65933
▁glas	-9.65937
▁ban	-9.66103
▁Nord	-9.66126
▁drog	-9.6625
▁ab	-9.66292
olog	-9.663
▁må	-9.663
▁23	-9.66399
▁marknadsföring	-9.66414
▁massa	-9.66543
▁bidrag	-9.66587
▁centrum	-9.66593
of	-9.66643
cu	-9.66677
▁AB	-9.66687
▁kämpa	-9.66755
▁bruk	-9.66757
▁Bara	-9.66808
▁strid	-9.66851
▁bilden	-9.67049
▁utmärkt	-9.67244
▁filmen	-9.67324
▁lägger	-9.67421
▁garantera	-9.67611
▁njuta	-9.67621
uropaparlamentet	-9.67783
▁trygg	-9.67783
▁leta	-9.67816
▁ämnen	-9.67828
▁helg	-9.67843
▁kallade	-9.67891
▁egenskaper	-9.67961
▁starka	-9.68092
Några	-9.68141
▁gemensamma	-9.68194
▁Våra	-9.68271
▁kredit	-9.68301
▁David	-9.68329
part	-9.68354
▁webbplatsen	-9.68407
▁berättar	-9.68425
▁hundra	-9.68459
▁havet	-9.68467
▁begär	-9.68479
▁motsvara	-9.68483
vig	-9.68533
▁anställ	-9.68533
▁80	-9.68595
▁effekter	-9.68628
▁27	-9.68818
▁projektet	-9.68836
▁Star	-9.6886
▁jobba	-9.68962
▁avseende	-9.68997
▁levande	-9.69008
ice	-9.6903
▁Bri	-9.69165
▁klubb	-9.69184
▁avses	-9.69241
skydd	-9.69289
▁bekräfta	-9.69346
▁tävling	-9.69346
▁uppdatera	-9.69347
ycket	-9.69351
▁förhållanden	-9.69355
▁bön	-9.69358
▁kyrkan	-9.69457
▁miljarder	-9.69521
▁Ibland	-9.69521
▁undersök	-9.69606
▁korrekt	-9.69698
▁fotograf	-9.69698
▁effektivt	-9.69795
▁Ki	-9.69845
▁öppen	-9.69874
▁2010	-9.69894
▁genomföra	-9.69958
nge	-9.69961
▁känslor	-9.70048
▁utrymme	-9.70048
bin	-9.70064
hör	-9.70077
▁II	-9.70164
▁erbjudande	-9.70236
▁institution	-9.70334
▁Val	-9.70347
▁avsnitt	-9.70349
▁Mac	-9.70393
▁af	-9.7044
▁kris	-9.7049
▁90	-9.70529
▁Två	-9.7059
▁jord	-9.7067
▁åka	-9.70672
▁Qu	-9.70713
▁lämnar	-9.7085
▁bad	-9.70876
▁stolt	-9.7095
▁affär	-9.7101
▁trodde	-9.71121
▁priset	-9.7118
▁meter	-9.71217
▁2012	-9.71289
▁stabil	-9.7129
▁pe	-9.71472
▁vanlig	-9.71516
▁paket	-9.71653
▁500	-9.71801
▁aktivitet	-9.71853
▁säng	-9.71929
▁gal	-9.71982
▁kontakta	-9.72017
▁medier	-9.72039
▁ägare	-9.72108
▁webbplatser	-9.72161
▁önska	-9.72181
▁pol	-9.72362
▁ändamål	-9.72366
▁önskar	-9.72425
▁vänd	-9.72433
▁:)	-9.72447
▁skuld	-9.72585
▁resurser	-9.7263
▁meddela	-9.72731
▁priser	-9.72789
▁specifika	-9.72792
ual	-9.72799
ubb	-9.7281
▁FN	-9.72858
▁University	-9.72908
▁enkel	-9.73064
▁tillämpning	-9.7309
▁lycklig	-9.73093
▁gruppen	-9.73128
▁Ku	-9.73136
chi	-9.73163
▁smak	-9.73166
▁visat	-9.73276
▁äter	-9.73308
▁båt	-9.73336
▁häng	-9.73343
▁Bro	-9.73385
▁kol	-9.73395
▁Gre	-9.73403
▁Frankrike	-9.73453
▁annorlunda	-9.73453
▁oktober	-9.73453
▁praktisk	-9.73455
▁28	-9.7347
▁oberoende	-9.73636
▁jätte	-9.73636
▁km	-9.73672
▁förvärv	-9.73693
▁are	-9.73719
▁näm	-9.73792
▁spännande	-9.73819
▁Håll	-9.73819
▁stig	-9.73834
bruk	-9.73842
▁skärm	-9.73848
▁Gi	-9.74086
▁smärta	-9.74095
▁jäm	-9.74125
▁rese	-9.74155
pro	-9.7417
▁kombination	-9.74185
▁yttr	-9.74212
givning	-9.74217
▁medicinsk	-9.7422
▁kap	-9.74254
▁Hotell	-9.74297
▁bilar	-9.74617
▁strand	-9.74674
▁kombinera	-9.74738
▁26	-9.74743
ction	-9.74747
▁flygplats	-9.7475
▁relation	-9.74897
▁36	-9.74965
lapp	-9.74986
▁kreativ	-9.75108
▁pappa	-9.75115
▁agera	-9.7513
ble	-9.75215
▁skatte	-9.75283
▁styrelse	-9.75299
▁artiklar	-9.75479
▁avslöja	-9.75479
▁Trots	-9.75553
tyr	-9.75643
▁föremål	-9.75711
▁gas	-9.75735
▁Sha	-9.75824
▁använde	-9.75829
▁datum	-9.75853
▁tidigt	-9.75854
▁höll	-9.75876
▁källa	-9.75919
▁stund	-9.75928
▁produkten	-9.75986
▁stärk	-9.76042
▁undantag	-9.76057
▁ungdom	-9.76061
▁detaljer	-9.76071
▁undra	-9.76105
▁sinne	-9.76109
▁ordning	-9.76127
▁folket	-9.76166
▁industri	-9.76167
▁ok	-9.76219
▁offentliga	-9.76458
▁drag	-9.7651
▁lek	-9.76542
▁finansiella	-9.76567
▁Nya	-9.76669
▁myndigheter	-9.76791
▁handling	-9.77298
▁sort	-9.77344
AR	-9.77367
▁fallet	-9.77383
bolag	-9.77416
▁bin	-9.77424
▁familje	-9.77472
▁inkluderar	-9.77477
▁mun	-9.77483
▁inspirera	-9.77547
▁röd	-9.77574
▁kommande	-9.77619
▁bygger	-9.77793
▁Com	-9.77817
mission	-9.77825
▁mannen	-9.77887
▁politisk	-9.77921
▁bolaget	-9.77947
▁hav	-9.78013
▁block	-9.78056
▁kärn	-9.78067
lim	-9.78107
▁innovation	-9.78118
▁personen	-9.78165
▁fot	-9.78206
delning	-9.78314
▁fastighet	-9.78355
▁kamp	-9.78381
▁effektiv	-9.78407
▁?”	-9.78436
▁handels	-9.78439
▁elever	-9.78551
▁Au	-9.78573
▁sekund	-9.78695
▁Vet	-9.78766
vil	-9.78884
lösa	-9.78894
▁leverans	-9.78899
▁uppskatta	-9.78911
▁foto	-9.78939
▁planet	-9.78939
▁motstånd	-9.78959
▁Dom	-9.78974
▁söka	-9.78982
▁diskutera	-9.79078
▁?"	-9.79083
▁fantastiska	-9.79118
Ä	-9.79269
▁patient	-9.79354
▁vuxna	-9.79465
▁beakta	-9.79489
▁synd	-9.79492
▁Fram	-9.79762
▁ansök	-9.79876
▁bedömning	-9.79883
▁jobbet	-9.79931
ektor	-9.79962
50	-9.79968
▁Apple	-9.80048
▁Mil	-9.80081
▁hjärt	-9.80082
▁Gå	-9.80117
▁samtal	-9.80172
▁använt	-9.80242
▁semester	-9.80242
▁religion	-9.80242
▁2011	-9.80437
▁hemsida	-9.80439
▁snabbare	-9.80502
▁fransk	-9.80577
▁2019	-9.80633
▁medveten	-9.80657
▁höj	-9.80658
▁definiera	-9.80829
▁bröd	-9.80829
▁nyckel	-9.8083
▁hantering	-9.80861
▁smart	-9.80875
▁ökad	-9.80935
▁kompetens	-9.81026
▁licens	-9.81026
▁kaffe	-9.81029
▁färdig	-9.81039
▁(2	-9.81082
▁Del	-9.81166
▁integrera	-9.81227
;	-9.81233
slut	-9.8124
▁Air	-9.81291
▁populära	-9.81462
▁nedan	-9.81467
kaffa	-9.8148
▁staten	-9.81673
▁inled	-9.81726
▁go	-9.81738
▁stödja	-9.81775
▁åtminstone	-9.81815
▁vapen	-9.81821
▁verkliga	-9.81864
▁hjärtat	-9.81993
▁spendera	-9.82214
▁löp	-9.82214
▁sexuell	-9.82253
IN	-9.82342
▁alkohol	-9.82412
årig	-9.82431
▁investering	-9.82439
▁brukar	-9.82446
▁natten	-9.82495
▁grä	-9.8262
tagande	-9.8273
pati	-9.82784
▁tåg	-9.82819
▁gett	-9.82963
▁Just	-9.83014
▁hämta	-9.83015
▁guld	-9.83016
▁svag	-9.8306
mu	-9.83163
10	-9.8317
▁stod	-9.83174
▁skjut	-9.83219
▁höjd	-9.83285
▁utom	-9.83337
▁vägg	-9.83461
avsett	-9.83592
▁variera	-9.83601
▁My	-9.83691
ändig	-9.83712
▁instrument	-9.83714
▁köra	-9.83734
▁kasta	-9.83753
▁fira	-9.8376
▁drift	-9.83818
▁otrolig	-9.83825
▁döm	-9.83861
▁tillhandahålla	-9.83895
zz	-9.83907
▁idéer	-9.83912
▁inkomst	-9.83916
▁lagar	-9.83924
ham	-9.83948
▁konstnär	-9.84021
▁brev	-9.84036
▁sjukdomar	-9.84089
▁omedelbart	-9.84182
▁baserat	-9.8423
▁känt	-9.84237
▁press	-9.8428
▁Samma	-9.84307
▁Chi	-9.84427
▁särskilda	-9.84606
▁händelse	-9.84608
▁reaktion	-9.84634
färd	-9.84645
▁Col	-9.84678
▁ön	-9.84695
▁nyligen	-9.84705
▁växa	-9.84732
▁moderna	-9.84823
▁fotboll	-9.84834
▁komplex	-9.84834
▁handlingar	-9.84839
▁2009	-9.84895
▁sann	-9.84903
▁ki	-9.84933
ther	-9.84999
▁Någon	-9.85038
▁växer	-9.85041
▁nation	-9.85158
▁förståelse	-9.85163
▁Paul	-9.85258
stin	-9.85283
▁potentiell	-9.85448
▁ständigt	-9.85449
▁tillägg	-9.85467
▁2008	-9.85512
▁Fler	-9.85612
ram	-9.85623
▁övriga	-9.85654
▁skador	-9.85721
▁vänlig	-9.85948
borg	-9.85974
▁förbjud	-9.86067
▁pension	-9.86067
▁allmänna	-9.86143
lf	-9.86251
▁anmäl	-9.86275
▁händelser	-9.86298
ordning	-9.86312
kro	-9.86337
▁belopp	-9.86388
▁glöm	-9.86432
▁kök	-9.86462
▁batteri	-9.86481
▁historien	-9.86481
▁perspektiv	-9.86481
▁resten	-9.86594
▁konferens	-9.86689
▁kampanj	-9.8669
▁recept	-9.8669
▁terror	-9.86691
▁klicka	-9.86705
▁kön	-9.86739
wi	-9.86854
▁bedöm	-9.86877
▁leverantör	-9.86888
▁november	-9.86898
▁tom	-9.86927
▁sång	-9.871
▁publik	-9.87107
▁beräkna	-9.87107
▁april	-9.87107
qu	-9.87182
▁hände	-9.87215
▁Uni	-9.87276
▁styrka	-9.87499
▁glädje	-9.87525
▁straff	-9.87528
▁kod	-9.87588
▁tänkte	-9.87697
arbeta	-9.87732
▁Slut	-9.87754
IS	-9.87762
▁Nej	-9.87793
▁enorm	-9.87818
▁köper	-9.87851
▁specifik	-9.8787
▁kär	-9.87888
▁Samtidig	-9.87947
▁Känn	-9.87968
▁behålla	-9.87984
▁kamera	-9.87985
▁Fin	-9.88019
▁risken	-9.88038
▁super	-9.88193
▁industrin	-9.88223
▁Q	-9.88352
▁möjliga	-9.88382
▁faktorer	-9.88423
▁tillverkare	-9.88447
▁resultatet	-9.88456
▁dör	-9.88515
fil	-9.88527
▁finansiering	-9.8858
▁bonus	-9.88586
▁sjukhus	-9.8859
▁problemet	-9.88621
▁intervju	-9.88793
▁temperatur	-9.88793
▁förvaltning	-9.88793
▁hända	-9.88797
▁tillverkning	-9.888
▁kallar	-9.88825
▁juli	-9.88842
▁starkt	-9.88855
▁befinn	-9.89224
▁mikro	-9.89227
▁profil	-9.89234
▁Sol	-9.89282
ES	-9.89297
▁fett	-9.89344
▁bevara	-9.89367
▁utöva	-9.894
▁sömn	-9.89455
▁lyft	-9.89498
▁stycke	-9.89536
▁Svar	-9.89572
▁uppleva	-9.89657
▁miljon	-9.89723
vor	-9.89798
▁symbol	-9.89861
▁You	-9.89956
▁framåt	-9.90065
▁snö	-9.90092
▁Första	-9.90234
▁stoppa	-9.90247
grupp	-9.90362
▁öst	-9.90384
▁hittade	-9.90497
▁hindra	-9.90531
konto	-9.90542
Q	-9.90576
▁miljön	-9.90634
väl	-9.90635
▁vattnet	-9.90724
▁timme	-9.90732
▁wi	-9.90767
cent	-9.90769
▁leverantörer	-9.90861
▁server	-9.90895
▁föd	-9.90924
▁Välj	-9.90972
▁lättare	-9.91004
▁frågade	-9.91058
▁Mal	-9.91083
▁vinter	-9.91114
▁ordet	-9.91143
▁35	-9.91144
▁Trump	-9.91159
▁multi	-9.91159
▁Wal	-9.9119
▁automat	-9.91215
▁teori	-9.91222
▁sky	-9.91223
▁lagra	-9.91228
▁tung	-9.91274
▁omfattar	-9.91277
▁känslig	-9.91377
▁relationer	-9.91408
▁Live	-9.91524
▁Microsoft	-9.91594
aktig	-9.91595
▁avgörande	-9.91596
▁passar	-9.9166
▁rekommenderar	-9.91665
snitt	-9.91697
▁=	-9.91719
▁hänsyn	-9.91813
▁present	-9.91862
▁vänster	-9.91903
▁roman	-9.91917
▁bakgrund	-9.92033
▁betydande	-9.92033
▁uppmuntra	-9.92033
▁stöt	-9.92053
▁jordbruk	-9.9226
▁född	-9.92272
▁Fri	-9.92385
▁betal	-9.92393
▁31	-9.92457
▁kapacitet	-9.92473
▁skapade	-9.92543
▁Hög	-9.92547
▁medborgare	-9.92694
▁utsikt	-9.92761
▁nätet	-9.92833
▁dog	-9.9287
▁aspekt	-9.92915
▁ordförande	-9.92915
▁guide	-9.92916
▁närmare	-9.92927
▁ökning	-9.92953
▁regn	-9.92966
▁Skull	-9.93085
▁investeringar	-9.93106
▁sanningen	-9.93139
▁kristna	-9.93147
▁Japan	-9.9315
▁sköt	-9.93168
▁etablera	-9.93359
▁betrakta	-9.93361
AN	-9.9339
▁rygg	-9.93398
▁oftast	-9.93431
tjänst	-9.93446
▁äventyr	-9.93461
▁Sw	-9.93695
▁norr	-9.93772
▁kall	-9.93775
▁trött	-9.93805
▁papper	-9.93807
▁Nor	-9.93896
way	-9.94026
▁marknad	-9.94077
▁sträck	-9.94087
ture	-9.94128
▁historiska	-9.94149
▁fartyg	-9.94253
▁skatt	-9.94271
▁effektiva	-9.94291
plats	-9.94298
▁Paris	-9.94334
▁processer	-9.94379
▁beställ	-9.94452
▁ange	-9.94476
▁intressen	-9.94604
▁yrkes	-9.94676
▁Fast	-9.94686
▁väntar	-9.94817
▁filmer	-9.94931
▁möta	-9.94997
▁rikta	-9.95011
▁signal	-9.95026
▁Lär	-9.9507
▁tema	-9.95074
▁representera	-9.95154
▁ögonblick	-9.95154
▁hävda	-9.95155
▁sträva	-9.95158
▁uppmärksamhet	-9.95172
▁buss	-9.95348
▁relaterade	-9.95376
▁välkomna	-9.95382
▁skor	-9.95517
▁fond	-9.95536
▁komponent	-9.95608
▁exempelvis	-9.95661
språk	-9.95711
▁transaktion	-9.96065
▁eld	-9.96285
▁Can	-9.96393
och	-9.96488
▁kriget	-9.96512
▁kött	-9.96523
▁svarade	-9.96578
▁anslutning	-9.96629
▁amerikansk	-9.96679
▁ran	-9.9671
▁Tid	-9.96723
▁förmodligen	-9.96753
▁naturligtvis	-9.96755
▁29	-9.96758
▁organisera	-9.96803
▁Am	-9.96859
▁diagnos	-9.96983
▁befintlig	-9.96983
▁biljett	-9.96984
▁trevlig	-9.96999
▁Red	-9.97104
▁målet	-9.97143
ford	-9.9717
▁stäm	-9.97245
▁gro	-9.97277
▁parter	-9.97353
stift	-9.97379
▁besökare	-9.97418
▁byrå	-9.97447
▁kommersiell	-9.9745
▁elektronisk	-9.97452
▁fjärde	-9.97677
▁dricka	-9.97678
▁civil	-9.97678
▁skär	-9.97686
▁såväl	-9.97695
▁bud	-9.97898
▁saknar	-9.97943
▁inträffa	-9.98143
▁programvara	-9.98153
▁yta	-9.98363
▁vakna	-9.98381
▁herr	-9.98471
▁åtgärd	-9.98472
ward	-9.98496
▁gjord	-9.9852
▁eventuella	-9.98542
▁bränsle	-9.98611
▁konsekvens	-9.98611
▁verket	-9.98826
▁utmaningar	-9.98845
▁nationell	-9.98848
▁väck	-9.98868
grip	-9.98977
▁faktum	-9.99081
▁dubbel	-9.99083
▁Kat	-9.9909
▁pratar	-9.99193
ög	-9.99219
▁behövde	-9.99317
▁konflikt	-9.99317
▁teknologi	-9.99317
▁grå	-9.99437
▁International	-9.99553
▁prestanda	-9.99553
▁roligt	-9.9956
▁snara	-9.99628
▁värt	-9.99662
▁ställning	-9.99761
▁fängelse	-9.9979
▁lansera	-9.99796
▁adress	-10.0005
OS	-10.0031
▁modeller	-10.0042
▁massor	-10.0044
▁Hem	-10.0049
▁World	-10.005
▁ersättning	-10.0051
AT	-10.0071
▁ägg	-10.0073
▁utforska	-10.0074
▁åtta	-10.0082
▁älskade	-10.0082
▁Pat	-10.0094
▁IT	-10.0095
▁Hol	-10.0096
▁försiktig	-10.0102
▁samtliga	-10.0106
▁Van	-10.0108
▁hjärn	-10.0116
▁uppmana	-10.012
▁infektion	-10.0122
▁överföring	-10.0123
▁verka	-10.013
▁branschen	-10.0138
▁existera	-10.015
▁samling	-10.0155
▁ursprungliga	-10.0158
▁arm	-10.016
▁reklam	-10.0171
▁kommitté	-10.0171
▁gränser	-10.0183
gräns	-10.0185
▁koncern	-10.0195
▁hastighet	-10.0195
▁album	-10.0195
▁station	-10.0209
▁avancerad	-10.022
▁ersätta	-10.0223
institut	-10.0229
▁listan	-10.0234
▁juridisk	-10.0243
▁skyldighet	-10.025
▁Bäst	-10.0257
▁Rom	-10.0263
▁automatiskt	-10.0268
▁föreställ	-10.0268
▁uttalande	-10.0268
▁valuta	-10.0271
▁åsikt	-10.0273
▁radio	-10.0282
▁tradition	-10.0287
▁misstag	-10.0289
▁informera	-10.0293
▁kraftfull	-10.0296
▁fiende	-10.0305
▁vidta	-10.0307
▁bibliotek	-10.0317
line	-10.0318
unk	-10.0326
▁tjänar	-10.0334
▁populär	-10.0336
▁Ord	-10.0336
▁äktenskap	-10.0341
▁hänt	-10.0346
▁titel	-10.0366
▁disk	-10.0371
stod	-10.0377
▁National	-10.0391
▁långsiktig	-10.0391
▁reserv	-10.0393
▁februari	-10.0415
▁behöriga	-10.0415
▁konkurrens	-10.0439
▁format	-10.044
▁rymd	-10.0442
▁hundar	-10.0448
▁mass	-10.0451
▁Pu	-10.0463
▁middag	-10.0465
▁koll	-10.0477
ET	-10.0482
▁avdelning	-10.0483
▁ansökan	-10.0488
▁återställ	-10.049
▁kinesisk	-10.049
▁Ol	-10.0497
lek	-10.0506
▁enskilda	-10.0507
▁hälften	-10.0515
▁öppet	-10.0515
▁samarbeta	-10.0517
pol	-10.0519
▁separat	-10.0523
döme	-10.053
fråga	-10.0532
▁söt	-10.0541
▁individuell	-10.0542
▁frisk	-10.0548
▁finans	-10.0555
▁begrepp	-10.0565
ografi	-10.0566
flytande	-10.0576
▁vind	-10.0579
▁Mag	-10.0585
handel	-10.0586
▁funnit	-10.059
▁kontrakt	-10.0591
roll	-10.0599
▁teknisk	-10.0601
brott	-10.0609
▁utsläpp	-10.0641
▁engagera	-10.0641
▁överallt	-10.0643
▁back	-10.0644
▁marknader	-10.0646
▁rummet	-10.0648
tagit	-10.0658
▁[...]	-10.0666
▁syfta	-10.0667
▁svensk	-10.0676
systemet	-10.0679
▁slot	-10.0679
▁Tur	-10.0685
▁stjärn	-10.07
▁cykel	-10.0717
▁2020	-10.0722
▁2000	-10.0725
▁Människor	-10.0743
▁kandidat	-10.0743
▁strål	-10.0743
▁avsedd	-10.0744
▁export	-10.0748
▁annonser	-10.0753
▁överens	-10.0766
▁uppdatering	-10.0769
▁källor	-10.0769
▁myndigheterna	-10.077
▁erkänna	-10.0786
▁regelbundet	-10.0794
▁Italien	-10.0794
▁kräva	-10.0794
▁övertyga	-10.0794
▁fest	-10.08
▁närings	-10.0805
▁Jack	-10.0808
EU	-10.0812
▁innovativ	-10.082
▁trend	-10.0824
liggande	-10.0824
▁bestämma	-10.0836
▁byta	-10.0857
▁verklig	-10.0869
▁omständigheter	-10.0872
▁begränsning	-10.0872
▁utmaning	-10.0873
▁Center	-10.0873
givande	-10.0879
▁färdigheter	-10.0898
▁ändringar	-10.0908
▁Utan	-10.0922
▁utbilda	-10.0924
▁lämnade	-10.0934
▁Mas	-10.0942
▁upprepa	-10.0952
▁turist	-10.0952
▁jobbar	-10.0953
▁övning	-10.0961
▁motiv	-10.0974
▁Spanien	-10.0976
▁förtroende	-10.0976
▁you	-10.0981
▁boende	-10.0983
▁nyheter	-10.0984
▁evenemang	-10.1002
▁promenad	-10.1002
▁köpte	-10.1009
▁national	-10.1022
▁brand	-10.1027
▁inkludera	-10.1038
lick	-10.1046
▁förklaring	-10.1055
▁islam	-10.1055
off	-10.1067
▁Exp	-10.1074
▁!”	-10.1094
q	-10.1104
▁Bli	-10.1106
▁begäran	-10.1108
▁berörda	-10.1118
▁Hotel	-10.1119
▁Mål	-10.1138
▁effektivitet	-10.1139
▁­	-10.114
The	-10.1142
▁2007	-10.1142
▁tidpunkt	-10.115
_	-10.1161
▁installation	-10.1161
skatt	-10.1174
▁genomförande	-10.1178
▁Själv	-10.1188
▁misstänk	-10.1188
▁kust	-10.1191
▁skön	-10.1209
marknad	-10.121
▁lita	-10.1212
▁WEB	-10.1215
▁element	-10.1215
▁undervisning	-10.1215
▁England	-10.1242
djur	-10.1255
▁slutlig	-10.1262
▁rak	-10.1266
▁bryta	-10.1266
ägare	-10.1266
▁fönster	-10.1269
▁ryska	-10.1278
▁flod	-10.1279
▁förbättring	-10.1296
▁förmån	-10.1296
▁grann	-10.1296
▁import	-10.1297
▁300	-10.1298
▁2006	-10.1304
burg	-10.1304
▁bröllop	-10.1323
▁underlätta	-10.1323
▁budskap	-10.1326
▁!"	-10.1341
▁City	-10.1343
▁äntligen	-10.1352
▁förebygga	-10.1377
▁religiös	-10.1377
▁användbar	-10.1377
▁uppfattning	-10.1378
▁olja	-10.1379
▁Hitta	-10.1383
▁Ing	-10.14
▁nej	-10.1402
▁alltför	-10.1402
▁igång	-10.1407
▁Åter	-10.1413
▁sägs	-10.1414
▁roliga	-10.1427
▁definitiv	-10.1432
▁höst	-10.1432
▁fritt	-10.1432
▁fundera	-10.1433
▁gäster	-10.1434
▁Sök	-10.144
▁student	-10.1448
▁idrott	-10.1459
▁sannolikt	-10.1459
▁kryp	-10.146
▁nerv	-10.1483
▁koncept	-10.1487
▁parlament	-10.1487
▁Kristus	-10.1487
▁dryck	-10.1487
▁vore	-10.1488
▁forskar	-10.1505
▁uppstår	-10.1515
▁utbud	-10.1515
▁‘	-10.1515
▁förbli	-10.1516
▁respekt	-10.1524
▁riktning	-10.1525
▁notera	-10.1529
▁skrivit	-10.1535
<	-10.1542
▁emellertid	-10.1542
▁sanning	-10.156
▁utställning	-10.157
▁fabrik	-10.157
▁plast	-10.1581
ektiv	-10.1585
▁jo	-10.1594
▁augusti	-10.1598
▁Folk	-10.1598
▁cykl	-10.1599
▁föddes	-10.1612
▁Peter	-10.1615
▁45	-10.1617
®	-10.1626
▁initiativ	-10.1626
▁alldeles	-10.1626
▁fiske	-10.1626
Mitt	-10.1639
▁hål	-10.1645
▁medarbetare	-10.1654
samhet	-10.1662
ush	-10.1665
▁kyl	-10.1666
koppling	-10.1683
▁flicka	-10.1684
▁skolor	-10.1685
▁skönhet	-10.169
▁skyldig	-10.1702
▁Behöver	-10.171
▁resultera	-10.171
▁statistik	-10.171
▁tillämplig	-10.171
▁himlen	-10.1738
▁operation	-10.1739
gripande	-10.1754
process	-10.1765
▁Australien	-10.1767
press	-10.1769
▁vägra	-10.1775
▁samhälls	-10.1795
▁Kommissionen	-10.1795
▁identitet	-10.1824
▁självständig	-10.1824
▁utfärda	-10.183
▁infrastruktur	-10.1852
▁minister	-10.1859
▁hjärnan	-10.186
▁hälsosam	-10.1863
▁hemlighet	-10.1867
▁America	-10.1881
bildning	-10.189
▁System	-10.191
▁längd	-10.191
▁Tom	-10.1925
▁boll	-10.1934
▁utseende	-10.1938
▁klinisk	-10.194
▁samtycke	-10.1944
▁undan	-10.1966
▁beskrivning	-10.1967
▁praktik	-10.1967
▁operativ	-10.1967
▁respektive	-10.1968
nsåg	-10.1971
▁tunn	-10.1973
▁släkt	-10.1997
▁Island	-10.1999
30	-10.2003
avtal	-10.2008
▁status	-10.2025
▁Indien	-10.2026
▁Lik	-10.2026
▁rött	-10.2026
▁bränn	-10.2029
▁möjliggör	-10.2038
▁analysera	-10.2039
▁mått	-10.2041
▁sökande	-10.2045
efter	-10.2047
Ã	-10.2054
▁bevilja	-10.2055
▁beläg	-10.2063
▁mänsklig	-10.2069
▁fäst	-10.2074
▁kulturell	-10.2081
▁etc	-10.2083
▁potential	-10.2084
▁Bas	-10.2086
▁pu	-10.2087
▁Group	-10.2113
▁utbyte	-10.2113
▁Inget	-10.2134
▁stimul	-10.2142
▁kasino	-10.2143
▁protein	-10.2143
nivå	-10.2147
▁tyst	-10.2148
▁vision	-10.2152
▁tacksam	-10.2155
▁strategisk	-10.2163
▁Resultat	-10.2172
▁mönster	-10.2172
▁Film	-10.2174
▁andel	-10.2175
▁därefter	-10.2183
▁applikation	-10.2202
▁diskussion	-10.2202
▁kille	-10.2202
▁övervaka	-10.2202
▁Köp	-10.2203
▁snäll	-10.2206
LL	-10.2214
▁någonstans	-10.2231
▁Båda	-10.2232
▁mörda	-10.2233
vård	-10.2233
que	-10.2253
▁Miss	-10.226
▁utifrån	-10.2261
▁tappa	-10.2262
▁stjärnor	-10.2282
▁registrering	-10.2291
▁gilla	-10.2294
▁bransch	-10.2301
atör	-10.2303
▁bröst	-10.2321
▁iPhone	-10.2321
▁kvinnlig	-10.2321
▁policy	-10.2321
▁Börja	-10.2321
▁support	-10.2351
▁moln	-10.2352
▁demokrati	-10.2363
▁engagemang	-10.2381
▁volym	-10.2381
▁garanti	-10.2381
▁Endast	-10.2381
▁deltagare	-10.2382
räd	-10.2383
▁Wh	-10.2395
▁symptom	-10.2411
▁kritisk	-10.2414
▁drömmar	-10.2416
▁läk	-10.242
▁Skapa	-10.2437
▁ingrediens	-10.2441
▁Något	-10.2441
▁utgång	-10.2442
▁rimlig	-10.2444
▁resor	-10.2454
▁skäm	-10.2456
▁32	-10.2464
▁övervakning	-10.2472
▁snygg	-10.2472
▁framsteg	-10.2472
▁Produkt	-10.2472
▁förläng	-10.2473
▁2004	-10.2482
▁klaga	-10.249
▁databas	-10.2503
företag	-10.2506
▁egendom	-10.2514
▁Afrika	-10.2533
▁rutin	-10.2534
▁närvaro	-10.2535
▁tilldela	-10.2541
▁högst	-10.2552
▁pool	-10.2582
▁gäst	-10.2584
▁dyk	-10.2584
▁symtom	-10.2594
▁söndag	-10.2594
vagn	-10.2601
▁återvän	-10.2603
▁metall	-10.2626
▁uteslut	-10.2628
▁2005	-10.2637
▁försökte	-10.2656
▁väsentlig	-10.2656
▁tusentals	-10.2656
▁vittne	-10.2659
▁möjlig	-10.2679
▁experiment	-10.2687
▁lunch	-10.2687
▁konstatera	-10.2688
▁make	-10.27
▁lägg	-10.271
▁väder	-10.2712
▁utmana	-10.2716
stitution	-10.2717
▁rädsla	-10.2718
▁förstärk	-10.2719
▁bjud	-10.272
▁huvudsaklig	-10.2725
gått	-10.2737
hem	-10.2738
▁mjölk	-10.275
▁synnerhet	-10.275
▁kommunicera	-10.275
▁Trans	-10.2755
▁statlig	-10.2772
▁Dock	-10.2775
▁intensiv	-10.2781
▁Rätt	-10.2782
▁falsk	-10.2785
▁brut	-10.2787
▁Preci	-10.2787
▁extern	-10.2787
OR	-10.2802
▁Älska	-10.2812
▁påminn	-10.2813
▁bilaga	-10.2816
▁planering	-10.2817
▁godkännande	-10.2817
▁skull	-10.2828
▁illa	-10.2831
park	-10.2832
▁njut	-10.2843
▁sammanhang	-10.2844
▁felaktig	-10.2847
▁skadlig	-10.2848
klass	-10.285
▁berör	-10.2856
play	-10.2857
åste	-10.2857
▁Twitter	-10.2876
▁Saker	-10.288
våning	-10.2882
▁öga	-10.2903
▁sova	-10.2905
▁tusen	-10.2911
▁locka	-10.2938
▁bekämpa	-10.2939
▁rekommendation	-10.2939
▁doktor	-10.2939
▁kemisk	-10.294
▁sjukvård	-10.294
▁upphör	-10.2968
▁frukost	-10.2971
▁tyckte	-10.2971
▁reagera	-10.2972
▁kompis	-10.2972
▁sektorn	-10.2972
▁dörren	-10.2973
▁socker	-10.2974
▁passion	-10.2988
▁överväga	-10.2988
▁annars	-10.3004
▁graviditet	-10.3006
läge	-10.3009
plikt	-10.3016
▁Kund	-10.3029
▁hittills	-10.3035
▁referens	-10.3035
▁skådespel	-10.3035
▁helhet	-10.3035
▁debatt	-10.3036
▁Företaget	-10.3037
▁beställning	-10.3039
▁Business	-10.3068
▁journalist	-10.3068
▁finansiera	-10.3068
kast	-10.3071
▁2003	-10.3079
foga	-10.309
▁tillräcklig	-10.3092
▁siffror	-10.31
▁majoritet	-10.31
▁Bank	-10.3102
▁överleva	-10.3105
*	-10.3107
▁måltid	-10.3119
▁respektera	-10.3121
▁framställ	-10.3132
▁upplever	-10.3134
▁Super	-10.3135
▁särskild	-10.3136
▁West	-10.3136
▁Lag	-10.3148
▁lås	-10.3175
▁växande	-10.3182
▁faktor	-10.3189
▁passera	-10.319
▁godkänd	-10.3198
▁profet	-10.3198
▁judar	-10.3205
▁minns	-10.3222
▁Restaurange	-10.323
▁vaccin	-10.3231
▁äldst	-10.3231
▁åker	-10.3232
läggning	-10.3245
▁riktlinjer	-10.3263
▁frivillig	-10.3263
▁senast	-10.3265
▁Väst	-10.3276
▁kosta	-10.3283
▁Konst	-10.3291
▁förutsättningar	-10.3296
▁fakta	-10.3297
▁värdefull	-10.3302
▁löfte	-10.333
▁mångfald	-10.333
▁sovrum	-10.333
▁kronor	-10.333
▁bestämmer	-10.333
▁grav	-10.3336
märke	-10.3346
driv	-10.3362
▁Tidigare	-10.3363
▁Försök	-10.3364
▁mäss	-10.3367
hol	-10.3374
▁upprätta	-10.3392
▁producent	-10.3396
▁utvärdera	-10.3396
▁inställningar	-10.3399
▁huvudstad	-10.3403
▁finner	-10.3404
▁virus	-10.3409
▁hållbarhet	-10.3416
tvungen	-10.3417
▁professor	-10.343
▁flöde	-10.343
▁eventuell	-10.344
▁Service	-10.3463
▁ansträngning	-10.3463
▁klipp	-10.3463
▁grundades	-10.3468
▁She	-10.3481
▁examen	-10.3497
▁immun	-10.3498
▁motivera	-10.35
▁stam	-10.3514
▁Post	-10.3524
▁betydligt	-10.3531
▁flickor	-10.3531
▁Robert	-10.3531
▁kriterier	-10.3564
▁självklart	-10.3564
▁generera	-10.3571
period	-10.3575
stället	-10.3581
▁aktivera	-10.3592
▁komplett	-10.3605
▁ändring	-10.3619
▁Inom	-10.3623
▁komplettera	-10.3626
börd	-10.3628
▁Världen	-10.3633
▁verkställ	-10.3667
▁Tyvärr	-10.3667
▁gravid	-10.3669
▁landskap	-10.3688
▁Office	-10.3701
▁värsta	-10.3701
▁fredag	-10.3706
▁granska	-10.3736
▁James	-10.3736
▁värre	-10.3737
▁Norge	-10.374
▁Social	-10.377
▁dating	-10.3771
▁föredrar	-10.3771
▁inställning	-10.3781
▁2001	-10.3784
näs	-10.3791
▁genomsnittlig	-10.3804
▁universum	-10.3805
▁föreskriv	-10.3805
▁integritet	-10.3805
▁mänskligheten	-10.3805
▁biologisk	-10.3805
▁«	-10.3807
mästare	-10.3809
▁utöka	-10.3815
▁Klick	-10.3819
▁Amerika	-10.3838
▁atmosfär	-10.384
▁definition	-10.384
▁södra	-10.384
▁ursäkt	-10.384
▁Svensk	-10.3843
▁arbetsplats	-10.3843
▁Black	-10.3874
▁missbruk	-10.3877
▁Iran	-10.3885
▁(19	-10.3887
▁byte	-10.3909
▁Information	-10.391
▁exklusiv	-10.3945
▁detalj	-10.3949
person	-10.3957
▁argument	-10.398
▁Välkommen	-10.398
▁Obama	-10.398
▁kritik	-10.398
▁smärt	-10.3998
▁människo	-10.4008
▁kvalificer	-10.4016
▁utrusta	-10.4017
▁Kanada	-10.4018
▁Master	-10.4022
▁bedriv	-10.4025
▁utredning	-10.4052
▁robot	-10.4052
▁vandra	-10.4058
▁jämförelse	-10.4059
▁Institute	-10.4087
▁himmel	-10.4087
▁tyvärr	-10.4087
▁glömma	-10.4098
▁rengör	-10.4116
▁Casino	-10.4123
▁elektrisk	-10.4123
▁närmaste	-10.4123
▁åtkomst	-10.4132
▁Port	-10.4142
▁lördag	-10.4159
▁konsult	-10.4159
▁beräkning	-10.4159
▁spänning	-10.416
▁Time	-10.4167
▁utsträckning	-10.4195
▁poker	-10.4197
▁!!!	-10.421
brett	-10.4218
▁original	-10.4231
▁förvandla	-10.4231
▁förpackning	-10.4231
▁dialog	-10.4232
.000	-10.4233
▁urval	-10.4244
▁lagring	-10.4258
Å	-10.4283
▁Syftet	-10.4304
▁permanent	-10.4304
▁Lägg	-10.4305
▁satte	-10.4311
▁reform	-10.4324
▁inrätta	-10.4338
▁avlägsna	-10.4341
▁konstruktion	-10.4341
▁maximal	-10.4341
▁hänvisa	-10.4341
▁genomsnitt	-10.4358
▁upprätthålla	-10.4378
▁vanligast	-10.4397
▁Trä	-10.4412
▁Hjälp	-10.4414
▁recension	-10.4414
▁kollektiv	-10.4415
▁beredd	-10.4415
▁deltagande	-10.4427
▁uppmärksamma	-10.4428
▁knä	-10.4431
▁mjuk	-10.4448
▁satsa	-10.4449
▁Danmark	-10.4452
▁depression	-10.4452
▁präst	-10.4452
▁olaglig	-10.4453
▁sällan	-10.4453
▁vinner	-10.4456
▁förbund	-10.4465
position	-10.4468
▁Android	-10.4489
▁italiensk	-10.4489
▁Syrien	-10.4489
▁Online	-10.4489
▁Fred	-10.449
▁Home	-10.4518
▁rättfärdig	-10.4527
▁flagg	-10.4527
namn	-10.4527
▁frekvens	-10.4563
▁katastrof	-10.4563
▁Glöm	-10.4564
▁syster	-10.4565
▁plocka	-10.4567
▁Data	-10.4573
▁dött	-10.4575
▁150	-10.4597
▁Bitcoin	-10.4601
▁Global	-10.4601
▁Michael	-10.4601
▁efterfrågan	-10.4601
▁övergång	-10.4601
▁tveka	-10.4605
▁utvärdering	-10.4639
▁Författare	-10.4639
▁artist	-10.4672
▁huruvida	-10.4677
▁show	-10.4677
▁platt	-10.4684
▁påstå	-10.4693
▁forum	-10.4697
▁[+]	-10.4715
▁administrativ	-10.4715
▁filosofi	-10.4715
▁församling	-10.4715
▁Studie	-10.4715
▁relatera	-10.4716
▁minskning	-10.4718
>	-10.4733
Ö	-10.4733
▁hemmet	-10.4738
▁övrigt	-10.4753
▁Turkiet	-10.4753
▁lögn	-10.4753
innehav	-10.4783
▁blommor	-10.4791
▁Skriv	-10.4792
▁kontinuerlig	-10.483
▁Design	-10.483
▁försäkra	-10.483
▁Problem	-10.483
▁räcker	-10.483
▁måndag	-10.4834
▁Martin	-10.4835
▁hushåll	-10.4838
▁orolig	-10.4839
▁Natur	-10.4841
▁ovanlig	-10.4842
▁skriftlig	-10.4845
▁förväntningar	-10.4868
▁yngre	-10.4868
▁begrav	-10.4868
▁olje	-10.4869
▁föregående	-10.4881
▁giltig	-10.4907
▁hinder	-10.4908
▁Alltså	-10.4908
▁medvetna	-10.4908
▁återvända	-10.4942
▁hjul	-10.4946
▁Sådan	-10.4951
▁spanska	-10.4958
▁demokratisk	-10.4969
▁förtjänar	-10.4985
▁resolution	-10.4985
work	-10.5013
▁slav	-10.5021
▁inköp	-10.5024
▁Bibeln	-10.5024
▁Besök	-10.5025
▁botten	-10.5025
▁typisk	-10.5056
▁Göteborg	-10.5064
▁Kvinnor	-10.5064
▁festival	-10.5064
▁ledarskap	-10.5064
▁odla	-10.5085
▁dimension	-10.5103
▁involvera	-10.5103
▁hormon	-10.5103
▁utomhus	-10.5105
▁aktörer	-10.5105
▁Kap	-10.5124
▁hyll	-10.5134
▁överföra	-10.5149
▁desto	-10.5159
▁japansk	-10.5183
▁Hennes	-10.5183
▁lidande	-10.5183
▁Både	-10.5184
▁kemikalie	-10.5223
▁berömda	-10.5223
▁äkta	-10.5223
▁räkning	-10.5223
▁europeisk	-10.5232
▁skrift	-10.5247
▁representant	-10.5263
▁vistelse	-10.5264
▁födelsedag	-10.5264
▁flygplan	-10.5267
▁stopp	-10.5271
▁judisk	-10.5278
shop	-10.5286
illsammans	-10.529
▁muskler	-10.5303
▁primär	-10.5303
▁Kolla	-10.5304
hydr	-10.5331
▁livsstil	-10.5344
▁prestation	-10.5344
▁sträng	-10.5353
▁krets	-10.5353
oxid	-10.5355
▁harmoni	-10.5377
ü	-10.5384
▁förekommer	-10.5384
▁inspiration	-10.5384
▁operatör	-10.5384
▁gym	-10.5391
▁introducera	-10.5425
▁advokat	-10.5425
▁Huvud	-10.5425
▁förbindelse	-10.5425
▁mjukvar	-10.5429
nämnda	-10.5448
▁praxis	-10.5466
▁vuxen	-10.5466
▁generell	-10.5468
sajt	-10.5481
&	-10.549
▁Management	-10.5507
▁invånare	-10.5507
▁George	-10.5507
▁förekomma	-10.5507
▁Särskil	-10.5509
▁tabell	-10.5509
▁tendera	-10.5513
»	-10.5532
▁diabetes	-10.5549
▁psykisk	-10.5549
▁kapitel	-10.5549
▁möbler	-10.5549
▁bekant	-10.5549
▁pojke	-10.5549
▁Asien	-10.5551
▁arbetsgivare	-10.5555
▁tillåta	-10.5561
▁Forskar	-10.5563
vatten	-10.5575
▁koncentration	-10.559
▁Egypten	-10.559
▁inbjud	-10.559
▁fixa	-10.5595
▁förneka	-10.5608
▁förvalta	-10.5614
▁fyr	-10.563
▁Washington	-10.5632
▁distribution	-10.5632
▁Projekt	-10.5632
▁protest	-10.5632
▁William	-10.5674
▁förflutna	-10.5674
▁Arbets	-10.5674
▁högskol	-10.5674
▁klient	-10.5674
▁oerhör	-10.5674
▁Ofta	-10.568
▁pump	-10.5683
▁ligga	-10.5711
▁Företag	-10.5714
▁killar	-10.5719
▁Pass	-10.572
▁historisk	-10.5735
säkerhet	-10.5755
▁republik	-10.5758
▁överenskommelse	-10.5758
▁fåglar	-10.5758
▁Max	-10.5763
▁akademisk	-10.5775
▁således	-10.5801
stått	-10.5802
▁dominera	-10.5803
▁armé	-10.5803
▁uppfatta	-10.5814
▁observera	-10.5843
▁Forskning	-10.5843
▁Bygg	-10.5843
vetenskap	-10.587
▁inbegrip	-10.5885
▁inrikta	-10.5886
rämmande	-10.5913
▁omvandla	-10.5928
▁Frank	-10.5928
▁muskel	-10.5928
▁Auto	-10.5937
▁nöje	-10.5941
▁Medlemsstater	-10.5971
▁berättiga	-10.5971
▁Adam	-10.5986
▁täcka	-10.5986
▁Amazon	-10.6015
▁mekanism	-10.6015
▁protokoll	-10.6015
▁Grekland	-10.6015
▁okej	-10.6015
▁skott	-10.6017
▁Öst	-10.6019
▁resurs	-10.6038
uppgifter	-10.6041
nummer	-10.6046
|	-10.6058
▁Central	-10.6058
▁konsert	-10.6059
▁helvete	-10.6059
▁täcker	-10.606
▁peka	-10.6097
▁Artikel	-10.6102
▁School	-10.6102
▁anpassning	-10.6102
▁exponering	-10.6102
▁vunnit	-10.6102
▁ångest	-10.6102
▁värderingar	-10.6102
▁North	-10.6117
▁Självklart	-10.6146
▁Bolaget	-10.6146
▁utomlands	-10.6146
▁konkurrenskraft	-10.6147
▁undervisa	-10.6147
▁Irak	-10.6149
▁drygt	-10.619
▁järnväg	-10.619
▁modul	-10.619
▁besvär	-10.6191
▁åtagande	-10.6193
▁stick	-10.6201
▁rykte	-10.6202
▁hustru	-10.6235
▁pålitlig	-10.6235
▁komplicera	-10.6278
▁försvinner	-10.6278
▁kilometer	-10.6278
▁muslimer	-10.6278
▁fysik	-10.6278
▁decenni	-10.6278
▁inverkan	-10.6279
▁patent	-10.6279
qui	-10.628
▁dörrar	-10.629
▁födelse	-10.6311
▁industriell	-10.6317
▁fattigdom	-10.6323
▁optimal	-10.6323
▁världskriget	-10.6323
▁ytterst	-10.6323
▁utländska	-10.6324
▁bebis	-10.6325
▁dölj	-10.6327
▁saknas	-10.6332
▁arkitekt	-10.6363
▁unions	-10.6368
▁House	-10.6368
▁badrum	-10.637
▁arkitektur	-10.6373
▁specialisera	-10.6375
▁100%	-10.6375
▁shopping	-10.6413
▁Föregående	-10.6413
▁tolka	-10.6415
▁satsning	-10.6433
▁Grund	-10.6459
▁Street	-10.646
▁klänning	-10.6466
▁kristen	-10.6466
▁Observera	-10.6504
▁webbläsare	-10.6504
▁föll	-10.6504
▁noggrant	-10.6549
▁okänd	-10.655
▁schema	-10.655
▁rulla	-10.6578
▁intäkter	-10.6595
▁mobiltelefon	-10.6595
▁destination	-10.6595
▁Invest	-10.6595
▁ränta	-10.6601
▁gruv	-10.6643
▁Pap	-10.6673
▁Program	-10.6686
▁allergi	-10.6689
▁implementer	-10.6734
▁bakterier	-10.6734
▁flyktingar	-10.6734
▁Daniel	-10.6734
▁överraska	-10.6735
▁Game	-10.6737
hoppningsvis	-10.6737
▁männen	-10.6742
väv	-10.675
▁Barcelona	-10.6781
▁Faktum	-10.6781
▁lösenord	-10.6781
▁assist	-10.6781
▁Musik	-10.6781
▁gudomlig	-10.6782
▁variant	-10.6786
▁eftermiddag	-10.6828
▁1990	-10.6828
▁Volvo	-10.6828
▁ombord	-10.6828
▁springa	-10.6831
▁dvs	-10.6837
[	-10.6864
▁integration	-10.6875
▁leksak	-10.6875
▁uppstå	-10.689
märkning	-10.6892
växla	-10.6908
▁faktisk	-10.6912
@	-10.6922
▁påbörja	-10.6922
▁sällsynt	-10.6922
▁fenomen	-10.6922
▁färre	-10.6923
▁neuro	-10.6929
▁Titta	-10.6931
▁osäker	-10.6955
▁formulär	-10.697
▁South	-10.697
▁åkte	-10.697
▁medvetande	-10.6971
▁sensor	-10.6972
▁Namn	-10.6972
▁sända	-10.6974
▁genetisk	-10.6976
▁koloni	-10.6998
▁annons	-10.6999
▁Exempel	-10.7018
▁ambassad	-10.7018
▁bokstav	-10.7018
▁event	-10.7019
▁förmedla	-10.7026
▁innefatta	-10.703
▁rac	-10.7035
▁dynamisk	-10.7066
▁olycka	-10.7066
▁Kontakt	-10.7066
▁register	-10.7066
▁utöver	-10.7068
▁elektro	-10.7113
▁godkänt	-10.7114
▁virtuell	-10.7114
▁Kristi	-10.7115
▁Power	-10.7115
▁teater	-10.7116
▁Programmet	-10.7116
▁summa	-10.713
á	-10.7163
▁belysning	-10.7163
▁förhandlingar	-10.7163
▁smidig	-10.7163
▁ingenjör	-10.7163
▁självmord	-10.7163
▁svårigheter	-10.7163
▁panel	-10.7164
▁moralisk	-10.7164
▁golf	-10.7164
▁1999	-10.7212
▁kreditkort	-10.7212
­	-10.7252
▁Jerusalem	-10.7261
▁jävla	-10.7261
▁konsumtion	-10.7261
▁ekologisk	-10.7261
▁kedja	-10.7261
▁söder	-10.7262
cancer	-10.7301
▁redovisning	-10.731
▁tolkning	-10.731
▁tjock	-10.731
▁figur	-10.731
▁attraktiv	-10.731
▁gatan	-10.7312
▁säkerställ	-10.7316
▁tillförlitlig	-10.7344
▁Kalifornien	-10.7359
▁Webbplats	-10.7359
▁biverkningar	-10.7359
▁återförsäljare	-10.7359
▁Kärlek	-10.7359
▁arkiv	-10.736
▁Mamma	-10.7362
byggnad	-10.7401
tterligare	-10.7408
▁Internationell	-10.7409
▁tålamod	-10.7409
▁kongress	-10.7409
▁lojal	-10.7409
▁sönder	-10.7409
▁konstruera	-10.741
▁slutföra	-10.7419
född	-10.7454
▁misslyckas	-10.7459
▁Övrig	-10.7459
▁konkret	-10.7459
▁fruktansvär	-10.7459
▁erkänd	-10.7459
▁Jorden	-10.746
▁finansiell	-10.7468
▁lönsam	-10.747
▁Museum	-10.7509
▁dejting	-10.7509
▁akut	-10.7512
▁gynna	-10.756
▁noggrann	-10.7611
▁tablett	-10.7611
▁kontant	-10.7612
skrivning	-10.7617
▁kyrka	-10.7629
▁Science	-10.7662
▁behörighet	-10.7662
▁tycks	-10.7664
▁bedrägeri	-10.7713
▁fantasi	-10.7713
▁intelligens	-10.7713
▁pröva	-10.7713
▁ljug	-10.7714
▁förälder	-10.7714
bundna	-10.7723
+	-10.7758
höll	-10.7758
▁HERREN	-10.7764
▁ordentligt	-10.7764
▁seriös	-10.7764
▁vädret	-10.7764
▁kirurg	-10.7764
▁torsdag	-10.7765
▁flaska	-10.7765
▁Irland	-10.7766
^	-10.7816
▁session	-10.7816
▁radikal	-10.7816
▁längta	-10.7817
▁front	-10.7819
▁skapelse	-10.7826
▁agent	-10.7826
▁packa	-10.7831
▁reducera	-10.7868
▁fjärr	-10.7868
▁Thomas	-10.7868
▁antog	-10.7869
krav	-10.7895
▁disciplin	-10.7921
ifikation	-10.7921
▁omsorg	-10.7921
▁turnering	-10.7921
▁attraktion	-10.7923
▁utmärk	-10.7931
▁skrämm	-10.7941
politik	-10.7968
▁rubrik	-10.7973
▁Vatten	-10.7973
▁chock	-10.7974
▁kronisk	-10.7974
▁Njut	-10.7975
▁angiv	-10.7979
Z	-10.8021
§	-10.8026
▁evangeli	-10.8026
▁anonym	-10.8026
▁mäktig	-10.8026
▁Kommun	-10.8026
▁betona	-10.8064
▁Richard	-10.8079
▁komfort	-10.8079
▁betyg	-10.808
▁Free	-10.8089
▁omedelbar	-10.809
▁känslomässig	-10.8133
▁molekyl	-10.8133
▁DNA	-10.8133
▁liberal	-10.8133
▁Royal	-10.8133
▁Råd	-10.8136
▁Död	-10.8137
▁låda	-10.8139
▁Video	-10.8148
▁enskild	-10.8157
kontroll	-10.8181
▁granskning	-10.8187
▁humör	-10.8187
▁oändlig	-10.8187
▁evigt	-10.8187
▁förknippa	-10.8241
▁Digital	-10.8241
▁Undvik	-10.8241
▁smält	-10.8241
▁utvalda	-10.8241
▁stämmer	-10.8241
▁kommentera	-10.8241
▁sjunk	-10.8246
▁utgifter	-10.8249
ontrollera	-10.8289
▁Nederländerna	-10.8295
▁territorium	-10.8295
▁geografisk	-10.8295
▁High	-10.8295
▁yoga	-10.8296
▁inuti	-10.8296
lägga	-10.8314
▁imponerande	-10.835
▁obligatorisk	-10.835
▁smartphone	-10.835
▁portfölj	-10.835
▁belöning	-10.835
▁reparation	-10.835
▁sällskap	-10.835
publ	-10.8367
mässiga	-10.8389
▁Gilla	-10.8401
överensstämmelse	-10.8405
▁litteratur	-10.8405
▁studio	-10.8405
▁långsamt	-10.8405
▁stödjer	-10.8407
€	-10.846
▁choklad	-10.846
▁distrikt	-10.846
▁kollegor	-10.846
▁koncentrera	-10.846
▁substans	-10.846
▁tjugo	-10.846
▁förbehåll	-10.846
▁avkastning	-10.846
▁variation	-10.8461
▁League	-10.8515
▁administrer	-10.8515
▁samarbets	-10.8515
▁Också	-10.8515
▁trupp	-10.8516
▁runda	-10.8528
▁fascinera	-10.8571
▁försvunn	-10.8571
¤	-10.8571
▁Familj	-10.8571
▁landsbygd	-10.8571
▁lägst	-10.8572
▁Blue	-10.8572
▁rekord	-10.8572
trafik	-10.8626
▁förvånad	-10.8628
▁redigera	-10.8628
▁funkar	-10.8628
▁besvara	-10.8628
▁sänka	-10.8628
▁regim	-10.8629
▁isolera	-10.863
▁tillfredsställ	-10.8642
▁legitim	-10.8684
▁ömsesidig	-10.8684
▁onödig	-10.8684
▁uppvärmning	-10.8684
▁kalender	-10.8684
▁försvinna	-10.8684
▁dramatisk	-10.8684
▁tycka	-10.8686
▁slutänd	-10.8689
▁brun	-10.8691
▁sysselsättning	-10.8741
▁optimera	-10.8741
▁överträdelse	-10.8741
▁Berlin	-10.8742
▁färsk	-10.8743
▁skylt	-10.8743
ifiering	-10.8752
försäkring	-10.8797
▁livslängd	-10.8798
▁existens	-10.8798
▁intelligent	-10.8798
▁inblandad	-10.8798
▁tvivel	-10.8798
▁omfattning	-10.8799
▁återigen	-10.8799
▁påpeka	-10.8804
▁citat	-10.8806
▁Speciell	-10.8855
▁klagomål	-10.8855
▁konsekvent	-10.8855
▁spegla	-10.8856
▁check	-10.8856
▁onsdag	-10.8856
▁Möjlig	-10.8867
Point	-10.8895
kräm	-10.8911
postadress	-10.8913
▁Skillnad	-10.8913
▁museum	-10.8913
▁tisdag	-10.8913
▁Texas	-10.8913
▁Next	-10.8915
▁Fortsätt	-10.8924
▁montera	-10.893
▁toalett	-10.8971
▁tävla	-10.8971
▁faktur	-10.8971
▁revision	-10.8971
▁deltagarna	-10.8972
▁United	-10.8972
▁beundra	-10.8973
▁dubbla	-10.8973
▁Berätta	-10.8974
▁redovisa	-10.8974
▁skicklig	-10.8977
▁konkurrent	-10.903
▁pojkar	-10.903
▁vävnad	-10.903
▁Smith	-10.903
▁anklaga	-10.903
▁levde	-10.9032
▁duktig	-10.9046
▁[1]	-10.9089
▁minoritet	-10.9089
▁pilot	-10.9089
▁överstig	-10.9092
▁upphovsrätt	-10.9148
▁förnybar	-10.9148
lutning	-10.9149
projekt	-10.9149
▁mystisk	-10.9156
▁yrke	-10.916
·	-10.9207
▁inbyggd	-10.9207
▁överlämna	-10.9207
▁sannolikhet	-10.9207
▁sämre	-10.9207
▁prövning	-10.9207
–	-10.9209
NTE	-10.9218
▁Francis	-10.9267
▁administration	-10.9267
▁ledamöter	-10.9267
▁reflektera	-10.9267
▁återbetalning	-10.9267
▁Student	-10.9267
▁Världs	-10.9267
▁irritera	-10.9267
▁Islam	-10.9267
▁ISO	-10.9268
▁dygn	-10.9268
skilda	-10.9278
▁skörd	-10.9284
▁huvudsak	-10.9315
▁grönsaker	-10.9327
▁glömmer	-10.9328
▁time	-10.9386
▁Afghanistan	-10.9388
▁befogenhet	-10.9388
▁överlevnad	-10.9388
▁dröj	-10.9389
åtgärder	-10.9391
▁tystnad	-10.9392
▁Jesu	-10.9436
▁jämställdhet	-10.9449
▁diskriminering	-10.9449
▁eliminera	-10.9449
▁mäklare	-10.9449
▁tråkig	-10.9449
▁rabatt	-10.9449
▁överraskning	-10.9449
▁hellre	-10.9449
▁Upptäck	-10.9449
▁simma	-10.9457
▁arrangera	-10.951
▁expandera	-10.951
▁kopiera	-10.9511
▁änglar	-10.9511
väpna	-10.9561
ntroduktion	-10.9572
▁Schweiz	-10.9572
▁Ukraina	-10.9572
▁däribland	-10.9572
▁prioritera	-10.9572
▁tidskrift	-10.9572
▁[-]	-10.9572
▁strikt	-10.9573
▁Work	-10.9573
▁främling	-10.9634
▁muslimsk	-10.9634
▁Innehåll	-10.9634
▁uppgradera	-10.9634
▁förnuft	-10.9634
▁kopia	-10.9635
▁öppning	-10.9635
▁inspelning	-10.9637
▁inställ	-10.9672
▁Instagram	-10.9697
▁hjälte	-10.9697
▁diplom	-10.9697
▁såklart	-10.9697
▁samordna	-10.9697
▁human	-10.9697
▁blomma	-10.9697
field	-10.9723
▁President	-10.976
▁Abraham	-10.976
▁ambition	-10.976
▁siffra	-10.976
▁välkänd	-10.976
▁Vänlig	-10.9777
←	-10.9823
▁Jämför	-10.9823
▁högkvalitativ	-10.9823
▁konsumera	-10.9823
▁kärnvapen	-10.9823
▁placering	-10.9823
▁www	-10.9823
▁försvann	-10.9823
▁Centre	-10.9823
Naturligtvis	-10.9824
▁Gaml	-10.983
▁föräldra	-10.9854
▁Thailand	-10.9887
▁arrangemang	-10.9887
▁certifikat	-10.9887
▁influens	-10.9887
▁välkommen	-10.9887
▁nyfiken	-10.9887
▁teoretisk	-10.9887
▁tröst	-10.9887
▁krossa	-10.9887
▁uppehåll	-10.9887
växt	-10.9887
lossning	-10.9888
▁citera	-10.9891
utveckling	-10.9893
(	-10.9893
▁sortiment	-10.9951
°	-11.0479
â	-11.0684
Г	-11.0754
ó	-11.178
í	-11.2584
ø	-11.2753
£	-11.355
¥	-11.3642
è	-11.3642
‐	-11.3925
=	-11.456
	-11.5254
~	-11.5587
}	-11.605
{	-11.605
¶	-11.7581
❤	-11.9227
\	-11.9557
●	-12.1001
“	-12.1139
`	-12.1197
ñ	-12.181
ç	-12.181
à	-12.2022
#	-12.2864
−	-12.316
′	-12.391
ô	-12.391
️	-12.391
š	-12.4173
©	-12.4444
ā	-12.4444
$	-12.4663
æ	-12.4722
×	-12.5301
	-12.5604
ú	-12.5917
É	-12.6239
ã	-12.624
⁄	-12.624
ë	-12.6573
ć	-12.6918
α	-12.6918
Â	-12.803
„	-12.803
û	-12.843
±	-12.8846
Ü	-12.9736
î	-13.0212
č	-13.0212
▸	-13.0712
ð	-13.1238
ل	-13.1238
ï	-13.1238
►	-13.1794
≥	-13.2382
א	-13.3007
ş	-13.3674
‹	-13.4388
	-13.4388
👍	-13.4388
😍	-13.4388
ž	-13.5157
ğ	-13.5991
و	-13.5991
	-13.5991
β	-13.5991
ł	-13.5991
ي	-13.69
ß	-13.69
Š	-13.69
ı	-13.79
😛	-13.79
«	-13.8953
Ó	-13.9011
ĺ	-13.9011
ń	-13.9011
ō	-13.9011
ا	-13.9011
م	-13.9011
ه	-13.9011
‒	-13.9011
🏼	-13.9011
Î	-14.0261
ʹ	-14.0261
õ	-14.0261
ι	-14.0261
ạ	-14.0261
✔	-14.0261
🏻	-14.0261
🙁	-14.0261
¬	-14.0261
Á	-14.0261
ê	-14.1689
س	-14.1689
	-14.1689
γ	-14.1689
ν	-14.1689
ع	-14.1689
ن	-14.1689
ę	-14.1689
θ	-14.1689
‘	-14.3298
Ă	-14.3356
ə	-14.3356
σ	-14.3356
‭	-14.3356
¿	-14.3356
ς	-14.3356
◄	-14.3356
民	-14.3356
	-14.3356
Č	-14.3356
ī	-14.3356
œ	-14.3356
•	-14.5298
ο	-14.5356
ε	-14.5356
ṛ	-14.5356
	-14.5356
Ç	-14.5356
ρ	-14.5356
◆	-14.5356
国	-14.5356
	-14.5356
	-14.5356
🤣	-14.5356
‚	-14.5356
ū	-14.5356
а	-14.5356
國	-14.7856
δ	-14.7856
λ	-14.7856
ί	-14.7856
й	-14.7856
†	-14.7856
	-14.7856
Í	-14.7856
ò	-14.7856
ù	-14.7856
ý	-14.7856
ص	-14.7856
ṇ	-14.7856
ṣ	-14.7856
‬	-14.7856
▪	-14.7856
○	-14.7856
◾	-14.7856
	-14.7856
	-14.7856
💙	-14.7856
💜	-14.7856
ő	-14.7856
Ž	-14.7856
ǧ	-14.7856
中	-14.7856
超	-15.1189
φ	-15.1189
¡	-15.1189
ē	-15.1189
ω	-15.1189
ì	-15.1189
þ	-15.1189
ă	-15.1189
ą	-15.1189
đ	-15.1189
ė	-15.1189
τ	-15.1189
е	-15.1189
ӓ	-15.1189
د	-15.1189
ى	-15.1189
≤	-15.1189
♣	-15.1189
❑	-15.1189
❓	-15.1189
・	-15.1189
軍	-15.1189
︎	-15.1189
💤	-15.1189
😇	-15.1189
¢	-15.1189
ά	-15.1189
К	-15.1189
р	-15.1189
ẹ	-15.1189
и	-15.1189
ر	-15.1189
ḥ	-15.1189
团	-15.6189
ј	-15.6189
χ	-15.6189
ś	-15.6189
д	-15.6189
ÿ	-15.6189
ż	-15.6189
ư	-15.6189
ș	-15.6189
ɛ	-15.6189
Α	-15.6189
Β	-15.6189
Σ	-15.6189
κ	-15.6189
ό	-15.6189
ت	-15.6189
ج	-15.6189
ح	-15.6189
ก	-15.6189
ร	-15.6189
უ	-15.6189
‍	-15.6189
―	-15.6189
‡	-15.6189
∙	-15.6189
√	-15.6189
≈	-15.6189
□	-15.6189
◦	-15.6189
☆	-15.6189
⚘	-15.6189
✅	-15.6189
✎	-15.6189
✰	-15.6189
❥	-15.6189
万	-15.6189
岁	-15.6189
눉	-15.6189
	-15.6189
	-15.6189
	-15.6189
	-15.6189
	-15.6189
	-15.6189
😕	-15.6189
😜	-15.6189
😝	-15.6189
🙌	-15.6189
🤔	-15.6189
🤗	-15.6189
🤯	-15.6189
ọ	-15.6189
↵	-15.6189
Д	-15.6189
会	-15.6189
	-15.619
	-15.619
🙈	-16.6117
😬	-16.6118
😎	-16.6119
😋	-16.612
💖	-16.6121
	-16.6122
足	-16.6123
赛	-16.6124
联	-16.6125
球	-16.6126
人	-16.6127
主	-16.6128
ン	-16.6129
コ	-16.613
♪	-16.6131
Ґ	-16.6132
О	-16.6133
ή	-16.6134
Ω	-16.6135
—	-16.6136
̊	-16.6136
̃	-16.6137
ɑ	-16.6138
ǔ	-16.6139
ơ	-16.614
Ś	-16.6141
Đ	-16.6142
Þ	-16.6143
😦	-16.6144
😢	-16.6145
革	-16.6146
命	-16.6147
◊	-16.6148
ἀ	-16.6149
Δ	-16.615
💚	-16.6151
💕	-16.6152
👏	-16.6153
	-16.6154
⭐	-16.6155
☝	-16.6156
π	-16.6157
ʼ	-16.6158
ţ	-16.6159
Ş	-16.616
😘	-16.6161
😅	-16.6162
😃	-16.6163
▶	-16.6164
Õ	-16.6165
Æ	-16.6166
🙏	-16.6167
😄	-16.6168
😂	-16.6169
★	-16.617
ƒ	-16.6171
↑	-16.6172
♡	-16.6173
☺	-16.6174
	-16.6175
̈	-16.6176
ˮ	-16.6177
Ø	-16.6178
μ	-16.6179
😊	-16.618
✓	-16.6181
▌	-16.6182
■	-16.6183
😀	-16.6184
😉	-16.6185
♥	-16.6186
›	-16.6187
́	-16.6188
→	-16.6189
協	-16.6189
會	-16.6189
有	-16.6189
江	-16.6189
际	-16.6189
集	-16.6189
Π	-16.6189
級	-16.6189
锦	-16.6189
限	-16.6189
ː	-16.6189
Φ	-16.6189
Ā	-16.6189
ỉ	-16.6189
ị	-16.6189
	-16.6189
	-16.6189
	-16.6189
À	-16.6189
Ë	-16.6189
Ð	-16.6189
Ñ	-16.6189
Ò	-16.6189
Ú	-16.6189
Ý	-16.6189
÷	-16.6189
ħ	-16.6189
İ	-16.6189
ķ	-16.6189
ų	-16.6189
Ż	-16.6189
ǎ	-16.6189
ǒ	-16.6189
ɒ	-16.6189
ɡ	-16.6189
ɣ	-16.6189
ɸ	-16.6189
ˆ	-16.6189
ˈ	-16.6189
ˌ	-16.6189
̂	-16.6189
̶	-16.6189
Γ	-16.6189
Ε	-16.6189
Θ	-16.6189
Μ	-16.6189
η	-16.6189
ύ	-16.6189
А	-16.6189
Б	-16.6189
В	-16.6189
Е	-16.6189
И	-16.6189
Н	-16.6189
П	-16.6189
С	-16.6189
Т	-16.6189
Э	-16.6189
Я	-16.6189
в	-16.6189
г	-16.6189
л	-16.6189
м	-16.6189
н	-16.6189
с	-16.6189
т	-16.6189
ц	-16.6189
ы	-16.6189
ӧ	-16.6189
ד	-16.6189
צ	-16.6189
ة	-16.6189
ث	-16.6189
ك	-16.6189
ނ	-16.6189
ތ	-16.6189
ަ	-16.6189
ާ	-16.6189
ข	-16.6189
ต	-16.6189
ธ	-16.6189
น	-16.6189
ย	-16.6189
ส	-16.6189
ะ	-16.6189
ั	-16.6189
ิ	-16.6189
ี	-16.6189
ุ	-16.6189
เ	-16.6189
ი	-16.6189
რ	-16.6189
ც	-16.6189
ხ	-16.6189
ṅ	-16.6189
Ṣ	-16.6189
Ṭ	-16.6189
ṭ	-16.6189
ả	-16.6189
ầ	-16.6189
ễ	-16.6189
ệ	-16.6189
ờ	-16.6189
ἐ	-16.6189
‣	-16.6189
※	-16.6189
⁃	-16.6189
₤	-16.6189
↓	-16.6189
↩	-16.6189
⇑	-16.6189
⇒	-16.6189
⇨	-16.6189
∈	-16.6189
∑	-16.6189
∞	-16.6189
⋅	-16.6189
▲	-16.6189
▷	-16.6189
▼	-16.6189
▽	-16.6189
▾	-16.6189
☐	-16.6189
☒	-16.6189
☕	-16.6189
☟	-16.6189
☭	-16.6189
♦	-16.6189
♧	-16.6189
♫	-16.6189
✌	-16.6189
✗	-16.6189
➜	-16.6189
➥	-16.6189
⟵	-16.6189
⟶	-16.6189
⦁	-16.6189
オ	-16.6189
ニ	-16.6189
ビ	-16.6189
リ	-16.6189
世	-16.6189
五	-16.6189
光	-16.6189
公	-16.6189
共	-16.6189
军	-16.6189
华	-16.6189
司	-16.6189
和	-16.6189
大	-16.6189
山	-16.6189
式	-16.6189
春	-16.6189
月	-16.6189
株	-16.6189
楚	-16.6189
海	-16.6189
湾	-16.6189
灣	-16.6189
狂	-16.6189
珞	-16.6189
界	-16.6189
社	-16.6189
秋	-16.6189
空	-16.6189
箇	-16.6189
级	-16.6189
结	-16.6189
聯	-16.6189
臺	-16.6189
航	-16.6189
言	-16.6189
賽	-16.6189
鈥	-16.6189
镜	-16.6189
낍	-16.6189
책	-16.6189
	-16.6189
	-16.6189
	-16.6189
	-16.6189
	-16.6189
	-16.6189
	-16.6189
	-16.6189
	-16.6189
	-16.6189
	-16.6189
	-16.6189
	-16.6189
	-16.6189
	-16.6189
	-16.6189
	-16.6189
	-16.6189
	-16.6189
	-16.6189
	-16.6189
	-16.6189
	-16.6189
	-16.6189
￼	-16.6189
🇨	-16.6189
🌞	-16.6189
🌷	-16.6189
🌸	-16.6189
🍀	-16.6189
🍦	-16.6189
🍰	-16.6189
🍳	-16.6189
🍴	-16.6189
🎁	-16.6189
🎈	-16.6189
🎉	-16.6189
🎨	-16.6189
🎶	-16.6189
🎼	-16.6189
🏆	-16.6189
🏽	-16.6189
🐞	-16.6189
🐲	-16.6189
🐴	-16.6189
🐾	-16.6189
👁	-16.6189
👇	-16.6189
👌	-16.6189
💔	-16.6189
💥	-16.6189
💪	-16.6189
💰	-16.6189
📌	-16.6189
📚	-16.6189
🔸	-16.6189
🖤	-16.6189
🗞	-16.6189
😁	-16.6189
😆	-16.6189
😔	-16.6189
😖	-16.6189
😞	-16.6189
😠	-16.6189
😫	-16.6189
😭	-16.6189
😳	-16.6189
😶	-16.6189
🙆	-16.6189
🙉	-16.6189
🤙	-16.6189
🤛	-16.6189
🤩	-16.6189
🥂	-16.6189
🥇	-16.6189
🦋	-16.6189
🦌	-16.6189
🧡	-16.6189
ě	-16.6189
Ł	-16.6189
Ḥ	-16.6189
ḳ	-16.6189
ủ	-16.6189
📷	-16.6189
台	-16.6189
о	-16.619
ڤ	-16.619
协	-16.619
🙂	-16.619
