{
  "version": "1.0",
  "truncation": null,
  "padding": null,
  "added_tokens": [
    {
      "id": 0,
      "content": "[UNK]",
      "single_word": false,
      "lstrip": false,
      "rstrip": false,
      "normalized": false,
      "special": true
    },
    {
      "id": 1,
      "content": "[CLS]",
      "single_word": false,
      "lstrip": false,
      "rstrip": false,
      "normalized": false,
      "special": true
    },
    {
      "id": 2,
      "content": "[SEP]",
      "single_word": false,
      "lstrip": false,
      "rstrip": false,
      "normalized": false,
      "special": true
    },
    {
      "id": 3,
      "content": "[PAD]",
      "single_word": false,
      "lstrip": false,
      "rstrip": false,
      "normalized": false,
      "special": true
    },
    {
      "id": 4,
      "content": "[MASK]",
      "single_word": false,
      "lstrip": false,
      "rstrip": false,
      "normalized": false,
      "special": true
    }
  ],
  "normalizer": {
    "type": "Sequence",
    "normalizers": [
      {
        "type": "NFKC"
      },
      {
        "type": "Lowercase"
      }
    ]
  },
  "pre_tokenizer": {
    "type": "Whitespace"
  },
  "post_processor": null,
  "decoder": {
    "type": "WordPiece",
    "prefix": "##",
    "cleanup": true
  },
  "model": {
    "type": "WordPiece",
    "unk_token": "[UNK]",
    "continuing_subword_prefix": "##",
    "max_input_chars_per_word": 100,
    "vocab": {
      "[UNK]": 0,
      "[CLS]": 1,
      "[SEP]": 2,
      "[PAD]": 3,
      "[MASK]": 4,
      "!": 5,
      "\"": 6,
      "#": 7,
      "$": 8,
      "%": 9,
      "&": 10,
      "'": 11,
      "(": 12,
      ")": 13,
      "*": 14,
      "+": 15,
      ",": 16,
      "-": 17,
      ".": 18,
      "/": 19,
      "0": 20,
      "1": 21,
      "2": 22,
      "3": 23,
      "4": 24,
      "5": 25,
      "6": 26,
      "7": 27,
      "8": 28,
      "9": 29,
      ":": 30,
      ";": 31,
      "<": 32,
      "=": 33,
      ">": 34,
      "?": 35,
      "@": 36,
      "[": 37,
      "\\": 38,
      "]": 39,
      "^": 40,
      "_": 41,
      "`": 42,
      "a": 43,
      "b": 44,
      "c": 45,
      "d": 46,
      "e": 47,
      "f": 48,
      "g": 49,
      "h": 50,
      "i": 51,
      "j": 52,
      "k": 53,
      "l": 54,
      "m": 55,
      "n": 56,
      "o": 57,
      "p": 58,
      "q": 59,
      "r": 60,
      "s": 61,
      "t": 62,
      "u": 63,
      "v": 64,
      "w": 65,
      "x": 66,
      "y": 67,
      "z": 68,
      "{": 69,
      "|": 70,
      "}": 71,
      "~": 72,
      "": 73,
      "": 74,
      "": 75,
      "": 76,
      "": 77,
      "": 78,
      "": 79,
      "": 80,
      "": 81,
      "": 82,
      "": 83,
      "": 84,
      "¡": 85,
      "¢": 86,
      "£": 87,
      "¤": 88,
      "¥": 89,
      "§": 90,
      "©": 91,
      "«": 92,
      "¬": 93,
      "­": 94,
      "®": 95,
      "°": 96,
      "±": 97,
      "¶": 98,
      "·": 99,
      "»": 100,
      "¿": 101,
      "×": 102,
      "ß": 103,
      "à": 104,
      "á": 105,
      "â": 106,
      "ã": 107,
      "ä": 108,
      "å": 109,
      "æ": 110,
      "ç": 111,
      "è": 112,
      "é": 113,
      "ê": 114,
      "ë": 115,
      "ì": 116,
      "í": 117,
      "î": 118,
      "ï": 119,
      "ð": 120,
      "ñ": 121,
      "ò": 122,
      "ó": 123,
      "ô": 124,
      "õ": 125,
      "ö": 126,
      "÷": 127,
      "ø": 128,
      "ù": 129,
      "ú": 130,
      "û": 131,
      "ü": 132,
      "ý": 133,
      "þ": 134,
      "ÿ": 135,
      "ā": 136,
      "ă": 137,
      "ą": 138,
      "ć": 139,
      "č": 140,
      "đ": 141,
      "ē": 142,
      "ė": 143,
      "ę": 144,
      "ě": 145,
      "ğ": 146,
      "ħ": 147,
      "ī": 148,
      "ı": 149,
      "ķ": 150,
      "ĺ": 151,
      "ł": 152,
      "ń": 153,
      "ō": 154,
      "ő": 155,
      "œ": 156,
      "ś": 157,
      "ş": 158,
      "š": 159,
      "ţ": 160,
      "ū": 161,
      "ų": 162,
      "ż": 163,
      "ž": 164,
      "ƒ": 165,
      "ơ": 166,
      "ư": 167,
      "ǎ": 168,
      "ǒ": 169,
      "ǔ": 170,
      "ǧ": 171,
      "ș": 172,
      "ɑ": 173,
      "ɒ": 174,
      "ə": 175,
      "ɛ": 176,
      "ɡ": 177,
      "ɣ": 178,
      "ɸ": 179,
      "ʹ": 180,
      "ʼ": 181,
      "ˆ": 182,
      "ˈ": 183,
      "ˌ": 184,
      "ː": 185,
      "ˮ": 186,
      "́": 187,
      "̃": 188,
      "̇": 189,
      "̈": 190,
      "̊": 191,
      "̶": 192,
      "ά": 193,
      "ή": 194,
      "ί": 195,
      "α": 196,
      "β": 197,
      "γ": 198,
      "δ": 199,
      "ε": 200,
      "η": 201,
      "θ": 202,
      "ι": 203,
      "κ": 204,
      "λ": 205,
      "μ": 206,
      "ν": 207,
      "ο": 208,
      "π": 209,
      "ρ": 210,
      "ς": 211,
      "σ": 212,
      "τ": 213,
      "φ": 214,
      "χ": 215,
      "ω": 216,
      "ό": 217,
      "ύ": 218,
      "а": 219,
      "б": 220,
      "в": 221,
      "г": 222,
      "д": 223,
      "е": 224,
      "и": 225,
      "й": 226,
      "к": 227,
      "л": 228,
      "м": 229,
      "н": 230,
      "о": 231,
      "п": 232,
      "р": 233,
      "с": 234,
      "т": 235,
      "ц": 236,
      "ы": 237,
      "э": 238,
      "я": 239,
      "ј": 240,
      "ґ": 241,
      "ӓ": 242,
      "ӧ": 243,
      "א": 244,
      "ד": 245,
      "צ": 246,
      "ا": 247,
      "ة": 248,
      "ت": 249,
      "ث": 250,
      "ج": 251,
      "ح": 252,
      "د": 253,
      "ر": 254,
      "س": 255,
      "ص": 256,
      "ع": 257,
      "ك": 258,
      "ل": 259,
      "م": 260,
      "ن": 261,
      "ه": 262,
      "و": 263,
      "ى": 264,
      "ي": 265,
      "ڤ": 266,
      "ނ": 267,
      "ތ": 268,
      "ަ": 269,
      "ާ": 270,
      "ก": 271,
      "ข": 272,
      "ต": 273,
      "ธ": 274,
      "น": 275,
      "ย": 276,
      "ร": 277,
      "ส": 278,
      "ะ": 279,
      "ั": 280,
      "ิ": 281,
      "ี": 282,
      "ุ": 283,
      "เ": 284,
      "ი": 285,
      "რ": 286,
      "უ": 287,
      "ც": 288,
      "ხ": 289,
      "ḥ": 290,
      "ḳ": 291,
      "ṅ": 292,
      "ṇ": 293,
      "ṛ": 294,
      "ṣ": 295,
      "ṭ": 296,
      "ạ": 297,
      "ả": 298,
      "ầ": 299,
      "ẹ": 300,
      "ễ": 301,
      "ệ": 302,
      "ỉ": 303,
      "ị": 304,
      "ọ": 305,
      "ờ": 306,
      "ủ": 307,
      "ἀ": 308,
      "ἐ": 309,
      "​": 310,
      "‌": 311,
      "‍": 312,
      "‎": 313,
      "‏": 314,
      "‐": 315,
      "‒": 316,
      "–": 317,
      "—": 318,
      "―": 319,
      "‘": 320,
      "’": 321,
      "‚": 322,
      "“": 323,
      "”": 324,
      "„": 325,
      "†": 326,
      "‡": 327,
      "•": 328,
      "‣": 329,
      "‬": 330,
      "‭": 331,
      "′": 332,
      "‹": 333,
      "›": 334,
      "※": 335,
      "⁃": 336,
      "⁄": 337,
      "₤": 338,
      "€": 339,
      "←": 340,
      "↑": 341,
      "→": 342,
      "↓": 343,
      "↩": 344,
      "↵": 345,
      "⇑": 346,
      "⇒": 347,
      "⇨": 348,
      "∈": 349,
      "∑": 350,
      "−": 351,
      "∙": 352,
      "√": 353,
      "∞": 354,
      "≈": 355,
      "≤": 356,
      "≥": 357,
      "⋅": 358,
      "▌": 359,
      "■": 360,
      "□": 361,
      "▪": 362,
      "▲": 363,
      "▶": 364,
      "▷": 365,
      "▸": 366,
      "►": 367,
      "▼": 368,
      "▽": 369,
      "▾": 370,
      "◄": 371,
      "◆": 372,
      "◊": 373,
      "○": 374,
      "●": 375,
      "◦": 376,
      "◾": 377,
      "★": 378,
      "☆": 379,
      "☐": 380,
      "☒": 381,
      "☕": 382,
      "☝": 383,
      "☟": 384,
      "☭": 385,
      "☺": 386,
      "♡": 387,
      "♣": 388,
      "♥": 389,
      "♦": 390,
      "♧": 391,
      "♪": 392,
      "♫": 393,
      "⚘": 394,
      "✅": 395,
      "✌": 396,
      "✎": 397,
      "✓": 398,
      "✔": 399,
      "✗": 400,
      "✰": 401,
      "❑": 402,
      "❓": 403,
      "❤": 404,
      "❥": 405,
      "➜": 406,
      "➥": 407,
      "⟵": 408,
      "⟶": 409,
      "⦁": 410,
      "⭐": 411,
      "オ": 412,
      "コ": 413,
      "ニ": 414,
      "ビ": 415,
      "リ": 416,
      "ン": 417,
      "・": 418,
      "万": 419,
      "世": 420,
      "中": 421,
      "主": 422,
      "五": 423,
      "人": 424,
      "会": 425,
      "光": 426,
      "公": 427,
      "共": 428,
      "军": 429,
      "华": 430,
      "协": 431,
      "協": 432,
      "台": 433,
      "司": 434,
      "命": 435,
      "和": 436,
      "团": 437,
      "国": 438,
      "國": 439,
      "大": 440,
      "山": 441,
      "岁": 442,
      "式": 443,
      "春": 444,
      "會": 445,
      "月": 446,
      "有": 447,
      "株": 448,
      "楚": 449,
      "民": 450,
      "江": 451,
      "海": 452,
      "湾": 453,
      "灣": 454,
      "狂": 455,
      "珞": 456,
      "球": 457,
      "界": 458,
      "社": 459,
      "秋": 460,
      "空": 461,
      "箇": 462,
      "級": 463,
      "级": 464,
      "结": 465,
      "联": 466,
      "聯": 467,
      "臺": 468,
      "航": 469,
      "言": 470,
      "賽": 471,
      "赛": 472,
      "超": 473,
      "足": 474,
      "軍": 475,
      "鈥": 476,
      "锦": 477,
      "镜": 478,
      "际": 479,
      "限": 480,
      "集": 481,
      "革": 482,
      "낍": 483,
      "눉": 484,
      "책": 485,
      "": 486,
      "": 487,
      "": 488,
      "": 489,
      "": 490,
      "": 491,
      "": 492,
      "": 493,
      "": 494,
      "": 495,
      "": 496,
      "": 497,
      "": 498,
      "": 499,
      "": 500,
      "": 501,
      "": 502,
      "": 503,
      "": 504,
      "": 505,
      "": 506,
      "": 507,
      "": 508,
      "": 509,
      "": 510,
      "": 511,
      "": 512,
      "": 513,
      "": 514,
      "": 515,
      "": 516,
      "": 517,
      "": 518,
      "": 519,
      "": 520,
      "": 521,
      "": 522,
      "": 523,
      "": 524,
      "": 525,
      "︎": 526,
      "️": 527,
      "﻿": 528,
      "￼": 529,
      "�": 530,
      "🇨": 531,
      "🌞": 532,
      "🌷": 533,
      "🌸": 534,
      "🍀": 535,
      "🍦": 536,
      "🍰": 537,
      "🍳": 538,
      "🍴": 539,
      "🎁": 540,
      "🎈": 541,
      "🎉": 542,
      "🎨": 543,
      "🎶": 544,
      "🎼": 545,
      "🏆": 546,
      "🏻": 547,
      "🏼": 548,
      "🏽": 549,
      "🐞": 550,
      "🐲": 551,
      "🐴": 552,
      "🐾": 553,
      "👁": 554,
      "👇": 555,
      "👌": 556,
      "👍": 557,
      "👏": 558,
      "💔": 559,
      "💕": 560,
      "💖": 561,
      "💙": 562,
      "💚": 563,
      "💜": 564,
      "💤": 565,
      "💥": 566,
      "💪": 567,
      "💰": 568,
      "📌": 569,
      "📚": 570,
      "📷": 571,
      "🔸": 572,
      "🖤": 573,
      "🗞": 574,
      "😀": 575,
      "😁": 576,
      "😂": 577,
      "😃": 578,
      "😄": 579,
      "😅": 580,
      "😆": 581,
      "😇": 582,
      "😉": 583,
      "😊": 584,
      "😋": 585,
      "😍": 586,
      "😎": 587,
      "😔": 588,
      "😕": 589,
      "😖": 590,
      "😘": 591,
      "😛": 592,
      "😜": 593,
      "😝": 594,
      "😞": 595,
      "😠": 596,
      "😢": 597,
      "😦": 598,
      "😫": 599,
      "😬": 600,
      "😭": 601,
      "😳": 602,
      "😶": 603,
      "🙁": 604,
      "🙂": 605,
      "🙆": 606,
      "🙈": 607,
      "🙉": 608,
      "🙌": 609,
      "🙏": 610,
      "🤔": 611,
      "🤗": 612,
      "🤙": 613,
      "🤛": 614,
      "🤣": 615,
      "🤩": 616,
      "🤯": 617,
      "🥂": 618,
      "🥇": 619,
      "🦋": 620,
      "🦌": 621,
      "🧡": 622,
      "🧩": 623,
      "##n": 624,
      "##t": 625,
      "##e": 626,
      "##g": 627,
      "##r": 628,
      "##a": 629,
      "##i": 630,
      "##o": 631,
      "##s": 632,
      "##p": 633,
      "##l": 634,
      "##k": 635,
      "##u": 636,
      "##ö": 637,
      "##c": 638,
      "##d": 639,
      "##y": 640,
      "##m": 641,
      "##b": 642,
      "##j": 643,
      "##é": 644,
      "##ä": 645,
      "##f": 646,
      "##7": 647,
      "##3": 648,
      "##8": 649,
      "##4": 650,
      "##h": 651,
      "##å": 652,
      "##v": 653,
      "##x": 654,
      "##1": 655,
      "##5": 656,
      "##z": 657,
      "##w": 658,
      "##q": 659,
      "##(": 660,
      "##.": 661,
      "##2": 662,
      "##0": 663,
      "##6": 664,
      "##9": 665,
      "##-": 666,
      "##)": 667,
      "##â": 668,
      "##í": 669,
      "##ç": 670,
      "##г": 671,
      "##_": 672,
      "##:": 673,
      "##!": 674,
      "##,": 675,
      "##ṛ": 676,
      "##ṣ": 677,
      "##ṇ": 678,
      "##ğ": 679,
      "##”": 680,
      "##»": 681,
      "##\"": 682,
      "##ø": 683,
      "##>": 684,
      "##ł": 685,
      "##ñ": 686,
      "##\\": 687,
      "##ï": 688,
      "##ü": 689,
      "##î": 690,
      "##★": 691,
      "##☆": 692,
      "##ʹ": 693,
      "##ə": 694,
      "##œ": 695,
      "##̃": 696,
      "##ɑ": 697,
      "##á": 698,
      "##ō": 699,
      "##❤": 700,
      "##﻿": 701,
      "##~": 702,
      "##": 703,
      "##ô": 704,
      "##ó": 705,
      "##<": 706,
      "##’": 707,
      "##ð": 708,
      "##€": 709,
      "##‭": 710,
      "##—": 711,
      "##ο": 712,
      "##σ": 713,
      "##ε": 714,
      "##ι": 715,
      "##δ": 716,
      "##ω": 717,
      "##ν": 718,
      "##ί": 719,
      "##α": 720,
      "##æ": 721,
      "##β": 722,
      "##?": 723,
      "##ë": 724,
      "##ú": 725,
      "##و": 726,
      "##ر": 727,
      "##ة": 728,
      "##;": 729,
      "##κ": 730,
      "##]": 731,
      "##ž": 732,
      "##[": 733,
      "##�": 734,
      "##ĺ": 735,
      "##ć": 736,
      "##ā": 737,
      "##/": 738,
      "##ã": 739,
      "##ă": 740,
      "##'": 741,
      "##🏼": 742,
      "##*": 743,
      "##э": 744,
      "##д": 745,
      "##ė": 746,
      "##😍": 747,
      "##¬": 748,
      "##®": 749,
      "##^": 750,
      "##{": 751,
      "##è": 752,
      "##$": 753,
      "##ê": 754,
      "##ş": 755,
      "##ǧ": 756,
      "##+": 757,
      "##š": 758,
      "##ン": 759,
      "##ビ": 760,
      "##ニ": 761,
      "##=": 762,
      "##ß": 763,
      "##§": 764,
      "##}": 765,
      "##|": 766,
      "##海": 767,
      "###": 768,
      "##ɛ": 769,
      "##•": 770,
      "##🏻": 771,
      "##🙂": 772,
      "##ґ": 773,
      "##›": 774,
      "##û": 775,
      "##界": 776,
      "##人": 777,
      "##民": 778,
      "##大": 779,
      "##团": 780,
      "##结": 781,
      "##万": 782,
      "##岁": 783,
      "##õ": 784,
      "##–": 785,
      "##“": 786,
      "##±": 787,
      "##ั": 788,
      "##ก": 789,
      "##เ": 790,
      "##ี": 791,
      "##ย": 792,
      "##ร": 793,
      "##ต": 794,
      "##ิ": 795,
      "##⇑": 796,
      "##à": 797,
      "##👌": 798,
      "##&": 799,
      "##言": 800,
      "##☺": 801,
      "##": 802,
      "##​": 803,
      "##ì": 804,
      "##👍": 805,
      "##ò": 806,
      "##ạ": 807,
      "##🎉": 808,
      "##🎈": 809,
      "##🎁": 810,
      "##س": 811,
      "##م": 812,
      "##ع": 813,
      "##ل": 814,
      "##ي": 815,
      "##©": 816,
      "##ș": 817,
      "##ا": 818,
      "##国": 819,
      "##足": 820,
      "##球": 821,
      "##协": 822,
      "##会": 823,
      "##超": 824,
      "##级": 825,
      "##联": 826,
      "##赛": 827,
      "##ư": 828,
      "##ờ": 829,
      "##­": 830,
      "##%": 831,
      "##@": 832,
      "##ń": 833,
      "##🌷": 834,
      "##ÿ": 835,
      "##▽": 836,
      "##«": 837,
      "##ẹ": 838,
      "##限": 839,
      "##公": 840,
      "##司": 841,
      "##🍀": 842,
      "##ę": 843,
      "##ı": 844,
      "##ē": 845,
      "##ū": 846,
      "##😘": 847,
      "##箇": 848,
      "##山": 849,
      "##λ": 850,
      "##χ": 851,
      "##ς": 852,
      "##ṭ": 853,
      "##►": 854,
      "##ː": 855,
      "##": 856,
      "##γ": 857,
      "##ӓ": 858,
      "##`": 859,
      "##": 860,
      "##й": 861,
      "##ц": 862,
      "##č": 863,
      "##р": 864,
      "##а": 865,
      "##с": 866,
      "##н": 867,
      "##ы": 868,
      "##¢": 869,
      "##ƒ": 870,
      "##ุ": 871,
      "##ข": 872,
      "##ธ": 873,
      "##น": 874,
      "##ะ": 875,
      "##‎": 876,
      "##●": 877,
      "##‡": 878,
      "##ơ": 879,
      "##💤": 880,
      "##ḥ": 881,
      "##¤": 882,
      "##": 883,
      "##ن": 884,
      "##ه": 885,
      "##‹": 886,
      "##🦌": 887,
      "##♥": 888,
      "##❓": 889,
      "##": 890,
      "##ρ": 891,
      "##τ": 892,
      "##ό": 893,
      "##✎": 894,
      "##ī": 895,
      "##↵": 896,
      "##灣": 897,
      "##主": 898,
      "##國": 899,
      "##ą": 900,
      "##": 901,
      "##ù": 902,
      "##ˆ": 903,
      "##ő": 904,
      "##ý": 905,
      "##′": 906,
      "##■": 907,
      "##ḳ": 908,
      "##̇": 909,
      "##ك": 910,
      "##ت": 911,
      "##🏽": 912,
      "##ј": 913,
      "##≈": 914,
      "##к": 915,
      "##е": 916,
      "##‌": 917,
      "##式": 918,
      "##社": 919,
      "##オ": 920,
      "##リ": 921,
      "##コ": 922,
      "##🙌": 923,
      "##‘": 924,
      "##命": 925,
      "##軍": 926,
      "##þ": 927,
      "##": 928,
      "##‐": 929,
      "##⭐": 930,
      "##": 931,
      "##💙": 932,
      "##→": 933,
      "##ص": 934,
      "##🍰": 935,
      "##🥂": 936,
      "##ύ": 937,
      "##უ": 938,
      "##ც": 939,
      "##რ": 940,
      "##ი": 941,
      "##≥": 942,
      "##革": 943,
      "##军": 944,
      "##£": 945,
      "##😅": 946,
      "##ǎ": 947,
      "##🤛": 948,
      "##ţ": 949,
      "##đ": 950,
      "##◾": 951,
      "##ś": 952,
      "##φ": 953,
      "##ά": 954,
      "##￼": 955,
      "##🤣": 956,
      "##📚": 957,
      "##←": 958,
      "##ɣ": 959,
      "##ާ": 960,
      "##ނ": 961,
      "##ަ": 962,
      "##ż": 963,
      "##−": 964,
      "##ọ": 965,
      "##ị": 966,
      "##江": 967,
      "##际": 968,
      "##ح": 969,
      "##د": 970,
      "##ӧ": 971,
      "##ǔ": 972,
      "##†": 973,
      "##ễ": 974,
      "##": 975,
      "##": 976,
      "##🏆": 977,
      "##秋": 978,
      "##航": 979,
      "##空": 980,
      "##ķ": 981,
      "##😊": 982,
      "##光": 983,
      "##": 984,
      "##😔": 985,
      "##🤯": 986,
      "##💖": 987,
      "##ṅ": 988,
      "##책": 989,
      "##ě": 990,
      "##ǒ": 991,
      "##": 992,
      "##⚘": 993,
      "##💜": 994,
      "##🦋": 995,
      "##🐞": 996,
      "##😇": 997,
      "##ầ": 998,
      "##🌸": 999,
      "##¡": 1000,
      "##ų": 1001,
      "##θ": 1002,
      "##ả": 1003,
      "##湾": 1004,
      "##ή": 1005,
      "##": 1006,
      "##": 1007,
      "##п": 1008,
      "##💚": 1009,
      "##华": 1010,
      "##共": 1011,
      "##和": 1012,
      "##и": 1013,
      "##м": 1014,
      "##т": 1015,
      "##о": 1016,
      "##в": 1017,
      "##🌞": 1018,
      "##😂": 1019,
      "##ى": 1020,
      "##л": 1021,
      "##協": 1022,
      "##會": 1023,
      "##級": 1024,
      "##聯": 1025,
      "##賽": 1026,
      "##😕": 1027,
      "##😝": 1028,
      "##η": 1029,
      "##⁃": 1030,
      "##▼": 1031,
      "##◄": 1032,
      "##ج": 1033,
      "##¿": 1034,
      "##": 1035,
      "##": 1036,
      "##ủ": 1037,
      "##°": 1038,
      "##ệ": 1039,
      "##😁": 1040,
      "##er": 1041,
      "##en": 1042,
      "##ar": 1043,
      "##tt": 1044,
      "##an": 1045,
      "##et": 1046,
      "##ll": 1047,
      "##ör": 1048,
      "##in": 1049,
      "##om": 1050,
      "##st": 1051,
      "##ig": 1052,
      "oc": 1053,
      "för": 1054,
      "och": 1055,
      "##on": 1056,
      "att": 1057,
      "##or": 1058,
      "##de": 1059,
      "##at": 1060,
      "in": 1061,
      "en": 1062,
      "##är": 1063,
      "##ka": 1064,
      "##ing": 1065,
      "är": 1066,
      "##ed": 1067,
      "##ag": 1068,
      "##ill": 1069,
      "##än": 1070,
      "##na": 1071,
      "de": 1072,
      "##is": 1073,
      "av": 1074,
      "##kt": 1075,
      "##ra": 1076,
      "det": 1077,
      "som": 1078,
      "till": 1079,
      "på": 1080,
      "##el": 1081,
      "##te": 1082,
      "med": 1083,
      "##al": 1084,
      "vi": 1085,
      "st": 1086,
      "##lig": 1087,
      "##nd": 1088,
      "##pp": 1089,
      "den": 1090,
      "##ning": 1091,
      "##ck": 1092,
      "##ter": 1093,
      "##am": 1094,
      "##as": 1095,
      "##ro": 1096,
      "##ion": 1097,
      "var": 1098,
      "##es": 1099,
      "##it": 1100,
      "##ån": 1101,
      "om": 1102,
      "##iv": 1103,
      "har": 1104,
      "jag": 1105,
      "du": 1106,
      "inte": 1107,
      "an": 1108,
      "##id": 1109,
      "##ver": 1110,
      "##il": 1111,
      "##and": 1112,
      "fr": 1113,
      "##em": 1114,
      "##ade": 1115,
      "ut": 1116,
      "##ad": 1117,
      "##ller": 1118,
      "kan": 1119,
      "ett": 1120,
      "##ur": 1121,
      "##ätt": 1122,
      "##re": 1123,
      "##ol": 1124,
      "##äl": 1125,
      "##der": 1126,
      "##ande": 1127,
      "kom": 1128,
      "sk": 1129,
      "##år": 1130,
      "##åg": 1131,
      "##sk": 1132,
      "##het": 1133,
      "##are": 1134,
      "all": 1135,
      "##ss": 1136,
      "##ik": 1137,
      "##un": 1138,
      "be": 1139,
      "##ut": 1140,
      "##ot": 1141,
      "##ent": 1142,
      "##mer": 1143,
      "upp": 1144,
      "##ens": 1145,
      "##da": 1146,
      "så": 1147,
      "##för": 1148,
      "##ation": 1149,
      "eller": 1150,
      "##li": 1151,
      "##sta": 1152,
      "##ång": 1153,
      "##ans": 1154,
      "##äg": 1155,
      "##itt": 1156,
      "ska": 1157,
      "pro": 1158,
      "från": 1159,
      "sp": 1160,
      "##ell": 1161,
      "##ort": 1162,
      "##us": 1163,
      "när": 1164,
      "##le": 1165,
      "##isk": 1166,
      "##ru": 1167,
      "men": 1168,
      "##ta": 1169,
      "re": 1170,
      "##äm": 1171,
      "någ": 1172,
      "min": 1173,
      "##vän": 1174,
      "##äll": 1175,
      "##ud": 1176,
      "##nder": 1177,
      "sam": 1178,
      "##ist": 1179,
      "##sa": 1180,
      "##iska": 1181,
      "##inn": 1182,
      "över": 1183,
      "##tta": 1184,
      "kommer": 1185,
      "han": 1186,
      "##fter": 1187,
      "##ma": 1188,
      "kon": 1189,
      "##ligt": 1190,
      "bar": 1191,
      "##la": 1192,
      "##yck": 1193,
      "ar": 1194,
      "##ks": 1195,
      "##den": 1196,
      "gör": 1197,
      "##ers": 1198,
      "##var": 1199,
      "##erna": 1200,
      "tr": 1201,
      "##og": 1202,
      "man": 1203,
      "##liga": 1204,
      "under": 1205,
      "##um": 1206,
      "##ul": 1207,
      "din": 1208,
      "##ff": 1209,
      "##era": 1210,
      "##ic": 1211,
      "##jäl": 1212,
      "##ram": 1213,
      "##ker": 1214,
      "##ats": 1215,
      "##ste": 1216,
      "använ": 1217,
      "se": 1218,
      "detta": 1219,
      "sig": 1220,
      "##änn": 1221,
      "alla": 1222,
      "##bet": 1223,
      "där": 1224,
      "##gen": 1225,
      "fa": 1226,
      "här": 1227,
      "vara": 1228,
      "and": 1229,
      "##lar": 1230,
      "##ull": 1231,
      "##ska": 1232,
      "##se": 1233,
      "år": 1234,
      "gen": 1235,
      "dig": 1236,
      "må": 1237,
      "efter": 1238,
      "sin": 1239,
      "##ri": 1240,
      "##je": 1241,
      "vad": 1242,
      "##igt": 1243,
      "##äng": 1244,
      "beh": 1245,
      "##ft": 1246,
      "ny": 1247,
      "##os": 1248,
      "hur": 1249,
      "hel": 1250,
      "20": 1251,
      "allt": 1252,
      "ha": 1253,
      "##yg": 1254,
      "##bb": 1255,
      "fl": 1256,
      "dess": 1257,
      "##att": 1258,
      "##del": 1259,
      "tid": 1260,
      "än": 1261,
      "##sl": 1262,
      "##orm": 1263,
      "vär": 1264,
      "pr": 1265,
      "hon": 1266,
      "##sp": 1267,
      "vill": 1268,
      "##od": 1269,
      "ex": 1270,
      "finn": 1271,
      "##est": 1272,
      "##ne": 1273,
      "##ld": 1274,
      "##arna": 1275,
      "vis": 1276,
      "##pa": 1277,
      "##art": 1278,
      "or": 1279,
      "##ger": 1280,
      "finns": 1281,
      "##åll": 1282,
      "andra": 1283,
      "er": 1284,
      "ta": 1285,
      "bl": 1286,
      "ocks": 1287,
      "också": 1288,
      "##ok": 1289,
      "##ser": 1290,
      "sl": 1291,
      "mer": 1292,
      "sy": 1293,
      "genom": 1294,
      "##iga": 1295,
      "ver": 1296,
      "##rä": 1297,
      "##ven": 1298,
      "##du": 1299,
      "##..": 1300,
      "##ningen": 1301,
      "##öd": 1302,
      "##itet": 1303,
      "##ju": 1304,
      "mig": 1305,
      "##ling": 1306,
      "vil": 1307,
      "dag": 1308,
      "##ycket": 1309,
      "##im": 1310,
      "tv": 1311,
      "##ch": 1312,
      "##ord": 1313,
      "##öj": 1314,
      "vid": 1315,
      "##ekt": 1316,
      "dem": 1317,
      "##eck": 1318,
      "väl": 1319,
      "bör": 1320,
      "denna": 1321,
      "bli": 1322,
      "mot": 1323,
      "bara": 1324,
      "fram": 1325,
      "##va": 1326,
      "mycket": 1327,
      "##ningar": 1328,
      "nu": 1329,
      "##ess": 1330,
      "##per": 1331,
      "##ilj": 1332,
      "##ier": 1333,
      "##ligen": 1334,
      "##erson": 1335,
      "pl": 1336,
      "##ikt": 1337,
      "##ant": 1338,
      "##ci": 1339,
      "få": 1340,
      "kun": 1341,
      "##edan": 1342,
      "##änd": 1343,
      "##ark": 1344,
      "##und": 1345,
      "arbet": 1346,
      "br": 1347,
      "##ster": 1348,
      "någon": 1349,
      "##bl": 1350,
      "##ånga": 1351,
      "##ak": 1352,
      "ber": 1353,
      "##all": 1354,
      "res": 1355,
      "le": 1356,
      "vår": 1357,
      "själ": 1358,
      "##ja": 1359,
      "person": 1360,
      "##ga": 1361,
      "del": 1362,
      "spel": 1363,
      "##rå": 1364,
      "göra": 1365,
      "##ställ": 1366,
      "ann": 1367,
      "även": 1368,
      "##vis": 1369,
      "##ella": 1370,
      "##eras": 1371,
      "bes": 1372,
      "liv": 1373,
      "förs": 1374,
      "använd": 1375,
      "##ighet": 1376,
      "bet": 1377,
      "skull": 1378,
      "##gi": 1379,
      "stor": 1380,
      "ty": 1381,
      "kr": 1382,
      "hö": 1383,
      "många": 1384,
      "eu": 1385,
      "un": 1386,
      "skulle": 1387,
      "...": 1388,
      "kv": 1389,
      "##ering": 1390,
      "då": 1391,
      "dessa": 1392,
      "männ": 1393,
      "rätt": 1394,
      "##opp": 1395,
      "oss": 1396,
      "säg": 1397,
      "##riv": 1398,
      "##00": 1399,
      "##lighet": 1400,
      "behö": 1401,
      "lä": 1402,
      "sätt": 1403,
      "bil": 1404,
      "##kar": 1405,
      "##ktion": 1406,
      "te": 1407,
      "##op": 1408,
      "##ket": 1409,
      "li": 1410,
      "##form": 1411,
      "##tal": 1412,
      "##nad": 1413,
      "vet": 1414,
      "##ost": 1415,
      "ser": 1416,
      "##ass": 1417,
      "gru": 1418,
      "##ber": 1419,
      "##ende": 1420,
      "bra": 1421,
      "##ring": 1422,
      "##öl": 1423,
      "måste": 1424,
      "##ala": 1425,
      "##stå": 1426,
      "sä": 1427,
      "utan": 1428,
      "##iskt": 1429,
      "får": 1430,
      "##cka": 1431,
      "hade": 1432,
      "barn": 1433,
      "##yr": 1434,
      "människ": 1435,
      "produ": 1436,
      "##kom": 1437,
      "##ov": 1438,
      "##erade": 1439,
      "##ock": 1440,
      "##håll": 1441,
      "##pl": 1442,
      "något": 1443,
      "##som": 1444,
      "##oll": 1445,
      "##ien": 1446,
      "första": 1447,
      "hjäl": 1448,
      "vå": 1449,
      "utv": 1450,
      "##sam": 1451,
      "##öm": 1452,
      "##sätt": 1453,
      "19": 1454,
      "##dag": 1455,
      "##etag": 1456,
      "##ir": 1457,
      "201": 1458,
      "##tern": 1459,
      "##aren": 1460,
      "##ök": 1461,
      "komm": 1462,
      "ni": 1463,
      "##if": 1464,
      "ch": 1465,
      "kl": 1466,
      "##äst": 1467,
      "två": 1468,
      "##eg": 1469,
      "##ia": 1470,
      "reg": 1471,
      "ju": 1472,
      "##bil": 1473,
      "själv": 1474,
      "##ick": 1475,
      "##tr": 1476,
      "##ön": 1477,
      "##jän": 1478,
      "inne": 1479,
      "mo": 1480,
      "##åt": 1481,
      "inom": 1482,
      "##kl": 1483,
      "fort": 1484,
      "##ets": 1485,
      "##ce": 1486,
      "sa": 1487,
      "##ann": 1488,
      "##ken": 1489,
      "of": 1490,
      "##sm": 1491,
      "vikt": 1492,
      "hem": 1493,
      "##ativ": 1494,
      "sv": 1495,
      "##tid": 1496,
      "fråg": 1497,
      "människor": 1498,
      "gl": 1499,
      "möj": 1500,
      "gång": 1501,
      "sm": 1502,
      "hög": 1503,
      "##ästa": 1504,
      "gr": 1505,
      "sedan": 1506,
      "##ult": 1507,
      "##rar": 1508,
      "sina": 1509,
      "##akt": 1510,
      "fin": 1511,
      "jo": 1512,
      "varje": 1513,
      "##av": 1514,
      "nya": 1515,
      "##men": 1516,
      "##stem": 1517,
      "våra": 1518,
      "##ellan": 1519,
      "företag": 1520,
      "##änder": 1521,
      "hand": 1522,
      "th": 1523,
      "utveck": 1524,
      "slut": 1525,
      "verk": 1526,
      "åt": 1527,
      "##erar": 1528,
      "##yd": 1529,
      "kont": 1530,
      "##man": 1531,
      "##pt": 1532,
      "sen": 1533,
      "##äd": 1534,
      "ditt": 1535,
      "behöver": 1536,
      "##else": 1537,
      "mellan": 1538,
      "##gr": 1539,
      "##sen": 1540,
      "led": 1541,
      "di": 1542,
      "##gång": 1543,
      "for": 1544,
      "euro": 1545,
      "kän": 1546,
      "##enter": 1547,
      "##bar": 1548,
      "eg": 1549,
      "några": 1550,
      "säker": 1551,
      "lag": 1552,
      "##ölj": 1553,
      "mat": 1554,
      "##des": 1555,
      "##lev": 1556,
      "##lika": 1557,
      "åter": 1558,
      "##nings": 1559,
      "milj": 1560,
      "hela": 1561,
      "gud": 1562,
      "börj": 1563,
      "al": 1564,
      "##eri": 1565,
      "olika": 1566,
      "##kon": 1567,
      "##ts": 1568,
      "##vär": 1569,
      "fun": 1570,
      "gå": 1571,
      "vä": 1572,
      "deras": 1573,
      "##org": 1574,
      "dina": 1575,
      "##kn": 1576,
      "läng": 1577,
      "dat": 1578,
      "##jär": 1579,
      "##alt": 1580,
      "tro": 1581,
      "sitt": 1582,
      "stör": 1583,
      "##enska": 1584,
      "gj": 1585,
      "säger": 1586,
      "##andet": 1587,
      "grund": 1588,
      "##ott": 1589,
      "##formation": 1590,
      "enda": 1591,
      "ge": 1592,
      "##ygg": 1593,
      "förb": 1594,
      "kö": 1595,
      "##ef": 1596,
      "ma": 1597,
      "##ba": 1598,
      "we": 1599,
      "##mar": 1600,
      "lär": 1601,
      "##ionen": 1602,
      "produkt": 1603,
      "hans": 1604,
      "ans": 1605,
      "mark": 1606,
      "hitt": 1607,
      "blir": 1608,
      "vän": 1609,
      "##ap": 1610,
      "bå": 1611,
      "##ägg": 1612,
      "inn": 1613,
      "ingen": 1614,
      "so": 1615,
      "##anska": 1616,
      "##iss": 1617,
      "##gram": 1618,
      ").": 1619,
      "##det": 1620,
      "tjän": 1621,
      "änd": 1622,
      "##ys": 1623,
      "##ationer": 1624,
      "akt": 1625,
      "fil": 1626,
      "##edel": 1627,
      "skall": 1628,
      "hen": 1629,
      "håll": 1630,
      "##fatt": 1631,
      "lö": 1632,
      "##rig": 1633,
      "pol": 1634,
      "##nar": 1635,
      "##ika": 1636,
      "art": 1637,
      "##rat": 1638,
      "##atur": 1639,
      "intern": 1640,
      "honom": 1641,
      "par": 1642,
      "tän": 1643,
      "information": 1644,
      "##nas": 1645,
      "##lem": 1646,
      "alltid": 1647,
      "##pel": 1648,
      "##erad": 1649,
      "samma": 1650,
      "tre": 1651,
      "##lden": 1652,
      "varför": 1653,
      "##land": 1654,
      "##ang": 1655,
      "ur": 1656,
      "vilket": 1657,
      "går": 1658,
      "##br": 1659,
      "ing": 1660,
      "väg": 1661,
      "först": 1662,
      "##sy": 1663,
      "##fr": 1664,
      "##änner": 1665,
      "##par": 1666,
      "##pr": 1667,
      "##ades": 1668,
      "ne": 1669,
      "##ie": 1670,
      "##skap": 1671,
      "mitt": 1672,
      "##ffekt": 1673,
      "helt": 1674,
      "följ": 1675,
      "svar": 1676,
      "200": 1677,
      "ro": 1678,
      "läg": 1679,
      "##min": 1680,
      "##ål": 1681,
      "proc": 1682,
      "spe": 1683,
      "##arbet": 1684,
      "tal": 1685,
      "##dom": 1686,
      "##juk": 1687,
      "lång": 1688,
      "##ske": 1689,
      "##verk": 1690,
      "bästa": 1691,
      "rel": 1692,
      "dr": 1693,
      "##gar": 1694,
      "samt": 1695,
      "##ack": 1696,
      "##far": 1697,
      "världen": 1698,
      "enligt": 1699,
      "the": 1700,
      "läm": 1701,
      "per": 1702,
      "##kel": 1703,
      "##nader": 1704,
      "##skar": 1705,
      "##blem": 1706,
      "##rekt": 1707,
      "varit": 1708,
      "##äller": 1709,
      "##ellt": 1710,
      "stud": 1711,
      "hu": 1712,
      "##tter": 1713,
      "värld": 1714,
      "vin": 1715,
      "eftersom": 1716,
      "##io": 1717,
      "mar": 1718,
      "ord": 1719,
      "ger": 1720,
      "använda": 1721,
      "##heten": 1722,
      "plats": 1723,
      "##åller": 1724,
      "såd": 1725,
      "kall": 1726,
      "dom": 1727,
      "##ow": 1728,
      "fakt": 1729,
      "bort": 1730,
      "##ksam": 1731,
      "##skil": 1732,
      "bätt": 1733,
      "ly": 1734,
      "förl": 1735,
      "bättre": 1736,
      "van": 1737,
      "ant": 1738,
      "kunna": 1739,
      "##orde": 1740,
      "##str": 1741,
      "##utom": 1742,
      "speci": 1743,
      "##olk": 1744,
      "##rum": 1745,
      "webb": 1746,
      "##ät": 1747,
      "erb": 1748,
      "kra": 1749,
      "##plats": 1750,
      "##igare": 1751,
      "id": 1752,
      "skriv": 1753,
      "mål": 1754,
      "##atten": 1755,
      "fall": 1756,
      "##upp": 1757,
      "lite": 1758,
      "on": 1759,
      "##ast": 1760,
      "lo": 1761,
      "##gan": 1762,
      "sna": 1763,
      "annan": 1764,
      "##jekt": 1765,
      "##digt": 1766,
      "##vet": 1767,
      "##app": 1768,
      "##anden": 1769,
      "##ida": 1770,
      "hän": 1771,
      "medlem": 1772,
      "komp": 1773,
      "10": 1774,
      "ald": 1775,
      "##gifter": 1776,
      "pen": 1777,
      "best": 1778,
      "val": 1779,
      "hos": 1780,
      "##erat": 1781,
      "##lin": 1782,
      "kanske": 1783,
      "kvinn": 1784,
      "aldrig": 1785,
      "exem": 1786,
      "##amn": 1787,
      "##sst": 1788,
      "##lut": 1789,
      "##pe": 1790,
      "äl": 1791,
      "##ym": 1792,
      "mest": 1793,
      "effekt": 1794,
      "igen": 1795,
      "##ingen": 1796,
      "##gör": 1797,
      "annat": 1798,
      "pre": 1799,
      "sn": 1800,
      "off": 1801,
      "flera": 1802,
      "tar": 1803,
      "##hand": 1804,
      "##istor": 1805,
      "mus": 1806,
      "ad": 1807,
      "artik": 1808,
      "##under": 1809,
      "##äk": 1810,
      "plan": 1811,
      "##olog": 1812,
      "rikt": 1813,
      "därför": 1814,
      "fär": 1815,
      "##igheter": 1816,
      "##xt": 1817,
      "##ppen": 1818,
      "lu": 1819,
      "idag": 1820,
      "inv": 1821,
      "behand": 1822,
      "program": 1823,
      "problem": 1824,
      "##gär": 1825,
      "##sb": 1826,
      "##orna": 1827,
      "stora": 1828,
      "lever": 1829,
      "##ind": 1830,
      "fast": 1831,
      "##ob": 1832,
      "tror": 1833,
      "innan": 1834,
      "em": 1835,
      "##pro": 1836,
      "##vud": 1837,
      "intr": 1838,
      "stad": 1839,
      "ofta": 1840,
      "snabb": 1841,
      "ob": 1842,
      "tekn": 1843,
      "exempel": 1844,
      "str": 1845,
      "##ub": 1846,
      "##ank": 1847,
      "##nen": 1848,
      "tra": 1849,
      "natur": 1850,
      "vissa": 1851,
      "full": 1852,
      "##kv": 1853,
      "konst": 1854,
      "komma": 1855,
      "fam": 1856,
      "kär": 1857,
      "##iva": 1858,
      ".”": 1859,
      "##nes": 1860,
      "##mans": 1861,
      "##enskap": 1862,
      "##klar": 1863,
      "##ab": 1864,
      "blev": 1865,
      "tillba": 1866,
      "stat": 1867,
      "##ition": 1868,
      "##åd": 1869,
      "forsk": 1870,
      "##tera": 1871,
      "##iken": 1872,
      "##ationen": 1873,
      "##ard": 1874,
      "##naden": 1875,
      "ställ": 1876,
      "häl": 1877,
      "##met": 1878,
      "organ": 1879,
      "##äns": 1880,
      "##jer": 1881,
      "##vs": 1882,
      "kro": 1883,
      "form": 1884,
      "##unt": 1885,
      "tillbaka": 1886,
      "he": 1887,
      "bo": 1888,
      "bland": 1889,
      "und": 1890,
      "sär": 1891,
      "gam": 1892,
      "met": 1893,
      "bok": 1894,
      "##led": 1895,
      "verkligen": 1896,
      "huvud": 1897,
      "system": 1898,
      "hjär": 1899,
      "lig": 1900,
      "inf": 1901,
      "fy": 1902,
      "im": 1903,
      "land": 1904,
      "##sten": 1905,
      "krä": 1906,
      "int": 1907,
      "sö": 1908,
      "hör": 1909,
      "områ": 1910,
      "män": 1911,
      "##rätt": 1912,
      "god": 1913,
      "gäller": 1914,
      "berätt": 1915,
      "##ote": 1916,
      "##konom": 1917,
      "fick": 1918,
      "##ung": 1919,
      "sjuk": 1920,
      "##stånd": 1921,
      "internation": 1922,
      "##unkt": 1923,
      "histor": 1924,
      "sådan": 1925,
      "##ingar": 1926,
      "mina": 1927,
      "både": 1928,
      "direkt": 1929,
      "##ära": 1930,
      "my": 1931,
      "mö": 1932,
      "##bild": 1933,
      "särskil": 1934,
      "part": 1935,
      "##jud": 1936,
      "saker": 1937,
      "gra": 1938,
      "ner": 1939,
      "före": 1940,
      "lik": 1941,
      "namn": 1942,
      "red": 1943,
      "hjälp": 1944,
      "sak": 1945,
      ".\"": 1946,
      "##kte": 1947,
      "artikel": 1948,
      "po": 1949,
      "sh": 1950,
      "##vent": 1951,
      "##kor": 1952,
      "##ultat": 1953,
      "go": 1954,
      "endast": 1955,
      "föränd": 1956,
      "##farande": 1957,
      "soci": 1958,
      "pla": 1959,
      "dock": 1960,
      "ind": 1961,
      "stöd": 1962,
      "tidigare": 1963,
      "rö": 1964,
      "##ib": 1965,
      "kunde": 1966,
      "##rakt": 1967,
      "tim": 1968,
      "utveckling": 1969,
      "mind": 1970,
      "familj": 1971,
      "öpp": 1972,
      "##sammans": 1973,
      "co": 1974,
      "##lägg": 1975,
      "##aget": 1976,
      "möjlighet": 1977,
      "försö": 1978,
      "##ip": 1979,
      "fle": 1980,
      "redan": 1981,
      "##fin": 1982,
      "##oner": 1983,
      "##kade": 1984,
      "tillsammans": 1985,
      "##orn": 1986,
      "kontro": 1987,
      "kort": 1988,
      "lätt": 1989,
      "##cker": 1990,
      "tur": 1991,
      "använder": 1992,
      "ste": 1993,
      "##heter": 1994,
      "##sför": 1995,
      "##anta": 1996,
      "beslut": 1997,
      "##alitet": 1998,
      "vilka": 1999,
      "ja": 2000,
      "risk": 2001,
      "##ister": 2002,
      "ekonom": 2003,
      "personer": 2004,
      "inst": 2005,
      "nation": 2006,
      "kli": 2007,
      "##sn": 2008,
      "vårt": 2009,
      "jobb": 2010,
      "mindre": 2011,
      "pres": 2012,
      "kar": 2013,
      "inkl": 2014,
      "pris": 2015,
      "amer": 2016,
      "##ydd": 2017,
      "förm": 2018,
      "is": 2019,
      "vilken": 2020,
      "erbju": 2021,
      "hus": 2022,
      "##ivt": 2023,
      "##ct": 2024,
      "fortfarande": 2025,
      "##nade": 2026,
      "usa": 2027,
      "##ivers": 2028,
      "hopp": 2029,
      "ab": 2030,
      "säga": 2031,
      "##ioner": 2032,
      "enkel": 2033,
      "resultat": 2034,
      "väldigt": 2035,
      "##err": 2036,
      "##ycker": 2037,
      "##mär": 2038,
      "webbplats": 2039,
      "##sin": 2040,
      "rör": 2041,
      "##dat": 2042,
      "##aste": 2043,
      "),": 2044,
      "si": 2045,
      "##ras": 2046,
      "fortsätt": 2047,
      "ligger": 2048,
      "ele": 2049,
      "##sikt": 2050,
      "##iker": 2051,
      "##slut": 2052,
      "##nu": 2053,
      "bygg": 2054,
      "egen": 2055,
      "##äv": 2056,
      "##ina": 2057,
      "gjort": 2058,
      "död": 2059,
      "eng": 2060,
      "känner": 2061,
      "förstå": 2062,
      "lå": 2063,
      "sol": 2064,
      "##ive": 2065,
      "flyg": 2066,
      "##giv": 2067,
      "folk": 2068,
      "##sf": 2069,
      "polit": 2070,
      "##ett": 2071,
      "fler": 2072,
      "##ly": 2073,
      "##amp": 2074,
      "procent": 2075,
      "kor": 2076,
      "”.": 2077,
      "låt": 2078,
      "##ust": 2079,
      "vem": 2080,
      "##kta": 2081,
      "kvinnor": 2082,
      "##elser": 2083,
      "fel": 2084,
      "fem": 2085,
      "svår": 2086,
      "ener": 2087,
      "vatten": 2088,
      "bas": 2089,
      "##dr": 2090,
      "##las": 2091,
      "##går": 2092,
      "organis": 2093,
      "fly": 2094,
      "kost": 2095,
      "trans": 2096,
      "antal": 2097,
      "##ivå": 2098,
      "##tro": 2099,
      "klar": 2100,
      "##ug": 2101,
      "fot": 2102,
      "skapa": 2103,
      "sex": 2104,
      "inneb": 2105,
      "pengar": 2106,
      "produkter": 2107,
      "##rott": 2108,
      "##häll": 2109,
      "15": 2110,
      "##istr": 2111,
      "hjälpa": 2112,
      "18": 2113,
      "bestäm": 2114,
      "längre": 2115,
      "största": 2116,
      "pat": 2117,
      "tiden": 2118,
      "möjligt": 2119,
      "##väg": 2120,
      "jäm": 2121,
      "##tag": 2122,
      "tack": 2123,
      "##jur": 2124,
      "tillg": 2125,
      "ka": 2126,
      "##ke": 2127,
      "väx": 2128,
      "##ös": 2129,
      "##ige": 2130,
      "##spro": 2131,
      "##bland": 2132,
      "just": 2133,
      "näst": 2134,
      "##uter": 2135,
      "hitta": 2136,
      "univers": 2137,
      "##gon": 2138,
      "##äder": 2139,
      "far": 2140,
      "ol": 2141,
      "bety": 2142,
      "sid": 2143,
      "##mat": 2144,
      "främ": 2145,
      "##räck": 2146,
      "ansvar": 2147,
      "##ktioner": 2148,
      "projekt": 2149,
      "app": 2150,
      "europe": 2151,
      "##orter": 2152,
      "000": 2153,
      "dö": 2154,
      "##män": 2155,
      "fråga": 2156,
      "##bart": 2157,
      "typ": 2158,
      "##bo": 2159,
      "##sh": 2160,
      "##lek": 2161,
      "säkerhet": 2162,
      "förbätt": 2163,
      "framtid": 2164,
      "ung": 2165,
      "hår": 2166,
      "cent": 2167,
      "##ämp": 2168,
      "##ivitet": 2169,
      "12": 2170,
      "##älj": 2171,
      "##kommen": 2172,
      "##anc": 2173,
      "räd": 2174,
      "##sig": 2175,
      "##ligare": 2176,
      "##varande": 2177,
      "##ner": 2178,
      "utt": 2179,
      "hennes": 2180,
      "##håller": 2181,
      "##ek": 2182,
      "länder": 2183,
      "bef": 2184,
      "ned": 2185,
      "används": 2186,
      "prof": 2187,
      "läk": 2188,
      "ang": 2189,
      "##ksamhet": 2190,
      "dagar": 2191,
      "ännu": 2192,
      "läs": 2193,
      "lika": 2194,
      "veck": 2195,
      "bel": 2196,
      "inget": 2197,
      "su": 2198,
      "##ler": 2199,
      "henne": 2200,
      "##ret": 2201,
      "lit": 2202,
      "nära": 2203,
      "##ori": 2204,
      "konta": 2205,
      "\".": 2206,
      "viktigt": 2207,
      "##ata": 2208,
      "##net": 2209,
      "orsa": 2210,
      "tag": 2211,
      "gem": 2212,
      "nästa": 2213,
      "gener": 2214,
      "nog": 2215,
      "pass": 2216,
      "inför": 2217,
      "allmän": 2218,
      "kommun": 2219,
      "fru": 2220,
      "tillgäng": 2221,
      "##port": 2222,
      "hund": 2223,
      "trä": 2224,
      "runt": 2225,
      "samhäll": 2226,
      "älskar": 2227,
      "europa": 2228,
      "##son": 2229,
      "större": 2230,
      "titt": 2231,
      "##orer": 2232,
      "nästan": 2233,
      "ön": 2234,
      "marknad": 2235,
      "flesta": 2236,
      "själva": 2237,
      "styr": 2238,
      "gjorde": 2239,
      "sver": 2240,
      "visar": 2241,
      "syn": 2242,
      "san": 2243,
      "##me": 2244,
      "lös": 2245,
      "##ivit": 2246,
      "##lic": 2247,
      "##hör": 2248,
      "ry": 2249,
      "kvar": 2250,
      "invest": 2251,
      "##med": 2252,
      "tycker": 2253,
      "samtid": 2254,
      "äg": 2255,
      "skol": 2256,
      "##ity": 2257,
      "##vä": 2258,
      "star": 2259,
      "tred": 2260,
      "##ften": 2261,
      "aff": 2262,
      "##olut": 2263,
      "senaste": 2264,
      "##ism": 2265,
      "finans": 2266,
      "ih": 2267,
      "rapp": 2268,
      "ytter": 2269,
      "bak": 2270,
      "livet": 2271,
      "särskilt": 2272,
      "dra": 2273,
      "koll": 2274,
      "##tar": 2275,
      "rad": 2276,
      "##ha": 2277,
      "##van": 2278,
      "utbild": 2279,
      "nät": 2280,
      "##ask": 2281,
      "börjar": 2282,
      "behandling": 2283,
      "händer": 2284,
      "##äpp": 2285,
      "##amma": 2286,
      "##ice": 2287,
      "små": 2288,
      "##gå": 2289,
      "##slag": 2290,
      "bed": 2291,
      "##line": 2292,
      "to": 2293,
      "##raf": 2294,
      "##andel": 2295,
      "##ument": 2296,
      "samarbet": 2297,
      "amerik": 2298,
      "##one": 2299,
      "innebär": 2300,
      "bild": 2301,
      "by": 2302,
      "##itu": 2303,
      "##kriv": 2304,
      "##gru": 2305,
      "##kter": 2306,
      "kunder": 2307,
      "##uder": 2308,
      "rum": 2309,
      "##els": 2310,
      "loka": 2311,
      "gill": 2312,
      "##ativa": 2313,
      "mis": 2314,
      "medan": 2315,
      "##sstat": 2316,
      "viktiga": 2317,
      "nytt": 2318,
      "##tä": 2319,
      "##rik": 2320,
      "##ider": 2321,
      "##bara": 2322,
      "com": 2323,
      "enkelt": 2324,
      "##eln": 2325,
      "hålla": 2326,
      "##essen": 2327,
      "##ultur": 2328,
      "betal": 2329,
      "##cis": 2330,
      "##ift": 2331,
      "##jus": 2332,
      "genomför": 2333,
      "åtgär": 2334,
      "post": 2335,
      "##erial": 2336,
      "##otell": 2337,
      "##uella": 2338,
      "##elsen": 2339,
      "30": 2340,
      "båda": 2341,
      "nöd": 2342,
      "##ay": 2343,
      "skap": 2344,
      "##cke": 2345,
      "ac": 2346,
      "##anter": 2347,
      "##icka": 2348,
      "##ry": 2349,
      "senare": 2350,
      "samman": 2351,
      "##ringar": 2352,
      "förv": 2353,
      "11": 2354,
      "bek": 2355,
      "##fär": 2356,
      "##spr": 2357,
      "##ral": 2358,
      "erbjuder": 2359,
      "##oende": 2360,
      "påver": 2361,
      "fått": 2362,
      "##sättning": 2363,
      "kons": 2364,
      "##ari": 2365,
      "##ital": 2366,
      "##jut": 2367,
      "inter": 2368,
      "uppf": 2369,
      "fyra": 2370,
      "##oder": 2371,
      "blivit": 2372,
      "samtidigt": 2373,
      "kör": 2374,
      "tillgång": 2375,
      "##iella": 2376,
      "spela": 2377,
      "ana": 2378,
      "kat": 2379,
      "##örer": 2380,
      "står": 2381,
      "bid": 2382,
      "arbete": 2383,
      "precis": 2384,
      "ögon": 2385,
      "##ny": 2386,
      "icke": 2387,
      "dessutom": 2388,
      "affär": 2389,
      "tjänster": 2390,
      "ibland": 2391,
      "moder": 2392,
      "fi": 2393,
      "##eter": 2394,
      "##pekt": 2395,
      "##rukt": 2396,
      "##ställa": 2397,
      "köp": 2398,
      "öka": 2399,
      "omfatt": 2400,
      "bilder": 2401,
      "utför": 2402,
      "##lag": 2403,
      "am": 2404,
      "hotell": 2405,
      "råd": 2406,
      "##bru": 2407,
      "funger": 2408,
      "dagen": 2409,
      "delar": 2410,
      "länge": 2411,
      "miljö": 2412,
      "kraft": 2413,
      "inga": 2414,
      "sverige": 2415,
      "via": 2416,
      "##andra": 2417,
      "pos": 2418,
      "grupp": 2419,
      "##fekt": 2420,
      "##iner": 2421,
      "##for": 2422,
      "##ständ": 2423,
      "online": 2424,
      "##ternativ": 2425,
      "glob": 2426,
      "tredje": 2427,
      "##hus": 2428,
      "energi": 2429,
      "frågor": 2430,
      "me": 2431,
      "steg": 2432,
      "##sett": 2433,
      "innehåll": 2434,
      "miljoner": 2435,
      "medlemsstat": 2436,
      "mag": 2437,
      "##fer": 2438,
      "förlor": 2439,
      "europeiska": 2440,
      "##satt": 2441,
      "kropp": 2442,
      "##yll": 2443,
      "begr": 2444,
      "##co": 2445,
      "klass": 2446,
      "gånger": 2447,
      "test": 2448,
      "desig": 2449,
      "##ons": 2450,
      "##vänd": 2451,
      "faktiskt": 2452,
      "såg": 2453,
      "##ont": 2454,
      "sj": 2455,
      "mil": 2456,
      "erf": 2457,
      "rekommen": 2458,
      "behov": 2459,
      "##så": 2460,
      "gick": 2461,
      "##bin": 2462,
      "##råk": 2463,
      "hal": 2464,
      "##ligtvis": 2465,
      "stort": 2466,
      "##ond": 2467,
      "gre": 2468,
      "100": 2469,
      "..": 2470,
      "tel": 2471,
      "öv": 2472,
      "tog": 2473,
      "uppgifter": 2474,
      "data": 2475,
      "##sats": 2476,
      "199": 2477,
      "##ystem": 2478,
      "bud": 2479,
      "kund": 2480,
      "tem": 2481,
      "##kra": 2482,
      "ytterligare": 2483,
      "skydd": 2484,
      "började": 2485,
      "kommiss": 2486,
      "gu": 2487,
      "##kän": 2488,
      "##fråg": 2489,
      "##alen": 2490,
      "##okus": 2491,
      "jord": 2492,
      "veta": 2493,
      "##hol": 2494,
      "emot": 2495,
      "skill": 2496,
      "reger": 2497,
      "ljus": 2498,
      "##nat": 2499,
      "hoppas": 2500,
      "el": 2501,
      "byg": 2502,
      "##delar": 2503,
      "##spel": 2504,
      "##ings": 2505,
      "häls": 2506,
      "kap": 2507,
      "håller": 2508,
      "gar": 2509,
      "föräl": 2510,
      "disk": 2511,
      "bor": 2512,
      "miss": 2513,
      "upptä": 2514,
      "##usive": 2515,
      "följande": 2516,
      "sjukdom": 2517,
      "sade": 2518,
      "förut": 2519,
      "##öst": 2520,
      "##itut": 2521,
      "sc": 2522,
      "sådana": 2523,
      "##inna": 2524,
      "blod": 2525,
      "lära": 2526,
      "lin": 2527,
      "ren": 2528,
      "##atis": 2529,
      "fann": 2530,
      "pa": 2531,
      "##rev": 2532,
      "djur": 2533,
      "16": 2534,
      "##ron": 2535,
      "##ph": 2536,
      "##fall": 2537,
      "et": 2538,
      "träff": 2539,
      "##rade": 2540,
      "##full": 2541,
      "mänsk": 2542,
      "tillämp": 2543,
      "låg": 2544,
      "intres": 2545,
      "fokus": 2546,
      "ident": 2547,
      "##iet": 2548,
      "##fäll": 2549,
      "krist": 2550,
      "köpa": 2551,
      "svårt": 2552,
      "##ament": 2553,
      "vack": 2554,
      "jes": 2555,
      "jämför": 2556,
      "kultur": 2557,
      "##asin": 2558,
      "mynd": 2559,
      "##ns": 2560,
      "egna": 2561,
      "bu": 2562,
      "bru": 2563,
      "pop": 2564,
      "##olag": 2565,
      "##ins": 2566,
      "timmar": 2567,
      "forskning": 2568,
      "snabbt": 2569,
      "erfaren": 2570,
      "13": 2571,
      "vänner": 2572,
      "visa": 2573,
      "inklusive": 2574,
      "månader": 2575,
      "##ert": 2576,
      "framgång": 2577,
      "medic": 2578,
      "besö": 2579,
      "näm": 2580,
      "vidare": 2581,
      "##lick": 2582,
      "priv": 2583,
      "förvän": 2584,
      "gången": 2585,
      "##tra": 2586,
      "##antast": 2587,
      "liten": 2588,
      "funktion": 2589,
      "##yl": 2590,
      "##kas": 2591,
      "##ater": 2592,
      "trän": 2593,
      "##ession": 2594,
      "kvalitet": 2595,
      "fantast": 2596,
      "förklar": 2597,
      "hjälper": 2598,
      "beskriv": 2599,
      "handlar": 2600,
      "gamla": 2601,
      "17": 2602,
      "nivå": 2603,
      "##pen": 2604,
      "välja": 2605,
      "tillräck": 2606,
      "alternativ": 2607,
      "börja": 2608,
      "perfekt": 2609,
      "världens": 2610,
      "25": 2611,
      "##kning": 2612,
      "innehåller": 2613,
      "##its": 2614,
      "riktigt": 2615,
      "new": 2616,
      "gillar": 2617,
      "##res": 2618,
      "##yn": 2619,
      "##delse": 2620,
      "##cent": 2621,
      "##be": 2622,
      "alltså": 2623,
      "##syn": 2624,
      "internationella": 2625,
      "borde": 2626,
      "##ifier": 2627,
      "##dar": 2628,
      "kontroller": 2629,
      "guds": 2630,
      "fri": 2631,
      "användning": 2632,
      "start": 2633,
      "##inner": 2634,
      "unders": 2635,
      "sym": 2636,
      "sista": 2637,
      "14": 2638,
      "##ansk": 2639,
      "##ren": 2640,
      "##red": 2641,
      "punkt": 2642,
      "åtgärder": 2643,
      "värde": 2644,
      "arbetar": 2645,
      "fungerar": 2646,
      "##dition": 2647,
      "varandra": 2648,
      "##snitt": 2649,
      "tot": 2650,
      "material": 2651,
      "året": 2652,
      "trots": 2653,
      "begräns": 2654,
      "##nande": 2655,
      "##ten": 2656,
      "roll": 2657,
      "början": 2658,
      "##vid": 2659,
      "sett": 2660,
      "mon": 2661,
      "förhåll": 2662,
      "minst": 2663,
      "##ograf": 2664,
      "vide": 2665,
      "driv": 2666,
      "sch": 2667,
      "minuter": 2668,
      "framför": 2669,
      "oav": 2670,
      "avs": 2671,
      "kärlek": 2672,
      "mär": 2673,
      "ens": 2674,
      "##ian": 2675,
      "##ux": 2676,
      "hot": 2677,
      "långt": 2678,
      "fys": 2679,
      "internet": 2680,
      "##ikation": 2681,
      "fö": 2682,
      "##kur": 2683,
      "offent": 2684,
      "50": 2685,
      "##orgon": 2686,
      "känna": 2687,
      "cir": 2688,
      "blog": 2689,
      "##ningarna": 2690,
      "mäng": 2691,
      "##stad": 2692,
      "ute": 2693,
      "##ember": 2694,
      "betyder": 2695,
      "ir": 2696,
      "joh": 2697,
      "”,": 2698,
      "##ruktur": 2699,
      "at": 2700,
      "##ium": 2701,
      "avtal": 2702,
      "\",": 2703,
      "minska": 2704,
      "helst": 2705,
      "ben": 2706,
      "##ölja": 2707,
      "serv": 2708,
      "defin": 2709,
      "verksamhet": 2710,
      "äm": 2711,
      "##öv": 2712,
      "gemens": 2713,
      "besök": 2714,
      "elekt": 2715,
      "känn": 2716,
      "##up": 2717,
      "##borg": 2718,
      "musik": 2719,
      "##kan": 2720,
      "##orden": 2721,
      "krig": 2722,
      "förh": 2723,
      "##uppgifter": 2724,
      "sidan": 2725,
      "##över": 2726,
      "mode": 2727,
      "kyr": 2728,
      "##älla": 2729,
      "handel": 2730,
      "släpp": 2731,
      "pub": 2732,
      "mor": 2733,
      "fred": 2734,
      "träd": 2735,
      "kol": 2736,
      "##ars": 2737,
      "rekommender": 2738,
      "användas": 2739,
      "##ident": 2740,
      "verkar": 2741,
      "##alis": 2742,
      "##äck": 2743,
      "förord": 2744,
      "##lingar": 2745,
      "##ge": 2746,
      "bi": 2747,
      "##ies": 2748,
      "skad": 2749,
      "rå": 2750,
      "tyd": 2751,
      "såsom": 2752,
      "##trä": 2753,
      "tillfäll": 2754,
      "##spl": 2755,
      "mobil": 2756,
      "bö": 2757,
      "läsa": 2758,
      "högre": 2759,
      "sag": 2760,
      "##oden": 2761,
      "film": 2762,
      "strat": 2763,
      "haft": 2764,
      "äld": 2765,
      "föres": 2766,
      "##ktyg": 2767,
      "##by": 2768,
      "sky": 2769,
      "talet": 2770,
      "##äss": 2771,
      "la": 2772,
      "integr": 2773,
      "##rikt": 2774,
      "glöm": 2775,
      "situ": 2776,
      "registr": 2777,
      "mör": 2778,
      "##ösa": 2779,
      "##vara": 2780,
      "förbättra": 2781,
      "spr": 2782,
      "anställ": 2783,
      "ganska": 2784,
      "popul": 2785,
      "##handa": 2786,
      "##stol": 2787,
      "kunskap": 2788,
      "staden": 2789,
      "cy": 2790,
      "##förs": 2791,
      "##stället": 2792,
      "do": 2793,
      "##als": 2794,
      "spelar": 2795,
      "tor": 2796,
      "##ern": 2797,
      "rom": 2798,
      "maj": 2799,
      "dröm": 2800,
      "##ator": 2801,
      "##cept": 2802,
      "##int": 2803,
      "lev": 2804,
      "fanns": 2805,
      "##ine": 2806,
      "##assa": 2807,
      "indiv": 2808,
      "utman": 2809,
      "ändå": 2810,
      "sociala": 2811,
      "##omen": 2812,
      "tillhanda": 2813,
      "stand": 2814,
      "##sprung": 2815,
      "##tem": 2816,
      "föd": 2817,
      "tänk": 2818,
      "nord": 2819,
      "anled": 2820,
      "någonsin": 2821,
      "hemma": 2822,
      "norm": 2823,
      "ursprung": 2824,
      "jesus": 2825,
      "##ev": 2826,
      "utbildning": 2827,
      "kopp": 2828,
      "##lade": 2829,
      "##äkt": 2830,
      "hy": 2831,
      "istället": 2832,
      "oavsett": 2833,
      "son": 2834,
      "nå": 2835,
      "##fri": 2836,
      "##ående": 2837,
      "hjärt": 2838,
      "ev": 2839,
      "kontakt": 2840,
      "fören": 2841,
      "herr": 2842,
      "idé": 2843,
      "undv": 2844,
      "##sv": 2845,
      "kombin": 2846,
      "public": 2847,
      "##iera": 2848,
      "indu": 2849,
      "##ärt": 2850,
      "skicka": 2851,
      "spar": 2852,
      "komple": 2853,
      "##ännande": 2854,
      "kallas": 2855,
      "lycka": 2856,
      "landet": 2857,
      "enlighet": 2858,
      "##växt": 2859,
      "ca": 2860,
      "medel": 2861,
      "papp": 2862,
      "sök": 2863,
      "exper": 2864,
      "resa": 2865,
      "##efon": 2866,
      "insta": 2867,
      "##illa": 2868,
      "historia": 2869,
      "kontroll": 2870,
      "mic": 2871,
      "##igheten": 2872,
      "ve": 2873,
      "##staur": 2874,
      "vetenskap": 2875,
      "lämna": 2876,
      "uppn": 2877,
      "utanför": 2878,
      "snart": 2879,
      "känsl": 2880,
      "ovan": 2881,
      "produktion": 2882,
      "##enhet": 2883,
      "villkor": 2884,
      "vers": 2885,
      "inb": 2886,
      "##ernas": 2887,
      "författ": 2888,
      "kur": 2889,
      "ål": 2890,
      "##fte": 2891,
      "kräver": 2892,
      "isra": 2893,
      "##gre": 2894,
      "##ckt": 2895,
      "extra": 2896,
      "##samma": 2897,
      "fe": 2898,
      "##unn": 2899,
      "##ite": 2900,
      "##rift": 2901,
      "vägen": 2902,
      "försöker": 2903,
      "arbeta": 2904,
      "teknik": 2905,
      "upplev": 2906,
      "##gn": 2907,
      "yo": 2908,
      "##drag": 2909,
      "##eringen": 2910,
      "##eringar": 2911,
      "utveckla": 2912,
      "amerikanska": 2913,
      "##cc": 2914,
      "##rån": 2915,
      "bäst": 2916,
      "##gift": 2917,
      "goog": 2918,
      "##rust": 2919,
      "spelare": 2920,
      "kommissionen": 2921,
      "her": 2922,
      "##vor": 2923,
      "##ender": 2924,
      "teck": 2925,
      "restaur": 2926,
      "utom": 2927,
      "dok": 2928,
      "tillräckligt": 2929,
      "tradition": 2930,
      "krävs": 2931,
      "kn": 2932,
      "medvet": 2933,
      "års": 2934,
      "##ton": 2935,
      "##ork": 2936,
      "vilja": 2937,
      "##komst": 2938,
      "lyss": 2939,
      "specif": 2940,
      "respekt": 2941,
      "aktivitet": 2942,
      "##emang": 2943,
      "ville": 2944,
      "##ummer": 2945,
      "heller": 2946,
      "##lad": 2947,
      "gratis": 2948,
      "##lament": 2949,
      "konkur": 2950,
      "design": 2951,
      "pri": 2952,
      "företaget": 2953,
      "marknaden": 2954,
      "ålder": 2955,
      "innov": 2956,
      "områden": 2957,
      "##punkt": 2958,
      "##ivet": 2959,
      "öppna": 2960,
      "port": 2961,
      "event": 2962,
      "tänka": 2963,
      "äta": 2964,
      "##nam": 2965,
      "dec": 2966,
      "##ssystem": 2967,
      "##produ": 2968,
      "##terna": 2969,
      "##ält": 2970,
      "##ifrån": 2971,
      "frågan": 2972,
      "färg": 2973,
      "lyck": 2974,
      "tänker": 2975,
      "##ferens": 2976,
      "insp": 2977,
      "kväll": 2978,
      "lämp": 2979,
      "prakt": 2980,
      "följa": 2981,
      "##ore": 2982,
      "vanliga": 2983,
      "oper": 2984,
      "nor": 2985,
      "tan": 2986,
      "lad": 2987,
      "rättigheter": 2988,
      "##gra": 2989,
      "regel": 2990,
      "makt": 2991,
      "##ps": 2992,
      "##fl": 2993,
      "##ide": 2994,
      "uppdat": 2995,
      "medicin": 2996,
      "läkem": 2997,
      "användare": 2998,
      "meddel": 2999,
      "ag": 3000,
      "bit": 3001,
      "##age": 3002,
      "##åga": 3003,
      "rik": 3004,
      "ter": 3005,
      "##omm": 3006,
      "##band": 3007,
      "mamma": 3008,
      "sida": 3009,
      "##inci": 3010,
      "egent": 3011,
      "slutet": 3012,
      "##get": 3013,
      "produc": 3014,
      "redo": 3015,
      "dy": 3016,
      "posit": 3017,
      "abs": 3018,
      "no": 3019,
      "##ligheten": 3020,
      "inkluder": 3021,
      "mass": 3022,
      "peri": 3023,
      "leva": 3024,
      "älska": 3025,
      "dju": 3026,
      "åren": 3027,
      "##smedel": 3028,
      "!!": 3029,
      "terr": 3030,
      "##ue": 3031,
      "ford": 3032,
      "allvar": 3033,
      "##ester": 3034,
      "lägga": 3035,
      "fatt": 3036,
      "ram": 3037,
      "jorden": 3038,
      "fortsätter": 3039,
      "universitet": 3040,
      "begär": 3041,
      "skriva": 3042,
      "bib": 3043,
      "##kla": 3044,
      "##ubl": 3045,
      "pot": 3046,
      "##ting": 3047,
      "sek": 3048,
      "språk": 3049,
      "glad": 3050,
      "skriver": 3051,
      "fortsätta": 3052,
      "con": 3053,
      "##dagen": 3054,
      "ihåg": 3055,
      "dör": 3056,
      "ra": 3057,
      "##hålla": 3058,
      "hittar": 3059,
      "sän": 3060,
      "##igh": 3061,
      "##mera": 3062,
      "sagt": 3063,
      "kamp": 3064,
      "beroende": 3065,
      "##äs": 3066,
      "##ämt": 3067,
      "kam": 3068,
      "dela": 3069,
      "titta": 3070,
      "vecka": 3071,
      "tills": 3072,
      "föräld": 3073,
      "erbjud": 3074,
      "intress": 3075,
      "##fa": 3076,
      "stan": 3077,
      "##system": 3078,
      "anslut": 3079,
      "##uld": 3080,
      "##pres": 3081,
      "uppnå": 3082,
      "ba": 3083,
      "##öjd": 3084,
      "ban": 3085,
      "##val": 3086,
      "gär": 3087,
      "isl": 3088,
      "##stående": 3089,
      "gamm": 3090,
      "##okrat": 3091,
      "log": 3092,
      "tjänst": 3093,
      "morgon": 3094,
      "##öt": 3095,
      "området": 3096,
      "24": 3097,
      "län": 3098,
      "relig": 3099,
      "dist": 3100,
      "svenska": 3101,
      "jan": 3102,
      "fisk": 3103,
      "##sid": 3104,
      "match": 3105,
      "njut": 3106,
      "verktyg": 3107,
      "social": 3108,
      "brott": 3109,
      "google": 3110,
      "försälj": 3111,
      "färd": 3112,
      "car": 3113,
      "säl": 3114,
      "exp": 3115,
      "kroppen": 3116,
      "##ey": 3117,
      "låter": 3118,
      "mu": 3119,
      "##eder": 3120,
      "månad": 3121,
      "president": 3122,
      "ph": 3123,
      "käns": 3124,
      "sju": 3125,
      "##iz": 3126,
      "##ald": 3127,
      "hälsa": 3128,
      "bakom": 3129,
      "##ött": 3130,
      "avslut": 3131,
      "nej": 3132,
      "autom": 3133,
      "eget": 3134,
      "övr": 3135,
      "ass": 3136,
      "##stri": 3137,
      "utl": 3138,
      "kommit": 3139,
      "kal": 3140,
      "stäng": 3141,
      "anp": 3142,
      "viktig": 3143,
      "erfarenhet": 3144,
      "bevis": 3145,
      "arbets": 3146,
      "deltag": 3147,
      "rapporter": 3148,
      "egentligen": 3149,
      "fol": 3150,
      "fo": 3151,
      "förstår": 3152,
      "##cy": 3153,
      "försv": 3154,
      "telefon": 3155,
      "mask": 3156,
      "##iter": 3157,
      "vux": 3158,
      "##iteten": 3159,
      "him": 3160,
      "opt": 3161,
      "oro": 3162,
      "psy": 3163,
      "##ko": 3164,
      "##so": 3165,
      "##ologi": 3166,
      "ekonomiska": 3167,
      "##len": 3168,
      "förber": 3169,
      "skyd": 3170,
      "behövs": 3171,
      "it": 3172,
      "engel": 3173,
      "gav": 3174,
      "##mare": 3175,
      "##mark": 3176,
      "##lingen": 3177,
      "väljer": 3178,
      "dokument": 3179,
      "misst": 3180,
      "förvänt": 3181,
      "hud": 3182,
      "##ips": 3183,
      "topp": 3184,
      "text": 3185,
      "klimat": 3186,
      "sann": 3187,
      "##ash": 3188,
      "tillstånd": 3189,
      "omk": 3190,
      "röst": 3191,
      "institut": 3192,
      "bygga": 3193,
      "##ionens": 3194,
      "slag": 3195,
      "typer": 3196,
      "tillväxt": 3197,
      "##seende": 3198,
      "198": 3199,
      "40": 3200,
      "##lys": 3201,
      "##iens": 3202,
      "kvinna": 3203,
      "nationella": 3204,
      "säkert": 3205,
      "gott": 3206,
      "sem": 3207,
      "##uss": 3208,
      "förf": 3209,
      "##ienter": 3210,
      "ändra": 3211,
      "##ate": 3212,
      "##arder": 3213,
      "##ancer": 3214,
      "##unda": 3215,
      "##rag": 3216,
      "rädd": 3217,
      "bill": 3218,
      "##ension": 3219,
      "##ubb": 3220,
      "##istiska": 3221,
      "följer": 3222,
      "goda": 3223,
      "äldre": 3224,
      "bal": 3225,
      "känns": 3226,
      "gol": 3227,
      "stå": 3228,
      "bry": 3229,
      "betala": 3230,
      "ko": 3231,
      "##mande": 3232,
      "##eller": 3233,
      "antalet": 3234,
      "läkemedel": 3235,
      "##lla": 3236,
      "förordning": 3237,
      "wh": 3238,
      "##cep": 3239,
      "studenter": 3240,
      "##efär": 3241,
      "speciellt": 3242,
      "lokala": 3243,
      "##tte": 3244,
      "stark": 3245,
      "utmär": 3246,
      "##organ": 3247,
      "bad": 3248,
      "tillverk": 3249,
      "kna": 3250,
      "personuppgifter": 3251,
      "##iti": 3252,
      "chans": 3253,
      "tom": 3254,
      "ham": 3255,
      "os": 3256,
      "##väl": 3257,
      "##reg": 3258,
      "##ific": 3259,
      "##stift": 3260,
      "krav": 3261,
      "kina": 3262,
      "##skra": 3263,
      "ungefär": 3264,
      "21": 3265,
      "##mun": 3266,
      "##bud": 3267,
      "enhet": 3268,
      "läkare": 3269,
      "##vår": 3270,
      "dro": 3271,
      "inspir": 3272,
      "vol": 3273,
      "rev": 3274,
      "våld": 3275,
      "##indra": 3276,
      "klart": 3277,
      "##bygg": 3278,
      "##läg": 3279,
      "potent": 3280,
      "##aga": 3281,
      "utgör": 3282,
      "ton": 3283,
      "detal": 3284,
      "tillgängliga": 3285,
      "##stans": 3286,
      "##larna": 3287,
      "gått": 3288,
      "betyd": 3289,
      "berätta": 3290,
      "ifr": 3291,
      "veckor": 3292,
      "stol": 3293,
      "polis": 3294,
      "finnas": 3295,
      "ske": 3296,
      "uppmär": 3297,
      "##ana": 3298,
      "skär": 3299,
      "##kvens": 3300,
      "boken": 3301,
      "##terar": 3302,
      "räk": 3303,
      "##ollar": 3304,
      "bro": 3305,
      "##atar": 3306,
      "##erades": 3307,
      "cirka": 3308,
      "casin": 3309,
      "##of": 3310,
      "##uell": 3311,
      "liknande": 3312,
      "framtiden": 3313,
      "veckan": 3314,
      "##ansch": 3315,
      "repres": 3316,
      "individ": 3317,
      "hum": 3318,
      "pe": 3319,
      "##ynd": 3320,
      "##stid": 3321,
      "princi": 3322,
      "omkring": 3323,
      "##bund": 3324,
      "##we": 3325,
      "syft": 3326,
      "bred": 3327,
      "admin": 3328,
      "bank": 3329,
      "marknadsför": 3330,
      "##bol": 3331,
      "skapar": 3332,
      "##klart": 3333,
      "israel": 3334,
      "närheten": 3335,
      "regl": 3336,
      "##äkring": 3337,
      "##book": 3338,
      "##kort": 3339,
      "luft": 3340,
      "liksom": 3341,
      "park": 3342,
      "tio": 3343,
      "domstol": 3344,
      "känd": 3345,
      "platser": 3346,
      "##anger": 3347,
      "plac": 3348,
      "tysk": 3349,
      "viss": 3350,
      "presenter": 3351,
      "john": 3352,
      "avgör": 3353,
      "service": 3354,
      "##ställning": 3355,
      "högsta": 3356,
      "ho": 3357,
      "##områ": 3358,
      "kring": 3359,
      "tje": 3360,
      "överför": 3361,
      "##sområ": 3362,
      "grän": 3363,
      "gro": 3364,
      "mod": 3365,
      "##veck": 3366,
      "##enting": 3367,
      "exakt": 3368,
      "kred": 3369,
      "stra": 3370,
      "förra": 3371,
      "sluta": 3372,
      "föräldrar": 3373,
      "accep": 3374,
      "##läggande": 3375,
      "frukt": 3376,
      "skydda": 3377,
      "va": 3378,
      "##bel": 3379,
      "##lös": 3380,
      "##dde": 3381,
      "##ttform": 3382,
      "ring": 3383,
      "##kat": 3384,
      "##igheterna": 3385,
      "prest": 3386,
      "viktigaste": 3387,
      "let": 3388,
      "##står": 3389,
      "dator": 3390,
      "säkerställa": 3391,
      "ingenting": 3392,
      "igenom": 3393,
      "kapital": 3394,
      "hantera": 3395,
      "##ativt": 3396,
      "bär": 3397,
      "gammal": 3398,
      "face": 3399,
      "sim": 3400,
      "jun": 3401,
      "pal": 3402,
      "strä": 3403,
      "##yt": 3404,
      "hållbar": 3405,
      "##part": 3406,
      "##ttag": 3407,
      "grundläggande": 3408,
      "försöka": 3409,
      "profession": 3410,
      "böcker": 3411,
      "jud": 3412,
      "##äker": 3413,
      "##20": 3414,
      "fördelar": 3415,
      "##riär": 3416,
      "kem": 3417,
      "ifrån": 3418,
      "bon": 3419,
      "kin": 3420,
      "##bör": 3421,
      "fört": 3422,
      "syfte": 3423,
      "aktiv": 3424,
      "politiska": 3425,
      "wind": 3426,
      "##företag": 3427,
      "max": 3428,
      "kommunikation": 3429,
      "##arnas": 3430,
      "välj": 3431,
      "##erande": 3432,
      "konf": 3433,
      "##lo": 3434,
      "ark": 3435,
      "##skatt": 3436,
      "ensam": 3437,
      "medborg": 3438,
      "människa": 3439,
      "2018": 3440,
      "offic": 3441,
      "##ions": 3442,
      "sådant": 3443,
      "sov": 3444,
      "delen": 3445,
      "påverkar": 3446,
      "dis": 3447,
      "upple": 3448,
      "programmet": 3449,
      "##ckte": 3450,
      "team": 3451,
      "sättet": 3452,
      "område": 3453,
      "tillver": 3454,
      "##vändigt": 3455,
      "dags": 3456,
      "milit": 3457,
      "##teck": 3458,
      "vir": 3459,
      "##ogen": 3460,
      "##rip": 3461,
      "prata": 3462,
      "barnen": 3463,
      "##ows": 3464,
      "lokal": 3465,
      "skillnad": 3466,
      "mänskliga": 3467,
      "jur": 3468,
      "lön": 3469,
      "mots": 3470,
      "##sch": 3471,
      "uppen": 3472,
      "##itter": 3473,
      "skolan": 3474,
      "samarbete": 3475,
      "blogg": 3476,
      "standard": 3477,
      "ej": 3478,
      "##olit": 3479,
      "skön": 3480,
      "psyk": 3481,
      "dollar": 3482,
      "fjär": 3483,
      "##ish": 3484,
      "##sak": 3485,
      "säson": 3486,
      "dan": 3487,
      "komment": 3488,
      "##önster": 3489,
      "##otter": 3490,
      "##grupp": 3491,
      "nödvänd": 3492,
      "##nytt": 3493,
      "undersök": 3494,
      "##ören": 3495,
      "##ktor": 3496,
      "förändring": 3497,
      "nr": 3498,
      "##ment": 3499,
      "##lands": 3500,
      "ljud": 3501,
      "utveckl": 3502,
      "flytt": 3503,
      "försök": 3504,
      "behöva": 3505,
      "nödvändigt": 3506,
      "kron": 3507,
      "##ierna": 3508,
      "##ations": 3509,
      "##plan": 3510,
      "vinna": 3511,
      "hjärta": 3512,
      "söker": 3513,
      "##färd": 3514,
      "halv": 3515,
      "##uellt": 3516,
      "regler": 3517,
      "##värd": 3518,
      "##järn": 3519,
      "##holm": 3520,
      "jap": 3521,
      "bestämm": 3522,
      "patienter": 3523,
      "super": 3524,
      "tagit": 3525,
      "##anda": 3526,
      "visste": 3527,
      "##amm": 3528,
      "imp": 3529,
      "engag": 3530,
      "undvika": 3531,
      "samband": 3532,
      "2015": 3533,
      "##handling": 3534,
      "197": 3535,
      "chef": 3536,
      "##verkan": 3537,
      "tit": 3538,
      "låta": 3539,
      "bolag": 3540,
      "leverant": 3541,
      "##aler": 3542,
      "spelet": 3543,
      "systemet": 3544,
      "skyld": 3545,
      "era": 3546,
      "ital": 3547,
      "kul": 3548,
      "##ämpa": 3549,
      "verksam": 3550,
      "krit": 3551,
      "sätta": 3552,
      "intresse": 3553,
      "lån": 3554,
      "förutom": 3555,
      "favor": 3556,
      "leder": 3557,
      "##efter": 3558,
      "resur": 3559,
      "leda": 3560,
      "stock": 3561,
      "gärna": 3562,
      "##jen": 3563,
      "filmen": 3564,
      "studier": 3565,
      "fas": 3566,
      "frank": 3567,
      "##emål": 3568,
      "##visa": 3569,
      "består": 3570,
      "säll": 3571,
      "##ve": 3572,
      "uttr": 3573,
      "##vin": 3574,
      "##ong": 3575,
      "upprätt": 3576,
      "2016": 3577,
      "##qu": 3578,
      "tillhör": 3579,
      "neg": 3580,
      "omedel": 3581,
      "2017": 3582,
      "häst": 3583,
      "sal": 3584,
      "##rym": 3585,
      "sker": 3586,
      "bekv": 3587,
      "##...": 3588,
      "strateg": 3589,
      "##erare": 3590,
      "enskil": 3591,
      "reser": 3592,
      "....": 3593,
      "erbjuda": 3594,
      "skick": 3595,
      "höga": 3596,
      "rapport": 3597,
      "##enn": 3598,
      "##ement": 3599,
      "utrust": 3600,
      "##istan": 3601,
      "kredit": 3602,
      "ii": 3603,
      "##én": 3604,
      "närvarande": 3605,
      "konto": 3606,
      "bost": 3607,
      "satt": 3608,
      "täv": 3609,
      "berör": 3610,
      "uppfyll": 3611,
      "vackra": 3612,
      "engelska": 3613,
      "but": 3614,
      "natt": 3615,
      "##kes": 3616,
      "unga": 3617,
      "konkurr": 3618,
      "##delser": 3619,
      "60": 3620,
      "##ah": 3621,
      "fre": 3622,
      "demokrat": 3623,
      "namnet": 3624,
      "ryss": 3625,
      "##end": 3626,
      "##inne": 3627,
      "##umär": 3628,
      "stället": 3629,
      "anges": 3630,
      "##skol": 3631,
      "ansikt": 3632,
      "tas": 3633,
      "privat": 3634,
      "favorit": 3635,
      "relev": 3636,
      "juni": 3637,
      "rä": 3638,
      "nuvarande": 3639,
      "förekom": 3640,
      "as": 3641,
      "brö": 3642,
      "ihop": 3643,
      "od": 3644,
      "sub": 3645,
      "##rän": 3646,
      "stopp": 3647,
      "mängd": 3648,
      ".)": 3649,
      "nätverk": 3650,
      "absolut": 3651,
      "aut": 3652,
      "lov": 3653,
      "prote": 3654,
      "december": 3655,
      "bre": 3656,
      "nedan": 3657,
      "##ng": 3658,
      "utform": 3659,
      "studie": 3660,
      "kontrollera": 3661,
      "kommentar": 3662,
      "kill": 3663,
      "skäl": 3664,
      "funktioner": 3665,
      "möjligheter": 3666,
      "samhället": 3667,
      "windows": 3668,
      "livsmedel": 3669,
      "intresser": 3670,
      "facebook": 3671,
      "##ners": 3672,
      "##ndag": 3673,
      "##utveck": 3674,
      "mars": 3675,
      "fastställ": 3676,
      "obser": 3677,
      "drabb": 3678,
      "anställda": 3679,
      "industri": 3680,
      "ersätt": 3681,
      "2014": 3682,
      "bedöm": 3683,
      "yr": 3684,
      "vit": 3685,
      "medlemmar": 3686,
      "##olution": 3687,
      "##räd": 3688,
      "bekrä": 3689,
      "regeringen": 3690,
      "##egi": 3691,
      "##po": 3692,
      "##fik": 3693,
      "##skott": 3694,
      "##lunda": 3695,
      "##ologiska": 3696,
      "organisation": 3697,
      "22": 3698,
      "2013": 3699,
      "ide": 3700,
      "tus": 3701,
      "##ial": 3702,
      "enkla": 3703,
      "##edd": 3704,
      "##agn": 3705,
      "vitt": 3706,
      "varumär": 3707,
      "antingen": 3708,
      "webbplatsen": 3709,
      "framgångs": 3710,
      "##her": 3711,
      "karakt": 3712,
      "##lit": 3713,
      "##ärer": 3714,
      "##ppar": 3715,
      "juli": 3716,
      "##itann": 3717,
      "dagens": 3718,
      "storbr": 3719,
      "höra": 3720,
      "käll": 3721,
      "nov": 3722,
      "ras": 3723,
      "##bord": 3724,
      "underhåll": 3725,
      "högt": 3726,
      "lösningar": 3727,
      "fordon": 3728,
      "##ekan": 3729,
      "##likt": 3730,
      "utvecklingen": 3731,
      "##enten": 3732,
      "vanligtvis": 3733,
      "medlemsstaterna": 3734,
      "förvär": 3735,
      "dubb": 3736,
      "analys": 3737,
      "vak": 3738,
      "##rid": 3739,
      "sta": 3740,
      "##allt": 3741,
      "kri": 3742,
      "vare": 3743,
      "##sav": 3744,
      "##ffa": 3745,
      "jul": 3746,
      "##ds": 3747,
      "##fil": 3748,
      "ständ": 3749,
      "196": 3750,
      "##he": 3751,
      "##rib": 3752,
      "behör": 3753,
      "forskare": 3754,
      "stockholm": 3755,
      "storbritann": 3756,
      "tol": 3757,
      "##iell": 3758,
      "##boll": 3759,
      "studer": 3760,
      "arbetet": 3761,
      "##trem": 3762,
      "direktiv": 3763,
      "##tes": 3764,
      "vatt": 3765,
      "sport": 3766,
      "motiv": 3767,
      "ledande": 3768,
      "önskar": 3769,
      "dav": 3770,
      "##ban": 3771,
      "##nda": 3772,
      "mal": 3773,
      "mid": 3774,
      "alls": 3775,
      "sep": 3776,
      "någonting": 3777,
      "administr": 3778,
      "beräk": 3779,
      "förslag": 3780,
      "##atiskt": 3781,
      "##tering": 3782,
      "grön": 3783,
      "fullt": 3784,
      "lilla": 3785,
      "##öka": 3786,
      "nyck": 3787,
      "tala": 3788,
      "tank": 3789,
      "wor": 3790,
      "##rad": 3791,
      "struktur": 3792,
      "utnytt": 3793,
      "huset": 3794,
      "##följ": 3795,
      "deb": 3796,
      "##betal": 3797,
      "##visning": 3798,
      "glas": 3799,
      "fullständ": 3800,
      "ed": 3801,
      "national": 3802,
      "befolk": 3803,
      "janu": 3804,
      "##skning": 3805,
      "##beroende": 3806,
      "lagstift": 3807,
      "karriär": 3808,
      "ökar": 3809,
      "##ffe": 3810,
      "blå": 3811,
      "af": 3812,
      "vart": 3813,
      "##förande": 3814,
      "##umenter": 3815,
      "personal": 3816,
      "familjen": 3817,
      "anpass": 3818,
      "septem": 3819,
      "bus": 3820,
      "flick": 3821,
      "##urg": 3822,
      "extrem": 3823,
      "tekniska": 3824,
      "förändringar": 3825,
      "föreg": 3826,
      "avsnitt": 3827,
      "central": 3828,
      "?”": 3829,
      "sälj": 3830,
      "september": 3831,
      "modern": 3832,
      "ret": 3833,
      "##rike": 3834,
      "?\"": 3835,
      "lond": 3836,
      "tw": 3837,
      "##ham": 3838,
      "##stone": 3839,
      "menar": 3840,
      "ansök": 3841,
      "faktum": 3842,
      "##grund": 3843,
      "installer": 3844,
      "kre": 3845,
      "beror": 3846,
      "transport": 3847,
      "gemensam": 3848,
      "därmed": 3849,
      "civ": 3850,
      "##splats": 3851,
      "ok": 3852,
      "bilden": 3853,
      "förstör": 3854,
      "##åra": 3855,
      "ingår": 3856,
      "herren": 3857,
      "##ändska": 3858,
      "sma": 3859,
      "döda": 3860,
      "bol": 3861,
      "york": 3862,
      "##enta": 3863,
      "överva": 3864,
      "globala": 3865,
      "qu": 3866,
      "##igen": 3867,
      "energ": 3868,
      "video": 3869,
      "januari": 3870,
      "därefter": 3871,
      "visas": 3872,
      "personliga": 3873,
      "analy": 3874,
      "hom": 3875,
      "mik": 3876,
      "problemet": 3877,
      "kontakta": 3878,
      "ap": 3879,
      "##sd": 3880,
      "region": 3881,
      "poj": 3882,
      "inlägg": 3883,
      "arm": 3884,
      "talar": 3885,
      "##ikationer": 3886,
      "upph": 3887,
      "överens": 3888,
      "##ipp": 3889,
      "enheter": 3890,
      "objekt": 3891,
      "civil": 3892,
      "tips": 3893,
      "kärn": 3894,
      "gemenskap": 3895,
      "bla": 3896,
      "rym": 3897,
      "smart": 3898,
      "##öja": 3899,
      "job": 3900,
      "trodde": 3901,
      "rädda": 3902,
      "tillå": 3903,
      "värd": 3904,
      "##ix": 3905,
      "vänt": 3906,
      "##sprogram": 3907,
      "##isering": 3908,
      "web": 3909,
      "muse": 3910,
      "##öts": 3911,
      "tillåt": 3912,
      "bete": 3913,
      "övriga": 3914,
      "dest": 3915,
      "##liggör": 3916,
      "anser": 3917,
      "klicka": 3918,
      "tecken": 3919,
      "micro": 3920,
      "23": 3921,
      "vänta": 3922,
      "##bruk": 3923,
      "cancer": 3924,
      "otro": 3925,
      "kostnader": 3926,
      "lyssna": 3927,
      "jätt": 3928,
      "tä": 3929,
      "städer": 3930,
      "förhållande": 3931,
      "##let": 3932,
      "##ena": 3933,
      "kung": 3934,
      "vård": 3935,
      "säkra": 3936,
      "##sida": 3937,
      "ytt": 3938,
      "##bas": 3939,
      "ena": 3940,
      "##emot": 3941,
      "skilj": 3942,
      "##skon": 3943,
      "regelbund": 3944,
      "sannol": 3945,
      "mol": 3946,
      "mång": 3947,
      "eta": 3948,
      "##ober": 3949,
      "00": 3950,
      "lägg": 3951,
      "##oc": 3952,
      "vars": 3953,
      "undant": 3954,
      "mak": 3955,
      "behöv": 3956,
      "##parlament": 3957,
      "##ho": 3958,
      "skrev": 3959,
      "char": 3960,
      "##program": 3961,
      "finansier": 3962,
      "gemensamma": 3963,
      "##ex": 3964,
      "##rande": 3965,
      "##ach": 3966,
      "skada": 3967,
      "rep": 3968,
      "kontor": 3969,
      "okt": 3970,
      "elektron": 3971,
      "resultatet": 3972,
      "anledning": 3973,
      "intell": 3974,
      "2010": 3975,
      "konse": 3976,
      "##klag": 3977,
      "anses": 3978,
      "målet": 3979,
      "priset": 3980,
      "##ure": 3981,
      "chr": 3982,
      "fyll": 3983,
      "don": 3984,
      "oför": 3985,
      "##vik": 3986,
      "prem": 3987,
      "delta": 3988,
      "europaparlament": 3989,
      "naturligtvis": 3990,
      "partner": 3991,
      "ep": 3992,
      "främst": 3993,
      "prov": 3994,
      "genomsnitt": 3995,
      "ungdom": 3996,
      "häm": 3997,
      "sw": 3998,
      "##enden": 3999,
      "##organis": 4000,
      "fördel": 4001,
      "uppskatt": 4002,
      "fortsatt": 4003,
      "process": 4004,
      "trädgår": 4005,
      "njuta": 4006,
      "##etens": 4007,
      "##ärder": 4008,
      "gläd": 4009,
      "london": 4010,
      "avsl": 4011,
      "arg": 4012,
      "lösning": 4013,
      "öppen": 4014,
      "##talet": 4015,
      "påverka": 4016,
      "kateg": 4017,
      "budget": 4018,
      "david": 4019,
      "##orlunda": 4020,
      "##use": 4021,
      "utvärder": 4022,
      "metoder": 4023,
      "air": 4024,
      "mä": 4025,
      "##pan": 4026,
      "motor": 4027,
      "britt": 4028,
      "åtmin": 4029,
      "amb": 4030,
      "visade": 4031,
      "vanligt": 4032,
      "förmåga": 4033,
      "utfor": 4034,
      "aust": 4035,
      "##aktion": 4036,
      "##bok": 4037,
      "tyvär": 4038,
      "##ligheter": 4039,
      "2012": 4040,
      "träning": 4041,
      "åtminstone": 4042,
      "500": 4043,
      "##kost": 4044,
      "##za": 4045,
      "##ilt": 4046,
      "##strin": 4047,
      "berättar": 4048,
      "tillgänglig": 4049,
      "sla": 4050,
      "kända": 4051,
      "lägger": 4052,
      "plattform": 4053,
      "populära": 4054,
      "folket": 4055,
      "ga": 4056,
      "##enskaper": 4057,
      "godkän": 4058,
      "elever": 4059,
      "storbritannien": 4060,
      "dans": 4061,
      "finland": 4062,
      "förvalt": 4063,
      "tyvärr": 4064,
      "ins": 4065,
      "spår": 4066,
      "hjärn": 4067,
      "##sproc": 4068,
      "##satta": 4069,
      "slå": 4070,
      "synd": 4071,
      "lämnar": 4072,
      "kolla": 4073,
      "avses": 4074,
      "oktober": 4075,
      "##ycka": 4076,
      "spännande": 4077,
      "brist": 4078,
      "miljarder": 4079,
      "tyskland": 4080,
      "trum": 4081,
      "förmod": 4082,
      "författare": 4083,
      "27": 4084,
      "##iver": 4085,
      "rec": 4086,
      "uttal": 4087,
      "apr": 4088,
      "cook": 4089,
      "fång": 4090,
      "äter": 4091,
      "##blick": 4092,
      "##aterade": 4093,
      "sten": 4094,
      "effektiv": 4095,
      "godk": 4096,
      "flygplats": 4097,
      "korrekt": 4098,
      "kostnad": 4099,
      "önsk": 4100,
      "väst": 4101,
      "digit": 4102,
      "##räff": 4103,
      "försvar": 4104,
      "samtliga": 4105,
      "fantastiska": 4106,
      "häng": 4107,
      "varm": 4108,
      "kval": 4109,
      "lista": 4110,
      "stress": 4111,
      "försäljning": 4112,
      "##gera": 4113,
      "mottag": 4114,
      "kände": 4115,
      "fäng": 4116,
      "##ama": 4117,
      "##amål": 4118,
      "##ifiera": 4119,
      ":)": 4120,
      "inre": 4121,
      "lagen": 4122,
      "resten": 4123,
      "övert": 4124,
      "##pac": 4125,
      "##rument": 4126,
      "modell": 4127,
      "vap": 4128,
      "##ress": 4129,
      "offentliga": 4130,
      "detalj": 4131,
      "visst": 4132,
      "finansiella": 4133,
      "ryssland": 4134,
      "mult": 4135,
      "##öp": 4136,
      "##vida": 4137,
      "##atiska": 4138,
      "inled": 4139,
      "mening": 4140,
      "effektivt": 4141,
      "fn": 4142,
      "km": 4143,
      "publ": 4144,
      "##still": 4145,
      "##kast": 4146,
      "stö": 4147,
      "stre": 4148,
      "##amen": 4149,
      "##spekt": 4150,
      "ordet": 4151,
      "annorlunda": 4152,
      "knapp": 4153,
      "col": 4154,
      "fart": 4155,
      "tidigt": 4156,
      "sälja": 4157,
      "ak": 4158,
      "ot": 4159,
      "åka": 4160,
      "stil": 4161,
      "bransch": 4162,
      "regering": 4163,
      "##istik": 4164,
      "havet": 4165,
      "##peratur": 4166,
      "musk": 4167,
      "28": 4168,
      "katt": 4169,
      "##xa": 4170,
      "föred": 4171,
      "##edda": 4172,
      "projektet": 4173,
      "scen": 4174,
      "##jan": 4175,
      "##ics": 4176,
      "2011": 4177,
      "kläder": 4178,
      "kyrkan": 4179,
      "oberoende": 4180,
      "söm": 4181,
      "nyligen": 4182,
      "lösa": 4183,
      "26": 4184,
      "ill": 4185,
      "jack": 4186,
      "ru": 4187,
      "##ona": 4188,
      "##ätta": 4189,
      "lägre": 4190,
      "gravid": 4191,
      "can": 4192,
      "lans": 4193,
      "##amin": 4194,
      "stjärn": 4195,
      "sanningen": 4196,
      "bygger": 4197,
      "enbart": 4198,
      "##verket": 4199,
      "uppfatt": 4200,
      "digital": 4201,
      "användar": 4202,
      "omfattande": 4203,
      "inkluderar": 4204,
      "##ich": 4205,
      "36": 4206,
      "ip": 4207,
      "##när": 4208,
      "##fe": 4209,
      "real": 4210,
      "##aket": 4211,
      "särskilda": 4212,
      "university": 4213,
      "islam": 4214,
      "##bolag": 4215,
      "##jänster": 4216,
      "exempelvis": 4217,
      "##ran": 4218,
      "##mon": 4219,
      "insats": 4220,
      "sitter": 4221,
      "tänkte": 4222,
      "infl": 4223,
      "uppdrag": 4224,
      "jämfört": 4225,
      "levande": 4226,
      "##skydd": 4227,
      "alko": 4228,
      "##givare": 4229,
      "bidra": 4230,
      "##fulla": 4231,
      "aktiviteter": 4232,
      "april": 4233,
      "fest": 4234,
      "stär": 4235,
      "fungera": 4236,
      "##iellt": 4237,
      "attack": 4238,
      "moderna": 4239,
      "dotter": 4240,
      "##50": 4241,
      "ledare": 4242,
      "tankar": 4243,
      "utmärkt": 4244,
      "casino": 4245,
      "out": 4246,
      "##iot": 4247,
      "##pla": 4248,
      "##kap": 4249,
      "spender": 4250,
      "##icy": 4251,
      "global": 4252,
      "period": 4253,
      "batt": 4254,
      "##sson": 4255,
      "mannen": 4256,
      "missl": 4257,
      "##imer": 4258,
      "##inder": 4259,
      "##samt": 4260,
      "bekväm": 4261,
      "guld": 4262,
      "##iel": 4263,
      "##aner": 4264,
      "vita": 4265,
      "##urna": 4266,
      "välkom": 4267,
      "internationell": 4268,
      "webbplatser": 4269,
      "fotograf": 4270,
      "sat": 4271,
      "##yp": 4272,
      "heter": 4273,
      "mån": 4274,
      "##öna": 4275,
      "hård": 4276,
      "besöka": 4277,
      "##les": 4278,
      "##bum": 4279,
      "##struktur": 4280,
      "separ": 4281,
      "poäng": 4282,
      "bekräft": 4283,
      "##rör": 4284,
      "server": 4285,
      "gräns": 4286,
      "grad": 4287,
      "##gående": 4288,
      "nummer": 4289,
      "anm": 4290,
      "barnet": 4291,
      "##orier": 4292,
      "skra": 4293,
      "beakt": 4294,
      "politik": 4295,
      "restauranger": 4296,
      "stabil": 4297,
      "undantag": 4298,
      "alkohol": 4299,
      "au": 4300,
      "##tet": 4301,
      "##rel": 4302,
      "syd": 4303,
      "organisationer": 4304,
      "pati": 4305,
      "allmänna": 4306,
      "höll": 4307,
      "snabbare": 4308,
      "betydelse": 4309,
      "definit": 4310,
      "cert": 4311,
      "ek": 4312,
      "hit": 4313,
      "behåll": 4314,
      "självklart": 4315,
      "risken": 4316,
      "##grepp": 4317,
      "maskin": 4318,
      "##ypt": 4319,
      "##esser": 4320,
      "däremot": 4321,
      "##centr": 4322,
      "november": 4323,
      "exist": 4324,
      "djup": 4325,
      "övertyg": 4326,
      "matt": 4327,
      "##ärn": 4328,
      "fotboll": 4329,
      "ämnen": 4330,
      "långa": 4331,
      "2019": 4332,
      "##orge": 4333,
      "lärare": 4334,
      "special": 4335,
      "spara": 4336,
      "känslor": 4337,
      "intressant": 4338,
      "##ställningar": 4339,
      "pappa": 4340,
      "jobbet": 4341,
      "sing": 4342,
      "##cel": 4343,
      "##bes": 4344,
      "identifier": 4345,
      "känsla": 4346,
      "##vård": 4347,
      "kines": 4348,
      "##endet": 4349,
      "stäm": 4350,
      "##berg": 4351,
      "kommande": 4352,
      "verkliga": 4353,
      "vuxna": 4354,
      "balans": 4355,
      "pers": 4356,
      "våg": 4357,
      "brukar": 4358,
      "omedelbart": 4359,
      "förest": 4360,
      "##ismen": 4361,
      "valut": 4362,
      "oftast": 4363,
      "position": 4364,
      "förmodligen": 4365,
      "sant": 4366,
      "vinn": 4367,
      "##inst": 4368,
      "##ills": 4369,
      "##ica": 4370,
      "##dels": 4371,
      "motstånd": 4372,
      "produkten": 4373,
      "##lex": 4374,
      "##slös": 4375,
      "2009": 4376,
      "musli": 4377,
      "sur": 4378,
      "vänster": 4379,
      "nämligen": 4380,
      "70": 4381,
      "##kr": 4382,
      "avseende": 4383,
      "tryck": 4384,
      "2008": 4385,
      "solen": 4386,
      "centrum": 4387,
      "bidrag": 4388,
      "##phone": 4389,
      "kön": 4390,
      "utrym": 4391,
      "klubb": 4392,
      "framtida": 4393,
      "marknadsföring": 4394,
      "lic": 4395,
      "##erats": 4396,
      "återvän": 4397,
      "etabl": 4398,
      "je": 4399,
      "##ca": 4400,
      "##mål": 4401,
      "##rala": 4402,
      "80": 4403,
      "bilen": 4404,
      "rätts": 4405,
      "##gj": 4406,
      "##lat": 4407,
      "##hav": 4408,
      "föremål": 4409,
      "##tryck": 4410,
      "utvecklas": 4411,
      "##frågan": 4412,
      "frihet": 4413,
      "förhindra": 4414,
      "uttryck": 4415,
      "natten": 4416,
      "ent": 4417,
      "press": 4418,
      "borta": 4419,
      "karaktär": 4420,
      "31": 4421,
      "net": 4422,
      "##kande": 4423,
      "##kret": 4424,
      "##erier": 4425,
      "##ygga": 4426,
      "ges": 4427,
      "visat": 4428,
      "köper": 4429,
      "antag": 4430,
      "avanc": 4431,
      "##ningsm": 4432,
      "tving": 4433,
      "##änderna": 4434,
      "svart": 4435,
      "fallet": 4436,
      "sjun": 4437,
      "hjärtat": 4438,
      "mun": 4439,
      "snar": 4440,
      "##sel": 4441,
      "##ith": 4442,
      "uppman": 4443,
      "block": 4444,
      "reda": 4445,
      "litet": 4446,
      "tu": 4447,
      "skatt": 4448,
      "ställa": 4449,
      "söka": 4450,
      "sång": 4451,
      "görs": 4452,
      "baserat": 4453,
      "passar": 4454,
      "cl": 4455,
      "pan": 4456,
      "manag": 4457,
      "elektr": 4458,
      "göras": 4459,
      "flytta": 4460,
      "frankrike": 4461,
      "dos": 4462,
      "##tion": 4463,
      "##kten": 4464,
      "befin": 4465,
      "personen": 4466,
      "flex": 4467,
      "totalt": 4468,
      "##anen": 4469,
      "tab": 4470,
      "##bert": 4471,
      "ständigt": 4472,
      "dit": 4473,
      "möjliga": 4474,
      "##uro": 4475,
      "människan": 4476,
      "historien": 4477,
      "växer": 4478,
      "säkerhets": 4479,
      "investering": 4480,
      "starkt": 4481,
      ".[": 4482,
      "frågade": 4483,
      "öst": 4484,
      "närmare": 4485,
      "växa": 4486,
      "stanna": 4487,
      "na": 4488,
      "sidor": 4489,
      "90": 4490,
      "dog": 4491,
      "underl": 4492,
      "annars": 4493,
      "smär": 4494,
      "väntar": 4495,
      "ändamål": 4496,
      "##arbete": 4497,
      "dri": 4498,
      "##ood": 4499,
      "närma": 4500,
      "filmer": 4501,
      "meter": 4502,
      "huvudsak": 4503,
      "skå": 4504,
      "distrib": 4505,
      "##soft": 4506,
      "häv": 4507,
      "ku": 4508,
      "sommar": 4509,
      "medier": 4510,
      "konvent": 4511,
      "trygg": 4512,
      "leg": 4513,
      "datum": 4514,
      "processen": 4515,
      "rekommenderar": 4516,
      "##sidan": 4517,
      "båt": 4518,
      "##inal": 4519,
      "uppgift": 4520,
      "miljon": 4521,
      "##pris": 4522,
      "siff": 4523,
      "##använd": 4524,
      "försäkring": 4525,
      "idéer": 4526,
      "eventuella": 4527,
      "gäll": 4528,
      "bev": 4529,
      "klin": 4530,
      "mac": 4531,
      "ökad": 4532,
      "fad": 4533,
      "funder": 4534,
      "##lt": 4535,
      "##stru": 4536,
      "planet": 4537,
      "hört": 4538,
      "##troll": 4539,
      "##kul": 4540,
      "##han": 4541,
      "##andid": 4542,
      "läser": 4543,
      "##jänst": 4544,
      "trev": 4545,
      "naturliga": 4546,
      "##rali": 4547,
      "hände": 4548,
      "saknar": 4549,
      "lättare": 4550,
      "massa": 4551,
      "sven": 4552,
      "infekt": 4553,
      "föregående": 4554,
      "sil": 4555,
      "##ocka": 4556,
      "initi": 4557,
      "berg": 4558,
      "föresl": 4559,
      "jurid": 4560,
      "##sdag": 4561,
      "aug": 4562,
      "framåt": 4563,
      "personlig": 4564,
      "känt": 4565,
      "kallar": 4566,
      "##edag": 4567,
      "gett": 4568,
      "förhand": 4569,
      "omöj": 4570,
      "##ild": 4571,
      "utsikt": 4572,
      "##sättningar": 4573,
      "undrar": 4574,
      "observer": 4575,
      "##maren": 4576,
      "##delning": 4577,
      "änt": 4578,
      "träffa": 4579,
      "komplett": 4580,
      "sty": 4581,
      "##leken": 4582,
      "rek": 4583,
      "betrakt": 4584,
      "kontin": 4585,
      "börjat": 4586,
      "starka": 4587,
      "licens": 4588,
      "span": 4589,
      "köra": 4590,
      "äntligen": 4591,
      "fu": 4592,
      "kommers": 4593,
      "plöts": 4594,
      "beröm": 4595,
      "tjäna": 4596,
      "lugn": 4597,
      "normalt": 4598,
      "version": 4599,
      "uppre": 4600,
      "kompetens": 4601,
      "interv": 4602,
      "betydande": 4603,
      "##öter": 4604,
      "stod": 4605,
      "##ada": 4606,
      "##press": 4607,
      "omfattar": 4608,
      "##kad": 4609,
      "kristna": 4610,
      "##stäm": 4611,
      "paul": 4612,
      "tydligt": 4613,
      "rut": 4614,
      "förd": 4615,
      "växt": 4616,
      "behandla": 4617,
      "##ox": 4618,
      "##skomm": 4619,
      "dåligt": 4620,
      "svara": 4621,
      "innovation": 4622,
      "microsoft": 4623,
      "vapen": 4624,
      "kop": 4625,
      "##nt": 4626,
      "##iden": 4627,
      "promen": 4628,
      "bilar": 4629,
      "##skraft": 4630,
      "fjärde": 4631,
      "black": 4632,
      "band": 4633,
      "##ror": 4634,
      "##ction": 4635,
      "mikro": 4636,
      "äkt": 4637,
      "##karen": 4638,
      "drag": 4639,
      "hända": 4640,
      "specifika": 4641,
      "bostad": 4642,
      "ses": 4643,
      "anlägg": 4644,
      "sätter": 4645,
      "partners": 4646,
      "flykt": 4647,
      "yrkes": 4648,
      "center": 4649,
      "äger": 4650,
      "##igur": 4651,
      "skog": 4652,
      "recept": 4653,
      "konc": 4654,
      "egenskaper": 4655,
      "##otten": 4656,
      "australi": 4657,
      "##lare": 4658,
      "apple": 4659,
      "myndigheter": 4660,
      "terror": 4661,
      "akade": 4662,
      "##sc": 4663,
      "rob": 4664,
      "symbol": 4665,
      "digitala": 4666,
      "smärta": 4667,
      "da": 4668,
      "tåg": 4669,
      "##sled": 4670,
      "resurser": 4671,
      "dej": 4672,
      "##liote": 4673,
      "##ump": 4674,
      "tyst": 4675,
      "##kont": 4676,
      "såväl": 4677,
      "unika": 4678,
      "194": 4679,
      "stödja": 4680,
      "jobba": 4681,
      "privata": 4682,
      "##jar": 4683,
      "roligt": 4684,
      "trafik": 4685,
      "historiska": 4686,
      "##unnit": 4687,
      "igår": 4688,
      "kallade": 4689,
      "bakgrund": 4690,
      "35": 4691,
      "eli": 4692,
      "##delsen": 4693,
      "serien": 4694,
      "##klam": 4695,
      "fantastisk": 4696,
      "world": 4697,
      "anmäl": 4698,
      "järn": 4699,
      "supp": 4700,
      "åtta": 4701,
      "paris": 4702,
      "svarade": 4703,
      "hänsyn": 4704,
      "international": 4705,
      "op": 4706,
      "##säg": 4707,
      "##entals": 4708,
      "värder": 4709,
      "storlek": 4710,
      "##asser": 4711,
      "sjukhus": 4712,
      "##sut": 4713,
      "kalla": 4714,
      "##frika": 4715,
      "bonus": 4716,
      "ävent": 4717,
      "##vill": 4718,
      "media": 4719,
      "##vers": 4720,
      "uts": 4721,
      "##imal": 4722,
      "##råd": 4723,
      "intro": 4724,
      "kaffe": 4725,
      "utföra": 4726,
      "grupper": 4727,
      "avstånd": 4728,
      "##terade": 4729,
      "##unch": 4730,
      "diagn": 4731,
      "##arbetare": 4732,
      "##elserna": 4733,
      "pratar": 4734,
      "ögonblick": 4735,
      "##brott": 4736,
      "##rika": 4737,
      "dålig": 4738,
      "rätten": 4739,
      "möte": 4740,
      "bidrar": 4741,
      "temperatur": 4742,
      "arkite": 4743,
      "medborgare": 4744,
      "bord": 4745,
      "##ms": 4746,
      "varor": 4747,
      "##klare": 4748,
      "hälften": 4749,
      "kampan": 4750,
      "fåg": 4751,
      "##zon": 4752,
      "lek": 4753,
      "##gress": 4754,
      "lägenhet": 4755,
      "febru": 4756,
      "##ea": 4757,
      "hittade": 4758,
      "ekonomi": 4759,
      "främja": 4760,
      "syftet": 4761,
      "uppleva": 4762,
      "bön": 4763,
      "##äster": 4764,
      "försikt": 4765,
      "parlament": 4766,
      "konstru": 4767,
      "##ias": 4768,
      "förny": 4769,
      "välkommen": 4770,
      "läst": 4771,
      "album": 4772,
      "vinst": 4773,
      "staten": 4774,
      "älskade": 4775,
      "sand": 4776,
      "##aktioner": 4777,
      "##jöl": 4778,
      "##oritet": 4779,
      "##istisk": 4780,
      "ryska": 4781,
      "##pektiv": 4782,
      "vattnet": 4783,
      "grå": 4784,
      "gäst": 4785,
      "will": 4786,
      "##fta": 4787,
      "##iger": 4788,
      "live": 4789,
      "##skapet": 4790,
      "straff": 4791,
      "uppenbar": 4792,
      "äktenskap": 4793,
      "förtro": 4794,
      "omständ": 4795,
      "utsl": 4796,
      "gruppen": 4797,
      "turk": 4798,
      "ec": 4799,
      "fett": 4800,
      "##tande": 4801,
      "##ode": 4802,
      "##på": 4803,
      "##ya": 4804,
      "##ink": 4805,
      "kunnat": 4806,
      "förstås": 4807,
      "genomföra": 4808,
      "förlora": 4809,
      "strategi": 4810,
      "you": 4811,
      "italien": 4812,
      "tanke": 4813,
      "august": 4814,
      "##ungen": 4815,
      "hej": 4816,
      "möjligheten": 4817,
      "allmänhet": 4818,
      "upptäcka": 4819,
      "nödvändiga": 4820,
      "pension": 4821,
      "inc": 4822,
      "##skrig": 4823,
      "##steg": 4824,
      "##iment": 4825,
      "##värt": 4826,
      "förändra": 4827,
      "##teras": 4828,
      "nytta": 4829,
      "erkän": 4830,
      "relation": 4831,
      "semester": 4832,
      "tillåter": 4833,
      "februari": 4834,
      "coll": 4835,
      "starta": 4836,
      "utrustning": 4837,
      "befint": 4838,
      "##rats": 4839,
      "##vand": 4840,
      "omgiv": 4841,
      "##skriv": 4842,
      "värt": 4843,
      "representer": 4844,
      "samtal": 4845,
      "trött": 4846,
      "lagar": 4847,
      "miljön": 4848,
      "leverans": 4849,
      "hårt": 4850,
      "avgörande": 4851,
      "nöjd": 4852,
      "##gas": 4853,
      "##list": 4854,
      "värme": 4855,
      "rätta": 4856,
      "journa": 4857,
      "förståelse": 4858,
      "rådets": 4859,
      "buss": 4860,
      "pet": 4861,
      "##ht": 4862,
      "##omb": 4863,
      "##ita": 4864,
      "franska": 4865,
      "##ikat": 4866,
      "informationen": 4867,
      "##äkerhet": 4868,
      "sömn": 4869,
      "mät": 4870,
      "skr": 4871,
      "allra": 4872,
      "överallt": 4873,
      "situation": 4874,
      "överväg": 4875,
      "erk": 4876,
      "användningen": 4877,
      "serie": 4878,
      "långsikt": 4879,
      "totala": 4880,
      "fysiska": 4881,
      "tillhandahålla": 4882,
      "uppmärksam": 4883,
      "enskilda": 4884,
      "29": 4885,
      "gas": 4886,
      "grä": 4887,
      "ment": 4888,
      "##isen": 4889,
      "##ower": 4890,
      "noggr": 4891,
      "samhälle": 4892,
      "##ence": 4893,
      "stund": 4894,
      "dricka": 4895,
      "kunden": 4896,
      "sjukdomar": 4897,
      "ursprungliga": 4898,
      "##ssel": 4899,
      "handling": 4900,
      "##gången": 4901,
      "ställe": 4902,
      "lyckas": 4903,
      "kandid": 4904,
      "ink": 4905,
      "nyhet": 4906,
      "kött": 4907,
      "sci": 4908,
      "tum": 4909,
      "##garna": 4910,
      "skapat": 4911,
      "##utveckling": 4912,
      "bolaget": 4913,
      "konsekvens": 4914,
      "##llop": 4915,
      "förhållanden": 4916,
      "lab": 4917,
      "##gande": 4918,
      "##stat": 4919,
      "##ulär": 4920,
      "sist": 4921,
      "åsikt": 4922,
      "##th": 4923,
      "utred": 4924,
      "följd": 4925,
      "forsknings": 4926,
      "automatiskt": 4927,
      "##sky": 4928,
      "konferens": 4929,
      "bilje": 4930,
      "infor": 4931,
      "intens": 4932,
      "gat": 4933,
      "sort": 4934,
      "##ämpar": 4935,
      "hall": 4936,
      "hemsida": 4937,
      "ekonomisk": 4938,
      "instrument": 4939,
      "dyr": 4940,
      "##pas": 4941,
      "##ora": 4942,
      "##ssätt": 4943,
      "prova": 4944,
      "##venemang": 4945,
      "aktie": 4946,
      "ordförande": 4947,
      "introdu": 4948,
      "dia": 4949,
      "fält": 4950,
      "##elt": 4951,
      "vardag": 4952,
      "##varo": 4953,
      "emeller": 4954,
      "röda": 4955,
      "jobbar": 4956,
      "emellertid": 4957,
      "!”": 4958,
      "jon": 4959,
      "##indu": 4960,
      "##deles": 4961,
      "besökare": 4962,
      "akadem": 4963,
      "lju": 4964,
      "rent": 4965,
      "##hu": 4966,
      "##eda": 4967,
      "naturen": 4968,
      "metod": 4969,
      "behöriga": 4970,
      "beteende": 4971,
      "cit": 4972,
      "##person": 4973,
      "##onser": 4974,
      "tillägg": 4975,
      "spring": 4976,
      "plus": 4977,
      "##own": 4978,
      "ström": 4979,
      "befinner": 4980,
      "skillnaden": 4981,
      "##oga": 4982,
      "unionen": 4983,
      "##knik": 4984,
      "platsen": 4985,
      "tittar": 4986,
      "konkurrens": 4987,
      "300": 4988,
      "sats": 4989,
      "##wa": 4990,
      "äng": 4991,
      "##speri": 4992,
      "brand": 4993,
      "##ocker": 4994,
      "stolt": 4995,
      "bröllop": 4996,
      "snarare": 4997,
      "rän": 4998,
      "##öte": 4999
    }
  }
}