[UNK]	0
[CLS]	1
[SEP]	2
[PAD]	3
[MASK]	4
!	5
"	6
#	7
$	8
%	9
&	10
'	11
(	12
)	13
*	14
+	15
,	16
-	17
.	18
/	19
0	20
1	21
2	22
3	23
4	24
5	25
6	26
7	27
8	28
9	29
:	30
;	31
<	32
=	33
>	34
?	35
@	36
[	37
\	38
]	39
^	40
_	41
`	42
a	43
b	44
c	45
d	46
e	47
f	48
g	49
h	50
i	51
j	52
k	53
l	54
m	55
n	56
o	57
p	58
q	59
r	60
s	61
t	62
u	63
v	64
w	65
x	66
y	67
z	68
{	69
|	70
}	71
~	72
	73
	74
	75
	76
	77
	78
	79
	80
	81
	82
	83
	84
¡	85
¢	86
£	87
¤	88
¥	89
§	90
©	91
«	92
¬	93
­	94
®	95
°	96
±	97
¶	98
·	99
»	100
¿	101
×	102
ß	103
à	104
á	105
â	106
ã	107
ä	108
å	109
æ	110
ç	111
è	112
é	113
ê	114
ë	115
ì	116
í	117
î	118
ï	119
ð	120
ñ	121
ò	122
ó	123
ô	124
õ	125
ö	126
÷	127
ø	128
ù	129
ú	130
û	131
ü	132
ý	133
þ	134
ÿ	135
ā	136
ă	137
ą	138
ć	139
č	140
đ	141
ē	142
ė	143
ę	144
ě	145
ğ	146
ħ	147
ī	148
ı	149
ķ	150
ĺ	151
ł	152
ń	153
ō	154
ő	155
œ	156
ś	157
ş	158
š	159
ţ	160
ū	161
ų	162
ż	163
ž	164
ƒ	165
ơ	166
ư	167
ǎ	168
ǒ	169
ǔ	170
ǧ	171
ș	172
ɑ	173
ɒ	174
ə	175
ɛ	176
ɡ	177
ɣ	178
ɸ	179
ʹ	180
ʼ	181
ˆ	182
ˈ	183
ˌ	184
ː	185
ˮ	186
́	187
̂	188
̃	189
̇	190
̈	191
̊	192
̶	193
ά	194
ή	195
ί	196
α	197
β	198
γ	199
δ	200
ε	201
η	202
θ	203
ι	204
κ	205
λ	206
μ	207
ν	208
ο	209
π	210
ρ	211
ς	212
σ	213
τ	214
φ	215
χ	216
ω	217
ό	218
ύ	219
а	220
б	221
в	222
г	223
д	224
е	225
и	226
й	227
к	228
л	229
м	230
н	231
о	232
п	233
р	234
с	235
т	236
ц	237
ы	238
э	239
я	240
ј	241
ґ	242
ӓ	243
ӧ	244
א	245
ד	246
צ	247
ا	248
ة	249
ت	250
ث	251
ج	252
ح	253
د	254
ر	255
س	256
ص	257
ع	258
ك	259
ل	260
م	261
ن	262
ه	263
و	264
ى	265
ي	266
ڤ	267
ނ	268
ތ	269
ަ	270
ާ	271
ก	272
ข	273
ต	274
ธ	275
น	276
ย	277
ร	278
ส	279
ะ	280
ั	281
ิ	282
ี	283
ุ	284
เ	285
ი	286
რ	287
უ	288
ც	289
ხ	290
ḥ	291
ḳ	292
ṅ	293
ṇ	294
ṛ	295
ṣ	296
ṭ	297
ạ	298
ả	299
ầ	300
ẹ	301
ễ	302
ệ	303
ỉ	304
ị	305
ọ	306
ờ	307
ủ	308
ἀ	309
ἐ	310
​	311
‌	312
‍	313
‎	314
‏	315
‐	316
‒	317
–	318
—	319
―	320
‘	321
’	322
‚	323
“	324
”	325
„	326
†	327
‡	328
•	329
‣	330
‬	331
‭	332
′	333
‹	334
›	335
※	336
⁃	337
⁄	338
₤	339
€	340
←	341
↑	342
→	343
↓	344
↩	345
↵	346
⇑	347
⇒	348
⇨	349
∈	350
∑	351
−	352
∙	353
√	354
∞	355
≈	356
≤	357
≥	358
⋅	359
▌	360
■	361
□	362
▪	363
▲	364
▶	365
▷	366
▸	367
►	368
▼	369
▽	370
▾	371
◄	372
◆	373
◊	374
○	375
●	376
◦	377
◾	378
★	379
☆	380
☐	381
☒	382
☕	383
☝	384
☟	385
☭	386
☺	387
♡	388
♣	389
♥	390
♦	391
♧	392
♪	393
♫	394
⚘	395
✅	396
✌	397
✎	398
✓	399
✔	400
✗	401
✰	402
❑	403
❓	404
❤	405
❥	406
➜	407
➥	408
⟵	409
⟶	410
⦁	411
⭐	412
オ	413
コ	414
ニ	415
ビ	416
リ	417
ン	418
・	419
万	420
世	421
中	422
主	423
五	424
人	425
会	426
光	427
公	428
共	429
军	430
华	431
协	432
協	433
台	434
司	435
命	436
和	437
团	438
国	439
國	440
大	441
山	442
岁	443
式	444
春	445
會	446
月	447
有	448
株	449
楚	450
民	451
江	452
海	453
湾	454
灣	455
狂	456
珞	457
球	458
界	459
社	460
秋	461
空	462
箇	463
級	464
级	465
结	466
联	467
聯	468
臺	469
航	470
言	471
賽	472
赛	473
超	474
足	475
軍	476
鈥	477
锦	478
镜	479
际	480
限	481
集	482
革	483
낍	484
눉	485
책	486
	487
	488
	489
	490
	491
	492
	493
	494
	495
	496
	497
	498
	499
	500
	501
	502
	503
	504
	505
	506
	507
	508
	509
	510
	511
	512
	513
	514
	515
	516
	517
	518
	519
	520
	521
	522
	523
	524
	525
	526
︎	527
️	528
﻿	529
￼	530
�	531
🇨	532
🌞	533
🌷	534
🌸	535
🍀	536
🍦	537
🍰	538
🍳	539
🍴	540
🎁	541
🎈	542
🎉	543
🎨	544
🎶	545
🎼	546
🏆	547
🏻	548
🏼	549
🏽	550
🐞	551
🐲	552
🐴	553
🐾	554
👁	555
👇	556
👌	557
👍	558
👏	559
💔	560
💕	561
💖	562
💙	563
💚	564
💜	565
💤	566
💥	567
💪	568
💰	569
📌	570
📚	571
📷	572
🔸	573
🖤	574
🗞	575
😀	576
😁	577
😂	578
😃	579
😄	580
😅	581
😆	582
😇	583
😉	584
😊	585
😋	586
😍	587
😎	588
😔	589
😕	590
😖	591
😘	592
😛	593
😜	594
😝	595
😞	596
😠	597
😢	598
😦	599
😫	600
😬	601
😭	602
😳	603
😶	604
🙁	605
🙂	606
🙆	607
🙈	608
🙉	609
🙌	610
🙏	611
🤔	612
🤗	613
🤙	614
🤛	615
🤣	616
🤩	617
🤯	618
🥂	619
🥇	620
🦋	621
🦌	622
🧡	623
🧩	624
##e	625
##a	626
##m	627
##d	628
##l	629
##r	630
##t	631
##c	632
##p	633
##s	634
##o	635
##n	636
##i	637
##h	638
##x	639
##k	640
##y	641
##g	642
##u	643
##.	644
##ä	645
##ń	646
##b	647
##j	648
##ü	649
##v	650
##ï	651
##f	652
##w	653
##ö	654
##å	655
##团	656
##é	657
##8	658
##5	659
##2	660
##’	661
##1	662
##9	663
##6	664
##z	665
##â	666
##û	667
##4	668
##q	669
##7	670
##0	671
##-	672
##)	673
##č	674
##限	675
##公	676
##司	677
##ã	678
##_	679
##è	680
##г	681
##ß	682
###	683
##«	684
##ø	685
##á	686
##ô	687
##“	688
##3	689
##ś	690
##ć	691
##\	692
##ā	693
##ó	694
##!	695
##,	696
##í	697
##ė	698
##ō	699
##î	700
##"	701
##ƒ	702
##:	703
##ê	704
##ǧ	705
##ñ	706
##(	707
##ş	708
##æ	709
##ë	710
##ă	711
##ÿ	712
##🏽	713
##]	714
##ç	715
##+	716
##ı	717
##ل	718
##ي	719
##*	720
##ū	721
##й	722
##š	723
##[	724
##ɣ	725
##ú	726
##/	727
##ả	728
##ρ	729
##γ	730
##ε	731
##ν	732
##τ	733
##ι	734
##ό	735
##ς	736
##”	737
##õ	738
##ґ	739
##ų	740
##à	741
##?	742
##海	743
##ł	744
##🏼	745
##œ	746
##‘	747
##к	748
##е	749
##а	750
##ě	751
##ǒ	752
##	753
##ạ	754
##ާ	755
##ނ	756
##ަ	757
##ǔ	758
##国	759
##足	760
##球	761
##协	762
##会	763
##超	764
##级	765
##联	766
##赛	767
##ž	768
##<	769
##	770
##ン	771
##ビ	772
##ニ	773
##▽	774
##~	775
##ī	776
##❓	777
##⇑	778
##–	779
##🌸	780
##م	781
##ا	782
##ع	783
##¬	784
##ę	785
##ð	786
##'	787
##;	788
##🏻	789
##💤	790
##😔	791
##🤯	792
##ù	793
##­	794
##‐	795
##ţ	796
##ن	797
##ص	798
##ر	799
##و	800
##ه	801
##★	802
##☆	803
##►	804
##′	805
##​	806
##{	807
##^	808
##α	809
##λ	810
##χ	811
##ί	812
##軍	813
##$	814
##ē	815
##ủ	816
##ح	817
##س	818
##ọ	819
##>	820
##•	821
##‭	822
##湾	823
##民	824
##主	825
##@	826
##﻿	827
##ั	828
##ก	829
##เ	830
##ี	831
##ย	832
##ร	833
##ต	834
##ิ	835
##ӓ	836
##ĺ	837
##»	838
##	839
##灣	840
##國	841
##د	842
##箇	843
##山	844
##ğ	845
##ì	846
##🙌	847
##}	848
##ӧ	849
##	850
##`	851
##�	852
##€	853
##ʹ	854
##θ	855
##ə	856
##ḥ	857
##光	858
##≈	859
##革	860
##命	861
##军	862
##&	863
##	864
##ة	865
##😘	866
##江	867
##际	868
##😝	869
##ɛ	870
##=	871
##📚	872
##¡	873
##ő	874
##უ	875
##ც	876
##რ	877
##ი	878
##界	879
##人	880
##大	881
##结	882
##万	883
##岁	884
##ý	885
##›	886
##đ	887
##д	888
##þ	889
##式	890
##社	891
##オ	892
##リ	893
##コ	894
##§	895
##ά	896
##σ	897
##ą	898
##ḳ	899
##🤣	900
##🍀	901
##н	902
##ư	903
##ơ	904
##⚘	905
##💜	906
##🦋	907
##🐞	908
##😇	909
##ṛ	910
##ṣ	911
##ṇ	912
##👍	913
##р	914
##с	915
##ы	916
##🌞	917
##ṅ	918
##ẹ	919
##⁃	920
##л	921
##|	922
##ệ	923
##%	924
##ο	925
##ك	926
##ت	927
##ύ	928
##ż	929
##华	930
##共	931
##和	932
##‡	933
##β	934
##η	935
##¿	936
##책	937
##э	938
##ุ	939
##ข	940
##ธ	941
##น	942
##ะ	943
##🦌	944
##ى	945
##ò	946
##ș	947
##ή	948
##	949
##↵	950
##👌	951
##✎	952
##😍	953
##❤	954
##ج	955
##協	956
##會	957
##級	958
##聯	959
##賽	960
##	961
##●	962
##ǎ	963
##▼	964
##◄	965
##ˆ	966
##💚	967
##φ	968
##ː	969
##言	970
##🤛	971
##￼	972
##🍰	973
##🥂	974
##п	975
##δ	976
##ω	977
##ц	978
##秋	979
##航	980
##空	981
##🏆	982
##ј	983
##̃	984
##ɑ	985
##‌	986
##ị	987
##	988
##	989
##ķ	990
##̇	991
##🎉	992
##🎈	993
##🎁	994
##и	995
##м	996
##т	997
##о	998
##в	999
##†	1000
##ầ	1001
##ṭ	1002
##ễ	1003
##🌷	1004
##κ	1005
##ờ	1006
##er	1007
##en	1008
##ar	1009
##tt	1010
##an	1011
##et	1012
##ll	1013
##ör	1014
##in	1015
##om	1016
##st	1017
för	1018
oc	1019
##ig	1020
och	1021
##on	1022
att	1023
en	1024
##or	1025
##de	1026
in	1027
##at	1028
##är	1029
##ka	1030
##ing	1031
är	1032
##ed	1033
##ag	1034
de	1035
##ill	1036
##än	1037
av	1038
##na	1039
##is	1040
##ra	1041
##kt	1042
det	1043
som	1044
till	1045
på	1046
st	1047
##el	1048
med	1049
vi	1050
##al	1051
##te	1052
an	1053
##lig	1054
den	1055
##pp	1056
##ck	1057
##ning	1058
##der	1059
##am	1060
##ro	1061
##ter	1062
##ån	1063
##ion	1064
var	1065
om	1066
##as	1067
##it	1068
##es	1069
##iv	1070
har	1071
jag	1072
##un	1073
inte	1074
du	1075
##ver	1076
fr	1077
ut	1078
##il	1079
##id	1080
##em	1081
##ller	1082
kan	1083
##and	1084
##ad	1085
ett	1086
##ade	1087
##ur	1088
##ätt	1089
sk	1090
##re	1091
kom	1092
##äl	1093
##ol	1094
##ande	1095
##åg	1096
##år	1097
all	1098
##are	1099
##het	1100
be	1101
##ik	1102
##da	1103
##ot	1104
##ss	1105
upp	1106
##ent	1107
##sk	1108
##mer	1109
##ut	1110
så	1111
pro	1112
eller	1113
##ation	1114
un	1115
##li	1116
ska	1117
##sta	1118
sp	1119
##ång	1120
##äg	1121
##itt	1122
##ans	1123
##ens	1124
från	1125
##ort	1126
##ell	1127
##för	1128
re	1129
när	1130
##us	1131
ar	1132
##isk	1133
men	1134
##le	1135
min	1136
##ta	1137
sam	1138
##äm	1139
någ	1140
##äll	1141
##vän	1142
##ud	1143
kon	1144
över	1145
han	1146
##um	1147
kommer	1148
tr	1149
##ist	1150
##tta	1151
er	1152
bar	1153
##fter	1154
##inn	1155
##iska	1156
##sa	1157
##ma	1158
##den	1159
##la	1160
##yck	1161
##ligt	1162
man	1163
##era	1164
gör	1165
##ks	1166
än	1167
##dra	1168
under	1169
##og	1170
##var	1171
se	1172
##liga	1173
##ker	1174
fa	1175
din	1176
##ul	1177
##jäl	1178
##ff	1179
##ers	1180
##ram	1181
använ	1182
##ic	1183
sig	1184
gr	1185
detta	1186
##änn	1187
##ser	1188
alla	1189
där	1190
här	1191
år	1192
vara	1193
##ste	1194
gen	1195
##ull	1196
##gen	1197
##bet	1198
pr	1199
##lar	1200
##je	1201
beh	1202
dig	1203
må	1204
sin	1205
efter	1206
vad	1207
##se	1208
##äng	1209
##igt	1210
ny	1211
ha	1212
##ft	1213
fl	1214
or	1215
hel	1216
##ska	1217
hur	1218
20	1219
vär	1220
##dr	1221
allt	1222
tid	1223
##yg	1224
sy	1225
##bb	1226
dess	1227
ex	1228
vill	1229
kun	1230
hon	1231
ta	1232
##ster	1233
##orm	1234
vis	1235
##os	1236
kr	1237
##del	1238
##ne	1239
bl	1240
finn	1241
sl	1242
##ats	1243
##att	1244
ver	1245
##od	1246
finns	1247
##erna	1248
##pa	1249
te	1250
##åll	1251
andra	1252
##ri	1253
ocks	1254
också	1255
##ger	1256
mer	1257
##ukt	1258
##art	1259
br	1260
dag	1261
genom	1262
##ok	1263
##iga	1264
##im	1265
vil	1266
##ven	1267
mig	1268
##sl	1269
##itet	1270
tv	1271
pl	1272
##ycket	1273
##ju	1274
##öd	1275
##ling	1276
vid	1277
##ningar	1278
mot	1279
bara	1280
##öj	1281
bör	1282
##..	1283
väl	1284
bli	1285
dem	1286
denna	1287
##ve	1288
fram	1289
le	1290
nu	1291
##ess	1292
mycket	1293
##va	1294
arbet	1295
##und	1296
##ekt	1297
res	1298
##per	1299
##ord	1300
pers	1301
ber	1302
##ch	1303
spel	1304
##ilj	1305
sa	1306
##ci	1307
##ligen	1308
få	1309
del	1310
##ikt	1311
##edan	1312
##arna	1313
##ier	1314
##ga	1315
mar	1316
person	1317
vår	1318
någon	1319
al	1320
##ånga	1321
##ant	1322
bes	1323
själ	1324
##ja	1325
ka	1326
##ningen	1327
liv	1328
bet	1329
göra	1330
##ställ	1331
använd	1332
ann	1333
stor	1334
förs	1335
rätt	1336
ty	1337
även	1338
##gi	1339
bil	1340
kv	1341
##ella	1342
skull	1343
hö	1344
##lem	1345
##ighet	1346
...	1347
##ket	1348
eu	1349
##ld	1350
##ust	1351
många	1352
männ	1353
li	1354
då	1355
sätt	1356
lä	1357
skulle	1358
oss	1359
säg	1360
dessa	1361
prod	1362
##vis	1363
##eras	1364
##opp	1365
##rå	1366
ser	1367
behö	1368
inf	1369
vet	1370
sä	1371
##riv	1372
##kar	1373
##00	1374
##eg	1375
##tr	1376
##lighet	1377
##nad	1378
barn	1379
bra	1380
fö	1381
kl	1382
##ala	1383
##ende	1384
##sp	1385
ma	1386
måste	1387
ch	1388
##ass	1389
reg	1390
##ost	1391
utan	1392
får	1393
människ	1394
##op	1395
##tal	1396
hade	1397
komm	1398
##cka	1399
##kom	1400
hjäl	1401
##ock	1402
mo	1403
##yr	1404
något	1405
##ken	1406
vå	1407
##ien	1408
ni	1409
första	1410
##dag	1411
str	1412
19	1413
##oll	1414
me	1415
##ia	1416
##etag	1417
##öm	1418
produkt	1419
201	1420
##nings	1421
##håll	1422
nä	1423
##tern	1424
##iskt	1425
##ir	1426
inne	1427
##ber	1428
fråg	1429
##sätt	1430
först	1431
två	1432
##ick	1433
vä	1434
##ön	1435
kän	1436
gång	1437
##ater	1438
själv	1439
##ök	1440
##veck	1441
##jän	1442
kont	1443
##land	1444
företag	1445
##ov	1446
##ce	1447
##gr	1448
##if	1449
inom	1450
sm	1451
fort	1452
hem	1453
vikt	1454
##äd	1455
möj	1456
gl	1457
##som	1458
hand	1459
led	1460
##sam	1461
of	1462
lag	1463
fin	1464
utveck	1465
människor	1466
for	1467
hög	1468
jo	1469
##åt	1470
##ativ	1471
sv	1472
fun	1473
sedan	1474
na	1475
##ult	1476
åt	1477
sina	1478
nya	1479
##ann	1480
##else	1481
varje	1482
verk	1483
samt	1484
di	1485
##mar	1486
##yn	1487
##ering	1488
slut	1489
th	1490
##ellan	1491
##stem	1492
våra	1493
##pl	1494
##upp	1495
##änder	1496
##kn	1497
##br	1498
säker	1499
##bil	1500
##akt	1501
##lj	1502
par	1503
##pt	1504
milj	1505
mellan	1506
ditt	1507
eg	1508
behöver	1509
##kl	1510
tjän	1511
gå	1512
euro	1513
dat	1514
##det	1515
lö	1516
ge	1517
några	1518
ing	1519
åter	1520
##erade	1521
##men	1522
per	1523
börj	1524
gud	1525
##yd	1526
##ionen	1527
hela	1528
##aren	1529
we	1530
##lika	1531
akt	1532
##enter	1533
##ingar	1534
läg	1535
##kr	1536
##lev	1537
olika	1538
läng	1539
gj	1540
##man	1541
tro	1542
deras	1543
dina	1544
kö	1545
pol	1546
##änd	1547
stör	1548
sen	1549
bä	1550
ans	1551
##ioner	1552
##alt	1553
väg	1554
fil	1555
sitt	1556
##jär	1557
säger	1558
##str	1559
dr	1560
enda	1561
lär	1562
##enska	1563
##ormation	1564
vän	1565
ingen	1566
##erar	1567
##ts	1568
mark	1569
##gång	1570
##sen	1571
##ygg	1572
##ba	1573
##bar	1574
so	1575
##io	1576
håll	1577
information	1578
##ott	1579
hitt	1580
##vär	1581
hans	1582
##ika	1583
blir	1584
art	1585
land	1586
inn	1587
förb	1588
##ie	1589
##äck	1590
bå	1591
##des	1592
ra	1593
##gram	1594
##iss	1595
grund	1596
samma	1597
##org	1598
hen	1599
skall	1600
tän	1601
ju	1602
##anska	1603
##av	1604
ba	1605
##ef	1606
ur	1607
tre	1608
intern	1609
proc	1610
går	1611
ne	1612
honom	1613
##ationer	1614
pa	1615
##atur	1616
fy	1617
alltid	1618
ja	1619
##ets	1620
on	1621
##lden	1622
följ	1623
##fatt	1624
tal	1625
ro	1626
rel	1627
varför	1628
).	1629
ind	1630
##ida	1631
vilket	1632
##ub	1633
##änner	1634
system	1635
helt	1636
##ang	1637
##par	1638
##kon	1639
spe	1640
svar	1641
lo	1642
##gan	1643
stud	1644
##pel	1645
program	1646
mitt	1647
världen	1648
200	1649
mat	1650
ger	1651
##ffekt	1652
va	1653
##äv	1654
sn	1655
kra	1656
sju	1657
ord	1658
##nas	1659
##uv	1660
plan	1661
komp	1662
best	1663
ly	1664
##skap	1665
the	1666
läm	1667
vin	1668
intr	1669
##gar	1670
lång	1671
dom	1672
##dom	1673
fall	1674
mål	1675
##amn	1676
##rekt	1677
bästa	1678
enligt	1679
områ	1680
fakt	1681
värld	1682
skriv	1683
van	1684
##kel	1685
##ske	1686
bo	1687
val	1688
kall	1689
##blem	1690
varit	1691
tekn	1692
##nader	1693
eftersom	1694
ant	1695
##skar	1696
speci	1697
##all	1698
##äller	1699
##ke	1700
##me	1701
använda	1702
##far	1703
bort	1704
##dan	1705
effekt	1706
##åller	1707
bätt	1708
kunna	1709
medlem	1710
id	1711
##jekt	1712
##verk	1713
erb	1714
webb	1715
bättre	1716
##ksam	1717
behand	1718
##erad	1719
##skil	1720
problem	1721
##olk	1722
##ellt	1723
##atten	1724
pen	1725
##tter	1726
organ	1727
fär	1728
10	1729
##orde	1730
lever	1731
mus	1732
##utom	1733
förl	1734
##ings	1735
hän	1736
##ål	1737
tar	1738
före	1739
lite	1740
pre	1741
ve	1742
sna	1743
ställ	1744
annan	1745
form	1746
off	1747
äl	1748
met	1749
##drig	1750
##min	1751
stad	1752
##igare	1753
hos	1754
kvinn	1755
##fr	1756
po	1757
##digt	1758
exem	1759
tra	1760
##pe	1761
kanske	1762
rikt	1763
aldrig	1764
artik	1765
##ägg	1766
##gifter	1767
igen	1768
full	1769
mest	1770
annat	1771
##istor	1772
flera	1773
öpp	1774
##ades	1775
forsk	1776
bok	1777
därför	1778
##ine	1779
##xt	1780
stora	1781
rå	1782
##ly	1783
idag	1784
fast	1785
##tera	1786
##pr	1787
##ingen	1788
##heten	1789
fam	1790
innan	1791
##gär	1792
##lut	1793
##igheter	1794
##vet	1795
tror	1796
kär	1797
part	1798
lig	1799
komma	1800
natur	1801
##uvud	1802
snabb	1803
ofta	1804
et	1805
exempel	1806
##ug	1807
mö	1808
ob	1809
syn	1810
##iva	1811
he	1812
häl	1813
stat	1814
##kv	1815
vissa	1816
and	1817
pla	1818
blev	1819
kro	1820
##ym	1821
gra	1822
##enskap	1823
##klar	1824
histor	1825
plats	1826
##ard	1827
##arbet	1828
tillba	1829
män	1830
##anden	1831
bland	1832
##ow	1833
##olog	1834
ner	1835
namn	1836
sh	1837
ad	1838
utveckling	1839
huvud	1840
gam	1841
saker	1842
kontro	1843
##jer	1844
la	1845
hör	1846
##gör	1847
tillbaka	1848
berätt	1849
##nar	1850
##rakt	1851
pris	1852
hjär	1853
##unt	1854
im	1855
red	1856
##unkt	1857
direkt	1858
##mans	1859
is	1860
##met	1861
stöd	1862
god	1863
verkligen	1864
kort	1865
co	1866
##naden	1867
sär	1868
##ånd	1869
bas	1870
hjälp	1871
##nes	1872
lik	1873
fick	1874
förän	1875
gäller	1876
hus	1877
star	1878
##nen	1879
##öka	1880
##ial	1881
go	1882
##konom	1883
möjlighet	1884
em	1885
##andet	1886
tur	1887
internation	1888
mina	1889
grupp	1890
##orna	1891
##äns	1892
sådan	1893
skyd	1894
både	1895
artikel	1896
##sten	1897
tim	1898
särskil	1899
##ote	1900
bygg	1901
##kte	1902
polit	1903
##ip	1904
##erat	1905
risk	1906
soci	1907
##rar	1908
##ib	1909
##ung	1910
förm	1911
##farande	1912
rör	1913
##iken	1914
dock	1915
##uc	1916
organis	1917
##ultat	1918
endast	1919
kar	1920
sjuk	1921
tag	1922
##jud	1923
kost	1924
lå	1925
##vent	1926
tidigare	1927
ekonom	1928
nation	1929
##atser	1930
##kor	1931
kunde	1932
kli	1933
beslut	1934
##ära	1935
kropp	1936
##elser	1937
produkter	1938
mind	1939
##ående	1940
bef	1941
##ob	1942
##tid	1943
familj	1944
fle	1945
##sammans	1946
app	1947
lätt	1948
ab	1949
##oner	1950
redan	1951
tillsammans	1952
##ition	1953
##ister	1954
rö	1955
personer	1956
resultat	1957
använder	1958
jobb	1959
aktiv	1960
konst	1961
##led	1962
vilka	1963
pres	1964
trans	1965
vatten	1966
lös	1967
kor	1968
ens	1969
cent	1970
amer	1971
##sst	1972
vårt	1973
hopp	1974
##anta	1975
##ument	1976
mindre	1977
##lägg	1978
si	1979
projekt	1980
sol	1981
data	1982
inkl	1983
##heter	1984
des	1985
webbpl	1986
vilken	1987
##bild	1988
##derna	1989
tiden	1990
fel	1991
usa	1992
funkt	1993
erbju	1994
flyg	1995
fortfarande	1996
utr	1997
##alitet	1998
##kade	1999
säga	2000
sid	2001
ele	2002
folk	2003
##amp	2004
fly	2005
int	2006
##ina	2007
gjort	2008
dö	2009
##cker	2010
fot	2011
enkel	2012
fe	2013
##ions	2014
her	2015
väldigt	2016
död	2017
##ivers	2018
låt	2019
##ycker	2020
##ationen	2021
##orn	2022
förstå	2023
egen	2024
##öker	2025
tjänster	2026
##ast	2027
verksam	2028
fortsätt	2029
ligger	2030
ener	2031
##istr	2032
##drar	2033
ansvar	2034
niv	2035
känner	2036
eng	2037
##hand	2038
##äff	2039
##sikt	2040
bestäm	2041
”.	2042
procent	2043
sex	2044
##iker	2045
fler	2046
ang	2047
##slut	2048
##äk	2049
##aste	2050
styr	2051
typ	2052
far	2053
svår	2054
pat	2055
##ler	2056
##stånd	2057
fem	2058
säkerhet	2059
##ive	2060
klar	2061
bel	2062
antal	2063
kvinnor	2064
vem	2065
15	2066
##nade	2067
väx	2068
##nu	2069
##nads	2070
pengar	2071
18	2072
ac	2073
jäm	2074
mä	2075
##rätt	2076
fråga	2077
##ynd	2078
ter	2079
univers	2080
hjälpa	2081
skapa	2082
##rott	2083
tack	2084
läs	2085
inneb	2086
skol	2087
000	2088
at	2089
##män	2090
längre	2091
största	2092
prof	2093
möjligt	2094
ban	2095
##häll	2096
länder	2097
just	2098
främ	2099
ung	2100
##jur	2101
dagar	2102
tillg	2103
behandling	2104
hitta	2105
##dera	2106
##takt	2107
näst	2108
ol	2109
hår	2110
europe	2111
bety	2112
läk	2113
##gon	2114
bild	2115
rum	2116
##tag	2117
räd	2118
12	2119
ned	2120
nät	2121
äg	2122
förbätt	2123
rapp	2124
dra	2125
to	2126
##sy	2127
##uk	2128
##ige	2129
pass	2130
förv	2131
##mär	2132
kommun	2133
##uter	2134
utbild	2135
veck	2136
##äder	2137
gener	2138
lika	2139
##går	2140
##lek	2141
##olag	2142
samhäll	2143
kontakt	2144
miljö	2145
utt	2146
lit	2147
hennes	2148
orsa	2149
##kommen	2150
mas	2151
san	2152
används	2153
nära	2154
arbete	2155
##ata	2156
##varande	2157
finans	2158
##ämp	2159
##älj	2160
gem	2161
),	2162
inget	2163
ännu	2164
lin	2165
henne	2166
".	2167
inve	2168
lu	2169
ry	2170
viktigt	2171
##anc	2172
europa	2173
##derar	2174
##ivt	2175
visar	2176
##las	2177
nästa	2178
nivå	2179
tillgäng	2180
allmän	2181
by	2182
nog	2183
##bart	2184
##föra	2185
kraft	2186
ön	2187
##håller	2188
##ivit	2189
älskar	2190
##ice	2191
åtgär	2192
##äpp	2193
livet	2194
##ligare	2195
runt	2196
sver	2197
el	2198
titt	2199
aff	2200
gjorde	2201
betal	2202
bed	2203
##orter	2204
större	2205
##form	2206
arbets	2207
nästan	2208
flesta	2209
energi	2210
##rum	2211
kvar	2212
avs	2213
skap	2214
själva	2215
ana	2216
mater	2217
und	2218
koll	2219
ib	2220
fi	2221
##son	2222
##idigt	2223
##ner	2224
tycker	2225
samarbet	2226
##kan	2227
##eter	2228
inter	2229
små	2230
##line	2231
ytter	2232
loka	2233
pub	2234
##iella	2235
börjar	2236
ih	2237
senaste	2238
tred	2239
##olut	2240
änd	2241
##net	2242
##ställa	2243
särskilt	2244
händer	2245
hålla	2246
com	2247
##amma	2248
##edel	2249
kat	2250
post	2251
##port	2252
förändr	2253
su	2254
sak	2255
##vs	2256
##ider	2257
##äst	2258
amerik	2259
##orer	2260
##lic	2261
besk	2262
samman	2263
kons	2264
##ity	2265
30	2266
frågor	2267
nytt	2268
webbplats	2269
##giv	2270
dagen	2271
uppf	2272
mon	2273
tan	2274
viktiga	2275
gill	2276
innebär	2277
am	2278
kör	2279
medan	2280
ca	2281
##itu	2282
skydd	2283
köp	2284
##ori	2285
##jus	2286
enkelt	2287
inför	2288
##ift	2289
##bo	2290
##cis	2291
##hör	2292
##cke	2293
desig	2294
##ultur	2295
delar	2296
##slag	2297
mis	2298
nöd	2299
båda	2300
bid	2301
##ha	2302
##ct	2303
fri	2304
##andel	2305
inst	2306
##icka	2307
##ternativ	2308
##otell	2309
##uella	2310
sc	2311
uppgifter	2312
affär	2313
##ren	2314
tillgång	2315
##tar	2316
senare	2317
spr	2318
innehåll	2319
11	2320
klass	2321
alternativ	2322
sj	2323
står	2324
behov	2325
mynd	2326
##oende	2327
pos	2328
fyra	2329
påver	2330
online	2331
fått	2332
hotell	2333
blivit	2334
erbjuder	2335
gu	2336
##one	2337
steg	2338
spela	2339
##ital	2340
precis	2341
icke	2342
##räck	2343
samtidigt	2344
ögon	2345
medlemsst	2346
##ism	2347
##sättning	2348
##tro	2349
begr	2350
ren	2351
##örer	2352
##fer	2353
##iet	2354
.”	2355
##int	2356
bud	2357
mag	2358
dessutom	2359
##jut	2360
##est	2361
##andra	2362
ibland	2363
öka	2364
länge	2365
via	2366
##essen	2367
rad	2368
omfatt	2369
erf	2370
##ind	2371
ljus	2372
material	2373
inga	2374
tem	2375
bor	2376
funger	2377
öv	2378
kultur	2379
miss	2380
##elsen	2381
tog	2382
##fin	2383
sverige	2384
tredje	2385
##ral	2386
tel	2387
kap	2388
hal	2389
##eln	2390
glob	2391
sjukdom	2392
##väg	2393
såg	2394
gar	2395
gre	2396
europeiska	2397
gick	2398
##äkt	2399
skill	2400
hy	2401
##ate	2402
miljoner	2403
##ften	2404
##pekt	2405
##van	2406
##ständ	2407
kommiss	2408
mil	2409
häls	2410
##ativa	2411
förlor	2412
##ös	2413
##pen	2414
gånger	2415
##rat	2416
rekommen	2417
disk	2418
punkt	2419
kunder	2420
##full	2421
reger	2422
började	2423
faktiskt	2424
förhåll	2425
##inna	2426
do	2427
jord	2428
framtid	2429
djur	2430
100	2431
##bin	2432
##sett	2433
följande	2434
##råk	2435
kvalitet	2436
stort	2437
invester	2438
##raf	2439
##ny	2440
håller	2441
sky	2442
ål	2443
##ligtvis	2444
##fekt	2445
mode	2446
byg	2447
sade	2448
bu	2449
avtal	2450
##dern	2451
emot	2452
bolag	2453
uppt	2454
nödvän	2455
199	2456
analy	2457
son	2458
##ari	2459
näm	2460
##nitt	2461
träff	2462
arbetar	2463
ytterligare	2464
##iner	2465
intres	2466
driv	2467
##lla	2468
test	2469
veta	2470
lära	2471
##okus	2472
medic	2473
16	2474
nå	2475
trän	2476
bilder	2477
visa	2478
##ond	2479
hoppas	2480
värde	2481
gången	2482
verksamhet	2483
fokus	2484
blod	2485
mär	2486
ident	2487
##kän	2488
##tra	2489
föräl	2490
marknads	2491
##bara	2492
##så	2493
mänsk	2494
erfaren	2495
##vä	2496
##usive	2497
##fär	2498
pop	2499
start	2500
##atis	2501
förklar	2502
sådana	2503
timmar	2504
fann	2505
kontroller	2506
låg	2507
##itut	2508
unders	2509
beskriv	2510
vänner	2511
17	2512
sch	2513
13	2514
tillämp	2515
köpa	2516
##ry	2517
##hol	2518
månader	2519
sym	2520
sidan	2521
##satt	2522
kräv	2523
skad	2524
##ations	2525
jes	2526
krist	2527
förbättra	2528
kontroll	2529
svårt	2530
handlar	2531
egna	2532
##ian	2533
##ament	2534
framgång	2535
25	2536
##syn	2537
handel	2538
indust	2539
##mat	2540
råd	2541
##delse	2542
##hus	2543
liten	2544
områden	2545
snabbt	2546
varandra	2547
mor	2548
äm	2549
inklusive	2550
vidare	2551
året	2552
priv	2553
krä	2554
ir	2555
begräns	2556
välja	2557
##asin	2558
##fäll	2559
förvän	2560
åtgärder	2561
guds	2562
gamla	2563
fanta	2564
roll	2565
erna	2566
new	2567
cy	2568
##ph	2569
tillräck	2570
hjälper	2571
världens	2572
##kra	2573
börja	2574
fantast	2575
##ession	2576
teknik	2577
50	2578
##co	2579
krig	2580
14	2581
##nat	2582
##rev	2583
musik	2584
gillar	2585
perfekt	2586
riktigt	2587
##drag	2588
innehåller	2589
hot	2590
##delar	2591
användning	2592
träd	2593
##ike	2594
serv	2595
##kring	2596
medlemsstat	2597
film	2598
blog	2599
##spr	2600
ins	2601
alltså	2602
besök	2603
internet	2604
internationella	2605
borde	2606
##ckt	2607
fys	2608
sett	2609
mäng	2610
slag	2611
##sin	2612
forskning	2613
##med	2614
sista	2615
vide	2616
##lick	2617
området	2618
ben	2619
my	2620
registr	2621
trots	2622
##strukt	2623
ute	2624
kur	2625
##fall	2626
kärlek	2627
fungerar	2628
talet	2629
kol	2630
tot	2631
##inner	2632
produc	2633
sö	2634
insp	2635
prin	2636
cir	2637
början	2638
##nande	2639
##vid	2640
con	2641
it	2642
kyr	2643
ändra	2644
hun	2645
minst	2646
minuter	2647
upplev	2648
känna	2649
defin	2650
medel	2651
marknaden	2652
##orgon	2653
långt	2654
känn	2655
inb	2656
tor	2657
helst	2658
sök	2659
aktivitet	2660
elekt	2661
resa	2662
”,	2663
minska	2664
dy	2665
vetenskap	2666
villkor	2667
."	2668
situ	2669
vers	2670
spar	2671
offent	2672
##lja	2673
oav	2674
##by	2675
anställ	2676
##ux	2677
fred	2678
stand	2679
joh	2680
bö	2681
förut	2682
betyder	2683
tillfäll	2684
kopp	2685
##ember	2686
##ium	2687
##up	2688
beg	2689
##medel	2690
as	2691
",	2692
##alen	2693
##ten	2694
jämför	2695
##iter	2696
gemens	2697
##lag	2698
##öst	2699
livs	2700
års	2701
släpp	2702
##iera	2703
staden	2704
exper	2705
mobil	2706
port	2707
##dar	2708
##ansk	2709
##kning	2710
integr	2711
kunskap	2712
##rikt	2713
ag	2714
framför	2715
##ifier	2716
förord	2717
teck	2718
trad	2719
design	2720
sag	2721
föd	2722
tyd	2723
fören	2724
mör	2725
verkar	2726
lev	2727
landet	2728
historia	2729
läsa	2730
verkt	2731
##ator	2732
hund	2733
användas	2734
##borg	2735
nor	2736
tänk	2737
posit	2738
popul	2739
rom	2740
insta	2741
utman	2742
haft	2743
spelare	2744
glöm	2745
dröm	2746
företaget	2747
äld	2748
vägen	2749
hemma	2750
högre	2751
ko	2752
spelar	2753
käll	2754
föres	2755
inv	2756
dok	2757
##anter	2758
färg	2759
maj	2760
ganska	2761
##förs	2762
##kur	2763
förmåg	2764
papp	2765
no	2766
os	2767
##for	2768
idé	2769
##handa	2770
hjärt	2771
ev	2772
norm	2773
kombin	2774
era	2775
##ident	2776
##ograf	2777
såsom	2778
sociala	2779
indiv	2780
fanns	2781
mask	2782
nord	2783
ändå	2784
oper	2785
##kas	2786
tillhanda	2787
språk	2788
medvet	2789
anled	2790
##cept	2791
myndighet	2792
författ	2793
specif	2794
##sprung	2795
ursprung	2796
frågan	2797
komple	2798
jesus	2799
log	2800
public	2801
någonsin	2802
kväll	2803
sida	2804
##ds	2805
ville	2806
##lingar	2807
kam	2808
##ay	2809
##ue	2810
systemet	2811
medicin	2812
bit	2813
iställ	2814
verktyg	2815
fo	2816
istället	2817
skicka	2818
oavsett	2819
lämna	2820
enlighet	2821
bi	2822
lycka	2823
makt	2824
utbildning	2825
lad	2826
meddel	2827
##ons	2828
##efon	2829
kallas	2830
elektr	2831
##komst	2832
känsl	2833
mic	2834
arbeta	2835
kn	2836
##ännande	2837
bib	2838
undv	2839
pe	2840
yo	2841
extra	2842
ed	2843
mass	2844
fatt	2845
utveckl	2846
snart	2847
kommissionen	2848
ovan	2849
brott	2850
##its	2851
##stol	2852
kamp	2853
##uari	2854
uppfy	2855
##staur	2856
utanför	2857
##rael	2858
vilja	2859
ske	2860
amerikanska	2861
restaur	2862
israel	2863
kräver	2864
##enhet	2865
utveckla	2866
##öv	2867
uppn	2868
##fte	2869
försöker	2870
##växt	2871
##illa	2872
rättigheter	2873
##ält	2874
##emang	2875
lyck	2876
upptä	2877
##ring	2878
lyss	2879
uppd	2880
##gift	2881
ton	2882
##bl	2883
ifr	2884
ste	2885
##sm	2886
##yl	2887
användare	2888
bäst	2889
förh	2890
käns	2891
höj	2892
platser	2893
goog	2894
lägga	2895
öppna	2896
utom	2897
ram	2898
tillräckligt	2899
event	2900
##fri	2901
##rift	2902
respekt	2903
konkur	2904
krävs	2905
innov	2906
dör	2907
##tte	2908
försälj	2909
##ferens	2910
följa	2911
tänka	2912
##ologi	2913
tills	2914
gratis	2915
beroende	2916
##ienter	2917
meto	2918
äta	2919
imp	2920
##ubb	2921
##lik	2922
##sb	2923
##omen	2924
prakt	2925
##lament	2926
##ars	2927
##ärt	2928
bru	2929
redo	2930
pot	2931
färd	2932
##ummer	2933
läkem	2934
##vara	2935
erbjud	2936
heller	2937
##ge	2938
fisk	2939
mamma	2940
social	2941
universitet	2942
institut	2943
sän	2944
tänker	2945
##ng	2946
lämp	2947
regel	2948
slutet	2949
vanliga	2950
bal	2951
##tem	2952
##age	2953
anslut	2954
område	2955
##ump	2956
älska	2957
##ork	2958
rapporter	2959
##ite	2960
dec	2961
uppnå	2962
dokument	2963
##uppgifter	2964
rev	2965
dist	2966
##mera	2967
##ko	2968
##orden	2969
sta	2970
kund	2971
leva	2972
abs	2973
##val	2974
åren	2975
match	2976
skriva	2977
anp	2978
tillverk	2979
morgon	2980
fran	2981
##ösa	2982
##ert	2983
text	2984
##vor	2985
##igh	2986
skriver	2987
dju	2988
service	2989
stan	2990
exp	2991
låter	2992
##rån	2993
vecka	2994
jorden	2995
24	2996
glad	2997
bek	2998
bevis	2999
chef	3000
tillväxt	3001
egent	3002
leverant	3003
inklu	3004
opt	3005
##kta	3006
##ivet	3007
begär	3008
##dagen	3009
hälsa	3010
län	3011
##ns	3012
grän	3013
##äs	3014
##unda	3015
frukt	3016
övr	3017
allvar	3018
typer	3019
dela	3020
säkerhets	3021
konc	3022
autom	3023
gär	3024
##ies	3025
##ore	3026
genomför	3027
intress	3028
utrust	3029
fortsätter	3030
kommit	3031
krav	3032
effektiv	3033
räk	3034
deltag	3035
ph	3036
ring	3037
##uld	3038
kal	3039
##stad	3040
stäng	3041
sagt	3042
ford	3043
fortsätta	3044
ihåg	3045
mu	3046
##kla	3047
titta	3048
erfarenhet	3049
##hålla	3050
kommunik	3051
##lin	3052
##ifrån	3053
hittar	3054
funktion	3055
!!	3056
skr	3057
programmet	3058
ass	3059
enhet	3060
jan	3061
platt	3062
bry	3063
relig	3064
telefon	3065
njut	3066
##ting	3067
tradition	3068
##get	3069
kroppen	3070
ho	3071
svenska	3072
klimat	3073
terr	3074
president	3075
skär	3076
viktig	3077
car	3078
gamm	3079
engel	3080
tjänst	3081
psy	3082
vol	3083
stu	3084
gav	3085
isl	3086
mots	3087
sem	3088
##ev	3089
##unn	3090
rik	3091
polis	3092
special	3093
40	3094
##isera	3095
hanter	3096
utför	3097
lösningar	3098
ålder	3099
google	3100
##ämt	3101
nde	3102
het	3103
säl	3104
##äcker	3105
tom	3106
regl	3107
vux	3108
stol	3109
##ancer	3110
nej	3111
rädd	3112
him	3113
bakom	3114
gol	3115
sommar	3116
eget	3117
##ps	3118
##ey	3119
följer	3120
##öt	3121
##napp	3122
hud	3123
bak	3124
ekonomiska	3125
oro	3126
princi	3127
förslag	3128
fas	3129
repr	3130
egentligen	3131
mod	3132
topp	3133
förber	3134
tillstånd	3135
förstår	3136
##rod	3137
##knar	3138
##ton	3139
##band	3140
patienter	3141
säkert	3142
kvinna	3143
väljer	3144
läkare	3145
##unden	3146
rådet	3147
##eder	3148
##okrat	3149
##isering	3150
avslut	3151
bygga	3152
fol	3153
##iod	3154
behövs	3155
##ester	3156
##als	3157
domstol	3158
boken	3159
bad	3160
##punkt	3161
studenter	3162
kapital	3163
##föring	3164
liknande	3165
##otter	3166
potent	3167
förvänt	3168
läkemedel	3169
böcker	3170
ändr	3171
gott	3172
##ys	3173
nationella	3174
sann	3175
dro	3176
##ips	3177
admin	3178
kostnader	3179
##seende	3180
##samma	3181
antalet	3182
wh	3183
våld	3184
goda	3185
##aga	3186
regler	3187
undersök	3188
##ide	3189
##indra	3190
betala	3191
misst	3192
industri	3193
##stå	3194
198	3195
mån	3196
halv	3197
##dant	3198
bro	3199
casin	3200
förändra	3201
förordning	3202
äldre	3203
##ras	3204
försv	3205
prest	3206
detal	3207
konto	3208
gått	3209
##likt	3210
stark	3211
repres	3212
känns	3213
plac	3214
flygpl	3215
röst	3216
bill	3217
ande	3218
skolan	3219
utmär	3220
månad	3221
ark	3222
chans	3223
kina	3224
inspir	3225
dan	3226
##rag	3227
studier	3228
möjligheter	3229
cl	3230
##mare	3231
berätta	3232
veckan	3233
luft	3234
bär	3235
dator	3236
ga	3237
bete	3238
speciellt	3239
lokala	3240
team	3241
personuppgifter	3242
administr	3243
klart	3244
lokal	3245
##iz	3246
strukt	3247
##cep	3248
##edit	3249
##efär	3250
##ölj	3251
rapport	3252
struktur	3253
strat	3254
ungefär	3255
dis	3256
gro	3257
hum	3258
skapar	3259
tillgängliga	3260
##skr	3261
dags	3262
tio	3263
##lade	3264
prov	3265
21	3266
##dde	3267
stjär	3268
säson	3269
veckor	3270
bred	3271
studie	3272
##kvens	3273
but	3274
##mande	3275
analys	3276
uppmär	3277
flytt	3278
uppmärksam	3279
knapp	3280
##ningarna	3281
##ollar	3282
standard	3283
##ak	3284
##bol	3285
utgör	3286
spelet	3287
syfte	3288
##uell	3289
finnas	3290
kem	3291
##ionens	3292
känd	3293
let	3294
vir	3295
##atter	3296
politiska	3297
betyd	3298
ljud	3299
omkring	3300
syft	3301
nöj	3302
##ific	3303
##lad	3304
resur	3305
framtiden	3306
cirka	3307
##fa	3308
viss	3309
sluta	3310
ifrån	3311
sal	3312
fördelar	3313
##delser	3314
bestämm	3315
medlemsstaterna	3316
lån	3317
pal	3318
täv	3319
funktioner	3320
tje	3321
##ansch	3322
##be	3323
bon	3324
john	3325
##arder	3326
stö	3327
närheten	3328
presenter	3329
strateg	3330
##stift	3331
fre	3332
##spel	3333
sim	3334
##äss	3335
liksom	3336
##atar	3337
stra	3338
tysk	3339
##stans	3340
delen	3341
mars	3342
kring	3343
affärs	3344
säkerställa	3345
##iti	3346
arbetet	3347
hantera	3348
högsta	3349
##ret	3350
##väl	3351
konf	3352
##book	3353
föräldrar	3354
##gå	3355
tillver	3356
##klart	3357
##ligheten	3358
max	3359
samarbete	3360
##juk	3361
människa	3362
sätta	3363
skydda	3364
igenom	3365
kin	3366
face	3367
försök	3368
video	3369
utl	3370
exakt	3371
##bel	3372
##ont	3373
medborg	3374
krit	3375
##uss	3376
förra	3377
##bruk	3378
##ställning	3379
accep	3380
välj	3381
skillnad	3382
gammal	3383
##över	3384
##enting	3385
##ttag	3386
offic	3387
blogg	3388
ap	3389
tit	3390
##diga	3391
##läggande	3392
##nam	3393
##iteten	3394
viktigaste	3395
##rin	3396
sättet	3397
hållbar	3398
huset	3399
ingenting	3400
namnet	3401
profession	3402
individ	3403
jun	3404
##mun	3405
reser	3406
skyld	3407
tas	3408
uttr	3409
super	3410
##so	3411
##repp	3412
sport	3413
sov	3414
##fråg	3415
kul	3416
wind	3417
##fik	3418
sekt	3419
leda	3420
bank	3421
kron	3422
försöka	3423
grundläggande	3424
ras	3425
##itter	3426
60	3427
##riär	3428
barnen	3429
dollar	3430
##cc	3431
tagit	3432
mänskliga	3433
uppdater	3434
skön	3435
##istan	3436
ej	3437
##ckte	3438
bransch	3439
psyk	3440
komment	3441
bedöm	3442
förmåga	3443
lön	3444
intresse	3445
##her	3446
upple	3447
personal	3448
2018	3449
jur	3450
vack	3451
milit	3452
od	3453
##anger	3454
us	3455
prata	3456
påverkar	3457
##ämpa	3458
sådant	3459
stock	3460
##spl	3461
sub	3462
lägg	3463
engag	3464
##pan	3465
vinna	3466
organisation	3467
fjär	3468
jud	3469
rätts	3470
leder	3471
mid	3472
stopp	3473
kredit	3474
nr	3475
utvecklingen	3476
hjärta	3477
central	3478
filmen	3479
prote	3480
brö	3481
låta	3482
söker	3483
glas	3484
bost	3485
sön	3486
uppen	3487
plattform	3488
säll	3489
##len	3490
##anda	3491
favor	3492
medlemmar	3493
skäl	3494
nätverk	3495
tw	3496
samband	3497
behöva	3498
##lands	3499
##larna	3500
stället	3501
nödvändigt	3502
##ong	3503
##terna	3504
enheter	3505
anställda	3506
da	3507
skick	3508
vit	3509
rep	3510
lagstift	3511
##ash	3512
visste	3513
blå	3514
demokrat	3515
2015	3516
bre	3517
försä	3518
##ativt	3519
##verkan	3520
samhället	3521
##iell	3522
undvika	3523
##kes	3524
##krä	3525
förändringar	3526
##ment	3527
197	3528
ital	3529
favorit	3530
tillhör	3531
konkurr	3532
gärna	3533
relater	3534
karakt	3535
##nytt	3536
##dig	3537
förf	3538
park	3539
anpass	3540
##ins	3541
förutom	3542
sten	3543
politik	3544
transport	3545
natt	3546
upprätt	3547
fyll	3548
22	3549
##tion	3550
unga	3551
forskare	3552
intresser	3553
are	3554
nummer	3555
2016	3556
##ows	3557
tala	3558
##uellt	3559
##står	3560
sker	3561
bekv	3562
vård	3563
##ät	3564
##istiska	3565
består	3566
cancer	3567
kolla	3568
gäll	3569
kill	3570
nyck	3571
wor	3572
bekrä	3573
mängd	3574
neg	3575
tus	3576
berg	3577
förvalt	3578
##ierna	3579
fullt	3580
aut	3581
##ek	3582
omedel	3583
##tes	3584
muse	3585
tids	3586
höga	3587
ihop	3588
engelska	3589
ten	3590
ensam	3591
uppska	3592
2017	3593
kontor	3594
modell	3595
yr	3596
enskil	3597
höra	3598
erbjuda	3599
skog	3600
lösa	3601
finansier	3602
grupper	3603
privat	3604
vackra	3605
priset	3606
regeringen	3607
es	3608
##iens	3609
ryss	3610
framgångs	3611
tips	3612
##emål	3613
berör	3614
lug	3615
närvarande	3616
ansök	3617
relev	3618
världs	3619
anges	3620
kontrollera	3621
ersätt	3622
högt	3623
national	3624
juni	3625
ham	3626
uppdrag	3627
##ension	3628
ansikt	3629
partner	3630
facebook	3631
överva	3632
drabb	3633
##holm	3634
ii	3635
stå	3636
##assa	3637
kommentar	3638
##ett	3639
varum	3640
hems	3641
varumär	3642
vitt	3643
nuvarande	3644
mal	3645
underhåll	3646
karriär	3647
absolut	3648
fart	3649
##nan	3650
##sak	3651
blom	3652
obser	3653
windows	3654
##ban	3655
beräk	3656
af	3657
tol	3658
trö	3659
modern	3660
process	3661
förekom	3662
befolk	3663
livsmedel	3664
december	3665
våg	3666
utform	3667
jul	3668
nedan	3669
sw	3670
##lunda	3671
##rik	3672
##bud	3673
sek	3674
motiv	3675
spår	3676
objekt	3677
dubb	3678
behör	3679
avgör	3680
##ffe	3681
dagens	3682
bilden	3683
ledande	3684
organisationer	3685
enkla	3686
direktiv	3687
tekniska	3688
lösning	3689
##cy	3690
webbplatsen	3691
bestämmelser	3692
##ient	3693
vare	3694
arna	3695
grön	3696
motor	3697
lista	3698
familjen	3699
förvär	3700
2014	3701
fastställ	3702
installer	3703
##efter	3704
kateg	3705
tecken	3706
anlägg	3707
##rade	3708
##visa	3709
juli	3710
antingen	3711
ok	3712
##edd	3713
visas	3714
qu	3715
sälj	3716
##agn	3717
2013	3718
##ald	3719
##itann	3720
period	3721
metoder	3722
alls	3723
storbr	3724
rym	3725
##lit	3726
inlägg	3727
sma	3728
ständ	3729
##system	3730
förhållande	3731
automat	3732
lagen	3733
##olution	3734
förändring	3735
stockholm	3736
##antag	3737
processen	3738
vanligtvis	3739
gemenskap	3740
flick	3741
ret	3742
arm	3743
ledare	3744
ök	3745
skada	3746
ep	3747
mol	3748
utnytt	3749
##atsen	3750
region	3751
bus	3752
##amm	3753
avsnitt	3754
ökar	3755
##kret	3756
maskin	3757
storbritann	3758
##inga	3759
##ids	3760
författare	3761
web	3762
lilla	3763
##of	3764
##ish	3765
brist	3766
##trem	3767
196	3768
talar	3769
önskar	3770
aktiviteter	3771
nov	3772
produktion	3773
##förande	3774
##rib	3775
någonting	3776
deb	3777
stil	3778
adr	3779
sep	3780
problemet	3781
säkra	3782
##inal	3783
försö	3784
##allt	3785
fullständ	3786
kre	3787
pan	3788
extrem	3789
ning	3790
##jen	3791
vart	3792
budget	3793
karaktär	3794
##tida	3795
förr	3796
##visning	3797
smart	3798
scen	3799
don	3800
dotter	3801
york	3802
##mark	3803
poj	3804
23	3805
målet	3806
grad	3807
rädda	3808
ide	3809
##teck	3810
döda	3811
fördel	3812
job	3813
vacker	3814
forsknings	3815
herren	3816
septem	3817
##bör	3818
##én	3819
tryck	3820
september	3821
bla	3822
civ	3823
##kort	3824
menar	3825
förstör	3826
gemensam	3827
eta	3828
resultatet	3829
bur	3830
jätt	3831
##åra	3832
atta	3833
faktum	3834
global	3835
prem	3836
beror	3837
lond	3838
##skott	3839
därmed	3840
personliga	3841
kommunikation	3842
januari	3843
häst	3844
överens	3845
klicka	3846
centrum	3847
konsum	3848
bidrag	3849
civil	3850
##snitt	3851
##ställningar	3852
perio	3853
lyssna	3854
mi	3855
ingår	3856
trädgår	3857
hom	3858
vatt	3859
##boll	3860
##aler	3861
##uta	3862
vänta	3863
konse	3864
marknad	3865
globala	3866
##ners	3867
stre	3868
mottag	3869
skå	3870
därefter	3871
fordon	3872
##rip	3873
användar	3874
gruppen	3875
fest	3876
kontakta	3877
hälso	3878
utrustning	3879
center	3880
projektet	3881
ce	3882
dans	3883
##stående	3884
klubb	3885
vänt	3886
micro	3887
##äster	3888
kompet	3889
häm	3890
ru	3891
anser	3892
ström	3893
elektron	3894
ytt	3895
chr	3896
trodde	3897
casino	3898
visade	3899
##ändska	3900
dav	3901
##under	3902
##ifiera	3903
drag	3904
tillå	3905
skilj	3906
##enta	3907
00	3908
sinn	3909
##läg	3910
föreg	3911
trä	3912
balans	3913
övriga	3914
##undet	3915
handling	3916
##ffa	3917
lägger	3918
##za	3919
behöv	3920
gläd	3921
stäm	3922
kval	3923
##strument	3924
##skra	3925
hamn	3926
##ipp	3927
##erande	3928
tillåt	3929
skrev	3930
kung	3931
500	3932
mannen	3933
cook	3934
förhållanden	3935
heter	3936
otro	3937
##stone	3938
ämnen	3939
regelb	3940
sannol	3941
can	3942
arg	3943
njuta	3944
27	3945
intell	3946
ordet	3947
webbplatser	3948
fång	3949
utvär	3950
char	3951
##ategi	3952
air	3953
##xa	3954
##qu	3955
ober	3956
sla	3957
##20	3958
rec	3959
återvän	3960
gemensamma	3961
folket	3962
vars	3963
kyrkan	3964
fält	3965
okt	3966
##...	3967
##stra	3968
##terar	3969
kry	3970
genomsnitt	3971
kända	3972
stress	3973
2010	3974
bön	3975
mång	3976
delta	3977
elever	3978
tillgänglig	3979
anledning	3980
slå	3981
amb	3982
lic	3983
##let	3984
##yt	3985
##ätta	3986
häng	3987
##öts	3988
anses	3989
aust	3990
berättar	3991
ungdom	3992
försvar	3993
km	3994
lämnar	3995
naturligtvis	3996
##res	3997
##ober	3998
konvent	3999
värd	4000
korrekt	4001
främst	4002
28	4003
skra	4004
datum	4005
musk	4006
london	4007
fortsatt	4008
26	4009
vanligt	4010
effektivt	4011
påverka	4012
nämn	4013
levande	4014
godk	4015
?"	4016
band	4017
##nor	4018
jack	4019
populära	4020
##orlunda	4021
anm	4022
havet	4023
britt	4024
lärare	4025
##parlament	4026
europaparlament	4027
undantag	4028
uppskatt	4029
col	4030
ig	4031
##när	4032
paket	4033
##minstone	4034
fäng	4035
##emot	4036
fön	4037
kläder	4038
utrym	4039
cert	4040
##edda	4041
båt	4042
mult	4043
tyvär	4044
2012	4045
åtminstone	4046
ot	4047
##istik	4048
strategi	4049
godkän	4050
nivåer	4051
definit	4052
storbritannien	4053
##ena	4054
server	4055
stabil	4056
lans	4057
äter	4058
##iver	4059
spännande	4060
kände	4061
oberoende	4062
?”	4063
ill	4064
##ppar	4065
press	4066
tyvärr	4067
##ikro	4068
spen	4069
miljarder	4070
tyskland	4071
:)	4072
##ama	4073
kapa	4074
uttal	4075
avses	4076
frihet	4077
op	4078
finland	4079
oktober	4080
36	4081
apr	4082
##gera	4083
##jö	4084
##vik	4085
##igen	4086
##els	4087
utfor	4088
##enskaper	4089
poäng	4090
känsla	4091
bord	4092
##ca	4093
##fl	4094
dest	4095
uppfatt	4096
reakt	4097
mät	4098
upph	4099
baserat	4100
omfattande	4101
ak	4102
fn	4103
##ure	4104
visst	4105
försäljning	4106
sång	4107
söm	4108
##ilt	4109
samtliga	4110
fantastiska	4111
resten	4112
handels	4113
resurser	4114
ges	4115
##liggör	4116
önsk	4117
tidigt	4118
block	4119
infl	4120
sälja	4121
70	4122
##bas	4123
förhand	4124
inre	4125
net	4126
out	4127
varm	4128
behåll	4129
##dags	4130
förmod	4131
stär	4132
##urg	4133
digit	4134
version	4135
offentliga	4136
ryssland	4137
ek	4138
avsl	4139
bekräft	4140
sat	4141
##enden	4142
tab	4143
fallet	4144
finansiella	4145
åka	4146
##esser	4147
##peratur	4148
annorlunda	4149
##klag	4150
##ologiska	4151
tankar	4152
##ham	4153
##amål	4154
##icy	4155
ändamål	4156
hin	4157
##ystem	4158
frankr	4159
asp	4160
vita	4161
digital	4162
produkten	4163
2011	4164
university	4165
##bygg	4166
##lement	4167
gravid	4168
ip	4169
##ara	4170
höll	4171
##ustr	4172
risken	4173
fotograf	4174
##tet	4175
##bord	4176
enbart	4177
nyligen	4178
bygger	4179
inled	4180
övert	4181
trå	4182
träning	4183
förhindra	4184
islam	4185
david	4186
avslöj	4187
guld	4188
föremål	4189
samtal	4190
kommande	4191
lägre	4192
##iellt	4193
tänkte	4194
80	4195
##ho	4196
fört	4197
##idan	4198
##skning	4199
alko	4200
företags	4201
sitter	4202
djup	4203
35	4204
gas	4205
sur	4206
planet	4207
sidor	4208
sanningen	4209
inkluderar	4210
litet	4211
trafik	4212
hård	4213
semester	4214
alkohol	4215
##ycka	4216
föred	4217
syd	4218
moderna	4219
särskilda	4220
##givare	4221
utmärkt	4222
licens	4223
uts	4224
fungera	4225
exempelvis	4226
patient	4227
jämfört	4228
vuxna	4229
90	4230
tåg	4231
vinn	4232
##ach	4233
##ark	4234
##ona	4235
besö	4236
fotboll	4237
bekväm	4238
april	4239
##deras	4240
besöka	4241
infekt	4242
långa	4243
##oritet	4244
##släpp	4245
barnet	4246
solen	4247
bidra	4248
separ	4249
bilen	4250
filmer	4251
leverantör	4252
hit	4253
je	4254
söka	4255
##blick	4256
##fulla	4257
restauranger	4258
bilar	4259
##öna	4260
meter	4261
baserade	4262
detalj	4263
rut	4264
##satta	4265
konstnär	4266
ul	4267
##äcka	4268
##fe	4269
ställa	4270
internationell	4271
allmänna	4272
bolaget	4273
mun	4274
serie	4275
ekonomi	4276
identifier	4277
pappa	4278
##mor	4279
alb	4280
kärn	4281
betydelse	4282
instrument	4283
##orge	4284
##amin	4285
växt	4286
spara	4287
intressant	4288
konferens	4289
värme	4290
mac	4291
missl	4292
brukar	4293
kompetens	4294
beakt	4295
välkom	4296
klin	4297
##ea	4298
##kul	4299
##nal	4300
exist	4301
verkliga	4302
##spro	4303
jobbet	4304
kön	4305
##orier	4306
visat	4307
rätten	4308
snabbare	4309
kampan	4310
november	4311
vänster	4312
siff	4313
grek	4314
uttryck	4315
recept	4316
däremot	4317
2019	4318
musli	4319
natten	4320
##jan	4321
##amen	4322
##ica	4323
självklart	4324
känslor	4325
kines	4326
vapen	4327
flykt	4328
sant	4329
##lös	4330
##cel	4331
göras	4332
leverans	4333
specifika	4334
distrib	4335
övertyg	4336
##bolag	4337
görs	4338
##ygga	4339
reda	4340
##phone	4341
ent	4342
media	4343
antag	4344
centra	4345
##bru	4346
partners	4347
omedelbart	4348
etabl	4349
kop	4350
stod	4351
varor	4352
egenskaper	4353
borta	4354
oftast	4355
sjun	4356
förmodligen	4357
matt	4358
famil	4359
myndigheter	4360
lov	4361
##end	4362
sty	4363
uppgift	4364
2008	4365
öppen	4366
historien	4367
##färd	4368
batter	4369
##enn	4370
gräns	4371
leg	4372
storlek	4373
platsen	4374
flex	4375
svart	4376
2009	4377
bonus	4378
läge	4379
nämligen	4380
dog	4381
##sch	4382
framtida	4383
rob	4384
flytta	4385
hjärtat	4386
gränser	4387
avseende	4388
personen	4389
dit	4390
ts	4391
##gra	4392
##ement	4393
kaffe	4394
snar	4395
massa	4396
idéer	4397
häv	4398
sätter	4399
##erades	4400
bio	4401
tjäna	4402
sil	4403
serien	4404
jour	4405
starka	4406
anmäl	4407
avanc	4408
pri	4409
händelser	4410
buss	4411
##ern	4412
##ifik	4413
belopp	4414
interv	4415
tävling	4416
ke	4417
medier	4418
utsikt	4419
motstånd	4420
människan	4421
smär	4422
utvecklas	4423
gett	4424
köper	4425
passar	4426
giv	4427
städer	4428
profil	4429
sjö	4430
temperatur	4431
31	4432
uppman	4433
kompon	4434
starkt	4435
symbol	4436
upplevelse	4437
bakgr	4438
##hav	4439
##värd	4440
jär	4441
mikro	4442
frågade	4443
ständigt	4444
frankrike	4445
dri	4446
##ya	4447
##ills	4448
live	4449
möjliga	4450
väntar	4451
metod	4452
##we	4453
##asser	4454
skatt	4455
span	4456
lek	4457
känt	4458
trev	4459
växer	4460
sjukdomar	4461
trygg	4462
miljön	4463
sjukhus	4464
växa	4465
##itekt	4466
##pol	4467
##he	4468
##garna	4469
real	4470
##use	4471
manag	4472
lagar	4473
möte	4474
hört	4475
totalt	4476
hä	4477
sven	4478
##dering	4479
huvudsak	4480
stanna	4481
närmare	4482
perspekt	4483
international	4484
tanke	4485
world	4486
##etr	4487
ena	4488
initi	4489
hast	4490
hall	4491
annars	4492
terror	4493
modeller	4494
industrin	4495
järn	4496
akade	4497
tu	4498
##mon	4499
närma	4500
promen	4501
köra	4502
fåg	4503
läser	4504
diagn	4505
miljon	4506
historiska	4507
regering	4508
arkitekt	4509
##ich	4510
bilje	4511
former	4512
kallar	4513
rekommenderar	4514
jurid	4515
kapac	4516
##igheten	4517
träffa	4518
eventuella	4519
ses	4520
##atör	4521
##entr	4522
ökad	4523
##älla	4524
trump	4525
kontin	4526
naturliga	4527
komplett	4528
smärta	4529
rän	4530
##ocka	4531
##sättningar	4532
handlingar	4533
lättare	4534
kristna	4535
föregående	4536
##äker	4537
saknar	4538
##ydd	4539
hände	4540
priser	4541
##pro	4542
förfar	4543
personlig	4544
##klam	4545
förlust	4546
attack	4547
aug	4548
##tan	4549
##ith	4550
undrar	4551
framåt	4552
rätta	4553
lägenhet	4554
##soft	4555
fartyg	4556
gat	4557
paul	4558
ställe	4559
baserad	4560
lugn	4561
##iot	4562
intens	4563
herr	4564
äkt	4565
##ood	4566
börjat	4567
processer	4568
hända	4569
stödja	4570
föresl	4571
bibli	4572
vattnet	4573
oför	4574
##ppa	4575
beröm	4576
##bert	4577
behandla	4578
bostad	4579
ävent	4580
##rali	4581
uppre	4582
betrakt	4583
kommitt	4584
##samt	4585
##tligen	4586
##vin	4587
äntligen	4588
album	4589
##lo	4590
##vera	4591
fria	4592
plöts	4593
aktie	4594
svara	4595
betydande	4596
fjärde	4597
29	4598
cr	4599
supp	4600
##eda	4601
bev	4602
kommers	4603
##betal	4604
dåligt	4605
normalt	4606
yrkes	4607
sort	4608
##imer	4609
omöj	4610
kalla	4611
nätet	4612
tydligt	4613
black	4614
tum	4615
åtta	4616
mening	4617
staten	4618
apple	4619
up	4620
##lex	4621
kallade	4622
omfattar	4623
straff	4624
##iel	4625
hänsyn	4626
upptäckt	4627
relaterade	4628
kött	4629
hol	4630
ment	4631
äger	4632
dej	4633
skil	4634
paris	4635
roligt	4636
microsoft	4637
nas	4638
tjänsten	4639
korr	4640
dia	4641
##ckar	4642
informationen	4643
svarade	4644
transakt	4645
##öter	4646
##igur	4647
##idande	4648
skjut	4649
parlament	4650
hittade	4651
kärle	4652
jobba	4653
avtalet	4654
skador	4655
älskade	4656
medborgare	4657
drift	4658
##imal	4659
##frika	4660
australi	4661
fal	4662
##sel	4663
##följ	4664
##amer	4665
unika	4666
##drat	4667
faktorer	4668
digitala	4669
värt	4670
##gående	4671
värdet	4672
##ighets	4673
obe	4674
rörelse	4675
samhälle	4676
##bor	4677
194	4678
mekan	4679
effekter	4680
you	4681
##rodukt	4682
sömn	4683
##ror	4684
##endet	4685
##kast	4686
såväl	4687
läst	4688
marknadsföring	4689
privata	4690
beteende	4691
kand	4692
##ada	4693
användningen	4694
främja	4695
ögonblick	4696
fantastisk	4697
bibliote	4698
igår	4699
##iger	4700
tyst	4701
hej	4702
##own	4703
fett	4704
förståelse	4705
aspekt	4706
eli	4707
listan	4708
mön	4709
##ence	4710
avdel	4711
skor	4712
##ård	4713
##hets	4714
195	4715
##klare	4716
följd	4717
relationer	4718
koncentr	4719
iser	4720
situation	4721
leverantörer	4722
konflikt	4723
##lat	4724
inc	4725
##ana	4726
förtro	4727
##sson	4728
##iment	4729
turk	4730
febr	4731
install	4732
konsekvens	4733
will	4734
##xid	4735
##ingarna	4736
fru	4737
pratar	4738
verksamheten	4739
##ight	4740
äktenskap	4741
utföra	4742
rese	4743
begrepp	4744
uppleva	4745
försäkr	4746
kunnat	4747
dålig	4748
väst	4749
fir	4750
##kö	4751
försikt	4752
##ocker	4753
present	4754
rådets	4755
nöjd	4756
##po	4757
ordförande	4758
bidrar	4759
ladd	4760
syftet	4761
ansökan	4762
##ismen	4763
reklam	4764
##delsen	4765
hälften	4766
befint	4767
ryska	4768
kurs	4769
representer	4770
tillägg	4771
strå	4772
nytta	4773
starta	4774
##skraft	4775
##oga	4776
verket	4777
välkommen	4778
princip	4779
##red	4780
##tande	4781
##derade	4782
##unch	4783
möjligheten	4784
förlora	4785
upptäcka	4786
februari	4787
ec	4788
omständ	4789
äng	4790
##trä	4791
klock	4792
##erings	4793
trött	4794
ps	4795
grunden	4796
annon	4797
##akter	4798
gjor	4799
relation	4800
kriget	4801
avgörande	4802
gäster	4803
##alog	4804
utby	4805
##ics	4806
brand	4807
position	4808
italien	4809
intervju	4810
cell	4811
erkän	4812
plus	4813
risker	4814
nödvändiga	4815
besökare	4816
dyr	4817
ist	4818
valt	4819
##fta	4820
stats	4821
##entals	4822
genomföra	4823
##gress	4824
dubbel	4825
jätte	4826
##jöl	4827
familje	4828
august	4829
sci	4830
unionen	4831
marknader	4832
##otten	4833
invest	4834
kandid	4835
city	4836
gif	4837
##verket	4838
utsläpp	4839
skillnaden	4840
föresk	4841
cookies	4842
perspektiv	4843
akadem	4844
45	4845
even	4846
tving	4847
förstås	4848
uppenbar	4849
konkurrens	4850
tillåter	4851
brev	4852
eme	4853
##änderna	4854
filer	4855
vinst	4856
inträff	4857
ekonomisk	4858
ara	4859
franska	4860
kontrakt	4861
skola	4862
enskilda	4863
##stid	4864
##atiska	4865
##edag	4866
allmänhet	4867
fysiska	4868
300	4869
##uro	4870
förd	4871
kunden	4872
dricka	4873
appar	4874
noggr	4875
investeringar	4876
tillhandahålla	4877
perioden	4878
utrymme	4879
ör	4880
##omb	4881
allra	4882
konser	4883
kvällen	4884
rent	4885
ång	4886
lyckas	4887
represent	4888
rock	4889
prova	4890
arr	4891
valet	4892
skapat	4893
coll	4894
överallt	4895
prim	4896
turn	4897
meddelande	4898
misstag	4899
cit	4900
sing	4901
sist	4902
##les	4903
##tryck	4904
långsikt	4905
ursprungliga	4906
jon	4907
##ämpar	4908
totala	4909
##llop	4910
##ink	4911
omgiv	4912
##ssel	4913
ref	4914
tex	4915
infor	4916
anti	4917
radio	4918
lagstiftning	4919
intresserad	4920
automatiskt	4921
##kad	4922
skatte	4923
erk	4924
röda	4925
hårt	4926
dokt	4927
massor	4928
bröllop	4929
sats	4930
åsikt	4931
##eds	4932
##ita	4933
##karen	4934
back	4935
rummet	4936
säsong	4937
överväg	4938
##ycke	4939
2000	4940
jobbar	4941
tittar	4942
polisen	4943
hemsida	4944
initiativ	4945
##eck	4946
##rande	4947
##cess	4948
omv	4949
naturen	4950
glädje	4951
##varo	4952
svåra	4953
myndigheterna	4954
underl	4955
play	4956
situationen	4957
kris	4958
##minister	4959
cykel	4960
definier	4961
##lare	4962
##sig	4963
##aner	4964
##llertid	4965
skrift	4966
##skol	4967
stolt	4968
emellertid	4969
sand	4970
##istisk	4971
....	4972
moder	4973
intressen	4974
identifiera	4975
hundar	4976
militär	4977
behöriga	4978
adress	4979
evenemang	4980
mjuk	4981
resultaten	4982
##struktur	4983
drog	4984
##pi	4985
##arskap	4986
##deles	4987
funn	4988
effektiva	4989
hänt	4990
möta	4991
befinner	4992
uppmärksamhet	4993
##frågan	4994
konsumenter	4995
##ask	4996
lägen	4997
guide	4998
innovation	4999
