<unk>	0
<s>	0
</s>	0
்க	-0
்த	-1
ம்	-2
▁ப	-3
▁க	-4
ல்	-5
ன்	-6
▁வ	-7
்ட	-8
▁த	-9
க்க	-10
ர்	-11
▁ம	-12
த்த	-13
▁அ	-14
▁ச	-15
்ப	-16
ரு	-17
ிய	-18
ள்	-19
ந்த	-20
▁இ	-21
து	-22
ில்	-23
ட்ட	-24
ப்ப	-25
ும்	-26
▁ந	-27
▁எ	-28
ங்க	-29
ாக	-30
ைய	-31
ிற	-32
தி	-33
ின்	-34
க்கு	-35
்ச	-36
▁உ	-37
டு	-38
▁ஆ	-39
ள்ள	-40
று	-41
ண்ட	-42
ார்	-43
ற்	-44
ரி	-45
▁மு	-46
▁செ	-47
த்து	-48
▁வி	-49
டி	-50
ர்க	-51
ான	-52
லை	-53
ற்ற	-54
▁,	-55
வி	-56
▁என்	-57
ில	-58
ிர	-59
ார	-60
▁கு	-61
ிரு	-62
ந்து	-63
ட்டு	-64
▁இரு	-65
ளை	-66
ால்	-67
ிக	-68
▁செய	-69
▁ர	-70
வு	-71
▁போ	-72
▁மா	-73
▁ஒ	-74
▁இந்த	-75
▁கொ	-76
றி	-77
▁கா	-78
ச்ச	-79
▁ய	-80
ப்	-81
ர்கள்	-82
▁அவ	-83
ஸ்	-84
க்	-85
னை	-86
னர்	-87
▁பா	-88
ளு	-89
த்தில்	-90
ையில்	-91
▁பெ	-92
▁தொ	-93
மை	-94
ப்பு	-95
த்	-96
ான்	-97
ல்ல	-98
▁வே	-99
▁நட	-100
ம்ப	-101
▁.	-102
▁கூ	-103
ுவ	-104
ுக	-105
ற்க	-106
▁நா	-107
▁தே	-108
மி	-109
▁ஏ	-110
ன்ற	-111
▁வெ	-112
ப்பட்ட	-113
▁என	-114
▁கட	-115
க்கும்	-116
ிறது	-117
ாய	-118
▁வரு	-119
▁உள்ள	-120
ிட	-121
கள்	-122
ரை	-123
ியா	-124
ளில்	-125
லா	-126
▁அதி	-127
வில்	-128
▁அத	-129
ணி	-130
ற்ப	-131
▁தெ	-132
ண்டு	-133
▁பே	-134
ங்கள்	-135
றை	-136
ன்ன	-137
▁ஒரு	-138
▁கோ	-139
ண்	-140
ளுக்கு	-141
டுத்த	-142
▁மே	-143
▁2	-144
▁1	-145
▁இத	-146
▁தொட	-147
கு	-148
மாக	-149
ின	-150
ரா	-151
▁பிர	-152
▁ஜ	-153
▁என்று	-154
▁அர	-155
த்தை	-156
▁மற்ற	-157
▁வழ	-158
வர்	-159
்ய	-160
டிய	-161
ளி	-162
திய	-163
▁"	-164
ால	-165
மான	-166
▁செய்த	-167
▁பொ	-168
▁ட	-169
▁பு	-170
ட்ச	-171
ழு	-172
தாக	-173
வே	-174
▁நி	-175
▁அரச	-176
ச்	-177
வை	-178
▁மற்றும்	-179
▁என்ற	-180
வா	-181
ிட்ட	-182
்கு	-183
ள்ளது	-184
▁வா	-185
ற்று	-186
மா	-187
்த்த	-188
ப்பட	-189
சி	-190
▁வேண்ட	-191
▁முத	-192
னால்	-193
ட்	-194
ோது	-195
ன்று	-196
▁து	-197
▁வீ	-198
ரிய	-199
ாம	-200
▁அமை	-201
▁சி	-202
▁நீ	-203
▁மீ	-204
னி	-205
▁அதிக	-206
▁வை	-207
▁நில	-208
▁குறி	-209
▁சு	-210
பி	-211
▁திரு	-212
டன்	-213
ின்ற	-214
▁தொடர்	-215
டை	-216
▁பி	-217
▁செய்ய	-218
ளின்	-219
கிறது	-220
ாத	-221
வும்	-222
ிறார்	-223
ழ்	-224
▁தெரி	-225
▁கே	-226
▁தலை	-227
▁இது	-228
▁சே	-229
▁ல	-230
வது	-231
▁பல	-232
களை	-233
னு	-234
▁மூ	-235
▁தமி	-236
ிருக்க	-237
▁இருந்த	-238
ப்பட்டு	-239
▁எதி	-240
▁வேண்டும்	-241
▁அந்த	-242
ியில்	-243
▁என்ப	-244
▁ப்	-245
ரும்	-246
ணை	-247
▁த்த	-248
ுள்ள	-249
நா	-250
▁அவர்	-251
▁தான்	-252
▁தெரிவி	-253
▁ரா	-254
▁நே	-255
▁இட	-256
ட்டி	-257
ாள	-258
▁ஏற்ப	-259
ையை	-260
▁நிற	-261
ிருந்த	-262
▁க்	-263
▁பய	-264
▁கொண்ட	-265
..	-266
பு	-267
மு	-268
▁சிற	-269
ய்	-270
தை	-271
ற்கு	-272
▁இருக்க	-273
னா	-274
▁சொ	-275
ையும்	-276
லி	-277
டுத்து	-278
▁முதல்	-279
க்கை	-280
▁20	-281
▁ஓ	-282
வர	-283
ண்ண	-284
சிய	-285
்கள்	-286
▁வந்த	-287
ிற்கு	-288
்சி	-289
▁கள	-290
ளிய	-291
▁அறி	-292
நில	-293
பா	-294
▁தீ	-295
த்தி	-296
முக	-297
▁மக்க	-298
க்கப்பட்ட	-299
கா	-300
▁தா	-301
த்தின்	-302
▁ஆனால்	-303
▁ஹ	-304
ஸ்ட	-305
லில்	-306
ங்களில்	-307
▁-	-308
▁ஆக	-309
ங்கு	-310
டும்	-311
▁வெளிய	-312
ப்பா	-313
ர்க்க	-314
த்திய	-315
ப்பி	-316
லும்	-317
வ்	-318
ங்களை	-319
க்கிய	-320
லக	-321
▁இர	-322
ற்றி	-323
ூர்	-324
▁தி	-325
▁கார	-326
▁ப்ப	-327
▁சம	-328
▁பண	-329
▁வர	-330
ிகள்	-331
▁'	-332
▁த்	-333
ருக்கு	-334
வாக	-335
▁சா	-336
ர்த	-337
ோம்	-338
▁பிற	-339
ங்கள	-340
00	-341
லு	-342
சா	-343
தா	-344
பெ	-345
▁உய	-346
லம்	-347
ேன்	-348
▁வருக	-349
ரிக்க	-350
▁நடை	-351
ியை	-352
ழை	-353
ார்கள்	-354
▁முன்ன	-355
▁சில	-356
▁அமைச்ச	-357
ழக	-358
▁தன	-359
▁3	-360
வத	-361
▁சந்த	-362
ன்ப	-363
▁முடி	-364
▁ஊ	-365
ருத்து	-366
▁நிலையில்	-367
ஞ்ச	-368
மன்ற	-369
▁உட	-370
▁வழங்க	-371
வின்	-372
▁பார	-373
ரே	-374
▁(	-375
▁அரசு	-376
▁பட	-377
ாய்	-378
▁கடந்த	-379
ரோ	-380
▁இருந்து	-381
▁மோ	-382
மைய	-383
வில்லை	-384
ிக்	-385
▁போல	-386
ிலும்	-387
ர்ந்த	-388
▁சட்ட	-389
▁ம்	-390
றிய	-391
ப்போது	-392
ஷ்	-393
▁தேர்த	-394
▁அம	-395
க்கி	-396
▁இந்தியா	-397
ராக	-398
கி	-399
ங்கி	-400
ாம்	-401
ட்சி	-402
தம்	-403
ியல்	-404
▁டி	-405
▁பகு	-406
மே	-407
▁பிரத	-408
ிடம்	-409
▁பின்	-410
▁சீ	-411
▁க்க	-412
வட்ட	-413
▁நடைபெ	-414
ின்றனர்	-415
லாம்	-416
வர்கள்	-417
ரம்	-418
ணம்	-419
▁கி	-420
▁கை	-421
டுக	-422
▁போது	-423
▁அனு	-424
ர்த்த	-425
ஸ்த	-426
▁பதி	-427
ழி	-428
டைய	-429
ட்டில்	-430
▁மாநில	-431
▁மாவட்ட	-432
டுக்க	-433
ங்	-434
▁திட்ட	-435
▁கிட	-436
▁..	-437
▁5	-438
▁யும்	-439
னம்	-440
ப்படி	-441
▁பூ	-442
▁ஆண்ட	-443
ஜக	-444
▁பொரு	-445
ரில்	-446
▁4	-447
▁கூட்ட	-448
▁மேலும்	-449
ப்படும்	-450
▁மிக	-451
▁என்ன	-452
▁இல	-453
▁உள்ளது	-454
மர்	-455
ன்னை	-456
ல்லை	-457
▁பாஜக	-458
▁கட்ட	-459
▁ச்	-460
த்தார்	-461
▁செய்து	-462
▁தொடர்ப	-463
▁பொது	-464
▁கால	-465
ள்ளார்	-466
▁தமிழ்	-467
ந்தது	-468
ேச	-469
கவ	-470
டா	-471
▁ஆண்டு	-472
ாலும்	-473
▁அடி	-474
ட்டை	-475
▁ரூ	-476
▁கொண்டு	-477
▁பத	-478
▁குழ	-479
சார	-480
ியின்	-481
ர்களுக்கு	-482
▁குறித்து	-483
▁ஐ	-484
ிருந்து	-485
ாரி	-486
▁அனை	-487
▁அது	-488
ச்சி	-489
▁ஆகிய	-490
▁இருப்ப	-491
ர்கள	-492
ளர்	-493
▁எழு	-494
▁ஈ	-495
▁முன்	-496
▁வரும்	-497
▁சூ	-498
▁இருக்கும்	-499
க்கம்	-500
டுகிறது	-501
▁நிக	-502
▁நெ	-503
▁என்பது	-504
த்திற்கு	-505
ின்றன	-506
▁ுவ	-507
▁கல	-508
▁தற்ப	-509
ர்களை	-510
▁ராஜ	-511
▁இந்திய	-512
▁மருத்து	-513
▁தொடர்ந்து	-514
▁நிறுவ	-515
ொரு	-516
ட்க	-517
ங்களுக்கு	-518
ாமல்	-519
ம்பி	-520
வுக்கு	-521
▁நீதி	-522
▁ு	-523
▁மணி	-524
களில்	-525
ையா	-526
▁குறிப்ப	-527
▁உறு	-528
▁வருகிறது	-529
வம்	-530
தல்	-531
▁பர	-532
▁சம்ப	-533
ெய	-534
▁!	-535
▁தனது	-536
▁கரு	-537
▁நக	-538
▁ிருக்க	-539
▁தர	-540
ந்திர	-541
▁கண	-542
ியாக	-543
▁கட்ச	-544
▁தோ	-545
▁தேதி	-546
ிறார்கள்	-547
▁இய	-548
▁மக்கள்	-549
▁மாண	-550
▁ன	-551
ப்பை	-552
▁`	-553
▁தமிழக	-554
▁சென்னை	-555
வடி	-556
▁ஆத	-557
▁பழ	-558
▁கிடை	-559
▁ஷ	-560
தால்	-561
கம்	-562
▁மீது	-563
ப்படுத்த	-564
▁வரை	-565
▁பேச	-566
க்த	-567
போ	-568
வீ	-569
டம்	-570
▁சேர்ந்த	-571
▁முக்கிய	-572
க்கான	-573
▁போட்ட	-574
▁:	-575
▁குறை	-576
▁நோ	-577
▁போலீ	-578
▁பெரு	-579
▁டெ	-580
▁எதிர்	-581
ழா	-582
▁என்றும்	-583
ல்க	-584
ந்தை	-585
▁க்கு	-586
▁பாதி	-587
▁இல்லை	-588
▁நான்	-589
ரிச	-590
▁கள்	-591
▁அவர	-592
▁காங்க	-593
▁இன்று	-594
▁விவ	-595
▁விள	-596
▁உத	-597
எஸ்	-598
▁கூறி	-599
▁உண	-600
தியில்	-601
ங்கிய	-602
▁தற்போது	-603
▁விட்ட	-604
▁பாது	-605
▁ஸ்	-606
▁காங்கிர	-607
▁பாதுகா	-608
▁அரு	-609
ுக்கு	-610
▁அமைச்சர்	-611
மும்	-612
▁தொழ	-613
▁அளி	-614
▁நடவடி	-615
▁விரு	-616
▁மக	-617
▁6	-618
பதி	-619
ப்பட்டது	-620
▁கிர	-621
▁புக	-622
▁எந்த	-623
றைய	-624
ேய	-625
▁உலக	-626
▁பிறகு	-627
▁மட்டு	-628
ினார்	-629
▁தெரிவித்து	-630
▁பெற்ற	-631
▁அல	-632
ழ்ச	-633
▁வக	-634
ோத	-635
ர்களின்	-636
▁அறிவி	-637
▁தமிழ்நா	-638
ப்பட்டுள்ளது	-639
▁202	-640
றும்	-641
டியா	-642
▁தகவ	-643
ீர்	-644
ந்	-645
▁குற்ற	-646
ோர்	-647
ாளர்	-648
▁வந்து	-649
ாரம்	-650
மார்	-651
ட்ப	-652
▁சொல்ல	-653
ஆம்	-654
▁நேர	-655
ற்கொ	-656
▁செல்ல	-657
▁அள	-658
த்திர	-659
▁மூலம்	-660
▁பெய	-661
▁கூறு	-662
ப்படுகிறது	-663
▁உரு	-664
▁இலங்க	-665
நி	-666
▁அவர்கள்	-667
விட்ட	-668
▁யா	-669
▁7	-670
ம்ம	-671
▁ஸ்ட	-672
▁காரண	-673
யில்	-674
▁பிரி	-675
▁தலைவர்	-676
▁போன்ற	-677
ர்வு	-678
▁செயல்	-679
▁மருத்துவ	-680
ுடன்	-681
▁சென்ற	-682
▁அல்ல	-683
▁ுள்ள	-684
▁சந்தி	-685
▁ஆர	-686
▁மத்திய	-687
▁வய	-688
▁கொள்ள	-689
▁என்க	-690
▁நிர்	-691
▁ஆண்டுக	-692
▁தூ	-693
▁படி	-694
▁காவ	-695
ில்லை	-696
▁இல்ல	-697
கர்	-698
▁காங்கிரஸ்	-699
ளும்	-700
ாகி	-701
▁...	-702
▁உத்த	-703
▁முடிய	-704
▁நடவடிக்கை	-705
▁சமூ	-706
▁சர்	-707
▁வேலை	-708
வ்வ	-709
▁மொ	-710
்ப்ப	-711
▁அணி	-712
▁பார்த்த	-713
▁உள்ளிட்ட	-714
முறை	-715
▁முடியா	-716
▁போரா	-717
▁அதை	-718
சு	-719
▁நிறுவன	-720
▁அதிமுக	-721
▁விசார	-722
ாதார	-723
▁நிலை	-724
ையே	-725
▁கூறிய	-726
▁திர	-727
மதி	-728
▁கூட	-729
▁வெளி	-730
▁வாய	-731
▁கட்சி	-732
▁வும்	-733
னார்	-734
▁அதே	-735
▁அதிகாரி	-736
பர்	-737
போது	-738
ற்காக	-739
ங்கே	-740
ள்ளி	-741
ணைய	-742
ளாக	-743
▁தேர்தல்	-744
▁பிரதமர்	-745
▁முய	-746
த்துக்கு	-747
▁களை	-748
ஜி	-749
▁நடத்த	-750
▁சமூக	-751
லிய	-752
▁வைத்து	-753
▁கவ	-754
ண்டும்	-755
வதாக	-756
க்காக	-757
▁மாத	-758
▁ஏற்படுத்த	-759
▁செல்	-760
ெரிக்க	-761
▁இரண்டு	-762
வரை	-763
▁கண்ட	-764
▁அமெரிக்க	-765
டும்ப	-766
▁ஒன்ற	-767
▁திமுக	-768
▁குடும்ப	-769
▁அண	-770
வேறு	-771
▁பேசிய	-772
▁மேற்கொ	-773
விய	-774
தும்	-775
▁19	-776
▁அரசியல்	-777
ந்தி	-778
▁பல்	-779
▁புதிய	-780
▁உத்தர	-781
▁எம்	-782
▁தின	-783
▁விட	-784
ரீ	-785
ரின்	-786
▁எடுத்து	-787
▁மாற்ற	-788
▁விடு	-789
▁இதனால்	-790
ோடு	-791
▁10	-792
▁அவரது	-793
வரும்	-794
க்கள்	-795
ப்பில்	-796
▁ஆய	-797
்து	-798
▁சார்	-799
▁ுக	-800
யா	-801
▁குழந்தை	-802
▁கூறுக	-803
▁நடி	-804
▁பட்ட	-805
▁பெரிய	-806
ஜ்	-807
ாவது	-808
ற்கான	-809
▁பயன்ப	-810
ாள்	-811
ப்பது	-812
ென	-813
ச்சை	-814
க்கொ	-815
▁அழை	-816
▁இதில்	-817
ள்க	-818
ுள்ளது	-819
▁இருக்கிறது	-820
▁சென்று	-821
▁கல்	-822
▁கூற	-823
▁இஸ்	-824
▁?	-825
▁கீ	-826
▁ஸ	-827
▁நினை	-828
▁நேற்று	-829
▁வார	-830
▁பல்வேறு	-831
ிலிருந்து	-832
▁பேர்	-833
▁விழா	-834
▁ஆர்	-835
▁பகுதி	-836
ேயே	-837
▁பக்த	-838
தான	-839
▁பார்க்க	-840
▁ஆதர	-841
▁நிலைய	-842
▁அப்போது	-843
▁நீதிமன்ற	-844
▁காண	-845
ெட்	-846
▁செய்	-847
விர	-848
▁8	-849
▁வழி	-850
▁கட்டு	-851
▁மீண்டும்	-852
▁ஆய்	-853
▁அதன்	-854
▁முதல்வர்	-855
▁வழக்கு	-856
▁முறை	-857
▁வாழ	-858
▁எல்ல	-859
▁மன	-860
▁ஆம்	-861
▁கலந்து	-862
▁பெண	-863
ையின்	-864
▁வெற்றி	-865
▁களு	-866
▁லட்ச	-867
ாங்க	-868
கே	-869
▁தெரிய	-870
▁இற	-871
▁201	-872
▁உற	-873
▁முதல	-874
▁இணை	-875
டுப	-876
▁பிடி	-877
▁9	-878
▁வைத்த	-879
▁ிருந்த	-880
▁இன்ன	-881
▁தொடர்பாக	-882
த்துறை	-883
▁ரஷ	-884
▁திரும	-885
▁நடந்த	-886
▁வீர	-887
கை	-888
▁தீர்	-889
▁நடைபெற்ற	-890
▁வாய்ப்ப	-891
▁போராட்ட	-892
▁பால	-893
ள்ளனர்	-894
▁தய	-895
▁ஃ	-896
ட்டும்	-897
▁தேசிய	-898
ன்க	-899
▁பொறு	-900
▁அதிகரி	-901
▁பாதுகாப்பு	-902
▁திற	-903
டுகள்	-904
▁நிர்வாக	-905
பை	-906
▁வழக்க	-907
க்கல்	-908
யில	-909
▁ரஷ்ய	-910
டைந்த	-911
▁மட்டுமே	-912
▁பொருள	-913
▁பயன்படுத்த	-914
▁பெற்று	-915
சை	-916
▁ஈடுப	-917
▁இந்	-918
ிற்க	-919
▁கேள்	-920
▁விசாரணை	-921
▁இலங்கை	-922
▁அடுத்த	-923
▁அனைத்து	-924
▁மர	-925
ழுவ	-926
▁தெரிவித்தார்	-927
ர்ந்து	-928
ரான	-929
▁நிகழ்ச	-930
ிறேன்	-931
வெ	-932
ிகளை	-933
▁எட	-934
▁ிரு	-935
▁சிறப்பு	-936
▁குழு	-937
▁வாக்கு	-938
▁சுவ	-939
▁அதில்	-940
▁தாக	-941
▁இப்போது	-942
ற்றிய	-943
▁அல்லது	-944
ிட்டு	-945
▁நடந்தது	-946
நாய	-947
▁இதை	-948
▁வருகின்றனர்	-949
தான்	-950
▁வகையில்	-951
▁காரணமாக	-952
ுள்ளார்	-953
▁என்பதை	-954
ிரி	-955
▁யின்	-956
▁நிய	-957
ிருக்கிறது	-958
யம்	-959
▁மறு	-960
▁பெண்	-961
ளுமன்ற	-962
▁அக	-963
க்கப்பட்டு	-964
லுக்கு	-965
▁துறை	-966
டியாக	-967
ல்கள்	-968
▁தெரிவித்த	-969
▁இருந்தது	-970
▁)	-971
▁கோவி	-972
▁செயல்ப	-973
▁எடப்பா	-974
ிறோம்	-975
▁நல்ல	-976
▁சோ	-977
ஷ்ட	-978
த்தம்	-979
▁கைது	-980
ளா	-981
▁கூறினார்	-982
▁என்றார்	-983
▁கருத்து	-984
▁தங்க	-985
▁நிறை	-986
▁பின்னர்	-987
▁அங்கு	-988
▁முடிவு	-989
▁ஏற்பட்ட	-990
▁அங்க	-991
லோ	-992
▁கிராம	-993
சிக	-994
தற்கு	-995
▁சிறு	-996
்ட்	-997
ட்டின்	-998
▁வெளியே	-999
▁எடப்பாடி	-1000
▁யை	-1001
ியர்	-1002
▁விட்டு	-1003
▁தனி	-1004
▁தொகு	-1005
▁மது	-1006
▁கேள்வி	-1007
▁``	-1008
▁வேண்டிய	-1009
ச்சு	-1010
தில்	-1011
▁எடுக்க	-1012
▁தன்	-1013
▁மெ	-1014
▁கடை	-1015
வான	-1016
நிலையில்	-1017
களுக்கு	-1018
▁முழு	-1019
▁பணி	-1020
▁முயற	-1021
▁மிகவும்	-1022
ிருக்கிறார்	-1023
▁விஷ	-1024
▁முடியும்	-1025
▁செலு	-1026
▁சிவ	-1027
▁யில்	-1028
ஸ்ட்	-1029
லாக	-1030
▁யோ	-1031
▁மாதம்	-1032
▁மின்	-1033
▁டெல்ல	-1034
▁தாக்கு	-1035
தாகவும்	-1036
▁ரூப	-1037
சாய	-1038
தே	-1039
▁கோடி	-1040
ற்றை	-1041
▁விதி	-1042
ாகு	-1043
▁பார்	-1044
மையான	-1045
டியோ	-1046
ினர்	-1047
▁எப்படி	-1048
ையாக	-1049
▁செய்யப்பட்ட	-1050
த்தது	-1051
▁அனுமதி	-1052
▁விமான	-1053
மது	-1054
▁உருவா	-1055
▁அலுவ	-1056
▁குறித்த	-1057
தியாக	-1058
ையடுத்து	-1059
▁வாக	-1060
ரோனா	-1061
க்கா	-1062
▁தேவ	-1063
னாதி	-1064
ணுவ	-1065
▁கொரோனா	-1066
ளவு	-1067
▁நாம்	-1068
▁அதற்கு	-1069
▁களுக்கு	-1070
▁ஜெய	-1071
▁காவல	-1072
▁அப்ப	-1073
▁வச	-1074
மையாக	-1075
▁ஆட்ச	-1076
▁முன்னாள்	-1077
▁ஜனாதி	-1078
▁செயலா	-1079
▁தவ	-1080
▁ஆளு	-1081
பர	-1082
விட	-1083
நர்	-1084
க்கூ	-1085
▁தமிழ்நாடு	-1086
▁ா	-1087
விட்டு	-1088
▁சிக	-1089
▁ராம	-1090
▁மருத்துவம	-1091
▁பதிவு	-1092
▁ட்	-1093
▁தொழில்	-1094
க்கிறது	-1095
▁என்கிறார்	-1096
▁பற்றி	-1097
▁தலைமை	-1098
▁விவசாய	-1099
ஸ்க	-1100
▁மதி	-1101
▁முடியாது	-1102
ச்சா	-1103
ட்டிய	-1104
▁முக	-1105
▁களில்	-1106
▁இதற்கு	-1107
ரவ	-1108
▁;	-1109
டக	-1110
ண்ட்	-1111
னித	-1112
ாலின்	-1113
▁கொடுத்த	-1114
ீடு	-1115
ளம்	-1116
▁தகவல்	-1117
▁நாங்கள்	-1118
▁பழனி	-1119
கார	-1120
▁பூஜ	-1121
▁களின்	-1122
▁பொருளாதார	-1123
வதற்கு	-1124
ிருந்தார்	-1125
▁நான	-1126
▁இஸ்ரே	-1127
▁கொள்க	-1128
▁இந்நிலையில்	-1129
ரியா	-1130
▁உயர்	-1131
சிர	-1132
ண்ணி	-1133
டாது	-1134
000	-1135
▁சத	-1136
சாமி	-1137
றையில்	-1138
▁பதவி	-1139
எல்	-1140
▁விமர்	-1141
ிலான	-1142
▁உரி	-1143
▁நாடுக	-1144
▁ஸ்ரீ	-1145
▁பகுதியில்	-1146
மல்	-1147
னுக்கு	-1148
ருக்கும்	-1149
▁முழுவ	-1150
▁ஒருவர்	-1151
▁நடந்து	-1152
▁தேர்தலில்	-1153
▁எதிராக	-1154
▁நெரு	-1155
▁ஒன்று	-1156
▁உணவு	-1157
தியை	-1158
▁குறிப்பிட	-1159
▁அமெரிக்கா	-1160
▁மணிக்கு	-1161
ண்டி	-1162
ியாள	-1163
▁அடிப்பட	-1164
▁பாட	-1165
ராஜ	-1166
▁மும்	-1167
ப்பின	-1168
க்கப்பட்டது	-1169
▁ஒவ்வ	-1170
▁முன்பு	-1171
▁களும்	-1172
டுப்ப	-1173
▁கேட்ட	-1174
▁காலை	-1175
▁லா	-1176
▁நிறு	-1177
▁யாக	-1178
▁எனவே	-1179
ிலேயே	-1180
▁பக்தர்கள்	-1181
▁ரி	-1182
க்கோ	-1183
ப்பாக	-1184
▁வீடியோ	-1185
▁கன	-1186
▁கோவில்	-1187
பிஎஸ்	-1188
ைப்பட	-1189
▁12	-1190
்க்க	-1191
▁மாணவ	-1192
▁வங்க	-1193
▁அவரை	-1194
▁உடன	-1195
ளுடன்	-1196
▁நிதி	-1197
▁ரஷ்யா	-1198
▁பெரும்	-1199
▁நாட்க	-1200
▁சங்க	-1201
▁சிகி	-1202
▁அண்ண	-1203
▁விஜ	-1204
▁நடத்தி	-1205
▁மி	-1206
▁பிரச்	-1207
ையான	-1208
▁மூன்று	-1209
▁வளர்	-1210
▁ஏற்க	-1211
▁ஆட்சி	-1212
",	-1213
▁ஜன	-1214
▁ஆய்வு	-1215
▁போக	-1216
நிலை	-1217
▁ராணுவ	-1218
ங்களின்	-1219
ர்த்து	-1220
▁சார்ப	-1221
நீ	-1222
▁நிகழ்	-1223
ேக	-1224
▁தீவிர	-1225
▁கர்	-1226
▁தை	-1227
ிருக்கும்	-1228
▁அவருக்கு	-1229
▁a	-1230
▁அதிகாரிகள்	-1231
படி	-1232
த்தா	-1233
▁காரணம்	-1234
▁ஆயிர	-1235
▁உயிரி	-1236
▁இரண்ட	-1237
▁வேறு	-1238
▁மட்டும்	-1239
கன்	-1240
▁தடை	-1241
▁காவல்து	-1242
▁இவ	-1243
ரிக்கை	-1244
▁பெற	-1245
▁மோடி	-1246
▁15	-1247
▁ஜூ	-1248
▁கடி	-1249
▁செய்யும்	-1250
▁ஒரே	-1251
▁குறிப்பிட்ட	-1252
▁சொன்ன	-1253
ாரா	-1254
▁பாரா	-1255
ாடு	-1256
த்துடன்	-1257
ஸ்தான	-1258
▁ஜனாதிபதி	-1259
▁புது	-1260
மையில்	-1261
▁ஒவ்வொரு	-1262
ப்ட	-1263
▁பயண	-1264
▁உள்ளன	-1265
▁இதன்	-1266
ங்கும்	-1267
மீ	-1268
ுகள்	-1269
▁கொள்	-1270
▁கல்ல	-1271
▁மனை	-1272
▁எனக்கு	-1273
ஸ்தான்	-1274
▁உச்ச	-1275
▁சுற்று	-1276
▁ராகு	-1277
▁இன்னும்	-1278
▁விளையா	-1279
▁அபி	-1280
▁சூழ	-1281
னில்	-1282
ன்கள்	-1283
▁எதிர்க	-1284
▁இந்தப்	-1285
ரிடம்	-1286
வாள	-1287
ந்த்	-1288
▁குரு	-1289
▁உண்	-1290
சார்	-1291
▁உடல்	-1292
▁கடு	-1293
▁அம்	-1294
▁துணை	-1295
ல்லாம்	-1296
▁ஊழ	-1297
▁கல்வி	-1298
▁ஜெ	-1299
▁ஆட்ட	-1300
▁தமிழ	-1301
▁சுமார்	-1302
▁முழுவதும்	-1303
▁கும்	-1304
ானி	-1305
▁நாள்	-1306
▁இப்படி	-1307
▁சம்பவம்	-1308
▁ரூபாய்	-1309
▁வின்	-1310
ம்பு	-1311
▁உதவி	-1312
▁பரி	-1313
▁வேட்ப	-1314
▁சிகிச்சை	-1315
▁இந்து	-1316
▁கொலை	-1317
▁தொழில	-1318
▁மை	-1319
▁குடிய	-1320
ாமி	-1321
▁வயது	-1322
▁11	-1323
▁போலீஸ	-1324
▁நு	-1325
▁பூஜை	-1326
ஞ்சா	-1327
▁தேர்வு	-1328
ரல்	-1329
▁இடங்களில்	-1330
ப்போ	-1331
ம்மன்	-1332
▁இவர்	-1333
▁நேரத்தில்	-1334
▁நிர	-1335
▁க்கும்	-1336
▁டெல்லி	-1337
ன்னு	-1338
▁சம்பவ	-1339
▁நாடு	-1340
▁கோயில்	-1341
▁யான	-1342
ம்பர்	-1343
ணா	-1344
▁மனித	-1345
▁உறுதி	-1346
▁i	-1347
▁நாடா	-1348
▁ஏன்	-1349
▁பரிச	-1350
▁செல	-1351
▁மோச	-1352
▁வருகிறார்	-1353
கள	-1354
▁ஸ்டாலின்	-1355
ர்ம	-1356
▁வட	-1357
ப்பெ	-1358
▁தொடர்பான	-1359
▁மாக	-1360
▁சீனா	-1361
▁நம்பி	-1362
▁நாடாளுமன்ற	-1363
▁அலுவலக	-1364
▁தொடங்கிய	-1365
ஸ்ப	-1366
▁விசா	-1367
த்துக்	-1368
▁கீழ்	-1369
▁நம்	-1370
க்கெ	-1371
▁தங்கள்	-1372
▁தேவை	-1373
▁மத	-1374
▁வில	-1375
▁சரிய	-1376
▁கொடுக்க	-1377
,000	-1378
▁உயிரிழ	-1379
▁இழ	-1380
▁தெரிவிக்க	-1381
▁லட்சம்	-1382
ாளர்கள்	-1383
▁இறு	-1384
ிகளில்	-1385
▁பங்கே	-1386
▁ரயில்	-1387
▁விரும்ப	-1388
ியுள்ளது	-1389
▁நிகழ்ச்ச	-1390
வன்	-1391
ோதனை	-1392
▁கூட்டணி	-1393
▁ஆலோ	-1394
▁பிரதேச	-1395
▁யே	-1396
வாத	-1397
▁பள்ளி	-1398
▁இளை	-1399
நிதி	-1400
▁கோயில	-1401
▁வீட்டில்	-1402
▁பேர	-1403
▁யு	-1404
▁பாகி	-1405
▁விற	-1406
ட்கள்	-1407
▁காந்தி	-1408
ருந்து	-1409
ார்த்த	-1410
▁வாகன	-1411
பத்தில்	-1412
▁மேல்	-1413
▁பார்த்து	-1414
னின்	-1415
▁விலை	-1416
த்துள்ளது	-1417
▁ி	-1418
▁இளைஞ	-1419
ள்ளன	-1420
▁பள்ள	-1421
▁இதையடுத்து	-1422
▁ரோ	-1423
▁அரசாங்க	-1424
▁ஆணைய	-1425
லர்	-1426
▁ார்	-1427
▁செய்தி	-1428
ங்கா	-1429
ினி	-1430
▁அதிர்	-1431
பாடு	-1432
▁ங்கள	-1433
மைச்ச	-1434
லின்	-1435
▁மைய	-1436
▁கேட்டு	-1437
ழமை	-1438
▁பீ	-1439
்டர்	-1440
ர்த்தி	-1441
▁அடை	-1442
களின்	-1443
▁ும்	-1444
▁மேற்ப	-1445
▁மாவட்டம்	-1446
▁மேற்கொள்ள	-1447
▁கூறப்படுகிறது	-1448
ஸ்வர	-1449
ினும்	-1450
ேற்ற	-1451
▁போர்	-1452
ப்புகள்	-1453
▁அப	-1454
▁வாங்க	-1455
▁புற	-1456
▁எண்ண	-1457
க்குறி	-1458
ியது	-1459
▁பெண்கள்	-1460
வார்	-1461
▁கண்டு	-1462
▁கெ	-1463
▁சிங்	-1464
▁வாழ்	-1465
▁பை	-1466
▁சரி	-1467
▁குடி	-1468
ளுக்கும்	-1469
▁விரை	-1470
▁வந்தது	-1471
த்தக்க	-1472
▁பந்து	-1473
▁செய்யப்பட்டு	-1474
▁படை	-1475
▁எண்ணி	-1476
▁நூ	-1477
்தான்	-1478
சே	-1479
ஆர்	-1480
▁போட்டிய	-1481
▁இணைய	-1482
▁ஓபிஎஸ்	-1483
▁",	-1484
தற்காக	-1485
த்தக	-1486
வதை	-1487
▁இன்	-1488
▁பிரச்னை	-1489
▁வர்	-1490
▁பெண்க	-1491
▁பெரும்ப	-1492
▁உறுப்பின	-1493
▁மட்டும	-1494
▁ஜோ	-1495
▁அற	-1496
▁எதிர்க்க	-1497
▁இந்தியாவில்	-1498
▁அதிகார	-1499
▁வாழ்க்க	-1500
வதேச	-1501
▁சர்வதேச	-1502
▁னர்	-1503
▁வள	-1504
▁கண்க	-1505
▁விஷய	-1506
ட்டுக்கு	-1507
▁ஆன	-1508
ாலி	-1509
ெல்	-1510
▁மாலை	-1511
▁சார்பில்	-1512
▁கட்சியின்	-1513
சம்	-1514
▁தொடங்க	-1515
சன்	-1516
பிடி	-1517
▁உட்ப	-1518
ேஷ்	-1519
ெல்லாம்	-1520
▁கொடுத்து	-1521
▁ரீ	-1522
▁யார்	-1523
▁நீங்கள்	-1524
▁இங்கு	-1525
▁அரசிய	-1526
▁மண்ட	-1527
▁சாத	-1528
▁சொந்த	-1529
ியார்	-1530
▁இரவு	-1531
▁பக்க	-1532
▁அளவில்	-1533
▁ஆலோச	-1534
ீர	-1535
▁சுவாமி	-1536
▁சக	-1537
▁கல்லூ	-1538
▁போலீசார்	-1539
▁திருப்ப	-1540
▁நடைபெற்றது	-1541
▁மூல	-1542
▁துவ	-1543
▁சின்	-1544
ப்பாளர்	-1545
▁வைக்க	-1546
▁ஏற்பட்டு	-1547
கொ	-1548
▁பிபி	-1549
க்கில்	-1550
▁ப்பட்டு	-1551
வராக	-1552
▁அரசின்	-1553
▁அதேபோ	-1554
▁அடைய	-1555
▁வரலா	-1556
▁முறைய	-1557
விழா	-1558
▁18	-1559
▁எது	-1560
நாட்டு	-1561
▁பெயர்	-1562
▁அதன்ப	-1563
▁வில்	-1564
▁காவல்	-1565
▁ஒது	-1566
னும்	-1567
▁அருகே	-1568
னையில்	-1569
▁கூறுகிறார்	-1570
▁இதுவரை	-1571
▁தரு	-1572
▁திரும்ப	-1573
ிடையே	-1574
▁அனுப்ப	-1575
தலை	-1576
▁திட	-1577
ண்ப	-1578
▁பணம்	-1579
▁போல்	-1580
▁பரபர	-1581
ப்பதாக	-1582
▁உக்	-1583
▁மக்கள	-1584
▁200	-1585
▁கலை	-1586
▁செயலாளர்	-1587
▁ஆரம்பி	-1588
ுறு	-1589
▁ஜி	-1590
▁நப	-1591
▁ஏற்று	-1592
▁பயிற	-1593
▁அதிபர்	-1594
▁இதனை	-1595
▁நாய	-1596
ினால்	-1597
ர்களும்	-1598
▁காய	-1599
▁தீர்மான	-1600
▁மகி	-1601
▁மழை	-1602
▁வகு	-1603
▁கண்ண	-1604
▁அழைத்து	-1605
▁செலுத்த	-1606
▁யூ	-1607
▁நெருக்க	-1608
ம்பெ	-1609
▁மான	-1610
ந்துள்ளது	-1611
▁பல்க	-1612
▁வில்லை	-1613
▁வாய்ப்பு	-1614
▁வேக	-1615
ிருந்தது	-1616
▁எனக்	-1617
▁கொடு	-1618
▁இடையே	-1619
▁வன்	-1620
▁எனவும்	-1621
▁பல்கலை	-1622
▁தொடங்கி	-1623
▁சுக	-1624
ற்றில்	-1625
▁உக்ரை	-1626
▁சென்ன	-1627
▁புகார்	-1628
▁சமீ	-1629
▁ஆப	-1630
▁ஆளுநர்	-1631
ட்டா	-1632
▁ிருக்கிறது	-1633
மையை	-1634
ரன்	-1635
▁அப்படி	-1636
▁நாட்டின்	-1637
▁தொலை	-1638
▁உங்கள்	-1639
▁உரிமை	-1640
▁ரசிக	-1641
▁அதனால்	-1642
ாக்	-1643
▁என்றால்	-1644
▁வருகின்றன	-1645
ட்டர்	-1646
▁கிடைக்கும்	-1647
▁நம்ப	-1648
▁கொண்டா	-1649
▁நீதிபதி	-1650
நக	-1651
வியை	-1652
▁பொதும	-1653
▁ஃப	-1654
▁பிரச்ச	-1655
▁முதலமைச்ச	-1656
▁தொடர்பு	-1657
▁சந்திர	-1658
▁நிறைவே	-1659
ஷ்ண	-1660
▁இல்லாத	-1661
▁வெள்ள	-1662
▁உள்ளனர்	-1663
▁செல்லும்	-1664
ுத	-1665
▁இந்தக்	-1666
ஷன்	-1667
ோக	-1668
▁திட்டம்	-1669
▁நீர்	-1670
▁30	-1671
த்தால்	-1672
▁போட்டி	-1673
வாதி	-1674
▁s	-1675
▁செய்தனர்	-1676
லைய	-1677
▁வலிய	-1678
▁2022	-1679
ஃப்	-1680
▁ப்பட	-1681
▁முயற்சி	-1682
ன்னி	-1683
▁எடுத்த	-1684
▁தொகுதி	-1685
▁விவகார	-1686
▁தேர்	-1687
▁சர	-1688
▁தோல்	-1689
▁தலைவ	-1690
டர்	-1691
ராட்சி	-1692
▁குற்றம்	-1693
▁திருமண	-1694
▁நல	-1695
▁போலீஸார்	-1696
▁14	-1697
▁தவி	-1698
▁த்தை	-1699
▁வரி	-1700
▁மனைவி	-1701
▁பாதிப்பு	-1702
க்கப்படும்	-1703
▁வருட	-1704
க்ர	-1705
▁வைர	-1706
▁நேரம்	-1707
▁ஒப்ப	-1708
▁அமைப்பு	-1709
▁பேச்ச	-1710
▁தள	-1711
▁அதாவது	-1712
▁அளித்த	-1713
வாறு	-1714
▁ப்பட்ட	-1715
▁ஆகியோர்	-1716
▁மண	-1717
▁கைய	-1718
க்தி	-1719
க்களை	-1720
▁வீடு	-1721
மாறு	-1722
▁டா	-1723
▁ஊடக	-1724
▁இஸ்ரேல்	-1725
▁சேவை	-1726
▁மேற்பட்ட	-1727
▁50	-1728
▁வேண்டு	-1729
▁குறிப்பி	-1730
ியன்	-1731
▁மாட்ட	-1732
▁நடத்திய	-1733
▁ஆசிர	-1734
தள	-1735
▁இள	-1736
ேகம்	-1737
▁இடை	-1738
▁விற்ப	-1739
▁தான	-1740
காரம்	-1741
ர்களிடம்	-1742
▁கோரிக்கை	-1743
▁13	-1744
மொ	-1745
▁குறிப்பிடத்தக்க	-1746
சோ	-1747
▁விப	-1748
▁கேர	-1749
▁வலியுறு	-1750
▁இடம்	-1751
▁திருமணம்	-1752
▁அறிக்க	-1753
ிகா	-1754
▁இயக்கு	-1755
ரையா	-1756
▁இருக்கிறார்	-1757
மூ	-1758
ப்பின்	-1759
க்கார	-1760
▁விழு	-1761
▁நீண்ட	-1762
▁மூத்த	-1763
ப்பினர்	-1764
▁கார்	-1765
▁இடத்தில்	-1766
▁முன்ப	-1767
▁ஈடுபட்ட	-1768
▁சுத	-1769
ல்களை	-1770
வரின்	-1771
▁A	-1772
ர்களில்	-1773
▁கண்கா	-1774
தமாக	-1775
▁காலத்தில்	-1776
▁ஏற்படும்	-1777
▁ல்	-1778
ன்னீர்	-1779
▁அதிகமாக	-1780
▁க்கூ	-1781
▁பிரப	-1782
▁பெறு	-1783
ைகள்	-1784
▁பல்கலைக்க	-1785
▁எஸ்	-1786
▁நகர	-1787
மைப்பு	-1788
ப்த	-1789
க்கிர	-1790
▁தயாரி	-1791
▁என்பதால்	-1792
▁எப்போது	-1793
▁திருவிழா	-1794
மோ	-1795
▁செய்க	-1796
▁பிறந்த	-1797
▁பழனிசாமி	-1798
▁இந்தியாவின்	-1799
ீர்கள்	-1800
▁கேட்க	-1801
▁மறை	-1802
▁அந்தப்	-1803
ிரே	-1804
▁16	-1805
▁லி	-1806
நு	-1807
▁இதே	-1808
ளிக்க	-1809
▁பல்கலைக்கழக	-1810
▁மருத்துவமனை	-1811
▁நடைபெறும்	-1812
▁தமிழ்நாட்டில்	-1813
ிகளுக்கு	-1814
▁ரெ	-1815
▁t	-1816
▁கிடைக்க	-1817
ிரா	-1818
▁அதனை	-1819
▁பாலியல்	-1820
▁திட்டமி	-1821
▁எதிர்ப்பு	-1822
▁அடிப்படையில்	-1823
▁அன்று	-1824
▁ராகுல்	-1825
ாமலை	-1826
▁த்தில்	-1827
▁25	-1828
▁அட	-1829
வுகள்	-1830
▁இந்தத்	-1831
▁மனு	-1832
ரித்த	-1833
▁பகுதிகளில்	-1834
▁அறிக்கை	-1835
▁வழக்கில்	-1836
ுள்ளனர்	-1837
நீதி	-1838
புரம்	-1839
ூரில்	-1840
▁கர்நா	-1841
▁மதுரை	-1842
மெ	-1843
ப்பான	-1844
▁வரவே	-1845
▁மாணவி	-1846
வால்	-1847
▁குறிப்பாக	-1848
▁எதிரான	-1849
▁திரைப்பட	-1850
▁தனியார்	-1851
ஜா	-1852
ிலோ	-1853
▁அவர்களின்	-1854
▁வருமான	-1855
▁முயற்ச	-1856
▁சிலர்	-1857
வினர்	-1858
▁S	-1859
நாத	-1860
▁குற்றச்சா	-1861
▁வெளியிட்டு	-1862
▁நிறுவனம்	-1863
▁முக்கியமான	-1864
▁வசி	-1865
▁பங்கு	-1866
▁பணியா	-1867
த்தியில்	-1868
▁விமர்ச	-1869
▁ுள்ளது	-1870
வார்கள்	-1871
ட்டம்	-1872
▁ஆன்	-1873
▁பற்றிய	-1874
▁த்தின்	-1875
▁வேல	-1876
▁கட்டுப்பா	-1877
ருடன்	-1878
▁பிரதி	-1879
ங்கில	-1880
ந்தில்	-1881
▁கிள	-1882
▁இன்ற	-1883
ன்மை	-1884
▁மார்	-1885
படுத்த	-1886
▁என்னை	-1887
er	-1888
▁எதிர்ப	-1889
▁மாணவர்கள்	-1890
▁பயணம்	-1891
▁ஹி	-1892
▁ஆதி	-1893
▁தாக்குதல்	-1894
ன்றி	-1895
▁உற்ப	-1896
▁டீ	-1897
▁நிகழ்ச்சி	-1898
▁வலை	-1899
▁அதிகம்	-1900
தற்கான	-1901
ளித்த	-1902
▁டை	-1903
▁மேம்ப	-1904
▁நண்ப	-1905
▁எச்ச	-1906
ாது	-1907
▁17	-1908
▁எரி	-1909
▁ஷா	-1910
▁சொல்	-1911
▁வெடி	-1912
▁ஆதரவு	-1913
த்திலும்	-1914
▁இருப்பதாக	-1915
வின	-1916
▁சை	-1917
▁நடைபெற	-1918
▁தமிழகத்தில்	-1919
வரி	-1920
வாய	-1921
▁கூடாது	-1922
▁போக்கு	-1923
▁கொண்டிருந்த	-1924
லாத	-1925
▁அருக	-1926
▁இருந்தாலும்	-1927
த்தினர்	-1928
▁வெளியிட்ட	-1929
ாண	-1930
▁சொல்லி	-1931
▁வல	-1932
▁ராசி	-1933
த்திரி	-1934
▁போலீஸ்	-1935
த்தீ	-1936
▁நான்கு	-1937
▁போட்டு	-1938
▁நோய	-1939
▁நாளை	-1940
க்குழு	-1941
ங்கிணை	-1942
an	-1943
க்கப்பட	-1944
▁ஒருங்கிணை	-1945
▁தண்ட	-1946
க்கொள்ள	-1947
▁இணைந்து	-1948
▁அவர்களுக்கு	-1949
ரசு	-1950
▁பால்	-1951
▁நீதிமன்றம்	-1952
▁காட்ட	-1953
▁செய்தார்	-1954
▁ஆண்டுகளுக்கு	-1955
வார	-1956
▁0	-1957
▁இவ்	-1958
க்கப்பட்டுள்ளது	-1959
▁அவசிய	-1960
றித்து	-1961
யி	-1962
தேச	-1963
பம்	-1964
ஞ்சி	-1965
▁பதில்	-1966
டுவது	-1967
கோ	-1968
▁சனி	-1969
ழும்	-1970
▁ுள்ளனர்	-1971
ழ்த்த	-1972
▁வெளியாக	-1973
▁அவ்	-1974
ிருஷ்ண	-1975
▁புரி	-1976
▁கல்லூரி	-1977
▁கடன்	-1978
▁கோவிலில்	-1979
▁கடும்	-1980
▁பின்ன	-1981
க்கண	-1982
▁கால்	-1983
▁த்திற்கு	-1984
▁வடி	-1985
▁வந்தார்	-1986
ஷா	-1987
▁அடையாள	-1988
▁நிறுத்த	-1989
▁மாதி	-1990
▁கர	-1991
▁தென்	-1992
▁பதில	-1993
▁கணி	-1994
▁போன	-1995
▁சுதந்திர	-1996
பார்க்க	-1997
▁நாடுகள்	-1998
▁சட்டமன்ற	-1999
▁த்து	-2000
▁இனி	-2001
▁தால்	-2002
நுட்ப	-2003
▁எங்கள்	-2004
▁வெற்ற	-2005
▁இல்லாமல்	-2006
▁நாட்டில்	-2007
▁நடைபெற்று	-2008
லே	-2009
▁ஆறு	-2010
▁எல்லா	-2011
▁டாக	-2012
▁நாக	-2013
▁அம்மா	-2014
▁இறுதி	-2015
▁24	-2016
▁சதவீ	-2017
▁தண்ண	-2018
▁உட்பட	-2019
வில	-2020
▁கூட்டம்	-2021
▁சோதனை	-2022
▁பிபிசி	-2023
▁குழுவ	-2024
க்குறிப்பு	-2025
லியன்	-2026
▁மக்களுக்கு	-2027
ியான	-2028
▁அழு	-2029
▁பலர்	-2030
▁கூடிய	-2031
டல்	-2032
▁கூடு	-2033
...	-2034
▁ிருப்ப	-2035
▁ஏற்பாடு	-2036
▁ஜா	-2037
▁திக	-2038
▁படம்	-2039
▁காவல்துறை	-2040
▁பங்க	-2041
ப்பிர	-2042
▁தாக்க	-2043
▁இந்தச்	-2044
ஞர்	-2045
▁சட்டம்	-2046
▁பொருட்க	-2047
ப்பே	-2048
▁லாம்	-2049
டாக	-2050
▁முடியாத	-2051
▁கூறுகையில்	-2052
▁போராட்டம்	-2053
ாயம்	-2054
▁எண்ணிக்கை	-2055
நாயக	-2056
▁மகிழ்ச	-2057
▁வர்கள்	-2058
▁படக்குறிப்பு	-2059
ந்திய	-2060
▁உள்ளார்	-2061
▁மில்	-2062
▁சாலை	-2063
▁எல்லாம்	-2064
ரங்க	-2065
▁சின்ன	-2066
▁அனைவரும்	-2067
▁சந்தித்து	-2068
▁ரே	-2069
▁நகர்	-2070
▁அலங்க	-2071
▁முதலில்	-2072
ானது	-2073
ரித்து	-2074
வ்வளவு	-2075
நீதிமன்ற	-2076
▁கண்காணி	-2077
▁ஏரா	-2078
▁வெளியிட	-2079
▁உடனடியாக	-2080
on	-2081
ள்ளதாக	-2082
▁மீதான	-2083
▁குறைந்த	-2084
▁இருவரும்	-2085
ூர்வ	-2086
▁உள	-2087
▁ஆலோசனை	-2088
▁பாதிக்கப்பட்ட	-2089
▁பிரிவு	-2090
▁களையும்	-2091
▁கழி	-2092
▁புதி	-2093
▁நடக்கும்	-2094
ட்டிற்கு	-2095
▁தாக்கல்	-2096
▁இதன	-2097
▁வசதி	-2098
▁இருந்தார்	-2099
▁கண்டுபிடி	-2100
▁தொழில்நுட்ப	-2101
▁கிழ	-2102
ளமான	-2103
ப்படை	-2104
த்திட்ட	-2105
ானா	-2106
விற்கு	-2107
▁மேற்கு	-2108
▁சுகாதார	-2109
▁ஆண்டுகளாக	-2110
ஹி	-2111
▁பேசி	-2112
▁இடம்பெ	-2113
▁அர்	-2114
▁இருப்பினும்	-2115
▁தெரியா	-2116
▁பலரும்	-2117
▁எதிர்பார்க்க	-2118
▁புர	-2119
▁வன	-2120
▁தலைமைய	-2121
▁மலை	-2122
ியர்கள்	-2123
மார	-2124
▁சமா	-2125
▁தலைமையில்	-2126
▁தந்த	-2127
▁வருவதாக	-2128
க்குள்	-2129
▁ிருக்கிறார்	-2130
▁அவரின்	-2131
த்துவ	-2132
ருமான	-2133
ையிலான	-2134
▁தவற	-2135
▁சிக்க	-2136
▁தலைவர்கள்	-2137
▁ன்	-2138
ளுக்கான	-2139
தியின்	-2140
▁வுக்கு	-2141
▁காட்ச	-2142
▁கவு	-2143
த்தியா	-2144
தன்	-2145
க்கிழமை	-2146
ர்க்	-2147
▁ாத	-2148
▁ஒப்பந்த	-2149
▁விட்டது	-2150
க்கே	-2151
▁அவை	-2152
▁தரிச	-2153
மடைந்த	-2154
▁மூன்ற	-2155
▁ஆயிரம்	-2156
▁ஆண்டில்	-2157
▁எனது	-2158
ங்களும்	-2159
▁விமர்சி	-2160
▁தெரிவித்துள்ளது	-2161
▁முதலமைச்சர்	-2162
ஷேகம்	-2163
▁அம்ப	-2164
▁C	-2165
▁அதிகரித்து	-2166
ியும்	-2167
▁மகன்	-2168
▁உயிரிழந்த	-2169
▁ஞ	-2170
ன்னுடைய	-2171
▁அளவுக்கு	-2172
தோ	-2173
ிகை	-2174
▁தாய	-2175
▁தாய்	-2176
▁அவர்களை	-2177
▁விற்பனை	-2178
ுற	-2179
▁தவிர	-2180
▁விரி	-2181
▁சென்னையில்	-2182
நாள்	-2183
▁நடக்க	-2184
ோதைய	-2185
▁மகா	-2186
▁த்தான்	-2187
ஷி	-2188
▁நாள	-2189
▁புல	-2190
▁குமார்	-2191
▁முன்னிட்டு	-2192
மான்	-2193
▁அறிவு	-2194
▁கோவை	-2195
▁ஊர்	-2196
▁ங்க	-2197
களும்	-2198
▁பார்வ	-2199
▁ஏராளமான	-2200
▁மக்களின்	-2201
▁மத்தியில்	-2202
30	-2203
ப்புற	-2204
▁கிலோ	-2205
டியே	-2206
▁குறிப்பிட்டு	-2207
▁டன்	-2208
விட்டது	-2209
▁பாராளுமன்ற	-2210
ராஜ்	-2211
▁யுடன்	-2212
▁தேடி	-2213
ப்பிய	-2214
ரேந்திர	-2215
▁செய்வத	-2216
▁விஜய	-2217
▁கூட்டத்தில்	-2218
▁பாகிஸ்தான்	-2219
▁கூறியுள்ளார்	-2220
▁குஜ	-2221
றுத்த	-2222
▁மாவட்டத்தில்	-2223
▁நியமி	-2224
நே	-2225
▁இதுபோ	-2226
ண்டை	-2227
▁யார	-2228
▁40	-2229
▁தரப்பு	-2230
.1	-2231
குதி	-2232
னவே	-2233
▁கிரிக்க	-2234
▁நவ	-2235
▁ஆகியவ	-2236
▁களால்	-2237
▁காலம்	-2238
▁குஜரா	-2239
▁வாக்க	-2240
க்கொண்ட	-2241
▁கடுமையாக	-2242
ெய்	-2243
▁அனுப	-2244
நாயகர்	-2245
▁ஏற்பட்டது	-2246
▁கான்	-2247
▁முரு	-2248
▁ஓய்	-2249
▁தகவல்கள்	-2250
▁இப்ப	-2251
▁மாறி	-2252
த்தைச்	-2253
▁விளை	-2254
▁அறிமுக	-2255
▁கண்டி	-2256
▁மொத்த	-2257
ளவில்	-2258
▁ஏற்கனவே	-2259
ங்கல்	-2260
▁ஆவ	-2261
▁100	-2262
குறித்து	-2263
செல்	-2264
▁சிறுவ	-2265
ருடைய	-2266
▁கத	-2267
▁தன்னுடைய	-2268
▁பற	-2269
▁எடு	-2270
▁ஆண்டுகள்	-2271
▁ஆராய	-2272
ங்களாக	-2273
▁வண	-2274
▁T	-2275
▁பெருமா	-2276
என்	-2277
▁மாநக	-2278
▁உற்ச	-2279
▁முறையில்	-2280
▁மருத்துவமனையில்	-2281
.5	-2282
ன்றால்	-2283
▁கூட்டண	-2284
▁செய்தியாள	-2285
க்கணக்கான	-2286
▁சமய	-2287
தியான	-2288
▁பயிற்சி	-2289
▁மாநிலம்	-2290
▁முடியவில்லை	-2291
▁முறையாக	-2292
▁ஒப்பு	-2293
சில	-2294
▁ஹோ	-2295
தாவது	-2296
▁சிலை	-2297
ன்னீர்செல்	-2298
▁அண்ணாமலை	-2299
▁ரன்கள்	-2300
▁தெளி	-2301
▁கவன	-2302
த்தையும்	-2303
▁நீதிமன்றத்தில்	-2304
▁கழக	-2305
ியம்	-2306
விரு	-2307
ட்டத்தில்	-2308
றையை	-2309
▁நரேந்திர	-2310
பே	-2311
த்திரை	-2312
▁வேண்டாம்	-2313
▁குற்றச்சாட்டு	-2314
▁தந்தை	-2315
▁நோக்கி	-2316
▁அனுப்பி	-2317
▁உக்ரைன்	-2318
▁கவனம்	-2319
▁பகி	-2320
ிகளின்	-2321
▁கோயிலில்	-2322
▁த்துக்கு	-2323
▁M	-2324
▁களாக	-2325
▁விருது	-2326
டுகின்றன	-2327
▁பக	-2328
▁பிரதம	-2329
▁எதுவும்	-2330
ரான்	-2331
ன்பு	-2332
▁பகவ	-2333
▁போய்	-2334
▁திடீர	-2335
▁எழுந்த	-2336
▁இருப்பது	-2337
வல	-2338
▁உடை	-2339
▁ஸ்க	-2340
▁கடைசி	-2341
ஹா	-2342
த்தொ	-2343
▁தாகவும்	-2344
▁நம்பிக்கை	-2345
▁ஹெ	-2346
▁சகோத	-2347
ற்கை	-2348
▁ள்ள	-2349
▁விலக	-2350
▁பெண்ண	-2351
▁பட்டிய	-2352
▁போக்குவர	-2353
▁இயக்க	-2354
▁இருந்தால்	-2355
ற்றா	-2356
▁ஆரம்ப	-2357
at	-2358
நாத்	-2359
▁குழந்தைகள்	-2360
▁ேன்	-2361
▁க்கான	-2362
த்துள்ளார்	-2363
▁கள்ள	-2364
ஸ்திரே	-2365
▁களுடன்	-2366
சூ	-2367
▁உங்களுக்கு	-2368
▁முஸ்	-2369
▁தேவையான	-2370
▁வளர்ச்சி	-2371
▁B	-2372
▁லை	-2373
▁நமது	-2374
▁விவகாரம்	-2375
டுப்பு	-2376
▁சூரிய	-2377
▁திருவ	-2378
▁இன	-2379
▁இதுகுறித்து	-2380
நகர்	-2381
▁சசிக	-2382
▁மாற்று	-2383
▁சமீபத்தில்	-2384
▁ஏன	-2385
▁டே	-2386
ும	-2387
▁நாட்கள்	-2388
▁விரைவில்	-2389
த்ய	-2390
த்தனை	-2391
ன்களை	-2392
னையை	-2393
▁தொண்ட	-2394
▁காட்டு	-2395
த்தனர்	-2396
ப்படுத்தி	-2397
▁I	-2398
▁ோம்	-2399
▁காத்த	-2400
▁பிரபல	-2401
▁மிகப்பெ	-2402
▁22	-2403
டிக்க	-2404
்டு	-2405
▁மிர	-2406
▁ஐந்து	-2407
த்திற்க	-2408
ப்பம்	-2409
ற்றம்	-2410
▁கிட்ட	-2411
▁P	-2412
டியை	-2413
▁மற்றொரு	-2414
வோம்	-2415
ங்கை	-2416
▁வாங்கி	-2417
▁போட்டியில்	-2418
ரக	-2419
▁உள்	-2420
த்தும்	-2421
▁கொல்ல	-2422
▁ுள்ளன	-2423
▁மேற்கொண்ட	-2424
ந்தர	-2425
▁மோதி	-2426
▁முன்னெ	-2427
▁விசாரண	-2428
▁பாலா	-2429
en	-2430
▁பேரா	-2431
▁வங்கி	-2432
ிர்	-2433
ன்ஸ்	-2434
▁கப்ப	-2435
த்தகைய	-2436
▁எதிர்கொ	-2437
▁பொதுமக்கள்	-2438
க்கால	-2439
▁தன்னை	-2440
றையினர்	-2441
▁சேர்க்க	-2442
▁விர	-2443
வச	-2444
▁சட்டச	-2445
▁அம்மன்	-2446
▁யாரும்	-2447
▁சிறப்பாக	-2448
▁மாநா	-2449
▁வியா	-2450
▁இரண்டாவது	-2451
▁செய்வது	-2452
▁தாக்குத	-2453
▁21	-2454
▁ஈடுபட்டு	-2455
▁வாய்	-2456
▁கைப்ப	-2457
▁ஆகியோ	-2458
▁அடிக்க	-2459
▁சசிகலா	-2460
பக	-2461
புண	-2462
▁ரத்த	-2463
ிட்	-2464
▁மருந்து	-2465
க்கெட்	-2466
▁சிறந்த	-2467
பட்ச	-2468
▁கிடைத்த	-2469
▁செய்யப்பட்டது	-2470
ர்ட்	-2471
கிறார்	-2472
▁குறிப்பிட்டார்	-2473
மணி	-2474
ராம	-2475
▁கலா	-2476
▁சாதி	-2477
▁கும்ப	-2478
▁புகைப்பட	-2479
▁அய	-2480
ங்களிலும்	-2481
▁சுற்றுலா	-2482
▁ஒன்றை	-2483
▁23	-2484
▁மின்சார	-2485
▁எதிர்கால	-2486
▁ே	-2487
▁அப்பா	-2488
▁மட்டுமல்ல	-2489
▁சிர	-2490
மக்கு	-2491
நோ	-2492
சிங்க	-2493
▁வீரர்கள்	-2494
▁நடக்கிறது	-2495
▁மிகப்பெரிய	-2496
▁r	-2497
▁2024	-2498
▁பஞ்சா	-2499
ச்சினை	-2500
வருக்கும்	-2501
▁மாற	-2502
▁வார்த்த	-2503
▁நடிகர்	-2504
▁கௌ	-2505
▁செயலாள	-2506
▁ால்	-2507
▁விஜய்	-2508
▁குடியரசு	-2509
▁ரண	-2510
▁விடுதலை	-2511
வர்களுக்கு	-2512
or	-2513
சர்	-2514
மிட	-2515
▁சொத்து	-2516
▁டு	-2517
▁தயார	-2518
▁இஸ்லா	-2519
ிற்	-2520
லிதா	-2521
வுகளை	-2522
▁தாம	-2523
ங்களது	-2524
டியில்	-2525
▁டாக்டர்	-2526
▁பிரச்சினை	-2527
▁இம்	-2528
▁உடன்	-2529
▁சொல்க	-2530
▁எழுதிய	-2531
▁தடுப்ப	-2532
▁மொத்தம்	-2533
▁உற்பத்தி	-2534
சல்	-2535
▁ஆயுத	-2536
20	-2537
▁தல	-2538
▁மாற்றம்	-2539
▁விழாவில்	-2540
▁சிறை	-2541
▁இதற்க	-2542
▁செய்தது	-2543
▁ட்விட்ட	-2544
▁கலந்துகொ	-2545
▁கொள்கை	-2546
▁பேசினார்	-2547
▁ரு	-2548
▁காத	-2549
ரத்தில்	-2550
▁திடீரென	-2551
▁நிறைவேற்ற	-2552
▁அக்	-2553
ிலுள்ள	-2554
▁அதிர்ச்ச	-2555
▁சேர்ந்து	-2556
ிறு	-2557
▁பணிகள்	-2558
▁மேல	-2559
▁பட்	-2560
▁அந்தக்	-2561
▁ங்கள்	-2562
▁பேச்சுவ	-2563
▁அந்	-2564
▁பரு	-2565
▁பவு	-2566
வதால்	-2567
▁2023	-2568
▁விண்ண	-2569
▁மாநிலத்தில்	-2570
▁ஆண	-2571
ாலான	-2572
▁ஒதுக்க	-2573
▁எங்களுக்கு	-2574
▁பேச்சுவார்த்த	-2575
▁ஆஸ்திரே	-2576
▁எங்க	-2577
▁தொற்று	-2578
▁நாட்டு	-2579
▁நடைமுறை	-2580
▁மேற்கொண்டு	-2581
▁ோ	-2582
ற்றின்	-2583
▁நியூ	-2584
▁நிபுண	-2585
▁கடுமையான	-2586
ற்கொலை	-2587
▁தெரியவ	-2588
▁தற்கொலை	-2589
▁ஜெயல	-2590
▁பக்கம்	-2591
▁முன்வை	-2592
▁ுள்ளார்	-2593
தமான	-2594
▁ஜூலை	-2595
▁அடுத்து	-2596
▁ஏற்பட	-2597
▁கீழ	-2598
▁உதய	-2599
▁பந்துவீ	-2600
▁பாத	-2601
▁க்காக	-2602
▁அளவு	-2603
மண	-2604
ியோ	-2605
▁வகை	-2606
ப்பர்	-2607
▁ஆகும்	-2608
▁என்கிற	-2609
▁வாழ்க்கை	-2610
▁சுய	-2611
வியல்	-2612
▁கருத	-2613
▁தரிசனம்	-2614
▁இவர்கள்	-2615
தார	-2616
▁னு	-2617
நீர்	-2618
▁எதிர்க்கட்ச	-2619
ப்பிட	-2620
▁ஆதரவாள	-2621
▁ஜெயலலிதா	-2622
▁கிரிக்கெட்	-2623
▁அடைந்த	-2624
▁மார்ச்	-2625
▁எளி	-2626
ச்சே	-2627
ுகளை	-2628
▁இல்	-2629
▁கதை	-2630
▁எனத்	-2631
▁வழியாக	-2632
▁அக்க	-2633
▁நிர்வாகிகள்	-2634
▁மும்பை	-2635
▁பறி	-2636
▁அழி	-2637
▁பேராசிர	-2638
▁அரி	-2639
▁கவனி	-2640
▁நுழை	-2641
்களை	-2642
▁அச்ச	-2643
▁மகாரா	-2644
▁2021	-2645
▁சக்தி	-2646
▁ஆராய்ச	-2647
▁அதன்படி	-2648
ஞ்சம்	-2649
தையும்	-2650
▁சிறிய	-2651
வீன	-2652
▁போக்குவரத்து	-2653
ாலை	-2654
ரியில்	-2655
▁வேட்பாள	-2656
▁போட	-2657
▁தினம்	-2658
▁மக்களை	-2659
ரவை	-2660
▁பணியில்	-2661
த்தின	-2662
▁உறுப்பினர்	-2663
▁c	-2664
▁நடு	-2665
▁நிறைய	-2666
த்துவம்	-2667
▁அளிக்க	-2668
▁இருக்கிற	-2669
▁பொதுக்குழு	-2670
▁சூழ்	-2671
▁கொண்டனர்	-2672
▁முஸ்லி	-2673
▁ஏற்படுத்தி	-2674
ரமாக	-2675
▁வழங்கிய	-2676
▁இதுபோன்ற	-2677
▁சால	-2678
பட்ட	-2679
▁கொண்டார்	-2680
▁முன்னதாக	-2681
பார	-2682
▁லெ	-2683
▁சீன	-2684
▁விக்கெ	-2685
▁சேர்த்து	-2686
ீன்	-2687
▁மாகாண	-2688
▁பயன்படுத்தி	-2689
▁வருகிறார்கள்	-2690
ன்ட்	-2691
னோ	-2692
▁வகி	-2693
▁D	-2694
ெழு	-2695
▁ஜூன்	-2696
▁வென்ற	-2697
▁த்திற்க	-2698
▁வந்தனர்	-2699
▁அதேபோல	-2700
▁தனக்கு	-2701
▁அபிவிரு	-2702
▁வாழ்த்த	-2703
▁பேருந்து	-2704
▁கிழக்கு	-2705
▁அச	-2706
▁யால்	-2707
வருக்கு	-2708
▁வகுப்பு	-2709
ுமா	-2710
ுகிறது	-2711
▁நிதிய	-2712
▁பெருமாள்	-2713
்டோ	-2714
▁வீட்டு	-2715
▁முடிந்த	-2716
▁வழங்குவ	-2717
▁அறிக்கையில்	-2718
எம்	-2719
▁உரிய	-2720
▁ிருக்கும்	-2721
▁வெளிநாட்டு	-2722
னாக	-2723
▁மல	-2724
▁நபர்	-2725
த்தான்	-2726
ளுக்காக	-2727
னான	-2728
ன்னா	-2729
▁அறு	-2730
▁அதிர	-2731
ின்றது	-2732
▁விபத்து	-2733
▁விவகாரத்தில்	-2734
▁உண்மை	-2735
▁கிருஷ்ண	-2736
ந்தர்	-2737
ந்தா	-2738
ழிப்பு	-2739
▁2019	-2740
▁ஏற்ற	-2741
▁உருவாக்க	-2742
▁e	-2743
▁தலைவராக	-2744
மம்	-2745
க்கள	-2746
வுடன்	-2747
க்ஸ்	-2748
▁வலி	-2749
▁கட்டி	-2750
க்கூடிய	-2751
▁குறித்தும்	-2752
▁பகுதியை	-2753
ஷேக	-2754
▁விவர	-2755
தில்லை	-2756
▁குவி	-2757
▁பணத்தை	-2758
ராத	-2759
ையாது	-2760
வதற்கான	-2761
▁பாகிஸ்தான	-2762
▁சூழலில்	-2763
▁நிறுவனங்கள்	-2764
▁நிச்ச	-2765
ியாளர்	-2766
▁அருகில்	-2767
யர்	-2768
மித்	-2769
▁வர்த்த	-2770
▁பொறுத்த	-2771
▁அவர்கள	-2772
▁ஆண்டுகளில்	-2773
னல்	-2774
மிய	-2775
வுக	-2776
▁199	-2777
▁போதும்	-2778
▁in	-2779
ன்கொ	-2780
▁மரண	-2781
▁பண்ட	-2782
▁மாதிரி	-2783
▁N	-2784
▁டோ	-2785
▁விட்டார்	-2786
▁நாட்களுக்கு	-2787
ியாளர்கள்	-2788
▁பாக	-2789
ளியில்	-2790
▁னா	-2791
▁ஆவண	-2792
▁ஒலி	-2793
ின்றி	-2794
▁அவ்வ	-2795
▁பிள்ள	-2796
▁ஜனநாயக	-2797
▁தண்டனை	-2798
▁புரிந்து	-2799
செய	-2800
▁சிங்க	-2801
▁கையில்	-2802
▁கிடையாது	-2803
▁வழங்கப்படும்	-2804
:00	-2805
டுவதாக	-2806
▁சர்ச்சை	-2807
ar	-2808
▁எனும்	-2809
▁அதிகரிக்கும்	-2810
▁நிகழ்ச்சியில்	-2811
▁தண்ணீர்	-2812
▁ஆடி	-2813
ேத	-2814
▁கேரளா	-2815
திவு	-2816
▁சம்பந்த	-2817
▁நிலையத்தில்	-2818
▁சினி	-2819
ப்பதற்கு	-2820
ண்டே	-2821
▁ஏப்	-2822
▁வான	-2823
▁தெரிவித்தனர்	-2824
▁அதிகமான	-2825
▁திட்டத்தை	-2826
▁விடும்	-2827
▁விளக்க	-2828
▁விக்ர	-2829
▁கட்சிய	-2830
▁சரியாக	-2831
ன்னீர்செல்வம்	-2832
▁மொழி	-2833
▁ாமல்	-2834
▁ஆட்சியில்	-2835
▁R	-2836
▁மய	-2837
▁வலைதள	-2838
ற்றும்	-2839
▁உள்ளா	-2840
▁நிற்க	-2841
▁துப்பா	-2842
விகி	-2843
▁தவறு	-2844
▁திரா	-2845
▁ரணில்	-2846
▁பிரச்சனை	-2847
▁பெரும்பாலான	-2848
னே	-2849
ல்லா	-2850
▁சரியான	-2851
▁ங்களை	-2852
▁ரத்து	-2853
▁வழக்கறி	-2854
▁வட்ட	-2855
▁வளாக	-2856
▁பெங்கள	-2857
ீட்டு	-2858
த்தூர்	-2859
▁தரப்பில்	-2860
ந்துள்ள	-2861
▁சினிமா	-2862
▁நாளில்	-2863
▁ஏமா	-2864
▁குர	-2865
ந்தார்	-2866
▁இயக்குநர்	-2867
▁தலைமையிலான	-2868
▁பிப்	-2869
ுங்கள்	-2870
லாளர்	-2871
in	-2872
▁கும்பா	-2873
▁பொறுப்பு	-2874
▁வெளியாகி	-2875
▁சான்	-2876
▁அறிவிப்பு	-2877
▁வோ	-2878
▁தடுக்க	-2879
▁பெற்றோ	-2880
▁கூடுதல்	-2881
▁கும்பாபி	-2882
▁ப்படுகிறது	-2883
▁விளையாட்டு	-2884
▁வெளிநா	-2885
▁நகை	-2886
▁கடல்	-2887
▁பயணி	-2888
ரையில்	-2889
▁அரசுக்கு	-2890
▁கர்நாட	-2891
▁பேட்டி	-2892
▁முயன்ற	-2893
▁தொடங்கியது	-2894
▁அபிவிருத்தி	-2895
▁மால	-2896
முறைய	-2897
▁பில்	-2898
▁சதவிகி	-2899
▁தற்போதைய	-2900
▁பின்ப	-2901
▁அவசியம்	-2902
▁ஏற்பட்டுள்ளது	-2903
யூ	-2904
▁அவருடைய	-2905
▁இருக்கலாம்	-2906
ளிர்	-2907
▁ஸ்ப	-2908
ொருள்	-2909
▁ஒன்றாக	-2910
▁வித்தியா	-2911
ினா	-2912
▁மார	-2913
ல்களில்	-2914
▁ஜே	-2915
▁தொகை	-2916
▁செல்வ	-2917
▁சட்டசபை	-2918
▁பத்திரி	-2919
▁பரிந்து	-2920
▁முதலீடு	-2921
▁போட்டியிட	-2922
▁இலங்கையில்	-2923
▁1,	-2924
▁ப்படும்	-2925
▁நோக்க	-2926
▁புத்தக	-2927
▁எவ்வளவு	-2928
▁கூட்டு	-2929
▁வெள்ளி	-2930
▁கொண்டாட	-2931
ட்ரோ	-2932
▁எல்லை	-2933
▁மேற்க	-2934
▁சந்தித்த	-2935
▁எப்போதும்	-2936
▁குண	-2937
▁நிலைமை	-2938
ண்டா	-2939
▁ஹமா	-2940
▁நடத்து	-2941
ீப்	-2942
▁மகாராஷ்ட	-2943
▁கமி	-2944
▁குறு	-2945
திலும்	-2946
▁செயற்ப	-2947
விட்டார்	-2948
▁தேர்ந்த	-2949
▁தன்ன	-2950
▁மகிழ்ச்ச	-2951
▁ஒழு	-2952
▁உண்டு	-2953
▁தோல்வி	-2954
▁ரசிகர்கள்	-2955
▁27	-2956
ல்லி	-2957
▁படைய	-2958
▁பேட்ட	-2959
▁மாறிய	-2960
▁தொடக்க	-2961
▁பிடித்து	-2962
▁தெரியவில்லை	-2963
▁தெரியும்	-2964
▁தொடர்பில்	-2965
▁முன்னேற்ற	-2966
▁28	-2967
▁கம்ப	-2968
ப்பாடு	-2969
▁மாவட்டங்களில்	-2970
▁சப	-2971
▁உடனே	-2972
▁நோய்	-2973
▁பிரசார	-2974
▁நடவடிக்க	-2975
தர்	-2976
▁பரவ	-2977
ிகளும்	-2978
ும்போது	-2979
▁மோசமான	-2980
ஞ்சு	-2981
▁எடுத்துக்	-2982
▁l	-2983
▁அவச	-2984
▁அணியின்	-2985
▁ரீதியாக	-2986
▁பக்கத்தில்	-2987
▁மாநிலங்களில்	-2988
ஸா	-2989
▁ீ	-2990
▁காஷ்	-2991
▁தடுப்பூ	-2992
▁வன்முறை	-2993
▁வீட்டுக்கு	-2994
வெளி	-2995
▁இதற்காக	-2996
▁கர்நாடகா	-2997
வோ	-2998
ுமி	-2999
▁வு	-3000
▁டால	-3001
▁பேசுக	-3002
▁விக்ரம	-3003
▁ஆளுந	-3004
▁அதிகரிக்க	-3005
னியா	-3006
ற்கும்	-3007
▁திருத்த	-3008
▁பார்வைய	-3009
▁கொண்டிருக்க	-3010
ண்டர்	-3011
▁நட்ச	-3012
▁சுட்டி	-3013
▁நட்சத்திர	-3014
▁திரி	-3015
ப்பட்டுள்ள	-3016
புற	-3017
▁படுக	-3018
▁நெருக்கடி	-3019
▁ஹே	-3020
▁மதிப்ப	-3021
▁o	-3022
▁சுற்றி	-3023
ப்பார்கள்	-3024
ொட்டி	-3025
▁செந்தில்	-3026
▁26	-3027
▁கார்த்த	-3028
▁பங்கேற்ற	-3029
▁நிர்வாகம்	-3030
▁ஹை	-3031
▁களுக்கான	-3032
▁பரபரப்பை	-3033
▁எவ்	-3034
▁வரிச	-3035
▁கேப்ட	-3036
▁மருத்துவர்	-3037
▁ஆந்திர	-3038
க்கொண்டு	-3039
மிருந்து	-3040
▁சிறையில்	-3041
▁வழங்கி	-3042
▁புகார	-3043
▁இருக்கு	-3044
ணு	-3045
▁60	-3046
▁ஐக்கிய	-3047
▁ிருந்தது	-3048
▁சுட்டிக்கா	-3049
பாத்	-3050
▁அதன	-3051
மலை	-3052
த்தன	-3053
ர்களாக	-3054
▁செலவு	-3055
களையும்	-3056
▁பேச்சு	-3057
க்குப்	-3058
ெக	-3059
▁உரையா	-3060
▁நாடுகளில்	-3061
▁ரக	-3062
▁அழக	-3063
▁காட்சி	-3064
▁வழங்கும்	-3065
▁தள்ள	-3066
▁பரிசோதனை	-3067
▁பெரி	-3068
▁த்துடன்	-3069
▁பரிந்துரை	-3070
கைய	-3071
ழ்க	-3072
▁மீன	-3073
▁பண்ண	-3074
▁குழந்த	-3075
▁அதேபோல்	-3076
▁தெரிகிறது	-3077
மிற	-3078
எல்ஏ	-3079
▁களுக்கும்	-3080
▁முழுமையாக	-3081
▁இருக்கின்றன	-3082
▁தப்பி	-3083
ங்கியது	-3084
▁சந்திக்க	-3085
▁பிரா	-3086
▁ஒத்து	-3087
▁உருவாக	-3088
▁சார்ந்த	-3089
▁அதற்கான	-3090
▁குஜராத்	-3091
▁நிறுவனத்தின்	-3092
▁E	-3093
▁சபை	-3094
▁தட	-3095
டோ	-3096
▁கவலை	-3097
ஸ்வரர்	-3098
▁கடற்ப	-3099
▁பயங்க	-3100
த்தல்	-3101
▁திகதி	-3102
▁எம்எல்ஏ	-3103
▁நடைபெறு	-3104
▁இவை	-3105
▁வெங்க	-3106
▁இன்னொரு	-3107
▁p	-3108
▁ஆளும்	-3109
▁தேர்ந்தெ	-3110
ூர	-3111
▁பஞ்ச	-3112
▁களமிற	-3113
▁பொருட்கள்	-3114
▁ஆல	-3115
▁கோப	-3116
▁கன்ன	-3117
▁நாட்டை	-3118
▁தங்களது	-3119
▁பழைய	-3120
ரவரி	-3121
ாந்து	-3122
▁மோதல்	-3123
ீஸ்	-3124
▁ஷி	-3125
▁ஒளி	-3126
▁போதை	-3127
▁கண்டறிய	-3128
▁கட்சிகள்	-3129
▁தீர்ப்பு	-3130
▁பேச்சுவார்த்தை	-3131
ுவை	-3132
▁ஓர்	-3133
ின்று	-3134
▁உட்க	-3135
▁பெட்ரோ	-3136
▁அலங்கார	-3137
ட்ஸ்	-3138
▁மீன்	-3139
வதற்காக	-3140
▁மதிப்பு	-3141
▁வழக்கம்	-3142
ிருந்தனர்	-3143
▁பொருட்களை	-3144
▁விவசாயிகள்	-3145
al	-3146
ஜெ	-3147
▁டிச	-3148
▁ரவி	-3149
ாதாரண	-3150
வியில்	-3151
▁ார்கள்	-3152
▁நினைக்க	-3153
▁நேரடியாக	-3154
▁விநாயகர்	-3155
▁எதிர்த்து	-3156
▁சவ	-3157
▁வலு	-3158
▁தினமும்	-3159
▁இரண்டாம்	-3160
ளே	-3161
ளுடைய	-3162
▁ஆன்லை	-3163
▁கடிதம்	-3164
▁கலந்துரையா	-3165
்துறை	-3166
▁நீட்	-3167
ட்சித்	-3168
▁பதவிய	-3169
▁ஆங்கில	-3170
வாதம்	-3171
▁வீதி	-3172
ப்பும்	-3173
▁அங்கீ	-3174
▁செல்க	-3175
▁பகிர்ந்து	-3176
லாக்க	-3177
▁கிரக	-3178
▁ஓட்டு	-3179
▁வுடன்	-3180
▁என்னு	-3181
ஞ்	-3182
▁தில்	-3183
▁தீர்வு	-3184
லூர்	-3185
▁கொழும்	-3186
▁பிரதிநிதி	-3187
▁இடி	-3188
க்கர்	-3189
▁மகாராஷ்டிரா	-3190
▁ரொ	-3191
▁தம்ப	-3192
ப்பட்டன	-3193
▁நேரில்	-3194
▁குற்றம்சா	-3195
▁மட	-3196
▁அங்கே	-3197
▁அதைத்	-3198
▁மூலமாக	-3199
குதியில்	-3200
▁இவ்வாறு	-3201
▁பஞ்சாப்	-3202
▁பெயரில்	-3203
▁நாட்களில்	-3204
ுந்த	-3205
▁அமித்	-3206
▁உள்ளே	-3207
▁சூழல்	-3208
▁ஏப்ரல்	-3209
▁அரசாங்கம்	-3210
ாராய	-3211
▁ாலும்	-3212
▁நன்ற	-3213
▁இறந்த	-3214
▁ரூபாய	-3215
▁ஆகியவை	-3216
▁கொண்டே	-3217
▁தொகுதியில்	-3218
▁உறுப்பினர்கள்	-3219
கமாக	-3220
▁அதோடு	-3221
▁செயல்படுத்த	-3222
▁மொழ	-3223
▁செவ்வ	-3224
▁வெளியான	-3225
▁m	-3226
▁போய	-3227
▁திராவிட	-3228
.2	-3229
▁மீட்ப	-3230
▁தயாராக	-3231
▁மில்லியன்	-3232
▁்க	-3233
▁கணவர்	-3234
▁ுகிறது	-3235
▁படத்தில்	-3236
▁ராஜ்	-3237
▁ஆட்சியை	-3238
▁கொடி	-3239
▁உள்ளதாக	-3240
▁அழைத்துச்	-3241
ுறவு	-3242
▁பான	-3243
▁மீட்க	-3244
▁உத்தரவு	-3245
▁ங்களில்	-3246
▁தொடர்ச்ச	-3247
▁பக்தர்களுக்கு	-3248
▁அல்	-3249
▁பயங்கர	-3250
▁வெறும்	-3251
்டோபர்	-3252
புரி	-3253
▁கிற	-3254
▁ராஜா	-3255
▁கவுன்	-3256
ெனவே	-3257
▁பாண்ட	-3258
▁மரியா	-3259
▁பிரிட்ட	-3260
▁நம்பிக்க	-3261
▁இடம்பெற்ற	-3262
சாலை	-3263
நிலைய	-3264
▁உயர்த்த	-3265
▁ஏற்கெனவே	-3266
▁என்பவர்	-3267
▁லே	-3268
▁இலவச	-3269
▁சித்த	-3270
▁வருவது	-3271
▁பேராசிரியர்	-3272
மன்	-3273
▁உயிர்	-3274
▁வீழ்த்த	-3275
▁திருச்சி	-3276
▁குள	-3277
▁விய	-3278
▁வீச	-3279
▁கட்சியில்	-3280
▁ிற	-3281
▁சாத்திய	-3282
▁தீவிரமாக	-3283
▁நடவடிக்கைகள்	-3284
▁வைக்கப்பட்ட	-3285
இல்	-3286
▁சபா	-3287
▁சந்தேக	-3288
▁திட்டத்தின்	-3289
▁கௌரவ	-3290
ப்பதிவு	-3291
▁உள்ளூர்	-3292
▁அடிக்கடி	-3293
▁அணுக	-3294
▁வடிவ	-3295
▁தெரிந்து	-3296
▁பேசுவ	-3297
▁2020	-3298
▁புதுச்சே	-3299
மொழி	-3300
▁கோரி	-3301
▁சகோதர	-3302
ேக்	-3303
▁மரு	-3304
ஸ்டர்	-3305
சியில்	-3306
▁விவாத	-3307
▁பத்திர	-3308
ச்செய	-3309
▁எம்பி	-3310
▁இத்தகைய	-3311
▁ஒத்துழை	-3312
▁கொடுப்ப	-3313
சோதா	-3314
▁நமக்கு	-3315
▁வேகமாக	-3316
▁சேர்ந்தவர்	-3317
த்ரா	-3318
▁உங்க	-3319
ென்றால்	-3320
▁எண்ணெய்	-3321
▁விமர்சன	-3322
▁வாரம்	-3323
▁பிப்ரவரி	-3324
கிரி	-3325
▁செல்போ	-3326
▁நினைவு	-3327
▁நிகழ்வு	-3328
▁வேட்பாளர்	-3329
▁வாச	-3330
வித	-3331
ம்பா	-3332
ாய்வு	-3333
▁தமிழகம்	-3334
▁சித	-3335
▁செப்ட	-3336
▁சமர்	-3337
▁வரவேற்ப	-3338
▁வார்த்தை	-3339
▁பயன்	-3340
▁நிமிட	-3341
▁காட்டி	-3342
▁விஷயம்	-3343
▁கட்சியை	-3344
▁அலுவலகத்தில்	-3345
ரிமை	-3346
▁பிடித்த	-3347
▁அன்ப	-3348
▁வணிக	-3349
▁ுவது	-3350
▁உறவின	-3351
▁ஆகஸ்ட்	-3352
▁இங்கில	-3353
▁முழுக்க	-3354
லியா	-3355
▁காப்பா	-3356
▁களிலும்	-3357
▁செயல்பட	-3358
▁ஏற்படுத்திய	-3359
றையும்	-3360
ேந்திர	-3361
▁மண்டல	-3362
ம்பர	-3363
வாய்	-3364
▁அலை	-3365
▁விந	-3366
வாளர்	-3367
▁வலுவ	-3368
வர்களை	-3369
▁மசோதா	-3370
▁முகமது	-3371
▁சேர்த்த	-3372
ர்களுடன்	-3373
▁செயல்பட்டு	-3374
டுகிறார்	-3375
ினம்	-3376
▁ஆதரவாக	-3377
▁ஆதார	-3378
▁இங்கே	-3379
▁அமைச்சர்கள்	-3380
ஸை	-3381
▁மகள்	-3382
ப்பூர்	-3383
▁வழிபாடு	-3384
▁இருப்பதால்	-3385
▁கிராமத்தில்	-3386
▁எனப்	-3387
▁பணிய	-3388
▁ஓய்வு	-3389
▁நடத்தினர்	-3390
▁உதவ	-3391
▁இன்றைய	-3392
▁(2	-3393
▁உறவு	-3394
▁போலவே	-3395
்குமார்	-3396
▁உலகின்	-3397
▁வித்தியாச	-3398
பய	-3399
ஸி	-3400
▁வேத	-3401
▁அண்ணா	-3402
▁ஆணையம்	-3403
▁சட	-3404
▁காரை	-3405
வையில்	-3406
டுகளில்	-3407
▁சாப்பிட	-3408
▁சட்டத்தின்	-3409
.,	-3410
வக	-3411
ம்ஸ்	-3412
▁ஆரோ	-3413
▁கனடா	-3414
▁பதவியை	-3415
▁முடிவுகள்	-3416
▁ிருந்தார்	-3417
▁அங்கிருந்து	-3418
▁மருத்துவமனைக்கு	-3419
ரால்	-3420
▁பராம	-3421
▁நின்று	-3422
▁மாற்றி	-3423
▁டெல்லியில்	-3424
▁ஊழிய	-3425
▁அடித்து	-3426
▁உச்சநீதிமன்ற	-3427
nd	-3428
ம்பரம்	-3429
▁விக்ரமசிங்க	-3430
ண்ணை	-3431
▁இசை	-3432
ற்கால	-3433
▁தெலு	-3434
▁யானை	-3435
▁தியாக	-3436
▁வைரஸ்	-3437
ால்தான்	-3438
▁வங்கதேச	-3439
▁போட்டிகளில்	-3440
▁அன்ற	-3441
▁கட்டண	-3442
▁மூலாத	-3443
▁ஹமாஸ்	-3444
▁யிலும்	-3445
▁இஸ்லாமிய	-3446
▁விசாரணையில்	-3447
ஹ்	-3448
▁தர்ம	-3449
டைந்து	-3450
▁ஒற்றை	-3451
▁கருணா	-3452
▁கர்நாடக	-3453
ட்டப்பட்ட	-3454
▁அடையாளம்	-3455
▁அதிர்ச்சி	-3456
▁எழுதி	-3457
▁நகரில்	-3458
▁பெறும்	-3459
▁பேருக்கு	-3460
வேளை	-3461
▁அத்துடன்	-3462
▁பதிவிட்டு	-3463
▁ஏற்படுத்தும்	-3464
▁போராட்டத்தில்	-3465
▁29	-3466
▁ஏழு	-3467
▁பல்ல	-3468
▁பிரச	-3469
▁சர்மா	-3470
க்கப்பட்டுள்ள	-3471
▁வீரர்	-3472
▁கணக்கு	-3473
▁மூலாதாரம்	-3474
்தா	-3475
▁ஓடி	-3476
▁னார்	-3477
▁விற்க	-3478
▁பழங்கு	-3479
▁விசாரித்த	-3480
ண்மை	-3481
▁இழு	-3482
▁உழை	-3483
▁அரசியல	-3484
▁அமலாக்க	-3485
▁முன்பாக	-3486
ியம்மன்	-3487
▁யாத	-3488
▁சாமி	-3489
ணியில்	-3490
▁மோசடி	-3491
▁வருகை	-3492
க்கூடாது	-3493
▁லீ	-3494
▁காவி	-3495
▁முடிந்தது	-3496
ராஜன்	-3497
ட்டல்	-3498
▁காலி	-3499
▁விடுத்து	-3500
▁விளக்கம்	-3501
▁க்கூடிய	-3502
▁அரசியலில்	-3503
்பு	-3504
▁ஐரோ	-3505
வதில்	-3506
▁சிறி	-3507
▁மற	-3508
▁அணை	-3509
▁கம்	-3510
ர்களா	-3511
ிற்று	-3512
▁அன்ன	-3513
▁அறிவித்த	-3514
▁முடியாமல்	-3515
▁உலகம்	-3516
▁தரும்	-3517
▁படிக்க	-3518
▁அணிக்கு	-3519
▁ஒன்றில்	-3520
▁உயர்நீதிமன்ற	-3521
ூப்	-3522
▁கவி	-3523
ங்கம்	-3524
▁அறிய	-3525
▁இளைஞர்	-3526
டே	-3527
▁/	-3528
▁பெண்களுக்கு	-3529
ியே	-3530
தத்தை	-3531
▁வல்ல	-3532
▁ஒட்டு	-3533
▁ஜனவரி	-3534
▁பொதுவாக	-3535
▁அடிப்படை	-3536
▁எதிர்பார்	-3537
▁இளம்	-3538
▁வீட்ட	-3539
▁வெளியுறவு	-3540
இந்த	-3541
க்கட்ட	-3542
▁விதமாக	-3543
▁அக்டோபர்	-3544
▁மாநகராட்சி	-3545
▁இருக்கிறார்கள்	-3546
▁நடவடிக்கைகளை	-3547
▁G	-3548
சரி	-3549
ிலி	-3550
▁ர்	-3551
ங்களால்	-3552
ப்படவில்லை	-3553
▁ரை	-3554
▁பணிகளை	-3555
▁அளித்து	-3556
▁ங்களும்	-3557
▁கொட	-3558
விடம்	-3559
▁கிரி	-3560
▁பாலாஜி	-3561
▁இடைய	-3562
▁தலைய	-3563
▁சென்றனர்	-3564
▁(1	-3565
▁198	-3566
▁கடவு	-3567
▁பள்ளியில்	-3568
▁V	-3569
▁d	-3570
சில்	-3571
▁விண்	-3572
தத்தில்	-3573
▁இதனிடையே	-3574
▁ஃப்	-3575
▁சது	-3576
திகள்	-3577
▁ஆனாலும்	-3578
▁ற	-3579
▁இங்க	-3580
▁பெட்ரோல்	-3581
ஷம்	-3582
ையம்	-3583
▁ஊழல்	-3584
▁உதவிய	-3585
▁வெப்ப	-3586
வரையும்	-3587
▁சாதாரண	-3588
▁அனைத்தும்	-3589
வள	-3590
▁சல	-3591
ஜித்	-3592
▁தொடர்ச்சியாக	-3593
▁அவற்றை	-3594
▁வடக்கு	-3595
▁31	-3596
▁உண்ட	-3597
ில்தான்	-3598
▁என்னுடைய	-3599
▁வீட்டிற்கு	-3600
▁சேக	-3601
▁பெயரை	-3602
▁ஆரோக்கிய	-3603
▁எழுந்தரு	-3604
▁யிலிருந்து	-3605
▁விக்கெட்டு	-3606
வுட்	-3607
ங்கானா	-3608
▁அமைச்சரவை	-3609
▁என்றாலும்	-3610
▁கட்டுப்படுத்த	-3611
▁சிபி	-3612
▁தமது	-3613
▁கொடிய	-3614
▁திருந	-3615
▁பொருத்த	-3616
▁கொடுக்கும்	-3617
க்கணி	-3618
சிக்க	-3619
▁அம்ம	-3620
▁அடித்த	-3621
▁அமைக்க	-3622
▁பிடிக்க	-3623
▁டிசம்பர்	-3624
▁கலந்துகொண்ட	-3625
பட	-3626
ீன	-3627
▁ஒன்றிய	-3628
▁குறைவாக	-3629
▁அதிமுகவில்	-3630
▁அனைவருக்கும்	-3631
▁வழங்கப்பட்டது	-3632
வரு	-3633
▁விசே	-3634
▁புதிதாக	-3635
ருப்த	-3636
▁நடிகை	-3637
▁முற்ற	-3638
▁காலமாக	-3639
▁விடுத்த	-3640
▁அதிருப்த	-3641
முத	-3642
▁விருப்ப	-3643
▁விரும்புக	-3644
▁கொல்லப்பட்ட	-3645
வதி	-3646
▁சாதனை	-3647
▁முத்து	-3648
▁முக்கியத்துவம்	-3649
ரிகள்	-3650
▁யிடம்	-3651
▁தூக்கி	-3652
▁கொண்டது	-3653
▁அபிஷேகம்	-3654
▁இடையிலான	-3655
▁சென்றார்	-3656
▁மூன்றாவது	-3657
▁திட்டங்கள்	-3658
▁அழ	-3659
▁உயிர	-3660
▁வயதான	-3661
ப்பிரமண	-3662
▁பாஜகவின்	-3663
▁துப்பாக்கி	-3664
▁L	-3665
▁தொக	-3666
த்தைப்	-3667
▁வழக்கை	-3668
▁தீர்த்த	-3669
ஸில்	-3670
▁அரை	-3671
▁முன	-3672
▁வானி	-3673
றையின்	-3674
▁நன்றாக	-3675
▁ரயில்வே	-3676
▁வாழ்த்து	-3677
▁கூறுகின்றனர்	-3678
▁வர்த்தக	-3679
▁பொறுத்தவரை	-3680
▁ுகிறார்கள்	-3681
▁செய்யப்படும்	-3682
பாக	-3683
டனான	-3684
ிழமை	-3685
▁ஆச்ச	-3686
▁தெரு	-3687
▁கேப்டன்	-3688
▁தகவல்களை	-3689
▁நாட்களாக	-3690
விக்க	-3691
▁பாலி	-3692
▁இறந்து	-3693
▁அவரிடம்	-3694
▁பொதுச்செய	-3695
.30	-3696
▁திறந்து	-3697
▁ங்களுக்கு	-3698
▁முடிவுக்கு	-3699
▁F	-3700
ையோ	-3701
▁லோ	-3702
▁மைதான	-3703
▁ஒப்படை	-3704
▁துறையில்	-3705
▁ஆச	-3706
▁அஸ்	-3707
▁லக்	-3708
▁சிக்	-3709
▁நன்மை	-3710
▁பகவான்	-3711
▁கொஞ்சம்	-3712
▁ஆட்சிக்கு	-3713
▁ட்விட்டர்	-3714
▁எச்சரிக்கை	-3715
▁தெய்	-3716
▁காதல்	-3717
▁தவிர்க்க	-3718
▁h	-3719
▁தக	-3720
▁கண்	-3721
▁பத்து	-3722
▁முதன்	-3723
▁த்தால்	-3724
▁சமர்ப்பி	-3725
▁சொந்தமான	-3726
▁அறை	-3727
ப்பன்	-3728
▁நீடி	-3729
▁அன்பு	-3730
ையிலும்	-3731
▁பெற்றது	-3732
▁பயணிகள்	-3733
▁எல்	-3734
▁களே	-3735
▁தானே	-3736
▁மாணவர்	-3737
▁வழக்கறிஞர்	-3738
▁சன	-3739
▁மீட்டர்	-3740
ணும்	-3741
▁ஆத்	-3742
ெனில்	-3743
▁போதே	-3744
▁நன்றி	-3745
▁மையம்	-3746
▁பிரதான	-3747
க்குமார்	-3748
am	-3749
▁‛	-3750
ாடி	-3751
▁ள்	-3752
▁இதன்ப	-3753
▁பூஜைகள்	-3754
▁மாதத்தில்	-3755
▁பயிற்ச	-3756
▁ஏற்படுத்தியது	-3757
ஃப	-3758
▁சஞ்ச	-3759
▁நியம	-3760
▁ஆசிரியர்	-3761
▁திட்டமிட்டு	-3762
ணய	-3763
தியம்	-3764
▁மீட்பு	-3765
▁குடியரசுத்	-3766
வூ	-3767
மழை	-3768
▁35	-3769
வரான	-3770
▁உயர	-3771
▁மாள	-3772
ண்டில்	-3773
▁ரன்களை	-3774
▁கொள்ளும்	-3775
▁வைத்தார்	-3776
▁முர	-3777
▁குதி	-3778
▁இலங்கையின்	-3779
▁சம்பந்தப்பட்ட	-3780
ரூ	-3781
▁்	-3782
ச்சார	-3783
ந்தைய	-3784
▁தொடர	-3785
▁அதிகாலை	-3786
த்தே	-3787
▁ரன்	-3788
முதல்	-3789
▁வருமானம்	-3790
▁இருந்தனர்	-3791
▁ராஜஸ்தான்	-3792
▁மாணவர்களுக்கு	-3793
மலா	-3794
▁எழுத	-3795
▁துடன்	-3796
▁நிலையம்	-3797
▁முன்னர்	-3798
ணன்	-3799
▁ஆண்	-3800
▁தடுப்பூசி	-3801
லால்	-3802
▁இதேபோ	-3803
▁பதிலாக	-3804
▁செயல்பா	-3805
▁வரலாற்று	-3806
▁கிடைத்தது	-3807
es	-3808
▁நெடு	-3809
▁ஸ்தான	-3810
▁மிகுந்த	-3811
▁வாக்குகள்	-3812
ளான	-3813
்பா	-3814
▁ுப	-3815
ழில்	-3816
▁பசு	-3817
களைப்	-3818
▁திரும்பி	-3819
▁ுகின்றனர்	-3820
ப்பிடி	-3821
▁எல்லோ	-3822
▁சீரிய	-3823
▁இதுதான்	-3824
▁செப்டம்பர்	-3825
ோட	-3826
▁இறை	-3827
▁சவு	-3828
ினாமா	-3829
▁கடின	-3830
▁புனித	-3831
▁அழைப்பு	-3832
▁ஆன்லைன்	-3833
▁ுவதற்கு	-3834
▁பூர்	-3835
ப்பூர்வ	-3836
▁கடந்து	-3837
▁ப்பட்டது	-3838
க்கர	-3839
▁கதா	-3840
▁இதுத	-3841
▁ராம்	-3842
▁நிவார	-3843
▁பதிவாக	-3844
▁கொண்டுவ	-3845
▁ஒதுக்கீடு	-3846
▁u	-3847
▁ஹா	-3848
ப்பதை	-3849
▁கிறி	-3850
▁கோர	-3851
▁குரல்	-3852
▁எழுப்ப	-3853
▁த்திலும்	-3854
▁ரஜ	-3855
▁முட	-3856
மூலம்	-3857
▁வன்கொ	-3858
▁தனியாக	-3859
▁கொழும்பு	-3860
▁ஏவுக	-3861
▁வன்கொடு	-3862
▁பெற்றோர்	-3863
▁ப்படவில்லை	-3864
.4	-3865
▁v	-3866
▁தாண்டி	-3867
▁படுத்த	-3868
▁பொதுச்	-3869
▁தெரியவந்தது	-3870
▁துரு	-3871
▁கல்யா	-3872
▁மகளிர்	-3873
▁வானிலை	-3874
திக	-3875
▁ஆஜ	-3876
▁அஞ்ச	-3877
▁சேலம்	-3878
▁முதலீ	-3879
ரெ	-3880
▁அப்	-3881
▁ரூபா	-3882
▁சிக்கிய	-3883
▁ராஜினாமா	-3884
டுக்கப்பட்ட	-3885
▁என்கிறார்கள்	-3886
▁வெளிப்படுத்த	-3887
பக்	-3888
ழுது	-3889
▁அதிப	-3890
▁நவீன	-3891
ட்டினார்	-3892
பான	-3893
ுகொ	-3894
▁70	-3895
▁ரயில	-3896
▁மேலாக	-3897
▁சதவீதம்	-3898
▁படத்தின்	-3899
▁வருகிறோம்	-3900
▁வலைதளங்களில்	-3901
ச்சூ	-3902
▁அவசர	-3903
▁கில்	-3904
நாயக்க	-3905
▁நடித்த	-3906
▁கேட்டுக்	-3907
▁ஊழியர்கள்	-3908
▁ஆஸ்திரேலியா	-3909
மக	-3910
▁சவால	-3911
▁அச்சு	-3912
▁முருக	-3913
▁தடுப்பு	-3914
▁துவங்கியது	-3915
்ட்ட	-3916
▁கீழே	-3917
விடும்	-3918
▁வீசிய	-3919
▁சிக்கி	-3920
▁நல்லது	-3921
ஸின்	-3922
ாராம்	-3923
▁நிரூ	-3924
▁பத்திரிகைய	-3925
மொத்த	-3926
▁ிறது	-3927
▁காந்த	-3928
▁ஜனாதிப	-3929
ப்பிரிக்க	-3930
▁வன்கொடுமை	-3931
▁ஒட்டுமொத்த	-3932
சேனா	-3933
நேரம்	-3934
▁பந்த	-3935
▁உள்ப	-3936
▁பார்வை	-3937
▁தங்களுக்கு	-3938
▁விசாரணைக்கு	-3939
▁தும்	-3940
ியுள்ள	-3941
▁பொருள்	-3942
▁போன்றவ	-3943
நல	-3944
▁என்றே	-3945
▁முன்னே	-3946
▁இந்தியாவுக்கு	-3947
வைத்	-3948
டியான	-3949
▁எத்தனை	-3950
▁சர்ச்ச	-3951
▁உதயநிதி	-3952
▁கட்டணம்	-3953
▁சாலையில்	-3954
▁டொ	-3955
ராட்ச	-3956
▁சதவீத	-3957
▁இயற்கை	-3958
▁சிறுமி	-3959
▁வாய்ந்த	-3960
▁அப்படியே	-3961
▁பங்கேற்க	-3962
▁தனிப்பட்ட	-3963
்த்	-3964
▁காலக	-3965
▁ஆக்கிர	-3966
ிலிருந்த	-3967
▁n	-3968
்யா	-3969
▁சௌ	-3970
த்தட்ட	-3971
மில்லை	-3972
ரிப்பு	-3973
▁போகும்	-3974
▁பிறப்பி	-3975
ங்களையும்	-3976
▁ிருக்கிறார்கள்	-3977
வேன்	-3978
த்தான	-3979
▁அருள்	-3980
▁தீர்மானம்	-3981
ணமாக	-3982
▁2018	-3983
▁ுகிற	-3984
▁நின்ற	-3985
▁இருந்தன	-3986
▁எனினும்	-3987
▁ஆக்கிரமி	-3988
▁எண்ணிக்க	-3989
▁கோலி	-3990
▁விசாரிக்க	-3991
▁ஆப்	-3992
▁னால்	-3993
▁குண்ட	-3994
▁கூறும்	-3995
▁அறநிலைய	-3996
▁விமர்சனம்	-3997
▁செய்துள்ளார்	-3998
கால	-3999
▁குமார	-4000
▁சற்று	-4001
▁வட்டார	-4002
▁முதல்வராக	-4003
▁கொண்டிருக்கிறது	-4004
▁இரா	-4005
▁தேச	-4006
ம்பரிய	-4007
▁டெஸ்ட்	-4008
▁தெளிவாக	-4009
▁பொங்கல்	-4010
▁காவல்துறையினர்	-4011
ிங்	-4012
▁75	-4013
▁நொ	-4014
வரது	-4015
▁ஆயு	-4016
▁சும	-4017
▁போன்	-4018
▁ஒழுங்கு	-4019
▁ஆராய்ச்சி	-4020
▁முழ	-4021
▁ான்	-4022
▁பிற்ப	-4023
▁நூற்றா	-4024
▁நவம்பர்	-4025
▁நிறுத்தி	-4026
▁கிட்டத்தட்ட	-4027
கும்	-4028
▁ட்ட	-4029
▁உரிமைய	-4030
▁பாரம்பரிய	-4031
▁எதிர்பார்த்த	-4032
▁மாதங்களுக்கு	-4033
▁விச	-4034
▁ஆஃப்	-4035
▁மன்ன	-4036
▁கோப்பை	-4037
ஸ்டாலின்	-4038
▁திட்டங்களை	-4039
▁ஆகி	-4040
▁வசூ	-4041
▁சிவா	-4042
▁கொல்க	-4043
▁திடீர்	-4044
▁இதற்கான	-4045
▁இளைஞர்கள்	-4046
▁பார்க்கலாம்	-4047
சன	-4048
ion	-4049
▁னை	-4050
▁ஆப்க	-4051
▁கற்ப	-4052
▁கேது	-4053
▁வால்	-4054
ளையும்	-4055
▁தொழிற	-4056
வாய்ப்ப	-4057
▁என்பதே	-4058
▁கூறுகிறது	-4059
டிவி	-4060
▁கேம	-4061
▁திண்டு	-4062
▁பேரும்	-4063
பன்னீர்செல்வம்	-4064
▁அகில	-4065
▁ஆர்வ	-4066
▁மீட்ட	-4067
▁விடம்	-4068
▁விற்கு	-4069
▁அங்குள்ள	-4070
▁கொல்கத்தா	-4071
▁கள்ளக்குறி	-4072
▁மேம்படுத்த	-4073
ஞ்ஞ	-4074
வேல்	-4075
▁ஜென	-4076
▁ஞாய	-4077
ாகும்	-4078
▁உணர்	-4079
▁வாங்கிய	-4080
▁த்திலிருந்து	-4081
▁மருத்துவர்கள்	-4082
▁குடும்பத்தினர்	-4083
்ச்ச	-4084
▁ரகசிய	-4085
▁தெரிந்த	-4086
▁நிச்சயம்	-4087
▁கொண்டிருக்கும்	-4088
▁பாதை	-4089
▁பங்களி	-4090
▁செலுத்தி	-4091
▁முஸ்லிம்	-4092
▁வாய்ப்புகள்	-4093
புறம்	-4094
▁சிறும	-4095
▁பண்ணி	-4096
▁வரலாறு	-4097
▁80	-4098
▁பிள்ளை	-4099
▁தொடரில்	-4100
▁ிருக்கின்றனர்	-4101
லன்	-4102
லான	-4103
▁ச்ச	-4104
▁தயா	-4105
▁பிள	-4106
▁கேரள	-4107
▁இலக்கு	-4108
▁போன்று	-4109
▁நாடுகளின்	-4110
▁செய்துள்ளனர்	-4111
he	-4112
▁b	-4113
விரோ	-4114
▁கலவர	-4115
▁சமீப	-4116
▁தகுதி	-4117
▁முருகன்	-4118
▁ஏற்பாடுகளை	-4119
வரில்	-4120
▁காணி	-4121
▁விகி	-4122
ப்பதற்காக	-4123
ic	-4124
▁சன்	-4125
▁மாறு	-4126
▁தவறான	-4127
▁ஏதாவது	-4128
▁களிடம்	-4129
▁நிறைவு	-4130
▁பிரதேசத்தில்	-4131
▁ஜீ	-4132
▁மம	-4133
▁நடிக	-4134
▁நாராய	-4135
▁கட்டாய	-4136
▁செயற்கை	-4137
▁வாக்குறு	-4138
▁எதிர்கொள்ள	-4139
▁ஏற்பா	-4140
▁வயதில்	-4141
▁197	-4142
▁மோத	-4143
ச்சாமி	-4144
▁விஞ்ஞ	-4145
▁உணர்வு	-4146
▁தங்கம்	-4147
▁குறைக்க	-4148
ணர்வு	-4149
▁நாணய	-4150
▁உள்பட	-4151
▁சந்தை	-4152
▁அதற்காக	-4153
▁குடியிரு	-4154
டான	-4155
▁வது	-4156
▁சூர்	-4157
▁னின்	-4158
▁ஹிஜா	-4159
ப்பான்	-4160
▁வெல்ல	-4161
ர்களுக்கும்	-4162
▁O	-4163
ழிவு	-4164
ப்பாள	-4165
▁ஓட்ட	-4166
ங்கில்	-4167
▁அக்னி	-4168
களிலும்	-4169
▁ஏவுகணை	-4170
▁செய்துள்ளது	-4171
▁வசித்து	-4172
▁2,	-4173
வொரு	-4174
ாலின	-4175
▁500	-4176
▁உதார	-4177
▁நாட்ட	-4178
▁தமிழர்	-4179
க்கூடும்	-4180
விட்டால்	-4181
▁கட்சிக்கு	-4182
▁முது	-4183
ளிலும்	-4184
வதில்லை	-4185
▁தெற்கு	-4186
▁னுக்கு	-4187
ிருப்பது	-4188
▁ிருப்பது	-4189
▁இதற்கிடையே	-4190
▁சம்பவங்கள்	-4191
▁ன்னு	-4192
▁பேரை	-4193
த்திரம்	-4194
▁உயர்வு	-4195
▁கண்டறி	-4196
லிருந்து	-4197
▁தொடர்புடைய	-4198
▁புதுச்சேரி	-4199
ராஜா	-4200
▁கடற்க	-4201
த்திலேயே	-4202
▁தொடர்ந்த	-4203
▁ாது	-4204
▁அணிய	-4205
▁பரவி	-4206
▁நான்க	-4207
ையொட்டி	-4208
▁அமைச்சராக	-4209
▁போட்டியிட்ட	-4210
யல்	-4211
வளி	-4212
பட்டு	-4213
▁நம்ம	-4214
▁பருவ	-4215
▁அமைதி	-4216
▁மரியாதை	-4217
▁ுகிறார்	-4218
▁விட்டனர்	-4219
▁பந்துவீச்ச	-4220
▁f	-4221
ாலே	-4222
▁ஞான	-4223
▁அதிரடி	-4224
▁நம்புக	-4225
▁நினைத்த	-4226
▁வெற்றியை	-4227
▁நீதிபதிகள்	-4228
▁ப்பட்டுள்ளது	-4229
▁ராய	-4230
▁மயில	-4231
▁அறுவை	-4232
▁உலகக்	-4233
▁அறிவியல்	-4234
▁இருக்காது	-4235
▁வர்களுக்கு	-4236
▁கூட்டணியில்	-4237
▁நடைபெறுகிறது	-4238
வான்	-4239
ார்ட்	-4240
▁முடிந்து	-4241
▁சந்திப்பு	-4242
▁செய்துள்ள	-4243
▁நகர்ப்புற	-4244
டனும்	-4245
ந்தனை	-4246
▁தக்க	-4247
▁நிரூபி	-4248
▁இடையில்	-4249
▁தங்களின்	-4250
▁வசிக்கும்	-4251
ொடர்	-4252
▁இந்தி	-4253
▁காப்ப	-4254
▁செயலக	-4255
▁வழியில்	-4256
▁விண்வெளி	-4257
▁பெரும்பான்	-4258
ம்மா	-4259
ம்மு	-4260
▁பெய்ய	-4261
▁பேரில்	-4262
▁அதிகபட்ச	-4263
▁வைக்கும்	-4264
▁ஆதரவாளர்கள்	-4265
▁மசூ	-4266
▁உடலை	-4267
▁அழைக்க	-4268
▁அமைப்பின்	-4269
▁கழு	-4270
▁மனோ	-4271
▁ஆற்ற	-4272
▁தோடு	-4273
த்தைக்	-4274
▁முன்னில	-4275
▁இருப்பதை	-4276
▁இருந்தும்	-4277
▁மகிழ்ச்சி	-4278
▁தூத்துக்கு	-4279
ஸ்க்	-4280
▁சுழ	-4281
விலான	-4282
▁தயார்	-4283
▁சிவசேனா	-4284
▁படித்து	-4285
▁மன்	-4286
▁திணை	-4287
▁விக்	-4288
▁திறன்	-4289
▁பேசின	-4290
▁வெளியில்	-4291
▁வலியுறுத்தி	-4292
வகு	-4293
▁அன	-4294
▁னும்	-4295
▁திண்டுக்கல்	-4296
▁பயன்படுத்து	-4297
பன்	-4298
▁உர	-4299
▁மட்ட	-4300
▁ஆத்மி	-4301
ங்களிடம்	-4302
▁சட்டவிரோ	-4303
▁H	-4304
ஜன்	-4305
ியூ	-4306
▁ுமா	-4307
ுரிமை	-4308
▁ஜனதா	-4309
▁முகா	-4310
▁.....	-4311
▁திரைய	-4312
ிடமிருந்து	-4313
▁கொள்ளலாம்	-4314
▁பிராந்திய	-4315
▁இப்	-4316
தானம்	-4317
▁கற்று	-4318
▁ரொம்ப	-4319
▁பிபிசிய	-4320
க்குழுவ	-4321
▁ஆசிரிய	-4322
▁க்குள்	-4323
▁உள்துறை	-4324
▁கோவிலுக்கு	-4325
▁கனி	-4326
▁எரிப	-4327
▁முனை	-4328
▁ரன்க	-4329
▁இடைக்கால	-4330
▁கவுன்சில	-4331
▁ஆயிரக்கணக்கான	-4332
▁ராக	-4333
▁வெறு	-4334
▁பிரான்	-4335
▁தேர்தலை	-4336
▁வைத்திய	-4337
சீ	-4338
ேப	-4339
▁தற்கு	-4340
▁பாஜகவுக்கு	-4341
▁இருப்பதாகவும்	-4342
தீ	-4343
▁மூட	-4344
▁பட்டா	-4345
▁பிரசா	-4346
▁பிரிய	-4347
▁ப்படு	-4348
லத்தில்	-4349
▁இரட்டை	-4350
▁முந்தைய	-4351
▁திருக்கோ	-4352
▁குடும்பத்தின	-4353
▁பெரும்பாலும்	-4354
is	-4355
▁அறிக	-4356
▁ராணி	-4357
ப்படுக	-4358
▁கட்டட	-4359
▁சுரங்க	-4360
▁புற்று	-4361
▁ிருப்பதாக	-4362
▁""	-4363
மீர்	-4364
▁காம	-4365
▁ஜாம	-4366
▁2017	-4367
▁இயல்	-4368
▁துரை	-4369
▁மஞ்ச	-4370
வர்த்த	-4371
▁நீங்க	-4372
▁அழுத்த	-4373
▁வீட்டை	-4374
▁விபத்தில்	-4375
▁வேலைவாய்ப்ப	-4376
it	-4377
▁w	-4378
▁பாள	-4379
▁கவர்	-4380
▁வேளா	-4381
பையில்	-4382
▁உற்சாக	-4383
▁கூறியது	-4384
▁சொன்னார்	-4385
▁அனுமதிக்க	-4386
▁ஆகியவற்றை	-4387
▁பாய்	-4388
▁ராமர்	-4389
▁செல்வா	-4390
▁அணியில்	-4391
▁சூப்பர்	-4392
▁உயர்ந்து	-4393
▁விக்கெட்	-4394
▁விழிப்பு	-4395
ச்சல்	-4396
▁இராஜ	-4397
▁தோன்ற	-4398
▁மன்னி	-4399
▁வழிகா	-4400
▁நிலையை	-4401
▁அணிந்து	-4402
▁ராசிக்கார	-4403
ைப்	-4404
▁வண்ண	-4405
▁முடிவெ	-4406
▁முன்பே	-4407
▁மாதிரிய	-4408
▁காலங்களில்	-4409
▁பேசுகையில்	-4410
▁ஸ்த	-4411
குமார்	-4412
▁காஞ்சி	-4413
▁நானும்	-4414
▁இவ்வளவு	-4415
▁சார்பாக	-4416
▁அமெரிக்காவின்	-4417
றித	-4418
▁வேற	-4419
▁நாள்க	-4420
▁அமைந்த	-4421
▁தற்கால	-4422
▁அமைத்து	-4423
▁ஆந்திரா	-4424
▁விமானம்	-4425
▁அதிகாரம்	-4426
▁அழுத்தம்	-4427
▁இதுதொடர்	-4428
▁கட்டுமான	-4429
▁ராசிக்கு	-4430
▁கொடியேற்ற	-4431
▁ஆசை	-4432
▁அனுபவ	-4433
▁ுமாறு	-4434
▁விவாதி	-4435
▁அறிந்து	-4436
▁உண்மையில்	-4437
ப்படுகின்றன	-4438
க்களின்	-4439
▁அதுவும்	-4440
▁புறக்கணி	-4441
▁45	-4442
▁90	-4443
▁பெருமை	-4444
▁ராணுவம்	-4445
பூர்வ	-4446
▁முகாம	-4447
▁அந்தத்	-4448
▁எடுப்ப	-4449
▁வகையான	-4450
▁தேவையில்	-4451
▁வந்துள்ளது	-4452
த்திலிருந்து	-4453
▁சேத	-4454
▁தூத	-4455
▁வார்ட	-4456
▁விசேட	-4457
▁முடிவை	-4458
▁ங்களின்	-4459
▁வந்தால்	-4460
▁ஒப்புதல்	-4461
▁லோக	-4462
முள்ள	-4463
▁மீறி	-4464
▁படத்தை	-4465
▁முன்னோ	-4466
கின்றனர்	-4467
▁பரபரப்பு	-4468
▁செய்யப்பட	-4469
முரு	-4470
ிருப்ப	-4471
▁இறக்கு	-4472
▁வருகிற	-4473
▁தீர்மானி	-4474
▁கும்பாபிஷேகம்	-4475
▁வெளியிட்டுள்ள	-4476
▁எதிர்க்கட்சிகள்	-4477
▁அமல்	-4478
லாந்து	-4479
ாதாரம்	-4480
▁மேயர்	-4481
▁களத்தில்	-4482
வாற	-4483
▁அணு	-4484
▁டிஜ	-4485
▁தடு	-4486
▁தர்	-4487
லாமல்	-4488
▁சமாஜ்	-4489
▁நியாய	-4490
▁வளாகத்தில்	-4491
▁நாம	-4492
▁2014	-4493
▁புள்ளி	-4494
▁துறைமுக	-4495
▁முன்னணி	-4496
▁அனுப்பிய	-4497
▁ஏற்றுமதி	-4498
▁யாருக்கு	-4499
▁இங்கிலாந்து	-4500
ூரு	-4501
ொலை	-4502
னிதா	-4503
▁ஏழை	-4504
▁யோகி	-4505
▁அலுவலகம்	-4506
புர	-4507
வினை	-4508
▁ஜான்	-4509
▁உள்ளட	-4510
▁ுவார்கள்	-4511
▁ஈடுபட்டனர்	-4512
▁நேரங்களில்	-4513
▁பழனிச்சாமி	-4514
▁முன்னிலையில்	-4515
ங்கோ	-4516
னிவா	-4517
▁செயல	-4518
▁நபர்கள்	-4519
யமாக	-4520
▁..!	-4521
▁சேவ	-4522
ரம்ப்	-4523
ளையில்	-4524
▁தீபார	-4525
▁உறுதியாக	-4526
▁வெளியேறி	-4527
▁பில்லியன்	-4528
▁ிருக்கலாம்	-4529
▁மெட்	-4530
▁கருது	-4531
▁இணையதள	-4532
▁எங்களை	-4533
▁கையெழு	-4534
▁விடுமுறை	-4535
▁ுவதற்கான	-4536
▁நடத்தப்பட்ட	-4537
▁ஆடை	-4538
▁பாஸ்	-4539
▁மர்ம	-4540
▁மரணம்	-4541
▁வென்று	-4542
▁தொழிற்ச	-4543
▁செய்யலாம்	-4544
▁கோயிலுக்கு	-4545
▁கள்ளக்குறிச்சி	-4546
ினை	-4547
ல்ஸ்	-4548
▁கமல்	-4549
ையுடன்	-4550
▁பரிசு	-4551
▁காலநிலை	-4552
▁தாக்கிய	-4553
▁குற்றவாள	-4554
▁திருப்பி	-4555
▁அமைந்துள்ளது	-4556
.3	-4557
ற்ச	-4558
வடை	-4559
நான்	-4560
விட்	-4561
▁தீய	-4562
▁பர்	-4563
▁தண்ணீ	-4564
▁பவுண்ட	-4565
▁கட்சித்	-4566
▁தொழிலாள	-4567
▁விட்டதாக	-4568
▁அதிர்ச்சியை	-4569
▁குழந்தைகளுக்கு	-4570
திர்	-4571
▁ுதல்	-4572
▁எட்டு	-4573
▁தள்ளி	-4574
▁படங்கள்	-4575
▁இலங்கைக்கு	-4576
▁பட்டியலில்	-4577
செ	-4578
▁ஆட	-4579
▁சோழ	-4580
▁மிகப்	-4581
▁அறிந்த	-4582
பக்ச	-4583
மானது	-4584
▁மன்ற	-4585
▁இழந்த	-4586
▁ஆப்கானி	-4587
▁ராஜபக்ச	-4588
▁பகுதியாக	-4589
ணாம	-4590
▁கான	-4591
▁வின	-4592
▁தேனி	-4593
▁ஜம்மு	-4594
த்திற்கும்	-4595
▁செயல்பட்ட	-4596
ாசி	-4597
▁ஆணையர்	-4598
▁எழுப்பிய	-4599
▁செய்தால்	-4600
▁ஒப்பந்தம்	-4601
▁கலந்துரையாட	-4602
ள்ப	-4603
தலாக	-4604
்க்கு	-4605
▁கப்பல்	-4606
▁பெற்றார்	-4607
▁திருப்பதி	-4608
ரிக்கப்பட்ட	-4609
▁ப்படுகின்றன	-4610
ரிட	-4611
▁அண்	-4612
ஸ்கர்	-4613
▁சிரம	-4614
▁பிரே	-4615
▁புள்ள	-4616
ப்பிரதேச	-4617
▁வேண்டுமெ	-4618
▁உத்தரப்பிரதேச	-4619
▁செய்யப்பட்டார்	-4620
மற்ற	-4621
யிலை	-4622
▁சந்தோ	-4623
▁சாம்ப	-4624
▁மோகன்	-4625
▁வெள்ளை	-4626
வர்களின்	-4627
ேட்	-4628
▁),	-4629
▁நர	-4630
▁பலன்	-4631
▁தயாரிக்க	-4632
மிடம்	-4633
ையால்	-4634
▁சண்டை	-4635
▁இறங்கி	-4636
▁ஆட்சியர்	-4637
▁குறைந்து	-4638
▁தெரியாது	-4639
▁அதிகரித்துள்ளது	-4640
த்ரி	-4641
ட்சுமி	-4642
ிட்டல்	-4643
▁அகற்ற	-4644
▁தென்க	-4645
▁அபிஷேக	-4646
▁சிக்கல்	-4647
▁எனப்படும்	-4648
▁அமைந்துள்ள	-4649
▁இளைய	-4650
▁நேரு	-4651
▁மணிய	-4652
▁யாதவ்	-4653
▁இழந்து	-4654
▁ஓவரில்	-4655
▁பேசும்	-4656
க்கோட்டை	-4657
▁அமர்ந்த	-4658
▁சான்றித	-4659
▁கருணாநிதி	-4660
ொலி	-4661
▁வான்	-4662
▁நிலம்	-4663
▁நேற்ற	-4664
▁ஹிஜாப்	-4665
▁தலைநகர்	-4666
▁சட்டப்பே	-4667
▁இறுதியில்	-4668
▁சுப்பிரமண	-4669
க்கப்பட்டார்	-4670
▁ிருக்கின்றன	-4671
il	-4672
த்தள	-4673
▁பயன	-4674
ரியும்	-4675
▁ஒற்று	-4676
▁வருவதாகவும்	-4677
▁g	-4678
மென	-4679
மிக்	-4680
ரோடு	-4681
வாரி	-4682
செய்ய	-4683
▁துணி	-4684
▁பகிர	-4685
▁உறுதிய	-4686
ட்டோ	-4687
▁அடைந்து	-4688
▁திருச்ச	-4689
▁குழுவின்	-4690
▁உள்நாட்டு	-4691
▁வழங்கப்பட்ட	-4692
▁ெ	-4693
ாதி	-4694
ழ்வு	-4695
▁எக்	-4696
▁ஒடி	-4697
ழ்ந்த	-4698
▁யோடு	-4699
▁கண்டனம்	-4700
▁களுக்காக	-4701
▁வெளிப்பட	-4702
▁தொண்டர்கள்	-4703
பாச	-4704
▁பொன்	-4705
க்குறை	-4706
▁மோடிய	-4707
▁தற்காலிக	-4708
▁விண்ணப்பி	-4709
▁அச்சுறுத்த	-4710
▁ஆஸ்திரேலிய	-4711
்	-4712
▁	-4713
க	-4714
த	-4715
ி	-4716
ு	-4717
ர	-4718
ப	-4719
ட	-4720
ம	-4721
ா	-4722
வ	-4723
ல	-4724
ன	-4725
ை	-4726
ய	-4727
ற	-4728
ள	-4729
ச	-4730
ந	-4731
.	-4732
அ	-4733
ே	-4734
ண	-4735
இ	-4736
ெ	-4737
ோ	-4738
,	-4739
எ	-4740
ங	-4741
ொ	-4742
ழ	-4743
ீ	-4744
ூ	-4745
ஆ	-4746
உ	-4747
ஸ	-4748
ஜ	-4749
ஒ	-4750
0	-4751
2	-4752
1	-4753
ஏ	-4754
ஷ	-4755
"	-4756
-	-4757
5	-4758
3	-4759
ஹ	-4760
ஞ	-4761
:	-4762
4	-4763
?	-4764
ஓ	-4765
'	-4766
9	-4767
6	-4768
a	-4769
7	-4770
8	-4771
e	-4772
ஊ	-4773
)	-4774
(	-4775
!	-4776
ஐ	-4777
`	-4778
i	-4779
n	-4780
o	-4781
t	-4782
ஈ	-4783
ஃ	-4784
r	-4785
s	-4786
l	-4787
d	-4788
h	-4789
;	-4790
c	-4791
u	-4792
m	-4793
A	-4794
ௌ	-4795
S	-4796
p	-4797
C	-4798
I	-4799
T	-4800
g	-4801
P	-4802
y	-4803
M	-4804
B	-4805
%	-4806
N	-4807
D	-4808
R	-4809
v	-4810
k	-4811
E	-4812
w	-4813
f	-4814
b	-4815
O	-4816
/	-4817
G	-4818
L	-4819
‛	-4820
F	-4821
V	-4822
H	-4823
K	-4824
U	-4825
W	-4826
j	-4827
J	-4828
+	-4829
x	-4830
Y	-4831
&	-4832
z	-4833
X	-4834
#	-4835
*	-4836
Q	-4837
Z	-4838
ஶ	-4839
@	-4840
q	-4841
=	-4842
ा	-4843
_	-4844
₹	-4845
र	-4846
े	-4847
ஔ	-4848
[	-4849
]	-4850
क	-4851
न	-4852
	-4853
्	-4854
$	-4855
ी	-4856
म	-4857
ि	-4858
प	-4859
स	-4860
ं	-4861
ह	-4862
ो	-4863
­	-4864
	-4865
त	-4866
ल	-4867
व	-4868
द	-4869
>	-4870
ग	-4871
௦	-4872
य	-4873
ज	-4874
ब	-4875
£	-4876
श	-4877
ू	-4878
भ	-4879
•	-4880
ા	-4881
~	-4882
°	-4883
ए	-4884
ट	-4885
ध	-4886
	-4887
ु	-4888
ન	-4889
😂	-4890
\	-4891
§	-4892
अ	-4893
ख	-4894
च	-4895
ै	-4896
મ	-4897
‍	-4898
·	-4899
ل	-4900
इ	-4901
ड	-4902
ण	-4903
ष	-4904
જ	-4905
ે	-4906
௧	-4907
௫	-4908
★	-4909
×	-4910
é	-4911
ا	-4912
आ	-4913
ई	-4914
थ	-4915
ौ	-4916
ક	-4917
ત	-4918
ર	-4919
ી	-4920
્	-4921
⁠	-4922
❔	-4923
	-4924
	-4925
<	-4926
õ	-4927
÷	-4928
š	-4929
و	-4930
ي	-4931
औ	-4932
घ	-4933
छ	-4934
़	-4935
।	-4936
ટ	-4937
ય	-4938
વ	-4939
સ	-4940
௨	-4941
௩	-4942
′	-4943
⁄	-4944
●	-4945
◾	-4946
⦁	-4947
^	-4948
{	-4949
}	-4950
®	-4951
Á	-4952
å	-4953
í	-4954
ñ	-4955
ô	-4956
ö	-4957
ł	-4958
ō	-4959
ʻ	-4960
̈	-4961
إ	-4962
د	-4963
ر	-4964
س	-4965
م	-4966
ه	-4967
उ	-4968
फ	-4969
અ	-4970
આ	-4971
ઉ	-4972
ઓ	-4973
ખ	-4974
ણ	-4975
થ	-4976
દ	-4977
પ	-4978
ફ	-4979
ભ	-4980
લ	-4981
િ	-4982
ો	-4983
௬	-4984
௭	-4985
௹	-4986
‟	-4987
€	-4988
⏩	-4989
	-4990
	-4991
👇	-4992
💥	-4993
😊	-4994
😐	-4995
😲	-4996
