<unk>	0
<s>	0
</s>	0
.	-3.14873
்	-3.94409
,	-4.13707
ம்	-4.24375
ு	-4.37172
▁	-4.47813
▁,	-4.65087
ும்	-5.02453
க்	-5.05378
து	-5.06545
ப்	-5.10658
ை	-5.11646
கள்	-5.21716
▁இந்த	-5.35759
ில்	-5.36806
ி	-5.37794
க	-5.40511
த்	-5.42583
ய	-5.44865
ன	-5.51292
யில்	-5.52916
ின்	-5.55083
ன்	-5.55089
ர	-5.57389
க்க	-5.67226
ல்	-5.69191
ிய	-5.73982
யை	-5.78294
ர்	-5.78363
▁என்று	-5.78799
களை	-5.82357
▁.	-5.84614
க்கு	-5.85728
த்தில்	-5.85902
வ	-5.89604
▁"	-5.90861
ா	-5.91811
ார்	-5.92445
▁ஒரு	-5.9317
த்த	-5.93619
ான	-5.9423
▁மற்றும்	-5.948
ாக	-5.95525
ஸ்	-5.96081
▁அ	-5.96429
த்தை	-5.98425
▁என	-5.99227
ல	-6.00806
ுக்கு	-6.04888
ம	-6.08592
ச்	-6.0894
ட்	-6.13469
ப	-6.14803
ே	-6.19701
டி	-6.22431
த	-6.23172
▁அவர்	-6.27298
▁க	-6.28957
▁வேண்டும்	-6.29624
▁க்	-6.30281
மாக	-6.30988
▁ப்	-6.33646
▁தான்	-6.34199
ந்த	-6.38602
ப்ப	-6.38739
ரி	-6.38948
▁அந்த	-6.39063
ால்	-6.40037
சி	-6.42444
தி	-6.44624
▁இ	-6.46447
▁ப	-6.47766
ட	-6.48209
யின்	-6.49835
▁உள்ள	-6.49935
பி	-6.51112
னர்	-6.52807
▁இது	-6.53076
ப்பட்ட	-6.53492
ங்கள்	-6.55286
ங்க	-6.56015
▁வ	-6.56384
▁ஆனால்	-6.56473
▁பல	-6.58226
▁-	-6.59716
களில்	-6.602
:	-6.60632
▁ம	-6.63442
-	-6.65568
வி	-6.67073
▁என்ற	-6.68113
மான	-6.68493
▁'	-6.6879
ப்பு	-6.69922
யும்	-6.70913
▁த்	-6.71984
▁பா	-6.72415
த்தின்	-6.72535
▁கடந்த	-6.73145
▁நிலையில்	-6.73511
வை	-6.73691
ச	-6.74433
?	-6.74456
யாக	-6.74852
▁த	-6.7507
▁ச	-6.75496
த்து	-6.75528
ுள்ளது	-6.75711
வும்	-6.75973
▁வி	-6.77656
▁ஆ	-6.77731
▁(	-6.78165
லி	-6.78224
▁உ	-6.79099
ள	-6.79793
▁இருந்து	-6.79985
▁வந்த	-6.80455
"	-6.80628
▁து	-6.81281
ுள்ள	-6.82038
ிடம்	-6.82605
▁அரசு	-6.82714
ள்	-6.84721
ோ	-6.8644
மை	-6.88646
▁சில	-6.88803
ரா	-6.89407
▁முதல்	-6.91035
▁ந	-6.91569
டு	-6.91779
ஜ	-6.9198
▁சி	-6.92313
▁அவர	-6.92409
தா	-6.93125
வர்	-6.93637
▁என்ன	-6.93803
யா	-6.94418
▁இருந்த	-6.95894
ழ	-6.97543
▁ர	-6.97681
வா	-6.9922
▁மேலும்	-6.99421
▁ம்	-6.99466
▁யும்	-6.99811
னி	-6.99838
▁ஆண்டு	-7.00018
ற்ற	-7.0013
▁சென்னை	-7.00411
ற	-7.00423
தாக	-7.00929
▁செய்ய	-7.01042
வு	-7.01772
ண	-7.021
ரை	-7.02167
▁உள்ளது	-7.02413
▁வர	-7.02497
▁போது	-7.03542
▁மா	-7.03729
▁செய்து	-7.04703
▁ச்	-7.05545
மா	-7.05682
வில்	-7.05717
▁கு	-7.06164
த்தி	-7.07506
பா	-7.0756
▁குறித்து	-7.08215
▁கா	-7.08922
▁மு	-7.09199
▁பு	-7.09437
▁வரும்	-7.09813
மி	-7.09898
▁பட	-7.10274
ீ	-7.10308
▁கொண்டு	-7.1114
லா	-7.11385
▁கட்சி	-7.12395
வே	-7.13398
▁மிக	-7.1374
▁இருக்கும்	-7.13816
▁சு	-7.14962
▁விட	-7.15253
▁தொடர்ந்து	-7.15262
▁..	-7.15404
த்திற்கு	-7.16113
)	-7.16192
▁தேதி	-7.16295
ங்களை	-7.16625
▁அது	-7.16699
▁இல்லை	-7.1679
▁வரை	-7.17155
▁கொண்ட	-7.17194
களுக்கு	-7.17199
வில்லை	-7.17569
ுள்ளார்	-7.17675
▁பி	-7.19498
▁வருகிறது	-7.19736
கா	-7.19791
▁பாஜக	-7.20076
▁எ	-7.20374
ட்டு	-7.20486
▁என்பது	-7.2061
▁!	-7.20618
ேன்	-7.20904
லை	-7.20925
ட்ட	-7.22135
▁மக்கள்	-7.22446
▁இந்திய	-7.22625
▁ன	-7.23336
களின்	-7.23799
▁செய்த	-7.24085
▁சா	-7.24118
▁3	-7.24416
ந்து	-7.24492
▁அணி	-7.24517
▁இன்று	-7.24606
ரு	-7.25176
ப்பட	-7.25564
▁தலைவர்	-7.25577
▁மீது	-7.25831
▁தா	-7.25864
▁நான்	-7.26347
▁அமைச்சர்	-7.26551
ூ	-7.26606
▁ல	-7.26767
ுடன்	-7.26905
தை	-7.26999
யான	-7.2735
▁5	-7.28234
▁:	-7.28625
ெ	-7.28756
▁4	-7.29263
று	-7.29995
▁பிறகு	-7.30034
▁ய	-7.31193
▁டி	-7.31292
வின்	-7.31331
▁தற்போது	-7.31885
ச்ச	-7.3285
னா	-7.33458
மு	-7.33599
க்கும்	-7.33751
▁தனத	-7.3388
▁2	-7.34143
ாத	-7.34294
▁வே	-7.34566
றி	-7.34603
▁மே	-7.35175
▁கூட	-7.35608
▁என்றும்	-7.35864
▁ஏ	-7.36809
ப்படும்	-7.37097
▁தமிழக	-7.37514
ட்டி	-7.37541
▁கள்	-7.37935
ைய	-7.3833
ஆம்	-7.38846
னை	-7.39583
▁தி	-7.39717
▁வா	-7.39882
▁செ	-7.39955
கி	-7.40716
▁மூலம்	-7.41094
▁எந்த	-7.41198
▁க்கு	-7.42055
▁போன்ற	-7.42651
1	-7.43703
▁கள	-7.43794
▁தர	-7.4391
▁சேர்ந்த	-7.44501
▁அவர்கள்	-7.44608
ோம்	-7.44706
▁கோ	-7.45057
▁வேலை	-7.45371
▁மத்திய	-7.45647
▁உலக	-7.47436
▁கே	-7.47764
▁காங்கிரஸ்	-7.47816
2	-7.47835
ிட	-7.48009
▁பணி	-7.48107
ாமல்	-7.48632
▁முறை	-7.48658
▁தேர்தல்	-7.488
▁ஸ்	-7.49114
▁6	-7.50266
▁ஓ	-7.50604
ினார்	-7.50799
ங்	-7.51146
e	-7.51642
▁திரு	-7.52099
▁பெற்ற	-7.52438
▁போ	-7.53154
▁ட	-7.53379
▁மாநில	-7.53559
▁பல்	-7.54893
மும்	-7.55487
▁பூ	-7.55495
ண்ட	-7.55915
▁இரண்டு	-7.5605
ப்பட்டது	-7.56213
▁பிரதமர்	-7.56359
▁சமூக	-7.56692
ுடைய	-7.56805
▁வும்	-7.57002
▁கால	-7.57275
▁கை	-7.57617
▁வெற்றி	-7.5796
▁ஹ	-7.58145
ிலும்	-7.58345
தான்	-7.58476
▁நேர	-7.58671
▁10	-7.58734
லாம்	-7.58956
▁உள்ளிட்ட	-7.5903
▁மாவட்ட	-7.59078
▁நடவடிக்கை	-7.59183
▁சென்ற	-7.59264
▁அதை	-7.59338
▁வை	-7.59985
▁பேசிய	-7.60147
▁இதனால்	-7.60227
▁புதிய	-7.6038
▁களை	-7.61704
▁இரு	-7.61928
▁நடந்த	-7.61987
▁கட்ட	-7.62053
ங்களில்	-7.62283
▁இந்தியா	-7.62287
ணி	-7.62629
வது	-7.63035
தால்	-7.64148
▁பெரிய	-7.65593
▁ஐ	-7.65813
5	-7.65873
▁இருக்க	-7.65927
▁இதில்	-7.65983
▁அனைத்து	-7.66211
▁இருக்கிறது	-7.66256
வேறு	-7.66434
▁7	-7.66922
நா	-7.67267
▁நேற்று	-7.67411
▁அரசியல்	-7.67643
மே	-7.6777
றை	-7.67772
0	-7.68066
▁...	-7.68367
▁திமுக	-7.68481
▁அதன்	-7.68695
ிருந்த	-7.68706
வர	-7.68941
▁கொள்ள	-7.69079
▁பேர்	-7.69082
▁இலங்கை	-7.69238
▁முக்கிய	-7.69563
ுள்ளனர்	-7.69599
சா	-7.69682
▁வந்து	-7.69729
▁ரூ	-7.69843
▁அப்போது	-7.6987
யே	-7.70063
4	-7.70106
▁?	-7.70477
▁முதல்வர்	-7.7053
▁ஆட்சி	-7.70703
▁மீண்டும்	-7.7077
▁அதிமுக	-7.71133
ஸ	-7.71361
ஞ்ச	-7.71915
▁என்	-7.7203
போது	-7.72061
ற்	-7.72937
9	-7.73535
ஷ	-7.73837
▁இதை	-7.74218
▁கி	-7.7458
▁ஆம்	-7.74652
▁தொடர்பாக	-7.74702
▁என்பதை	-7.74725
டை	-7.74817
▁வைத்து	-7.75407
ஜி	-7.7541
▁பேச	-7.75566
▁பிர	-7.76712
▁சட்ட	-7.76719
▁பள்ளி	-7.77116
▁தேசிய	-7.77718
▁வழக்கு	-7.77757
த்துக்கு	-7.7879
ண்	-7.78948
சு	-7.79962
▁எம்	-7.79993
▁மட்டுமே	-7.80074
▁முன்	-7.80222
ுகிறது	-7.80236
▁அங்கு	-7.80422
3	-7.80429
▁நிலை	-7.8049
i	-7.8054
ிக்க	-7.80563
▁போட்டி	-7.80952
ரிய	-7.81226
▁சென்று	-7.81323
▁துறை	-7.81347
▁பெண்	-7.81398
▁விசாரணை	-7.81459
க்கி	-7.8153
▁பாதுகாப்பு	-7.81621
▁தெரிவித்தார்	-7.82276
▁கட	-7.82473
▁நடத்த	-7.82615
▁நா	-7.82695
எஸ்	-7.82855
கு	-7.8286
▁செய்தி	-7.83214
ையும்	-7.83552
▁சிறப்பு	-7.83563
▁பார்க்க	-7.83679
▁அதிக	-7.83779
▁பதவி	-7.83805
ூர்	-7.83857
▁பெற	-7.84029
▁அதில்	-7.84045
▁அல்லது	-7.84468
▁இப்போது	-7.84682
▁வகையில்	-7.84683
▁குழந்தை	-7.84874
a	-7.85026
▁செல்ல	-7.85252
▁நடந்தது	-7.85319
ேச	-7.85323
▁சொல்ல	-7.85422
▁வருகின்றனர்	-7.85427
▁காரணமாக	-7.85752
ஷ்	-7.86115
▁8	-7.86302
▁தலைமை	-7.86354
▁மணி	-7.86366
▁கொ	-7.86456
▁எப்படி	-7.86467
▁கோடி	-7.86953
▁கூறினார்	-7.8706
o	-7.87167
▁ஜ	-7.87187
▁9	-7.88191
▁என்றார்	-7.88204
ாலும்	-7.88533
▁எடப்பாடி	-7.88548
▁இருந்தது	-7.88871
▁பின்னர்	-7.89594
▁மாற்ற	-7.89623
▁ா	-7.90232
▁மி	-7.90255
ொ	-7.90315
▁வழங்க	-7.90346
▁)	-7.90589
ப்பட்டு	-7.90957
00	-7.91021
▁`	-7.91161
▁கூட்டணி	-7.91296
த்துறை	-7.91459
ந	-7.91467
▁யின்	-7.91518
8	-7.91545
கை	-7.91996
▁கொடுத்த	-7.92451
வர்கள்	-7.92746
களும்	-7.932
▁``	-7.93438
ச்சி	-7.93581
வ்	-7.94035
t	-7.94381
▁மோடி	-7.94387
▁ஒ	-7.94577
▁கைது	-7.9463
ள்ள	-7.94741
▁முயற்சி	-7.94992
▁அளித்த	-7.95056
▁முடியும்	-7.95291
▁பற்றி	-7.95301
▁பொருளாதார	-7.95456
▁தமிழ்	-7.96127
▁உதவி	-7.96283
▁அரச	-7.96301
▁வேண்டிய	-7.96518
▁டெல்லி	-7.96607
▁செய்யப்பட்ட	-7.96739
ிருக்கிறார்	-7.96895
▁விட்டு	-7.96898
▁மாதம்	-7.97086
▁வெ	-7.97283
▁செல்வ	-7.97342
▁யை	-7.97586
▁மெ	-7.97604
6	-7.97609
ிருக்கிறது	-7.97697
▁அடுத்த	-7.97699
▁முன்னா	-7.97731
▁அதற்கு	-7.9777
▁கோவில்	-7.98246
▁தங்க	-7.98738
▁விமான	-7.98933
▁பகுதி	-7.9902
▁காலை	-7.99028
கே	-7.9904
▁நாள்	-7.99047
s	-7.99153
▁நி	-7.99223
▁கேட்ட	-7.99489
▁கேள்வி	-7.99805
▁வைத்த	-7.99886
▁காட்ட	-7.99898
ிற்கு	-7.99948
▁ஆர்	-7.99994
▁கொரோனா	-8.00253
▁ஃப	-8.00443
▁நகர	-8.00522
▁20	-8.00695
▁இதன்	-8.00812
!	-8.0122
▁இட	-8.01228
ருக்கு	-8.0127
▁தகவல்	-8.01497
ய்	-8.01533
▁ஜனாதிபதி	-8.01537
ோடு	-8.01944
ழி	-8.02189
▁நாம்	-8.0221
▁தமிழ்நாடு	-8.02338
▁கருத்து	-8.02698
▁களுக்கு	-8.0286
▁பதிவு	-8.02969
ளை	-8.03358
▁என்கிறார்	-8.0337
▁இதற்கு	-8.03567
7	-8.03596
▁காண	-8.03688
▁நிதி	-8.037
▁நிலைய	-8.03761
▁எடுக்க	-8.04097
▁மன	-8.04437
▁ஒன்று	-8.04557
ுவது	-8.04888
▁பார்த்த	-8.04938
ங்கள	-8.04966
'	-8.05103
▁முடியாது	-8.05195
▁19	-8.05271
ழு	-8.05411
▁போல	-8.05467
▁பே	-8.05529
ாய்	-8.05959
▁;	-8.06022
▁ஆக	-8.06277
▁கண்ட	-8.06707
▁இந்நிலையில்	-8.06763
யோ	-8.06856
▁கூட்ட	-8.06961
▁நாங்கள்	-8.07185
▁தடை	-8.07253
▁கல்வி	-8.07254
▁விலை	-8.07329
டர்	-8.0762
▁தன்	-8.07785
ஹ	-8.07826
படி	-8.07874
u	-8.07956
▁ஆகிய	-8.07965
▁தெரிவித்த	-8.08079
▁கிராம	-8.08247
▁அப்படி	-8.08337
கோ	-8.08358
▁முன்பு	-8.08424
ரோ	-8.08518
▁மூன்ற	-8.08701
▁தனி	-8.08745
ப்பா	-8.08787
▁மட்டும்	-8.09079
▁காந்தி	-8.09226
▁இப்படி	-8.09321
▁ஏற்பட்ட	-8.09412
▁யில்	-8.09457
▁இவர்	-8.09518
▁உணவு	-8.09698
க்கான	-8.09797
▁உங்கள	-8.10215
▁நிகழ்ச்சி	-8.10326
ப்படுத்த	-8.1054
ார்கள்	-8.10656
ப்படுகிறது	-8.10763
▁களின்	-8.10772
▁பகுதியில்	-8.10961
▁தேர்தலில்	-8.11069
▁மத	-8.1112
▁வெளி	-8.11247
▁எதிராக	-8.11251
▁முடிவு	-8.11361
▁நில	-8.11368
▁1	-8.11578
▁ஒருவர்	-8.11607
▁தேவை	-8.11652
▁மாத	-8.1176
▁தீ	-8.12235
▁மணிக்கு	-8.12312
▁ரா	-8.12916
ியா	-8.12975
▁விட்ட	-8.13087
▁பெரும்	-8.13136
போ	-8.13331
▁ராஜ	-8.13467
▁நல்ல	-8.13471
ண்டி	-8.13961
▁பக்தர்கள்	-8.14107
▁பின்	-8.1415
▁வீடியோ	-8.14158
▁எனவே	-8.14245
▁எடுத்து	-8.14255
▁பயன்படுத்த	-8.14353
▁கூறி	-8.14486
▁சோ	-8.14994
▁போர்	-8.15034
▁சிவ	-8.15129
▁குழு	-8.15225
▁குறிப்பிட்ட	-8.15245
▁அவ	-8.15321
▁களும்	-8.15439
▁சீ	-8.15463
▁அவரை	-8.15728
▁கூறிய	-8.1579
▁சிகிச்சை	-8.15897
டா	-8.16062
▁லா	-8.16262
▁தலை	-8.16266
▁முக	-8.16388
▁12	-8.16412
▁ஸ்ரீ	-8.16561
▁ஆய்வு	-8.16685
▁பிரச்னை	-8.17
▁அவருக்கு	-8.17132
▁சரி	-8.17217
▁மருத்துவ	-8.17422
▁ரூபாய்	-8.17506
▁எங்கள	-8.17553
▁இடங்களில	-8.1777
▁கொடுக்க	-8.1777
▁ராணுவ	-8.17936
▁ஷ	-8.18417
▁கல	-8.18486
▁கோயில்	-8.18646
ித்த	-8.18807
▁படி	-8.18819
▁யா	-8.18995
ுக்கான	-8.19162
▁கொலை	-8.19166
▁பெ	-8.19796
▁விழா	-8.19808
▁வர்	-8.2029
ல்ல	-8.20381
▁அதிகாரிகள்	-8.20838
ித்து	-8.20862
▁அதே	-8.20903
▁காரணம்	-8.21073
▁நாடு	-8.21166
▁பொது	-8.21462
▁குடும்ப	-8.21526
ிலேயே	-8.21701
▁ஒரே	-8.21847
ப்பட்டுள்ளது	-8.21858
வுக்கு	-8.21932
ிறது	-8.21956
▁பட்ட	-8.22005
தற்கான	-8.22017
ட்டை	-8.22049
▁ஒவ்வொரு	-8.22282
ளி	-8.2251
▁படை	-8.22646
▁எனக்கு	-8.22869
",	-8.22999
▁நிறுவன	-8.23106
▁வேறு	-8.23168
▁போன	-8.23534
ுவதற்கு	-8.23556
கர்	-8.23635
▁15	-8.23786
ிலிருந்து	-8.23956
பு	-8.24006
▁யாக	-8.24137
▁வைக்க	-8.24166
▁உள்ளன	-8.24357
▁இன்னும்	-8.24358
▁சே	-8.2443
ங்கி	-8.24524
▁பால	-8.24645
▁அடி	-8.25023
▁துணை	-8.25121
சை	-8.25144
▁வீடு	-8.25602
கள	-8.2569
ோர்	-8.25928
▁தேர்வு	-8.2635
ச்சு	-8.26693
▁கார்	-8.267
▁செய்யும்	-8.26892
▁கீழ்	-8.26986
▁தாக	-8.27202
h	-8.27238
▁இயக்க	-8.27334
▁முழுவதும்	-8.27345
▁சுவாமி	-8.2781
த்திர	-8.27905
▁மனைவி	-8.28456
▁பண	-8.28659
▁கரு	-8.28687
▁சம்பவம்	-8.28799
▁கலந்து	-8.2882
ந்தி	-8.28966
▁நேரத்தில்	-8.28968
▁வயது	-8.29019
▁வருகிறார்	-8.29101
▁11	-8.29175
▁சம	-8.2929
யர்	-8.29323
▁ஜா	-8.29407
▁மாலை	-8.29566
▁இங்கு	-8.29593
மன்	-8.29609
▁ஸ்ட	-8.30095
▁ஏன்	-8.30386
ாளர்	-8.30694
▁குரு	-8.30991
▁பிற	-8.31075
▁அளவில	-8.31094
ிறார்	-8.31293
▁சுமார	-8.31362
▁மொத்த	-8.31377
▁இந்தியாவ	-8.31437
▁தொடர்பான	-8.31536
க்கப்பட்ட	-8.31612
▁அறிக்கை	-8.31651
ர்கள்	-8.32024
▁ஸ்டாலின்	-8.32128
▁கூற	-8.32151
வாக	-8.32161
,000	-8.32314
▁மழை	-8.32316
▁பாட	-8.32338
▁சாலை	-8.3253
▁குறித்த	-8.32794
▁நடந்து	-8.32851
மீ	-8.33056
▁டா	-8.33063
▁வார	-8.33128
▁போக	-8.33316
▁செலுத்த	-8.33348
▁செயலாளர்	-8.33358
▁உயர்	-8.33527
▁வழி	-8.34041
▁உறுதி	-8.34055
▁வங்கி	-8.34321
▁இணை	-8.34635
▁லட்சம்	-8.3465
▁பை	-8.34887
▁வந்தது	-8.35096
▁புகார்	-8.35157
▁வின்	-8.35251
லோ	-8.35289
▁குறை	-8.35362
▁சேவை	-8.35432
▁டெ	-8.35435
ஐ	-8.35695
▁ஸ	-8.35877
▁சிங்	-8.359
▁தங்கள்	-8.35967
▁வீட்டில்	-8.35989
▁இடையே	-8.36387
▁நடத்தி	-8.36612
▁க்கும்	-8.36736
▁நெ	-8.36838
ரே	-8.36888
▁இதையடுத்து	-8.36909
▁பார்த்து	-8.37603
ரின்	-8.37633
▁யே	-8.37675
▁கூறுகிறார்	-8.37695
▁பூஜை	-8.37897
ஆர்	-8.37997
▁அனுமதி	-8.38052
▁மர	-8.38251
▁விரும்ப	-8.38384
ிக்	-8.38396
ப்பை	-8.38918
யாளர்	-8.38951
▁வாய்ப்பு	-8.39036
▁காட்சி	-8.39141
▁ு	-8.39254
▁எடுத்த	-8.39323
▁ரி	-8.39427
▁கூறப்படுகிறது	-8.39518
ங்களுக்கு	-8.39791
பர்	-8.39824
▁நடைபெற்ற	-8.39887
▁கட்சியின	-8.39891
▁பேர	-8.39915
▁மற்ற	-8.40081
▁உரிமை	-8.40262
▁மாணவி	-8.40447
▁பதி	-8.40675
▁நம்ப	-8.40763
தெரிவித்துள்ளார்	-8.40822
▁கோரிக்கை	-8.40835
ராக	-8.40885
ளா	-8.4093
▁அமைப்பு	-8.40984
▁எஸ்	-8.41143
▁ார்	-8.41281
யில	-8.41284
▁வெளியிட்ட	-8.4129
▁தோ	-8.41409
▁பாதிப்பு	-8.41582
▁அருகே	-8.41847
ரீ	-8.41848
▁பெண்கள்	-8.41876
g	-8.42017
▁ஓபிஎஸ்	-8.42017
▁வாக்கு	-8.42024
▁பெரு	-8.42033
ஏ	-8.42209
ியல்	-8.4222
ட்டா	-8.42265
ண்டு	-8.42373
▁மாவட்டம்	-8.42669
▁தே	-8.42767
▁எதிர்	-8.42799
▁மின்	-8.42863
சன்	-8.43099
▁பொ	-8.431
▁சர்வத	-8.43221
▁அறிவித்த	-8.43351
▁200	-8.43575
▁வாங்க	-8.43602
▁தங்கள	-8.43651
ிருக்க	-8.43793
▁இந்தியாவில்	-8.43939
▁பாதி	-8.44234
ினால்	-8.44267
▁ஜி	-8.44299
▁இதுவரை	-8.44397
▁சார்பில்	-8.44556
▁நாடாளுமன்ற	-8.44753
▁பாதிக்கப்பட்ட	-8.45062
▁மறு	-8.45208
▁மதுரை	-8.45369
▁இரவு	-8.45382
▁தாக்க	-8.45545
▁தொடங்கி	-8.456
▁சிறு	-8.4567
▁நீங்கள்	-8.45746
▁யார்	-8.45752
▁தென்	-8.45792
y	-8.46146
▁ுவத	-8.46193
▁கிள	-8.46325
▁மாற	-8.46355
யம்	-8.46371
▁நீர்	-8.46381
தற்கு	-8.46726
▁கடை	-8.4676
▁ஷா	-8.46834
▁கல்லூரி	-8.4692
▁பெயர்	-8.46929
தே	-8.47072
▁மகா	-8.47094
▁தன்ன	-8.47195
▁போலீசார்	-8.47279
▁தொழில்	-8.473
▁சங்க	-8.47378
▁தொ	-8.4749
▁நடைபெற்றது	-8.47661
ிருக்கும்	-8.47735
க்கள்	-8.47743
▁அளிக்க	-8.47743
▁குறைந்த	-8.4786
▁எண்ணிக்கை	-8.48004
▁அமெரிக்க	-8.48033
யூ	-8.4807
▁ி	-8.48226
▁18	-8.48421
▁பழனிசாமி	-8.48427
▁சொல்லி	-8.48429
▁இதனை	-8.48523
விட்டு	-8.48549
▁பெற்று	-8.48604
▁மூ	-8.48864
▁தொகுதி	-8.48865
▁உச்ச	-8.48873
▁அழைத்து	-8.49033
வன்	-8.49083
▁காவல்	-8.49154
▁தை	-8.49347
யுடன்	-8.49351
▁வரி	-8.4936
தாகவும்	-8.49402
▁நம்பிக்கை	-8.49405
▁பய	-8.49432
▁பிபிசி	-8.4965
▁உடல்	-8.49666
▁அரசாங்க	-8.49771
விட	-8.49784
விட்ட	-8.49912
ந்	-8.50171
க்காக	-8.50218
▁நீ	-8.50284
▁அதிபர்	-8.50396
லில்	-8.50722
ிட்ட	-8.50851
▁அதிகாரி	-8.51069
▁சொன்ன	-8.51185
▁மேல்	-8.51236
லு	-8.51395
▁வில்லை	-8.51434
யால்	-8.51591
▁ஆளுநர்	-8.51778
▁பணம்	-8.51828
▁நிறுத்த	-8.52046
▁யார	-8.52123
▁பழ	-8.52154
▁னர்	-8.52288
▁தாக்குதல்	-8.529
▁நீதிமன்ற	-8.52961
▁மலை	-8.53251
▁ஈ	-8.53822
▁நாள	-8.53886
▁அதிகார	-8.5398
▁போல்	-8.53981
▁மீ	-8.54011
▁தன	-8.54626
▁பயிற்சி	-8.54758
▁30	-8.5487
▁எனவும்	-8.54951
▁தொடர	-8.54958
▁ஏற்பட	-8.55135
ன்ஸ்	-8.55283
▁ரோ	-8.5543
▁தொடங்க	-8.55456
▁இல்லாத	-8.55575
▁அவர்கள	-8.55577
▁இருப்ப	-8.55591
▁காவல்துறை	-8.55671
▁ரயில்	-8.55678
▁அதனால்	-8.56025
▁வருகின்றன	-8.56103
வெ	-8.56366
▁பங்கு	-8.5652
▁கிடைக்கும்	-8.56811
▁தெரிவிக்க	-8.56936
▁பிரி	-8.56974
ம்பு	-8.57018
ண்ட்	-8.57025
▁என்றால்	-8.57081
▁கவன	-8.5711
▁ிருக்கிறது	-8.57149
▁ள்ள	-8.57179
▁கர	-8.57318
ுங்கள்	-8.57351
ணை	-8.5751
▁த்த	-8.57686
ிப்ப	-8.58052
▁திருமண	-8.58291
▁2022	-8.58314
▁செய்தனர்	-8.5841
ாளி	-8.5848
▁தொடர்	-8.58557
த்துடன்	-8.58679
▁திட்டம்	-8.58721
▁உள்ளனர்	-8.58732
▁இடத்தில	-8.58779
▁வகை	-8.59073
▁அடைந்த	-8.59091
▁மீத	-8.59163
▁50	-8.59192
▁இடம்	-8.59197
▁வாழ	-8.59258
▁இருக்கிறார்	-8.59547
கொ	-8.59682
▁புர	-8.59829
▁எனக்	-8.5984
▁மனு	-8.59921
▁14	-8.60012
%	-8.60073
▁கிடைத்த	-8.60123
ுதல்	-8.60266
▁போலீஸார்	-8.60279
▁சோதனை	-8.60346
▁உயிர	-8.60367
ேஷ்	-8.60437
▁சீனா	-8.60588
ுகிறார்	-8.60595
▁ராம	-8.60731
▁மான	-8.61006
▁தள	-8.6114
▁தமிழ்நாட்டில	-8.61171
▁அதாவது	-8.6119
▁ராகுல்	-8.6141
▁ஏற்ற	-8.61506
▁காதல	-8.61577
எல்	-8.61635
▁அல்ல	-8.61686
யிடம்	-8.61694
▁பேசி	-8.61982
▁கொண்டிருந்த	-8.62031
▁நீண்ட	-8.62041
▁பயண	-8.62164
▁மனித	-8.62266
▁எதிர்ப்பு	-8.62494
▁ஆகியோர்	-8.62653
▁வட	-8.62695
▁பிரதேச	-8.627
▁செயல்	-8.62758
▁செல்லும்	-8.62855
▁அதனை	-8.63062
▁தீவிர	-8.63191
▁இஸ்ரேல்	-8.63225
▁பகுதிகளில	-8.63304
▁குறிப்பிடத்தக்க	-8.63333
▁ஜெய	-8.63452
▁உயிரிழந்த	-8.63612
ுள்ளதாக	-8.63675
தில்	-8.63908
▁நடத்திய	-8.63944
▁என்பதால்	-8.64148
ுக்காக	-8.64234
▁மொழி	-8.64412
டன்	-8.6447
▁ிருந்த	-8.64622
ன்ற	-8.64746
▁மூத்த	-8.64832
▁நேரம்	-8.64867
▁13	-8.64931
▁ரஷ்யா	-8.65013
▁ஜோ	-8.65173
▁திருமணம்	-8.65208
க்கா	-8.65226
▁வசதி	-8.65472
▁நிர்வாக	-8.65608
▁கண	-8.65612
▁அடிப்படையில்	-8.65755
▁கோவை	-8.65784
▁",	-8.65935
▁நாட்டின	-8.6598
▁ஆண்ட	-8.66002
▁அலுவலக	-8.66062
▁ஆண்டுகளுக்கு	-8.66092
p	-8.66115
▁A	-8.6613
▁அதிகமாக	-8.66177
▁தந்தை	-8.66197
▁காலத்தில்	-8.66238
▁ஏற்படும்	-8.66365
▁குடி	-8.66385
▁கேட்க	-8.66431
▁எப்போது	-8.66485
▁சின்ன	-8.66519
▁அன்று	-8.66524
▁த்தை	-8.66564
▁வள	-8.66755
▁மோதி	-8.66868
ுக்கும்	-8.66878
▁கடன்	-8.66987
ிருந்து	-8.67102
▁கொள்கை	-8.67507
▁16	-8.67569
▁பல்கலைக்கழக	-8.67581
▁வளர்ச்சி	-8.67728
▁தின	-8.6784
▁போட	-8.67876
▁மை	-8.67953
▁நிறைவேற்ற	-8.67956
▁தொடர்பு	-8.67978
▁கூ	-8.67996
▁எண்ண	-8.68283
▁நடைபெறும்	-8.68302
▁மைய	-8.68342
மோ	-8.68478
ிங்	-8.68653
▁கடைசி	-8.68673
▁அமெரிக்கா	-8.68745
▁திட்ட	-8.68813
▁ஆட்ட	-8.68884
▁முடிந்த	-8.68995
ிருந்தார்	-8.68996
▁முழு	-8.69133
▁வழக்கில்	-8.69277
▁சர	-8.6935
ீர்கள்	-8.6945
▁குறிப்பாக	-8.69587
▁நாளை	-8.69612
▁இனி	-8.69614
▁திரைப்பட	-8.69692
ணா	-8.69708
▁தனியார்	-8.69741
▁பாலியல	-8.69777
▁எதிரான	-8.69784
▁வில்	-8.69789
▁மக்கள	-8.69851
▁உருவாக்க	-8.69859
▁மக்களுக்கு	-8.69955
▁கொடுத்து	-8.70065
▁தவிர	-8.70346
▁நிலவ	-8.70346
பட்ட	-8.70363
▁ஈடுபட்ட	-8.70369
யிலிருந்து	-8.70371
▁செய்தார்	-8.70434
▁நட	-8.70437
▁சந்தித்த	-8.70514
▁உடை	-8.70624
▁விற்பனை	-8.70719
▁உட்பட	-8.70833
பாடு	-8.70863
னே	-8.70887
தற்காக	-8.70923
▁விவசாய	-8.70987
▁இன்	-8.70996
▁s	-8.7108
த்தா	-8.71189
▁முக்கியமான	-8.71293
▁S	-8.71555
▁கருத	-8.7165
▁தெரிய	-8.71697
▁நம்ம	-8.71702
▁தொகை	-8.71918
கிறது	-8.72148
▁ப்பட	-8.72235
ட்டில்	-8.72325
▁போலீஸ்	-8.72574
▁ஆய்வ	-8.72659
ங்கா	-8.72664
▁சிலர்	-8.72672
▁விளக்க	-8.72718
▁ஆலோசனை	-8.7279
ஸ்ட்	-8.72891
ிற	-8.72893
▁உற்பத்தி	-8.73022
▁பதில்	-8.73111
▁அந்தப்	-8.73164
▁நிறுவனம்	-8.73232
▁உத்தர	-8.73334
▁25	-8.73581
▁இறந்த	-8.73666
▁உண்மை	-8.73797
▁அவர்களுக்கு	-8.73849
▁17	-8.73943
▁த்திற்கு	-8.73957
ும்போது	-8.74144
▁மாணவர்கள்	-8.74212
▁நடக்க	-8.74265
ாள்	-8.74357
▁என்னை	-8.74393
▁சம்பவ	-8.74415
▁நோய்	-8.74465
▁டை	-8.74467
▁பயணம்	-8.74474
▁இருப்பதாக	-8.745
l	-8.74697
▁புற	-8.74762
▁வென்ற	-8.74899
▁வந்தார்	-8.7497
▁கூடாது	-8.74994
▁வெளியே	-8.75254
▁கொண்டாட	-8.75316
▁இலக்க	-8.75355
ுள்ளன	-8.75572
▁இருந்தாலும்	-8.75604
▁இறுதி	-8.757
n	-8.75768
▁கார	-8.75778
▁வீர	-8.75927
▁நான்கு	-8.76057
▁தாய்	-8.76277
▁ஆதரவு	-8.76337
er	-8.76497
▁பர	-8.76548
▁மோ	-8.76655
▁அதிகம்	-8.76737
▁பிரிவு	-8.76788
▁மேற்கொள்ள	-8.76798
▁பாதுகாப்ப	-8.76896
▁வாகன	-8.77137
▁ஜெ	-8.77256
▁சுகாதார	-8.77307
▁நீதிபதி	-8.77339
நீ	-8.77356
▁வருட	-8.77358
▁முதல	-8.77487
▁முடியாத	-8.7751
▁நோக்க	-8.77688
▁சர்ச்சை	-8.77714
▁அண்ணாமலை	-8.77718
▁ாத	-8.77753
ராஜ்	-8.77768
▁தெரிவித்து	-8.77845
யன்	-8.7789
சாமி	-8.77944
தர்	-8.77952
▁திரும்ப	-8.77971
▁வழங்கிய	-8.78064
ாங்க	-8.78097
▁சொ	-8.78148
ுமா	-8.78156
▁கோவிலில்	-8.78278
▁குறி	-8.7835
d	-8.78391
▁0	-8.78404
▁நீதிமன்றம்	-8.78469
▁விதி	-8.78492
▁சுற்றி	-8.7866
ப்பது	-8.78748
▁கதை	-8.78761
▁மாதிரி	-8.78781
கால	-8.78852
▁மரண	-8.79006
▁சுதந்திர	-8.79024
▁சட்டமன்ற	-8.79107
▁எல்லா	-8.79167
▁சீர	-8.793
▁பால்	-8.79308
▁ுள்ளது	-8.79384
ஷன்	-8.79587
வீ	-8.79654
▁இல்லாமல்	-8.79725
▁சக்தி	-8.79772
குமார்	-8.7985
ஷா	-8.79981
முறை	-8.79988
A	-8.80091
ென	-8.80112
▁நாட்டில்	-8.8015
▁தமிழ	-8.80275
▁24	-8.80299
▁மகன்	-8.80317
▁செயல்பட	-8.80478
▁அடிக்க	-8.80534
▁மேற்பட்ட	-8.80754
▁ஆண்	-8.80772
▁கட்டி	-8.8081
க்குறிப்பு	-8.80857
▁அரசின	-8.80959
▁வுக்கு	-8.80986
ுவதாக	-8.81012
▁இருந்தார்	-8.81029
▁ுள்ளனர்	-8.81075
▁பற்றிய	-8.81213
▁போட்டு	-8.81262
▁பெண்ண	-8.81281
கார	-8.81301
ின்றன	-8.81445
▁உள்ளார்	-8.81563
கொண்ட	-8.81592
▁நாடுகள்	-8.81638
▁நடு	-8.81719
▁அர	-8.81848
▁சிலை	-8.81986
▁யு	-8.82039
ஜா	-8.82149
▁கலை	-8.82192
ில்லை	-8.82195
▁நாட	-8.82199
▁கூறுகையில்	-8.82208
▁இணைந்து	-8.82225
ேயே	-8.82259
▁தால்	-8.82274
▁வர்கள	-8.82336
▁வாங்கி	-8.82466
▁கூடிய	-8.82506
▁போர	-8.82592
▁மேற்கு	-8.82598
ஃப	-8.82644
▁அவை	-8.82665
லர்	-8.82704
v	-8.82799
▁எல்லை	-8.82851
▁வாழ்க்கை	-8.83048
▁நம	-8.83149
▁முன்ன	-8.83232
▁ும்	-8.83238
ஹா	-8.83324
▁மும்பை	-8.83335
ிருந்தது	-8.83413
▁தரப்பு	-8.8342
▁போராட்டம்	-8.83421
▁கூட்டம்	-8.83424
▁அமைப்ப	-8.83505
▁தந்த	-8.83546
▁தொடங்கிய	-8.83558
▁கொள்வ	-8.83573
▁உடனடியாக	-8.8358
▁ிருப்ப	-8.83694
ச்சா	-8.837
ிறார்கள்	-8.83704
▁எதுவும	-8.83922
டைய	-8.83957
▁சந்திப்ப	-8.83965
▁சொந்த	-8.83978
ுவார்கள்	-8.84034
▁நடைபெற	-8.84137
▁பலர்	-8.84194
▁ரே	-8.84239
▁இருவரும்	-8.84262
▁வெளியேற	-8.84453
▁40	-8.84594
m	-8.84605
▁எல்லாம்	-8.84682
c	-8.84697
▁சந்தித்து	-8.84745
▁களையும்	-8.8481
▁பரவ	-8.84821
▁தொழில்நுட்ப	-8.84883
▁வேட்பாளர்	-8.85021
▁தாக்கல்	-8.85026
▁ஒருவர	-8.85033
▁ஏற்படுத்த	-8.85033
பே	-8.8518
▁வீ	-8.8538
▁சிறை	-8.85402
▁நோக்கி	-8.85464
▁ஆண்டுகளாக	-8.85483
▁நெருக்கடி	-8.85593
▁நடைபெற்று	-8.85721
▁இருப்பினும்	-8.85761
▁சாதி	-8.85791
▁எதிர்பார்க்க	-8.8585
ாள	-8.85885
▁பயன்படுத்தி	-8.85929
▁நடக்கும்	-8.85999
▁ஆள	-8.86031
▁மேற்கொண்ட	-8.86123
▁சட்டம்	-8.86224
▁கான்	-8.86452
an	-8.86616
▁கண்ண	-8.86705
ொரு	-8.86874
▁முதலமைச்சர்	-8.86893
தீ	-8.86929
சம்	-8.87136
▁விடுத்த	-8.87204
▁பலரும	-8.87331
ஷ்ட	-8.87498
30	-8.87561
நிலை	-8.87561
▁மண	-8.87859
▁தேடி	-8.8789
▁முடி	-8.87893
▁வாய்ப்ப	-8.87929
k	-8.87992
▁தோல்வி	-8.87992
▁ஒப்பந்த	-8.88169
என்	-8.88232
ஷி	-8.88257
▁வைக்கப்பட்ட	-8.88331
வரும்	-8.88541
▁பீ	-8.88559
ெய்	-8.88627
▁தலைமையில்	-8.88696
▁ஆயிரம்	-8.88796
▁வர்கள்	-8.88815
▁ிருக்கிறார்	-8.88845
▁தெரிவித்துள்ளது	-8.88888
▁சிறந்த	-8.88902
▁லாம்	-8.88908
▁பிறந்த	-8.88912
▁கிடைக்க	-8.88944
▁ஆண்டில்	-8.89055
▁போய்	-8.89159
▁கிலோ	-8.89159
▁படம்	-8.89189
▁வித	-8.89298
▁நீக்க	-8.89714
ஞ்சி	-8.89727
▁C	-8.89746
▁விளையாட	-8.89749
▁நாட்ட	-8.89779
▁நடிகர்	-8.89794
▁அளவுக்கு	-8.89896
▁100	-8.89985
▁எழுந்த	-8.90083
▁தலைவர்கள்	-8.90138
▁முன்னிட்டு	-8.90274
ுமாறு	-8.90276
▁விட்டது	-8.90304
ப்படி	-8.90319
▁ஊ	-8.90549
▁எதிர்க்கட்சி	-8.90562
▁டன்	-8.90652
மதி	-8.90679
▁ஏராளமான	-8.90735
▁ஓட்ட	-8.90768
▁ல்	-8.90769
▁என்கிற	-8.90822
ராஜ	-8.90893
▁த்துக்கு	-8.90965
சன	-8.91011
▁பாராளுமன்ற	-8.91014
▁அல	-8.91173
▁இருப்பது	-8.9125
▁விலக	-8.91319
▁த்தான்	-8.91324
▁பங்கேற்ற	-8.91387
▁ரத்த	-8.91395
▁செய்யப்பட்டுள்ள	-8.91514
▁யான	-8.91546
ுந்த	-8.916
▁கடுமையாக	-8.91667
▁பாரத	-8.91687
மடைந்த	-8.91824
▁ஆன	-8.9186
▁நோ	-8.91883
▁கூறியுள்ளார்	-8.91924
▁நபர்	-8.91944
▁சூ	-8.92206
▁கூட்டத்தில்	-8.92226
▁அவர்களை	-8.92303
▁அமர	-8.92492
▁அனுப்பி	-8.9255
▁அருகில	-8.92611
▁திருவிழா	-8.92621
▁வன்முறை	-8.9271
▁மத்தியில்	-8.92755
▁முடியவில்லை	-8.92891
▁குமார்	-8.92965
ளித்த	-8.92974
▁மாவட்டத்தில்	-8.93011
▁ங்கள	-8.93063
ிறோம்	-8.9313
ெட்	-8.93148
▁லி	-8.93149
▁பாகிஸ்தான்	-8.93185
▁நிறுவனங்கள	-8.93191
▁கண்	-8.93261
▁ஆடி	-8.93323
▁உள்	-8.93381
▁வாச	-8.93397
▁மருத்துவமனை	-8.93408
▁ரெ	-8.93483
▁யுடன்	-8.93534
▁பிரபல	-8.93559
▁ஏற்கனவே	-8.93652
▁ஆற்ற	-8.93733
▁யோ	-8.93851
▁யூ	-8.93913
ெல்லாம்	-8.93922
▁களால்	-8.94152
▁இஸ்ரேல	-8.94181
▁கிரிக்கெட்	-8.94226
▁இவர	-8.94229
▁கோப	-8.94231
▁ஏற்பட்டது	-8.9435
▁ஏற்பாடு	-8.94411
▁பார்வை	-8.94434
▁தகவல்கள்	-8.94458
▁சந்தேக	-8.94516
▁அனுபவ	-8.94517
▁உறவு	-8.9452
▁பங்க	-8.94591
▁அமெரிக்காவ	-8.94783
▁இன்ற	-8.94864
க்கை	-8.94974
▁ப்பட்ட	-8.95195
▁விசாரித்த	-8.95195
ுகின்றன	-8.9534
▁பிடித்த	-8.95485
▁ஆரம்பித்த	-8.95655
▁விஜய்	-8.95685
▁இந்து	-8.95692
▁நகர்	-8.95875
▁புது	-8.96002
▁எட்ட	-8.96216
▁ஆயுத	-8.96263
▁உத்தரவிட்ட	-8.96354
▁மும்	-8.96358
▁விருது	-8.96369
▁முறையாக	-8.96591
ண்டா	-8.96776
▁முறையில்	-8.97038
▁கன	-8.97042
▁ரன்கள்	-8.97113
▁ஐந்த	-8.97131
▁சேர்ந்தவர்	-8.97284
▁இருந்தால்	-8.97291
▁நிற	-8.97297
▁நரேந்தி	-8.97335
▁காய	-8.97382
▁பந்த	-8.97473
▁உங்களுக்கு	-8.9752
▁ஒன்றை	-8.97546
▁வேண்டாம்	-8.97547
▁காலம்	-8.97559
▁நடத்தப்பட்ட	-8.97754
▁கிட்ட	-8.97777
▁அதிகரித்து	-8.97798
▁இரண்டாவத	-8.97848
▁ஆறு	-8.97875
ுவார்	-8.97904
ூரில்	-8.97986
▁விட்டார்	-8.98059
▁நம்	-8.98073
▁களாக	-8.98192
▁அமைதி	-8.98246
▁பத	-8.98259
▁ிருக்க	-8.98298
▁ஆண்டுகள்	-8.983
▁உக்ரைன்	-8.98353
▁சமீபத்தில்	-8.98392
ின்றனர்	-8.98471
▁திடீரென	-8.98543
▁M	-8.98633
செ	-8.98663
▁தவற	-8.98839
▁வெளியாகி	-8.99017
▁முயன்ற	-8.99052
20	-8.9908
▁மார்	-8.99083
▁உறுப்பினர்	-8.99205
▁அடிப்படை	-8.99256
▁வெள்ள	-8.99298
த்துக்	-8.99319
▁கும்ப	-8.99324
▁நிகழ்வு	-8.99331
▁ஆசிரியர்	-8.99432
▁ஊழியர்கள	-8.99514
▁செலவு	-8.99562
▁தண்டனை	-8.99578
▁நல	-8.99662
டோ	-8.99677
▁ரஷ்ய	-8.99889
▁கவனம்	-8.99905
▁டாக்டர்	-8.99957
▁அம்மா	-8.99984
▁கிர	-9.00129
▁விவகாரம்	-9.00266
▁சிறுமி	-9.00306
▁தேவையான	-9.00333
▁சர்	-9.00358
▁அமைக்க	-9.00484
▁இதுகுறித்து	-9.00568
சர்	-9.00634
▁தாகவும்	-9.00776
▁தலைவர	-9.01022
▁தெ	-9.01112
ஞ	-9.01194
▁உதவ	-9.01223
▁விவாத	-9.01255
▁விரைவில்	-9.01289
▁கொடி	-9.01326
▁குழந்தைகள்	-9.01366
வாத	-9.01369
த்தால்	-9.01432
▁களுடன்	-9.01483
▁நாட்கள்	-9.01637
▁சை	-9.01647
▁தன்னை	-9.01688
▁நடித்த	-9.0169
▁விடுதலை	-9.01803
▁கெ	-9.01908
▁மிகப்பெர	-9.0191
ஸி	-9.0191
▁மாநிலம்	-9.02058
▁தேவ	-9.02063
▁சமய	-9.02106
▁அதி	-9.02245
▁குள	-9.02264
பெ	-9.0247
▁நிலைமை	-9.02473
▁மற்றொரு	-9.02662
▁நாடுகள	-9.02668
▁செய்வ	-9.02976
I	-9.03008
▁சேர	-9.03199
▁நாக	-9.03216
▁போராட்ட	-9.03269
ன்று	-9.03295
த்தகைய	-9.03379
▁சந்திர	-9.03494
▁P	-9.03547
▁ஹா	-9.03567
▁சேர்க்க	-9.03603
▁சட்டசபை	-9.03685
க்கூடாது	-9.03819
▁மேல	-9.03833
▁சிறப்பாக	-9.03841
▁பக்க	-9.03962
▁திருத்த	-9.04005
▁இழந்த	-9.04031
▁இடையில	-9.04043
▁அம்மன்	-9.04044
▁அனைவரும	-9.04046
▁ுள்ளன	-9.04145
▁ஆகியோர	-9.0416
▁டீ	-9.04264
ோட்ட	-9.04302
▁சசிகலா	-9.04427
▁21	-9.04434
க்குள்	-9.04457
▁ேன்	-9.04472
▁பொதுக்குழு	-9.04496
▁பிரச்சனை	-9.04533
▁கோயிலில	-9.04574
▁பொதுமக்கள்	-9.04578
▁மருந்து	-9.04642
▁அறிவிக்கப்பட்ட	-9.04658
வதை	-9.0469
▁வெளியான	-9.04714
மணி	-9.04726
பதி	-9.0473
▁22	-9.04791
தில்லை	-9.04839
▁எழுத	-9.0487
▁மாறி	-9.04911
னோ	-9.04951
▁சபை	-9.04971
▁23	-9.0498
▁அன்ப	-9.04988
▁ஊர	-9.05124
▁லை	-9.05192
▁இருக்கிற	-9.05247
▁பிடி	-9.05269
▁சுற்றுலா	-9.05438
▁ஆரம்ப	-9.05479
▁எரி	-9.05554
▁வான	-9.0557
▁எங்களுக்கு	-9.0569
▁மின்சார	-9.05711
▁மாநிலங்கள	-9.0578
▁ஒன்ற	-9.05801
▁ஏற்படுத்தி	-9.05824
▁குறிப்பிட்டார்	-9.05828
▁பார்	-9.05828
ாட்சி	-9.0585
▁இணைய	-9.05946
▁ரூபா	-9.06002
▁அனுப்ப	-9.06013
▁பேசினார்	-9.06133
▁குற்ற	-9.06252
▁கவலை	-9.06254
▁நடக்கிறது	-9.06289
▁நாட்டு	-9.06302
▁தொழில	-9.06341
▁2024	-9.06359
▁கைப்பற்ற	-9.06368
ௌ	-9.06566
▁என்பத	-9.06579
▁தடுக்க	-9.06615
▁போக்குவரத்து	-9.06903
▁குடியரசு	-9.07012
▁ோம்	-9.07019
▁முடிவ	-9.07038
▁தொடக்க	-9.07099
en	-9.07145
▁செய்யப்பட்டது	-9.07248
களாக	-9.07265
▁அங்க	-9.07515
S	-9.07672
▁செய்வது	-9.07812
▁ஆவண	-9.08016
▁இத	-9.08115
▁போட்டியிட	-9.0821
▁வீரர்கள்	-9.08221
▁திருப்ப	-9.08437
▁பொருள்	-9.08599
▁தேர்	-9.08661
▁இதுபோன்ற	-9.08662
▁விழாவில்	-9.08871
▁எழுதிய	-9.08888
▁விழுந்த	-9.0892
▁கணக்க	-9.08995
▁அங்கிருந்த	-9.09084
▁அடை	-9.09101
▁ஜூலை	-9.09143
ணம்	-9.0919
f	-9.09218
▁சனி	-9.09271
லே	-9.09297
▁செலவ	-9.09367
பை	-9.09436
ஃப்	-9.09445
▁அச	-9.09483
or	-9.09589
▁ரஷ்யாவ	-9.09782
al	-9.0983
▁சார்	-9.1008
ுற	-9.10093
▁2023	-9.10115
ar	-9.10117
▁வகுப்பு	-9.10187
தன்	-9.10265
▁கேட்டு	-9.10403
▁பேச்சுவார்த்தை	-9.10453
▁பேச்சு	-9.10457
▁அதன்படி	-9.10471
▁அளவு	-9.10492
▁ஈடுபட	-9.1052
▁நீதி	-9.10528
▁மக்களை	-9.1059
▁அழுத்த	-9.10693
▁அறை	-9.10733
▁ஆணைய	-9.10741
▁முதலில	-9.10742
▁செய்தது	-9.10795
▁நீங்க	-9.10881
விட்டது	-9.10934
▁அழக	-9.10949
▁ஆஸ்திரேலிய	-9.11019
▁சொல்வ	-9.11047
▁a	-9.11131
▁பாதை	-9.11225
கடுமையான	-9.11247
▁கால்	-9.11282
டில்	-9.11326
▁முதலீடு	-9.1136
▁உணவ	-9.11423
▁மாநிலத்தில்	-9.11461
▁தற்கொலை	-9.11474
ப்படுத்தி	-9.11614
▁கழக	-9.11745
▁குடும்பத்தினர	-9.1184
ுவோம்	-9.11899
▁அச்ச	-9.12087
▁ஜனநாயக	-9.12161
▁இவ்வாற	-9.12276
▁கொண்டார்	-9.12395
▁பணிகள்	-9.12437
▁பண்ண	-9.12598
டைந்த	-9.12654
▁அனைவர	-9.12738
▁உர	-9.12902
▁தமிழர்	-9.12941
▁சும	-9.12962
▁மார்ச்	-9.13058
▁தனக்கு	-9.13138
▁அதிர்ச்சி	-9.13225
▁விஜய	-9.13234
▁தப்பி	-9.13247
▁ஊர்	-9.13272
▁பவ	-9.13299
▁சந்த	-9.13392
▁மாற்றம்	-9.13402
▁பிடிக்க	-9.13457
▁பக்கம்	-9.13464
▁வடிவ	-9.1353
▁குண	-9.13534
▁செய்யப்பட்டு	-9.13562
▁மருத்துவர்	-9.1358
▁மிரட்ட	-9.13593
▁அறிவிப்பு	-9.13621
▁தரிசனம்	-9.13708
▁உயர	-9.13717
▁வீச	-9.13718
றிய	-9.13778
▁பணத்தை	-9.13802
▁சந்திக்க	-9.13959
▁நீர	-9.14162
▁இவர்கள்	-9.14397
▁வழியாக	-9.144
▁தீர்ப்ப	-9.14464
▁வழங்கி	-9.14489
▁தற்போத	-9.14517
ோட	-9.1471
▁க்காக	-9.14834
▁இல்	-9.14958
▁எடுத்துக்	-9.14964
▁பிரதமர	-9.15027
▁மதிப்ப	-9.15084
▁சூழலில்	-9.15088
▁ஆகும்	-9.15103
▁டு	-9.15164
▁2021	-9.15194
▁நிர்வாகிகள்	-9.15222
ந்திர	-9.15314
▁பிரச்சினை	-9.15452
▁வங்க	-9.15467
ாளர்கள்	-9.15467
▁இதே	-9.15475
▁விபத்து	-9.15513
▁சிறிய	-9.15536
▁நீட்	-9.15647
▁மது	-9.15725
▁தூ	-9.1573
ீர்	-9.15751
இ	-9.15785
▁தயாராக	-9.15788
▁யானை	-9.15835
▁அதேபோல	-9.16072
▁மருத்துவமனையில	-9.1608
▁காட்டி	-9.16116
▁இடம்பெற்ற	-9.1616
▁காரண	-9.16184
வார	-9.16206
▁நிறைய	-9.16225
களுடன்	-9.16249
▁மீட்ட	-9.163
▁மாக	-9.16335
ிறேன்	-9.16378
▁மக்களின	-9.16524
வரை	-9.16834
▁செந்தில்	-9.1687
▁வெளிநாட்டு	-9.16883
▁இல்ல	-9.17025
▁I	-9.17039
ெடுத்த	-9.17046
▁சந்தை	-9.17067
▁நீதிமன்றத்தில	-9.17078
▁t	-9.17135
▁வழக்க	-9.17205
▁ஹெ	-9.17225
▁முன்னதாக	-9.1723
▁டோ	-9.17295
வேளை	-9.17335
▁கொண்டனர்	-9.17351
▁திட்டத்தை	-9.174
▁சவால	-9.17485
ேந்திர	-9.17501
▁விக்கெட்	-9.17591
▁செய்வத	-9.17593
▁லட்ச	-9.17791
▁சரியான	-9.17914
▁T	-9.17968
▁ரன்	-9.18014
▁மாற்றி	-9.18047
▁ஆதி	-9.1806
▁ஜூன்	-9.1816
▁சேர்த்து	-9.18174
▁பேருந்து	-9.18201
ல்லா	-9.18302
▁அபிவிருத்தி	-9.18321
எம்	-9.18396
▁பேட்டி	-9.18429
▁ன்	-9.18441
▁கிழக்கு	-9.18444
▁வருமான	-9.18495
▁கம்ப	-9.18581
▁பகுதியை	-9.18739
▁அமைச்சரவை	-9.18752
▁மன்ன	-9.18753
▁வருகிறார்கள்	-9.18766
ளிக்க	-9.18919
கட்ட	-9.18935
▁விருப்ப	-9.18967
▁ப்ப	-9.19005
▁வீட்டு	-9.19059
▁திட்டமிட்ட	-9.19083
▁பாகிஸ்தான	-9.19168
▁சேர்ந்து	-9.1919
த்தான்	-9.19229
▁தினம்	-9.19284
▁பெருமாள்	-9.19315
▁நாட்களுக்கு	-9.19382
▁வீதி	-9.19442
க்கூடிய	-9.19444
▁இயக்குநர்	-9.19472
▁வெளியிட	-9.19476
▁இசை	-9.19497
▁வந்தனர்	-9.19552
▁சார்ந்த	-9.19564
▁ுள்ளார்	-9.19692
▁விவகாரத்தில்	-9.19704
▁அறிக்கையில்	-9.19889
▁தலைவராக	-9.19944
▁மூல	-9.19972
▁உரிய	-9.19978
▁2019	-9.20046
▁அடுத்து	-9.20153
▁வெளியிட்டுள்ள	-9.20192
▁குற்றம்	-9.20199
▁ஆதரவ	-9.20329
▁பெற்றோர்	-9.20363
▁ஊடக	-9.20475
▁B	-9.20492
▁படிக்க	-9.20718
▁டே	-9.20724
▁விமர்சித்த	-9.20779
▁மண்டல	-9.20804
▁அனு	-9.20948
▁இழப்ப	-9.20971
▁அரசுக்கு	-9.21019
▁ஆழ	-9.21034
▁மோதல்	-9.21074
▁அதிகாரிகள	-9.21103
▁ால்	-9.2115
▁விளைவ	-9.21206
▁உடன்	-9.21351
▁மாநகராட்சி	-9.21427
P	-9.21462
▁சரியாக	-9.2152
▁ஆவ	-9.21655
வன	-9.21695
பூர்வ	-9.2185
▁தவறு	-9.21928
வரி	-9.22029
▁ிருக்கும்	-9.22334
▁c	-9.22338
▁தலைமையில	-9.2245
▁மாணவர்கள	-9.22864
▁கல்	-9.22878
▁திருச்சி	-9.2289
▁யால்	-9.22918
▁அமைந்த	-9.22943
ுகின்றனர்	-9.22953
▁குமார	-9.23026
▁செலுத்தி	-9.23064
▁கிடையாது	-9.23075
▁கீ	-9.23078
▁பஞ்ச	-9.23084
▁ஆண்டுகளில்	-9.23186
▁பரிசோதனை	-9.23203
▁in	-9.23206
டே	-9.23248
▁செய்வதற்க	-9.23393
▁ங்களை	-9.23542
▁அன்ன	-9.23582
▁வழங்கப்படும்	-9.23742
▁உயர்ந்த	-9.2378
▁தான	-9.23781
▁அங்கே	-9.23889
▁அடித்த	-9.23895
▁அதிகரிக்கும்	-9.23972
▁சாதனை	-9.24106
▁ஜே	-9.24202
▁பாட்ட	-9.24223
நி	-9.24231
ிடையே	-9.2426
▁உடனே	-9.24313
▁நிறுவனங்கள்	-9.24379
▁தண்ணீர்	-9.24465
பன்னீர்செல்வம்	-9.24494
▁நிகழ்ச்சியில்	-9.24572
▁தெரிவித்தனர்	-9.2458
▁அதிகமான	-9.24748
▁செய்யப்பட	-9.24925
▁உயிர்	-9.25018
▁கோப்பை	-9.25021
சீ	-9.25034
▁ரணில்	-9.25152
▁கோர	-9.25165
▁60	-9.25218
▁கையில்	-9.25261
▁கடத்த	-9.25266
▁பெரும்பாலான	-9.25308
ினை	-9.2533
▁தொடங்கியது	-9.25335
▁பொறுப்பு	-9.25383
▁உத்தரவு	-9.25409
▁மாவட்டங்களில	-9.25449
▁நிற்க	-9.25453
▁ஆதரவாளர்கள	-9.25608
▁விளையாட்டு	-9.25608
▁R	-9.25629
▁கொடுப்ப	-9.25649
▁வாழ்வ	-9.25663
▁அரசியல	-9.25676
▁இன	-9.25711
▁ரு	-9.25734
▁அமர்ந்த	-9.25745
▁பெங்களூர	-9.25803
▁போட்ட	-9.25805
▁பரப்ப	-9.25864
▁அப்பா	-9.25913
▁தரப்பில்	-9.25939
▁ஆட	-9.26129
▁புகார	-9.26226
C	-9.26294
▁வோ	-9.26306
▁வாத	-9.26307
▁தட	-9.26382
▁தமிழகத்தில	-9.26423
▁வழக்கம்	-9.26574
▁களுக்க	-9.26604
▁பஞ்சாப்	-9.26626
▁வருவ	-9.26926
▁குழுவ	-9.26978
▁ங்கள்	-9.27045
▁கூடுதல்	-9.27119
▁நாளில்	-9.27173
▁பிடித்து	-9.27173
▁அணை	-9.27245
▁காலி	-9.27246
சோ	-9.2741
▁கிட	-9.27422
▁னார்	-9.27439
▁ஒன்றாக	-9.27454
▁வீரர்	-9.27471
▁ஹி	-9.2749
▁இவை	-9.27493
▁ராஜ்	-9.27517
▁பயன	-9.27586
▁அலங்கார	-9.27645
▁கலந்துகொண்ட	-9.27837
ளிப்ப	-9.27884
▁சதவிகித	-9.27931
▁யோக	-9.2797
▁பரபரப்பை	-9.28082
▁இருக்கலாம்	-9.28196
▁நாயக	-9.28233
T	-9.28319
▁தகுதி	-9.28336
▁பத்திரிகை	-9.28471
▁ஏற்பட்டுள்ளது	-9.28489
▁தயாரிப்ப	-9.28606
▁ரத்து	-9.28616
▁எவ்வளவு	-9.28741
▁நாட்டை	-9.28777
▁அவசியம்	-9.28825
▁வருவதாக	-9.28855
▁தெரியாத	-9.2886
▁நினைவு	-9.28872
▁முடித்த	-9.28884
▁அதிகரிக்க	-9.28887
▁யாருக்கு	-9.2889
▁பரிந்துரை	-9.29013
▁கிருஷ்ண	-9.29115
▁தொடர்பில்	-9.29128
▁ராகு	-9.29161
▁பிரசார	-9.2917
▁சீன	-9.29182
▁ரவி	-9.29306
▁தொற்று	-9.29326
▁உயர்த்த	-9.29451
▁ட்ர	-9.29677
▁திகதி	-9.297
▁கட்டாய	-9.29714
தல	-9.29735
மொழி	-9.29834
▁குஜராத்	-9.29835
▁லே	-9.29868
▁இளைஞர்	-9.29907
▁கடல்	-9.29966
▁விடும்	-9.3003
▁அதிரடி	-9.3006
▁பட்டியல	-9.30069
▁உண்டு	-9.3024
▁தெரியவில்லை	-9.30244
▁முன்னேற்ற	-9.30246
படுத்த	-9.30246
▁27	-9.30339
▁தகவல	-9.30351
அ	-9.30361
க்கொண்டு	-9.3041
▁தினம	-9.30422
▁இலங்கையில்	-9.30448
▁ட்ட	-9.30549
in	-9.30597
▁ப்படுகிறது	-9.30634
▁28	-9.30645
▁மோசமான	-9.30658
பூ	-9.30888
துறை	-9.30927
▁குற்றவாளி	-9.30935
▁சொத்து	-9.3097
ராய	-9.31058
▁அறிவ	-9.31065
▁ாமல்	-9.31168
▁வீட்டுக்கு	-9.31194
▁தடுப்பூசி	-9.31212
▁அவசர	-9.31214
ண்டர்	-9.31236
மலை	-9.31236
▁ரீதியாக	-9.31237
▁பொறுப்ப	-9.31285
ட்டர்	-9.31312
▁கும்பாபிஷேக	-9.31355
▁வழங்கப்பட்ட	-9.3139
▁மொ	-9.31411
▁பக்கத்தில்	-9.31463
▁தெரியும்	-9.31466
▁குறைவ	-9.31518
▁மாறிய	-9.31521
▁எச்சரிக்கை	-9.31584
▁ரசிகர்கள்	-9.31646
வோ	-9.31668
▁இதற்காக	-9.31738
▁குற்றச்சாட்டு	-9.31902
▁நட்சத்திர	-9.3191
▁அலை	-9.32085
▁தொண்டர்கள	-9.32219
▁செயல	-9.3223
▁வைர	-9.32265
▁குறைக்க	-9.32474
▁திராவிட	-9.32612
▁நகை	-9.32757
▁சதவீத	-9.32875
▁கட்டுப்பாட்ட	-9.32894
ீங்க	-9.33004
▁26	-9.33007
▁விண்ணப்ப	-9.33034
▁மேற்கொண்டு	-9.33178
▁பாடல்	-9.33253
▁காஷ்மீர	-9.33319
ாரா	-9.33446
▁தயாரிக்க	-9.33461
▁கௌரவ	-9.33603
▁ப்பட்டு	-9.33739
▁வருகை	-9.33752
▁ஐக்கிய	-9.33753
சல்	-9.33759
▁தம	-9.33825
▁வருடங்கள	-9.34015
▁காற்ற	-9.34044
▁பொருத்த	-9.34185
▁நியூ	-9.34268
▁கொண்டே	-9.34379
▁பொருட்களை	-9.34465
▁மூட	-9.34495
▁வர்த்தக	-9.34612
▁சக	-9.3465
லட்சுமி	-9.34657
▁தேர்வ	-9.34727
▁வாழ்த்து	-9.34765
▁எதிர்கால	-9.34798
▁வெறும	-9.34892
▁இலவச	-9.34893
▁பழைய	-9.34911
▁குறித்தும்	-9.35077
ுவதற்காக	-9.35086
▁மறுத்த	-9.3512
▁பிரிவ	-9.35121
▁நண்பர்கள	-9.3513
▁பேருக்கு	-9.3515
▁தெரிகிறது	-9.35182
▁இருக்கின்றன	-9.35205
▁ஒருங்கிணைப்பாளர	-9.35214
▁நவீன	-9.3534
▁முழுமையாக	-9.3543
▁கண்டு	-9.35513
▁நிர்வாகம்	-9.35558
▁செயல்படுத்த	-9.35559
▁புத்தக	-9.35593
▁எடுக்கப்பட்ட	-9.35599
▁மில்லியன	-9.35617
▁பேராசிரியர்	-9.3562
▁சாமி	-9.35648
▁போதும்	-9.35671
▁உள்ளதாக	-9.35712
▁தேச	-9.35767
▁அமைய	-9.35769
▁எதிர்த்து	-9.35787
▁உருவாக	-9.35818
▁ஆகியவை	-9.35919
▁ராசி	-9.36002
▁இரண்டாம	-9.36044
▁தீர்மான	-9.36127
▁வீரர்கள	-9.36143
▁பாலாஜி	-9.362
▁கேட்டுக்	-9.36364
▁புகைப்பட	-9.3637
▁மகிழ்ச்சி	-9.36418
▁படிப்ப	-9.36422
▁சூழ்நிலை	-9.36492
▁இன்னொரு	-9.36501
▁யாரும	-9.36513
▁எம்பி	-9.36531
▁பந்துவீச	-9.36569
▁இயற்கை	-9.36638
r	-9.3678
▁யுக்ரேன	-9.36785
▁வெளிப்படுத்த	-9.36845
▁நடைமுறை	-9.36866
▁ஓர	-9.36872
▁E	-9.3689
▁ிருந்தது	-9.36891
▁வேக	-9.36894
▁தூக்கி	-9.36951
▁தீர்ப்பு	-9.37029
▁னா	-9.37124
▁நினைத்த	-9.37151
at	-9.37163
▁திறக்க	-9.37255
▁பின்பற்ற	-9.3731
ூட்ட	-9.37321
க்கொள்ள	-9.37322
▁ப்படும்	-9.37428
▁அடித்து	-9.3751
▁சூழல்	-9.3751
▁ஏப்ரல	-9.37525
யொட்டி	-9.37531
▁மகன	-9.37544
▁த்துடன்	-9.37571
▁பாராட்ட	-9.37573
▁அதேபோல்	-9.37614
▁வழங்கும்	-9.37651
▁தீர்வு	-9.37678
பூர்	-9.37752
▁சிக்கல்	-9.37805
▁பிரா	-9.37985
ுக்குள்	-9.38011
▁மாட்ட	-9.38062
▁மோசடி	-9.38117
▁கட்டுப்படுத்த	-9.38134
▁இடை	-9.38257
▁விஷ	-9.38265
▁நேரடியாக	-9.38267
▁ஆங்கில	-9.38273
▁பொருட்கள்	-9.38316
▁அறிய	-9.38363
▁விநாயகர்	-9.38363
▁பெண்கள	-9.38398
▁இடி	-9.38462
▁ஆளுநர	-9.38527
▁ஆன்லைன	-9.38565
▁ராஜா	-9.38713
▁கடிதம்	-9.38714
▁கோரி	-9.38777
▁ஒன்றிய	-9.38868
▁p	-9.38875
▁பூமி	-9.39096
▁சேத	-9.39135
த்ரா	-9.39171
▁வாகனங்கள	-9.39195
▁அதிகரித்த	-9.39274
▁அனுமதிக்க	-9.39331
▁அவன	-9.39416
▁தெரிவிக்கப்பட்ட	-9.39424
▁தேட	-9.39474
சே	-9.39493
▁சாப்பிட	-9.39514
▁விடுவ	-9.39625
▁பெயர	-9.39678
▁நமக்கு	-9.39696
▁அதைத்	-9.3977
ப்புற	-9.398
▁சுய	-9.39836
ுகிறார்கள்	-9.39844
▁விவசாயிகள்	-9.39858
▁நிர	-9.39865
▁எங்க	-9.39911
▁வழிபாடு	-9.39968
▁பெருமை	-9.40048
▁உள்ளே	-9.40091
▁இரான	-9.40147
▁நபர	-9.40156
▁தீர்த்த	-9.40218
▁மகாராஷ்டிரா	-9.40224
▁1,	-9.40236
N	-9.40347
▁பிப்ரவரி	-9.40376
ராஜன்	-9.40426
ாவது	-9.40471
▁குற்றம்சாட்ட	-9.4053
▁குட	-9.40531
▁எண்ணெய்	-9.40556
▁உள்ளாட்சி	-9.40588
▁மாகாண	-9.40697
▁அகற்ற	-9.40847
▁நாட்களில்	-9.40876
▁மூலமாக	-9.4091
▁தோன்ற	-9.40924
▁இங்கே	-9.41035
▁குறிப்பிட	-9.41064
▁திட்டத்தின்	-9.4108
▁பலன்	-9.41094
▁குடும்பத்த	-9.41453
▁படுத்த	-9.41476
▁துப்பாக்கி	-9.41599
▁தர்ம	-9.41609
▁அமைக்கப்பட்ட	-9.41648
▁எல்	-9.41704
▁வுடன்	-9.41737
▁நடிகை	-9.41912
ப்பிடி	-9.41913
▁மாணவர்	-9.41913
▁புரிந்து	-9.41913
▁பரி	-9.41958
▁களுக்கும்	-9.41986
க்கார	-9.41992
▁அதோடு	-9.42068
re	-9.42091
▁கொஞ்சம	-9.42363
▁மாற்று	-9.42394
ுகிறோம்	-9.42429
தோ	-9.42445
▁கரை	-9.42478
▁கட்சிகள்	-9.42656
▁கணவர்	-9.42672
▁பணியாற்ற	-9.42802
▁அடையாள	-9.42829
▁அண்ணா	-9.42834
▁ஏமாற்ற	-9.42844
▁அப்ப	-9.42899
▁வழக்கறிஞர்	-9.42905
▁விழ	-9.42945
▁அறிவுறுத்த	-9.42999
வால்	-9.43037
▁போட்டியிட்ட	-9.43095
▁ிற	-9.43105
▁லெ	-9.43277
▁உடல	-9.43386
▁பாஜகவின	-9.43552
இந்த	-9.43557
▁என்பவர்	-9.43663
▁செய்தியாளர்கள	-9.43672
▁D	-9.43726
▁யில	-9.4375
▁இருவர	-9.43755
▁ஏற்படுத்திய	-9.4376
ஆ	-9.43835
இல்	-9.43836
▁ஏற்கெனவே	-9.43942
▁அதிகாலை	-9.43943
▁ார்கள்	-9.43986
▁ஆகஸ்ட	-9.44148
▁ிருந்தார்	-9.44189
▁உறுப்பினர்கள்	-9.44216
▁m	-9.44349
▁கொல்லப்பட்ட	-9.44356
▁தாண்டி	-9.44362
விற்கு	-9.44383
▁ுகிற	-9.44515
▁வீழ்த்த	-9.44576
▁ஆட்சியை	-9.44592
▁ஆதார	-9.44593
ளவு	-9.44676
▁நன்றி	-9.44744
▁கிரி	-9.44865
▁சாத்திய	-9.44908
▁வரலாற்ற	-9.44926
▁விரிவா	-9.44966
▁வலி	-9.45059
▁வலுவ	-9.45267
▁முஸ்லிம்	-9.45279
▁தீவிரமாக	-9.45309
▁சினிமா	-9.45338
▁ஒழி	-9.4539
▁முத்து	-9.45438
▁வருவது	-9.4555
▁அறிவிக்க	-9.45562
▁மகள்	-9.45625
▁சாட்ட	-9.45718
ற்கான	-9.45813
▁டிசம்பர	-9.45856
▁சண்டை	-9.45876
▁ஜெயலலிதா	-9.45883
▁தெரிந்த	-9.45958
▁பதற்ற	-9.46009
▁புதுச்சேரி	-9.46019
▁2020	-9.4607
▁நிறுத்தி	-9.46109
▁உள்ளூர்	-9.4614
▁தூர	-9.46182
▁விஷயம்	-9.46206
▁மாணவ	-9.4621
▁வெடி	-9.46227
▁மேற்	-9.46331
▁எத்தனை	-9.4634
▁ாலும்	-9.46368
▁பிரிட்டன	-9.46378
▁எழுப்ப	-9.46412
▁சிக்கி	-9.46454
▁கட்சியை	-9.46544
▁சேர்த்த	-9.46593
▁பதிவிட்ட	-9.4668
▁காம	-9.46709
▁மட	-9.46737
▁சித்த	-9.46757
▁பத்திர	-9.46849
▁வேகமாக	-9.4687
▁கர்நாடக	-9.46881
▁இருப்பதால்	-9.46946
▁இயங்க	-9.46996
▁்க	-9.47134
▁பதவியை	-9.47145
▁அக்டோபர	-9.4715
▁விக்ரமசிங்க	-9.4715
▁செல்போன	-9.47158
E	-9.47196
▁ஜனவரி	-9.47313
▁சட்டத்தின்	-9.47325
▁பின்னணி	-9.47357
▁ஆராய்ச்சி	-9.47449
▁ஓடி	-9.47595
▁ரசிகர்கள	-9.47622
50	-9.47677
R	-9.47692
▁ஈடுபட்டு	-9.47756
▁வரவேற்ப	-9.47804
▁வைரஸ்	-9.4795
புரம்	-9.48136
▁நிலையத்தில	-9.4819
▁பார்ப்ப	-9.483
▁நடை	-9.48389
▁நடவடிக்கைகள்	-9.48438
▁வன	-9.48443
▁வணிக	-9.48474
▁பெண்களுக்கு	-9.48569
▁எதிர	-9.48738
▁ஒற்றை	-9.48797
▁ுவதற்க	-9.48872
▁அல்	-9.48911
▁உற்சவ	-9.48959
▁மசோதா	-9.48959
▁முகமது	-9.48965
▁அடங்க	-9.48981
▁விபத்த	-9.48984
▁ுகிறது	-9.49003
▁களிலும்	-9.49019
ாண்டு	-9.4908
▁சம்பவங்கள	-9.49109
▁அணிக்கு	-9.49115
▁நபர்கள	-9.49124
▁தரப்பினர	-9.49126
▁தல	-9.4914
▁புள்ளி	-9.49158
▁முழுக்க	-9.49227
பேட்டை	-9.4945
▁லாப	-9.49452
▁அறிமுக	-9.49487
க்கூடும்	-9.49655
▁தலைநகர	-9.49676
▁நிறுவனத்தின	-9.49796
▁கருத்த	-9.49798
▁ஆதரவாக	-9.49801
▁பரவி	-9.49928
▁அருள்	-9.49936
▁செயல்பட்டு	-9.49979
▁பொறுத்தவரை	-9.50136
வர்களுக்கு	-9.5027
▁கமல	-9.50272
▁பிரதான	-9.50351
▁நடத்தினர்	-9.50425
▁சுந்தர	-9.50456
▁மாநிலங்களில	-9.50513
வல்	-9.50533
▁தில்	-9.50563
▁பொய்	-9.50586
▁பட்டி	-9.50587
▁ஏற்படுத்தியுள்ள	-9.50603
▁அஞ்ச	-9.50622
▁போலவே	-9.50641
▁கணக்கு	-9.50692
▁வயதில	-9.50698
▁வார்த்தை	-9.50788
▁கட்டண	-9.50801
பன்னீர்	-9.50804
▁பணிகளை	-9.50856
▁கனடா	-9.50857
▁கோலி	-9.50914
▁கிராமத்தில்	-9.50954
▁ஓட	-9.51072
▁உச்சநீதிமன்ற	-9.51141
▁மரியாதை	-9.51141
▁வசிக்க	-9.51222
▁நுழை	-9.51229
▁நடவடிக்கைகளை	-9.51295
▁ஜீ	-9.51303
▁மருத்துவமனைக்கு	-9.5131
▁வங்கதேச	-9.51481
தோற	-9.51554
it	-9.51556
▁பெயரை	-9.51577
களால்	-9.51613
▁மூலாதார	-9.51651
▁ஹமாஸ்	-9.51652
▁நன்மை	-9.51656
▁வாரம்	-9.51663
த்தூர்	-9.51722
;	-9.5175
▁ராவ	-9.51824
▁கோட்டை	-9.51861
▁தொழிலாளர்கள	-9.51936
▁கவுன்சில	-9.51992
▁அவள	-9.51993
க்கால	-9.52003
▁பக்தர்களுக்க	-9.52062
▁வேட்பாளர	-9.52065
ரூ	-9.52099
▁இள	-9.52123
▁மகளிர	-9.52164
▁நின்று	-9.52268
▁லீ	-9.52288
▁ஊழல்	-9.52305
▁விவசாயிகள	-9.52314
▁அம்ப	-9.52394
b	-9.52443
▁சர்மா	-9.52495
▁l	-9.52511
ெண்	-9.52536
▁தியாக	-9.52567
▁ஆணையம்	-9.52594
▁போராட்டத்தில்	-9.52608
▁சம்பள	-9.52609
▁சவு	-9.52702
▁29	-9.52728
▁குண்டு	-9.5275
▁அத்துடன்	-9.52805
▁குழப்ப	-9.52835
▁முன்பாக	-9.52857
▁யிலும்	-9.52914
▁முடிவுகள்	-9.53039
on	-9.53071
▁பங்கேற்க	-9.53197
▁சிங்க	-9.53204
▁மாணவர்களுக்கு	-9.53284
ிடமிருந்து	-9.53341
▁காப்பாற்ற	-9.53371
▁அடையாளம்	-9.53401
▁ஆகியவற்ற	-9.5341
▁பொதுமக்கள	-9.53473
▁ஏற்படுத்தும்	-9.5349
▁ஈர	-9.53514
▁பந்து	-9.53594
▁வருகிற	-9.53631
▁காங்கிரஸ	-9.53651
▁ுள்ளதாக	-9.53847
▁விசாரணையில்	-9.5386
▁நின்ற	-9.53882
▁கண்டுபிடிக்க	-9.53892
▁சிறையில	-9.54054
▁வீட்டிற்கு	-9.54067
▁ஐரோப்ப	-9.54077
▁அனைவருக்கும	-9.5419
▁கப்பல்	-9.54263
▁ங்களுக்கு	-9.54317
▁மக்களவை	-9.54335
▁முடியாமல்	-9.54417
▁வடக்கு	-9.5446
நகர்	-9.54507
▁உயர்நீதிமன்ற	-9.54592
னியா	-9.54618
▁இடத்தை	-9.54699
▁பாதுகாக்க	-9.54768
▁ஏற்க	-9.54813
▁அமைச்சர்கள்	-9.54826
பட்டி	-9.54847
▁முடிந்தது	-9.5488
st	-9.54922
▁முதல்வர	-9.55017
▁சுற்று	-9.55037
▁செப்டம்பர	-9.5512
▁எதிர்பார்ப்ப	-9.5512
▁பாக	-9.55211
▁பொதுவாக	-9.55218
▁தகவல்களை	-9.55273
▁வெளியுறவு	-9.55297
▁அவற்றை	-9.55299
▁ஒன்றில்	-9.5536
ாலய	-9.55404
w	-9.55441
▁பகிர்ந்து	-9.55461
▁இறங்கி	-9.55564
வாரி	-9.55605
▁கழி	-9.55615
▁க்கூடிய	-9.55621
▁/	-9.55628
▁விநியோக	-9.55651
▁மூன்றாவத	-9.55669
▁விதமாக	-9.55819
▁அழைப்பு	-9.55857
▁பாண்டிய	-9.5592
ic	-9.55967
▁பேச்ச	-9.55984
▁ஜப்பான	-9.56031
▁மேற்கொள்ளப்பட்ட	-9.56094
▁மதிப்பு	-9.56104
▁இந்தியாவுக்கு	-9.56145
▁பெயரில	-9.56272
▁உதயநிதி	-9.56364
▁நாடுகளுக்கு	-9.56396
▁மேம்படுத்த	-9.56398
▁G	-9.56492
▁ஹே	-9.56529
▁N	-9.56577
▁சென்றார்	-9.56666
▁198	-9.56708
▁இதனிடையே	-9.56722
▁சுட்டிக்காட்ட	-9.56726
▁எடுப்ப	-9.56761
▁ஆசை	-9.5679
▁பழக்க	-9.5679
▁அளவ	-9.56795
▁இளம்	-9.56859
▁எம	-9.56919
▁ிருக்கிற	-9.56934
▁வலியுறுத்த	-9.56969
▁ஆனாலும்	-9.5698
▁விளக்கம்	-9.56988
யெல்லாம்	-9.57008
▁யாதவ	-9.57025
▁இருக்கிறார்கள்	-9.57054
▁பெட்ரோல்	-9.57081
▁சத	-9.5726
▁சாதாரண	-9.57261
▁நெருக்க	-9.57278
▁ங்களும்	-9.57293
▁முனை	-9.57347
▁நூல	-9.57354
▁இருக்கு	-9.5736
▁வாய்ந்த	-9.57427
▁சென்றனர்	-9.5743
▁தொடர்ந்த	-9.57434
▁தொடர்ச்சியாக	-9.57442
▁அனுப்பிய	-9.57534
▁திரை	-9.5755
▁விசாரிக்க	-9.57807
▁ஒப்ப	-9.57824
▁இயல	-9.57836
▁தரும்	-9.57848
▁விற்கு	-9.57852
▁ிருப்பதாக	-9.57889
▁குரல்	-9.57901
▁ஆரோக்கிய	-9.57985
▁பொங்கல	-9.58055
▁பெறும்	-9.58068
▁திரி	-9.5816
▁31	-9.58415
▁போய	-9.58609
வுடன்	-9.58657
▁அவர்களின	-9.58681
▁தவிர்க்க	-9.58945
▁கிடைத்தது	-9.58965
▁என்றாலும்	-9.59032
▁புதிதாக	-9.59083
▁d	-9.59097
▁வெகு	-9.59123
▁விசாரணைக்கு	-9.59141
நாயக்க	-9.59312
▁குறைவாக	-9.59332
▁சூட	-9.59357
▁மீன்	-9.59365
▁ஒதுக்க	-9.59381
▁அதிருப்தி	-9.59449
▁ஒப்புதல	-9.5946
▁சம்ப	-9.59466
▁முந்த	-9.59499
▁தீப	-9.59558
▁வழக்கை	-9.59656
▁யின	-9.59658
▁அடுத்தடுத்த	-9.59667
▁சொன்னார்	-9.5969
▁நினைவ	-9.59739
▁முக்கியத்துவம்	-9.59819
▁முருக	-9.59913
வாய	-9.59973
▁வழங்கப்பட்டது	-9.60015
▁கடற்படை	-9.60189
▁வயதான	-9.60189
M	-9.60209
ப்பதற்கு	-9.60287
▁ரன்களை	-9.60287
▁பின்ன	-9.60305
த்திற்காக	-9.60306
▁வாய்	-9.60307
▁வைத்தார்	-9.60367
▁அழைக்க	-9.60492
▁நன்றாக	-9.60562
▁கூறுகின்றனர்	-9.60653
▁காலமாக	-9.6067
▁வாழ்ந்த	-9.60723
சூ	-9.6074
▁பட்ஜெட்	-9.60748
▁ரயில்வே	-9.60797
▁மல	-9.60842
▁மீட்பு	-9.60935
▁கேப்டன்	-9.60936
▁சமீப	-9.6103
▁L	-9.61052
▁நாட்களாக	-9.61065
▁மீட்டர்	-9.6107
▁பொதுச்செயலாளர	-9.61122
▁முன்வைத்த	-9.61148
▁செய்கிற	-9.61279
▁மணிப்பூர	-9.61339
▁அபிஷேகம்	-9.61347
▁பகிர	-9.61363
▁திரும்பி	-9.61377
▁போதை	-9.61478
▁ஏற்ப	-9.6151
▁உறவினர்கள	-9.61528
▁திட்டங்கள்	-9.61541
▁மனிதர்கள	-9.61569
▁பாஸ்	-9.61672
▁முன்னணி	-9.6179
▁கட்டட	-9.61869
▁திறந்து	-9.6206
U	-9.62064
▁F	-9.62128
▁ஓவர	-9.62229
▁ராணி	-9.62285
▁சொந்தமான	-9.62339
▁இணையதள	-9.62443
▁70	-9.6246
▁சிறுவன	-9.62498
▁செய்யப்படும்	-9.62568
▁ுகிறார்கள்	-9.62628
▁தெய்வ	-9.62641
▁கொண்டிருக்க	-9.62702
▁பகவான்	-9.62727
▁கட்டப்பட்ட	-9.62749
▁வாங்கிய	-9.62751
▁செல்	-9.62827
▁நியாய	-9.63022
▁கேரளா	-9.63044
▁ட்விட்டர்	-9.6309
▁முடிவுக்கு	-9.63092
▁சற்று	-9.631
▁வாரிய	-9.63106
▁தூக்க	-9.63115
▁தானே	-9.63136
▁போதே	-9.63183
▁பெற்றது	-9.63203
▁புனித	-9.63215
▁அடைய	-9.63284
▁ஆர்வம	-9.633
தாவது	-9.63457
▁சன்	-9.6358
▁கட்சிக்கு	-9.63586
▁ுவது	-9.636
பகுதி	-9.63626
▁உருவ	-9.63707
▁பயணிகள்	-9.63801
▁வைத்திருந்த	-9.63834
▁சுர	-9.63859
▁போட்டியில	-9.63903
▁ஸ்டாலின	-9.63921
▁கொடுக்கும்	-9.63926
▁துறையில்	-9.63951
▁.....	-9.64039
▁கவு	-9.64154
▁சம்பந்தப்பட்ட	-9.64167
▁ஏற்படுத்தியது	-9.64174
▁உயர்வு	-9.64212
▁அரங்க	-9.64234
▁கார்த்திக	-9.64275
▁பேரை	-9.64275
▁அமைப்பின	-9.64285
▁பணியாற்றி	-9.64412
▁களே	-9.64426
D	-9.64428
▁மாதத்தில்	-9.64499
▁ராஜஸ்தான்	-9.64555
▁போலி	-9.64617
▁ஆசிய	-9.64635
▁என்பவர	-9.6472
▁வளர்ந்த	-9.64816
▁ஆளும	-9.6483
▁எழ	-9.64891
ாராம்	-9.64896
▁ஒத்துழைப்ப	-9.64943
▁வலியுறுத்தி	-9.64948
▁டாலர்	-9.6497
▁படத்தை	-9.64979
▁பணியாளர்கள	-9.65012
▁தடுப்பு	-9.65021
▁பூஜைகள்	-9.65128
▁கூறப்பட்ட	-9.65135
▁நாணய	-9.65141
▁பதிலாக	-9.65142
▁கொழும்பு	-9.65152
▁வலைதளங்களில	-9.65167
▁மல்	-9.65274
▁முதல்வராக	-9.6532
▁புகழ்	-9.65333
த்தன்மை	-9.65364
▁ஆனந்த	-9.65405
▁சூரிய	-9.65513
▁இணைந்த	-9.65515
▁விண்வெளி	-9.65529
▁ஏற்றுமதி	-9.65529
▁த்தால்	-9.65614
▁பன்	-9.65672
▁நியமன	-9.65725
▁த்தின	-9.65782
மூலம்	-9.65809
▁செய்திருந்த	-9.6582
▁பத்து	-9.65859
்நாத்	-9.65877
▁இஸ்லாமிய	-9.65889
▁வானிலை	-9.65923
▁கொள்வத	-9.65986
▁தெரிந்து	-9.65992
▁தவறான	-9.66049
▁வன்	-9.66249
▁ஒதுக்கீடு	-9.66316
▁சிரம	-9.66329
▁துடன்	-9.6636
▁முன்னர்	-9.66378
▁நிவாரண	-9.66514
▁திட்டங்களை	-9.66637
▁வரலாற்று	-9.66673
▁இருந்தனர்	-9.66737
▁மையம்	-9.66823
▁வருமானம்	-9.6685
▁விசா	-9.66883
▁இதுதான்	-9.66902
▁களமிறங்க	-9.6691
▁பதிலளித்த	-9.6691
▁வழங்கப்பட	-9.66934
▁அபிஷேக	-9.67069
▁வன்கொடுமை	-9.67108
▁வெடித்த	-9.67162
▁அப்போத	-9.67204
▁வாக்குகள்	-9.67217
▁குழுக்கள	-9.67247
▁பாய்	-9.67256
▁தோட்ட	-9.67283
▁தெரியவந்தது	-9.67308
▁வர்களுக்கு	-9.67312
▁ப்படவில்லை	-9.67313
▁ுகின்றனர்	-9.6732
▁த்திலும்	-9.67349
▁எண்	-9.67458
▁தனியாக	-9.67495
▁சாய்	-9.67571
ாலே	-9.67582
▁திறன்	-9.67633
▁னுக்கு	-9.67682
▁பிரதிநிதி	-9.67707
▁கருணாநிதி	-9.67707
▁சேலம்	-9.67722
கிறேன்	-9.67778
புர	-9.67813
▁விதித்த	-9.67882
▁ஏவுகணை	-9.67908
▁ராஜினாமா	-9.67908
▁கலைஞர்	-9.67908
யினர்	-9.67995
▁பிரசாத	-9.68075
▁80	-9.68081
▁கல்யாண	-9.68111
▁மாதங்களுக்கு	-9.68215
▁போட்டிகளில	-9.68218
▁பொதுச்	-9.68306
▁வட்டார	-9.68312
▁கோல	-9.68359
▁திசை	-9.68383
▁விமர்ச	-9.6844
▁சிக்கிய	-9.68461
▁வருகிறோம்	-9.68495
▁ஓய்வு	-9.68564
▁அளிக்கப்பட்ட	-9.68614
பெற்ற	-9.68693
▁துவங்கியது	-9.68717
▁அரசியலமைப்ப	-9.68724
▁கொள்ளும்	-9.68773
ஹி	-9.68778
▁மேலாக	-9.6881
▁காரணங்கள	-9.68844
▁குழ	-9.68949
▁தங்களுக்கு	-9.69064
▁பிள்ளை	-9.69187
▁நவ	-9.69251
▁இரண்ட	-9.69295
▁ஒட்டுமொத்த	-9.69322
ஸ்தா	-9.6936
▁நியமிக்கப்பட்ட	-9.69408
▁வீசிய	-9.69473
▁உணர	-9.69488
▁அலுவலகத்தில	-9.69526
ன்னு	-9.69641
▁செயலி	-9.69646
▁அதற்க	-9.69746
▁ஏற்பாடுகளை	-9.69747
▁தோற்ற	-9.69859
▁அப்பகுதி	-9.69936
▁விட்டதாக	-9.69969
▁செய்துள்ளார்	-9.70016
▁முகாம	-9.70029
▁ஆஃப்	-9.70139
▁வரலாறு	-9.7014
லூர்	-9.70295
▁போகும்	-9.70327
▁சதவீதம்	-9.70372
சேகர	-9.70433
▁மகிழ்ச்சிய	-9.70448
▁வெள்ளி	-9.70538
▁விளம்பர	-9.7055
▁இருப்பதை	-9.70581
த்தட்ட	-9.70646
▁ஊடகங்கள	-9.70731
பாளையம்	-9.70766
▁என்கிறார்கள்	-9.70837
▁ிருப்பது	-9.70883
▁வெளியேற்ற	-9.70884
▁போராட	-9.70975
▁ஷி	-9.71093
▁புதின	-9.71138
▁சௌ	-9.71189
▁பரிசு	-9.71203
O	-9.7132
▁கருப்ப	-9.7132
▁2018	-9.71377
▁எனினும்	-9.71378
▁கட்டுரை	-9.71389
நாத	-9.71554
▁விமர்சனம்	-9.71799
▁அமைத்த	-9.71862
சார்	-9.7192
ஸ்டாலின்	-9.71951
▁நல்லது	-9.7196
▁சபாநாயகர	-9.72002
▁கிரக	-9.72033
▁பிரதி	-9.72087
▁களிடம	-9.72137
▁கட்டணம்	-9.72207
▁திறமை	-9.72213
▁நகராட்சி	-9.72276
▁டெஸ்ட்	-9.72278
▁ிருக்கிறார்கள்	-9.72311
▁தேர்தல	-9.72312
▁தெளிவாக	-9.72369
▁என்றே	-9.72436
▁கொண்டிருக்கிறது	-9.72472
▁மதிய	-9.72494
▁ஒளி	-9.72523
▁எழுப்பிய	-9.72576
▁பண்ணி	-9.72582
▁நூற்றாண்ட	-9.72631
▁பழனிச்சாமி	-9.72631
▁நவம்பர்	-9.72632
▁ஒட்டி	-9.72727
▁பாரம்பரிய	-9.72842
▁எதிர்பார்த்த	-9.72842
▁ஒழுங்கு	-9.7285
▁செய்கிறார்	-9.72893
▁காவல்துறையினர்	-9.72897
▁வெளியிடப்பட்ட	-9.72917
▁கண்காணிப்ப	-9.72925
▁மீன	-9.72942
▁ுமாறு	-9.73025
▁தீர்மானம்	-9.73204
▁திடீர்	-9.73265
▁மாளிகை	-9.73265
▁டிவி	-9.73308
▁35	-9.73374
▁தற்கு	-9.73424
ீஸ்வர	-9.73428
புரி	-9.73479
▁ஞான	-9.73482
▁கடவுள	-9.73499
▁உறுதியாக	-9.7354
▁அமைச்சராக	-9.73572
▁பார்க்கலாம்	-9.73611
▁n	-9.73618
▁சென்	-9.73628
▁கூறுகிறது	-9.7364
▁அந்நாட்ட	-9.73688
▁500	-9.7376
▁கள்ளக்குறிச்சி	-9.73901
▁கொல்கத்தா	-9.73901
▁விதிக்கப்பட்ட	-9.7403
▁ப்படுவத	-9.74035
▁திண்டுக்கல்	-9.74114
▁வசூல	-9.74127
▁த்திலிருந்து	-9.74228
▁உறுப்பினர்கள	-9.74261
வொரு	-9.7429
▁ரகசிய	-9.74328
ra	-9.74401
▁னால்	-9.74429
▁அவ்வ	-9.74518
▁சூரியன	-9.74659
▁தேர்ந்தெடுக்க	-9.74757
▁அறிவிப்ப	-9.74886
▁ஏழு	-9.74898
es	-9.74914
▁கேரள	-9.7492
▁நிபுணர	-9.74961
▁சொல்கிறார்	-9.75115
▁கடல	-9.75132
▁ிறது	-9.75165
▁தம்பதி	-9.75184
▁ஜனதா	-9.7519
▁அரிசி	-9.75201
▁மருத்துவர்கள்	-9.7524
▁பாதிக்கப்பட	-9.75254
▁விற்க	-9.75333
▁இளைஞர்கள்	-9.75336
▁மீறி	-9.75406
▁நிச்சயம்	-9.75436
▁பரபர	-9.75466
▁75	-9.75524
▁எழுதி	-9.75551
எ	-9.75562
▁கலவர	-9.75636
▁விகித	-9.75641
▁உணர்ந்த	-9.75664
▁செய்துள்ளனர்	-9.75752
▁தேனி	-9.75761
▁நிறைவு	-9.75838
▁ஆத்மி	-9.75844
▁திருப்பி	-9.75978
▁விரி	-9.76007
▁பர்	-9.76033
▁ிருக்கின்றனர்	-9.76049
▁எதிர்கொள்ள	-9.76054
▁வாக்குறுதி	-9.76054
▁நாராயண	-9.76055
▁ான்	-9.76221
▁படித்து	-9.76231
▁த்திற்க	-9.76241
▁இரட்டை	-9.76275
▁விடுமுறை	-9.76275
▁பேரும்	-9.76277
▁பெற்றுக்	-9.76343
▁முருகன்	-9.76346
▁தன்மை	-9.7643
▁விஞ்ஞான	-9.7649
▁பெரும்பால	-9.76498
▁நாடுகளில	-9.76521
▁உள்பட	-9.7657
▁நுழைந்த	-9.76596
▁நினைத்து	-9.76613
▁197	-9.7667
▁வாய்ப்புகள்	-9.76702
ுவேன்	-9.76705
▁ஊர்வலம	-9.7671
▁பிரதேசத்தில்	-9.76712
▁முற்றிலும	-9.76734
▁வெல்ல	-9.76742
பொழுது	-9.76748
▁b	-9.76791
▁உரை	-9.76795
▁உணர்வு	-9.76796
▁திட்டமிட	-9.76869
▁தேர்தலை	-9.76883
▁நிறுவ	-9.76909
▁கர்நாடகா	-9.76986
▁பாஜகவுக்கு	-9.77076
▁எவ்வாற	-9.77148
▁அக்னி	-9.77175
▁வெப்ப	-9.77269
▁தள்ளி	-9.77271
▁கொண்டிருக்கும்	-9.77333
▁இடங்களை	-9.77369
▁வசித்து	-9.77374
▁ுகிறார்	-9.77378
▁உதாரண	-9.77589
▁அனுமதிக்கப்பட்ட	-9.7759
▁ன்னு	-9.77696
▁வகித்த	-9.77699
மில்லை	-9.77713
▁அதற்காக	-9.77724
▁கணவர	-9.77736
▁தாக்குதல	-9.77758
▁எடை	-9.77767
▁கொடூர	-9.7781
▁இதற்கிடையே	-9.77817
▁தெற்கு	-9.77823
▁உடலை	-9.77983
▁அறிமுகப்படுத்த	-9.77995
▁தொடர்புடைய	-9.78078
▁ஏதாவத	-9.78093
▁வல்ல	-9.78243
▁கடற்கரை	-9.78254
▁சூழல	-9.78262
▁O	-9.78316
சக்தி	-9.78359
▁தெரிவ	-9.78394
▁அரசியலில	-9.78417
▁வீட்டை	-9.78551
▁திருப்பதி	-9.78582
▁செய்துள்ளது	-9.78625
▁இதய	-9.78626
▁வருத்த	-9.78762
ெடுப்ப	-9.78979
▁ரெட்டி	-9.79076
▁அறுவை	-9.79152
▁இருக்காது	-9.79171
▁அறிவியல்	-9.79185
▁பொறுத்த	-9.79223
▁வகுப்ப	-9.79237
▁நடைபெறுகிறது	-9.79254
▁வெள்ளை	-9.79275
▁அதிர்ச்சியை	-9.79326
▁குடியிருப்ப	-9.79373
▁நகர்ப்புற	-9.79394
▁நிகழ்வ	-9.79408
▁விட்டனர்	-9.79475
▁உடன	-9.7953
▁நாய்	-9.79546
▁அமைச்சர	-9.79551
▁அண்ட	-9.79576
▁கொடியேற்ற	-9.79598
▁பதிவாகி	-9.7965
▁தோடு	-9.7979
▁பெரும்பான்மை	-9.79824
செய்த	-9.79859
தாரர்	-9.79876
▁பொருள	-9.80002
▁அதிகபட்ச	-9.80072
▁பெய்ய	-9.80083
ற்கு	-9.80116
▁நினைக்கிற	-9.80205
▁யோகி	-9.804
▁நீதிபதிகள்	-9.80438
▁தூத்துக்குடி	-9.80504
▁ரஜினி	-9.80505
▁தூண்ட	-9.80536
மூர்த்தி	-9.80548
▁தெரிவிக்கின்றன	-9.80552
▁செயலக	-9.80558
▁சிவசேனா	-9.80732
▁பின்பு	-9.80739
▁தயார்	-9.80762
▁குழந்தைகளுக்கு	-9.8082
▁வளாகத்தில	-9.80842
▁பெய்த	-9.80881
▁தாமத	-9.80926
▁ஆகியவற்றை	-9.80937
▁கனமழை	-9.8096
காரர்	-9.81102
▁பில்லியன	-9.8119
▁ோர	-9.81256
▁அமைந்துள்ள	-9.81323
▁ராசிக்கு	-9.8136
▁அணுக	-9.81412
▁சட்டவிரோத	-9.81419
▁பதிலடி	-9.81421
▁அறிந்த	-9.81542
▁பிராந்திய	-9.81649
▁பொருட்கள	-9.8171
▁தடுத்த	-9.81725
▁கொன்ற	-9.81774
▁வெற்றியை	-9.81798
▁வால்	-9.81829
▁ஆடை	-9.81865
▁ரொம்ப	-9.81879
▁வார்டு	-9.81899
▁க்குள்	-9.819
▁டிரா	-9.8192
தினம்	-9.81938
▁பேரில்	-9.81958
▁குறிப்பிடப்பட்ட	-9.81984
▁தொண்ட	-9.82003
▁கொள்ளலாம்	-9.82083
▁ஜூ	-9.82117
▁மண்டப	-9.82133
▁போராட்டங்கள	-9.82163
▁அணு	-9.82168
▁வேற	-9.82279
▁மீனவர்கள	-9.82297
▁ஆயிரக்கணக்கான	-9.82341
▁இடைக்கால	-9.82354
▁H	-9.82376
▁மண்ண	-9.82388
தெல்லாம்	-9.82507
▁கேள்விக்கு	-9.82572
▁அதிமுகவில	-9.82603
▁செல்கிற	-9.8265
▁படித்த	-9.82688
▁விரைவ	-9.8271
▁தாயார	-9.82743
▁அமைத்து	-9.82777
▁முன்னேற	-9.82854
▁முடிவை	-9.8287
லிங்க	-9.82915
▁வழிபட்ட	-9.82931
▁வெளியாக	-9.83049
▁வழியில்	-9.83167
▁இலங்கைக்கு	-9.83227
▁இருப்பதாகவும்	-9.83235
ொன்று	-9.83241
▁விக்கெட்டுகளை	-9.83273
am	-9.83307
▁கடமை	-9.83346
▁கோவிலுக்கு	-9.83358
▁மட்டுமல்ல	-9.83448
▁சுரங்க	-9.83462
▁அலுவலர்	-9.83507
▁2017	-9.83507
▁அணிந்து	-9.83654
▁90	-9.83678
▁திணைக்கள	-9.83741
▁உற்சாக	-9.83742
▁உரிமையாளர	-9.83766
▁கட்டமைப்ப	-9.838
▁r	-9.83818
▁இன்ன	-9.83865
▁பீகார	-9.83895
▁தரவு	-9.83903
ed	-9.83945
▁இவ்வளவ	-9.83977
▁சூப்பர்	-9.83978
▁சாப்பிட்ட	-9.84084
▁வழிகாட்ட	-9.84227
▁செயல்பாடுகள	-9.8423
▁வைத்திருக்க	-9.84326
▁ஹரி	-9.84371
▁தேவி	-9.84387
▁பேசுகையில்	-9.84449
▁வேளாண்	-9.84449
▁வண்ண	-9.84459
▁குழுவின	-9.84491
▁போன்றவற்ற	-9.84495
▁படையினர	-9.84534
▁முன்பே	-9.84565
▁பிளா	-9.84604
▁செவ்வாய்	-9.84686
▁சார்பாக	-9.84688
▁நிறைந்த	-9.84695
▁தீர	-9.84739
▁நானும்	-9.8474
ப்பட்டுள்ளன	-9.84886
▁கட்டுமான	-9.84942
▁தொட்ட	-9.84944
▁விதிக்க	-9.85008
▁ஆரம்பிக்க	-9.8507
▁ராமர்	-9.85072
▁ஆந்திரா	-9.85107
▁ப்பட்டுள்ளது	-9.85109
▁அறிகுறி	-9.85162
▁காவிரி	-9.85165
▁நடிப்ப	-9.8519
▁w	-9.85205
▁தொழிலாளர்	-9.85218
▁மேயர்	-9.85261
▁உறுதிப்படுத்த	-9.85446
▁பெட்டி	-9.85498
B	-9.85501
▁காலநிலை	-9.85539
கீழே	-9.85651
▁இவர்கள	-9.85662
▁ஹிஜாப்	-9.85883
▁சட்டத்தை	-9.86044
▁விசேட	-9.8612
▁வகையான	-9.86134
▁வெட்டி	-9.86194
▁உருவாக்கப்பட்ட	-9.86307
▁தேர	-9.86356
▁ஆட்சியர்	-9.8636
▁அதானி	-9.86365
▁உண்மையில்	-9.86397
▁காரிய	-9.86409
▁அறிந்து	-9.8648
▁கீழ	-9.86482
▁ஏற	-9.86498
▁பரபரப்பு	-9.86506
▁லிங்க	-9.86511
▁தாங்க	-9.8679
▁கோயில	-9.8685
▁போராடி	-9.87082
ப்போகிறது	-9.87092
▁ஏழை	-9.87095
ேஷன	-9.87122
▁விமர்சனங்கள	-9.8713
▁ங்களின்	-9.87134
▁2014	-9.87331
▁துறைமுக	-9.87333
▁ஜம்மு	-9.87338
▁நெல்லை	-9.87411
▁பரிச	-9.87413
▁இங்கிலாந்து	-9.87446
▁மூளை	-9.87457
ப்படுவதாக	-9.87533
▁தொகுதியில	-9.87763
▁கோவில	-9.87815
▁இறக்குமதி	-9.87819
▁சகோதரர்	-9.87833
▁எழுப்பி	-9.8802
▁எதிர்க்கட்சிகள்	-9.88033
▁பாடசாலை	-9.88064
▁பிரச்சார	-9.88064
▁முன்னிலையில்	-9.88065
▁யோடு	-9.88068
▁சோழ	-9.88132
யளிக்க	-9.88138
▁வரையில	-9.88153
▁ஒலி	-9.88183
▁ஈடுபட்டனர்	-9.88298
▁அணியின	-9.88372
▁வந்துள்ளது	-9.88373
▁ுவதாக	-9.88424
▁ிருக்கலாம்	-9.88443
▁நெல்	-9.88605
▁சங்கர	-9.88764
▁குளிர	-9.88767
▁மர்ம	-9.88841
ுடனான	-9.88847
▁..!	-9.88914
▁வியாபார	-9.88925
▁ஆணையர்	-9.88948
▁பாபு	-9.88989
▁செயல்பட்ட	-9.89099
▁அட்டை	-9.89155
▁லஞ்ச	-9.89195
வற்றை	-9.8924
▁வழங்குவத	-9.89259
▁கையெழுத்த	-9.89299
▁இதேபோல	-9.89306
▁தளபதி	-9.89342
▁துவங்கி	-9.89376
▁நிகழ	-9.89445
▁காவலர்	-9.89474
▁ஆதீன	-9.89548
▁செய்யலாம்	-9.8973
▁கமிஷன	-9.89805
▁ஜான்	-9.89807
▁இந்தியர்கள	-9.8982
யிட்ட	-9.89914
▁அமைந்துள்ளது	-9.89964
▁களத்தில்	-9.90044
and	-9.90093
▁இறக்க	-9.90164
▁எரிபொருள	-9.90238
தெரிவித்துள்ளனர்	-9.90239
▁ராசிக்காரர்கள	-9.90297
ாயி	-9.90322
▁வலம்	-9.90399
▁பட்டியலில்	-9.90404
▁தாக்கிய	-9.90404
▁கொட்ட	-9.90413
▁கோயிலுக்கு	-9.90452
▁மோகன்	-9.90529
▁மன்ற	-9.90545
▁ஆப்கானிஸ்தான	-9.90549
▁மசூதி	-9.90549
▁யாத்திரை	-9.9055
▁அதிபர	-9.90628
▁தெரு	-9.90722
▁மோசமாக	-9.90807
▁தொட	-9.90808
▁பகுதியாக	-9.90848
▁உள்ளிட்டோர	-9.90918
▁எங்கு	-9.90965
▁தலா	-9.9103
▁உத்தரப்பிரதேச	-9.91053
▁நடிக்க	-9.91065
▁மறைந்த	-9.9107
▁ஆலய	-9.91094
▁நடைமுறைப்படுத்த	-9.9119
▁ஒருவரை	-9.91245
▁சிதம்பர	-9.91306
▁இறங்க	-9.91435
ெடுக்க	-9.9155
▁கனவு	-9.91615
ad	-9.91626
▁ப்படுகின்றன	-9.91714
▁சிக்கல	-9.9172
▁வலு	-9.91779
▁தண்ணீர	-9.91871
▁படங்கள்	-9.91893
▁மந்திர	-9.91904
▁விழாவை	-9.91972
▁அதிகரித்துள்ளது	-9.92012
▁சிறிது	-9.92078
▁முதலமைச்சர	-9.92132
▁பக்தர்கள	-9.92261
▁ிருக்கின்றன	-9.9231
▁சான்றிதழ	-9.92325
பெயர்	-9.92358
▁நண்பர	-9.92423
க்குரிய	-9.92465
▁ஏக்கர	-9.92494
▁300	-9.92567
▁வீட்டில	-9.92593
▁எங்கே	-9.92673
▁வரிசை	-9.92694
▁ஒற்றுமை	-9.92839
▁அமைச்சின	-9.9284
▁செய்யப்பட்டார்	-9.92921
எஃப்	-9.93031
▁சட்டப்பேரவை	-9.93096
▁வருவதாகவும்	-9.93106
▁தம்பி	-9.93153
▁உரையாற்ற	-9.93355
▁உள்நாட்டு	-9.93355
▁டிஜிட்டல	-9.93355
ேஜ்	-9.93377
▁இவருக்கு	-9.93519
▁கடிதத்த	-9.93627
▁45	-9.93689
ுகிற	-9.93835
▁நலன்	-9.93865
▁இறுதியில்	-9.93873
▁தற்காலிக	-9.93874
▁வித்தியாசம	-9.93874
▁வேலைத்திட்ட	-9.93875
▁அமித்	-9.93878
▁நட்பு	-9.9388
▁உருவாக்கி	-9.93893
▁உலகள	-9.93914
▁அவசியம	-9.93976
▁வளர	-9.9406
▁அபாய	-9.94179
▁வழிபட	-9.94362
▁களுக்காக	-9.94365
▁சுட்ட	-9.94392
▁செயற்கை	-9.94433
▁தேர்தலுக்கு	-9.94438
▁W	-9.945
▁ஆயிரத்து	-9.94648
▁மம்தா	-9.94696
▁தள்ள	-9.94698
▁திரும்பிய	-9.94719
▁மூர்த்தி	-9.94872
▁மட்டுமின்றி	-9.94919
▁பண்டிகை	-9.9492
▁ஷெ	-9.94996
le	-9.95068
▁இதனையடுத்து	-9.95183
▁பவுண்டரி	-9.95183
▁கேமரா	-9.95186
▁ஒருநாள்	-9.95186
▁துணி	-9.9541
▁கலந்துரையாட	-9.95423
▁ஒருமுறை	-9.95491
▁எடுக்கப்படும்	-9.9561
▁எம்எல்ஏ	-9.95658
▁இடத்திற்கு	-9.95705
▁எதிர்கொண்ட	-9.9578
▁கன்னி	-9.95858
▁செய்தியாளர்களை	-9.95934
▁விழிப்புணர்வ	-9.95976
▁ுவதை	-9.95979
▁மாநாட்டில்	-9.96124
▁உளவு	-9.96167
ha	-9.96179
▁செயற்	-9.96182
▁பெர்	-9.962
▁பெரிதாக	-9.96207
▁வருகின்ற	-9.9623
▁அறிவித்துள்ளது	-9.96248
▁ஹோட்டல	-9.96256
▁விளங்க	-9.96266
▁வேண்டுமென்ற	-9.96267
▁ஆண	-9.96424
▁கருத்தை	-9.96445
▁கிடைக்கவில்லை	-9.96466
▁நிமிடங்கள	-9.96544
▁கூறப்பட்டுள்ளது	-9.96545
▁தருண	-9.96578
▁K	-9.96607
நாதன்	-9.96679
▁கவனிக்க	-9.96694
▁ரீதியில	-9.96778
▁எக்ஸ்	-9.96835
▁வருவாய்	-9.96837
▁ட்விட்டர	-9.96938
▁தோனி	-9.96965
▁பெற்றோர	-9.97016
▁உருவாக்கிய	-9.97026
▁மலர்	-9.97116
▁நினைக்க	-9.97145
▁என்பதில்	-9.97185
▁ஜோதி	-9.97533
▁அமல்படுத்த	-9.97583
▁கஷ்ட	-9.97615
▁கொண்டிருந்தார்	-9.97738
▁எடுத்துச்	-9.97759
▁பொற	-9.97852
▁என்பதுதான்	-9.97857
▁உண்மையான	-9.981
▁நிரந்தர	-9.98125
▁அண்மைய	-9.98126
▁ஆபத்து	-9.9813
▁ிருந்தனர்	-9.98156
▁வட்டி	-9.98194
▁எழுந்துள்ளது	-9.98197
▁வட்ட	-9.9829
▁தெரிவித்திருந்த	-9.98316
▁அதனால்தான்	-9.98336
▁தொலை	-9.98374
▁படுகொலை	-9.98396
▁கோஷ	-9.98924
▁ஏனெனில்	-9.98941
▁நிர்வாகிகள	-9.99011
▁இருந்தபோது	-9.99038
▁காண்ப	-9.99057
▁முதன்மை	-9.99216
▁மாட்டார்கள்	-9.99275
▁கூறியிருந்தார்	-9.99322
▁சொல்கிற	-9.99344
▁மீற	-9.99395
▁மீட்க	-9.99415
▁V	-9.99419
▁டிக்கெட்	-9.99492
▁விடுதி	-9.99529
▁உக்ரைன	-9.99564
▁கொழு	-9.99618
▁விடுவிக்க	-9.99631
▁காலங்களில	-9.99675
▁காத்திருக்க	-9.99719
▁பேட்டிங்	-9.99735
▁வைத்தனர்	-9.99749
▁அமைச்சகம்	-9.99766
▁ஊடாக	-9.99767
▁கற்க	-9.99771
▁வெங்கட	-9.99803
▁வெளியாகியுள்ளது	-9.9983
▁திருப்பூர்	-9.99868
▁குழுவினர்	-9.99868
▁ஏதோ	-9.99883
▁தூங்க	-9.99915
▁சமயத்தில்	-9.99968
▁நிகழ்வில்	-10.0007
▁கேட்ப	-10.0008
▁இவற்ற	-10.0016
▁மறுக்க	-10.0017
ro	-10.002
▁ஏற்பட்டுள்ள	-10.0049
▁ரயில	-10.0051
▁பழங்குடியின	-10.0051
▁கலாசார	-10.006
▁ஆலோசகர	-10.006
▁உன்ன	-10.0087
▁வேதனை	-10.0088
▁பருவ	-10.0089
▁நிகழ்ந்த	-10.009
▁காயமடைந்த	-10.0092
▁உதய	-10.01
▁முடியுமா	-10.0115
▁ுபவர்கள	-10.0118
▁மாதங்களில்	-10.0119
▁தண்ட	-10.0134
▁ஒன்பத	-10.0144
▁அஜித்	-10.0153
▁தாக்கரே	-10.0155
▁தாக்குதலை	-10.0162
▁பாம்பு	-10.0167
▁திமுகவின	-10.0168
▁பயணிகள	-10.0169
▁ஜெனரல்	-10.0172
▁அதிலும்	-10.0173
▁கருவி	-10.0175
ாளராக	-10.0187
▁கல்ல	-10.0191
▁ஆர்ப்பாட்ட	-10.02
▁கப்பல	-10.0201
▁நேற்ற	-10.0208
▁கண்டறிய	-10.0213
▁ஏறி	-10.0217
▁பராமரிப்ப	-10.0228
▁விஷயங்களை	-10.0228
▁அமலாக்கத்துறை	-10.023
/	-10.0232
▁போலீசார	-10.0257
▁சக்கர	-10.0261
▁நடப்பத	-10.0272
▁வெற்றிகரமா	-10.0283
▁பிறந்தநாள	-10.0285
▁கண்டறிந்த	-10.0286
▁நேரங்களில	-10.0286
▁வேண்டி	-10.0294
▁அதிமுகவின	-10.0311
▁இதுதொடர்பாக	-10.0322
▁தீர்க்க	-10.0323
நாதர்	-10.0337
▁பெயர்ச்சி	-10.0359
▁வழங்கினார்	-10.036
▁நெடுஞ்சாலை	-10.037
▁2016	-10.037
▁எளித	-10.0372
போன	-10.0384
▁36	-10.0398
▁ஆகவே	-10.0404
பற்றி	-10.0416
▁வாழ்க்கையை	-10.0419
▁புற்றுநோய	-10.0428
▁மணியளவில்	-10.0428
▁சந்தோஷ	-10.0428
▁நிதிஷ்	-10.0428
ேஸ்வரர	-10.0429
ென்று	-10.0447
▁அங்கீகார	-10.0457
▁இராஜாங்க	-10.0486
▁அவ்வளவு	-10.0487
▁வலியுறுத்திய	-10.0503
▁சிறுவர்	-10.0507
▁அழைப்ப	-10.051
▁திருவண்ணாமலை	-10.0515
▁பொன்ன	-10.0516
▁முன்னெடுக்க	-10.0517
▁பாச	-10.0533
▁காணப்பட்ட	-10.0554
▁இராணுவ	-10.0573
▁ஏனென்றால்	-10.0573
▁தமிழ்நாட்டின்	-10.0573
▁மஞ்சள்	-10.0573
▁பறக்க	-10.0589
▁என்பதற்காக	-10.0599
▁வேண்டுமென	-10.06
▁வழக்கமாக	-10.0601
▁டீசல்	-10.0605
▁வருவதால்	-10.0613
▁குற்றச்சாட்டுகள	-10.0618
ாவிய	-10.0624
▁37	-10.0628
▁கண்டுபிடித்த	-10.0632
▁சடல	-10.0633
▁அப்துல்	-10.0633
▁முன்வைக்க	-10.0638
G	-10.064
ur	-10.0644
▁ராய்	-10.065
▁சகோதரி	-10.0653
▁முதலீட்ட	-10.0659
▁விஷயங்கள்	-10.0662
▁காத்திருந்த	-10.0667
▁அம்மனுக்கு	-10.0676
▁போட்டோ	-10.0678
▁கிடந்த	-10.0688
j	-10.0691
▁மயிலாடுதுறை	-10.0691
▁அய்ய	-10.0695
▁மட்டுமல்லாமல்	-10.0698
▁அதேநேரம்	-10.0721
▁தீபாராதனை	-10.0721
▁குடும்பங்கள	-10.0721
▁ரோஹித்	-10.0729
▁எதிர்ப்ப	-10.074
ol	-10.0745
▁வளர்ப்ப	-10.0746
ri	-10.0749
▁படகு	-10.0749
▁சுற்றுச்சூழல	-10.0751
▁தெரியுமா	-10.0757
▁அரேபிய	-10.0781
▁போதிலும்	-10.0781
▁அதன்பின்	-10.0782
25	-10.0785
மின்றி	-10.0798
ஃ	-10.0804
▁காசா	-10.0809
J	-10.081
▁தஞ்சாவூர	-10.081
▁எந்தவித	-10.0811
▁தொகுதிகளில	-10.0811
▁பீட	-10.0813
▁எளிதாக	-10.0813
▁ஊராட்சி	-10.0814
▁ிருந்தால்	-10.0821
▁அர்த்த	-10.0824
▁கொல்ல	-10.0827
▁திறன	-10.0831
▁முடிக்க	-10.0834
ிருக்கின்றனர்	-10.0837
▁குடிநீர்	-10.084
▁காலகட்டத்தில்	-10.084
▁மாநாடு	-10.084
▁பானர்ஜி	-10.0841
▁ட்வீட்	-10.0841
▁மஹிந்த	-10.0841
▁என்பதற்க	-10.0842
▁வழிவக	-10.0845
கிழமை	-10.0846
▁உட்பட்ட	-10.0855
▁முடக்க	-10.0856
▁மாநாட்ட	-10.0857
▁மூன்றாம	-10.0859
▁சனிக்கிழமை	-10.0871
L	-10.0882
▁பயங்கரவாத	-10.0889
▁அரப	-10.0898
▁நிமிட	-10.0901
▁அவ்வாற	-10.0902
▁குண்ட	-10.0914
▁ப்பட்டுள்ள	-10.0921
▁அதன்பிறகு	-10.0931
▁கன்னியாகுமரி	-10.0931
▁நிபுணர்கள்	-10.0933
▁பேசுவத	-10.094
▁உருவான	-10.0943
▁வேண்டுமா	-10.0946
▁சிறப்பான	-10.0946
▁இடங்கள்	-10.0949
▁தூதரக	-10.0961
▁தொலைக்காட்சி	-10.0961
▁வேலைவாய்ப்பு	-10.0961
▁மன்னிப்பு	-10.0962
▁த்தில	-10.0983
▁வீட	-10.0988
▁இருக்கின்றனர்	-10.0989
▁நீலகிரி	-10.0992
▁மாலத்தீவ	-10.0992
▁வலிமை	-10.1012
▁செல்லப்பட்ட	-10.1014
▁ஐபிஎல்	-10.1023
▁தொடர்பாளர	-10.1024
▁தொகுப்ப	-10.1024
▁குறைந்தபட்ச	-10.1024
▁போலீஸார	-10.104
▁ஞாயிற்றுக்கிழமை	-10.1053
▁எதையும	-10.1068
▁ஊக்க	-10.1075
hi	-10.1079
▁வெளிப்படையாக	-10.1084
▁பொறுப்பேற்ற	-10.1084
▁மூழ்க	-10.1084
▁இயந்திர	-10.1084
▁குரல	-10.1086
▁தீவிரவாத	-10.1097
▁48	-10.1115
▁வெள்ளிக்கிழமை	-10.1115
▁அனைத்தையும	-10.1115
▁ஸ்தான	-10.1128
▁தெரியாமல்	-10.1138
▁குஜராத்த	-10.1145
▁இம்ரான்	-10.1146
▁சோனியா	-10.1151
▁ஈரோடு	-10.1152
▁வீட்டின	-10.1155
▁கண்டறியப்பட்ட	-10.1173
▁சாதகமாக	-10.1177
▁அறநிலையத்துறை	-10.1177
▁தொலைவில்	-10.1187
▁தலைமுறை	-10.1188
▁நெருங்கி	-10.1189
▁திருக்கல்யாண	-10.1208
▁தெலுங்கு	-10.1208
▁துவக்க	-10.1209
▁தொற்ற	-10.1215
▁ஊழியர	-10.1219
செய்ய	-10.1224
▁தொடங்கினார்	-10.1236
▁ஆப்பிரிக்க	-10.1239
▁தினசரி	-10.1239
▁ஏற்றுக்	-10.1242
▁கொள்கிறார்	-10.126
யுத்த	-10.1262
▁ங்களில	-10.1262
▁சீனாவின	-10.1262
il	-10.1264
▁அருண	-10.1264
▁கைவிட	-10.1269
▁தெலங்கானா	-10.1271
▁அழைத்த	-10.1272
▁பாமக	-10.1274
▁மற்றவர்கள	-10.1287
▁கழித்து	-10.1292
▁‛‛	-10.1302
▁அற்புத	-10.1302
▁தருமபுர	-10.1302
▁ஏதேனும	-10.1302
மெண்ட்	-10.1303
▁பிரிந்த	-10.1312
▁மஹா	-10.1324
▁இந்துக்கள	-10.1333
▁தொழிற்சாலை	-10.1334
▁கூடுதலாக	-10.1334
▁லோக்சபா	-10.1334
▁ஷிண்டே	-10.1334
▁வாடகை	-10.1334
▁வரிசையில	-10.1334
om	-10.1348
▁மனதில	-10.1358
▁கதாபாத்திர	-10.1365
▁சமுதாய	-10.1365
▁எச்சரித்த	-10.1365
▁ஏற்றுக்கொள்ள	-10.1365
▁திருவிழாவ	-10.1365
▁திறந்த	-10.1366
▁பயணிக்க	-10.1394
▁திட்டங்கள	-10.1396
▁சிங்கப்பூர	-10.1398
▁வகிக்க	-10.1408
▁மோதல	-10.143
▁பொருட்	-10.1432
▁அவுட்	-10.1433
▁பாருங்க	-10.1436
▁அபராத	-10.1461
▁விழுப்புரம்	-10.1461
▁வெட்ட	-10.1463
க்கொண்டே	-10.1469
▁கிடைக்காத	-10.1471
▁தொலைபேசி	-10.1493
▁ஜெயக்குமார்	-10.1493
▁சிபிஐ	-10.1493
▁அயோத்தி	-10.1493
▁மாடல்	-10.1494
▁கம்யூனிஸ்ட்	-10.1525
▁உடல்நல	-10.1525
▁சரவண	-10.1525
▁குதிரை	-10.1525
▁வெவ்வேற	-10.1526
▁விஷயத்தில	-10.1537
▁196	-10.1553
▁பிரேம	-10.1554
▁நிரப்ப	-10.1556
▁ராஜபக்சே	-10.1557
▁தயாரித்த	-10.1557
▁சிந்தனை	-10.1557
▁அடக்க	-10.1558
▁உரையாட	-10.1558
▁கஞ்சா	-10.159
▁இத்தனை	-10.159
▁செயலாளர	-10.1594
▁வணங்க	-10.1595
▁கண்ணீர	-10.1603
▁துவங்க	-10.1613
▁நீள	-10.1621
▁நடத்தப்படும்	-10.1622
▁பணிப்பாளர்	-10.1622
▁துறையினர	-10.1632
ப்படுகின்றன	-10.164
▁பறிமுதல்	-10.1655
ிருப்பதாக	-10.1669
▁மாட்டேன்	-10.1673
ஒ	-10.1675
▁வெளிநாடு	-10.1689
▁கார்ட	-10.1692
▁எம்எல்ஏக்கள	-10.1694
▁கூறியுள்ளது	-10.1709
F	-10.1709
▁இளைஞர	-10.1718
▁2015	-10.172
▁கொடுமை	-10.172
▁புரட்சி	-10.172
▁ுகின்ற	-10.1741
▁செயலாளராக	-10.1748
▁சீனிவாச	-10.1753
▁விருந்த	-10.1764
▁எழுந்தருளி	-10.1772
▁ராஜபக்ஷ	-10.1786
▁தேவையில்லை	-10.1786
▁லட்சத்து	-10.1795
▁ஒளிபரப்ப	-10.1819
▁சூர	-10.1828
▁பந்துகளில	-10.1842
▁அதிர	-10.1846
▁அஸ்வின	-10.1852
▁தினகரன	-10.1852
▁ஒப்படைக்க	-10.1853
▁மக்களிடம	-10.1854
▁கெட்ட	-10.1855
▁அனுப்பப்பட்ட	-10.1864
▁கற்றுக்	-10.1866
▁வைப்பத	-10.1869
▁ஓவரில	-10.1876
▁யோசனை	-10.1886
▁பகிர்ந்த	-10.1889
உ	-10.1908
▁ஒன்றிணை	-10.1919
▁இடம்பெற	-10.192
▁புகுந்த	-10.1922
▁இருப்பவர்கள	-10.1925
ேற்ப	-10.1944
ரத்ன	-10.1965
ிருப்பது	-10.1971
▁ஆராதனை	-10.1986
▁க்கூட	-10.2006
▁முதுக	-10.2016
+	-10.202
▁சர்க்கரை	-10.202
▁மதிப்பில	-10.2021
▁விரோத	-10.2027
ion	-10.2027
▁வேலூர்	-10.2031
▁நீக்கப்பட்ட	-10.2039
▁கழுத்த	-10.2049
▁கைதிகள	-10.2051
▁கர்ப்ப	-10.206
▁அழிக்க	-10.2066
▁இப்போத	-10.2087
▁அண்ணன்	-10.2088
▁கமிட்டி	-10.2088
▁ர்கள	-10.2092
ct	-10.2092
▁விவகாரங்கள	-10.2096
▁தகர	-10.21
▁மீள	-10.2107
▁விலங்குகள	-10.2122
▁பிறப்பித்த	-10.2122
▁மொபைல	-10.2123
▁வாகனத்தில	-10.2129
▁பெறுவத	-10.2134
▁பேரணி	-10.2152
▁அமாவாசை	-10.2156
▁வரவேற்ற	-10.2157
▁விவாதிக்க	-10.2173
▁சேனல	-10.219
▁வரவேற்க	-10.2225
▁வளர்க்க	-10.2241
▁நியமிக்க	-10.2245
▁பிள்ளைகள	-10.2251
▁ின்ற	-10.2251
el	-10.2259
▁பிரிட்டிஷ்	-10.226
▁ஹைதராபாத்	-10.226
▁அதிகாரப்பூர்வ	-10.226
▁பிரியங்கா	-10.226
▁ஆபாச	-10.226
▁கலந்துரையாடல	-10.2263
▁கையாள	-10.2264
H	-10.2289
ம்பல	-10.2294
▁திருநெல்வேலி	-10.2295
▁விக்ரம	-10.2298
▁கட்டுப்பாடுகள	-10.2316
▁அக்கட்சி	-10.2317
▁கண்டிப்ப	-10.2323
▁ஆக்கிரமிப்ப	-10.2329
▁நாளிதழ	-10.2329
▁உழைப்ப	-10.2329
▁மைதான	-10.2337
மென்ட்	-10.2344
பெற	-10.2348
ஓ	-10.2359
▁ஆச்சரிய	-10.2364
▁சஞ்சய	-10.2367
▁அமல	-10.2384
x	-10.2399
▁ஆபத்தான	-10.2399
▁உறுப்பு	-10.24
▁கொண்டாட்ட	-10.2401
▁ஆந்திர	-10.2404
▁நீடித்த	-10.2405
▁கோர்ட்	-10.2413
▁கிறிஸ்	-10.2428
▁இளைஞர்கள	-10.2429
▁சராசரி	-10.2435
▁தவிர்த்து	-10.2436
▁அச்சுறுத்தல	-10.2442
▁ணும்	-10.2453
▁மேடையில	-10.2461
▁வித்தியாசத்த	-10.247
▁சமேத	-10.2471
▁காஞ்சிபுரம்	-10.2505
▁மணிநேர	-10.2505
▁சித்திரை	-10.2506
▁ஏதும	-10.251
▁பச்சை	-10.251
▁முடிகிறது	-10.2512
▁கொள்கிறேன்	-10.2513
▁ஆட்டோ	-10.2518
▁மெல்ல	-10.2531
▁பாலஸ்தீன	-10.2541
▁ராஜேந்திர	-10.255
▁இணையத்தில	-10.2563
▁மாதங்களாக	-10.2577
▁ஷேக்	-10.2578
▁மாநகர	-10.2603
▁ராக்கெட்	-10.2613
▁பறவை	-10.2613
▁காவல	-10.2621
▁சதுர	-10.2637
▁அருந்த	-10.2638
▁தலையிட	-10.2648
▁முறைகேடு	-10.2649
▁சூர்யா	-10.2649
▁தைவான	-10.2656
▁கட்டுப்பாடு	-10.2663
▁பகவான	-10.2667
▁ஹிந்து	-10.2669
விழா	-10.2679
▁பூர்த்தி	-10.2685
▁எழுத்து	-10.269
▁தெளிவ	-10.2694
▁வார்த்தைகள	-10.2695
▁என்னென்ன	-10.2721
▁கெஜ்ரிவால	-10.2721
▁ராஜீவ்	-10.2721
▁அன்றைய	-10.2721
▁பசுமை	-10.2721
▁இந்திரா	-10.2728
▁நிர்ணய	-10.2757
▁துன்புறுத்த	-10.2757
▁சமர்ப்பிக்க	-10.2757
▁வாக்களிக்க	-10.2757
▁விவரங்களை	-10.2757
▁இருக்கிறோம்	-10.2759
▁சந்திரசேகர	-10.2759
▁வேகத்தில	-10.2766
▁மீட்கப்பட்ட	-10.2768
▁மறைவ	-10.2779
▁சுத்தம	-10.2785
▁பலவீன	-10.2794
▁ஒதுக்கப்பட்ட	-10.2798
▁பறந்த	-10.2804
▁அவற்றின	-10.2809
▁முழுமைய	-10.2817
▁பாராட்டி	-10.2829
▁ஓவர்களில	-10.283
▁காணொளி	-10.283
▁பதவியேற்ற	-10.283
▁ஓட்டுநர	-10.2831
▁சன்னதி	-10.2831
▁அரசியல்வாதி	-10.2831
▁கணக்கெடுப்ப	-10.2832
▁தினேஷ்	-10.284
▁நள்ளிரவ	-10.2867
▁பாலத்தீன	-10.2867
▁சிஎஸ்கே	-10.2867
▁தென்காசி	-10.2867
▁கொள்கிற	-10.2873
▁த்துக்க	-10.2888
▁இயக்குநர	-10.289
▁நெட்டிசன்கள்	-10.2904
▁இளவரச	-10.2905
▁பின்னால	-10.2912
▁திரவ	-10.2915
▁கருதப்படுகிறது	-10.2919
▁மாட்டோம்	-10.2919
▁வீண	-10.2923
▁வலைதள	-10.2936
▁ஆராய	-10.294
த்தொடர்ந்து	-10.2941
▁டிகிரி	-10.2941
▁நன்க	-10.2943
▁அகில	-10.2958
▁வெளிநாட்ட	-10.2974
▁திருமாவளவன	-10.2978
▁வீழ்ச்சி	-10.2978
▁சலுகை	-10.2978
ீர்களா	-10.2978
▁கண்ணாடி	-10.2979
▁அமித்ஷா	-10.298
▁நீடிக்க	-10.2985
▁குறைபாடு	-10.299
▁அளவிற்க	-10.3006
▁தடுப்ப	-10.3008
▁வழக்குப்பதிவு	-10.3016
▁சீமான்	-10.3018
▁சுரேஷ்	-10.302
▁நூற	-10.3038
▁அம்பேத்கர	-10.3053
▁அரவிந்த்	-10.3053
▁ஊதிய	-10.3054
▁விலக்கு	-10.3056
▁நேபாள	-10.3091
▁சந்தர்ப்ப	-10.3091
▁புலிகள	-10.3093
விவகார	-10.3101
மீட்டர்	-10.3101
▁ராசியில	-10.311
▁த்தோட	-10.3117
▁பயணித்த	-10.3119
▁சத்ய	-10.3122
▁நிரூபிக்க	-10.3128
▁எல்லோரும	-10.3128
▁கோவிட்	-10.313
▁வாக்காளர்கள	-10.313
▁நாட்கள	-10.3156
▁ஒடிசா	-10.3166
▁உத்தவ்	-10.3167
▁குவிந்த	-10.3173
▁விவகாரத்த	-10.318
▁முயல	-10.3183
▁வேண்ட	-10.3196
▁இதற்க	-10.3204
▁கணபதி	-10.3211
▁உடல்நிலை	-10.3213
▁வளர்த்த	-10.3222
▁ரீதியா	-10.3236
▁செய்கின்ற	-10.3243
▁அசோக்	-10.3243
யிற்று	-10.3244
▁மேலதிக	-10.3244
▁அப்பாவ	-10.3249
▁கர்நாடகாவில்	-10.3258
▁குவித்த	-10.3259
▁குற்றச்சாட்ட	-10.3262
▁வலுப்படுத்த	-10.3274
▁யாளர	-10.3275
▁to	-10.328
▁காய்ச்சல்	-10.3281
▁பழமையான	-10.3281
▁மீன்பிடி	-10.3281
▁பழநி	-10.3287
▁பிரிவினர	-10.3287
▁கூறுவத	-10.3289
▁குமர	-10.3303
▁வருவதற்க	-10.3311
▁நிச்சயம	-10.3314
▁பட்சத்தில்	-10.332
▁மடங்கு	-10.332
▁திகழ	-10.332
ation	-10.332
▁ஆயிர	-10.3332
▁தீர்மானிக்க	-10.3335
▁பதிவிட்டுள்ளார்	-10.3338
விராட்	-10.3353
▁of	-10.3358
▁அவர்களிடம	-10.3373
▁மூலவர	-10.3377
▁நிர்மலா	-10.3397
▁முதற்கட்ட	-10.3397
▁நாயுடு	-10.3397
▁தலித்	-10.3411
▁ஆடுகள	-10.3433
▁உலகக்கோப்பை	-10.3436
▁சைக்கிள	-10.3436
▁உடலில	-10.3455
▁இடைவெளி	-10.3475
▁ஓய்வூதிய	-10.3475
▁தள்ளுபடி	-10.3475
▁வருபவர்	-10.3475
▁பிரமுகர	-10.3476
▁பங்களிப்பு	-10.3476
▁வலது	-10.3481
ஆவத	-10.3482
▁மனநிலை	-10.3489
▁ஆதாரங்கள	-10.351
▁உணர்வ	-10.3511
▁இருவருக்கும	-10.3514
யென்றால்	-10.3514
▁வைரலாகி	-10.3514
▁பேசினோம்	-10.3514
குளம்	-10.3515
▁கிரகங்கள	-10.3524
▁கிடைப்பத	-10.3532
▁பெரித	-10.3534
▁இஸ்லாமியர்கள	-10.3541
▁பற்றாக்குறை	-10.3553
▁அறக்கட்டளை	-10.3553
▁புதுக்கோட்டை	-10.3553
▁கூட்டமைப்ப	-10.3558
▁திரள	-10.356
▁அழுத	-10.3563
▁ராமநாதபுரம்	-10.3593
▁திரட்ட	-10.3594
▁குற்றங்கள	-10.3597
▁கோபுர	-10.36
▁பொதுக்குழுவ	-10.3607
▁அழைக்கப்பட	-10.3629
▁முன்னிலை	-10.3633
▁ஷர்மா	-10.3633
▁இலட்ச	-10.3672
மங்கலம்	-10.3673
▁பொருந்த	-10.3673
▁கேரளாவில	-10.3677
▁முன்னெடுத்த	-10.3677
V	-10.3682
▁வனத்துறை	-10.3696
▁வெப்பநிலை	-10.3715
▁குறுக்க	-10.374
▁புகைப்படங்கள	-10.3746
ொன்றை	-10.3746
▁உறவினர	-10.3746
▁ஆதித்யநாத்	-10.3752
▁கலாச்சார	-10.3752
▁திரிணாமுல்	-10.3752
▁வீராங்கனை	-10.3752
▁வாயிலாக	-10.3752
▁திணற	-10.376
▁உத்தரவிட	-10.3762
▁விகடன	-10.3764
▁சண்முக	-10.378
▁வாக்குப்பதிவு	-10.3793
▁ரமேஷ்	-10.3793
▁நிகழ்த்த	-10.3804
பட்ச	-10.3806
▁விருத	-10.3829
▁வேண்டுகோள	-10.3833
▁கருத்துக்களை	-10.3835
▁ரிஷப	-10.3836
▁மேற்பட்டோர்	-10.3846
▁வைக்கப்பட்டுள்ள	-10.3861
▁காய்கறி	-10.3874
▁மேம்பாட்டு	-10.3874
▁மாத்திரை	-10.3875
▁படுக்கை	-10.3875
▁கொண்டிருப்ப	-10.389
▁மைதானத்தில	-10.3907
▁உண்டாகும்	-10.3915
▁கால்நடை	-10.3915
▁போராட்டக்காரர்	-10.3915
▁இன்னிங்ஸ	-10.3915
▁கணிசமா	-10.3915
▁வழிபாட்ட	-10.3918
▁எழுந்தருள	-10.3932
▁கத்தார	-10.3945
▁வழங்கப்பட்டுள்ள	-10.3947
▁பிரம்ம	-10.395
▁பிழை	-10.3957
▁அடைக்கப்பட்ட	-10.3965
▁கண்காணிப்பாளர்	-10.398
ுடனும்	-10.399
▁பரீட்சை	-10.3997
▁அலுவல்	-10.3997
▁அதன	-10.3999
▁மதிப்பெண்	-10.3999
▁புத்தாண்ட	-10.4
▁மறக்க	-10.4
வேண்டும்	-10.4013
▁கடினமான	-10.4038
▁தொழிற்	-10.4038
▁சனாதன	-10.4038
கலாநிதி	-10.408
▁தீபாவளி	-10.408
▁சமாதான	-10.408
▁வேளையில்	-10.4081
▁சகோதர	-10.409
▁அத்தியாவசிய	-10.4121
▁புலனாய்வு	-10.4121
சுப்பிரமணியன்	-10.4121
▁மறைமுக	-10.4121
▁விளையாட்ட	-10.4128
▁செயற்பட	-10.4132
▁ஆட்டத்தில	-10.4134
▁லிட்டர	-10.4157
▁ஜெர்மனி	-10.4163
▁நிபந்தனை	-10.4163
▁சங்கத்தின	-10.419
▁லெபனான	-10.4205
▁மறந்து	-10.4205
▁நிலைப்பாட்ட	-10.4207
▁சிம்ம	-10.4242
▁சிசிடிவி	-10.4247
▁நாடாளுமன்றத்தில	-10.4274
▁தரிசன	-10.4274
▁ஜெயலலிதாவ	-10.4282
▁மண்டபத்தில	-10.4286
வேலுமணி	-10.429
▁கணிப்பு	-10.4291
ரேஷ்ட	-10.4302
▁விமர்சிக்க	-10.4302
▁எதிர்பாராத	-10.4332
▁நோட்டீஸ்	-10.4332
▁the	-10.4332
▁விண்கல	-10.4332
▁ஊடகங்களில	-10.4361
▁எதிர்காலத்தில	-10.4372
▁ஏற்றுக்கொண்ட	-10.4378
ிற்காக	-10.4387
▁போஸ்டர	-10.4424
▁நடைபெறவுள்ள	-10.4429
▁குடியேற	-10.4431
▁கடலூர்	-10.4435
▁வைத்திருப்ப	-10.4435
▁ஹீரோ	-10.4461
▁வெளிவந்த	-10.4463
▁ஆராய்ச்சியாளர்	-10.4468
▁நடத்துவத	-10.4474
▁பறிக்க	-10.4477
▁நெருங்க	-10.4487
▁பிரச்சினைகள	-10.4497
கூறியிருக்கிறார்	-10.4503
▁பேரூராட்சி	-10.4504
▁இதற்கிடையில்	-10.4504
▁ஓமிக்ரான்	-10.4504
▁எரிவாயு	-10.4504
▁லேசான	-10.4505
▁ஓரளவு	-10.4508
▁திரண்ட	-10.4512
ணர்வு	-10.4538
▁தெலுங்கானா	-10.4548
▁நிறைவடைந்த	-10.4548
த்தொகை	-10.4548
▁விஷயத்தை	-10.4548
▁பேட்டர்கள	-10.4551
▁பிரான்ஸ்	-10.4554
▁முதலாவத	-10.4569
▁வேண்டுமானாலும்	-10.4591
▁ஜெகன்	-10.4592
▁பயன்படுத்துவத	-10.4617
▁மேல்முறையீட	-10.4635
▁கண்காட்சி	-10.4635
▁சமாளிக்க	-10.4636
▁தனித்தனி	-10.4636
▁இத்திட்ட	-10.4636
▁நினைப்ப	-10.4637
▁பங்கேற்ப	-10.4637
▁இப்போ	-10.4645
,500	-10.4684
▁அவற்றில	-10.4705
▁அமலாக்க	-10.472
▁பிளாஸ்டிக்	-10.4724
▁தோல்வியடைந்த	-10.4724
▁துருக்கி	-10.4724
▁பொறியியல	-10.4724
nd	-10.4737
▁ஸ்கோர	-10.4741
▁நிகர	-10.4743
▁சமாஜ்	-10.4768
▁பேரறிவாளன	-10.4768
▁மறுபுறம்	-10.4768
▁கடலோர	-10.4768
▁தாமரை	-10.4769
▁திட்டத்தில	-10.4769
▁அக்கறை	-10.477
▁நடமாட	-10.4771
▁நாடுகளின	-10.4782
▁ஆட்டமிழந்த	-10.4813
▁அங்கீகரிக்க	-10.4813
▁ஹெலிகாப்ட	-10.4813
▁முழங்க	-10.4815
▁அம்பாள	-10.4821
▁இளம்பெண்	-10.4858
▁கண்காணிக்க	-10.4858
▁காரைக்கால்	-10.4858
▁அம்மாநில	-10.4858
▁பணிபுரிந்த	-10.4858
▁யூனியன	-10.4858
▁கூகுள	-10.4859
▁அத்தனை	-10.486
▁பெற்றுக்கொள்ள	-10.4864
ுவீர்கள்	-10.4864
▁வினோத	-10.4879
▁பாக்கிய	-10.4881
▁முன்னுரிமை	-10.4903
▁பயன்பாட்ட	-10.4903
▁ஈரான்	-10.4905
▁is	-10.4909
▁புஷ்ப	-10.4918
▁அரசாங்கத்தின	-10.4924
▁வாழ்க்கையில	-10.4925
Y	-10.4948
▁ஓராண்டு	-10.495
▁நிலையங்கள	-10.4952
▁பட்டியலின	-10.4955
▁ஃப்ர	-10.496
▁பழங்குடி	-10.4962
▁போதைப்பொருள்	-10.4993
▁News	-10.4993
▁ராமதாஸ்	-10.4993
▁மதுபான	-10.4994
▁மேற்கத்த	-10.4994
▁போவதாக	-10.5013
▁ஆரம்பத்தில	-10.503
▁இளையராஜா	-10.5039
▁அருள்பாலித்த	-10.5039
▁ஊரடங்கு	-10.5039
▁நியமித்த	-10.5039
ஏக்கள	-10.5054
▁பயங்கர	-10.5084
▁உறுப்பினராக	-10.5085
▁சிவகங்கை	-10.5085
▁பொதுக்கூட்ட	-10.5085
▁லக்னோ	-10.5085
▁திறப்பு	-10.5085
▁விதிமுறைகள	-10.5088
▁விரட்ட	-10.5114
▁பேட்ஸ்மேன	-10.5131
▁ராமேஸ்வரம்	-10.5131
▁ஆஜராக	-10.5131
▁சமையல்	-10.5131
▁கோவிந்த	-10.5131
▁அம்சங்கள	-10.5132
▁சபையின	-10.5137
K	-10.516
▁மஸ்க்	-10.5165
▁ஜடேஜா	-10.5177
▁பிரகாஷ்	-10.5177
▁தக்காளி	-10.5177
▁டிடிவி	-10.5178
▁பின்னடைவ	-10.5178
▁நோயாளிகள	-10.5211
▁சுக்கிரன்	-10.5224
▁ரிசர்வ்	-10.5224
▁ஹரியானா	-10.5224
▁மகிழ	-10.5224
▁பிரேத	-10.5224
குமார	-10.5255
▁மேலாண்மை	-10.527
▁பணவீக்க	-10.527
▁வாரிசு	-10.5271
▁சிற்ப	-10.5278
▁அக்கட்சியின	-10.5287
▁தொடரில	-10.5304
▁நகைச்சுவை	-10.5317
▁பதிலளிக்க	-10.5317
▁தமிழிசை	-10.5317
▁அறிவுரை	-10.5318
▁முடிவடைந்த	-10.5322
கரமான	-10.5324
▁போலீஸ	-10.5326
▁வீடுகளில	-10.5327
பெரும்	-10.5332
▁பரவலாக	-10.5353
▁முன்கூட்டிய	-10.5365
▁விரதம்	-10.5365
▁ரெய்டு	-10.5365
▁அகிலேஷ்	-10.5367
▁பார்வையாளர்கள	-10.5369
▁காணப்படுகின்ற	-10.537
▁சொத்துக்கள	-10.5374
▁விநாயக	-10.5381
▁ஒருங்கிணைந்த	-10.5412
▁நன்கொடை	-10.5412
▁வறுமை	-10.5412
▁வள்ளி	-10.5425
▁என்னவென்றால்	-10.546
▁கண்டுபிடிப்ப	-10.546
▁தேதியன்று	-10.546
▁நெரிசல	-10.546
▁காணிக்கை	-10.546
▁விடுக்கப்பட்ட	-10.5462
▁இன்றைக்கு	-10.5462
▁ிப்பத	-10.5484
▁தாக்குதலில	-10.5501
▁கொள்முதல்	-10.5507
▁பொம்மை	-10.5509
▁அதிகளவில	-10.5514
▁செல்வதற்க	-10.5547
▁திரையரங்க	-10.5555
▁நாமக்கல்	-10.5555
▁குரங்கு	-10.5555
▁தேரோட்டம்	-10.5556
▁2011	-10.5556
▁படிப்படியாக	-10.5556
▁பாலிவுட்	-10.5556
▁நிரம்பி	-10.5557
▁ஆதிக்கம்	-10.5557
▁பார்வையிட்ட	-10.5558
ந்திரபாபு	-10.5563
▁சிரித்த	-10.5567
▁பெருமாள	-10.56
▁எக்ஸ்பிரஸ்	-10.5604
▁சமர்ப்பித்த	-10.5604
▁நிதியமைச்சர்	-10.5604
▁அன்புமணி	-10.5604
▁குடிமக்கள	-10.5605
▁மீனாட்சி	-10.5607
‛	-10.5652
▁இன்ஸ்டாகிராம	-10.5652
▁எவ்வித	-10.5652
▁மட்டக்களப்பு	-10.5652
▁பிரமாண்ட	-10.5652
▁திருக்கோயில	-10.5653
▁பொதுவான	-10.5653
முருகன்	-10.5689
▁தலைவருமா	-10.5699
▁செங்கல்பட்டு	-10.5701
▁நிலநடுக்கம்	-10.5701
▁எலும்பு	-10.5701
▁ஓவிய	-10.5717
▁மாத்திரம	-10.5721
▁அதிர்ஷ்ட	-10.575
▁முதியவர்	-10.575
▁ப்படவுள்ள	-10.5766
&	-10.5799
▁ஆதரிக்க	-10.5799
▁ஒலிம்பிக்	-10.5799
▁சதுர்த்தி	-10.58
▁பிரபாகர	-10.58
▁வசந்த	-10.5803
▁எல்லாவற்ற	-10.5805
ினாலும்	-10.5837
▁ஆயுள்	-10.5849
▁டெல்டா	-10.5849
▁இம்முறை	-10.585
▁அலங்காரத்தில	-10.5855
▁விஷயம	-10.5863
▁சம்பந்தம	-10.5872
▁இந்நிகழ்வ	-10.5899
▁உயர்கல்வி	-10.5899
▁சீர்திருத்த	-10.5899
▁கொள்கின்ற	-10.5899
▁வாக்களித்த	-10.5899
▁ஒப்புக்கொண்ட	-10.59
▁காரணம	-10.5916
▁பறித்த	-10.5933
▁வசம	-10.5938
▁உட்கார்ந்த	-10.5949
▁வியாழக்கிழமை	-10.5949
▁காங்கிரச	-10.5949
▁2013	-10.5949
▁பிரதிநிதித்துவ	-10.5949
▁பட்டாசு	-10.5949
▁சமத்துவ	-10.5949
யில்லாத	-10.598
▁அதேசமயம்	-10.5999
▁சடங்கு	-10.5999
▁ஈபிஎஸ்	-10.5999
▁புதுப்பிக்க	-10.5999
▁கம்பெனி	-10.5999
▁பிரசவ	-10.6
▁ஒதுக்கீட்ட	-10.6
▁செயற்பாடுகள	-10.6
▁ங்களுடன	-10.6045
பிற்படுத்தப்பட்ட	-10.6049
▁கடினமாக	-10.6049
▁உணர்ச்சி	-10.605
▁பேரிடர்	-10.605
▁சிதற	-10.6087
▁புண்ணிய	-10.61
▁இக்கோவில	-10.61
▁வாக்கெடுப்ப	-10.61
▁மகேஷ்	-10.6101
▁விருந்தினர	-10.6103
▁பத்ம	-10.6113
▁வாடிக்கையாளர்கள	-10.6125
ாபிஷேக	-10.615
▁சத்தீஸ்கர	-10.6151
▁வாழ்வாதார	-10.6151
▁விஷ்ணு	-10.6151
▁அணுகுமுறை	-10.6151
ive	-10.6156
▁ஆதரவாளர	-10.616
▁ங்களுக்க	-10.6163
▁கூறுகின்ற	-10.6182
▁ஓரிர	-10.6183
▁சீதாராமன்	-10.6202
▁ஹசீனா	-10.6202
▁என்கின்றனர்	-10.6203
▁கதவு	-10.621
▁ஒப்புக்	-10.6213
ிவிடும்	-10.6224
▁அழித்த	-10.6232
▁வெளியாகியுள்ள	-10.6251
▁சிறுநீரக	-10.6254
▁லட்சக்கணக்கான	-10.6254
▁எழுத்தாளர்	-10.6254
▁மனநல	-10.6254
▁ஆசிரியர	-10.6263
▁கவச	-10.6274
▁ஒலிம்பியா	-10.6306
▁நேட்டோ	-10.6306
▁முர்மு	-10.6307
▁எளிய	-10.6308
▁முடிவெடுக்க	-10.6308
▁கால்பந்த	-10.6311
▁கிறிஸ்தவ	-10.6316
▁நான்காவத	-10.6322
▁தொடர்பில	-10.6333
▁முஸ்லிம்கள	-10.6336
▁அருள	-10.6347
▁தினங்கள	-10.6357
▁தீயணைப்பு	-10.6358
▁இருதரப்பு	-10.6358
சாதகமான	-10.6358
▁செயல்பாட்ட	-10.636
▁பிரிவில	-10.6362
▁நடிகர	-10.6369
▁இந்துத்துவ	-10.6374
▁டாலர	-10.6395
▁Vikatan	-10.641
▁திருவள்ளூர்	-10.641
▁நூற்றுக்கணக்கான	-10.641
▁ஹர்திக்	-10.641
▁கோத்தப	-10.6455
▁அதையடுத்து	-10.6463
▁அந்நிய	-10.6463
▁கடற்றொழில	-10.6463
▁தென்னிந்திய	-10.6463
▁ஈஸ்வர	-10.6466
▁தைரியம	-10.6487
▁ஊடகவியலாளர்	-10.6516
▁பழனிவேல்	-10.6516
▁விவாகரத்த	-10.6516
▁சமூகத்தினர	-10.6523
▁நோயாளி	-10.653
▁ஸ்தானத்தில	-10.6562
▁இருக்கின்ற	-10.6569
▁ஆணைக்குழு	-10.6569
▁மனோஜ்	-10.6569
▁நிலைப்பாடு	-10.6569
▁கொரியா	-10.657
▁பணிபுரிய	-10.6572
▁குடியுரிமை	-10.6622
▁சுவாரஸ்ய	-10.6622
▁ஸ்மார்ட்	-10.6622
▁சமாஜ்வாதி	-10.6623
▁விரும்புகிறேன்	-10.6623
▁பிறப்பிக்க	-10.6623
▁சீசனில	-10.6627
▁பிரதம	-10.6645
▁ஈர்த்த	-10.6645
▁ஒருங்கிணைப்ப	-10.6664
தொழில்	-10.6675
காளியம்மன்	-10.6676
▁புதன்கிழமை	-10.6676
▁தூய்மை	-10.6676
▁ாவிட்டால்	-10.6676
▁இறைவன	-10.6678
▁விவரிக்க	-10.6678
▁சச்சின்	-10.6678
▁புத்தகங்கள	-10.6689
▁உக்ரைனில	-10.671
▁டாஸ்மாக்	-10.673
▁சாம்பியன	-10.673
▁கிளர்ச்சி	-10.673
▁நிலக்கரி	-10.6731
▁துரித	-10.6732
▁தூதுவர்	-10.6732
▁சேகரித்த	-10.6734
ப்பெரும	-10.6754
▁மேற்கொள்வத	-10.6783
▁பிற்பகல	-10.6785
▁மாற்றுத்திறனாளி	-10.6785
▁அகமது	-10.6785
▁பந்துவீச்சில	-10.6785
▁மாணிக்க	-10.6785
▁மனுக்கள	-10.6809
▁மருத	-10.6818
▁தையடுத்து	-10.6839
▁போவதில்லை	-10.6839
▁ஒப்படைத்த	-10.684
▁ஆச்சர்ய	-10.6894
▁இடஒதுக்கீடு	-10.6894
▁கண்காணித்த	-10.6894
▁தட்டுப்பாடு	-10.6894
▁நிராகரித்த	-10.6894
▁கனிமொழி	-10.6894
▁மெட்ரோ	-10.6894
▁சேகரிக்க	-10.6894
▁அகதிகள	-10.6896
ாதிபதி	-10.6899
▁உண்ண	-10.6899
▁கிண்டல	-10.6907
z	-10.6949
▁பராமரிக்க	-10.6949
▁பிரசித்தி	-10.695
▁தங்கியிருந்த	-10.6954
▁பண்டார	-10.6956
▁தழுவ	-10.6963
▁சிறப்ப	-10.697
▁தீர்மானங்கள	-10.6971
▁இருவரையும	-10.6979
▁முழுவதும	-10.6992
▁முதல்முறையாக	-10.7005
▁வாக்குவாதம்	-10.7005
▁பயன்பாடு	-10.7005
▁கள்ளச்சாராய	-10.7061
▁சுற்றுப்பயண	-10.7061
▁வேட்புமனு	-10.7061
▁வழிநடத்த	-10.7061
▁விஜயகாந்த்	-10.7061
▁நியூயார்க்	-10.7061
▁தனிப்படை	-10.7062
▁உண்டியல	-10.7063
▁ஊற்றி	-10.7063
▁முகாம்கள	-10.7069
▁அள்ளி	-10.7109
▁ஆன்மீக	-10.7117
▁இடைத்தேர்தல	-10.7117
▁பெருமளவ	-10.7118
▁பதிவான	-10.7118
▁தேர்தலுக்கா	-10.7169
▁அரையிறுதி	-10.7174
▁தேவஸ்தான	-10.7174
▁சதீஷ்	-10.7174
▁சூதாட்ட	-10.7174
▁உறுதியளித்த	-10.7174
▁ஆதரித்த	-10.7174
▁காடுகள	-10.7178
▁சொல்லப்படுகிற	-10.7218
▁களமிறக்க	-10.723
▁சல்மான்	-10.723
▁இறைச்சி	-10.7231
▁பரிதாப	-10.7231
▁நிலுவையில	-10.7231
▁கணினி	-10.7231
▁கதவை	-10.7232
▁திட்டத்திற்க	-10.727
▁BBC	-10.7288
▁கிருஷ்ணகிரி	-10.7288
▁இபிஎஸ்	-10.7288
▁பிளே	-10.7288
▁மேற்கொள்	-10.7336
▁இல்லாவிட்டால	-10.7345
▁மரபணு	-10.7345
▁நேர்காணல	-10.7345
▁நொடி	-10.7345
▁தனுஷ்	-10.7345
▁மிதமான	-10.7345
▁நடராஜர	-10.7347
ப்படுகின்றது	-10.7347
மோகன்	-10.7352
▁ஹாரிஸ	-10.7354
▁அமைச்சகத்த	-10.7403
▁அதிர்ச்சியடைந்த	-10.7403
▁செய்பவர்கள	-10.7403
▁குறிவைத்து	-10.7403
▁நுபு	-10.7407
கேஸ்வர	-10.7434
X	-10.7461
ப்போகிறார்	-10.7461
▁வடகிழக்க	-10.7461
▁ஆர்சிபி	-10.7461
ச்சேரி	-10.7462
▁தஞ்சை	-10.7462
▁முதலீட்டாளர்கள	-10.7469
▁நிர்வாண	-10.7519
▁கூட்டுறவு	-10.7519
▁ஜிஎஸ்டி	-10.752
▁ஆறுமுக	-10.752
▁புரிதல	-10.752
▁மலையாள	-10.7521
▁யோசித்த	-10.7539
▁யாழ்ப்பாண	-10.7578
▁ஆர்எஸ்எஸ்	-10.7578
▁ஊக்குவிக்க	-10.7578
▁மீதமுள்ள	-10.7578
▁துல்லியம	-10.7579
ப்பள்ளி	-10.7602
▁துரைமுருகன்	-10.7637
▁தெளிவுபடுத்த	-10.7637
▁ஆங்காங்க	-10.7638
▁பொலிஸ்	-10.7638
▁கன்னட	-10.7638
▁வியூக	-10.7638
▁தாழ்வ	-10.7641
▁யாராவத	-10.7646
▁ஒடுக்க	-10.7671
▁ஜார்க்கண்ட்	-10.7697
▁ஆன்மிக	-10.7697
▁புறக்கணித்த	-10.7697
▁திருக்கோவில	-10.7697
▁அம்மன	-10.7712
குறிப்பிடுகிறார்	-10.772
▁திருவாரூர்	-10.7757
▁தேயிலை	-10.7757
▁டேவிட்	-10.7757
▁எகிப்த	-10.7757
▁இஸ்ரோ	-10.7757
▁கிங்ஸ்	-10.7758
▁உடம்ப	-10.7762
▁ஆராய்ந்த	-10.7769
▁சீனாவில	-10.7773
▁உறவில	-10.7777
▁பொறியாளர	-10.778
▁அதிலிருந்த	-10.7804
▁ராமச்சந்திர	-10.7817
▁இளங்கோ	-10.7817
▁இப்பகுதி	-10.7817
▁துபாய்	-10.7818
▁குரூப்	-10.7819
▁தேங்காய	-10.782
▁மக்களுக்க	-10.7822
▁அமைச்சரும	-10.7848
▁சனிபகவான	-10.7878
▁சமூகவலைதள	-10.7878
▁இயல்பு	-10.7878
▁உழைத்த	-10.7878
▁ஆட்கள	-10.79
▁வனத்துறையினர	-10.7917
▁கடலில	-10.7926
டெங்கு	-10.7932
▁அறங்காவலர்	-10.7939
▁உபயோக	-10.7939
▁எதிர்கட்சி	-10.7939
▁யூடியூப்	-10.7939
▁மோட்டார்	-10.7939
▁சீனியர்	-10.7941
▁உருவாக்குவத	-10.7981
▁அவிநாசி	-10.8
▁ஆம்புலன்ஸ	-10.8
▁தீட்சிதர்	-10.8
▁தேர்ந்தெடுத்த	-10.8
▁உத்தரகாண்ட்	-10.8
▁பரிமாற்ற	-10.8001
▁மட்டுமல்லாது	-10.8001
▁பத்தாம	-10.8028
▁ஒழுங்க	-10.806
▁உபகரணங்கள	-10.8062
▁கூட்டத்தொடர	-10.8062
▁நேர்த்திக்கடன	-10.8062
▁பிரசாந்த	-10.8062
யிரம்	-10.81
▁முன்னெச்சரிக்கை	-10.8124
▁கிளப்பிய	-10.8124
▁ுவோர	-10.8129
▁நகரங்களில	-10.815
▁பொருளாளர	-10.8155
▁இங்கிலாந்த	-10.8157
▁காவல்துறையினர	-10.8176
▁இஸ்லாம	-10.8176
▁நான்காம	-10.8186
▁முதன்முதல	-10.8186
▁கற்பனை	-10.8186
▁சரஸ்வதி	-10.8186
▁நுண்ணறிவ	-10.8186
▁புலம்பெயர்	-10.8186
▁நிர்மாண	-10.8186
▁யாகசாலை	-10.8186
▁காமெடி	-10.8186
▁விவரித்த	-10.8188
▁ஜார்ஜ	-10.8194
▁உடற்பயிற்சி	-10.8249
▁எலிசபெத்	-10.8249
▁செயற்குழு	-10.8249
▁நெகிழ்ச்சி	-10.8249
▁பொறுமை	-10.825
▁விடயங்கள	-10.8264
▁நவராத்திரி	-10.8313
▁2010	-10.8313
▁மார்க்கெட்	-10.8313
▁ஒருபுறம	-10.8313
மில்லாமல்	-10.8314
▁சுவாச	-10.8317
▁நிறைவேற	-10.8371
▁அரண்மனை	-10.8376
▁அலட்சிய	-10.8376
▁பரிவர்த்தனை	-10.8376
▁வல்லுநர்கள்	-10.8376
▁விஸ்வநாத	-10.8376
▁வெங்காய	-10.8377
▁ராதாகிருஷ்ண	-10.8377
▁பேரரச	-10.8392
அழகிரி	-10.84
▁வெளிநாடுகளில	-10.8438
▁கட்டியெழுப்ப	-10.844
▁எளிமையா	-10.844
▁கடினம்	-10.844
▁உட்கட்சி	-10.8505
▁ஆர்வலர்கள்	-10.8505
▁சலசலப்ப	-10.8505
▁தனிநபர்	-10.8505
▁அளிப்பத	-10.8526
▁அரைசத	-10.857
▁அர்ச்சகர்	-10.857
▁நீரிழிவு	-10.857
▁கோளாறு	-10.857
பொருள்	-10.8571
▁மாடுகள	-10.8607
▁அவதூறு	-10.8635
▁கூற்றுப்படி	-10.8635
▁கர்ப்பிணி	-10.8635
▁மாதவிடாய	-10.8636
▁பிரவேச	-10.8637
▁பயிர்கள	-10.8638
▁பஞ்சாப	-10.8646
▁பிரேசில	-10.8646
▁கவர்னர	-10.8691
▁சுயேச்சை	-10.8701
▁கைதுசெய்யப்பட்ட	-10.8701
▁நலத்திட்ட	-10.8701
▁எழுச்சி	-10.8701
▁பலியாகி	-10.8703
புரட்டாசி	-10.8704
▁நலனுக்க	-10.8727
▁வாங்குவத	-10.8759
▁அறுவடை	-10.8767
▁திருநங்கை	-10.8767
▁செல்கின்றனர்	-10.8767
▁வேடிக்கை	-10.8767
▁பொறுப்பாளர	-10.8817
▁கிராமங்களில	-10.882
▁அச்சுறுத்த	-10.882
▁நல்லிணக்க	-10.8834
▁பழிவாங்க	-10.8834
▁வாழ்நாள	-10.8834
▁மயமாக்க	-10.8834
▁பாகுபாடு	-10.8834
▁நரம்ப	-10.8848
▁பிரார்த்தனை	-10.8901
▁பிரம்மாண்ட	-10.8901
▁பல்லாயிர	-10.8901
▁சித்தாந்த	-10.8901
▁முரளி	-10.8901
▁ரன்ரேட்	-10.8908
▁யூனிட்	-10.8912
▁சுழற்சி	-10.8969
#	-10.9243
*	-11.0193
W	-11.0394
Q	-11.0908
Z	-11.1242
@	-11.3527
q	-11.4422
=	-11.4658
ा	-11.5276
ஈ	-11.7936
_	-11.8216
₹	-11.911
र	-12.0299
े	-12.0512
[	-12.1179
]	-12.1179
क	-12.1894
न	-12.24
	-12.24
्	-12.2663
$	-12.2933
ங	-12.3013
ी	-12.4729
म	-12.5062
ि	-12.5407
स	-12.5764
प	-12.5764
`	-12.6406
ं	-12.6519
ह	-12.6519
ो	-12.7771
­	-12.8225
ஊ	-12.8591
	-12.8702
त	-12.9202
ल	-12.9728
व	-13.0283
द	-13.0872
ग	-13.1497
>	-13.1497
௦	-13.1497
य	-13.2163
ज	-13.2878
ब	-13.2878
£	-13.3647
ू	-13.5389
भ	-13.6389
•	-13.75
ા	-13.875
ध	-14.0179
~	-14.0179
°	-14.0179
ट	-14.0179
	-14.0179
ए	-14.0179
ु	-14.1846
😂	-14.1846
ન	-14.1846
ख	-14.3846
अ	-14.3846
च	-14.3846
§	-14.3846
ै	-14.3846
મ	-14.3846
‍	-14.3846
·	-14.6346
ड	-14.6346
ष	-14.6346
ે	-14.6346
௫	-14.6346
★	-14.6346
જ	-14.6346
इ	-14.6346
ل	-14.6346
ौ	-14.9679
×	-14.9679
é	-14.9679
ક	-14.9679
ી	-14.9679
્	-14.9679
ஶ	-14.9679
⁠	-14.9679
❔	-14.9679
	-14.9679
ત	-14.9679
ર	-14.9679
ई	-14.9679
ا	-14.9679
<	-15.4679
õ	-15.4679
औ	-15.4679
छ	-15.4679
़	-15.4679
।	-15.4679
ટ	-15.4679
ય	-15.4679
௩	-15.4679
′	-15.4679
⁄	-15.4679
●	-15.4679
◾	-15.4679
⦁	-15.4679
÷	-15.4679
વ	-15.4679
સ	-15.4679
ي	-15.4679
و	-15.4679
(	-16.4577
௨	-16.467
घ	-16.4671
š	-16.4672
	-16.4673
थ	-16.4674
आ	-16.4675
௧	-16.4676
ण	-16.4677
\	-16.4678
í	-16.4679
௭	-16.4679
^	-16.4679
{	-16.4679
®	-16.4679
Á	-16.4679
å	-16.4679
ñ	-16.4679
ô	-16.4679
ö	-16.4679
ł	-16.4679
ō	-16.4679
̈	-16.4679
د	-16.4679
उ	-16.4679
फ	-16.4679
અ	-16.4679
આ	-16.4679
ઉ	-16.4679
ઓ	-16.4679
ખ	-16.4679
ણ	-16.4679
થ	-16.4679
પ	-16.4679
લ	-16.4679
ો	-16.4679
௬	-16.4679
௹	-16.4679
‟	-16.4679
€	-16.4679
⏩	-16.4679
	-16.4679
	-16.4679
👇	-16.4679
💥	-16.4679
😊	-16.4679
😐	-16.4679
😲	-16.4679
श	-16.4679
}	-16.4679
ʻ	-16.4679
દ	-16.4679
ફ	-16.4679
ભ	-16.4679
િ	-16.4679
ر	-16.4679
س	-16.4679
م	-16.4679
ه	-16.4679
إ	-16.468
ஔ	-16.468
