{
  "version": "1.0",
  "truncation": null,
  "padding": null,
  "added_tokens": [
    {
      "id": 0,
      "content": "[UNK]",
      "single_word": false,
      "lstrip": false,
      "rstrip": false,
      "normalized": false,
      "special": true
    },
    {
      "id": 1,
      "content": "[CLS]",
      "single_word": false,
      "lstrip": false,
      "rstrip": false,
      "normalized": false,
      "special": true
    },
    {
      "id": 2,
      "content": "[SEP]",
      "single_word": false,
      "lstrip": false,
      "rstrip": false,
      "normalized": false,
      "special": true
    },
    {
      "id": 3,
      "content": "[PAD]",
      "single_word": false,
      "lstrip": false,
      "rstrip": false,
      "normalized": false,
      "special": true
    },
    {
      "id": 4,
      "content": "[MASK]",
      "single_word": false,
      "lstrip": false,
      "rstrip": false,
      "normalized": false,
      "special": true
    }
  ],
  "normalizer": {
    "type": "Sequence",
    "normalizers": [
      {
        "type": "NFKC"
      },
      {
        "type": "Lowercase"
      }
    ]
  },
  "pre_tokenizer": {
    "type": "Whitespace"
  },
  "post_processor": null,
  "decoder": {
    "type": "WordPiece",
    "prefix": "##",
    "cleanup": true
  },
  "model": {
    "type": "WordPiece",
    "unk_token": "[UNK]",
    "continuing_subword_prefix": "##",
    "max_input_chars_per_word": 100,
    "vocab": {
      "[UNK]": 0,
      "[CLS]": 1,
      "[SEP]": 2,
      "[PAD]": 3,
      "[MASK]": 4,
      "!": 5,
      "\"": 6,
      "#": 7,
      "$": 8,
      "%": 9,
      "&": 10,
      "'": 11,
      "(": 12,
      ")": 13,
      "*": 14,
      "+": 15,
      ",": 16,
      "-": 17,
      ".": 18,
      "/": 19,
      "0": 20,
      "1": 21,
      "2": 22,
      "3": 23,
      "4": 24,
      "5": 25,
      "6": 26,
      "7": 27,
      "8": 28,
      "9": 29,
      ":": 30,
      ";": 31,
      "<": 32,
      "=": 33,
      ">": 34,
      "?": 35,
      "@": 36,
      "[": 37,
      "\\": 38,
      "]": 39,
      "^": 40,
      "_": 41,
      "`": 42,
      "a": 43,
      "b": 44,
      "c": 45,
      "d": 46,
      "e": 47,
      "f": 48,
      "g": 49,
      "h": 50,
      "i": 51,
      "j": 52,
      "k": 53,
      "l": 54,
      "m": 55,
      "n": 56,
      "o": 57,
      "p": 58,
      "q": 59,
      "r": 60,
      "s": 61,
      "t": 62,
      "u": 63,
      "v": 64,
      "w": 65,
      "x": 66,
      "y": 67,
      "z": 68,
      "{": 69,
      "}": 70,
      "~": 71,
      "£": 72,
      "§": 73,
      "­": 74,
      "®": 75,
      "°": 76,
      "·": 77,
      "×": 78,
      "á": 79,
      "å": 80,
      "é": 81,
      "í": 82,
      "ñ": 83,
      "ô": 84,
      "õ": 85,
      "ö": 86,
      "÷": 87,
      "ł": 88,
      "ō": 89,
      "š": 90,
      "ʻ": 91,
      "̈": 92,
      "إ": 93,
      "ا": 94,
      "د": 95,
      "ر": 96,
      "س": 97,
      "ل": 98,
      "م": 99,
      "ه": 100,
      "و": 101,
      "ي": 102,
      "ं": 103,
      "अ": 104,
      "आ": 105,
      "इ": 106,
      "ई": 107,
      "उ": 108,
      "ए": 109,
      "औ": 110,
      "क": 111,
      "ख": 112,
      "ग": 113,
      "घ": 114,
      "च": 115,
      "छ": 116,
      "ज": 117,
      "ट": 118,
      "ड": 119,
      "ण": 120,
      "त": 121,
      "थ": 122,
      "द": 123,
      "ध": 124,
      "न": 125,
      "प": 126,
      "फ": 127,
      "ब": 128,
      "भ": 129,
      "म": 130,
      "य": 131,
      "र": 132,
      "ल": 133,
      "व": 134,
      "श": 135,
      "ष": 136,
      "स": 137,
      "ह": 138,
      "़": 139,
      "ा": 140,
      "ि": 141,
      "ी": 142,
      "ु": 143,
      "ू": 144,
      "े": 145,
      "ै": 146,
      "ो": 147,
      "ौ": 148,
      "्": 149,
      "।": 150,
      "અ": 151,
      "આ": 152,
      "ઉ": 153,
      "ઓ": 154,
      "ક": 155,
      "ખ": 156,
      "જ": 157,
      "ટ": 158,
      "ણ": 159,
      "ત": 160,
      "થ": 161,
      "દ": 162,
      "ન": 163,
      "પ": 164,
      "ફ": 165,
      "ભ": 166,
      "મ": 167,
      "ય": 168,
      "ર": 169,
      "લ": 170,
      "વ": 171,
      "સ": 172,
      "ા": 173,
      "િ": 174,
      "ી": 175,
      "ે": 176,
      "ો": 177,
      "્": 178,
      "ஃ": 179,
      "அ": 180,
      "ஆ": 181,
      "இ": 182,
      "ஈ": 183,
      "உ": 184,
      "ஊ": 185,
      "எ": 186,
      "ஏ": 187,
      "ஐ": 188,
      "ஒ": 189,
      "ஓ": 190,
      "ஔ": 191,
      "க": 192,
      "ங": 193,
      "ச": 194,
      "ஜ": 195,
      "ஞ": 196,
      "ட": 197,
      "ண": 198,
      "த": 199,
      "ந": 200,
      "ன": 201,
      "ப": 202,
      "ம": 203,
      "ய": 204,
      "ர": 205,
      "ற": 206,
      "ல": 207,
      "ள": 208,
      "ழ": 209,
      "வ": 210,
      "ஶ": 211,
      "ஷ": 212,
      "ஸ": 213,
      "ஹ": 214,
      "ா": 215,
      "ி": 216,
      "ீ": 217,
      "ு": 218,
      "ூ": 219,
      "ெ": 220,
      "ே": 221,
      "ை": 222,
      "ொ": 223,
      "ோ": 224,
      "ௌ": 225,
      "்": 226,
      "௦": 227,
      "௧": 228,
      "௨": 229,
      "௩": 230,
      "௫": 231,
      "௬": 232,
      "௭": 233,
      "௹": 234,
      "‌": 235,
      "‍": 236,
      "‎": 237,
      "‛": 238,
      "‟": 239,
      "•": 240,
      "′": 241,
      "⁄": 242,
      "⁠": 243,
      "€": 244,
      "₹": 245,
      "⏩": 246,
      "●": 247,
      "◾": 248,
      "★": 249,
      "❔": 250,
      "⦁": 251,
      "": 252,
      "": 253,
      "": 254,
      "": 255,
      "": 256,
      "": 257,
      "": 258,
      "�": 259,
      "👇": 260,
      "💥": 261,
      "😂": 262,
      "😊": 263,
      "😐": 264,
      "😲": 265,
      "🛩": 266,
      "##ல": 267,
      "##ை": 268,
      "##ச": 269,
      "##்": 270,
      "##ே": 271,
      "##ன": 272,
      "##ொ": 273,
      "##த": 274,
      "##ி": 275,
      "##ீ": 276,
      "##ள": 277,
      "##ா": 278,
      "##ப": 279,
      "##i": 280,
      "##a": 281,
      "##n": 282,
      "##t": 283,
      "##m": 284,
      "##o": 285,
      "##v": 286,
      "##e": 287,
      "##s": 288,
      "##_": 289,
      "##ம": 290,
      "##க": 291,
      "##ு": 292,
      "##ர": 293,
      "##வ": 294,
      "##ய": 295,
      "##ஸ": 296,
      "##ூ": 297,
      "##ட": 298,
      "##ெ": 299,
      "##ற": 300,
      "##ந": 301,
      "##ழ": 302,
      "##ங": 303,
      "##u": 304,
      "##ோ": 305,
      "##ஃ": 306,
      "##ஜ": 307,
      "##ண": 308,
      "##ஷ": 309,
      "##d": 310,
      "##g": 311,
      "##b": 312,
      "##r": 313,
      "##h": 314,
      "##ஹ": 315,
      "##‌": 316,
      "##c": 317,
      "##ஞ": 318,
      "##p": 319,
      "##2": 320,
      "##0": 321,
      "##f": 322,
      "##y": 323,
      "##w": 324,
      "##எ": 325,
      "##k": 326,
      "##ஐ": 327,
      "##l": 328,
      "##ा": 329,
      "##ं": 330,
      "##ध": 331,
      "##ी": 332,
      "##5": 333,
      "##ஆ": 334,
      "##x": 335,
      "##ௌ": 336,
      "##्": 337,
      "##ल": 338,
      "##स": 339,
      "##ट": 340,
      "##4": 341,
      "##j": 342,
      "##र": 343,
      "##च": 344,
      "##न": 345,
      "##1": 346,
      "##இ": 347,
      "##9": 348,
      "##6": 349,
      "##7": 350,
      "##ஈ": 351,
      "##அ": 352,
      "##3": 353,
      "##q": 354,
      "##உ": 355,
      "##z": 356,
      "##8": 357,
      "##)": 358,
      "##′": 359,
      "##ஏ": 360,
      "##ि": 361,
      "##य": 362,
      "##े": 363,
      "##श": 364,
      "##.": 365,
      "##/": 366,
      "##+": 367,
      "##क": 368,
      "##त": 369,
      "##ह": 370,
      "##द": 371,
      "##व": 372,
      "##ஓ": 373,
      "##\"": 374,
      "##ष": 375,
      "##-": 376,
      "##é": 377,
      "##ण": 378,
      "##?": 379,
      "##भ": 380,
      "##ो": 381,
      "##å": 382,
      "##ज": 383,
      "##ન": 384,
      "##ે": 385,
      "##@": 386,
      "##'": 387,
      "##ए": 388,
      "##ै": 389,
      "##ौ": 390,
      "##‍": 391,
      "##ग": 392,
      "##௦": 393,
      "##!": 394,
      "##ō": 395,
      "##म": 396,
      "##ஒ": 397,
      "##­": 398,
      "##‛": 399,
      "##ل": 400,
      "##ا": 401,
      "##ر": 402,
      "##س": 403,
      "##و": 404,
      "##ه": 405,
      "##ي": 406,
      "##م": 407,
      "##د": 408,
      "##ू": 409,
      "##í": 410,
      "##£": 411,
      "##ई": 412,
      "##😐": 413,
      "##�": 414,
      "##્": 415,
      "##મ": 416,
      "##௩": 417,
      "##ब": 418,
      "##ु": 419,
      "##छ": 420,
      "##$": 421,
      "##ख": 422,
      "##ા": 423,
      "##ર": 424,
      "##ય": 425,
      "##ક": 426,
      "##ત": 427,
      "##,": 428,
      "##प": 429,
      "##ड": 430,
      "##௫": 431,
      "##>": 432,
      "##;": 433,
      "##ʻ": 434,
      "##š": 435,
      "##ટ": 436,
      "##ફ": 437,
      "##થ": 438,
      "##ી": 439,
      "##[": 440,
      "###": 441,
      "##ஊ": 442,
      "##थ": 443,
      "##`": 444,
      "##😂": 445,
      "##&": 446,
      "##õ": 447,
      "##=": 448,
      "##़": 449,
      "##(": 450,
      "##÷": 451,
      "##×": 452,
      "##*": 453,
      "##જ": 454,
      "##વ": 455,
      "##ણ": 456,
      "##❔": 457,
      "##ો": 458,
      "##િ": 459,
      "##સ": 460,
      "##ஶ": 461,
      "##:": 462,
      "##इ": 463,
      "##લ": 464,
      "##ઓ": 465,
      "##પ": 466,
      "##ł": 467,
      "##<": 468,
      "##்க": 469,
      "##்த": 470,
      "##ம்": 471,
      "##ல்": 472,
      "##ன்": 473,
      "##்ட": 474,
      "##ர்": 475,
      "##க்க": 476,
      "##த்த": 477,
      "##்ப": 478,
      "##ரு": 479,
      "##ிய": 480,
      "##ள்": 481,
      "##ந்த": 482,
      "##து": 483,
      "##ில்": 484,
      "##ட்ட": 485,
      "##ப்ப": 486,
      "##ும்": 487,
      "##ங்க": 488,
      "##ாக": 489,
      "##ைய": 490,
      "##தி": 491,
      "##ிற": 492,
      "##ின்": 493,
      "##க்கு": 494,
      "##்ச": 495,
      "##டு": 496,
      "##று": 497,
      "##ள்ள": 498,
      "##ண்ட": 499,
      "##ார்": 500,
      "##ற்": 501,
      "##ிர": 502,
      "மு": 503,
      "##ார": 504,
      "செ": 505,
      "##த்து": 506,
      "##ில": 507,
      "##ான": 508,
      "வி": 509,
      "##டி": 510,
      "##ற்ற": 511,
      "என்": 512,
      "##லை": 513,
      "##ர்க": 514,
      "##ிக": 515,
      "கு": 516,
      "##ரி": 517,
      "##ந்து": 518,
      "##ட்டு": 519,
      "##வி": 520,
      "இரு": 521,
      "##ளை": 522,
      "செய": 523,
      "##ால்": 524,
      "போ": 525,
      "##வு": 526,
      "மா": 527,
      "இந்த": 528,
      "கொ": 529,
      "##ிரு": 530,
      "##றி": 531,
      "##ச்ச": 532,
      "கா": 533,
      "##ப்": 534,
      "அவ": 535,
      "##னை": 536,
      "##க்": 537,
      "##ளு": 538,
      "##த்தில்": 539,
      "##னர்": 540,
      "##ையில்": 541,
      "பெ": 542,
      "தொ": 543,
      "##மை": 544,
      "##ப்பு": 545,
      "நா": 546,
      "##த்": 547,
      "##ஸ்": 548,
      "பா": 549,
      "##ல்ல": 550,
      "வே": 551,
      "நட": 552,
      "##ம்ப": 553,
      "கூ": 554,
      "##ற்க": 555,
      "##ர்கள்": 556,
      "##ான்": 557,
      "தே": 558,
      "##ண்டு": 559,
      "##மி": 560,
      "##ன்ற": 561,
      "வெ": 562,
      "என": 563,
      "##ப்பட்ட": 564,
      "கட": 565,
      "##க்கும்": 566,
      "##ிறது": 567,
      "வரு": 568,
      "##ாய": 569,
      "உள்ள": 570,
      "##ிட": 571,
      "##ுவ": 572,
      "பிர": 573,
      "##ளில்": 574,
      "##ியா": 575,
      "அதி": 576,
      "##கள்": 577,
      "##வில்": 578,
      "அத": 579,
      "##ணி": 580,
      "தெ": 581,
      "##ற்ப": 582,
      "பே": 583,
      "##றை": 584,
      "##ரை": 585,
      "ஒரு": 586,
      "பு": 587,
      "கோ": 588,
      "##ங்கள்": 589,
      "##ண்": 590,
      "##ன்ன": 591,
      "##ளுக்கு": 592,
      "##கு": 593,
      "##டுத்த": 594,
      "மே": 595,
      "இத": 596,
      "தொட": 597,
      "##லா": 598,
      "##மாக": 599,
      "##ின": 600,
      "##்கள்": 601,
      "அர": 602,
      "என்று": 603,
      "##ரா": 604,
      "##த்தை": 605,
      "மற்ற": 606,
      "வழ": 607,
      "##வர்": 608,
      "##்ய": 609,
      "##மு": 610,
      "##திய": 611,
      "##டிய": 612,
      "##ளி": 613,
      "##மான": 614,
      "பொ": 615,
      "செய்த": 616,
      "நில": 617,
      "##ால": 618,
      "##ழு": 619,
      "##ிட்ட": 620,
      "##ட்ச": 621,
      "##தாக": 622,
      "##வே": 623,
      "அரச": 624,
      "##ச்": 625,
      "மற்றும்": 626,
      "என்ற": 627,
      "##வை": 628,
      "##்கு": 629,
      "##ள்ளது": 630,
      "##ற்று": 631,
      "##்த்த": 632,
      "##ப்பட": 633,
      "வா": 634,
      "##ிக்க": 635,
      "சு": 636,
      "##மா": 637,
      "முத": 638,
      "##ண்டும்": 639,
      "##வா": 640,
      "து": 641,
      "##ோது": 642,
      "##ன்று": 643,
      "வீ": 644,
      "##ட்": 645,
      "மீ": 646,
      "##ரிய": 647,
      "##னால்": 648,
      "அமை": 649,
      "நீ": 650,
      "வை": 651,
      "அதிக": 652,
      "குறி": 653,
      "##கிறது": 654,
      "திரு": 655,
      "##டன்": 656,
      "..": 657,
      "ரா": 658,
      "தொடர்": 659,
      "##டை": 660,
      "##னி": 661,
      "கே": 662,
      "செய்ய": 663,
      "##ளின்": 664,
      "##சி": 665,
      "நி": 666,
      "##வும்": 667,
      "##ழ்": 668,
      "இது": 669,
      "தலை": 670,
      "##ின்ற": 671,
      "##ிறார்": 672,
      "சே": 673,
      "தெரி": 674,
      "பல": 675,
      "##ாத": 676,
      "##வது": 677,
      "மூ": 678,
      "##களை": 679,
      "பி": 680,
      "தமி": 681,
      "சி": 682,
      "இருந்த": 683,
      "##ப்பட்டு": 684,
      "##ியில்": 685,
      "அந்த": 686,
      "எதி": 687,
      "வேண்டும்": 688,
      "என்ப": 689,
      "##னு": 690,
      "##ாம": 691,
      "ப்": 692,
      "##வத": 693,
      "த்த": 694,
      "##ணை": 695,
      "நே": 696,
      "##ரும்": 697,
      "அவர்": 698,
      "தான்": 699,
      "தெரிவி": 700,
      "இட": 701,
      "##ிகள்": 702,
      "##நில": 703,
      "ஏற்ப": 704,
      "##நா": 705,
      "நிற": 706,
      "##ையை": 707,
      "##ாள": 708,
      "##பு": 709,
      "##பி": 710,
      "க்": 711,
      "பய": 712,
      "##ய்": 713,
      "சிற": 714,
      "##ற்கு": 715,
      "பார": 716,
      "20": 717,
      "இருக்க": 718,
      "##ங்கு": 719,
      "கொண்ட": 720,
      "சொ": 721,
      "##ையும்": 722,
      "##டுத்து": 723,
      "முதல்": 724,
      "##வர": 725,
      "ிரு": 726,
      "##ட்டி": 727,
      "##ண்ண": 728,
      "##லி": 729,
      "##சிய": 730,
      "##னா": 731,
      "வந்த": 732,
      "கள": 733,
      "அறி": 734,
      "##ளிய": 735,
      "தீ": 736,
      "##ிற்கு": 737,
      "##ார்கள்": 738,
      "##்சி": 739,
      "##முக": 740,
      "மக்க": 741,
      "##க்கை": 742,
      "ஆண்டு": 743,
      "ம்": 744,
      "##த்தின்": 745,
      "##கா": 746,
      "ஆனால்": 747,
      "தா": 748,
      "ஆக": 749,
      "##தை": 750,
      "##டும்": 751,
      "வெளிய": 752,
      "##ள்ளார்": 753,
      "##த்திய": 754,
      "தி": 755,
      "##லும்": 756,
      "சில": 757,
      "கார": 758,
      "##வ்": 759,
      "##ங்களில்": 760,
      "##ிருந்த": 761,
      "##க்கப்பட்ட": 762,
      "இர": 763,
      "##ுக்கு": 764,
      "##பா": 765,
      "வர": 766,
      "##ூர்": 767,
      "ப்ப": 768,
      "சம": 769,
      "பண": 770,
      "##ற்றி": 771,
      "##த்தி": 772,
      "த்": 773,
      "##ாம்": 774,
      "##ப்பா": 775,
      "##வாக": 776,
      "##கின்ற": 777,
      "##க்கிய": 778,
      "##ர்த": 779,
      "பிற": 780,
      "##ிக்": 781,
      "##லில்": 782,
      "உய": 783,
      "##லம்": 784,
      "##ங்களை": 785,
      "##பெ": 786,
      "##ருக்கு": 787,
      "சா": 788,
      "நடை": 789,
      "##ியை": 790,
      "##ழை": 791,
      "முன்ன": 792,
      "##ரே": 793,
      "தன": 794,
      "அமைச்ச": 795,
      "##ழக": 796,
      "சந்த": 797,
      "##லக": 798,
      "முடி": 799,
      "##ன்ப": 800,
      "##ிலும்": 801,
      "##ருத்து": 802,
      "நிலையில்": 803,
      "##ிருக்க": 804,
      "##மன்ற": 805,
      "##தா": 806,
      "உட": 807,
      "கடந்த": 808,
      "##ஞ்ச": 809,
      "பட": 810,
      "இருந்து": 811,
      "மோ": 812,
      "வழங்க": 813,
      "##மைய": 814,
      "##ோம்": 815,
      "##ாய்": 816,
      "##மர்": 817,
      "##சார": 818,
      "##வில்லை": 819,
      "##ப்பி": 820,
      "செய்து": 821,
      "##வின்": 822,
      "போல": 823,
      "சட்ட": 824,
      "##ியு": 825,
      "அரசு": 826,
      "##ப்போது": 827,
      "கூற": 828,
      "க்க": 829,
      "##மே": 830,
      "தேர்த": 831,
      "இந்தியா": 832,
      "##்க்க": 833,
      "##ிடம்": 834,
      "##ரோ": 835,
      "##ஷ்": 836,
      "##ர்ந்த": 837,
      "##ியல்": 838,
      "##களில்": 839,
      "##தம்": 840,
      "##ராக": 841,
      "##ட்சி": 842,
      "பகு": 843,
      "##ேன்": 844,
      "##ங்கி": 845,
      "##ங்கள": 846,
      "பிரத": 847,
      "பின்": 848,
      "சீ": 849,
      "##வட்ட": 850,
      "நடைபெ": 851,
      "##வர்கள்": 852,
      "கை": 853,
      "##ணம்": 854,
      "போது": 855,
      "அனு": 856,
      "##டுக்க": 857,
      "பதி": 858,
      "##ிரி": 859,
      "##டைய": 860,
      "மாநில": 861,
      "மாவட்ட": 862,
      "##ந்தது": 863,
      "##ட்டில்": 864,
      "திட்ட": 865,
      "கிட": 866,
      "##சா": 867,
      "யும்": 868,
      "##ப்படி": 869,
      "பூ": 870,
      "##னம்": 871,
      "##ஜக": 872,
      "பொரு": 873,
      "##ரம்": 874,
      "##ரில்": 875,
      "கூட்ட": 876,
      "மேலும்": 877,
      "##ர்த்த": 878,
      "கொண்டு": 879,
      "##ப்படும்": 880,
      "மிக": 881,
      "இல": 882,
      "என்ன": 883,
      "##ங்": 884,
      "##கை": 885,
      "உள்ளது": 886,
      "பாஜக": 887,
      "கட்ட": 888,
      "##ன்னை": 889,
      "##ல்லை": 890,
      "##லு": 891,
      "ச்": 892,
      "##த்தார்": 893,
      "பொது": 894,
      "கால": 895,
      "அம": 896,
      "##கவ": 897,
      "தமிழ்": 898,
      "##ழி": 899,
      "மக": 900,
      "##ேச": 901,
      "தொடர்ப": 902,
      "##டா": 903,
      "##க்கி": 904,
      "ரூ": 905,
      "அடி": 906,
      "இருப்ப": 907,
      "##ட்டை": 908,
      "பத": 909,
      "குழ": 910,
      "##ஸ்த": 911,
      "##லாம்": 912,
      "##ளும்": 913,
      "##ரிக்க": 914,
      "##ியின்": 915,
      "எழு": 916,
      "அது": 917,
      "குறித்து": 918,
      "அனை": 919,
      "##ப்படு": 920,
      "##00": 921,
      "##ிருந்து": 922,
      "##ளர்": 923,
      "ஆகிய": 924,
      "##ர்களுக்கு": 925,
      "சூ": 926,
      "முன்": 927,
      "வரும்": 928,
      "அதிகார": 929,
      "இருக்கும்": 930,
      "நெ": 931,
      "##க்கம்": 932,
      "நிக": 933,
      "##ச்சி": 934,
      "##கிற": 935,
      "என்பது": 936,
      "ராஜ": 937,
      "##த்திற்கு": 938,
      "கிர": 939,
      "கல": 940,
      "கி": 941,
      "இந்திய": 942,
      "##சு": 943,
      "தற்ப": 944,
      "மருத்து": 945,
      "##ாலும்": 946,
      "நிறுவ": 947,
      "தொடர்ந்து": 948,
      "டி": 949,
      "பர": 950,
      "##ட்க": 951,
      "##ொரு": 952,
      "##கிறார்": 953,
      "##்ட்": 954,
      "நீதி": 955,
      "மணி": 956,
      "##கர்": 957,
      "##ியாக": 958,
      "விசார": 959,
      "குறிப்ப": 960,
      "சம்ப": 961,
      "உறு": 962,
      "வருகிறது": 963,
      "கரு": 964,
      "##வம்": 965,
      "##ையா": 966,
      "##தல்": 967,
      "கட்ச": 968,
      "தனது": 969,
      "##ெய": 970,
      "##ள்ளனர்": 971,
      "##ர்களை": 972,
      "கண": 973,
      "ிருக்க": 974,
      "தர": 975,
      "##ந்திர": 976,
      "தோ": 977,
      "##ோத": 978,
      "தேதி": 979,
      "இய": 980,
      "மாண": 981,
      "மக்கள்": 982,
      "நான்": 983,
      "##த்திர": 984,
      "##ப்பை": 985,
      "##வுக்கு": 986,
      "க்கு": 987,
      "தமிழக": 988,
      "பழ": 989,
      "சென்னை": 990,
      "##வடி": 991,
      "ஆத": 992,
      "##க்த": 993,
      "##வீ": 994,
      "கிடை": 995,
      "மீது": 996,
      "##கம்": 997,
      "##ப்படுத்த": 998,
      "வரை": 999,
      "போட்ட": 1000,
      "நாடு": 1001,
      "##ங்களுக்கு": 1002,
      "சேர்ந்த": 1003,
      "முக்கிய": 1004,
      "குறை": 1005,
      "நோ": 1006,
      "டெ": 1007,
      "போலீ": 1008,
      "பெரு": 1009,
      "...": 1010,
      "எதிர்": 1011,
      "##ழா": 1012,
      "என்றும்": 1013,
      "##தால்": 1014,
      "பாதி": 1015,
      "இல்லை": 1016,
      "##ந்தை": 1017,
      "உத": 1018,
      "##ப்பட்டது": 1019,
      "##க்கான": 1020,
      "காங்க": 1021,
      "இன்று": 1022,
      "கள்": 1023,
      "அவர": 1024,
      "விவ": 1025,
      "##போ": 1026,
      "##ாமல்": 1027,
      "விள": 1028,
      "கூறி": 1029,
      "உண": 1030,
      "##தியில்": 1031,
      "ஸ்": 1032,
      "தற்போது": 1033,
      "விட்ட": 1034,
      "பாது": 1035,
      "ங்க": 1036,
      "தொழ": 1037,
      "காங்கிர": 1038,
      "பாதுகா": 1039,
      "அரு": 1040,
      "##ளாக": 1041,
      "##விர": 1042,
      "அமைச்சர்": 1043,
      "##மும்": 1044,
      "##ியது": 1045,
      "விரு": 1046,
      "அளி": 1047,
      "நடவடி": 1048,
      "##டம்": 1049,
      "##கி": 1050,
      "##பதி": 1051,
      "எந்த": 1052,
      "##கையில்": 1053,
      "##ல்க": 1054,
      "##றைய": 1055,
      "உலக": 1056,
      "##ேய": 1057,
      "பிறகு": 1058,
      "மட்டு": 1059,
      "அல": 1060,
      "தெரிவித்து": 1061,
      "202": 1062,
      "பெற்ற": 1063,
      "##ழ்ச": 1064,
      "##்பு": 1065,
      "தமிழ்நா": 1066,
      "அறிவி": 1067,
      "##ப்பட்டுள்ளது": 1068,
      "வருகின்ற": 1069,
      "ஸ்ட": 1070,
      "தகவ": 1071,
      "##ினார்": 1072,
      "குற்ற": 1073,
      "##ீர்": 1074,
      "##டியா": 1075,
      "காவ": 1076,
      "வந்து": 1077,
      "நேர": 1078,
      "##ாளர்": 1079,
      "##ர்களின்": 1080,
      "சொல்ல": 1081,
      "பெய": 1082,
      "##ற்கொ": 1083,
      "வில": 1084,
      "செல்ல": 1085,
      "##மார்": 1086,
      "அள": 1087,
      "மூலம்": 1088,
      "கூறு": 1089,
      "##ப்படுகிறது": 1090,
      "உரு": 1091,
      "இலங்க": 1092,
      "அவர்கள்": 1093,
      "##விட்ட": 1094,
      "##ம்ம": 1095,
      "##ோர்": 1096,
      "##கார": 1097,
      "##ந்": 1098,
      "##ாதார": 1099,
      "காரண": 1100,
      "தலைவர்": 1101,
      "வார": 1102,
      "போன்ற": 1103,
      "யா": 1104,
      "##யில்": 1105,
      "செயல்": 1106,
      "##ர்க்க": 1107,
      "பேச": 1108,
      "மருத்துவ": 1109,
      "வய": 1110,
      "ஆர்": 1111,
      "சென்ற": 1112,
      "ஆர": 1113,
      "அல்ல": 1114,
      "என்க": 1115,
      "மத்திய": 1116,
      "கொள்ள": 1117,
      "நிர்": 1118,
      "தூ": 1119,
      "படி": 1120,
      "இல்ல": 1121,
      "##ில்லை": 1122,
      "காங்கிரஸ்": 1123,
      "##வதாக": 1124,
      "உத்த": 1125,
      "##றும்": 1126,
      "முடிய": 1127,
      "நடவடிக்கை": 1128,
      "சர்": 1129,
      "சமூ": 1130,
      "வேலை": 1131,
      "##வ்வ": 1132,
      "ஆம்": 1133,
      "மொ": 1134,
      "அணி": 1135,
      "பார்த்த": 1136,
      "விடு": 1137,
      "உள்ளிட்ட": 1138,
      "##முறை": 1139,
      "முடியா": 1140,
      "போரா": 1141,
      "##னார்": 1142,
      "அதை": 1143,
      "எம்": 1144,
      "வேண்ட": 1145,
      "அதிமுக": 1146,
      "திர": 1147,
      "நிறுவன": 1148,
      "##ையே": 1149,
      "##ர்வு": 1150,
      "நிலை": 1151,
      "வும்": 1152,
      "##ாகி": 1153,
      "##மதி": 1154,
      "கூட": 1155,
      "வெளி": 1156,
      "வாய": 1157,
      "##ுடன்": 1158,
      "##ரிச": 1159,
      "அதே": 1160,
      "##ிகளை": 1161,
      "##களுக்கு": 1162,
      "##பர்": 1163,
      "##ற்காக": 1164,
      "கட்சி": 1165,
      "10": 1166,
      "##போது": 1167,
      "##ங்கே": 1168,
      "##ணைய": 1169,
      "தேர்தல்": 1170,
      "பிரதமர்": 1171,
      "19": 1172,
      "முய": 1173,
      "##த்துக்கு": 1174,
      "களை": 1175,
      "நடத்த": 1176,
      "சமூக": 1177,
      "கவ": 1178,
      "வைத்து": 1179,
      "மாத": 1180,
      "செல்": 1181,
      "ஏற்படுத்த": 1182,
      "அமெ": 1183,
      "இரண்டு": 1184,
      "அமெரிக்க": 1185,
      "##வரை": 1186,
      "##ட்ப": 1187,
      "##வில": 1188,
      "திமுக": 1189,
      "ஒன்ற": 1190,
      "##டும்ப": 1191,
      "குடும்ப": 1192,
      "தின": 1193,
      "அண": 1194,
      "பேசிய": 1195,
      "##வேறு": 1196,
      "மேற்கொ": 1197,
      "\",": 1198,
      "அரசியல்": 1199,
      "பல்": 1200,
      "புதிய": 1201,
      "##்து": 1202,
      "##ஆம்": 1203,
      "உத்தர": 1204,
      "மாற்ற": 1205,
      "கண்ட": 1206,
      "##வரும்": 1207,
      "##ரீ": 1208,
      "எடுத்து": 1209,
      "விட": 1210,
      "##ரின்": 1211,
      "இதனால்": 1212,
      "அவரது": 1213,
      "##ர்கள": 1214,
      "##ப்பது": 1215,
      "சந்தி": 1216,
      "##க்காக": 1217,
      "##ப்பில்": 1218,
      "சார்": 1219,
      "ஆய": 1220,
      "பெரிய": 1221,
      "குழந்தை": 1222,
      "##ற்கான": 1223,
      "நடி": 1224,
      "பட்ட": 1225,
      "##ோடு": 1226,
      "தய": 1227,
      "##ஜ்": 1228,
      "பயன்ப": 1229,
      "##தும்": 1230,
      "##ச்சை": 1231,
      "##ம்பி": 1232,
      "அழை": 1233,
      "இதில்": 1234,
      "##ள்க": 1235,
      "தொடங்க": 1236,
      "இருக்கிறது": 1237,
      "##ென": 1238,
      "##ாவது": 1239,
      "சென்று": 1240,
      "பள்ள": 1241,
      "கல்": 1242,
      "நக": 1243,
      "இஸ்": 1244,
      "##ிலிருந்து": 1245,
      "கீ": 1246,
      "நினை": 1247,
      "நேற்று": 1248,
      "பேர்": 1249,
      "பல்வேறு": 1250,
      "##யில": 1251,
      "விழா": 1252,
      "பகுதி": 1253,
      "பக்த": 1254,
      "##ேயே": 1255,
      "##தான": 1256,
      "பார்க்க": 1257,
      "ஆதர": 1258,
      "அப்போது": 1259,
      "நிலைய": 1260,
      "நீதிமன்ற": 1261,
      "காண": 1262,
      "##ாள்": 1263,
      "##ந்தி": 1264,
      "##ெட்": 1265,
      "செய்": 1266,
      "கட்டு": 1267,
      "வழி": 1268,
      "மீண்டும்": 1269,
      "ஆய்": 1270,
      "பிரி": 1271,
      "அதன்": 1272,
      "முதல்வர்": 1273,
      "வழக்கு": 1274,
      "முறை": 1275,
      "வாழ": 1276,
      "எல்ல": 1277,
      "மன": 1278,
      "முதல": 1279,
      "கலந்து": 1280,
      "பெண": 1281,
      "##ையின்": 1282,
      "லட்ச": 1283,
      "களு": 1284,
      "உற": 1285,
      "தெரிய": 1286,
      "201": 1287,
      "இற": 1288,
      "##ஜி": 1289,
      "இணை": 1290,
      "பிடி": 1291,
      "##டுப": 1292,
      "வைத்த": 1293,
      "விர": 1294,
      "வீர": 1295,
      "எஸ்": 1296,
      "இன்ன": 1297,
      "வெற்றி": 1298,
      "தொடர்பாக": 1299,
      "##த்துறை": 1300,
      "ரஷ": 1301,
      "##ம்பு": 1302,
      "திரும": 1303,
      "வாய்ப": 1304,
      "##க்கள்": 1305,
      "பால": 1306,
      "நடந்த": 1307,
      "அங்கு": 1308,
      "தீர்": 1309,
      "நடைபெற்ற": 1310,
      "போராட்ட": 1311,
      "தேசிய": 1312,
      "பொறு": 1313,
      "##றிய": 1314,
      "##ன்க": 1315,
      "அதிகரி": 1316,
      "##எஸ்": 1317,
      "பாதுகாப்பு": 1318,
      "தங்க": 1319,
      "திற": 1320,
      "நிர்வாக": 1321,
      "##க்கொ": 1322,
      "வழக்க": 1323,
      "ரஷ்ய": 1324,
      "##ாங்க": 1325,
      "##யா": 1326,
      "##பார": 1327,
      "##பை": 1328,
      "##டைந்த": 1329,
      "மட்டுமே": 1330,
      "##ிறார்கள்": 1331,
      "##விய": 1332,
      "பயன்படுத்த": 1333,
      "பெற்று": 1334,
      "##சை": 1335,
      "பொருள": 1336,
      "ஈடுப": 1337,
      "இந்": 1338,
      "கேள்": 1339,
      "விசாரணை": 1340,
      "இலங்கை": 1341,
      "அடுத்த": 1342,
      "##ள்ளன": 1343,
      "மர": 1344,
      "அனைத்து": 1345,
      "##ழுவ": 1346,
      "தெரிவித்தார்": 1347,
      "நிகழ்ச": 1348,
      "##ரான": 1349,
      "##ளா": 1350,
      "சுவ": 1351,
      "எட": 1352,
      "சிறப்பு": 1353,
      "யின்": 1354,
      "வாக்கு": 1355,
      "குழு": 1356,
      "அதில்": 1357,
      "தாக": 1358,
      "இப்போது": 1359,
      "ுவத": 1360,
      "அல்லது": 1361,
      "##ிற்க": 1362,
      "##மல்": 1363,
      "##ிட்டு": 1364,
      "நடந்தது": 1365,
      "##வெ": 1366,
      "##ிகி": 1367,
      "இதை": 1368,
      "##நாய": 1369,
      "##ாரி": 1370,
      "வருகின்றனர்": 1371,
      "வகையில்": 1372,
      "##ட்டும்": 1373,
      "##தான்": 1374,
      "காரணமாக": 1375,
      "என்பதை": 1376,
      "நிய": 1377,
      "##ிருக்கிறது": 1378,
      "மறு": 1379,
      "##யம்": 1380,
      "அக": 1381,
      "பெண்": 1382,
      "##ளுமன்ற": 1383,
      "##ஸ்ட": 1384,
      "ஸ்டால": 1385,
      "துறை": 1386,
      "தெரிவித்த": 1387,
      "##லோ": 1388,
      "இருந்தது": 1389,
      "##டியாக": 1390,
      "சோ": 1391,
      "செயல்ப": 1392,
      "எடப்பா": 1393,
      "நல்ல": 1394,
      "##ச்சு": 1395,
      "##த்தம்": 1396,
      "கைது": 1397,
      "சிறு": 1398,
      "கூறினார்": 1399,
      "என்றார்": 1400,
      "##கே": 1401,
      "கருத்து": 1402,
      "நிறை": 1403,
      "##ியர்": 1404,
      "மாணவ": 1405,
      "பின்னர்": 1406,
      "முடிவு": 1407,
      "##ல்கள்": 1408,
      "ஏற்பட்ட": 1409,
      "யை": 1410,
      "யில்": 1411,
      "கிராம": 1412,
      "##ஷ்ட": 1413,
      "உயர்": 1414,
      "##ாடு": 1415,
      "##ப்பத": 1416,
      "மெ": 1417,
      "வெளியே": 1418,
      "எடப்பாடி": 1419,
      "யு": 1420,
      "விட்டு": 1421,
      "தொகு": 1422,
      "##க்கப்பட்டு": 1423,
      "மது": 1424,
      "##சிக": 1425,
      "``": 1426,
      "எடுக்க": 1427,
      "தன்": 1428,
      "கடை": 1429,
      "தனி": 1430,
      "சிவ": 1431,
      "##ட்டின்": 1432,
      "##நிலையில்": 1433,
      "வல": 1434,
      "##வான": 1435,
      "நம்ப": 1436,
      "பணி": 1437,
      "முழு": 1438,
      "முயற": 1439,
      "மிகவும்": 1440,
      "##ிருக்கிறார்": 1441,
      "பொருளாதார": 1442,
      "விஷ": 1443,
      "முடியும்": 1444,
      "செலு": 1445,
      "வச": 1446,
      "##ாகு": 1447,
      "##ியுள்ளது": 1448,
      "புக": 1449,
      "##ஸ்ட்": 1450,
      "யோ": 1451,
      "மாதம்": 1452,
      "மின்": 1453,
      "டெல்ல": 1454,
      "தாக்கு": 1455,
      "ிருந்த": 1456,
      "ரூப": 1457,
      "##சாய": 1458,
      "கோடி": 1459,
      "##ற்றை": 1460,
      "விதி": 1461,
      "##லாக": 1462,
      "பார்": 1463,
      "##மையான": 1464,
      "எப்படி": 1465,
      "செய்யப்பட்ட": 1466,
      "வாக": 1467,
      "##த்தது": 1468,
      "##ையாக": 1469,
      "அனுமதி": 1470,
      "##டியோ": 1471,
      "விமான": 1472,
      "##மது": 1473,
      "உருவா": 1474,
      "ஆட்ச": 1475,
      "##க்கல்": 1476,
      "அலுவ": 1477,
      "##ினர்": 1478,
      "##ீடு": 1479,
      "ஜெய": 1480,
      "குறித்த": 1481,
      "நாம்": 1482,
      "##தியாக": 1483,
      "##ையடுத்து": 1484,
      "##ரோனா": 1485,
      "##கொ": 1486,
      "##னாதி": 1487,
      "##ணுவ": 1488,
      "##ற்றிய": 1489,
      "காவல": 1490,
      "கொரோனா": 1491,
      "களுக்கு": 1492,
      "அதற்கு": 1493,
      "##ின்றனர்": 1494,
      "அப்ப": 1495,
      "##மையாக": 1496,
      "முன்னாள்": 1497,
      "ஜனாதி": 1498,
      "##தாகவும்": 1499,
      "##ியன்": 1500,
      "செயலா": 1501,
      "தவ": 1502,
      "ஆளு": 1503,
      "##ளவு": 1504,
      "தமிழ்நாடு": 1505,
      "தேவ": 1506,
      "##நர்": 1507,
      "##விட": 1508,
      "##பர": 1509,
      "வாய்ப்பு": 1510,
      "##விட்டு": 1511,
      "நாங்கள்": 1512,
      "ட்": 1513,
      "என்கிறார்": 1514,
      "வாங்க": 1515,
      "##ண்ட்": 1516,
      "தொழில்": 1517,
      "மருத்துவம": 1518,
      "பதிவு": 1519,
      "களில்": 1520,
      "பற்றி": 1521,
      "தலைமை": 1522,
      "விவசாய": 1523,
      "மதி": 1524,
      "முடியாது": 1525,
      "##ச்சா": 1526,
      "இதற்கு": 1527,
      "##னித": 1528,
      "##நி": 1529,
      "##லுக்கு": 1530,
      "சிக்க": 1531,
      "முக": 1532,
      "கொடுத்த": 1533,
      "பூஜ": 1534,
      "பழனி": 1535,
      "##ளம்": 1536,
      "தகவல்": 1537,
      "களின்": 1538,
      "##க்கூ": 1539,
      "##ஸ்க": 1540,
      "##வதற்கு": 1541,
      "நான": 1542,
      "##ிருந்தார்": 1543,
      "விவகார": 1544,
      "இஸ்ரே": 1545,
      "சத": 1546,
      "ஆண்ட": 1547,
      "12": 1548,
      "கோவில": 1549,
      "இந்நிலையில்": 1550,
      "கொள்க": 1551,
      "##ரியா": 1552,
      "##ின்றன": 1553,
      "##சிர": 1554,
      "##ண்ணி": 1555,
      "30": 1556,
      "##பாடு": 1557,
      "அங்க": 1558,
      "க்கும்": 1559,
      "##டாது": 1560,
      "##ரவ": 1561,
      "##தே": 1562,
      "##றையில்": 1563,
      "##ிலான": 1564,
      "##சாமி": 1565,
      "ஸ்டாலின்": 1566,
      "விமர்": 1567,
      "உரி": 1568,
      "வின்": 1569,
      "ஸ்ரீ": 1570,
      "பாட": 1571,
      "பகுதியில்": 1572,
      "வங்க": 1573,
      "முழுவ": 1574,
      "ஒருவர்": 1575,
      "நடந்து": 1576,
      "நெரு": 1577,
      "தேர்தலில்": 1578,
      "எதிராக": 1579,
      "ஒன்று": 1580,
      "உணவு": 1581,
      "##தியை": 1582,
      "குறிப்பிட": 1583,
      "அமெரிக்கா": 1584,
      "மணிக்கு": 1585,
      "யாக": 1586,
      "##ியாள": 1587,
      "அடிப்பட": 1588,
      "மும்": 1589,
      "தீவிர": 1590,
      "15": 1591,
      "##ப்பின": 1592,
      "வேண்டிய": 1593,
      "முன்பு": 1594,
      "ஒவ்வ": 1595,
      "##ிலேயே": 1596,
      "##கள": 1597,
      "களும்": 1598,
      "ப்படு": 1599,
      "கேட்ட": 1600,
      "##க்கிறது": 1601,
      "காலை": 1602,
      "நிறு": 1603,
      "எனவே": 1604,
      "பக்தர்கள்": 1605,
      "வீடியோ": 1606,
      "ல்": 1607,
      "##கிறார்கள்": 1608,
      "##ப்பாக": 1609,
      "பரி": 1610,
      "கன": 1611,
      "##ருக்கும்": 1612,
      "கோவில்": 1613,
      "##பிஎஸ்": 1614,
      "விஜ": 1615,
      "அவரை": 1616,
      "ரஷ்யா": 1617,
      "உடன": 1618,
      "நிதி": 1619,
      "பெரும்": 1620,
      "அண்ண": 1621,
      "சங்க": 1622,
      "நாட்க": 1623,
      "##டக": 1624,
      "##ளுடன்": 1625,
      "சிகி": 1626,
      "##ர்ந்து": 1627,
      "##களின்": 1628,
      "நடத்தி": 1629,
      "##ேக": 1630,
      "பிரச்": 1631,
      "வீடு": 1632,
      "##ையான": 1633,
      "கேள்வி": 1634,
      "வெள்ள": 1635,
      "ஜன": 1636,
      "மூன்று": 1637,
      "##க்கோ": 1638,
      "வளர்": 1639,
      "ஏற்க": 1640,
      "ஆய்வு": 1641,
      "ராணுவ": 1642,
      "##நிலை": 1643,
      "சார்ப": 1644,
      "கர்": 1645,
      "##ணா": 1646,
      "நு": 1647,
      "நிகழ்": 1648,
      "##ராஜ": 1649,
      "ஜூ": 1650,
      "தை": 1651,
      "ஒரே": 1652,
      "##ிருக்கும்": 1653,
      "அவருக்கு": 1654,
      "அதிகாரிகள்": 1655,
      "கொடு": 1656,
      "ிற": 1657,
      "##கன்": 1658,
      "##த்தா": 1659,
      "காரணம்": 1660,
      "ஆட்சி": 1661,
      "ஆயிர": 1662,
      "இரண்ட": 1663,
      "மட்டும்": 1664,
      "##படி": 1665,
      "வேறு": 1666,
      "தடை": 1667,
      "காவல்து": 1668,
      "இவ": 1669,
      "எனக்கு": 1670,
      "##தில்": 1671,
      "11": 1672,
      "கூறிய": 1673,
      "ஜி": 1674,
      "ராகு": 1675,
      "மோடி": 1676,
      "பெற": 1677,
      "கடி": 1678,
      "தொழில": 1679,
      "##ிகளில்": 1680,
      "செய்யும்": 1681,
      "புது": 1682,
      "குறிப்பிட்ட": 1683,
      "சொன்ன": 1684,
      "பாரா": 1685,
      "##த்துடன்": 1686,
      "ஜனாதிபதி": 1687,
      "##மையில்": 1688,
      "ஒவ்வொரு": 1689,
      "##ப்ட": 1690,
      "உள்ளன": 1691,
      "பயண": 1692,
      "இதன்": 1693,
      "##ண்டி": 1694,
      "மனை": 1695,
      "உச்ச": 1696,
      "கல்ல": 1697,
      "வட": 1698,
      "கொள்": 1699,
      "##க்கப்பட்டது": 1700,
      "##ஸ்தான்": 1701,
      "சுற்று": 1702,
      "கடு": 1703,
      "இந்தப்": 1704,
      "இன்னும்": 1705,
      "விளையா": 1706,
      "##ீர": 1707,
      "##ரிக்கை": 1708,
      "##வார்": 1709,
      "##னில்": 1710,
      "அபி": 1711,
      "சூழ": 1712,
      "##ன்கள்": 1713,
      "ஜெ": 1714,
      "எதிர்க": 1715,
      "##வாள": 1716,
      "##ர்த்து": 1717,
      "குரு": 1718,
      "உண்": 1719,
      "வயது": 1720,
      "அம்": 1721,
      "உடல்": 1722,
      "சுமார்": 1723,
      "ள்": 1724,
      "##ந்த்": 1725,
      "ஊழ": 1726,
      "துணை": 1727,
      "##சார்": 1728,
      "ஆட்ட": 1729,
      "தமிழ": 1730,
      "இந்து": 1731,
      "முழுவதும்": 1732,
      "##ல்லாம்": 1733,
      "கும்": 1734,
      "##கின்றன": 1735,
      "இப்படி": 1736,
      "நாள்": 1737,
      "பதவி": 1738,
      "சம்பவம்": 1739,
      "ரூபாய்": 1740,
      "##ிகளுக்கு": 1741,
      "தவிர": 1742,
      "மை": 1743,
      "சிகிச்சை": 1744,
      "கொலை": 1745,
      "##ாமி": 1746,
      "குடிய": 1747,
      "##ம்மன்": 1748,
      "கோயில": 1749,
      "போலீஸ": 1750,
      "பூஜை": 1751,
      "தேர்வு": 1752,
      "இடங்களில்": 1753,
      "##ப்போ": 1754,
      "இவர்": 1755,
      "நிர": 1756,
      "நேரத்தில்": 1757,
      "யான": 1758,
      "டெல்லி": 1759,
      "சம்பவ": 1760,
      "##ப்பெ": 1761,
      "ஏன்": 1762,
      "கோயில்": 1763,
      "மனித": 1764,
      "##ஞ்சா": 1765,
      "உயிரி": 1766,
      "உறுதி": 1767,
      "செல": 1768,
      "நாடா": 1769,
      "மோச": 1770,
      "சீனா": 1771,
      "##ர்ம": 1772,
      "வருகிறார்": 1773,
      "000": 1774,
      "##னுக்கு": 1775,
      "தெரிவித்துள்ளார்": 1776,
      "தொடர்பான": 1777,
      "மாக": 1778,
      "இங்கு": 1779,
      "நாடாளுமன்ற": 1780,
      "அலுவலக": 1781,
      "##ாரம்": 1782,
      "மி": 1783,
      "##ள்ளதாக": 1784,
      "##ாரா": 1785,
      "நிகழ்ச்ச": 1786,
      "##த்துக்": 1787,
      "கீழ்": 1788,
      "##லைக்க": 1789,
      "நம்": 1790,
      "##ரிடம்": 1791,
      "தங்கள்": 1792,
      "மத": 1793,
      "தேவை": 1794,
      "சரிய": 1795,
      "கொடுக்க": 1796,
      "உயிரிழ": 1797,
      "இழ": 1798,
      "தெரிவிக்க": 1799,
      "தன்ன": 1800,
      "பார்த்து": 1801,
      "ன்": 1802,
      "பேர": 1803,
      "லட்சம்": 1804,
      "இறு": 1805,
      "பாகி": 1806,
      "பங்கே": 1807,
      "ரயில்": 1808,
      "கண்டு": 1809,
      "##ோதனை": 1810,
      "கூட்டணி": 1811,
      "ஆலோ": 1812,
      "பிரதேச": 1813,
      "யே": 1814,
      "##ட்டிய": 1815,
      "##வாத": 1816,
      "##வதை": 1817,
      "இளை": 1818,
      "##கின்றனர்": 1819,
      "##ில்ல": 1820,
      "##நிதி": 1821,
      "இன்": 1822,
      "வீட்டில்": 1823,
      "கல்வி": 1824,
      "விற": 1825,
      "##ட்கள்": 1826,
      "##ாளர்கள்": 1827,
      "காந்தி": 1828,
      "##வன்": 1829,
      "##பத்தில்": 1830,
      "எதிர்பார": 1831,
      "வாகன": 1832,
      "##னின்": 1833,
      "மேல்": 1834,
      "##்டர்": 1835,
      "ரி": 1836,
      "விலை": 1837,
      "##த்துள்ளது": 1838,
      "இளைஞ": 1839,
      "ரோ": 1840,
      "இதையடுத்து": 1841,
      "##ருந்து": 1842,
      "அரசாங்க": 1843,
      "ஆணைய": 1844,
      "ார்": 1845,
      "##நீ": 1846,
      "அதிர்": 1847,
      "செய்தி": 1848,
      "##ம்பர்": 1849,
      "தடு": 1850,
      "மைய": 1851,
      "##மைச்ச": 1852,
      "##ினி": 1853,
      "கேட்டு": 1854,
      "##ழமை": 1855,
      "##ங்களின்": 1856,
      "அடை": 1857,
      "மேற்ப": 1858,
      "சிங்": 1859,
      "##ங்கா": 1860,
      "எல்": 1861,
      "மாவட்டம்": 1862,
      "மேற்கொள்ள": 1863,
      "ராம": 1864,
      "கூறப்படுகிறது": 1865,
      "##க்கெ": 1866,
      "##ஸ்வர": 1867,
      "பை": 1868,
      "போர்": 1869,
      "##ப்புகள்": 1870,
      "##ந்துள்ளது": 1871,
      "புற": 1872,
      "##ிறேன்": 1873,
      "சரி": 1874,
      "எண்ண": 1875,
      "##ேற்ற": 1876,
      "##க்குறி": 1877,
      "##ினும்": 1878,
      "கெ": 1879,
      "பெண்கள்": 1880,
      "##த்தக்க": 1881,
      "வாழ்": 1882,
      "##ளுக்கும்": 1883,
      "லா": 1884,
      "##த்தக": 1885,
      "ஆலோச": 1886,
      "விரை": 1887,
      "வந்தது": 1888,
      "குடி": 1889,
      "பந்து": 1890,
      "செய்யப்பட்டு": 1891,
      "படை": 1892,
      "எண்ணி": 1893,
      "நீங்கள்": 1894,
      "நூ": 1895,
      "##்தான்": 1896,
      "ஓபிஎஸ்": 1897,
      "##ரல்": 1898,
      "போட்டிய": 1899,
      "இணைய": 1900,
      "பீ": 1901,
      "வர்": 1902,
      "பிரச்னை": 1903,
      "டிர": 1904,
      "பெண்க": 1905,
      "ஆன": 1906,
      "ஜோ": 1907,
      "பெரும்ப": 1908,
      "உறுப்பின": 1909,
      "மட்டும": 1910,
      "அற": 1911,
      "##ங்கிய": 1912,
      "எதிர்க்க": 1913,
      "இந்தியாவில்": 1914,
      "வாழ்க்க": 1915,
      "##வதேச": 1916,
      "சர்வதேச": 1917,
      "ும்": 1918,
      "னர்": 1919,
      "வள": 1920,
      "##லர்": 1921,
      "தொடர்பு": 1922,
      "கண்க": 1923,
      "வேட்ப": 1924,
      "18": 1925,
      "##ப்பதாக": 1926,
      "##ட்டுக்கு": 1927,
      "விஷய": 1928,
      "##சே": 1929,
      "200": 1930,
      "திரை": 1931,
      "பக்க": 1932,
      "##வார்கள்": 1933,
      "மாலை": 1934,
      "சார்பில்": 1935,
      "##சன்": 1936,
      "கட்சியின்": 1937,
      "##சம்": 1938,
      "வேண்டு": 1939,
      "ரீ": 1940,
      "##பிடி": 1941,
      "பெயர்": 1942,
      "##ெல்": 1943,
      "##ப்பிர": 1944,
      "கொடுத்து": 1945,
      "##ியார்": 1946,
      "மண்ட": 1947,
      "யார்": 1948,
      "அரசிய": 1949,
      "சக": 1950,
      "சுவாமி": 1951,
      "சாத": 1952,
      "சொந்த": 1953,
      "இரவு": 1954,
      "அப": 1955,
      "அளவில்": 1956,
      "##லின்": 1957,
      "போலீசார்": 1958,
      "கல்லூ": 1959,
      "திருப்ப": 1960,
      "##ப்பாளர்": 1961,
      "நடைபெற்றது": 1962,
      "துவ": 1963,
      "மூல": 1964,
      "சின்": 1965,
      "வைக்க": 1966,
      "50": 1967,
      "##்பட": 1968,
      "பிபி": 1969,
      "##..": 1970,
      "ஏற்பட்டு": 1971,
      "ப்பட்டு": 1972,
      "அரசின்": 1973,
      "##வராக": 1974,
      "##னும்": 1975,
      "வரலா": 1976,
      "அதேபோ": 1977,
      "அடைய": 1978,
      "முறைய": 1979,
      "##விழா": 1980,
      "எது": 1981,
      "##நாட்டு": 1982,
      "அதன்ப": 1983,
      "##ர்த்தி": 1984,
      "##ிடையே": 1985,
      "ஒது": 1986,
      "##ோக": 1987,
      "காவல்": 1988,
      "உக்": 1989,
      "##ாது": 1990,
      "அருகே": 1991,
      "##னையில்": 1992,
      "##்டு": 1993,
      "தரு": 1994,
      "கூறுகிறார்": 1995,
      "பள்ளி": 1996,
      "இதுவரை": 1997,
      "நம்பிக்க": 1998,
      "அனுப்ப": 1999,
      "##ஸ்தான": 2000,
      "திட": 2001,
      "##ுள்ள": 2002,
      "போல்": 2003,
      "##ங்கும்": 2004,
      "பரபர": 2005,
      "##ஸ்ப": 2006,
      "பணம்": 2007,
      "மக்கள": 2008,
      "திரும்ப": 2009,
      "செயலாளர்": 2010,
      "ஏற்று": 2011,
      "யூ": 2012,
      "##ெல்லாம்": 2013,
      "நாய": 2014,
      "##தலை": 2015,
      "##க்கில்": 2016,
      "அதிபர்": 2017,
      "பயிற": 2018,
      "காய": 2019,
      "செலுத்த": 2020,
      "நப": 2021,
      "இதனை": 2022,
      "##ியுள்ளார்": 2023,
      "மகி": 2024,
      "தீர்மான": 2025,
      "மழை": 2026,
      "கண்ண": 2027,
      "வகு": 2028,
      "அழைத்து": 2029,
      "நெருக்க": 2030,
      "மான": 2031,
      "##ேஷ்": 2032,
      "ஆப": 2033,
      "##ண்ப": 2034,
      "வில்லை": 2035,
      "பல்க": 2036,
      "##ஷன்": 2037,
      "வேக": 2038,
      "உக்ரை": 2039,
      "உங்கள்": 2040,
      "14": 2041,
      "##ிருந்தது": 2042,
      "எனக்": 2043,
      "இடையே": 2044,
      "வன்": 2045,
      "எனவும்": 2046,
      "போக": 2047,
      "தொடங்கி": 2048,
      "##மீ": 2049,
      "##ம்பெ": 2050,
      "பன்ன": 2051,
      "உதவி": 2052,
      "##ினால்": 2053,
      "##ற்றில்": 2054,
      "##ாக்": 2055,
      "சென்ன": 2056,
      "##ர்களும்": 2057,
      "புகார்": 2058,
      "சமீ": 2059,
      "சந்திர": 2060,
      "ஆளுநர்": 2061,
      "ிருக்கிறது": 2062,
      "##வியை": 2063,
      "##றுத்த": 2064,
      "##மையை": 2065,
      "##ள்ளி": 2066,
      "அப்படி": 2067,
      "நாட்டின்": 2068,
      "தலைவ": 2069,
      "25": 2070,
      "##ரன்": 2071,
      "கலை": 2072,
      "ஏற்பாடு": 2073,
      "உரிமை": 2074,
      "ரசிக": 2075,
      "அதனால்": 2076,
      "என்றால்": 2077,
      "பங்கு": 2078,
      "2022": 2079,
      "வருகின்றன": 2080,
      "கிடைக்கும்": 2081,
      "மார": 2082,
      "நீதிபதி": 2083,
      "##ானி": 2084,
      "மாட்ட": 2085,
      "பிரச்ச": 2086,
      "பொதும": 2087,
      "முதலமைச்ச": 2088,
      "##ிகா": 2089,
      "நிறைவே": 2090,
      "வில்": 2091,
      "##ஷ்ண": 2092,
      "இல்லாத": 2093,
      "உள்ளனர்": 2094,
      "செல்லும்": 2095,
      "இந்தக்": 2096,
      "##நக": 2097,
      "திட்டம்": 2098,
      "##ுத": 2099,
      "நீர்": 2100,
      "விமர்ச": 2101,
      "##த்தால்": 2102,
      "கிடைக்க": 2103,
      "##ாலி": 2104,
      "##வாதி": 2105,
      "செய்தனர்": 2106,
      "சர": 2107,
      "பத்திர": 2108,
      "##களாக": 2109,
      "##்த்தை": 2110,
      "ப்பட": 2111,
      "ஃப": 2112,
      "எடுத்த": 2113,
      "தொகுதி": 2114,
      "##ஃப்": 2115,
      "பரிச": 2116,
      "கொண்டா": 2117,
      "##ிகை": 2118,
      "13": 2119,
      "தேர்": 2120,
      "முயற்ச": 2121,
      "த்தை": 2122,
      "தோல்": 2123,
      "##ராட்சி": 2124,
      "நல": 2125,
      "##க்தி": 2126,
      "குற்றம்": 2127,
      "மண": 2128,
      "##ட்டர்": 2129,
      "திருமண": 2130,
      "போலீஸார்": 2131,
      "##டர்": 2132,
      "##ப்பின்": 2133,
      "தயார": 2134,
      "தள": 2135,
      "விழு": 2136,
      "பாதிப்பு": 2137,
      "ஒப்ப": 2138,
      "தல": 2139,
      "##ிறோம்": 2140,
      "எடு": 2141,
      "வருட": 2142,
      "நேரம்": 2143,
      "மனைவி": 2144,
      "வைர": 2145,
      "அமைப்பு": 2146,
      "அதாவது": 2147,
      "சேவை": 2148,
      "அளித்த": 2149,
      "##வாறு": 2150,
      "ப்பட்ட": 2151,
      "ஆகியோர்": 2152,
      "கைய": 2153,
      "போட்டி": 2154,
      "##மாறு": 2155,
      "ஊடக": 2156,
      "இஸ்ரேல்": 2157,
      "மேற்பட்ட": 2158,
      "சுத": 2159,
      "குறிப்பி": 2160,
      "ஆசிர": 2161,
      "நடத்திய": 2162,
      "இள": 2163,
      "இடை": 2164,
      "##ேகம்": 2165,
      "நகர": 2166,
      "விற்ப": 2167,
      "##கோ": 2168,
      "காட்ட": 2169,
      "தான": 2170,
      "##்த்து": 2171,
      "16": 2172,
      "##தற்கு": 2173,
      "கோரிக்கை": 2174,
      "வலியு": 2175,
      "விப": 2176,
      "இடம்": 2177,
      "குறிப்பிடத்தக்க": 2178,
      "##தள": 2179,
      "திருமணம்": 2180,
      "கேர": 2181,
      "##மொ": 2182,
      "அறிக்க": 2183,
      "இயக்கு": 2184,
      "##ரையா": 2185,
      "இருக்கிறார்": 2186,
      "##ர்களிடம்": 2187,
      "நீண்ட": 2188,
      "மூத்த": 2189,
      "##ப்பினர்": 2190,
      "கார்": 2191,
      "ராகுல்": 2192,
      "##சோ": 2193,
      "இடத்தில்": 2194,
      "ஈடுபட்ட": 2195,
      "##வார": 2196,
      "##வரின்": 2197,
      "பிரப": 2198,
      "ள்ள": 2199,
      "கண்கா": 2200,
      "முன்ப": 2201,
      "காலத்தில்": 2202,
      "சிர": 2203,
      "வுக்கு": 2204,
      "##ட்டா": 2205,
      "சுக": 2206,
      "##மூ": 2207,
      "ஏற்படும்": 2208,
      "அதிகமாக": 2209,
      "க்கூ": 2210,
      "பெறு": 2211,
      "##ளிக்க": 2212,
      "பல்கலைக்க": 2213,
      "##மைப்பு": 2214,
      "அட": 2215,
      "##க்கிர": 2216,
      "##ல்களை": 2217,
      "எப்போது": 2218,
      "என்பதால்": 2219,
      "லி": 2220,
      "##ப்த": 2221,
      "திருவிழா": 2222,
      "இந்தத்": 2223,
      "செய்க": 2224,
      "டா": 2225,
      "##க்களை": 2226,
      "மாற": 2227,
      "பிறந்த": 2228,
      "மறை": 2229,
      "இந்தியாவின்": 2230,
      "பழனிசாமி": 2231,
      "##வுகள்": 2232,
      "கேட்க": 2233,
      "அந்தப்": 2234,
      "கவன": 2235,
      "பன்னீர்": 2236,
      "ரெ": 2237,
      "இதே": 2238,
      "உதவ": 2239,
      "மருத்துவமனை": 2240,
      "பல்கலைக்கழக": 2241,
      "நடைபெறும்": 2242,
      "தமிழ்நாட்டில்": 2243,
      "##நு": 2244,
      "வித": 2245,
      "பேச்ச": 2246,
      "100": 2247,
      "அதனை": 2248,
      "##ர்களில்": 2249,
      "பாலியல்": 2250,
      "திட்டமி": 2251,
      "எதிர்ப்பு": 2252,
      "அடிப்படையில்": 2253,
      "தண்ட": 2254,
      "அன்று": 2255,
      "##ப்பான": 2256,
      "##ாமலை": 2257,
      "த்தில்": 2258,
      "##ன்னி": 2259,
      "மனு": 2260,
      "பகுதிகளில்": 2261,
      "17": 2262,
      "##மோ": 2263,
      "அறிக்கை": 2264,
      "வழக்கில்": 2265,
      "##புரம்": 2266,
      "##நீதி": 2267,
      "கர்நா": 2268,
      "ஆரம்ப": 2269,
      "##ப்பூ": 2270,
      "மதுரை": 2271,
      "நகர்": 2272,
      "வரவே": 2273,
      "குறிப்பாக": 2274,
      "எதிரான": 2275,
      "திரைப்பட": 2276,
      "##வால்": 2277,
      "தனியார்": 2278,
      "முயற்சி": 2279,
      "##ஜா": 2280,
      "வேல": 2281,
      "அவர்களின்": 2282,
      "மார்": 2283,
      "##வோம்": 2284,
      "##ிலோ": 2285,
      "வருமான": 2286,
      "சிலர்": 2287,
      "கிள": 2288,
      "குற்றச்சா": 2289,
      "##மார": 2290,
      "##ன்றி": 2291,
      "வெளியிட்டு": 2292,
      "பணியா": 2293,
      "நிறுவனம்": 2294,
      "முக்கியமான": 2295,
      "ஆன்": 2296,
      "##ப்பாடு": 2297,
      "##நாத": 2298,
      "##த்தியில்": 2299,
      "##மெ": 2300,
      "ுள்ளது": 2301,
      "24": 2302,
      "வான": 2303,
      "##களும்": 2304,
      "அழு": 2305,
      "டீ": 2306,
      "த்தின்": 2307,
      "டை": 2308,
      "##ங்கில": 2309,
      "பிரதி": 2310,
      "இன்ற": 2311,
      "வெற்ற": 2312,
      "ஹி": 2313,
      "ஆதி": 2314,
      "##ந்தில்": 2315,
      "##படுத்த": 2316,
      "##an": 2317,
      "##ன்மை": 2318,
      "என்னை": 2319,
      "மாணவர்கள்": 2320,
      "பயணம்": 2321,
      "தாக்குதல்": 2322,
      "உற்ப": 2323,
      "வலை": 2324,
      "அதிகம்": 2325,
      "வது": 2326,
      "எச்ச": 2327,
      "நண்ப": 2328,
      "##ட்டம்": 2329,
      "மேம்ப": 2330,
      "in": 2331,
      "எரி": 2332,
      "வரி": 2333,
      "வெடி": 2334,
      "சொல்": 2335,
      "##த்திலும்": 2336,
      "ஆதரவு": 2337,
      "எங்கள்": 2338,
      "சை": 2339,
      "##க்கப்படும்": 2340,
      "##ளித்த": 2341,
      "இருப்பதாக": 2342,
      "##ாண": 2343,
      "மல": 2344,
      "நடைபெற": 2345,
      "தமிழகத்தில்": 2346,
      "கர": 2347,
      "போக்கு": 2348,
      "கூடாது": 2349,
      "கொண்டிருந்த": 2350,
      "அமர்": 2351,
      "##வாய": 2352,
      "ஆரம்பி": 2353,
      "பற்றிய": 2354,
      "போன": 2355,
      "இருந்தாலும்": 2356,
      "அருக": 2357,
      "வெளியிட்ட": 2358,
      "##த்தினர்": 2359,
      "##கிறோம்": 2360,
      "நாளை": 2361,
      "நான்கு": 2362,
      "போட்டு": 2363,
      "போலீஸ்": 2364,
      "##ரசு": 2365,
      "##க்குழு": 2366,
      "##ிகளின்": 2367,
      "நோய": 2368,
      "யார": 2369,
      "##த்தீ": 2370,
      "ஒருங்கி": 2371,
      "ஒருங்கிணை": 2372,
      "பால்": 2373,
      "ஷா": 2374,
      "##ுடைய": 2375,
      "இணைந்து": 2376,
      "நிகழ்ச்சி": 2377,
      "அவர்களுக்கு": 2378,
      "##ஷா": 2379,
      "நீதிமன்றம்": 2380,
      "செய்தார்": 2381,
      "ஆண்டுகளுக்கு": 2382,
      "விரும்ப": 2383,
      "இவ்": 2384,
      "அவசிய": 2385,
      "##றித்து": 2386,
      "##பம்": 2387,
      "பதில்": 2388,
      "##தேச": 2389,
      "##வின": 2390,
      "குறிப்பிடத்தக்கது": 2391,
      "சுகாதார": 2392,
      "ுள்ளனர்": 2393,
      "##ழும்": 2394,
      "விக்": 2395,
      "கால்": 2396,
      "அவ்": 2397,
      "##லாத": 2398,
      "வெளியாக": 2399,
      "##ிருஷ்ண": 2400,
      "##ிரா": 2401,
      "கடன்": 2402,
      "பின்ன": 2403,
      "கோவிலில்": 2404,
      "நாக": 2405,
      "கடும்": 2406,
      "கூடு": 2407,
      "த்திற்கு": 2408,
      "வடி": 2409,
      "வந்தார்": 2410,
      "நிறுத்த": 2411,
      "அடையாள": 2412,
      "இனி": 2413,
      "மாதி": 2414,
      "தென்": 2415,
      "பதில": 2416,
      "தயாரி": 2417,
      "கணி": 2418,
      "சுதந்திர": 2419,
      "சட்டமன்ற": 2420,
      "நாடுகள்": 2421,
      "டாக": 2422,
      "##ியான": 2423,
      "தால்": 2424,
      "##வரி": 2425,
      "த்து": 2426,
      "அவரு": 2427,
      "##நுட்ப": 2428,
      "தொலை": 2429,
      "நாட்டில்": 2430,
      "நடைபெற்று": 2431,
      "இல்லாமல்": 2432,
      "ஆறு": 2433,
      "சொல்லி": 2434,
      "##ியும்": 2435,
      "அம்மா": 2436,
      "இறுதி": 2437,
      "##வினர்": 2438,
      "சதவீ": 2439,
      "தண்ண": 2440,
      "தாக்க": 2441,
      "குழுவ": 2442,
      "எல்லா": 2443,
      "உட்பட": 2444,
      "சோதனை": 2445,
      "கூட்டம்": 2446,
      "##க்கண": 2447,
      "##க்குறிப்பு": 2448,
      "விரி": 2449,
      "புரி": 2450,
      "மக்களுக்கு": 2451,
      "தரிச": 2452,
      "கூடிய": 2453,
      "பலர்": 2454,
      "##ூர்வ": 2455,
      "##டல்": 2456,
      "##ியம்": 2457,
      "பிபிசி": 2458,
      "படம்": 2459,
      "காவல்துறை": 2460,
      "இந்தச்": 2461,
      "##ப்பே": 2462,
      "##ப்படை": 2463,
      "##சித்து": 2464,
      "சட்டம்": 2465,
      "பொருட்க": 2466,
      "லாம்": 2467,
      "##ஞ்சி": 2468,
      "##ியர்கள்": 2469,
      "##ஞர்": 2470,
      "கூறுகையில்": 2471,
      "முடியாத": 2472,
      "நடக்க": 2473,
      "போராட்டம்": 2474,
      "ுள்ள": 2475,
      "##ாயம்": 2476,
      "எண்ணிக்கை": 2477,
      "மேல": 2478,
      "வர்கள்": 2479,
      "படக்குறிப்பு": 2480,
      "##நாயக": 2481,
      "மகிழ்ச": 2482,
      "##டாக": 2483,
      "கிழ": 2484,
      "ரே": 2485,
      "##ிர்": 2486,
      "உள்ளார்": 2487,
      "##ரிக": 2488,
      "என்பத": 2489,
      "சாலை": 2490,
      "எல்லாம்": 2491,
      "எனது": 2492,
      "அனைவரும்": 2493,
      "சந்தித்து": 2494,
      "சின்ன": 2495,
      "முதலில்": 2496,
      "விசாரி": 2497,
      "அலங்க": 2498,
      "வெளியிட": 2499,
      "##வ்வளவு": 2500,
      "கண்காணி": 2501,
      "##நீதிமன்ற": 2502,
      "ஏரா": 2503,
      "உடனடியாக": 2504,
      "குறைந்த": 2505,
      "40": 2506,
      "புகை": 2507,
      "மீதான": 2508,
      "இருவரும்": 2509,
      "உள": 2510,
      "படு": 2511,
      "##ஸ்திர": 2512,
      "பாதிக்கப்பட்ட": 2513,
      "ஆலோசனை": 2514,
      "களையும்": 2515,
      "பிரிவு": 2516,
      "##சர்": 2517,
      "புதி": 2518,
      "தந்த": 2519,
      "##எல்": 2520,
      "நடக்கும்": 2521,
      "##்களை": 2522,
      "##ட்டிற்கு": 2523,
      "தாக்கல்": 2524,
      "மேற்கு": 2525,
      "இதன": 2526,
      "##கிறேன்": 2527,
      "வசதி": 2528,
      "இருந்தார்": 2529,
      "தொழில்நுட்ப": 2530,
      "##ழ்த்த": 2531,
      "கண்டுபிடி": 2532,
      "23": 2533,
      "##ிழமை": 2534,
      "##ளமான": 2535,
      "##த்திட்ட": 2536,
      "##விற்கு": 2537,
      "ிருப்ப": 2538,
      "ஆண்டுகளாக": 2539,
      "அர்": 2540,
      "இடம்பெ": 2541,
      "தவற": 2542,
      "இருப்பினும்": 2543,
      "தெரியா": 2544,
      "பலரும்": 2545,
      "எதிர்பார்க்க": 2546,
      "வன": 2547,
      "வக": 2548,
      "தலைமைய": 2549,
      "சமா": 2550,
      "தலைமையில்": 2551,
      "கவு": 2552,
      "##ானா": 2553,
      "வருவதாக": 2554,
      "மலை": 2555,
      "ிருக்கிறார்": 2556,
      "அவரின்": 2557,
      "##ரம": 2558,
      "22": 2559,
      "##த்திரை": 2560,
      "புர": 2561,
      "##நாடு": 2562,
      "தலைவர்கள்": 2563,
      "##ிக்கா": 2564,
      "##தியின்": 2565,
      "##ையிலான": 2566,
      "காட்ச": 2567,
      "##த்தியா": 2568,
      "##க்கொள்ள": 2569,
      "00": 2570,
      "##ளுக்கான": 2571,
      "திக": 2572,
      "##ஹி": 2573,
      "புல": 2574,
      "விட்டது": 2575,
      "ஒப்பந்த": 2576,
      "அவை": 2577,
      "##ிக்கெட்": 2578,
      "முரு": 2579,
      "மூன்ற": 2580,
      "ஆண்டில்": 2581,
      "ஆயிரம்": 2582,
      "##க்கப்பட": 2583,
      "##ங்களும்": 2584,
      "##மடைந்த": 2585,
      "தெரிவித்துள்ளது": 2586,
      "##த்துவ": 2587,
      "பேசு": 2588,
      "முதலமைச்சர்": 2589,
      "##ஷேகம்": 2590,
      "##ருமான": 2591,
      "##ங்கை": 2592,
      "##க்குள்": 2593,
      "அதிகரித்து": 2594,
      "பாகிஸ்தான்": 2595,
      "##ானது": 2596,
      "கழி": 2597,
      "##ில்லியன்": 2598,
      "மகன்": 2599,
      "உயிரிழந்த": 2600,
      "விஜய": 2601,
      "##er": 2602,
      "அளவுக்கு": 2603,
      "தாய": 2604,
      "தாய்": 2605,
      "நவ": 2606,
      "அவர்களை": 2607,
      "அம்ப": 2608,
      "விற்பனை": 2609,
      "##ிட்": 2610,
      "சென்னையில்": 2611,
      "மகா": 2612,
      "##ஷி": 2613,
      "##நாள்": 2614,
      "த்தான்": 2615,
      "##ோதைய": 2616,
      "அறிவு": 2617,
      "குமார்": 2618,
      "நாள": 2619,
      "முன்னிட்டு": 2620,
      "##த்தனர்": 2621,
      "கோவை": 2622,
      "ஊர்": 2623,
      "மத்தியில்": 2624,
      "மக்களின்": 2625,
      "பார்வ": 2626,
      "ஏராளமான": 2627,
      "கிலோ": 2628,
      "டன்": 2629,
      "##ாட்சி": 2630,
      "##மான்": 2631,
      "##ண்டை": 2632,
      "##ப்புற": 2633,
      "செய்வத": 2634,
      "##டியே": 2635,
      "குறிப்பிட்டு": 2636,
      "யுடன்": 2637,
      "##க்கப்பட்டுள்ளது": 2638,
      "##விட்டது": 2639,
      "பாராளுமன்ற": 2640,
      "வு": 2641,
      "தேடி": 2642,
      "நரே": 2643,
      "கூட்டத்தில்": 2644,
      "ஓய்": 2645,
      "குஜ": 2646,
      "கூறியுள்ளார்": 2647,
      "மாவட்டத்தில்": 2648,
      "21": 2649,
      "நியமி": 2650,
      "இல்": 2651,
      "இதுபோ": 2652,
      "##குதி": 2653,
      "தரப்பு": 2654,
      "அணு": 2655,
      "##னவே": 2656,
      "##தோ": 2657,
      "கான்": 2658,
      "காலம்": 2659,
      "வாக்க": 2660,
      "களால்": 2661,
      "ஆகியவ": 2662,
      "கடுமையாக": 2663,
      "குஜரா": 2664,
      "அனுப": 2665,
      "ஏற்பட்டது": 2666,
      "##நாயகர்": 2667,
      "தகவல்கள்": 2668,
      "இப்ப": 2669,
      "மாறி": 2670,
      "##த்தைச்": 2671,
      "விளை": 2672,
      "அறிமுக": 2673,
      "மொத்த": 2674,
      "ஏற்கனவே": 2675,
      "அச": 2676,
      "கத": 2677,
      "##ங்கல்": 2678,
      "##குறித்து": 2679,
      "சிறுவ": 2680,
      "ஆவ": 2681,
      "பற": 2682,
      "தன்னுடைய": 2683,
      "##செல்": 2684,
      "##ிலை": 2685,
      "பரவ": 2686,
      "வண": 2687,
      "ஆண்டுகள்": 2688,
      "##ங்களாக": 2689,
      "ஆராய": 2690,
      "பேசி": 2691,
      "பெருமா": 2692,
      "##க்கே": 2693,
      "உற்ச": 2694,
      "ங்கள": 2695,
      "மாநக": 2696,
      "ட்ட": 2697,
      "ஹெ": 2698,
      "முறையில்": 2699,
      "மருத்துவமனையில்": 2700,
      "##ன்றால்": 2701,
      "கூட்டண": 2702,
      "உக்ரைன்": 2703,
      "செய்தியாள": 2704,
      "ஹோ": 2705,
      "##க்கணக்கான": 2706,
      "கழக": 2707,
      "##தியான": 2708,
      "சமய": 2709,
      "மாநிலம்": 2710,
      "முடியவில்லை": 2711,
      "முறையாக": 2712,
      "ஒப்பு": 2713,
      "பக": 2714,
      "வகை": 2715,
      "சிலை": 2716,
      "##ளவில்": 2717,
      "பன்னீர்செல்": 2718,
      "##சில": 2719,
      "அண்ணாமலை": 2720,
      "ரன்கள்": 2721,
      "தெளி": 2722,
      "##தாவது": 2723,
      "##ூரில்": 2724,
      "ாத": 2725,
      "##த்தையும்": 2726,
      "நீதிமன்றத்தில்": 2727,
      "##ன்பு": 2728,
      "##at": 2729,
      "##ட்டத்தில்": 2730,
      "கொள்கை": 2731,
      "அக்க": 2732,
      "ஸ்க": 2733,
      "##றையை": 2734,
      "நரேந்திர": 2735,
      "வேண்டாம்": 2736,
      "குற்றச்சாட்டு": 2737,
      "தந்தை": 2738,
      "##ந்திய": 2739,
      "அனுப்பி": 2740,
      "அதிகாரி": 2741,
      "நோக்கி": 2742,
      "கவனம்": 2743,
      "கோயிலில்": 2744,
      "த்துக்கு": 2745,
      "##விரு": 2746,
      "களாக": 2747,
      "விருது": 2748,
      "பிரதம": 2749,
      "எதுவும்": 2750,
      "##ெய்": 2751,
      "##ற்கை": 2752,
      "பயிற்சி": 2753,
      "உடை": 2754,
      "பகவ": 2755,
      "பகி": 2756,
      "முஸ்": 2757,
      "போய்": 2758,
      "இருப்பது": 2759,
      "எழுந்த": 2760,
      "திடீர": 2761,
      "##ராஜ்": 2762,
      "கடைசி": 2763,
      "சகோத": 2764,
      "##த்தொ": 2765,
      "தாகவும்": 2766,
      "நம்பிக்கை": 2767,
      "##ுற": 2768,
      "பட்டிய": 2769,
      "பெண்ண": 2770,
      "போக்குவர": 2771,
      "இருந்தால்": 2772,
      "இயக்க": 2773,
      "##ற்றா": 2774,
      "வலியுறு": 2775,
      "இன": 2776,
      "##ரங்க": 2777,
      "##ெடு": 2778,
      "##நாத்": 2779,
      "குழந்தைகள்": 2780,
      "ேன்": 2781,
      "க்கான": 2782,
      "கள்ள": 2783,
      "டே": 2784,
      "திருவ": 2785,
      "லை": 2786,
      "களுடன்": 2787,
      "##ஸ்திரே": 2788,
      "உங்களுக்கு": 2789,
      "சசிக": 2790,
      "##சூ": 2791,
      "##நே": 2792,
      "##ஹா": 2793,
      "தேவையான": 2794,
      "நமது": 2795,
      "##பே": 2796,
      "விவகாரம்": 2797,
      "சூரிய": 2798,
      "இதுகுறித்து": 2799,
      "##டிக்க": 2800,
      "மாற்று": 2801,
      "சமீபத்தில்": 2802,
      "ஏன": 2803,
      "##on": 2804,
      "நாட்கள்": 2805,
      "விரைவில்": 2806,
      "##த்ய": 2807,
      "##த்தனை": 2808,
      "தொண்ட": 2809,
      "##ன்களை": 2810,
      "##னையை": 2811,
      "காட்டு": 2812,
      "##தார": 2813,
      "##ப்படுத்தி": 2814,
      "##ரான்": 2815,
      "பிரபல": 2816,
      "ோம்": 2817,
      "காத்த": 2818,
      "மிகப்பெ": 2819,
      "ஐந்து": 2820,
      "##சல்": 2821,
      "மிர": 2822,
      "##த்திற்க": 2823,
      "கிட்ட": 2824,
      "##ப்பம்": 2825,
      "பேரா": 2826,
      "மற்றொரு": 2827,
      "கலா": 2828,
      "உள்": 2829,
      "வியா": 2830,
      "##ற்றம்": 2831,
      "போட்டியில்": 2832,
      "ரு": 2833,
      "ுள்ளன": 2834,
      "கொல்ல": 2835,
      "மேற்கொண்ட": 2836,
      "பாலா": 2837,
      "மோதி": 2838,
      "விசாரண": 2839,
      "2024": 2840,
      "##நகர்": 2841,
      "##டியை": 2842,
      "கப்ப": 2843,
      "நடு": 2844,
      "##ன்ஸ்": 2845,
      "எழுப்ப": 2846,
      "எதிர்கொ": 2847,
      "##த்தகைய": 2848,
      "பொதுமக்கள்": 2849,
      "தன்னை": 2850,
      "##க்கார": 2851,
      "சேர்க்க": 2852,
      "##றையினர்": 2853,
      "##ஸ்திரேல": 2854,
      "அம்மன்": 2855,
      "சட்டச": 2856,
      "சிறப்பாக": 2857,
      "கிடைத்த": 2858,
      "யாரும்": 2859,
      "சசிகலா": 2860,
      "##ப்பிக்க": 2861,
      "பிரிட்ட": 2862,
      "##ப்பதற்கு": 2863,
      "இரண்டாவது": 2864,
      "செய்வது": 2865,
      "தாக்குத": 2866,
      "அய": 2867,
      "சாதி": 2868,
      "வாய்": 2869,
      "ஈடுபட்டு": 2870,
      "அக்": 2871,
      "கைப்ப": 2872,
      "அடிக்க": 2873,
      "ஆகியோ": 2874,
      "ரத்த": 2875,
      "##புண": 2876,
      "மருந்து": 2877,
      "அப்பா": 2878,
      "சிறந்த": 2879,
      "##பட்ச": 2880,
      "செய்யப்பட்டது": 2881,
      "ஸ்த": 2882,
      "##ிகளும்": 2883,
      "குறிப்பிட்டார்": 2884,
      "கும்ப": 2885,
      "புகைப்பட": 2886,
      "##ங்களிலும்": 2887,
      "சுற்றுலா": 2888,
      "ஒன்றை": 2889,
      "##பக": 2890,
      "உதய": 2891,
      "மின்சார": 2892,
      "எதிர்கால": 2893,
      "##வல": 2894,
      "மட்டுமல்ல": 2895,
      "வங்கி": 2896,
      "##மக்கு": 2897,
      "##ந்தர": 2898,
      "##மணி": 2899,
      "##த்துள்ளார்": 2900,
      "நிறைவேற்ற": 2901,
      "ரண": 2902,
      "நடக்கிறது": 2903,
      "2023": 2904,
      "வீரர்கள்": 2905,
      "##கொண்ட": 2906,
      "மிகப்பெரிய": 2907,
      "பஞ்சா": 2908,
      "சுட்ட": 2909,
      "##ர்ட்": 2910,
      "##வருக்கும்": 2911,
      "##ச்சினை": 2912,
      "##சிங்க": 2913,
      "கௌ": 2914,
      "நடிகர்": 2915,
      "##ராம": 2916,
      "செயலாள": 2917,
      "##வுகளை": 2918,
      "ால்": 2919,
      "விஜய்": 2920,
      "குடியரசு": 2921,
      "வாங்கி": 2922,
      "##வர்களுக்கு": 2923,
      "விடுதலை": 2924,
      "இஸ்லா": 2925,
      "##மிட": 2926,
      "சொத்து": 2927,
      "##க்கொண்ட": 2928,
      "டாக்டர்": 2929,
      "##நோ": 2930,
      "##ிற்": 2931,
      "##லிதா": 2932,
      "இம்": 2933,
      "##த்தும்": 2934,
      "எங்களுக்கு": 2935,
      "பிரச்சினை": 2936,
      "##ங்களது": 2937,
      "உடன்": 2938,
      "##ுவார": 2939,
      "சொல்க": 2940,
      "எழுதிய": 2941,
      "மொத்தம்": 2942,
      "உற்பத்தி": 2943,
      "##ிலுள்ள": 2944,
      "ஆயுத": 2945,
      "வளர்ச்சி": 2946,
      "##வித": 2947,
      "மாற்றம்": 2948,
      "விழாவில்": 2949,
      "ஜா": 2950,
      "சிறை": 2951,
      "ஜூலை": 2952,
      "சனி": 2953,
      "##ரத்தில்": 2954,
      "இதற்க": 2955,
      "செய்தது": 2956,
      "ட்விட்ட": 2957,
      "பேசினார்": 2958,
      "திடீரென": 2959,
      "காத": 2960,
      "சேர்ந்து": 2961,
      "அதிர்ச்ச": 2962,
      "பரு": 2963,
      "பட்": 2964,
      "பணிகள்": 2965,
      "தாம": 2966,
      "பவு": 2967,
      "##ணு": 2968,
      "அந்தக்": 2969,
      "ங்கள்": 2970,
      "##ிறு": 2971,
      "விண்ண": 2972,
      "உயிர": 2973,
      "பேச்சுவார": 2974,
      "அந்": 2975,
      "பாத": 2976,
      "##வதால்": 2977,
      "மாநிலத்தில்": 2978,
      "மார்ச்": 2979,
      "சன": 2980,
      "ஒதுக்க": 2981,
      "எங்க": 2982,
      "தொற்று": 2983,
      "ஆஸ்திரேல": 2984,
      "பங்க": 2985,
      "##வச": 2986,
      "நாட்டு": 2987,
      "நடைமுறை": 2988,
      "மேற்கொண்டு": 2989,
      "##ாலான": 2990,
      "கண்டி": 2991,
      "##ீர்கள்": 2992,
      "நியூ": 2993,
      "கடுமையான": 2994,
      "நகை": 2995,
      "நிபுண": 2996,
      "முதலீடு": 2997,
      "தற்கொ": 2998,
      "தெரியவ": 2999,
      "தற்கொலை": 3000,
      "##ருடன்": 3001,
      "##ியுள்ள": 3002,
      "ஜெயல": 3003,
      "பக்கம்": 3004,
      "ரவி": 3005,
      "ுள்ளார்": 3006,
      "முன்வை": 3007,
      "கல்லூரி": 3008,
      "அடுத்து": 3009,
      "சேர்த்து": 3010,
      "ஏற்பட": 3011,
      "##டியில்": 3012,
      "கீழ": 3013,
      "##ியோ": 3014,
      "##ற்றின்": 3015,
      "பந்துவீ": 3016,
      "க்காக": 3017,
      "அளவு": 3018,
      "##ப்பர்": 3019,
      "சுய": 3020,
      "ஆகும்": 3021,
      "என்கிற": 3022,
      "வாழ்க்கை": 3023,
      "##வியல்": 3024,
      "கருத": 3025,
      "தரிசனம்": 3026,
      "இவர்கள்": 3027,
      "##நீர்": 3028,
      "##க்கால": 3029,
      "##ப்பிட": 3030,
      "எதிர்க்கட்ச": 3031,
      "ஜெயலலிதா": 3032,
      "கிரிக்கெட்": 3033,
      "ஆதரவாள": 3034,
      "அடைந்த": 3035,
      "##்க்": 3036,
      "எளி": 3037,
      "கதை": 3038,
      "##ச்சே": 3039,
      "எனத்": 3040,
      "வழியாக": 3041,
      "பேராசிர": 3042,
      "அரி": 3043,
      "மும்பை": 3044,
      "அச்ச": 3045,
      "##்ச்ச": 3046,
      "நிர்வாகிகள்": 3047,
      "முஸ்லி": 3048,
      "##லே": 3049,
      "##ட்பு": 3050,
      "##ரக": 3051,
      "பறி": 3052,
      "##சிக்க": 3053,
      "2021": 3054,
      "ஜூன்": 3055,
      "##க்கா": 3056,
      "நுழை": 3057,
      "மகாரா": 3058,
      "சக்தி": 3059,
      "அதன்படி": 3060,
      "சிறிய": 3061,
      "##ஞ்சம்": 3062,
      "டு": 3063,
      "போக்குவரத்து": 3064,
      "##ாலை": 3065,
      "போட": 3066,
      "வேட்பாள": 3067,
      "##ராத": 3068,
      "மக்களை": 3069,
      "தினம்": 3070,
      "##ரவை": 3071,
      "பணியில்": 3072,
      "##வீன": 3073,
      "உறுப்பினர்": 3074,
      "##த்துவம்": 3075,
      "நிறைய": 3076,
      "இருக்கிற": 3077,
      "பொதுக்குழு": 3078,
      "அளிக்க": 3079,
      "கொண்டனர்": 3080,
      "சூழ்": 3081,
      "லெ": 3082,
      "ஏற்படுத்தி": 3083,
      "ஏற்ற": 3084,
      "##ரமாக": 3085,
      "இதுபோன்ற": 3086,
      "சால": 3087,
      "கொண்டார்": 3088,
      "முன்னதாக": 3089,
      "##பட்ட": 3090,
      "விக்கெ": 3091,
      "சீன": 3092,
      "##தன்": 3093,
      "##த்தின": 3094,
      "வருகிறார்கள்": 3095,
      "ராசி": 3096,
      "மாகாண": 3097,
      "##னோ": 3098,
      "##ும்போது": 3099,
      "கிழக்கு": 3100,
      "##வோ": 3101,
      "##ன்ட்": 3102,
      "வென்ற": 3103,
      "##ழிப்பு": 3104,
      "த்திற்க": 3105,
      "வந்தனர்": 3106,
      "தனக்கு": 3107,
      "அபிவிரு": 3108,
      "அதேபோல": 3109,
      "பேருந்து": 3110,
      "னு": 3111,
      "யால்": 3112,
      "##ீன்": 3113,
      "##வருக்கு": 3114,
      "##்டோ": 3115,
      "வகுப்பு": 3116,
      "வலி": 3117,
      "நிதிய": 3118,
      "பெருமாள்": 3119,
      "ஜே": 3120,
      "வீட்டு": 3121,
      "முடிந்த": 3122,
      "வழங்குவ": 3123,
      "அறிக்கையில்": 3124,
      "உரிய": 3125,
      "கிருஷ்ண": 3126,
      "##ள்ளை": 3127,
      "ிருக்கும்": 3128,
      "வெளிநாட்டு": 3129,
      "நபர்": 3130,
      "##த்தான்": 3131,
      "அறு": 3132,
      "##னான": 3133,
      "அதிர": 3134,
      "ஏப்": 3135,
      "ிய": 3136,
      "விவகாரத்தில்": 3137,
      "விபத்து": 3138,
      "##னாக": 3139,
      "உண்மை": 3140,
      "##en": 3141,
      "ஆண": 3142,
      "##ar": 3143,
      "##ளுக்காக": 3144,
      "##ந்தா": 3145,
      "2019": 3146,
      "உருவாக்க": 3147,
      "புகார": 3148,
      "தலைவராக": 3149,
      "பயன்படுத்தி": 3150,
      "குறித்தும்": 3151,
      "##க்கூடிய": 3152,
      "##க்கள": 3153,
      "பகுதியை": 3154,
      "##ஷேக": 3155,
      "விவர": 3156,
      "பணத்தை": 3157,
      "##மம்": 3158,
      "500": 3159,
      "##ந்துள்ள": 3160,
      "பேச்சு": 3161,
      "##ரியில்": 3162,
      "##ுமா": 3163,
      "##வதற்கான": 3164,
      "##ையாது": 3165,
      "பாகிஸ்தான": 3166,
      "##மிய": 3167,
      "நிறுவனங்கள்": 3168,
      "சூழலில்": 3169,
      "குர": 3170,
      "நிச்ச": 3171,
      "மய": 3172,
      "வர்த்த": 3173,
      "அருகில்": 3174,
      "டோ": 3175,
      "##மித்": 3176,
      "பொறுத்த": 3177,
      "##ியாளர்": 3178,
      "ஆண்டுகளில்": 3179,
      "போதும்": 3180,
      "ின்ற": 3181,
      "##னே": 3182,
      "199": 3183,
      "27": 3184,
      "குவி": 3185,
      "சம்பந்த": 3186,
      "##ன்கொ": 3187,
      "மரண": 3188,
      "##னல்": 3189,
      "26": 3190,
      "விட்டார்": 3191,
      "நாட்களுக்கு": 3192,
      "பண்ட": 3193,
      "##ப்பட்டுள்ள": 3194,
      "##ியாளர்கள்": 3195,
      "ஒழு": 3196,
      "பாக": 3197,
      "சிங்க": 3198,
      "##ளியில்": 3199,
      "திரா": 3200,
      "##ஆர்": 3201,
      "ஜனநாயக": 3202,
      "தண்டனை": 3203,
      "அவ்வ": 3204,
      "புரிந்து": 3205,
      "ஆவண": 3206,
      "கையில்": 3207,
      "வழங்கப்படும்": 3208,
      "கிடையாது": 3209,
      "அவர்கள": 3210,
      "சர்ச்சை": 3211,
      "எனும்": 3212,
      "தொடங்கிய": 3213,
      "அதிகரிக்கும்": 3214,
      "நிகழ்ச்சியில்": 3215,
      "வாய்ப்ப": 3216,
      "தண்ணீர்": 3217,
      "ஆடி": 3218,
      "##செய": 3219,
      "கட்டி": 3220,
      "##ெழு": 3221,
      "கேரளா": 3222,
      "சினி": 3223,
      "##திவு": 3224,
      "மால": 3225,
      "நிலையத்தில்": 3226,
      "தெரிவித்தனர்": 3227,
      "##ேத": 3228,
      "அதிகமான": 3229,
      "திட்டத்தை": 3230,
      "விடும்": 3231,
      "##ிகள": 3232,
      "விளக்க": 3233,
      "தொடங்கியது": 3234,
      "நடத்து": 3235,
      "பிப்": 3236,
      "சரியாக": 3237,
      "பன்னீர்செல்வம்": 3238,
      "ாமல்": 3239,
      "துப்பா": 3240,
      "மொழி": 3241,
      "ஆட்சியில்": 3242,
      "வட்ட": 3243,
      "##or": 3244,
      "வலைதள": 3245,
      "யானை": 3246,
      "அழக": 3247,
      "##ற்றும்": 3248,
      "நிற்க": 3249,
      "##விகி": 3250,
      "##ந்தர்": 3251,
      "தவறு": 3252,
      "பெரும்பாலான": 3253,
      "பிரச்சனை": 3254,
      "ரணில்": 3255,
      "பாண்ட": 3256,
      "வழக்கறி": 3257,
      "சரியான": 3258,
      "28": 3259,
      "ரத்து": 3260,
      "ங்களை": 3261,
      "வளாக": 3262,
      "பொறுப்பு": 3263,
      "பெங்கள": 3264,
      "##ினா": 3265,
      "##ீட்டு": 3266,
      "##த்தூர்": 3267,
      "திருத்த": 3268,
      "தரப்பில்": 3269,
      "##ணய": 3270,
      "சினிமா": 3271,
      "ஏமா": 3272,
      "நாளில்": 3273,
      "தடுக்க": 3274,
      "கட்டுப்பா": 3275,
      "இயக்குநர்": 3276,
      "தலைமையிலான": 3277,
      "சான்": 3278,
      "வோ": 3279,
      "##லாளர்": 3280,
      "பதவ": 3281,
      "வெளியாகி": 3282,
      "கும்பா": 3283,
      "##ின்றி": 3284,
      "அறிவிப்பு": 3285,
      "##ந்தார்": 3286,
      "பெற்றோ": 3287,
      "ப்படுகிறது": 3288,
      "விளையாட்டு": 3289,
      "கூடுதல்": 3290,
      "கும்பாபி": 3291,
      "பயணி": 3292,
      "##ரையில்": 3293,
      "##ல்லா": 3294,
      "கடல்": 3295,
      "அரசுக்கு": 3296,
      "ஹமா": 3297,
      "பேட்டி": 3298,
      "முயன்ற": 3299,
      "கர்நாட": 3300,
      "##வுடன்": 3301,
      "##முறைய": 3302,
      "தற்போதைய": 3303,
      "சதவிகி": 3304,
      "பின்ப": 3305,
      "ஏற்பட்டுள்ளது": 3306,
      "அவசியம்": 3307,
      "இருக்கலாம்": 3308,
      "ராஜா": 3309,
      "அவருடைய": 3310,
      "வித்தியா": 3311,
      "காஷ்": 3312,
      "##ளிர்": 3313,
      "##ொருள்": 3314,
      "வார்த்தை": 3315,
      "ஒன்றாக": 3316,
      "ஸ்ப": 3317,
      "##மண": 3318,
      "தெரிக": 3319,
      "தொகை": 3320,
      "இலங்கையில்": 3321,
      "பரிந்து": 3322,
      "போட்டியிட": 3323,
      "சட்டசபை": 3324,
      "ப்படும்": 3325,
      "எவ்வளவு": 3326,
      "வெங்க": 3327,
      "புத்தக": 3328,
      "நோக்க": 3329,
      "செல்வ": 3330,
      "##களையும்": 3331,
      "##யர்": 3332,
      "கூட்டு": 3333,
      "கொண்டாட": 3334,
      "எல்லை": 3335,
      "மேற்க": 3336,
      "##ட்ரோ": 3337,
      "சந்தித்த": 3338,
      "எப்போதும்": 3339,
      "##பார்": 3340,
      "குண": 3341,
      "நிலைமை": 3342,
      "60": 3343,
      "திரி": 3344,
      "சப": 3345,
      "##ீப்": 3346,
      "கமி": 3347,
      "தட": 3348,
      "##திலும்": 3349,
      "குறு": 3350,
      "செயற்ப": 3351,
      "தேர்ந்த": 3352,
      "##விட்டார்": 3353,
      "மகிழ்ச்ச": 3354,
      "உண்டு": 3355,
      "##டங்கு": 3356,
      "ரசிகர்கள்": 3357,
      "பேச்சுவார்த்தை": 3358,
      "கம்ப": 3359,
      "போய": 3360,
      "பேட்ட": 3361,
      "தொடக்க": 3362,
      "படைய": 3363,
      "தெரியவில்லை": 3364,
      "பிடித்து": 3365,
      "முன்னேற்ற": 3366,
      "தொடர்பில்": 3367,
      "தெரியும்": 3368,
      "##in": 3369,
      "மாவட்டங்களில்": 3370,
      "பிரசார": 3371,
      "நோய்": 3372,
      "நடவடிக்க": 3373,
      "உடனே": 3374,
      "##ியூ": 3375,
      "மோசமான": 3376,
      "ஹே": 3377,
      "##வுக": 3378,
      "மகாராஷ்ட": 3379,
      "எடுத்துக்": 3380,
      "பஞ்ச": 3381,
      "அவச": 3382,
      "மாநிலங்களில்": 3383,
      "அணியின்": 3384,
      "பக்கத்தில்": 3385,
      "ரீதியாக": 3386,
      "சவ": 3387,
      "வீட்டுக்கு": 3388,
      "தடுப்பூ": 3389,
      "வன்முறை": 3390,
      "டால": 3391,
      "##ஸா": 3392,
      "இதற்காக": 3393,
      "##வெளி": 3394,
      "விக்ரம": 3395,
      "கர்நாடகா": 3396,
      "an": 3397,
      "##யூ": 3398,
      "##க்ஸ்": 3399,
      "அதிகரிக்க": 3400,
      "ஆளுந": 3401,
      "##ுமி": 3402,
      "கொண்டிருக்க": 3403,
      "பார்வைய": 3404,
      "##னியா": 3405,
      "##தர்": 3406,
      "##்சத்திர": 3407,
      "நட்சத்திர": 3408,
      "கேப்ட": 3409,
      "வசி": 3410,
      "நிர்வாகம்": 3411,
      "நெருக்கடி": 3412,
      "செலவு": 3413,
      "செந்தில்": 3414,
      "சுற்றி": 3415,
      "செய்யப்பட்டுள்ளது": 3416,
      "##புற": 3417,
      "ஹை": 3418,
      "##ொட்டி": 3419,
      "##க்ரே": 3420,
      "முன்னெ": 3421,
      "மாணவி": 3422,
      "சகோதர": 3423,
      "வுடன்": 3424,
      "கார்த்த": 3425,
      "பங்கேற்ற": 3426,
      "எவ்": 3427,
      "வரிச": 3428,
      "களுக்கான": 3429,
      "பரபரப்பை": 3430,
      "குள": 3431,
      "மருத்துவர்": 3432,
      "அபிவிருத்தி": 3433,
      "ஆந்திர": 3434,
      "##மிருந்து": 3435,
      "சிறையில்": 3436,
      "ஒலி": 3437,
      "##மலை": 3438,
      "வழங்கி": 3439,
      "உண்ட": 3440,
      "இருக்கு": 3441,
      "சந்தேக": 3442,
      "டிச": 3443,
      "மதிப்ப": 3444,
      "ஐக்கிய": 3445,
      "##த்தன": 3446,
      "அதன": 3447,
      "ிருந்தது": 3448,
      "சுட்டிக்கா": 3449,
      "##பாத்": 3450,
      "துவங்க": 3451,
      "##ண்டர்": 3452,
      "உரையா": 3453,
      "சதவீத": 3454,
      "பெரி": 3455,
      "நாடுகளில்": 3456,
      "கன்ன": 3457,
      "##ர்களாக": 3458,
      "யுக்ரே": 3459,
      "ரக": 3460,
      "என்னு": 3461,
      "காட்சி": 3462,
      "வழங்கும்": 3463,
      "எம்எல்": 3464,
      "தள்ள": 3465,
      "##டுவது": 3466,
      "விரும்பு": 3467,
      "பரிசோதனை": 3468,
      "த்துடன்": 3469,
      "பழைய": 3470,
      "பரிந்துரை": 3471,
      "பண்ண": 3472,
      "##al": 3473,
      "##ுங்கள்": 3474,
      "##ழ்க": 3475,
      "பிரா": 3476,
      "மீன": 3477,
      "குழந்த": 3478,
      "அதேபோல்": 3479,
      "தெரிகிறது": 3480,
      "##மிற": 3481,
      "##க்கெட்": 3482,
      "##ற்கும்": 3483,
      "இருக்கின்றன": 3484,
      "கட்சிய": 3485,
      "களுக்கும்": 3486,
      "முழுமையாக": 3487,
      "##ெக": 3488,
      "சித": 3489,
      "சந்திக்க": 3490,
      "ஒத்து": 3491,
      "உருவாக": 3492,
      "சார்ந்த": 3493,
      "அதற்கான": 3494,
      "நிறுவனத்தின்": 3495,
      "குஜராத்": 3496,
      "சபை": 3497,
      "கடற்ப": 3498,
      "பயங்க": 3499,
      "##ஸ்வரர்": 3500,
      "நடைபெறு": 3501,
      "திகதி": 3502,
      "எம்எல்ஏ": 3503,
      "இவை": 3504,
      "வாழ்த்து": 3505,
      "இன்னொரு": 3506,
      "ஆளும்": 3507,
      "##ுவை": 3508,
      "களமிற": 3509,
      "பொருட்கள்": 3510,
      "ஆல": 3511,
      "தங்களது": 3512,
      "நாட்டை": 3513,
      "கோப": 3514,
      "ஒளி": 3515,
      "நீட்": 3516,
      "வழங்கிய": 3517,
      "வலு": 3518,
      "##ாந்து": 3519,
      "##்ப்ப": 3520,
      "மோதல்": 3521,
      "##ரவரி": 3522,
      "##ீஸ்": 3523,
      "போதை": 3524,
      "##ிக்கப்பட்ட": 3525,
      "கட்சிகள்": 3526,
      "கண்டறிய": 3527,
      "##டோ": 3528,
      "தீர்ப்பு": 3529,
      "ஓர்": 3530,
      "##ின்று": 3531,
      "##க்குப்": 3532,
      "பெட்ரோ": 3533,
      "உட்க": 3534,
      "விலக": 3535,
      "##்துறை": 3536,
      "##கொள்ள": 3537,
      "அலங்கார": 3538,
      "விநாயகர்": 3539,
      "வழக்கம்": 3540,
      "மீன்": 3541,
      "##வதற்காக": 3542,
      "##ிருந்தனர்": 3543,
      "விவசாயிகள்": 3544,
      "மதிப்பு": 3545,
      "பொருட்களை": 3546,
      "ஏப்ரல்": 3547,
      "ார்கள்": 3548,
      "எதிர்த்து": 3549,
      "கிரக": 3550,
      "நேரடியாக": 3551,
      "##ாதாரண": 3552,
      "நினைக்க": 3553,
      "தினமும்": 3554,
      "இரண்டாம்": 3555,
      "அழ": 3556,
      "ஷி": 3557,
      "##ளுடைய": 3558,
      "##ட்ஸ்": 3559,
      "ஆன்லை": 3560,
      "ஆங்கில": 3561,
      "கலந்துரையா": 3562,
      "கடிதம்": 3563,
      "##ஜெ": 3564,
      "##ஞ்சு": 3565,
      "##விட்": 3566,
      "மாதிரி": 3567,
      "##வாதம்": 3568,
      "வீதி": 3569,
      "அங்கீ": 3570,
      "ஓட்டு": 3571,
      "செல்க": 3572,
      "பகிர்ந்து": 3573,
      "பதவிய": 3574,
      "கொழும்": 3575,
      "##லாக்க": 3576,
      "##நாட்டில்": 3577,
      "##ஞ்": 3578,
      "##த்தல்": 3579,
      "##ற்பு": 3580,
      "தீர்வு": 3581,
      "th": 3582,
      "இடி": 3583,
      "எத": 3584,
      "பிரதிநிதி": 3585,
      "திராவிட": 3586,
      "ரொ": 3587,
      "மகாராஷ்டிரா": 3588,
      "உள்ளாட்சி": 3589,
      "##ப்பட்டன": 3590,
      "நேரில்": 3591,
      "குற்றம்சா": 3592,
      "அங்கே": 3593,
      "மற": 3594,
      "##குதியில்": 3595,
      "பெயரில்": 3596,
      "அதைத்": 3597,
      "நாட்களில்": 3598,
      "மூலமாக": 3599,
      "இவ்வாறு": 3600,
      "பஞ்சாப்": 3601,
      "அமித்": 3602,
      "ுவது": 3603,
      "உள்ளே": 3604,
      "##ியுடன்": 3605,
      "கவலை": 3606,
      "சூழல்": 3607,
      "அரசாங்கம்": 3608,
      "ாலும்": 3609,
      "##ாராய": 3610,
      "நன்ற": 3611,
      "##கரி": 3612,
      "செவ்வ": 3613,
      "இறந்த": 3614,
      "##ண்டே": 3615,
      "ரூபாய": 3616,
      "சித்த": 3617,
      "கொண்டே": 3618,
      "ஆகியவை": 3619,
      "தொகுதியில்": 3620,
      "உறுப்பினர்கள்": 3621,
      "தோல்வி": 3622,
      "தம்ப": 3623,
      "##லூர்": 3624,
      "அதோடு": 3625,
      "செயல்படுத்த": 3626,
      "வெளியான": 3627,
      "அக்டோ": 3628,
      "அல்": 3629,
      "##ேக்": 3630,
      "##ிங்": 3631,
      "வழிபாடு": 3632,
      "மில்லியன்": 3633,
      "மொழ": 3634,
      "தயாராக": 3635,
      "ுகிறது": 3636,
      "##ூர": 3637,
      "படத்தில்": 3638,
      "கணவர்": 3639,
      "##ுள்ளார்": 3640,
      "கொடி": 3641,
      "ராஜ்": 3642,
      "ஆட்சியை": 3643,
      "உள்ளதாக": 3644,
      "அழைத்துச்": 3645,
      "பான": 3646,
      "##்களில்": 3647,
      "மீட்க": 3648,
      "தொடர்ச்ச": 3649,
      "பிள": 3650,
      "ங்களில்": 3651,
      "உத்தரவு": 3652,
      "பக்தர்களுக்கு": 3653,
      "வெறும்": 3654,
      "பயங்கர": 3655,
      "29": 3656,
      "கவுன்": 3657,
      "பேராசிரியர்": 3658,
      "செப்ட": 3659,
      "மரியா": 3660,
      "##ெனவே": 3661,
      "இடம்பெற்ற": 3662,
      "வகி": 3663,
      "##நிலைய": 3664,
      "உயர்த்த": 3665,
      "##சாலை": 3666,
      "ஏற்கெனவே": 3667,
      "அன்ன": 3668,
      "என்பவர்": 3669,
      "ஆகஸ்ட்": 3670,
      "கிற": 3671,
      "##வேன்": 3672,
      "இலவச": 3673,
      "வருவது": 3674,
      "தில்": 3675,
      "##க்கர்": 3676,
      "வீழ்த்த": 3677,
      "திருச்சி": 3678,
      "உயிர்": 3679,
      "எதிர்க்கட்சி": 3680,
      "வடிவ": 3681,
      "கட்சியில்": 3682,
      "##மன்": 3683,
      "சாத்திய": 3684,
      "நடவடிக்கைகள்": 3685,
      "தீவிரமாக": 3686,
      "பல்ல": 3687,
      "வைக்கப்பட்ட": 3688,
      "ஏற்படுத்தியுள்ளது": 3689,
      "திட்டத்தின்": 3690,
      "மரு": 3691,
      "##ப்பதிவு": 3692,
      "உள்ளூர்": 3693,
      "அடிக்கடி": 3694,
      "கௌரவ": 3695,
      "லே": 3696,
      "சபா": 3697,
      "தெரிந்து": 3698,
      "கேள்வ": 3699,
      "பேசுவ": 3700,
      "35": 3701,
      "2020": 3702,
      "புதுச்சே": 3703,
      "##கமாக": 3704,
      "கோரி": 3705,
      "##மொழி": 3706,
      "##சியில்": 3707,
      "விவாத": 3708,
      "##ஸ்டர்": 3709,
      "இத்தகைய": 3710,
      "##ாடி": 3711,
      "##ச்செய": 3712,
      "பிள்ளை": 3713,
      "ஒத்துழை": 3714,
      "நமக்கு": 3715,
      "##ினம்": 3716,
      "சேர்ந்தவர்": 3717,
      "வேகமாக": 3718,
      "##சோதா": 3719,
      "உங்க": 3720,
      "##ென்றால்": 3721,
      "##ப்பும்": 3722,
      "##த்ரா": 3723,
      "எண்ணெய்": 3724,
      "விமர்சன": 3725,
      "வாரம்": 3726,
      "பிப்ரவரி": 3727,
      "செல்போ": 3728,
      "நினைவு": 3729,
      "நிகழ்வு": 3730,
      "வேட்பாளர்": 3731,
      "##ுறவு": 3732,
      "அன்ப": 3733,
      "##ந்திரன்": 3734,
      "##ரிமை": 3735,
      "##ாய்வு": 3736,
      "தமிழகம்": 3737,
      "க்கள்": 3738,
      "##ாட்": 3739,
      "ஓய்வு": 3740,
      "வல்ல": 3741,
      "சமர்": 3742,
      "மன்ன": 3743,
      "நிமிட": 3744,
      "பயன்": 3745,
      "கட்சியை": 3746,
      "விஷயம்": 3747,
      "முகமது": 3748,
      "அலுவலகத்தில்": 3749,
      "பிடித்த": 3750,
      "வணிக": 3751,
      "இங்கில": 3752,
      "##ிக்கிழமை": 3753,
      "உறவின": 3754,
      "முழுக்க": 3755,
      "##வாய்": 3756,
      "காப்பா": 3757,
      "களிலும்": 3758,
      "கருணா": 3759,
      "செயல்பட": 3760,
      "மண்டல": 3761,
      "மசோதா": 3762,
      "##வர்களை": 3763,
      "விந": 3764,
      "##ம்பர": 3765,
      "##வாளர்": 3766,
      "வலுவ": 3767,
      "வாச": 3768,
      "செயல்பட்டு": 3769,
      "வீச": 3770,
      "ஆதரவாக": 3771,
      "அண்ணா": 3772,
      "ஹமாஸ்": 3773,
      "இங்கே": 3774,
      "அமைச்சர்கள்": 3775,
      "ஆதார": 3776,
      "மகள்": 3777,
      "##ப்பூர்": 3778,
      "இருப்பதால்": 3779,
      "செயல்பாடு": 3780,
      "கிராமத்தில்": 3781,
      "எனப்": 3782,
      "பணிய": 3783,
      "நடத்தினர்": 3784,
      "இன்றைய": 3785,
      "வித்தியாச": 3786,
      "##்குமார்": 3787,
      "போலவே": 3788,
      "உலகின்": 3789,
      "நகரில்": 3790,
      "உறவு": 3791,
      "அக்டோபர்": 3792,
      "##ப்பிய": 3793,
      "வேத": 3794,
      "தெலு": 3795,
      ".....": 3796,
      "ஆணையம்": 3797,
      "31": 3798,
      "##கும்": 3799,
      "##வையில்": 3800,
      "காரை": 3801,
      "சாப்பிட": 3802,
      "சட்டத்தின்": 3803,
      ".,": 3804,
      "ஆரோ": 3805,
      "##ஸை": 3806,
      "##புரி": 3807,
      "பதவியை": 3808,
      "முடிவுகள்": 3809,
      "ிருந்தார்": 3810,
      "அங்கிருந்து": 3811,
      "கனடா": 3812,
      "மருத்துவமனைக்கு": 3813,
      "நின்று": 3814,
      "பராம": 3815,
      "##பய": 3816,
      "##ரால்": 3817,
      "டெல்லியில்": 3818,
      "இசை": 3819,
      "##றையும்": 3820,
      "அடித்து": 3821,
      "உச்சநீதிமன்ற": 3822,
      "ஊழிய": 3823,
      "##ையாளர்": 3824,
      "காட்டி": 3825,
      "##ம்பரம்": 3826,
      "சாமி": 3827,
      "##களிலும்": 3828,
      "விக்ரமசிங்க": 3829,
      "அழி": 3830,
      "தியாக": 3831,
      "தர்ம": 3832,
      "பிரச": 3833,
      "##ண்ணை": 3834,
      "போட்டிகளில்": 3835,
      "வங்கதேச": 3836,
      "வைரஸ்": 3837,
      "அன்ற": 3838,
      "யிலும்": 3839,
      "##ற்கால": 3840,
      "மூலாத": 3841,
      "கட்டண": 3842,
      "கர்நாடக": 3843,
      "விசாரணையில்": 3844,
      "இஸ்லாமிய": 3845,
      "ஒற்றை": 3846,
      "##ட்டப்பட்ட": 3847,
      "##டைந்து": 3848,
      "அதிர்ச்சி": 3849,
      "அடையாளம்": 3850,
      "என்னுடைய": 3851,
      "பெறும்": 3852,
      "பேருக்கு": 3853,
      "எழுதி": 3854,
      "அத்துடன்": 3855,
      "##ஹ்": 3856,
      "##ர்களுடன்": 3857,
      "##வேளை": 3858,
      "பதிவிட்டு": 3859,
      "ஏற்படுத்தும்": 3860,
      "போராட்டத்தில்": 3861,
      "ஏழு": 3862,
      "பழங்கு": 3863,
      "சர்மா": 3864,
      "உழை": 3865,
      "ஓடி": 3866,
      "கணக்கு": 3867,
      "வீரர்": 3868,
      "மூலாதாரம்": 3869,
      "னார்": 3870,
      "விற்க": 3871,
      "##கால": 3872,
      "##ப்பதை": 3873,
      "மிகு": 3874,
      "அரசியல": 3875,
      "ஒருங்கிணைப்பாளர்": 3876,
      "இழு": 3877,
      "அமலாக்க": 3878,
      "முன்பாக": 3879,
      "##ியம்மன்": 3880,
      "பிடிக்க": 3881,
      "யாத": 3882,
      "##ணியில்": 3883,
      "##விக்க": 3884,
      "வருகை": 3885,
      "##க்கூடாது": 3886,
      "மோசடி": 3887,
      "லீ": 3888,
      "குண்டு": 3889,
      "முடிந்தது": 3890,
      "காலி": 3891,
      "##சரி": 3892,
      "##டுகிறது": 3893,
      "விடுத்து": 3894,
      "விளக்கம்": 3895,
      "ஜனவரி": 3896,
      "ர்": 3897,
      "அரசியலில்": 3898,
      "க்கூடிய": 3899,
      "அணை": 3900,
      "ஐரோ": 3901,
      "கம்": 3902,
      "##ினை": 3903,
      "##வதில்": 3904,
      "சிறி": 3905,
      "##ண்மை": 3906,
      "##ிற்று": 3907,
      "##ம்ஸ்": 3908,
      "அறிவித்த": 3909,
      "முடியாமல்": 3910,
      "தரும்": 3911,
      "காந்த": 3912,
      "உலகம்": 3913,
      "படிக்க": 3914,
      "அணிக்கு": 3915,
      "ஒன்றில்": 3916,
      "உயர்நீதிமன்ற": 3917,
      "அறிய": 3918,
      "கவி": 3919,
      "##வதி": 3920,
      "இளைஞர்": 3921,
      "##ங்கம்": 3922,
      "பெண்களுக்கு": 3923,
      "டிசம்பர்": 3924,
      "அலை": 3925,
      "ஒட்டு": 3926,
      "##ட்டல்": 3927,
      "பொதுவாக": 3928,
      "எதிர்பார்": 3929,
      "அடிப்படை": 3930,
      "இளம்": 3931,
      "ரை": 3932,
      "வீட்ட": 3933,
      "வெளியுறவு": 3934,
      "தொடர": 3935,
      "இருக்கிறார்கள்": 3936,
      "விதமாக": 3937,
      "மாநகராட்சி": 3938,
      "கொட": 3939,
      "நடவடிக்கைகளை": 3940,
      "##ப்படவில்லை": 3941,
      "##ங்களால்": 3942,
      "##க்கட்ட": 3943,
      "பணிகளை": 3944,
      "ங்களும்": 3945,
      "அளித்து": 3946,
      "##்தா": 3947,
      "##விடம்": 3948,
      "மாற்றி": 3949,
      "##ால்தான்": 3950,
      "##ராஜன்": 3951,
      "பாலாஜி": 3952,
      "ஃப்": 3953,
      "சது": 3954,
      "யிடம்": 3955,
      "இடைய": 3956,
      "சென்றனர்": 3957,
      "தலைய": 3958,
      "##டே": 3959,
      "கடவு": 3960,
      "198": 3961,
      "பள்ளியில்": 3962,
      "விண்": 3963,
      "சேர்த்த": 3964,
      "##ியுள்ளனர்": 3965,
      "##க்கொண்டு": 3966,
      "இதனிடையே": 3967,
      "தப்பி": 3968,
      "##ையம்": 3969,
      "##திகள்": 3970,
      "##ப்பதற்காக": 3971,
      "ஊழல்": 3972,
      "ஆனாலும்": 3973,
      "சாதாரண": 3974,
      "##வரு": 3975,
      "##ஷம்": 3976,
      "வடக்கு": 3977,
      "பெட்ரோல்": 3978,
      "##சில்": 3979,
      "வெப்ப": 3980,
      "##வரையும்": 3981,
      "அனைத்தும்": 3982,
      "),": 3983,
      "##வள": 3984,
      "கட்டுப்பாடு": 3985,
      "##ஜித்": 3986,
      "தொடர்ச்சியாக": 3987,
      "அவற்றை": 3988,
      "##ில்தான்": 3989,
      "வீட்டிற்கு": 3990,
      "சிபி": 3991,
      "யிலிருந்து": 3992,
      "ரயில": 3993,
      "பெயரை": 3994,
      "எழுந்தரு": 3995,
      "விக்கெட்டு": 3996,
      "ஆரோக்கிய": 3997,
      "##வுட்": 3998,
      "திருந": 3999,
      "##ங்கானா": 4000,
      "##ிலி": 4001,
      "என்றாலும்": 4002,
      "அமைச்சரவை": 4003,
      "கட்டுப்படுத்த": 4004,
      "அம்ம": 4005,
      "தமது": 4006,
      "நின்ற": 4007,
      "##ீன": 4008,
      "கொடிய": 4009,
      "பொருத்த": 4010,
      "கொடுக்கும்": 4011,
      "##க்கணி": 4012,
      "அமைக்க": 4013,
      "அடித்த": 4014,
      "கலந்துகொண்ட": 4015,
      "வழங்கப்பட்டது": 4016,
      "அனைவருக்கும்": 4017,
      "குறைவாக": 4018,
      "அதிமுகவில்": 4019,
      "ஒன்றிய": 4020,
      "பயிற்ச": 4021,
      "அஸ்": 4022,
      "##ியே": 4023,
      "விசே": 4024,
      "##ம்பா": 4025,
      "புதிதாக": 4026,
      "##ருப்த": 4027,
      "முற்ற": 4028,
      "விடுத்த": 4029,
      "##முத": 4030,
      "காலமாக": 4031,
      "நடிகை": 4032,
      "அப்": 4033,
      "அதிருப்த": 4034,
      "விருப்ப": 4035,
      "##பட": 4036,
      "சிந்த": 4037,
      "##க்கெடு": 4038,
      "கொல்லப்பட்ட": 4039,
      "45": 4040,
      "அன்பு": 4041,
      "##am": 4042,
      "முத்து": 4043,
      "முக்கியத்துவம்": 4044,
      "சாதனை": 4045,
      "துப்பாக்கி": 4046,
      "கேப்டன்": 4047,
      "##ூப்": 4048,
      "இடையிலான": 4049,
      "கொண்டது": 4050,
      "திட்டங்கள்": 4051,
      "சென்றார்": 4052,
      "அபிஷேகம்": 4053,
      "மூன்றாவது": 4054,
      "##ையோ": 4055,
      "##்ச்சி": 4056,
      "தீர்த்த": 4057,
      "பாஜகவின்": 4058,
      "வயதான": 4059,
      "##ப்பிரமண": 4060,
      "தெய்": 4061,
      "##த்தைப்": 4062,
      "வழக்கை": 4063,
      "கடித": 4064,
      "அரை": 4065,
      "ஆச்ச": 4066,
      "##ஸில்": 4067,
      "முன": 4068,
      "##மானது": 4069,
      "##றையின்": 4070,
      "கூறுகின்றனர்": 4071,
      "ரயில்வே": 4072,
      "நன்றாக": 4073,
      "தக": 4074,
      "ுகிறார்கள்": 4075,
      "##வக": 4076,
      "செய்யப்படும்": 4077,
      "பத்திரிக": 4078,
      "வர்த்தக": 4079,
      "பொறுத்தவரை": 4080,
      "ஆச": 4081,
      "லோ": 4082,
      "##டனான": 4083,
      "தெரு": 4084,
      "தகவல்களை": 4085,
      "நாட்களாக": 4086,
      "அவரிடம்": 4087,
      "மீட்டர்": 4088,
      "பொதுச்செய": 4089,
      "இறந்து": 4090,
      "செப்டம்பர்": 4091,
      "சிக்": 4092,
      "முடிவுக்கு": 4093,
      "ங்களுக்கு": 4094,
      "ஏற்படுத்திய": 4095,
      "திறந்து": 4096,
      "ஒப்படை": 4097,
      "லக்": 4098,
      "##20": 4099,
      "துறையில்": 4100,
      "நெடு": 4101,
      "மைதான": 4102,
      "நன்மை": 4103,
      "கொஞ்சம்": 4104,
      "ஆட்சிக்கு": 4105,
      "எச்சரிக்கை": 4106,
      "பகவான்": 4107,
      "ட்விட்டர்": 4108,
      "காதல்": 4109,
      "தவிர்க்க": 4110,
      "வியாபார": 4111,
      "கண்": 4112,
      "பத்து": 4113,
      "முதன்": 4114,
      "த்தால்": 4115,
      "அறை": 4116,
      "##ும": 4117,
      "##ப்பன்": 4118,
      "##ையிலும்": 4119,
      "பெற்றது": 4120,
      "##பாக": 4121,
      "பயணிகள்": 4122,
      "வழக்கறிஞர்": 4123,
      "ஆத்": 4124,
      "##மல": 4125,
      "முர": 4126,
      "முந்த": 4127,
      "குமார": 4128,
      "பாலி": 4129,
      "களே": 4130,
      "மாணவர்": 4131,
      "தானே": 4132,
      "நன்றி": 4133,
      "##க்குமார்": 4134,
      "போதே": 4135,
      "பிரதான": 4136,
      "##ெனில்": 4137,
      "மையம்": 4138,
      "இதன்ப": 4139,
      "மாதத்தில்": 4140,
      "பூஜைகள்": 4141,
      "ஏற்படுத்தியது": 4142,
      "ஆசிரியர்": 4143,
      "கிரி": 4144,
      "சஞ்ச": 4145,
      "##es": 4146,
      "நியம": 4147,
      "திட்டமிட்டு": 4148,
      "##மலா": 4149,
      "##தியம்": 4150,
      "மீட்பு": 4151,
      "உயர": 4152,
      "குடியரசுத்": 4153,
      "ரன்களை": 4154,
      "##மழை": 4155,
      "மாள": 4156,
      "வைத்தார்": 4157,
      "##வரான": 4158,
      "கொள்ளும்": 4159,
      "##வூ": 4160,
      "குதி": 4161,
      "நீடி": 4162,
      "இலங்கையின்": 4163,
      "தூக்கி": 4164,
      "சம்பந்தப்பட்ட": 4165,
      "70": 4166,
      "ரன்": 4167,
      "##ச்சார": 4168,
      "அதிகாலை": 4169,
      "##த்தே": 4170,
      "##முதல்": 4171,
      "இருந்தனர்": 4172,
      "ராஜஸ்தான்": 4173,
      "மாணவர்களுக்கு": 4174,
      "ன்னு": 4175,
      "வருமானம்": 4176,
      "துடன்": 4177,
      "எழுத": 4178,
      "முன்னர்": 4179,
      "##ல்களில்": 4180,
      "நிலையம்": 4181,
      "ஆண்": 4182,
      "ஒழுங்கு": 4183,
      "தடுப்பூசி": 4184,
      "பசு": 4185,
      "பதிலாக": 4186,
      "கிடைத்தது": 4187,
      "வரலாற்று": 4188,
      "இதேபோ": 4189,
      "வாக்குகள்": 4190,
      "##க்கப்பட்டுள்ள": 4191,
      "முருகன்": 4192,
      "மிகுந்த": 4193,
      "இறை": 4194,
      "ுப": 4195,
      "ுகின்றனர்": 4196,
      "திரும்பி": 4197,
      "##களைப்": 4198,
      "சவு": 4199,
      "##லால்": 4200,
      "##ண்டில்": 4201,
      "இதுதான்": 4202,
      "##ப்பிடி": 4203,
      "சீரிய": 4204,
      "எல்லோ": 4205,
      "##ழில்": 4206,
      "புனித": 4207,
      "ராம்": 4208,
      "அழைப்பு": 4209,
      "ுவதற்கு": 4210,
      "கடின": 4211,
      "##ினாமா": 4212,
      "ஆன்லைன்": 4213,
      "கதா": 4214,
      "##ப்பூர்வ": 4215,
      "கடந்து": 4216,
      "ப்பட்டது": 4217,
      "நிவார": 4218,
      "இதுத": 4219,
      "பதிவாக": 4220,
      "ஒதுக்கீடு": 4221,
      "கிறி": 4222,
      "##ப்போம்": 4223,
      "##க்கிழமை": 4224,
      "கொழும்பு": 4225,
      "##களுக்கும்": 4226,
      "குரல்": 4227,
      "த்திலும்": 4228,
      "ரஜ": 4229,
      "வன்கொ": 4230,
      "##ரூ": 4231,
      "முட": 4232,
      "சேலம்": 4233,
      "தனியாக": 4234,
      "தெரிவித்துள்ளனர்": 4235,
      "##மூலம்": 4236,
      "75": 4237,
      "எம்பி": 4238,
      "ஏவுக": 4239,
      "கழு": 4240,
      "##ர்க்": 4241,
      "பெற்றோர்": 4242,
      "ப்படவில்லை": 4243,
      "வன்கொடு": 4244,
      "படுத்த": 4245,
      "தாண்டி": 4246,
      "பொதுச்": 4247,
      "ஸ்தான": 4248,
      "தெரியவந்தது": 4249,
      "ஆடு": 4250,
      "துரு": 4251,
      "மகளிர்": 4252,
      "கவனி": 4253,
      "கல்யா": 4254,
      "வானிலை": 4255,
      "ஆஜ": 4256,
      "நவம்பர்": 4257,
      "##பான": 4258,
      "ரூபா": 4259,
      "ராஜினாமா": 4260,
      "என்கிறார்கள்": 4261,
      "வெளிப்படுத்த": 4262,
      "டொ": 4263,
      "நம்பு": 4264,
      "நவீன": 4265,
      "##பக்": 4266,
      "##ட்டினார்": 4267,
      "அதிப": 4268,
      "விமர்சி": 4269,
      "##ேட்": 4270,
      "##்த்": 4271,
      "##ண்டா": 4272,
      "வருகிறோம்": 4273,
      "மேலாக": 4274,
      "##ழுது": 4275,
      "படத்தின்": 4276,
      "சதவீதம்": 4277,
      "விசாரித்த": 4278,
      "குறிப்பிட்டுள்ளார்": 4279,
      "வலைதளங்களில்": 4280,
      "அச்சு": 4281,
      "தவி": 4282,
      "##ோட": 4283,
      "##ச்சூ": 4284,
      "நடித்த": 4285,
      "##நாயக்க": 4286,
      "ஊழியர்கள்": 4287,
      "கேட்டுக்": 4288,
      "ஆஸ்திரேலியா": 4289,
      "அவசர": 4290,
      "80": 4291,
      "##லிக்க": 4292,
      "ிருப்பது": 4293,
      "தடுப்பு": 4294,
      "முருக": 4295,
      "கீழே": 4296,
      "சவால": 4297,
      "துவங்கியது": 4298,
      "##விடும்": 4299,
      "##ிடமிருந்து": 4300,
      "வீசிய": 4301,
      "நல்லது": 4302,
      "##ஸின்": 4303,
      "##க்கர": 4304,
      "நிரூ": 4305,
      "ஜனாதிப": 4306,
      "ிறது": 4307,
      "##மொத்த": 4308,
      "ஒட்டுமொத்த": 4309,
      "வன்கொடுமை": 4310,
      "சௌ": 4311,
      "பந்த": 4312,
      "##மில்லை": 4313,
      "##சேனா": 4314,
      "தங்களுக்கு": 4315,
      "ஆயு": 4316,
      "விசாரணைக்கு": 4317,
      "பார்வை": 4318,
      "##நேரம்": 4319,
      "தும்": 4320,
      "போன்றவ": 4321,
      "300": 4322,
      "##நல": 4323,
      "##்ட்ட": 4324,
      "என்றே": 4325,
      "சுற்ற": 4326,
      "முன்னே": 4327,
      "இந்தியாவுக்கு": 4328,
      "பொருள்": 4329,
      "எத்தனை": 4330,
      "##வைத்": 4331,
      "கட்டணம்": 4332,
      "சர்ச்ச": 4333,
      "உதயநிதி": 4334,
      "சாலையில்": 4335,
      "எட்ட": 4336,
      "இயற்கை": 4337,
      "சிறுமி": 4338,
      "தனிப்பட்ட": 4339,
      "அப்படியே": 4340,
      "பங்கேற்க": 4341,
      "வாய்ந்த": 4342,
      "ஆஃப்": 4343,
      "ஆக்கிர": 4344,
      "காலக": 4345,
      "##டியான": 4346,
      "சுப்பிரமண": 4347,
      "அஞ்ச": 4348,
      "##ic": 4349,
      "##த்தட்ட": 4350,
      "##ராட்ச": 4351,
      "##ிக்கொ": 4352,
      "சும": 4353,
      "##ங்களையும்": 4354,
      "ிருக்கிறார்கள்": 4355,
      "அருள்": 4356,
      "போகும்": 4357,
      "முஸ்லிம்": 4358,
      "##த்தான": 4359,
      "##ராம்": 4360,
      "தீர்மானம்": 4361,
      "ுகிற": 4362,
      "##ணமாக": 4363,
      "எனினும்": 4364,
      "இருந்தன": 4365,
      "2018": 4366,
      "எண்ணிக்க": 4367,
      "ஆக்கிரமி": 4368,
      "ஆப்": 4369,
      "இரா": 4370,
      "பூர்": 4371,
      "கோலி": 4372,
      "சந்தை": 4373,
      "விசாரிக்க": 4374,
      "னால்": 4375,
      "கேது": 4376,
      "செய்துள்ளார்": 4377,
      "அறநிலைய": 4378,
      "விமர்சனம்": 4379,
      "சற்று": 4380,
      "நொ": 4381,
      "##ையாள": 4382,
      "தேச": 4383,
      "கொண்டிருக்கிறது": 4384,
      "முதல்வராக": 4385,
      "பிற்ப": 4386,
      "டெஸ்ட்": 4387,
      "பரிசு": 4388,
      "வட்டார": 4389,
      "##ஸி": 4390,
      "##ம்பரிய": 4391,
      "பொங்கல்": 4392,
      "காவல்துறையினர்": 4393,
      "தெளிவாக": 4394,
      "போன்": 4395,
      "##வரது": 4396,
      "ான்": 4397,
      "##ion": 4398,
      "##ஃப": 4399,
      "முழ": 4400,
      "கொல்க": 4401,
      "பாரம்பரிய": 4402,
      "உரிமைய": 4403,
      "நிறுத்தி": 4404,
      "நூற்றா": 4405,
      "கிட்டத்தட்ட": 4406,
      "##ளே": 4407,
      "திண்டு": 4408,
      "மாதங்களுக்கு": 4409,
      "நடிக": 4410,
      "தெரிவிக்கப்பட்டுள்ளது": 4411,
      "ஆப்க": 4412,
      "வால்": 4413,
      "##லான": 4414,
      "##ணன்": 4415,
      "விச": 4416,
      "கோப்பை": 4417,
      "திட்டங்களை": 4418,
      "சூர்": 4419,
      "##ையுடன்": 4420,
      "இதற்கான": 4421,
      "##்யா": 4422,
      "மீட்ட": 4423,
      "சிவா": 4424,
      "ஆகி": 4425,
      "பார்க்கலாம்": 4426,
      "வசூ": 4427,
      "இளைஞர்கள்": 4428,
      "திடீர்": 4429,
      "கொல்கத்தா": 4430,
      "ஞாய": 4431,
      "னை": 4432,
      "முகா": 4433,
      "என்பதே": 4434,
      "தொழிற": 4435,
      "கூறுகிறது": 4436,
      "காணி": 4437,
      "பேரும்": 4438,
      "கேம": 4439,
      "அகில": 4440,
      "கற்ப": 4441,
      "விற்கு": 4442,
      "விடம்": 4443,
      "##டிவி": 4444,
      "ஆர்வ": 4445,
      "அங்குள்ள": 4446,
      "மேம்படுத்த": 4447,
      "கள்ளக்குறி": 4448,
      "ஜென": 4449,
      "##மக": 4450,
      "த்திலிருந்து": 4451,
      "மருத்துவர்கள்": 4452,
      "உணர்": 4453,
      "குடும்பத்தினர்": 4454,
      "##ஞ்ஞ": 4455,
      "##சன": 4456,
      "##்பா": 4457,
      "தெரிந்த": 4458,
      "கொண்டிருக்கும்": 4459,
      "உட்ப": 4460,
      "நிச்சயம்": 4461,
      "ரகசிய": 4462,
      "பாதை": 4463,
      "வாய்ப்புகள்": 4464,
      "வரலாறு": 4465,
      "பங்களி": 4466,
      "vi": 4467,
      "பண்ணி": 4468,
      "சிறும": 4469,
      "அக்னி": 4470,
      "##புறம்": 4471,
      "ச்ச": 4472,
      "##ையொட்டி": 4473,
      "##ன்னா": 4474,
      "தொடரில்": 4475,
      "ிருக்கின்றனர்": 4476,
      "தகுதி": 4477,
      "##it": 4478,
      "போன்று": 4479,
      "தொக": 4480,
      "##வேல்": 4481,
      "செய்துள்ளனர்": 4482,
      "இலக்கு": 4483,
      "நாடுகளின்": 4484,
      "கேரள": 4485,
      "சன்": 4486,
      "ஜீ": 4487,
      "##ப்பார்": 4488,
      "நாட்ட": 4489,
      "கலவர": 4490,
      "சமீப": 4491,
      "ஏற்பாடுகளை": 4492,
      "நம்ம": 4493,
      "நாராய": 4494,
      "விகி": 4495,
      "##வரில்": 4496,
      "வெளிநாடு": 4497,
      "ஏதாவது": 4498,
      "மயில": 4499,
      "##ம்ப்": 4500,
      "##ப்பான்": 4501,
      "மாறு": 4502,
      "சேத": 4503,
      "களிடம்": 4504,
      "நிறைவு": 4505,
      "பிரதேசத்தில்": 4506,
      "சொந்தமான": 4507,
      "தவறான": 4508,
      "ஆராய்ச்சி": 4509,
      "மம": 4510,
      "செயற்கை": 4511,
      "கட்டாய": 4512,
      "உணர்வு": 4513,
      "197": 4514,
      "வாக்குறு": 4515,
      "##ப்பதற்கான": 4516,
      "எதிர்கொள்ள": 4517,
      "பருவ": 4518,
      "வயதில்": 4519,
      "தங்கம்": 4520,
      "##ங்கில்": 4521,
      "விஞ்ஞ": 4522,
      "மோத": 4523,
      "குறைக்க": 4524,
      "##ச்சாமி": 4525,
      "##டான": 4526,
      "நாணய": 4527,
      "அதற்காக": 4528,
      "நேரு": 4529,
      "குடியிரு": 4530,
      "ஹிஜா": 4531,
      "உள்பட": 4532,
      "கைப்பற்ற": 4533,
      "னின்": 4534,
      "வெல்ல": 4535,
      "யாரு": 4536,
      "ஓட்ட": 4537,
      "ஞான": 4538,
      "##ப்பாள": 4539,
      "##ிலிருந்த": 4540,
      "செய்துள்ளது": 4541,
      "செலுத்தி": 4542,
      "சிக்கி": 4543,
      "ஏவுகணை": 4544,
      "வசித்து": 4545,
      "##ழிவு": 4546,
      "வளர்ச்ச": 4547,
      "##வொரு": 4548,
      "முது": 4549,
      "##ார்க": 4550,
      "க்குள்": 4551,
      "உதார": 4552,
      "##விட்டால்": 4553,
      "கட்சிக்கு": 4554,
      "##க்கூடும்": 4555,
      "தமிழர்": 4556,
      "னுக்கு": 4557,
      "##ிருப்பது": 4558,
      "தெற்கு": 4559,
      "##வதில்லை": 4560,
      "சம்பவங்கள்": 4561,
      "இதற்கிடையே": 4562,
      "ராய": 4563,
      "##லிய": 4564,
      "பேரை": 4565,
      "நீங்க": 4566,
      "உயர்வு": 4567,
      "##த்திரம்": 4568,
      "கண்டறி": 4569,
      "தொடர்புடைய": 4570,
      "புதுச்சேரி": 4571,
      "##வான்": 4572,
      "##த்திலேயே": 4573,
      "கடற்க": 4574,
      "##த்தைக்": 4575,
      "தொடர்ந்த": 4576,
      "ாது": 4577,
      "அமைச்சராக": 4578,
      "நான்க": 4579,
      "போட்டியிட்ட": 4580,
      "தக்க": 4581,
      "ுகிறார்": 4582,
      "##பட்டு": 4583,
      "##யல்": 4584,
      "அமைதி": 4585,
      "விட்டனர்": 4586,
      "நினைத்த": 4587,
      "பந்துவீச்ச": 4588,
      "அதிரடி": 4589,
      "மரியாதை": 4590,
      "கில்": 4591,
      "##ணர்வு": 4592,
      "சுழ": 4593,
      "ப்பட்டுள்ளது": 4594,
      "நீதிபதிகள்": 4595,
      "வெற்றியை": 4596,
      "மசூ": 4597,
      "வர்களுக்கு": 4598,
      "இருக்காது": 4599,
      "அறிவியல்": 4600,
      "உலகக்": 4601,
      "கூட்டணியில்": 4602,
      "அறுவை": 4603,
      "நடைபெறுகிறது": 4604,
      "முடிந்து": 4605,
      "சந்திப்பு": 4606,
      "நகர்ப்புற": 4607,
      "90": 4608,
      "##டனும்": 4609,
      "இடையில்": 4610,
      "தங்களின்": 4611,
      "வசிக்கும்": 4612,
      "மன்": 4613,
      "##ொடர்": 4614,
      "##ம்மு": 4615,
      "செயலக": 4616,
      "வேலு": 4617,
      "கோர": 4618,
      "வழியில்": 4619,
      "அனுமதிக்க": 4620,
      "பெரும்பான்": 4621,
      "விண்வெளி": 4622,
      "##ஜன்": 4623,
      "பேரில்": 4624,
      "வைக்கும்": 4625,
      "வைத்திய": 4626,
      "அதிகபட்ச": 4627,
      "பெய்ய": 4628,
      "ஆதரவாளர்கள்": 4629,
      "##கிய": 4630,
      "##ம்மா": 4631,
      "பாள": 4632,
      "அமைப்பின்": 4633,
      "உடலை": 4634,
      "தோடு": 4635,
      "அழைக்க": 4636,
      "சதவிகித": 4637,
      "திண்டுக்கல்": 4638,
      "ஆற்ற": 4639,
      "காம": 4640,
      "இருந்தும்": 4641,
      "முன்னில": 4642,
      "இருப்பதை": 4643,
      "தூத்துக்கு": 4644,
      "மனோ": 4645,
      "மகிழ்ச்சி": 4646,
      "படித்து": 4647,
      "##விலான": 4648,
      "தயார்": 4649,
      "சிவசேனா": 4650,
      "மஞ்ச": 4651,
      "##ர்களுக்கும்": 4652,
      "வெளியில்": 4653,
      "##குமார்": 4654,
      "திணை": 4655,
      "##க்கப்பட்டார்": 4656,
      "பேசின": 4657,
      "திறன்": 4658,
      "##ஸ்க்": 4659,
      "வலியுறுத்தி": 4660,
      "னும்": 4661,
      "விய": 4662,
      "##மல்ல": 4663,
      "##வகு": 4664,
      "சூப்பர்": 4665,
      "பயன்படுத்து": 4666,
      "\"\"": 4667,
      "மட்ட": 4668,
      "இந்தி": 4669,
      "சட்டவிர": 4670,
      "##ங்களிடம்": 4671,
      "ஆத்மி": 4672,
      "ுமா": 4673,
      "##பன்": 4674,
      "கொள்ளலாம்": 4675,
      "திரைய": 4676,
      "ஜனதா": 4677,
      "இப்": 4678,
      "உர": 4679,
      "கற்று": 4680,
      "##ேப": 4681,
      "##தானம்": 4682,
      "பிபிசிய": 4683,
      "ரொம்ப": 4684,
      "ராக": 4685,
      "##க்குழுவ": 4686,
      "வின": 4687,
      "பரவி": 4688,
      "கோவிலுக்கு": 4689,
      "ஆசிரிய": 4690,
      "உள்துறை": 4691,
      "கனி": 4692,
      "ரன்க": 4693,
      "முனை": 4694,
      "##ரித்து": 4695,
      "ஆயிரக்கணக்கான": 4696,
      "இடைக்கால": 4697,
      "எரிப": 4698,
      "கவுன்சில": 4699,
      "வெறு": 4700,
      "பிரான்": 4701,
      "பிரசா": 4702,
      "தேர்தலை": 4703,
      "தற்கு": 4704,
      "##மிக": 4705,
      "##ுள்ளது": 4706,
      "பிரிய": 4707,
      "##முள்ள": 4708,
      "இரட்டை": 4709,
      "பாஜகவுக்கு": 4710,
      "இருப்பதாகவும்": 4711,
      "பட்டா": 4712,
      "co": 4713,
      "##லத்தில்": 4714,
      "வழங்கு": 4715,
      "திருக்கோ": 4716,
      "மூட": 4717,
      "கட்டட": 4718,
      "குடும்பத்தின": 4719,
      "பெரும்பாலும்": 4720,
      "முந்தைய": 4721,
      "வேளா": 4722,
      "புற்று": 4723,
      "சுரங்க": 4724,
      "ராணி": 4725,
      "ராசிக்க": 4726,
      "ிருப்பதாக": 4727,
      "அறிக": 4728,
      "இராஜ": 4729,
      "கவர்": 4730,
      "ஜாம": 4731,
      "விபத்தில்": 4732,
      "பாய்": 4733,
      "துரை": 4734,
      "வீட்டை": 4735,
      "இயல்": 4736,
      "வேலைவாய": 4737,
      "2017": 4738,
      "அழுத்த": 4739,
      "##பையில்": 4740,
      "##மீர்": 4741,
      "ராமர்": 4742,
      "கூறியது": 4743,
      "சொன்னார்": 4744,
      "வலியுறுத்த": 4745,
      "ஆகியவற்றை": 4746,
      "உற்சாக": 4747,
      "##லிருந்து": 4748,
      "விழிப்பு": 4749,
      "விக்கெட்": 4750,
      "##ரித்த": 4751,
      "##வர்த்த": 4752,
      "ராஜே": 4753,
      "செல்வா": 4754,
      "அணியில்": 4755,
      "ுவதாக": 4756,
      "##ாசி": 4757,
      "##த்திரி": 4758,
      "##ச்சல்": 4759,
      "வழிகா": 4760,
      "நிலையை": 4761,
      "தோன்ற": 4762,
      "அருள": 4763,
      "அணிந்து": 4764,
      "அழுத்தம்": 4765,
      "ராசிக்கார": 4766,
      "வண்ண": 4767,
      "முடிவெ": 4768,
      "காலங்களில்": 4769,
      "முன்பே": 4770,
      "மாதிரிய": 4771,
      "பேசுகையில்": 4772,
      "பிராந்திய": 4773,
      "இவ்வளவு": 4774,
      "னா": 4775,
      "##வளி": 4776,
      "காஞ்சி": 4777,
      "வாங்கிய": 4778,
      "நானும்": 4779,
      "அமெரிக்காவின்": 4780,
      "சார்பாக": 4781,
      "தயாரிக்க": 4782,
      "தற்கால": 4783,
      "##றித": 4784,
      "நாள்க": 4785,
      "வேற": 4786,
      "அமைந்த": 4787,
      "அமைத்து": 4788,
      "அதிகாரம்": 4789,
      "கட்டுமான": 4790,
      "விமானம்": 4791,
      "ராசிக்கு": 4792,
      "ஆந்திரா": 4793,
      "கொடியேற்ற": 4794,
      "இதுதொடர்": 4795,
      "ஆசை": 4796,
      "ுமாறு": 4797,
      "விவாதி": 4798,
      "அறிந்து": 4799,
      "##ப்படுகின்றன": 4800,
      "வார்டு": 4801,
      "உண்மையில்": 4802,
      "புறக்கணி": 4803,
      "அனுபவ": 4804,
      "##்க்கு": 4805,
      "##ாகும்": 4806,
      "அதுவும்": 4807,
      "சண்டை": 4808,
      "##is": 4809,
      "நாம": 4810,
      "பெருமை": 4811,
      "ராணுவம்": 4812,
      "சட்டவிரோத": 4813,
      "##பூர்வ": 4814,
      "##இல்": 4815,
      "##த்திலிருந்து": 4816,
      "அந்தத்": 4817,
      "வந்துள்ளது": 4818,
      "தேவையில்": 4819,
      "வகையான": 4820,
      "தர்": 4821,
      "லோக": 4822,
      "காப்ப": 4823,
      "வந்தால்": 4824,
      "முடிவை": 4825,
      "ங்களின்": 4826,
      "தூத": 4827,
      "வெள்ளை": 4828,
      "நாடாளுமன்றத்தில்": 4829,
      "ஒப்புதல்": 4830,
      "விசேட": 4831,
      "##்களுக்கு": 4832,
      "மீறி": 4833,
      "செய்யப்பட": 4834,
      "முன்னோ": 4835,
      "படத்தை": 4836,
      "அமல்": 4837,
      "பரபரப்பு": 4838,
      "##லன்": 4839,
      "வருகிற": 4840,
      "இறக்கு": 4841,
      "வெளியிட்டுள்ள": 4842,
      "எதிர்க்கட்சிகள்": 4843,
      "கும்பாபிஷேகம்": 4844,
      "பாஸ்": 4845,
      "மேயர்": 4846,
      "##லாந்து": 4847,
      "களத்தில்": 4848,
      "##ற்ச": 4849,
      "##ங்கோ": 4850,
      "##வாற": 4851,
      "டிஜ": 4852,
      "நியாய": 4853,
      "விமர்சித்து": 4854,
      "ஏற்றுமதி": 4855,
      "சமாஜ்": 4856,
      "வளாகத்தில்": 4857,
      "முன்னணி": 4858,
      "யாருக்கு": 4859,
      "அணிய": 4860,
      "2014": 4861,
      "துறைமுக": 4862,
      "இங்கிலாந்து": 4863,
      "ஏழை": 4864,
      "செயல": 4865,
      "##னிதா": 4866,
      "யோகி": 4867,
      "அலுவலகம்": 4868,
      "ஜான்": 4869,
      "ுவார்கள்": 4870,
      "##வினை": 4871,
      "உள்ளட": 4872,
      "நேரங்களில்": 4873,
      "கல்வ": 4874,
      "##கொலை": 4875,
      "பழனிச்சாமி": 4876,
      "ஈடுபட்டனர்": 4877,
      "முன்னிலையில்": 4878,
      "அன": 4879,
      "மர்ம": 4880,
      "##புர": 4881,
      "நபர்கள்": 4882,
      "பில்லியன்": 4883,
      "##ளையில்": 4884,
      "##யமாக": 4885,
      "புள்ளி": 4886,
      "..!": 4887,
      "சேவ": 4888,
      "தீபார": 4889,
      "உறுதியாக": 4890,
      "ிருக்கலாம்": 4891,
      "வெளியேறி": 4892,
      "எங்களை": 4893,
      "மெட்": 4894,
      "ஹா": 4895,
      "##ல்ஸ்": 4896,
      "கருது": 4897,
      "விடுமுறை": 4898,
      "நடத்தப்பட்ட": 4899,
      "ுவதற்கான": 4900,
      "வெள்ளி": 4901,
      "இணையதள": 4902,
      "கையெழு": 4903,
      "கருணாநிதி": 4904,
      "ஆடை": 4905,
      "பர்": 4906,
      "##சீ": 4907,
      "வென்று": 4908,
      "செய்யலாம்": 4909,
      "மரணம்": 4910,
      "கோயிலுக்கு": 4911,
      "தொழிற்ச": 4912,
      "கள்ளக்குறிச்சி": 4913,
      "கமல்": 4914,
      "##ார்ட்": 4915,
      "அமைந்துள்ளது": 4916,
      "திருப்பி": 4917,
      "தாக்கிய": 4918,
      "கூறும்": 4919,
      "காலநிலை": 4920,
      "குற்றவாள": 4921,
      "##வடை": 4922,
      "தேனி": 4923,
      "தீய": 4924,
      "விட்டதாக": 4925,
      "கட்சித்": 4926,
      "குழந்தைகளுக்கு": 4927,
      "தொழிலாள": 4928,
      "தண்ணீ": 4929,
      "அதிர்ச்சியை": 4930,
      "எட்டு": 4931,
      "தள்ளி": 4932,
      "ுதல்": 4933,
      "##ையால்": 4934,
      "##னிவா": 4935,
      "படங்கள்": 4936,
      "இலங்கைக்கு": 4937,
      "சோழ": 4938,
      "பட்டியலில்": 4939,
      "ஆட": 4940,
      "சிரி": 4941,
      "அறிந்த": 4942,
      "மிகப்": 4943,
      "சட": 4944,
      "மன்ற": 4945,
      "##தீ": 4946,
      "பகுதியாக": 4947,
      "ராஜபக": 4948,
      "இழந்த": 4949,
      "ஆப்கானி": 4950,
      "ராஜபக்ச": 4951,
      "கான": 4952,
      "ஜம்மு": 4953,
      "செயல்பட்ட": 4954,
      "##த்திற்கும்": 4955,
      "##ுரிமை": 4956,
      "செய்தால்": 4957,
      "துணி": 4958,
      "விலங்கு": 4959,
      "ஆணையர்": 4960,
      "எதிர்பார்க்கப்படுகிறது": 4961,
      "ஒப்பந்தம்": 4962,
      "பெங்களூ": 4963,
      "கலந்துரையாட": 4964,
      "##தலாக": 4965,
      "##il": 4966,
      "பிரே": 4967,
      "பெற்றார்": 4968,
      "அகற்ற": 4969,
      "ப்படுகின்றன": 4970,
      "திருப்பதி": 4971,
      "கப்பல்": 4972,
      "ne": 4973,
      "அண்": 4974,
      "வான்": 4975,
      "##லாமல்": 4976,
      "உத்தரப்பிர": 4977,
      "செய்யப்பட்டார்": 4978,
      "##ஸ்கர்": 4979,
      "வேண்டுமெ": 4980,
      "சிரம": 4981,
      "ஒலிம்ப": 4982,
      "உத்தரப்பிரதேச": 4983,
      "##மற்ற": 4984,
      "##வர்களின்": 4985,
      "##திர்": 4986,
      "தென்க": 4987,
      "சாம்ப": 4988,
      "சந்தோ": 4989,
      "மோகன்": 4990,
      "பகிர": 4991,
      "மட": 4992,
      "பலன்": 4993,
      "##கின்றது": 4994,
      "##மிடம்": 4995,
      "குறைந்து": 4996,
      "##ர்களா": 4997,
      "இறங்கி": 4998,
      "அதிகரித்துள்ளது": 4999,
      "ஆட்சியர்": 5000,
      "தெரியாது": 5001,
      "##்ப்பு": 5002,
      "எனப்படும்": 5003,
      "##ிட்டல்": 5004,
      "##ட்சுமி": 5005,
      "அமைந்துள்ள": 5006,
      "....": 5007,
      "வாரி": 5008,
      "சிக்கல்": 5009,
      "அபிஷேக": 5010,
      "ஒற்று": 5011,
      "ஓவரில்": 5012,
      "வத": 5013,
      "##ெடுக்க": 5014,
      "##ct": 5015,
      "நிலம்": 5016,
      "நேற்ற": 5017,
      "பேசும்": 5018,
      "இழந்து": 5019,
      "இளைய": 5020,
      "செய்தியாளர்களிடம்": 5021,
      "சான்றித": 5022,
      "யாதவ்": 5023,
      "re": 5024,
      "##டுகிறார்": 5025,
      "பொன்": 5026,
      "தலைநகர்": 5027,
      "பயன": 5028,
      "சட்டப்பே": 5029,
      "ிருக்கின்றன": 5030,
      "இறுதியில்": 5031,
      "ஹிஜாப்": 5032,
      "எக்": 5033,
      "##த்தள": 5034,
      "கும": 5035,
      "வருவதாகவும்": 5036,
      "ஆவது": 5037,
      "##எம்": 5038,
      "##ரிட": 5039,
      "அரசை": 5040,
      "##ப்பித்த": 5041,
      "##ரோடு": 5042,
      "உறுதிய": 5043,
      "ஒடி": 5044,
      "##மிக்": 5045,
      "##ட்டோ": 5046,
      "##த்ரி": 5047,
      "திருச்ச": 5048,
      "வழங்கப்பட்ட": 5049,
      "அடைந்து": 5050,
      "குழுவின்": 5051,
      "உள்நாட்டு": 5052,
      "##செய்ய": 5053,
      "சார": 5054,
      "யோடு": 5055,
      "##ழ்வு": 5056,
      "வெளிப்பட": 5057,
      "கண்டனம்": 5058,
      "களுக்காக": 5059,
      "தொண்டர்கள்": 5060,
      "the": 5061,
      "நர": 5062,
      "##க்குறை": 5063,
      "பிரியா": 5064,
      "##ழ்ந்த": 5065,
      "மோடிய": 5066,
      "வேலைத்திட்ட": 5067,
      "நிராக": 5068,
      "ஆஸ்திரேலிய": 5069,
      "அச்சுறுத்த": 5070,
      "தற்காலிக": 5071,
      "பிக": 5072,
      "##சமாக": 5073,
      "##க்களின்": 5074,
      "கோட்டை": 5075,
      "சுப்": 5076,
      "##ரியும்": 5077,
      "தேர்தலுக்கு": 5078,
      "பவுண்ட": 5079,
      "தூத்துக்குடி": 5080,
      "தார": 5081,
      "தலா": 5082,
      "தில்லை": 5083,
      "மன்னி": 5084,
      "##ிகளுடன்": 5085,
      "குழப்ப": 5086,
      "வேலைக்கு": 5087,
      "ஆராய்ச்ச": 5088,
      "அரிசி": 5089,
      "பின்பற்ற": 5090,
      "சபாநாயகர்": 5091,
      "##மென": 5092,
      "##ழல்": 5093,
      "அவன்": 5094,
      "ஒருமுறை": 5095,
      "நேர்": 5096,
      "இடங்களை": 5097,
      "மீதும்": 5098,
      "எந்தவொரு": 5099,
      "##க்கோட்டை": 5100,
      "காட்சிகள்": 5101,
      "மம்தா": 5102,
      "அமைய": 5103,
      "உங்களை": 5104,
      "##திக": 5105,
      "##ட்ச்": 5106,
      "பார்க்கும்": 5107,
      "பாடசாலை": 5108,
      "ஜெய்": 5109,
      "மட்டுமின்றி": 5110,
      "செய்தியாளர்களை": 5111,
      "வரிசையில்": 5112,
      "லு": 5113,
      "ஒருநாள்": 5114,
      "முதலா": 5115,
      "இடத்திற்கு": 5116,
      "கொண்டுவர": 5117,
      "பட்டியல்": 5118,
      "ஸ்டாலின": 5119,
      "எடுக்கப்படும்": 5120,
      "எதிர்பார்த்த": 5121,
      "இதனையடுத்து": 5122,
      "அறிமுகப்படுத்த": 5123,
      "காஷ்மீர்": 5124,
      "கேமரா": 5125,
      "எப்ப": 5126,
      "விளக்கு": 5127,
      "உருவாக்கிய": 5128,
      "விழுந்த": 5129,
      "##த்தீவு": 5130,
      "கம்யூ": 5131,
      "உளவு": 5132,
      "வலம்": 5133,
      "##ப்பார்கள்": 5134,
      "மாநாட்டில்": 5135,
      "##மிழ": 5136,
      "வெகு": 5137,
      "புத": 5138,
      "##ளித்தார்": 5139,
      "கட்டிய": 5140,
      "அறிவித்துள்ளது": 5141,
      "##ப்பதில்": 5142,
      "முகாம": 5143,
      "அமர்ந்த": 5144,
      "அலி": 5145,
      "இச": 5146,
      "நட்பு": 5147,
      "சுரே": 5148,
      "என்னிடம்": 5149,
      "இணையத்தில்": 5150,
      "பதிலடி": 5151,
      "பராமரி": 5152,
      "டிஜிட்டல்": 5153,
      "டிக": 5154,
      "##னைகள்": 5155,
      "அதானி": 5156,
      "கூறப்பட்டுள்ளது": 5157,
      "ஈடுபட": 5158,
      "பாடல்": 5159,
      "வாகனத்தில்": 5160,
      "கிடைக்கவில்லை": 5161,
      "ுகின்றன": 5162,
      "##ப்புகளை": 5163,
      "செய்திகள்": 5164,
      "திட்டமிட்ட": 5165,
      "பிரிட்டன்": 5166,
      "##நோய்": 5167,
      "36": 5168,
      "காஸா": 5169,
      "சேமி": 5170,
      "இடத்தை": 5171,
      "உயர்ந்த": 5172,
      "உடலில்": 5173,
      "##காரம்": 5174,
      "இந்ந": 5175,
      "நிறைந்த": 5176,
      "தமிழிடம்": 5177,
      "மணிய": 5178,
      "எவ்வாறு": 5179,
      "இறக்குமதி": 5180,
      "அட்ட": 5181,
      "கஷ்ட": 5182,
      "மழ": 5183,
      "##திக்க": 5184,
      "குல": 5185,
      "என்பதுதான்": 5186,
      "குடும்பம்": 5187,
      "மோசமாக": 5188,
      "கும்பல்": 5189,
      "பொதுச்செயலாளர்": 5190,
      "சண்": 5191,
      "வரா": 5192,
      "சேர்ந்தவர்கள்": 5193,
      "தொழிலாளர்கள்": 5194,
      "ஊக்கு": 5195,
      "லும்": 5196,
      "##ad": 5197,
      "##வல்": 5198,
      "##ல்வி": 5199,
      "புள்ள": 5200,
      "விடுவி": 5201,
      "பிரிவில்": 5202,
      "ிருந்தனர்": 5203,
      "ஆயிரத்து": 5204,
      "உண்மையான": 5205,
      "ஐபி": 5206,
      "மல்ல": 5207,
      "ீர்கள்": 5208,
      "##கத்தில்": 5209,
      "##க்கத்தை": 5210,
      "##ந்தோ": 5211,
      "பாரு": 5212,
      "பாபு": 5213,
      "##ட்சிய": 5214,
      "சேர": 5215,
      "என்பதில்": 5216,
      "எழுந்துள்ளது": 5217,
      "அணியை": 5218,
      "ஆழ": 5219,
      "##த்தன்மை": 5220,
      "இருந்தபோது": 5221,
      "நகராட்சி": 5222,
      "வாழ்க்கையில்": 5223,
      "க்கூடாது": 5224,
      "அதனால்தான்": 5225,
      "##ரப்பு": 5226,
      "##த்துள்ள": 5227,
      "திட்டத்தில்": 5228,
      "வேண்டியது": 5229,
      "உலா": 5230,
      "##ென்ன": 5231,
      "##முறையை": 5232,
      "இந்தியாவை": 5233,
      "##லுடன்": 5234,
      "காண்ப": 5235,
      "வைத்தனர்": 5236,
      "புகழ": 5237,
      "ஆட்டம்": 5238,
      "ரோஹி": 5239,
      "பகுதியைச்": 5240,
      "அவர்களது": 5241,
      "போராடி": 5242,
      "நினைத்து": 5243,
      "மாணவிகள்": 5244,
      "ரெட்டி": 5245,
      "ஏனெனில்": 5246,
      "சண்முக": 5247,
      "சக்த": 5248,
      "்க": 5249,
      "##முரு": 5250,
      "##ிட்டி": 5251,
      "சட்டத்தை": 5252,
      "கூறியிருந்தார்": 5253,
      "மாட்டார்கள்": 5254,
      "திரைப்படம்": 5255,
      "சிறிது": 5256,
      "##as": 5257,
      "##ாலே": 5258,
      "டி20": 5259,
      "குழுவினர்": 5260,
      "நிகழ்வில்": 5261,
      "வெளியாகியுள்ளது": 5262,
      "பழங்குடிய": 5263,
      "to": 5264,
      "ஊடாக": 5265,
      "ஏதோ": 5266,
      "கரை": 5267,
      "##ைப்": 5268,
      "அமைச்சகம்": 5269,
      "காவிரி": 5270,
      "சிறுத்தை": 5271,
      "பங்கேற்று": 5272,
      "திருப்பூர்": 5273,
      "செவ்வாய்": 5274,
      "தகு": 5275,
      "##ளான": 5276,
      "எடுத்துச்": 5277,
      "முதலீ": 5278,
      "வைத்திருந்த": 5279,
      "##ரவையில்": 5280,
      "அமெரிக்காவில்": 5281,
      "கேள்விக்கு": 5282,
      "வேண்டுமான": 5283,
      "யூன": 5284,
      "காய்ச்ச": 5285,
      "வரவேற்பு": 5286,
      "வேலையை": 5287,
      "பிபிசியிடம்": 5288,
      "சர்க்க": 5289,
      "போலி": 5290,
      "தேதிய": 5291,
      "புத்த": 5292,
      "நாடுகளுக்கு": 5293,
      "படித்த": 5294,
      "கொள்வது": 5295,
      "கலைஞர்": 5296,
      "மஹி": 5297,
      "##re": 5298,
      "##ர்ஜி": 5299,
      "ஒருவரை": 5300,
      "நீலக": 5301,
      "வைத்துக்": 5302,
      "உத்தரவிட்டு": 5303,
      "சீனாவின்": 5304,
      "ஊர்வல": 5305,
      "##த்தொட": 5306,
      "கலாசார": 5307,
      "வளை": 5308,
      "##பாள": 5309,
      "பிளா": 5310,
      "கட்டமை": 5311,
      "மாதங்களில்": 5312,
      "அடுத்தடுத்து": 5313,
      "தாக்குதலை": 5314,
      "வெற்றிக": 5315,
      "பெரிதாக": 5316,
      "400": 5317,
      "கிரு": 5318,
      "##ay": 5319,
      "ராஜபக்": 5320,
      "வழக்குகள்": 5321,
      "இவருக்கு": 5322,
      "ஒன்ப": 5323,
      "##விந்த்": 5324,
      "இதய": 5325,
      "மருத்துவக்": 5326,
      "பெண்ணை": 5327,
      "தாக்கரே": 5328,
      "ஒன்றி": 5329,
      "##்தன": 5330,
      "அதிலும்": 5331,
      "கோரிக்க": 5332,
      "பூம": 5333,
      "பொதுக்குழுவ": 5334,
      "தரப்பின": 5335,
      "ுவதற்காக": 5336,
      "அனுப்பிய": 5337,
      "பணியாற்றி": 5338,
      "மின்சாரம்": 5339,
      "##முறையாக": 5340,
      "உறவினர்கள்": 5341,
      "அண்மையில்": 5342,
      "37": 5343,
      "சாய்": 5344,
      "தனு": 5345,
      "ுள்ளதாக": 5346,
      "##வன": 5347,
      "பாம்பு": 5348,
      "##ட்சை": 5349,
      "சேகரி": 5350,
      "பதற்ற": 5351,
      "ஆர்ப்பா": 5352,
      "சென்றது": 5353,
      "கனமழை": 5354,
      "உறுதிப்படுத்த": 5355,
      "ஜோதி": 5356,
      "திட்டமிட": 5357,
      "வலியுறுத்திய": 5358,
      "கம்யூனி": 5359,
      "பணியை": 5360,
      "சீர": 5361,
      "##ழ்ச்சி": 5362,
      "##க்களுக்கு": 5363,
      "முதிய": 5364,
      "கட்டிட": 5365,
      "##ேசன்": 5366,
      "நடத்தப்பட்டது": 5367,
      "ஆய்வாள": 5368,
      "நிரந்தர": 5369,
      "காப்பாற்ற": 5370,
      "பெங்களூரு": 5371,
      "al": 5372,
      "சாக": 5373,
      "வர்களை": 5374,
      "##களுடன்": 5375,
      "##ியோக": 5376,
      "தொடரும்": 5377,
      "ராசியில்": 5378,
      "சாப்பி": 5379,
      "##ோதே": 5380,
      "##கொண்டு": 5381,
      "சட்டமன்றத்": 5382,
      "ஞாயிற்று": 5383,
      "st": 5384,
      "இவரது": 5385,
      "மண்ண": 5386,
      "##டுக்கு": 5387,
      "நிலவு": 5388,
      "தீர்க்க": 5389,
      "அமைச்சின்": 5390,
      "##ங்களா": 5391,
      "ஆர்வம்": 5392,
      "கட்டுரை": 5393,
      "பெண்களின்": 5394,
      "எடுக்கப்பட்ட": 5395,
      "அறிவுறுத்த": 5396,
      "முஸ்லிம": 5397,
      "இதுதொடர்பாக": 5398,
      "##ுவது": 5399,
      "செய்யவில்லை": 5400,
      "ஆகவே": 5401,
      "##ர்களால்": 5402,
      "ரஷ்யாவின்": 5403,
      "பெண்களை": 5404,
      "ஹரி": 5405,
      "##ரத்": 5406,
      "##்தினம்": 5407,
      "தேவி": 5408,
      "##முல்": 5409,
      "வாத": 5410,
      "வரவில்லை": 5411,
      "உயிரு": 5412,
      "பாதிக்கப்பட்டு": 5413,
      "வாழும்": 5414,
      "2016": 5415,
      "பொறுப்ப": 5416,
      "சுவாம": 5417,
      "விளையாட": 5418,
      "ராமநாத": 5419,
      "கவனிக்க": 5420,
      "சிதம்பரம்": 5421,
      "ஊர": 5422,
      "மிக்க": 5423,
      "##தூ": 5424,
      "##தரா": 5425,
      "##கல்": 5426,
      "##ரிகள்": 5427,
      "திருமா": 5428,
      "பூங்கா": 5429,
      "நெட்டி": 5430,
      "வெளியேற": 5431,
      "##களால்": 5432,
      "ஆபத்து": 5433,
      "அமர்ந்து": 5434,
      "தேர்ந்தெடு": 5435,
      "##ொன்று": 5436,
      "##டையில்": 5437,
      "##ப்பட்டுள்ளன": 5438,
      "குறைவான": 5439,
      "உருவாக்கி": 5440,
      "ஆண்டின்": 5441,
      "அறிக்கையை": 5442,
      "சமயத்தில்": 5443,
      "காஷ்மீ": 5444,
      "யுக்ரேன்": 5445,
      "விக்கெட்டுகளை": 5446,
      "மணியளவில்": 5447,
      "அட்": 5448,
      "பாட்ட": 5449,
      "காலையில்": 5450,
      "உலகில்": 5451,
      "நிலைக்கு": 5452,
      "பெற்றுக்": 5453,
      "அர்ச்ச": 5454,
      "திருவண்ண": 5455,
      "ஒத்துழைப்பு": 5456,
      "செஸ்": 5457,
      "சுப": 5458,
      "அளிக்கும்": 5459,
      "முடியுமா": 5460,
      "பார்த்தால்": 5461,
      "காணொ": 5462,
      "அப்து": 5463,
      "வெளியிட்டுள்ளது": 5464,
      "டீசல்": 5465,
      "படுகொலை": 5466,
      "அவ்வப்போது": 5467,
      "அவ்வளவு": 5468,
      "ஜெனரல்": 5469,
      "இராஜாங்க": 5470,
      "பட்டு": 5471,
      "மில்": 5472,
      "ஷெ": 5473,
      "ுங்கள்": 5474,
      "சுரு": 5475,
      "தினக": 5476,
      "பெற்றுள்ளது": 5477,
      "பதவியில்": 5478,
      "அமல்படுத்த": 5479,
      "அசோ": 5480,
      "எங்கே": 5481,
      "##ரமான": 5482,
      "##ளித": 5483,
      "அமைப்புகள்": 5484,
      "கொண்டிருந்தார்": 5485,
      "இன்றும்": 5486,
      "மயிலாடு": 5487,
      "48": 5488,
      "ஆசிய": 5489,
      "ுவோம்": 5490,
      "##பால்": 5491,
      "##வந்த": 5492,
      "##றவு": 5493,
      "##ப்பணி": 5494,
      "கோட்ட": 5495,
      "##ளித்து": 5496,
      "மீனா": 5497,
      "தமிழ்நாட்டின்": 5498,
      "என்பதற்காக": 5499,
      "பட்டியல": 5500,
      "ஏனென்றால்": 5501,
      "கடற்படை": 5502,
      "இராணுவ": 5503,
      "மயிலாடுது": 5504,
      "##க்குரிய": 5505,
      "கடத்த": 5506,
      "வருவதால்": 5507,
      "பிரகா": 5508,
      "குடும்பத்தில்": 5509,
      "நண்பர்கள்": 5510,
      "கன்னியாக": 5511,
      "ஐரோப்பிய": 5512,
      "கிறிஸ்த": 5513,
      "இக்கோ": 5514,
      "சப்": 5515,
      "யாள": 5516,
      "வில்ல": 5517,
      "##சனை": 5518,
      "##ய்ய": 5519,
      "இடது": 5520,
      "தாக்கி": 5521,
      "படகு": 5522,
      "உணவுப்": 5523,
      "மித": 5524,
      "டிரம்ப்": 5525,
      "அதன்பிற": 5526,
      "##த்திற்காக": 5527,
      "அரசியலமைப்பு": 5528,
      "ஏதே": 5529,
      "ஜப்பான்": 5530,
      "தட்டு": 5531,
      "நை": 5532,
      "பட்ச": 5533,
      "##ஜெட்": 5534,
      "கோல்": 5535,
      "கேட்ப": 5536,
      "யாருக்கும்": 5537,
      "##ப்போகிறது": 5538,
      "விஷயங்கள்": 5539,
      "விநியோக": 5540,
      "##மட்டு": 5541,
      "##ராய": 5542,
      "##ண்டன்": 5543,
      "மாநாடு": 5544,
      "பேரு": 5545,
      "##ன்னு": 5546,
      "வாடிக்க": 5547,
      "நீக்க": 5548,
      "பலி": 5549,
      "காரில்": 5550,
      "யானது": 5551,
      "பணியாற்ற": 5552,
      "மட்டுமல்லாமல்": 5553,
      "உப": 5554,
      "##ரண": 5555,
      "##்களின்": 5556,
      "களான": 5557,
      "##பாபு": 5558,
      "கணக்கில்": 5559,
      "அதேநேரம்": 5560,
      "வழக்கமாக": 5561,
      "##ராஜா": 5562,
      "இழப்ப": 5563,
      "தரும": 5564,
      "##நாதன்": 5565,
      "##ெக்டர்": 5566,
      "மஞ்சள்": 5567,
      "தீபாராத": 5568,
      "ch": 5569,
      "தற்காக": 5570,
      "தஞ்சா": 5571,
      "பௌ": 5572,
      "மதியம்": 5573,
      "##நடுக்க": 5574,
      "##மாகும்": 5575,
      "நிலநடுக்க": 5576,
      "மீட்டு": 5577,
      "தெரியுமா": 5578,
      "தீர்ப்ப": 5579,
      "ிருந்தால்": 5580,
      "வாகனம்": 5581,
      "சுற்றுச்சூ": 5582,
      "பிரச்னைகள்": 5583,
      "விசாரித்து": 5584,
      "ருக்கு": 5585,
      "ரெய": 5586,
      "விக": 5587,
      "போதிலும்": 5588,
      "அரேப": 5589,
      "தாம்": 5590,
      "பகுதிய": 5591,
      "நாடாளுமன்றத்": 5592,
      "அதன்பின்": 5593,
      "வடிவமை": 5594,
      "தெய்வ": 5595,
      "கன்னியாகும": 5596,
      "##ீவ்": 5597,
      "##வுபடுத்த": 5598,
      "##ிருப்பதாக": 5599,
      "##ப்புரம்": 5600,
      "##மாகி": 5601,
      "அர்த்த": 5602,
      "செய்திருக்க": 5603,
      "நெல்லை": 5604,
      "விளம்பர": 5605,
      "எந்தவித": 5606,
      "பெரியார்": 5607,
      "##ஜ்ரி": 5608,
      "சிக்கிய": 5609,
      "பந்துகளில்": 5610,
      "கப": 5611,
      "##ாச": 5612,
      "##டியும்": 5613,
      "##ளிக்கும்": 5614,
      "##பாச": 5615,
      "முடித்து": 5616,
      "வழங்கினார்": 5617,
      "நடத்தும்": 5618,
      "ட்வீ": 5619,
      "அயோ": 5620,
      "##ent": 5621,
      "முன்தினம்": 5622,
      "காலகட்டத்தில்": 5623,
      "அட்டை": 5624,
      "ஒழிப்பு": 5625,
      "##தாம்": 5626,
      "##ரெ": 5627,
      "போரில்": 5628,
      "காசா": 5629,
      "##பிள்": 5630,
      "முறைகே": 5631,
      "ஆட்டத்தில்": 5632,
      "நோயாள": 5633,
      "எரிபொருள்": 5634,
      "அவி": 5635,
      "கற்க": 5636,
      "##விலும்": 5637,
      "அதற்க": 5638,
      "புகு": 5639,
      "சுட்டு": 5640,
      "இருக்கின்றனர்": 5641,
      "தரப்ப": 5642,
      "உருவான": 5643,
      "அதைப்": 5644,
      "உயிரிழந்து": 5645,
      "மக்களிடம்": 5646,
      "தளபதி": 5647,
      "எடுக்கும்": 5648,
      "ஷர்": 5649,
      "##ரிக்": 5650,
      "##றல்": 5651,
      "##ப்பிட்ட": 5652,
      "சிறப்பான": 5653,
      "இணைந்த": 5654,
      "சொல்வது": 5655,
      "நிபுணர்கள்": 5656,
      "யின": 5657,
      "##சேக": 5658,
      "##ன்கு": 5659,
      "##ணர்": 5660,
      "##்டி": 5661,
      "தொலைக்க": 5662,
      "ஒருவேளை": 5663,
      "##ரியை": 5664,
      "சம்பா": 5665,
      "செல்வது": 5666,
      "##நாதர்": 5667,
      "and": 5668,
      "வேலைவாய்ப்பு": 5669,
      "மன்னிப்பு": 5670,
      "உத்திய": 5671,
      "லேச": 5672,
      "##ீல்": 5673,
      "வாட": 5674,
      "பயிர": 5675,
      "பாதுகாக்க": 5676,
      "கொள்ளை": 5677,
      "வெளியேற்ற": 5678,
      "ஆனா": 5679,
      "ஏறி": 5680,
      "கன்": 5681,
      "##பான்": 5682,
      "##க்கால்": 5683,
      "##ையல்": 5684,
      "சென்": 5685,
      "கொல": 5686,
      "##ிருப்ப": 5687,
      "முடிவில்": 5688,
      "கருத்தில்": 5689,
      "உதவும்": 5690,
      "குறைந்தபட்ச": 5691,
      "வலுவான": 5692,
      "அம்மனுக்கு": 5693,
      "வட்டி": 5694,
      "பொலி": 5695,
      "சந்தேகம்": 5696,
      "வாழ்க்கையை": 5697,
      "ஊடகங்களில்": 5698,
      "மூன்றாம்": 5699,
      "விசாரணையை": 5700,
      "ஆண்கள்": 5701,
      "முற்றிலும்": 5702,
      "##ஜு": 5703,
      "நாட": 5704,
      "பாமக": 5705,
      "வெட்டி": 5706,
      "மூழ்க": 5707,
      "ஏற்படுத்து": 5708,
      "கருத்த": 5709,
      "இயந்திர": 5710,
      "வழிபட்ட": 5711,
      "பரிமா": 5712,
      "இயக்குந": 5713,
      "பட்ஜெட்": 5714,
      "வெளிப்படையாக": 5715,
      "ஆல்": 5716,
      "பின": 5717,
      "##ீம்": 5718,
      "##மின்": 5719,
      "தெல": 5720,
      "என்பதும்": 5721,
      "கருதி": 5722,
      "கொடுத்தார்": 5723,
      "நம்மை": 5724,
      "ஆரம்பித்து": 5725,
      "தெரியாமல்": 5726,
      "வேட்பாளராக": 5727,
      "33": 5728,
      "ஈரோடு": 5729,
      "##கமான": 5730,
      "##ண்க": 5731,
      "ப்படுத்த": 5732,
      "உள்ளிட்டோர்": 5733,
      "இறங்க": 5734,
      "ுவதில்லை": 5735,
      "சோனியா": 5736,
      "குழந்தையை": 5737,
      "ரம்": 5738,
      "##பிர": 5739,
      "மேலா": 5740,
      "அரிய": 5741,
      "மறுத்து": 5742,
      "மாரியம்மன்": 5743,
      "தொலைவில்": 5744,
      "தெலுங்கு": 5745,
      "விஞ்ஞான": 5746,
      "எல": 5747,
      "ஓரா": 5748,
      "##்கர்": 5749,
      "##ப்பிரி": 5750,
      "##்சபா": 5751,
      "அரபு": 5752,
      "வைக்கப்பட்டு": 5753,
      "திருக்கல்": 5754,
      "சமயம்": 5755,
      "அனைத்தையும்": 5756,
      "நிலையில்தான்": 5757,
      "திருக்கல்யா": 5758,
      "ஆப்பிர": 5759,
      "இப்போ": 5760,
      "வருடம்": 5761,
      "நிலவும்": 5762,
      "##ாலய": 5763,
      "தலைவரும்": 5764,
      "##வர்தன": 5765,
      "அமைச்சு": 5766,
      "அரசுப்": 5767,
      "##மேஸ்வர": 5768,
      "நெல்": 5769,
      "போன்றவை": 5770,
      "கனவு": 5771,
      "தொகுதிகளில்": 5772,
      "கண்காணிப்பு": 5773,
      "2வது": 5774,
      "சண்ட": 5775,
      "##ொன்ற": 5776,
      "##த்துல": 5777,
      "இடங்கள்": 5778,
      "##மேஷ்": 5779,
      "என்னவெ": 5780,
      "மணிப்பூர்": 5781,
      "போட்டோ": 5782,
      "##ேயான": 5783,
      "விலகி": 5784,
      "துணைத்": 5785,
      "விஷயங்களை": 5786,
      "விழுந்து": 5787,
      "என்பதையும்": 5788,
      "கழித்து": 5789,
      "வல்லு": 5790,
      "தெலங்கானா": 5791,
      "32": 5792,
      "‛‛": 5793,
      "##ியால்": 5794,
      "##டித்த": 5795,
      "பூமி": 5796,
      "எழுந்து": 5797,
      "விட்டால்": 5798,
      "குற்றவா": 5799,
      "அதிமுகவின்": 5800,
      "நிறுவனத்தில்": 5801,
      "தங்கிய": 5802,
      "இதனைத்": 5803,
      "##பேசி": 5804,
      "வியாழ": 5805,
      "அருள்ப": 5806,
      "லோக்சபா": 5807,
      "அதன்பிறகு": 5808,
      "சாய": 5809,
      "தங்களை": 5810,
      "மண்": 5811,
      "ுவார்": 5812,
      "##ிஷ்": 5813,
      "##வர்களில்": 5814,
      "பிரமா": 5815,
      "லட்சுமி": 5816,
      "பொருளாதாரம்": 5817,
      "மின்ன": 5818,
      "அலுவலர்": 5819,
      "பிரதேசம்": 5820,
      "கூடுதலாக": 5821,
      "ஏதேனும்": 5822,
      "வாடகை": 5823,
      "அஜித்": 5824,
      "சமுத": 5825,
      "##வூர்": 5826,
      "##வழி": 5827,
      "அவர்களிடம்": 5828,
      "பிரம்ம": 5829,
      "போதுமான": 5830,
      "பரப்ப": 5831,
      "கருத்தை": 5832,
      "தூக்க": 5833,
      "மனதில்": 5834,
      "உருவாக்கு": 5835,
      "இன்ஸ்ட": 5836,
      "ஏற்றுக்கொள்ள": 5837,
      "முயற்சிகள்": 5838,
      "சிபிஐ": 5839,
      "கதாபா": 5840,
      "ஐபிஎல்": 5841,
      "ஆக்": 5842,
      "ஹீ": 5843,
      "தாங்கள்": 5844,
      "ஆய்வாளர்": 5845,
      "யோகம்": 5846,
      "##ஸ்கே": 5847,
      "அங்கிருந்த": 5848,
      "வைரல": 5849,
      "காதலி": 5850,
      "டாலர்": 5851,
      "சன்ன": 5852,
      "சரவ": 5853,
      "தம்பி": 5854,
      "நம்பி": 5855,
      "பிக்": 5856,
      "##ீங்க": 5857,
      "வெவ்": 5858,
      "##ாலையில்": 5859,
      "196": 5860,
      "ுவதை": 5861,
      "வலைத்தள": 5862,
      "##முருகன்": 5863,
      "திருவண்ணாமலை": 5864,
      "இண": 5865,
      "எண்": 5866,
      "##ேல்": 5867,
      "போத": 5868,
      "தேரோ": 5869,
      "##ாயிர": 5870,
      "இருந்தே": 5871,
      "முடித்த": 5872,
      "சாதகமாக": 5873,
      "தோல்விய": 5874,
      "விழுப்புரம்": 5875,
      "எதையும்": 5876,
      "அறிகுற": 5877,
      "55": 5878,
      "மதம்": 5879,
      "ுகிறோம்": 5880,
      "காற்று": 5881,
      "பாய": 5882,
      "##தாகக்": 5883,
      "பலத்த": 5884,
      "இரான": 5885,
      "கணவன்": 5886,
      "ஜெயக்குமார்": 5887,
      "நூற்று": 5888,
      "கல்லூரியில்": 5889,
      "வசதிகள்": 5890,
      "மொத்தமாக": 5891,
      "ஷிண்டே": 5892,
      "கம்யூனிஸ்ட்": 5893,
      "ஆராத": 5894,
      "சல்": 5895,
      "பஸ்": 5896,
      "ஸ்ட்": 5897,
      "வீசி": 5898,
      "சேகர்": 5899,
      "பாரத்": 5900,
      "சீனிவா": 5901,
      "வந்துள்ளார்": 5902,
      "##ர்களே": 5903,
      "நடிக்க": 5904,
      "யாகும்": 5905,
      "குடிநீர்": 5906,
      "ஏற்றுக்": 5907,
      "பெண்ணின்": 5908,
      "வெங்கட": 5909,
      "தொகையை": 5910,
      "ஞாயிற்றுக்கிழமை": 5911,
      "இக்": 5912,
      "தடுத்து": 5913,
      "##தற்காக": 5914,
      "##ஸ்வ": 5915,
      "அமையும்": 5916,
      "##வீர்கள்": 5917,
      "நடத்தப்படும்": 5918,
      "வீடுகள்": 5919,
      "ஆட்டமிழ": 5920,
      "பதிலளித்த": 5921,
      "திணைக்கள": 5922,
      "ராஜபக்சே": 5923,
      "அசை": 5924,
      "இத்தனை": 5925,
      "எங்கு": 5926,
      "ஏற": 5927,
      "கஞ்சா": 5928,
      "வர்களின்": 5929,
      "##வோர்": 5930,
      "##ையெல்லாம்": 5931,
      "கொன்ற": 5932,
      "கூடும்": 5933,
      "##ப்படுவதாக": 5934,
      "ுவதில்": 5935,
      "வெள்ளிக்கிழமை": 5936,
      "வரலாற்றில்": 5937,
      "தவறாக": 5938,
      "ஆண்டும்": 5939,
      "##சக்தி": 5940,
      "கூறியுள்ளது": 5941,
      "களைப்": 5942,
      "2015": 5943,
      "ுள்ளோம்": 5944,
      "தம்பதி": 5945,
      "வருவாய்": 5946,
      "மாறாக": 5947,
      "பறிமுதல்": 5948,
      "சூழ்நிலை": 5949,
      "கட்சியினர்": 5950,
      "of": 5951,
      "##ஸ்பு": 5952,
      "முகம்": 5953,
      "வருத்த": 5954,
      "மாற்றங்கள்": 5955,
      "பின்னணி": 5956,
      "எஃப்": 5957,
      "சொல்லப்படுகிறது": 5958,
      "மாதங்கள்": 5959,
      "தெரியாத": 5960,
      "எதிர்காலத்தில்": 5961,
      "செயலாளராக": 5962,
      "ட்விட்டரில்": 5963,
      "கும்பாபிஷேக": 5964,
      "மாதிரியான": 5965,
      "மயிலாடுதுறை": 5966,
      "ஓர": 5967,
      "##வாரி": 5968,
      "விதை": 5969,
      "##ர்கா": 5970,
      "போகிறது": 5971,
      "இதுவே": 5972,
      "பாஜகவை": 5973,
      "உணர்ந்த": 5974,
      "செல்வம்": 5975,
      "கண்டன": 5976,
      "காயமடைந்த": 5977,
      "ஏக்கர்": 5978,
      "டில்": 5979,
      "முத்த": 5980,
      "##த்யா": 5981,
      "சிஎ": 5982,
      "இரான்": 5983,
      "டெல்": 5984,
      "வைத்திருக்க": 5985,
      "தொழிலாளர்": 5986,
      "ஜெர்ம": 5987,
      "தாக்குதலில்": 5988,
      "இம்ரான்": 5989,
      "நடைமுறைப்படுத்த": 5990,
      "சதவிகிதம்": 5991,
      "தேவையில்லை": 5992,
      "ராஜபக்ஷ": 5993,
      "எடை": 5994,
      "பில்": 5995,
      "##பந்த": 5996,
      "கோவா": 5997,
      "##ிக்கெ": 5998,
      "##மாவா": 5999,
      "வீரா": 6000,
      "##ங்குகிறது": 6001,
      "##லித்": 6002,
      "##தாஸ்": 6003,
      "பின்பு": 6004,
      "முக்கியம்": 6005,
      "நோட்ட": 6006,
      "அளவிலான": 6007,
      "##ஸ்டி": 6008,
      "செலுத்து": 6009,
      "நடந்துள்ளது": 6010,
      "பல்கலைக்கழகத்தின்": 6011,
      "தாக்கத்தை": 6012,
      "ஆலய": 6013,
      "ஒளிபர": 6014,
      "செல்போன்": 6015,
      "ரோஹித்": 6016,
      "நீலகிரி": 6017,
      "ஆணை": 6018,
      "எக்ஸ்": 6019,
      "மாடல்": 6020,
      "##ிடமும்": 6021,
      "நோக்கம்": 6022,
      "சொல்லும்": 6023,
      "தினசரி": 6024,
      "செய்வதற்கு": 6025,
      "ள்ளது": 6026,
      "மறைந்த": 6027,
      "##ிருஷ்ணன்": 6028,
      "த்திற்கான": 6029,
      "நெட்டிச": 6030,
      "இங்க": 6031,
      "சரா": 6032,
      "சாம்": 6033,
      "சிவில்": 6034,
      "காரிய": 6035,
      "க்கொ": 6036,
      "களைக்": 6037,
      "சந்தித்தார்": 6038,
      "விழாவை": 6039,
      "இதைத்": 6040,
      "பாராட்டு": 6041,
      "மாட்டேன்": 6042,
      "ின்றன": 6043,
      "அறநிலையத்துறை": 6044,
      "இந்நிக": 6045,
      "ஐய": 6046,
      "மனம்": 6047,
      "##கார்": 6048,
      "ப்போ": 6049,
      "அதுமட்டு": 6050,
      "கணக்கெடு": 6051,
      "புகழ்": 6052,
      "ஏற்பட்டுள்ள": 6053,
      "அடங்கிய": 6054,
      "அவருடன்": 6055,
      "எமது": 6056,
      "ந்த": 6057,
      "##ப்படுத்து": 6058,
      "முற்ப": 6059,
      "##ப்பட்டார்": 6060,
      "சேர்": 6061,
      "தீபா": 6062,
      "திசை": 6063,
      "மொபை": 6064,
      "கூறியிருக்கிறார்": 6065,
      "விளையாடி": 6066,
      "வாகனங்கள்": 6067,
      "செய்தித்": 6068,
      "நேற்றைய": 6069,
      "வெவ்வேறு": 6070,
      "பிட": 6071,
      "##ாண்டு": 6072,
      "##ப்புக்கு": 6073,
      "செய்துள்ள": 6074,
      "வேண்டி": 6075,
      "##ளாவிய": 6076,
      "சனிக்கிழமை": 6077,
      "பணியிட": 6078,
      "அமலாக்கத்துறை": 6079,
      "அதிருப்தி": 6080,
      "நிவாரண": 6081,
      "##ைக்கு": 6082,
      "##சாம": 6083,
      "##ாட்டு": 6084,
      "கோப்ப": 6085,
      "##வேலி": 6086,
      "வழங்கப்பட": 6087,
      "படிப்ப": 6088,
      "தெரிவித்திருந்தார்": 6089,
      "பார்த்துக்": 6090,
      "டிரை": 6091,
      "வேலூர்": 6092,
      "ஹைதரா": 6093,
      "வாக்குறுதி": 6094,
      "is": 6095,
      "சிக": 6096,
      "##ழிக்க": 6097,
      "##ிரவு": 6098,
      "பெட்ட": 6099,
      "##ம்போது": 6100,
      "வெளியானது": 6101,
      "சிலருக்கு": 6102,
      "மாநிலத்தின்": 6103,
      "பாதிக்க": 6104,
      "தூது": 6105,
      "குழந்தைகளை": 6106,
      "காணாமல்": 6107,
      "பணிப்பாளர்": 6108,
      "இன்றி": 6109,
      "பிரதமராக": 6110,
      "சூர்யா": 6111,
      "அற்ப": 6112,
      "சக்கர": 6113,
      "தளம்": 6114,
      "பனி": 6115,
      "##பிக்க": 6116,
      "##வுள்ள": 6117,
      "பொய்": 6118,
      "ஏற்படு": 6119,
      "பாரதிய": 6120,
      "அளித்தார்": 6121,
      "##ஸ்டிக்": 6122,
      "அண்ணன்": 6123,
      "அம்ச": 6124,
      "தள்ளு": 6125,
      "உத்தியோக": 6126,
      "அமாவா": 6127,
      "ங்": 6128,
      "வார்": 6129,
      "##த்திடம்": 6130,
      "##ிடையில்": 6131,
      "வீட்டின்": 6132,
      "பின்னால்": 6133,
      "யோக": 6134,
      "வீடுகளில்": 6135,
      "பேரறி": 6136,
      "சம்பளம்": 6137,
      "தோட்ட": 6138,
      "##ழ்ச்ச": 6139,
      "இல்லைய": 6140,
      "வாயில": 6141,
      "கருத்துகளை": 6142,
      "கிளம்ப": 6143,
      "குழுவில்": 6144,
      "பானர்ஜி": 6145,
      "கன்னி": 6146,
      "லால்": 6147,
      "##ங்கர்": 6148,
      "புத்தா": 6149,
      "க்குப்": 6150,
      "வேண்டுமென": 6151,
      "நியூசில": 6152,
      "தந்து": 6153,
      "ந்": 6154,
      "##பாய": 6155,
      "##டுகள்": 6156,
      "##ர்களுக்கான": 6157,
      "பணியாளர்கள்": 6158,
      "மிகக்": 6159,
      "சம்பள": 6160,
      "தொடங்கினார்": 6161,
      "நடந்தன": 6162,
      "வளர்க்க": 6163,
      "திருநெல்": 6164,
      "மஹிந்த": 6165,
      "at": 6166,
      "சல": 6167,
      "லிட்ட": 6168,
      "##பகவ": 6169,
      "##ுடு": 6170,
      "கடலில்": 6171,
      "துறையின்": 6172,
      "##ியுள்ளன": 6173,
      "அதிகாரப்பூர்வ": 6174,
      "விரைந்து": 6175,
      "அறிவுறு": 6176,
      "பிரிட்டிஷ்": 6177,
      "த்திற்காக": 6178,
      "இடையேயான": 6179,
      "பிரியங்கா": 6180,
      "ஏர்": 6181,
      "ஏற்றி": 6182,
      "பத்": 6183,
      "##துக்க": 6184,
      "கொண்டுள்ளது": 6185,
      "காணப்படும்": 6186,
      "தெரிவித்திருக்கிறார்": 6187,
      "பைடன்": 6188,
      "டாஸ்": 6189,
      "ஆதித்ய": 6190,
      "##டித்து": 6191,
      "நாளித": 6192,
      "அந்தச்": 6193,
      "முடிவ": 6194,
      "கலந்த": 6195,
      "கணக்க": 6196,
      "அறிவித்தார்": 6197,
      "படிக்கும்": 6198,
      "நடித்து": 6199,
      "பயணத்தை": 6200,
      "மண்டபத்தில்": 6201,
      "ஆரம்பிக்க": 6202,
      "##ேஷ": 6203,
      "##னையாக": 6204,
      "##சாரி": 6205,
      "கிரா": 6206,
      "இயக்கம்": 6207,
      "195": 6208,
      "ிறார்கள்": 6209,
      "ஆச்சரிய": 6210,
      "ar": 6211,
      "ஊட": 6212,
      "##ஸுக்கு": 6213,
      "வேட்பு": 6214,
      "சுக்கிர": 6215,
      "##மாக்க": 6216,
      "பாஜகவில்": 6217,
      "தோற்ற": 6218,
      "தோனி": 6219,
      "அறிவித்து": 6220,
      "வெற்றிபெ": 6221,
      "எளிதாக": 6222,
      "ணும்": 6223,
      "யில": 6224,
      "ரவீ": 6225,
      "##ஸ்கள்": 6226,
      "##வுன்": 6227,
      "கோட்டா": 6228,
      "ஆண்டுக்கு": 6229,
      "தாக்கம்": 6230,
      "குறித்துப்": 6231,
      "தமிழகத்தின்": 6232,
      "அறிவிக்கப்பட்ட": 6233,
      "தவிர்த்து": 6234,
      "ஏற்பாடுகள்": 6235,
      "மேலே": 6236,
      "பிரசாரம்": 6237,
      "அலங்காரத்தில்": 6238,
      "திருமாவள": 6239,
      "சமுதாய": 6240,
      "##ro": 6241,
      "##ல்லி": 6242,
      "இருந்ததால்": 6243,
      "வந்தாலும்": 6244,
      "சமேத": 6245,
      "கட்டப்பட்ட": 6246,
      "எழுத்த": 6247,
      "மாணவர்களின்": 6248,
      "ஆட்டோ": 6249,
      "கெஜ்ரி": 6250,
      "மார்க": 6251,
      "திருவள்ள": 6252,
      "##ஜென்": 6253,
      "வேளாண்": 6254,
      "அத்தகைய": 6255,
      "எலி": 6256,
      "##மடைந்து": 6257,
      "செங்கல்": 6258,
      "மாறிய": 6259,
      "##மைக்க": 6260,
      "##முறையில்": 6261,
      "ராமேஸ்வர": 6262,
      "சித்திரை": 6263,
      "முடிகிறது": 6264,
      "பழக்க": 6265,
      "நிர்ணய": 6266,
      "லட்சத்து": 6267,
      "##ஷ்டி": 6268,
      "வேலையில்": 6269,
      "புதின்": 6270,
      "காஞ்சிபுரம்": 6271,
      "தஞ்சாவூர்": 6272,
      "கன்னியாகுமரி": 6273,
      "ஊராட்சி": 6274,
      "நந்த": 6275,
      "மந்திர": 6276,
      "##பட்டி": 6277,
      "##ரங்கு": 6278,
      "##வலம்": 6279,
      "##ண்டல்": 6280,
      "காயம்": 6281,
      "கடமை": 6282,
      "புஷ": 6283,
      "புயல்": 6284,
      "பரீ": 6285,
      "பாலஸ்த": 6286,
      "ஜெக": 6287,
      "செய்கிறார்": 6288,
      "கவனமாக": 6289,
      "சுதந்திரம்": 6290,
      "தாமத": 6291,
      "விழிப்புணர்வு": 6292,
      "தீபாராதனை": 6293,
      "னாலும்": 6294,
      "ஷேக்": 6295,
      "##னையும்": 6296,
      "##ஜர்": 6297,
      "பெர்": 6298,
      "##ஸ்வரி": 6299,
      "பாவ": 6300,
      "மூர்த்தி": 6301,
      "##னுடன்": 6302,
      "இடங்களிலும்": 6303,
      "அனும": 6304,
      "தொடர்பாளர்": 6305,
      "##றையின": 6306,
      "சொல்லிய": 6307,
      "அளவிற்கு": 6308,
      "சந்திப்பில்": 6309,
      "கொள்கிறேன்": 6310,
      "##மூர்த்தி": 6311,
      "சகோதரர்": 6312,
      "சிக்ஸ": 6313,
      "##ியாவில்": 6314,
      "துன்பு": 6315,
      "##ாமல": 6316,
      "உத்தவ்": 6317,
      "சிவன்": 6318,
      "ிறோம்": 6319,
      "தொடக்கத்தில்": 6320,
      "பங்கேற்றனர்": 6321,
      "##மிக்ரான்": 6322,
      "அற்புத": 6323,
      "இத்": 6324,
      "நள்ள": 6325,
      "##தில்லை": 6326,
      "##ங்க்": 6327,
      "குறைய": 6328,
      "இரவில்": 6329,
      "வரவு": 6330,
      "எழுப்பி": 6331,
      "குறைந்தது": 6332,
      "மேற்கொள்": 6333,
      "அதிகரித்த": 6334,
      "திறந்த": 6335,
      "விதிமுறை": 6336,
      "ஹிந்து": 6337,
      "சூரியன்": 6338,
      "அதிர்ச்சிய": 6339,
      "மைதானத்தில்": 6340,
      "இதேபோல்": 6341,
      "கோரிக்கையை": 6342,
      "அண்டை": 6343,
      "##கிரி": 6344,
      "விசா": 6345,
      "சந்தர்": 6346,
      "பழனிசாம": 6347,
      "விற்": 6348,
      "அந்ந": 6349,
      "நிபுணர்": 6350,
      "குதிரை": 6351,
      "சதி": 6352,
      "மல்": 6353,
      "##மின்றி": 6354,
      "##ெடுத்த": 6355,
      "இந்திரா": 6356,
      "இருக்கிறோம்": 6357,
      "##ட்டிங்": 6358,
      "என்னென்ன": 6359,
      "யாத்திரை": 6360,
      "அரசாங்கத்தின்": 6361,
      "விஷயத்தில்": 6362,
      "ஹெல": 6363,
      "பண்டிகை": 6364,
      "அன்றைய": 6365,
      "தொலைக்காட்சி": 6366,
      "தங்கி": 6367,
      "##ம்மை": 6368,
      "வருப": 6369,
      "##டுத்தப்பட்ட": 6370,
      "ப்ள": 6371,
      "கிராம்": 6372,
      "##போதும்": 6373,
      "அலங்காரம்": 6374,
      "கட்டுப்பாட்டில்": 6375,
      "படையினர்": 6376,
      "உள்ளாட்சித்": 6377,
      "செல்வாக்கு": 6378,
      "ஏதும்": 6379,
      "தாலி": 6380,
      "ரின்": 6381,
      "##னிய": 6382,
      "##ve": 6383,
      "##ூன்": 6384,
      "##ாராம்": 6385,
      "காப்பு": 6386,
      "சிசி": 6387,
      "மாதங்களாக": 6388,
      "பகுதிக்கு": 6389,
      "எல்லையில்": 6390,
      "##வியும்": 6391,
      "தன்மை": 6392,
      "அப்போதைய": 6393,
      "ிறார்": 6394,
      "நம்மு": 6395,
      "பெயர்ச்சி": 6396,
      "துவங்கி": 6397,
      "உரிமைகள்": 6398,
      "##வாதிகள்": 6399,
      "அறிமுகம்": 6400,
      "குற்றச்சாட்டுகள்": 6401,
      "விருதுநகர்": 6402,
      "பேட்டியில்": 6403,
      "கலந்துகொண்டனர்": 6404,
      "பத்திரிகையாளர்": 6405,
      "சஞ்சய்": 6406,
      "நியமனம்": 6407,
      "அன்": 6408,
      "பழக": 6409,
      "##டிகள்": 6410,
      "##ச்சல": 6411,
      "பேட்": 6412,
      "சந்தையில்": 6413,
      "150": 6414,
      "லாபம்": 6415,
      "எச்சரிக்க": 6416,
      "ஆரம்பித்த": 6417,
      "விரும்பவில்லை": 6418,
      "சலு": 6419,
      "மந்த": 6420,
      "லஞ்ச": 6421,
      "##டையும்": 6422,
      "##்டன்": 6423,
      "##ப்பய": 6424,
      "பாரதி": 6425,
      "கட்டாயம்": 6426,
      "அனைவரையும்": 6427,
      "நேரடி": 6428,
      "இல்லையா": 6429,
      "பாலத்தீ": 6430,
      "##ிற்கும்": 6431,
      "சிறுபான்": 6432,
      "நுண்ண": 6433,
      "வேட்பாளர்கள்": 6434,
      "திரும்பிய": 6435,
      "ஆசிரியர்கள்": 6436,
      "இளவர": 6437,
      "அம்பேத": 6438,
      "பகவான": 6439,
      "ஏமாற்ற": 6440,
      "சிஎஸ்கே": 6441,
      "34": 6442,
      "சில்": 6443,
      "மங்க": 6444,
      "##மில்": 6445,
      "நீரா": 6446,
      "த்தோடு": 6447,
      "##மையா": 6448,
      "விடாமல்": 6449,
      "லாப": 6450,
      "மட்டும்தான்": 6451,
      "வேகத்தில்": 6452,
      "மாட்டோம்": 6453,
      "தேர்வில்": 6454,
      "கருதப்படுகிறது": 6455,
      "நெட்டிசன்கள்": 6456,
      "38": 6457,
      "சோத": 6458,
      "தால": 6459,
      "##ட்டிக்": 6460,
      "செயலி": 6461,
      "பாடி": 6462,
      "முதற்க": 6463,
      "ராவ்": 6464,
      "மெல்ல": 6465,
      "தைரிய": 6466,
      "கொடுப்ப": 6467,
      "தாயார்": 6468,
      "உட்பட்ட": 6469,
      "##த்தொடர்ந்து": 6470,
      "ாக": 6471,
      "##லமாக": 6472,
      "##பூ": 6473,
      "அவற்றின்": 6474,
      "புதை": 6475,
      "குறைவு": 6476,
      "குறைபாடு": 6477,
      "எதிர்வரும்": 6478,
      "அணிந்த": 6479,
      "மறுப": 6480,
      "வலது": 6481,
      "சிகிச்ச": 6482,
      "அமித்ஷா": 6483,
      "டூ": 6484,
      "##ிழ": 6485,
      "என்னால்": 6486,
      "நாளாக": 6487,
      "ஒருவருக்கு": 6488,
      "##ாமே": 6489,
      "##சியை": 6490,
      "க்களை": 6491,
      "சீமான்": 6492,
      "பதற்றம்": 6493,
      "இந்தியர்கள்": 6494,
      "கருவ": 6495,
      "##ப்படுத்தும்": 6496,
      "வழக்குப்பதிவு": 6497,
      "சங்கம்": 6498,
      "மார்க்க": 6499,
      "புலன": 6500,
      "செவ்வாய": 6501,
      "ஊக்குவி": 6502,
      "ஆய்வாளர்கள்": 6503,
      "44": 6504,
      "ஓவர்களில்": 6505,
      "##றது": 6506,
      "நாடாக": 6507,
      "அரவிந்த்": 6508,
      "பொற": 6509,
      "பாதிப்பை": 6510,
      "விலக்கு": 6511,
      "ஒன்றும்": 6512,
      "வழிபா": 6513,
      "பணிபுரி": 6514,
      "ஆனந்த்": 6515,
      "ஹோமம்": 6516,
      "செயலாளர்கள்": 6517,
      "எதிர்க்கட்சித்": 6518,
      "இதன்போது": 6519,
      "ஜாமீன்": 6520,
      "மெய": 6521,
      "பொன்ன": 6522,
      "கைவிட": 6523,
      "டிவி": 6524,
      "பாதுகாப்பாக": 6525,
      "தொடங்கும்": 6526,
      "சுவார": 6527,
      "செலுத்திய": 6528,
      "இதற்குப்": 6529,
      "நிகழ்ச்சிகள்": 6530,
      "தளத்தில்": 6531,
      "எழுப்பிய": 6532,
      "உதாரணமாக": 6533,
      "ஒன்றிணை": 6534,
      "de": 6535,
      "ஐந்த": 6536,
      "##ஒதுக்க": 6537,
      "மான்": 6538,
      "கோவிட்": 6539,
      "##ராத்திரி": 6540,
      "சுத்த": 6541,
      "பணிக்கு": 6542,
      "விவசாயம்": 6543,
      "வீடியோவை": 6544,
      "மாறியது": 6545,
      "சிறுவன்": 6546,
      "கமிஷ": 6547,
      "வித்தியாசத்தில்": 6548,
      "சாம்பியன்": 6549,
      "நன்கு": 6550,
      "##di": 6551,
      "##ார்த்த": 6552,
      "கட்டத்தில்": 6553,
      "செய்வதாக": 6554,
      "வயதுக்கு": 6555,
      "கலைஞ": 6556,
      "கைப்பற்றி": 6557,
      "சூழ்நிலையில்": 6558,
      "இழுத்து": 6559,
      "ஒடிசா": 6560,
      "er": 6561,
      "சச்ச": 6562,
      "தரம்": 6563,
      "பவர்": 6564,
      "##வசிய": 6565,
      "முறையை": 6566,
      "கொஞ்ச": 6567,
      "பதிவிட்ட": 6568,
      "பூர்த்தி": 6569,
      "தகவலை": 6570,
      "##ள்களை": 6571,
      "ப்படுவது": 6572,
      "சம்பவத்தில்": 6573,
      "வாழ்ந்து": 6574,
      "நாயகம்": 6575,
      "டிகிரி": 6576,
      "ஆற்றில்": 6577,
      "தற்கான": 6578,
      "பாகு": 6579,
      "லின்": 6580,
      "தொட்ட": 6581,
      "தேட": 6582,
      "##சித்த": 6583,
      "ஆண்டுதோ": 6584,
      "##ப்பாட்டை": 6585,
      "கிங்": 6586,
      "இல்லா": 6587,
      "உத்தரவிட்ட": 6588,
      "நிர்வாகி": 6589,
      "##வெட்டு": 6590,
      "கர்நாடகாவில்": 6591,
      "எக்ஸ்ப": 6592,
      "சர்க்கரை": 6593,
      "தினகரன்": 6594,
      "ஆண்டுதோறும்": 6595,
      "##செ": 6596,
      "##பில்": 6597,
      "##மய": 6598,
      "##us": 6599,
      "##றிவு": 6600,
      "நாளுக்கு": 6601,
      "2000": 6602,
      "பிறகும்": 6603,
      "எழுந்தது": 6604,
      "நெகி": 6605,
      "பழமையான": 6606,
      "அறிவிக்க": 6607,
      "விராட்": 6608,
      "போராட்டத்தை": 6609,
      "##வெளியில்": 6610,
      "அனுமதிக்கப்பட்ட": 6611,
      "வாழ்ந்த": 6612,
      "ஊடகங்கள்": 6613,
      "ing": 6614,
      "ஆண்டுகளுக்குப்": 6615,
      "ஓய்வூ": 6616,
      "புகைப்படம்": 6617,
      "பாதையில்": 6618,
      "தென்காசி": 6619,
      "காய்ச்சல்": 6620,
      "வெற்றிகரமாக": 6621,
      "மடங்கு": 6622,
      "ரங்க": 6623,
      "##ொலி": 6624,
      "##ur": 6625,
      "##நாட்டின்": 6626,
      "அமர": 6627,
      "சூடு": 6628,
      "அறிவிக்கப்பட்டுள்ளது": 6629,
      "விலையை": 6630,
      "வாரிய": 6631,
      "தினேஷ்": 6632,
      "பேசியது": 6633,
      "வழிவகு": 6634,
      "யுள்ளார்": 6635,
      "அனுபவம்": 6636,
      "சொல்கிறார்": 6637,
      "அந்நாட்டு": 6638,
      "பதவியே": 6639,
      "பதிவிட்டுள்ளார்": 6640,
      "மசூதி": 6641,
      "பட்சத்தில்": 6642,
      "do": 6643,
      "ஒத்தி": 6644,
      "ஹர்": 6645,
      "கிடந்த": 6646,
      "##வீன்": 6647,
      "கொள்ளுங்கள்": 6648,
      "செயல்படும்": 6649,
      "யுள்ள": 6650,
      "##ராஜர்": 6651,
      "ரீதியில்": 6652,
      "நாயுடு": 6653,
      "ஆரம்பத்தில்": 6654,
      "ின்றனர்": 6655,
      "கேரளாவில்": 6656,
      "new": 6657,
      "\"..": 6658,
      "ஏழ": 6659,
      "##ுமாறு": 6660,
      "என்னும்": 6661,
      "உணவக": 6662,
      "நிர்மலா": 6663,
      "பகுதிகள்": 6664,
      "மறுக்க": 6665,
      "உக்ரைனில்": 6666,
      "பிரச்சார": 6667,
      "தயாரிப்பு": 6668,
      "போதைப்ப": 6669,
      "##வாறான": 6670,
      "முதற்கட்ட": 6671,
      "on": 6672,
      "னார்கள்": 6673,
      "##ீஷ்": 6674,
      "##ட்டார்": 6675,
      "##ம்பெய": 6676,
      "பேரி": 6677,
      "##லாள": 6678,
      "இடஒதுக்க": 6679,
      "உலகக்கோ": 6680,
      "பதவிக்கு": 6681,
      "செய்யப்பட்டுள்ள": 6682,
      "சைக்கி": 6683,
      "பின்னணியில்": 6684,
      "கிலோமீ": 6685,
      "அணுகு": 6686,
      "ஐடி": 6687,
      "கின்": 6688,
      "புவ": 6689,
      "பச்சை": 6690,
      "##சீர": 6691,
      "##வற்ற": 6692,
      "##த்தோடு": 6693,
      "##ையன்": 6694,
      "##தித்த": 6695,
      "பிரமுக": 6696,
      "##ிருந்தால்": 6697,
      "வரைய": 6698,
      "மோடியை": 6699,
      "கணபதி": 6700,
      "உதவு": 6701,
      "மறுசீர": 6702,
      "மதுரையில்": 6703,
      "பொருளாதாரத்தை": 6704,
      "கொடுமை": 6705,
      "வேறுபாடு": 6706,
      "ரிஷ": 6707,
      "விண்ணப்ப": 6708,
      "கல்யாண": 6709,
      "தள்ளுபடி": 6710,
      "ஆற": 6711,
      "தரை": 6712,
      "##ிராம்": 6713,
      "பாச": 6714,
      "முதன்மை": 6715,
      "துர": 6716,
      "அமைப்பை": 6717,
      "வளர்ந்த": 6718,
      "அக்கட்ச": 6719,
      "லெப": 6720,
      "நிதியமைச்ச": 6721,
      "பேட்டிங்": 6722,
      "பேசினோம்": 6723,
      "திருநெல்வேலி": 6724,
      "சம்ம": 6725,
      "பத்த": 6726,
      "பற்றா": 6727,
      "மஹா": 6728,
      "நிலவி": 6729,
      "களோ": 6730,
      "களம்": 6731,
      "களோடு": 6732,
      "போட்டிகள்": 6733,
      "வைத்தது": 6734,
      "பேரூ": 6735,
      "அறக்கட்ட": 6736,
      "##ப்பூரில்": 6737,
      "##க்காரர்கள்": 6738,
      "எதிர்பார்ப்பு": 6739,
      "65": 6740,
      "ra": 6741,
      "டின்": 6742,
      "பன்": 6743,
      "பட்டி": 6744,
      "பலாத": 6745,
      "##ீனம்": 6746,
      "காட்டிய": 6747,
      "அவள்": 6748,
      "##த்ர": 6749,
      "நேபாள": 6750,
      "##நாட்ட": 6751,
      "கூறப்பட்டது": 6752,
      "சீதார": 6753,
      "இங்குள்ள": 6754,
      "மிரட்டல்": 6755,
      "காந்தியின்": 6756,
      "ஜனாதிபதியின்": 6757,
      "மோடியின்": 6758,
      "ராமநாதபுரம்": 6759,
      "பலாத்க": 6760,
      "அவுட்": 6761,
      "உண்ண": 6762,
      "##குவ": 6763,
      "முற்று": 6764,
      "ஒருபோதும்": 6765,
      "நிலவர": 6766,
      "வாதி": 6767,
      "நீக்கம்": 6768,
      "நிம்ம": 6769,
      "பலமுறை": 6770,
      "இடத்துக்கு": 6771,
      "சாப்பிட்ட": 6772,
      "கிளை": 6773,
      "விலிருந்து": 6774,
      "நடத்தப்பட்டு": 6775,
      "இஸ்ரேலிய": 6776,
      "வரவேற்க": 6777,
      "அமர்வு": 6778,
      "ட்டும்": 6779,
      "பிரச்சினைகள்": 6780,
      "கண்டித்து": 6781,
      "திரிணா": 6782,
      "ஷர்மா": 6783,
      "வீராங்க": 6784,
      "பற்ற": 6785,
      "##ேர்": 6786,
      "##னையின்": 6787,
      "##வற்றை": 6788,
      "##என்": 6789,
      "போரை": 6790,
      "கோவையில்": 6791,
      "என்றனர்": 6792,
      "படிப்பு": 6793,
      "நிறுவனங்களின்": 6794,
      "தெரிவித்தது": 6795,
      "தெரிவிக்கின்றன": 6796,
      "பீகார்": 6797,
      "ரீதியான": 6798,
      "பற்றியும்": 6799,
      "விகிதம்": 6800,
      "சலுகை": 6801,
      "உங்களின்": 6802,
      "##பற்றி": 6803,
      "##நடை": 6804,
      "##மிக்க": 6805,
      "புல்": 6806,
      "வந்தன": 6807,
      "அதிகாரிகளுக்கு": 6808,
      "போட்டியை": 6809,
      "நாடுகளும்": 6810,
      "பள்ளிகளில்": 6811,
      "முழுமையான": 6812,
      "கேட்டபோது": 6813,
      "க்கூட": 6814,
      "பறவை": 6815,
      "பிரசாத்": 6816,
      "தொழிற்சாலை": 6817,
      "சட்டப்பேரவை": 6818,
      "கதாபாத்திர": 6819,
      "39": 6820,
      "ஏக": 6821,
      "டிக்கெட்": 6822,
      "ஸார்": 6823,
      "ஹர்த": 6824,
      "##வியில்": 6825,
      "##le": 6826,
      "##ாரின்": 6827,
      "மேடையில்": 6828,
      "திண": 6829,
      "சீட்": 6830,
      "கர்ப்ப": 6831,
      "நம்மிடம்": 6832,
      "பரிசீ": 6833,
      "##ப்பேட்டை": 6834,
      "தூதரக": 6835,
      "வாயிலாக": 6836,
      "திரிணாமுல்": 6837,
      "கந்த": 6838,
      "பண்": 6839,
      "ரமேஷ்": 6840,
      "லூ": 6841,
      "ாள்": 6842,
      "##சல": 6843,
      "##ரணி": 6844,
      "##ர்ண": 6845,
      "இருத": 6846,
      "போடு": 6847,
      "##ணிக்க": 6848,
      "கோய": 6849,
      "வழங்கப்பட்டுள்ளது": 6850,
      "நிகழ்த்த": 6851,
      "கருப்பு": 6852,
      "பேசும்போது": 6853,
      "உத்தரவை": 6854,
      "பாலின": 6855,
      "வாக்குப்பதிவு": 6856,
      "உருவாக்கப்பட்ட": 6857,
      "நிதிஷ்": 6858,
      "வரவேற்ப": 6859,
      "நாளான": 6860,
      "பாண்டியன்": 6861,
      "மீனவர்கள்": 6862,
      "அழகு": 6863,
      "பயங்கரவாத": 6864,
      "பிரசாத": 6865,
      "கொடூர": 6866,
      "சுரேஷ்": 6867,
      "##ெண்ட்": 6868,
      "குட": 6869,
      "பென்": 6870,
      "நடன": 6871,
      "சுந்தர": 6872,
      "உணர": 6873,
      "பாதுகாப்பான": 6874,
      "அறிவித்தது": 6875,
      "திறக்க": 6876,
      "போட்டியி": 6877,
      "வேண்டுகோ": 6878,
      "சேவைகள்": 6879,
      "மேற்பட்டோர்": 6880,
      "செய்கிறது": 6881,
      "நெடுஞ்சா": 6882,
      "முதலீட்ட": 6883,
      "அருள்பாலி": 6884,
      "கிலோமீட்டர்": 6885,
      "னேன்": 6886,
      "பழி": 6887,
      "##்டில்": 6888,
      "##ார்க்க": 6889,
      "மாட": 6890,
      "தொல்லை": 6891,
      "##ம்பிக்க": 6892,
      "பலம்": 6893,
      "எழுத்து": 6894,
      "தரப்பினர்": 6895,
      "தூரம்": 6896,
      "மாணவியின்": 6897,
      "தருண": 6898,
      "காய்க": 6899,
      "பணியாற்றிய": 6900,
      "##வலர்கள்": 6901,
      "சனாத": 6902,
      "மீன்பிடி": 6903,
      "கடற்கரை": 6904,
      "கொடியேற்றத்துடன்": 6905,
      "சுற்றுச்சூழல்": 6906,
      "##ஐடி": 6907,
      "##ண்டிய": 6908,
      "முறையும்": 6909,
      "கோடை": 6910,
      "பொழுது": 6911,
      "மீம்": 6912,
      "சாட்ட": 6913,
      "அருணா": 6914,
      "பள்ளிக்க": 6915,
      "பிரிவின்": 6916,
      "இன்னிங்": 6917,
      "பாதுகாப்புப்": 6918,
      "மாணவர்களை": 6919,
      "டிரா": 6920,
      "கால்நடை": 6921,
      "உற்சவ": 6922,
      "பன்னீர்செல்வ": 6923,
      "##ிகளிடம்": 6924,
      "சபையின்": 6925,
      "உண்டாகும்": 6926,
      "அங்கீகாரம்": 6927,
      "மாளிகை": 6928,
      "நய": 6929,
      "ராய்": 6930,
      "##ரையும்": 6931,
      "##யு": 6932,
      "##த்திற": 6933,
      "##ரிக்கப்பட்ட": 6934,
      "அவதூ": 6935,
      "##ம்பை": 6936,
      "பணியாள": 6937,
      "முன்னெடு": 6938,
      "##ஞ்சை": 6939,
      "கைதி": 6940,
      "ராஜீவ்": 6941,
      "முக்கியமாக": 6942,
      "எந்தப்": 6943,
      "உலகளாவிய": 6944,
      "மாற்றிய": 6945,
      "மக்களவை": 6946,
      "நெருக்கமான": 6947,
      "விதமான": 6948,
      "கரூர்": 6949,
      "##ப்பிரிவு": 6950,
      "மொபைல்": 6951,
      "நம்முடைய": 6952,
      "நெடுஞ்சாலை": 6953,
      "##ிருத்த": 6954,
      "காள": 6955,
      "இருக்கிறேன்": 6956,
      "வரலாம்": 6957,
      "வரையிலான": 6958,
      "படங்களில்": 6959,
      "விட்டன": 6960,
      "விட்டேன்": 6961,
      "புகார்கள்": 6962,
      "ிருந்தாலும்": 6963,
      "மதிப்பெ": 6964,
      "வளர்ந்து": 6965,
      "உடல்நிலை": 6966,
      "யூடிய": 6967,
      "##மெண்ட்": 6968,
      "விரிவான": 6969,
      "கண்டுபிடிக்க": 6970,
      "அத்தியா": 6971,
      "பச": 6972,
      "##ங்கால": 6973,
      "கூடி": 6974,
      "உத்தரவிட": 6975,
      "நகரம்": 6976,
      "பிடிக்கும்": 6977,
      "பொறுப்பே": 6978,
      "கேட்டார்": 6979,
      "வீடியோவில்": 6980,
      "ரிசர்": 6981,
      "அனுபவி": 6982,
      "ஏனைய": 6983,
      "பெங்களூர்": 6984,
      "முன்னெடுக்க": 6985,
      "நூற்றாண்டு": 6986,
      "நியூசிலாந்து": 6987,
      "வறு": 6988,
      "##நட": 6989,
      "##ியான்": 6990,
      "விக்கிர": 6991,
      "குறையும்": 6992,
      "செய்ப": 6993,
      "நாட்டிற்கு": 6994,
      "வேளையில்": 6995,
      "கடலூர்": 6996,
      "செய்திருந்தனர்": 6997,
      "ராவ": 6998,
      "##ப்படுவது": 6999,
      "பெய்து": 7000,
      "திமுகவின்": 7001,
      "பகுதிகளை": 7002,
      "ஆதரவை": 7003,
      "வழக்கமான": 7004,
      "நெருங்கிய": 7005,
      "சங்கத்தின்": 7006,
      "ஆனது": 7007,
      "மறைமுக": 7008,
      "ுள்ளதாகவும்": 7009,
      "அர்ப்பணி": 7010,
      "காத்திருக்க": 7011,
      "விவரங்களை": 7012,
      "ஒற்றுமை": 7013,
      "அசோக்": 7014,
      "ed": 7015,
      "ஃபோ": 7016,
      "சாம": 7017,
      "##ணும்": 7018,
      "##வுக்கும்": 7019,
      "நடமா": 7020,
      "##ுவில்": 7021,
      "புரம்": 7022,
      "நிபந்த": 7023,
      "தூங்க": 7024,
      "கவல": 7025,
      "ுவதால்": 7026,
      "என்பதைப்": 7027,
      "##கேஷ்": 7028,
      "யோசனை": 7029,
      "நிகழ்வுகள்": 7030,
      "இவர்களுக்கு": 7031,
      "கொண்டாடி": 7032,
      "கழகம்": 7033,
      "முன்னேற்றம்": 7034,
      "எழுந்தருளி": 7035,
      "வைரலாகி": 7036,
      "புலனாய்வு": 7037,
      "அத்தியாவசிய": 7038,
      "01": 7039,
      "##ளோ": 7040,
      "##மயம்": 7041,
      "மாறும்": 7042,
      "ராசா": 7043,
      "பலவீன": 7044,
      "நேர்த்த": 7045,
      "கொண்டிருக்கிறார்": 7046,
      "##காந்த்": 7047,
      "##ணையின்": 7048,
      "மறுநாள்": 7049,
      "சிரே": 7050,
      "பரவல்": 7051,
      "ஆப்கானிஸ்தான்": 7052,
      "ஒன்பது": 7053,
      "ாங்க": 7054,
      "##வுள்ளது": 7055,
      "புதன்": 7056,
      "மீத": 7057,
      "நீங்கும்": 7058,
      "வைக்கப்பட்டது": 7059,
      "பாதிக்கும்": 7060,
      "பயன்படுத்தும்": 7061,
      "முடிவுகளை": 7062,
      "மனைவ": 7063,
      "தமிழில்": 7064,
      "ஃபே": 7065,
      "செய்வதற்கான": 7066,
      "செயற்பாடு": 7067,
      "எல்லோரும்": 7068,
      "பவுண்டரி": 7069,
      "சிசிடிவி": 7070,
      "சத்தம்": 7071,
      "ட்டு": 7072,
      "னோம்": 7073,
      "செள": 7074,
      "கொந்த": 7075,
      "##ல்லிக்க": 7076,
      "கூற்று": 7077,
      "##வாங்க": 7078,
      "##காசி": 7079,
      "படப்பிடி": 7080,
      "வீரர்களை": 7081,
      "அப்படிய": 7082,
      "ப்படுவதாக": 7083,
      "எதிர்பாராத": 7084,
      "விரிவாக": 7085,
      "அய்ய": 7086,
      "நுழைந்த": 7087,
      "பசுமை": 7088,
      "ஏக்": 7089,
      "தில": 7090,
      "##தற்கான": 7091,
      "##ol": 7092,
      "##கத்தின்": 7093,
      "##வலர்": 7094,
      "இருவர்": 7095,
      "##வைத்து": 7096,
      "பழநி": 7097,
      "பார்க்கப்படுகிறது": 7098,
      "தீர்ப்பை": 7099,
      "குழுக்கள்": 7100,
      "மறுத்த": 7101,
      "ஊழியர்": 7102,
      "வருடங்களாக": 7103,
      "போனது": 7104,
      "ங்களிலும்": 7105,
      "மாலையில்": 7106,
      "வழக்கறிஞ": 7107,
      "கமிட்டி": 7108,
      "மறக்க": 7109,
      "நியமன": 7110,
      "பாளையம்": 7111,
      "புற்றுநோய்": 7112,
      "47": 7113,
      "600": 7114,
      "விவே": 7115,
      "விண்க": 7116,
      "##றிந்த": 7117,
      "நாய்": 7118,
      "##ுவதற்கு": 7119,
      "ஒருவரின்": 7120,
      "வயதி": 7121,
      "ஆராய்": 7122,
      "நிறைவ": 7123,
      "முயற்சியில்": 7124,
      "சமர்ப்பிக்க": 7125,
      "சமீபத்திய": 7126,
      "நோட்டீஸ்": 7127,
      "சீதாராம": 7128,
      "சிரேஷ்ட": 7129,
      "ஓரி": 7130,
      "இருந்தவர்": 7131,
      "மக்களும்": 7132,
      "இலட்ச": 7133,
      "கூறினர்": 7134,
      "ஆட்சிய": 7135,
      "##ஸ்கி": 7136,
      "அபாய": 7137,
      "மேம்பாட்டு": 7138,
      "தொழில்நுட்பம்": 7139,
      "கடிதத்தில்": 7140,
      "குடியிருப்பு": 7141,
      "ட்வீட்": 7142,
      "ஈடு": 7143,
      "லில்": 7144,
      "##லத்தை": 7145,
      "##க்குமாறு": 7146,
      "##ாரர்": 7147,
      "அவர்களில்": 7148,
      "பரப்பு": 7149,
      "கட்சிகளும்": 7150,
      "பட்டம்": 7151,
      "##ிற்கான": 7152,
      "அதற்குப்": 7153,
      "ஃபார்": 7154,
      "தரிசன": 7155,
      "வனத்துறை": 7156,
      "வாக்களிக்க": 7157,
      "நடவடிக்கையை": 7158,
      "குழந்தையின்": 7159,
      "பங்களிப்பு": 7160,
      "ராசிக்காரர்களுக்கு": 7161,
      "49": 7162,
      "ஊருக்கு": 7163,
      "மஹ": 7164,
      "யிலேயே": 7165,
      "லிருந்து": 7166,
      "##ch": 7167,
      "அமைக்கப்பட்ட": 7168,
      "சேன": 7169,
      "மூளை": 7170,
      "பிழை": 7171,
      "##ளியை": 7172,
      "விருந்த": 7173,
      "விடய": 7174,
      "##ப்பெரு": 7175,
      "கண்ணாடி": 7176,
      "உற்சவம்": 7177,
      "உச்சநீதிமன்றம்": 7178,
      "ஐரோப்பா": 7179,
      "மாளிக": 7180,
      "போன்றவற்றை": 7181,
      "மட்டக்கள": 7182,
      "ஹீரோ": 7183,
      "en": 7184,
      "ஓமிக்ரான்": 7185,
      "##மதா": 7186,
      "##ெந்த": 7187,
      "##ce": 7188,
      "##kat": 7189,
      "முட்டை": 7190,
      "முன்க": 7191,
      "வருவதற்கு": 7192,
      "செய்தியாளர்": 7193,
      "##சிபி": 7194,
      "களிலிருந்து": 7195,
      "தாங்க": 7196,
      "##லும்பு": 7197,
      "படங்களை": 7198,
      "சீச": 7199,
      "##ப்படுத்திய": 7200,
      "194": 7201,
      "தேசியக்": 7202,
      "விதிக்க": 7203,
      "ிறேன்": 7204,
      "படைகள்": 7205,
      "கல்லூர": 7206,
      "கண்ணீர்": 7207,
      "முயற்சிகளை": 7208,
      "முக்கியமானது": 7209,
      "எரிவாய": 7210,
      "கண்காணிப்பாளர்": 7211,
      "இதற்கிடையில்": 7212,
      "பிரதிநிதிகள்": 7213,
      "##ப்பதால்": 7214,
      "செக்": 7215,
      "##ிகர்": 7216,
      "குண்ட": 7217,
      "மாய": 7218,
      "பொய்ய": 7219,
      "வந்திருக்க": 7220,
      "மனுவை": 7221,
      "கருத்துக்களை": 7222,
      "தனித்து": 7223,
      "ஆனந்த": 7224,
      "மக்களவைத்": 7225,
      "குழுவை": 7226,
      "##த்தொகை": 7227,
      "காட்டுகிறது": 7228,
      "கலாநிதி": 7229,
      "தெலுங்கானா": 7230,
      "ரஜினி": 7231,
      "பெரும்பான்மை": 7232,
      "பிரான்ஸ்": 7233,
      "இத்த": 7234,
      "ஜு": 7235,
      "பது": 7236,
      "ஸின்": 7237,
      "##ித்த": 7238,
      "##கட்ட": 7239,
      "##ங்களுடன்": 7240,
      "கூகு": 7241,
      "தேங்க": 7242,
      "எனச்": 7243,
      "##ியாவின்": 7244,
      "க்கே": 7245,
      "##த்திற்குள்": 7246,
      "கொள்ளைய": 7247,
      "புதுக்கோட்டை": 7248,
      "பாராட்டி": 7249,
      "புறப்பட்டு": 7250,
      "மாநகராட்ச": 7251,
      "##க்கொண்டார்": 7252,
      "சுயே": 7253,
      "பாகிஸ்தானில்": 7254,
      "வாய்ப்பை": 7255,
      "மறந்து": 7256,
      "பயன்பா": 7257,
      "வேண்டுமானாலும்": 7258,
      "பேரறிவாள": 7259,
      "42": 7260,
      "அப்புற": 7261,
      "ஆபாச": 7262,
      "இத்திட்ட": 7263,
      "மலர்": 7264,
      "##ஜை": 7265,
      "##ையாளர்கள்": 7266,
      "##க்குமா": 7267,
      "##ார்க்": 7268,
      "கடலோ": 7269,
      "உள்ளதாகவும்": 7270,
      "கூறியுள்ளனர்": 7271,
      "கிளா": 7272,
      "நாடுகளை": 7273,
      "சங்கர்": 7274,
      "தமிழர்கள்": 7275,
      "மேல்முறைய": 7276,
      "அவ்வாறு": 7277,
      "பின்னடை": 7278,
      "செய்வதற்காக": 7279,
      "லீக்": 7280,
      "சர்ச்சையை": 7281,
      "வழிகாட்டு": 7282,
      "வாரிசு": 7283,
      "news": 7284,
      "ஆசி": 7285,
      "ஐஸ்": 7286,
      "##னியில்": 7287,
      "##ரச": 7288,
      "##ென்று": 7289,
      "##க்களில்": 7290,
      "இரும்பு": 7291,
      "##வைச்": 7292,
      "துறையினர்": 7293,
      "##த்தியை": 7294,
      "வராக": 7295,
      "ிருக்கிறோம்": 7296,
      "நடத்தினார்": 7297,
      "அணிகள்": 7298,
      "குடிம": 7299,
      "நண்பர்": 7300,
      "பாராளுமன்றத்தில்": 7301,
      "கேள்விகள்": 7302,
      "பராமரிப்பு": 7303,
      "திருமாவளவன்": 7304,
      "41": 7305,
      "அறையில்": 7306,
      "ஆடிய": 7307,
      "ஒட்டி": 7308,
      "ஜின்": 7309,
      "ஹாரி": 7310,
      "##ிஸ்": 7311,
      "##ளால்": 7312,
      "மாத்திரை": 7313,
      "வரும்போது": 7314,
      "பொறிய": 7315,
      "##ணைப்பு": 7316,
      "##புர்": 7317,
      "கொண்டிருந்தது": 7318,
      "கிடைத்து": 7319,
      "இதைப்": 7320,
      "செயல்படு": 7321,
      "சிவக": 7322,
      "பணிபு": 7323,
      "விமானத்தில்": 7324,
      "வாய்ப்புள்ளது": 7325,
      "கோவில்களில்": 7326,
      "##ஸ்பி": 7327,
      "நடத்தியது": 7328,
      "சுகாதாரத்துறை": 7329,
      "தொலைபேசி": 7330,
      "விநியோ": 7331,
      "வேலுமணி": 7332,
      "பிளாஸ்டிக்": 7333,
      "டக்": 7334,
      "##க்கத்தில்": 7335,
      "விவாதம்": 7336,
      "கோட": 7337,
      "இருக்கும்போது": 7338,
      "கிண": 7339,
      "ிருக்கிறேன்": 7340,
      "விட்டார்கள்": 7341,
      "வழிபட": 7342,
      "இணைப்பு": 7343,
      "மறுபுறம்": 7344,
      "இதன்மூலம்": 7345,
      "செலுத்தும்": 7346,
      "ரெண்டு": 7347,
      "##ஷிப்": 7348,
      "விளைவாக": 7349,
      "நிரூபி": 7350,
      "பழங்குடியின": 7351,
      "கடலோர": 7352,
      "யுவ": 7353,
      "##கரிக்க": 7354,
      "##யின்": 7355,
      "##ென்": 7356,
      "##ப்பகுதியில்": 7357,
      "##ச்சந்திரன்": 7358,
      "வாட்ஸ்": 7359,
      "##ரியானா": 7360,
      "ஏற்படுகிறது": 7361,
      "##ையைச்": 7362,
      "##ரேட்": 7363,
      "அதுதான்": 7364,
      "பெரும": 7365,
      "பாதிப்புகள்": 7366,
      "வெளிச்ச": 7367,
      "குழும": 7368,
      "ஜெகன்": 7369,
      "மிஸ்": 7370,
      "##ிகாப்ட": 7371,
      "உதவியுடன்": 7372,
      "1000": 7373,
      "பிரபலமான": 7374,
      "எதிர்கொண்ட": 7375,
      "கடவுள்": 7376,
      "பிரகாஷ்": 7377,
      "ஹெலிகாப்ட": 7378,
      "it": 7379,
      "கமலா": 7380,
      "லுக்கு": 7381,
      "##பின்": 7382,
      "##மறை": 7383,
      "இருவருக்கும்": 7384,
      "காசி": 7385,
      "அவரும்": 7386,
      "அரசும்": 7387,
      "வாசி": 7388,
      "வரவ": 7389,
      "நிறுவனமான": 7390,
      "எடுத்துக்கொள்ள": 7391,
      "பிரிந்து": 7392,
      "பெற்றுக்கொள்ள": 7393,
      "அப்பகுதி": 7394,
      "மும்பையில்": 7395,
      "ப்பட்டுள்ள": 7396,
      "சரண்": 7397,
      "இளம்பெ": 7398,
      "அம்மாநில": 7399,
      "காரைக்கால்": 7400,
      "vikat": 7401,
      "தீபாவளி": 7402,
      "எக்ஸ்பிர": 7403,
      "vikatan": 7404,
      "ஈரான்": 7405,
      "சத்தீ": 7406,
      "னிடம்": 7407,
      "ரகு": 7408,
      "##லட்சுமி": 7409,
      "##ீத்": 7410,
      "##கர்கள்": 7411,
      "##ணியை": 7412,
      "##ரித": 7413,
      "கடத்தல்": 7414,
      "நேரி": 7415,
      "முன்னுரிமை": 7416,
      "மாநிலங்கள": 7417,
      "நெறி": 7418,
      "ங்களுடன்": 7419,
      "குழந்தைகளின்": 7420,
      "பள்ளிகள்": 7421,
      "நீண்டகால": 7422,
      "உள்ளடக்கிய": 7423,
      "ஜாத": 7424,
      "ஜப்பான": 7425,
      "கோல": 7426,
      "மேக": 7427,
      "மோதிய": 7428,
      "ராஜ்ய": 7429,
      "ிருக்கிற": 7430,
      "விவசாயிகளுக்கு": 7431,
      "கெட்ட": 7432,
      "முறையான": 7433,
      "வரவேற்ற": 7434,
      "ஊர்வலம்": 7435,
      "ஸ்கூ": 7436,
      "அங்கீகரி": 7437,
      "##மிகு": 7438,
      "ஓராண்டு": 7439,
      "ஊக்க": 7440,
      "ரத்": 7441,
      "##ளையும்": 7442,
      "##ra": 7443,
      "குத்த": 7444,
      "போவதாக": 7445,
      "கடனை": 7446,
      "வருவதை": 7447,
      "உள்ளதால்": 7448,
      "திச": 7449,
      "வரத": 7450,
      "சாதிய": 7451,
      "முன்னிலை": 7452,
      "கட்டமாக": 7453,
      "இருப்பார்கள்": 7454,
      "##ஸ்து": 7455,
      "ஆதீன": 7456,
      "மதுபான": 7457,
      "வெள்ளம்": 7458,
      "ராமதாஸ்": 7459,
      "அபரா": 7460,
      "தலையில்": 7461,
      "##க்காரர்": 7462,
      "வேதனை": 7463,
      "சத்திய": 7464,
      "சவால்": 7465,
      "##வரிடம்": 7466,
      "##றுப்பு": 7467,
      "கொழு": 7468,
      "##வாசி": 7469,
      "##ாதை": 7470,
      "##ழிசை": 7471,
      "இருப்பார்": 7472,
      "ராஜஸ்தான": 7473,
      "அதைச்": 7474,
      "போராட்டங்கள்": 7475,
      "பள்ளிக்கு": 7476,
      "இல்லாததால்": 7477,
      "படுக": 7478,
      "தாமரை": 7479,
      "இளையராஜா": 7480,
      "பாலத்தீன": 7481,
      "ஏக்நாத்": 7482,
      "ஜடே": 7483,
      "ரும்": 7484,
      "##லேயே": 7485,
      "##னிடம்": 7486,
      "##ற்சி": 7487,
      "##மிர்": 7488,
      "பொதுக்கூ": 7489,
      "நோட்டு": 7490,
      "முயன்று": 7491,
      "##யிலில்": 7492,
      "திறப்பு": 7493,
      "யைச்": 7494,
      "வாங்கும்": 7495,
      "##ீரக": 7496,
      "உறுப்பினராக": 7497,
      "கையாள": 7498,
      "ஹோட்ட": 7499,
      "தாக்குதலுக்கு": 7500,
      "மேற்கத்திய": 7501,
      "லக்னோ": 7502,
      "ஸ்தானத்தில்": 7503,
      "சுப்பிரமணியன்": 7504,
      "ரிசர்வ்": 7505,
      "05": 7506,
      "bb": 7507,
      "ஹரியானா": 7508,
      "##நேய": 7509,
      "##ut": 7510,
      "##க்கலை": 7511,
      "##க்கடை": 7512,
      "வேல்": 7513,
      "##ிடும்": 7514,
      "பேட்ஸ்": 7515,
      "புண்ண": 7516,
      "இதுபற்றி": 7517,
      "இலக்கிய": 7518,
      "நெரிச": 7519,
      "அளித்துள்ளார்": 7520,
      "அறிவிக்கப்பட்டது": 7521,
      "அப்போதுதான்": 7522,
      "பயன்படுத்திய": 7523,
      "இஸ்ரேலின்": 7524,
      "தேர்ச்சி": 7525,
      "பல்கலைக்கழகத்தில்": 7526,
      "அக்கட்சி": 7527,
      "##த்தேர்த": 7528,
      "கடினமான": 7529,
      "ஆஜராக": 7530,
      "விமர்சித்த": 7531,
      "அதுமட்டுமல்ல": 7532,
      "ராமேஸ்வரம்": 7533,
      "அபராதம்": 7534,
      "பேட்ஸ்மே": 7535,
      "46": 7536,
      "ஆளாக": 7537,
      "ஊட்ட": 7538,
      "சம்": 7539,
      "ர்கள்": 7540,
      "ுகிறேன்": 7541,
      "##ப்பகுதி": 7542,
      "##ிற்சி": 7543,
      "காலா": 7544,
      "அவமதி": 7545,
      "அவற்றில்": 7546,
      "கோபம்": 7547,
      "செய்ததாக": 7548,
      "##ாலோ": 7549,
      "மீள": 7550,
      "சிம்ம": 7551,
      "தாத்தா": 7552,
      "##தாப": 7553,
      "டிடிவி": 7554,
      "உருவ": 7555,
      "விரோத": 7556,
      "திறமை": 7557,
      "திரும்பப்": 7558,
      "பதவியேற்ற": 7559,
      "குற்றவாளி": 7560,
      "ஜடேஜா": 7561,
      "3வது": 7562,
      "அத்து": 7563,
      "ஆள்": 7564,
      "##ed": 7565,
      "மாடு": 7566,
      "பிரேத": 7567,
      "மூடி": 7568,
      "கார்டு": 7569,
      "பணவீ": 7570,
      "##ங்களே": 7571,
      "குழந்தைக்கு": 7572,
      "சென்றுள்ளார்": 7573,
      "##ஸ்கோ": 7574,
      "##தேவி": 7575,
      "வங்கிக்": 7576,
      "குறிப்பிடப்பட்டுள்ளது": 7577,
      "தெரிவிக்கின்றனர்": 7578,
      "விரைவாக": 7579,
      "கண்ணன்": 7580,
      "புகாரின்": 7581,
      "ஒற்றைத்": 7582,
      "கட்டுப்பாடுகள்": 7583,
      "தகரா": 7584,
      "நிலவுகிறது": 7585,
      "##பகவான்": 7586,
      "சுக்கிரன்": 7587,
      "go": 7588,
      "vs": 7589,
      "லாக": 7590,
      "##பலி": 7591,
      "##ண்கள்": 7592,
      "##ருக்கான": 7593,
      "##லைக்": 7594,
      "அமைந்தது": 7595,
      "தலைநக": 7596,
      "தலைவரான": 7597,
      "சிற்ப": 7598,
      "வந்தபோது": 7599,
      "உயர்க": 7600,
      "முடிக்க": 7601,
      "அனுப்பு": 7602,
      "மாவட்டச்": 7603,
      "கட்சிகளின்": 7604,
      "ஆபத்தான": 7605,
      "மாட்டார்": 7606,
      "தானம்": 7607,
      "சொல்கிறார்கள்": 7608,
      "ஆவணங்கள்": 7609,
      "##செய்து": 7610,
      "சுட்டிக்காட்டினார்": 7611,
      "மகாராஷ்டிராவில்": 7612,
      "பாலஸ்தீன": 7613,
      "வரவழை": 7614,
      "இலை": 7615,
      "இவரை": 7616,
      "எச்": 7617,
      "##ப்பால்": 7618,
      "போற": 7619,
      "காடு": 7620,
      "அவர்க": 7621,
      "பாட்டி": 7622,
      "##ியாட்": 7623,
      "அரங்கே": 7624,
      "தமிழிசை": 7625,
      "கிஷ": 7626,
      "பழக்கம்": 7627,
      "உதவிய": 7628,
      "விருப்பம்": 7629,
      "என்கிறது": 7630,
      "உள்ளிட்டவை": 7631,
      "சிகிச்சைக்காக": 7632,
      "##மென்ட்": 7633,
      "வகையிலும்": 7634,
      "நகைச்ச": 7635,
      "குறுகிய": 7636,
      "அன்னதானம்": 7637,
      "சந்தோஷ": 7638,
      "பட்டியலின": 7639,
      "as": 7640,
      "li": 7641,
      "எங்களிடம்": 7642,
      "நடுத்த": 7643,
      "பூர்வ": 7644,
      "##ூட்டிய": 7645,
      "##றாக": 7646,
      "##ஃபி": 7647,
      "பெர": 7648,
      "##மிட்ட": 7649,
      "கலச": 7650,
      "நோக்கில்": 7651,
      "காரணங்கள்": 7652,
      "வழக்குப்": 7653,
      "முதலே": 7654,
      "விரதம்": 7655,
      "கொடுத்தது": 7656,
      "பட்ஜெ": 7657,
      "செயல்பாடுகள்": 7658,
      "சுப்பிரமணிய": 7659,
      "அகிலேஷ்": 7660,
      "முறைகேடு": 7661,
      "அமாவாசை": 7662,
      "ஆதித்யநாத்": 7663,
      "அக்கட்சியின்": 7664,
      "முன்கூட்டிய": 7665,
      "ஓட": 7666,
      "நன்கொ": 7667,
      "##க்கமாக": 7668,
      "##ிலு": 7669,
      "போதிய": 7670,
      "##ச்சத்து": 7671,
      "அமைத்த": 7672,
      "செய்யவும்": 7673,
      "செய்யப்படுகிறது": 7674,
      "பிறந்தநாள்": 7675,
      "கட்டுப்பாட்டு": 7676,
      "நன்மைகள்": 7677,
      "ஊர்வலமாக": 7678,
      "உபய": 7679,
      "விவாக": 7680,
      "விடுக்க": 7681,
      "விஸ்வ": 7682,
      "பிரம்மா": 7683,
      "##ற்றுக்கு": 7684,
      "கார்க": 7685,
      "யைப்": 7686,
      "அண்ணாமல": 7687,
      "உடல்நல": 7688,
      "மேற்கொள்ளப்பட்ட": 7689,
      "பிரபாக": 7690,
      "அதிரடியாக": 7691,
      "ரஜின": 7692,
      "தேதியன்று": 7693,
      "சுவாமிகள்": 7694,
      "தேர்ந்தெடுக்கப்பட்ட": 7695,
      "என்னவென்றால்": 7696,
      "இவரின்": 7697,
      "பாக்": 7698,
      "கூலி": 7699,
      "##ப்பட்டனர்": 7700,
      "வீச்ச": 7701,
      "மீடியா": 7702,
      "தலைமுறை": 7703,
      "##ஷ்ணா": 7704,
      "தமிழ்நாட்டை": 7705,
      "அதைக்": 7706,
      "உத்தரவிட்டார்": 7707,
      "வழக்கின்": 7708,
      "பழனிவேல்": 7709,
      "கொள்முதல்": 7710,
      "சீனாவில்": 7711,
      "பிரச்னைகளை": 7712,
      "வருடங்களுக்கு": 7713,
      "ஆங்கிலேய": 7714,
      "சிந்தனை": 7715,
      "சான்றிதழ்": 7716,
      "ஊரடங்கு": 7717,
      "எரிவாயு": 7718,
      "ஜய": 7719,
      "வக்": 7720,
      "##லிலும்": 7721,
      "##பாய்": 7722,
      "##க்ட": 7723,
      "##கத்தை": 7724,
      "குளிர்": 7725,
      "##ந்துவீ": 7726,
      "பாக்கிய": 7727,
      "மேடை": 7728,
      "##ிக்காக": 7729,
      "த்திலேயே": 7730,
      "தேர்தலு": 7731,
      "பாதிக்கப்பட": 7732,
      "2011": 7733,
      "உயர்ந்துள்ளது": 7734,
      "சிவப்பு": 7735,
      "தொழிலில்": 7736,
      "தொழிலதி": 7737,
      "மையத்தில்": 7738,
      "தொடங்கினர்": 7739,
      "தோல்வியை": 7740,
      "உதவிகளை": 7741,
      "ஆதிக்கம்": 7742,
      "த்துக்கான": 7743,
      "குரங்கு": 7744,
      "வெப்பநிலை": 7745,
      "வெறுப்பு": 7746,
      "தேரோட்டம்": 7747,
      "படிப்படியாக": 7748,
      "துன்புறுத்த": 7749,
      "அவு": 7750,
      "உன்": 7751,
      "நாட்டுக்கு": 7752,
      "##மாக்": 7753,
      "##நிலையை": 7754,
      "நாடுகளுக்கும்": 7755,
      "துறைகளில்": 7756,
      "அப்பகுதியில்": 7757,
      "தலைவருமான": 7758,
      "செய்கிறார்கள்": 7759,
      "##ிகளையும்": 7760,
      "கொடூ": 7761,
      "அன்புமணி": 7762,
      "செங்கல்பட்டு": 7763,
      "நிதியமைச்சர்": 7764,
      "சிவகங்கை": 7765,
      "எக்ஸ்பிரஸ்": 7766,
      "ஒய்": 7767,
      "ரஞ்சி": 7768,
      "##ியலாளர்": 7769,
      "##ந்தின்": 7770,
      "போர": 7771,
      "கோஷ": 7772,
      "செய்திருக்கிறார்": 7773,
      "துண்டு": 7774,
      "இலக்க": 7775,
      "பொதுவான": 7776,
      "இந்தியப்": 7777,
      "கூறுவது": 7778,
      "##ர்களான": 7779,
      "உணவுகளை": 7780,
      "அதிர்ஷ்ட": 7781,
      "மேற்கொள்ளப்பட்டு": 7782,
      "சாதன": 7783,
      "சமாளிக்க": 7784,
      "எவ்வித": 7785,
      "பொறுப்பேற்ற": 7786,
      "பிரமாண்ட": 7787,
      "இன்ஸ்டாக": 7788,
      "போதைப்பொருள்": 7789,
      "மட்டக்களப்பு": 7790,
      "எலும்பு": 7791,
      "ஓம்": 7792,
      "கையா": 7793,
      "##டலில்": 7794,
      "##க்கரி": 7795,
      "அவமான": 7796,
      "பாலு": 7797,
      "நிலத்தை": 7798,
      "மாநிலத்": 7799,
      "விலையில்": 7800,
      "வயதாக": 7801,
      "அழைக்கப்படும்": 7802,
      "##யிலை": 7803,
      "விமானங்கள்": 7804,
      "கொள்கையை": 7805,
      "வங்கியின்": 7806,
      "நிகழ்ச்சியை": 7807,
      "ஜோடி": 7808,
      "##மீக": 7809,
      "மார்க்": 7810,
      "சரத்": 7811,
      "ஆகியோரை": 7812,
      "அச்சம்": 7813,
      "நிச்சயமாக": 7814,
      "நிலநடுக்கம்": 7815,
      "இப்பட": 7816,
      "உப்பு": 7817,
      "ஷோ": 7818,
      "மேய": 7819,
      "திருவார": 7820,
      "##சித்தி": 7821,
      "இருப்பவர்கள்": 7822,
      "இயங்கி": 7823,
      "##ஷ்ணு": 7824,
      "பத்திரிகை": 7825,
      "பெற்றோர்கள்": 7826,
      "இழப்பீடு": 7827,
      "sh": 7828,
      "அஜ": 7829,
      "##நர்கள்": 7830,
      "காக்க": 7831,
      "கோத்த": 7832,
      "கோரிய": 7833,
      "அமைதியாக": 7834,
      "திருப்பு": 7835,
      "செய்யாமல்": 7836,
      "##சியாக": 7837,
      "தோற்க": 7838,
      "கூறின": 7839,
      "ஆர்எஸ்": 7840,
      "உருவாக்கும்": 7841,
      "மையமாக": 7842,
      "போட்டியிடும்": 7843,
      "கார்த்திக்": 7844,
      "அப்துல்": 7845,
      "வழிபட்டனர்": 7846,
      "மேலாண்மை": 7847,
      "06": 7848,
      "##தியா": 7849,
      "##ai": 7850,
      "##ிகோ": 7851,
      "குப்பை": 7852,
      "மாம": 7853,
      "கடத்தி": 7854,
      "சாந்தி": 7855,
      "இலக்கை": 7856,
      "நெய்": 7857,
      "கருப்ப": 7858,
      "அளவை": 7859,
      "கூறுகிறார்கள்": 7860,
      "தாகக்": 7861,
      "என்பதைக்": 7862,
      "நம்பிக்கையை": 7863,
      "ள்ளார்": 7864,
      "இடம்பெற்று": 7865,
      "குற்றச்சாட்டுகளை": 7866,
      "பகிர்ந்த": 7867,
      "கண்டிப்பாக": 7868,
      "மகிழ்ச்சியாக": 7869,
      "உட்கார்": 7870,
      "ஆயுள்": 7871,
      "ஆற்றல்": 7872,
      "சண்முகம்": 7873,
      "ஹைதராபாத்": 7874,
      "பரீட்சை": 7875,
      "பந்தில்": 7876,
      "லார": 7877,
      "##ீட்டை": 7878,
      "##ுள்ளனர்": 7879,
      "பாறை": 7880,
      "அதேச": 7881,
      "செய்தியை": 7882,
      "வாழை": 7883,
      "சமையல்": 7884,
      "வழங்கப்பட்டு": 7885,
      "சீர்த": 7886,
      "##ஸ்தி": 7887,
      "##த்திற்குப்": 7888,
      "சமூகம்": 7889,
      "எம்ஜி": 7890,
      "வெற்றிக்கு": 7891,
      "விவசாயி": 7892,
      "சொன்னது": 7893,
      "இன்ஸ்ப": 7894,
      "சின்னம்": 7895,
      "பங்குனி": 7896,
      "போட்டுக்": 7897,
      "சிலைகள்": 7898,
      "இயக்கத்தில்": 7899,
      "அஞ்சலி": 7900,
      "நாமக்கல்": 7901,
      "ரெய்டு": 7902,
      "ஃபை": 7903,
      "உத்திர": 7904,
      "ின்": 7905,
      "ுகின்ற": 7906,
      "##னான்": 7907,
      "##்தொ": 7908,
      "##துவாக": 7909,
      "##ையற்ற": 7910,
      "##த்துறையினர்": 7911,
      "மாசி": 7912,
      "வெயில்": 7913,
      "தென்னா": 7914,
      "புரா": 7915,
      "கோபி": 7916,
      "சுர": 7917,
      "சுந்த": 7918,
      "##வாகும்": 7919,
      "##ப்படுகின்றது": 7920,
      "நிறுவனங்களில்": 7921,
      "சமூகத்தில்": 7922,
      "2013": 7923,
      "உயர்ந்து": 7924,
      "நிறுத்திய": 7925,
      "நுழ": 7926,
      "குஜராத்தில்": 7927,
      "மருந்துகள்": 7928,
      "சுற்றியுள்ள": 7929,
      "பட்டாசு": 7930,
      "ஈபிஎஸ்": 7931,
      "சடங்கு": 7932,
      "ஹசீ": 7933,
      "##ள்ளா": 7934,
      "சுல": 7935,
      "##மாற்றம்": 7936,
      "பணிகளில்": 7937,
      "முன்மொழி": 7938,
      "எந்தத்": 7939,
      "சரண": 7940,
      "ப்பட்டன": 7941,
      "நியமிக்கப்பட்ட": 7942,
      "விளக்கம": 7943,
      "மீனாட்சி": 7944,
      "டெல்டா": 7945,
      "கெஜ்ரிவால்": 7946,
      "பலாத்காரம்": 7947,
      "முன்கூட்டியே": 7948,
      "அதேசமயம்": 7949,
      "!\"": 7950,
      ").": 7951,
      "43": 7952,
      "அடுக்கு": 7953,
      "ஈர்": 7954,
      "ஒன்": 7955,
      "டான்": 7956,
      "பசி": 7957,
      "##தத்தை": 7958,
      "##ையிலிருந்து": 7959,
      "மாசு": 7960,
      "பிரபு": 7961,
      "கோவி": 7962,
      "துல்ல": 7963,
      "களா": 7964,
      "சிலி": 7965,
      "பெய்த": 7966,
      "கலந்துகொண்டு": 7967,
      "அப்போ": 7968,
      "ட்ரோ": 7969,
      "நிகழ்ந்த": 7970,
      "லாமா": 7971,
      "நிறைவேற்றி": 7972,
      "##மொழ": 7973,
      "மேம்படுத்து": 7974,
      "அறிவுரை": 7975,
      "உடைத்து": 7976,
      "வென்றது": 7977,
      "வீழ்த்தி": 7978,
      "இதன்படி": 7979,
      "பிற்படுத்தப்பட்ட": 7980,
      "அதிகபட்சமாக": 7981,
      "லிட்டர்": 7982,
      "எளிய": 7983,
      "தலித்": 7984,
      "ரவு": 7985,
      "##்பெ": 7986,
      "##ையமை": 7987,
      "##ற்றால்": 7988,
      "##ரிஸ்": 7989,
      "##விள": 7990,
      "போடும்": 7991,
      "வாக்கெடு": 7992,
      "சேரும்": 7993,
      "சிதை": 7994,
      "நேட்டோ": 7995,
      "வழங்கியுள்ளது": 7996,
      "மகேஷ்": 7997,
      "அவரால்": 7998,
      "கூடவே": 7999,
      "செலவில்": 8000,
      "மண்டபம்": 8001,
      "தலைவர்களும்": 8002,
      "பொருட்களின்": 8003,
      "காதல": 8004,
      "சிங்கப்பூர்": 8005,
      "விகடன்": 8006,
      "நடுத்தர": 8007,
      "mo": 8008,
      "சத்ய": 8009,
      "ோர்": 8010,
      "##ரர்": 8011,
      "##ள்வது": 8012,
      "##ையர்": 8013,
      "துரோ": 8014,
      "எதிர": 8015,
      "என்பதற்கு": 8016,
      "இடங்களுக்கு": 8017,
      "சாவ": 8018,
      "கூறப்படும்": 8019,
      "இயற்க": 8020,
      "கிடைத்துள்ளது": 8021,
      "செயல்பா": 8022,
      "உத்தரகா": 8023,
      "மாற்றத்தை": 8024,
      "முறைப்படி": 8025,
      "கருத்துகள்": 8026,
      "தவறி": 8027,
      "இப்படிப்பட்ட": 8028,
      "மனிதர்கள்": 8029,
      "வாழ்வாத": 8030,
      "ஆலோசகர்": 8031,
      "நலன்": 8032,
      "உயிரிழந்தார்": 8033,
      "பரவலாக": 8034,
      "##நேரத்தில்": 8035,
      "சுற்றுலாப்": 8036,
      "முன்வைத்து": 8037,
      "நிற்கும்": 8038,
      "உயர்நீதிமன்றம்": 8039,
      "உரிமையாளர்": 8040,
      "திருக்கல்யாண": 8041,
      "bbc": 8042,
      "அஷ்ட": 8043,
      "ஆலை": 8044,
      "ஆடியோ": 8045,
      "ஹவு": 8046,
      "ாரா": 8047,
      "##ிண": 8048,
      "##et": 8049,
      "##ிறை": 8050,
      "பாலம்": 8051,
      "பிரார்த்த": 8052,
      "புத்தி": 8053,
      "நீரை": 8054,
      "##னாளி": 8055,
      "அமைச்சரவையில்": 8056,
      "உடைய": 8057,
      "கூறப்பட்ட": 8058,
      "விட்டதால்": 8059,
      "சென்றபோது": 8060,
      "என்கின்றனர்": 8061,
      "நிறுவனத்தை": 8062,
      "உத்தரவிட்டது": 8063,
      "பயன்படுத்திக்": 8064,
      "நுகர்": 8065,
      "இயக்குனர்": 8066,
      "ிருப்பதை": 8067,
      "மிரட்டி": 8068,
      "சட்டசபையில்": 8069,
      "இருக்கிறதா": 8070,
      "நாராயண": 8071,
      "ஊடகவ": 8072,
      "சந்தர்ப்ப": 8073,
      "சீதாராமன்": 8074,
      "ஹசீனா": 8075,
      "ஊரில்": 8076,
      "கையை": 8077,
      "ாம": 8078,
      "ீங்க": 8079,
      "##பிக்": 8080,
      "விடை": 8081,
      "சட்டத்தில்": 8082,
      "மிகச்": 8083,
      "இந்தியன்": 8084,
      "மருத்துவம்": 8085,
      "ங்களாக": 8086,
      "சொல்லிக்": 8087,
      "லட்சக்கணக்கான": 8088,
      "வாக்குகளை": 8089,
      "சிறுந": 8090,
      "வேண்டியிருந்தது": 8091,
      "செய்யப்பட்டுள்ளார்": 8092,
      "தலைவர்களை": 8093,
      "கிளம்பி": 8094,
      "சேர்க்கை": 8095,
      "தெரியவந்துள்ளது": 8096,
      "களமிறங்கிய": 8097,
      "நினைக்கிறேன்": 8098,
      "குற்றவாளிகள்": 8099,
      "பொதுக்குழுவில்": 8100,
      "சீனிவாசன்": 8101,
      "or": 8102,
      "உரை": 8103,
      "ஒப்பி": 8104,
      "ஓவிய": 8105,
      "சோர்": 8106,
      "##ட்டாக": 8107,
      "##ற்றொ": 8108,
      "நாளும்": 8109,
      "கூட்டி": 8110,
      "##புரத்தில்": 8111,
      "தீப": 8112,
      "பிறப்பி": 8113,
      "செய்துவிட்டு": 8114,
      "சட்டப்படி": 8115,
      "108": 8116,
      "கடைகள்": 8117,
      "அவரைப்": 8118,
      "விளையாடிய": 8119,
      "ஆட்டத்தை": 8120,
      "வெளியிட்டது": 8121,
      "கால்ப": 8122,
      "ிருப்பதால்": 8123,
      "புலிகள்": 8124,
      "பிரதமரின்": 8125,
      "ஆயுதங்களை": 8126,
      "ஹேம": 8127,
      "எம்எல்ஏக்கள்": 8128,
      "திருவள்ளூர்": 8129,
      "அறக்கட்டளை": 8130,
      "ஓரிரு": 8131,
      "99": 8132,
      "உபக": 8133,
      "பந்தை": 8134,
      "##மட்ட": 8135,
      "##வையும்": 8136,
      "வருகிறேன்": 8137,
      "நீக்கி": 8138,
      "பலருக்கும்": 8139,
      "தீட்சி": 8140,
      "வழங்கியது": 8141,
      "கட்டமைப்பு": 8142,
      "உறுப்பு": 8143,
      "பிறகுதான்": 8144,
      "வந்துள்ளனர்": 8145,
      "தூர": 8146,
      "வைத்துள்ளது": 8147,
      "உறவை": 8148,
      "உறவுகளை": 8149,
      "சாதகமான": 8150,
      "மதிப்பிலான": 8151,
      "குற்றம்சாட்ட": 8152,
      "கேள்விகளை": 8153,
      "பழங்குடி": 8154,
      "எதிர்கொள்ளும்": 8155,
      "தீயணைப்பு": 8156,
      "முதலாவது": 8157,
      "ai": 8158,
      "பவ": 8159,
      "படியே": 8160,
      "யொட்டி": 8161,
      "ாள": 8162,
      "##சமான": 8163,
      "##ளவுக்கு": 8164,
      "##ெக்": 8165,
      "##க்குடி": 8166,
      "குறிய": 8167,
      "போகிற": 8168,
      "##்யூ": 8169,
      "##முனை": 8170,
      "நீரி": 8171,
      "அதுபோ": 8172,
      "தரவு": 8173,
      "பாதுகாப்பை": 8174,
      "பொறுத்து": 8175,
      "எனக்குத்": 8176,
      "பைக்": 8177,
      "போட்டியிட்டு": 8178,
      "##சேகர்": 8179,
      "க்கூடும்": 8180,
      "எச்சரி": 8181,
      "எழுதியுள்ளார்": 8182,
      "சரவணன்": 8183,
      "நூற்றுக்கணக்கான": 8184,
      "ஹர்திக்": 8185,
      "விவாகர": 8186,
      "ஷூ": 8187,
      "##ேந்திர": 8188,
      "##ீஸ்வர": 8189,
      "##ுய": 8190,
      "கடற்றொ": 8191,
      "அதையடுத்து": 8192,
      "தென்னி": 8193,
      "##முடி": 8194,
      "##ரியாக": 8195,
      "போலீசா": 8196,
      "பெருந்த": 8197,
      "ஸ்மார": 8198,
      "நீதிமன்றத்தின்": 8199,
      "மரப": 8200,
      "கைதுசெய்ய": 8201,
      "கிராமத்தைச்": 8202,
      "அரசியலை": 8203,
      "கிடைக்காத": 8204,
      "ஆலோசனைக்": 8205,
      "வகிக்க": 8206,
      "புரட்சி": 8207,
      "அழிக்க": 8208,
      "வேண்டுமென்ற": 8209,
      "ஒலிம்பியாட்": 8210,
      "புதன்க": 8211,
      "புகழ்பெ": 8212,
      "வியாழக்கிழமை": 8213,
      "பேரிடர்": 8214,
      "துல்லிய": 8215,
      "புகழ்பெற்ற": 8216,
      "வியூ": 8217,
      "ாராம்": 8218,
      "ிட": 8219,
      "##சுக்கு": 8220,
      "##டத்தில்": 8221,
      "##un": 8222,
      "##ிலே": 8223,
      "இருவரையும்": 8224,
      "##ுவின்": 8225,
      "இதர": 8226,
      "##ளிப்பு": 8227,
      "##ழுக்கு": 8228,
      "அமைக்கப்பட்டு": 8229,
      "சித்ரா": 8230,
      "பொருள்களை": 8231,
      "பாஜகவினர்": 8232,
      "உணவை": 8233,
      "போராட": 8234,
      "உத்தரப்": 8235,
      "இஸ்ரேலுக்கு": 8236,
      "செய்யப்பட்டுள்ளன": 8237,
      "சந்திரசூ": 8238,
      "கொண்டாட்ட": 8239,
      "நகரங்களில்": 8240,
      "விக்ரம்": 8241,
      "பயணிக்க": 8242,
      "நாள்களுக்கு": 8243,
      "அறிகுறிகள்": 8244,
      "சுவாரஸ்": 8245,
      "உன": 8246,
      "கங்க": 8247,
      "ஜார்": 8248,
      "பவார்": 8249,
      "##மடை": 8250,
      "##றா": 8251,
      "##ந்தம்": 8252,
      "குளம்": 8253,
      "கொரியா": 8254,
      "தென்ன": 8255,
      "தொடர்க": 8256,
      "பொம்மை": 8257,
      "செய்திருந்தார்": 8258,
      "நேர்க": 8259,
      "வரையில்": 8260,
      "சீர்க": 8261,
      "பதிவில்": 8262,
      "பேசிக்": 8263,
      "மறுப்பு": 8264,
      "நல்லா": 8265,
      "விதிக்கப்பட்ட": 8266,
      "மதிக்க": 8267,
      "பிரச்னையை": 8268,
      "மாகும்": 8269,
      "வகுப்ப": 8270,
      "தயாராகி": 8271,
      "டாப்": 8272,
      "கொண்டிருந்தனர்": 8273,
      "காட்சிய": 8274,
      "நாள்கள்": 8275,
      "நுழைவு": 8276,
      "வழங்குவது": 8277,
      "பஞ்சாய": 8278,
      "வெளியுறவுத்துறை": 8279,
      "மனோஜ்": 8280,
      "விஞ்ஞானிகள்": 8281,
      "ma": 8282,
      "நவீன்": 8283,
      "மஸ்க்": 8284,
      "##சிகள்": 8285,
      "##ீஸ்வரர்": 8286,
      "##மண்ட": 8287,
      "##ினார்கள்": 8288,
      "இருக்கின்ற": 8289,
      "கொண்டதாக": 8290,
      "ராஜன்": 8291,
      "விட்டோம்": 8292,
      "தெரிவித்துக்": 8293,
      "தமிழ்நாட்டு": 8294,
      "வாரத்தில்": 8295,
      "நிலைப்பாட்டை": 8296,
      "ஒன்றரை": 8297,
      "ஆய்வில்": 8298,
      "அலுவல": 8299,
      "வெள்ளத்தில்": 8300,
      "தருவதாக": 8301,
      "மானிய": 8302,
      "நாளைக்கு": 8303,
      "அணுக": 8304,
      "மாநகர": 8305,
      "ஒப்புக்": 8306,
      "பகல்": 8307,
      "##ation": 8308,
      "##நேர": 8309,
      "நியூய": 8310,
      "பாகிஸ்தானின்": 8311,
      "விரும்புகிறேன்": 8312,
      "எண்ணிக்கையில்": 8313,
      "ராஜேந்திர": 8314,
      "சமாஜ்வாதி": 8315,
      "செய்தியாளர்களைச்": 8316,
      "சச்சின்": 8317,
      "ஓய்வூதிய": 8318,
      "பொறியியல்": 8319,
      "பண்ணை": 8320,
      "ாவிட்டால்": 8321,
      "##ன்ம": 8322,
      "##ையிற": 8323,
      "##ிகேய": 8324,
      "தேடு": 8325,
      "##ுவையில்": 8326,
      "புட": 8327,
      "வைப்பது": 8328,
      "##ராக்": 8329,
      "கிரிக்கெ": 8330,
      "கிளி": 8331,
      "தூய்": 8332,
      "தேசியவாத": 8333,
      "நூறு": 8334,
      "ப்படாத": 8335,
      "வெளியிட்டார்": 8336,
      "##க்காளி": 8337,
      "தியாகராஜன்": 8338,
      "சேவையை": 8339,
      "காஷ்மீரில்": 8340,
      "ரவீந்திர": 8341,
      "அத்துமீ": 8342,
      "ஆத்திர": 8343,
      "##னேஷ்": 8344,
      "##பல்": 8345,
      "##பால": 8346,
      "##ter": 8347,
      "##ரையை": 8348,
      "##யான்": 8349,
      "##ற்பய": 8350,
      "கோலாக": 8351,
      "துரித": 8352,
      "அமைக்கும்": 8353,
      "வைப": 8354,
      "ராதாக": 8355,
      "ராக்கெட்": 8356,
      "கிளர்": 8357,
      "அருண்": 8358,
      "விருந்து": 8359,
      "வாரங்களுக்கு": 8360,
      "பார்க்கும்போது": 8361,
      "களுக்க": 8362,
      "பயன்படுத்தப்படும்": 8363,
      "பங்கேற்ப": 8364,
      "மண்டப": 8365,
      "சகல": 8366,
      "லிங்க": 8367,
      "கழிவு": 8368,
      "செய்தியாளர்கள்": 8369,
      "உயிரின": 8370,
      "நான்காவது": 8371,
      "கற்றுக்": 8372,
      "கமிஷனர்": 8373,
      "பற்றாக்குறை": 8374,
      "ஈர்க்க": 8375,
      "ஓவர்கள்": 8376,
      "சதம்": 8377,
      "நம": 8378,
      "ுவேன்": 8379,
      "##மிர": 8380,
      "##வாரா": 8381,
      "##ூறு": 8382,
      "##ழ்ப்ப": 8383,
      "##த்தினால்": 8384,
      "குட்டி": 8385,
      "நாங்க": 8386,
      "வாஷி": 8387,
      "##வாட்": 8388,
      "##ரியின்": 8389,
      "திருத்தம்": 8390,
      "தெரிவிக்கப்பட்டது": 8391,
      "##ஞ்ச்": 8392,
      "அதிகாரிகளை": 8393,
      "தரையிற": 8394,
      "வழிமுறை": 8395,
      "இப்போதும்": 8396,
      "அகமது": 8397,
      "காவலர்": 8398,
      "அடிப்படையாக": 8399,
      "புதுப்பிக்க": 8400,
      "மைக்": 8401,
      "பெறுவது": 8402,
      "மேலதிக": 8403,
      "மாற்றுத்திற": 8404,
      "ஆவணங்களை": 8405,
      "மாலத்தீவு": 8406,
      "முழங்க": 8407,
      "சீர்திருத்த": 8408,
      "தையடுத்து": 8409,
      "##ைக்": 8410,
      "##ர்ஸ்": 8411,
      "##ாரை": 8412,
      "போவதில்லை": 8413,
      "காசு": 8414,
      "##ம்பரில்": 8415,
      "கோபுர": 8416,
      "##ாலம்": 8417,
      "அரசால்": 8418,
      "தெரிவு": 8419,
      "இருந்ததாக": 8420,
      "கூட்டத்தை": 8421,
      "நடத்தப்பட": 8422,
      "இன்னமும்": 8423,
      "அடுத்தடுத்த": 8424,
      "வெளியேறிய": 8425,
      "சம்பவத்தை": 8426,
      "மிள": 8427,
      "##ப்தி": 8428,
      "இன்றைக்கு": 8429,
      "##தாரர்": 8430,
      "இம்முறை": 8431,
      "ஜாதி": 8432,
      "எளிதில்": 8433,
      "ரூபாய்க்கு": 8434,
      "யூனியன்": 8435,
      "அம்பேத்கர்": 8436,
      "மறுசீரமைப்பு": 8437,
      "உபகரண": 8438,
      "04": 8439,
      "03": 8440,
      "தப்ப": 8441,
      "பும்": 8442,
      "##ீத": 8443,
      "##்தீப்": 8444,
      "##க்களும்": 8445,
      "முளை": 8446,
      "விழ": 8447,
      "##ிகளுக்கும்": 8448,
      "##ச்சார்": 8449,
      "##ச்சிக": 8450,
      "##ரைச்": 8451,
      "சுத்தம்": 8452,
      "நிஜ": 8453,
      "பிளவு": 8454,
      "பிறப்பு": 8455,
      "செய்துகொண்ட": 8456,
      "மாநிலங்கள்": 8457,
      "ஆதீனம்": 8458,
      "பாதுகாப்ப": 8459,
      "அறிவித்துள்ளார்": 8460,
      "நிறுவனங்களுக்கு": 8461,
      "உறவினர்": 8462,
      "கிராமப்புற": 8463,
      "இழப்பு": 8464,
      "டாடா": 8465,
      "டைட்ட": 8466,
      "##ரமண": 8467,
      "விண்ணப்பிக்க": 8468,
      "விவரங்கள்": 8469,
      "கார்த்தி": 8470,
      "கடற்படைய": 8471,
      "ஆச்சர்": 8472,
      "சீரியல்": 8473,
      "மெட்ரோ": 8474,
      "சிறுத்தைகள்": 8475,
      "தட்டுப்பாடு": 8476,
      "இடஒதுக்கீடு": 8477,
      "02": 8478,
      "கத்த": 8479,
      "கசி": 8480,
      "னி": 8481,
      "வள்ளி": 8482,
      "அவங்க": 8483,
      "பிரசித்தி": 8484,
      "அரசிடம்": 8485,
      "##ரேஷன்": 8486,
      "ிருந்தன": 8487,
      "விவகாரத்தை": 8488,
      "பேசுவது": 8489,
      "ஏற்படுத்தியிருக்கிறது": 8490,
      "வலியுறுத்தினார்": 8491,
      "le": 8492,
      "இவ்வ": 8493,
      "ஓவர்": 8494,
      "நஷ்ட": 8495,
      "மின": 8496,
      "##ளிக்": 8497,
      "##ழக்கு": 8498,
      "##துரை": 8499,
      "##ப்பவர்": 8500,
      "வைகோ": 8501,
      "திருட": 8502,
      "அந்தந்த": 8503,
      "வழங்கப்படுகிறது": 8504,
      "சூதா": 8505,
      "அதிகாரத்தை": 8506,
      "அளிக்கப்பட்டது": 8507,
      "கல்வெட்டு": 8508,
      "மனுவில்": 8509,
      "வாக்குவாதம்": 8510,
      "சிக்கல்கள்": 8511,
      "மோடிக்கு": 8512,
      "நபரை": 8513,
      "தீர்மானிக்க": 8514,
      "பல்கலைக்கழகம்": 8515,
      "மேற்கொண்டார்": 8516,
      "வரிசை": 8517,
      "பயன்பாடு": 8518,
      "விடுத்துள்ளார்": 8519,
      "சிறுமியை": 8520,
      "கவுன்சிலர்": 8521,
      "ஆம்பு": 8522,
      "கச்ச": 8523,
      "தக்காளி": 8524,
      "ஹார்": 8525,
      "மாஸ்டர்": 8526,
      "அரைய": 8527,
      "அமைந்து": 8528,
      "தேர்தலின்": 8529,
      "சென்னைக்கு": 8530,
      "அதிமுகவை": 8531,
      "வழிநட": 8532,
      "##ிற்காக": 8533,
      "அலுவல்கள்": 8534,
      "வாங்கிக்": 8535,
      "சுற்றுப்பய": 8536,
      "நிரப்ப": 8537,
      "மானது": 8538,
      "விரும்பும்": 8539,
      "இவ்வாறான": 8540,
      "சகோதரி": 8541,
      "அவர்களால்": 8542,
      "கல்விக்": 8543,
      "வேட்பும": 8544,
      "வேண்டுகோள்": 8545,
      "?!": 8546,
      "se": 8547,
      "wh": 8548,
      "எங்களின்": 8549,
      "ஒட்ட": 8550,
      "ஜார்க்க": 8551,
      "மில்ல": 8552,
      "யெல்லாம்": 8553,
      "ரத்தம்": 8554,
      "செந்த": 8555,
      "##ானே": 8556,
      "விநாயக": 8557,
      "##முத்து": 8558,
      "பொறி": 8559,
      "நிமி": 8560,
      "வந்திருக்கிறார்": 8561,
      "பதிவான": 8562,
      "பொருந்த": 8563,
      "பொதுக்": 8564,
      "போட்டியின்": 8565,
      "டெக்": 8566,
      "நிலைப்பாடு": 8567,
      "விடலாம்": 8568,
      "வாழ்க": 8569,
      "உறவுகள்": 8570,
      "விதிகள்": 8571,
      "கோவிலை": 8572,
      "வாகனங்களில்": 8573,
      "வருடங்கள்": 8574,
      "இடைத்தேர்த": 8575,
      "யாராவது": 8576,
      "ுள்ளேன்": 8577,
      "##த்துவத்தை": 8578,
      "பேசுப": 8579,
      "கதையை": 8580,
      "வணங்க": 8581,
      "மரும": 8582,
      "நிவாரணம்": 8583,
      "உயிருடன்": 8584,
      "##ந்துவீச்ச": 8585,
      "un": 8586,
      "உச்சி": 8587,
      "##ஆவது": 8588,
      "##திகார": 8589,
      "காது": 8590,
      "பிரிக்க": 8591,
      "##சிசி": 8592,
      "களிடையே": 8593,
      "அதுவே": 8594,
      "கொரோனாவால்": 8595,
      "தேவஸ்தான": 8596,
      "முழுவது": 8597,
      "தேவைப்படும்": 8598,
      "அதனைத்": 8599,
      "சைபர்": 8600,
      "ங்களால்": 8601,
      "இஸ்லாம": 8602,
      "ஜனநாயகக்": 8603,
      "போதைப்": 8604,
      "##வருமே": 8605,
      "மீட்புப்": 8606,
      "ஆப்பிரிக்கா": 8607,
      "இந்நிகழ்": 8608,
      "சனாதன": 8609,
      "உயர்கல்வி": 8610,
      "அரையிறு": 8611,
      "தின்": 8612,
      "##ெடுத்து": 8613,
      "முர்": 8614,
      "##ிருப்பு": 8615,
      "காலில்": 8616,
      "அவகா": 8617,
      "தெற்க": 8618,
      "சுங்க": 8619,
      "நீர்ம": 8620,
      "##பாத்தில்": 8621,
      "பிறப்பிக்க": 8622,
      "குழப்பம்": 8623,
      "நிறுவனர்": 8624,
      "குறைத்து": 8625,
      "##விட்டதாக": 8626,
      "அணிவகு": 8627,
      "விடுதி": 8628,
      "விடுகிறது": 8629,
      "விடுவார்கள்": 8630,
      "ஆய்வுகள்": 8631,
      "கூறியதாவது": 8632,
      "வேண்டுமா": 8633,
      "குறிப்பிடுகிறார்": 8634,
      "பறக்க": 8635,
      "கூட்டணியை": 8636,
      "##த்திற்கான": 8637,
      "ஆகியோரின்": 8638,
      "##செய்த": 8639,
      "யானைகள்": 8640,
      "சல்மான்": 8641,
      "இருதரப்பு": 8642,
      "இபிஎஸ்": 8643,
      "கய": 8644,
      "வண்டி": 8645,
      "வர்களில்": 8646,
      "##ஃபா": 8647,
      "##ந்தனர்": 8648,
      "கொட்டி": 8649,
      "##ாலேயே": 8650,
      "அதிகளவில்": 8651,
      "மூச்சு": 8652,
      "இயங்க": 8653,
      "##விட்டனர்": 8654,
      "வைத்துள்ளார்": 8655,
      "நிலையத்திற்கு": 8656,
      "கடைசியாக": 8657,
      "வாங்குவ": 8658,
      "எண்ணம்": 8659,
      "பீகார": 8660,
      "வெளியிடப்பட்ட": 8661,
      "பெரிதும்": 8662,
      "வகித்த": 8663,
      "இங்கிலா": 8664,
      "ரயிலில்": 8665,
      "நிரூபிக்க": 8666,
      "மிதமான": 8667,
      "அயோத்தி": 8668,
      "இன்ஸ்பெக்டர்": 8669,
      "800": 8670,
      "கழ": 8671,
      "ரத": 8672,
      "முகவ": 8673,
      "##ாரில்": 8674,
      "வேட்ட": 8675,
      "புலி": 8676,
      "அரண்": 8677,
      "கொண்டால்": 8678,
      "சீக்கிய": 8679,
      "டென்": 8680,
      "காங்கிரஸின்": 8681,
      "அளிக்கிறது": 8682,
      "ஸ்டே": 8683,
      "கிராமங்களில்": 8684,
      "யோகா": 8685,
      "ஆணையத்தின்": 8686,
      "அறங்கா": 8687,
      "அரசியலுக்கு": 8688,
      "விமர்சிக்க": 8689,
      "முஸ்லிம்கள்": 8690,
      "##சேகர": 8691,
      "உலகக்கோப்பை": 8692,
      "நிபந்தனை": 8693,
      "நேர்காண": 8694,
      "09": 8695,
      "07": 8696,
      "ஆக்க": 8697,
      "தசா": 8698,
      "ிற்கு": 8699,
      "ுற": 8700,
      "##னெ": 8701,
      "##ாட்ட": 8702,
      "மாதா": 8703,
      "கொடியை": 8704,
      "தொல்ல": 8705,
      "கடையில்": 8706,
      "உள்ளவர்கள்": 8707,
      "தொடக்கம்": 8708,
      "குறிவைத்து": 8709,
      "அல்லாத": 8710,
      "களைத்": 8711,
      "காணப்படுகிறது": 8712,
      "செய்யப்பட்டனர்": 8713,
      "மதிப்பில்": 8714,
      "வடகி": 8715,
      "சூழலை": 8716,
      "சந்திரபாபு": 8717,
      "##த்தொடர்": 8718,
      "ஆகியோரும்": 8719,
      "பாருங்கள்": 8720,
      "சாப்பிட்டு": 8721,
      "பிரம்மோ": 8722,
      "ஆர்எஸ்எஸ்": 8723,
      "ஒட்டிய": 8724,
      "சத்து": 8725,
      "##எஸ்டி": 8726,
      "##த்திட": 8727,
      "##ட்டமைப்பு": 8728,
      "##ாமில்": 8729,
      "கட்டும்": 8730,
      "##ட்களை": 8731,
      "ஆதார்": 8732,
      "எந்தக்": 8733,
      "உலகப்": 8734,
      "அறிவிப்பை": 8735,
      "வேலைகளை": 8736,
      "நிறுவனங்களை": 8737,
      "முதலீட்டு": 8738,
      "எடுக்கப்பட்டு": 8739,
      "மேற்கொள்ளும்": 8740,
      "##ப்தா": 8741,
      "நோய்கள்": 8742,
      "ாததால்": 8743,
      "##ிற்ற": 8744,
      "ரூபாயை": 8745,
      "நிமிடங்கள்": 8746,
      "மசோதாவை": 8747,
      "சதுர்த்தி": 8748,
      "தென்னாப்பிர": 8749,
      "அத்தனை": 8750,
      "டர்": 8751,
      "லாரி": 8752,
      "##ாளி": 8753,
      "##ஜன": 8754,
      "##ங்களுக்காக": 8755,
      "விஷ்ணு": 8756,
      "கொங்கு": 8757,
      "##மைப்": 8758,
      "தேசம்": 8759,
      "புரிய": 8760,
      "அரங்க": 8761,
      "நிலுவையில்": 8762,
      "வாதம்": 8763,
      "களிடமிருந்து": 8764,
      "##கவலை": 8765,
      "கணவ": 8766,
      "வார்த்த": 8767,
      "நிர்வா": 8768,
      "அழைத்த": 8769,
      "தொடங்கியுள்ளது": 8770,
      "பிரிவின": 8771,
      "இதைக்": 8772,
      "##வானி": 8773,
      "செலுத்தினர்": 8774,
      "ஜிஎஸ்டி": 8775,
      "நெருக்கமாக": 8776,
      "எடுத்தார்": 8777,
      "ஆறுமுக": 8778,
      "எல்லாவற்ற": 8779,
      "சந்தித்துப்": 8780,
      "உயிரிழந்தனர்": 8781,
      "கூட்டுறவு": 8782,
      "தேர்ந்தெடுக்க": 8783,
      "அஸ்வின்": 8784,
      "மன்னர்": 8785,
      "இசையமை": 8786,
      "அர்த்தம்": 8787,
      "நள்ளிரவு": 8788,
      "புதன்கிழமை": 8789,
      "தொல்லியல்": 8790,
      "for": 8791,
      "சன்னி": 8792,
      "தரி": 8793,
      "மங்கள": 8794,
      "##சூர்": 8795,
      "##ாஜ்": 8796,
      "##ுலக": 8797,
      "##நபர்": 8798,
      "##ிர்த": 8799,
      "நாடக": 8800,
      "பிரக": 8801,
      "தலைமறை": 8802,
      "தெரிவிக்கும்": 8803,
      "தீவு": 8804,
      "##ஞ்சல்": 8805,
      "##மையன்று": 8806,
      "யாழ்ப்ப": 8807,
      "இஸ்ரோ": 8808,
      "##ப்பதில்லை": 8809,
      "மென்": 8810,
      "முகத்தில்": 8811,
      "இந்துக்கள்": 8812,
      "விஷயத்தை": 8813,
      "ஒதுக்கி": 8814,
      "வெளியிட்டுள்ளார்": 8815,
      "ரேஷன்": 8816,
      "கலாச்சார": 8817,
      "அதிபராக": 8818,
      "அறிவுறுத்திய": 8819,
      "விக்கிரம": 8820,
      "மீதமுள்ள": 8821,
      "ic": 8822,
      "ஆங்கா": 8823,
      "உறை": 8824,
      "எங்கும்": 8825,
      "சஸ்ப": 8826,
      "டய": 8827,
      "ஷ்": 8828,
      "##லஸ்": 8829,
      "வெகுவ": 8830,
      "செய்திகளை": 8831,
      "##ாலத்தில்": 8832,
      "மீம்ஸ்": 8833,
      "இதுவும்": 8834,
      "கிடைக்கிறது": 8835,
      "பேசியுள்ளார்": 8836,
      "கண்டிக்க": 8837,
      "நிலையங்களில்": 8838,
      "பொறுப்பை": 8839,
      "##க்கொள்க": 8840,
      "ுவதன்": 8841,
      "கொள்கிறார்": 8842,
      "வீடுகளை": 8843,
      "வளர்ப்பு": 8844,
      "நுபுர்": 8845,
      "என்னைப்": 8846,
      "ிருப்பதாகவும்": 8847,
      "தெளிவுபடுத்த": 8848,
      "முன்வைத்த": 8849,
      "சர்ச்சைக்குரிய": 8850,
      "பயணித்த": 8851,
      "சாத்தியம்": 8852,
      "துரைமுருகன்": 8853,
      "அரேபியா": 8854,
      "பொலிஸ்": 8855,
      "வீராங்கனை": 8856,
      "சத்த": 8857,
      "பங்கா": 8858,
      "ரோடு": 8859,
      "##யோ": 8860,
      "##ஷ்குமார்": 8861,
      "மாய்": 8862,
      "கோளா": 8863,
      "முதல்முறையாக": 8864,
      "##ண்ணு": 8865,
      "மகனை": 8866,
      "விசாரணையின்": 8867,
      "அளிக்கப்பட்ட": 8868,
      "வந்துள்ள": 8869,
      "உருவெ": 8870,
      "குடும்பத்தை": 8871,
      "விழாவின்": 8872,
      "நிலையான": 8873,
      "வழக்குகளில்": 8874,
      "அதிகரிப்பு": 8875,
      "பெற்றுள்ளார்": 8876,
      "யைக்": 8877,
      "தனிப்படை": 8878,
      "வங்கிகள்": 8879,
      "இவற்றை": 8880,
      "உயிரிழப்பு": 8881,
      "2009": 8882,
      "அபே": 8883,
      "நெருக்கடியை": 8884,
      "ஆன்மிக": 8885,
      "மலைய": 8886,
      "எதிர்காலம்": 8887,
      "நடத்துவது": 8888,
      "தலையிட": 8889,
      "##ையோர": 8890,
      "ரன்களுக்கு": 8891,
      "##வர்த்தி": 8892,
      "தூதுவர்": 8893,
      "தகராறு": 8894,
      "ஜார்க்கண்ட்": 8895,
      "எகி": 8896,
      "கதி": 8897,
      "ற்": 8898,
      "##ொழுது": 8899,
      "##ட்டத்தை": 8900,
      "குர்": 8901,
      "போகிறார்": 8902,
      "கொடை": 8903,
      "சித்தா": 8904,
      "ஆண்டுக்கான": 8905,
      "காலத்திற்கு": 8906,
      "குறைந்துள்ளது": 8907,
      "மத்தியப்": 8908,
      "படிப்பை": 8909,
      "பகுதிகளிலும்": 8910,
      "பிரித்து": 8911,
      "தங்களுடைய": 8912,
      "மெகா": 8913,
      "ரிஷி": 8914,
      "பிரச்சின": 8915,
      "##மோகன்": 8916,
      "சொல்ற": 8917,
      "வெளியாகிய": 8918,
      "அசாம்": 8919,
      "மாகாணத்தில்": 8920,
      "கிருஷ்ணகிரி": 8921,
      "ியுள்ளது": 8922,
      "விமர்சனங்கள்": 8923,
      "கடினமாக": 8924,
      "குறைந்தபட்சம்": 8925,
      "எழுத்தாளர்": 8926,
      "கிங்ஸ்": 8927,
      "கூகுள்": 8928,
      "தேர்தலுக்கான": 8929,
      "திருவாரூர்": 8930,
      "மரபணு": 8931,
      "சாகு": 8932,
      "நதி": 8933,
      "ரில": 8934,
      "##க்ச": 8935,
      "##ையிலேயே": 8936,
      "வினர்": 8937,
      "காமெ": 8938,
      "பாத்திர": 8939,
      "கோர்ட்": 8940,
      "##வாழ்வு": 8941,
      "பலியான": 8942,
      "கொண்டவர்": 8943,
      "பிறகே": 8944,
      "கட்டளை": 8945,
      "பரிக": 8946,
      "கட்சியும்": 8947,
      "ஆதரிக்க": 8948,
      "காரணத்தால்": 8949,
      "நிலைமையை": 8950,
      "வைத்துள்ள": 8951,
      "மாற்றங்களை": 8952,
      "சந்திக்கும்": 8953,
      "இறப்பு": 8954,
      "கொடுக்கப்பட்ட": 8955,
      "உண்மையை": 8956,
      "நிகழ்ச்சிகளில்": 8957,
      "சரக்கு": 8958,
      "இளங்கோ": 8959,
      "விஜயகாந்த்": 8960,
      "கூட்டணிக்": 8961,
      "முதுக": 8962,
      "வண்ணம்": 8963,
      "கச்சா": 8964,
      "நல்": 8965,
      "படுத்து": 8966,
      "ரஹ்": 8967,
      "##ங்களுக்கும்": 8968,
      "##ானந்தா": 8969,
      "விடிய": 8970,
      "காளி": 8971,
      "பாடம்": 8972,
      "##ம்பே": 8973,
      "பிரவே": 8974,
      "பாரத": 8975,
      "##லிங்க": 8976,
      "மாவட்டங்கள்": 8977,
      "மாவட்டத்தின்": 8978,
      "திட்டத்திற்கு": 8979,
      "உறுதியான": 8980,
      "டெலி": 8981,
      "போலீசார": 8982,
      "எதிர்ப்பை": 8983,
      "தகவல்க": 8984,
      "சமூகவலை": 8985,
      "##விலிருந்து": 8986,
      "திமுகவில்": 8987,
      "மாற்றிக்": 8988,
      "இறக்க": 8989,
      "தனித்தன": 8990,
      "இவர்களின்": 8991,
      "மனைவியை": 8992,
      "மூலவர்": 8993,
      "அடங்கும்": 8994,
      "கேட்கும்": 8995,
      "கவனத்தை": 8996,
      "கிருஷ்ணன்": 8997,
      "##ிகளிலும்": 8998,
      "கனிமொழி": 8999,
      "இயல்பு": 9000,
      "சலசல": 9001,
      "அந்நிய": 9002,
      "சமூகவலைதள": 9003,
      "கத்தார்": 9004,
      "மாரி": 9005,
      "யினால்": 9006,
      "வம்": 9007,
      "##க்கப்": 9008,
      "வேகம்": 9009,
      "நடப்பது": 9010,
      "ஒருவரான": 9011,
      "புரோ": 9012,
[...]
