<unk>	0
<s>	0
</s>	0
.	-2.94955
்	-3.68398
,	-3.92865
▁,	-4.42758
ு	-4.6469
▁	-4.84816
ும்	-4.99859
ம்	-5.01271
ை	-5.05858
ில்	-5.09706
▁இந்த	-5.15685
ின்	-5.17478
ப்	-5.31153
க்	-5.39016
து	-5.43635
▁என்று	-5.57614
▁.	-5.58604
த்	-5.63889
ான	-5.69434
யில்	-5.70671
▁"	-5.71138
▁மற்றும்	-5.72985
▁ஒரு	-5.73546
▁என	-5.82264
ாக	-5.95305
ுக்கு	-5.95371
ச்	-5.99439
கள்	-6.0483
▁வேண்டும்	-6.07789
▁அவர்	-6.08523
க	-6.11947
▁தான்	-6.11955
▁க்	-6.13272
▁ப்	-6.15364
த்தில்	-6.16724
▁அந்த	-6.21165
ி	-6.27523
க்கு	-6.32351
ன	-6.3345
▁இது	-6.34261
▁ஆனால்	-6.34648
▁-	-6.38499
யை	-6.39791
▁உள்ள	-6.44076
ே	-6.44886
▁'	-6.4689
▁த்	-6.47485
▁என்ற	-6.50168
களை	-6.51883
யின்	-6.52833
:	-6.52967
ால்	-6.53945
▁நிலையில்	-6.55002
?	-6.55014
ா	-6.55238
▁கடந்த	-6.55738
ன்	-6.55929
னர்	-6.5839
▁இருந்து	-6.60567
ல்	-6.64037
யும்	-6.64292
▁ம்	-6.6694
மாக	-6.67022
ிய	-6.67165
▁அரசு	-6.68129
"	-6.68233
▁முதல்	-6.70521
களில்	-6.70741
▁பல	-6.71028
ார்	-6.73928
வும்	-6.74863
▁யும்	-6.76951
▁சில	-6.77191
▁மேலும்	-6.77543
▁அவர	-6.78005
த்தை	-6.78397
▁(	-6.79097
ஸ்	-6.79124
▁உள்ளது	-6.80155
ர்	-6.81568
▁என்ன	-6.81926
▁ச்	-6.82604
ிடம்	-6.83638
▁குறித்து	-6.87062
▁சென்னை	-6.87383
▁ஆண்டு	-6.88226
▁போது	-6.88632
▁வரும்	-6.89967
▁செய்து	-6.90917
யாக	-6.91406
▁தொடர்ந்து	-6.93389
ுடன்	-6.94236
▁இருக்கும்	-6.94727
▁தேதி	-6.96946
▁கொண்டு	-6.97359
▁வருகிறது	-6.97842
▁..	-6.98552
▁மக்கள்	-7.0044
▁வரை	-7.02494
பி	-7.0361
▁என்பது	-7.0412
▁!	-7.04285
ர	-7.04817
▁தனத	-7.04943
▁இந்திய	-7.05254
▁நான்	-7.05724
▁செய்ய	-7.05961
▁:	-7.06014
▁கட்சி	-7.06277
▁இல்லை	-7.06316
ள்	-7.06597
▁மிக	-7.07007
▁அமைச்சர்	-7.07316
▁இன்று	-7.07794
▁து	-7.09087
▁மீது	-7.09383
த்தின்	-7.0977
▁தற்போது	-7.10219
▁என்றும்	-7.1037
▁அது	-7.11054
▁கள்	-7.11128
▁பாஜக	-7.1134
)	-7.11775
ய	-7.12055
▁பிறகு	-7.16432
▁தலைவர்	-7.1659
ஆம்	-7.1716
▁இருந்த	-7.18292
▁மூலம்	-7.19067
▁வந்த	-7.20011
▁எந்த	-7.20522
▁அவர்கள்	-7.21687
-	-7.21925
ப்பட்ட	-7.2337
▁மத்திய	-7.24603
▁க்கு	-7.25026
▁2	-7.25276
▁காங்கிரஸ்	-7.26027
டி	-7.26149
▁சேர்ந்த	-7.27042
▁தேர்தல்	-7.28498
ட்	-7.31976
▁கூட	-7.32013
▁வும்	-7.3272
▁இரண்டு	-7.34222
▁பிரதமர்	-7.34406
ல	-7.34453
க்க	-7.38278
▁இதனால்	-7.38439
▁புதிய	-7.38562
▁கொண்ட	-7.38755
ுள்ள	-7.39373
▁3	-7.39578
ுள்ளது	-7.39908
▁அ	-7.39943
வே	-7.39946
▁பல்	-7.40499
▁தமிழக	-7.4079
▁போன்ற	-7.41068
▁இதில்	-7.44093
ைய	-7.44099
▁இருக்கிறது	-7.44305
வேறு	-7.44813
▁அரசியல்	-7.45554
▁நேற்று	-7.45678
மான	-7.46505
▁பட	-7.46523
▁பேர்	-7.46581
▁அதன்	-7.46765
▁உள்ளிட்ட	-7.46941
▁அனைத்து	-7.47245
▁நடவடிக்கை	-7.47286
▁அணி	-7.47878
▁முதல்வர்	-7.48515
▁மீண்டும்	-7.48993
▁5	-7.49563
▁...	-7.49814
▁இந்தியா	-7.50268
▁மாநில	-7.50295
▁களை	-7.51175
▁ரூ	-7.52237
▁பா	-7.52811
▁சமூக	-7.5311
▁ஆம்	-7.53121
▁இலங்கை	-7.53741
▁10	-7.53874
▁அதை	-7.54239
▁ன	-7.54315
▁அப்போது	-7.54355
▁வெற்றி	-7.54626
▁?	-7.54679
▁வந்து	-7.55696
▁தொடர்பாக	-7.55905
ம	-7.55961
ஜ	-7.56508
▁முறை	-7.56981
▁விட	-7.57214
▁மாவட்ட	-7.57796
▁உலக	-7.57976
சி	-7.58048
▁மட்டுமே	-7.58256
▁அங்கு	-7.58529
▁வர	-7.59064
தி	-7.59375
▁தெரிவித்தார்	-7.60307
களின்	-7.60806
▁திமுக	-7.61285
▁அதிமுக	-7.61376
▁செய்த	-7.6171
தாக	-7.61723
▁பேசிய	-7.61825
▁பெரிய	-7.62023
▁அதில்	-7.62091
▁வேலை	-7.6248
▁அல்லது	-7.62516
ாமல்	-7.62814
▁இப்போது	-7.62873
▁வகையில்	-7.62899
▁4	-7.62919
ுடைய	-7.62999
▁நடந்தது	-7.63088
▁வருகின்றனர்	-7.635
▁எம்	-7.6366
▁காரணமாக	-7.63899
▁சென்று	-7.64341
▁என்பதை	-7.64687
▁முக்கிய	-7.64891
▁சிறப்பு	-7.65011
▁கூறினார்	-7.65217
மு	-7.65284
வது	-7.65873
▁இருந்தது	-7.6617
▁எடப்பாடி	-7.6673
▁இரு	-7.66872
▁என்றார்	-7.67753
▁பின்னர்	-7.67771
▁`	-7.6934
களுக்கு	-7.69879
▁யின்	-7.69959
▁பாதுகாப்பு	-7.70089
▁மணி	-7.70407
▁``	-7.71621
▁எப்படி	-7.71854
▁கோடி	-7.71959
▁தேசிய	-7.72057
▁தி	-7.72855
யான	-7.73179
ப	-7.73499
▁முடியும்	-7.73513
▁பெண்	-7.73516
▁சி	-7.73616
ரி	-7.73638
▁டி	-7.74246
▁மாதம்	-7.74431
▁முன்னா	-7.7459
▁என்	-7.75082
▁வைத்து	-7.75432
▁விசாரணை	-7.76074
▁நடந்த	-7.7615
▁அதற்கு	-7.76297
▁பற்றி	-7.76414
▁க	-7.7737
▁வழக்கு	-7.77388
எஸ்	-7.78006
▁தன்	-7.78064
▁நாம்	-7.79156
த்திற்கு	-7.79212
▁கைது	-7.79515
▁தகவல்	-7.79787
▁தலைமை	-7.79991
▁)	-7.80125
த்த	-7.80266
▁தமிழ்நாடு	-7.80522
▁கூட்டணி	-7.80563
▁6	-7.80855
▁காலை	-7.81353
வின்	-7.8153
▁இருக்க	-7.81556
▁என்கிறார்	-7.81801
▁இதற்கு	-7.81944
▁பி	-7.81949
▁சென்ற	-7.82087
▁இதை	-7.82509
▁முன்	-7.8257
▁முடியாது	-7.83208
ுள்ளார்	-7.83279
▁யை	-7.83525
▁களுக்கு	-7.83554
▁ஆட்சி	-7.83985
மும்	-7.84085
▁;	-7.84134
▁யில்	-7.846
ோ	-7.84715
▁வை	-7.84824
▁இந்நிலையில்	-7.84951
▁நாங்கள்	-7.85374
▁விட்டு	-7.85702
'	-7.85755
▁மூன்ற	-7.85816
▁ஆகிய	-7.86101
▁இ	-7.86633
▁ஸ்	-7.87009
▁அடுத்த	-7.87323
▁கள	-7.87453
யே	-7.87519
▁செல்ல	-7.87559
▁முன்பு	-7.87743
▁ஜனாதிபதி	-7.88071
▁அதிக	-7.88193
▁கொரோனா	-7.88355
▁பெற்ற	-7.88402
வ	-7.88517
▁செய்யப்பட்ட	-7.88631
▁பதவி	-7.88701
▁உங்கள	-7.88928
▁ஒருவர்	-7.89044
▁பகுதியில்	-7.89072
▁தேர்தலில்	-7.89202
▁எதிராக	-7.89381
▁துறை	-7.89448
▁மோடி	-7.89927
▁களின்	-7.89998
▁மணிக்கு	-7.9032
த	-7.90427
!	-7.90704
▁மே	-7.9089
▁போல	-7.90937
▁ப	-7.91235
▁ஓ	-7.91242
▁களும்	-7.9211
ிருக்கிறார்	-7.922
▁பெரும்	-7.9227
▁பக்தர்கள்	-7.92437
வி	-7.92586
▁கோவில்	-7.92907
▁அவரை	-7.93483
▁பதிவு	-7.93583
▁7	-7.93655
வர்	-7.93736
வை	-7.9395
▁இப்படி	-7.94116
▁நிலை	-7.94119
ப்பட்டுள்ளது	-7.94301
▁ய	-7.94389
▁கொள்ள	-7.94427
▁மு	-7.94708
▁அவருக்கு	-7.95227
▁கூறி	-7.96018
▁எனவே	-7.96027
▁பணி	-7.96537
க்கான	-7.96557
▁ல	-7.97254
ுள்ளனர்	-7.9739
▁ஒன்று	-7.97437
▁வே	-7.97956
▁மா	-7.98036
▁நாள்	-7.98106
▁வ	-7.98419
▁அதிகாரிகள்	-7.98615
▁காரணம்	-7.98712
▁டெல்லி	-7.98857
▁மட்டும்	-7.99081
▁காந்தி	-7.99122
னி	-7.99272
▁ஒரே	-8.00021
▁இதன்	-8.00203
▁சிகிச்சை	-8.00285
▁முடிவு	-8.0046
▁பொருளாதார	-8.00569
▁கால	-8.00634
▁உள்ளன	-8.01342
▁எங்கள	-8.01352
க்கும்	-8.01878
ிருக்கிறது	-8.01879
▁இவர்	-8.02201
",	-8.02314
▁தடை	-8.02433
▁கோயில்	-8.02457
▁இன்னும்	-8.025
▁கே	-8.02577
▁அரச	-8.02886
▁தமிழ்	-8.03552
வில்	-8.03738
▁சுமார	-8.0405
ங்கள்	-8.04822
▁கட்ட	-8.04843
▁அளவில	-8.05274
▁ரூபாய்	-8.05311
யா	-8.05402
▁அதே	-8.05532
▁முழுவதும்	-8.05596
▁சம்பவம்	-8.06215
▁தாக	-8.06541
▁நேரத்தில்	-8.06796
▁செய்யும்	-8.06936
▁20	-8.06946
▁கீழ்	-8.07364
▁ஆய்வு	-8.07423
▁இடங்களில	-8.07434
▁நல்ல	-8.07462
▁மாலை	-8.07539
▁நிதி	-8.07585
▁தேர்வு	-8.07681
▁வின்	-8.08084
▁ஏன்	-8.08102
▁பார்க்க	-8.0825
ாத	-8.0833
▁கை	-8.0848
ேச	-8.08545
மா	-8.08586
▁கலந்து	-8.08858
▁எனக்கு	-8.09054
▁வருகிறார்	-8.09151
▁நடந்து	-8.0925
▁ஒவ்வொரு	-8.09329
▁கொலை	-8.09492
▁வழங்க	-8.09506
▁பள்ளி	-8.09627
▁தொடர்பான	-8.09741
▁போட்டி	-8.0984
▁நாடு	-8.09894
▁போர்	-8.1013
▁8	-8.10221
▁ஸ்டாலின்	-8.10236
▁வேண்டிய	-8.10277
▁விலை	-8.10305
▁க்கும்	-8.10684
▁பின்	-8.1074
▁ச	-8.10872
▁12	-8.1106
▁குறித்த	-8.11095
▁எடுத்து	-8.11564
▁பெற	-8.11973
▁லட்சம்	-8.12312
▁விழா	-8.1285
▁நடத்த	-8.13346
▁தங்கள்	-8.13634
▁சட்ட	-8.13954
▁வீட்டில்	-8.14056
▁ர	-8.1426
▁யே	-8.14336
▁கேள்வி	-8.14491
▁இடையே	-8.14565
▁த	-8.14698
னா	-8.14871
▁இங்கு	-8.15019
▁இதையடுத்து	-8.15102
▁நிகழ்ச்சி	-8.15481
00	-8.15536
▁நடத்தி	-8.15648
▁தர	-8.15687
▁எடுக்க	-8.15756
ிற்கு	-8.15802
▁ம	-8.15949
தெரிவித்துள்ளார்	-8.16123
▁கருத்து	-8.1718
▁ஆர்	-8.17253
▁கொடுத்த	-8.17576
▁கூறப்படுகிறது	-8.17679
தான்	-8.17881
▁சிங்	-8.18013
▁ஐ	-8.18571
▁நடைபெற்ற	-8.18574
ட	-8.18677
▁மாவட்டம்	-8.18818
ச	-8.18867
▁9	-8.19226
▁ார்	-8.19358
▁பெண்கள்	-8.19412
▁வந்தது	-8.19519
▁தெரிவித்த	-8.19586
▁அருகே	-8.20039
▁நகர	-8.20468
ந்த	-8.20478
வா	-8.20499
▁15	-8.20685
▁வேறு	-8.21072
▁படி	-8.21204
▁கல்வி	-8.21363
▁11	-8.21395
▁சர்வத	-8.21573
▁யார்	-8.21673
▁வி	-8.21942
▁முயற்சி	-8.21988
▁இந்தியாவில்	-8.22148
▁துணை	-8.22168
▁யா	-8.22209
▁சொல்ல	-8.22664
▁குழு	-8.22694
▁சார்பில்	-8.22739
▁உதவி	-8.23627
▁இரவு	-8.23769
▁நீங்கள்	-8.2397
▁அப்படி	-8.24092
▁இதுவரை	-8.24998
▁மழை	-8.25264
▁போலீசார்	-8.25424
▁நடைபெற்றது	-8.25629
▁பூஜை	-8.2569
▁சுவாமி	-8.25693
மே	-8.25989
▁செயலாளர்	-8.26091
▁பயன்படுத்த	-8.26099
▁புகார்	-8.26126
▁அமெரிக்க	-8.26161
▁னர்	-8.26209
ேன்	-8.26609
▁பழனிசாமி	-8.26611
த்துறை	-8.26733
▁கூறுகிறார்	-8.2711
▁அழைத்து	-8.27121
▁மதுரை	-8.27493
▁மனைவி	-8.27628
ப்படுகிறது	-8.2776
▁பிபிசி	-8.27834
▁அதிபர்	-8.2843
▁1	-8.28445
▁பணம்	-8.28502
ரா	-8.28666
▁உணவு	-8.28696
▁வில்லை	-8.28749
க்காக	-8.28858
▁செய்தி	-8.29094
▁வயது	-8.2918
ங்	-8.29226
▁ஆக	-8.29259
▁யாக	-8.29303
▁வாய்ப்பு	-8.29703
▁விமான	-8.29999
தை	-8.30154
▁குறிப்பிட்ட	-8.30172
ரை	-8.30178
▁தா	-8.30741
▁காவல்	-8.30918
▁மற்ற	-8.31195
ங்க	-8.31306
▁தங்கள	-8.32227
▁இந்தியாவ	-8.32697
லி	-8.32895
▁எனவும்	-8.33027
▁ஆளுநர்	-8.3327
▁போல்	-8.33348
▁உடல்	-8.3335
லா	-8.34062
▁குழந்தை	-8.34111
லாம்	-8.3423
▁ிருக்கிறது	-8.34257
▁அதனால்	-8.34271
▁வருகின்றன	-8.34359
ற்ற	-8.34652
▁கிடைக்கும்	-8.34742
▁நாட்டின	-8.34868
▁என்றால்	-8.351
▁ஓபிஎஸ்	-8.35119
▁கொடுக்க	-8.35639
ப்ப	-8.35664
▁திட்டம்	-8.36019
▁கோரிக்கை	-8.36117
▁எனக்	-8.36234
▁செய்தனர்	-8.3632
▁உள்ளனர்	-8.36401
▁ா	-8.36736
▁மேல்	-8.3678
▁ஏற்பட்ட	-8.36894
ையும்	-8.36919
▁வர்	-8.36973
▁பெற்று	-8.36982
மி	-8.37027
▁தனி	-8.37028
▁அனுமதி	-8.37054
▁பகுதிகளில	-8.37101
▁இடத்தில	-8.37178
தா	-8.37391
▁மாத	-8.3772
▁பாதிப்பு	-8.37777
▁போலீஸார்	-8.38379
▁தேவை	-8.38511
▁உறுதி	-8.38706
▁குரு	-8.38897
மை	-8.38924
▁பார்த்து	-8.39285
▁அதாவது	-8.39289
▁பொது	-8.3933
ிருந்த	-8.3946
▁நேரம்	-8.39682
▁காண	-8.39982
▁ஏ	-8.40318
▁ஆகியோர்	-8.40325
▁வீடு	-8.40531
▁ரயில்	-8.40615
▁தொழில்	-8.40664
▁18	-8.40877
▁இஸ்ரேல்	-8.40933
▁ஸ்ரீ	-8.41101
▁இடம்	-8.41214
▁த்தை	-8.41215
▁கட்சியின	-8.41246
▁அளித்த	-8.41431
▁குறிப்பிடத்தக்க	-8.41517
▁30	-8.41639
ிலேயே	-8.41722
▁மீத	-8.41944
▁இருக்கிறார்	-8.42098
▁வீடியோ	-8.42126
▁என்பதால்	-8.42299
▁திருமணம்	-8.42367
▁மருத்துவ	-8.42383
▁பாதிக்கப்பட்ட	-8.4257
ஜி	-8.42589
யுடன்	-8.42612
▁மூத்த	-8.42709
▁எஸ்	-8.42812
▁தமிழ்நாட்டில	-8.43449
▁அதிகாரி	-8.43559
▁கோவை	-8.43638
▁உயர்	-8.43701
▁ும்	-8.43825
▁காவல்துறை	-8.4389
எல்	-8.43895
▁காலத்தில்	-8.43898
▁பயிற்சி	-8.43969
▁ஏற்படும்	-8.44061
▁அடிப்படையில்	-8.44125
யிடம்	-8.44141
ஏ	-8.44375
▁எதிர்ப்பு	-8.44418
▁பெயர்	-8.44496
▁அன்று	-8.44543
▁நீர்	-8.45023
▁செலுத்த	-8.45187
▁வங்கி	-8.45201
ோம்	-8.45694
▁ட	-8.45771
▁கார்	-8.45848
களும்	-8.45853
▁தாக்குதல்	-8.46004
▁நடைபெறும்	-8.46371
▁பாலியல	-8.464
▁செல்லும்	-8.46641
▁ராகுல்	-8.46867
கா	-8.46876
▁எண்ணிக்கை	-8.46963
▁வழக்கில்	-8.47389
,000	-8.47402
▁அவர்கள	-8.4778
▁நாளை	-8.47784
▁குறிப்பாக	-8.47786
▁இதனை	-8.47852
▁கி	-8.47862
▁ஜி	-8.47972
▁தனியார்	-8.48054
▁ராணுவ	-8.48097
▁மக்களுக்கு	-8.48124
வில்லை	-8.48161
▁பேச	-8.48309
▁அறிக்கை	-8.48311
▁ல்	-8.48322
▁பார்த்த	-8.48444
s	-8.48558
▁அதிகமாக	-8.48728
▁",	-8.48853
▁மன	-8.48938
▁அந்தப்	-8.4978
▁நிறுவனம்	-8.49825
▁சிலர்	-8.49963
த்து	-8.4997
▁50	-8.50021
▁கல்லூரி	-8.50035
ேயே	-8.50042
ங்களில்	-8.50222
ப்பட்டது	-8.5024
▁தங்க	-8.50271
▁பதில்	-8.50667
▁சோதனை	-8.50788
▁கடன்	-8.50801
ஆர்	-8.50812
▁ரஷ்யா	-8.50887
▁த்திற்கு	-8.51052
▁தொடங்கி	-8.51191
▁ஆ	-8.51217
▁பயணம்	-8.51277
▁அவர்களுக்கு	-8.51441
▁மாணவர்கள்	-8.51865
தால்	-8.51882
▁கொடுத்து	-8.51895
▁என்னை	-8.52087
ுக்கான	-8.52335
▁பிரச்னை	-8.52442
▁ுள்ளது	-8.52475
ஐ	-8.52565
▁இருப்பதாக	-8.52616
▁அதிகம்	-8.52715
ோடு	-8.5291
▁ஆதரவு	-8.53138
▁கூடாது	-8.53169
▁13	-8.5341
▁இருந்தாலும்	-8.53597
▁மத	-8.53819
▁நம்பிக்கை	-8.54095
▁நான்கு	-8.54096
▁பகுதி	-8.54224
▁போலீஸ்	-8.54394
▁மாணவி	-8.54617
▁செய்தார்	-8.5499
யிலிருந்து	-8.55195
▁அரசின	-8.5533
▁16	-8.55372
▁நீதிமன்றம்	-8.55399
▁தந்தை	-8.55498
▁தால்	-8.55599
ண	-8.55784
▁நீதிபதி	-8.55828
▁வுக்கு	-8.5584
▁அண்ணாமலை	-8.55898
▁தொடர்பு	-8.56059
▁மின்	-8.5609
படி	-8.56146
▁சேவை	-8.56219
ுவதற்கு	-8.56234
▁சரி	-8.56349
▁கோவிலில்	-8.56439
▁அமெரிக்கா	-8.56521
ிலும்	-8.56631
ினார்	-8.56683
▁வந்தார்	-8.56861
▁விற்பனை	-8.5687
▁நீண்ட	-8.56882
▁கேட்ட	-8.57062
▁அதனை	-8.57176
▁சொல்லி	-8.57209
▁வெளியே	-8.57227
▁ுள்ளனர்	-8.57275
▁எதிரான	-8.57552
▁2022	-8.57553
ப்பு	-8.57953
ிலிருந்து	-8.58016
▁இல்லாமல்	-8.58033
▁உட்பட	-8.58194
▁நாட்டில்	-8.58259
▁14	-8.58269
யால்	-8.5828
▁கடைசி	-8.58483
▁பால்	-8.58867
▁19	-8.58895
▁மாற்ற	-8.58901
▁கூட்டம்	-8.59008
ப்படும்	-8.59035
▁அடி	-8.59317
▁நாடுகள்	-8.59578
▁நாடாளுமன்ற	-8.59647
▁சாலை	-8.59683
▁பங்கு	-8.59737
▁இல்லாத	-8.59926
பா	-8.6009
▁இணைந்து	-8.6014
▁வரி	-8.60263
க்குறிப்பு	-8.60268
▁கூறுகையில்	-8.60391
▁முடியாத	-8.60467
▁கோ	-8.60483
▁பலர்	-8.60599
▁போராட்டம்	-8.60722
▁வாங்க	-8.60838
▁அவை	-8.60914
▁சு	-8.60968
▁படம்	-8.61156
▁சட்டம்	-8.61265
▁கடும	-8.61386
▁மும்பை	-8.61509
▁லாம்	-8.6176
▁உடனடியாக	-8.61776
▁எல்லாம்	-8.61853
▁உள்ளார்	-8.61969
▁வில்	-8.62027
▁சந்தித்து	-8.62164
▁அல்ல	-8.6223
▁அமைப்பு	-8.62402
▁இருவரும்	-8.6244
ள	-8.62472
ஷ்	-8.62733
▁தாக்கல்	-8.62761
▁களையும்	-8.62826
▁நம	-8.63059
▁இருந்தார்	-8.63169
▁நடைபெற்று	-8.63421
▁வர்கள்	-8.63472
▁நடக்கும்	-8.63477
▁ஆண்டுகளாக	-8.63613
▁25	-8.63668
▁17	-8.6368
▁போன	-8.6376
▁வழி	-8.63908
▁இருப்பினும்	-8.63944
டை	-8.64208
சா	-8.64275
▁உச்ச	-8.64867
▁ஆண்டுகளுக்கு	-8.65014
▁உரிமை	-8.65237
▁முதலமைச்சர்	-8.65268
▁இந்து	-8.65275
▁மலை	-8.6543
▁சொந்த	-8.65574
▁தை	-8.65654
▁தென்	-8.65716
▁எதிர்பார்க்க	-8.65811
▁மேற்கு	-8.66043
▁வைக்க	-8.66064
▁திரு	-8.66161
▁ிருக்கிறார்	-8.6617
▁மகன்	-8.66402
▁நாள	-8.66464
வு	-8.66589
▁தவிர	-8.66598
▁ஆயிரம்	-8.66682
▁விட்டது	-8.6672
▁தலைவர்கள்	-8.66757
▁கிராம	-8.66784
▁ஆண்டில்	-8.66899
▁தலைமையில்	-8.6695
▁டன்	-8.66975
▁தெரிவித்துள்ளது	-8.66996
▁காட்ட	-8.67069
▁கிலோ	-8.6727
ெல்லாம்	-8.67327
ிருந்தார்	-8.67374
▁24	-8.67419
▁மோதி	-8.67436
கே	-8.676
▁ஹ	-8.67667
▁அவர்களை	-8.67871
▁அளவுக்கு	-8.67897
▁மேற்பட்ட	-8.68112
▁முழு	-8.68175
▁முன்னிட்டு	-8.68456
▁த்தான்	-8.68771
▁வைத்த	-8.68859
▁ஏராளமான	-8.68922
▁நடத்திய	-8.68967
▁எதுவும	-8.69023
▁பேசி	-8.69391
▁தேடி	-8.69514
லை	-8.69833
▁கடுமையாக	-8.6985
▁திருமண	-8.69962
▁கூட்டத்தில்	-8.69975
▁இருப்பது	-8.69979
▁கூறியுள்ளார்	-8.69989
▁உ	-8.70113
▁மும்	-8.70114
▁குமார்	-8.70139
▁ஸ	-8.70222
▁மொத்தம	-8.70378
▁பலரும	-8.70495
ப்பட	-8.70621
▁சக்தி	-8.70716
▁நேர	-8.70866
▁பாகிஸ்தான்	-8.70921
▁மாவட்டத்தில்	-8.70996
வர்கள்	-8.71011
▁யுடன்	-8.71032
▁முடியவில்லை	-8.71076
▁நீதிமன்ற	-8.71096
▁கொண்டிருந்த	-8.71153
▁காலம்	-8.71362
▁களால்	-8.71468
▁மகா	-8.71481
▁மத்தியில்	-8.71582
▁எடுத்த	-8.71675
▁ஏற்பட்டது	-8.71685
▁ஷா	-8.71721
▁அனுப்பி	-8.71735
▁ஏற்கனவே	-8.71834
▁தகவல்கள்	-8.71849
▁குடும்ப	-8.71954
▁ஜ	-8.71977
▁கொள்கை	-8.72008
ள்ள	-8.72081
▁s	-8.72097
▁செய்யப்பட்டுள்ள	-8.72789
▁பிற	-8.7282
▁தெரிவித்து	-8.72993
8	-8.73058
▁ரத்த	-8.73125
▁நோக்கி	-8.73139
▁விஜய்	-8.7325
▁40	-8.73582
▁பற்றிய	-8.73703
ந்து	-8.74012
▁ஆண்டுகள்	-8.74089
▁முதலில	-8.74269
▁தொடர	-8.74331
▁முறையாக	-8.74615
▁மேற்கொள்ள	-8.74688
▁ஒன்றை	-8.74691
▁முறையில்	-8.74787
▁ரன்கள்	-8.74949
▁இருந்தால்	-8.74957
▁சிறந்த	-8.7514
▁அனைவரும	-8.75259
▁சிவ	-8.75309
▁அடிக்க	-8.75434
▁உங்களுக்கு	-8.75475
▁வேண்டாம்	-8.75728
▁சீனா	-8.75873
▁கான்	-8.75981
▁நரேந்தி	-8.76058
▁கவனம்	-8.7619
▁அருகில	-8.76353
▁உற்பத்தி	-8.76398
▁மாநிலம்	-8.76448
▁கு	-8.76466
▁வாங்கி	-8.76484
▁சமீபத்தில்	-8.76615
▁திடீரென	-8.76725
▁உக்ரைன்	-8.76814
னை	-8.77043
▁கூடிய	-8.77081
▁ன்	-8.77418
▁தாகவும்	-8.7747
▁100	-8.77475
▁வட	-8.77545
▁ேன்	-8.77597
▁நம்	-8.77638
▁பிர	-8.7775
▁இனி	-8.77774
▁சிலை	-8.77942
▁சின்ன	-8.77963
▁ரஷ்ய	-8.78014
▁பிரிவு	-8.7806
▁அதிகரித்து	-8.78171
▁டாக்டர்	-8.78327
▁தேவையான	-8.78408
▁தமிழகத்தில	-8.78523
▁விவகாரம்	-8.78549
▁தமிழ	-8.78583
▁த்துக்கு	-8.78677
▁ி	-8.78774
▁இதுகுறித்து	-8.78808
▁கோயிலில	-8.78833
▁களுடன்	-8.7884
▁தொகை	-8.78892
▁நடிகர்	-8.78906
▁இடையில	-8.78924
▁குழந்தைகள்	-8.79163
▁மான	-8.79173
▁விரைவில்	-8.79314
▁வாழ்க்கை	-8.79461
▁நெருக்கடி	-8.79518
▁நாட்கள்	-8.79661
ற	-8.79779
▁யாரும	-8.79872
▁விடுதலை	-8.79986
கி	-8.80045
▁தொகுதி	-8.80061
▁மிகப்பெர	-8.80098
▁போட்டு	-8.80902
▁ோம்	-8.81127
▁முக்கியமான	-8.8114
▁ுள்ளன	-8.81339
ட்டி	-8.81409
▁ு	-8.81459
▁சட்டசபை	-8.81868
▁வெளி	-8.81874
▁சிறப்பாக	-8.82002
▁இரண்டாவத	-8.8228
▁அம்மன்	-8.82331
▁பொதுமக்கள்	-8.82533
▁களாக	-8.82635
▁தீ	-8.82642
▁நிலைய	-8.82746
▁ஏற்படுத்தி	-8.82749
ட்டு	-8.8315
▁மக்களின	-8.83196
▁மனித	-8.83269
1	-8.83318
▁குறிப்பிட்டார்	-8.83558
▁எங்களுக்கு	-8.83639
▁பால	-8.83753
▁ஆலோசனை	-8.83822
▁மொழி	-8.83835
▁பிரதேச	-8.83849
▁பாராளுமன்ற	-8.83867
▁மருத்துவமனையில	-8.83937
▁பேசினார்	-8.84151
▁தொடர்	-8.84219
▁செய்யப்பட்டது	-8.84387
▁நடக்கிறது	-8.84441
▁செய்வது	-8.84549
▁தே	-8.84561
▁சபை	-8.84728
▁தண்டனை	-8.84738
▁வளர்ச்சி	-8.85163
▁குடியரசு	-8.8527
▁தன்னை	-8.85407
▁ந	-8.85465
ழ	-8.85635
▁வீரர்கள்	-8.85691
▁நம்ம	-8.85693
▁கார	-8.85707
▁கிட்ட	-8.86023
▁நடைபெற	-8.86161
▁செய்தது	-8.86395
என்	-8.86397
▁போய்	-8.86675
▁அங்கிருந்த	-8.86689
▁மக்களை	-8.86725
▁திருவிழா	-8.86832
▁இதுபோன்ற	-8.86846
▁மற்றொரு	-8.86903
▁விழாவில்	-8.86983
▁கேட்டு	-8.87027
த்தகைய	-8.87063
▁எல்லா	-8.87261
▁தரப்பு	-8.87268
▁வா	-8.87298
▁ஜூலை	-8.87317
▁ராஜ	-8.87485
▁இட	-8.87596
டு	-8.87634
▁மாற்றம்	-8.87854
▁மொத்த	-8.88014
▁எதிர்	-8.8808
▁உறுப்பினர்	-8.88232
▁நாடுகள	-8.88251
▁இவர	-8.88293
▁நபர்	-8.88525
ினால்	-8.88569
i	-8.8863
▁பேச்சுவார்த்தை	-8.88635
▁எதிர்க்கட்சி	-8.88664
கோ	-8.88731
▁பணிகள்	-8.88954
▁அளிக்க	-8.8898
▁செய்யப்பட்டு	-8.88984
▁அதன்படி	-8.89004
▁இயக்க	-8.89024
a	-8.89184
▁கூறிய	-8.89283
▁பண	-8.89291
▁மாநிலத்தில்	-8.89351
▁சந்தித்த	-8.8938
▁அடைந்த	-8.89445
கடுமையான	-8.89511
▁தற்கொலை	-8.89657
▁போட	-8.89697
▁சனி	-8.89858
▁குறைந்த	-8.89869
▁மாதிரி	-8.90048
▁போக	-8.90049
▁நிறுத்த	-8.90102
%	-8.90289
▁ஜனநாயக	-8.90344
▁மார்ச்	-8.90535
▁ால்	-8.90609
y	-8.9063
e	-8.90646
▁பக்கம்	-8.90692
▁மருத்துவமனை	-8.90735
▁என்கிற	-8.90842
▁கிரிக்கெட்	-8.90881
▁ங்களை	-8.90948
ோர்	-8.91022
▁21	-8.91088
▁ங்கள்	-8.91152
▁இவர்கள்	-8.91188
▁அமைக்க	-8.91229
▁தனக்கு	-8.9147
▁சட்டமன்ற	-8.91494
▁பணத்தை	-8.91496
▁தரிசனம்	-8.91605
▁பூ	-8.91711
▁தற்போத	-8.91771
▁22	-8.91804
▁அளவு	-8.91926
▁நீதிமன்றத்தில	-8.92109
▁வாழ	-8.92143
▁மனு	-8.9217
▁கதை	-8.92364
▁ுள்ளார்	-8.9237
▁போக்குவரத்து	-8.92397
▁ஆகும்	-8.92443
▁வழியாக	-8.92512
▁பயன்படுத்தி	-8.92558
▁வன்முறை	-8.9262
▁கட்டி	-8.92843
▁நோய்	-8.92971
▁2024	-8.92987
▁செ	-8.92996
▁நிர்வாகிகள்	-8.93174
▁தாய்	-8.93212
▁தீவிர	-8.93448
▁செயல்	-8.93564
▁சிறிய	-8.93639
▁அதேபோல	-8.93707
யர்	-8.93785
▁பேச்சு	-8.942
▁சுகாதார	-8.94361
▁நிறைய	-8.94364
▁சிறு	-8.94392
▁வெளிநாட்டு	-8.94636
▁23	-8.948
▁பொதுக்குழு	-8.94936
▁கொண்டனர்	-8.95109
▁தன	-8.95249
▁நாட்டு	-8.95294
▁முன்னதாக	-8.95304
▁சேர்ந்து	-8.95419
▁திட்டத்தை	-8.9542
ிட	-8.95533
▁கொண்டார்	-8.95623
▁கண்ட	-8.95742
▁தலை	-8.95881
▁தினம்	-8.95916
▁வெளியிட்ட	-8.95991
▁இல்	-8.96077
▁வருகிறார்கள்	-8.96101
▁சந்திக்க	-8.96132
▁பகுதியை	-8.96146
▁ஜூன்	-8.96172
▁விவசாய	-8.96176
▁அறிவிக்கப்பட்ட	-8.96268
▁உள்	-8.96377
▁அபிவிருத்தி	-8.96503
▁வசதி	-8.96676
▁கிழக்கு	-8.96746
▁வந்தனர்	-8.96982
▁அடுத்து	-8.96998
▁குற்றம்	-8.97119
ங்களை	-8.97164
ட்ட	-8.9734
▁எ	-8.97365
▁நாட்களுக்கு	-8.97409
▁உரிய	-8.97411
▁இயக்குநர்	-8.97419
▁உருவாக்க	-8.97534
▁ஓர	-8.97534
விட	-8.97617
▁பெருமாள்	-8.97649
▁அறிக்கையில்	-8.97706
ணி	-8.9771
9	-8.9795
▁விவகாரத்தில்	-8.97989
▁வகுப்பு	-8.98005
▁நீ	-8.98016
▁முடிந்த	-8.98082
ிருக்கும்	-8.98125
▁பிடித்த	-8.98137
▁மாவட்டங்களில	-8.98146
ூர்	-8.98164
▁போட்டியில	-8.98322
▁கலை	-8.98379
▁அரசாங்க	-8.98557
▁யால்	-8.98602
▁ிருக்கும்	-8.98743
▁க்காக	-8.98777
ுவது	-8.98822
▁உண்மை	-8.98836
▁சுதந்திர	-8.98874
▁மோதல்	-8.99111
▁யான	-8.99118
▁நிலைமை	-8.99127
▁சந்தை	-8.99339
▁ிருந்த	-8.99484
▁சரியாக	-8.99565
▁கேட்க	-8.9957
▁யோ	-8.99576
▁மாநகராட்சி	-8.99607
▁சூழலில்	-8.9967
▁பிறந்த	-8.9968
▁படை	-8.99699
▁ஆறு	-8.99823
மீ	-8.99851
▁வகை	-8.99988
▁தலைமையில	-9.00006
▁களுக்க	-9.00031
▁விட்டார்	-9.00498
▁காட்சி	-9.00506
▁ஏற்ற	-9.00667
▁நிர்வாக	-9.0077
த்தி	-9.00881
ரு	-9.01105
▁ஆண்டுகளில்	-9.01127
▁நிறுவனங்கள்	-9.01137
▁கிடையாது	-9.01257
யோ	-9.01296
▁வழங்கப்படும்	-9.01553
▁முதலீடு	-9.01565
▁மாநிலங்களில	-9.01758
▁தடுக்க	-9.01854
▁சா	-9.01972
▁அதிகரிக்கும்	-9.02061
▁நிகழ்ச்சியில்	-9.02296
▁மாறி	-9.02341
ூ	-9.02357
▁மேற்கொண்ட	-9.02372
▁அறிவிப்பு	-9.02377
▁தண்ணீர்	-9.0241
▁கையில்	-9.0248
▁உடனே	-9.02488
▁பு	-9.0251
ீ	-9.02523
▁அங்கே	-9.02589
▁தெரிவித்தனர்	-9.02611
▁உத்தரவு	-9.02684
த்துக்கு	-9.02732
▁திரும்ப	-9.02758
▁A	-9.02797
▁தினம	-9.02811
▁கிடைத்த	-9.02826
▁மை	-9.02881
ாவது	-9.02897
▁அதிர்ச்சி	-9.0304
▁அவர்களின	-9.0319
▁சுற்றி	-9.03216
▁சரியான	-9.0325
▁தொடங்கியது	-9.03293
▁இறுதி	-9.03329
விட்டு	-9.03343
▁பாட	-9.03471
▁அனைவர	-9.03498
▁ரணில்	-9.03553
▁மாக	-9.03612
ப்படி	-9.03776
▁வாக்கு	-9.03822
▁பட்ட	-9.03951
▁விளையாட்டு	-9.03965
வ்	-9.04061
▁தரப்பில்	-9.04208
▁செல்வ	-9.04287
▁நடக்க	-9.04464
டன்	-9.04559
▁அணிய	-9.04565
▁தவறு	-9.04616
▁வெளியாகி	-9.04672
▁மருத்துவர்	-9.04692
▁சீன	-9.04693
▁விட்ட	-9.04709
▁S	-9.04709
▁லா	-9.04712
▁மெ	-9.04778
▁சிறுமி	-9.04801
▁ரத்து	-9.05085
▁இணை	-9.05241
▁நாளில்	-9.05293
▁கூடுதல்	-9.05351
▁நாட்டை	-9.05436
▁மி	-9.05443
▁பிரச்சனை	-9.05597
▁விபத்து	-9.05616
▁விடும்	-9.05758
▁கலந்துகொண்ட	-9.05989
▁கடல்	-9.06057
▁குறித்தும்	-9.06096
▁ாமல்	-9.06102
▁இருக்கலாம்	-9.06196
▁போதும்	-9.06264
▁ஏற்பட்டுள்ளது	-9.06276
▁சுற்றுலா	-9.06278
2	-9.06294
20	-9.06313
▁அவசியம்	-9.0632
▁பரபரப்பை	-9.06504
▁ஏற்பாடு	-9.06526
▁தொழில்நுட்ப	-9.0655
▁என்பத	-9.06618
▁தொடங்கிய	-9.06632
▁சர்ச்சை	-9.06758
▁வருவதாக	-9.06858
▁கால்	-9.06892
▁ப்பட்டு	-9.06962
▁ப்படுகிறது	-9.06999
▁எவ்வளவு	-9.07007
6	-9.07055
▁வோ	-9.07085
▁தலைவராக	-9.07279
ச்ச	-9.07344
▁அம்மா	-9.07437
▁அரசுக்கு	-9.07451
▁வழங்கி	-9.07471
▁ஷ	-9.07498
▁சார்ந்த	-9.07523
▁தொடங்க	-9.07541
▁தொற்று	-9.07552
ஷ	-9.0774
▁எடுத்துக்	-9.07857
▁திகதி	-9.07878
▁அதற்க	-9.07919
▁அதிரடி	-9.08164
▁உண்டு	-9.08197
▁இணைய	-9.08214
▁வர்கள	-9.08214
▁இலங்கையில்	-9.083
▁தெரியவில்லை	-9.08309
▁சொன்ன	-9.08418
க்கூடிய	-9.08436
▁எப்போதும	-9.08533
▁ப்படும்	-9.08658
▁மோசமான	-9.0884
▁முக	-9.0905
▁தொடர்பில்	-9.09066
▁தெரியும்	-9.09096
▁ரசிகர்கள்	-9.09267
▁அவசர	-9.09396
▁பக்கத்தில்	-9.09488
போது	-9.09601
▁எச்சரிக்கை	-9.09614
▁இதற்காக	-9.09729
ய்	-9.09736
▁அவன	-9.09774
▁சசிகலா	-9.09864
▁புது	-9.10227
▁நில	-9.10337
▁பேர	-9.10646
▁ஒருவர	-9.10698
ாய்	-9.10728
▁கூட்ட	-9.10767
ரோ	-9.11015
▁குஜராத்	-9.11031
▁சேர்த்து	-9.11135
தற்கான	-9.11433
▁தெரிய	-9.1147
3	-9.11554
▁நிர்வாகம்	-9.11656
▁தந்த	-9.11661
▁நீட்	-9.11737
▁மேற்கொண்டு	-9.11823
▁ஐக்கிய	-9.11929
▁சோ	-9.11971
▁ரா	-9.12175
▁இவை	-9.12197
▁பொருட்களை	-9.12284
▁நீதி	-9.12404
▁60	-9.12414
▁பேருக்கு	-9.12462
ிடையே	-9.12506
▁ஒருங்கிணைப்பாளர	-9.1264
▁வேட்பாளர்	-9.12825
▁வெறும	-9.12841
▁கொடி	-9.12922
▁பழைய	-9.12953
▁ிருந்தது	-9.13151
▁நிலையத்தில	-9.13174
▁பரிசோதனை	-9.13258
▁இவ்வாற	-9.13264
▁தெரிகிறது	-9.13386
▁இருக்கின்றன	-9.13436
▁இதே	-9.13457
▁முழுமையாக	-9.1362
▁உயிரிழந்த	-9.13621
▁பொறுப்பு	-9.13637
▁பிடித்து	-9.13703
▁ஒன்ற	-9.13725
▁தீர்ப்பு	-9.13778
▁ஆகியவை	-9.1378
▁மில்லியன	-9.13842
ஸ	-9.13862
▁ஜோ	-9.13975
▁உயிர்	-9.13975
▁த்துடன்	-9.13997
▁அடித்து	-9.14136
▁இரண்டாம	-9.14161
▁பேராசிரியர்	-9.14176
t	-9.14182
▁ஊடக	-9.14229
▁தோல்வி	-9.14259
▁கடை	-9.14335
▁2023	-9.14352
▁எதிர்த்து	-9.14365
▁பாலாஜி	-9.14387
A	-9.14482
7	-9.14523
கு	-9.14704
▁இன்னொரு	-9.14757
▁கவலை	-9.14776
▁வழங்கும்	-9.1489
▁சூழல்	-9.15018
▁C	-9.15026
▁இன்ற	-9.15156
▁வீட்டு	-9.15224
▁பேருந்து	-9.15326
▁வழங்கிய	-9.1546
▁கா	-9.15487
▁ஏப்ரல	-9.1574
▁அமைப்ப	-9.15824
கர்	-9.16241
▁மோசடி	-9.16334
▁அதேபோல்	-9.16483
▁நேரடியாக	-9.16492
u	-9.16518
▁பொருட்கள்	-9.16679
▁ஆன்லைன	-9.16747
▁வருமான	-9.16783
▁களுக்கும்	-9.16824
▁சிறையில	-9.16875
▁கௌரவ	-9.16885
▁விநாயகர்	-9.16931
▁கடிதம்	-9.16967
▁உள்ளே	-9.16989
▁அதைத்	-9.17096
ுகிறது	-9.1711
▁சமய	-9.1724
▁ப்பட்ட	-9.17339
▁வழக்கம்	-9.1746
▁ார்கள்	-9.17474
▁விவசாயிகள்	-9.17498
சு	-9.17634
▁தெரிவிக்கப்பட்ட	-9.17761
▁ஆடி	-9.1777
ஹ	-9.17864
▁பங்கேற்ற	-9.17946
▁வென்ற	-9.17956
▁திருச்சி	-9.18105
▁வழிபாடு	-9.18106
▁தம	-9.18123
▁அங்க	-9.18307
▁கட்சிகள்	-9.18381
▁27	-9.18406
▁பிப்ரவரி	-9.18562
▁எண்ண	-9.18608
▁உள்ளாட்சி	-9.18628
▁வுடன்	-9.18629
▁தெரிவிக்க	-9.18639
▁சேர்ந்தவர்	-9.18646
▁அனுப்ப	-9.18692
எம்	-9.18709
▁பஞ்சாப்	-9.18722
▁ங்களில	-9.18853
▁மூலமாக	-9.1897
▁எண்ணெய்	-9.19006
▁ஒன்றாக	-9.19082
▁நடித்த	-9.1914
▁நாட்களில்	-9.19193
▁எல்லை	-9.19268
▁திட்டத்தின்	-9.19295
▁தடுப்பூசி	-9.19309
▁மண்டல	-9.19459
▁எழுதிய	-9.19515
▁சொத்து	-9.19523
▁ஆகஸ்ட	-9.19548
o	-9.19632
▁அமைச்சரவை	-9.19689
▁கணவர்	-9.19724
ப்பா	-9.19778
▁கூற	-9.19927
▁திராவிட	-9.19972
▁அதிகமான	-9.2
▁காட்டி	-9.20008
▁இங்கே	-9.2006
▁பெரும்பாலான	-9.20066
▁ரி	-9.20131
▁ிருந்தார்	-9.20133
▁2021	-9.20174
▁ாலும்	-9.20182
▁லை	-9.20187
▁அதோடு	-9.2027
▁நல	-9.20489
▁ராசி	-9.2053
▁வன	-9.20607
▁செந்தில்	-9.20707
▁த்த	-9.20721
▁கொண்டே	-9.20774
▁மக்கள	-9.20793
▁ிருக்க	-9.20832
▁வருகை	-9.20859
▁அமெரிக்காவ	-9.20876
▁அண்ணா	-9.2107
▁தயாராக	-9.21084
டா	-9.21119
▁என்பவர்	-9.2134
▁சிறை	-9.21372
▁குறிப்பிட	-9.2138
▁போட்டியிட்ட	-9.21424
▁வெளியிட	-9.21445
▁ஊர்	-9.21501
▁இளைஞர்	-9.21608
▁ஆட்சியை	-9.2168
▁ுகிறது	-9.21809
5	-9.21809
▁அடிப்படை	-9.21829
இல்	-9.21913
▁உள்ளதாக	-9.21926
▁மது	-9.21968
▁தில்	-9.22099
▁ஏற்கெனவே	-9.22124
▁அதிகாலை	-9.22125
▁28	-9.22126
▁மோ	-9.22129
▁உறவு	-9.22181
▁உறுப்பினர்கள்	-9.22214
ாளர்	-9.22247
4	-9.22309
▁வருட	-9.22336
▁இயற்கை	-9.22341
▁சாதி	-9.22367
▁வைக்கப்பட்ட	-9.22688
▁நி	-9.22711
▁26	-9.22722
▁வெளியான	-9.22736
▁கட்சியை	-9.22931
▁எப்போது	-9.23115
▁கண்	-9.23237
▁தீவிரமாக	-9.23246
▁கட்டுப்படுத்த	-9.23293
▁செலவு	-9.23294
▁நடிகை	-9.23363
று	-9.23521
▁கருத்த	-9.2355
▁ராம	-9.23627
ியல்	-9.23782
ச்சி	-9.23822
▁மகள்	-9.23853
வுக்கு	-9.24002
▁பாதுகாப்ப	-9.24013
கை	-9.24023
▁போட்டியிட	-9.24087
▁2019	-9.24124
▁விஷயம்	-9.24144
ிங்	-9.24148
▁நினைவு	-9.24158
▁இறந்த	-9.24167
▁புதுச்சேரி	-9.242
த்துடன்	-9.24223
▁செயல்பட	-9.24261
▁நடைமுறை	-9.24319
▁ுவதற்க	-9.24329
▁பதவியை	-9.24362
▁அணிக்கு	-9.24397
ிறது	-9.24482
▁எத்தனை	-9.24521
▁ஏற்படுத்தியுள்ள	-9.2455
துறை	-9.24571
▁செய்தியாளர்கள	-9.24575
▁வீர	-9.24743
▁வாகன	-9.24758
▁அதிகரிக்க	-9.24771
▁நடவடிக்கைகள்	-9.24796
▁வீட்டுக்கு	-9.24835
▁வேகமாக	-9.24885
▁ப்பட	-9.24995
▁பணியில	-9.25003
▁திட்ட	-9.25024
▁இருப்பதால்	-9.2505
▁கர்நாடக	-9.25058
▁உடன்	-9.25144
னு	-9.25241
▁அக்டோபர	-9.25371
▁கழக	-9.25407
▁ஏற்படுத்த	-9.25448
▁வீரர்	-9.25478
▁ஜனவரி	-9.25498
ுமாறு	-9.25516
▁யானை	-9.25536
▁ஏற்படுத்திய	-9.25624
▁அறிவித்த	-9.25645
▁ஆராய்ச்சி	-9.25655
ிருந்தது	-9.25763
▁வருவது	-9.25852
▁வாரம்	-9.25918
▁கோப்பை	-9.25994
▁நிறுவனத்தின	-9.2605
▁ஈடுபட்டு	-9.26055
▁வைரஸ்	-9.26212
சாமி	-9.26246
▁ஆளும	-9.26651
▁முழுக்க	-9.26756
ுந்த	-9.26806
▁தீர்வு	-9.26834
▁நமக்கு	-9.2685
▁போட்ட	-9.26938
▁முகமது	-9.27142
▁ராகு	-9.27169
ாலும்	-9.27202
▁சதவீத	-9.27233
▁தகுதி	-9.27304
▁களிலும்	-9.27323
▁ள்ள	-9.27473
ப்பட்டு	-9.27549
▁பெண்களுக்கு	-9.27592
▁ரவி	-9.27643
ராஜ்	-9.27707
▁இன்	-9.27758
▁செயல்பட்டு	-9.27812
ண்ட்	-9.27812
▁பணிகளை	-9.279
▁மாற்றி	-9.28198
▁லி	-9.28234
ெ	-9.28262
▁மதிப்பு	-9.28267
▁பொறுத்தவரை	-9.28312
க்குள்	-9.2836
▁கிராமத்தில்	-9.28563
▁நடத்தினர்	-9.28573
▁போட்டிகளில	-9.28611
▁நடவடிக்கைகளை	-9.28619
▁உள்ளூர்	-9.28688
▁வார	-9.28712
▁போலவே	-9.28721
▁பெயரை	-9.28826
▁பெயரில	-9.29019
▁ஆணையம்	-9.29122
▁கொஞ்சம	-9.2921
▁மருத்துவமனைக்கு	-9.29246
சன்	-9.29277
▁நகர்	-9.29285
▁கோலி	-9.29302
▁மரியாதை	-9.29403
▁மருந்து	-9.29403
▁சார்	-9.29588
▁சாமி	-9.29694
▁கண்டு	-9.29724
▁நா	-9.29753
▁மூலாதார	-9.29833
▁முடிவுகள்	-9.29834
▁அல்	-9.29873
▁தமிழகம்	-9.29902
▁இசை	-9.29916
▁நின்று	-9.29933
▁நிகழ்வு	-9.30055
▁அமைதி	-9.30112
▁ஆசிரியர்	-9.30228
;	-9.30236
▁பை	-9.30297
▁கோர	-9.30346
▁மகளிர	-9.30351
▁ஹமாஸ்	-9.30402
▁ஊழல்	-9.30403
▁அத்துடன்	-9.30423
▁யிலும்	-9.30453
ுள்ளதாக	-9.30539
▁அடையாளம்	-9.30548
▁அமைச்சர்கள்	-9.30552
▁னார்	-9.30556
▁நம்ப	-9.30563
▁போராட்டத்தில்	-9.30602
க்கள்	-9.30711
▁மகிழ்ச்சி	-9.30992
வரும்	-9.31019
▁ஏற்படுத்தும்	-9.31072
▁முன்பாக	-9.31087
ந்	-9.31108
▁வழக்கறிஞர்	-9.31168
▁அனைவருக்கும	-9.31204
▁எங்க	-9.31225
▁ஜே	-9.31245
▁இலவச	-9.31246
▁ுள்ளதாக	-9.31314
▁ங்களுக்கு	-9.31344
▁விசாரணையில்	-9.31381
▁பங்கேற்க	-9.31386
▁குமார	-9.31537
▁மின்சார	-9.31588
▁ஈடுபட்ட	-9.31684
▁பேரை	-9.31692
▁புரிந்து	-9.31841
▁ஆகியவற்ற	-9.31925
▁P	-9.32015
▁மர	-9.32023
▁போ	-9.32045
▁கோரி	-9.32075
▁தொகுதியில	-9.32096
▁கண்டுபிடிக்க	-9.32141
▁சென்றார்	-9.32155
▁டை	-9.32235
▁சங்க	-9.32236
▁மக்களவை	-9.32289
▁வடக்கு	-9.32343
▁விளக்கம்	-9.32371
றி	-9.32374
நா	-9.32451
▁B	-9.32614
▁முடியாமல்	-9.32618
▁மாணவர்களுக்கு	-9.32631
▁ராஜா	-9.32642
▁தரும்	-9.32697
▁தகவல்களை	-9.3275
▁பெ	-9.32812
▁பொருள்	-9.33123
▁ஜெயலலிதா	-9.33137
▁க்கூடிய	-9.33144
▁டா	-9.33214
▁பொதுவாக	-9.33319
▁செப்டம்பர	-9.33336
▁ுவது	-9.33398
ண்ட	-9.33436
▁பல்கலைக்கழக	-9.33455
▁முதல	-9.33456
▁ஒன்றில்	-9.33533
▁இந்தியாவுக்கு	-9.33623
▁வங்க	-9.33629
▁இளம்	-9.33647
▁அவற்றை	-9.33688
▁அரசியலில	-9.33818
▁29	-9.33848
▁விதமாக	-9.33907
▁மாணவர்	-9.33928
▁விபத்த	-9.34056
▁அணை	-9.34096
▁ஒ	-9.34146
▁பெறும்	-9.34218
▁இருக்கிறார்கள்	-9.34258
▁இல்ல	-9.34386
▁அதிகார	-9.34424
▁குற்றச்சாட்டு	-9.34456
▁உதயநிதி	-9.34546
▁எல்	-9.34638
▁ங்களும்	-9.34649
▁சட்டத்தின்	-9.34706
▁இதனிடையே	-9.34906
▁அலுவலகத்தில	-9.34979
▁ரீதியாக	-9.35069
▁ஆனாலும்	-9.35091
▁சென்றனர்	-9.35185
▁மாகாண	-9.35266
▁பெட்ரோல்	-9.35278
▁டிசம்பர	-9.35388
▁மேற்கொள்ளப்பட்ட	-9.35457
S	-9.35465
▁பே	-9.35504
▁படிக்க	-9.35592
▁தொடர்ச்சியாக	-9.35669
▁விக்ரமசிங்க	-9.35737
▁நன்றி	-9.35821
ிடமிருந்து	-9.35932
▁கிடைத்தது	-9.36051
▁ஜெய	-9.36182
▁ஈ	-9.36188
ஞ்ச	-9.36305
▁ஆதரவாக	-9.36356
▁வைத்தார்	-9.36455
▁மூன்றாவத	-9.36499
ளி	-9.36518
▁ஒன்றிய	-9.3658
▁உலகம்	-9.36609
▁என்றாலும்	-9.36689
தே	-9.36712
யன்	-9.36732
▁ஆண்	-9.36839
▁வழக்கை	-9.36896
▁வீதி	-9.37004
▁பொங்கல	-9.37114
▁இஸ்ரேல	-9.3714
ஃப்	-9.37262
▁புதிதாக	-9.37283
▁குறைவாக	-9.37313
▁எம்பி	-9.37367
▁விசாரித்த	-9.37378
▁வழங்கப்பட்டது	-9.37573
▁வெளியிட்டுள்ள	-9.37655
▁விசாரணைக்கு	-9.37662
▁பெற்றோர்	-9.37706
▁காலமாக	-9.37945
▁குறைக்க	-9.37998
▁முக்கியத்துவம்	-9.3808
▁ரன்களை	-9.38132
▁பிரதான	-9.38143
▁விற்கு	-9.38144
▁த்தின	-9.38178
▁சம்பவ	-9.38193
▁பெற்றது	-9.3828
▁பண்ண	-9.383
▁பார்வை	-9.38321
▁விளையாட	-9.38386
▁வயதில	-9.38401
▁மீட்டர்	-9.38467
▁பக்தர்களுக்க	-9.38571
▁தின	-9.38572
▁200	-9.38594
▁அபிஷேகம்	-9.38644
▁நன்றாக	-9.38744
▁கூறுகின்றனர்	-9.38805
▁ரயில்வே	-9.38909
▁வாழ்ந்த	-9.38974
▁திரும்பி	-9.38991
▁மாற	-9.39074
▁சாப்பிட	-9.39155
▁முஸ்லிம்	-9.39158
▁நாட்களாக	-9.39189
▁கொ	-9.39244
▁திட்டங்கள்	-9.39269
▁கேப்டன்	-9.39273
▁மறு	-9.39417
▁ுகிறார்கள்	-9.39438
▁பிரச்சினை	-9.39502
▁தரப்பினர	-9.39566
▁விருது	-9.39633
▁செய்யப்படும்	-9.3971
▁தன்னுட	-9.39717
▁கொண்டாட	-9.39744
▁கொண்டது	-9.39783
▁அடித்த	-9.39803
ிக்க	-9.39877
▁இடத்தை	-9.39922
▁ஏற்பட	-9.39974
▁திறந்து	-9.4
▁அதிருப்தி	-9.40224
▁னு	-9.403
▁முடிவுக்கு	-9.40306
ண்	-9.40598
▁பத்து	-9.40601
▁ர்	-9.40641
▁கொடுக்கும்	-9.40645
▁வலி	-9.40698
ப்பட்டுள்ளன	-9.40713
▁பகவான்	-9.40729
▁வழங்கப்பட்ட	-9.40886
▁காதல்	-9.40892
▁தானே	-9.41035
▁த்தால்	-9.41045
ிற	-9.41076
▁கிடைக்க	-9.41161
▁இலக்க	-9.41257
▁துறையில்	-9.41333
▁புனித	-9.41388
▁போதே	-9.41403
▁திரைப்பட	-9.41484
▁மையம்	-9.41663
▁ட்விட்டர்	-9.41667
▁வர்த்தக	-9.41732
▁அப்	-9.41869
▁டீ	-9.41869
▁பயணிகள்	-9.41883
▁ப்ப	-9.4193
▁மாதத்தில்	-9.41968
▁முயன்ற	-9.41984
▁செலுத்தி	-9.41999
▁ஏற்படுத்தியது	-9.42093
▁வலியுறுத்தி	-9.42125
▁பூஜைகள்	-9.42134
▁ராஜ்	-9.4214
▁பெண்ண	-9.4222
▁இதற்க	-9.42223
▁ஆட்சியில	-9.42346
▁சம்பந்தப்பட்ட	-9.42363
▁சேர்த்த	-9.42428
▁படத்தை	-9.42433
▁கணக்கு	-9.42575
▁சே	-9.42701
ுகின்றனர்	-9.42703
▁அருள்	-9.4275
▁தடுப்பு	-9.4275
▁ஐந்த	-9.42795
▁வசிக்க	-9.42816
▁அழைப்பு	-9.42873
▁யாருக்கு	-9.42917
▁சற்று	-9.42934
▁எம	-9.42949
▁முதல்வராக	-9.42998
▁தாண்டி	-9.43198
▁ராஜஸ்தான்	-9.43277
▁விதி	-9.4336
▁பதிலாக	-9.43379
▁துடன்	-9.43408
.30	-9.43459
▁வரலாற்று	-9.43509
ிருந்து	-9.43549
▁வருமானம்	-9.43586
▁உயர	-9.43676
▁உயர்வு	-9.43701
▁கொழும்பு	-9.43703
▁திட்டங்களை	-9.43807
▁தவறான	-9.43872
▁டு	-9.43931
E	-9.43948
▁வாக்குகள்	-9.44065
▁வானிலை	-9.44104
▁இருந்தனர்	-9.4416
▁நிலையம்	-9.44163
▁சக	-9.44201
▁அப்பா	-9.44242
▁நிறுத்தி	-9.44249
▁முன்னர்	-9.44265
▁ஆற்ற	-9.44317
▁நிறுவனங்கள	-9.44363
▁வயதான	-9.44494
▁ஒதுக்கீடு	-9.4451
▁இதுதான்	-9.44532
▁70	-9.44557
ந	-9.44634
▁ுகின்றனர்	-9.44645
▁நிறைவேற்ற	-9.44668
▁பகிர்ந்து	-9.44692
▁கோட்டை	-9.44701
▁சண்டை	-9.44903
த்தட்ட	-9.44962
▁சாதாரண	-9.4504
▁வர்களுக்கு	-9.45049
▁அரசாங்கம	-9.4507
▁தமிழர்	-9.45072
▁எனப்	-9.45076
▁திறன்	-9.45093
▁குரல்	-9.4517
▁கொள்ளும்	-9.45227
▁வன்கொடுமை	-9.45291
▁த்திலும்	-9.45294
▁தனியாக	-9.45411
▁கர	-9.45441
▁அலை	-9.45545
▁ராம்	-9.45567
▁விசாரிக்க	-9.45572
▁தெரியவந்தது	-9.45611
▁ப்படவில்லை	-9.45673
▁காங்கிரஸ	-9.45729
▁அப்போத	-9.45841
▁னா	-9.45871
▁சேலம்	-9.45891
▁கருணாநிதி	-9.45913
▁தூக்கி	-9.45943
▁அண்ட	-9.46
▁வலைதளங்களில	-9.46004
▁ள	-9.46087
▁ராஜினாமா	-9.4609
▁லே	-9.46187
▁பொதுச்	-9.46217
▁ாத	-9.46297
▁சினிமா	-9.463
▁மாதங்களுக்கு	-9.46388
▁வெள்ள	-9.46418
▁வருகிறோம்	-9.46516
▁தங்களுக்கு	-9.46522
▁தவிர்க்க	-9.46597
▁மேலாக	-9.46654
▁யு	-9.46658
பர்	-9.46695
ஐந்து	-9.46729
▁ப்பட்டது	-9.46969
▁ரஷ்யாவ	-9.46986
▁சேர	-9.46995
▁துவங்கியது	-9.47012
▁பாதை	-9.47071
▁பணியாற்ற	-9.47134
▁வீசிய	-9.47212
ுக்காக	-9.47285
▁சதவீதம்	-9.47294
▁என்கிறார்கள்	-9.47315
▁ஏற்பட்டு	-9.47397
▁ஒட்டுமொத்த	-9.47504
▁கேட்டுக்	-9.47544
▁ஏற்பாடுகளை	-9.47585
▁செய்துள்ளார்	-9.47621
▁ே	-9.47625
▁ஏற்க	-9.47705
▁நியமிக்கப்பட்ட	-9.47883
▁பெண்கள	-9.47912
▁சர்மா	-9.47948
▁கப்பல்	-9.47982
▁களே	-9.48096
▁ஆஃப்	-9.48138
▁சுய	-9.48174
▁2020	-9.483
▁ஊழியர்கள்	-9.48359
▁முடிந்தது	-9.48376
▁நாடுகளில	-9.48453
▁தோ	-9.48456
▁வாய்ந்த	-9.48479
மோ	-9.48593
▁ிறது	-9.48672
▁வரலாறு	-9.48688
▁நல்லது	-9.48871
C	-9.49017
▁கூட்டு	-9.49036
▁அடையாள	-9.49041
▁கட்டணம்	-9.49044
▁இருப்பதை	-9.49069
▁in	-9.49071
▁பிக்	-9.49075
▁பெயர	-9.4908
▁குற்றச்சாட்டுகள	-9.49195
▁தன்ன	-9.49234
▁நிறுவன	-9.49254
▁வீட்டிற்கு	-9.49324
▁மதிய	-9.49364
▁வெளியுறவு	-9.49378
▁தேர்	-9.49386
▁என்றே	-9.49434
▁கட்சிக்கு	-9.49441
▁காலி	-9.49469
▁எனினும்	-9.4956
ரே	-9.49564
▁அறிவிக்க	-9.49595
▁தீர்மானம்	-9.49617
▁ஜா	-9.49668
▁ுமாறு	-9.49785
▁ரோ	-9.49834
▁பெருமை	-9.49938
▁ஆரம்ப	-9.49974
▁ரன்	-9.50002
▁80	-9.50057
▁விமர்சனம்	-9.50107
▁பிடிக்க	-9.50199
▁ிருக்கிறார்கள்	-9.50268
▁போகும்	-9.50393
▁டெஸ்ட்	-9.50399
▁நகராட்சி	-9.5041
▁31	-9.50443
▁பின்பற்ற	-9.50449
▁ஆண்ட	-9.50449
▁தெளிவாக	-9.50513
▁கொண்டிருக்கிறது	-9.50536
I	-9.50546
▁ிருப்பது	-9.50567
▁பழனிச்சாமி	-9.50814
ஸ்டாலின்	-9.50921
ப்படுத்த	-9.51033
▁ஏற்றுமதி	-9.51087
▁நவம்பர்	-9.51118
னார்	-9.5113
சை	-9.51135
பன்னீர்செல்வம்	-9.51141
▁நின்ற	-9.51151
▁முத்து	-9.51153
▁அமைச்சராக	-9.51159
▁னால்	-9.51176
▁இருந்தன	-9.51247
▁காவல்துறையினர்	-9.51256
▁குறைவ	-9.51273
▁போன்	-9.51307
▁வான	-9.51317
வொரு	-9.51318
▁இடம்பெற்ற	-9.51381
▁வார்த்தை	-9.51426
▁ஏதாவத	-9.51441
▁திடீர்	-9.51447
ழி	-9.51515
▁பார்க்கலாம்	-9.51546
▁கூறுகிறது	-9.51674
க்கி	-9.51786
▁வெள்ளி	-9.51837
▁வேட்பாளர	-9.51869
▁எழுத	-9.51964
▁கர்	-9.51967
▁கள்ளக்குறிச்சி	-9.52084
▁ான்	-9.52206
▁திண்டுக்கல்	-9.52297
▁கல்	-9.5234
▁சர்	-9.52351
▁சதவிகித	-9.52445
▁T	-9.52449
▁வாங்கிய	-9.52553
ண்டி	-9.52604
▁இஸ்லாமிய	-9.52629
▁அதிகாரிகள	-9.52676
தற்கு	-9.52679
▁த்திலிருந்து	-9.52691
▁செய்யப்பட	-9.52723
▁ஓய்வு	-9.52741
வர	-9.52751
▁பரவி	-9.52777
▁தெரிந்து	-9.52804
▁ள்	-9.52816
ஷன்	-9.52847
▁தேர்ந்தெடுக்க	-9.5294
▁எழுதி	-9.53007
▁தொடக்க	-9.53019
▁கேரள	-9.53047
▁இளைஞர்கள்	-9.53055
▁வால்	-9.53111
ச்சு	-9.53133
▁எழுந்த	-9.53138
▁பேரும்	-9.53146
▁மருத்துவர்கள்	-9.53253
▁ஆகியோர	-9.53301
▁அரிசி	-9.53388
▁ஜனதா	-9.53388
▁கொண்டிருக்கும்	-9.53446
▁வாய்ப்புகள்	-9.53529
▁திருப்பி	-9.53547
▁படித்து	-9.53616
▁இழந்த	-9.53625
▁தேனி	-9.53653
▁செய்துள்ளனர்	-9.53668
▁பீ	-9.53698
▁சொந்தமான	-9.53716
தில்	-9.53737
▁னை	-9.53789
▁ிருக்கின்றனர்	-9.53857
யூ	-9.5388
▁நிச்சயம்	-9.53902
▁பிரபல	-9.5395
▁தேர்தலை	-9.53952
▁இருக்கு	-9.53998
▁யில	-9.54002
▁உள்பட	-9.54006
▁ஆத்மி	-9.54042
▁இன	-9.54054
▁75	-9.5411
▁நிறைவு	-9.54226
▁எதிர்கொள்ள	-9.54239
▁செயல்படுத்த	-9.54273
▁பிரதேசத்தில்	-9.54436
▁வாய்	-9.54445
▁விடுமுறை	-9.54455
▁சூரிய	-9.54464
▁முருகன்	-9.54467
▁விண்வெளி	-9.54492
▁குடும்பத்தினர்	-9.54559
▁பெரும்பால	-9.54577
டர்	-9.54603
▁குற்ற	-9.54631
ஷா	-9.54671
ன்று	-9.54708
▁உடலை	-9.54841
▁F	-9.54918
▁ஃப	-9.55075
▁வெ	-9.55099
▁பாஜகவுக்கு	-9.55116
▁பயண	-9.55158
p	-9.5525
▁பல்கலைக்கழகத்த	-9.5531
▁அதற்காக	-9.55334
▁ன்னு	-9.55365
▁படத்த	-9.55404
பதி	-9.55461
▁அனுமதிக்கப்பட்ட	-9.55471
▁நாடுகளுக்கு	-9.55502
▁நவீன	-9.55566
▁ுகிறார்	-9.556
▁மாற்று	-9.55632
பு	-9.55634
30	-9.55641
▁உறுப்பினர்கள	-9.55691
▁வசித்து	-9.55744
▁35	-9.55922
▁செய்துள்ளது	-9.55931
▁இதற்கிடையே	-9.56005
▁கூறும்	-9.56048
▁500	-9.56073
▁ரூபா	-9.56126
▁தெற்கு	-9.56153
▁தேட	-9.56228
▁பாதுகாக்க	-9.56238
▁தொடர்புடைய	-9.5624
▁பிரதமர	-9.56303
▁க்க	-9.56359
▁திருப்பதி	-9.56471
▁/	-9.56548
▁தங்கம்	-9.56559
▁நீங்க	-9.5656
n	-9.56567
▁தீர்த்த	-9.56631
▁ஈடுபட	-9.56664
குமார்	-9.56674
P	-9.56736
▁ஆன	-9.56807
ராக	-9.56865
.1	-9.56972
▁வணிக	-9.56998
▁வீட்டை	-9.57066
▁விக்கெட்	-9.57091
▁ஆசை	-9.57138
▁சாதனை	-9.57167
▁விட்டனர்	-9.57177
▁தோடு	-9.57289
▁சம	-9.57303
▁நடைபெறுகிறது	-9.57353
▁வெள்ளை	-9.57364
▁அப்பகுதி	-9.57389
▁முடிவை	-9.57408
▁பாஸ்	-9.57409
▁இருக்காது	-9.57433
▁சம்பவங்கள்	-9.57465
▁நகர்ப்புற	-9.57558
▁னுக்கு	-9.57574
▁அதிர்ச்சியை	-9.57691
▁நீதிபதிகள்	-9.57753
▁ற	-9.5778
▁பொருட்கள	-9.57781
த்தான்	-9.57896
▁முன்னணி	-9.5796
▁போராட்ட	-9.57978
ளை	-9.58021
▁யோகி	-9.58051
▁பெரு	-9.58057
▁சேர்க்க	-9.5817
▁ரெட்டி	-9.5818
▁சிங்க	-9.58203
▁மாணவர்கள	-9.58215
▁விடுத்த	-9.58217
0	-9.58225
▁வெற்றியை	-9.58372
▁திருத்த	-9.58475
▁கேது	-9.58558
▁பாகிஸ்தான	-9.58623
▁ஆகியவற்றை	-9.58662
▁அமைந்துள்ள	-9.58672
▁தூத்துக்குடி	-9.58687
▁அனுமதிக்க	-9.58758
▁காப்பாற்ற	-9.58854
கீழே	-9.58932
▁சந்திப்பு	-9.59004
▁இணைந்த	-9.59019
▁டோ	-9.59126
▁கனமழை	-9.59143
▁டிவி	-9.59171
er	-9.59225
ற்	-9.59231
▁ாது	-9.59281
▁ராசிக்கு	-9.59338
▁பில்லியன	-9.59394
▁பேரில்	-9.59486
▁தடுத்த	-9.59607
▁பதிலடி	-9.59619
▁ஏழு	-9.59688
▁குழந்தைகளுக்கு	-9.59824
டோ	-9.59886
▁கொள்ளலாம்	-9.59956
▁ரொம்ப	-9.60061
▁வாழ்த்து	-9.60089
்நாத்	-9.6009
▁மீன்	-9.60121
▁ஆதரவாளர்கள்	-9.60124
▁பக்தர்கள	-9.60158
▁ரகசிய	-9.60178
▁வைக்கும்	-9.6018
▁ஆரம்பித்த	-9.60182
▁பரிசு	-9.60254
▁உலகக்	-9.60311
▁அமைத்து	-9.60375
▁இலங்கைக்கு	-9.6043
▁இடைக்கால	-9.60525
▁ஆயிரக்கணக்கான	-9.60546
ின்றனர்	-9.60701
▁வது	-9.60736
▁டே	-9.60905
▁கோவிலுக்கு	-9.60906
▁விஜய	-9.61008
▁வழிபட்ட	-9.61091
▁தற்கு	-9.61194
▁இரட்டை	-9.61209
▁உருவாக்கப்பட்ட	-9.61209
அ	-9.61235
▁போன்று	-9.61297
▁இருப்பதாகவும்	-9.61342
▁அக்	-9.61386
▁விக்கெட்டுகளை	-9.61484
▁த்திற்க	-9.61526
இந்த	-9.61579
▁மட்டுமல்ல	-9.6164
▁திட்டமிட்ட	-9.61667
▁ப்பட்டுள்ளது	-9.61718
▁ிருப்பதாக	-9.61729
▁பார்	-9.61795
▁அறிவியல்	-9.61799
ுகிறார்	-9.61863
▁பாஜகவின	-9.61894
▁சொன்னார்	-9.61921
▁அவ்வ	-9.61928
▁சென்னையில	-9.61932
▁பொய்	-9.61954
▁அறை	-9.62058
▁க்குள்	-9.62125
▁சூப்பர்	-9.62161
▁இவ்வளவ	-9.62198
▁அணிந்து	-9.62212
தோற	-9.62301
▁M	-9.62438
▁டெ	-9.62446
ஹா	-9.62484
▁நடத்தப்பட்ட	-9.62492
▁ராமர்	-9.62595
▁பேசுகையில்	-9.62632
▁காலங்களில	-9.62644
▁உத்தர	-9.62697
▁முன்பே	-9.6271
▁தயாரிக்க	-9.62716
▁கூறியது	-9.62825
▁சார்பாக	-9.62869
▁நானும்	-9.62875
▁நிறைந்த	-9.62895
▁பத்திரிகையாளர்	-9.62918
▁சட்டத்தை	-9.62922
▁உதவ	-9.63056
▁சிக்கி	-9.63081
▁வெட்டி	-9.63148
▁செவ்வாய்	-9.63272
▁தேவி	-9.63304
▁காவிரி	-9.63363
▁ராணி	-9.63364
▁தள்ளி	-9.63388
▁உள்ளிட்டோர	-9.63398
▁மேயர்	-9.63423
▁காலநிலை	-9.63612
▁யூ	-9.63704
னோ	-9.63745
▁போலி	-9.63763
▁அழுத்தம்	-9.63843
▁நேரங்களில	-9.64079
▁பந்து	-9.6408
ாண்டு	-9.64108
▁வகையான	-9.64173
▁ஹிஜாப்	-9.64227
▁அதிகாரம்	-9.64238
▁தும்	-9.64302
▁விசேட	-9.64302
▁பாரம்பரிய	-9.64362
ிக்	-9.64405
▁அதானி	-9.64544
▁உண்மையில்	-9.64579
▁அதிமுகவில	-9.6458
▁ஹா	-9.6465
▁குடும்பத்தினர	-9.64668
▁நிலையை	-9.64743
▁பர்	-9.64754
▁கலைஞர்	-9.64762
▁டாலர்	-9.64786
▁அடைய	-9.64789
▁ஒப்புதல்	-9.64824
▁வந்துள்ளது	-9.64917
வாக	-9.64925
▁ங்களின்	-9.64962
▁.....	-9.65061
▁சிக்கல்	-9.65083
▁ஆட்சியர்	-9.65165
▁கும்பாபிஷேகம்	-9.65196
▁அலங்கார	-9.65422
▁விளக்க	-9.65509
▁ஜம்மு	-9.65514
▁நெல்லை	-9.65528
ாங்க	-9.65631
▁விமானம்	-9.65631
.2	-9.6566
▁வேலைக்கு	-9.6566
▁கன	-9.65737
g	-9.65772
▁னும்	-9.65843
an	-9.65846
▁கொள்ளை	-9.65875
▁நேரில	-9.65904
▁வளாகத்தில	-9.65915
▁பரபரப்பு	-9.6592
▁ராணுவம்	-9.6593
▁வந்தால்	-9.65993
▁இறக்குமதி	-9.66001
▁ஸ்டாலின	-9.66015
▁அலி	-9.66122
க்கொண்டு	-9.66126
நான்	-9.66155
▁ஈடுபட்டனர்	-9.66197
▁களத்தில்	-9.66257
▁அறுவை	-9.66259
▁அலுவலகம்	-9.66289
▁எதிர்க்கட்சிகள்	-9.66331
▁முன்னிலையில்	-9.66352
▁G	-9.66362
▁அறிய	-9.66362
▁படித்த	-9.66391
▁தலா	-9.66433
▁எடுக்கப்பட்ட	-9.66483
வோ	-9.66485
▁ுவார்கள்	-9.66511
ல்ல	-9.66612
▁பேட்டி	-9.66671
▁கில்	-9.66677
▁ிருக்கலாம்	-9.66701
▁உறுதியாக	-9.66703
▁ரை	-9.66787
▁தர்ம	-9.66834
லோ	-9.66911
▁ஆணையர்	-9.67033
▁நாணய	-9.67065
▁..!	-9.67158
▁யோடு	-9.67222
▁ஏவுகணை	-9.67246
சர்	-9.67266
▁இங்கிலாந்து	-9.67299
▁செய்யலாம்	-9.67311
▁புர	-9.67388
▁பாடல்	-9.67421
▁விட்டதாக	-9.67514
▁தளபதி	-9.67518
▁ுவதை	-9.67582
▁மரணம்	-9.67616
▁அணு	-9.6764
வரை	-9.67708
▁அமைந்துள்ளது	-9.67746
▁புகழ்	-9.67753
▁ஓட்ட	-9.67766
▁மகாராஷ்டிரா	-9.67834
▁கோயிலுக்கு	-9.67881
▁எழுப்பி	-9.67902
▁தயார்	-9.68039
▁நீதிமன்றத்த	-9.6804
▁பட்டியலில்	-9.68125
▁""	-9.68155
▁இறங்கி	-9.68157
▁எட்டு	-9.68194
▁விழுந்த	-9.68239
▁விருப்ப	-9.68355
and	-9.68357
▁பதிலளித்த	-9.68361
▁நபர்கள்	-9.68412
▁D	-9.68422
▁பத்திர	-9.68443
▁பணியாற்றி	-9.68448
ிருக்க	-9.68493
r	-9.68538
▁பகுதியாக	-9.68597
ுக்குள்	-9.68607
▁வழக்க	-9.6864
▁நிறுவனத்த	-9.68673
▁தொழில	-9.68675
▁வலம்	-9.6869
▁சட்டவிரோத	-9.68731
▁மசூதி	-9.68731
▁யாத்திரை	-9.68731
▁எங்களை	-9.68765
▁குண்டு	-9.68777
▁வீரர்கள	-9.68809
தர்	-9.68823
த்துல	-9.68895
▁மோகன்	-9.68905
▁மோசமாக	-9.68983
▁ுதல்	-9.69003
▁கடற்படை	-9.69089
▁அறிந்த	-9.69151
▁நடைமுறைப்படுத்த	-9.69186
D	-9.69187
▁ஒப்பந்தம்	-9.69219
▁நடை	-9.69242
▁மீறி	-9.69269
இ	-9.69281
▁ஏக	-9.69372
▁படங்கள்	-9.69385
▁எவ்வாற	-9.69491
▁ப்படுகின்றன	-9.69644
▁ஷி	-9.69688
▁பெற்றார்	-9.69706
▁முதலமைச்சர	-9.69765
▁நினைத்த	-9.6988
▁செய்தால்	-9.699
தினம்	-9.69958
▁செய்யப்பட்டார்	-9.69977
▁பலன்	-9.7008
▁நட்சத்திர	-9.70082
h	-9.7014
▁அதிகரித்துள்ளது	-9.7021
▁ஏக்கர	-9.70228
தாகவும்	-9.70237
▁வைத்திருக்க	-9.70242
▁கட்டுமான	-9.70351
▁தாம்	-9.70358
▁சிறிது	-9.7038
▁நிற	-9.70409
▁எண்	-9.70437
O	-9.7048
▁இந்தியாவை	-9.70484
ாலே	-9.70524
l	-9.70542
d	-9.70546
ொ	-9.70554
▁அரசை	-9.70599
யம்	-9.70633
▁சூழ்நிலை	-9.70684
▁தெரியாது	-9.70744
▁எங்கே	-9.70746
▁உருவாக்கி	-9.70829
▁சை	-9.70838
▁ங்க	-9.70857
▁கனவு	-9.7088
T	-9.709
▁ரு	-9.70909
▁ிருக்கின்றன	-9.70927
▁அடங்க	-9.70954
▁முன்னேற்ற	-9.70964
▁ஒற்றுமை	-9.71021
R	-9.71079
▁எனப்படும்	-9.71092
▁முந்த	-9.7112
▁வருவதாகவும்	-9.71246
▁சட்டப்பேரவை	-9.71279
▁90	-9.714
▁இறுதியில்	-9.71414
▁இவருக்கு	-9.71513
▁டிஜிட்டல	-9.71537
▁R	-9.71539
▁உள்நாட்டு	-9.71539
▁மரண	-9.71561
ிறார்	-9.71564
▁யாதவ்	-9.71608
வன்	-9.71648
ஜா	-9.71672
ோட	-9.71673
▁கடந்து	-9.71695
▁ருக்கு	-9.71704
▁ஆஸ்திரேலிய	-9.71787
▁அக்னி	-9.71818
▁நிலம்	-9.71964
▁கட்டுரை	-9.71998
▁கண்டனம்	-9.72016
▁தற்காலிக	-9.72056
▁பஞ்ச	-9.72085
▁அமித்	-9.72095
▁துப்பாக்கி	-9.72153
▁தலைநகர்	-9.72195
▁அட்டை	-9.72216
▁ரே	-9.72234
▁காம	-9.72238
▁அன்ப	-9.72286
▁மேம்படுத்த	-9.7237
▁தேர்தலுக்கு	-9.7241
▁மூர்த்தி	-9.72472
▁கருத்தை	-9.72502
▁களுக்காக	-9.72555
▁செயற்கை	-9.7258
▁எழுப்பிய	-9.72611
▁கும்பல்	-9.72612
▁விற்க	-9.7265
ுதல்	-9.72757
ுமா	-9.7278
▁கண்டறிய	-9.72788
▁உக்ரைன	-9.72814
▁மம்தா	-9.7284
▁வெகு	-9.72847
▁இடங்களை	-9.7288
▁இந்தி	-9.72932
▁அறிமுகப்படுத்த	-9.72939
▁தில்லை	-9.72992
▁ஒருமுறை	-9.73016
▁பேசும்	-9.73036
▁விரும்ப	-9.73039
▁கேரளா	-9.73058
▁மர்ம	-9.73104
▁தொண்டர்கள்	-9.73154
▁மட்டுமின்றி	-9.73179
▁குறை	-9.7322
▁சபாநாயகர்	-9.73225
▁அமைத்த	-9.73243
ாள்	-9.73308
▁நாக	-9.73338
▁பரிந்துரை	-9.73363
▁இதனையடுத்து	-9.73369
▁ஒருநாள்	-9.734
▁ஆட	-9.73405
▁தீர்ப்ப	-9.73427
▁சென்றது	-9.73428
▁இடத்திற்கு	-9.73461
▁உதவிய	-9.73496
ன்னு	-9.73532
▁எடுக்கப்படும்	-9.73622
▁300	-9.73667
▁மட	-9.73758
▁காட்சிகள்	-9.73771
▁தொகுதிகளில	-9.73852
▁கொண்டிருந்தார்	-9.73911
▁தாக்கி	-9.73948
▁ுமா	-9.73991
al	-9.74083
▁அவ	-9.74086
▁அறிவித்துள்ளது	-9.7409
▁வட்டி	-9.74132
▁கர்நாடகா	-9.74164
▁உளவு	-9.74168
தெரிவித்துள்ளனர்	-9.74182
▁மாநாட்டில்	-9.74216
▁செய்தியாளர்களை	-9.74253
▁சீ	-9.74255
▁குழந்தைகளை	-9.74271
▁சிவசேனா	-9.74316
▁கிடைக்கவில்லை	-9.74453
▁ட்ட	-9.74477
▁கூறப்பட்டுள்ளது	-9.74528
▁ஏற்ப	-9.74557
▁ட்விட்டர	-9.74571
▁அனுப்பிய	-9.74609
கால	-9.74645
▁தோனி	-9.74736
▁கிரி	-9.7481
▁45	-9.7487
▁N	-9.74883
▁மிகப்	-9.74891
▁பட்டியல்	-9.74907
▁அகற்ற	-9.74929
▁அதிமுகவ	-9.75117
▁2018	-9.75158
▁ுகின்றன	-9.75231
▁குடி	-9.7526
▁கொல்கத்தா	-9.75298
▁வெளியேற	-9.75356
▁என்பதில்	-9.754
▁அபிஷேக	-9.75497
▁பிராந்திய	-9.75534
போ	-9.75584
▁என்பதுதான்	-9.75651
▁முடிந்து	-9.75655
▁ஒற்றை	-9.75678
▁செய்திகள்	-9.75702
▁எடுத்துச்	-9.75716
▁வரவேற்பு	-9.75731
▁பந்த	-9.75763
▁பெண்ணை	-9.75771
▁டெல்லியில	-9.75814
▁குறிப்பிடப்பட்ட	-9.75892
▁கட்டண	-9.75921
▁பிரிட்டன்	-9.75965
ுள்ளன	-9.7607
▁பெரிதாக	-9.76144
▁குறிப்பிட்டுள்ள	-9.76156
▁குழந்தைகள	-9.76167
▁எழுந்துள்ளது	-9.76256
▁உண்மையான	-9.76281
▁அண்மைய	-9.76306
▁ஆபத்து	-9.76306
▁நிரந்தர	-9.76306
▁பொதுச்செயலாளர்	-9.76343
▁ீர்கள்	-9.76414
▁அதனால்தான்	-9.76423
▁மைய	-9.76516
▁ங்கள	-9.76523
▁ஆடை	-9.76546
▁இயங்க	-9.76559
▁பொதுமக்கள	-9.76563
▁படுகொலை	-9.76578
▁நாம	-9.76588
▁ிருந்தனர்	-9.7659
▁ஓவரில	-9.76604
▁அணியை	-9.76641
▁மறைந்த	-9.76673
▁சேர்ந்தவர்கள்	-9.76675
லே	-9.76697
▁எங்கு	-9.76758
▁பணியை	-9.76769
▁பார்க்கும்	-9.76776
▁க்கூடாது	-9.7678
▁உலா	-9.76918
▁வாழ்வ	-9.76927
க்குரிய	-9.76958
▁வைத்திருந்த	-9.76965
▁பாதி	-9.76986
▁திசை	-9.77057
▁குடும்பம்	-9.77081
▁மண்ண	-9.77098
▁குறைந்து	-9.77109
▁ஏனெனில்	-9.77124
▁மீட்க	-9.77204
▁ஆட்டம்	-9.77225
▁பிரிந்த	-9.77275
▁உங்களை	-9.77312
▁வைத்தனர்	-9.77337
▁முடித்த	-9.77357
▁அமைச்சின	-9.77409
▁வர்களை	-9.77431
▁கூறியிருந்தார்	-9.77459
▁தம்பி	-9.77503
ரிய	-9.77525
▁மாட்டார்கள்	-9.77542
▁மறுத்த	-9.77622
▁ரயில	-9.77646
▁முதல்வர	-9.77669
▁சந்திர	-9.77716
▁தொழிலாளர்கள்	-9.77759
▁சமயத்தில்	-9.77776
▁அமர	-9.77813
நிலை	-9.77865
▁ிய	-9.77873
ங்கி	-9.77875
பே	-9.77921
▁வெளியாகியுள்ளது	-9.77929
▁ஏதோ	-9.77965
▁நிலைக்கு	-9.77977
▁ஊடாக	-9.77979
▁நிகழ்வில்	-9.77982
▁அமைச்சகம்	-9.78122
▁வெளியில	-9.78184
▁காஷ்மீர்	-9.78278
▁எது	-9.78286
வேளை	-9.78286
▁திரைப்படம்	-9.78321
▁கரு	-9.78325
▁திருப்பூர்	-9.78408
▁தெரிந்த	-9.78435
▁அரங்க	-9.78441
▁பெண்களை	-9.78457
▁ஆணையத்த	-9.78483
▁பொதுக்குழுவ	-9.78491
▁சிக்கிய	-9.78578
c	-9.78634
▁உச்சநீதிமன்ற	-9.78675
▁நினைத்து	-9.78727
▁காணப்பட்ட	-9.78805
▁புள்ளி	-9.78815
▁குழுவினர்	-9.78831
▁ஜன	-9.78854
▁சன்	-9.78857
▁வரிசையில	-9.7887
▁ஒருவரை	-9.78913
றை	-9.78936
▁துணைத்	-9.79098
ஸ்ட்	-9.79193
▁மாதங்களில்	-9.79218
▁கெ	-9.79239
▁நம்பி	-9.79269
▁பின்னணி	-9.79291
▁இக்	-9.79327
▁பலி	-9.79367
▁தாக்குதலை	-9.79375
▁நேற்ற	-9.79394
▁கிருஷ்ண	-9.79414
▁வலுவ	-9.79525
▁அடுத்தடுத்து	-9.79551
▁கொடுத்தார்	-9.7957
▁எதிர்பார்த்த	-9.79643
▁வேலையை	-9.79672
▁பெற்றுக்	-9.79854
▁முடியுமா	-9.7987
▁நடிக்க	-9.79876
▁கொல்லப்பட்ட	-9.79937
▁விலகி	-9.79959
▁அதிலும்	-9.79975
மலை	-9.80002
▁உடை	-9.80016
ித்த	-9.80023
▁குழுவ	-9.80068
▁ஜெனரல்	-9.80182
ன்ஸ்	-9.80227
▁போன்றவை	-9.80286
▁அரை	-9.80317
▁லும்	-9.80353
▁வேண்டி	-9.80399
▁அறிந்து	-9.80399
▁அமலாக்கத்துறை	-9.80471
▁தாக்க	-9.80489
▁கொள்வது	-9.80536
▁பூமி	-9.80606
▁பாபு	-9.80648
▁செய்வத	-9.80651
▁ஏற்றி	-9.80669
▁வெற்றிகரமா	-9.807
▁ஊர	-9.80749
▁ஆப்	-9.80873
▁வள	-9.80895
▁ுவதற்காக	-9.80921
▁அணியின	-9.80945
▁மின்சாரம்	-9.80973
▁விஷயங்களை	-9.81048
▁வழக்குகள்	-9.81113
▁இவர்கள	-9.81151
▁உறவினர்கள்	-9.81188
▁உணவுப்	-9.81248
▁விமர்சித்த	-9.81284
▁சட்டமன்றத்	-9.81326
▁இதுதொடர்பாக	-9.81358
▁சீனாவின	-9.81359
▁E	-9.8136
▁குற்றவாளி	-9.81365
▁நடத்தப்பட்டது	-9.81379
▁வாகனத்தில	-9.81399
▁பிரிவில	-9.81417
▁வழங்கினார்	-9.81435
▁மருத்துவக்	-9.81441
ுங்கள்	-9.8146
▁ஆயுத	-9.81491
▁இருந்தும்	-9.81543
▁சாலையில	-9.81588
க்கா	-9.81603
▁தேச	-9.81604
▁பெயர்ச்சி	-9.81639
▁செல்போன்	-9.81663
▁தொழிலாளர்	-9.81734
▁அமைய	-9.81752
▁வாழ்க்கையை	-9.81777
▁ஆகவே	-9.81883
▁செய்யவில்லை	-9.81927
M	-9.81936
▁மீட்பு	-9.81968
▁வித	-9.81979
▁வரவில்லை	-9.82077
▁அப்ப	-9.82144
▁சந்தேக	-9.82152
▁கனடா	-9.82175
▁விசாரித்து	-9.82231
▁நிற்க	-9.82257
▁செஸ்	-9.82275
▁வைத்துக்	-9.82328
ார்கள்	-9.82379
▁தக்க	-9.82461
▁மணியளவில்	-9.82462
▁ஓடி	-9.82485
▁அதிகரித்த	-9.8252
▁வலியுறுத்திய	-9.82534
▁எடை	-9.82608
▁ஆணைய	-9.82617
▁ஆர்வம்	-9.82632
▁ுபவர்கள	-9.82751
▁மண்	-9.82815
▁மாணவிகள்	-9.8297
▁இராஜாங்க	-9.83041
ுக்கும்	-9.83105
▁நகை	-9.83111
▁குஜராத்த	-9.83135
▁கடற்கரை	-9.83153
னுடைய	-9.83215
▁அறிக்கையை	-9.83223
k	-9.83227
ுமான	-9.83228
▁மிக்க	-9.83247
▁பண்ணி	-9.83249
▁இப்	-9.83326
▁திருவண்ணாமலை	-9.83332
ஸி	-9.83404
▁குறி	-9.83411
▁நண்பர்கள	-9.83464
▁விதிக்கப்பட்ட	-9.83478
▁மனிதர்கள	-9.83512
▁பார்த்தால்	-9.83631
▁H	-9.83662
▁இரண்ட	-9.83725
ப்போது	-9.83782
▁கருத்துகளை	-9.83815
▁அஜித்	-9.83826
ரின்	-9.83852
▁வெளியிட்டுள்ளது	-9.83866
▁செயலி	-9.83883
▁ஐரோப்ப	-9.83902
▁பக்க	-9.83911
▁ஏனென்றால்	-9.83916
▁பெற்றுள்ளது	-9.83934
▁மஞ்சள்	-9.83937
▁தொடரும்	-9.83949
▁ஒத்துழைப்பு	-9.84009
▁பெட்டி	-9.84011
▁முடி	-9.84065
▁),	-9.84081
▁நீக்க	-9.84097
ேஷ்	-9.84176
▁வருவதால்	-9.84258
ிருக்கிறார்கள்	-9.84264
▁ுங்கள்	-9.84286
▁வழியில்	-9.84287
▁தமிழ்நாட்டின்	-9.84289
▁நோ	-9.84325
▁உத்தரவிட்ட	-9.84379
▁டீசல்	-9.84438
▁கிடந்த	-9.84519
▁ுவோம்	-9.8461
▁அதைப்	-9.84731
▁அமர்ந்து	-9.84816
▁அளிக்கும்	-9.8482
▁ஒழுங்கு	-9.84876
▁அரப	-9.84935
▁அம்மனுக்கு	-9.84942
▁நாடாளுமன்றத்தில	-9.85073
▁சுப	-9.85088
▁மயிலாடுதுறை	-9.85094
▁இணையத்தில	-9.85124
▁மட்டுமல்லாமல்	-9.85155
▁மீதும்	-9.85239
▁அளித்து	-9.85262
ிருக்கின்றனர்	-9.85306
▁வழக்கமாக	-9.85352
▁அதேநேரம்	-9.85394
▁தீபாராதனை	-9.85416
▁டிரம்ப்	-9.85442
▁மக்களிடம	-9.85447
▁வேண்டியது	-9.85451
▁விஷயங்கள்	-9.85458
▁பஸ்	-9.85526
▁சுற்றுச்சூழல	-9.85688
▁தெரியுமா	-9.85701
▁கரை	-9.85778
▁அமைப்புகள்	-9.85789
▁கணக்கில்	-9.85791
▁குழந்தையை	-9.85849
▁அலுவலர்	-9.85879
▁தற்காக	-9.85968
▁போதிலும்	-9.85996
▁ிருந்தால்	-9.86035
▁வெல்ல	-9.86163
▁யானது	-9.86176
▁அலுவலக	-9.86178
▁ஊராட்சி	-9.86291
▁நாடாளுமன்றத்	-9.86305
▁எந்தவித	-9.86319
▁மதிப்பில	-9.86332
▁கோப	-9.86404
▁இருக்கிற	-9.86423
▁ஏழை	-9.86434
▁மூன்றாம	-9.8644
▁சந்தேகம்	-9.86517
▁ஆசிய	-9.8658
▁பானர்ஜி	-9.86587
▁மாநாடு	-9.866
▁வேகத்தில	-9.86608
▁அரசியலமைப்பு	-9.86695
▁பலத்த	-9.86728
▁போதை	-9.86745
▁பள்ளியில	-9.86787
▁பிரச்னைகள்	-9.86809
▁தொடர்ந்த	-9.86833
▁காலகட்டத்தில்	-9.86839
▁நண்பர்கள்	-9.86886
▁உட்பட்ட	-9.86902
▁தன்மை	-9.86912
▁சனிக்கிழமை	-9.8692
▁குறிப்பிட்டு	-9.86922
▁குடிநீர்	-9.86934
▁செய்வதற்கு	-9.87056
▁நிர்வாகி	-9.87091
▁உயர்ந்த	-9.87143
▁ஆனா	-9.87172
▁தாக்கத்தை	-9.87246
m	-9.87267
▁போரில்	-9.87317
▁இடங்கள்	-9.87319
▁எரிபொருள்	-9.87417
▁நட்பு	-9.87485
▁அதன்பிறகு	-9.87493
▁கன்னியாகுமரி	-9.87493
▁வாகனம்	-9.87512
▁இருக்கின்றனர்	-9.87524
▁சிறப்பான	-9.87598
▁ோ	-9.87655
▁தெரிவித்திருந்த	-9.87712
▁மூளை	-9.87722
▁மன்னிப்பு	-9.87797
▁தொலைக்காட்சி	-9.87797
▁கேள்விக்கு	-9.87877
▁சொல்வது	-9.87937
யெல்லாம்	-9.87938
▁தாங்கள்	-9.87984
▁வேலைவாய்ப்பு	-9.87993
▁பெரியார்	-9.88004
▁ஜப்பான்	-9.88067
▁உலகள	-9.88097
▁பட்ஜெட்	-9.881
▁நீலகிரி	-9.88104
▁நிபுணர்கள்	-9.88143
▁ஆதி	-9.88148
▁இழந்து	-9.88173
ar	-9.88205
▁ஆய்வாளர்	-9.88231
களுடன்	-9.88233
▁I	-9.88292
▁உடலில	-9.88328
▁ஐபிஎல்	-9.88408
▁ஆண்டுக்கு	-9.88463
ின்றி	-9.88481
▁நம்மை	-9.88534
▁தொடர்பாளர	-9.88589
▁களில	-9.88594
▁தொகையை	-9.88601
▁போராடி	-9.88679
▁ஜெ	-9.88704
▁ஏறி	-9.88712
▁ஞாயிற்றுக்கிழமை	-9.88714
▁முற்றிலும	-9.88747
ளா	-9.88748
▁முடிவில்	-9.88766
▁வழிபட	-9.88813
▁ஹி	-9.88818
மூர்த்தி	-9.88832
▁பருவ	-9.88912
▁மூல	-9.88934
▁கட	-9.88937
▁யுக்ரேன்	-9.89036
▁வெளிப்படையாக	-9.89075
▁செல்வது	-9.89126
▁வீசி	-9.89208
▁வெள்ளிக்கிழமை	-9.89357
▁ஏற	-9.8936
▁உதவும்	-9.89363
▁நேரு	-9.8937
▁தெரியாமல்	-9.89454
▁திரும்பிய	-9.89566
▁அனைத்தையும	-9.89599
▁இம்ரான்	-9.89642
▁ஈரோடு	-9.89647
▁சோனியா	-9.89653
▁பய	-9.8968
▁போராட	-9.89827
▁விதிக்க	-9.89835
▁கிளை	-9.89858
▁ுவதில்லை	-9.89879
▁வேண்டுமென	-9.89885
▁வருவாய்	-9.89903
ப்பை	-9.89908
▁அறநிலையத்துறை	-9.89955
▁ஆண்கள்	-9.90056
▁தொலைவில்	-9.90112
▁விசாரணையை	-9.90118
▁2017	-9.90192
▁தீர்க்க	-9.90235
▁நவ	-9.90253
▁தெலுங்கு	-9.90262
▁பொறுப்ப	-9.90281
▁அமைப்பின	-9.90325
▁விடுதி	-9.90377
பை	-9.90406
▁மாரியம்மன்	-9.90438
▁தொடங்கினார்	-9.90452
▁துணி	-9.90485
▁எம்எல்ஏ	-9.90531
▁நடத்தும்	-9.90553
▁தினசரி	-9.90576
▁மீட்டு	-9.90671
▁48	-9.90702
ழு	-9.90734
▁சார	-9.90782
▁உத்தரப்பிரதேச	-9.90854
▁சகோதரர்	-9.90874
▁கண்காணிப்பு	-9.90879
▁பகுதிக்கு	-9.90884
▁தெலங்கானா	-9.90888
▁ஆட்டத்தில	-9.90888
▁ஏற்றுக்	-9.90898
▁தலைவரும்	-9.9097
▁ஆதரவாளர்கள	-9.90981
▁நிலையில்தான்	-9.91071
▁வண்டி	-9.91102
▁காணி	-9.91169
▁கழித்து	-9.91177
▁‛‛	-9.91203
▁ஏதேனும	-9.91203
▁வெளியிடப்பட்ட	-9.91224
▁மாளிகை	-9.91246
▁நாட்ட	-9.9127
▁பங்கேற்று	-9.91281
▁இத்	-9.91365
▁நிலவும்	-9.91404
▁லோக்சபா	-9.91518
▁வாடகை	-9.9152
▁கூடுதலாக	-9.91553
▁சாதகமாக	-9.91574
▁ஞான	-9.91631
▁எக்ஸ்	-9.9167
▁சமயம்	-9.9171
▁விட்டால்	-9.91732
▁லட்சுமி	-9.91787
▁ஏற்றுக்கொள்ள	-9.91842
▁ுவார்	-9.91894
▁சுற்று	-9.91935
▁இம்	-9.91964
▁செயல்பட்ட	-9.92094
▁வருடம்	-9.92182
▁இறக்க	-9.92188
▁எட்ட	-9.92206
▁என்பதையும்	-9.92208
▁தங்களை	-9.92247
▁வன்	-9.92275
▁அப்படிய	-9.92278
▁படத்தில	-9.92282
▁நாய்	-9.92404
னே	-9.9245
ந்தி	-9.92507
▁வாக்குறுதி	-9.92549
▁தயாரிப்பு	-9.92551
▁போதுமான	-9.9257
▁வேற	-9.92607
▁மணிப்பூர்	-9.92638
▁திறக்க	-9.92651
ஷி	-9.92678
▁தவறாக	-9.92684
▁உணவ	-9.92686
▁இதனைத்	-9.92712
▁ட்	-9.92714
▁தாக்கரே	-9.92714
▁யோகம்	-9.92721
▁வெளியிட்டு	-9.92737
▁உணர	-9.92783
▁விழுப்புரம்	-9.9279
▁ங்	-9.92922
/	-9.92949
▁உயர்த்த	-9.92969
கில்	-9.92987
▁பாஜகவை	-9.93085
▁அழைப்ப	-9.93092
▁அயோத்தி	-9.9311
▁தொலைபேசி	-9.9311
▁முயற்சிகள்	-9.93117
▁சிபிஐ	-9.93127
▁36	-9.93155
▁நாட	-9.93213
▁திட்டத்தில	-9.93272
▁மனதில	-9.93383
▁ுகிறோம்	-9.93432
▁குதிரை	-9.93432
▁வெவ்வேற	-9.93433
▁இருப்ப	-9.93434
▁வாக்குகளை	-9.93467
▁பிரதேசம்	-9.9347
▁சாய்	-9.93495
▁நெ	-9.93545
▁கம்யூனிஸ்ட்	-9.93562
▁கணவன்	-9.93584
▁பாடசாலை	-9.93609
▁ஜெயக்குமார்	-9.93623
▁ஹரி	-9.93666
▁நெடுஞ்சாலை	-9.93692
▁ராசியில	-9.9373
▁இதைத்	-9.93734
▁சிந்தனை	-9.9376
▁பின்பு	-9.93799
▁தூர	-9.9381
▁தப்பி	-9.93816
▁மாடல்	-9.93988
▁வெளியானது	-9.94
▁இத்தனை	-9.94078
ினை	-9.94082
▁வந்துள்ளார்	-9.94103
▁இலக்கு	-9.9415
▁வரலாற்றில்	-9.94281
▁வசதிகள்	-9.94301
▁நடத்தப்படும்	-9.94309
▁உறுதிப்படுத்த	-9.94339
▁கொல்ல	-9.94464
▁ரசிகர்கள	-9.94473
த்துக்	-9.94492
▁அமையும்	-9.94535
▁பார்த்துக்	-9.94535
சார்	-9.94547
▁குற்றம்சாட்ட	-9.94555
▁ுவதில்	-9.9457
▁பட்டி	-9.946
▁சுந்தர	-9.94604
▁செய்தித்	-9.94646
▁2014	-9.94662
▁பணிப்பாளர்	-9.94666
▁ஆதார	-9.9469
▁ுள்ளோம்	-9.9472
▁பறிமுதல்	-9.94729
▁மாட்டேன்	-9.94739
▁O	-9.94745
▁கூறியுள்ளது	-9.94747
▁திருப்ப	-9.94819
▁ஆளுநர	-9.94826
வுடன்	-9.94835
▁வீடுகள்	-9.94844
▁பர	-9.94878
▁பிள்ளை	-9.94912
▁எளிதாக	-9.94931
▁அமைச்சு	-9.94969
▁33	-9.95024
▁நிவாரண	-9.95079
.5	-9.95149
▁இருந்தே	-9.95152
▁மாறிய	-9.95196
▁எடுக்கும்	-9.95221
▁மாறாக	-9.95255
▁விஷயத்தில	-9.95291
▁கிராமத்தை	-9.95296
▁ஆதரவை	-9.95304
▁நடித்து	-9.95318
▁சாக	-9.95321
▁நன்மை	-9.9533
▁குழுவின	-9.95333
▁ரோஹித்	-9.95379
▁தெரியாத	-9.95389
▁அமைக்கப்பட்ட	-9.95413
▁அவ்வளவு	-9.95432
▁ஆயிரத்து	-9.95487
▁செயலாளராக	-9.95531
▁மாற்றங்கள்	-9.95594
▁நெருங்க	-9.95669
விற்கு	-9.95683
▁நீர	-9.95688
▁போக்கு	-9.95722
▁c	-9.95766
▁மதம்	-9.95793
▁பலருக்கு	-9.95823
▁போகிறது	-9.9586
▁மாதங்கள்	-9.95904
▁சிக்கல	-9.95909
▁இருப்பவர்கள	-9.9597
▁ராஜபக்ஷ	-9.96042
▁இன்றும்	-9.96057
▁பொருளாதாரம்	-9.96058
▁தேவையில்லை	-9.9618
▁பின்னால	-9.96192
▁கோல்	-9.96234
▁பில்	-9.96318
▁வெளிப்படுத்த	-9.96343
▁கட்டப்பட்ட	-9.96347
ப்படுகின்றன	-9.96383
▁ஓட்டு	-9.96507
▁கட்சியினர்	-9.9655
▁முகம்	-9.96622
▁கோவா	-9.96684
▁ஏற்பட்டுள்ள	-9.96693
▁ஊடகங்களில	-9.96796
▁எதையும	-9.96814
▁மதிப்ப	-9.96854
யாளர்	-9.96879
G	-9.96908
▁கவனிக்க	-9.96923
▁நடந்துள்ளது	-9.96923
▁அழைக்க	-9.96927
▁e	-9.9695
▁எதிர்காலத்தில	-9.96985
▁யோசனை	-9.97039
▁ஒப்பந்த	-9.97048
▁காற்று	-9.9712
.4	-9.97136
▁மூட	-9.9714
▁நெல்	-9.97141
▁குடும்பத்தை	-9.97153
▁ஊழியர்கள	-9.97175
▁யாகும்	-9.97204
▁நிபுணர்	-9.97211
▁காத்திருந்த	-9.97226
▁நோக்கம்	-9.9733
▁செல்வம்	-9.97344
▁சந்தித்தார்	-9.97389
▁விழாவை	-9.9748
▁கண்ண	-9.9748
▁பிரதமராக	-9.97482
▁ின்றன	-9.97523
▁கந்த	-9.97611
▁லட்ச	-9.97627
▁ள்ளது	-9.97629
▁பயணத்தை	-9.97632
▁பெற்றோர	-9.97678
▁பந்துகளில	-9.977
▁வீட்டின	-9.97711
வால்	-9.97762
▁பிரச்சினைகள	-9.97837
▁பாதிக்கப்பட	-9.97839
▁ஓட	-9.97843
▁வாழ்க்கையில	-9.97898
ண்டா	-9.97907
▁காட்டிய	-9.97948
ரூ	-9.97956
▁விஷ	-9.97959
▁யார	-9.97967
▁இரான்	-9.97986
மன்	-9.98032
▁எதிர்பார்ப்பு	-9.98049
ுவோம்	-9.98147
▁பண்டிகை	-9.98216
B	-9.98259
▁தொற்ற	-9.98277
▁ுவதாக	-9.98287
▁லோ	-9.98331
▁சர்க்கரை	-9.98386
ட்டா	-9.98445
▁ஜோடி	-9.98551
N	-9.98558
▁பன்னீர்செல்வம்	-9.98646
▁வேலூர்	-9.98691
▁மக	-9.98699
▁வேளாண்	-9.987
▁தகவலை	-9.98739
▁வேதனை	-9.98745
ப்படுவதாக	-9.98767
▁கண்டறியப்பட்ட	-9.98796
▁தொழிலாளர்கள	-9.98814
▁நேரடி	-9.98874
▁தளம்	-9.98953
▁இடை	-9.98974
▁அனுப்பப்பட்ட	-9.99036
▁இன்றி	-9.99045
▁பொருத்த	-9.99135
ன்ற	-9.99146
▁களிடம	-9.99153
in	-9.99209
▁வாகனங்கள்	-9.99242
▁விழுந்து	-9.99328
▁மொபைல	-9.99404
▁பேரணி	-9.99434
▁அமல்படுத்த	-9.99461
▁என்பதற்காக	-9.99472
▁க்கள்	-9.99558
▁விவசாயிகள	-9.99595
▁பவுண்டரி	-9.99608
▁அளித்தார்	-9.99639
▁லால்	-9.99664
▁மொ	-9.99697
▁அண்ணன்	-9.99715
▁பரப்ப	-9.99732
செ	-9.99773
▁அவருடன்	-9.99794
▁குடும்பத்த	-9.99856
▁இழப்பு	-9.99868
▁திட்டமிட்டு	-9.99879
▁புயல்	-9.99894
▁காயம்	-9.99928
▁இத	-10.0008
▁பெரும்பான்மை	-10.0009
▁களைப்	-10.0017
▁சம்பளம்	-10.0025
▁மனம்	-10.0033
▁ஜெயலலிதாவ	-10.0041
▁மஹிந்த	-10.0043
▁அதி	-10.0054
▁தெரிவிக்கின்றன	-10.0055
▁ஒளி	-10.0056
▁களைக்	-10.006
▁கான	-10.006
▁தல	-10.0061
களிடம்	-10.0067
▁சொல்லும்	-10.007
▁சமூகத்தை	-10.0071
▁அதிகபட்ச	-10.0074
▁திரை	-10.0076
▁ஆபாச	-10.0078
▁பிரிட்டிஷ்	-10.0078
▁அதிகாரப்பூர்வ	-10.0078
▁பிரியங்கா	-10.0078
▁பாதிப்பை	-10.0084
▁நிலவி	-10.0087
▁அமல	-10.0091
▁மூ	-10.0097
▁தரை	-10.0101
▁பாமக	-10.0104
தர	-10.0112
ாட்சி	-10.0112
▁திருநெல்வேலி	-10.0113
▁கருவி	-10.0119
▁அழக	-10.0122
▁நிலையத்த	-10.013
▁மாதிரிய	-10.0133
▁வைக்கப்பட்டுள்ள	-10.0134
▁மஹா	-10.0136
▁காணப்படும்	-10.0138
▁பொ	-10.0142
▁வழங்கப்பட	-10.0142
▁லீ	-10.0144
▁நோக்க	-10.0147
▁ரஜினி	-10.0148
▁போராட்டங்கள	-10.0149
வாசி	-10.0154
▁லாரி	-10.0162
▁கீழ	-10.0167
▁கஞ்சா	-10.0167
ாள	-10.017
▁இல்லையா	-10.0173
▁அறிவித்தார்	-10.0173
▁த்திற்காக	-10.0174
ணை	-10.0176
▁அவரிடம	-10.018
▁உங்க	-10.0182
▁ஷிண்டே	-10.019
▁கண்டிப்ப	-10.019
▁ஆந்திர	-10.0194
▁சஞ்சய	-10.0195
▁பிரதி	-10.02
▁மறுக்க	-10.0204
▁கைப்பற்ற	-10.0207
▁இறந்து	-10.0209
▁நடந்தன	-10.0212
▁தூக்க	-10.0213
▁பைடன்	-10.0213
▁கொண்டுள்ளது	-10.0218
▁நீடித்த	-10.0218
▁L	-10.0224
▁அவள	-10.0225
▁கன்னி	-10.0231
▁ஜீ	-10.0232
▁மேல	-10.0234
▁இருந்தபோது	-10.0241
▁பணியாளர்கள்	-10.0241
▁ஜான்	-10.0244
▁ிறார்கள்	-10.0253
▁சராசரி	-10.0253
▁தாங்க	-10.0253
▁எதிர்கால	-10.0263
▁மாணவ	-10.0267
▁காக்க	-10.0285
▁தவிர்த்து	-10.0285
▁அல	-10.029
▁அழுத்த	-10.0294
▁மாநகர	-10.0296
▁அக்கட்சி	-10.03
▁கருதி	-10.0302
ரீ	-10.0303
▁வந்தாலும்	-10.0303
▁மெல்ல	-10.0304
▁பத	-10.0307
▁மேலே	-10.0309
▁என்பதும்	-10.0312
▁பிரசாரம்	-10.0314
▁ோர	-10.032
▁முதன்மை	-10.032
▁இருந்ததால்	-10.0323
▁காஞ்சிபுரம்	-10.0324
▁முடிகிறது	-10.0324
▁கொள்கிறேன்	-10.0324
▁முக்கியம்	-10.0325
▁ஏற்பாடுகள்	-10.033
▁தாக்கம்	-10.0334
▁திறந்த	-10.0335
▁ள்ளார்	-10.0337
▁செய்கிறார்	-10.034
▁சதி	-10.0341
▁சித்திரை	-10.0346
▁ஆஸ்திரேலியா	-10.0353
▁பச்சை	-10.0356
▁அச்ச	-10.0357
▁பாலஸ்தீன	-10.0359
▁போராட்டத்தை	-10.0363
▁காட்டு	-10.0365
▁a	-10.0366
மடைந்த	-10.0369
▁அதிகாரிகளுக்கு	-10.0369
▁முடிக்க	-10.0371
▁தஞ்சாவூர்	-10.0371
▁அரசுப்	-10.0372
▁கவனமாக	-10.0372
▁ஏமாற்ற	-10.0377
▁ஒருவருக்கு	-10.038
▁ஒன்பத	-10.0381
மூலம்	-10.0383
ேந்திர	-10.0387
▁மாதங்களாக	-10.0399
▁கூடும்	-10.0402
▁கோல	-10.0404
▁னாலும்	-10.0406
தன்	-10.0409
▁ஷேக்	-10.0413
▁முன்னெடுக்க	-10.0421
▁இயக்கம்	-10.0422
▁சிதம்பரம்	-10.0425
க்கொள்ள	-10.0434
▁மலர்	-10.0439
▁அளவிற்க	-10.0441
▁பாரதிய	-10.0445
▁சந்திப்பில்	-10.045
▁யுள்ளார்	-10.0453
▁கொன்ற	-10.0455
▁உடன	-10.0455
▁முன்வைத்த	-10.0456
▁ஏதும	-10.0459
▁ஒதுக்க	-10.0459
▁சகோதரி	-10.0459
▁விரைந்து	-10.0461
▁பாரத்	-10.0465
▁தொடக்கத்தில்	-10.0465
▁கருத	-10.0467
▁சிறுவன	-10.0468
▁நிறைவேற்றப்பட்ட	-10.0468
▁இழுத்து	-10.0469
▁விமர்சித்து	-10.0469
▁பதவிக்கு	-10.0471
ர்கள்	-10.0477
ுகின்றன	-10.0488
▁32	-10.049
▁அன்பு	-10.0491
▁வங்கதேச	-10.0499
▁பூர்த்தி	-10.0504
▁இரவில்	-10.0506
▁முட்டை	-10.0506
▁ிறோம்	-10.0507
▁பட்டு	-10.051
▁யினர	-10.0515
▁உடல	-10.0515
▁வீடியோவை	-10.0515
▁புதின்	-10.0515
▁நடத்துவத	-10.0518
▁பாம்பு	-10.052
க்கொண்டே	-10.0522
▁த்தில	-10.0525
யுள்ள	-10.0538
▁ராஜீவ்	-10.0539
▁அன்றைய	-10.054
▁பசுமை	-10.0541
▁குல	-10.0542
▁கல	-10.0543
▁என்னென்ன	-10.0543
தோ	-10.0544
▁இருக்கிறோம்	-10.0545
▁சுதந்திரம்	-10.0549
▁சதவிகிதம	-10.055
▁வெளியேறி	-10.0554
▁யுக்ரேன	-10.0565
▁வாக்களிக்க	-10.0576
ொரு	-10.0583
▁இதேபோல்	-10.0584
▁சூரியன்	-10.0593
▁தங்கி	-10.0593
▁செல்வாக்கு	-10.0604
▁குறைந்தது	-10.0605
▁சிவன்	-10.0606
பற்றி	-10.0608
்டு	-10.061
▁துவங்கி	-10.0615
▁ஆங்கில	-10.0615
▁400	-10.0616
▁மிகக்	-10.0623
▁பகுதிகளை	-10.0625
▁லஞ்ச	-10.0626
▁வளர்ந்த	-10.0633
▁ங்களுக்க	-10.0634
▁தம்பதி	-10.0636
▁கட்டுப்பாட்டில்	-10.0636
ரவி	-10.0636
▁அறிமுகம்	-10.0639
▁என்பவர	-10.0639
▁பாய்	-10.0643
▁விவரங்களை	-10.0646
▁பதவியேற்ற	-10.0649
▁காணொளி	-10.0649
▁தினேஷ்	-10.065
▁விரும்பவில்லை	-10.0652
▁நியமனம்	-10.0653
▁படுத்த	-10.0656
▁குற்றச்சாட்ட	-10.0658
▁விருதுநகர்	-10.0658
▁காசி	-10.066
▁பேட்டியில்	-10.0661
▁வேத	-10.0666
▁உயிர	-10.0667
▁முயற்சிகளை	-10.0668
பாஸ்	-10.067
▁களோடு	-10.067
▁ஆரம்பத்தில	-10.0671
▁அலங்காரம்	-10.0674
▁ராக	-10.0677
▁ராஜபக்சே	-10.0683
▁நள்ளிரவ	-10.0685
▁சிஎஸ்கே	-10.0685
▁தென்காசி	-10.0687
▁திறமை	-10.0688
ஹ்	-10.069
▁உத்தரவை	-10.0691
▁அவ்வாற	-10.0696
▁பயங்கரவாத	-10.0698
▁பாத	-10.0698
▁மையத்த	-10.07
▁கைப்பற்றி	-10.0703
▁பெங்களூரு	-10.0704
▁லாபம்	-10.0704
▁ிறார்	-10.0708
▁உரிமைகள்	-10.0708
▁ஏன	-10.071
புரம்	-10.071
யொட்டி	-10.0712
▁வீ	-10.0715
ஆவத	-10.0719
▁படையினர்	-10.0719
▁K	-10.072
▁நன்க	-10.0723
▁மாட்டோம்	-10.0723
▁கருதப்படுகிறது	-10.0728
▁அச	-10.0729
▁விழிப்புணர்வு	-10.0729
▁நுழைந்த	-10.0731
▁n	-10.0734
▁நதி	-10.0736
▁மட்டும்தான்	-10.0745
▁நெட்டிசன்கள்	-10.0745
▁கலந்துரையாட	-10.0748
▁வாக	-10.0758
▁டிகிரி	-10.0763
▁வாய்ப்பை	-10.0764
▁கல்யாண	-10.0766
▁செய்வதற்க	-10.0767
▁கட்டாயம்	-10.0772
▁பொருளாதாரத்தை	-10.0774
▁உணர்வு	-10.0774
re	-10.0777
▁பேட்	-10.0782
▁தேர்வில்	-10.0782
▁தெய்வ	-10.0786
▁த்தோட	-10.0789
F	-10.0791
▁விடாமல்	-10.0795
▁மிரட்டல்	-10.0797
▁கண்ணாடி	-10.0798
டைய	-10.0822
▁வழக்குப்பதிவு	-10.0835
▁வீடுகளில	-10.0838
▁புலி	-10.0852
▁ஆகி	-10.0861
▁பிடி	-10.0863
▁ஆய்வாளர்கள்	-10.0863
▁ஆசிரியர்கள்	-10.0868
▁ஒதுக்கப்பட்ட	-10.0875
▁டில்	-10.0876
▁தீர	-10.0876
▁சுரேஷ்	-10.0879
▁கவனித்து	-10.0879
▁இதன்போது	-10.088
▁நபர	-10.0883
▁படிப்பு	-10.0885
▁பாராட்டு	-10.0886
▁அழைக்கப்பட	-10.0889
▁ஒட்டி	-10.089
▁சீமான்	-10.089
▁உற்சாக	-10.089
▁விலக்கு	-10.0892
▁வென்று	-10.0897
▁இஸ்ரேலிய	-10.0897
▁காற்ற	-10.0898
▁இடங்களிலும்	-10.0901
▁நாடாக	-10.0903
▁நாட்டிற்கு	-10.0904
▁அரவிந்த்	-10.0905
▁அமர்வு	-10.0905
▁இராணுவ	-10.0906
▁ஹோமம்	-10.0912
▁உதாரணமாக	-10.0912
▁p	-10.0914
▁கலாசார	-10.0918
▁வேட்பாளர்கள்	-10.0921
▁தாயார்	-10.0924
▁ராவ்	-10.0924
▁நடத்தினார்	-10.0928
▁பதற்றம்	-10.0929
▁உர	-10.0932
▁காத்திருக்க	-10.0936
▁புரட்சி	-10.0937
▁நாளாக	-10.0943
▁யுள்ள	-10.0944
மீட்டர்	-10.0944
▁சுப்பிரமணிய	-10.0945
▁கோவிட்	-10.0948
▁குடியிருப்பு	-10.0953
பெற்ற	-10.0961
▁குறைவு	-10.097
▁கண்டித்து	-10.0971
▁அலங்காரத்தில	-10.0973
▁எழுப்ப	-10.0974
▁இணைப்பு	-10.0975
▁பேசியது	-10.0976
▁ராய்	-10.0977
▁ஜாமீன்	-10.0978
▁2016	-10.0978
▁மருத்துவர	-10.098
▁தளத்தில்	-10.0982
▁பாட்டி	-10.0983
▁மோடியை	-10.0983
▁உத்தவ்	-10.0989
▁தாக்குதலில	-10.099
▁முழுமைய	-10.0991
▁இடி	-10.0991
▁மாறியது	-10.0997
▁அந்நாட்டு	-10.0999
▁ஆரோக்கியம	-10.1
▁மட்ட	-10.1004
▁விலக	-10.1005
▁இறங்க	-10.1011
▁இந்தியர்கள்	-10.1016
▁சீட்	-10.1016
▁செயலாளர்கள்	-10.1018
▁கணபதி	-10.1023
▁மார்	-10.1025
▁நிகழ்ந்த	-10.1026
▁உடல்நிலை	-10.1026
▁ஆனந்த	-10.1033
▁இணைக்க	-10.1034
▁களிலிருந்து	-10.1042
▁டிக்கெட்	-10.1044
கிறது	-10.1045
ாய	-10.1047
▁சங்கம்	-10.1049
▁செலுத்திய	-10.1057
▁சூழ்நிலையில்	-10.1063
▁ஆண்டும்	-10.1064
▁நாயகம்	-10.1065
ாவிய	-10.107
▁நிகழ்ச்சிகள்	-10.1072
▁ாங்க	-10.1072
▁நிதிஷ்	-10.1074
▁வலியுறுத்த	-10.1075
▁உணர்ந்த	-10.1077
▁பாக	-10.1078
▁ஆலை	-10.1078
▁கும்பாபிஷேக	-10.108
▁கர்நாடகாவில்	-10.1084
▁நபர்கள	-10.1087
▁ரீதியா	-10.1088
▁இந்திரா	-10.1092
▁ஆண்டுகளுக்குப்	-10.1095
▁வான்	-10.1096
▁மீன்பிடி	-10.1099
▁பழநி	-10.1099
▁தொடங்கும்	-10.1101
▁பழமையான	-10.1101
ஃப	-10.1109
▁அடைந்து	-10.1113
▁னி	-10.1114
▁சொல்கிறார்	-10.1116
▁பாலின	-10.1117
▁அசோக்	-10.1124
▁பிரசாத்	-10.1126
▁தொட	-10.1127
▁இதய	-10.1128
▁அன	-10.1129
▁தீர்மானிக்க	-10.1138
▁ing	-10.1142
▁பட்சத்தில்	-10.1144
▁பதிவிட்டுள்ளார்	-10.1145
▁ஊழியர்	-10.1148
▁கேட்டார்	-10.1149
▁விவசாயம்	-10.1153
▁புகைப்படம்	-10.1155
▁காய்ச்சல்	-10.1157
▁வருகிற	-10.1158
▁பிரி	-10.1158
▁மடங்கு	-10.1159
▁ஏரி	-10.116
▁செல்லப்பட்ட	-10.1161
▁பாதையில்	-10.1162
▁கன்	-10.1169
ருக்கு	-10.1172
▁எழுந்தது	-10.1177
▁கலக்க	-10.118
▁கொள்ளுங்கள்	-10.1181
விராட்	-10.1183
▁ஆதரவ	-10.1183
▁கமிட்டி	-10.1185
கூறியிருக்கிறார்	-10.1191
▁சமேத	-10.1192
▁மேடையில	-10.1192
▁நாடுகளை	-10.1194
▁காரை	-10.1196
▁குறைய	-10.1196
▁முன்ன	-10.1204
▁செய்திருந்த	-10.1205
▁மண்டபத்தில	-10.1213
▁நிர்மலா	-10.1215
▁முதற்கட்ட	-10.1215
▁சிறுவன்	-10.1217
▁தேர	-10.1221
▁பேட்டிங்	-10.1233
▁55	-10.1233
▁இருந்தவர்	-10.1235
▁செல்	-10.1237
▁அனுபவம்	-10.1237
▁150	-10.1237
▁அதன்பின்	-10.124
▁க்குப்	-10.124
▁நாராயண	-10.1249
▁கொடூர	-10.1253
▁மாநிலங்கள	-10.1254
▁உலகக்கோப்பை	-10.1254
▁பெர்	-10.1259
▁W	-10.1259
வியல்	-10.1262
▁விலையை	-10.1263
▁மசோதாவ	-10.1264
▁பிரசார	-10.1265
▁விவசாயி	-10.1266
▁பெரித	-10.127
த்தா	-10.1272
▁முறையை	-10.1277
▁பாடி	-10.1278
▁மகாராஷ்டிராவ	-10.1285
▁பாதிப்ப	-10.1286
▁ுவத	-10.129
▁மான்	-10.129
▁கிராம்	-10.1291
▁ரீதியில்	-10.1291
▁தள்ளுபடி	-10.1293
▁மனநிலை	-10.1296
▁இருக்கிறதா	-10.1296
டில்	-10.1297
களாக	-10.1298
▁கடலில	-10.1302
▁செய்ததாக	-10.1303
▁V	-10.1303
▁அறிவுறுத்த	-10.1306
▁ஊடகங்கள்	-10.1314
▁சுத்தம	-10.1315
▁னார்கள்	-10.1315
▁வைத்தது	-10.132
▁பலர	-10.1322
▁ட்வீட்	-10.1323
▁எழுந்தருளி	-10.1326
▁பாராட்ட	-10.1327
▁மசோதா	-10.1328
▁ின்றனர்	-10.1328
▁சந்திப்ப	-10.1331
▁பேசினோம்	-10.1333
▁பின்னணியில்	-10.1339
▁சவால்	-10.1339
▁செயல்படும்	-10.1343
▁ப்படுவத	-10.1344
▁குட்டி	-10.1351
▁சம்பவங்கள	-10.1352
▁சாப்பிட்ட	-10.1356
▁மாணவர்களை	-10.1359
▁முடித்து	-10.1367
▁அறக்கட்டளை	-10.1371
▁பற்றாக்குறை	-10.1371
▁கூட்டமைப்ப	-10.1371
▁புதுக்கோட்டை	-10.1372
ணம்	-10.1373
▁வரையில	-10.1373
ுவதற்காக	-10.1382
▁உற்சவ	-10.1382
▁அழைத்த	-10.1384
▁லிங்க	-10.1393
▁ரெண்ட	-10.1395
▁ஓவர	-10.1397
ென	-10.14
▁மைதானத்தில	-10.1407
▁i	-10.1411
▁ராமநாதபுரம்	-10.1417
▁ஐடி	-10.1418
▁ராசிக்காரர்கள	-10.1419
▁யாளர	-10.1425
▁அகில	-10.1427
போதும்	-10.1434
▁அறிவித்தது	-10.1437
▁r	-10.144
▁எரி	-10.1447
▁இடத்துக்கு	-10.1455
▁ரீ	-10.1455
▁ஜெய்	-10.1455
▁கூறப்பட்டது	-10.1459
▁பகுதிகள்	-10.146
▁பலமுறை	-10.1461
▁கொரோனாவ	-10.1462
த்ரா	-10.1464
▁அவுட்	-10.1464
▁கூறப்பட்ட	-10.1465
ூரில்	-10.1468
▁வீரர்களை	-10.1473
▁ஆனந்த்	-10.1473
▁மகன	-10.1477
▁க்கூட	-10.148
▁கடமை	-10.1481
▁மண	-10.1483
▁தரம்	-10.1484
▁வளர்க்க	-10.1489
▁விசா	-10.1492
▁அமைந்த	-10.1501
▁அமைப்பை	-10.1504
▁புற்றுநோய்	-10.1507
▁to	-10.1508
▁விகிதம்	-10.1513
▁டூ	-10.1523
▁வனத்துறை	-10.1525
▁உருவாக்கிய	-10.153
▁வெப்பநிலை	-10.1531
▁முடிவுகளை	-10.1536
▁கேட்டபோது	-10.1536
சம்	-10.1542
்ட	-10.1543
▁சொல்லிய	-10.1544
▁கவனத்தை	-10.1545
▁கொண்டதாக	-10.1549
▁போரை	-10.1549
▁நீக்கம்	-10.1551
▁போட்டிகள்	-10.1552
▁கடவுள்	-10.1553
▁வெடித்த	-10.1553
▁நகரில	-10.1556
▁அட	-10.156
▁சிலர	-10.1568
▁ஆனது	-10.157
▁திரிணாமுல்	-10.1571
▁நெருங்கி	-10.1576
▁வாயிலாக	-10.1576
▁கல்ல	-10.1582
▁த்துக்க	-10.1588
▁லின்	-10.1595
▁துவங்க	-10.1599
▁செய்தியாளர்	-10.16
யின்றி	-10.1602
▁குண்ட	-10.1602
▁போலீசார	-10.1603
▁தொடரில	-10.1609
▁பயணிகள	-10.1611
▁பேசும்போது	-10.1615
▁ட்டும்	-10.1618
▁வாக்குப்பதிவு	-10.1618
▁சேர்க்கை	-10.1619
▁நடத்தப்பட்டு	-10.162
▁நூற	-10.1622
▁பாராட்டி	-10.1626
▁ரமேஷ்	-10.163
▁வரிசை	-10.1632
▁திரி	-10.1633
▁படங்களை	-10.1638
▁இருவருக்கும	-10.165
▁பத்திரிகை	-10.1651
சக்தி	-10.1653
▁விவசாயிகளுக்கு	-10.1657
▁போட்டியை	-10.1661
▁கருத்துக்களை	-10.1662
▁வைரலாகி	-10.1666
▁விரிவா	-10.1667
▁செய்கிறது	-10.1671
▁பீகார்	-10.1672
▁கொடுமை	-10.1677
▁லீக்	-10.1685
சோ	-10.1688
▁போனது	-10.1691
▁மேற்பட்டோர்	-10.1691
▁மேம்பாட்டு	-10.1692
▁0	-10.1702
▁37	-10.1704
▁வித்தியாசத்த	-10.1708
▁வெளியேற்ற	-10.1708
ில்லை	-10.1709
▁அவள்	-10.1711
▁கருப்பு	-10.1714
▁அமைதிய	-10.1723
▁ஆசி	-10.1723
▁கால்நடை	-10.1733
▁நடவடிக்கையை	-10.1736
▁பாதுகாப்பான	-10.1737
b	-10.1737
▁நிச்சயம	-10.1739
▁தொல்லை	-10.1739
▁காயமடைந்த	-10.1745
▁வரவு	-10.1746
▁உண்டாகும்	-10.1748
ஞ்சி	-10.1748
▁பயன்படுத்தப்பட	-10.1753
▁மீனவர்கள்	-10.1753
▁அங்கீகாரம்	-10.1754
▁பிரச்னைகளை	-10.1754
▁போராட்டக்காரர்	-10.1756
▁ரெ	-10.1756
▁படிக்கும்	-10.1759
▁2-	-10.1762
▁தேவ	-10.1767
▁சேவைகள்	-10.1768
▁ஆண்டின	-10.1769
▁பிரிவின்	-10.177
▁வகித்த	-10.1773
L	-10.1775
▁கனடாவ	-10.1775
▁வெற்றிக்கு	-10.1776
▁வந்தன	-10.1784
▁ாள்	-10.1786
த்தக்க	-10.1787
▁வெடி	-10.179
▁தூண்ட	-10.1804
▁அடைக்கப்பட்ட	-10.1804
▁னேன்	-10.1807
▁அணுக	-10.1808
▁தெரிவித்தது	-10.181
▁கண்காணிப்பாளர்	-10.1811
▁ஓபிஎஸ்ஸ	-10.1813
▁ஓவர்களில	-10.1816
▁ிருந்தாலும்	-10.1818
▁போன்றவற்றை	-10.1819
▁பரீட்சை	-10.1819
▁இருக்கிறேன்	-10.1822
▁விட்டேன்	-10.1823
யினர்	-10.1823
▁மறக்க	-10.1827
▁எளித	-10.1829
▁ஸார்	-10.183
தெல்லாம்	-10.1831
▁கரூர்	-10.184
▁வரலாம்	-10.1847
▁கேரளாவில	-10.1848
▁அழகு	-10.1854
▁சனாதன	-10.1856
▁கடினமான	-10.1858
▁விட்டன	-10.1859
▁of	-10.1871
யன்று	-10.1873
பூ	-10.1874
▁வளர்ந்து	-10.1874
▁கோட்டா	-10.1878
▁கொட்ட	-10.1879
▁44	-10.1884
▁நண்பர்	-10.1885
▁லிட்டர	-10.1886
ஜன	-10.1889
▁நடப்பத	-10.1889
▁விளையாட்ட	-10.189
▁வீடியோவில்	-10.189
▁தீபாவளி	-10.1898
▁வரவேற்க	-10.1898
▁புலிகள	-10.1899
கலாநிதி	-10.1902
▁கோயில	-10.1908
▁மீட்ட	-10.1912
▁எழுந்து	-10.1914
▁உரிமையாளர்	-10.1918
▁உடைந்த	-10.1919
at	-10.1919
▁வேளையில்	-10.1921
▁பற்றியும்	-10.1925
▁நீக்கப்பட்ட	-10.1931
▁டின்	-10.1931
▁2000	-10.1931
▁முக்கியமாக	-10.1933
▁அத்தியாவசிய	-10.1939
▁தள	-10.194
▁மல்	-10.1941
▁கொடியேற்றத்த	-10.1943
▁சொன்னது	-10.1948
v	-10.1949
வல்	-10.1949
▁பழ	-10.195
▁இப்ப	-10.195
▁புலனாய்வு	-10.1951
பெ	-10.1956
▁அமர்ந்த	-10.1956
▁ுவதால்	-10.1959
▁உதவிகளை	-10.1959
▁ப்பட்டுள்ள	-10.1959
▁முறையும்	-10.196
ியா	-10.1973
▁ஸ்தான	-10.1975
▁ஆட்டோ	-10.1976
▁புகார்கள்	-10.1976
▁அலுவல்	-10.1983
▁சக்கர	-10.1985
▁ஜெர்மனி	-10.199
▁வாய்ப்ப	-10.1993
▁சமர்ப்பிக்க	-10.1998
▁பிடிக்கும்	-10.1998
▁வருவதற்கு	-10.2
▁கொடுக்கப்பட்ட	-10.2003
▁இங்க	-10.2004
▁தனித்து	-10.2005
யோடு	-10.2005
▁38	-10.2012
▁வெப்ப	-10.2012
▁்க	-10.2021
▁ஹை	-10.2022
▁லெபனான	-10.2023
▁நிலைப்பாட்ட	-10.2024
▁களம்	-10.2025
▁கிர	-10.2026
H	-10.2027
▁சுர	-10.2028
▁வருவதை	-10.2032
▁அவர்களிடம	-10.2034
▁மறுநாள்	-10.2035
▁பெங்களூர்	-10.2036
▁சங்கர	-10.2039
▁என்றனர்	-10.2039
▁ஹிந்து	-10.204
▁ப்படாத	-10.2048
▁பொன்	-10.2064
▁சிசிடிவி	-10.2066
▁முன்னேற்றம்	-10.2066
▁பாதிக்கும்	-10.2068
▁தெரிவித்துள்ள	-10.2069
பால	-10.2073
▁சமீபத்த	-10.2076
▁இலை	-10.2076
▁புதன்	-10.2077
▁இவர்களுக்கு	-10.2078
▁நிகழ்வுகள்	-10.2081
▁விரிவாக	-10.2088
▁காப்பு	-10.209
▁செயல	-10.209
▁பரவல்	-10.209
▁ஒலி	-10.2091
▁இளைஞர்கள	-10.2091
▁அதிகாரத்தை	-10.2092
▁மறந்து	-10.2097
▁தாக்கிய	-10.2098
▁வழங்கப்பட்டுள்ள	-10.2101
▁மன்ற	-10.2108
▁விமர்சிக்க	-10.2108
▁கழகம்	-10.2109
ரேஷ்ட	-10.2109
▁கைவிட	-10.2109
▁நியூ	-10.2111
▁லட்சத்து	-10.2113
▁பாண்டியன்	-10.212
வரி	-10.2122
▁குறையும்	-10.2123
▁வருடங்களாக	-10.2123
▁சத்தம்	-10.2123
▁அழிக்க	-10.2127
▁தோற்ற	-10.213
ட்டர்	-10.2132
ித்து	-10.2134
▁தண்ணீர	-10.2135
▁நிலத்தை	-10.2141
▁புரம்	-10.2142
▁படைத்த	-10.2143
▁உயர்நீதிமன்ற	-10.2143
▁பணியாற்றிய	-10.2145
▁வைக்கப்பட்டது	-10.2149
▁நியூசிலாந்து	-10.2149
▁ுள்ள	-10.215
▁எதிர்பாராத	-10.215
▁the	-10.2151
▁னோம்	-10.2153
▁நீங்கும்	-10.2155
▁ஆப்கானிஸ்தான்	-10.2155
லு	-10.2155
▁கோட்ட	-10.2166
▁பிறகும்	-10.2169
▁இன்ன	-10.2177
▁நோட்டீஸ்	-10.2182
▁திரும்பப்	-10.2185
இது	-10.2187
▁தலைமுறை	-10.2195
▁ஜப்பான	-10.2198
▁வலுப்படுத்த	-10.2203
▁ஏற்றுக்கொண்ட	-10.2205
▁நலன்	-10.2207
▁ஊ	-10.2212
▁பண்ணை	-10.222
ும்போது	-10.2232
▁ஆழ	-10.224
▁கடிதத்தில்	-10.2242
▁சங்கத்தின	-10.2248
▁ஒற்றைத்	-10.225
▁விதம	-10.2251
▁சூர்யா	-10.2254
▁அரசாங்கத்தின	-10.2257
▁சுற்றிய	-10.226
▁ஆந்திரா	-10.226
▁இதைப்	-10.2264
▁போடப்பட்ட	-10.2265
▁வரவேற்ற	-10.2268
▁தேர்வ	-10.2271
▁பாரத	-10.2274
▁ஆராய்ச்சியாளர்	-10.2281
▁கடலூர்	-10.2282
▁வெளிவந்த	-10.2285
▁உச்சி	-10.2286
▁39	-10.2289
▁சபையின	-10.2292
▁எல்லோரும	-10.2293
▁மாற்றத்தை	-10.2293
ாரா	-10.2294
▁பேச்ச	-10.2297
▁உயிரை	-10.2298
▁கட்டிய	-10.2299
த்திலேயே	-10.23
▁லிருந்து	-10.2303
▁34	-10.2303
▁போட்டோ	-10.231
▁நடத்தியது	-10.2311
▁கையாள	-10.2315
▁பாதுகாப்புப்	-10.2316
▁எதிர்கொண்ட	-10.2316
▁களோ	-10.2318
▁இதற்கிடையில்	-10.2323
▁பேரூராட்சி	-10.2323
▁பாட்ட	-10.2326
▁திரண்ட	-10.2328
▁எரிவாயு	-10.2329
▁நிறுவனம	-10.2333
▁சத	-10.2334
▁ஆல	-10.2334
▁வலை	-10.2335
▁குழுக்கள்	-10.2336
▁லேசான	-10.2338
▁கூறப்பட	-10.2343
▁சித்த	-10.2344
▁குறுக	-10.2346
▁உருவ	-10.2348
▁நூல்	-10.235
▁திருவ	-10.235
▁உற்சவம்	-10.2351
▁நிறுத்தப்பட்ட	-10.2352
▁ஓமிக்ரான்	-10.2352
.3	-10.2353
▁குழந்தைக்கு	-10.2354
▁t	-10.2366
▁தெலுங்கானா	-10.2366
▁வீச	-10.2367
▁விஷயத்தை	-10.237
▁மாறும்	-10.237
▁கமல்	-10.2371
▁காட்டுகிறது	-10.2371
▁இயங்கி	-10.2373
▁லுக்கு	-10.2375
▁மனுவை	-10.2379
▁வராக	-10.2381
▁65	-10.2381
▁உச்சநீதிமன்றம்	-10.2382
▁புற	-10.2383
▁கட்டுப்பாடு	-10.2383
▁இருவர்	-10.2386
▁மக்களும்	-10.2387
▁நடைபெறவுள்ள	-10.2387
▁ிறேன்	-10.2389
▁நகரம்	-10.2391
▁தயாரிக்கப்பட்ட	-10.2391
▁தமிழ்நாட்டு	-10.2391
▁வெளிப்படுத்தி	-10.2392
▁தொழில்நுட்பம்	-10.2404
▁காலத்திற்கு	-10.2404
▁புகை	-10.2407
▁த்து	-10.2408
▁பிரான்ஸ்	-10.2409
▁வேண்டுமானாலும்	-10.241
▁அவற்றின	-10.241
▁சிக்க	-10.2414
▁கண்ணீர்	-10.2415
▁தெ	-10.2418
▁ஜெகன்	-10.2421
▁ஜாதி	-10.2422
ுவார்	-10.2423
▁ஆல்	-10.2426
▁பிரதிநிதிகள்	-10.2429
▁மேற்கொள்ளப்பட	-10.243
▁குடும்பத்தில	-10.2431
▁நாடுகளின	-10.2432
கிரி	-10.2439
▁இருப்பார்	-10.2446
ிருந்தனர்	-10.2449
ற்கான	-10.2453
▁கண்காட்சி	-10.2454
▁சமாளிக்க	-10.2454
▁லாப	-10.2454
▁நம்பிக்கையை	-10.2458
▁வட்ட	-10.2464
▁பட்டியல	-10.2464
▁நிகர	-10.2469
▁கூறியுள்ளனர்	-10.2474
▁படைகள்	-10.2476
▁பங்களிப்பு	-10.2477
▁புறப்பட்டு	-10.2479
▁கட்சிகள	-10.248
▁அமாவாசை	-10.2481
▁ஒப்பந்தத்த	-10.2481
▁செய்வதற்காக	-10.2485
▁அரசாங்கத்த	-10.2486
▁2015	-10.2491
▁குழுவை	-10.2496
▁al	-10.2497
லில்	-10.2499
ப்படவில்லை	-10.2499
▁இரும்பு	-10.2502
▁தினகரன்	-10.2503
▁முக்கியமானது	-10.2505
▁அக	-10.2506
▁சர்ச்சையை	-10.2508
▁ிட	-10.2509
▁கும்ப	-10.251
▁உள்ளதாகவும்	-10.2514
▁ஆரம்பித்து	-10.2517
▁கடனை	-10.2519
▁பீட	-10.2522
▁ிருக்கிறோம்	-10.2528
▁கூடி	-10.2537
▁உப	-10.2539
▁ட்டு	-10.254
▁துருக்கி	-10.2542
▁பிளாஸ்டிக்	-10.2542
▁தோல்வியடைந்த	-10.2543
▁அதன	-10.2549
▁பட்டம்	-10.2551
▁சுகாதாரத்துறை	-10.2552
▁பராமரிப்பு	-10.2552
▁வாய்ப்புள்ளது	-10.2557
▁அதிபர	-10.256
▁வட்டார	-10.2567
▁w	-10.2571
▁b	-10.2572
▁தொண்ட	-10.2579
▁பரபர	-10.2579
▁ந்த	-10.2579
▁வரும்போது	-10.258
வான்	-10.2583
▁சமுதாய	-10.2586
▁அக்கறை	-10.2586
▁தாமரை	-10.2586
▁மறுபுறம்	-10.2586
▁குழந்தையின்	-10.2588
▁தேர்ச்சி	-10.2588
▁பள்ளிக்கு	-10.2589
▁ஜோதி	-10.2591
▁சம்பள	-10.2592
▁விளைவாக	-10.2595
▁மேடை	-10.2595
▁அறையில்	-10.2604
▁வகுப்ப	-10.2605
▁கெட்ட	-10.2609
▁துறையினர்	-10.2609
▁கொண்டாடி	-10.2611
▁தமிழர்கள்	-10.2612
▁முகாம	-10.2614
▁ிருக்கிறேன்	-10.2614
▁சசிகலாவ	-10.2614
▁f	-10.2618
▁இருக்கும்போது	-10.2622
▁சாந்தி	-10.2622
▁விரோத	-10.2624
▁உறுப்பு	-10.2626
▁கொடிய	-10.2628
▁அங்கீகரிக்க	-10.2631
ிறோம்	-10.2633
▁ஏற்படுகிறது	-10.2633
▁பாவ	-10.2634
▁புத்தக	-10.2636
▁காப்ப	-10.2636
▁சத்திய	-10.2636
▁விவாதம்	-10.2638
ுதி	-10.264
▁இஸ்ரேலுக்கு	-10.2642
▁அறிவு	-10.2646
▁திட்டங்கள	-10.2646
▁ஆடிய	-10.2646
▁பட்டியலின	-10.2651
▁எழுத்து	-10.2657
ார	-10.2663
▁இறப்பு	-10.2663
▁ஆள்	-10.2668
▁விட்டார்கள்	-10.267
ுற	-10.2672
▁நெய்	-10.2672
▁கண்காணிக்க	-10.2676
▁கூகுள	-10.2676
▁யூனியன	-10.2676
▁பசி	-10.2677
▁அம்மாநில	-10.2678
▁பெற்றுக்கொள்ள	-10.2679
▁எடுத்துக்கொள்ள	-10.268
பால்	-10.2681
ூட்ட	-10.269
▁கேள்விகள்	-10.2691
▁கடவுள	-10.2695
▁கோவில்களில்	-10.2697
▁அதுதான்	-10.2697
▁கொண்டுவர	-10.2701
▁காரைக்கால்	-10.2703
▁மாட்டார்	-10.2704
▁பணிபுரிந்த	-10.2704
▁வந்தபோது	-10.2706
▁ரங்க	-10.2709
▁கடத்தல்	-10.2711
▁மாசி	-10.2716
▁கண்டுபிடித்த	-10.2716
▁கண்டறிந்த	-10.2717
▁கோரிய	-10.2718
▁முன்னுரிமை	-10.2721
▁சிவா	-10.2723
▁நீண்டகால	-10.2724
▁மகள	-10.2726
ளவில்	-10.2727
▁உள்ளடக்கிய	-10.2728
▁சீரியல்	-10.2736
▁பார	-10.2739
▁காத்த	-10.2742
▁மதிக்க	-10.2746
▁உத்திர	-10.2747
▁விளம்பர	-10.275
▁புகைப்பட	-10.2752
▁போலீஸார	-10.276
▁கொண்டிருந்தது	-10.2764
▁சுரங்க	-10.2765
▁படுக்கை	-10.2766
▁வீழ்த்தி	-10.2771
▁அன்ன	-10.2776
▁உதய	-10.2776
▁சங்கர்	-10.2781
▁ஓவர்	-10.2782
▁பன்னீர்	-10.2782
▁பாதிப்புகள்	-10.2786
▁கட்டமைப்பு	-10.2791
த்திர	-10.2794
▁News	-10.2812
▁ராமதாஸ்	-10.2812
▁மேற்கத்த	-10.2813
ிட்ட	-10.2815
▁பதிவிட்டு	-10.2815
▁வத	-10.2816
▁ங்களுடன	-10.2817
am	-10.2817
▁பிரபலமான	-10.282
▁re	-10.2824
▁வளர	-10.2825
▁பதி	-10.2826
▁சான்றிதழ்	-10.2826
▁பாளையம்	-10.2831
▁வார்டு	-10.2832
▁வாங்கும்	-10.2833
▁மணிப்பூர	-10.2833
▁தலைநகர	-10.2835
▁உன்	-10.2835
▁இருப்பார்கள்	-10.2837
கள	-10.2837
▁போதைப்பொருள்	-10.2839
▁ஈரான்	-10.2839
▁சரத்	-10.284
▁பொறுத்து	-10.2841
▁நிறைவேற்றி	-10.2843
க்கூடாது	-10.2843
▁பழங்குடி	-10.2846
▁சுட்டிக்காட்ட	-10.2848
▁கட்டுப்பாட்டு	-10.2853
▁வணங்க	-10.2854
▁அருள்பாலித்த	-10.2857
ட்டை	-10.2858
▁பண்ட	-10.286
▁இல்லாததால்	-10.2868
▁பதிவிட்ட	-10.2872
▁அணிகள்	-10.2874
▁போவதாக	-10.2876
▁விவகாரத்த	-10.2878
.6	-10.2879
▁இவற்ற	-10.2883
▁அக்கட்சியின	-10.2888
▁தூங்க	-10.289
க்கை	-10.2894
▁முழங்க	-10.2898
▁தவற	-10.2901
▁நிரூபிக்க	-10.2902
▁பயங்கர	-10.2903
▁சிவகங்கை	-10.2903
▁தேசியக்	-10.2906
▁தோல்வியை	-10.291
▁தயாரிப்ப	-10.2911
▁ஏற்று	-10.2911
▁பகிர்ந்த	-10.2912
▁ஓரளவு	-10.2914
▁கப்பல	-10.2916
▁உள்ளதால்	-10.2917
▁ப்படுவது	-10.2917
▁உறுப்பினராக	-10.2917
▁தாக்குதலுக்கு	-10.2924
▁ஆட்டத்தை	-10.2926
▁பள்ளிகள்	-10.2927
▁தமிழ்நாட்ட	-10.2928
▁நாட்டுக்கு	-10.293
▁திறப்பு	-10.2933
ப்பட்டுள்ளதாக	-10.2933
▁ராமேஸ்வரம்	-10.2949
▁ஊரடங்கு	-10.2954
▁இருந்ததாக	-10.2956
▁கோடை	-10.2959
▁வெள்ளம்	-10.2959
▁கவு	-10.2969
▁பரிந்துரைக்க	-10.297
▁41	-10.297
▁கார்த்திக்	-10.2978
▁கிளம்பி	-10.2978
▁இடங்களுக்கு	-10.2983
▁செய்வதாக	-10.2983
▁அளித்துள்ளார்	-10.2983
▁அறிவித்து	-10.2986
▁தான	-10.2987
▁கொடுத்தது	-10.2988
▁அப்போதுதான்	-10.2993
▁டிடிவி	-10.2995
▁தக்காளி	-10.2996
பாத்	-10.2996
▁சமையல்	-10.2997
▁உத்தரவிட்டுள்ள	-10.2997
▁ஆத்திர	-10.2998
▁ுகிறேன்	-10.2999
ஓ	-10.3004
யு	-10.3013
▁சிறுத்தை	-10.3015
▁பிரகாஷ்	-10.3019
▁அபராதம்	-10.3021
▁மஸ்க்	-10.3022
▁5-	-10.3024
▁முனை	-10.3026
▁விலிருந்த	-10.3032
▁கூட்டத்தை	-10.3033
▁ஊர்வலம்	-10.3033
▁சன	-10.3033
▁பயன்படுத்திய	-10.3033
▁தொழிற்சாலை	-10.3037
▁ரிசர்வ்	-10.3042
▁பிரேத	-10.3042
▁உணவை	-10.3043
▁நிலவுகிறது	-10.3043
▁வயதுக்கு	-10.3044
ப்பர்	-10.3045
▁ஆபத்தான	-10.3045
▁நிறுவனத்தை	-10.305
▁ஹோ	-10.3054
▁ஒன்	-10.3058
▁பரவலாக	-10.3061
▁புகாரின்	-10.3062
▁இருவர	-10.3067
▁47	-10.3069
வார்	-10.307
▁ஃ	-10.3079
▁ஆதித்யநாத்	-10.3081
▁சொல்லப்படுகிற	-10.3083
▁களா	-10.3083
▁கார்டு	-10.3088
▁மேலாண்மை	-10.3089
▁சுக்கிரன்	-10.3089
▁சென்றுள்ளார்	-10.309
▁சூ	-10.3092
,500	-10.3094
▁இயக்குனர்	-10.3095
▁பெய்து	-10.3095
▁கட்டளை	-10.3096
▁கோபம்	-10.3097
▁விரைவாக	-10.3099
▁ஆஸ்திரேலியாவ	-10.3099
னேன்	-10.31
▁மார்க்	-10.31
▁வாரிசு	-10.3102
▁திட்டத்திற்க	-10.3106
▁போலீஸ	-10.3106
▁க்கே	-10.3111
▁எப்படிய	-10.3112
▁அமித்ஷா	-10.3115
▁தலைவரான	-10.3116
▁சொல்கிறார்கள்	-10.3117
▁படங்கள	-10.3118
▁மீட்கப்பட்ட	-10.3123
▁அளவை	-10.313
▁இப்போ	-10.3131
▁செயலக	-10.3132
▁கோவில	-10.3135
▁நகைச்சுவை	-10.3136
▁தமிழிசை	-10.3136
▁பதிலளிக்க	-10.3136
▁முடிவடைந்த	-10.3136
▁அறிவுரை	-10.3138
▁அமைந்தது	-10.314
▁கண்ணன்	-10.3141
▁தோட்ட	-10.3145
▁ணும்	-10.3148
▁+	-10.3158
▁தானம்	-10.3159
▁அன்னதானம்	-10.3161
ிப்ப	-10.3162
▁கம்ப	-10.3167
▁எதிரி	-10.3169
க்கார	-10.3169
▁கற்றுக்	-10.3173
▁பிறப்பித்த	-10.3176
▁3-	-10.3177
▁விழ	-10.318
▁அப்துல்	-10.3181
▁முன்கூட்டிய	-10.3183
▁பேருந்த	-10.3185
▁அளிக்கப்பட்ட	-10.3186
▁வகையிலும்	-10.3192
▁கடத்தி	-10.3192
ங்கா	-10.3193
▁சத்த	-10.3196
▁ஆவணங்கள்	-10.3197
▁களமிறங்கிய	-10.3197
▁விரதம்	-10.3201
▁அகிலேஷ்	-10.3201
▁போராட்டங்கள்	-10.3202
▁உடைத்து	-10.3203
▁உடைய	-10.3206
▁ஆகியோரை	-10.3214
▁கட்டுப்பாடுகள்	-10.3215
▁காசா	-10.3216
ுக்கே	-10.322
ஹி	-10.3222
▁வள்ளி	-10.3231
▁ஒருங்கிணைந்த	-10.3234
▁பழக்கம்	-10.3237
▁ஒட்டிய	-10.3238
▁போதிய	-10.324
▁லில்	-10.324
▁அமெரிக்காவில	-10.3247
▁பணியாளர்கள	-10.3251
▁நாயுடு	-10.3251
▁காஷ்மீர	-10.3257
▁துறைமுக	-10.3257
▁ஆலோசகர்	-10.3258
▁திருமாவளவன்	-10.3258
▁போக்க	-10.326
▁தெளிவ	-10.3264
▁மூடி	-10.3264
▁நன்மைகள்	-10.3264
▁திட்டமிடப்பட்ட	-10.3266
▁சமீப	-10.3271
▁அலுவலகத்த	-10.3272
▁டைம்	-10.3272
▁உட்	-10.3276
▁நெரிசல	-10.3278
▁காணிக்கை	-10.3278
▁வு	-10.3279
▁இன்றைக்கு	-10.328
▁என்னவென்றால்	-10.3282
▁கொஞ்ச	-10.3283
▁காரணங்கள்	-10.3283
▁ஆவ	-10.3284
▁தேதியன்று	-10.3289
▁பிறந்தநாள்	-10.3289
▁முருக	-10.329
ுகிறார்கள்	-10.329
▁முறைகேடு	-10.3292
யில	-10.3293
▁செயல்பாடுகள்	-10.3296
▁கோபி	-10.3297
ஞ்	-10.3299
▁ஏர்	-10.3299
▁செய்யப்படுகிறது	-10.33
▁உரையாற்ற	-10.3303
▁என்னும்	-10.3303
▁ிருப்பதை	-10.3309
▁சீனாவில	-10.3309
▁பெய்த	-10.3315
▁கத்தி	-10.3315
▁ஊடகங்கள	-10.3316
▁வங்கிக்	-10.3316
▁அறிவிப்ப	-10.3318
▁என்கிறது	-10.3321
▁குறைபாடு	-10.3321
▁49	-10.3323
▁உறவை	-10.3323
▁விருப்பம்	-10.3325
▁சுக	-10.3326
▁நோக்கில்	-10.3332
▁யொட்டி	-10.3333
முறை	-10.3334
மணி	-10.3337
ஆ	-10.3339
▁பொம்மை	-10.3339
▁வலைதள	-10.3344
▁உத்தரவிட்டார்	-10.3346
▁ர்கள்	-10.3348
▁ஆவண	-10.3349
ீஸ்வரர்	-10.3349
▁கொள்முதல்	-10.335
▁பென்	-10.3353
▁தந்து	-10.3356
▁இடைவெளி	-10.3357
▁நடுத்த	-10.336
▁பெருமாள	-10.3362
▁வருடங்களுக்கு	-10.3364
▁ரெய்டு	-10.3366
▁புதின	-10.3368
▁தலைவர்களை	-10.3371
▁படிப்படியாக	-10.3374
▁பட்ஜெட்ட	-10.3374
▁நாமக்கல்	-10.3374
▁கண்கள	-10.3377
▁உயர்ந்துள்ளது	-10.3383
னியா	-10.3386
▁பார்வையிட்ட	-10.3392
▁சிவப்பு	-10.3394
▁தமிழ்நாட்டை	-10.3395
▁தேரோட்டம்	-10.3396
▁அந்நாட்ட	-10.3405
▁வெளிநாடு	-10.3407
▁ஆதிக்கம்	-10.3408
▁இவரை	-10.3418
▁வழக்கம	-10.3419
▁சமர்ப்பித்த	-10.3422
▁மீனாட்சி	-10.3422
▁அன்புமணி	-10.3422
▁செயல்முறை	-10.3423
▁ரக	-10.3424
▁வீட	-10.3433
▁எக்ஸ்பிரஸ்	-10.3439
▁ப்பட்டன	-10.3445
▁காரிய	-10.3447
வெ	-10.3448
▁வண்ண	-10.3451
▁பணிக்கு	-10.3453
▁பந்துவீச்சாளர்	-10.3454
▁செய்கிறார்கள்	-10.3454
▁அறிவ	-10.3457
▁நிதியமைச்சர்	-10.3463
▁சுவாமிகள்	-10.3465
▁ரூபாய்க்கு	-10.3467
▁தொடங்கினர்	-10.3467
▁மாடி	-10.3468
▁ஒழிப்பு	-10.3468
▁எவ்வித	-10.3471
▁பொதுவான	-10.3471
▁பிரமாண்ட	-10.3471
▁இன்ஸ்டாகிராம	-10.3471
▁த்திலேயே	-10.3472
த்துக்காக	-10.3476
▁குழுக்கள	-10.348
▁மட்டக்களப்பு	-10.3481
▁கின்	-10.3484
▁பயணிக்க	-10.3488
w	-10.3499
யற்ற	-10.35
▁சூடு	-10.3503
▁பூச	-10.3505
ிரு	-10.3509
▁தினங்கள	-10.3511
▁மற்றவர்கள	-10.3516
▁ஆட்ட	-10.3519
▁கூறுவது	-10.352
▁‛	-10.352
▁நிலவ	-10.3521
ச்சா	-10.3524
▁ஆயுதங்களை	-10.3528
▁செங்கல்பட்டு	-10.353
▁காவலர்	-10.3532
▁நிலநடுக்கம்	-10.3533
▁42	-10.3533
▁வீழ்ச்சி	-10.3536
▁ஸ்தானத்தில	-10.3544
▁செய்யவும்	-10.3545
▁சுட	-10.3545
▁ஹைதராபாத்	-10.3553
▁சென்	-10.3554
▁முயற்சித்த	-10.3555
▁உறவுகளை	-10.3565
▁தேசியவாத	-10.3565
▁புல	-10.3566
ஃபி	-10.3569
▁ப்படவுள்ள	-10.357
▁அரசியல	-10.3571
▁உரை	-10.3575
▁அச்சம்	-10.3583
▁உணவுகளை	-10.3586
▁மந்த	-10.3593
ட்ஸ்	-10.36
▁இழப்பீடு	-10.36
▁பந்தை	-10.3601
▁ஊர்வலம	-10.3601
பெரும்	-10.3602
▁கோபுர	-10.3603
▁கொள்கையை	-10.3605
ின்றன	-10.3605
▁தொட்டி	-10.3615
▁தலித்	-10.3616
▁சதுர்த்தி	-10.3618
▁ஒலிம்பிக்	-10.3618
▁வசந்த	-10.3618
▁ஆதரிக்க	-10.3618
த்திற்காக	-10.3621
பட்ட	-10.3622
▁பனி	-10.3622
▁சாட்ட	-10.3625
▁விமானங்கள்	-10.3626
▁போர	-10.3626
▁மையமாக	-10.364
▁நிலங்கள	-10.3644
▁ரும்	-10.3646
ந்தைய	-10.3649
ென்	-10.365
▁நிறுவனங்களுக்கு	-10.3657
டே	-10.3658
▁உப்பு	-10.3658
▁அஞ்ச	-10.3666
▁டெல்டா	-10.3668
▁இம்முறை	-10.3668
▁நிகழ்ச்சியை	-10.367
▁என்பதற்கு	-10.3679
▁ாரா	-10.3683
க்கல்	-10.3683
▁யாருக்கும	-10.3685
▁நடத்தப்பட	-10.369
▁கட்டாய	-10.3691
▁ஆர	-10.3693
▁கார்த்தி	-10.3699
▁மேலதிக	-10.3705
▁பெற்றோர்கள்	-10.3708
▁46	-10.3709
நீ	-10.3709
ன்ட்	-10.371
▁ஆவணங்களை	-10.3717
▁ஆயுள்	-10.3717
▁இந்நிகழ்வ	-10.3717
▁வாக்களித்த	-10.3717
▁உயர்கல்வி	-10.3717
▁பாறை	-10.3721
▁மகிழ்ச்சியாக	-10.3721
50	-10.3728
▁நீல	-10.373
புர	-10.3731
▁ஆற்றல்	-10.3741
▁நீரை	-10.3744
▁பூர	-10.3746
▁வீட்டில	-10.3748
▁செய்யாமல்	-10.3751
▁அதிமுகவின	-10.3755
▁குறு	-10.3755
▁ஓம்	-10.376
▁காங்கிரச	-10.3767
▁பிரதிநிதித்துவ	-10.3767
▁பட்டாசு	-10.3768
▁உட்கார்ந்த	-10.3768
▁வியாழக்கிழமை	-10.3771
▁தெரு	-10.3774
▁m	-10.3775
▁தீர்மான	-10.3778
▁ரியா	-10.3782
▁பக்தி	-10.3782
▁உள்ளதா	-10.3792
▁உயிரிழப்பு	-10.3794
பய	-10.3794
▁இறங்கிய	-10.3798
▁ண	-10.3799
▁உறுதியான	-10.3799
▁l	-10.3805
▁தயாராகி	-10.3805
▁கம்பெனி	-10.3817
▁புதுப்பிக்க	-10.3817
▁ஈபிஎஸ்	-10.3817
▁அதேசமயம்	-10.3818
▁வெயில	-10.3818
▁பிரசவ	-10.382
▁அஞ்சலி	-10.3828
▁h	-10.383
f	-10.383
▁போட்டியிடும்	-10.3831
▁வழக்குப்	-10.3832
வாரி	-10.3832
▁பலாத்காரம்	-10.3835
▁மருந்துகள்	-10.3836
▁சிலைகள்	-10.3838
▁விலையில்	-10.3838
▁தொண்டர்கள	-10.3843
▁தலைவருமா	-10.3844
▁பழனி	-10.3846
▁ஃபி	-10.3846
▁நே	-10.3848
▁வேட்டை	-10.385
▁செய்தியை	-10.3853
ம்பு	-10.3855
▁ஆடு	-10.3859
▁கூறுகிறார்கள்	-10.386
▁கமிஷனர	-10.3863
▁சேர்க்கப்பட்ட	-10.3866
பிற்படுத்தப்பட்ட	-10.3868
▁அரசியலை	-10.3869
▁கட்டுப்பாட்ட	-10.3869
▁கடினமாக	-10.3873
லர்	-10.3873
▁சின்	-10.3877
▁ரத	-10.3877
▁லாமா	-10.3879
▁வருகின்ற	-10.3882
▁பொறியியல	-10.3888
▁இதன்படி	-10.3889
▁கதையை	-10.3889
▁போட்டுக்	-10.3897
▁உருவாக்கும்	-10.3898
பிள்	-10.3898
▁வாத	-10.3899
▁தீப	-10.3901
▁திருக்கல்யாண	-10.3903
▁சம்பவத்தை	-10.3904
ாக்கி	-10.3906
▁உள்ளிட்டவை	-10.3907
▁குறைந்தபட்ச	-10.3912
▁சிலருக்க	-10.3912
ங்களுக்கு	-10.3915
▁கெஜ்ரிவால்	-10.3917
▁யைப்	-10.3918
ேஜ்	-10.3918
▁புண்ணிய	-10.3918
▁பேரிடர்	-10.3918
▁பரவ	-10.392
▁மகேஷ்	-10.3921
▁வேண்டுமா	-10.3921
▁சன்னதி	-10.3922
▁திரள	-10.3923
▁டெலி	-10.3923
▁வரப்பட்ட	-10.3925
▁விளையாடி	-10.3925
▁ஷர்மா	-10.3928
▁வசதிகளை	-10.393
▁ஜூ	-10.394
▁செலவில்	-10.3941
▁மண்டபம்	-10.3951
▁லு	-10.3953
▁மாநாட்ட	-10.3954
▁படகு	-10.3954
▁வழங்கியுள்ளது	-10.3955
▁உறவினர்	-10.3956
▁d	-10.3964
▁பாதுகாப்பை	-10.3967
▁தெரிவிக்கிறார்	-10.3967
▁லக்னோ	-10.3972
▁முன்னிலை	-10.3978
▁விஷ்ணு	-10.3981
▁விநியோக	-10.3988
▁இளைஞர	-10.399
ஸை	-10.399
▁அதைக்	-10.3991
▁திமுகவின	-10.3991
▁துவக்க	-10.3993
▁பயணித்த	-10.3995
▁பலம்	-10.4002
▁பெண்ணின	-10.4006
▁தலைவர்களும்	-10.4007
▁சிங்கப்பூர்	-10.4007
▁உயிரிழந்தார்	-10.4011
▁நுழைய	-10.4013
▁வென்றது	-10.4014
▁கிடைத்துள்ளது	-10.4015
▁வீரர	-10.4017
▁மிரட்டி	-10.4024
▁என்கின்றனர்	-10.4024
▁சீதாராமன்	-10.4025
ாறு	-10.403
▁தேர்தலுக்கா	-10.4031
▁பசு	-10.4034
▁விட்டதால்	-10.4035
▁சென்றபோது	-10.4036
ுகிற	-10.4039
▁நூற்றாண்டு	-10.404
▁குட	-10.4042
▁உயர்நீதிமன்றம்	-10.4048
▁பூர்வ	-10.4048
▁கூடவே	-10.4051
▁செயல்பாடு	-10.4067
▁ஒப்புக்	-10.4072
▁சதுர	-10.4072
▁நினைக்கிறேன்	-10.4074
▁சிறுநீரக	-10.4076
▁எழுத்தாளர்	-10.4079
▁லட்சக்கணக்கான	-10.408
▁தெரியவந்துள்ளது	-10.4081
நாயக்க	-10.4081
▁மதுபான	-10.4081
▁வேண்டியிருந்தது	-10.4082
▁ரஷ்யாவுக்கு	-10.4082
வாறு	-10.4085
▁மஹ	-10.4085
▁அதிகாரிகளை	-10.409
▁நிற்கும்	-10.4092
▁பேரவை	-10.4093
▁சேரும்	-10.4094
▁வெயில்	-10.4097
▁உத்தரவிட்டது	-10.4102
▁முடக்க	-10.4102
▁வேக	-10.411
▁ஓரிர	-10.4112
▁ஒப்படைக்க	-10.4114
▁டிரா	-10.4117
▁வற்ற	-10.412
▁வழங்குவது	-10.412
▁விவாத	-10.4122
▁நிறுவனத்தில	-10.4122
▁போய	-10.4124
▁ஒலிம்பியா	-10.4124
▁எளிய	-10.4124
▁நேட்டோ	-10.4124
▁ங்களாக	-10.4128
▁ிருப்பதால்	-10.4132
▁சீனிவாசன்	-10.4132
▁நேரத்தை	-10.4133
▁ீங்க	-10.4133
▁கமலா	-10.4134
▁நான்காவத	-10.4135
▁வந்திருக்கிறார்	-10.4135
▁பயன்படுத்திக்	-10.414
▁வாச	-10.4143
▁முடிவெடுக்க	-10.4144
▁நேரத்திற்கு	-10.4147
▁மாநிலத்	-10.4147
▁பிரிட்டன	-10.4155
▁ஹோட்டல்	-10.4157
▁பிரதிநிதி	-10.4157
▁கொண்டவர்	-10.4159
லால்	-10.4161
▁செய்துவிட்டு	-10.4164
▁கட்டு	-10.4173
▁இருதரப்பு	-10.4176
▁தீயணைப்பு	-10.4176
▁பயன்	-10.4178
▁வருகிறேன்	-10.418
ிருப்பது	-10.4181
▁நெருக்கமான	-10.4181
▁ஊட்டி	-10.4184
▁கேட்டுக்கொண்ட	-10.4185
▁ஹெ	-10.4186
▁மோதல	-10.4188
▁கருத்துகள்	-10.4189
▁ரிய	-10.4192
▁குற்றவாளிகள்	-10.4198
▁நீக்கி	-10.4198
▁எல்லையில	-10.42
U	-10.4201
▁நு	-10.4202
▁வேலையில்	-10.4202
▁விளையாடிய	-10.4204
▁வேலைகளை	-10.4207
▁மனோ	-10.4209
▁அத்தனை	-10.421
▁நிர	-10.421
▁ஜடேஜா	-10.4212
▁பிரித்து	-10.4225
▁மோதிய	-10.4227
▁மாய்	-10.4227
▁ஹர்திக்	-10.4229
▁போடும்	-10.4229
▁கோத்தப	-10.423
▁நூற்றுக்கணக்கான	-10.4231
▁மாநிலங்களவை	-10.4233
பட்டி	-10.4233
▁அவற்ற	-10.4237
▁Vikatan	-10.4238
▁கள்ள	-10.4244
▁வைத்துள்ளது	-10.4244
▁எழுதியுள்ளார்	-10.4246
▁பிறகுதான்	-10.4249
▁தொட்ட	-10.425
▁g	-10.425
▁நியமிக்க	-10.4251
▁பயன	-10.4252
▁குரங்கு	-10.4257
▁சூழலை	-10.4259
▁வெளியாகியுள்ள	-10.426
▁திருவள்ளூர்	-10.4261
▁பிரம்ம	-10.4261
▁திணைக்கள	-10.4264
▁அர்	-10.4266
▁கொண்டாட்ட	-10.4267
▁தள்ள	-10.4269
▁கிராமங்களில	-10.4274
▁வந்துள்ளனர்	-10.4277
▁குழுவில	-10.4278
ௌ	-10.4279
▁உழைப்ப	-10.4281
▁அந்நிய	-10.4281
▁எம்எல்ஏக்கள்	-10.4282
▁அதையடுத்து	-10.4283
▁சரவணன்	-10.4284
ிறேன்	-10.4285
▁தகவல	-10.4285
▁படியே	-10.4286
▁இந்	-10.4287
▁வைர	-10.4292
▁டாப்	-10.4295
▁அமைப்பினர	-10.4297
▁தினத்தை	-10.4298
▁புவி	-10.4298
▁கையை	-10.4299
▁o	-10.4305
▁குப்பை	-10.4307
▁பைக்	-10.4311
▁வெளியிட்டது	-10.4312
▁எஃப்	-10.4314
▁கவுன்சிலர்	-10.4314
▁சீர	-10.4318
▁கேள்விகளை	-10.4319
▁தொடர்பில	-10.433
▁உருவான	-10.4332
▁வழங்கியது	-10.4332
▁விவாகரத்த	-10.4334
▁சொல்லிக்	-10.4335
▁பழனிவேல்	-10.4343
▁நடிப்ப	-10.4345
▁காஸா	-10.4347
▁வலிமை	-10.4347
▁படங்களில	-10.4349
▁நபரை	-10.4352
▁வெளியாக	-10.4353
▁மோடிக்கு	-10.4353
சல்	-10.4357
▁க்கூடும்	-10.4358
▁சூட	-10.4359
▁கடைகள்	-10.4362
▁மன்னர்	-10.4365
▁இலக்கிய	-10.4366
▁இருவரையும	-10.4369
▁நகரங்களில	-10.437
▁சுட்டிக்காட்டின	-10.4375
▁பொருள்களை	-10.4379
▁நிலையங்கள	-10.438
▁நன்கொடை	-10.4387
▁நாள்களுக்கு	-10.4387
▁மனோஜ்	-10.4387
▁பேசுவது	-10.4389
▁பாலம்	-10.4393
▁அதிகளவில	-10.4393
▁சமூகத்தினர	-10.4394
▁கலச	-10.4396
▁கேமரா	-10.4399
▁வாடிக்கையாளர்கள	-10.44
ராம்	-10.4402
▁டன	-10.4406
▁பதிவில்	-10.441
▁விஞ்ஞானிகள்	-10.4411
▁நவீன்	-10.4412
▁சம்பவத்தில	-10.4413
▁10-	-10.4414
▁தூ	-10.4415
எ	-10.4419
▁பெய்ய	-10.4427
▁பூர்	-10.4428
▁ரிஷப	-10.4428
▁ராஜேந்திர	-10.4428
▁விஞ்ஞானி	-10.4429
▁அத	-10.443
▁செய்திருந்தார்	-10.4433
▁நிலைப்பாடு	-10.4434
▁அறிகுறிகள்	-10.4435
▁ஊருக்கு	-10.4439
▁குடியுரிமை	-10.4441
▁விரும்புகிறேன்	-10.4441
▁ஸ்மார்ட்	-10.4441
▁சமாஜ்வாதி	-10.4441
▁ராக்கெட்	-10.4441
▁செக்	-10.4442
▁திருப்பணி	-10.4443
▁பேசிக்	-10.4443
▁மானிய	-10.4444
▁உத்தரப்	-10.4446
▁2022-	-10.4446
▁&	-10.4447
▁விட்டோம்	-10.4449
▁வெட்ட	-10.4451
ோர	-10.4454
▁தருவதாக	-10.4457
▁ாராம்	-10.4458
▁7:	-10.446
▁எச்	-10.4461
▁தட்டி	-10.4465
▁பாஜகவினர்	-10.4465
▁குளம்	-10.4466
▁பிரியா	-10.4469
▁எழ	-10.4469
▁கட்சிகளுக்கு	-10.447
▁ஆய்வில்	-10.447
▁ஆராய	-10.4474
▁மறுப்பு	-10.4477
▁மீட்புப்	-10.4479
▁செய்துள்ள	-10.4482
ஸா	-10.4484
▁வைத்துள்ளார்	-10.4484
▁6:	-10.4485
▁விரும்பி	-10.4487
ளிக்க	-10.4488
▁மகிழ்ச்சிய	-10.4494
▁தூய்மை	-10.4494
▁சச்சின்	-10.4495
▁புதன்கிழமை	-10.4495
▁பிரச்னையை	-10.45
▁பவார்	-10.4501
▁ஆலோசனைக்	-10.4501
▁தியாகராஜன்	-10.4501
▁ாவிட்டால்	-10.4502
▁இறைவன	-10.4502
▁சின்னம்	-10.4505
▁99	-10.4507
▁நிறுவ	-10.4516
▁ஆரம்பிக்க	-10.452
தொழில்	-10.4523
▁பகல்	-10.4529
▁வடிவ	-10.4534
▁காஸாவ	-10.4537
ed	-10.4537
▁முதலாவத	-10.4545
▁வெளியிட்டார்	-10.4547
▁நிலக்கரி	-10.4549
▁டாஸ்மாக்	-10.4549
▁சூட்ட	-10.4552
▁விதித்த	-10.4553
▁பார்க்கும்போது	-10.4555
▁மாநிலங்களுக்கு	-10.4557
▁மருத்துவம்	-10.456
▁அடுத்தடுத்த	-10.4561
▁சேகரித்த	-10.4561
▁வங்கதேசத்த	-10.4565
▁எதிர்ப்பை	-10.457
▁இரான	-10.4574
▁இப்போத	-10.4582
▁தவ	-10.4593
▁நாங்க	-10.4594
▁பொறுப்பை	-10.4601
▁அறிவிப்பை	-10.4602
▁பிற்பகல	-10.4603
▁மாற்றுத்திறனாளி	-10.4603
▁அகமது	-10.4603
▁பந்துவீச்சில	-10.4603
▁நெஞ்ச	-10.4604
▁சேவையை	-10.4605
▁மிகச்	-10.4607
▁தூதுவர்	-10.4607
▁கோழி	-10.4608
▁ஆள	-10.461
▁எனக்குத்	-10.461
▁நிறுவனர்	-10.4613
▁முடிவெடுத்த	-10.4613
▁வந்திருந்த	-10.4617
▁அழ	-10.462
▁சகல	-10.4623
▁ஹோட்டல	-10.4623
▁வாரங்களுக்கு	-10.4628
▁2019-	-10.4628
▁அருண்	-10.4628
▁மாலத்தீவு	-10.4637
▁அடிப்படையாக	-10.4637
▁வெறுப்பு	-10.4638
▁பாய்ந்த	-10.4639
▁பிரபு	-10.4641
▁முன்வைத்து	-10.465
▁பங்க	-10.465
▁வெளியேறிய	-10.4653
மென்ட்	-10.4654
▁196	-10.4654
▁சென்னையை	-10.4656
▁போவதில்லை	-10.4658
▁an	-10.4663
▁நாள்கள்	-10.4668
▁மறுசீரமைப்பு	-10.4671
▁ஒப்படைத்த	-10.4673
▁வரித்துறை	-10.4674
▁விளக்கு	-10.4675
▁தையடுத்து	-10.4676
▁உயர்த்தி	-10.4678
▁ுவேன்	-10.4678
▁சதம்	-10.4681
▁அரசியலுக்கு	-10.4681
பூர்	-10.4683
▁உத	-10.4685
▁அம்மாவ	-10.4692
▁மாகும்	-10.47
▁பள்ளிகளில	-10.4701
▁பயப்பட	-10.4702
▁மாதத்திற்கு	-10.4703
▁தெரிவித்துக்	-10.4704
en	-10.4705
▁காட்சிகளை	-10.4707
▁வெள்ளத்த	-10.4708
▁யாரை	-10.4711
▁ஆச்சர்ய	-10.4712
▁கண்காணித்த	-10.4712
▁தட்டுப்பாடு	-10.4712
▁இடஒதுக்கீடு	-10.4713
▁கனிமொழி	-10.4713
்று	-10.4713
▁மெட்ரோ	-10.4713
▁வாரிய	-10.4713
▁தெரிவு	-10.4715
▁டாடா	-10.4716
▁இளைய	-10.4718
▁மீம்ஸ்	-10.4719
▁செய்துகொண்ட	-10.472
▁பாஜகவில	-10.4723
▁டர	-10.4727
▁மீற	-10.4728
▁சேகர்	-10.4729
▁பழங்குடியின	-10.473
▁அறிவித்துள்ளார்	-10.4731
▁அவங்க	-10.4732
▁காவி	-10.4733
▁இந்தியர்கள	-10.4733
▁வழங்கப்பட்டு	-10.4734
▁மகனை	-10.4734
▁இவற்றை	-10.4739
▁சிறுத்தைகள்	-10.474
▁எடுத்தார்	-10.4748
▁விகடன்	-10.4751
▁பாரதி	-10.4753
▁பிரா	-10.4756
▁முழுவதும	-10.4758
▁ஓவர்கள்	-10.476
▁வார்	-10.4762
▁ஆதீனம்	-10.4763
▁வைப்பது	-10.4766
▁எல்லாவற்ற	-10.4767
▁பணிகள	-10.4768
▁பராமரிக்க	-10.4768
▁பிரசித்தி	-10.4768
▁விடை	-10.4777
▁அம்பேத்கர்	-10.4777
▁பகவான	-10.4784
▁வேட்பாளர்கள	-10.4788
▁கொங்கு	-10.479
▁கங்கை	-10.4791
எஃப்	-10.4793
▁மீள	-10.4795
▁ரூபாயை	-10.481
▁விவரங்கள்	-10.481
▁பண்டார	-10.4811
▁பொறுப்பேற்ற	-10.4817
▁சென்றுவிட்ட	-10.4818
▁பழங்குடியினர	-10.4819
▁வாக்குவாதம்	-10.4823
▁கூ	-10.4823
▁பயன்பாடு	-10.4823
ப்பதற்கு	-10.4824
▁முதல்முறையாக	-10.4827
▁ிருந்தன	-10.4835
▁மனுவில்	-10.4839
▁விடுத்துள்ளார்	-10.4841
வீ	-10.4842
▁செயல்பாட்ட	-10.4843
▁அல்லாத	-10.4845
▁கல்வெட்டு	-10.4845
▁குடிக்க	-10.4846
▁பட்டா	-10.4847
▁y	-10.4848
▁லெ	-10.4848
▁தங்கியிருந்த	-10.4848
▁பீகார	-10.4851
▁வழங்கப்படுகிறது	-10.4853
▁ஒதுக்கி	-10.4857
▁சுட்டுக்	-10.486
▁பலன	-10.486
▁செயற்பட	-10.4864
▁மனைவியை	-10.4864
on	-10.4866
▁எச்சரித்த	-10.4866
▁விடுக்கப்பட்ட	-10.4873
▁வேண்டுமென்ற	-10.4873
▁மேற்கொண்டார்	-10.4875
▁சிக்கல்கள்	-10.4879
▁திருமலை	-10.4883
▁அளிக்கப்பட்டது	-10.4885
▁விவகாரங்கள	-10.4885
▁ரேஷன	-10.4888
▁குவித்த	-10.4891
▁சிறுமியை	-10.4893
களால்	-10.4894
▁ங்களால	-10.4896
▁நிர்வாகிகள	-10.4899
▁நிரப்ப	-10.4899
▁நல்லா	-10.4903
▁நிறுவனங்களை	-10.4903
▁சமூகம்	-10.4905
லூர்	-10.4909
▁வீராங்கனை	-10.4912
▁பறவை	-10.4912
▁நினைவ	-10.4916
வாத	-10.4917
▁வந்தவர்	-10.4919
ரங்க	-10.4919
▁லூ	-10.492
▁முயன்று	-10.492
▁மாற்றிய	-10.492
.50	-10.4921
▁விதிகளை	-10.4922
▁விஜயகாந்த்	-10.4925
▁கண	-10.4935
▁ஆன்மீக	-10.4935
▁பங்கேற்ப	-10.4936
தில்லை	-10.4939
▁ுள்ளேன்	-10.4939
▁ராஜன்	-10.494
▁கட்	-10.4944
கட்டத்தில்	-10.4951
▁தலையிட	-10.4953
▁அமைப்புகள	-10.4954
ல்லா	-10.4957
க்களை	-10.4961
▁போதைப்	-10.4975
▁பணிபுரிய	-10.4977
▁வேண்டுகோள்	-10.4978
▁சாதனையை	-10.4978
▁விடலாம்	-10.498
ந்தா	-10.4981
▁நிகழ்வ	-10.4983
▁U	-10.4985
▁விருந்து	-10.4988
▁சூதாட்ட	-10.4992
▁பாடல	-10.4993
▁உறுதியளித்த	-10.4993
▁ஆதரித்த	-10.4997
▁ஆவத	-10.5001
▁பள்ள	-10.5003
▁விதிகள்	-10.5003
▁பெறுவது	-10.5004
▁ஊழியர்களுக்கு	-10.5007
▁அதிகரிப்பு	-10.5011
▁அவர்களால்	-10.5012
▁இவ்வாறான	-10.5012
ுடனான	-10.5013
ீர்கள்	-10.5013
▁வீழ்த்திய	-10.5013
▁கோவிலை	-10.5013
▁கவர	-10.5014
▁அந்தந்த	-10.5018
▁உறவுகள்	-10.5019
ிருப்பதாக	-10.5023
▁காவல	-10.5025
▁தேவைப்படும்	-10.5027
▁பல்கலைக்கழகம்	-10.5031
காசி	-10.5035
▁திருத்தம்	-10.5043
▁தூரம	-10.5044
▁600	-10.5047
ப்பது	-10.5048
▁முன்வைக்க	-10.5048
▁நிவாரணம்	-10.5049
▁கூறியதாவது	-10.5049
▁இறைச்சி	-10.5051
▁ஜெயந்தி	-10.5056
▁கணினி	-10.5056
▁நடு	-10.5059
▁1000	-10.5059
பொ	-10.5061
▁சீசன்	-10.5062
ீஸ்	-10.5062
▁கதவை	-10.5065
▁விடுகிறது	-10.5068
▁பாலி	-10.507
▁கலவர	-10.507
▁அறிகுறி	-10.5074
▁அழைக்கப்பட்ட	-10.5075
tor	-10.5081
▁ஊற்றி	-10.5083
▁மாவட்டத்தை	-10.5084
▁யோகா	-10.5088
ப்பில்	-10.5092
▁மரத்த	-10.5092
▁மூடப்பட்ட	-10.5092
▁சல்மான்	-10.5092
▁குற்றம்சாட்டி	-10.5093
▁விடிய	-10.5094
▁பிள்ளைகள	-10.5096
▁யாராவத	-10.5103
விட்டது	-10.5104
▁இபிஎஸ்	-10.5106
▁யெல்லாம்	-10.5106
▁கிருஷ்ணகிரி	-10.5107
▁ரிஷி	-10.5108
▁விடுவார்கள்	-10.5108
▁தூதரக	-10.511
▁வாங்கிக்	-10.5111
▁குண	-10.5113
▁BBC	-10.5115
▁சவு	-10.5121
▁4-	-10.5123
▁பிள	-10.5124
▁இளம்பெண்	-10.5129
▁அனு	-10.5129
▁மானது	-10.513
▁யானைகள்	-10.5131
ெட்	-10.5133
▁ed	-10.5133
▁வருடங்கள்	-10.5135
▁இலட்ச	-10.5136
ம்மா	-10.5138
▁மாத்திரை	-10.514
▁அரசியல்வாதி	-10.5143
▁மாநிலங்கள்	-10.5144
▁பூச்சி	-10.5146
▁விமர்சனங்களை	-10.5146
▁மாஸ்டர்	-10.5147
▁அடிப்படையில	-10.5151
▁பரி	-10.5153
▁தாக்குதல	-10.5156
.10	-10.5161
▁தொல்ல	-10.5162
▁ுவதன	-10.5163
▁மிதமான	-10.5163
▁அளிக்கிறது	-10.5168
▁ஆதாரங்கள	-10.5171
▁1-	-10.5174
▁அதுவே	-10.5176
▁குவிந்த	-10.5176
▁பன்	-10.5177
▁கட்டட	-10.5177
▁கூட்டி	-10.5177
▁ஒடிசா	-10.5182
▁கல்விக்	-10.5183
▁துரை	-10.5187
▁er	-10.5187
▁வறுமை	-10.5188
▁விடுவிக்க	-10.5189
▁அமைச்சர	-10.5194
▁9:	-10.5198
▁தலங்கள	-10.5199
▁வகையில	-10.52
ிறார்கள்	-10.52
▁கிளம்பிய	-10.5201
மதி	-10.5201
▁குற்றம்சாட்டிய	-10.5206
▁சர	-10.5209
▁பிரதம	-10.5213
▁சௌ	-10.5214
▁சொல்	-10.522
▁ஆர்டர்	-10.5221
▁அவற்றில	-10.5221
▁குழப்பம்	-10.5222
▁அதிர்ச்சியடைந்த	-10.5222
▁பிரியாணி	-10.5222
▁திமுகவை	-10.5227
▁குறிவைத்து	-10.5228
▁பாருங்கள்	-10.5228
▁இருப்பவர்	-10.5229
▁நுபு	-10.5231
▁மந்திர	-10.5232
▁வீதிய	-10.5234
▁தனுஷ்	-10.5238
▁அதனைத்	-10.5241
தோடு	-10.5242
▁காணப்படுகிறது	-10.5243
▁பேச்சை	-10.5247
▁காளை	-10.525
▁கடலோர	-10.5252
▁கண்டி	-10.5252
வதை	-10.5254
▁பவர்	-10.5257
▁பிரேம	-10.5266
▁தாத்தா	-10.5266
▁பெண்ணுக்கு	-10.5267
▁பாதிக்கப்பட்டு	-10.5268
▁ிற	-10.5269
▁தலைவர	-10.5269
▁நியமன	-10.5271
▁பாதித்த	-10.5272
▁கிரகங்கள	-10.5273
▁வடகிழக்க	-10.5279
▁ஆர்சிபி	-10.5279
▁தஞ்சை	-10.5279
▁நடராஜர	-10.5282
▁இந்தியாவிற்கு	-10.5285
▁டர்	-10.5286
▁நிறுவனத்திற்கு	-10.5297
▁சோழ	-10.5304
▁எதிர்க்க	-10.5309
▁நூல	-10.5313
▁பொறுத்த	-10.5315
▁நாயக	-10.5316
▁ஆய்வுகள்	-10.5318
▁பொதுக்	-10.5319
▁விருந்த	-10.5322
▁நம்பர	-10.5328
▁மறுத்து	-10.5329
▁ாததால்	-10.5331
▁நிபந்தனை	-10.5331
▁துண்டு	-10.5332
த்திலிருந்து	-10.5332
▁முயல	-10.5336
▁கூட்டுறவு	-10.5338
▁ஜிஎஸ்டி	-10.5338
▁வாகனங்கள	-10.5338
▁தீர்ப்பளித்த	-10.5338
▁ஆறுமுக	-10.5339
▁பெங்களூர	-10.5341
▁முதலீட்டு	-10.5342
▁வந்ததாக	-10.5347
▁முகமை	-10.5347
ட்டில்	-10.5348
▁செயலாளர	-10.5348
▁நிலையான	-10.5348
▁மறைக்க	-10.5348
▁எண்ணம்	-10.5357
மர்	-10.5358
▁தீர்மானத்தை	-10.536
▁சம்பவத்த	-10.536
▁ஹே	-10.5362
▁சாப்பிட்டு	-10.5365
▁ஹீரோ	-10.5367
▁உள்ளவர்கள்	-10.5378
▁பறிக்க	-10.5379
▁பூங்கா	-10.5379
▁செலுத்தினர்	-10.538
▁கோபத்த	-10.5384
▁கால்பந்த	-10.5387
▁தொடங்கியுள்ளது	-10.5388
ுவேன்	-10.5389
▁உரிமையை	-10.539
▁சட்டப்	-10.5391
▁உயிரிழந்தனர்	-10.5394
▁இந்தியன்	-10.5394
▁அர்த்தம்	-10.5396
▁ஊக்குவிக்க	-10.5396
▁மீதமுள்ள	-10.5397
▁ஆர்எஸ்எஸ்	-10.5398
மற்ற	-10.5398
▁யாதவ	-10.54
▁இணையதளத்த	-10.54
▁தொடக்கம்	-10.5401
▁முடிவ	-10.5404
▁நிர்வாகத்த	-10.5404
▁முஸ்லிம்கள்	-10.5407
▁பயம்	-10.5409
▁கணவர	-10.541
▁அனுமதிக்கப்பட	-10.5413
▁வாதம்	-10.5414
▁உக்ரைனில	-10.5419
க்கப்பட்ட	-10.5419
▁விவாதிக்க	-10.542
▁ஒன்றுக்கு	-10.5421
▁குறைத்து	-10.5422
▁இழப்ப	-10.5424
▁நந்த	-10.5424
▁அனுபவ	-10.5428
▁அதிபராக	-10.5432
▁உரிமைகளை	-10.5435
▁கொள்கிறார்	-10.5436
▁நிமிடங்கள்	-10.5437
▁அஸ்வின்	-10.5438
▁யிடம	-10.5442
▁யுடன	-10.5445
▁பொருள	-10.5446
▁அனுமதித்த	-10.5448
முக	-10.5448
யுத்த	-10.5453
ப்படுத்தி	-10.5453
▁தோற	-10.5454
▁கேட்கும்	-10.5454
▁ஆங்காங்க	-10.5456
▁தெளிவுபடுத்த	-10.5456
▁மூலவர்	-10.5456
▁வைத்திய	-10.5459
▁கிடைக்கிறது	-10.5459
▁பொலிஸ்	-10.546
▁கச்சா	-10.5461
▁காசு	-10.547
வள	-10.5473
▁மதத்தை	-10.5479
▁சர்வ	-10.548
▁துரைமுருகன்	-10.5483
▁நகைகளை	-10.5486
▁தேசம்	-10.5486
▁ிருப்பதாகவும்	-10.5486
▁Re	-10.5489
▁ஹர்	-10.5491
▁நோய்கள்	-10.5491
▁தரப்புக்கு	-10.5492
▁சாய	-10.5497
▁கன்னட	-10.55
▁வேளை	-10.5503
▁கொண்டால்	-10.5503
▁கல்லூரியில	-10.551
▁ஜார்க்கண்ட்	-10.5515
▁புறக்கணித்த	-10.5515
▁ஆன்மிக	-10.5515
▁அறிவுறுத்திய	-10.5518
▁சாத்தியம்	-10.5522
▁காய்	-10.5525
ment	-10.5528
▁ரன்களுக்கு	-10.5528
▁பேசியுள்ளார்	-10.553
ரெ	-10.5536
▁ஆய	-10.5538
▁சூழல	-10.554
▁வளர்ப்பு	-10.554
▁தளத்த	-10.5542
▁ரோடு	-10.5542
▁தகராறு	-10.5542
▁ப்பா	-10.5546
ra	-10.555
சீ	-10.555
▁பாட்டில்	-10.5551
▁தற்	-10.5551
▁வரலாற்றை	-10.5553
▁7-	-10.5556
▁ஆவார்	-10.5556
▁போகிறார்	-10.5556
▁செல்போன	-10.556
▁சாத்திய	-10.556
▁காதல	-10.5562
▁ஓட்டி	-10.5563
▁தாயார	-10.5568
▁அம்மன	-10.5568
▁கிடைப்பத	-10.5569
▁இங்கிலாந்த	-10.5572
▁பகுதியில	-10.5573
ுவார்கள்	-10.5573
▁கோர்ட்	-10.5574
▁விக்கெட்டை	-10.5574
▁திருவாரூர்	-10.5575
▁தேயிலை	-10.5575
▁இஸ்ரோ	-10.5575
▁டேவிட்	-10.5575
▁யினை	-10.5577
▁ஆராய்ந்த	-10.5578
▁ஆக்கிரமிப்பு	-10.558
மின்றி	-10.5581
▁வீடுகளை	-10.5581
▁கிங்ஸ்	-10.5581
த்தால்	-10.5582
ாவ	-10.5582
▁பெற்றுள்ளார்	-10.5582
▁பக்கத்து	-10.5588
▁துறைகளில	-10.5589
▁நலம்	-10.5589
▁செய்திகளை	-10.5597
▁சீசனில	-10.5602
குறிப்பிடுகிறார்	-10.5603
▁நிலுவையில	-10.5606
▁குறைந்துள்ளது	-10.5607
சாதகமான	-10.5608
▁மங்கள	-10.5609
▁நெருக்கடியை	-10.5612
▁போத	-10.5617
க்கே	-10.5621
▁வேறுபாடு	-10.5625
▁தருமபுர	-10.5627
▁எதிர்காலம்	-10.5627
▁உயிருக்கு	-10.5628
▁ஹோம	-10.563
▁விதத்தில	-10.5631
▁ஸ்டார்	-10.5633
▁ராவ	-10.5634
▁குரூப்	-10.5635
▁காரணத்தால்	-10.5636
▁தாய	-10.5636
▁துபாய்	-10.5639
▁ியுள்ளது	-10.5641
▁படிப்பை	-10.5642
▁பிறகே	-10.5646
▁தேங்காய	-10.5647
▁பலியான	-10.5648
▁காளி	-10.5648
▁சேனல்	-10.5652
▁ஈடு	-10.5653
▁அசாம்	-10.5653
▁சரக்கு	-10.5655
▁நண்பர	-10.5656
▁உறவினர்கள	-10.5659
▁டிரைவர்	-10.566
▁ச்சி	-10.566
▁மாற்றங்களை	-10.5664
▁43	-10.5667
▁சீட்டு	-10.5667
▁இதைக்	-10.5667
▁தெரிவிக்கும்	-10.5672
▁எதிர்க்கட்சிகள	-10.5672
or	-10.5673
▁இப்பகுதி	-10.5674
▁பொருளாளர	-10.5675
▁பாலத்தீன	-10.5675
▁டோஸ்	-10.5681
ir	-10.5682
▁விமர்சனங்கள்	-10.5686
▁வழங்குவத	-10.5686
▁முறைய	-10.5687
▁பொதுச்செயலாளர	-10.5688
ஞ	-10.5689
▁சிக்ஸர்	-10.5691
▁சனிபகவான	-10.5696
▁சமூகவலைதள	-10.5696
▁கார்த்திக	-10.5697
▁விக்ரம்	-10.57
▁குடும்பங்கள	-10.5702
▁ஆர்வம	-10.5704
▁கூறியதாக	-10.5707
▁ஆளுநருக்கு	-10.5708
▁வங்கிகள்	-10.5708
▁வெளிநாடுகளில	-10.571
▁மாற்றிக்	-10.571
▁வனத்துறையினர	-10.5715
▁நிலைமையை	-10.5716
▁சிறுவர்	-10.5717
▁கைத்	-10.5722
னூர்	-10.5723
▁இரவ	-10.5729
▁அணிந்த	-10.573
▁விலகிய	-10.5734
▁இளையராஜா	-10.5735
▁கடல	-10.5735
▁கிருஷ்ணன்	-10.574
▁கழகத்தின	-10.5742
▁எடுக்கப்பட்டு	-10.5744
▁கிரக	-10.5744
▁வலுவாக	-10.5745
▁திறனை	-10.5751
▁பெறுவத	-10.5752
ந்திரபாபு	-10.5755
▁விசாரணையின்	-10.5756
▁மோட்டார்	-10.5757
▁குணவர்தன	-10.5757
▁இழக்க	-10.5757
▁எதிர்கட்சி	-10.5757
▁திமுகவில்	-10.5758
▁வெகுவாக	-10.5758
▁முகவரி	-10.5759
▁அறங்காவலர்	-10.576
▁சிற்ப	-10.576
▁சந்தன	-10.5761
▁ஹெலிகாப்டர்	-10.5762
▁தொகுப்பு	-10.5763
▁கவலைப்பட	-10.5766
▁சோக	-10.5766
▁உண்மையை	-10.577
it	-10.577
▁இந்துக்கள்	-10.5771
▁உடலுக்கு	-10.5783
▁சம்பந்தம	-10.5784
▁ஆரோக்கிய	-10.5787
▁படப்பிடிப்பு	-10.5788
கொ	-10.5791
▁எண்ணிக்கையில	-10.5791
▁ஆகியோருக்கு	-10.5792
▁விடுக்க	-10.5794
▁ரீதியாகவும்	-10.5797
ினி	-10.5801
▁அதிலிருந்த	-10.5804
▁தொழிலதிபர்	-10.5806
குடி	-10.5809
▁முன்னேற	-10.5811
▁ஆப்கானிஸ்தான	-10.5812
▁துப்பாக்கிச்	-10.5815
▁கண்டித்த	-10.5815
▁அவிநாசி	-10.5818
▁உத்தரகாண்ட்	-10.5818
▁தேர்ந்தெடுத்த	-10.5818
▁திருட	-10.5818
▁மட்டுமல்லாது	-10.5818
▁ஓராண்டு	-10.5819
▁கைதுசெய்த	-10.582
▁காட்டில	-10.5825
மார்	-10.5825
▁பழக்க	-10.5825
▁வைக்கப்பட்டு	-10.5825
▁கைப்பற்றிய	-10.5828
ீர்	-10.5829
▁களமிறங்க	-10.5829
▁பெருமான	-10.5834
▁வரையில்	-10.5834
ஜித்	-10.5835
▁வேகம்	-10.5836
▁புறப்பட்ட	-10.5837
us	-10.584
▁கலந்த	-10.584
▁மோத	-10.5841
▁எடுக்கவில்லை	-10.5842
▁நான்காம	-10.5842
▁ுகின்ற	-10.5842
▁படிப்ப	-10.5844
▁ரண	-10.5844
ென்று	-10.5848
▁காவலர்கள்	-10.5848
▁மாவட்டங்கள்	-10.585
▁வளர்ச்சியை	-10.5851
▁வைத்துள்ளனர்	-10.5854
▁பல்கலைக்கழகங்கள	-10.5855
▁கணிப்பு	-10.5856
▁சித்ரா	-10.5856
▁அரசியலமைப்ப	-10.5858
▁இன்ஸ்பெக்டர்	-10.5858
▁அடங்கும்	-10.5859
▁வீரர்களுக்கு	-10.5861
▁மகிழ்ச்சியை	-10.5861
▁யூடியூப்	-10.5862
▁கொண்டுள்ளார்	-10.5864
▁புத்தாண்டு	-10.5866
▁பாடல்கள்	-10.5868
▁6-	-10.5875
▁பிரசாந்த	-10.588
▁நேர்த்திக்கடன	-10.588
▁குதித்த	-10.588
▁நினைக்க	-10.5885
▁யிலிருந்த	-10.5885
▁இயல்பு	-10.5886
ராஜா	-10.5886
▁த்தையும்	-10.5886
▁பிறப்பிக்க	-10.5894
▁விடுவிக்கப்பட்ட	-10.5895
▁உயர்ந்து	-10.5896
▁படேல்	-10.5896
▁இந்துக்கள	-10.5898
▁நாராயணன்	-10.5903
▁உரு	-10.5906
▁பகுதிகளுக்கு	-10.5908
▁சாந்த	-10.5908
▁இணையதள	-10.5911
▁கலா	-10.5911
▁ிப்பத	-10.5916
▁வந்திருக்கிறது	-10.5916
▁வேலுமணி	-10.5917
▁சரண்	-10.5918
▁சத்ய	-10.5918
▁முகாம்	-10.5922
▁உத்தரவிட	-10.5924
▁பரவும்	-10.5925
▁அரிய	-10.5925
▁செல்வதற்கு	-10.5925
▁எலி	-10.5925
▁நாசா	-10.593
▁பகிரப்பட்ட	-10.5931
▁கைய	-10.5933
▁ஃபை	-10.5935
ுவதாக	-10.5936
▁குழி	-10.5938
▁காவல்துறையினர	-10.5939
குமார	-10.594
▁அரி	-10.5942
▁முன்னெச்சரிக்கை	-10.5942
▁வரியை	-10.5942
▁விடயங்கள	-10.5944
▁தடவை	-10.5945
ation	-10.5946
▁தடைகளை	-10.5947
▁மறுபடி	-10.5948
▁உருவாகி	-10.595
▁ுவோர	-10.5953
▁புத்தகத்தில்	-10.5953
▁இயற்ற	-10.5955
▁நம்பிய	-10.5958
▁நிதியை	-10.596
▁கனவ	-10.5962
▁கத்தார்	-10.5963
▁காடுகள	-10.5966
▁ஆறுதல்	-10.5966
▁குடிமக்கள	-10.5967
▁பறந்த	-10.5971
▁உணர்ச்சி	-10.5975
▁காது	-10.5978
▁நோயாளி	-10.598
▁மாய	-10.5983
சில	-10.5983
V	-10.5987
.8	-10.5987
வியத்	-10.5988
▁ஆயுதங்கள்	-10.5989
▁இறுதியாக	-10.599
▁சைப	-10.5992
K	-10.5994
▁மாநிலத்தை	-10.6002
▁காமெடி	-10.6005
▁சரஸ்வதி	-10.6005
▁முதன்முதல	-10.6005
▁கற்பனை	-10.6005
▁யாகசாலை	-10.6005
▁பாடம்	-10.6007
▁வாக்க	-10.6007
▁நுண்ணறிவ	-10.6008
▁ராஜேஷ்	-10.6008
▁ுள்ளதால்	-10.6011
▁ஆட்கள	-10.6012
▁குத்தி	-10.6017
▁கோரிக்கைகளை	-10.6017
▁சொல்கிறது	-10.6019
மர	-10.6021
▁தாள	-10.6023
▁வெளியாகும்	-10.6024
சே	-10.6033
▁கொள்ளவில்லை	-10.6034
▁அற்புதமா	-10.6035
▁இள	-10.6035
▁தயாரிப்பாளர்	-10.6039
▁யுள்ளது	-10.6039
▁தெரிந்தது	-10.6045
▁அர	-10.6045
▁வெடித்து	-10.6046
▁நிதிய	-10.6047
▁அருள	-10.6048
▁உலகப்	-10.6049
▁ஸ்ட	-10.6049
ாம்	-10.6058
▁கொண்டேன்	-10.6064
▁துன்புறுத்த	-10.6067
▁பொழுது	-10.6067
▁செயற்குழு	-10.6067
▁உடற்பயிற்சி	-10.6068
▁செலவுகள்	-10.6069
▁கட்சியும்	-10.6075
▁கொண்டுவரப்பட்ட	-10.6075
▁நடன	-10.608
▁கற	-10.6083
▁யோக	-10.6084
▁விநியோகம்	-10.6084
▁தலைவி	-10.6087
▁தங்கை	-10.6088
▁பேசியபோது	-10.609
▁அழுத	-10.6092
▁ஏமாற்றி	-10.6093
▁தயாரித்த	-10.6094
▁எடுத்துக்கொண்ட	-10.6095
▁சிட்டி	-10.6095
▁பெறலாம்	-10.6096
▁சுதா	-10.6097
▁ஷெ	-10.6098
▁பிரச்சார	-10.6098
▁ஓட்டுநர்	-10.6103
▁வெளியேறும்	-10.6105
▁காரணங்களால	-10.6107
▁பாலா	-10.6109
▁ஆலய	-10.6112
▁பயந்து	-10.6113
▁ஆராதனை	-10.6113
ஃபா	-10.6113
▁இடது	-10.6127
40	-10.613
▁சலுகை	-10.613
▁நவராத்திரி	-10.6131
▁நத்தம்	-10.6131
▁1,	-10.6133
▁தார	-10.6134
▁ஸை	-10.6135
▁தெரிவிக்கிறது	-10.6135
▁வெற்றிபெற்ற	-10.6148
▁பொதுமக்களுக்கு	-10.615
▁முத்த	-10.6151
ண்டு	-10.6153
▁தமிழகத்தை	-10.6154
▁ஊடகவியலாளர்	-10.6155
▁கொள்கிறார்கள்	-10.6156
▁ஷோ	-10.6157
▁கீ	-10.6159
▁ுகிற	-10.6159
▁கல்வித்துறை	-10.616
▁மாஜி	-10.6161
▁பாத்திர	-10.6162
▁உரிம	-10.6163
▁கொட்டி	-10.6165
▁பிடிஆர்	-10.6166
ப்போகிறது	-10.6168
▁விவகார	-10.6172
▁யினால	-10.6179
▁நிரம்பி	-10.6179
▁உணவுகள்	-10.618
▁செலவிட	-10.6182
▁அரசும்	-10.6185
றிய	-10.6188
▁பொதுத்	-10.619
▁10:	-10.6194
▁அரண்மனை	-10.6194
▁கோப்பையை	-10.6195
ணர்வு	-10.6199
▁ஸுக்கு	-10.62
▁பரிவர்த்தனை	-10.6202
▁செய்	-10.6204
▁இப்படித்தான்	-10.6205
▁மணல்	-10.6205
▁ண்டு	-10.6206
▁கிளி	-10.6209
▁ாதீர்கள்	-10.621
▁சைவ	-10.6212
▁தாஸ்	-10.6213
▁கிராமம்	-10.6213
▁கட்டும்	-10.6214
▁மூவர	-10.6218
▁ஹரியானா	-10.6218
▁விவரம்	-10.6219
ட்டோ	-10.6221
▁துறையின	-10.6224
▁புகாரில்	-10.6224
▁வீழ்த்த	-10.6225
▁அளித்துள்ளது	-10.6226
▁பேசுவத	-10.6227
டம்	-10.6228
▁யாரு	-10.623
▁58	-10.6231
▁காந்தியை	-10.6234
▁வல்லுநர்கள்	-10.6234
▁காதலித்த	-10.6236
▁போவது	-10.6237
▁ஒய்	-10.6243
தல்	-10.6244
▁கிம்	-10.6247
▁படு	-10.6248
▁சொ	-10.6248
▁!"	-10.625
▁வளர்த்து	-10.6251
ப்படாத	-10.6252
▁யையும்	-10.6257
▁வெளியாகிய	-10.6262
▁படையினர	-10.6266
▁கிமீ	-10.6269
▁நினைப்ப	-10.6273
▁தாங்கி	-10.6276
▁கருப்ப	-10.6281
▁முடிய	-10.6282
▁னே	-10.6287
▁கடினம்	-10.6288
▁செய்வதை	-10.629
▁உணர்ந்து	-10.6291
▁விட்டதாகவும்	-10.6292
▁புகுந்த	-10.6292
▁தண்ணீரை	-10.6292
▁யர	-10.6296
▁ஆர்ப்பாட்டம்	-10.6297
▁கரும்பு	-10.6308
▁நிகழ்த்த	-10.631
▁பொறுப்பில்	-10.6312
▁அப்போ	-10.6313
▁2011	-10.6316
▁பத்தாம	-10.6318
ாடு	-10.632
▁பதிவாகி	-10.6322
▁உட்கட்சி	-10.6323
▁இறை	-10.6323
▁இதேவேளை	-10.6326
ெடுத்த	-10.6331
▁சுவாமிக்கு	-10.6334
▁திட்டமிட	-10.6337
▁தனிநபர்	-10.6338
▁விலும்	-10.6341
▁காரண	-10.6341
▁நைட்	-10.6341
▁சாம்	-10.6342
க்கால	-10.6343
வென	-10.6346
ராஜ	-10.6357
▁நியமித்த	-10.6358
▁உத்தி	-10.6362
▁ஸ்டா	-10.6363
வினர்	-10.6364
▁துறைக்கு	-10.6366
▁ஏற்பட்டால்	-10.6371
▁அவனை	-10.6371
▁5,000	-10.6372
▁பேரறிவாளன்	-10.6373
▁ஆர்வலர்கள்	-10.6374
▁வெடிக்க	-10.6378
▁வகைகள்	-10.6378
▁கூட்டணிக்	-10.6386
▁தப்ப	-10.6387
▁தொழிற்	-10.6388
▁அர்ச்சகர்	-10.6388
▁நீரிழிவு	-10.6388
▁புகாரளித்த	-10.6388
▁இடம்பெற்றது	-10.6391
▁197	-10.6392
▁விண்ணப்பித்த	-10.6397
▁கோளாறு	-10.6397
▁வைகோ	-10.6397
▁செய்தல்	-10.6397
▁ஆச்சரிய	-10.6398
கார	-10.6401
▁5:	-10.6402
▁யாரோ	-10.6408
▁செய்யுங்கள்	-10.6409
▁ஒன்றிணைந்த	-10.6409
▁வாரத்தில	-10.6409
le	-10.6412
▁சவால்களை	-10.6413
ணும்	-10.6416
▁கேஸ்	-10.6417
▁வலது	-10.642
ியோ	-10.6426
.7	-10.643
யொரு	-10.6431
▁பத்திரங்கள	-10.6434
▁கிருஷ்ணா	-10.6437
ப்படுகின்றது	-10.6438
▁கொண்டிருக்க	-10.6441
▁அடைந்தது	-10.6444
இந்தியா	-10.6446
▁டெல்லிக்கு	-10.6446
▁தேதிக்கு	-10.645
▁குழப்ப	-10.6451
▁அளித்தனர்	-10.6452
▁அவதூறு	-10.6453
▁மாதவிடாய	-10.6453
▁கூற்றுப்படி	-10.6454
▁கூட்டணிக்கு	-10.6454
▁ிருப்பார்	-10.6455
▁ஆட்டத்த	-10.6457
▁அதிகபட்சம	-10.6464
▁கவர்னர	-10.6468
▁துயர	-10.6469
▁ஒருபுறம	-10.6469
▁பொன்ன	-10.6473
▁உண்ண	-10.6474
▁கேட்டால்	-10.6477
டெங்கு	-10.6477
▁பெறுவதற்கு	-10.6478
▁அமைச்சகத்த	-10.648
மெ	-10.6484
▁அலுவலகத்திற்கு	-10.6489
▁கருதப்படும்	-10.6494
▁கிடைத்து	-10.6497
▁போராடிய	-10.6497
▁மரம்	-10.6497
▁மாற்றப்பட்ட	-10.6498
▁புகைப்படங்கள	-10.6502
▁ஜய	-10.6502
சன	-10.6507
▁சட்டை	-10.6507
▁கேள்விகளுக்கு	-10.6508
▁உதவிகள்	-10.6515
▁வளர்ச்சிக்கு	-10.6516
▁உருவாகும்	-10.6516
▁துறையை	-10.6517
புரட்டாசி	-10.6519
▁போருக்கு	-10.6519
▁எழுச்சி	-10.652
▁பெரும்பான்மைய	-10.652
▁பிரதிஷ்ட	-10.652
▁கணிக்க	-10.6521
▁தேவையற்ற	-10.6522
▁பலியாகி	-10.6526
▁நலனுக்க	-10.6526
▁புத்த	-10.6527
▁எரிந்த	-10.6529
▁செய்யாத	-10.6531
▁கைதுசெய்யப்பட்ட	-10.6531
ந்தர்	-10.6531
▁வாரியம்	-10.6533
▁வாக்	-10.6537
▁நாவல	-10.6538
▁பொருள்கள்	-10.6542
▁தருமபுரி	-10.6543
▁காலத்தை	-10.6544
▁தெரிவிக்கின்ற	-10.6545
கிட்ட	-10.6553
▁தீவிரம்	-10.6556
▁தயாரித்து	-10.6558
▁நுழைந்து	-10.6559
▁ஆற்றில	-10.6559
▁வந்துள்ள	-10.656
▁விருந்தினர	-10.6561
யடைந்த	-10.6564
வேல்	-10.6566
ாளர்கள்	-10.6566
யார்	-10.6566
▁அணுகுமுறை	-10.6569
▁சேவைகளை	-10.6572
▁கலந்துரையாடல	-10.6573
▁எழுதப்பட்ட	-10.6573
▁அபாயம்	-10.6574
▁ிற்கு	-10.6575
▁சந்திரன்	-10.6578
▁தடைகள்	-10.6579
▁புகைப்படங்கள்	-10.6581
▁மகளை	-10.6583
▁கடற்றொழில	-10.6584
▁வர்களாக	-10.6585
▁அறுவடை	-10.6585
▁வேடிக்கை	-10.6585
▁இருந்ததை	-10.6586
▁பறக்கும்	-10.6586
▁2012	-10.6587
▁பெருக்க	-10.6588
▁சிவாஜி	-10.6589
▁செல்கின்றனர்	-10.659
▁காத்து	-10.6591
▁அர்த்த	-10.6591
▁ரசிகர்களுக்கு	-10.6593
▁மரங்கள	-10.6594
▁சிங்கள	-10.6597
▁சொன்னால்	-10.6599
▁வாகனங்களை	-10.66
▁நிலையங்களில	-10.66
▁கொள்வதாக	-10.66
டைந்த	-10.6603
▁அபி	-10.661
▁குழுவினர	-10.6611
▁பாரிய	-10.6612
▁ஈட்ட	-10.6612
▁நியாய	-10.6613
வன	-10.6615
ீங்க	-10.6619
▁வழிபாட்டு	-10.6623
▁நினைவில்	-10.6623
▁பாஜகவ	-10.6625
▁தேவர்	-10.6626
▁காய்கறி	-10.6629
▁விரும்புகிறார்	-10.6629
▁மீண்டு	-10.6629
▁பிரிக்க	-10.663
▁k	-10.663
▁சேவ	-10.6636
▁மார்க	-10.664
▁குள	-10.664
▁செய்யப்பட்டன	-10.664
▁பாலிவுட்	-10.6642
▁மருந்துகளை	-10.6643
▁சுவர்	-10.6644
▁அறு	-10.6645
▁சொல்வ	-10.6647
▁கடைசியில்	-10.665
▁on	-10.6652
▁பழிவாங்க	-10.6652
▁பந்துவீச்சு	-10.6652
▁கோதுமை	-10.6652
▁உணர்வ	-10.6652
▁நூற்றாண்ட	-10.6656
▁தொழில்துறை	-10.6662
ொருவர்	-10.6662
வல	-10.6664
▁செல்வதை	-10.6665
▁தொகுதிகள்	-10.6669
▁நாளிதழ்	-10.667
▁பிரசாரத்த	-10.6672
▁சல	-10.6672
▁பயணங்கள	-10.6679
▁01	-10.6682
▁போட்டியின்	-10.6682
▁தயங்க	-10.6683
▁காலியாக	-10.6685
▁உறவில	-10.6687
▁வளர்ப்ப	-10.6691
▁பாகுபாடு	-10.6704
▁திருக்	-10.6704
▁வந்ததும்	-10.6704
ent	-10.6707
▁நடப்பு	-10.6707
டெ	-10.6711
▁சாட்டப்பட்ட	-10.6712
▁அச்சுறுத்தல்	-10.6717
▁பிரார்த்தனை	-10.6719
▁பல்லாயிர	-10.6719
▁பிரம்மாண்ட	-10.672
▁ஆழ்ந்த	-10.672
▁வினோத்	-10.6721
▁பிரச்சாரம்	-10.6721
▁எலா	-10.6723
▁ஓவிய	-10.6732
வர்களுக்கு	-10.6733
▁பிகார	-10.6735
▁புகைப்படத்தை	-10.6736
▁புதுவை	-10.6736
▁விதம்	-10.674
▁அச்சுறுத்தல	-10.674
▁தடுக்கும்	-10.6744
▁பஞ்சாயத்து	-10.6744
▁தொழிலை	-10.6747
▁பரவியது	-10.6748
▁59	-10.675
▁கட்சிகளும	-10.6754
▁பாண்டி	-10.6757
▁வெப்பம்	-10.6757
▁நாட்கள	-10.6757
▁ஸி	-10.6758
▁இல்லையென்றால்	-10.6759
▁பாபா	-10.6761
▁வாலி	-10.6766
▁விடுவ	-10.6767
▁கட்சியினர	-10.6767
▁குர்	-10.6768
▁தீவிரவாத	-10.6769
▁கிறது	-10.677
▁செய்வார்	-10.6774
▁ஜனாதிபதியின	-10.6775
▁சுட்டிக்காட்டிய	-10.6777
▁195	-10.6778
▁சாகுபடி	-10.6787
▁முதன்முறை	-10.6787
▁தொடரப்பட்ட	-10.6787
▁பண்ற	-10.6788
▁பணியாளர்	-10.6788
▁பௌத்த	-10.6788
▁கலவரம்	-10.6792
▁சௌதி	-10.6793
▁பின்ன	-10.6794
▁தொழிலாளி	-10.6794
▁மாசு	-10.6795
▁பிள்ளைகள்	-10.6798
▁திருட்டு	-10.6798
▁நிறுத்திய	-10.6801
▁போற	-10.6801
பீ	-10.6801
▁சுழற்சி	-10.6806
▁திமுகவுக்கு	-10.6808
நாதன்	-10.6809
▁செய்வார்கள்	-10.6811
▁1,000	-10.6811
தல	-10.6812
▁உயரம்	-10.6813
▁ர்கள	-10.6814
▁திருக்கோயில்	-10.6818
▁தீவிரமான	-10.6819
▁அந்தஸ்து	-10.6819
▁உயர்த்தப்பட்ட	-10.682
▁விடுத்தார்	-10.6822
▁கட்சிகளை	-10.6824
▁ிப்ப	-10.6825
▁வெளிப்படுத்திய	-10.6825
▁பாண்டியா	-10.6825
▁பாக்க	-10.683
▁இருந்தேன்	-10.6833
ந்திர	-10.6834
ளித்த	-10.6835
▁ஹசீனா	-10.684
▁எலும்பு	-10.6841
▁ஒப்புக்கொண்ட	-10.6843
▁சான்	-10.6844
▁முர்மு	-10.6846
▁லண்டன்	-10.6847
▁இச்	-10.6847
மிக்க	-10.6848
▁பாரா	-10.6851
▁பலன்கள்	-10.6852
▁பார்ப்பது	-10.6853
▁டொனால்ட	-10.6855
▁முன்பதிவு	-10.6855
▁மதிப்பீடு	-10.6855
▁ப்ளே	-10.6855
▁வுக்க	-10.6855
ளு	-10.6856
▁மகாலட்சுமி	-10.6856
▁மனநல	-10.6857
▁விமானப்படை	-10.6857
▁ஹேமந்த	-10.6857
▁காவடி	-10.686
▁2008	-10.6862
▁அப்படித்தான்	-10.6863
ad	-10.6865
▁பிளான்	-10.6867
ுலா	-10.6868
▁கணக்கெடுப்பு	-10.6869
டாக	-10.687
▁பறக்க	-10.687
▁அற	-10.6871
▁எண்ணிக்கையை	-10.6871
▁பாராளுமன்றத்த	-10.6871
▁64	-10.6872
▁மங்க	-10.6873
வித	-10.6879
▁நிகழ	-10.6879
▁சீர்	-10.6881
க்குழு	-10.6882
▁கொடுப்பது	-10.6882
▁மாகாணத்தில	-10.6883
▁வீடியோக்கள்	-10.6884
▁மறைத்து	-10.6884
▁அன்னை	-10.6891
▁வாழை	-10.6894
▁சுட்டிக்காட்டி	-10.6894
▁ஏலம்	-10.6898
ேரி	-10.69
▁டும்	-10.69
▁இன்ப	-10.6902
▁முதியவர்	-10.6904
▁கொடுத்துள்ளார்	-10.6904
▁வாக்குறுதிகள	-10.6906
▁வாரி	-10.6909
யம்மன்	-10.6912
▁புரிய	-10.6917
▁படத்திற்கு	-10.6918
▁நம்புகிறேன்	-10.6923
▁கலெக்டர்	-10.6923
உ	-10.6927
▁கேம்	-10.6927
▁அமர்ந்திருந்த	-10.6929
▁கேள்வியை	-10.6931
▁நியூஸ்	-10.6942
▁ஆன்	-10.6942
▁பெறப்பட்ட	-10.6943
▁கவுன்சில்	-10.6945
▁வைத்துள்ள	-10.6947
▁வழங்குவதற்கு	-10.695
▁குறைத்த	-10.695
▁ஆடியோ	-10.695
வாய்	-10.6951
▁இதுபோல	-10.6953
▁2021-	-10.6956
▁அதிகரித்தது	-10.6958
▁தப்பிக்க	-10.6961
▁அளித்துள்ள	-10.6967
▁நடைபெறுவத	-10.6969
▁வசம்	-10.6969
தெரிவிக்கின்றனர்	-10.6972
▁கொண்டாடப்பட்ட	-10.6973
▁எம்ஜிஆர்	-10.698
▁கலாச்சார	-10.6981
.9	-10.6984
▁செல்லும்போது	-10.6988
ணா	-10.6988
▁நாடக	-10.6991
▁பள்ளிக்	-10.6992
▁மக்கள்தொகை	-10.6992
▁பருவமழை	-10.6992
▁பகிர	-10.6995
▁மூழ்கி	-10.6997
ரத்ன	-10.6998
▁தாமதமாக	-10.7001
▁விற்று	-10.7004
▁ஆனி	-10.7006
▁மன்னார்	-10.7007
▁பூரி	-10.7007
▁மேற்	-10.701
▁திருப்பத்தூர்	-10.7011
▁என்பவரை	-10.7015
▁செய்தியில்	-10.7016
▁தைவான்	-10.7017
▁இவர்களை	-10.7021
▁காங்	-10.7021
▁தூதர்	-10.7022
▁வர்த்தகம்	-10.7022
▁மரபணு	-10.7023
▁மேக	-10.7028
▁அதிகரித்துள்ள	-10.7035
▁பின்பற்றி	-10.7035
▁குடித்து	-10.7037
▁சேர்	-10.7038
▁அடைத்த	-10.7039
▁இலங்கையை	-10.7039
நாத்	-10.7042
▁கிடைக்காத	-10.7045
▁துருவ	-10.7045
ோட்ட	-10.7047
விட்ட	-10.7048
▁மேல்முறையீடு	-10.7048
▁செய்தேன்	-10.7048
▁செயலர	-10.7049
▁கல்வியை	-10.7054
▁பயிர்	-10.7057
▁அவகாசம்	-10.7062
▁வளர்மதி	-10.7062
▁கறுப்பு	-10.7062
▁எதற்காக	-10.7063
▁சாம்பியன்	-10.7063
▁ஏற்படவில்லை	-10.7069
▁ஊசி	-10.707
▁கையெழுத்து	-10.7071
▁செய்கின்றனர்	-10.7072
▁திருவிழாவில்	-10.7073
▁மோர்	-10.7073
▁யாரையும	-10.7073
▁நிஜ	-10.7079
▁வருபவர்	-10.7083
▁புல்	-10.7085
▁தீர்மானங்கள	-10.7087
▁வேல்	-10.7088
▁ஃபண்ட	-10.7089
▁செய்வதில்	-10.7092
▁கிளப்பி	-10.7092
▁சென்றதாக	-10.7094
▁அற்புத	-10.7095
▁புகுந்து	-10.7095
▁வளரும்	-10.7097
▁வெளியிடப்பட்டது	-10.7097
▁எதை	-10.7098
▁ஆப்பிரிக்க	-10.71
▁ப்படுத்த	-10.71
▁பயணத்தின்	-10.7104
▁தைப்	-10.7105
▁திருப்தி	-10.7106
▁எதிர்த்த	-10.7109
▁பார்ப்ப	-10.7113
▁நிம்மதி	-10.7116
▁அம்	-10.7117
▁விலங்குகள	-10.7118
ொன்று	-10.712
பேரில்	-10.7122
▁அம்மை	-10.7124
▁வேட்புமனு	-10.7127
▁விதை	-10.7128
▁பங்குச்	-10.7129
▁சமாஜ்	-10.7131
▁அன்றாட	-10.7132
▁அரசாணை	-10.7132
▁வெடிகுண்டு	-10.7132
▁இக்கோயில	-10.7132
▁சந்திரயான்	-10.7132
▁பரவிய	-10.7133
▁தொடுத்த	-10.7133
▁கூறுகின்றன	-10.7133
▁கவர்ந்த	-10.7134
ப்பட்டுள்ள	-10.7141
▁இல	-10.7141
▁செய்யக்	-10.7142
▁காரணத்தை	-10.7143
▁அம்பாள்	-10.7144
▁உனக்கு	-10.7144
▁கலந்துரையாடல்	-10.7146
▁முயற்சிக்க	-10.715
▁கேட்டது	-10.7152
▁பூங்காவ	-10.7154
▁எல்லோருக்கும	-10.7155
▁சிம்ம	-10.7155
▁குடும்பங்கள்	-10.7159
▁சதீஷ்	-10.7165
▁வங்கியின	-10.7166
▁சுனில	-10.7166
▁சீல்	-10.7167
▁கிழமை	-10.7171
▁நகர்ந்த	-10.7179
▁தனிப்படை	-10.718
▁மாட	-10.7183
▁வீட்டிலிருந்த	-10.7188
▁பவன்	-10.719
▁எத	-10.7191
▁ஷாக்	-10.7192
▁வேலு	-10.7195
▁ாய்	-10.7195
▁v	-10.7202
▁நாற்காலி	-10.7202
▁அதேநேரத்தில்	-10.7202
▁ராஜ்யசபா	-10.7202
▁உத்தரபிரதேச	-10.7202
▁உருவாக்குவத	-10.7205
▁தமிழகத்த	-10.7208
▁நிறுவனங்களின	-10.721
▁த்தினால்	-10.7211
▁முன்னேறி	-10.7216
▁தண்ட	-10.7217
▁நேர்ந்த	-10.7218
▁சிந்திக்க	-10.7219
▁நகரை	-10.7224
▁சத்தீஸ்கர்	-10.7228
▁250	-10.7236
▁..?	-10.7238
▁வார்த்தைகளை	-10.7238
கொண்ட	-10.7239
▁th	-10.7241
▁சவால்கள்	-10.7245
▁நாங்கள	-10.7249
▁பெருந்	-10.7251
▁சவுத	-10.7251
▁நிறைவடைந்த	-10.7252
ரிமை	-10.7253
ிரௌ	-10.7253
▁J	-10.7255
படுத்த	-10.7257
▁நேபாள	-10.726
▁உருவானது	-10.7261
தீ	-10.7263
▁விண்ணப்பிக்க	-10.7263
▁2013	-10.7266
▁கட்டங்கள	-10.727
▁இறுதிப்போட்டி	-10.7273
▁அர்ஜுன	-10.7273
▁சஸ்பெண்ட்	-10.7273
▁திரையுலக	-10.7273
▁கெலாட்	-10.7273
▁மீனா	-10.7275
▁விளை	-10.7276
▁திமுகவினர்	-10.7283
▁நடக்கவில்லை	-10.7284
▁அள்ளி	-10.7284
▁வாகனத்த	-10.7289
▁வீடியோக்களை	-10.7289
▁ரசிகர்களை	-10.7292
▁அதனால	-10.7297
▁ஈடுபட்டுள்ளனர்	-10.7299
▁கதிர்	-10.7299
▁வந்தேன்	-10.7301
▁சந்திரசேகர	-10.7309
▁வந்துவிட்டது	-10.7314
▁கொண்டுள்ளனர்	-10.7316
▁சோம	-10.7317
▁உயர்நீதிமன்றத்த	-10.7319
▁திருமணத்திற்கு	-10.7319
▁சம்	-10.7321
▁பாகிஸ்தானுக்கு	-10.7321
▁தானா	-10.7322
▁சென்றால்	-10.7326
▁இயக்குநர	-10.7329
▁்கி	-10.733
▁கவன	-10.7331
▁கழுத்த	-10.7332
▁வருகின்றது	-10.7334
▁சைக்கிள்	-10.7341
▁வருத்தம்	-10.7343
▁அறநிலையத்	-10.7343
▁பகுஜ	-10.7344
▁கொள்வதற்கு	-10.7345
▁கொடியேற்ற	-10.7346
▁தாக்கப்பட்ட	-10.7347
▁தட்டு	-10.7347
▁மொழியில்	-10.7349
▁ஏற்படலாம்	-10.7353
▁குன்ற	-10.7355
▁பந்தில	-10.7356
▁அடுத்ததாக	-10.7359
▁பேக்	-10.7361
▁பயன்படுத்துவத	-10.7361
ஸ்தா	-10.7362
▁காட்டினார்	-10.7363
▁ஆண்டுகால	-10.7372
▁கட்டணத்தை	-10.7374
▁ஆதீன	-10.7374
▁தரிசன	-10.7376
ஜே	-10.7377
▁கேலி	-10.7381
ட்டம்	-10.7381
▁தோல்	-10.7383
▁பரிந்துரைத்த	-10.7384
▁பேருந்துகள்	-10.7387
▁பலன்களை	-10.7388
▁தெரியவந்த	-10.739
▁திலிருந்த	-10.739
ரல்	-10.7395
▁வாகனங்களில	-10.7395
▁ஆஜராக	-10.7397
▁ஏழ	-10.7406
▁சிறுபான்மையினர	-10.7408
▁கவனத்த	-10.7411
ிதா	-10.7412
▁வாக்காளர்கள்	-10.7412
▁உருவாக	-10.7413
▁சபரிமலை	-10.7416
▁புறப்பாடு	-10.7416
▁விக்கிரமசிங்க	-10.7416
▁பெற்றுள்ள	-10.7417
▁ராஜூ	-10.7425
▁இளைஞர்களுக்கு	-10.7425
▁தட	-10.7428
▁வலியுறுத்தின	-10.743
▁என்னோட	-10.7431
▁ஜல்லிக்கட்டு	-10.7432
▁எல்லாமே	-10.7433
▁பெயர்கள்	-10.7434
▁கொள்வார்கள்	-10.7435
வார	-10.7435
▁ஆராதனைகள்	-10.7443
▁ரசிகர்	-10.7445
▁சாட்டி	-10.7449
ur	-10.7455
▁பாகிஸ்தானில	-10.7457
▁இயக்கிய	-10.7461
▁சிலிண்டர்	-10.7464
ர்ஜி	-10.7465
▁கேட்ப	-10.7468
▁குடித்த	-10.7472
▁சந்தோஷ	-10.7477
▁கத்திய	-10.7479
▁வைப்பதற்க	-10.7484
▁பதற்ற	-10.7484
▁இடையூறு	-10.7485
▁st	-10.7485
▁விளக்கமளித்த	-10.7489
▁கச்சத்தீவ	-10.7489
▁செவ்வாய்க்கிழமை	-10.7489
▁மேற்கோள்	-10.7489
▁பொன்முடி	-10.7489
▁Doc	-10.7489
▁முன்வைக்கப்பட்ட	-10.7489
▁அஜய்	-10.7489
▁ஆசிரியர்கள	-10.7491
▁கடிதத்த	-10.7491
▁05	-10.7491
▁சொன்னார்கள்	-10.7492
▁#	-10.7492
▁மனதை	-10.7492
▁பிரிவ	-10.7495
▁விளக்கினார்	-10.7495
ப்புற	-10.7496
▁டிஜிபி	-10.7501
▁செல்வாக்க	-10.7505
▁சந்த	-10.7506
▁கார்கே	-10.7506
▁67	-10.7509
▁மல	-10.7513
▁வாய்ப்புகளை	-10.7514
▁திருவிழாவ	-10.7514
▁or	-10.7516
▁சட்டங்கள்	-10.7516
ஏக்கள்	-10.7522
▁கும்	-10.7522
▁கொல்லப்பட்டனர்	-10.7525
▁திரட்ட	-10.7526
▁வழக்கின	-10.7527
▁மய	-10.7534
▁அரேபியா	-10.7535
▁ஆட்சியின்	-10.7538
vs	-10.7538
▁செல்கிறார்	-10.7542
▁எழுந்தருள	-10.7547
▁வட்டாரங்கள்	-10.7547
▁நாயகி	-10.7549
▁சிகிச்சைக்கு	-10.7551
▁கருவ	-10.7553
க்கணக்கான	-10.7557
▁நட	-10.756
▁194	-10.7561
▁அதீத	-10.7562
▁அடையும்	-10.7567
▁செல்வன்	-10.7569
▁டுக்கு	-10.757
வந்த	-10.757
▁கட்டியெழுப்ப	-10.7572
▁இளவரசர்	-10.7573
▁அப்புறம	-10.7574
▁கிடக்க	-10.7575
▁கர்ப்பிணி	-10.7575
▁4,	-10.758
▁உண்மைய	-10.7586
▁வண்ணம	-10.7586
▁அதுவரை	-10.7586
▁எல்லோர	-10.7588
▁வர்களும்	-10.759
▁கேட்ச்	-10.7595
▁புத்தகங்கள	-10.7596
▁கம	-10.7601
▁நோயாளிகள	-10.7603
▁புயல	-10.7604
▁சுற்றில	-10.7606
▁சுமை	-10.7608
▁சர்வே	-10.7608
▁வதற்கு	-10.761
▁யூனிட்	-10.761
▁டான்	-10.762
▁ிருப்ப	-10.762
▁le	-10.7624
பேட்டை	-10.7627
▁கட்டிட	-10.7627
▁தேர்தல	-10.7628
▁மதிப்பிட	-10.7629
▁மரபு	-10.7633
▁விண்ணப்ப	-10.7634
▁இரங்கல்	-10.7635
▁பத்திரிக்கை	-10.7635
▁சொகுச	-10.7635
▁யோசிக்க	-10.7635
▁அதிகாரபூர்வ	-10.7636
▁அனுபவிக்க	-10.7637
▁பார்ப்போம்	-10.7637
▁பாச	-10.7638
▁வித்யா	-10.7639
▁னான்	-10.7639
போக	-10.7639
▁அருவி	-10.764
▁நிலையங்கள்	-10.7643
▁என்பதற்க	-10.7644
▁தீவு	-10.7651
▁தெருவில	-10.7655
▁?!	-10.7656
45	-10.7657
▁அவசியமான	-10.766
▁வினர	-10.7661
▁த்துக்கும்	-10.7662
▁சுட்டு	-10.7667
▁புத்தகம்	-10.7669
ளிப்பு	-10.7669
▁51	-10.7674
▁கருட	-10.7676
▁அரசுகள்	-10.7678
▁சண்முக	-10.7678
▁காதலி	-10.7681
சூ	-10.7682
▁வரவேற்பை	-10.7684
▁முன்னெடுத்து	-10.7687
கொண்டிருக்கின்றன	-10.7688
▁கூலி	-10.7688
ing	-10.7693
▁கிற்கு	-10.7697
▁விளா	-10.7698
▁விரைவு	-10.77
▁கிளர்ச்சி	-10.7702
▁மாட்டு	-10.7704
▁மாணவிகள	-10.7705
▁நடராஜன்	-10.7707
▁கொண்டுள்ள	-10.7707
றும்	-10.7709
▁நிலப்பரப்ப	-10.7709
▁மனிதாபிமான	-10.7709
▁புரிந்துகொள்ள	-10.771
▁பந்துவீச	-10.7711
▁இஸ்லாமியர்கள்	-10.7716
▁குழுமத்த	-10.7718
▁இவ்	-10.7718
▁தொடர்ச்சி	-10.7719
▁வேலைத்திட்டத்த	-10.7721
▁நிகழ்வை	-10.7722
▁எடுப்ப	-10.7724
▁கிரா	-10.7729
▁ஒழிக்க	-10.7731
▁ரூபாவ	-10.7731
▁நியூயார்க்	-10.7733
▁69	-10.7734
▁பிரதீப	-10.7734
▁54	-10.7736
பில்	-10.7737
▁சூர	-10.7738
▁சேகரிக்க	-10.7739
▁பயணி	-10.774
பார்	-10.7741
▁சப்	-10.7743
▁பிரிய	-10.7745
▁52	-10.7746
▁சந்திரசேகர்	-10.7747
▁வேன்	-10.7747
▁மாடுகள	-10.7748
▁ஓடிய	-10.7758
▁எதிர	-10.776
▁நை	-10.7761
▁கமிஷன்	-10.7763
▁வருவதற்க	-10.7768
▁சட்டத்திற்கு	-10.7768
▁கற்க	-10.7771
▁தட்ட	-10.7772
▁இளவரச	-10.7773
▁விதித்து	-10.7774
▁68	-10.7774
ாபாத்	-10.7776
▁விடுத்து	-10.7782
▁ஃபே	-10.7783
▁ஊட்டச்சத்து	-10.7784
▁குப்தா	-10.7784
▁மேற்கண்ட	-10.7785
▁பங்களிப்பை	-10.7786
▁பெறுவதற்கா	-10.7787
▁விண்ண	-10.7787
▁இருப்பத	-10.7788
▁சகோதர	-10.7789
▁போஸ்ட்	-10.7793
▁மெய்	-10.7793
▁உறுப்பினரும	-10.7794
▁தீர்மானித்த	-10.7797
▁மாறியுள்ளது	-10.7799
▁ஏழாம	-10.7799
▁ராஜு	-10.7801
ானந்த	-10.7803
▁போற்றி	-10.7803
▁இடத்திலும்	-10.7805
▁முற்ற	-10.7808
▁56	-10.7808
▁வீசப்பட்ட	-10.7808
▁சொல்லவில்லை	-10.7811
▁தேநீர	-10.7811
▁சினிமாவில	-10.7812
▁ரகு	-10.7814
▁சொல்லலாம்	-10.7815
▁77	-10.7815
▁செல்லாது	-10.7816
▁டிஸ்	-10.7817
▁தன்னிடம	-10.7818
▁ின	-10.7828
▁வாழ்வாதார	-10.7828
▁வாஷிங்டன்	-10.7832
▁ஹமாஸ	-10.7835
னீ	-10.7835
▁போன்றவற்ற	-10.7835
▁தைவான	-10.7836
▁ஒழுங்க	-10.7836
▁நம்புகிறார்	-10.7837
▁கணிசமா	-10.7837
▁ஆம்புலன்ஸ்	-10.784
ாட	-10.784
▁பயிற்சியாளர்	-10.7841
▁இறுதிப்	-10.7842
▁சபா	-10.7847
▁அதிர	-10.7848
கவின்	-10.785
▁பாருங்க	-10.7851
▁கிஷோர்	-10.7852
▁குற்றங்கள்	-10.7852
▁கொடுப்ப	-10.7856
▁சடங்கு	-10.7856
▁பிரத்யேக	-10.7859
▁முத்திரை	-10.7859
▁வேண்டுமானால்	-10.7859
▁விசிக	-10.786
▁வாக்குமூலம்	-10.7862
▁பிரதோஷ	-10.7864
▁கோர்ட்ட	-10.7867
▁விழாவின	-10.7871
▁நீதித்துறை	-10.7873
▁ஆசிரியை	-10.7873
▁பின	-10.7873
▁காஷ்மீரில	-10.7884
▁2020-	-10.7885
▁ஸ்டெ	-10.7886
▁வைகை	-10.7888
கண்ட	-10.7889
▁8-	-10.7892
▁போஸ்	-10.7894
▁புஷ்ப	-10.79
▁கவுன்சில	-10.7901
▁வீரராக	-10.7902
▁வலைத்தளங்களில	-10.7903
▁வசூல்	-10.7905
▁அமைதியை	-10.7906
▁72	-10.7915
▁பாண்டிய	-10.7916
▁வாடி	-10.7919
▁அடித்தார்	-10.7919
▁லஞ்சம்	-10.792
▁அசைவ	-10.7922
▁இணைத்து	-10.7923
▁8:	-10.7924
▁ச்ச	-10.7926
▁காந்த	-10.7926
▁விலங்குகள்	-10.7928
▁120	-10.7931
▁அமைச்சர்கள	-10.7933
▁தேமுதிக	-10.7935
▁மாப்பிள்ளை	-10.7935
▁கடத்த	-10.7936
▁தேர்தலிலும்	-10.7937
▁மைல்	-10.7938
▁உளவியல	-10.7944
▁ஒளிபரப்பாக	-10.7958
▁மறுத்துவிட்ட	-10.7959
▁மேன்	-10.7959
ப்பள்ளி	-10.7963
▁பெறவில்லை	-10.7965
▁முக்கியமானதாக	-10.7971
ளவு	-10.7972
▁துவங்கிய	-10.7973
▁அடைத்து	-10.7974
▁அடைக்க	-10.7975
▁நட்சத்திரம்	-10.7977
▁செப்	-10.7977
▁மாணவர	-10.7978
▁குப்ப	-10.7979
▁உன்ன	-10.7982
▁முருகன	-10.7983
▁சேதம்	-10.7984
▁ஊரில	-10.7986
▁புகழ	-10.7991
துரை	-10.7992
▁புரிந்த	-10.7994
▁குடும்பத்திற்கு	-10.7997
▁குறைக்கும்	-10.8
▁இதோ	-10.8001
▁வாழ்	-10.8002
▁பொறுப்பாளர்	-10.8007
▁சொல்வதை	-10.8007
▁வாக்காளர்	-10.801
▁செலாவணி	-10.8011
▁மேற்பார்வை	-10.8011
▁முகாமைத்துவ	-10.8011
▁பாட்டு	-10.8013
ாளி	-10.8013
▁காத	-10.8014
▁de	-10.8015
▁தவிக்க	-10.8015
▁சுவாச	-10.8015
▁செய்திருக்கிறது	-10.8015
▁ராமசாமி	-10.8016
▁பாதிக்க	-10.8016
▁ரிடம்	-10.8016
▁பாலு	-10.8017
▁கொரிய	-10.8021
ஸ்டர்	-10.8024
▁முனி	-10.8032
▁9-	-10.8035
▁பணவீக்கம்	-10.8035
▁ரஞ்சித்	-10.8037
▁வீதிகளில	-10.8041
▁ஸ்கோர்	-10.8042
▁சாத்த	-10.8044
▁கோயிலை	-10.8047
நாடு	-10.8055
▁ஓய்வூதிய	-10.8062
ஷ்ட	-10.8063
▁நபி	-10.8064
▁மிரட்ட	-10.8064
▁கொள்ளவும்	-10.8064
▁மீனவர்கள	-10.8072
ாரி	-10.8074
▁அசத்த	-10.8076
▁முற்றிலுமாக	-10.8077
▁உள்ளடக்க	-10.8077
▁கனி	-10.8079
▁அதிபதி	-10.808
▁எண்ணி	-10.8084
▁புறக்கணிக்க	-10.8088
▁ராயல்	-10.8088
▁ஒடுக்க	-10.8089
▁மகிந்த	-10.8089
நானே	-10.809
▁வருடங்கள	-10.809
▁ஜென்ம	-10.8091
▁பார்த்தார்	-10.8092
▁துணிச்சல	-10.8092
▁சீர்திருத்த	-10.8093
▁அமர்வ	-10.8094
▁கர்ப்ப	-10.8094
▁கண்டறிந்து	-10.8096
சக்கர	-10.8097
▁குறைந்தபட்சம	-10.8099
▁வாட்ஸ்	-10.81
▁சொன்னேன்	-10.8103
▁நுகர்வோர	-10.8103
▁அமைக்கப்பட்டு	-10.8108
▁பழகி	-10.811
▁திரைப்படங்கள	-10.8113
▁கொடூரமாக	-10.8113
ந்தோ	-10.8113
▁ஆரம்பித்தார்	-10.8121
▁தூக்கு	-10.8122
▁எதிர்பார்ப்ப	-10.8125
▁கருத்துக்	-10.8126
▁2023-	-10.8127
▁களமிறங்கி	-10.8128
▁பட்டின	-10.8139
▁வியாபாரம்	-10.8144
▁கல்யாணம்	-10.8147
▁செய்துள்ளதாக	-10.8148
▁நிராகரித்த	-10.8148
▁ஆட்சியர	-10.8148
▁ஊரக	-10.8149
▁பயிர்கள	-10.815
▁அளவ	-10.8152
▁பயங்கரவாதிகள	-10.8152
▁கழிவு	-10.8156
▁பிணை	-10.816
▁விடப்பட்ட	-10.8161
▁சிக்னல்	-10.8164
▁நொடி	-10.8165
▁சன்ரைசர்ஸ	-10.8166
▁பரஸ்பர	-10.8166
▁பெய்யக்கூடும்	-10.8166
▁விநியோகிக்க	-10.8167
▁செய்வோம்	-10.8168
▁தேடுதல்	-10.8168
▁பேசியதாக	-10.8175
▁ஊதிய	-10.8176
மிகு	-10.8176
▁சேமிப்பு	-10.818
▁திருவிழாவை	-10.8183
▁அப்படிப்பட்ட	-10.8183
▁பரபரப்ப	-10.8186
▁ஃபா	-10.819
▁வார்த்தைகள்	-10.819
▁எதிர்காலத்தை	-10.819
▁விரிவுபடுத்த	-10.8191
▁கொடுத்தால்	-10.8193
▁தேன்	-10.8194
▁அமைந்து	-10.8195
▁தொடர்ப	-10.8196
ாயி	-10.82
▁வாயு	-10.8202
▁விளம்பரம்	-10.8203
▁தன்மையை	-10.8209
▁உள்ளிட்டவற்ற	-10.8211
▁நேரமாக	-10.8213
▁is	-10.8214
▁உற்பத்தியை	-10.8218
▁கொண்டாடும்	-10.8218
▁நபர்களை	-10.8218
▁தவறி	-10.8221
▁கரி	-10.8221
▁மீ	-10.8221
▁பான்	-10.8223
ெந்த	-10.8224
▁பராமரிப்ப	-10.8226
▁இதேபோல	-10.8226
▁நகைகள்	-10.8229
▁சங்கட	-10.823
▁பாதையை	-10.823
▁தைத்	-10.824
▁சசி	-10.8242
▁கழிவறை	-10.8244
▁முஸ்லீம்	-10.8244
▁கொந்தளிப்ப	-10.8244
▁ார்களா	-10.8244
▁கையகப்படுத்த	-10.8244
▁தவணை	-10.8245
▁விளைவிக்க	-10.8245
▁டக்ள	-10.8245
▁ஆணை	-10.8246
▁போதெல்லாம்	-10.8248
▁அப்துல்லா	-10.8248
லாக	-10.8248
▁மடி	-10.8249
▁வேளாண்மை	-10.8249
▁ரெடி	-10.825
▁எழுப்பினார்	-10.825
▁நியாயமான	-10.8251
▁ஆசிரியர	-10.8251
▁மாநிலங்களை	-10.8252
▁விடக்கூடாது	-10.8253
▁வடிவமைக்கப்பட்ட	-10.8254
▁பார்த்தபோது	-10.8256
▁சாஹ	-10.8257
▁நடுவே	-10.8264
ha	-10.8265
ரான்	-10.8271
▁போரின்	-10.8272
▁வைக்கிறார்	-10.8274
▁பதிவுசெய்து	-10.8275
▁ுற	-10.8276
▁போட்டிக்கு	-10.8282
▁ஜார்ஜ	-10.8283
▁களி	-10.8284
▁நீள	-10.8286
▁கனக	-10.829
▁காலையில	-10.829
▁வித்தியாசம	-10.8291
▁நாத	-10.8293
▁டாக	-10.8295
▁ஆவின்	-10.8296
▁யாரிடம	-10.8298
▁ஆடுகள	-10.8298
இன்	-10.8301
▁கிண்டல்	-10.8302
படியாக	-10.8307
▁துரித	-10.8308
▁அபாய	-10.8308
▁மேஷம்	-10.831
பாடு	-10.8311
▁எலிசபெத்	-10.8312
▁பலப்படுத்த	-10.8312
▁வெற்றிபெற	-10.8315
▁டீம்	-10.8318
▁தோன்ற	-10.8318
▁ஆஜரான	-10.8323
▁வளிமண்டல	-10.8323
▁700	-10.8323
▁சொல்ற	-10.8323
▁அம்பானி	-10.8324
▁கருணை	-10.8324
▁ஐநா	-10.8325
▁மேஷ	-10.8325
▁பிரிவுகளின்	-10.8328
▁சீனாவுக்கு	-10.8331
▁இல்லாவிட்டால்	-10.8337
▁கல்வித்	-10.8337
▁அரையிறுதி	-10.8339
▁பிறப்பு	-10.834
▁ஆளு	-10.8341
▁மாரி	-10.8341
▁சிறுவர்கள்	-10.8341
▁எதிர்ப்ப	-10.8342
▁பிம்ப	-10.8343
ளிப்ப	-10.8343
▁இருப	-10.8344
▁கற்கள்	-10.8347
▁பதில	-10.835
▁தொகுதிகளை	-10.8355
▁செஞ்சி	-10.8358
▁மில்லை	-10.8361
▁பயன்பாட்ட	-10.8361
▁கண்டன	-10.8362
▁அளிப்பத	-10.8362
▁குடியிருப்ப	-10.8365
▁துவக்கி	-10.8365
▁நர	-10.8365
▁மாத்த	-10.8369
▁திறமைய	-10.8375
▁ரெட்	-10.8378
▁வராது	-10.8378
▁சாதிய	-10.8381
▁ரான	-10.8383
ஹான்	-10.8383
ic	-10.8386
▁நடத்தை	-10.8386
▁வங்கதேசம்	-10.8387
▁டிரம்ப	-10.839
▁கவனித்த	-10.8391
▁போற்ற	-10.8397
▁பகுதிகள	-10.8397
▁யாகவும்	-10.8399
▁விடுவார்	-10.8401
▁கணக்கெடுப்ப	-10.8402
▁அமமுக	-10.8402
▁திருகோணமலை	-10.8402
▁விசேஷ	-10.8402
▁India	-10.8402
▁வைத்தியசாலை	-10.8402
▁காப்பீடு	-10.8402
▁செருப்ப	-10.8402
▁முன்னோடி	-10.8402
▁வல்ல	-10.8404
▁கலந்துகொள்ள	-10.8404
▁ரோஜா	-10.8404
▁ஒழிப்புத்துறை	-10.8406
▁அறிமுகமான	-10.8407
▁உணர்த்த	-10.8407
▁வரதராஜ	-10.8409
▁பெற்றுள்ளனர்	-10.841
▁தள்ளப்பட்ட	-10.8414
▁ஐரோப்பாவ	-10.8414
▁உள்ளோம்	-10.8416
▁சவாலாக	-10.8418
▁மயில்	-10.842
▁வழிநடத்த	-10.8421
▁அச்சுறுத்த	-10.8422
▁சேனல	-10.8423
▁பெய்யும்	-10.8429
▁ுவதாகவும்	-10.843
▁செயலகத்தில்	-10.8437
▁பொருளாக	-10.8438
▁சுமந்து	-10.8443
▁கிடைக்கப்	-10.8449
▁அணிகளுக்கு	-10.8451
▁நடத்துவதற்க	-10.8452
▁செய்திருக்க	-10.8453
▁it	-10.8456
▁நிமிடங்களில்	-10.8456
▁வல	-10.8461
▁ஆனார்	-10.8464
▁படுத்து	-10.8468
▁மறைமுக	-10.847
சிங்க	-10.847
▁வார்த்தைகள	-10.8471
▁குறிப்பு	-10.8472
▁ஆரம்பித்தது	-10.8472
வராக	-10.8477
▁சித்து	-10.8478
▁வராத	-10.8479
▁வாரணாசி	-10.8482
▁பரம்பரை	-10.8482
▁மியான்மர	-10.8482
▁வெளியீட்ட	-10.8482
▁அதிவேக	-10.8482
▁முன்னோர்கள	-10.8482
▁வனப்பகுதி	-10.8483
▁எரிசக்தி	-10.8483
ாராம்	-10.8485
▁தொல்	-10.8486
▁க்கள	-10.8487
▁கேப்டனாக	-10.8489
▁நேரத்துக்கு	-10.8491
ேஸ்வரர	-10.8493
▁வார்டில	-10.8493
▁பேட்டை	-10.8494
▁பொதுப்	-10.8495
▁நடிப்பில்	-10.8496
▁மலையாள	-10.8496
▁விடுவோம்	-10.8497
▁வதை	-10.8498
▁தீய	-10.8504
▁வேலைகள்	-10.8504
▁95	-10.8506
▁வெல்லும்	-10.8507
▁சத்து	-10.8507
▁வருவார்கள்	-10.8511
▁சுவை	-10.8513
▁காரியங்கள	-10.8515
▁பொருத்தப்பட்ட	-10.8519
▁பிரதேசங்கள	-10.852
▁வகிக்கும்	-10.8521
▁யாய்	-10.8521
▁அடிக்கல்	-10.8526
▁எடுத்தது	-10.8526
▁பாக்கிய	-10.8527
▁கத்த	-10.8527
▁உரிமையாளர்கள்	-10.8528
▁தின்	-10.8528
லிங்க	-10.8529
▁நேர்மைய	-10.8531
▁கிறிஸ்	-10.8535
▁ரஜினிகாந்த்	-10.8539
▁விநாயகர	-10.854
▁தாலி	-10.8542
▁சரியா	-10.8543
▁மிஸ்	-10.8553
ிச்ச	-10.8561
▁உபயோக	-10.8562
▁கேரக்டர	-10.8563
▁சிபிசிஐடி	-10.8563
▁தயிர்	-10.8563
▁உழைக்க	-10.8563
▁நிகழும்	-10.8563
▁அணிவித்த	-10.8565
▁மெகா	-10.8566
▁சில்வா	-10.8567
hi	-10.8567
▁ந்து	-10.8567
▁செயல்படுகிறது	-10.8568
▁அறைக்கு	-10.857
▁ஆரோக்கியத்த	-10.8571
▁மிரட்டிய	-10.8573
▁தனித்தனியாக	-10.8574
▁லட்சத்திற்கு	-10.8574
▁சுப்பிரமணியன்	-10.8576
▁நேர்	-10.8578
▁ாதது	-10.8584
▁சுவர	-10.8586
▁செய்யப்படவில்லை	-10.8586
▁திருக்கல்யாணம்	-10.8587
▁சாவி	-10.859
ேற்ப	-10.8592
▁கலவரத்த	-10.8592
▁அக்கா	-10.8595
▁சிவன	-10.8599
▁ஷ்	-10.8604
▁மன்	-10.8606
▁பார்த்ததும	-10.8607
▁வழங்குவதற்கா	-10.8607
▁கேட்	-10.8614
புரி	-10.8614
▁பதிவான	-10.8616
▁செய்தோம்	-10.8617
▁காய	-10.8618
▁சாலைகள்	-10.8624
ுகிறோம்	-10.8626
▁ஆதாரங்களை	-10.8627
▁தோள	-10.8628
▁தொழில்நுட்பத்தை	-10.8629
▁தோழி	-10.8631
▁நிலையத்துக்கு	-10.8635
▁பாடலை	-10.8638
▁மேற்கொள்வத	-10.8641
▁தென்ன	-10.8643
▁காரணம	-10.8643
▁நோக்கத்த	-10.8644
▁படுகாயமடைந்த	-10.8644
ஒரு	-10.8647
▁களு	-10.8648
▁66	-10.8652
▁விழுந்தது	-10.8653
▁செடி	-10.8654
▁03	-10.8656
▁அதேபோன்று	-10.8658
▁விளைவுகளை	-10.8659
▁தாக்குதல்கள்	-10.8659
வரம்	-10.866
▁63	-10.8661
▁விக்ரம	-10.8663
▁இருவரும	-10.8663
▁ஆக்க	-10.8664
▁கேட்டோம்	-10.8665
▁கொள்வதற்காக	-10.8665
▁எதிரானது	-10.8666
▁செலுத்தப்பட்ட	-10.867
▁வாயில்	-10.867
▁கிடைக்காது	-10.8675
▁ரயில்கள்	-10.8676
▁இப்போதை	-10.8676
▁உண்டியல்	-10.8678
▁கட்டுப்பாடுகள	-10.8681
▁ஆந்திராவில்	-10.8683
ப்பட்டி	-10.8683
▁சொல்லப்பட்ட	-10.8683
▁காசாவ	-10.8684
▁வில	-10.8686
கல	-10.8688
▁ாலோ	-10.8688
▁உணர்வுகளை	-10.8692
▁வெடிப்பு	-10.8693
▁இடிந்த	-10.8695
▁தாமதம்	-10.8696
▁மாடு	-10.8697
▁போனால்	-10.8698
▁சுந்தர்	-10.8702
▁பிரச்சினைகளை	-10.8704
▁சட்டங்களை	-10.871
▁ஈடுபட்டுள்ள	-10.8712
▁நல்லிணக்க	-10.8721
▁வெளியேற்றப்பட்ட	-10.8724
அலங்கரிக்கப்பட்ட	-10.8726
▁திங்கட்கிழமை	-10.8726
▁மெதுவாக	-10.8726
▁தொகுத்த	-10.8726
▁பருத்தி	-10.8726
▁சுற்றுவட்டார	-10.8726
மார்க்சிஸ்ட்	-10.8726
க்குடி	-10.8726
▁தெரிந்துகொள்ள	-10.8726
▁பவுன்	-10.8727
▁1990	-10.8727
விவகார	-10.8727
▁அனிதா	-10.8728
▁உரையாடல்	-10.8734
▁திருநாள	-10.8737
▁மாற்றும்	-10.8737
▁பதிவாகியுள்ளது	-10.8739
▁பாராட்டிய	-10.8741
▁பிளஸ்	-10.8742
▁விற்ற	-10.8745
▁மீன	-10.8746
▁ஆண	-10.8746
▁வானதி	-10.8746
▁விளைவு	-10.8748
▁ராதாகிருஷ்ணன்	-10.8748
▁விழாவ	-10.8749
▁மண்டலம்	-10.875
▁வடகொரியா	-10.8751
கண்டெடுக்கப்பட்ட	-10.8756
▁ஹாரிஸ்	-10.8757
▁வர்ற	-10.8757
த்தூர்	-10.8757
▁ஆண்கள	-10.8763
▁விடுத்துள்ள	-10.8763
▁சேதமடைந்த	-10.8765
▁இர	-10.8766
▁சண்முகம்	-10.8769
▁மொழியை	-10.8772
கிறேன்	-10.8772
▁விலங்கு	-10.8774
▁தொலை	-10.8774
ow	-10.8783
▁ஆரம்பிக்கப்பட்ட	-10.8784
▁கொன்று	-10.8787
▁அவல	-10.8788
▁வுள்ளது	-10.879
▁கதவு	-10.8796
▁சிறுநீர்	-10.8796
▁1.5	-10.8797
▁அவளை	-10.8797
▁எழுந்துள்ள	-10.88
▁ரன்களில	-10.8804
▁தலையை	-10.8805
▁நடந்தால்	-10.8807
▁சமூகநீதி	-10.8809
▁முன்னோக்கி	-10.8809
▁வருங்கால	-10.8809
▁வடிவமைப்ப	-10.8809
டிமிர்	-10.8809
▁மதிமுக	-10.8809
▁என்பன	-10.8809
▁விண்ணப்பங்கள	-10.8809
▁தனித்துவமான	-10.8811
பன்னீர்	-10.8812
▁நெருக்க	-10.8813
▁திணைக்களத்தின	-10.8814
▁கோட்	-10.8815
▁வெளியேறினார்	-10.8816
▁கொண்டிருந்தபோது	-10.8818
ate	-10.8819
▁Co	-10.882
▁பார்வையாளர்கள்	-10.8821
▁85	-10.8822
▁பொருந்த	-10.8823
▁சவ	-10.8825
▁பரிசாக	-10.883
▁ஷன	-10.883
▁பேசவில்லை	-10.8831
▁சுங்க	-10.8832
போன	-10.8835
▁நேரிடும்	-10.8835
▁மையத்தில	-10.8838
▁பணியிட	-10.8839
▁at	-10.8841
▁வன்முறையை	-10.8843
மில்லை	-10.8844
▁வந்தே	-10.8845
▁செயற்பாடுகள	-10.8845
▁ஹெச்	-10.8847
▁காப்பாற்றி	-10.885
▁மென்	-10.8851
▁மதிப்பெண்	-10.8854
▁பயன்படுத்துவது	-10.8854
▁புறநகர்	-10.8855
▁செய்வ	-10.886
▁ஒன்றியம்	-10.8861
▁காயத்	-10.8862
▁போஸ்டர்	-10.8873
▁வித்தியாச	-10.8876
▁ின்ற	-10.8877
▁சிம்	-10.8879
▁செல்வதற்க	-10.888
▁அழகிய	-10.8882
▁2009	-10.889
▁தொந்தரவ	-10.8892
▁வற்புறுத்த	-10.8892
▁சேகர்பாபு	-10.8892
▁சாம்பியன்ஷிப்	-10.8892
▁கொள்வோம்	-10.8893
▁இணையதளம்	-10.8896
▁மேஜர	-10.8896
▁டொ	-10.8898
▁தொடங்கப்பட்ட	-10.8898
▁மனிதன	-10.8902
▁பவ	-10.8902
ot	-10.8903
▁இயக்கத்தின	-10.8904
ிருக்கின்றன	-10.8905
▁தேவஸ்தான	-10.8909
▁அதிர்ஷ்ட	-10.8909
▁விடுவித்த	-10.891
▁விட்டுவிட்டு	-10.8917
▁தொ	-10.8921
▁கம்பம்	-10.8923
▁பரந்த	-10.8929
▁கோரிக்கைகள்	-10.8934
ாதிபதி	-10.8939
▁ினார்	-10.8948
▁குளத்த	-10.895
▁குறுக்க	-10.895
▁கோவிந்த	-10.8951
▁சீனியர்	-10.8952
▁வாக்கெடுப்பு	-10.8954
▁பேட்டர்கள்	-10.8958
▁தர்	-10.896
▁ட்ர	-10.896
▁ஆதரவாளர்	-10.8962
▁நிறுத்தம்	-10.8963
▁73	-10.8964
▁ுவீர்கள்	-10.8966
▁உன்னை	-10.8966
க்கர்	-10.8967
▁குற்றவாளிகளை	-10.8969
▁தையும்	-10.8969
▁தரவுகள்	-10.897
▁நந்தி	-10.8971
ri	-10.8974
▁திருவீதி	-10.8976
▁ஜின்பிங்	-10.8976
▁ட்ரூடோ	-10.8976
▁வேட்டையாட	-10.8976
▁சிவராத்திரி	-10.8976
▁கொள்கிறோம்	-10.8977
▁சுல்தான	-10.8977
▁தாய்ப்பால	-10.8977
▁சரமாரியாக	-10.8978
▁2004	-10.898
▁உற்சவர	-10.8982
▁எல்லையை	-10.8983
▁அன்	-10.8983
▁கழிவுகள	-10.8984
▁வாக்களிப்ப	-10.8985
▁போனார்	-10.8986
▁எழுதினார்	-10.8986
▁விரும்பாத	-10.8988
▁பின்னரே	-10.8988
மங்கலம்	-10.8989
▁ீர்களா	-10.8993
▁செயல்பாடுகளை	-10.8995
▁04	-10.8998
▁மேலாளர்	-10.8999
▁கொழுப்பு	-10.9
▁காணவில்லை	-10.9001
▁மறைவுக்கு	-10.9005
▁மாணவன்	-10.9009
▁ஆப்பிள	-10.9009
▁கீதா	-10.9009
▁அகல	-10.9017
▁மூலவர	-10.9017
யூர்	-10.9017
▁யின	-10.9018
▁ஓடும்	-10.9019
▁தத்துவ	-10.9019
▁சொத்துக்கள	-10.902
▁சித்தி	-10.9025
▁ஒவ்வொருவர	-10.9026
▁அமெரிக்காவை	-10.903
▁பிரசாதம்	-10.903
▁பாதிக்கப்பட்டவர	-10.9031
▁நிமிட	-10.9033
த்தினர்	-10.9033
▁உரையில்	-10.9034
▁எம்எல்ஏக்கள	-10.9034
▁ஒத்து	-10.9037
▁பரம	-10.9045
▁செட்	-10.9047
▁ப்பு	-10.9048
▁பாக்ய	-10.905
▁வருவார்	-10.9053
▁இறுதிச்	-10.9054
▁கடன	-10.9054
▁விஷம்	-10.9057
த்தன்மை	-10.9058
▁உடன்படிக்கை	-10.9061
▁சுழற்பந்துவீச்ச	-10.9061
▁உகந்த	-10.9061
▁நிதியுதவி	-10.9061
▁பரமக்குடி	-10.9061
▁கடைப்பிடிக்க	-10.9061
▁எஸ்டேட்	-10.9061
▁ரீதியில	-10.9064
▁ஆய்வக	-10.9064
▁விடுவது	-10.9065
▁கைதிகள	-10.9067
▁வெடித்தது	-10.9068
▁கண்டுபிடித்து	-10.907
▁ஆட்டமிழந்தார்	-10.9071
▁நலத்துறை	-10.9075
▁உத்தரவின்	-10.9075
▁புலம்ப	-10.9075
▁சிரம	-10.9077
▁ஆளுமை	-10.9077
▁செல்கிறது	-10.9079
▁நட்சத்திரங்கள	-10.9084
▁98	-10.9085
▁எஸ்பி	-10.9086
▁வீட்ட	-10.9086
▁மாட்ட	-10.9086
▁தீபம்	-10.9087
தார	-10.9088
▁நால	-10.9089
▁ராணுவத்தினர	-10.9089
▁பார்த்தேன்	-10.9089
▁இறப்ப	-10.909
▁கடலுக்கு	-10.9091
▁ஷன்	-10.9099
▁கொட	-10.9099
es	-10.9099
கல்	-10.9102
▁உயரும்	-10.9103
▁புறம்	-10.9103
▁ஃப்	-10.9105
▁டாலர	-10.9106
▁ங்களே	-10.911
▁யுத்தம்	-10.9111
▁பார்ப்பதற்க	-10.9112
▁தீபக்	-10.9114
▁ஈடுபடும்	-10.9114
▁திரைப்படத்த	-10.9117
▁முன்ப	-10.9117
உயிரிழந்துள்ளனர்	-10.9119
▁இத்திட்டத்த	-10.9122
▁வகித்து	-10.9123
▁திரையரங்க	-10.9129
▁குடை	-10.9131
▁இஸ்லாமியர்கள	-10.9132
▁ஹேம	-10.9132
▁சூழ	-10.9133
▁பேசுகிறார்	-10.9135
▁த்தன	-10.9136
▁தேவைப்பட்ட	-10.9136
▁கூறியுள்ள	-10.9143
▁பிரிவை	-10.9146
▁பல்லக்கில	-10.9146
▁துப்பாக்கிச்சூட	-10.9146
▁இனிமேல	-10.9147
▁மரங்கள்	-10.915
▁சந்திரன	-10.915
▁சைக்கிள	-10.915
▁கம்பீர	-10.9154
▁தேவேந்திர	-10.9158
த்தர	-10.9159
▁பிளா	-10.9163
▁யர்	-10.9166
▁தலைவரை	-10.9167
▁காலனி	-10.9171
▁கேட்டேன்	-10.9173
▁கூட்டத்திற்க	-10.9173
▁உமா	-10.9174
▁விரும்பிய	-10.9176
ஓய்வுபெற்ற	-10.9178
▁கைதி	-10.9184
ro	-10.9185
▁கிராமப்புற	-10.9186
▁ஞ்ச	-10.9192
▁அமைக்கப்படும்	-10.9192
▁விக்னேஷ்	-10.9192
▁மனிதர்	-10.9192
▁மீறிய	-10.9193
▁தாலும்	-10.9197
▁வலைத்தளத்தில	-10.9199
▁திறன	-10.92
▁எல்லைக்கு	-10.9204
▁ச்சு	-10.9207
▁முகவர்	-10.9208
▁பெரும்பாலானோர	-10.9209
▁கடக்க	-10.9212
▁57	-10.9212
▁தேர்தலின்	-10.9212
▁முன்னெடுப்ப	-10.9216
▁ப்படுத்தி	-10.9218
▁ாமலே	-10.9222
▁கோடிக்கு	-10.9226
ச்சல்	-10.9227
ion	-10.9229
ப்பட்டன	-10.9231
▁ஆட்	-10.9232
▁பின்தங்கி	-10.9232
▁மைசூர	-10.9232
▁இருந்திருந்தால்	-10.9232
▁வாய்ப்பில்லை	-10.9233
▁வேறொரு	-10.9233
▁உடைத்த	-10.9236
▁ஸ்ரீரங்க	-10.9236
▁ஒட்ட	-10.9236
▁அமைவ	-10.9237
▁ஏற்படுத்துகிறது	-10.9238
▁வரப்போகிறது	-10.924
▁கேட்டதற்கு	-10.924
▁கமல	-10.9244
▁யாருக்க	-10.9248
▁ஆளாக	-10.9251
▁தப்பிச்	-10.9252
▁ட்டா	-10.9257
▁அடை	-10.9258
▁மூட்டை	-10.9258
▁பும்ரா	-10.9259
▁முன்னெடுத்த	-10.9259
▁கொடுக்கவில்லை	-10.9259
▁துலாம்	-10.9261
▁பரபரப்பாக	-10.9262
பன்னீர்செல்வத்த	-10.9267
▁தொகுப்ப	-10.9268
▁12-	-10.9268
▁வீட்டுக்குள்	-10.9269
கட்ட	-10.9269
▁வர்மா	-10.9275
பொருள்	-10.9276
▁சிக்கிக்	-10.9276
▁இனிப்பு	-10.9278
▁சேர்த்துக்	-10.9278
▁அரேபியாவ	-10.9281
▁வைத்திருந்தார்	-10.9285
▁முகத்தில	-10.9286
▁மருத்துவமனைகளில	-10.9288
▁முன்னர	-10.9288
▁சுயேச்சை	-10.9296
▁வரையிலும்	-10.9298
▁நாளே	-10.93
▁நிறைவேற்றிய	-10.9304
▁அளிக்கப்பட்டு	-10.9304
▁யாரால	-10.9305
▁கதறி	-10.9312
▁மூச்சு	-10.9315
▁வலு	-10.9315
▁அதிர்வலை	-10.9319
▁ஆடம்பர	-10.9319
▁கருத்துக்கணிப்ப	-10.9319
▁பட்டதாரி	-10.9319
▁சுனாமி	-10.9319
▁பெருங்கடல	-10.9319
▁பந்துவீச்சை	-10.9319
▁சம்பாதிக்க	-10.9319
▁மயங்கி	-10.9321
▁ஸ்ரீதேவி	-10.9321
▁பிரபலங்கள்	-10.9323
▁பெயர்களை	-10.9323
ச்சேரி	-10.9324
▁செய்தார்கள்	-10.9325
▁திருமதி	-10.9326
பாளையம்	-10.9326
▁நாளிதழ	-10.9327
▁சிறைக்கு	-10.9327
▁வால	-10.9328
▁வாரங்கள	-10.9328
▁கலைஞர	-10.9329
▁பிரபாகரன்	-10.933
▁பொடி	-10.9331
▁ஹூ	-10.9331
அழைக்கப்படுகிறது	-10.9332
▁ிவிட்டது	-10.9332
▁மறைமுகமாக	-10.9333
▁வேண்டியுள்ளது	-10.9334
▁முகத்தை	-10.9337
▁கொவிட்	-10.9339
▁சரிந்த	-10.9341
▁திணைக்களம்	-10.9342
ிருந்தேன்	-10.9342
▁ஆயுதம்	-10.9345
▁நடிகர்கள்	-10.9345
கீ	-10.9346
▁தொடங்கின	-10.9349
▁தலைவருக்கு	-10.9352
மூ	-10.9354
▁சாப்பிடுவத	-10.9356
▁கொள்	-10.9357
▁காடு	-10.9359
ன்னா	-10.936
▁20-	-10.9361
▁டிர	-10.9369
▁கொத்த	-10.937
▁ஏசி	-10.937
▁பக்கம	-10.937
▁அடக்கம்	-10.937
▁சூடான	-10.937
▁பழம்	-10.9371
▁புத்தகத்த	-10.9372
▁நுழைவு	-10.9372
▁குரலில்	-10.9375
▁76	-10.9376
▁மாமா	-10.9378
▁வீதம்	-10.9378
▁வழங்கல்	-10.9382
▁அப்பாவி	-10.9383
▁யாளர்கள	-10.9383
▁தலைவர்களுக்கு	-10.9386
▁அரசுக்கும்	-10.9387
▁கிளம்ப	-10.9387
▁மகாத்ம	-10.9387
▁சஹ	-10.9389
▁நாச	-10.9399
▁தாண்ட	-10.9399
▁வாரியத்த	-10.94
▁சிரித்த	-10.9402
▁சிறி	-10.9404
▁தாண்டிய	-10.9406
▁ஒவ்வோர	-10.9407
▁பாதயாத்திரை	-10.9407
▁ஏகாதசி	-10.9407
▁சுபாஷ	-10.9407
▁இழுக்க	-10.9408
▁நிறுவப்பட்ட	-10.9408
▁1980	-10.9409
▁கீவ்	-10.9409
▁ரசிக்க	-10.9409
▁ஆண்டாள்	-10.9409
ப்படுவார்கள்	-10.941
▁செந்தில்குமார்	-10.9411
▁வேட்பாளரை	-10.9411
▁ஆணைக்குழு	-10.9413
▁பிறந்தவர்கள	-10.9414
▁ஐயப்பன	-10.9416
▁சுமத்த	-10.9418
▁பூஜையும்	-10.9423
▁டார்	-10.9423
ட்டான	-10.9423
▁பொய்யான	-10.9423
▁செயலை	-10.9429
ம்பட்டி	-10.9429
▁பந்தய	-10.9429
▁கைதிகள்	-10.9432
அதுமட்டுமல்லாமல்	-10.9433
▁லைன்	-10.9438
▁நிலங்கள்	-10.944
▁டெண்டர்	-10.9441
▁மேரி	-10.9441
▁எதிரிகள	-10.9444
▁ரியல்	-10.9447
▁நடந்ததாக	-10.945
▁மனைவிக்கு	-10.945
▁பறந்து	-10.9454
▁காலகட்ட	-10.9458
▁எண்ணை	-10.946
வாலா	-10.9461
▁பிரபலமாக	-10.9467
▁விருதை	-10.9467
▁பழி	-10.947
▁பிரிவினர்	-10.9471
▁முஸ்லிம்கள	-10.9472
▁பேட்டரி	-10.9474
▁800	-10.9477
▁வித்தியாசம்	-10.9477
▁அமைச்சரவையில	-10.9477
▁பெருமையை	-10.9478
▁தோண்ட	-10.9479
▁தரவுகளை	-10.9479
▁ியது	-10.948
▁கொரியா	-10.9482
லைட்	-10.9484
▁19-	-10.9485
▁மகனுக்கு	-10.9486
▁விடவும்	-10.9486
▁செலவை	-10.9488
▁வாட்	-10.9489
▁முதலீட்ட	-10.9489
▁கலைக்க	-10.9491
▁உட்கார	-10.9494
▁கிற	-10.9495
▁மயமாக்க	-10.9495
▁எய்ம்ஸ்	-10.9495
▁நீர்மூழ்கி	-10.9495
▁உளைச்சல	-10.9495
▁சங்கிலி	-10.9496
▁ஈர்ப்பு	-10.9496
▁வேள்வி	-10.9496
▁தலைவலி	-10.9497
▁வகுக்க	-10.9497
▁உயர்மட்ட	-10.9497
▁வழங்கினர்	-10.9498
▁பாதிக்கப்படும்	-10.9502
▁தொடங்குகிறது	-10.9502
▁துர்கா	-10.9502
▁அகற்றி	-10.9503
▁மணிநேரம	-10.9503
▁சான்று	-10.9505
ுள்ளோம்	-10.9505
சுவாமி	-10.9505
▁கடற்படையினர	-10.9509
▁ஷமி	-10.951
சர	-10.9511
▁அம்சங்கள்	-10.9512
▁பார்ப்பத	-10.9512
▁கம்பி	-10.9515
▁விடுங்கள்	-10.9515
▁உறுப்பினர்களை	-10.9519
▁பரிமாற்ற	-10.9519
▁அமைச்ச	-10.9523
▁ஊர்தி	-10.9525
▁பிலிப்	-10.9525
▁மக்களுக்காக	-10.9526
▁ஆலோசனைகளை	-10.9528
▁ிருப்பார்கள்	-10.9528
▁கும்பல	-10.953
▁ஆற	-10.9532
▁இலக்காக	-10.9533
▁பச்ச	-10.9535
▁இந்தியன்ஸ்	-10.954
▁தீட்ட	-10.9542
▁மல்ல	-10.9542
▁மயக்க	-10.9549
▁பழங்கள்	-10.9549
▁கணவரை	-10.9556
▁வருபவர்கள	-10.9562
▁குற்றங்கள	-10.9562
▁பிரச்சனைகள்	-10.9563
▁தினத்தில்	-10.9567
▁மட்டத்தில	-10.957
▁ஊதியம்	-10.957
▁முனைப்ப	-10.9572
▁பயில	-10.9572
▁களிடமும்	-10.9574
▁2010	-10.9579
▁அர்ச்சனை	-10.9585
▁கடைபிடிக்க	-10.9585
▁சீக்கிரம	-10.9585
▁அதற்கமைய	-10.9585
▁சோஷியல	-10.9585
▁அருணாச்சல	-10.9585
▁பிறக்கும்	-10.9587
▁நேர்த்தி	-10.9587
▁தரமான	-10.9587
▁விவேக்	-10.9587
▁பலகை	-10.9587
▁விரும்புகிறது	-10.9588
▁கோள	-10.9589
▁யெ	-10.959
▁மனுதாரர்	-10.9591
▁தபால்	-10.9591
▁வரம்பு	-10.9594
▁In	-10.9594
▁கொள்கின்றனர்	-10.9595
▁திலக	-10.9597
▁வைத்துக்கொண்டு	-10.9601
▁பைடன	-10.9602
▁போவ	-10.9603
▁கலங்க	-10.9603
▁மேம்படுத்துவத	-10.9603
▁நீடிக்க	-10.9605
▁74	-10.9605
▁இடம	-10.9605
▁தூரத்த	-10.9608
▁சமத்துவ	-10.9609
▁கணிசமாக	-10.9611
▁ஐந்தாவத	-10.9613
▁கடத்தப்பட்ட	-10.9615
▁கையாண்ட	-10.9618
▁திருமணமாக	-10.9618
▁பயன்படுத்தலாம்	-10.962
▁கொள்கைகள்	-10.9625
▁செலுத்துவத	-10.9626
▁மெக்	-10.9629
▁for	-10.9635
▁விவகாரங்கள்	-10.9636
▁வந்துவிட்ட	-10.9638
▁குழுமம்	-10.9639
▁61	-10.9639
▁முயன்றார்	-10.964
▁சமன்	-10.9652
ேஸ்வரி	-10.9652
▁ஜேம்	-10.9658
ப்பாக	-10.9659
▁தானாக	-10.9667
▁வியாபார	-10.9668
▁நெடு	-10.9668
டிப்படையில்	-10.9669
▁இழுத்த	-10.967
▁உள்கட்டமைப்ப	-10.9671
▁தசை	-10.9671
▁நியாயம்	-10.9674
▁அடிமை	-10.9675
▁ராஜஸ்தானில	-10.9675
▁தேவானந்தா	-10.9675
▁பொள்ளாச்சி	-10.9675
▁அதிசய	-10.9675
▁மீட்டெடுக்க	-10.9675
▁தந்தார்	-10.9676
▁உறுப்பினர	-10.9676
▁பண்ணிட்ட	-10.9676
▁நயினார்	-10.9676
▁மக்களுக்க	-10.9676
▁பொருத்தவரை	-10.9677
சஷ்டி	-10.9678
▁அறிமுக	-10.9679
ுவீர்கள்	-10.968
▁முதன்	-10.9681
▁அதிகப்படியா	-10.9683
▁வெறி	-10.9683
▁செய்யப்	-10.9685
▁சூரியன	-10.9686
nd	-10.9687
▁நம்பப்படுகிறது	-10.9688
▁தேவைகளை	-10.9689
▁தேவாலய	-10.969
▁ராஜஸ்தான	-10.9695
▁கொழும்பில்	-10.9695
▁சிவபெருமான	-10.9695
▁மில்	-10.9698
▁கருதுகிறார்	-10.9698
▁குக்	-10.9701
▁வருமாறு	-10.9704
▁அடிய	-10.9705
▁நிர்வாகிகளை	-10.9705
க்கிங்	-10.9705
▁புள்ளிகள்	-10.9707
▁தினத்த	-10.9708
▁வழிய	-10.9709
▁உச்சம்	-10.9711
▁மகர	-10.9712
▁சந்திப்பின்	-10.9713
▁கற்ற	-10.9717
▁பேட்டர்கள	-10.9717
▁அஸ்	-10.9718
▁தாழ்வு	-10.9719
et	-10.9719
▁குறிக்கும்	-10.9726
▁குழாய்	-10.9726
▁விமானி	-10.9728
▁நோக்கமாக	-10.9729
▁ஒளிபரப்ப	-10.9733
▁டவுன்	-10.9735
▁ரஷ்யாவை	-10.9737
▁ஆதிக்க	-10.9739
lo	-10.974
▁அடைந்துள்ள	-10.9741
▁வெண்	-10.9749
▁தெரிவ	-10.9753
▁அமைச்சரும்	-10.9756
▁உதவியாளர்	-10.9757
▁கணித	-10.9758
▁கைகளை	-10.9758
▁சாசன	-10.9759
▁சுவாரஸ்ய	-10.976
▁உதவியை	-10.976
▁பிரமுகர்	-10.976
▁எடுத்துள்ளது	-10.9765
▁ஐஐடி	-10.9766
▁மின்னணு	-10.9766
▁முரளி	-10.9766
▁காமராஜர	-10.9766
▁ரிப்போர்ட்	-10.9766
க்குறைய	-10.9766
▁கவிதை	-10.9767
சல	-10.9768
▁வங்காள	-10.9768
▁தென்மேற்கு	-10.9773
▁ஈர	-10.9775
▁வித்	-10.9776
கடந்த	-10.9778
னெ	-10.9779
▁பதற்றத்தை	-10.978
▁கடைகள	-10.9781
▁நீங்கள	-10.9781
▁இருக்கின்ற	-10.9782
▁நிர்ணயிக்க	-10.9786
▁தோல்விக்கு	-10.9787
▁ற்ற	-10.9788
▁ஒருங்கிணைப்பு	-10.979
ஸ்வரர்	-10.9795
▁ஸ்டாலினுக்கு	-10.9799
புள்ளி	-10.9801
▁தொடர்ந்தார்	-10.9802
▁ஆவணி	-10.9804
▁பயணிக்கும்	-10.9809
▁இருப்பு	-10.9809
▁அனுப்பும்	-10.9814
▁வரவழைத்த	-10.9814
வெல	-10.982
▁ரொ	-10.9823
▁உடைக்க	-10.9823
▁பிரச்னைக்கு	-10.9823
▁ஹெட்	-10.9824
▁வீடுகளுக்கு	-10.9825
▁தரவு	-10.9827
▁தோன்றிய	-10.9834
▁இத்திட்ட	-10.9835
▁3,000	-10.9842
▁போரி	-10.9845
▁சொன்னா	-10.9847
▁விளாசி	-10.9848
▁சிறுபான்மை	-10.9849
▁முன்னாடி	-10.9853
▁நடமாட	-10.9857
▁விவரிக்க	-10.9857
▁முளைப்பா	-10.9858
▁வளைகுடா	-10.9858
▁ஃபேஸ்புக்	-10.9858
▁வைகுண்ட	-10.9858
▁பாதியில	-10.9858
▁ராணிப்பேட்டை	-10.9858
▁சிரமம்	-10.9858
▁ஐஸ்வர்யா	-10.986
▁குடிசை	-10.986
▁மிஸ்ரா	-10.986
▁தெப்ப	-10.9862
▁பதவிக்கால	-10.9863
▁கட்டப்பட்டு	-10.9864
▁ஃபார்	-10.9865
▁உருவாகியுள்ள	-10.9867
▁மாநாட்டு	-10.9868
▁அமெரிக்காவுக்கு	-10.9868
▁தாலுகா	-10.9869
▁கிரீன்	-10.987
▁இப்படத்த	-10.9871
▁வரா	-10.9871
▁நாடுகளுக்கும	-10.9872
▁மனத	-10.9875
▁சீரியலில	-10.9876
▁நிம்மதிய	-10.9878
▁சிர	-10.9879
▁அய்யா	-10.9881
▁2018-	-10.9882
▁எவர	-10.9885
▁வளம்	-10.9888
▁மருத	-10.9889
திரி	-10.9891
▁கட்டமைப்பை	-10.9892
▁மால	-10.9894
▁வாய்ப்புள்ளதாக	-10.9895
▁வயதை	-10.9896
▁துக்க	-10.9897
நாதர்	-10.9898
▁ாம	-10.9902
▁பாடல்களை	-10.9904
▁மனோகர	-10.9914
▁தலைப்பு	-10.9915
▁நிதியத்தின	-10.9918
▁ஈடுபட்டார்	-10.9921
▁ராகுல	-10.9922
▁மகனும்	-10.9925
▁செய்கிற	-10.9926
▁கேமராக்கள	-10.9928
▁விமர்சனத்த	-10.9929
▁கேள்விப்பட்ட	-10.9933
▁தொட்டு	-10.9934
▁வருவத	-10.9934
▁கேஸ்கள்	-10.9941
▁ஆகவும்	-10.9941
▁மாளிகைய	-10.9946
▁பெற்றவர்	-10.9946
▁வாசல்	-10.9949
▁சீராக	-10.995
▁கிணறு	-10.995
▁ஶ்ரீ	-10.995
▁திருப்பரங்குன்ற	-10.995
▁விடக்	-10.995
▁லோக	-10.995
▁வெங்கடேஷ்	-10.995
▁பார்வதி	-10.9951
▁கருதுகின்றனர்	-10.9952
▁இளைஞரணி	-10.9952
▁நெறி	-10.9954
▁செல்வராஜ்	-10.9957
▁பலரை	-10.9958
▁ப்பத	-10.9958
▁சாதன	-10.9959
▁ஈஸ்வர	-10.996
▁53	-10.9964
▁குவிக்கப்பட்ட	-10.9966
ப்போகிறார்	-10.9967
▁எல்லாரும	-10.9967
ப்ள	-10.9968
▁அபே	-10.9971
▁சித்தாந்த	-10.9971
▁குவா	-10.9971
▁உணவுத்	-10.9973
▁பிடிப்ப	-10.9974
▁மாறிவிட்டது	-10.9975
▁அழிந்து	-10.9976
▁அலட்சிய	-10.9977
▁செம	-10.9977
▁காரணங்களுக்க	-10.9979
▁காரணமா	-10.998
▁உரையை	-10.9982
▁உணர்வை	-10.9985
▁எச்சரிக்க	-10.9989
▁ஏற்பட்டுள்ளதாக	-10.9989
▁வெளிநாட்ட	-10.9993
▁குறியீடு	-10.9995
▁செல்லவில்லை	-10.9997
▁பிடித்தது	-10.9998
▁திரும்பும்	-10.9998
▁இக்கோவிலில்	-11.0002
▁ஒப்படைக்கப்பட்ட	-11.0003
▁4:	-11.0005
▁வைக்கப்படும்	-11.0006
▁பதவிகள்	-11.0007
▁கூட்டாளி	-11.0008
▁இடம்பெற	-11.0009
▁திரட்டி	-11.001
▁யி	-11.0016
▁கருணா	-11.0016
▁தலையில	-11.0016
▁பொறுமை	-11.002
▁இரத்த	-11.0021
▁சமர	-11.0021
▁ஆட்சிக்	-11.0026
▁கிளப்பிய	-11.0027
▁நோயாளிகள்	-11.0029
▁குளிர்	-11.0029
லட்சுமி	-11.0031
▁நபருக்கு	-11.0037
▁விதிமுறைகள	-11.0041
▁சிப்	-11.0044
▁அடுக்குமாடி	-11.0044
▁இசையமைப்பாளர	-11.0044
▁திரைக்கதை	-11.0044
ள்ளதாகவும்	-11.0044
▁உலகெங்க	-11.0045
▁2025	-11.0046
▁இந்நாட்ட	-11.0047
▁பறித்து	-11.0049
▁பார்வையிட	-11.0049
▁கையெழுத்திட்ட	-11.005
▁வேல	-11.0052
▁ராமச்சந்திரன்	-11.0052
W	-11.0059
▁நேஷன	-11.0059
▁பதிலை	-11.0059
▁சுட்ட	-11.006
▁கட்டடம்	-11.006
▁வடிவில்	-11.0063
▁சுற்றுப்பயணம்	-11.0066
▁பாடிய	-11.0066
▁சாடிய	-11.0068
▁சித்தர்	-11.0071
▁வேலி	-11.0072
▁வழிவகுக்கும்	-11.0072
▁நடிப்பு	-11.0074
▁விஷயமாக	-11.0074
சில்	-11.0075
▁அனல்	-11.0077
▁ஒருவன்	-11.0078
▁களுக்குள்	-11.0081
வித்தியாசமான	-11.0082
▁இடமாக	-11.0084
▁செய்யும்போது	-11.0084
▁சற்ற	-11.0084
ீஸ்வர	-11.0085
▁பாஸ்கர	-11.0088
▁எவ	-11.0088
▁புகாரை	-11.0089
▁பூட்ட	-11.009
▁u	-11.0091
▁அமைச்சரும	-11.0093
▁இருந்ததாகவும்	-11.0095
▁கண்டிக்க	-11.0098
▁ஷாவ	-11.0099
▁டாக்	-11.01
▁பேசு	-11.0104
▁குரலை	-11.0106
▁தியாக	-11.0106
▁பிறப்ப	-11.011
▁கிறிஸ்தவ	-11.0114
▁இங்கிருந்த	-11.0115
35	-11.0117
தேவி	-11.0117
▁விழிப்புணர்வ	-11.012
▁நெருக்கமா	-11.0123
▁கொள்வார்	-11.0124
ியுள்ளது	-11.0124
▁கைவிட்ட	-11.0125
▁செளத	-11.0125
▁ஆட்டமிழந்த	-11.0126
▁பொறுப்பேற்று	-11.0128
▁பாணியில	-11.0128
யென்றால்	-11.013
▁நிறுவனங்களில	-11.013
▁சாத	-11.0137
▁நிறைவேற்று	-11.0137
▁அவதான	-11.0137
▁மறை	-11.0138
▁Tamil	-11.0138
▁அதுகுறித்த	-11.0138
▁குருபகவான	-11.0138
▁பவுர்ணமி	-11.0138
▁பெருந்தொற்ற	-11.0138
▁வேட்பு	-11.0138
▁எதிர்வினை	-11.0138
▁கேட்டறிந்த	-11.0139
▁விளக்குகிறார்	-11.014
▁வாசனை	-11.0141
▁தொடர்கிறது	-11.0141
▁அடுத்தகட்ட	-11.0142
▁2007	-11.0143
தற்காக	-11.0147
▁144	-11.0149
▁தைரிய	-11.0149
▁பரப்பி	-11.0151
▁மூலம	-11.0151
▁பத்ம	-11.0152
▁ஜு	-11.0154
▁திருச்சியில்	-11.0156
▁ஷாட்	-11.0159
▁மூழ்கிய	-11.016
▁2017-	-11.016
▁கரம்	-11.0162
▁மனசு	-11.0162
துங்க	-11.0163
▁அறிவுறுத்தி	-11.0164
▁வெளியாகின	-11.017
▁நாதன்	-11.017
▁02	-11.0177
▁பிரசன்ன	-11.018
▁கவிழ்ந்த	-11.0181
▁ஹர்ஷ	-11.0186
▁அனுமன	-11.0186
▁X	-11.0188
▁ரசாயன	-11.0188
▁பரத	-11.0188
▁வேலைத்திட்டம்	-11.0193
▁கடற்கரையில	-11.0196
ாண்ட	-11.0205
▁சோரன்	-11.0206
ர்த்தி	-11.0207
▁நிலத்தில	-11.0209
▁திருநங்கை	-11.0209
▁கோடியாக	-11.0218
லெ	-11.0219
▁வட்டாரத்த	-11.0219
▁நிமிடங்கள	-11.022
▁சந்திரசூடன்	-11.0221
▁ஐரோப்பா	-11.0223
▁அதிகரிப்ப	-11.0223
▁தலைவர்கள	-11.0227
▁வடி	-11.0227
▁ஆதாரம்	-11.0227
▁அறிவிக்கப்பட	-11.0228
▁கடி	-11.0229
▁அப்பாவ	-11.0229
▁லக்ன	-11.0231
▁2006	-11.0232
▁அநுர	-11.0233
▁லாட்டரி	-11.0233
▁வீண்	-11.0234
▁கணிப்ப	-11.0234
▁சிரிக்க	-11.0235
▁கல்லறை	-11.0235
▁ஜோசப	-11.0237
▁மன்ன	-11.0239
▁வலய	-11.0243
▁இடமாற்றம்	-11.0244
ம்மன்	-11.0245
▁காப்பீட்டு	-11.0246
▁அட்டாக்	-11.0247
▁நற்	-11.0249
▁பெற்றுக்கொண்ட	-11.025
▁சம்பவத்திற்கு	-11.0259
▁வெளிநாட்டில	-11.026
▁மினி	-11.0262
▁டெக்	-11.0263
▁88	-11.0263
▁நாட்டில	-11.0267
▁ஈடுபட்டிருந்த	-11.0267
▁ஜாமீன	-11.0269
el	-11.0274
▁மெசேஜ்	-11.0274
▁பத்தி	-11.0278
▁பதிலளித்தார்	-11.0279
▁காவ	-11.0281
▁மங்கல	-11.0284
▁ஷே	-11.0285
வேண்டியிருக்கும்	-11.0286
ராசா	-11.0287
▁யாவ	-11.0287
▁நீரா	-11.0287
▁போலீஸாருக்கு	-11.0289
▁ஆலயத்த	-11.029
ாந்திர	-11.029
ai	-11.0297
▁வசூலிக்க	-11.0299
ce	-11.0301
st	-11.0302
▁ஈடுபட்டதாக	-11.0304
ருத்த	-11.0309
▁ஆளுநராக	-11.0311
▁நிறத்தில்	-11.0311
▁சிறப்ப	-11.0316
▁சம்ப	-11.0317
▁கரக	-11.0317
▁திரவ	-11.0321
கான்	-11.0323
▁வந்ததால்	-11.0325
▁போலீசாருக்கு	-11.0326
▁இயந்திர	-11.0328
▁மனுத்தாக்கல்	-11.0329
▁செல்சியஸ	-11.0329
▁போக்சோ	-11.0329
▁மருமகள	-11.033
▁ராபர்ட்	-11.033
▁விஷயங்களில	-11.0331
▁கேரளாவ	-11.0333
▁தம்	-11.0334
▁"...	-11.0337
▁வந்தடைந்த	-11.034
▁அகற்றப்பட்ட	-11.0342
▁இயல்பாக	-11.0343
▁அவர்களே	-11.0345
▁வைப்ப	-11.0346
▁ஆணையர	-11.0349
▁மீடியாவில	-11.0349
▁உருவெடுத்த	-11.0351
▁2014-	-11.0351
na	-11.0352
▁தேர்வுக்கு	-11.0353
▁பலவீன	-11.0355
▁புராண	-11.0361
▁வாழ்க	-11.0362
▁சிரியாவ	-11.0362
▁?"	-11.0363
▁தீவிரப்படுத்த	-11.0363
▁(0	-11.0363
▁பார்வைய	-11.0364
▁சுற்ற	-11.0366
▁நிலவரம்	-11.0368
▁பானு	-11.0369
▁பாதுகாத்து	-11.0369
▁வளை	-11.0371
▁நினைவிட	-11.0371
▁பின்னடைவு	-11.0373
▁வரவேற்ப	-11.0374
▁சாரா	-11.0376
▁கருத்துக்கள்	-11.0377
▁புத்தகங்கள்	-11.038
▁வடம்	-11.0381
▁டாஸ்	-11.0384
▁பேசப்பட்ட	-11.0386
▁கொண்டிருப்பத	-11.0388
▁யோசித்து	-11.0392
மில்லாத	-11.0396
▁அதுமட்டுமல்ல	-11.0398
▁செயல்படுத்தி	-11.0398
▁நிக	-11.0401
▁மணிகண்டன்	-11.0404
▁ஈரான	-11.0405
.15	-11.0408
▁விஜயம்	-11.0408
▁போதுதான்	-11.0412
▁சந்தித்தது	-11.0413
▁வேண்டுமென்று	-11.0413
▁ில	-11.0414
▁பிளாக்	-11.0417
▁பண்	-11.0426
▁ஒன்றிணை	-11.0426
▁ஒப்பிட	-11.0426
▁தன்னம்பிக்கை	-11.0426
▁அந்தவகையில்	-11.0426
▁கேள்வியெழுப்ப	-11.0426
▁ஜூனியர்	-11.0426
▁தரிசிக்க	-11.0426
▁தீண்டாமை	-11.0426
▁லிமிடெட்	-11.0426
▁அமிர்த	-11.0427
▁பிள்ளையார்	-11.0427
▁தர்மபுரி	-11.0427
▁உடன்பாடு	-11.0428
▁அறிஞர்	-11.0428
▁பரப்புரை	-11.0428
▁மாறுபட்ட	-11.043
▁அமீர்	-11.043
▁குளிக்க	-11.0431
▁பொங்க	-11.0432
▁செலவுகளை	-11.0433
▁கேட்கப்பட்ட	-11.0434
▁வீத	-11.0436
▁கணேசன்	-11.0436
▁நீங்கி	-11.0438
▁எடுக்கப்பட்டது	-11.044
▁ஆளுங்கட்சி	-11.044
▁ராணுவத்தை	-11.0441
▁மாகாணங்களில	-11.0441
▁கிரே	-11.0442
▁பல்கலைக்	-11.0442
▁காட்சிப்படுத்த	-11.0442
▁வாழ்நாள்	-11.0444
▁பீர	-11.0446
▁கல்லூரிகளில	-11.0446
▁சுற்றுலாத்துறை	-11.0446
▁96	-11.0446
▁த்திடம்	-11.0448
▁அரசிடம	-11.0448
▁இருக்கை	-11.0451
▁11-	-11.0453
▁வருமானத்த	-11.0454
23	-11.0454
ாலய	-11.0457
▁யாழ்ப்பாண	-11.0458
▁அரியலூர்	-11.0459
▁பதக்கம்	-11.0459
▁தாவ	-11.046
▁மண்டபத்த	-11.0464
▁கிரகங்கள்	-11.0465
▁நிகழ்ச்சியும்	-11.0466
▁போக்கை	-11.047
▁விவாதத்தை	-11.047
▁சோழன	-11.0473
▁கழ	-11.0474
▁நிராகரிக்க	-11.0475
▁வெளியூர்	-11.0479
▁கணக்கை	-11.048
▁71	-11.0481
▁சாதனங்கள	-11.0484
▁ic	-11.0484
▁அதுபோல	-11.0487
▁ஐந்தாம	-11.0488
▁ஏற்படுத்துவத	-11.049
▁தந்திர	-11.0491
▁மருத்துவர்கள	-11.0491
▁(20	-11.0492
▁நாடுகளுடன	-11.0492
யளிக்க	-11.0495
▁சேத	-11.0497
▁யிருக்கிறது	-11.05
▁ஹவுஸ	-11.0502
▁கிழக்க	-11.0502
▁அழித்து	-11.0504
▁கிரிக்கெட்டில	-11.0506
▁உயிரோட	-11.051
வாதி	-11.051
▁ஆலோசகர	-11.0516
▁திட்டங்களுக்கு	-11.0516
▁ஏற்பட்டதாக	-11.0516
▁நினைத்துக்	-11.0517
▁பரா	-11.0519
▁தொடர்பாகவும்	-11.052
▁ஃபெ	-11.052
▁நிர்வாகத்தின	-11.0522
▁அம்ப	-11.0522
▁கரையோர	-11.0524
▁சமஸ்கிருத	-11.0524
▁சூறாவளி	-11.0524
▁மிளகாய்	-11.0524
▁சாலையோர	-11.0524
▁பங்காற்ற	-11.0524
▁நாகரிக	-11.0524
▁தனுசு	-11.0525
▁ஒழுங்குபடுத்த	-11.0525
▁வாதங்களை	-11.0527
▁பரிவார	-11.0527
▁சாண	-11.0528
▁காந்திக்கு	-11.0531
▁சீருடை	-11.0531
▁குறைப்பு	-11.0531
▁தொழிற்சாலைகள	-11.0534
▁இல்லையே	-11.0534
▁செல்வதாக	-11.0534
▁193	-11.0534
▁உஷா	-11.0535
▁பூக்கள	-11.0536
பவர்	-11.0536
▁தெரிவிக்கவில்லை	-11.0538
▁பருப்பு	-11.0538
▁ஆண்டை	-11.0539
▁கப்	-11.0539
வதி	-11.054
்மோகன்	-11.054
▁குரல	-11.054
▁செல்வி	-11.054
▁94	-11.0542
▁வைத்திலிங்கம்	-11.0542
▁போகலாம்	-11.0545
▁கோலாகலமா	-11.0546
▁பீதி	-11.0547
▁தகுந்த	-11.0548
▁சவாலான	-11.055
▁அத்த	-11.0551
▁கண்காணிப்ப	-11.0551
▁திருமஞ்சனம்	-11.0552
▁செய்தாலும்	-11.0552
ேஷன்	-11.0553
▁முதலை	-11.0553
▁கண்களை	-11.0554
▁பாசன	-11.0556
▁செம்ம	-11.0557
▁பிளவு	-11.0557
▁வைப்	-11.056
▁செய்தபோது	-11.056
▁பாஜகவுடன	-11.0562
▁கார்கள்	-11.0564
▁இருக்கையில்	-11.0564
▁மனிதர்களை	-11.0564
▁முக்த	-11.0565
▁பெற்றவர்கள	-11.0569
▁வைப்பு	-11.057
▁கொள்வத	-11.0574
▁மழைநீர	-11.0577
▁வெச்ச	-11.0578
▁மீடியா	-11.0578
தாரர்	-11.0581
ண்டர்	-11.0581
▁அமர்த்த	-11.0581
▁விதிப்ப	-11.0582
▁பைலட்	-11.0585
▁காபி	-11.0587
▁வழிகாட்டுதல	-11.0589
ke	-11.0589
▁துப்பாக்கிய	-11.0592
▁ஏலத்த	-11.0593
▁முதலீட்டாளர்கள்	-11.0594
▁தாயை	-11.0594
▁முதலாம	-11.0597
▁ராசா	-11.0597
▁மாதா	-11.0598
▁வரலாற்ற	-11.0602
8)	-11.0603
▁கோஷ	-11.0608
▁கட்டடத்த	-11.0609
▁விமானப்	-11.061
▁தோன்றும்	-11.0611
த்தொடர்ந்து	-11.0614
▁கமல்ஹாசன்	-11.0616
▁தரப்பும்	-11.0616
▁உயிரியல	-11.0618
▁டாலர்கள்	-11.0621
▁1991	-11.0623
▁பாஸ்போர்ட்	-11.0623
▁உத்தியோகபூர்வ	-11.0623
▁ஆலோசிக்க	-11.0624
▁பிச்சை	-11.0624
▁சிறைச்சாலை	-11.0624
▁சூர்யகுமார்	-11.0624
▁திருக்கோவிலூர்	-11.0624
▁ரம்யா	-11.0626
ஃபர்	-11.0627
▁சும்மா	-11.0627
▁பன்றி	-11.0629
▁2003	-11.0629
ாலி	-11.0633
▁லண்டனில	-11.0634
▁இதையொட்டி	-11.0634
▁பாதுகாப்புத்	-11.0635
▁எட்டாம	-11.0636
▁ஆசியாவ	-11.0639
▁ஆசாத்	-11.0639
▁பொருத்தமான	-11.064
▁அதிமுகவுக்கு	-11.0643
▁போலியான	-11.0643
▁இதன	-11.0643
▁தொகுதிகளுக்கு	-11.0644
▁வழங்குகிறது	-11.0644
▁துல்லியமாக	-11.0644
▁நிலவியது	-11.0653
▁வக்ர	-11.0659
▁புத்தி	-11.066
▁நுழை	-11.0661
▁பறவைகள்	-11.0665
▁சாதியினர	-11.0666
▁பயோ	-11.0666
▁அந்	-11.0669
▁அமைப்பதற்க	-11.0671
▁எதுவ	-11.0673
றிவு	-11.0676
▁விதிக்கப்பட்டது	-11.0678
▁கழி	-11.0679
▁உடல்நலம்	-11.0681
▁பகை	-11.0691
▁சாஸ்திர	-11.0691
▁ற்கு	-11.0692
க்கரை	-11.0694
▁நியமிக்கப்பட	-11.0696
▁பிறந்து	-11.0698
▁உண்மையாக	-11.07
▁டொலர்	-11.07
▁la	-11.07
▁நீடிக்கும்	-11.07
▁மாலத்தீவ	-11.0701
▁ஆர்வலர்	-11.0703
▁வையும்	-11.0705
▁ராவத்	-11.0705
▁தடுப்ப	-11.0706
▁பழமை	-11.0707
ன்றி	-11.0708
▁பயிரிட	-11.0709
▁வன்னியர்	-11.0709
▁நேர்காணல்	-11.0709
▁மேலிடம்	-11.0711
▁அதுக்கு	-11.0712
பீர்	-11.0714
ிற்காக	-11.0718
▁அவங்கள	-11.072
▁தொங்க	-11.0721
▁தாக்குதல்களை	-11.0723
▁ட்டி	-11.0723
கும்பகோணம்	-11.0723
▁அஸ்ஸாம	-11.0723
▁பள்ளிக்கல்வி	-11.0724
▁தரப்பிலிருந்து	-11.0724
▁ஜெலன்ஸ்கி	-11.0724
▁தெய்வானை	-11.0724
▁ராகுல்காந்தி	-11.0724
▁சேமிக்க	-11.0725
▁உறுதிமொழி	-11.0726
▁கார்த்திகேயன்	-11.0727
▁கட்சிக்குள்	-11.0727
▁முறைமை	-11.0729
▁மேடம்	-11.0729
▁க்கா	-11.073
▁விதிமுறை	-11.0731
▁யைத்	-11.0733
▁வைக்கிறது	-11.0734
▁ஆறாம	-11.0735
▁அமலாக்க	-11.0736
▁அளிப்ப	-11.074
▁ஆரம்பம்	-11.074
▁பனை	-11.0741
▁லாக	-11.0741
▁ஞாயிறு	-11.0741
▁முதல்வரும்	-11.0742
▁எதிர்கொண்டு	-11.0742
▁வேறுபாடுகள	-11.0744
▁மேட்டூர	-11.0745
ராஜன்	-11.0746
▁களாலும்	-11.0746
▁வாரத்திற்கு	-11.0748
▁வரிசையாக	-11.0748
▁திட்டி	-11.0749
▁பயணத்தில	-11.075
▁விரக்தி	-11.0753
▁அழுத்தத்தை	-11.0754
▁பரிச	-11.0754
▁ரச	-11.0754
ுக்கொள்கிறேன்	-11.0755
▁அச்சத்தை	-11.0755
▁பஞ்சாப்ப	-11.0756
▁டிக்	-11.0758
தீன்	-11.0758
▁கிரகணம்	-11.076
▁78	-11.0761
▁தீர்ப்பில்	-11.0761
▁புடவை	-11.0762
நாங்கள்	-11.0763
▁விட்டுக்	-11.0768
▁பிரசாத	-11.0769
தார்	-11.0769
▁இலக்குகளை	-11.077
▁திசையில	-11.077
▁லிஸ்	-11.0772
▁பிரிக்கப்பட்ட	-11.0773
▁இருக்கா	-11.0774
▁இத்தாலி	-11.0776
▁பெற்றால்	-11.0776
▁டெல்	-11.0776
▁மனை	-11.0777
▁ஏந்திய	-11.0778
▁செய்தவர்	-11.0779
▁மாடல	-11.0779
▁காஸ்	-11.0781
▁விபரங்கள	-11.0782
▁கிட	-11.0786
▁புரத	-11.0787
▁Ma	-11.0795
▁பிரச	-11.08
▁மிட	-11.0801
▁பிரிவினை	-11.0801
▁பேராசிரியர	-11.0805
▁62	-11.0805
▁முதலீடுகள்	-11.0807
▁சப	-11.0812
▁தென்னிந்திய	-11.0812
▁வாழ்வில	-11.0813
▁நோய	-11.0814
▁சூழ்ந்த	-11.0814
வலி	-11.0817
▁கடைகளில	-11.0817
▁கம்	-11.0821
▁சாலையை	-11.0821
▁இந்நிகழ்ச்சி	-11.0824
▁குற்றால	-11.0824
நகர்	-11.0825
▁சரியில்லை	-11.0825
▁பேட்ஸ்மேன்	-11.0825
▁பிடிபட்ட	-11.0826
▁ரம்மி	-11.0827
▁சீதா	-11.0829
▁மேற்கொண்டுள்ள	-11.083
▁2001	-11.0834
▁உடனடி	-11.0835
▁கூறு	-11.0837
▁பாண்டே	-11.0837
▁பூனை	-11.0838
▁ாளர	-11.0838
▁ஒத்தி	-11.0838
க்கடை	-11.0839
▁யாருடைய	-11.084
▁காணப்படுகின்றது	-11.0843
▁தருவத	-11.0843
▁லாமே	-11.0844
j	-11.0845
▁ரோகித்	-11.0847
▁பதிவை	-11.0847
▁விளம்பரங்கள	-11.0848
▁டுகள்	-11.0849
வாய்ந்த	-11.0851
▁லிஸ்ட்	-11.0852
▁15-	-11.0853
▁புள்ளிகள	-11.0855
▁நிறைவ	-11.0858
▁இயக்குநராக	-11.0861
▁குடு	-11.0862
ஸ்ரீ	-11.0863
▁தவறிய	-11.0864
▁படுத்தி	-11.0865
▁அரசியல்வாதிகள்	-11.0866
▁வேட	-11.0866
▁லியோ	-11.0866
▁உரையாட	-11.0873
▁மாட்டி	-11.0873
▁கேட்டுள்ளார்	-11.0874
▁நிறைவேற்றப்பட	-11.0876
▁சபாநாயகர	-11.0878
▁கள்ளச்சாராயம்	-11.0878
▁பள்ளிக்கூட	-11.0881
▁இளங்கோவன்	-11.0882
▁ஒன்றுதான்	-11.0888
வுள்ள	-11.0895
▁தங்கிய	-11.0895
▁எச்ச	-11.0895
▁Mo	-11.0899
சுப்பிரமணியன்	-11.0899
▁வாசலில	-11.091
▁ஏமாற்றம்	-11.0911
▁அறிவித்திருந்த	-11.0913
▁இந்துத்துவ	-11.0913
▁திட	-11.0917
▁ஒத்த	-11.0918
▁உயர்வை	-11.092
▁ஜாதக	-11.0922
▁உருக	-11.0922
▁டிங்	-11.0923
▁இயக்கத்தை	-11.0924
▁பெருந்தோட்ட	-11.0926
▁கிரிப்டோ	-11.0926
▁நிலைநாட்ட	-11.0927
▁கருவறை	-11.0927
▁லேச	-11.0927
▁வாஸ்	-11.0929
▁சிவகாசி	-11.0929
▁06	-11.0929
▁கல்லூரிகள்	-11.093
▁மொய்	-11.093
▁வாந்தி	-11.0931
▁அதிகாரங்கள	-11.0932
▁கோடிக்கணக்க	-11.0933
ap	-11.0935
▁வயதுடைய	-11.0936
▁198	-11.0937
▁காரணங்களை	-11.0937
▁ோருக்கு	-11.0937
▁அருந்த	-11.0938
▁அனுப்பினார்	-11.0948
Y	-11.095
▁நாடி	-11.095
▁கங்கா	-11.0952
▁தியான	-11.0953
▁பித்த	-11.0954
il	-11.0954
▁அதிமுகவினர்	-11.0957
▁கடைக்கு	-11.0957
▁ெ	-11.097
▁பாடசாலைகள	-11.0973
▁விண்கலம்	-11.0974
போதே	-11.0975
▁அமைக்கப்பட்டது	-11.0975
▁பான	-11.0977
▁வரப்பட்டது	-11.0979
▁வாங்குவது	-11.098
▁புல்ல	-11.0982
▁விர	-11.0982
▁நெதர்லாந்து	-11.0982
▁மாவு	-11.0984
▁தாமத	-11.0988
▁மகன்கள்	-11.0989
▁மீள்	-11.0996
பொழுது	-11.0996
▁இணக்கம	-11.1
▁ஊர்வல	-11.1001
▁கொல்கத்தாவ	-11.1002
▁Y	-11.1006
▁நிமிடம்	-11.1007
▁வாறு	-11.1008
காந்த	-11.1008
▁மீனம்	-11.101
▁பொருந்தும்	-11.1012
▁பலமாக	-11.1013
ity	-11.1013
▁ரவீந்திர	-11.1015
▁ட்ரோன்	-11.1015
றப்ப	-11.1017
▁சீக்கிய	-11.1018
▁செயற்	-11.1019
▁தென்னாப்பிரிக்க	-11.102
்ளோ	-11.1021
▁புண்	-11.1022
▁அழகாக	-11.1024
▁விமர்சன	-11.1025
▁சாப்பாட	-11.1028
▁வோட	-11.1029
▁1999	-11.103
▁இப்ராஹிம்	-11.103
▁கிளிநொச்சி	-11.103
▁பொறுப்பேற்க	-11.103
▁மாம்பழ	-11.103
▁விபரீத	-11.103
▁ட்ரா	-11.103
▁ஒதுங்கி	-11.103
▁கற்பிக்க	-11.103
▁உழைப்பு	-11.1031
▁சேகரிப்ப	-11.1031
▁நெதன்யாகு	-11.1031
▁வாதிட்ட	-11.1032
▁ஹிந்தி	-11.1032
▁பாசி	-11.1032
▁விஜே	-11.1033
▁மக்களே	-11.1034
▁செல்போனில்	-11.1034
▁ஜாதகத்த	-11.1035
▁திணற	-11.1035
▁சித்தார்த்	-11.1038
▁சந்தனம்	-11.1039
▁பிரிவுகள	-11.1039
▁ஸ்டார்ட்	-11.1041
▁வெப்	-11.1046
▁பால்குடம்	-11.1047
▁பணப்	-11.1048
▁சோகத்தை	-11.1049
▁தருணத்தில்	-11.1049
▁விவாதங்கள	-11.105
▁குழப்பத்த	-11.105
▁அமைச்சக	-11.1051
▁முன்மொழிவு	-11.1053
▁மாவட்டத்தில	-11.1055
▁சேர்த்தது	-11.1056
தாவது	-11.1057
▁சம்பந்த	-11.1057
்தீப்	-11.1058
▁கட்டுரையில்	-11.1058
▁சென்ட்	-11.1059
▁மவு	-11.106
▁செலுத்தினார்	-11.106
ுல்லா	-11.1061
ஃபீ	-11.1062
▁பிழைத்த	-11.1062
▁கிடைத்துள்ள	-11.1065
▁விவர	-11.1066
▁வெட்டு	-11.1066
▁வளாகத்த	-11.1067
▁சம்பத்	-11.1067
▁ராணுவத்த	-11.107
▁வுள்ள	-11.1072
12	-11.1075
ாததால்	-11.1076
▁கவச	-11.1077
▁ஒலிக்க	-11.1078
▁காச	-11.108
▁வழங்குவதாக	-11.108
▁அழுது	-11.1083
me	-11.1087
▁செட்டி	-11.1089
▁புற்றுநோய	-11.109
சிஸ்	-11.1093
▁தார்	-11.1093
▁ஆரம்பமாக	-11.1094
▁வுள்ளதாக	-11.1096
▁கவசம்	-11.1098
ீன்	-11.1101
▁போலீச	-11.1104
▁இதயம்	-11.1104
▁கட்டமைப்ப	-11.1108
ண்டல்	-11.1111
▁உடம்ப	-11.1111
▁மலேசியா	-11.1114
▁குந்த	-11.1119
▁தேவ்	-11.112
ுநர்	-11.1123
டீ	-11.1123
▁தலைய	-11.1124
▁அறியப்பட்ட	-11.1127
▁குண்டுகள்	-11.1127
▁எடுக்கப்பட	-11.1128
▁தூண்டி	-11.1129
▁2022)	-11.1132
▁நெகிழ்ச்சி	-11.1134
▁1996	-11.1134
▁காளஹஸ்தி	-11.1134
▁திட்டவட்டமாக	-11.1134
▁தென்கிழக்க	-11.1134
▁கிணற்ற	-11.1134
▁தாம்பர	-11.1134
▁ரத்நாயக்க	-11.1134
▁புக்	-11.1134
▁பவானி	-11.1134
▁குணமடைந்த	-11.1135
▁காமாட்சி	-11.1136
▁காஞ்சி	-11.1136
▁மெட்ரிக்	-11.1136
▁குருவின	-11.1137
▁பிறக்க	-11.1138
▁30-	-11.1139
▁18-	-11.1139
ஐசிசி	-11.114
▁விரைய	-11.114
▁சொத்துக்கள்	-11.114
▁பதிவிட	-11.1141
▁எரிச்சல	-11.1142
▁நாள்களாக	-11.1142
▁97	-11.1145
▁ஆங்கிலத்தில	-11.1145
▁தவிர்த்த	-11.1147
▁கடலை	-11.1147
▁பெண்களுக்க	-11.1149
மில்லாமல்	-11.115
▁பகவானை	-11.1151
▁போலீசில	-11.1152
▁துளை	-11.1153
▁கணக்குகள்	-11.1156
▁வெங்காயம்	-11.1156
▁ஸ்டீ	-11.116
▁வார்டுகளில்	-11.1162
▁தினர	-11.1163
▁மலர்கள	-11.1164
▁காட்சியை	-11.1166
▁போயி	-11.1166
▁வாட்ச்	-11.1169
▁ார	-11.1171
▁காய்கறிகள்	-11.1171
▁ஏல	-11.1171
▁பிரம்மோற்சவ	-11.1172
▁லட்சிய	-11.1173
▁ஐஏ	-11.1174
▁நஷ்ட	-11.1181
▁பலனை	-11.1182
▁என்னவாக	-11.1182
▁சாடி	-11.1182
▁துளி	-11.1183
▁தோன்றியது	-11.1184
▁மனுக்கள்	-11.1187
▁ரேட்	-11.1188
▁வையாக	-11.1188
▁விவாதங்கள்	-11.1189
▁விழாவிற்க	-11.119
ெய்	-11.1192
▁மனுக்கள	-11.1193
▁துதான்	-11.1194
▁நிறம்	-11.1195
▁அதிர்ச்சிய	-11.1195
▁தருணம்	-11.1197
▁ஸ்கோர	-11.1198
▁பணியிடங்கள	-11.1199
ட்ரிக்	-11.12
▁முள்ள	-11.12
▁கூட்டங்கள	-11.1203
▁(5	-11.1208
▁பேச்சாளர்	-11.1214
வாசல்	-11.1214
▁வாசித்த	-11.1215
▁வைரலாக	-11.1215
▁பாக்	-11.1215
▁இடதுசாரி	-11.1215
▁வகுப்பறை	-11.1217
▁னோ	-11.1219
▁பரிதாப	-11.1222
▁தீர்மானத்த	-11.1226
▁நகருக்கு	-11.1227
சியா	-11.1229
▁இந்தியாவும்	-11.1231
▁ஏவுகணைகள்	-11.1233
ப்படை	-11.1235
▁சன்னி	-11.1237
▁ஒப்பிடுகையில்	-11.1239
▁சித்தராமையா	-11.1239
▁மசாலா	-11.1239
▁காகித	-11.1239
▁தோற்கடித்த	-11.1239
▁நிலத்தடி	-11.1239
▁மாதமாக	-11.124
▁தொற்றுநோய்	-11.124
▁கசிந்த	-11.124
▁நடுநிலை	-11.124
▁பொருட்டு	-11.124
▁விழாவையொட்டி	-11.124
▁சின்ஹா	-11.124
▁மாண்புமி	-11.1243
▁முப்படை	-11.1243
▁ஈர்க்க	-11.1243
▁ஒத்துழைப்பை	-11.1243
▁ஆப்பிரிக்கா	-11.1249
▁ஆதரவாளர	-11.1249
▁பறித்த	-11.1252
▁ar	-11.1255
▁எழுப்பியுள்ளார்	-11.1255
▁காலத்துக்கு	-11.1257
▁மாணவர்களும்	-11.1258
▁மால்	-11.1258
▁போயிட்ட	-11.1259
▁நிகழ்	-11.126
ோன்	-11.1262
▁இடம்பெற்றிருந்த	-11.1266
ாளராக	-11.1268
▁பேண	-11.1269
▁போர்டு	-11.1269
▁விவாதித்த	-11.1273
▁கொடுக்கப்பட்டது	-11.1274
▁மாரடைப்பு	-11.1275
▁நோக்கத்தில்	-11.1278
▁வழக்கறிஞர	-11.1279
▁முழுவதிலும	-11.128
▁நிலையிலும்	-11.1281
▁அபிஷேக்	-11.1281
▁அஞ்சு	-11.1282
▁உயிரிழந்தவர்கள	-11.1285
▁திதி	-11.1286
▁பூமிக்கு	-11.1294
▁தீட்சிதர்கள்	-11.1294
▁ஒன்றாகும்	-11.1296
▁அளிக்கப்படும்	-11.1303
▁ஜெய்ஸ்வால்	-11.1304
th	-11.1304
▁பாபர	-11.1306
▁சித்திர	-11.1309
▁அறியப்பட	-11.1312
▁தீர்மானங்கள்	-11.1314
▁கணக்கிட	-11.1316
ராய	-11.1317
▁விவாதத்த	-11.1317
▁கலாசாரம்	-11.1319
▁பங்குகள்	-11.1321
▁நேரம	-11.1322
விளக்கு	-11.1323
▁பணக்கார	-11.1325
▁விடுத்துள்ளது	-11.1326
▁தோட்டத்த	-11.1328
▁சுக்	-11.1329
▁ஸ்வ	-11.133
▁நட்டா	-11.133
▁மில்லி	-11.1331
▁சிரியா	-11.1331
▁அதிகரிப்பத	-11.1332
▁தூக்கம்	-11.1334
கெ	-11.1335
▁யிருந்த	-11.1336
▁நாடகம்	-11.1341
கொள்ள	-11.1342
▁இருந்தபோதிலும்	-11.1345
▁தைப்பூச	-11.1345
▁மூதாட்டி	-11.1345
▁வடிவமைத்த	-11.1345
▁மகத்தான	-11.1345
▁தரிசித்த	-11.1345
▁கோபால்	-11.1346
▁ஒப்பிடும்போது	-11.1346
▁வாட்ஸ்அப்	-11.1346
▁பேட்டியளித்த	-11.1346
▁குல்தீப்	-11.1346
▁வைத்திருக்கிறார	-11.1347
▁பூதேவி	-11.1347
▁அக்கம்	-11.1348
▁மாச	-11.135
▁தந்தது	-11.1354
மொழி	-11.1355
▁அனுபவித்த	-11.1357
▁இந்துத்துவா	-11.1361
▁சிந்த	-11.1362
ென்ன	-11.1363
வற்றை	-11.1364
▁மரணத்திற்கு	-11.1364
▁வழக்கம்போல	-11.1365
▁சினிமாவ	-11.1365
▁இயல்பான	-11.1365
▁நகல	-11.1368
▁கழித்த	-11.1369
▁பெருமளவ	-11.1371
▁திருவனந்தபுரம்	-11.1373
பாணி	-11.1373
▁ுபவர்	-11.1373
பக்கம்	-11.1374
▁வேண்டுமென்றால்	-11.1374
▁ராஜேந்திரன்	-11.1375
சஸ்	-11.1376
▁என்பவருக்கு	-11.1377
▁நூற்றாண்டில	-11.1378
▁செயற்கைக்கோள்	-11.1379
▁ரிஸ்	-11.138
▁வைத்துவிட்டு	-11.1381
▁சிந்து	-11.1382
▁போராட்டத்த	-11.1382
▁பதிப்ப	-11.1384
▁மந்திரி	-11.1388
▁மாலிக்	-11.139
▁முண்ட	-11.1398
▁இவன	-11.1399
▁விமர்சகர்கள	-11.1403
▁கிராமத்திற்கு	-11.1409
▁மூவ	-11.1413
▁ப்ரீ	-11.1413
▁தெரிவிப்ப	-11.1416
▁காளியம்மன்	-11.1418
▁நோயால	-11.1421
▁மின்னல	-11.1423
வல்லி	-11.1424
▁தெரிவித்துள்ளன	-11.1425
▁காலத்தின்	-11.1426
▁வைத்தியர்	-11.1427
▁ஏப்	-11.1427
▁கிள	-11.1428
▁பங்கேற்றார்	-11.143
▁உறைந்த	-11.143
▁மாத்திரம்	-11.1431
▁அகதிகள	-11.1432
▁சமாதான	-11.1433
▁கிரீ	-11.1434
▁கொண்டிருப்ப	-11.1437
▁மைதானத்த	-11.1437
▁14-	-11.144
சுந்தரி	-11.1441
▁பயனுள்ள	-11.1441
▁எழுந்தருளிய	-11.1445
▁தீர்த்தம்	-11.1449
▁சர்மாவ	-11.1449
▁கடையில	-11.145
ஸ்டாலின	-11.1451
▁மக்களால	-11.1452
▁நிர்மாண	-11.1452
▁திகழ	-11.1452
▁பிரதிபலிக்க	-11.1452
ுபவர்	-11.1453
▁சமுத்திர	-11.1453
▁அகமதாபாத்	-11.1453
▁நுரையீரல	-11.1453
▁பரிசோதித்த	-11.1453
▁புகழேந்தி	-11.1453
▁எஞ்சிய	-11.1453
▁விகாரை	-11.1453
▁வாபஸ்	-11.1453
▁கொடைக்கானல	-11.1453
▁இணங்க	-11.1453
▁நிதியாண்டில	-11.1453
▁பூசாரி	-11.1453
▁கைதான	-11.1454
▁பொருளை	-11.1454
▁ஆரம்பிச்ச	-11.1454
▁பூஜா	-11.1454
▁திருடி	-11.1455
▁கேசவ	-11.1455
▁மன்னர	-11.1455
▁எழுகிறது	-11.1455
▁நடக்கின்றன	-11.1455
▁ஆயிரத்திற்கு	-11.1457
▁தந்தையை	-11.146
▁ஊழல	-11.146
▁ஆலோசித்த	-11.1461
▁ஆக்கிரமிப்ப	-11.1464
▁வழங்கப்படவில்லை	-11.1467
▁வருமா	-11.1469
▁சட்டமூலம்	-11.1474
▁அபார	-11.1475
▁காக்கும்	-11.1475
▁வைத்தே	-11.148
▁சரிந்து	-11.1482
▁பேனர்	-11.1485
▁கற்களை	-11.1487
▁பிறந்தநாளை	-11.1487
▁காரியம்	-11.1492
▁கிங்	-11.1496
▁அரைசதம்	-11.1497
▁கிராமத்த	-11.1497
▁புனே	-11.1501
▁பார்வையில்	-11.1501
ிட்டு	-11.1504
▁ஸ்டேட்	-11.1504
▁களாம்	-11.1506
▁நீட்டிக்க	-11.1507
▁முது	-11.1507
▁குற்றப்பிரிவ	-11.1508
▁தைரியம்	-11.1516
▁பொறியாளர்	-11.1519
ாபி	-11.152
▁உடல்கள்	-11.152
▁மங்கலம்	-11.1521
▁பவனி	-11.1521
▁மேம்படுத்தும்	-11.1524
▁என்பதைத்	-11.1524
▁சாதனைகளை	-11.1524
▁சுப்ரமணிய	-11.1526
▁இடைத்தேர்தல	-11.1526
▁கைப்பற்றியது	-11.153
▁பெரியளவில	-11.153
▁செல்லப்பட்டு	-11.1532
▁லதா	-11.1536
டெக்	-11.1537
▁ாரு	-11.1537
▁மாஸ்க்	-11.154
▁ஆங்கிலம்	-11.154
▁சுத்த	-11.1541
▁ஊக்க	-11.1542
▁விலக்கி	-11.1543
▁படைக்க	-11.1545
கேஷ்	-11.1546
▁வைப்பார்	-11.1546
▁பள்ளிகளுக்கு	-11.1548
▁பாலித்த	-11.1549
பிஐ	-11.1552
காட்	-11.1553
▁தல்	-11.1554
▁பயணிகளுக்கு	-11.1558
▁பிரமாண	-11.1561
▁பொதுவெளி	-11.1562
▁உண்ணாவிரத	-11.1562
▁ஒழுக்க	-11.1562
▁தென்னரசு	-11.1562
▁மானாமதுரை	-11.1562
▁தாலிபன்	-11.1562
▁அருணாசல	-11.1562
▁கழிப்பறை	-11.1562
▁ஒவ்வொன்ற	-11.1562
▁பம்ப	-11.1562
▁ாதீங்க	-11.1563
▁ராணா	-11.1563
▁ஆளான	-11.1564
▁ப்படுகின்ற	-11.1567
▁எழுத்த	-11.1569
▁தழுவிய	-11.1571
▁மாவ	-11.1572
▁சாப	-11.1574
▁வசித்த	-11.1575
▁வெங்கட்	-11.1579
▁அலுவலகத்துக்கு	-11.1581
▁குணம்	-11.1583
▁தருணங்கள	-11.1584
▁ூர்	-11.1586
▁கொள்கிறது	-11.1587
▁பரவல	-11.159
▁சிராஜ்	-11.159
ெடுக்க	-11.1591
▁நாட்	-11.1592
▁வகித்தார்	-11.1593
▁சிக்கன	-11.1595
▁பழக	-11.1597
▁தசாப்தங்கள	-11.1597
▁தலையிட்டு	-11.1599
▁ஆர்ப்பாட்ட	-11.1602
▁பாரிஸ	-11.1602
▁கொள்வ	-11.1603
ஏக்கள	-11.1606
▁எகிப்து	-11.1606
▁எதிர்பார்த்து	-11.1606
▁குண்டர்	-11.1607
▁தாய்லாந்து	-11.1608
▁புரி	-11.1608
▁வருத்தத்த	-11.1611
▁திருவா	-11.1613
▁பங்களிப்ப	-11.1613
▁கெடு	-11.1615
▁காவல்துறைக்கு	-11.1616
▁நீராடி	-11.1618
▁கூறுவத	-11.1619
▁செயின்	-11.162
▁காலிஸ்தான்	-11.162
▁ுங்க	-11.1621
▁பந்துகள	-11.1623
▁குமாரி	-11.1624
▁ுவர்	-11.1625
▁பங்கை	-11.1625
மல்	-11.1627
▁நுட்ப	-11.163
▁சாதித்த	-11.1633
ஓபிசி	-11.1634
▁அவசியம	-11.1634
▁எம்பிக்கள்	-11.1635
▁சாட்டிய	-11.1635
▁நபராக	-11.1639
க்காடு	-11.1639
▁சகோதரர்கள்	-11.1645
▁வைபவ	-11.1646
▁ஆயிர	-11.1647
▁வென்றார்	-11.1648
யிரம்	-11.1652
▁மசோதாக்கள	-11.1653
▁வளர்த்த	-11.1653
▁தீப்	-11.1653
▁அனுபவித்து	-11.1661
om	-11.1663
கிர	-11.1663
க்கூடும்	-11.1666
▁பேட்டிங்க	-11.1667
▁தேரர்	-11.1667
▁நாயகன்	-11.167
க்கோட்டை	-11.1671
▁செவிலியர்	-11.1671
▁ஜார்கண்ட்	-11.1671
▁கார்பன்	-11.1672
▁வடிவேலு	-11.1672
▁பகீர்	-11.1672
▁முதியோர்	-11.1672
▁கண்டுபிடிப்பு	-11.1672
▁காண்பிக்க	-11.1672
▁தேஜஸ்வி	-11.1672
▁விசுவாச	-11.1672
▁வனிதா	-11.1673
▁தயவு	-11.1673
▁ருக்க	-11.1673
▁குழும	-11.1673
▁தருண	-11.1674
▁கைகூட	-11.1674
▁ுவதோடு	-11.1677
▁சர்வீ	-11.1678
▁விசாரித்தபோது	-11.1678
▁உயர்தர	-11.1678
▁காலமானார்	-11.1679
▁திட்டத்த	-11.1683
.....	-11.1684
▁வழிகாட்டி	-11.1686
▁திரையரங்குகள	-11.1694
▁எப்போத	-11.1697
▁நெட்	-11.1697
▁மீறல்	-11.1698
▁சாதிக்க	-11.1698
▁காணப்படுகின்றன	-11.1699
▁பற்ற	-11.17
▁தமிழர்கள	-11.1702
▁லவ்	-11.1702
▁சாவடி	-11.1707
▁லட்டு	-11.1708
▁நிமிடத்தில	-11.1708
▁மாவட்டங்களுக்கு	-11.1708
▁ஒப்புதல	-11.1709
▁கைப்பற்றப்பட்ட	-11.1709
ுவதில்லை	-11.1711
▁அதிகப்படுத்த	-11.1713
▁நிகழ்வுகளை	-11.1714
▁தொலைத்	-11.1715
▁ஊரை	-11.172
.25	-11.1723
▁சுகாதாரம்	-11.1729
▁விரிவாக்க	-11.1735
▁மொழிகளில	-11.1736
▁கீத	-11.1736
▁அனைத்துக்	-11.174
▁நடுவில	-11.174
காம	-11.1741
▁தீவிரவாதிகள்	-11.1743
▁தீவ	-11.1744
▁மொஹ	-11.1746
▁ஒடிசாவ	-11.1746
▁கட்டப்பட்டுள்ள	-11.1747
▁எதற்கு	-11.175
▁ஆட்டங்களில	-11.1752
▁சங்கங்கள	-11.1752
▁குவிந்து	-11.1758
▁அலுவலர்கள்	-11.1759
▁பதிவிட்டுள்ள	-11.1761
▁அறிவிப்புகள்	-11.1763
▁இடிக்க	-11.1764
▁துக்கு	-11.1765
▁ராஜபக்ச	-11.1767
▁ஜான்சன்	-11.1768
▁ஐஸ்	-11.1774
▁கேப்	-11.1775
▁எங்கிருந்த	-11.1778
▁ரவுடி	-11.1778
▁திறக்கப்பட்ட	-11.178
தானே	-11.1781
▁வலியுறுத்துகிற	-11.1782
ஹிஸ்புல்லா	-11.1783
▁அர்ஜென்டினா	-11.1783
▁சொர்க்க	-11.1783
▁திஸாநாயக்க	-11.1783
▁வேகப்பந்துவீச்ச	-11.1783
▁அப்புறப்படுத்த	-11.1783
▁ாமலும்	-11.1783
▁அனர்த்த	-11.1783
▁கோமாளி	-11.1783
▁நிலவரப்படி	-11.1783
▁குத்தகை	-11.1784
▁சொல்கிறேன்	-11.1784
z	-11.1786
▁புரிதல்	-11.1787
▁நந்தினி	-11.1788
▁அடைந்தார்	-11.1788
▁விநாயக	-11.1788
▁போகிறோம்	-11.1788
▁தம்பதியினர	-11.1788
▁கோவில்பட்டி	-11.1791
வழி	-11.1792
▁வணங்கி	-11.1792
▁குக்கி	-11.1793
▁வெளிநாடுகளுக்கு	-11.1793
நி	-11.1793
▁செய்துகொள்ள	-11.1793
▁சிரித்து	-11.1793
▁சோகம்	-11.1794
▁நிதிநிலை	-11.1795
▁ஹெஸ்பொலா	-11.1795
ஒ	-11.1798
▁விரைந்த	-11.1801
▁காயங்கள்	-11.1801
▁சோல	-11.1804
▁அளித்தது	-11.1804
▁பியூ	-11.1805
▁அரு	-11.1808
▁ன்னா	-11.181
▁ஃப்ள	-11.1811
▁கூர்	-11.1811
▁ிருக்கிற	-11.1812
▁நடுவ	-11.1813
▁அணைக்க	-11.1814
▁தலைப்பில	-11.1818
▁வளங்கள	-11.1819
▁குல்	-11.1819
▁வாதி	-11.1821
▁சீனாவை	-11.1822
▁தரவில்லை	-11.1825
▁ண்ட	-11.1825
▁விசை	-11.1826
▁தய	-11.1826
▁வளைய	-11.1827
▁யூத	-11.1829
▁ோடு	-11.1832
▁பொன்னிய	-11.1832
▁யுத்த	-11.1832
▁தேவையை	-11.1832
▁சுற்றுக்கு	-11.1833
▁அதிகளவ	-11.1833
▁ராமன்	-11.1834
▁புஷ்பா	-11.1838
▁கிளாஸ	-11.1839
▁இக்கோவில	-11.1839
▁மண்டை	-11.1839
▁சந்தி	-11.1839
▁காரணிகள	-11.184
▁விளங்கும்	-11.1841
▁கொடுக்கப்படும்	-11.1841
▁எட்டி	-11.1842
▁கஷ்டப்பட்ட	-11.1844
▁எடுப்பது	-11.1849
▁ஃபார்ம	-11.185
▁அனைத்த	-11.1851
▁வேர்	-11.1851
▁ஆகிவிட்ட	-11.1852
ேட்டிங்	-11.1852
▁விஜயன்	-11.1852
▁மணிநேர	-11.1855
▁இல்லம்	-11.1862
▁as	-11.1867
▁சீரியல	-11.1867
▁வந்திருக்க	-11.1869
▁ஈர்த்த	-11.1869
▁நாடாளுமன்றம்	-11.187
க்கூட	-11.1871
▁கண்ணில்	-11.1874
நாத	-11.1875
▁எட்டிய	-11.1876
▁உபகரணங்கள்	-11.1876
▁திரவிய	-11.188
▁மார்ப	-11.1881
▁சிக்கலை	-11.189
த்தொகை	-11.1892
▁சேகர	-11.1893
ர்ஸ்	-11.1895
▁ஆவணங்கள	-11.1895
▁ராஷ்டிர	-11.1895
▁பரிசீலிக்க	-11.1895
▁பெருநகர	-11.1895
▁என்பார்கள்	-11.1895
▁குற்றஞ்சாட்ட	-11.1895
▁கொடுப்பதற்க	-11.1895
▁கவிதா	-11.1897
▁வாழ்த்துக்களை	-11.1897
ரீவில்லிபுத்தூர்	-11.1897
▁முற்பட்ட	-11.1897
▁செய்கிறோம்	-11.1898
▁சல்	-11.1898
▁ரத்தின	-11.1898
▁மேம்பட்ட	-11.1899
▁ஆலயம்	-11.19
▁*	-11.19
▁வாதிட	-11.19
▁சேலத்தில	-11.1901
▁கிறார்	-11.1905
▁கதாபாத்திரத்த	-11.1906
▁காதலை	-11.1907
▁விரும்புவதாக	-11.1908
▁அமர்	-11.1908
▁வரைக்கும	-11.1909
▁புரியும்	-11.191
▁இருந்தா	-11.1911
▁துறையினர	-11.1911
▁சொல்லிவிட்டு	-11.1912
▁தயா	-11.1912
▁வெறுப்ப	-11.1912
▁விக்	-11.1913
▁சொல்லுங்கள்	-11.1913
▁சுனக்	-11.1914
▁டம்	-11.1916
▁அனுபவத்தை	-11.1916
▁ரன்னில	-11.1918
▁வந்தவர்கள்	-11.1919
▁எல்லைப்	-11.1922
▁சாட்சிய	-11.1922
▁செலவுத்	-11.1923
லோக	-11.1924
▁வாத்திய	-11.1925
▁பாதுகாவலர்	-11.1929
▁சேர்ந்தார்	-11.193
▁மனிதன்	-11.1931
▁காரணமான	-11.1932
▁ஒப்பிட்டு	-11.1934
▁நேச	-11.1934
▁குடும்பத்துக்கு	-11.1936
▁செயலாளரும்	-11.1937
▁தரப்பிலும	-11.1937
▁ஆய்வ	-11.1939
▁குட்ட	-11.194
▁வயிற்று	-11.194
▁வழங்கவில்லை	-11.1941
▁அடிக்கும்	-11.1942
▁பிரவேச	-11.1942
ராம	-11.1947
▁காட்டுகின்றன	-11.1948
▁கத	-11.1949
▁ரிக்	-11.1951
▁மொன்ற	-11.1952
▁திறக்கப்பட்டு	-11.1952
▁திட்டத்துக்க	-11.1955
▁குன்ன	-11.1955
▁யில்லை	-11.1955
▁தாக்கு	-11.1956
▁ஏவ	-11.1957
▁வளாகம்	-11.1957
▁நரசிம்ம	-11.1958
போட்டியிடுகிறார்	-11.1958
ெழ	-11.196
▁படகில	-11.1961
▁படைகளை	-11.1964
▁தொடங்கியுள்ள	-11.1967
▁வழிகள்	-11.1969
▁நடுவர்	-11.1969
கூ	-11.197
▁எரிய	-11.1972
▁விகித	-11.1973
▁08	-11.1974
▁டொலர்கள	-11.1974
▁பாப்ப	-11.1983
▁எடையை	-11.1985
de	-11.1985
▁விளக்கி	-11.199
▁பூர்ண	-11.199
▁வியாபாரி	-11.199
ருட்டி	-11.1991
▁கொண்டோம்	-11.1991
க்கட்டை	-11.1993
▁பிரேக்	-11.1994
▁பாகிஸ்தானை	-11.1995
▁றி	-11.1996
▁இஸ்லாம	-11.1998
▁சென்றிருந்த	-11.2002
▁பிரபாகர	-11.2007
▁ஆளுநரை	-11.2007
▁அப்பாற்பட்ட	-11.2009
▁இச்சம்பவ	-11.2009
▁சமீபகாலமாக	-11.2009
▁தொலைதூர	-11.2009
▁தொழிற்சங்க	-11.2009
▁ரஹ்மான்	-11.2009
▁ஹார்மோன்	-11.2009
▁குபேர	-11.2009
▁பணிப்புரை	-11.2009
▁அரிவாள	-11.2009
▁தலையீடு	-11.2009
▁மௌன	-11.2009
▁நூற்றுக்க	-11.2009
▁துண்டிக்கப்பட்ட	-11.2009
▁நாதர்	-11.2012
▁வியப்ப	-11.2012
▁புழு	-11.2013
▁நடனம்	-11.2014
▁பையன்	-11.2014
▁2005	-11.2015
▁குறைப்பதற்க	-11.2016
▁வந்தார்கள்	-11.202
▁பார்ட்டி	-11.202
▁ஜல	-11.202
▁ஹசன்	-11.202
▁செய்யப்பட்டதாக	-11.2021
▁மனைவியும்	-11.2024
▁en	-11.2028
▁திரும்பினார்	-11.203
▁சாத்தியமான	-11.203
▁வழங்குமாறு	-11.203
▁ராதா	-11.2031
▁வேகத்தை	-11.2034
▁வருண	-11.2034
▁ri	-11.2035
▁தலைமைக்கு	-11.2035
▁துபாயில	-11.2038
▁மைக்	-11.204
▁விழாவுக்க	-11.2041
▁வீட்டிற்குள்	-11.2041
x	-11.2042
▁துரோகம்	-11.2044
▁சேதப்படுத்த	-11.2045
▁உத்தரவிடப்பட்ட	-11.2046
▁அழகர்	-11.2048
▁சியா	-11.2051
▁சார்ஜ	-11.2052
▁பொருளாதாரத்	-11.2053
▁சக்	-11.2057
▁பவுண்டரிகள	-11.2058
▁ab	-11.2061
▁பக்த	-11.2062
▁சந்தேகங்கள	-11.2064
▁அடக்க	-11.2065
▁ேஸ்வரர	-11.2066
▁2.5	-11.2068
▁அனுப்புவத	-11.2069
▁வருந்த	-11.2069
▁விஷயங்கள	-11.2073
▁ஆபரேஷன்	-11.2073
▁அழகிரி	-11.2075
▁மகளுக்கு	-11.2075
▁சமாதானம்	-11.2079
▁முதலிடம்	-11.208
▁பிளே	-11.208
▁விமர்சித்துள்ள	-11.208
▁விஸ்வநாத	-11.2083
▁உண்டாக்க	-11.2083
▁ஓட்டங்கள	-11.2086
▁ஏறிய	-11.209
▁பரிசோதனைக்க	-11.2093
▁உரம்	-11.2096
▁பாலை	-11.2096
▁நட்ட	-11.2097
▁சக்தியை	-11.2097
▁விடுபட	-11.21
▁கத்தார	-11.2103
▁பந்துகளை	-11.2107
ிற்குள்	-11.211
▁குட்	-11.2111
▁யாகம்	-11.2116
▁அறிவித்துள்ள	-11.2121
▁ஸ்ரீலங்க	-11.2121
▁வேந்தர	-11.2123
▁2026	-11.2124
▁காற்றழுத்த	-11.2124
▁ஜவஹர்	-11.2124
▁மெரினா	-11.2124
▁மூலிகை	-11.2124
▁மெஸ்ஸி	-11.2124
▁ராதிகா	-11.2124
▁வான்வழி	-11.2124
▁காரைக்குடி	-11.2124
▁யாழ்	-11.2124
▁த்துடனும்	-11.2124
▁ஜஸ்டின	-11.2124
▁தரத்தை	-11.2125
▁கபில்	-11.2125
வயிறு	-11.2125
▁க்கிட்டு	-11.2125
▁சட்டப்பூர்வ	-11.2125
▁தோன்றுகிறது	-11.2125
▁நீச்சல்	-11.2125
▁வரத்	-11.2125
▁உதவித்தொகை	-11.2126
▁பயின்ற	-11.2127
▁உடல்நல	-11.2127
▁லாலு	-11.2127
▁மேலிட	-11.2128
▁காமராஜ்	-11.2128
▁உரையாற்றினார்	-11.2128
▁சம்மன்	-11.2128
▁வேலைத்திட்ட	-11.2128
▁பகிரங்கமாக	-11.2131
▁செய்பவர்கள்	-11.2131
▁நிறை	-11.2132
▁இனம்	-11.2134
▁கொடுத்துள்ளது	-11.2134
▁இருப்பதற்கு	-11.2136
▁மேட்டுப்பாளையம்	-11.2136
▁நிலநடுக்கத்த	-11.214
▁விக்கெட்டு	-11.214
▁அத்	-11.2142
▁னாக	-11.2147
▁போடி	-11.2147
▁ரஷ்யாவிற்கு	-11.2147
▁கால்வாய்	-11.215
▁பார்க்கிறார்கள்	-11.2152
-19	-11.2152
▁வைபவம	-11.2153
▁வேண்ட	-11.2154
▁பிரேம்	-11.2155
▁பட்டம	-11.2157
▁பட்நாயக்	-11.2157
▁ஹர	-11.2158
▁தளமாக	-11.2158
▁யொன்ற	-11.2166
▁சீசன	-11.2166
▁செயல்படுத்தப்பட	-11.2169
▁ஹார்ட	-11.2169
▁உதாரணம்	-11.2171
▁விமர்சித்தார்	-11.2172
▁வய	-11.2173
▁திர	-11.2174
▁லோக்	-11.2174
▁பூஸ்ட	-11.2175
▁அகதிகள்	-11.2175
▁வெளிச்சத்த	-11.2176
▁விழும்	-11.2176
▁பைக்க	-11.2178
▁92	-11.2184
▁தாக்கும்	-11.2185
▁இறந்தவர்கள	-11.2187
▁ள்ளாக	-11.2191
▁அணிந்திருந்த	-11.2191
▁சந்தோஷ்	-11.2191
▁அலகு	-11.2194
ரியன்	-11.2197
▁எனவேதான்	-11.2197
▁எழும்	-11.2197
▁சுற்றுலாத்	-11.2199
▁ur	-11.22
கிறதா	-11.2203
ive	-11.2206
▁உழைத்து	-11.2211
▁வாக்குப்	-11.2213
▁கோயம்புத்தூர்	-11.2216
▁ஆகம	-11.2219
மெண்ட்	-11.2219
▁அம்பேத்கர	-11.2221
▁பின்னர	-11.2222
▁பொருட்	-11.2225
▁கடன்களை	-11.2229
▁13-	-11.2231
க்கென	-11.2233
▁ஃப்ர	-11.2233
▁தியாகராஜ	-11.2238
▁ஆட்டமிழக்க	-11.224
▁சட்டத்தரணி	-11.224
▁நிர்வகிக்க	-11.224
▁இதுதவிர	-11.224
▁கொள்வனவு	-11.224
▁பிரெஞ்ச	-11.224
▁மகப்பேற	-11.224
▁வடமாநில	-11.224
▁வியட்நாம	-11.224
▁குஷ்பு	-11.224
▁சஞ்சீவ	-11.224
▁ப்ளூ	-11.224
▁சம்பாதித்த	-11.224
▁பொருட்படுத்த	-11.224
▁செயற்படுத்த	-11.224
▁வெச்சு	-11.224
▁முதலிடத்தில	-11.224
▁முற்றுப்	-11.2241
▁நம்புகிறோம்	-11.2241
▁எனக்கூற	-11.2241
▁மலைப்பகுதி	-11.2242
▁நிதிஷ்குமார்	-11.2242
▁தாராள	-11.2242
▁தொடர்புகொண்ட	-11.2243
▁அஷ்ட	-11.2243
▁பற்கள	-11.2243
▁தொடங்கிவிட்ட	-11.2243
▁வைரஸ	-11.2244
▁நிற்கிறது	-11.2244
▁இளமை	-11.2244
▁வரவேண்டும்	-11.2244
▁காலப்பகுதி	-11.2245
▁மழைக்கால	-11.2245
▁ஆஞ்சநேயர்	-11.2246
▁வியாபாரத்த	-11.2249
▁லாக்	-11.225
▁ஸா	-11.2252
▁நினைக்கிறார்கள்	-11.2253
▁நினைத்தால்	-11.2254
▁முற்றுகையிட்ட	-11.2255
ில்லாமல்	-11.2259
▁கலப்ப	-11.2262
ச்சர்	-11.2262
▁ஏற்பாட்ட	-11.2263
கொண்டிருக்கிறோம்	-11.2264
▁நோன்பு	-11.2264
▁பிசி	-11.2264
um	-11.2266
▁கிளப்	-11.2267
▁பாக்ஸ்	-11.2268
▁அர்ஷ	-11.2268
▁முடிந்ததும்	-11.2269
▁கிறார்கள்	-11.2274
▁இடைத்தேர்தல்	-11.2278
▁நிர்ணயம்	-11.2279
ிருக்கலாம்	-11.2281
▁நிபுணர	-11.2282
சிங்	-11.2285
▁இன்னிங்ஸில	-11.2287
காளியம்மன்	-11.229
ாவின்	-11.2291
▁படகுகள்	-11.2294
▁ஈட்டி	-11.2296
▁திரும	-11.2296
id	-11.23
▁பிப்	-11.2301
▁கொடுப்பத	-11.2302
▁நொ	-11.2305
▁பொட்ட	-11.2306
▁குறைக்கப்பட்ட	-11.2308
▁மாஸ்கோ	-11.2308
▁ரூபாயும்	-11.2311
யில்லாத	-11.2313
▁மாமியார்	-11.2318
▁விடவில்லை	-11.232
▁காலக்	-11.2323
▁விவாதிக்கப்பட்ட	-11.2324
▁ப்பது	-11.2325
▁இடம்பெறும்	-11.2327
▁தவித்து	-11.233
▁ப்பட்டி	-11.2337
▁ஊழியர	-11.234
▁பட்டியலிட	-11.234
▁குளிர	-11.2342
▁ஈடுபடுத்த	-11.2342
▁பூத	-11.2344
▁இறக்கி	-11.2345
▁விண்ணப்பம்	-11.2345
▁வகுப்புகள்	-11.2345
▁மோகன	-11.2346
▁இரண்டாக	-11.2346
▁இடைய	-11.2353
▁வயநாட	-11.2355
▁சாம்ச	-11.2356
▁அமேசான	-11.2357
▁டெபாசிட்	-11.2357
▁சந்தீப்	-11.2357
▁மின்னஞ்சல	-11.2357
▁சின்னத்திரை	-11.2358
▁கலாய்த்த	-11.2358
▁மாயாவதி	-11.2358
▁ஸ்கேன்	-11.2358
▁வாக்குவாதத்த	-11.2358
▁நடக்காது	-11.2358
▁சேமித்த	-11.2359
▁தகவலின்படி	-11.2359
▁வைத்திருப்ப	-11.2361
▁தோசை	-11.2362
▁வாசிப்ப	-11.2362
▁வெளிப்படை	-11.2362
▁உதவுகிறது	-11.2363
▁வாசிக்க	-11.2364
▁அதைத்தொடர்ந்து	-11.2364
▁ுகிறதா	-11.2364
▁ராஜி	-11.2364
▁தேவார	-11.2365
▁பேய்	-11.2366
▁வரையறை	-11.2369
▁வரம்ப	-11.237
▁கொள்ளையடித்த	-11.2372
▁உள	-11.2376
▁புதுமை	-11.2379
▁தலைமைக்	-11.238
▁நிரூபித்த	-11.238
▁வாங்குவதற்க	-11.238
▁2016-	-11.238
▁உறை	-11.2386
▁விருதுகள்	-11.2387
ப்பட்டார்	-11.2393
▁நிற்ப	-11.2395
▁ஹைதராபாத்த	-11.2395
▁காணலாம்	-11.2398
▁விதிக்கப்படும்	-11.2403
▁நடப்பதாக	-11.2406
▁ரஞ்சன்	-11.2408
▁சிறந்தது	-11.2408
▁குற்றப்பத்திரிக	-11.2412
▁பண்டிகையை	-11.2416
▁பாவம்	-11.2417
▁முகாம்கள	-11.2417
▁ஆவேச	-11.2418
▁காயங்கள	-11.2418
▁எண்ணப்பட்ட	-11.2424
art	-11.2431
▁அமைச்சரின	-11.2432
▁இடங்கள	-11.2433
▁பிரச்னைகளுக்கு	-11.2435
▁தொடங்கப்பட்டது	-11.2437
▁காக	-11.2437
▁சடலங்கள	-11.2437
▁07	-11.244
▁(4	-11.2442
▁ஆர்வத்த	-11.2442
யின்மை	-11.2444
▁கட்டப்பட்டது	-11.2445
▁கூர்ந்த	-11.2446
▁கூறுகின்ற	-11.2446
▁மேற்படி	-11.2448
▁பெருமளவில	-11.2448
▁விருதுகளை	-11.2451
▁கொண்டுவந்த	-11.2451
▁பைக்கில	-11.2452
நல்லூர்	-11.2454
▁அருக	-11.2455
▁சும	-11.2456
▁ma	-11.2459
▁கண்ணீர	-11.2463
▁கொண்டிருக்கிற	-11.2464
▁மறைவ	-11.2467
▁co	-11.247
▁தடம்	-11.2472
▁பார்க்காமல்	-11.2472
சிபிக்	-11.2473
▁அம்பாள	-11.2473
▁றது	-11.2475
▁இருந்திருக்கும்	-11.2476
=	-11.2476
▁பரிசீலனை	-11.2477
▁பேஸ்புக்	-11.2477
▁அநீதி	-11.2477
▁வைணவ	-11.2477
▁பறிகொடுத்த	-11.2477
▁ஷெரீப்	-11.2477
▁திங்கள்கிழமை	-11.2477
▁84	-11.2477
▁கிடைச்ச	-11.2477
▁வகிக்கிறது	-11.2477
▁வள்	-11.2477
▁பெயரிடப்பட்ட	-11.2478
▁கேமராவ	-11.2479
கேட்	-11.2479
▁தப்பித்து	-11.2479
▁09	-11.248
▁அடையாளங்கள	-11.248
▁முன்னேறிய	-11.2481
▁ிறதா	-11.2481
▁இதைத்தொடர்ந்து	-11.2481
▁சடலத்தை	-11.2482
▁சரவண	-11.2483
▁பேசிக்கொண்ட	-11.2484
▁இருந்தபோதும்	-11.2485
▁விமரிசை	-11.2486
▁பன்னீர்செல்வத்த	-11.249
▁வியாழன	-11.2491
ஹோ	-11.2492
▁மதச்சார்ப	-11.2492
▁பொழுதுபோக்க	-11.2494
▁ad	-11.2495
▁கப்பல்கள்	-11.2496
▁வகைகளை	-11.2496
▁விசய	-11.2498
▁ப்போவதாக	-11.2499
▁குமரி	-11.25
னிங்	-11.25
▁மேல்முறையீட	-11.2501
பியா	-11.2506
▁குறிப்ப	-11.2507
▁உடலுறவு	-11.2512
▁விஷயம	-11.2514
ற்கு	-11.2516
▁விஷய	-11.2516
சங்கர்	-11.2517
▁மாட்டிக்	-11.252
▁துறைமுகம்	-11.2521
▁அர்ப்பணிப்பு	-11.2524
▁வாசிகள	-11.2524
▁குத்த	-11.2526
பட்ச	-11.2529
▁பெருகி	-11.253
▁மியா	-11.2533
▁எட	-11.2534
▁நாகராஜ	-11.2535
▁கும்பம்	-11.2536
▁அணிவகுப்பு	-11.2538
▁செர்	-11.2538
▁வினா	-11.2538
▁சிலரை	-11.2539
▁மனிதர்களுக்கு	-11.2539
▁திட்டமிட்டுள்ள	-11.254
▁கைவிடப்பட்ட	-11.2543
▁மஞ்ச	-11.2544
▁செல்லலாம்	-11.2546
▁சந்திரா	-11.2548
▁கருதப்பட	-11.2552
▁வைத்தால்	-11.2553
▁ஸ்வீ	-11.2556
▁அய்ய	-11.256
▁பக்கங்கள	-11.256
ப்படுவதற்கு	-11.2561
▁மண்டப	-11.2561
▁அணுகி	-11.2565
▁எடுப்பதற்க	-11.2566
▁j	-11.2568
ராயி	-11.257
▁நெருக்கம்	-11.257
▁விஞ்ஞான	-11.257
▁எப்	-11.257
▁குவித்து	-11.2571
▁அம்ச	-11.2571
▁சூரியனை	-11.2572
▁போராளி	-11.2574
▁இணைத்துக்	-11.2576
▁se	-11.2576
அப்	-11.2576
▁17-	-11.2577
▁கிட்டே	-11.2579
▁வீண	-11.258
▁துண்ட	-11.2581
▁ராஜராஜ	-11.2581
▁பிரதமரை	-11.2582
▁வெளியுறவுத்	-11.2582
▁ராமகிருஷ்ண	-11.2582
▁துன்ப	-11.2583
▁ஊடுருவ	-11.2584
▁இக்க	-11.2587
▁ion	-11.2588
▁ஆங்கிலேயர்கள	-11.2592
▁மகிழ	-11.2593
▁பிரமுகர்கள்	-11.2594
▁கணக்க	-11.2595
▁இல்லாம	-11.2597
▁ஆழ்த்திய	-11.2597
▁பணியமர்த்த	-11.2597
▁பதிவேற்ற	-11.2597
▁சமாளித்த	-11.2597
▁சுப்ரீம்	-11.2597
▁தாமஸ்	-11.2597
▁கதைகள்	-11.2597
▁ுகிறீர்கள்	-11.2598
▁ஒருவருக்க	-11.2598
▁மாவட்டங்களை	-11.2598
▁விடுவதாக	-11.2599
▁திகழ்ந்த	-11.2599
▁கருத்தரங்க	-11.2599
▁ro	-11.26
▁அடிவார	-11.26
▁இருந்தோம்	-11.2602
▁சமைக்க	-11.2603
▁தெரியவரும்	-11.2605
▁தனித்	-11.2605
▁சிறப்புமிக்க	-11.2606
▁காரர்கள	-11.2606
▁மரு	-11.2609
▁ப்போ	-11.261
▁சத்திர	-11.2611
கோரி	-11.2611
▁முதன்மையான	-11.2612
▁மீனவ	-11.2619
▁உருவாக்கினார்	-11.2619
▁போட்டியாளர்கள	-11.262
▁தமக்கு	-11.2621
os	-11.2622
▁பதவியேற்பு	-11.2624
▁சென்றாலும்	-11.2625
னோம்	-11.2625
▁பரப்பளவ	-11.263
▁பொற்	-11.2631
▁வலிமையான	-11.2631
▁இணைக்கப்பட்ட	-11.2633
▁காட்டியது	-11.2634
▁விதித்துள்ளது	-11.2636
▁விஸ்வ	-11.2637
▁தல்ல	-11.2637
J	-11.2638
▁உருவாக்கப்படும்	-11.2638
▁மேற்கொண்டது	-11.2642
▁லாங்	-11.2643
▁De	-11.2643
▁81	-11.265
▁நீராட	-11.2651
▁பூரண	-11.2654
▁வீட்டார	-11.2654
பெறுகிறது	-11.2654
▁ிருப்பத	-11.2656
▁சம்பா	-11.2656
பகுதியில்	-11.2659
▁ஷீ	-11.2659
▁The	-11.266
▁கட்டிடங்கள்	-11.2661
▁நோட்டு	-11.2661
▁படமாக	-11.2664
▁உருக்க	-11.2664
▁மார்க்க	-11.2665
▁தளங்கள	-11.2665
▁தெரிவித்ததாக	-11.2666
▁உறு	-11.2666
▁விரல்	-11.2667
▁தனித்தனி	-11.2667
▁பேரழிவு	-11.2671
▁பூட்டி	-11.2672
▁சிக்கல்களை	-11.2673
▁பரவலை	-11.2673
▁நாகை	-11.2673
▁மார்க்கெட்ட	-11.2674
▁குடும்பத்	-11.2676
▁திருச்செந்தூர்	-11.2678
▁ஸ்மித்	-11.2683
▁79	-11.2687
▁தேய்	-11.2692
▁கனிம	-11.2695
▁விதித்தது	-11.2695
▁கதாபாத்திர	-11.2698
▁எழுப்பப்பட்ட	-11.2699
▁சார்ந்து	-11.27
▁பூர்வீக	-11.2706
▁வயசு	-11.2708
▁பிறந்தார்	-11.2712
▁காரணங்கள	-11.2713
▁இன்னிங்ஸ்	-11.2715
▁கலைஞர்கள்	-11.2716
▁குடல	-11.2719
▁பவர்ப்ளே	-11.2719
▁கவிஞர்	-11.2719
▁சமாஜ்வாடி	-11.2719
▁ராஷ்ட்ர	-11.2719
▁வலதுசாரி	-11.2719
▁முல்லை	-11.2719
▁சவுத்ரி	-11.2719
▁மலையக	-11.2719
▁பின்வாங்க	-11.2719
▁பிரபஞ்ச	-11.2719
▁நடிச்ச	-11.2719
▁தொழுகை	-11.272
▁மகிழ்ந்த	-11.272
▁காட்சியளித்த	-11.272
▁தொண்டர்	-11.2721
▁திருத்தேர	-11.2722
▁பிரதாப	-11.2724
▁ரம	-11.2725
▁வியாபாரிகள்	-11.2726
▁தேக்க	-11.2728
▁அறிக்கைகள்	-11.2732
▁கொண்டவர்கள்	-11.2733
மட	-11.2735
▁விமானங்களை	-11.2736
▁பொண்ணு	-11.2736
▁பேனா	-11.2739
▁நீரில	-11.2739
▁பார்வையாளர்	-11.2741
ாவில்	-11.2742
▁செய்யக்கூடாது	-11.2742
▁கறி	-11.2743
▁ஆகிறது	-11.2744
▁கண்டுபிடிப்ப	-11.2745
▁சிரிப்ப	-11.2747
▁அழித்த	-11.2747
▁மானியம்	-11.2749
▁ரோல	-11.2751
▁திட்டமிட்டுள்ளத	-11.2751
▁மூளைய	-11.2751
▁தோண்டி	-11.2752
▁சாவ	-11.2758
▁தெளி	-11.2761
▁அமைந்திருக்க	-11.2761
▁நீட்டி	-11.2762
▁மரணங்கள்	-11.2762
▁ஆப்பிரிக்காவ	-11.2763
▁கிடைத்தன	-11.2764
▁கூடியது	-11.2764
▁பங்களா	-11.2765
கட்டமைப்பு	-11.2767
▁ராசிக்காரர்கள்	-11.2768
▁விரும்பினால்	-11.2768
▁இடிக்கப்பட்ட	-11.2769
▁கவுன்சிலர்கள்	-11.2775
▁அன்னதான	-11.2776
▁எடுத்துள்ளார்	-11.2782
ண்ணா	-11.2786
▁வர்ண	-11.2789
▁மாஸ்	-11.2792
ul	-11.2794
▁பிசினஸ்	-11.2794
▁வாரியாக	-11.2796
▁பாம்புகள்	-11.2799
▁கருக்கலைப்பு	-11.28
ஜூ	-11.2803
▁கௌதம்	-11.2807
▁விசாக	-11.2808
▁எடுத்துள்ள	-11.2809
▁சிரமங்கள	-11.281
▁வளாக	-11.2812
▁மல்லி	-11.2813
▁கார்ப்பரே	-11.2817
ாமணி	-11.2818
▁நாத்	-11.2819
▁தலைமறைவாக	-11.2823
▁தப்பிய	-11.2826
▁பட்டை	-11.2827
▁க்கோ	-11.2829
▁பார்க்கிறார்	-11.2834
▁இருந்தார்கள்	-11.2834
▁தைக்	-11.2835
▁கூட்டத்தொடர	-11.2837
▁புரிதல	-11.2838
▁அலுவலகங்களில	-11.2838
▁சான்றிதழ	-11.2838
ஆர	-11.2839
▁சுகாதாரத்	-11.2841
▁அருள்பாலிக்க	-11.2842
▁நிவர்த்தி	-11.2842
▁வர்த்தமானி	-11.2842
▁ஸ்பெஷல்	-11.2842
▁உசேன்	-11.2842
▁வரையறுக்க	-11.2842
▁குடியேற்ற	-11.2842
▁சுதர்சன	-11.2842
▁இழிவுபடுத்த	-11.2842
▁சுற்றறிக்கை	-11.2842
▁ஜானகி	-11.2842
▁Ex	-11.2843
▁ஷங்கர	-11.2843
▁புற்று	-11.2843
▁அழிப்ப	-11.2844
▁சீரழி	-11.2844
▁மாலி	-11.2845
▁எண்கள	-11.2846
▁படுத்தப்பட்ட	-11.2847
▁பாவனை	-11.2847
▁தூங்கி	-11.2847
▁கூட்டத்தொடர்	-11.2847
▁மாத்திரமே	-11.2849
▁அவசியத்தை	-11.2849
▁ஸ்டைல	-11.285
▁விரி	-11.285
▁சென்றடைந்த	-11.285
▁செய்யவேண்டும்	-11.285
குடும்பங்களுக்கு	-11.2852
▁கானுக்கு	-11.2853
▁!!	-11.2854
▁விவரித்தார்	-11.2854
▁அடிபட்ட	-11.2855
▁பூமியை	-11.2856
▁பார்த்தாலும்	-11.2858
காச	-11.2861
▁சங்கம	-11.2863
்டில்	-11.2864
▁பரிதாபம	-11.2864
▁தோற்று	-11.2865
▁செல்லாமல்	-11.2866
▁தருகிறது	-11.2866
▁முற்போக்கு	-11.2867
▁ாரோ	-11.2868
ிருக்கிறோம்	-11.2869
▁பிறப்பித்துள்ள	-11.287
கோடி	-11.2872
▁கிழக்கில	-11.2873
▁புத்தாண்ட	-11.2873
▁செயல்களை	-11.2873
▁குலாம்	-11.2873
▁ஆண்டாக	-11.2874
▁ஸ்ட்	-11.2879
▁யுக்ரேனிய	-11.2886
▁கொடுப்பனவு	-11.289
▁அரசாங்கத்திற்கு	-11.2891
▁பெற்றுத்	-11.2891
▁பந்த்	-11.2894
▁போகிறார்கள்	-11.2895
▁நேரத்தில	-11.2896
▁தீவுகள்	-11.2899
▁எண்ணங்கள	-11.29
▁கள்ளச்சாராய	-11.2901
08	-11.2902
▁ஆய்வின்	-11.2906
▁பாளைய	-11.2906
▁தோற்றம்	-11.2907
▁எச்சரித்துள்ள	-11.2908
▁விரைவ	-11.2908
▁பணியிடங்கள்	-11.2911
▁11:	-11.2911
போல்	-11.2913
▁சேர்ந்தவர்கள	-11.2914
▁சந்தேகத்த	-11.2915
22	-11.2919
▁சஜி	-11.2921
▁காட்டப்பட்ட	-11.2922
▁சரிசெய்ய	-11.2923
▁கலக	-11.2924
▁கியா	-11.2927
▁கிளப்ப	-11.293
▁ஆர்ப்பாட்டத்த	-11.2931
▁தியாகம்	-11.2932
▁குழப்பங்கள	-11.2933
▁நலத்திட்ட	-11.2934
▁இயக்கி	-11.2935
▁தொலைவு	-11.2935
▁ஆசியா	-11.2935
▁மஸ்	-11.2938
▁1,2	-11.2942
▁காதலர்	-11.2942
▁வழிமுறை	-11.2942
▁சேனா	-11.2943
▁விழி	-11.2944
▁பிரேசில்	-11.2947
▁கைலாச	-11.295
விபத்துக்குள்ளான	-11.295
தகை	-11.2954
▁வைப்பத	-11.2958
▁குடும்பத்தின	-11.2964
▁செய்கின்றன	-11.2965
ெடுப்ப	-11.2966
▁சிவாச்சாரியார்	-11.2967
▁கள்ளழகர	-11.2967
▁சுத்திகரி	-11.2967
▁நல்வாழ்வு	-11.2967
▁காலத்திலும்	-11.2967
▁மலைக்கோயில	-11.2967
▁சீரமைக்க	-11.2967
▁தோற்கடிக்க	-11.2967
▁இவ்வழக்க	-11.2968
▁இளநீர்	-11.2968
▁கோட்பாடு	-11.2968
▁மேற்கூ	-11.2968
▁பழுது	-11.2969
▁மீன்கள்	-11.2971
▁சோதனைகள்	-11.2971
▁நடப்ப	-11.2972
▁நளினி	-11.2973
▁நிர்ணயித்த	-11.2974
▁உத்தியோகத்தர்கள	-11.2975
▁ரன்ரேட்ட	-11.2975
▁சரிவு	-11.2976
▁சோன	-11.2977
▁கின்றன	-11.2977
▁பிரச்சனைகளை	-11.298
▁சொல்வார்கள்	-11.2982
▁கடக	-11.2983
▁கூறவில்லை	-11.2984
▁பெங்களூருவ	-11.2985
தகாத	-11.2987
▁எளிமையாக	-11.299
▁இடைநீக்க	-11.2991
▁நினைக்கிற	-11.2994
▁86	-11.2996
▁பட்ச	-11.2996
▁தவித்த	-11.2999
▁எடுத்திருந்த	-11.2999
▁மேக்	-11.3
▁தீங்க	-11.3001
▁திறமையை	-11.3003
tt	-11.3005
▁Z	-11.3005
▁சாவர்க்கர்	-11.3007
தேவ்	-11.3007
▁சாப்	-11.3007
▁AI	-11.3012
▁பச	-11.3013
சண்முகம்	-11.3014
▁குவிய	-11.3017
▁கோவில்கள்	-11.3018
▁எறிந்த	-11.3019
▁குழுக்களை	-11.302
▁Pa	-11.3023
▁தம்பதிக்கு	-11.3023
▁குளத்தில	-11.3024
▁திருவிள	-11.3024
▁மைதானம்	-11.3028
▁அவதார	-11.303
▁இதயத்த	-11.3031
▁கதாபாத்திரங்கள	-11.3036
▁இவ்வ	-11.3039
▁முறைகள்	-11.305
▁கோட்டையில்	-11.3054
▁82	-11.3057
▁ஆயிரத்துக்கு	-11.3058
▁சலசலப்பு	-11.3059
▁உதவியது	-11.3059
▁அன்பை	-11.3062
▁சாட்சி	-11.3063
பிசி	-11.3067
▁கொள்ளாத	-11.3071
▁உட்படுத்த	-11.3073
▁மாற்றுவத	-11.3075
▁வருஷம	-11.3075
▁குத்து	-11.3076
ஞ்சலி	-11.3078
▁ள்ளதாகவும்	-11.308
▁யூர	-11.3081
▁அதிகரிப்பதற்க	-11.3081
▁பிரதிநிதிகள	-11.3084
▁மேடு	-11.3084
▁கலாச்சாரம்	-11.3087
▁ஒத்துழைக்க	-11.3088
▁விதிமுறைகள்	-11.309
▁தனிமை	-11.3091
▁விவரித்த	-11.3092
▁வழிவக	-11.3093
▁சேவா	-11.3094
▁கிரிமினல்	-11.3094
▁கெய்க்வாட்	-11.3094
▁பொதுத்தேர்வ	-11.3094
▁மனப்பான்மை	-11.3094
▁மின்வெட்டு	-11.3094
ा	-11.3094
▁மைக்கேல்	-11.3094
▁வரதட்சணை	-11.3094
▁மாமல்லபுர	-11.3094
▁வெளுத்த	-11.3094
▁அலர்ட்	-11.3094
▁செலவின	-11.3094
▁உற்ஸவ	-11.3094
▁நாகேந்திரன்	-11.3094
▁பல்லக்கு	-11.3095
▁1989	-11.3096
▁உரிமையாளர	-11.3096
▁கணேஷ்	-11.3096
▁வினோத	-11.3096
▁வயதுக்குட்பட்ட	-11.3096
▁pa	-11.3096
▁கெஜ்ரிவால	-11.3096
▁2002	-11.3096
▁கழுத்தில	-11.3097
▁பேசியதாவது	-11.3099
ப்பிரிவு	-11.31
▁தடய	-11.3101
▁கோஷ்டி	-11.3101
▁கர்நாடகாவ	-11.3101
▁ுதல	-11.3102
▁பகுப்பாய்வு	-11.3102
▁துறைமுகத்த	-11.3103
▁ரோந்து	-11.3104
▁(3	-11.3104
யாட்	-11.3105
▁சேலை	-11.3105
▁நஞ்ச	-11.3106
▁கவனத்திற்கு	-11.3106
▁நினைக்கும்	-11.3108
▁@	-11.3109
▁தூதரகம்	-11.3112
லெட்	-11.3113
▁ப்படலாம்	-11.3113
▁கௌ	-11.3114
▁அறிவிக்கப்பட்டு	-11.3114
▁சென்றடைய	-11.3114
▁முப்பத	-11.3116
▁பாட்டாள	-11.3119
▁சுருக்க	-11.312
▁வடிவம்	-11.3121
▁நரம்ப	-11.3126
▁உழைத்த	-11.3126
▁நடுங்க	-11.3127
▁பிரிவினருக்கு	-11.3127
ய்யா	-11.3127
குறிச்சி	-11.3128
▁விடுகிறார்கள்	-11.3129
▁ங்கிற	-11.313
▁பயணித்து	-11.313
▁விளைவுகள்	-11.3131
▁போகிற	-11.3132
▁மீனவர்	-11.3134
▁தலைவன	-11.3134
▁செயற்பட்ட	-11.3135
▁சிதறி	-11.3143
▁வைத்திருக்கிறது	-11.3144
▁ராஜ்ய	-11.3149
▁அத்துமீறி	-11.3151
▁ித்த	-11.3151
▁செயற்பாட்டாளர்	-11.3155
▁அமலாக்கப்	-11.3157
▁வாயை	-11.3161
▁சம்பவத்துக்கு	-11.3161
▁கொள்ளப்பட்ட	-11.3162
▁களுடனும்	-11.3166
▁ஒப்ப	-11.3171
ni	-11.3173
▁உயர்த்திய	-11.3177
▁ne	-11.3178
▁அங்கீகார	-11.3179
தீவு	-11.3189
▁தூக்கிய	-11.3191
▁ஜெய்ப்பூர்	-11.3192
▁கொடு	-11.3192
▁பெட்டிகள்	-11.3197
▁முடங்கி	-11.3197
▁திலும்	-11.3198
லதா	-11.3199
▁ஹார்	-11.3205
▁அமைப்புகளை	-11.3208
▁முனைவ	-11.3208
▁தரையிறங்க	-11.3209
▁மையங்கள்	-11.321
யளித்த	-11.321
▁மாணவன	-11.321
▁தருவார்	-11.3211
▁அரசர்	-11.3212
▁கழுவ	-11.3214
▁செம்ப	-11.3215
▁ர்களுக்கு	-11.3215
▁சட்டமூலத்த	-11.3219
ிருக்கேன்	-11.3219
▁பதவியேற்க	-11.3222
▁அப்டேட்	-11.3222
▁மேம்பாடு	-11.3222
▁மெட்ராஸ	-11.3222
▁புண்படுத்த	-11.3222
▁மலிவ	-11.3223
▁அபிராம	-11.3223
▁பாட்னா	-11.3223
▁மூண	-11.3223
▁ஆதரவளிக்க	-11.3223
▁முதுகலை	-11.3224
▁ஸ்மிர	-11.3224
▁தேசியக்கொடி	-11.3224
▁உதவித்	-11.3224
▁வெஸ்ட்	-11.3225
▁அதுமட்டுமின்றி	-11.3226
▁முடித்துவிட்டு	-11.3226
▁கிடைக்குமா	-11.3226
▁குவாரி	-11.3233
▁விரும்பினார்	-11.3233
▁பேரன்	-11.3233
▁ஏற்கவில்லை	-11.3235
▁கில்ல	-11.3237
▁குழப்பம	-11.3238
▁நிதியம்	-11.3239
▁கிராமங்களை	-11.3239
▁நபிகள	-11.324
வந்து	-11.3242
▁எடுப்பத	-11.3244
▁2015-	-11.3244
▁வேள	-11.3244
யளிக்கிறது	-11.3246
se	-11.3246
▁நடைபெறவில்லை	-11.3247
▁கொள்வதை	-11.3249
▁83	-11.325
மித்த	-11.3251
▁ட்வீட்ட	-11.3251
களுக்காக	-11.3253
▁வியூக	-11.3254
▁கவுரவ	-11.3255
▁வடக்க	-11.3256
▁வாக்கெடுப்ப	-11.3256
▁ஆஜராகி	-11.3256
▁91	-11.3256
▁பெரியார	-11.3257
▁விரட்ட	-11.3257
▁மதிப்பெண்கள்	-11.3259
▁கோல்ட	-11.3261
▁நடவடிக்கைகள	-11.3262
▁ஹென்	-11.3263
ct	-11.3264
▁பதிவுகள்	-11.3267
▁கழுத்து	-11.3268
▁காதலன	-11.3268
▁துரத்தி	-11.3268
▁அதன்பின்னர்	-11.3269
▁ஆழமாக	-11.3274
▁தங்கப்	-11.3276
எங்கள்	-11.328
▁நெறிமுறை	-11.3282
▁இந்தியாவில	-11.3282
▁புறப்பட	-11.3284
▁இருக்கின்றது	-11.3284
▁வந்ததாகவும்	-11.3285
▁புரோ	-11.3287
▁சீட்ட	-11.3289
க்குள்ளே	-11.3291
▁இருக்கவில்லை	-11.3291
▁உயரம	-11.3292
▁அனுபவங்களை	-11.3296
▁நினைவுச்	-11.3296
▁ஜெய்சங்கர்	-11.3298
▁விரட்டி	-11.33
▁உறவ	-11.3302
▁கோஷம்	-11.3303
▁இன்னிங்ஸ	-11.3304
▁ஒத்துழைப்ப	-11.3305
▁பலவீனமாக	-11.3306
▁பார்வையாளர்கள	-11.3313
▁நிற்பத	-11.3315
▁மகரம்	-11.3318
ங்குடி	-11.3319
ஆழமான	-11.3321
▁கார்ட	-11.3321
▁கிடப்ப	-11.3322
▁இருக்கக்	-11.3326
▁கலர்	-11.3326
▁கருப்பை	-11.3328
▁ஏழைகள	-11.3333
▁நானா	-11.3337
▁வருடமாக	-11.3338
▁நிர்வாண	-11.3339
▁மஞ்சு	-11.3342
▁உலோக	-11.3342
▁அனுப்பியுள்ள	-11.3345
▁மேலான	-11.335
▁உள்ளூராட்சி	-11.3352
▁நிபுணத்துவ	-11.3352
▁துளசி	-11.3352
▁சித்ரவதை	-11.3352
▁ஆகையால்	-11.3353
▁அறிவாலய	-11.3353
▁அகாடமி	-11.3353
கரமான	-11.3354
▁ஓய்வெடு	-11.3355
▁அடித்தளம	-11.3355
▁லட்சத்துக்கு	-11.3357
▁அதிகமானோர	-11.3358
▁ிப்பதற்கா	-11.3358
▁ஆணவ	-11.3358
▁ஸ்டோரி	-11.3359
▁370	-11.3359
▁வருகிறதா	-11.336
▁அதிகரிக்கிறது	-11.336
▁BA	-11.336
▁சுவாரஸ்யமான	-11.336
▁ஓட்டுநர	-11.3361
▁கிரெட	-11.3363
▁மாதவன்	-11.3364
▁கூட்டத்	-11.3364
▁எண்ணெய	-11.3365
▁குகை	-11.3366
▁உத்தரப்பிரதேசம்	-11.3366
▁சீக்கியர்கள	-11.3367
▁தாடி	-11.3367
▁அடைவதற்க	-11.3367
▁இதழ	-11.3367
▁ஜாங்	-11.3368
75	-11.337
▁மமத	-11.337
▁அதிதி	-11.3372
▁வைச்	-11.3374
▁குடும்பங்களை	-11.3374
▁நம்பிக்கையில்	-11.3375
▁யோகத்தை	-11.3375
-3	-11.3376
▁ஜியோ	-11.3377
▁மூக்க	-11.3378
▁சாப்பிடும்	-11.3378
▁ஹிட்	-11.3378
▁இல்லாதது	-11.338
▁கையில	-11.3381
▁இரானிய	-11.3382
த்தறி	-11.3383
▁தியாகி	-11.3384
▁சர்தார	-11.3385
▁கண்ணை	-11.3387
▁களுடன	-11.3387
ப்படுத்தும்	-11.339
▁வாரங்களாக	-11.3393
▁கடனாக	-11.3393
ாற்று	-11.3396
▁கட்டிக்	-11.3404
▁பட்டத்தை	-11.3404
▁செய்கை	-11.3404
▁உயிரிழப்புகள	-11.341
▁தோல	-11.3412
▁ரூபாயாக	-11.3413
▁அனுமதியை	-11.3414
▁பரப்பு	-11.3415
▁இலட்சத்த	-11.3415
▁கேன்	-11.3417
▁திரைப்படங்கள்	-11.3417
▁மாணிக்க	-11.3417
▁பொறி	-11.3418
▁மாணிக்கம்	-11.3418
▁இணைந்தார்	-11.3421
▁வயதாகும்	-11.3425
▁வலுக்க	-11.3428
▁சாலைகளில	-11.343
▁மதிப்பை	-11.343
▁கஜ	-11.3432
▁es	-11.3435
▁சந்தோஷம	-11.3439
▁அசல	-11.3442
▁சேர்ப்ப	-11.3443
▁வினை	-11.3444
▁கோடு	-11.3447
▁பாடத்திட்ட	-11.345
▁திருக்க	-11.3451
▁பாகம்	-11.3454
▁சாட்	-11.3455
▁இயலும	-11.3455
பாண்ட	-11.3456
▁அறிவிக்கப்படும்	-11.3458
▁மருந்தை	-11.3458
▁கேக்	-11.346
▁அங்கமாக	-11.3462
▁பொற	-11.3463
▁பதக்கங்கள	-11.3463
▁செவி	-11.3465
▁பூமிய	-11.3465
▁உப்ப	-11.347
காண	-11.3471
▁நன்றியை	-11.3474
▁சன்னதியில	-11.3474
▁ஜஸ்	-11.3478
ளவுக்கு	-11.3479
▁இருங்கள்	-11.3482
▁கயிறு	-11.3484
▁குண்டுவெடிப்ப	-11.3484
▁பார்ட்னர்ஷிப்	-11.3484
▁வறட்சி	-11.3484
▁உத்தேச	-11.3484
▁பொதுப்பணி	-11.3484
▁ஷூட்டிங்	-11.3484
▁வறண்ட	-11.3484
▁தீர்வாக	-11.3484
▁டெஸ்டில	-11.3484
▁பாரபட்சம	-11.3484
▁முன்னறிவிப்பு	-11.3484
▁மீதி	-11.3484
▁செய்பவர்கள	-11.3485
▁துரைசாமி	-11.3486
▁மரணமடைந்த	-11.3486
▁செய்கிறேன்	-11.3488
▁பணிகளுக்கா	-11.3488
▁நிகழ்வுகள	-11.3489
▁வீழ்த்தினார்	-11.349
▁விளைச்சல	-11.3492
▁இருப்பேன்	-11.3494
ளில்	-11.3495
▁உருவாக்கியது	-11.3496
▁ஷேர்	-11.35
▁காண்பித்த	-11.35
▁ஈழத்	-11.3503
▁அதேவேளையில்	-11.3503
▁சளி	-11.3505
▁போஸ்டர்கள	-11.3507
▁அளிக்கவில்லை	-11.3508
out	-11.3508
வியா	-11.3509
▁காங்கிரஸை	-11.351
▁பவார	-11.3511
▁கஷ்ட	-11.3512
▁கார்ட்	-11.3512
▁விதவிதமா	-11.3513
▁ரிக்டர	-11.3514
▁குமாருக்கு	-11.3515
▁சலசலப்ப	-11.352
▁தாரா	-11.3521
▁தெற்க	-11.3521
▁பிடிக்காத	-11.3522
▁எதிர்ப்	-11.3524
▁காட்டிக்	-11.3526
▁பதித்த	-11.3526
▁வயல	-11.3528
சேர	-11.3529
▁திரையிட	-11.353
▁புகழ்ந்து	-11.353
▁மார்க்கெட்	-11.3533
▁பாடகர்	-11.3534
▁சாய்ந்த	-11.3534
▁இணையதளங்கள	-11.3536
▁நீதிமன்றங்கள	-11.3536
▁ஆகிவிட்டது	-11.3536
25	-11.3538
▁சையத	-11.354
▁கட்டுதல	-11.3544
▁செலவ	-11.3545
▁தமிழ்த்	-11.3548
▁நிலுவை	-11.3548
வங்க	-11.3552
▁திணறி	-11.3552
▁ஆறா	-11.3553
▁செயல்பாடுகள	-11.3553
▁உயிரிழந்து	-11.3557
▁விளங்க	-11.3557
▁போயிருக்க	-11.356
▁பெறுமதி	-11.3567
▁டியூ	-11.3571
▁ஜன்னல்	-11.3572
▁சவால	-11.3573
▁ராஜாவ	-11.3576
▁நார்	-11.3577
▁மருந்த	-11.3579
▁பராக்	-11.358
▁பணிக்குழ	-11.3581
▁சிங்கம்	-11.3583
▁ஆண்களுக்கு	-11.3584
▁பயனாளிகள	-11.3584
▁புகார	-11.3585
ill	-11.3585
ிவ்	-11.3587
▁லென	-11.3592
▁கூற்ற	-11.3595
▁டென்	-11.3596
▁முனைய	-11.3603
▁சிம்மம்	-11.361
▁ti	-11.3613
▁தப்பு	-11.3616
▁முருகப்பெருமான	-11.3617
▁அந்நிறுவன	-11.3617
▁இம்மாத	-11.3617
▁ஜெக	-11.3617
▁ஸ்திரத்தன்மை	-11.3617
▁சேஸிங்	-11.3617
▁உருமாற	-11.3617
▁வலுசக்தி	-11.3618
▁நெற்றி	-11.3618
▁ராஜசேகர	-11.3618
▁அய்யனார்	-11.3618
▁சரும	-11.3618
▁கோணத்தில	-11.362
▁எழுதுகிறார்	-11.3621
லாந்து	-11.3624
▁வேண்டியதில்லை	-11.3625
▁நம்பிக்கையில்லா	-11.3625
▁வலைதளங்கள	-11.3627
▁வருத்த	-11.3627
▁தூக்கிட்டு	-11.3627
தென்னாப்பிரிக்கா	-11.3629
▁சொல்வத	-11.363
ng	-11.3631
▁வைத்துக்கொள்ள	-11.3634
▁கொண்டார்கள்	-11.3636
▁யுவராஜ	-11.3637
▁கூறலாம்	-11.3638
▁ரோட்ட	-11.3639
▁செல்வார்கள்	-11.3639
▁el	-11.3639
▁ஈடுபடுவத	-11.364
▁உருண்ட	-11.364
▁முதல்முறை	-11.3642
un	-11.3642
▁தாங்கள	-11.3644
▁வைரலானது	-11.3645
▁கலவை	-11.3649
▁பெற்றோருக்கு	-11.3649
▁நடந்தாலும்	-11.365
▁பீட்	-11.365
▁நடமாட்டம	-11.3651
▁பரிகார	-11.3652
▁நீக்கிய	-11.3652
▁மடைந்த	-11.3656
ண்டோ	-11.3657
▁நாய்கள்	-11.3659
▁கூறியிருந்தது	-11.3665
▁செங்க	-11.3667
▁எமிரேட்ஸ	-11.3669
▁லோகேஷ	-11.3671
வேலுமணி	-11.3672
▁அஸ்வினி	-11.3673
▁இனிய	-11.3674
▁ஒட்டப்பட்ட	-11.3675
▁டிற்கு	-11.3675
▁ஆரத்த	-11.3676
▁வசனம்	-11.3677
▁உயர்ந்தது	-11.3677
▁28-	-11.368
▁கடையை	-11.3685
▁கடித	-11.3685
▁பெற்றிருக்க	-11.3685
▁மையங்களில்	-11.3686
▁முற்	-11.3687
▁ஏந்தி	-11.3688
ீங்களா	-11.3691
▁கொரியாவ	-11.3691
▁துடித்த	-11.3694
com	-11.3697
காரர்	-11.3698
வாய	-11.3699
▁எக்	-11.3699
▁தொண்டர்களை	-11.3701
▁இருக்குமா	-11.3701
▁பெருங்	-11.3704
▁அனுப்பியது	-11.3704
ம்பிகை	-11.3707
▁நேருவ	-11.3709
▁மூழ்க	-11.371
மேடு	-11.371
▁கஞ்ச	-11.3712
▁ஏற்படாது	-11.3712
▁அப்பாவு	-11.3716
▁சர்ச்சையாக	-11.3718
ரேவதி	-11.3718
▁தோன்றி	-11.3719
▁புன்னகை	-11.3719
▁மேற்கொள்	-11.3719
▁வரிகள்	-11.3721
▁பார்க்	-11.3723
ச்சாரி	-11.3727
▁தோஷ	-11.3727
▁180	-11.3737
▁மைதான	-11.3738
▁வீரன்	-11.3738
▁கட்டாயப்படுத்த	-11.374
PS	-11.3745
▁அசாதாரண	-11.3746
▁பேட்டர	-11.3747
▁பாளையத்த	-11.3748
▁யென	-11.3748
▁சொல்லுங்க	-11.3751
மட்ட	-11.3751
ூரி	-11.3752
▁அத்தியாய	-11.3752
▁செந்தில்பாலாஜி	-11.3752
▁பாரம்பர்ய	-11.3752
▁மோசமடைந்த	-11.3752
▁வாக்குமூலத்த	-11.3752
▁வேக்சின்	-11.3752
▁சுற்றாடல	-11.3752
▁ஆய்வறிக்கை	-11.3752
▁பள்ளத்தாக்க	-11.3752
▁தகவலறிந்த	-11.3752
▁அசுர	-11.3752
▁தீர்வை	-11.3752
▁தாய்மார்கள	-11.3753
▁கோகுல	-11.3753
▁சேதுபதி	-11.3753
▁2023:	-11.3753
▁கிராண்ட்	-11.3754
▁1970	-11.3755
▁வந்தோம்	-11.3755
ஆக	-11.3755
▁பிரபலம்	-11.3757
▁டைட்டன்ஸ்	-11.3757
▁ுவாரா	-11.3757
▁நினைத்தார்	-11.3758
▁போகிறேன்	-11.376
ூடாக	-11.376
▁சட்டத்த	-11.3762
▁மெயின்	-11.3763
▁யம்மன	-11.3763
▁பொதுக்கூட்டத்த	-11.3764
▁களுக்கிடையே	-11.3764
▁ஜோன்ஸ்	-11.3764
▁க்கார	-11.3767
▁வெளியிடப்படும்	-11.3767
▁திருமணத்துக்கு	-11.3769
▁வழிகாட்டு	-11.377
▁கீப்பர	-11.377
▁நடந்துள்ளன	-11.3772
▁நேர்காணல	-11.3772
▁தினகரன	-11.3772
▁நாசர்	-11.3775
▁உயிரின	-11.3778
▁நடிகராக	-11.3778
▁டாக்டர	-11.378
▁சட்டப்பிரிவு	-11.3781
▁பிரிவினைவாத	-11.3785
▁ஒருங்கிணைத்த	-11.3785
▁பயணிப்ப	-11.3786
▁கட்டம்	-11.3789
▁சொத்த	-11.3792
▁கூற்று	-11.3792
▁சடலம்	-11.3792
▁ஏற்பட்டதால்	-11.3792
▁பாதுகாக்கப்பட்ட	-11.3793
▁மற்றபடி	-11.3794
▁முழுமை	-11.3796
▁நண்பன்	-11.3796
வேண்டும்	-11.3796
▁Vi	-11.3796
▁கெட	-11.3798
▁சிவக்குமார்	-11.38
▁Ch	-11.3801
▁தனக்க	-11.3803
ப்படுகிறார்	-11.3804
▁போட்டியாளர	-11.3805
▁ஒன்பதாம	-11.3806
▁ஜமா	-11.3806
▁தீர்த்து	-11.3808
▁கிரைம	-11.3808
▁கப்பலை	-11.3809
பாலின	-11.3809
▁இரை	-11.3809
▁கூறிவிட்ட	-11.3815
▁ஒதுக்கீட்ட	-11.3816
▁பைரவர	-11.3817
▁ஜீவ	-11.3818
▁கல்லீரல்	-11.3818
▁கிரிக்கெட்ட	-11.3823
▁இனத்தை	-11.3823
▁டாலருக்கு	-11.3823
▁இடங்களையும்	-11.3823
▁வட்டம்	-11.3828
▁அம்சம்	-11.3828
▁உயர்ஸ்தானிகர	-11.3829
▁ஜாக்	-11.3829
▁உபி	-11.383
▁விளக்குகள	-11.3832
▁பதப்படுத்த	-11.3833
▁வல்லுநர்	-11.3835
▁2024-	-11.3837
▁வீச்சில	-11.3838
▁வழித்தட	-11.384
▁முடிச்ச	-11.384
▁னாள்	-11.3841
▁ரஜ	-11.3845
▁ோரின்	-11.3845
▁இவ	-11.3846
▁கல்யாண்	-11.3846
▁மாணவர்களுக்க	-11.3846
▁ஓவர்கள	-11.3847
▁குற	-11.3849
ம்மாள்	-11.3852
▁வேதி	-11.3859
▁முடிக்கப்பட்ட	-11.386
▁அள	-11.3863
▁தேர்வான	-11.3863
▁மிருக	-11.3865
▁நட்சத்திரத்த	-11.3866
▁கொடை	-11.3869
▁ரோஸ்	-11.387
▁கலசங்கள	-11.3871
▁தலைவராகவும்	-11.3872
▁சாதியை	-11.3872
▁பிரச்சினையை	-11.3873
▁பெண்ணிடம	-11.3874
▁தேர்தல்களில	-11.3875
▁16-	-11.3877
▁தலைமையகத்த	-11.3877
▁முதலாளி	-11.3878
▁வில்லியம்	-11.3878
▁மூலமும்	-11.3878
▁ஏற்படாத	-11.3886
▁பயனர்கள	-11.3887
மாரியம்மன்	-11.3887
▁அங்கீகரித்த	-11.3889
▁சீர்காழி	-11.3889
▁முய்சு	-11.3889
▁GMT	-11.3889
▁உள்நாட்டில	-11.3889
▁மல்லிகார்ஜுன	-11.3889
▁மூலோபாய	-11.3889
▁லேப்டாப்	-11.3889
▁உயிரிழக்க	-11.3889
▁மேகதாது	-11.3889
▁தரப்பிற்கு	-11.3889
▁முல்லைத்தீவ	-11.3889
▁குறிக்கோள	-11.3889
▁வெளியீடு	-11.3889
▁ஐபிஎஸ்	-11.3889
▁ஊஞ்சல	-11.3889
▁ஸ்ட்ரைக்	-11.3889
▁ரவுண்ட	-11.3889
▁பட்டப்படிப்ப	-11.3889
▁விரிசல்	-11.3889
▁பெருகும்	-11.389
▁முடிவடைய	-11.3891
▁எருமை	-11.3891
▁மொட்டை	-11.3891
▁உத்தம	-11.3893
▁வாருங்கள்	-11.3894
▁வழக்குகளில	-11.3894
▁போச்சு	-11.3895
▁ஐயப்ப	-11.3896
▁தேரோட்ட	-11.3897
▁(10	-11.3899
▁கதி	-11.3899
▁திரைத்துறை	-11.3899
▁தகவலின்	-11.3899
▁நாட்களை	-11.39
▁முகாமிட்ட	-11.3903
▁un	-11.3905
▁5000	-11.3907
பெயர்	-11.391
▁ஆரம்பித்துள்ள	-11.391
▁நம்மால	-11.3911
▁பிரச்சாரத்த	-11.3912
▁பிரேசில	-11.3912
▁50%	-11.3914
▁மாதத்துக்கு	-11.3915
▁முடித்துக்	-11.3916
▁இஷா	-11.3916
▁பெறாத	-11.3916
ில்லாத	-11.3919
▁மற்றும	-11.3919
▁சுப்பு	-11.392
▁சந்தர்ப்ப	-11.392
▁ஒட்டு	-11.3924
▁சமமான	-11.3925
▁தெற்காசிய	-11.3925
▁வாள்	-11.3926
▁உற்சாகத்த	-11.3929
▁ஆற்றலை	-11.393
▁வயிற்றில	-11.393
▁குடியரச	-11.3932
▁முதல்வருக்கு	-11.3937
▁ஆய்வுக்	-11.3937
செய்த	-11.3939
▁கணிப்புகள்	-11.3942
▁உயிரிழந்ததாக	-11.3947
▁கலந்துரையாடி	-11.3947
▁மாநிலத்தில	-11.3948
தலைவர்	-11.3949
▁ஆக்கிரமித்த	-11.395
கொண்டிருந்த	-11.3955
▁ஒதுக்கீட்டை	-11.3955
▁மிசோரம்	-11.3959
▁பிரகடன	-11.3961
▁கேட்பது	-11.3962
▁சேப்பாக்க	-11.3965
▁இயலாது	-11.3967
▁தள்ளிய	-11.3968
▁திற்கு	-11.3969
▁உபகரணங்கள	-11.397
க்குழுவினர்	-11.3973
கிடைக்கப்போகிறது	-11.3974
▁வழியை	-11.3975
▁அடுக்கு	-11.3978
ொன்றை	-11.3978
▁தமிழில	-11.398
▁தர்மம்	-11.3981
▁பூஞ்ச	-11.3984
▁பாக்டீரியா	-11.3985
▁பெரியவர்கள	-11.3985
ெண்	-11.3987
▁நிறுத்தப்பட	-11.3988
▁இட்டு	-11.3991
▁ஷியா	-11.3993
▁be	-11.3994
த்துவ	-11.4
லிங்	-11.4001
▁ஆய்வுக்கு	-11.4004
▁விளைவ	-11.4009
▁பாரி	-11.401
▁ஆடைகள்	-11.401
▁வலியை	-11.4013
க்கொண்ட	-11.4016
▁விலா	-11.4019
▁கையெழுத்திட	-11.402
▁சாமானிய	-11.402
▁அக்பர	-11.4022
▁வர்க்க	-11.4023
▁ழ	-11.4025
▁செயல்கள்	-11.4026
▁அசம்பாவித	-11.4028
▁இடஒதுக்கீட்ட	-11.4028
▁கொந்தளித்த	-11.4028
▁சுயேட்சை	-11.4028
▁துர்நாற்ற	-11.4028
▁புல்டோசர்	-11.4028
▁ரவிச்சந்திரன்	-11.4028
▁கூட்டுத்தாபன	-11.4028
▁சூறையாட	-11.4028
▁துறவி	-11.4028
▁எஸ்டி	-11.4028
▁தோழர்	-11.4028
▁வரவழைக்கப்பட்ட	-11.4028
▁தஞ்சம்	-11.4028
▁சுரங்கப்பாதை	-11.4028
▁இஸ்லாமாபாத்	-11.4028
▁வீசக்கூடும்	-11.4028
▁இடப்பெயர்ச்சி	-11.4029
▁சறுக்க	-11.4029
▁லடாக்	-11.403
▁ஆகாஷ்	-11.403
▁கடற்	-11.4031
▁போபால்	-11.4031
co	-11.4033
▁வியக்க	-11.4034
▁பேசினால்	-11.4035
▁ஐய	-11.4037
▁தீர்ந்த	-11.404
▁பிற்பகுதி	-11.4041
▁ta	-11.4042
▁அம்பு	-11.4042
av	-11.4042
▁நலனை	-11.4042
▁தரப்பை	-11.4044
▁வசூலித்த	-11.4044
▁வகைப்படுத்த	-11.4045
▁பாணி	-11.4048
▁ஆவடி	-11.4048
▁திட்டமிடல	-11.4049
▁டக்	-11.405
கரை	-11.4051
▁ஈடுபடுத்தப்பட்ட	-11.4053
▁சொன்னதை	-11.4053
▁ஞாபக	-11.4055
▁விமர்சனங்கள	-11.4061
▁அண்ணன	-11.4061
▁விண்கல	-11.4063
▁நலத்திட்டங்கள	-11.4065
▁குறிப்பிடுகின்ற	-11.4066
▁வெல்வ	-11.4067
▁மயான	-11.4068
▁பாகங்கள	-11.4069
▁விருச்சிகம்	-11.4072
▁பாஜகவும்	-11.4072
▁வழங்கவும்	-11.4072
▁இனங்கள	-11.4073
▁துன்புறுத்தல்	-11.4074
▁முன்வைத்தார்	-11.4075
ிந்திய	-11.4076
▁பதிவாளர	-11.4076
▁சுரண்ட	-11.4077
▁காட	-11.4077
▁கணக்கான	-11.4077
▁கையிருப்பு	-11.4078
▁நாயக்க	-11.408
▁வெங்கடேசன்	-11.4085
▁மாத்திரைகள்	-11.4085
▁நிறைவேற	-11.4086
▁கொல்லப்பட்டார்	-11.4088
கிழமை	-11.4088
▁நன்மைகளை	-11.4091
▁கட்டடங்கள	-11.4093
▁ஸ்கூல்	-11.4096
நீங்கள்	-11.4098
▁அனி	-11.4102
▁வீட்டுக்	-11.4103
▁பல்லவ	-11.4103
▁மேற்பட்டவர்கள	-11.4105
▁வீச்சு	-11.4107
▁கரையை	-11.4107
▁வீசும்	-11.4109
▁சொல்லப்பட	-11.4114
▁மறுக்கப்பட்ட	-11.4114
▁லெக்	-11.4116
▁அப்பார்ட்மெண்ட்	-11.4117
▁கொழு	-11.4117
▁அறிமுகப்படுத்தி	-11.4118
▁பேசாமல்	-11.4119
▁4,000	-11.4121
▁கணவருக்கு	-11.4122
▁ஸ்கூட்டர்	-11.4125
▁நாகர்கோவில்	-11.4125
▁விருக்கிறது	-11.413
▁கடித்த	-11.413
▁குமர	-11.4131
படை	-11.4133
▁நரம்பு	-11.4135
▁திடல	-11.4138
▁ஒருங்கிணைப்ப	-11.4139
▁புலம்பெயர்	-11.4143
▁ஸ்பெயின்	-11.4144
up	-11.4146
வயது	-11.4147
ுறை	-11.4149
ார்த்த	-11.4151
▁சுதந்திரத்தை	-11.4153
பிஎஸ்சி	-11.4155
▁ுவ	-11.4155
▁வழிபாட்ட	-11.4156
▁வாக்குச்	-11.4157
▁செய்ததில்	-11.4158
▁நேபாளம்	-11.4158
▁பாகங்கள்	-11.4158
▁டய	-11.416
▁சீர்திருத்தங்கள	-11.4161
▁யோட	-11.4163
▁குரோ	-11.4166
▁வகுத்த	-11.4167
▁முரசொலி	-11.4169
▁இறையாண்மை	-11.4169
▁சம்மதம்	-11.4169
▁தலைகீழா	-11.4169
▁பொறாமை	-11.4169
▁பகவத்	-11.4169
▁பிரவீன்	-11.4169
▁புழக்க	-11.4169
▁விளக்கேற்ற	-11.4169
▁பஜனை	-11.4169
▁ஆபீஸ	-11.4169
▁பகவதி	-11.4169
▁மன்னார்குடி	-11.4169
▁வெளியிட்டிருந்த	-11.4169
▁கட்டமைக்க	-11.417
▁இட்லி	-11.417
▁குளிர்கால	-11.417
▁விரும்புகிறோம்	-11.417
▁பிரான்	-11.4171
▁சாதிவாரி	-11.4172
▁கொலு	-11.4172
ஷீ	-11.4172
▁உலர்	-11.4175
▁விடுகிறார்	-11.4176
▁அறிவை	-11.4177
▁எளிமையா	-11.4178
▁கொடுங்கள்	-11.418
▁அப்படியானால்	-11.4181
▁ரூப	-11.4183
▁ுது	-11.4185
▁வழங்குதல்	-11.4186
▁ட்ரம்ப	-11.4188
▁எட்டியுள்ள	-11.4188
▁போன்றவர்கள	-11.4189
▁தொடர்வத	-11.4192
▁ஆண்டவர்	-11.4193
▁தர்ப்ப	-11.4197
▁93	-11.4197
▁பெரி	-11.4198
▁கன்ன	-11.4199
▁உடம்பு	-11.42
▁வாதத்தை	-11.42
▁பேரறிவாளன	-11.4201
▁பள்ளியை	-11.4201
▁உள்ளார்கள்	-11.4202
▁வாழ்த்தி	-11.4203
▁தச	-11.4204
▁காணப்பட	-11.4204
▁வாடிக்கையாளர்	-11.4204
▁கதைகளை	-11.4205
▁திருடிய	-11.4209
▁சஞ்ச	-11.421
மோகன்	-11.421
சுப்ரமணியன்	-11.4215
▁சுப்ம	-11.4216
▁பிராண்ட	-11.4219
▁இயந்திரங்கள்	-11.422
▁தைரியம	-11.4221
▁வயல்	-11.4221
▁மொர	-11.4222
▁பொலி	-11.4222
▁தேவைப்படுகிறது	-11.4223
ாய்வு	-11.4228
▁வீராங்கனைகள்	-11.4228
▁கழிக்க	-11.4229
▁வெளிச்சம்	-11.423
▁விவேகானந்தர	-11.423
▁செய்திக்குறிப்ப	-11.4231
▁சத்யா	-11.4233
▁னர	-11.4235
▁அதிர்ந்து	-11.4236
▁சாமியார்	-11.4236
▁சந்தர்ப்பம்	-11.4236
▁படையெடுப்பு	-11.4237
▁முடிந்துள்ளது	-11.4239
▁தொண்டை	-11.4239
▁ra	-11.424
▁நிலச்சரிவு	-11.424
▁விங்	-11.4244
▁லங்கா	-11.4246
▁விமர்ச	-11.4247
▁ிருக்கின்ற	-11.4247
▁நான்தான்	-11.4249
▁பக்கங்களில	-11.4249
▁பட்டினி	-11.425
▁சமமாக	-11.4251
▁தியேட்டர்	-11.4253
▁கதவுகள	-11.4255
▁அனைத்திலும	-11.4256
▁யாரே	-11.4257
▁ஜியா	-11.4257
▁கருதப்பட்ட	-11.4258
▁யுக	-11.4258
▁கொர	-11.4259
▁கொண்டிருப்பதாக	-11.4259
▁சப்த	-11.426
▁முன்னிறுத்தி	-11.4261
▁வச்சு	-11.4261
லோன்	-11.4262
▁மேள	-11.4264
▁ஷின்	-11.4265
▁வகிக்க	-11.4266
▁ஓட்டல	-11.4269
▁புள்ளிவிவரங்கள	-11.4272
▁செய்தவர்கள்	-11.4277
ிருக்கிறேன்	-11.4278
▁சட்டங்கள	-11.4281
▁மையங்கள	-11.4282
▁நடத்தியதாக	-11.4284
▁தேவைப்பட்டது	-11.4285
▁பறி	-11.4285
▁இதுதொடர்பா	-11.4289
▁விருப்பதாக	-11.4292
▁வயத	-11.4295
▁தீர்வுகளை	-11.4296
சூரிய	-11.4297
▁ரசிக	-11.4301
▁போட்டித்	-11.4302
▁ஆபத்தானது	-11.4303
டிவ்	-11.4304
▁கணேச	-11.4305
ரேகா	-11.4305
▁வணிகம்	-11.4306
▁சொத்துகளை	-11.4306
▁சிக்கியுள்ள	-11.4309
▁சோர்வு	-11.4309
▁புலம்பெயர்ந்த	-11.4311
▁வன்முறைகள்	-11.4311
▁வவுனியா	-11.4312
▁ஹாலிவுட்	-11.4312
▁காணொலி	-11.4312
▁மூலதன	-11.4312
▁சரிபார்க்க	-11.4312
▁ஆழ்வார்	-11.4312
▁ஏதுவாக	-11.4312
▁சமிதி	-11.4312
▁சிகரெட்	-11.4312
அவமதிப்பு	-11.4312
▁முகலாய	-11.4312
▁(21	-11.4313
▁சுட்டிக்	-11.4313
▁வாழ்த்துகள்	-11.4314
▁பிற்கால	-11.4315
▁போய்விட்டது	-11.4315
▁செய்வேன்	-11.4316
▁ஓப்பன	-11.4316
▁சந்தியா	-11.4317
▁இருக்கக்கூடும்	-11.4317
▁ஐபோன	-11.4317
▁சார்பு	-11.4318
▁நீளம்	-11.432
▁ஏற்படுவது	-11.4322
▁வேறுபட்ட	-11.4322
▁வழிகளில	-11.4322
▁il	-11.4322
▁பேசுபொருளாக	-11.4323
▁கூட்டத்துக்கு	-11.4323
ாலேயே	-11.4325
▁பரிமாற	-11.4326
▁என்னால	-11.4329
▁அதிபதியாக	-11.433
ஞ்சா	-11.4331
▁லிங்கம்	-11.4332
▁குருக்கள்	-11.4334
[...]
