<unk>	0
<s>	0
</s>	0
.	-2.88625
,	-3.48658
ம்	-4.55964
க்	-5.07366
ப்	-5.13251
கள்	-5.17555
்	-5.20986
▁இந்த	-5.36296
த்	-5.41341
ு	-5.43352
து	-5.48501
▁என்று	-5.60913
ும்	-5.6195
▁	-5.76086
▁ஒரு	-5.7622
▁மற்றும்	-5.76305
க்கு	-5.78723
க	-5.8758
யில்	-5.90709
களை	-5.91475
ச்	-5.98835
▁அவர்	-6.00561
▁என	-6.00695
ை	-6.01759
ய	-6.01795
ன்	-6.06325
"	-6.06493
:	-6.08635
ி	-6.12286
த்தில்	-6.12464
யை	-6.12571
ல்	-6.13256
▁வேண்டும்	-6.1589
-	-6.17591
ின்	-6.17598
யின்	-6.19437
ர்	-6.20895
▁"	-6.215
ன	-6.26402
ஸ்	-6.28493
ில்	-6.2885
?	-6.29387
த்தை	-6.29673
யும்	-6.33373
▁அந்த	-6.34728
ார்	-6.36423
▁ஆனால்	-6.38369
▁இது	-6.41582
தான்	-6.42153
மாக	-6.4273
▁உள்ள	-6.43096
வ	-6.46953
களின்	-6.4701
ட்	-6.48409
களில்	-6.53653
▁என்ற	-6.55525
▁பல	-6.5708
ங்கள்	-6.58816
▁அ	-6.59159
பி	-6.59642
▁கடந்த	-6.60047
▁நிலையில்	-6.60372
ம	-6.60889
ா	-6.61276
க்க	-6.613
▁(	-6.63384
▁இருந்து	-6.63405
▁அரசு	-6.638
த்த	-6.64567
டி	-6.64598
ல	-6.64704
யாக	-6.66351
▁முதல்	-6.66396
!	-6.70162
)	-6.71064
ர	-6.71292
தி	-6.71563
ிய	-6.72603
ால்	-6.73071
களுக்கு	-6.73158
ுக்கு	-6.75314
வும்	-6.75702
வை	-6.76031
னர்	-6.76149
சி	-6.76192
வின்	-6.77428
ப	-6.77748
▁சில	-6.79275
த்தின்	-6.79723
ரி	-6.80309
▁மேலும்	-6.81813
▁உள்ளது	-6.83407
ே	-6.84612
த	-6.84621
'	-6.8688
வே	-6.88692
வி	-6.89824
▁ஆண்டு	-6.90027
▁குறித்து	-6.90045
▁செய்ய	-6.92007
யா	-6.93502
ந்த	-6.94099
▁தான்	-6.94804
மான	-6.95297
ுள்ளது	-6.96108
மா	-6.97702
▁தொடர்ந்து	-6.97797
▁இருக்கும்	-6.98226
ச	-6.9895
▁செய்து	-6.9922
▁தேதி	-6.99353
▁சென்னை	-6.99557
▁என்ன	-7.00471
தாக	-7.01274
▁தனது	-7.01976
▁வந்த	-7.02261
▁க	-7.02327
▁பா	-7.029
ாக	-7.0299
▁பாஜக	-7.03654
களும்	-7.03657
▁வரும்	-7.03686
▁மக்கள்	-7.05017
க்கும்	-7.05265
▁என்பது	-7.05708
னி	-7.0571
ட	-7.0668
▁-	-7.06758
▁இல்லை	-7.06894
▁வருகிறது	-7.06972
வர்	-7.07304
வில்லை	-7.07323
▁வரை	-7.07629
▁'	-7.07657
▁இ	-7.0768
▁இந்திய	-7.07749
▁நான்	-7.07907
ப்ப	-7.08286
▁அமைச்சர்	-7.0878
▁ப	-7.09865
ப்பட்ட	-7.10207
▁இன்று	-7.1133
...	-7.12076
▁தலைவர்	-7.12115
▁இருந்த	-7.12194
▁தற்போது	-7.13394
▁கொண்டு	-7.14029
▁பிறகு	-7.14371
ட்ட	-7.1482
▁என்றும்	-7.14858
ஆம்	-7.15213
▁அது	-7.16994
தா	-7.18427
▁மீது	-7.19079
த்திற்கு	-7.19439
ான	-7.20753
ுள்ளார்	-7.21247
லி	-7.21337
லை	-7.21345
மும்	-7.21512
கா	-7.2198
மை	-7.2216
▁மூலம்	-7.23035
த்து	-7.23107
ரா	-7.23678
ங்க	-7.25359
▁செய்த	-7.26034
▁எந்த	-7.26185
ங்களை	-7.26187
▁கொண்ட	-7.26212
▁அவர்கள்	-7.26535
▁அணி	-7.26713
▁கட்சி	-7.27491
யான	-7.2752
▁சி	-7.27636
மே	-7.28289
▁சேர்ந்த	-7.28643
▁மத்திய	-7.28983
யே	-7.29092
ப்பு	-7.29351
▁2	-7.29364
வா	-7.30335
▁காங்கிரஸ்	-7.30874
▁ச	-7.31044
▁தேர்தல்	-7.31373
வு	-7.32012
மு	-7.32158
▁வர	-7.32673
லா	-7.33444
ப்படும்	-7.33601
ரை	-7.34398
மி	-7.35182
லாம்	-7.35287
வில்	-7.36335
",	-7.36358
▁ம	-7.38123
▁இரண்டு	-7.38183
▁பிரதமர்	-7.39127
ப்பட்டது	-7.39258
▁மு	-7.39271
டு	-7.39681
▁வி	-7.40182
▁ஆ	-7.40733
▁மாநில	-7.41102
னா	-7.41523
▁பட	-7.41947
▁இதனால்	-7.42294
ள	-7.42517
தை	-7.43127
▁புதிய	-7.43129
▁போது	-7.43828
னை	-7.43856
ஜ	-7.43875
▁போன்ற	-7.43914
ாமல்	-7.4401
ுள்ளனர்	-7.44154
▁அவரது	-7.44398
பா	-7.44957
▁தி	-7.45609
▁நடவடிக்கை	-7.45857
▁இந்தியா	-7.46499
▁உள்ளிட்ட	-7.46907
▁3	-7.47099
▁இருக்கிறது	-7.47646
▁இதில்	-7.48773
ிருக்கிறது	-7.48899
▁பல்வேறு	-7.49667
▁நேற்று	-7.49751
▁அரசியல்	-7.50116
▁ஓ	-7.50389
▁5	-7.5045
▁அதன்	-7.50566
▁இருக்க	-7.50759
▁பி	-7.50921
▁பேர்	-7.51553
ப்பட்டுள்ளது	-7.51941
▁மீண்டும்	-7.52753
▁தமிழக	-7.52815
▁முதல்வர்	-7.52883
▁சமூக	-7.53058
▁வேலை	-7.53131
▁எ	-7.54271
ுள்ள	-7.54622
▁அதிமுக	-7.54892
வது	-7.54911
▁இரு	-7.55345
▁கே	-7.5556
▁ரூ	-7.55653
▁வெற்றி	-7.56203
▁வந்து	-7.56384
▁பெண்	-7.56396
▁தொடர்பாக	-7.56458
ட்டு	-7.56702
▁தர	-7.56839
ந்து	-7.57048
▁பெரிய	-7.57166
த்துக்கு	-7.57167
ுவது	-7.57392
▁அதை	-7.57407
ோம்	-7.57764
▁அப்போது	-7.57889
▁சு	-7.58042
வர்கள்	-7.5822
▁மாவட்ட	-7.58328
▁மா	-7.58399
▁வழங்க	-7.58418
▁பேசிய	-7.58509
ிருக்கிறார்	-7.59425
▁திமுக	-7.59571
▁என்	-7.597
▁டி	-7.60259
▁த	-7.6033
▁முறை	-7.60744
ங்களில்	-7.6076
ேன்	-7.60815
▁நடந்த	-7.6113
ப்பட்டு	-7.61383
ுடன்	-7.61551
▁மட்டுமே	-7.61696
▁கூட	-7.61869
ற	-7.62156
▁சா	-7.62677
எஸ்	-7.63304
போது	-7.6336
▁தெரிவித்தார்	-7.63567
▁4	-7.63758
▁அனைத்து	-7.63942
▁பெற்ற	-7.64181
வுக்கு	-7.64255
▁ந	-7.64308
▁ஆம்	-7.64384
▁10	-7.6449
▁சென்று	-7.64776
கு	-7.64833
▁உ	-7.6557
▁சிறப்பு	-7.65838
தால்	-7.65863
▁அதில்	-7.65966
▁அல்லது	-7.66133
▁நடந்தது	-7.66417
▁கு	-7.66476
;	-7.66479
▁இப்போது	-7.66878
ட்டி	-7.67061
ஜி	-7.67126
▁முக்கிய	-7.67255
▁தேசிய	-7.6774
▁காரணமாக	-7.6788
ச்ச	-7.67969
▁வகையில்	-7.68173
ற்ற	-7.68396
▁கூறினார்	-7.6867
ரு	-7.68799
▁இலங்கை	-7.68822
▁இருந்தது	-7.69305
ாத	-7.69342
▁பாதுகாப்பு	-7.69448
▁கோடி	-7.69963
▁சென்ற	-7.70031
▁அங்கு	-7.70058
▁விட	-7.70117
விட	-7.70197
▁6	-7.7027
▁19	-7.70341
ழ	-7.70361
ண	-7.70582
▁என்றார்	-7.70734
▁கை	-7.70954
▁எடப்பாடி	-7.71201
▁ஏ	-7.71609
▁என்பதை	-7.72125
▁பின்னர்	-7.72308
▁எம்	-7.72699
▁செல்ல	-7.72773
▁எப்படி	-7.72782
ினார்	-7.7283
▁வருகின்றனர்	-7.72917
▁தலைமை	-7.7317
▁மணி	-7.7325
▁விசாரணை	-7.73516
▁வ	-7.74127
ோ	-7.74937
▁மே	-7.75304
றி	-7.75852
▁வைத்து	-7.75955
▁``	-7.76224
▁இதை	-7.76437
▁கால	-7.76519
▁தா	-7.76587
▁`	-7.76634
▁வழக்கு	-7.76893
▁மிகவும்	-7.77776
ப்பட	-7.77962
▁பெற	-7.78308
ள்	-7.78341
▁மாதம்	-7.79086
▁பேச	-7.80208
அ	-7.80635
▁முடியும்	-7.80787
ீ	-7.81086
▁தகவல்	-7.81322
▁பற்றி	-7.81484
▁அதிக	-7.81508
▁7	-7.82197
த்தி	-7.8228
வர	-7.82557
▁1	-7.82953
▁ஜனாதிபதி	-7.8344
ஷ	-7.83488
▁கொரோனா	-7.83522
ிடம்	-7.83577
▁நாம்	-7.8362
▁முன்னாள்	-7.84016
▁செ	-7.8419
▁ஆகிய	-7.84282
▁நடத்த	-7.84594
▁நாடு	-7.84825
▁பு	-7.85428
▁கைது	-7.85489
▁இதற்கு	-7.85672
▁இவர்	-7.85698
ஷ்	-7.85907
▁என்கிறார்	-7.86008
கி	-7.86061
▁தமிழ்நாடு	-7.86278
களையும்	-7.86482
▁மோடி	-7.86736
▁சட்ட	-7.86999
▁துறை	-7.87137
▁செய்யப்பட்ட	-7.87695
▁அதற்கு	-7.87696
▁கா	-7.87785
▁நிதி	-7.87798
யுடன்	-7.88159
▁உலக	-7.88378
▁இந்நிலையில்	-7.88854
டை	-7.8925
▁நாள்	-7.89324
▁தடை	-7.89591
ிருந்த	-7.89885
ிருக்கும்	-7.89895
▁முடியாது	-7.90057
ங்	-7.90187
▁நாங்கள்	-7.90201
ப்படுகிறது	-7.90425
▁முன்பு	-7.90578
▁நிலை	-7.90595
சா	-7.90693
▁கி	-7.91365
7	-7.91883
க்கான	-7.91897
க்கி	-7.92447
▁ஒருவர்	-7.92449
▁எதிராக	-7.92633
▁ஒன்று	-7.92953
ளி	-7.93094
▁காந்தி	-7.93109
▁கோவில்	-7.93124
ாலும்	-7.93236
▁பார்க்க	-7.93418
▁தேர்தலில்	-7.93698
கே	-7.9389
க்காக	-7.93919
▁பதவி	-7.94227
▁பெரும்	-7.94304
▁அடுத்த	-7.94366
▁காலை	-7.94801
▁தெரிவித்த	-7.94981
▁அவரை	-7.95036
▁8	-7.95042
▁பூ	-7.95345
▁பணி	-7.9537
▁ஆய்வு	-7.96111
▁பக்தர்கள்	-7.96276
ண்ட	-7.96314
▁பகுதியில்	-7.96617
▁மணிக்கு	-7.9672
ணி	-7.96725
▁எனவே	-7.96764
▁கருத்து	-7.96844
வ்	-7.96855
▁முன்	-7.97164
▁கூட்டணி	-7.97215
▁கோ	-7.97507
டன்	-7.97631
▁கல்வி	-7.97724
களுடன்	-7.97857
▁அவருக்கு	-7.98038
▁கொள்ள	-7.98124
ூ	-7.98274
▁எடுக்க	-7.98354
யோ	-7.98585
கோ	-7.9928
ுகிறது	-7.99407
ய்	-7.99474
▁மூன்று	-7.9959
▁பொருளாதார	-8.00481
▁பதிவு	-8.00605
▁ஸ்	-8.01212
▁ஆர்	-8.01292
ெ	-8.01516
▁திரு	-8.0167
விட்டு	-8.01822
ங்களுக்கு	-8.01829
▁அதிகாரிகள்	-8.01854
▁காரணம்	-8.02419
யால்	-8.02535
▁கோயில்	-8.0258
▁போர்	-8.02928
▁முடிவு	-8.03019
▁ஐ	-8.03036
▁அதே	-8.03082
▁சொல்ல	-8.03194
▁மட்டும்	-8.03382
▁விழா	-8.03533
▁தன்	-8.03733
▁ஒரே	-8.03749
▁டெல்லி	-8.03988
▁உள்ளன	-8.0399
e	-8.04162
▁வா	-8.04443
▁தமிழ்	-8.04575
▁கேள்வி	-8.04683
சு	-8.04941
▁போட்டி	-8.05011
கை	-8.05495
தாகவும்	-8.05693
ிருந்தார்	-8.06342
▁இன்னும்	-8.06399
▁பயன்படுத்த	-8.06615
3	-8.06913
ச்சி	-8.07307
தில்	-8.0755
▁இப்படி	-8.07706
▁வேண்டிய	-8.07778
▁மாற்ற	-8.07925
▁ஆட்சி	-8.08016
▁தேர்வு	-8.08065
▁ஒவ்வொரு	-8.08127
படி	-8.08135
▁சிகிச்சை	-8.08148
களாக	-8.08549
▁மிக	-8.08598
▁ஹ	-8.08603
▁ரூபாய்	-8.08677
▁எனக்கு	-8.08752
▁கொடுத்த	-8.08876
▁சுமார்	-8.08979
▁போல	-8.09165
▁முழுவதும்	-8.09166
▁எடுத்து	-8.09371
▁நா	-8.10363
ந	-8.10374
▁சம்பவம்	-8.10504
▁செய்யும்	-8.10553
இ	-8.10622
▁கூறி	-8.10747
▁நல்ல	-8.10871
▁நேரத்தில்	-8.10952
o	-8.11039
▁இடங்களில்	-8.11162
▁பொது	-8.11192
▁பள்ளி	-8.11288
▁கொலை	-8.11314
ப்பா	-8.11444
நா	-8.11585
▁தீ	-8.12085
▁உதவி	-8.12093
▁கீழ்	-8.12395
▁ஏன்	-8.1255
ிலும்	-8.12634
▁9	-8.12753
ஐ	-8.12885
▁இதன்	-8.13154
▁குழந்தை	-8.13176
▁தேவை	-8.13388
ுள்ளன	-8.13513
▁ர	-8.13675
▁குறிப்பிட்ட	-8.13777
▁கட்ட	-8.13898
▁தொடர்பான	-8.13936
▁உணவு	-8.14067
▁ஸ்டாலின்	-8.14235
▁12	-8.14469
ையும்	-8.1472
s	-8.15162
▁கொடுக்க	-8.15316
▁குறித்த	-8.15492
▁மருத்துவ	-8.15723
ிற்கு	-8.15953
▁லட்சம்	-8.16012
▁மழை	-8.16144
▁குழு	-8.16463
▁வேறு	-8.16583
▁நி	-8.16629
ஏ	-8.16728
▁20	-8.17282
▁விட்டு	-8.1744
களால்	-8.17461
▁குரு	-8.17511
▁பிர	-8.17521
▁தங்கள்	-8.17726
▁வீட்டில்	-8.1773
▁வருகிறார்	-8.18136
று	-8.18291
▁நடந்து	-8.183
▁முயற்சி	-8.18539
தே	-8.1859
▁இந்தப்	-8.18591
▁சரி	-8.18597
▁அடி	-8.18884
▁இதையடுத்து	-8.19035
▁விலை	-8.1919
▁மனைவி	-8.19232
▁ஏற்பட்ட	-8.19264
▁வாய்ப்பு	-8.20135
▁கலந்து	-8.20177
க்கள்	-8.20444
▁கூறப்படுகிறது	-8.21032
▁வந்தது	-8.21053
▁நடத்தி	-8.21612
ிருக்க	-8.21647
▁மி	-8.21751
த்துடன்	-8.21891
▁நடைபெற்ற	-8.21899
▁குடும்ப	-8.22375
▁நிகழ்ச்சி	-8.225
▁மாத	-8.22716
▁பார்த்த	-8.2294
▁மாவட்டம்	-8.23064
9	-8.23131
▁செய்தி	-8.23295
வாக	-8.23327
▁துணை	-8.23329
▁ஆக	-8.23657
▁11	-8.23662
டா	-8.23787
▁பின்	-8.24089
கர்	-8.24534
▁பூஜை	-8.24905
லில்	-8.24939
▁பெண்கள்	-8.25055
▁ஸ்ரீ	-8.25108
ஆர்	-8.25112
6	-8.25123
தற்கு	-8.25141
வரும்	-8.25179
▁விமான	-8.25437
ருக்கு	-8.25985
▁இங்கு	-8.2604
ள்ள	-8.26082
▁சார்பில்	-8.26082
▁சுவாமி	-8.26315
▁து	-8.2636
▁ராணுவ	-8.26362
▁சர்வதேச	-8.26373
▁நகர	-8.26404
▁கிராம	-8.26426
▁வைத்த	-8.26434
▁இதுவரை	-8.27036
▁ரஷ்யா	-8.27226
னு	-8.27394
▁கட்சியின்	-8.27631
ரின்	-8.27658
▁மாலை	-8.27663
ரோ	-8.27715
▁அனுமதி	-8.2782
ிட	-8.27905
▁இரவு	-8.27906
▁வங்கி	-8.28063
▁பாதிக்கப்பட்ட	-8.2814
▁அளவில்	-8.28294
▁இந்தியாவில்	-8.28315
▁செலுத்த	-8.28415
▁அதிகாரி	-8.28434
பு	-8.28463
▁போலீசார்	-8.28481
▁வயது	-8.28656
▁நடைபெற்றது	-8.2874
▁15	-8.28987
▁வழி	-8.29021
ங்களின்	-8.2911
▁நீங்கள்	-8.29159
▁இட	-8.29266
▁புகார்	-8.29538
யர்	-8.29832
▁சிங்	-8.29896
▁அரசின்	-8.29962
▁தங்க	-8.29975
▁செயலாளர்	-8.2998
▁மற்ற	-8.30323
▁கூறுகிறார்	-8.30384
▁பெயர்	-8.30531
▁அருகே	-8.30569
▁பழனிசாமி	-8.3069
▁உயர்	-8.31208
▁அளித்த	-8.31302
▁அமெரிக்க	-8.31338
▁பிற	-8.31439
▁எடுத்த	-8.31493
ுவதற்கு	-8.31884
▁அதிபர்	-8.3194
▁வாங்க	-8.32213
ொ	-8.32285
சன்	-8.3229
த்துறை	-8.32363
▁அறிக்கை	-8.32393
▁உறுதி	-8.3269
▁மத	-8.32736
▁உடல்	-8.32737
த்தான்	-8.32752
▁கார்	-8.32887
▁பெற்று	-8.329
எல்	-8.33199
▁நாடாளுமன்ற	-8.33812
ான்	-8.33872
▁யார்	-8.34038
யிலும்	-8.34059
▁பார்த்து	-8.34116
▁காண	-8.34132
▁காவல்	-8.34155
▁பே	-8.34201
▁தெரிவித்துள்ளார	-8.34465
▁ஆளுநர்	-8.34505
▁அமெரிக்கா	-8.34539
யம்	-8.3471
▁சீனா	-8.34757
▁பகுதி	-8.34777
▁இடையே	-8.34828
▁பணம்	-8.34902
▁தாக்குதல்	-8.35064
▁மேல்	-8.35383
த்திலும்	-8.35518
ிறது	-8.35567
▁மெ	-8.35699
▁ரயில்	-8.3576
ாது	-8.36064
▁எனவும்	-8.36122
▁மன	-8.36362
▁அப்படி	-8.36599
▁பாதிப்பு	-8.36892
▁பிரச்னை	-8.37511
▁வே	-8.37646
▁அதனால்	-8.37746
ிருந்தது	-8.37856
▁கிடைக்கும்	-8.38165
▁என்றால்	-8.38268
ச்சு	-8.38317
ஞ்ச	-8.38646
▁வீடு	-8.38677
▁உங்கள்	-8.38777
▁வீடியோ	-8.38836
▁காவல்துறை	-8.38915
ுமாறு	-8.38953
ூர்	-8.39248
▁ஓபிஎஸ்	-8.39448
னின்	-8.39582
▁உள்ளனர்	-8.3976
▁சொல்லி	-8.4002
▁தனி	-8.40122
8	-8.40188
▁நாட்டின்	-8.40404
▁தென்	-8.40422
▁அரச	-8.40436
▁தலை	-8.40949
▁அமைப்பு	-8.40968
▁இருக்கிறார்	-8.41004
▁எஸ்	-8.41362
▁போ	-8.41362
▁போலீஸார்	-8.41513
▁வைக்க	-8.41572
ார்கள்	-8.41605
4	-8.4177
வுடன்	-8.4206
▁செய்தனர்	-8.42121
▁சோதனை	-8.42168
களைப்	-8.42221
ராக	-8.42332
▁உறுப்பினர்	-8.42428
▁திட்டம்	-8.42695
▁ஆகியோர்	-8.42744
▁ஷா	-8.42813
▁படை	-8.42908
றை	-8.43114
A	-8.43227
ியது	-8.43287
▁திட்ட	-8.43412
▁உச்ச	-8.43413
ரே	-8.43415
ஸ	-8.43423
▁அதாவது	-8.43439
க்குள்	-8.43599
னுக்கு	-8.43669
1	-8.43778
▁எதிர்ப்பு	-8.44022
▁எனக்	-8.44156
▁உருவாக்க	-8.44248
ட்டை	-8.44422
▁18	-8.4452
ஹ	-8.44558
▁குறிப்பிடத்தக்க	-8.44743
▁தொழில்	-8.44765
▁ஜி	-8.44781
வோ	-8.44909
ுள்ளதாக	-8.44948
▁நேரம்	-8.45048
▁பெ	-8.45086
▁சேவை	-8.45113
▁இஸ்ரேல்	-8.4523
▁தொடங்கி	-8.45236
ண்டி	-8.45252
ஆ	-8.45295
▁செல்வ	-8.45379
▁என்பதால்	-8.45479
▁சோ	-8.45532
க்கூடிய	-8.45563
▁மாணவி	-8.45644
▁வட	-8.45653
மோ	-8.45685
ற்று	-8.45819
சை	-8.45865
▁நில	-8.46158
▁வருகின்றன	-8.46213
▁மதுரை	-8.46353
யிலிருந்து	-8.46549
ழி	-8.46782
▁இடத்தில்	-8.46846
▁மூத்த	-8.46919
ரிய	-8.47029
▁அடிப்படையில்	-8.4734
▁ஏற்படும்	-8.47629
▁திருமணம்	-8.47721
வன்	-8.47786
யூ	-8.47862
▁ஒ	-8.48162
▁பதி	-8.48238
▁அதிகமாக	-8.48328
ினால்	-8.48413
யி	-8.48422
த்தால்	-8.48483
ங்களும்	-8.48678
▁தந்தை	-8.4872
▁அன்று	-8.48754
▁கேட்க	-8.4891
▁நீர்	-8.49026
ப்படுத்த	-8.49071
▁தொடர்	-8.49125
t	-8.49189
வரை	-8.49248
ப்போ	-8.49359
▁இடம்	-8.49459
▁நடைபெறும்	-8.49553
▁கூற	-8.49986
▁கோரிக்கை	-8.5001
▁பல்கலைக்கழக	-8.50172
ுவதாக	-8.50206
▁எண்ண	-8.50449
மீ	-8.505
விற்கு	-8.50564
▁பயிற்சி	-8.50593
▁ஜ	-8.50688
ளை	-8.50832
▁கடன்	-8.50849
▁எதிரான	-8.51069
▁வழக்கில்	-8.51117
ர்கள்	-8.51259
▁எண்ணிக்கை	-8.51403
▁காட்ட	-8.51455
▁தொடர்பு	-8.51468
▁செல்லும்	-8.51484
▁பாலியல்	-8.51608
▁திருமண	-8.5163
▁30	-8.51631
யில	-8.51632
▁குறிப்பாக	-8.51683
▁பால	-8.5177
▁கூறிய	-8.51952
▁இந்தியாவின்	-8.52033
%	-8.52038
▁செய்தார்	-8.52104
▁ராகுல்	-8.52183
▁மக்களுக்கு	-8.52242
▁நம்பிக்கை	-8.52327
▁இல்லாத	-8.52333
▁தனியார்	-8.52516
▁போல்	-8.52652
▁விற்பனை	-8.5274
▁தமிழ்நாட்டில்	-8.52997
20	-8.5309
▁இந்து	-8.53186
▁நிறுவனம்	-8.53337
▁நேர	-8.53491
களைக்	-8.53862
▁காலத்தில்	-8.54085
▁மொழி	-8.54101
▁ஆதரவு	-8.54192
▁பகுதிகளில்	-8.54372
▁தொகுதி	-8.54397
ஜ்	-8.54426
▁கொடுத்து	-8.5456
▁போலீஸ்	-8.5457
▁பாட	-8.54656
களுக்கான	-8.54802
▁மாணவர்கள்	-8.55052
▁சிலர்	-8.55145
ண்டு	-8.55169
▁கொ	-8.55754
▁பயணம்	-8.55821
▁முழு	-8.55914
▁இந்தக்	-8.55938
▁இருப்பதாக	-8.55996
▁அல்ல	-8.56109
▁மகா	-8.56202
போ	-8.56245
▁அந்தப்	-8.56262
▁சாலை	-8.56345
க்கா	-8.5639
▁நபர்	-8.56417
களுக்கும்	-8.56646
லு	-8.56824
▁அதிகம்	-8.56832
▁கிடைத்த	-8.56971
▁தெரிவித்து	-8.57012
▁பேசி	-8.57049
▁இருந்தாலும்	-8.57099
▁பிபிசி	-8.57327
ண்ட்	-8.57359
கூட	-8.57535
தன்	-8.57548
00	-8.57598
களிலும்	-8.57979
ராஜ்	-8.57996
▁சின்ன	-8.58068
ுகிறார்	-8.58079
▁அவர்களுக்கு	-8.58376
▁இதனை	-8.58405
▁நான்கு	-8.58446
▁வெ	-8.58536
▁மனு	-8.58741
▁என்னை	-8.58778
▁பதில்	-8.58828
▁அதனை	-8.58863
▁நீதிபதி	-8.5905
▁மனித	-8.59173
என்	-8.59408
▁வரி	-8.59422
▁நோய்	-8.59496
ுவதை	-8.597
▁கூடாது	-8.59756
▁நீதிமன்றம்	-8.59787
யிடம்	-8.59868
▁மலை	-8.60126
ும்போது	-8.60203
▁பிரிவு	-8.60384
▁கடும்	-8.60411
ட்டா	-8.60427
▁இருந்தார்	-8.60486
▁தமிழகத்தில்	-8.60576
u	-8.60615
▁உள்ளார்	-8.60635
▁பிரி	-8.60734
ஷா	-8.60738
ட்டில்	-8.60745
i	-8.60818
▁வெளியே	-8.60857
▁கேட்ட	-8.60884
ாய்	-8.60889
▁பங்கு	-8.60981
▁13	-8.61151
▁உற்பத்தி	-8.61193
▁இல்லாமல்	-8.61237
▁நீண்ட	-8.61251
லோ	-8.6131
▁அளிக்க	-8.61366
▁அண்ணாமலை	-8.61431
ிக்க	-8.61695
களிடம்	-8.61742
▁நிறுத்த	-8.62006
▁நடைபெற	-8.62007
▁கோவிலில்	-8.62011
▁உட்பட	-8.6206
▁இந்தத்	-8.62107
▁மேற்பட்ட	-8.62163
த்தையும்	-8.62183
கம்	-8.62367
▁நாடுகள்	-8.62487
▁ஷ	-8.62509
▁கல்லூரி	-8.62519
▁மகன்	-8.62621
க்குறிப்பு	-8.62869
▁ல	-8.62876
▁மர	-8.62968
▁அவை	-8.63081
ல்ல	-8.63181
▁நீதிமன்ற	-8.63274
▁போன	-8.6335
▁உரிமை	-8.63399
g	-8.63435
▁மின்	-8.63441
வர்களுக்கு	-8.63448
▁எங்கள்	-8.63527
▁பிறந்த	-8.63557
▁கூறுகையில்	-8.637
▁நாட்டில்	-8.63811
வால்	-8.63824
▁நீ	-8.63919
பே	-8.63949
▁50	-8.64028
ண்	-8.64153
▁வாக்கு	-8.64155
▁பலர்	-8.64203
▁14	-8.6427
▁நடத்திய	-8.64296
▁இணைந்து	-8.64534
யன்	-8.6485
▁முடியாத	-8.64872
ுமா	-8.65285
யைப்	-8.65378
▁திருவிழா	-8.65384
▁16	-8.6545
▁இருவரும்	-8.6549
▁அனைவரும்	-8.65507
▁உடனடியாக	-8.65607
வெ	-8.65741
▁சந்தித்து	-8.65819
ுங்கள்	-8.65879
a	-8.65907
▁சொந்த	-8.65984
▁கூட்ட	-8.66109
▁எதிர்பார்க்க	-8.66116
2	-8.66127
▁போராட்டம்	-8.66128
▁பண	-8.66155
▁நாளை	-8.66244
▁ராஜ	-8.66306
▁எல்லாம்	-8.66323
▁கூட்டம்	-8.66536
▁நடைபெற்று	-8.66827
▁நடக்கும்	-8.66848
கள	-8.66855
▁வாங்கி	-8.66859
▁மேற்கொள்ள	-8.66905
▁கொள்கை	-8.66915
ங்கி	-8.66918
▁தாக்கல்	-8.66965
▁முதலில்	-8.66977
▁ஆண்டுகளாக	-8.67262
ுதல்	-8.67418
▁பலரும்	-8.67567
▁வந்தார்	-8.67596
▁மீதான	-8.67911
ப்படவில்லை	-8.67916
▁இருப்பினும்	-8.67966
▁இன்	-8.68011
d	-8.68209
▁முதலமைச்சர்	-8.68261
▁தலைமையில்	-8.68403
▁நிலைய	-8.68431
▁சீ	-8.68466
S	-8.68704
▁அவரின்	-8.68777
▁அனுப்ப	-8.68817
ுக்கும்	-8.6888
க்குப்	-8.6888
▁சட்டம்	-8.68941
▁மோதி	-8.69062
▁ஆலோசனை	-8.69387
▁தவிர	-8.69521
▁ஏற்படுத்த	-8.69667
▁17	-8.69898
▁போட்டு	-8.70027
யு	-8.70069
▁ஆண்டில்	-8.70264
▁சாதி	-8.70341
▁தெரிவித்துள்ளது	-8.70351
ஷி	-8.70426
▁படம்	-8.70599
▁வகை	-8.70636
ிலிருந்து	-8.7069
▁கோவை	-8.70714
▁ஆண்டுகளுக்கு	-8.70822
▁கூடிய	-8.7083
▁இனி	-8.71158
▁பொ	-8.71175
ோடு	-8.71215
p	-8.71349
▁அடைந்த	-8.7136
▁ஃப	-8.71434
an	-8.71456
▁அளவுக்கு	-8.71588
▁சிறந்த	-8.7159
▁இறுதி	-8.71625
▁தேடி	-8.71664
▁முன்னிட்டு	-8.71957
▁நடிகர்	-8.71965
த்திர	-8.72163
▁பிரதேச	-8.72237
▁இருப்பது	-8.72311
▁ஈடுபட்ட	-8.72416
▁தலைவர்கள்	-8.725
▁ஆயிரம்	-8.72665
▁இந்தச்	-8.72726
▁ஜா	-8.72828
▁சே	-8.7284
எ	-8.72884
▁கூறியுள்ளார்	-8.72892
▁சிறு	-8.72904
▁எல்லா	-8.72971
▁பால்	-8.73166
▁கடுமையாக	-8.73261
▁பாராளுமன்ற	-8.73261
நிலை	-8.73361
விட்டார்	-8.7367
▁குற்றச்சாட்டு	-8.73775
▁வெளி	-8.73859
▁சம்பவ	-8.73922
ுகின்றனர்	-8.73958
▁மத்தியில்	-8.74054
▁மேற்கு	-8.74142
▁கொண்டாட	-8.74206
▁மக்களின்	-8.74388
▁போக	-8.74427
ைப்	-8.74433
▁சொன்ன	-8.74475
▁வார	-8.74509
▁வளர்ச்சி	-8.74712
▁ரத்த	-8.74761
▁ஏற்பட்டது	-8.74963
▁சென்னையில்	-8.7501
▁சக்தி	-8.75053
▁மாவட்டத்தில்	-8.7509
ஹா	-8.75148
▁அனுப்பி	-8.75168
▁ஈ	-8.75194
▁நடக்க	-8.75199
ப்பை	-8.75259
▁கூட்டத்தில்	-8.75297
பர்	-8.7551
ோர்	-8.75513
▁பாகிஸ்தான்	-8.75575
ுவதற்கான	-8.75585
டர்	-8.75856
▁ஏற்கனவே	-8.75922
▁தன்னுடைய	-8.76018
▁வன்முறை	-8.76018
▁தீவிர	-8.76034
▁முக	-8.7616
▁தகவல்கள்	-8.76316
y	-8.76522
▁இயக்க	-8.76545
▁ரோ	-8.7699
▁ஒன்றை	-8.77202
▁அழைத்து	-8.77268
▁மருத்துவமனையில்	-8.77337
▁கண்	-8.77381
ிலேயே	-8.77451
க்கோ	-8.776
ரும்	-8.77612
▁போட	-8.77656
▁தொடங்க	-8.77766
லே	-8.77767
▁கான்	-8.77806
தர்	-8.77999
▁நோக்கி	-8.78057
▁எனது	-8.78104
யைச்	-8.78181
▁இருந்தால்	-8.78193
யையும்	-8.78219
▁பயன்படுத்தி	-8.78306
▁சந்தித்த	-8.78319
▁இணை	-8.78345
▁வாழ்க்கை	-8.78347
ழு	-8.78356
▁போய்	-8.78683
▁நீதிமன்றத்தில்	-8.78711
▁உயிரிழந்த	-8.78721
▁கேட்டு	-8.78745
▁கலை	-8.78797
▁கடைசி	-8.78843
▁திரும்ப	-8.78952
▁24	-8.7905
▁விஜய்	-8.79106
உ	-8.7912
I	-8.79359
▁ரா	-8.79395
▁தாய்	-8.79397
▁செலவு	-8.79601
▁தெரிவிக்க	-8.79626
▁சுற்றி	-8.79646
▁கண்ட	-8.79702
தற்காக	-8.79836
▁சுகாதார	-8.79851
▁நரேந்திர	-8.79852
▁காட்சி	-8.79878
▁எதுவும்	-8.79897
▁நிர்வாக	-8.79973
▁உண்மை	-8.79992
▁ஆண்டுகள்	-8.80008
▁ரன்கள்	-8.80114
▁25	-8.80162
▁முடியவில்லை	-8.80196
மணி	-8.80252
▁கவனம்	-8.80331
▁கதை	-8.80372
▁முறையில்	-8.80492
▁கோயிலில்	-8.80755
▁முறையாக	-8.8076
▁தந்த	-8.80855
▁நம்	-8.80929
ப்பது	-8.81051
எம்	-8.8107
▁உங்களுக்கு	-8.81115
▁உக்ரைன்	-8.81171
க்கொள்ள	-8.81208
▁சம	-8.8126
▁சமீபத்தில்	-8.81308
குமார்	-8.81331
▁வெளியிட்ட	-8.81356
▁சங்க	-8.81589
▁வீரர்	-8.81657
தும்	-8.81976
த்தா	-8.82141
n	-8.8216
க்கூடாது	-8.82297
▁பற்றிய	-8.82313
யைக்	-8.82329
▁தேவையான	-8.82331
▁விவகாரம்	-8.82345
▁இதுகுறித்து	-8.82518
▁தன்னை	-8.82546
செ	-8.82653
ற்	-8.82676
க்கொண்ட	-8.82838
▁தரப்பு	-8.82985
▁நெருக்கடி	-8.82994
▁மாநிலம்	-8.83004
▁ரஷ்ய	-8.83031
▁தண்டனை	-8.83211
▁அதிகரித்து	-8.83266
▁டாக்டர்	-8.83358
ம்பு	-8.83578
ஃப்	-8.83594
▁காலம்	-8.83739
▁அவர்களை	-8.83755
▁செயல்	-8.8388
▁வேண்டாம்	-8.83939
▁ஜோ	-8.84031
ன்னு	-8.84139
சே	-8.84236
▁ஐந்து	-8.84266
▁திரைப்பட	-8.84291
ுகின்றன	-8.84293
▁ஏராளமான	-8.8434
▁குழந்தைகள்	-8.84352
▁நாட்கள்	-8.84374
▁தொடங்கிய	-8.84394
▁சிவ	-8.84458
▁மற்றொரு	-8.84468
▁கடை	-8.84525
ைக்	-8.84554
▁விரைவில்	-8.84582
▁மருத்துவமனை	-8.84629
▁நமது	-8.8463
ாங்க	-8.84665
▁பட்ட	-8.84688
களே	-8.84727
▁விடுதலை	-8.84987
▁100	-8.85146
▁முக்கியமான	-8.85258
▁மாற	-8.85373
ுவோம்	-8.85441
▁ரி	-8.85638
இல்	-8.85639
▁பொதுமக்கள்	-8.85853
▁அம்மன்	-8.85942
வேண்டும்	-8.85956
r	-8.85987
▁தின	-8.86133
▁இரண்டாவது	-8.86156
ின	-8.86163
▁போட்டியில்	-8.86166
▁நிறைவேற்ற	-8.86169
▁பீ	-8.86312
▁முடிந்த	-8.86338
வந்த	-8.86443
▁சிறப்பாக	-8.86601
▁ஊடக	-8.86716
▁செயல்பட	-8.86735
▁குறிப்பிட்டார்	-8.86746
▁பிரச்சனை	-8.86796
▁எங்களுக்கு	-8.86811
▁அம்மா	-8.87096
னில்	-8.87221
▁கிரிக்கெட்	-8.87323
▁தொகை	-8.87325
▁மும்பை	-8.87494
▁சசிகலா	-8.8755
▁கட	-8.87621
ar	-8.87684
▁பேசினார்	-8.87698
▁சொத்து	-8.87751
▁குறிப்பிட	-8.87762
ாளர்	-8.87881
▁நடக்கிறது	-8.87903
▁மிகப்பெரிய	-8.87984
▁2022	-8.88011
▁A	-8.88035
▁தெரிய	-8.88183
ிருப்பது	-8.88199
▁பிடித்த	-8.88201
சாமி	-8.88212
டோ	-8.88225
▁சுதந்திர	-8.88372
வரின்	-8.8895
▁பேச்சு	-8.88962
▁செய்வது	-8.88976
▁கூ	-8.88997
▁ஏற்பட	-8.89021
▁தோ	-8.89025
▁யாரும்	-8.89154
▁S	-8.89168
▁போக்குவரத்து	-8.89406
ிறார்	-8.89428
மன்	-8.89684
▁டெ	-8.89743
▁தொழில்நுட்ப	-8.89817
ிக்	-8.90037
▁குறைந்த	-8.90216
▁அளவு	-8.90234
▁நகர்	-8.90441
▁சனி	-8.90521
▁அப்பா	-8.90612
சர்	-8.90628
பட	-8.90695
▁வகுப்பு	-8.90755
ுவதற்காக	-8.90805
▁இதுபோன்ற	-8.90873
▁ஜூலை	-8.90873
▁மொத்தம்	-8.90919
ஜா	-8.90954
▁தோல்வி	-8.91068
▁வீரர்கள்	-8.91151
▁கிடைக்க	-8.91166
▁எல்லை	-8.91181
▁ஆண்	-8.912
▁வசதி	-8.91266
▁திடீரென	-8.91297
தோ	-8.91312
ளா	-8.9136
▁மக்களை	-8.91445
5	-8.91456
▁வீ	-8.91495
களைத்	-8.91497
ாள்	-8.91658
▁அடிப்படை	-8.91716
▁ஏற்படுத்தி	-8.9174
▁செய்யப்பட்டது	-8.91746
▁படி	-8.91755
ங்கு	-8.91764
தம்	-8.91831
▁வேட்பாளர்	-8.91834
▁அரசாங்க	-8.91873
விடம்	-8.91895
நி	-8.91904
▁என்கிற	-8.92002
ுகிறார்கள்	-8.92106
தில்லை	-8.92238
▁கட்டி	-8.92266
னும்	-8.92407
▁அறிவிக்கப்பட்ட	-8.92729
விட்ட	-8.92919
த்திலிருந்து	-8.92933
C	-8.92947
▁பேச்சுவார்த்தை	-8.92996
▁நல	-8.93091
▁விழாவில்	-8.93155
▁மாணவர்	-8.93293
▁மாநிலத்தில்	-8.93304
▁தே	-8.93446
▁சூ	-8.93491
▁முதலீடு	-8.93568
▁இளைஞர்	-8.93601
▁அதன்படி	-8.93673
▁அறிவிப்பு	-8.93793
லுக்கு	-8.93805
னம்	-8.9389
▁40	-8.93974
னார்	-8.93976
▁விபத்து	-8.94018
▁மாதிரி	-8.94027
▁தற்கொலை	-8.94029
▁வெளியிட	-8.941
▁கடுமையான	-8.94144
தீ	-8.94154
▁பார்வை	-8.94289
▁பொதுக்குழு	-8.94291
▁இசை	-8.94399
▁ஜெ	-8.94531
▁அதிர்ச்சி	-8.94535
T	-8.94875
▁தங்கள	-8.94941
▁வெளியாகி	-8.94975
E	-8.95109
▁பணிகள்	-8.95201
பை	-8.95206
▁மருத்துவர்	-8.95293
▁ஆறு	-8.95309
▁வீர	-8.95342
▁மார்ச்	-8.95389
ன்ஸ்	-8.95395
பூர்	-8.954
த்தைச்	-8.95476
▁தனக்கு	-8.9556
▁இருப்ப	-8.956
▁ஆகும்	-8.95605
▁இவர்கள்	-8.95689
ஸ்ட்	-8.9578
▁செய்தது	-8.95799
ப்பட்டுள்ளன	-8.95905
▁வாகன	-8.96064
▁மாறி	-8.96095
▁மூ	-8.961
ந்தி	-8.96128
▁தரிசனம்	-8.96173
▁நிர்வாகிகள்	-8.96231
தான	-8.96297
▁புது	-8.96323
ஷன்	-8.9637
▁சபை	-8.96545
▁சிறை	-8.96685
க்ஸ்	-8.96715
ப்படுகின்றன	-8.96739
▁சேர்ந்து	-8.96822
ணை	-8.96934
▁மாற்றம்	-8.97001
▁உயர	-8.97007
▁கிலோ	-8.97009
க்கொண்டு	-8.97103
னோ	-8.97152
த்திய	-8.97173
ப்பட்டன	-8.97371
▁கன	-8.97394
R	-8.97599
▁2024	-8.97603
ற்ப	-8.97641
▁ஜெயலலிதா	-8.97672
▁பணத்தை	-8.9769
▁சூழலில்	-8.97728
▁குமார்	-8.9789
▁செய்யப்பட்டு	-8.97925
னே	-8.9794
பர	-8.97993
ித்து	-8.98021
க்கை	-8.98077
ஸி	-8.98179
▁வழியாக	-8.98186
▁பக்கம்	-8.98235
க்கப்பட்ட	-8.98248
▁சர்ச்சை	-8.98249
▁சிலை	-8.98255
▁திருத்த	-8.98295
▁ஜெய	-8.9832
ிருக்கின்றனர்	-8.98564
▁அதேபோல	-8.98567
▁நிறைய	-8.98625
▁வெளிநாட்டு	-8.98635
▁சிறிய	-8.9868
▁கால்	-8.98807
ரம்	-8.99017
▁உத்தர	-8.99018
▁இல்ல	-8.99195
er	-8.99213
al	-8.99365
▁21	-8.9937
▁பை	-8.99439
▁ஏற்ற	-8.9947
▁தினம்	-8.99503
வீ	-8.99558
P	-8.99642
▁குற்ற	-8.99707
▁விவசாய	-8.99833
▁நம்ப	-9.00058
▁அபிவிருத்தி	-9.00218
▁அடுத்து	-9.00226
▁வென்ற	-9.00262
ிருக்கிறார்கள்	-9.00301
▁பேருந்து	-9.00474
வான	-9.00482
▁சரியான	-9.00552
▁மரண	-9.0067
▁இணைய	-9.00702
▁ஜூன்	-9.00793
▁முன்னதாக	-9.00809
லின்	-9.01014
▁விவகாரத்தில்	-9.01025
▁சேர்த்து	-9.01051
▁உரிய	-9.01089
▁அறிக்கையில்	-9.01251
▁நாட்களுக்கு	-9.01352
▁முயன்ற	-9.01436
▁விஜய	-9.0144
▁23	-9.01513
▁இயக்குநர்	-9.01573
/	-9.01577
▁ஆண்ட	-9.01627
▁ட	-9.01675
▁எதிர்க்கட்சி	-9.01812
▁நாட்டு	-9.01952
▁சிறுமி	-9.02097
▁கிழக்கு	-9.02142
▁அந்தக்	-9.02175
▁பணியில்	-9.02243
ங்கா	-9.0239
ரில்	-9.02468
ையில்	-9.02627
▁ஊர்	-9.02634
▁பழ	-9.02664
▁பிரச்சினை	-9.0277
ியுள்ளது	-9.02779
▁22	-9.02873
ிங்	-9.03014
▁கல	-9.03045
▁மாநகராட்சி	-9.03212
▁நிலைமை	-9.03253
▁குற்றம்	-9.03269
▁மோதல்	-9.03335
▁அருகில்	-9.03341
▁லா	-9.03416
▁அறிவித்த	-9.03419
ுற	-9.03489
▁பிரபல	-9.03514
▁தலைவராக	-9.03526
▁வழங்கி	-9.03548
▁வீட்டு	-9.03575
ிருப்பதாக	-9.03879
▁வழங்கிய	-9.03932
▁தள	-9.03995
m	-9.04098
▁பக்க	-9.04144
ஞ்சி	-9.0427
▁பொறுப்பு	-9.04316
▁கண்ண	-9.04338
▁சரியாக	-9.04455
ேஷ்	-9.04529
சம்	-9.0453
▁விடுத்த	-9.04565
▁எனத்	-9.04584
▁கிடையாது	-9.0461
▁திட்டத்தை	-9.04636
▁உடனே	-9.04651
சோ	-9.04665
▁ஆண்டுகளில்	-9.04691
▁நிறுவனங்கள்	-9.04753
h	-9.04944
▁வழங்கப்படும்	-9.04959
ராஜ	-9.04973
ினர்	-9.0505
ுவார்கள்	-9.05055
▁உயிர்	-9.05178
முறை	-9.05179
▁பெரு	-9.05201
▁மகிழ்ச்சி	-9.05368
▁தடுக்க	-9.05642
▁மேற்கொண்ட	-9.05649
▁அதிகரிக்கும்	-9.05699
▁தெரிவித்தனர்	-9.05859
▁சாப்பிட	-9.05911
▁அரசுக்கு	-9.06014
▁ஏற்பாடு	-9.06171
▁கவலை	-9.0622
▁பேர	-9.06225
▁கருத	-9.06263
▁சார்ந்த	-9.06382
▁இன	-9.0639
▁அமைக்க	-9.06592
▁மண்டல	-9.06633
▁நிகழ்ச்சியில்	-9.0666
▁உத்தரவு	-9.06716
த்தைக்	-9.06754
▁திருச்சி	-9.06774
த்தைப்	-9.06921
ிற	-9.07003
▁ஆட்சியில்	-9.07019
▁தொடங்கியது	-9.07034
லர்	-9.07074
▁நிகழ்வு	-9.07123
▁தண்ணீர்	-9.07154
▁நிறுவன	-9.07157
▁ரணில்	-9.0721
▁விளையாட்டு	-9.07247
▁நிலையத்தில்	-9.0726
▁பரிசோதனை	-9.07341
டில்	-9.07358
ரூ	-9.07476
ீர்கள்	-9.07573
▁அதிகார	-9.0762
▁தலைமையிலான	-9.07737
ுக்கான	-9.07812
▁எதிர்	-9.07992
கர	-9.08044
▁தரப்பில்	-9.08121
▁தொடர	-9.08121
▁மது	-9.08219
▁சட்டசபை	-9.08272
தாகக்	-9.08346
▁அணை	-9.08822
▁நினைவு	-9.08925
▁வள	-9.08932
▁விருது	-9.08968
▁டீ	-9.08983
▁இவை	-9.08994
னாக	-9.09007
▁கூடுதல்	-9.09279
▁ஏற்பட்டுள்ளது	-9.09363
▁வந்தனர்	-9.0951
▁ரூபா	-9.0957
▁பரபரப்பை	-9.09613
ச்சா	-9.09632
▁இருக்கலாம்	-9.0979
▁ஒன்றாக	-9.09818
▁அவருடைய	-9.09883
▁அவசியம்	-9.09974
▁பஞ்சாப்	-9.10023
▁அதிகரிக்க	-9.10104
▁ரத்து	-9.10109
ரியா	-9.1015
▁மொத்த	-9.10217
க்கே	-9.1027
k	-9.10327
▁பார்	-9.1035
▁வருட	-9.1037
▁வருகிறார்கள்	-9.10436
▁நெ	-9.10448
▁பெருமாள்	-9.10485
பதி	-9.10563
ரீ	-9.10599
▁தொடர்பில்	-9.10629
▁தகுதி	-9.10693
▁அலுவலக	-9.10723
▁தவறு	-9.10726
இந்த	-9.10765
c	-9.10919
ித்த	-9.1098
வாத	-9.11041
பட்ட	-9.11122
ுடைய	-9.11159
▁சார்	-9.11179
▁நாளில்	-9.11224
▁ஈடுபட	-9.11234
ணா	-9.11251
▁இறந்த	-9.11259
▁தற்போதைய	-9.11376
புரம்	-9.11399
▁உண்டு	-9.11459
வல	-9.11679
யைத்	-9.11841
▁யு	-9.11868
▁குறைக்க	-9.11875
),	-9.11929
▁திகதி	-9.11929
ுக்காக	-9.11951
▁ரசிகர்கள்	-9.11996
▁எப்போதும்	-9.12066
▁எவ்வளவு	-9.12127
▁விரும்ப	-9.12162
D	-9.12166
▁தெரியவில்லை	-9.12173
யோடு	-9.12344
▁சட்டமன்ற	-9.1252
▁ஆசிரியர்	-9.12767
▁போட்ட	-9.1286
▁இலங்கையில்	-9.12933
▁நாட்டை	-9.12935
▁யா	-9.12947
ண்ண	-9.13001
▁குறித்தும்	-9.13027
கிறது	-9.13071
▁மேற்கொண்டு	-9.13077
▁சீன	-9.13094
▁கடல்	-9.131
▁எச்சரிக்கை	-9.13213
▁தெரியும்	-9.13255
▁ஆரம்ப	-9.13298
▁குஜராத்	-9.13355
தற்கான	-9.13366
▁மாவட்டங்களில்	-9.13408
▁சேர்ந்தவர்	-9.13588
▁ராகு	-9.13648
▁பந்த	-9.1367
▁தொற்று	-9.13698
க்களை	-9.13719
▁போட்டியிட	-9.13735
▁அச்ச	-9.13743
ஃப	-9.13993
▁இதற்காக	-9.14149
▁பய	-9.14167
மானது	-9.14307
▁கொண்டிருந்த	-9.14432
னால்	-9.14523
▁தடுப்பூசி	-9.14584
ுவதில்	-9.14636
▁எனும்	-9.14645
▁நோ	-9.14654
▁கள	-9.1468
M	-9.14698
▁மாநிலங்களில்	-9.1472
▁மோசமான	-9.14726
▁சந்தேக	-9.14978
▁மாற்றி	-9.14995
▁ஒருங்கிணைப்பாளர	-9.15046
▁கையில்	-9.151
யல்	-9.15117
▁சந்திக்க	-9.15163
▁கௌரவ	-9.15169
▁மீ	-9.15292
▁எரி	-9.15447
▁மைய	-9.15479
▁போராட்ட	-9.15494
▁வருகை	-9.15583
▁கர	-9.15849
▁நிர்வாகம்	-9.15907
▁எழுதிய	-9.15952
▁உள்ளே	-9.16021
▁இருக்கின்றன	-9.16084
▁அதிகமான	-9.16155
களான	-9.16196
▁வர்த்தக	-9.163
▁கொடி	-9.16353
▁தாக்க	-9.16388
▁தீர்ப்பு	-9.16453
▁கரு	-9.16692
▁ஐக்கிய	-9.16734
நீ	-9.16814
களுக்காக	-9.16878
▁பேருக்கு	-9.169
▁சிறையில்	-9.16922
களைச்	-9.16931
▁கொண்டனர்	-9.16934
ட்டர்	-9.1696
▁பக்கத்தில்	-9.16984
▁தெரிகிறது	-9.17024
▁அவ	-9.17117
▁நாடுகளில்	-9.1713
▁செயல்படுத்த	-9.1721
▁வார்த்தை	-9.17235
▁ஆணைய	-9.17281
▁செய்யப்பட்டுள்ள	-9.17317
▁கொள்வ	-9.17346
▁விசாரித்த	-9.17436
▁முழுமையாக	-9.17463
▁வருவதாக	-9.17471
கன்	-9.17534
▁மாகாண	-9.17534
▁நிறுவனத்தின்	-9.17583
▁நிர்வாகி	-9.17605
▁எதிர்த்து	-9.17609
மலை	-9.17736
▁பழைய	-9.1776
ிட்ட	-9.17786
ிறோம்	-9.17787
▁ஜனநாயக	-9.17857
▁பேராசிரியர்	-9.17865
▁அதற்கான	-9.17904
ின்றனர்	-9.17994
ல்லா	-9.18002
▁அதேபோல்	-9.18019
▁ஆகியவை	-9.18035
▁எம்பி	-9.18074
50	-9.18075
▁பிடித்து	-9.18201
▁புத்தக	-9.18246
▁இதே	-9.18282
▁நடைமுறை	-9.18342
ுவார்	-9.18357
▁அலை	-9.18416
▁அடித்து	-9.1856
▁யூ	-9.18671
▁இன்னொரு	-9.18782
▁பொருள்	-9.18799
▁குறை	-9.18803
▁நீதி	-9.18833
ிருந்தனர்	-9.18844
▁ஆளும்	-9.18989
தார	-9.19026
▁விளையாட	-9.19064
சீ	-9.1907
▁நடித்த	-9.19204
▁நீட்	-9.19297
ிருக்கின்றன	-9.19513
▁நினைத்த	-9.19611
▁நேரடியாக	-9.19864
▁சூழல்	-9.19883
▁தொ	-9.19972
▁மூல	-9.19977
▁கட்டுப்படுத்த	-9.19982
▁ஆடி	-9.20041
ூரில்	-9.20042
▁அறிய	-9.20056
ழை	-9.20115
▁தீர்வு	-9.20125
ந்திர	-9.20246
▁வழங்கும்	-9.2029
பின்	-9.20305
▁ஆரம்பித்த	-9.20464
▁அங்கே	-9.20601
▁மோசடி	-9.20722
▁விவசாயிகள்	-9.20724
▁இயற்கை	-9.20873
▁இரண்டாம்	-9.20874
▁கடிதம்	-9.20881
▁பாலாஜி	-9.21191
ுள்ளோம்	-9.21229
▁உறவு	-9.21258
▁பெரும்பாலான	-9.21311
கொண்ட	-9.21325
▁அறை	-9.21338
கொ	-9.21349
▁தேர்	-9.21399
▁உடன்	-9.2144
ைத்	-9.21458
▁விளக்க	-9.21479
▁அதைத்	-9.21498
ட்டும்	-9.21522
ைச்	-9.21537
▁ஒப்பந்த	-9.21672
பெ	-9.21675
▁வழக்கம்	-9.21691
▁ஓர்	-9.21909
சன	-9.21913
▁கெ	-9.21953
▁C	-9.22084
▁விவாத	-9.22145
▁ஒன்றிய	-9.22187
▁பயண	-9.22359
▁பெயரில்	-9.2238
▁வழிபாடு	-9.22407
▁நேரில்	-9.22463
▁அகற்ற	-9.22596
ிறார்கள்	-9.22616
▁தினமும்	-9.22655
டைய	-9.22779
ப்படி	-9.22844
க்கம்	-9.22872
▁எண்ணெய்	-9.22873
ஸ்ட	-9.22874
▁நமக்கு	-9.22948
▁யானை	-9.22983
▁ஆயுத	-9.23022
கார	-9.23213
▁பெருமை	-9.23216
▁தமிழர்	-9.23219
▁தயாராக	-9.2322
▁விநாயகர்	-9.23225
▁காட்டி	-9.23251
▁ஏப்ரல்	-9.23318
▁டை	-9.2337
▁கட்சிகள்	-9.23412
▁கணவர்	-9.23461
தோடு	-9.23521
ண்டா	-9.23643
▁பொருட்களை	-9.23646
▁நாட்களில்	-9.23714
▁அதோடு	-9.23767
▁கொண்டார்	-9.2379
டாக	-9.23794
▁பிப்ரவரி	-9.23938
▁என்பவர்	-9.23956
▁வீதி	-9.23959
▁சுற்றுலா	-9.24033
▁ரன்	-9.24066
▁வைக்கப்பட்ட	-9.24095
▁இங்கே	-9.24095
▁மகள்	-9.24289
▁வழக்கறிஞர்	-9.24406
▁நடிகை	-9.24407
▁அரசாங்கம்	-9.24421
0	-9.24458
லும்	-9.24499
▁மூலமாக	-9.2459
▁உறுப்பினர்கள்	-9.24593
ளிக்க	-9.24598
▁அடித்த	-9.24702
▁பக்தர்களுக்கு	-9.24783
▁தப்பி	-9.2495
வன	-9.25055
ப்பட்டுள்ள	-9.25084
▁ராஜ்	-9.25104
▁அடையாள	-9.25114
▁கோப	-9.25137
டே	-9.25181
▁மில்லியன்	-9.25195
▁தொகுதியில்	-9.2527
▁ரே	-9.25459
▁நட்சத்திர	-9.25486
▁வெறும்	-9.25666
▁பொருட்கள்	-9.25671
▁ஏற்படுத்திய	-9.25713
▁கொடுப்ப	-9.25716
▁தொழிலாளர்	-9.25739
ுகிறோம்	-9.2575
▁2023	-9.25862
▁முஸ்லிம்	-9.25893
வர்களை	-9.26046
▁வாழ்	-9.26067
▁வெளியான	-9.2608
▁தெ	-9.26265
▁பரப்ப	-9.26416
▁இவ்வாறு	-9.26462
▁டா	-9.26617
▁ஏற்கெனவே	-9.2662
ுள்ளதாகவும்	-9.26777
▁பண்ண	-9.26837
தன	-9.26883
வல்	-9.26966
ீர்	-9.26985
b	-9.27118
முக	-9.27177
ாரா	-9.27178
பூ	-9.27217
▁P	-9.27238
ங்களையும்	-9.27262
▁நன்றி	-9.27264
▁ஈடுபட்டு	-9.27294
▁அடிக்கடி	-9.27344
▁படத்தில்	-9.27367
▁விஷயம்	-9.2737
▁நோக்க	-9.27381
▁தாண்டி	-9.27443
▁அண்ணா	-9.27464
த்திற்காக	-9.27495
▁மோ	-9.27498
▁மார்	-9.27664
▁ஆட்சியை	-9.27681
▁அதிகாலை	-9.27746
▁பயணி	-9.2785
▁லி	-9.27874
ப்பில்	-9.27907
▁ஹா	-9.27975
▁திட்டத்தின்	-9.28003
▁தீவிரமாக	-9.28159
▁செந்தில்	-9.28217
▁உள்ளதாக	-9.28226
▁இருப்பதால்	-9.28295
களா	-9.28425
▁அமைச்சரவை	-9.28557
▁27	-9.28565
யிலேயே	-9.28574
▁தேச	-9.28578
▁கர்நாடக	-9.28601
▁எழுத	-9.28698
▁விக்ரமசிங்க	-9.28721
▁தூக்கி	-9.28743
▁உள்ளூர்	-9.28793
▁சிக்க	-9.28815
▁சேர்த்த	-9.28883
▁ஆராய்ச்சி	-9.28911
ெல்லாம்	-9.29015
▁விழுந்த	-9.29019
▁வலி	-9.29201
▁அழைத்துச்	-9.29242
பால	-9.29278
▁சினிமா	-9.29312
▁கட்சியில்	-9.29439
மர்	-9.29455
கில்	-9.29509
▁மேம்படுத்த	-9.29524
▁ஜனவரி	-9.29542
ாகும்	-9.29545
▁பிடிக்க	-9.29704
▁இத்தகைய	-9.29705
கால	-9.29754
▁வேகமாக	-9.29904
▁முழுக்க	-9.29918
▁ஹெ	-9.29939
▁சிக்கி	-9.29944
▁வீட்டுக்கு	-9.30005
லான	-9.30043
▁அங்க	-9.30084
▁நடவடிக்கைகள்	-9.30106
த்திற்கும்	-9.30115
▁அலுவலகத்தில்	-9.30127
▁வைரஸ்	-9.30291
▁மாற்று	-9.30309
▁சட்டத்தின்	-9.30506
▁கோப்பை	-9.30509
▁ஜே	-9.30512
ரான	-9.3061
▁ராம	-9.30644
▁சாதனை	-9.30702
▁ஆகஸ்ட்	-9.30907
▁கழக	-9.31004
▁உதவ	-9.31036
லம்	-9.31047
ங்கள	-9.31082
▁ஓட்ட	-9.312
▁ஆதரவாக	-9.31282
▁வாழ்த்து	-9.31329
▁தூ	-9.31348
▁வணிக	-9.31374
▁பதவியை	-9.3138
▁பெற்றோர்	-9.31404
▁கணக்கு	-9.31442
ெய்	-9.31494
▁குறி	-9.31566
▁இடம்பெற்ற	-9.31578
▁ஊ	-9.31659
▁பொறுத்தவரை	-9.31709
▁இழந்த	-9.31796
வர்களின்	-9.31886
▁நடத்தினர்	-9.31939
.5	-9.31967
ுங்க	-9.32055
▁கோர	-9.32115
▁வருமான	-9.32175
▁26	-9.32237
▁படிக்க	-9.32356
▁செயல்பட்டு	-9.32439
ாட்சி	-9.32443
▁2019	-9.32528
▁முகமது	-9.32549
▁கண்டு	-9.328
▁போட்டிகளில்	-9.33064
▁ஆணையம்	-9.33068
▁அங்கிருந்து	-9.33174
▁அல்	-9.33201
▁பெண்களுக்கு	-9.33208
▁28	-9.33306
▁லட்ச	-9.33379
▁நீக்க	-9.3339
▁60	-9.33433
▁மறு	-9.3348
▁மரியாதை	-9.33571
▁குள	-9.33646
க்கூட	-9.33669
பொ	-9.33713
▁மூலாதாரம்	-9.33742
ற்க	-9.33786
ந்தா	-9.33839
▁2021	-9.33889
ிருக்கலாம்	-9.33951
▁பெண்ண	-9.33988
▁நண்பர்	-9.34034
▁மை	-9.34042
▁இன்றைய	-9.34086
▁வருவது	-9.34127
▁அணிக்கு	-9.34136
▁அத்துடன்	-9.34151
▁மருந்து	-9.34183
▁விதி	-9.34207
▁நின்ற	-9.34228
▁முடிவுகள்	-9.34285
10	-9.34345
▁ராசி	-9.34354
▁மருத்துவமனைக்கு	-9.34407
▁முன்பாக	-9.34433
மில்லை	-9.34454
▁ஏற்படுத்தும்	-9.34482
சார்	-9.3455
▁டெல்லியில்	-9.34571
▁பங்கேற்க	-9.34604
▁எழுந்த	-9.34709
▁விசாரணையில்	-9.34755
▁இல்	-9.34852
▁அடையாளம்	-9.34869
▁விட்ட	-9.34929
▁பெயரை	-9.35094
▁அவசர	-9.35143
▁மின்சார	-9.35145
▁அமைந்த	-9.35217
▁சதவீத	-9.35297
▁ஊழல்	-9.353
▁நிற்க	-9.35305
▁ரெ	-9.35355
▁காப்பாற்ற	-9.35474
▁கண்டுபிடிக்க	-9.35476
▁வைர	-9.35528
▁போராட்டத்தில்	-9.35562
▁ஏற்க	-9.35564
▁வாரம்	-9.35675
▁நிற	-9.35782
on	-9.35783
▁வங்கதேச	-9.35828
▁ஆட்ட	-9.35861
▁ஹமாஸ்	-9.35956
▁அமைக்கப்பட்ட	-9.35959
த்துக்	-9.35983
B	-9.36036
▁மாணவர்களுக்கு	-9.36039
▁சர்மா	-9.36091
▁கிராமத்தில்	-9.36125
▁கோலி	-9.36134
▁கப்பல்	-9.36156
▁ஒன்றில்	-9.3617
ுக்க	-9.36218
▁முடி	-9.3624
▁சாமி	-9.36277
▁கட்சியை	-9.36365
மற்ற	-9.36432
▁ஆற்ற	-9.36473
▁மொ	-9.36479
▁நின்று	-9.36626
▁விளக்கம்	-9.3667
ணம்	-9.36687
▁பாதுகாக்க	-9.36704
▁அமைச்சர்கள்	-9.36729
▁உலகின்	-9.36921
▁குண	-9.36981
▁பஞ்ச	-9.3702
▁அழைப்பு	-9.37113
▁ராஜா	-9.37266
▁அவர்கள	-9.37281
▁T	-9.37298
ியா	-9.37304
▁அரசியலில்	-9.37326
▁இந்தியாவுக்கு	-9.37349
▁ரவி	-9.37372
▁B	-9.37376
ியல்	-9.37407
▁நடவடிக்கைகளை	-9.37423
▁பாதை	-9.37474
▁சென்றார்	-9.37582
▁வீட்டிற்கு	-9.37593
▁அக்டோபர்	-9.37611
த்தார்	-9.37611
ார	-9.3764
▁அவற்றை	-9.37847
▁சந்திர	-9.37994
..!	-9.38042
▁தமிழகம்	-9.38052
O	-9.38153
▁சண்டை	-9.38239
▁எங்க	-9.38266
▁எடுப்ப	-9.38336
▁இருக்கிறார்கள்	-9.3845
ங்களிலும்	-9.38518
in	-9.38543
w	-9.38551
▁சொன்னார்	-9.3861
▁வடக்கு	-9.38671
▁முடிந்தது	-9.38722
▁இடத்தை	-9.38827
▁இதனிடையே	-9.38849
ோட	-9.38859
ந்	-9.38894
▁இடை	-9.38967
▁தொடர்ச்சியாக	-9.3903
▁சீர	-9.39038
▁பணிகளை	-9.39048
▁ஆனாலும்	-9.39062
▁மதிப்பு	-9.39187
▁காரண	-9.39245
▁விக்கெட்	-9.39251
▁தெரிவிக்கப்பட்ட	-9.39262
▁கிடைத்தது	-9.39309
▁தேட	-9.39333
or	-9.39347
▁இருக்கு	-9.39393
▁விசாரிக்க	-9.39395
▁கொண்டே	-9.39396
▁அன்ப	-9.39397
0,000	-9.39434
▁வெளியிட்டுள்ள	-9.39439
▁ஏற்படுத்தியுள்ள	-9.39487
▁ஆசை	-9.39552
▁உதயநிதி	-9.39576
▁ஆதி	-9.39624
▁நீங்க	-9.39717
▁தொடர்ந்த	-9.39781
ஹி	-9.39887
ின்றன	-9.39906
ங்களாக	-9.39931
▁பெட்ரோல்	-9.39939
▁தமது	-9.39942
▁பின்பற்ற	-9.40017
யினர்	-9.40165
▁திராவிட	-9.40217
▁பொதுவாக	-9.4022
▁சுற்று	-9.40286
▁சந்தை	-9.40293
▁சர்	-9.40339
▁என்னுடைய	-9.40429
வார்	-9.40488
▁தவிர்க்க	-9.40511
l	-9.40522
▁வழக்கை	-9.40526
▁என்றாலும்	-9.40558
▁கிருஷ்ண	-9.40565
▁சாதாரண	-9.40687
▁வழங்கப்பட்டது	-9.40728
▁நகை	-9.40778
▁இளம்	-9.40786
பட்டி	-9.40843
▁டிசம்பர்	-9.41041
▁புதிதாக	-9.41043
▁அப்	-9.41134
▁சென்றனர்	-9.41313
▁அதிருப்தி	-9.41411
▁இடையிலான	-9.41411
▁ஊழியர்	-9.41719
ஹ்	-9.41749
▁அனைவருக்கும்	-9.41792
▁முக்கியத்துவம்	-9.41969
re	-9.4197
.1	-9.42019
▁அறிவிக்க	-9.4204
▁முடியாமல்	-9.42189
▁குறைவாக	-9.42275
.30	-9.42308
▁ஒன்ற	-9.42405
▁குரல்	-9.42558
▁அதிமுகவில்	-9.42572
▁வயதான	-9.42615
▁கூறுகின்றனர்	-9.42623
த்திலேயே	-9.42652
▁வடிவ	-9.42688
▁விசாரணைக்கு	-9.42733
ினேன்	-9.42738
ரன்	-9.42773
▁விவசாயி	-9.42852
▁நன்றாக	-9.42905
▁இலவச	-9.42973
ுவேன்	-9.42978
▁அவரிடம்	-9.42991
ன்று	-9.43023
ாக்க	-9.43091
▁பலன்	-9.4324
ரிடம்	-9.43242
▁அபிஷேகம்	-9.43311
▁அமைதி	-9.43334
▁பெறும்	-9.43356
▁ரயில்வே	-9.43395
யாளர்	-9.43425
▁எடுத்துக்	-9.4343
கிறார்	-9.43492
▁மீன்	-9.43573
▁அனு	-9.43669
▁முன்னணி	-9.43686
▁சை	-9.43775
ட்ஸ்	-9.43826
▁மூன்றாவது	-9.43851
யானது	-9.43957
f	-9.44022
▁ரன்களை	-9.44066
▁அனுப்பிய	-9.44069
▁விமர்சித்த	-9.44074
▁உலகம்	-9.44094
▁பாதி	-9.44096
▁ஒதுக்க	-9.44113
▁வாய்ந்த	-9.44115
▁முடிவுக்கு	-9.44182
▁நிறுத்தி	-9.44239
▁போலவே	-9.44246
▁நாட்களாக	-9.44253
▁ஹி	-9.44283
க்குச்	-9.44288
▁கட்டட	-9.44421
▁பாடல்	-9.44436
▁தமிழ	-9.44456
த்தோடு	-9.44621
ப்படுத்தி	-9.44631
▁திரும்பி	-9.44644
▁கேப்டன்	-9.44658
▁இஸ்ரேல	-9.44667
மொழி	-9.44673
▁ஏற்படுத்தியது	-9.44734
ரண	-9.44753
▁சற்று	-9.448
▁அடை	-9.44806
▁தீர்த்த	-9.44848
▁தகவல்களை	-9.44875
ந்த்	-9.44907
▁இணைந்த	-9.44916
▁அனைத்தும்	-9.44942
வராக	-9.44982
க்கால	-9.44998
▁அனுமதிக்க	-9.45048
தர	-9.45062
▁ட்விட்டர்	-9.45065
▁பகவான்	-9.45077
யின	-9.45133
▁கொஞ்சம்	-9.45144
▁சொந்தமான	-9.45206
▁நடு	-9.45254
▁ஆட்சிக்கு	-9.45286
▁நகரில்	-9.45317
ஸா	-9.4534
பிர	-9.45357
▁சக	-9.45377
N	-9.45396
▁அதிரடி	-9.45468
மடைந்த	-9.4556
▁ஓடி	-9.4556
ுமான	-9.45573
▁ஏற்ப	-9.45609
▁ஓட	-9.45665
படுத்த	-9.45667
▁வங்க	-9.45685
▁குண்டு	-9.4571
▁பூமி	-9.45718
▁மாதத்தில்	-9.45745
ிருப்ப	-9.45874
▁குற்றவாளி	-9.4598
▁திறந்து	-9.4606
▁தட	-9.46078
▁தவ	-9.46078
▁பிரதான	-9.46082
▁கோரி	-9.46163
▁விருப்ப	-9.46167
▁டாலர்	-9.46185
க்கூடும்	-9.46187
▁பந்து	-9.4626
▁லெ	-9.46268
கின்றன	-9.46279
▁பெற்றது	-9.46308
▁உயர்வு	-9.46401
▁பள்ளியில்	-9.46426
▁தரும்	-9.46493
ாம	-9.46539
▁புனித	-9.46555
▁காதல்	-9.46671
▁திட்டங்கள்	-9.46731
றிய	-9.46788
யார்	-9.46898
▁செய்யப்படும்	-9.46916
▁நாணய	-9.46937
▁விதமாக	-9.46942
▁பதிலாக	-9.46956
மான்	-9.46974
▁சொ	-9.4698
மாகும்	-9.47127
▁முதல்வராக	-9.47134
பால்	-9.47174
▁பயணிகள்	-9.47207
ஓ	-9.4721
▁சொல்	-9.47239
▁விலக	-9.47318
▁விண்வெளி	-9.47329
▁ஏற்றுமதி	-9.47331
▁இருந்தனர்	-9.47354
▁சம்பந்தப்பட்ட	-9.47356
▁மையம்	-9.47395
▁ராஜஸ்தான்	-9.47426
▁வருமானம்	-9.4755
at	-9.47688
▁கொழும்பு	-9.47726
யாகும்	-9.47829
▁சுந்தர	-9.4789
▁ஒதுக்கீடு	-9.4792
▁மீட்டர்	-9.47933
▁சமய	-9.48007
▁போதும்	-9.48023
டம்	-9.4812
பார்	-9.48236
▁பதிலளித்த	-9.48317
▁மிகுந்த	-9.4832
▁சிரம	-9.48398
▁முன்னர்	-9.48404
▁வாக்குகள்	-9.48444
▁M	-9.48445
▁பூஜைகள்	-9.48469
ாள	-9.4847
ாண்டு	-9.48479
▁தடுப்பு	-9.4852
ந்தர்	-9.48573
▁கோட்டை	-9.48637
ப்படாத	-9.48637
▁தெரியவந்தது	-9.48668
▁மேற்கொள்ளப்பட்ட	-9.48693
▁இலங்கையின்	-9.48755
விட்டது	-9.48804
ஸ்டாலின்	-9.48923
▁போலி	-9.48963
▁தயாரிக்க	-9.49011
▁அமைச்சர	-9.49029
▁கேரளா	-9.49052
▁செயல	-9.49113
▁வானிலை	-9.49115
கல	-9.49247
▁சிக்கல்	-9.4927
▁விஷ	-9.49312
▁அபிஷேக	-9.49316
▁தவறான	-9.4932
▁செப்டம்பர்	-9.49337
▁அடைய	-9.49448
வார	-9.49478
▁ராஜினாமா	-9.49516
▁சேர்க்க	-9.49593
▁வரலாற்று	-9.49614
▁கடற்படை	-9.49717
▁வன்கொடுமை	-9.49717
▁ஆன்லைன்	-9.49717
▁வலைதளங்களில்	-9.49744
▁வீச	-9.49779
▁அக்	-9.49809
▁கம்ப	-9.49817
▁உயர்த்த	-9.49826
▁பொதுச்	-9.49896
▁இரண்ட	-9.49948
▁துவங்கியது	-9.50038
▁மாதங்களுக்கு	-9.50038
ம்பா	-9.50076
டல்	-9.50081
▁எம	-9.50102
▁மேலாக	-9.50151
▁செலுத்தி	-9.50181
▁தனியாக	-9.50185
▁விதித்த	-9.50249
▁எனப்	-9.50328
▁மகளிர்	-9.50526
ளித்த	-9.50546
▁உடை	-9.50587
▁நாக	-9.50626
▁காலி	-9.50691
ியுள்ளார்	-9.50707
ாளராக	-9.5085
ஞ்சு	-9.50916
▁ஏவுகணை	-9.50933
▁நம்ம	-9.50935
▁ஊழியர்கள்	-9.5094
▁குடியரசுத்	-9.50948
ிருக்கிறோம்	-9.50975
▁காலமாக	-9.5101
மீது	-9.51076
▁பாஸ்	-9.51083
▁முன்னேற்ற	-9.51129
▁வலியுறுத்தி	-9.51134
▁கருணாநிதி	-9.51137
ிருந்தால்	-9.51147
▁கீழே	-9.51206
பன்னீர்செல்வம்	-9.51436
▁அறிவுறுத்த	-9.51468
▁இருக்கிற	-9.51503
குமார	-9.51503
▁சதவீதம்	-9.51531
▁கலந்துரையாட	-9.51535
▁செய்துள்ளார்	-9.51568
▁சேலம்	-9.51569
▁வீசிய	-9.51665
▁புள்ளி	-9.51775
▁வயத	-9.51906
▁திட்டங்களை	-9.51943
▁நல்லது	-9.52081
ளு	-9.52087
▁வைத்தார்	-9.52104
▁நவீன	-9.52217
▁வாங்கிய	-9.52249
▁இருப்பதை	-9.52277
▁எப்போது	-9.52302
▁என்றே	-9.52325
▁நிலையம்	-9.52336
▁எண்	-9.52396
▁திருப்ப	-9.52456
▁இடி	-9.52469
▁பிரா	-9.52505
ிறேன்	-9.52537
▁அப்படியே	-9.52594
▁பரிசு	-9.52608
▁நியமிக்கப்பட்ட	-9.52675
▁என்கிறார்கள்	-9.52726
ாகவும்	-9.52791
▁அமைத்த	-9.52868
ப்படை	-9.52882
▁கல்	-9.52946
▁காட்டு	-9.52993
▁எனினும்	-9.52995
▁கட்சிக்கு	-9.53085
▁ஆஃப்	-9.53114
ஞ	-9.53151
▁வழங்கப்பட்ட	-9.53179
▁கொடுக்கும்	-9.53238
சூ	-9.53241
▁தோட்ட	-9.53327
▁?	-9.53328
▁தனிப்பட்ட	-9.53381
▁பர	-9.53409
▁இஸ்லாமிய	-9.53429
க்குழு	-9.53474
▁படத்தின்	-9.53499
v	-9.53505
மூர்த்தி	-9.53516
▁மட	-9.53552
▁ஆஸ்திரேலியா	-9.53591
▁நாட்ட	-9.53593
▁வாழ	-9.53593
▁ரீதியாக	-9.53618
▁குடி	-9.53737
▁சிக்கிய	-9.53744
▁ஏற்பட்டு	-9.53772
ாவின்	-9.53781
விட்டனர்	-9.53786
▁பங்க	-9.53803
▁ஏமாற்ற	-9.53828
▁விளம்பர	-9.53828
▁இருந்தன	-9.53849
.....	-9.53871
▁விதிக்க	-9.5391
▁ஏழு	-9.53924
▁ஏற்பாடுகளை	-9.53954
▁எத்தனை	-9.54005
▁காவல்துறையினர்	-9.54053
▁டெஸ்ட்	-9.54076
ன்னா	-9.54095
▁தோற்ற	-9.54149
ஸை	-9.54184
▁எதிர்பார்த்த	-9.54255
▁தேவ	-9.54306
▁இதுதான்	-9.54398
▁தெளிவாக	-9.54412
ாராம்	-9.54452
ால	-9.54483
▁தங்களுக்கு	-9.54488
வதற்கு	-9.54544
▁தன	-9.54557
வொரு	-9.54565
▁பகிர்ந்து	-9.54583
ணு	-9.54662
▁வரலாறு	-9.54671
▁விமர்சனம்	-9.54726
▁தெரிந்த	-9.54734
▁தூக்க	-9.54809
▁சூரிய	-9.54815
▁உறுதியாக	-9.54816
▁தெரிந்து	-9.54824
▁கவன	-9.54856
▁கிட்டத்தட்ட	-9.54883
▁சுய	-9.54914
▁வெள்ள	-9.54924
▁என்பதே	-9.54968
▁கூறுகிறது	-9.5498
▁கலைஞர்	-9.55008
▁தர்ம	-9.55016
▁ஓய்வு	-9.5508
▁போன்	-9.55094
பன்	-9.55116
▁ஆதார	-9.55204
F	-9.55206
▁பிள்ளை	-9.55222
▁கொல்லப்பட்ட	-9.5527
▁கூட்டு	-9.55275
▁பழனிச்சாமி	-9.55308
▁நவம்பர்	-9.55308
▁2018	-9.55324
▁அனுபவ	-9.55331
▁படத்தை	-9.55378
லாக	-9.55421
ணும்	-9.55509
▁கல்யாண	-9.55523
▁ஜெய்	-9.55542
▁நகராட்சி	-9.55554
▁உர	-9.55559
▁திட்டமிட்ட	-9.55619
ானது	-9.55648
▁எல்	-9.55655
▁பண்ணி	-9.55693
▁பாரம்பரிய	-9.55735
▁திடீர்	-9.55735
வான்	-9.55766
▁வெள்ளி	-9.55826
G	-9.55849
▁மறுத்த	-9.55849
▁தல	-9.55874
▁பரவி	-9.55878
▁புதுச்சேரி	-9.55894
▁ஆதரவ	-9.55899
▁இளைஞர்கள்	-9.5593
▁வாரிய	-9.5593
▁செயலி	-9.55985
▁அங்குள்ள	-9.56007
டும்	-9.56056
▁தீர்மானம்	-9.56057
▁குடும்பத்தினர்	-9.56065
▁பார்க்கலாம்	-9.56065
▁எழுப்பிய	-9.56101
ுக்குள்	-9.56104
▁குட	-9.56107
▁பொருத்த	-9.56148
▁பங்கேற்ற	-9.56149
▁29	-9.56276
▁மண்	-9.56292
மூ	-9.56312
▁200	-9.56319
▁கட்டணம்	-9.56325
யொட்டி	-9.56328
த்திற்கான	-9.56366
▁தேர்ந்தெடுக்க	-9.56379
▁நிச்சயம்	-9.56379
▁பாதுகாப்ப	-9.56434
▁அழுத்த	-9.56446
▁அரு	-9.56448
is	-9.56497
▁படித்து	-9.56501
▁அரிசி	-9.56674
▁முத்து	-9.56778
த்ரா	-9.56812
▁பொங்கல்	-9.56905
▁நினைத்து	-9.56934
▁பத்து	-9.56942
▁இதற்கான	-9.56956
▁திண்டுக்கல்	-9.57027
L	-9.57146
க்குத்	-9.57163
▁டிவி	-9.5719
யெல்லாம்	-9.57193
▁வேண்டுமென	-9.57247
▁திறக்க	-9.57249
▁கடந்து	-9.57255
னியா	-9.57358
▁தொடக்க	-9.57377
▁துறையில்	-9.57431
▁மருத்துவர்கள்	-9.57509
▁சாலையில்	-9.57559
▁கரை	-9.57595
▁அமர	-9.57609
ுகிறேன்	-9.57616
▁வைப்ப	-9.57641
ங்களுடன்	-9.57674
▁பெயர	-9.5768
▁திறமை	-9.57681
▁ஆத்மி	-9.57682
▁ஏதாவது	-9.5771
விட்டதாக	-9.57711
லெ	-9.57724
▁வைத்திருந்த	-9.57784
தல	-9.57794
பீ	-9.5782
▁பேரும்	-9.57836
▁எது	-9.57892
▁விடுமுறை	-9.57898
த்தே	-9.57928
▁ஜனதா	-9.57958
ன்ற	-9.57973
▁எடுக்கப்பட்ட	-9.57979
▁உள்பட	-9.58
ப்படுவது	-9.58013
▁காதல	-9.58053
▁தொடரில்	-9.5821
▁சேர	-9.58238
▁செல்	-9.58254
▁எடை	-9.58276
ுவிட்டது	-9.58293
ிருந்து	-9.58302
▁ரகசிய	-9.58336
▁லோ	-9.58381
வாய்	-9.58424
▁திறன்	-9.58434
ுகின்ற	-9.585
▁நடத்தப்பட்ட	-9.5853
வைத்த	-9.58536
ினாலும்	-9.58539
▁கேரள	-9.58548
▁பிரதமர	-9.5855
▁தேர்தலை	-9.58561
▁31	-9.58561
▁நிறைவு	-9.58611
▁கேது	-9.5862
▁கட்டப்பட்ட	-9.58741
▁திசை	-9.58747
▁ஹே	-9.58765
▁ஆங்கில	-9.58778
▁சிங்க	-9.58795
▁வாய்ப்புகள்	-9.58824
▁தேனி	-9.58942
▁முதல	-9.58974
▁செய்துள்ளனர்	-9.58988
▁கள்ளக்குறிச்சி	-9.58997
▁பிரசார	-9.59002
▁உடலை	-9.59014
▁வசித்து	-9.59108
▁போட்டியிட்ட	-9.59122
▁அதற்காக	-9.59318
▁அறிமுகப்படுத்த	-9.59419
வருக்கு	-9.59427
▁செய்யப்பட	-9.59452
▁தொடர்புடைய	-9.59468
▁வெப்ப	-9.59508
மெ	-9.5952
▁மக்கள	-9.59592
▁கணவர	-9.59608
▁வயதில்	-9.59639
▁கலவர	-9.59729
▁தவற	-9.59734
▁திருப்பி	-9.59763
▁குமார	-9.59772
▁இதற்கிடையே	-9.59885
▁தீப	-9.59926
▁தெரிவிக்கின்றன	-9.59974
▁மேல	-9.59976
▁அமைப்ப	-9.60086
▁வகித்த	-9.60139
த்தைத்	-9.6016
▁பிடி	-9.60206
▁பாஜகவுக்கு	-9.60207
▁வெளியேற	-9.60221
▁இரட்டை	-9.60354
:00	-9.60382
டுக்கு	-9.6041
▁டே	-9.60518
▁பேரை	-9.60631
▁நடைபெறுகிறது	-9.60646
▁வேக	-9.6074
▁இருக்காது	-9.60751
போதும்	-9.60832
▁சதவிகித	-9.60872
▁சம்பவங்கள்	-9.6088
▁ஆகியவற்றை	-9.61042
▁ட்ர	-9.61069
▁கர்நாடகா	-9.61097
▁வசிக்கும்	-9.61133
▁வருகிறோம்	-9.61139
▁அரை	-9.61158
▁இதய	-9.61169
ரங்க	-9.61188
▁கட்டண	-9.61328
▁இடையில்	-9.61391
▁டோ	-9.6148
▁செய்துள்ளது	-9.6152
▁அறுவை	-9.61545
▁தீர்மான	-9.61567
நான்	-9.61587
ுவதால்	-9.61659
▁தெற்கு	-9.61694
▁அருள்	-9.61724
கிர	-9.61727
▁சந்திப்பு	-9.61779
ுகிற	-9.61862
▁மனிதர்	-9.61912
▁அமைப்பின்	-9.61921
▁ஆதரவாளர்கள்	-9.62017
▁அமைச்சராக	-9.62021
▁அதிர்ச்சியை	-9.62046
▁முடிவை	-9.62077
▁முருகன்	-9.62118
▁நகர்ப்புற	-9.62148
▁உள்	-9.62184
▁வீட்டை	-9.62185
am	-9.6224
ில்லை	-9.62254
▁மகாராஷ்டிரா	-9.62303
▁மீறி	-9.62477
▁வெல்ல	-9.62489
▁ஆப்	-9.62629
▁எழுதி	-9.6263
▁அணு	-9.62678
▁தயார்	-9.62752
▁கும்ப	-9.62755
▁நீதிபதிகள்	-9.62812
▁கனடா	-9.62816
▁D	-9.62888
▁அறிவியல்	-9.62912
▁இடங்களை	-9.62918
▁போராட	-9.62958
ளம்	-9.63058
க்கிறது	-9.63073
▁தள்ளி	-9.63085
நாதன்	-9.6318
ேந்திர	-9.63201
▁தங்களின்	-9.63202
▁அறிந்த	-9.63205
▁கூட்டணியில்	-9.6333
▁எழுப்ப	-9.63359
▁கைப்பற்ற	-9.63368
ப்பதற்கு	-9.63414
திரு	-9.63421
▁கட்டு	-9.63426
▁தங்கம்	-9.63509
▁உள்துறை	-9.63521
▁வருத்த	-9.63529
மல்	-9.63568
சல்	-9.6361
▁ராசிக்கு	-9.63656
en	-9.63699
▁தூத்துக்குடி	-9.63749
▁இலக்கு	-9.63757
▁ஆடை	-9.63798
விடும்	-9.63799
ற்கு	-9.63878
▁திருப்பதி	-9.63887
▁உங்கள	-9.6389
▁பரி	-9.63926
▁வெள்ளை	-9.63935
▁எதிர்கொண்ட	-9.6396
▁கனமழை	-9.6398
▁ஆயிரக்கணக்கான	-9.6398
▁பதிலடி	-9.63981
▁புர	-9.63989
▁உயர்ந்த	-9.63991
த்தர	-9.64103
▁குடும்பத்தினர	-9.64116
▁வன	-9.64207
▁உடல	-9.64209
ப்பட்டார்	-9.64315
▁வார்டு	-9.64357
▁சந்திப்ப	-9.64412
கல்	-9.64416
▁அனுமதிக்கப்பட்ட	-9.64438
ic	-9.64466
es	-9.64488
▁அக	-9.64531
▁2020	-9.64557
ஸில்	-9.64594
▁இருப்பதாகவும்	-9.64624
▁உலகக்	-9.64628
▁பரவ	-9.64651
▁படித்த	-9.64655
▁பெரும்பான்மை	-9.6468
▁பெரும்பாலும்	-9.6468
▁இர	-9.6471
▁அமைந்துள்ள	-9.64799
▁அமைத்து	-9.64873
▁சிவசேனா	-9.64914
▁ரொம்ப	-9.64914
▁பத்திர	-9.64956
▁பாக	-9.65021
▁வித	-9.65037
கொள்ள	-9.6507
தொ	-9.65154
▁இடைக்கால	-9.6516
▁பிரதேசத்தில்	-9.65231
ாவில்	-9.65248
▁பாகிஸ்தான	-9.65335
▁உற்சாக	-9.65384
▁முந்தைய	-9.65384
▁யோகி	-9.65429
துடன்	-9.65558
▁தரவு	-9.65567
▁இலங்கைக்கு	-9.65649
மின்	-9.65728
▁டிரா	-9.65754
▁கடமை	-9.65837
▁பேசுகையில்	-9.65856
த்தூர்	-9.65868
▁அணுக	-9.6593
▁அலுவலர்	-9.6594
▁மசோதா	-9.66155
15	-9.66167
▁பாதிக்கப்பட	-9.66255
▁மிகப்	-9.6641
▁நிறைந்த	-9.66426
▁முன்பே	-9.66428
and	-9.66474
▁ஆர	-9.66521
▁குழந்தைகளுக்கு	-9.66533
▁வெளியில்	-9.66538
▁போன்று	-9.66575
▁நடை	-9.66582
▁விக்கெட்டுகளை	-9.66595
▁சார்பாக	-9.66605
▁நே	-9.66736
▁ஆரோக்கிய	-9.66772
▁சூழ்நிலை	-9.66773
ினை	-9.66781
▁கண	-9.66806
▁கோவிலுக்கு	-9.66813
▁அலி	-9.66869
▁நேரு	-9.66916
ாலே	-9.66998
▁பத்திரிகையாளர்	-9.67006
▁ஆட	-9.6701
▁தீர்ப்ப	-9.67084
ra	-9.67107
▁ரெட்டி	-9.67112
ஃபி	-9.67147
ராம	-9.67164
▁மட்டுமல்ல	-9.67204
▁மேயர்	-9.67224
▁அணிந்து	-9.6727
▁அணிய	-9.67328
▁கூறியது	-9.67402
▁நாட	-9.6741
▁இந்தி	-9.6759
▁அறிந்து	-9.67749
▁பரபரப்பு	-9.67808
▁E	-9.67935
▁ஒப்புதல்	-9.67954
▁பிராந்திய	-9.68009
ூர	-9.68032
▁ஆட்சியர்	-9.68081
▁விசா	-9.68113
ட்டின்	-9.6815
▁அழுத்தம்	-9.68199
▁அர்	-9.68287
▁விபத்தில்	-9.68321
▁N	-9.68406
▁வாய்	-9.68495
▁அதுவும்	-9.68518
▁ஷி	-9.6854
▁அதிகரித்த	-9.68589
த்துல	-9.68607
▁உறுதிப்படுத்த	-9.68617
▁கூறும்	-9.6862
▁முடித்த	-9.68624
▁கட்டுமான	-9.68633
▁அதிகாரம்	-9.68686
it	-9.68716
▁சூப்பர்	-9.68751
▁அணியில்	-9.68802
ப்பாக	-9.68899
ளவு	-9.68968
▁வை	-9.69005
▁நாய்	-9.69041
▁துறைமுக	-9.69042
▁பகுதியை	-9.69045
நாயக்க	-9.69057
▁எங்கு	-9.69103
▁தன்மை	-9.69103
வழி	-9.69114
▁காலநிலை	-9.69151
▁வளாகத்தில்	-9.69158
சேகர	-9.69207
▁அமெரிக்காவின்	-9.69208
▁இவ்வளவு	-9.69232
▁70	-9.69253
▁அழைக்க	-9.69263
ேஷன்	-9.69266
ஜெ	-9.69314
▁பொய்	-9.69328
ங்கை	-9.69344
▁சாய்	-9.69369
வினர	-9.69373
▁விழ	-9.69385
▁முன்னிலையில்	-9.69394
▁செயல்பட்ட	-9.69442
▁2017	-9.69486
▁பேரில்	-9.69512
த்துவ	-9.69528
▁ஈடுபட்டனர்	-9.6953
கார்	-9.69531
▁உரு	-9.69545
▁விதிக்கப்பட்ட	-9.69608
ப்பர்	-9.69646
ப்படுவதாக	-9.69675
▁இறக்குமதி	-9.69717
▁விசேட	-9.69717
▁அல	-9.69728
நாத்	-9.69729
▁கும்பாபிஷேகம்	-9.69748
▁ராசிக்காரர்கள	-9.69845
▁குடியரசு	-9.69904
▁பில்லியன்	-9.69964
▁வெற்றியை	-9.69978
▁இங்கிலாந்து	-9.69979
▁மூளை	-9.70006
▁அன்	-9.70025
▁கண்டறிய	-9.70029
ராம்	-9.70088
▁எதிர்க்கட்சிகள்	-9.70092
▁ஒளி	-9.70097
▁நவ	-9.70098
லால்	-9.70113
▁பேட்டி	-9.70175
▁பட்ஜெட்	-9.70198
ing	-9.70236
▁அட்டை	-9.70261
▁சகோதரர்	-9.7028
▁பரிந்துரை	-9.70294
ாளர	-9.70423
▁முடிந்து	-9.70427
▁கொல்கத்தா	-9.70489
ட்ரி	-9.70501
▁நெல்லை	-9.70531
▁அமைந்துள்ளது	-9.70578
வருகிறது	-9.70673
▁பிரச்சார	-9.70706
▁அதானி	-9.70708
▁கார	-9.70756
▁குழப்ப	-9.70772
▁சாத்திய	-9.70772
▁விற்க	-9.70874
25	-9.70889
▁உத்தரவிட்ட	-9.70946
▁மர்ம	-9.70965
ிடமிருந்து	-9.70987
▁புற	-9.71002
▁முருக	-9.71034
▁அலுவலகம்	-9.71039
வாதி	-9.71086
▁களத்தில்	-9.71099
▁ஆணையர்	-9.71176
பாளையம்	-9.71206
▁முடித்து	-9.71208
▁சாம்	-9.71282
▁வழக்க	-9.71283
▁காவிரி	-9.7129
▁வந்துள்ளது	-9.71335
ிருக்கிற	-9.71383
▁உண்மையில்	-9.71396
ed	-9.714
▁ஜம்மு	-9.71456
ொன்று	-9.71483
▁கிரி	-9.71495
▁லஞ்ச	-9.71534
▁இறங்கி	-9.7155
▁காரிய	-9.7156
▁நேரங்களில்	-9.71612
▁விமானம்	-9.71632
▁பத	-9.71638
▁வகையான	-9.7167
▁ஹிஜாப்	-9.71706
▁மட்ட	-9.71716
▁லே	-9.7173
▁கொண்டது	-9.71801
போல்	-9.71813
▁ராணுவம்	-9.71824
▁புரிந்து	-9.71832
▁தம்பதி	-9.7197
▁தளபதி	-9.71978
▁நெல்	-9.71981
▁இறக்க	-9.72004
▁ஏழை	-9.7203
▁எட்டு	-9.72042
▁அரசை	-9.72097
ும்படி	-9.72178
▁2014	-9.72226
▁மாணவ	-9.72234
▁நபர்கள்	-9.72236
▁நேர்	-9.72246
▁முன்ன	-9.72259
▁ஒருமுறை	-9.72318
த்தினர்	-9.72428
▁உப	-9.72433
▁வந்தால்	-9.72454
▁துப்பாக்கி	-9.72517
▁ராமர்	-9.72534
19	-9.72559
வாரி	-9.72629
தலை	-9.72644
▁செலவ	-9.72646
▁தொண்ட	-9.72775
▁நாயக	-9.72855
▁நடிக்க	-9.7296
▁நடைமுறைப்படுத்த	-9.72975
▁அதிகரித்துள்ளது	-9.73004
▁செய்யலாம்	-9.73034
▁நானும்	-9.73041
▁ஆலய	-9.73075
▁சட்டத்தை	-9.73096
▁பொறுப்ப	-9.73097
▁பாடசாலை	-9.7323
க்கல்	-9.73234
▁பேட்டிங்	-9.73257
வைச்	-9.73285
▁காலங்களில்	-9.73317
மர	-9.73342
ப்பணி	-9.73416
H	-9.73417
விலிருந்து	-9.73425
as	-9.73444
▁நிறுவனங்கள	-9.73459
▁உத்தரப்பிரதேச	-9.73477
▁மோசமாக	-9.73502
▁மரணம்	-9.73584
▁ஆன	-9.73644
▁பர்	-9.7365
மாகவும்	-9.7365
▁ஒப்பந்தம்	-9.73662
▁மசூதி	-9.73732
▁சிறிது	-9.73735
ur	-9.73736
▁பயன	-9.73758
▁பட்டியலில்	-9.73828
▁வழியில்	-9.73871
▁ரு	-9.73872
▁பெட்டி	-9.73906
▁நு	-9.73966
▁ஓவரில்	-9.7399
▁ஆஸ்திரேலிய	-9.74023
புரி	-9.7405
யாகவும்	-9.74051
ப்பின்	-9.74058
ாய	-9.74133
▁தெரியாது	-9.74166
.2	-9.74181
▁பின்பு	-9.74228
பேட்டை	-9.74235
இது	-9.74241
▁விலங்கு	-9.74246
▁செய்தியாளர்களிட	-9.74276
▁வலம்	-9.74331
40	-9.7436
▁உள்ளாட்சி	-9.74391
▁எங்களை	-9.74405
▁நியாய	-9.74464
▁கட்டிட	-9.74494
▁கோயிலுக்கு	-9.74507
▁பஸ்	-9.74531
ஸின்	-9.74574
▁எங்கே	-9.74658
▁இள	-9.74667
த்திட்ட	-9.74704
▁சுர	-9.74736
▁புத்த	-9.74788
▁அலங்கார	-9.74803
▁உணர	-9.7491
▁தாக்கிய	-9.75015
▁யாத்திரை	-9.75021
▁தலைநகர்	-9.75101
▁மீட்பு	-9.75134
▁நிலவி	-9.75245
▁இறுதியில்	-9.75268
▁ஒற்றுமை	-9.75281
▁பொதுமக்கள	-9.75285
▁வேலைத்திட்ட	-9.75336
▁அடிக்க	-9.75404
▁பகுதியாக	-9.75435
▁75	-9.75509
கிரி	-9.75523
▁யாதவ்	-9.75527
ுடனும்	-9.75584
சில்	-9.75627
▁அமைய	-9.75629
▁இவருக்கு	-9.75642
பல	-9.75692
▁செய்தால்	-9.75704
ினார்கள்	-9.75743
▁உள்நாட்டு	-9.75802
▁மறைந்த	-9.75811
▁கண்டனம்	-9.75821
▁வழிபட	-9.75827
▁நலன்	-9.7585
▁மீட்க	-9.75914
▁500	-9.75976
▁சந்த	-9.76113
▁அப்ப	-9.7614
நாதர்	-9.76181
▁வெகு	-9.76193
▁செய்யப்பட்டார்	-9.76202
▁கனவு	-9.76214
▁எனப்படும்	-9.76234
▁இந்தியாவை	-9.76339
▁அபாய	-9.76342
▁இப்ப	-9.76351
▁முன்வைத்த	-9.76571
▁மட்டுமின்றி	-9.7659
▁பெற்றார்	-9.76616
▁தொண்டர்கள்	-9.76622
யுள்ள	-9.76654
▁பாவ	-9.76692
ப்பிர	-9.7674
▁ஆளுநர	-9.76759
▁விண்ணப்ப	-9.76847
▁பெரிதாக	-9.76857
▁இதனையடுத்து	-9.76858
த்துக்கும்	-9.76939
▁எடுக்கப்படும்	-9.76981
போல	-9.76991
▁மூட	-9.77024
▁பெற்றோர	-9.77093
வதி	-9.77143
▁பேசும்	-9.77179
▁கணக்க	-9.77181
த்தின	-9.77224
▁L	-9.77237
ுவதாகவும்	-9.77258
▁தலா	-9.77299
▁அறிவித்துள்ளது	-9.77314
▁கருத்தை	-9.77331
▁பதிவிட்ட	-9.77333
▁தக்க	-9.77412
க்கில்	-9.77412
ேஸ்வர	-9.77414
▁என்பத	-9.77421
▁மதிப்ப	-9.77467
▁உக்ரைன	-9.7749
▁காய	-9.77491
▁வெளியேற்ற	-9.77514
▁என்பதில்	-9.77539
▁ஒருநாள்	-9.7759
▁அமித்	-9.77643
▁செயற்கை	-9.77649
▁உயர்நீதிமன்ற	-9.7768
▁இடத்திற்கு	-9.77701
▁அஞ்ச	-9.7771
▁நாட்	-9.77724
▁ஓட்டு	-9.7775
▁சபாநாயகர்	-9.77797
ஆவது	-9.77803
th	-9.77843
ராஜா	-9.77845
▁கிடைக்கவில்லை	-9.77852
▁முடிவ	-9.77857
ட்ரோ	-9.77878
▁கும்பல்	-9.77881
▁நன்மை	-9.77887
▁தூண்ட	-9.77891
▁வெளியுறவு	-9.77892
வள	-9.77896
▁பல்ல	-9.77908
▁கேமரா	-9.77918
▁விளங்க	-9.77926
▁மறுக்க	-9.77971
▁என்பவர	-9.78008
▁கவனிக்க	-9.78055
இந்தியா	-9.78058
த்தது	-9.78106
▁இணையத்தில்	-9.78122
ிலுள்ள	-9.78155
▁செய்தியாளர்களை	-9.7816
▁எதிரி	-9.78212
ினோம்	-9.78242
▁மீற	-9.78282
ணர்	-9.78344
▁கூறப்பட்டுள்ளது	-9.7844
▁ஊர	-9.78448
▁எவ்வாறு	-9.78451
▁பண்டிகை	-9.78451
▁மம்தா	-9.7846
ப்பார்	-9.78472
▁தேர்தலுக்கு	-9.78599
ொன்ற	-9.78611
▁கைதி	-9.78624
செய்ய	-9.78651
மண	-9.78655
வேல்	-9.78684
▁பட்டியல்	-9.78786
▁வெட்டி	-9.78807
▁வரவேற்பு	-9.78813
▁நிலம்	-9.78821
▁வேலைக்கு	-9.78838
▁ஜீ	-9.78896
▁பணியாற்றி	-9.78924
டிக்க	-9.78958
▁அமல்படுத்த	-9.7899
▁மாநாட்டில்	-9.7899
▁வண்ண	-9.78991
▁தமிழிடம்	-9.79046
▁சுட்டிக்காட்ட	-9.79053
▁வாய்ப்ப	-9.79084
வதை	-9.79123
ம்மா	-9.79126
▁போகும்	-9.79137
▁அழக	-9.79141
ிருக்கிறேன்	-9.79145
12	-9.79183
முடி	-9.79193
மதி	-9.79247
▁மன்ற	-9.79296
▁அக்கட்சி	-9.79329
▁ராம்	-9.79343
▁நட்பு	-9.79372
▁படங்கள்	-9.79378
▁எழுந்துள்ளது	-9.79406
▁ஃபி	-9.79504
விலும்	-9.79529
▁டிஜிட்டல்	-9.79531
▁பிரிட்டன்	-9.79532
▁சென்றது	-9.79541
▁வெடித்த	-9.7956
தெ	-9.79633
▁நிலையை	-9.79656
▁எம்எல்ஏ	-9.79688
▁அதி	-9.79744
▁வாச	-9.79765
▁ஆபத்து	-9.79805
▁ஒட்டுமொத்த	-9.79811
▁ஆயிரத்து	-9.79814
ென்று	-9.79822
▁80	-9.79859
டெ	-9.79931
▁கஷ்ட	-9.79939
▁கொண்டிருக்கிறது	-9.79963
▁அவன்	-9.80007
▁கேட்டுக்	-9.80041
▁ப்ர	-9.80046
▁பொதுச்செயலாளர்	-9.80075
▁மீம்ஸ்	-9.80079
▁தெரு	-9.80114
▁கூறியிருந்தார்	-9.80188
▁திரும்பிய	-9.80211
▁வருவாய்	-9.80212
▁ஸ்தான	-9.80337
le	-9.80344
▁சேர்ந்தவர்கள்	-9.80447
▁ஒருவரை	-9.80457
▁உருவ	-9.80466
▁என்னிடம்	-9.80504
டுகள்	-9.80507
▁கட்டுரை	-9.80525
▁செய்திகள்	-9.80612
▁கேள்விக்கு	-9.80634
▁நிகழ	-9.80638
▁தோன்ற	-9.80692
▁எட்ட	-9.80692
ுவதில்லை	-9.80721
▁செவ்வாய்	-9.80728
▁மோகன்	-9.80761
▁ஏனெனில்	-9.80897
▁முதன்மை	-9.80924
▁கட்சித்	-9.80949
புர	-9.80951
▁வெளியாகியுள்ளது	-9.8096
▁வட்டி	-9.80962
▁F	-9.81029
கண்ட	-9.81071
▁காட்சிகள்	-9.81072
▁அவசிய	-9.81108
களோ	-9.81116
▁வாகனத்தில்	-9.8113
▁நிரந்தர	-9.81173
▁பெண்ணை	-9.81175
▁விட்டது	-9.81198
▁கடி	-9.81245
▁உண்மையான	-9.81255
▁என்பதுதான்	-9.81255
▁ஆசிய	-9.81261
லூர்	-9.81295
▁தொண்டர்கள	-9.81337
▁நிகழ்வில்	-9.81342
▁ஒற்றை	-9.81383
ஸ்திர	-9.81384
▁வெளிப்படுத்த	-9.81461
▁ஊடாக	-9.81466
மிக்க	-9.815
▁பிபிசியிடம்	-9.81513
வித	-9.81567
▁உரிமையாளர்	-9.81575
▁அதனால்தான்	-9.81583
▁மந்திர	-9.81598
▁அமைச்சகம்	-9.81603
▁தொழிலாளர்கள்	-9.81606
▁வாழ்க்கையில்	-9.8166
▁உலா	-9.81719
பெண்	-9.8172
▁நோயாளி	-9.81726
ரவி	-9.81735
▁திரை	-9.81797
▁கேட்ப	-9.81804
▁ய	-9.81841
▁அந்தத்	-9.8196
▁பகுதியைச்	-9.82086
▁இருந்தபோது	-9.82089
▁ஏதோ	-9.82116
▁கீ	-9.8218
▁வைக்கும்	-9.82188
▁35	-9.82193
▁ராணி	-9.82267
▁படுகொலை	-9.82282
▁விடுதி	-9.82287
▁நிகழ்ந்த	-9.82293
▁வச	-9.82294
▁தெரிவித்துள்ள	-9.82366
▁மீட்ட	-9.8237
வச	-9.82376
▁மலர்	-9.82425
▁ஆட்டம்	-9.82505
ியதாக	-9.82507
▁அளித்து	-9.82637
▁சுப	-9.82645
▁உச்சநீதிமன்ற	-9.82646
▁உங்களை	-9.8272
▁நிபுணர்	-9.82735
▁மாதங்களில்	-9.82806
▁I	-9.82809
பெற்ற	-9.82839
▁பவுண்டரி	-9.82842
▁தம்பி	-9.82856
ௌ	-9.82885
க்கார	-9.82892
▁கன்னி	-9.82894
▁பணியாற்ற	-9.82976
▁கலாசார	-9.83123
▁அண்மையில்	-9.83123
▁துணி	-9.83135
▁திருப்பூர்	-9.83155
▁இவ்வ	-9.8318
▁உருவாக்கப்பட்ட	-9.8322
▁அடுத்தடுத்து	-9.83346
▁தோனி	-9.83347
டைந்த	-9.8339
▁காயமடைந்த	-9.83413
▁p	-9.8343
▁அமெரிக்காவில்	-9.83435
▁யாருக்கு	-9.83441
▁குழுவின்	-9.83453
ண்டர்	-9.83504
▁90	-9.83619
▁வரிசையில்	-9.83629
▁காஷ்மீர்	-9.83655
▁மக	-9.83684
▁செல்போன்	-9.83687
▁வருவதாகவும்	-9.83704
▁சித்த	-9.83706
▁சமயத்தில்	-9.83718
▁ஏற்றி	-9.83724
▁தாக்குதலை	-9.83751
ர்ட்	-9.83858
▁மண	-9.83867
ல்ஸ்	-9.83867
2022	-9.83898
கான்	-9.83971
▁சம்ம	-9.83977
வற்ற	-9.83998
▁வெளிநாடு	-9.84012
▁ஏறி	-9.84036
▁ஜெனரல்	-9.8404
▁வேதனை	-9.84045
30	-9.84079
▁திரைப்படம்	-9.84197
▁குடும்பம்	-9.84267
▁நடத்தப்பட்டது	-9.84269
▁பார்ப்ப	-9.84281
▁போதுமான	-9.84309
▁விஷயங்களை	-9.8433
▁அதிலும்	-9.84392
▁நாடுகளுக்கு	-9.84402
▁எக்ஸ்	-9.84406
▁பதற்ற	-9.84426
▁பிரிவில்	-9.8447
:30	-9.84477
▁உறவினர்கள்	-9.84511
▁பாபு	-9.84521
▁நிறுவ	-9.84528
▁அஜித்	-9.84545
▁டிக்கெட்	-9.84565
▁பார்க்கும்	-9.84628
▁ஆர்வம்	-9.84712
ஒ	-9.84728
▁உதவிய	-9.84781
தானே	-9.84793
▁திட்டத்தில்	-9.84854
▁சட்டமன்றத்	-9.84856
▁பின்னணி	-9.84869
ிக்கும்	-9.8487
▁இழந்து	-9.84955
▁எளிதாக	-9.8496
▁ராசியில்	-9.84966
▁உரை	-9.84968
▁ஆகவே	-9.85034
ப்படுத்தும்	-9.85036
▁பகிர	-9.85094
▁இவரது	-9.85114
▁வலு	-9.85151
▁சுரங்க	-9.85218
▁கோல்	-9.85245
▁காங்கிரஸ	-9.85245
ிவிட்டது	-9.85289
▁கருத்த	-9.85291
▁இதுதொடர்பாக	-9.85399
▁பணியாளர்	-9.85462
▁வழங்கினார்	-9.85479
▁வேத	-9.8551
▁அதன்பின்	-9.85512
▁பெங்களூரு	-9.8559
▁நபர	-9.85625
▁கொண்டுவர	-9.8564
▁கருவி	-9.85704
▁வருகிற	-9.8572
▁தாக்கரே	-9.8573
க்கடை	-9.85794
▁ஆக்	-9.85824
ad	-9.85876
▁ஹரி	-9.85969
▁இராணுவ	-9.85976
▁மணியளவில்	-9.85976
கின்றனர்	-9.86106
▁விலகி	-9.86157
ியிருக்கிறார்	-9.86163
▁ஆண்டின்	-9.86171
▁ஒத்துழைப்பு	-9.86184
▁பாம்பு	-9.86228
▁மின்சாரம்	-9.86248
▁நெடுஞ்சாலை	-9.86266
▁கலந்துகொண்ட	-9.86293
நாத	-9.86376
▁முடியுமா	-9.86377
▁செய்துகொண்ட	-9.86383
▁உருவாக்கி	-9.86522
▁அவ்வப்போது	-9.86556
▁இராஜாங்க	-9.86556
▁முன்னெடுக்க	-9.86562
ப்பட்டதாக	-9.86593
▁விசாரித்து	-9.86607
▁யாரு	-9.86614
▁குழந்தைகளை	-9.86687
▁உருவாக்கிய	-9.86764
▁தாக்கி	-9.86782
▁வாழும்	-9.86794
▁வழங்கப்பட	-9.86816
ிருந்தாலும்	-9.86828
▁யுக்ரேன	-9.86869
▁செய்வதற்கு	-9.86881
ுடனான	-9.86915
▁வெளியிட்டுள்ளது	-9.86975
▁அமலாக்கத்துறை	-9.86976
▁ஸ்ட	-9.86992
▁வழக்குகள்	-9.87043
▁அவர	-9.87069
▁போன்றவை	-9.87109
▁உணர்வு	-9.8711
▁திருவண்ணாமலை	-9.8714
▁என்பதற்காக	-9.8714
▁சந்தோஷ	-9.87141
பூர்வ	-9.87159
▁பாலி	-9.87204
▁குறிப்பிட்டு	-9.87222
▁பலி	-9.87241
▁நினைக்க	-9.87282
னிடம்	-9.87394
க்கொண்டே	-9.87405
▁கொள்ளை	-9.87432
▁அவ்வளவு	-9.87437
▁ரஷ்யாவின்	-9.87437
▁திணைக்கள	-9.87441
▁அணியை	-9.87574
▁செய்யவில்லை	-9.87601
களோடு	-9.87617
▁வான	-9.87622
▁பணியை	-9.87771
▁நிலைக்கு	-9.87801
▁அறிவ	-9.87866
▁குறு	-9.87871
▁வட்ட	-9.87888
▁s	-9.87902
▁அமர்ந்து	-9.87908
ருடன்	-9.87944
""	-9.87948
▁மாணவிகள்	-9.88002
▁தெரியாத	-9.88007
▁ஏனென்றால்	-9.88023
▁கண்டுபிடித்த	-9.88032
▁கவு	-9.88094
▁வலியுறுத்த	-9.88239
▁வைத்தனர்	-9.88316
▁டீசல்	-9.88334
▁தீர்க்க	-9.88398
ch	-9.88428
▁உறவினர்	-9.88539
கிட்ட	-9.88545
கூட்ட	-9.88548
▁நாடாளுமன்றத்	-9.88575
▁தேவி	-9.88595
▁சோழ	-9.88601
▁அம்மனுக்கு	-9.88615
▁கொடுத்தார்	-9.88624
நாயக	-9.88652
▁வழக்கமாக	-9.88773
▁விஷயங்கள்	-9.88779
▁முடிக்க	-9.888
▁மக்களவை	-9.88856
▁தீபாராதனை	-9.88913
கொண்டு	-9.88922
▁அறிக்கையை	-9.88925
▁2016	-9.88934
▁தெரியுமா	-9.88962
▁குறைவான	-9.88986
▁குற்றம்சாட்ட	-9.88991
▁நண்பர்கள்	-9.88997
வுக்கும்	-9.89091
▁மன்	-9.89129
▁சகோதரி	-9.89138
▁குடும்பத்தில்	-9.89163
▁சிறுவர்	-9.89175
▁இடம்பெற	-9.89227
ப்பட்டிருக்கிறது	-9.89283
▁பார்த்தால்	-9.89287
▁தொடரும்	-9.89301
▁பெயர்ச்சி	-9.89366
▁தெய்வ	-9.89382
▁மகன	-9.89415
▁எடுத்துச்	-9.89495
▁ஒலி	-9.89536
▁எதிர்பார்ப்பு	-9.89542
▁எந்தவித	-9.89589
▁அமைப்புகள்	-9.89608
▁இருந்தும்	-9.89621
▁பதவியில்	-9.89625
▁பாராட்டு	-9.89659
▁கப்பல	-9.89731
▁காம	-9.89762
▁மல	-9.8979
▁மயிலாடுதுறை	-9.89811
▁முன்தினம்	-9.89811
▁அதேநேரம்	-9.89811
▁பானர்ஜி	-9.89812
▁ஊராட்சி	-9.89821
▁உணவ	-9.89847
▁நிகழ்வ	-9.89872
▁ஆழ	-9.89876
▁பிரதி	-9.89899
▁வாழ்க்கையை	-9.89944
▁அளிக்கும்	-9.8995
ரக	-9.89996
▁உலகில்	-9.90004
▁போக்கு	-9.90012
▁தூர	-9.90088
▁ஆடு	-9.90095
▁ஐரோப்பிய	-9.90112
▁சனிக்கிழமை	-9.90112
▁மஹிந்த	-9.90136
▁கட்டுப்பாடு	-9.90157
▁ஆனா	-9.90159
▁வேண்டி	-9.90186
▁பருவ	-9.90199
▁அமைச்சின	-9.9021
▁உட்பட்ட	-9.9024
▁G	-9.90254
▁காத்திருந்த	-9.90294
▁வரவில்லை	-9.90322
▁எதிர்கால	-9.90327
▁டிரம்ப்	-9.90327
▁வளாக	-9.90399
▁படகு	-9.90443
▁மாநாடு	-9.90449
▁கடல	-9.90453
▁ஆட்டத்தில்	-9.90482
▁தமிழ்நாட்டின்	-9.90504
▁மதியம்	-9.90561
▁ரோஹித்	-9.90571
▁300	-9.90586
வையும்	-9.90671
▁மஞ்சள்	-9.90718
▁காரில்	-9.90747
பில்	-9.9076
▁முடக்க	-9.90779
மார்	-9.90783
ol	-9.90828
▁பின்ன	-9.90907
▁திரும	-9.90915
▁பந்துகளில்	-9.90945
▁இடங்கள்	-9.90959
▁அமைச்சு	-9.90995
▁இருக்கின்றனர்	-9.91013
▁பெற்றுள்ளது	-9.91016
விட்டால்	-9.91036
▁அதன்பிறகு	-9.9105
ருவ	-9.91106
▁ஆய்வாளர்	-9.91195
▁நிவாரண	-9.91206
▁கைவிட	-9.91237
▁நம்மை	-9.9131
▁காட்டிய	-9.91326
▁அரசியலமைப்பு	-9.91329
ங்களைப்	-9.91355
▁வாக்குறுதி	-9.91372
▁H	-9.91397
ியுள்ளனர்	-9.91404
கின்	-9.91407
▁காலகட்டத்தில்	-9.91419
தார்	-9.91516
▁இணையதள	-9.91577
ென்ற	-9.91586
▁தொலைக்காட்சி	-9.91632
ுபவர்	-9.91709
▁ஜப்பான்	-9.91718
▁சோக	-9.91735
த்தக்க	-9.91748
பொருள	-9.91776
▁நம்பி	-9.91803
▁பிரச்னைகள்	-9.91805
▁தரப்ப	-9.91819
▁காலையில்	-9.91847
▁மறை	-9.91853
லன்	-9.91884
▁குழுவினர்	-9.9189
▁தூதரக	-9.91939
▁வேலைவாய்ப்பு	-9.91939
▁அறநிலையத்துறை	-9.9194
▁யாருக்கும்	-9.91944
▁நிபுணர்கள்	-9.91945
ங்களைக்	-9.91956
▁சந்தேகம்	-9.9201
▁மருத்துவக்	-9.92059
▁ஊடகங்களில்	-9.9208
▁வலியுறுத்திய	-9.9208
ிடையே	-9.92178
▁நீர	-9.92192
▁பெண்களை	-9.92196
வற்றை	-9.92219
▁யுக்ரேன்	-9.92224
▁ஐபிஎல்	-9.92247
▁இயந்திர	-9.92247
▁வியாபார	-9.92247
பாடு	-9.92293
▁வேண்டியது	-9.92312
▁ஏற்பட்டுள்ள	-9.92331
▁எரிபொருள்	-9.92383
5,000	-9.92442
போன	-9.92481
▁குல	-9.92484
▁சொல்வது	-9.92524
U	-9.92549
▁வெளிப்படையாக	-9.92555
▁in	-9.92577
▁நர	-9.92594
▁முடிவில்	-9.92629
▁வருவதால்	-9.92645
▁நுழைந்த	-9.92696
▁ஆல்	-9.92743
▁செஸ்	-9.92754
▁குறைந்து	-9.92785
▁இரான	-9.92861
▁பொறுப்பேற்ற	-9.92867
▁தாக்கத்தை	-9.92927
பார	-9.93037
▁போதை	-9.93059
காந்த	-9.93071
▁கீழ	-9.93102
சிங்க	-9.93125
▁ஞாயிற்றுக்கிழமை	-9.93175
▁மூன்றாம்	-9.93176
ாததால்	-9.93183
▁ஏற்றுக்கொள்ள	-9.93192
▁உள்ளிட்டோர்	-9.93234
▁தெரியாமல்	-9.93343
▁வலிமை	-9.93366
▁உதவும்	-9.93399
▁அழைத்த	-9.93478
▁கன்னியாகுமரி	-9.93487
▁அனைத்தையும்	-9.93487
▁நீலகிரி	-9.9349
▁குடிநீர்	-9.93494
சர	-9.93531
▁ஞான	-9.93589
▁கருத்தில்	-9.93608
▁எழுந்தருளி	-9.93645
▁இறங்க	-9.93681
▁சாதகமாக	-9.9372
▁படுத்த	-9.93791
K	-9.93798
▁வெள்ளிக்கிழமை	-9.93799
▁தொழிற்சாலை	-9.938
ri	-9.93801
▁இம்ரான்	-9.93804
வாறு	-9.93805
▁திரி	-9.93819
▁மக்களிடம்	-9.93855
▁சிறப்பான	-9.93912
▁பங்கேற்று	-9.93965
▁வேட்பாளராக	-9.93995
டின்	-9.93997
▁அரபு	-9.9414
தாவது	-9.94236
▁திறந்த	-9.94268
▁வெட்ட	-9.94269
▁பலத்த	-9.94363
▁புரிய	-9.94364
▁பெரியார்	-9.94375
▁தாங்கள்	-9.94403
▁திருக்கல்யாண	-9.94427
▁தெலுங்கு	-9.94427
▁வலுவான	-9.94441
ஸ்த	-9.94447
▁லாப	-9.94485
▁மட்டுமல்லாமல்	-9.94504
▁முனை	-9.94508
▁வேலையை	-9.94555
பெயர்	-9.94558
▁கொள்ளலாம்	-9.94574
▁கொடூர	-9.9458
▁போதே	-9.94618
▁நிலவும்	-9.94633
டையும்	-9.94736
▁ஏதேனும்	-9.94743
▁ஒருவேளை	-9.94744
▁தினசரி	-9.94754
கொள்கிறார்	-9.94756
▁சோனியா	-9.94775
▁மாளிகை	-9.94786
▁கிர	-9.94805
▁பாரதிய	-9.94896
▁வெளியிட்டு	-9.94965
ங்களே	-9.94979
▁போரில்	-9.94988
யிலுள்ள	-9.95046
▁லோக்சபா	-9.95059
▁எச்சரித்த	-9.95059
▁‛‛	-9.95059
▁பாமக	-9.95066
▁குழுக்	-9.95246
▁வாகனம்	-9.95278
▁தொடங்கினார்	-9.95283
▁தலைவரும்	-9.9533
▁தொகுதிகளில்	-9.95332
▁கண்காணிப்பு	-9.95352
யாகி	-9.95373
▁ஷிண்டே	-9.9538
▁அர	-9.95426
▁சேத	-9.95427
▁கழித்து	-9.95433
வைத்து	-9.95459
▁நிமிட	-9.95499
ப்பதாக	-9.95621
▁குடியிருப்பு	-9.95644
▁முகாம்	-9.95656
பெற	-9.95687
போதே	-9.95694
▁கூடுதலாக	-9.95695
▁சமுதாய	-9.95695
▁கணக்கில்	-9.9572
▁முற்றிலும	-9.95734
▁வீசி	-9.95768
க்கர்	-9.95817
▁என்பதையும்	-9.95841
▁மனதில்	-9.95853
▁இழப்பு	-9.95914
▁நிரப்ப	-9.95927
▁கொண்டிருக்கும்	-9.95936
▁தெலங்கானா	-9.96015
▁ஈரோடு	-9.96015
▁வாடகை	-9.96015
▁போய	-9.96016
▁முடிய	-9.96061
▁உணர்ந்த	-9.96086
▁நடத்தும்	-9.96137
▁போர	-9.96141
வுண்ட	-9.96265
▁சொல்லப்படுகிறது	-9.96271
லீ	-9.96303
▁விதை	-9.96372
▁ஆண்கள்	-9.96384
▁தொலைவில்	-9.96397
▁செயலக	-9.96422
▁அவர்களிடம்	-9.96464
▁எதையும்	-9.96489
க்கொள்	-9.9649
மாகவே	-9.96541
▁உணவுப்	-9.96541
ட்டோ	-9.96542
▁அக்னி	-9.96571
▁தரை	-9.96626
▁உணவக	-9.96641
▁மன்னிப்பு	-9.96657
▁யோக	-9.96732
▁காதலி	-9.96736
▁ஆரம்பிக்க	-9.96803
மில்	-9.96841
▁புகழ்	-9.96928
▁மீன	-9.96959
▁மீட்டு	-9.97059
▁தவறாக	-9.9718
▁கணவன்	-9.97205
ுவர்	-9.97249
▁இருந்தே	-9.9727
▁சிபிஐ	-9.97303
▁பழக்க	-9.97324
▁திருட	-9.97326
த்தன்மை	-9.97332
▁ராஜபக்சே	-9.97334
ண்டை	-9.97425
▁சமயம்	-9.97465
நேர	-9.97484
▁வருடம்	-9.97507
▁பொருட்கள	-9.9752
▁அரி	-9.97529
பெரும்	-9.97547
▁யாக	-9.97549
▁சுப்பிரமணிய	-9.97596
▁செல்வது	-9.97649
▁கொள்ளும்	-9.97651
▁வெளியானது	-9.97694
▁ஆசி	-9.97702
ராஜன்	-9.97708
▁குழந்தையை	-9.97743
▁நிறுவனத்தில்	-9.97839
▁அமையும்	-9.97871
▁இன்றி	-9.97885
▁மாடல்	-9.97915
க்கொண்டிருந்த	-9.97942
▁விழுப்புரம்	-9.97953
▁சிந்தனை	-9.97954
▁பாச	-9.97975
மாய்	-9.97979
▁இந்	-9.97998
▁சொல்லும்	-9.98026
▁வரலாற்றில்	-9.98041
▁மணிப்பூர்	-9.98061
▁கர்	-9.98065
▁கொன்ற	-9.98071
▁கூறியுள்ளது	-9.98081
▁தயாரிப்பு	-9.98082
st	-9.98128
▁மொத்தமாக	-9.98146
சிங்	-9.98236
▁வாழ்வ	-9.98254
▁திருவ	-9.9826
யற்ற	-9.98273
▁பறிமுதல்	-9.9828
▁இதனைத்	-9.983
▁நடந்துள்ளது	-9.98304
▁விளைவு	-9.98325
▁சான்றிதழ்	-9.98427
ெடுக்க	-9.98433
த்திடம்	-9.98444
▁கொல்ல	-9.98478
▁காற்று	-9.98482
▁விளை	-9.9853
70	-9.98531
▁நடத்தப்படும்	-9.98547
ப்பன்	-9.98551
ென	-9.98584
▁கிளை	-9.98592
▁கம்யூனிஸ்ட்	-9.98608
▁வணங்க	-9.98616
▁கிள	-9.9869
▁அளவ	-9.98702
த்தினால்	-9.98773
▁லீ	-9.98807
சார	-9.98828
▁தொட	-9.98831
▁தொலைபேசி	-9.98937
▁மாரியம்மன்	-9.98937
▁கழிவு	-9.98939
▁அயோத்தி	-9.98944
நெ	-9.99017
▁காணப்பட்ட	-9.9902
▁வேற	-9.99022
▁விட்டார்	-9.99032
▁ஜான்	-9.99051
▁நடித்து	-9.99083
11	-9.99123
▁ராஜபக்ஷ	-9.99267
▁இறந்து	-9.99268
▁வசதிகள்	-9.99276
▁பகிர்ந்த	-9.99312
▁மணிநேர	-9.99312
▁தடுத்து	-9.99342
▁போராடி	-9.99358
▁உடன	-9.994
▁ஜெயக்குமார்	-9.99402
கோவில	-9.99415
▁படைத்த	-9.99444
▁மாறாக	-9.99545
▁கும்பாபிஷேக	-9.99558
▁துணைத்	-9.99568
▁செய்	-9.99583
▁இணைக்க	-9.99584
▁பணியிட	-9.99588
▁இத்தனை	-9.996
▁சந்தித்தார்	-9.99628
▁ட்விட்டரில்	-9.99637
▁அச	-9.99643
▁ஏக்கர்	-9.9965
ரத்ன	-9.99676
▁45	-9.99687
▁வந்துள்ளார்	-9.99705
▁வீடுகள்	-9.99774
ப்படுத்திய	-9.9978
த்திற்குள்	-9.9981
▁ஆதரவை	-9.99841
▁காணி	-9.99854
▁ஏரி	-9.99921
▁பணிப்பாளர்	-9.99931
▁கிடந்த	-9.99935
வினர்	-9.99961
▁கஞ்சா	-9.99989
▁கடற்கரை	-9.9999
▁விசாரணையை	-9.99999
பிடி	-10.0008
▁இதைத்	-10.0021
▁செய்வ	-10.0022
▁இருந்தவர்	-10.0024
▁மீள	-10.0026
▁ரஜினி	-10.0026
▁பூங்கா	-10.0029
▁பாட்டி	-10.003
▁யோகம்	-10.0034
▁சவு	-10.0036
▁தொலை	-10.0036
▁இயல	-10.0039
▁மாதங்கள்	-10.0041
நகர்	-10.0043
▁பாஜகவை	-10.0045
▁W	-10.0049
▁பொருளாதாரம்	-10.0049
▁நிலையில்தான்	-10.0049
▁நதி	-10.0051
▁மாற்றங்கள்	-10.0053
ுள்ளதால்	-10.0053
▁நீள	-10.0055
▁செயலாளராக	-10.0057
▁அளவிலான	-10.006
வேண்டிய	-10.0064
▁கொடுமை	-10.0072
ப்பகுதி	-10.0077
ியிருக்கிறது	-10.0079
▁சதவிகிதம்	-10.008
▁தை	-10.0081
▁மாறிய	-10.0082
ேஸ்வரர்	-10.0085
▁அடங்கிய	-10.0088
60	-10.0089
டியில்	-10.0091
▁எடுக்கும்	-10.0093
▁K	-10.0094
▁அவருடன்	-10.01
▁விரி	-10.0107
நீர்	-10.0107
ஸ்டர்	-10.0108
▁ஜூ	-10.0117
▁அளித்தார்	-10.0121
▁இம்	-10.0125
ிருந்தன	-10.0127
▁நேற்றைய	-10.0127
▁பென்	-10.0135
▁இலக்க	-10.0135
ின்ற	-10.0138
▁கருத்துகளை	-10.0141
▁வார்	-10.0141
▁செய்தியாளர்	-10.0142
▁அம்ப	-10.0155
▁தாமத	-10.0156
05	-10.0158
▁யோசனை	-10.0161
▁தேவையில்லை	-10.0163
▁தாக்குதலில்	-10.0169
ளவில்	-10.0178
▁ஜன	-10.0185
▁எதிர்காலத்தில்	-10.0186
▁குதிரை	-10.0195
▁தங்களை	-10.02
▁நூ	-10.0203
ப்பட்டிருந்தது	-10.0205
ஒரு	-10.0205
▁ரீ	-10.0207
▁பனி	-10.0208
▁களமிறங்க	-10.0212
வீர	-10.0213
▁தகவலை	-10.0218
▁நடிப்ப	-10.0222
▁அழிக்க	-10.0224
▁வெவ்வேறு	-10.0229
▁வாகனங்கள்	-10.0234
▁கல்லூரியில்	-10.0237
▁பாத	-10.0238
▁முயற்சிகள்	-10.024
▁தேர	-10.0243
▁லட்சத்து	-10.0245
▁வண்டி	-10.0251
▁வேளாண்	-10.0254
விட்டன	-10.0254
▁தீர	-10.0254
▁கன்	-10.0256
▁மீதும்	-10.0258
▁செய்தித்	-10.0258
▁ஐடி	-10.0262
▁பிறப்பித்த	-10.0263
V	-10.0266
▁மனோ	-10.0267
▁வைத்திய	-10.0271
▁ஓர	-10.0277
▁குழும	-10.0284
முள்ள	-10.0295
▁வரவேற்ற	-10.0299
ீஸ்	-10.03
▁இரா	-10.03
▁வரிசை	-10.0302
▁தொற்ற	-10.0306
▁விவாதிக்க	-10.0307
▁கிரக	-10.0308
▁தொகையை	-10.0309
க்குரிய	-10.0313
▁அட்	-10.032
▁பிரதமராக	-10.0325
▁பொருள	-10.0328
ெடுத்த	-10.0328
▁அறிவித்தார்	-10.0329
▁காணாமல்	-10.0329
▁சர்க்கரை	-10.0332
▁இதுவே	-10.0334
▁கட்சியினர்	-10.0341
▁R	-10.0348
▁கர்ப்ப	-10.035
யிர	-10.035
▁பின்னால்	-10.0351
▁வரவேற்க	-10.0366
கின்ற	-10.0369
▁வளர்க்க	-10.0371
▁சம்பள	-10.0372
▁வீடுகளில்	-10.0372
▁அதைப்	-10.0372
▁பயணத்தை	-10.0374
▁ஆண்டுக்கு	-10.0383
ங்களுக்கான	-10.0389
▁சம்ப	-10.0391
▁செல்வாக்கு	-10.0391
▁இரான்	-10.0393
▁விழி	-10.0394
▁நேரடி	-10.0399
▁அமாவாசை	-10.0401
▁வீட்டின்	-10.0403
▁பிரதேசம்	-10.0403
▁செயலாளர	-10.0413
▁ஹை	-10.0415
▁நோக்கம்	-10.0415
▁ஆலை	-10.0416
▁சிலருக்கு	-10.0417
▁மஹா	-10.0419
▁ஆந்திரா	-10.0419
▁கூடும்	-10.043
களுக்குப்	-10.0433
▁அதிகாரப்பூர்வ	-10.0435
▁புரட்சி	-10.0435
லட்சுமி	-10.0437
▁வேலூர்	-10.0438
▁கையாள	-10.0439
▁இடையேயான	-10.0442
▁பேரணி	-10.0445
தைப்	-10.0445
▁சென்	-10.045
▁துவங்கி	-10.0455
▁பாதிப்பை	-10.0459
▁O	-10.0461
ங்களால்	-10.0463
▁மாட்டார்கள்	-10.0466
ஜன	-10.0468
▁புயல்	-10.047
▁உழைப்ப	-10.0471
▁மதம்	-10.0471
▁நடந்தன	-10.0476
▁ஆட்	-10.0479
சக்தி	-10.0484
▁ஜோடி	-10.0485
▁நீக்கப்பட்ட	-10.0489
மென்ட்	-10.0489
▁இன்றும்	-10.0495
▁சிவில்	-10.0495
டித்து	-10.0497
▁மோதல	-10.0499
▁பைடன்	-10.0502
செல்வ	-10.0502
▁ஹைதராபாத்	-10.0505
▁காணப்படும்	-10.0506
▁முன்னேற	-10.0509
▁2015	-10.0509
▁போதிலும்	-10.0509
▁அண்ணன்	-10.0519
▁பங்கேற்றனர்	-10.0524
▁வித்தியாச	-10.0526
▁ஒழுங்கு	-10.0529
▁பெற்றுக்	-10.0531
▁தனித்து	-10.0535
▁ஆச்சரிய	-10.054
▁கமிட்டி	-10.054
▁ஆபாச	-10.054
▁சம்பளம்	-10.0541
டான	-10.0542
இன்	-10.0548
▁எதிர்கொள்ள	-10.0553
த்துக்காக	-10.0555
▁ஒருவருக்கு	-10.0557
ாகி	-10.056
▁படிப்ப	-10.0561
த்தல்	-10.0562
▁இருக்கிறோம்	-10.0562
▁ஆந்திர	-10.0563
▁அவுட்	-10.0565
▁உடலில	-10.0567
ஜே	-10.057
▁பிரியங்கா	-10.0576
மூல	-10.0576
▁விதிமுறை	-10.0578
▁மாநிலத்தின்	-10.0591
▁ஷெ	-10.0596
▁அப்பகுதி	-10.0598
▁கண்டன	-10.0604
▁சமேத	-10.0611
▁குறைய	-10.0613
01	-10.0615
வரி	-10.0623
▁கலந்துகொண்டனர்	-10.0625
▁காத்திருக்க	-10.0625
▁இல்லையா	-10.0633
▁நாள	-10.0635
▁தவிர்த்து	-10.0637
▁வாக்குகளை	-10.0639
▁பசி	-10.064
ாதீர்கள்	-10.064
▁அலங்காரத்தில்	-10.0641
▁பணியாளர்கள்	-10.0648
▁ப்ள	-10.0653
▁லிங்க	-10.0656
ாளர்கள்	-10.0657
▁அச்சுறுத்த	-10.066
▁புலி	-10.0663
▁பன்னீர்செல்வம்	-10.0665
▁வெடி	-10.0667
▁முகம்	-10.0667
▁செய்கிறார்	-10.0672
▁டூ	-10.068
▁திருநெல்வேலி	-10.0682
▁விழிப்புணர்வு	-10.0682
▁லாரி	-10.0689
▁விரோத	-10.0692
திலும்	-10.0693
▁துவங்க	-10.0699
ுக்கே	-10.0699
▁இருந்ததால்	-10.0701
▁அமர்ந்த	-10.0701
ப்புற	-10.0701
▁கிடைக்காத	-10.0706
யாளர்கள்	-10.0707
▁அங்கிருந்த	-10.0711
▁காரை	-10.0715
▁ஆபத்தான	-10.0717
▁பிரிட்டிஷ்	-10.0717
▁உறுப்பு	-10.0718
▁மாதங்களாக	-10.0723
▁அளவிற்கு	-10.0723
▁விழாவை	-10.0723
▁இடங்களிலும்	-10.0723
▁மாணவர்களின்	-10.073
▁சந்திப்பில்	-10.0746
▁கடலில்	-10.0749
▁பிக்	-10.0751
யினால்	-10.0757
▁விழுந்து	-10.076
குடி	-10.0763
▁தொடர்பாளர்	-10.0764
▁ஏற்பாடுகள்	-10.0765
▁நீடித்த	-10.0766
▁உடல்நிலை	-10.0766
▁மண்டபத்தில்	-10.0767
▁இழப்ப	-10.0767
▁மாநகர	-10.0771
யின்றி	-10.0776
▁பாஜகவில்	-10.0779
▁உயிரிழப்பு	-10.0783
▁பயன்	-10.0789
▁அத்தகைய	-10.0789
முத்து	-10.0792
▁மைதானத்தில்	-10.0796
படியே	-10.0798
▁கவனமாக	-10.0799
▁விரைந்து	-10.0802
ப்பட்டி	-10.0803
▁பாராட்ட	-10.0804
▁ஆகி	-10.0807
▁பிரசாரம்	-10.0814
ருக்கும்	-10.0814
▁இதேபோல்	-10.0816
▁கொண்டாட்ட	-10.0817
▁விமர்சித்து	-10.0819
ுள்ளேன்	-10.0824
▁தொடக்கத்தில்	-10.0826
▁பயிர்	-10.0826
▁சித்திரை	-10.083
▁அவள	-10.0834
▁பேட்டர்	-10.0834
தல்	-10.0835
▁மெல்ல	-10.0837
▁வளர்ந்த	-10.0838
ாவது	-10.0839
ிடமும்	-10.0841
▁காசா	-10.0842
ப்போகிறது	-10.0843
▁அதிகாரிகளுக்கு	-10.0849
மையை	-10.0851
▁இழுத்து	-10.0853
▁ஆட்டோ	-10.0855
▁சௌ	-10.0858
▁சர	-10.086
▁தஞ்சாவூர்	-10.0862
▁முறைகேடு	-10.0862
▁சத	-10.0862
▁அரங்க	-10.0865
▁புதின்	-10.0871
▁இரவில்	-10.0872
▁ஸ்டார்	-10.088
▁காயம்	-10.0881
45	-10.0883
▁அழைப்ப	-10.089
ீட்டு	-10.0894
▁அன்பு	-10.0897
▁காஞ்சிபுரம்	-10.0898
▁துன்புறுத்த	-10.0898
▁ஷேக்	-10.09
▁கேட்டுக்கொண்ட	-10.0902
▁என்னென்ன	-10.0905
▁கட்டுப்பாட்டில்	-10.0912
▁செங்க	-10.0915
▁சதுர	-10.0916
▁பாதிக்க	-10.0921
வெளி	-10.0923
▁சத்த	-10.0923
▁படிப்பு	-10.0931
▁சமர்ப்பிக்க	-10.0934
▁பூர்த்தி	-10.0935
▁ராக்கெட்	-10.0936
▁டன்	-10.0936
பிடித்த	-10.0936
களிலிருந்து	-10.0942
▁ஆள	-10.0944
▁உதய	-10.0947
▁வீடியோவை	-10.095
▁அனைவர	-10.0951
நோ	-10.0958
▁மாதிரியான	-10.0959
▁மனம்	-10.0963
▁திட்டமிட	-10.0964
பிள்	-10.0965
▁வலைதள	-10.0966
▁மேலே	-10.0969
▁பலவீன	-10.0971
▁பதவியேற்ற	-10.0972
▁வாக்களிக்க	-10.0972
ாலோ	-10.0972
ொரு	-10.0972
▁பறந்த	-10.0976
▁விஷயத்தில்	-10.0978
▁அரசியல்வாதி	-10.098
▁அரசியல	-10.0983
▁அண்டை	-10.0986
▁விநியோக	-10.0989
▁மூர்த்தி	-10.099
ச்சல்	-10.0996
▁மேடை	-10.0999
▁குறிப்பிடப்பட்ட	-10.1001
▁அருந்த	-10.1005
▁காணொளி	-10.1008
▁சிஎஸ்கே	-10.1008
யிட்ட	-10.1011
▁தினேஷ்	-10.1012
னூர்	-10.1012
▁வந்தாலும்	-10.1012
▁போராட்டத்தை	-10.1013
▁கெட்ட	-10.1014
கையில்	-10.1014
ுவிடும்	-10.1016
கூ	-10.1021
▁நியமனம்	-10.1023
▁பிரதிநிதி	-10.1025
ஸ்தா	-10.1026
▁செயல்பாடு	-10.1028
▁தாக்கம்	-10.1029
▁வாழ்ந்த	-10.1029
▁இயக்கம்	-10.103
▁வெளியிடப்பட்ட	-10.1035
▁தமிழகத்தின்	-10.1044
▁அந்நாட்டு	-10.1045
▁அன்றைய	-10.1045
▁சூர்யா	-10.1045
▁மேற்கொள்வ	-10.1046
▁குறைந்தது	-10.1047
▁அப்போதைய	-10.1049
தேச	-10.1049
▁கருதி	-10.105
▁சிவன்	-10.1051
▁நெட்டிசன்கள்	-10.1054
▁சிதம்பரம்	-10.1056
▁திட்டமிட்டு	-10.1057
▁போட்டோ	-10.1058
▁முக்கியம்	-10.1062
வாச	-10.1066
▁விரும்பவில்லை	-10.1067
பல்	-10.1069
▁ஆண	-10.107
▁அற	-10.1071
▁கோரிக்கையை	-10.1071
▁தள்ள	-10.1077
▁கோல	-10.1078
▁பாதிப்ப	-10.108
▁கவுன்சிலர்	-10.1081
ப்பள்ளி	-10.1083
▁விவரங்களை	-10.1084
▁அறிமுகம்	-10.1084
▁சஞ்சய்	-10.1084
▁பேட்டியில்	-10.1087
▁கட்டாய	-10.1088
ுமோ	-10.109
▁பச்சை	-10.109
▁தளம்	-10.1091
▁எல்லையில்	-10.1097
▁பகுதிக்கு	-10.1108
▁உத்தரவை	-10.1114
▁V	-10.1116
▁அரசாங்கத்தின்	-10.1118
▁ராஜீவ்	-10.1119
▁அறிவிப்ப	-10.1121
ீர்களா	-10.1122
▁சதி	-10.1125
ிற்காக	-10.1125
▁சூரியன்	-10.1125
▁அமர்வு	-10.1125
▁டிகிரி	-10.1126
ுபவர்கள்	-10.113
▁நடப்ப	-10.1136
?!	-10.1136
▁கண்டறியப்பட்ட	-10.1151
▁மீன்பிடி	-10.1156
▁அலங்காரம்	-10.1156
▁சன்னதி	-10.1156
▁பறவை	-10.1156
▁தாயார்	-10.1162
▁கண்டித்து	-10.1163
▁நீடிக்க	-10.1168
▁அவற்றின்	-10.117
▁தானே	-10.1174
▁இந்திரா	-10.1179
▁உரிமைகள்	-10.118
▁கொஞ்ச	-10.1181
▁பதிவாகி	-10.1182
▁கட்டாயம்	-10.1186
பாட	-10.1188
▁லட்சுமி	-10.119
▁வழக்குப்பதிவு	-10.1194
▁தென்காசி	-10.1194
▁அளிக்கப்பட்ட	-10.1195
▁அமித்ஷா	-10.1196
▁அனைவரையும்	-10.1197
ிருப்பதாகவும்	-10.1197
▁குழுவில்	-10.1202
▁கருதப்படுகிறது	-10.1204
▁லாபம்	-10.1205
▁பாரத்	-10.1207
யடைந்த	-10.1209
om	-10.1212
▁மட்டும்தான்	-10.1213
டீ	-10.1219
▁குடும்பத்தை	-10.1221
▁கொண்டிருந்தார்	-10.1228
▁வேட்பாளர்கள்	-10.1231
▁சலுகை	-10.1231
▁ஜாமீன்	-10.1231
▁படிக்கும்	-10.1232
▁முடிகிறது	-10.1234
▁ஆசிரியர்கள்	-10.1234
▁சம்பந்த	-10.1234
▁சட்டவிரோத	-10.1239
▁பயணிக்க	-10.124
க்கட	-10.1244
▁சக்கர	-10.1255
ச்சை	-10.1258
▁தமிழ்நாட்டு	-10.1264
▁சீட்	-10.1264
▁ஆய்வாளர்கள்	-10.1264
▁சூடு	-10.1264
▁பீட	-10.1265
▁இதன்போது	-10.1267
▁வீழ்ச்சி	-10.1269
▁பாலஸ்தீன	-10.1269
▁ஊதிய	-10.127
▁விருதுநகர்	-10.127
▁என்பதும்	-10.1271
ப்பகுதியில்	-10.1274
23	-10.1278
போர்	-10.1283
▁சிவா	-10.1292
▁வித்தியாசத்தில்	-10.1293
▁ஆகியவற்ற	-10.1298
▁ஆன்	-10.1301
▁வாய்ப்பை	-10.1301
வாசி	-10.1301
▁தடுப்ப	-10.1302
▁முட்டை	-10.1303
▁நிரூபிக்க	-10.1307
▁மானிய	-10.1309
▁தைரிய	-10.131
▁குவிந்த	-10.1312
▁பணியாற்றிய	-10.1312
▁பசுமை	-10.1316
ீஸ்வரர்	-10.1317
▁இப்போ	-10.1317
▁ராவ்	-10.1321
▁பதவிக்கு	-10.1321
▁தேர்வில்	-10.1323
▁சுதந்திரம்	-10.1323
▁சந்தையில்	-10.1327
el	-10.1342
▁அன்ன	-10.1343
x	-10.1345
▁பெர்	-10.1345
▁பாதுகாப்பாக	-10.1346
ாதது	-10.1348
▁சூழ்நிலையில்	-10.135
▁கிடைப்பத	-10.136
ங்கிய	-10.1363
▁ஓவர்களில்	-10.1363
▁வரவு	-10.1364
தைத்	-10.1367
ுவதன்	-10.1369
▁கடத்த	-10.1374
மாற	-10.1383
▁நன்கு	-10.1383
▁சொல்லிய	-10.1385
▁எழுப்பி	-10.139
ாவை	-10.139
எஃப்	-10.1396
வர்களில்	-10.1396
▁பன்	-10.1397
▁கொண்டுள்ளது	-10.1397
வரா	-10.14
▁மிரட்டல்	-10.1404
▁பாலின	-10.1405
▁பதற்றம்	-10.1406
பத்	-10.1406
▁வேண்ட	-10.142
▁பேட்	-10.1421
▁அரவிந்த்	-10.1421
▁வெற்றிகரமாக	-10.1422
▁உத்தவ்	-10.1422
ீங்க	-10.1422
▁பசு	-10.1422
▁வேறுபாடு	-10.1425
▁கதாபாத்திர	-10.143
▁மேலதிக	-10.143
▁சவால்	-10.1431
▁ஒட்டி	-10.1432
▁பதிவிட்டுள்ளார்	-10.1432
ீன்	-10.1434
ஃபா	-10.1436
▁பழமையான	-10.1441
▁மாறியது	-10.1442
▁கருப்ப	-10.1442
▁எதிர்க்கட்சித்	-10.1444
▁வலுப்படுத்த	-10.1445
▁பேசியது	-10.1446
▁இஸ்ரேலிய	-10.1446
▁ஆதரவாளர்	-10.1454
▁ஒடிசா	-10.146
▁உடல்நல	-10.146
▁பொருளாதாரத்தை	-10.1461
▁குறைபாடு	-10.1461
▁சீமான்	-10.1464
▁அஸ்	-10.1465
▁தயாரிப்ப	-10.1469
லிங்க	-10.147
▁ஊடகங்கள்	-10.1471
கரு	-10.1473
கொள்வத	-10.1474
போக	-10.1475
▁பயங்கரவாத	-10.1477
▁வாழ்ந்து	-10.1479
▁கவனித்து	-10.1484
▁ஆற்றில்	-10.15
▁உன்ன	-10.1501
வார்கள்	-10.1507
ிருப்பதை	-10.1507
▁சிறுவன்	-10.1508
▁இருவருக்கும	-10.1508
▁ஹிந்து	-10.1509
▁உள்ளாட்சித்	-10.1514
▁தீர்மானிக்க	-10.1515
கிற	-10.1521
▁48	-10.1527
ப்பதற்காக	-10.1527
la	-10.1528
▁மனநிலை	-10.1529
14	-10.1536
▁வேகத்தில்	-10.1536
▁உதாரணமாக	-10.1537
▁சண்முக	-10.1537
▁கண்ணாடி	-10.1537
▁விலக்கு	-10.1538
▁மடங்கு	-10.154
▁ராஜேந்திர	-10.154
ங்கோ	-10.1542
▁ஆண்டுதோறும்	-10.1543
▁பேசினோம்	-10.1543
▁துறையின்	-10.1543
▁நாளாக	-10.1549
▁இணைப்பு	-10.1549
▁குவித்த	-10.1549
▁சார	-10.155
▁மிரட்ட	-10.1557
▁அசோக்	-10.156
▁நடத்தினார்	-10.156
▁கோஷ	-10.1561
▁எழுந்தது	-10.1562
▁கேட்டார்	-10.1562
▁ஆண்டுகளுக்குப்	-10.1562
▁தொட்ட	-10.1562
18	-10.1564
▁ஹோமம்	-10.1565
▁குறைவு	-10.1572
▁காசி	-10.1573
000	-10.1573
▁போகிறது	-10.1581
▁ஆராய	-10.1583
▁அம்ச	-10.1584
▁இருக்கிறதா	-10.1584
▁இந்தியர்கள்	-10.1585
▁அகில	-10.1589
▁ஏற	-10.1596
▁மீட்கப்பட்ட	-10.1597
us	-10.1604
▁உற்சவ	-10.1607
▁காவல	-10.1608
▁36	-10.1608
▁ஜோதி	-10.1613
ாவிட்டால்	-10.1613
▁ஓய்வூதிய	-10.1615
▁இடைவெளி	-10.1616
▁காக்க	-10.1618
▁சம்பவத்தில்	-10.1627
▁செயலாளர்கள்	-10.1627
▁மேற்க	-10.1632
▁விவசாயம்	-10.1633
▁நாம	-10.1634
▁புகைப்படம்	-10.1638
▁ஆயிர	-10.1638
▁ஊக்க	-10.164
▁ஸ்டா	-10.164
▁நாட்டிற்கு	-10.1642
▁ஏர்	-10.1644
▁உங்க	-10.1644
▁கோடை	-10.1651
ிற்கான	-10.1651
▁சாப்பிட்ட	-10.1652
▁நிதிஷ்	-10.1653
▁இலட்ச	-10.1654
▁உலகக்கோப்பை	-10.1654
▁நேபாள	-10.1655
▁மிகக்	-10.1655
யின்போது	-10.1657
▁செல்வம்	-10.1667
▁அந்தச்	-10.1672
▁ஸ்டாலின	-10.1675
▁வழிகாட்ட	-10.1677
▁நாடாக	-10.1681
▁கேட்டபோது	-10.1685
▁c	-10.1685
▁தகவல	-10.1689
▁தாங்க	-10.1691
ரான்	-10.1691
▁படையினர்	-10.1692
▁நிர்மலா	-10.1694
▁விராட்	-10.1696
ிவிடும்	-10.1696
ப்பட்டனர்	-10.1696
▁பழநி	-10.1698
▁கொட்ட	-10.1705
▁கைப்பற்றிய	-10.1707
▁கேரளாவில்	-10.1708
▁விவகார	-10.172
▁சொல்கிறார்	-10.1725
▁அனுபவம்	-10.1725
▁நாளுக்கு	-10.1729
▁முதற்கட்ட	-10.1733
▁தள்ளுபடி	-10.1733
▁சந்திரசேகர	-10.1735
▁மாடு	-10.1737
▁முன்வைக்க	-10.1739
▁அளிப்ப	-10.1741
துறை	-10.1742
▁வனத்துறை	-10.1743
▁தட்டி	-10.1745
▁தொடங்கும்	-10.1749
▁அடைந்து	-10.1751
▁கடத்தல்	-10.1758
▁போலீசார	-10.1759
▁சாட்ட	-10.176
▁ட்வீட்	-10.1763
ஸ்ரீ	-10.1764
▁உத்தரவிட	-10.1769
▁ஒட்ட	-10.177
▁பகவான	-10.1771
▁அழுத	-10.1772
▁அறக்கட்டளை	-10.1773
▁நாயுடு	-10.1773
▁150	-10.1777
▁அதிகரிப்ப	-10.1778
லாமா	-10.1779
▁செயல்படும்	-10.178
▁முன்னிலை	-10.1786
▁யுத்த	-10.179
▁எழ	-10.179
▁என்னால்	-10.1793
▁அறிவித்தது	-10.1794
▁தலைமுறை	-10.1796
▁உயிர	-10.1796
▁எதிர்ப்ப	-10.1798
வைக்க	-10.1802
▁கூறப்பட்டது	-10.1803
▁பின்னணியில்	-10.1811
▁ஷர்மா	-10.1813
▁சத்ய	-10.1816
▁பலமுறை	-10.1816
▁அரேபியா	-10.1822
▁இடத்துக்கு	-10.1823
▁கட்டத்தில்	-10.1825
▁சட்டப்பேரவை	-10.1826
▁கர்நாடகாவில்	-10.1826
வகை	-10.1837
▁சூழல	-10.1838
▁புற்றுநோய்	-10.1839
▁மிக்க	-10.1839
▁கழ	-10.1839
06	-10.1846
▁செய்ததாக	-10.1847
▁கமல்	-10.1853
▁ராமநாதபுரம்	-10.1853
▁புதுக்கோட்டை	-10.1854
▁சுரேஷ்	-10.1855
▁மற்றவர்கள	-10.1855
▁காப்பு	-10.1856
▁சங்கம்	-10.1857
▁ஆனது	-10.1858
நே	-10.1861
▁எழுந்து	-10.1865
▁காய்ச்சல்	-10.1868
16	-10.187
▁நெய்	-10.1874
▁புகைப்பட	-10.1874
▁நாடக	-10.1876
▁கலச	-10.1886
▁விடும்	-10.1888
ப்பாடு	-10.189
22	-10.1893
▁ஆதித்யநாத்	-10.1893
▁""	-10.1896
யில்லை	-10.1897
▁மேஷ	-10.1898
▁மாணவர்களை	-10.1903
ெண்ட	-10.1907
ation	-10.191
▁இங்குள்ள	-10.1913
▁முன்னெடுத்த	-10.1915
▁ஆரம்பத்தில்	-10.1916
▁மோடியை	-10.192
ஜீ	-10.1934
▁கோவிட்	-10.1935
▁அமைப்பை	-10.1935
▁பீகார்	-10.1936
▁பார்வையாளர்கள	-10.194
▁நம்மிடம்	-10.1941
▁நாடுகளும்	-10.1944
un	-10.1964
த்துக்கான	-10.1969
▁உண்டா	-10.1969
▁கிலோமீட்டர்	-10.1974
▁மதிப்பெண்	-10.1974
▁நிம்மதி	-10.1974
▁பொருந்த	-10.1974
▁மீனவர்	-10.1974
டிங்	-10.1975
▁எடுத்துக்கொள்ள	-10.1988
▁ஆனந்த்	-10.1991
▁ஸ்டே	-10.1994
▁வெப்பநிலை	-10.1995
▁உச்சி	-10.1998
▁குளிர	-10.2002
▁பேசும்போது	-10.2003
▁நாராயண	-10.2007
▁தீவு	-10.2008
▁நிகழ்ச்சிகள்	-10.2012
▁of	-10.2015
▁ரீதியில்	-10.2015
▁வாயிலாக	-10.2015
நாள்	-10.2015
▁பெருந்	-10.2018
▁நிகழ்த்த	-10.2021
▁மேற்பட்டோர்	-10.2022
▁திரட்ட	-10.2029
▁அடிமை	-10.2029
▁தங்கி	-10.203
▁இருப்பவர்	-10.2033
▁விலையை	-10.2034
▁பொன்	-10.2036
▁இருவர	-10.2037
▁மீனவர்கள்	-10.2038
▁சீர்	-10.2038
கட்சி	-10.2042
▁செய்கிறது	-10.2045
▁சேர்	-10.2045
▁மதுரையில்	-10.2047
▁பதக்க	-10.2049
தையும்	-10.205
▁இன்னிங்ஸ	-10.2055
▁திரிணாமுல்	-10.2055
▁வீராங்கனை	-10.2055
▁பங்கேற்ப	-10.2055
▁உண்டாகும்	-10.2056
▁ஓபிஎஸ்ஸ	-10.2059
▁செய்வதாக	-10.2064
▁அடக்க	-10.207
▁கலந்த	-10.2076
▁கருத்துக்களை	-10.2079
▁32	-10.2083
▁போராட்டக்காரர்	-10.2084
▁பிரபலமான	-10.2089
▁கலாச்சார	-10.2096
▁மேம்பாட்டு	-10.2096
▁காய்கறி	-10.2096
▁மாத்திரை	-10.2096
▁அங்கீகாரம்	-10.2098
▁வேலையில்	-10.21
▁வெளிவந்த	-10.2103
▁முக்கியமாக	-10.2104
மங்கலம்	-10.2108
▁செலுத்திய	-10.2111
▁அதிகபட்ச	-10.2112
▁சேர்க்கை	-10.2113
▁செய்திருந்தனர்	-10.2116
▁கவனத்தை	-10.2126
▁ரிஷப	-10.2126
▁விவசாயிகளுக்கு	-10.2127
▁போட்டிகள்	-10.2128
ரெட்	-10.2132
▁நியூ	-10.2135
▁முழுமையான	-10.2138
et	-10.2138
▁பகுதிகளை	-10.2141
விட்டேன்	-10.2143
▁விகிதம்	-10.2143
02	-10.2146
▁நடன	-10.2152
▁சாட்சி	-10.2154
,500	-10.216
ப்போகிறார்	-10.2161
க்காரர்	-10.2161
▁வைத்துக்	-10.2176
யன்று	-10.2176
▁b	-10.2177
▁பங்களிப்பு	-10.2178
▁நாயகம்	-10.218
▁திணற	-10.2182
▁ஏற்றுக்கொண்ட	-10.2184
▁நெருங்கிய	-10.2189
▁நடத்தப்பட்டு	-10.219
▁கிராம்	-10.2194
பட்டு	-10.2195
▁இருக்கிறேன்	-10.22
▁மண்ண	-10.2204
▁கிரா	-10.2205
▁கோபுர	-10.2207
க்கரை	-10.2207
▁வெளியேறி	-10.2213
▁கொடு	-10.2214
▁பிரசாத்	-10.2216
▁ஆனந்த	-10.2218
ப்பிட	-10.222
▁கால்நடை	-10.222
▁வாக்குப்பதிவு	-10.222
▁வரையிலான	-10.222
▁விரிவான	-10.2222
▁நம்முடைய	-10.2223
▁கண்காணிப்பாளர்	-10.2224
▁கொடுக்கப்பட்ட	-10.2233
▁பாய்	-10.2238
▁கோபி	-10.2243
▁ஏற்று	-10.2245
▁அனுப்பப்பட்ட	-10.2245
08	-10.2247
ளே	-10.2252
▁ஆக்க	-10.2257
▁வைரலாகி	-10.2258
▁வீடியோவில்	-10.226
▁மறக்க	-10.2261
▁ஏனைய	-10.2263
▁அறிவு	-10.2263
ோரின்	-10.2265
▁நீக்கம்	-10.2271
▁பட்டி	-10.2273
▁வல்ல	-10.2273
▁போன்றவற்றை	-10.2273
▁ஆரம்பித்து	-10.2274
▁பிரச்சினைகள்	-10.2282
▁தூரம்	-10.2282
▁கூறினர்	-10.2282
▁கார்த்தி	-10.2283
யூர்	-10.2289
மின்றி	-10.2296
▁உருவாக	-10.2301
▁சகோதர	-10.2302
▁இறங்கிய	-10.2304
▁படுக்கை	-10.2304
▁அவள்	-10.2305
வங்க	-10.2306
▁கடவுள்	-10.2311
▁கோவையில்	-10.2314
ண்ணா	-10.2315
▁விளக்கு	-10.2324
▁பயன்படுத்திய	-10.2324
▁நாளான	-10.2326
▁காடு	-10.2332
▁வழக்கமான	-10.2332
பாய்	-10.2334
▁வெளியாக	-10.2335
21	-10.2336
▁வென்று	-10.2336
▁சந்தன	-10.2336
ின்படி	-10.2337
▁பகுதிகள்	-10.2338
▁எதிர்பார்ப்ப	-10.2342
▁என்றனர்	-10.2342
▁தூங்க	-10.2345
▁அத்தியாவசிய	-10.2346
▁உலகளாவிய	-10.2346
▁தீபாவளி	-10.2346
▁பற்றாக்குறை	-10.2346
▁ஒன்பது	-10.2346
தல்ல	-10.2346
▁மறுநாள்	-10.2347
▁ஏதும	-10.2351
▁கரூர்	-10.2353
▁பந்துவீச	-10.2357
▁தெரிவித்தது	-10.2359
▁போரை	-10.2363
செய்த	-10.2363
▁பாதுகாப்பான	-10.2365
சுர	-10.2367
▁சுற்றுச்சூழல்	-10.2369
▁சரத்	-10.2372
சரி	-10.2374
ப்படவுள்ள	-10.2376
▁மேடையில்	-10.2377
▁நியூசிலாந்து	-10.2379
ஜூ	-10.2382
▁வளர்ந்து	-10.2383
▁ஜெர்மனி	-10.2388
▁ரமேஷ்	-10.2388
▁கடினமான	-10.2388
▁விரிவாக	-10.2391
▁காவலர்	-10.2395
தின்	-10.2398
▁ஏற்றுக்	-10.2399
▁தற்காலிக	-10.2405
▁பற்றியும்	-10.2408
▁பத்திரிகை	-10.2414
▁நூற்றாண்டு	-10.2416
ரேஷ்ட	-10.2421
ha	-10.2426
▁சேவைகள்	-10.2428
▁விஸ்வ	-10.2429
▁நிபந்தனை	-10.243
▁விமர்சிக்க	-10.243
▁சமாதான	-10.243
▁தொல்லை	-10.243
▁அடைக்கப்பட்ட	-10.2432
▁வருடங்களாக	-10.2433
▁ஒன்றும்	-10.2436
▁பாதிக்கும்	-10.2436
▁நிகழ்வுகள்	-10.2444
▁கைப்பற்றி	-10.2447
▁நீங்கும்	-10.2451
ூரை	-10.2457
னெ	-10.2458
ண்மை	-10.246
தையடுத்து	-10.246
▁பிரசாத	-10.246
▁தளத்தில்	-10.2461
▁பரவல்	-10.2463
ப்பட்டுள்ளதாக	-10.247
▁படங்களில்	-10.2471
▁மறந்து	-10.2476
▁இறப்பு	-10.2477
ுவீர்கள்	-10.248
▁ஜு	-10.2485
▁பெங்களூர்	-10.2485
▁மொபைல்	-10.2486
▁ராய்	-10.2488
▁குறையும்	-10.2488
ட்ரா	-10.249
▁கோவா	-10.2491
▁வேளையில்	-10.2491
98	-10.2495
▁பயணித்த	-10.2496
▁நியமன	-10.2498
▁வாக்காளர்	-10.2503
▁களம்	-10.2505
il	-10.2507
யிருந்த	-10.2508
▁இலை	-10.2517
▁சமீபத்திய	-10.2517
▁இளம்பெண்	-10.2517
▁காஸா	-10.2518
▁முதலமைச்சர	-10.253
கொடுக்க	-10.2534
▁புகை	-10.254
▁கொள்வது	-10.2541
▁சபையின்	-10.2547
▁பள்ளிகளில்	-10.2553
▁பரபர	-10.2554
▁ஆப்கானிஸ்தான்	-10.2555
▁கந்த	-10.2555
▁மார்க்	-10.2555
பகுதி	-10.2557
விர	-10.2557
▁சிசிடிவி	-10.2559
▁கொள்கிறேன்	-10.2559
▁முன்னேற்றம்	-10.256
▁துரை	-10.2565
▁தரப்பினர்	-10.2565
▁நோட்டீஸ்	-10.2567
▁வெற்றிபெற்ற	-10.2567
▁என்னும்	-10.2568
▁சொன்னது	-10.2572
களிடையே	-10.2577
▁தெரிவித்துள்ளனர	-10.2578
▁புதன்	-10.258
▁தெரிவித்திருந்த	-10.2587
▁அறிகுறி	-10.2588
35	-10.259
▁விளையாட்ட	-10.2595
நிலையில்	-10.2595
▁2022-	-10.2598
▁புலனாய்வு	-10.2602
▁செயற்பாடு	-10.2602
▁கடிதத்தில்	-10.2602
▁கணபதி	-10.2604
ேஸ்வரி	-10.2605
▁ஓவர்	-10.2607
▁கடலூர்	-10.2607
▁கோட்ட	-10.2609
▁புகார்கள்	-10.2616
பழ	-10.2616
▁பொருட்	-10.2616
▁பிரிவின்	-10.2618
▁கிளா	-10.2619
▁வெங்கட	-10.262
▁நடத்தியது	-10.262
ிருப்பதால்	-10.2627
▁கூலி	-10.263
▁வீரர்களை	-10.263
▁பன்னீர்	-10.2637
▁வரலாம்	-10.2638
மல்ல	-10.2639
▁பதிவிட்டு	-10.2641
▁வான்	-10.2641
▁இயங்க	-10.2645
▁லீக்	-10.2651
ற்றை	-10.2651
▁பிழை	-10.2661
▁இருக்கும்போது	-10.2662
▁ஈடு	-10.2669
▁கருப்பு	-10.267
▁தரிசன	-10.2672
வருகின்றனர்	-10.268
▁எரிவாயு	-10.2688
▁நிறைவடைந்த	-10.2688
▁பரீட்சை	-10.2688
▁பேரூராட்சி	-10.2688
▁ஓரளவு	-10.269
▁பறிக்க	-10.2696
▁வரும்போது	-10.2697
▁இயங்கி	-10.2698
▁முடிவுகளை	-10.2701
கிறார்கள்	-10.2701
▁நிறுத்தப்பட்ட	-10.2703
▁க்ள	-10.2704
ுவதே	-10.2704
▁இருவர்	-10.2705
▁மூடி	-10.2707
▁உயிரை	-10.2707
▁2-	-10.2708
▁அழகு	-10.2709
யம்மன்	-10.2712
▁எல்லோரும்	-10.2714
பன்னீர்செல்வத்த	-10.2714
hi	-10.2717
▁வருவதற்கு	-10.2722
▁ஆளாக	-10.2724
▁ஆராய்ச்சியாளர்	-10.2725
▁குமர	-10.2727
▁திரும்பப்	-10.273
▁ஒதுக்கப்பட்ட	-10.273
▁தமிழில்	-10.2731
▁இதற்கிடையில்	-10.2732
▁ஓமிக்ரான்	-10.2732
▁மன்னர்	-10.2734
▁விளையாடி	-10.2735
▁பிரான்ஸ்	-10.2735
▁உடைய	-10.2742
▁பெற்றுக்கொள்ள	-10.2744
▁ஆவண	-10.2746
குளம்	-10.2749
▁பிரதிநிதிகள்	-10.2755
▁உற்சவம்	-10.276
▁வீழ்த்தி	-10.2763
▁நடைபெறவுள்ள	-10.2766
னான்	-10.2768
ஷே	-10.2772
▁சத்தம்	-10.2774
▁இவர்களுக்கு	-10.2775
யாய்	-10.2775
▁தெலுங்கானா	-10.2776
▁ஐரோப்பா	-10.2776
▁சமாளிக்க	-10.2776
▁கட்சிகளும்	-10.2777
▁செய்வதற்கான	-10.2778
▁தீர்ப்பை	-10.2779
வர்களாக	-10.2785
டியா	-10.2791
▁வெற்றிக்கு	-10.2793
▁விரு	-10.2796
▁அமலாக்க	-10.2801
▁பாதையில்	-10.2801
▁மாலையில்	-10.2802
▁முயற்சிகளை	-10.2808
▁மக்களவைத்	-10.281
03	-10.281
கொடியேற்றத்துடன்	-10.2812
▁அதிகாரத்தை	-10.2818
▁விஷயத்தை	-10.2818
நாடு	-10.2819
▁ஒப்புக்	-10.2819
▁அவன	-10.2823
▁செய்வத	-10.2826
▁செய்துள்ள	-10.2827
▁இருப்பார்	-10.2834
▁அழ	-10.2845
▁2000	-10.2846
▁மக்களும்	-10.2847
▁கட்டிய	-10.2849
▁உச்சநீதிமன்றம்	-10.2851
▁மதிக்க	-10.2851
▁ஜப்பான	-10.2853
▁கூறியுள்ளனர்	-10.2857
▁புறப்பட்டு	-10.2859
▁மாடி	-10.2862
▁வெளியேறிய	-10.2862
▁மனுவை	-10.2862
▁முயற்சியில்	-10.2864
▁அவ்வாறு	-10.2865
▁கணிப்பு	-10.2867
▁நீண்டகால	-10.2872
▁பெய்த	-10.2872
▁கழகம்	-10.2875
▁ஒற்றைத்	-10.2877
▁கூறப்பட்ட	-10.2877
▁போலீஸார	-10.2878
▁சரண்	-10.2887
வருகிறார்	-10.2895
▁குடிமக்கள	-10.2897
▁மாற்றிய	-10.2899
▁பார்த்துக்	-10.2908
▁முதலீட்டாளர்	-10.2909
▁அக்கறை	-10.2909
▁லேசான	-10.2909
▁புகார	-10.2918
▁தேர்ச்சி	-10.2918
▁டு	-10.2918
▁நீட்டி	-10.2919
▁செல்கிற	-10.2919
▁முக்கியமானது	-10.2921
▁அறு	-10.2922
▁ஆடிய	-10.2927
▁தினகரன்	-10.2928
▁வில்ல	-10.2932
j	-10.2935
▁மான்	-10.294
▁தமிழர்கள்	-10.2943
▁க்ர	-10.2946
▁செல்லப்பட்ட	-10.2949
▁வீழ்த்த	-10.2951
▁குழந்தையின்	-10.2952
▁இதன்மூலம்	-10.2953
▁உள்ளதாகவும்	-10.2958
▁திரண்ட	-10.2958
ளோ	-10.2958
▁ஆள்	-10.2959
▁பட்டா	-10.2963
▁தொழில்நுட்பம்	-10.2966
▁ஏற்படுகிறது	-10.2967
▁ஸார்	-10.2968
▁ஜாதி	-10.2968
▁பராமரிப்பு	-10.2969
வருமான	-10.2971
▁சன்	-10.2974
▁பழங்குடியின	-10.2977
▁கண்டறிந்த	-10.2978
முன்	-10.2992
▁வது	-10.2995
▁உதவியுடன்	-10.2995
பாஸ்	-10.2996
▁காய்	-10.2998
▁அங்கீகரிக்க	-10.2998
▁கண்காணிக்க	-10.2998
▁அம்மாநில	-10.2998
▁இதுபற்றி	-10.2998
▁துருக்கி	-10.2998
▁கடலோர	-10.2998
▁அத்தனை	-10.2999
▁முழங்க	-10.2999
▁செய்வதற்காக	-10.3
▁பேரவை	-10.3012
சின்	-10.3012
▁பயன்படுத்தும்	-10.3015
மைப்பு	-10.3017
▁கண்ணீர்	-10.3022
▁கைதுசெய்த	-10.3025
ுவதற்கும்	-10.3025
▁ரசிகர்	-10.3034
▁அறையில்	-10.3036
▁பாதுகாப்புப்	-10.3036
▁சுகாதாரத்துறை	-10.3043
▁முன்னுரிமை	-10.3043
▁மறுபுறம்	-10.3043
▁வேண்டுமானாலும்	-10.3043
▁செய்பவர்	-10.3045
▁வெளிச்ச	-10.3046
யினை	-10.3047
▁உடைந்த	-10.305
▁போட்டியை	-10.305
▁சர்ச்சையை	-10.3051
▁வந்தன	-10.3053
▁நூல்	-10.3066
▁விமர்சன	-10.3067
▁இருந்ததாக	-10.307
de	-10.3079
▁வருவதை	-10.308
Y	-10.3089
▁ஹீரோ	-10.3089
▁பிரமுகர்	-10.3089
▁மோதிய	-10.3089
▁காரைக்கால்	-10.3089
▁நடவடிக்கையை	-10.309
வுள்ளது	-10.3091
▁விளைவாக	-10.3092
▁ஜெகன்	-10.3093
▁பூச	-10.3098
`	-10.3098
▁வலை	-10.3098
▁படங்களை	-10.3098
▁நாடுகளை	-10.3102
▁எதிர்க்க	-10.3107
▁கடனை	-10.3113
▁கலக்க	-10.3115
▁அபி	-10.3121
ce	-10.3122
▁சூட்ட	-10.3124
▁போக்க	-10.3127
▁வைத்தது	-10.313
▁நிகர	-10.313
▁ஊர்வலம்	-10.3134
▁சனாதன	-10.3134
04	-10.3138
13	-10.3139
ெடுத்து	-10.3141
▁உள்ளடக்கிய	-10.3145
▁யாரை	-10.3148
▁மேலிட	-10.3149
▁அரிய	-10.3158
▁அதிபர	-10.3158
▁தலைநகர	-10.316
▁வழிபட்ட	-10.3161
▁ஊருக்கு	-10.3163
ஸுக்கு	-10.3166
▁ஆதீன	-10.3168
▁பாகிஸ்தானில்	-10.317
▁வருபவர்	-10.3172
▁என்பதைப்	-10.3172
▁அத	-10.3173
▁பண்ணை	-10.3178
▁400	-10.3178
▁பரம	-10.3178
▁நியமித்த	-10.318
▁போதைப்பொருள்	-10.318
▁பிரம்ம	-10.318
▁நிலத்தை	-10.318
▁ஓராண்டு	-10.3181
யாகவே	-10.3181
மயமாக்க	-10.3181
▁சாட்டப்பட்ட	-10.3183
யாவது	-10.3183
▁ரசிகர்கள	-10.3184
▁ஃப்ர	-10.3186
▁புஷ்ப	-10.3187
▁நிறுவனமான	-10.319
▁குழுக்கள்	-10.3196
ஏக்நாத்	-10.3196
▁0	-10.3198
▁கோவில்களில்	-10.32
▁சொல்கிறார்கள்	-10.3201
▁பாராட்டி	-10.3203
▁இரும்பு	-10.3204
▁இருப்பார்கள்	-10.3206
▁ஈரான்	-10.3208
▁வருகின்ற	-10.321
▁இல்லாததால்	-10.321
▁கட்டமைப்ப	-10.3213
▁முறையான	-10.3219
▁News	-10.3226
▁ஊரடங்கு	-10.3226
▁மாலத்தீவு	-10.3226
▁ஆகியோரை	-10.3226
▁முறையும்	-10.3226
▁சீரியல்	-10.3228
றிந்த	-10.3231
▁பொறுத்து	-10.3232
▁பிரச்னைகளை	-10.3232
▁உள்ளிட்டவை	-10.3233
▁படைகள்	-10.3234
▁வாய்ப்புள்ளது	-10.3242
▁கிடக்க	-10.3251
கோவில்	-10.3253
▁கட்டுப்பாட்ட	-10.3258
▁ரகு	-10.3259
லியா	-10.326
▁நட	-10.3267
▁போராட்டங்கள்	-10.3269
▁பழங்குடி	-10.327
▁கண்காட்சி	-10.3272
▁சிவகங்கை	-10.3272
ஸ்டா	-10.3275
மெண்ட்	-10.3276
95	-10.3283
▁கிரகங்கள	-10.3284
▁ரீதியான	-10.3285
▁உளவு	-10.3294
▁விதமான	-10.3295
▁குப்பை	-10.3295
▁மும்பையில்	-10.3296
▁உத்திர	-10.3299
▁மஸ்க்	-10.33
▁விவாதம்	-10.3301
▁அறிவித்து	-10.3302
▁ஒன்	-10.3303
▁பிரிந்து	-10.3304
▁பட்டம்	-10.3304
▁பிள	-10.3305
di	-10.3315
▁மாறும்	-10.3316
▁ஜடேஜா	-10.3318
▁ஆஜராக	-10.3318
▁ராமதாஸ்	-10.3318
▁தோல்வியடைந்த	-10.332
▁லக்னோ	-10.332
ாரு	-10.3326
▁அளித்துள்ளார்	-10.3327
▁சென்றுள்ளார்	-10.3327
▁பிடிக்கும்	-10.3328
▁சிக்ஸர்	-10.3332
ராசா	-10.3333
▁இஸ்ரேலுக்கு	-10.3333
▁ஒப்புக்கொண்ட	-10.3337
வரிசை	-10.3337
▁ஓட்டி	-10.3338
▁கடத்தி	-10.334
▁சமையல்	-10.3341
▁அவரும்	-10.3348
▁அதற்குப்	-10.3348
ay	-10.3352
சல	-10.3352
ிலிருந்த	-10.3354
▁முறையை	-10.3355
ாறு	-10.3358
▁கேள்விகள்	-10.3358
▁சிம்ம	-10.3363
▁நிலவுகிறது	-10.3364
▁மதுபான	-10.3365
▁பொறி	-10.3368
▁பேச்ச	-10.3368
▁உறுப்பினராக	-10.3369
கரமான	-10.337
ாய்வு	-10.3375
▁33	-10.3377
▁பட்டியலின	-10.3384
▁வந்தபோது	-10.3384
▁உள்ளதால்	-10.3388
▁காட்டுகிறது	-10.3388
▁குட்டி	-10.3388
▁பாதிப்புகள்	-10.3394
▁மாய	-10.3395
24	-10.3402
▁உணவை	-10.3404
▁வெள்ளம்	-10.3405
ென்ன	-10.3405
▁நிறைவேற்றப்பட்ட	-10.3406
▁இடங்களுக்கு	-10.3408
▁பயங்கர	-10.341
▁அபராதம்	-10.3411
▁மேலாண்மை	-10.3411
▁ரிசர்வ்	-10.3411
▁பிரேத	-10.3411
▁கொடியேற்ற	-10.342
▁ஆட்டத்தை	-10.3422
▁அவற்றில்	-10.3426
▁இயக்குனர்	-10.3426
▁உன்	-10.3427
▁நகரம்	-10.3428
▁நோட்டு	-10.3428
▁அருண்	-10.3432
▁இலக்கிய	-10.3436
▁சத்திய	-10.3437
▁உறை	-10.3443
▁விமானத்தில்	-10.3447
கிறேன்	-10.3447
▁பாரதி	-10.3451
li	-10.3452
▁போனது	-10.3456
▁நகைச்சுவை	-10.3458
▁தாமரை	-10.3458
▁முதுக	-10.3459
▁முடிவடைந்த	-10.3459
▁கமலா	-10.3463
முருகன்	-10.3463
மடை	-10.3463
▁அறிவுரை	-10.3466
▁தாக்குதலுக்கு	-10.3467
▁மாட்டோம்	-10.3471
▁கற்ப	-10.3476
▁அப்போதுதான்	-10.3483
▁ஆவணங்கள்	-10.3493
▁புகாரின்	-10.3495
▁ஏவ	-10.3495
▁சங்கர	-10.3497
▁விடை	-10.3501
ஆக	-10.3503
▁பதிலளிக்க	-10.3505
▁தக்காளி	-10.3505
▁திறப்பு	-10.3505
▁the	-10.3505
▁டிடிவி	-10.3505
▁நெரிசல	-10.3505
▁கத்தி	-10.3507
▁கல்ல	-10.3509
▁அசை	-10.3514
லிங்கம்	-10.3516
▁குழந்தைக்கு	-10.3519
W	-10.3521
▁வேட	-10.3522
▁வைக்கப்பட்டது	-10.3523
▁நினைவ	-10.3525
▁வாடிக்கையாளர்கள	-10.3527
▁நியமிக்க	-10.3527
▁அமைந்தது	-10.3534
ஃபோ	-10.354
▁பெய்து	-10.3546
▁ஆலோசகர்	-10.3548
▁பார	-10.3548
▁வைத்திருக்க	-10.3549
▁நன்கொடை	-10.3553
▁தமிழிசை	-10.3553
▁பணவீக்க	-10.3553
▁தலையில்	-10.3553
▁சந்தர்ப்ப	-10.3554
▁வாங்கும்	-10.3558
▁கார்த்திக்	-10.3559
▁மந்த	-10.3561
▁பட்டு	-10.3562
17	-10.3566
மன்ற	-10.3571
▁அளவை	-10.3577
▁ஒத்தி	-10.3582
▁இவரை	-10.3586
களிடமிருந்து	-10.3588
▁காரணங்கள்	-10.3588
▁அப்துல்	-10.3594
▁வெளியாகிய	-10.3596
▁என்னவென்றால்	-10.36
▁ஒருங்கிணைந்த	-10.36
▁பிளாஸ்டிக்	-10.36
▁ஊர்வலமாக	-10.36
▁ரெய்டு	-10.36
▁திருமாவளவன்	-10.36
▁குறுகிய	-10.36
▁ஹரியானா	-10.3601
▁இளையராஜா	-10.3601
▁to	-10.3603
▁இணைத்து	-10.3605
▁ரெண்டு	-10.3606
▁பாலா	-10.3608
▁தலைவரான	-10.3609
▁கொடுத்தது	-10.361
▁தேதியன்று	-10.3611
▁விரைவாக	-10.3614
▁பொழுது	-10.3618
▁கட்டளை	-10.362
▁சமூகத்தை	-10.362
▁கூட்டி	-10.3622
▁மாட்டேன்	-10.3623
▁களமிறங்கிய	-10.3623
▁செயல்பாடுகள்	-10.3626
▁உடைத்து	-10.3628
▁37	-10.3628
▁வங்கிக்	-10.3632
▁அன்னதானம்	-10.364
▁பிறந்தநாள்	-10.3641
▁ஒட்டிய	-10.3642
▁கட்டுப்பாடுகள்	-10.3642
▁கட்டமாக	-10.3642
▁சிரித்த	-10.3646
▁உத்தரவிட்டார்	-10.3647
▁சிறுத்தை	-10.3647
▁முன்கூட்டிய	-10.3648
▁ராமேஸ்வரம்	-10.3648
▁என்கிறது	-10.365
▁நன்மைகள்	-10.3654
▁செலுத்தும்	-10.3654
▁சுக	-10.3657
▁இதழ	-10.3658
▁தோல்வியை	-10.3658
▁போதிய	-10.3661
▁கொண்டவர்	-10.3663
▁அதுதான்	-10.3667
▁பாரத	-10.3669
▁முதலே	-10.3671
▁சமீப	-10.3673
▁உறவை	-10.3673
▁விடுவிக்க	-10.3674
▁சிகிச்சைக்காக	-10.3683
▁சுக்கிரன்	-10.3696
▁எங்களிடம்	-10.3696
▁இன்றைக்கு	-10.3696
▁என்பதற்கு	-10.3697
▁அகிலேஷ்	-10.3698
▁திறக்கப்பட்ட	-10.3698
▁போத	-10.3699
▁வாரிசு	-10.3699
▁w	-10.3699
▁நெருக்கமான	-10.3707
▁மகாராஷ்டிராவில்	-10.371
▁விருப்பம்	-10.3712
▁உயர்ந்துள்ளது	-10.3716
▁குழுவை	-10.3716
▁சூர	-10.3717
▁தாத்தா	-10.3718
ப்பதற்கான	-10.3723
▁அதிரடியாக	-10.3737
▁கட்டுப்பாட்டு	-10.3739
▁விகித	-10.3742
▁சமர்ப்பித்த	-10.3744
▁வழிநடத்த	-10.3744
▁நாமக்கல்	-10.3745
▁செயல்முறை	-10.375
▁போன்றவற்ற	-10.3751
▁பள்ளிகள்	-10.3751
▁நிதியமைச்சர்	-10.3751
▁நம்பிக்கையை	-10.3756
▁வருடங்களுக்கு	-10.3756
▁தப்ப	-10.3758
▁அதைச்	-10.376
வாழ்	-10.3761
▁விரதம்	-10.3762
▁கட்டமைப்பு	-10.3764
▁குண்ட	-10.3764
▁ஆதிக்கம்	-10.3765
▁சாந்தி	-10.3768
சபை	-10.3769
▁ஹோ	-10.3772
▁சுட்ட	-10.3774
திலிருந்து	-10.3777
▁நாட்டுக்கு	-10.378
பூரில்	-10.3782
▁கடவுள	-10.3786
▁ஒப்படைக்க	-10.3793
▁கொள்முதல்	-10.3793
▁பந்துவீச்சாளர்	-10.3793
▁படிப்படியாக	-10.3793
▁காணிக்கை	-10.3795
▁ஒழிப்பு	-10.38
▁கௌ	-10.3803
ir	-10.3807
▁பாறை	-10.3807
▁நோக்கில்	-10.3811
▁நந்தி	-10.3814
▁பாக்கிய	-10.3815
சான்	-10.3816
▁மையத்தில்	-10.3818
▁மாற்றத்தை	-10.3821
▁ஒளிபரப்ப	-10.3822
▁வழக்கின்	-10.3826
ச்சர்	-10.3828
▁ஈட்ட	-10.3832
புறம	-10.3832
கரன்	-10.3833
▁திரவ	-10.3837
▁தமிழ்நாட்டை	-10.3841
▁மூவர	-10.3842
▁எவ்வித	-10.3842
▁எலும்பு	-10.3842
▁காங்கிரச	-10.3842
▁திரையரங்க	-10.3842
▁U	-10.3843
▁கட்சிகளின்	-10.3845
▁ஃபா	-10.3845
▁அப்பகுதியில்	-10.3848
▁தொடங்கப்பட்ட	-10.385
▁2021-	-10.3852
▁அழைக்கப்படும்	-10.3855
▁கோவிந்த	-10.3857
▁41	-10.3861
▁செய்யப்படுகிறது	-10.3871
▁செய்கிறார்கள்	-10.3873
▁55	-10.3876
▁குறைத்து	-10.3883
▁தேரோட்டம்	-10.389
▁குரல	-10.389
▁எதிர்பாராத	-10.3891
▁இழப்பீடு	-10.3891
▁மீனாட்சி	-10.3892
▁அன்புமணி	-10.3893
▁ஓவிய	-10.3901
▁நபி	-10.3902
▁வழிபட்டனர்	-10.3903
▁பொதுவான	-10.3903
▁தலையிட	-10.3912
▁மாவட்டச்	-10.3916
▁தயாரிக்கப்பட்ட	-10.3917
▁தயா	-10.3924
▁கூறுவது	-10.3925
▁தொடங்கினர்	-10.3928
▁விநாயக	-10.393
▁உதவிகளை	-10.3934
2,000	-10.3935
▁நிறுவனத்தை	-10.3938
▁எக்ஸ்பிரஸ்	-10.394
▁ஆதரிக்க	-10.394
▁பிரமாண்ட	-10.394
▁‛	-10.3941
▁பொம்மை	-10.3941
▁பள்ளிக்கு	-10.3942
▁கொட்டி	-10.3944
ut	-10.3944
▁கிடைத்துள்ளது	-10.3949
▁வயதுக்கு	-10.3951
▁முதியவர்	-10.3952
▁பெற்றோர்கள்	-10.3959
ப்பதை	-10.3961
வரிடம்	-10.3965
▁வழங்குவது	-10.3976
▁மறுத்து	-10.3979
▁பட்டியல	-10.3988
▁கலாநிதி	-10.399
▁சதுர்த்தி	-10.399
▁உத்தரவிட்டுள்ள	-10.399
▁சீனாவில்	-10.3992
யிட்டு	-10.3996
▁வழிமுறை	-10.3999
▁கிளம்பி	-10.4001
▁வகையிலும்	-10.4003
▁பழக்கம்	-10.4005
▁புதின	-10.4006
▁நிலநடுக்கம்	-10.4007
▁விமானங்கள்	-10.4008
▁பழனி	-10.4009
▁கோபம்	-10.4009
ஞ்ச்	-10.4009
▁அறிமுக	-10.4012
குரு	-10.4026
தேவி	-10.4029
▁நடத்தப்பட	-10.4031
▁இருப்பவர்கள்	-10.4032
▁பில்	-10.4032
26	-10.4034
ப்பார்கள்	-10.4037
▁வியாபாரி	-10.4039
▁மட்டக்களப்பு	-10.4039
▁ஆயுள்	-10.4039
▁குரங்கு	-10.4039
▁துவக்க	-10.404
▁இம்முறை	-10.4042
▁காலத்திற்கு	-10.4042
▁அம்மை	-10.4043
▁பாலிவுட்	-10.4044
ராய்	-10.4051
▁சிற்ப	-10.4052
▁இலக்கை	-10.4053
▁வேட்டை	-10.4055
▁கலந்துகொண்டு	-10.4056
▁விலையில்	-10.4057
ோருக்கு	-10.406
▁துறைகளில்	-10.4071
▁அமைதியாக	-10.4074
▁அந்	-10.4075
ாயிரம்	-10.4076
மாதிரி	-10.4077
85	-10.4079
விழா	-10.408
▁ஆர்ப்பாட்ட	-10.4086
▁ஆவணங்களை	-10.4087
▁நிறைவேற்றி	-10.4088
▁பரவலாக	-10.4089
▁செங்கல்பட்டு	-10.4089
▁ஒலிம்பிக்	-10.4089
ப்படுவார்கள்	-10.409
▁வாக்களித்த	-10.409
▁பிரதிநிதித்துவ	-10.409
க்கொடி	-10.409
▁செயல்பாட்ட	-10.4091
▁கோர்ட்	-10.4091
▁அதிபதி	-10.4091
▁மையமாக	-10.4092
▁2011	-10.4094
▁பாலத்தீன	-10.4103
▁கூடி	-10.4104
த்துக்குள்	-10.4109
▁கோரிய	-10.411
▁நிறுவனங்களுக்கு	-10.412
07	-10.4123
▁அவமான	-10.4123
ிருப்பார்	-10.4127
▁பார்வையிட்ட	-10.4128
▁தேசியவாத	-10.4131
▁தாழ	-10.4132
▁3-	-10.4134
▁ஆசிரியர	-10.4134
▁கார்டு	-10.4136
▁சம்பவத்தை	-10.4137
▁வறுமை	-10.414
▁பங்குனி	-10.4142
▁உட்கார்ந்த	-10.4142
▁சுற்றியுள்ள	-10.4144
▁கண்டிப்பாக	-10.4145
ப்பிரிவு	-10.4145
▁தரப்பினர	-10.4147
▁வழங்கியுள்ளது	-10.4147
09	-10.4148
▁போட்டியிடும்	-10.4148
▁ஆற்றல்	-10.415
▁மெய்	-10.4152
▁இயக்கத்தில்	-10.4152
▁இதன்படி	-10.4158
▁எடுத்துக்கொண்ட	-10.4161
ul	-10.4163
▁சுவாமிகள்	-10.4169
▁கூட்டத்தை	-10.4171
▁லூ	-10.4175
மட்ட	-10.4182
▁அச்சம்	-10.4184
▁கிட்ட	-10.4187
▁சூரியன	-10.4188
▁அதேசமயம்	-10.419
▁நிச்சயமாக	-10.419
▁டெல்டா	-10.419
▁ஈபிஎஸ்	-10.419
▁உயர்கல்வி	-10.4191
ாதிபதி	-10.4194
▁மயக்க	-10.4196
▁தாரா	-10.4197
▁ஓட்டுநர்	-10.4212
▁பலாத்காரம்	-10.4219
▁அதிகபட்சமாக	-10.4222
▁சிவப்பு	-10.4223
▁பறித்த	-10.4226
▁செயற்பட	-10.4233
▁கொண்டாடி	-10.424
▁வியாழக்கிழமை	-10.4241
▁கம்பெனி	-10.4241
▁பேரிடர்	-10.4241
▁உள்ளதா	-10.4243
▁நிறுவனங்களில்	-10.4244
▁பட்டாசு	-10.4245
▁கடினமாக	-10.4245
▁போவதாக	-10.4247
▁உப்பு	-10.4248
▁சமத்துவ	-10.4248
▁ஆயுதங்களை	-10.4252
▁உயிரிழந்தார்	-10.4252
▁தந்து	-10.4255
▁பாடி	-10.4259
▁ரூபாய்க்கு	-10.4259
▁பைக்	-10.4259
த்தினை	-10.426
▁குஜராத்தில்	-10.4265
▁கெஜ்ரிவால்	-10.4265
த்திலுள்ள	-10.4265
▁அஞ்சலி	-10.4275
▁சங்கர்	-10.4277
▁பாதுகாப்பை	-10.4281
▁இளைஞர	-10.4283
▁கண்காணிப்ப	-10.4291
▁அணுகுமுறை	-10.4292
ராஷ்டிர	-10.4292
▁நுழைய	-10.4292
ின்றி	-10.4295
▁நாடுகளுக்கும்	-10.43
▁அரசியலை	-10.4307
ம்பட்டி	-10.4308
▁போஸ்டர்	-10.4308
▁ஆடியோ	-10.4309
▁அவரால்	-10.4313
▁பிரபு	-10.4317
▁பரிந்துரைக்க	-10.4318
▁10-	-10.4322
▁உத்தரவிட்டது	-10.4322
▁மூன்ற	-10.4323
▁இறை	-10.4323
▁உறவுகளை	-10.4324
▁வருவார்	-10.4325
▁சென்றபோது	-10.4333
▁அவங்க	-10.4334
▁சிலைகள்	-10.4335
▁செல்கிறார்	-10.4337
▁ரக	-10.4337
த்தொகை	-10.434
▁ஹசீனா	-10.4343
▁புண்ணிய	-10.4343
▁மனநல	-10.4343
▁நடுத்தர	-10.4345
▁லிட்டர்	-10.4347
▁என்கின்றனர்	-10.4352
▁அணிந்த	-10.4358
காரர்	-10.436
கிருஷ்ண	-10.4361
ஞ்சா	-10.4362
என்ன	-10.4362
▁பேசுவது	-10.4363
▁வந்தவர்	-10.4363
சுவாமி	-10.4363
▁மகர	-10.4368
▁கோழி	-10.4368
▁மகிழ்ச்சியாக	-10.4374
▁செலவில்	-10.4377
ராமன்	-10.4378
▁காண்ப	-10.4378
முடியாத	-10.4379
▁சிங்கப்பூர்	-10.4379
▁நவீன்	-10.4382
▁பணிக்கு	-10.4383
▁செய்யவும்	-10.4386
▁கொள்கையை	-10.4388
▁சீதாராமன்	-10.4395
▁வாழ்வாதார	-10.4395
▁உணர்ச்சி	-10.4395
▁புதுப்பிக்க	-10.4395
▁லட்சக்கணக்கான	-10.4396
▁உருவாக்கும்	-10.4401
▁பட்சத்தில்	-10.4409
▁ஈர்ப்ப	-10.4409
▁ஷோ	-10.441
▁வென்றது	-10.4414
▁ஹோட்டல்	-10.4417
▁தானம்	-10.4418
▁வேல்	-10.442
▁நினைப்ப	-10.4425
▁அமைச்சரவையில்	-10.443
▁இப்படிப்பட்ட	-10.4431
▁போயி	-10.4434
்கிய	-10.4435
தீன்	-10.4437
ப்பூ	-10.4438
nd	-10.444
▁கூறப்படும்	-10.4441
▁சடங்கு	-10.4447
▁ஜாதக	-10.4448
▁மகேஷ்	-10.4449
▁2013	-10.445
▁தெரிவிக்கிறார்	-10.4451
▁நினைக்கிறேன்	-10.4453
▁தொட்டி	-10.4453
▁வெயில	-10.4454
▁நிகழ்ச்சியை	-10.4454
▁உணவுகளை	-10.4454
▁தெரியவந்துள்ளது	-10.4455
▁2019-	-10.4458
▁மருந்துகள்	-10.4461
▁உறுதியான	-10.4464
▁வெயில்	-10.4471
▁வழங்கியது	-10.4472
▁இந்தியர்கள	-10.4473
▁தலைவர	-10.4476
▁அதிகளவில	-10.4476
▁அப்போ	-10.4477
▁மனிதர்கள்	-10.4482
▁சுட	-10.4484
▁ஊரில்	-10.4486
தொடர	-10.4487
வியல்	-10.4487
▁செய்யாமல்	-10.4491
▁உயர்நீதிமன்றம்	-10.4493
▁நடிகர	-10.4495
▁தோன்றிய	-10.4495
▁தீயணைப்பு	-10.4499
▁இருதரப்பு	-10.4499
▁சிறுநீரக	-10.4499
▁மதிப்பிலான	-10.4499
▁ஓரிரு	-10.4499
▁முர்மு	-10.4499
▁எளிய	-10.4499
▁சட்டசபையில்	-10.4501
▁வெளியிட்டது	-10.4502
▁எழுத்தாளர்	-10.4505
▁ஆஸ்	-10.4515
▁தொழிலில்	-10.4517
க்கொடுத்த	-10.4519
▁இருக்கின்ற	-10.4519
▁நினைக்கிற	-10.452
▁கூறுகிறார்கள்	-10.452
▁பலருக்கும்	-10.4521
▁தொடர்பில	-10.4527
வினை	-10.4528
▁சிரியா	-10.4528
▁பயங்கரவாதி	-10.453
▁எதை	-10.4535
▁பந்தை	-10.4537
▁ஜய	-10.4544
ப்படாமல்	-10.4546
▁வசந்த	-10.4549
▁மாநிலங்களவை	-10.4551
▁புகழ்பெற்ற	-10.4552
▁டாலர	-10.4556
▁சாதகமான	-10.4557
▁புறப்பட்ட	-10.4565
▁ஆக்கிரமிப்பு	-10.4565
28	-10.4565
▁வலியுறுத்தினார்	-10.4565
▁சித்தி	-10.4572
▁அழித்த	-10.4579
▁எட்டிய	-10.458
▁பொதுக்குழுவில்	-10.458
▁எழுதியுள்ளார்	-10.458
id	-10.4583
▁பக்தி	-10.4587
▁தலைவர்களும்	-10.4588
▁போதைப்	-10.4591
▁எம்எல்ஏக்கள்	-10.4593
▁ஆய்வ	-10.4603
▁அந்நிய	-10.4604
▁முதலாவது	-10.4605
▁நேட்டோ	-10.4605
செயல	-10.4616
தெல்லாம்	-10.4619
▁திருப்பணி	-10.462
வதற்கான	-10.4622
▁பணிகளில்	-10.4622
சங்கர்	-10.4626
ப்படலாம்	-10.4635
▁துறையினர்	-10.4636
▁எதிர்கொள்ளும்	-10.464
▁மாசு	-10.4641
▁சமூகத்தில்	-10.4641
▁முடிவெடுக்க	-10.4648
தனை	-10.465
▁ஊடகவியலாளர்	-10.4657
▁ஒலிம்பியாட்	-10.4657
▁நூற்றுக்கணக்கான	-10.4657
▁ஹர்திக்	-10.4657
sh	-10.4658
▁இருவரையும்	-10.466
▁உருவாகி	-10.467
▁சட்டப்படி	-10.4671
▁தலித்	-10.4672
▁முறைப்படி	-10.4675
▁34	-10.4675
▁அதையடுத்து	-10.4676
▁கிரகண	-10.4677
▁உருவான	-10.4686
ent	-10.4688
▁தயாராகி	-10.4693
புரத்தில்	-10.4696
▁38	-10.4697
மியா	-10.4701
▁பெருமாள	-10.4707
▁Vikatan	-10.4714
▁வெளியுறவுத்துறை	-10.4715
▁நிலைப்பாடு	-10.4715
▁மாசி	-10.4717
▁விஞ்ஞானி	-10.4719
▁கிராமத்தைச்	-10.4722
▁மேற்கத்த	-10.4723
▁பாஜகவினர்	-10.4724
▁அறிகுறிகள்	-10.4726
▁நீதிமன்றத்தின்	-10.4727
▁சொல்ற	-10.4727
▁கூடவே	-10.4728
▁ரத	-10.4728
▁செய்திருந்தார்	-10.4735
▁பவார்	-10.4735
ாலேயே	-10.4737
▁பள்ள	-10.474
▁உரையாட	-10.4742
▁இதர	-10.4744
▁வெளியிட்டார்	-10.4747
▁.....	-10.4752
▁பறக்க	-10.4757
▁காத்த	-10.4759
▁மல்ல	-10.4761
▁வெறுப்பு	-10.4762
▁திருவள்ளூர்	-10.4763
▁பிறப்பிக்க	-10.4763
▁பிரித்து	-10.4765
▁கதவு	-10.4766
▁விஞ்ஞானிகள்	-10.4766
ot	-10.4768
▁ஈர்த்த	-10.4768
கொள்கிற	-10.4777
▁ஆவது	-10.478
▁ஆய்வில்	-10.4782
▁மறுப்பு	-10.4785
▁ரஷ்யாவுக்கு	-10.4788
▁வேண்டியிருந்தது	-10.4789
ne	-10.4791
▁நிறை	-10.4791
▁பிரதம	-10.4791
▁நிற்கும்	-10.4793
▁சுட்டிக்காட்டின	-10.4797
▁நிலைப்பாட்டை	-10.4798
▁சுவாரஸ்ய	-10.4817
▁டொலர்	-10.4818
▁விரும்புகிறேன்	-10.482
▁மனோஜ்	-10.482
▁பிரகாஷ்	-10.4828
▁கேட்டது	-10.4828
ம்மாள்	-10.4834
▁சித்ரா	-10.4835
சுப்பிரமணியன்	-10.4836
▁கேள்விகளை	-10.4836
▁ஊட்டி	-10.4842
▁கவச	-10.4844
▁போட்டியிட்டு	-10.4849
▁வெளிப்படுத்தி	-10.4855
காளியம்மன்	-10.4857
▁மண்டபம்	-10.4858
ங்களுக்காக	-10.486
ராணி	-10.4866
▁பொறியியல்	-10.4871
▁சமாஜ்வாதி	-10.4871
▁பழனிவேல்	-10.4872
▁விவரிக்க	-10.4872
▁சேகரித்த	-10.4872
▁தொழில	-10.4872
▁கமிஷனர்	-10.4884
▁வாரங்களுக்கு	-10.489
▁சட்டத்தில்	-10.4896
▁கொரியா	-10.4903
ிடத்தில்	-10.4906
▁சகல	-10.4906
▁நீரை	-10.4914
▁மிரட்டி	-10.4916
▁நகரங்களில்	-10.4916
தாலும்	-10.4918
▁செடி	-10.4922
▁கிளி	-10.4923
▁குடியுரிமை	-10.4925
▁அத்துமீற	-10.4925
▁கிளர்ச்சி	-10.4925
▁கொண்டுவந்த	-10.4925
▁துரித	-10.4925
▁நிலக்கரி	-10.4925
▁நான்காவது	-10.4926
▁ஒப்படைத்த	-10.4926
▁தூதுவர்	-10.4927
▁அறிவிப்பை	-10.4927
▁எளிதில	-10.4929
▁ஈஸ்வர	-10.4929
▁கைதுசெய்யப்பட்ட	-10.4929
▁வேண்டுமா	-10.4931
யாராவது	-10.4931
▁பொறுத்த	-10.4933
▁தினத்தை	-10.4934
▁ஈர்க்க	-10.4935
▁44	-10.4935
▁அடுத்தடுத்த	-10.4937
▁ஸ	-10.4939
▁ஸ்ட்ர	-10.494
▁துண்டு	-10.4942
▁இந்துத்துவ	-10.4942
▁பெய்ய	-10.4943
▁ஒன்றரை	-10.4944
▁விருந்து	-10.4948
▁சூழலை	-10.4954
றேன்	-10.4958
▁எண்ணிக்கையில்	-10.4959
▁செய்தியாளர்கள்	-10.4966
▁சுட்டுக்	-10.4967
▁செய்தியை	-10.4973
▁குற்றவாளிகள்	-10.4975
▁விளையாடிய	-10.4976
▁மாற்றுத்திறனாளி	-10.498
▁ஸ்மார்ட்	-10.498
▁சச்சின்	-10.498
விட்டோம்	-10.4981
▁108	-10.4983
▁ஹாரிஸ	-10.4989
களிலேயே	-10.4989
94	-10.4989
▁எச்	-10.4989
▁சீனிவாசன்	-10.4993
▁சஞ்ச	-10.4995
▁பிரிய	-10.4997
ப்படுகின்றது	-10.5005
▁அறிவித்துள்ளார்	-10.5012
▁சேரும்	-10.5013
▁புலிகள்	-10.5013
▁பார்க்கும்போது	-10.5017
▁எதிர்ப்பை	-10.5027
▁பதிவில்	-10.5028
▁அடைக்க	-10.5031
▁நிராகரித்த	-10.5035
▁விஷ்ணு	-10.5035
▁ஆச்சர்ய	-10.5035
ட்டாக	-10.5036
▁அசத்த	-10.5037
▁ஆலோசனைக்	-10.5042
தள	-10.5045
▁தியாகராஜன்	-10.5045
▁பிளவு	-10.5047
75	-10.5047
ப்படுவதை	-10.5048
▁ஸ்பெ	-10.5048
களாம்	-10.5051
▁கள்ள	-10.5055
▁பகல்	-10.5056
நிதி	-10.5061
▁ஒய்	-10.5063
▁சுற்றுலாப்	-10.5068
vi	-10.5068
▁நீல	-10.5073
▁வளர	-10.5075
கொட	-10.5079
▁தெரிவு	-10.5081
▁எடுத்தார்	-10.5082
▁மிகச்	-10.5089
▁நிறுவனர்	-10.509
z	-10.509
▁சுற்றுப்பயண	-10.509
▁நுழைவு	-10.509
▁பராமரிக்க	-10.509
▁கூட்டத்தொடர	-10.509
▁கனிமொழி	-10.509
▁பிரசித்தி	-10.509
▁கூறியிருக்கிறார	-10.509
▁சேகரிக்க	-10.509
▁நாளும்	-10.5092
▁இந்துக்கள	-10.5095
▁மெட்ரோ	-10.5095
▁மறுசீரமைப்பு	-10.5095
▁தெரியவந்த	-10.5102
▁திட்டமிடப்பட்ட	-10.5102
▁இவற்றை	-10.5105
▁முயன்று	-10.5106
▁இன்னமும	-10.5106
▁முன்வைத்து	-10.5111
▁விகடன்	-10.5112
றாங்க	-10.5112
▁வந்துள்ளனர்	-10.5114
ரீதியாக	-10.5122
▁விடுத்துள்ளார்	-10.5122
க்கெட்	-10.5124
▁நீராட	-10.5131
▁மேற்கொண்டார்	-10.5132
▁வழிகாட்டுதல	-10.5133
யொரு	-10.5137
▁அதிகாரிகளை	-10.5137
▁இடஒதுக்கீடு	-10.5146
▁புதன்கிழமை	-10.5146
▁வாக்குவாதம்	-10.5146
▁அகமது	-10.5146
80	-10.5146
▁பிரசவ	-10.5146
▁டாஸ்மாக்	-10.5147
▁சுத்தம்	-10.5148
▁மங்கள	-10.5151
ெக்ட	-10.5152
▁செய்துவிட்டு	-10.5153
ிறதா	-10.5155
▁நபரை	-10.5157
▁ஆதீனம்	-10.5161
▁வைத்துள்ளார்	-10.5161
▁முடிவெடுத்த	-10.5167
▁விவரங்கள்	-10.517
மினி	-10.5178
▁உத்தரப்	-10.5178
▁அரசிடம்	-10.5179
ாளரான	-10.518
▁போகிறார்	-10.5181
▁சங்கத்தின	-10.5182
சுந்தர	-10.5182
▁சமூகத்தினர	-10.5183
▁அருள	-10.5183
▁அரசால்	-10.5188
▁39	-10.5191
▁வேட்புமனு	-10.5202
▁முதல்முறையாக	-10.5202
▁நஷ்ட	-10.5202
▁உறுப்பினர	-10.5204
▁வரித்துறை	-10.5209
▁பொறுப்பை	-10.521
▁யூனியன்	-10.5216
▁அலுவல்கள்	-10.5222
▁கடைகள்	-10.5225
ஹோ	-10.523
▁அதனைத்	-10.5234
▁வசதிகளை	-10.5239
இந்திய	-10.5244
▁சராசரி	-10.5245
▁அளிக்கப்பட்டது	-10.5246
▁மஹ	-10.5256
▁இவ்வாறான	-10.5258
▁தூய்மை	-10.5258
▁வெள்ளத்தில்	-10.5259
▁பரவிய	-10.5263
▁தனிப்படை	-10.5264
▁பதிவான	-10.5268
▁சிறுத்தைகள்	-10.5269
▁சன்னி	-10.527
▁சரவணன்	-10.5273
▁ஊற்றி	-10.5273
▁கதையை	-10.5275
▁வழங்கப்படுகிறது	-10.5278
▁வேண்டுகோள்	-10.5279
▁வருகிறேன்	-10.5285
▁அனுபவித்த	-10.5289
▁சதம்	-10.5292
▁அல்லாத	-10.5293
▁விவகாரத்தை	-10.5298
▁அரசியலுக்கு	-10.5299
▁நிஜ	-10.53
ment	-10.5302
▁சீசன்	-10.5302
▁மனுவில்	-10.5303
▁நாங்க	-10.5303
▁மோத	-10.531
▁குவா	-10.531
▁உறுதியளித்த	-10.5314
▁சூதாட்ட	-10.5314
▁ஆதரித்த	-10.5315
▁வைபவ	-10.5315
▁பயன்பாடு	-10.5315
▁எழுத்து	-10.5321
▁கொங்கு	-10.5324
வோடு	-10.5327
▁கற்று	-10.5329
▁மகனை	-10.5329
▁செக்	-10.5336
▁வாகனங்களில்	-10.5338
▁சேர்க்கப்பட்ட	-10.534
▁பிணை	-10.5342
▁சிறப்ப	-10.5342
▁புல்	-10.5343
▁இறைவன	-10.5344
▁அதிர	-10.5345
▁அதிகரிப்பு	-10.5357
▁கிரே	-10.5359
56	-10.5359
அந்த	-10.5366
▁நிறுவனங்களை	-10.5367
▁நாள்களுக்கு	-10.5368
▁களமிறக்க	-10.5371
▁கள்ளச்சாராய	-10.5371
▁ஆன்மீக	-10.5371
▁விஜயகாந்த்	-10.5371
▁நியூயார்க்	-10.5371
▁வருடங்கள்	-10.5372
▁இறைச்சி	-10.5375
▁உயிருடன்	-10.5378
▁நல்லா	-10.5379
முனை	-10.538
செய்யப்பட்ட	-10.5382
விட்டதால்	-10.5384
▁ஊழியர்களுக்கு	-10.5388
▁போகிற	-10.539
▁வீழ்த்திய	-10.5392
▁உட்	-10.5392
▁வழங்கப்பட்டு	-10.5392
▁சொல்வத	-10.5394
▁எலி	-10.5394
▁அமைக்கும்	-10.5397
▁அம்பேத்கர்	-10.5398
▁5-	-10.5401
▁துண்ட	-10.5413
▁சிக்கல்கள்	-10.5419
▁காசு	-10.542
▁ஒதுக்கி	-10.542
▁ஆல	-10.5428
▁அரையிறுதி	-10.5428
▁நேர்காணல	-10.5428
▁தேவஸ்தான	-10.5428
▁எதிர்கட்சி	-10.543
▁பெரிதும	-10.5431
▁கூறியதாவது	-10.5432
▁ரூபாயை	-10.5433
▁தங்கியிருந்த	-10.5444
▁தேவைப்படும்	-10.5445
▁காஷ்மீரில்	-10.5445
▁வாரத்தில்	-10.5446
▁மாநிலங்களுக்கு	-10.5447
▁நிவாரணம்	-10.5451
▁ஜெயந்தி	-10.5451
▁கட்	-10.5452
ப்போன	-10.5453
▁திருமலை	-10.5455
பூஜை	-10.5456
▁ரயில	-10.546
பேரில்	-10.5463
▁நாளிதழ்	-10.5465
டவுன்	-10.5466
▁பத்ம	-10.5466
▁போற	-10.5466
76	-10.5466
▁கற்றுக்	-10.5467
▁அள்ளி	-10.5468
▁உறவுகள்	-10.547
▁பொன்ன	-10.547
▁இறந்துவிட்ட	-10.5473
▁ஆதரவாளர்கள	-10.5473
▁கண்ணன்	-10.5474
க்குட்பட்ட	-10.5482
ab	-10.5482
▁42	-10.5485
▁உபகரணங்கள	-10.5486
கொண்டிருந்த	-10.5487
▁துரோக	-10.5487
▁கிருஷ்ணகிரி	-10.5488
▁டாப்	-10.5488
▁கலந்துரையாடல்	-10.5489
▁நூறு	-10.549
▁நேரத்தை	-10.5493
▁டாடா	-10.5496
▁மருந்த	-10.5496
▁காவி	-10.5498
▁அதுவே	-10.5501
யுமான	-10.5501
▁அளிக்கிறது	-10.5502
▁தேர்தலின்	-10.5506
▁விமர்சனங்களை	-10.5507
வாக்க	-10.5508
ிறீர்கள்	-10.551
47	-10.5511
▁வட்டார	-10.5511
▁மாநிலங்கள்	-10.5512
▁சிறுமியை	-10.5517
த்திரி	-10.5518
▁மருத	-10.5519
▁பூச்சி	-10.5529
▁ஆணையத்தின்	-10.553
▁இந்தியாவிற்கு	-10.5532
▁இங்கிலாந்த	-10.554
ாட்டம்	-10.5542
▁BBC	-10.5544
▁தனுஷ்	-10.5544
▁மிதமான	-10.5544
▁தெரிவிப்ப	-10.5544
▁நண்பர	-10.5545
▁தொடங்கியுள்ளது	-10.5545
▁இளைய	-10.5546
▁வீட்டில	-10.5548
▁யோகா	-10.5551
▁வைகோ	-10.5552
▁ஓவர்கள்	-10.5555
31	-10.5557
▁விதிகள்	-10.5564
▁போடப்பட்ட	-10.5566
▁பேச்சை	-10.5569
▁விரும்பும்	-10.5572
▁காணப்படுகிறது	-10.5578
▁செய்கிற	-10.5582
▁கண்டி	-10.5591
▁குறிவைத்து	-10.5592
▁உத	-10.5593
▁ஐயப்ப	-10.5601
X	-10.5602
▁ஆகியோரும்	-10.5602
▁சல்மான்	-10.5602
▁கணினி	-10.5602
▁தட்டுப்பாடு	-10.5602
▁கதவை	-10.5602
▁அதிர்ச்சியடைந்த	-10.5604
▁புரிதல	-10.5604
▁பிரியாணி	-10.5605
▁பண்டார	-10.5606
▁சைபர்	-10.5607
▁&	-10.5607
▁செய்யப்பட்டனர்	-10.5611
▁நாளைக்கு	-10.5611
மடைய	-10.5613
▁நீக்கி	-10.5618
▁ஜனநாயகக்	-10.5619
▁ரயிலில்	-10.5621
▁உயர்த்தி	-10.5628
▁சேவையை	-10.563
களுக்குள்	-10.563
▁பிரச்னையை	-10.5638
▁கிளம்பிய	-10.5639
வினால்	-10.5646
▁கிளப்பிய	-10.5647
▁கல்வெட்டு	-10.566
▁யோசித்த	-10.566
▁இயக்குநர	-10.566
▁சதீஷ்	-10.5661
▁சந்திரபாபு	-10.5661
▁முதலீட்டு	-10.5662
▁வாரி	-10.5662
▁தருவதாக	-10.5663
ப்போகும்	-10.5663
▁புல	-10.567
▁உயிரிழந்தனர்	-10.567
▁மூச்சு	-10.5672
▁அவர்களால்	-10.5676
பிறகு	-10.5683
▁+	-10.5683
▁கங்கை	-10.5684
▁நிமிடங்கள்	-10.5686
▁லால்	-10.5687
▁நெருக்கமாக	-10.569
▁தவறி	-10.5691
மனை	-10.5692
▁பாண்டியன்	-10.57
▁செலுத்தினர்	-10.5706
▁நெஞ்ச	-10.5707
▁மண்டப	-10.5712
▁குடிக்க	-10.5717
▁மரபணு	-10.5719
▁ஊக்குவிக்க	-10.5719
▁நொடி	-10.5719
▁ஆர்சிபி	-10.5719
▁தஞ்சை	-10.5719
▁விடிய	-10.5721
▁குறிப்பு	-10.5721
▁தீர்ப்பளித்த	-10.5721
▁அலற	-10.5726
▁வந்திருந்த	-10.573
▁அஸ்வின்	-10.5738
▁குத்தி	-10.574
ப்படுகிறார்	-10.5743
▁கடைசியாக	-10.5746
ப்படுத்தப்பட்ட	-10.575
ீஷ்	-10.5751
▁1000	-10.5751
சூர்	-10.5756
▁அர்த்தம்	-10.5757
▁மைல்	-10.576
▁விடயங்கள	-10.5761
▁கட்சிகளுக்கு	-10.5762
▁வளர்ப்ப	-10.5773
க்கால்	-10.5778
▁தெளிவுபடுத்த	-10.5778
▁தொல்லியல்	-10.5778
▁நள்ளிரவு	-10.5778
▁யாழ்ப்பாண	-10.5778
▁கூட்டாளி	-10.5778
▁அர்ப்பணிப்ப	-10.5778
▁துரைமுருகன்	-10.5779
▁படப்பிடிப்பு	-10.5779
▁வசூலிக்க	-10.5782
▁அதிமுகவை	-10.5783
▁ஆகியோருக்கு	-10.5783
▁சாதனையை	-10.5783
▁வெற்றிபெற	-10.5787
▁குழப்பம்	-10.5788
▁ரியா	-10.5788
▁நிலுவையில்	-10.579
▁ஒத்துழைப்ப	-10.5795
▁வள்ளி	-10.5796
▁நடத்துவது	-10.5798
செய்து	-10.5804
வுக்கான	-10.581
se	-10.5812
▁அவற்ற	-10.5812
▁ஃபை	-10.5825
▁தொடக்கம்	-10.5825
▁ஜார்க்கண்ட்	-10.5838
▁தென்னாப்பிரிக்க	-10.5838
▁புறக்கணித்த	-10.5838
▁ஜிஎஸ்டி	-10.5838
▁கன்னட	-10.5839
▁வலது	-10.5839
▁காவல்துறையினர	-10.5842
▁முகமை	-10.5844
▁வியூக	-10.5846
▁2009	-10.5849
▁பெண்ணுக்கு	-10.5852
▁மலையாள	-10.5852
▁மதிப்பில்	-10.5852
கடந்த	-10.5855
▁அதிபராக	-10.5858
▁உள்ளவர்கள்	-10.5868
தாரண	-10.5869
▁முஸ்லிம்கள்	-10.5871
▁வைத்துள்ளது	-10.5874
ive	-10.5877
▁அவ்வ	-10.5878
▁காங்கிரஸின்	-10.5879
▁கச்சா	-10.5879
பாண்டி	-10.5879
▁நேரத்திற்கு	-10.5882
▁சேனல்	-10.5882
▁கிராமங்களில்	-10.5888
▁குறைந்துள்ளது	-10.5888
ஜோ	-10.589
▁யாதவ	-10.589
▁பழகி	-10.589
▁மேற்கொண்டனர்	-10.5891
▁பொலிஸ்	-10.5898
▁விளாசி	-10.5898
▁சர்ச்சைக்குரிய	-10.59
▁தங்களுடைய	-10.5903
▁சாப்பிட்டு	-10.5903
▁ஆராய்ந்த	-10.5905
▁விக்கெட்டை	-10.5905
ண்டே	-10.5914
▁பேட்ஸ்மேன்	-10.5915
த்தலைவர்	-10.5918
▁ஆர்டர்	-10.5919
▁தோண்ட	-10.592
ai	-10.5923
நிறுவன	-10.5926
க்காடு	-10.5926
வளை	-10.5928
வுடனான	-10.5929
▁விடுக்கப்பட்ட	-10.5937
▁பேசியுள்ளார்	-10.5938
ிற்குள்	-10.595
▁ஆவார்	-10.5954
நகர	-10.5954
யில்லாத	-10.5954
▁ஆப்பிரிக்கா	-10.5955
▁நிராகரிக்க	-10.5958
▁கூட்டுறவு	-10.5958
▁திருப்தி	-10.5959
▁கவுன்சில	-10.5963
▁காரணத்தால்	-10.5965
▁ரிஷி	-10.5968
▁கிடைக்கிறது	-10.5971
ப்பாக்கம்	-10.5971
▁சர்வ	-10.5976
▁டிரைவர்	-10.5979
▁செல்வதற்கு	-10.5982
▁அசாம்	-10.5988
▁பொருள்களை	-10.599
வுள்ள	-10.5991
▁விமர்சனங்கள்	-10.5995
▁மூலவர்	-10.5996
▁அம்சங்கள	-10.5997
▁விடுக்க	-10.6
▁மசோதாவை	-10.6003
▁சங்கட	-10.6004
▁சுமை	-10.6013
என்று	-10.6014
கிராம	-10.6014
▁திருவாரூர்	-10.6018
▁நுபுர்	-10.6018
▁ஆன்மிக	-10.6018
▁தேயிலை	-10.6018
▁இஸ்ரோ	-10.6019
▁இபிஎஸ்	-10.6019
▁எகிப்த	-10.6019
▁கோவிலை	-10.6019
▁உழைத்த	-10.6022
▁குரூப்	-10.6025
▁டேவிட்	-10.603
▁தீவிரவாத	-10.6035
▁பகுதிகளிலும்	-10.6036
▁பாய்ந்த	-10.6041
▁நிறுவனத்திற்கு	-10.6041
ter	-10.6046
▁பலியான	-10.6046
▁காளை	-10.6049
▁அடங்கும்	-10.605
▁நிலையங்களில்	-10.6051
os	-10.6055
▁வைக்கப்பட்டுள்ள	-10.6056
▁உயிருக்கு	-10.6058
▁யானைகள்	-10.6059
▁2020-	-10.6073
▁யூடியூப்	-10.6079
▁ஒருவரான	-10.608
▁தொழில்துறை	-10.6083
▁விதிகளை	-10.6085
▁வெகுவாக	-10.6086
▁நிலையான	-10.6086
▁உபயோக	-10.6086
▁கலந்துகொள்ள	-10.6087
▁இழக்க	-10.6089
▁இயல்பு	-10.6092
▁வளர்ப்பு	-10.6094
▁தொழிலதிபர்	-10.6095
காட்டி	-10.6095
▁வரலாற்றை	-10.6096
▁உரையாற்ற	-10.6096
▁நிலையத்திற்கு	-10.6103
▁கதிர்	-10.6107
▁தாயார	-10.611
க்கொண்டார்	-10.611
▁போடும்	-10.6112
▁தீர்மானத்தை	-10.6113
▁காட்சிகளை	-10.6114
▁தருமபுர	-10.6117
ிருந்தேன்	-10.6121
▁பாரிய	-10.6127
▁கெடு	-10.6132
▁தேர்தல	-10.6135
▁அறங்காவலர்	-10.6141
▁ஆங்காங்கே	-10.6141
▁தகராறு	-10.6141
▁ஆர்எஸ்எஸ்	-10.6141
▁பணிபுரியும்	-10.6141
▁தேர்ந்தெடுத்த	-10.6141
▁இணக்க	-10.6141
▁வழக்குகளில்	-10.6143
▁உடம்ப	-10.6143
▁ஹோம	-10.6144
▁முகவரி	-10.6144
▁துபாய்	-10.6145
▁சாத்தியம்	-10.6149
▁மாட்ட	-10.6152
▁உறவில்	-10.6154
▁மூடப்பட்ட	-10.6161
▁ஹெலிகாப்டர்	-10.6161
▁நோக்கமாக	-10.6162
▁பெறுவது	-10.6166
▁எதிர்காலம்	-10.6167
▁நடப்பது	-10.6167
ுவாங்க	-10.6167
▁ஒடுக்க	-10.6172
▁குறைந்தபட்சம்	-10.6181
▁ஆகியவற்றின்	-10.6194
▁படிப்பை	-10.6197
▁கோட்டாபய	-10.6202
▁பந்துவீச்சில்	-10.6202
▁சீனியர்	-10.6203
▁பிரிவினை	-10.6205
▁ஆறுதல்	-10.6205
▁ஆப்கானிஸ்தான	-10.6208
▁மனைவியை	-10.6213
▁மேற்கொள்ளும்	-10.6215
▁நிறுத்திய	-10.6215
▁காளி	-10.6216
வர்களிடம்	-10.6216
▁பொதுமக்களுக்கு	-10.6216
▁தெரிவிக்கும்	-10.6217
▁ஆகியோரின	-10.6218
▁எதுவும	-10.6224
▁துயர	-10.6228
▁மீதமுள்ள	-10.6229
▁ஆளுநருக்கு	-10.623
▁சொல்கிறது	-10.6233
▁ஒன்றான	-10.6238
ய்யா	-10.6241
▁அமைச்ச	-10.6241
▁பெருக்க	-10.6244
▁செய்வதில்	-10.6246
▁பேசுகிறார்	-10.6247
▁நாசா	-10.6249
29	-10.6249
▁வித்தியாசமான	-10.6252
▁செலவிட	-10.6252
▁ஆதார்	-10.6255
▁சுமத்த	-10.6256
▁பெண்ணின	-10.6257
▁எடுக்கவில்லை	-10.626
▁வீடுகளை	-10.626
▁உத்தரகாண்ட்	-10.6265
▁தீட்சிதர்	-10.6265
▁கிங்ஸ்	-10.6265
▁குடியேற	-10.6266
▁வாயு	-10.6268
▁பாருங்கள்	-10.6271
▁மணிப்பூரில்	-10.6271
▁சீட்டு	-10.6272
▁திமுகவில்	-10.6273
வலி	-10.6274
▁முயற்சித்த	-10.6276
▁திமுகவை	-10.6277
நகரில்	-10.6278
▁பாதித்த	-10.6279
▁இயற்ற	-10.6281
▁பெற்றுள்ளார்	-10.6285
▁குறைந்தபட்ச	-10.6286
▁வட்டாரத்தில்	-10.6288
▁போட்டியாளர்கள	-10.6294
▁கும்பல	-10.6294
▁ஆகிவிட்ட	-10.6295
▁அளித்துள்ளது	-10.6297
▁நிகழ்ச்சிகளில்	-10.6299
சாலை	-10.6302
▁ரன்களுக்கு	-10.6305
▁நிற்ப	-10.6306
▁தொங்க	-10.6317
▁உண்ண	-10.6319
▁ஆயுதங்கள்	-10.632
▁தெரிந்தது	-10.6324
▁முதன்முதல	-10.6327
▁முன்னெச்சரிக்கை	-10.6327
▁படேல்	-10.6328
▁விவரித்த	-10.6328
lo	-10.6329
▁இன்ஸ்பெக்டர்	-10.6335
▁கட்சியினர	-10.6336
▁சீசனில்	-10.6338
வாலா	-10.6339
▁கணித்த	-10.6346
▁அற்புதமான	-10.6347
▁கூகுள்	-10.6347
▁குழி	-10.635
88	-10.6351
▁இந்துக்கள்	-10.6357
▁அரங்கில்	-10.6359
சென்னை	-10.6363
▁பிறகே	-10.6364
▁முழுவத	-10.6366
▁பணியாற்றும்	-10.6369
▁பேசியபோது	-10.6374
▁உரிமையை	-10.6375
▁வேளை	-10.6382
▁காலில்	-10.6384
▁சுவை	-10.6389
▁விவாகரத்து	-10.639
▁எலிசபெத்	-10.639
▁யாகசாலை	-10.6391
▁புத்தாண்டு	-10.6392
▁தொகுப்ப	-10.6393
▁பரிகார	-10.6393
▁உங்களுடைய	-10.6393
▁மட்டுமல்லாது	-10.6396
▁சாவி	-10.6397
▁பரவும்	-10.6399
▁தயாரித்த	-10.6403
ிந்திய	-10.6403
▁கொடியை	-10.6405
▁வேலுமணி	-10.6405
▁கூட்டணியை	-10.6405
▁விடாமல்	-10.6406
▁மாதத்திற்கு	-10.6407
▁வந்திருக்கிறார்	-10.6408
▁பரிமாற்ற	-10.6408
▁குற்றம்சாட்டிய	-10.6409
ac	-10.6409
▁ஒழுங்க	-10.6414
▁போராட்டங்களை	-10.6424
▁நெருக்கடியை	-10.6425
▁விலகிய	-10.6425
▁இணையதளத்தில்	-10.6434
▁கடையில்	-10.6435
▁அழைக்கப்பட்ட	-10.6439
க்கொள்கிறேன்	-10.6441
▁சட்டவிரோதமாக	-10.6442
▁கொண்டதாக	-10.6444
▁பேரு	-10.6446
▁கண்டித்த	-10.6449
ாதீங்க	-10.6451
▁பாடல்கள்	-10.6452
▁உடற்பயிற்சி	-10.6453
▁நிர்வாண	-10.6453
▁காமெடி	-10.6453
▁பொறுமை	-10.6453
▁மாற்றங்களை	-10.6454
▁தேர்தலுக்கான	-10.6454
▁காரணங்களால்	-10.6455
▁அருள்பாலித்தார்	-10.646
▁உடலுக்கு	-10.646
▁ஆலோசகர	-10.646
▁பிடிஆர்	-10.6461
▁டொ	-10.6465
▁பட்டியலை	-10.6466
▁தெரிவிக்கிறது	-10.6468
▁அர்த்த	-10.6468
▁ஜீவ	-10.6472
டெக்	-10.6474
▁காவலர்கள்	-10.6478
▁கொள்ளுங்கள்	-10.6479
ma	-10.6481
▁பயந்து	-10.6485
▁வெளியாகும்	-10.6487
▁நகைகளை	-10.6488
▁h	-10.6497
▁மாவட்டத்தின்	-10.6501
▁மறைக்க	-10.6506
▁வேகம்	-10.6508
▁புகுந்த	-10.6512
▁நெருங்க	-10.6514
▁காஷ்மீர	-10.6515
▁நிறைவேற	-10.6517
▁அவிநாசி	-10.6517
▁நவராத்திரி	-10.6517
▁இதேவேளை	-10.6517
▁நெகிழ்ச்சி	-10.6517
▁மோட்டார்	-10.6517
▁ஈடுபடுத்த	-10.6522
ானந்த	-10.6523
▁சிலையை	-10.6524
▁கற்பனை	-10.6525
▁ஏமாற்றி	-10.653
▁தரப்புக்கு	-10.6533
▁கொண்டிருந்தனர்	-10.6536
▁சரக்கு	-10.6536
ீஸ்வர	-10.6538
▁எப்போதுமே	-10.6538
▁செய்வதால்	-10.6543
▁எல்லோர	-10.6543
▁குதித்த	-10.6546
▁அனுமதிக்கப்பட	-10.6549
▁முயல	-10.6549
▁தட்டு	-10.6549
▁வல்லுநர்கள்	-10.6549
▁தயாரிப்பாளர்	-10.6551
▁இறுதியாக	-10.6558
78	-10.656
▁உளவுத்துறை	-10.6563
▁செய்திகளை	-10.6564
▁கையெழுத்த	-10.6577
▁உயர்ந்து	-10.6578
▁கற்க	-10.6579
▁செயற்குழு	-10.6581
▁நிர்மாண	-10.6581
▁அருகிலுள்ள	-10.6581
▁மக்கள்தொகை	-10.6581
▁ஆன்லைனில	-10.6581
▁பத்தாம்	-10.6582
▁குணவர்தன	-10.6582
▁விவரம்	-10.6582
▁நான்காம்	-10.6584
▁65	-10.6584
▁கடினம்	-10.6585
▁இடம்பெற்றது	-10.6588
▁உரிமைகளை	-10.659
▁மாஸ்டர்	-10.6591
▁அவனை	-10.6593
▁உத்தி	-10.6599
▁கையை	-10.66
▁எஃப்	-10.6602
▁பரந்த	-10.6604
▁டான்	-10.6607
▁குற்றம்சாட்டி	-10.6609
▁விடுவிக்கப்பட்ட	-10.6611
▁வயிற்று	-10.6612
▁புத்தகத்தில்	-10.6612
▁கிறிஸ்	-10.6612
▁மாகாணத்தில்	-10.6613
▁முன்வந்த	-10.6614
▁மாவட்டங்கள்	-10.6619
▁நைட்	-10.6619
▁விக்ரம்	-10.6621
ட்டேன்	-10.6627
▁வர்ண	-10.6629
▁போராடிய	-10.6632
▁விநியோகம்	-10.6634
▁இயங்கும்	-10.6636
▁அளித்தனர்	-10.6638
▁அலட்சிய	-10.6646
▁புலம்பெயர்	-10.6646
▁முற்றுகை	-10.6646
▁உட்கட்சி	-10.6646
▁சந்திக்கும்	-10.6648
▁புரோ	-10.665
▁ரெடி	-10.6653
▁ஆராதனை	-10.6654
▁ஏற்பட்டால்	-10.6657
▁துப்பாக்கிச்	-10.666
▁இத்திட்டத்த	-10.6664
▁சேகர்	-10.6665
▁அதிலிருந்து	-10.6666
▁விழாவின்	-10.6678
போதெல்லாம்	-10.6678
▁வளர்த்து	-10.6679
▁வெடித்து	-10.6679
▁இப்படித்தான்	-10.6679
▁வாதங்கள	-10.6682
▁பிளே	-10.6686
▁கிளப்பி	-10.6688
▁வகுப்ப	-10.6689
▁திட்டத்திற்கு	-10.6693
விடாமல்	-10.6698
அழகிரி	-10.6701
ap	-10.6702
▁அரங்கேற	-10.6708
▁பரிவர்த்தனை	-10.671
▁மார்க்கெட்	-10.6712
▁ஆர்ப்பாட்டம்	-10.6714
▁இந்நிகழ்வில்	-10.6716
▁திட்டமிட்டுள்ள	-10.6725
மில்லாமல்	-10.6726
▁செய்வதை	-10.673
▁இருந்தேன்	-10.6734
க்காரர்கள்	-10.6741
▁46	-10.6743
தமிழக	-10.6744
▁மகிழ்ச்சியை	-10.6744
▁கோப்பையை	-10.6745
▁பிரியா	-10.6747
▁தாங்கி	-10.6749
▁47	-10.6751
கிரா	-10.6758
விடுவார்	-10.6758
▁பகுதிகளுக்கு	-10.6759
▁நெருங்கி	-10.6763
100	-10.677
▁கத்தார்	-10.6773
▁வைத்திருக்கும்	-10.6774
▁நெடு	-10.6775
▁அதிர்ஷ்ட	-10.6776
▁ஆர்வலர்கள்	-10.6776
▁கட்டியெழுப்ப	-10.6776
▁கூற்றுப்படி	-10.6776
▁தனிநபர்	-10.6776
▁நீரிழிவு	-10.6776
▁பழிவாங்க	-10.6776
▁பிரசாந்த்	-10.6776
▁கால்பந்து	-10.6776
▁மாணிக்க	-10.6776
ந்தோறும்	-10.6777
▁பிரேசில	-10.6777
▁மக்களிடையே	-10.6777
▁விரிவாக்க	-10.6778
▁பேரரச	-10.678
27	-10.6783
▁முடங்க	-10.6784
▁ஃபே	-10.6788
▁பக்கத்து	-10.6798
▁புகைப்படங்கள்	-10.6798
▁கரும்பு	-10.6799
▁பூர்வ	-10.6802
▁தண்ணீரை	-10.6803
▁கொடுத்துள்ளார்	-10.6808
▁கருதப்படும்	-10.6809
▁கோரிக்கைகளை	-10.6811
▁43	-10.6812
▁தங்கிய	-10.6813
2023	-10.6813
▁மெகா	-10.6815
▁அச்சுறுத்தல்	-10.6816
▁உக்ரைனில	-10.6816
▁இலவசமாக	-10.6818
▁கழகத்தின்	-10.682
க்கென	-10.6822
▁வீரர்களுக்கு	-10.6825
ti	-10.6829
ில்லாமல்	-10.683
tion	-10.6832
62	-10.6833
▁மாதா	-10.6838
▁தொகுப்பு	-10.684
▁வழிபாட்டு	-10.6842
▁கொண்டிருந்தது	-10.6844
▁உணர்த்த	-10.6846
▁எதிர்த்த	-10.6849
▁ராஜேஷ்	-10.685
▁இருந்ததை	-10.685
▁புகழ	-10.6854
விட்டதாகவும்	-10.6859
▁அறிவுறுத்திய	-10.6867
▁புகாரில்	-10.6869
▁அய்ய	-10.687
▁தங்கை	-10.6872
▁விண்ணப்பித்த	-10.6875
▁வாக்க	-10.6878
▁கல்வித்துறை	-10.6878
▁பாண்டிய	-10.6881
▁அற்புத	-10.6887
▁கடைசியில்	-10.6892
ப்பொருட்கள	-10.6894
▁தயாரித்து	-10.6895
▁தடவை	-10.6906
ச்சேரி	-10.6907
▁வாழ்வில்	-10.6907
▁அரண்மனை	-10.6908
▁அர்ச்சகர்	-10.6908
▁சோவியத்	-10.6908
▁பிற்பகல்	-10.6908
▁மேற்பார்வை	-10.6908
▁வேடிக்கை	-10.6908
▁வைத்துள்ளனர்	-10.6908
▁புரிந்துகொள்ள	-10.691
▁நிதான	-10.691
▁வெளியேறும்	-10.6911
▁வலுவாக	-10.6911
▁நலத்திட்ட	-10.6911
▁பலியாகி	-10.6912
▁டெங்கு	-10.6916
▁2010	-10.6918
▁சொன்னால்	-10.6925
▁நிர்ணயிக்க	-10.6926
▁பஞ்சாப	-10.6927
▁விண்ணப்பிக்க	-10.6928
▁அவதி	-10.6931
▁உருவாகும்	-10.6936
ுகிறதா	-10.6941
கீழ்	-10.6943
▁கரி	-10.6946
▁நிலைமையை	-10.6947
▁தடுக்கும்	-10.6948
▁f	-10.695
மாட்டார்	-10.6951
ta	-10.6955
▁அமர்வ	-10.6959
▁ரசிகர்களுக்கு	-10.6961
ஜெய	-10.6963
ate	-10.6964
▁இப்பகுதி	-10.6966
▁பரவியது	-10.697
▁அறுவடை	-10.6975
▁கர்ப்பிணி	-10.6975
▁சுயேச்சை	-10.6975
▁வழிவகுக்க	-10.6975
▁எழுச்சி	-10.6975
▁பந்துவீச்சு	-10.6975
▁புகாரளித்த	-10.6976
▁வளர்ச்சியை	-10.6977
லியன்	-10.6979
▁வெளியாகியுள்ளன	-10.6979
▁தயங்க	-10.698
▁தேவையற்ற	-10.6981
▁யாரோ	-10.6988
▁கணிக்க	-10.6993
▁முதலமைச்சராக	-10.6997
க்கிங்	-10.7005
▁வாகனங்களை	-10.7006
▁நினைவில்	-10.7006
▁கிமீ	-10.7008
ப்படுகிறார்கள்	-10.7012
▁சுவாச	-10.7024
▁தீவிரப்படுத்த	-10.7025
▁மணல்	-10.7027
▁உணர்ந்து	-10.7027
▁அனுமதித்த	-10.7029
வாசல்	-10.703
▁மாட்டார்	-10.7036
▁பொறுப்பில்	-10.7037
▁பேண	-10.7038
▁அவதூறு	-10.7042
▁வடகிழக்கு	-10.7042
▁தேவாலய	-10.7042
▁புரட்டாசி	-10.7042
▁செல்கின்றனர்	-10.7043
▁பிரிந்த	-10.7045
▁அவர்களுடைய	-10.7046
நீர	-10.7048
▁யூனிட்	-10.705
▁செய்யுங்கள்	-10.7055
▁அடைந்தனர்	-10.7059
▁ஆணைக்குழு	-10.706
க்காய்	-10.7062
ிருப்பார்கள்	-10.7064
▁தருமபுரி	-10.7067
▁கேட்டால்	-10.7071
▁வசிக்க	-10.708
ப்படுவதாகவும்	-10.7081
▁எடுக்கப்பட்டு	-10.7082
▁நூல	-10.7084
▁செய்வார்	-10.7088
▁போற்ற	-10.7096
ion	-10.7099
ாரோ	-10.7106
▁திருநங்கை	-10.7109
▁இல்லையென்றால்	-10.7109
▁விரிவுபடுத்த	-10.7109
▁பிக்பாஸ்	-10.711
▁விபத்த	-10.711
▁நிலத்தில்	-10.711
▁சேதமடைந்த	-10.7111
▁கோதுமை	-10.7111
▁பேரையும்	-10.7112
▁ரன்ரேட்	-10.7115
விடலாம்	-10.7115
▁மீண்டு	-10.7115
▁பங்களா	-10.7116
▁வைப்பது	-10.7116
▁பேரா	-10.7116
▁மீட்புப்	-10.7122
▁முகாம	-10.7122
▁தோழி	-10.7123
▁பறக்கும்	-10.7124
▁நடப்பு	-10.7129
▁பண்ற	-10.7131
விளை	-10.7131
▁தீவிரவாதிகள	-10.7135
▁J	-10.7135
▁பேரறிவாளன்	-10.7136
▁வீடியோக்கள்	-10.714
▁காலியாக	-10.715
விடுவார்கள்	-10.715
▁Re	-10.7153
▁பிள்ளைகள்	-10.7153
▁ஐநா	-10.7154
▁கேலி	-10.7158
▁சைவ	-10.7159
▁வாழை	-10.716
▁அமைச்சக	-10.7162
வென	-10.7165
▁விடுத்தார்	-10.7167
▁சிறுபான்மையினர	-10.7172
▁கவுன்சில்	-10.7173
▁வரலாற்ற	-10.7176
▁சூழ்ந்த	-10.7177
▁பிரம்மாண்ட	-10.7177
▁பிரார்த்தனை	-10.7177
▁கோளாறு	-10.7177
▁திருக்கோயில்	-10.7177
▁முன்பதிவு	-10.7177
▁லண்டன்	-10.7177
ாவிட்டாலும்	-10.7178
▁புதுவை	-10.7178
▁சவால்களை	-10.7182
▁சிங்கள	-10.7184
▁அலுவலகத்திற்கு	-10.7185
5%	-10.7188
▁படையினர	-10.719
pe	-10.719
▁ஓய்வ	-10.7192
▁தத்துவ	-10.7193
ஊழல	-10.7195
59	-10.7195
▁இத	-10.7197
ிற்கே	-10.72
The	-10.7201
▁பயப்பட	-10.7202
▁பெறுவதற்கு	-10.7202
▁பௌத்த	-10.7206
▁வெளிப்படுத்திய	-10.7208
▁பிறந்தநாள	-10.7211
▁ஆகியவற்றில்	-10.7211
▁உண்மையை	-10.7213
▁குறைத்த	-10.7216
▁நம்பிய	-10.7218
▁வெளியிடப்பட்டது	-10.7221
▁ஆண்டுகால	-10.7221
▁அறிவிக்கப்பட	-10.7226
▁பெறலாம்	-10.7231
▁கடற்கரையில்	-10.7233
▁செல்லும்போது	-10.7237
ow	-10.7239
▁அந்தஸ்து	-10.7244
▁வருஷ	-10.7245
▁விமர்சகர்	-10.7246
▁பஞ்சாயத்து	-10.7246
▁பாகுபாடு	-10.7246
▁வைகாசி	-10.7246
▁பாதுகாத்த	-10.7247
▁ஆப்பிரிக்க	-10.7249
▁பேரழிவ	-10.7249
▁நம்புகிறேன்	-10.725
▁விமானப்படை	-10.7255
▁அதிகரித்தது	-10.7255
▁பாண்டியா	-10.7257
▁ரேஷன்	-10.726
க்கோட்டை	-10.7261
▁மிரட்டிய	-10.7261
▁ஏலம்	-10.7267
▁டோஸ்	-10.7268
▁சௌதி	-10.7269
▁சினிமாவில்	-10.7273
▁பிரிக்க	-10.7274
▁அங்கேயே	-10.7277
▁வெறி	-10.7283
▁கணக்கெடுப்பு	-10.7284
▁கவலைப்பட	-10.7284
▁தற்காலிகமாக	-10.7286
▁வளர்ச்சிக்கு	-10.7287
▁வெல்	-10.7291
▁தேர்வை	-10.7293
▁கல்லூரிகளில்	-10.7295
▁வழங்கப்பட்டுள்ள	-10.73
▁மாளிகையில்	-10.7305
▁என்றெல்லாம்	-10.7306
▁கடற்றொழில்	-10.7315
▁சரஸ்வதி	-10.7315
▁பிரம்மோற்சவ	-10.7315
▁தொழிலாளி	-10.7315
▁சித்தாந்த	-10.7315
▁பார்ப்பது	-10.7318
▁அதுவரை	-10.732
▁பரவல	-10.732
▁விரும்புகிறார்	-10.7321
▁தொடுத்த	-10.7321
▁2012	-10.7322
ak	-10.7323
▁கூறியதாக	-10.7323
▁சிவாஜி	-10.7323
▁சுட்டிக்காட்டிய	-10.7325
▁நடமாட	-10.7329
co	-10.734
வள்	-10.7341
▁அமைப்பினர்	-10.7341
மாத	-10.7343
▁கேள்விகளுக்கு	-10.7343
▁குடும்பங்கள்	-10.7343
▁நியூஸ்	-10.7347
▁வைக்கப்பட்டு	-10.7348
குழந்தை	-10.7353
▁தொழிலை	-10.7354
▁தரப்பினரும்	-10.7366
▁ஏற்படவில்லை	-10.7368
▁திமுகவுக்கு	-10.7369
▁சொல்லவில்லை	-10.7372
▁முன்னேறி	-10.7377
▁தலைவி	-10.7379
▁வரியை	-10.738
▁சாம்பியன்	-10.7384
▁சுழற்சி	-10.7384
▁மல்யுத்த	-10.7384
▁மேல்முறையீடு	-10.7384
▁பிரதிஷ்டை	-10.7384
▁சாகுபடி	-10.7384
▁அந்நாட்டின	-10.7384
▁உயிரினங்கள	-10.7385
▁எலான்	-10.7385
▁ஆழ்ந்த	-10.7386
▁கற்ற	-10.739
▁இக்கோயில	-10.7391
▁வெளிநாட்டில	-10.7395
ுவோர்	-10.7397
▁கண்காணித்து	-10.74
▁சமயங்களில்	-10.7402
▁குடித்து	-10.7404
▁தினங்களுக்கு	-10.7406
▁சாசன	-10.7408
▁அப்படித்தான்	-10.7411
▁இடத்திலும்	-10.7411
▁திருட்டு	-10.7413
▁மாட்டு	-10.7414
▁எட்டி	-10.7414
ம்பாக்கம்	-10.7429
▁என்பவரை	-10.7435
▁வினோத்	-10.7435
▁சென்றுள்ளனர்	-10.7436
61	-10.7441
▁அசைவ	-10.7447
▁கூறுகின்றன	-10.7448
க்கெல்லாம்	-10.7451
▁வழங்குவதற்கு	-10.7451
▁அவகாசம்	-10.7454
▁திரௌபதி	-10.7454
ீங்களா	-10.7455
▁திருப்பத்தூர்	-10.7456
▁செய்கின்றனர்	-10.7466
▁2006	-10.7467
▁நடராஜர்	-10.7469
▁தெருவில்	-10.7471
▁பழமை	-10.7473
vs	-10.7476
▁வாதம்	-10.7478
▁சைக்கிள்	-10.7479
▁துர்	-10.748
▁கொண்டுவரப்பட்ட	-10.748
தோறும்	-10.7482
op	-10.7484
▁உணர்வ	-10.7488
▁சிட்டி	-10.749
▁நுழைந்து	-10.7492
▁கொல்லப்பட்டனர்	-10.7493
தானா	-10.7497
▁ஊசி	-10.7502
▁செஞ்சி	-10.7504
▁புகைப்படத்தை	-10.7504
em	-10.7506
ஏக்கள்	-10.7506
▁தைவான்	-10.7509
▁ஆங்கிலேயர்	-10.751
▁உருவானது	-10.7511
▁செல்வதை	-10.7513
▁தீவிரமான	-10.7516
▁செய்வார்கள்	-10.7519
▁சமாஜ்	-10.7524
▁அன்றாட	-10.7524
▁இடையூறு	-10.7524
▁தேங்காய்	-10.7524
▁மாதவிடாய்	-10.7524
▁முன்னெடுப்ப	-10.7524
▁மறுபடியும்	-10.7525
▁கமல்ஹாசன	-10.7525
▁சந்திரசூடன	-10.7525
▁ராமச்சந்திர	-10.7525
▁தெரிந்துகொள்ள	-10.7527
▁தலைமையக	-10.7528
▁மன்னார்	-10.7528
விடுகிறது	-10.7528
▁பிரவேச	-10.7528
▁பாருங்க	-10.7534
▁கவர்ந்த	-10.7536
▁தெளிவான	-10.7536
யென	-10.7537
▁2008	-10.7537
▁அன்னை	-10.7539
▁மறைத்து	-10.7545
▁வீடியோக்களை	-10.7553
▁விரும்பி	-10.7564
▁49	-10.7564
▁மதிய	-10.7566
பிற்படுத்தப்பட்ட	-10.7575
um	-10.7576
▁வளரும்	-10.7585
▁விற்று	-10.7594
▁கலெக்டர்	-10.7595
▁நெறிமுறை	-10.7595
▁பருவமழை	-10.7595
▁ராஜ்யசபா	-10.7595
▁நாற்காலி	-10.7595
▁அதேநேரத்தில்	-10.7595
▁அரசாணை	-10.7595
▁அர்ஜுன	-10.7595
▁சிந்திக்க	-10.7597
▁பும்ரா	-10.7598
▁கெலாட்	-10.7599
▁மகாலட்சுமி	-10.7599
▁தூதர்	-10.7602
▁கார்த்திகை	-10.7603
லிங்	-10.7609
▁காலகட்ட	-10.761
▁சான்று	-10.7614
▁ப்ளே	-10.7617
▁சத்தீஸ்கர்	-10.7618
▁குழ	-10.7621
3,000	-10.7622
▁காட்டிலும்	-10.7629
▁அதிகாரிகளும்	-10.7629
▁சவால்கள்	-10.7629
▁ஈடுபட்டுள்ளனர்	-10.764
▁அடங்க	-10.7649
▁அமைப்பில்	-10.7655
▁இன்ப	-10.7655
▁அதிகரித்துள்ள	-10.7657
▁நடக்கவில்லை	-10.7659
200	-10.7659
▁இதுபோல	-10.7661
▁மதிப்பிட	-10.7665
▁வளர்மதி	-10.7667
▁மேற்கோள்	-10.7667
▁தாமதமாக	-10.7667
▁மருந்துகளை	-10.7667
▁மற	-10.767
ப்படுகிற	-10.7671
▁பிளான்	-10.7671
▁முன்னோர்கள	-10.7671
▁நெருக்க	-10.7676
▁திமுகவினர்	-10.7678
▁கிருஷ்ணா	-10.7678
▁துரத்த	-10.7681
▁வெச்ச	-10.7681
▁எம்ஜிஆர்	-10.7682
▁செய்தேன்	-10.7689
▁விளக்கினார்	-10.7694
▁சிரிப்ப	-10.7696
▁கணக்கெடுப்ப	-10.7699
▁கொன்று	-10.7703
▁அம்பாள்	-10.7704
நிறுத்த	-10.7704
▁மதிப்பீடு	-10.7704
ப்பற்றி	-10.7708
▁காப்ப	-10.7709
▁ஏற்படலாம்	-10.7709
யிலிருந்த	-10.7722
ண்டோ	-10.7722
▁சீர்திருத்த	-10.7727
▁நெற்	-10.7728
▁பாட்டில்	-10.7735
்பதற்கான	-10.7735
▁எண்ணிக்கையை	-10.7735
▁ரசிகர்களை	-10.7736
▁சஸ்பெண்ட்	-10.7739
▁விக்கிரமசிங்க	-10.7739
▁நிரூபித்த	-10.7739
▁யோசிக்க	-10.7739
▁கறுப்பு	-10.7739
▁இத்தாலி	-10.7739
▁அகல	-10.7739
▁உத்தரபிரதேச	-10.774
▁பரிமாற	-10.7741
▁கையெழுத்து	-10.7742
▁அக்கா	-10.7744
▁மில்லி	-10.7748
▁கூட்டமைப்ப	-10.775
▁விட்டனர்	-10.7751
▁வருமானத்தை	-10.7756
▁கனடாவில்	-10.7759
▁51	-10.7763
▁சீல்	-10.7767
▁கடக்க	-10.7779
▁துணிச்சல	-10.778
▁திராவிடர்	-10.7787
▁வளைய	-10.7789
▁வெடிக்க	-10.779
▁முற்ற	-10.7791
▁திறனை	-10.7793
▁நேர்ந்த	-10.7801
▁அமர்ந்திருந்த	-10.7802
தனால்	-10.7806
▁ஞாயிற	-10.7811
▁நல்லிணக்க	-10.7811
▁விளக்கமளித்த	-10.7811
▁இறுதிப்போட்டி	-10.7811
▁சிலிண்டர்	-10.7811
▁அஜய்	-10.7811
▁ஒருபுறம்	-10.7812
▁சந்திரயான்	-10.7812
▁பொன்முடி	-10.7812
me	-10.7813
▁பாடல	-10.7815
▁வக்ர	-10.7815
▁அடுத்ததாக	-10.782
▁முன்வைக்கப்பட்ட	-10.7821
▁டாஸ்	-10.7822
▁கேட்ச்	-10.7822
மக்கள்	-10.7823
▁நேர்த்தி	-10.7825
▁தண்ணீரில்	-10.7825
▁வட்டாரங்கள்	-10.7828
நாங்கள்	-10.7831
▁தமிழ்நாட்ட	-10.7832
▁நம	-10.7833
▁வாக்காளர்கள்	-10.7835
▁மதிப்புள்ள	-10.7836
▁வகுத்த	-10.7841
▁தப்பிக்க	-10.7845
▁குடும்பத்துடன்	-10.7846
▁அவரே	-10.7849
▁ரீதியாகவும்	-10.7853
▁ஆனி	-10.7854
▁சோர்வ	-10.7856
▁வந்துவிட்டது	-10.786
▁சட்டமன்றத்தில்	-10.7861
▁மதத்தை	-10.7865
▁எச்சரிக்க	-10.7866
▁மரபு	-10.7877
▁தொழிற்	-10.7877
▁அவசரமாக	-10.7879
▁சபரிமலை	-10.7884
▁தசாப்த	-10.7884
▁பகுஜன்	-10.7884
▁தாலுகா	-10.7884
▁தானிய	-10.7888
▁தன்னிடம்	-10.7893
மத்திய	-10.79
▁ஒப்புதல	-10.7901
▁விரும்பிய	-10.7908
மாற்றம்	-10.7909
▁காத்து	-10.7913
▁சொல்லலாம்	-10.7914
▁நிலையங்கள்	-10.7921
na	-10.7922
▁எதற்காக	-10.7923
▁காங்	-10.7923
▁தொற்றுநோய	-10.7923
▁தாக்குதல	-10.7925
▁கார்கே	-10.7928
▁பயணத்தின்	-10.7938
▁திருவிழாவில்	-10.7939
▁ஆராதனைகள்	-10.7949
ிருக்கேன்	-10.7952
ற்கால	-10.7954
▁பார்க்கிறார்	-10.7956
▁வெடிகுண்டு	-10.7958
▁ஊக்குவிப்ப	-10.7958
▁இரங்கல்	-10.7958
▁டிஜிபி	-10.7958
▁வழித்தட	-10.7958
▁பிரபாகரன	-10.7958
▁தருணத்த	-10.7958
▁#	-10.796
55	-10.7966
AN	-10.7969
▁தெளிவ	-10.797
▁பார்ப்போம்	-10.7972
▁2023-	-10.7981
▁துளை	-10.7984
▁கலங்க	-10.7987
▁நாவல	-10.799
▁குறைவ	-10.7992
▁பழங்குடியினர்	-10.7996
▁டய	-10.7996
ப்பெரு	-10.7997
48	-10.8006
▁சட்டப்பேரவையில்	-10.8008
▁ஹூ	-10.8008
▁வேட்பாளர	-10.8017
▁இஸ்லாமியர்கள்	-10.8018
▁நிர்ணய	-10.8021
▁விதத்தில்	-10.8027
▁செவ்வாய்க்கிழமை	-10.8032
▁ஜல்லிக்கட்டு	-10.8032
▁நேர்த்திக்கடன்	-10.8032
▁படையெடுப்ப	-10.8032
▁அதீத	-10.8032
▁ஒழிக்க	-10.8032
▁வனத்துறையினர்	-10.8033
▁அதிகாரபூர்வ	-10.8035
ப்போவதாக	-10.8036
▁புகுந்து	-10.8037
▁ஆட்சியர	-10.8043
▁குடியிருப்ப	-10.8044
▁கீதா	-10.8052
▁போற்றி	-10.8054
▁நூலக	-10.8056
▁விரைவு	-10.8058
▁எழுந்தருள	-10.806
▁மாட்டி	-10.8063
▁குற்றச்சாட்டை	-10.8063
▁சேவ	-10.8064
▁கமிஷன்	-10.8066
▁பங்களிப்பை	-10.8067
▁மூழ்கி	-10.8068
▁பின்பற்றி	-10.8075
ஃபார்ம	-10.8076
▁ஸ்டாலினை	-10.8085
▁ரவீந்திர	-10.8085
வைக்கப்பட்ட	-10.8085
▁அதுபோல	-10.809
52	-10.8091
▁உரையாற்றிய	-10.8093
▁மனதை	-10.8093
▁வருகின்றது	-10.8099
▁இளைஞர்களுக்கு	-10.81
▁முன்வர	-10.8104
▁இளவரசர்	-10.8106
▁முத்திரை	-10.8107
▁ஆய்வக	-10.8108
▁டார்	-10.8112
▁மேற்கண்ட	-10.8113
ப்படுவதில்லை	-10.8114
▁பயிரிட	-10.8115
▁எத்தனையோ	-10.8119
▁இதெல்லாம்	-10.8119
▁ஆம்புலன்ஸ்	-10.812
▁பேராசிரியர	-10.8125
▁பாகிஸ்தானுக்கு	-10.8125
▁புதுச்சேரியில்	-10.8127
▁Ma	-10.8129
▁குழுவினர	-10.8134
▁மாறியுள்ளது	-10.8136
கண்ண	-10.814
பெருமாள்	-10.8151
▁மீனா	-10.8155
▁அண்ட்	-10.8157
▁எல்லாமே	-10.8162
▁அக்கட்சியின	-10.8164
▁தோல்	-10.8164
▁காரணத்தை	-10.8164
▁தென்னிந்திய	-10.8165
▁250	-10.8173
▁கொத்த	-10.8176
▁Doctor	-10.8182
▁இன்ஸ்டாகிராம்	-10.8182
▁ஊட்டச்சத்து	-10.8182
▁எதிரொலி	-10.8182
▁பிரத்யேக	-10.8182
▁மனிதாபிமான	-10.8182
▁ரசாயன	-10.8182
▁வடிவமைக்கப்பட்ட	-10.8182
▁வாக்குமூலம்	-10.8182
▁ட்ரோன்	-10.8182
▁சீரியலில	-10.8185
▁வரவேற்பை	-10.8191
▁தீர்மானித்த	-10.8192
▁பரிந்துரைத்த	-10.8193
க்கிட்டு	-10.8193
▁சபா	-10.8193
ட்டாங்க	-10.8195
▁சுவர்	-10.8197
ப்பிரிவ	-10.8198
திலிருந்தே	-10.8198
முதல்	-10.82
▁வசூல்	-10.8203
▁ஹமாஸ	-10.8204
▁திருமணத்திற்கு	-10.8205
▁தைவான	-10.8206
▁உருவெடுத்த	-10.8208
காலத்தில்	-10.8209
▁சர்வே	-10.8218
▁அவசியமான	-10.8222
▁அனுபவிக்க	-10.8225
ஹெ	-10.8227
பாபு	-10.8228
ுவாரா	-10.8229
▁நிலநடுக்க	-10.823
▁ஆளு	-10.8234
▁செல்லாது	-10.8235
81	-10.8235
▁முன்னால்	-10.8236
▁நீரில்	-10.8237
▁குன்ற	-10.8237
▁இனிப்பு	-10.8239
▁கொரிய	-10.8244
▁தலைமறைவாக	-10.8257
▁விரக்தி	-10.8257
▁முரளி	-10.8258
▁ஏழாம	-10.8258
▁பேட்டரி	-10.8258
▁விசிக	-10.8258
▁குழாய்	-10.8259
▁நத்தம்	-10.8261
▁உனக்கு	-10.8261
▁காத்திருப்ப	-10.8269
▁ஆதிக்க	-10.8275
▁விண்ண	-10.8276
▁நிகழ்வை	-10.8278
▁முகாமில்	-10.8278
65	-10.8281
ெழ	-10.8285
▁அடைத்து	-10.8286
▁நாராயணன்	-10.83
▁கவனித்த	-10.8301
பன்னீர்	-10.8302
▁அமைதியான	-10.8302
▁சுட்டு	-10.8303
ியுங்கள்	-10.8306
▁சந்திரன்	-10.8307
▁அடித்தார்	-10.8307
▁போருக்கு	-10.8309
▁முதன்	-10.831
▁பொறுப்பாளர்	-10.8311
82	-10.8313
▁தடுமாற	-10.8314
▁மாச	-10.8316
▁தூங்கி	-10.8316
▁பயிற்சியாளர்	-10.8317
▁குடித்த	-10.8321
▁வைகை	-10.8322
▁மேற்கொள்	-10.8328
▁தடுத்த	-10.833
▁செலாவணி	-10.8334
▁தேமுதிக	-10.8334
▁முகாமைத்துவ	-10.8334
▁வாஷிங்டன்	-10.8334
*	-10.8334
▁கேரக்டர	-10.8334
▁மாநாட்டு	-10.8334
▁ஆசிரியை	-10.8334
▁எதிர்நோக்க	-10.8334
▁புறப்பாடு	-10.8335
ாபாத்	-10.8336
96	-10.8337
▁கொழு	-10.8345
▁அருவி	-10.8345
▁ராஜஸ்தானில்	-10.8346
▁போலீஸ	-10.8347
ia	-10.8347
▁உள்ளடக்க	-10.8348
▁முற்றிலுமாக	-10.8355
▁விரத	-10.8357
▁கொள	-10.8362
▁கடைகளில்	-10.8364
▁In	-10.8366
▁முக்கியமானதாக	-10.8368
▁சட்டத்திற்கு	-10.8369
▁ஒப்பிட	-10.8369
▁சுனில்	-10.837
▁ஸ்கோர்	-10.8376
▁சேனல	-10.8377
▁வலைத்தளங்களில	-10.838
▁என்னோட	-10.8386
▁விநியோகிக்க	-10.8389
▁சதவீதமாக	-10.8394
▁இதோ	-10.8396
▁சொல்வதை	-10.8402
▁பார்த்தபோது	-10.8406
▁கட்டணத்தை	-10.8408
▁இயக்கிய	-10.841
▁கோலாகலமாக	-10.8411
▁புறக்கணிக்க	-10.8411
▁எங்களது	-10.8411
▁காவடி	-10.8411
▁கபில	-10.8413
▁தயக்க	-10.8414
▁திரளான	-10.8417
▁காப்பக	-10.842
▁ராயல்	-10.8422
▁விஜே	-10.8424
கொலை	-10.843
▁நடராஜன்	-10.843
▁போஸ்ட்	-10.8439
▁வார்த்தைகளை	-10.844
▁சுதா	-10.844
தொரு	-10.8441
▁கொடூரமாக	-10.845
▁உடைக்க	-10.8456
36	-10.8461
ச்சென்ற	-10.8467
▁மையத்தின்	-10.8471
▁மலேசியா	-10.8472
▁வாக்குறுதிகளை	-10.8477
▁நம்புகிறார்	-10.8481
▁நீதித்துறை	-10.8487
▁ஆக்கிரமித்த	-10.8488
▁கணிசமான	-10.8488
▁நுகர்வோர	-10.8488
▁கிஷோர்	-10.8488
▁பீகாரில்	-10.8488
▁கிழமை	-10.8488
▁பெய்யக்கூடும்	-10.8489
▁தியேட்டர	-10.8491
▁தேடுதல்	-10.8496
▁மகிந்த	-10.8496
▁பக்தர்	-10.8498
▁எழும்	-10.8513
க்கூற	-10.8515
▁செய்துகொள்ள	-10.8519
▁பயணத்தில்	-10.8521
▁எழுதப்பட்ட	-10.8525
போன்ற	-10.8527
▁பக்தர்களின்	-10.8529
▁அனைவரின்	-10.8533
▁தேன்	-10.8536
▁பராமரிப்ப	-10.854
வருகின்றன	-10.8541
▁தொடரப்பட்ட	-10.8545
33	-10.8547
▁நம்பர்	-10.8549
▁கிளம்ப	-10.8564
▁அநுர	-10.8566
▁கையகப்படுத்த	-10.8566
▁சிக்னல்	-10.8566
▁சொகுசு	-10.8566
▁சேமிப்பு	-10.8566
▁சாவர்க்கர	-10.8568
▁இல்லாவிட்டால்	-10.8569
▁தவணை	-10.8572
▁ரஞ்சித்	-10.8572
▁குற்றங்கள்	-10.8576
▁துருவ	-10.8577
▁வாட்ஸ்	-10.8578
▁கம்பி	-10.858
▁வாலி	-10.8584
ve	-10.8585
▁குஜராத்த	-10.8587
ென்ட்	-10.8591
▁கண்டுபிடிப்பு	-10.8597
▁கண்டறிந்து	-10.8605
▁பொறியாளர்	-10.8605
▁ஏற்படாத	-10.8613
▁காட்டினார்	-10.8618
▁பதிவுசெய்து	-10.8618
▁ஆரம்பித்தார்	-10.8618
▁நுண்ணறிவு	-10.8621
▁600	-10.8622
▁எழுப்பினார்	-10.8625
ங்களிலிருந்து	-10.8626
▁வீரராக	-10.8626
▁பௌ	-10.8634
▁சுருக்க	-10.8639
ாசிரியர்	-10.8645
▁ஆஜர்படுத்த	-10.8645
▁கழிவறை	-10.8645
▁முன்னிறுத்த	-10.8645
▁கைத்தொழில்	-10.8645
▁ஆஜரான	-10.8645
▁அம்பானி	-10.8645
▁நண்பன	-10.8645
ாமலேயே	-10.8647
▁கண்டிக்க	-10.8649
▁தேர்தலிலும்	-10.8649
▁இஸ்லாமியர்கள	-10.8652
▁எப்படியாவது	-10.8653
▁ஆரோக்கியமான	-10.8657
▁கிண்டல்	-10.8669
37	-10.8676
▁அமைதியை	-10.8681
▁ஓடிய	-10.8682
▁சொன்னேன்	-10.8687
▁அப்படிப்பட்ட	-10.8689
▁பெய்யும்	-10.8699
ுபவர்களுக்கு	-10.8701
▁நட்ப	-10.8706
▁வர்ற	-10.8716
▁52	-10.8719
▁அறநிலையத்	-10.8724
▁கொந்தளிப்ப	-10.8724
▁சன்ரைசர்ஸ்	-10.8724
▁தரையிறங்க	-10.8724
▁ஹேமந்த்	-10.8724
▁சுழற்பந்துவீச்ச	-10.8724
▁அதேபோன்று	-10.8724
▁பரஸ்பர	-10.8724
▁முன்னோடி	-10.8724
▁கோயிலை	-10.8725
▁குப்தா	-10.8726
▁ஆவேச	-10.8726
▁வித்யா	-10.8728
▁வங்காள	-10.8728
▁பட்ஜெட்டில்	-10.8728
▁விளைவிக்க	-10.8728
▁ஊரக	-10.8731
▁கூட்டத்திற்கு	-10.8731
▁பிடிப்ப	-10.8732
▁சவாலாக	-10.8733
IN	-10.8735
▁பவன்	-10.8736
▁நிமிடங்களில்	-10.8737
▁கட்டாயப்படுத்த	-10.8737
▁கட்டுக்குள்	-10.8738
▁ஸ்டெ	-10.8748
90	-10.8751
▁வெளியேறினார்	-10.8757
▁துவங்கிய	-10.8757
▁கருட	-10.8759
▁நடிப்பில்	-10.8768
▁அறிமுகமான	-10.8772
+	-10.8773
▁கேட்டோம்	-10.8774
▁செயலகத்தில்	-10.8779
▁பேசிக்கொண்ட	-10.8781
▁தசை	-10.8782
பெரிய	-10.8785
32	-10.8785
குல	-10.8794
▁புயல	-10.8796
▁எதற்கு	-10.8797
▁சுமந்து	-10.8803
▁முஸ்லீம்	-10.8804
▁அமீரக	-10.8804
▁கருத்துக்கணிப்ப	-10.8804
▁மாப்பிள்ளை	-10.8804
▁பயனாளி	-10.8804
▁இவற்றில்	-10.8804
▁அதிவேக	-10.8805
▁கடிதத்தை	-10.8805
▁வேண்டுமானால்	-10.8806
▁தண்டிக்க	-10.8807
▁தேநீர்	-10.8808
▁மறைமுக	-10.8808
▁கண்டெடுக்க	-10.8808
▁கதறி	-10.8808
▁தாள	-10.8809
▁சில்வா	-10.8811
▁கிராமப்புற	-10.8811
▁அப்போதே	-10.8811
▁அடிக்கல்	-10.8816
34	-10.8817
▁நியாயமான	-10.8821
▁நானே	-10.8825
▁தலைவரும	-10.8826
▁சிங்கப்பூர	-10.8831
▁மாநிலங்களிலும்	-10.8831
▁இதேபோல	-10.8831
▁போனார்	-10.8833
▁பயனர்	-10.8834
▁லெபனான்	-10.8836
▁வீரர	-10.8841
▁அழகிய	-10.8847
ஈ	-10.8853
▁ஆதாரங்களை	-10.8856
▁எழுதினார்	-10.8858
▁சேதப்படுத்த	-10.8858
ers	-10.8859
▁பக்தர்கள	-10.8859
▁திகழ	-10.8883
▁டக்ளஸ்	-10.8885
▁முதன்முறையாக	-10.8885
▁காப்பீடு	-10.8885
▁சிபிசிஐடி	-10.8885
▁செல்போனை	-10.8885
▁பிரதோஷ	-10.8885
▁போராளி	-10.8885
▁அமமுக	-10.8885
▁ஜெகதீ	-10.8885
▁ராமகிருஷ்ண	-10.8887
▁எரிசக்தி	-10.8888
▁சஹ	-10.8892
▁வெளிவர	-10.8894
▁இயக்கத்தின்	-10.8897
ll	-10.8903
▁எதிர்காலத்தை	-10.8903
▁தனித்தனியாக	-10.8907
▁உட்படுத்த	-10.8908
▁மிதுன	-10.891
▁செயல்படுகிறது	-10.8911
▁சீனாவுக்கு	-10.8913
▁நடுவே	-10.8933
பாஜக	-10.8935
▁ஆனார்	-10.8946
▁வீதிகளில்	-10.8961
▁மீடியா	-10.8962
▁கடற்பரப்ப	-10.8966
▁இடதுசாரி	-10.8966
▁டெலிவரி	-10.8966
▁திருகோணமலை	-10.8966
▁பரம்பரை	-10.8966
▁வளிமண்டல	-10.8966
▁வாரணாசி	-10.8966
▁உண்டியல்	-10.8966
▁பிரதிபலிக்க	-10.8966
▁ரஜினிகாந்த்	-10.8966
▁பெருங்கடல	-10.8967
▁1990	-10.8971
▁நூற்றாண்ட	-10.8976
▁அப்துல்லா	-10.8978
▁சேர்ப்ப	-10.8979
▁ஏராளமானோர்	-10.8979
▁கேப்டனாக	-10.8982
குறிப்பிடுகிறார்	-10.8985
▁டிரம்ப	-10.8993
▁பொதுக்குழுவை	-10.8993
▁அவதார	-10.8993
▁புனே	-10.8994
▁வருடங்களில்	-10.8996
▁உரையாடல்	-10.9
▁பூமியில்	-10.9
▁பணிபுரிந்து	-10.9001
▁எம்எல்ஏக்கள	-10.9017
▁ஒழிப்புத்துறை	-10.9023
▁அழிவ	-10.9025
▁58	-10.9041
ப்படுவதால்	-10.9046
38	-10.9046
▁சுற்றுவட்டார	-10.9048
▁திங்கட்கிழமை	-10.9048
▁படுகாயமடைந்த	-10.9048
▁பல்கலைக்	-10.9048
▁பதிவாகியுள்ளது	-10.9048
▁மதிமுக	-10.9048
▁வைத்தியசாலை	-10.9049
▁என்பன	-10.905
▁உழைக்க	-10.9051
சந்திரன்	-10.9052
▁பயன்படுத்துவது	-10.9054
▁விலைவாசி	-10.9055
▁ரோஜா	-10.906
▁ஆந்திராவில்	-10.9065
▁பைலட்	-10.9068
▁Mo	-10.9069
▁நெருப்ப	-10.9073
▁மிர	-10.9077
▁குறியீடு	-10.9084
▁பிம்ப	-10.9095
J	-10.9099
▁இரத்த	-10.9101
▁வகிக்கும்	-10.9101
▁வனப்பகுதி	-10.9102
ோட்டம்	-10.9123
▁டொனால்ட்	-10.9131
▁முன்னோக்கி	-10.9131
▁விசேஷ	-10.9131
▁மேம்பால	-10.9131
▁அப்புறம்	-10.9131
ru	-10.9131
▁புறநகர்	-10.9132
க்கோரி	-10.9133
▁சிறுநீர்	-10.9135
▁சாராய	-10.9136
▁அதுமட்டுமல்ல	-10.9136
கிட்டே	-10.9137
▁சிறுபான்மை	-10.9137
▁அருகேயுள்ள	-10.9141
▁புகைப்படங்களை	-10.9142
▁120	-10.9152
▁அதிகாரிகளிடம்	-10.9156
▁மெதுவாக	-10.9159
▁பூஜா	-10.9162
▁காரணமான	-10.9166
▁உடனடி	-10.9173
சென்	-10.9198
▁ஒன்றிணைந்து	-10.92
▁அழைக்கப்படுகிற	-10.9201
▁மாணவன்	-10.9205
▁கலவை	-10.9206
▁கூட்டமைப்பு	-10.9206
களுக்கே	-10.9208
▁புறக்கணிப்ப	-10.9214
▁மியான்மர	-10.9214
▁நரசிம்ம	-10.9214
▁இருவருமே	-10.9214
▁தனித்துவமான	-10.9214
▁விடுவித்த	-10.9215
▁நேரிடும்	-10.9215
▁சாம்பியன்ஷிப்	-10.9215
▁கோடீஸ்வர	-10.9216
▁ஓய்வுபெற்ற	-10.9216
▁பவுன்	-10.9216
▁எல்லோருக்கும்	-10.9217
▁வார்டில்	-10.9217
▁மாமியார	-10.9219
▁கருணை	-10.9222
▁செய்வோம்	-10.9227
யப்பன்	-10.9234
▁வேளாண்மை	-10.9236
▁ஆளுமை	-10.9241
▁புரிந்த	-10.9242
ியலாளர்	-10.9243
▁எதிர்கொள்வ	-10.9246
ள்ளேயே	-10.9257
வர்தன	-10.9268
▁அம்பல	-10.9281
மில்லாத	-10.9297
▁வடகொரியா	-10.9298
▁சரமாரியாக	-10.9298
▁செயற்கைக்கோள்	-10.9298
▁நெதன்யாகு	-10.9298
▁பிரகடன	-10.9298
▁வற்புறுத்த	-10.9298
▁எல்லாவற்றையும்	-10.9298
▁சிவபெருமான	-10.9298
▁வேண்டுமென்று	-10.9298
▁தயிர்	-10.9299
▁வாக்களிப்ப	-10.9299
▁வரதராஜ	-10.9299
▁வலய	-10.9301
▁பொருளாளர்	-10.9302
▁வராது	-10.9303
▁செம்ம	-10.931
▁கழுவ	-10.9317
▁மறைவுக்கு	-10.9319
▁ஒருசில	-10.932
▁தேவர்	-10.9327
▁புலம்ப	-10.9328
▁வானதி	-10.9335
▁அழகான	-10.9337
நாராயண	-10.9352
▁பாராட்டிய	-10.9352
▁ஆதாரங்கள்	-10.9353
தொழில்	-10.9353
▁கேட்டேன்	-10.9356
▁பலன்களை	-10.9363
அரச	-10.9365
▁நிரம்பிய	-10.9366
▁அவளை	-10.937
▁பைரவ	-10.9371
▁ஒத்து	-10.9375
▁ஒட்டுமொத்தமாக	-10.9381
▁உடன்படிக்கை	-10.9383
▁உயரதிகாரி	-10.9383
▁ட்ரூடோ	-10.9383
▁மார்க்சிஸ்ட்	-10.9383
Z	-10.9383
▁கடைப்பிடிக்க	-10.9383
▁பேருந்தில்	-10.9383
▁போவதில்லை	-10.9383
▁பரிசாக	-10.9383
▁பரமக்குடி	-10.9383
▁அம்மனை	-10.9383
▁துவக்கி	-10.9384
▁அனிதா	-10.9384
▁புராண	-10.9384
▁உரையில்	-10.9384
▁எஸ்டேட்	-10.9386
▁சிக்கலான	-10.9388
▁ஜென்ம	-10.9391
▁அதிர்ந்த	-10.9394
▁ஆட்டமிழந்தார்	-10.9399
▁இதையெல்லாம்	-10.94
▁நூற்றாண்டில்	-10.9402
▁மறியல	-10.9408
▁தொடங்குகிறது	-10.9412
▁எழுப்பினர்	-10.9414
▁1,000	-10.9415
▁உதிர	-10.9423
உதயகுமார்	-10.9436
பொழுது	-10.9437
▁பாடலை	-10.9443
▁சாட்டிய	-10.9449
▁பொற	-10.9467
ாமலும்	-10.9467
▁நிதியுதவி	-10.9469
▁ஊடுருவ	-10.9469
▁பூர்வீக	-10.9469
▁ஜின்பிங்	-10.9469
▁திருவீதி	-10.9469
▁வதந்தி	-10.9469
▁விருச்சிக	-10.9469
▁உத்தியோகத்தர்கள	-10.9469
▁பருத்தி	-10.9469
▁உகந்த	-10.9469
est	-10.9471
▁ஆதாய	-10.9472
▁காஸாவில்	-10.9481
▁வாக்கெடுப்பு	-10.9483
▁வெடிப்பு	-10.9486
▁6:00	-10.9486
ுமென	-10.949
▁சாஹ	-10.9501
▁54	-10.9502
▁அமைக்கப்படும்	-10.9514
▁வெண்	-10.9518
▁மண்ணில்	-10.9521
▁வரம்பு	-10.9525
▁ஆத்திர	-10.9525
▁முனைவர்	-10.9527
பகவான	-10.9528
▁சரவண	-10.9532
▁அக்னிபாத்	-10.9535
▁அமைப்பான	-10.9541
▁பத்திரமாக	-10.9542
▁தீர்மானங்களை	-10.9546
▁முந்தி	-10.9547
சந்திர	-10.9548
▁பார்வையிட	-10.9552
▁சனிபகவான்	-10.9555
▁பரபரப்பாக	-10.9558
ப்படுவதற்கு	-10.9558
▁மாஸ்கோ	-10.9562
▁பொய்யான	-10.9562
▁காதலித்து	-10.9565
▁கட்டங்களாக	-10.9569
▁உட்கார	-10.9572
▁செயலர்	-10.9574
▁நிழல	-10.9575
▁கேட்டதற்கு	-10.9582
im	-10.9583
▁மேலாளர்	-10.9583
▁புற்றுநோய	-10.9585
▁ஏற்படுத்துகிறது	-10.9587
▁இருந்திருந்தால்	-10.9589
▁இணைப்ப	-10.9593
▁தோறும்	-10.9594
ிங்கில்	-10.9598
▁நிறுவனங்களின	-10.9604
▁பதிவுசெய்ய	-10.9608
▁99	-10.9612
▁துப்பாக்கிச்சூட	-10.9613
2024	-10.9615
▁அழுக	-10.9615
ுவதோடு	-10.9622
▁வேட்பாளரை	-10.9625
▁பார்த்தேன்	-10.9632
▁கிறிஸ்தவ	-10.964
▁செம்ப	-10.9641
▁பொதுச்செயலாளராக	-10.9642
▁விக்னேஷ்	-10.9642
▁வெளிவிவகார	-10.9642
▁ஹெஸ்பொலா	-10.9642
▁வீதியுலா	-10.9642
▁சம்பாதிக்க	-10.9642
▁பட்டதாரி	-10.9642
▁சேகர்பாபு	-10.9642
▁இந்நாட்ட	-10.9642
▁மருமகள	-10.9642
▁வேறொரு	-10.9643
▁திரள	-10.9643
▁துன்ப	-10.9643
▁தேவேந்திர	-10.9645
▁வகுப்பறை	-10.9645
▁மயங்கி	-10.9646
▁ஸ்ரீதேவி	-10.9646
▁பின்னரே	-10.9647
▁சாதனங்கள	-10.9648
▁குண்டர்	-10.965
42	-10.965
▁பொருத்தவரை	-10.965
▁உலகளவில்	-10.9651
▁போலீசில்	-10.9655
▁எங்களால்	-10.9655
▁கைலாச	-10.9655
▁விவகாரங்கள்	-10.9672
▁பிளஸ்	-10.9679
▁குறிப்ப	-10.9685
வீரர்	-10.9688
▁கணித	-10.9699
500	-10.9707
ly	-10.9717
▁வீட்டுக்குள்	-10.9718
▁இல்லாம	-10.9719
யாற்றி	-10.972
கட்டுரை	-10.9723
▁தள்ளப்பட்ட	-10.9724
▁நிலையத்துக்கு	-10.9727
▁உறவ	-10.9728
▁செயல்பாடுகளை	-10.9728
▁விருதை	-10.9729
▁ஆளுங்கட்சி	-10.9729
▁ஏகாதசி	-10.9729
▁சிவராத்திரி	-10.9729
▁பாதயாத்திரை	-10.9729
▁சமூகநீதி	-10.9729
▁ஆடம்பர	-10.973
▁வருங்கால	-10.973
▁ஜார்ஜ்	-10.973
ப்படுகின்ற	-10.973
▁மேஜர்	-10.973
▁ஒன்பதா	-10.973
வெங்கடேசன்	-10.973
க்குழுவினர்	-10.9731
▁வாய்ப்பில்லை	-10.9732
▁1980	-10.9737
▁ரசிக்க	-10.9737
▁ராமசாமி	-10.9737
▁ஆண்டாள்	-10.9739
▁கொவிட்	-10.9739
▁உணர்வுகளை	-10.9743
பிரதேச	-10.9743
▁இழுக்க	-10.9744
6,000	-10.9744
▁வரப்போகிறது	-10.9746
▁ஒருங்கிணைப்பு	-10.9749
1,000	-10.975
▁நாளிதழ	-10.9761
▁நிபுணர	-10.9761
நாளில்	-10.9761
▁தாக்கப்பட்ட	-10.9769
பள்ளி	-10.9787
▁லட்சத்திற்கு	-10.979
▁உடைத்த	-10.9791
▁பிரான்ச	-10.9794
▁பயன்பட	-10.9797
ப்படுவார்	-10.9807
ுடனே	-10.9809
▁தலைவரை	-10.9813
▁முதலாளி	-10.9818
▁மேற்படி	-10.9818
▁பெறுமதி	-10.9818
▁சுனாமி	-10.9818
▁செளதி	-10.9818
▁உயர்மட்ட	-10.9823
▁கொழுப்பு	-10.9826
▁இலக்காக	-10.9828
▁குற்றச்சாட்ட	-10.9829
▁2004	-10.9832
▁புள்ளிகளுடன்	-10.9833
▁இழுத்த	-10.984
▁72	-10.985
▁குரலில்	-10.9852
▁திவ்ய	-10.9853
▁வீணா	-10.9853
▁உற்சவர்	-10.9869
▁வடிவமைப்ப	-10.987
▁விட்டுவிட்டு	-10.9873
▁ஆசியாவ	-10.9881
▁இந்தியன்ஸ்	-10.9882
▁போவது	-10.9886
▁ஆட்சேப	-10.9907
▁எய்ம்ஸ்	-10.9907
▁கணிசமாக	-10.9907
▁அதற்கமைய	-10.9907
▁ஐந்தாவது	-10.9907
▁ராகுல்காந்தி	-10.9907
▁புடவை	-10.9908
▁பாணியில்	-10.9908
▁இதேபோன்ற	-10.9909
▁கடைபிடிக்க	-10.9909
▁நினைச்ச	-10.9911
▁டெண்டர்	-10.9912
ிருக்கின்ற	-10.9913
▁கையாண்ட	-10.9914
▁மகனுக்கு	-10.9915
▁கிரிக்கெட்டில்	-10.9917
ine	-10.9919
▁மாடல	-10.9923
நோய்	-10.9927
ect	-10.9935
▁ஸ்தானத்தில	-10.9946
▁விரட்டி	-10.9946
▁விரும்பாத	-10.9948
▁அவனுக்கு	-10.9951
ிழந்த	-10.9957
▁வளர்த்த	-10.9958
▁கம்பீர	-10.9967
44	-10.9973
▁வைத்துக்கொண்டு	-10.9991
▁மறைமுகமாக	-10.9996
▁அருங்காட்சியக	-10.9997
▁உளவியல்	-10.9997
▁பல்லாயிரக்கணக்க	-10.9997
▁அர்ச்சனை	-10.9997
▁தேவானந்தா	-10.9997
▁ஃப்ளாட்	-10.9997
▁அதிசய	-10.9998
▁ஆத்திரமடைந்த	-10.9998
▁கருணா	-10.9998
▁மீட்டெடுக்க	-10.9999
▁வேட்டையாட	-10.9999
▁வெட்க	-11
▁தலைவலி	-11.0001
▁வெறுப்ப	-11.0001
▁சூடான	-11.0004
▁பெங்களூரில்	-11.0006
▁ரோடு	-11.0007
▁வீதம்	-11.0009
▁7:00	-11.0014
▁விஷயங்களில்	-11.0014
▁64	-11.0017
▁விரும்புகிறது	-11.0019
▁நம்பப்படுகிறது	-11.0025
சூரிய	-11.004
▁திருமதி	-11.0043
▁குறிக்கும்	-11.0046
▁குடிப்ப	-11.0049
▁அதற்க	-11.0051
▁விக்ரம	-11.006
49	-11.0062
உலக	-11.0063
பொருட்கள	-11.0077
▁ஆறாம்	-11.0088
▁ஏறக்குறைய	-11.0088
▁ஒவ்வோர	-11.0088
▁நீர்மூழ்கி	-11.0088
▁கொழும்பில்	-11.0088
▁வரவழைத்த	-11.0088
▁பந்துவீச்சை	-11.0088
▁பரபரப்பான	-11.0088
▁வேள்வி	-11.0088
▁ராதாகிருஷ்ணன்	-11.0088
▁தாழ்வு	-11.0088
▁ஐஐடி	-11.0088
▁சீக்கிரம	-11.0089
▁பொருத்தப்பட்ட	-11.0091
▁வர்மா	-11.0092
▁அழிந்து	-11.0094
▁ஜெய்ப்பூர	-11.0095
▁உருவாகியுள்ள	-11.0096
▁பரிதாபமாக	-11.0097
பாளையத்த	-11.0102
▁முக்கியத்துவத்த	-11.0102
▁மூட்டை	-11.0106
▁தபால்	-11.0113
▁வகுப்பில்	-11.0115
▁வைக்கிறார்	-11.0119
▁ராஜூ	-11.0126
▁விற்ப	-11.0129
▁காரணமா	-11.0138
▁பெற்றுக்கொண்ட	-11.0143
▁வீசப்பட்ட	-11.0147
தொடர்ந்து	-11.0148
▁ஸ்டாலினுக்கு	-11.0151
▁தலைவருக்கு	-11.0153
▁ராணுவத்தினர	-11.0153
▁மைசூர	-11.0159
▁பாக்ய	-11.016
▁for	-11.0168
▁பணக்காரர்	-11.0173
▁கங்கா	-11.0178
▁ஆபரண	-11.018
▁எந்தெந்த	-11.018
▁பிசினஸ	-11.018
▁கழுத்தில்	-11.018
▁கவிதை	-11.0181
▁ஜேம்ஸ்	-11.0181
▁விரல்	-11.0182
ுகிறீர்கள்	-11.0185
▁வலைத்தளத்தில்	-11.0194
▁நலத்துறை	-11.0201
▁இதற்க	-11.0202
▁சாடிய	-11.0202
▁144	-11.0219
▁பைடன	-11.0225
▁மன்னர	-11.0226
43	-11.0226
▁கணவன	-11.0228
▁வாக்னர	-11.0232
▁மூழ்கிய	-11.0235
கணக்கில்	-11.0236
▁ஆவணி	-11.0241
முயற்சி	-11.0241
▁நினைவிட	-11.0242
▁ஆரம்பிக்கப்பட்ட	-11.0242
Ch	-11.0261
ck	-11.0269
▁வாய்ப்புள்ளதாக	-11.0271
▁அருணாச்சல	-11.0273
▁பொள்ளாச்சி	-11.0273
▁எங்களுடைய	-11.0273
▁தென்மேற்கு	-11.0273
▁ரிப்போர்ட்	-11.0273
▁குவிக்கப்பட்ட	-11.0273
▁காயத்ரி	-11.0273
▁முன்னாடி	-11.0273
▁மகாத்மா	-11.0273
▁எழுத்த	-11.0274
▁உதவியாளர்	-11.0279
▁1.5	-11.028
▁எடுத்துக்காட்ட	-11.028
▁உண்மையிலேயே	-11.0281
▁மாறிவிட்டது	-11.0283
▁கருதுகின்றனர்	-11.0284
▁கீவ்	-11.0284
▁இடத்திலேயே	-11.0285
▁பிச்சை	-11.0287
▁சவுதி	-11.0289
▁ஷாருக்	-11.029
அவுட்	-11.029
▁உயர்த்தப்பட்ட	-11.0291
▁தேர்வாக	-11.0293
▁நடராஜ	-11.0293
▁பவனி	-11.0304
▁வெளியேற்றப்பட்ட	-11.0304
▁பார்த்ததும்	-11.0306
▁விளக்குகிறார்	-11.0311
▁விவேக்	-11.0332
▁நேரத்துக்கு	-11.0339
▁சமரச	-11.0344
com	-11.0357
▁ஐஸ்வர்யா	-11.0366
▁விறுவிறு	-11.0366
▁விவேகானந்த	-11.0366
▁ஃபேஸ்புக்	-11.0366
▁திருப்பரங்குன்ற	-11.0366
▁வீட்டிலேயே	-11.0366
▁வகையிலான	-11.0366
▁திரைக்கதை	-11.0366
▁நுட்ப	-11.0366
▁சங்கிலி	-11.0366
▁மிஸ்ரா	-11.0366
▁சரும	-11.0366
▁டைம்ஸ்	-11.0367
▁கையெழுத்திட்ட	-11.0368
▁அமைச்சருமான	-11.037
▁நினைவுகூர	-11.037
▁மக்களுக்காக	-11.0371
▁கற்கள்	-11.0373
▁செந்தில்குமார்	-11.0375
▁முழுவதுமாக	-11.0375
▁விவகாரங்களில்	-11.0378
▁கருதுகிறார்	-11.0378
▁வீண்	-11.0381
▁வகுக்க	-11.0386
▁நடுவில்	-11.0397
▁விஷயமாக	-11.0411
▁ஆழமான	-11.0418
மொன்றை	-11.042
▁சீனிவாச	-11.0438
▁இடிந்து	-11.044
▁ஆட்டமிழந்த	-11.0443
▁வெளிநாடுகளில	-11.045
▁உணர்வை	-11.0457
▁கமல	-11.0458
▁அசாதாரண	-11.046
▁தொந்தரவு	-11.046
▁வளைகுடா	-11.046
▁மின்னணு	-11.046
▁வைகுண்ட	-11.046
▁வேட்பு	-11.046
▁India	-11.046
▁இனிமேல்	-11.0461
▁அடுத்தகட்ட	-11.0461
▁பின்வாங்க	-11.0462
▁வெங்கடேஷ்	-11.0463
▁வீடான	-11.0464
▁இளைஞரணி	-11.0467
▁கணிப்ப	-11.0467
பிடிக்க	-11.0469
▁குடிசை	-11.0471
▁2002	-11.0475
▁கேட்டறிந்த	-11.0479
▁வகிக்க	-11.0494
▁சமநிலை	-11.0502
▁நீக்கிய	-11.0504
▁சொல்கிற	-11.0507
▁திரிபு	-11.0515
▁ஆசாத்	-11.0534
▁எதிர்வினை	-11.0551
▁பேசுபொருளாக	-11.0556
▁மெசேஜ்	-11.0556
▁பின்தங்கிய	-11.0556
▁வேகப்பந்துவீச்ச	-11.0556
▁செல்சியஸ	-11.0556
▁லாட்டரி	-11.0556
▁ஏழரை	-11.0556
▁காப்பீட்டு	-11.0556
▁தனிமைப்படுத்த	-11.0557
▁காரணங்களுக்காக	-11.0557
▁கொடுப்பனவு	-11.0558
அருள்மிகு	-11.0559
ஸ்டாலின	-11.0566
▁சோரன்	-11.0567
▁நிறுவனத்துக்கு	-11.0568
ிருப்போம்	-11.0568
▁புறப்பட	-11.0568
▁ஹர்ஷ	-11.0571
▁அய்யா	-11.0582
▁கலைஞர	-11.0596
▁போலீஸாருக்கு	-11.0599
▁ராவத்	-11.06
▁பொருளாக	-11.06
▁சரிசெய்ய	-11.0604
▁உள்ளிட்டோர	-11.0604
கல்வி	-11.0622
பாண்டியன்	-11.0623
▁தனித்தனி	-11.0627
▁தண்ணீர	-11.0633
ப்போகிற	-11.0637
▁கிழக்க	-11.0643
▁எரிச்சல	-11.0644
▁போலீசாருக்கு	-11.065
▁அடுக்குமாடி	-11.0652
▁இக்கோவிலில்	-11.0652
▁இருசக்கர	-11.0652
▁கவிழ்ந்த	-11.0652
▁பவுர்ணமி	-11.0652
▁மனுத்தாக்கல்	-11.0652
▁லண்டனில்	-11.0652
▁வழிவகுத்த	-11.0652
▁வெளியீட்டு	-11.0652
▁ராணிப்பேட்டை	-11.0652
▁தருணங்கள	-11.0652
▁ரவுடி	-11.0652
▁பின்னடைவு	-11.0652
▁வில்லியம்	-11.0652
▁நயினார்	-11.0652
▁நிதியத்தின்	-11.0652
▁குற்றவியல்	-11.0654
▁கல்லறை	-11.0657
▁மக்களுக்கான	-11.0657
▁கொளுத்த	-11.0664
▁தொடர்கிறது	-11.0666
▁2007	-11.0674
▁செல்வராஜ்	-11.0677
ஞான	-11.0679
▁வந்தடைந்த	-11.0682
▁ஐந்தாம	-11.0685
▁நாளே	-11.0688
▁தம்ம	-11.07
▁தெப்ப	-11.0723
▁சிதம்பர	-11.0743
▁ஆலோசிக்க	-11.0749
▁கேள்வியெழுப்ப	-11.0749
▁லிமிடெட்	-11.0749
▁ஶ்ரீ	-11.0749
▁இவருடைய	-11.0749
▁தரிசிக்க	-11.0749
▁தீண்டாமை	-11.0749
▁அந்தவகையில்	-11.0749
▁அவமதிப்ப	-11.0749
▁ஜன்னல	-11.0749
▁தெரிஞ்ச	-11.0749
▁நிலவரம்	-11.0749
▁நபருக்கு	-11.075
▁ஆப்பிள்	-11.0751
▁தொகுத்து	-11.0751
▁பல்லக்கில்	-11.0751
▁லக்ன	-11.0752
▁இடமாற்றம்	-11.0752
▁உடன்பாடு	-11.0752
▁நிலைநிறுத்த	-11.0754
▁உறுதிமொழி	-11.0761
▁9:00	-11.0762
▁ஹோட்டலில்	-11.0763
▁சுற்றுலாத்துறை	-11.0764
▁சிரிக்க	-11.0766
▁அமர்த்த	-11.0768
▁சராசரியாக	-11.0771
▁குறைப்பத	-11.0771
▁வாதிட	-11.0776
▁மாவட்டங்களிலும்	-11.0776
▁திருத்தேர	-11.0788
களுமே	-11.0797
▁வரவேற்ப	-11.0802
▁ஈரான	-11.0805
▁விரட்ட	-11.0809
▁அமிர்த	-11.0812
▁உருக்க	-11.0818
▁ஆளுநராக	-11.084
த்திருவிழா	-11.0847
▁அறிஞர்	-11.0847
▁சோஷியல்	-11.0847
▁தன்னம்பிக்கை	-11.0847
▁யாராலும்	-11.0847
▁சிறுவனின்	-11.0847
▁திடீரென்று	-11.0847
▁போக்சோ	-11.0847
▁பரப்புரை	-11.0847
▁ராபர்ட்	-11.0847
▁மாறுபட்ட	-11.0848
▁நிலைநாட்ட	-11.0848
▁பிரதீப்	-11.0848
▁திருக்கோவிலூர்	-11.0849
▁ஒழுங்குபடுத்த	-11.0849
▁வாழ்நாள்	-11.0849
தெரிவிக்கின்றார்	-11.0849
▁திரையுலக	-11.0853
▁2025	-11.0858
▁ஊர்வலத்த	-11.0861
▁இறப்ப	-11.0862
▁அமைச்சகத்தின்	-11.0863
▁வருடாந்த	-11.0873
▁எட்டாம	-11.0886
மாவட்ட	-11.0887
▁திலக	-11.0889
▁பெருகி	-11.0889
▁பதிவுசெய்த	-11.0895
▁அட்டாக்	-11.0904
▁இயல்பாக	-11.0911
▁ஆர்வம	-11.0913
▁நீர்நிலை	-11.0928
▁மைதானத்த	-11.0938
▁அங்கீகார	-11.0942
▁காட்சிப்படுத்த	-11.0944
▁சூறாவளி	-11.0946
▁இச்சம்பவ	-11.0946
▁சூர்யகுமார்	-11.0946
▁பாக்டீரியா	-11.0946
▁வடமாநில	-11.0946
▁வேண்டுமென்றே	-11.0946
▁ஜூனியர்	-11.0946
▁மேட்டுப்பாளைய	-11.0946
▁காலாவதி	-11.0946
▁நலனுக்காக	-11.0946
▁சவாலான	-11.0946
▁சடலங்கள	-11.0946
▁சாலையோர	-11.0946
▁நெகிழ	-11.0946
▁நிலவியது	-11.0946
▁பாஸ்போர்ட்	-11.0946
▁பெருமளவில	-11.0947
▁அரியலூர்	-11.0947
▁கிரீன்	-11.0947
▁வெளியூர்	-11.095
▁ஜோசப்	-11.095
▁அலங்கரிக்க	-11.0952
▁முன்னரே	-11.0954
▁துர்கா	-11.0957
▁உங்களிடம்	-11.0964
▁ப்ரோ	-11.0965
▁2003	-11.0967
▁உலகெங்க	-11.0984
▁பணிபுரிந்த	-11.1003
▁பரிவார	-11.1007
▁செஞ்ச	-11.1017
▁வியப்ப	-11.102
க்குள்ளே	-11.102
▁அஷ்டம	-11.1026
▁தூண்	-11.1034
வில்லிபுத்தூர்	-11.1046
▁ஞாபக	-11.1046
▁விஸ்வரூப	-11.1046
▁சிறைச்சாலை	-11.1046
▁வைத்திலிங்கம்	-11.1046
▁பள்ளிக்கல்வி	-11.1046
▁தனுசு	-11.1046
▁செல்வாக்கை	-11.1046
▁உத்தியோகபூர்வ	-11.1046
▁மிருக	-11.1047
▁வன்னியர்	-11.1048
▁சீருடை	-11.1048
▁ரம்யா	-11.1048
▁இப்போதே	-11.1054
▁நடுநிலை	-11.1054
▁பதுங்கி	-11.106
▁துல்லியமாக	-11.1071
▁ரியல்	-11.1075
▁விடுபட	-11.1077
▁விக்கெட்டுகள	-11.1112
ill	-11.1112
▁மாலிக்	-11.1121
▁புரத	-11.1131
▁குளிக்க	-11.1139
▁Tamil	-11.1147
▁ஜெலன்ஸ்கி	-11.1147
▁மேற்பரப்ப	-11.1147
▁பயன்பாட்டு	-11.1147
▁விருந்தினர்	-11.1147
▁பங்காற்ற	-11.1147
▁பொதுக்கூட்டத்த	-11.1147
▁கனிம	-11.1148
▁வீட்டிலிருந்து	-11.1148
▁இருபது	-11.1149
▁தர்மபுரி	-11.115
▁தரப்பிலிருந்து	-11.1152
▁காரணிகள	-11.1153
ிருப்பவர்	-11.1154
▁சரியில்லை	-11.1155
▁சிதறி	-11.1156
▁சேமிக்க	-11.1156
▁பிரசன்ன	-11.1157
▁முகவர்	-11.1157
64	-11.1165
▁கடத்தப்பட்ட	-11.1167
▁வாசனை	-11.1169
▁நடந்துகொண்ட	-11.1191
▁சுற்றுச்சூழல	-11.1192
▁சபாநாயகர	-11.1192
▁தெரிவ	-11.1197
▁சமூகவலைதளங்களில	-11.1198
எனக்கு	-11.1221
▁சாதியினர	-11.1231
▁சிதற	-11.1245
▁கல்லீரல	-11.1249
▁செல்போனில்	-11.1249
▁தெற்காசிய	-11.1249
▁முளைப்பாரி	-11.1249
▁விண்கலம்	-11.1249
▁வம்சாவளி	-11.1249
▁மைக்ரோ	-11.1249
▁அமீர்	-11.1249
▁இங்கிருந்து	-11.125
▁ரோகித்	-11.1251
▁இயக்குநராக	-11.1252
▁ரம்மி	-11.1253
▁பார்வதி	-11.1253
▁காணப்படுகின்றது	-11.1253
▁கத்தியால்	-11.1257
ity	-11.1257
▁கடிதங்கள	-11.1259
▁பெரும்பாலானோர்	-11.126
▁அணிவித்து	-11.126
▁பன்றி	-11.1262
▁பாண்டே	-11.1265
▁அதிமுகவினர்	-11.1266
▁விஷயங்கள	-11.1267
▁சும்மா	-11.1274
▁Ra	-11.1297
▁ரசித்த	-11.1301
▁ஸ்ரீராம	-11.1306
▁ஒளிபரப்பாகி	-11.1307
▁வைரலாக	-11.1319
ver	-11.1321
யடுத்து	-11.1321
▁வழக்கம்போல	-11.1326
த்தனமாக	-11.1332
மாட்டேன்	-11.1336
▁எழுப்பப்பட்ட	-11.1337
46	-11.1342
அதுமட்டுமல்லாமல்	-11.1345
▁இப்ராஹிம்	-11.1352
▁ஒவ்வொன்ற	-11.1352
▁பால்குடம்	-11.1352
▁பெருந்தோட்ட	-11.1352
▁பொறுப்பேற்க	-11.1352
▁கருவறை	-11.1352
▁விநாடி	-11.1352
▁சற்றே	-11.1352
▁சேகரிப்ப	-11.1353
▁நாகரிக	-11.1353
▁தகுந்த	-11.1353
முனுசாமி	-11.1355
▁தீர்த்தவாரி	-11.1355
▁ஒதுங்கி	-11.1356
▁கண்டுகொள்ள	-11.1356
▁விதிப்ப	-11.1358
▁மீடியாவில்	-11.136
har	-11.1365
▁தலைப்பில்	-11.1366
▁இதையொட்டி	-11.1373
▁வயதுடைய	-11.1375
▁10,000	-11.1375
▁தொகுதிகளிலும்	-11.1377
▁பதறி	-11.138
▁பிடிபட்ட	-11.1382
▁தவிர்த்த	-11.1389
கொடுத்த	-11.1392
▁ஸ்கோர	-11.1417
▁கற்பிக்க	-11.1423
▁துல்லிய	-11.143
ாபிஷேகம்	-11.1447
▁உள்கட்டமைப்பு	-11.1456
▁காளஹஸ்தி	-11.1456
▁திட்டவட்டமாக	-11.1456
▁புன்னகை	-11.1456
▁விபரீத	-11.1456
▁விருந்தினராக	-11.1456
▁தோற்கடித்த	-11.1456
▁சிவகாசி	-11.1456
▁மாம்பழ	-11.1456
▁ஸ்ரீரங்கம்	-11.1456
▁ஏலத்தில்	-11.1457
▁அபராத	-11.1457
வயது	-11.1459
▁யாருடைய	-11.146
▁பிள்ளையார்	-11.146
▁குணமடைந்த	-11.1461
▁பைக்கில	-11.1464
58	-11.1468
▁உயர்தர	-11.147
▁விஷயம	-11.1471
▁காணப்படுகின்றன	-11.1478
▁வாந்தி	-11.1485
tic	-11.1485
▁லிஸ்ட்	-11.15
▁கணக்கிட	-11.1514
ka	-11.152
காங்கிரஸ்	-11.153
▁சித்தார்த்	-11.155
ணும்னு	-11.1561
Q	-11.1561
▁இருந்தபோதிலும்	-11.1561
▁ஒப்பிடுகையில்	-11.1561
▁கோத்தபாய	-11.1561
▁சமஸ்கிருத	-11.1561
▁சர்வாதிகார	-11.1561
▁புள்ளிவிவரங்கள	-11.1561
▁மன்மோகன்	-11.1561
▁விளாடிமிர்	-11.1561
▁கும்பகோணம்	-11.1561
▁கோத்தபய	-11.1561
▁மாரடைப்பு	-11.1561
▁அடிப்படையிலான	-11.1561
▁தருணம்	-11.1562
▁முன்மொழிவு	-11.1562
▁பருப்பு	-11.1562
▁ஒப்படைக்கப்பட்ட	-11.1562
▁நிலத்தடி	-11.1562
▁மெட்ரிக்	-11.1562
▁சாவடி	-11.1563
▁குற்றால	-11.1568
▁விரைய	-11.157
▁விலக்கி	-11.1585
▁ஜோதிட	-11.1585
▁மேடம்	-11.1587
▁கசிந்த	-11.1591
றீங்க	-11.1604
▁சிவலிங்க	-11.162
அதிமுக	-11.1636
அரசியல	-11.164
▁ஆக்கிரமிப்ப	-11.164
ாட்ச	-11.1664
▁கிளிநொச்சி	-11.1668
@	-11.1668
▁தைப்பூச	-11.1668
▁நள்ளிரவில்	-11.1668
▁நுரையீரல	-11.1668
▁ஆலோசித்த	-11.1668
▁குற்றப்பத்திரிக	-11.1668
▁துணைவேந்தர்	-11.1668
▁பேட்டியளித்த	-11.1668
▁மூதாட்டி	-11.1668
▁கிணறு	-11.1668
▁கரையோர	-11.1668
▁தெய்வானை	-11.1668
▁தரிசித்த	-11.1668
▁இந்நிகழ்ச்சி	-11.1668
▁சின்ஹா	-11.1668
▁ஒப்பிடும்போது	-11.167
▁ஈடுபட்டிருந்த	-11.1671
▁தேரோட்ட	-11.1671
▁வெற்றிகரமான	-11.168
▁மகத்தான	-11.1684
▁பத்ர	-11.1691
▁எனக்கூறி	-11.1694
▁விஷயத்த	-11.1699
ெங்கும்	-11.17
▁பெருநகர	-11.1701
▁அபார	-11.1702
▁தழுவிய	-11.1704
ஃ	-11.1721
ist	-11.1727
ில்லாத	-11.1745
▁சமைத்த	-11.1747
▁இவரின	-11.1748
நல்லூர்	-11.1771
▁சித்தராமையா	-11.1775
▁குல்தீப்	-11.1775
▁பரிசோதித்த	-11.1775
▁அதிகப்படியான	-11.1775
▁ஐஏஎஸ்	-11.1775
▁மேட்டூர்	-11.1775
▁அமலுக்கு	-11.1776
▁பூசாரி	-11.1776
▁ரொக்க	-11.1776
▁வாபஸ்	-11.1776
▁மாத்திரம்	-11.1776
▁இணங்க	-11.1777
▁எஞ்சிய	-11.1777
▁வாட்ஸ்அப்	-11.1778
▁உறங்க	-11.1778
▁ஆரம்பிச்ச	-11.1781
▁வடிவமைத்த	-11.1783
▁நடக்கின்றன	-11.1785
▁எழுகிறது	-11.1785
▁ஹிந்தி	-11.1786
▁வசிப்பவர்	-11.1786
▁எழுந்தருளினார்	-11.1788
▁முகேஷ்	-11.1788
▁சாப்பாடு	-11.1789
▁2001	-11.1794
▁ஃபண்ட்	-11.1798
▁இயல்பான	-11.1802
▁பேச்சாளர்	-11.1803
4,000	-11.1805
▁மொஹ	-11.182
▁ஊழியர	-11.1827
▁வசித்த	-11.1842
▁கழித்த	-11.1877
▁பற்கள	-11.188
▁அகமதாபாத்	-11.1884
▁திருவனந்தபுரம்	-11.1884
▁தென்னரசு	-11.1884
▁மிளகாய்	-11.1884
▁வெங்காயம்	-11.1884
▁அரைசதம்	-11.1884
▁நேர்மறை	-11.1884
▁எளிதான	-11.1884
▁விரிவுரை	-11.1884
▁ரத்நாயக்க	-11.1884
▁1999	-11.1884
▁உலோக	-11.1884
▁ஐசிசி	-11.1884
▁அரிவாள	-11.1885
▁வான்வழி	-11.1886
gov	-11.1886
▁பவானி	-11.1886
▁ஆடுகளத்த	-11.189
▁1996	-11.1891
▁நம்புகிறோம்	-11.1893
▁நிமிடங்களுக்கு	-11.1896
▁மாணவர	-11.1901
▁தலையிட்டு	-11.1918
▁சீக்கியர்கள	-11.1931
▁ஆர்வமாக	-11.1934
IC	-11.1935
▁அதனால	-11.1938
▁வாசித்த	-11.1939
▁சீசன	-11.1941
▁நடுவர்	-11.1943
▁பிளாக்	-11.1951
▁தவிர்ப்பத	-11.1952
54	-11.1953
ரீதியான	-11.1963
▁இடம்பெற்றிருந்த	-11.1964
▁உள்வாங்க	-11.1978
ைப்போல	-11.1994
▁உண்ணாவிரத	-11.1994
▁கார்த்திகேயன்	-11.1994
▁ஜாமீனில்	-11.1994
▁காமராஜர்	-11.1994
▁மாநாட்டை	-11.1994
▁எதிர்மறை	-11.1994
▁ஒத்துழைக்க	-11.1994
▁இப்போதைக்கு	-11.1994
▁அடைத்தனர்	-11.1994
▁சட்டமூலம்	-11.1994
▁காலமானார்	-11.1995
▁விசுவாச	-11.1995
▁காகித	-11.1995
▁ஒப்பிட்டு	-11.1997
▁பூதேவி	-11.2002
▁ஜான்சன்	-11.2002
▁காண்பிக்க	-11.204
▁ஆவணப்பட	-11.2053
▁விரைந்த	-11.2065
▁மாஸ்க்	-11.2083
▁பணக்கார	-11.2086
PS	-11.2088
ிந்தைய	-11.2091
▁ராஜபக்ச	-11.2094
▁கழிப்பறை	-11.2105
▁செவிலியர்	-11.2105
▁ஜார்கண்ட்	-11.2105
▁புகழேந்தி	-11.2105
▁மாண்புமிகு	-11.2105
▁நிலவரப்படி	-11.2105
▁நொறுக்க	-11.2105
▁1991	-11.2105
▁விந்தணு	-11.2105
▁கொலையாளி	-11.2105
▁கோமாளி	-11.2105
▁தாய்ப்பால்	-11.2105
▁அப்புறப்படுத்த	-11.2106
▁கழுத்தை	-11.2106
▁சுல்தான்	-11.2106
▁அனர்த்த	-11.2107
▁விழாவையொட்டி	-11.2107
▁காமாட்சி	-11.2109
▁உதவித்தொகை	-11.2112
▁புரிந்துகொண்ட	-11.2112
▁பூஸ்டர்	-11.2117
▁சங்கீத	-11.2119
▁நிரம்பி	-11.2128
ஏக்கள	-11.2162
▁அமலில	-11.2164
▁தருவார்	-11.2167
▁கிடப்ப	-11.2167
தொடர்பான	-11.2186
அமெரிக்க	-11.2186
களிடமும்	-11.2194
பிள்ளை	-11.2194
▁விவாதித்த	-11.22
▁உறுப்பினருமா	-11.22
▁இக்கட்ட	-11.2203
▁தேஜஸ்வி	-11.2217
▁தொலைதூர	-11.2217
▁அர்ஜென்டினா	-11.2217
▁ஹார்மோன்	-11.2217
▁தினத்தன்று	-11.2217
▁ஒடிஷா	-11.2217
▁மசாலா	-11.2218
▁குற்றஞ்சாட்ட	-11.2218
▁சஷ்டி	-11.2218
▁சொர்க்க	-11.2218
▁வனிதா	-11.2218
▁என்பார்கள்	-11.2218
▁இதைத்தொடர்ந்து	-11.2218
▁ஓபிசி	-11.2218
▁ஒழுக்க	-11.2218
▁முற்பட்ட	-11.2218
▁மகேந்திர	-11.222
▁மேம்பட்ட	-11.2221
▁நடனமாட	-11.2222
▁2026	-11.2224
▁செய்தித்தாள	-11.2226
▁தொழிற்சங்க	-11.2228
▁உரையாற்றினார்	-11.223
▁பொருட்டு	-11.2238
▁பகிர்ந்துகொண்ட	-11.225
▁பகிர்வ	-11.2255
▁ஆப்ரிக்க	-11.2258
▁வல்லுநர்	-11.2274
▁வருவாய	-11.2276
▁நிறுவப்பட்ட	-11.2283
▁கண்டுபிடிப்ப	-11.2287
▁நுண்	-11.2307
▁தம்பதியினர	-11.2309
▁இடைத்தேர்தல்	-11.2331
▁உயர்ஸ்தானிகர	-11.2331
▁தலையீடு	-11.2331
▁திஸாநாயக்க	-11.2331
▁பரிசீலிக்க	-11.2331
▁பாரபட்ச	-11.2331
▁முதியோர்	-11.2331
▁ஹிஸ்புல்லா	-11.2331
▁தாலிபன்	-11.2331
▁மருமகன	-11.2331
▁நிருபர்	-11.2331
▁பொதுவெளியில்	-11.2331
▁வடிவேலு	-11.2331
▁சுபாஷ்	-11.2331
▁பணிப்புரை	-11.2331
▁புரிந்துணர்வு	-11.2331
▁குத்தகை	-11.2331
▁தன்னுடன்	-11.2331
▁அப்பாற்பட்ட	-11.2331
▁கொள்ளையடித்த	-11.2331
▁துண்டிக்கப்பட்ட	-11.2332
▁இடங்கள	-11.2333
▁உயிரியல்	-11.2334
▁அஷ்ட	-11.2335
▁குறுக்கே	-11.2336
▁பிரகாச	-11.2336
▁உழவர்	-11.2337
▁சொல்கிறேன்	-11.2339
▁தீவிரமடைந்த	-11.2341
▁செய்கிறோம்	-11.2341
▁கொள்வதற்காக	-11.2343
▁விளைச்சல	-11.2359
▁ராஜஸ்தான	-11.2371
▁குவைத்	-11.2388
▁துபாயில	-11.2402
ரெஸ்	-11.2435
த்துறையினர	-11.244
வள்ளி	-11.2442
▁மானாமதுரை	-11.2446
▁விண்கலத்த	-11.2446
▁வியட்நாம	-11.2446
▁ஆதரிப்ப	-11.2446
▁ஆசிரம	-11.2446
▁செருப்பு	-11.2446
▁எதிரே	-11.2446
டபிள்யூ	-11.2446
▁மெரினா	-11.2446
▁காலிஸ்தான்	-11.2446
▁பகிரங்கமாக	-11.2446
▁நிறைவடைய	-11.2446
▁போரிஸ்	-11.2446
▁விகாரை	-11.2447
▁கவிதா	-11.2447
▁நீச்சல்	-11.2452
▁நியமிக்கப்பட	-11.2453
▁அனுமன்	-11.2455
▁ஆறுமுக	-11.2455
CO	-11.2459
▁தோன்றுகிறது	-11.246
▁முரண்	-11.2464
▁யாரையும	-11.2471
▁ட்வீட்ட	-11.2475
▁தமிழ்நாட்டிற்கு	-11.2482
க்குள்ளான	-11.2485
▁கொலைசெய்த	-11.2485
▁பயின்ற	-11.2494
if	-11.2498
பாக்கத்தில்	-11.2499
வழக்க	-11.2502
▁சமையல	-11.2506
▁மீதம	-11.2518
▁கூண்ட	-11.2519
▁மெத்தன	-11.2538
▁கோர்ட்டில	-11.2552
ிலிருக்கும்	-11.2552
▁காற்றழுத்த	-11.2562
▁நிர்வகிக்க	-11.2562
▁பறிகொடுத்த	-11.2562
q	-11.2562
▁ஆட்டமிழக்க	-11.2562
▁பிரிட்டனில்	-11.2562
▁இதுதவிர	-11.2562
▁சட்டப்பூர்வ	-11.2562
▁உதாரணம்	-11.2562
▁ராதிகா	-11.2562
▁மெஸ்ஸி	-11.2562
▁பகீர்	-11.2562
▁சம்பாதித்த	-11.2562
▁சிறுவனை	-11.2563
▁பெருமித	-11.2563
▁கொள்வனவு	-11.2563
▁பிரமாண	-11.2563
▁அஸ்வினி	-11.2563
▁குபேர	-11.2563
▁அதைத்தொடர்ந்து	-11.2564
▁நிதிஷ்குமார்	-11.2567
▁பட்நாயக்	-11.2567
▁சிறுவயத	-11.2567
▁கால்வாய்	-11.2569
▁நினைக்கிறார்கள்	-11.2571
ப்பொருள்	-11.2572
▁செயற்படுத்த	-11.2575
▁ராணா	-11.2576
▁வருந்த	-11.2581
▁வசனங்கள	-11.2585
▁நடைபெறவிருக்க	-11.2589
ரவீந்திரநாத்	-11.2596
▁சுனக்	-11.2623
▁உரிமையாளர	-11.2627
களுடனும்	-11.264
▁வைரஸ	-11.2642
பட்சத்தில்	-11.2648
பயிற்சி	-11.2648
▁சஜித்	-11.265
▁தேவார	-11.2653
▁சென்டர	-11.2679
▁ஆஞ்சநேயர்	-11.268
▁கச்சத்தீவு	-11.268
▁கோயம்புத்தூர்	-11.268
▁சட்டத்தரணி	-11.268
▁சமீபகாலமாக	-11.268
▁ஆழ்த்திய	-11.268
▁மூலிகை	-11.268
▁வரையறை	-11.268
▁அகதிகள்	-11.268
▁இதனைத்தொடர்ந்து	-11.2681
▁சந்தீப்	-11.2681
▁தகவலின்படி	-11.2681
▁முதலாம்	-11.2681
▁சஞ்சீவ	-11.2681
▁ஒழுங்குமுறை	-11.2684
▁உயிரோடு	-11.2685
மனித	-11.2686
▁முதலிடத்தில	-11.2687
▁வாசலில்	-11.2691
▁ஷ்ர	-11.2696
▁2005	-11.2697
▁கோகுல	-11.272
aj	-11.273
மண்டல	-11.2731
▁அம்பாள	-11.2746
▁கருத்தரங்க	-11.2758
▁தியாகராஜ	-11.2778
▁கண்டிப்ப	-11.2798
▁தன்னார்வ	-11.2798
▁அணிவகுப்பு	-11.2799
▁சடலத்தை	-11.2799
▁டெபாசிட்	-11.2799
▁பேஸ்புக்	-11.2799
▁அநீதி	-11.2799
=	-11.2799
▁சேலத்தில்	-11.2799
▁சின்னத்திரை	-11.2799
▁காரைக்குடி	-11.2799
▁ஸ்கேன்	-11.28
▁மௌன	-11.28
யளிக்கும்	-11.28
▁மூலவருக்கு	-11.2805
▁ரங்கநாத	-11.2806
▁தமக்கு	-11.2816
▁வாசிக்க	-11.2818
▁வாழ்த்துக்களை	-11.2819
▁பிரிக்கப்பட்ட	-11.2831
▁வாசிப்ப	-11.2841
▁ஸ்டைல	-11.2849
▁அம்பேத்கர	-11.2863
▁கெஜ்ரிவால	-11.2863
▁கத்தார	-11.2875
▁மங்கல	-11.2877
▁பிரேக்	-11.2879
த்தனமான	-11.29
பெரும	-11.2908
▁திணைக்களத்தின	-11.2917
▁இடஒதுக்கீட்ட	-11.2919
▁கருக்கலைப்பு	-11.2919
▁ஜவஹர்	-11.2919
▁திங்கள்கிழமை	-11.2919
▁பணியமர்த்த	-11.2919
▁பரிசீலனை	-11.2919
▁வனவிலங்கு	-11.2919
▁விமரிசையாக	-11.2919
▁தாம்பரம்	-11.2919
▁ஆக்ரோஷ	-11.2919
▁குருபகவான்	-11.2919
▁வயிறு	-11.2919
▁குஷ்பு	-11.292
▁சமுத்திர	-11.292
▁வயசு	-11.292
▁இத்திட்டம்	-11.292
▁ஷெரீப்	-11.292
▁கிடைச்ச	-11.2922
▁வகிக்கிறது	-11.2923
▁பெயரிடப்பட்ட	-11.2923
▁திகழ்ந்த	-11.2923
▁தயவு	-11.2927
▁வைணவ	-11.2928
▁சட்டமூலத்த	-11.2931
ங்குளம்	-11.2939
அதிக	-11.2943
▁ஆட்சியாளர்கள	-11.2957
▁புதைக்க	-11.296
▁சப்த	-11.2972
▁ஒத்திவைக்க	-11.2987
▁கண்ணீர	-11.2989
▁தழுவ	-11.3013
▁அரேபிய	-11.3013
▁1,2	-11.3023
▁போலீஸில	-11.3026
▁பவர்ப்ளே	-11.3041
▁அதிர்வலைகளை	-11.3041
▁அரசியலமைப்பின்	-11.3041
▁கோடிக்கணக்கான	-11.3041
▁சுப்ரீம்	-11.3041
▁தற்பொழுது	-11.3041
▁திருச்செந்தூர்	-11.3041
▁தென்கிழக்கு	-11.3041
▁மகப்பேறு	-11.3041
▁ரஹ்மான்	-11.3041
▁காட்சியளித்த	-11.3041
▁மாயாவதி	-11.3041
▁ரங்கசாமி	-11.3041
▁பதிவேற்ற	-11.3041
பாலகிருஷ்ணன்	-11.3043
▁பெருவிழா	-11.3044
▁சவுந்தர	-11.3044
▁ராம்நாத்	-11.3044
▁இவ்வழக்க	-11.3046
▁கற்களை	-11.3047
▁நடிச்ச	-11.3048
▁தாய்மார்கள	-11.3053
▁டிரஸ்	-11.3055
வர்த்தன	-11.3065
▁வாடிக்கையாளர	-11.3109
▁அணிந்திருந்த	-11.3117
▁அசாம	-11.3117
▁விரும்புவதாக	-11.3117
▁பத்திரிக்கையாளர	-11.3133
▁விஞ்ஞான	-11.3136
▁செய்கின்றன	-11.3148
▁இழிவுபடுத்த	-11.3165
▁சுற்றறிக்கை	-11.3165
▁பினராயி	-11.3165
▁மின்னலுடன்	-11.3165
▁முற்றுப்புள்ளி	-11.3165
▁மேல்முறையீட்டு	-11.3165
▁நடமாட்டம்	-11.3165
▁வலதுசாரி	-11.3165
▁தொழுகை	-11.3165
▁சமாஜ்வாடி	-11.3165
▁வயநாடு	-11.3165
▁பீரங்கி	-11.3165
▁மாத்திரமே	-11.3165
▁பண்டைய	-11.3165
▁சவுத்ரி	-11.3165
▁உசேன்	-11.3165
▁உலுக்கி	-11.3166
▁1,0	-11.3167
▁குற்றப்பிரிவு	-11.3168
▁இறுக்க	-11.3171
பீட	-11.3171
வெளிநாட்ட	-11.319
▁அழிப்ப	-11.3191
▁வீட்டார	-11.3194
▁சமைக்க	-11.3202
▁கமிஷன	-11.3204
ினுள்	-11.3216
▁அமுத	-11.323
▁போலீச	-11.3253
ப்போதைய	-11.3275
▁மூழ்க	-11.328
▁நல்வாழ்வு	-11.329
▁இடைத்தேர்தலில்	-11.329
▁எளிமையாக	-11.329
▁சலசலப்பு	-11.329
▁தோற்கடிக்க	-11.329
▁நடைபயண	-11.329
▁முற்போக்கு	-11.329
▁ரீதியிலான	-11.329
▁வர்த்தமானி	-11.329
▁முருகப்பெருமான	-11.329
▁நேஷனல	-11.329
▁ஸ்ரீலங்கா	-11.329
▁ஜஸ்டின்	-11.329
▁நோன்பு	-11.329
▁வரையறுக்க	-11.329
▁நிவர்த்தி	-11.329
▁இந்தியாவிலேயே	-11.329
▁மைதானம்	-11.329
▁யாழ்	-11.329
▁காற்றில்	-11.329
▁குடியேற்ற	-11.3291
▁நூற்றுக்கு	-11.3291
▁மலையக	-11.3291
ச்செல்ல	-11.3294
ிறாரா	-11.331
▁அன்னதான	-11.3317
▁பக்த	-11.3343
▁விரைவ	-11.3347
▁சமூகவலைதள	-11.3353
▁சான்றிதழ	-11.336
▁பத்திரிகையாளர	-11.3361
▁சீக்கிய	-11.3364
ப்பெட்டி	-11.338
▁வாக்கெடுப்ப	-11.3395
▁மீட்ப	-11.3396
▁நிர்ணயித்த	-11.3401
▁திறன	-11.3403
யளிக்கிறது	-11.341
▁ஹார்ட	-11.3411
ा	-11.3416
▁எமிரேட்ஸ	-11.3416
▁சிவாச்சாரியார்	-11.3416
▁கெய்க்வாட்	-11.3416
▁சக்திவாய்ந்த	-11.3416
▁நாகேந்திரன்	-11.3416
▁மின்வெட்டு	-11.3416
▁கள்ளக்காதல	-11.3416
▁வாக்குவாதத்தில்	-11.3416
▁பிரபஞ்ச	-11.3417
▁நளினி	-11.3417
▁பொன்னியின்	-11.3417
▁பதவிக்காலம்	-11.3417
▁பண்பு	-11.3417
▁பலரையும்	-11.3418
▁ஜானகி	-11.3419
▁பழுது	-11.3419
▁இளநீர்	-11.3419
▁சீரமைக்க	-11.3419
▁செயற்பட்ட	-11.3424
▁திருக்கோவில	-11.3424
▁வர்க்க	-11.3433
▁தெய்வங்கள	-11.3474
▁எரிபொருள	-11.3492
▁விவரங்கள	-11.3509
▁துப்பாக்கியால	-11.3529
▁புண்படுத்த	-11.3545
▁அதுமட்டுமின்றி	-11.3545
▁மதச்சார்பற்ற	-11.3545
▁வரதட்சணை	-11.3545
▁உற்ஸவ	-11.3545
▁சைலேந்திர	-11.3545
▁திருப்புமுனை	-11.3545
▁ஸ்பெஷல்	-11.3545
▁மார்கழி	-11.3545
▁பதவியேற்க	-11.3545
▁அப்டேட்	-11.3546
▁ஆறுமுகசாமி	-11.3546
▁கழுத்து	-11.3548
▁ஆதரவளிக்க	-11.3552
▁சொற்கள	-11.3555
▁ஒழிப்ப	-11.3567
▁நாகராஜ	-11.3619
▁wh	-11.3632
விபத்துக்குள்ளான	-11.3632
▁பொங்கல	-11.3635
▁மோகன	-11.364
வேலுமணி	-11.3643
சிதம்பரம்	-11.3643
விஜய	-11.3665
▁அகாடமி	-11.3675
▁கிரிமினல்	-11.3675
▁சித்ரவதை	-11.3675
▁மனப்பான்மை	-11.3675
▁அதனடிப்படையில்	-11.3675
▁உள்ளூராட்சி	-11.3675
▁பகுப்பாய்வு	-11.3675
▁அறிவாலய	-11.3675
▁மைக்கேல்	-11.3675
▁சுமூக	-11.3675
▁இளங்கோவன்	-11.3675
▁மேம்பாடு	-11.3675
▁ராஜயோக	-11.3675
▁கோஷ்டி	-11.3675
▁தாமஸ்	-11.3676
▁பொண்ணு	-11.3676
▁மகிழ்ந்த	-11.3676
▁இடிபாடுகள	-11.3677
▁மறுத்துவிட்டார்	-11.3679
▁அலர்ட்	-11.3686
▁பெரியளவில	-11.3736
▁வினோத	-11.3753
▁கவுரவ	-11.376
ஊ	-11.3774
▁ஸ்மித்	-11.3778
▁கற்றுக்கொண்ட	-11.3801
▁உத்தியோக	-11.3805
திருமாவளவன	-11.3806
▁சுவாரசிய	-11.3806
▁நிபுணத்துவ	-11.3806
▁கோட்பாடு	-11.3806
▁இளவரசி	-11.3806
▁உள்நோக்க	-11.3806
▁செயற்பாட்டாளர்	-11.3806
▁ரஞ்சன்	-11.3806
▁தீர்வாக	-11.3806
▁ஆகையால்	-11.3806
▁ஒருபக்கம்	-11.3806
▁முரண்பாடு	-11.3807
▁உத்தேச	-11.3807
▁விதவிதமா	-11.3808
▁பாத்திரத்த	-11.3809
▁எங்கிருந்து	-11.3812
▁பிரதாப்	-11.3816
▁நிலைப்பாட்ட	-11.3859
▁ஹோட்டல	-11.3867
▁ஓட்டுநர	-11.3885
▁அவரோட	-11.3899
அமைச்சர	-11.3908
▁ஆவணங்கள	-11.3913
▁போட்டியிடுகிறார	-11.3919
▁தண்டவாள	-11.392
▁காம்ப	-11.3922
▁சலசலப்பை	-11.3939
▁பார்ட்னர்ஷிப்	-11.3939
▁மின்னஞ்சல்	-11.3939
▁வறட்சி	-11.3939
▁ஸ்திரத்தன்மை	-11.3939
▁செங்கோட்டை	-11.3939
▁1989	-11.3939
▁குளிர்கால	-11.394
▁பங்களாதேஷ	-11.394
▁சரிபார்க்க	-11.394
▁சுதர்சன	-11.3941
▁சேஸிங்	-11.3941
▁பாட்னா	-11.3941
▁குங்கும	-11.3941
▁வலுசக்தி	-11.3941
▁வறண்ட	-11.3943
▁சேமித்து	-11.3944
▁வசனம்	-11.3946
▁மாமனார	-11.395
▁ரிக்டர	-11.396
▁வயிற்ற	-11.398
▁நம்பிக்கையில்லா	-11.3986
▁கதிர	-11.3996
புள்ளி	-11.4014
▁டாக்டர	-11.4018
▁குறைப்பதற்க	-11.402
பாகிஸ்தான	-11.4043
▁ஆய்வறிக்கை	-11.4075
▁எளிமையான	-11.4075
▁செந்தில்பாலாஜி	-11.4075
க்கல்லூரி	-11.4075
▁எறும்பு	-11.4075
▁டைட்டன்ஸ்	-11.4075
▁மோசமடைந்த	-11.4075
▁பிரிட்டனின்	-11.4075
▁கூறுகின்றார்	-11.4075
▁வேக்சின்	-11.4075
▁சடலம்	-11.4075
▁உட்கொள்ள	-11.4076
▁தகவலறிந்த	-11.4076
▁தீர்வை	-11.4078
St	-11.408
▁திணிப்ப	-11.4089
▁குடியரச	-11.4097
▁ஆரம்பிப்ப	-11.4103
ோருக்கான	-11.4145
▁கீப்பர	-11.4145
▁பங்களிப்ப	-11.4149
▁ரன்னில	-11.4177
▁அங்கீகரித்த	-11.4212
▁மேகதாது	-11.4212
▁GMT	-11.4212
▁அப்பார்ட்மெண்ட்	-11.4212
▁உட்கட்டமைப்பு	-11.4212
▁உயிரிழக்க	-11.4212
▁ஒருவருக்கொருவர	-11.4212
▁சீர்காழி	-11.4212
▁சுறுசுறுப்ப	-11.4212
▁பாரம்பர்ய	-11.4212
▁ஒருங்கிணைத்த	-11.4212
▁பிரெஞ்சு	-11.4212
▁லேப்டாப்	-11.4212
▁பழங்கால	-11.4212
▁முய்சு	-11.4212
▁ஷேர்	-11.4212
▁ஷூட்டிங்	-11.4212
▁பெருகும்	-11.4213
▁ஒண்ணு	-11.4214
▁விரிசல்	-11.4214
▁நிமிஷ	-11.4215
▁முகாமிட்ட	-11.4215
▁சாகச	-11.4216
▁ஊஞ்சல	-11.4218
▁பராக்	-11.422
▁யூதர்கள	-11.4226
ence	-11.4246
▁காண்பித்த	-11.4278
▁கிறிஸ்துவ	-11.4281
▁வைத்திருப்பத	-11.429
▁ஜெயக்குமார	-11.4294
▁தலைமுறையினர	-11.4294
களுக்கிடையே	-11.4302
▁அண்ணன	-11.4309
தேர்தல்	-11.4319
▁உற்பத்தியாளர்கள	-11.4323
▁இடப்பெயர்ச்சி	-11.435
▁சுயேட்சை	-11.435
▁சூறையாட	-11.435
▁பட்னாவிஸ	-11.435
▁மல்லிகார்ஜுன	-11.435
▁மூலோபாய	-11.435
▁வரவழைக்கப்பட்ட	-11.435
▁வாக்குச்சாவடி	-11.435
▁வெளியீடு	-11.435
▁சுரங்கப்பாதை	-11.435
▁புவியியல	-11.435
▁கயிறு	-11.4351
▁பத்தாண்டு	-11.4351
▁ஃபீல்	-11.4351
▁சிவக்குமார்	-11.4351
▁அடுத்தபடியாக	-11.4351
▁எருமை	-11.4351
▁காற்றின்	-11.4351
▁தஞ்சம்	-11.4352
▁அய்யனார்	-11.4353
▁ஆவடி	-11.4354
▁லடாக்	-11.4358
▁முயல்வ	-11.4363
▁ஸ்டோரி	-11.4365
▁பண்டிட்	-11.4367
▁பாத்திரங்கள	-11.4383
▁உறவினர	-11.4435
▁தினகரன	-11.4436
▁துறையினர	-11.4438
▁வசூலித்த	-11.4439
செய்வத	-11.4451
▁போட்டியாளர	-11.4459
தமிழ்நாடு	-11.446
▁நிலுவை	-11.4465
ரஷ்யா	-11.4465
▁அசம்பாவித	-11.4491
▁இறையாண்மை	-11.4491
▁கள்ளழகர்	-11.4491
▁கூட்டுத்தாபன	-11.4491
▁கையிருப்பு	-11.4491
▁கொடைக்கானல்	-11.4491
▁நிலச்சரிவு	-11.4491
▁பொதுக்கூட்டம்	-11.4491
▁மதிப்பீட்டில்	-11.4491
▁நாகர்கோவில்	-11.4491
▁யாரிடமும்	-11.4491
▁காணொலி	-11.4491
▁குவிய	-11.4491
▁ஐபிஎஸ்	-11.4492
▁அமைவாக	-11.4492
▁ஸ்கூல்	-11.4492
▁மணமகன	-11.4492
▁கிறிஸ்தவர்கள	-11.4497
ாம்பிகை	-11.4502
▁சறுக்க	-11.4509
▁ஆண்டிற்க	-11.4515
ம்தேதி	-11.4524
▁ரசிக	-11.4533
பாக்கிய	-11.4555
ுவீங்க	-11.4566
பிரதமர்	-11.4603
▁ஆய்வாளர	-11.4606
▁செய்திக்குறிப்ப	-11.4607
▁லெபனான	-11.4617
▁இடைநீக்கம்	-11.4634
▁இஸ்லாமாபாத்	-11.4634
▁ஒதுக்கீட்டை	-11.4634
▁தன்பாலின	-11.4634
▁தாலிபான்	-11.4634
▁பட்டமளிப்பு	-11.4634
▁கொந்தளித்த	-11.4634
▁பகவதி	-11.4634
▁அகழாய்வ	-11.4634
▁துளசி	-11.4634
▁ஐப்பசி	-11.4634
▁ஏதுவாக	-11.4635
▁மமதா	-11.4635
▁பஜனை	-11.4635
▁மின்னல்	-11.4635
▁சமிதி	-11.4635
▁பகவத்	-11.4636
▁அதிகமானோர	-11.4641
கிழங்கு	-11.4642
▁கட்டமைக்க	-11.4642
▁ஆபீஸ	-11.4643
▁ஆயத்த	-11.465
ீசிய	-11.4654
▁பிரதமரின	-11.466
▁வசிப்ப	-11.466
▁வலைத்தள	-11.467
▁அஷ்வின	-11.4697
▁மற்றும	-11.4709
▁வலியுறுத்துகிற	-11.4714
▁பேரறிவாளன	-11.4722
எதிர்	-11.4748
ராகுல்	-11.475
▁முழுவதும	-11.475
▁ருத்ர	-11.4754
▁சுப்ம	-11.4768
▁அபேவர்தன	-11.4779
▁சுற்றாடல்	-11.4779
▁டிசம்பரில்	-11.4779
▁முரசொலி	-11.4779
▁மேக்ஸ்வெல்	-11.4779
▁வைட்டமின்	-11.4779
▁முறியடிக்க	-11.4779
▁வவுனியா	-11.4779
▁செயல்திறன	-11.4779
▁பொறாமை	-11.4779
ப்போவதில்லை	-11.4779
▁முழக்கங்கள	-11.4779
▁அதனுடன்	-11.4779
▁சேதுபதி	-11.4779
▁பிரவீன்	-11.4779
▁ஐகோர்ட்	-11.4779
▁துறவி	-11.4779
▁அப்படியானால்	-11.4779
▁முறியடித்த	-11.4779
▁ஆகாஷ்	-11.4779
▁மன்னார்குடி	-11.478
▁தன்னார்வலர்கள	-11.4781
இயற்பியல	-11.4781
▁மட்டுப்படுத்த	-11.4786
▁ஆபத்தை	-11.4789
▁தாவரங்கள	-11.4814
▁அனுஷ	-11.4838
▁வேண்டுகோள	-11.4869
▁விகடன	-11.4869
▁செவ்வாய	-11.4869
▁கிழக்கில	-11.487
▁உத்தம	-11.487
▁வியக்க	-11.4875
▁நால்வர	-11.4881
இலங்கை	-11.4895
▁மகிழ	-11.4918
▁அழைப்பிதழ	-11.4926
▁அவதூறாக	-11.4926
▁கார்ப்பரேட்	-11.4926
▁கொள்கின்றனர்	-11.4926
▁டுவிட்டர்	-11.4926
▁நெட்வொர்க்	-11.4926
▁பிசிசிஐ	-11.4926
▁முல்லைத்தீவு	-11.4926
▁ரவிச்சந்திரன்	-11.4926
▁ஸ்மிருதி	-11.4926
▁ஹாலிவுட்	-11.4926
▁டெஸ்டில்	-11.4926
▁பாட்டாளி	-11.4926
▁சாக்லேட்	-11.4926
▁அநேக	-11.4926
▁வீச்சில்	-11.4926
▁ஆழ்வார்	-11.4926
▁கரன்சி	-11.4927
படப்பிடிப்ப	-11.4927
▁அவமதிக்க	-11.4927
ுவோருக்கு	-11.4927
▁சர்வீஸ்	-11.4927
▁மாற்றியமைக்க	-11.4927
▁என்பவற்ற	-11.493
▁திரையிட	-11.4945
▁நட்சத்திரங்கள	-11.4946
▁கேள்விக்குறியாக	-11.4952
▁பெற்றுக்கொள்வ	-11.4953
▁மலேசிய	-11.4957
க்குள்ளாகி	-11.5018
▁அதற்கேற்ப	-11.5075
▁அதிநவீன	-11.5075
▁அருணாசலேஸ்வரர்	-11.5075
▁அவுஸ்திரேலிய	-11.5075
▁இன்ஸ்டாகிராமில்	-11.5075
▁கையொப்ப	-11.5075
▁தொலைநோக்கி	-11.5075
▁மாலத்தீவில	-11.5075
▁ஒருங்கிணைக்க	-11.5075
▁பொலிஸார	-11.5075
▁முன்மொழியப்பட்ட	-11.5075
▁அபிராமி	-11.5075
▁வயதாகிறது	-11.5075
▁சிகரெட்	-11.5075
▁கூப்பிட்ட	-11.5076
▁கராச்சி	-11.5076
▁இவர்களது	-11.5076
▁பிரகாரம்	-11.5076
▁தகாத	-11.5076
▁வெண்கல	-11.5077
▁இட்லி	-11.5077
▁ஆர்வத்தை	-11.5085
களுள்	-11.5089
▁கழற்றி	-11.5104
▁பறிப்ப	-11.5112
▁லலித்	-11.5115
8,000	-11.5127
ிலுமே	-11.5154
▁காய்ச்சல	-11.5171
▁சப்பர	-11.5208
ராதாகிருஷ்ணன	-11.5227
▁அட்டவணை	-11.5227
▁எதிரணி	-11.5227
▁ஏஜென்சி	-11.5227
▁கம்மின்ஸ்	-11.5227
▁குலதெய்வ	-11.5227
▁பாராயணம்	-11.5227
▁யாரேனும்	-11.5227
▁தலைகீழாக	-11.5227
▁பண்ருட்டி	-11.5227
▁புல்டோசர்	-11.5227
▁வீடமைப்பு	-11.5227
▁அடக்குமுறை	-11.5227
▁ரஹானே	-11.5227
▁லாரன்ஸ்	-11.5227
▁அஸ்ஸாம்	-11.5227
▁ஊக்குவித்த	-11.5227
▁விபூதி	-11.5227
port	-11.5227
ப்படுவத	-11.5237
▁வன்னி	-11.5239
▁எடுத்துக்கொள்வ	-11.525
▁சாதக	-11.5267
▁குளிப்ப	-11.5278
▁BJP	-11.5381
▁கிரெடிட்	-11.5381
▁சொற்பொழிவ	-11.5381
▁பங்குச்சந்தை	-11.5381
▁புகையிரத	-11.5381
▁ரொனால்டோ	-11.5381
▁வடிகால்	-11.5381
▁வியாழன்	-11.5381
▁பெருமளவு	-11.5381
▁லட்சுமண	-11.5381
▁டிஎன்ஏ	-11.5381
▁லக்னெள	-11.5381
▁கொள்கிறோம்	-11.5381
▁ஹெக்டே	-11.5381
▁பின்னடைவை	-11.5381
▁கட்டாயமாக்க	-11.5382
▁பதாகை	-11.5385
▁சிதைந்த	-11.5405
▁ரஷித்	-11.5418
▁சைக்கிள	-11.5422
ிடுச்சு	-11.5429
▁எவ்வளவ	-11.5467
▁அலுவல்	-11.548
▁கலந்துகொள்வ	-11.549
▁துகள்கள	-11.549
▁ஆக்கிரமிக்க	-11.5537
▁இவ்விழாவ	-11.5537
▁திரெள	-11.5537
▁நயன்தாரா	-11.5537
▁பிற்பகுதியில்	-11.5537
▁பெரமுன	-11.5537
▁பேரறிஞர	-11.5537
▁இனப்பெருக்க	-11.5537
▁புறம்பான	-11.5537
▁மெட்ராஸ்	-11.5537
▁பெரேரா	-11.5537
▁ரேடியோ	-11.5537
▁வேண்டாமா	-11.5537
▁வீச்சாளர்	-11.5537
▁கடைப்பிடித்த	-11.5537
▁கவர்ச்சி	-11.5537
▁பதிவாளர்	-11.5537
▁குடிமகன	-11.5538
▁தோழர்	-11.5538
▁உண்ப	-11.5539
▁குடும்பத்தார	-11.5543
▁மகிழ்வ	-11.5546
தற்கே	-11.5551
▁வாசகர்கள	-11.5551
▁சோதித்த	-11.557
▁அடுப்ப	-11.5613
▁ட்விட்டர	-11.562
▁மலையேற	-11.5621
▁குறுக்கிட்ட	-11.5623
▁அலுவலர	-11.5639
▁ஈழத்	-11.5655
பிரகாஷ்	-11.5665
அடுத்த	-11.5673
▁அபிேஷக	-11.5696
▁இந்தோனேசியா	-11.5696
▁நேற்றிரவு	-11.5696
▁படுகாயம்	-11.5696
▁பெஞ்சமின்	-11.5696
▁மதுவிலக்கு	-11.5696
▁ராஜபக்க்ஷ	-11.5696
▁நல்லெண்ண	-11.5696
▁வானொலி	-11.5696
▁மெக்சிகோ	-11.5696
▁குளறுபடி	-11.5696
▁ரவிக்குமார்	-11.5696
▁வாஜ்பாய	-11.5696
▁மேத்யூ	-11.5696
▁இமாச்சல	-11.5697
▁விபரம்	-11.5697
▁நடாத்த	-11.5701
ராமநாதபுர	-11.5704
▁எதிர்வினையாற்ற	-11.5706
▁எடுத்துரைத்த	-11.5706
▁கவனிப்ப	-11.5707
▁தேசிக	-11.5708
▁இயல்ப	-11.5709
▁வயிற்றில	-11.5732
▁குவிப்ப	-11.575
▁தாவூத்	-11.5751
▁கோவாவில	-11.5763
▁பூக்கள	-11.5793
▁மகாதேவ	-11.5803
▁பலரால	-11.5815
▁அசோக	-11.5825
▁தலித்துகள	-11.5825
தொகுதி	-11.5826
▁திடுக்கிட	-11.5837
கிடைக்கப்போகிறது	-11.5843
▁பரிதாப	-11.5853
▁அமுல்படுத்த	-11.5857
▁டைட்டானிக்	-11.5857
▁ட்விஸ்ட்	-11.5857
▁பெரம்பலூர்	-11.5857
▁மறுபரிசீலனை	-11.5857
▁முக்குலத்தோர்	-11.5857
▁ஹம்பாந்தோட்டை	-11.5857
▁இளைஞன	-11.5857
▁பரவாயில்லை	-11.5857
▁தேவைப்பட்டால்	-11.5857
▁பலனளிக்க	-11.5857
▁ராஜகோபுர	-11.5857
▁குழம்பி	-11.5858
▁ஏழாவத	-11.5859
▁பருமன	-11.5869
▁அறிவியல	-11.5881
▁வெயிட்	-11.5898
▁குறியீட	-11.5906
▁தோளில	-11.5912
விக்ரம	-11.5922
▁உயிரிழந்தவர்கள	-11.5924
முடியவில்லை	-11.599
▁டெண்டுல்கர	-11.6021
▁மின்கட்டண	-11.6021
▁அருப்புக்கோட்டை	-11.6021
▁ஆசீர்வாத	-11.6021
▁இரண்டாவதாக	-11.6021
▁ஏழுமலையான்	-11.6021
▁சமாளித்து	-11.6021
▁சுங்கச்சாவடி	-11.6021
▁பன்முகத்தன்மை	-11.6021
▁பொதுத்தேர்வு	-11.6021
▁ராஷ்ட்ரிய	-11.6021
▁ஹெல்மெட்	-11.6021
▁1992	-11.6021
▁விக்னேஸ்வர	-11.6021
▁வெள்ளப்பெருக்கு	-11.6021
▁நரம்பியல	-11.6021
▁பின்வருமாறு	-11.6021
▁ராமாயண	-11.6021
▁வெளிப்படையான	-11.6021
▁ஜெர்மன்	-11.6021
▁திருக்குறள	-11.6021
▁சப்போர்ட்	-11.6021
▁ஞானவாபி	-11.6021
▁மனிதநேய	-11.6021
▁விதிவிலக்க	-11.6021
▁(22)	-11.6021
▁விஜயபாஸ்கர்	-11.6021
▁Pro	-11.6022
▁வருண்	-11.6022
▁சார்லஸ்	-11.6022
அன்பழகன்	-11.6022
▁ஹிட்லர	-11.6022
▁அகதிகளாக	-11.6023
▁கொடநாட	-11.6023
▁தண்ணி	-11.6024
▁முகலாய	-11.6024
▁செழிப்ப	-11.6026
▁கொம்ப	-11.6029
▁இறந்தவர்கள	-11.6035
▁கொள்ளையர்கள	-11.6038
▁இத்தல	-11.6046
▁ஆங்கிலேய	-11.6059
▁ஹேரத்	-11.6069
▁வரவிருக்க	-11.6077
▁மணமகள	-11.6092
கொள்வார்	-11.6112
▁பாலத்தீனர்கள	-11.6143
▁சுமந்த	-11.6155
▁கொல்கத்தாவில	-11.6166
7,000	-11.617
▁அருள்பாலித்த	-11.617
▁டார்கெட்	-11.6188
▁தீபாரதனை	-11.6188
▁துரதிர்ஷ்ட	-11.6188
▁துர்நாற்றம்	-11.6188
▁படுதோல்வி	-11.6188
▁பரிசீலித்த	-11.6188
▁யஷ்வந்த்	-11.6188
▁லெப்டினன்	-11.6188
▁வன்மையாக	-11.6188
▁வாடிக்கையாக	-11.6188
▁கோரமண்டல்	-11.6188
▁பெய்ஜிங்	-11.6188
▁வீழ்ந்த	-11.6188
▁அல்டிமேட்	-11.6188
▁கொள்ளையடிக்க	-11.6188
▁தவறுதலாக	-11.6188
▁ஜவுளி	-11.6188
▁மாத்தறை	-11.6188
▁டெஸ்லா	-11.6188
▁மில்லர்	-11.6188
▁கங்கனா	-11.6188
▁வக்ஃப்	-11.6188
▁ஹாங்காங்	-11.6188
த்திறன்	-11.6188
க்குறிச்சி	-11.6188
▁அமோக	-11.6189
ுவதிலும்	-11.6192
▁மேம்படுத்துவத	-11.6204
▁அடைவத	-11.6235
▁ஹெலிகாப்டர	-11.63
மாட்டோம்	-11.6327
_	-11.6357
▁விசாகப்பட்டின	-11.6357
▁ஆக்சிஜன்	-11.6357
▁ஒமிக்ரான	-11.6357
▁சம்மேளன	-11.6357
▁சீர்குலைக்க	-11.6357
▁தொலைத்தொடர்பு	-11.6357
▁பனிப்பாறை	-11.6357
▁ராயப்பேட்டை	-11.6357
▁அவ்வாறான	-11.6357
▁சாத்தியக்கூறுகள	-11.6357
▁அலங்கரித்த	-11.6357
▁ஒருகட்டத்தில்	-11.6357
▁டேனியல்	-11.6357
▁வணக்கம்	-11.6357
▁ராமானுஜ	-11.6357
▁காசோலை	-11.6357
▁சக்கரவர்த்தி	-11.6357
▁நகர்புற	-11.6357
▁முகூர்த்த	-11.6357
▁(24)	-11.6357
▁நாகரீக	-11.6357
▁லேசாக	-11.6357
▁இயேசு	-11.6357
▁ஐபோன்	-11.6357
▁கிருமி	-11.6357
▁முழக்கத்த	-11.6357
▁செயலாற்ற	-11.6358
▁சமாதி	-11.6359
₹	-11.7251
र	-11.844
े	-11.8653
[	-11.932
]	-11.932
क	-12.0034
न	-12.0541
	-12.0541
्	-12.0804
&	-12.2838
ी	-12.287
म	-12.3203
ि	-12.3548
प	-12.3905
स	-12.3905
ं	-12.466
ह	-12.466
ो	-12.5912
­	-12.6366
	-12.6842
ங	-12.7286
त	-12.7342
ल	-12.7869
व	-12.8424
द	-12.9012
>	-12.9637
ग	-12.9637
௦	-12.9637
य	-13.0304
ब	-13.1018
श	-13.2621
ू	-13.353
भ	-13.453
•	-13.5641
#	-13.686
ા	-13.6891
ஶ	-13.6891
‛	-13.8288
ध	-13.832
~	-13.832
°	-13.832
ए	-13.832
	-13.832
ट	-13.832
ન	-13.9986
😂	-13.9986
ु	-13.9986
મ	-14.1986
§	-14.1986
‍	-14.1986
\	-14.1986
ख	-14.1986
अ	-14.1986
ै	-14.1986
च	-14.1986
·	-14.4486
ل	-14.4486
ड	-14.4486
ष	-14.4486
જ	-14.4486
ે	-14.4486
★	-14.4486
௫	-14.4486
इ	-14.4486
ौ	-14.782
⁠	-14.782
×	-14.782
é	-14.782
ا	-14.782
ત	-14.782
ી	-14.782
❔	-14.782
	-14.782
ક	-14.782
ई	-14.782
ર	-14.782
્	-14.782
<	-15.282
õ	-15.282
÷	-15.282
و	-15.282
ي	-15.282
औ	-15.282
छ	-15.282
़	-15.282
।	-15.282
ટ	-15.282
ય	-15.282
સ	-15.282
௩	-15.282
′	-15.282
⁄	-15.282
●	-15.282
◾	-15.282
⦁	-15.282
વ	-15.282
௨	-16.2808
घ	-16.2809
š	-16.281
	-16.2811
थ	-16.2812
आ	-16.2813
௧	-16.2814
ण	-16.2815
£	-16.2816
ज	-16.2817
$	-16.2818
ஔ	-16.2819
उ	-16.2819
å	-16.282
í	-16.282
^	-16.282
{	-16.282
}	-16.282
®	-16.282
Á	-16.282
ñ	-16.282
ö	-16.282
ō	-16.282
ʻ	-16.282
إ	-16.282
د	-16.282
ر	-16.282
س	-16.282
م	-16.282
ه	-16.282
फ	-16.282
અ	-16.282
આ	-16.282
ઉ	-16.282
ઓ	-16.282
ખ	-16.282
ણ	-16.282
થ	-16.282
દ	-16.282
પ	-16.282
ફ	-16.282
ભ	-16.282
લ	-16.282
ો	-16.282
௭	-16.282
௹	-16.282
‟	-16.282
€	-16.282
⏩	-16.282
	-16.282
	-16.282
👇	-16.282
💥	-16.282
😊	-16.282
😐	-16.282
😲	-16.282
̈	-16.282
ô	-16.282
௬	-16.282
(	-16.282
ł	-16.282
િ	-16.282
