{
  "version": "1.0",
  "truncation": null,
  "padding": null,
  "added_tokens": [
    {
      "id": 0,
      "content": "[UNK]",
      "single_word": false,
      "lstrip": false,
      "rstrip": false,
      "normalized": false,
      "special": true
    },
    {
      "id": 1,
      "content": "[CLS]",
      "single_word": false,
      "lstrip": false,
      "rstrip": false,
      "normalized": false,
      "special": true
    },
    {
      "id": 2,
      "content": "[SEP]",
      "single_word": false,
      "lstrip": false,
      "rstrip": false,
      "normalized": false,
      "special": true
    },
    {
      "id": 3,
      "content": "[PAD]",
      "single_word": false,
      "lstrip": false,
      "rstrip": false,
      "normalized": false,
      "special": true
    },
    {
      "id": 4,
      "content": "[MASK]",
      "single_word": false,
      "lstrip": false,
      "rstrip": false,
      "normalized": false,
      "special": true
    }
  ],
  "normalizer": {
    "type": "Sequence",
    "normalizers": [
      {
        "type": "NFKC"
      },
      {
        "type": "Lowercase"
      }
    ]
  },
  "pre_tokenizer": {
    "type": "Whitespace"
  },
  "post_processor": null,
  "decoder": {
    "type": "WordPiece",
    "prefix": "##",
    "cleanup": true
  },
  "model": {
    "type": "WordPiece",
    "unk_token": "[UNK]",
    "continuing_subword_prefix": "##",
    "max_input_chars_per_word": 100,
    "vocab": {
      "[UNK]": 0,
      "[CLS]": 1,
      "[SEP]": 2,
      "[PAD]": 3,
      "[MASK]": 4,
      "!": 5,
      "\"": 6,
      "#": 7,
      "$": 8,
      "%": 9,
      "&": 10,
      "'": 11,
      "(": 12,
      ")": 13,
      "*": 14,
      "+": 15,
      ",": 16,
      "-": 17,
      ".": 18,
      "/": 19,
      "0": 20,
      "1": 21,
      "2": 22,
      "3": 23,
      "4": 24,
      "5": 25,
      "6": 26,
      "7": 27,
      "8": 28,
      "9": 29,
      ":": 30,
      ";": 31,
      "<": 32,
      "=": 33,
      ">": 34,
      "?": 35,
      "@": 36,
      "[": 37,
      "\\": 38,
      "]": 39,
      "^": 40,
      "_": 41,
      "`": 42,
      "a": 43,
      "b": 44,
      "c": 45,
      "d": 46,
      "e": 47,
      "f": 48,
      "g": 49,
      "h": 50,
      "i": 51,
      "j": 52,
      "k": 53,
      "l": 54,
      "m": 55,
      "n": 56,
      "o": 57,
      "p": 58,
      "q": 59,
      "r": 60,
      "s": 61,
      "t": 62,
      "u": 63,
      "v": 64,
      "w": 65,
      "x": 66,
      "y": 67,
      "z": 68,
      "{": 69,
      "}": 70,
      "~": 71,
      "£": 72,
      "§": 73,
      "­": 74,
      "®": 75,
      "°": 76,
      "·": 77,
      "×": 78,
      "á": 79,
      "å": 80,
      "é": 81,
      "í": 82,
      "ñ": 83,
      "ô": 84,
      "õ": 85,
      "ö": 86,
      "÷": 87,
      "ł": 88,
      "ō": 89,
      "š": 90,
      "ʻ": 91,
      "̈": 92,
      "إ": 93,
      "ا": 94,
      "د": 95,
      "ر": 96,
      "س": 97,
      "ل": 98,
      "م": 99,
      "ه": 100,
      "و": 101,
      "ي": 102,
      "ं": 103,
      "अ": 104,
      "आ": 105,
      "इ": 106,
      "ई": 107,
      "उ": 108,
      "ए": 109,
      "औ": 110,
      "क": 111,
      "ख": 112,
      "ग": 113,
      "घ": 114,
      "च": 115,
      "छ": 116,
      "ज": 117,
      "ट": 118,
      "ड": 119,
      "ण": 120,
      "त": 121,
      "थ": 122,
      "द": 123,
      "ध": 124,
      "न": 125,
      "प": 126,
      "फ": 127,
      "ब": 128,
      "भ": 129,
      "म": 130,
      "य": 131,
      "र": 132,
      "ल": 133,
      "व": 134,
      "श": 135,
      "ष": 136,
      "स": 137,
      "ह": 138,
      "़": 139,
      "ा": 140,
      "ि": 141,
      "ी": 142,
      "ु": 143,
      "ू": 144,
      "े": 145,
      "ै": 146,
      "ो": 147,
      "ौ": 148,
      "्": 149,
      "।": 150,
      "અ": 151,
      "આ": 152,
      "ઉ": 153,
      "ઓ": 154,
      "ક": 155,
      "ખ": 156,
      "જ": 157,
      "ટ": 158,
      "ણ": 159,
      "ત": 160,
      "થ": 161,
      "દ": 162,
      "ન": 163,
      "પ": 164,
      "ફ": 165,
      "ભ": 166,
      "મ": 167,
      "ય": 168,
      "ર": 169,
      "લ": 170,
      "વ": 171,
      "સ": 172,
      "ા": 173,
      "િ": 174,
      "ી": 175,
      "ે": 176,
      "ો": 177,
      "્": 178,
      "ஃ": 179,
      "அ": 180,
      "ஆ": 181,
      "இ": 182,
      "ஈ": 183,
      "உ": 184,
      "ஊ": 185,
      "எ": 186,
      "ஏ": 187,
      "ஐ": 188,
      "ஒ": 189,
      "ஓ": 190,
      "ஔ": 191,
      "க": 192,
      "ங": 193,
      "ச": 194,
      "ஜ": 195,
      "ஞ": 196,
      "ட": 197,
      "ண": 198,
      "த": 199,
      "ந": 200,
      "ன": 201,
      "ப": 202,
      "ம": 203,
      "ய": 204,
      "ர": 205,
      "ற": 206,
      "ல": 207,
      "ள": 208,
      "ழ": 209,
      "வ": 210,
      "ஶ": 211,
      "ஷ": 212,
      "ஸ": 213,
      "ஹ": 214,
      "ா": 215,
      "ி": 216,
      "ீ": 217,
      "ு": 218,
      "ூ": 219,
      "ெ": 220,
      "ே": 221,
      "ை": 222,
      "ொ": 223,
      "ோ": 224,
      "ௌ": 225,
      "்": 226,
      "௦": 227,
      "௧": 228,
      "௨": 229,
      "௩": 230,
      "௫": 231,
      "௬": 232,
      "௭": 233,
      "௹": 234,
      "‌": 235,
      "‍": 236,
      "‎": 237,
      "‛": 238,
      "‟": 239,
      "•": 240,
      "′": 241,
      "⁄": 242,
      "⁠": 243,
      "€": 244,
      "₹": 245,
      "⏩": 246,
      "●": 247,
      "◾": 248,
      "★": 249,
      "❔": 250,
      "⦁": 251,
      "": 252,
      "": 253,
      "": 254,
      "": 255,
      "": 256,
      "": 257,
      "": 258,
      "�": 259,
      "👇": 260,
      "💥": 261,
      "😂": 262,
      "😊": 263,
      "😐": 264,
      "😲": 265,
      "🛩": 266,
      "##ா": 267,
      "##ட": 268,
      "##்": 269,
      "##ப": 270,
      "##வ": 271,
      "##ர": 272,
      "##ு": 273,
      "##க": 274,
      "##த": 275,
      "##ி": 276,
      "##ங": 277,
      "##ள": 278,
      "##ன": 279,
      "##ோ": 280,
      "##ம": 281,
      "##ச": 282,
      "##ெ": 283,
      "##ஜ": 284,
      "##ே": 285,
      "##ஸ": 286,
      "##ீ": 287,
      "##ண": 288,
      "##ய": 289,
      "##ல": 290,
      "##7": 291,
      "##5": 292,
      "##ூ": 293,
      "##t": 294,
      "##i": 295,
      "##n": 296,
      "##g": 297,
      "##ந": 298,
      "##ை": 299,
      "##ொ": 300,
      "##e": 301,
      "##p": 302,
      "##o": 303,
      "##r": 304,
      "##u": 305,
      "##a": 306,
      "##ற": 307,
      "##ௌ": 308,
      "##9": 309,
      "##ஃ": 310,
      "##k": 311,
      "##ழ": 312,
      "##ஆ": 313,
      "##ஐ": 314,
      "##ஷ": 315,
      "##s": 316,
      "##d": 317,
      "##ஹ": 318,
      "##x": 319,
      "##l": 320,
      "##_": 321,
      "##c": 322,
      "##h": 323,
      "##y": 324,
      "##ஞ": 325,
      "##4": 326,
      "##ा": 327,
      "##न": 328,
      "##ि": 329,
      "##ए": 330,
      "##'": 331,
      "##0": 332,
      "##8": 333,
      "##w": 334,
      "##2": 335,
      "##m": 336,
      "##3": 337,
      "##1": 338,
      "##b": 339,
      "##6": 340,
      "##எ": 341,
      "##!": 342,
      "##v": 343,
      "##z": 344,
      "##இ": 345,
      "##‌": 346,
      "##f": 347,
      "##j": 348,
      "##ह": 349,
      "##ल": 350,
      "##ी": 351,
      "##ஒ": 352,
      "##व": 353,
      "##र": 354,
      "##ज": 355,
      "##ो": 356,
      "##ं": 357,
      "##ग": 358,
      "##ण": 359,
      "##/": 360,
      "##ख": 361,
      "##्": 362,
      "##स": 363,
      "##,": 364,
      "##)": 365,
      "##ஏ": 366,
      "##[": 367,
      "##@": 368,
      "##ஈ": 369,
      "##அ": 370,
      "##உ": 371,
      "##े": 372,
      "##.": 373,
      "##$": 374,
      "##‍": 375,
      "##क": 376,
      "##ष": 377,
      "##ஊ": 378,
      "##?": 379,
      "##य": 380,
      "##ા": 381,
      "##જ": 382,
      "##પ": 383,
      "##ન": 384,
      "##સ": 385,
      "##>": 386,
      "##&": 387,
      "##q": 388,
      "##\"": 389,
      "##�": 390,
      "##;": 391,
      "##ஓ": 392,
      "##ड": 393,
      "###": 394,
      "##त": 395,
      "##ौ": 396,
      "##भ": 397,
      "##é": 398,
      "##-": 399,
      "##😐": 400,
      "##*": 401,
      "##😂": 402,
      "##ય": 403,
      "##ો": 404,
      "##મ": 405,
      "##લ": 406,
      "##્": 407,
      "##વ": 408,
      "##ણ": 409,
      "##ી": 410,
      "##च": 411,
      "##म": 412,
      "##द": 413,
      "##ु": 414,
      "##ध": 415,
      "##õ": 416,
      "##:": 417,
      "##ર": 418,
      "##ફ": 419,
      "##થ": 420,
      "##श": 421,
      "##௦": 422,
      "##િ": 423,
      "##ै": 424,
      "##ट": 425,
      "##प": 426,
      "##ू": 427,
      "##å": 428,
      "##­": 429,
      "##=": 430,
      "##£": 431,
      "##`": 432,
      "##௩": 433,
      "##ब": 434,
      "##छ": 435,
      "##ई": 436,
      "##௫": 437,
      "##š": 438,
      "##ل": 439,
      "##ا": 440,
      "##ر": 441,
      "##س": 442,
      "##و": 443,
      "##ه": 444,
      "##ي": 445,
      "##م": 446,
      "##د": 447,
      "##í": 448,
      "##ō": 449,
      "##<": 450,
      "##ટ": 451,
      "##ે": 452,
      "##‛": 453,
      "##ત": 454,
      "##ઓ": 455,
      "##ஶ": 456,
      "##(": 457,
      "##ક": 458,
      "##+": 459,
      "##÷": 460,
      "##×": 461,
      "##ł": 462,
      "##थ": 463,
      "##ʻ": 464,
      "##इ": 465,
      "##❔": 466,
      "##′": 467,
      "##़": 468,
      "##்க": 469,
      "##்த": 470,
      "##ம்": 471,
      "##ல்": 472,
      "##ன்": 473,
      "##்ட": 474,
      "##ர்": 475,
      "##க்க": 476,
      "##த்த": 477,
      "##்ப": 478,
      "##ரு": 479,
      "##ிய": 480,
      "##ள்": 481,
      "##ந்த": 482,
      "##து": 483,
      "##ில்": 484,
      "##ட்ட": 485,
      "##ப்ப": 486,
      "##ும்": 487,
      "##ங்க": 488,
      "##ாக": 489,
      "##ைய": 490,
      "##தி": 491,
      "##ிற": 492,
      "##ின்": 493,
      "##க்கு": 494,
      "##்ச": 495,
      "##டு": 496,
      "##று": 497,
      "##ள்ள": 498,
      "##ண்ட": 499,
      "##ார்": 500,
      "##ற்": 501,
      "##ிர": 502,
      "மு": 503,
      "##ார": 504,
      "செ": 505,
      "##த்து": 506,
      "##ில": 507,
      "##ான": 508,
      "வி": 509,
      "##டி": 510,
      "##ற்ற": 511,
      "என்": 512,
      "##லை": 513,
      "##ர்க": 514,
      "##ிக": 515,
      "கு": 516,
      "##ரி": 517,
      "##ந்து": 518,
      "##ட்டு": 519,
      "##வி": 520,
      "இரு": 521,
      "##ளை": 522,
      "செய": 523,
      "##ால்": 524,
      "போ": 525,
      "##வு": 526,
      "மா": 527,
      "இந்த": 528,
      "கொ": 529,
      "##ிரு": 530,
      "##றி": 531,
      "##ச்ச": 532,
      "கா": 533,
      "##ப்": 534,
      "அவ": 535,
      "##னை": 536,
      "##க்": 537,
      "##ளு": 538,
      "##த்தில்": 539,
      "##னர்": 540,
      "##ையில்": 541,
      "பெ": 542,
      "தொ": 543,
      "##மை": 544,
      "##ப்பு": 545,
      "நா": 546,
      "##த்": 547,
      "##ஸ்": 548,
      "பா": 549,
      "##ல்ல": 550,
      "வே": 551,
      "நட": 552,
      "##ம்ப": 553,
      "கூ": 554,
      "##ற்க": 555,
      "##ர்கள்": 556,
      "##ான்": 557,
      "தே": 558,
      "##ண்டு": 559,
      "##மி": 560,
      "##ன்ற": 561,
      "வெ": 562,
      "என": 563,
      "##ப்பட்ட": 564,
      "கட": 565,
      "##க்கும்": 566,
      "##ிறது": 567,
      "வரு": 568,
      "##ாய": 569,
      "உள்ள": 570,
      "##ிட": 571,
      "##ுவ": 572,
      "பிர": 573,
      "##ளில்": 574,
      "##ியா": 575,
      "அதி": 576,
      "##கள்": 577,
      "##வில்": 578,
      "அத": 579,
      "##ணி": 580,
      "தெ": 581,
      "##ற்ப": 582,
      "பே": 583,
      "##றை": 584,
      "##ரை": 585,
      "ஒரு": 586,
      "பு": 587,
      "கோ": 588,
      "##ங்கள்": 589,
      "##ண்": 590,
      "##ன்ன": 591,
      "##ளுக்கு": 592,
      "##கு": 593,
      "##டுத்த": 594,
      "மே": 595,
      "இத": 596,
      "தொட": 597,
      "##லா": 598,
      "##மாக": 599,
      "##ின": 600,
      "##்கள்": 601,
      "அர": 602,
      "என்று": 603,
      "##ரா": 604,
      "##த்தை": 605,
      "மற்ற": 606,
      "வழ": 607,
      "##வர்": 608,
      "##்ய": 609,
      "##மு": 610,
      "##திய": 611,
      "##டிய": 612,
      "##ளி": 613,
      "##மான": 614,
      "பொ": 615,
      "செய்த": 616,
      "நில": 617,
      "##ால": 618,
      "##ழு": 619,
      "##ிட்ட": 620,
      "##ட்ச": 621,
      "##தாக": 622,
      "##வே": 623,
      "அரச": 624,
      "##ச்": 625,
      "மற்றும்": 626,
      "என்ற": 627,
      "##வை": 628,
      "##்கு": 629,
      "##ள்ளது": 630,
      "##ற்று": 631,
      "##்த்த": 632,
      "##ப்பட": 633,
      "வா": 634,
      "##ிக்க": 635,
      "சு": 636,
      "##மா": 637,
      "முத": 638,
      "##ண்டும்": 639,
      "##வா": 640,
      "து": 641,
      "##ோது": 642,
      "##ன்று": 643,
      "வீ": 644,
      "##ட்": 645,
      "மீ": 646,
      "##ரிய": 647,
      "##னால்": 648,
      "அமை": 649,
      "நீ": 650,
      "வை": 651,
      "அதிக": 652,
      "குறி": 653,
      "##கிறது": 654,
      "திரு": 655,
      "##டன்": 656,
      "..": 657,
      "ரா": 658,
      "தொடர்": 659,
      "##டை": 660,
      "##னி": 661,
      "கே": 662,
      "செய்ய": 663,
      "##ளின்": 664,
      "##சி": 665,
      "நி": 666,
      "##வும்": 667,
      "##ழ்": 668,
      "இது": 669,
      "தலை": 670,
      "##ின்ற": 671,
      "##ிறார்": 672,
      "சே": 673,
      "தெரி": 674,
      "பல": 675,
      "##ாத": 676,
      "##வது": 677,
      "மூ": 678,
      "##களை": 679,
      "பி": 680,
      "தமி": 681,
      "சி": 682,
      "இருந்த": 683,
      "##ப்பட்டு": 684,
      "##ியில்": 685,
      "அந்த": 686,
      "எதி": 687,
      "வேண்டும்": 688,
      "என்ப": 689,
      "##னு": 690,
      "##ாம": 691,
      "ப்": 692,
      "##வத": 693,
      "த்த": 694,
      "##ணை": 695,
      "நே": 696,
      "##ரும்": 697,
      "அவர்": 698,
      "தான்": 699,
      "தெரிவி": 700,
      "இட": 701,
      "##ிகள்": 702,
      "##நில": 703,
      "ஏற்ப": 704,
      "##நா": 705,
      "நிற": 706,
      "##ையை": 707,
      "##ாள": 708,
      "##பு": 709,
      "##பி": 710,
      "க்": 711,
      "பய": 712,
      "##ய்": 713,
      "சிற": 714,
      "##ற்கு": 715,
      "பார": 716,
      "20": 717,
      "இருக்க": 718,
      "##ங்கு": 719,
      "கொண்ட": 720,
      "சொ": 721,
      "##ையும்": 722,
      "##டுத்து": 723,
      "முதல்": 724,
      "##வர": 725,
      "ிரு": 726,
      "##ட்டி": 727,
      "##ண்ண": 728,
      "##லி": 729,
      "##சிய": 730,
      "##னா": 731,
      "வந்த": 732,
      "கள": 733,
      "அறி": 734,
      "##ளிய": 735,
      "தீ": 736,
      "##ிற்கு": 737,
      "##ார்கள்": 738,
      "##்சி": 739,
      "##முக": 740,
      "மக்க": 741,
      "##க்கை": 742,
      "ஆண்டு": 743,
      "ம்": 744,
      "##த்தின்": 745,
      "##கா": 746,
      "ஆனால்": 747,
      "தா": 748,
      "ஆக": 749,
      "##தை": 750,
      "##டும்": 751,
      "வெளிய": 752,
      "##ள்ளார்": 753,
      "##த்திய": 754,
      "தி": 755,
      "##லும்": 756,
      "சில": 757,
      "கார": 758,
      "##வ்": 759,
      "##ங்களில்": 760,
      "##ிருந்த": 761,
      "##க்கப்பட்ட": 762,
      "இர": 763,
      "##ுக்கு": 764,
      "##பா": 765,
      "வர": 766,
      "##ூர்": 767,
      "ப்ப": 768,
      "சம": 769,
      "பண": 770,
      "##ற்றி": 771,
      "##த்தி": 772,
      "த்": 773,
      "##ாம்": 774,
      "##ப்பா": 775,
      "##வாக": 776,
      "##கின்ற": 777,
      "##க்கிய": 778,
      "##ர்த": 779,
      "பிற": 780,
      "##ிக்": 781,
      "##லில்": 782,
      "உய": 783,
      "##லம்": 784,
      "##ங்களை": 785,
      "##பெ": 786,
      "##ருக்கு": 787,
      "சா": 788,
      "நடை": 789,
      "##ியை": 790,
      "##ழை": 791,
      "முன்ன": 792,
      "##ரே": 793,
      "தன": 794,
      "அமைச்ச": 795,
      "##ழக": 796,
      "சந்த": 797,
      "##லக": 798,
      "முடி": 799,
      "##ன்ப": 800,
      "##ிலும்": 801,
      "##ருத்து": 802,
      "நிலையில்": 803,
      "##ிருக்க": 804,
      "##மன்ற": 805,
      "##தா": 806,
      "உட": 807,
      "கடந்த": 808,
      "##ஞ்ச": 809,
      "பட": 810,
      "இருந்து": 811,
      "மோ": 812,
      "வழங்க": 813,
      "##மைய": 814,
      "##ோம்": 815,
      "##ாய்": 816,
      "##மர்": 817,
      "##சார": 818,
      "##வில்லை": 819,
      "##ப்பி": 820,
      "செய்து": 821,
      "##வின்": 822,
      "போல": 823,
      "சட்ட": 824,
      "##ியு": 825,
      "அரசு": 826,
      "##ப்போது": 827,
      "கூற": 828,
      "க்க": 829,
      "##மே": 830,
      "தேர்த": 831,
      "இந்தியா": 832,
      "##்க்க": 833,
      "##ிடம்": 834,
      "##ரோ": 835,
      "##ஷ்": 836,
      "##ர்ந்த": 837,
      "##ியல்": 838,
      "##களில்": 839,
      "##தம்": 840,
      "##ராக": 841,
      "##ட்சி": 842,
      "பகு": 843,
      "##ேன்": 844,
      "##ங்கி": 845,
      "##ங்கள": 846,
      "பிரத": 847,
      "பின்": 848,
      "சீ": 849,
      "##வட்ட": 850,
      "நடைபெ": 851,
      "##வர்கள்": 852,
      "கை": 853,
      "##ணம்": 854,
      "போது": 855,
      "அனு": 856,
      "##டுக்க": 857,
      "பதி": 858,
      "##ிரி": 859,
      "##டைய": 860,
      "மாநில": 861,
      "மாவட்ட": 862,
      "##ந்தது": 863,
      "##ட்டில்": 864,
      "திட்ட": 865,
      "கிட": 866,
      "##சா": 867,
      "யும்": 868,
      "##ப்படி": 869,
      "பூ": 870,
      "##னம்": 871,
      "##ஜக": 872,
      "பொரு": 873,
      "##ரம்": 874,
      "##ரில்": 875,
      "கூட்ட": 876,
      "மேலும்": 877,
      "##ர்த்த": 878,
      "கொண்டு": 879,
      "##ப்படும்": 880,
      "மிக": 881,
      "இல": 882,
      "என்ன": 883,
      "##ங்": 884,
      "##கை": 885,
      "உள்ளது": 886,
      "பாஜக": 887,
      "கட்ட": 888,
      "##ன்னை": 889,
      "##ல்லை": 890,
      "##லு": 891,
      "ச்": 892,
      "##த்தார்": 893,
      "பொது": 894,
      "கால": 895,
      "அம": 896,
      "##கவ": 897,
      "தமிழ்": 898,
      "##ழி": 899,
      "மக": 900,
      "##ேச": 901,
      "தொடர்ப": 902,
      "##டா": 903,
      "##க்கி": 904,
      "ரூ": 905,
      "அடி": 906,
      "இருப்ப": 907,
      "##ட்டை": 908,
      "பத": 909,
      "குழ": 910,
      "##ஸ்த": 911,
      "##லாம்": 912,
      "##ளும்": 913,
      "##ரிக்க": 914,
      "##ியின்": 915,
      "எழு": 916,
      "அது": 917,
      "குறித்து": 918,
      "அனை": 919,
      "##ப்படு": 920,
      "##00": 921,
      "##ிருந்து": 922,
      "##ளர்": 923,
      "ஆகிய": 924,
      "##ர்களுக்கு": 925,
      "சூ": 926,
      "முன்": 927,
      "வரும்": 928,
      "அதிகார": 929,
      "இருக்கும்": 930,
      "நெ": 931,
      "##க்கம்": 932,
      "நிக": 933,
      "##ச்சி": 934,
      "##கிற": 935,
      "என்பது": 936,
      "ராஜ": 937,
      "##த்திற்கு": 938,
      "கிர": 939,
      "கல": 940,
      "கி": 941,
      "இந்திய": 942,
      "##சு": 943,
      "தற்ப": 944,
      "மருத்து": 945,
      "##ாலும்": 946,
      "நிறுவ": 947,
      "தொடர்ந்து": 948,
      "டி": 949,
      "பர": 950,
      "##ட்க": 951,
      "##ொரு": 952,
      "##கிறார்": 953,
      "##்ட்": 954,
      "நீதி": 955,
      "மணி": 956,
      "##கர்": 957,
      "##ியாக": 958,
      "விசார": 959,
      "குறிப்ப": 960,
      "சம்ப": 961,
      "உறு": 962,
      "வருகிறது": 963,
      "கரு": 964,
      "##வம்": 965,
      "##ையா": 966,
      "##தல்": 967,
      "கட்ச": 968,
      "தனது": 969,
      "##ெய": 970,
      "##ள்ளனர்": 971,
      "##ர்களை": 972,
      "கண": 973,
      "ிருக்க": 974,
      "தர": 975,
      "##ந்திர": 976,
      "தோ": 977,
      "##ோத": 978,
      "தேதி": 979,
      "இய": 980,
      "மாண": 981,
      "மக்கள்": 982,
      "நான்": 983,
      "##த்திர": 984,
      "##ப்பை": 985,
      "##வுக்கு": 986,
      "க்கு": 987,
      "தமிழக": 988,
      "பழ": 989,
      "சென்னை": 990,
      "##வடி": 991,
      "ஆத": 992,
      "##க்த": 993,
      "##வீ": 994,
      "கிடை": 995,
      "மீது": 996,
      "##கம்": 997,
      "##ப்படுத்த": 998,
      "வரை": 999,
      "போட்ட": 1000,
      "நாடு": 1001,
      "##ங்களுக்கு": 1002,
      "சேர்ந்த": 1003,
      "முக்கிய": 1004,
      "குறை": 1005,
      "நோ": 1006,
      "டெ": 1007,
      "போலீ": 1008,
      "பெரு": 1009,
      "...": 1010,
      "எதிர்": 1011,
      "##ழா": 1012,
      "என்றும்": 1013,
      "##தால்": 1014,
      "பாதி": 1015,
      "இல்லை": 1016,
      "##ந்தை": 1017,
      "உத": 1018,
      "##ப்பட்டது": 1019,
      "##க்கான": 1020,
      "காங்க": 1021,
      "இன்று": 1022,
      "கள்": 1023,
      "அவர": 1024,
      "விவ": 1025,
      "##போ": 1026,
      "##ாமல்": 1027,
      "விள": 1028,
      "கூறி": 1029,
      "உண": 1030,
      "##தியில்": 1031,
      "ஸ்": 1032,
      "தற்போது": 1033,
      "விட்ட": 1034,
      "பாது": 1035,
      "ங்க": 1036,
      "தொழ": 1037,
      "காங்கிர": 1038,
      "பாதுகா": 1039,
      "அரு": 1040,
      "##ளாக": 1041,
      "##விர": 1042,
      "அமைச்சர்": 1043,
      "##மும்": 1044,
      "##ியது": 1045,
      "விரு": 1046,
      "அளி": 1047,
      "நடவடி": 1048,
      "##டம்": 1049,
      "##கி": 1050,
      "##பதி": 1051,
      "எந்த": 1052,
      "##கையில்": 1053,
      "##ல்க": 1054,
      "##றைய": 1055,
      "உலக": 1056,
      "##ேய": 1057,
      "பிறகு": 1058,
      "மட்டு": 1059,
      "அல": 1060,
      "தெரிவித்து": 1061,
      "202": 1062,
      "பெற்ற": 1063,
      "##ழ்ச": 1064,
      "##்பு": 1065,
      "தமிழ்நா": 1066,
      "அறிவி": 1067,
      "##ப்பட்டுள்ளது": 1068,
      "வருகின்ற": 1069,
      "ஸ்ட": 1070,
      "தகவ": 1071,
      "##ினார்": 1072,
      "குற்ற": 1073,
      "##டியா": 1074,
      "##ீர்": 1075,
      "காவ": 1076,
      "வந்து": 1077,
      "நேர": 1078,
      "##ாளர்": 1079,
      "##ர்களின்": 1080,
      "சொல்ல": 1081,
      "பெய": 1082,
      "##ற்கொ": 1083,
      "வில": 1084,
      "செல்ல": 1085,
      "##மார்": 1086,
      "அள": 1087,
      "மூலம்": 1088,
      "கூறு": 1089,
      "##ப்படுகிறது": 1090,
      "உரு": 1091,
      "இலங்க": 1092,
      "அவர்கள்": 1093,
      "##விட்ட": 1094,
      "##ம்ம": 1095,
      "##ோர்": 1096,
      "##கார": 1097,
      "##ந்": 1098,
      "##ாதார": 1099,
      "காரண": 1100,
      "தலைவர்": 1101,
      "வார": 1102,
      "போன்ற": 1103,
      "யா": 1104,
      "##யில்": 1105,
      "செயல்": 1106,
      "##ர்க்க": 1107,
      "பேச": 1108,
      "மருத்துவ": 1109,
      "வய": 1110,
      "ஆர்": 1111,
      "சென்ற": 1112,
      "ஆர": 1113,
      "அல்ல": 1114,
      "என்க": 1115,
      "மத்திய": 1116,
      "கொள்ள": 1117,
      "நிர்": 1118,
      "தூ": 1119,
      "படி": 1120,
      "இல்ல": 1121,
      "##ில்லை": 1122,
      "காங்கிரஸ்": 1123,
      "##வதாக": 1124,
      "உத்த": 1125,
      "##றும்": 1126,
      "முடிய": 1127,
      "நடவடிக்கை": 1128,
      "சர்": 1129,
      "சமூ": 1130,
      "வேலை": 1131,
      "##வ்வ": 1132,
      "ஆம்": 1133,
      "மொ": 1134,
      "அணி": 1135,
      "பார்த்த": 1136,
      "விடு": 1137,
      "உள்ளிட்ட": 1138,
      "##முறை": 1139,
      "முடியா": 1140,
      "போரா": 1141,
      "##னார்": 1142,
      "அதை": 1143,
      "எம்": 1144,
      "வேண்ட": 1145,
      "அதிமுக": 1146,
      "திர": 1147,
      "நிறுவன": 1148,
      "##ையே": 1149,
      "##ர்வு": 1150,
      "நிலை": 1151,
      "வும்": 1152,
      "##ாகி": 1153,
      "##மதி": 1154,
      "கூட": 1155,
      "வெளி": 1156,
      "வாய": 1157,
      "##ுடன்": 1158,
      "##ரிச": 1159,
      "அதே": 1160,
      "##ிகளை": 1161,
      "##களுக்கு": 1162,
      "##பர்": 1163,
      "##ற்காக": 1164,
      "கட்சி": 1165,
      "10": 1166,
      "##போது": 1167,
      "##ங்கே": 1168,
      "##ணைய": 1169,
      "தேர்தல்": 1170,
      "பிரதமர்": 1171,
      "19": 1172,
      "முய": 1173,
      "##த்துக்கு": 1174,
      "களை": 1175,
      "நடத்த": 1176,
      "சமூக": 1177,
      "கவ": 1178,
      "வைத்து": 1179,
      "மாத": 1180,
      "செல்": 1181,
      "ஏற்படுத்த": 1182,
      "அமெ": 1183,
      "இரண்டு": 1184,
      "அமெரிக்க": 1185,
      "##வரை": 1186,
      "##ட்ப": 1187,
      "##வில": 1188,
      "திமுக": 1189,
      "ஒன்ற": 1190,
      "##டும்ப": 1191,
      "குடும்ப": 1192,
      "தின": 1193,
      "அண": 1194,
      "பேசிய": 1195,
      "##வேறு": 1196,
      "மேற்கொ": 1197,
      "\",": 1198,
      "அரசியல்": 1199,
      "பல்": 1200,
      "புதிய": 1201,
      "##்து": 1202,
      "##ஆம்": 1203,
      "உத்தர": 1204,
      "மாற்ற": 1205,
      "கண்ட": 1206,
      "##வரும்": 1207,
      "##ரீ": 1208,
      "எடுத்து": 1209,
      "விட": 1210,
      "##ரின்": 1211,
      "இதனால்": 1212,
      "அவரது": 1213,
      "##ர்கள": 1214,
      "##ப்பது": 1215,
      "சந்தி": 1216,
      "##க்காக": 1217,
      "##ப்பில்": 1218,
      "சார்": 1219,
      "ஆய": 1220,
      "பெரிய": 1221,
      "குழந்தை": 1222,
      "##ற்கான": 1223,
      "நடி": 1224,
      "பட்ட": 1225,
      "##ோடு": 1226,
      "தய": 1227,
      "##ஜ்": 1228,
      "பயன்ப": 1229,
      "##தும்": 1230,
      "##ச்சை": 1231,
      "##ம்பி": 1232,
      "அழை": 1233,
      "இதில்": 1234,
      "##ள்க": 1235,
      "தொடங்க": 1236,
      "இருக்கிறது": 1237,
      "##ென": 1238,
      "##ாவது": 1239,
      "சென்று": 1240,
      "பள்ள": 1241,
      "கல்": 1242,
      "நக": 1243,
      "இஸ்": 1244,
      "##ிலிருந்து": 1245,
      "கீ": 1246,
      "நினை": 1247,
      "நேற்று": 1248,
      "பேர்": 1249,
      "பல்வேறு": 1250,
      "##யில": 1251,
      "விழா": 1252,
      "பகுதி": 1253,
      "பக்த": 1254,
      "##ேயே": 1255,
      "##தான": 1256,
      "பார்க்க": 1257,
      "ஆதர": 1258,
      "அப்போது": 1259,
      "நிலைய": 1260,
      "நீதிமன்ற": 1261,
      "காண": 1262,
      "##ாள்": 1263,
      "##ந்தி": 1264,
      "##ெட்": 1265,
      "செய்": 1266,
      "கட்டு": 1267,
      "வழி": 1268,
      "மீண்டும்": 1269,
      "ஆய்": 1270,
      "பிரி": 1271,
      "அதன்": 1272,
      "முதல்வர்": 1273,
      "வழக்கு": 1274,
      "முறை": 1275,
      "வாழ": 1276,
      "எல்ல": 1277,
      "மன": 1278,
      "முதல": 1279,
      "கலந்து": 1280,
      "பெண": 1281,
      "##ையின்": 1282,
      "லட்ச": 1283,
      "களு": 1284,
      "உற": 1285,
      "தெரிய": 1286,
      "201": 1287,
      "இற": 1288,
      "##ஜி": 1289,
      "இணை": 1290,
      "பிடி": 1291,
      "##டுப": 1292,
      "வைத்த": 1293,
      "விர": 1294,
      "வீர": 1295,
      "எஸ்": 1296,
      "இன்ன": 1297,
      "வெற்றி": 1298,
      "தொடர்பாக": 1299,
      "##த்துறை": 1300,
      "ரஷ": 1301,
      "##ம்பு": 1302,
      "திரும": 1303,
      "வாய்ப": 1304,
      "##க்கள்": 1305,
      "பால": 1306,
      "நடந்த": 1307,
      "அங்கு": 1308,
      "தீர்": 1309,
      "நடைபெற்ற": 1310,
      "போராட்ட": 1311,
      "தேசிய": 1312,
      "பொறு": 1313,
      "##றிய": 1314,
      "##ன்க": 1315,
      "அதிகரி": 1316,
      "##எஸ்": 1317,
      "பாதுகாப்பு": 1318,
      "தங்க": 1319,
      "திற": 1320,
      "நிர்வாக": 1321,
      "##க்கொ": 1322,
      "வழக்க": 1323,
      "ரஷ்ய": 1324,
      "##ாங்க": 1325,
      "##யா": 1326,
      "##பார": 1327,
      "##பை": 1328,
      "##டைந்த": 1329,
      "மட்டுமே": 1330,
      "##ிறார்கள்": 1331,
      "##விய": 1332,
      "பயன்படுத்த": 1333,
      "பெற்று": 1334,
      "##சை": 1335,
      "பொருள": 1336,
      "ஈடுப": 1337,
      "இந்": 1338,
      "கேள்": 1339,
      "விசாரணை": 1340,
      "இலங்கை": 1341,
      "அடுத்த": 1342,
      "##ள்ளன": 1343,
      "மர": 1344,
      "அனைத்து": 1345,
      "##ழுவ": 1346,
      "தெரிவித்தார்": 1347,
      "நிகழ்ச": 1348,
      "##ரான": 1349,
      "##ளா": 1350,
      "சுவ": 1351,
      "எட": 1352,
      "சிறப்பு": 1353,
      "யின்": 1354,
      "வாக்கு": 1355,
      "குழு": 1356,
      "அதில்": 1357,
      "தாக": 1358,
      "இப்போது": 1359,
      "ுவத": 1360,
      "அல்லது": 1361,
      "##ிற்க": 1362,
      "##மல்": 1363,
      "##ிட்டு": 1364,
      "நடந்தது": 1365,
      "##வெ": 1366,
      "##ிகி": 1367,
      "இதை": 1368,
      "##நாய": 1369,
      "##ாரி": 1370,
      "வருகின்றனர்": 1371,
      "வகையில்": 1372,
      "##ட்டும்": 1373,
      "##தான்": 1374,
      "காரணமாக": 1375,
      "என்பதை": 1376,
      "நிய": 1377,
      "##ிருக்கிறது": 1378,
      "மறு": 1379,
      "##யம்": 1380,
      "அக": 1381,
      "பெண்": 1382,
      "##ளுமன்ற": 1383,
      "##ஸ்ட": 1384,
      "ஸ்டால": 1385,
      "துறை": 1386,
      "தெரிவித்த": 1387,
      "##லோ": 1388,
      "இருந்தது": 1389,
      "##டியாக": 1390,
      "சோ": 1391,
      "செயல்ப": 1392,
      "எடப்பா": 1393,
      "நல்ல": 1394,
      "##ச்சு": 1395,
      "##த்தம்": 1396,
      "கைது": 1397,
      "சிறு": 1398,
      "கூறினார்": 1399,
      "என்றார்": 1400,
      "##கே": 1401,
      "கருத்து": 1402,
      "நிறை": 1403,
      "##ியர்": 1404,
      "மாணவ": 1405,
      "பின்னர்": 1406,
      "முடிவு": 1407,
      "##ல்கள்": 1408,
      "ஏற்பட்ட": 1409,
      "யை": 1410,
      "யில்": 1411,
      "கிராம": 1412,
      "##ஷ்ட": 1413,
      "உயர்": 1414,
      "##ாடு": 1415,
      "##ப்பத": 1416,
      "மெ": 1417,
      "வெளியே": 1418,
      "எடப்பாடி": 1419,
      "யு": 1420,
      "விட்டு": 1421,
      "தொகு": 1422,
      "##க்கப்பட்டு": 1423,
      "மது": 1424,
      "##சிக": 1425,
      "``": 1426,
      "எடுக்க": 1427,
      "தன்": 1428,
      "கடை": 1429,
      "தனி": 1430,
      "சிவ": 1431,
      "##ட்டின்": 1432,
      "##நிலையில்": 1433,
      "வல": 1434,
      "##வான": 1435,
      "நம்ப": 1436,
      "பணி": 1437,
      "முழு": 1438,
      "முயற": 1439,
      "மிகவும்": 1440,
      "##ிருக்கிறார்": 1441,
      "பொருளாதார": 1442,
      "விஷ": 1443,
      "முடியும்": 1444,
      "செலு": 1445,
      "வச": 1446,
      "##ாகு": 1447,
      "##ியுள்ளது": 1448,
      "புக": 1449,
      "##ஸ்ட்": 1450,
      "யோ": 1451,
      "மாதம்": 1452,
      "மின்": 1453,
      "டெல்ல": 1454,
      "தாக்கு": 1455,
      "ிருந்த": 1456,
      "ரூப": 1457,
      "##சாய": 1458,
      "கோடி": 1459,
      "##ற்றை": 1460,
      "விதி": 1461,
      "##லாக": 1462,
      "பார்": 1463,
      "##மையான": 1464,
      "எப்படி": 1465,
      "செய்யப்பட்ட": 1466,
      "வாக": 1467,
      "##த்தது": 1468,
      "##ையாக": 1469,
      "அனுமதி": 1470,
      "##டியோ": 1471,
      "விமான": 1472,
      "##மது": 1473,
      "உருவா": 1474,
      "ஆட்ச": 1475,
      "##க்கல்": 1476,
      "அலுவ": 1477,
      "##ினர்": 1478,
      "##ீடு": 1479,
      "ஜெய": 1480,
      "குறித்த": 1481,
      "நாம்": 1482,
      "##தியாக": 1483,
      "##ையடுத்து": 1484,
      "##ரோனா": 1485,
      "##கொ": 1486,
      "##னாதி": 1487,
      "##ணுவ": 1488,
      "##ற்றிய": 1489,
      "காவல": 1490,
      "கொரோனா": 1491,
      "களுக்கு": 1492,
      "அதற்கு": 1493,
      "##ின்றனர்": 1494,
      "அப்ப": 1495,
      "##மையாக": 1496,
      "முன்னாள்": 1497,
      "ஜனாதி": 1498,
      "##தாகவும்": 1499,
      "##ியன்": 1500,
      "செயலா": 1501,
      "தவ": 1502,
      "ஆளு": 1503,
      "##ளவு": 1504,
      "தமிழ்நாடு": 1505,
      "தேவ": 1506,
      "##நர்": 1507,
      "##விட": 1508,
      "##பர": 1509,
      "வாய்ப்பு": 1510,
      "##விட்டு": 1511,
      "நாங்கள்": 1512,
      "ட்": 1513,
      "என்கிறார்": 1514,
      "வாங்க": 1515,
      "##ண்ட்": 1516,
      "தொழில்": 1517,
      "மருத்துவம": 1518,
      "பதிவு": 1519,
      "களில்": 1520,
      "பற்றி": 1521,
      "தலைமை": 1522,
      "விவசாய": 1523,
      "மதி": 1524,
      "முடியாது": 1525,
      "##ச்சா": 1526,
      "இதற்கு": 1527,
      "##னித": 1528,
      "##நி": 1529,
      "##லுக்கு": 1530,
      "சிக்க": 1531,
      "முக": 1532,
      "கொடுத்த": 1533,
      "பூஜ": 1534,
      "பழனி": 1535,
      "##ளம்": 1536,
      "தகவல்": 1537,
      "களின்": 1538,
      "##க்கூ": 1539,
      "##ஸ்க": 1540,
      "##வதற்கு": 1541,
      "நான": 1542,
      "##ிருந்தார்": 1543,
      "விவகார": 1544,
      "இஸ்ரே": 1545,
      "சத": 1546,
      "ஆண்ட": 1547,
      "12": 1548,
      "கோவில": 1549,
      "இந்நிலையில்": 1550,
      "கொள்க": 1551,
      "##ரியா": 1552,
      "##ின்றன": 1553,
      "##சிர": 1554,
      "##ண்ணி": 1555,
      "30": 1556,
      "##பாடு": 1557,
      "அங்க": 1558,
      "க்கும்": 1559,
      "##டாது": 1560,
      "##ரவ": 1561,
      "##தே": 1562,
      "##றையில்": 1563,
      "##ிலான": 1564,
      "##சாமி": 1565,
      "ஸ்டாலின்": 1566,
      "விமர்": 1567,
      "உரி": 1568,
      "வின்": 1569,
      "ஸ்ரீ": 1570,
      "பாட": 1571,
      "பகுதியில்": 1572,
      "வங்க": 1573,
      "முழுவ": 1574,
      "ஒருவர்": 1575,
      "நடந்து": 1576,
      "நெரு": 1577,
      "தேர்தலில்": 1578,
      "எதிராக": 1579,
      "ஒன்று": 1580,
      "உணவு": 1581,
      "##தியை": 1582,
      "குறிப்பிட": 1583,
      "அமெரிக்கா": 1584,
      "மணிக்கு": 1585,
      "யாக": 1586,
      "##ியாள": 1587,
      "அடிப்பட": 1588,
      "மும்": 1589,
      "தீவிர": 1590,
      "15": 1591,
      "##ப்பின": 1592,
      "வேண்டிய": 1593,
      "முன்பு": 1594,
      "ஒவ்வ": 1595,
      "##ிலேயே": 1596,
      "##கள": 1597,
      "களும்": 1598,
      "ப்படு": 1599,
      "கேட்ட": 1600,
      "##க்கிறது": 1601,
      "காலை": 1602,
      "நிறு": 1603,
      "எனவே": 1604,
      "பக்தர்கள்": 1605,
      "வீடியோ": 1606,
      "ல்": 1607,
      "##கிறார்கள்": 1608,
      "##ப்பாக": 1609,
      "பரி": 1610,
      "கன": 1611,
      "##ருக்கும்": 1612,
      "கோவில்": 1613,
      "##பிஎஸ்": 1614,
      "விஜ": 1615,
      "அவரை": 1616,
      "ரஷ்யா": 1617,
      "உடன": 1618,
      "நிதி": 1619,
      "பெரும்": 1620,
      "அண்ண": 1621,
      "சங்க": 1622,
      "நாட்க": 1623,
      "##டக": 1624,
      "##ளுடன்": 1625,
      "சிகி": 1626,
      "##ர்ந்து": 1627,
      "##களின்": 1628,
      "நடத்தி": 1629,
      "##ேக": 1630,
      "பிரச்": 1631,
      "வீடு": 1632,
      "##ையான": 1633,
      "கேள்வி": 1634,
      "வெள்ள": 1635,
      "ஜன": 1636,
      "மூன்று": 1637,
      "##க்கோ": 1638,
      "வளர்": 1639,
      "ஏற்க": 1640,
      "ஆய்வு": 1641,
      "ராணுவ": 1642,
      "##நிலை": 1643,
      "சார்ப": 1644,
      "கர்": 1645,
      "##ணா": 1646,
      "நு": 1647,
      "நிகழ்": 1648,
      "##ராஜ": 1649,
      "ஜூ": 1650,
      "தை": 1651,
      "ஒரே": 1652,
      "##ிருக்கும்": 1653,
      "அவருக்கு": 1654,
      "அதிகாரிகள்": 1655,
      "கொடு": 1656,
      "ிற": 1657,
      "##கன்": 1658,
      "##த்தா": 1659,
      "காரணம்": 1660,
      "ஆட்சி": 1661,
      "ஆயிர": 1662,
      "இரண்ட": 1663,
      "மட்டும்": 1664,
      "##படி": 1665,
      "வேறு": 1666,
      "தடை": 1667,
      "காவல்து": 1668,
      "இவ": 1669,
      "எனக்கு": 1670,
      "##தில்": 1671,
      "11": 1672,
      "கூறிய": 1673,
      "ஜி": 1674,
      "ராகு": 1675,
      "மோடி": 1676,
      "பெற": 1677,
      "கடி": 1678,
      "தொழில": 1679,
      "##ிகளில்": 1680,
      "செய்யும்": 1681,
      "புது": 1682,
      "குறிப்பிட்ட": 1683,
      "சொன்ன": 1684,
      "பாரா": 1685,
      "##த்துடன்": 1686,
      "ஜனாதிபதி": 1687,
      "##மையில்": 1688,
      "ஒவ்வொரு": 1689,
      "##ப்ட": 1690,
      "உள்ளன": 1691,
      "பயண": 1692,
      "இதன்": 1693,
      "##ண்டி": 1694,
      "மனை": 1695,
      "உச்ச": 1696,
      "கல்ல": 1697,
      "வட": 1698,
      "கொள்": 1699,
      "##க்கப்பட்டது": 1700,
      "##ஸ்தான்": 1701,
      "சுற்று": 1702,
      "கடு": 1703,
      "இந்தப்": 1704,
      "இன்னும்": 1705,
      "விளையா": 1706,
      "##ீர": 1707,
      "##ரிக்கை": 1708,
      "##வார்": 1709,
      "##னில்": 1710,
      "அபி": 1711,
      "சூழ": 1712,
      "##ன்கள்": 1713,
      "ஜெ": 1714,
      "எதிர்க": 1715,
      "##வாள": 1716,
      "##ர்த்து": 1717,
      "குரு": 1718,
      "உண்": 1719,
      "வயது": 1720,
      "அம்": 1721,
      "உடல்": 1722,
      "சுமார்": 1723,
      "ள்": 1724,
      "##ந்த்": 1725,
      "ஊழ": 1726,
      "துணை": 1727,
      "##சார்": 1728,
      "ஆட்ட": 1729,
      "தமிழ": 1730,
      "இந்து": 1731,
      "முழுவதும்": 1732,
      "##ல்லாம்": 1733,
      "கும்": 1734,
      "##கின்றன": 1735,
      "இப்படி": 1736,
      "நாள்": 1737,
      "பதவி": 1738,
      "சம்பவம்": 1739,
      "ரூபாய்": 1740,
      "##ிகளுக்கு": 1741,
      "தவிர": 1742,
      "மை": 1743,
      "சிகிச்சை": 1744,
      "கொலை": 1745,
      "##ாமி": 1746,
      "குடிய": 1747,
      "##ம்மன்": 1748,
      "கோயில": 1749,
      "போலீஸ": 1750,
      "பூஜை": 1751,
      "தேர்வு": 1752,
      "இடங்களில்": 1753,
      "##ப்போ": 1754,
      "இவர்": 1755,
      "நிர": 1756,
      "நேரத்தில்": 1757,
      "யான": 1758,
      "டெல்லி": 1759,
      "சம்பவ": 1760,
      "##ப்பெ": 1761,
      "ஏன்": 1762,
      "கோயில்": 1763,
      "மனித": 1764,
      "##ஞ்சா": 1765,
      "உயிரி": 1766,
      "உறுதி": 1767,
      "செல": 1768,
      "நாடா": 1769,
      "மோச": 1770,
      "சீனா": 1771,
      "##ர்ம": 1772,
      "வருகிறார்": 1773,
      "000": 1774,
      "##னுக்கு": 1775,
      "தெரிவித்துள்ளார்": 1776,
      "தொடர்பான": 1777,
      "மாக": 1778,
      "இங்கு": 1779,
      "நாடாளுமன்ற": 1780,
      "அலுவலக": 1781,
      "##ாரம்": 1782,
      "மி": 1783,
      "##ள்ளதாக": 1784,
      "##ாரா": 1785,
      "நிகழ்ச்ச": 1786,
      "##த்துக்": 1787,
      "கீழ்": 1788,
      "##லைக்க": 1789,
      "நம்": 1790,
      "##ரிடம்": 1791,
      "தங்கள்": 1792,
      "மத": 1793,
      "தேவை": 1794,
      "சரிய": 1795,
      "கொடுக்க": 1796,
      "உயிரிழ": 1797,
      "இழ": 1798,
      "தெரிவிக்க": 1799,
      "தன்ன": 1800,
      "பார்த்து": 1801,
      "ன்": 1802,
      "பேர": 1803,
      "லட்சம்": 1804,
      "இறு": 1805,
      "பாகி": 1806,
      "பங்கே": 1807,
      "ரயில்": 1808,
      "கண்டு": 1809,
      "##ோதனை": 1810,
      "கூட்டணி": 1811,
      "ஆலோ": 1812,
      "பிரதேச": 1813,
      "யே": 1814,
      "##ட்டிய": 1815,
      "##வாத": 1816,
      "##வதை": 1817,
      "இளை": 1818,
      "##கின்றனர்": 1819,
      "##ில்ல": 1820,
      "##நிதி": 1821,
      "இன்": 1822,
      "வீட்டில்": 1823,
      "கல்வி": 1824,
      "விற": 1825,
      "##ட்கள்": 1826,
      "##ாளர்கள்": 1827,
      "காந்தி": 1828,
      "##வன்": 1829,
      "##பத்தில்": 1830,
      "எதிர்பார": 1831,
      "வாகன": 1832,
      "##னின்": 1833,
      "மேல்": 1834,
      "##்டர்": 1835,
      "ரி": 1836,
      "விலை": 1837,
      "##த்துள்ளது": 1838,
      "இளைஞ": 1839,
      "ரோ": 1840,
      "இதையடுத்து": 1841,
      "##ருந்து": 1842,
      "அரசாங்க": 1843,
      "ஆணைய": 1844,
      "ார்": 1845,
      "##நீ": 1846,
      "அதிர்": 1847,
      "செய்தி": 1848,
      "##ம்பர்": 1849,
      "தடு": 1850,
      "மைய": 1851,
      "##மைச்ச": 1852,
      "##ினி": 1853,
      "கேட்டு": 1854,
      "##ழமை": 1855,
      "##ங்களின்": 1856,
      "அடை": 1857,
      "மேற்ப": 1858,
      "சிங்": 1859,
      "##ங்கா": 1860,
      "எல்": 1861,
      "மாவட்டம்": 1862,
      "மேற்கொள்ள": 1863,
      "ராம": 1864,
      "கூறப்படுகிறது": 1865,
      "##க்கெ": 1866,
      "##ஸ்வர": 1867,
      "பை": 1868,
      "போர்": 1869,
      "##ப்புகள்": 1870,
      "##ந்துள்ளது": 1871,
      "புற": 1872,
      "##ிறேன்": 1873,
      "சரி": 1874,
      "எண்ண": 1875,
      "##ேற்ற": 1876,
      "##க்குறி": 1877,
      "##ினும்": 1878,
      "கெ": 1879,
      "பெண்கள்": 1880,
      "##த்தக்க": 1881,
      "வாழ்": 1882,
      "##ளுக்கும்": 1883,
      "லா": 1884,
      "##த்தக": 1885,
      "ஆலோச": 1886,
      "விரை": 1887,
      "வந்தது": 1888,
      "குடி": 1889,
      "பந்து": 1890,
      "செய்யப்பட்டு": 1891,
      "படை": 1892,
      "எண்ணி": 1893,
      "நீங்கள்": 1894,
      "நூ": 1895,
      "##்தான்": 1896,
      "ஓபிஎஸ்": 1897,
      "##ரல்": 1898,
      "போட்டிய": 1899,
      "இணைய": 1900,
      "பீ": 1901,
      "வர்": 1902,
      "பிரச்னை": 1903,
      "டிர": 1904,
      "பெண்க": 1905,
      "ஆன": 1906,
      "ஜோ": 1907,
      "பெரும்ப": 1908,
      "உறுப்பின": 1909,
      "மட்டும": 1910,
      "அற": 1911,
      "##ங்கிய": 1912,
      "எதிர்க்க": 1913,
      "இந்தியாவில்": 1914,
      "வாழ்க்க": 1915,
      "##வதேச": 1916,
      "சர்வதேச": 1917,
      "ும்": 1918,
      "னர்": 1919,
      "வள": 1920,
      "##லர்": 1921,
      "தொடர்பு": 1922,
      "கண்க": 1923,
      "வேட்ப": 1924,
      "18": 1925,
      "##ப்பதாக": 1926,
      "##ட்டுக்கு": 1927,
      "விஷய": 1928,
      "##சே": 1929,
      "200": 1930,
      "திரை": 1931,
      "பக்க": 1932,
      "##வார்கள்": 1933,
      "மாலை": 1934,
      "சார்பில்": 1935,
      "##சன்": 1936,
      "கட்சியின்": 1937,
      "##சம்": 1938,
      "வேண்டு": 1939,
      "ரீ": 1940,
      "##பிடி": 1941,
      "பெயர்": 1942,
      "##ெல்": 1943,
      "##ப்பிர": 1944,
      "கொடுத்து": 1945,
      "##ியார்": 1946,
      "மண்ட": 1947,
      "யார்": 1948,
      "அரசிய": 1949,
      "சக": 1950,
      "சுவாமி": 1951,
      "சாத": 1952,
      "சொந்த": 1953,
      "இரவு": 1954,
      "அப": 1955,
      "அளவில்": 1956,
      "##லின்": 1957,
      "போலீசார்": 1958,
      "கல்லூ": 1959,
      "திருப்ப": 1960,
      "##ப்பாளர்": 1961,
      "நடைபெற்றது": 1962,
      "துவ": 1963,
      "மூல": 1964,
      "சின்": 1965,
      "வைக்க": 1966,
      "50": 1967,
      "##்பட": 1968,
      "பிபி": 1969,
      "##..": 1970,
      "ஏற்பட்டு": 1971,
      "ப்பட்டு": 1972,
      "அரசின்": 1973,
      "##வராக": 1974,
      "##னும்": 1975,
      "வரலா": 1976,
      "அதேபோ": 1977,
      "அடைய": 1978,
      "முறைய": 1979,
      "##விழா": 1980,
      "எது": 1981,
      "##நாட்டு": 1982,
      "அதன்ப": 1983,
      "##ர்த்தி": 1984,
      "##ிடையே": 1985,
      "ஒது": 1986,
      "##ோக": 1987,
      "காவல்": 1988,
      "உக்": 1989,
      "##ாது": 1990,
      "அருகே": 1991,
      "##னையில்": 1992,
      "##்டு": 1993,
      "தரு": 1994,
      "கூறுகிறார்": 1995,
      "பள்ளி": 1996,
      "இதுவரை": 1997,
      "நம்பிக்க": 1998,
      "அனுப்ப": 1999,
      "##ஸ்தான": 2000,
      "திட": 2001,
      "##ுள்ள": 2002,
      "போல்": 2003,
      "##ங்கும்": 2004,
      "பரபர": 2005,
      "##ஸ்ப": 2006,
      "பணம்": 2007,
      "மக்கள": 2008,
      "திரும்ப": 2009,
      "செயலாளர்": 2010,
      "ஏற்று": 2011,
      "யூ": 2012,
      "##ெல்லாம்": 2013,
      "நாய": 2014,
      "##தலை": 2015,
      "##க்கில்": 2016,
      "அதிபர்": 2017,
      "பயிற": 2018,
      "காய": 2019,
      "செலுத்த": 2020,
      "நப": 2021,
      "இதனை": 2022,
      "##ியுள்ளார்": 2023,
      "மகி": 2024,
      "தீர்மான": 2025,
      "மழை": 2026,
      "கண்ண": 2027,
      "வகு": 2028,
      "அழைத்து": 2029,
      "நெருக்க": 2030,
      "மான": 2031,
      "##ேஷ்": 2032,
      "ஆப": 2033,
      "##ண்ப": 2034,
      "வில்லை": 2035,
      "பல்க": 2036,
      "##ஷன்": 2037,
      "வேக": 2038,
      "உக்ரை": 2039,
      "உங்கள்": 2040,
      "14": 2041,
      "##ிருந்தது": 2042,
      "எனக்": 2043,
      "இடையே": 2044,
      "வன்": 2045,
      "எனவும்": 2046,
      "போக": 2047,
      "தொடங்கி": 2048,
      "##மீ": 2049,
      "##ம்பெ": 2050,
      "பன்ன": 2051,
      "உதவி": 2052,
      "##ினால்": 2053,
      "##ற்றில்": 2054,
      "##ாக்": 2055,
      "சென்ன": 2056,
      "##ர்களும்": 2057,
      "புகார்": 2058,
      "சமீ": 2059,
      "சந்திர": 2060,
      "ஆளுநர்": 2061,
      "ிருக்கிறது": 2062,
      "##வியை": 2063,
      "##றுத்த": 2064,
      "##மையை": 2065,
      "##ள்ளி": 2066,
      "அப்படி": 2067,
      "நாட்டின்": 2068,
      "தலைவ": 2069,
      "25": 2070,
      "##ரன்": 2071,
      "கலை": 2072,
      "ஏற்பாடு": 2073,
      "உரிமை": 2074,
      "ரசிக": 2075,
      "அதனால்": 2076,
      "என்றால்": 2077,
      "பங்கு": 2078,
      "2022": 2079,
      "வருகின்றன": 2080,
      "கிடைக்கும்": 2081,
      "மார": 2082,
      "நீதிபதி": 2083,
      "##ானி": 2084,
      "மாட்ட": 2085,
      "பிரச்ச": 2086,
      "பொதும": 2087,
      "முதலமைச்ச": 2088,
      "##ிகா": 2089,
      "நிறைவே": 2090,
      "வில்": 2091,
      "##ஷ்ண": 2092,
      "இல்லாத": 2093,
      "உள்ளனர்": 2094,
      "செல்லும்": 2095,
      "இந்தக்": 2096,
      "##நக": 2097,
      "திட்டம்": 2098,
      "##ுத": 2099,
      "நீர்": 2100,
      "விமர்ச": 2101,
      "##த்தால்": 2102,
      "கிடைக்க": 2103,
      "##ாலி": 2104,
      "##வாதி": 2105,
      "செய்தனர்": 2106,
      "சர": 2107,
      "பத்திர": 2108,
      "##களாக": 2109,
      "##்த்தை": 2110,
      "ப்பட": 2111,
      "ஃப": 2112,
      "எடுத்த": 2113,
      "தொகுதி": 2114,
      "##ஃப்": 2115,
      "பரிச": 2116,
      "கொண்டா": 2117,
      "##ிகை": 2118,
      "13": 2119,
      "தேர்": 2120,
      "முயற்ச": 2121,
      "த்தை": 2122,
      "தோல்": 2123,
      "##ராட்சி": 2124,
      "நல": 2125,
      "##க்தி": 2126,
      "குற்றம்": 2127,
      "மண": 2128,
      "##ட்டர்": 2129,
      "திருமண": 2130,
      "போலீஸார்": 2131,
      "##டர்": 2132,
      "##ப்பின்": 2133,
      "தயார": 2134,
      "தள": 2135,
      "விழு": 2136,
      "பாதிப்பு": 2137,
      "ஒப்ப": 2138,
      "தல": 2139,
      "##ிறோம்": 2140,
      "எடு": 2141,
      "வருட": 2142,
      "நேரம்": 2143,
      "மனைவி": 2144,
      "வைர": 2145,
      "அமைப்பு": 2146,
      "அதாவது": 2147,
      "சேவை": 2148,
      "அளித்த": 2149,
      "##வாறு": 2150,
      "ப்பட்ட": 2151,
      "ஆகியோர்": 2152,
      "கைய": 2153,
      "போட்டி": 2154,
      "##மாறு": 2155,
      "ஊடக": 2156,
      "இஸ்ரேல்": 2157,
      "மேற்பட்ட": 2158,
      "சுத": 2159,
      "குறிப்பி": 2160,
      "ஆசிர": 2161,
      "நடத்திய": 2162,
      "இள": 2163,
      "இடை": 2164,
      "##ேகம்": 2165,
      "நகர": 2166,
      "விற்ப": 2167,
      "##கோ": 2168,
      "காட்ட": 2169,
      "தான": 2170,
      "##்த்து": 2171,
      "16": 2172,
      "##தற்கு": 2173,
      "கோரிக்கை": 2174,
      "வலியு": 2175,
      "விப": 2176,
      "இடம்": 2177,
      "குறிப்பிடத்தக்க": 2178,
      "##தள": 2179,
      "திருமணம்": 2180,
      "கேர": 2181,
      "##மொ": 2182,
      "அறிக்க": 2183,
      "இயக்கு": 2184,
      "##ரையா": 2185,
      "இருக்கிறார்": 2186,
      "##ர்களிடம்": 2187,
      "நீண்ட": 2188,
      "மூத்த": 2189,
      "##ப்பினர்": 2190,
      "கார்": 2191,
      "ராகுல்": 2192,
      "##சோ": 2193,
      "இடத்தில்": 2194,
      "ஈடுபட்ட": 2195,
      "##வார": 2196,
      "##வரின்": 2197,
      "பிரப": 2198,
      "ள்ள": 2199,
      "கண்கா": 2200,
      "முன்ப": 2201,
      "காலத்தில்": 2202,
      "சிர": 2203,
      "வுக்கு": 2204,
      "##ட்டா": 2205,
      "சுக": 2206,
      "##மூ": 2207,
      "ஏற்படும்": 2208,
      "அதிகமாக": 2209,
      "க்கூ": 2210,
      "பெறு": 2211,
      "##ளிக்க": 2212,
      "பல்கலைக்க": 2213,
      "##மைப்பு": 2214,
      "அட": 2215,
      "##க்கிர": 2216,
      "##ல்களை": 2217,
      "எப்போது": 2218,
      "என்பதால்": 2219,
      "லி": 2220,
      "##ப்த": 2221,
      "திருவிழா": 2222,
      "இந்தத்": 2223,
      "செய்க": 2224,
      "டா": 2225,
      "##க்களை": 2226,
      "மாற": 2227,
      "பிறந்த": 2228,
      "மறை": 2229,
      "இந்தியாவின்": 2230,
      "பழனிசாமி": 2231,
      "##வுகள்": 2232,
      "கேட்க": 2233,
      "அந்தப்": 2234,
      "கவன": 2235,
      "பன்னீர்": 2236,
      "ரெ": 2237,
      "இதே": 2238,
      "உதவ": 2239,
      "மருத்துவமனை": 2240,
      "பல்கலைக்கழக": 2241,
      "நடைபெறும்": 2242,
      "தமிழ்நாட்டில்": 2243,
      "##நு": 2244,
      "வித": 2245,
      "பேச்ச": 2246,
      "100": 2247,
      "அதனை": 2248,
      "##ர்களில்": 2249,
      "பாலியல்": 2250,
      "திட்டமி": 2251,
      "எதிர்ப்பு": 2252,
      "அடிப்படையில்": 2253,
      "தண்ட": 2254,
      "அன்று": 2255,
      "##ப்பான": 2256,
      "##ாமலை": 2257,
      "த்தில்": 2258,
      "##ன்னி": 2259,
      "மனு": 2260,
      "பகுதிகளில்": 2261,
      "17": 2262,
      "##மோ": 2263,
      "அறிக்கை": 2264,
      "வழக்கில்": 2265,
      "##புரம்": 2266,
      "##நீதி": 2267,
      "கர்நா": 2268,
      "ஆரம்ப": 2269,
      "##ப்பூ": 2270,
      "மதுரை": 2271,
      "நகர்": 2272,
      "வரவே": 2273,
      "குறிப்பாக": 2274,
      "எதிரான": 2275,
      "திரைப்பட": 2276,
      "##வால்": 2277,
      "தனியார்": 2278,
      "முயற்சி": 2279,
      "##ஜா": 2280,
      "வேல": 2281,
      "அவர்களின்": 2282,
      "மார்": 2283,
      "##வோம்": 2284,
      "##ிலோ": 2285,
      "வருமான": 2286,
      "சிலர்": 2287,
      "கிள": 2288,
      "குற்றச்சா": 2289,
      "##மார": 2290,
      "##ன்றி": 2291,
      "வெளியிட்டு": 2292,
      "பணியா": 2293,
      "நிறுவனம்": 2294,
      "முக்கியமான": 2295,
      "ஆன்": 2296,
      "##ப்பாடு": 2297,
      "##நாத": 2298,
      "##த்தியில்": 2299,
      "##மெ": 2300,
      "ுள்ளது": 2301,
      "24": 2302,
      "வான": 2303,
      "##களும்": 2304,
      "அழு": 2305,
      "டீ": 2306,
      "த்தின்": 2307,
      "டை": 2308,
      "##ங்கில": 2309,
      "பிரதி": 2310,
      "இன்ற": 2311,
      "வெற்ற": 2312,
      "ஹி": 2313,
      "ஆதி": 2314,
      "##ந்தில்": 2315,
      "##படுத்த": 2316,
      "##an": 2317,
      "##ன்மை": 2318,
      "என்னை": 2319,
      "மாணவர்கள்": 2320,
      "பயணம்": 2321,
      "தாக்குதல்": 2322,
      "உற்ப": 2323,
      "வலை": 2324,
      "அதிகம்": 2325,
      "வது": 2326,
      "எச்ச": 2327,
      "நண்ப": 2328,
      "##ட்டம்": 2329,
      "மேம்ப": 2330,
      "in": 2331,
      "எரி": 2332,
      "வரி": 2333,
      "வெடி": 2334,
      "சொல்": 2335,
      "##த்திலும்": 2336,
      "ஆதரவு": 2337,
      "எங்கள்": 2338,
      "சை": 2339,
      "##க்கப்படும்": 2340,
      "##ளித்த": 2341,
      "இருப்பதாக": 2342,
      "##ாண": 2343,
      "மல": 2344,
      "நடைபெற": 2345,
      "தமிழகத்தில்": 2346,
      "கர": 2347,
      "போக்கு": 2348,
      "கூடாது": 2349,
      "கொண்டிருந்த": 2350,
      "அமர்": 2351,
      "##வாய": 2352,
      "ஆரம்பி": 2353,
      "பற்றிய": 2354,
      "போன": 2355,
      "இருந்தாலும்": 2356,
      "அருக": 2357,
      "வெளியிட்ட": 2358,
      "##த்தினர்": 2359,
      "##கிறோம்": 2360,
      "நாளை": 2361,
      "நான்கு": 2362,
      "போட்டு": 2363,
      "போலீஸ்": 2364,
      "##ரசு": 2365,
      "##க்குழு": 2366,
      "##ிகளின்": 2367,
      "நோய": 2368,
      "யார": 2369,
      "##த்தீ": 2370,
      "ஒருங்கி": 2371,
      "ஒருங்கிணை": 2372,
      "பால்": 2373,
      "ஷா": 2374,
      "##ுடைய": 2375,
      "இணைந்து": 2376,
      "நிகழ்ச்சி": 2377,
      "அவர்களுக்கு": 2378,
      "##ஷா": 2379,
      "நீதிமன்றம்": 2380,
      "செய்தார்": 2381,
      "ஆண்டுகளுக்கு": 2382,
      "விரும்ப": 2383,
      "இவ்": 2384,
      "அவசிய": 2385,
      "##றித்து": 2386,
      "##பம்": 2387,
      "பதில்": 2388,
      "##தேச": 2389,
      "##வின": 2390,
      "குறிப்பிடத்தக்கது": 2391,
      "சுகாதார": 2392,
      "ுள்ளனர்": 2393,
      "##ழும்": 2394,
      "விக்": 2395,
      "கால்": 2396,
      "அவ்": 2397,
      "##லாத": 2398,
      "வெளியாக": 2399,
      "##ிருஷ்ண": 2400,
      "##ிரா": 2401,
      "கடன்": 2402,
      "பின்ன": 2403,
      "கோவிலில்": 2404,
      "நாக": 2405,
      "கடும்": 2406,
      "கூடு": 2407,
      "த்திற்கு": 2408,
      "வடி": 2409,
      "வந்தார்": 2410,
      "நிறுத்த": 2411,
      "அடையாள": 2412,
      "இனி": 2413,
      "மாதி": 2414,
      "தென்": 2415,
      "பதில": 2416,
      "தயாரி": 2417,
      "கணி": 2418,
      "சுதந்திர": 2419,
      "சட்டமன்ற": 2420,
      "நாடுகள்": 2421,
      "டாக": 2422,
      "##ியான": 2423,
      "தால்": 2424,
      "##வரி": 2425,
      "த்து": 2426,
      "அவரு": 2427,
      "##நுட்ப": 2428,
      "தொலை": 2429,
      "நாட்டில்": 2430,
      "நடைபெற்று": 2431,
      "இல்லாமல்": 2432,
      "ஆறு": 2433,
      "சொல்லி": 2434,
      "##ியும்": 2435,
      "அம்மா": 2436,
      "இறுதி": 2437,
      "##வினர்": 2438,
      "சதவீ": 2439,
      "தண்ண": 2440,
      "தாக்க": 2441,
      "குழுவ": 2442,
      "எல்லா": 2443,
      "உட்பட": 2444,
      "சோதனை": 2445,
      "கூட்டம்": 2446,
      "##க்கண": 2447,
      "##க்குறிப்பு": 2448,
      "விரி": 2449,
      "புரி": 2450,
      "மக்களுக்கு": 2451,
      "தரிச": 2452,
      "கூடிய": 2453,
      "பலர்": 2454,
      "##ூர்வ": 2455,
      "##டல்": 2456,
      "##ியம்": 2457,
      "பிபிசி": 2458,
      "படம்": 2459,
      "காவல்துறை": 2460,
      "இந்தச்": 2461,
      "##ப்பே": 2462,
      "##ப்படை": 2463,
      "##சித்து": 2464,
      "சட்டம்": 2465,
      "பொருட்க": 2466,
      "லாம்": 2467,
      "##ஞ்சி": 2468,
      "##ியர்கள்": 2469,
      "##ஞர்": 2470,
      "கூறுகையில்": 2471,
      "முடியாத": 2472,
      "நடக்க": 2473,
      "போராட்டம்": 2474,
      "ுள்ள": 2475,
      "##ாயம்": 2476,
      "எண்ணிக்கை": 2477,
      "மேல": 2478,
      "வர்கள்": 2479,
      "படக்குறிப்பு": 2480,
      "##நாயக": 2481,
      "மகிழ்ச": 2482,
      "##டாக": 2483,
      "கிழ": 2484,
      "ரே": 2485,
      "##ிர்": 2486,
      "உள்ளார்": 2487,
      "##ரிக": 2488,
      "என்பத": 2489,
      "சாலை": 2490,
      "எல்லாம்": 2491,
      "எனது": 2492,
      "அனைவரும்": 2493,
      "சந்தித்து": 2494,
      "சின்ன": 2495,
      "முதலில்": 2496,
      "விசாரி": 2497,
      "அலங்க": 2498,
      "வெளியிட": 2499,
      "##வ்வளவு": 2500,
      "கண்காணி": 2501,
      "##நீதிமன்ற": 2502,
      "ஏரா": 2503,
      "உடனடியாக": 2504,
      "குறைந்த": 2505,
      "40": 2506,
      "புகை": 2507,
      "மீதான": 2508,
      "இருவரும்": 2509,
      "உள": 2510,
      "படு": 2511,
      "##ஸ்திர": 2512,
      "பாதிக்கப்பட்ட": 2513,
      "ஆலோசனை": 2514,
      "களையும்": 2515,
      "பிரிவு": 2516,
      "##சர்": 2517,
      "புதி": 2518,
      "தந்த": 2519,
      "##எல்": 2520,
      "நடக்கும்": 2521,
      "##்களை": 2522,
      "##ட்டிற்கு": 2523,
      "தாக்கல்": 2524,
      "மேற்கு": 2525,
      "இதன": 2526,
      "##கிறேன்": 2527,
      "வசதி": 2528,
      "இருந்தார்": 2529,
      "தொழில்நுட்ப": 2530,
      "##ழ்த்த": 2531,
      "கண்டுபிடி": 2532,
      "23": 2533,
      "##ிழமை": 2534,
      "##ளமான": 2535,
      "##த்திட்ட": 2536,
      "##விற்கு": 2537,
      "ிருப்ப": 2538,
      "ஆண்டுகளாக": 2539,
      "அர்": 2540,
      "இடம்பெ": 2541,
      "தவற": 2542,
      "இருப்பினும்": 2543,
      "தெரியா": 2544,
      "பலரும்": 2545,
      "எதிர்பார்க்க": 2546,
      "வக": 2547,
      "வன": 2548,
      "தலைமைய": 2549,
      "சமா": 2550,
      "தலைமையில்": 2551,
      "கவு": 2552,
      "##ானா": 2553,
      "வருவதாக": 2554,
      "மலை": 2555,
      "ிருக்கிறார்": 2556,
      "அவரின்": 2557,
      "##ரம": 2558,
      "22": 2559,
      "##த்திரை": 2560,
      "புர": 2561,
      "##நாடு": 2562,
      "தலைவர்கள்": 2563,
      "##ிக்கா": 2564,
      "##தியின்": 2565,
      "##ையிலான": 2566,
      "காட்ச": 2567,
      "##த்தியா": 2568,
      "##க்கொள்ள": 2569,
      "00": 2570,
      "##ளுக்கான": 2571,
      "திக": 2572,
      "##ஹி": 2573,
      "புல": 2574,
      "விட்டது": 2575,
      "ஒப்பந்த": 2576,
      "அவை": 2577,
      "##ிக்கெட்": 2578,
      "முரு": 2579,
      "மூன்ற": 2580,
      "ஆண்டில்": 2581,
      "ஆயிரம்": 2582,
      "##க்கப்பட": 2583,
      "##ங்களும்": 2584,
      "##மடைந்த": 2585,
      "தெரிவித்துள்ளது": 2586,
      "##த்துவ": 2587,
      "பேசு": 2588,
      "முதலமைச்சர்": 2589,
      "##ஷேகம்": 2590,
      "##ருமான": 2591,
      "##ங்கை": 2592,
      "##க்குள்": 2593,
      "அதிகரித்து": 2594,
      "பாகிஸ்தான்": 2595,
      "##ானது": 2596,
      "கழி": 2597,
      "##ில்லியன்": 2598,
      "மகன்": 2599,
      "உயிரிழந்த": 2600,
      "விஜய": 2601,
      "##er": 2602,
      "அளவுக்கு": 2603,
      "தாய": 2604,
      "தாய்": 2605,
      "நவ": 2606,
      "அவர்களை": 2607,
      "அம்ப": 2608,
      "விற்பனை": 2609,
      "##ிட்": 2610,
      "சென்னையில்": 2611,
      "மகா": 2612,
      "##ஷி": 2613,
      "##நாள்": 2614,
      "த்தான்": 2615,
      "##ோதைய": 2616,
      "அறிவு": 2617,
      "குமார்": 2618,
      "நாள": 2619,
      "முன்னிட்டு": 2620,
      "##த்தனர்": 2621,
      "கோவை": 2622,
      "ஊர்": 2623,
      "மத்தியில்": 2624,
      "மக்களின்": 2625,
      "பார்வ": 2626,
      "ஏராளமான": 2627,
      "கிலோ": 2628,
      "டன்": 2629,
      "##ாட்சி": 2630,
      "##மான்": 2631,
      "##ண்டை": 2632,
      "##ப்புற": 2633,
      "செய்வத": 2634,
      "##டியே": 2635,
      "குறிப்பிட்டு": 2636,
      "யுடன்": 2637,
      "##க்கப்பட்டுள்ளது": 2638,
      "##விட்டது": 2639,
      "பாராளுமன்ற": 2640,
      "வு": 2641,
      "தேடி": 2642,
      "நரே": 2643,
      "கூட்டத்தில்": 2644,
      "ஓய்": 2645,
      "குஜ": 2646,
      "கூறியுள்ளார்": 2647,
      "மாவட்டத்தில்": 2648,
      "21": 2649,
      "நியமி": 2650,
      "இல்": 2651,
      "இதுபோ": 2652,
      "##குதி": 2653,
      "தரப்பு": 2654,
      "அணு": 2655,
      "##தோ": 2656,
      "##னவே": 2657,
      "கான்": 2658,
      "காலம்": 2659,
      "வாக்க": 2660,
      "களால்": 2661,
      "ஆகியவ": 2662,
      "கடுமையாக": 2663,
      "குஜரா": 2664,
      "அனுப": 2665,
      "ஏற்பட்டது": 2666,
      "##நாயகர்": 2667,
      "தகவல்கள்": 2668,
      "இப்ப": 2669,
      "மாறி": 2670,
      "##த்தைச்": 2671,
      "விளை": 2672,
      "அறிமுக": 2673,
      "மொத்த": 2674,
      "ஏற்கனவே": 2675,
      "அச": 2676,
      "கத": 2677,
      "##ங்கல்": 2678,
      "##குறித்து": 2679,
      "சிறுவ": 2680,
      "ஆவ": 2681,
      "பற": 2682,
      "தன்னுடைய": 2683,
      "##செல்": 2684,
      "##ிலை": 2685,
      "பரவ": 2686,
      "வண": 2687,
      "ஆண்டுகள்": 2688,
      "##ங்களாக": 2689,
      "ஆராய": 2690,
      "பேசி": 2691,
      "பெருமா": 2692,
      "##க்கே": 2693,
      "உற்ச": 2694,
      "ங்கள": 2695,
      "மாநக": 2696,
      "ட்ட": 2697,
      "ஹெ": 2698,
      "முறையில்": 2699,
      "மருத்துவமனையில்": 2700,
      "##ன்றால்": 2701,
      "கூட்டண": 2702,
      "உக்ரைன்": 2703,
      "செய்தியாள": 2704,
      "ஹோ": 2705,
      "##க்கணக்கான": 2706,
      "கழக": 2707,
      "##தியான": 2708,
      "சமய": 2709,
      "மாநிலம்": 2710,
      "முடியவில்லை": 2711,
      "முறையாக": 2712,
      "ஒப்பு": 2713,
      "பக": 2714,
      "வகை": 2715,
      "சிலை": 2716,
      "##ளவில்": 2717,
      "பன்னீர்செல்": 2718,
      "##சில": 2719,
      "அண்ணாமலை": 2720,
      "ரன்கள்": 2721,
      "தெளி": 2722,
      "##தாவது": 2723,
      "##ூரில்": 2724,
      "ாத": 2725,
      "##த்தையும்": 2726,
      "நீதிமன்றத்தில்": 2727,
      "##ன்பு": 2728,
      "##at": 2729,
      "##ட்டத்தில்": 2730,
      "கொள்கை": 2731,
      "அக்க": 2732,
      "ஸ்க": 2733,
      "##றையை": 2734,
      "நரேந்திர": 2735,
      "வேண்டாம்": 2736,
      "குற்றச்சாட்டு": 2737,
      "தந்தை": 2738,
      "##ந்திய": 2739,
      "அனுப்பி": 2740,
      "அதிகாரி": 2741,
      "நோக்கி": 2742,
      "கவனம்": 2743,
      "கோயிலில்": 2744,
      "த்துக்கு": 2745,
      "##விரு": 2746,
      "களாக": 2747,
      "விருது": 2748,
      "பிரதம": 2749,
      "எதுவும்": 2750,
      "##ெய்": 2751,
      "##ற்கை": 2752,
      "பயிற்சி": 2753,
      "உடை": 2754,
      "பகவ": 2755,
      "பகி": 2756,
      "முஸ்": 2757,
      "போய்": 2758,
      "இருப்பது": 2759,
      "எழுந்த": 2760,
      "திடீர": 2761,
      "##ராஜ்": 2762,
      "கடைசி": 2763,
      "சகோத": 2764,
      "##த்தொ": 2765,
      "தாகவும்": 2766,
      "நம்பிக்கை": 2767,
      "##ுற": 2768,
      "பட்டிய": 2769,
      "பெண்ண": 2770,
      "போக்குவர": 2771,
      "இருந்தால்": 2772,
      "இயக்க": 2773,
      "##ற்றா": 2774,
      "வலியுறு": 2775,
      "இன": 2776,
      "##ரங்க": 2777,
      "##ெடு": 2778,
      "##நாத்": 2779,
      "குழந்தைகள்": 2780,
      "ேன்": 2781,
      "க்கான": 2782,
      "கள்ள": 2783,
      "டே": 2784,
      "திருவ": 2785,
      "லை": 2786,
      "களுடன்": 2787,
      "##ஸ்திரே": 2788,
      "உங்களுக்கு": 2789,
      "சசிக": 2790,
      "##சூ": 2791,
      "##நே": 2792,
      "##ஹா": 2793,
      "தேவையான": 2794,
      "நமது": 2795,
      "##பே": 2796,
      "விவகாரம்": 2797,
      "சூரிய": 2798,
      "இதுகுறித்து": 2799,
      "##டிக்க": 2800,
      "மாற்று": 2801,
      "சமீபத்தில்": 2802,
      "ஏன": 2803,
      "##on": 2804,
      "நாட்கள்": 2805,
      "விரைவில்": 2806,
      "##த்ய": 2807,
      "##த்தனை": 2808,
      "தொண்ட": 2809,
      "##ன்களை": 2810,
      "##னையை": 2811,
      "காட்டு": 2812,
      "##தார": 2813,
      "##ப்படுத்தி": 2814,
      "##ரான்": 2815,
      "பிரபல": 2816,
      "ோம்": 2817,
      "காத்த": 2818,
      "மிகப்பெ": 2819,
      "ஐந்து": 2820,
      "##சல்": 2821,
      "மிர": 2822,
      "##த்திற்க": 2823,
      "கிட்ட": 2824,
      "##ப்பம்": 2825,
      "பேரா": 2826,
      "மற்றொரு": 2827,
      "கலா": 2828,
      "உள்": 2829,
      "வியா": 2830,
      "##ற்றம்": 2831,
      "போட்டியில்": 2832,
      "ரு": 2833,
      "ுள்ளன": 2834,
      "கொல்ல": 2835,
      "மேற்கொண்ட": 2836,
      "பாலா": 2837,
      "மோதி": 2838,
      "விசாரண": 2839,
      "2024": 2840,
      "##நகர்": 2841,
      "##டியை": 2842,
      "கப்ப": 2843,
      "நடு": 2844,
      "##ன்ஸ்": 2845,
      "எழுப்ப": 2846,
      "எதிர்கொ": 2847,
      "##த்தகைய": 2848,
      "பொதுமக்கள்": 2849,
      "தன்னை": 2850,
      "##க்கார": 2851,
      "சேர்க்க": 2852,
      "##றையினர்": 2853,
      "##ஸ்திரேல": 2854,
      "அம்மன்": 2855,
      "சட்டச": 2856,
      "சிறப்பாக": 2857,
      "கிடைத்த": 2858,
      "யாரும்": 2859,
      "சசிகலா": 2860,
      "##ப்பிக்க": 2861,
      "பிரிட்ட": 2862,
      "##ப்பதற்கு": 2863,
      "இரண்டாவது": 2864,
      "செய்வது": 2865,
      "தாக்குத": 2866,
      "அய": 2867,
      "சாதி": 2868,
      "வாய்": 2869,
      "ஈடுபட்டு": 2870,
      "அக்": 2871,
      "கைப்ப": 2872,
      "அடிக்க": 2873,
      "ஆகியோ": 2874,
      "ரத்த": 2875,
      "##புண": 2876,
      "மருந்து": 2877,
      "அப்பா": 2878,
      "சிறந்த": 2879,
      "##பட்ச": 2880,
      "செய்யப்பட்டது": 2881,
      "ஸ்த": 2882,
      "##ிகளும்": 2883,
      "குறிப்பிட்டார்": 2884,
      "கும்ப": 2885,
      "புகைப்பட": 2886,
      "##ங்களிலும்": 2887,
      "சுற்றுலா": 2888,
      "ஒன்றை": 2889,
      "##பக": 2890,
      "உதய": 2891,
      "மின்சார": 2892,
      "எதிர்கால": 2893,
      "##வல": 2894,
      "மட்டுமல்ல": 2895,
      "வங்கி": 2896,
      "##மக்கு": 2897,
      "##ந்தர": 2898,
      "##மணி": 2899,
      "##த்துள்ளார்": 2900,
      "நிறைவேற்ற": 2901,
      "ரண": 2902,
      "நடக்கிறது": 2903,
      "2023": 2904,
      "வீரர்கள்": 2905,
      "##கொண்ட": 2906,
      "மிகப்பெரிய": 2907,
      "பஞ்சா": 2908,
      "சுட்ட": 2909,
      "##வருக்கும்": 2910,
      "##ர்ட்": 2911,
      "##ச்சினை": 2912,
      "##சிங்க": 2913,
      "கௌ": 2914,
      "நடிகர்": 2915,
      "##ராம": 2916,
      "செயலாள": 2917,
      "##வுகளை": 2918,
      "ால்": 2919,
      "விஜய்": 2920,
      "குடியரசு": 2921,
      "வாங்கி": 2922,
      "##வர்களுக்கு": 2923,
      "விடுதலை": 2924,
      "இஸ்லா": 2925,
      "##மிட": 2926,
      "சொத்து": 2927,
      "##க்கொண்ட": 2928,
      "டாக்டர்": 2929,
      "##நோ": 2930,
      "##ிற்": 2931,
      "##லிதா": 2932,
      "இம்": 2933,
      "##த்தும்": 2934,
      "எங்களுக்கு": 2935,
      "பிரச்சினை": 2936,
      "##ங்களது": 2937,
      "உடன்": 2938,
      "##ுவார": 2939,
      "சொல்க": 2940,
      "எழுதிய": 2941,
      "மொத்தம்": 2942,
      "உற்பத்தி": 2943,
      "##ிலுள்ள": 2944,
      "ஆயுத": 2945,
      "வளர்ச்சி": 2946,
      "##வித": 2947,
      "மாற்றம்": 2948,
      "விழாவில்": 2949,
      "ஜா": 2950,
      "சிறை": 2951,
      "ஜூலை": 2952,
      "சனி": 2953,
      "##ரத்தில்": 2954,
      "இதற்க": 2955,
      "செய்தது": 2956,
      "ட்விட்ட": 2957,
      "பேசினார்": 2958,
      "திடீரென": 2959,
      "காத": 2960,
      "சேர்ந்து": 2961,
      "அதிர்ச்ச": 2962,
      "பரு": 2963,
      "பட்": 2964,
      "பணிகள்": 2965,
      "தாம": 2966,
      "பவு": 2967,
      "##ணு": 2968,
      "அந்தக்": 2969,
      "ங்கள்": 2970,
      "##ிறு": 2971,
      "விண்ண": 2972,
      "உயிர": 2973,
      "பேச்சுவார": 2974,
      "அந்": 2975,
      "பாத": 2976,
      "##வதால்": 2977,
      "மாநிலத்தில்": 2978,
      "மார்ச்": 2979,
      "சன": 2980,
      "ஒதுக்க": 2981,
      "எங்க": 2982,
      "தொற்று": 2983,
      "ஆஸ்திரேல": 2984,
      "பங்க": 2985,
      "##வச": 2986,
      "நாட்டு": 2987,
      "நடைமுறை": 2988,
      "மேற்கொண்டு": 2989,
      "##ாலான": 2990,
      "கண்டி": 2991,
      "##ீர்கள்": 2992,
      "நியூ": 2993,
      "கடுமையான": 2994,
      "நகை": 2995,
      "நிபுண": 2996,
      "முதலீடு": 2997,
      "தற்கொ": 2998,
      "தெரியவ": 2999,
      "தற்கொலை": 3000,
      "##ருடன்": 3001,
      "##ியுள்ள": 3002,
      "ஜெயல": 3003,
      "பக்கம்": 3004,
      "ரவி": 3005,
      "ுள்ளார்": 3006,
      "முன்வை": 3007,
      "கல்லூரி": 3008,
      "அடுத்து": 3009,
      "சேர்த்து": 3010,
      "ஏற்பட": 3011,
      "##டியில்": 3012,
      "கீழ": 3013,
      "##ியோ": 3014,
      "##ற்றின்": 3015,
      "பந்துவீ": 3016,
      "க்காக": 3017,
      "அளவு": 3018,
      "##ப்பர்": 3019,
      "சுய": 3020,
      "ஆகும்": 3021,
      "என்கிற": 3022,
      "வாழ்க்கை": 3023,
      "##வியல்": 3024,
      "கருத": 3025,
      "தரிசனம்": 3026,
      "இவர்கள்": 3027,
      "##நீர்": 3028,
      "##க்கால": 3029,
      "##ப்பிட": 3030,
      "எதிர்க்கட்ச": 3031,
      "ஜெயலலிதா": 3032,
      "கிரிக்கெட்": 3033,
      "ஆதரவாள": 3034,
      "அடைந்த": 3035,
      "##்க்": 3036,
      "எளி": 3037,
      "கதை": 3038,
      "##ச்சே": 3039,
      "எனத்": 3040,
      "வழியாக": 3041,
      "பேராசிர": 3042,
      "அரி": 3043,
      "மும்பை": 3044,
      "அச்ச": 3045,
      "##்ச்ச": 3046,
      "நிர்வாகிகள்": 3047,
      "முஸ்லி": 3048,
      "##ட்பு": 3049,
      "##லே": 3050,
      "##ரக": 3051,
      "பறி": 3052,
      "##சிக்க": 3053,
      "2021": 3054,
      "ஜூன்": 3055,
      "##க்கா": 3056,
      "நுழை": 3057,
      "மகாரா": 3058,
      "சக்தி": 3059,
      "அதன்படி": 3060,
      "சிறிய": 3061,
      "##ஞ்சம்": 3062,
      "டு": 3063,
      "போக்குவரத்து": 3064,
      "##ாலை": 3065,
      "போட": 3066,
      "வேட்பாள": 3067,
      "##ராத": 3068,
      "மக்களை": 3069,
      "தினம்": 3070,
      "##ரவை": 3071,
      "பணியில்": 3072,
      "##வீன": 3073,
      "உறுப்பினர்": 3074,
      "##த்துவம்": 3075,
      "நிறைய": 3076,
      "இருக்கிற": 3077,
      "பொதுக்குழு": 3078,
      "அளிக்க": 3079,
      "கொண்டனர்": 3080,
      "சூழ்": 3081,
      "லெ": 3082,
      "ஏற்படுத்தி": 3083,
      "ஏற்ற": 3084,
      "##ரமாக": 3085,
      "இதுபோன்ற": 3086,
      "சால": 3087,
      "கொண்டார்": 3088,
      "முன்னதாக": 3089,
      "##பட்ட": 3090,
      "விக்கெ": 3091,
      "சீன": 3092,
      "##தன்": 3093,
      "##த்தின": 3094,
      "வருகிறார்கள்": 3095,
      "ராசி": 3096,
      "மாகாண": 3097,
      "##னோ": 3098,
      "##ும்போது": 3099,
      "கிழக்கு": 3100,
      "##வோ": 3101,
      "##ன்ட்": 3102,
      "வென்ற": 3103,
      "##ழிப்பு": 3104,
      "த்திற்க": 3105,
      "வந்தனர்": 3106,
      "தனக்கு": 3107,
      "அபிவிரு": 3108,
      "அதேபோல": 3109,
      "பேருந்து": 3110,
      "னு": 3111,
      "யால்": 3112,
      "##வருக்கு": 3113,
      "##ீன்": 3114,
      "##்டோ": 3115,
      "வகுப்பு": 3116,
      "வலி": 3117,
      "நிதிய": 3118,
      "பெருமாள்": 3119,
      "ஜே": 3120,
      "வீட்டு": 3121,
      "முடிந்த": 3122,
      "வழங்குவ": 3123,
      "அறிக்கையில்": 3124,
      "உரிய": 3125,
      "கிருஷ்ண": 3126,
      "##ள்ளை": 3127,
      "ிருக்கும்": 3128,
      "வெளிநாட்டு": 3129,
      "நபர்": 3130,
      "##த்தான்": 3131,
      "அறு": 3132,
      "##னான": 3133,
      "அதிர": 3134,
      "ஏப்": 3135,
      "ிய": 3136,
      "விவகாரத்தில்": 3137,
      "விபத்து": 3138,
      "##னாக": 3139,
      "உண்மை": 3140,
      "##en": 3141,
      "ஆண": 3142,
      "##ar": 3143,
      "##ளுக்காக": 3144,
      "##ந்தா": 3145,
      "2019": 3146,
      "உருவாக்க": 3147,
      "புகார": 3148,
      "தலைவராக": 3149,
      "பயன்படுத்தி": 3150,
      "குறித்தும்": 3151,
      "##க்கூடிய": 3152,
      "##க்கள": 3153,
      "பகுதியை": 3154,
      "##ஷேக": 3155,
      "விவர": 3156,
      "பணத்தை": 3157,
      "##மம்": 3158,
      "500": 3159,
      "##ந்துள்ள": 3160,
      "பேச்சு": 3161,
      "##ரியில்": 3162,
      "##ுமா": 3163,
      "##வதற்கான": 3164,
      "##ையாது": 3165,
      "பாகிஸ்தான": 3166,
      "##மிய": 3167,
      "நிறுவனங்கள்": 3168,
      "சூழலில்": 3169,
      "குர": 3170,
      "நிச்ச": 3171,
      "மய": 3172,
      "வர்த்த": 3173,
      "அருகில்": 3174,
      "டோ": 3175,
      "##மித்": 3176,
      "பொறுத்த": 3177,
      "##ியாளர்": 3178,
      "ஆண்டுகளில்": 3179,
      "போதும்": 3180,
      "ின்ற": 3181,
      "##னே": 3182,
      "199": 3183,
      "27": 3184,
      "குவி": 3185,
      "சம்பந்த": 3186,
      "##ன்கொ": 3187,
      "மரண": 3188,
      "##னல்": 3189,
      "26": 3190,
      "விட்டார்": 3191,
      "நாட்களுக்கு": 3192,
      "பண்ட": 3193,
      "##ப்பட்டுள்ள": 3194,
      "##ியாளர்கள்": 3195,
      "ஒழு": 3196,
      "பாக": 3197,
      "சிங்க": 3198,
      "##ளியில்": 3199,
      "திரா": 3200,
      "##ஆர்": 3201,
      "ஜனநாயக": 3202,
      "தண்டனை": 3203,
      "அவ்வ": 3204,
      "புரிந்து": 3205,
      "ஆவண": 3206,
      "கையில்": 3207,
      "வழங்கப்படும்": 3208,
      "கிடையாது": 3209,
      "அவர்கள": 3210,
      "சர்ச்சை": 3211,
      "எனும்": 3212,
      "தொடங்கிய": 3213,
      "அதிகரிக்கும்": 3214,
      "நிகழ்ச்சியில்": 3215,
      "வாய்ப்ப": 3216,
      "தண்ணீர்": 3217,
      "ஆடி": 3218,
      "##செய": 3219,
      "கட்டி": 3220,
      "##ெழு": 3221,
      "கேரளா": 3222,
      "சினி": 3223,
      "##திவு": 3224,
      "மால": 3225,
      "நிலையத்தில்": 3226,
      "தெரிவித்தனர்": 3227,
      "##ேத": 3228,
      "அதிகமான": 3229,
      "திட்டத்தை": 3230,
      "விடும்": 3231,
      "##ிகள": 3232,
      "விளக்க": 3233,
      "தொடங்கியது": 3234,
      "நடத்து": 3235,
      "பிப்": 3236,
      "சரியாக": 3237,
      "பன்னீர்செல்வம்": 3238,
      "ாமல்": 3239,
      "துப்பா": 3240,
      "மொழி": 3241,
      "ஆட்சியில்": 3242,
      "வட்ட": 3243,
      "##or": 3244,
      "வலைதள": 3245,
      "யானை": 3246,
      "அழக": 3247,
      "##ற்றும்": 3248,
      "நிற்க": 3249,
      "##விகி": 3250,
      "##ந்தர்": 3251,
      "தவறு": 3252,
      "பெரும்பாலான": 3253,
      "பிரச்சனை": 3254,
      "ரணில்": 3255,
      "பாண்ட": 3256,
      "வழக்கறி": 3257,
      "சரியான": 3258,
      "28": 3259,
      "ரத்து": 3260,
      "ங்களை": 3261,
      "வளாக": 3262,
      "பொறுப்பு": 3263,
      "பெங்கள": 3264,
      "##ினா": 3265,
      "##ீட்டு": 3266,
      "##த்தூர்": 3267,
      "திருத்த": 3268,
      "தரப்பில்": 3269,
      "##ணய": 3270,
      "சினிமா": 3271,
      "ஏமா": 3272,
      "நாளில்": 3273,
      "தடுக்க": 3274,
      "கட்டுப்பா": 3275,
      "இயக்குநர்": 3276,
      "தலைமையிலான": 3277,
      "சான்": 3278,
      "வோ": 3279,
      "##லாளர்": 3280,
      "பதவ": 3281,
      "வெளியாகி": 3282,
      "கும்பா": 3283,
      "##ின்றி": 3284,
      "அறிவிப்பு": 3285,
      "##ந்தார்": 3286,
      "பெற்றோ": 3287,
      "ப்படுகிறது": 3288,
      "விளையாட்டு": 3289,
      "கூடுதல்": 3290,
      "கும்பாபி": 3291,
      "பயணி": 3292,
      "##ரையில்": 3293,
      "##ல்லா": 3294,
      "கடல்": 3295,
      "அரசுக்கு": 3296,
      "ஹமா": 3297,
      "பேட்டி": 3298,
      "முயன்ற": 3299,
      "கர்நாட": 3300,
      "##வுடன்": 3301,
      "##முறைய": 3302,
      "தற்போதைய": 3303,
      "சதவிகி": 3304,
      "பின்ப": 3305,
      "ஏற்பட்டுள்ளது": 3306,
      "அவசியம்": 3307,
      "இருக்கலாம்": 3308,
      "ராஜா": 3309,
      "அவருடைய": 3310,
      "வித்தியா": 3311,
      "காஷ்": 3312,
      "##ளிர்": 3313,
      "##ொருள்": 3314,
      "வார்த்தை": 3315,
      "ஒன்றாக": 3316,
      "ஸ்ப": 3317,
      "##மண": 3318,
      "தெரிக": 3319,
      "தொகை": 3320,
      "இலங்கையில்": 3321,
      "பரிந்து": 3322,
      "போட்டியிட": 3323,
      "சட்டசபை": 3324,
      "ப்படும்": 3325,
      "எவ்வளவு": 3326,
      "வெங்க": 3327,
      "புத்தக": 3328,
      "நோக்க": 3329,
      "செல்வ": 3330,
      "##களையும்": 3331,
      "##யர்": 3332,
      "கூட்டு": 3333,
      "கொண்டாட": 3334,
      "எல்லை": 3335,
      "மேற்க": 3336,
      "##ட்ரோ": 3337,
      "சந்தித்த": 3338,
      "எப்போதும்": 3339,
      "##பார்": 3340,
      "குண": 3341,
      "நிலைமை": 3342,
      "60": 3343,
      "திரி": 3344,
      "சப": 3345,
      "##ீப்": 3346,
      "கமி": 3347,
      "தட": 3348,
      "##திலும்": 3349,
      "குறு": 3350,
      "செயற்ப": 3351,
      "தேர்ந்த": 3352,
      "##விட்டார்": 3353,
      "மகிழ்ச்ச": 3354,
      "உண்டு": 3355,
      "##டங்கு": 3356,
      "ரசிகர்கள்": 3357,
      "பேச்சுவார்த்தை": 3358,
      "கம்ப": 3359,
      "போய": 3360,
      "பேட்ட": 3361,
      "தொடக்க": 3362,
      "படைய": 3363,
      "தெரியவில்லை": 3364,
      "பிடித்து": 3365,
      "முன்னேற்ற": 3366,
      "தொடர்பில்": 3367,
      "தெரியும்": 3368,
      "##in": 3369,
      "மாவட்டங்களில்": 3370,
      "பிரசார": 3371,
      "நோய்": 3372,
      "நடவடிக்க": 3373,
      "உடனே": 3374,
      "##ியூ": 3375,
      "மோசமான": 3376,
      "ஹே": 3377,
      "##வுக": 3378,
      "மகாராஷ்ட": 3379,
      "எடுத்துக்": 3380,
      "பஞ்ச": 3381,
      "அவச": 3382,
      "மாநிலங்களில்": 3383,
      "அணியின்": 3384,
      "பக்கத்தில்": 3385,
      "ரீதியாக": 3386,
      "சவ": 3387,
      "வீட்டுக்கு": 3388,
      "தடுப்பூ": 3389,
      "வன்முறை": 3390,
      "டால": 3391,
      "##ஸா": 3392,
      "இதற்காக": 3393,
      "##வெளி": 3394,
      "விக்ரம": 3395,
      "கர்நாடகா": 3396,
      "an": 3397,
      "##யூ": 3398,
      "##க்ஸ்": 3399,
      "அதிகரிக்க": 3400,
      "ஆளுந": 3401,
      "##ுமி": 3402,
      "கொண்டிருக்க": 3403,
      "பார்வைய": 3404,
      "##தர்": 3405,
      "##னியா": 3406,
      "##்சத்திர": 3407,
      "நட்சத்திர": 3408,
      "கேப்ட": 3409,
      "வசி": 3410,
      "நிர்வாகம்": 3411,
      "நெருக்கடி": 3412,
      "செலவு": 3413,
      "செந்தில்": 3414,
      "சுற்றி": 3415,
      "செய்யப்பட்டுள்ளது": 3416,
      "##புற": 3417,
      "ஹை": 3418,
      "##ொட்டி": 3419,
      "##க்ரே": 3420,
      "முன்னெ": 3421,
      "மாணவி": 3422,
      "சகோதர": 3423,
      "வுடன்": 3424,
      "கார்த்த": 3425,
      "பங்கேற்ற": 3426,
      "எவ்": 3427,
      "வரிச": 3428,
      "களுக்கான": 3429,
      "பரபரப்பை": 3430,
      "குள": 3431,
      "மருத்துவர்": 3432,
      "அபிவிருத்தி": 3433,
      "ஆந்திர": 3434,
      "##மிருந்து": 3435,
      "சிறையில்": 3436,
      "ஒலி": 3437,
      "##மலை": 3438,
      "வழங்கி": 3439,
      "உண்ட": 3440,
      "இருக்கு": 3441,
      "சந்தேக": 3442,
      "டிச": 3443,
      "மதிப்ப": 3444,
      "ஐக்கிய": 3445,
      "##த்தன": 3446,
      "அதன": 3447,
      "ிருந்தது": 3448,
      "சுட்டிக்கா": 3449,
      "##பாத்": 3450,
      "துவங்க": 3451,
      "##ண்டர்": 3452,
      "உரையா": 3453,
      "சதவீத": 3454,
      "பெரி": 3455,
      "நாடுகளில்": 3456,
      "கன்ன": 3457,
      "##ர்களாக": 3458,
      "யுக்ரே": 3459,
      "ரக": 3460,
      "என்னு": 3461,
      "காட்சி": 3462,
      "வழங்கும்": 3463,
      "எம்எல்": 3464,
      "தள்ள": 3465,
      "##டுவது": 3466,
      "விரும்பு": 3467,
      "பரிசோதனை": 3468,
      "த்துடன்": 3469,
      "பழைய": 3470,
      "பரிந்துரை": 3471,
      "பண்ண": 3472,
      "##ுங்கள்": 3473,
      "##al": 3474,
      "##ழ்க": 3475,
      "பிரா": 3476,
      "மீன": 3477,
      "குழந்த": 3478,
      "அதேபோல்": 3479,
      "தெரிகிறது": 3480,
      "##மிற": 3481,
      "##க்கெட்": 3482,
      "##ற்கும்": 3483,
      "இருக்கின்றன": 3484,
      "கட்சிய": 3485,
      "களுக்கும்": 3486,
      "முழுமையாக": 3487,
      "##ெக": 3488,
      "சித": 3489,
      "சந்திக்க": 3490,
      "ஒத்து": 3491,
      "உருவாக": 3492,
      "சார்ந்த": 3493,
      "அதற்கான": 3494,
      "நிறுவனத்தின்": 3495,
      "குஜராத்": 3496,
      "சபை": 3497,
      "கடற்ப": 3498,
      "பயங்க": 3499,
      "##ஸ்வரர்": 3500,
      "நடைபெறு": 3501,
      "திகதி": 3502,
      "எம்எல்ஏ": 3503,
      "இவை": 3504,
      "வாழ்த்து": 3505,
      "இன்னொரு": 3506,
      "ஆளும்": 3507,
      "##ுவை": 3508,
      "களமிற": 3509,
      "பொருட்கள்": 3510,
      "ஆல": 3511,
      "தங்களது": 3512,
      "நாட்டை": 3513,
      "கோப": 3514,
      "ஒளி": 3515,
      "நீட்": 3516,
      "வழங்கிய": 3517,
      "வலு": 3518,
      "##ாந்து": 3519,
      "##்ப்ப": 3520,
      "மோதல்": 3521,
      "##ரவரி": 3522,
      "##ீஸ்": 3523,
      "போதை": 3524,
      "##ிக்கப்பட்ட": 3525,
      "கட்சிகள்": 3526,
      "கண்டறிய": 3527,
      "##டோ": 3528,
      "தீர்ப்பு": 3529,
      "ஓர்": 3530,
      "##ின்று": 3531,
      "##க்குப்": 3532,
      "பெட்ரோ": 3533,
      "உட்க": 3534,
      "விலக": 3535,
      "##்துறை": 3536,
      "##கொள்ள": 3537,
      "அலங்கார": 3538,
      "விநாயகர்": 3539,
      "வழக்கம்": 3540,
      "மீன்": 3541,
      "##வதற்காக": 3542,
      "##ிருந்தனர்": 3543,
      "விவசாயிகள்": 3544,
      "மதிப்பு": 3545,
      "பொருட்களை": 3546,
      "ஏப்ரல்": 3547,
      "ார்கள்": 3548,
      "எதிர்த்து": 3549,
      "கிரக": 3550,
      "நேரடியாக": 3551,
      "##ாதாரண": 3552,
      "நினைக்க": 3553,
      "தினமும்": 3554,
      "இரண்டாம்": 3555,
      "அழ": 3556,
      "ஷி": 3557,
      "##ளுடைய": 3558,
      "##ட்ஸ்": 3559,
      "ஆன்லை": 3560,
      "ஆங்கில": 3561,
      "கலந்துரையா": 3562,
      "கடிதம்": 3563,
      "##ஜெ": 3564,
      "##ஞ்சு": 3565,
      "##விட்": 3566,
      "மாதிரி": 3567,
      "##வாதம்": 3568,
      "வீதி": 3569,
      "அங்கீ": 3570,
      "ஓட்டு": 3571,
      "செல்க": 3572,
      "பகிர்ந்து": 3573,
      "பதவிய": 3574,
      "கொழும்": 3575,
      "##லாக்க": 3576,
      "##நாட்டில்": 3577,
      "##ஞ்": 3578,
      "##த்தல்": 3579,
      "##ற்பு": 3580,
      "தீர்வு": 3581,
      "th": 3582,
      "இடி": 3583,
      "எத": 3584,
      "பிரதிநிதி": 3585,
      "திராவிட": 3586,
      "ரொ": 3587,
      "மகாராஷ்டிரா": 3588,
      "உள்ளாட்சி": 3589,
      "##ப்பட்டன": 3590,
      "நேரில்": 3591,
      "குற்றம்சா": 3592,
      "அங்கே": 3593,
      "மற": 3594,
      "##குதியில்": 3595,
      "பெயரில்": 3596,
      "அதைத்": 3597,
      "நாட்களில்": 3598,
      "மூலமாக": 3599,
      "இவ்வாறு": 3600,
      "பஞ்சாப்": 3601,
      "அமித்": 3602,
      "ுவது": 3603,
      "உள்ளே": 3604,
      "##ியுடன்": 3605,
      "கவலை": 3606,
      "சூழல்": 3607,
      "அரசாங்கம்": 3608,
      "ாலும்": 3609,
      "##ாராய": 3610,
      "நன்ற": 3611,
      "##கரி": 3612,
      "செவ்வ": 3613,
      "இறந்த": 3614,
      "##ண்டே": 3615,
      "ரூபாய": 3616,
      "சித்த": 3617,
      "கொண்டே": 3618,
      "ஆகியவை": 3619,
      "தொகுதியில்": 3620,
      "உறுப்பினர்கள்": 3621,
      "தோல்வி": 3622,
      "தம்ப": 3623,
      "##லூர்": 3624,
      "அதோடு": 3625,
      "செயல்படுத்த": 3626,
      "வெளியான": 3627,
      "அக்டோ": 3628,
      "அல்": 3629,
      "##ிங்": 3630,
      "##ேக்": 3631,
      "வழிபாடு": 3632,
      "மில்லியன்": 3633,
      "மொழ": 3634,
      "தயாராக": 3635,
      "ுகிறது": 3636,
      "##ூர": 3637,
      "படத்தில்": 3638,
      "கணவர்": 3639,
      "##ுள்ளார்": 3640,
      "கொடி": 3641,
      "ராஜ்": 3642,
      "ஆட்சியை": 3643,
      "உள்ளதாக": 3644,
      "அழைத்துச்": 3645,
      "பான": 3646,
      "##்களில்": 3647,
      "மீட்க": 3648,
      "தொடர்ச்ச": 3649,
      "பிள": 3650,
      "ங்களில்": 3651,
      "உத்தரவு": 3652,
      "பக்தர்களுக்கு": 3653,
      "வெறும்": 3654,
      "பயங்கர": 3655,
      "29": 3656,
      "கவுன்": 3657,
      "பேராசிரியர்": 3658,
      "செப்ட": 3659,
      "மரியா": 3660,
      "##ெனவே": 3661,
      "இடம்பெற்ற": 3662,
      "வகி": 3663,
      "##நிலைய": 3664,
      "உயர்த்த": 3665,
      "##சாலை": 3666,
      "ஏற்கெனவே": 3667,
      "அன்ன": 3668,
      "என்பவர்": 3669,
      "ஆகஸ்ட்": 3670,
      "கிற": 3671,
      "##வேன்": 3672,
      "இலவச": 3673,
      "வருவது": 3674,
      "தில்": 3675,
      "##க்கர்": 3676,
      "வீழ்த்த": 3677,
      "திருச்சி": 3678,
      "உயிர்": 3679,
      "எதிர்க்கட்சி": 3680,
      "வடிவ": 3681,
      "கட்சியில்": 3682,
      "##மன்": 3683,
      "சாத்திய": 3684,
      "நடவடிக்கைகள்": 3685,
      "தீவிரமாக": 3686,
      "பல்ல": 3687,
      "வைக்கப்பட்ட": 3688,
      "ஏற்படுத்தியுள்ளது": 3689,
      "திட்டத்தின்": 3690,
      "மரு": 3691,
      "##ப்பதிவு": 3692,
      "உள்ளூர்": 3693,
      "அடிக்கடி": 3694,
      "கௌரவ": 3695,
      "லே": 3696,
      "சபா": 3697,
      "தெரிந்து": 3698,
      "கேள்வ": 3699,
      "பேசுவ": 3700,
      "35": 3701,
      "2020": 3702,
      "புதுச்சே": 3703,
      "##கமாக": 3704,
      "கோரி": 3705,
      "##மொழி": 3706,
      "##சியில்": 3707,
      "விவாத": 3708,
      "##ஸ்டர்": 3709,
      "இத்தகைய": 3710,
      "##ாடி": 3711,
      "##ச்செய": 3712,
      "பிள்ளை": 3713,
      "ஒத்துழை": 3714,
      "நமக்கு": 3715,
      "##ினம்": 3716,
      "சேர்ந்தவர்": 3717,
      "வேகமாக": 3718,
      "##சோதா": 3719,
      "உங்க": 3720,
      "##ென்றால்": 3721,
      "##ப்பும்": 3722,
      "##த்ரா": 3723,
      "எண்ணெய்": 3724,
      "விமர்சன": 3725,
      "வாரம்": 3726,
      "பிப்ரவரி": 3727,
      "செல்போ": 3728,
      "நினைவு": 3729,
      "நிகழ்வு": 3730,
      "வேட்பாளர்": 3731,
      "##ுறவு": 3732,
      "அன்ப": 3733,
      "##ந்திரன்": 3734,
      "##ரிமை": 3735,
      "##ாய்வு": 3736,
      "தமிழகம்": 3737,
      "க்கள்": 3738,
      "##ாட்": 3739,
      "ஓய்வு": 3740,
      "வல்ல": 3741,
      "சமர்": 3742,
      "மன்ன": 3743,
      "நிமிட": 3744,
      "பயன்": 3745,
      "கட்சியை": 3746,
      "விஷயம்": 3747,
      "முகமது": 3748,
      "அலுவலகத்தில்": 3749,
      "பிடித்த": 3750,
      "வணிக": 3751,
      "இங்கில": 3752,
      "##ிக்கிழமை": 3753,
      "உறவின": 3754,
      "முழுக்க": 3755,
      "##வாய்": 3756,
      "காப்பா": 3757,
      "களிலும்": 3758,
      "கருணா": 3759,
      "செயல்பட": 3760,
      "மண்டல": 3761,
      "மசோதா": 3762,
      "##வர்களை": 3763,
      "விந": 3764,
      "##ம்பர": 3765,
      "##வாளர்": 3766,
      "வலுவ": 3767,
      "வாச": 3768,
      "செயல்பட்டு": 3769,
      "வீச": 3770,
      "ஆதரவாக": 3771,
      "அண்ணா": 3772,
      "ஹமாஸ்": 3773,
      "இங்கே": 3774,
      "அமைச்சர்கள்": 3775,
      "ஆதார": 3776,
      "மகள்": 3777,
      "##ப்பூர்": 3778,
      "இருப்பதால்": 3779,
      "செயல்பாடு": 3780,
      "கிராமத்தில்": 3781,
      "எனப்": 3782,
      "பணிய": 3783,
      "நடத்தினர்": 3784,
      "இன்றைய": 3785,
      "வித்தியாச": 3786,
      "##்குமார்": 3787,
      "போலவே": 3788,
      "உலகின்": 3789,
      "நகரில்": 3790,
      "உறவு": 3791,
      "அக்டோபர்": 3792,
      "##ப்பிய": 3793,
      "வேத": 3794,
      "தெலு": 3795,
      ".....": 3796,
      "ஆணையம்": 3797,
      "31": 3798,
      "##வையில்": 3799,
      "##கும்": 3800,
      "காரை": 3801,
      "சாப்பிட": 3802,
      "சட்டத்தின்": 3803,
      ".,": 3804,
      "ஆரோ": 3805,
      "##ஸை": 3806,
      "##புரி": 3807,
      "பதவியை": 3808,
      "முடிவுகள்": 3809,
      "ிருந்தார்": 3810,
      "அங்கிருந்து": 3811,
      "கனடா": 3812,
      "மருத்துவமனைக்கு": 3813,
      "நின்று": 3814,
      "பராம": 3815,
      "##பய": 3816,
      "##ரால்": 3817,
      "டெல்லியில்": 3818,
      "இசை": 3819,
      "##றையும்": 3820,
      "அடித்து": 3821,
      "உச்சநீதிமன்ற": 3822,
      "ஊழிய": 3823,
      "##ையாளர்": 3824,
      "காட்டி": 3825,
      "##ம்பரம்": 3826,
      "சாமி": 3827,
      "##களிலும்": 3828,
      "விக்ரமசிங்க": 3829,
      "அழி": 3830,
      "தியாக": 3831,
      "தர்ம": 3832,
      "பிரச": 3833,
      "##ண்ணை": 3834,
      "போட்டிகளில்": 3835,
      "வங்கதேச": 3836,
      "வைரஸ்": 3837,
      "அன்ற": 3838,
      "யிலும்": 3839,
      "##ற்கால": 3840,
      "மூலாத": 3841,
      "கட்டண": 3842,
      "கர்நாடக": 3843,
      "விசாரணையில்": 3844,
      "இஸ்லாமிய": 3845,
      "ஒற்றை": 3846,
      "##ட்டப்பட்ட": 3847,
      "##டைந்து": 3848,
      "அதிர்ச்சி": 3849,
      "அடையாளம்": 3850,
      "என்னுடைய": 3851,
      "பெறும்": 3852,
      "பேருக்கு": 3853,
      "எழுதி": 3854,
      "அத்துடன்": 3855,
      "##ஹ்": 3856,
      "##ர்களுடன்": 3857,
      "##வேளை": 3858,
      "பதிவிட்டு": 3859,
      "ஏற்படுத்தும்": 3860,
      "போராட்டத்தில்": 3861,
      "ஏழு": 3862,
      "பழங்கு": 3863,
      "சர்மா": 3864,
      "உழை": 3865,
      "ஓடி": 3866,
      "கணக்கு": 3867,
      "வீரர்": 3868,
      "மூலாதாரம்": 3869,
      "னார்": 3870,
      "விற்க": 3871,
      "##கால": 3872,
      "##ப்பதை": 3873,
      "மிகு": 3874,
      "அரசியல": 3875,
      "ஒருங்கிணைப்பாளர்": 3876,
      "இழு": 3877,
      "அமலாக்க": 3878,
      "முன்பாக": 3879,
      "##ியம்மன்": 3880,
      "பிடிக்க": 3881,
      "யாத": 3882,
      "##ணியில்": 3883,
      "##விக்க": 3884,
      "வருகை": 3885,
      "##க்கூடாது": 3886,
      "மோசடி": 3887,
      "லீ": 3888,
      "குண்டு": 3889,
      "முடிந்தது": 3890,
      "காலி": 3891,
      "##சரி": 3892,
      "##டுகிறது": 3893,
      "விடுத்து": 3894,
      "விளக்கம்": 3895,
      "ஜனவரி": 3896,
      "ர்": 3897,
      "அரசியலில்": 3898,
      "க்கூடிய": 3899,
      "அணை": 3900,
      "ஐரோ": 3901,
      "கம்": 3902,
      "##ினை": 3903,
      "##வதில்": 3904,
      "சிறி": 3905,
      "##ண்மை": 3906,
      "##ிற்று": 3907,
      "##ம்ஸ்": 3908,
      "அறிவித்த": 3909,
      "முடியாமல்": 3910,
      "தரும்": 3911,
      "காந்த": 3912,
      "உலகம்": 3913,
      "படிக்க": 3914,
      "அணிக்கு": 3915,
      "ஒன்றில்": 3916,
      "உயர்நீதிமன்ற": 3917,
      "அறிய": 3918,
      "கவி": 3919,
      "##வதி": 3920,
      "இளைஞர்": 3921,
      "##ங்கம்": 3922,
      "பெண்களுக்கு": 3923,
      "டிசம்பர்": 3924,
      "அலை": 3925,
      "ஒட்டு": 3926,
      "##ட்டல்": 3927,
      "பொதுவாக": 3928,
      "எதிர்பார்": 3929,
      "அடிப்படை": 3930,
      "இளம்": 3931,
      "ரை": 3932,
      "வீட்ட": 3933,
      "வெளியுறவு": 3934,
      "தொடர": 3935,
      "இருக்கிறார்கள்": 3936,
      "விதமாக": 3937,
      "மாநகராட்சி": 3938,
      "கொட": 3939,
      "நடவடிக்கைகளை": 3940,
      "##ப்படவில்லை": 3941,
      "##ங்களால்": 3942,
      "##க்கட்ட": 3943,
      "பணிகளை": 3944,
      "ங்களும்": 3945,
      "அளித்து": 3946,
      "##்தா": 3947,
      "##விடம்": 3948,
      "மாற்றி": 3949,
      "##ால்தான்": 3950,
      "##ராஜன்": 3951,
      "பாலாஜி": 3952,
      "ஃப்": 3953,
      "சது": 3954,
      "யிடம்": 3955,
      "இடைய": 3956,
      "சென்றனர்": 3957,
      "தலைய": 3958,
      "##டே": 3959,
      "கடவு": 3960,
      "198": 3961,
      "பள்ளியில்": 3962,
      "விண்": 3963,
      "சேர்த்த": 3964,
      "##ியுள்ளனர்": 3965,
      "##க்கொண்டு": 3966,
      "இதனிடையே": 3967,
      "தப்பி": 3968,
      "##ையம்": 3969,
      "##திகள்": 3970,
      "##ப்பதற்காக": 3971,
      "ஊழல்": 3972,
      "ஆனாலும்": 3973,
      "சாதாரண": 3974,
      "##வரு": 3975,
      "##ஷம்": 3976,
      "வடக்கு": 3977,
      "பெட்ரோல்": 3978,
      "##சில்": 3979,
      "வெப்ப": 3980,
      "##வரையும்": 3981,
      "அனைத்தும்": 3982,
      "),": 3983,
      "##வள": 3984,
      "கட்டுப்பாடு": 3985,
      "##ஜித்": 3986,
      "தொடர்ச்சியாக": 3987,
      "அவற்றை": 3988,
      "##ில்தான்": 3989,
      "வீட்டிற்கு": 3990,
      "சிபி": 3991,
      "யிலிருந்து": 3992,
      "ரயில": 3993,
      "பெயரை": 3994,
      "எழுந்தரு": 3995,
      "விக்கெட்டு": 3996,
      "ஆரோக்கிய": 3997,
      "##வுட்": 3998,
      "திருந": 3999,
      "##ங்கானா": 4000,
      "##ிலி": 4001,
      "என்றாலும்": 4002,
      "அமைச்சரவை": 4003,
      "கட்டுப்படுத்த": 4004,
      "அம்ம": 4005,
      "தமது": 4006,
      "நின்ற": 4007,
      "##ீன": 4008,
      "கொடிய": 4009,
      "பொருத்த": 4010,
      "கொடுக்கும்": 4011,
      "##க்கணி": 4012,
      "அமைக்க": 4013,
      "அடித்த": 4014,
      "கலந்துகொண்ட": 4015,
      "வழங்கப்பட்டது": 4016,
      "அனைவருக்கும்": 4017,
      "குறைவாக": 4018,
      "அதிமுகவில்": 4019,
      "ஒன்றிய": 4020,
      "பயிற்ச": 4021,
      "அஸ்": 4022,
      "##ியே": 4023,
      "விசே": 4024,
      "##ம்பா": 4025,
      "புதிதாக": 4026,
      "##ருப்த": 4027,
      "முற்ற": 4028,
      "விடுத்த": 4029,
      "##முத": 4030,
      "காலமாக": 4031,
      "நடிகை": 4032,
      "அப்": 4033,
      "அதிருப்த": 4034,
      "விருப்ப": 4035,
      "##பட": 4036,
      "சிந்த": 4037,
      "##க்கெடு": 4038,
      "கொல்லப்பட்ட": 4039,
      "45": 4040,
      "அன்பு": 4041,
      "##am": 4042,
      "முத்து": 4043,
      "முக்கியத்துவம்": 4044,
      "சாதனை": 4045,
      "துப்பாக்கி": 4046,
      "கேப்டன்": 4047,
      "##ூப்": 4048,
      "இடையிலான": 4049,
      "கொண்டது": 4050,
      "திட்டங்கள்": 4051,
      "சென்றார்": 4052,
      "அபிஷேகம்": 4053,
      "மூன்றாவது": 4054,
      "##ையோ": 4055,
      "##்ச்சி": 4056,
      "தீர்த்த": 4057,
      "பாஜகவின்": 4058,
      "வயதான": 4059,
      "##ப்பிரமண": 4060,
      "தெய்": 4061,
      "##த்தைப்": 4062,
      "வழக்கை": 4063,
      "கடித": 4064,
      "அரை": 4065,
      "ஆச்ச": 4066,
      "##ஸில்": 4067,
      "முன": 4068,
      "##மானது": 4069,
      "##றையின்": 4070,
      "கூறுகின்றனர்": 4071,
      "ரயில்வே": 4072,
      "நன்றாக": 4073,
      "தக": 4074,
      "ுகிறார்கள்": 4075,
      "##வக": 4076,
      "செய்யப்படும்": 4077,
      "பத்திரிக": 4078,
      "வர்த்தக": 4079,
      "பொறுத்தவரை": 4080,
      "ஆச": 4081,
      "லோ": 4082,
      "##டனான": 4083,
      "தெரு": 4084,
      "தகவல்களை": 4085,
      "நாட்களாக": 4086,
      "அவரிடம்": 4087,
      "மீட்டர்": 4088,
      "பொதுச்செய": 4089,
      "இறந்து": 4090,
      "செப்டம்பர்": 4091,
      "சிக்": 4092,
      "முடிவுக்கு": 4093,
      "ங்களுக்கு": 4094,
      "ஏற்படுத்திய": 4095,
      "திறந்து": 4096,
      "ஒப்படை": 4097,
      "லக்": 4098,
      "##20": 4099,
      "துறையில்": 4100,
      "நெடு": 4101,
      "மைதான": 4102,
      "நன்மை": 4103,
      "கொஞ்சம்": 4104,
      "ஆட்சிக்கு": 4105,
      "எச்சரிக்கை": 4106,
      "பகவான்": 4107,
      "ட்விட்டர்": 4108,
      "காதல்": 4109,
      "தவிர்க்க": 4110,
      "வியாபார": 4111,
      "கண்": 4112,
      "பத்து": 4113,
      "முதன்": 4114,
      "த்தால்": 4115,
      "அறை": 4116,
      "##ும": 4117,
      "##ப்பன்": 4118,
      "##ையிலும்": 4119,
      "பெற்றது": 4120,
      "##பாக": 4121,
      "பயணிகள்": 4122,
      "வழக்கறிஞர்": 4123,
      "ஆத்": 4124,
      "##மல": 4125,
      "முர": 4126,
      "முந்த": 4127,
      "குமார": 4128,
      "பாலி": 4129,
      "களே": 4130,
      "மாணவர்": 4131,
      "தானே": 4132,
      "நன்றி": 4133,
      "##க்குமார்": 4134,
      "போதே": 4135,
      "பிரதான": 4136,
      "##ெனில்": 4137,
      "மையம்": 4138,
      "இதன்ப": 4139,
      "மாதத்தில்": 4140,
      "பூஜைகள்": 4141,
      "ஏற்படுத்தியது": 4142,
      "ஆசிரியர்": 4143,
      "கிரி": 4144,
      "சஞ்ச": 4145,
      "##es": 4146,
      "நியம": 4147,
      "திட்டமிட்டு": 4148,
      "##மலா": 4149,
      "##தியம்": 4150,
      "மீட்பு": 4151,
      "உயர": 4152,
      "குடியரசுத்": 4153,
      "ரன்களை": 4154,
      "##மழை": 4155,
      "மாள": 4156,
      "வைத்தார்": 4157,
      "##வரான": 4158,
      "கொள்ளும்": 4159,
      "##வூ": 4160,
      "குதி": 4161,
      "நீடி": 4162,
      "இலங்கையின்": 4163,
      "தூக்கி": 4164,
      "சம்பந்தப்பட்ட": 4165,
      "70": 4166,
      "ரன்": 4167,
      "##ச்சார": 4168,
      "அதிகாலை": 4169,
      "##த்தே": 4170,
      "##முதல்": 4171,
      "இருந்தனர்": 4172,
      "ராஜஸ்தான்": 4173,
      "மாணவர்களுக்கு": 4174,
      "ன்னு": 4175,
      "வருமானம்": 4176,
      "துடன்": 4177,
      "எழுத": 4178,
      "முன்னர்": 4179,
      "##ல்களில்": 4180,
      "நிலையம்": 4181,
      "ஆண்": 4182,
      "ஒழுங்கு": 4183,
      "தடுப்பூசி": 4184,
      "பசு": 4185,
      "பதிலாக": 4186,
      "கிடைத்தது": 4187,
      "வரலாற்று": 4188,
      "இதேபோ": 4189,
      "வாக்குகள்": 4190,
      "##க்கப்பட்டுள்ள": 4191,
      "முருகன்": 4192,
      "மிகுந்த": 4193,
      "இறை": 4194,
      "ுப": 4195,
      "ுகின்றனர்": 4196,
      "திரும்பி": 4197,
      "##களைப்": 4198,
      "சவு": 4199,
      "##லால்": 4200,
      "##ண்டில்": 4201,
      "இதுதான்": 4202,
      "##ப்பிடி": 4203,
      "சீரிய": 4204,
      "எல்லோ": 4205,
      "##ழில்": 4206,
      "புனித": 4207,
      "ராம்": 4208,
      "அழைப்பு": 4209,
      "ுவதற்கு": 4210,
      "கடின": 4211,
      "##ினாமா": 4212,
      "ஆன்லைன்": 4213,
      "கதா": 4214,
      "##ப்பூர்வ": 4215,
      "கடந்து": 4216,
      "ப்பட்டது": 4217,
      "நிவார": 4218,
      "இதுத": 4219,
      "பதிவாக": 4220,
      "ஒதுக்கீடு": 4221,
      "கிறி": 4222,
      "##ப்போம்": 4223,
      "##க்கிழமை": 4224,
      "கொழும்பு": 4225,
      "##களுக்கும்": 4226,
      "குரல்": 4227,
      "த்திலும்": 4228,
      "ரஜ": 4229,
      "வன்கொ": 4230,
      "##ரூ": 4231,
      "முட": 4232,
      "சேலம்": 4233,
      "தனியாக": 4234,
      "தெரிவித்துள்ளனர்": 4235,
      "##மூலம்": 4236,
      "75": 4237,
      "எம்பி": 4238,
      "ஏவுக": 4239,
      "கழு": 4240,
      "##ர்க்": 4241,
      "பெற்றோர்": 4242,
      "ப்படவில்லை": 4243,
      "வன்கொடு": 4244,
      "படுத்த": 4245,
      "தாண்டி": 4246,
      "பொதுச்": 4247,
      "ஸ்தான": 4248,
      "தெரியவந்தது": 4249,
      "ஆடு": 4250,
      "துரு": 4251,
      "மகளிர்": 4252,
      "கவனி": 4253,
      "கல்யா": 4254,
      "வானிலை": 4255,
      "ஆஜ": 4256,
      "நவம்பர்": 4257,
      "##பான": 4258,
      "ரூபா": 4259,
      "ராஜினாமா": 4260,
      "என்கிறார்கள்": 4261,
      "வெளிப்படுத்த": 4262,
      "டொ": 4263,
      "நம்பு": 4264,
      "நவீன": 4265,
      "##பக்": 4266,
      "##ட்டினார்": 4267,
      "அதிப": 4268,
      "விமர்சி": 4269,
      "##ேட்": 4270,
      "##்த்": 4271,
      "##ண்டா": 4272,
      "வருகிறோம்": 4273,
      "மேலாக": 4274,
      "##ழுது": 4275,
      "படத்தின்": 4276,
      "சதவீதம்": 4277,
      "விசாரித்த": 4278,
      "குறிப்பிட்டுள்ளார்": 4279,
      "வலைதளங்களில்": 4280,
      "அச்சு": 4281,
      "தவி": 4282,
      "##ோட": 4283,
      "##ச்சூ": 4284,
      "நடித்த": 4285,
      "##நாயக்க": 4286,
      "ஊழியர்கள்": 4287,
      "கேட்டுக்": 4288,
      "ஆஸ்திரேலியா": 4289,
      "அவசர": 4290,
      "80": 4291,
      "##லிக்க": 4292,
      "ிருப்பது": 4293,
      "தடுப்பு": 4294,
      "முருக": 4295,
      "கீழே": 4296,
      "சவால": 4297,
      "துவங்கியது": 4298,
      "##விடும்": 4299,
      "##ிடமிருந்து": 4300,
      "வீசிய": 4301,
      "நல்லது": 4302,
      "##ஸின்": 4303,
      "##க்கர": 4304,
      "நிரூ": 4305,
      "ஜனாதிப": 4306,
      "ிறது": 4307,
      "##மொத்த": 4308,
      "ஒட்டுமொத்த": 4309,
      "வன்கொடுமை": 4310,
      "சௌ": 4311,
      "பந்த": 4312,
      "##மில்லை": 4313,
      "##சேனா": 4314,
      "தங்களுக்கு": 4315,
      "ஆயு": 4316,
      "விசாரணைக்கு": 4317,
      "பார்வை": 4318,
      "##நேரம்": 4319,
      "தும்": 4320,
      "போன்றவ": 4321,
      "300": 4322,
      "##நல": 4323,
      "##்ட்ட": 4324,
      "என்றே": 4325,
      "சுற்ற": 4326,
      "முன்னே": 4327,
      "இந்தியாவுக்கு": 4328,
      "பொருள்": 4329,
      "எத்தனை": 4330,
      "##வைத்": 4331,
      "கட்டணம்": 4332,
      "சர்ச்ச": 4333,
      "உதயநிதி": 4334,
      "சாலையில்": 4335,
      "எட்ட": 4336,
      "இயற்கை": 4337,
      "சிறுமி": 4338,
      "தனிப்பட்ட": 4339,
      "அப்படியே": 4340,
      "பங்கேற்க": 4341,
      "வாய்ந்த": 4342,
      "ஆஃப்": 4343,
      "ஆக்கிர": 4344,
      "காலக": 4345,
      "##டியான": 4346,
      "சுப்பிரமண": 4347,
      "அஞ்ச": 4348,
      "##ic": 4349,
      "##த்தட்ட": 4350,
      "##ராட்ச": 4351,
      "##ிக்கொ": 4352,
      "சும": 4353,
      "##ங்களையும்": 4354,
      "ிருக்கிறார்கள்": 4355,
      "அருள்": 4356,
      "போகும்": 4357,
      "முஸ்லிம்": 4358,
      "##த்தான": 4359,
      "##ராம்": 4360,
      "தீர்மானம்": 4361,
      "ுகிற": 4362,
      "##ணமாக": 4363,
      "எனினும்": 4364,
      "இருந்தன": 4365,
      "2018": 4366,
      "எண்ணிக்க": 4367,
      "ஆக்கிரமி": 4368,
      "ஆப்": 4369,
      "இரா": 4370,
      "பூர்": 4371,
      "கோலி": 4372,
      "சந்தை": 4373,
      "விசாரிக்க": 4374,
      "னால்": 4375,
      "கேது": 4376,
      "செய்துள்ளார்": 4377,
      "அறநிலைய": 4378,
      "விமர்சனம்": 4379,
      "சற்று": 4380,
      "நொ": 4381,
      "##ையாள": 4382,
      "தேச": 4383,
      "கொண்டிருக்கிறது": 4384,
      "முதல்வராக": 4385,
      "பிற்ப": 4386,
      "டெஸ்ட்": 4387,
      "பரிசு": 4388,
      "வட்டார": 4389,
      "##ஸி": 4390,
      "##ம்பரிய": 4391,
      "பொங்கல்": 4392,
      "காவல்துறையினர்": 4393,
      "தெளிவாக": 4394,
      "போன்": 4395,
      "##வரது": 4396,
      "ான்": 4397,
      "##ion": 4398,
      "##ஃப": 4399,
      "முழ": 4400,
      "கொல்க": 4401,
      "பாரம்பரிய": 4402,
      "உரிமைய": 4403,
      "நிறுத்தி": 4404,
      "நூற்றா": 4405,
      "கிட்டத்தட்ட": 4406,
      "##ளே": 4407,
      "திண்டு": 4408,
      "மாதங்களுக்கு": 4409,
      "நடிக": 4410,
      "தெரிவிக்கப்பட்டுள்ளது": 4411,
      "ஆப்க": 4412,
      "வால்": 4413,
      "##ணன்": 4414,
      "##லான": 4415,
      "விச": 4416,
      "கோப்பை": 4417,
      "திட்டங்களை": 4418,
      "சூர்": 4419,
      "##ையுடன்": 4420,
      "இதற்கான": 4421,
      "##்யா": 4422,
      "மீட்ட": 4423,
      "சிவா": 4424,
      "ஆகி": 4425,
      "பார்க்கலாம்": 4426,
      "வசூ": 4427,
      "இளைஞர்கள்": 4428,
      "திடீர்": 4429,
      "கொல்கத்தா": 4430,
      "ஞாய": 4431,
      "னை": 4432,
      "முகா": 4433,
      "என்பதே": 4434,
      "தொழிற": 4435,
      "கூறுகிறது": 4436,
      "காணி": 4437,
      "பேரும்": 4438,
      "கேம": 4439,
      "அகில": 4440,
      "கற்ப": 4441,
      "விற்கு": 4442,
      "விடம்": 4443,
      "##டிவி": 4444,
      "ஆர்வ": 4445,
      "அங்குள்ள": 4446,
      "மேம்படுத்த": 4447,
      "கள்ளக்குறி": 4448,
      "ஜென": 4449,
      "##மக": 4450,
      "த்திலிருந்து": 4451,
      "மருத்துவர்கள்": 4452,
      "உணர்": 4453,
      "குடும்பத்தினர்": 4454,
      "##ஞ்ஞ": 4455,
      "##சன": 4456,
      "##்பா": 4457,
      "தெரிந்த": 4458,
      "கொண்டிருக்கும்": 4459,
      "உட்ப": 4460,
      "நிச்சயம்": 4461,
      "ரகசிய": 4462,
      "பாதை": 4463,
      "வாய்ப்புகள்": 4464,
      "வரலாறு": 4465,
      "பங்களி": 4466,
      "vi": 4467,
      "பண்ணி": 4468,
      "சிறும": 4469,
      "அக்னி": 4470,
      "##புறம்": 4471,
      "ச்ச": 4472,
      "##ையொட்டி": 4473,
      "##ன்னா": 4474,
      "தொடரில்": 4475,
      "ிருக்கின்றனர்": 4476,
      "தகுதி": 4477,
      "##it": 4478,
      "போன்று": 4479,
      "தொக": 4480,
      "##வேல்": 4481,
      "செய்துள்ளனர்": 4482,
      "இலக்கு": 4483,
      "நாடுகளின்": 4484,
      "கேரள": 4485,
      "சன்": 4486,
      "ஜீ": 4487,
      "##ப்பார்": 4488,
      "நாட்ட": 4489,
      "கலவர": 4490,
      "சமீப": 4491,
      "ஏற்பாடுகளை": 4492,
      "நம்ம": 4493,
      "நாராய": 4494,
      "விகி": 4495,
      "##வரில்": 4496,
      "வெளிநாடு": 4497,
      "ஏதாவது": 4498,
      "மயில": 4499,
      "##ம்ப்": 4500,
      "##ப்பான்": 4501,
      "மாறு": 4502,
      "சேத": 4503,
      "களிடம்": 4504,
      "நிறைவு": 4505,
      "பிரதேசத்தில்": 4506,
      "சொந்தமான": 4507,
      "தவறான": 4508,
      "ஆராய்ச்சி": 4509,
      "மம": 4510,
      "செயற்கை": 4511,
      "கட்டாய": 4512,
      "உணர்வு": 4513,
      "197": 4514,
      "வாக்குறு": 4515,
      "##ப்பதற்கான": 4516,
      "எதிர்கொள்ள": 4517,
      "பருவ": 4518,
      "வயதில்": 4519,
      "தங்கம்": 4520,
      "##ங்கில்": 4521,
      "விஞ்ஞ": 4522,
      "மோத": 4523,
      "குறைக்க": 4524,
      "##ச்சாமி": 4525,
      "##டான": 4526,
      "நாணய": 4527,
      "அதற்காக": 4528,
      "நேரு": 4529,
      "குடியிரு": 4530,
      "ஹிஜா": 4531,
      "உள்பட": 4532,
      "கைப்பற்ற": 4533,
      "னின்": 4534,
      "வெல்ல": 4535,
      "யாரு": 4536,
      "ஓட்ட": 4537,
      "ஞான": 4538,
      "##ப்பாள": 4539,
      "##ிலிருந்த": 4540,
      "செய்துள்ளது": 4541,
      "செலுத்தி": 4542,
      "சிக்கி": 4543,
      "ஏவுகணை": 4544,
      "வசித்து": 4545,
      "##ழிவு": 4546,
      "வளர்ச்ச": 4547,
      "##வொரு": 4548,
      "முது": 4549,
      "##ார்க": 4550,
      "க்குள்": 4551,
      "உதார": 4552,
      "##விட்டால்": 4553,
      "கட்சிக்கு": 4554,
      "##க்கூடும்": 4555,
      "தமிழர்": 4556,
      "னுக்கு": 4557,
      "##ிருப்பது": 4558,
      "தெற்கு": 4559,
      "##வதில்லை": 4560,
      "சம்பவங்கள்": 4561,
      "இதற்கிடையே": 4562,
      "ராய": 4563,
      "##லிய": 4564,
      "பேரை": 4565,
      "நீங்க": 4566,
      "உயர்வு": 4567,
      "##த்திரம்": 4568,
      "கண்டறி": 4569,
      "தொடர்புடைய": 4570,
      "புதுச்சேரி": 4571,
      "##வான்": 4572,
      "##த்திலேயே": 4573,
      "கடற்க": 4574,
      "##த்தைக்": 4575,
      "தொடர்ந்த": 4576,
      "ாது": 4577,
      "அமைச்சராக": 4578,
      "நான்க": 4579,
      "போட்டியிட்ட": 4580,
      "தக்க": 4581,
      "ுகிறார்": 4582,
      "##பட்டு": 4583,
      "##யல்": 4584,
      "அமைதி": 4585,
      "விட்டனர்": 4586,
      "நினைத்த": 4587,
      "பந்துவீச்ச": 4588,
      "அதிரடி": 4589,
      "மரியாதை": 4590,
      "கில்": 4591,
      "##ணர்வு": 4592,
      "சுழ": 4593,
      "ப்பட்டுள்ளது": 4594,
      "நீதிபதிகள்": 4595,
      "வெற்றியை": 4596,
      "மசூ": 4597,
      "வர்களுக்கு": 4598,
      "இருக்காது": 4599,
      "அறிவியல்": 4600,
      "உலகக்": 4601,
      "கூட்டணியில்": 4602,
      "அறுவை": 4603,
      "நடைபெறுகிறது": 4604,
      "முடிந்து": 4605,
      "சந்திப்பு": 4606,
      "நகர்ப்புற": 4607,
      "90": 4608,
      "##டனும்": 4609,
      "இடையில்": 4610,
      "தங்களின்": 4611,
      "வசிக்கும்": 4612,
      "மன்": 4613,
      "##ொடர்": 4614,
      "##ம்மு": 4615,
      "செயலக": 4616,
      "வேலு": 4617,
      "கோர": 4618,
      "வழியில்": 4619,
      "அனுமதிக்க": 4620,
      "பெரும்பான்": 4621,
      "விண்வெளி": 4622,
      "##ஜன்": 4623,
      "பேரில்": 4624,
      "வைக்கும்": 4625,
      "வைத்திய": 4626,
      "அதிகபட்ச": 4627,
      "பெய்ய": 4628,
      "ஆதரவாளர்கள்": 4629,
      "##கிய": 4630,
      "##ம்மா": 4631,
      "பாள": 4632,
      "அமைப்பின்": 4633,
      "உடலை": 4634,
      "தோடு": 4635,
      "அழைக்க": 4636,
      "சதவிகித": 4637,
      "திண்டுக்கல்": 4638,
      "ஆற்ற": 4639,
      "காம": 4640,
      "இருந்தும்": 4641,
      "முன்னில": 4642,
      "இருப்பதை": 4643,
      "தூத்துக்கு": 4644,
      "மனோ": 4645,
      "மகிழ்ச்சி": 4646,
      "படித்து": 4647,
      "##விலான": 4648,
      "தயார்": 4649,
      "சிவசேனா": 4650,
      "மஞ்ச": 4651,
      "##ர்களுக்கும்": 4652,
      "வெளியில்": 4653,
      "##குமார்": 4654,
      "திணை": 4655,
      "##க்கப்பட்டார்": 4656,
      "பேசின": 4657,
      "திறன்": 4658,
      "##ஸ்க்": 4659,
      "வலியுறுத்தி": 4660,
      "னும்": 4661,
      "விய": 4662,
      "##வகு": 4663,
      "##மல்ல": 4664,
      "சூப்பர்": 4665,
      "பயன்படுத்து": 4666,
      "\"\"": 4667,
      "மட்ட": 4668,
      "இந்தி": 4669,
      "சட்டவிர": 4670,
      "##ங்களிடம்": 4671,
      "ஆத்மி": 4672,
      "ுமா": 4673,
      "##பன்": 4674,
      "கொள்ளலாம்": 4675,
      "திரைய": 4676,
      "ஜனதா": 4677,
      "இப்": 4678,
      "உர": 4679,
      "கற்று": 4680,
      "##ேப": 4681,
      "##தானம்": 4682,
      "பிபிசிய": 4683,
      "ரொம்ப": 4684,
      "ராக": 4685,
      "##க்குழுவ": 4686,
      "வின": 4687,
      "பரவி": 4688,
      "கோவிலுக்கு": 4689,
      "ஆசிரிய": 4690,
      "உள்துறை": 4691,
      "கனி": 4692,
      "ரன்க": 4693,
      "முனை": 4694,
      "##ரித்து": 4695,
      "ஆயிரக்கணக்கான": 4696,
      "இடைக்கால": 4697,
      "எரிப": 4698,
      "கவுன்சில": 4699,
      "வெறு": 4700,
      "பிரான்": 4701,
      "பிரசா": 4702,
      "தேர்தலை": 4703,
      "தற்கு": 4704,
      "##ுள்ளது": 4705,
      "##மிக": 4706,
      "பிரிய": 4707,
      "##முள்ள": 4708,
      "இரட்டை": 4709,
      "பாஜகவுக்கு": 4710,
      "இருப்பதாகவும்": 4711,
      "பட்டா": 4712,
      "co": 4713,
      "##லத்தில்": 4714,
      "வழங்கு": 4715,
      "திருக்கோ": 4716,
      "மூட": 4717,
      "கட்டட": 4718,
      "குடும்பத்தின": 4719,
      "பெரும்பாலும்": 4720,
      "முந்தைய": 4721,
      "வேளா": 4722,
      "புற்று": 4723,
      "சுரங்க": 4724,
      "ராணி": 4725,
      "ராசிக்க": 4726,
      "ிருப்பதாக": 4727,
      "அறிக": 4728,
      "இராஜ": 4729,
      "கவர்": 4730,
      "ஜாம": 4731,
      "விபத்தில்": 4732,
      "பாய்": 4733,
      "துரை": 4734,
      "வீட்டை": 4735,
      "இயல்": 4736,
      "வேலைவாய": 4737,
      "2017": 4738,
      "அழுத்த": 4739,
      "##பையில்": 4740,
      "##மீர்": 4741,
      "ராமர்": 4742,
      "கூறியது": 4743,
      "சொன்னார்": 4744,
      "வலியுறுத்த": 4745,
      "ஆகியவற்றை": 4746,
      "உற்சாக": 4747,
      "##லிருந்து": 4748,
      "விழிப்பு": 4749,
      "விக்கெட்": 4750,
      "##ரித்த": 4751,
      "##வர்த்த": 4752,
      "ராஜே": 4753,
      "செல்வா": 4754,
      "அணியில்": 4755,
      "ுவதாக": 4756,
      "##ாசி": 4757,
      "##த்திரி": 4758,
      "##ச்சல்": 4759,
      "வழிகா": 4760,
      "நிலையை": 4761,
      "தோன்ற": 4762,
      "அருள": 4763,
      "அணிந்து": 4764,
      "அழுத்தம்": 4765,
      "ராசிக்கார": 4766,
      "வண்ண": 4767,
      "முடிவெ": 4768,
      "காலங்களில்": 4769,
      "முன்பே": 4770,
      "மாதிரிய": 4771,
      "பேசுகையில்": 4772,
      "பிராந்திய": 4773,
      "இவ்வளவு": 4774,
      "னா": 4775,
      "##வளி": 4776,
      "காஞ்சி": 4777,
      "வாங்கிய": 4778,
      "நானும்": 4779,
      "அமெரிக்காவின்": 4780,
      "சார்பாக": 4781,
      "தயாரிக்க": 4782,
      "தற்கால": 4783,
      "##றித": 4784,
      "நாள்க": 4785,
      "வேற": 4786,
      "அமைந்த": 4787,
      "அமைத்து": 4788,
      "அதிகாரம்": 4789,
      "கட்டுமான": 4790,
      "விமானம்": 4791,
      "ராசிக்கு": 4792,
      "ஆந்திரா": 4793,
      "கொடியேற்ற": 4794,
      "இதுதொடர்": 4795,
      "ஆசை": 4796,
      "ுமாறு": 4797,
      "விவாதி": 4798,
      "அறிந்து": 4799,
      "##ப்படுகின்றன": 4800,
      "வார்டு": 4801,
      "உண்மையில்": 4802,
      "புறக்கணி": 4803,
      "அனுபவ": 4804,
      "##்க்கு": 4805,
      "##ாகும்": 4806,
      "அதுவும்": 4807,
      "சண்டை": 4808,
      "##is": 4809,
      "நாம": 4810,
      "பெருமை": 4811,
      "ராணுவம்": 4812,
      "சட்டவிரோத": 4813,
      "##பூர்வ": 4814,
      "##இல்": 4815,
      "##த்திலிருந்து": 4816,
      "அந்தத்": 4817,
      "வந்துள்ளது": 4818,
      "தேவையில்": 4819,
      "வகையான": 4820,
      "தர்": 4821,
      "லோக": 4822,
      "காப்ப": 4823,
      "வந்தால்": 4824,
      "முடிவை": 4825,
      "ங்களின்": 4826,
      "தூத": 4827,
      "வெள்ளை": 4828,
      "நாடாளுமன்றத்தில்": 4829,
      "ஒப்புதல்": 4830,
      "விசேட": 4831,
      "##்களுக்கு": 4832,
      "மீறி": 4833,
      "செய்யப்பட": 4834,
      "முன்னோ": 4835,
      "படத்தை": 4836,
      "அமல்": 4837,
      "பரபரப்பு": 4838,
      "##லன்": 4839,
      "வருகிற": 4840,
      "இறக்கு": 4841,
      "வெளியிட்டுள்ள": 4842,
      "எதிர்க்கட்சிகள்": 4843,
      "கும்பாபிஷேகம்": 4844,
      "பாஸ்": 4845,
      "மேயர்": 4846,
      "##லாந்து": 4847,
      "களத்தில்": 4848,
      "##ற்ச": 4849,
      "##ங்கோ": 4850,
      "##வாற": 4851,
      "டிஜ": 4852,
      "நியாய": 4853,
      "விமர்சித்து": 4854,
      "ஏற்றுமதி": 4855,
      "சமாஜ்": 4856,
      "வளாகத்தில்": 4857,
      "முன்னணி": 4858,
      "யாருக்கு": 4859,
      "அணிய": 4860,
      "2014": 4861,
      "துறைமுக": 4862,
      "இங்கிலாந்து": 4863,
      "ஏழை": 4864,
      "செயல": 4865,
      "##னிதா": 4866,
      "யோகி": 4867,
      "அலுவலகம்": 4868,
      "ஜான்": 4869,
      "ுவார்கள்": 4870,
      "##வினை": 4871,
      "உள்ளட": 4872,
      "நேரங்களில்": 4873,
      "கல்வ": 4874,
      "##கொலை": 4875,
      "பழனிச்சாமி": 4876,
      "ஈடுபட்டனர்": 4877,
      "முன்னிலையில்": 4878,
      "அன": 4879,
      "மர்ம": 4880,
      "##புர": 4881,
      "நபர்கள்": 4882,
      "பில்லியன்": 4883,
      "##ளையில்": 4884,
      "##யமாக": 4885,
      "புள்ளி": 4886,
      "..!": 4887,
      "சேவ": 4888,
      "தீபார": 4889,
      "உறுதியாக": 4890,
      "ிருக்கலாம்": 4891,
      "வெளியேறி": 4892,
      "எங்களை": 4893,
      "மெட்": 4894,
      "ஹா": 4895,
      "##ல்ஸ்": 4896,
      "கருது": 4897,
      "விடுமுறை": 4898,
      "நடத்தப்பட்ட": 4899,
      "ுவதற்கான": 4900,
      "வெள்ளி": 4901,
      "இணையதள": 4902,
      "கையெழு": 4903,
      "கருணாநிதி": 4904,
      "ஆடை": 4905,
      "பர்": 4906,
      "##சீ": 4907,
      "வென்று": 4908,
      "செய்யலாம்": 4909,
      "மரணம்": 4910,
      "கோயிலுக்கு": 4911,
      "தொழிற்ச": 4912,
      "கள்ளக்குறிச்சி": 4913,
      "கமல்": 4914,
      "##ார்ட்": 4915,
      "அமைந்துள்ளது": 4916,
      "திருப்பி": 4917,
      "தாக்கிய": 4918,
      "கூறும்": 4919,
      "காலநிலை": 4920,
      "குற்றவாள": 4921,
      "##வடை": 4922,
      "தேனி": 4923,
      "தீய": 4924,
      "விட்டதாக": 4925,
      "கட்சித்": 4926,
      "குழந்தைகளுக்கு": 4927,
      "தொழிலாள": 4928,
      "தண்ணீ": 4929,
      "அதிர்ச்சியை": 4930,
      "எட்டு": 4931,
      "தள்ளி": 4932,
      "ுதல்": 4933,
      "##ையால்": 4934,
      "##னிவா": 4935,
      "படங்கள்": 4936,
      "இலங்கைக்கு": 4937,
      "சோழ": 4938,
      "பட்டியலில்": 4939,
      "ஆட": 4940,
      "சிரி": 4941,
      "அறிந்த": 4942,
      "மிகப்": 4943,
      "சட": 4944,
      "மன்ற": 4945,
      "##தீ": 4946,
      "பகுதியாக": 4947,
      "ராஜபக": 4948,
      "இழந்த": 4949,
      "ஆப்கானி": 4950,
      "ராஜபக்ச": 4951,
      "கான": 4952,
      "ஜம்மு": 4953,
      "செயல்பட்ட": 4954,
      "##த்திற்கும்": 4955,
      "##ுரிமை": 4956,
      "செய்தால்": 4957,
      "துணி": 4958,
      "விலங்கு": 4959,
      "ஆணையர்": 4960,
      "எதிர்பார்க்கப்படுகிறது": 4961,
      "ஒப்பந்தம்": 4962,
      "பெங்களூ": 4963,
      "கலந்துரையாட": 4964,
      "##தலாக": 4965,
      "##il": 4966,
      "பிரே": 4967,
      "பெற்றார்": 4968,
      "அகற்ற": 4969,
      "ப்படுகின்றன": 4970,
      "திருப்பதி": 4971,
      "கப்பல்": 4972,
      "ne": 4973,
      "அண்": 4974,
      "வான்": 4975,
      "##லாமல்": 4976,
      "உத்தரப்பிர": 4977,
      "செய்யப்பட்டார்": 4978,
      "##ஸ்கர்": 4979,
      "வேண்டுமெ": 4980,
      "சிரம": 4981,
      "ஒலிம்ப": 4982,
      "உத்தரப்பிரதேச": 4983,
      "##வர்களின்": 4984,
      "##மற்ற": 4985,
      "##திர்": 4986,
      "தென்க": 4987,
      "சாம்ப": 4988,
      "சந்தோ": 4989,
      "மோகன்": 4990,
      "பகிர": 4991,
      "மட": 4992,
      "பலன்": 4993,
      "##கின்றது": 4994,
      "##மிடம்": 4995,
      "குறைந்து": 4996,
      "##ர்களா": 4997,
      "இறங்கி": 4998,
      "அதிகரித்துள்ளது": 4999
    }
  }
}