<unk>	0
<s>	0
</s>	0
▁த	-0
்க	-1
▁க	-2
்த	-3
▁ி	-4
▁ப	-5
▁்	-6
▁ு	-7
▁ம	-8
▁வ	-9
▁ா	-10
ன்	-11
▁.	-12
▁ச	-13
ல்	-14
▁ர	-15
்ப	-16
்ட	-17
▁அ	-18
▁ந	-19
▁இ	-20
▁ட	-21
க்க	-22
ம்	-23
▁ய	-24
ந்த	-25
▁,	-26
ர்	-27
▁எ	-28
்கள	-29
▁த்த	-30
த்த	-31
▁ை	-32
ள்	-33
து	-34
▁ப்ப	-35
ில	-36
ரு	-37
ட்ட	-38
ிய	-39
▁க்க	-40
▁து	-41
ன்ற	-42
▁ஆ	-43
▁உ	-44
▁ரு	-45
்ச	-46
▁ில்	-47
ப்ப	-48
தி	-49
ள்ள	-50
ண்ட	-51
▁ே	-52
▁ம்	-53
▁ும்	-54
ற்	-55
ங்க	-56
ற்ற	-57
▁வி	-58
▁ிற	-59
▁ன	-60
▁ல	-61
▁ட்ட	-62
▁ுக்க	-63
ாக	-64
▁மு	-65
▁செ	-66
▁தி	-67
டி	-68
▁ோ	-69
ங்கள	-70
ைய	-71
▁ுக்கு	-72
▁டு	-73
▁கு	-74
ார	-75
▁யி	-76
▁கள	-77
▁ிய	-78
▁ெ	-79
▁ாக	-80
ரி	-81
ல்ல	-82
▁ந்த	-83
ும	-84
▁ும	-85
▁பா	-86
▁ின்	-87
▁பி	-88
வர	-89
வி	-90
▁்கள	-91
▁ஒ	-92
ான	-93
ன்ன	-94
ும்	-95
▁கொ	-96
▁ுள்ள	-97
▁ார்	-98
லை	-99
▁போ	-100
▁என்ற	-101
▁ருந்த	-102
▁மா	-103
▁ங்கள	-104
று	-105
டு	-106
▁செய	-107
▁கா	-108
▁வே	-109
றி	-110
▁வர	-111
னா	-112
கள	-113
▁தா	-114
▁ண	-115
▁இந்த	-116
▁ருக்க	-117
▁2	-118
▁ர்	-119
றை	-120
▁ஸ	-121
▁ீ	-122
▁ொ	-123
▁ஏ	-124
▁0	-125
க்	-126
்சி	-127
▁ான	-128
▁ஜ	-129
▁கூ	-130
▁1	-131
▁ழ	-132
ற்க	-133
▁யில்	-134
▁நட	-135
▁"	-136
▁த்தில	-137
▁ள	-138
▁தொ	-139
▁பெ	-140
▁்ட	-141
▁கட	-142
▁்ப	-143
▁த்	-144
▁க்	-145
▁டுத்த	-146
▁ப்	-147
▁க்கு	-148
▁நா	-149
▁வா	-150
ப்	-151
▁என	-152
▁உள்ள	-153
வு	-154
▁யை	-155
ிர	-156
ற்ப	-157
▁ிறது	-158
▁தெ	-159
▁வரு	-160
▁ஒரு	-161
ன்ப	-162
னை	-163
▁ூ	-164
த்	-165
▁சி	-166
▁பே	-167
▁ரா	-168
▁ண்ட	-169
▁நி	-170
▁வெ	-171
ணி	-172
▁மே	-173
▁ிர	-174
▁என்று	-175
ஸ்	-176
ச்ச	-177
▁மற்ற	-178
ுவ	-179
▁ார	-180
▁பு	-181
மி	-182
▁நில	-183
▁ன்	-184
▁ில	-185
்ய	-186
▁்த	-187
▁னர்	-188
▁ுவ	-189
▁்க	-190
▁ின	-191
▁அதி	-192
▁-	-193
▁டி	-194
▁வேண்ட	-195
▁தே	-196
▁ரி	-197
ண்	-198
▁ிட	-199
▁கி	-200
்வ	-201
▁ுட	-202
மை	-203
ரச	-204
ார்	-205
▁மீ	-206
▁தொட	-207
ளர	-208
▁அவ	-209
ம்ப	-210
▁வழ	-211
▁ால்	-212
▁குறி	-213
னால்	-214
▁தான்	-215
கு	-216
▁தொடர	-217
▁வர்கள	-218
▁ற்ற	-219
▁வந்த	-220
▁முத	-221
ண்டு	-222
▁ின்ற	-223
▁வை	-224
▁பொ	-225
▁செய்ய	-226
▁செய்த	-227
ட்	-228
▁வீ	-229
▁யாக	-230
▁ித்த	-231
▁தாக	-232
▁கோ	-233
▁ுக	-234
▁தெரி	-235
▁அத	-236
▁தற்க	-237
▁பிர	-238
▁பல	-239
▁சே	-240
▁ச்ச	-241
▁:	-242
▁அம	-243
▁ேர	-244
▁மை	-245
டை	-246
▁ிற்க	-247
▁த்தை	-248
▁மி	-249
▁தலை	-250
▁யின்	-251
▁அரச	-252
▁களை	-253
▁சா	-254
▁ங்க	-255
▁ச்	-256
▁ற	-257
▁ல்ல	-258
▁ஹ	-259
சி	-260
▁3	-261
▁வருக	-262
▁ைய	-263
▁அவர்	-264
▁தெரிவ	-265
▁ின்றன	-266
▁ிறார்	-267
▁கள்	-268
▁ஏற்ப	-269
▁ஷ	-270
▁ிக்க	-271
ந்து	-272
▁கே	-273
▁ெய	-274
▁வெள	-275
▁இது	-276
▁யா	-277
▁என்ப	-278
▁தமி	-279
▁தமிழ	-280
▁ாவ	-281
லா	-282
▁இத	-283
ுக	-284
▁க்கை	-285
▁்ச	-286
▁ன்ற	-287
▁?	-288
▁யும்	-289
▁என்பத	-290
க்கு	-291
▁டை	-292
டிய	-293
▁ஓ	-294
ாம	-295
▁கூற	-296
▁5	-297
▁மூ	-298
▁அதிக	-299
னி	-300
▁ிற்கு	-301
ரிய	-302
▁நிலைய	-303
ில்	-304
▁முதல்	-305
▁'	-306
▁திரு	-307
▁கட்ட	-308
▁று	-309
▁ாத	-310
ச்	-311
▁கொண்ட	-312
விட	-313
▁4	-314
▁சம	-315
க்கள	-316
▁அந்த	-317
▁அவர	-318
▁ால	-319
ன்று	-320
▁ஞ	-321
▁தீ	-322
▁மக்கள	-323
ரா	-324
ண்ண	-325
▁ுத	-326
▁ிட்ட	-327
்தி	-328
ின	-329
▁ல்	-330
▁சொ	-331
▁தற்கு	-332
கவ	-333
▁ஆனால்	-334
▁ஸ்	-335
▁சில	-336
▁ருப்ப	-337
▁ளி	-338
சிய	-339
ய்	-340
▁ஆண்டு	-341
▁சு	-342
▁ந்திய	-343
ர்வ	-344
▁எதி	-345
▁யில	-346
▁ுடன்	-347
▁ினா	-348
▁9	-349
▁கட்சி	-350
ால	-351
▁பேச	-352
குதி	-353
▁அறி	-354
▁ாடு	-355
▁குழ	-356
▁மாக	-357
ன்னை	-358
▁ாம	-359
▁மாந	-360
கர	-361
ரை	-362
▁்ச்சி	-363
ிட	-364
▁த்து	-365
▁பட	-366
▁ணி	-367
▁ர்த	-368
▁ணை	-369
முக	-370
▁துறை	-371
கார	-372
▁ட்டு	-373
▁ம்ப	-374
ரும	-375
▁மேல	-376
▁வழங்க	-377
▁ாது	-378
ற்றி	-379
▁ன்ன	-380
▁ஊ	-381
வே	-382
▁ாட	-383
▁ர்த்த	-384
▁டும்	-385
▁கடந்த	-386
▁ைச்ச	-387
▁முன்ன	-388
▁(	-389
▁ைச்சர	-390
▁தை	-391
ட்டி	-392
்ப்ப	-393
▁திர	-394
▁நீ	-395
▁முடிய	-396
வை	-397
▁!	-398
▁ள்ள	-399
▁பத	-400
▁வில்ல	-401
▁ஸ்ட	-402
▁ஞ்ச	-403
▁நடத்த	-404
▁டுக்க	-405
▁ழு	-406
▁யான	-407
▁யு	-408
▁ினார்	-409
▁ேர்த	-410
▁தலைவர	-411
▁நடை	-412
▁ஆம்	-413
▁டுக	-414
ந்தி	-415
▁னி	-416
▁ேர்தல	-417
▁6	-418
▁ஆக	-419
▁`	-420
▁ுகள	-421
▁கார	-422
ப்பு	-423
▁வும்	-424
▁ாள	-425
▁முறை	-426
▁)	-427
▁லா	-428
▁அரசு	-429
▁போது	-430
▁சென்ற	-431
▁ஐ	-432
வா	-433
ங்கு	-434
▁7	-435
லம	-436
▁இட	-437
▁பய	-438
▁ர்ந்த	-439
▁இல்ல	-440
▁ேன்	-441
▁நடைப	-442
▁பகுதி	-443
▁த்தின	-444
▁ர்க	-445
கை	-446
ாவ	-447
▁ிரத	-448
▁பூ	-449
▁னை	-450
▁நடைபெ	-451
▁கூட்ட	-452
ப்போ	-453
▁வெளிய	-454
▁திட்ட	-455
▁மரு	-456
▁பதி	-457
▁பர	-458
▁மாநில	-459
▁கால	-460
▁உட	-461
தா	-462
▁என்ன	-463
▁திமுக	-464
▁ாவட்ட	-465
▁ொரு	-466
▁8	-467
▁போல	-468
▁ந்திர	-469
▁ோம்	-470
▁ப்படி	-471
▁ய்	-472
▁ினர	-473
▁மேலும	-474
▁பெற்ற	-475
▁ிடம	-476
▁ார்கள	-477
▁ென்னை	-478
▁ரூ	-479
▁ேற்ற	-480
வில	-481
▁வு	-482
ங்	-483
▁ாட்ட	-484
▁்த்த	-485
▁தன	-486
▁பாஜ	-487
▁சட்ட	-488
▁மாத	-489
ிற	-490
▁ர்க்க	-491
ழு	-492
▁மணி	-493
▁ங்களை	-494
▁வர்	-495
▁நடந்த	-496
▁லை	-497
▁உய	-498
▁விச	-499
▁வரும்	-500
▁ீதி	-501
▁விட	-502
▁சீ	-503
▁வைத்த	-504
▁ுத்த	-505
ாட	-506
▁பிற	-507
▁தர	-508
▁ண்டு	-509
▁்ந்த	-510
லக	-511
▁த்திய	-512
▁சூ	-513
▁ரோ	-514
▁்ந்து	-515
▁லங்க	-516
கழ	-517
▁கை	-518
▁ஈ	-519
▁முடி	-520
▁க்கள	-521
▁ாமல்	-522
▁்ந	-523
பி	-524
மான	-525
▁மக	-526
▁ப்பட	-527
▁ஃ	-528
▁பணி	-529
▁ட்டது	-530
ாள	-531
▁ேதி	-532
▁ட்டும	-533
ியா	-534
▁ராஜ	-535
▁வரை	-536
▁தற்ப	-537
▁ிலும்	-538
ரே	-539
▁ாளர	-540
▁ப்பிட	-541
▁றி	-542
▁ிறுவ	-543
▁ட்	-544
▁துவ	-545
மர	-546
▁ிவ	-547
▁எதிர	-548
▁ாய	-549
▁மாண	-550
▁கல	-551
▁ிறுவன	-552
▁்கள்	-553
▁ியி	-554
▁விசார	-555
லி	-556
▁தனால்	-557
▁தனது	-558
திய	-559
▁்ற	-560
ருக	-561
▁இல்லை	-562
▁ழை	-563
▁ுவிட	-564
▁வெளி	-565
ட்ச	-566
▁நான்	-567
▁முக்க	-568
▁ரசிய	-569
▁மீது	-570
▁தமிழக	-571
▁ெய்தி	-572
▁தற்போ	-573
▁ண்	-574
▁கிடை	-575
▁லி	-576
▁ரசியல	-577
▁மூலம	-578
▁ியது	-579
▁கண	-580
▁அணி	-581
▁ொட	-582
▁வாழ	-583
பா	-584
▁கிர	-585
▁ள்	-586
▁தால்	-587
▁குறை	-588
▁போன்ற	-589
▁ாடுகள	-590
▁மைப்ப	-591
▁ஆட	-592
▁அறிவி	-593
பர	-594
▁கண்ட	-595
▁படி	-596
▁ிறப்ப	-597
▁அது	-598
▁இரு	-599
விர	-600
▁எம்	-601
▁காங்க	-602
▁கூட	-603
▁ோய	-604
▁இன்று	-605
ோத	-606
ூர	-607
▁பக	-608
▁ுதல	-609
ல்வ	-610
▁்க்க	-611
▁தொழ	-612
▁வேலை	-613
வடி	-614
▁நடவடி	-615
மா	-616
ணம்	-617
▁ும்ப	-618
▁தாக்க	-619
▁ைப்	-620
▁பாஜக	-621
▁நாட்ட	-622
▁ஜெ	-623
▁பொது	-624
▁பிறகு	-625
▁றுப்ப	-626
▁ாகி	-627
▁டெ	-628
▁ாலும்	-629
பட	-630
ற்ச	-631
▁நிலை	-632
▁ிரதமர	-633
ரவ	-634
▁தகவ	-635
▁மான	-636
▁ெற்றி	-637
்ந	-638
▁உத	-639
▁சம்ப	-640
▁ர்ப்ப	-641
▁யாளர	-642
ளை	-643
▁ந்தை	-644
ணை	-645
▁ிறார	-646
▁ாஜ	-647
ர்கள	-648
▁செல்ல	-649
▁உண	-650
▁அள	-651
▁லங்கை	-652
▁பேர	-653
▁னு	-654
▁திப்ப	-655
▁மேற்க	-656
▁சொல்ல	-657
▁வக	-658
▁ஆட்சி	-659
▁ியாவ	-660
▁அதன்	-661
▁ுக்	-662
▁ுடைய	-663
▁பின்ன	-664
▁ஆய	-665
▁அடி	-666
▁டைந்த	-667
▁ஃப	-668
▁வீட்ட	-669
▁நகர	-670
▁சந்தி	-671
▁ோவில	-672
▁தெரிய	-673
▁காரண	-674
▁ுவத	-675
▁எதிர்	-676
▁தோ	-677
▁நிகழ	-678
மன	-679
▁ோர	-680
வத	-681
▁ளித்த	-682
▁உலக	-683
▁விட்ட	-684
▁கொள்ள	-685
▁என்க	-686
▁ோட்டி	-687
▁யார	-688
▁ருத்த	-689
▁ிரஸ்	-690
▁யோ	-691
▁கவ	-692
▁ரிய	-693
▁வழி	-694
▁ுக்கொ	-695
ூக	-696
▁ஜி	-697
▁மாற்ற	-698
▁எந்த	-699
▁வில்	-700
▁சமூக	-701
ல்ப	-702
ள்ளி	-703
▁களில	-704
▁குட	-705
▁ையும்	-706
▁யே	-707
▁ிழ	-708
▁ஆத	-709
▁டங்கள	-710
▁்வே	-711
ஷ்	-712
▁பொரு	-713
▁கூறு	-714
▁விழ	-715
▁கூறுக	-716
ங்கி	-717
▁வார	-718
▁னைத்த	-719
▁லு	-720
▁பயன்ப	-721
▁மருத்	-722
▁கேட்ட	-723
▁ுய	-724
▁ீதிம	-725
▁ுப்ப	-726
▁மன	-727
▁ுன்ப	-728
▁என்	-729
ழ்	-730
▁ொடங்க	-731
▁டா	-732
த்தி	-733
▁வழக்க	-734
▁காவ	-735
றுதி	-736
▁ஒன்ற	-737
ோர	-738
▁எஸ்	-739
ராட	-740
▁ஆர்	-741
டன்	-742
▁ோயில	-743
▁ஒருவர	-744
▁வ்வ	-745
▁ய்ப்ப	-746
ெரி	-747
▁ுடி	-748
▁அமெரி	-749
▁ஆகிய	-750
▁போராட	-751
▁ரண்டு	-752
▁உரு	-753
▁இர	-754
▁குற்ற	-755
▁லட்ச	-756
▁ைச்	-757
▁குடும	-758
▁வில	-759
▁சம்பவ	-760
▁த்துவ	-761
▁வீர	-762
▁ோட்ட	-763
▁போலீ	-764
சா	-765
▁புதிய	-766
▁பிடி	-767
▁கொடு	-768
▁அப்போ	-769
▁அதிகா	-770
▁முன்	-771
▁வய	-772
▁்பா	-773
▁காட்ட	-774
▁உங்கள	-775
▁பெரிய	-776
▁அவரது	-777
▁லாம்	-778
தில்	-779
க்கம	-780
ந்ந	-781
▁மும்	-782
ழை	-783
▁ுமா	-784
▁வாங்க	-785
▁களில்	-786
▁ழி	-787
▁கலந்த	-788
▁்பாக	-789
▁காவல்	-790
▁ெண	-791
▁ிதி	-792
▁தன்	-793
▁தலைமை	-794
▁ப்பு	-795
▁தின	-796
▁பதவி	-797
▁இதில்	-798
▁டைய	-799
▁ெண்கள	-800
▁யின	-801
▁ர்கள	-802
ட்ப	-803
ல்வி	-804
▁ேற்று	-805
▁ந்தப்	-806
▁இய	-807
கா	-808
▁்வேறு	-809
▁அதே	-810
▁கும	-811
▁கீ	-812
▁மீண்ட	-813
▁ிச்ச	-814
ையே	-815
ோச	-816
▁தங்கள	-817
▁ல்லது	-818
▁வகைய	-819
▁யுள்ள	-820
ழக	-821
▁திக்க	-822
▁தொழில	-823
▁ாட்சி	-824
▁ிறந்த	-825
▁பள்ளி	-826
▁ுற	-827
▁ற்க	-828
▁ாங்க	-829
ளி	-830
▁ிலைய	-831
▁ப்படை	-832
▁வைக்க	-833
ணைய	-834
▁சிக	-835
▁பேர்	-836
ம்பி	-837
▁ைக்	-838
▁ாள்	-839
▁நிர்வ	-840
ியர	-841
▁கர	-842
துக	-843
▁துவர	-844
▁மது	-845
▁பங்க	-846
▁அதிகம	-847
▁ுர	-848
▁மெ	-849
▁மிக	-850
▁ுகிற	-851
▁எண்ண	-852
▁லாம	-853
▁பக்த	-854
ியே	-855
▁ல்லாம	-856
▁ாதார	-857
▁ரிகள	-858
▁ளிக்க	-859
▁ஈடு	-860
▁எங்கள	-861
▁க்கூ	-862
▁ரஷ	-863
▁செய்வ	-864
▁அங்கு	-865
வ்வ	-866
▁ிரி	-867
ரும்	-868
▁மாணவர	-869
▁யும	-870
▁மைய	-871
யர	-872
▁ிலி	-873
▁பாட	-874
ழி	-875
▁ிக்	-876
▁பொருள	-877
ஞர	-878
ுமை	-879
▁பக்தர	-880
▁ரே	-881
▁ண்ண	-882
▁நாள்	-883
▁நடக்க	-884
▁ேள்	-885
▁தேசிய	-886
தை	-887
▁பற்றி	-888
▁ேள்வி	-889
▁ராக	-890
▁ர்ச	-891
▁ாட்கள	-892
▁இப்போ	-893
வர்	-894
▁பாதுக	-895
▁பெற	-896
▁க்கூட	-897
▁ான்	-898
▁ாப்பு	-899
▁ாக்க	-900
யே	-901
▁னக்கு	-902
▁்கெ	-903
▁்கெட்	-904
▁ரஷ்ய	-905
▁காரணம	-906
▁ில்லை	-907
▁ெயல்ப	-908
ீர	-909
▁பதில	-910
▁ஆள	-911
▁வது	-912
▁ந்து	-913
▁ிச	-914
▁றை	-915
▁ஒப்ப	-916
▁ிலை	-917
▁ிரு	-918
▁இந்ந	-919
▁திகார	-920
▁தும	-921
நர	-922
▁சக	-923
▁ரூபா	-924
▁10	-925
▁நே	-926
▁எட	-927
▁சார	-928
▁விடு	-929
▁ாங்கள	-930
▁வளர	-931
▁அதில்	-932
▁ியா	-933
▁விஷ	-934
▁இயக்க	-935
▁தேவ	-936
▁ினர்	-937
▁னும	-938
▁வல	-939
▁அதை	-940
▁நினை	-941
▁யலா	-942
ையாட	-943
▁ஆண்ட	-944
▁;	-945
▁ும்போ	-946
▁கூறிய	-947
மு	-948
▁ஈடுபட	-949
▁ுவது	-950
▁யலாளர	-951
▁வச	-952
▁ஸ்டால	-953
▁குடி	-954
▁குமார	-955
▁வந்து	-956
▁ுமன்ற	-957
▁ஸ்த	-958
▁இடத்த	-959
▁சிறு	-960
▁றுத்த	-961
▁ைத்	-962
▁வும	-963
▁கோடி	-964
▁ராம	-965
▁அப்ப	-966
▁்பாடி	-967
▁மறு	-968
▁கைது	-969
▁எடப	-970
▁னுப்ப	-971
▁ரத்த	-972
▁மலை	-973
▁வரி	-974
ேக	-975
▁ற்ப	-976
▁்நா	-977
▁எல்ல	-978
▁ழுந்த	-979
▁ோடி	-980
▁ிவிட	-981
ரீ	-982
▁கடை	-983
▁எல்	-984
▁ிக	-985
▁உருவா	-986
▁னுமதி	-987
▁க்கா	-988
▁நிறை	-989
▁சூழ	-990
▁தய	-991
▁ொத்த	-992
▁ுறை	-993
▁தேச	-994
▁ோடு	-995
▁ிரும	-996
▁கிராம	-997
▁ல்லா	-998
▁ையில்	-999
▁ுடிவு	-1000
▁ிருமண	-1001
▁பாக	-1002
▁வாக	-1003
▁பால	-1004
▁பிரச	-1005
▁ுயற்ச	-1006
▁ாந்தி	-1007
▁திரும	-1008
▁ுப	-1009
▁பார	-1010
▁தாவ	-1011
▁ிகவ	-1012
▁கரு	-1013
▁டித்த	-1014
▁அம்	-1015
▁்ய	-1016
▁ூர	-1017
▁ிகவும	-1018
▁லுத்த	-1019
ையில	-1020
▁ிகள	-1021
▁பண	-1022
▁தடு	-1023
▁நிறு	-1024
▁நெ	-1025
▁உதவி	-1026
▁நாட	-1027
▁டெல்ல	-1028
▁ஏற்ற	-1029
▁ட்ச	-1030
▁ுத்து	-1031
▁மாதம்	-1032
▁பெரும	-1033
▁ிஸ	-1034
▁மாற	-1035
▁ீடு	-1036
▁ாம்	-1037
▁விமான	-1038
▁ஷ்ட	-1039
▁ழக்கு	-1040
▁ட்சி	-1041
▁ஜனா	-1042
▁செல்வ	-1043
▁க்கான	-1044
▁உயர	-1045
▁ாக்கு	-1046
▁ீட்ட	-1047
▁நாம்	-1048
▁வின்	-1049
▁t	-1050
▁லுவ	-1051
▁த்தரவ	-1052
▁யிட	-1053
▁ங்கள்	-1054
▁கல்வி	-1055
▁பெயர	-1056
▁்தான	-1057
▁புகார	-1058
▁ராண	-1059
▁ஜனாதி	-1060
▁டுவ	-1061
ரில்	-1062
▁வித	-1063
▁வற்ற	-1064
▁முழ	-1065
▁்நாடு	-1066
▁டுப்ப	-1067
▁தவ	-1068
▁ிவகார	-1069
▁முதல	-1070
▁யுடன்	-1071
▁தந்த	-1072
▁ந்தக்	-1073
▁தரப்ப	-1074
▁பெண்	-1075
▁ரோனா	-1076
▁ராணுவ	-1077
வில்	-1078
▁துவமன	-1079
▁தூ	-1080
▁வருவத	-1081
▁கிய	-1082
ற்று	-1083
ான்	-1084
▁ஸ்ரே	-1085
▁ரய	-1086
▁பின்	-1087
ர்வு	-1088
▁ஸ்ரீ	-1089
▁எழு	-1090
▁நிய	-1091
▁பூஜ	-1092
▁திக	-1093
▁மழை	-1094
▁தகவல	-1095
தல	-1096
▁ாவது	-1097
▁மின்	-1098
▁ிள	-1099
▁முடிவ	-1100
ால்	-1101
ர்ச	-1102
▁ல்க	-1103
▁ஸ்ரேல	-1104
▁அன	-1105
▁ஜெய	-1106
▁அதிர	-1107
▁தகவல்	-1108
▁நிறைவ	-1109
▁க்கும	-1110
ேச	-1111
▁முக	-1112
▁ிரதேச	-1113
▁பதிவு	-1114
▁புர	-1115
▁நோ	-1116
▁ாய்	-1117
▁திராக	-1118
▁இதை	-1119
▁தாவது	-1120
▁நு	-1121
▁தேவை	-1122
▁உரி	-1123
▁ஒவ்வ	-1124
▁ன்னும	-1125
▁டன	-1126
▁விலை	-1127
▁ஜா	-1128
▁மைக்க	-1129
▁டிய	-1130
▁ாளி	-1131
▁ாமி	-1132
னைவர	-1133
▁ம்ம	-1134
▁அனைவர	-1135
▁உணவு	-1136
▁பூஜை	-1137
கர்	-1138
ள்க	-1139
▁விழா	-1140
▁பட்ட	-1141
▁ேற்க	-1142
▁முழுவ	-1143
▁ரன	-1144
▁புரி	-1145
▁ிங்	-1146
▁காண	-1147
▁உயர்	-1148
▁கோரி	-1149
வும	-1150
பத்த	-1151
▁உறுதி	-1152
ோக	-1153
▁ூல	-1154
▁இரண்ட	-1155
▁ாச	-1156
▁ஆளு	-1157
▁வ்வா	-1158
▁விக	-1159
▁எனவே	-1160
▁தங்க	-1161
▁இதன்	-1162
ாய	-1163
▁கன	-1164
▁தயார	-1165
▁விஷய	-1166
▁சுற்ற	-1167
▁டந்து	-1168
▁ிச்சை	-1169
▁ஆய்	-1170
▁ஆய்வு	-1171
▁அண்ண	-1172
▁இருவர	-1173
▁்த்தி	-1174
ப்பட	-1175
▁கியோர	-1176
▁ரஷ்யா	-1177
▁ரை	-1178
▁ழைத்த	-1179
▁உச்ச	-1180
▁ர்ம	-1181
▁போல்	-1182
▁மத	-1183
▁சார்ப	-1184
க்கி	-1185
▁விதி	-1186
▁மைச்ச	-1187
▁காலை	-1188
▁னிய	-1189
▁ஆளுநர	-1190
▁ர்வ	-1191
▁ன்ப	-1192
ையட	-1193
▁ஏற்க	-1194
▁்பத்த	-1195
▁s	-1196
▁ச்னை	-1197
▁ேஷ்	-1198
▁தவிர	-1199
▁ாலத்த	-1200
▁இற	-1201
▁அளவ	-1202
▁ஸ்ட்	-1203
▁மட்ட	-1204
▁ிடம்	-1205
▁ூன்று	-1206
▁ரித்த	-1207
▁வன	-1208
▁போக	-1209
▁உரிமை	-1210
▁படத்த	-1211
▁ஒரே	-1212
▁னா	-1213
▁ெரும்	-1214
▁வாகன	-1215
▁த்திர	-1216
ற்றம	-1217
▁ாண்ட	-1218
▁தடை	-1219
ென	-1220
▁துணை	-1221
▁யால்	-1222
ிரம	-1223
▁ீடிய	-1224
▁ராகு	-1225
▁விரு	-1226
▁ாரணம்	-1227
மைய	-1228
்ட்	-1229
▁க்காக	-1230
▁ிரியர	-1231
▁ீடியோ	-1232
▁ொகுதி	-1233
▁விஜ	-1234
▁ாதி	-1235
முற	-1236
▁சீனா	-1237
▁ுவா	-1238
▁கல்ல	-1239
▁சர்வ	-1240
▁திகரி	-1241
▁ழனி	-1242
▁உள்ளன	-1243
▁உற	-1244
▁மனை	-1245
▁ழனிச	-1246
▁குழுவ	-1247
▁பிரி	-1248
▁இல	-1249
▁த்தி	-1250
▁உத்த	-1251
▁போட்ட	-1252
▁ுகள்	-1253
▁தும்	-1254
▁நேர	-1255
▁வீரர	-1256
▁ஜூ	-1257
▁விரும	-1258
▁கொலை	-1259
▁ரங்க	-1260
▁ாண	-1261
▁ியத	-1262
▁சத	-1263
▁லட்சம	-1264
▁ேர்வு	-1265
▁ுல	-1266
▁யூ	-1267
▁ளையாட	-1268
▁ம்பர	-1269
▁ுகளை	-1270
▁நம்	-1271
▁ுங்கள	-1272
▁வயத	-1273
▁ணைந்த	-1274
▁வேறு	-1275
▁மகன	-1276
▁நிதி	-1277
▁ரிச	-1278
தான	-1279
▁்ண	-1280
▁ிலே	-1281
▁ுமார்	-1282
▁சை	-1283
▁ரீ	-1284
▁ிம	-1285
▁ழுத்த	-1286
▁பிஷ	-1287
▁்பு	-1288
▁த்தது	-1289
▁ாகும்	-1290
▁நடி	-1291
▁மனைவி	-1292
▁்பான	-1293
▁ிக்கை	-1294
▁கவன	-1295
▁க்ட	-1296
▁சரி	-1297
▁சொன்ன	-1298
▁வேட்ப	-1299
▁ரசி	-1300
▁மனி	-1301
▁ாடி	-1302
▁ைத்தி	-1303
▁ுவி	-1304
▁அதிபர	-1305
▁உள்	-1306
▁இதற்க	-1307
▁இவர்	-1308
▁துக்க	-1309
▁மனித	-1310
▁கீழ்	-1311
▁ண்ட்	-1312
▁ப்பாக	-1313
▁ந்தத்	-1314
▁ொருட்	-1315
▁போலீஸ	-1316
▁ணிப்ப	-1317
▁பாஜகவ	-1318
▁ாதுகா	-1319
டக	-1320
▁ுக்கள	-1321
▁சோ	-1322
▁ூர்	-1323
▁ரன்கள	-1324
▁மகள	-1325
▁ரண	-1326
▁போலீச	-1327
▁ுவாமி	-1328
▁துர	-1329
▁மோச	-1330
▁புது	-1331
▁யிரி	-1332
▁ஒன்று	-1333
▁மொ	-1334
▁மாலை	-1335
▁ஏன்	-1336
▁கடுமை	-1337
▁செல	-1338
▁குரு	-1339
▁கேட	-1340
▁ிப்ப	-1341
▁தான	-1342
▁கூறி	-1343
▁நாடாள	-1344
▁லுவலக	-1345
▁்ட்	-1346
▁இங்கு	-1347
▁ஆதர	-1348
▁பிஷேக	-1349
▁வேக	-1350
▁ீங்கள	-1351
▁ிகழ	-1352
▁ுழ	-1353
▁டிக்க	-1354
▁வாத	-1355
▁றக்க	-1356
▁யிரிழ	-1357
▁ொண்ட	-1358
▁நம்பி	-1359
▁குழு	-1360
▁ிபி	-1361
▁வருட	-1362
▁ர்ச்ச	-1363
▁வங்கி	-1364
▁மிழ்	-1365
ீட	-1366
▁யினர	-1367
▁க்கிய	-1368
ிஸ	-1369
▁பாகிஸ	-1370
▁ிலேயே	-1371
ாண	-1372
▁மேல்	-1373
▁ற்றது	-1374
▁துவரை	-1375
▁ட்டி	-1376
▁ரம	-1377
▁இளை	-1378
▁அண்ணா	-1379
▁ீர்கள	-1380
▁கிற	-1381
▁குதி	-1382
▁ல்லாத	-1383
▁இடையே	-1384
▁ுச்	-1385
▁அருக	-1386
▁இதையட	-1387
வாத	-1388
▁சிவ	-1389
▁சேவை	-1390
▁பலர	-1391
▁நல்ல	-1392
▁ம்பர்	-1393
▁அல	-1394
▁ோல	-1395
▁சிங்	-1396
▁கணக்க	-1397
▁மதுரை	-1398
▁பத்த	-1399
▁முழு	-1400
▁அவரை	-1401
▁கிரி	-1402
எஸ	-1403
▁ெருக	-1404
▁்க்கை	-1405
▁ழுப்ப	-1406
▁கொள்	-1407
▁புற	-1408
▁தன்ன	-1409
▁இணைய	-1410
▁உடன	-1411
▁மாணவி	-1412
▁உடல	-1413
▁ுரை	-1414
போ	-1415
▁ுந்த	-1416
▁தரி	-1417
▁ப்பத	-1418
பத	-1419
▁தார	-1420
▁யிலான	-1421
▁விரை	-1422
▁இளைஞர	-1423
▁ிடையே	-1424
▁ராசி	-1425
▁நாத	-1426
▁n	-1427
▁ங்கி	-1428
▁ஓபி	-1429
▁தனி	-1430
▁சாலை	-1431
▁இறுதி	-1432
▁துவும	-1433
▁ீர்	-1434
▁ஓபிஎஸ	-1435
▁தயாரி	-1436
▁தைய	-1437
றைய	-1438
▁யிற்ச	-1439
▁ன்னி	-1440
▁திய	-1441
▁்களை	-1442
▁ச்சா	-1443
▁அருகே	-1444
▁ொள்ள	-1445
▁்த்தை	-1446
▁ருக	-1447
▁லிய	-1448
▁உயிர	-1449
▁ிமர்ச	-1450
▁இடை	-1451
▁ல்வ	-1452
▁றும்	-1453
▁உடல்	-1454
▁போன	-1455
▁மாட்ட	-1456
▁ழைப்ப	-1457
▁ியிட	-1458
▁அளவில	-1459
▁கில	-1460
▁ேஷ	-1461
▁தில	-1462
▁ிக்கொ	-1463
▁கருத	-1464
▁யைப்	-1465
▁்ர	-1466
▁ஆணைய	-1467
▁ச்சி	-1468
▁மேற்ப	-1469
▁மல	-1470
▁ஆர	-1471
▁ரியா	-1472
▁ஊடக	-1473
▁விரி	-1474
▁ருண	-1475
▁ன்ஸ	-1476
▁ுடன	-1477
▁சிறை	-1478
களை	-1479
த்தை	-1480
ோம்	-1481
▁டிர	-1482
▁நாள	-1483
▁வங்க	-1484
▁20	-1485
▁கிட	-1486
▁ளியே	-1487
▁a	-1488
▁ொழி	-1489
▁ளியேற	-1490
▁ஆதரவ	-1491
▁ராஜ்	-1492
▁i	-1493
▁்ப்பு	-1494
▁ட்ர	-1495
▁இரவு	-1496
▁ீதிபத	-1497
▁பந்து	-1498
▁ஞ்சா	-1499
▁ளை	-1500
▁ேஸ்	-1501
▁யங்க	-1502
▁உட்ப	-1503
▁்வ	-1504
▁கட்டி	-1505
லாற	-1506
▁வரலாற	-1507
▁வ்வாற	-1508
▁ிங்க	-1509
சை	-1510
▁்கு	-1511
▁க்குற	-1512
▁செயல	-1513
▁அமர	-1514
▁எனக்	-1515
▁கல்லூ	-1516
▁மைந்த	-1517
▁ழக்கம	-1518
▁ச்சரி	-1519
▁வெளிந	-1520
▁திருவ	-1521
▁்ஜ	-1522
▁இதனை	-1523
▁ுமான	-1524
▁ரம்பி	-1525
▁்டி	-1526
▁ினும்	-1527
▁ிபிசி	-1528
▁தவற	-1529
ியு	-1530
▁ெள	-1531
ரைன	-1532
▁னால	-1533
▁பரபர	-1534
▁களாக	-1535
▁பக்க	-1536
▁பரவ	-1537
▁சொந்த	-1538
▁ராகுல	-1539
▁பழ	-1540
▁மார	-1541
▁பணம்	-1542
▁ுப்பா	-1543
▁மகா	-1544
▁வகை	-1545
▁தீர்	-1546
▁வயது	-1547
▁றிந்த	-1548
▁சாமி	-1549
▁ன்மை	-1550
ளவ	-1551
▁ஷ்	-1552
▁ாளர்	-1553
▁வ்வளவ	-1554
▁மர	-1555
▁சுத	-1556
▁ய்ச	-1557
▁இந்து	-1558
▁நீக்க	-1559
▁கிள	-1560
▁ூட்ட	-1561
▁்டு	-1562
▁லர	-1563
▁தீர்ம	-1564
▁க்ரைன	-1565
▁பிரா	-1566
▁ானது	-1567
▁ூட	-1568
▁ண்டாட	-1569
▁ப்பை	-1570
▁காட்ச	-1571
▁ுங்க	-1572
▁ொருள்	-1573
▁e	-1574
▁ிபத்த	-1575
▁கைய	-1576
▁எனவும	-1577
▁வாக்க	-1578
▁யோக	-1579
▁ட்டை	-1580
▁வடி	-1581
▁ுமாறு	-1582
▁தென்	-1583
▁போர்	-1584
▁கிரு	-1585
▁ினை	-1586
▁யைச்	-1587
▁ென	-1588
்கு	-1589
▁வைர	-1590
▁சக்தி	-1591
▁ல்கலை	-1592
▁அனு	-1593
ழா	-1594
▁ுவிழா	-1595
▁சமீ	-1596
▁தைத்	-1597
▁சமய	-1598
▁ேட்ட	-1599
▁ஸ்தான	-1600
▁பிள	-1601
▁ியல	-1602
▁சமீப	-1603
▁வின	-1604
▁வ்	-1605
▁கொள்வ	-1606
ிழ	-1607
▁ிகழ்வ	-1608
ண்மை	-1609
▁உண்மை	-1610
▁ரயில்	-1611
▁ற்றிய	-1612
▁நிலவ	-1613
▁டிப்ப	-1614
▁முதலம	-1615
▁வரவ	-1616
▁நம்ப	-1617
▁அதற்க	-1618
▁ந்தச்	-1619
▁ஓட்ட	-1620
▁திற	-1621
▁ரெ	-1622
▁டப்ப	-1623
▁ஆரா	-1624
▁ாளை	-1625
▁சந்த	-1626
▁ஆட்ட	-1627
▁ரீதி	-1628
▁தீவிர	-1629
▁பொதும	-1630
▁ரசிகர	-1631
▁லங்கா	-1632
▁்பி	-1633
▁கார்	-1634
▁ற்பனை	-1635
▁ண்ணீர	-1636
▁மோத	-1637
மத	-1638
▁ோதி	-1639
▁ாகவே	-1640
▁ௌ	-1641
பு	-1642
▁நபர	-1643
▁ுதி	-1644
▁போத	-1645
▁களும்	-1646
ளம	-1647
▁உணர	-1648
▁ட்டர	-1649
▁ச்சு	-1650
▁பதிவ	-1651
▁போட	-1652
▁நாய	-1653
▁அம்மன	-1654
▁றிய	-1655
▁ிஷ	-1656
▁ூடு	-1657
▁ருவ	-1658
▁ுதான்	-1659
▁சோத	-1660
▁ஊர	-1661
▁இல்	-1662
▁ிரிவு	-1663
▁கிருஷ	-1664
▁விந	-1665
▁கண்ண	-1666
▁லே	-1667
▁ிழமை	-1668
▁வலியு	-1669
▁ஆன	-1670
▁குப்ப	-1671
▁ோத	-1672
▁அக்	-1673
▁க்கது	-1674
▁ஆச	-1675
▁இணை	-1676
▁ோக்கு	-1677
▁கடன்	-1678
▁பேச்ச	-1679
▁யிலி	-1680
▁வசதி	-1681
▁ிழக்க	-1682
▁ின்றி	-1683
▁புல	-1684
▁னியார	-1685
▁ுதலீட	-1686
▁சோதனை	-1687
▁விரைவ	-1688
▁க்கண	-1689
்கா	-1690
▁டம்ப	-1691
▁குர	-1692
▁டைத்த	-1693
▁தந்தை	-1694
▁15	-1695
▁பெண்ண	-1696
▁ம்ச	-1697
▁ப்பூர	-1698
▁நீண்ட	-1699
▁மூத்த	-1700
▁பகிர	-1701
▁சின்ன	-1702
▁ஓவர	-1703
▁வசிய	-1704
▁ொள்க	-1705
▁ய்ச்ச	-1706
▁அதனை	-1707
▁கண்கா	-1708
▁கத்த	-1709
▁யம	-1710
▁்சி	-1711
▁சித்த	-1712
▁சங்க	-1713
▁க்கழக	-1714
▁ீல	-1715
▁டக்க	-1716
▁ில்ல	-1717
▁்தி	-1718
▁பீ	-1719
▁ியமான	-1720
▁ியதாக	-1721
▁ைப்பட	-1722
▁யல	-1723
▁கேட்க	-1724
▁அன்று	-1725
▁ருங்க	-1726
▁தொகை	-1727
▁உத்தர	-1728
▁ன்ம	-1729
▁மகிழ	-1730
▁ாம்ப	-1731
▁S	-1732
▁்ப்ப	-1733
▁இடம்	-1734
▁லியல்	-1735
▁சாப்ப	-1736
▁ாதிரி	-1737
▁கடைசி	-1738
▁ட்ப	-1739
▁ங்கில	-1740
▁ிரட்ட	-1741
▁என்னை	-1742
▁திரான	-1743
▁புரம்	-1744
▁அங்க	-1745
▁நோக்க	-1746
▁மைத்த	-1747
▁சட்டம	-1748
▁காதல	-1749
▁12	-1750
▁விவ	-1751
▁ிலா	-1752
▁கர்	-1753
▁A	-1754
▁ந்த்	-1755
▁ேற்ப	-1756
▁்கடி	-1757
▁சித	-1758
▁ேயே	-1759
▁ஊழ	-1760
▁கவனம	-1761
▁ிளக்க	-1762
▁நுட்ப	-1763
▁முத்த	-1764
▁ஊழியர	-1765
▁ப்பா	-1766
▁ேரில்	-1767
▁வெடி	-1768
▁தரிச	-1769
▁ுகா	-1770
▁ெயர்	-1771
▁க்கிற	-1772
▁்களில	-1773
▁ாதனை	-1774
▁விழாவ	-1775
▁ாணப்ப	-1776
▁்யா	-1777
▁ேச	-1778
▁லோச	-1779
▁ப்போத	-1780
▁ாத்தி	-1781
▁ோட்டு	-1782
▁லெ	-1783
▁ண்டி	-1784
▁ொள்கை	-1785
▁சிலர்	-1786
▁வேல	-1787
▁புகை	-1788
▁தாகக்	-1789
▁ிட்டு	-1790
▁ப்ர	-1791
▁ாக்கல	-1792
▁டாக	-1793
▁ேற்கு	-1794
▁சப	-1795
▁்வு	-1796
▁இன்ன	-1797
▁குறைவ	-1798
▁வசி	-1799
▁உற்ப	-1800
▁விவர	-1801
▁செய்க	-1802
▁ாற்றம	-1803
▁ோட	-1804
சாய	-1805
▁க்கால	-1806
▁ணைப்ப	-1807
▁ிவசாய	-1808
▁ேத	-1809
▁உடனடி	-1810
ண்ப	-1811
▁ூடா	-1812
▁நண்ப	-1813
▁வட	-1814
▁ஸ்வ	-1815
▁இறந்த	-1816
▁போர	-1817
▁கலா	-1818
▁பயணம்	-1819
▁50	-1820
▁சபை	-1821
▁இதன	-1822
▁மேம்ப	-1823
▁யிகள	-1824
▁ிம்	-1825
▁விவசா	-1826
▁ிடப்ப	-1827
▁யர	-1828
▁ான்கு	-1829
▁கோவை	-1830
▁ினால்	-1831
▁ிறோம்	-1832
▁சூழல	-1833
▁கம்	-1834
▁ஆய்வ	-1835
▁விவாத	-1836
▁இலக்க	-1837
ித	-1838
▁சவ	-1839
▁ோய்	-1840
▁தோடு	-1841
▁பிரதி	-1842
▁சிற	-1843
▁ங்கா	-1844
▁ரான்	-1845
▁ிக்கல	-1846
▁யைத்	-1847
▁மிட்ட	-1848
▁ருமான	-1849
▁ாகிகள	-1850
▁கடி	-1851
▁ேம	-1852
▁நவ	-1853
▁மோசம	-1854
▁எல்லா	-1855
▁ன்று	-1856
▁வீடு	-1857
▁லோசனை	-1858
▁ங்கே	-1859
▁பணிகள	-1860
ீஸ்	-1861
▁காய	-1862
▁ரும	-1863
▁வந்தி	-1864
▁மோ	-1865
▁ெல்ல	-1866
▁ந்தில	-1867
▁எழுத	-1868
▁தேவைய	-1869
▁30	-1870
▁ோக்கி	-1871
▁ுகாதா	-1872
▁ஒட்ட	-1873
▁ட்டா	-1874
▁சீர	-1875
ின்	-1876
▁தக்க	-1877
▁யல்	-1878
▁ண்கள	-1879
▁யண	-1880
▁ன்றி	-1881
▁ுன்ன	-1882
▁ாப்	-1883
▁ேஸ்வர	-1884
▁மச	-1885
▁வலை	-1886
▁டையாள	-1887
▁ரவி	-1888
▁போதும	-1889
▁அவற்ற	-1890
▁கப்ப	-1891
▁க்கர	-1892
▁ூடாது	-1893
▁ள்ளி	-1894
▁கடும்	-1895
▁ஆவ	-1896
▁ித	-1897
▁ிக்கா	-1898
▁னாலும	-1899
▁ழைக்க	-1900
▁ஸ்க	-1901
▁ெளியே	-1902
▁னந	-1903
▁ும்பை	-1904
▁ரக	-1905
▁ொத்தம	-1906
▁ுவங்க	-1907
▁ளிப்ப	-1908
▁மண	-1909
வீ	-1910
▁கடித	-1911
▁ற்றோர	-1912
▁ியாக	-1913
▁ுதல்	-1914
▁ற்காக	-1915
வீத	-1916
▁அம்மா	-1917
▁சதவீத	-1918
▁குஜ	-1919
▁இனி	-1920
▁மண்ட	-1921
▁ய்ந்த	-1922
▁ைத்த	-1923
▁தாரண	-1924
▁மில்ல	-1925
▁ிப்பு	-1926
▁பட்ச	-1927
ிரை	-1928
▁ுபி	-1929
▁உட்பட	-1930
▁்திரை	-1931
▁கடற்	-1932
▁பாடு	-1933
▁ண்டை	-1934
▁க்ஸ	-1935
▁யற்க	-1936
▁பணியா	-1937
▁யற்கை	-1938
▁C	-1939
▁த்தீ	-1940
▁லக	-1941
▁சொல	-1942
▁டம்பெ	-1943
▁டங்கி	-1944
▁லைமைய	-1945
ேன்	-1946
▁ச்சார	-1947
▁ராட்ட	-1948
▁படம்	-1949
▁பால்	-1950
▁ப்பி	-1951
▁்குழு	-1952
▁ார்வை	-1953
▁நீர	-1954
▁ாலா	-1955
▁எல்லை	-1956
▁ாட்டு	-1957
▁யெ	-1958
▁னவர	-1959
▁பகவ	-1960
▁எனது	-1961
▁வருவ	-1962
▁யிலும	-1963
▁அல்ல	-1964
▁ினால	-1965
▁இதே	-1966
▁னம்	-1967
▁ாலை	-1968
▁மீதான	-1969
▁ஃப்	-1970
▁ஏரா	-1971
▁ரள	-1972
▁ஆதரவு	-1973
▁த்தனை	-1974
▁ுபிடி	-1975
▁ினி	-1976
▁ுமல்ல	-1977
▁டே	-1978
▁ுப்	-1979
▁11	-1980
▁ஏராளம	-1981
▁டோ	-1982
▁வீன	-1983
▁ோலீஸ்	-1984
▁T	-1985
▁லய	-1986
▁அன்ப	-1987
▁விஜய	-1988
▁சன்	-1989
▁குள	-1990
▁நல	-1991
▁ட்டர்	-1992
▁ன்பவர	-1993
▁கரி	-1994
கள்	-1995
▁ோர்	-1996
▁ியன்	-1997
▁வசியம	-1998
▁ரியாக	-1999
▁லரும்	-2000
▁ேச்ச	-2001
▁ிறக்க	-2002
▁வென்ற	-2003
▁லீ	-2004
▁கதை	-2005
▁மீற	-2006
▁யரச	-2007
▁யைக்	-2008
▁கற்ற	-2009
▁தம	-2010
டுக	-2011
▁ஆயிரம	-2012
▁கணவர	-2013
▁கட்டண	-2014
▁போய்	-2015
▁செயல்	-2016
▁ப்பில	-2017
▁வுள்ள	-2018
▁ோப்ப	-2019
▁தில்ல	-2020
▁இவர	-2021
▁பண்ண	-2022
▁ஸ்வர	-2023
▁ூடுதல	-2024
▁P	-2025
▁டல	-2026
▁அவை	-2027
▁தள	-2028
▁ித்து	-2029
▁சிய	-2030
▁ற்கான	-2031
▁உதவ	-2032
▁விளை	-2033
▁அட	-2034
▁ட்டச	-2035
▁பக்கம	-2036
▁்தான்	-2037
▁வத	-2038
▁வாச	-2039
▁ிஸ்	-2040
▁நண்பர	-2041
▁வலி	-2042
▁்றி	-2043
▁யிடம	-2044
▁தரிசன	-2045
▁பங்கு	-2046
▁நம்ம	-2047
▁ாந்த	-2048
▁அமை	-2049
▁பாடல	-2050
▁ுலா	-2051
▁ராமர	-2052
▁பகவான	-2053
▁சபா	-2054
▁காலம்	-2055
▁உறவ	-2056
▁நான	-2057
▁்பெ	-2058
▁நின்ற	-2059
▁பிரப	-2060
▁ரியான	-2061
on	-2062
▁கம்ப	-2063
▁டைமுற	-2064
▁ையும	-2065
▁பாராள	-2066
▁ாப்ப	-2067
▁கில்	-2068
▁்சினை	-2069
▁த்தால	-2070
▁ருமாள	-2071
▁ருகில	-2072
▁நரே	-2073
▁ய்ய	-2074
▁தைப்	-2075
▁மாநகர	-2076
▁ற்றி	-2077
▁மூன்ற	-2078
▁ோல்வி	-2079
▁கிறது	-2080
▁நியமி	-2081
▁மனு	-2082
▁கண்டி	-2083
குற	-2084
▁அனுப	-2085
▁னின்	-2086
▁்கால	-2087
▁சீனாவ	-2088
▁துகுற	-2089
▁ஓய	-2090
▁ுருக	-2091
▁மோதல	-2092
▁கிரிக	-2093
▁ன்முற	-2094
▁நம	-2095
▁B	-2096
▁யாத	-2097
▁லையில	-2098
▁ேற	-2099
▁ரல்	-2100
▁ோட்டை	-2101
▁ுந	-2102
▁குஜரா	-2103
▁்ன	-2104
▁ீடுகள	-2105
▁ாமல	-2106
▁ியம	-2107
▁ுமதி	-2108
▁ர்செ	-2109
▁ிலாளர	-2110
▁கரை	-2111
▁ந்தர	-2112
▁ுட்ட	-2113
▁டீ	-2114
▁றிமுக	-2115
▁ுருகன	-2116
▁ஜோ	-2117
▁அழக	-2118
▁ஆயு	-2119
▁ர்ஜ	-2120
▁ொது	-2121
▁ஏற்கன	-2122
ளிவ	-2123
▁காம	-2124
▁சாதி	-2125
▁நுழை	-2126
▁r	-2127
▁ுன	-2128
▁ஞான	-2129
▁டன்	-2130
▁ஸ்ப	-2131
▁தப்ப	-2132
▁ஒப்பந	-2133
▁த்தகை	-2134
▁ந்தது	-2135
▁அனுபவ	-2136
▁ண்டனை	-2137
▁ந்தேக	-2138
▁M	-2139
▁ஆயுத	-2140
▁க்காவ	-2141
▁உறவு	-2142
▁கிலோ	-2143
▁சிறுவ	-2144
▁விள	-2145
▁இஸ்	-2146
▁கிட்ட	-2147
▁c	-2148
▁ஞ்சி	-2149
▁வெள்ள	-2150
▁ளம்	-2151
▁மண்டல	-2152
▁ர்மா	-2153
▁சூரிய	-2154
▁ிறேன்	-2155
▁ஓட	-2156
▁ுழுமை	-2157
▁ிருது	-2158
▁்ள	-2159
▁ஜே	-2160
▁வள	-2161
▁கான்	-2162
▁ழிய	-2163
▁ஓய்வ	-2164
▁ஆஸ	-2165
▁முன்வ	-2166
▁விஜய்	-2167
▁வீழ	-2168
▁பின்ப	-2169
▁ேட்டை	-2170
▁ோப்பை	-2171
▁ல்ய	-2172
▁பொறு	-2173
▁வடிவ	-2174
நா	-2175
▁அரு	-2176
▁ாவத	-2177
ரம	-2178
▁உருவ	-2179
▁ுள்ளன	-2180
▁கோப	-2181
▁நிர	-2182
▁சிங்க	-2183
▁தழ	-2184
▁ுத்	-2185
▁கீழ	-2186
▁வாழ்வ	-2187
▁அப்பா	-2188
▁ுற்றி	-2189
▁ரவ	-2190
▁களம	-2191
▁விலக	-2192
▁கதி	-2193
▁செலவு	-2194
▁பலம	-2195
▁ரையாட	-2196
▁அமைதி	-2197
▁ாரா	-2198
ுமி	-2199
▁ெய்	-2200
எஸ்	-2201
▁வரத்த	-2202
▁கலை	-2203
▁ிலான	-2204
▁அங்கி	-2205
▁ரத்து	-2206
▁ிறுமி	-2207
▁ுயன்ற	-2208
▁வான	-2209
▁மின்ச	-2210
▁சல	-2211
▁சுர	-2212
▁டங்க	-2213
▁முஸ்	-2214
▁வலைத	-2215
▁யன்	-2216
▁தாய்	-2217
▁ிகப்ப	-2218
▁்ஸ	-2219
▁ஓர	-2220
▁ற்ச	-2221
▁ட்டன	-2222
▁தில்	-2223
▁தன்னை	-2224
▁வீதி	-2225
▁தேடி	-2226
▁வீச்ச	-2227
▁நமது	-2228
▁கொள்க	-2229
▁உதய	-2230
▁ட்வி	-2231
▁ப்போக	-2232
▁நிர்	-2233
▁ிக்கி	-2234
▁சனி	-2235
▁ன்ச	-2236
▁ர்ட	-2237
▁ைக்க	-2238
▁திவிட	-2239
▁பொதுக	-2240
▁I	-2241
▁கள்ள	-2242
▁கொடி	-2243
▁ராஜா	-2244
▁ள்ளூர	-2245
▁ோன	-2246
▁ேக்	-2247
▁ீட்டு	-2248
▁டிவி	-2249
▁ுதலை	-2250
▁யில்ல	-2251
▁ிலைமை	-2252
▁பாதை	-2253
▁னம	-2254
▁ிசு	-2255
▁ப்பம	-2256
▁ாக்	-2257
▁ோலி	-2258
▁பறி	-2259
▁முஸ்ல	-2260
ாயக	-2261
▁வன்	-2262
▁கைப்ப	-2263
▁நேரடி	-2264
▁மரண	-2265
▁ளவு	-2266
▁ஆரம்ப	-2267
or	-2268
an	-2269
▁ஐந்து	-2270
▁ரர்கள	-2271
▁வியா	-2272
▁வேகம	-2273
▁விரிவ	-2274
▁ெட்	-2275
▁ம்பா	-2276
▁இறங்க	-2277
▁ுமே	-2278
▁ரயில	-2279
▁ுன்னெ	-2280
▁ரேல	-2281
▁ஆல	-2282
▁யரசு	-2283
▁மீன	-2284
▁ெட்டி	-2285
▁சேகர	-2286
▁தமிழர	-2287
▁ெல	-2288
▁ேல	-2289
▁வீச	-2290
▁ருள	-2291
▁ாணி	-2292
▁ெரிய	-2293
▁ரேலிய	-2294
▁்த்து	-2295
▁ள்ளே	-2296
▁சிகலா	-2297
▁ட்டசப	-2298
▁்றால்	-2299
ோதர	-2300
▁ப்ட	-2301
▁சகோதர	-2302
▁ார்ச்	-2303
▁இழ	-2304
▁கழ	-2305
▁ரிவ	-2306
▁திறன	-2307
▁இழந்த	-2308
▁்டார்	-2309
▁ஆறு	-2310
▁சுய	-2311
▁யணி	-2312
▁ெக்	-2313
▁யாரும	-2314
▁லிங்க	-2315
▁ச்சனை	-2316
▁செலவ	-2317
▁சுட்ட	-2318
▁ித்	-2319
▁ிள்ள	-2320
▁ாக்கி	-2321
▁உணவ	-2322
▁ஒன்றை	-2323
▁பிரிவ	-2324
▁ஒத்த	-2325
▁சிலர	-2326
▁கொல்ல	-2327
▁ண்டர	-2328
▁பேரா	-2329
▁ைக்கு	-2330
போல	-2331
▁தேபோல	-2332
▁படுக	-2333
▁க்டர்	-2334
▁துப்ப	-2335
▁த்ம	-2336
▁முறைய	-2337
▁ிள்ளை	-2338
▁படை	-2339
▁ேச்சு	-2340
▁க்கொ	-2341
▁ிமுக	-2342
▁ாஷ்	-2343
▁ஜூலை	-2344
▁தெளிவ	-2345
▁பர்கள	-2346
▁்ரா	-2347
▁நாத்	-2348
▁ூற்ற	-2349
ிலை	-2350
▁40	-2351
▁ிக்ரம	-2352
▁குல	-2353
▁கவலை	-2354
▁சன	-2355
▁ஆவண	-2356
▁ுள்ளி	-2357
▁D	-2358
▁ரச	-2359
▁கப்பல	-2360
▁திண	-2361
▁ுகை	-2362
▁பேட்	-2363
▁l	-2364
▁கமத	-2365
▁ப்பூ	-2366
▁டவ	-2367
▁ணய	-2368
▁ங்கர	-2369
▁ுபவர	-2370
▁ண்மைய	-2371
▁விண்ண	-2372
▁ுற்றம	-2373
▁ொத்து	-2374
▁்ஸ்	-2375
▁ட்டில	-2376
▁ஞ்சாப	-2377
▁லலி	-2378
▁ராஜப	-2379
▁ுநர	-2380
▁ருணா	-2381
▁வித்த	-2382
▁ன்ட	-2383
▁பெரு	-2384
▁ிமுகவ	-2385
▁நடு	-2386
▁்ஷ	-2387
▁ுத்தக	-2388
விரம	-2389
▁உடை	-2390
▁டீர	-2391
▁ழிவ	-2392
▁ீவிரம	-2393
▁ொட்ட	-2394
▁லலிதா	-2395
▁கழக	-2396
▁சந்தை	-2397
▁N	-2398
▁ீர	-2399
▁கேப்	-2400
▁ட்டோ	-2401
▁ுவார	-2402
▁டீரென	-2403
▁ாஸ	-2404
▁ங்கு	-2405
▁மாகாண	-2406
▁ப்பான	-2407
▁/	-2408
▁14	-2409
▁விதம	-2410
▁யாராக	-2411
▁த்ய	-2412
▁ளர்கள	-2413
▁யணிகள	-2414
▁ளவ	-2415
▁ொடர	-2416
▁ங்கட	-2417
▁றங்க	-2418
▁ிஜ	-2419
▁ட்பு	-2420
▁நியூ	-2421
▁சொல்க	-2422
▁ல்லி	-2423
▁மேட	-2424
▁வுன்	-2425
▁சீன	-2426
▁குவி	-2427
▁ஆஸ்தி	-2428
▁ோது	-2429
▁றிஞர	-2430
▁னநாயக	-2431
▁ணத்தை	-2432
புண	-2433
▁ராத	-2434
▁நிபுண	-2435
▁கன்	-2436
▁டிகர்	-2437
▁ுத்தி	-2438
▁ாற்று	-2439
▁கௌ	-2440
▁னோ	-2441
▁சொல்வ	-2442
▁ியோக	-2443
▁ரம்	-2444
▁ிற்ப	-2445
▁வகி	-2446
▁ன்றைய	-2447
ையா	-2448
▁தீன	-2449
▁குரல	-2450
▁மாறி	-2451
▁ுறவு	-2452
▁தொடர்	-2453
▁விடுவ	-2454
▁ஷன	-2455
▁18	-2456
▁மூர	-2457
▁யிற	-2458
▁பேராச	-2459
▁க்கி	-2460
கம	-2461
றுவ	-2462
▁25	-2463
▁த்ர	-2464
▁வாள	-2465
▁கவனி	-2466
▁ழப்ப	-2467
▁மக்கு	-2468
▁வரிசை	-2469
▁அவன	-2470
▁ாத்த	-2471
▁in	-2472
▁சவால	-2473
▁ீட்	-2474
▁டிங்	-2475
▁ொல	-2476
▁ிமி	-2477
▁எனத்	-2478
▁ியல்	-2479
▁ஆகும்	-2480
▁ச்சல	-2481
▁ென்	-2482
▁ணக்க	-2483
▁தப்பி	-2484
▁ழியாக	-2485
▁னர	-2486
▁நாக	-2487
▁ுதன்	-2488
▁ஹோ	-2489
▁ியன	-2490
▁ுந்தர	-2491
▁யானை	-2492
▁ருமை	-2493
▁டைப்ப	-2494
▁ாளிகள	-2495
▁்வுகள	-2496
▁ாகப்	-2497
▁ாண்டு	-2498
▁ஜூன்	-2499
▁தீர்வ	-2500
▁பெறுவ	-2501
ுறை	-2502
▁டர	-2503
▁தல	-2504
▁கண்டன	-2505
▁்ரி	-2506
▁ேர்வ	-2507
▁அறிவு	-2508
▁ழும	-2509
▁ரப்பு	-2510
▁ெள்ளி	-2511
▁ங்கை	-2512
▁13	-2513
▁யர்	-2514
▁கூடிய	-2515
▁ினார	-2516
▁ளக்கம	-2517
▁கோர	-2518
▁கையில	-2519
▁ெற	-2520
▁ரவை	-2521
▁சிறிய	-2522
▁தற்கொ	-2523
▁குண	-2524
▁பேசி	-2525
▁ொன்ற	-2526
▁நிறைய	-2527
▁ுண்டு	-2528
▁ன்கள	-2529
▁ிலும	-2530
▁உட்	-2531
▁ஸ்ம	-2532
▁டைக்க	-2533
▁பை	-2534
▁ெல்	-2535
▁்றில்	-2536
▁மிய	-2537
▁கொட	-2538
▁முற்ற	-2539
▁லம்	-2540
▁ட்டம	-2541
▁விளைவ	-2542
▁கால்	-2543
▁ராஜபக	-2544
▁ிரம	-2545
▁ாராய	-2546
▁வலைதள	-2547
▁வேத	-2548
▁ற்று	-2549
▁ிரிகை	-2550
▁ுந்து	-2551
▁‛	-2552
▁ாபா	-2553
▁பிவிர	-2554
▁எரி	-2555
▁ங்கல்	-2556
▁ங்களத	-2557
▁ாரிய	-2558
▁நகர்	-2559
▁ல்யாண	-2560
▁ஏப்	-2561
▁திட	-2562
▁ுநர்	-2563
▁லன்	-2564
▁ப்பூச	-2565
▁ாளில்	-2566
▁ிச்சய	-2567
▁ட்ரோ	-2568
▁துடன்	-2569
▁ற்சவ	-2570
▁அருள்	-2571
▁இஸ்லா	-2572
▁வழிபட	-2573
▁பன்ன	-2574
▁அங்கே	-2575
▁நீங்க	-2576
▁ுறப்ப	-2577
▁ுமை	-2578
▁உரிய	-2579
▁விண்	-2580
▁த்திட	-2581
▁ுகாம	-2582
▁துவாக	-2583
▁டுமை	-2584
▁சேர	-2585
▁வுண்ட	-2586
▁ேட்டி	-2587
▁நீதி	-2588
▁கிடைய	-2589
▁ுமி	-2590
▁ன்ஸ்	-2591
▁யர்வ	-2592
▁ேஜ	-2593
▁பயன	-2594
▁கிரக	-2595
▁்பிய	-2596
▁வெட்ட	-2597
▁ாட்	-2598
▁மஹ	-2599
▁கல்	-2600
▁அளவு	-2601
▁ஷ்டிர	-2602
▁ின்போ	-2603
▁சுவ	-2604
▁ன்னு	-2605
▁ம்பி	-2606
▁சுப	-2607
▁ரேன	-2608
▁லாக	-2609
▁ுதல்வ	-2610
▁ஷா	-2611
▁ஹா	-2612
▁ராவிட	-2613
காரா	-2614
▁மிட	-2615
▁மகாரா	-2616
▁நினைவ	-2617
▁ரப	-2618
▁லத்த	-2619
▁ொடர்ப	-2620
▁ரளா	-2621
▁ைட்	-2622
▁குறு	-2623
▁திரி	-2624
▁சம்பந	-2625
▁16	-2626
▁ைல	-2627
▁டனே	-2628
▁ரன்	-2629
▁ான்ற	-2630
▁ளங்கள	-2631
▁ாஸ்	-2632
ar	-2633
▁ொற்று	-2634
▁தேர	-2635
▁ாலான	-2636
▁கோல	-2637
▁விய	-2638
▁எட்ட	-2639
▁ணைக்க	-2640
▁ஆதரவா	-2641
▁ாகவும	-2642
▁தோற	-2643
▁யணத்த	-2644
▁ஆற	-2645
▁அறை	-2646
▁ட்க	-2647
▁ம்மை	-2648
▁டிச	-2649
▁ிழி	-2650
▁ஆபத்த	-2651
▁ேயர	-2652
▁ளத்த	-2653
▁ள்ளை	-2654
▁பயணி	-2655
▁களின்	-2656
▁ல்வம்	-2657
▁வோ	-2658
▁தேட	-2659
▁ோதனை	-2660
▁னிமா	-2661
▁ம்சா	-2662
▁னிப்ப	-2663
▁யத்த	-2664
வரை	-2665
▁டைகள	-2666
▁ழக்க	-2667
▁ணிந்த	-2668
▁விகித	-2669
▁அத்த	-2670
▁ுமுறை	-2671
▁24	-2672
▁பெர	-2673
▁ர்ட்	-2674
▁இக்	-2675
▁ிசை	-2676
▁ுஷ	-2677
▁ுட்	-2678
▁ஞ்சம்	-2679
▁துண	-2680
▁பன்னீ	-2681
▁ும்பா	-2682
▁ுவை	-2683
▁ிட்டி	-2684
▁R	-2685
▁மால	-2686
▁அலுவ	-2687
▁ோர்ட்	-2688
▁ல்ப	-2689
▁னங்கள	-2690
▁அலுவல	-2691
▁கரம	-2692
▁ன்றிய	-2693
▁பட்டி	-2694
▁ரிந்த	-2695
▁ூதி	-2696
▁ாழ	-2697
▁மான்	-2698
▁ஒழ	-2699
▁னல	-2700
▁மறை	-2701
▁ளாக	-2702
▁ையே	-2703
▁அண	-2704
▁ரமணி	-2705
▁ங்	-2706
▁வைப்ப	-2707
▁ரல	-2708
▁லோ	-2709
▁ோம	-2710
▁தீப	-2711
▁ம்ஸ்	-2712
▁இன	-2713
▁வரப்ப	-2714
▁சிலை	-2715
▁ச்சே	-2716
▁திரட	-2717
▁வான்	-2718
▁பரப்ப	-2719
▁ப்பர்	-2720
▁மீர	-2721
▁காந்த	-2722
▁யற்ப	-2723
▁தம்	-2724
▁லாப	-2725
▁அக்க	-2726
▁கூர	-2727
▁மனத	-2728
▁யேற்ற	-2729
▁யிர	-2730
▁போதை	-2731
▁17	-2732
▁ிதா	-2733
▁தட	-2734
▁ஆதி	-2735
▁ண்ப	-2736
▁ைப்ப	-2737
▁கர்நா	-2738
▁தித்த	-2739
▁டகா	-2740
▁னந்த	-2741
▁அவச	-2742
▁ரட்ட	-2743
▁டங்கு	-2744
▁றுவ	-2745
▁ெங்க	-2746
▁ாகம்	-2747
▁ெல்ப	-2748
▁ளித	-2749
▁மொழி	-2750
▁இம்	-2751
▁ழைய	-2752
▁ளவில்	-2753
▁ிமிட	-2754
▁ாளைய	-2755
▁டின	-2756
▁ியாச	-2757
▁100	-2758
▁னென	-2759
▁யுக்	-2760
▁மூல	-2761
▁றுதி	-2762
▁பூர்வ	-2763
▁்கிரம	-2764
▁்டால்	-2765
▁்பில்	-2766
▁இப்ப	-2767
▁த்தக	-2768
▁மீட்ட	-2769
▁்தவரை	-2770
▁தைக்	-2771
▁ந்தோ	-2772
▁ேஷன	-2773
▁்லை	-2774
▁பாச	-2775
▁வதி	-2776
▁ிப்	-2777
▁p	-2778
▁உடன்	-2779
▁க்கல்	-2780
▁்லைன	-2781
▁ப்புற	-2782
▁ஆப	-2783
▁ளும்	-2784
▁ுவதை	-2785
▁ணுக	-2786
▁ீப்	-2787
▁ணர்வ	-2788
▁மித்	-2789
▁டிக	-2790
▁பாய	-2791
▁யினர்	-2792
ஞ்ச	-2793
▁திவு	-2794
▁பஞ்ச	-2795
▁மீன்	-2796
▁ம்மன்	-2797
▁டைவ	-2798
▁ங்கல	-2799
▁கழி	-2800
▁களைப்	-2801
▁ியூ	-2802
▁மாஸ்	-2803
▁ஆகியவ	-2804
▁கண்டற	-2805
▁ட்டவர	-2806
▁பாண்ட	-2807
▁தூக்க	-2808
▁ுரங்க	-2809
▁ரஜ	-2810
▁கிழ	-2811
▁ாயக	-2812
▁ங்கீ	-2813
▁ற்றை	-2814
▁ரூபாய	-2815
▁வராக	-2816
▁ய்க	-2817
▁ைஞர	-2818
▁ண்டப	-2819
▁ன்ட்	-2820
▁சூழ்ந	-2821
▁தூர	-2822
▁ாரி	-2823
▁இன்	-2824
▁ன்னா	-2825
▁மர்ச	-2826
▁ரியாத	-2827
▁அந்ந	-2828
▁தவறு	-2829
▁முனை	-2830
▁எல	-2831
▁த்தர	-2832
▁ாயகர்	-2833
▁சிக்	-2834
▁்புக	-2835
▁காரை	-2836
▁ெண்ட	-2837
▁ோஷ	-2838
▁வேளை	-2839
▁னமும்	-2840
▁ராய	-2841
▁த்தா	-2842
▁காப்ப	-2843
▁ூவ	-2844
er	-2845
▁கடல	-2846
▁பரி	-2847
▁ிர்	-2848
▁கடல்	-2849
▁மர்சன	-2850
▁ந்தி	-2851
▁ுகம	-2852
▁நீட்	-2853
▁ுகளில	-2854
▁ரத	-2855
டம	-2856
▁ீடி	-2857
▁ரிமை	-2858
▁வீசி	-2859
▁ாட்டை	-2860
▁ோன்று	-2861
▁ாதாரம	-2862
▁ுவதாக	-2863
▁ூப	-2864
▁சல்	-2865
▁ாதா	-2866
▁ாவில்	-2867
▁்ல	-2868
▁மாம	-2869
▁அறிவ	-2870
▁வற்றை	-2871
▁்பதி	-2872
▁ஏற்பட	-2873
▁ாயம்	-2874
▁டாத	-2875
▁னியாக	-2876
▁னுக்க	-2877
▁மார்க	-2878
▁அச	-2879
▁ையா	-2880
▁அச்ச	-2881
▁நீர்	-2882
▁கண்டு	-2883
▁ட்டிய	-2884
▁சேத	-2885
▁பர்	-2886
▁்கம	-2887
▁ச்செ	-2888
▁ப்பன	-2889
▁ாப்பா	-2890
வின	-2891
▁ரப்ப	-2892
▁திலும	-2893
▁க்ச	-2894
▁ார்க	-2895
▁நாம	-2896
▁டிகை	-2897
▁யூனி	-2898
▁தவி	-2899
▁விட்	-2900
▁்நாட	-2901
▁ட்டார	-2902
▁பிரிய	-2903
▁ியில்	-2904
▁ஓர்	-2905
▁பிஎஸ்	-2906
▁வரிடம	-2907
▁m	-2908
▁ளம	-2909
▁கேர	-2910
▁வலர	-2911
▁குத்த	-2912
▁்ம	-2913
▁ஞ்சு	-2914
▁கன்ன	-2915
▁ுக்கி	-2916
▁ிட்	-2917
▁ுற்று	-2918
▁ெறும்	-2919
▁றுக	-2920
▁க்கடி	-2921
▁ாந்து	-2922
▁ண்டா	-2923
▁தாம்	-2924
▁த்தூர	-2925
▁லிவ	-2926
▁ுமார	-2927
▁்தம	-2928
▁ுண்ட	-2929
▁ாயா	-2930
▁ச்சேர	-2931
▁ூலி	-2932
▁்பள	-2933
▁ியம்	-2934
▁உப	-2935
▁ாசா	-2936
▁்ட்ர	-2937
▁G	-2938
▁எஸ	-2939
▁ழல்	-2940
▁சார்	-2941
▁ெய்வ	-2942
▁ணிக	-2943
▁வலு	-2944
▁ையெ	-2945
▁க்ர	-2946
▁பூர	-2947
▁எங்க	-2948
▁த்தல	-2949
▁டுகளை	-2950
▁ிட்டன	-2951
▁ஹர	-2952
▁ைன	-2953
▁ுரிய	-2954
▁சாத்த	-2955
▁காசி	-2956
▁ணிகள	-2957
▁திரை	-2958
▁பிக்	-2959
▁ெல்வ	-2960
▁ீவ	-2961
▁சூழல்	-2962
▁ர்ன	-2963
▁எழுதி	-2964
▁ினைவு	-2965
▁தகம	-2966
▁ிகள்	-2967
▁தன்மை	-2968
▁ுதித	-2969
▁நாயகர	-2970
▁E	-2971
▁சர	-2972
▁்நாடக	-2973
▁ஜ்	-2974
▁்ஜி	-2975
▁க்களி	-2976
▁சிக்க	-2977
▁பாஸ்	-2978
▁ுறைய	-2979
▁ரூர	-2980
▁ானே	-2981
▁ின்ன	-2982
▁ுவார்	-2983
▁ைதான	-2984
▁க்டர	-2985
▁ஏற்பா	-2986
▁கரில்	-2987
▁o	-2988
▁லம	-2989
▁கான	-2990
▁லாந்த	-2991
▁ூக்கி	-2992
▁டவு	-2993
▁தள்ள	-2994
▁ீங்க	-2995
▁ூர்வ	-2996
▁மேன	-2997
▁ையட	-2998
▁ுடிய	-2999
▁ியோ	-3000
▁ொட்டி	-3001
▁வண	-3002
▁ரண்ட	-3003
▁ராம்	-3004
▁60	-3005
▁நிற	-3006
▁லகம்	-3007
▁ல்கள	-3008
nd	-3009
▁ணிய	-3010
▁ுலி	-3011
▁றுதிய	-3012
▁ூத்த	-3013
▁்கிற	-3014
▁ஹெ	-3015
▁ளங்க	-3016
▁லாக்க	-3017
▁ீட்டர	-3018
▁d	-3019
▁டர்	-3020
▁ாபாத்	-3021
▁ாலி	-3022
▁V	-3023
▁டக்கு	-3024
▁நீதிம	-3025
▁கவர	-3026
▁மாஸ	-3027
▁ிவா	-3028
▁எனப்	-3029
▁தானி	-3030
▁த்தம்	-3031
▁லுங்க	-3032
▁ழிக்க	-3033
▁ஞா	-3034
▁கணி	-3035
▁மலா	-3036
▁ராச	-3037
he	-3038
▁விர	-3039
▁வம	-3040
▁வழிய	-3041
▁b	-3042
▁திருந	-3043
▁ப்பாட	-3044
▁ti	-3045
▁க்குவ	-3046
▁ாமத்த	-3047
▁er	-3048
▁ோதா	-3049
▁ிகளை	-3050
▁்க்	-3051
▁டில்	-3052
▁ர்வல	-3053
▁ட்சிய	-3054
▁பொறுத	-3055
▁ணிகளை	-3056
▁னவு	-3057
▁டியே	-3058
▁ாகத்த	-3059
▁முட	-3060
▁ள்வ	-3061
▁ங்கம்	-3062
▁ிவச	-3063
▁ந்தா	-3064
▁சிந்த	-3065
▁ஊர்	-3066
▁உயர்ந	-3067
▁ுப்பி	-3068
▁இசை	-3069
▁21	-3070
▁ொம	-3071
▁ிரஸ	-3072
▁ாசு	-3073
▁னித்த	-3074
▁ரியல	-3075
▁களைக்	-3076
▁ான்மை	-3077
▁ுவதில	-3078
▁்தப்ப	-3079
டன	-3080
▁பிரபல	-3081
▁லைக்க	-3082
▁ாஜ்	-3083
▁ேனா	-3084
▁ண்ணா	-3085
▁ோள	-3086
▁ுல்ல	-3087
▁ஈர	-3088
▁ுகைய	-3089
▁விடும	-3090
▁ுவருக	-3091
▁ிந்த	-3092
▁ிதிகள	-3093
▁வுக	-3094
▁ானிய	-3095
▁ஹி	-3096
▁ாசன	-3097
▁ைகள	-3098
▁ணிக்க	-3099
▁%	-3100
▁இடம	-3101
▁புறம	-3102
▁வாதி	-3103
▁ாவிட	-3104
▁களத்த	-3105
▁யல்பட	-3106
▁ிரத்த	-3107
▁g	-3108
▁ொதுக்	-3109
▁இவை	-3110
▁ம்மு	-3111
▁ரக்க	-3112
▁வீரர்	-3113
▁ிலங்க	-3114
al	-3115
▁ூழ	-3116
▁யிடம்	-3117
▁ுவில்	-3118
▁ிருட	-3119
▁வுடன்	-3120
▁ஆடி	-3121
▁ிடத்த	-3122
▁ுத்தம	-3123
▁ைட	-3124
▁உண்ட	-3125
▁பிரத	-3126
▁ுப்த	-3127
▁ப்பிர	-3128
▁விற்க	-3129
▁ிஞ	-3130
▁ிறதா	-3131
▁ிச்சி	-3132
▁19	-3133
▁்கா	-3134
▁ரத்	-3135
▁வால	-3136
▁ெஸ்	-3137
▁ேட்	-3138
▁ானா	-3139
▁ீதா	-3140
▁்மத	-3141
▁சத்த	-3142
▁ேரி	-3143
▁ழுது	-3144
▁ுடியி	-3145
▁ூட்டு	-3146
ொரு	-3147
▁னியா	-3148
▁ஷன்	-3149
▁ஏழ	-3150
▁பச	-3151
▁ோக	-3152
▁மித	-3153
▁ஜித	-3154
▁ன்றாக	-3155
▁வந்தத	-3156
்தா	-3157
▁பயண	-3158
▁ுகத்த	-3159
▁L	-3160
▁வேள	-3161
▁ட்ஸ்	-3162
▁தொலை	-3163
▁22	-3164
▁ர்வம	-3165
▁ெம	-3166
▁ானவர	-3167
▁சாட்ட	-3168
▁வாரி	-3169
▁குண்ட	-3170
▁ர்கள்	-3171
▁னித	-3172
▁யாகும	-3173
▁ர்க்	-3174
▁ிண்ட	-3175
▁ரதி	-3176
▁தற்கா	-3177
▁நகை	-3178
▁றந	-3179
▁ர்ப	-3180
▁ளைய	-3181
▁கெ	-3182
▁ிடு	-3183
▁்சே	-3184
▁அடைய	-3185
▁வப்ப	-3186
▁ன்றும	-3187
am	-3188
▁F	-3189
▁லூர	-3190
▁ிடி	-3191
▁டுகள்	-3192
▁ப்பிய	-3193
▁றைந்த	-3194
▁ைப்பு	-3195
▁ுஷ்	-3196
▁ிகை	-3197
▁ோனி	-3198
▁்டில்	-3199
▁ஜென	-3200
▁ல்ட	-3201
▁ுட்டி	-3202
▁வலம	-3203
▁யக்க	-3204
▁ந்தைய	-3205
▁ட்டாய	-3206
▁கதா	-3207
▁கங்கள	-3208
▁ட்டப்	-3209
▁ியாளர	-3210
▁ோண	-3211
▁லிம	-3212
▁ிகா	-3213
▁நியம	-3214
▁யிர்	-3215
▁ரிசி	-3216
▁ற்றும	-3217
▁ாண்டி	-3218
▁காலி	-3219
▁ாயில	-3220
▁எப்போ	-3221
▁ீத	-3222
▁புத	-3223
▁ரிம	-3224
▁ோக்	-3225
▁இந்தி	-3226
▁ிஐ	-3227
▁ாரம்	-3228
▁யானது	-3229
▁ற்கு	-3230
▁லவ	-3231
▁ுட்டு	-3232
▁றவை	-3233
▁ரம்ப	-3234
▁ப்ள	-3235
▁ஆயிர	-3236
▁ிரா	-3237
▁னிலை	-3238
▁ய்யா	-3239
▁லன	-3240
▁சிரி	-3241
▁போன்	-3242
▁ம்பல	-3243
▁ிவார	-3244
▁ுச	-3245
▁ண்டிக	-3246
▁ீக	-3247
▁ரித	-3248
▁னார்	-3249
▁முர	-3250
▁க்தி	-3251
▁தட்ட	-3252
▁ெட்ட	-3253
▁வைத்	-3254
▁ுச்ச	-3255
▁கத்தா	-3256
▁பத்து	-3257
▁மானது	-3258
▁க்ன	-3259
▁ஆற்ற	-3260
▁ுமென	-3261
▁23	-3262
▁சாத	-3263
▁பில	-3264
▁லப்ப	-3265
▁ர்வைய	-3266
▁பிறக	-3267
▁ார்ட்	-3268
▁உர	-3269
▁ஜர	-3270
▁்வா	-3271
▁ூச்ச	-3272
▁ியலில	-3273
▁ைம	-3274
▁்டா	-3275
▁ைவ	-3276
▁்யூ	-3277
▁பாதி	-3278
▁னப்பட	-3279
▁்க்கு	-3280
▁ேலு	-3281
▁க்கம	-3282
▁அதன்ப	-3283
▁ரஸ்	-3284
▁ாராம	-3285
▁ேஸ	-3286
▁ற்றவர	-3287
▁ாளிக	-3288
▁வேற	-3289
▁்மை	-3290
▁அம்ப	-3291
▁ுதின	-3292
▁டையில	-3293
▁ழிப்ப	-3294
▁தர்	-3295
▁ிவக	-3296
▁வட்ட	-3297
▁ைவிட	-3298
▁ஆப்	-3299
▁ூப்	-3300
▁மிக்க	-3301
▁ப்பது	-3302
▁சர்	-3303
▁ழமை	-3304
▁அவ்வ	-3305
▁ானம்	-3306
▁இணையத	-3307
▁த்தவர	-3308
▁லச	-3309
▁ித்தி	-3310
▁ஏற	-3311
▁மாட	-3312
▁ொடி	-3313
▁மாளி	-3314
▁ுரம்	-3315
▁டம்	-3316
▁லவர	-3317
▁ாகர	-3318
▁ாபி	-3319
▁வினர்	-3320
▁ஆதார	-3321
▁தியாக	-3322
▁ொதுச்	-3323
▁ஸா	-3324
▁ெடு	-3325
▁v	-3326
▁அல்	-3327
▁ோர்ட	-3328
▁ேட	-3329
▁ாரு	-3330
▁திடீர	-3331
▁ரங்கள	-3332
▁ஃபி	-3333
▁டவுள	-3334
▁தத்த	-3335
▁ியான	-3336
▁தளத்த	-3337
▁யோட	-3338
▁்றம	-3339
▁பாரத	-3340
▁ிதிய	-3341
▁டையின	-3342
▁ழங்கு	-3343
▁தால	-3344
▁ேண்ட	-3345
▁ோன்ற	-3346
▁க்கம்	-3347
in	-3348
▁தாய	-3349
▁ர்ண	-3350
▁ேறு	-3351
▁லைவ	-3352
▁வளி	-3353
▁ாரர	-3354
▁ண்மை	-3355
▁ஸ்டா	-3356
▁கடன	-3357
▁சூர	-3358
▁னதா	-3359
▁ிசா	-3360
▁மொத்த	-3361
▁ரிக்க	-3362
▁றப்பு	-3363
▁ியவர்	-3364
▁ுக்கே	-3365
▁ோவ	-3366
▁ரவாத	-3367
▁லால்	-3368
ha	-3369
▁அப்	-3370
▁மாணவ	-3371
▁வார்	-3372
▁ாவி	-3373
▁சனை	-3374
▁ப்த	-3375
▁இவ்வ	-3376
▁குளி	-3377
▁கேரள	-3378
▁கையை	-3379
▁ிகித	-3380
▁க்களை	-3381
▁w	-3382
▁உரை	-3383
▁தொகு	-3384
▁நான்க	-3385
▁ராவ	-3386
▁ைதி	-3387
▁்கான	-3388
▁ஆண்	-3389
▁ிஞ்	-3390
▁ப்பர	-3391
▁யல்ப	-3392
▁ள்க	-3393
▁்ச்	-3394
▁ாகக்	-3395
▁பாத்த	-3396
▁ரும்ப	-3397
▁ணியில	-3398
▁ஸ்டர	-3399
▁ாஷ	-3400
▁ேன	-3401
▁யூர	-3402
▁கொல்	-3403
▁ரிக்	-3404
▁அணு	-3405
▁ட்வ	-3406
▁ரிப	-3407
▁லைய	-3408
▁்ரோ	-3409
▁மிக்	-3410
▁யப்ப	-3411
▁ெயர	-3412
▁ாட்ச	-3413
▁ுப்பு	-3414
▁னே	-3415
▁ர்ல	-3416
▁ிரவ	-3417
▁ண்டர்	-3418
▁இப்	-3419
▁ளிய	-3420
▁பந்த	-3421
▁ப்போ	-3422
▁வொரு	-3423
▁ஸ்திர	-3424
▁ணு	-3425
▁சும	-3426
▁மரா	-3427
▁ாத்	-3428
▁யிலா	-3429
▁ெய்த	-3430
▁கணவ	-3431
▁ரோத	-3432
▁ாண்	-3433
▁தியம்	-3434
▁ப்பதி	-3435
▁வகு	-3436
▁ாறு	-3437
▁லைகள	-3438
▁f	-3439
▁பவர	-3440
▁பழனி	-3441
▁வண்ண	-3442
▁விழு	-3443
▁ட்டல	-3444
▁பான்	-3445
▁ற்பு	-3446
▁ண்டே	-3447
▁வர்த	-3448
▁ிந்தி	-3449
▁H	-3450
▁சாம	-3451
▁ானி	-3452
▁ம்மா	-3453
▁ராஜன	-3454
▁ட்டின	-3455
▁ணர்வு	-3456
▁ைத	-3457
▁ீன்	-3458
▁ளவில	-3459
▁டலா	-3460
▁சம்	-3461
▁றிவ	-3462
▁ார்ட	-3463
▁க்கிர	-3464
▁ுனி	-3465
▁ச்சம	-3466
▁திலி	-3467
▁சிப	-3468
▁தாம	-3469
▁காரிய	-3470
▁கண்	-3471
▁லக்க	-3472
▁ாலும	-3473
il	-3474
▁்ரீ	-3475
▁போதே	-3476
▁மூட	-3477
▁தலைய	-3478
▁ட்டோர	-3479
▁ாற	-3480
▁ீம	-3481
▁ர்ஷ	-3482
▁டியா	-3483
▁ரின்	-3484
▁ப்படவ	-3485
▁ாவில	-3486
▁பரவி	-3487
▁ொழ	-3488
▁யம்	-3489
▁ெரி	-3490
▁ேரு	-3491
▁சைக்க	-3492
▁ரையா	-3493
▁ிரியா	-3494
▁ுபட	-3495
▁கைகள	-3496
▁யன	-3497
▁ுங்கு	-3498
▁70	-3499
▁உற்ச	-3500
▁தாங்க	-3501
▁நிம	-3502
▁மதம	-3503
▁மரி	-3504
▁ணும்	-3505
▁ேளை	-3506
▁ொய்	-3507
▁்திரி	-3508
▁மய	-3509
▁பிரம	-3510
▁ிவின	-3511
▁ேக்க	-3512
▁நேற்ற	-3513
▁றந்த	-3514
▁ேவி	-3515
▁்கி	-3516
▁தரவு	-3517
▁வனத்	-3518
▁பன	-3519
▁டாம	-3520
▁ன்னீ	-3521
▁ற்றம	-3522
▁ிற்ச	-3523
▁ஞ்சம	-3524
▁்கர்	-3525
▁ஜன	-3526
▁கமி	-3527
▁ன்னை	-3528
▁களால்	-3529
▁கம	-3530
▁ுதா	-3531
▁ூங்க	-3532
▁டமை	-3533
▁தேன	-3534
▁ொலை	-3535
▁ந்தன	-3536
▁வுக்க	-3537
▁்நிலை	-3538
▁ீய	-3539
▁பேசின	-3540
▁இதுவ	-3541
▁க்ஸ்	-3542
▁்பிர	-3543
▁மம்	-3544
▁ாய்வ	-3545
▁மண்	-3546
▁மதி	-3547
▁ஆர்வ	-3548
▁மத்த	-3549
▁ளு	-3550
▁டுத	-3551
▁ெச	-3552
▁ெர	-3553
▁தையட	-3554
▁st	-3555
▁ஒட	-3556
▁னவ	-3557
▁ிச்	-3558
▁ுவர	-3559
▁ம்தா	-3560
▁நடிகர	-3561
▁தண்ட	-3562
▁தொற்ற	-3563
es	-3564
▁டாக்	-3565
▁ருவி	-3566
▁ாயு	-3567
▁துரை	-3568
▁கிழமை	-3569
▁O	-3570
▁ஏழு	-3571
▁ழுக	-3572
▁ோக்க	-3573
▁ிசி	-3574
▁ந்தர்	-3575
▁ிரே	-3576
▁ன்க	-3577
▁ியார	-3578
▁ெப்ப	-3579
▁ளிப	-3580
▁tion	-3581
▁கரன்	-3582
▁சுவா	-3583
▁காத	-3584
▁குப	-3585
▁பாவ	-3586
▁ிது	-3587
▁K	-3588
▁ாடல	-3589
▁ியர	-3590
▁சாம்	-3591
▁நாயக	-3592
▁W	-3593
▁ேலி	-3594
▁ரிவா	-3595
▁ாரில்	-3596
▁னக	-3597
▁ோன்	-3598
▁ய்க்க	-3599
▁ல்விய	-3600
▁ாஜி	-3601
▁ிற்ற	-3602
▁மிகப்	-3603
▁லூ	-3604
▁தைச்	-3605
▁பைக்	-3606
▁ிராக	-3607
▁டலாம்	-3608
▁நிலம்	-3609
▁ஆகி	-3610
▁தலா	-3611
▁ந்ந	-3612
▁லிக	-3613
▁ேடி	-3614
▁வாய்	-3615
▁ிந்து	-3616
▁பலி	-3617
▁மாகி	-3618
▁கடத்த	-3619
▁ன்னால	-3620
▁ேப	-3621
▁ரான	-3622
▁ூறு	-3623
▁்டர்	-3624
▁ெரு	-3625
▁ார்ப	-3626
▁ல்லைய	-3627
▁எத	-3628
▁ரைய	-3629
▁டக்கி	-3630
▁ட்டல்	-3631
▁காயம	-3632
▁னும்	-3633
▁ாடா	-3634
▁ேட்ப	-3635
▁க்கே	-3636
▁ர்டு	-3637
▁ிஸ்ட	-3638
▁ென்ன	-3639
▁னிம	-3640
▁ுபா	-3641
▁வெறு	-3642
▁்பல்	-3643
▁27	-3644
▁ழ்க	-3645
▁வரது	-3646
▁டலில்	-3647
▁தினம்	-3648
▁காஷ்	-3649
▁ழக	-3650
▁கும்ப	-3651
▁்தத்த	-3652
▁மந்த	-3653
▁லில்	-3654
▁ட்டம்	-3655
▁திரைய	-3656
▁ல்கிற	-3657
▁டம	-3658
▁்ஹ	-3659
▁லர்	-3660
▁வள்	-3661
▁பொன்	-3662
▁னிக்க	-3663
▁ஆண	-3664
▁ம்மி	-3665
▁மாகும	-3666
▁28	-3667
▁னாக	-3668
▁முய	-3669
▁எண்	-3670
▁பலன	-3671
▁ாபு	-3672
▁ன்பத	-3673
▁இத்த	-3674
▁றுமை	-3675
▁சண்	-3676
▁வுன	-3677
▁வியல	-3678
▁கத்தி	-3679
▁கற்	-3680
▁ரையி	-3681
▁ர்ஸ்	-3682
▁க்கர்	-3683
▁போவத	-3684
▁ேந்த	-3685
▁துல	-3686
▁புக	-3687
▁ுமெ	-3688
▁ங்களா	-3689
▁ஆலோச	-3690
▁மணிய	-3691
▁ப்பணி	-3692
▁விடுத	-3693
▁ாலைகள	-3694
▁்றத்த	-3695
▁ூற	-3696
▁்னா	-3697
▁டியின	-3698
▁ல்லிய	-3699
▁தரும	-3700
▁்திரம	-3701
▁200	-3702
▁பரா	-3703
▁தார்	-3704
▁திர்	-3705
▁மாரி	-3706
▁வினர	-3707
▁ர்ஸ	-3708
▁்கோ	-3709
▁ப்பெ	-3710
▁ீச்ச	-3711
▁்ணன்	-3712
▁டுங்க	-3713
▁ன்றத்	-3714
▁வாதம்	-3715
▁ாடக	-3716
▁ேர்	-3717
▁செய்	-3718
▁மன்ற	-3719
▁வரவே	-3720
▁ண்டிய	-3721
▁ெடி	-3722
▁ாலின	-3723
▁ழித்த	-3724
▁சரவ	-3725
▁கட்டம	-3726
▁ிலைகள	-3727
▁26	-3728
▁ழ்	-3729
▁ருவர	-3730
▁களைத்	-3731
▁நேரம்	-3732
▁முருக	-3733
▁விந்த	-3734
▁80	-3735
▁தற	-3736
▁ிண	-3737
▁வால்	-3738
▁ுள்ளா	-3739
▁ீனி	-3740
▁ன்னர	-3741
▁ிறகு	-3742
▁ஸ்ஸ	-3743
▁்டோ	-3744
▁்பூர	-3745
▁முற	-3746
▁ியமாக	-3747
nt	-3748
▁டான	-3749
▁ுறைகள	-3750
▁கவே	-3751
▁ிஎஸ்	-3752
▁ெண்ண	-3753
▁்கார	-3754
▁ார்க்	-3755
▁்பாளர	-3756
▁்பிடி	-3757
▁ிப	-3758
▁க்கார	-3759
▁ிளம்ப	-3760
re	-3761
▁ாப	-3762
▁ிஸ்த	-3763
▁ேக	-3764
▁ரோட	-3765
▁ாதவ	-3766
▁ெந்த	-3767
▁வீட	-3768
▁ாலம	-3769
▁ம்பு	-3770
▁ெவ்வ	-3771
▁டையும	-3772
▁ானத்த	-3773
ka	-3774
▁ஜீ	-3775
▁னச	-3776
▁ணன்	-3777
▁னைய	-3778
▁க்கெ	-3779
hi	-3780
ra	-3781
▁அப	-3782
▁பதற	-3783
▁ஸ்வரர	-3784
▁ின்றத	-3785
▁ில்லா	-3786
▁வதா	-3787
▁ோயி	-3788
▁டுகள	-3789
▁திகா	-3790
▁ிடைய	-3791
▁மாக்க	-3792
▁லுள்ள	-3793
▁ழம	-3794
▁ாங்	-3795
▁ிரை	-3796
▁ிழந்த	-3797
▁சுக	-3798
▁டது	-3799
▁பரம	-3800
▁லக்	-3801
▁ஐந்த	-3802
▁காக்க	-3803
▁டாவ	-3804
▁நோய்	-3805
▁ரித்	-3806
▁35	-3807
▁ஏத	-3808
▁ந்	-3809
▁லோக	-3810
▁மிர	-3811
▁றுக்க	-3812
▁யந்த	-3813
▁ரிப்ப	-3814
▁டெல	-3815
▁ணாம	-3816
▁லிப	-3817
▁ழுத	-3818
▁ாவல	-3819
▁ெண்	-3820
▁கூடும	-3821
▁ழுதிய	-3822
▁ியாகு	-3823
▁கத	-3824
▁ஸி	-3825
▁்பவ	-3826
▁ாக்ட	-3827
▁ிதாக	-3828
▁்புவ	-3829
▁டைக	-3830
▁ச்சை	-3831
▁க்கிட	-3832
▁பவ	-3833
▁ஆசி	-3834
▁பல்	-3835
▁ரிட	-3836
▁ண்ணை	-3837
▁ருவத	-3838
▁ெய்ய	-3839
▁தையும	-3840
▁Vi	-3841
▁ேசி	-3842
▁ேத்	-3843
▁காரம்	-3844
▁ஆனா	-3845
▁தரக	-3846
▁த்தம	-3847
▁க்குழ	-3848
▁்ந்தி	-3849
om	-3850
▁ிளை	-3851
▁்லா	-3852
▁புறம்	-3853
▁ிந	-3854
▁பாத	-3855
▁மன்	-3856
▁மின	-3857
▁ாவா	-3858
▁்போ	-3859
▁டுவத	-3860
▁னில்	-3861
▁ாரத்	-3862
as	-3863
▁லார	-3864
▁க்கோ	-3865
▁மாச	-3866
▁வென	-3867
▁த்தன	-3868
▁டாமல்	-3869
▁ிப்பத	-3870
▁ிரப்ப	-3871
▁ோஸ	-3872
▁தற்	-3873
▁லக்கு	-3874
▁யக	-3875
▁ண்டன	-3876
▁பாலி	-3877
▁ிகார	-3878
▁ையை	-3879
▁ஷ்டி	-3880
▁கெட்ட	-3881
ay	-3882
▁ராட	-3883
▁ுளை	-3884
▁ழுவ	-3885
▁்கை	-3886
▁சுப்	-3887
▁ஜின	-3888
▁ாசி	-3889
▁ப்பந	-3890
▁வணங்க	-3891
▁75	-3892
▁மட	-3893
▁ஷம	-3894
▁ஏதோ	-3895
▁மாவ	-3896
▁லத்	-3897
▁ுடு	-3898
▁மலைய	-3899
▁வசம	-3900
▁ிவே	-3901
▁வுர	-3902
▁ராட்	-3903
▁நப	-3904
▁டிரா	-3905
▁பழங்க	-3906
▁ன்சி	-3907
▁லித்	-3908
▁ையாக	-3909
▁வையில	-3910
▁லுக	-3911
▁சாரி	-3912
▁ையில	-3913
▁ள்கிற	-3914
▁விடுக	-3915
▁திப	-3916
▁ிகர	-3917
▁காச	-3918
▁u	-3919
▁ீன	-3920
▁ைப	-3921
▁ரைச	-3922
▁பூர்	-3923
▁க்கில	-3924
▁்டிக்	-3925
▁ிறை	-3926
▁்டை	-3927
▁்றை	-3928
▁சியா	-3929
▁டியோ	-3930
▁நெல்	-3931
▁முகவ	-3932
▁்ட்ட	-3933
▁ஏம	-3934
▁ரணி	-3935
▁ப்பவர	-3936
ou	-3937
▁U	-3938
▁னீ	-3939
▁கரா	-3940
▁ாமர	-3941
▁டிகள	-3942
ve	-3943
▁and	-3944
▁தேர்	-3945
ic	-3946
▁ொள	-3947
▁்னி	-3948
▁்னர்	-3949
▁்பும்	-3950
▁சப்	-3951
▁சூட	-3952
▁காலம	-3953
▁ுவோம்	-3954
▁னிட	-3955
▁லர்கள	-3956
▁ரஹ	-3957
▁எது	-3958
▁ளாவ	-3959
▁ுண	-3960
▁டையை	-3961
▁கிவிட	-3962
▁ிவில்	-3963
▁போவ	-3964
▁்வத	-3965
▁வரைய	-3966
▁ன்னார	-3967
▁31	-3968
▁நேர்	-3969
▁நிறுவ	-3970
▁ேண்டி	-3971
▁டூ	-3972
▁உலா	-3973
▁கோய	-3974
▁றைவ	-3975
▁ன்னதா	-3976
▁மூலம்	-3977
▁500	-3978
▁னது	-3979
▁லிட	-3980
▁ூம	-3981
▁ுமண	-3982
▁ொள்	-3983
▁வரவேற	-3984
le	-3985
▁ரர்	-3986
▁ுது	-3987
▁த்தட	-3988
▁90	-3989
▁பட்	-3990
▁னிக்	-3991
▁பாப	-3992
▁ுழு	-3993
▁ஸ்டி	-3994
▁்டாக	-3995
▁ிலக்க	-3996
ad	-3997
▁னல்	-3998
▁ாரண	-3999
▁ாக்கம	-4000
▁45	-4001
▁ரொ	-4002
▁சான	-4003
▁ோவத	-4004
▁க்கட	-4005
▁நாளி	-4006
▁ிம்ப	-4007
▁டர்கள	-4008
▁கோள	-4009
▁யாள	-4010
▁அணிய	-4011
▁தானம	-4012
▁பிரே	-4013
▁லைத்த	-4014
▁ீட்டி	-4015
▁அட்	-4016
▁கவு	-4017
▁லைப்	-4018
▁ார்வ	-4019
▁ெரும	-4020
▁மங்கள	-4021
▁பம	-4022
ுடன	-4023
▁சமா	-4024
▁ேசிய	-4025
▁ச்சுவ	-4026
▁ீஸ	-4027
▁நித	-4028
▁பான	-4029
▁பீட	-4030
▁ளவர	-4031
▁ீனா	-4032
▁ச்சின	-4033
ew	-4034
▁29	-4035
▁னார	-4036
▁ாசம	-4037
▁ெர்	-4038
▁ண்டல	-4039
▁ய்வு	-4040
▁to	-4041
▁திவ	-4042
▁ழிப	-4043
▁ுளி	-4044
▁கரன	-4045
▁டல்	-4046
▁னாத	-4047
▁ன்கு	-4048
▁ழிவு	-4049
▁்பின	-4050
▁காத்த	-4051
▁க்குட	-4052
▁ழிபாட	-4053
▁சாக	-4054
▁பேரு	-4055
▁ரவில்	-4056
▁ருட	-4057
▁வடக	-4058
▁ிணை	-4059
▁விகள	-4060
▁ொள்வ	-4061
▁யேற	-4062
▁ூட்	-4063
▁உங்க	-4064
▁ொந்த	-4065
ri	-4066
▁பழக	-4067
▁ற்றா	-4068
▁வாட்	-4069
▁ுன்பு	-4070
▁்று	-4071
▁ண்ணி	-4072
▁படிய	-4073
▁ரும்	-4074
▁ஸ்தி	-4075
▁ொன்ன	-4076
▁பான்ம	-4077
▁்றுப்	-4078
.5	-4079
▁+	-4080
▁ரவு	-4081
▁க்கற	-4082
▁ஈடுப	-4083
▁ியவர	-4084
▁கோட்ட	-4085
ro	-4086
▁ரூப	-4087
▁ீம்	-4088
▁ீஸ்	-4089
▁ெல்வம	-4090
▁பூச	-4091
▁லது	-4092
▁ேல்	-4093
▁வைகள	-4094
▁ட்டுவ	-4095
▁பஞ்சா	-4096
▁அமல	-4097
▁ேவ	-4098
▁லீச	-4099
▁சிபி	-4100
▁ன்றை	-4101
▁டுகிற	-4102
▁ஓவ	-4103
▁கூடி	-4104
▁யமான	-4105
ed	-4106
▁வுத	-4107
▁ீதம	-4108
▁னப்ப	-4109
▁ணங்கள	-4110
en	-4111
▁கிண	-4112
▁சைய	-4113
▁ிடா	-4114
▁சில்	-4115
▁நாடக	-4116
▁பியா	-4117
▁ல்லு	-4118
▁ழங்க	-4119
▁ிருத	-4120
▁்பாள	-4121
▁சுக்க	-4122
▁னிடம்	-4123
▁of	-4124
▁எச்	-4125
▁விடம	-4126
▁த்தார	-4127
்ப்	-4128
▁மாதம	-4129
▁al	-4130
▁ிறு	-4131
▁ட்கள	-4132
▁திபதி	-4133
▁அர	-4134
▁ing	-4135
▁ாயி	-4136
▁ிகு	-4137
▁ளப்ப	-4138
▁டியில	-4139
▁ழுக்க	-4140
▁h	-4141
▁ல்லை	-4142
▁ூழல்	-4143
▁ீட	-4144
▁நிப	-4145
▁வத்	-4146
▁ுல்	-4147
▁யங்கள	-4148
ol	-4149
▁ணா	-4150
▁300	-4151
▁ாற்ற	-4152
▁டியாக	-4153
▁்றின்	-4154
▁ாலு	-4155
▁கல்வ	-4156
▁ேண்டு	-4157
▁சிம	-4158
▁லாத	-4159
▁குவா	-4160
▁ஸ்லா	-4161
▁்மா	-4162
▁்ளே	-4163
▁சின்	-4164
▁பில்	-4165
▁ன்னீர	-4166
▁ிரதம	-4167
▁ிவாக	-4168
▁லங்கள	-4169
▁வரத	-4170
▁ாச்ச	-4171
▁ஒன்றி	-4172
▁ியாகி	-4173
▁வேட	-4174
▁ாதக	-4175
▁இடைய	-4176
▁்கறி	-4177
▁ரையில	-4178
▁ாக்டர	-4179
▁ாட்டி	-4180
னால	-4181
▁இள	-4182
▁எழ	-4183
▁ஹே	-4184
▁ன்வ	-4185
▁லின	-4186
▁க்கல	-4187
▁ஒவ்வொ	-4188
▁ிட்டா	-4189
▁36	-4190
▁ேண	-4191
▁ைர	-4192
▁பிசி	-4193
▁பிள்	-4194
▁ராமத	-4195
ce	-4196
▁ோழ	-4197
▁அலி	-4198
▁யோர	-4199
▁ுறி	-4200
▁சய	-4201
▁ியின்	-4202
▁காணி	-4203
▁யாளர்	-4204
▁y	-4205
▁ஸ்ர	-4206
▁்டீ	-4207
▁தத்தை	-4208
▁வட்டம	-4209
▁மம	-4210
▁இளம	-4211
▁பின	-4212
▁ஸ்ல	-4213
▁ியே	-4214
▁்ணு	-4215
▁ய்கள	-4216
▁ள்கள	-4217
▁யம்மன	-4218
▁வந்தன	-4219
▁ூரில்	-4220
▁ோப	-4221
▁சால	-4222
▁தீர	-4223
▁ோத்	-4224
▁கிரா	-4225
▁தாரம	-4226
▁பள்ள	-4227
▁்பப்	-4228
▁ஆணை	-4229
▁ிலோ	-4230
▁ங்கம	-4231
▁ராக்	-4232
▁்மன்	-4233
▁்டுகள	-4234
▁ஏக்	-4235
▁ுட்ப	-4236
▁களைச்	-4237
▁nt	-4238
▁ஏவ	-4239
▁சாட	-4240
▁னால்	-4241
▁ஸார்	-4242
▁ுழுவ	-4243
▁ென்ற	-4244
▁New	-4245
▁ுர்	-4246
▁ரமா	-4247
▁வுட	-4248
▁மேலா	-4249
▁ொருள	-4250
▁உள்ளா	-4251
▁போகிற	-4252
▁விடம்	-4253
▁ாவும்	-4254
▁அழி	-4255
▁லைன	-4256
ia	-4257
▁ளர	-4258
▁ேறி	-4259
▁ையர	-4260
▁பேரி	-4261
▁விசா	-4262
▁டுவார	-4263
▁ுப்பை	-4264
▁32	-4265
▁நூ	-4266
▁ன்களை	-4267
▁பாஸ	-4268
▁சாதன	-4269
▁ப்பொ	-4270
▁ுமாற	-4271
▁தைக்க	-4272
▁ூட்டி	-4273
it	-4274
▁tan	-4275
▁மல்	-4276
▁விலி	-4277
▁டைகள்	-4278
at	-4279
▁ய்வ	-4280
▁்லி	-4281
▁தேசம	-4282
▁ன்னத	-4283
▁பவர்	-4284
▁டய	-4285
▁ுடை	-4286
▁ிதான	-4287
▁குதிய	-4288
de	-4289
et	-4290
▁டனை	-4291
▁ரண்	-4292
▁்ரே	-4293
▁்ப்பத	-4294
▁ராப	-4295
▁ையம	-4296
▁ரிதா	-4297
▁கையாள	-4298
▁்ப்பா	-4299
▁tor	-4300
▁காப்	-4301
▁றந்து	-4302
▁ஜய	-4303
▁மும	-4304
▁ொங்க	-4305
▁லீசார	-4306
▁ுகிறத	-4307
▁ுஜ	-4308
▁கத்	-4309
▁டமா	-4310
▁வாட	-4311
▁விப	-4312
▁குகள	-4313
▁சரிய	-4314
▁றிவு	-4315
▁பட்டா	-4316
▁ுவதும	-4317
▁ுறவ	-4318
▁்னர	-4319
▁வானி	-4320
▁ங்கும	-4321
▁பதவ	-4322
▁ுவன	-4323
▁காவல	-4324
▁ிஷ்	-4325
▁the	-4326
▁க்ஷ	-4327
▁ுள்	-4328
▁காவி	-4329
▁பண்ட	-4330
▁ரமாக	-4331
▁ராய்	-4332
▁மையான	-4333
▁ுறைப்	-4334
BC	-4335
▁48	-4336
▁or	-4337
▁ெக	-4338
▁ருச	-4339
▁ாகா	-4340
▁News	-4341
▁ாழ்வ	-4342
▁அதிர்	-4343
▁சத்து	-4344
▁ணித்த	-4345
▁தாண்ட	-4346
▁படியே	-4347
▁்பிக்	-4348
ai	-4349
▁J	-4350
▁k	-4351
▁அதன	-4352
▁சதி	-4353
▁ரசு	-4354
▁வளர்	-4355
▁அலங்க	-4356
▁தெர	-4357
▁வீத	-4358
▁ெனி	-4359
▁எவ்வ	-4360
▁பதவிய	-4361
▁அந	-4362
▁ோற	-4363
▁லும	-4364
▁கர்கள	-4365
▁ுபட்ட	-4366
▁ழல	-4367
▁புட	-4368
▁்கே	-4369
▁Vika	-4370
▁ர்வா	-4371
▁டிந்த	-4372
▁த்தல்	-4373
▁றா	-4374
▁ீற	-4375
▁ோச	-4376
▁அணை	-4377
▁டிவ	-4378
▁தீவ	-4379
▁மாய	-4380
▁ிரன்	-4381
▁பட்டு	-4382
▁ம்பிய	-4383
▁on	-4384
▁ரசா	-4385
▁ிறன	-4386
▁லைவர	-4387
▁ிடுவ	-4388
▁ூத	-4389
▁தனை	-4390
▁ிபர	-4391
▁காது	-4392
▁கேட்	-4393
▁சென்	-4394
▁ிர்த	-4395
▁ரைக்க	-4396
▁55	-4397
▁ிஎ	-4398
▁கழ்	-4399
▁டக்	-4400
▁ல்ம	-4401
▁ாதம்	-4402
▁ராஷ	-4403
▁்செ	-4404
▁யுடன	-4405
▁்கிர	-4406
▁சிப்ப	-4407
▁்பட்ட	-4408
▁அக	-4409
▁நோய	-4410
▁யணம	-4411
▁ூரி	-4412
▁ச்சர்	-4413
▁வாய	-4414
▁ிரச	-4415
▁கங்க	-4416
▁பத்தா	-4417
▁்ப்பை	-4418
▁திபர	-4419
▁னைகள	-4420
▁ருகிற	-4421
▁ாளராக	-4422
▁ிப்பா	-4423
oc	-4424
▁ாகம	-4425
▁றைகள	-4426
▁ப்பதை	-4427
▁ஆழ	-4428
▁மர்	-4429
▁ரேட	-4430
▁லையை	-4431
▁ல்வா	-4432
▁்மான	-4433
▁காற்ற	-4434
▁்திரு	-4435
▁ெயி	-4436
▁ோப்	-4437
▁தையை	-4438
▁ற்சி	-4439
▁ீரிய	-4440
▁பணத்த	-4441
▁ருவர்	-4442
▁ஆலோ	-4443
▁இரவ	-4444
▁கனவ	-4445
▁ாவை	-4446
▁ேப்	-4447
▁பாத்	-4448
▁பேசு	-4449
▁்வின	-4450
▁குந்த	-4451
▁கோவில	-4452
▁ினத்த	-4453
▁்பந்த	-4454
▁எடை	-4455
▁சேன	-4456
▁வரா	-4457
▁ாதை	-4458
▁ப்தி	-4459
▁யுள்	-4460
▁்ஸ்ட	-4461
▁முகம்	-4462
▁சுட	-4463
▁ுமன	-4464
▁ொற்ற	-4465
▁ுவின்	-4466
▁தாள	-4467
▁மடை	-4468
▁ரியம	-4469
▁ருகி	-4470
▁ன்றது	-4471
▁&	-4472
▁37	-4473
▁150	-4474
▁ணம்	-4475
▁பன்	-4476
▁ூத்	-4477
▁சொல்	-4478
▁ற்கா	-4479
▁ீர்க	-4480
ாத	-4481
▁33	-4482
▁re	-4483
▁te	-4484
▁ளஹ	-4485
▁அரை	-4486
▁்டெ	-4487
▁்களா	-4488
▁ஏற்று	-4489
▁யப்பட	-4490
▁உயி	-4491
▁ந்நி	-4492
▁ட்சித	-4493
▁ருவாக	-4494
▁ேசத்த	-4495
▁காற	-4496
▁கோட	-4497
▁ுரு	-4498
▁ல்லவ	-4499
▁ாளும	-4500
▁ெட்ர	-4501
▁ையின	-4502
▁ொழில	-4503
▁்புக்	-4504
▁ண்டவ	-4505
▁நெரு	-4506
▁னிப்	-4507
▁ையான	-4508
▁்திக்	-4509
▁ுள	-4510
▁ெட	-4511
▁BBC	-4512
▁சாய	-4513
▁்மு	-4514
▁ழுவி	-4515
▁வுகள	-4516
▁உயிரி	-4517
▁ஜு	-4518
▁பஸ்	-4519
▁வதை	-4520
▁தலைம	-4521
▁பாரா	-4522
▁பார்	-4523
▁ாகத்	-4524
▁ைக்கா	-4525
▁ணவ	-4526
▁றாம	-4527
▁ட்டாள	-4528
ho	-4529
▁ரந	-4530
▁கனி	-4531
▁லான	-4532
▁ீரி	-4533
▁றிக்க	-4534
▁ிற்று	-4535
is	-4536
▁ழர	-4537
▁்வர	-4538
▁ரிவு	-4539
▁ின்னர	-4540
▁யீட	-4541
▁ன்றே	-4542
▁வெல்	-4543
▁ஐடி	-4544
▁ாயம	-4545
▁குப்	-4546
▁முகம	-4547
▁ுதுக	-4548
▁தியில	-4549
▁பாக்க	-4550
▁ரியம்	-4551
▁ூட்டம	-4552
▁ீண	-4553
▁அழு	-4554
▁கோவ	-4555
▁ன்பு	-4556
▁விக்	-4557
▁த்திவ	-4558
▁வங்கள	-4559
▁ுச்சி	-4560
▁ுடியு	-4561
▁ர்சன	-4562
▁ியர்	-4563
▁யிரம்	-4564
▁ஏறி	-4565
▁றைய	-4566
▁ிசோ	-4567
▁ைந்த	-4568
▁41	-4569
▁தவு	-4570
▁அதேப	-4571
▁கொழு	-4572
▁ுமன்	-4573
▁மையாக	-4574
▁ுக்கம	-4575
▁ுக்கா	-4576
▁இதர	-4577
▁ஏழை	-4578
▁குவ	-4579
▁சேவ	-4580
▁ிடை	-4581
▁ிமா	-4582
▁ூடி	-4583
▁்ப்	-4584
▁ண்டார	-4585
▁ன்கள்	-4586
▁ரத்தை	-4587
▁ாக்கள	-4588
▁உக	-4589
▁சின	-4590
▁தயா	-4591
▁ம்ஸ	-4592
▁ழில	-4593
▁வாற	-4594
▁கையா	-4595
▁னத்த	-4596
▁றைவு	-4597
▁ில்லி	-4598
▁ெட்டு	-4599
▁னத	-4600
▁வற	-4601
▁கிப	-4602
▁ைகள்	-4603
▁க்காட	-4604
▁ஜம	-4605
▁அலை	-4606
▁படு	-4607
▁லீஸ	-4608
▁ிபு	-4609
▁்மி	-4610
▁களுடன	-4611
▁பவு	-4612
▁மருத	-4613
▁ஸ்தா	-4614
▁்வார	-4615
▁நாங்க	-4616
▁ீட்டை	-4617
▁சிர	-4618
▁ுண்	-4619
▁்பக	-4620
▁டுபட	-4621
▁ியப்ப	-4622
▁அய	-4623
▁ானத	-4624
▁்ணம	-4625
▁ின்ப	-4626
▁ஸ்லாம	-4627
▁ாரத்த	-4628
▁யவ	-4629
▁டிப	-4630
▁புன	-4631
▁மிழ	-4632
▁ருஷ	-4633
▁வகா	-4634
▁இங்க	-4635
▁கைகளை	-4636
▁புத்த	-4637
od	-4638
ோம	-4639
▁பிச	-4640
▁லைந	-4641
▁ேகம	-4642
▁இஸ்ர	-4643
▁தமான	-4644
▁ம்பவ	-4645
▁றுகள	-4646
▁ிருக	-4647
▁்காண	-4648
▁ுக்கோ	-4649
▁ையின்	-4650
▁ானை	-4651
▁ேடு	-4652
▁ணப்ப	-4653
▁டத்த	-4654
▁டியை	-4655
▁நாடு	-4656
▁ய்ப்	-4657
▁ரணத்த	-4658
▁ல்லிக	-4659
▁..	-4660
▁லால	-4661
▁ாவு	-4662
▁ுவே	-4663
▁ூன்	-4664
▁அழுத	-4665
▁மறுப	-4666
▁ீர்ம	-4667
▁ுற்ற	-4668
▁கின்ற	-4669
▁துள்ள	-4670
▁விருத	-4671
▁ுத்தா	-4672
▁்பெண்	-4673
▁400	-4674
▁எளி	-4675
▁ஓம்	-4676
▁ருத	-4677
▁்த்	-4678
▁்வி	-4679
▁ருட்	-4680
▁ோகம்	-4681
▁ப்பெர	-4682
▁போய	-4683
▁ரெட	-4684
▁வர்க	-4685
▁ையாள	-4686
▁ச்சிய	-4687
▁்கப்ப	-4688
ov	-4689
▁ஒன்	-4690
▁தினம	-4691
▁பிரசா	-4692
▁ைச	-4693
▁குச	-4694
▁ிதர	-4695
▁ரியை	-4696
▁ராஷ்ட	-4697
▁றைக்க	-4698
▁ைகளில	-4699
▁ed	-4700
▁ஷி	-4701
▁துள	-4702
▁ரேஷ	-4703
▁ர்ய	-4704
▁ைன்	-4705
▁ட்பா	-4706
▁ட்டதா	-4707
▁ண்டில	-4708
▁ரிசோத	-4709
▁ிலையை	-4710
▁பக்	-4711
▁ிளக	-4712
▁ுறு	-4713
▁்மன	-4714
▁நபர்	-4715
▁ரமான	-4716
▁சுவாம	-4717
▁34	-4718
▁ஜன்	-4719
▁ரோல	-4720
▁குள்	-4721
▁ணிக்	-4722
▁ாதிய	-4723
▁தாலும	-4724
▁38	-4725
▁ni	-4726
▁ent	-4727
▁டைம	-4728
▁லட்	-4729
▁வேண	-4730
▁ந்தம	-4731
▁ுறைவ	-4732
▁தனைகள	-4733
▁ற்றில	-4734
▁விஷயம	-4735
▁ிடும்	-4736
▁ீண்டு	-4737
▁ூன	-4738
▁ஆசை	-4739
▁உன்	-4740
▁வைய	-4741
▁்சா	-4742
▁சிறி	-4743
▁டற்ப	-4744
▁விநா	-4745
▁ஸில்	-4746
▁ிகால	-4747
▁ள்ளதா	-4748
ூர்	-4749
▁108	-4750
▁பைய	-4751
▁ல்த	-4752
▁ியை	-4753
▁ற்பத	-4754
▁வாழ்க	-4755
▁42	-4756
▁ோஸ்	-4757
▁செயற்	-4758
▁யத்து	-4759
▁ிஸ்ட்	-4760
▁இயற	-4761
▁டைப	-4762
▁ிதம	-4763
▁கெடு	-4764
▁ிடுக	-4765
▁துவர்	-4766
▁றையில	-4767
▁ல்லூர	-4768
▁அபி	-4769
▁சிட	-4770
▁டத்தை	-4771
▁ொழில்	-4772
▁்பாடு	-4773
▁39	-4774
▁65	-4775
▁St	-4776
▁th	-4777
▁தச	-4778
▁யச	-4779
▁கப்	-4780
▁சென	-4781
▁தாலு	-4782
▁அரி	-4783
▁்தீ	-4784
▁இருப	-4785
▁கைக்	-4786
▁செயற	-4787
▁லைப்ப	-4788
▁்புகள	-4789
▁ng	-4790
▁னக்	-4791
▁ராகவ	-4792
▁றையா	-4793
▁ியத்	-4794
▁பிரதம	-4795
▁வீடிய	-4796
▁சகல	-4797
▁னில	-4798
▁ுகு	-4799
▁சப்ப	-4800
▁ரில்	-4801
▁லும்	-4802
▁னர்கள	-4803
▁வியல்	-4804
▁்குடி	-4805
▁கட்	-4806
▁ிள்	-4807
▁்தன	-4808
▁டிக்	-4809
▁னிட்	-4810
▁ம்மன	-4811
▁ழ்ந்த	-4812
▁ar	-4813
▁றத	-4814
amil	-4815
▁டிம	-4816
▁வனி	-4817
▁உரிம	-4818
▁டியும	-4819
▁தனக்க	-4820
▁ற்றம்	-4821
▁ாவின்	-4822
▁வணி	-4823
▁வெல	-4824
▁ொற்	-4825
▁்து	-4826
▁்ச்ச	-4827
▁ழகத்த	-4828
▁ுடங்க	-4829
▁an	-4830
▁Ind	-4831
▁ஓடி	-4832
▁பணம	-4833
▁வல்	-4834
▁ெப்	-4835
▁ஆசிரி	-4836
pp	-4837
▁லாவ	-4838
▁ீரா	-4839
▁மைக்	-4840
▁ள்ளா	-4841
▁வைப்	-4842
▁ிரிவ	-4843
▁்குட	-4844
▁ையினர	-4845
▁ra	-4846
▁ளத	-4847
▁ேய	-4848
▁றுப	-4849
▁குட்	-4850
▁ாகச்	-4851
▁ியப்	-4852
▁ிருப	-4853
▁ne	-4854
▁மந	-4855
▁தாப	-4856
▁ானு	-4857
▁ெற்ற	-4858
▁மற்றொ	-4859
▁ரிடம்	-4860
▁்டத்த	-4861
▁எப்	-4862
▁றிஞ	-4863
▁ளான	-4864
▁விம	-4865
▁ோல்	-4866
▁சமாக	-4867
▁ர்கா	-4868
▁லாக்	-4869
▁ொடர்	-4870
▁்தூர	-4871
▁டத்தி	-4872
▁ியத்த	-4873
▁்பற்ற	-4874
st	-4875
மல	-4876
▁ஆள்	-4877
▁லாச	-4878
▁ுமல	-4879
▁்தா	-4880
▁்ளூ	-4881
▁லிக்க	-4882
ோன	-4883
▁ெஸ	-4884
▁The	-4885
▁கொல	-4886
▁அன்ற	-4887
▁பாடி	-4888
▁பும்	-4889
▁லிங்	-4890
▁ைந	-4891
▁பாண	-4892
▁மஹா	-4893
▁ய்த	-4894
▁கித்	-4895
▁ச்சர	-4896
▁தன்ப	-4897
▁மதுர	-4898
▁வாறு	-4899
▁கத்தை	-4900
▁for	-4901
▁ணங்க	-4902
▁#	-4903
▁மில	-4904
▁ிற்	-4905
▁ெயல	-4906
▁்ணா	-4907
▁மாள்	-4908
▁ரியத	-4909
▁றப்ப	-4910
▁றேன்	-4911
▁லூர்	-4912
▁கித	-4913
▁சாவ	-4914
▁றார	-4915
▁ூழல	-4916
▁்பர	-4917
▁இன்ற	-4918
▁மதிய	-4919
▁மன்ன	-4920
▁ற்றத	-4921
▁லின்	-4922
▁அதனால	-4923
▁ள்ளும	-4924
▁வதற்க	-4925
li	-4926
▁ஜய்	-4927
▁ையு	-4928
▁சாத்	-4929
▁யாரு	-4930
▁லியா	-4931
▁ள்ளு	-4932
▁்வதி	-4933
▁ந்தவர	-4934
▁44	-4935
▁Doc	-4936
▁தலம	-4937
▁்கிழ	-4938
▁திருக	-4939
▁வந்தா	-4940
▁vs	-4941
▁அழ	-4942
▁ரஸ	-4943
▁ொர	-4944
▁துன	-4945
▁ருந	-4946
▁ந்தே	-4947
▁கைகள்	-4948
▁லுக்க	-4949
▁ொன்னா	-4950
▁்கின்	-4951
▁டுமா	-4952
▁னமாக	-4953
▁ப்பக	-4954
▁ீர்வ	-4955
▁யாட	-4956
▁வரம்	-4957
▁ீதிய	-4958
▁na	-4959
▁ஆடை	-4960
▁திந	-4961
▁சான்	-4962
▁திக்	-4963
▁தேன்	-4964
▁மையை	-4965
▁ுபோன	-4966
▁ைவர்	-4967
▁்டான	-4968
▁யிட்ட	-4969
▁ுவும்	-4970
▁ூக	-4971
▁உத்	-4972
▁காப	-4973
▁கரிக	-4974
▁காய்	-4975
▁சமான	-4976
▁துவா	-4977
▁மையா	-4978
▁ம்பை	-4979
▁ுதிக	-4980
▁ேம்ப	-4981
▁ப்பம்	-4982
▁ப்பின	-4983
▁யந	-4984
▁ீச	-4985
▁ரைவ	-4986
▁ஷ்ய	-4987
▁்தள	-4988
▁்பன	-4989
▁ஆராய	-4990
▁வாரம	-4991
▁பிடிப	-4992
▁ஷல	-4993
▁ஜூன	-4994
▁யமா	-4995
▁காட்	-4996
▁டுவர	-4997
▁ாலம்	-4998
▁்பாத	-4999
▁ித்தா	-5000
▁ce	-5001
▁ளஸ	-5002
▁nce	-5003
▁ணித	-5004
▁ண்ம	-5005
▁ளைக	-5006
▁ேனி	-5007
▁குக்	-5008
▁ண்ணு	-5009
▁மல்ல	-5010
▁லமாக	-5011
▁ல்லத	-5012
▁ோதும	-5013
▁ல்லும	-5014
▁49	-5015
▁ௌர	-5016
▁தேதி	-5017
▁தைகள	-5018
▁ென்ட	-5019
▁்காட்	-5020
ru	-5021
hat	-5022
▁Re	-5023
▁ஆதா	-5024
▁ணைய	-5025
▁்சன	-5026
▁சிகர	-5027
▁டிப்	-5028
▁ச்சிக	-5029
▁தானம்	-5030
▁ய்யும	-5031
▁43	-5032
▁்டர	-5033
▁அருள	-5034
▁யிட்	-5035
▁ிபிச	-5036
▁என்றா	-5037
ch	-5038
▁2.	-5039
▁ாளா	-5040
▁்தோ	-5041
▁த்தே	-5042
▁்பத்	-5043
▁கூறின	-5044
▁க்கப்	-5045
▁X	-5046
▁46	-5047
▁AI	-5048
▁வக்	-5049
▁துகள்	-5050
▁ானில்	-5051
▁*	-5052
▁47	-5053
▁னஸ	-5054
▁தோல்	-5055
▁ந்தக	-5056
▁வதாக	-5057
▁ார்த	-5058
▁ுறம்	-5059
▁India	-5060
▁கிக்க	-5061
▁ண்டாம	-5062
▁ல்தான	-5063
▁்கிழம	-5064
▁le	-5065
▁இத்	-5066
▁னதி	-5067
▁வுத்	-5068
▁ியக்	-5069
▁எனக்க	-5070
▁தர்கள	-5071
▁ன்றம்	-5072
▁ரப்பி	-5073
▁ானின்	-5074
▁ுக்கட	-5075
la	-5076
▁51	-5077
்த்த	-5078
▁மீத	-5079
▁ுவம	-5080
▁்வள	-5081
▁பெய்	-5082
▁மைப்	-5083
▁யாகு	-5084
▁ுநாள	-5085
▁ழ்த்த	-5086
▁ோயில்	-5087
▁்தூர்	-5088
▁ஜஸ	-5089
▁ணம	-5090
▁ஹம	-5091
▁ையொ	-5092
▁ட்டே	-5093
▁ம்பட	-5094
▁ிரைய	-5095
▁Tamil	-5096
▁லாமல்	-5097
▁ல்கள்	-5098
▁ஆக்	-5099
▁சகர	-5100
▁ணப்	-5101
▁ையோ	-5102
▁சாப்	-5103
▁ெளிவ	-5104
▁ற்றின	-5105
▁is	-5106
▁இரா	-5107
▁ஏர்	-5108
▁மயம	-5109
▁யுத	-5110
▁மேற்	-5111
▁்பாப	-5112
▁தந்தி	-5113
ut	-5114
▁சங்	-5115
▁ாரை	-5116
▁ோட்	-5117
▁களான	-5118
▁சுக்	-5119
▁்பன்	-5120
▁ும்பு	-5121
vi	-5122
▁ஒத	-5123
▁குன	-5124
▁மைச	-5125
▁அடிப	-5126
▁ட்சம	-5127
▁மிட்	-5128
▁ல்லப	-5129
▁சங்கள	-5130
▁ாருக்	-5131
ss	-5132
▁250	-5133
▁தென	-5134
▁ுன்	-5135
▁னைவர	-5136
▁ருது	-5137
▁ணக்கா	-5138
ot	-5139
▁ஆட்ச	-5140
▁ல்வி	-5141
▁ினும	-5142
▁ுவர்	-5143
▁ொண்டு	-5144
▁Y	-5145
▁இதய	-5146
▁டற்	-5147
▁முன	-5148
▁றவி	-5149
▁ுழை	-5150
▁்ளாட	-5151
▁பார்க	-5152
▁றைகள்	-5153
▁64	-5154
▁டக	-5155
▁ளா	-5156
▁ொற	-5157
▁ஐநா	-5158
▁கேள	-5159
▁னடி	-5160
▁ரக்	-5161
▁க்கீ	-5162
▁்சார	-5163
▁உறு	-5164
▁டமி	-5165
▁ரணம	-5166
▁ாமத	-5167
▁்றே	-5168
▁காங்	-5169
▁ண்ணெ	-5170
▁புரம	-5171
▁ாசிய	-5172
▁ாங்கு	-5173
▁ாதிபத	-5174
▁்டியா	-5175
ஜி	-5176
ive	-5177
▁ma	-5178
▁ழன	-5179
▁பற்	-5180
▁மைக	-5181
▁கையி	-5182
▁பாக்	-5183
▁பிப்	-5184
▁றிவி	-5185
▁சரியா	-5186
▁பித்த	-5187
▁்டிங்	-5188
ir	-5189
▁52	-5190
▁de	-5191
▁ரட	-5192
▁களி	-5193
▁ரவர	-5194
▁ேரா	-5195
▁டெல்	-5196
▁மக்க	-5197
▁ர்பி	-5198
▁வத்த	-5199
▁ொடிய	-5200
▁்வாத	-5201
▁அவசிய	-5202
▁சத்தி	-5203
▁ஶ	-5204
▁Su	-5205
▁ஜஸ்	-5206
▁தரா	-5207
▁மேஷ	-5208
▁வரும	-5209
▁ாடல்	-5210
▁்பர்	-5211
▁la	-5212
▁லட	-5213
▁ளன	-5214
▁மென	-5215
▁ிளா	-5216
▁ுரத	-5217
▁ந்தவ	-5218
▁ப்பவ	-5219
▁வாழ்	-5220
▁ிபுர	-5221
▁குக்க	-5222
▁ியங்க	-5223
▁ியிடம	-5224
▁72	-5225
▁In	-5226
▁நக	-5227
▁செப்	-5228
▁மில்	-5229
▁வன்ம	-5230
▁க்கத்	-5231
▁க்காத	-5232
▁ேந்தி	-5233
▁்வார்	-5234
▁1.	-5235
▁54	-5236
▁nd	-5237
▁சசி	-5238
▁யதா	-5239
▁ரின	-5240
▁ினோ	-5241
▁இருந	-5242
▁கோட்	-5243
▁சிப்	-5244
▁திரே	-5245
▁நாளை	-5246
▁யணம்	-5247
▁ர்வு	-5248
▁பொருட	-5249
▁ர்களை	-5250
▁லித்த	-5251
ga	-5252
▁58	-5253
▁ஊரக	-5254
▁றும	-5255
▁ீண்	-5256
▁ுரா	-5257
▁்சல	-5258
▁னிஸ்	-5259
▁ர்சி	-5260
▁ல்பா	-5261
▁வித்	-5262
▁ாயக்	-5263
▁ுங்கி	-5264
▁நர	-5265
▁ற்	-5266
▁ணும	-5267
▁பவம	-5268
▁வுப	-5269
▁்பத	-5270
▁னக்க	-5271
▁னமான	-5272
▁ய்க்	-5273
▁லந்த	-5274
▁வெப்	-5275
▁ிரக்	-5276
▁ுபவர்	-5277
▁ுப்பட	-5278
▁ெருக்	-5279
▁்தானி	-5280
வ்	-5281
▁DM	-5282
▁vi	-5283
▁ைக	-5284
▁ஆனி	-5285
▁டிட	-5286
▁்டன	-5287
▁்டே	-5288
▁்ளி	-5289
▁டின்	-5290
▁தெளி	-5291
▁ரவில	-5292
▁ள்வத	-5293
▁்கில்	-5294
ig	-5295
ஷா	-5296
▁ஒளி	-5297
▁யாச	-5298
▁ோகி	-5299
▁திரா	-5300
▁ப்பண	-5301
▁ீக்க	-5302
▁ம்பிக	-5303
▁ாரணமா	-5304
ow	-5305
ீரெ	-5306
▁Ma	-5307
▁Ra	-5308
▁se	-5309
▁ேசம	-5310
▁டாது	-5311
▁பயணம	-5312
▁மைகள	-5313
▁ரியர	-5314
▁ருடை	-5315
▁ழ்வு	-5316
▁சுப்ப	-5317
▁தியான	-5318
▁ிடீரெ	-5319
▁63	-5320
▁ரர	-5321
▁120	-5322
▁த்தொ	-5323
▁்டன்	-5324
▁ட்டுக	-5325
▁95	-5326
▁De	-5327
▁சட	-5328
▁ers	-5329
▁யூன	-5330
▁ியும	-5331
▁ையால	-5332
▁ைவாக	-5333
▁்கட்	-5334
▁த்தான	-5335
▁போக்க	-5336
▁ப்பார	-5337
▁யதில்	-5338
▁ய்கிற	-5339
▁ிடங்க	-5340
▁்டின்	-5341
▁57	-5342
▁IN	-5343
▁சற	-5344
▁ஷே	-5345
▁கைத	-5346
▁நெட	-5347
▁ூக்	-5348
▁ியில	-5349
▁சொத்த	-5350
▁ன்றுக	-5351
▁ார்த்	-5352
▁ுள்ளத	-5353
▁்பதிவ	-5354
tt	-5355
▁கவி	-5356
▁தைப	-5357
▁தோல	-5358
▁ளத்	-5359
▁ூலம்	-5360
▁இடம்ப	-5361
▁ட்டத்	-5362
▁ண்ணெய	-5363
▁``	-5364
▁com	-5365
▁சாப	-5366
▁டில	-5367
▁பம்	-5368
▁ரடி	-5369
▁்கர	-5370
and	-5371
▁53	-5372
▁85	-5373
▁மற	-5374
▁600	-5375
▁மெட	-5376
▁மோக	-5377
▁ரணை	-5378
▁ரீத	-5379
▁ாதம	-5380
▁மங்க	-5381
▁லீஸ்	-5382
▁வாங்	-5383
▁ிநாட	-5384
▁ில்வ	-5385
▁ேசம்	-5386
▁்களாக	-5387
▁்காரர	-5388
▁99	-5389
▁di	-5390
▁ha	-5391
▁ஏக	-5392
▁ாந	-5393
▁ஆன்	-5394
▁ைவர	-5395
▁்டைய	-5396
▁ற்றுவ	-5397
▁ிட்டத	-5398
AN	-5399
▁sh	-5400
▁யுக	-5401
▁ாமன	-5402
▁ினம	-5403
▁ைமை	-5404
▁்சர	-5405
▁டுவி	-5406
▁ட்டவ	-5407
▁மீட்	-5408
▁ரிசை	-5409
▁ாகிய	-5410
▁ுரைய	-5411
▁்பும	-5412
▁ட்கள்	-5413
▁யிலில	-5414
▁ரப்பட	-5415
▁லத்தை	-5416
▁ைந்து	-5417
▁@	-5418
▁DMK	-5419
▁ைதா	-5420
▁்தர	-5421
▁தலைவ	-5422
▁ப்பல	-5423
▁ள்கை	-5424
▁ங்கிண	-5425
▁ருடன்	-5426
▁றிஞர்	-5427
▁ிக்கு	-5428
▁56	-5429
▁59	-5430
▁62	-5431
▁ty	-5432
▁றல	-5433
▁சைவ	-5434
▁னிவ	-5435
▁ியட	-5436
▁ிரப	-5437
▁ோரி	-5438
▁ஏக்க	-5439
▁வேன்	-5440
▁ிதர்	-5441
▁ிறோம	-5442
▁தைகள்	-5443
▁ாடும்	-5444
▁ாரின்	-5445
▁்சின்	-5446
▁்தின்	-5447
se	-5448
▁யத	-5449
▁gov	-5450
▁னாவ	-5451
▁ரது	-5452
▁க்ரே	-5453
▁ட்டக	-5454
▁்வாய	-5455
▁ம்பத்	-5456
▁ிடுவத	-5457
▁ெல்லா	-5458
▁el	-5459
▁me	-5460
▁யட	-5461
▁நிக	-5462
▁னாம	-5463
▁பப்	-5464
▁பிட	-5465
▁ிவி	-5466
▁டலில	-5467
▁ரைத்	-5468
▁ூன்ற	-5469
▁எண்ணி	-5470
▁தயாரா	-5471
▁த்தும	-5472
▁ராத்த	-5473
▁ேற்பட	-5474
▁su	-5475
▁யீ	-5476
▁அத்	-5477
▁இதோ	-5478
▁கறி	-5479
▁நீத	-5480
▁ாரப	-5481
▁்பூ	-5482
▁த்தோ	-5483
▁னைப்	-5484
▁ருநா	-5485
▁லைக்	-5486
▁ூக்க	-5487
▁ூப்ப	-5488
▁ங்கப்	-5489
▁ையத்த	-5490
▁Ex	-5491
▁ct	-5492
▁...	-5493
▁தக்	-5494
▁மானி	-5495
▁ீண்ட	-5496
ma	-5497
▁z	-5498
▁ஷர	-5499
▁ளின	-5500
▁வேன	-5501
▁ிரன	-5502
▁சாட்	-5503
▁டமாக	-5504
▁றொரு	-5505
▁வாமி	-5506
▁ாவல்	-5507
▁க்கின	-5508
▁ள்ளிய	-5509
▁ுத்தை	-5510
▁ுப்பத	-5511
▁்கும்	-5512
lu	-5513
▁67	-5514
▁இடி	-5515
▁டார	-5516
▁டேன	-5517
▁க்ரம	-5518
▁தூர்	-5519
▁நிமி	-5520
▁ல்வர	-5521
▁ிகரி	-5522
▁ிகர்	-5523
▁்குவ	-5524
▁ரைப்ப	-5525
▁வேலைய	-5526
▁ிநாயக	-5527
▁ியும்	-5528
▁66	-5529
▁68	-5530
▁Mo	-5531
▁ணன	-5532
▁யஷ	-5533
▁ஆடு	-5534
▁உற்	-5535
▁சத்	-5536
▁பாம	-5537
▁பிய	-5538
▁்ரம	-5539
▁யமாக	-5540
▁யாமல	-5541
▁வரத்	-5542
▁ங்கைய	-5543
▁ரத்தி	-5544
▁லைகளை	-5545
▁்குவத	-5546
ard	-5547
▁73	-5548
▁hi	-5549
▁டனு	-5550
▁றித	-5551
▁ிவர	-5552
▁ொறு	-5553
▁ோனா	-5554
▁பாலா	-5555
▁மகன்	-5556
▁ியார்	-5557
ct	-5558
▁ad	-5559
▁தக	-5560
▁1.5	-5561
▁ion	-5562
▁டலை	-5563
▁ளப்	-5564
▁ளுந	-5565
▁்ளோ	-5566
▁அம்ம	-5567
▁துக்	-5568
▁பரம்	-5569
▁தொண்ட	-5570
▁ிப்பை	-5571
ps	-5572
ur	-5573
▁=	-5574
art	-5575
▁69	-5576
▁it	-5577
▁மஸ	-5578
▁லத	-5579
▁லப	-5580
▁144	-5581
▁ஷ்ம	-5582
▁ாற்	-5583
▁ுமத	-5584
▁ுவல	-5585
▁்கன	-5586
▁கிட்	-5587
▁டுவா	-5588
▁ன்சா	-5589
▁ருள்	-5590
▁லேயே	-5591
▁ளில்	-5592
▁ிராம	-5593
▁னவும்	-5594
▁விப்ப	-5595
▁ைப்பத	-5596
▁Z	-5597
▁ge	-5598
▁ya	-5599
▁யஸ	-5600
▁ளே	-5601
▁வொ	-5602
▁ூண	-5603
▁நபி	-5604
▁எப்ப	-5605
▁கூடா	-5606
▁படக்	-5607
▁பினர	-5608
▁புக்	-5609
▁ேரம்	-5610
▁்சேர	-5611
▁க்கள்	-5612
▁தையில	-5613
▁ிட்டர	-5614
▁ேவையா	-5615
▁ையால்	-5616
ni	-5617
ணர	-5618
ill	-5619
▁Se	-5620
▁am	-5621
▁பித	-5622
▁ளாத	-5623
▁ஷ்ண	-5624
▁ாகச	-5625
▁ோசன	-5626
▁்பே	-5627
▁்றத	-5628
▁கக்க	-5629
▁னையை	-5630
▁புணர	-5631
▁யதில	-5632
▁யிலு	-5633
▁ியவை	-5634
▁்புத	-5635
▁திரிய	-5636
▁பாட்ட	-5637
▁வருமா	-5638
▁ுவதால	-5639
▁்பாட்	-5640
pe	-5641
ess	-5642
oli	-5643
▁ta	-5644
▁ஐக	-5645
▁றவ	-5646
▁லஸ	-5647
▁ஆலை	-5648
▁ஊசி	-5649
▁குக	-5650
▁தல்	-5651
▁பதா	-5652
▁பனை	-5653
▁மத்	-5654
▁ரட்	-5655
▁ஹரி	-5656
▁ேலை	-5657
▁ப்பே	-5658
▁ம்பெ	-5659
▁ின்ச	-5660
▁னத்தை	-5661
▁பத்தி	-5662
▁்துறை	-5663
ge	-5664
▁திச	-5665
▁மகர	-5666
▁வுச	-5667
▁ிநா	-5668
▁ினே	-5669
▁ிலம	-5670
▁ீவி	-5671
▁்றா	-5672
▁எச்ச	-5673
▁திகம	-5674
▁முற்	-5675
▁லிக்	-5676
▁ைகளை	-5677
▁்டமி	-5678
▁யர்கள	-5679
▁ாட்டம	-5680
fe	-5681
va	-5682
▁74	-5683
▁GM	-5684
▁கொர	-5685
▁படம	-5686
▁ணத்த	-5687
▁தவித	-5688
▁ர்தா	-5689
▁ல்லூ	-5690
▁ளமான	-5691
▁ிஞர்	-5692
▁்புர	-5693
▁ந்தம்	-5694
▁ாரும்	-5695
▁ுந்தி	-5696
▁Pro	-5697
▁தாத	-5698
▁தேப	-5699
▁னப்	-5700
▁புள	-5701
▁ஸில	-5702
▁ேசு	-5703
▁மாதி	-5704
▁ற்கெ	-5705
▁ிண்ண	-5706
▁ியால	-5707
JP	-5708
ck	-5709
ியத	-5710
▁61	-5711
▁71	-5712
▁lo	-5713
▁இலை	-5714
▁ாஜா	-5715
▁ிரக	-5716
▁ுணா	-5717
▁ேகத	-5718
▁ைசி	-5719
▁்சு	-5720
▁மார்	-5721
▁வியி	-5722
▁வேட்	-5723
▁க்குள	-5724
▁ன்சார	-5725
▁ர்கால	-5726
▁்கியத	-5727
lo	-5728
▁கடு	-5729
▁சுற	-5730
▁யாவ	-5731
▁ரங்	-5732
▁்வொ	-5733
▁தமாக	-5734
▁ம்பத	-5735
▁்கோட	-5736
▁செயலா	-5737
▁ம்பவம	-5738
▁றுவது	-5739
▁ிதித்	-5740
▁்த்தா	-5741
▁Na	-5742
▁ஜை	-5743
▁ஸவ	-5744
▁700	-5745
▁BJP	-5746
▁கவா	-5747
▁பொற	-5748
▁ரில	-5749
▁ிறி	-5750
▁ோரா	-5751
▁கிறத	-5752
▁துப்	-5753
▁ய்வத	-5754
▁ராளம	-5755
▁லைத்	-5756
▁ணையில	-5757
mp	-5758
▁1,	-5759
▁3.	-5760
▁en	-5761
▁ஸர	-5762
▁GMT	-5763
▁con	-5764
▁யத்	-5765
▁ிரோ	-5766
▁ிலக	-5767
▁ுங்	-5768
▁ேம்	-5769
▁சேரி	-5770
▁ச்சத	-5771
▁னைக்	-5772
▁ியாம	-5773
▁்சர்	-5774
▁குடிய	-5775
▁ங்களி	-5776
▁ண்டது	-5777
▁ப்படம	-5778
▁ியிரு	-5779
▁ுந்தா	-5780
ja	-5781
adu	-5782
▁77	-5783
▁es	-5784
▁ஞ்	-5785
▁றீ	-5786
▁ஹல	-5787
மையா	-5788
▁ட்ஸ	-5789
▁தலி	-5790
▁னரா	-5791
▁ரப்	-5792
▁பிட்	-5793
▁றுவத	-5794
▁வக்க	-5795
▁ோகிற	-5796
▁டமும்	-5797
▁டார்க	-5798
▁ுவிட்	-5799
▁்மையா	-5800
▁ा	-5801
▁4.	-5802
▁Al	-5803
▁BA	-5804
▁Pl	-5805
▁ொக	-5806
▁கென	-5807
▁டத்	-5808
▁மைத	-5809
▁ரசம	-5810
▁்வல	-5811
▁இதுப	-5812
▁துவி	-5813
▁மரிய	-5814
▁ானில	-5815
PS	-5816
na	-5817
▁2,	-5818
▁ka	-5819
▁ஆலய	-5820
▁ஜிய	-5821
▁பேட	-5822
▁லப்	-5823
▁வெற	-5824
▁்னோ	-5825
▁்பவர	-5826
▁ன்னைய	-5827
▁ிரிக்	-5828
▁(1	-5829
▁92	-5830
▁சந	-5831
▁800	-5832
▁மீள	-5833
▁ரதா	-5834
▁கிர்	-5835
▁யன்ற	-5836
▁வைக்	-5837
▁ாய்ப	-5838
▁ிரிய	-5839
▁ுவோம	-5840
▁்தார	-5841
▁ங்குள	-5842
▁ந்துவ	-5843
▁ர்பான	-5844
▁ெல்லி	-5845
ke	-5846
qu	-5847
▁CO	-5848
▁li	-5849
▁காக	-5850
▁பசு	-5851
▁ோகம	-5852
▁அமர்	-5853
▁தனைய	-5854
▁படுத	-5855
▁ர்த்	-5856
▁வனம்	-5857
▁வாதம	-5858
▁ேசத்	-5859
▁க்கெட	-5860
▁ட்சும	-5861
▁ட்டமை	-5862
▁தனியா	-5863
▁மையில	-5864
▁வரின்	-5865
▁ெற்று	-5866
AR	-5867
ER	-5868
▁ணர	-5869
▁தத்	-5870
▁நதி	-5871
▁ியு	-5872
▁ஆக்க	-5873
▁ந்தச	-5874
▁பரிச	-5875
▁பர்க	-5876
▁ரைக்	-5877
▁றத்த	-5878
▁லியல	-5879
▁வுடன	-5880
▁்திய	-5881
▁பத்தை	-5882
▁வனத்த	-5883
▁விக்ர	-5884
▁ியோர்	-5885
oo	-5886
deo	-5887
▁னெ	-5888
▁IND	-5889
▁ன்ல	-5890
▁ரோக	-5891
▁வம்	-5892
▁ாமா	-5893
▁ிசம	-5894
▁ினத	-5895
▁ொன்	-5896
▁இளைஞ	-5897
▁காரர	-5898
▁க்கவ	-5899
▁ந்தத	-5900
▁ழுவத	-5901
▁ெறும	-5902
▁்பால	-5903
▁ஆண்டி	-5904
▁பிக்க	-5905
▁மன்றம	-5906
▁ராட்ச	-5907
▁்தமாக	-5908
me	-5909
ஷே	-5910
▁76	-5911
▁Ch	-5912
▁வனத	-5913
▁ிவு	-5914
▁ீசி	-5915
▁குடு	-5916
▁ராவி	-5917
▁ிழாவ	-5918
▁டரில்	-5919
▁ட்களை	-5920
▁ப்பதா	-5921
▁லீஸார	-5922
▁்டுப்	-5923
ஜ்	-5924
are	-5925
▁படக	-5926
▁மனோ	-5927
▁ய்ப	-5928
▁ளிக	-5929
▁வுள	-5930
▁ாதன	-5931
▁ூலை	-5932
▁்பை	-5933
▁களும	-5934
▁டந்த	-5935
▁டைத்	-5936
▁தனால	-5937
▁பினா	-5938
▁ார்ச	-5939
▁ேரத்	-5940
▁ந்ததா	-5941
ww	-5942
▁Q	-5943
ini	-5944
▁be	-5945
▁et	-5946
▁ணீ	-5947
▁www	-5948
▁ஏரி	-5949
▁நடன	-5950
▁னமு	-5951
▁ரால	-5952
▁ூண்	-5953
▁்சவ	-5954
▁Live	-5955
▁திவா	-5956
▁தொழி	-5957
▁ருளா	-5958
▁ஷ்யா	-5959
▁்கோவ	-5960
▁குகளை	-5961
▁கூடாத	-5962
▁யத்தை	-5963
▁ள்ளிட	-5964
▁வதால்	-5965
▁ிப்போ	-5966
▁்சேரி	-5967
▁்பின்	-5968
ala	-5969
ith	-5970
▁82	-5971
▁ch	-5972
▁இலக	-5973
▁எதை	-5974
▁ஒலி	-5975
▁சோழ	-5976
▁துட	-5977
▁நீல	-5978
▁னமா	-5979
▁முஸ	-5980
▁ster	-5981
▁தித்	-5982
▁ன்றத	-5983
▁ரேலி	-5984
▁ரைன்	-5985
▁ன்பது	-5986
▁ல்களை	-5987
▁ுழுவத	-5988
ந்	-5989
▁78	-5990
▁96	-5991
▁சண	-5992
▁ெழ	-5993
▁out	-5994
▁tic	-5995
▁இவ்	-5996
▁க்த	-5997
▁செம	-5998
▁டால	-5999
▁டுப	-6000
▁கிப்	-6001
▁டுப்	-6002
▁டுமல	-6003
▁ர்வத	-6004
▁றில்	-6005
▁சாலைய	-6006
▁டுதல்	-6007
▁னைகள்	-6008
▁லியன்	-6009
▁ாதிப்	-6010
▁ாபிஷே	-6011
▁ுவத்த	-6012
mi	-6013
our	-6014
▁Sa	-6015
▁Sc	-6016
▁Vs	-6017
▁sc	-6018
▁டந	-6019
▁ுஸ	-6020
▁50%	-6021
▁கலச	-6022
▁ுணர	-6023
▁ுறம	-6024
▁ேலா	-6025
▁அமைக	-6026
▁கர்க	-6027
▁னடிய	-6028
▁மென்	-6029
▁்குள	-6030
▁்புற	-6031
▁ந்துள	-6032
▁னைகளை	-6033
▁றங்கி	-6034
▁ெல்வத	-6035
▁ோவில்	-6036
ht	-6037
▁84	-6038
▁86	-6039
▁Te	-6040
▁htt	-6041
▁ஐஸ்	-6042
▁கடக	-6043
▁சொத	-6044
▁யக்	-6045
▁ரகர	-6046
▁ர்ந	-6047
▁ாஜக	-6048
▁ூசி	-6049
▁ெற்	-6050
▁ச்சன	-6051
▁ட்சத	-6052
▁பிபி	-6053
▁ரால்	-6054
▁்பிற	-6055
▁கலாம்	-6056
▁தியின	-6057
▁ற்றங்	-6058
▁ிலில்	-6059
▁_	-6060
▁j	-6061
ast	-6062
hen	-6063
▁91	-6064
▁கற	-6065
▁2.5	-6066
▁ஈஷா	-6067
▁லவ்	-6068
▁ளதா	-6069
▁ாவட	-6070
▁ுமு	-6071
▁ொல்	-6072
▁்னு	-6073
▁Play	-6074
▁சேர்	-6075
▁ிபத்	-6076
▁ெய்க	-6077
▁துதான	-6078
gi	-6079
us	-6080
▁ly	-6081
▁ri	-6082
▁ஏசி	-6083
▁குற	-6084
▁கொள	-6085
▁னிப	-6086
▁ரமண	-6087
▁றல்	-6088
▁லாட	-6089
▁லைக	-6090
▁வரம	-6091
▁வரல	-6092
▁ிறத	-6093
▁ுதன	-6094
▁ுரி	-6095
▁்வீ	-6096
▁கிஸ்	-6097
▁டர்ந	-6098
▁ிர்ப	-6099
▁இல்லா	-6100
▁கிச்ச	-6101
▁ப்பும	-6102
▁ாப்பி	-6103
▁ிக்கவ	-6104
▁ில்தா	-6105
▁ெற்றோ	-6106
▁ைப்பை	-6107
est	-6108
▁81	-6109
▁97	-6110
▁ஜக	-6111
▁ளய	-6112
▁ேள	-6113
▁180	-6114
▁Con	-6115
▁கஸ்	-6116
▁சயம	-6117
▁சைக	-6118
▁டும	-6119
▁யூத	-6120
▁்வை	-6121
▁கின்	-6122
▁டவர்	-6123
▁னாள்	-6124
▁ர்வை	-6125
▁ற்றவ	-6126
▁video	-6127
▁ப்பத்	-6128
▁முகத்	-6129
▁ராக்க	-6130
▁்கிறத	-6131
IA	-6132
da	-6133
யர்	-6134
▁6.	-6135
▁88	-6136
▁CS	-6137
▁உல	-6138
▁ஒல	-6139
▁125	-6140
▁Int	-6141
▁ஆகம	-6142
▁கமா	-6143
▁சக்	-6144
▁றது	-6145
▁லோர	-6146
▁ிறா	-6147
▁ுணை	-6148
▁உறுத	-6149
▁களால	-6150
▁திகள	-6151
▁நேரி	-6152
▁யிடு	-6153
▁லியன	-6154
▁ஸ்லி	-6155
▁ுவரை	-6156
▁ூர்த	-6157
▁புள்ள	-6158
▁பெயர்	-6159
▁ற்கும	-6160
▁ூன்றா	-6161
▁ையைக்	-6162
AT	-6163
▁En	-6164
▁ic	-6165
▁ழா	-6166
▁ஷய	-6167
▁10%	-6168
▁சிந	-6169
▁ுபவ	-6170
▁்ரல	-6171
▁சைக்	-6172
▁பெட்	-6173
▁யிலே	-6174
▁வாக்	-6175
▁ாயத்	-6176
▁ிறைவ	-6177
▁ிலக்	-6178
▁்விட	-6179
▁செந்த	-6180
id	-6181
ld	-6182
நீ	-6183
per	-6184
▁94	-6185
▁IP	-6186
▁PM	-6187
▁ab	-6188
▁லஷ	-6189
▁ெப	-6190
▁Man	-6191
▁ort	-6192
▁ளைவ	-6193
▁ஷமி	-6194
▁கலாம	-6195
▁ன்னெ	-6196
▁யன்ப	-6197
▁லையு	-6198
▁ல்யா	-6199
▁ல்வத	-6200
▁ான்க	-6201
▁ொல்வ	-6202
▁ோடிய	-6203
▁்புப	-6204
▁கிறார	-6205
▁சர்கள	-6206
▁ட்டேன	-6207
▁ட்டைய	-6208
▁தேர்வ	-6209
▁ரியர்	-6210
▁றிப்ப	-6211
▁ார்பி	-6212
▁ுக்கல	-6213
▁்கிக்	-6214
ly	-6215
▁₹	-6216
eri	-6217
ing	-6218
▁(2	-6219
▁83	-6220
▁Mu	-6221
▁do	-6222
▁130	-6223
▁nai	-6224
▁சரா	-6225
▁ததா	-6226
▁ழுப	-6227
▁ிழா	-6228
▁ுனை	-6229
▁காக்	-6230
▁டையு	-6231
▁பயிற	-6232
▁ால்க	-6233
▁ிரைவ	-6234
▁ுவதா	-6235
▁ுவாக	-6236
▁ூரில	-6237
▁கிறதா	-6238
▁ங்கார	-6239
▁லைகள்	-6240
▁ுழுக்	-6241
▁ேர்த்	-6242
el	-6243
th	-6244
ul	-6245
ine	-6246
▁at	-6247
▁தண	-6248
▁40%	-6249
▁ide	-6250
▁shi	-6251
▁ைவு	-6252
▁்பட	-6253
▁ஆசிர	-6254
▁களைய	-6255
▁டலாம	-6256
▁டித்	-6257
▁பாட்	-6258
▁ருகே	-6259
▁ருத்	-6260
▁ிர்வ	-6261
▁சிரிய	-6262
▁ண்ணாம	-6263
▁மாநாட	-6264
▁மானம்	-6265
▁ம்பாப	-6266
▁றித்த	-6267
▁ியுடன	-6268
AS	-6269
▁03	-6270
▁05	-6271
▁79	-6272
▁ூச	-6273
▁20%	-6274
▁ter	-6275
▁டலு	-6276
▁புவ	-6277
▁ரணத	-6278
▁றுச	-6279
▁லில	-6280
▁்கட	-6281
▁்ரை	-6282
▁கழ்வ	-6283
▁சாரத	-6284
▁றையை	-6285
▁ளால்	-6286
▁வரப்	-6287
▁்டிப	-6288
▁்ரான	-6289
▁்வர்	-6290
▁டப்பட	-6291
▁ததால்	-6292
▁ந்தார	-6293
▁மாறிய	-6294
▁ிருக்	-6295
▁ிருத்	-6296
▁்விட்	-6297
ne	-6298
ase	-6299
▁2-	-6300
▁An	-6301
▁no	-6302
▁tt	-6303
▁110	-6304
▁ஆல்	-6305
▁காட	-6306
▁காள	-6307
▁டப்	-6308
▁தரவ	-6309
▁பனி	-6310
▁்யு	-6311
▁டைபெ	-6312
▁மானம	-6313
▁அடையா	-6314
▁ச்சரவ	-6315
▁டும்ப	-6316
▁பட்டன	-6317
▁ாரிக்	-6318
▁ுகில்	-6319
கே	-6320
▁4,	-6321
▁93	-6322
▁TN	-6323
▁டற	-6324
▁ீப	-6325
oday	-6326
▁கின	-6327
▁நிச	-6328
▁ரவா	-6329
▁கோப்	-6330
▁ட்டண	-6331
▁நாட்	-6332
▁நேரம	-6333
▁ல்கி	-6334
▁ிதம்	-6335
▁ையிட	-6336
▁்றது	-6337
▁Today	-6338
▁https	-6339
▁கோயில	-6340
▁க்குக	-6341
▁மணிக்	-6342
ab	-6343
▁01	-6344
▁em	-6345
▁ex	-6346
▁டச	-6347
▁117	-6348
▁140	-6349
▁ணவு	-6350
▁தரை	-6351
▁னிச	-6352
▁னுட	-6353
▁றம்	-6354
▁ளவை	-6355
▁வறு	-6356
▁ஹஜ்	-6357
▁ாகு	-6358
▁ீக்	-6359
▁ேரம	-6360
▁ைவே	-6361
▁்ரவ	-6362
▁சினி	-6363
▁சூரி	-6364
▁மாகா	-6365
▁ம்போ	-6366
▁ிலர்	-6367
▁ிலிர	-6368
▁ுடித	-6369
▁்சல்	-6370
▁்தர்	-6371
▁கழகத்	-6372
▁க்கறி	-6373
▁ாசிக்	-6374
▁ியால்	-6375
▁்ளிக்	-6376
si	-6377
▁ஔ	-6378
ari	-6379
▁3,	-6380
▁87	-6381
▁98	-6382
▁Sh	-6383
▁பள	-6384
▁டைத	-6385
▁பழி	-6386
▁ுஜர	-6387
▁ுவீ	-6388
▁்சய	-6389
▁சாங்	-6390
▁பாய்	-6391
▁முகா	-6392
▁ானதா	-6393
▁ெஸ்ட	-6394
▁்கரி	-6395
▁ற்றுக	-6396
▁ிட்டம	-6397
au	-6398
mk	-6399
ran	-6400
▁7.	-6401
▁IC	-6402
▁Pa	-6403
▁30%	-6404
▁350	-6405
▁Com	-6406
▁Res	-6407
▁pro	-6408
▁மட்	-6409
▁மெர	-6410
▁றகு	-6411
▁றப்	-6412
▁ளுக	-6413
▁குல்	-6414
▁படைய	-6415
▁வையா	-6416
▁ுமுற	-6417
▁ங்கத்	-6418
▁டிகள்	-6419
▁நாளில	-6420
▁போதைய	-6421
▁யன்பட	-6422
LA	-6423
eo	-6424
▁[	-6425
ara	-6426
lec	-6427
▁Co	-6428
▁II	-6429
▁Me	-6430
▁tu	-6431
▁கச	-6432
▁Wor	-6433
▁thi	-6434
▁உமா	-6435
▁குத	-6436
▁தகு	-6437
▁நிஜ	-6438
▁யது	-6439
▁ுஸ்	-6440
▁ோசி	-6441
▁்ணன	-6442
▁்லு	-6443
▁ரசிக	-6444
▁றோம்	-6445
▁வலர்	-6446
▁ிர்ந	-6447
▁சியம்	-6448
▁டப்பா	-6449
▁னடியா	-6450
▁ாதிக்	-6451
▁ினைத்	-6452
▁ையுடன	-6453
SS	-6454
ee	-6455
ama	-6456
▁Is	-6457
▁கமு	-6458
▁கெட	-6459
▁லதா	-6460
▁னங்க	-6461
▁பிஎஸ	-6462
▁ரச்ச	-6463
▁றிக்	-6464
▁ாதிர	-6465
▁ிலைம	-6466
▁்தகை	-6467
▁இதனால	-6468
▁ாயத்த	-6469
▁்கமாக	-6470
▁்தமான	-6471
BT	-6472
IN	-6473
யா	-6474
ேன	-6475
▁]	-6476
ass	-6477
▁Sp	-6478
▁lt	-6479
▁pl	-6480
▁கஹ	-6481
▁சஸ	-6482
▁10,	-6483
▁160	-6484
▁mar	-6485
▁sta	-6486
▁எலி	-6487
▁சரக	-6488
▁தனா	-6489
▁தீய	-6490
▁னுக	-6491
▁ரகா	-6492
▁லாற	-6493
▁ாதல	-6494
▁லுக்	-6495
▁வையு	-6496
▁ாய்ந	-6497
▁ாஷ்ட	-6498
▁ியாத	-6499
▁ிரிட	-6500
▁ிருவ	-6501
▁ங்கிர	-6502
▁ணியின	-6503
▁ந்துக	-6504
▁லப்பட	-6505
▁ாய்ப்	-6506
▁ாரங்க	-6507
▁ுத்தல	-6508
▁ுமக்க	-6509
▁ைக்கி	-6510
ap	-6511
di	-6512
ff	-6513
மே	-6514
▁5,	-6515
▁Bo	-6516
▁Di	-6517
▁ST	-6518
▁by	-6519
▁he	-6520
▁cal	-6521
▁டவி	-6522
▁தூத	-6523
▁நூற	-6524
▁பசி	-6525
▁பத்	-6526
▁புப	-6527
▁யங்	-6528
▁ிமு	-6529
▁்னே	-6530
▁குகி	-6531
▁தனிய	-6532
▁புள்	-6533
▁மிரு	-6534
▁ற்கை	-6535
▁லுவல	-6536
▁ுறுத	-6537
▁்சிய	-6538
▁்பாட	-6539
▁கட்டப	-6540
▁ட்டக்	-6541
▁ம்பால	-6542
▁ிதமாக	-6543
ET	-6544
ate	-6545
▁5%	-6546
▁7,	-6547
▁Bu	-6548
▁nc	-6549
▁ஏஐ	-6550
▁நன	-6551
gain	-6552
▁இறை	-6553
▁ஓலா	-6554
▁கக்	-6555
▁கைக	-6556
▁தரம	-6557
▁ானவ	-6558
▁ீச்	-6559
▁ேவை	-6560
▁டாமல	-6561
▁டாம்	-6562
▁ணில்	-6563
▁ய்தா	-6564
▁ளம்ப	-6565
▁ையத்	-6566
▁னைக்க	-6567
▁ரிட்ட	-6568
▁விளைய	-6569
▁ிப்பி	-6570
AM	-6571
RI	-6572
▁क	-6573
▁	-6574
ace	-6575
ood	-6576
▁02	-6577
▁FI	-6578
▁TV	-6579
▁ia	-6580
▁ku	-6581
▁ீழ	-6582
▁ஆயி	-6583
▁உபி	-6584
▁சளி	-6585
▁யுள	-6586
▁ளிர	-6587
▁ாகன	-6588
▁ெழு	-6589
▁ையத	-6590
▁ைவி	-6591
▁with	-6592
▁டுங்	-6593
▁டைப்	-6594
▁தியி	-6595
▁த்தூ	-6596
▁னைத்	-6597
▁ிளம்	-6598
▁ேகம்	-6599
▁Inter	-6600
▁கப்பட	-6601
▁ாங்கி	-6602
▁ாலமாக	-6603
▁ிதிக்	-6604
▁ைப்பா	-6605
ep	-6606
ft	-6607
hy	-6608
sh	-6609
▁न	-6610
▁्	-6611
ash	-6612
▁04	-6613
▁5.	-6614
▁Ba	-6615
▁LG	-6616
▁co	-6617
▁ro	-6618
▁தந	-6619
▁ெத	-6620
▁For	-6621
▁Tra	-6622
▁கனம	-6623
▁தப்	-6624
▁யால	-6625
▁ல்ந	-6626
▁poli	-6627
▁டமைப	-6628
▁ட்சு	-6629
▁தம்ப	-6630
▁திப்	-6631
▁துபோ	-6632
▁பற்ற	-6633
▁ருக்	-6634
▁ரைப்	-6635
▁ுடும	-6636
▁்காவ	-6637
▁்தம்	-6638
▁்போக	-6639
▁ண்டாவ	-6640
▁பிரிட	-6641
▁ென்று	-6642
▁$	-6643
▁र	-6644
odi	-6645
ook	-6646
▁06	-6647
▁3-	-6648
▁He	-6649
▁nm	-6650
▁நய	-6651
▁யொ	-6652
▁ளந	-6653
▁105	-6654
▁nic	-6655
▁இந்	-6656
▁துற	-6657
▁னத்	-6658
▁லாஜ	-6659
▁ானம	-6660
▁Card	-6661
▁LGBT	-6662
▁சியை	-6663
▁னுக்	-6664
▁பதிய	-6665
▁ிலில	-6666
▁ுதிய	-6667
▁்யாவ	-6668
▁்றிய	-6669
▁again	-6670
▁ட்டுப	-6671
▁ண்கள்	-6672
▁ன்றில	-6673
▁ொள்ளு	-6674
EC	-6675
ark	-6676
▁Am	-6677
▁du	-6678
▁வூ	-6679
▁ஷோ	-6680
▁ஸம	-6681
▁138	-6682
▁dis	-6683
▁res	-6684
▁அபு	-6685
▁தித	-6686
▁ரைப	-6687
▁ளவி	-6688
▁ளஹஸ	-6689
▁ாதத	-6690
▁ிகி	-6691
▁்சை	-6692
▁்தப	-6693
▁sive	-6694
▁கூடு	-6695
▁சக்க	-6696
▁மானத	-6697
▁யாரா	-6698
▁லிம்	-6699
▁வோம்	-6700
▁ிரான	-6701
▁காமல்	-6702
▁த்தைய	-6703
▁முதலி	-6704
▁றுதிப	-6705
▁ைத்தா	-6706
IC	-6707
NA	-6708
ath	-6709
ice	-6710
▁Lo	-6711
▁ba	-6712
▁va	-6713
▁ஒர	-6714
▁றொ	-6715
▁(1)	-6716
▁900	-6717
▁ble	-6718
▁sam	-6719
▁களே	-6720
▁காஷ	-6721
▁சவா	-6722
▁னான	-6723
▁ழ்வ	-6724
▁ுநா	-6725
▁்பீ	-6726
▁தரப்	-6727
▁ய்ச்	-6728
▁ாடும	-6729
▁ினம்	-6730
▁ெரிக	-6731
▁ெள்ள	-6732
▁்காட	-6733
▁்டிக	-6734
▁சியல்	-6735
▁ல்லப்	-6736
▁ுவனம்	-6737
▁ையாளர	-6738
IT	-6739
ie	-6740
ry	-6741
all	-6742
ind	-6743
▁Ar	-6744
▁PA	-6745
▁To	-6746
▁UN	-6747
▁as	-6748
▁if	-6749
▁ru	-6750
▁உள	-6751
▁ஒவ	-6752
▁102	-6753
▁3.5	-6754
▁adi	-6755
▁tra	-6756
▁எட்	-6757
▁ஓகே	-6758
▁தூக	-6759
▁நல்	-6760
▁பிஎ	-6761
▁யரி	-6762
▁ளர்	-6763
▁ுரல	-6764
▁ுளா	-6765
▁்ஸி	-6766
▁எதுவ	-6767
▁டர்ப	-6768
▁ிரச்	-6769
▁ிலைப	-6770
▁ூரிய	-6771
▁ர்பார	-6772
▁ுதியை	-6773
▁ூகத்த	-6774
▁ேட்டு	-6775
io	-6776
ji	-6777
un	-6778
ஜை	-6779
ene	-6780
ina	-6781
ort	-6782
▁07	-6783
▁IM	-6784
▁Po	-6785
▁TH	-6786
▁TT	-6787
▁இஓ	-6788
ையும	-6789
▁101	-6790
▁170	-6791
▁240	-6792
▁Uni	-6793
▁ial	-6794
▁ple	-6795
▁rai	-6796
▁ram	-6797
▁ஐஜி	-6798
▁தகை	-6799
▁தசை	-6800
▁தச்	-6801
▁மீப	-6802
▁லைம	-6803
▁ளைப	-6804
▁ூஜை	-6805
▁்பம	-6806
▁What	-6807
▁ress	-6808
▁அதில	-6809
▁கமான	-6810
▁க்கப	-6811
▁டியி	-6812
▁ணியா	-6813
▁தியை	-6814
▁த்தவ	-6815
▁பிவி	-6816
▁வென்	-6817
▁ூடிய	-6818
▁ூறிய	-6819
▁ெண்க	-6820
▁்கின	-6821
▁்கிவ	-6822
▁்தன்	-6823
▁்ரைன	-6824
▁யலில்	-6825
▁யையும	-6826
▁ரண்டா	-6827
▁விற்ப	-6828
▁வையான	-6829
20	-6830
DA	-6831
ti	-6832
பல	-6833
ers	-6834
ica	-6835
rom	-6836
▁08	-6837
▁1-	-6838
▁Ac	-6839
▁Ad	-6840
▁Li	-6841
▁tn	-6842
▁um	-6843
▁us	-6844
▁ஒள	-6845
▁ளட	-6846
▁370	-6847
▁70%	-6848
▁Pho	-6849
▁ine	-6850
▁கங்	-6851
▁னிக	-6852
▁மகி	-6853
▁மணம	-6854
▁யற்	-6855
▁ரோன	-6856
▁வடை	-6857
▁வனம	-6858
▁ாரம	-6859
▁ிகல	-6860
▁்கொ	-6861
▁Chen	-6862
▁Mini	-6863
▁Poli	-6864
▁tive	-6865
▁உணர்	-6866
▁சும்	-6867
▁டியல	-6868
▁ப்பள	-6869
▁யாடி	-6870
▁ர்வி	-6871
▁ிகழ்	-6872
▁ையாத	-6873
▁்குற	-6874
▁சர்ச்	-6875
▁த்திக	-6876
▁மைகள்	-6877
▁ைத்தன	-6878
▁்திற்	-6879
▁்பூர்	-6880
SA	-6881
ang	-6882
▁09	-6883
▁6,	-6884
▁RC	-6885
▁si	-6886
▁பஸ	-6887
▁ளப	-6888
▁ொன	-6889
▁109	-6890
▁360	-6891
▁7.5	-6892
▁80%	-6893
▁App	-6894
▁Cor	-6895
▁Pri	-6896
▁day	-6897
▁man	-6898
▁ஊரை	-6899
▁கவச	-6900
▁தள்	-6901
▁ன்த	-6902
▁யுட	-6903
▁ிகம	-6904
▁ிமை	-6905
▁Modi	-6906
▁lead	-6907
▁சினா	-6908
▁டமிட	-6909
▁மோதி	-6910
▁யார்	-6911
▁றால்	-6912
▁ல்வே	-6913
▁ாடப்	-6914
▁ிசைய	-6915
▁ியோர	-6916
▁ிர்ச	-6917
▁ோருக	-6918
▁்சம்	-6919
▁ம்பித	-6920
▁ர்வாக	-6921
▁ளியில	-6922
▁வியில	-6923
▁ிடுகி	-6924
▁ிரச்ன	-6925
▁ொண்டன	-6926
▁்செல்	-6927
AL	-6928
je	-6929
ant	-6930
clu	-6931
▁(3	-6932
▁2'	-6933
▁RE	-6934
▁SA	-6935
▁Th	-6936
▁mo	-6937
▁ol	-6938
▁pa	-6939
▁sa	-6940
▁sp	-6941
ight	-6942
▁90%	-6943
▁AIA	-6944
▁Ass	-6945
▁COP	-6946
▁CSK	-6947
▁has	-6948
▁ive	-6949
▁ral	-6950
▁ted	-6951
▁wor	-6952
▁சட்	-6953
▁த்க	-6954
▁னீர	-6955
▁பொத	-6956
▁மாள	-6957
▁யாம	-6958
▁றுந	-6959
▁்தச	-6960
▁what	-6961
▁கமாக	-6962
▁கோவி	-6963
▁ன்பா	-6964
▁ழுதி	-6965
▁ாதுக	-6966
▁ிரமா	-6967
▁ோராட	-6968
▁்தும	-6969
▁கட்டு	-6970
▁படியா	-6971
▁பொதுவ	-6972
▁ாசிரி	-6973
▁ிடுதல	-6974
RA	-6975
▁ि	-6976
ver	-6977
▁2)	-6978
▁CM	-6979
▁IS	-6980
▁RA	-6981
▁Ro	-6982
▁Ti	-6983
▁lk	-6984
▁ry	-6985
▁ளக	-6986
▁121	-6987
▁175	-6988
▁OPS	-6989
▁You	-6990
▁ary	-6991
▁you	-6992
▁அடை	-6993
▁எதோ	-6994
▁ாலர	-6995
▁ாளு	-6996
▁ூழ்	-6997
▁ொழு	-6998
▁்மீ	-6999
▁Chat	-7000
▁Elec	-7001
▁டைக்	-7002
▁ணியை	-7003
▁னித்	-7004
▁ருவா	-7005
▁லரும	-7006
▁லிதா	-7007
▁ாடிய	-7008
▁ாணப்	-7009
▁ாய்க	-7010
▁ுமைய	-7011
▁்துள	-7012
▁LGBTQ	-7013
▁சுமார	-7014
▁ட்டமா	-7015
▁வுகள்	-7016
▁ீர்ப்	-7017
▁ுகார்	-7018
▁ுடும்	-7019
CC	-7020
PA	-7021
PT	-7022
co	-7023
▁x	-7024
▁म	-7025
ear	-7026
han	-7027
ock	-7028
res	-7029
▁(6	-7030
▁1)	-7031
▁Fu	-7032
▁ew	-7033
▁go	-7034
▁இவ	-7035
▁றே	-7036
▁ளூ	-7037
▁ெவ	-7038
▁(2)	-7039
▁137	-7040
▁234	-7041
▁Sta	-7042
▁ran	-7043
▁ric	-7044
▁say	-7045
▁sis	-7046
▁ஐயா	-7047
▁கிஸ	-7048
▁ணர்	-7049
▁தது	-7050
▁துச	-7051
▁தூய	-7052
▁பரு	-7053
▁மக்	-7054
▁ளக்	-7055
▁ிஞர	-7056
▁ிலு	-7057
▁Nadu	-7058
▁nadu	-7059
▁will	-7060
▁கவில	-7061
▁படாத	-7062
▁ரியு	-7063
▁ர்ச்	-7064
▁லையா	-7065
▁ளைச்	-7066
▁ிமான	-7067
▁ிறிய	-7068
▁ுறைப	-7069
▁கலைக்	-7070
▁கவின்	-7071
▁காவில	-7072
▁ங்குக	-7073
▁ணிகள்	-7074
▁திகமா	-7075
▁பார்த	-7076
▁லந்து	-7077
▁ாணிப்	-7078
▁ில்கள	-7079
▁ுரையா	-7080
▁ுறையை	-7081
▁ோதும்	-7082
▁்தியம	-7083
▁்லாம்	-7084
OS	-7085
US	-7086
one	-7087
ree	-7088
wit	-7089
▁9.	-7090
▁Sy	-7091
▁றம	-7092
▁வந	-7093
▁Rep	-7094
▁act	-7095
▁ஊரே	-7096
▁ஊவா	-7097
▁ஏவி	-7098
▁களு	-7099
▁ணுவ	-7100
▁நீள	-7101
▁முள	-7102
▁றுத	-7103
▁ாலத	-7104
▁ினு	-7105
▁ீது	-7106
▁்வெ	-7107
▁Stal	-7108
▁ணைக்	-7109
▁மூர்	-7110
▁ரிட்	-7111
▁ரிவி	-7112
▁ர்பா	-7113
▁றியத	-7114
▁லிரு	-7115
▁ழிப்	-7116
▁ாமத்	-7117
▁ீனாவ	-7118
▁ொல்ல	-7119
▁்சித	-7120
▁ங்கின	-7121
▁ச்சைய	-7122
▁டையாத	-7123
▁பயணத்	-7124
▁பவத்த	-7125
▁ர்களா	-7126
▁வத்தை	-7127
▁ாதத்த	-7128
▁ொண்டா	-7129
EE	-7130
TA	-7131
▁प	-7132
▁स	-7133
asi	-7134
jay	-7135
ome	-7136
்கல	-7137
▁+2	-7138
▁4-	-7139
▁8,	-7140
▁89	-7141
▁Go	-7142
▁Qu	-7143
▁RR	-7144
▁WH	-7145
▁fa	-7146
▁ll	-7147
▁mi	-7148
▁qu	-7149
▁கக	-7150
▁ணல	-7151
▁135	-7152
▁15%	-7153
▁2.0	-7154
▁450	-7155
▁550	-7156
▁60%	-7157
▁Act	-7158
▁Col	-7159
▁Eda	-7160
▁How	-7161
▁did	-7162
▁dmk	-7163
▁nda	-7164
▁ned	-7165
▁tal	-7166
▁கிச	-7167
▁பகை	-7168
▁மோட	-7169
▁யதி	-7170
▁ிறக	-7171
▁ுற்	-7172
▁mini	-7173
▁plan	-7174
▁அதிம	-7175
▁கர்ப	-7176
▁காரா	-7177
▁கிக்	-7178
▁க்கத	-7179
▁சனம்	-7180
▁சினை	-7181
▁தவறா	-7182
▁ரணைய	-7183
▁ாகும	-7184
▁ாலிய	-7185
▁ியதா	-7186
▁ியேற	-7187
▁்குக	-7188
▁்டின	-7189
▁்டிர	-7190
▁தையடு	-7191
▁ன்னாள	-7192
▁பல்கல	-7193
▁பிட்ட	-7194
▁ருவரு	-7195
▁ுச்செ	-7196
▁்போம்	-7197
HA	-7198
IV	-7199
▁ह	-7200
ppe	-7201
rea	-7202
▁2:	-7203
▁CE	-7204
▁Hu	-7205
▁MI	-7206
▁bl	-7207
▁mb	-7208
▁up	-7209
▁ஈட	-7210
▁எவ	-7211
▁தஹ	-7212
▁104	-7213
▁113	-7214
▁119	-7215
▁15,	-7216
▁25%	-7217
▁Gov	-7218
▁Gre	-7219
▁IPL	-7220
▁Pre	-7221
▁lai	-7222
▁van	-7223
▁டங்	-7224
▁யமை	-7225
▁ூபா	-7226
▁ூலம	-7227
▁ெவ்	-7228
▁ோவை	-7229
▁்தட	-7230
▁்தல	-7231
▁்னீ	-7232
▁்றோ	-7233
▁cont	-7234
▁நூற்	-7235
▁யவர்	-7236
▁ரிப்	-7237
▁ாரும	-7238
▁ீர்ப	-7239
▁ெடுக	-7240
▁ையைய	-7241
▁ோர்க	-7242
▁World	-7243
▁ிக்கட	-7244
▁ெய்வத	-7245
▁்கட்ட	-7246
▁்தியா	-7247
AC	-7248
PI	-7249
oll	-7250
ore	-7251
▁(5	-7252
▁As	-7253
▁Gu	-7254
▁NC	-7255
▁Pu	-7256
▁Ru	-7257
▁SC	-7258
▁ac	-7259
▁sm	-7260
▁கப	-7261
▁ஜப	-7262
ourt	-7263
▁115	-7264
▁403	-7265
▁Che	-7266
▁Chi	-7267
▁Dis	-7268
▁ght	-7269
▁ord	-7270
▁உல்	-7271
▁டோர	-7272
▁யாப	-7273
▁ரைத	-7274
▁ழலி	-7275
▁ாகவ	-7276
▁samy	-7277
▁சாரம	-7278
▁டையா	-7279
▁டோம்	-7280
▁ட்டத	-7281
▁தினா	-7282
▁நிலம	-7283
▁ப்பீ	-7284
▁மாவட	-7285
▁லைமை	-7286
▁ளின்	-7287
▁வீதம	-7288
▁Cards	-7289
▁ந்திக	-7290
▁றையின	-7291
▁ாய்க்	-7292
▁ிடையா	-7293
▁ிருச்	-7294
▁ேம்பட	-7295
▁ையைப்	-7296
DS	-7297
jp	-7298
ink	-7299
int	-7300
ram	-7301
▁Ce	-7302
▁Cu	-7303
▁IT	-7304
▁Ju	-7305
▁ND	-7306
▁NE	-7307
▁OT	-7308
▁Sm	-7309
▁il	-7310
▁po	-7311
▁pu	-7312
▁ur	-7313
▁ளோ	-7314
▁4.5	-7315
▁GPT	-7316
▁Mar	-7317
▁Med	-7318
▁are	-7319
▁ber	-7320
▁cha	-7321
▁cou	-7322
▁spe	-7323
▁கவல	-7324
▁டித	-7325
▁பண்	-7326
▁மொத	-7327
▁வற்	-7328
▁ஹக்	-7329
▁ெங்	-7330
▁ேகர	-7331
▁்கத	-7332
▁from	-7333
▁that	-7334
▁னவர்	-7335
▁லியு	-7336
▁வலிய	-7337
▁வுக்	-7338
▁ான்ம	-7339
▁ிசார	-7340
▁ிறேன	-7341
▁்கல்	-7342
▁்தல்	-7343
▁்துவ	-7344
▁்பது	-7345
▁்போர	-7346
▁Exclu	-7347
▁Vijay	-7348
▁tamil	-7349
▁திரம்	-7350
▁த்துக	-7351
▁ாடிக்	-7352
▁ாட்டா	-7353
▁ிதத்த	-7354
▁ும்பி	-7355
▁்புத்	-7356
DF	-7357
be	-7358
im	-7359
▁­	-7360
ank	-7361
era	-7362
ero	-7363
ory	-7364
▁AN	-7365
▁Ku	-7366
▁My	-7367
▁QR	-7368
▁pm	-7369
▁sy	-7370
▁கஷ	-7371
▁கஸ	-7372
▁னப	-7373
▁பந	-7374
▁ஹை	-7375
▁ைஞ	-7376
omen	-7377
▁116	-7378
▁142	-7379
▁280	-7380
▁RCB	-7381
▁Spe	-7382
▁WHO	-7383
▁bil	-7384
▁உக்	-7385
▁குந	-7386
▁செவ	-7387
▁தாண	-7388
▁தைக	-7389
▁பயோ	-7390
▁ருப	-7391
▁ள்ப	-7392
▁Pala	-7393
▁case	-7394
▁காத்	-7395
▁காரம	-7396
▁கியி	-7397
▁குமா	-7398
▁சாயி	-7399
▁டியர	-7400
▁த்தத	-7401
▁னதாக	-7402
▁ன்றன	-7403
▁ய்வா	-7404
▁ிரட்	-7405
▁ுகன்	-7406
▁்கைய	-7407
▁்தலை	-7408
▁்வில	-7409
▁happe	-7410
▁திகம்	-7411
▁ன்மைய	-7412
▁வுகளை	-7413
▁ுன்னே	-7414
▁ெரியவ	-7415
FA	-7416
FI	-7417
IS	-7418
ju	-7419
ya	-7420
கோ	-7421
▁े	-7422
▁	-7423
ali	-7424
oma	-7425
▁(8	-7426
▁AF	-7427
▁Au	-7428
▁BO	-7429
▁EC	-7430
▁Le	-7431
▁On	-7432
▁Or	-7433
▁PS	-7434
▁ld	-7435
▁om	-7436
▁ஜல	-7437
▁யப	-7438
▁11,	-7439
▁114	-7440
▁145	-7441
▁155	-7442
▁220	-7443
▁24,	-7444
▁Off	-7445
▁bjp	-7446
▁chi	-7447
▁gra	-7448
▁அபே	-7449
▁ஒய்	-7450
▁ஓடு	-7451
▁கனக	-7452
▁சேஷ	-7453
▁துத	-7454
▁தேக	-7455
▁தேத	-7456
▁தோஷ	-7457
▁னரி	-7458
▁ய்ந	-7459
▁ரகு	-7460
▁வலய	-7461
▁வாம	-7462
▁ாரத	-7463
▁ுகி	-7464
▁ொகு	-7465
▁ோசம	-7466
▁ோதர	-7467
▁ோற்	-7468
▁meet	-7469
▁work	-7470
▁டிச்	-7471
▁ட்டப	-7472
▁ணித்	-7473
▁தியர	-7474
▁மிழர	-7475
▁முக்	-7476
▁யவில	-7477
▁ரணம்	-7478
▁ாபாத	-7479
▁ிலாக	-7480
▁Edapp	-7481
▁INDIA	-7482
▁சந்தே	-7483
▁ரியும	-7484
▁விகள்	-7485
▁ைக்கழ	-7486
▁்படும	-7487
EA	-7488
mo	-7489
▁ी	-7490
ams	-7491
ick	-7492
டம்	-7493
▁(4	-7494
▁AM	-7495
▁Du	-7496
▁ED	-7497
▁EV	-7498
▁FB	-7499
▁GO	-7500
▁Ha	-7501
▁MP	-7502
▁MS	-7503
▁SH	-7504
▁Up	-7505
▁ke	-7506
▁pe	-7507
▁கய	-7508
▁‛‛	-7509
ervi	-7510
▁103	-7511
▁107	-7512
▁128	-7513
▁165	-7514
▁19,	-7515
▁30,	-7516
▁All	-7517
▁Day	-7518
▁MLA	-7519
▁One	-7520
▁Thi	-7521
▁ret	-7522
▁tha	-7523
▁ure	-7524
▁way	-7525
▁who	-7526
▁அவ்	-7527
▁ஊதா	-7528
▁கோத	-7529
▁ஜூல	-7530
▁போற	-7531
▁ரபல	-7532
▁ிசன	-7533
▁்கீ	-7534
▁்தூ	-7535
▁Revi	-7536
▁arre	-7537
▁part	-7538
▁tics	-7539
▁பணிய	-7540
▁யிரு	-7541
▁ரிகை	-7542
▁ரிசன	-7543
▁றிப்	-7544
▁ளிக்	-7545
▁வழிக	-7546
▁ாய்ச	-7547
▁ேட்க	-7548
▁்சின	-7549
▁்தால	-7550
▁்னால	-7551
▁்பூச	-7552
▁க்கீட	-7553
▁க்தர்	-7554
▁ங்கிய	-7555
▁பையில	-7556
▁ய்வதற	-7557
▁ருச்ச	-7558
▁ளிடம்	-7559
▁ிசாரி	-7560
▁்தில்	-7561
ES	-7562
IP	-7563
NG	-7564
du	-7565
gh	-7566
gy	-7567
hu	-7568
▁ं	-7569
▁त	-7570
ame	-7571
ami	-7572
aya	-7573
ert	-7574
ish	-7575
▁6%	-7576
▁6-	-7577
▁Ag	-7578
▁Aw	-7579
▁DA	-7580
▁Jo	-7581
▁Nu	-7582
▁PC	-7583
▁SS	-7584
▁UA	-7585
▁US	-7586
▁da	-7587
▁ey	-7588
▁ut	-7589
▁ve	-7590
▁we	-7591
▁ஊட	-7592
▁ஒன	-7593
▁டஸ	-7594
▁மழ	-7595
▁ளற	-7596
▁வப	-7597
witt	-7598
▁106	-7599
▁11)	-7600
▁111	-7601
▁12,	-7602
▁152	-7603
▁163	-7604
▁173	-7605
▁181	-7606
▁190	-7607
▁2-3	-7608
▁230	-7609
▁490	-7610
▁Ana	-7611
▁Big	-7612
▁Exp	-7613
▁ity	-7614
▁nan	-7615
▁nch	-7616
▁ney	-7617
▁not	-7618
▁அந்	-7619
▁ஆமை	-7620
▁உலை	-7621
▁உஷா	-7622
▁கச்	-7623
▁நட்	-7624
▁ம்த	-7625
▁றைப	-7626
▁லமா	-7627
▁ொங்	-7628
▁ோதல	-7629
▁ோரு	-7630
▁Rese	-7631
▁book	-7632
▁line	-7633
▁supp	-7634
▁கண்க	-7635
▁தண்ண	-7636
▁தாவத	-7637
▁துகள	-7638
▁தேசி	-7639
▁ந்தப	-7640
▁ராத்	-7641
▁ாமிய	-7642
▁ியமா	-7643
▁ிரைப	-7644
▁ுவரி	-7645
▁ொடக்	-7646
▁பங்கள	-7647
▁ப்பாற	-7648
▁மகிழ்	-7649
▁ம்புக	-7650
▁றைப்ப	-7651
▁ார்ப்	-7652
▁ாற்றி	-7653
▁ிர்ச்	-7654
▁ுன்னா	-7655
DP	-7656
EL	-7657
IR	-7658
▁व	-7659
▁ो	-7660
ati	-7661
eni	-7662
old	-7663
▁-2	-7664
▁8.	-7665
▁Mi	-7666
▁NA	-7667
▁NS	-7668
▁Op	-7669
▁SL	-7670
▁ca	-7671
▁hu	-7672
▁id	-7673
▁im	-7674
▁jo	-7675
▁ss	-7676
anka	-7677
▁(3)	-7678
▁122	-7679
▁14,	-7680
▁177	-7681
▁650	-7682
▁Air	-7683
▁Ama	-7684
▁Ant	-7685
▁Kan	-7686
▁Pra	-7687
▁Red	-7688
▁Sri	-7689
▁ant	-7690
▁lli	-7691
▁mic	-7692
▁அவல	-7693
▁ஆஷா	-7694
▁டவர	-7695
▁ண்க	-7696
▁மேள	-7697
▁யப்	-7698
▁யுற	-7699
▁றைம	-7700
▁லித	-7701
▁ழப்	-7702
▁்தே	-7703
▁்பல	-7704
▁says	-7705
▁ship	-7706
▁டார்	-7707
▁ணைத்	-7708
▁னாதி	-7709
▁ன்னே	-7710
▁ரிடம	-7711
▁ிலம்	-7712
▁ேரில	-7713
▁்களே	-7714
▁்றார	-7715
▁Green	-7716
▁Women	-7717
▁க்காம	-7718
▁ட்டால	-7719
▁ஸ்லிம	-7720
▁ாலின்	-7721
▁ிமன்ற	-7722
▁ியம்ம	-7723
▁ிரிட்	-7724
▁ெய்யப	-7725
▁ோயிலி	-7726
▁்டினா	-7727
KS	-7728
gu	-7729
ll	-7730
sp	-7731
xt	-7732
▁ल	-7733
igh	-7734
rou	-7735
▁4%	-7736
▁6)	-7737
▁AR	-7738
▁BB	-7739
▁Be	-7740
▁Do	-7741
▁Dr	-7742
▁Fa	-7743
▁Lu	-7744
▁MA	-7745
▁WW	-7746
▁We	-7747
▁bi	-7748
▁cu	-7749
▁gu	-7750
▁my	-7751
▁sw	-7752
▁கஜ	-7753
▁கந	-7754
▁னட	-7755
▁மப	-7756
▁றட	-7757
sion	-7758
▁118	-7759
▁156	-7760
▁185	-7761
▁23,	-7762
▁25,	-7763
▁28,	-7764
▁6.5	-7765
▁95%	-7766
▁Cap	-7767
▁Cou	-7768
▁IAS	-7769
▁Mon	-7770
▁Nor	-7771
▁app	-7772
▁new	-7773
▁one	-7774
▁ora	-7775
▁org	-7776
▁ori	-7777
▁why	-7778
▁ஏஜ்	-7779
▁களோ	-7780
▁திம	-7781
▁ளூர	-7782
▁ாறா	-7783
▁ிவை	-7784
▁ோதன	-7785
▁்டக	-7786
▁Comp	-7787
▁High	-7788
▁Hind	-7789
▁Rain	-7790
▁pala	-7791
▁stal	-7792
▁tory	-7793
▁இதில	-7794
▁எழுப	-7795
▁கரில	-7796
▁ச்சந	-7797
▁டால்	-7798
▁ாதிப	-7799
▁ொல்க	-7800
▁்கம்	-7801
▁்டித	-7802
▁்வது	-7803
▁Award	-7804
▁ssion	-7805
▁குகள்	-7806
▁டர்பா	-7807
▁திரிக	-7808
▁த்ததா	-7809
▁ன்பதை	-7810
▁றியது	-7811
▁ிலையி	-7812
▁ிளையா	-7813
▁ெரிவி	-7814
▁ேகத்த	-7815
DO	-7816
PF	-7817
RO	-7818
WI	-7819
av	-7820
cu	-7821
ஹா	-7822
▁ग	-7823
▁द	-7824
IVE	-7825
ady	-7826
ale	-7827
amp	-7828
ile	-7829
lim	-7830
ong	-7831
red	-7832
▁-1	-7833
▁4)	-7834
▁5)	-7835
▁5-	-7836
▁7)	-7837
▁Em	-7838
▁Hy	-7839
▁La	-7840
▁NG	-7841
▁NO	-7842
▁PO	-7843
▁Pe	-7844
▁Si	-7845
▁Un	-7846
▁Ve	-7847
▁ai	-7848
▁bo	-7849
▁cy	-7850
▁hy	-7851
▁ki	-7852
▁mu	-7853
▁ow	-7854
▁pp	-7855
▁pr	-7856
▁ணத	-7857
▁யற	-7858
adha	-7859
▁1.3	-7860
▁1.4	-7861
▁1.6	-7862
▁1.8	-7863
▁112	-7864
▁12%	-7865
▁153	-7866
▁164	-7867
▁18,	-7868
▁182	-7869
▁And	-7870
▁IMF	-7871
▁Imp	-7872
▁Mad	-7873
▁Pan	-7874
▁Sho	-7875
▁Sol	-7876
▁Stu	-7877
▁Sur	-7878
▁Ter	-7879
▁che	-7880
▁cri	-7881
▁her	-7882
▁ous	-7883
▁raj	-7884
▁இரண	-7885
▁எள்	-7886
▁சமண	-7887
▁சோக	-7888
▁படவ	-7889
▁ம்க	-7890
▁றவு	-7891
▁றான	-7892
▁ுகன	-7893
▁ுரம	-7894
▁ைவா	-7895
▁ோதை	-7896
▁Maha	-7897
▁blic	-7898
▁கவுக	-7899
▁செல்	-7900
▁டிவு	-7901
▁றித்	-7902
▁ழுமை	-7903
▁ாசிர	-7904
▁ிகம்	-7905
▁ிடத்	-7906
▁்படவ	-7907
▁court	-7908
▁அப்பட	-7909
▁கர்ப்	-7910
▁கார்த	-7911
▁க்கிழ	-7912
▁டினார	-7913
▁ட்சம்	-7914
▁திபர்	-7915
▁தியும	-7916
▁தேசத்	-7917
▁த்துத	-7918
▁பிரதே	-7919
▁ம்பெற	-7920
▁ருகின	-7921
▁ள்ளார	-7922
▁ழுவது	-7923
▁வாய்ப	-7924
▁ேசினா	-7925
▁ேலும்	-7926
▁ைத்து	-7927
▁்சியா	-7928
BS	-7929
EN	-7930
IO	-7931
MA	-7932
fi	-7933
pt	-7934
ௌன	-7935
▁>	-7936
▁य	-7937
irl	-7938
ist	-7939
▁-3	-7940
▁1/	-7941
▁8)	-7942
▁ES	-7943
▁IV	-7944
▁Ja	-7945
▁MO	-7946
▁No	-7947
▁Vo	-7948
▁ck	-7949
▁ga	-7950
▁so	-7951
▁எள	-7952
▁ஏன	-7953
▁சச	-7954
▁டப	-7955
▁றோ	-7956
▁வஹ	-7957
▁126	-7958
▁129	-7959
▁134	-7960
▁141	-7961
▁151	-7962
▁16,	-7963
▁161	-7964
▁20,	-7965
▁29)	-7966
▁AUS	-7967
▁Bha	-7968
▁CEO	-7969
▁Cri	-7970
▁DNA	-7971
▁Dra	-7972
▁Kar	-7973
▁Not	-7974
▁Pay	-7975
▁RRR	-7976
▁Sha	-7977
▁age	-7978
▁att	-7979
▁end	-7980
▁pho	-7981
▁pri	-7982
▁ron	-7983
▁tes	-7984
▁uri	-7985
▁wat	-7986
▁இச்	-7987
▁ஈத்	-7988
▁ஈஸ்	-7989
▁எவ்	-7990
▁ஒப்	-7991
▁ஒர்	-7992
▁மௌன	-7993
▁லவி	-7994
▁ழிக	-7995
▁வொர	-7996
▁ாகத	-7997
▁ாணவ	-7998
▁ிண்	-7999
▁ுவோ	-8000
▁்டம	-8001
▁்னெ	-8002
▁Boss	-8003
▁Cent	-8004
▁Engi	-8005
▁Inst	-8006
▁Ravi	-8007
▁Scie	-8008
▁arch	-8009
▁been	-8010
▁bili	-8011
▁chen	-8012
▁gene	-8013
▁next	-8014
▁scho	-8015
▁stra	-8016
▁சுமா	-8017
▁தியா	-8018
▁ய்தி	-8019
▁ளக்க	-8020
▁ிடப்	-8021
▁ிபாட	-8022
▁ிராவ	-8023
▁ுன்வ	-8024
▁ுயன்	-8025
▁ெறுவ	-8026
▁்கது	-8027
▁்லிம	-8028
▁Story	-8029
▁Twitt	-8030
▁ifica	-8031
▁உறவின	-8032
▁குள்ள	-8033
▁தண்ணீ	-8034
▁ரணமாக	-8035
▁லியில	-8036
▁ேரத்த	-8037
LE	-8038
MS	-8039
PM	-8040
bu	-8041
fu	-8042
mu	-8043
su	-8044
wa	-8045
▁ब	-8046
val	-8047
▁"2	-8048
▁(7	-8049
▁AT	-8050
▁Ap	-8051
▁At	-8052
▁DR	-8053
▁MK	-8054
▁Mr	-8055
▁Ta	-8056
▁`1	-8057
▁ah	-8058
▁ci	-8059
▁cl	-8060
▁gn	-8061
▁ஈழ	-8062
▁ஐந	-8063
▁லஹ	-8064
▁ஷூ	-8065
irst	-8066
pera	-8067
▁10)	-8068
▁13,	-8069
▁133	-8070
▁162	-8071
▁17,	-8072
▁171	-8073
▁198	-8074
▁2.3	-8075
▁2.4	-8076
▁21,	-8077
▁215	-8078
▁224	-8079
▁225	-8080
▁25)	-8081
▁26,	-8082
▁27%	-8083
▁31,	-8084
▁649	-8085
▁750	-8086
▁Can	-8087
▁Eco	-8088
▁MAN	-8089
▁Non	-8090
▁Rec	-8091
▁Tru	-8092
▁ain	-8093
▁dia	-8094
▁kar	-8095
▁let	-8096
▁lle	-8097
▁nor	-8098
▁nta	-8099
▁ory	-8100
▁pre	-8101
▁red	-8102
▁rep	-8103
▁rol	-8104
▁sec	-8105
▁sho	-8106
▁sue	-8107
▁tri	-8108
▁war	-8109
▁ஆங்	-8110
▁இரை	-8111
▁ஈகோ	-8112
▁ஏனோ	-8113
▁டைச	-8114
▁தடா	-8115
▁தபோ	-8116
▁தோட	-8117
▁பூத	-8118
▁பேண	-8119
▁மசி	-8120
▁யாண	-8121
▁ரச்	-8122
▁றதா	-8123
▁றிக	-8124
▁ஹோம	-8125
▁ியக	-8126
▁ெலு	-8127
▁Anna	-8128
▁Deep	-8129
▁FIFA	-8130
▁Face	-8131
▁Heal	-8132
▁LIVE	-8133
▁Offi	-8134
▁Pres	-8135
▁Tech	-8136
▁elec	-8137
▁gram	-8138
▁llar	-8139
▁ஒற்ற	-8140
▁கரமா	-8141
▁குரி	-8142
▁சர்க	-8143
▁டுதல	-8144
▁ததும	-8145
▁ன்கி	-8146
▁ன்பி	-8147
▁றுகி	-8148
▁ல்தா	-8149
▁ளார்	-8150
▁வாளர	-8151
▁ாராள	-8152
▁ிகைய	-8153
▁்கலா	-8154
▁்சில	-8155
▁்ளிக	-8156
▁்ளோம	-8157
▁Lanka	-8158
▁Opera	-8159
▁Proje	-8160
▁Servi	-8161
▁கோப்ப	-8162
▁சிகர்	-8163
▁ணையத்	-8164
▁தேர்த	-8165
▁மாதத்	-8166
▁ரச்சி	-8167
▁ரிவித	-8168
▁ிற்பன	-8169
▁ூழலில	-8170
AA	-8171
GC	-8172
HU	-8173
OR	-8174
ca	-8175
ci	-8176
te	-8177
um	-8178
▁£	-8179
ary	-8180
cha	-8181
ell	-8182
har	-8183
ilm	-8184
ion	-8185
iss	-8186
now	-8187
ody	-8188
ric	-8189
row	-8190
▁"1	-8191
▁--	-8192
▁00	-8193
▁2%	-8194
▁AC	-8195
▁AS	-8196
▁CC	-8197
▁CT	-8198
▁Eu	-8199
▁Hi	-8200
▁ID	-8201
▁ME	-8202
▁Ne	-8203
▁Of	-8204
▁RS	-8205
▁Tu	-8206
▁VS	-8207
▁Wa	-8208
▁dy	-8209
▁ie	-8210
▁ja	-8211
▁sl	-8212
▁wa	-8213
▁ஏல	-8214
▁ணட	-8215
▁ஹத	-8216
rand	-8217
▁(6)	-8218
▁1/2	-8219
▁127	-8220
▁131	-8221
▁157	-8222
▁168	-8223
▁174	-8224
▁18)	-8225
▁183	-8226
▁193	-8227
▁210	-8228
▁260	-8229
▁365	-8230
▁Are	-8231
▁Aut	-8232
▁Bar	-8233
▁Bra	-8234
▁EPS	-8235
▁FIR	-8236
▁Gen	-8237
▁Per	-8238
▁Sec	-8239
▁Shi	-8240
▁Tha	-8241
▁all	-8242
▁ard	-8243
▁ass	-8244
▁can	-8245
▁dge	-8246
▁exp	-8247
▁gem	-8248
▁han	-8249
▁ina	-8250
▁ist	-8251
▁les	-8252
▁nge	-8253
▁off	-8254
▁old	-8255
▁peo	-8256
▁pra	-8257
▁sed	-8258
▁thy	-8259
▁wom	-8260
▁ஓசை	-8261
▁நமோ	-8262
▁நின	-8263
▁பிஏ	-8264
▁மேக	-8265
▁ளார	-8266
▁ளில	-8267
▁வங்	-8268
▁வப்	-8269
▁வாண	-8270
▁ாச்	-8271
▁ிலர	-8272
▁ொரோ	-8273
▁்ளு	-8274
▁Asia	-8275
▁Bank	-8276
▁Deve	-8277
▁GOAT	-8278
▁Mode	-8279
▁Time	-8280
▁With	-8281
▁Work	-8282
▁comp	-8283
▁life	-8284
▁logy	-8285
▁ndra	-8286
▁over	-8287
▁rict	-8288
▁sche	-8289
▁slim	-8290
▁ture	-8291
▁அறிக	-8292
▁ங்கப	-8293
▁டியு	-8294
▁தவிய	-8295
▁நாடா	-8296
▁படிக	-8297
▁மூன்	-8298
▁ற்பட	-8299
▁ாணிப	-8300
▁ிடுத	-8301
▁ுகார	-8302
▁ுவான	-8303
▁ுவாம	-8304
▁்தத்	-8305
▁்துட	-8306
▁்துப	-8307
▁்முற	-8308
▁Ameri	-8309
▁Hindu	-8310
▁Smart	-8311
▁Thiru	-8312
▁commi	-8313
▁count	-8314
▁த்திற	-8315
▁ந்தால	-8316
▁ந்துர	-8317
▁ாய்ச்	-8318
▁ாரிகள	-8319
▁ிகமாக	-8320
▁ுகளும	-8321
▁்கலாம	-8322
▁்ச்சை	-8323
BI	-8324
FT	-8325
HI	-8326
PL	-8327
WA	-8328
YA	-8329
sc	-8330
வட	-8331
▁ज	-8332
▁ங	-8333
▁௦	-8334
ade	-8335
chi	-8336
eek	-8337
igi	-8338
ott	-8339
usb	-8340
▁",	-8341
▁(9	-8342
▁7-	-8343
▁9,	-8344
▁Ab	-8345
▁Bi	-8346
▁CN	-8347
▁Cl	-8348
▁Cy	-8349
▁DE	-8350
▁DS	-8351
▁Fi	-8352
▁GT	-8353
▁IO	-8354
▁Ni	-8355
▁SE	-8356
▁SU	-8357
▁Sw	-8358
▁Ul	-8359
▁ii	-8360
▁ko	-8361
▁tw	-8362
▁za	-8363
▁இச	-8364
▁ஏர	-8365
▁டட	-8366
▁டத	-8367
▁னஹ	-8368
▁ளள	-8369
alla	-8370
ours	-8371
outh	-8372
roup	-8373
▁(5)	-8374
▁(8)	-8375
▁13)	-8376
▁136	-8377
▁14%	-8378
▁147	-8379
▁149	-8380
▁154	-8381
▁17)	-8382
▁178	-8383
▁19)	-8384
▁2-1	-8385
▁2.2	-8386
▁2.7	-8387
▁205	-8388
▁207	-8389
▁22,	-8390
▁221	-8391
▁256	-8392
▁27,	-8393
▁3-4	-8394
▁3.2	-8395
▁340	-8396
▁850	-8397
▁Glo	-8398
▁INS	-8399
▁Oly	-8400
▁Par	-8401
▁Pow	-8402
▁Ran	-8403
▁Ret	-8404
▁TVS	-8405
▁WWE	-8406
▁ari	-8407
▁bit	-8408
▁cho	-8409
▁col	-8410
▁ert	-8411
▁his	-8412
▁ics	-8413
▁nes	-8414
▁our	-8415
▁pur	-8416
▁sha	-8417
▁tro	-8418
▁tta	-8419
▁ver	-8420
▁ஆமா	-8421
▁காந	-8422
▁சனா	-8423
▁துப	-8424
▁நேச	-8425
▁பலே	-8426
▁பளு	-8427
▁பவா	-8428
▁யரா	-8429
▁யாற	-8430
▁யுவ	-8431
▁ரென	-8432
▁றின	-8433
▁லைப	-8434
▁ாலக	-8435
▁ிமன	-8436
▁்னை	-8437
▁Bigg	-8438
▁Cong	-8439
▁Dire	-8440
▁Inte	-8441
▁Mana	-8442
▁Sasi	-8443
▁Save	-8444
▁Sing	-8445
▁Test	-8446
▁Univ	-8447
▁back	-8448
▁form	-8449
▁have	-8450
▁join	-8451
▁logi	-8452
▁ness	-8453
▁tran	-8454
▁yout	-8455
▁சர்ச	-8456
▁டாவத	-8457
▁டுக்	-8458
▁நகரி	-8459
▁பணத்	-8460
▁பதிக	-8461
▁யாகவ	-8462
▁ரணத்	-8463
▁ளிர்	-8464
▁ியாற	-8465
▁்வரா	-8466
▁forma	-8467
▁tical	-8468
▁கிறேன	-8469
▁கைக்க	-8470
▁சட்டப	-8471
▁தாரம்	-8472
▁ன்னர்	-8473
▁படும்	-8474
▁பொதுச	-8475
▁ப்புத	-8476
▁மிரட்	-8477
▁முன்ப	-8478
▁ுன்னி	-8479
▁ேட்பா	-8480
GE	-8481
ID	-8482
KR	-8483
LO	-8484
ME	-8485
MI	-8486
PP	-8487
RC	-8488
ef	-8489
ki	-8490
▁श	-8491
ERT	-8492
asa	-8493
asu	-8494
ere	-8495
ett	-8496
ild	-8497
lea	-8498
lue	-8499
oci	-8500
ole	-8501
ppy	-8502
que	-8503
qui	-8504
போத	-8505
▁1%	-8506
▁3%	-8507
▁DC	-8508
▁EX	-8509
▁GS	-8510
▁KU	-8511
▁Ko	-8512
▁MB	-8513
▁NT	-8514
▁PT	-8515
▁Wi	-8516
▁ap	-8517
▁cr	-8518
▁cs	-8519
▁ef	-8520
▁ju	-8521
▁lu	-8522
▁mk	-8523
▁pt	-8524
▁rn	-8525
▁vo	-8526
▁ஆம	-8527
▁ரஊ	-8528
ouse	-8529
▁(4)	-8530
▁1.2	-8531
▁132	-8532
▁139	-8533
▁176	-8534
▁179	-8535
▁186	-8536
▁187	-8537
▁192	-8538
▁199	-8539
▁21)	-8540
▁213	-8541
▁226	-8542
▁28)	-8543
▁29,	-8544
▁294	-8545
▁3.8	-8546
▁30)	-8547
▁312	-8548
▁320	-8549
▁Art	-8550
▁Boy	-8551
▁Car	-8552
▁Cit	-8553
▁Hor	-8554
▁IPC	-8555
▁Kol	-8556
▁Mov	-8557
▁OBC	-8558
▁OTP	-8559
▁Pen	-8560
▁Rah	-8561
▁THE	-8562
▁TWI	-8563
▁Who	-8564
▁ack	-8565
▁ara	-8566
▁cia	-8567
▁gal	-8568
▁ies	-8569
▁itu	-8570
▁lla	-8571
▁nal	-8572
▁ncy	-8573
▁nel	-8574
▁net	-8575
▁nou	-8576
▁nth	-8577
▁stu	-8578
▁tis	-8579
▁zed	-8580
▁zon	-8581
▁அதோ	-8582
▁ஆஹா	-8583
▁ஊரு	-8584
▁ஏகே	-8585
▁சதா	-8586
▁வைப	-8587
▁ஹரே	-8588
▁ீசா	-8589
▁ுசெ	-8590
▁ூச்	-8591
▁ொகை	-8592
▁்தை	-8593
▁்லப	-8594
▁Anti	-8595
▁Cont	-8596
▁Fina	-8597
▁Home	-8598
▁Khan	-8599
▁Mari	-8600
▁Medi	-8601
▁Raja	-8602
▁Resu	-8603
▁Scho	-8604
▁Show	-8605
▁TTER	-8606
▁admk	-8607
▁dist	-8608
▁girl	-8609
▁http	-8610
▁pati	-8611
▁ries	-8612
▁காரி	-8613
▁கினா	-8614
▁சியம	-8615
▁தபோத	-8616
▁தியம	-8617
▁திலே	-8618
▁தையு	-8619
▁பல்வ	-8620
▁மீதா	-8621
▁ருந்	-8622
▁ியைய	-8623
▁ிரம்	-8624
▁ீர்த	-8625
▁ுகத்	-8626
▁ுடிக	-8627
▁ெளிய	-8628
▁ேரடி	-8629
▁்செல	-8630
▁்புள	-8631
▁்ளிய	-8632
▁Colle	-8633
▁Commi	-8634
▁First	-8635
▁Super	-8636
▁இருக்	-8637
▁கார்க	-8638
▁கையின	-8639
▁ச்சத்	-8640
▁திகள்	-8641
▁ன்னுட	-8642
▁யாமல்	-8643
▁ளிகள்	-8644
▁ளுக்க	-8645
▁ிரைப்	-8646
▁ுந்தத	-8647
CS	-8648
DC	-8649
FF	-8650
FP	-8651
LI	-8652
LL	-8653
MC	-8654
RH	-8655
TC	-8656
WS	-8657
ak	-8658
em	-8659
gg	-8660
ani	-8661
ata	-8662
jab	-8663
▁"3	-8664
▁+1	-8665
▁8:	-8666
▁AD	-8667
▁BS	-8668
▁CR	-8669
▁Fo	-8670
▁LA	-8671
▁LS	-8672
▁MG	-8673
▁MQ	-8674
▁NH	-8675
▁Ob	-8676
▁PI	-8677
▁PR	-8678
▁RO	-8679
▁SD	-8680
▁SO	-8681
▁ev	-8682
▁ff	-8683
▁fo	-8684
▁os	-8685
▁ue	-8686
▁ze	-8687
▁ணப	-8688
▁றள	-8689
▁லந	-8690
▁ஷஸ	-8691
▁0.5	-8692
▁12)	-8693
▁124	-8694
▁13%	-8695
▁14)	-8696
▁146	-8697
▁148	-8698
▁159	-8699
▁167	-8700
▁169	-8701
▁172	-8702
▁196	-8703
▁2.9	-8704
▁203	-8705
▁206	-8706
▁228	-8707
▁235	-8708
▁270	-8709
▁275	-8710
▁299	-8711
▁302	-8712
▁35%	-8713
▁376	-8714
▁4.4	-8715
▁4.7	-8716
▁420	-8717
▁489	-8718
▁50,	-8719
▁75%	-8720
▁99%	-8721
▁Bri	-8722
▁COM	-8723
▁Ele	-8724
▁Fli	-8725
▁Fou	-8726
▁Hot	-8727
▁Inc	-8728
▁Inf	-8729
▁LIN	-8730
▁Lab	-8731
▁Net	-8732
▁ani	-8733
▁ask	-8734
▁bet	-8735
▁bir	-8736
▁cle	-8737
▁dio	-8738
▁ell	-8739
▁elv	-8740
▁fic	-8741
▁gen	-8742
▁gle	-8743
▁hil	-8744
▁ian	-8745
▁lar	-8746
▁med	-8747
▁nga	-8748
▁que	-8749
▁san	-8750
▁son	-8751
▁ube	-8752
▁yan	-8753
▁அன்	-8754
▁ஓலை	-8755
▁கரக	-8756
▁களா	-8757
▁சயன	-8758
▁சோள	-8759
▁ஜனக	-8760
▁டச்	-8761
▁டதா	-8762
▁ணைக	-8763
▁தலீ	-8764
▁துக	-8765
▁ரஊப	-8766
▁ரசர	-8767
▁றச்	-8768
▁வதே	-8769
▁்ளை	-8770
▁Book	-8771
▁Capt	-8772
▁Code	-8773
▁Digi	-8774
▁Euro	-8775
▁Food	-8776
▁Gand	-8777
▁Gene	-8778
▁Glob	-8779
▁Lady	-8780
▁Mani	-8781
▁Nare	-8782
▁Orga	-8783
▁Port	-8784
▁Rama	-8785
▁Rule	-8786
▁Sent	-8787
▁govt	-8788
▁land	-8789
▁orts	-8790
▁pres	-8791
▁spec	-8792
▁this	-8793
▁tiva	-8794
▁ஏராள	-8795
▁கவல்	-8796
▁சியு	-8797
▁ண்கா	-8798
▁தியு	-8799
▁துச்	-8800
▁ந்தெ	-8801
▁னநாய	-8802
▁யாரி	-8803
▁றுக்	-8804
▁றையி	-8805
▁ளியா	-8806
▁ழில்	-8807
▁ாதைய	-8808
▁ாரித	-8809
▁ாலைய	-8810
▁ாளரு	-8811
▁ியுற	-8812
▁ிருஷ	-8813
▁ுதிப	-8814
▁ெயற்	-8815
▁ொதுக	-8816
▁்கவி	-8817
▁்காம	-8818
▁்குப	-8819
▁்தில	-8820
▁Chief	-8821
▁Happy	-8822
▁Olymp	-8823
▁Share	-8824
▁Solar	-8825
▁Space	-8826
▁Video	-8827
▁slams	-8828
▁stice	-8829
▁காரர்	-8830
▁கொரோன	-8831
▁க்குப	-8832
▁சார்ந	-8833
▁சேர்க	-8834
▁ண்டுப	-8835
▁தலில்	-8836
▁த்துட	-8837
▁ன்படி	-8838
▁பாலிய	-8839
▁ப்பாள	-8840
▁மத்தி	-8841
▁றையாக	-8842
▁ால்தா	-8843
▁ிர்கா	-8844
▁ுத்தத	-8845
▁ொடக்க	-8846
▁்தார்	-8847
▁்விக்	-8848
CL	-8849
DI	-8850
FO	-8851
FX	-8852
IM	-8853
RT	-8854
UN	-8855
UT	-8856
bi	-8857
ec	-8858
vt	-8859
zi	-8860
▁भ	-8861
▁ू	-8862
▁•	-8863
ING	-8864
ach	-8865
ane	-8866
arm	-8867
eng	-8868
ham	-8869
ord	-8870
▁""	-8871
▁2"	-8872
▁3)	-8873
▁5:	-8874
▁6:	-8875
▁7%	-8876
▁8%	-8877
▁AB	-8878
▁CA	-8879
▁CH	-8880
▁Ec	-8881
▁Im	-8882
▁LE	-8883
▁OF	-8884
▁ON	-8885
▁OS	-8886
▁PB	-8887
▁So	-8888
▁Ya	-8889
▁Yo	-8890
▁Yu	-8891
▁au	-8892
▁bu	-8893
▁ny	-8894
▁od	-8895
▁ul	-8896
▁के	-8897
▁அற	-8898
▁நத	-8899
▁னன	-8900
▁யஹ	-8901
lack	-8902
▁1.7	-8903
▁143	-8904
▁16)	-8905
▁18%	-8906
▁197	-8907
▁20)	-8908
▁201	-8909
▁212	-8910
▁214	-8911
▁238	-8912
▁243	-8913
▁245	-8914
▁251	-8915
▁287	-8916
▁288	-8917
▁3-0	-8918
▁3.7	-8919
▁33%	-8920
▁43%	-8921
▁506	-8922
▁6.4	-8923
▁6.8	-8924
▁7.1	-8925
▁720	-8926
▁8.5	-8927
▁85%	-8928
▁Auc	-8929
▁BOO	-8930
▁Cup	-8931
▁Del	-8932
▁Dep	-8933
▁Emp	-8934
▁Ent	-8935
▁Geo	-8936
▁IPO	-8937
▁KKR	-8938
▁LSG	-8939
▁NIA	-8940
▁PAK	-8941
▁Pet	-8942
▁RSS	-8943
▁TAN	-8944
▁Tri	-8945
▁UAE	-8946
▁UPS	-8947
▁bia	-8948
▁bra	-8949
▁cra	-8950
▁dhi	-8951
▁dra	-8952
▁emp	-8953
▁gar	-8954
▁hal	-8955
▁met	-8956
▁nad	-8957
▁nia	-8958
▁pen	-8959
▁per	-8960
▁pet	-8961
▁pic	-8962
▁rat	-8963
▁rec	-8964
▁ris	-8965
▁ual	-8966
▁uni	-8967
▁was	-8968
▁ஆணவ	-8969
▁ஆணி	-8970
▁ஆளை	-8971
▁இழை	-8972
▁ஊறு	-8973
▁எவை	-8974
▁ஓசி	-8975
▁கயா	-8976
▁கறை	-8977
▁சதய	-8978
▁டோம	-8979
▁ணமா	-8980
▁நமத	-8981
▁னைவ	-8982
▁பயி	-8983
▁பறை	-8984
▁மந்	-8985
▁யஷஸ	-8986
▁ளமா	-8987
▁வண்	-8988
▁்தவ	-8989
▁்யப	-8990
▁Assi	-8991
▁Asso	-8992
▁Back	-8993
▁Case	-8994
▁Dhan	-8995
▁Form	-8996
▁Fran	-8997
▁Fund	-8998
▁Grow	-8999
▁NEET	-9000
▁Open	-9001
▁Peri	-9002
▁Poll	-9003
▁Post	-9004
▁Rail	-9005
▁Raji	-9006
▁Regi	-9007
▁Siva	-9008
▁Soci	-9009
▁Spec	-9010
▁Sure	-9011
▁Tran	-9012
▁UAPA	-9013
▁Upda	-9014
▁Vira	-9015
▁Week	-9016
▁brea	-9017
▁cent	-9018
▁does	-9019
▁food	-9020
▁lain	-9021
▁pari	-9022
▁post	-9023
▁reme	-9024
▁shou	-9025
▁sing	-9026
▁sion	-9027
▁stan	-9028
▁time	-9029
▁tore	-9030
▁ttee	-9031
▁vika	-9032
▁year	-9033
▁சுகள	-9034
▁ணமாக	-9035
▁திரன	-9036
▁ன்றா	-9037
▁பாண்	-9038
▁போட்	-9039
▁ருமா	-9040
▁றைக்	-9041
▁ழித்	-9042
▁ிகளா	-9043
▁ியமி	-9044
▁ிவிக	-9045
▁ுவிக	-9046
▁ேகமா	-9047
▁்கிட	-9048
▁்படு	-9049
▁Apple	-9050
▁Black	-9051
▁Emera	-9052
▁Rahul	-9053
▁Sport	-9054
▁தண்டன	-9055
▁தன்னு	-9056
▁லத்தி	-9057
▁வதில்	-9058
▁விழுந	-9059
▁வெளிப	-9060
▁ிடிக்	-9061
▁ிரும்	-9062
▁ிர்வா	-9063
▁ிஸ்தா	-9064
▁ுகைப்	-9065
▁ூடும்	-9066
▁்பங்க	-9067
EM	-9068
FH	-9069
MR	-9070
PC	-9071
PO	-9072
PR	-9073
ba	-9074
gn	-9075
go	-9076
ko	-9077
ku	-9078
mb	-9079
ms	-9080
nc	-9081
ng	-9082
sa	-9083
ta	-9084
td	-9085
za	-9086
ஆக	-9087
சல	-9088
நோ	-9089
ICA	-9090
aid	-9091
air	-9092
eet	-9093
lus	-9094
ndu	-9095
▁(0	-9096
▁0.	-9097
▁1:	-9098
▁Ca	-9099
▁Cr	-9100
▁DH	-9101
▁DO	-9102
▁Da	-9103
▁Ey	-9104
▁Ho	-9105
▁IA	-9106
▁Je	-9107
▁KV	-9108
▁Ka	-9109
▁LO	-9110
▁Pi	-9111
▁Pr	-9112
▁Rh	-9113
▁UP	-9114
▁ak	-9115
▁ep	-9116
▁fi	-9117
▁fu	-9118
▁ns	-9119
▁nu	-9120
▁rs	-9121
▁rt	-9122
▁ud	-9123
▁ye	-9124
▁ஓத	-9125
▁ஜத	-9126
▁டள	-9127
▁பப	-9128
▁லஜ	-9129
▁ஹஜ	-9130
▁ஹஸ	-9131
▁ஹூ	-9132
▁ொண	-9133
▁ொத	-9134
hark	-9135
lima	-9136
reed	-9137
▁(9)	-9138
▁1-0	-9139
▁11%	-9140
▁123	-9141
▁158	-9142
▁189	-9143
▁2-0	-9144
▁219	-9145
▁22)	-9146
▁227	-9147
▁229	-9148
▁255	-9149
▁27)	-9150
▁28%	-9151
▁3.3	-9152
▁31)	-9153
▁310	-9154
▁318	-9155
▁322	-9156
▁380	-9157
▁4.6	-9158
▁480	-9159
▁543	-9160
▁55%	-9161
▁575	-9162
▁6-7	-9163
▁662	-9164
▁7-8	-9165
▁840	-9166
▁AFG	-9167
▁AFP	-9168
▁Aji	-9169
▁Amb	-9170
▁BRI	-9171
▁Bio	-9172
▁Cro	-9173
▁Dho	-9174
▁FSS	-9175
▁Her	-9176
▁ICC	-9177
▁IDF	-9178
▁IIT	-9179
▁Kri	-9180
▁Lau	-9181
▁Ltd	-9182
▁Mah	-9183
▁May	-9184
▁Mic	-9185
▁NAT	-9186
▁NDA	-9187
▁Out	-9188
▁PFI	-9189
▁PSC	-9190
▁Pat	-9191
▁RAJ	-9192
▁SAN	-9193
▁Sup	-9194
▁Tho	-9195
▁VFX	-9196
▁Web	-9197
▁art	-9198
▁bab	-9199
▁bal	-9200
▁bas	-9201
▁cor	-9202
▁dec	-9203
▁ery	-9204
▁ess	-9205
▁fou	-9206
▁get	-9207
▁iga	-9208
▁lay	-9209
▁led	-9210
▁may	-9211
▁nci	-9212
▁ops	-9213
▁pse	-9214
▁rov	-9215
▁she	-9216
▁tai	-9217
▁tch	-9218
▁ten	-9219
▁too	-9220
▁tus	-9221
▁yam	-9222
▁yar	-9223
▁அகல	-9224
▁அதா	-9225
▁அபய	-9226
▁அலற	-9227
▁ஆளா	-9228
▁இஷா	-9229
▁ஈவி	-9230
▁உறை	-9231
▁எசல	-9232
▁ஏடு	-9233
▁ஏது	-9234
▁ஓடை	-9235
▁ஓயா	-9236
▁களவ	-9237
▁சமூ	-9238
▁ஜங்	-9239
▁ணவி	-9240
▁தட்	-9241
▁நன்	-9242
▁நவ்	-9243
▁னுப	-9244
▁னேற	-9245
▁பலா	-9246
▁பவள	-9247
▁மடு	-9248
▁மலர	-9249
▁யஷ்	-9250
▁ளிவ	-9251
▁வழக	-9252
▁வுண	-9253
▁ாறி	-9254
▁ிபா	-9255
▁ிழு	-9256
▁ுந்	-9257
▁ூனி	-9258
▁ெலவ	-9259
▁ையி	-9260
▁ொடு	-9261
▁ோவி	-9262
▁்நி	-9263
▁Care	-9264
▁Coro	-9265
▁Dist	-9266
▁Film	-9267
▁Free	-9268
▁Gold	-9269
▁Isra	-9270
▁Jaya	-9271
▁Kash	-9272
▁Lead	-9273
▁Life	-9274
▁Limi	-9275
▁Line	-9276
▁Madu	-9277
▁Mast	-9278
▁PBKS	-9279
▁Pand	-9280
▁Park	-9281
▁Part	-9282
▁Sche	-9283
▁Seem	-9284
▁Shar	-9285
▁Star	-9286
▁Stre	-9287
▁Syst	-9288
▁Team	-9289
▁Tiru	-9290
▁UPSC	-9291
▁Ulti	-9292
▁Veri	-9293
▁Zone	-9294
▁body	-9295
▁comm	-9296
▁ctor	-9297
▁high	-9298
▁kill	-9299
▁know	-9300
▁nama	-9301
▁news	-9302
▁port	-9303
▁rain	-9304
▁rash	-9305
▁reau	-9306
▁rese	-9307
▁rome	-9308
▁spee	-9309
▁talk	-9310
▁wood	-9311
▁ஆபத்	-9312
▁டவடி	-9313
▁டாலி	-9314
▁தல்வ	-9315
▁தேசத	-9316
▁னிடம	-9317
▁படுவ	-9318
▁ாரணம	-9319
▁ிரப்	-9320
▁ிளைவ	-9321
▁ுபடு	-9322
▁ுறப்	-9323
▁்கலை	-9324
▁்நில	-9325
▁்றோர	-9326
▁Confe	-9327
▁Court	-9328
▁Delhi	-9329
▁Exper	-9330
▁Group	-9331
▁Insti	-9332
▁Madra	-9333
▁Movie	-9334
▁NCERT	-9335
▁South	-9336
▁Surve	-9337
▁party	-9338
▁price	-9339
▁swami	-9340
▁கக்கூ	-9341
▁க்கமா	-9342
▁ங்குவ	-9343
▁டல்கள	-9344
▁தவிகள	-9345
▁த்துற	-9346
▁றத்தி	-9347
▁விக்க	-9348
▁ாகுல்	-9349
▁ிகாரி	-9350
▁ியிலி	-9351
▁ுதிக்	-9352
▁ொண்டி	-9353
▁்க்கட	-9354
▁்சாட்	-9355
▁்துடன	-9356
AP	-9357
BA	-9358
CO	-9359
DU	-9360
GA	-9361
HC	-9362
IE	-9363
RF	-9364
UR	-9365
bs	-9366
df	-9367
fa	-9368
no	-9369
op	-9370
vo	-9371
ym	-9372
ें	-9373
ஷி	-9374
▁~	-9375
▁°	-9376
▁ट	-9377
▁ા	-9378
▁	-9379
ASA	-9380
HAN	-9381
RNA	-9382
ana	-9383
ask	-9384
esi	-9385
had	-9386
ich	-9387
iti	-9388
jor	-9389
oly	-9390
omb	-9391
orm	-9392
rai	-9393
xis	-9394
▁"4	-9395
▁0-	-9396
▁3'	-9397
▁4:	-9398
▁BR	-9399
▁Bl	-9400
▁CV	-9401
▁HD	-9402
▁IG	-9403
▁Ir	-9404
▁It	-9405
▁NV	-9406
▁NZ	-9407
▁Ph	-9408
▁Ri	-9409
▁SP	-9410
▁Sk	-9411
▁Ud	-9412
▁Wh	-9413
▁`5	-9414
▁bh	-9415
▁ee	-9416
▁fe	-9417
▁gi	-9418
▁gl	-9419
▁gy	-9420
▁ot	-9421
▁ou	-9422
▁ym	-9423
▁இஅ	-9424
▁இஇ	-9425
▁ஊற	-9426
▁ணக	-9427
▁தத	-9428
▁தஷ	-9429
▁பஜ	-9430
▁ஸட	-9431
▁ஸு	-9432
avin	-9433
lood	-9434
ovid	-9435
reat	-9436
▁(24	-9437
▁..?	-9438
▁1-1	-9439
▁1.1	-9440
▁15)	-9441
▁166	-9442
▁2.1	-9443
▁2.6	-9444
▁2.8	-9445
▁202	-9446
▁208	-9447
▁23.	-9448
▁242	-9449
▁249	-9450
▁254	-9451
▁26)	-9452
▁261	-9453
▁262	-9454
▁263	-9455
▁273	-9456
▁292	-9457
▁295	-9458
▁296	-9459
▁326	-9460
▁4.1	-9461
▁4.2	-9462
▁4.3	-9463
▁5.2	-9464
▁6.2	-9465
▁65%	-9466
▁7.6	-9467
▁950	-9468
▁ANI	-9469
▁Ano	-9470
▁Att	-9471
▁Bro	-9472
▁CNG	-9473
▁COV	-9474
▁Cho	-9475
▁EWS	-9476
▁End	-9477
▁III	-9478
▁Law	-9479
▁MGR	-9480
▁Mil	-9481
▁NIR	-9482
▁OTT	-9483
▁PAR	-9484
▁PMK	-9485
▁Pul	-9486
▁Rat	-9487
▁Rou	-9488
▁SEC	-9489
▁SRH	-9490
▁Sel	-9491
▁Sex	-9492
▁Squ	-9493
▁Sub	-9494
▁TER	-9495
▁Tab	-9496
▁Tea	-9497
▁UPI	-9498
▁Und	-9499
▁Vik	-9500
▁War	-9501
▁Why	-9502
▁air	-9503
▁ali	-9504
▁any	-9505
▁bio	-9506
▁car	-9507
▁cau	-9508
▁clu	-9509
▁dem	-9510
▁dow	-9511
▁ens	-9512
▁est	-9513
▁fit	-9514
▁gam	-9515
▁gan	-9516
▁ges	-9517
▁goi	-9518
▁imp	-9519
▁ise	-9520
▁law	-9521
▁lea	-9522
▁lin	-9523
▁mir	-9524
▁nde	-9525
▁ner	-9526
▁pla	-9527
▁ree	-9528
▁sen	-9529
▁tho	-9530
▁thu	-9531
▁top	-9532
▁ula	-9533
▁uru	-9534
▁val	-9535
▁में	-9536
▁ஆளே	-9537
▁இட்	-9538
▁ஈகை	-9539
▁ஊமை	-9540
▁ஏபி	-9541
▁ஓரே	-9542
▁கதற	-9543
▁கைல	-9544
▁சரத	-9545
▁சலே	-9546
▁சாண	-9547
▁சோம	-9548
▁டாட	-9549
▁தகர	-9550
▁தடய	-9551
▁ததை	-9552
▁தூப	-9553
▁தொண	-9554
▁னிஸ	-9555
▁பரத	-9556
▁மடி	-9557
▁மமக	-9558
▁ரகன	-9559
▁ரசன	-9560
▁ரதம	-9561
▁ரிக	-9562
▁றேன	-9563
▁ாணு	-9564
▁ியவ	-9565
▁ுகே	-9566
▁ுவக	-9567
▁்கக	-9568
▁்தக	-9569
▁Asse	-9570
▁Auth	-9571
▁Aval	-9572
▁BOOK	-9573
▁Best	-9574
▁Bill	-9575
▁Call	-9576
▁Cred	-9577
▁DRDO	-9578
▁Data	-9579
▁Demo	-9580
▁From	-9581
▁Guru	-9582
▁ICTA	-9583
▁Inve	-9584
▁Kera	-9585
▁King	-9586
▁Late	-9587
▁Link	-9588
▁MBBS	-9589
▁Mega	-9590
▁Mill	-9591
▁Pers	-9592
▁Rela	-9593
▁Repu	-9594
▁Russ	-9595
▁Sant	-9596
▁Seri	-9597
▁Shah	-9598
▁Viru	-9599
▁Waya	-9600
▁Will	-9601
▁edap	-9602
▁ende	-9603
▁fake	-9604
▁fice	-9605
▁give	-9606
▁hand	-9607
▁hist	-9608
▁ific	-9609
▁ital	-9610
▁late	-9611
▁like	-9612
▁love	-9613
▁mRNA	-9614
▁mode	-9615
▁ncil	-9616
▁rama	-9617
▁resi	-9618
▁resu	-9619
▁said	-9620
▁soon	-9621
▁stro	-9622
▁team	-9623
▁thro	-9624
▁tiru	-9625
▁vest	-9626
▁view	-9627
▁ward	-9628
▁ware	-9629
▁குச்	-9630
▁க்கழ	-9631
▁திகர	-9632
▁நடிக	-9633
▁னைவு	-9634
▁ப்பற	-9635
▁மிழி	-9636
▁மேலு	-9637
▁லலித	-9638
▁ளூர்	-9639
▁வேற்	-9640
▁ாடுக	-9641
▁ாரங்	-9642
▁ிடும	-9643
▁ிதமா	-9644
▁ியலி	-9645
▁ிரபல	-9646
▁ுகில	-9647
▁்காக	-9648
▁்குச	-9649
▁்படா	-9650
▁்பிட	-9651
▁Aadha	-9652
▁Alert	-9653
▁Chand	-9654
▁Chess	-9655
▁Child	-9656
▁China	-9657
▁Const	-9658
▁Force	-9659
▁Great	-9660
▁House	-9661
▁Indep	-9662
▁Media	-9663
▁Press	-9664
▁Train	-9665
▁Virat	-9666
▁break	-9667
▁crore	-9668
▁laint	-9669
▁neers	-9670
▁press	-9671
▁richi	-9672
▁காலத்	-9673
▁கியது	-9674
▁சியில	-9675
▁ந்தபோ	-9676
▁படுவத	-9677
▁மற்று	-9678
▁ம்தான	-9679
▁யாட்ட	-9680
▁றிவிட	-9681
▁றையும	-9682
▁விநாய	-9683
▁வெற்ற	-9684
▁ிகழ்ச	-9685
▁ுட்கள	-9686
▁்குறி	-9687
10	-9688
19	-9689
95	-9690
BD	-9691
CK	-9692
DE	-9693
EI	-9694
II	-9695
OD	-9696
PY	-9697
RB	-9698
TS	-9699
TV	-9700
TY	-9701
YC	-9702
my	-9703
os	-9704
pu	-9705
rt	-9706
sy	-9707
▁ए	-9708
▁ध	-9709
▁ु	-9710
ARS	-9711
▁	-9712
்	-9713
க	-9714
த	-9715
ி	-9716
ு	-9717
ர	-9718
ப	-9719
ட	-9720
ம	-9721
ா	-9722
வ	-9723
ல	-9724
ன	-9725
ை	-9726
ய	-9727
ற	-9728
ள	-9729
ச	-9730
ந	-9731
.	-9732
அ	-9733
ே	-9734
ண	-9735
இ	-9736
ெ	-9737
ோ	-9738
,	-9739
எ	-9740
ங	-9741
ொ	-9742
ழ	-9743
ீ	-9744
ூ	-9745
ஆ	-9746
உ	-9747
ஸ	-9748
ஜ	-9749
ஒ	-9750
0	-9751
2	-9752
1	-9753
ஏ	-9754
ஷ	-9755
"	-9756
-	-9757
5	-9758
3	-9759
ஹ	-9760
ஞ	-9761
:	-9762
4	-9763
?	-9764
ஓ	-9765
'	-9766
9	-9767
6	-9768
a	-9769
7	-9770
8	-9771
e	-9772
ஊ	-9773
)	-9774
(	-9775
!	-9776
ஐ	-9777
`	-9778
i	-9779
n	-9780
o	-9781
t	-9782
ஈ	-9783
ஃ	-9784
r	-9785
s	-9786
l	-9787
d	-9788
h	-9789
;	-9790
c	-9791
u	-9792
m	-9793
A	-9794
ௌ	-9795
S	-9796
p	-9797
C	-9798
I	-9799
T	-9800
g	-9801
P	-9802
y	-9803
M	-9804
B	-9805
%	-9806
N	-9807
D	-9808
R	-9809
v	-9810
k	-9811
E	-9812
w	-9813
f	-9814
b	-9815
O	-9816
/	-9817
G	-9818
L	-9819
‛	-9820
F	-9821
V	-9822
H	-9823
K	-9824
U	-9825
W	-9826
j	-9827
J	-9828
+	-9829
x	-9830
Y	-9831
&	-9832
z	-9833
X	-9834
#	-9835
*	-9836
Q	-9837
Z	-9838
ஶ	-9839
@	-9840
q	-9841
=	-9842
ा	-9843
_	-9844
₹	-9845
र	-9846
े	-9847
ஔ	-9848
[	-9849
]	-9850
क	-9851
न	-9852
	-9853
्	-9854
$	-9855
ी	-9856
म	-9857
ि	-9858
प	-9859
स	-9860
ं	-9861
ह	-9862
ो	-9863
­	-9864
	-9865
त	-9866
ल	-9867
व	-9868
द	-9869
>	-9870
ग	-9871
௦	-9872
य	-9873
ज	-9874
ब	-9875
£	-9876
श	-9877
ू	-9878
भ	-9879
•	-9880
ા	-9881
~	-9882
°	-9883
ए	-9884
ट	-9885
ध	-9886
	-9887
ु	-9888
ન	-9889
😂	-9890
\	-9891
§	-9892
अ	-9893
ख	-9894
च	-9895
ै	-9896
મ	-9897
‍	-9898
·	-9899
ل	-9900
इ	-9901
ड	-9902
ण	-9903
ष	-9904
જ	-9905
ે	-9906
௧	-9907
௫	-9908
★	-9909
×	-9910
é	-9911
ا	-9912
आ	-9913
ई	-9914
थ	-9915
ौ	-9916
ક	-9917
ત	-9918
ર	-9919
ી	-9920
્	-9921
⁠	-9922
❔	-9923
	-9924
	-9925
<	-9926
õ	-9927
÷	-9928
š	-9929
و	-9930
ي	-9931
औ	-9932
घ	-9933
छ	-9934
़	-9935
।	-9936
ટ	-9937
ય	-9938
વ	-9939
સ	-9940
௨	-9941
௩	-9942
′	-9943
⁄	-9944
●	-9945
◾	-9946
⦁	-9947
^	-9948
{	-9949
}	-9950
®	-9951
Á	-9952
å	-9953
í	-9954
ñ	-9955
ô	-9956
ö	-9957
ł	-9958
ō	-9959
ʻ	-9960
̈	-9961
إ	-9962
د	-9963
ر	-9964
س	-9965
م	-9966
ه	-9967
उ	-9968
फ	-9969
અ	-9970
આ	-9971
ઉ	-9972
ઓ	-9973
ખ	-9974
ણ	-9975
થ	-9976
દ	-9977
પ	-9978
ફ	-9979
ભ	-9980
લ	-9981
િ	-9982
ો	-9983
௬	-9984
௭	-9985
௹	-9986
‟	-9987
€	-9988
⏩	-9989
	-9990
	-9991
👇	-9992
💥	-9993
😊	-9994
😐	-9995
😲	-9996
