{
  "version": "1.0",
  "truncation": null,
  "padding": null,
  "added_tokens": [
    {
      "id": 0,
      "content": "[UNK]",
      "single_word": false,
      "lstrip": false,
      "rstrip": false,
      "normalized": false,
      "special": true
    },
    {
      "id": 1,
      "content": "[CLS]",
      "single_word": false,
      "lstrip": false,
      "rstrip": false,
      "normalized": false,
      "special": true
    },
    {
      "id": 2,
      "content": "[SEP]",
      "single_word": false,
      "lstrip": false,
      "rstrip": false,
      "normalized": false,
      "special": true
    },
    {
      "id": 3,
      "content": "[PAD]",
      "single_word": false,
      "lstrip": false,
      "rstrip": false,
      "normalized": false,
      "special": true
    },
    {
      "id": 4,
      "content": "[MASK]",
      "single_word": false,
      "lstrip": false,
      "rstrip": false,
      "normalized": false,
      "special": true
    }
  ],
  "normalizer": {
    "type": "Sequence",
    "normalizers": [
      {
        "type": "NFKC"
      },
      {
        "type": "Lowercase"
      }
    ]
  },
  "pre_tokenizer": {
    "type": "Whitespace"
  },
  "post_processor": null,
  "decoder": {
    "type": "WordPiece",
    "prefix": "##",
    "cleanup": true
  },
  "model": {
    "type": "WordPiece",
    "unk_token": "[UNK]",
    "continuing_subword_prefix": "##",
    "max_input_chars_per_word": 100,
    "vocab": {
      "[UNK]": 0,
      "[CLS]": 1,
      "[SEP]": 2,
      "[PAD]": 3,
      "[MASK]": 4,
      "!": 5,
      "\"": 6,
      "#": 7,
      "$": 8,
      "%": 9,
      "&": 10,
      "'": 11,
      "(": 12,
      ")": 13,
      "*": 14,
      "+": 15,
      ",": 16,
      "-": 17,
      ".": 18,
      "/": 19,
      "0": 20,
      "1": 21,
      "2": 22,
      "3": 23,
      "4": 24,
      "5": 25,
      "6": 26,
      "7": 27,
      "8": 28,
      "9": 29,
      ":": 30,
      ";": 31,
      "<": 32,
      "=": 33,
      ">": 34,
      "?": 35,
      "@": 36,
      "[": 37,
      "\\": 38,
      "]": 39,
      "^": 40,
      "_": 41,
      "`": 42,
      "a": 43,
      "b": 44,
      "c": 45,
      "d": 46,
      "e": 47,
      "f": 48,
      "g": 49,
      "h": 50,
      "i": 51,
      "j": 52,
      "k": 53,
      "l": 54,
      "m": 55,
      "n": 56,
      "o": 57,
      "p": 58,
      "q": 59,
      "r": 60,
      "s": 61,
      "t": 62,
      "u": 63,
      "v": 64,
      "w": 65,
      "x": 66,
      "y": 67,
      "z": 68,
      "{": 69,
      "}": 70,
      "~": 71,
      "£": 72,
      "§": 73,
      "­": 74,
      "®": 75,
      "°": 76,
      "·": 77,
      "×": 78,
      "á": 79,
      "å": 80,
      "é": 81,
      "í": 82,
      "ñ": 83,
      "ô": 84,
      "õ": 85,
      "ö": 86,
      "÷": 87,
      "ł": 88,
      "ō": 89,
      "š": 90,
      "ʻ": 91,
      "̈": 92,
      "إ": 93,
      "ا": 94,
      "د": 95,
      "ر": 96,
      "س": 97,
      "ل": 98,
      "م": 99,
      "ه": 100,
      "و": 101,
      "ي": 102,
      "ं": 103,
      "अ": 104,
      "आ": 105,
      "इ": 106,
      "ई": 107,
      "उ": 108,
      "ए": 109,
      "औ": 110,
      "क": 111,
      "ख": 112,
      "ग": 113,
      "घ": 114,
      "च": 115,
      "छ": 116,
      "ज": 117,
      "ट": 118,
      "ड": 119,
      "ण": 120,
      "त": 121,
      "थ": 122,
      "द": 123,
      "ध": 124,
      "न": 125,
      "प": 126,
      "फ": 127,
      "ब": 128,
      "भ": 129,
      "म": 130,
      "य": 131,
      "र": 132,
      "ल": 133,
      "व": 134,
      "श": 135,
      "ष": 136,
      "स": 137,
      "ह": 138,
      "़": 139,
      "ा": 140,
      "ि": 141,
      "ी": 142,
      "ु": 143,
      "ू": 144,
      "े": 145,
      "ै": 146,
      "ो": 147,
      "ौ": 148,
      "्": 149,
      "।": 150,
      "અ": 151,
      "આ": 152,
      "ઉ": 153,
      "ઓ": 154,
      "ક": 155,
      "ખ": 156,
      "જ": 157,
      "ટ": 158,
      "ણ": 159,
      "ત": 160,
      "થ": 161,
      "દ": 162,
      "ન": 163,
      "પ": 164,
      "ફ": 165,
      "ભ": 166,
      "મ": 167,
      "ય": 168,
      "ર": 169,
      "લ": 170,
      "વ": 171,
      "સ": 172,
      "ા": 173,
      "િ": 174,
      "ી": 175,
      "ે": 176,
      "ો": 177,
      "્": 178,
      "ஃ": 179,
      "அ": 180,
      "ஆ": 181,
      "இ": 182,
      "ஈ": 183,
      "உ": 184,
      "ஊ": 185,
      "எ": 186,
      "ஏ": 187,
      "ஐ": 188,
      "ஒ": 189,
      "ஓ": 190,
      "ஔ": 191,
      "க": 192,
      "ங": 193,
      "ச": 194,
      "ஜ": 195,
      "ஞ": 196,
      "ட": 197,
      "ண": 198,
      "த": 199,
      "ந": 200,
      "ன": 201,
      "ப": 202,
      "ம": 203,
      "ய": 204,
      "ர": 205,
      "ற": 206,
      "ல": 207,
      "ள": 208,
      "ழ": 209,
      "வ": 210,
      "ஶ": 211,
      "ஷ": 212,
      "ஸ": 213,
      "ஹ": 214,
      "ா": 215,
      "ி": 216,
      "ீ": 217,
      "ு": 218,
      "ூ": 219,
      "ெ": 220,
      "ே": 221,
      "ை": 222,
      "ொ": 223,
      "ோ": 224,
      "ௌ": 225,
      "்": 226,
      "௦": 227,
      "௧": 228,
      "௨": 229,
      "௩": 230,
      "௫": 231,
      "௬": 232,
      "௭": 233,
      "௹": 234,
      "‌": 235,
      "‍": 236,
      "‎": 237,
      "‛": 238,
      "‟": 239,
      "•": 240,
      "′": 241,
      "⁄": 242,
      "⁠": 243,
      "€": 244,
      "₹": 245,
      "⏩": 246,
      "●": 247,
      "◾": 248,
      "★": 249,
      "❔": 250,
      "⦁": 251,
      "": 252,
      "": 253,
      "": 254,
      "": 255,
      "": 256,
      "": 257,
      "": 258,
      "�": 259,
      "👇": 260,
      "💥": 261,
      "😂": 262,
      "😊": 263,
      "😐": 264,
      "😲": 265,
      "🛩": 266,
      "##ு": 267,
      "##க": 268,
      "##்": 269,
      "##a": 270,
      "##n": 271,
      "##k": 272,
      "##u": 273,
      "##g": 274,
      "##ல": 275,
      "##o": 276,
      "##l": 277,
      "##r": 278,
      "##c": 279,
      "##i": 280,
      "##ோ": 281,
      "##ர": 282,
      "##ள": 283,
      "##ி": 284,
      "##ய": 285,
      "##த": 286,
      "##f": 287,
      "##p": 288,
      "##வ": 289,
      "##ட": 290,
      "##%": 291,
      "##)": 292,
      "##ன": 293,
      "##ங": 294,
      "##b": 295,
      "##e": 296,
      "##ஜ": 297,
      "##4": 298,
      "##ற": 299,
      "##s": 300,
      "##d": 301,
      "##0": 302,
      "##ண": 303,
      "##ஸ": 304,
      "##m": 305,
      "##y": 306,
      "##5": 307,
      "##7": 308,
      "##t": 309,
      "##6": 310,
      "##ப": 311,
      "##ொ": 312,
      "##3": 313,
      "##1": 314,
      "##v": 315,
      "##2": 316,
      "##ச": 317,
      "##ா": 318,
      "##h": 319,
      "##ந": 320,
      "##ீ": 321,
      "##ெ": 322,
      "##9": 323,
      "##x": 324,
      "##ஐ": 325,
      "##ே": 326,
      "##ஷ": 327,
      "##w": 328,
      "##ை": 329,
      "##ம": 330,
      "##j": 331,
      "##ூ": 332,
      "##q": 333,
      "##ஏ": 334,
      "##ழ": 335,
      "##z": 336,
      "##8": 337,
      "##ł": 338,
      "##ஞ": 339,
      "##;": 340,
      "##र": 341,
      "##!": 342,
      "##௦": 343,
      "##எ": 344,
      "##ई": 345,
      "##ௌ": 346,
      "##ஹ": 347,
      "##ो": 348,
      "##ी": 349,
      "##இ": 350,
      "##ા": 351,
      "##સ": 352,
      "##ஆ": 353,
      "##அ": 354,
      "##?": 355,
      "##,": 356,
      "##`": 357,
      "##प": 358,
      "##\"": 359,
      "##े": 360,
      "##श": 361,
      "##પ": 362,
      "##ન": 363,
      "##ल": 364,
      "##+": 365,
      "##त": 366,
      "##ा": 367,
      "##भ": 368,
      "##😂": 369,
      "##.": 370,
      "##‛": 371,
      "##′": 372,
      "##ل": 373,
      "##ه": 374,
      "##ஓ": 375,
      "##-": 376,
      "##و": 377,
      "##د": 378,
      "##ي": 379,
      "##म": 380,
      "##س": 381,
      "##'": 382,
      "##ફ": 383,
      "##થ": 384,
      "##é": 385,
      "##મ": 386,
      "##‌": 387,
      "##ू": 388,
      "##ह": 389,
      "##å": 390,
      "##વ": 391,
      "##ણ": 392,
      "##क": 393,
      "##ஊ": 394,
      "###": 395,
      "##ا": 396,
      "##ય": 397,
      "##द": 398,
      "##स": 399,
      "##ं": 400,
      "##ô": 401,
      "##ે": 402,
      "##>": 403,
      "##ō": 404,
      "##ध": 405,
      "##ज": 406,
      "##₹": 407,
      "##न": 408,
      "##ड": 409,
      "##़": 410,
      "##ñ": 411,
      "##ै": 412,
      "##*": 413,
      "##_": 414,
      "##ક": 415,
      "##ર": 416,
      "##்க": 417,
      "##்த": 418,
      "##்ப": 419,
      "##்ட": 420,
      "##ல்": 421,
      "##ன்": 422,
      "##க்க": 423,
      "##ம்": 424,
      "##ந்த": 425,
      "##ர்": 426,
      "த்த": 427,
      "##த்த": 428,
      "##து": 429,
      "##ள்": 430,
      "ப்ப": 431,
      "##ில": 432,
      "##ரு": 433,
      "##ட்ட": 434,
      "##ிய": 435,
      "க்க": 436,
      "து": 437,
      "##்கள": 438,
      "ரு": 439,
      "##தி": 440,
      "##்ச": 441,
      "ில்": 442,
      "##ப்ப": 443,
      "##்ற": 444,
      "##ன்ற": 445,
      "ம்": 446,
      "##ள்ள": 447,
      "ும்": 448,
      "ிற": 449,
      "வி": 450,
      "ட்ட": 451,
      "##கள": 452,
      "ுக்க": 453,
      "##ாக": 454,
      "மு": 455,
      "##ங்க": 456,
      "##ண்ட": 457,
      "##ற்ற": 458,
      "தி": 459,
      "செ": 460,
      "##டி": 461,
      "##ைய": 462,
      "ுக்கு": 463,
      "டு": 464,
      "கு": 465,
      "##ார": 466,
      "யி": 467,
      "கள": 468,
      "ிய": 469,
      "ாக": 470,
      "##ரி": 471,
      "ந்த": 472,
      "##ும": 473,
      "ும": 474,
      "##லை": 475,
      "பா": 476,
      "பி": 477,
      "##வர": 478,
      "##வி": 479,
      "ின்": 480,
      "##ான": 481,
      "##ும்": 482,
      "கொ": 483,
      "ுள்ள": 484,
      "ார்": 485,
      "போ": 486,
      "்கள": 487,
      "என்ற": 488,
      "ருந்த": 489,
      "மா": 490,
      "##டு": 491,
      "செய": 492,
      "என": 493,
      "கா": 494,
      "வே": 495,
      "ங்கள": 496,
      "##ன்ன": 497,
      "##னா": 498,
      "வர": 499,
      "தா": 500,
      "இந்த": 501,
      "ருக்க": 502,
      "##ல்ல": 503,
      "ர்": 504,
      "##க்": 505,
      "##்சி": 506,
      "ான": 507,
      "கூ": 508,
      "##றி": 509,
      "யில்": 510,
      "நட": 511,
      "##றை": 512,
      "த்தில": 513,
      "தொ": 514,
      "பெ": 515,
      "்ட": 516,
      "கட": 517,
      "்ப": 518,
      "##று": 519,
      "த்": 520,
      "##ற்க": 521,
      "க்": 522,
      "டுத்த": 523,
      "ப்": 524,
      "க்கு": 525,
      "நா": 526,
      "வா": 527,
      "##ப்": 528,
      "உள்ள": 529,
      "##வு": 530,
      "ன்": 531,
      "யை": 532,
      "ிறது": 533,
      "தெ": 534,
      "வரு": 535,
      "ஒரு": 536,
      "##னை": 537,
      "##ிர": 538,
      "##ங்கள": 539,
      "##த்": 540,
      "சி": 541,
      "பே": 542,
      "##ற்ப": 543,
      "ரா": 544,
      "ண்ட": 545,
      "நி": 546,
      "ல்": 547,
      "வெ": 548,
      "##ணி": 549,
      "மே": 550,
      "ிர": 551,
      "என்று": 552,
      "##ுவ": 553,
      "##ஸ்": 554,
      "##ச்ச": 555,
      "மற்ற": 556,
      "ார": 557,
      "பு": 558,
      "##மி": 559,
      "நில": 560,
      "ில": 561,
      "##்ய": 562,
      "னர்": 563,
      "ின": 564,
      "ுவ": 565,
      "்க": 566,
      "அதி": 567,
      "டி": 568,
      "வேண்ட": 569,
      "தே": 570,
      "##்வ": 571,
      "ரி": 572,
      "##ண்": 573,
      "ிட": 574,
      "##லா": 575,
      "கி": 576,
      "ுட": 577,
      "##மை": 578,
      "##ரச": 579,
      "##ார்": 580,
      "மீ": 581,
      "தொட": 582,
      "அவ": 583,
      "##ளர": 584,
      "##ம்ப": 585,
      "வழ": 586,
      "ால்": 587,
      "குறி": 588,
      "##னால்": 589,
      "தான்": 590,
      "##கு": 591,
      "தொடர": 592,
      "வர்கள": 593,
      "ற்ற": 594,
      "வந்த": 595,
      "முத": 596,
      "##ண்டு": 597,
      "ங்க": 598,
      "ின்ற": 599,
      "வை": 600,
      "பொ": 601,
      "செய்ய": 602,
      "செய்த": 603,
      "வீ": 604,
      "யாக": 605,
      "ித்த": 606,
      "தாக": 607,
      "கோ": 608,
      "ுக": 609,
      "##ட்": 610,
      "தெரி": 611,
      "அத": 612,
      "தற்க": 613,
      "பிர": 614,
      "பல": 615,
      "சே": 616,
      "ச்ச": 617,
      "அம": 618,
      "ேர": 619,
      "மை": 620,
      "##டை": 621,
      "ிற்க": 622,
      "த்தை": 623,
      "மி": 624,
      "தலை": 625,
      "யின்": 626,
      "அரச": 627,
      "களை": 628,
      "சா": 629,
      "ச்": 630,
      "##ளி": 631,
      "்ச": 632,
      "வருக": 633,
      "##னி": 634,
      "ைய": 635,
      "அவர்": 636,
      "தெரிவ": 637,
      "ின்றன": 638,
      "ிறார்": 639,
      "கள்": 640,
      "ஏற்ப": 641,
      "ிக்க": 642,
      "##ுக": 643,
      "ள்": 644,
      "##ந்து": 645,
      "கே": 646,
      "ெய": 647,
      "இது": 648,
      "யா": 649,
      "##்பத": 650,
      "தமி": 651,
      "##க்கு": 652,
      "தமிழ": 653,
      "ாவ": 654,
      "இத": 655,
      "க்கை": 656,
      "ன்ற": 657,
      "##சி": 658,
      "யும்": 659,
      "என்பத": 660,
      "டை": 661,
      "##டிய": 662,
      "கூற": 663,
      "மூ": 664,
      "அதிக": 665,
      "ிற்கு": 666,
      "##ரிய": 667,
      "நிலைய": 668,
      "முதல்": 669,
      "திரு": 670,
      "கட்ட": 671,
      "ாத": 672,
      "##ச்": 673,
      "கொண்ட": 674,
      "லா": 675,
      "##விட": 676,
      "சம": 677,
      "##க்கள": 678,
      "##ில்": 679,
      "அந்த": 680,
      "அவர": 681,
      "ால": 682,
      "##ன்று": 683,
      "தீ": 684,
      "மக்கள": 685,
      "##ரா": 686,
      "##ண்ண": 687,
      "ுத": 688,
      "ிட்ட": 689,
      "##ின": 690,
      "##ன்ப": 691,
      "சொ": 692,
      "தற்கு": 693,
      "##கவ": 694,
      "ஆனால்": 695,
      "ஸ்": 696,
      "சில": 697,
      "ருப்ப": 698,
      "ளி": 699,
      "##ரை": 700,
      "##சிய": 701,
      "##ய்": 702,
      "ஆண்டு": 703,
      "சு": 704,
      "ந்திய": 705,
      "##ர்வ": 706,
      "று": 707,
      "எதி": 708,
      "யில": 709,
      "ுடன்": 710,
      "ினா": 711,
      "கட்சி": 712,
      "பேச": 713,
      "##குதி": 714,
      "அறி": 715,
      "ாடு": 716,
      "குழ": 717,
      "மாக": 718,
      "ாம": 719,
      "மாந": 720,
      "##கர": 721,
      "்ச்சி": 722,
      "##ால": 723,
      "##ிட": 724,
      "த்து": 725,
      "பட": 726,
      "ணி": 727,
      "ர்த": 728,
      "ணை": 729,
      "##ன்னை": 730,
      "##முக": 731,
      "துறை": 732,
      "##கார": 733,
      "ட்டு": 734,
      "்த்த": 735,
      "##ரும": 736,
      "மேல": 737,
      "ம்ப": 738,
      "வழங்க": 739,
      "ாது": 740,
      "##ற்றி": 741,
      "##வே": 742,
      "ாட": 743,
      "ர்த்த": 744,
      "டும்": 745,
      "கடந்த": 746,
      "##்தி": 747,
      "ைச்ச": 748,
      "்த": 749,
      "##ளிய": 750,
      "முன்ன": 751,
      "ைச்சர": 752,
      "நீ": 753,
      "தை": 754,
      "##்ப்ப": 755,
      "##ட்டி": 756,
      "திர": 757,
      "முடிய": 758,
      "##வை": 759,
      "பத": 760,
      "வில்ல": 761,
      "ஸ்ட": 762,
      "ஞ்ச": 763,
      "நடத்த": 764,
      "டுக்க": 765,
      "ழு": 766,
      "யான": 767,
      "யு": 768,
      "ினார்": 769,
      "ேர்த": 770,
      "தலைவர": 771,
      "நடை": 772,
      "ஆம்": 773,
      "டுக": 774,
      "##ந்தி": 775,
      "னி": 776,
      "ேர்தல": 777,
      "ஆக": 778,
      "ுகள": 779,
      "ர்க": 780,
      "கார": 781,
      "வும்": 782,
      "##ப்பு": 783,
      "முறை": 784,
      "அரசு": 785,
      "போது": 786,
      "சென்ற": 787,
      "ல்ல": 788,
      "##வா": 789,
      "##ங்கு": 790,
      "இட": 791,
      "##லம": 792,
      "பய": 793,
      "ர்ந்த": 794,
      "ேன்": 795,
      "நடைப": 796,
      "பகுதி": 797,
      "த்தின": 798,
      "##ாவ": 799,
      "ிரத": 800,
      "##கை": 801,
      "பூ": 802,
      "னை": 803,
      "நடைபெ": 804,
      "கூட்ட": 805,
      "##ப்போ": 806,
      "வெளிய": 807,
      "திட்ட": 808,
      "மரு": 809,
      "பதி": 810,
      "பர": 811,
      "மாநில": 812,
      "கால": 813,
      "உட": 814,
      "##தா": 815,
      "என்ன": 816,
      "திமுக": 817,
      "ாவட்ட": 818,
      "ொரு": 819,
      "##ளை": 820,
      "போல": 821,
      "ந்திர": 822,
      "ோம்": 823,
      "ப்படி": 824,
      "ய்": 825,
      "ினர": 826,
      "மேலும": 827,
      "பெற்ற": 828,
      "ிடம": 829,
      "இல்": 830,
      "ார்கள": 831,
      "ென்னை": 832,
      "ரூ": 833,
      "ேற்ற": 834,
      "##வில": 835,
      "வு": 836,
      "ாட்ட": 837,
      "தன": 838,
      "பாஜ": 839,
      "சட்ட": 840,
      "மாத": 841,
      "##ிற": 842,
      "ர்க்க": 843,
      "##ழு": 844,
      "மணி": 845,
      "ங்களை": 846,
      "வர்": 847,
      "நடந்த": 848,
      "லை": 849,
      "உய": 850,
      "விச": 851,
      "வரும்": 852,
      "ீதி": 853,
      "விட": 854,
      "சீ": 855,
      "வைத்த": 856,
      "ுத்த": 857,
      "##ாட": 858,
      "ள்ள": 859,
      "பிற": 860,
      "தர": 861,
      "ண்டு": 862,
      "்ந்த": 863,
      "##லக": 864,
      "த்திய": 865,
      "சூ": 866,
      "ரோ": 867,
      "்ந்து": 868,
      "லங்க": 869,
      "##கழ": 870,
      "கை": 871,
      "முடி": 872,
      "ாமல்": 873,
      "்ந": 874,
      "##ங்": 875,
      "##பி": 876,
      "##மான": 877,
      "மக": 878,
      "ன்ன": 879,
      "ப்பட": 880,
      "ல்லா": 881,
      "பணி": 882,
      "ட்டது": 883,
      "ேதி": 884,
      "ட்டும": 885,
      "##ாள": 886,
      "##ியா": 887,
      "ராஜ": 888,
      "வரை": 889,
      "தற்ப": 890,
      "ிலும்": 891,
      "##ரே": 892,
      "ாளர": 893,
      "ப்பிட": 894,
      "ிறுவ": 895,
      "ட்": 896,
      "துவ": 897,
      "##மர": 898,
      "ிவ": 899,
      "றி": 900,
      "எதிர": 901,
      "ாய": 902,
      "மாண": 903,
      "கல": 904,
      "ிறுவன": 905,
      "்கள்": 906,
      "ியி": 907,
      "விசார": 908,
      "##லி": 909,
      "தனால்": 910,
      "தனது": 911,
      "##திய": 912,
      "்ற": 913,
      "##ருக": 914,
      "இல்லை": 915,
      "ழை": 916,
      "ுவிட": 917,
      "வெளி": 918,
      "##ாம": 919,
      "##ட்ச": 920,
      "நான்": 921,
      "முக்க": 922,
      "ரசிய": 923,
      "மீது": 924,
      "தமிழக": 925,
      "ெய்தி": 926,
      "தற்போ": 927,
      "ண்": 928,
      "கிடை": 929,
      "லி": 930,
      "ரசியல": 931,
      "மூலம": 932,
      "ியது": 933,
      "கண": 934,
      "அணி": 935,
      "ொட": 936,
      "வாழ": 937,
      "கிர": 938,
      "தால்": 939,
      "குறை": 940,
      "போன்ற": 941,
      "ாடுகள": 942,
      "மைப்ப": 943,
      "ஆட": 944,
      "அறிவி": 945,
      "##பர": 946,
      "கண்ட": 947,
      "படி": 948,
      "##பா": 949,
      "ிறப்ப": 950,
      "அது": 951,
      "இரு": 952,
      "##விர": 953,
      "எம்": 954,
      "காங்க": 955,
      "கூட": 956,
      "ோய": 957,
      "இன்று": 958,
      "##ோத": 959,
      "##ூர": 960,
      "க்கள": 961,
      "பக": 962,
      "ுதல": 963,
      "##ல்வ": 964,
      "தொழ": 965,
      "வேலை": 966,
      "##வடி": 967,
      "நடவடி": 968,
      "##மா": 969,
      "##ணம்": 970,
      "ும்ப": 971,
      "தாக்க": 972,
      "ைப்": 973,
      "பாஜக": 974,
      "நாட்ட": 975,
      "ஜெ": 976,
      "பொது": 977,
      "பிறகு": 978,
      "றுப்ப": 979,
      "ாகி": 980,
      "டெ": 981,
      "ாலும்": 982,
      "##ற்ச": 983,
      "நிலை": 984,
      "ிரதமர": 985,
      "##ல்ப": 986,
      "##ரவ": 987,
      "தகவ": 988,
      "மான": 989,
      "ெற்றி": 990,
      "##்ந": 991,
      "உத": 992,
      "சம்ப": 993,
      "ர்ப்ப": 994,
      "யாளர": 995,
      "ந்தை": 996,
      "##ணை": 997,
      "ிறார": 998,
      "ாஜ": 999,
      "##ர்கள": 1000,
      "செல்ல": 1001,
      "உண": 1002,
      "லங்கை": 1003,
      "அள": 1004,
      "்க்க": 1005,
      "பேர": 1006,
      "னு": 1007,
      "திப்ப": 1008,
      "மேற்க": 1009,
      "சொல்ல": 1010,
      "வக": 1011,
      "ஆட்சி": 1012,
      "ியாவ": 1013,
      "அதன்": 1014,
      "ுக்": 1015,
      "ுடைய": 1016,
      "பின்ன": 1017,
      "ஆய": 1018,
      "அடி": 1019,
      "டைந்த": 1020,
      "ஃப": 1021,
      "வீட்ட": 1022,
      "நகர": 1023,
      "சந்தி": 1024,
      "ோவில": 1025,
      "தெரிய": 1026,
      "காரண": 1027,
      "ுவத": 1028,
      "எதிர்": 1029,
      "தோ": 1030,
      "நிகழ": 1031,
      "##மன": 1032,
      "ோர": 1033,
      "ளித்த": 1034,
      "உலக": 1035,
      "விட்ட": 1036,
      "கொள்ள": 1037,
      "என்க": 1038,
      "ோட்டி": 1039,
      "யார": 1040,
      "ருத்த": 1041,
      "ிரஸ்": 1042,
      "யோ": 1043,
      "கவ": 1044,
      "ரிய": 1045,
      "வழி": 1046,
      "ுக்கொ": 1047,
      "ஜி": 1048,
      "##ூக": 1049,
      "##பட": 1050,
      "மாற்ற": 1051,
      "எந்த": 1052,
      "வில்": 1053,
      "சமூக": 1054,
      "##ள்ளி": 1055,
      "களில": 1056,
      "##வத": 1057,
      "குட": 1058,
      "ையும்": 1059,
      "யே": 1060,
      "ிழ": 1061,
      "ஆத": 1062,
      "டங்கள": 1063,
      "்வே": 1064,
      "##ஷ்": 1065,
      "பொரு": 1066,
      "கூறு": 1067,
      "விழ": 1068,
      "கூறுக": 1069,
      "##ங்கி": 1070,
      "வார": 1071,
      "னைத்த": 1072,
      "லு": 1073,
      "பயன்ப": 1074,
      "மருத்": 1075,
      "கேட்ட": 1076,
      "ுய": 1077,
      "ீதிம": 1078,
      "ுப்ப": 1079,
      "மன": 1080,
      "ுன்ப": 1081,
      "என்": 1082,
      "##ழ்": 1083,
      "ொடங்க": 1084,
      "டா": 1085,
      "##த்தி": 1086,
      "வழக்க": 1087,
      "எல்": 1088,
      "காவ": 1089,
      "##றுதி": 1090,
      "ஒன்ற": 1091,
      "##ோர": 1092,
      "எஸ்": 1093,
      "##ராட": 1094,
      "ஆர்": 1095,
      "##டன்": 1096,
      "ோயில": 1097,
      "ஒருவர": 1098,
      "வ்வ": 1099,
      "ய்ப்ப": 1100,
      "ுடி": 1101,
      "##ெரி": 1102,
      "அமெரி": 1103,
      "ஆகிய": 1104,
      "ரண்டு": 1105,
      "போராட": 1106,
      "உரு": 1107,
      "இர": 1108,
      "குற்ற": 1109,
      "லட்ச": 1110,
      "ைச்": 1111,
      "குடும": 1112,
      "வில": 1113,
      "சம்பவ": 1114,
      "த்துவ": 1115,
      "வீர": 1116,
      "ோட்ட": 1117,
      "போலீ": 1118,
      "புதிய": 1119,
      "பிடி": 1120,
      "கொடு": 1121,
      "அப்போ": 1122,
      "அதிகா": 1123,
      "முன்": 1124,
      "வய": 1125,
      "்பா": 1126,
      "காட்ட": 1127,
      "உங்கள": 1128,
      "பெரிய": 1129,
      "அவரது": 1130,
      "##தில்": 1131,
      "##சா": 1132,
      "லாம்": 1133,
      "##க்கம": 1134,
      "##ந்ந": 1135,
      "மும்": 1136,
      "##ழை": 1137,
      "ுமா": 1138,
      "வாங்க": 1139,
      "களில்": 1140,
      "ழி": 1141,
      "கலந்த": 1142,
      "்பாக": 1143,
      "காவல்": 1144,
      "ெண": 1145,
      "ிதி": 1146,
      "தன்": 1147,
      "தலைமை": 1148,
      "ப்பு": 1149,
      "தின": 1150,
      "பதவி": 1151,
      "ாள": 1152,
      "இதில்": 1153,
      "டைய": 1154,
      "ெண்கள": 1155,
      "யின": 1156,
      "##ட்ப": 1157,
      "##ல்வி": 1158,
      "ேற்று": 1159,
      "ந்தப்": 1160,
      "இய": 1161,
      "##கா": 1162,
      "்வேறு": 1163,
      "அதே": 1164,
      "கும": 1165,
      "கீ": 1166,
      "மீண்ட": 1167,
      "ிச்ச": 1168,
      "##ையே": 1169,
      "##ோச": 1170,
      "தங்கள": 1171,
      "ல்லது": 1172,
      "வகைய": 1173,
      "யுள்ள": 1174,
      "ுற": 1175,
      "##ழக": 1176,
      "திக்க": 1177,
      "தொழில": 1178,
      "ாட்சி": 1179,
      "ிறந்த": 1180,
      "பள்ளி": 1181,
      "ற்க": 1182,
      "ாங்க": 1183,
      "ிலைய": 1184,
      "ப்படை": 1185,
      "வைக்க": 1186,
      "##ணைய": 1187,
      "சிக": 1188,
      "பேர்": 1189,
      "ைக்": 1190,
      "##ம்பி": 1191,
      "ாள்": 1192,
      "நிர்வ": 1193,
      "##ியர": 1194,
      "கர": 1195,
      "##துக": 1196,
      "துவர": 1197,
      "மது": 1198,
      "பங்க": 1199,
      "அதிகம": 1200,
      "ுர": 1201,
      "மெ": 1202,
      "ுகிற": 1203,
      "மிக": 1204,
      "எண்ண": 1205,
      "லாம": 1206,
      "பக்த": 1207,
      "ல்லாம": 1208,
      "ாதார": 1209,
      "ரிகள": 1210,
      "ளிக்க": 1211,
      "ஈடு": 1212,
      "எங்கள": 1213,
      "க்கூ": 1214,
      "ரஷ": 1215,
      "செய்வ": 1216,
      "அங்கு": 1217,
      "##வ்வ": 1218,
      "ிரி": 1219,
      "##ரும்": 1220,
      "மாணவர": 1221,
      "யும": 1222,
      "மைய": 1223,
      "##யர": 1224,
      "ிலி": 1225,
      "பாட": 1226,
      "##ழி": 1227,
      "ிக்": 1228,
      "பொருள": 1229,
      "##ஞர": 1230,
      "##ுமை": 1231,
      "பக்தர": 1232,
      "ரே": 1233,
      "ண்ண": 1234,
      "நாள்": 1235,
      "நடக்க": 1236,
      "ேள்": 1237,
      "தேசிய": 1238,
      "பற்றி": 1239,
      "ேள்வி": 1240,
      "ர்ச": 1241,
      "ராக": 1242,
      "ாட்கள": 1243,
      "இப்போ": 1244,
      "##தை": 1245,
      "##வர்": 1246,
      "பாதுக": 1247,
      "பெற": 1248,
      "க்கூட": 1249,
      "ான்": 1250,
      "ாப்பு": 1251,
      "ாக்க": 1252,
      "##யே": 1253,
      "னக்கு": 1254,
      "்கெ": 1255,
      "்கெட்": 1256,
      "ரஷ்ய": 1257,
      "காரணம": 1258,
      "ில்லை": 1259,
      "ெயல்ப": 1260,
      "##ீர": 1261,
      "பதில": 1262,
      "ஆள": 1263,
      "வது": 1264,
      "ந்து": 1265,
      "ிச": 1266,
      "றை": 1267,
      "ர்கள": 1268,
      "ாளி": 1269,
      "ஒப்ப": 1270,
      "ிலை": 1271,
      "ிரு": 1272,
      "இந்ந": 1273,
      "திகார": 1274,
      "10": 1275,
      "தும": 1276,
      "##நர": 1277,
      "சக": 1278,
      "ரூபா": 1279,
      "நே": 1280,
      "எட": 1281,
      "சார": 1282,
      "ாங்கள": 1283,
      "விடு": 1284,
      "வளர": 1285,
      "அதில்": 1286,
      "ியா": 1287,
      "விஷ": 1288,
      "இயக்க": 1289,
      "தேவ": 1290,
      "ினர்": 1291,
      "னும": 1292,
      "வல": 1293,
      "அதை": 1294,
      "நினை": 1295,
      "யலா": 1296,
      "##ையாட": 1297,
      "ஆண்ட": 1298,
      "ும்போ": 1299,
      "கூறிய": 1300,
      "##மு": 1301,
      "ஈடுபட": 1302,
      "ுவது": 1303,
      "யலாளர": 1304,
      "வச": 1305,
      "ஸ்டால": 1306,
      "குடி": 1307,
      "குமார": 1308,
      "வந்து": 1309,
      "ுமன்ற": 1310,
      "ஸ்த": 1311,
      "இடத்த": 1312,
      "சிறு": 1313,
      "றுத்த": 1314,
      "##ற்": 1315,
      "ைத்": 1316,
      "வும": 1317,
      "கோடி": 1318,
      "ராம": 1319,
      "அப்ப": 1320,
      "்பாடி": 1321,
      "மறு": 1322,
      "கைது": 1323,
      "எடப": 1324,
      "னுப்ப": 1325,
      "ரத்த": 1326,
      "மலை": 1327,
      "வரி": 1328,
      "##ேக": 1329,
      "்நா": 1330,
      "டிய": 1331,
      "ழுந்த": 1332,
      "ோடி": 1333,
      "ிவிட": 1334,
      "கடை": 1335,
      "##ரீ": 1336,
      "ிக": 1337,
      "உருவா": 1338,
      "னுமதி": 1339,
      "க்கா": 1340,
      "நிறை": 1341,
      "சூழ": 1342,
      "்தி": 1343,
      "தய": 1344,
      "ொத்த": 1345,
      "ுறை": 1346,
      "ோடு": 1347,
      "தேச": 1348,
      "ிரும": 1349,
      "கிராம": 1350,
      "ையில்": 1351,
      "ுடிவு": 1352,
      "ிருமண": 1353,
      "பாக": 1354,
      "வாக": 1355,
      "பால": 1356,
      "பிரச": 1357,
      "##்ட்": 1358,
      "ுயற்ச": 1359,
      "ாந்தி": 1360,
      "திரும": 1361,
      "ுப": 1362,
      "பார": 1363,
      "தாவ": 1364,
      "ிகவ": 1365,
      "கரு": 1366,
      "டித்த": 1367,
      "அம்": 1368,
      "்ய": 1369,
      "ற்ப": 1370,
      "ூர": 1371,
      "ிகவும": 1372,
      "லுத்த": 1373,
      "##ையில": 1374,
      "பண": 1375,
      "ிகள": 1376,
      "தடு": 1377,
      "நிறு": 1378,
      "நெ": 1379,
      "உதவி": 1380,
      "நாட": 1381,
      "டெல்ல": 1382,
      "ஏற்ற": 1383,
      "ட்ச": 1384,
      "ுத்து": 1385,
      "மாதம்": 1386,
      "பெரும": 1387,
      "ிஸ": 1388,
      "மாற": 1389,
      "ீடு": 1390,
      "ாம்": 1391,
      "விமான": 1392,
      "ஷ்ட": 1393,
      "ழக்கு": 1394,
      "ட்சி": 1395,
      "ஜனா": 1396,
      "செல்வ": 1397,
      "க்கான": 1398,
      "ாக்கு": 1399,
      "உயர": 1400,
      "ீட்ட": 1401,
      "வின்": 1402,
      "நாம்": 1403,
      "லுவ": 1404,
      "த்தரவ": 1405,
      "யிட": 1406,
      "ங்கள்": 1407,
      "கல்வி": 1408,
      "பெயர": 1409,
      "புகார": 1410,
      "்தான": 1411,
      "ராண": 1412,
      "ஜனாதி": 1413,
      "டுவ": 1414,
      "##ரில்": 1415,
      "வித": 1416,
      "வற்ற": 1417,
      "முழ": 1418,
      "்நாடு": 1419,
      "டுப்ப": 1420,
      "தவ": 1421,
      "ிவகார": 1422,
      "முதல": 1423,
      "யுடன்": 1424,
      "தந்த": 1425,
      "ல்க": 1426,
      "ந்தக்": 1427,
      "தரப்ப": 1428,
      "பெண்": 1429,
      "ரோனா": 1430,
      "ராணுவ": 1431,
      "##வில்": 1432,
      "துவமன": 1433,
      "தூ": 1434,
      "வருவத": 1435,
      "கிய": 1436,
      "##ான்": 1437,
      "ஸ்ரே": 1438,
      "ரய": 1439,
      "பின்": 1440,
      "##ர்வு": 1441,
      "ஸ்ரீ": 1442,
      "எழு": 1443,
      "நிய": 1444,
      "பூஜ": 1445,
      "திக": 1446,
      "மழை": 1447,
      "தகவல": 1448,
      "##தல": 1449,
      "ாவது": 1450,
      "மின்": 1451,
      "ிள": 1452,
      "முடிவ": 1453,
      "##ால்": 1454,
      "##ர்ச": 1455,
      "ஸ்ரேல": 1456,
      "அன": 1457,
      "ஜெய": 1458,
      "அதிர": 1459,
      "தகவல்": 1460,
      "நிறைவ": 1461,
      "க்கும": 1462,
      "##ேச": 1463,
      "முக": 1464,
      "ிரதேச": 1465,
      "நோ": 1466,
      "பதிவு": 1467,
      "புர": 1468,
      "ாய்": 1469,
      "ாற்ற": 1470,
      "திராக": 1471,
      "இதை": 1472,
      "தாவது": 1473,
      "நு": 1474,
      "தேவை": 1475,
      "உரி": 1476,
      "ஒவ்வ": 1477,
      "ன்னும": 1478,
      "டன": 1479,
      "விலை": 1480,
      "ஜா": 1481,
      "மைக்க": 1482,
      "ாமி": 1483,
      "அனை": 1484,
      "ம்ம": 1485,
      "அனைவர": 1486,
      "உணவு": 1487,
      "பூஜை": 1488,
      "##கர்": 1489,
      "##ள்க": 1490,
      "விழா": 1491,
      "பட்ட": 1492,
      "ேற்க": 1493,
      "முழுவ": 1494,
      "ரன": 1495,
      "புரி": 1496,
      "ிங்": 1497,
      "காண": 1498,
      "கோரி": 1499,
      "உயர்": 1500,
      "##வும": 1501,
      "##பத்த": 1502,
      "உறுதி": 1503,
      "##ோக": 1504,
      "ூல": 1505,
      "இரண்ட": 1506,
      "ாச": 1507,
      "ஆளு": 1508,
      "வ்வா": 1509,
      "தங்க": 1510,
      "விக": 1511,
      "எனவே": 1512,
      "இதன்": 1513,
      "##ாய": 1514,
      "கன": 1515,
      "விஷய": 1516,
      "தயார": 1517,
      "டந்து": 1518,
      "சுற்ற": 1519,
      "ிச்சை": 1520,
      "ஆய்": 1521,
      "ஆய்வு": 1522,
      "அண்ண": 1523,
      "இருவர": 1524,
      "்த்தி": 1525,
      "##ப்பட": 1526,
      "கியோர": 1527,
      "ரஷ்யா": 1528,
      "ரை": 1529,
      "ழைத்த": 1530,
      "உச்ச": 1531,
      "ர்ம": 1532,
      "மத": 1533,
      "போல்": 1534,
      "சார்ப": 1535,
      "##க்கி": 1536,
      "இல்ல": 1537,
      "விதி": 1538,
      "மைச்ச": 1539,
      "காலை": 1540,
      "னிய": 1541,
      "ஆளுநர": 1542,
      "ர்வ": 1543,
      "ஏற்க": 1544,
      "##ையட": 1545,
      "்பத்த": 1546,
      "ச்னை": 1547,
      "ேஷ்": 1548,
      "தவிர": 1549,
      "ாலத்த": 1550,
      "இற": 1551,
      "அளவ": 1552,
      "ஸ்ட்": 1553,
      "மட்ட": 1554,
      "ிடம்": 1555,
      "ூன்று": 1556,
      "ரித்த": 1557,
      "வன": 1558,
      "போக": 1559,
      "உரிமை": 1560,
      "படத்த": 1561,
      "ஒரே": 1562,
      "னா": 1563,
      "ெரும்": 1564,
      "த்திர": 1565,
      "வாகன": 1566,
      "ாண்ட": 1567,
      "தடை": 1568,
      "##ென": 1569,
      "துணை": 1570,
      "யால்": 1571,
      "ீடிய": 1572,
      "ராகு": 1573,
      "விரு": 1574,
      "ாரணம்": 1575,
      "##மைய": 1576,
      "க்காக": 1577,
      "ிரியர": 1578,
      "ீடியோ": 1579,
      "ொகுதி": 1580,
      "விஜ": 1581,
      "ாதி": 1582,
      "##முற": 1583,
      "சீனா": 1584,
      "கல்ல": 1585,
      "ுவா": 1586,
      "சர்வ": 1587,
      "திகரி": 1588,
      "ழனி": 1589,
      "ளிய": 1590,
      "உள்ளன": 1591,
      "உற": 1592,
      "மனை": 1593,
      "ழனிச": 1594,
      "குழுவ": 1595,
      "பிரி": 1596,
      "இல": 1597,
      "த்தி": 1598,
      "உத்த": 1599,
      "போட்ட": 1600,
      "ுகள்": 1601,
      "தும்": 1602,
      "நேர": 1603,
      "வீரர": 1604,
      "ஜூ": 1605,
      "விரும": 1606,
      "கொலை": 1607,
      "ரங்க": 1608,
      "ாண": 1609,
      "ியத": 1610,
      "சத": 1611,
      "லட்சம": 1612,
      "யூ": 1613,
      "ேர்வு": 1614,
      "ுல": 1615,
      "ளையாட": 1616,
      "ம்பர": 1617,
      "ுகளை": 1618,
      "நம்": 1619,
      "ுங்கள": 1620,
      "ணைந்த": 1621,
      "வயத": 1622,
      "வேறு": 1623,
      "நிதி": 1624,
      "மகன": 1625,
      "ரிச": 1626,
      "்ண": 1627,
      "##தான": 1628,
      "ுமார்": 1629,
      "ிலே": 1630,
      "சை": 1631,
      "ரீ": 1632,
      "ிம": 1633,
      "ழுத்த": 1634,
      "பிஷ": 1635,
      "்பு": 1636,
      "த்தது": 1637,
      "ாகும்": 1638,
      "நடி": 1639,
      "மனைவி": 1640,
      "்பான": 1641,
      "ிக்கை": 1642,
      "கவன": 1643,
      "க்ட": 1644,
      "சரி": 1645,
      "வேட்ப": 1646,
      "சொன்ன": 1647,
      "ரசி": 1648,
      "மனி": 1649,
      "ாடி": 1650,
      "ைத்தி": 1651,
      "ுவி": 1652,
      "அதிபர": 1653,
      "உள்": 1654,
      "இதற்க": 1655,
      "இவர்": 1656,
      "துக்க": 1657,
      "மனித": 1658,
      "கீழ்": 1659,
      "ண்ட்": 1660,
      "ப்பாக": 1661,
      "ந்தத்": 1662,
      "ொருட்": 1663,
      "போலீஸ": 1664,
      "ணிப்ப": 1665,
      "ாதுகா": 1666,
      "பாஜகவ": 1667,
      "##டக": 1668,
      "ுக்கள": 1669,
      "சோ": 1670,
      "ூர்": 1671,
      "ரண": 1672,
      "ரன்கள": 1673,
      "மகள": 1674,
      "போலீச": 1675,
      "ுவாமி": 1676,
      "துர": 1677,
      "மோச": 1678,
      "புது": 1679,
      "ஒன்று": 1680,
      "யிரி": 1681,
      "மொ": 1682,
      "மாலை": 1683,
      "ஏன்": 1684,
      "கடுமை": 1685,
      "செல": 1686,
      "குரு": 1687,
      "கேட": 1688,
      "ிப்ப": 1689,
      "தான": 1690,
      "கூறி": 1691,
      "நாடாள": 1692,
      "லுவலக": 1693,
      "்ட்": 1694,
      "இங்கு": 1695,
      "ஆதர": 1696,
      "பிஷேக": 1697,
      "வேக": 1698,
      "ீங்கள": 1699,
      "ிகழ": 1700,
      "ுழ": 1701,
      "டிக்க": 1702,
      "வாத": 1703,
      "றக்க": 1704,
      "யிரிழ": 1705,
      "நம்பி": 1706,
      "ொண்ட": 1707,
      "குழு": 1708,
      "ிபி": 1709,
      "வருட": 1710,
      "ர்ச்ச": 1711,
      "வங்கி": 1712,
      "மிழ்": 1713,
      "##ீட": 1714,
      "யினர": 1715,
      "க்கிய": 1716,
      "##ிஸ": 1717,
      "பாகிஸ": 1718,
      "ிலேயே": 1719,
      "##ாண": 1720,
      "மேல்": 1721,
      "ற்றது": 1722,
      "துவரை": 1723,
      "ட்டி": 1724,
      "இளை": 1725,
      "ரம": 1726,
      "அண்ணா": 1727,
      "ீர்கள": 1728,
      "கிற": 1729,
      "ன்ப": 1730,
      "குதி": 1731,
      "ல்லாத": 1732,
      "இடையே": 1733,
      "ுச்": 1734,
      "அருக": 1735,
      "இதையட": 1736,
      "சிவ": 1737,
      "##வாத": 1738,
      "சேவை": 1739,
      "நல்ல": 1740,
      "பலர": 1741,
      "ம்பர்": 1742,
      "அல": 1743,
      "ோல": 1744,
      "சிங்": 1745,
      "##ிரம": 1746,
      "கணக்க": 1747,
      "மதுரை": 1748,
      "பத்த": 1749,
      "முழு": 1750,
      "அவரை": 1751,
      "கிரி": 1752,
      "ெருக": 1753,
      "##எஸ": 1754,
      "்க்கை": 1755,
      "எல்ல": 1756,
      "ழுப்ப": 1757,
      "கொள்": 1758,
      "புற": 1759,
      "தன்ன": 1760,
      "இணைய": 1761,
      "உடன": 1762,
      "மாணவி": 1763,
      "உடல": 1764,
      "ுரை": 1765,
      "ுந்த": 1766,
      "தரி": 1767,
      "ப்பத": 1768,
      "தார": 1769,
      "##பத": 1770,
      "யிலான": 1771,
      "விரை": 1772,
      "ிடையே": 1773,
      "இளைஞர": 1774,
      "ராசி": 1775,
      "நாத": 1776,
      "ங்கி": 1777,
      "ஓபி": 1778,
      "தனி": 1779,
      "சாலை": 1780,
      "இறுதி": 1781,
      "துவும": 1782,
      "ீர்": 1783,
      "ஓபிஎஸ": 1784,
      "ன்னி": 1785,
      "தயாரி": 1786,
      "தைய": 1787,
      "##றைய": 1788,
      "யிற்ச": 1789,
      "திய": 1790,
      "்களை": 1791,
      "ச்சா": 1792,
      "அருகே": 1793,
      "ொள்ள": 1794,
      "்த்தை": 1795,
      "ருக": 1796,
      "லிய": 1797,
      "உயிர": 1798,
      "ிமர்ச": 1799,
      "இடை": 1800,
      "றும்": 1801,
      "ல்வ": 1802,
      "உடல்": 1803,
      "போன": 1804,
      "மாட்ட": 1805,
      "ழைப்ப": 1806,
      "ியிட": 1807,
      "அளவில": 1808,
      "கில": 1809,
      "தில": 1810,
      "ேஷ": 1811,
      "ிக்கொ": 1812,
      "கருத": 1813,
      "யைப்": 1814,
      "ஆணைய": 1815,
      "்ர": 1816,
      "ச்சி": 1817,
      "ுற்ற": 1818,
      "மேற்ப": 1819,
      "##ேற": 1820,
      "மல": 1821,
      "ஆர": 1822,
      "ரியா": 1823,
      "ஊடக": 1824,
      "விரி": 1825,
      "ருண": 1826,
      "ன்ஸ": 1827,
      "ுடன": 1828,
      "சிறை": 1829,
      "##த்தை": 1830,
      "##களை": 1831,
      "20": 1832,
      "டிர": 1833,
      "##ோம்": 1834,
      "நாள": 1835,
      "வங்க": 1836,
      "கிட": 1837,
      "ொழி": 1838,
      "ளியேற": 1839,
      "ராஜ்": 1840,
      "ஆதரவ": 1841,
      "ென": 1842,
      "்ப்பு": 1843,
      "ட்ர": 1844,
      "இரவு": 1845,
      "ீதிபத": 1846,
      "பந்து": 1847,
      "ஞ்சா": 1848,
      "ளை": 1849,
      "யங்க": 1850,
      "ேஸ்": 1851,
      "உட்ப": 1852,
      "்வ": 1853,
      "கட்டி": 1854,
      "வரலா": 1855,
      "வ்வாற": 1856,
      "வரலாற": 1857,
      "ிங்க": 1858,
      "##சை": 1859,
      "்கு": 1860,
      "க்குற": 1861,
      "செயல": 1862,
      "எனக்": 1863,
      "அமர": 1864,
      "கல்லூ": 1865,
      "ழக்கம": 1866,
      "மைந்த": 1867,
      "ச்சரி": 1868,
      "வெளிந": 1869,
      "திருவ": 1870,
      "்ஜ": 1871,
      "இதனை": 1872,
      "ரம்பி": 1873,
      "ுமான": 1874,
      "்டி": 1875,
      "ினும்": 1876,
      "ிபிசி": 1877,
      "தவற": 1878,
      "##ியு": 1879,
      "##ரைன": 1880,
      "னால": 1881,
      "பரபர": 1882,
      "களாக": 1883,
      "பக்க": 1884,
      "சொந்த": 1885,
      "பரவ": 1886,
      "ராகுல": 1887,
      "பழ": 1888,
      "பணம்": 1889,
      "மார": 1890,
      "ுப்பா": 1891,
      "வகை": 1892,
      "மகா": 1893,
      "தீர்": 1894,
      "றிந்த": 1895,
      "வயது": 1896,
      "ன்மை": 1897,
      "சாமி": 1898,
      "ஷ்": 1899,
      "##ளவ": 1900,
      "ாளர்": 1901,
      "வ்வளவ": 1902,
      "மர": 1903,
      "சுத": 1904,
      "ய்ச": 1905,
      "இந்து": 1906,
      "நீக்க": 1907,
      "ூட்ட": 1908,
      "கிள": 1909,
      "்டு": 1910,
      "லர": 1911,
      "தீர்ம": 1912,
      "க்ரைன": 1913,
      "பிரா": 1914,
      "ானது": 1915,
      "ூட": 1916,
      "ண்டாட": 1917,
      "ப்பை": 1918,
      "காட்ச": 1919,
      "ுங்க": 1920,
      "ொருள்": 1921,
      "ிபத்த": 1922,
      "கைய": 1923,
      "எனவும": 1924,
      "வாக்க": 1925,
      "யோக": 1926,
      "ட்டை": 1927,
      "வடி": 1928,
      "ுமாறு": 1929,
      "போர்": 1930,
      "தென்": 1931,
      "கிரு": 1932,
      "ினை": 1933,
      "யைச்": 1934,
      "##்கு": 1935,
      "வைர": 1936,
      "சக்தி": 1937,
      "ல்கலை": 1938,
      "அனு": 1939,
      "##ழா": 1940,
      "ுவிழா": 1941,
      "சமீ": 1942,
      "தைத்": 1943,
      "ேட்ட": 1944,
      "சமய": 1945,
      "ஸ்தான": 1946,
      "பிள": 1947,
      "ியல": 1948,
      "சமீப": 1949,
      "வின": 1950,
      "வ்": 1951,
      "கொள்வ": 1952,
      "##ிழ": 1953,
      "ிகழ்வ": 1954,
      "உண்": 1955,
      "உண்மை": 1956,
      "ரயில்": 1957,
      "ற்றிய": 1958,
      "நிலவ": 1959,
      "டிப்ப": 1960,
      "முதலம": 1961,
      "நம்ப": 1962,
      "வரவ": 1963,
      "அதற்க": 1964,
      "ந்தச்": 1965,
      "ஓட்ட": 1966,
      "திற": 1967,
      "ரெ": 1968,
      "டப்ப": 1969,
      "ஆரா": 1970,
      "சந்த": 1971,
      "ாளை": 1972,
      "ஆட்ட": 1973,
      "ரீதி": 1974,
      "தீவிர": 1975,
      "பொதும": 1976,
      "ரசிகர": 1977,
      "லங்கா": 1978,
      "கார்": 1979,
      "்பி": 1980,
      "ற்பனை": 1981,
      "ண்ணீர": 1982,
      "மோத": 1983,
      "ோதி": 1984,
      "ாகவே": 1985,
      "நபர": 1986,
      "ுதி": 1987,
      "##பு": 1988,
      "போத": 1989,
      "##மத": 1990,
      "களும்": 1991,
      "##ளம": 1992,
      "உணர": 1993,
      "ட்டர": 1994,
      "ச்சு": 1995,
      "பதிவ": 1996,
      "போட": 1997,
      "நாய": 1998,
      "அம்மன": 1999,
      "றிய": 2000,
      "ிஷ": 2001,
      "ூடு": 2002,
      "ருவ": 2003,
      "ுதான்": 2004,
      "சோத": 2005,
      "ஊர": 2006,
      "ிரிவு": 2007,
      "கிருஷ": 2008,
      "விந": 2009,
      "கண்ண": 2010,
      "லே": 2011,
      "ிழமை": 2012,
      "வலியு": 2013,
      "ஆன": 2014,
      "குப்ப": 2015,
      "அக்": 2016,
      "ோத": 2017,
      "க்கது": 2018,
      "ஆச": 2019,
      "இணை": 2020,
      "ோக்கு": 2021,
      "கடன்": 2022,
      "பேச்ச": 2023,
      "யிலி": 2024,
      "வசதி": 2025,
      "ிழக்க": 2026,
      "ின்றி": 2027,
      "15": 2028,
      "புல": 2029,
      "ுதலீட": 2030,
      "னியார": 2031,
      "விரைவ": 2032,
      "சோதனை": 2033,
      "க்கண": 2034,
      "##்கா": 2035,
      "டம்ப": 2036,
      "குர": 2037,
      "டைத்த": 2038,
      "தந்தை": 2039,
      "பெண்ண": 2040,
      "ம்ச": 2041,
      "ப்பூர": 2042,
      "மூத்த": 2043,
      "நீண்ட": 2044,
      "சின்ன": 2045,
      "பகிர": 2046,
      "ஓவர": 2047,
      "வசிய": 2048,
      "ொள்க": 2049,
      "ய்ச்ச": 2050,
      "அதனை": 2051,
      "கண்கா": 2052,
      "கத்த": 2053,
      "யம": 2054,
      "சித்த": 2055,
      "சங்க": 2056,
      "க்கழக": 2057,
      "டக்க": 2058,
      "ீல": 2059,
      "ில்ல": 2060,
      "பீ": 2061,
      "##ரம": 2062,
      "ியமான": 2063,
      "ைப்பட": 2064,
      "ியதாக": 2065,
      "யல": 2066,
      "கேட்க": 2067,
      "அன்று": 2068,
      "ருங்க": 2069,
      "தொகை": 2070,
      "உத்தர": 2071,
      "ன்ம": 2072,
      "மகிழ": 2073,
      "ாம்ப": 2074,
      "்ப்ப": 2075,
      "்சி": 2076,
      "இடம்": 2077,
      "லியல்": 2078,
      "சாப்ப": 2079,
      "ாதிரி": 2080,
      "கடைசி": 2081,
      "ட்ப": 2082,
      "ிரட்ட": 2083,
      "ங்கில": 2084,
      "என்னை": 2085,
      "திரான": 2086,
      "புரம்": 2087,
      "அங்க": 2088,
      "நோக்க": 2089,
      "மைத்த": 2090,
      "12": 2091,
      "சட்டம": 2092,
      "காதல": 2093,
      "விவ": 2094,
      "ிலா": 2095,
      "கர்": 2096,
      "ேற்ப": 2097,
      "ந்த்": 2098,
      "்கடி": 2099,
      "சித": 2100,
      "ேயே": 2101,
      "ஊழ": 2102,
      "ிளக்க": 2103,
      "கவனம": 2104,
      "நுட்ப": 2105,
      "முத்த": 2106,
      "ஊழியர": 2107,
      "ேரில்": 2108,
      "ப்பா": 2109,
      "வெடி": 2110,
      "தரிச": 2111,
      "ுகா": 2112,
      "ெயர்": 2113,
      "க்கிற": 2114,
      "்களில": 2115,
      "ாதனை": 2116,
      "விழாவ": 2117,
      "ாணப்ப": 2118,
      "்யா": 2119,
      "லோச": 2120,
      "ேச": 2121,
      "ப்போத": 2122,
      "ாத்தி": 2123,
      "ோட்டு": 2124,
      "லெ": 2125,
      "ண்டி": 2126,
      "ொள்கை": 2127,
      "சிலர்": 2128,
      "வேல": 2129,
      "புகை": 2130,
      "தாகக்": 2131,
      "ிட்டு": 2132,
      "ப்ர": 2133,
      "ாக்கல": 2134,
      "டாக": 2135,
      "வட": 2136,
      "ேற்கு": 2137,
      "இன்ன": 2138,
      "சப": 2139,
      "்வு": 2140,
      "குறைவ": 2141,
      "வசி": 2142,
      "உற்ப": 2143,
      "விவர": 2144,
      "செய்க": 2145,
      "ாற்றம": 2146,
      "ோட": 2147,
      "##சாய": 2148,
      "க்கால": 2149,
      "ணைப்ப": 2150,
      "ிவசாய": 2151,
      "50": 2152,
      "ேத": 2153,
      "உடனடி": 2154,
      "நண": 2155,
      "ூடா": 2156,
      "நண்ப": 2157,
      "ஸ்வ": 2158,
      "ள்ளி": 2159,
      "இறந்த": 2160,
      "போர": 2161,
      "கலா": 2162,
      "பயணம்": 2163,
      "சபை": 2164,
      "in": 2165,
      "இதன": 2166,
      "மேம்ப": 2167,
      "யிகள": 2168,
      "ிம்": 2169,
      "விவசா": 2170,
      "ிடப்ப": 2171,
      "ான்கு": 2172,
      "யர": 2173,
      "ினால்": 2174,
      "ிறோம்": 2175,
      "கோவை": 2176,
      "சூழல": 2177,
      "கம்": 2178,
      "விவாத": 2179,
      "ஆய்வ": 2180,
      "இலக்க": 2181,
      "##ித": 2182,
      "சவ": 2183,
      "ோய்": 2184,
      "தோடு": 2185,
      "பிரதி": 2186,
      "சிற": 2187,
      "ங்கா": 2188,
      "ரான்": 2189,
      "ிக்கல": 2190,
      "யைத்": 2191,
      "ருமான": 2192,
      "மிட்ட": 2193,
      "ாகிகள": 2194,
      "கடி": 2195,
      "ேம": 2196,
      "நவ": 2197,
      "மோசம": 2198,
      "எல்லா": 2199,
      "வீடு": 2200,
      "ன்று": 2201,
      "லோசனை": 2202,
      "ங்கே": 2203,
      "30": 2204,
      "பணிகள": 2205,
      "##ீஸ்": 2206,
      "ரும": 2207,
      "காய": 2208,
      "வந்தி": 2209,
      "மோ": 2210,
      "ெல்ல": 2211,
      "ந்தில": 2212,
      "எழுத": 2213,
      "தேவைய": 2214,
      "ோக்கி": 2215,
      "ுகாதா": 2216,
      "ஒட்ட": 2217,
      "ட்டா": 2218,
      "சீர": 2219,
      "தக்க": 2220,
      "##ின்": 2221,
      "யண": 2222,
      "ன்றி": 2223,
      "ுன்ன": 2224,
      "ாப்": 2225,
      "ேஸ்வர": 2226,
      "மச": 2227,
      "வலை": 2228,
      "டையாள": 2229,
      "ரவி": 2230,
      "ெளிய": 2231,
      "போதும": 2232,
      "அவற்ற": 2233,
      "கப்ப": 2234,
      "க்கர": 2235,
      "ூடாது": 2236,
      "கடும்": 2237,
      "ஆவ": 2238,
      "ித": 2239,
      "ிக்கா": 2240,
      "ழைக்க": 2241,
      "னாலும": 2242,
      "ஸ்க": 2243,
      "ெளியே": 2244,
      "னந": 2245,
      "ும்பை": 2246,
      "ரக": 2247,
      "ொத்தம": 2248,
      "ுவங்க": 2249,
      "ளிப்ப": 2250,
      "மண": 2251,
      "##ீத": 2252,
      "ற்றோர": 2253,
      "கடித": 2254,
      "ியாக": 2255,
      "ுதல்": 2256,
      "ற்காக": 2257,
      "##வீத": 2258,
      "அம்மா": 2259,
      "சதவீத": 2260,
      "குஜ": 2261,
      "இனி": 2262,
      "மண்ட": 2263,
      "ய்ந்த": 2264,
      "ைத்த": 2265,
      "ண்கள": 2266,
      "தாரண": 2267,
      "ிப்பு": 2268,
      "மில்ல": 2269,
      "பட்ச": 2270,
      "ுபி": 2271,
      "்திரை": 2272,
      "உட்பட": 2273,
      "பாடு": 2274,
      "கடற்": 2275,
      "ண்டை": 2276,
      "க்ஸ": 2277,
      "யற்க": 2278,
      "பணியா": 2279,
      "யற்கை": 2280,
      "த்தீ": 2281,
      "லக": 2282,
      "சொல": 2283,
      "டம்பெ": 2284,
      "டங்கி": 2285,
      "லைமைய": 2286,
      "##ேன்": 2287,
      "ராட்ட": 2288,
      "ச்சார": 2289,
      "ப்பி": 2290,
      "பால்": 2291,
      "படம்": 2292,
      "்குழு": 2293,
      "ார்வை": 2294,
      "ாலா": 2295,
      "நீர": 2296,
      "எல்லை": 2297,
      "ாட்டு": 2298,
      "யெ": 2299,
      "னவர": 2300,
      "பகவ": 2301,
      "எனது": 2302,
      "வருவ": 2303,
      "யிலும": 2304,
      "அல்ல": 2305,
      "ினால": 2306,
      "னம்": 2307,
      "ாலை": 2308,
      "மீதான": 2309,
      "இதே": 2310,
      "11": 2311,
      "ஃப்": 2312,
      "ஏரா": 2313,
      "ரள": 2314,
      "ஆதரவு": 2315,
      "த்தனை": 2316,
      "ுபிடி": 2317,
      "ுமல்ல": 2318,
      "ினி": 2319,
      "டே": 2320,
      "ுப்": 2321,
      "ஏராளம": 2322,
      "டோ": 2323,
      "வீன": 2324,
      "ோலீஸ்": 2325,
      "அன்ப": 2326,
      "லய": 2327,
      "விஜய": 2328,
      "சன்": 2329,
      "குள": 2330,
      "நல": 2331,
      "ட்டர்": 2332,
      "ன்பவர": 2333,
      "கரி": 2334,
      "ோர்": 2335,
      "##கள்": 2336,
      "ியன்": 2337,
      "வசியம": 2338,
      "ரியாக": 2339,
      "லரும்": 2340,
      "ேச்ச": 2341,
      "ிறக்க": 2342,
      "வென்ற": 2343,
      "லீ": 2344,
      "கதை": 2345,
      "யரச": 2346,
      "மீற": 2347,
      "யைக்": 2348,
      "கற்ற": 2349,
      "தம": 2350,
      "##டுக": 2351,
      "ஆயிரம": 2352,
      "கட்டண": 2353,
      "கணவர": 2354,
      "போய்": 2355,
      "செயல்": 2356,
      "ப்பில": 2357,
      "வுள்ள": 2358,
      "ோப்ப": 2359,
      "தில்ல": 2360,
      "இவர": 2361,
      "பண்ண": 2362,
      "ஸ்வர": 2363,
      "ூடுதல": 2364,
      "டல": 2365,
      "அவை": 2366,
      "தள": 2367,
      "ித்து": 2368,
      "சிய": 2369,
      "ற்கான": 2370,
      "உதவ": 2371,
      "அட": 2372,
      "விளை": 2373,
      "பக்கம": 2374,
      "ட்டச": 2375,
      "ன்னா": 2376,
      "்தான்": 2377,
      "வத": 2378,
      "வாச": 2379,
      "ிஸ்": 2380,
      "நண்பர": 2381,
      "வலி": 2382,
      "்றி": 2383,
      "யிடம": 2384,
      "பங்கு": 2385,
      "தரிசன": 2386,
      "ாந்த": 2387,
      "நம்ம": 2388,
      "அமை": 2389,
      "பாடல": 2390,
      "ுலா": 2391,
      "ராமர": 2392,
      "பகவான": 2393,
      "சபா": 2394,
      "காலம்": 2395,
      "நான": 2396,
      "உறவ": 2397,
      "்பெ": 2398,
      "நின்ற": 2399,
      "பிரப": 2400,
      "ரியான": 2401,
      "கம்ப": 2402,
      "டைமுற": 2403,
      "ையும": 2404,
      "பாராள": 2405,
      "ாப்ப": 2406,
      "கில்": 2407,
      "்சினை": 2408,
      "த்தால": 2409,
      "ருமாள": 2410,
      "ருகில": 2411,
      "நரே": 2412,
      "ய்ய": 2413,
      "மாநகர": 2414,
      "தைப்": 2415,
      "ோல்வி": 2416,
      "ற்றி": 2417,
      "மூன்ற": 2418,
      "நியமி": 2419,
      "கிறது": 2420,
      "கண்டி": 2421,
      "மனு": 2422,
      "துகு": 2423,
      "்கால": 2424,
      "னின்": 2425,
      "சீனாவ": 2426,
      "அனுப": 2427,
      "துகுற": 2428,
      "ஓய": 2429,
      "ுருக": 2430,
      "ன்முற": 2431,
      "கிரிக": 2432,
      "மோதல": 2433,
      "நம": 2434,
      "லையில": 2435,
      "யாத": 2436,
      "ேற": 2437,
      "ன்ச": 2438,
      "ரல்": 2439,
      "ோட்டை": 2440,
      "ுந": 2441,
      "##an": 2442,
      "குஜரா": 2443,
      "்ன": 2444,
      "ீடுகள": 2445,
      "ியம": 2446,
      "ுமதி": 2447,
      "ாமல": 2448,
      "ர்செ": 2449,
      "ிலாளர": 2450,
      "கரை": 2451,
      "ஜோ": 2452,
      "ுட்ட": 2453,
      "ந்தர": 2454,
      "டீ": 2455,
      "றிமுக": 2456,
      "ுருகன": 2457,
      "அழக": 2458,
      "ொது": 2459,
      "ர்ஜ": 2460,
      "ஆயு": 2461,
      "ஏற்கன": 2462,
      "காம": 2463,
      "சாதி": 2464,
      "##ளிவ": 2465,
      "நுழை": 2466,
      "ுன": 2467,
      "ஞான": 2468,
      "டன்": 2469,
      "தப்ப": 2470,
      "ஸ்ப": 2471,
      "த்தகை": 2472,
      "ஒப்பந": 2473,
      "ந்தது": 2474,
      "ந்தேக": 2475,
      "ண்டனை": 2476,
      "அனுபவ": 2477,
      "ஆயுத": 2478,
      "க்காவ": 2479,
      "சிறுவ": 2480,
      "உறவு": 2481,
      "கிலோ": 2482,
      "விள": 2483,
      "இஸ்": 2484,
      "கிட்ட": 2485,
      "ஞ்சி": 2486,
      "வெள்ள": 2487,
      "ளம்": 2488,
      "மண்டல": 2489,
      "ர்மா": 2490,
      "சூரிய": 2491,
      "ிறேன்": 2492,
      "ஓட": 2493,
      "ுழுமை": 2494,
      "ிருது": 2495,
      "ஜே": 2496,
      "வள": 2497,
      "கான்": 2498,
      "ழிய": 2499,
      "ஓய்வ": 2500,
      "ஆஸ": 2501,
      "முன்வ": 2502,
      "விஜய்": 2503,
      "பின்ப": 2504,
      "வீழ": 2505,
      "ேட்டை": 2506,
      "ோப்பை": 2507,
      "ல்ய": 2508,
      "யல்ப": 2509,
      "பொறு": 2510,
      "வடிவ": 2511,
      "அரு": 2512,
      "##நா": 2513,
      "ாவத": 2514,
      "்ள": 2515,
      "ுள்ளன": 2516,
      "உருவ": 2517,
      "நிர": 2518,
      "கோப": 2519,
      "தேப": 2520,
      "சிங்க": 2521,
      "தழ": 2522,
      "ுத்": 2523,
      "கீழ": 2524,
      "வாழ்வ": 2525,
      "ரவ": 2526,
      "ுற்றி": 2527,
      "அப்பா": 2528,
      "களம": 2529,
      "விலக": 2530,
      "கதி": 2531,
      "செலவு": 2532,
      "ரையாட": 2533,
      "பலம": 2534,
      "அமைதி": 2535,
      "ாரா": 2536,
      "##ுமி": 2537,
      "ெய்": 2538,
      "##எஸ்": 2539,
      "வரத்த": 2540,
      "அங்கி": 2541,
      "கலை": 2542,
      "ிலான": 2543,
      "ரத்து": 2544,
      "ிறுமி": 2545,
      "ுயன்ற": 2546,
      "வான": 2547,
      "மின்ச": 2548,
      "சல": 2549,
      "டங்க": 2550,
      "முஸ்": 2551,
      "சுர": 2552,
      "வலைத": 2553,
      "யன்": 2554,
      "தாய்": 2555,
      "ிகப்ப": 2556,
      "்ஸ": 2557,
      "ஓர": 2558,
      "தன்னை": 2559,
      "ற்ச": 2560,
      "ொற்ற": 2561,
      "ட்டன": 2562,
      "தில்": 2563,
      "வீதி": 2564,
      "தேடி": 2565,
      "வீச்ச": 2566,
      "நமது": 2567,
      "கொள்க": 2568,
      "ப்போக": 2569,
      "ட்வி": 2570,
      "உதய": 2571,
      "நிர்": 2572,
      "ின்ப": 2573,
      "ிக்கி": 2574,
      "சனி": 2575,
      "ர்ட": 2576,
      "ைக்க": 2577,
      "திவிட": 2578,
      "பொதுக": 2579,
      "கள்ள": 2580,
      "கொடி": 2581,
      "ள்ளூர": 2582,
      "ராஜா": 2583,
      "ேக்": 2584,
      "ோன": 2585,
      "ீட்டு": 2586,
      "யில்ல": 2587,
      "டிவி": 2588,
      "ுதலை": 2589,
      "ிலைமை": 2590,
      "பாதை": 2591,
      "னம": 2592,
      "ப்பம": 2593,
      "ிசு": 2594,
      "ோலி": 2595,
      "ாக்": 2596,
      "பறி": 2597,
      "முஸ்ல": 2598,
      "வன்": 2599,
      "கைப்ப": 2600,
      "##ாயக": 2601,
      "நேரடி": 2602,
      "ளவு": 2603,
      "ஆரம்ப": 2604,
      "மரண": 2605,
      "ஐந்து": 2606,
      "ரர்கள": 2607,
      "வியா": 2608,
      "வேகம": 2609,
      "விரிவ": 2610,
      "ெட்": 2611,
      "ம்பா": 2612,
      "இறங்க": 2613,
      "ுமே": 2614,
      "ரயில": 2615,
      "ுன்னெ": 2616,
      "ரேல": 2617,
      "ஆல": 2618,
      "யரசு": 2619,
      "ெட்டி": 2620,
      "மீன": 2621,
      "சேகர": 2622,
      "தமிழர": 2623,
      "ெல": 2624,
      "ேல": 2625,
      "வீச": 2626,
      "ாணி": 2627,
      "ருள": 2628,
      "ெரிய": 2629,
      "ரேலிய": 2630,
      "்த்து": 2631,
      "ள்ளே": 2632,
      "்றால்": 2633,
      "சிகலா": 2634,
      "ட்டசப": 2635,
      "ப்ட": 2636,
      "ார்ச்": 2637,
      "##ோதர": 2638,
      "சகோதர": 2639,
      "இழ": 2640,
      "கழ": 2641,
      "்டார்": 2642,
      "ரிவ": 2643,
      "திறன": 2644,
      "இழந்த": 2645,
      "ஆறு": 2646,
      "யணி": 2647,
      "ெக்": 2648,
      "யாரும": 2649,
      "சுய": 2650,
      "லிங்க": 2651,
      "ச்சனை": 2652,
      "செலவ": 2653,
      "சுட்ட": 2654,
      "ிள்ள": 2655,
      "ித்": 2656,
      "ாக்கி": 2657,
      "உணவ": 2658,
      "ஒன்றை": 2659,
      "பிரிவ": 2660,
      "ஒத்த": 2661,
      "கொல்ல": 2662,
      "சிலர": 2663,
      "ைக்கு": 2664,
      "பேரா": 2665,
      "ண்டர": 2666,
      "##ோல": 2667,
      "தேபோல": 2668,
      "படுக": 2669,
      "துப்ப": 2670,
      "க்டர்": 2671,
      "முறைய": 2672,
      "த்ம": 2673,
      "ிள்ளை": 2674,
      "40": 2675,
      "படை": 2676,
      "ேச்சு": 2677,
      "ிமுக": 2678,
      "க்கொ": 2679,
      "ாஷ்": 2680,
      "தெளிவ": 2681,
      "பர்கள": 2682,
      "ஜூலை": 2683,
      "ூற்ற": 2684,
      "்ரா": 2685,
      "நாத்": 2686,
      "##ிலை": 2687,
      "ிக்ரம": 2688,
      "குல": 2689,
      "கவலை": 2690,
      "சன": 2691,
      "ுள்ளி": 2692,
      "ஆவண": 2693,
      "ரச": 2694,
      "கப்பல": 2695,
      "திண": 2696,
      "பேட்": 2697,
      "ுகை": 2698,
      "கமத": 2699,
      "ப்பூ": 2700,
      "டவ": 2701,
      "ணய": 2702,
      "ங்கர": 2703,
      "ுபவர": 2704,
      "விண்ண": 2705,
      "ண்மைய": 2706,
      "ொத்து": 2707,
      "ுற்றம": 2708,
      "்ஸ்": 2709,
      "ட்டில": 2710,
      "ஞ்சாப": 2711,
      "லலி": 2712,
      "ராஜப": 2713,
      "ுநர": 2714,
      "வித்த": 2715,
      "ருணா": 2716,
      "ன்ட": 2717,
      "பெரு": 2718,
      "ிமுகவ": 2719,
      "நடு": 2720,
      "்ஷ": 2721,
      "ுத்தக": 2722,
      "உடை": 2723,
      "டீர": 2724,
      "ீவிர": 2725,
      "ழிவ": 2726,
      "ீவிரம": 2727,
      "ொட்ட": 2728,
      "லலிதா": 2729,
      "கழக": 2730,
      "சந்தை": 2731,
      "14": 2732,
      "ீர": 2733,
      "ட்டோ": 2734,
      "கேப்": 2735,
      "ுவார": 2736,
      "டீரென": 2737,
      "ாஸ": 2738,
      "ங்கு": 2739,
      "மாகாண": 2740,
      "ப்பான": 2741,
      "யாராக": 2742,
      "விதம": 2743,
      "த்ய": 2744,
      "ளர்கள": 2745,
      "யணிகள": 2746,
      "ளவ": 2747,
      "ங்கட": 2748,
      "ொடர": 2749,
      "றங்க": 2750,
      "ிஜ": 2751,
      "நியூ": 2752,
      "ட்பு": 2753,
      "சொல்க": 2754,
      "ல்லி": 2755,
      "மேட": 2756,
      "வுன்": 2757,
      "சீன": 2758,
      "குவி": 2759,
      "ஆஸ்தி": 2760,
      "ோது": 2761,
      "##on": 2762,
      "றிஞர": 2763,
      "னநாயக": 2764,
      "ணத்தை": 2765,
      "ராத": 2766,
      "நிபு": 2767,
      "நிபுண": 2768,
      "கன்": 2769,
      "டிகர்": 2770,
      "ுத்தி": 2771,
      "ாற்று": 2772,
      "கௌ": 2773,
      "னோ": 2774,
      "சொல்வ": 2775,
      "ியோக": 2776,
      "ட்க": 2777,
      "ரம்": 2778,
      "ிற்ப": 2779,
      "18": 2780,
      "வகி": 2781,
      "ன்றைய": 2782,
      "25": 2783,
      "##ையா": 2784,
      "மாறி": 2785,
      "தொடர்": 2786,
      "தீன": 2787,
      "ுறவு": 2788,
      "குரல": 2789,
      "விடுவ": 2790,
      "ஷன": 2791,
      "யிற": 2792,
      "மூர": 2793,
      "பேராச": 2794,
      "ல்ப": 2795,
      "க்கி": 2796,
      "மக்கு": 2797,
      "ழப்ப": 2798,
      "##கம": 2799,
      "##றுவ": 2800,
      "த்ர": 2801,
      "வாள": 2802,
      "கவனி": 2803,
      "வரிசை": 2804,
      "ாத்த": 2805,
      "அவன": 2806,
      "சவால": 2807,
      "ீட்": 2808,
      "டிங்": 2809,
      "ிமி": 2810,
      "ொல": 2811,
      "ியல்": 2812,
      "எனத்": 2813,
      "ஆகும்": 2814,
      "ச்சல": 2815,
      "ணக்க": 2816,
      "தப்பி": 2817,
      "ழியாக": 2818,
      "நாக": 2819,
      "னர": 2820,
      "ுதன்": 2821,
      "##ar": 2822,
      "ஹோ": 2823,
      "ியன": 2824,
      "ுந்தர": 2825,
      "யானை": 2826,
      "ருமை": 2827,
      "டைப்ப": 2828,
      "ாளிகள": 2829,
      "்வுகள": 2830,
      "13": 2831,
      "ாண்டு": 2832,
      "ாகப்": 2833,
      "பெறுவ": 2834,
      "தீர்வ": 2835,
      "ஜூன்": 2836,
      "டர": 2837,
      "தல": 2838,
      "கண்டன": 2839,
      "ேர்வ": 2840,
      "்ரி": 2841,
      "அறிவு": 2842,
      "ரப்பு": 2843,
      "ழும": 2844,
      "ெள்ளி": 2845,
      "ங்கை": 2846,
      "யர்": 2847,
      "கூடிய": 2848,
      "ளக்கம": 2849,
      "ினார": 2850,
      "கையில": 2851,
      "கோர": 2852,
      "ரவை": 2853,
      "ெற": 2854,
      "சிறிய": 2855,
      "தற்கொ": 2856,
      "ுண்டு": 2857,
      "ொன்ற": 2858,
      "குண": 2859,
      "பேசி": 2860,
      "நிறைய": 2861,
      "ிலும": 2862,
      "உட்": 2863,
      "டைக்க": 2864,
      "ஸ்ம": 2865,
      "பை": 2866,
      "ெல்": 2867,
      "்றில்": 2868,
      "மிய": 2869,
      "முற்ற": 2870,
      "கொட": 2871,
      "லம்": 2872,
      "ட்டம": 2873,
      "விளைவ": 2874,
      "கால்": 2875,
      "ராஜபக": 2876,
      "ிரம": 2877,
      "ாராய": 2878,
      "வலைதள": 2879,
      "ுந்து": 2880,
      "ுமு": 2881,
      "வேத": 2882,
      "ற்று": 2883,
      "ிரிகை": 2884,
      "ாபா": 2885,
      "பிவிர": 2886,
      "எரி": 2887,
      "ங்களத": 2888,
      "ங்கல்": 2889,
      "ாரிய": 2890,
      "நகர்": 2891,
      "ல்யாண": 2892,
      "ஏப்": 2893,
      "திட": 2894,
      "ுநர்": 2895,
      "லன்": 2896,
      "ிச்சய": 2897,
      "ாளில்": 2898,
      "ப்பூச": 2899,
      "துடன்": 2900,
      "ட்ரோ": 2901,
      "வழிபட": 2902,
      "இஸ்லா": 2903,
      "அருள்": 2904,
      "ற்சவ": 2905,
      "பன்ன": 2906,
      "அங்கே": 2907,
      "நீங்க": 2908,
      "ுறப்ப": 2909,
      "உரிய": 2910,
      "த்திட": 2911,
      "விண்": 2912,
      "ுமை": 2913,
      "ுகாம": 2914,
      "துவாக": 2915,
      "டுமை": 2916,
      "ேட்டி": 2917,
      "சேர": 2918,
      "வுண்ட": 2919,
      "நீதி": 2920,
      "கிடைய": 2921,
      "யர்வ": 2922,
      "ுமி": 2923,
      "ன்ஸ்": 2924,
      "ேஜ": 2925,
      "பயன": 2926,
      "கிரக": 2927,
      "்பிய": 2928,
      "வெட்ட": 2929,
      "ாட்": 2930,
      "மஹ": 2931,
      "கல்": 2932,
      "அளவு": 2933,
      "ஷ்டிர": 2934,
      "ின்போ": 2935,
      "சுவ": 2936,
      "ன்னு": 2937,
      "ம்பி": 2938,
      "16": 2939,
      "சுப": 2940,
      "ரேன": 2941,
      "லாக": 2942,
      "ுதல்வ": 2943,
      "றுவ": 2944,
      "ஷா": 2945,
      "ஹா": 2946,
      "ராவிட": 2947,
      "மகார": 2948,
      "மிட": 2949,
      "மகாரா": 2950,
      "நினைவ": 2951,
      "ரப": 2952,
      "லத்த": 2953,
      "ொடர்ப": 2954,
      "ைட்": 2955,
      "திரி": 2956,
      "குறு": 2957,
      "ரளா": 2958,
      "சம்பந": 2959,
      "ரன்": 2960,
      "ான்ற": 2961,
      "ைல": 2962,
      "டனே": 2963,
      "ளங்கள": 2964,
      "ாஸ்": 2965,
      "ொற்று": 2966,
      "தேர": 2967,
      "ாலான": 2968,
      "எட்ட": 2969,
      "விய": 2970,
      "கோல": 2971,
      "ணைக்க": 2972,
      "ாகவும": 2973,
      "ஆதரவா": 2974,
      "தோற": 2975,
      "யணத்த": 2976,
      "அறை": 2977,
      "ஆற": 2978,
      "ம்மை": 2979,
      "24": 2980,
      "டிச": 2981,
      "ஆபத்த": 2982,
      "ிழி": 2983,
      "ளத்த": 2984,
      "ேயர": 2985,
      "ள்ளை": 2986,
      "களின்": 2987,
      "பயணி": 2988,
      "ல்வம்": 2989,
      "வோ": 2990,
      "தேட": 2991,
      "ோதனை": 2992,
      "##or": 2993,
      "னிப்ப": 2994,
      "னிமா": 2995,
      "ம்சா": 2996,
      "யத்த": 2997,
      "ழக்க": 2998,
      "##வரை": 2999,
      "டைகள": 3000,
      "ணிந்த": 3001,
      "விகித": 3002,
      "அத்த": 3003,
      "ுமுறை": 3004,
      "ர்ட்": 3005,
      "பெர": 3006,
      "இக்": 3007,
      "ிசை": 3008,
      "ுஷ": 3009,
      "ுட்": 3010,
      "ஞ்சம்": 3011,
      "துண": 3012,
      "ும்பா": 3013,
      "பன்னீ": 3014,
      "ுவை": 3015,
      "ிட்டி": 3016,
      "மால": 3017,
      "அலுவ": 3018,
      "ோர்ட்": 3019,
      "னங்கள": 3020,
      "அலுவல": 3021,
      "பட்டி": 3022,
      "ரிந்த": 3023,
      "ன்றிய": 3024,
      "கரம": 3025,
      "ூதி": 3026,
      "ாழ": 3027,
      "மான்": 3028,
      "ஒழ": 3029,
      "னல": 3030,
      "மறை": 3031,
      "ளாக": 3032,
      "ையே": 3033,
      "அண": 3034,
      "லோ": 3035,
      "ரமணி": 3036,
      "ங்": 3037,
      "வைப்ப": 3038,
      "ரல": 3039,
      "ோம": 3040,
      "ம்ஸ்": 3041,
      "தீப": 3042,
      "இன": 3043,
      "வரப்ப": 3044,
      "ச்சே": 3045,
      "சிலை": 3046,
      "திரட": 3047,
      "##er": 3048,
      "வான்": 3049,
      "ப்பர்": 3050,
      "பரப்ப": 3051,
      "17": 3052,
      "காந்த": 3053,
      "மீர": 3054,
      "யற்ப": 3055,
      "அக்க": 3056,
      "தம்": 3057,
      "லாப": 3058,
      "கூர": 3059,
      "யேற்ற": 3060,
      "மனத": 3061,
      "th": 3062,
      "யிர": 3063,
      "போதை": 3064,
      "ிதா": 3065,
      "தட": 3066,
      "ஆதி": 3067,
      "ண்ப": 3068,
      "ைப்ப": 3069,
      "தித்த": 3070,
      "கர்நா": 3071,
      "டகா": 3072,
      "னந்த": 3073,
      "டங்கு": 3074,
      "ரட்ட": 3075,
      "ென்": 3076,
      "அவச": 3077,
      "ெங்க": 3078,
      "ெல்ப": 3079,
      "ாகம்": 3080,
      "ளித": 3081,
      "மொழி": 3082,
      "இம்": 3083,
      "ளவில்": 3084,
      "ழைய": 3085,
      "ிமிட": 3086,
      "ாளைய": 3087,
      "டின": 3088,
      "ியாச": 3089,
      "னென": 3090,
      "யுக்": 3091,
      "100": 3092,
      "்டால்": 3093,
      "்பில்": 3094,
      "்கிரம": 3095,
      "மூல": 3096,
      "றுதி": 3097,
      "பூர்வ": 3098,
      "இப்ப": 3099,
      "த்தக": 3100,
      "மீட்ட": 3101,
      "்தவரை": 3102,
      "தைக்": 3103,
      "ந்தோ": 3104,
      "்லை": 3105,
      "ேஷன": 3106,
      "பாச": 3107,
      "வதி": 3108,
      "ிப்": 3109,
      "உடன்": 3110,
      "க்கல்": 3111,
      "்லைன": 3112,
      "ப்புற": 3113,
      "ஆப": 3114,
      "ளும்": 3115,
      "ுவதை": 3116,
      "ணுக": 3117,
      "ணர்வ": 3118,
      "ீப்": 3119,
      "மித்": 3120,
      "பாய": 3121,
      "டிக": 3122,
      "யினர்": 3123,
      "பஞ": 3124,
      "திவு": 3125,
      "மீன்": 3126,
      "ம்மன்": 3127,
      "பஞ்ச": 3128,
      "ங்கல": 3129,
      "டைவ": 3130,
      "கழி": 3131,
      "களைப்": 3132,
      "ியூ": 3133,
      "மாஸ்": 3134,
      "கண்டற": 3135,
      "ஆகியவ": 3136,
      "ட்டவர": 3137,
      "பாண்ட": 3138,
      "ுரங்க": 3139,
      "தூக்க": 3140,
      "ரஜ": 3141,
      "கிழ": 3142,
      "ற்றை": 3143,
      "ங்கீ": 3144,
      "ாயக": 3145,
      "ரூபாய": 3146,
      "வராக": 3147,
      "ய்க": 3148,
      "ன்ட்": 3149,
      "ள்வ": 3150,
      "ைஞர": 3151,
      "ண்டப": 3152,
      "சூழ்ந": 3153,
      "தூர": 3154,
      "ாரி": 3155,
      "இன்": 3156,
      "மர்ச": 3157,
      "ரியாத": 3158,
      "அந்ந": 3159,
      "முனை": 3160,
      "தவறு": 3161,
      "எல": 3162,
      "த்தர": 3163,
      "ாயகர்": 3164,
      "சிக்": 3165,
      "்புக": 3166,
      "ெண்ட": 3167,
      "காரை": 3168,
      "யல்": 3169,
      "ோஷ": 3170,
      "வேளை": 3171,
      "னமும்": 3172,
      "த்தா": 3173,
      "ராய": 3174,
      "காப்ப": 3175,
      "ூவ": 3176,
      "பரி": 3177,
      "கடல": 3178,
      "ிர்": 3179,
      "கடல்": 3180,
      "மர்சன": 3181,
      "ந்தி": 3182,
      "ரத": 3183,
      "ுகம": 3184,
      "நீட்": 3185,
      "ுகளில": 3186,
      "ீடி": 3187,
      "##டம": 3188,
      "ரிமை": 3189,
      "ோன்று": 3190,
      "வீசி": 3191,
      "ாட்டை": 3192,
      "ுவதாக": 3193,
      "ாதாரம": 3194,
      "சல்": 3195,
      "ாவில்": 3196,
      "ூப": 3197,
      "ாதா": 3198,
      "்ல": 3199,
      "மாம": 3200,
      "அறிவ": 3201,
      "வற்றை": 3202,
      "்பதி": 3203,
      "ஏற்பட": 3204,
      "ாயம்": 3205,
      "னுக்க": 3206,
      "டாத": 3207,
      "னியாக": 3208,
      "மார்க": 3209,
      "அச": 3210,
      "அச்ச": 3211,
      "ையா": 3212,
      "நீர்": 3213,
      "கண்டு": 3214,
      "ட்டிய": 3215,
      "பர்": 3216,
      "்கம": 3217,
      "சேத": 3218,
      "ச்செ": 3219,
      "ப்பன": 3220,
      "ாப்பா": 3221,
      "ன்கள": 3222,
      "ரப்ப": 3223,
      "##வின": 3224,
      "திலும": 3225,
      "க்ச": 3226,
      "ார்க": 3227,
      "நாம": 3228,
      "டிகை": 3229,
      "யூனி": 3230,
      "தவி": 3231,
      "விட்": 3232,
      "ட்டார": 3233,
      "ியில்": 3234,
      "பிரிய": 3235,
      "்நாட": 3236,
      "ஓர்": 3237,
      "பிஎஸ்": 3238,
      "வரிடம": 3239,
      "ti": 3240,
      "ளம": 3241,
      "கேர": 3242,
      "வலர": 3243,
      "குத்த": 3244,
      "றுக": 3245,
      "்ம": 3246,
      "ஞ்சு": 3247,
      "கன்ன": 3248,
      "ுக்கி": 3249,
      "ிட்": 3250,
      "ுற்று": 3251,
      "ெறும்": 3252,
      "ாந்து": 3253,
      "க்கடி": 3254,
      "ண்டா": 3255,
      "த்தூர": 3256,
      "தாம்": 3257,
      "ுமார": 3258,
      "லிவ": 3259,
      "ுண்ட": 3260,
      "்தம": 3261,
      "ாயா": 3262,
      "ச்சேர": 3263,
      "உப": 3264,
      "ூலி": 3265,
      "ியம்": 3266,
      "்பள": 3267,
      "ாசா": 3268,
      "்ட்ர": 3269,
      "எஸ": 3270,
      "சார்": 3271,
      "ழல்": 3272,
      "ெய்வ": 3273,
      "ையெ": 3274,
      "ணிக": 3275,
      "வலு": 3276,
      "எங்க": 3277,
      "ஹர": 3278,
      "த்தல": 3279,
      "டுகளை": 3280,
      "க்ர": 3281,
      "ிட்டன": 3282,
      "பூர": 3283,
      "ுரிய": 3284,
      "ைன": 3285,
      "சாத்த": 3286,
      "திரை": 3287,
      "காசி": 3288,
      "ணிகள": 3289,
      "ெல்வ": 3290,
      "பிக்": 3291,
      "ீவ": 3292,
      "சூழல்": 3293,
      "ர்ன": 3294,
      "எழுதி": 3295,
      "ினைவு": 3296,
      "தகம": 3297,
      "தன்மை": 3298,
      "ிகள்": 3299,
      "ுதித": 3300,
      "நாயகர": 3301,
      "சர": 3302,
      "்நாடக": 3303,
      "ஜ்": 3304,
      "க்களி": 3305,
      "சிக்க": 3306,
      "்ஜி": 3307,
      "பாஸ்": 3308,
      "ுறைய": 3309,
      "ின்ன": 3310,
      "ானே": 3311,
      "ுவார்": 3312,
      "ரூர": 3313,
      "ைதான": 3314,
      "கரில்": 3315,
      "ஏற்பா": 3316,
      "க்டர": 3317,
      "கான": 3318,
      "லம": 3319,
      "st": 3320,
      "லாந்த": 3321,
      "an": 3322,
      "ூக்கி": 3323,
      "டவு": 3324,
      "தள்ள": 3325,
      "ீங்க": 3326,
      "ூர்வ": 3327,
      "மேன": 3328,
      "ுடிய": 3329,
      "ையட": 3330,
      "60": 3331,
      "ொட்டி": 3332,
      "ியோ": 3333,
      "வண": 3334,
      "ரண்ட": 3335,
      "ராம்": 3336,
      "நிற": 3337,
      "லகம்": 3338,
      "ணிய": 3339,
      "ுலி": 3340,
      "றுதிய": 3341,
      "ூத்த": 3342,
      "்கிற": 3343,
      "ளங்க": 3344,
      "ஹெ": 3345,
      "லாக்க": 3346,
      "ீட்டர": 3347,
      "டர்": 3348,
      "ாபாத்": 3349,
      "er": 3350,
      "ாலி": 3351,
      "டக்கு": 3352,
      "நீதிம": 3353,
      "கவர": 3354,
      "ிவா": 3355,
      "த்தம்": 3356,
      "மாஸ": 3357,
      "எனப்": 3358,
      "லுங்க": 3359,
      "தானி": 3360,
      "##al": 3361,
      "ழிக்க": 3362,
      "கணி": 3363,
      "ஞா": 3364,
      "மலா": 3365,
      "ராச": 3366,
      "விர": 3367,
      "வம": 3368,
      "வழிய": 3369,
      "ப்பாட": 3370,
      "திருந": 3371,
      "ிற்ற": 3372,
      "ன்க": 3373,
      "க்குவ": 3374,
      "ாமத்த": 3375,
      "ோதா": 3376,
      "ிகளை": 3377,
      "்க்": 3378,
      "டில்": 3379,
      "ட்சிய": 3380,
      "ர்வல": 3381,
      "பொறுத": 3382,
      "ணிகளை": 3383,
      "னவு": 3384,
      "21": 3385,
      "ாகத்த": 3386,
      "டியே": 3387,
      "முட": 3388,
      "ங்கம்": 3389,
      "ந்தா": 3390,
      "சிந்த": 3391,
      "ிவச": 3392,
      "ஊர்": 3393,
      "ுப்பி": 3394,
      "உயர்ந": 3395,
      "இசை": 3396,
      "ொம": 3397,
      "ிரஸ": 3398,
      "னித்த": 3399,
      "ாசு": 3400,
      "என்ப": 3401,
      "ரியல": 3402,
      "களைக்": 3403,
      "்தப்ப": 3404,
      "ுவதில": 3405,
      "ான்மை": 3406,
      "##டன": 3407,
      "லைக்க": 3408,
      "பிரபல": 3409,
      "ாஜ்": 3410,
      "ேனா": 3411,
      "##am": 3412,
      "ண்ணா": 3413,
      "ுல்ல": 3414,
      "ோள": 3415,
      "ஈர": 3416,
      "ுகைய": 3417,
      "ுவருக": 3418,
      "விடும": 3419,
      "ிந்த": 3420,
      "ிதிகள": 3421,
      "வுக": 3422,
      "ானிய": 3423,
      "re": 3424,
      "ஹி": 3425,
      "ைகள": 3426,
      "##in": 3427,
      "ணிக்க": 3428,
      "ாசன": 3429,
      "ாவிட": 3430,
      "களத்த": 3431,
      "வாதி": 3432,
      "ிரத்த": 3433,
      "இடம": 3434,
      "புறம": 3435,
      "யல்பட": 3436,
      "19": 3437,
      "ொதுக்": 3438,
      "இவை": 3439,
      "ரக்க": 3440,
      "ம்மு": 3441,
      "ிலங்க": 3442,
      "வீரர்": 3443,
      "ூழ": 3444,
      "ுவில்": 3445,
      "யிடம்": 3446,
      "வுடன்": 3447,
      "ிருட": 3448,
      "ஆடி": 3449,
      "ிடத்த": 3450,
      "ுத்தம": 3451,
      "உண்ட": 3452,
      "ைட": 3453,
      "ப்பிர": 3454,
      "விற்க": 3455,
      "பிரத": 3456,
      "ுப்த": 3457,
      "ிஞ": 3458,
      "ிறதா": 3459,
      "ிச்சி": 3460,
      "்கா": 3461,
      "ரத்": 3462,
      "ெஸ்": 3463,
      "ேட்": 3464,
      "வால": 3465,
      "சத்த": 3466,
      "ானா": 3467,
      "ீதா": 3468,
      "்மத": 3469,
      "ேரி": 3470,
      "ழுது": 3471,
      "ூட்டு": 3472,
      "ுடியி": 3473,
      "னியா": 3474,
      "##ொரு": 3475,
      "ஷன்": 3476,
      "ஏழ": 3477,
      "பச": 3478,
      "ோக": 3479,
      "மித": 3480,
      "22": 3481,
      "வந்தத": 3482,
      "ன்றாக": 3483,
      "ஜித": 3484,
      "##்தா": 3485,
      "ுகத்த": 3486,
      "பயண": 3487,
      "வேள": 3488,
      "தொலை": 3489,
      "ட்ஸ்": 3490,
      "ர்வம": 3491,
      "ெம": 3492,
      "ானவர": 3493,
      "சாட்ட": 3494,
      "குண்ட": 3495,
      "ர்கள்": 3496,
      "வாரி": 3497,
      "யாகும": 3498,
      "னித": 3499,
      "ிண்ட": 3500,
      "ர்க்": 3501,
      "ne": 3502,
      "ரதி": 3503,
      "தற்கா": 3504,
      "நகை": 3505,
      "ர்ப": 3506,
      "றந": 3507,
      "ளைய": 3508,
      "கெ": 3509,
      "வப்ப": 3510,
      "ிடு": 3511,
      "்சே": 3512,
      "ன்றும": 3513,
      "அடைய": 3514,
      "லூர": 3515,
      "ிடி": 3516,
      "ைப்பு": 3517,
      "ப்பிய": 3518,
      "டுகள்": 3519,
      "றைந்த": 3520,
      "ுஷ்": 3521,
      "ிகை": 3522,
      "ோனி": 3523,
      "்டில்": 3524,
      "ல்ட": 3525,
      "ுட்டி": 3526,
      "ஜென": 3527,
      "யக்க": 3528,
      "வலம": 3529,
      "ந்தைய": 3530,
      "ட்டாய": 3531,
      "கங்கள": 3532,
      "கதா": 3533,
      "ட்டப்": 3534,
      "ியாளர": 3535,
      "ிகா": 3536,
      "ோண": 3537,
      "யிர்": 3538,
      "லிம": 3539,
      "நியம": 3540,
      "ரிசி": 3541,
      "ற்றும": 3542,
      "ாண்டி": 3543,
      "எப்போ": 3544,
      "காலி": 3545,
      "ாயில": 3546,
      "ீத": 3547,
      "ோக்": 3548,
      "இந்தி": 3549,
      "புத": 3550,
      "ரிம": 3551,
      "ிஐ": 3552,
      "ாரம்": 3553,
      "யானது": 3554,
      "ற்கு": 3555,
      "லவ": 3556,
      "ுட்டு": 3557,
      "ரம்ப": 3558,
      "றவை": 3559,
      "ப்ள": 3560,
      "ஆயிர": 3561,
      "னிலை": 3562,
      "ிரா": 3563,
      "ய்யா": 3564,
      "லன": 3565,
      "போன்": 3566,
      "சிரி": 3567,
      "ம்பல": 3568,
      "ிவார": 3569,
      "ுச": 3570,
      "ண்டிக": 3571,
      "னார்": 3572,
      "ீக": 3573,
      "ரித": 3574,
      "க்தி": 3575,
      "தட்ட": 3576,
      "முர": 3577,
      "ெட்ட": 3578,
      "23": 3579,
      "ுச்ச": 3580,
      "வைத்": 3581,
      "மானது": 3582,
      "பத்து": 3583,
      "கத்தா": 3584,
      "ஆற்ற": 3585,
      "ுமென": 3586,
      "க்ன": 3587,
      "பில": 3588,
      "லப்ப": 3589,
      "சாத": 3590,
      "ர்வைய": 3591,
      "ார்ட்": 3592,
      "பிறக": 3593,
      "உர": 3594,
      "ஜர": 3595,
      "ூச்ச": 3596,
      "்வா": 3597,
      "ியலில": 3598,
      "ைம": 3599,
      "்டா": 3600,
      "ைவ": 3601,
      "்யூ": 3602,
      "னப்பட": 3603,
      "்க்கு": 3604,
      "பாதி": 3605,
      "க்கம": 3606,
      "அதன்ப": 3607,
      "ேலு": 3608,
      "ரஸ்": 3609,
      "ாராம": 3610,
      "ேஸ": 3611,
      "ற்றவர": 3612,
      "ாளிக": 3613,
      "அம்ப": 3614,
      "்மை": 3615,
      "வேற": 3616,
      "ழிப்ப": 3617,
      "டையில": 3618,
      "ுதின": 3619,
      "தர்": 3620,
      "ிவக": 3621,
      "வட்ட": 3622,
      "ைவிட": 3623,
      "ஆப்": 3624,
      "ூப்": 3625,
      "மிக்க": 3626,
      "ப்பது": 3627,
      "சர்": 3628,
      "ழமை": 3629,
      "த்தவர": 3630,
      "ானம்": 3631,
      "அவ்வ": 3632,
      "இணையத": 3633,
      "லச": 3634,
      "ித்தி": 3635,
      "ஏற": 3636,
      "ொடி": 3637,
      "மாட": 3638,
      "மாளி": 3639,
      "ுரம்": 3640,
      "டம்": 3641,
      "லவர": 3642,
      "ாபி": 3643,
      "ாகர": 3644,
      "வினர்": 3645,
      "ஆதார": 3646,
      "தியாக": 3647,
      "ொதுச்": 3648,
      "vi": 3649,
      "ஸா": 3650,
      "ெடு": 3651,
      "அல்": 3652,
      "ோர்ட": 3653,
      "ரங்கள": 3654,
      "ல்கள": 3655,
      "ாரு": 3656,
      "ேட": 3657,
      "திடீர": 3658,
      "ஃபி": 3659,
      "தத்த": 3660,
      "ியான": 3661,
      "தளத்த": 3662,
      "டவுள": 3663,
      "ழங்கு": 3664,
      "ிதிய": 3665,
      "்றம": 3666,
      "யோட": 3667,
      "டையின": 3668,
      "பாரத": 3669,
      "ேண்ட": 3670,
      "ோன்ற": 3671,
      "தால": 3672,
      "க்கம்": 3673,
      "ேறு": 3674,
      "தாய": 3675,
      "ர்ண": 3676,
      "வளி": 3677,
      "ாரர": 3678,
      "ஸ்டா": 3679,
      "லைவ": 3680,
      "ண்மை": 3681,
      "னதா": 3682,
      "ிசா": 3683,
      "கடன": 3684,
      "சூர": 3685,
      "மொத்த": 3686,
      "றப்பு": 3687,
      "ுக்கே": 3688,
      "ியவர்": 3689,
      "ரிக்க": 3690,
      "ரவாத": 3691,
      "ோவ": 3692,
      "லால்": 3693,
      "அப்": 3694,
      "வார்": 3695,
      "மாணவ": 3696,
      "ாவி": 3697,
      "இவ்வ": 3698,
      "சனை": 3699,
      "ப்த": 3700,
      "க்களை": 3701,
      "குளி": 3702,
      "ிகித": 3703,
      "கையை": 3704,
      "கேரள": 3705,
      "உரை": 3706,
      "தொகு": 3707,
      "நான்க": 3708,
      "ைதி": 3709,
      "ராவ": 3710,
      "்கான": 3711,
      "ஆண்": 3712,
      "ப்பர": 3713,
      "ிஞ்": 3714,
      "ள்க": 3715,
      "ரும்ப": 3716,
      "ாகக்": 3717,
      "பாத்த": 3718,
      "்ச்": 3719,
      "ணியில": 3720,
      "ஸ்டர": 3721,
      "ாஷ": 3722,
      "ேன": 3723,
      "யூர": 3724,
      "கொல்": 3725,
      "ரிக்": 3726,
      "ட்வ": 3727,
      "யப்ப": 3728,
      "லைய": 3729,
      "ரிப": 3730,
      "மிக்": 3731,
      "்ரோ": 3732,
      "அணு": 3733,
      "ுப்பு": 3734,
      "ெயர": 3735,
      "ாட்ச": 3736,
      "ர்ல": 3737,
      "ண்டர்": 3738,
      "ிரவ": 3739,
      "இப்": 3740,
      "பந்த": 3741,
      "வொரு": 3742,
      "ப்போ": 3743,
      "ஸ்திர": 3744,
      "சும": 3745,
      "ணு": 3746,
      "மரா": 3747,
      "ாத்": 3748,
      "ெய்த": 3749,
      "யிலா": 3750,
      "ாண்": 3751,
      "ப்பதி": 3752,
      "ரோத": 3753,
      "கணவ": 3754,
      "தியம்": 3755,
      "வகு": 3756,
      "ாறு": 3757,
      "லைகள": 3758,
      "பவர": 3759,
      "வண்ண": 3760,
      "##il": 3761,
      "விழு": 3762,
      "பழனி": 3763,
      "ட்டல": 3764,
      "பான்": 3765,
      "ற்பு": 3766,
      "ிந்தி": 3767,
      "வர்த": 3768,
      "ண்டே": 3769,
      "ணர்வு": 3770,
      "னே": 3771,
      "ம்மா": 3772,
      "ட்டின": 3773,
      "ானி": 3774,
      "சாம": 3775,
      "ராஜன": 3776,
      "ளவில": 3777,
      "ீன்": 3778,
      "ைத": 3779,
      "டலா": 3780,
      "சம்": 3781,
      "க்கிர": 3782,
      "ார்ட": 3783,
      "றிவ": 3784,
      "ுனி": 3785,
      "ச்சம": 3786,
      "திலி": 3787,
      "தாம": 3788,
      "சிப": 3789,
      "காரிய": 3790,
      "கண்": 3791,
      "லக்க": 3792,
      "ாலும": 3793,
      "்ரீ": 3794,
      "போதே": 3795,
      "ட்டோர": 3796,
      "மூட": 3797,
      "தலைய": 3798,
      "டியா": 3799,
      "ாற": 3800,
      "ீம": 3801,
      "ர்ஷ": 3802,
      "ரின்": 3803,
      "ப்படவ": 3804,
      "ாவில": 3805,
      "பரவி": 3806,
      "யம்": 3807,
      "ெரி": 3808,
      "ேரு": 3809,
      "ொழ": 3810,
      "சைக்க": 3811,
      "ரையா": 3812,
      "ிரியா": 3813,
      "ுபட": 3814,
      "கைகள": 3815,
      "70": 3816,
      "யன": 3817,
      "ுங்கு": 3818,
      "உற்ச": 3819,
      "தாங்க": 3820,
      "ணும்": 3821,
      "மரி": 3822,
      "நிம": 3823,
      "மதம": 3824,
      "co": 3825,
      "ேளை": 3826,
      "ொய்": 3827,
      "##at": 3828,
      "்திரி": 3829,
      "மய": 3830,
      "ிவின": 3831,
      "ேக்க": 3832,
      "பிரம": 3833,
      "நேற்ற": 3834,
      "றந்த": 3835,
      "ேவி": 3836,
      "##as": 3837,
      "்கி": 3838,
      "தரவு": 3839,
      "வனத்": 3840,
      "பன": 3841,
      "ஜன": 3842,
      "டாம": 3843,
      "ிற்ச": 3844,
      "ற்றம": 3845,
      "ன்னீ": 3846,
      "்கர்": 3847,
      "ஞ்சம": 3848,
      "கமி": 3849,
      "களால்": 3850,
      "ன்னை": 3851,
      "கம": 3852,
      "ூங்க": 3853,
      "ுதா": 3854,
      "##re": 3855,
      "டமை": 3856,
      "ொலை": 3857,
      "ந்தன": 3858,
      "தேன": 3859,
      "வுக்க": 3860,
      "்நிலை": 3861,
      "ீய": 3862,
      "பேசின": 3863,
      "்பிர": 3864,
      "க்ஸ்": 3865,
      "இதுவ": 3866,
      "மம்": 3867,
      "ாய்வ": 3868,
      "ஆர்வ": 3869,
      "மத்த": 3870,
      "மதி": 3871,
      "மண்": 3872,
      "ளு": 3873,
      "டுத": 3874,
      "தையட": 3875,
      "ெர": 3876,
      "ெச": 3877,
      "ஒட": 3878,
      "னவ": 3879,
      "ம்தா": 3880,
      "ிச்": 3881,
      "ுவர": 3882,
      "நடிகர": 3883,
      "தண்ட": 3884,
      "தொற்ற": 3885,
      "##en": 3886,
      "ருவி": 3887,
      "டாக்": 3888,
      "ெள": 3889,
      "துரை": 3890,
      "ாயு": 3891,
      "கிழமை": 3892,
      "ஏழு": 3893,
      "ழுக": 3894,
      "ோக்க": 3895,
      "ிசி": 3896,
      "ந்தர்": 3897,
      "to": 3898,
      "ிரே": 3899,
      "ெப்ப": 3900,
      "ியார": 3901,
      "ளிப": 3902,
      "கரன்": 3903,
      "சுவா": 3904,
      "tion": 3905,
      "ிது": 3906,
      "குப": 3907,
      "பாவ": 3908,
      "காத": 3909,
      "ியர": 3910,
      "சாம்": 3911,
      "ாடல": 3912,
      "நாயக": 3913,
      "ாரில்": 3914,
      "ேலி": 3915,
      "ரிவா": 3916,
      "னக": 3917,
      "ோன்": 3918,
      "ல்விய": 3919,
      "ய்க்க": 3920,
      "ாஜி": 3921,
      "மிகப்": 3922,
      "லூ": 3923,
      "ிராக": 3924,
      "நிலம்": 3925,
      "தைச்": 3926,
      "பைக்": 3927,
      "டலாம்": 3928,
      "தலா": 3929,
      "ந்ந": 3930,
      "ன்பத": 3931,
      "ிந்து": 3932,
      "ேடி": 3933,
      "வாய்": 3934,
      "ஆகி": 3935,
      "லிக": 3936,
      "கடத்த": 3937,
      "பலி": 3938,
      "மாகி": 3939,
      "ன்னால": 3940,
      "ரான": 3941,
      "ூறு": 3942,
      "ேப": 3943,
      "்டர்": 3944,
      "ெரு": 3945,
      "ார்ப": 3946,
      "ல்லைய": 3947,
      "எத": 3948,
      "டக்கி": 3949,
      "ரைய": 3950,
      "ட்டல்": 3951,
      "னும்": 3952,
      "காயம": 3953,
      "27": 3954,
      "ேட்ப": 3955,
      "ாடா": 3956,
      "ென்ன": 3957,
      "க்கே": 3958,
      "ிஸ்ட": 3959,
      "ர்டு": 3960,
      "ுபா": 3961,
      "்பல்": 3962,
      "வெறு": 3963,
      "னிம": 3964,
      "ழ்க": 3965,
      "வரது": 3966,
      "தினம்": 3967,
      "டலில்": 3968,
      "the": 3969,
      "காஷ்": 3970,
      "ழக": 3971,
      "கும்ப": 3972,
      "்தத்த": 3973,
      "மந்த": 3974,
      "லில்": 3975,
      "ட்டம்": 3976,
      "திரைய": 3977,
      "ல்கிற": 3978,
      "டம": 3979,
      "லர்": 3980,
      "வள்": 3981,
      "்ஹ": 3982,
      "பொன்": 3983,
      "னிக்க": 3984,
      "ஆண": 3985,
      "ம்மி": 3986,
      "மாகும": 3987,
      "28": 3988,
      "னாக": 3989,
      "முய": 3990,
      "எண்": 3991,
      "ாபு": 3992,
      "பலன": 3993,
      "இத்த": 3994,
      "றுமை": 3995,
      "கத்தி": 3996,
      "சண்": 3997,
      "வுன": 3998,
      "வியல": 3999,
      "கற்": 4000,
      "##ra": 4001,
      "க்கர்": 4002,
      "ர்ஸ்": 4003,
      "ரையி": 4004,
      "ேந்த": 4005,
      "போவத": 4006,
      "துல": 4007,
      "ுமெ": 4008,
      "ங்களா": 4009,
      "புக": 4010,
      "ப்பணி": 4011,
      "்றத்த": 4012,
      "விடுத": 4013,
      "மணிய": 4014,
      "ாலைகள": 4015,
      "ஆலோச": 4016,
      "ூற": 4017,
      "்னா": 4018,
      "ல்லிய": 4019,
      "டியின": 4020,
      "தரும": 4021,
      "்திரம": 4022,
      "பரா": 4023,
      "திர்": 4024,
      "தார்": 4025,
      "200": 4026,
      "மாரி": 4027,
      "வினர": 4028,
      "al": 4029,
      "ீச்ச": 4030,
      "ப்பெ": 4031,
      "டுங்க": 4032,
      "ர்ஸ": 4033,
      "்கோ": 4034,
      "ன்றத்": 4035,
      "்ணன்": 4036,
      "வாதம்": 4037,
      "26": 4038,
      "மன்ற": 4039,
      "ேர்": 4040,
      "செய்": 4041,
      "வரவே": 4042,
      "ண்டிய": 4043,
      "ாடக": 4044,
      "ெடி": 4045,
      "ாலின": 4046,
      "ழித்த": 4047,
      "சரவ": 4048,
      "கட்டம": 4049,
      "ிலைகள": 4050,
      "80": 4051,
      "ழ்": 4052,
      "ருவர": 4053,
      "விந்த": 4054,
      "முருக": 4055,
      "களைத்": 4056,
      "நேரம்": 4057,
      "தற": 4058,
      "ிண": 4059,
      "ுள்ளா": 4060,
      "வால்": 4061,
      "ீனி": 4062,
      "ிறகு": 4063,
      "ன்னர": 4064,
      "ch": 4065,
      "##ri": 4066,
      "்டோ": 4067,
      "்பூர": 4068,
      "ஸ்ஸ": 4069,
      "முற": 4070,
      "ியமாக": 4071,
      "டான": 4072,
      "ுறைகள": 4073,
      "na": 4074,
      "கவே": 4075,
      "ிஎஸ்": 4076,
      "ெண்ண": 4077,
      "்கார": 4078,
      "்பாளர": 4079,
      "்பிடி": 4080,
      "ார்க்": 4081,
      "ிப": 4082,
      "க்கார": 4083,
      "ிளம்ப": 4084,
      "ாப": 4085,
      "ிஸ்த": 4086,
      "ெந்த": 4087,
      "ேக": 4088,
      "ாதவ": 4089,
      "ரோட": 4090,
      "ஜீ": 4091,
      "ெவ்வ": 4092,
      "ானத்த": 4093,
      "வீட": 4094,
      "ாலம": 4095,
      "ம்பு": 4096,
      "டையும": 4097,
      "அப": 4098,
      "ணன்": 4099,
      "னச": 4100,
      "னைய": 4101,
      "க்கெ": 4102,
      "##di": 4103,
      "ில்லா": 4104,
      "ின்றத": 4105,
      "பதற": 4106,
      "ஸ்வரர": 4107,
      "வதா": 4108,
      "திகா": 4109,
      "டுகள": 4110,
      "மாக்க": 4111,
      "ிடைய": 4112,
      "ோயி": 4113,
      "லுள்ள": 4114,
      "35": 4115,
      "ழம": 4116,
      "ாங்": 4117,
      "ிரை": 4118,
      "ிழந்த": 4119,
      "ஐந்த": 4120,
      "சுக": 4121,
      "டது": 4122,
      "லக்": 4123,
      "காக்க": 4124,
      "பரம": 4125,
      "டாவ": 4126,
      "ரித்": 4127,
      "நோய்": 4128,
      "ஏத": 4129,
      "ந்": 4130,
      "லோக": 4131,
      "மிர": 4132,
      "##ay": 4133,
      "றுக்க": 4134,
      "யந்த": 4135,
      "ரிப்ப": 4136,
      "கத": 4137,
      "ணாம": 4138,
      "ெண்": 4139,
      "##ro": 4140,
      "ாவல": 4141,
      "ழுத": 4142,
      "ழுதிய": 4143,
      "லிப": 4144,
      "கூடும": 4145,
      "டெல": 4146,
      "ியாகு": 4147,
      "ஸி": 4148,
      "ாக்ட": 4149,
      "்பவ": 4150,
      "ிதாக": 4151,
      "ra": 4152,
      "்புவ": 4153,
      "te": 4154,
      "க்கிட": 4155,
      "ச்சை": 4156,
      "டைக": 4157,
      "en": 4158,
      "ஆசி": 4159,
      "பவ": 4160,
      "பல்": 4161,
      "ருவத": 4162,
      "ரிட": 4163,
      "ெய்ய": 4164,
      "ண்ணை": 4165,
      "தையும": 4166,
      "ேத்": 4167,
      "ேசி": 4168,
      "காரம்": 4169,
      "ஆனா": 4170,
      "்ந்தி": 4171,
      "த்தம": 4172,
      "க்குழ": 4173,
      "தரக": 4174,
      "ிளை": 4175,
      "்லா": 4176,
      "புறம்": 4177,
      "னில்": 4178,
      "மன்": 4179,
      "ிந": 4180,
      "டுவத": 4181,
      "பாத": 4182,
      "்போ": 4183,
      "ாரத்": 4184,
      "மின": 4185,
      "ாவா": 4186,
      "லார": 4187,
      "க்கோ": 4188,
      "த்தன": 4189,
      "மாச": 4190,
      "வென": 4191,
      "ிரப்ப": 4192,
      "ிப்பத": 4193,
      "and": 4194,
      "டாமல்": 4195,
      "தற்": 4196,
      "லக்கு": 4197,
      "ோஸ": 4198,
      "யக": 4199,
      "ிகார": 4200,
      "பாலி": 4201,
      "ண்டன": 4202,
      "75": 4203,
      "ையை": 4204,
      "ஷ்டி": 4205,
      "கெட்ட": 4206,
      "ுளை": 4207,
      "##ve": 4208,
      "ராட": 4209,
      "ழுவ": 4210,
      "்கை": 4211,
      "சுப்": 4212,
      "ஜின": 4213,
      "ாசி": 4214,
      "ப்பந": 4215,
      "வணங்க": 4216,
      "மட": 4217,
      "ஷம": 4218,
      "மாவ": 4219,
      "ஏதோ": 4220,
      "லத்": 4221,
      "ுடு": 4222,
      "மலைய": 4223,
      "ிவே": 4224,
      "வசம": 4225,
      "ராட்": 4226,
      "வுர": 4227,
      "நப": 4228,
      "டிரா": 4229,
      "பழங்க": 4230,
      "ன்சி": 4231,
      "வையில": 4232,
      "##ce": 4233,
      "ையாக": 4234,
      "லித்": 4235,
      "லுக": 4236,
      "ையில": 4237,
      "சாரி": 4238,
      "விடுக": 4239,
      "ள்கிற": 4240,
      "ிகர": 4241,
      "திப": 4242,
      "காச": 4243,
      "of": 4244,
      "ீன": 4245,
      "ைப": 4246,
      "க்கில": 4247,
      "பூர்": 4248,
      "ரைச": 4249,
      "்டிக்": 4250,
      "சியா": 4251,
      "்ட்ட": 4252,
      "்றை": 4253,
      "ிறை": 4254,
      "முகவ": 4255,
      "்டை": 4256,
      "டியோ": 4257,
      "நெல்": 4258,
      "ஏம": 4259,
      "ரணி": 4260,
      "ப்பவர": 4261,
      "கரா": 4262,
      "னீ": 4263,
      "டிகள": 4264,
      "ாமர": 4265,
      "தேர்": 4266,
      "ொள": 4267,
      "்னி": 4268,
      "்பும்": 4269,
      "்னர்": 4270,
      "sh": 4271,
      "சப்": 4272,
      "##le": 4273,
      "காலம": 4274,
      "ுவோம்": 4275,
      "சூட": 4276,
      "னிட": 4277,
      "லர்கள": 4278,
      "31": 4279,
      "எது": 4280,
      "ரஹ": 4281,
      "ளாவ": 4282,
      "ிவில்": 4283,
      "ுண": 4284,
      "கிவிட": 4285,
      "டையை": 4286,
      "டூ": 4287,
      "்வத": 4288,
      "போவ": 4289,
      "வரைய": 4290,
      "ன்னார": 4291,
      "நேர்": 4292,
      "நிறுவ": 4293,
      "ேண்டி": 4294,
      "உலா": 4295,
      "கோய": 4296,
      "ன்னதா": 4297,
      "றைவ": 4298,
      "மூலம்": 4299,
      "னது": 4300,
      "லிட": 4301,
      "500": 4302,
      "ூம": 4303,
      "ொள்": 4304,
      "்து": 4305,
      "ுமண": 4306,
      "வரவேற": 4307,
      "ரர்": 4308,
      "ுது": 4309,
      "த்தட": 4310,
      "90": 4311,
      "பட்": 4312,
      "னிக்": 4313,
      "ுழு": 4314,
      "பாப": 4315,
      "்டாக": 4316,
      "ிலக்க": 4317,
      "ஸ்டி": 4318,
      "னல்": 4319,
      "ாக்கம": 4320,
      "ாரண": 4321,
      "45": 4322,
      "சான": 4323,
      "டர்கள": 4324,
      "ரொ": 4325,
      "ிம்ப": 4326,
      "ோவத": 4327,
      "க்கட": 4328,
      "நாளி": 4329,
      "ீட்டி": 4330,
      "கோள": 4331,
      "பிரே": 4332,
      "யாள": 4333,
      "லைத்த": 4334,
      "தானம": 4335,
      "அணிய": 4336,
      "அட்": 4337,
      "கவு": 4338,
      "ெரும": 4339,
      "ார்வ": 4340,
      "லைப்": 4341,
      "மங்கள": 4342,
      "பம": 4343,
      "ேசிய": 4344,
      "ச்சுவ": 4345,
      "சமா": 4346,
      "பீட": 4347,
      "ளவர": 4348,
      "ீஸ": 4349,
      "ீனா": 4350,
      "பான": 4351,
      "நித": 4352,
      "ச்சின": 4353,
      "29": 4354,
      "னார": 4355,
      "ெர்": 4356,
      "ண்டல": 4357,
      "ய்வு": 4358,
      "ாசம": 4359,
      "ுளி": 4360,
      "திவ": 4361,
      "ழிப": 4362,
      "டல்": 4363,
      "ன்கு": 4364,
      "காத்த": 4365,
      "்பின": 4366,
      "க்குட": 4367,
      "ழிவு": 4368,
      "கரன": 4369,
      "னாத": 4370,
      "ழிபாட": 4371,
      "சாக": 4372,
      "ரவில்": 4373,
      "பேரு": 4374,
      "##ic": 4375,
      "ma": 4376,
      "வடக": 4377,
      "ிணை": 4378,
      "##de": 4379,
      "ருட": 4380,
      "விகள": 4381,
      "ொள்வ": 4382,
      "உங்க": 4383,
      "ூட்": 4384,
      "ொந்த": 4385,
      "##ுடன": 4386,
      "##ka": 4387,
      "யேற": 4388,
      "பழக": 4389,
      "வாட்": 4390,
      "ற்றா": 4391,
      "ுன்பு": 4392,
      "படிய": 4393,
      "்று": 4394,
      "ரும்": 4395,
      "ண்ணி": 4396,
      "ஸ்தி": 4397,
      "ொன்ன": 4398,
      "பான்ம": 4399,
      "்றுப்": 4400,
      "ரவு": 4401,
      "க்கற": 4402,
      "ியவர": 4403,
      "கோட்ட": 4404,
      "ஈடுப": 4405,
      "ீம்": 4406,
      "ீஸ்": 4407,
      "ரூப": 4408,
      "ெல்வம": 4409,
      "லது": 4410,
      "பூச": 4411,
      "on": 4412,
      "ேல்": 4413,
      "ட்டுவ": 4414,
      "வைகள": 4415,
      "பஞ்சா": 4416,
      "அமல": 4417,
      "ேவ": 4418,
      "##it": 4419,
      "சிபி": 4420,
      "ன்றை": 4421,
      "டுகிற": 4422,
      "லீச": 4423,
      "ஓவ": 4424,
      "யமான": 4425,
      "கூடி": 4426,
      "ணங்கள": 4427,
      "னப்ப": 4428,
      "வுத": 4429,
      "ீதம": 4430,
      "சைய": 4431,
      "பியா": 4432,
      "ழங்க": 4433,
      "்பாள": 4434,
      "சில்": 4435,
      "ிடா": 4436,
      "கிண": 4437,
      "சுக்க": 4438,
      "ல்லு": 4439,
      "ிருத": 4440,
      "நாடக": 4441,
      "னிடம்": 4442,
      "எச்": 4443,
      "த்தார": 4444,
      "விடம": 4445,
      "ing": 4446,
      "##st": 4447,
      "##்ப்": 4448,
      "மாதம": 4449,
      "ிறு": 4450,
      "new": 4451,
      "திபதி": 4452,
      "அர": 4453,
      "ளப்ப": 4454,
      "ிகு": 4455,
      "ழுக்க": 4456,
      "ாயி": 4457,
      "டியில": 4458,
      "ல்லை": 4459,
      "ூழல்": 4460,
      "யங்கள": 4461,
      "வத்": 4462,
      "ீட": 4463,
      "ுல்": 4464,
      "நிப": 4465,
      "ணா": 4466,
      "டியாக": 4467,
      "300": 4468,
      "்றின்": 4469,
      "கல்வ": 4470,
      "ேண்டு": 4471,
      "##ss": 4472,
      "ாலு": 4473,
      "de": 4474,
      "ஹே": 4475,
      "குவா": 4476,
      "சிம": 4477,
      "லாத": 4478,
      "ஸ்லா": 4479,
      "்மா": 4480,
      "பில்": 4481,
      "சின்": 4482,
      "ன்னீர": 4483,
      "்ளே": 4484,
      "do": 4485,
      "nt": 4486,
      "லங்கள": 4487,
      "ிரதம": 4488,
      "ிவாக": 4489,
      "ாச்ச": 4490,
      "வரத": 4491,
      "ஒன்றி": 4492,
      "ியாகி": 4493,
      "ரையில": 4494,
      "ாட்டி": 4495,
      "வேட": 4496,
      "்கறி": 4497,
      "ாதக": 4498,
      "இடைய": 4499,
      "ாக்டர": 4500,
      "36": 4501,
      "tan": 4502,
      "இள": 4503,
      "எழ": 4504,
      "லின": 4505,
      "க்கல": 4506,
      "##னால": 4507,
      "ன்வ": 4508,
      "ிட்டா": 4509,
      "ஒவ்வொ": 4510,
      "di": 4511,
      "ேண": 4512,
      "ைர": 4513,
      "பிள்": 4514,
      "பிசி": 4515,
      "ராமத": 4516,
      "அலி": 4517,
      "சய": 4518,
      "ுறி": 4519,
      "ோழ": 4520,
      "யோர": 4521,
      "ியின்": 4522,
      "காணி": 4523,
      "யாளர்": 4524,
      "தத்தை": 4525,
      "்டீ": 4526,
      "ஸ்ர": 4527,
      "வட்டம": 4528,
      "இளம": 4529,
      "மம": 4530,
      "ய்கள": 4531,
      "ள்கள": 4532,
      "ூரில்": 4533,
      "பின": 4534,
      "வந்தன": 4535,
      "ஸ்ல": 4536,
      "்ணு": 4537,
      "யம்மன": 4538,
      "பள்ள": 4539,
      "ோப": 4540,
      "ோத்": 4541,
      "்பப்": 4542,
      "சால": 4543,
      "தீர": 4544,
      "கிரா": 4545,
      "தாரம": 4546,
      "ஆணை": 4547,
      "ிலோ": 4548,
      "ங்கம": 4549,
      "ராக்": 4550,
      "்டுகள": 4551,
      "்மன்": 4552,
      "ஏக்": 4553,
      "ுட்ப": 4554,
      "களைச்": 4555,
      "ஏவ": 4556,
      "னால்": 4557,
      "ஸார்": 4558,
      "ென்ற": 4559,
      "சாட": 4560,
      "ுழுவ": 4561,
      "ுர்": 4562,
      "32": 4563,
      "ரமா": 4564,
      "உள்ளா": 4565,
      "மேலா": 4566,
      "ாவும்": 4567,
      "ொருள": 4568,
      "வுட": 4569,
      "விடம்": 4570,
      "போகிற": 4571,
      "அழி": 4572,
      "லைன": 4573,
      "ளர": 4574,
      "ேறி": 4575,
      "பேரி": 4576,
      "ையர": 4577,
      "விசா": 4578,
      "ுப்பை": 4579,
      "டுவார": 4580,
      "go": 4581,
      "நூ": 4582,
      "ன்களை": 4583,
      "ூட்டி": 4584,
      "ப்பொ": 4585,
      "பாஸ": 4586,
      "தைக்க": 4587,
      "ுமாற": 4588,
      "சாதன": 4589,
      "மல்": 4590,
      "டைகள்": 4591,
      "விலி": 4592,
      "se": 4593,
      "பவர்": 4594,
      "ய்வ": 4595,
      "்லி": 4596,
      "ன்னத": 4597,
      "தேசம": 4598,
      "டய": 4599,
      "ிதான": 4600,
      "குதிய": 4601,
      "ுடை": 4602,
      "டனை": 4603,
      "ரண்": 4604,
      "்ரே": 4605,
      "்ப்பத": 4606,
      "news": 4607,
      "##li": 4608,
      "ராப": 4609,
      "ரிதா": 4610,
      "ையம": 4611,
      "கையாள": 4612,
      "்ப்பா": 4613,
      "tor": 4614,
      "ஜய": 4615,
      "றந்து": 4616,
      "##ch": 4617,
      "காப்": 4618,
      "ொங்க": 4619,
      "மும": 4620,
      "ுகிறத": 4621,
      "லீசார": 4622,
      "கத்": 4623,
      "சரிய": 4624,
      "டமா": 4625,
      "ுஜ": 4626,
      "விப": 4627,
      "குகள": 4628,
      "வாட": 4629,
      "றிவு": 4630,
      "ுவதும": 4631,
      "பட்டா": 4632,
      "vika": 4633,
      "ed": 4634,
      "ங்கும": 4635,
      "ுறவ": 4636,
      "்னர": 4637,
      "வானி": 4638,
      "ுவன": 4639,
      "பதவ": 4640,
      "காவல": 4641,
      "48": 4642,
      "ிஷ்": 4643,
      "##bc": 4644,
      "பண்ட": 4645,
      "ுள்": 4646,
      "காவி": 4647,
      "க்ஷ": 4648,
      "ராய்": 4649,
      "மையான": 4650,
      "ுறைப்": 4651,
      "ரமாக": 4652,
      "ெக": 4653,
      "ருச": 4654,
      "ாகா": 4655,
      "தாண்ட": 4656,
      "அதிர்": 4657,
      "ணித்த": 4658,
      "்பிக்": 4659,
      "ாழ்வ": 4660,
      "சத்து": 4661,
      "படியே": 4662,
      "சதி": 4663,
      "அதன": 4664,
      "அலங்க": 4665,
      "வளர்": 4666,
      "ரசு": 4667,
      "எவ்வ": 4668,
      "ெனி": 4669,
      "தெர": 4670,
      "வீத": 4671,
      "பதவிய": 4672,
      "அந": 4673,
      "கர்கள": 4674,
      "லும": 4675,
      "ெற்ற": 4676,
      "ோற": 4677,
      "ியே": 4678,
      "ுபட்ட": 4679,
      "ni": 4680,
      "vs": 4681,
      "ழல": 4682,
      "த்தல்": 4683,
      "ர்வா": 4684,
      "புட": 4685,
      "்கே": 4686,
      "டிந்த": 4687,
      "அணை": 4688,
      "றா": 4689,
      "ீற": 4690,
      "ோச": 4691,
      "மாய": 4692,
      "ிரன்": 4693,
      "டிவ": 4694,
      "தீவ": 4695,
      "ம்பிய": 4696,
      "பட்டு": 4697,
      "li": 4698,
      "le": 4699,
      "su": 4700,
      "ரசா": 4701,
      "ிறன": 4702,
      "லைவர": 4703,
      "ிடுவ": 4704,
      "தனை": 4705,
      "ிபர": 4706,
      "ூத": 4707,
      "சென்": 4708,
      "காது": 4709,
      "ிர்த": 4710,
      "கேட்": 4711,
      "ரைக்க": 4712,
      "55": 4713,
      "கழ்": 4714,
      "டக்": 4715,
      "ிஎ": 4716,
      "ல்ம": 4717,
      "ாதம்": 4718,
      "்பட்ட": 4719,
      "சிப்ப": 4720,
      "ராஷ": 4721,
      "்கிர": 4722,
      "்செ": 4723,
      "யுடன": 4724,
      "அக": 4725,
      "ூரி": 4726,
      "ச்சர்": 4727,
      "நோய": 4728,
      "யணம": 4729,
      "கங்க": 4730,
      "வாய": 4731,
      "ிரச": 4732,
      "பத்தா": 4733,
      "்ப்பை": 4734,
      "ar": 4735,
      "திபர": 4736,
      "னைகள": 4737,
      "ாளராக": 4738,
      "ிப்பா": 4739,
      "ருகிற": 4740,
      "ப்பதை": 4741,
      "ாகம": 4742,
      "றைகள": 4743,
      "ஆழ": 4744,
      "மர்": 4745,
      "்மான": 4746,
      "காற்ற": 4747,
      "ல்வா": 4748,
      "ரேட": 4749,
      "்திரு": 4750,
      "லையை": 4751,
      "me": 4752,
      "or": 4753,
      "ற்சி": 4754,
      "ீரிய": 4755,
      "ோப்": 4756,
      "ருவர்": 4757,
      "ெயி": 4758,
      "பணத்த": 4759,
      "தையை": 4760,
      "இரவ": 4761,
      "ேப்": 4762,
      "்வின": 4763,
      "##ou": 4764,
      "குந்த": 4765,
      "பாத்": 4766,
      "்பந்த": 4767,
      "ினத்த": 4768,
      "கோவில": 4769,
      "ாவை": 4770,
      "பேசு": 4771,
      "கனவ": 4772,
      "ஆலோ": 4773,
      "எடை": 4774,
      "ப்தி": 4775,
      "வரா": 4776,
      "சேன": 4777,
      "ாதை": 4778,
      "யுள்": 4779,
      "முகம்": 4780,
      "்ஸ்ட": 4781,
      "ுமன": 4782,
      "சுட": 4783,
      "ுவின்": 4784,
      "37": 4785,
      "மடை": 4786,
      "தாள": 4787,
      "ன்றது": 4788,
      "ரியம": 4789,
      "ருகி": 4790,
      "33": 4791,
      "la": 4792,
      "ணம்": 4793,
      "பன்": 4794,
      "ூத்": 4795,
      "சொல்": 4796,
      "ற்கா": 4797,
      "150": 4798,
      "ீர்க": 4799,
      "அரை": 4800,
      "யப்பட": 4801,
      "ளஹ": 4802,
      "##ாத": 4803,
      "்களா": 4804,
      "்டெ": 4805,
      "ஏற்று": 4806,
      "உயி": 4807,
      "ட்சித": 4808,
      "ருவாக": 4809,
      "ேசத்த": 4810,
      "ந்நி": 4811,
      "ுரு": 4812,
      "காற": 4813,
      "கோட": 4814,
      "ையின": 4815,
      "ல்லவ": 4816,
      "ாளும": 4817,
      "்புக்": 4818,
      "ெட்ர": 4819,
      "ொழில": 4820,
      "bbc": 4821,
      "ண்டவ": 4822,
      "ையான": 4823,
      "னிப்": 4824,
      "்திக்": 4825,
      "நெரு": 4826,
      "po": 4827,
      "ுள": 4828,
      "ெட": 4829,
      "்மு": 4830,
      "சாய": 4831,
      "ழுவி": 4832,
      "வுகள": 4833,
      "உயிரி": 4834,
      "ஜு": 4835,
      "பஸ்": 4836,
      "வதை": 4837,
      "ாகத்": 4838,
      "பார்": 4839,
      "தலைம": 4840,
      "பாரா": 4841,
      "ைக்கா": 4842,
      "ணவ": 4843,
      "றாம": 4844,
      "ட்டாள": 4845,
      "கனி": 4846,
      "ரந": 4847,
      "லான": 4848,
      "ீரி": 4849,
      "றிக்க": 4850,
      "ிற்று": 4851,
      "mo": 4852,
      "ழர": 4853,
      "்வர": 4854,
      "ரிவு": 4855,
      "ின்னர": 4856,
      "is": 4857,
      "யீட": 4858,
      "வெல்": 4859,
      "ன்றே": 4860,
      "ஐடி": 4861,
      "ுதுக": 4862,
      "குப்": 4863,
      "பாக்க": 4864,
      "ாயம": 4865,
      "ரியம்": 4866,
      "முகம": 4867,
      "தியில": 4868,
      "ூட்டம": 4869,
      "அழு": 4870,
      "வங்கள": 4871,
      "ீண": 4872,
      "விக்": 4873,
      "ுடியு": 4874,
      "கோவ": 4875,
      "த்திவ": 4876,
      "ன்பு": 4877,
      "ுச்சி": 4878,
      "ியர்": 4879,
      "ர்சன": 4880,
      "யிரம்": 4881,
      "ஏறி": 4882,
      "றைய": 4883,
      "ைந்த": 4884,
      "ிசோ": 4885,
      "41": 4886,
      "தவு": 4887,
      "ுக்கா": 4888,
      "ுக்கம": 4889,
      "ுமன்": 4890,
      "கொழு": 4891,
      "அதேப": 4892,
      "மையாக": 4893,
      "for": 4894,
      "ஏழை": 4895,
      "ாக்கள": 4896,
      "ிமா": 4897,
      "ூடி": 4898,
      "குவ": 4899,
      "்ப்": 4900,
      "ண்டார": 4901,
      "ிடை": 4902,
      "சேவ": 4903,
      "இதர": 4904,
      "ரத்தை": 4905,
      "ன்கள்": 4906,
      "உக": 4907,
      "னத்த": 4908,
      "ழில": 4909,
      "ில்லி": 4910,
      "ம்ஸ": 4911,
      "வாற": 4912,
      "சின": 4913,
      "றைவு": 4914,
      "தயா": 4915,
      "கையா": 4916,
      "ெட்டு": 4917,
      "wh": 4918,
      "னத": 4919,
      "வற": 4920,
      "ைகள்": 4921,
      "க்காட": 4922,
      "கிப": 4923,
      "..": 4924,
      "அலை": 4925,
      "ஜம": 4926,
      "படு": 4927,
      "ிபு": 4928,
      "்மி": 4929,
      "களுடன": 4930,
      "லீஸ": 4931,
      "பவு": 4932,
      "நாங்க": 4933,
      "மருத": 4934,
      "ஸ்தா": 4935,
      "ீட்டை": 4936,
      "்வார": 4937,
      "ai": 4938,
      "சிர": 4939,
      "ுண்": 4940,
      "டுபட": 4941,
      "ியப்ப": 4942,
      "்பக": 4943,
      "அய": 4944,
      "ானத": 4945,
      "ாரத்த": 4946,
      "்ணம": 4947,
      "ஸ்லாம": 4948,
      "ng": 4949,
      "இங்க": 4950,
      "யவ": 4951,
      "ருஷ": 4952,
      "புன": 4953,
      "புத்த": 4954,
      "டிப": 4955,
      "மிழ": 4956,
      "கைகளை": 4957,
      "வகா": 4958,
      "தமான": 4959,
      "ிருக": 4960,
      "ேகம": 4961,
      "##ோம": 4962,
      "ுக்கோ": 4963,
      "பிச": 4964,
      "்காண": 4965,
      "ையின்": 4966,
      "றுகள": 4967,
      "ம்பவ": 4968,
      "லைந": 4969,
      "இஸ்ர": 4970,
      "ent": 4971,
      "ணப்ப": 4972,
      "ேடு": 4973,
      "ானை": 4974,
      "டத்த": 4975,
      "ய்ப்": 4976,
      "##la": 4977,
      "நாடு": 4978,
      "டியை": 4979,
      "ரணத்த": 4980,
      "ல்லிக": 4981,
      "ாவு": 4982,
      "ூன்": 4983,
      "துள்ள": 4984,
      "ுவே": 4985,
      "கின்ற": 4986,
      "லால": 4987,
      "ுத்தா": 4988,
      "மறுப": 4989,
      "விருத": 4990,
      "ீர்ம": 4991,
      "்பெண்": 4992,
      "அழுத": 4993,
      "ce": 4994,
      "எளி": 4995,
      "ஓம்": 4996,
      "ஷி": 4997,
      "்வி": 4998,
      "்த்": 4999,
      "ருத": 5000,
      "ருட்": 5001,
      "400": 5002,
      "ோகம்": 5003,
      "ப்பெர": 5004,
      "ba": 5005,
      "போய": 5006,
      "வர்க": 5007,
      "்கப்ப": 5008,
      "ச்சிய": 5009,
      "ையாள": 5010,
      "ரெட": 5011,
      "ஒன்": 5012,
      "தினம": 5013,
      "பிரசா": 5014,
      "ைச": 5015,
      "குச": 5016,
      "ரியை": 5017,
      "றைக்க": 5018,
      "ிதர": 5019,
      "ைகளில": 5020,
      "ராஷ்ட": 5021,
      "ைன்": 5022,
      "துள": 5023,
      "ட்டதா": 5024,
      "ர்ய": 5025,
      "ண்டில": 5026,
      "ிலையை": 5027,
      "ரேஷ": 5028,
      "ரிசோத": 5029,
      "ட்பா": 5030,
      "34": 5031,
      "பக்": 5032,
      "ரமான": 5033,
      "ுறு": 5034,
      "்மன": 5035,
      "ிளக": 5036,
      "சுவாம": 5037,
      "நபர்": 5038,
      "38": 5039,
      "ஜன்": 5040,
      "குள்": 5041,
      "ாதிய": 5042,
      "ணிக்": 5043,
      "ரோல": 5044,
      "தாலும": 5045,
      "am": 5046,
      "ட்கள": 5047,
      "லட்": 5048,
      "ீண்டு": 5049,
      "##pp": 5050,
      "ந்தம": 5051,
      "வேண": 5052,
      "ிடும்": 5053,
      "ற்றில": 5054,
      "டைம": 5055,
      "ுறைவ": 5056,
      "விஷயம": 5057,
      "தனைகள": 5058,
      "ஆசை": 5059,
      "உன்": 5060,
      "டற்ப": 5061,
      "வைய": 5062,
      "ஸில்": 5063,
      "ூன": 5064,
      "சிறி": 5065,
      "்சா": 5066,
      "ள்ளதா": 5067,
      "ிகால": 5068,
      "விநா": 5069,
      "42": 5070,
      "பைய": 5071,
      "ற்பத": 5072,
      "ல்த": 5073,
      "##ூர்": 5074,
      "ியை": 5075,
      "வாழ்க": 5076,
      "108": 5077,
      "##dia": 5078,
      "ோஸ்": 5079,
      "செயற்": 5080,
      "ிஸ்ட்": 5081,
      "யத்து": 5082,
      "றையில": 5083,
      "ிடுக": 5084,
      "டைப": 5085,
      "ல்லூர": 5086,
      "துவர்": 5087,
      "இயற": 5088,
      "ிதம": 5089,
      "கெடு": 5090,
      "65": 5091,
      "அபி": 5092,
      "டத்தை": 5093,
      "சிட": 5094,
      "்பாடு": 5095,
      "ொழில்": 5096,
      "39": 5097,
      "கப்": 5098,
      "தச": 5099,
      "யச": 5100,
      "##se": 5101,
      "சென": 5102,
      "தாலு": 5103,
      "அரி": 5104,
      "செயற": 5105,
      "்தீ": 5106,
      "லைப்ப": 5107,
      "கைக்": 5108,
      "இருப": 5109,
      "்புகள": 5110,
      "tam": 5111,
      "னக்": 5112,
      "றையா": 5113,
      "ியத்": 5114,
      "வீடிய": 5115,
      "ராகவ": 5116,
      "பிரதம": 5117,
      "lo": 5118,
      "சப்ப": 5119,
      "னில": 5120,
      "னர்கள": 5121,
      "லும்": 5122,
      "ுகு": 5123,
      "ரில்": 5124,
      "சகல": 5125,
      "்குடி": 5126,
      "வியல்": 5127,
      "ிள்": 5128,
      "##ad": 5129,
      "ம்மன": 5130,
      "கட்": 5131,
      "டிக்": 5132,
      "்தன": 5133,
      "னிட்": 5134,
      "ழ்ந்த": 5135,
      "றத": 5136,
      "வனி": 5137,
      "##et": 5138,
      "டிம": 5139,
      "ற்றம்": 5140,
      "தனக்க": 5141,
      "டியும": 5142,
      "உரிம": 5143,
      "ாவின்": 5144,
      "வணி": 5145,
      "ொற்": 5146,
      "்ச்ச": 5147,
      "வெல": 5148,
      "ுடங்க": 5149,
      "com": 5150,
      "ழகத்த": 5151,
      "ஓடி": 5152,
      "வல்": 5153,
      "ெப்": 5154,
      "##ps": 5155,
      "பணம": 5156,
      "ஆசிரி": 5157,
      "ீரா": 5158,
      "##vi": 5159,
      "வைப்": 5160,
      "மைக்": 5161,
      "லாவ": 5162,
      "ள்ளா": 5163,
      "ிரிவ": 5164,
      "்குட": 5165,
      "ையினர": 5166,
      "si": 5167,
      "ளத": 5168,
      "ேய": 5169,
      "குட்": 5170,
      "ியப்": 5171,
      "ாகச்": 5172,
      "றுப": 5173,
      "ிருப": 5174,
      "bo": 5175,
      "மந": 5176,
      "தாப": 5177,
      "ானு": 5178,
      "்டத்த": 5179,
      "மற்றொ": 5180,
      "ரிடம்": 5181,
      "எப்": 5182,
      "டத்தி": 5183,
      "ளான": 5184,
      "ோல்": 5185,
      "விம": 5186,
      "ியத்த": 5187,
      "்பற்ற": 5188,
      "சமாக": 5189,
      "்தூர": 5190,
      "ர்கா": 5191,
      "றிஞ": 5192,
      "ொடர்": 5193,
      "லாக்": 5194,
      "ex": 5195,
      "ஆள்": 5196,
      "##mk": 5197,
      "##மல": 5198,
      "ுமல": 5199,
      "லாச": 5200,
      "்தா": 5201,
      "லிக்க": 5202,
      "india": 5203,
      "்ளூ": 5204,
      "அன்ற": 5205,
      "பும்": 5206,
      "ெஸ": 5207,
      "##ோன": 5208,
      "பாடி": 5209,
      "கொல": 5210,
      "லிங்": 5211,
      "tamil": 5212,
      "கத்தை": 5213,
      "தன்ப": 5214,
      "ய்த": 5215,
      "ைந": 5216,
      "பாண": 5217,
      "வாறு": 5218,
      "கித்": 5219,
      "ச்சர": 5220,
      "மதுர": 5221,
      "மஹா": 5222,
      "doc": 5223,
      "ணங்க": 5224,
      "மில": 5225,
      "றப்ப": 5226,
      "றேன்": 5227,
      "ிற்": 5228,
      "மாள்": 5229,
      "ெயல": 5230,
      "ரியத": 5231,
      "்ணா": 5232,
      "லூர்": 5233,
      "இன்ற": 5234,
      "மன்ன": 5235,
      "மதிய": 5236,
      "றார": 5237,
      "்பர": 5238,
      "கித": 5239,
      "ற்றத": 5240,
      "அதனால": 5241,
      "சாவ": 5242,
      "ள்ளும": 5243,
      "லின்": 5244,
      "வதற்க": 5245,
      "ூழல": 5246,
      "44": 5247,
      "sa": 5248,
      "ஜய்": 5249,
      "லியா": 5250,
      "ந்தவர": 5251,
      "சாத்": 5252,
      "ையு": 5253,
      "யாரு": 5254,
      "ள்ளு": 5255,
      "்வதி": 5256,
      "nce": 5257,
      "தலம": 5258,
      "்கிழ": 5259,
      "வந்தா": 5260,
      "திருக": 5261,
      "அழ": 5262,
      "ரஸ": 5263,
      "ொர": 5264,
      "துன": 5265,
      "ருந": 5266,
      "ந்தே": 5267,
      "்கின்": 5268,
      "கைகள்": 5269,
      "லுக்க": 5270,
      "ொன்னா": 5271,
      "ீர்வ": 5272,
      "##ha": 5273,
      "ப்பக": 5274,
      "டுமா": 5275,
      "னமாக": 5276,
      "ீதிய": 5277,
      "வரம்": 5278,
      "யாட": 5279,
      "ஆடை": 5280,
      "ைவர்": 5281,
      "##ut": 5282,
      "திந": 5283,
      "திக்": 5284,
      "யிட்ட": 5285,
      "்டான": 5286,
      "ுவும்": 5287,
      "தேன்": 5288,
      "சான்": 5289,
      "மையை": 5290,
      "ுபோன": 5291,
      "உத்": 5292,
      "ூக": 5293,
      "ேம்ப": 5294,
      "ப்பம்": 5295,
      "ப்பின": 5296,
      "துவா": 5297,
      "காப": 5298,
      "காய்": 5299,
      "சமான": 5300,
      "ம்பை": 5301,
      "மையா": 5302,
      "ுதிக": 5303,
      "கரிக": 5304,
      "con": 5305,
      "no": 5306,
      "pl": 5307,
      "யந": 5308,
      "ஷ்ய": 5309,
      "ீச": 5310,
      "##ur": 5311,
      "்பன": 5312,
      "்தள": 5313,
      "வாரம": 5314,
      "பிடிப": 5315,
      "ரைவ": 5316,
      "ஆராய": 5317,
      "யமா": 5318,
      "ஷல": 5319,
      "டுவர": 5320,
      "காட்": 5321,
      "ித்தா": 5322,
      "ாலம்": 5323,
      "்பாத": 5324,
      "ஜூன": 5325,
      "மல்ல": 5326,
      "ளஸ": 5327,
      "ேனி": 5328,
      "குக்": 5329,
      "ணித": 5330,
      "ல்லத": 5331,
      "ல்லும": 5332,
      "ண்ம": 5333,
      "ண்ணு": 5334,
      "ளைக": 5335,
      "ோதும": 5336,
      "லமாக": 5337,
      "49": 5338,
      "ௌர": 5339,
      "தேதி": 5340,
      "தைகள": 5341,
      "ென்ட": 5342,
      "்காட்": 5343,
      "43": 5344,
      "sp": 5345,
      "ஆதா": 5346,
      "ணைய": 5347,
      "##du": 5348,
      "சிகர": 5349,
      "டிப்": 5350,
      "்சன": 5351,
      "தானம்": 5352,
      "ச்சிக": 5353,
      "ய்யும": 5354,
      "ac": 5355,
      "nd": 5356,
      "pro": 5357,
      "யிட்": 5358,
      "என்றா": 5359,
      "்டர": 5360,
      "ிபிச": 5361,
      "அருள": 5362,
      "46": 5363,
      "ro": 5364,
      "##ir": 5365,
      "த்தே": 5366,
      "க்கப்": 5367,
      "்பத்": 5368,
      "்தோ": 5369,
      "ாளா": 5370,
      "கூறின": 5371,
      "47": 5372,
      "வக்": 5373,
      "துகள்": 5374,
      "ானில்": 5375,
      "51": 5376,
      "hi": 5377,
      "னஸ": 5378,
      "##tt": 5379,
      "ந்தக": 5380,
      "ண்டாம": 5381,
      "ார்த": 5382,
      "கிக்க": 5383,
      "தோல்": 5384,
      "ுறம்": 5385,
      "வதாக": 5386,
      "ல்தான": 5387,
      "்கிழம": 5388,
      "dmk": 5389,
      "இத்": 5390,
      "னதி": 5391,
      "ுக்கட": 5392,
      "ியக்": 5393,
      "எனக்க": 5394,
      "ானின்": 5395,
      "ன்றம்": 5396,
      "வுத்": 5397,
      "தர்கள": 5398,
      "ரப்பி": 5399,
      "ழ்த": 5400,
      "பெய்": 5401,
      "ுவம": 5402,
      "மீத": 5403,
      "யாகு": 5404,
      "மைப்": 5405,
      "்தூர்": 5406,
      "ோயில்": 5407,
      "்வள": 5408,
      "ுநாள": 5409,
      "ழ்த்த": 5410,
      "ஜஸ": 5411,
      "ணம": 5412,
      "ஹம": 5413,
      "ட்டே": 5414,
      "ிரைய": 5415,
      "ையொ": 5416,
      "ம்பட": 5417,
      "லாமல்": 5418,
      "ல்கள்": 5419,
      "ஆக்": 5420,
      "சகர": 5421,
      "ணப்": 5422,
      "ெளிவ": 5423,
      "ற்றின": 5424,
      "சாப்": 5425,
      "ையோ": 5426,
      "ta": 5427,
      "இரா": 5428,
      "ஏர்": 5429,
      "தந்தி": 5430,
      "மேற்": 5431,
      "யுத": 5432,
      "்பாப": 5433,
      "மயம": 5434,
      "சங்": 5435,
      "ோட்": 5436,
      "##me": 5437,
      "களான": 5438,
      "்பன்": 5439,
      "ாரை": 5440,
      "சுக்": 5441,
      "ும்பு": 5442,
      "ஒத": 5443,
      "சங்கள": 5444,
      "குன": 5445,
      "மைச": 5446,
      "மிட்": 5447,
      "ல்லப": 5448,
      "அடிப": 5449,
      "ட்சம": 5450,
      "ாருக்": 5451,
      "gov": 5452,
      "64": 5453,
      "ுன்": 5454,
      "ருது": 5455,
      "தென": 5456,
      "னைவர": 5457,
      "250": 5458,
      "ணக்கா": 5459,
      "ஆட்ச": 5460,
      "ொண்டு": 5461,
      "ல்வி": 5462,
      "ினும": 5463,
      "ுவர்": 5464,
      "டற்": 5465,
      "றவி": 5466,
      "ுழை": 5467,
      "முன": 5468,
      "இதய": 5469,
      "றைகள்": 5470,
      "பார்க": 5471,
      "்ளாட": 5472,
      "un": 5473,
      "ஐநா": 5474,
      "டக": 5475,
      "னடி": 5476,
      "ரக்": 5477,
      "ளா": 5478,
      "ொற": 5479,
      "##ga": 5480,
      "க்கீ": 5481,
      "்சார": 5482,
      "கேள": 5483,
      "உறு": 5484,
      "டமி": 5485,
      "ாசிய": 5486,
      "ாங்கு": 5487,
      "காங்": 5488,
      "்டியா": 5489,
      "ாமத": 5490,
      "்றே": 5491,
      "ண்ணெ": 5492,
      "புரம": 5493,
      "ாதிபத": 5494,
      "ரணம": 5495,
      "it": 5496,
      "பற்": 5497,
      "ழன": 5498,
      "பித்த": 5499,
      "பிப்": 5500,
      "மைக": 5501,
      "றிவி": 5502,
      "பாக்": 5503,
      "்டிங்": 5504,
      "கையி": 5505,
      "சரியா": 5506,
      "52": 5507,
      "சத்தி": 5508,
      "மக்க": 5509,
      "ரட": 5510,
      "ரவர": 5511,
      "வத்த": 5512,
      "ொடிய": 5513,
      "்வாத": 5514,
      "களி": 5515,
      "அவசிய": 5516,
      "ேரா": 5517,
      "டெல்": 5518,
      "ர்பி": 5519,
      "72": 5520,
      "ge": 5521,
      "ho": 5522,
      "ஜஸ்": 5523,
      "தரா": 5524,
      "்பர்": 5525,
      "வரும": 5526,
      "மேஷ": 5527,
      "ாடல்": 5528,
      "லட": 5529,
      "ளன": 5530,
      "ப்பவ": 5531,
      "குக்க": 5532,
      "ியங்க": 5533,
      "ந்தவ": 5534,
      "வாழ்": 5535,
      "ுரத": 5536,
      "மென": 5537,
      "ிளா": 5538,
      "ியிடம": 5539,
      "ிபுர": 5540,
      "நக": 5541,
      "ேந்தி": 5542,
      "க்கத்": 5543,
      "செப்": 5544,
      "மில்": 5545,
      "க்காத": 5546,
      "்வார்": 5547,
      "வன்ம": 5548,
      "54": 5549,
      "சசி": 5550,
      "யதா": 5551,
      "யணம்": 5552,
      "ர்வு": 5553,
      "நாளை": 5554,
      "சிப்": 5555,
      "ினோ": 5556,
      "ரின": 5557,
      "கோட்": 5558,
      "திரே": 5559,
      "லித்த": 5560,
      "இருந": 5561,
      "பொருட": 5562,
      "ர்களை": 5563,
      "58": 5564,
      "ri": 5565,
      "ர்சி": 5566,
      "றும": 5567,
      "ீண்": 5568,
      "ுரா": 5569,
      "ுங்கி": 5570,
      "##ck": 5571,
      "##ma": 5572,
      "வித்": 5573,
      "்சல": 5574,
      "னிஸ்": 5575,
      "ாயக்": 5576,
      "ஊரக": 5577,
      "ல்பா": 5578,
      "be": 5579,
      "man": 5580,
      "ணும": 5581,
      "நர": 5582,
      "னக்க": 5583,
      "னமான": 5584,
      "ற்": 5585,
      "லந்த": 5586,
      "##ஜி": 5587,
      "்பத": 5588,
      "வெப்": 5589,
      "ிரக்": 5590,
      "வுப": 5591,
      "ுப்பட": 5592,
      "ுபவர்": 5593,
      "்தானி": 5594,
      "ய்க்": 5595,
      "ெருக்": 5596,
      "பவம": 5597,
      "2ம்": 5598,
      "ஆனி": 5599,
      "ரவில": 5600,
      "ைக": 5601,
      "்ளி": 5602,
      "##வ்": 5603,
      "்டன": 5604,
      "்டே": 5605,
      "தெளி": 5606,
      "்கில்": 5607,
      "டிட": 5608,
      "டின்": 5609,
      "ள்வத": 5610,
      "pa": 5611,
      "ஒளி": 5612,
      "ீக்க": 5613,
      "##si": 5614,
      "##ஷா": 5615,
      "ப்பண": 5616,
      "திரா": 5617,
      "யாச": 5618,
      "ம்பிக": 5619,
      "ோகி": 5620,
      "ாரணமா": 5621,
      "63": 5622,
      "ருடை": 5623,
      "ிடீர": 5624,
      "மைகள": 5625,
      "சுப்ப": 5626,
      "ரியர": 5627,
      "டாது": 5628,
      "தியான": 5629,
      "ேசம": 5630,
      "பயணம": 5631,
      "ழ்வு": 5632,
      "ிடீரெ": 5633,
      "ct": 5634,
      "சட": 5635,
      "ரர": 5636,
      "த்தொ": 5637,
      "ட்டுக": 5638,
      "்டன்": 5639,
      "120": 5640,
      "57": 5641,
      "95": 5642,
      "யதில்": 5643,
      "த்தான": 5644,
      "ப்பார": 5645,
      "ியும": 5646,
      "போக்க": 5647,
      "்கட்": 5648,
      "ிடங்க": 5649,
      "ையால": 5650,
      "யூன": 5651,
      "்டின்": 5652,
      "ய்கிற": 5653,
      "ைவாக": 5654,
      "சற": 5655,
      "ஷே": 5656,
      "ூக்": 5657,
      "##lo": 5658,
      "##jp": 5659,
      "ியில": 5660,
      "ுள்ளத": 5661,
      "ன்றுக": 5662,
      "சொத்த": 5663,
      "கைத": 5664,
      "நெட": 5665,
      "்பதிவ": 5666,
      "ார்த்": 5667,
      "85": 5668,
      "el": 5669,
      "mi": 5670,
      "கவி": 5671,
      "ளத்": 5672,
      "##un": 5673,
      "ட்டத்": 5674,
      "தைப": 5675,
      "இடம்ப": 5676,
      "தோல": 5677,
      "ூலம்": 5678,
      "ers": 5679,
      "ண்ணெய": 5680,
      "``": 5681,
      "ty": 5682,
      "டில": 5683,
      "பம்": 5684,
      "ரடி": 5685,
      "்கர": 5686,
      "சாப": 5687,
      "53": 5688,
      "bjp": 5689,
      "மற": 5690,
      "மங்க": 5691,
      "மோக": 5692,
      "ரணை": 5693,
      "லீஸ்": 5694,
      "ில்வ": 5695,
      "்களாக": 5696,
      "வாங்": 5697,
      "ாதம": 5698,
      "மெட": 5699,
      "ரீத": 5700,
      "ேசம்": 5701,
      "600": 5702,
      "்காரர": 5703,
      "ிநாட": 5704,
      "59": 5705,
      "62": 5706,
      "99": 5707,
      "em": 5708,
      "ic": 5709,
      "ஆன்": 5710,
      "ஏக": 5711,
      "ாந": 5712,
      "ைவர": 5713,
      "்டைய": 5714,
      "ற்றுவ": 5715,
      "ிட்டத": 5716,
      "யுக": 5717,
      "ரப்பட": 5718,
      "லத்தை": 5719,
      "ைமை": 5720,
      "ைந்து": 5721,
      "##ge": 5722,
      "ட்டவ": 5723,
      "டுவி": 5724,
      "ாகிய": 5725,
      "்பும": 5726,
      "ினம": 5727,
      "மீட்": 5728,
      "்சர": 5729,
      "யிலில": 5730,
      "ாமன": 5731,
      "ுரைய": 5732,
      "ரிசை": 5733,
      "ட்கள்": 5734,
      "ைதா": 5735,
      "ப்பல": 5736,
      "ருடன்": 5737,
      "தலைவ": 5738,
      "ிக்கு": 5739,
      "்தர": 5740,
      "ங்கிண": 5741,
      "ள்கை": 5742,
      "றிஞர்": 5743,
      "56": 5744,
      "mar": 5745,
      "ஏக்க": 5746,
      "றல": 5747,
      "ோரி": 5748,
      "##us": 5749,
      "##ed": 5750,
      "ிறோம": 5751,
      "ியட": 5752,
      "வேன்": 5753,
      "ிரப": 5754,
      "ாடும்": 5755,
      "தைகள்": 5756,
      "னிவ": 5757,
      "்தின்": 5758,
      "சைவ": 5759,
      "்சின்": 5760,
      "ிதர்": 5761,
      "ாரின்": 5762,
      "ad": 5763,
      "ya": 5764,
      "னாவ": 5765,
      "யத": 5766,
      "ரது": 5767,
      "##lu": 5768,
      "ட்டக": 5769,
      "க்ரே": 5770,
      "ம்பத்": 5771,
      "ெல்லா": 5772,
      "ிடுவத": 5773,
      "்வாய": 5774,
      "sc": 5775,
      "னாம": 5776,
      "பப்": 5777,
      "யட": 5778,
      "ிவி": 5779,
      "ூன்ற": 5780,
      "##va": 5781,
      "த்தும": 5782,
      "பிட": 5783,
      "ராத்த": 5784,
      "நிக": 5785,
      "தயாரா": 5786,
      "ரைத்": 5787,
      "ேற்பட": 5788,
      "டலில": 5789,
      "எண்ணி": 5790,
      "es": 5791,
      "அத்": 5792,
      "கறி": 5793,
      "யீ": 5794,
      "ூக்க": 5795,
      "ூப்ப": 5796,
      "த்தோ": 5797,
      "ருநா": 5798,
      "்பூ": 5799,
      "ாரப": 5800,
      "ங்கப்": 5801,
      "ையத்த": 5802,
      "இதோ": 5803,
      "நீத": 5804,
      "னைப்": 5805,
      "லைக்": 5806,
      "தக்": 5807,
      "ீண்ட": 5808,
      "மானி": 5809,
      "...": 5810,
      "67": 5811,
      "bi": 5812,
      "he": 5813,
      "tn": 5814,
      "றொரு": 5815,
      "ளின": 5816,
      "ஷர": 5817,
      "க்கின": 5818,
      "வேன": 5819,
      "வாமி": 5820,
      "ிரன": 5821,
      "்கும்": 5822,
      "சாட்": 5823,
      "ள்ளிய": 5824,
      "ாவல்": 5825,
      "ுத்தை": 5826,
      "ுப்பத": 5827,
      "டமாக": 5828,
      "66": 5829,
      "at": 5830,
      "ha": 5831,
      "par": 5832,
      "இடி": 5833,
      "டார": 5834,
      "ியும்": 5835,
      "க்ரம": 5836,
      "நிமி": 5837,
      "ல்வர": 5838,
      "்குவ": 5839,
      "ிகர்": 5840,
      "ிகரி": 5841,
      "தூர்": 5842,
      "ரைப்ப": 5843,
      "வேலைய": 5844,
      "டேன": 5845,
      "ிநாயக": 5846,
      "3ம்": 5847,
      "68": 5848,
      "fa": 5849,
      "ஆடு": 5850,
      "உற்": 5851,
      "சத்": 5852,
      "ணன": 5853,
      "பிய": 5854,
      "யஷ": 5855,
      "ரத்தி": 5856,
      "##ru": 5857,
      "பாம": 5858,
      "வரத்": 5859,
      "ங்கைய": 5860,
      "யாமல": 5861,
      "லைகளை": 5862,
      "்ரம": 5863,
      "யமாக": 5864,
      "##and": 5865,
      "்குவத": 5866,
      "73": 5867,
      "ka": 5868,
      "ிவர": 5869,
      "ொறு": 5870,
      "ோனா": 5871,
      "ியார்": 5872,
      "பாலா": 5873,
      "மகன்": 5874,
      "றித": 5875,
      "டனு": 5876,
      "ion": 5877,
      "tt": 5878,
      "டலை": 5879,
      "தக": 5880,
      "ளப்": 5881,
      "துக்": 5882,
      "தொண்ட": 5883,
      "பரம்": 5884,
      "அம்ம": 5885,
      "ிப்பை": 5886,
      "்ளோ": 5887,
      "ளுந": 5888,
      "69": 5889,
      "மஸ": 5890,
      "லத": 5891,
      "லப": 5892,
      "ளில்": 5893,
      "ாற்": 5894,
      "ருள்": 5895,
      "விப்ப": 5896,
      "டுவா": 5897,
      "ுமத": 5898,
      "ிராம": 5899,
      "ுவல": 5900,
      "்கன": 5901,
      "கிட்": 5902,
      "ஷ்ம": 5903,
      "லேயே": 5904,
      "ன்சா": 5905,
      "144": 5906,
      "##ard": 5907,
      "ைப்பத": 5908,
      "னவும்": 5909,
      "ph": 5910,
      "எப்ப": 5911,
      "தையில": 5912,
      "நபி": 5913,
      "யஸ": 5914,
      "ளே": 5915,
      "வொ": 5916,
      "ூண": 5917,
      "##ll": 5918,
      "##fe": 5919,
      "##es": 5920,
      "க்கள்": 5921,
      "புக்": 5922,
      "ேரம்": 5923,
      "ையால்": 5924,
      "ிட்டர": 5925,
      "படக்": 5926,
      "கூடா": 5927,
      "்சேர": 5928,
      "ேவையா": 5929,
      "பினர": 5930,
      "5ம்": 5931,
      "கக்க": 5932,
      "ளாத": 5933,
      "##na": 5934,
      "##gh": 5935,
      "##ணர": 5936,
      "திரிய": 5937,
      "ியவை": 5938,
      "ாகச": 5939,
      "பாட்ட": 5940,
      "பித": 5941,
      "்பே": 5942,
      "வருமா": 5943,
      "புணர": 5944,
      "யிலு": 5945,
      "்றத": 5946,
      "ுவதால": 5947,
      "்பாட்": 5948,
      "்புத": 5949,
      "ஷ்ண": 5950,
      "னையை": 5951,
      "ோசன": 5952,
      "யதில": 5953,
      "pre": 5954,
      "ww": 5955,
      "ஆலை": 5956,
      "ஊசி": 5957,
      "ஐக": 5958,
      "தல்": 5959,
      "னத்தை": 5960,
      "பனை": 5961,
      "பத்தி": 5962,
      "மத்": 5963,
      "ரட்": 5964,
      "றவ": 5965,
      "லஸ": 5966,
      "ஹரி": 5967,
      "ேலை": 5968,
      "ப்பே": 5969,
      "குக": 5970,
      "ின்ச": 5971,
      "ம்பெ": 5972,
      "பதா": 5973,
      "##ill": 5974,
      "்துறை": 5975,
      "live": 5976,
      "74": 5977,
      "gm": 5978,
      "எச்ச": 5979,
      "மகர": 5980,
      "யர்கள": 5981,
      "ிநா": 5982,
      "ீவி": 5983,
      "ைகளை": 5984,
      "முற்": 5985,
      "திச": 5986,
      "்டமி": 5987,
      "ிலம": 5988,
      "ினே": 5989,
      "வுச": 5990,
      "ாட்டம": 5991,
      "்றா": 5992,
      "லிக்": 5993,
      "திகம": 5994,
      "so": 5995,
      "ணத்த": 5996,
      "ளமான": 5997,
      "ாரும்": 5998,
      "ுந்தி": 5999,
      "ந்தம்": 6000,
      "கொர": 6001,
      "படம": 6002,
      "ர்தா": 6003,
      "ல்லூ": 6004,
      "்புர": 6005,
      "தவித": 6006,
      "sta": 6007,
      "ிஞர்": 6008,
      "61": 6009,
      "ca": 6010,
      "wor": 6011,
      "னப்": 6012,
      "ஸில": 6013,
      "ிண்ண": 6014,
      "##gi": 6015,
      "ியால": 6016,
      "மாதி": 6017,
      "தாத": 6018,
      "புள": 6019,
      "ற்கெ": 6020,
      "ேசு": 6021,
      "71": 6022,
      "இலை": 6023,
      "ைசி": 6024,
      "##ld": 6025,
      "##ியத": 6026,
      "மார்": 6027,
      "வேட்": 6028,
      "க்குள": 6029,
      "ிரக": 6030,
      "்கியத": 6031,
      "்சு": 6032,
      "ர்கால": 6033,
      "ாஜா": 6034,
      "ன்சார": 6035,
      "வியி": 6036,
      "ேகத": 6037,
      "ுணா": 6038,
      "77": 6039,
      "ab": 6040,
      "min": 6041,
      "கடு": 6042,
      "ம்பத": 6043,
      "ரங்": 6044,
      "செயலா": 6045,
      "யாவ": 6046,
      "சுற": 6047,
      "்த்தா": 6048,
      "ிதித்": 6049,
      "்வொ": 6050,
      "தமாக": 6051,
      "றுவது": 6052,
      "்கோட": 6053,
      "ம்பவம": 6054,
      "et": 6055,
      "கவா": 6056,
      "ஜை": 6057,
      "ணையில": 6058,
      "ரில": 6059,
      "ஸவ": 6060,
      "ோரா": 6061,
      "துப்": 6062,
      "ிறி": 6063,
      "ராளம": 6064,
      "பொற": 6065,
      "லைத்": 6066,
      "கிறத": 6067,
      "700": 6068,
      "ய்வத": 6069,
      "ter": 6070,
      "tra": 6071,
      "யத்": 6072,
      "ஸர": 6073,
      "ுங்": 6074,
      "ேம்": 6075,
      "குடிய": 6076,
      "ியாம": 6077,
      "ங்களி": 6078,
      "ண்டது": 6079,
      "ிரோ": 6080,
      "ிலக": 6081,
      "சேரி": 6082,
      "ச்சத": 6083,
      "்சர்": 6084,
      "னைக்": 6085,
      "ப்படம": 6086,
      "ியிரு": 6087,
      "ுந்தா": 6088,
      "gmt": 6089,
      "ஞ்": 6090,
      "தலி": 6091,
      "னரா": 6092,
      "ரப்": 6093,
      "றீ": 6094,
      "வக்க": 6095,
      "ஹல": 6096,
      "்மைய": 6097,
      "பிட்": 6098,
      "ட்ஸ": 6099,
      "ுவிட்": 6100,
      "றுவத": 6101,
      "ோகிற": 6102,
      "டமும்": 6103,
      "டார்க": 6104,
      "்மையா": 6105,
      "im": 6106,
      "out": 6107,
      "pm": 6108,
      "கென": 6109,
      "டத்": 6110,
      "மரிய": 6111,
      "ொக": 6112,
      "துவி": 6113,
      "ானில": 6114,
      "மைத": 6115,
      "இதுப": 6116,
      "்வல": 6117,
      "ரசம": 6118,
      "poli": 6119,
      "7ம்": 6120,
      "92": 6121,
      "ஜிய": 6122,
      "லப்": 6123,
      "்பவர": 6124,
      "பேட": 6125,
      "வெற": 6126,
      "ன்னைய": 6127,
      "ிரிக்": 6128,
      "்னோ": 6129,
      "ஆலய": 6130,
      "ku": 6131,
      "we": 6132,
      "சந": 6133,
      "யன்ற": 6134,
      "ரதா": 6135,
      "##ke": 6136,
      "ந்துவ": 6137,
      "ிரிய": 6138,
      "ுவோம": 6139,
      "கிர்": 6140,
      "மீள": 6141,
      "வைக்": 6142,
      "்தார": 6143,
      "ாய்ப": 6144,
      "ெல்லி": 6145,
      "ங்குள": 6146,
      "ster": 6147,
      "ர்பான": 6148,
      "800": 6149,
      "9ம்": 6150,
      "காக": 6151,
      "ோகம": 6152,
      "##mi": 6153,
      "ட்டமை": 6154,
      "அமர்": 6155,
      "ர்த்": 6156,
      "தனைய": 6157,
      "தனியா": 6158,
      "மையில": 6159,
      "வரின்": 6160,
      "ட்சும": 6161,
      "வனம்": 6162,
      "வாதம": 6163,
      "ேசத்": 6164,
      "பசு": 6165,
      "க்கெட": 6166,
      "ெற்று": 6167,
      "படுத": 6168,
      "4ம்": 6169,
      "fi": 6170,
      "ஆக்க": 6171,
      "ணர": 6172,
      "தத்": 6173,
      "நதி": 6174,
      "றத்த": 6175,
      "##sh": 6176,
      "ியு": 6177,
      "ந்தச": 6178,
      "்திய": 6179,
      "பர்க": 6180,
      "வுடன": 6181,
      "ரைக்": 6182,
      "வனத்த": 6183,
      "பத்தை": 6184,
      "லியல": 6185,
      "பரிச": 6186,
      "ியோர்": 6187,
      "##ala": 6188,
      "vide": 6189,
      "விக்ர": 6190,
      "8ம்": 6191,
      "னெ": 6192,
      "வம்": 6193,
      "ொன்": 6194,
      "##ja": 6195,
      "க்கவ": 6196,
      "ந்தத": 6197,
      "பிக்க": 6198,
      "்பால": 6199,
      "ன்ல": 6200,
      "ராட்ச": 6201,
      "ினத": 6202,
      "ாமா": 6203,
      "காரர": 6204,
      "ரோக": 6205,
      "ிசம": 6206,
      "ஆண்டி": 6207,
      "இளைஞ": 6208,
      "ெறும": 6209,
      "்தமாக": 6210,
      "மன்றம": 6211,
      "ழுவத": 6212,
      "video": 6213,
      "76": 6214,
      "டரில்": 6215,
      "ிவு": 6216,
      "ீசி": 6217,
      "##om": 6218,
      "##ஷே": 6219,
      "ப்பதா": 6220,
      "குடு": 6221,
      "ராவி": 6222,
      "ிழாவ": 6223,
      "வனத": 6224,
      "்டுப்": 6225,
      "##ast": 6226,
      "##ith": 6227,
      "லீஸார": 6228,
      "ட்களை": 6229,
      "www": 6230,
      "ly": 6231,
      "you": 6232,
      "டந்த": 6233,
      "தனால": 6234,
      "ய்ப": 6235,
      "ூலை": 6236,
      "##ஜ்": 6237,
      "களும": 6238,
      "ந்ததா": 6239,
      "பினா": 6240,
      "ார்ச": 6241,
      "்பை": 6242,
      "ேரத்": 6243,
      "டைத்": 6244,
      "ாதன": 6245,
      "ளிக": 6246,
      "படக": 6247,
      "வுள": 6248,
      "மனோ": 6249,
      "play": 6250,
      "ru": 6251,
      "up": 6252,
      "ஏரி": 6253,
      "ணீ": 6254,
      "னமு": 6255,
      "யத்தை": 6256,
      "ிப்போ": 6257,
      "ூண்": 6258,
      "திவா": 6259,
      "குகளை": 6260,
      "நடன": 6261,
      "ரால": 6262,
      "்சவ": 6263,
      "கூடாத": 6264,
      "தொழி": 6265,
      "்பின்": 6266,
      "ள்ளிட": 6267,
      "ருளா": 6268,
      "##are": 6269,
      "tic": 6270,
      "்சேரி": 6271,
      "்கோவ": 6272,
      "வதால்": 6273,
      "what": 6274,
      "ஷ்யா": 6275,
      "1ம்": 6276,
      "82": 6277,
      "96": 6278,
      "pe": 6279,
      "இலக": 6280,
      "எதை": 6281,
      "ஒலி": 6282,
      "னமா": 6283,
      "##od": 6284,
      "துட": 6285,
      "முஸ": 6286,
      "தித்": 6287,
      "ன்றத": 6288,
      "நீல": 6289,
      "ரேலி": 6290,
      "ரைன்": 6291,
      "சோழ": 6292,
      "ன்பது": 6293,
      "ல்களை": 6294,
      "ுழுவத": 6295,
      "6ம்": 6296,
      "78": 6297,
      "du": 6298,
      "ip": 6299,
      "mu": 6300,
      "ram": 6301,
      "இவ்": 6302,
      "க்த": 6303,
      "சண": 6304,
      "டால": 6305,
      "றில்": 6306,
      "ெழ": 6307,
      "##போ": 6308,
      "##ந்": 6309,
      "செம": 6310,
      "டுப": 6311,
      "டுப்": 6312,
      "டுமல": 6313,
      "ர்வத": 6314,
      "ுவத்த": 6315,
      "கிப்": 6316,
      "னைகள்": 6317,
      "ாதிப்": 6318,
      "லியன்": 6319,
      "int": 6320,
      "ாபிஷே": 6321,
      "டுதல்": 6322,
      "சாலைய": 6323,
      "91": 6324,
      "cs": 6325,
      "pu": 6326,
      "டந": 6327,
      "னடிய": 6328,
      "றங்கி": 6329,
      "ுஸ": 6330,
      "ேலா": 6331,
      "ோவில்": 6332,
      "##ti": 6333,
      "னைகளை": 6334,
      "கலச": 6335,
      "ுறம": 6336,
      "கர்க": 6337,
      "மென்": 6338,
      "ந்துள": 6339,
      "்புற": 6340,
      "்குள": 6341,
      "அமைக": 6342,
      "ெல்வத": 6343,
      "ுணர": 6344,
      "84": 6345,
      "86": 6346,
      "htt": 6347,
      "ஐஸ்": 6348,
      "யக்": 6349,
      "ரகர": 6350,
      "ூசி": 6351,
      "ெற்": 6352,
      "பிபி": 6353,
      "ர்ந": 6354,
      "கடக": 6355,
      "்பிற": 6356,
      "ரால்": 6357,
      "ிலில்": 6358,
      "ற்றங்": 6359,
      "ச்சன": 6360,
      "சொத": 6361,
      "ாஜக": 6362,
      "ட்சத": 6363,
      "தியின": 6364,
      "கலாம்": 6365,
      "shi": 6366,
      "mini": 6367,
      "88": 6368,
      "ele": 6369,
      "lin": 6370,
      "nc": 6371,
      "pri": 6372,
      "ஈஷா": 6373,
      "கற": 6374,
      "ளதா": 6375,
      "ொல்": 6376,
      "துதான": 6377,
      "சேர்": 6378,
      "ெய்க": 6379,
      "ாவட": 6380,
      "ind": 6381,
      "்னு": 6382,
      "லவ்": 6383,
      "ிபத்": 6384,
      "bu": 6385,
      "tu": 6386,
      "us": 6387,
      "va": 6388,
      "ஏசி": 6389,
      "றல்": 6390,
      "ுரி": 6391,
      "##pt": 6392,
      "ப்பும": 6393,
      "ிறத": 6394,
      "குற": 6395,
      "கொள": 6396,
      "வரல": 6397,
      "வரம": 6398,
      "ிர்ப": 6399,
      "ில்தா": 6400,
      "கிஸ்": 6401,
      "கிச்ச": 6402,
      "ிக்கவ": 6403,
      "லாட": 6404,
      "ுதன": 6405,
      "னிப": 6406,
      "லைக": 6407,
      "இல்லா": 6408,
      "ரமண": 6409,
      "்வீ": 6410,
      "ாப்பி": 6411,
      "ைப்பை": 6412,
      "டர்ந": 6413,
      "ெற்றோ": 6414,
      "81": 6415,
      "97": 6416,
      "cal": 6417,
      "fo": 6418,
      "கஸ்": 6419,
      "ஜக": 6420,
      "டவர்": 6421,
      "ளய": 6422,
      "ேள": 6423,
      "்வை": 6424,
      "##fi": 6425,
      "##hi": 6426,
      "ப்பத்": 6427,
      "டும": 6428,
      "ர்வை": 6429,
      "ராக்க": 6430,
      "கின்": 6431,
      "ற்றவ": 6432,
      "முகத்": 6433,
      "னாள்": 6434,
      "யூத": 6435,
      "சைக": 6436,
      "180": 6437,
      "##art": 6438,
      "்கிறத": 6439,
      "nadu": 6440,
      "சயம": 6441,
      "day": 6442,
      "உல": 6443,
      "ஒல": 6444,
      "கமா": 6445,
      "சக்": 6446,
      "ண்க": 6447,
      "றது": 6448,
      "லோர": 6449,
      "ுணை": 6450,
      "ுவரை": 6451,
      "##யர்": 6452,
      "ிறா": 6453,
      "திகள": 6454,
      "யிடு": 6455,
      "களால": 6456,
      "பெயர்": 6457,
      "புள்ள": 6458,
      "ஸ்லி": 6459,
      "ஆகம": 6460,
      "ற்கும": 6461,
      "நேரி": 6462,
      "ூர்த": 6463,
      "லியன": 6464,
      "125": 6465,
      "##ent": 6466,
      "ையைக்": 6467,
      "act": 6468,
      "உறுத": 6469,
      "ூன்றா": 6470,
      "per": 6471,
      "qu": 6472,
      "sm": 6473,
      "sam": 6474,
      "ழா": 6475,
      "ஷய": 6476,
      "்விட": 6477,
      "செந்த": 6478,
      "பெட்": 6479,
      "சிந": 6480,
      "ிலக்": 6481,
      "யிலே": 6482,
      "ாயத்": 6483,
      "வாக்": 6484,
      "ுபவ": 6485,
      "சைக்": 6486,
      "்ரல": 6487,
      "ிறைவ": 6488,
      "94": 6489,
      "ec": 6490,
      "gen": 6491,
      "ide": 6492,
      "sch": 6493,
      "tw": 6494,
      "சர்கள": 6495,
      "யன்ப": 6496,
      "லஷ": 6497,
      "ஷமி": 6498,
      "ெப": 6499,
      "ொல்வ": 6500,
      "ோடிய": 6501,
      "##ok": 6502,
      "##ee": 6503,
      "ட்டைய": 6504,
      "ுக்கல": 6505,
      "ான்க": 6506,
      "ல்வத": 6507,
      "தேர்வ": 6508,
      "ன்னெ": 6509,
      "றிப்ப": 6510,
      "ரியர்": 6511,
      "்புப": 6512,
      "கிறார": 6513,
      "ளைவ": 6514,
      "கலாம": 6515,
      "ல்யா": 6516,
      "லையு": 6517,
      "்கிக்": 6518,
      "ார்பி": 6519,
      "ort": 6520,
      "who": 6521,
      "ட்டேன": 6522,
      "5ஜி": 6523,
      "83": 6524,
      "with": 6525,
      "சரா": 6526,
      "ததா": 6527,
      "ுனை": 6528,
      "##ly": 6529,
      "##per": 6530,
      "ுவாக": 6531,
      "ுவதா": 6532,
      "ங்கார": 6533,
      "ால்க": 6534,
      "ழுப": 6535,
      "ேர்த்": 6536,
      "பயிற": 6537,
      "லைகள்": 6538,
      "ிழா": 6539,
      "டையு": 6540,
      "ூரில": 6541,
      "கிறதா": 6542,
      "130": 6543,
      "ிரைவ": 6544,
      "ுழுக்": 6545,
      "காக்": 6546,
      "app": 6547,
      "cu": 6548,
      "தண": 6549,
      "ிர்வ": 6550,
      "ைவு": 6551,
      "##ft": 6552,
      "##da": 6553,
      "ருத்": 6554,
      "களைய": 6555,
      "ியுடன": 6556,
      "பாட்": 6557,
      "்பட": 6558,
      "டித்": 6559,
      "மாநாட": 6560,
      "றித்த": 6561,
      "மானம்": 6562,
      "ண்ணாம": 6563,
      "ருகே": 6564,
      "ஆசிர": 6565,
      "ம்பாப": 6566,
      "டலாம": 6567,
      "##ase": 6568,
      "nai": 6569,
      "சிரிய": 6570,
      "05": 6571,
      "03": 6572,
      "79": 6573,
      "da": 6574,
      "sy": 6575,
      "டப்பட": 6576,
      "புவ": 6577,
      "லில": 6578,
      "ளால்": 6579,
      "ூச": 6580,
      "்ரை": 6581,
      "்வர்": 6582,
      "ந்தார": 6583,
      "வரப்": 6584,
      "்கட": 6585,
      "றுச": 6586,
      "ிருக்": 6587,
      "ிருத்": 6588,
      "சாரத": 6589,
      "மாறிய": 6590,
      "ரணத": 6591,
      "்ரான": 6592,
      "்டிப": 6593,
      "டலு": 6594,
      "கழ்வ": 6595,
      "றையை": 6596,
      "்விட்": 6597,
      "ததால்": 6598,
      "as": 6599,
      "by": 6600,
      "ii": 6601,
      "ஆல்": 6602,
      "டப்": 6603,
      "பனி": 6604,
      "##day": 6605,
      "டும்ப": 6606,
      "காள": 6607,
      "காட": 6608,
      "ுகில்": 6609,
      "ச்சரவ": 6610,
      "தரவ": 6611,
      "மானம": 6612,
      "்யு": 6613,
      "பட்டன": 6614,
      "110": 6615,
      "அடையா": 6616,
      "ாரிக்": 6617,
      "டைபெ": 6618,
      "93": 6619,
      "lt": 6620,
      "ve": 6621,
      "டற": 6622,
      "ரவா": 6623,
      "ீப": 6624,
      "ட்டண": 6625,
      "க்குக": 6626,
      "நாட்": 6627,
      "நிச": 6628,
      "கின": 6629,
      "கோப்": 6630,
      "ையிட": 6631,
      "மணிக்": 6632,
      "்றது": 6633,
      "ல்கி": 6634,
      "நேரம": 6635,
      "ிதம்": 6636,
      "##ing": 6637,
      "##ash": 6638,
      "today": 6639,
      "கோயில": 6640,
      "uni": 6641,
      "https": 6642,
      "01": 6643,
      "87": 6644,
      "ia": 6645,
      "jo": 6646,
      "ko": 6647,
      "my": 6648,
      "டச": 6649,
      "ணவு": 6650,
      "தரை": 6651,
      "றம்": 6652,
      "ளவை": 6653,
      "வறு": 6654,
      "ஹஜ்": 6655,
      "ீக்": 6656,
      "ைவே": 6657,
      "்ரவ": 6658,
      "##கே": 6659,
      "##is": 6660,
      "க்கறி": 6661,
      "ாகு": 6662,
      "சினி": 6663,
      "ிலர்": 6664,
      "ிலிர": 6665,
      "ேரம": 6666,
      "்சல்": 6667,
      "மாகா": 6668,
      "ம்போ": 6669,
      "்தர்": 6670,
      "னிச": 6671,
      "சூரி": 6672,
      "னுட": 6673,
      "ுடித": 6674,
      "ியால்": 6675,
      "117": 6676,
      "கழகத்": 6677,
      "140": 6678,
      "##ass": 6679,
      "chen": 6680,
      "ாசிக்": 6681,
      "்ளிக்": 6682,
      "pho": 6683,
      "98": 6684,
      "ev": 6685,
      "hu": 6686,
      "ja": 6687,
      "ran": 6688,
      "பள": 6689,
      "பழி": 6690,
      "##th": 6691,
      "முகா": 6692,
      "பாய்": 6693,
      "ானதா": 6694,
      "ுவீ": 6695,
      "்கரி": 6696,
      "ற்றுக": 6697,
      "சாங்": 6698,
      "்சய": 6699,
      "டைத": 6700,
      "ிட்டம": 6701,
      "res": 6702,
      "##ate": 6703,
      "ுஜர": 6704,
      "ெஸ்ட": 6705,
      "மட்": 6706,
      "றப்": 6707,
      "றகு": 6708,
      "ளுக": 6709,
      "வையா": 6710,
      "##ran": 6711,
      "##ec": 6712,
      "குல்": 6713,
      "டிகள்": 6714,
      "ங்கத்": 6715,
      "படைய": 6716,
      "மெர": 6717,
      "நாளில": 6718,
      "போதைய": 6719,
      "ுமுற": 6720,
      "350": 6721,
      "raj": 6722,
      "யன்பட": 6723,
      "ass": 6724,
      "aga": 6725,
      "உமா": 6726,
      "கச": 6727,
      "தகு": 6728,
      "யது": 6729,
      "றோம்": 6730,
      "ுஸ்": 6731,
      "ோசி": 6732,
      "##ia": 6733,
      "##bt": 6734,
      "குத": 6735,
      "நிஜ": 6736,
      "ையுடன": 6737,
      "வலர்": 6738,
      "ாதிக்": 6739,
      "்ணன": 6740,
      "ரசிக": 6741,
      "ினைத்": 6742,
      "டப்பா": 6743,
      "சியம்": 6744,
      "ிர்ந": 6745,
      "்லு": 6746,
      "stal": 6747,
      "னடியா": 6748,
      "elec": 6749,
      "id": 6750,
      "கமு": 6751,
      "னங்க": 6752,
      "ரச்ச": 6753,
      "லதா": 6754,
      "##ci": 6755,
      "பிஎஸ": 6756,
      "இதனால": 6757,
      "்தகை": 6758,
      "்தமான": 6759,
      "றிக்": 6760,
      "ாயத்த": 6761,
      "ிலைம": 6762,
      "ாதிர": 6763,
      "்கமாக": 6764,
      "கெட": 6765,
      "gh": 6766,
      "lan": 6767,
      "எலி": 6768,
      "கஹ": 6769,
      "சஸ": 6770,
      "தனா": 6771,
      "னுக": 6772,
      "ரகா": 6773,
      "லப்பட": 6774,
      "ைக்கி": 6775,
      "##யா": 6776,
      "##ேன": 6777,
      "##qu": 6778,
      "ந்துக": 6779,
      "ுமக்க": 6780,
      "ாரங்க": 6781,
      "ங்கிர": 6782,
      "ாதல": 6783,
      "லாற": 6784,
      "தீய": 6785,
      "ுத்தல": 6786,
      "ாய்ப்": 6787,
      "லுக்": 6788,
      "ிரிட": 6789,
      "ிருவ": 6790,
      "ியாத": 6791,
      "ாய்ந": 6792,
      "160": 6793,
      "சரக": 6794,
      "ணியின": 6795,
      "ாஷ்ட": 6796,
      "வையு": 6797,
      "adi": 6798,
      "cor": 6799,
      "dh": 6800,
      "tv": 6801,
      "டவி": 6802,
      "பத்": 6803,
      "பசி": 6804,
      "யங்": 6805,
      "ிமு": 6806,
      "##id": 6807,
      "ட்டக்": 6808,
      "்பாட": 6809,
      "புப": 6810,
      "புள்": 6811,
      "மிரு": 6812,
      "்சிய": 6813,
      "கட்டப": 6814,
      "ம்பால": 6815,
      "தனிய": 6816,
      "ற்கை": 6817,
      "லுவல": 6818,
      "தூத": 6819,
      "்னே": 6820,
      "rep": 6821,
      "நூற": 6822,
      "ுறுத": 6823,
      "ிதமாக": 6824,
      "குகி": 6825,
      "inter": 6826,
      "card": 6827,
      "if": 6828,
      "nm": 6829,
      "nic": 6830,
      "ser": 6831,
      "இறை": 6832,
      "ஏஐ": 6833,
      "ஓலா": 6834,
      "கக்": 6835,
      "ணில்": 6836,
      "நன": 6837,
      "ய்தா": 6838,
      "ளம்ப": 6839,
      "ீச்": 6840,
      "ேவை": 6841,
      "##ry": 6842,
      "ானவ": 6843,
      "ரிட்ட": 6844,
      "ையத்": 6845,
      "னைக்க": 6846,
      "தரம": 6847,
      "கைக": 6848,
      "டாம்": 6849,
      "ிப்பி": 6850,
      "விளைய": 6851,
      "டாமல": 6852,
      "##ica": 6853,
      "again": 6854,
      "04": 6855,
      "02": 6856,
      "are": 6857,
      "lg": 6858,
      "mb": 6859,
      "pala": 6860,
      "wom": 6861,
      "உபி": 6862,
      "கப்பட": 6863,
      "சளி": 6864,
      "ளிர": 6865,
      "ாங்கி": 6866,
      "ீழ": 6867,
      "ெழு": 6868,
      "ைவி": 6869,
      "த்தூ": 6870,
      "டுங்": 6871,
      "ாகன": 6872,
      "ையத": 6873,
      "டைப்": 6874,
      "யுள": 6875,
      "னைத்": 6876,
      "ஆயி": 6877,
      "ிதிக்": 6878,
      "ிளம்": 6879,
      "தியி": 6880,
      "ைப்பா": 6881,
      "che": 6882,
      "ேகம்": 6883,
      "ாலமாக": 6884,
      "lead": 6885,
      "modi": 6886,
      "06": 6887,
      "cri": 6888,
      "ops": 6889,
      "sw": 6890,
      "தந": 6891,
      "தப்": 6892,
      "தம்ப": 6893,
      "பற்ற": 6894,
      "ெத": 6895,
      "ென்று": 6896,
      "##sc": 6897,
      "##ta": 6898,
      "துபோ": 6899,
      "ருக்": 6900,
      "திப்": 6901,
      "்போக": 6902,
      "ண்டாவ": 6903,
      "ல்ந": 6904,
      "்காவ": 6905,
      "ுடும": 6906,
      "யால": 6907,
      "்தம்": 6908,
      "ட்சு": 6909,
      "கனம": 6910,
      "ரைப்": 6911,
      "பிரிட": 6912,
      "##ara": 6913,
      "##ath": 6914,
      "டமைப": 6915,
      "sho": 6916,
      "one": 6917,
      "exp": 6918,
      "plan": 6919,
      "af": 6920,
      "ap": 6921,
      "fro": 6922,
      "gr": 6923,
      "um": 6924,
      "இந்": 6925,
      "நய": 6926,
      "னத்": 6927,
      "யொ": 6928,
      "ளந": 6929,
      "துற": 6930,
      "ானம": 6931,
      "ிலில": 6932,
      "ன்றில": 6933,
      "லாஜ": 6934,
      "ுதிய": 6935,
      "ட்டுப": 6936,
      "பதிய": 6937,
      "்றிய": 6938,
      "னுக்": 6939,
      "105": 6940,
      "்யாவ": 6941,
      "ொள்ளு": 6942,
      "சியை": 6943,
      "tha": 6944,
      "cop": 6945,
      "sive": 6946,
      "book": 6947,
      "not": 6948,
      "ண்கள்": 6949,
      "ble": 6950,
      "ew": 6951,
      "fu": 6952,
      "gu": 6953,
      "her": 6954,
      "ple": 6955,
      "will": 6956,
      "அபு": 6957,
      "சக்க": 6958,
      "ளவி": 6959,
      "வூ": 6960,
      "வோம்": 6961,
      "ஷோ": 6962,
      "ஸம": 6963,
      "##im": 6964,
      "##sa": 6965,
      "##sp": 6966,
      "##ya": 6967,
      "த்தைய": 6968,
      "தித": 6969,
      "கூடு": 6970,
      "ிரான": 6971,
      "முதலி": 6972,
      "்சை": 6973,
      "ாதத": 6974,
      "்தப": 6975,
      "லிம்": 6976,
      "மானத": 6977,
      "யாரா": 6978,
      "ிகி": 6979,
      "ரைப": 6980,
      "ைத்தா": 6981,
      "காமல்": 6982,
      "138": 6983,
      "றுதிப": 6984,
      "ளஹஸ": 6985,
      "cont": 6986,
      "nda": 6987,
      "work": 6988,
      "lgbt": 6989,
      "ban": 6990,
      "nu": 6991,
      "tri": 6992,
      "vo": 6993,
      "ஒர": 6994,
      "சவா": 6995,
      "னான": 6996,
      "றொ": 6997,
      "ழ்வ": 6998,
      "ெள்ள": 6999,
      "##ct": 7000,
      "களே": 7001,
      "காஷ": 7002,
      "்பீ": 7003,
      "ினம்": 7004,
      "்காட": 7005,
      "ாடும": 7006,
      "ல்லப்": 7007,
      "தரப்": 7008,
      "்டிக": 7009,
      "ய்ச்": 7010,
      "சியல்": 7011,
      "ுநா": 7012,
      "ையாளர": 7013,
      "ெரிக": 7014,
      "all": 7015,
      "chi": 7016,
      "900": 7017,
      "ுவனம்": 7018,
      "dr": 7019,
      "gre": 7020,
      "ju": 7021,
      "wa": 7022,
      "உள": 7023,
      "எட்": 7024,
      "ஒவ": 7025,
      "ஓகே": 7026,
      "தூக": 7027,
      "நல்": 7028,
      "யரி": 7029,
      "ளர்": 7030,
      "ூரிய": 7031,
      "##ni": 7032,
      "##pa": 7033,
      "##dy": 7034,
      "பிஎ": 7035,
      "ிரச்": 7036,
      "ுரல": 7037,
      "ிலைப": 7038,
      "102": 7039,
      "ேட்டு": 7040,
      "ine": 7041,
      "்ஸி": 7042,
      "டர்ப": 7043,
      "ர்பார": 7044,
      "எதுவ": 7045,
      "ுளா": 7046,
      "ூகத்த": 7047,
      "happ": 7048,
      "ுதியை": 7049,
      "07": 7050,
      "08": 7051,
      "au": 7052,
      "can": 7053,
      "ga": 7054,
      "ial": 7055,
      "kar": 7056,
      "nor": 7057,
      "pan": 7058,
      "இஓ": 7059,
      "ஐஜி": 7060,
      "கமான": 7061,
      "ணியா": 7062,
      "தச்": 7063,
      "தகை": 7064,
      "தசை": 7065,
      "யைய": 7066,
      "ூஜ": 7067,
      "ூடிய": 7068,
      "்ரைன": 7069,
      "##ot": 7070,
      "##mp": 7071,
      "த்தவ": 7072,
      "க்கப": 7073,
      "விற்ப": 7074,
      "பிவி": 7075,
      "்பம": 7076,
      "வென்": 7077,
      "்கின": 7078,
      "மீப": 7079,
      "அதில": 7080,
      "்தன்": 7081,
      "லைம": 7082,
      "ெண்க": 7083,
      "101": 7084,
      "டியி": 7085,
      "தியை": 7086,
      "ளைப": 7087,
      "யலில்": 7088,
      "240": 7089,
      "170": 7090,
      "ரண்டா": 7091,
      "ret": 7092,
      "ress": 7093,
      "்கிவ": 7094,
      "ூறிய": 7095,
      "rai": 7096,
      "eda": 7097,
      "வையான": 7098,
      "யையும": 7099,
      "ூஜை": 7100,
      "fe": 7101,
      "gro": 7102,
      "hy": 7103,
      "has": 7104,
      "ric": 7105,
      "san": 7106,
      "ஒள": 7107,
      "கங்": 7108,
      "சும்": 7109,
      "யற்": 7110,
      "ளட": 7111,
      "வடை": 7112,
      "##lar": 7113,
      "ப்பள": 7114,
      "ர்வி": 7115,
      "்பூர்": 7116,
      "ாரம": 7117,
      "்கொ": 7118,
      "மைகள்": 7119,
      "யாடி": 7120,
      "னிக": 7121,
      "ரோன": 7122,
      "மகி": 7123,
      "உணர்": 7124,
      "டியல": 7125,
      "ிகல": 7126,
      "்திற்": 7127,
      "வனம": 7128,
      "த்திக": 7129,
      "ிகழ்": 7130,
      "்குற": 7131,
      "மணம": 7132,
      "ைத்தன": 7133,
      "##ort": 7134,
      "ையாத": 7135,
      "tive": 7136,
      "##ina": 7137,
      "சர்ச்": 7138,
      "ted": 7139,
      "370": 7140,
      "aia": 7141,
      "how": 7142,
      "##ght": 7143,
      "09": 7144,
      "case": 7145,
      "fil": 7146,
      "pra": 7147,
      "ஊரை": 7148,
      "தள்": 7149,
      "ன்த": 7150,
      "பஸ": 7151,
      "யார்": 7152,
      "றால்": 7153,
      "ளப": 7154,
      "ிமை": 7155,
      "ிர்ச": 7156,
      "ொன": 7157,
      "ோருக": 7158,
      "##clu": 7159,
      "##fa": 7160,
      "##bi": 7161,
      "ியோர": 7162,
      "சினா": 7163,
      "ல்வே": 7164,
      "்சம்": 7165,
      "ம்பித": 7166,
      "ாடப்": 7167,
      "யுட": 7168,
      "கவச": 7169,
      "ிசைய": 7170,
      "109": 7171,
      "ிகம": 7172,
      "ர்வாக": 7173,
      "ளியில": 7174,
      "ொண்டன": 7175,
      "மோதி": 7176,
      "வியில": 7177,
      "chat": 7178,
      "360": 7179,
      "்செல்": 7180,
      "ிடுகி": 7181,
      "comp": 7182,
      "டமிட": 7183,
      "ிரச்ன": 7184,
      "cm": 7185,
      "ive": 7186,
      "lk": 7187,
      "rc": 7188,
      "ral": 7189,
      "sl": 7190,
      "van": 7191,
      "way": 7192,
      "ye": 7193,
      "சட்": 7194,
      "த்க": 7195,
      "னீர": 7196,
      "ோராட": 7197,
      "##ep": 7198,
      "##ver": 7199,
      "##hu": 7200,
      "மாள": 7201,
      "ிரமா": 7202,
      "பொத": 7203,
      "கோவி": 7204,
      "யாம": 7205,
      "கட்டு": 7206,
      "றுந": 7207,
      "ாதுக": 7208,
      "்தச": 7209,
      "ழுதி": 7210,
      "பொதுவ": 7211,
      "ன்பா": 7212,
      "##ert": 7213,
      "stor": 7214,
      "ிடுதல": 7215,
      "கமாக": 7216,
      "ாசிரி": 7217,
      "்தும": 7218,
      "படியா": 7219,
      "sec": 7220,
      "ary": 7221,
      "sis": 7222,
      "csk": 7223,
      "line": 7224,
      "from": 7225,
      "ag": 7226,
      "cy": 7227,
      "lu": 7228,
      "nam": 7229,
      "op": 7230,
      "pi": 7231,
      "say": 7232,
      "tal": 7233,
      "அடை": 7234,
      "இவ": 7235,
      "லரும": 7236,
      "ளக": 7237,
      "ாடிய": 7238,
      "ூழ்": 7239,
      "ொழு": 7240,
      "##pe": 7241,
      "ருவா": 7242,
      "ட்டமா": 7243,
      "ுமைய": 7244,
      "ுடும்": 7245,
      "ுகார்": 7246,
      "டைக்": 7247,
      "ாலர": 7248,
      "னித்": 7249,
      "ாய்க": 7250,
      "லிதா": 7251,
      "ாளு": 7252,
      "ாணப்": 7253,
      "121": 7254,
      "ீர்ப்": 7255,
      "175": 7256,
      "thi": 7257,
      "்மீ": 7258,
      "stu": 7259,
      "ணியை": 7260,
      "##all": 7261,
      "வுகள்": 7262,
      "rese": 7263,
      "சுமார": 7264,
      "எதோ": 7265,
      "cha": 7266,
      "sha": 7267,
      "்துள": 7268,
      "did": 7269,
      "world": 7270,
      "lgbtq": 7271,
      "bl": 7272,
      "ber": 7273,
      "ey": 7274,
      "gra": 7275,
      "ke": 7276,
      "kh": 7277,
      "ol": 7278,
      "sen": 7279,
      "ஐயா": 7280,
      "கவில": 7281,
      "ணர்": 7282,
      "தது": 7283,
      "பரு": 7284,
      "மக்": 7285,
      "றே": 7286,
      "லந்து": 7287,
      "லையா": 7288,
      "ளூ": 7289,
      "ளக்": 7290,
      "ிமான": 7291,
      "ிஞர": 7292,
      "ெவ": 7293,
      "துச": 7294,
      "ிறிய": 7295,
      "காவில": 7296,
      "ிலு": 7297,
      "ில்கள": 7298,
      "கிஸ": 7299,
      "ங்குக": 7300,
      "படாத": 7301,
      "ணிகள்": 7302,
      "ரியு": 7303,
      "ுரையா": 7304,
      "ர்ச்": 7305,
      "ுறைப": 7306,
      "பார்த": 7307,
      "தூய": 7308,
      "திகமா": 7309,
      "ளைச்": 7310,
      "கலைக்": 7311,
      "ாணிப்": 7312,
      "ோதும்": 7313,
      "137": 7314,
      "ுறையை": 7315,
      "234": 7316,
      "்லாம்": 7317,
      "கவின்": 7318,
      "்தியம": 7319,
      "89": 7320,
      "fir": 7321,
      "mic": 7322,
      "ry": 7323,
      "ver": 7324,
      "war": 7325,
      "ஊவா": 7326,
      "ஊரே": 7327,
      "ஏவி": 7328,
      "ணுவ": 7329,
      "றம": 7330,
      "வந": 7331,
      "வத்தை": 7332,
      "ீது": 7333,
      "ொல்ல": 7334,
      "##20": 7335,
      "##je": 7336,
      "முள": 7337,
      "களு": 7338,
      "ினு": 7339,
      "ரிவி": 7340,
      "ரிட்": 7341,
      "ங்கின": 7342,
      "ச்சைய": 7343,
      "மூர்": 7344,
      "ாதத்த": 7345,
      "ாலத": 7346,
      "றுத": 7347,
      "ாமத்": 7348,
      "ணைக்": 7349,
      "நீள": 7350,
      "லிரு": 7351,
      "ழிப்": 7352,
      "டையாத": 7353,
      "ர்களா": 7354,
      "ொண்டா": 7355,
      "்வெ": 7356,
      "றியத": 7357,
      "்சித": 7358,
      "##one": 7359,
      "that": 7360,
      "rec": 7361,
      "red": 7362,
      "பயணத்": 7363,
      "ர்பா": 7364,
      "col": 7365,
      "cour": 7366,
      "##ree": 7367,
      "பவத்த": 7368,
      "ீனாவ": 7369,
      "ord": 7370,
      "exclu": 7371,
      "age": 7372,
      "hou": 7373,
      "ki": 7374,
      "mk": 7375,
      "mp": 7376,
      "rr": 7377,
      "ur": 7378,
      "கக": 7379,
      "ணல": 7380,
      "பகை": 7381,
      "யதி": 7382,
      "ரணைய": 7383,
      "##ca": 7384,
      "##be": 7385,
      "##jay": 7386,
      "##்கல": 7387,
      "க்கத": 7388,
      "ிறக": 7389,
      "ியதா": 7390,
      "ியேற": 7391,
      "ாகும": 7392,
      "பிட்ட": 7393,
      "்போம்": 7394,
      "சினை": 7395,
      "்குக": 7396,
      "அதிம": 7397,
      "கிச": 7398,
      "கிக்": 7399,
      "பல்கல": 7400,
      "ாலிய": 7401,
      "காரா": 7402,
      "ுற்": 7403,
      "கர்ப": 7404,
      "தையடு": 7405,
      "்டிர": 7406,
      "்டின": 7407,
      "தவறா": 7408,
      "ருவரு": 7409,
      "மோட": 7410,
      "ன்னாள": 7411,
      "சனம்": 7412,
      "135": 7413,
      "ned": 7414,
      "ுச்செ": 7415,
      "##ati": 7416,
      "##asi": 7417,
      "450": 7418,
      "550": 7419,
      "part": 7420,
      "ipl": 7421,
      "scho": 7422,
      "aw": 7423,
      "cr": 7424,
      "cre": 7425,
      "gi": 7426,
      "hin": 7427,
      "iv": 7428,
      "kan": 7429,
      "pen": 7430,
      "pay": 7431,
      "rs": 7432,
      "ஈட": 7433,
      "எவ": 7434,
      "டங்": 7435,
      "தஹ": 7436,
      "யமை": 7437,
      "யவர்": 7438,
      "ாரும": 7439,
      "ூலம": 7440,
      "ூபா": 7441,
      "ெடுக": 7442,
      "ெவ்": 7443,
      "ோவை": 7444,
      "##gg": 7445,
      "##os": 7446,
      "##ds": 7447,
      "##he": 7448,
      "்கட்ட": 7449,
      "ரிப்": 7450,
      "ையைய": 7451,
      "ிக்கட": 7452,
      "்தல": 7453,
      "்தட": 7454,
      "்தியா": 7455,
      "்றோ": 7456,
      "ோர்க": 7457,
      "104": 7458,
      "113": 7459,
      "119": 7460,
      "்னீ": 7461,
      "ீர்ப": 7462,
      "ெய்வத": 7463,
      "net": 7464,
      "rain": 7465,
      "நூற்": 7466,
      "air": 7467,
      "high": 7468,
      "gene": 7469,
      "twit": 7470,
      "ght": 7471,
      "aa": 7472,
      "bil": 7473,
      "bra": 7474,
      "bha": 7475,
      "cent": 7476,
      "dra": 7477,
      "get": 7478,
      "han": 7479,
      "ld": 7480,
      "mr": 7481,
      "mon": 7482,
      "om": 7483,
      "qr": 7484,
      "ss": 7485,
      "sri": 7486,
      "ua": 7487,
      "wi": 7488,
      "உல்": 7489,
      "கப": 7490,
      "ஜப": 7491,
      "டோர": 7492,
      "டோம்": 7493,
      "ழலி": 7494,
      "ஹை": 7495,
      "##mo": 7496,
      "##ji": 7497,
      "ப்பீ": 7498,
      "ட்டத": 7499,
      "தினா": 7500,
      "ாகவ": 7501,
      "நிலம": 7502,
      "ிடையா": 7503,
      "யாப": 7504,
      "ளின்": 7505,
      "லைமை": 7506,
      "டையா": 7507,
      "ிருச்": 7508,
      "சாரம": 7509,
      "ரைத": 7510,
      "115": 7511,
      "403": 7512,
      "ந்திக": 7513,
      "time": 7514,
      "##int": 7515,
      "vijay": 7516,
      "ையைப்": 7517,
      "மாவட": 7518,
      "dis": 7519,
      "வீதம": 7520,
      "meet": 7521,
      "றையின": 7522,
      "why": 7523,
      "commi": 7524,
      "ேம்பட": 7525,
      "face": 7526,
      "imp": 7527,
      "samy": 7528,
      "cards": 7529,
      "ாய்க்": 7530,
      "court": 7531,
      "bri": 7532,
      "ci": 7533,
      "fou": 7534,
      "gpt": 7535,
      "nan": 7536,
      "ot": 7537,
      "t20": 7538,
      "ul": 7539,
      "னவர்": 7540,
      "பண்": 7541,
      "ளோ": 7542,
      "வற்": 7543,
      "ஹக்": 7544,
      "ெங்": 7545,
      "ேகர": 7546,
      "##no": 7547,
      "##ne": 7548,
      "##ba": 7549,
      "##wa": 7550,
      "த்துக": 7551,
      "ிறேன": 7552,
      "்பது": 7553,
      "்போர": 7554,
      "்கத": 7555,
      "்கல்": 7556,
      "டித": 7557,
      "்தல்": 7558,
      "திரம்": 7559,
      "வுக்": 7560,
      "ாட்டா": 7561,
      "ும்பி": 7562,
      "கவல": 7563,
      "ான்ம": 7564,
      "ிசார": 7565,
      "வலிய": 7566,
      "்புத்": 7567,
      "ாடிக்": 7568,
      "மொத": 7569,
      "லியு": 7570,
      "ிதத்த": 7571,
      "ana": 7572,
      "##ine": 7573,
      "coun": 7574,
      "்துவ": 7575,
      "supp": 7576,
      "art": 7577,
      "lai": 7578,
      "ama": 7579,
      "sci": 7580,
      "att": 7581,
      "gan": 7582,
      "il": 7583,
      "nch": 7584,
      "உக்": 7585,
      "கஸ": 7586,
      "கஷ": 7587,
      "ஜல": 7588,
      "டியர": 7589,
      "னப": 7590,
      "பந": 7591,
      "ள்ப": 7592,
      "ைஞ": 7593,
      "்வில": 7594,
      "##cu": 7595,
      "த்தத": 7596,
      "ருப": 7597,
      "செவ": 7598,
      "குந": 7599,
      "குமா": 7600,
      "காத்": 7601,
      "தாண": 7602,
      "ன்மைய": 7603,
      "ிரட்": 7604,
      "்கைய": 7605,
      "ுகன்": 7606,
      "ன்றன": 7607,
      "்தலை": 7608,
      "தைக": 7609,
      "காரம": 7610,
      "பயோ": 7611,
      "வுகளை": 7612,
      "ஜி7": 7613,
      "கியி": 7614,
      "திகம்": 7615,
      "ுன்னே": 7616,
      "116": 7617,
      "ெரியவ": 7618,
      "142": 7619,
      "##era": 7620,
      "##rea": 7621,
      "280": 7622,
      "ய்வா": 7623,
      "sur": 7624,
      "arre": 7625,
      "சாயி": 7626,
      "னதாக": 7627,
      "women": 7628,
      "happe": 7629,
      "rcb": 7630,
      "asi": 7631,
      "car": 7632,
      "ep": 7633,
      "ir": 7634,
      "mla": 7635,
      "ns": 7636,
      "ori": 7637,
      "pt": 7638,
      "tran": 7639,
      "ut": 7640,
      "ஒய்": 7641,
      "ஓடு": 7642,
      "தியர": 7643,
      "னரி": 7644,
      "யப": 7645,
      "யவில": 7646,
      "ரகு": 7647,
      "ரணம்": 7648,
      "ொகு": 7649,
      "ோற்": 7650,
      "##cc": 7651,
      "##do": 7652,
      "துத": 7653,
      "ட்டப": 7654,
      "முக்": 7655,
      "வாம": 7656,
      "ாரத": 7657,
      "ிலாக": 7658,
      "டிச்": 7659,
      "தேக": 7660,
      "தேத": 7661,
      "ுகி": 7662,
      "சேஷ": 7663,
      "ணித்": 7664,
      "ய்ந": 7665,
      "தோஷ": 7666,
      "ரியும": 7667,
      "வலய": 7668,
      "விகள்": 7669,
      "கனக": 7670,
      "சந்தே": 7671,
      "ோதர": 7672,
      "155": 7673,
      "114": 7674,
      "ைக்கழ": 7675,
      "145": 7676,
      "ாபாத": 7677,
      "ani": 7678,
      "revi": 7679,
      "##ind": 7680,
      "220": 7681,
      "ney": 7682,
      "அபே": 7683,
      "tech": 7684,
      "ோசம": 7685,
      "life": 7686,
      "form": 7687,
      "மிழர": 7688,
      "back": 7689,
      "pres": 7690,
      "sche": 7691,
      "்படும": 7692,
      "edapp": 7693,
      "story": 7694,
      "3ல்": 7695,
      "ck": 7696,
      "cl": 7697,
      "dy": 7698,
      "mal": 7699,
      "pp": 7700,
      "ps": 7701,
      "pet": 7702,
      "ure": 7703,
      "ஊதா": 7704,
      "கய": 7705,
      "பையில": 7706,
      "்தில்": 7707,
      "‛‛": 7708,
      "##nd": 7709,
      "##gu": 7710,
      "##டம்": 7711,
      "##bs": 7712,
      "க்கீட": 7713,
      "ருச்ச": 7714,
      "யிரு": 7715,
      "போற": 7716,
      "்கீ": 7717,
      "ரிகை": 7718,
      "அவ்": 7719,
      "ங்கிய": 7720,
      "கோத": 7721,
      "்சின": 7722,
      "ளிக்": 7723,
      "ளிடம்": 7724,
      "்தூ": 7725,
      "்தால": 7726,
      "றிப்": 7727,
      "ாய்ச": 7728,
      "வழிக": 7729,
      "ிசன": 7730,
      "107": 7731,
      "103": 7732,
      "பணிய": 7733,
      "ஜூல": 7734,
      "ரிசன": 7735,
      "128": 7736,
      "##ark": 7737,
      "165": 7738,
      "ரபல": 7739,
      "##ore": 7740,
      "vir": 7741,
      "ேட்க": 7742,
      "##asa": 7743,
      "்னால": 7744,
      "ravi": 7745,
      "off": 7746,
      "mode": 7747,
      "comm": 7748,
      "spec": 7749,
      "home": 7750,
      "்பூச": 7751,
      "ய்வதற": 7752,
      "tics": 7753,
      "க்தர்": 7754,
      "food": 7755,
      "green": 7756,
      "ிசாரி": 7757,
      "ah": 7758,
      "blo": 7759,
      "cit": 7760,
      "glo": 7761,
      "kk": 7762,
      "lli": 7763,
      "ora": 7764,
      "pc": 7765,
      "pal": 7766,
      "sou": 7767,
      "ஆமை": 7768,
      "உலை": 7769,
      "உஷா": 7770,
      "ஊட": 7771,
      "ஒன": 7772,
      "கச்": 7773,
      "டஸ": 7774,
      "தண்ண": 7775,
      "பங்கள": 7776,
      "மழ": 7777,
      "ம்த": 7778,
      "லமா": 7779,
      "ளற": 7780,
      "வப": 7781,
      "ாற்றி": 7782,
      "ொங்": 7783,
      "ோரு": 7784,
      "ோதல": 7785,
      "##fo": 7786,
      "##ff": 7787,
      "##bu": 7788,
      "##em": 7789,
      "##df": 7790,
      "##mb": 7791,
      "துகள": 7792,
      "ியமா": 7793,
      "ந்தப": 7794,
      "தாவத": 7795,
      "நட்": 7796,
      "ராத்": 7797,
      "ுவரி": 7798,
      "தேசி": 7799,
      "ாமிய": 7800,
      "ம்புக": 7801,
      "கண்க": 7802,
      "ொடக்": 7803,
      "றைப": 7804,
      "றைப்ப": 7805,
      "106": 7806,
      "152": 7807,
      "ப்பாற": 7808,
      "ுன்னா": 7809,
      "111": 7810,
      "181": 7811,
      "##ari": 7812,
      "163": 7813,
      "173": 7814,
      "thir": 7815,
      "ிர்ச்": 7816,
      "stra": 7817,
      "ant": 7818,
      "190": 7819,
      "230": 7820,
      "ார்ப்": 7821,
      "cho": 7822,
      "ிரைப": 7823,
      "dist": 7824,
      "அந்": 7825,
      "arch": 7826,
      "medi": 7827,
      "pow": 7828,
      "post": 7829,
      "boy": 7830,
      "490": 7831,
      "spa": 7832,
      "ity": 7833,
      "rama": 7834,
      "ship": 7835,
      "eco": 7836,
      "servi": 7837,
      "gram": 7838,
      "மகிழ்": 7839,
      "twitt": 7840,
      "5ல்": 7841,
      "bro": 7842,
      "cn": 7843,
      "gn": 7844,
      "ie": 7845,
      "ist": 7846,
      "port": 7847,
      "son": 7848,
      "tru": 7849,
      "za": 7850,
      "zo": 7851,
      "ஆஷா": 7852,
      "டவர": 7853,
      "டார்": 7854,
      "யப்": 7855,
      "ழப்": 7856,
      "##gy": 7857,
      "##el": 7858,
      "##dp": 7859,
      "##ms": 7860,
      "##xt": 7861,
      "க்காம": 7862,
      "ட்டால": 7863,
      "்களே": 7864,
      "்பல": 7865,
      "மேள": 7866,
      "ிலம்": 7867,
      "ரிடம": 7868,
      "அவல": 7869,
      "ேரில": 7870,
      "ாலின்": 7871,
      "ணைத்": 7872,
      "்தே": 7873,
      "யுற": 7874,
      "ன்னே": 7875,
      "்றார": 7876,
      "லித": 7877,
      "ோயிலி": 7878,
      "ிரிட்": 7879,
      "றைம": 7880,
      "னாதி": 7881,
      "ிமன்ற": 7882,
      "்டினா": 7883,
      "122": 7884,
      "inst": 7885,
      "177": 7886,
      "ியம்ம": 7887,
      "raja": 7888,
      "ெய்யப": 7889,
      "mad": 7890,
      "dia": 7891,
      "nia": 7892,
      "org": 7893,
      "650": 7894,
      "proje": 7895,
      "pak": 7896,
      "emp": 7897,
      "heal": 7898,
      "peo": 7899,
      "ஸ்லிம": 7900,
      "que": 7901,
      "resu": 7902,
      "lanka": 7903,
      "says": 7904,
      "count": 7905,
      "ara": 7906,
      "aut": 7907,
      "aus": 7908,
      "bb": 7909,
      "bar": 7910,
      "brea": 7911,
      "fli": 7912,
      "gar": 7913,
      "ias": 7914,
      "ms": 7915,
      "may": 7916,
      "ow": 7917,
      "rn": 7918,
      "ron": 7919,
      "rat": 7920,
      "ssi": 7921,
      "wat": 7922,
      "yo": 7923,
      "ஏஜ்": 7924,
      "கஜ": 7925,
      "கந": 7926,
      "னட": 7927,
      "மப": 7928,
      "றட": 7929,
      "ளூர": 7930,
      "ிவை": 7931,
      "##ks": 7932,
      "##up": 7933,
      "##ju": 7934,
      "த்ததா": 7935,
      "திம": 7936,
      "குகள்": 7937,
      "களோ": 7938,
      "்டக": 7939,
      "்கம்": 7940,
      "ச்சந": 7941,
      "இதில": 7942,
      "டால்": 7943,
      "ிலையி": 7944,
      "கரில": 7945,
      "எழுப": 7946,
      "ிளையா": 7947,
      "ாதிப": 7948,
      "்வது": 7949,
      "்டித": 7950,
      "றியது": 7951,
      "ோதன": 7952,
      "156": 7953,
      "118": 7954,
      "185": 7955,
      "ொல்க": 7956,
      "திரிக": 7957,
      "anti": 7958,
      "##ami": 7959,
      "ாறா": 7960,
      "ெரிவி": 7961,
      "ன்பதை": 7962,
      "ேகத்த": 7963,
      "maha": 7964,
      "deep": 7965,
      "tory": 7966,
      "sue": 7967,
      "super": 7968,
      "boss": 7969,
      "gem": 7970,
      "rule": 7971,
      "டர்பா": 7972,
      "blic": 7973,
      "award": 7974,
      "hindu": 7975,
      "scie": 7976,
      "ssion": 7977,
      "aad": 7978,
      "ben": 7979,
      "cp": 7980,
      "free": 7981,
      "gir": 7982,
      "hor": 7983,
      "ig": 7984,
      "lar": 7985,
      "ous": 7986,
      "sk": 7987,
      "sli": 7988,
      "sing": 7989,
      "squ": 7990,
      "tro": 7991,
      "uri": 7992,
      "wo": 7993,
      "was": 7994,
      "ஈழ": 7995,
      "எள்": 7996,
      "சோக": 7997,
      "ணத": 7998,
      "ம்க": 7999,
      "யற": 8000,
      "றான": 8001,
      "றவு": 8002,
      "ழுமை": 8003,
      "ைவா": 8004,
      "ோதை": 8005,
      "##co": 8006,
      "##ஹா": 8007,
      "க்கிழ": 8008,
      "செல்": 8009,
      "டிவு": 8010,
      "ிடத்": 8011,
      "ுகன": 8012,
      "்சியா": 8013,
      "சமண": 8014,
      "த்துத": 8015,
      "படவ": 8016,
      "கார்த": 8017,
      "ள்ளார": 8018,
      "றித்": 8019,
      "இரண": 8020,
      "கர்ப்": 8021,
      "ுரம": 8022,
      "அப்பட": 8023,
      "ிகம்": 8024,
      "தேசத்": 8025,
      "ட்சம்": 8026,
      "ாசிர": 8027,
      "தியும": 8028,
      "ருகின": 8029,
      "153": 8030,
      "ைத்து": 8031,
      "112": 8032,
      "ேலும்": 8033,
      "182": 8034,
      "164": 8035,
      "tho": 8036,
      "டினார": 8037,
      "##ama": 8038,
      "பிரதே": 8039,
      "next": 8040,
      "##ata": 8041,
      "team": 8042,
      "engi": 8043,
      "ேசினா": 8044,
      "ழுவது": 8045,
      "திபர்": 8046,
      "கவுக": 8047,
      "nta": 8048,
      "dire": 8049,
      "let": 8050,
      "வாய்ப": 8051,
      "cong": 8052,
      "mana": 8053,
      "ம்பெற": 8054,
      "imf": 8055,
      "்படவ": 8056,
      "year": 8057,
      "1ல்": 8058,
      "br": 8059,
      "bh": 8060,
      "bal": 8061,
      "cam": 8062,
      "dna": 8063,
      "eu": 8064,
      "ef": 8065,
      "fb": 8066,
      "fun": 8067,
      "lle": 8068,
      "mil": 8069,
      "non": 8070,
      "nal": 8071,
      "old": 8072,
      "pic": 8073,
      "rt": 8074,
      "sal": 8075,
      "uk": 8076,
      "இச்": 8077,
      "ஈத்": 8078,
      "ஈஸ்": 8079,
      "எள": 8080,
      "எவ்": 8081,
      "ஏன": 8082,
      "ஒர்": 8083,
      "ஒப்": 8084,
      "சச": 8085,
      "டப": 8086,
      "தியா": 8087,
      "மௌ": 8088,
      "ய்தி": 8089,
      "றோ": 8090,
      "லவி": 8091,
      "ளக்க": 8092,
      "வஹ": 8093,
      "ிண்": 8094,
      "ெறுவ": 8095,
      "##gc": 8096,
      "##ef": 8097,
      "##su": 8098,
      "குள்ள": 8099,
      "ாகத": 8100,
      "்டம": 8101,
      "ிராவ": 8102,
      "ுவோ": 8103,
      "்கது": 8104,
      "ிடப்": 8105,
      "ேரத்த": 8106,
      "ுயன்": 8107,
      "ழிக": 8108,
      "உறவின": 8109,
      "ாணவ": 8110,
      "லியில": 8111,
      "151": 8112,
      "126": 8113,
      "129": 8114,
      "ina": 8115,
      "்னெ": 8116,
      "141": 8117,
      "##ong": 8118,
      "134": 8119,
      "161": 8120,
      "this": 8121,
      "tiru": 8122,
      "sti": 8123,
      "anna": 8124,
      "சுமா": 8125,
      "cou": 8126,
      "code": 8127,
      "ali": 8128,
      "ிபாட": 8129,
      "tea": 8130,
      "tes": 8131,
      "deve": 8132,
      "்லிம": 8133,
      "lab": 8134,
      "poll": 8135,
      "ceo": 8136,
      "his": 8137,
      "ுன்வ": 8138,
      "ரணமாக": 8139,
      "hot": 8140,
      "been": 8141,
      "mani": 8142,
      "bio": 8143,
      "வொர": 8144,
      "press": 8145,
      "peri": 8146,
      "ifica": 8147,
      "bank": 8148,
      "khan": 8149,
      "first": 8150,
      "colle": 8151,
      "rrr": 8152,
      "bili": 8153,
      "asia": 8154,
      "தண்ணீ": 8155,
      "thiru": 8156,
      "மௌன": 8157,
      "00": 8158,
      "ak": 8159,
      "ain": 8160,
      "ari": 8161,
      "bit": 8162,
      "bla": 8163,
      "bir": 8164,
      "eps": 8165,
      "je": 8166,
      "kri": 8167,
      "late": 8168,
      "llar": 8169,
      "mg": 8170,
      "nare": 8171,
      "os": 8172,
      "our": 8173,
      "oper": 8174,
      "over": 8175,
      "pur": 8176,
      "rash": 8177,
      "sin": 8178,
      "sasi": 8179,
      "ten": 8180,
      "ஆங்": 8181,
      "இரை": 8182,
      "ஈக": 8183,
      "ஐந": 8184,
      "ஒற்ற": 8185,
      "தபோ": 8186,
      "மசி": 8187,
      "ரச்": 8188,
      "றதா": 8189,
      "லஹ": 8190,
      "ல்தா": 8191,
      "ளார்": 8192,
      "ஷூ": 8193,
      "##fu": 8194,
      "டுதல": 8195,
      "குரி": 8196,
      "ியக": 8197,
      "வாளர": 8198,
      "பேண": 8199,
      "ாராள": 8200,
      "்கலா": 8201,
      "கோப்ப": 8202,
      "்சில": 8203,
      "யாண": 8204,
      "டைச": 8205,
      "பூத": 8206,
      "மாதத்": 8207,
      "றிக": 8208,
      "தோட": 8209,
      "சிகர்": 8210,
      "கரமா": 8211,
      "ிகைய": 8212,
      "ன்பி": 8213,
      "்ளோம": 8214,
      "ெலு": 8215,
      "ரச்சி": 8216,
      "ிற்பன": 8217,
      "ஹோம": 8218,
      "133": 8219,
      "162": 8220,
      "தேர்த": 8221,
      "##ero": 8222,
      "##eri": 8223,
      "##ers": 8224,
      "171": 8225,
      "thy": 8226,
      "தடா": 8227,
      "றுகி": 8228,
      "சர்க": 8229,
      "ன்கி": 8230,
      "215": 8231,
      "rea": 8232,
      "regi": 8233,
      "198": 8234,
      "224": 8235,
      "225": 8236,
      "test": 8237,
      "750": 8238,
      "offi": 8239,
      "share": 8240,
      "digi": 8241,
      "goat": 8242,
      "sed": 8243,
      "sex": 8244,
      "##cha": 8245,
      "les": 8246,
      "sure": 8247,
      "ard": 8248,
      "ory": 8249,
      "law": 8250,
      "nga": 8251,
      "nge": 8252,
      "logi": 8253,
      "body": 8254,
      "ூழலில": 8255,
      "save": 8256,
      "spe": 8257,
      "ணையத்": 8258,
      "ndra": 8259,
      "rol": 8260,
      "hist": 8261,
      "649": 8262,
      "்ளிக": 8263,
      "mari": 8264,
      "pari": 8265,
      "tta": 8266,
      "tter": 8267,
      "fifa": 8268,
      "smart": 8269,
      "syst": 8270,
      "show": 8271,
      "ததும": 8272,
      "ரிவித": 8273,
      "space": 8274,
      "girl": 8275,
      "ஏனோ": 8276,
      "opera": 8277,
      "ஈகோ": 8278,
      "\",": 8279,
      "--": 8280,
      "av": 8281,
      "bas": 8282,
      "bet": 8283,
      "bill": 8284,
      "dm": 8285,
      "den": 8286,
      "dge": 8287,
      "est": 8288,
      "fina": 8289,
      "gy": 8290,
      "gt": 8291,
      "gal": 8292,
      "hal": 8293,
      "hus": 8294,
      "ian": 8295,
      "jan": 8296,
      "ll": 8297,
      "lor": 8298,
      "lla": 8299,
      "oly": 8300,
      "yu": 8301,
      "yan": 8302,
      "ze": 8303,
      "zone": 8304,
      "ஏல": 8305,
      "ஓசை": 8306,
      "ணட": 8307,
      "ளில": 8308,
      "ளார": 8309,
      "வப்": 8310,
      "வங்": 8311,
      "ஹத": 8312,
      "ாச்": 8313,
      "்முற": 8314,
      "##ek": 8315,
      "த்திற": 8316,
      "ந்தால": 8317,
      "பிஏ": 8318,
      "வாண": 8319,
      "நின": 8320,
      "மேக": 8321,
      "ிலர": 8322,
      "ுவான": 8323,
      "ுவாம": 8324,
      "ங்கப": 8325,
      "ுகார": 8326,
      "மூன்": 8327,
      "அறிக": 8328,
      "்தத்": 8329,
      "ுகளும": 8330,
      "படிக": 8331,
      "ந்துர": 8332,
      "டியு": 8333,
      "ற்பட": 8334,
      "நாடா": 8335,
      "தவிய": 8336,
      "157": 8337,
      "127": 8338,
      "ini": 8339,
      "நமோ": 8340,
      "்ளு": 8341,
      "ாணிப": 8342,
      "183": 8343,
      "131": 8344,
      "168": 8345,
      "174": 8346,
      "ாரிகள": 8347,
      "sto": 8348,
      "stre": 8349,
      "210": 8350,
      "193": 8351,
      "ிடுத": 8352,
      "260": 8353,
      "chan": 8354,
      "்துட": 8355,
      "்துப": 8356,
      "##ick": 8357,
      "365": 8358,
      "goo": 8359,
      "met": 8360,
      "lau": 8361,
      "ameri": 8362,
      "logy": 8363,
      "்ச்சை": 8364,
      "##vid": 8365,
      "ext": 8366,
      "ொரோ": 8367,
      "##uru": 8368,
      "big": 8369,
      "have": 8370,
      "soci": 8371,
      "cau": 8372,
      "train": 8373,
      "upda": 8374,
      "ture": 8375,
      "pers": 8376,
      "seri": 8377,
      "voi": 8378,
      "rict": 8379,
      "ிகமாக": 8380,
      "##now": 8381,
      "ாய்ச்": 8382,
      "்கலாம": 8383,
      "2k": 8384,
      "3d": 8385,
      "6ல்": 8386,
      "aji": 8387,
      "cro": 8388,
      "cle": 8389,
      "clu": 8390,
      "cia": 8391,
      "dan": 8392,
      "dhi": 8393,
      "eb": 8394,
      "far": 8395,
      "fic": 8396,
      "fast": 8397,
      "kill": 8398,
      "know": 8399,
      "lay": 8400,
      "land": 8401,
      "ob": 8402,
      "ott": 8403,
      "pr": 8404,
      "pass": 8405,
      "pati": 8406,
      "rh": 8407,
      "sr": 8408,
      "sar": 8409,
      "tm": 8410,
      "tar": 8411,
      "ue": 8412,
      "ud": 8413,
      "ஆமா": 8414,
      "இச": 8415,
      "ஏர": 8416,
      "சனா": 8417,
      "சர்ச": 8418,
      "டத": 8419,
      "டட": 8420,
      "னஹ": 8421,
      "பவா": 8422,
      "யுவ": 8423,
      "யரா": 8424,
      "ரென": 8425,
      "றின": 8426,
      "ளள": 8427,
      "ிமன": 8428,
      "்னை": 8429,
      "##lt": 8430,
      "##rs": 8431,
      "##cs": 8432,
      "##sg": 8433,
      "துப": 8434,
      "முன்ப": 8435,
      "டுக்": 8436,
      "காந": 8437,
      "யாகவ": 8438,
      "பலே": 8439,
      "யாற": 8440,
      "ாலக": 8441,
      "ளிர்": 8442,
      "படும்": 8443,
      "பதிக": 8444,
      "சட்டப": 8445,
      "லைப": 8446,
      "கைக்க": 8447,
      "ன்னர்": 8448,
      "பொதுச": 8449,
      "ப்புத": 8450,
      "நேச": 8451,
      "ியாற": 8452,
      "பணத்": 8453,
      "ரணத்": 8454,
      "கிறேன": 8455,
      "தாரம்": 8456,
      "205": 8457,
      "207": 8458,
      "154": 8459,
      "inc": 8460,
      "inde": 8461,
      "ுன்னி": 8462,
      "147": 8463,
      "149": 8464,
      "256": 8465,
      "136": 8466,
      "178": 8467,
      "thu": 8468,
      "##ams": 8469,
      "221": 8470,
      "nes": 8471,
      "ness": 8472,
      "ேட்பா": 8473,
      "டாவத": 8474,
      "மிரட்": 8475,
      "rail": 8476,
      "rahu": 8477,
      "shar": 8478,
      "mah": 8479,
      "madu": 8480,
      "dep": 8481,
      "sel": 8482,
      "sup": 8483,
      "lady": 8484,
      "்வரா": 8485,
      "forma": 8486,
      "whe": 8487,
      "340": 8488,
      "love": 8489,
      "நகரி": 8490,
      "850": 8491,
      "miss": 8492,
      "ics": 8493,
      "admk": 8494,
      "sco": 8495,
      "bigg": 8496,
      "wwe": 8497,
      "capt": 8498,
      "yout": 8499,
      "tical": 8500,
      "inte": 8501,
      "priva": 8502,
      "ask": 8503,
      "univ": 8504,
      "join": 8505,
      "பளு": 8506,
      "assi": 8507,
      "tvs": 8508,
      "edap": 8509,
      "group": 8510,
      "film": 8511,
      "party": 8512,
      "husb": 8513,
      "4ல்": 8514,
      "8ல்": 8515,
      "ay": 8516,
      "ast": 8517,
      "bn": 8518,
      "cer": 8519,
      "cra": 8520,
      "care": 8521,
      "dc": 8522,
      "ess": 8523,
      "fam": 8524,
      "gl": 8525,
      "gam": 8526,
      "gle": 8527,
      "gand": 8528,
      "har": 8529,
      "hand": 8530,
      "ies": 8531,
      "jay": 8532,
      "ky": 8533,
      "kal": 8534,
      "kart": 8535,
      "king": 8536,
      "kash": 8537,
      "kera": 8538,
      "nh": 8539,
      "nou": 8540,
      "obc": 8541,
      "pat": 8542,
      "psc": 8543,
      "pdf": 8544,
      "rss": 8545,
      "sent": 8546,
      "ups": 8547,
      "val": 8548,
      "zon": 8549,
      "zed": 8550,
      "ஆம": 8551,
      "ஆஹா": 8552,
      "ஊரு": 8553,
      "சதா": 8554,
      "தப": 8555,
      "பல்வ": 8556,
      "ரஊ": 8557,
      "ஹரே": 8558,
      "ீசா": 8559,
      "ூச்": 8560,
      "ொகை": 8561,
      "்ளிய": 8562,
      "##av": 8563,
      "##ol": 8564,
      "##ion": 8565,
      "##po": 8566,
      "##pi": 8567,
      "##dd": 8568,
      "##za": 8569,
      "ியைய": 8570,
      "ிரம்": 8571,
      "கினா": 8572,
      "மீதா": 8573,
      "வைப": 8574,
      "ுகத்": 8575,
      "அதோ": 8576,
      "ச்சத்": 8577,
      "ேரடி": 8578,
      "ளிகள்": 8579,
      "்தை": 8580,
      "காரி": 8581,
      "கார்க": 8582,
      "இருக்": 8583,
      "ுடிக": 8584,
      "திகள்": 8585,
      "்புள": 8586,
      "ுந்தத": 8587,
      "தையு": 8588,
      "தியம": 8589,
      "திலே": 8590,
      "கையின": 8591,
      "சியம": 8592,
      "ீர்த": 8593,
      "187": 8594,
      "186": 8595,
      "132": 8596,
      "139": 8597,
      "ன்னுட": 8598,
      "176": 8599,
      "179": 8600,
      "்லப": 8601,
      "stro": 8602,
      "ert": 8603,
      "213": 8604,
      "rela": 8605,
      "resi": 8606,
      "192": 8607,
      "199": 8608,
      "226": 8609,
      "nel": 8610,
      "neet": 8611,
      "ுசெ": 8612,
      "##ile": 8613,
      "##ild": 8614,
      "covid": 8615,
      "##asu": 8616,
      "ளுக்க": 8617,
      "top": 8618,
      "ிரைப்": 8619,
      "end": 8620,
      "she": 8621,
      "312": 8622,
      "294": 8623,
      "del": 8624,
      "dow": 8625,
      "does": 8626,
      "nth": 8627,
      "dip": 8628,
      "320": 8629,
      "gold": 8630,
      "set": 8631,
      "##chi": 8632,
      "்செல": 8633,
      "media": 8634,
      "orga": 8635,
      "movi": 8636,
      "sau": 8637,
      "ருந்": 8638,
      "confe": 8639,
      "ack": 8640,
      "govt": 8641,
      "itu": 8642,
      "ries": 8643,
      "right": 8644,
      "ஏகே": 8645,
      "##lue": 8646,
      "solar": 8647,
      "ipc": 8648,
      "http": 8649,
      "ncy": 8650,
      "twi": 8651,
      "asso": 8652,
      "happy": 8653,
      "grow": 8654,
      "யாமல்": 8655,
      "seni": 8656,
      "house": 8657,
      "cred": 8658,
      "otp": 8659,
      "glob": 8660,
      "south": 8661,
      "fund": 8662,
      "stice": 8663,
      "rahul": 8664,
      "தபோத": 8665,
      "bm": 8666,
      "cli": 8667,
      "ds": 8668,
      "dal": 8669,
      "ei": 8670,
      "ee": 8671,
      "ff": 8672,
      "fer": 8673,
      "fre": 8674,
      "fly": 8675,
      "ger": 8676,
      "hil": 8677,
      "io": 8678,
      "lit": 8679,
      "mq": 8680,
      "men": 8681,
      "mast": 8682,
      "np": 8683,
      "ny": 8684,
      "ner": 8685,
      "nde": 8686,
      "ou": 8687,
      "oc": 8688,
      "pse": 8689,
      "pti": 8690,
      "rou": 8691,
      "s1": 8692,
      "ube": 8693,
      "vf": 8694,
      "wer": 8695,
      "yar": 8696,
      "அன்": 8697,
      "ஓலை": 8698,
      "சியு": 8699,
      "டச்": 8700,
      "டதா": 8701,
      "ணப": 8702,
      "ண்கா": 8703,
      "மத்தி": 8704,
      "றள": 8705,
      "றச்": 8706,
      "லந": 8707,
      "ளியா": 8708,
      "ழில்": 8709,
      "ஷஸ": 8710,
      "ஹூ": 8711,
      "ொதுக": 8712,
      "்ளை": 8713,
      "##um": 8714,
      "##lc": 8715,
      "##fp": 8716,
      "##ew": 8717,
      "##dc": 8718,
      "##my": 8719,
      "##vo": 8720,
      "##vt": 8721,
      "ப்பாள": 8722,
      "துக": 8723,
      "துச்": 8724,
      "களா": 8725,
      "ந்தெ": 8726,
      "க்குப": 8727,
      "ிர்கா": 8728,
      "்கவி": 8729,
      "்காம": 8730,
      "ெயற்": 8731,
      "ாதைய": 8732,
      "ாலைய": 8733,
      "ால்தா": 8734,
      "றுக்": 8735,
      "த்துட": 8736,
      "ணைக": 8737,
      "்தில": 8738,
      "்தார்": 8739,
      "காரர்": 8740,
      "ுத்தத": 8741,
      "ண்டுப": 8742,
      "ொடக்க": 8743,
      "யாரி": 8744,
      "கவல்": 8745,
      "ாளரு": 8746,
      "கரக": 8747,
      "ிருஷ": 8748,
      "பாலிய": 8749,
      "சோள": 8750,
      "ன்படி": 8751,
      "தியு": 8752,
      "206": 8753,
      "203": 8754,
      "்குப": 8755,
      "ுதிப": 8756,
      "159": 8757,
      "124": 8758,
      "302": 8759,
      "னநாய": 8760,
      "ஏராள": 8761,
      "வதே": 8762,
      "ரசர": 8763,
      "146": 8764,
      "148": 8765,
      "தலீ": 8766,
      "தலில்": 8767,
      "சேர்க": 8768,
      "167": 8769,
      "169": 8770,
      "172": 8771,
      "thro": 8772,
      "ாரித": 8773,
      "tiva": 8774,
      "சார்ந": 8775,
      "stan": 8776,
      "star": 8777,
      "start": 8778,
      "read": 8779,
      "reme": 8780,
      "##ink": 8781,
      "196": 8782,
      "228": 8783,
      "235": 8784,
      "vish": 8785,
      "ஜனக": 8786,
      "270": 8787,
      "275": 8788,
      "char": 8789,
      "299": 8790,
      "dec": 8791,
      "சயன": 8792,
      "489": 8793,
      "lea": 8794,
      "leo": 8795,
      "sub": 8796,
      "376": 8797,
      "றையி": 8798,
      "றையாக": 8799,
      "force": 8800,
      "்விக்": 8801,
      "420": 8802,
      "sion": 8803,
      "siva": 8804,
      "spee": 8805,
      "acc": 8806,
      "und": 8807,
      "ell": 8808,
      "elv": 8809,
      "bia": 8810,
      "soft": 8811,
      "கொரோன": 8812,
      "web": 8813,
      "week": 8814,
      "ியுற": 8815,
      "##jab": 8816,
      "link": 8817,
      "orts": 8818,
      "cup": 8819,
      "ltd": 8820,
      "raji": 8821,
      "asse": 8822,
      "##qui": 8823,
      "coro": 8824,
      "mba": 8825,
      "afg": 8826,
      "chief": 8827,
      "great": 8828,
      "hyd": 8829,
      "slams": 8830,
      "open": 8831,
      "talk": 8832,
      "shah": 8833,
      "veri": 8834,
      "gett": 8835,
      "wood": 8836,
      "euro": 8837,
      "olymp": 8838,
      "ரஊப": 8839,
      "\"\"": 8840,
      "2கே": 8841,
      "4ஜி": 8842,
      "bc": 8843,
      "cast": 8844,
      "dut": 8845,
      "fran": 8846,
      "ips": 8847,
      "iga": 8848,
      "ji": 8849,
      "lal": 8850,
      "lsg": 8851,
      "mn": 8852,
      "mou": 8853,
      "mass": 8854,
      "nit": 8855,
      "ola": 8856,
      "opp": 8857,
      "pb": 8858,
      "pmk": 8859,
      "pfi": 8860,
      "tr": 8861,
      "ts": 8862,
      "tre": 8863,
      "ual": 8864,
      "के": 8865,
      "அற": 8866,
      "ஆணி": 8867,
      "ஆளை": 8868,
      "இழை": 8869,
      "ஊறு": 8870,
      "எவை": 8871,
      "ஓசி": 8872,
      "கறை": 8873,
      "கயா": 8874,
      "ணமா": 8875,
      "நத": 8876,
      "நமத": 8877,
      "னன": 8878,
      "பறை": 8879,
      "யஹ": 8880,
      "லத்தி": 8881,
      "ளமா": 8882,
      "வண்": 8883,
      "வதில்": 8884,
      "ிரும்": 8885,
      "##ul": 8886,
      "##gn": 8887,
      "##go": 8888,
      "##rc": 8889,
      "##rf": 8890,
      "##cl": 8891,
      "##zi": 8892,
      "ருமா": 8893,
      "ியமி": 8894,
      "பாண்": 8895,
      "போட்": 8896,
      "்பங்க": 8897,
      "்படு": 8898,
      "்கிட": 8899,
      "ன்றா": 8900,
      "சுகள": 8901,
      "்தவ": 8902,
      "திரன": 8903,
      "பயி": 8904,
      "னைவ": 8905,
      "வெளிப": 8906,
      "ழித்": 8907,
      "றைக்": 8908,
      "்யப": 8909,
      "ிகளா": 8910,
      "ிஸ்தா": 8911,
      "சதய": 8912,
      "ுவிக": 8913,
      "தன்னு": 8914,
      "201": 8915,
      "ூடும்": 8916,
      "506": 8917,
      "ins": 8918,
      "டோம": 8919,
      "ுகைப்": 8920,
      "143": 8921,
      "251": 8922,
      "245": 8923,
      "243": 8924,
      "think": 8925,
      "tin": 8926,
      "214": 8927,
      "212": 8928,
      "##amp": 8929,
      "ren": 8930,
      "rew": 8931,
      "reas": 8932,
      "197": 8933,
      "ிடிக்": 8934,
      "238": 8935,
      "view": 8936,
      "விழுந": 8937,
      "தண்டன": 8938,
      "ஆணவ": 8939,
      "287": 8940,
      "288": 8941,
      "alt": 8942,
      "child": 8943,
      "nad": 8944,
      "ேகமா": 8945,
      "rad": 8946,
      "eng": 8947,
      "shou": 8948,
      "mak": 8949,
      "mai": 8950,
      "maj": 8951,
      "defe": 8952,
      "dio": 8953,
      "tore": 8954,
      "##our": 8955,
      "lain": 8956,
      "pol": 8957,
      "amb": 8958,
      "board": 8959,
      "மந்": 8960,
      "exit": 8961,
      "exper": 8962,
      "sai": 8963,
      "const": 8964,
      "sport": 8965,
      "ணமாக": 8966,
      "tai": 8967,
      "720": 8968,
      "geo": 8969,
      "ges": 8970,
      "best": 8971,
      "emera": 8972,
      "scam": 8973,
      "ிவிக": 8974,
      "heart": 8975,
      "park": 8976,
      "fact": 8977,
      "யஷஸ": 8978,
      "ttee": 8979,
      "##lly": 8980,
      "russ": 8981,
      "ipo": 8982,
      "nci": 8983,
      "price": 8984,
      "call": 8985,
      "apple": 8986,
      "ிர்வா": 8987,
      "kol": 8988,
      "dhan": 8989,
      "crime": 8990,
      "grand": 8991,
      "auc": 8992,
      "karu": 8993,
      "eye": 8994,
      "micro": 8995,
      "hours": 8996,
      "uae": 8997,
      "uapa": 8998,
      "wife": 8999,
      "surve": 9000,
      "model": 9001,
      "kkr": 9002,
      "slim": 9003,
      "black": 9004,
      "upsc": 9005,
      "',": 9006,
      "3டி": 9007,
      "ax": 9008,
      "ash": 9009,
      "aft": 9010,
      "bor": 9011,
      "bur": 9012,
      "dg": 9013,
      "dri": 9014,
      "fri": 9015,
      "fit": 9016,
      "fss": 9017,
      "guru": 9018,
      "hd": 9019,
      "ice": 9020,
      "iit": 9021,
      "ime": 9022,
      "mc": 9023,
      "mer": 9024,
      "mir": 9025,
      "mun": 9026,
      "mill": 9027,
      "nz": 9028,
      "nar": 9029,
      "nara": 9030,
      "od": 9031,
      "ome": 9032,
      "osi": 9033,
      "pla": 9034,
      "sor": 9035,
      "ton": 9036,
      "tch": 9037,
      "tur": 9038,
      "tus": 9039,
      "use": 9040,
      "uru": 9041,
      "ugc": 9042,
      "var": 9043,
      "vet": 9044,
      "win": 9045,
      "ward": 9046,
      "ware": 9047,
      "ym": 9048,
      "yam": 9049,
      "zero": 9050,
      "இஷா": 9051,
      "ஈவி": 9052,
      "உறை": 9053,
      "எச": 9054,
      "ஏது": 9055,
      "ஏடு": 9056,
      "ஓத": 9057,
      "ஓடை": 9058,
      "ஜத": 9059,
      "ஜங்": 9060,
      "டள": 9061,
      "டவடி": 9062,
      "ணவி": 9063,
      "தட்": 9064,
      "தல்வ": 9065,
      "நன்": 9066,
      "னேற": 9067,
      "பப": 9068,
      "பலா": 9069,
      "மடு": 9070,
      "யஷ்": 9071,
      "றத்தி": 9072,
      "லஜ": 9073,
      "ஹஜ": 9074,
      "ஹஸ": 9075,
      "ாறி": 9076,
      "ிழு": 9077,
      "ிபா": 9078,
      "ூனி": 9079,
      "ொத": 9080,
      "ொண": 9081,
      "ொடு": 9082,
      "ோவி": 9083,
      "##pm": 9084,
      "##sm": 9085,
      "##tu": 9086,
      "##ho": 9087,
      "##har": 9088,
      "##ham": 9089,
      "க்கமா": 9090,
      "விக்க": 9091,
      "களவ": 9092,
      "வெள": 9093,
      "ிரப்": 9094,
      "்கலை": 9095,
      "வழக": 9096,
      "ங்குவ": 9097,
      "அதா": 9098,
      "ையி": 9099,
      "சமூ": 9100,
      "ளிவ": 9101,
      "த்துற": 9102,
      "வுண": 9103,
      "்நி": 9104,
      "்நில": 9105,
      "்றோர": 9106,
      "்க்கட": 9107,
      "னுப": 9108,
      "ுறப்": 9109,
      "ஆளா": 9110,
      "தேசத": 9111,
      "ுபடு": 9112,
      "ொண்டி": 9113,
      "அலற": 9114,
      "மலர": 9115,
      "ுதிக்": 9116,
      "158": 9117,
      "123": 9118,
      "நவ்": 9119,
      "டல்கள": 9120,
      "ஓயா": 9121,
      "ுந்": 9122,
      "ெலவ": 9123,
      "189": 9124,
      "255": 9125,
      "ஆபத்": 9126,
      "தவிகள": 9127,
      "ste": 9128,
      "ery": 9129,
      "219": 9130,
      "refu": 9131,
      "227": 9132,
      "229": 9133,
      "near": 9134,
      "vik": 9135,
      "vio": 9136,
      "vis": 9137,
      "colo": 9138,
      "##ask": 9139,
      "tom": 9140,
      "##rai": 9141,
      "alert": 9142,
      "chand": 9143,
      "china": 9144,
      "அபய": 9145,
      "ens": 9146,
      "ende": 9147,
      "பவள": 9148,
      "ிளைவ": 9149,
      "ிகாரி": 9150,
      "னிடம": 9151,
      "310": 9152,
      "318": 9153,
      "்துடன": 9154,
      "ாரணம": 9155,
      "deg": 9156,
      "def": 9157,
      "dem": 9158,
      "desi": 9159,
      "death": 9160,
      "demo": 9161,
      "dou": 9162,
      "322": 9163,
      "seem": 9164,
      "480": 9165,
      "like": 9166,
      "limi": 9167,
      "led": 9168,
      "அகல": 9169,
      "med": 9170,
      "mega": 9171,
      "ise": 9172,
      "isra": 9173,
      "when": 9174,
      "படுவ": 9175,
      "cem": 9176,
      "380": 9177,
      "ame": 9178,
      "amit": 9179,
      "்சாட்": 9180,
      "loy": 9181,
      "bot": 9182,
      "exam": 9183,
      "exec": 9184,
      "said": 9185,
      "plus": 9186,
      "rob": 9187,
      "rov": 9188,
      "rome": 9189,
      "tab": 9190,
      "tax": 9191,
      "543": 9192,
      "ctor": 9193,
      "575": 9194,
      "ியிலி": 9195,
      "emi": 9196,
      "icc": 9197,
      "mark": 9198,
      "hel": 9199,
      "662": 9200,
      "para": 9201,
      "parli": 9202,
      "fake": 9203,
      "கக்கூ": 9204,
      "soon": 9205,
      "டாலி": 9206,
      "840": 9207,
      "ncert": 9208,
      "vai": 9209,
      "qua": 9210,
      "ாகுல்": 9211,
      "idf": 9212,
      "dho": 9213,
      "chess": 9214,
      "swami": 9215,
      "shock": 9216,
      "afp": 9217,
      "ews": 9218,
      "fuel": 9219,
      "file": 9220,
      "nama": 9221,
      "ulti": 9222,
      "gang": 9223,
      "insti": 9224,
      "madra": 9225,
      "auth": 9226,
      "break": 9227,
      "aadha": 9228,
      "singh": 9229,
      "reau": 9230,
      "aval": 9231,
      "jaya": 9232,
      "delhi": 9233,
      "movie": 9234,
      "clima": 9235,
      "vfx": 9236,
      "pbks": 9237,
      "எசல": 9238,
      "2ஜி": 9239,
      "5g": 9240,
      "ae": 9241,
      "blue": 9242,
      "cc": 9243,
      "cv": 9244,
      "cla": 9245,
      "cir": 9246,
      "cry": 9247,
      "cert": 9248,
      "dro": 9249,
      "dark": 9250,
      "data": 9251,
      "eo": 9252,
      "east": 9253,
      "fy": 9254,
      "fra": 9255,
      "fla": 9256,
      "gun": 9257,
      "hb": 9258,
      "had": 9259,
      "ima": 9260,
      "jour": 9261,
      "km": 9262,
      "kala": 9263,
      "lam": 9264,
      "las": 9265,
      "llo": 9266,
      "last": 9267,
      "lica": 9268,
      "mor": 9269,
      "mat": 9270,
      "mur": 9271,
      "mala": 9272,
      "more": 9273,
      "nv": 9274,
      "nse": 9275,
      "ov": 9276,
      "odi": 9277,
      "oth": 9278,
      "py": 9279,
      "pand": 9280,
      "rce": 9281,
      "rge": 9282,
      "ui": 9283,
      "ula": 9284,
      "vu": 9285,
      "vck": 9286,
      "vari": 9287,
      "wal": 9288,
      "wash": 9289,
      "wind": 9290,
      "yi": 9291,
      "मे": 9292,
      "இஇ": 9293,
      "இஅ": 9294,
      "இட்": 9295,
      "ஈகை": 9296,
      "ஊற": 9297,
      "ஊமை": 9298,
      "ஏபி": 9299,
      "ஓரே": 9300,
      "டாட": 9301,
      "ணக": 9302,
      "தத": 9303,
      "தஷ": 9304,
      "தகர": 9305,
      "ததை": 9306,
      "பஜ": 9307,
      "மடி": 9308,
      "றேன": 9309,
      "ளூர்": 9310,
      "ஸு": 9311,
      "ஸட": 9312,
      "##lla": 9313,
      "##fh": 9314,
      "##ber": 9315,
      "##mu": 9316,
      "##vin": 9317,
      "##han": 9318,
      "##ஆக": 9319,
      "ப்பற": 9320,
      "க்கழ": 9321,
      "திகர": 9322,
      "குச்": 9323,
      "ியவ": 9324,
      "ியலி": 9325,
      "ந்தபோ": 9326,
      "வேற்": 9327,
      "தொண": 9328,
      "்பிட": 9329,
      "வெற்ற": 9330,
      "மற்று": 9331,
      "ாரங்": 9332,
      "ுவக": 9333,
      "்கக": 9334,
      "்காக": 9335,
      "ரிக": 9336,
      "ிடும": 9337,
      "ுட்கள": 9338,
      "ுகே": 9339,
      "ுகில": 9340,
      "மிழி": 9341,
      "சாண": 9342,
      "யாட்ட": 9343,
      "ாடுக": 9344,
      "மேலு": 9345,
      "்தக": 9346,
      "னிஸ": 9347,
      "னைவு": 9348,
      "பரத": 9349,
      "காலத்": 9350,
      "கைல": 9351,
      "றிவிட": 9352,
      "ஆளே": 9353,
      "தூப": 9354,
      "கியது": 9355,
      "ாணு": 9356,
      "நடிக": 9357,
      "சோம": 9358,
      "ிகழ்ச": 9359,
      "202": 9360,
      "208": 9361,
      "்குச": 9362,
      "்குறி": 9363,
      "விநாய": 9364,
      "inf": 9365,
      "inve": 9366,
      "ிதமா": 9367,
      "ரகன": 9368,
      "சியில": 9369,
      "சலே": 9370,
      "ரசன": 9371,
      "லலித": 9372,
      "254": 9373,
      "##ary": 9374,
      "166": 9375,
      "242": 9376,
      "249": 9377,
      "தடய": 9378,
      "ரதம": 9379,
      "tis": 9380,
      "tit": 9381,
      "சரத": 9382,
      "ano": 9383,
      "ans": 9384,
      "any": 9385,
      "era": 9386,
      "ree": 9387,
      "neers": 9388,
      "vice": 9389,
      "vija": 9390,
      "tou": 9391,
      "273": 9392,
      "alo": 9393,
      "263": 9394,
      "261": 9395,
      "262": 9396,
      "கதற": 9397,
      "rape": 9398,
      "temp": 9399,
      "enc": 9400,
      "##lea": 9401,
      "295": 9402,
      "296": 9403,
      "292": 9404,
      "make": 9405,
      "det": 9406,
      "dom": 9407,
      "nte": 9408,
      "dies": 9409,
      "மமக": 9410,
      "326": 9411,
      "goi": 9412,
      "good": 9413,
      "ses": 9414,
      "light": 9415,
      "laint": 9416,
      "posi": 9417,
      "றையும": 9418,
      "..?": 9419,
      "படுவத": 9420,
      "cell": 9421,
      "bai": 9422,
      "bad": 9423,
      "ami": 9424,
      "load": 9425,
      "come": 9426,
      "savi": 9427,
      "##hai": 9428,
      "conv": 9429,
      "hijab": 9430,
      "tag": 9431,
      "ital": 9432,
      "hole": 9433,
      "hosp": 9434,
      "950": 9435,
      "eld": 9436,
      "icta": 9437,
      "march": 9438,
      "ிரபல": 9439,
      "bihar": 9440,
      "head": 9441,
      "word": 9442,
      "trail": 9443,
      "tradi": 9444,
      "west": 9445,
      "fire": 9446,
      "fice": 9447,
      "upi": 9448,
      "ncil": 9449,
      "tube": 9450,
      "qui": 9451,
      "sams": 9452,
      "்படா": 9453,
      "synd": 9454,
      "iii": 9455,
      "vest": 9456,
      "job": 9457,
      "ever": 9458,
      "raje": 9459,
      "corp": 9460,
      "tvk": 9461,
      "repu": 9462,
      "ific": 9463,
      "mbbs": 9464,
      "hero": 9465,
      "drdo": 9466,
      "raise": 9467,
      "richi": 9468,
      "waya": 9469,
      "agri": 9470,
      "agni": 9471,
      "eyes": 9472,
      "grap": 9473,
      "crore": 9474,
      "give": 9475,
      "aavin": 9476,
      "mrna": 9477,
      "moni": 9478,
      "virat": 9479,
      "commu": 9480,
      "city": 9481,
      "ம்தான": 9482,
      "cng": 9483,
      "mgr": 9484,
      "srh": 9485,
      "indep": 9486,
      "famil": 9487,
      "kalla": 9488,
      "freed": 9489,
      "major": 9490,
      "axis": 9491,
      "में": 9492,
      "++": 9493,
      "2ல்": 9494,
      "az": 9495,
      "ail": 9496,
      "ade": 9497,
      "ase": 9498,
      "bg": 9499,
      "bs": 9500,
      "bd": 9501,
      "bt": 9502,
      "bon": 9503,
      "but": 9504,
      "ball": 9505,
      "clo": 9506,
      "cine": 9507,
      "cdc": 9508,
      "din": 9509,
      "dre": 9510,
      "dha": 9511,
      "ear": 9512,
      "ees": 9513,
      "ease": 9514,
      "fr": 9515,
      "fan": 9516,
      "fat": 9517,
      "flo": 9518,
      "fbi": 9519,
      "gb": 9520,
      "gs": 9521,
      "gon": 9522,
      "gas": 9523,
      "gran": 9524,
      "hra": 9525,
      "ih": 9526,
      "ira": 9527,
      "iri": 9528,
      "ivi": 9529,
      "jee": 9530,
      "kv": 9531,
      "kon": 9532,
      "kid": 9533,
      "lp": 9534,
      "lti": 9535,
      "mm": 9536,
      "ndi": 9537,
      "nfh": 9538,
      "nhai": 9539,
      "ore": 9540,
      "oce": 9541,
      "pn": 9542,
      "pad": 9543,
      "path": 9544,
      "pvt": 9545,
      "rma": 9546,
      "rya": 9547,
      "rasu": 9548,
      "sd": 9549,
      "sat": 9550,
      "sle": 9551,
      "sic": 9552,
      "ssc": 9553,
      "sara": 9554,
      "tun": 9555,
      "utt": 9556,
      "ugh": 9557,
      "की": 9558,
      "அஹ": 9559,
      "ஆஷ": 9560,
      "இம": 9561,
      "உஸ்": 9562,
      "ஏஜ": 9563,
      "ஏறு": 9564,
      "ஐபி": 9565,
      "ஓதி": 9566,
      "ஞர்கள": 9567,
      "நள": 9568,
      "பசை": 9569,
      "மஜ": 9570,
      "ரமு": 9571,
      "றச்ச": 9572,
      "லவு": 9573,
      "ளக்கு": 9574,
      "ழியா": 9575,
      "வளவ": 9576,
      "##ak": 9577,
      "##ko": 9578,
      "##lf": 9579,
      "##lm": 9580,
      "##cy": 9581,
      "##bha": 9582,
      "##eet": 9583,
      "##mr": 9584,
      "##mar": 9585,
      "##tc": 9586,
      "##hli": 9587,
      "##95": 9588,
      "ப்பற்": 9589,
      "திகளை": 9590,
      "போரா": 9591,
      "பெறு": 9592,
      "ில்க": 9593,
      "ுவில": 9594,
      "்கல": 9595,
      "ற்றொ": 9596,
      "வைத": 9597,
      "அதல": 9598,
      "அதள": 9599,
      "அதாவ": 9600,
      "்சும": 9601,
      "்சில்": 9602,
      "ையம்": 9603,
      "யாது": 9604,
      "ளிப்": 9605,
      "ளிநா": 9606,
      "திர்க": 9607,
      "மருந": 9608,
      "தர்க": 9609,
      "்ந்": 9610,
      "குறைக": 9611,
      "படிப்": 9612,
      "ுதலில": 9613,
      "ாள்க": 9614,
      "நேய": 9615,
      "பணய": 9616,
      "டுவது": 9617,
      "ுற்றவ": 9618,
      "ிஷய": 9619,
      "504": 9620,
      "inno": 9621,
      "303": 9622,
      "ஆவன": 9623,
      "ரகல": 9624,
      "ரகட": 9625,
      "ர்செல": 9626,
      "்ளப்": 9627,
      "ீரெ": 9628,
      "188": 9629,
      "258": 9630,
      "##ora": 9631,
      "tia": 9632,
      "tick": 9633,
      "stm": 9634,
      "stic": 9635,
      "stru": 9636,
      "stand": 9637,
      "state": 9638,
      "eri": 9639,
      "erfe": 9640,
      "216": 9641,
      "218": 9642,
      "requ": 9643,
      "relea": 9644,
      "195": 9645,
      "191": 9646,
      "223": 9647,
      "222": 9648,
      "need": 9649,
      "ுஷ்ண": 9650,
      "236": 9651,
      "231": 9652,
      "viru": 9653,
      "ெய்தத": 9654,
      "cov": 9655,
      "coim": 9656,
      "too": 9657,
      "277": 9658,
      "285": 9659,
      "282": 9660,
      "268": 9661,
      "champ": 9662,
      "ஜீவ": 9663,
      "##dio": 9664,
      "354": 9665,
      "357": 9666,
      "rac": 9667,
      "tet": 9668,
      "envi": 9669,
      "்னிட்": 9670,
      "sham": 9671,
      "317": 9672,
      "311": 9673,
      "main": 9674,
      "ong": 9675,
      "once": 9676,
      "deli": 9677,
      "368": 9678,
      "died": 9679,
      "diary": 9680,
      "ளர்க": 9681,
      "sek": 9682,
      "see": 9683,
      "sell": 9684,
      "sept": 9685,
      "##lio": 9686,
      "edu": 9687,
      "niv": 9688,
      "lia": 9689,
      "list": 9690,
      "lem": 9691,
      "lear": 9692,
      "suic": 9693,
      "336": 9694,
      "lak": 9695,
      "laji": 9696,
      "mov": 9697,
      "410": 9698,
      "ced": 9699,
      "bab": 9700,
      "bail": 9701,
      "bach": 9702,
      "lok": 9703,
      "loma": 9704,
      "sia": 9705,
      "sir": 9706,
      "sip": 9707,
      "bomb": 9708,
      "ய்திய": 9709,
      "440": 9710,
      "safe": 9711,
      "sabha": 9712,
      "nced": 9713,
      "condu": 9714,
      "now": 9715,
      "spot": 9716,
      "460": 9717,
      "470": 9718,
      "510": 9719,
      "hike": 9720,
      "take": 9721,
      "its": 9722,
      "hold": 9723,
      "540": 9724,
      "mand": 9725,
      "els": 9726,
      "##ung": 9727,
      "530": 9728,
      "ems": 9729,
      "emer": 9730,
      "marri": 9731,
      "660": 9732,
      "hair": 9733,
      "pare": 9734,
      "fail": 9735,
      "fair": 9736,
      "ttd": 9737,
      "ttv": 9738,
      "phe": 9739,
      "phy": 9740,
      "terr": 9741,
      "term": 9742,
      "ியாமல": 9743,
      "ஹலோ": 9744,
      "pmla": 9745,
      "kumar": 9746,
      "tici": 9747,
      "duc": 9748,
      "usa": 9749,
      "days": 9750,
      "sms": 9751,
      "sami": 9752,
      "econ": 9753,
      "tweet": 9754,
      "790": 9755,
      "kohli": 9756,
      "jai": 9757,
      "resp": 9758,
      "dhu": 9759,
      "swa": 9760,
      "karna": 9761,
      "fest": 9762,
      "rich": 9763,
      "prade": 9764,
      "cyc": 9765,
      "name": 9766,
      "pib": 9767,
      "ols": 9768,
      "penn": 9769,
      "monk": 9770,
      "cide": 9771,
      "ult": 9772,
      "surge": 9773,
      "pto": 9774,
      "class": 9775,
      "mali": 9776,
      "male": 9777,
      "blood": 9778,
      "pcos": 9779,
      "choi": 9780,
      "paki": 9781,
      "flip": 9782,
      "watch": 9783,
      "beng": 9784,
      "ign": 9785,
      "years": 9786,
      "bhp": 9787,
      "krish": 9788,
      "half": 9789,
      "lord": 9790,
      "club": 9791,
      "farm": 9792,
      "mahra": 9793,
      "radha": 9794,
      "kolka": 9795,
      "dhanu": 9796,
      "place": 9797,
      "னுபவ": 9798,
      "viole": 9799,
      "help": 9800,
      "murd": 9801,
      "every": 9802,
      "grant": 9803,
      "nfhs": 9804,
      "பெறுக": 9805,
      "reque": 9806,
      "%,": 9807,
      "2ஏ": 9808,
      "a6": 9809,
      "aj": 9810,
      "aka": 9811,
      "ava": 9812,
      "bf": 9813,
      "bin": 9814,
      "bala": 9815,
      "cb": 9816,
      "cat": 9817,
      "cur": 9818,
      "cru": 9819,
      "dp": 9820,
      "don": 9821,
      "ea": 9822,
      "ek": 9823,
      "eli": 9824,
      "fin": 9825,
      "fee": 9826,
      "find": 9827,
      "gri": 9828,
      "gst": 9829,
      "gla": 9830,
      "gna": 9831,
      "gly": 9832,
      "ham": 9833,
      "hcl": 9834,
      "ire": 9835,
      "ila": 9836,
      "iad": 9837,
      "iva": 9838,
      "ill": 9839,
      "jh": 9840,
      "jam": 9841,
      "kn": 9842,
      "kg": 9843,
      "kp": 9844,
      "ks": 9845,
      "kat": 9846,
      "kama": 9847,
      "lb": 9848,
      "lic": 9849,
      "lse": 9850,
      "long": 9851,
      "md": 9852,
      "nat": 9853,
      "nft": 9854,
      "ning": 9855,
      "nasa": 9856,
      "n95": 9857,
      "oz": 9858,
      "oor": 9859,
      "oil": 9860,
      "ode": 9861,
      "ost": 9862,
      "olu": 9863,
      "osc": 9864,
      "oint": 9865,
      "pon": 9866,
      "pha": 9867,
      "pia": 9868,
      "rb": 9869,
      "rj": 9870,
      "run": 9871,
      "rus": 9872,
      "rva": 9873,
      "rbi": 9874,
      "rwa": 9875,
      "rchi": 9876,
      "sg": 9877,
      "sit": 9878,
      "sse": 9879,
      "tds": 9880,
      "task": 9881,
      "wall": 9882,
      "wfp": 9883,
      "xy": 9884,
      "xia": 9885,
      "yad": 9886,
      "zen": 9887,
      "zee": 9888,
      "ஆரி": 9889,
      "ஆவி": 9890,
      "ஆரே": 9891,
      "ஆந்": 9892,
      "உஷ": 9893,
      "ஏப": 9894,
      "ஒம்": 9895,
      "ககள": 9896,
      "கபட": 9897,
      "சதை": 9898,
      "சையில": 9899,
      "ஜவ": 9900,
      "ஜமா": 9901,
      "டண": 9902,
      "பஹ": 9903,
      "பப்பட": 9904,
      "மவ": 9905,
      "மெரி": 9906,
      "மற்": 9907,
      "யலி": 9908,
      "யவில்": 9909,
      "ரபர": 9910,
      "றத்தை": 9911,
      "ளஷ": 9912,
      "வடு": 9913,
      "வட்": 9914,
      "வளை": 9915,
      "ஸோ": 9916,
      "ஸன": 9917,
      "ஸார": 9918,
      "##ac": 9919,
      "##uc": 9920,
      "##gha": 9921,
      "##lam": 9922,
      "##rt": 9923,
      "##ril": 9924,
      "##fr": 9925,
      "##pu": 9926,
      "##pc": 9927,
      "##eo": 9928,
      "##ஸி": 9929,
      "##mc": 9930,
      "##to": 9931,
      "##hn": 9932,
      "##hy": 9933,
      "##had": 9934,
      "##jo": 9935,
      "ப்பைய": 9936,
      "க்கைய": 9937,
      "துத்": 9938,
      "துகா": 9939,
      "ருடன": 9940,
      "விர்": 9941,
      "விமர": 9942,
      "ுக்கீ": 9943,
      "திமு": 9944,
      "டுள": 9945,
      "எனி": 9946,
      "என‌": 9947,
      "்டரி": 9948,
      "்பார்": 9949,
      "ண்டிர": 9950,
      "மீட": 9951,
      "ற்றோ": 9952,
      "கோக": 9953,
      "ுகொ": 9954,
      "ச்சாட": 9955,
      "அரசின": 9956,
      "யாவை": 9957,
      "ழுவின": 9958,
      "ரூ5": 9959,
      "வுண்": 9960,
      "பிறப": 9961,
      "றிந": 9962,
      "்றவர்": 9963,
      "ழைக": 9964,
      "படிக்": 9965,
      "ஜெப": 9966,
      "கவான": 9967,
      "ரியில": 9968,
      "ாளம்": 9969,
      "கரஜ": 9970,
      "றைக": 9971,
      "வல்க": 9972,
      "்திவ": 9973,
      "விதமா": 9974,
      "ரைன": 9975,
      "ன்னிட": 9976,
      "204": 9977,
      "்குழ": 9978,
      "ஆசன": 9979,
      "505": 9980,
      "508": 9981,
      "ள்ளிக": 9982,
      "ink": 9983,
      "inse": 9984,
      "info": 9985,
      "308": 9986,
      "ெலவு": 9987,
      "ேலிய": 9988,
      "259": 9989,
      "ஆறே": 9990,
      "247": 9991,
      "246": 9992,
      "241": 9993,
      "tham": 9994,
      "ைப்பி": 9995,
      "அசர": 9996,
      "ties": 9997,
      "tita": 9998,
      "றுகை": 9999,
      "உபய": 10000,
      "sty": 10001,
      "ang": 10002,
      "ero": 10003,
      "erry": 10004,
      "##ali": 10005,
      "ன்கிற": 10006,
      "reu": 10007,
      "rem": 10008,
      "real": 10009,
      "rest": 10010,
      "rega": 10011,
      "194": 10012,
      "neu": 10013,
      "vidi": 10014,
      "visi": 10015,
      "visu": 10016,
      "villa": 10017,
      "ெடுப": 10018,
      "ெய்து": 10019,
      "##ili": 10020,
      "cow": 10021,
      "cott": 10022,
      "cook": 10023,
      "கமல": 10024,
      "ளுநர": 10025,
      "tour": 10026,
      "274": 10027,
      "271": 10028,
      "ஆணா": 10029,
      "286": 10030,
      "ale": 10031,
      "264": 10032,
      "chro": 10033,
      "னையும": 10034,
      "356": 10035,
      "359": 10036,
      "rap": 10037,
      "race": 10038,
      "radio": 10039,
      "ene": 10040,
      "shri": 10041,
      "காலமா": 10042,
      "314": 10043,
      "290": 10044,
      "293": 10045,
      "291": 10046,
      "maa": 10047,
      "made": 10048,
      "ond": 10049,
      "deal": 10050,
      "doe": 10051,
      "367": 10052,
      "366": 10053,
      "328": 10054,
      "got": 10055,
      "sea": 10056,
      "seci": 10057,
      "ரசுக்": 10058,
      "nik": 10059,
      "lee": 10060,
      "sum": 10061,
      "sudd": 10062,
      "arju": 10063,
      "army": 10064,
      "mess": 10065,
      "##oud": 10066,
      "375": 10067,
      "373": 10068,
      "330": 10069,
      "332": 10070,
      "338": 10071,
      "point": 10072,
      "move": 10073,
      "ism": 10074,
      "417": 10075,
      "fort": 10076,
      "whi": 10077,
      "ngo": 10078,
      "390": 10079,
      "395": 10080,
      "loss": 10081,
      "lock": 10082,
      "##ada": 10083,
      "444": 10084,
      "445": 10085,
      "cond": 10086,
      "conde": 10087,
      "496": 10088,
      "430": 10089,
      "435": 10090,
      "spo": 10091,
      "aca": 10092,
      "prof": 10093,
      "prop": 10094,
      "roy": 10095,
      "rot": 10096,
      "room": 10097,
      "him": 10098,
      "ung": 10099,
      "undp": 10100,
      "524": 10101,
      "525": 10102,
      "ris": 10103,
      "ribu": 10104,
      "paw": 10105,
      "570": 10106,
      "577": 10107,
      "mig": 10108,
      "mis": 10109,
      "type": 10110,
      "625": 10111,
      "627": 10112,
      "icmr": 10113,
      "ada": 10114,
      "ado": 10115,
      "advi": 10116,
      "admi": 10117,
      "esa": 10118,
      "bike": 10119,
      "fac": 10120,
      "737": 10121,
      "616": 10122,
      "capi": 10123,
      "trade": 10124,
      "welc": 10125,
      "fide": 10126,
      "fish": 10127,
      "your": 10128,
      "youth": 10129,
      "ணீர்": 10130,
      "pea": 10131,
      "due": 10132,
      "க்தர": 10133,
      "pulm": 10134,
      "ships": 10135,
      "elem": 10136,
      "bul": 10137,
      "buy": 10138,
      "tue": 10139,
      "small": 10140,
      "two": 10141,
      "orta": 10142,
      "cult": 10143,
      "syn": 10144,
      "ீபத்": 10145,
      "னுடைய": 10146,
      "event": 10147,
      "hub": 10148,
      "ranji": 10149,
      "resc": 10150,
      "corre": 10151,
      "chef": 10152,
      "shop": 10153,
      "expo": 10154,
      "api": 10155,
      "gue": 10156,
      "கூடுத": 10157,
      "num": 10158,
      "tric": 10159,
      "augu": 10160,
      "gai": 10161,
      "gave": 10162,
      "hyper": 10163,
      "cyber": 10164,
      "warn": 10165,
      "ொல்லி": 10166,
      "colla": 10167,
      "ivf": 10168,
      "ival": 10169,
      "bile": 10170,
      "brain": 10171,
      "four": 10172,
      "counc": 10173,
      "்கையை": 10174,
      "carb": 10175,
      "ppf": 10176,
      "psg": 10177,
      "psy": 10178,
[...]
