<unk>	0
<s>	0
</s>	0
▁த	-0
்க	-1
▁க	-2
்த	-3
▁ி	-4
▁ப	-5
▁்	-6
▁ு	-7
▁ம	-8
▁வ	-9
▁ா	-10
ன்	-11
▁.	-12
▁ச	-13
ல்	-14
▁ர	-15
்ப	-16
்ட	-17
▁அ	-18
▁ந	-19
▁இ	-20
▁ட	-21
க்க	-22
ம்	-23
▁ய	-24
ந்த	-25
▁,	-26
ர்	-27
▁எ	-28
்கள	-29
▁த்த	-30
த்த	-31
▁ை	-32
ள்	-33
து	-34
▁ப்ப	-35
ில	-36
ரு	-37
ட்ட	-38
ிய	-39
▁க்க	-40
▁து	-41
ன்ற	-42
▁ஆ	-43
▁உ	-44
▁ரு	-45
்ச	-46
▁ில்	-47
ப்ப	-48
தி	-49
ள்ள	-50
ண்ட	-51
▁ே	-52
▁ம்	-53
▁ும்	-54
ற்	-55
ங்க	-56
ற்ற	-57
▁வி	-58
▁ிற	-59
▁ன	-60
▁ல	-61
▁ட்ட	-62
▁ுக்க	-63
ாக	-64
▁மு	-65
▁செ	-66
▁தி	-67
டி	-68
▁ோ	-69
ங்கள	-70
ைய	-71
▁ுக்கு	-72
▁டு	-73
▁கு	-74
ார	-75
▁யி	-76
▁கள	-77
▁ிய	-78
▁ெ	-79
▁ாக	-80
ரி	-81
ல்ல	-82
▁ந்த	-83
ும	-84
▁ும	-85
▁பா	-86
▁ின்	-87
▁பி	-88
வர	-89
வி	-90
▁்கள	-91
▁ஒ	-92
ான	-93
ன்ன	-94
ும்	-95
▁கொ	-96
▁ுள்ள	-97
▁ார்	-98
லை	-99
▁போ	-100
▁என்ற	-101
▁ருந்த	-102
▁மா	-103
▁ங்கள	-104
று	-105
டு	-106
▁செய	-107
▁கா	-108
▁வே	-109
றி	-110
▁வர	-111
னா	-112
கள	-113
▁தா	-114
▁ண	-115
▁இந்த	-116
▁ருக்க	-117
▁2	-118
▁ர்	-119
றை	-120
▁ஸ	-121
▁ீ	-122
▁ொ	-123
▁ஏ	-124
▁0	-125
க்	-126
்சி	-127
▁ான	-128
▁ஜ	-129
▁கூ	-130
▁1	-131
▁ழ	-132
ற்க	-133
▁யில்	-134
▁நட	-135
▁"	-136
▁த்தில	-137
▁ள	-138
▁தொ	-139
▁பெ	-140
▁்ட	-141
▁கட	-142
▁்ப	-143
▁த்	-144
▁க்	-145
▁டுத்த	-146
▁ப்	-147
▁க்கு	-148
▁நா	-149
▁வா	-150
ப்	-151
▁என	-152
▁உள்ள	-153
வு	-154
▁யை	-155
ிர	-156
ற்ப	-157
▁ிறது	-158
▁தெ	-159
▁வரு	-160
▁ஒரு	-161
ன்ப	-162
னை	-163
▁ூ	-164
த்	-165
▁சி	-166
▁பே	-167
▁ரா	-168
▁ண்ட	-169
▁நி	-170
▁வெ	-171
ணி	-172
▁மே	-173
▁ிர	-174
▁என்று	-175
ஸ்	-176
ச்ச	-177
▁மற்ற	-178
ுவ	-179
▁ார	-180
▁பு	-181
மி	-182
▁நில	-183
▁ன்	-184
▁ில	-185
்ய	-186
▁்த	-187
▁னர்	-188
▁ுவ	-189
▁்க	-190
▁ின	-191
▁அதி	-192
▁-	-193
▁டி	-194
▁வேண்ட	-195
▁தே	-196
▁ரி	-197
ண்	-198
▁ிட	-199
▁கி	-200
்வ	-201
▁ுட	-202
மை	-203
ரச	-204
ார்	-205
▁மீ	-206
▁தொட	-207
ளர	-208
▁அவ	-209
ம்ப	-210
▁வழ	-211
▁ால்	-212
▁குறி	-213
னால்	-214
▁தான்	-215
கு	-216
▁தொடர	-217
▁வர்கள	-218
▁ற்ற	-219
▁வந்த	-220
▁முத	-221
ண்டு	-222
▁ின்ற	-223
▁வை	-224
▁பொ	-225
▁செய்ய	-226
▁செய்த	-227
ட்	-228
▁வீ	-229
▁யாக	-230
▁ித்த	-231
▁தாக	-232
▁கோ	-233
▁ுக	-234
▁தெரி	-235
▁அத	-236
▁தற்க	-237
▁பிர	-238
▁பல	-239
▁சே	-240
▁ச்ச	-241
▁:	-242
▁அம	-243
▁ேர	-244
▁மை	-245
டை	-246
▁ிற்க	-247
▁த்தை	-248
▁மி	-249
▁தலை	-250
▁யின்	-251
▁அரச	-252
▁களை	-253
▁சா	-254
▁ங்க	-255
▁ச்	-256
▁ற	-257
▁ல்ல	-258
▁ஹ	-259
சி	-260
▁3	-261
▁வருக	-262
▁ைய	-263
▁அவர்	-264
▁தெரிவ	-265
▁ின்றன	-266
▁ிறார்	-267
▁கள்	-268
▁ஏற்ப	-269
▁ஷ	-270
▁ிக்க	-271
ந்து	-272
▁கே	-273
▁ெய	-274
▁வெள	-275
▁இது	-276
▁யா	-277
▁என்ப	-278
▁தமி	-279
▁தமிழ	-280
▁ாவ	-281
லா	-282
▁இத	-283
ுக	-284
▁க்கை	-285
▁்ச	-286
▁ன்ற	-287
▁?	-288
▁யும்	-289
▁என்பத	-290
க்கு	-291
▁டை	-292
டிய	-293
▁ஓ	-294
ாம	-295
▁கூற	-296
▁5	-297
▁மூ	-298
▁அதிக	-299
னி	-300
▁ிற்கு	-301
ரிய	-302
▁நிலைய	-303
ில்	-304
▁முதல்	-305
▁'	-306
▁திரு	-307
▁கட்ட	-308
▁று	-309
▁ாத	-310
ச்	-311
▁கொண்ட	-312
விட	-313
▁4	-314
▁சம	-315
க்கள	-316
▁அந்த	-317
▁அவர	-318
▁ால	-319
ன்று	-320
▁ஞ	-321
▁தீ	-322
▁மக்கள	-323
ரா	-324
ண்ண	-325
▁ுத	-326
▁ிட்ட	-327
்தி	-328
ின	-329
▁ல்	-330
▁சொ	-331
▁தற்கு	-332
கவ	-333
▁ஆனால்	-334
▁ஸ்	-335
▁சில	-336
▁ருப்ப	-337
▁ளி	-338
சிய	-339
ய்	-340
▁ஆண்டு	-341
▁சு	-342
▁ந்திய	-343
ர்வ	-344
▁எதி	-345
▁யில	-346
▁ுடன்	-347
▁ினா	-348
▁9	-349
▁கட்சி	-350
ால	-351
▁பேச	-352
குதி	-353
▁அறி	-354
▁ாடு	-355
▁குழ	-356
▁மாக	-357
ன்னை	-358
▁ாம	-359
▁மாந	-360
கர	-361
ரை	-362
▁்ச்சி	-363
ிட	-364
▁த்து	-365
▁பட	-366
▁ணி	-367
▁ர்த	-368
▁ணை	-369
முக	-370
▁துறை	-371
கார	-372
▁ட்டு	-373
▁ம்ப	-374
ரும	-375
▁மேல	-376
▁வழங்க	-377
▁ாது	-378
ற்றி	-379
▁ன்ன	-380
▁ஊ	-381
வே	-382
▁ாட	-383
▁ர்த்த	-384
▁டும்	-385
▁கடந்த	-386
▁ைச்ச	-387
▁முன்ன	-388
▁(	-389
▁ைச்சர	-390
▁தை	-391
ட்டி	-392
்ப்ப	-393
▁திர	-394
▁நீ	-395
▁முடிய	-396
வை	-397
▁!	-398
▁ள்ள	-399
▁பத	-400
▁வில்ல	-401
▁ஸ்ட	-402
▁ஞ்ச	-403
▁நடத்த	-404
▁டுக்க	-405
▁ழு	-406
▁யான	-407
▁யு	-408
▁ினார்	-409
▁ேர்த	-410
▁தலைவர	-411
▁நடை	-412
▁ஆம்	-413
▁டுக	-414
ந்தி	-415
▁னி	-416
▁ேர்தல	-417
▁6	-418
▁ஆக	-419
▁`	-420
▁ுகள	-421
▁கார	-422
ப்பு	-423
▁வும்	-424
▁ாள	-425
▁முறை	-426
▁)	-427
▁லா	-428
▁அரசு	-429
▁போது	-430
▁சென்ற	-431
▁ஐ	-432
வா	-433
ங்கு	-434
▁7	-435
லம	-436
▁இட	-437
▁பய	-438
▁ர்ந்த	-439
▁இல்ல	-440
▁ேன்	-441
▁நடைப	-442
▁பகுதி	-443
▁த்தின	-444
▁ர்க	-445
கை	-446
ாவ	-447
▁ிரத	-448
▁பூ	-449
▁னை	-450
▁நடைபெ	-451
▁கூட்ட	-452
ப்போ	-453
▁வெளிய	-454
▁திட்ட	-455
▁மரு	-456
▁பதி	-457
▁பர	-458
▁மாநில	-459
▁கால	-460
▁உட	-461
தா	-462
▁என்ன	-463
▁திமுக	-464
▁ாவட்ட	-465
▁ொரு	-466
▁8	-467
▁போல	-468
▁ந்திர	-469
▁ோம்	-470
▁ப்படி	-471
▁ய்	-472
▁ினர	-473
▁மேலும	-474
▁பெற்ற	-475
▁ிடம	-476
▁ார்கள	-477
▁ென்னை	-478
▁ரூ	-479
▁ேற்ற	-480
வில	-481
▁வு	-482
ங்	-483
▁ாட்ட	-484
▁்த்த	-485
▁தன	-486
▁பாஜ	-487
▁சட்ட	-488
▁மாத	-489
ிற	-490
▁ர்க்க	-491
ழு	-492
▁மணி	-493
▁ங்களை	-494
▁வர்	-495
▁நடந்த	-496
▁லை	-497
▁உய	-498
▁விச	-499
▁வரும்	-500
▁ீதி	-501
▁விட	-502
▁சீ	-503
▁வைத்த	-504
▁ுத்த	-505
ாட	-506
▁பிற	-507
▁தர	-508
▁ண்டு	-509
▁்ந்த	-510
லக	-511
▁த்திய	-512
▁சூ	-513
▁ரோ	-514
▁்ந்து	-515
▁லங்க	-516
கழ	-517
▁கை	-518
▁ஈ	-519
▁முடி	-520
▁க்கள	-521
▁ாமல்	-522
▁்ந	-523
பி	-524
மான	-525
▁மக	-526
▁ப்பட	-527
▁ஃ	-528
▁பணி	-529
▁ட்டது	-530
ாள	-531
▁ேதி	-532
▁ட்டும	-533
ியா	-534
▁ராஜ	-535
▁வரை	-536
▁தற்ப	-537
▁ிலும்	-538
ரே	-539
▁ாளர	-540
▁ப்பிட	-541
▁றி	-542
▁ிறுவ	-543
▁ட்	-544
▁துவ	-545
மர	-546
▁ிவ	-547
▁எதிர	-548
▁ாய	-549
▁மாண	-550
▁கல	-551
▁ிறுவன	-552
▁்கள்	-553
▁ியி	-554
▁விசார	-555
லி	-556
▁தனால்	-557
▁தனது	-558
திய	-559
▁்ற	-560
ருக	-561
▁இல்லை	-562
▁ழை	-563
▁ுவிட	-564
▁வெளி	-565
ட்ச	-566
▁நான்	-567
▁முக்க	-568
▁ரசிய	-569
▁மீது	-570
▁தமிழக	-571
▁ெய்தி	-572
▁தற்போ	-573
▁ண்	-574
▁கிடை	-575
▁லி	-576
▁ரசியல	-577
▁மூலம	-578
▁ியது	-579
▁கண	-580
▁அணி	-581
▁ொட	-582
▁வாழ	-583
பா	-584
▁கிர	-585
▁ள்	-586
▁தால்	-587
▁குறை	-588
▁போன்ற	-589
▁ாடுகள	-590
▁மைப்ப	-591
▁ஆட	-592
▁அறிவி	-593
பர	-594
▁கண்ட	-595
▁படி	-596
▁ிறப்ப	-597
▁அது	-598
▁இரு	-599
விர	-600
▁எம்	-601
▁காங்க	-602
▁கூட	-603
▁ோய	-604
▁இன்று	-605
ோத	-606
ூர	-607
▁பக	-608
▁ுதல	-609
ல்வ	-610
▁்க்க	-611
▁தொழ	-612
▁வேலை	-613
வடி	-614
▁நடவடி	-615
மா	-616
ணம்	-617
▁ும்ப	-618
▁தாக்க	-619
▁ைப்	-620
▁பாஜக	-621
▁நாட்ட	-622
▁ஜெ	-623
▁பொது	-624
▁பிறகு	-625
▁றுப்ப	-626
▁ாகி	-627
▁டெ	-628
▁ாலும்	-629
பட	-630
ற்ச	-631
▁நிலை	-632
▁ிரதமர	-633
ரவ	-634
▁தகவ	-635
▁மான	-636
▁ெற்றி	-637
்ந	-638
▁உத	-639
▁சம்ப	-640
▁ர்ப்ப	-641
▁யாளர	-642
ளை	-643
▁ந்தை	-644
ணை	-645
▁ிறார	-646
▁ாஜ	-647
ர்கள	-648
▁செல்ல	-649
▁உண	-650
▁அள	-651
▁லங்கை	-652
▁பேர	-653
▁னு	-654
▁திப்ப	-655
▁மேற்க	-656
▁சொல்ல	-657
▁வக	-658
▁ஆட்சி	-659
▁ியாவ	-660
▁அதன்	-661
▁ுக்	-662
▁ுடைய	-663
▁பின்ன	-664
▁ஆய	-665
▁அடி	-666
▁டைந்த	-667
▁ஃப	-668
▁வீட்ட	-669
▁நகர	-670
▁சந்தி	-671
▁ோவில	-672
▁தெரிய	-673
▁காரண	-674
▁ுவத	-675
▁எதிர்	-676
▁தோ	-677
▁நிகழ	-678
மன	-679
▁ோர	-680
வத	-681
▁ளித்த	-682
▁உலக	-683
▁விட்ட	-684
▁கொள்ள	-685
▁என்க	-686
▁ோட்டி	-687
▁யார	-688
▁ருத்த	-689
▁ிரஸ்	-690
▁யோ	-691
▁கவ	-692
▁ரிய	-693
▁வழி	-694
▁ுக்கொ	-695
ூக	-696
▁ஜி	-697
▁மாற்ற	-698
▁எந்த	-699
▁வில்	-700
▁சமூக	-701
ல்ப	-702
ள்ளி	-703
▁களில	-704
▁குட	-705
▁ையும்	-706
▁யே	-707
▁ிழ	-708
▁ஆத	-709
▁டங்கள	-710
▁்வே	-711
ஷ்	-712
▁பொரு	-713
▁கூறு	-714
▁விழ	-715
▁கூறுக	-716
ங்கி	-717
▁வார	-718
▁னைத்த	-719
▁லு	-720
▁பயன்ப	-721
▁மருத்	-722
▁கேட்ட	-723
▁ுய	-724
▁ீதிம	-725
▁ுப்ப	-726
▁மன	-727
▁ுன்ப	-728
▁என்	-729
ழ்	-730
▁ொடங்க	-731
▁டா	-732
த்தி	-733
▁வழக்க	-734
▁காவ	-735
றுதி	-736
▁ஒன்ற	-737
ோர	-738
▁எஸ்	-739
ராட	-740
▁ஆர்	-741
டன்	-742
▁ோயில	-743
▁ஒருவர	-744
▁வ்வ	-745
▁ய்ப்ப	-746
ெரி	-747
▁ுடி	-748
▁அமெரி	-749
▁ஆகிய	-750
▁போராட	-751
▁ரண்டு	-752
▁உரு	-753
▁இர	-754
▁குற்ற	-755
▁லட்ச	-756
▁ைச்	-757
▁குடும	-758
▁வில	-759
▁சம்பவ	-760
▁த்துவ	-761
▁வீர	-762
▁ோட்ட	-763
▁போலீ	-764
சா	-765
▁புதிய	-766
▁பிடி	-767
▁கொடு	-768
▁அப்போ	-769
▁அதிகா	-770
▁முன்	-771
▁வய	-772
▁்பா	-773
▁காட்ட	-774
▁உங்கள	-775
▁பெரிய	-776
▁அவரது	-777
▁லாம்	-778
தில்	-779
க்கம	-780
ந்ந	-781
▁மும்	-782
ழை	-783
▁ுமா	-784
▁வாங்க	-785
▁களில்	-786
▁ழி	-787
▁கலந்த	-788
▁்பாக	-789
▁காவல்	-790
▁ெண	-791
▁ிதி	-792
▁தன்	-793
▁தலைமை	-794
▁ப்பு	-795
▁தின	-796
▁பதவி	-797
▁இதில்	-798
▁டைய	-799
▁ெண்கள	-800
▁யின	-801
▁ர்கள	-802
ட்ப	-803
ல்வி	-804
▁ேற்று	-805
▁ந்தப்	-806
▁இய	-807
கா	-808
▁்வேறு	-809
▁அதே	-810
▁கும	-811
▁கீ	-812
▁மீண்ட	-813
▁ிச்ச	-814
ையே	-815
ோச	-816
▁தங்கள	-817
▁ல்லது	-818
▁வகைய	-819
▁யுள்ள	-820
ழக	-821
▁திக்க	-822
▁தொழில	-823
▁ாட்சி	-824
▁ிறந்த	-825
▁பள்ளி	-826
▁ுற	-827
▁ற்க	-828
▁ாங்க	-829
ளி	-830
▁ிலைய	-831
▁ப்படை	-832
▁வைக்க	-833
ணைய	-834
▁சிக	-835
▁பேர்	-836
ம்பி	-837
▁ைக்	-838
▁ாள்	-839
▁நிர்வ	-840
ியர	-841
▁கர	-842
துக	-843
▁துவர	-844
▁மது	-845
▁பங்க	-846
▁அதிகம	-847
▁ுர	-848
▁மெ	-849
▁மிக	-850
▁ுகிற	-851
▁எண்ண	-852
▁லாம	-853
▁பக்த	-854
ியே	-855
▁ல்லாம	-856
▁ாதார	-857
▁ரிகள	-858
▁ளிக்க	-859
▁ஈடு	-860
▁எங்கள	-861
▁க்கூ	-862
▁ரஷ	-863
▁செய்வ	-864
▁அங்கு	-865
வ்வ	-866
▁ிரி	-867
ரும்	-868
▁மாணவர	-869
▁யும	-870
▁மைய	-871
யர	-872
▁ிலி	-873
▁பாட	-874
ழி	-875
▁ிக்	-876
▁பொருள	-877
ஞர	-878
ுமை	-879
▁பக்தர	-880
▁ரே	-881
▁ண்ண	-882
▁நாள்	-883
▁நடக்க	-884
▁ேள்	-885
▁தேசிய	-886
தை	-887
▁பற்றி	-888
▁ேள்வி	-889
▁ராக	-890
▁ர்ச	-891
▁ாட்கள	-892
▁இப்போ	-893
வர்	-894
▁பாதுக	-895
▁பெற	-896
▁க்கூட	-897
▁ான்	-898
▁ாப்பு	-899
▁ாக்க	-900
யே	-901
▁னக்கு	-902
▁்கெ	-903
▁்கெட்	-904
▁ரஷ்ய	-905
▁காரணம	-906
▁ில்லை	-907
▁ெயல்ப	-908
ீர	-909
▁பதில	-910
▁ஆள	-911
▁வது	-912
▁ந்து	-913
▁ிச	-914
▁றை	-915
▁ஒப்ப	-916
▁ிலை	-917
▁ிரு	-918
▁இந்ந	-919
▁திகார	-920
▁தும	-921
நர	-922
▁சக	-923
▁ரூபா	-924
▁10	-925
▁நே	-926
▁எட	-927
▁சார	-928
▁விடு	-929
▁ாங்கள	-930
▁வளர	-931
▁அதில்	-932
▁ியா	-933
▁விஷ	-934
▁இயக்க	-935
▁தேவ	-936
▁ினர்	-937
▁னும	-938
▁வல	-939
▁அதை	-940
▁நினை	-941
▁யலா	-942
ையாட	-943
▁ஆண்ட	-944
▁;	-945
▁ும்போ	-946
▁கூறிய	-947
மு	-948
▁ஈடுபட	-949
▁ுவது	-950
▁யலாளர	-951
▁வச	-952
▁ஸ்டால	-953
▁குடி	-954
▁குமார	-955
▁வந்து	-956
▁ுமன்ற	-957
▁ஸ்த	-958
▁இடத்த	-959
▁சிறு	-960
▁றுத்த	-961
▁ைத்	-962
▁வும	-963
▁கோடி	-964
▁ராம	-965
▁அப்ப	-966
▁்பாடி	-967
▁மறு	-968
▁கைது	-969
▁எடப	-970
▁னுப்ப	-971
▁ரத்த	-972
▁மலை	-973
▁வரி	-974
ேக	-975
▁ற்ப	-976
▁்நா	-977
▁எல்ல	-978
▁ழுந்த	-979
▁ோடி	-980
▁ிவிட	-981
ரீ	-982
▁கடை	-983
▁எல்	-984
▁ிக	-985
▁உருவா	-986
▁னுமதி	-987
▁க்கா	-988
▁நிறை	-989
▁சூழ	-990
▁தய	-991
▁ொத்த	-992
▁ுறை	-993
▁தேச	-994
▁ோடு	-995
▁ிரும	-996
▁கிராம	-997
▁ல்லா	-998
▁ையில்	-999
▁ுடிவு	-1000
▁ிருமண	-1001
▁பாக	-1002
▁வாக	-1003
▁பால	-1004
▁பிரச	-1005
▁ுயற்ச	-1006
▁ாந்தி	-1007
▁திரும	-1008
▁ுப	-1009
▁பார	-1010
▁தாவ	-1011
▁ிகவ	-1012
▁கரு	-1013
▁டித்த	-1014
▁அம்	-1015
▁்ய	-1016
▁ூர	-1017
▁ிகவும	-1018
▁லுத்த	-1019
ையில	-1020
▁ிகள	-1021
▁பண	-1022
▁தடு	-1023
▁நிறு	-1024
▁நெ	-1025
▁உதவி	-1026
▁நாட	-1027
▁டெல்ல	-1028
▁ஏற்ற	-1029
▁ட்ச	-1030
▁ுத்து	-1031
▁மாதம்	-1032
▁பெரும	-1033
▁ிஸ	-1034
▁மாற	-1035
▁ீடு	-1036
▁ாம்	-1037
▁விமான	-1038
▁ஷ்ட	-1039
▁ழக்கு	-1040
▁ட்சி	-1041
▁ஜனா	-1042
▁செல்வ	-1043
▁க்கான	-1044
▁உயர	-1045
▁ாக்கு	-1046
▁ீட்ட	-1047
▁நாம்	-1048
▁வின்	-1049
▁t	-1050
▁லுவ	-1051
▁த்தரவ	-1052
▁யிட	-1053
▁ங்கள்	-1054
▁கல்வி	-1055
▁பெயர	-1056
▁்தான	-1057
▁புகார	-1058
▁ராண	-1059
▁ஜனாதி	-1060
▁டுவ	-1061
ரில்	-1062
▁வித	-1063
▁வற்ற	-1064
▁முழ	-1065
▁்நாடு	-1066
▁டுப்ப	-1067
▁தவ	-1068
▁ிவகார	-1069
▁முதல	-1070
▁யுடன்	-1071
▁தந்த	-1072
▁ந்தக்	-1073
▁தரப்ப	-1074
▁பெண்	-1075
▁ரோனா	-1076
▁ராணுவ	-1077
வில்	-1078
▁துவமன	-1079
▁தூ	-1080
▁வருவத	-1081
▁கிய	-1082
ற்று	-1083
ான்	-1084
▁ஸ்ரே	-1085
▁ரய	-1086
▁பின்	-1087
ர்வு	-1088
▁ஸ்ரீ	-1089
▁எழு	-1090
▁நிய	-1091
▁பூஜ	-1092
▁திக	-1093
▁மழை	-1094
▁தகவல	-1095
தல	-1096
▁ாவது	-1097
▁மின்	-1098
▁ிள	-1099
▁முடிவ	-1100
ால்	-1101
ர்ச	-1102
▁ல்க	-1103
▁ஸ்ரேல	-1104
▁அன	-1105
▁ஜெய	-1106
▁அதிர	-1107
▁தகவல்	-1108
▁நிறைவ	-1109
▁க்கும	-1110
ேச	-1111
▁முக	-1112
▁ிரதேச	-1113
▁பதிவு	-1114
▁புர	-1115
▁நோ	-1116
▁ாய்	-1117
▁திராக	-1118
▁இதை	-1119
▁தாவது	-1120
▁நு	-1121
▁தேவை	-1122
▁உரி	-1123
▁ஒவ்வ	-1124
▁ன்னும	-1125
▁டன	-1126
▁விலை	-1127
▁ஜா	-1128
▁மைக்க	-1129
▁டிய	-1130
▁ாளி	-1131
▁ாமி	-1132
னைவர	-1133
▁ம்ம	-1134
▁அனைவர	-1135
▁உணவு	-1136
▁பூஜை	-1137
கர்	-1138
ள்க	-1139
▁விழா	-1140
▁பட்ட	-1141
▁ேற்க	-1142
▁முழுவ	-1143
▁ரன	-1144
▁புரி	-1145
▁ிங்	-1146
▁காண	-1147
▁உயர்	-1148
▁கோரி	-1149
வும	-1150
பத்த	-1151
▁உறுதி	-1152
ோக	-1153
▁ூல	-1154
▁இரண்ட	-1155
▁ாச	-1156
▁ஆளு	-1157
▁வ்வா	-1158
▁விக	-1159
▁எனவே	-1160
▁தங்க	-1161
▁இதன்	-1162
ாய	-1163
▁கன	-1164
▁தயார	-1165
▁விஷய	-1166
▁சுற்ற	-1167
▁டந்து	-1168
▁ிச்சை	-1169
▁ஆய்	-1170
▁ஆய்வு	-1171
▁அண்ண	-1172
▁இருவர	-1173
▁்த்தி	-1174
ப்பட	-1175
▁கியோர	-1176
▁ரஷ்யா	-1177
▁ரை	-1178
▁ழைத்த	-1179
▁உச்ச	-1180
▁ர்ம	-1181
▁போல்	-1182
▁மத	-1183
▁சார்ப	-1184
க்கி	-1185
▁விதி	-1186
▁மைச்ச	-1187
▁காலை	-1188
▁னிய	-1189
▁ஆளுநர	-1190
▁ர்வ	-1191
▁ன்ப	-1192
ையட	-1193
▁ஏற்க	-1194
▁்பத்த	-1195
▁s	-1196
▁ச்னை	-1197
▁ேஷ்	-1198
▁தவிர	-1199
▁ாலத்த	-1200
▁இற	-1201
▁அளவ	-1202
▁ஸ்ட்	-1203
▁மட்ட	-1204
▁ிடம்	-1205
▁ூன்று	-1206
▁ரித்த	-1207
▁வன	-1208
▁போக	-1209
▁உரிமை	-1210
▁படத்த	-1211
▁ஒரே	-1212
▁னா	-1213
▁ெரும்	-1214
▁வாகன	-1215
▁த்திர	-1216
ற்றம	-1217
▁ாண்ட	-1218
▁தடை	-1219
ென	-1220
▁துணை	-1221
▁யால்	-1222
ிரம	-1223
▁ீடிய	-1224
▁ராகு	-1225
▁விரு	-1226
▁ாரணம்	-1227
மைய	-1228
்ட்	-1229
▁க்காக	-1230
▁ிரியர	-1231
▁ீடியோ	-1232
▁ொகுதி	-1233
▁விஜ	-1234
▁ாதி	-1235
முற	-1236
▁சீனா	-1237
▁ுவா	-1238
▁கல்ல	-1239
▁சர்வ	-1240
▁திகரி	-1241
▁ழனி	-1242
▁உள்ளன	-1243
▁உற	-1244
▁மனை	-1245
▁ழனிச	-1246
▁குழுவ	-1247
▁பிரி	-1248
▁இல	-1249
▁த்தி	-1250
▁உத்த	-1251
▁போட்ட	-1252
▁ுகள்	-1253
▁தும்	-1254
▁நேர	-1255
▁வீரர	-1256
▁ஜூ	-1257
▁விரும	-1258
▁கொலை	-1259
▁ரங்க	-1260
▁ாண	-1261
▁ியத	-1262
▁சத	-1263
▁லட்சம	-1264
▁ேர்வு	-1265
▁ுல	-1266
▁யூ	-1267
▁ளையாட	-1268
▁ம்பர	-1269
▁ுகளை	-1270
▁நம்	-1271
▁ுங்கள	-1272
▁வயத	-1273
▁ணைந்த	-1274
▁வேறு	-1275
▁மகன	-1276
▁நிதி	-1277
▁ரிச	-1278
தான	-1279
▁்ண	-1280
▁ிலே	-1281
▁ுமார்	-1282
▁சை	-1283
▁ரீ	-1284
▁ிம	-1285
▁ழுத்த	-1286
▁பிஷ	-1287
▁்பு	-1288
▁த்தது	-1289
▁ாகும்	-1290
▁நடி	-1291
▁மனைவி	-1292
▁்பான	-1293
▁ிக்கை	-1294
▁கவன	-1295
▁க்ட	-1296
▁சரி	-1297
▁சொன்ன	-1298
▁வேட்ப	-1299
▁ரசி	-1300
▁மனி	-1301
▁ாடி	-1302
▁ைத்தி	-1303
▁ுவி	-1304
▁அதிபர	-1305
▁உள்	-1306
▁இதற்க	-1307
▁இவர்	-1308
▁துக்க	-1309
▁மனித	-1310
▁கீழ்	-1311
▁ண்ட்	-1312
▁ப்பாக	-1313
▁ந்தத்	-1314
▁ொருட்	-1315
▁போலீஸ	-1316
▁ணிப்ப	-1317
▁பாஜகவ	-1318
▁ாதுகா	-1319
டக	-1320
▁ுக்கள	-1321
▁சோ	-1322
▁ூர்	-1323
▁ரன்கள	-1324
▁மகள	-1325
▁ரண	-1326
▁போலீச	-1327
▁ுவாமி	-1328
▁துர	-1329
▁மோச	-1330
▁புது	-1331
▁யிரி	-1332
▁ஒன்று	-1333
▁மொ	-1334
▁மாலை	-1335
▁ஏன்	-1336
▁கடுமை	-1337
▁செல	-1338
▁குரு	-1339
▁கேட	-1340
▁ிப்ப	-1341
▁தான	-1342
▁கூறி	-1343
▁நாடாள	-1344
▁லுவலக	-1345
▁்ட்	-1346
▁இங்கு	-1347
▁ஆதர	-1348
▁பிஷேக	-1349
▁வேக	-1350
▁ீங்கள	-1351
▁ிகழ	-1352
▁ுழ	-1353
▁டிக்க	-1354
▁வாத	-1355
▁றக்க	-1356
▁யிரிழ	-1357
▁ொண்ட	-1358
▁நம்பி	-1359
▁குழு	-1360
▁ிபி	-1361
▁வருட	-1362
▁ர்ச்ச	-1363
▁வங்கி	-1364
▁மிழ்	-1365
ீட	-1366
▁யினர	-1367
▁க்கிய	-1368
ிஸ	-1369
▁பாகிஸ	-1370
▁ிலேயே	-1371
ாண	-1372
▁மேல்	-1373
▁ற்றது	-1374
▁துவரை	-1375
▁ட்டி	-1376
▁ரம	-1377
▁இளை	-1378
▁அண்ணா	-1379
▁ீர்கள	-1380
▁கிற	-1381
▁குதி	-1382
▁ல்லாத	-1383
▁இடையே	-1384
▁ுச்	-1385
▁அருக	-1386
▁இதையட	-1387
வாத	-1388
▁சிவ	-1389
▁சேவை	-1390
▁பலர	-1391
▁நல்ல	-1392
▁ம்பர்	-1393
▁அல	-1394
▁ோல	-1395
▁சிங்	-1396
▁கணக்க	-1397
▁மதுரை	-1398
▁பத்த	-1399
▁முழு	-1400
▁அவரை	-1401
▁கிரி	-1402
எஸ	-1403
▁ெருக	-1404
▁்க்கை	-1405
▁ழுப்ப	-1406
▁கொள்	-1407
▁புற	-1408
▁தன்ன	-1409
▁இணைய	-1410
▁உடன	-1411
▁மாணவி	-1412
▁உடல	-1413
▁ுரை	-1414
போ	-1415
▁ுந்த	-1416
▁தரி	-1417
▁ப்பத	-1418
பத	-1419
▁தார	-1420
▁யிலான	-1421
▁விரை	-1422
▁இளைஞர	-1423
▁ிடையே	-1424
▁ராசி	-1425
▁நாத	-1426
▁n	-1427
▁ங்கி	-1428
▁ஓபி	-1429
▁தனி	-1430
▁சாலை	-1431
▁இறுதி	-1432
▁துவும	-1433
▁ீர்	-1434
▁ஓபிஎஸ	-1435
▁தயாரி	-1436
▁தைய	-1437
றைய	-1438
▁யிற்ச	-1439
▁ன்னி	-1440
▁திய	-1441
▁்களை	-1442
▁ச்சா	-1443
▁அருகே	-1444
▁ொள்ள	-1445
▁்த்தை	-1446
▁ருக	-1447
▁லிய	-1448
▁உயிர	-1449
▁ிமர்ச	-1450
▁இடை	-1451
▁ல்வ	-1452
▁றும்	-1453
▁உடல்	-1454
▁போன	-1455
▁மாட்ட	-1456
▁ழைப்ப	-1457
▁ியிட	-1458
▁அளவில	-1459
▁கில	-1460
▁ேஷ	-1461
▁தில	-1462
▁ிக்கொ	-1463
▁கருத	-1464
▁யைப்	-1465
▁்ர	-1466
▁ஆணைய	-1467
▁ச்சி	-1468
▁மேற்ப	-1469
▁மல	-1470
▁ஆர	-1471
▁ரியா	-1472
▁ஊடக	-1473
▁விரி	-1474
▁ருண	-1475
▁ன்ஸ	-1476
▁ுடன	-1477
▁சிறை	-1478
களை	-1479
த்தை	-1480
ோம்	-1481
▁டிர	-1482
▁நாள	-1483
▁வங்க	-1484
▁20	-1485
▁கிட	-1486
▁ளியே	-1487
▁a	-1488
▁ொழி	-1489
▁ளியேற	-1490
▁ஆதரவ	-1491
▁ராஜ்	-1492
▁i	-1493
▁்ப்பு	-1494
▁ட்ர	-1495
▁இரவு	-1496
▁ீதிபத	-1497
▁பந்து	-1498
▁ஞ்சா	-1499
▁ளை	-1500
▁ேஸ்	-1501
▁யங்க	-1502
▁உட்ப	-1503
▁்வ	-1504
▁கட்டி	-1505
லாற	-1506
▁வரலாற	-1507
▁வ்வாற	-1508
▁ிங்க	-1509
சை	-1510
▁்கு	-1511
▁க்குற	-1512
▁செயல	-1513
▁அமர	-1514
▁எனக்	-1515
▁கல்லூ	-1516
▁மைந்த	-1517
▁ழக்கம	-1518
▁ச்சரி	-1519
▁வெளிந	-1520
▁திருவ	-1521
▁்ஜ	-1522
▁இதனை	-1523
▁ுமான	-1524
▁ரம்பி	-1525
▁்டி	-1526
▁ினும்	-1527
▁ிபிசி	-1528
▁தவற	-1529
ியு	-1530
▁ெள	-1531
ரைன	-1532
▁னால	-1533
▁பரபர	-1534
▁களாக	-1535
▁பக்க	-1536
▁பரவ	-1537
▁சொந்த	-1538
▁ராகுல	-1539
▁பழ	-1540
▁மார	-1541
▁பணம்	-1542
▁ுப்பா	-1543
▁மகா	-1544
▁வகை	-1545
▁தீர்	-1546
▁வயது	-1547
▁றிந்த	-1548
▁சாமி	-1549
▁ன்மை	-1550
ளவ	-1551
▁ஷ்	-1552
▁ாளர்	-1553
▁வ்வளவ	-1554
▁மர	-1555
▁சுத	-1556
▁ய்ச	-1557
▁இந்து	-1558
▁நீக்க	-1559
▁கிள	-1560
▁ூட்ட	-1561
▁்டு	-1562
▁லர	-1563
▁தீர்ம	-1564
▁க்ரைன	-1565
▁பிரா	-1566
▁ானது	-1567
▁ூட	-1568
▁ண்டாட	-1569
▁ப்பை	-1570
▁காட்ச	-1571
▁ுங்க	-1572
▁ொருள்	-1573
▁e	-1574
▁ிபத்த	-1575
▁கைய	-1576
▁எனவும	-1577
▁வாக்க	-1578
▁யோக	-1579
▁ட்டை	-1580
▁வடி	-1581
▁ுமாறு	-1582
▁தென்	-1583
▁போர்	-1584
▁கிரு	-1585
▁ினை	-1586
▁யைச்	-1587
▁ென	-1588
்கு	-1589
▁வைர	-1590
▁சக்தி	-1591
▁ல்கலை	-1592
▁அனு	-1593
ழா	-1594
▁ுவிழா	-1595
▁சமீ	-1596
▁தைத்	-1597
▁சமய	-1598
▁ேட்ட	-1599
▁ஸ்தான	-1600
▁பிள	-1601
▁ியல	-1602
▁சமீப	-1603
▁வின	-1604
▁வ்	-1605
▁கொள்வ	-1606
ிழ	-1607
▁ிகழ்வ	-1608
ண்மை	-1609
▁உண்மை	-1610
▁ரயில்	-1611
▁ற்றிய	-1612
▁நிலவ	-1613
▁டிப்ப	-1614
▁முதலம	-1615
▁வரவ	-1616
▁நம்ப	-1617
▁அதற்க	-1618
▁ந்தச்	-1619
▁ஓட்ட	-1620
▁திற	-1621
▁ரெ	-1622
▁டப்ப	-1623
▁ஆரா	-1624
▁ாளை	-1625
▁சந்த	-1626
▁ஆட்ட	-1627
▁ரீதி	-1628
▁தீவிர	-1629
▁பொதும	-1630
▁ரசிகர	-1631
▁லங்கா	-1632
▁்பி	-1633
▁கார்	-1634
▁ற்பனை	-1635
▁ண்ணீர	-1636
▁மோத	-1637
மத	-1638
▁ோதி	-1639
▁ாகவே	-1640
▁ௌ	-1641
பு	-1642
▁நபர	-1643
▁ுதி	-1644
▁போத	-1645
▁களும்	-1646
ளம	-1647
▁உணர	-1648
▁ட்டர	-1649
▁ச்சு	-1650
▁பதிவ	-1651
▁போட	-1652
▁நாய	-1653
▁அம்மன	-1654
▁றிய	-1655
▁ிஷ	-1656
▁ூடு	-1657
▁ருவ	-1658
▁ுதான்	-1659
▁சோத	-1660
▁ஊர	-1661
▁இல்	-1662
▁ிரிவு	-1663
▁கிருஷ	-1664
▁விந	-1665
▁கண்ண	-1666
▁லே	-1667
▁ிழமை	-1668
▁வலியு	-1669
▁ஆன	-1670
▁குப்ப	-1671
▁ோத	-1672
▁அக்	-1673
▁க்கது	-1674
▁ஆச	-1675
▁இணை	-1676
▁ோக்கு	-1677
▁கடன்	-1678
▁பேச்ச	-1679
▁யிலி	-1680
▁வசதி	-1681
▁ிழக்க	-1682
▁ின்றி	-1683
▁புல	-1684
▁னியார	-1685
▁ுதலீட	-1686
▁சோதனை	-1687
▁விரைவ	-1688
▁க்கண	-1689
்கா	-1690
▁டம்ப	-1691
▁குர	-1692
▁டைத்த	-1693
▁தந்தை	-1694
▁15	-1695
▁பெண்ண	-1696
▁ம்ச	-1697
▁ப்பூர	-1698
▁நீண்ட	-1699
▁மூத்த	-1700
▁பகிர	-1701
▁சின்ன	-1702
▁ஓவர	-1703
▁வசிய	-1704
▁ொள்க	-1705
▁ய்ச்ச	-1706
▁அதனை	-1707
▁கண்கா	-1708
▁கத்த	-1709
▁யம	-1710
▁்சி	-1711
▁சித்த	-1712
▁சங்க	-1713
▁க்கழக	-1714
▁ீல	-1715
▁டக்க	-1716
▁ில்ல	-1717
▁்தி	-1718
▁பீ	-1719
▁ியமான	-1720
▁ியதாக	-1721
▁ைப்பட	-1722
▁யல	-1723
▁கேட்க	-1724
▁அன்று	-1725
▁ருங்க	-1726
▁தொகை	-1727
▁உத்தர	-1728
▁ன்ம	-1729
▁மகிழ	-1730
▁ாம்ப	-1731
▁S	-1732
▁்ப்ப	-1733
▁இடம்	-1734
▁லியல்	-1735
▁சாப்ப	-1736
▁ாதிரி	-1737
▁கடைசி	-1738
▁ட்ப	-1739
▁ங்கில	-1740
▁ிரட்ட	-1741
▁என்னை	-1742
▁திரான	-1743
▁புரம்	-1744
▁அங்க	-1745
▁நோக்க	-1746
▁மைத்த	-1747
▁சட்டம	-1748
▁காதல	-1749
▁12	-1750
▁விவ	-1751
▁ிலா	-1752
▁கர்	-1753
▁A	-1754
▁ந்த்	-1755
▁ேற்ப	-1756
▁்கடி	-1757
▁சித	-1758
▁ேயே	-1759
▁ஊழ	-1760
▁கவனம	-1761
▁ிளக்க	-1762
▁நுட்ப	-1763
▁முத்த	-1764
▁ஊழியர	-1765
▁ப்பா	-1766
▁ேரில்	-1767
▁வெடி	-1768
▁தரிச	-1769
▁ுகா	-1770
▁ெயர்	-1771
▁க்கிற	-1772
▁்களில	-1773
▁ாதனை	-1774
▁விழாவ	-1775
▁ாணப்ப	-1776
▁்யா	-1777
▁ேச	-1778
▁லோச	-1779
▁ப்போத	-1780
▁ாத்தி	-1781
▁ோட்டு	-1782
▁லெ	-1783
▁ண்டி	-1784
▁ொள்கை	-1785
▁சிலர்	-1786
▁வேல	-1787
▁புகை	-1788
▁தாகக்	-1789
▁ிட்டு	-1790
▁ப்ர	-1791
▁ாக்கல	-1792
▁டாக	-1793
▁ேற்கு	-1794
▁சப	-1795
▁்வு	-1796
▁இன்ன	-1797
▁குறைவ	-1798
▁வசி	-1799
▁உற்ப	-1800
▁விவர	-1801
▁செய்க	-1802
▁ாற்றம	-1803
▁ோட	-1804
சாய	-1805
▁க்கால	-1806
▁ணைப்ப	-1807
▁ிவசாய	-1808
▁ேத	-1809
▁உடனடி	-1810
ண்ப	-1811
▁ூடா	-1812
▁நண்ப	-1813
▁வட	-1814
▁ஸ்வ	-1815
▁இறந்த	-1816
▁போர	-1817
▁கலா	-1818
▁பயணம்	-1819
▁50	-1820
▁சபை	-1821
▁இதன	-1822
▁மேம்ப	-1823
▁யிகள	-1824
▁ிம்	-1825
▁விவசா	-1826
▁ிடப்ப	-1827
▁யர	-1828
▁ான்கு	-1829
▁கோவை	-1830
▁ினால்	-1831
▁ிறோம்	-1832
▁சூழல	-1833
▁கம்	-1834
▁ஆய்வ	-1835
▁விவாத	-1836
▁இலக்க	-1837
ித	-1838
▁சவ	-1839
▁ோய்	-1840
▁தோடு	-1841
▁பிரதி	-1842
▁சிற	-1843
▁ங்கா	-1844
▁ரான்	-1845
▁ிக்கல	-1846
▁யைத்	-1847
▁மிட்ட	-1848
▁ருமான	-1849
▁ாகிகள	-1850
▁கடி	-1851
▁ேம	-1852
▁நவ	-1853
▁மோசம	-1854
▁எல்லா	-1855
▁ன்று	-1856
▁வீடு	-1857
▁லோசனை	-1858
▁ங்கே	-1859
▁பணிகள	-1860
ீஸ்	-1861
▁காய	-1862
▁ரும	-1863
▁வந்தி	-1864
▁மோ	-1865
▁ெல்ல	-1866
▁ந்தில	-1867
▁எழுத	-1868
▁தேவைய	-1869
▁30	-1870
▁ோக்கி	-1871
▁ுகாதா	-1872
▁ஒட்ட	-1873
▁ட்டா	-1874
▁சீர	-1875
ின்	-1876
▁தக்க	-1877
▁யல்	-1878
▁ண்கள	-1879
▁யண	-1880
▁ன்றி	-1881
▁ுன்ன	-1882
▁ாப்	-1883
▁ேஸ்வர	-1884
▁மச	-1885
▁வலை	-1886
▁டையாள	-1887
▁ரவி	-1888
▁போதும	-1889
▁அவற்ற	-1890
▁கப்ப	-1891
▁க்கர	-1892
▁ூடாது	-1893
▁ள்ளி	-1894
▁கடும்	-1895
▁ஆவ	-1896
▁ித	-1897
▁ிக்கா	-1898
▁னாலும	-1899
▁ழைக்க	-1900
▁ஸ்க	-1901
▁ெளியே	-1902
▁னந	-1903
▁ும்பை	-1904
▁ரக	-1905
▁ொத்தம	-1906
▁ுவங்க	-1907
▁ளிப்ப	-1908
▁மண	-1909
வீ	-1910
▁கடித	-1911
▁ற்றோர	-1912
▁ியாக	-1913
▁ுதல்	-1914
▁ற்காக	-1915
வீத	-1916
▁அம்மா	-1917
▁சதவீத	-1918
▁குஜ	-1919
▁இனி	-1920
▁மண்ட	-1921
▁ய்ந்த	-1922
▁ைத்த	-1923
▁தாரண	-1924
▁மில்ல	-1925
▁ிப்பு	-1926
▁பட்ச	-1927
ிரை	-1928
▁ுபி	-1929
▁உட்பட	-1930
▁்திரை	-1931
▁கடற்	-1932
▁பாடு	-1933
▁ண்டை	-1934
▁க்ஸ	-1935
▁யற்க	-1936
▁பணியா	-1937
▁யற்கை	-1938
▁C	-1939
▁த்தீ	-1940
▁லக	-1941
▁சொல	-1942
▁டம்பெ	-1943
▁டங்கி	-1944
▁லைமைய	-1945
ேன்	-1946
▁ச்சார	-1947
▁ராட்ட	-1948
▁படம்	-1949
▁பால்	-1950
▁ப்பி	-1951
▁்குழு	-1952
▁ார்வை	-1953
▁நீர	-1954
▁ாலா	-1955
▁எல்லை	-1956
▁ாட்டு	-1957
▁யெ	-1958
▁னவர	-1959
▁பகவ	-1960
▁எனது	-1961
▁வருவ	-1962
▁யிலும	-1963
▁அல்ல	-1964
▁ினால	-1965
▁இதே	-1966
▁னம்	-1967
▁ாலை	-1968
▁மீதான	-1969
▁ஃப்	-1970
▁ஏரா	-1971
▁ரள	-1972
▁ஆதரவு	-1973
▁த்தனை	-1974
▁ுபிடி	-1975
▁ினி	-1976
▁ுமல்ல	-1977
▁டே	-1978
▁ுப்	-1979
▁11	-1980
▁ஏராளம	-1981
▁டோ	-1982
▁வீன	-1983
▁ோலீஸ்	-1984
▁T	-1985
▁லய	-1986
▁அன்ப	-1987
▁விஜய	-1988
▁சன்	-1989
▁குள	-1990
▁நல	-1991
▁ட்டர்	-1992
▁ன்பவர	-1993
▁கரி	-1994
கள்	-1995
▁ோர்	-1996
▁ியன்	-1997
▁வசியம	-1998
▁ரியாக	-1999
▁லரும்	-2000
▁ேச்ச	-2001
▁ிறக்க	-2002
▁வென்ற	-2003
▁லீ	-2004
▁கதை	-2005
▁மீற	-2006
▁யரச	-2007
▁யைக்	-2008
▁கற்ற	-2009
▁தம	-2010
டுக	-2011
▁ஆயிரம	-2012
▁கணவர	-2013
▁கட்டண	-2014
▁போய்	-2015
▁செயல்	-2016
▁ப்பில	-2017
▁வுள்ள	-2018
▁ோப்ப	-2019
▁தில்ல	-2020
▁இவர	-2021
▁பண்ண	-2022
▁ஸ்வர	-2023
▁ூடுதல	-2024
▁P	-2025
▁டல	-2026
▁அவை	-2027
▁தள	-2028
▁ித்து	-2029
▁சிய	-2030
▁ற்கான	-2031
▁உதவ	-2032
▁விளை	-2033
▁அட	-2034
▁ட்டச	-2035
▁பக்கம	-2036
▁்தான்	-2037
▁வத	-2038
▁வாச	-2039
▁ிஸ்	-2040
▁நண்பர	-2041
▁வலி	-2042
▁்றி	-2043
▁யிடம	-2044
▁தரிசன	-2045
▁பங்கு	-2046
▁நம்ம	-2047
▁ாந்த	-2048
▁அமை	-2049
▁பாடல	-2050
▁ுலா	-2051
▁ராமர	-2052
▁பகவான	-2053
▁சபா	-2054
▁காலம்	-2055
▁உறவ	-2056
▁நான	-2057
▁்பெ	-2058
▁நின்ற	-2059
▁பிரப	-2060
▁ரியான	-2061
on	-2062
▁கம்ப	-2063
▁டைமுற	-2064
▁ையும	-2065
▁பாராள	-2066
▁ாப்ப	-2067
▁கில்	-2068
▁்சினை	-2069
▁த்தால	-2070
▁ருமாள	-2071
▁ருகில	-2072
▁நரே	-2073
▁ய்ய	-2074
▁தைப்	-2075
▁மாநகர	-2076
▁ற்றி	-2077
▁மூன்ற	-2078
▁ோல்வி	-2079
▁கிறது	-2080
▁நியமி	-2081
▁மனு	-2082
▁கண்டி	-2083
குற	-2084
▁அனுப	-2085
▁னின்	-2086
▁்கால	-2087
▁சீனாவ	-2088
▁துகுற	-2089
▁ஓய	-2090
▁ுருக	-2091
▁மோதல	-2092
▁கிரிக	-2093
▁ன்முற	-2094
▁நம	-2095
▁B	-2096
▁யாத	-2097
▁லையில	-2098
▁ேற	-2099
▁ரல்	-2100
▁ோட்டை	-2101
▁ுந	-2102
▁குஜரா	-2103
▁்ன	-2104
▁ீடுகள	-2105
▁ாமல	-2106
▁ியம	-2107
▁ுமதி	-2108
▁ர்செ	-2109
▁ிலாளர	-2110
▁கரை	-2111
▁ந்தர	-2112
▁ுட்ட	-2113
▁டீ	-2114
▁றிமுக	-2115
▁ுருகன	-2116
▁ஜோ	-2117
▁அழக	-2118
▁ஆயு	-2119
▁ர்ஜ	-2120
▁ொது	-2121
▁ஏற்கன	-2122
ளிவ	-2123
▁காம	-2124
▁சாதி	-2125
▁நுழை	-2126
▁r	-2127
▁ுன	-2128
▁ஞான	-2129
▁டன்	-2130
▁ஸ்ப	-2131
▁தப்ப	-2132
▁ஒப்பந	-2133
▁த்தகை	-2134
▁ந்தது	-2135
▁அனுபவ	-2136
▁ண்டனை	-2137
▁ந்தேக	-2138
▁M	-2139
▁ஆயுத	-2140
▁க்காவ	-2141
▁உறவு	-2142
▁கிலோ	-2143
▁சிறுவ	-2144
▁விள	-2145
▁இஸ்	-2146
▁கிட்ட	-2147
▁c	-2148
▁ஞ்சி	-2149
▁வெள்ள	-2150
▁ளம்	-2151
▁மண்டல	-2152
▁ர்மா	-2153
▁சூரிய	-2154
▁ிறேன்	-2155
▁ஓட	-2156
▁ுழுமை	-2157
▁ிருது	-2158
▁்ள	-2159
▁ஜே	-2160
▁வள	-2161
▁கான்	-2162
▁ழிய	-2163
▁ஓய்வ	-2164
▁ஆஸ	-2165
▁முன்வ	-2166
▁விஜய்	-2167
▁வீழ	-2168
▁பின்ப	-2169
▁ேட்டை	-2170
▁ோப்பை	-2171
▁ல்ய	-2172
▁பொறு	-2173
▁வடிவ	-2174
நா	-2175
▁அரு	-2176
▁ாவத	-2177
ரம	-2178
▁உருவ	-2179
▁ுள்ளன	-2180
▁கோப	-2181
▁நிர	-2182
▁சிங்க	-2183
▁தழ	-2184
▁ுத்	-2185
▁கீழ	-2186
▁வாழ்வ	-2187
▁அப்பா	-2188
▁ுற்றி	-2189
▁ரவ	-2190
▁களம	-2191
▁விலக	-2192
▁கதி	-2193
▁செலவு	-2194
▁பலம	-2195
▁ரையாட	-2196
▁அமைதி	-2197
▁ாரா	-2198
ுமி	-2199
▁ெய்	-2200
எஸ்	-2201
▁வரத்த	-2202
▁கலை	-2203
▁ிலான	-2204
▁அங்கி	-2205
▁ரத்து	-2206
▁ிறுமி	-2207
▁ுயன்ற	-2208
▁வான	-2209
▁மின்ச	-2210
▁சல	-2211
▁சுர	-2212
▁டங்க	-2213
▁முஸ்	-2214
▁வலைத	-2215
▁யன்	-2216
▁தாய்	-2217
▁ிகப்ப	-2218
▁்ஸ	-2219
▁ஓர	-2220
▁ற்ச	-2221
▁ட்டன	-2222
▁தில்	-2223
▁தன்னை	-2224
▁வீதி	-2225
▁தேடி	-2226
▁வீச்ச	-2227
▁நமது	-2228
▁கொள்க	-2229
▁உதய	-2230
▁ட்வி	-2231
▁ப்போக	-2232
▁நிர்	-2233
▁ிக்கி	-2234
▁சனி	-2235
▁ன்ச	-2236
▁ர்ட	-2237
▁ைக்க	-2238
▁திவிட	-2239
▁பொதுக	-2240
▁I	-2241
▁கள்ள	-2242
▁கொடி	-2243
▁ராஜா	-2244
▁ள்ளூர	-2245
▁ோன	-2246
▁ேக்	-2247
▁ீட்டு	-2248
▁டிவி	-2249
▁ுதலை	-2250
▁யில்ல	-2251
▁ிலைமை	-2252
▁பாதை	-2253
▁னம	-2254
▁ிசு	-2255
▁ப்பம	-2256
▁ாக்	-2257
▁ோலி	-2258
▁பறி	-2259
▁முஸ்ல	-2260
ாயக	-2261
▁வன்	-2262
▁கைப்ப	-2263
▁நேரடி	-2264
▁மரண	-2265
▁ளவு	-2266
▁ஆரம்ப	-2267
or	-2268
an	-2269
▁ஐந்து	-2270
▁ரர்கள	-2271
▁வியா	-2272
▁வேகம	-2273
▁விரிவ	-2274
▁ெட்	-2275
▁ம்பா	-2276
▁இறங்க	-2277
▁ுமே	-2278
▁ரயில	-2279
▁ுன்னெ	-2280
▁ரேல	-2281
▁ஆல	-2282
▁யரசு	-2283
▁மீன	-2284
▁ெட்டி	-2285
▁சேகர	-2286
▁தமிழர	-2287
▁ெல	-2288
▁ேல	-2289
▁வீச	-2290
▁ருள	-2291
▁ாணி	-2292
▁ெரிய	-2293
▁ரேலிய	-2294
▁்த்து	-2295
▁ள்ளே	-2296
▁சிகலா	-2297
▁ட்டசப	-2298
▁்றால்	-2299
ோதர	-2300
▁ப்ட	-2301
▁சகோதர	-2302
▁ார்ச்	-2303
▁இழ	-2304
▁கழ	-2305
▁ரிவ	-2306
▁திறன	-2307
▁இழந்த	-2308
▁்டார்	-2309
▁ஆறு	-2310
▁சுய	-2311
▁யணி	-2312
▁ெக்	-2313
▁யாரும	-2314
▁லிங்க	-2315
▁ச்சனை	-2316
▁செலவ	-2317
▁சுட்ட	-2318
▁ித்	-2319
▁ிள்ள	-2320
▁ாக்கி	-2321
▁உணவ	-2322
▁ஒன்றை	-2323
▁பிரிவ	-2324
▁ஒத்த	-2325
▁சிலர	-2326
▁கொல்ல	-2327
▁ண்டர	-2328
▁பேரா	-2329
▁ைக்கு	-2330
போல	-2331
▁தேபோல	-2332
▁படுக	-2333
▁க்டர்	-2334
▁துப்ப	-2335
▁த்ம	-2336
▁முறைய	-2337
▁ிள்ளை	-2338
▁படை	-2339
▁ேச்சு	-2340
▁க்கொ	-2341
▁ிமுக	-2342
▁ாஷ்	-2343
▁ஜூலை	-2344
▁தெளிவ	-2345
▁பர்கள	-2346
▁்ரா	-2347
▁நாத்	-2348
▁ூற்ற	-2349
ிலை	-2350
▁40	-2351
▁ிக்ரம	-2352
▁குல	-2353
▁கவலை	-2354
▁சன	-2355
▁ஆவண	-2356
▁ுள்ளி	-2357
▁D	-2358
▁ரச	-2359
▁கப்பல	-2360
▁திண	-2361
▁ுகை	-2362
▁பேட்	-2363
▁l	-2364
▁கமத	-2365
▁ப்பூ	-2366
▁டவ	-2367
▁ணய	-2368
▁ங்கர	-2369
▁ுபவர	-2370
▁ண்மைய	-2371
▁விண்ண	-2372
▁ுற்றம	-2373
▁ொத்து	-2374
▁்ஸ்	-2375
▁ட்டில	-2376
▁ஞ்சாப	-2377
▁லலி	-2378
▁ராஜப	-2379
▁ுநர	-2380
▁ருணா	-2381
▁வித்த	-2382
▁ன்ட	-2383
▁பெரு	-2384
▁ிமுகவ	-2385
▁நடு	-2386
▁்ஷ	-2387
▁ுத்தக	-2388
விரம	-2389
▁உடை	-2390
▁டீர	-2391
▁ழிவ	-2392
▁ீவிரம	-2393
▁ொட்ட	-2394
▁லலிதா	-2395
▁கழக	-2396
▁சந்தை	-2397
▁N	-2398
▁ீர	-2399
▁கேப்	-2400
▁ட்டோ	-2401
▁ுவார	-2402
▁டீரென	-2403
▁ாஸ	-2404
▁ங்கு	-2405
▁மாகாண	-2406
▁ப்பான	-2407
▁/	-2408
▁14	-2409
▁விதம	-2410
▁யாராக	-2411
▁த்ய	-2412
▁ளர்கள	-2413
▁யணிகள	-2414
▁ளவ	-2415
▁ொடர	-2416
▁ங்கட	-2417
▁றங்க	-2418
▁ிஜ	-2419
▁ட்பு	-2420
▁நியூ	-2421
▁சொல்க	-2422
▁ல்லி	-2423
▁மேட	-2424
▁வுன்	-2425
▁சீன	-2426
▁குவி	-2427
▁ஆஸ்தி	-2428
▁ோது	-2429
▁றிஞர	-2430
▁னநாயக	-2431
▁ணத்தை	-2432
புண	-2433
▁ராத	-2434
▁நிபுண	-2435
▁கன்	-2436
▁டிகர்	-2437
▁ுத்தி	-2438
▁ாற்று	-2439
▁கௌ	-2440
▁னோ	-2441
▁சொல்வ	-2442
▁ியோக	-2443
▁ரம்	-2444
▁ிற்ப	-2445
▁வகி	-2446
▁ன்றைய	-2447
ையா	-2448
▁தீன	-2449
▁குரல	-2450
▁மாறி	-2451
▁ுறவு	-2452
▁தொடர்	-2453
▁விடுவ	-2454
▁ஷன	-2455
▁18	-2456
▁மூர	-2457
▁யிற	-2458
▁பேராச	-2459
▁க்கி	-2460
கம	-2461
றுவ	-2462
▁25	-2463
▁த்ர	-2464
▁வாள	-2465
▁கவனி	-2466
▁ழப்ப	-2467
▁மக்கு	-2468
▁வரிசை	-2469
▁அவன	-2470
▁ாத்த	-2471
▁in	-2472
▁சவால	-2473
▁ீட்	-2474
▁டிங்	-2475
▁ொல	-2476
▁ிமி	-2477
▁எனத்	-2478
▁ியல்	-2479
▁ஆகும்	-2480
▁ச்சல	-2481
▁ென்	-2482
▁ணக்க	-2483
▁தப்பி	-2484
▁ழியாக	-2485
▁னர	-2486
▁நாக	-2487
▁ுதன்	-2488
▁ஹோ	-2489
▁ியன	-2490
▁ுந்தர	-2491
▁யானை	-2492
▁ருமை	-2493
▁டைப்ப	-2494
▁ாளிகள	-2495
▁்வுகள	-2496
▁ாகப்	-2497
▁ாண்டு	-2498
▁ஜூன்	-2499
▁தீர்வ	-2500
▁பெறுவ	-2501
ுறை	-2502
▁டர	-2503
▁தல	-2504
▁கண்டன	-2505
▁்ரி	-2506
▁ேர்வ	-2507
▁அறிவு	-2508
▁ழும	-2509
▁ரப்பு	-2510
▁ெள்ளி	-2511
▁ங்கை	-2512
▁13	-2513
▁யர்	-2514
▁கூடிய	-2515
▁ினார	-2516
▁ளக்கம	-2517
▁கோர	-2518
▁கையில	-2519
▁ெற	-2520
▁ரவை	-2521
▁சிறிய	-2522
▁தற்கொ	-2523
▁குண	-2524
▁பேசி	-2525
▁ொன்ற	-2526
▁நிறைய	-2527
▁ுண்டு	-2528
▁ன்கள	-2529
▁ிலும	-2530
▁உட்	-2531
▁ஸ்ம	-2532
▁டைக்க	-2533
▁பை	-2534
▁ெல்	-2535
▁்றில்	-2536
▁மிய	-2537
▁கொட	-2538
▁முற்ற	-2539
▁லம்	-2540
▁ட்டம	-2541
▁விளைவ	-2542
▁கால்	-2543
▁ராஜபக	-2544
▁ிரம	-2545
▁ாராய	-2546
▁வலைதள	-2547
▁வேத	-2548
▁ற்று	-2549
▁ிரிகை	-2550
▁ுந்து	-2551
▁‛	-2552
▁ாபா	-2553
▁பிவிர	-2554
▁எரி	-2555
▁ங்கல்	-2556
▁ங்களத	-2557
▁ாரிய	-2558
▁நகர்	-2559
▁ல்யாண	-2560
▁ஏப்	-2561
▁திட	-2562
▁ுநர்	-2563
▁லன்	-2564
▁ப்பூச	-2565
▁ாளில்	-2566
▁ிச்சய	-2567
▁ட்ரோ	-2568
▁துடன்	-2569
▁ற்சவ	-2570
▁அருள்	-2571
▁இஸ்லா	-2572
▁வழிபட	-2573
▁பன்ன	-2574
▁அங்கே	-2575
▁நீங்க	-2576
▁ுறப்ப	-2577
▁ுமை	-2578
▁உரிய	-2579
▁விண்	-2580
▁த்திட	-2581
▁ுகாம	-2582
▁துவாக	-2583
▁டுமை	-2584
▁சேர	-2585
▁வுண்ட	-2586
▁ேட்டி	-2587
▁நீதி	-2588
▁கிடைய	-2589
▁ுமி	-2590
▁ன்ஸ்	-2591
▁யர்வ	-2592
▁ேஜ	-2593
▁பயன	-2594
▁கிரக	-2595
▁்பிய	-2596
▁வெட்ட	-2597
▁ாட்	-2598
▁மஹ	-2599
▁கல்	-2600
▁அளவு	-2601
▁ஷ்டிர	-2602
▁ின்போ	-2603
▁சுவ	-2604
▁ன்னு	-2605
▁ம்பி	-2606
▁சுப	-2607
▁ரேன	-2608
▁லாக	-2609
▁ுதல்வ	-2610
▁ஷா	-2611
▁ஹா	-2612
▁ராவிட	-2613
காரா	-2614
▁மிட	-2615
▁மகாரா	-2616
▁நினைவ	-2617
▁ரப	-2618
▁லத்த	-2619
▁ொடர்ப	-2620
▁ரளா	-2621
▁ைட்	-2622
▁குறு	-2623
▁திரி	-2624
▁சம்பந	-2625
▁16	-2626
▁ைல	-2627
▁டனே	-2628
▁ரன்	-2629
▁ான்ற	-2630
▁ளங்கள	-2631
▁ாஸ்	-2632
ar	-2633
▁ொற்று	-2634
▁தேர	-2635
▁ாலான	-2636
▁கோல	-2637
▁விய	-2638
▁எட்ட	-2639
▁ணைக்க	-2640
▁ஆதரவா	-2641
▁ாகவும	-2642
▁தோற	-2643
▁யணத்த	-2644
▁ஆற	-2645
▁அறை	-2646
▁ட்க	-2647
▁ம்மை	-2648
▁டிச	-2649
▁ிழி	-2650
▁ஆபத்த	-2651
▁ேயர	-2652
▁ளத்த	-2653
▁ள்ளை	-2654
▁பயணி	-2655
▁களின்	-2656
▁ல்வம்	-2657
▁வோ	-2658
▁தேட	-2659
▁ோதனை	-2660
▁னிமா	-2661
▁ம்சா	-2662
▁னிப்ப	-2663
▁யத்த	-2664
வரை	-2665
▁டைகள	-2666
▁ழக்க	-2667
▁ணிந்த	-2668
▁விகித	-2669
▁அத்த	-2670
▁ுமுறை	-2671
▁24	-2672
▁பெர	-2673
▁ர்ட்	-2674
▁இக்	-2675
▁ிசை	-2676
▁ுஷ	-2677
▁ுட்	-2678
▁ஞ்சம்	-2679
▁துண	-2680
▁பன்னீ	-2681
▁ும்பா	-2682
▁ுவை	-2683
▁ிட்டி	-2684
▁R	-2685
▁மால	-2686
▁அலுவ	-2687
▁ோர்ட்	-2688
▁ல்ப	-2689
▁னங்கள	-2690
▁அலுவல	-2691
▁கரம	-2692
▁ன்றிய	-2693
▁பட்டி	-2694
▁ரிந்த	-2695
▁ூதி	-2696
▁ாழ	-2697
▁மான்	-2698
▁ஒழ	-2699
▁னல	-2700
▁மறை	-2701
▁ளாக	-2702
▁ையே	-2703
▁அண	-2704
▁ரமணி	-2705
▁ங்	-2706
▁வைப்ப	-2707
▁ரல	-2708
▁லோ	-2709
▁ோம	-2710
▁தீப	-2711
▁ம்ஸ்	-2712
▁இன	-2713
▁வரப்ப	-2714
▁சிலை	-2715
▁ச்சே	-2716
▁திரட	-2717
▁வான்	-2718
▁பரப்ப	-2719
▁ப்பர்	-2720
▁மீர	-2721
▁காந்த	-2722
▁யற்ப	-2723
▁தம்	-2724
▁லாப	-2725
▁அக்க	-2726
▁கூர	-2727
▁மனத	-2728
▁யேற்ற	-2729
▁யிர	-2730
▁போதை	-2731
▁17	-2732
▁ிதா	-2733
▁தட	-2734
▁ஆதி	-2735
▁ண்ப	-2736
▁ைப்ப	-2737
▁கர்நா	-2738
▁தித்த	-2739
▁டகா	-2740
▁னந்த	-2741
▁அவச	-2742
▁ரட்ட	-2743
▁டங்கு	-2744
▁றுவ	-2745
▁ெங்க	-2746
▁ாகம்	-2747
▁ெல்ப	-2748
▁ளித	-2749
▁மொழி	-2750
▁இம்	-2751
▁ழைய	-2752
▁ளவில்	-2753
▁ிமிட	-2754
▁ாளைய	-2755
▁டின	-2756
▁ியாச	-2757
▁100	-2758
▁னென	-2759
▁யுக்	-2760
▁மூல	-2761
▁றுதி	-2762
▁பூர்வ	-2763
▁்கிரம	-2764
▁்டால்	-2765
▁்பில்	-2766
▁இப்ப	-2767
▁த்தக	-2768
▁மீட்ட	-2769
▁்தவரை	-2770
▁தைக்	-2771
▁ந்தோ	-2772
▁ேஷன	-2773
▁்லை	-2774
▁பாச	-2775
▁வதி	-2776
▁ிப்	-2777
▁p	-2778
▁உடன்	-2779
▁க்கல்	-2780
▁்லைன	-2781
▁ப்புற	-2782
▁ஆப	-2783
▁ளும்	-2784
▁ுவதை	-2785
▁ணுக	-2786
▁ீப்	-2787
▁ணர்வ	-2788
▁மித்	-2789
▁டிக	-2790
▁பாய	-2791
▁யினர்	-2792
ஞ்ச	-2793
▁திவு	-2794
▁பஞ்ச	-2795
▁மீன்	-2796
▁ம்மன்	-2797
▁டைவ	-2798
▁ங்கல	-2799
▁கழி	-2800
▁களைப்	-2801
▁ியூ	-2802
▁மாஸ்	-2803
▁ஆகியவ	-2804
▁கண்டற	-2805
▁ட்டவர	-2806
▁பாண்ட	-2807
▁தூக்க	-2808
▁ுரங்க	-2809
▁ரஜ	-2810
▁கிழ	-2811
▁ாயக	-2812
▁ங்கீ	-2813
▁ற்றை	-2814
▁ரூபாய	-2815
▁வராக	-2816
▁ய்க	-2817
▁ைஞர	-2818
▁ண்டப	-2819
▁ன்ட்	-2820
▁சூழ்ந	-2821
▁தூர	-2822
▁ாரி	-2823
▁இன்	-2824
▁ன்னா	-2825
▁மர்ச	-2826
▁ரியாத	-2827
▁அந்ந	-2828
▁தவறு	-2829
▁முனை	-2830
▁எல	-2831
▁த்தர	-2832
▁ாயகர்	-2833
▁சிக்	-2834
▁்புக	-2835
▁காரை	-2836
▁ெண்ட	-2837
▁ோஷ	-2838
▁வேளை	-2839
▁னமும்	-2840
▁ராய	-2841
▁த்தா	-2842
▁காப்ப	-2843
▁ூவ	-2844
er	-2845
▁கடல	-2846
▁பரி	-2847
▁ிர்	-2848
▁கடல்	-2849
▁மர்சன	-2850
▁ந்தி	-2851
▁ுகம	-2852
▁நீட்	-2853
▁ுகளில	-2854
▁ரத	-2855
டம	-2856
▁ீடி	-2857
▁ரிமை	-2858
▁வீசி	-2859
▁ாட்டை	-2860
▁ோன்று	-2861
▁ாதாரம	-2862
▁ுவதாக	-2863
▁ூப	-2864
▁சல்	-2865
▁ாதா	-2866
▁ாவில்	-2867
▁்ல	-2868
▁மாம	-2869
▁அறிவ	-2870
▁வற்றை	-2871
▁்பதி	-2872
▁ஏற்பட	-2873
▁ாயம்	-2874
▁டாத	-2875
▁னியாக	-2876
▁னுக்க	-2877
▁மார்க	-2878
▁அச	-2879
▁ையா	-2880
▁அச்ச	-2881
▁நீர்	-2882
▁கண்டு	-2883
▁ட்டிய	-2884
▁சேத	-2885
▁பர்	-2886
▁்கம	-2887
▁ச்செ	-2888
▁ப்பன	-2889
▁ாப்பா	-2890
வின	-2891
▁ரப்ப	-2892
▁திலும	-2893
▁க்ச	-2894
▁ார்க	-2895
▁நாம	-2896
▁டிகை	-2897
▁யூனி	-2898
▁தவி	-2899
▁விட்	-2900
▁்நாட	-2901
▁ட்டார	-2902
▁பிரிய	-2903
▁ியில்	-2904
▁ஓர்	-2905
▁பிஎஸ்	-2906
▁வரிடம	-2907
▁m	-2908
▁ளம	-2909
▁கேர	-2910
▁வலர	-2911
▁குத்த	-2912
▁்ம	-2913
▁ஞ்சு	-2914
▁கன்ன	-2915
▁ுக்கி	-2916
▁ிட்	-2917
▁ுற்று	-2918
▁ெறும்	-2919
▁றுக	-2920
▁க்கடி	-2921
▁ாந்து	-2922
▁ண்டா	-2923
▁தாம்	-2924
▁த்தூர	-2925
▁லிவ	-2926
▁ுமார	-2927
▁்தம	-2928
▁ுண்ட	-2929
▁ாயா	-2930
▁ச்சேர	-2931
▁ூலி	-2932
▁்பள	-2933
▁ியம்	-2934
▁உப	-2935
▁ாசா	-2936
▁்ட்ர	-2937
▁G	-2938
▁எஸ	-2939
▁ழல்	-2940
▁சார்	-2941
▁ெய்வ	-2942
▁ணிக	-2943
▁வலு	-2944
▁ையெ	-2945
▁க்ர	-2946
▁பூர	-2947
▁எங்க	-2948
▁த்தல	-2949
▁டுகளை	-2950
▁ிட்டன	-2951
▁ஹர	-2952
▁ைன	-2953
▁ுரிய	-2954
▁சாத்த	-2955
▁காசி	-2956
▁ணிகள	-2957
▁திரை	-2958
▁பிக்	-2959
▁ெல்வ	-2960
▁ீவ	-2961
▁சூழல்	-2962
▁ர்ன	-2963
▁எழுதி	-2964
▁ினைவு	-2965
▁தகம	-2966
▁ிகள்	-2967
▁தன்மை	-2968
▁ுதித	-2969
▁நாயகர	-2970
▁E	-2971
▁சர	-2972
▁்நாடக	-2973
▁ஜ்	-2974
▁்ஜி	-2975
▁க்களி	-2976
▁சிக்க	-2977
▁பாஸ்	-2978
▁ுறைய	-2979
▁ரூர	-2980
▁ானே	-2981
▁ின்ன	-2982
▁ுவார்	-2983
▁ைதான	-2984
▁க்டர	-2985
▁ஏற்பா	-2986
▁கரில்	-2987
▁o	-2988
▁லம	-2989
▁கான	-2990
▁லாந்த	-2991
▁ூக்கி	-2992
▁டவு	-2993
▁தள்ள	-2994
▁ீங்க	-2995
▁ூர்வ	-2996
▁மேன	-2997
▁ையட	-2998
▁ுடிய	-2999
▁ியோ	-3000
▁ொட்டி	-3001
▁வண	-3002
▁ரண்ட	-3003
▁ராம்	-3004
▁60	-3005
▁நிற	-3006
▁லகம்	-3007
▁ல்கள	-3008
nd	-3009
▁ணிய	-3010
▁ுலி	-3011
▁றுதிய	-3012
▁ூத்த	-3013
▁்கிற	-3014
▁ஹெ	-3015
▁ளங்க	-3016
▁லாக்க	-3017
▁ீட்டர	-3018
▁d	-3019
▁டர்	-3020
▁ாபாத்	-3021
▁ாலி	-3022
▁V	-3023
▁டக்கு	-3024
▁நீதிம	-3025
▁கவர	-3026
▁மாஸ	-3027
▁ிவா	-3028
▁எனப்	-3029
▁தானி	-3030
▁த்தம்	-3031
▁லுங்க	-3032
▁ழிக்க	-3033
▁ஞா	-3034
▁கணி	-3035
▁மலா	-3036
▁ராச	-3037
he	-3038
▁விர	-3039
▁வம	-3040
▁வழிய	-3041
▁b	-3042
▁திருந	-3043
▁ப்பாட	-3044
▁ti	-3045
▁க்குவ	-3046
▁ாமத்த	-3047
▁er	-3048
▁ோதா	-3049
▁ிகளை	-3050
▁்க்	-3051
▁டில்	-3052
▁ர்வல	-3053
▁ட்சிய	-3054
▁பொறுத	-3055
▁ணிகளை	-3056
▁னவு	-3057
▁டியே	-3058
▁ாகத்த	-3059
▁முட	-3060
▁ள்வ	-3061
▁ங்கம்	-3062
▁ிவச	-3063
▁ந்தா	-3064
▁சிந்த	-3065
▁ஊர்	-3066
▁உயர்ந	-3067
▁ுப்பி	-3068
▁இசை	-3069
▁21	-3070
▁ொம	-3071
▁ிரஸ	-3072
▁ாசு	-3073
▁னித்த	-3074
▁ரியல	-3075
▁களைக்	-3076
▁ான்மை	-3077
▁ுவதில	-3078
▁்தப்ப	-3079
டன	-3080
▁பிரபல	-3081
▁லைக்க	-3082
▁ாஜ்	-3083
▁ேனா	-3084
▁ண்ணா	-3085
▁ோள	-3086
▁ுல்ல	-3087
▁ஈர	-3088
▁ுகைய	-3089
▁விடும	-3090
▁ுவருக	-3091
▁ிந்த	-3092
▁ிதிகள	-3093
▁வுக	-3094
▁ானிய	-3095
▁ஹி	-3096
▁ாசன	-3097
▁ைகள	-3098
▁ணிக்க	-3099
▁%	-3100
▁இடம	-3101
▁புறம	-3102
▁வாதி	-3103
▁ாவிட	-3104
▁களத்த	-3105
▁யல்பட	-3106
▁ிரத்த	-3107
▁g	-3108
▁ொதுக்	-3109
▁இவை	-3110
▁ம்மு	-3111
▁ரக்க	-3112
▁வீரர்	-3113
▁ிலங்க	-3114
al	-3115
▁ூழ	-3116
▁யிடம்	-3117
▁ுவில்	-3118
▁ிருட	-3119
▁வுடன்	-3120
▁ஆடி	-3121
▁ிடத்த	-3122
▁ுத்தம	-3123
▁ைட	-3124
▁உண்ட	-3125
▁பிரத	-3126
▁ுப்த	-3127
▁ப்பிர	-3128
▁விற்க	-3129
▁ிஞ	-3130
▁ிறதா	-3131
▁ிச்சி	-3132
▁19	-3133
▁்கா	-3134
▁ரத்	-3135
▁வால	-3136
▁ெஸ்	-3137
▁ேட்	-3138
▁ானா	-3139
▁ீதா	-3140
▁்மத	-3141
▁சத்த	-3142
▁ேரி	-3143
▁ழுது	-3144
▁ுடியி	-3145
▁ூட்டு	-3146
ொரு	-3147
▁னியா	-3148
▁ஷன்	-3149
▁ஏழ	-3150
▁பச	-3151
▁ோக	-3152
▁மித	-3153
▁ஜித	-3154
▁ன்றாக	-3155
▁வந்தத	-3156
்தா	-3157
▁பயண	-3158
▁ுகத்த	-3159
▁L	-3160
▁வேள	-3161
▁ட்ஸ்	-3162
▁தொலை	-3163
▁22	-3164
▁ர்வம	-3165
▁ெம	-3166
▁ானவர	-3167
▁சாட்ட	-3168
▁வாரி	-3169
▁குண்ட	-3170
▁ர்கள்	-3171
▁னித	-3172
▁யாகும	-3173
▁ர்க்	-3174
▁ிண்ட	-3175
▁ரதி	-3176
▁தற்கா	-3177
▁நகை	-3178
▁றந	-3179
▁ர்ப	-3180
▁ளைய	-3181
▁கெ	-3182
▁ிடு	-3183
▁்சே	-3184
▁அடைய	-3185
▁வப்ப	-3186
▁ன்றும	-3187
am	-3188
▁F	-3189
▁லூர	-3190
▁ிடி	-3191
▁டுகள்	-3192
▁ப்பிய	-3193
▁றைந்த	-3194
▁ைப்பு	-3195
▁ுஷ்	-3196
▁ிகை	-3197
▁ோனி	-3198
▁்டில்	-3199
▁ஜென	-3200
▁ல்ட	-3201
▁ுட்டி	-3202
▁வலம	-3203
▁யக்க	-3204
▁ந்தைய	-3205
▁ட்டாய	-3206
▁கதா	-3207
▁கங்கள	-3208
▁ட்டப்	-3209
▁ியாளர	-3210
▁ோண	-3211
▁லிம	-3212
▁ிகா	-3213
▁நியம	-3214
▁யிர்	-3215
▁ரிசி	-3216
▁ற்றும	-3217
▁ாண்டி	-3218
▁காலி	-3219
▁ாயில	-3220
▁எப்போ	-3221
▁ீத	-3222
▁புத	-3223
▁ரிம	-3224
▁ோக்	-3225
▁இந்தி	-3226
▁ிஐ	-3227
▁ாரம்	-3228
▁யானது	-3229
▁ற்கு	-3230
▁லவ	-3231
▁ுட்டு	-3232
▁றவை	-3233
▁ரம்ப	-3234
▁ப்ள	-3235
▁ஆயிர	-3236
▁ிரா	-3237
▁னிலை	-3238
▁ய்யா	-3239
▁லன	-3240
▁சிரி	-3241
▁போன்	-3242
▁ம்பல	-3243
▁ிவார	-3244
▁ுச	-3245
▁ண்டிக	-3246
▁ீக	-3247
▁ரித	-3248
▁னார்	-3249
▁முர	-3250
▁க்தி	-3251
▁தட்ட	-3252
▁ெட்ட	-3253
▁வைத்	-3254
▁ுச்ச	-3255
▁கத்தா	-3256
▁பத்து	-3257
▁மானது	-3258
▁க்ன	-3259
▁ஆற்ற	-3260
▁ுமென	-3261
▁23	-3262
▁சாத	-3263
▁பில	-3264
▁லப்ப	-3265
▁ர்வைய	-3266
▁பிறக	-3267
▁ார்ட்	-3268
▁உர	-3269
▁ஜர	-3270
▁்வா	-3271
▁ூச்ச	-3272
▁ியலில	-3273
▁ைம	-3274
▁்டா	-3275
▁ைவ	-3276
▁்யூ	-3277
▁பாதி	-3278
▁னப்பட	-3279
▁்க்கு	-3280
▁ேலு	-3281
▁க்கம	-3282
▁அதன்ப	-3283
▁ரஸ்	-3284
▁ாராம	-3285
▁ேஸ	-3286
▁ற்றவர	-3287
▁ாளிக	-3288
▁வேற	-3289
▁்மை	-3290
▁அம்ப	-3291
▁ுதின	-3292
▁டையில	-3293
▁ழிப்ப	-3294
▁தர்	-3295
▁ிவக	-3296
▁வட்ட	-3297
▁ைவிட	-3298
▁ஆப்	-3299
▁ூப்	-3300
▁மிக்க	-3301
▁ப்பது	-3302
▁சர்	-3303
▁ழமை	-3304
▁அவ்வ	-3305
▁ானம்	-3306
▁இணையத	-3307
▁த்தவர	-3308
▁லச	-3309
▁ித்தி	-3310
▁ஏற	-3311
▁மாட	-3312
▁ொடி	-3313
▁மாளி	-3314
▁ுரம்	-3315
▁டம்	-3316
▁லவர	-3317
▁ாகர	-3318
▁ாபி	-3319
▁வினர்	-3320
▁ஆதார	-3321
▁தியாக	-3322
▁ொதுச்	-3323
▁ஸா	-3324
▁ெடு	-3325
▁v	-3326
▁அல்	-3327
▁ோர்ட	-3328
▁ேட	-3329
▁ாரு	-3330
▁திடீர	-3331
▁ரங்கள	-3332
▁ஃபி	-3333
▁டவுள	-3334
▁தத்த	-3335
▁ியான	-3336
▁தளத்த	-3337
▁யோட	-3338
▁்றம	-3339
▁பாரத	-3340
▁ிதிய	-3341
▁டையின	-3342
▁ழங்கு	-3343
▁தால	-3344
▁ேண்ட	-3345
▁ோன்ற	-3346
▁க்கம்	-3347
in	-3348
▁தாய	-3349
▁ர்ண	-3350
▁ேறு	-3351
▁லைவ	-3352
▁வளி	-3353
▁ாரர	-3354
▁ண்மை	-3355
▁ஸ்டா	-3356
▁கடன	-3357
▁சூர	-3358
▁னதா	-3359
▁ிசா	-3360
▁மொத்த	-3361
▁ரிக்க	-3362
▁றப்பு	-3363
▁ியவர்	-3364
▁ுக்கே	-3365
▁ோவ	-3366
▁ரவாத	-3367
▁லால்	-3368
ha	-3369
▁அப்	-3370
▁மாணவ	-3371
▁வார்	-3372
▁ாவி	-3373
▁சனை	-3374
▁ப்த	-3375
▁இவ்வ	-3376
▁குளி	-3377
▁கேரள	-3378
▁கையை	-3379
▁ிகித	-3380
▁க்களை	-3381
▁w	-3382
▁உரை	-3383
▁தொகு	-3384
▁நான்க	-3385
▁ராவ	-3386
▁ைதி	-3387
▁்கான	-3388
▁ஆண்	-3389
▁ிஞ்	-3390
▁ப்பர	-3391
▁யல்ப	-3392
▁ள்க	-3393
▁்ச்	-3394
▁ாகக்	-3395
▁பாத்த	-3396
▁ரும்ப	-3397
▁ணியில	-3398
▁ஸ்டர	-3399
▁ாஷ	-3400
▁ேன	-3401
▁யூர	-3402
▁கொல்	-3403
▁ரிக்	-3404
▁அணு	-3405
▁ட்வ	-3406
▁ரிப	-3407
▁லைய	-3408
▁்ரோ	-3409
▁மிக்	-3410
▁யப்ப	-3411
▁ெயர	-3412
▁ாட்ச	-3413
▁ுப்பு	-3414
▁னே	-3415
▁ர்ல	-3416
▁ிரவ	-3417
▁ண்டர்	-3418
▁இப்	-3419
▁ளிய	-3420
▁பந்த	-3421
▁ப்போ	-3422
▁வொரு	-3423
▁ஸ்திர	-3424
▁ணு	-3425
▁சும	-3426
▁மரா	-3427
▁ாத்	-3428
▁யிலா	-3429
▁ெய்த	-3430
▁கணவ	-3431
▁ரோத	-3432
▁ாண்	-3433
▁தியம்	-3434
▁ப்பதி	-3435
▁வகு	-3436
▁ாறு	-3437
▁லைகள	-3438
▁f	-3439
▁பவர	-3440
▁பழனி	-3441
▁வண்ண	-3442
▁விழு	-3443
▁ட்டல	-3444
▁பான்	-3445
▁ற்பு	-3446
▁ண்டே	-3447
▁வர்த	-3448
▁ிந்தி	-3449
▁H	-3450
▁சாம	-3451
▁ானி	-3452
▁ம்மா	-3453
▁ராஜன	-3454
▁ட்டின	-3455
▁ணர்வு	-3456
▁ைத	-3457
▁ீன்	-3458
▁ளவில	-3459
▁டலா	-3460
▁சம்	-3461
▁றிவ	-3462
▁ார்ட	-3463
▁க்கிர	-3464
▁ுனி	-3465
▁ச்சம	-3466
▁திலி	-3467
▁சிப	-3468
▁தாம	-3469
▁காரிய	-3470
▁கண்	-3471
▁லக்க	-3472
▁ாலும	-3473
il	-3474
▁்ரீ	-3475
▁போதே	-3476
▁மூட	-3477
▁தலைய	-3478
▁ட்டோர	-3479
▁ாற	-3480
▁ீம	-3481
▁ர்ஷ	-3482
▁டியா	-3483
▁ரின்	-3484
▁ப்படவ	-3485
▁ாவில	-3486
▁பரவி	-3487
▁ொழ	-3488
▁யம்	-3489
▁ெரி	-3490
▁ேரு	-3491
▁சைக்க	-3492
▁ரையா	-3493
▁ிரியா	-3494
▁ுபட	-3495
▁கைகள	-3496
▁யன	-3497
▁ுங்கு	-3498
▁70	-3499
▁உற்ச	-3500
▁தாங்க	-3501
▁நிம	-3502
▁மதம	-3503
▁மரி	-3504
▁ணும்	-3505
▁ேளை	-3506
▁ொய்	-3507
▁்திரி	-3508
▁மய	-3509
▁பிரம	-3510
▁ிவின	-3511
▁ேக்க	-3512
▁நேற்ற	-3513
▁றந்த	-3514
▁ேவி	-3515
▁்கி	-3516
▁தரவு	-3517
▁வனத்	-3518
▁பன	-3519
▁டாம	-3520
▁ன்னீ	-3521
▁ற்றம	-3522
▁ிற்ச	-3523
▁ஞ்சம	-3524
▁்கர்	-3525
▁ஜன	-3526
▁கமி	-3527
▁ன்னை	-3528
▁களால்	-3529
▁கம	-3530
▁ுதா	-3531
▁ூங்க	-3532
▁டமை	-3533
▁தேன	-3534
▁ொலை	-3535
▁ந்தன	-3536
▁வுக்க	-3537
▁்நிலை	-3538
▁ீய	-3539
▁பேசின	-3540
▁இதுவ	-3541
▁க்ஸ்	-3542
▁்பிர	-3543
▁மம்	-3544
▁ாய்வ	-3545
▁மண்	-3546
▁மதி	-3547
▁ஆர்வ	-3548
▁மத்த	-3549
▁ளு	-3550
▁டுத	-3551
▁ெச	-3552
▁ெர	-3553
▁தையட	-3554
▁st	-3555
▁ஒட	-3556
▁னவ	-3557
▁ிச்	-3558
▁ுவர	-3559
▁ம்தா	-3560
▁நடிகர	-3561
▁தண்ட	-3562
▁தொற்ற	-3563
es	-3564
▁டாக்	-3565
▁ருவி	-3566
▁ாயு	-3567
▁துரை	-3568
▁கிழமை	-3569
▁O	-3570
▁ஏழு	-3571
▁ழுக	-3572
▁ோக்க	-3573
▁ிசி	-3574
▁ந்தர்	-3575
▁ிரே	-3576
▁ன்க	-3577
▁ியார	-3578
▁ெப்ப	-3579
▁ளிப	-3580
▁tion	-3581
▁கரன்	-3582
▁சுவா	-3583
▁காத	-3584
▁குப	-3585
▁பாவ	-3586
▁ிது	-3587
▁K	-3588
▁ாடல	-3589
▁ியர	-3590
▁சாம்	-3591
▁நாயக	-3592
▁W	-3593
▁ேலி	-3594
▁ரிவா	-3595
▁ாரில்	-3596
▁னக	-3597
▁ோன்	-3598
▁ய்க்க	-3599
▁ல்விய	-3600
▁ாஜி	-3601
▁ிற்ற	-3602
▁மிகப்	-3603
▁லூ	-3604
▁தைச்	-3605
▁பைக்	-3606
▁ிராக	-3607
▁டலாம்	-3608
▁நிலம்	-3609
▁ஆகி	-3610
▁தலா	-3611
▁ந்ந	-3612
▁லிக	-3613
▁ேடி	-3614
▁வாய்	-3615
▁ிந்து	-3616
▁பலி	-3617
▁மாகி	-3618
▁கடத்த	-3619
▁ன்னால	-3620
▁ேப	-3621
▁ரான	-3622
▁ூறு	-3623
▁்டர்	-3624
▁ெரு	-3625
▁ார்ப	-3626
▁ல்லைய	-3627
▁எத	-3628
▁ரைய	-3629
▁டக்கி	-3630
▁ட்டல்	-3631
▁காயம	-3632
▁னும்	-3633
▁ாடா	-3634
▁ேட்ப	-3635
▁க்கே	-3636
▁ர்டு	-3637
▁ிஸ்ட	-3638
▁ென்ன	-3639
▁னிம	-3640
▁ுபா	-3641
▁வெறு	-3642
▁்பல்	-3643
▁27	-3644
▁ழ்க	-3645
▁வரது	-3646
▁டலில்	-3647
▁தினம்	-3648
▁காஷ்	-3649
▁ழக	-3650
▁கும்ப	-3651
▁்தத்த	-3652
▁மந்த	-3653
▁லில்	-3654
▁ட்டம்	-3655
▁திரைய	-3656
▁ல்கிற	-3657
▁டம	-3658
▁்ஹ	-3659
▁லர்	-3660
▁வள்	-3661
▁பொன்	-3662
▁னிக்க	-3663
▁ஆண	-3664
▁ம்மி	-3665
▁மாகும	-3666
▁28	-3667
▁னாக	-3668
▁முய	-3669
▁எண்	-3670
▁பலன	-3671
▁ாபு	-3672
▁ன்பத	-3673
▁இத்த	-3674
▁றுமை	-3675
▁சண்	-3676
▁வுன	-3677
▁வியல	-3678
▁கத்தி	-3679
▁கற்	-3680
▁ரையி	-3681
▁ர்ஸ்	-3682
▁க்கர்	-3683
▁போவத	-3684
▁ேந்த	-3685
▁துல	-3686
▁புக	-3687
▁ுமெ	-3688
▁ங்களா	-3689
▁ஆலோச	-3690
▁மணிய	-3691
▁ப்பணி	-3692
▁விடுத	-3693
▁ாலைகள	-3694
▁்றத்த	-3695
▁ூற	-3696
▁்னா	-3697
▁டியின	-3698
▁ல்லிய	-3699
▁தரும	-3700
▁்திரம	-3701
▁200	-3702
▁பரா	-3703
▁தார்	-3704
▁திர்	-3705
▁மாரி	-3706
▁வினர	-3707
▁ர்ஸ	-3708
▁்கோ	-3709
▁ப்பெ	-3710
▁ீச்ச	-3711
▁்ணன்	-3712
▁டுங்க	-3713
▁ன்றத்	-3714
▁வாதம்	-3715
▁ாடக	-3716
▁ேர்	-3717
▁செய்	-3718
▁மன்ற	-3719
▁வரவே	-3720
▁ண்டிய	-3721
▁ெடி	-3722
▁ாலின	-3723
▁ழித்த	-3724
▁சரவ	-3725
▁கட்டம	-3726
▁ிலைகள	-3727
▁26	-3728
▁ழ்	-3729
▁ருவர	-3730
▁களைத்	-3731
▁நேரம்	-3732
▁முருக	-3733
▁விந்த	-3734
▁80	-3735
▁தற	-3736
▁ிண	-3737
▁வால்	-3738
▁ுள்ளா	-3739
▁ீனி	-3740
▁ன்னர	-3741
▁ிறகு	-3742
▁ஸ்ஸ	-3743
▁்டோ	-3744
▁்பூர	-3745
▁முற	-3746
▁ியமாக	-3747
nt	-3748
▁டான	-3749
▁ுறைகள	-3750
▁கவே	-3751
▁ிஎஸ்	-3752
▁ெண்ண	-3753
▁்கார	-3754
▁ார்க்	-3755
▁்பாளர	-3756
▁்பிடி	-3757
▁ிப	-3758
▁க்கார	-3759
▁ிளம்ப	-3760
re	-3761
▁ாப	-3762
▁ிஸ்த	-3763
▁ேக	-3764
▁ரோட	-3765
▁ாதவ	-3766
▁ெந்த	-3767
▁வீட	-3768
▁ாலம	-3769
▁ம்பு	-3770
▁ெவ்வ	-3771
▁டையும	-3772
▁ானத்த	-3773
ka	-3774
▁ஜீ	-3775
▁னச	-3776
▁ணன்	-3777
▁னைய	-3778
▁க்கெ	-3779
hi	-3780
ra	-3781
▁அப	-3782
▁பதற	-3783
▁ஸ்வரர	-3784
▁ின்றத	-3785
▁ில்லா	-3786
▁வதா	-3787
▁ோயி	-3788
▁டுகள	-3789
▁திகா	-3790
▁ிடைய	-3791
▁மாக்க	-3792
▁லுள்ள	-3793
▁ழம	-3794
▁ாங்	-3795
▁ிரை	-3796
▁ிழந்த	-3797
▁சுக	-3798
▁டது	-3799
▁பரம	-3800
▁லக்	-3801
▁ஐந்த	-3802
▁காக்க	-3803
▁டாவ	-3804
▁நோய்	-3805
▁ரித்	-3806
▁35	-3807
▁ஏத	-3808
▁ந்	-3809
▁லோக	-3810
▁மிர	-3811
▁றுக்க	-3812
▁யந்த	-3813
▁ரிப்ப	-3814
▁டெல	-3815
▁ணாம	-3816
▁லிப	-3817
▁ழுத	-3818
▁ாவல	-3819
▁ெண்	-3820
▁கூடும	-3821
▁ழுதிய	-3822
▁ியாகு	-3823
▁கத	-3824
▁ஸி	-3825
▁்பவ	-3826
▁ாக்ட	-3827
▁ிதாக	-3828
▁்புவ	-3829
▁டைக	-3830
▁ச்சை	-3831
▁க்கிட	-3832
▁பவ	-3833
▁ஆசி	-3834
▁பல்	-3835
▁ரிட	-3836
▁ண்ணை	-3837
▁ருவத	-3838
▁ெய்ய	-3839
▁தையும	-3840
▁Vi	-3841
▁ேசி	-3842
▁ேத்	-3843
▁காரம்	-3844
▁ஆனா	-3845
▁தரக	-3846
▁த்தம	-3847
▁க்குழ	-3848
▁்ந்தி	-3849
om	-3850
▁ிளை	-3851
▁்லா	-3852
▁புறம்	-3853
▁ிந	-3854
▁பாத	-3855
▁மன்	-3856
▁மின	-3857
▁ாவா	-3858
▁்போ	-3859
▁டுவத	-3860
▁னில்	-3861
▁ாரத்	-3862
as	-3863
▁லார	-3864
▁க்கோ	-3865
▁மாச	-3866
▁வென	-3867
▁த்தன	-3868
▁டாமல்	-3869
▁ிப்பத	-3870
▁ிரப்ப	-3871
▁ோஸ	-3872
▁தற்	-3873
▁லக்கு	-3874
▁யக	-3875
▁ண்டன	-3876
▁பாலி	-3877
▁ிகார	-3878
▁ையை	-3879
▁ஷ்டி	-3880
▁கெட்ட	-3881
ay	-3882
▁ராட	-3883
▁ுளை	-3884
▁ழுவ	-3885
▁்கை	-3886
▁சுப்	-3887
▁ஜின	-3888
▁ாசி	-3889
▁ப்பந	-3890
▁வணங்க	-3891
▁75	-3892
▁மட	-3893
▁ஷம	-3894
▁ஏதோ	-3895
▁மாவ	-3896
▁லத்	-3897
▁ுடு	-3898
▁மலைய	-3899
▁வசம	-3900
▁ிவே	-3901
▁வுர	-3902
▁ராட்	-3903
▁நப	-3904
▁டிரா	-3905
▁பழங்க	-3906
▁ன்சி	-3907
▁லித்	-3908
▁ையாக	-3909
▁வையில	-3910
▁லுக	-3911
▁சாரி	-3912
▁ையில	-3913
▁ள்கிற	-3914
▁விடுக	-3915
▁திப	-3916
▁ிகர	-3917
▁காச	-3918
▁u	-3919
▁ீன	-3920
▁ைப	-3921
▁ரைச	-3922
▁பூர்	-3923
▁க்கில	-3924
▁்டிக்	-3925
▁ிறை	-3926
▁்டை	-3927
▁்றை	-3928
▁சியா	-3929
▁டியோ	-3930
▁நெல்	-3931
▁முகவ	-3932
▁்ட்ட	-3933
▁ஏம	-3934
▁ரணி	-3935
▁ப்பவர	-3936
ou	-3937
▁U	-3938
▁னீ	-3939
▁கரா	-3940
▁ாமர	-3941
▁டிகள	-3942
ve	-3943
▁and	-3944
▁தேர்	-3945
ic	-3946
▁ொள	-3947
▁்னி	-3948
▁்னர்	-3949
▁்பும்	-3950
▁சப்	-3951
▁சூட	-3952
▁காலம	-3953
▁ுவோம்	-3954
▁னிட	-3955
▁லர்கள	-3956
▁ரஹ	-3957
▁எது	-3958
▁ளாவ	-3959
▁ுண	-3960
▁டையை	-3961
▁கிவிட	-3962
▁ிவில்	-3963
▁போவ	-3964
▁்வத	-3965
▁வரைய	-3966
▁ன்னார	-3967
▁31	-3968
▁நேர்	-3969
▁நிறுவ	-3970
▁ேண்டி	-3971
▁டூ	-3972
▁உலா	-3973
▁கோய	-3974
▁றைவ	-3975
▁ன்னதா	-3976
▁மூலம்	-3977
▁500	-3978
▁னது	-3979
▁லிட	-3980
▁ூம	-3981
▁ுமண	-3982
▁ொள்	-3983
▁வரவேற	-3984
le	-3985
▁ரர்	-3986
▁ுது	-3987
▁த்தட	-3988
▁90	-3989
▁பட்	-3990
▁னிக்	-3991
▁பாப	-3992
▁ுழு	-3993
▁ஸ்டி	-3994
▁்டாக	-3995
▁ிலக்க	-3996
ad	-3997
▁னல்	-3998
▁ாரண	-3999
▁ாக்கம	-4000
▁45	-4001
▁ரொ	-4002
▁சான	-4003
▁ோவத	-4004
▁க்கட	-4005
▁நாளி	-4006
▁ிம்ப	-4007
▁டர்கள	-4008
▁கோள	-4009
▁யாள	-4010
▁அணிய	-4011
▁தானம	-4012
▁பிரே	-4013
▁லைத்த	-4014
▁ீட்டி	-4015
▁அட்	-4016
▁கவு	-4017
▁லைப்	-4018
▁ார்வ	-4019
▁ெரும	-4020
▁மங்கள	-4021
▁பம	-4022
ுடன	-4023
▁சமா	-4024
▁ேசிய	-4025
▁ச்சுவ	-4026
▁ீஸ	-4027
▁நித	-4028
▁பான	-4029
▁பீட	-4030
▁ளவர	-4031
▁ீனா	-4032
▁ச்சின	-4033
ew	-4034
▁29	-4035
▁னார	-4036
▁ாசம	-4037
▁ெர்	-4038
▁ண்டல	-4039
▁ய்வு	-4040
▁to	-4041
▁திவ	-4042
▁ழிப	-4043
▁ுளி	-4044
▁கரன	-4045
▁டல்	-4046
▁னாத	-4047
▁ன்கு	-4048
▁ழிவு	-4049
▁்பின	-4050
▁காத்த	-4051
▁க்குட	-4052
▁ழிபாட	-4053
▁சாக	-4054
▁பேரு	-4055
▁ரவில்	-4056
▁ருட	-4057
▁வடக	-4058
▁ிணை	-4059
▁விகள	-4060
▁ொள்வ	-4061
▁யேற	-4062
▁ூட்	-4063
▁உங்க	-4064
▁ொந்த	-4065
ri	-4066
▁பழக	-4067
▁ற்றா	-4068
▁வாட்	-4069
▁ுன்பு	-4070
▁்று	-4071
▁ண்ணி	-4072
▁படிய	-4073
▁ரும்	-4074
▁ஸ்தி	-4075
▁ொன்ன	-4076
▁பான்ம	-4077
▁்றுப்	-4078
.5	-4079
▁+	-4080
▁ரவு	-4081
▁க்கற	-4082
▁ஈடுப	-4083
▁ியவர	-4084
▁கோட்ட	-4085
ro	-4086
▁ரூப	-4087
▁ீம்	-4088
▁ீஸ்	-4089
▁ெல்வம	-4090
▁பூச	-4091
▁லது	-4092
▁ேல்	-4093
▁வைகள	-4094
▁ட்டுவ	-4095
▁பஞ்சா	-4096
▁அமல	-4097
▁ேவ	-4098
▁லீச	-4099
▁சிபி	-4100
▁ன்றை	-4101
▁டுகிற	-4102
▁ஓவ	-4103
▁கூடி	-4104
▁யமான	-4105
ed	-4106
▁வுத	-4107
▁ீதம	-4108
▁னப்ப	-4109
▁ணங்கள	-4110
en	-4111
▁கிண	-4112
▁சைய	-4113
▁ிடா	-4114
▁சில்	-4115
▁நாடக	-4116
▁பியா	-4117
▁ல்லு	-4118
▁ழங்க	-4119
▁ிருத	-4120
▁்பாள	-4121
▁சுக்க	-4122
▁னிடம்	-4123
▁of	-4124
▁எச்	-4125
▁விடம	-4126
▁த்தார	-4127
்ப்	-4128
▁மாதம	-4129
▁al	-4130
▁ிறு	-4131
▁ட்கள	-4132
▁திபதி	-4133
▁அர	-4134
▁ing	-4135
▁ாயி	-4136
▁ிகு	-4137
▁ளப்ப	-4138
▁டியில	-4139
▁ழுக்க	-4140
▁h	-4141
▁ல்லை	-4142
▁ூழல்	-4143
▁ீட	-4144
▁நிப	-4145
▁வத்	-4146
▁ுல்	-4147
▁யங்கள	-4148
ol	-4149
▁ணா	-4150
▁300	-4151
▁ாற்ற	-4152
▁டியாக	-4153
▁்றின்	-4154
▁ாலு	-4155
▁கல்வ	-4156
▁ேண்டு	-4157
▁சிம	-4158
▁லாத	-4159
▁குவா	-4160
▁ஸ்லா	-4161
▁்மா	-4162
▁்ளே	-4163
▁சின்	-4164
▁பில்	-4165
▁ன்னீர	-4166
▁ிரதம	-4167
▁ிவாக	-4168
▁லங்கள	-4169
▁வரத	-4170
▁ாச்ச	-4171
▁ஒன்றி	-4172
▁ியாகி	-4173
▁வேட	-4174
▁ாதக	-4175
▁இடைய	-4176
▁்கறி	-4177
▁ரையில	-4178
▁ாக்டர	-4179
▁ாட்டி	-4180
னால	-4181
▁இள	-4182
▁எழ	-4183
▁ஹே	-4184
▁ன்வ	-4185
▁லின	-4186
▁க்கல	-4187
▁ஒவ்வொ	-4188
▁ிட்டா	-4189
▁36	-4190
▁ேண	-4191
▁ைர	-4192
▁பிசி	-4193
▁பிள்	-4194
▁ராமத	-4195
ce	-4196
▁ோழ	-4197
▁அலி	-4198
▁யோர	-4199
▁ுறி	-4200
▁சய	-4201
▁ியின்	-4202
▁காணி	-4203
▁யாளர்	-4204
▁y	-4205
▁ஸ்ர	-4206
▁்டீ	-4207
▁தத்தை	-4208
▁வட்டம	-4209
▁மம	-4210
▁இளம	-4211
▁பின	-4212
▁ஸ்ல	-4213
▁ியே	-4214
▁்ணு	-4215
▁ய்கள	-4216
▁ள்கள	-4217
▁யம்மன	-4218
▁வந்தன	-4219
▁ூரில்	-4220
▁ோப	-4221
▁சால	-4222
▁தீர	-4223
▁ோத்	-4224
▁கிரா	-4225
▁தாரம	-4226
▁பள்ள	-4227
▁்பப்	-4228
▁ஆணை	-4229
▁ிலோ	-4230
▁ங்கம	-4231
▁ராக்	-4232
▁்மன்	-4233
▁்டுகள	-4234
▁ஏக்	-4235
▁ுட்ப	-4236
▁களைச்	-4237
▁nt	-4238
▁ஏவ	-4239
▁சாட	-4240
▁னால்	-4241
▁ஸார்	-4242
▁ுழுவ	-4243
▁ென்ற	-4244
▁New	-4245
▁ுர்	-4246
▁ரமா	-4247
▁வுட	-4248
▁மேலா	-4249
▁ொருள	-4250
▁உள்ளா	-4251
▁போகிற	-4252
▁விடம்	-4253
▁ாவும்	-4254
▁அழி	-4255
▁லைன	-4256
ia	-4257
▁ளர	-4258
▁ேறி	-4259
▁ையர	-4260
▁பேரி	-4261
▁விசா	-4262
▁டுவார	-4263
▁ுப்பை	-4264
▁32	-4265
▁நூ	-4266
▁ன்களை	-4267
▁பாஸ	-4268
▁சாதன	-4269
▁ப்பொ	-4270
▁ுமாற	-4271
▁தைக்க	-4272
▁ூட்டி	-4273
it	-4274
▁tan	-4275
▁மல்	-4276
▁விலி	-4277
▁டைகள்	-4278
at	-4279
▁ய்வ	-4280
▁்லி	-4281
▁தேசம	-4282
▁ன்னத	-4283
▁பவர்	-4284
▁டய	-4285
▁ுடை	-4286
▁ிதான	-4287
▁குதிய	-4288
de	-4289
et	-4290
▁டனை	-4291
▁ரண்	-4292
▁்ரே	-4293
▁்ப்பத	-4294
▁ராப	-4295
▁ையம	-4296
▁ரிதா	-4297
▁கையாள	-4298
▁்ப்பா	-4299
▁tor	-4300
▁காப்	-4301
▁றந்து	-4302
▁ஜய	-4303
▁மும	-4304
▁ொங்க	-4305
▁லீசார	-4306
▁ுகிறத	-4307
▁ுஜ	-4308
▁கத்	-4309
▁டமா	-4310
▁வாட	-4311
▁விப	-4312
▁குகள	-4313
▁சரிய	-4314
▁றிவு	-4315
▁பட்டா	-4316
▁ுவதும	-4317
▁ுறவ	-4318
▁்னர	-4319
▁வானி	-4320
▁ங்கும	-4321
▁பதவ	-4322
▁ுவன	-4323
▁காவல	-4324
▁ிஷ்	-4325
▁the	-4326
▁க்ஷ	-4327
▁ுள்	-4328
▁காவி	-4329
▁பண்ட	-4330
▁ரமாக	-4331
▁ராய்	-4332
▁மையான	-4333
▁ுறைப்	-4334
BC	-4335
▁48	-4336
▁or	-4337
▁ெக	-4338
▁ருச	-4339
▁ாகா	-4340
▁News	-4341
▁ாழ்வ	-4342
▁அதிர்	-4343
▁சத்து	-4344
▁ணித்த	-4345
▁தாண்ட	-4346
▁படியே	-4347
▁்பிக்	-4348
ai	-4349
▁J	-4350
▁k	-4351
▁அதன	-4352
▁சதி	-4353
▁ரசு	-4354
▁வளர்	-4355
▁அலங்க	-4356
▁தெர	-4357
▁வீத	-4358
▁ெனி	-4359
▁எவ்வ	-4360
▁பதவிய	-4361
▁அந	-4362
▁ோற	-4363
▁லும	-4364
▁கர்கள	-4365
▁ுபட்ட	-4366
▁ழல	-4367
▁புட	-4368
▁்கே	-4369
▁Vika	-4370
▁ர்வா	-4371
▁டிந்த	-4372
▁த்தல்	-4373
▁றா	-4374
▁ீற	-4375
▁ோச	-4376
▁அணை	-4377
▁டிவ	-4378
▁தீவ	-4379
▁மாய	-4380
▁ிரன்	-4381
▁பட்டு	-4382
▁ம்பிய	-4383
▁on	-4384
▁ரசா	-4385
▁ிறன	-4386
▁லைவர	-4387
▁ிடுவ	-4388
▁ூத	-4389
▁தனை	-4390
▁ிபர	-4391
▁காது	-4392
▁கேட்	-4393
▁சென்	-4394
▁ிர்த	-4395
▁ரைக்க	-4396
▁55	-4397
▁ிஎ	-4398
▁கழ்	-4399
▁டக்	-4400
▁ல்ம	-4401
▁ாதம்	-4402
▁ராஷ	-4403
▁்செ	-4404
▁யுடன	-4405
▁்கிர	-4406
▁சிப்ப	-4407
▁்பட்ட	-4408
▁அக	-4409
▁நோய	-4410
▁யணம	-4411
▁ூரி	-4412
▁ச்சர்	-4413
▁வாய	-4414
▁ிரச	-4415
▁கங்க	-4416
▁பத்தா	-4417
▁்ப்பை	-4418
▁திபர	-4419
▁னைகள	-4420
▁ருகிற	-4421
▁ாளராக	-4422
▁ிப்பா	-4423
oc	-4424
▁ாகம	-4425
▁றைகள	-4426
▁ப்பதை	-4427
▁ஆழ	-4428
▁மர்	-4429
▁ரேட	-4430
▁லையை	-4431
▁ல்வா	-4432
▁்மான	-4433
▁காற்ற	-4434
▁்திரு	-4435
▁ெயி	-4436
▁ோப்	-4437
▁தையை	-4438
▁ற்சி	-4439
▁ீரிய	-4440
▁பணத்த	-4441
▁ருவர்	-4442
▁ஆலோ	-4443
▁இரவ	-4444
▁கனவ	-4445
▁ாவை	-4446
▁ேப்	-4447
▁பாத்	-4448
▁பேசு	-4449
▁்வின	-4450
▁குந்த	-4451
▁கோவில	-4452
▁ினத்த	-4453
▁்பந்த	-4454
▁எடை	-4455
▁சேன	-4456
▁வரா	-4457
▁ாதை	-4458
▁ப்தி	-4459
▁யுள்	-4460
▁்ஸ்ட	-4461
▁முகம்	-4462
▁சுட	-4463
▁ுமன	-4464
▁ொற்ற	-4465
▁ுவின்	-4466
▁தாள	-4467
▁மடை	-4468
▁ரியம	-4469
▁ருகி	-4470
▁ன்றது	-4471
▁&	-4472
▁37	-4473
▁150	-4474
▁ணம்	-4475
▁பன்	-4476
▁ூத்	-4477
▁சொல்	-4478
▁ற்கா	-4479
▁ீர்க	-4480
ாத	-4481
▁33	-4482
▁re	-4483
▁te	-4484
▁ளஹ	-4485
▁அரை	-4486
▁்டெ	-4487
▁்களா	-4488
▁ஏற்று	-4489
▁யப்பட	-4490
▁உயி	-4491
▁ந்நி	-4492
▁ட்சித	-4493
▁ருவாக	-4494
▁ேசத்த	-4495
▁காற	-4496
▁கோட	-4497
▁ுரு	-4498
▁ல்லவ	-4499
▁ாளும	-4500
▁ெட்ர	-4501
▁ையின	-4502
▁ொழில	-4503
▁்புக்	-4504
▁ண்டவ	-4505
▁நெரு	-4506
▁னிப்	-4507
▁ையான	-4508
▁்திக்	-4509
▁ுள	-4510
▁ெட	-4511
▁BBC	-4512
▁சாய	-4513
▁்மு	-4514
▁ழுவி	-4515
▁வுகள	-4516
▁உயிரி	-4517
▁ஜு	-4518
▁பஸ்	-4519
▁வதை	-4520
▁தலைம	-4521
▁பாரா	-4522
▁பார்	-4523
▁ாகத்	-4524
▁ைக்கா	-4525
▁ணவ	-4526
▁றாம	-4527
▁ட்டாள	-4528
ho	-4529
▁ரந	-4530
▁கனி	-4531
▁லான	-4532
▁ீரி	-4533
▁றிக்க	-4534
▁ிற்று	-4535
is	-4536
▁ழர	-4537
▁்வர	-4538
▁ரிவு	-4539
▁ின்னர	-4540
▁யீட	-4541
▁ன்றே	-4542
▁வெல்	-4543
▁ஐடி	-4544
▁ாயம	-4545
▁குப்	-4546
▁முகம	-4547
▁ுதுக	-4548
▁தியில	-4549
▁பாக்க	-4550
▁ரியம்	-4551
▁ூட்டம	-4552
▁ீண	-4553
▁அழு	-4554
▁கோவ	-4555
▁ன்பு	-4556
▁விக்	-4557
▁த்திவ	-4558
▁வங்கள	-4559
▁ுச்சி	-4560
▁ுடியு	-4561
▁ர்சன	-4562
▁ியர்	-4563
▁யிரம்	-4564
▁ஏறி	-4565
▁றைய	-4566
▁ிசோ	-4567
▁ைந்த	-4568
▁41	-4569
▁தவு	-4570
▁அதேப	-4571
▁கொழு	-4572
▁ுமன்	-4573
▁மையாக	-4574
▁ுக்கம	-4575
▁ுக்கா	-4576
▁இதர	-4577
▁ஏழை	-4578
▁குவ	-4579
▁சேவ	-4580
▁ிடை	-4581
▁ிமா	-4582
▁ூடி	-4583
▁்ப்	-4584
▁ண்டார	-4585
▁ன்கள்	-4586
▁ரத்தை	-4587
▁ாக்கள	-4588
▁உக	-4589
▁சின	-4590
▁தயா	-4591
▁ம்ஸ	-4592
▁ழில	-4593
▁வாற	-4594
▁கையா	-4595
▁னத்த	-4596
▁றைவு	-4597
▁ில்லி	-4598
▁ெட்டு	-4599
▁னத	-4600
▁வற	-4601
▁கிப	-4602
▁ைகள்	-4603
▁க்காட	-4604
▁ஜம	-4605
▁அலை	-4606
▁படு	-4607
▁லீஸ	-4608
▁ிபு	-4609
▁்மி	-4610
▁களுடன	-4611
▁பவு	-4612
▁மருத	-4613
▁ஸ்தா	-4614
▁்வார	-4615
▁நாங்க	-4616
▁ீட்டை	-4617
▁சிர	-4618
▁ுண்	-4619
▁்பக	-4620
▁டுபட	-4621
▁ியப்ப	-4622
▁அய	-4623
▁ானத	-4624
▁்ணம	-4625
▁ின்ப	-4626
▁ஸ்லாம	-4627
▁ாரத்த	-4628
▁யவ	-4629
▁டிப	-4630
▁புன	-4631
▁மிழ	-4632
▁ருஷ	-4633
▁வகா	-4634
▁இங்க	-4635
▁கைகளை	-4636
▁புத்த	-4637
od	-4638
ோம	-4639
▁பிச	-4640
▁லைந	-4641
▁ேகம	-4642
▁இஸ்ர	-4643
▁தமான	-4644
▁ம்பவ	-4645
▁றுகள	-4646
▁ிருக	-4647
▁்காண	-4648
▁ுக்கோ	-4649
▁ையின்	-4650
▁ானை	-4651
▁ேடு	-4652
▁ணப்ப	-4653
▁டத்த	-4654
▁டியை	-4655
▁நாடு	-4656
▁ய்ப்	-4657
▁ரணத்த	-4658
▁ல்லிக	-4659
▁..	-4660
▁லால	-4661
▁ாவு	-4662
▁ுவே	-4663
▁ூன்	-4664
▁அழுத	-4665
▁மறுப	-4666
▁ீர்ம	-4667
▁ுற்ற	-4668
▁கின்ற	-4669
▁துள்ள	-4670
▁விருத	-4671
▁ுத்தா	-4672
▁்பெண்	-4673
▁400	-4674
▁எளி	-4675
▁ஓம்	-4676
▁ருத	-4677
▁்த்	-4678
▁்வி	-4679
▁ருட்	-4680
▁ோகம்	-4681
▁ப்பெர	-4682
▁போய	-4683
▁ரெட	-4684
▁வர்க	-4685
▁ையாள	-4686
▁ச்சிய	-4687
▁்கப்ப	-4688
ov	-4689
▁ஒன்	-4690
▁தினம	-4691
▁பிரசா	-4692
▁ைச	-4693
▁குச	-4694
▁ிதர	-4695
▁ரியை	-4696
▁ராஷ்ட	-4697
▁றைக்க	-4698
▁ைகளில	-4699
▁ed	-4700
▁ஷி	-4701
▁துள	-4702
▁ரேஷ	-4703
▁ர்ய	-4704
▁ைன்	-4705
▁ட்பா	-4706
▁ட்டதா	-4707
▁ண்டில	-4708
▁ரிசோத	-4709
▁ிலையை	-4710
▁பக்	-4711
▁	-4712
்	-4713
க	-4714
த	-4715
ி	-4716
ு	-4717
ர	-4718
ப	-4719
ட	-4720
ம	-4721
ா	-4722
வ	-4723
ல	-4724
ன	-4725
ை	-4726
ய	-4727
ற	-4728
ள	-4729
ச	-4730
ந	-4731
.	-4732
அ	-4733
ே	-4734
ண	-4735
இ	-4736
ெ	-4737
ோ	-4738
,	-4739
எ	-4740
ங	-4741
ொ	-4742
ழ	-4743
ீ	-4744
ூ	-4745
ஆ	-4746
உ	-4747
ஸ	-4748
ஜ	-4749
ஒ	-4750
0	-4751
2	-4752
1	-4753
ஏ	-4754
ஷ	-4755
"	-4756
-	-4757
5	-4758
3	-4759
ஹ	-4760
ஞ	-4761
:	-4762
4	-4763
?	-4764
ஓ	-4765
'	-4766
9	-4767
6	-4768
a	-4769
7	-4770
8	-4771
e	-4772
ஊ	-4773
)	-4774
(	-4775
!	-4776
ஐ	-4777
`	-4778
i	-4779
n	-4780
o	-4781
t	-4782
ஈ	-4783
ஃ	-4784
r	-4785
s	-4786
l	-4787
d	-4788
h	-4789
;	-4790
c	-4791
u	-4792
m	-4793
A	-4794
ௌ	-4795
S	-4796
p	-4797
C	-4798
I	-4799
T	-4800
g	-4801
P	-4802
y	-4803
M	-4804
B	-4805
%	-4806
N	-4807
D	-4808
R	-4809
v	-4810
k	-4811
E	-4812
w	-4813
f	-4814
b	-4815
O	-4816
/	-4817
G	-4818
L	-4819
‛	-4820
F	-4821
V	-4822
H	-4823
K	-4824
U	-4825
W	-4826
j	-4827
J	-4828
+	-4829
x	-4830
Y	-4831
&	-4832
z	-4833
X	-4834
#	-4835
*	-4836
Q	-4837
Z	-4838
ஶ	-4839
@	-4840
q	-4841
=	-4842
ा	-4843
_	-4844
₹	-4845
र	-4846
े	-4847
ஔ	-4848
[	-4849
]	-4850
क	-4851
न	-4852
	-4853
्	-4854
$	-4855
ी	-4856
म	-4857
ि	-4858
प	-4859
स	-4860
ं	-4861
ह	-4862
ो	-4863
­	-4864
	-4865
त	-4866
ल	-4867
व	-4868
द	-4869
>	-4870
ग	-4871
௦	-4872
य	-4873
ज	-4874
ब	-4875
£	-4876
श	-4877
ू	-4878
भ	-4879
•	-4880
ા	-4881
~	-4882
°	-4883
ए	-4884
ट	-4885
ध	-4886
	-4887
ु	-4888
ન	-4889
😂	-4890
\	-4891
§	-4892
अ	-4893
ख	-4894
च	-4895
ै	-4896
મ	-4897
‍	-4898
·	-4899
ل	-4900
इ	-4901
ड	-4902
ण	-4903
ष	-4904
જ	-4905
ે	-4906
௧	-4907
௫	-4908
★	-4909
×	-4910
é	-4911
ا	-4912
आ	-4913
ई	-4914
थ	-4915
ौ	-4916
ક	-4917
ત	-4918
ર	-4919
ી	-4920
્	-4921
⁠	-4922
❔	-4923
	-4924
	-4925
<	-4926
õ	-4927
÷	-4928
š	-4929
و	-4930
ي	-4931
औ	-4932
घ	-4933
छ	-4934
़	-4935
।	-4936
ટ	-4937
ય	-4938
વ	-4939
સ	-4940
௨	-4941
௩	-4942
′	-4943
⁄	-4944
●	-4945
◾	-4946
⦁	-4947
^	-4948
{	-4949
}	-4950
®	-4951
Á	-4952
å	-4953
í	-4954
ñ	-4955
ô	-4956
ö	-4957
ł	-4958
ō	-4959
ʻ	-4960
̈	-4961
إ	-4962
د	-4963
ر	-4964
س	-4965
م	-4966
ه	-4967
उ	-4968
फ	-4969
અ	-4970
આ	-4971
ઉ	-4972
ઓ	-4973
ખ	-4974
ણ	-4975
થ	-4976
દ	-4977
પ	-4978
ફ	-4979
ભ	-4980
લ	-4981
િ	-4982
ો	-4983
௬	-4984
௭	-4985
௹	-4986
‟	-4987
€	-4988
⏩	-4989
	-4990
	-4991
👇	-4992
💥	-4993
😊	-4994
😐	-4995
😲	-4996
