<unk>	0
<s>	0
</s>	0
.	-3.01961
,	-3.61789
ம்	-4.28525
கள்	-4.91813
ு	-5.01681
க்	-5.01897
ப்	-5.10465
து	-5.26664
த்	-5.35271
ய	-5.36336
ும்	-5.36976
்	-5.3982
க	-5.45686
▁இந்த	-5.47979
▁	-5.52202
ன்	-5.5328
ல்	-5.56171
யில்	-5.62985
க்கு	-5.63624
ி	-5.66553
▁என்று	-5.74179
ர்	-5.74523
த்தில்	-5.76401
க்க	-5.77475
களை	-5.79018
வ	-5.79382
ர	-5.83315
▁ஒரு	-5.848
▁அ	-5.85193
யை	-5.85215
ை	-5.85667
த்த	-5.87405
▁மற்றும்	-5.8982
ன	-5.91014
ம	-5.92965
ஸ்	-5.94879
த	-6.00861
ில்	-6.03305
ச்	-6.03979
▁என	-6.08266
த்தை	-6.09578
ட்	-6.10459
▁அவர்	-6.12389
ிய	-6.13909
ார்	-6.14239
"	-6.14266
டி	-6.16606
-	-6.19131
ல	-6.21627
:	-6.21745
யின்	-6.2197
ா	-6.22586
▁ப	-6.22778
ப	-6.22819
தி	-6.2374
ங்கள்	-6.25465
மாக	-6.25499
வை	-6.25576
சி	-6.27192
▁க	-6.2766
▁வேண்டும்	-6.29405
▁"	-6.33262
ின்	-6.34263
ட	-6.35445
ட்ட	-6.35812
ந்த	-6.36638
?	-6.36954
ரி	-6.39064
▁அந்த	-6.41103
தான்	-6.42079
▁ஆ	-6.4221
ப்ப	-6.42424
வி	-6.43215
களில்	-6.45064
▁ச	-6.45636
ச	-6.45985
▁உள்ள	-6.47446
▁இ	-6.48016
யாக	-6.48213
யும்	-6.49066
▁இது	-6.4987
த்து	-6.49936
பி	-6.49974
ே	-6.50698
▁ஆனால்	-6.5188
களின்	-6.52936
▁பா	-6.53014
யா	-6.53655
▁பல	-6.58423
களுக்கு	-6.5874
மை	-6.58819
▁உ	-6.59685
னர்	-6.60384
டு	-6.62533
த்தின்	-6.63331
ப்பு	-6.6404
▁என்ற	-6.64249
மா	-6.6501
ுக்கு	-6.65029
வர்	-6.6555
வே	-6.66683
ங்க	-6.66751
ரா	-6.6687
▁ம	-6.68349
லி	-6.68604
▁கடந்த	-6.68663
வில்	-6.68687
ப்பட்ட	-6.69305
மான	-6.70123
▁வி	-6.70478
▁நிலையில்	-6.70699
தா	-6.70907
வு	-6.71009
▁(	-6.73124
▁இருந்து	-6.74238
ால்	-6.75172
வின்	-6.75629
வா	-6.75755
▁கா	-6.76878
▁அரசு	-6.77503
ுள்ளது	-6.79121
ரை	-6.79625
▁சி	-6.79827
▁முதல்	-6.79953
!	-6.80464
ற	-6.80503
)	-6.816
வும்	-6.81708
னி	-6.8201
லை	-6.82079
க்கும்	-6.85191
▁த	-6.85205
▁வந்த	-6.85547
ழ	-6.87347
▁எ	-6.87596
▁ந	-6.88259
கா	-6.88284
தை	-6.88527
தாக	-6.88598
லா	-6.88645
▁சு	-6.88713
▁சில	-6.88999
ள	-6.90659
ங்களை	-6.9157
பா	-6.92417
▁செய்ய	-6.94266
▁வர	-6.95021
▁மா	-6.9514
▁மேலும்	-6.95336
னை	-6.96249
வில்லை	-6.96403
▁உள்ளது	-6.97147
▁இருந்த	-6.97285
▁ஆண்டு	-6.97427
ான	-6.97732
ரு	-6.98622
ட்டி	-6.99455
மி	-6.99749
▁கு	-6.99834
▁மு	-6.99973
ுள்ளார்	-7.00153
'	-7.00299
ாக	-7.00329
களும்	-7.00926
▁குறித்து	-7.03283
▁என்ன	-7.03583
▁பாஜக	-7.048
த்திற்கு	-7.05351
▁வ	-7.05532
கி	-7.06275
▁செய்து	-7.07375
ட்டு	-7.07805
▁இருக்கும்	-7.08762
▁தான்	-7.0883
▁என்பது	-7.0886
▁தேதி	-7.09498
ச்ச	-7.10069
ப்படும்	-7.10113
▁அணி	-7.10178
▁தொடர்ந்து	-7.11331
யான	-7.11498
த்தி	-7.11571
ற்ற	-7.11672
ீ	-7.12912
▁சென்னை	-7.12974
மு	-7.13926
ேன்	-7.14067
ஜ	-7.14217
▁இல்லை	-7.14602
▁வரும்	-7.14824
▁தனது	-7.15497
▁கொண்ட	-7.16059
▁இந்திய	-7.17024
ோ	-7.17034
ந்து	-7.17901
▁மக்கள்	-7.18606
▁வரை	-7.18751
▁அது	-7.18796
▁நான்	-7.18816
ுள்ள	-7.19002
▁சா	-7.1924
▁செய்த	-7.19382
▁இன்று	-7.19702
▁வருகிறது	-7.20532
▁-	-7.20603
னா	-7.20669
...	-7.20867
றி	-7.21033
▁கட்சி	-7.2106
▁'	-7.21271
▁கோ	-7.2136
யே	-7.21709
▁தலைவர்	-7.22075
▁அமைச்சர்	-7.22112
மே	-7.22332
▁தா	-7.22754
▁ர	-7.23253
▁3	-7.23594
போது	-7.24174
கு	-7.24237
ப்பட	-7.24332
▁கொண்டு	-7.24529
▁பு	-7.25145
ுள்ளனர்	-7.25702
▁போ	-7.25839
▁தற்போது	-7.26842
▁பி	-7.26927
▁மீது	-7.27024
ூ	-7.27185
லாம்	-7.27329
▁பிறகு	-7.27894
ஆம்	-7.28627
▁பட	-7.28862
ங்களில்	-7.29688
▁என்றும்	-7.30244
▁போன்ற	-7.30675
▁ஏ	-7.30801
ப்பட்டது	-7.3094
சா	-7.31884
று	-7.32122
ளி	-7.32385
▁தி	-7.33216
வது	-7.33269
ண	-7.34787
ெ	-7.3593
▁4	-7.36546
மும்	-7.36572
▁மாநில	-7.36602
▁மூலம்	-7.367
▁செ	-7.37077
வர	-7.37234
ினார்	-7.37297
▁எந்த	-7.37654
ள்	-7.37749
▁திரு	-7.37813
ாமல்	-7.38594
▁ஓ	-7.38789
▁சேர்ந்த	-7.40029
▁5	-7.40472
▁கி	-7.40601
▁அவர்கள்	-7.40882
▁2	-7.41198
தால்	-7.41238
ண்ட	-7.41384
▁வேலை	-7.41642
▁மத்திய	-7.4247
8	-7.42752
4	-7.43689
1	-7.44261
▁காங்கிரஸ்	-7.44398
த்துக்கு	-7.44432
▁தேர்தல்	-7.44919
2	-7.4492
▁தமிழக	-7.4531
ுவது	-7.4575
ிருக்கிறது	-7.45756
▁இரு	-7.4582
▁போது	-7.45929
ஷ்	-7.46137
6	-7.46457
▁தர	-7.46642
3	-7.46952
வர்கள்	-7.48048
▁கே	-7.48093
7	-7.48112
9	-7.4853
டை	-7.4866
ஷ	-7.48684
▁டி	-7.48895
",	-7.4899
விட	-7.4902
பு	-7.50218
ய்	-7.50284
▁முறை	-7.50298
▁இரண்டு	-7.51738
▁மே	-7.52199
▁உள்ளிட்ட	-7.52234
றை	-7.5239
வுக்கு	-7.52537
ோம்	-7.52614
▁பிரதமர்	-7.52623
▁பிர	-7.52694
▁சமூக	-7.52888
▁நடவடிக்கை	-7.53404
ஜி	-7.53635
▁இந்தியா	-7.53675
ணி	-7.53718
▁வழங்க	-7.54014
ப்பட்டு	-7.54072
க்கி	-7.54147
▁மாவட்ட	-7.54277
▁உலக	-7.54709
▁கொ	-7.55036
▁சென்ற	-7.55335
▁வா	-7.5572
▁இதனால்	-7.55797
▁வெற்றி	-7.56074
▁நடத்த	-7.56295
▁திமுக	-7.5635
ிருந்த	-7.56532
ாத	-7.56582
▁புதிய	-7.56638
▁கூட	-7.56715
▁து	-7.56819
▁பேசிய	-7.57128
▁அதை	-7.57304
▁நடந்த	-7.57398
▁அவரது	-7.57981
▁என்	-7.58057
▁விட	-7.58253
▁பெண்	-7.60768
▁அதிமுக	-7.60959
▁பேச	-7.61102
ச்சி	-7.61116
▁இருக்கிறது	-7.61212
▁19	-7.61293
▁பெரிய	-7.61489
ப்பட்டுள்ளது	-7.61581
▁தெரிவித்த	-7.62035
▁அனைத்து	-7.6228
▁இதில்	-7.62321
▁கை	-7.62478
சு	-7.62561
▁ஒ	-7.62592
▁10	-7.63025
▁பல்வேறு	-7.63174
▁நேற்று	-7.6326
▁அரசியல்	-7.63685
5	-7.63914
▁அதன்	-7.64369
▁கால	-7.64754
▁முக்கிய	-7.6491
▁பேர்	-7.65211
▁அப்போது	-7.65285
▁நி	-7.65304
▁இருக்க	-7.65551
▁6	-7.65788
அ	-7.65925
▁மீண்டும்	-7.66217
▁முதல்வர்	-7.6644
▁நிலை	-7.66997
▁ஐ	-7.6739
i	-7.6759
ுகிறது	-7.67755
e	-7.68883
ுடன்	-7.68899
▁ரூ	-7.69145
கை	-7.69154
▁என்பதை	-7.69196
படி	-7.69463
▁பூ	-7.6963
▁தொடர்பாக	-7.69966
ள்ள	-7.70361
எஸ்	-7.70427
▁இதை	-7.70441
வ்	-7.7052
▁கட்ட	-7.7065
ஞ்ச	-7.70765
ழி	-7.70842
ங்களுக்கு	-7.71254
▁வந்து	-7.71504
ிருக்கிறார்	-7.71527
▁பணி	-7.71955
▁குழு	-7.71976
▁சட்ட	-7.72173
▁பெற்ற	-7.72534
▁பெற	-7.72613
▁செல்ல	-7.72903
▁நா	-7.73093
▁வழக்கு	-7.7311
யோ	-7.74253
ொ	-7.74584
▁நில	-7.7477
ங்	-7.74926
▁தேசிய	-7.74969
▁மட்டுமே	-7.75203
▁துறை	-7.75449
▁வைத்த	-7.75464
o	-7.76129
▁பாதுகாப்பு	-7.76408
ாய்	-7.76854
▁விசாரணை	-7.76989
யி	-7.77019
▁வைத்து	-7.77052
▁வெ	-7.77055
▁தெரிவித்தார்	-7.77206
▁ஆம்	-7.77315
▁வே	-7.7732
ப்பா	-7.77931
நா	-7.78133
த்துறை	-7.7916
▁நாடு	-7.79327
▁சிறப்பு	-7.79361
▁பதவி	-7.7963
▁அதில்	-7.79707
▁அல்லது	-7.7971
▁சென்று	-7.79716
▁ஸ்	-7.79837
;	-7.79986
▁கோடி	-7.80106
▁நடந்தது	-7.8014
▁இட	-7.80226
கோ	-7.8023
ப்படுகிறது	-7.80441
▁இப்போது	-7.80444
ரிய	-7.80723
▁இலங்கை	-7.80783
▁குடும்ப	-7.80917
▁காரணமாக	-7.81419
▁மணி	-7.8143
0	-7.81664
▁வகையில்	-7.81744
▁தலைமை	-7.81856
▁குழந்தை	-7.81864
▁எப்படி	-7.82052
▁கூறினார்	-7.82211
▁எம்	-7.82748
▁பார்க்க	-7.82869
▁இருந்தது	-7.83327
▁அங்கு	-7.83726
▁கூற	-7.83741
▁என்றார்	-7.84462
▁கைது	-7.84532
ூர்	-7.84536
▁எடப்பாடி	-7.84705
▁மாற்ற	-7.84709
▁சொல்ல	-7.85281
▁7	-7.85685
▁பின்னர்	-7.85889
▁நிதி	-7.85904
▁மிக	-7.85952
ருக்கு	-7.86056
ையும்	-7.86286
▁செய்தி	-7.86442
ிட	-7.86456
▁வருகின்றனர்	-7.86487
▁முன்	-7.86519
ாலும்	-7.86585
கே	-7.86728
களையும்	-7.8779
ளை	-7.87855
ியது	-7.88281
ட்டை	-7.88499
▁உதவி	-7.88648
ிடம்	-7.88791
▁ரா	-7.89343
▁ஆகிய	-7.89501
▁``	-7.89731
இ	-7.89913
ந	-7.89949
▁அளித்த	-7.90034
▁`	-7.90148
▁சே	-7.90807
▁மெ	-7.90858
▁தீ	-7.90902
▁மோடி	-7.90948
ழு	-7.91003
போ	-7.91033
▁பற்றி	-7.91125
▁பள்ளி	-7.91127
▁அதிக	-7.9116
▁மிகவும்	-7.91315
▁பொருளாதார	-7.91412
ப்போ	-7.91423
▁செய்யப்பட்ட	-7.91503
க்கான	-7.91686
▁கொடுத்த	-7.91924
▁இவர்	-7.91941
▁முயற்சி	-7.92008
ிருக்கும்	-7.92301
ண்	-7.9286
யுடன்	-7.92981
▁கொள்ள	-7.92986
▁மாதம்	-7.93052
ிக்க	-7.93198
▁கார்	-7.93231
▁அதற்கு	-7.93277
▁எடுக்க	-7.93398
ங்கி	-7.93738
▁20	-7.94243
▁முடியும்	-7.94256
▁தகவல்	-7.94492
a	-7.94641
க்காக	-7.94695
t	-7.94836
▁விமான	-7.94895
▁எடுத்து	-7.94927
▁அடுத்த	-7.94964
▁கேள்வி	-7.9524
▁மி	-7.95285
▁பகுதி	-7.95855
ந்தி	-7.96128
▁நாள்	-7.96193
▁போட்டி	-7.96298
▁காலை	-7.96518
▁பெ	-7.96622
ரோ	-7.9665
▁ஜனாதிபதி	-7.96946
டா	-7.9696
▁கொரோனா	-7.97023
யம்	-7.97439
▁முன்னாள்	-7.97526
▁தங்க	-7.97555
▁1	-7.97608
▁தன்	-7.97653
ரே	-7.97671
ல்ல	-7.97682
▁நேர	-7.97759
தே	-7.97874
▁கோவில்	-7.98021
▁நாம்	-7.98067
க்கள்	-7.9815
▁கருத்து	-7.98645
கர்	-7.98793
ரின்	-7.98973
வாக	-7.99058
▁வேண்டிய	-7.99123
▁ஒன்று	-7.99138
ிருந்தார்	-7.99163
▁பயன்படுத்த	-7.99165
▁இதற்கு	-7.99185
▁என்கிறார்	-7.9938
தாகவும்	-7.99478
ார்கள்	-7.9962
▁பதிவு	-7.9969
▁தமிழ்நாடு	-7.9979
▁பிரி	-7.99861
லில்	-7.99875
▁கேட்ட	-8.00218
▁பொது	-8.01383
▁சீ	-8.0179
▁ஜ	-8.02033
▁கிராம	-8.02125
விட்டு	-8.02232
▁இந்நிலையில்	-8.02361
▁8	-8.02376
▁காண	-8.02403
▁செல்வ	-8.02474
களுடன்	-8.02492
▁தலை	-8.02793
▁விலை	-8.03226
▁ஆர்	-8.03237
▁தடை	-8.03419
ுவதற்கு	-8.03586
▁முடியாது	-8.03665
▁நாங்கள்	-8.03841
▁கூட்டணி	-8.03907
▁முன்பு	-8.04224
▁நிலைய	-8.04341
ண்டி	-8.04391
▁மத	-8.04536
▁கல்வி	-8.04731
▁ஹ	-8.04775
▁உணவு	-8.04817
ாளர்	-8.04911
▁மட்டும்	-8.0515
s	-8.05196
▁இதன்	-8.05329
ஹ	-8.05352
▁இப்படி	-8.05609
தம்	-8.05653
களாக	-8.05696
▁எதிராக	-8.0614
▁அதிகாரி	-8.06156
யால்	-8.06247
▁முடிவு	-8.06296
ப்படுத்த	-8.06328
▁ஒருவர்	-8.0641
▁ஆட்சி	-8.06706
▁நிகழ்ச்சி	-8.06728
▁காந்தி	-8.06735
▁தேவை	-8.07219
▁தேர்தலில்	-8.07257
▁காட்ட	-8.07421
த்திர	-8.08193
▁பெரும்	-8.08505
▁விழா	-8.08696
▁9	-8.08811
▁அவரை	-8.0896
யர்	-8.09286
டன்	-8.09313
▁வீடியோ	-8.0959
▁பக்தர்கள்	-8.0972
▁மணிக்கு	-8.09948
▁ஆய்வு	-8.10113
யில	-8.10156
▁பகுதியில்	-8.10354
▁எனவே	-8.10508
▁குறிப்பிட்ட	-8.10943
▁ஸ்ரீ	-8.10969
▁குறை	-8.11186
ஏ	-8.11245
▁மாத	-8.11343
ட்டா	-8.11614
▁அவருக்கு	-8.1172
▁வீடு	-8.11781
▁சிகிச்சை	-8.11958
▁அவ	-8.1223
▁போல	-8.12243
▁பிரச்னை	-8.12537
▁நிறுவன	-8.1281
▁ஃப	-8.12817
▁ரூபாய்	-8.12963
ற்	-8.1298
▁மூன்று	-8.13144
▁மருத்துவ	-8.1322
00	-8.1394
தில்	-8.14161
▁நல்ல	-8.14302
▁தனி	-8.15017
▁போர்	-8.15242
▁மன	-8.15287
ஸ	-8.15292
▁அதிகாரிகள்	-8.15735
ிருந்தது	-8.15957
ுள்ளன	-8.1608
ான்	-8.16286
▁கூறி	-8.16374
▁கொலை	-8.16422
▁துணை	-8.1655
ிலும்	-8.16723
▁கோயில்	-8.16729
களால்	-8.1673
▁காரணம்	-8.16733
▁அதே	-8.16842
▁அடி	-8.16995
▁சரி	-8.17077
▁ஒரே	-8.17303
ர்கள்	-8.17334
▁டெல்லி	-8.17398
▁கரு	-8.17441
ஐ	-8.17545
ிற்கு	-8.17794
கள	-8.17911
▁உள்ளன	-8.17914
ண்ண	-8.18067
க்கப்பட்ட	-8.18092
▁பார்த்த	-8.18093
▁தமிழ்	-8.18104
▁ராணுவ	-8.18572
▁சங்க	-8.18875
▁ஒவ்வொரு	-8.19084
ஜ்	-8.19113
▁நகர	-8.19268
ும்போது	-8.19315
சன்	-8.19368
▁செலுத்த	-8.19725
▁சோ	-8.19855
▁இன்னும்	-8.1991
▁விரும்ப	-8.20045
னின்	-8.20089
ண்டு	-8.20109
▁பெற்று	-8.20988
ோர்	-8.21326
பர்	-8.21395
ணை	-8.21469
▁எனக்கு	-8.21546
ிருக்க	-8.2171
▁கலந்து	-8.21882
▁தேர்வு	-8.21908
ப்பை	-8.22044
த்துடன்	-8.22097
▁சுமார்	-8.22481
▁வழி	-8.22539
▁12	-8.22559
னம்	-8.22602
▁முழுவதும்	-8.22692
ஆர்	-8.22699
▁பே	-8.22829
▁எதிர்	-8.22844
த்தா	-8.22855
கம்	-8.22907
ினால்	-8.22994
▁கூறிய	-8.23013
வரும்	-8.23718
▁செய்யும்	-8.24009
▁மனைவி	-8.24269
▁ஏற்பட்ட	-8.24389
விட்ட	-8.2451
▁சம்பவம்	-8.2452
▁இடங்களில்	-8.24725
▁நேரத்தில்	-8.24728
▁படை	-8.24928
னு	-8.25307
▁உருவாக்க	-8.25455
▁கீழ்	-8.2589
▁விட்டு	-8.26013
▁சிவ	-8.26159
▁திட்ட	-8.26193
க்கம்	-8.26301
▁குரு	-8.26387
▁இங்கு	-8.26624
▁அறிக்கை	-8.26758
▁ஏன்	-8.26866
ரீ	-8.26926
▁வைக்க	-8.26969
d	-8.27101
தற்கு	-8.27218
ச்சு	-8.27316
▁நடந்து	-8.27354
▁பதி	-8.27445
▁தொடர்பான	-8.27448
▁இணை	-8.2746
▁அப்படி	-8.27512
▁உயர்	-8.27639
ிறது	-8.27793
▁ஸ்டாலின்	-8.27807
▁வீ	-8.27868
▁நாடாளுமன்ற	-8.28
▁வயது	-8.2822
த்தான்	-8.28233
யூ	-8.28264
க்கா	-8.28452
▁கல	-8.28531
வரை	-8.28561
பர	-8.28784
▁மாலை	-8.2879
▁குறித்த	-8.28822
▁சுவாமி	-8.28834
▁சீனா	-8.28876
▁வெளி	-8.28996
▁செயலாளர்	-8.29023
ுகிறார்	-8.29047
▁கண்ட	-8.29126
யன்	-8.29184
களைப்	-8.29332
லு	-8.29341
▁உறுதி	-8.29475
ட்டில்	-8.29544
▁முக	-8.29651
▁நம்ப	-8.2968
▁மழை	-8.29722
ராக	-8.29724
▁லட்சம்	-8.29795
மோ	-8.29828
▁ரஷ்யா	-8.29878
மீ	-8.29981
▁புகார்	-8.30033
ற்று	-8.30126
▁வங்கி	-8.30163
▁வேறு	-8.30251
▁அரச	-8.30417
▁பிற	-8.30758
▁கொடுக்க	-8.31168
▁நீ	-8.31269
▁வீட்டில்	-8.31279
▁வருகிறார்	-8.31507
சை	-8.31569
ற்க	-8.31649
▁தங்கள்	-8.3189
▁ல	-8.3192
களிடம்	-8.32002
▁ஆக	-8.32045
▁உரிமை	-8.32131
▁இந்தப்	-8.32221
▁பெரு	-8.32363
ற்ப	-8.32382
▁இதையடுத்து	-8.32566
▁அனுமதி	-8.32688
u	-8.32724
▁பின்	-8.32744
ங்களின்	-8.32796
▁வாங்க	-8.33056
▁கூறுகிறார்	-8.33216
▁சேவை	-8.33429
▁11	-8.3375
▁இயக்க	-8.33914
ங்கு	-8.33918
▁நடத்தி	-8.33924
▁பொ	-8.33984
▁வாய்ப்பு	-8.34545
▁எடுத்த	-8.34549
▁கூறப்படுகிறது	-8.34579
ாது	-8.3465
▁பார்த்து	-8.3474
▁நடைபெற்ற	-8.35087
▁வாகன	-8.35102
வன்	-8.35224
▁அமைப்பு	-8.35241
ுள்ளதாக	-8.35359
யிலும்	-8.35524
▁வந்தது	-8.35648
த்திய	-8.36025
▁சூ	-8.36088
▁ராஜ	-8.36133
▁பட்ட	-8.36195
▁கோரிக்கை	-8.362
ித்த	-8.36356
▁மீ	-8.36559
▁பாதிப்பு	-8.36644
ரம்	-8.36664
த்திலும்	-8.36705
▁அருகே	-8.36963
ஆ	-8.37343
னில்	-8.3739
▁காட்சி	-8.37617
மன்	-8.37661
▁மாணவி	-8.37683
▁மாவட்டம்	-8.37745
ளா	-8.38049
ம்பு	-8.38089
▁பூஜை	-8.38254
▁அறிவித்த	-8.38551
வோ	-8.38638
▁அளிக்க	-8.38821
பே	-8.38883
▁பெண்கள்	-8.39034
▁வெளியிட்ட	-8.39252
▁ஈ	-8.39305
னுக்கு	-8.39408
▁நெ	-8.39546
▁சார்பில்	-8.39587
ன்ஸ்	-8.39716
▁சர்வதேச	-8.39879
▁டெ	-8.40239
▁மற்ற	-8.40507
ரியா	-8.40534
▁இதுவரை	-8.40585
▁பாதிக்கப்பட்ட	-8.40683
தர்	-8.40915
▁மின்	-8.41047
▁தொடங்க	-8.41152
▁15	-8.41155
▁கட்சியின்	-8.4125
▁இரவு	-8.41459
20	-8.41496
p	-8.41552
▁காரண	-8.41751
▁அளவில்	-8.41808
எல்	-8.41873
▁இந்தியாவில்	-8.4196
▁போலீசார்	-8.41992
த்தால்	-8.42035
ுவதை	-8.4207
▁பாட	-8.42075
தான	-8.42231
▁சிங்	-8.42266
▁கூட்ட	-8.42285
என்	-8.42307
▁நடைபெற்றது	-8.42362
வந்த	-8.42635
▁நபர்	-8.42747
▁நீங்கள்	-8.428
▁வருட	-8.43082
▁எண்ணிக்கை	-8.4316
▁ஷ	-8.43324
நிலை	-8.43408
▁அரசின்	-8.43484
▁நீர்	-8.43709
▁மதுரை	-8.4371
▁தொழில்	-8.43911
h	-8.43927
ங்கள	-8.43975
▁பெயர்	-8.44099
லோ	-8.44117
▁பழனிசாமி	-8.44195
▁தே	-8.44205
▁மனு	-8.44543
▁கல்லூரி	-8.44564
▁காவல்	-8.44888
A	-8.44964
▁அமெரிக்க	-8.45002
▁குறைந்த	-8.45191
▁அதிபர்	-8.45499
தீ	-8.45804
வெ	-8.45895
▁மகா	-8.45953
▁வாக்கு	-8.46138
ண்ட்	-8.46337
▁நம்பிக்கை	-8.46426
ித்து	-8.46435
▁மூ	-8.46441
▁உடல்	-8.46471
▁சொல்லி	-8.46485
முறை	-8.46831
▁தீவிர	-8.47239
ினர்	-8.4738
ுவதாக	-8.47527
▁கடை	-8.47567
▁தோ	-8.47588
▁பண	-8.47668
▁யார்	-8.47816
தன்	-8.47832
▁அமெரிக்கா	-8.47838
ரும்	-8.47858
▁சொன்ன	-8.48008
▁ஆளுநர்	-8.48064
ப்பது	-8.48077
▁கூ	-8.48095
▁200	-8.48176
▁இடையே	-8.4833
ுமாறு	-8.48504
▁உச்ச	-8.48542
க்கோ	-8.48562
களைக்	-8.48583
▁தாக்குதல்	-8.4863
▁தென்	-8.48864
▁தொடங்கி	-8.49117
▁பணம்	-8.49201
▁ஏற்பட	-8.49288
கார	-8.49414
▁உத்தர	-8.49504
▁மேல்	-8.49507
▁எனவும்	-8.49641
▁ஜா	-8.49915
ுங்கள்	-8.50069
▁ரயில்	-8.50121
▁ஷா	-8.50148
▁அதிகார	-8.50212
▁நிறுத்த	-8.50461
விற்கு	-8.50517
டர்	-8.50517
c	-8.50667
▁கட	-8.50797
▁சிறு	-8.50885
▁சம்பவ	-8.5099
க்குள்	-8.51123
▁தெரிவிக்க	-8.5115
▁இல்லாத	-8.51175
களிலும்	-8.51179
▁ட	-8.51184
▁அதனால்	-8.51248
▁வரி	-8.51341
▁பயிற்சி	-8.51457
r	-8.515
▁தொடர்	-8.51592
▁என்றால்	-8.51812
▁கிடைக்கும்	-8.51823
▁ஆட்ட	-8.51923
த்தையும்	-8.51936
▁பால	-8.52028
▁பங்கு	-8.52201
▁தேர்	-8.5223
▁காவல்துறை	-8.5241
▁ஸ்ட	-8.52559
ரில்	-8.52824
▁கவன	-8.52863
யைப்	-8.52883
ின	-8.52924
ிருப்ப	-8.53059
▁உயிரிழந்த	-8.53161
ுடைய	-8.53218
▁உங்கள்	-8.53353
னே	-8.5357
▁உள்ளனர்	-8.53685
ுதல்	-8.53741
▁நாட்டின்	-8.53909
வான	-8.53922
m	-8.53926
▁சம	-8.5394
▁ஓபிஎஸ்	-8.54074
வுடன்	-8.54294
▁இருக்கிறார்	-8.54401
▁இன்	-8.54523
ைப்	-8.54774
ராஜ்	-8.54815
▁திருமண	-8.5491
▁அடைந்த	-8.54924
%	-8.54987
▁போலீஸார்	-8.55022
ுக்கும்	-8.55034
▁18	-8.55171
▁கிடைத்த	-8.5533
▁ஊ	-8.55374
த்தார்	-8.5541
▁சோதனை	-8.55672
▁இந்து	-8.55748
▁வார	-8.55763
ங்களும்	-8.5579
▁செய்தனர்	-8.55794
▁உறுப்பினர்	-8.55848
▁டா	-8.55902
▁யா	-8.55905
▁ஜி	-8.55947
▁எஸ்	-8.56169
▁ஆகியோர்	-8.56276
கொண்ட	-8.56894
க்கொண்ட	-8.56901
▁அதாவது	-8.57028
▁திட்டம்	-8.57036
களுக்கும்	-8.57058
▁பழ	-8.57235
▁எதிர்ப்பு	-8.57368
▁பரவ	-8.57375
ிலேயே	-8.57576
▁ராகுல்	-8.57595
▁அல்ல	-8.57742
▁தின	-8.57746
ங்கா	-8.57879
யு	-8.58064
▁இடம்	-8.58078
லம்	-8.58163
▁குறிப்பிடத்தக்க	-8.58247
▁எனக்	-8.5835
ராஜ	-8.58377
ந்திர	-8.58387
▁அரு	-8.58598
▁அதனை	-8.58818
ியுள்ளது	-8.58842
▁இஸ்ரேல்	-8.58853
▁என்பதால்	-8.58988
க்கூடிய	-8.59048
▁மாணவர்	-8.59078
▁செல்லும்	-8.59205
▁வகை	-8.5922
ன்று	-8.59431
ஷி	-8.59582
▁வருகின்றன	-8.59655
▁ரி	-8.59702
▁மாற	-8.59821
யிலிருந்து	-8.59831
▁பேர	-8.60039
▁மலை	-8.60046
▁நேரம்	-8.60148
▁பை	-8.60161
▁குடி	-8.60244
▁போன	-8.6038
▁தொகுதி	-8.60514
வர்களுக்கு	-8.60655
▁மூத்த	-8.60685
▁இடத்தில்	-8.60795
▁பாதி	-8.60818
ச்சா	-8.60928
▁அடிப்படையில்	-8.60929
▁வட	-8.61066
சம்	-8.61122
n	-8.61185
▁நீதிமன்ற	-8.61379
யாளர்	-8.61559
▁ஏற்படும்	-8.61603
▁அதிகமாக	-8.61621
யல்	-8.61677
▁திருமணம்	-8.61704
▁வசதி	-8.61704
▁மறு	-8.61824
▁பிரதேச	-8.61829
▁வீரர்	-8.61868
ஷா	-8.62016
ஹா	-8.62025
▁அனுப்ப	-8.62081
▁நடத்திய	-8.62093
ணா	-8.6217
▁சாலை	-8.62302
ையில்	-8.62358
▁ஆண்டுகளுக்கு	-8.62452
▁கேட்க	-8.62489
▁அன்று	-8.62505
▁போராட்ட	-8.62508
▁தந்தை	-8.62516
▁பேசி	-8.62559
▁கேட்டு	-8.62789
ுகின்றனர்	-8.62926
▁நிறைவேற்ற	-8.63087
க்கே	-8.63109
g	-8.63143
▁நடைபெறும்	-8.63184
சாமி	-8.63205
▁லா	-8.63235
ழை	-8.63238
y	-8.6342
விட்டார்	-8.63425
டோ	-8.63435
▁வளர்ச்சி	-8.63456
▁ஜோ	-8.63597
▁பல்கலைக்கழக	-8.63679
னார்	-8.63883
ாங்க	-8.63924
▁14	-8.6397
▁அலுவலக	-8.64111
▁எண்ண	-8.64188
▁மோதி	-8.64257
க்கை	-8.64548
▁எதிரான	-8.64576
குமார்	-8.64636
▁கொள்கை	-8.64651
▁வழக்கில்	-8.64742
▁கடன்	-8.64844
யைக்	-8.64858
▁கடைசி	-8.64878
▁தள	-8.64942
▁தொடர்பு	-8.65018
▁கோவை	-8.65092
▁சின்ன	-8.65112
▁பாலியல்	-8.65118
▁30	-8.65181
▁குறிப்பாக	-8.65187
▁முழு	-8.65284
னால்	-8.65284
ணம்	-8.65303
எ	-8.65318
▁சந்தித்த	-8.65347
▁பீ	-8.65364
வீ	-8.65491
▁இருப்ப	-8.65507
▁இந்தியாவின்	-8.65539
ாள்	-8.65845
▁ஈடுபட்ட	-8.65882
▁மக்களுக்கு	-8.6591
▁திருவிழா	-8.65959
ோடு	-8.65975
▁தனியார்	-8.66032
ிங்	-8.66066
ப்படி	-8.66165
▁விற்பனை	-8.66242
▁ரோ	-8.66253
▁இனி	-8.66265
▁பரி	-8.66311
▁செய்தார்	-8.6632
தும்	-8.66331
▁செயல்பட	-8.66382
▁திரைப்பட	-8.66427
▁உட்பட	-8.6644
களுக்கான	-8.66446
▁நாளை	-8.6647
▁உடை	-8.66541
▁மனித	-8.66577
▁தமிழ்நாட்டில்	-8.66615
த்தைச்	-8.66998
ுக்கான	-8.67065
▁கண்ண	-8.6712
▁போல்	-8.6742
▁கருத	-8.67458
▁தெரிய	-8.67525
ேஷ்	-8.67598
▁ஆலோசனை	-8.67704
▁மொழி	-8.67759
▁நடக்க	-8.67786
▁தவிர	-8.67823
க்குப்	-8.67938
▁காலத்தில்	-8.67971
▁முக்கியமான	-8.68003
▁போலீஸ்	-8.68015
▁பகுதிகளில்	-8.68029
▁போட	-8.68128
ெய்	-8.68292
▁ஆதரவு	-8.684
▁மேற்கொள்ள	-8.68548
▁நிறுவனம்	-8.68582
▁நடைபெற	-8.68769
ிலிருந்து	-8.68791
பெ	-8.68822
▁உற்பத்தி	-8.68873
▁மாணவர்கள்	-8.68986
ுமான	-8.69063
▁புற	-8.69362
▁மர	-8.69426
▁கொடுத்து	-8.69426
▁சிலர்	-8.69491
தார	-8.69532
ீர்	-8.69559
▁தொ	-8.69561
▁எல்லா	-8.6963
▁இருப்பதாக	-8.69644
▁13	-8.69878
▁அதி	-8.69986
▁தெரிவித்து	-8.70047
ைக்	-8.70163
▁பயணம்	-8.70167
▁வெளியே	-8.70204
கூட	-8.70247
▁பயண	-8.70296
▁தெரிவித்துள்ளார	-8.70498
▁அந்தப்	-8.70532
ப்பில்	-8.70535
வாத	-8.70647
▁இருந்தாலும்	-8.70671
▁கொண்டாட	-8.70689
▁உண்மை	-8.70774
யையும்	-8.70778
▁பிபிசி	-8.70837
▁அவர்களுக்கு	-8.70861
▁திரும்ப	-8.70995
▁விளக்க	-8.71024
▁இந்தக்	-8.71153
▁அதிகம்	-8.71226
S	-8.71495
ஜா	-8.71525
▁இறுதி	-8.71537
கால	-8.71548
▁மைய	-8.71772
▁இதனை	-8.7182
ண்டா	-8.71957
▁நான்கு	-8.72082
▁செயல்	-8.72138
ஸ்ட்	-8.72322
▁நீதிபதி	-8.72391
▁குற்ற	-8.72449
லுக்கு	-8.72855
▁பதில்	-8.73005
▁நோய்	-8.73009
ுகின்றன	-8.73027
லே	-8.73082
▁கூடாது	-8.7328
▁சுகாதார	-8.73281
▁வென்ற	-8.73369
▁சர்ச்சை	-8.73371
▁தொகை	-8.73416
▁அமைப்ப	-8.73498
▁என்னை	-8.7372
▁நீதிமன்றம்	-8.7385
▁தொடர	-8.73943
I	-8.73949
▁ஆண்	-8.73965
▁ஏற்படுத்த	-8.73997
ரண	-8.74061
▁கடும்	-8.74239
யிடம்	-8.74264
ஃப	-8.74297
ிறார்	-8.74301
▁மை	-8.74425
▁குறிப்பிட	-8.74449
▁பிரிவு	-8.7451
டைய	-8.74573
▁தமிழகத்தில்	-8.74582
வால்	-8.74637
தற்காக	-8.74697
▁இல்லாமல்	-8.74738
கர	-8.74778
▁16	-8.74785
▁நீண்ட	-8.74875
▁ஒன்ற	-8.74909
▁அண்ணாமலை	-8.7494
▁இருந்தார்	-8.74956
ூரில்	-8.74985
▁உள்ளார்	-8.75017
▁மரண	-8.75322
ுகிறார்கள்	-8.75408
யைச்	-8.75506
▁கோவிலில்	-8.75518
க்குறிப்பு	-8.7552
▁அரசாங்க	-8.75533
▁நல	-8.75564
▁ஊடக	-8.75618
▁மேற்பட்ட	-8.75658
▁ஜெ	-8.75666
நி	-8.75808
▁சாதி	-8.75971
▁மகன்	-8.76204
▁வள	-8.76231
சர்	-8.76388
▁பர	-8.76484
▁சுதந்திர	-8.76613
வார்	-8.76627
▁இந்தத்	-8.7666
▁நாடுகள்	-8.76695
செ	-8.76764
▁நாள	-8.7681
in	-8.76819
▁பிறந்த	-8.76866
an	-8.76873
▁பொதுக்குழு	-8.76884
பட	-8.77034
▁கூறுகையில்	-8.77207
▁நோ	-8.77303
▁சிலை	-8.77308
ஞ்சி	-8.77368
▁நாட்டில்	-8.77383
முக	-8.77428
▁50	-8.77459
▁தாய்	-8.77508
▁கண்	-8.77581
▁எங்கள்	-8.77917
ந்தா	-8.77925
▁குறி	-8.77935
உ	-8.78003
▁முடியாத	-8.78037
▁இணைந்து	-8.7811
▁கதை	-8.78138
ப்படவில்லை	-8.78178
பகுதி	-8.78228
▁எல்லை	-8.78243
▁வெளியாகி	-8.78334
கொள்ள	-8.78394
ுவார்கள்	-8.78505
v	-8.78662
நீ	-8.78793
▁இருவரும்	-8.78943
▁2022	-8.79066
▁அனைவரும்	-8.79091
▁மகிழ்ச்சி	-8.791
▁உடனடியாக	-8.791
▁வேட்பாளர்	-8.79113
▁பலர்	-8.79154
▁நோக்க	-8.79256
▁விதி	-8.79419
னோ	-8.79438
சே	-8.79439
▁சொந்த	-8.79574
▁எதிர்பார்க்க	-8.79623
பை	-8.79667
▁சந்தித்து	-8.79803
▁மேற்கு	-8.79974
▁மும்பை	-8.79975
▁17	-8.79977
▁அவை	-8.80074
▁கிர	-8.80084
▁வெளியேற	-8.80169
▁எல்லாம்	-8.80366
▁ஆரம்ப	-8.80381
பட்ட	-8.8039
ிக்	-8.80485
▁தரப்பு	-8.80532
▁நோக்கி	-8.80633
▁முதலில்	-8.80645
▁போராட்டம்	-8.80651
▁தாக்கல்	-8.80666
▁நடைபெற்று	-8.80668
▁நடக்கும்	-8.80677
▁ஆண்டுகளாக	-8.80787
களைத்	-8.80791
கொ	-8.80792
ம்பா	-8.80969
▁கூட்டம்	-8.81029
▁வாங்கி	-8.81132
▁பலரும்	-8.81161
▁தொழில்நுட்ப	-8.81206
▁உயிர	-8.8136
▁நெருக்கடி	-8.81399
▁சக்தி	-8.81408
▁மேற்கொண்ட	-8.81411
▁இருப்பினும்	-8.81473
▁மீதான	-8.81483
தன	-8.81496
▁தங்கள	-8.8153
▁முதலமைச்சர்	-8.81808
▁கிடைக்க	-8.82026
▁தலைமையில்	-8.82187
▁வந்தார்	-8.82243
▁லி	-8.82426
சோ	-8.82474
▁பயன்படுத்தி	-8.82514
▁மக்கள	-8.82545
▁அவரின்	-8.82584
k	-8.82635
கிறது	-8.82814
ிட்ட	-8.82992
வல	-8.82996
▁விடுத்த	-8.83104
▁ஒப்பந்த	-8.83178
▁பற்றிய	-8.83193
லாக	-8.83293
ன்ற	-8.83417
▁முதல	-8.83457
▁தோல்வி	-8.8354
▁தொடங்கிய	-8.83589
▁வச	-8.83626
▁வைக்கப்பட்ட	-8.83693
▁வை	-8.83706
▁கொண்டிருந்த	-8.8382
▁கொள்வ	-8.83841
▁ஆண்டில்	-8.83844
▁தெரிவித்துள்ளது	-8.83918
▁போட்டு	-8.84046
வரின்	-8.84102
▁ஏற்ற	-8.84161
டில்	-8.84172
யினர்	-8.84207
▁வாய்ப்ப	-8.84282
▁கலை	-8.84299
▁சட்டம்	-8.84317
▁கூடிய	-8.84543
▁25	-8.84751
ஃப்	-8.84876
▁விளையாட	-8.84894
கின்றனர்	-8.84899
▁தேடி	-8.85054
▁எழுந்த	-8.85093
▁சிறந்த	-8.85104
▁அளவுக்கு	-8.85104
க்கொண்டு	-8.85204
▁தலைவர	-8.85224
மடைந்த	-8.85232
▁பயணி	-8.85306
ிருந்தனர்	-8.85414
▁நடிகர்	-8.85453
ந்	-8.85454
▁முன்னிட்டு	-8.85465
▁வழங்கிய	-8.85554
▁ஏராளமான	-8.85742
▁சபை	-8.85747
▁வீர	-8.85778
தில்லை	-8.85826
▁இறந்த	-8.85897
ாள	-8.85943
▁தந்த	-8.85985
▁விவசாய	-8.8599
▁என்கிற	-8.85998
▁இந்தச்	-8.86086
▁ஆயிரம்	-8.86253
ப்பட்டன	-8.86273
▁இருப்பது	-8.86273
l	-8.86483
▁கூறியுள்ளார்	-8.86508
▁யூ	-8.86705
▁கடுமையாக	-8.86768
▁பாராளுமன்ற	-8.86768
▁படம்	-8.8686
▁எதிர்க்கட்சி	-8.86881
▁ஜெய	-8.86944
▁ஆடி	-8.87031
▁தலைவர்கள்	-8.87049
ூர	-8.87077
தோ	-8.87119
சன	-8.87134
▁நீக்க	-8.87214
▁மார்	-8.87236
▁மதிப்ப	-8.87261
றிய	-8.87301
C	-8.87308
ௌ	-8.87459
லும்	-8.87533
ுமா	-8.87588
▁குற்றச்சாட்டு	-8.8768
▁மத்தியில்	-8.87796
er	-8.87843
▁நிர்வாக	-8.87858
மணி	-8.87955
▁மக்களின்	-8.88003
▁ஏற்பாடு	-8.88204
ுவதற்கான	-8.88212
▁ராம	-8.88433
▁இல்ல	-8.88494
மலை	-8.88694
▁ஏற்பட்டது	-8.88731
யைத்	-8.88746
ஞ	-8.88862
▁சென்னையில்	-8.89034
ar	-8.89037
▁கூட்டத்தில்	-8.89069
▁அமைக்க	-8.89091
▁மாவட்டத்தில்	-8.89103
▁பாகிஸ்தான்	-8.89196
ாட்சி	-8.8922
ுக்காக	-8.89333
▁24	-8.89406
b	-8.89429
▁ஏற்கனவே	-8.89429
▁கிரிக்கெட்	-8.89431
▁அனுப்பி	-8.89445
▁குஜராத்	-8.89446
▁பய	-8.89521
▁தன்னுடைய	-8.89525
▁வன்முறை	-8.89526
▁உறவு	-8.89729
ளிக்க	-8.89769
▁செய்வ	-8.89803
▁பிரச்சினை	-8.89912
▁அப்பா	-8.8995
▁அனுபவ	-8.90014
▁பிரபல	-8.90015
எம்	-8.90226
படுத்த	-8.90233
▁தகவல்கள்	-8.90265
▁விசாரித்த	-8.90309
▁சந்தேக	-8.90396
ிற	-8.90483
▁பால்	-8.90522
ேஸ்வர	-8.90652
ளவு	-8.90779
▁ஆரம்பித்த	-8.90863
▁ரத்த	-8.9088
▁மூல	-8.90887
▁மருத்துவமனையில்	-8.90926
லான	-8.91074
சீ	-8.91347
▁அடை	-8.91375
▁வாழ்க்கை	-8.91521
▁கான்	-8.91557
ன்னு	-8.91636
▁உதவ	-8.9165
▁ஆற்ற	-8.91704
▁ஆறு	-8.91884
▁இருந்தால்	-8.91908
த்தைக்	-8.91947
▁அல	-8.92008
▁யு	-8.92009
▁ஆதி	-8.92073
க்கொள்ள	-8.922
▁போய்	-8.92266
▁நீதிமன்றத்தில்	-8.92392
▁சை	-8.92399
▁இளைஞர்	-8.92559
▁விஜய்	-8.92561
▁போக	-8.92622
▁ஆயுத	-8.927
▁ஒன்றை	-8.92709
க்களை	-8.92717
யின	-8.92865
▁அழைத்து	-8.93069
▁இஸ்ரேல	-8.93199
▁தாக்க	-8.93213
▁எதுவும்	-8.93335
▁நரேந்திர	-8.93357
பதி	-8.93372
▁ஒதுக்க	-8.93384
▁சுற்றி	-8.93396
வல்	-8.93481
லின்	-8.93583
▁முடியவில்லை	-8.93658
▁படி	-8.93664
ல்லா	-8.93696
த்தைப்	-8.93754
▁எனது	-8.93791
▁நடு	-8.93855
P	-8.9386
▁சேர்ந்தவர்	-8.93862
▁சிறை	-8.93863
▁நிகழ்வு	-8.93887
▁ரன்கள்	-8.93912
▁திடீரென	-8.93959
▁தொழிலாளர்	-8.93983
▁100	-8.9411
▁எரி	-8.94118
▁உத்தரவிட்ட	-8.94143
▁கோயிலில்	-8.94263
▁முறையாக	-8.94316
▁செலவு	-8.94422
▁அமைதி	-8.9447
w	-8.94566
▁முறையில்	-8.94577
▁கண	-8.94663
▁முயன்ற	-8.94688
▁உக்ரைன்	-8.94711
▁ஆசிரியர்	-8.9476
▁அதிகரித்து	-8.94781
▁நம்	-8.94826
▁சமீபத்தில்	-8.94862
ளித்த	-8.94868
▁அடிப்படை	-8.94945
▁ஆண்டுகள்	-8.94963
▁உங்களுக்கு	-8.95068
லர்	-8.95386
பாடு	-8.95407
▁கவனம்	-8.95434
▁கழக	-8.95496
ிருப்பதாக	-8.95539
னும்	-8.95558
▁புது	-8.9562
நகர	-8.95625
▁பார்வை	-8.95635
▁முடி	-8.95649
▁நாட்டு	-8.95654
ுகிறேன்	-8.95761
▁S	-8.95788
க்கூடாது	-8.95805
▁நடித்த	-8.95822
▁தேவையான	-8.959
▁இதுகுறித்து	-8.95995
▁சிறுமி	-8.96041
▁பொறுப்ப	-8.96104
▁தன்னை	-8.96158
ுவார்	-8.96244
ட்டர்	-8.96251
வருக்கு	-8.96448
▁விவகாரம்	-8.9655
ஸி	-8.96594
▁தண்டனை	-8.96718
▁விவாத	-8.96776
▁டாக்டர்	-8.96821
T	-8.96834
களே	-8.96905
ப்பட்டுள்ளன	-8.97113
▁ரஷ்ய	-8.97247
▁முடிந்த	-8.97258
மர்	-8.97274
▁A	-8.97393
▁வேண்டாம்	-8.97447
▁நு	-8.97623
▁நாட்கள்	-8.97663
▁நகர்	-8.97688
ால	-8.97808
▁ஐந்து	-8.97944
▁மற்றொரு	-8.97987
▁அம்மா	-8.98061
▁விரைவில்	-8.98074
▁நமது	-8.98084
ிறார்கள்	-8.98117
▁வெள்ள	-8.98211
ப்படுகின்றன	-8.98241
▁மருத்துவமனை	-8.9826
▁விடுதலை	-8.98494
▁நாக	-8.9879
செய்த	-8.98891
▁சமய	-8.99019
▁சட்டசபை	-8.99023
ுவோம்	-8.99024
ைத்	-8.99044
▁அவர்களை	-8.99051
▁குழந்தைகள்	-8.99053
▁இழந்த	-8.99079
▁மாநிலம்	-8.99114
ப்படை	-8.99158
வேண்டும்	-8.99388
▁கட்டி	-8.99402
▁பொதுமக்கள்	-8.99419
▁அம்மன்	-8.99455
ெல்லாம்	-8.9951
▁சூரிய	-8.99537
▁வழக்க	-8.99549
▁காலம்	-8.99622
ிருப்பது	-8.99623
▁இரண்டாவது	-8.9966
▁நிலைமை	-8.99664
▁அலங்கார	-8.99767
இல்	-8.9991
க்ஸ்	-8.99926
▁போட்டியிட	-9.00005
▁போட்டியில்	-9.0004
▁சிறப்பாக	-9.00107
▁அறிவ	-9.00212
O	-9.00302
▁பிரச்சனை	-9.00303
▁ரெ	-9.00307
▁குறிப்பிட்டார்	-9.00428
▁எங்களுக்கு	-9.00569
▁சேர்க்க	-9.00612
▁மோ	-9.00792
பால	-9.00821
▁வெளியான	-9.00849
▁சுற்றுலா	-9.009
ப்பட்டுள்ள	-9.00994
ியுள்ளார்	-9.00996
▁சசிகலா	-9.01057
ரூ	-9.01073
▁கள	-9.01165
▁பேசினார்	-9.01232
▁கைப்பற்ற	-9.01274
ுகின்ற	-9.01386
▁பிடித்த	-9.01404
▁பங்க	-9.01406
▁நடக்கிறது	-9.01418
▁சொத்து	-9.01422
▁மிகப்பெரிய	-9.0149
▁பெண்ண	-9.01498
▁புகைப்பட	-9.01528
▁40	-9.01574
▁மின்சார	-9.016
▁பாதுகாப்ப	-9.018
/	-9.01817
▁நண்பர்	-9.01903
▁வித	-9.0194
▁தடுக்க	-9.01982
▁ரூபா	-9.02023
ுபவர்	-9.02109
ப்பிர	-9.02194
▁ஆவண	-9.02219
▁இதே	-9.02249
▁மருந்து	-9.0232
▁கவலை	-9.02371
▁எதிர்கால	-9.02401
ைச்	-9.02555
f	-9.02692
ரான	-9.02722
▁அன்ப	-9.02753
▁போக்குவரத்து	-9.02913
▁இசை	-9.02916
▁யாரும்	-9.02974
▁ஆணைய	-9.03266
▁தொடக்க	-9.03327
ஸ்ட	-9.0335
▁பக்க	-9.03491
▁வேக	-9.035
ரிடம்	-9.03629
இந்த	-9.03891
த்துக்	-9.03986
30	-9.04073
▁பேச்சு	-9.04103
டே	-9.04237
▁செய்வது	-9.04242
ராம	-9.04284
ுவதற்காக	-9.04346
▁இதுபோன்ற	-9.04357
▁ஜூலை	-9.04405
ியல்	-9.04557
▁திட்டமிட்ட	-9.04596
▁கெ	-9.04656
▁அளவு	-9.04692
▁ஊர்	-9.04697
▁மொத்தம்	-9.04714
▁பிடி	-9.04763
▁விட்ட	-9.04894
▁விழுந்த	-9.04947
al	-9.04962
▁கோப	-9.0497
▁வகுப்பு	-9.05002
▁கொடி	-9.05031
பூ	-9.05159
▁வாழ்	-9.05163
▁சனி	-9.05171
▁வீரர்கள்	-9.0518
சூ	-9.05211
ரன்	-9.05216
தாகக்	-9.0532
▁அறிவிக்கப்பட்ட	-9.05322
▁திருத்த	-9.05348
த்திலிருந்து	-9.05374
▁சர்	-9.05396
▁ஈடுபட	-9.0551
பூர்வ	-9.05519
▁ஏற்படுத்தி	-9.05582
▁தெ	-9.05614
▁எழுத	-9.05764
▁செய்யப்பட்டது	-9.05852
▁உடல	-9.05951
▁செலவ	-9.06224
▁அதன்படி	-9.06237
▁டை	-9.06376
▁விஜய	-9.06462
▁பேச்சுவார்த்தை	-9.06503
▁விழாவில்	-9.06838
▁அறை	-9.06856
▁அச்ச	-9.06969
▁கால்	-9.06987
▁முதலீடு	-9.07075
மானது	-9.07176
▁மக்களை	-9.07285
▁தூ	-9.07318
▁விபத்து	-9.0733
▁ஆதார	-9.07374
▁உணவ	-9.07408
ிருந்து	-9.07444
000	-9.07499
▁தற்கொலை	-9.07536
▁மாநிலத்தில்	-9.07541
▁மாதிரி	-9.07548
▁அழக	-9.07569
▁கடுமையான	-9.07651
விடம்	-9.0778
▁அதிர்ச்சி	-9.0779
பட்டி	-9.0779
▁எழுதிய	-9.07814
▁பந்த	-9.07857
▁ரன்	-9.07878
▁தமிழர்	-9.07992
▁அறிவிப்பு	-9.08002
▁ஆண்ட	-9.08046
▁மாறி	-9.08132
▁தீர்மான	-9.08298
வற்ற	-9.08339
ெடுத்த	-9.08418
▁நீதி	-9.08427
▁தப்பி	-9.08429
▁வெளியிட	-9.08479
E	-9.08528
▁பண்ண	-9.08614
மதி	-9.08635
▁தனக்கு	-9.08697
▁சந்திக்க	-9.08723
▁கிருஷ்ண	-9.08734
▁ஜனநாயக	-9.0893
▁மருத்துவர்	-9.09026
▁சட்டமன்ற	-9.09158
ங்களிலும்	-9.09213
▁21	-9.09228
கல	-9.09235
▁வார்த்தை	-9.0925
▁வாச	-9.09285
▁அர்	-9.09324
▁சந்திர	-9.0937
▁அவர்கள	-9.09377
▁மார்ச்	-9.09427
▁ஆகும்	-9.09466
களைச்	-9.09504
▁மிரட்ட	-9.09571
தற்கான	-9.09696
▁மது	-9.0971
▁தரிசனம்	-9.09774
தர	-9.09775
▁இன	-9.09805
வதி	-9.09825
வன	-9.09855
▁நிர்வாகிகள்	-9.09871
ணு	-9.09885
▁தொற்று	-9.099
M	-9.09943
▁பணிகள்	-9.10054
▁நினைவு	-9.10079
மொழி	-9.10181
▁இவர்கள்	-9.10328
▁இடம்பெற்ற	-9.10357
▁இலக்க	-9.10465
▁பொருள்	-9.10507
▁பிள	-9.10529
டைந்த	-9.10558
▁கிலோ	-9.10583
▁மாகாண	-9.10584
▁நாட	-9.10592
ுவிட்டது	-9.10659
▁23	-9.10728
▁செய்தது	-9.10735
▁உயர	-9.10764
▁புத்தக	-9.10798
▁டீ	-9.10851
R	-9.11016
▁2024	-9.11077
பூர்	-9.11154
▁ஜெயலலிதா	-9.11179
▁தயாராக	-9.1118
வார	-9.11187
வினர்	-9.11222
போல	-9.11246
வர்களின்	-9.11297
▁சூழலில்	-9.11305
ாளர	-9.11334
ட்டும்	-9.11337
or	-9.11421
▁குமார்	-9.11596
▁வடிவ	-9.11681
▁வழியாக	-9.11701
▁சேர்ந்து	-9.11764
▁நிறைய	-9.11921
ீர்கள்	-9.11949
▁22	-9.11958
▁பணத்தை	-9.11987
▁வெளிநாட்டு	-9.12143
▁அதேபோல	-9.12195
ேந்திர	-9.12211
▁சிறிய	-9.12291
▁தீர்ப்ப	-9.12293
கன்	-9.12584
▁பார்	-9.12622
ஷன்	-9.12698
▁பக்கம்	-9.12748
▁செய்யப்பட்டு	-9.12794
புரம்	-9.12858
▁மாற்றம்	-9.12939
மூர்த்தி	-9.13084
களா	-9.13236
▁கன	-9.13257
▁முன்ன	-9.13274
க்கில்	-9.13526
ரங்க	-9.13587
),	-9.13593
▁பேட்டி	-9.13669
▁அபிவிருத்தி	-9.13725
ிருக்கின்றனர்	-9.13726
▁விஷ	-9.13743
▁விக்கெட்	-9.13775
50	-9.13953
▁பேருந்து	-9.13972
▁யானை	-9.14041
▁சரியான	-9.14113
ுக்குள்	-9.14148
▁வீட்டு	-9.14163
ுகிற	-9.1421
en	-9.14214
▁சந்தை	-9.14268
▁அங்கே	-9.14332
▁அவர	-9.14347
▁தினம்	-9.14359
ிலுள்ள	-9.14394
▁ஜூன்	-9.14411
▁முன்னதாக	-9.14434
▁நாட்களுக்கு	-9.14467
▁லட்ச	-9.14475
ீட்டு	-9.14514
▁அடுத்து	-9.14657
N	-9.14682
▁விவகாரத்தில்	-9.14729
▁அமைச்சரவை	-9.14739
▁சேர்த்து	-9.14868
▁உரிய	-9.14884
▁அறிக்கையில்	-9.15084
▁இயக்குநர்	-9.15113
▁விமர்சித்த	-9.15209
▁ஊர	-9.15511
▁ஆள	-9.15536
▁ரே	-9.15575
▁கிழக்கு	-9.15587
▁நிறுவனங்கள	-9.15617
▁விவசாயி	-9.1564
▁பெற்றோர்	-9.15666
▁முஸ்லிம்	-9.15834
▁செந்தில்	-9.15963
▁படிக்க	-9.16008
▁செல்	-9.16056
▁உடன்	-9.16234
▁பணியில்	-9.1648
னாக	-9.16536
▁அழைக்க	-9.16628
▁மாநகராட்சி	-9.1672
▁மோதல்	-9.16771
▁அருகில்	-9.16844
▁மாற்றி	-9.16933
▁2021	-9.17223
▁தவறு	-9.17226
▁C	-9.17255
▁அந்தக்	-9.17305
▁பங்கேற்ற	-9.17343
▁அமைந்த	-9.1739
▁அனு	-9.17493
▁புரிந்து	-9.17628
▁தலைவராக	-9.17647
▁M	-9.17655
▁பாதை	-9.1773
▁ஹா	-9.17736
▁2019	-9.17754
▁குற்றம்	-9.17864
▁இணைய	-9.17883
▁சரியாக	-9.17925
▁யோக	-9.17967
ண்டை	-9.17998
ங்களையும்	-9.18002
ிருக்கிறார்கள்	-9.18083
பிர	-9.18114
▁கிடையாது	-9.18117
▁பாகிஸ்தான	-9.18171
▁உடனே	-9.18198
ொரு	-9.18217
D	-9.18358
▁ஆண்டுகளில்	-9.18403
▁விண்ணப்ப	-9.18632
▁வழங்கப்படும்	-9.18704
:00	-9.18707
▁அரசுக்கு	-9.18786
▁நிறுவனங்கள்	-9.18893
▁திட்டத்தை	-9.18949
தோடு	-9.18981
ஸா	-9.19172
▁உயிர்	-9.19174
▁அதிகரிக்கும்	-9.19306
.5	-9.19329
▁திருப்ப	-9.19344
▁சாப்பிட	-9.1937
ென	-9.19379
பன்னீர்செல்வம்	-9.19408
▁சாதனை	-9.19411
▁தெரிவித்தனர்	-9.19672
▁பிடிக்க	-9.19734
வற்றை	-9.19795
▁2023	-9.19823
ந்த்	-9.19874
▁இருக்கிற	-9.19892
▁தமிழ	-9.19929
▁சார்ந்த	-9.20054
▁அரசியல	-9.20093
▁நீட்	-9.20109
10	-9.20145
▁அதிகமான	-9.20149
▁மண்டல	-9.20164
▁சார்	-9.20171
▁ஹெ	-9.20276
▁வீதி	-9.20292
ச்சை	-9.20308
▁எனத்	-9.2036
▁நீங்க	-9.20383
த்தே	-9.20422
▁வீச	-9.20471
▁சீர	-9.20498
▁திருச்சி	-9.205
▁கடத்த	-9.20531
▁நிகழ்ச்சியில்	-9.2066
▁காலி	-9.20705
▁பொறுப்பு	-9.20711
▁ரணில்	-9.2072
▁ஆட்சியில்	-9.20791
▁காட்டி	-9.208
▁நேர்	-9.20804
▁தண்ணீர்	-9.20823
▁தொடங்கியது	-9.20832
▁பரிசோதனை	-9.20848
▁விளையாட்டு	-9.20864
▁உயர்ந்த	-9.20906
▁வழங்கி	-9.20933
▁கேரளா	-9.20972
▁பெரும்பாலான	-9.2098
▁உத்தரவு	-9.21014
▁அமர்ந்த	-9.21017
த்திற்கும்	-9.21031
▁நிற்க	-9.2108
▁சொல்	-9.21119
ிறேன்	-9.21224
▁தலைமையிலான	-9.21244
▁சினிமா	-9.21378
▁நிலையத்தில்	-9.21445
▁கோப்பை	-9.2146
▁தரப்பில்	-9.21608
ாண்டு	-9.21696
▁கொடுப்ப	-9.22077
▁மறை	-9.22164
▁P	-9.22173
▁விருது	-9.22316
ுற	-9.22478
▁அப்	-9.22515
▁வழக்கம்	-9.22541
on	-9.22655
▁செய்யப்பட்டுள்ள	-9.22692
▁கம்ப	-9.22699
▁அடித்த	-9.2281
▁கூடுதல்	-9.22814
▁குள	-9.22913
▁அணை	-9.22976
▁சதவிகித	-9.2298
▁ஏற்பட்டுள்ளது	-9.22999
ங்கை	-9.23071
▁பரபரப்பை	-9.23133
▁தயாரிப்ப	-9.2325
▁இருக்கலாம்	-9.23325
▁அவருடைய	-9.23407
▁புகார	-9.23453
▁வந்தனர்	-9.23514
▁அதைத்	-9.23515
▁அதிகரிக்க	-9.23525
கிறார்	-9.23536
▁மொத்த	-9.23573
▁பஞ்சாப்	-9.23723
▁ஒன்றாக	-9.23758
▁அவசியம்	-9.23909
▁பயன்	-9.23957
ஸ்டர்	-9.23964
▁பெருமாள்	-9.23981
▁தட	-9.24077
▁தொடர்பில்	-9.2409
▁வருமான	-9.24103
ுகிறோம்	-9.24169
▁தகுதி	-9.24201
▁சொ	-9.24239
▁பரிந்துரை	-9.24336
▁ஊழியர்	-9.24343
▁வருகிறார்கள்	-9.24455
▁கடி	-9.24459
▁வழங்கப்பட்ட	-9.24526
▁இவை	-9.24532
▁தொழில	-9.24538
▁பிரசார	-9.24747
▁தற்போதைய	-9.24883
▁ரத்து	-9.24948
▁நாளில்	-9.24995
▁வைர	-9.25019
▁கட்டாய	-9.25042
▁மண	-9.25132
▁உண்டு	-9.25274
▁அதிரடி	-9.25297
▁ஹி	-9.25306
▁வங்க	-9.25389
▁திகதி	-9.2544
யார்	-9.25441
▁ரசிகர்கள்	-9.25553
▁எவ்வளவு	-9.25572
▁இர	-9.25579
▁விருப்ப	-9.25617
ுவதில்	-9.25625
▁முன்னேற்ற	-9.25711
▁தெரியவில்லை	-9.25741
டல்	-9.25774
யோடு	-9.25799
▁அக	-9.2593
வர்களை	-9.26032
லிங்க	-9.26063
வாய்	-9.26084
▁எப்போதும்	-9.2611
ப்பின்	-9.26196
▁சிக்க	-9.26384
க்கால	-9.26519
க்கிறது	-9.26562
▁உயர்த்த	-9.2658
ணர்	-9.26759
▁சந்திப்ப	-9.2677
▁எச்சரிக்கை	-9.26802
ாரா	-9.26807
▁நாட்டை	-9.2683
▁இலங்கையில்	-9.26839
ஞ்சு	-9.26898
நோ	-9.26932
▁பின்ன	-9.2696
▁பிள்ளை	-9.26966
▁தெரியும்	-9.26977
▁மொ	-9.27059
▁மாவட்டங்களில்	-9.27065
▁ராகு	-9.27166
களுக்காக	-9.27175
▁கடல்	-9.27234
▁அவசர	-9.27247
▁வித்தியாச	-9.27385
பின்	-9.27418
▁மேற்கொண்டு	-9.27483
ோட	-9.27582
▁அலை	-9.27614
▁போட்ட	-9.27693
▁சதவீத	-9.27702
யிலேயே	-9.27738
▁இதற்காக	-9.27787
ிறோம்	-9.27909
களான	-9.27996
▁ஜே	-9.28076
▁கர	-9.28085
▁ஒருங்கிணைப்பாளர	-9.28091
▁தடுப்பூசி	-9.28091
▁பத	-9.28197
▁மோசமான	-9.28234
ட்ஸ்	-9.28257
▁தயாரிக்க	-9.28376
ாகும்	-9.28399
▁மாநிலங்களில்	-9.28411
▁நிமிட	-9.2853
▁செலுத்தி	-9.28607
▁அருள்	-9.28632
▁கௌரவ	-9.2866
▁சுட்டிக்காட்ட	-9.2866
▁நட்சத்திர	-9.28803
ப்புற	-9.28848
ாம	-9.28922
▁குற்றவாளி	-9.29089
▁கட்டுப்பாட்ட	-9.29089
▁வருகை	-9.29092
▁கர்நாடகா	-9.2912
▁நகை	-9.29197
▁மீட்ட	-9.2925
at	-9.29323
▁பாராட்ட	-9.29347
ுள்ளோம்	-9.29352
▁தமிழ்நாட்ட	-9.29393
▁இருக்கின்றன	-9.29499
னியா	-9.29501
▁கையில்	-9.29532
லட்சுமி	-9.29588
▁வீட்டுக்கு	-9.29788
▁வர்த்தக	-9.29807
▁உள்ளே	-9.29982
▁நிர்வாகம்	-9.30028
▁கீ	-9.30146
▁குறித்தும்	-9.30202
▁ஐக்கிய	-9.30245
▁பேருக்கு	-9.30246
▁பொருத்த	-9.3026
ண்டர்	-9.30397
▁தெரிகிறது	-9.30531
த்திட்ட	-9.30542
▁சிறையில்	-9.30619
▁பக்கத்தில்	-9.30678
வாச	-9.30747
▁செயல்படுத்த	-9.3075
▁ரவி	-9.30778
▁பரப்ப	-9.30784
ஹ்	-9.30794
▁நாடுகளில்	-9.30817
▁கொண்டனர்	-9.30831
▁அம்ப	-9.30869
▁உருவாக	-9.30948
▁முழுமையாக	-9.30972
▁உங்கள	-9.31012
ராஜன்	-9.31019
▁எதிர்த்து	-9.31029
▁எனும்	-9.31038
▁நிற	-9.31042
▁வருவதாக	-9.31076
K	-9.31113
▁திராவிட	-9.31114
ங்களாக	-9.31169
நாயக	-9.3117
▁அமைய	-9.31213
▁இலவச	-9.3126
▁பழைய	-9.31283
▁நிபுணர்	-9.31336
ுள்ளதாகவும்	-9.31338
▁ஆகியவை	-9.31344
▁பேராசிரியர்	-9.31352
▁நிறுவனத்தின்	-9.31393
▁அதேபோல்	-9.31397
டாக	-9.31409
▁சேர	-9.31435
▁சூழ்நிலை	-9.31552
▁பின்பற்ற	-9.31553
▁விவகார	-9.31623
▁தீர்ப்பு	-9.31624
▁அதற்கான	-9.31664
▁எம்பி	-9.31719
▁எங்க	-9.31759
ப்படுத்தி	-9.31777
▁வெளிப்படுத்த	-9.31782
▁நிர்வாகி	-9.31833
▁நவீன	-9.32044
▁எழுப்ப	-9.32055
▁நடைமுறை	-9.32065
▁பாடல்	-9.32076
▁பொருட்	-9.32114
▁வலு	-9.3213
▁அதிகரித்த	-9.3217
▁தூக்கி	-9.32175
▁நியூ	-9.32257
▁இன்னொரு	-9.32289
ட்ரோ	-9.32305
யொட்டி	-9.32439
▁அறிவிக்க	-9.32563
▁கும்ப	-9.32656
▁ஆளும்	-9.32727
▁கண்டு	-9.32855
▁சிக்கல்	-9.32863
▁இடி	-9.329
▁நினைத்த	-9.32905
.....	-9.32967
▁அடித்து	-9.32987
▁பிடித்து	-9.33046
▁நேரடியாக	-9.33183
▁கட்டுப்படுத்த	-9.33191
▁அனுமதிக்க	-9.33199
▁ஓட்ட	-9.33237
▁தேட	-9.33354
ந்தர்	-9.33433
த்ரா	-9.33457
▁தெரிந்த	-9.33474
▁சூழல்	-9.33479
▁வாழ்த்து	-9.33485
நாயக்க	-9.33555
▁மேம்படுத்த	-9.33629
▁தீர்வு	-9.33634
▁சீன	-9.33647
ிருக்கின்றன	-9.33813
▁அறிய	-9.33906
▁ஆய்வ	-9.33933
▁வழங்கும்	-9.34075
is	-9.34133
▁நடப்ப	-9.34133
▁யாருக்கு	-9.34199
▁மோசடி	-9.3423
வான்	-9.34305
▁இயற்கை	-9.3438
▁இரண்டாம்	-9.34383
▁கடிதம்	-9.34421
பிடி	-9.34501
▁கலந்துரையாட	-9.34531
▁விவசாயிகள்	-9.34664
▁பாலாஜி	-9.34684
▁குறைக்க	-9.34803
ப்பதற்கு	-9.34884
ஜெ	-9.3495
ப்பாடு	-9.35085
▁இடை	-9.35283
ப்பாக	-9.35334
▁மூட	-9.35343
▁ஓட்டு	-9.35395
டெ	-9.35428
▁ஆங்கில	-9.35564
▁நமக்கு	-9.35654
ியிருக்கிறார்	-9.35666
ீங்க	-9.3568
▁பாரத	-9.35709
▁படிப்ப	-9.35725
▁கோர	-9.35781
▁ஏற்படுத்திய	-9.3581
▁மறுத்த	-9.35912
▁வழிபாடு	-9.35941
▁பெயரில்	-9.35958
பன்	-9.35968
▁ஒன்றிய	-9.3599
▁அகற்ற	-9.36183
▁தினமும்	-9.362
த்திலேயே	-9.36209
▁டே	-9.36269
கின்றன	-9.3627
மான்	-9.36346
▁ஓர்	-9.36359
▁குற்றம்சாட்ட	-9.36366
▁எண்ணெய்	-9.36397
▁உள்ளதாக	-9.36417
▁நேரில்	-9.3657
▁விநாயகர்	-9.36671
▁பெருமை	-9.36758
▁ஏப்ரல்	-9.36825
▁உள்ளாட்சி	-9.36919
▁மகாராஷ்டிரா	-9.3698
▁கணவர்	-9.37119
▁நாட்களில்	-9.37137
▁எப்போது	-9.37161
▁ஆளுநர	-9.37297
▁மகன	-9.37374
க்கூடும்	-9.37411
▁தோன்ற	-9.37419
▁பிப்ரவரி	-9.37445
▁அதோடு	-9.37481
▁என்பவர்	-9.37508
0,000	-9.37514
▁இங்கே	-9.37605
▁குண	-9.37738
சல்	-9.37749
▁பொருட்களை	-9.37809
பால்	-9.37831
ேஷன்	-9.37908
▁வழக்கறிஞர்	-9.37913
▁அறிவுறுத்த	-9.37914
▁நடிகை	-9.37915
ங்களால்	-9.38139
▁மூலமாக	-9.38142
சார்	-9.38155
மூ	-9.3817
▁தேவ	-9.38173
▁பூமி	-9.38187
▁பக்தர்களுக்கு	-9.38227
▁அடையாள	-9.38272
▁போட்டியிட்ட	-9.38301
▁உறுப்பினர்கள்	-9.38486
▁பார்ப்ப	-9.38488
▁கொண்டார்	-9.38525
▁வயத	-9.38674
▁மில்லியன்	-9.38698
▁செய்வத	-9.38736
▁மண்டப	-9.38858
▁தேர்தல	-9.38898
▁தேச	-9.389
▁டோ	-9.38908
▁செயல	-9.3892
▁ஏமாற்ற	-9.38986
▁27	-9.38993
▁தொகுதியில்	-9.39015
▁பணியாற்ற	-9.39059
▁அரசாங்கம்	-9.39062
▁அழைத்துச்	-9.39111
▁வெறும்	-9.3918
லூர்	-9.39259
▁ராஜ்	-9.39303
▁நடத்தப்பட்ட	-9.39315
▁கட்சிகள்	-9.39317
▁மாறிய	-9.39378
பார்	-9.39393
▁பொருட்கள்	-9.39484
▁நாயக	-9.39531
▁பணியாளர்	-9.39588
▁செய்யப்பட	-9.39635
▁ஆழ	-9.39645
▁பலன்	-9.39728
▁துப்பாக்கி	-9.39801
▁வீழ்த்த	-9.39808
▁இவ்வாறு	-9.39967
▁B	-9.4003
▁நபர	-9.40077
▁ஏற்கெனவே	-9.40127
▁உள்	-9.40303
ிருந்தால்	-9.40375
▁ரசிகர்கள	-9.4047
▁சாத்திய	-9.40523
▁தவற	-9.40609
யானது	-9.40702
நீர்	-9.40714
▁நன்றி	-9.40779
ப்பார்	-9.40886
த்திற்காக	-9.40892
▁அண்ணா	-9.40921
▁அடிக்கடி	-9.40943
▁சேர்த்த	-9.40955
▁விஷயம்	-9.4097
▁விமர்சன	-9.41003
es	-9.41132
▁எடுத்துக்	-9.41175
▁புர	-9.41188
▁பத்திர	-9.41227
▁வாழ	-9.41252
▁அதிகாலை	-9.41255
▁இரான	-9.41266
▁தீர்த்த	-9.41343
▁ஈடுபட்டு	-9.41403
வினர	-9.41441
▁அமைச்சர	-9.41533
▁கொல்லப்பட்ட	-9.41555
▁திட்டத்தின்	-9.4167
▁மனிதர்	-9.417
▁ரீதியாக	-9.41856
▁இருப்பதால்	-9.4187
▁எழுத்த	-9.41927
▁இயங்க	-9.42069
▁தாண்டி	-9.42071
▁தீவிரமாக	-9.42076
▁படத்தில்	-9.42109
ப்பட்டார்	-9.42182
▁விக்ரமசிங்க	-9.42227
பீ	-9.42235
ஹி	-9.42291
▁பதற்ற	-9.42327
▁ஆட்சியை	-9.42389
▁அமைச்சக	-9.42393
வாரி	-9.42402
▁மாணவ	-9.42411
▁சண்டை	-9.42594
▁உள்ளூர்	-9.42639
▁ஆட	-9.42647
▁26	-9.42674
▁சுய	-9.42696
▁எத்தனை	-9.42721
▁தர்ம	-9.42725
▁T	-9.42771
▁கர்நாடக	-9.42847
▁60	-9.42862
▁ஆராய்ச்சி	-9.42864
வதற்கு	-9.42989
▁எடுக்கப்பட்ட	-9.43005
▁ஜனவரி	-9.43047
▁வெடி	-9.43076
மில்லை	-9.4319
▁இத்தகைய	-9.43212
ின்றன	-9.43357
▁வேகமாக	-9.43639
▁28	-9.43696
▁வலி	-9.43704
த்தூர்	-9.43769
▁முழுக்க	-9.43772
ுவதால்	-9.43834
▁உரு	-9.43858
▁வைரஸ்	-9.43859
▁அலுவலகத்தில்	-9.44074
▁புதுச்சேரி	-9.4421
▁கட்சியில்	-9.44238
▁பின்னணி	-9.4427
▁சட்டத்தின்	-9.44286
▁புள்ளி	-9.44403
▁ஆகஸ்ட்	-9.4443
▁பஞ்ச	-9.44585
▁அறிமுக	-9.44712
B	-9.44808
▁உற்சவ	-9.44874
▁வணிக	-9.44895
▁விலக	-9.44947
▁ஆதரவாக	-9.44971
▁நடவடிக்கைகள்	-9.44977
▁மகள்	-9.45056
▁பொதுமக்கள	-9.45098
▁இருக்கு	-9.45148
▁அங்க	-9.45167
▁பொறுத்தவரை	-9.4523
▁செயல்பாடு	-9.45237
மெ	-9.45364
▁ஆய்வாளர்	-9.45415
re	-9.45462
பேட்டை	-9.45566
▁நடத்தினர்	-9.456
▁2020	-9.45649
த்தின	-9.45674
ாகவும்	-9.45789
▁I	-9.45862
ாளராக	-9.4588
▁கணக்கு	-9.45899
▁ஓய்வு	-9.45908
▁சிக்கி	-9.4594
▁நின்ற	-9.45952
▁நடை	-9.45975
▁முகமது	-9.46059
▁செயல்பட்டு	-9.46093
ic	-9.46266
▁ஒற்றை	-9.46402
▁ஓடி	-9.46449
▁பதவியை	-9.46466
▁கோரி	-9.46547
▁மசோதா	-9.46565
க்குழு	-9.46565
▁பெண்களுக்கு	-9.46665
▁போட்டிகளில்	-9.46767
▁அங்கிருந்து	-9.46839
▁லாப	-9.46931
▁லெ	-9.46976
▁உச்சநீதிமன்ற	-9.47078
▁மரியாதை	-9.47078
▁நன்மை	-9.47085
▁சொல்வத	-9.47123
▁மூலாதாரம்	-9.47249
▁கவுன்சில	-9.47249
▁அமைக்கப்பட்ட	-9.47255
பொருள	-9.47469
▁ஆணையம்	-9.475
ிருக்கலாம்	-9.47501
க்கூட	-9.47541
▁மருத்துவமனைக்கு	-9.47558
it	-9.47571
▁அல்	-9.47586
▁பதிவிட்ட	-9.47588
▁இன்றைய	-9.47594
மாகும்	-9.47623
▁வேண்டுமென	-9.47774
▁பொய்	-9.47775
▁ஆகியவற்ற	-9.47805
▁முன்பாக	-9.47942
▁வருவது	-9.47985
பிள்	-9.47992
▁மேற்க	-9.47998
▁வலியுறுத்த	-9.48044
கிருஷ்ண	-9.48055
▁முடிவ	-9.48101
▁பங்கேற்க	-9.48111
▁தெரிந்து	-9.48117
▁ஏற்படுத்தும்	-9.48136
▁மாற்று	-9.48166
▁அத்துடன்	-9.48263
ன்னா	-9.48264
மின்	-9.48389
▁மட்டுமல்ல	-9.48396
▁டெல்லியில்	-9.48407
▁நிறுத்தி	-9.48446
▁தரப்பினர	-9.48482
யெல்லாம்	-9.48498
▁கட்டண	-9.48534
▁அணிக்கு	-9.48608
ாலே	-9.48627
▁கனடா	-9.48685
▁சம்பள	-9.4869
▁வான	-9.48702
▁முடிவுகள்	-9.48721
▁அடையாளம்	-9.48769
▁ஊழல்	-9.48808
▁விசாரணையில்	-9.48901
▁கண்டுபிடிக்க	-9.48981
▁காப்பாற்ற	-9.48982
ெடுக்க	-9.49018
▁குழப்ப	-9.49161
▁ஏற்க	-9.49201
▁குண்டு	-9.49329
▁வங்கதேச	-9.49338
▁ராசி	-9.49338
▁பெயரை	-9.49409
▁ஹமாஸ்	-9.49439
▁ஏழு	-9.49489
▁போராட்டத்தில்	-9.49555
ிவிட்டது	-9.49574
▁கப்பல்	-9.49612
▁சாமி	-9.49663
விட்டனர்	-9.49681
▁மாணவர்களுக்கு	-9.49689
▁சர்மா	-9.49719
ணும்	-9.49743
▁உயர்நீதிமன்ற	-9.49858
▁ஒன்றில்	-9.50015
▁ஓட	-9.50069
▁கோலி	-9.50111
▁பாதுகாக்க	-9.50212
▁விழ	-9.50288
▁பிரதான	-9.50339
▁கிராமத்தில்	-9.50357
பொ	-9.50359
▁இந்தியாவுக்கு	-9.50461
▁ஆதரவ	-9.50522
▁பகிர்ந்து	-9.50644
▁வெளியுறவு	-9.50743
▁உலகின்	-9.50766
▁மதிப்பு	-9.50824
..!	-9.50869
▁வாரம்	-9.50951
▁மக்களவை	-9.50959
▁அழைப்பு	-9.50981
▁அரசியலில்	-9.51071
▁அக்டோபர்	-9.51099
▁வீட்டிற்கு	-9.51099
▁முன்வைத்த	-9.51189
▁அவற்றை	-9.51326
▁சவு	-9.51331
▁ராஜா	-9.5136
▁விநியோக	-9.51638
ின்றனர்	-9.5171
▁நடவடிக்கைகளை	-9.51829
▁நே	-9.51878
▁அமைச்சர்கள்	-9.51906
▁எடுப்ப	-9.51964
▁விளக்கம்	-9.52032
▁பிரதமர	-9.52152
மற்ற	-9.52183
▁சென்றார்	-9.52219
▁நெருக்க	-9.52265
தாவது	-9.52288
▁வடக்கு	-9.52295
▁இதனிடையே	-9.52356
▁அஞ்ச	-9.52356
▁முடிந்தது	-9.52417
▁இருக்கிறார்கள்	-9.5245
▁தொடர்ச்சியாக	-9.52537
▁ஆனாலும்	-9.52539
வச	-9.52569
▁வைப்ப	-9.52574
▁இரண்ட	-9.52691
▁தவ	-9.527
▁நெருங்க	-9.52726
▁நின்று	-9.52759
▁விசாரிக்க	-9.52905
ுடனான	-9.53002
ருவ	-9.53016
▁உதயநிதி	-9.53081
11	-9.53262
▁கிடைத்தது	-9.5328
▁காங்கிரஸ	-9.53352
▁கலந்துகொண்ட	-9.5338
▁இள	-9.53383
▁தூர	-9.53401
▁பெட்ரோல்	-9.53446
▁கட்சியை	-9.53451
▁தமது	-9.53466
▁ஆசை	-9.53475
▁கொள்ளை	-9.53499
▁இல்	-9.53536
▁சொன்னார்	-9.53586
ில்லை	-9.53608
ிடையே	-9.53617
▁தொடர்ந்த	-9.53627
▁சவால்	-9.53628
ப்பணி	-9.53631
லால்	-9.537
▁பெயர	-9.53785
▁பொதுவாக	-9.53789
▁ஆரோக்கிய	-9.53812
▁தவிர்க்க	-9.5402
▁என்னுடைய	-9.54054
▁என்றாலும்	-9.54143
▁சாதாரண	-9.54179
▁கொண்டே	-9.54185
▁குறு	-9.54214
▁வெகு	-9.54251
ப்படாத	-9.5427
▁ஏற்படுத்தியுள்ள	-9.54406
▁டிசம்பர்	-9.54548
▁புதிதாக	-9.54555
னிடம்	-9.54593
▁வன	-9.54651
▁வழங்கப்பட்டது	-9.54714
▁கட்டுப்பாடு	-9.54733
ட்ரி	-9.54832
▁இளம்	-9.54916
▁அதிருப்தி	-9.54918
▁இடையிலான	-9.54918
▁கரை	-9.54933
▁நூல	-9.54986
▁சுற்று	-9.5508
▁வழக்கை	-9.55091
▁சென்றனர்	-9.55186
▁பணிகளை	-9.55192
ாராம்	-9.55233
▁கடற்படை	-9.55289
▁தம்பதி	-9.55292
▁அனைவருக்கும்	-9.55306
▁முக்கியத்துவம்	-9.55475
மிக்க	-9.55635
▁முடியாமல்	-9.55663
வள	-9.55669
▁மேல	-9.558
▁குறைவாக	-9.55813
▁தெரிவிக்கப்பட்ட	-9.55841
▁R	-9.55916
▁பரவி	-9.55968
▁மீட்பு	-9.56037
த்தன்மை	-9.56061
▁லீ	-9.56121
▁குரல்	-9.56136
▁கூறுகின்றனர்	-9.56137
▁வயதான	-9.56163
த்தோடு	-9.56273
▁நாடுகளுக்கு	-9.56282
▁திரை	-9.5629
▁விசாரணைக்கு	-9.56382
▁நன்றாக	-9.56412
▁இடத்தை	-9.56443
▁அவரிடம்	-9.56523
▁அதிமுகவில்	-9.56548
▁பேரை	-9.56551
▁பட்ஜெட்	-9.56601
▁கூட்டு	-9.56624
▁ஹே	-9.56655
▁ஜீ	-9.56713
▁நினைவ	-9.56719
லெ	-9.56898
▁உக்ரைன	-9.56899
▁ரயில்வே	-9.56977
U	-9.56978
வராக	-9.57029
▁செய்	-9.57058
விட்டதாக	-9.5713
▁அபிஷேகம்	-9.57148
▁போகிற	-9.57154
ுவேன்	-9.57178
ினேன்	-9.57208
தெல்லாம்	-9.57229
▁முன்னணி	-9.57249
▁லே	-9.57277
சக்தி	-9.57282
▁மூன்றாவது	-9.57357
12	-9.57472
கோவில	-9.57482
க்காரர்	-9.57498
▁விவரங்கள	-9.57509
▁அமர	-9.57513
▁வியாபார	-9.57548
▁பொதுச்	-9.57668
▁வாய்ந்த	-9.57683
புரி	-9.57734
▁இணையதள	-9.57738
▁நாட்களாக	-9.57738
▁மீன்	-9.57907
▁போலவே	-9.5791
▁இறங்கி	-9.57975
▁பெறும்	-9.58026
ஸை	-9.58055
▁முடிவுக்கு	-9.58081
▁கேப்டன்	-9.58121
▁கொஞ்சம்	-9.58124
▁கட்டட	-9.58131
▁பகிர	-9.58148
▁வலியுறுத்தி	-9.58221
▁பகவான்	-9.58312
▁ஏற்படுத்தியது	-9.58447
▁அன்ன	-9.58452
▁ரன்களை	-9.58489
▁ட்விட்டர்	-9.58503
▁அனுப்பிய	-9.58561
▁மேற்கொள்ளப்பட்ட	-9.58563
▁சொந்தமான	-9.58672
▁சற்று	-9.58753
▁ஏற்ப	-9.58838
▁தன	-9.58884
▁அளவ	-9.58885
▁இணைந்த	-9.58957
▁பணியாற்றி	-9.59028
▁என்பவர	-9.59086
▁நகரில்	-9.59095
▁ஆட்சிக்கு	-9.59125
▁அரை	-9.59127
▁இப்போ	-9.59157
▁விளை	-9.59235
▁பேச்ச	-9.59309
▁செய்கிற	-9.59336
▁தகவல்களை	-9.59342
▁வெளியிட்டுள்ள	-9.59508
தானே	-9.59592
▁டாலர்	-9.59682
▁பிரா	-9.59814
▁பொருள	-9.59862
▁திரும்பி	-9.59887
▁மாதத்தில்	-9.59899
▁வளர்ந்த	-9.59917
▁உயர்வு	-9.59936
▁காம	-9.59966
▁முதல்வராக	-9.59995
▁நியாய	-9.60064
▁புனித	-9.60088
▁காதல்	-9.60104
க்கொள்	-9.60213
▁தரும்	-9.6033
▁அவள	-9.60336
வொரு	-9.60367
▁நாணய	-9.60446
23	-9.60486
▁பதிலாக	-9.60501
▁திறந்து	-9.6052
▁போதை	-9.60577
▁திட்டங்கள்	-9.60588
ஓ	-9.6063
▁பெற்றது	-9.60667
▁அடிக்க	-9.60703
▁விதமாக	-9.60761
▁பல்ல	-9.60821
25	-9.60822
▁தெரு	-9.60828
▁நம்ம	-9.60832
▁விண்வெளி	-9.60836
▁ஏற்றுமதி	-9.60836
▁பள்ளியில்	-9.6084
▁சம்பந்தப்பட்ட	-9.60869
▁ராஜஸ்தான்	-9.61035
▁மேடை	-9.61084
▁செய்யப்படும்	-9.61199
▁கொழும்பு	-9.6123
▁தெய்வ	-9.61264
▁நியமன	-9.61427
▁ஒதுக்கீடு	-9.61427
▁எல்லோர	-9.6143
▁திரி	-9.61475
▁பந்து	-9.61484
▁மீனவர்	-9.61484
▁பயணிகள்	-9.61611
▁இருந்தனர்	-9.6167
▁செயலி	-9.61713
▁தொலை	-9.61776
▁களமிறங்க	-9.61824
▁பதிலளித்த	-9.61824
▁மீட்டர்	-9.6183
▁மிகுந்த	-9.61834
▁வருமானம்	-9.61852
▁காலமாக	-9.61934
▁தெரியவந்தது	-9.62023
▁நிவாரண	-9.62024
▁அக்கட்சி	-9.62024
செய்ய	-9.62038
▁சிரம	-9.62065
▁கோட்டை	-9.62065
▁தடுப்பு	-9.62172
▁இலங்கையின்	-9.62255
ஸ்டாலின்	-9.62315
ப்பதாக	-9.62371
▁அபிஷேக	-9.62442
▁முன்னர்	-9.62544
▁பூஜைகள்	-9.62559
▁நீர	-9.62561
▁பிரதிநிதி	-9.62621
▁வானிலை	-9.62623
ோருக்கு	-9.62718
▁ஆசிய	-9.62719
▁தவறான	-9.62736
▁எம	-9.62743
▁செப்டம்பர்	-9.62822
▁ஸ்டாலின	-9.62848
▁அவசிய	-9.62854
▁கண்டி	-9.629
ுவதில்லை	-9.62943
▁மையம்	-9.62943
▁வாக்குகள்	-9.62988
▁ராஜினாமா	-9.63023
குமார	-9.63094
▁ஆன்லைன்	-9.63224
▁வன்கொடுமை	-9.63224
▁வலைதளங்களில்	-9.63261
▁பழக்க	-9.63304
▁துவங்கியது	-9.63453
▁கொண்டுவர	-9.63519
▁விசா	-9.63586
G	-9.6363
▁மாதங்களுக்கு	-9.63635
▁வரலாற்று	-9.63682
▁இஸ்லாமிய	-9.63698
ொன்ற	-9.63706
▁மேலாக	-9.63731
கூட்ட	-9.63741
வழி	-9.63833
▁சிங்க	-9.63876
▁தனியாக	-9.63896
▁குடியரசுத்	-9.63901
▁மகளிர்	-9.64033
▁நாட்ட	-9.64151
▁29	-9.64152
ப்படுவதாக	-9.64153
நே	-9.64176
▁போராட	-9.64215
▁போலி	-9.64241
▁ஏவுகணை	-9.64439
▁வட்டார	-9.64441
▁உருவ	-9.645
▁கருணாநிதி	-9.64644
ட்டின்	-9.64649
▁வாரிய	-9.64673
▁கீழே	-9.64741
▁செய்தியாளர்	-9.64854
▁அப்பகுதி	-9.64876
▁ஆனந்த	-9.64877
▁ஊழியர்கள்	-9.64923
▁எண்	-9.65036
▁சேலம்	-9.65176
யிட்ட	-9.65275
▁செய்துள்ளார்	-9.65296
ஸில்	-9.65366
▁ஆஸ்திரேலியா	-9.65415
மீது	-9.65457
▁ஒட்டுமொத்த	-9.65464
▁வீசிய	-9.65495
▁இருப்பதை	-9.65555
▁ட்ர	-9.65564
▁வெடித்த	-9.6561
▁வாழ்ந்த	-9.65764
▁கொடுக்கும்	-9.65774
நாத்	-9.65777
▁முருக	-9.6582
▁சதவீதம்	-9.65828
▁உறுப்பினர	-9.65831
ிருக்கிறோம்	-9.65841
▁வெளியேற்ற	-9.65942
▁அடைய	-9.66101
ுடனும்	-9.66124
▁ஒளி	-9.66128
▁அப்படியே	-9.66174
▁திட்டங்களை	-9.66186
▁பரிசு	-9.66229
▁நல்லது	-9.66246
ங்களுடன்	-9.66296
▁கணக்க	-9.66378
▁அமைத்த	-9.66388
▁நியமிக்கப்பட்ட	-9.66459
▁சுந்தர	-9.66476
ப்படுவது	-9.665
▁எனினும்	-9.66505
ஃபி	-9.66561
▁கட்சிக்கு	-9.66643
லீ	-9.66676
▁என்றே	-9.66716
பெற	-9.66829
▁வாங்கிய	-9.66836
▁ஆஃப்	-9.66865
▁முனை	-9.66866
ருடன்	-9.66957
▁வெள்ளி	-9.6701
ுவிடும்	-9.67041
த்தினர்	-9.67046
▁என்கிறார்கள்	-9.67144
▁வைத்தார்	-9.67199
▁தனிப்பட்ட	-9.67221
▁சிக்கிய	-9.67247
▁ஸ்தான	-9.67301
ுவதாகவும்	-9.67332
▁நூற்றாண்ட	-9.67335
▁விளம்பர	-9.67335
▁மனோ	-9.67365
▁படத்தின்	-9.67519
▁காவல்துறையினர்	-9.67543
ப்பெரு	-9.67552
▁ஆடு	-9.67591
▁டெஸ்ட்	-9.67654
ளவில்	-9.67685
த்திற்கான	-9.67717
▁செய்கிறார்	-9.67736
am	-9.67756
▁எதிர்பார்த்த	-9.67768
▁உறுதியாக	-9.6784
▁தெளிவாக	-9.67862
பெற்ற	-9.67872
▁பேட்	-9.6798
▁எதிர்கொள்ள	-9.68032
▁இதுதான்	-9.68129
▁வரலாறு	-9.68179
போல்	-9.6818
▁D	-9.68204
▁கவு	-9.68236
▁31	-9.68322
▁ஒழுங்கு	-9.68322
▁மட	-9.68342
▁கிட்டத்தட்ட	-9.6839
▁கலைஞர்	-9.6839
▁தோற்ற	-9.68469
▁என்பதே	-9.68514
▁ஏற்பாடுகளை	-9.68559
F	-9.68626
வியல்	-9.68658
▁கூறுகிறது	-9.68683
▁நவம்பர்	-9.68815
▁பழனிச்சாமி	-9.68815
▁2018	-9.68815
▁தங்களுக்கு	-9.68943
ிடமும்	-9.69025
▁கல்யாண	-9.69029
▁புதின	-9.69033
▁நகராட்சி	-9.6909
▁இருந்தன	-9.69157
டான	-9.69162
▁காதல	-9.69217
▁ஜெய்	-9.69222
▁பாரம்பரிய	-9.69242
▁திடீர்	-9.69242
▁நிகழ்வ	-9.69314
மூல	-9.69341
விழா	-9.69433
▁பாண்டிய	-9.69455
பெயர்	-9.69481
▁குடும்பத்தினர்	-9.69493
▁விமர்சனம்	-9.69573
▁அழுத்த	-9.69622
▁தோட்ட	-9.69649
▁அங்குள்ள	-9.69659
▁நுழைந்த	-9.69672
▁பார்க்கலாம்	-9.69702
▁படித்து	-9.69757
▁ஏற்பட்டு	-9.69884
▁தேர்ந்தெடுக்க	-9.69886
▁நிச்சயம்	-9.69886
▁விதித்த	-9.69919
▁இளைஞர்கள்	-9.69968
துடன்	-9.70033
▁கொல்கத்தா	-9.70101
▁அரிசி	-9.70116
▁சொல்கிறார்	-9.70159
▁பயன	-9.70224
ஸ்திர	-9.70302
▁பொங்கல்	-9.70319
▁சாய்	-9.70361
▁கற்ப	-9.70396
▁ராணி	-9.70424
▁பாதிக்கப்பட	-9.70425
நாத	-9.70482
▁திண்டுக்கல்	-9.70534
▁மாளிகை	-9.70534
▁உணர்ந்த	-9.70558
L	-9.70566
▁இதற்கான	-9.706
▁கட்டணம்	-9.70655
ொன்று	-9.70697
▁புலி	-9.7075
▁கிறிஸ்	-9.70754
▁கிரி	-9.70756
▁நினைத்து	-9.70775
ென்று	-9.70811
▁வாழ்வ	-9.70844
▁சௌ	-9.70895
▁பரபர	-9.71122
▁தீர்மானம்	-9.71153
▁உரை	-9.71155
▁திறமை	-9.71188
▁ஆத்மி	-9.71198
▁வெளிநாடு	-9.71211
▁அறிவிப்ப	-9.71225
▁ஏதாவது	-9.71269
▁உள்பட	-9.7134
ினாலும்	-9.71366
▁மருத்துவர்கள்	-9.71389
▁சாலையில்	-9.71392
▁விடுமுறை	-9.71406
▁ஜனதா	-9.71407
நாடு	-9.71498
▁படத்தை	-9.71556
19	-9.71566
▁பிரசாத	-9.7159
▁வாக்குறுதி	-9.71624
▁போன்	-9.71634
பொழுது	-9.71716
▁ரகசிய	-9.71842
▁நிறைவு	-9.71849
▁பேரும்	-9.71861
▁பண்ணி	-9.7188
▁டிவி	-9.71947
▁தெரிவிக்கின்றன	-9.71964
▁துறையில்	-9.72004
▁தொடரில்	-9.72059
▁திறன்	-9.7211
திலும்	-9.72186
▁அதிகரிப்ப	-9.72208
▁நிறுவ	-9.72332
▁திசை	-9.72363
▁உணர்வு	-9.72426
▁வசித்து	-9.72431
போதே	-9.72495
▁கள்ளக்குறிச்சி	-9.72503
▁எழுப்பிய	-9.72549
ப்போகிறது	-9.72594
▁லோ	-9.72596
▁தூக்க	-9.72617
▁தேனி	-9.72686
▁செய்துள்ளனர்	-9.72731
▁எழ	-9.72745
▁அமைச்சராக	-9.72773
▁முற்றிலும	-9.7278
▁வெளியாக	-9.72839
க்கார	-9.72949
▁கேரள	-9.72963
▁பயங்கரவாத	-9.72967
▁தொடர்புடைய	-9.72994
▁வாய்ப்புகள்	-9.72995
நாதன்	-9.73047
செய்யப்பட்ட	-9.7309
▁பத்து	-9.73154
▁யாரு	-9.73158
▁அறிமுகப்படுத்த	-9.73162
ra	-9.73203
▁விகித	-9.73243
▁வயதில்	-9.73288
▁முத்து	-9.73308
▁அதற்காக	-9.73364
மாகவும்	-9.73379
▁இதற்கிடையே	-9.73391
▁தீப	-9.73429
▁கலவர	-9.73451
▁மீறி	-9.73464
▁விரி	-9.73547
▁பாஜகவுக்கு	-9.73556
▁தேர்தலை	-9.73718
▁குமார	-9.73765
▁வகித்த	-9.73781
▁கடற்கரை	-9.73838
▁கொடூர	-9.73838
▁இரட்டை	-9.73904
▁தல	-9.74045
▁பொறுத்த	-9.74127
▁நடைபெறுகிறது	-9.74196
▁இருக்காது	-9.74268
▁ப்ர	-9.74283
▁நினைக்கிற	-9.74301
▁கடவுள	-9.74325
▁இதய	-9.74372
▁உடலை	-9.74405
▁திருப்பி	-9.74407
▁திறக்க	-9.74412
▁அரங்க	-9.74437
ிடமிருந்து	-9.74471
▁வசிக்கும்	-9.74517
▁வெப்ப	-9.74531
▁கட்டப்பட்ட	-9.74539
▁அணு	-9.74611
▁எழுதி	-9.7468
▁சம்பவங்கள்	-9.74724
▁வருகிறோம்	-9.74725
▁விதிக்க	-9.74955
▁அறுவை	-9.74971
▁இடையில்	-9.75187
▁அதிகபட்ச	-9.75191
▁தெற்கு	-9.75191
▁செய்துள்ளது	-9.75293
st	-9.75366
தையடுத்து	-9.75496
▁இவ்வ	-9.75504
▁எடை	-9.75554
▁பதிவாகி	-9.75636
▁நகர்ப்புற	-9.75667
▁அமைப்பின்	-9.75688
▁ஆதரவாளர்கள்	-9.75688
▁பெய்ய	-9.75737
▁கருத்த	-9.75788
▁வீட்டை	-9.75828
ed	-9.75886
▁முருகன்	-9.75911
▁வெல்ல	-9.7596
▁நிலவி	-9.75988
▁அதிர்ச்சியை	-9.76058
▁ஆகியவற்றை	-9.76191
▁தயார்	-9.7631
▁அறிவியல்	-9.7636
▁செயலக	-9.76399
▁E	-9.76435
▁பெய்த	-9.76463
▁அறிந்த	-9.76475
▁இறங்க	-9.76514
▁ஆதரவாளர்	-9.76562
▁சூழல	-9.7662
▁தாமத	-9.76756
▁அச்சுறுத்த	-9.76793
▁நீதிபதிகள்	-9.76797
▁ராசிக்கு	-9.76822
▁முடிவை	-9.76823
▁எதிர்கொண்ட	-9.76882
நான்	-9.76902
▁சந்திப்பு	-9.76947
▁தங்களின்	-9.77016
▁உள்துறை	-9.77024
▁அனுமதிக்கப்பட்ட	-9.77038
▁வருத்த	-9.77082
▁தள்ளி	-9.77084
▁வகுப்ப	-9.77119
▁தூத்துக்குடி	-9.77256
▁கேள்விக்கு	-9.77272
▁விதிக்கப்பட்ட	-9.77384
ஒ	-9.77428
▁கூட்டணியில்	-9.77447
as	-9.77453
▁ஆயிரக்கணக்கான	-9.77487
▁கனமழை	-9.77487
▁ஞான	-9.77489
▁பதிலடி	-9.77489
▁வலை	-9.77539
and	-9.7756
▁திருப்பதி	-9.77609
▁குடும்பத்தினர	-9.77738
▁முன்னேற	-9.7775
முடி	-9.77752
▁மண்	-9.77766
ஸின்	-9.77837
▁வழிபட்ட	-9.77843
▁வார்டு	-9.77858
▁வைத்திருந்த	-9.78016
▁அமைந்துள்ள	-9.78158
▁இருப்பதாகவும்	-9.78158
▁பெரும்பான்மை	-9.78187
▁பெரும்பாலும்	-9.78187
▁அக்னி	-9.78225
▁வெள்ளை	-9.78347
▁இடங்களை	-9.78348
▁ரொம்ப	-9.78421
▁சிவசேனா	-9.78421
▁அமைத்து	-9.78526
▁அளிக்கப்பட்ட	-9.78526
▁கற்று	-9.78576
▁தூண்ட	-9.78597
15	-9.78633
▁இடைக்கால	-9.78671
▁இலங்கைக்கு	-9.78675
▁வெளியிடப்பட்ட	-9.78825
ிருக்கிற	-9.78888
▁உற்சாக	-9.78891
▁முந்தைய	-9.78891
▁கட்டமைப்ப	-9.79025
▁டிரா	-9.79031
ad	-9.79121
▁திணைக்கள	-9.79127
▁சட்டவிரோத	-9.79127
▁ஷி	-9.79152
▁பிரதேசத்தில்	-9.792
▁ஆடை	-9.79252
▁விலகி	-9.79328
▁வருகிற	-9.79349
▁உடன	-9.79358
▁அலுவலர்	-9.79363
▁பேசுகையில்	-9.79363
▁விக்கெட்டுகளை	-9.79376
ென்ற	-9.79396
▁கடமை	-9.7941
▁யோகி	-9.79458
▁நிறைந்த	-9.79608
▁தரவு	-9.79628
▁அணிந்து	-9.79633
▁சாப்பிட்ட	-9.79673
▁காதலி	-9.79701
▁ப்ள	-9.79757
▁சுரங்க	-9.7983
▁70	-9.79841
▁இயல்ப	-9.79884
▁தகவல	-9.79944
▁படித்த	-9.79984
▁முன்பே	-9.8
▁ஆரம்பிக்க	-9.80021
▁கணவர	-9.80028
▁அறிகுறி	-9.80076
▁சார்பாக	-9.80129
▁ஒருவரை	-9.80265
▁பத்திரிகையாளர்	-9.80328
▁கோவிலுக்கு	-9.80328
▁அமர்வ	-9.80402
▁நடிப்ப	-9.80433
▁குழந்தைகளுக்கு	-9.80448
கட்சி	-9.80525
24	-9.80535
ஜே	-9.80549
யாகவும்	-9.8067
▁வேற	-9.80716
▁ரெட்டி	-9.80763
▁மேயர்	-9.80879
▁எட்டு	-9.80948
▁வெளியில்	-9.81012
கொள்வத	-9.81172
நாதர்	-9.81364
▁ஒப்புதல்	-9.81426
▁பரபரப்பு	-9.81428
▁தன்மை	-9.81451
▁ஆட்சியர்	-9.81466
▁அறிந்து	-9.81466
▁பிராந்திய	-9.81517
▁அணுக	-9.81534
▁வெட்டி	-9.81574
▁உறுதிப்படுத்த	-9.81639
▁வேளாண்	-9.81759
▁ஆந்திரா	-9.81761
▁விபத்தில்	-9.81772
▁வனத்துறை	-9.81816
▁இலக்கு	-9.81946
▁செல்கிற	-9.81961
▁செவ்வாய்	-9.82001
▁அழுத்தம்	-9.82104
▁அதுவும்	-9.8215
▁கட்டுமான	-9.82154
▁சூப்பர்	-9.82247
▁N	-9.82303
th	-9.82493
ில்லாமல்	-9.82536
▁இருப்பவர்	-9.82571
▁கூறியது	-9.82595
▁துறைமுக	-9.82617
தோறும்	-9.82626
▁காலநிலை	-9.82682
▁அமெரிக்காவின்	-9.82698
▁வளாகத்தில்	-9.82744
▁இவ்வளவு	-9.82748
▁செயல்பட்ட	-9.82755
ப்படுத்திய	-9.82824
▁முன்னிலையில்	-9.82955
▁வழங்கப்பட	-9.82978
▁2017	-9.82978
▁வாய்	-9.83024
le	-9.8317
▁ஈடுபட்டனர்	-9.83175
▁மண்ண	-9.83191
▁இறக்குமதி	-9.83224
▁விசேட	-9.83224
▁ராசிக்காரர்கள	-9.83234
ஆவது	-9.83406
த்திடம்	-9.83408
▁பேரில்	-9.83424
▁பில்லியன்	-9.8347
▁நாய்	-9.835
▁கும்பாபிஷேகம்	-9.83516
▁இங்கிலாந்து	-9.83576
▁மூளை	-9.83626
▁ஒலி	-9.83682
ing	-9.83769
▁குடியரசு	-9.83878
▁s	-9.83927
▁L	-9.83928
▁சகோதரர்	-9.8393
▁இந்	-9.83949
▁G	-9.83961
▁நெல்லை	-9.84074
▁பிரச்சார	-9.84214
▁அதானி	-9.84226
▁அமைந்துள்ளது	-9.84284
வருகிறது	-9.84312
தேச	-9.84375
▁எதிர்க்கட்சிகள்	-9.84412
▁கையெழுத்த	-9.84461
▁முடித்த	-9.84489
▁மர்ம	-9.84496
▁அனைவர	-9.84503
விலிருந்து	-9.84612
▁போராடி	-9.84684
▁காவிரி	-9.84721
பாளையம்	-9.84722
▁உண்மையில்	-9.84789
▁35	-9.84934
▁களத்தில்	-9.8496
▁ஜம்மு	-9.84968
▁கமிஷன	-9.84988
▁எங்கு	-9.85117
▁ஆணையர்	-9.85134
▁ஏறி	-9.85141
▁லஞ்ச	-9.85176
▁விற்க	-9.8519
▁ஹிஜாப்	-9.85215
▁ஆதீன	-9.85219
▁ஜூ	-9.85256
▁வகையான	-9.85279
▁பகுதியை	-9.85302
▁அட்டை	-9.85344
▁நேரங்களில்	-9.85402
பெண்	-9.85404
▁தளபதி	-9.85508
▁சம்ம	-9.85552
▁75	-9.85587
▁முடித்து	-9.85616
▁ஏழை	-9.85694
▁இறக்க	-9.85711
▁2014	-9.85715
▁வந்துள்ளது	-9.85733
▁வார்	-9.85737
om	-9.85874
▁தண்ணீர	-9.86014
▁நடைமுறைப்படுத்த	-9.8613
▁ஆப்கானிஸ்தான	-9.8622
சேகர	-9.86224
▁காவலர்	-9.86227
▁ஆலய	-9.86284
▁ஒருமுறை	-9.86371
▁அதிகரித்துள்ளது	-9.86416
▁நடிக்க	-9.86424
▁என்பத	-9.86482
▁வெற்றியை	-9.86514
▁உணர	-9.86604
▁வந்தால்	-9.86604
▁நானும்	-9.86608
ராஜா	-9.86655
▁ராமர்	-9.86688
▁பாடசாலை	-9.86729
▁வழியில்	-9.86771
▁செய்யலாம்	-9.8678
▁கொன்ற	-9.86809
H	-9.86837
ur	-9.86864
▁பின்பு	-9.8695
▁உத்தரப்பிரதேச	-9.86983
▁குளிர	-9.87048
▁மோசமாக	-9.87057
▁காலங்களில்	-9.87105
▁மசூதி	-9.8724
▁சிறிது	-9.87249
▁முன்வைக்க	-9.87342
▁ஹை	-9.87374
▁ஜான்	-9.87425
▁பட்டியலில்	-9.87462
▁காரிய	-9.87462
▁இதனைத்	-9.87495
▁ஓவரில்	-9.87498
▁அமைச்சின	-9.87501
▁விலங்கு	-9.87754
விலும்	-9.87759
▁பெட்டி	-9.87885
▁தெரியாது	-9.87901
▁கோயிலுக்கு	-9.88024
▁அரசை	-9.88048
▁நெல்	-9.88095
▁வலம்	-9.8813
▁சட்டத்தை	-9.88237
▁பகுதியாக	-9.8824
▁தலைநகர்	-9.88269
▁உரையாற்ற	-9.8827
▁எங்கே	-9.8828
▁அதிபர	-9.8831
▁கட்டிட	-9.88445
▁சட்டப்பேரவை	-9.88528
▁யாத்திரை	-9.8853
▁இந்தியாவை	-9.88536
▁செய்தியாளர்களிட	-9.88675
▁சிறுத்தை	-9.88692
▁ஒற்றுமை	-9.88788
▁எங்களை	-9.88836
வீர	-9.88844
▁வேலைத்திட்ட	-9.88898
▁யாதவ்	-9.88985
▁எம்எல்ஏ	-9.89024
▁500	-9.89091
▁முதலமைச்சர	-9.89111
▁தள்ள	-9.89159
▁இறுதியில்	-9.89175
▁உள்நாட்டு	-9.89309
▁வழிபட	-9.89384
▁இவருக்கு	-9.89448
▁தற்காலிக	-9.89571
▁நட்பு	-9.89574
▁தாக்கிய	-9.89585
▁செய்தால்	-9.8959
▁ஆஸ்திரேலிய	-9.89634
▁கனவு	-9.89784
▁கண்டறிய	-9.89913
▁அபாய	-9.89916
▁தொண்டர்கள்	-9.90038
▁நலன்	-9.90045
▁மட்டுமின்றி	-9.90097
இந்தியா	-9.90226
▁செய்யப்பட்டார்	-9.90238
ாவிட்டால்	-9.90348
▁இதனையடுத்து	-9.9036
▁பெரிதாக	-9.90381
▁முடிந்து	-9.90413
▁தொண்ட	-9.90501
▁எடுக்கப்படும்	-9.90691
▁பெற்றார்	-9.907
▁நாராயண	-9.90751
▁80	-9.90857
▁என்பதில்	-9.91069
▁அறிவித்துள்ளது	-9.91144
▁செயற்கை	-9.91156
▁ஒருநாள்	-9.91165
▁பெற்றோர	-9.91168
▁அமித்	-9.91185
▁சபாநாயகர்	-9.91276
▁கேமரா	-9.91428
▁கிடைக்கவில்லை	-9.91438
▁மறைந்த	-9.91455
▁விளங்க	-9.9146
ினோம்	-9.91549
▁கும்பல்	-9.91576
▁கவனிக்க	-9.91595
▁விஞ்ஞானி	-9.91598
▁மீட்க	-9.91643
▁அவன	-9.91751
▁இடத்திற்கு	-9.91781
▁இணையத்தில்	-9.91834
2022	-9.91845
▁எதிரி	-9.91869
▁எவ்வாறு	-9.91958
▁பண்டிகை	-9.91959
▁எழுப்பி	-9.9199
▁மம்தா	-9.92001
▁சோழ	-9.92007
ch	-9.92069
▁கூறப்பட்டுள்ளது	-9.92083
▁வாக்காளர்	-9.92228
▁ஹோட்டல	-9.92381
▁பட்டியல்	-9.92465
▁தேர்தலுக்கு	-9.9249
▁அமல்படுத்த	-9.92497
▁மாநாட்டில்	-9.92497
▁ஆயிரத்து	-9.925
▁போகும்	-9.92513
▁ஹோ	-9.92547
▁தமிழிடம்	-9.92576
தொடர்ந்து	-9.92638
▁p	-9.92692
▁வண்ண	-9.92728
த்திற்குள்	-9.92774
▁தலா	-9.92795
▁மன்ற	-9.92889
க்கெட்	-9.9296
▁கைதி	-9.92991
▁ஆலோசகர	-9.93038
▁டிஜிட்டல்	-9.93038
▁பிரிட்டன்	-9.93044
▁ஹரி	-9.93047
▁எழுந்துள்ளது	-9.931
▁விழாவை	-9.93182
▁வரவேற்பு	-9.9325
திலிருந்து	-9.93255
▁செய்தியாளர்களை	-9.93295
▁ஆபத்து	-9.93327
களோ	-9.93487
▁கஷ்ட	-9.93539
▁பொதுச்செயலாளர்	-9.93582
▁வருவாய்	-9.93584
▁மீம்ஸ்	-9.936
▁நினைக்க	-9.93622
▁கொண்டிருக்கிறது	-9.93693
▁கூறியிருந்தார்	-9.93772
▁புற்றுநோய	-9.93855
▁கட்டுரை	-9.93866
▁ஷெ	-9.93966
▁கருப்ப	-9.93983
க்கொண்டே	-9.94065
▁என்னிடம்	-9.94085
▁நிர்ணய	-9.9413
▁இருந்தபோது	-9.94162
▁மோகன்	-9.94163
▁நிகழ	-9.94164
▁உரிமையாளர்	-9.94222
▁ஏனெனில்	-9.94404
▁முதன்மை	-9.94405
▁விடுவிக்க	-9.94405
▁வெளியாகியுள்ளது	-9.94429
▁துவங்கி	-9.94469
▁செங்க	-9.94559
வெளி	-9.94579
▁பொறி	-9.94625
▁F	-9.94649
ிருக்கிறேன்	-9.94668
▁நிரந்தர	-9.9468
▁படையினர	-9.9476
▁உண்மையான	-9.94863
▁விட்டது	-9.94918
▁நிகழ்வில்	-9.94991
▁ஊடாக	-9.94996
▁பிபிசியிடம்	-9.95012
▁செயற்பட	-9.95024
▁தொட	-9.95027
▁தொண்டர்கள	-9.95042
▁அதனால்தான்	-9.95092
▁வட்டி	-9.95103
ol	-9.95151
ங்களே	-9.95156
பன்னீர்	-9.95229
▁நோயாளி	-9.95233
▁திரும்பிய	-9.95319
▁கேட்ப	-9.95322
▁உறவினர்	-9.95334
▁வாழ்க்கையில்	-9.9542
கின்ற	-9.95423
▁மலர்	-9.95619
▁பகுதியைச்	-9.95625
▁மந்திர	-9.95626
▁தொட்ட	-9.95655
40	-9.95657
▁பட்டியல	-9.95668
▁வாகனத்தில்	-9.95681
▁கருத்தை	-9.95693
▁ஏதோ	-9.95714
▁படுகொலை	-9.95789
▁நிகழ்ந்த	-9.95798
▁விடுதி	-9.9581
▁கன்னி	-9.9591
ாததால்	-9.95943
▁காண்ப	-9.96084
▁90	-9.96092
பிடித்த	-9.96179
▁பவுண்டரி	-9.96349
▁தாயார	-9.96362
▁தம்பி	-9.96411
▁செய்துகொண்ட	-9.96412
▁உருவாக்கப்பட்ட	-9.96449
▁போலீசார	-9.96451
▁மாதங்களில்	-9.96505
▁பெண்ணை	-9.96617
▁அண்மையில்	-9.9663
▁கலாசார	-9.9663
▁திருப்பூர்	-9.96715
▁பழங்குடியின	-9.96842
▁அசை	-9.96854
நாள்	-9.96903
▁காஷ்மீர்	-9.96911
▁காயமடைந்த	-9.96913
▁சட்டமன்றத்	-9.96927
▁அடுத்தடுத்து	-9.96974
▁காத்திருக்க	-9.97127
▁சுப்பிரமணிய	-9.97128
▁தோனி	-9.97136
▁அமெரிக்காவில்	-9.9719
▁செல்போன்	-9.97194
▁ஆர்ப்பாட்ட	-9.97195
▁வரிசையில்	-9.9721
▁துணி	-9.97236
▁வருவதாகவும்	-9.97261
▁முகாம	-9.97274
▁சொல்கிற	-9.9735
▁தாக்குதல	-9.97367
▁குழுவின்	-9.97466
▁ஜெனரல்	-9.97477
▁வேதனை	-9.97481
▁வருகின்ற	-9.97556
▁மீற	-9.9757
▁சமயத்தில்	-9.97759
▁பராமரிப்ப	-9.97761
▁ராசியில்	-9.97785
ிருந்தாலும்	-9.98015
▁தாக்குதலை	-9.98025
▁கண்டறிந்த	-9.98064
▁டிக்கெட்	-9.98106
▁எக்ஸ்	-9.98164
▁அதிலும்	-9.98192
▁போதுமான	-9.98192
▁உறவினர்கள்	-9.98228
:30	-9.98254
▁காஸா	-9.983
▁ஆர்வம்	-9.9832
▁பிறந்தநாள	-9.9835
▁தூங்க	-9.98475
▁நடத்தப்பட்டது	-9.98535
▁இவரது	-9.98629
▁பிரிவில்	-9.98692
▁ஆகவே	-9.987
▁ஏற்றி	-9.98749
எஃப்	-9.98781
▁வழங்கினார்	-9.98814
▁இதுதொடர்பாக	-9.98906
▁பெங்களூரு	-9.98906
▁அதற்க	-9.98929
▁எளிதாக	-9.98993
▁அதன்பின்	-9.99013
▁ஜோதி	-9.99123
▁விஷயங்களை	-9.99126
▁அமலாக்கத்துறை	-9.9922
புறம	-9.99265
▁புகை	-9.9928
▁தாக்கரே	-9.99297
▁பேட்டிங்	-9.99366
▁இராணுவ	-9.99483
▁மணியளவில்	-9.99483
▁ஆண்டின்	-9.99662
ப்பதற்காக	-9.99676
▁அழைப்ப	-9.99726
▁அங்கீகார	-9.99773
▁நெடுஞ்சாலை	-9.99773
▁முடியுமா	-9.99775
▁பந்துவீச	-9.99819
▁இராஜாங்க	-10.0006
▁அவ்வப்போது	-10.0006
▁முன்னெடுக்க	-10.0008
▁ஒத்துழைப்பு	-10.0015
▁மறுக்க	-10.0016
▁பாம்பு	-10.0025
▁செய்வதற்கு	-10.0045
▁யுக்ரேன	-10.0048
வாழ்	-10.0055
▁திருவண்ணாமலை	-10.0065
▁சந்தோஷ	-10.0065
▁என்பதற்காக	-10.0065
▁வாழும்	-10.0072
▁வெளியிட்டுள்ளது	-10.0089
▁அவ்வளவு	-10.0095
▁ரஷ்யாவின்	-10.0101
ha	-10.0106
▁தெரியாத	-10.011
▁நிதிஷ்	-10.0115
▁பூங்கா	-10.0143
▁எழுந்தருளி	-10.0148
▁ஏனென்றால்	-10.0153
▁ட்வீட்	-10.0153
▁கண்டுபிடித்த	-10.0154
▁காத்திருந்த	-10.018
j	-10.0183
▁டீசல்	-10.0185
▁அமைச்சு	-10.0195
ay	-10.0197
▁தீர்க்க	-10.0197
▁கருவி	-10.02
▁கல்ல	-10.0202
▁அம்மனுக்கு	-10.0212
▁விரத	-10.0222
▁அஜித்	-10.0222
▁உருவாக்கிய	-10.0223
▁விஷயங்கள்	-10.0241
▁சுற்றுச்சூழல	-10.0242
▁தீபாராதனை	-10.0242
▁2016	-10.0242
▁தெரியுமா	-10.0248
▁வெங்கட	-10.0248
▁குறைவான	-10.0256
▁பொன்ன	-10.0273
▁இடம்பெற	-10.0274
▁ஏற்பட்டுள்ள	-10.0283
▁விஸ்வ	-10.0288
▁சகோதரி	-10.0289
▁பார்த்தால்	-10.0294
▁பாரதிய	-10.0294
ப்பதற்கான	-10.0295
▁பெயர்ச்சி	-10.0297
▁இன்றி	-10.0301
J	-10.0302
▁நிலநடுக்க	-10.0302
▁எந்தவித	-10.0302
▁தேவி	-10.0306
▁வழக்கமாக	-10.0308
குளம்	-10.0315
▁தாக்கி	-10.0319
▁மயிலாடுதுறை	-10.0332
▁அதேநேரம்	-10.0332
▁முன்தினம்	-10.0332
▁பானர்ஜி	-10.0332
▁பறக்க	-10.0333
▁நடன	-10.0335
▁ஊராட்சி	-10.0335
▁அப்துல்	-10.0339
▁எதிர்பார்ப்பு	-10.034
▁வளர்ப்ப	-10.0347
களிலிருந்து	-10.0353
▁ஐரோப்பிய	-10.0362
▁சனிக்கிழமை	-10.0362
▁மஹிந்த	-10.0363
▁டிரம்ப்	-10.0364
▁மதியம்	-10.0364
▁உட்பட்ட	-10.037
▁300	-10.0377
▁கைவிட	-10.0387
▁வளாக	-10.0396
▁பருவ	-10.0398
▁மாநாடு	-10.0406
▁போலீஸார	-10.0407
▁ரோஹித்	-10.0409
▁உருவான	-10.041
▁கப்பல	-10.0419
▁உன்ன	-10.0419
▁மஞ்சள்	-10.0423
▁வாழ்க்கையை	-10.0423
க்கொண்டிருந்த	-10.0426
▁தமிழ்நாட்டின்	-10.043
▁வேண்டி	-10.0434
களோடு	-10.0439
▁துவங்க	-10.0442
▁முடக்க	-10.0447
▁பந்துகளில்	-10.0448
▁காரில்	-10.0449
▁ஒழிப்பு	-10.0453
▁அதன்பிறகு	-10.0455
▁படகு	-10.046
▁இருக்கின்றனர்	-10.0476
▁பெற்றுள்ளது	-10.0477
▁காலகட்டத்தில்	-10.0483
▁அரசியலமைப்பு	-10.0483
▁கிளப்பி	-10.0486
▁H	-10.0501
▁தொலைக்காட்சி	-10.0514
▁ஜப்பான்	-10.0515
▁குழுவினர்	-10.0526
▁சிறுவர்	-10.0531
▁அறநிலையத்துறை	-10.0545
▁வேலைவாய்ப்பு	-10.0545
▁தூதரக	-10.0545
▁அய்ய	-10.0549
விட்டால்	-10.0555
▁யுக்ரேன்	-10.0562
▁நம்மை	-10.0569
▁ஊடகங்களில்	-10.057
▁முடிக்க	-10.0572
▁எரிபொருள்	-10.0575
▁ஐபிஎல்	-10.0575
▁இயந்திர	-10.0576
▁சம்ப	-10.0582
▁சக்கர	-10.0588
▁போட்டோ	-10.0591
▁வெளிப்படையாக	-10.0606
▁முடிவில்	-10.0608
மெண்ட்	-10.0612
▁தலைமுறை	-10.0622
▁வருவதால்	-10.0624
▁திறந்த	-10.0626
▁குறைந்தபட்ச	-10.0637
▁மூழ்க	-10.0637
▁பொறுப்பேற்ற	-10.0638
22	-10.0646
▁வலிமை	-10.0664
▁ஞாயிற்றுக்கிழமை	-10.0668
▁மூன்றாம்	-10.0668
5,000	-10.0669
▁ஏற்றுக்கொள்ள	-10.067
▁உள்ளிட்டோர்	-10.0672
▁அழைத்த	-10.0681
ெக்ட	-10.0683
▁தெரியாமல்	-10.0693
▁கன்னியாகுமரி	-10.0699
▁நீலகிரி	-10.0699
▁சாதகமாக	-10.0699
▁அனைத்தையும்	-10.07
▁குடிநீர்	-10.0703
▁கழித்து	-10.071
V	-10.0722
▁வேட்பாளராக	-10.0726
▁கீழ	-10.0727
ிருப்பார்	-10.0728
▁வெள்ளிக்கிழமை	-10.0731
▁தொழிற்சாலை	-10.0731
▁இம்ரான்	-10.0731
▁உடல்நல	-10.0731
▁சிறப்பான	-10.0736
▁மக்களிடம்	-10.0744
ங்களுக்கான	-10.076
▁அரபு	-10.0763
கொள்கிறார்	-10.0764
▁சிங்கப்பூர	-10.0765
▁45	-10.0775
▁துவக்க	-10.0784
▁திருக்கல்யாண	-10.0793
▁தெலுங்கு	-10.0793
▁வலுவான	-10.0798
▁தாக்கத்தை	-10.0799
▁மட்டுமல்லாமல்	-10.0805
▁கொள்ளலாம்	-10.0823
▁ஏதேனும்	-10.0825
▁தினசரி	-10.0825
▁ஒருவேளை	-10.0825
▁சோனியா	-10.0831
▁லோக்சபா	-10.0857
▁‛‛	-10.0857
▁எச்சரித்த	-10.0857
▁போரில்	-10.0861
▁பாமக	-10.0861
▁தொடங்கினார்	-10.0869
▁போதே	-10.0877
▁பத்திரிகை	-10.0887
▁கதாபாத்திர	-10.0888
▁ஷிண்டே	-10.0888
▁தொகுதிகளில்	-10.0895
70	-10.09
▁அங்கிருந்த	-10.0902
▁இழப்பு	-10.0904
▁கண்காணிப்பு	-10.0914
▁குரல	-10.0917
▁வரலாற்ற	-10.092
▁கூடுதலாக	-10.092
▁சமுதாய	-10.092
▁குடியிருப்பு	-10.0932
▁மனதில்	-10.0942
▁முகாம்	-10.0945
▁வலியுறுத்திய	-10.0948
▁புரிய	-10.0952
▁கணக்கில்	-10.0952
▁தெலங்கானா	-10.0952
▁ஈரோடு	-10.0952
▁வாடகை	-10.0952
▁கொண்டிருக்கும்	-10.0958
▁நிரப்ப	-10.0974
கரமான	-10.0976
▁மோதல	-10.0982
▁தடுத்து	-10.0982
▁ஆப்பிரிக்க	-10.0984
▁தருமபுர	-10.0984
▁எதையும்	-10.0985
▁சொல்லப்படுகிறது	-10.0991
▁தொலைவில்	-10.1005
▁மன்னிப்பு	-10.1016
▁அற்புத	-10.1016
▁பயிர்	-10.1019
▁தொகுப்ப	-10.102
நேர	-10.1029
▁தயாரித்த	-10.1049
▁அபராத	-10.1049
▁உரையாட	-10.1049
▁புகழ்	-10.1052
▁கணவன்	-10.1057
80	-10.1071
▁தவறாக	-10.1077
▁ராஜபக்சே	-10.1081
▁சிபிஐ	-10.1081
▁வீட்டில	-10.1084
▁வகிக்க	-10.1085
ங்களுக்காக	-10.1089
▁ஒப்பிட	-10.1089
▁வேண்டுமா	-10.1089
▁மாடல்	-10.1138
▁கிளை	-10.114
▁விழுப்புரம்	-10.1146
▁மணிப்பூர்	-10.1146
▁சிந்தனை	-10.1146
▁மொத்தமாக	-10.116
▁வரலாற்றில்	-10.1171
▁பறிமுதல்	-10.1179
01	-10.1186
▁அடங்க	-10.1189
▁சான்றிதழ்	-10.1191
▁விளைவு	-10.1197
▁அடக்க	-10.1199
▁இந்தியர்கள	-10.1199
▁கூறியுள்ளது	-10.1207
▁கம்யூனிஸ்ட்	-10.1211
▁வணங்க	-10.1215
பெரும்	-10.1227
▁தொலைபேசி	-10.1244
▁மாரியம்மன்	-10.1244
▁கழிவு	-10.1245
▁அயோத்தி	-10.1246
▁காற்று	-10.1271
▁கும்பாபிஷேக	-10.1272
▁ராஜபக்ஷ	-10.1277
▁ஜெயக்குமார்	-10.1277
▁ஒளிபரப்ப	-10.1282
▁மணிநேர	-10.1282
▁இளைஞர	-10.1298
▁பணியிட	-10.1307
▁ட்விட்டரில்	-10.1311
▁இத்தனை	-10.1312
ce	-10.1312
▁ஏக்கர்	-10.1313
▁மாறாக	-10.1321
நெ	-10.1322
கொள்கிற	-10.1327
▁பகிர்ந்த	-10.1329
▁பணிப்பாளர்	-10.1344
▁கஞ்சா	-10.1344
▁ஒப்படைக்க	-10.1344
▁கிடந்த	-10.1346
▁ரஜினி	-10.1377
▁நியமிக்க	-10.1384
ப்படுகிறார்	-10.1395
▁W	-10.1405
வேண்டிய	-10.1409
▁அளவிலான	-10.1411
▁கொடுமை	-10.1411
▁செயலாளராக	-10.1413
▁கொல்ல	-10.1418
▁தேரோட்ட	-10.1444
▁V	-10.1454
60	-10.1455
▁அவருடன்	-10.1462
▁நேற்றைய	-10.1478
▁எம்எல்ஏக்கள	-10.1481
▁அடங்கிய	-10.1485
il	-10.1486
▁லட்சத்து	-10.1489
05	-10.1494
▁இயல	-10.1501
+	-10.1512
▁யோசனை	-10.1512
▁தேவையில்லை	-10.1512
▁தாக்குதலில்	-10.154
▁குதிரை	-10.1546
ஒரு	-10.1557
மாட்டார்	-10.1558
us	-10.1564
▁அழிக்க	-10.1571
▁மஹா	-10.1573
▁வெவ்வேறு	-10.1579
▁சரவண	-10.1579
▁சமீப	-10.158
▁தொற்ற	-10.1584
▁பிரதமராக	-10.16
▁காணப்பட்ட	-10.1607
▁பிறப்பித்த	-10.1614
▁சேனல	-10.1615
▁கண்டறியப்பட்ட	-10.1616
▁ஆதரவை	-10.1641
▁வல்ல	-10.1647
▁வரவேற்ற	-10.1651
▁வண்டி	-10.1654
▁வரிசை	-10.1655
▁புகுந்த	-10.1655
▁வைத்திருக்க	-10.166
▁விவாதிக்க	-10.1662
ரெட்	-10.1667
▁நீள	-10.167
▁விரைந்து	-10.1676
▁ஆராதனை	-10.1682
▁சர்க்கரை	-10.1682
▁கர்ப்ப	-10.1686
el	-10.169
▁இந்துக்கள	-10.1692
ரத்ன	-10.1696
▁பாதிப்பை	-10.1697
▁காணாமல்	-10.1701
▁கட்சியினர்	-10.1701
ிற்கான	-10.1702
▁செயலாளர	-10.1707
▁வரவேற்க	-10.1717
▁செல்வாக்கு	-10.1721
▁பின்னால்	-10.1723
▁வளர்க்க	-10.1726
un	-10.1728
▁அமாவாசை	-10.1751
▁சீனிவாச	-10.1751
▁வீட்டின்	-10.1756
▁நாளிதழ	-10.1786
▁அதிகாரப்பூர்வ	-10.1786
▁புரட்சி	-10.1786
▁மாட்டார்கள்	-10.1786
▁வேலூர்	-10.1796
▁இடையேயான	-10.1799
▁கையாள	-10.18
▁தகவலை	-10.1808
▁பேரணி	-10.1812
▁முதுக	-10.182
▁புயல்	-10.1824
▁உழைப்ப	-10.1826
▁தவிர்த்து	-10.1829
▁பைடன்	-10.1837
▁ஹைதராபாத்	-10.1856
▁அண்ணன்	-10.1857
மென்ட்	-10.186
▁2015	-10.1861
செல்வ	-10.1862
▁போதிலும்	-10.1867
la	-10.187
▁சரத்	-10.1882
மின்றி	-10.1887
x	-10.1891
▁ஆக்கிரமிப்ப	-10.1891
▁கணக்கெடுப்ப	-10.1891
▁ஆச்சரிய	-10.1891
த்தொகை	-10.1891
▁கமிட்டி	-10.1891
▁ஆபாச	-10.1892
▁பங்கேற்றனர்	-10.1894
▁இருக்கிறோம்	-10.1917
▁மாநகர	-10.1923
et	-10.1926
▁பிரியங்கா	-10.1926
▁கிடைக்காத	-10.1927
▁விதிமுறை	-10.1935
▁கொடுக்கப்பட்ட	-10.195
ிலிருந்த	-10.1957
▁சமேத	-10.1964
▁கண்டித்து	-10.1968
▁நீடித்த	-10.198
ுவதன்	-10.1982
ிற்காக	-10.1984
▁கடல	-10.1985
▁கலந்துகொண்டனர்	-10.1988
▁முழுவத	-10.1989
▁பாருங்க	-10.1991
▁திருநெல்வேலி	-10.2032
▁சராசரி	-10.2032
▁விழிப்புணர்வு	-10.2032
ாதீர்கள்	-10.2036
▁விரோத	-10.2046
▁கேட்டுக்கொண்ட	-10.2053
ீஸ்வரர்	-10.2055
▁தெரிவ	-10.2063
▁ஆபத்தான	-10.2068
▁உயிரிழப்பு	-10.2068
▁கெஜ்ரிவால	-10.2068
▁பிரிட்டிஷ்	-10.2068
▁உறுப்பு	-10.2069
▁கொண்டாட்ட	-10.207
▁இழுத்து	-10.2073
▁அளவிற்கு	-10.2074
▁மாதங்களாக	-10.2076
▁இடங்களிலும்	-10.2081
▁உடல்நிலை	-10.2081
▁உதய	-10.2101
▁தொடர்பாளர்	-10.2104
▁அவுட்	-10.2105
▁நீக்கப்பட்ட	-10.211
▁கடலில்	-10.2112
▁கிளம்பி	-10.2132
▁அத்தகைய	-10.214
▁மைதானத்தில்	-10.214
▁இதேபோல்	-10.2142
▁தெளிவ	-10.2165
▁இழப்ப	-10.2173
▁சித்திரை	-10.2177
▁பேட்டர்	-10.2192
▁தஞ்சாவூர்	-10.2212
▁முறைகேடு	-10.2212
▁மெல்ல	-10.2217
▁டூ	-10.2224
▁ஆட்டோ	-10.2233
▁ஷேக்	-10.2246
▁இரவில்	-10.2247
▁துன்புறுத்த	-10.2249
▁காஞ்சிபுரம்	-10.2249
▁என்னென்ன	-10.2257
▁தைவான	-10.227
▁சமர்ப்பிக்க	-10.2285
▁பூர்த்தி	-10.2287
▁ராக்கெட்	-10.229
▁வேண்ட	-10.2297
▁மேற்கொள்வ	-10.2311
▁மாதிரியான	-10.2313
▁வலைதள	-10.2315
▁வாக்களிக்க	-10.2322
▁பலவீன	-10.2322
▁விஷயத்தில்	-10.2322
▁அரசியல்வாதி	-10.2322
▁பதவியேற்ற	-10.2322
▁மேலே	-10.2339
▁பறந்த	-10.2351
▁காணொளி	-10.2359
▁சிஎஸ்கே	-10.2359
▁தினேஷ்	-10.2368
▁அந்நாட்டு	-10.2395
▁நெட்டிசன்கள்	-10.2395
▁அப்போதைய	-10.2395
▁அன்றைய	-10.2395
▁சூர்யா	-10.2397
▁கோர்ட்	-10.2429
▁சஞ்சய்	-10.2433
▁இந்திரா	-10.2438
ப்படவுள்ள	-10.2458
▁இயக்குநர	-10.2461
▁ஆராய	-10.2462
▁ராஜீவ்	-10.247
▁டிகிரி	-10.247
ீர்களா	-10.2476
▁மீன்பிடி	-10.2479
▁சதுர	-10.2486
▁சன்னதி	-10.2507
▁அவற்றின்	-10.2507
▁பறவை	-10.2508
▁கிரகங்கள	-10.2517
ation	-10.2524
▁நீடிக்க	-10.2533
பொருட்கள	-10.254
▁வழக்குப்பதிவு	-10.2544
▁தென்காசி	-10.2545
▁அமித்ஷா	-10.2547
▁அனைவரையும்	-10.255
▁கருதப்படுகிறது	-10.2565
▁சலுகை	-10.2582
▁ஜாமீன்	-10.2582
▁முடிகிறது	-10.2588
▁சம்பந்த	-10.2607
▁பாலஸ்தீன	-10.262
▁வீழ்ச்சி	-10.262
▁விருதுநகர்	-10.262
▁ஊதிய	-10.2622
▁மீட்கப்பட்ட	-10.2627
ter	-10.2638
▁இருவருக்கும	-10.2643
▁வளர்த்த	-10.2645
▁ஏற்றுக்	-10.2654
▁நிரூபிக்க	-10.2658
▁பசுமை	-10.2658
▁தைரிய	-10.2659
▁மானிய	-10.2667
▁குவிந்த	-10.2675
▁மீள	-10.2684
▁தடுப்ப	-10.2695
▁ஓவர்களில்	-10.2696
▁பாலின	-10.2704
▁சந்தர்ப்ப	-10.2734
▁நன்கு	-10.2735
ென்ன	-10.2735
▁பாதுகாப்பாக	-10.2741
▁ஓபிஎஸ்ஸ	-10.2751
▁வழிகாட்ட	-10.2752
▁மனநிலை	-10.2753
▁அரவிந்த்	-10.2772
▁வெற்றிகரமாக	-10.2772
▁பழமையான	-10.2772
▁உத்தவ்	-10.2773
▁வலுப்படுத்த	-10.2776
▁வேறுபாடு	-10.2782
▁பதிவிட்டுள்ளார்	-10.2792
▁மேலதிக	-10.2792
▁பாலத்தீன	-10.2811
▁ஒடிசா	-10.2811
▁திறன	-10.2813
▁சீமான்	-10.282
▁குறைபாடு	-10.2822
▁தீர்மானிக்க	-10.2833
▁திரவ	-10.2837
▁அம்பேத்கர	-10.2849
▁ஹோமம்	-10.285
▁திகழ	-10.285
▁கூட்டமைப்ப	-10.2859
▁சிறுவன்	-10.2864
▁கிடைப்பத	-10.287
▁ஹிந்து	-10.2872
▁உதாரணமாக	-10.2888
▁சண்முக	-10.2888
▁கண்ணாடி	-10.2888
▁மடங்கு	-10.2893
▁பேசினோம்	-10.2895
▁ராஜேந்திர	-10.2896
▁விலக்கு	-10.2899
▁வைரலாகி	-10.2902
▁ஆண்டுதோறும்	-10.2903
▁அசோக்	-10.2903
▁நாட்டிற்கு	-10.2932
▁கெட்ட	-10.2934
▁குவித்த	-10.2941
▁150	-10.2958
▁ஓய்வூதிய	-10.2966
▁இடைவெளி	-10.2967
▁அவ்வ	-10.2986
▁இலட்ச	-10.3005
▁உலகக்கோப்பை	-10.3005
▁நேபாள	-10.3005
▁நாளாக	-10.3027
▁அகில	-10.3035
▁நிர்மலா	-10.3045
▁பங்களிப்பு	-10.3045
▁பழநி	-10.3054
▁ஆயிர	-10.3073
▁நாடாக	-10.3074
▁விராட்	-10.3076
▁அரேபியா	-10.3084
▁முதற்கட்ட	-10.3084
▁தள்ளுபடி	-10.3084
▁சந்திரசேகர	-10.3086
ெண்ட	-10.309
▁அளிப்ப	-10.3123
▁அறக்கட்டளை	-10.3124
▁நாயுடு	-10.3124
மங்கலம்	-10.3127
▁முன்னிலை	-10.3128
▁திட்டமிட	-10.3131
▁குற்றச்சாட்ட	-10.3138
▁ஷர்மா	-10.3164
செயல	-10.3165
▁கமல்	-10.3169
▁பார்வையாளர்கள	-10.3172
▁உணர்வ	-10.3174
▁அழுத	-10.3194
▁காய்ச்சல்	-10.3204
▁புதுக்கோட்டை	-10.3204
▁ராமநாதபுரம்	-10.3204
▁சுரேஷ்	-10.3204
▁வேட்பாளர	-10.3204
▁பாராட்டி	-10.3206
▁முன்னெடுத்த	-10.3207
▁ஆதித்யநாத்	-10.3244
▁வலது	-10.3247
▁பீகார்	-10.3285
▁நம்மிடம்	-10.3292
▁மற்றவர்கள	-10.3301
▁விகடன	-10.3324
▁கிலோமீட்டர்	-10.3325
▁நிம்மதி	-10.3325
▁மதிப்பெண்	-10.3325
▁பொருந்த	-10.3327
▁வெப்பநிலை	-10.3329
▁எடுத்துக்கொள்ள	-10.3343
▁இஸ்லாமியர்கள	-10.3351
▁ரீதியில்	-10.3365
▁வேண்டுகோள	-10.3365
▁of	-10.3365
▁வாயிலாக	-10.3365
▁போராட்டக்காரர்	-10.3369
▁நிகழ்த்த	-10.3371
▁மேற்பட்டோர்	-10.3378
▁தலித்	-10.3401
▁வல்லுநர்	-10.3406
▁திரிணாமுல்	-10.3406
▁வீராங்கனை	-10.3406
▁இன்னிங்ஸ	-10.3406
▁உண்டாகும்	-10.3406
▁பங்கேற்ப	-10.3406
▁திரள	-10.3418
▁திரட்ட	-10.3421
▁கோவிட்	-10.3425
▁கருத்துக்களை	-10.3439
▁காய்கறி	-10.3447
▁கலாச்சார	-10.3447
▁மேம்பாட்டு	-10.3447
▁மாத்திரை	-10.3448
▁ஏற்றுக்கொண்ட	-10.345
▁சத்ய	-10.3457
ப்போகிறார்	-10.3459
▁அடைக்கப்பட்ட	-10.3464
▁வெளிவந்த	-10.3468
▁முழுமையான	-10.3488
நிறுத்த	-10.349
▁ரிஷப	-10.3526
▁புகழ	-10.3532
மாற்றம்	-10.3535
▁திணற	-10.3537
▁தலையிட	-10.3565
▁இருக்கிறேன்	-10.357
▁கால்நடை	-10.3571
▁வாக்குப்பதிவு	-10.3571
▁லெபனான	-10.3571
▁வரையிலான	-10.3571
▁கண்காணிப்பாளர்	-10.3574
▁விரிவான	-10.3575
▁நம்முடைய	-10.3575
▁மறக்க	-10.3576
▁சகோதர	-10.3595
▁கோபுர	-10.3607
▁ஏனைய	-10.3615
▁எதிர்பார்ப்ப	-10.3644
▁படுக்கை	-10.3655
▁வரவேற்ப	-10.3664
▁அத்தியாவசிய	-10.3697
▁உலகளாவிய	-10.3697
▁தீபாவளி	-10.3697
▁பற்றாக்குறை	-10.3697
▁ஒன்பது	-10.3697
▁மறுநாள்	-10.3699
▁கரூர்	-10.3709
ll	-10.3723
▁ஜெர்மனி	-10.3739
▁ரமேஷ்	-10.3739
▁கடினமான	-10.3739
ரேஷ்ட	-10.3739
▁விரிவாக	-10.3745
களிடையே	-10.3764
▁சாட்டப்பட்ட	-10.3768
▁நிபந்தனை	-10.3781
▁விமர்சிக்க	-10.3781
▁சமாதான	-10.3781
▁தொல்லை	-10.3781
வேலுமணி	-10.3782
▁மறைமுக	-10.3786
▁வருடங்களாக	-10.3787
கொடுக்க	-10.3797
▁மூன்ற	-10.3823
▁பெங்களூர்	-10.3824
▁மொபைல்	-10.3824
▁வேளையில்	-10.3824
▁மறந்து	-10.3825
விடுவார்	-10.3834
ுவீர்கள்	-10.3837
▁இளம்பெண்	-10.3868
▁சமீபத்திய	-10.387
ுவதே	-10.3871
▁எதிர்பாராத	-10.3909
▁சிசிடிவி	-10.3909
▁நோட்டீஸ்	-10.3909
▁கொள்கிறேன்	-10.3909
▁நடமாட	-10.3911
▁விளையாட்ட	-10.3918
▁வெற்றிபெற்ற	-10.392
▁நடைபெறவுள்ள	-10.3928
▁செயற்பாடு	-10.3952
▁புலனாய்வு	-10.3952
▁கடிதத்தில்	-10.3953
சுவாமி	-10.3956
▁ஆராய்ச்சியாளர்	-10.3957
▁கணபதி	-10.3958
▁அம்சங்கள	-10.3958
கொடியேற்றத்துடன்	-10.3962
▁கடலூர்	-10.3963
▁தரிசன	-10.3988
பன்னீர்செல்வத்த	-10.3996
1,000	-10.4026
▁பரீட்சை	-10.4039
▁நிறைவடைந்த	-10.4039
▁பேரூராட்சி	-10.4039
▁எரிவாயு	-10.4039
▁ஓரளவு	-10.4039
சுந்தர	-10.4068
▁பறிக்க	-10.4078
▁இதற்கிடையில்	-10.4083
▁ஓமிக்ரான்	-10.4083
▁பிரான்ஸ்	-10.4089
▁பெற்றுக்கொள்ள	-10.4095
▁தெலுங்கானா	-10.4127
▁ஐரோப்பா	-10.4127
▁சமாளிக்க	-10.4127
▁தனித்தனி	-10.4127
▁செய்வதற்கான	-10.4132
▁நினைப்ப	-10.4132
▁சரண்	-10.415
▁குமர	-10.4177
▁அவ்வாறு	-10.4215
▁தொழிற்	-10.4215
▁ஜப்பான	-10.4218
முருகன்	-10.4219
▁குடிமக்கள	-10.4222
▁நீண்டகால	-10.4224
▁ஸ்கோர	-10.4226
▁முதலீட்டாளர்	-10.4259
▁தினகரன்	-10.426
▁லேசான	-10.426
▁அக்கறை	-10.4261
▁கிளம்ப	-10.427
▁க்ள	-10.4271
▁திறக்கப்பட்ட	-10.4287
▁பிரம்ம	-10.4298
▁ஆட்டமிழந்த	-10.4304
▁இதன்மூலம்	-10.4304
▁ஸார்	-10.4305
▁திரண்ட	-10.4317
▁அமலாக்க	-10.4345
▁அங்கீகரிக்க	-10.4349
▁அம்மாநில	-10.4349
▁கண்காணிக்க	-10.4349
▁இதுபற்றி	-10.4349
▁கடலோர	-10.4349
▁துருக்கி	-10.4349
▁சமாஜ்	-10.4349
▁பணிபுரிந்த	-10.435
▁முழங்க	-10.4352
▁அத்தனை	-10.4352
▁செய்வதற்காக	-10.4356
களிடமிருந்து	-10.436
▁முன்னுரிமை	-10.4394
▁ஹெலிகாப்டர	-10.4394
▁மறுபுறம்	-10.4394
▁வேண்டுமானாலும்	-10.4394
▁உள்ளடக்கிய	-10.4394
▁செய்பவர்	-10.4397
▁சிம்ம	-10.4425
Y	-10.4439
▁காரைக்கால்	-10.4439
▁ஹீரோ	-10.4439
▁பிரமுகர்	-10.444
`	-10.4441
▁ஜெகன்	-10.4447
▁விளைவாக	-10.4448
▁பழங்குடி	-10.445
▁மேலிட	-10.4454
▁ஊர்வலம்	-10.4485
▁மீடியா	-10.4485
▁சனாதன	-10.4485
▁ஒப்புக்	-10.4489
▁கதிர	-10.4508
▁ராஜஸ்தான	-10.453
▁போதைப்பொருள்	-10.453
▁ஓராண்டு	-10.453
▁நியமித்த	-10.4531
▁ஈரான்	-10.4531
மயமாக்க	-10.454
ஏக்நாத்	-10.4556
▁புஷ்ப	-10.4559
▁ஃப்ர	-10.4575
▁News	-10.4576
▁மாலத்தீவு	-10.4576
▁ஊரடங்கு	-10.4576
▁ஆகியோரை	-10.4576
▁சீரியல்	-10.4581
▁பேரறிவாளன	-10.4622
▁கண்காட்சி	-10.4622
▁சிவகங்கை	-10.4622
▁சிக்ஸர்	-10.4669
▁ஜடேஜா	-10.4669
▁தோல்வியடைந்த	-10.4669
▁லக்னோ	-10.4669
▁ஆஜராக	-10.4669
▁ராமதாஸ்	-10.4669
▁கண்டுபிடிப்ப	-10.4669
▁ஒப்புக்கொண்ட	-10.4671
வரிசை	-10.4676
▁கிடக்க	-10.4684
▁பட்டியலின	-10.4698
▁நிலவுகிறது	-10.4715
▁மதுபான	-10.4716
▁பயங்கர	-10.4758
▁மேலாண்மை	-10.4762
▁ரிசர்வ்	-10.4762
▁அவற்றில்	-10.4762
▁இயக்குனர்	-10.4763
▁பிரேத	-10.4763
▁மஸ்க்	-10.4791
ீஸ்வர	-10.4795
▁நகைச்சுவை	-10.4809
▁மாட்டோம்	-10.4809
▁தாமரை	-10.481
▁முடிவடைந்த	-10.4812
▁விஷயங்கள	-10.4816
▁பதிலளிக்க	-10.4856
▁தக்காளி	-10.4856
▁the	-10.4856
▁திறப்பு	-10.4856
▁டிடிவி	-10.4857
▁நெரிசல	-10.4857
W	-10.4863
▁வாடிக்கையாளர்கள	-10.4877
சங்கர்	-10.4899
▁நன்கொடை	-10.4903
▁தமிழிசை	-10.4903
▁பணவீக்க	-10.4904
▁மன்னார்	-10.4904
ாபாத்	-10.495
‛	-10.4951
▁என்னவென்றால்	-10.4951
▁ஒருங்கிணைந்த	-10.4951
▁பிளாஸ்டிக்	-10.4951
▁ஊர்வலமாக	-10.4951
▁ஹரியானா	-10.4951
▁திருமாவளவன்	-10.4951
▁அன்னதானம்	-10.4951
▁ரெய்டு	-10.4951
▁விரைவாக	-10.4951
▁இளையராஜா	-10.4951
▁குறுகிய	-10.4951
▁விடுக்கப்பட்ட	-10.4953
▁to	-10.4954
▁கொடியேற்ற	-10.4988
▁முன்கூட்டிய	-10.4999
▁ராமேஸ்வரம்	-10.4999
▁இதழ	-10.5002
▁போதிய	-10.5007
▁எழுந்தருள	-10.5007
▁சுக்கிரன்	-10.5047
▁எங்களிடம்	-10.5047
▁என்பதற்கு	-10.5047
▁நிரம்பி	-10.5047
▁வாரிசு	-10.5047
▁இன்றைக்கு	-10.5048
▁அகிலேஷ்	-10.5049
▁சமர்ப்பித்த	-10.5095
▁நாமக்கல்	-10.5095
▁வழிநடத்த	-10.5095
ive	-10.5098
▁குடியேற	-10.5141
▁பந்துவீச்சாளர்	-10.5144
▁கொள்முதல்	-10.5144
▁படிப்படியாக	-10.5144
▁காணிக்கை	-10.5144
▁சிரித்த	-10.5158
▁பாக்கிய	-10.5174
▁எவ்வித	-10.5193
▁காங்கிரச	-10.5193
▁எலும்பு	-10.5193
▁திரையரங்க	-10.5193
க்கொடுத்த	-10.5195
▁இழப்பீடு	-10.5242
▁மீனாட்சி	-10.5242
▁அன்புமணி	-10.5242
நிறுவன	-10.525
ாயிரம்	-10.525
▁கோவிந்த	-10.5254
▁ஓவிய	-10.5265
ிறீர்கள்	-10.5279
&	-10.5291
▁இந்நிகழ்வ	-10.5291
▁எக்ஸ்பிரஸ்	-10.5291
▁பிரமாண்ட	-10.5291
▁முதியவர்	-10.5291
▁ஆதரிக்க	-10.5291
▁பொம்மை	-10.5293
▁திட்டமிடப்பட்ட	-10.5329
▁கலாநிதி	-10.534
▁சதுர்த்தி	-10.534
▁அரங்கேற	-10.5344
▁மட்டக்களப்பு	-10.539
▁அதிர்ஷ்ட	-10.539
▁ஆயுள்	-10.539
▁குரங்கு	-10.5391
▁பாலிவுட்	-10.5391
▁இம்முறை	-10.5392
▁பார்வையிட்ட	-10.5394
2,000	-10.5409
மாதிரி	-10.5412
▁செங்கல்பட்டு	-10.544
▁வாக்களித்த	-10.544
▁பிரதிநிதித்துவ	-10.544
▁ஒலிம்பிக்	-10.5441
க்கொடி	-10.5442
▁செயல்பாட்ட	-10.5444
▁விஷயம	-10.5467
▁உட்கார்ந்த	-10.549
▁வறுமை	-10.5491
▁ஸ்ட்ர	-10.5492
▁சுற்றியுள்ள	-10.5492
▁கண்டிப்பாக	-10.5493
▁ஆசிரியர	-10.5495
▁அதேசமயம்	-10.5541
▁உயர்கல்வி	-10.5541
▁சீர்திருத்த	-10.5541
▁நிச்சயமாக	-10.5541
பிற்படுத்தப்பட்ட	-10.5541
▁ஈபிஎஸ்	-10.5541
▁டெல்டா	-10.5541
ாதிபதி	-10.5555
▁மயக்க	-10.5578
▁அசத்த	-10.5584
▁சத்தீஸ்கர	-10.5592
▁வியாழக்கிழமை	-10.5592
▁கம்பெனி	-10.5592
▁மலேசிய	-10.5592
▁பட்டாசு	-10.5592
▁பேரிடர்	-10.5592
▁சமத்துவ	-10.5593
▁கண்காணிப்ப	-10.5598
▁கடினமாக	-10.5606
▁க்ர	-10.5611
▁வாக்கெடுப்ப	-10.5643
▁அணுகுமுறை	-10.5643
▁துல்லிய	-10.5643
▁நுழைய	-10.5644
▁போவதாக	-10.5645
ராஷ்டிர	-10.5645
▁ஹசீனா	-10.5694
▁புண்ணிய	-10.5694
▁மனநல	-10.5694
▁நடுத்தர	-10.5694
▁பறித்த	-10.5712
முடியாத	-10.5722
▁சீதாராமன்	-10.5745
▁லட்சக்கணக்கான	-10.5745
▁வாழ்வாதார	-10.5745
▁புதுப்பிக்க	-10.5745
▁உணர்ச்சி	-10.5745
▁ஈர்ப்ப	-10.5791
▁2013	-10.5797
ச்சேரி	-10.5797
▁சடங்கு	-10.5798
▁மகேஷ்	-10.5798
▁ஜாதக	-10.5802
▁அழித்த	-10.5839
▁இருக்கின்ற	-10.5847
▁சிறுநீரக	-10.5849
▁தீயணைப்பு	-10.5849
▁மதிப்பிலான	-10.5849
▁இருதரப்பு	-10.5849
▁ஓரிரு	-10.585
▁முர்மு	-10.585
▁முடிவெடுக்க	-10.5851
▁எளிய	-10.5852
▁பலருக்கும்	-10.5853
▁நடிகர	-10.5856
சுப்பிரமணிய	-10.5861
▁சுட்டுக்	-10.5872
▁இறந்துவிட்ட	-10.5888
▁சாதகமான	-10.5902
▁மாநிலங்களவை	-10.5902
▁புகழ்பெற்ற	-10.5903
▁தொடர்பில	-10.5931
▁டாலர	-10.5947
▁அந்நிய	-10.5954
▁நேட்டோ	-10.5954
▁முதலாவது	-10.5954
▁ஊடகவியலாளர்	-10.6007
▁ஒலிம்பியாட்	-10.6007
▁நூற்றுக்கணக்கான	-10.6007
▁ஹர்திக்	-10.6007
▁இருவரையும்	-10.6007
▁Vikatan	-10.606
▁ஆணைக்குழு	-10.606
▁பெருமாள	-10.6072
tion	-10.609
▁திருவள்ளூர்	-10.6114
▁நிலைப்பாட்டை	-10.6114
▁பிறப்பிக்க	-10.6114
▁கதவு	-10.613
▁ஈர்த்த	-10.6131
▁டொலர்	-10.6168
காளியம்மன்	-10.6168
▁சுவாரஸ்ய	-10.6168
▁பிரகாஷ்	-10.6168
▁ஆர்வம	-10.6176
▁பழனிவேல்	-10.6222
▁பொறியியல்	-10.6222
▁சமாஜ்வாதி	-10.6222
▁விவரிக்க	-10.6222
▁சேகரித்த	-10.6224
▁அடுத்தடுத்த	-10.6265
▁கிளர்ச்சி	-10.6276
▁குடியுரிமை	-10.6276
▁அத்துமீற	-10.6276
▁நான்காவது	-10.6276
▁துரித	-10.6277
▁நிலக்கரி	-10.6277
தொடர	-10.6278
▁தூதுவர்	-10.6278
▁ஒப்படைத்த	-10.6279
▁ஈஸ்வர	-10.6291
யாராவது	-10.6293
▁எளிதில	-10.6295
▁ஈர்க்க	-10.6306
▁மாற்றுத்திறனாளி	-10.6331
▁ஸ்மார்ட்	-10.6331
▁தென்னிந்திய	-10.6331
▁சச்சின்	-10.6333
▁ஹாரிஸ	-10.6359
▁நிராகரித்த	-10.6386
▁ஆச்சர்ய	-10.6386
▁விஷ்ணு	-10.6386
▁சுற்றுப்பயண	-10.6441
z	-10.6441
▁பராமரிக்க	-10.6441
▁கூட்டத்தொடர	-10.6441
▁நுழைவு	-10.6441
ment	-10.6441
▁கனிமொழி	-10.6441
▁சேகரிக்க	-10.6441
▁பிரசித்தி	-10.6441
▁ஐயப்ப	-10.6452
▁குறியீட	-10.6455
ரீதியாக	-10.6473
▁இன்னமும	-10.6474
▁இடஒதுக்கீடு	-10.6496
▁புதன்கிழமை	-10.6496
▁டாஸ்மாக்	-10.6497
▁வாக்குவாதம்	-10.6497
▁அகமது	-10.6497
▁பிரசவ	-10.6501
▁வேட்புமனு	-10.6552
▁முதல்முறையாக	-10.6552
▁நஷ்ட	-10.6553
▁இறைவன	-10.6559
▁தங்கியிருந்த	-10.6561
▁சன்னி	-10.6568
▁வழிகாட்டுதல	-10.6594
▁இவ்வாறான	-10.6608
▁தூய்மை	-10.6609
▁ஆகியோரின	-10.6618
▁அதிகளவில	-10.6626
▁ஊற்றி	-10.6642
▁உறுதியளித்த	-10.6665
▁சூதாட்ட	-10.6665
▁ஆதரித்த	-10.6667
▁வைபவ	-10.6668
கணக்கில்	-10.6696
▁சிறப்ப	-10.67
▁உத்தியோக	-10.6721
▁ஆன்மீக	-10.6722
▁கள்ளச்சாராய	-10.6722
▁களமிறக்க	-10.6722
▁விஜயகாந்த்	-10.6722
▁நியூயார்க்	-10.6731
▁தழுவ	-10.6739
▁அரையிறுதி	-10.6779
▁காஷ்மீரில்	-10.6779
▁நேர்காணல	-10.6779
▁தேவஸ்தான	-10.6779
க்குட்பட்ட	-10.6786
▁பெரிதும	-10.6793
பூஜை	-10.6797
▁உபகரணங்கள	-10.6836
▁துரோக	-10.6842
▁மருந்த	-10.6867
▁வருஷ	-10.6868
▁இங்கிலாந்த	-10.6869
▁BBC	-10.6894
▁தனுஷ்	-10.6894
▁மிதமான	-10.6895
▁தெரிவிப்ப	-10.6899
▁இளைய	-10.6903
▁நண்பர	-10.6906
▁சமூகத்தினர	-10.6931
X	-10.6952
▁அதிர்ச்சியடைந்த	-10.6952
▁ஆகியோரும்	-10.6952
▁தட்டுப்பாடு	-10.6952
▁பிரியாணி	-10.6953
▁சல்மான்	-10.6953
▁கணினி	-10.6953
▁புரிதல	-10.6953
▁அள்ளி	-10.6958
▁பண்டார	-10.6978
▁கல்வெட்டு	-10.7011
▁சந்திரபாபு	-10.7011
▁சதீஷ்	-10.7011
▁யோசித்த	-10.7011
பிறகு	-10.7027
▁ஒத்துழைப்ப	-10.7053
▁மரபணு	-10.707
▁ஊக்குவிக்க	-10.707
▁ஆர்சிபி	-10.707
▁நொடி	-10.707
▁தஞ்சை	-10.7071
▁நீராட	-10.7105
▁தொல்லியல்	-10.7129
▁நள்ளிரவு	-10.7129
▁படப்பிடிப்பு	-10.7129
▁யாழ்ப்பாண	-10.7129
▁வசூலிக்க	-10.7129
▁துரைமுருகன்	-10.7129
▁தெளிவுபடுத்த	-10.7129
▁கூட்டாளி	-10.7129
▁அர்ப்பணிப்ப	-10.7129
▁வள்ளி	-10.7138
விக்ரம	-10.7174
▁ஜார்க்கண்ட்	-10.7188
▁தென்னாப்பிரிக்க	-10.7188
▁புறக்கணித்த	-10.7188
▁ஜிஎஸ்டி	-10.7188
▁கன்னட	-10.7189
▁வியூக	-10.7202
▁காவல்துறையினர	-10.7205
▁மலையாள	-10.7209
▁பொலிஸ்	-10.7249
▁விளாசி	-10.7249
▁ஆராய்ந்த	-10.7254
▁ஆகிவிட்ட	-10.7273
▁ஒடுக்க	-10.7275
▁போட்டியாளர்கள	-10.728
▁நிராகரிக்க	-10.7308
▁கூட்டுறவு	-10.7309
▁யாதவ	-10.7358
▁விடயங்கள	-10.7365
▁ஆன்மிக	-10.7369
▁திருவாரூர்	-10.7369
▁நுபுர்	-10.7369
▁தேயிலை	-10.7369
▁இபிஎஸ்	-10.737
▁இஸ்ரோ	-10.737
▁எகிப்த	-10.737
▁கோவிலை	-10.7373
▁உழைத்த	-10.7394
▁குரூப்	-10.7405
▁யூடியூப்	-10.743
▁உபயோக	-10.7431
▁ஒருவரான	-10.7431
▁டேவிட்	-10.7439
▁அறங்காவலர்	-10.7491
▁ஆங்காங்கே	-10.7491
▁தகராறு	-10.7491
▁தேர்ந்தெடுத்த	-10.7491
▁பணிபுரியும்	-10.7491
▁ஆர்எஸ்எஸ்	-10.7491
▁முகவரி	-10.7493
▁இணக்க	-10.7496
▁உடம்ப	-10.7506
▁கோட்டாபய	-10.7553
▁பந்துவீச்சில்	-10.7553
▁பிரிவினை	-10.7553
▁ஆறுதல்	-10.7554
▁சீனியர்	-10.7554
▁எதுவும	-10.7575
▁தீட்சிதர்	-10.7615
▁உத்தரகாண்ட்	-10.7615
▁மணிப்பூரில்	-10.7615
▁கிங்ஸ்	-10.7617
▁மருத	-10.7659
▁முன்னெச்சரிக்கை	-10.7678
▁முதன்முதல	-10.7678
▁விவரித்த	-10.7679
சென்னை	-10.7701
▁கட்சியினர	-10.7703
்பதற்கான	-10.7722
▁யாகசாலை	-10.7741
▁விவாகரத்து	-10.7741
▁எலிசபெத்	-10.7741
▁ஒழுங்க	-10.7763
க்கொள்கிறேன்	-10.7782
▁பரிமாற்ற	-10.7803
▁உடற்பயிற்சி	-10.7804
▁நிர்வாண	-10.7804
▁பொறுமை	-10.7804
▁காமெடி	-10.7804
▁நிறைவேற	-10.7866
▁அவிநாசி	-10.7868
▁நவராத்திரி	-10.7868
▁நெகிழ்ச்சி	-10.7868
▁இதேவேளை	-10.7868
▁மோட்டார்	-10.7868
அழகிரி	-10.792
▁செயற்குழு	-10.7932
▁மக்கள்தொகை	-10.7932
▁குணவர்தன	-10.7932
▁அருகிலுள்ள	-10.7932
▁நிர்மாண	-10.7932
▁ஆன்லைனில	-10.7932
▁விக்ரம்	-10.7933
▁அலட்சிய	-10.7996
▁புலம்பெயர்	-10.7996
#	-10.8735
*	-10.9684
ஈ	-11.0035
Q	-11.0399
Z	-11.0734
ஃ	-11.2114
@	-11.3019
q	-11.3913
=	-11.415
ा	-11.4767
ஊ	-11.5115
_	-11.7708
₹	-11.8601
र	-11.9791
े	-12.0003
]	-12.067
[	-12.067
क	-12.1385
न	-12.1891
	-12.1891
्	-12.2155
ी	-12.422
म	-12.4554
ि	-12.4899
प	-12.5256
स	-12.5256
ं	-12.6011
ह	-12.6011
ो	-12.7262
­	-12.7717
	-12.8193
ங	-12.8648
त	-12.8693
ल	-12.9219
व	-12.9775
द	-13.0363
>	-13.0988
ग	-13.0988
௦	-13.0988
य	-13.1655
ब	-13.2369
श	-13.3972
ू	-13.4881
भ	-13.5881
•	-13.6992
ા	-13.8242
ஶ	-13.8242
~	-13.967
ए	-13.967
	-13.967
°	-13.967
ट	-13.967
ध	-13.967
ु	-14.1337
😂	-14.1337
ન	-14.1337
ख	-14.3337
च	-14.3337
મ	-14.3337
\	-14.3337
§	-14.3337
अ	-14.3337
ै	-14.3337
‍	-14.3337
·	-14.5837
इ	-14.5837
ड	-14.5837
ष	-14.5837
જ	-14.5837
ે	-14.5837
௫	-14.5837
★	-14.5837
ل	-14.5837
્	-14.917
ौ	-14.917
ક	-14.917
ર	-14.917
❔	-14.917
×	-14.917
é	-14.917
ત	-14.917
ી	-14.917
⁠	-14.917
	-14.917
ई	-14.917
ا	-14.9171
ય	-15.417
௩	-15.417
<	-15.417
औ	-15.417
छ	-15.417
़	-15.417
।	-15.417
ટ	-15.417
વ	-15.417
સ	-15.417
′	-15.417
⁄	-15.417
●	-15.417
◾	-15.417
⦁	-15.417
õ	-15.417
÷	-15.417
و	-15.4171
ي	-15.4171
௨	-16.4159
घ	-16.416
š	-16.4161
	-16.4162
थ	-16.4163
आ	-16.4164
௧	-16.4165
ण	-16.4166
£	-16.4167
ज	-16.4168
$	-16.4169
ஔ	-16.417
ʻ	-16.417
આ	-16.417
ñ	-16.417
^	-16.417
{	-16.417
®	-16.417
Á	-16.417
å	-16.417
í	-16.417
ô	-16.417
ö	-16.417
ł	-16.417
̈	-16.417
إ	-16.417
د	-16.417
س	-16.417
م	-16.417
उ	-16.417
फ	-16.417
અ	-16.417
ઉ	-16.417
ઓ	-16.417
ખ	-16.417
ણ	-16.417
થ	-16.417
દ	-16.417
પ	-16.417
ફ	-16.417
ભ	-16.417
લ	-16.417
િ	-16.417
ો	-16.417
௬	-16.417
௭	-16.417
௹	-16.417
‟	-16.417
⏩	-16.417
	-16.417
	-16.417
👇	-16.417
💥	-16.417
😊	-16.417
😐	-16.417
😲	-16.417
}	-16.417
ō	-16.417
€	-16.417
(	-16.4171
ر	-16.4171
ه	-16.4171
