<unk>	0
<s>	0
</s>	0
.	-3.03051
்	-3.78468
,	-4.01337
ு	-4.50939
▁,	-4.51709
ம்	-4.57655
▁	-4.81246
ும்	-5.0654
ை	-5.16721
க்	-5.19322
ப்	-5.2162
▁இந்த	-5.24202
து	-5.24834
ில்	-5.28651
ின்	-5.3463
த்	-5.49438
கள்	-5.53925
யில்	-5.5631
▁என்று	-5.66221
▁.	-5.67368
ான	-5.79298
▁"	-5.79519
க	-5.79665
▁ஒரு	-5.80977
ி	-5.81137
▁மற்றும்	-5.81905
▁என	-5.91051
த்தில்	-5.94105
ன	-5.96642
ாக	-5.97308
ச்	-5.99557
ுக்கு	-6.01676
ன்	-6.04667
க்கு	-6.06385
யை	-6.07736
ல்	-6.11858
களை	-6.15117
▁அவர்	-6.1588
▁வேண்டும்	-6.16716
▁க்	-6.19205
ய	-6.19613
ிய	-6.20987
▁தான்	-6.21008
▁ப்	-6.21017
ா	-6.25695
த்தை	-6.26727
▁அந்த	-6.27939
ர்	-6.28142
ர	-6.29978
ஸ்	-6.31695
ே	-6.36482
மாக	-6.36915
ார்	-6.38589
▁இது	-6.42805
▁ஆனால்	-6.4357
▁-	-6.46555
யின்	-6.47142
க்க	-6.47848
▁உள்ள	-6.48207
:	-6.53271
ால்	-6.54243
▁த்	-6.55759
▁'	-6.55818
ல	-6.56932
▁என்ற	-6.58631
ட்	-6.59115
னர்	-6.59697
?	-6.61843
▁பல	-6.62107
யும்	-6.62899
▁நிலையில்	-6.63932
களில்	-6.64462
▁கடந்த	-6.64527
ம	-6.65491
டி	-6.67274
▁இருந்து	-6.69272
வும்	-6.70283
பி	-6.72526
▁அரசு	-6.73096
வ	-6.73881
"	-6.7497
த்த	-6.75493
ிடம்	-6.7622
▁அ	-6.77219
▁ம்	-6.78038
யாக	-6.78065
▁முதல்	-6.78287
▁சில	-6.7888
▁(	-6.79977
ப்பட்ட	-6.80454
தி	-6.81985
ப	-6.82115
▁அவர	-6.82599
த்தின்	-6.82942
▁என்ன	-6.83477
-	-6.85826
▁யும்	-6.86198
▁மேலும்	-6.86501
▁சென்னை	-6.8751
▁க	-6.89204
▁உள்ளது	-6.89243
▁ச்	-6.90704
▁து	-6.91892
▁ஆண்டு	-6.92873
▁குறித்து	-6.95661
▁போது	-6.95685
▁வரும்	-6.99023
▁செய்து	-6.99528
▁தொடர்ந்து	-7.0236
▁கட்சி	-7.0279
த	-7.0284
ள்	-7.0288
மான	-7.03014
▁தேதி	-7.03371
▁இருக்கும்	-7.0378
▁..	-7.03966
▁கொண்டு	-7.04312
ரி	-7.04753
சி	-7.05655
▁வரை	-7.06222
▁வருகிறது	-7.06779
ட	-7.07011
ுள்ள	-7.07577
▁செய்ய	-7.08083
)	-7.08265
▁இல்லை	-7.08652
▁வந்த	-7.09216
▁மக்கள்	-7.09393
ுள்ளது	-7.10664
▁!	-7.10857
ங்கள்	-7.11274
▁இந்திய	-7.11772
▁என்பது	-7.12001
▁மிக	-7.1252
▁நான்	-7.13399
▁அமைச்சர்	-7.13835
ுடன்	-7.14234
▁அது	-7.14304
▁பட	-7.14368
▁:	-7.15084
ப்ப	-7.16203
▁இன்று	-7.16274
▁பாஜக	-7.16357
▁தனத	-7.1728
▁இருந்த	-7.17745
▁மீது	-7.18017
ஜ	-7.1815
தாக	-7.18972
▁தற்போது	-7.19085
ங்க	-7.19501
ந்த	-7.19887
▁தலைவர்	-7.20082
▁பிறகு	-7.20721
▁பா	-7.20829
▁என்றும்	-7.2093
▁ச	-7.22024
▁கள்	-7.22201
வி	-7.23089
▁விட	-7.24857
▁சி	-7.25019
ச	-7.25351
▁வ	-7.25608
ஆம்	-7.26124
▁2	-7.26498
▁மூலம்	-7.28054
▁எந்த	-7.28095
யா	-7.28104
▁ப	-7.30703
▁வர	-7.30942
வை	-7.31056
▁அவர்கள்	-7.31116
▁மத்திய	-7.32704
வே	-7.3273
லி	-7.33263
▁சேர்ந்த	-7.33722
▁க்கு	-7.33733
னி	-7.3493
▁காங்கிரஸ்	-7.34958
▁இ	-7.35383
களின்	-7.35735
▁தேர்தல்	-7.35862
ைய	-7.36333
ரா	-7.36577
▁கூட	-7.37007
▁கொண்ட	-7.37743
▁தமிழக	-7.39631
த்து	-7.40802
▁3	-7.41907
▁வும்	-7.42251
▁இரண்டு	-7.43178
▁பிரதமர்	-7.43362
▁ம	-7.43474
களுக்கு	-7.43875
யான	-7.44608
மா	-7.44801
▁மாநில	-7.44899
▁அணி	-7.45652
ள	-7.45758
வர்	-7.46965
▁பல்	-7.4714
வின்	-7.4715
▁இதனால்	-7.47329
▁புதிய	-7.4748
▁த	-7.47868
▁செய்த	-7.47924
மு	-7.49117
▁5	-7.49247
▁போன்ற	-7.49625
▁முறை	-7.49792
▁ய	-7.49964
மும்	-7.50454
▁ன	-7.51281
▁தி	-7.51369
▁டி	-7.5154
ாமல்	-7.51744
▁பி	-7.51837
த்திற்கு	-7.52162
▁மா	-7.5283
▁இதில்	-7.53047
னா	-7.53114
ோ	-7.53162
▁இருக்கிறது	-7.53266
▁அனைத்து	-7.53538
மி	-7.53633
ப்பு	-7.53677
வேறு	-7.53733
தா	-7.53745
▁10	-7.54046
▁தர	-7.54138
▁சமூக	-7.54139
▁நடவடிக்கை	-7.54327
▁அரசியல்	-7.54502
▁நேற்று	-7.54531
ண	-7.54912
▁இந்தியா	-7.5523
▁உள்ளிட்ட	-7.55497
▁அதன்	-7.55783
▁பேர்	-7.55822
▁வி	-7.55847
மை	-7.55977
▁இலங்கை	-7.56405
▁...	-7.56549
▁ரூ	-7.56736
▁வே	-7.57102
▁அதை	-7.5741
▁முதல்வர்	-7.57583
▁மீண்டும்	-7.57916
▁ஸ்	-7.58095
▁4	-7.58341
▁இருக்க	-7.58357
▁மு	-7.58684
லா	-7.58708
▁மாவட்ட	-7.59242
ங்	-7.59733
ுடைய	-7.59836
▁ஓ	-7.59939
▁உலக	-7.60064
▁வெற்றி	-7.60068
▁களை	-7.60387
▁?	-7.60662
▁மே	-7.60884
▁ஆம்	-7.61097
▁தொடர்பாக	-7.61803
▁ஆட்சி	-7.62072
டு	-7.62489
▁பேசிய	-7.62875
▁அப்போது	-7.63186
▁பெரிய	-7.63306
க்கும்	-7.63542
▁வந்து	-7.64312
▁இரு	-7.64444
▁வேலை	-7.65264
▁எம்	-7.65399
வா	-7.65477
▁நடந்த	-7.65684
▁கே	-7.66198
▁அதிமுக	-7.66304
ரை	-7.66393
▁ந	-7.66665
▁ல	-7.66843
▁மட்டுமே	-7.67175
வில்லை	-7.67485
ாத	-7.67569
▁அங்கு	-7.68081
▁ர	-7.68249
▁சென்ற	-7.68837
▁வை	-7.69046
கா	-7.69248
▁தெரிவித்தார்	-7.69265
வில்	-7.69589
▁திமுக	-7.69666
ங்களை	-7.69942
▁கால	-7.70336
லை	-7.7043
▁கை	-7.70524
▁என்பதை	-7.70636
▁சிறப்பு	-7.70675
▁அதில்	-7.71
வு	-7.71241
▁அல்லது	-7.7149
ப்படும்	-7.71509
▁இப்போது	-7.71585
ுள்ளார்	-7.71602
▁வகையில்	-7.71838
▁முக்கிய	-7.71852
வது	-7.72069
▁நடந்தது	-7.72187
▁வருகின்றனர்	-7.72452
▁பெற்ற	-7.7246
▁தா	-7.72724
ப்பட	-7.72729
யே	-7.72754
▁காரணமாக	-7.72826
▁துறை	-7.72858
▁கோடி	-7.73375
▁சென்று	-7.73536
லாம்	-7.741
▁கூறினார்	-7.74149
▁என்றார்	-7.74805
▁மணி	-7.74823
எஸ்	-7.74996
▁பாதுகாப்பு	-7.75261
▁இருந்தது	-7.75323
▁எடப்பாடி	-7.75649
▁வழக்கு	-7.75759
▁கு	-7.75766
▁தலைமை	-7.7639
▁பின்னர்	-7.76638
னை	-7.76798
▁கள	-7.76858
▁8	-7.76891
▁முன்	-7.76894
▁பெண்	-7.76895
▁ஆ	-7.76984
ழ	-7.77044
ற	-7.77607
ற்ற	-7.78021
▁`	-7.78259
▁கூட்டணி	-7.78367
▁வைத்து	-7.78369
▁யின்	-7.78547
▁என்	-7.79242
ந்து	-7.79753
▁செல்ல	-7.80252
▁எப்படி	-7.80377
▁``	-7.8054
▁தேசிய	-7.80918
▁முன்னா	-7.81075
தான்	-7.81358
▁முடியும்	-7.82472
தை	-7.83011
▁பணி	-7.83228
ினார்	-7.83569
▁மாதம்	-7.83666
▁டெல்லி	-7.83708
▁6	-7.83856
▁சு	-7.84502
▁இதை	-7.84549
▁விசாரணை	-7.84829
▁அதற்கு	-7.84876
▁பற்றி	-7.85134
▁சட்ட	-7.85275
▁செய்யப்பட்ட	-7.85544
▁காலை	-7.85761
ேன்	-7.85927
ீ	-7.87059
▁ட	-7.8717
▁கொள்ள	-7.87184
▁கைது	-7.87312
பா	-7.87525
ச்ச	-7.87537
ரு	-7.87777
▁7	-7.87875
▁பள்ளி	-7.88282
▁நாம்	-7.88451
▁தகவல்	-7.88529
▁ஜனாதிபதி	-7.88639
▁களுக்கு	-7.88789
▁பார்க்க	-7.89399
▁தமிழ்நாடு	-7.89442
▁)	-7.89459
▁விட்டு	-7.89547
▁வழங்க	-7.89971
▁நகர	-7.90057
▁கட்ட	-7.90181
▁எ	-7.90326
▁யை	-7.90556
▁என்கிறார்	-7.9057
▁இதற்கு	-7.90722
▁அதிக	-7.90754
▁யில்	-7.90987
▁பதவி	-7.91082
மே	-7.91955
▁செ	-7.92066
▁முடியாது	-7.92219
▁நிலை	-7.92454
'	-7.92493
ட்டி	-7.92935
ுள்ளனர்	-7.92959
▁;	-7.93057
ூ	-7.93297
த்தி	-7.93673
▁இந்நிலையில்	-7.93865
!	-7.93939
▁உ	-7.94188
▁தன்	-7.94232
▁நாங்கள்	-7.9429
▁கொரோனா	-7.94342
▁அடுத்த	-7.94461
▁ஐ	-7.94748
▁வா	-7.94784
ட்ட	-7.94817
ோம்	-7.94888
e	-7.95008
▁போல	-7.95056
▁ஆகிய	-7.95058
▁மூன்ற	-7.95222
a	-7.95272
ிலும்	-7.95462
ண்ட	-7.95464
▁முன்பு	-7.96091
▁காந்தி	-7.96264
▁பதிவு	-7.96673
▁களின்	-7.96708
ிருந்த	-7.96829
▁உங்கள	-7.97072
ட்டு	-7.97223
▁கோவில்	-7.97319
▁ஒன்று	-7.97374
▁ஏ	-7.97395
▁பகுதியில்	-7.98007
▁தேர்தலில்	-7.98148
▁ஒருவர்	-7.98161
▁எதிராக	-7.98313
▁மோடி	-7.9877
▁மணிக்கு	-7.99403
▁பெரும்	-7.99739
▁ஆர்	-7.99888
▁பெற	-8.00124
ேச	-8.00427
ிருக்கிறார்	-8.00485
▁தடை	-8.00595
▁சா	-8.00627
▁கூறி	-8.0082
ிருக்கிறது	-8.00859
▁கி	-8.01065
▁எனவே	-8.01195
▁பக்தர்கள்	-8.01277
▁களும்	-8.01459
களும்	-8.0158
ஜி	-8.01602
ெ	-8.01602
▁இவர்	-8.01906
▁ஆய்வு	-8.01959
▁ா	-8.02026
▁கல்வி	-8.02206
▁அவரை	-8.02401
▁அரச	-8.02414
▁நேர	-8.02951
▁சிகிச்சை	-8.02998
▁இப்படி	-8.03035
ிற்கு	-8.03366
0	-8.03539
கி	-8.03565
க்கான	-8.03575
▁போட்டி	-8.03629
▁போர்	-8.03668
ங்களில்	-8.04054
▁அவருக்கு	-8.0421
▁நடத்த	-8.04249
▁நாள்	-8.04772
▁பொருளாதார	-8.04986
▁கோயில்	-8.05131
▁9	-8.05462
▁வேண்டிய	-8.05862
ஷ	-8.05927
த்துக்கு	-8.06154
▁கொலை	-8.06194
▁ஆக	-8.0665
▁அப்படி	-8.07009
▁இதன்	-8.07011
▁20	-8.07416
▁அதிகாரிகள்	-8.07579
▁காரணம்	-8.07868
ிட	-8.07922
▁மட்டும்	-8.08013
▁12	-8.08327
▁கொடுத்த	-8.08427
ையும்	-8.0852
▁தமிழ்	-8.086
ஷ்	-8.08891
▁நல்ல	-8.08911
▁ஒரே	-8.08926
ணி	-8.09088
▁முடிவு	-8.09309
▁பூ	-8.09384
டை	-8.09915
▁கேள்வி	-8.10436
▁எடுக்க	-8.1051
▁உள்ளன	-8.1063
",	-8.10748
▁தாக	-8.10923
▁அதே	-8.1143
▁இன்னும்	-8.1144
▁எங்கள	-8.118
00	-8.12159
▁விழா	-8.12242
▁கருத்து	-8.12769
▁தேர்வு	-8.12811
▁நிதி	-8.12896
ப்பட்டது	-8.13609
றி	-8.1363
▁கீழ்	-8.14193
▁ரூபாய்	-8.14204
▁சுமார	-8.14466
▁முழுவதும்	-8.14494
▁திரு	-8.1454
▁அளவில	-8.14994
▁யா	-8.15082
8	-8.15172
▁சம்பவம்	-8.15264
▁சொல்ல	-8.15598
▁மி	-8.15666
▁உதவி	-8.15804
▁செய்யும்	-8.15857
i	-8.15867
▁நேரத்தில்	-8.15882
▁கலந்து	-8.15994
தால்	-8.16184
▁வருகிறார்	-8.16276
▁நாடு	-8.16377
▁11	-8.1642
▁ஹ	-8.16435
▁மாலை	-8.16492
1	-8.16557
▁பின்	-8.16597
▁ஏன்	-8.17093
▁இடங்களில	-8.17817
▁விமான	-8.18206
▁எனக்கு	-8.18429
▁வின்	-8.18553
▁ஒவ்வொரு	-8.18604
▁தொடர்பான	-8.18637
▁நிகழ்ச்சி	-8.18657
▁கா	-8.19204
▁விலை	-8.19218
▁ஸ்டாலின்	-8.19244
▁நடந்து	-8.1929
s	-8.19431
▁மாத	-8.19826
▁பொது	-8.19935
▁குறித்த	-8.19957
▁ஜ	-8.19959
▁படி	-8.20056
▁எடுத்து	-8.20095
▁கிராம	-8.2018
▁தெரிவித்த	-8.20383
ாய்	-8.20428
ரோ	-8.20456
▁வந்தது	-8.20863
▁இங்கு	-8.2092
▁தேவை	-8.21035
▁க்கும்	-8.21105
சா	-8.21397
▁லட்சம்	-8.21422
▁1	-8.2165
▁15	-8.21829
▁உணவு	-8.21843
▁தங்கள்	-8.2254
▁தங்க	-8.22604
▁வேறு	-8.2285
▁வீட்டில்	-8.2297
▁குழு	-8.22983
▁இடையே	-8.23484
ாலும்	-8.23628
▁யே	-8.23736
▁நடத்தி	-8.23861
▁யாக	-8.23922
▁இதையடுத்து	-8.24012
▁முயற்சி	-8.24271
▁பு	-8.24473
▁பேச	-8.24559
ப்பட்டுள்ளது	-8.24579
▁மனைவி	-8.24809
▁வாய்ப்பு	-8.25012
▁சிங்	-8.25063
ூர்	-8.2511
▁பூஜை	-8.25145
▁ு	-8.25302
ஞ்ச	-8.25405
▁ஷ	-8.25579
த்துறை	-8.25605
▁இட	-8.25662
▁சரி	-8.26075
கே	-8.26339
▁தனி	-8.26479
▁கூறப்படுகிறது	-8.26605
▁குரு	-8.26824
▁கொடுக்க	-8.27083
▁நடைபெற்ற	-8.27252
▁பார்த்த	-8.27278
ுக்கான	-8.27694
▁செய்தி	-8.27944
▁தீ	-8.28164
தெரிவித்துள்ளார்	-8.28328
▁பெண்கள்	-8.28441
▁பிர	-8.2853
▁மாவட்டம்	-8.28556
▁பயன்படுத்த	-8.2859
கோ	-8.28871
▁அருகே	-8.2896
▁கோ	-8.29396
▁ார்	-8.29573
▁மழை	-8.29628
▁ஏற்பட்ட	-8.29692
▁சர்வத	-8.30339
▁இந்தியாவில்	-8.30891
▁துணை	-8.31049
▁மற்ற	-8.31263
படி	-8.3136
▁யார்	-8.31466
▁இதுவரை	-8.3147
▁ராணுவ	-8.31497
▁வழி	-8.31649
▁சார்பில்	-8.31657
▁அடி	-8.31922
ப்படுகிறது	-8.32213
▁ஜி	-8.32247
▁மதுரை	-8.32443
▁இரவு	-8.32656
▁நீங்கள்	-8.32965
ஐ	-8.33327
▁பிற	-8.33496
▁ஸ்ரீ	-8.33639
ஏ	-8.33675
▁பெயர்	-8.33849
▁எஸ்	-8.33878
▁காண	-8.34326
▁சுவாமி	-8.34405
▁போலீசார்	-8.34458
கு	-8.34547
▁பே	-8.34549
▁அனுமதி	-8.34639
▁நடைபெற்றது	-8.34647
ஆர்	-8.34671
▁வீடியோ	-8.34747
வர்கள்	-8.34838
▁செயலாளர்	-8.34872
▁புகார்	-8.35081
▁எண்ணிக்கை	-8.35105
▁அளித்த	-8.35198
▁அமெரிக்க	-8.35213
க்காக	-8.35481
▁18	-8.35502
▁பழனிசாமி	-8.3553
▁னர்	-8.3565
▁உயர்	-8.35752
▁கூறுகிறார்	-8.35875
▁வில்லை	-8.35976
▁மத	-8.36004
▁அழைத்து	-8.36105
▁தை	-8.36118
6	-8.36362
,000	-8.36363
▁மாற்ற	-8.36389
▁எடுத்த	-8.36424
o	-8.36547
▁உடல்	-8.36587
▁மருத்துவ	-8.36667
▁பிபிசி	-8.36751
▁பால	-8.36779
ள்ள	-8.36793
▁மன	-8.37091
▁தலை	-8.37243
▁கோரிக்கை	-8.37281
▁அதிபர்	-8.3732
▁பெற்று	-8.37348
வர	-8.374
▁மெ	-8.37531
2	-8.37775
▁வயது	-8.3791
▁பணம்	-8.37928
ுவது	-8.38003
▁அரசாங்க	-8.38228
ண்	-8.38231
ுகிறது	-8.38305
▁உறுதி	-8.38321
3	-8.38387
▁இந்தியாவ	-8.38502
▁பாதிக்கப்பட்ட	-8.38633
வ்	-8.3865
ப்படுத்த	-8.38694
▁ஆளுநர்	-8.38775
▁செலுத்த	-8.38897
▁கல்லூரி	-8.39108
▁தாக்குதல்	-8.39676
▁காவல்	-8.39955
▁ஷா	-8.4048
▁வர்	-8.40562
▁குழந்தை	-8.40627
▁போல்	-8.40802
▁மேல்	-8.40872
▁சாலை	-8.40879
▁வீடு	-8.40913
ச்சி	-8.41256
▁30	-8.41329
▁தங்கள	-8.41344
▁இடத்தில	-8.41405
ளி	-8.41451
▁குறிப்பிட்ட	-8.41635
▁ரயில்	-8.41666
▁பயிற்சி	-8.41889
▁அறிக்கை	-8.41959
▁எனவும்	-8.42027
ப்பட்டு	-8.42529
▁காவல்துறை	-8.42774
▁பார்த்து	-8.42878
க்கி	-8.42931
▁அதனால்	-8.43151
▁சோ	-8.43203
▁வருகின்றன	-8.4323
▁ிருக்கிறது	-8.43366
▁பாதிப்பு	-8.43427
7	-8.43722
▁கிடைக்கும்	-8.43771
u	-8.43801
க்கள்	-8.43982
▁என்றால்	-8.44015
▁நீர்	-8.44049
யுடன்	-8.44161
யர்	-8.44214
▁ஓபிஎஸ்	-8.44511
▁நா	-8.4457
▁பகுதிகளில	-8.44708
▁தென்	-8.44809
▁கார்	-8.44867
ோடு	-8.44957
▁நாட்டின	-8.44996
▁பிரச்னை	-8.45112
▁தொடங்கி	-8.45287
▁செய்தனர்	-8.4531
▁திட்டம்	-8.45346
கை	-8.4545
▁உள்ளனர்	-8.45463
று	-8.45547
▁தொழில்	-8.45868
▁50	-8.45874
▁எனக்	-8.46648
ிலேயே	-8.46675
▁கொ	-8.46765
▁மீத	-8.46852
5	-8.47001
சு	-8.47068
▁இருக்கிறார்	-8.47142
%	-8.47174
▁பங்கு	-8.47252
▁உச்ச	-8.47417
▁போலீஸார்	-8.47439
▁சோதனை	-8.47448
▁செல்வ	-8.48004
▁அதாவது	-8.48225
▁பகுதி	-8.48883
யிடம்	-8.48979
எல்	-8.48992
▁மாணவி	-8.49079
▁ஆகியோர்	-8.4918
▁எதிர்ப்பு	-8.49201
▁நேரம்	-8.49532
▁தொகுதி	-8.49735
▁இஸ்ரேல்	-8.49769
▁லா	-8.50202
▁வைத்த	-8.50284
ப்பா	-8.50328
▁ஸ	-8.50408
▁குறிப்பிடத்தக்க	-8.50436
▁ி	-8.50533
▁இயக்க	-8.50826
▁இடம்	-8.51181
▁என்பதால்	-8.51233
▁தமிழ்நாட்டில	-8.5131
ுவதற்கு	-8.5142
▁அதிகாரி	-8.51538
▁வங்கி	-8.51598
▁போன	-8.51655
▁மூத்த	-8.51694
▁திருமணம்	-8.51767
▁அவர்கள	-8.51791
▁13	-8.51864
ந	-8.52188
▁ராஜ	-8.52442
▁கோவை	-8.52585
▁சிவ	-8.5291
▁தந்தை	-8.52919
▁A	-8.52968
▁வெளி	-8.52973
▁அடிப்படையில்	-8.53043
▁வாங்க	-8.53054
▁காலத்தில்	-8.5309
▁ஏற்படும்	-8.53104
▁அதிகமாக	-8.53181
▁வைக்க	-8.53282
ிருக்கும்	-8.5342
▁அன்று	-8.5349
▁கடன்	-8.53699
▁த்தை	-8.53976
▁படை	-8.54094
▁ும்	-8.54142
▁நி	-8.54308
▁ரஷ்யா	-8.54458
9	-8.54471
▁16	-8.54642
ினால்	-8.54764
▁வில்	-8.54917
▁கேட்ட	-8.54934
யோ	-8.54994
ிக்க	-8.55021
▁காட்ட	-8.55023
▁நிலைய	-8.55194
▁நடைபெறும்	-8.55311
▁14	-8.55337
▁",	-8.55342
▁வட	-8.55388
▁19	-8.55461
▁மோதி	-8.55542
▁கட்சியின	-8.55614
▁ராகுல்	-8.55616
▁கடைசி	-8.55648
▁பாலியல	-8.557
▁செல்லும்	-8.55704
▁பாட	-8.55803
▁திருமண	-8.55828
▁செய்தார்	-8.55936
▁கேட்க	-8.55965
ச்சு	-8.55975
▁வழக்கில்	-8.56353
▁கொடுத்து	-8.56364
▁நாளை	-8.56482
▁மொழி	-8.56499
▁மின்	-8.56602
▁மக்களுக்கு	-8.56621
▁இதனை	-8.56667
▁குறிப்பாக	-8.56715
வுக்கு	-8.56716
▁பண	-8.56719
▁சொல்லி	-8.56792
▁எதிரான	-8.56823
▁தனியார்	-8.56961
▁நம்பிக்கை	-8.56976
▁வரி	-8.57084
ல்ல	-8.57729
▁s	-8.5777
▁விற்பனை	-8.57824
▁நாடாளுமன்ற	-8.5783
விட	-8.57835
▁த்திற்கு	-8.58357
▁மர	-8.58467
▁நிறுவனம்	-8.58917
▁சிலர்	-8.58939
▁நாள	-8.59128
▁அந்தப்	-8.59395
▁பட்ட	-8.59426
ற்	-8.59439
ஸ	-8.59456
▁ரோ	-8.59685
▁போலீஸ்	-8.59735
▁வந்தார்	-8.59915
▁தே	-8.60221
▁பதில்	-8.60296
▁பயணம்	-8.60557
▁அவர்களுக்கு	-8.60613
▁அமைப்பு	-8.60615
▁நீதிமன்ற	-8.60764
டா	-8.60892
யால்	-8.60922
▁முழு	-8.60947
▁மாணவர்கள்	-8.60976
▁17	-8.61014
▁ஒ	-8.61054
▁என்னை	-8.61057
▁எண்ண	-8.6106
▁அமெரிக்கா	-8.6108
▁அல்ல	-8.61096
மீ	-8.61282
ிங்	-8.61373
▁இருப்பதாக	-8.61562
▁தொடர்பு	-8.61649
▁குடும்ப	-8.61692
▁இல்லாத	-8.61855
ோர்	-8.61875
▁ஆதரவு	-8.61914
▁ல்	-8.61917
▁கூடாது	-8.6209
▁ுள்ளது	-8.62216
▁அதிகம்	-8.62357
ிறது	-8.6244
▁இருந்தாலும்	-8.62594
▁2022	-8.62699
▁சேவை	-8.62967
▁போ	-8.62995
▁நான்கு	-8.63081
y	-8.63182
▁மலை	-8.63238
விட்டு	-8.63415
யிலிருந்து	-8.6363
▁பால்	-8.63661
ிக்	-8.63729
▁போக	-8.64363
▁அடைந்த	-8.64379
ேயே	-8.64427
▁நீதிபதி	-8.64589
▁அரசின	-8.64712
▁நீதிமன்றம்	-8.64791
▁அண்ணாமலை	-8.64818
▁முடியாத	-8.64855
▁வுக்கு	-8.6487
▁உற்பத்தி	-8.64975
▁கடை	-8.65126
▁கோவிலில்	-8.65317
▁ரி	-8.65478
றை	-8.65491
ிறார்	-8.65508
▁தால்	-8.65532
▁முக	-8.65817
▁நீண்ட	-8.65839
ிருக்க	-8.65841
▁வெளியே	-8.66048
▁அதனை	-8.66052
▁பொ	-8.66082
▁தன	-8.66226
▁இருந்தார்	-8.66252
சன்	-8.66297
தற்கான	-8.66315
▁ுள்ளனர்	-8.66509
▁சக்தி	-8.66625
▁உள்ளார்	-8.66631
▁அடிக்க	-8.66775
▁இல்லாமல்	-8.66849
கள	-8.66981
▁S	-8.67076
▁நாட்டில்	-8.6717
▁பெ	-8.67196
▁உட்பட	-8.67212
4	-8.67241
▁25	-8.67294
▁மகன்	-8.67314
▁நம	-8.6766
▁நடத்திய	-8.68071
▁பேசி	-8.68218
ிலிருந்து	-8.68339
▁நாடுகள்	-8.68359
▁தமிழ	-8.68437
▁கூட்டம்	-8.68474
▁ரா	-8.68561
▁24	-8.68725
▁கூடிய	-8.69
க்குறிப்பு	-8.69238
▁இணைந்து	-8.69275
▁கூறுகையில்	-8.6931
▁வாழ	-8.69487
தே	-8.69507
ொ	-8.69545
A	-8.69609
▁பலர்	-8.69767
▁போராட்டம்	-8.69813
▁திட்ட	-8.69832
ியா	-8.6994
▁சீனா	-8.69975
ண்டி	-8.69983
▁மும்பை	-8.70433
▁அவை	-8.70524
▁பேர	-8.70563
▁மகா	-8.70572
▁உடனடியாக	-8.70694
▁கொள்கை	-8.70712
▁சொந்த	-8.70967
▁எல்லாம்	-8.71121
▁சம	-8.71129
யூ	-8.7121
▁மனித	-8.71305
▁சந்தித்து	-8.71353
▁இருவரும்	-8.71395
▁சட்டம்	-8.71559
▁சிறு	-8.71636
▁தாக்கல்	-8.71778
▁களையும்	-8.7179
போ	-8.72162
▁தவிர	-8.72166
▁கிடைத்த	-8.72526
▁ஆண்டுகளாக	-8.72562
▁நடைபெற்று	-8.72571
▁லாம்	-8.72637
▁நடக்கும்	-8.72683
தாகவும்	-8.72762
▁இருப்பினும்	-8.72863
▁படம்	-8.72917
லோ	-8.72938
▁எதுவும	-8.72952
▁வாழ்க்கை	-8.73019
▁கல	-8.73066
தில்	-8.7323
கர்	-8.73244
▁பலரும	-8.73248
▁வர்கள்	-8.73328
▁மேற்பட்ட	-8.73555
நா	-8.73636
ரிய	-8.73789
▁ஆண்டுகளுக்கு	-8.73927
▁கட	-8.73994
▁அளிக்க	-8.74089
▁தின	-8.7409
ய்	-8.74099
▁முதலமைச்சர்	-8.74108
▁உரிமை	-8.74121
ண்ட்	-8.7422
▁கூற	-8.74284
▁தேடி	-8.74288
▁தொடர்	-8.74411
டன்	-8.74506
▁சாதி	-8.74599
▁உண்மை	-8.7469
▁மேற்கு	-8.7494
ஹ	-8.74971
▁ிருக்கிறார்	-8.75002
▁கொண்டிருந்த	-8.7515
▁ஆலோசனை	-8.75272
▁மொத்த	-8.75488
▁எதிர்பார்க்க	-8.75702
▁ஆயிரம்	-8.75702
▁தலைமையில்	-8.75951
▁ஆண்டில்	-8.75967
▁சிறந்த	-8.76
▁தெரிவித்துள்ளது	-8.76042
▁விட்டது	-8.76042
▁த்துக்கு	-8.76083
▁போய்	-8.76198
▁கிலோ	-8.76216
▁கூறிய	-8.76259
▁தலைவர்கள்	-8.76271
▁பிறந்த	-8.76495
▁இனி	-8.76511
▁செய்யப்பட்டுள்ள	-8.76528
▁டன்	-8.76601
▁கூட்ட	-8.76602
▁நடிகர்	-8.76864
▁அளவுக்கு	-8.76878
மோ	-8.76957
▁இந்து	-8.77047
▁உருவாக்க	-8.77184
ிருந்தார்	-8.77244
▁40	-8.77308
▁முன்னிட்டு	-8.77377
த்துடன்	-8.77384
▁நிறுத்த	-8.77415
▁அனுப்பி	-8.77649
▁சின்ன	-8.77653
▁வாக்கு	-8.77742
p	-8.77793
▁அவர்களை	-8.77822
▁ஏராளமான	-8.77837
▁த்தான்	-8.77848
▁மும்	-8.78104
▁பாராளுமன்ற	-8.78115
t	-8.78164
▁சே	-8.78701
▁எதிர்	-8.78716
▁மனு	-8.78751
▁கடுமையாக	-8.78769
▁இருப்பது	-8.78813
▁கூறியுள்ளார்	-8.78908
▁பிரிவு	-8.78914
▁கூட்டத்தில்	-8.78938
ெல்லாம்	-8.78991
ரே	-8.79092
ரீ	-8.79134
▁நோக்கி	-8.79145
ழி	-8.79285
▁காட்சி	-8.79311
▁பதி	-8.79352
ுள்ளன	-8.79455
ளை	-8.79596
▁குமார்	-8.79692
▁வெ	-8.79752
▁ரத்த	-8.79757
▁வன்முறை	-8.79807
▁விட்ட	-8.79807
▁ஜா	-8.79821
▁தாய்	-8.79865
ாளர்	-8.79911
▁பாகிஸ்தான்	-8.79925
▁முடியவில்லை	-8.80003
▁மத்தியில்	-8.80034
ராக	-8.80049
▁யுடன்	-8.80099
▁மாவட்டத்தில்	-8.8012
▁நீ	-8.80298
▁களால்	-8.80651
வன்	-8.80752
▁ஏற்கனவே	-8.80753
▁ஏற்பட்டது	-8.80867
▁வளர்ச்சி	-8.80985
போது	-8.81068
▁அவ	-8.81072
▁100	-8.81169
▁தகவல்கள்	-8.81173
▁கான்	-8.81351
▁சீ	-8.81415
▁கார	-8.81429
▁எல்லை	-8.81459
▁நோய்	-8.81667
என்	-8.81693
ரின்	-8.81908
▁டா	-8.82006
▁தெரிவித்து	-8.82011
▁காலம்	-8.82034
▁தீவிர	-8.82204
▁அருகில	-8.82411
▁வார	-8.82466
▁பிடித்த	-8.82533
▁ஆறு	-8.82661
▁கதை	-8.82737
வாக	-8.82825
டர்	-8.82992
▁மேற்கொள்ள	-8.83044
▁விஜய்	-8.83058
▁பற்றிய	-8.83303
ருக்கு	-8.83341
யம்	-8.835
▁பிரதேச	-8.83521
▁முறையாக	-8.83604
▁இறுதி	-8.83654
▁சந்தித்த	-8.83735
ிப்ப	-8.83795
▁கிட்ட	-8.83817
▁முறையில்	-8.83839
▁இருந்தால்	-8.83928
சை	-8.83945
▁ரன்கள்	-8.83961
▁வாங்கி	-8.84042
▁தந்த	-8.84084
▁ன்	-8.84107
▁நடைபெற	-8.84124
▁ஆண்டுகள்	-8.84153
▁ஒன்றை	-8.84172
▁உங்களுக்கு	-8.84459
ஷன்	-8.84557
▁கண்ட	-8.84573
▁சுகாதார	-8.84621
▁வேண்டாம்	-8.84647
▁மாதிரி	-8.84667
ங்கி	-8.84835
▁இரண்டாவத	-8.85093
▁சர்ச்சை	-8.85113
ஷா	-8.8519
ர்கள்	-8.85222
▁கவனம்	-8.85224
▁ஐந்த	-8.85332
▁களாக	-8.85336
▁அனைவரும	-8.85357
▁திருவிழா	-8.85359
ட்டா	-8.85371
▁கலை	-8.85392
▁நரேந்தி	-8.85416
ாங்க	-8.85477
▁சமீபத்தில்	-8.85519
▁உக்ரைன்	-8.85577
▁தரப்பு	-8.85591
▁திடீரென	-8.85644
▁மருத்துவமனை	-8.85886
▁டெ	-8.86002
ன்ற	-8.86042
ுக்கும்	-8.86057
▁முயன்ற	-8.8635
▁தொடங்கிய	-8.86537
▁செயல்	-8.86547
▁தண்டனை	-8.86668
▁சிலை	-8.86698
▁தோ	-8.86861
▁கோயிலில	-8.87039
▁தாகவும்	-8.87042
▁ரஷ்ய	-8.87067
▁மாநிலம்	-8.87215
▁டாக்டர்	-8.87229
▁கட்டி	-8.87327
▁தேவையான	-8.87376
▁ேன்	-8.87529
▁போட்டு	-8.87551
▁விவகாரம்	-8.87553
▁திரும்ப	-8.87711
▁இதுகுறித்து	-8.87736
▁தன்னை	-8.87753
▁தொகை	-8.87758
▁கர	-8.87848
பு	-8.8791
▁அதிகரித்து	-8.87982
▁தொடர	-8.88088
▁களுடன்	-8.88201
▁ஃப	-8.88246
▁குழந்தைகள்	-8.88264
▁விரைவில்	-8.88296
▁மாற	-8.8834
▁நம்	-8.88385
▁நெருக்கடி	-8.88404
தர்	-8.88561
விட்ட	-8.88623
▁நாட்கள்	-8.88824
▁விடுதலை	-8.88905
▁மிகப்பெர	-8.89018
▁இடையில	-8.89036
▁ராம	-8.89092
ஸ்ட்	-8.89107
▁போட	-8.89182
▁வெளியிட்ட	-8.89373
▁நபர்	-8.89598
லு	-8.89696
▁முதலில	-8.89711
▁எல்லா	-8.89714
ுகிறார்	-8.89859
▁மாறி	-8.89954
▁ப்பட	-8.89961
▁நில	-8.89966
▁முக்கியமான	-8.90048
▁மற்றொரு	-8.90077
▁உறுப்பினர்	-8.90092
▁ஜோ	-8.90153
▁நிர்வாக	-8.90265
▁கொடி	-8.90368
த்தகைய	-8.90473
▁மை	-8.90602
▁வகை	-8.9064
▁சட்டசபை	-8.90787
▁மேற்கொண்ட	-8.90793
▁ுள்ளன	-8.90833
▁சிறப்பாக	-8.90941
▁அறிவிக்கப்பட்ட	-8.9095
▁இணைய	-8.91052
▁கடும	-8.91069
▁முதல	-8.91125
▁அம்மன்	-8.91195
▁ோம்	-8.91328
▁யு	-8.91337
▁பொதுமக்கள்	-8.91365
▁ஜெய	-8.91501
▁டு	-8.91554
▁உயிரிழந்த	-8.91603
▁பிரச்சனை	-8.91635
h	-8.91691
னு	-8.92244
▁ஏற்படுத்தி	-8.92287
▁நம்ம	-8.92302
▁21	-8.92313
▁லை	-8.92321
▁சிறை	-8.92322
யில	-8.92322
▁மான	-8.92363
ராஜ்	-8.92384
▁23	-8.92447
▁குறிப்பிட்டார்	-8.92557
▁எங்களுக்கு	-8.92647
▁அமெரிக்காவ	-8.92647
er	-8.92663
சாமி	-8.92719
▁சபை	-8.92777
▁22	-8.92886
▁டை	-8.92956
▁ள்ள	-8.93046
▁ிருந்த	-8.93059
▁பேசினார்	-8.9312
▁எதிர்க்கட்சி	-8.93271
▁நல	-8.93273
▁செய்வது	-8.93281
▁கிரிக்கெட்	-8.93295
▁நடக்கிறது	-8.9337
▁பீ	-8.93391
▁தடுக்க	-8.93544
▁2024	-8.93563
தல	-8.93617
▁கால்	-8.93703
▁மக்களின	-8.93711
▁செய்யப்பட்டது	-8.93792
▁ஈ	-8.93849
▁தொழில்நுட்ப	-8.93855
ுக்காக	-8.93981
▁யாரும	-8.94077
▁குடியரசு	-8.942
▁ஆண்ட	-8.94235
▁போக்குவரத்து	-8.94251
▁முடிந்த	-8.94303
▁நடக்க	-8.94368
▁த்த	-8.94574
▁வீரர்கள்	-8.94591
I	-8.94728
d	-8.94806
தற்கு	-8.94857
ுள்ளதாக	-8.94979
▁புது	-8.95241
▁அங்க	-8.95262
பர்	-8.95517
▁அனுப்ப	-8.95622
▁டீ	-8.95676
ுமாறு	-8.95683
▁இதுபோன்ற	-8.95764
ிட்ட	-8.9585
▁விழாவில்	-8.95869
▁அங்கிருந்த	-8.95947
▁கேட்டு	-8.95951
▁மக்களை	-8.96116
▁செய்தது	-8.96129
▁அளவு	-8.96176
▁ஜூலை	-8.96225
▁ஏற்படுத்த	-8.96322
▁ஒன்ற	-8.96365
▁சுதந்திர	-8.96443
▁சொன்ன	-8.96806
▁சனி	-8.96814
▁வகுப்பு	-8.96833
▁தோல்வி	-8.96869
▁என்பத	-8.97019
▁ஈடுபட்ட	-8.97134
▁கொண்டார்	-8.97215
▁வர்கள	-8.97487
▁என்கிற	-8.97533
▁அதன்படி	-8.97543
▁பேச்சுவார்த்தை	-8.97554
▁மாற்றம்	-8.97641
▁வைக்கப்பட்ட	-8.97681
▁தமிழகத்தில	-8.97697
▁இவர	-8.97818
ேஷ்	-8.97914
▁வசதி	-8.97967
▁பணிகள்	-8.97989
▁மருத்துவமனையில	-8.98155
▁P	-8.98311
கடுமையான	-8.98421
▁முதலீடு	-8.98462
▁குறைந்த	-8.98564
▁தற்கொலை	-8.98576
▁மாநிலத்தில்	-8.98596
▁பொதுக்குழு	-8.98881
லர்	-8.98915
▁சுற்றி	-8.99013
▁யோ	-8.991
▁பை	-8.99173
▁ஜனநாயக	-8.99263
▁கொண்டாட	-8.99285
l	-8.99474
▁ப்ப	-8.99587
▁மார்ச்	-8.99721
▁பக்கம்	-8.99897
▁செய்யப்பட்டு	-8.99958
▁விஜய	-8.99981
ம்பு	-9.00006
▁அறிவிப்பு	-9.00074
▁தனக்கு	-9.00102
▁யூ	-9.0012
▁வெளியாகி	-9.00166
▁அமைக்க	-9.00315
ுமா	-9.00377
▁அதிர்ச்சி	-9.00412
▁உயர	-9.00449
▁பயன்படுத்தி	-9.00459
▁வழங்கி	-9.00486
▁சட்டமன்ற	-9.00554
▁பணத்தை	-9.00598
▁இவர்கள்	-9.0062
▁தரிசனம்	-9.00629
▁தொடங்க	-9.00651
▁பார்வை	-9.00656
▁ால்	-9.00781
▁களுக்க	-9.00994
▁மருத்துவர்	-9.01013
▁சந்திக்க	-9.01017
▁தற்போத	-9.01017
▁இணை	-9.01095
▁லி	-9.01177
▁ஆற்ற	-9.01274
ன்ஸ்	-9.01419
▁வழியாக	-9.01465
▁க்காக	-9.01479
▁மோ	-9.0154
க்குள்	-9.01663
▁மொத்தம	-9.01726
▁ஆகும்	-9.01733
▁பேச்சு	-9.01778
க்கா	-9.0178
▁செலவு	-9.01863
▁இல்	-9.01898
▁ுள்ளார்	-9.01921
an	-9.01934
▁C	-9.01956
▁சூழலில்	-9.0206
▁தன்ன	-9.02127
ஹா	-9.02377
▁நிர்வாகிகள்	-9.02486
▁வழங்கிய	-9.02538
▁சிறிய	-9.02602
மன்	-9.02641
▁ஓர	-9.02663
▁நீதிமன்றத்தில	-9.02672
▁அல	-9.02788
▁அதேபோல	-9.02851
▁சங்க	-9.03099
ட்டை	-9.03106
▁ங்களை	-9.03167
▁நிறைய	-9.03304
▁விபத்து	-9.03307
20	-9.03313
த்திர	-9.0348
▁ஏற்ற	-9.03493
▁ஏற்பட	-9.03533
▁கண்ண	-9.03609
▁வெளிநாட்டு	-9.03698
ந்	-9.03735
க்கப்பட்ட	-9.03813
▁சந்தை	-9.0388
லில்	-9.04043
▁கொண்டனர்	-9.04088
▁புர	-9.04099
▁ங்கள்	-9.04154
▁M	-9.0416
▁சுற்றுலா	-9.04216
▁முன்னதாக	-9.04254
▁அவன	-9.04278
▁திட்டத்தை	-9.04352
ிருந்து	-9.04441
▁விவசாய	-9.04599
▁உள்	-9.04764
S	-9.04795
ியல்	-9.04851
யன்	-9.04895
▁நாட்டு	-9.04901
▁சரியான	-9.04944
▁பந்த	-9.05077
▁சேர்த்து	-9.05151
▁ஜூன்	-9.05153
▁வென்ற	-9.052
▁பகுதியை	-9.05219
▁சேர்ந்து	-9.05271
▁அபிவிருத்தி	-9.05422
▁வருகிறார்கள்	-9.05448
குமார்	-9.05483
▁பேருந்து	-9.05586
▁தினம்	-9.05607
▁கிழக்கு	-9.05677
▁கிடைக்க	-9.05709
▁அமைச்சரவை	-9.05826
▁விளக்க	-9.05839
▁தெரிய	-9.05863
▁ஆயுத	-9.05868
ித்த	-9.05875
ிற	-9.0605
▁வருமான	-9.06051
▁வந்தனர்	-9.06087
▁சார்ந்த	-9.06268
ார	-9.063
▁வீர	-9.06313
▁அடுத்து	-9.06417
▁விட்டார்	-9.0648
▁பெருமாள்	-9.06499
▁நாட்களுக்கு	-9.06503
▁உரிய	-9.06523
▁பார்	-9.06547
▁குற்றம்	-9.06629
▁இயக்குநர்	-9.06686
▁அறிக்கையில்	-9.06762
▁குறி	-9.06766
▁தலைவராக	-9.06813
க்கூடிய	-9.06832
▁விவகாரத்தில்	-9.06844
▁அனைவர	-9.06926
▁சார்	-9.0703
ஃப்	-9.07197
▁தவறு	-9.07287
▁அரசுக்கு	-9.07292
▁சிறுமி	-9.07367
▁மாவட்டங்களில	-9.07401
▁மக்கள	-9.07421
▁வீட்டு	-9.07583
▁கண்	-9.076
ப்படி	-9.07835
▁மண்டல	-9.07898
▁செயல்பட	-9.07947
ார்கள்	-9.08016
▁நிலைமை	-9.08087
▁யால்	-9.08234
ar	-9.08256
▁நகர்	-9.08299
▁ிருக்கும்	-9.08303
▁மோதல்	-9.0834
▁மாநகராட்சி	-9.08527
▁சரியாக	-9.08534
கொ	-9.08556
▁ஆரம்ப	-9.08705
▁விடுத்த	-9.08767
▁வோ	-9.08813
நிலை	-9.08928
▁மது	-9.08948
▁மூ	-9.09156
யாளர்	-9.09178
▁தலைமையில	-9.09192
ஷி	-9.0926
▁உயிர்	-9.09453
▁குமார	-9.09591
ிருந்தது	-9.09727
▁திருச்சி	-9.09851
▁T	-9.09947
▁இன்	-9.09961
▁ஒருவர	-9.10139
▁ஆண்டுகளில்	-9.10158
▁கிடையாது	-9.10176
▁நிறுவனங்கள்	-9.10276
▁பொறுப்பு	-9.10297
▁பரிசோதனை	-9.10304
▁ிருக்க	-9.10361
▁ஊர்	-9.10437
▁பழ	-9.10536
▁வழங்கப்படும்	-9.10589
▁அமைப்ப	-9.10716
▁அதிகரிக்கும்	-9.11044
▁யான	-9.11075
▁நாடுகள	-9.11085
▁வீதி	-9.11141
▁தண்ணீர்	-9.11256
▁உடனே	-9.11261
ிடையே	-9.11349
▁நிகழ்ச்சியில்	-9.11393
▁தெரிவித்தனர்	-9.11547
▁அங்கே	-9.11676
▁ஊடக	-9.11725
▁இருப்ப	-9.11735
▁கையில்	-9.1176
▁உத்தரவு	-9.11782
ுதல்	-9.11881
எம்	-9.11913
▁வாகன	-9.1209
▁உர	-9.12138
▁தொடங்கியது	-9.12149
▁அம்மா	-9.12236
▁இல்ல	-9.12297
▁சீன	-9.12309
▁ரணில்	-9.12357
▁குற்ற	-9.12404
▁நம்ப	-9.1249
▁எப்போது	-9.12493
▁போட்ட	-9.12568
▁விளையாட்டு	-9.12754
▁வெளியிட	-9.12815
▁பிரச்சினை	-9.12915
▁தூ	-9.12918
▁2023	-9.12938
▁தினம	-9.12951
▁இவை	-9.13037
▁தரப்பில்	-9.1306
▁இன	-9.1313
▁மாக	-9.13132
▁கவலை	-9.13159
▁ஏற்பாடு	-9.13221
ுங்கள்	-9.13371
▁பங்கேற்ற	-9.13383
ப்பை	-9.1345
▁ப்பட்ட	-9.13598
C	-9.13682
▁பஞ்சாப்	-9.13722
▁பிடித்து	-9.13859
▁அணை	-9.1393
c	-9.13936
k	-9.14097
▁கூடுதல்	-9.1416
▁நாளில்	-9.1418
▁சசிகலா	-9.14295
▁நிறைவேற்ற	-9.14338
▁ரத்து	-9.14474
▁ஒன்றாக	-9.14537
▁ரு	-9.14562
▁நினைவு	-9.14608
▁நாட்டை	-9.14613
▁ஜெ	-9.14678
▁குறைக்க	-9.14723
▁பயண	-9.14841
டைய	-9.149
▁நிகழ்வு	-9.14903
▁கலந்துகொண்ட	-9.14919
▁எடுத்துக்	-9.14979
▁சதவிகித	-9.15033
ுந்த	-9.15078
▁யாருக்கு	-9.15084
▁வேட்பாளர்	-9.15099
▁தம	-9.15104
▁அவசியம்	-9.15236
▁இருக்கலாம்	-9.15244
▁ஏற்பட்டுள்ளது	-9.15304
கிறது	-9.15311
▁பரபரப்பை	-9.15449
ாவது	-9.15508
▁விடும்	-9.15739
▁கடல்	-9.15799
▁வருவதாக	-9.15802
▁ாமல்	-9.15818
▁குட	-9.15864
▁எவ்வளவு	-9.15939
▁ப்படுகிறது	-9.15984
▁அதிகரிக்க	-9.16015
▁மேல	-9.16206
n	-9.16262
▁தொடர்பில்	-9.16338
▁காட்டி	-9.16366
▁B	-9.16438
▁திரைப்பட	-9.16441
▁நிற	-9.16487
▁ஜே	-9.16515
▁தொற்று	-9.16646
▁சேர்ந்தவர்	-9.16666
▁ராகு	-9.16789
▁திகதி	-9.16798
▁உண்டு	-9.17101
▁அதிரடி	-9.17104
▁60	-9.17181
▁தெரியவில்லை	-9.1726
▁ப்பட்டு	-9.17289
.1	-9.17299
▁தெரிவிக்கப்பட்ட	-9.17318
▁27	-9.17355
▁பக்க	-9.17425
▁இலங்கையில்	-9.17464
▁28	-9.17679
▁மோசமான	-9.1776
▁சொத்து	-9.17805
▁இசை	-9.17859
▁குஜராத்	-9.1793
▁தெரியும்	-9.18071
▁நிலையத்தில	-9.18072
▁ரசிகர்கள்	-9.18115
▁வருட	-9.18189
▁குறித்தும்	-9.18261
▁தடுப்பூசி	-9.18314
▁அவசர	-9.18314
▁பக்கத்தில்	-9.18435
▁எச்சரிக்கை	-9.18619
▁இதற்காக	-9.18644
▁போதும்	-9.18687
▁வழக்க	-9.19158
▁மரண	-9.19183
▁மாநிலங்களில	-9.19346
▁இறந்த	-9.19465
▁கோர	-9.19605
▁நிறுவன	-9.19635
▁போட்டியில	-9.19644
▁திராவிட	-9.19713
▁மேற்கொண்டு	-9.19763
▁எழுதிய	-9.19802
னோ	-9.19991
▁26	-9.20016
▁பத	-9.20017
▁ப்படும்	-9.20081
▁கெ	-9.20167
▁வெள்ள	-9.20223
▁சதவீத	-9.20388
▁சந்திர	-9.20404
▁நெ	-9.20478
▁கௌரவ	-9.20705
▁யார	-9.20774
▁ஐக்கிய	-9.20849
▁வருகை	-9.20849
▁கன	-9.2103
▁நீட்	-9.21067
▁மட	-9.21126
▁ராஜ்	-9.21228
▁நிர்வாகம்	-9.21241
▁சாமி	-9.21256
டோ	-9.21345
▁பொருட்களை	-9.21352
▁நீதி	-9.21406
▁ஹா	-9.21597
னே	-9.21608
▁விருது	-9.21679
▁வர்த்தக	-9.21708
▁வெறும	-9.21736
▁பேருக்கு	-9.21828
▁ஒருங்கிணைப்பாளர	-9.21882
னார்	-9.21889
▁அதிகமான	-9.21906
▁பழைய	-9.21929
▁இலவச	-9.21996
▁வள	-9.2209
▁அறிவித்த	-9.22202
▁இவ்வாற	-9.22302
▁தெரிகிறது	-9.2231
▁இருக்கின்றன	-9.22349
▁மறு	-9.22434
▁ிருந்தது	-9.22477
▁இதே	-9.22509
▁முழுமையாக	-9.2253
▁தகுதி	-9.22572
ுற	-9.22586
▁கண்டு	-9.22689
▁மில்லியன	-9.22718
▁ஆகியவை	-9.2282
▁இரண்டாம	-9.2307
▁ஆடி	-9.23096
▁பேராசிரியர்	-9.23166
▁தெரிவிக்க	-9.23201
▁எதிர்த்து	-9.23227
▁எடுக்கப்பட்ட	-9.23254
▁பாலாஜி	-9.23311
▁பிரபல	-9.23424
ின்றனர்	-9.23449
▁எம்பி	-9.23472
▁த்துடன்	-9.23522
▁அடித்து	-9.23526
▁தீர்ப்பு	-9.23539
▁பெரு	-9.23553
▁இன்னொரு	-9.23669
▁இயற்கை	-9.2374
வரும்	-9.23786
▁பயன	-9.23873
▁சீர	-9.2393
▁நடைமுறை	-9.23932
▁சூழல்	-9.24009
ங்கள	-9.24212
▁வழங்கும்	-9.24283
▁நினைத்த	-9.24408
▁ரே	-9.24536
▁ஏப்ரல	-9.24625
▁போட்டியிட	-9.24647
▁நடித்த	-9.24765
▁தீர்வு	-9.24777
▁இன்ற	-9.2478
▁அவர்களின	-9.24848
▁ஆண்	-9.24951
▁குறிப்பிட	-9.24986
▁லே	-9.25039
▁அலை	-9.25076
பதி	-9.25114
▁அதேபோல்	-9.25117
▁மோசடி	-9.25218
▁அட	-9.25287
▁இளைஞர்	-9.25349
▁கட்டுப்படுத்த	-9.25366
▁ஹெ	-9.25395
▁நேரடியாக	-9.25417
▁ஆளும	-9.25422
▁ராஜா	-9.25487
▁பல்கலைக்கழக	-9.25543
▁பொருட்கள்	-9.25564
▁அமைதி	-9.25587
▁t	-9.25653
▁ஆன்லைன	-9.25667
▁யானை	-9.25687
களுடன்	-9.25752
▁அதைத்	-9.25791
▁ஒன்றிய	-9.25791
▁விநாயகர்	-9.25807
▁கடிதம்	-9.25816
▁பூமி	-9.25838
▁உள்ளே	-9.26092
▁ராசி	-9.26092
நீ	-9.26202
▁வழக்கம்	-9.26278
ாள்	-9.26319
▁மைய	-9.26355
▁சமய	-9.26374
▁கூ	-9.26387
▁விவசாயிகள்	-9.264
▁வாழ்வ	-9.26525
▁1,	-9.26753
ங்களுக்கு	-9.26809
▁நமக்கு	-9.26813
▁நீர	-9.26855
▁பெருமை	-9.26925
▁அச்ச	-9.26936
ஜா	-9.26939
▁வழிபாடு	-9.27033
▁சாப்பிட	-9.27042
▁தீர்த்த	-9.27189
▁தாக்க	-9.27203
▁p	-9.27287
▁மகள்	-9.27368
▁களுக்கும்	-9.2738
▁உடன்	-9.27424
▁பிப்ரவரி	-9.27482
▁டே	-9.27487
▁ார்கள்	-9.27489
▁I	-9.27586
▁உள்ளாட்சி	-9.27592
▁பாதுகாப்ப	-9.27744
▁வுடன்	-9.27887
m	-9.27888
▁எண்ணெய்	-9.27907
▁விதி	-9.27926
▁அகற்ற	-9.27962
▁மூலமாக	-9.27963
▁நாட்களில்	-9.27994
▁செயல்படுத்த	-9.28006
▁கருத்த	-9.28087
▁திட்டத்தின்	-9.28124
▁கட்சிகள்	-9.28142
▁ற	-9.28148
▁பிடிக்க	-9.28184
▁அமைக்கப்பட்ட	-9.28638
▁பெரும்பாலான	-9.2875
▁இங்கே	-9.28852
▁நடிகை	-9.29012
▁உறவு	-9.29037
.5	-9.2905
▁2021	-9.29062
▁தீர்ப்ப	-9.29192
ணை	-9.29203
▁அதோடு	-9.2922
▁புரிந்து	-9.29246
▁வன	-9.29248
▁ிருந்தார்	-9.29333
▁படுத்த	-9.29409
▁கரு	-9.2945
▁கணவர்	-9.29495
வல	-9.29573
T	-9.296
▁செந்தில்	-9.29623
ுமான	-9.29647
▁ாத	-9.29649
▁கொண்டே	-9.29788
▁தயாராக	-9.29818
▁தூர	-9.2983
▁ஆகஸ்ட	-9.29862
▁நவீன	-9.29876
▁அண்ணா	-9.29982
▁வழக்கறிஞர்	-9.30068
▁போட்டியிட்ட	-9.30149
▁ரூபா	-9.30353
▁நோக்க	-9.30465
▁என்பவர்	-9.30565
▁D	-9.30566
▁அடிப்படை	-9.30628
▁வலி	-9.30643
பட்ட	-9.30657
▁ாலும்	-9.30727
▁ரஷ்யாவ	-9.30788
▁மாகாண	-9.30801
இல்	-9.30909
▁ஆவ	-9.30942
ுகின்றனர்	-9.30985
▁ஏற்கெனவே	-9.31043
▁அதிகாலை	-9.31044
▁ஆரம்பித்த	-9.31086
▁ஆட்சியை	-9.31184
ோட	-9.31212
ித்து	-9.31232
▁வீரர்	-9.31247
▁குற்றச்சாட்டு	-9.31267
g	-9.31339
▁உள்ளதாக	-9.31347
▁உறுப்பினர்கள்	-9.31424
▁இலக்க	-9.3153
▁வெளியான	-9.31592
N	-9.3166
▁விரும்ப	-9.31702
▁a	-9.31711
▁ே	-9.31744
முறை	-9.31754
▁விழ	-9.31774
▁நன்றி	-9.31837
பை	-9.31921
▁வங்க	-9.31949
P	-9.31972
▁வருவது	-9.31993
▁சிறையில	-9.32071
▁அதிகார	-9.32104
வெ	-9.32128
▁ுகிறது	-9.32175
▁திருத்த	-9.32222
▁தீவிரமாக	-9.32278
▁ஈடுபட	-9.324
▁கோப	-9.32637
▁கட்சியை	-9.32698
▁சேர	-9.32753
▁மகிழ்ச்சி	-9.32761
▁கழக	-9.32777
▁உள்ளூர்	-9.32922
▁டிசம்பர	-9.32956
▁2019	-9.33012
▁நிறுவனத்தின	-9.33052
▁புதுச்சேரி	-9.33121
▁தப்பி	-9.33173
▁ஏற்படுத்திய	-9.332
▁விஷ	-9.3327
▁செய்தியாளர்கள	-9.33368
▁விஷயம்	-9.33401
▁நிறுவனங்கள	-9.33414
மடைந்த	-9.33423
▁எத்தனை	-9.3344
▁பதவியை	-9.33599
▁டோ	-9.33649
▁ுவதற்க	-9.33656
▁விபத்த	-9.33656
▁நாக	-9.33716
ூரில்	-9.33722
▁சேர்த்த	-9.33823
▁வேகமாக	-9.33883
▁பண்ண	-9.33921
▁வீட்டுக்கு	-9.33982
▁இருப்பதால்	-9.33997
▁கர்நாடக	-9.34058
த்துக்	-9.34106
al	-9.34114
▁சிக்கி	-9.34116
▁குண	-9.34127
ப்பது	-9.34171
▁காலி	-9.34189
▁சட்டத்தின்	-9.34238
▁அக்டோபர	-9.34291
▁நட்சத்திர	-9.34296
▁தில்	-9.34317
▁நடவடிக்கைகள்	-9.34348
▁அணிக்கு	-9.34361
▁ஜனவரி	-9.34417
ளிக்க	-9.34501
துறை	-9.34515
▁ஆராய்ச்சி	-9.34566
டில்	-9.34607
▁விருப்ப	-9.34666
▁தட	-9.34684
▁ஆதார	-9.34709
▁ஏற்படுத்தியுள்ள	-9.34739
▁கோப்பை	-9.34872
▁விழுந்த	-9.34967
ழு	-9.3503
▁அணிய	-9.3507
▁ஆசிரியர்	-9.35161
▁வைரஸ்	-9.35208
சம்	-9.35245
▁சந்தேக	-9.35307
ஞ்சி	-9.35349
▁சம்பவ	-9.35379
த்தா	-9.35467
▁மாற்று	-9.35566
▁வாழ்த்து	-9.35566
▁வணிக	-9.35567
▁தூக்கி	-9.35633
▁ஈடுபட்டு	-9.35663
ளா	-9.35796
▁வாரம்	-9.35824
ண்டு	-9.35827
▁கணக்கு	-9.35867
▁அப்பா	-9.35878
▁முழுக்க	-9.35891
▁முகமது	-9.36062
▁பெண்களுக்கு	-9.36164
▁மாற்றி	-9.36205
▁தரப்பினர	-9.36227
▁களிலும்	-9.36259
▁மன்ன	-9.36365
▁E	-9.36368
E	-9.36415
▁பெற்றோர்	-9.3652
▁பணிகளை	-9.36704
▁ஆதரவாக	-9.3673
▁விளையாட	-9.36743
▁ரவி	-9.36843
R	-9.3692
▁கோலி	-9.36964
▁செயல்பட்டு	-9.3697
களாக	-9.37096
▁குள	-9.37104
▁பஞ்ச	-9.3722
▁பொறுத்தவரை	-9.37232
▁சாதனை	-9.3728
ப்படுத்தி	-9.3739
▁ஜெயலலிதா	-9.37395
▁நோ	-9.37417
▁ஆணைய	-9.37425
▁நாட	-9.37426
▁விசாரித்த	-9.37458
▁நடத்தினர்	-9.3749
▁R	-9.37498
ஸி	-9.37536
▁போலவே	-9.37672
▁நடவடிக்கைகளை	-9.37716
▁கிராமத்தில்	-9.37732
▁புற	-9.37786
▁பய	-9.37846
▁பெயரில	-9.37915
அ	-9.3792
▁வயதில	-9.3799
▁பெயரை	-9.38021
▁எப்போதும	-9.38062
▁வசிக்க	-9.38117
▁அல்	-9.38125
▁ஆள	-9.38236
▁மருந்து	-9.38286
▁மருத்துவமனைக்கு	-9.38293
▁மரியாதை	-9.38368
▁உத்தர	-9.38391
ாள	-9.38411
▁ஆணையம்	-9.38579
▁வெளியிட்டுள்ள	-9.38657
▁மூலாதார	-9.38752
▁வேட்பாளர	-9.38823
▁இழந்த	-9.38856
ல்லா	-9.39013
▁கோட்டை	-9.39044
;	-9.39139
▁நின்று	-9.39185
▁கோரி	-9.39194
▁ஹமாஸ்	-9.39273
▁மகளிர	-9.39281
▁முடிவுகள்	-9.39341
▁தேவ	-9.39409
▁ங்கள	-9.3945
▁பிரி	-9.3946
▁அத்துடன்	-9.39476
▁ஊழல்	-9.39485
▁சர்மா	-9.39494
▁படிக்க	-9.39496
▁நின்ற	-9.39507
▁ங்களுக்கு	-9.39529
▁சுந்தர	-9.39555
▁போராட்டத்தில்	-9.39595
▁29	-9.39601
▁ஊ	-9.39615
▁யிலும்	-9.39621
ிறார்கள்	-9.39672
▁குறை	-9.39759
b	-9.39833
▁ஸ்ட	-9.39849
▁முதல்வர	-9.39882
▁அடையாளம்	-9.39932
▁முன்பாக	-9.39955
▁னா	-9.40001
30	-9.40083
▁மின்சார	-9.40136
ண்டா	-9.40155
▁னார்	-9.40176
▁மதிப்பு	-9.40178
▁நீக்க	-9.40246
▁ஏற்படுத்தும்	-9.40259
▁பங்கேற்க	-9.40299
மணி	-9.40347
▁காங்கிரஸ	-9.40429
▁அமைச்சர்கள்	-9.40462
▁முஸ்லிம்	-9.40488
▁சூ	-9.40514
▁விசாரணையில்	-9.40547
▁அடையாள	-9.40651
▁ஆகியவற்ற	-9.40758
▁அனைவருக்கும	-9.40765
வோ	-9.40797
▁மாணவர்களுக்கு	-9.4093
▁உயர்ந்த	-9.40941
▁கண்டுபிடிக்க	-9.40994
▁குடி	-9.41041
▁மாணவர்	-9.41067
▁எங்க	-9.41096
▁வீட்டிற்கு	-9.41168
▁ுள்ளதாக	-9.41171
▁இடத்தை	-9.41248
ின்றன	-9.41257
▁மக்களவை	-9.4126
▁சக	-9.41321
▁முடிந்தது	-9.41326
▁வீ	-9.41343
▁வடக்கு	-9.41374
ந்தி	-9.41375
▁லெ	-9.41445
▁முடியாமல்	-9.4154
▁கப்பல்	-9.41555
▁பக்தர்களுக்க	-9.41701
▁பாதுகாக்க	-9.41869
▁சென்றார்	-9.41871
▁வான	-9.41871
▁ஏற்க	-9.41904
▁எல்	-9.41918
▁தகவல்களை	-9.41978
▁தமிழகம்	-9.41984
▁போட்டிகளில	-9.4201
▁சுற்று	-9.42038
பெ	-9.42072
▁க்கூடிய	-9.42231
▁செப்டம்பர	-9.42256
▁அடித்த	-9.42265
▁பொதுவாக	-9.42273
▁ுவது	-9.42276
▁விளக்கம்	-9.42286
▁மேற்கொள்ளப்பட்ட	-9.42362
▁பொருள்	-9.42369
▁வெளியுறவு	-9.42398
▁ஒன்றில்	-9.425
▁/	-9.4255
▁பகிர்ந்து	-9.42623
▁ிற	-9.42666
▁யில	-9.42754
▁அவற்றை	-9.4277
வீ	-9.42825
▁விதமாக	-9.42861
▁முடி	-9.42906
ிடமிருந்து	-9.42933
▁இந்தியாவுக்கு	-9.42953
ட்டர்	-9.42973
▁அழைப்பு	-9.42991
▁இளம்	-9.43073
v	-9.43182
▁காப்பாற்ற	-9.4319
ணா	-9.43221
▁N	-9.43305
▁நாடுகளுக்கு	-9.43313
▁அன்ப	-9.43322
▁கல்	-9.43428
▁தரும்	-9.43455
▁உதயநிதி	-9.43465
▁நிறுத்தி	-9.43526
▁ஆசை	-9.43547
▁இருக்கிறார்கள்	-9.43667
r	-9.43777
▁ங்களும்	-9.43798
▁இதனிடையே	-9.43823
▁மேம்படுத்த	-9.4383
▁எழுத	-9.43877
▁பெறும்	-9.43942
▁ரீதியாக	-9.44021
▁ஆனாலும்	-9.44024
▁மூன்றாவத	-9.4404
▁விக்ரமசிங்க	-9.44048
▁அதற்க	-9.4406
▁ஹி	-9.44072
▁கரை	-9.44089
▁அரசியலில	-9.44145
▁தொடர்ந்த	-9.44153
▁பெட்ரோல்	-9.44207
ென	-9.44235
▁சென்றனர்	-9.44254
▁c	-9.44305
▁கட்டப்பட்ட	-9.44354
▁சாதாரண	-9.44363
▁சை	-9.44397
▁இருக்கு	-9.44427
ாண்டு	-9.4448
▁வாய்ந்த	-9.44579
▁தொடர்ச்சியாக	-9.44582
▁தொ	-9.44583
▁அப்	-9.44626
▁அனுப்பிய	-9.44656
▁பிரதமர	-9.44774
▁விசாரிக்க	-9.44906
▁அடைய	-9.44971
▁ஆர	-9.45028
▁தூக்க	-9.45077
ுவதாக	-9.45092
▁பொங்கல	-9.45102
▁அனு	-9.4511
▁எரி	-9.4512
▁ரை	-9.45168
▁சிங்க	-9.45177
சே	-9.45179
▁குரல்	-9.45183
▁பேரை	-9.45282
▁கிடைத்தது	-9.45457
▁மாணவர்கள	-9.45502
▁மீன்	-9.45504
▁வடிவ	-9.45562
▁சர்	-9.45634
▁தேர்	-9.45678
▁வைத்தார்	-9.45766
▁தீப	-9.45767
▁விற்கு	-9.45841
▁தன்னுட	-9.45871
▁என்றாலும்	-9.45917
▁சுய	-9.45961
▁தர்ம	-9.45969
▁இஸ்ரேல	-9.46013
▁தவிர்க்க	-9.4603
▁ஓடி	-9.46043
▁திரும்பி	-9.46076
கொண்ட	-9.46164
▁புதிதாக	-9.46214
▁முந்த	-9.46225
▁குறைவாக	-9.46257
▁வழக்கை	-9.46346
▁அறை	-9.46395
▁நீங்க	-9.4641
▁முத்து	-9.46452
▁கம்ப	-9.46472
▁நகை	-9.46475
▁அதிருப்தி	-9.46551
▁வழங்கப்பட்டது	-9.4666
ீர்கள்	-9.46688
▁பெயர	-9.46709
▁சண்டை	-9.46729
▁ஓட்ட	-9.46753
▁விசாரணைக்கு	-9.46769
▁31	-9.46877
▁எம	-9.46887
▁பாடல்	-9.46907
▁முக்கியத்துவம்	-9.4692
▁மண்	-9.46924
▁தமிழர்	-9.46928
▁லட்ச	-9.46932
▁ரன்களை	-9.47127
▁வயதான	-9.47291
▁பிரதான	-9.47324
▁காலமாக	-9.47369
▁மீட்டர்	-9.47566
▁களிடம	-9.47607
▁நன்றாக	-9.47663
▁பின்பற்ற	-9.47719
▁கூறுகின்றனர்	-9.47754
▁வாழ்ந்த	-9.47758
▁வாய்	-9.47783
▁வழங்கப்பட்ட	-9.47795
▁200	-9.47814
▁பாகிஸ்தான	-9.47815
▁கொஞ்சம	-9.47815
▁மனிதர்கள	-9.47847
▁ரயில்வே	-9.47856
▁L	-9.47976
▁செயல	-9.48027
▁கேப்டன்	-9.48037
▁அபிஷேகம்	-9.48081
▁நாட்களாக	-9.48165
▁உலகம்	-9.48201
▁அலுவலகத்தில	-9.48203
▁பெற்றது	-9.48295
ஃப	-9.48313
▁மீ	-9.48423
்நாத்	-9.48427
▁m	-9.48529
▁அச	-9.48555
▁ஆட	-9.48663
▁திட்டங்கள்	-9.48765
▁வாங்கிய	-9.48765
▁முன்னணி	-9.48817
▁ுகிறார்கள்	-9.48891
▁செய்யப்படும்	-9.48957
▁F	-9.49064
▁திறந்து	-9.49066
கால	-9.49172
▁செலுத்தி	-9.49193
▁சொந்தமான	-9.49359
▁முடிவுக்கு	-9.4957
▁பெண்ண	-9.49708
▁விமர்சித்த	-9.49775
▁கொண்டது	-9.49846
சர்	-9.49919
▁ங்களில	-9.49931
▁இடி	-9.49933
▁பகவான்	-9.5
▁பத்து	-9.50062
▁தானே	-9.50091
▁சற்று	-9.50142
ட்டில்	-9.50156
▁கொடுக்கும்	-9.50298
▁புனித	-9.50309
▁போதே	-9.50372
▁ட்விட்டர்	-9.50423
▁ட்ட	-9.50485
▁விதித்த	-9.50542
▁மாநிலங்கள	-9.50646
▁இடை	-9.5065
▁காதல்	-9.50667
▁களே	-9.5071
▁ள	-9.5072
▁த்தால்	-9.50762
▁படத்தை	-9.50805
▁நாடுகளில	-9.50817
ற்கான	-9.5082
▁துறையில்	-9.50838
▁ஸ்டாலின	-9.50844
▁சந்த	-9.50852
▁வித	-9.50965
▁போய	-9.51027
▁ரன்	-9.51056
ுக்குள்	-9.51098
▁உயர்வு	-9.51122
▁பயணிகள்	-9.51124
▁ஏற்படுத்தியது	-9.51129
▁சம்பந்தப்பட்ட	-9.51269
▁மாதத்தில்	-9.51271
▁அறிய	-9.51286
▁கட்சிக்கு	-9.51286
▁மையம்	-9.51419
▁ர்	-9.51515
▁.....	-9.51521
▁இணைந்த	-9.51544
ாரா	-9.51575
.30	-9.51619
கட்ட	-9.5168
▁பரப்ப	-9.51684
▁பூஜைகள்	-9.51692
▁வலைதளங்களில	-9.51737
▁அருள்	-9.51741
▁னு	-9.51849
▁பர்	-9.51882
▁பவ	-9.51895
▁தடுப்பு	-9.51955
▁தாண்டி	-9.51963
▁எண்	-9.52074
▁ராஜஸ்தான்	-9.52132
▁டாலர்	-9.52153
▁முதல்வராக	-9.52156
▁வெடித்த	-9.52167
▁குறைவ	-9.52173
▁அழக	-9.52202
▁நாணய	-9.5224
▁கொழும்பு	-9.52245
▁ஓட	-9.52247
▁தெரிந்து	-9.52248
சன	-9.52318
▁பதிலாக	-9.52402
ன்று	-9.52449
▁வலியுறுத்தி	-9.52473
▁வரலாற்று	-9.52555
▁விண்வெளி	-9.5263
▁உதவிய	-9.5267
▁ுவத	-9.52694
▁துடன்	-9.52699
▁தோட்ட	-9.52724
▁பரவ	-9.5285
▁சினிமா	-9.52909
▁தவறான	-9.52919
▁வானிலை	-9.53023
▁க்க	-9.53041
லே	-9.53053
க்கை	-9.5307
▁மாட்ட	-9.53106
▁புகழ்	-9.53148
▁முன்னர்	-9.53234
▁இருந்தனர்	-9.53264
▁வாக்குகள்	-9.53276
▁இஸ்லாமிய	-9.53284
▁வருமானம்	-9.53289
▁வர்களுக்கு	-9.5333
▁வார்த்தை	-9.53351
▁ஒதுக்கீடு	-9.53417
▁குண்டு	-9.53418
▁திட்டங்களை	-9.53423
▁70	-9.53511
▁தேட	-9.53677
▁செய்யப்பட	-9.53718
▁இதுதான்	-9.53735
த்தட்ட	-9.53803
▁ுகின்றனர்	-9.53856
ுகின்றன	-9.54013
▁பதிலளித்த	-9.54014
▁ஆளுநர	-9.54019
▁மாணவ	-9.54024
வதை	-9.54049
▁உறுப்பினர்கள	-9.54176
▁திறன்	-9.54183
▁வன்கொடுமை	-9.5421
▁னுக்கு	-9.54213
▁இருக்கிற	-9.5428
▁த்திலும்	-9.5433
▁சேர்க்க	-9.5437
▁தனியாக	-9.54425
▁கேட்டுக்	-9.5444
▁in	-9.54449
▁முன்ன	-9.54452
▁கொள்ளும்	-9.54455
▁இத	-9.54463
▁நிலையம்	-9.54541
▁தெரியவந்தது	-9.54564
▁அபிஷேக	-9.54581
▁எது	-9.54586
▁ஷி	-9.54627
▁பணியாற்ற	-9.54693
▁ப்படவில்லை	-9.54765
▁கருணாநிதி	-9.54809
▁சேலம்	-9.54812
▁ஊர	-9.54831
தன்	-9.54914
▁மதிப்ப	-9.54968
▁ஏவுகணை	-9.55009
▁ராஜினாமா	-9.55009
▁கல்யாண	-9.55211
▁மாதங்களுக்கு	-9.55245
▁80	-9.55375
▁பொதுச்	-9.55379
▁வருகிறோம்	-9.55463
▁கலைஞர்	-9.55537
▁திட்டமிட்ட	-9.55573
▁நடத்தப்பட்ட	-9.55573
த்தால்	-9.556
▁ஆதி	-9.55607
▁தங்களுக்கு	-9.5569
▁மகன	-9.55704
▁வெள்ளி	-9.55774
▁அப்போத	-9.55793
▁மேலாக	-9.55796
பூ	-9.5581
▁போகும்	-9.55814
▁இரண்ட	-9.55953
▁துவங்கியது	-9.55956
▁சிக்கல்	-9.56009
▁ஓய்வு	-9.56125
ங்கா	-9.56152
▁எனப்	-9.56168
▁பாதை	-9.56185
▁சிக்கிய	-9.56207
▁புத்தக	-9.5622
▁கொல்லப்பட்ட	-9.56234
▁வீசிய	-9.56312
▁நியமிக்கப்பட்ட	-9.56401
▁முன்னேற்ற	-9.56414
▁ஒட்டுமொத்த	-9.56423
▁அண்ட	-9.56525
▁ஏற்பாடுகளை	-9.56548
▁ிருப்பது	-9.56633
▁செய்துள்ளார்	-9.56697
▁தோற்ற	-9.56716
▁தேச	-9.5672
விற்கு	-9.56731
▁தொகுதியில	-9.56743
▁அனுமதிக்க	-9.56772
ாட்சி	-9.56777
▁முகாம	-9.56802
D	-9.56838
▁தல	-9.56846
▁சதவீதம்	-9.56879
▁வைர	-9.5697
▁அப்பகுதி	-9.57039
▁என்கிறார்கள்	-9.5709
▁ஆஃப்	-9.57106
▁விற்க	-9.57153
▁ஊழியர்கள்	-9.57167
▁வரலாறு	-9.57241
வால்	-9.57279
▁G	-9.57393
▁பாட்ட	-9.57395
▁பரிசு	-9.57406
▁ப்பட்டது	-9.57443
▁நிற்க	-9.57536
தோ	-9.57586
▁போராட்ட	-9.576
▁துப்பாக்கி	-9.57605
ில்லை	-9.57686
▁ஏற்பட்டு	-9.57712
▁அக்	-9.57839
▁பங்க	-9.57959
▁விவாத	-9.57982
▁வங்கதேச	-9.58034
ற்கு	-9.58095
இந்த	-9.58123
▁இருப்பதை	-9.58146
க்கொள்ள	-9.58172
▁தற்கு	-9.58216
ணம்	-9.5828
▁நல்லது	-9.58339
▁ிய	-9.58436
▁பணியில	-9.58437
▁கட்டணம்	-9.58441
▁எனினும்	-9.58479
ரூ	-9.58488
▁கட்டுரை	-9.58525
▁என்றே	-9.58527
▁மதிய	-9.58575
▁பத்திர	-9.58698
O	-9.58708
▁்க	-9.58741
வரை	-9.58873
▁விமர்சனம்	-9.58897
▁தீர்மானம்	-9.58971
▁அமைத்த	-9.58994
▁இடம்பெற்ற	-9.59038
த்தான்	-9.59055
▁ிறது	-9.59146
▁ுமாறு	-9.5919
▁டெஸ்ட்	-9.59342
▁நகராட்சி	-9.59351
▁கொண்டிருக்கிறது	-9.59419
▁தெளிவாக	-9.59468
▁பொருட்கள	-9.5948
▁குடும்பத்த	-9.59501
▁கூட்டு	-9.59516
▁ிருக்கிறார்கள்	-9.59539
▁தவற	-9.59545
▁பழனிச்சாமி	-9.59733
ச்சா	-9.5976
▁ஏற்றுமதி	-9.59763
ஸ்டாலின்	-9.59786
▁35	-9.5984
▁அதி	-9.59886
விட்டது	-9.59896
▁பாரம்பரிய	-9.59943
▁எதிர்பார்த்த	-9.59944
▁வலுவ	-9.59945
▁நவம்பர்	-9.59973
ீர்	-9.6006
செ	-9.60091
▁காவல்துறையினர்	-9.601
பன்னீர்செல்வம்	-9.60117
▁எழுந்த	-9.60244
▁அப்ப	-9.60276
▁ராம்	-9.60292
▁திடீர்	-9.60366
▁மாளிகை	-9.60366
▁னால்	-9.60389
வொரு	-9.60426
▁அமைச்சராக	-9.6043
▁விக்கெட்	-9.60457
▁நபர	-9.60537
▁உறுதியாக	-9.60545
▁தயாரிக்க	-9.60556
▁பார்க்கலாம்	-9.60609
▁ஆப்	-9.60611
▁பிக்	-9.60616
▁கூறுகிறது	-9.60632
▁ஹே	-9.6069
▁தொடக்க	-9.60748
▁இணையதள	-9.60762
▁அறிவுறுத்த	-9.60803
மில்லை	-9.60881
▁கிருஷ்ண	-9.60989
▁கள்ளக்குறிச்சி	-9.61003
▁500	-9.61051
▁திருப்பி	-9.61082
▁இருந்தன	-9.61182
▁திண்டுக்கல்	-9.61216
▁சூரிய	-9.61252
▁அவ்வ	-9.61369
▁ரகசிய	-9.6143
▁பரவி	-9.61434
▁போன்	-9.61444
▁பந்து	-9.61495
▁அழுத்த	-9.61511
▁த்திலிருந்து	-9.61634
▁நுழைந்த	-9.61657
க்கொண்டு	-9.61667
▁ோர	-9.61687
▁எழுதி	-9.61756
▁பர	-9.61764
▁ஏதாவத	-9.61765
▁ான்	-9.61816
▁தேர்ந்தெடுக்க	-9.61858
புரம்	-9.61891
▁இளைஞர்கள்	-9.61943
▁மருத்துவர்கள்	-9.61992
▁ரெ	-9.61994
▁ஏழு	-9.62016
▁ஏமாற்ற	-9.62043
▁அனுபவ	-9.62077
▁எடை	-9.62082
▁கேரள	-9.62095
▁த்தின	-9.62103
▁75	-9.62144
▁ஆகியோர	-9.62188
▁ட்ர	-9.62196
▁ஜனதா	-9.6233
▁அரிசி	-9.62339
M	-9.62341
▁தம்பதி	-9.62384
▁மூல	-9.62385
▁பேரும்	-9.62401
or	-9.62408
▁உரை	-9.62416
வுடன்	-9.6245
at	-9.625
சோ	-9.62569
▁தலைவர	-9.62637
▁செய்துள்ளனர்	-9.62667
▁தள்ளி	-9.62677
▁தேனி	-9.62688
▁நிச்சயம்	-9.62719
▁உணர்ந்த	-9.62744
▁படித்து	-9.62775
▁கிரி	-9.628
▁ிருக்கின்றனர்	-9.62869
ுவோம்	-9.62872
▁அரங்க	-9.62889
▁2020	-9.6289
▁விதிக்கப்பட்ட	-9.62918
▁ஆத்மி	-9.6294
▁ள்	-9.631
▁எதிர்கொள்ள	-9.63156
▁ோ	-9.63159
▁நிறைவு	-9.63187
ௌ	-9.63194
▁வாய்ப்புகள்	-9.63203
▁கொண்டிருக்கும்	-9.63247
▁குடும்பத்தினர்	-9.63277
▁வால்	-9.63288
▁இரட்டை	-9.63374
▁விடுமுறை	-9.63375
▁தேர்தலை	-9.63426
பே	-9.63457
▁நினைத்து	-9.63477
▁பிரதேசத்தில்	-9.63511
▁வெல்ல	-9.63519
▁b	-9.63525
▁பெரும்பால	-9.6355
▁வெப்ப	-9.63562
▁உள்பட	-9.63602
▁197	-9.63656
எ	-9.63687
▁அதிகாரிகள	-9.63743
▁முருகன்	-9.63771
வேளை	-9.63807
▁ட்	-9.63843
ுகிறார்கள்	-9.63878
▁குழுவ	-9.6392
▁அமர	-9.63939
▁மொ	-9.63949
▁பாஜகவின	-9.63967
ினை	-9.63977
▁கர்நாடகா	-9.64026
▁பாஜகவுக்கு	-9.64041
▁கர்	-9.64176
இ	-9.6418
▁உடலை	-9.64212
▁அதற்காக	-9.6424
▁அனுமதிக்கப்பட்ட	-9.64269
▁கேது	-9.64363
▁வல்ல	-9.64367
▁தேர்வ	-9.64426
▁ன்னு	-9.64439
க்கூடாது	-9.64469
▁உடை	-9.64492
▁உதவ	-9.64565
▁டிவி	-9.64584
▁நிகழ்வ	-9.64602
▁நாட்ட	-9.64615
▁மறுத்த	-9.64677
▁வசித்து	-9.64694
▁குல	-9.64695
▁வகித்த	-9.64704
ிறோம்	-9.64728
▁செல்	-9.64741
▁தொழில	-9.64747
▁இதய	-9.64816
▁அறிமுகப்படுத்த	-9.64847
▁இதற்கிடையே	-9.64923
▁ுகிறார்	-9.65016
▁தெற்கு	-9.65103
▁கட்டண	-9.65106
▁O	-9.65111
▁தொடர்புடைய	-9.65164
தில்லை	-9.6517
▁செய்துள்ளது	-9.65236
▁தான	-9.65328
▁அமைந்த	-9.65371
▁திருப்பதி	-9.65454
▁தள	-9.65483
▁இடங்களை	-9.65532
ஹ்	-9.65566
▁வீட்டை	-9.65595
▁கொன்ற	-9.65597
ன்னு	-9.65645
▁சொ	-9.6571
▁வருத்த	-9.65817
▁பாவ	-9.65872
▁சிரம	-9.65892
▁ஒப்பந்த	-9.65911
▁தொண்ட	-9.65929
▁கருத	-9.66015
▁ரெட்டி	-9.66099
▁வெள்ளை	-9.66158
en	-9.66174
▁விட்டனர்	-9.66232
▁சம்பவங்கள்	-9.66247
▁அதிர்ச்சியை	-9.66255
▁இருக்காது	-9.66262
▁நடைபெறுகிறது	-9.66302
▁கட்டு	-9.66349
▁நகர்ப்புற	-9.66479
▁உப	-9.66483
▁198	-9.6653
▁அறிவியல்	-9.66558
▁தோடு	-9.66656
▁யோகி	-9.66839
▁முடிந்து	-9.66931
▁உணவ	-9.66976
▁வெடி	-9.66994
▁தூண்ட	-9.6705
▁னை	-9.67051
▁நீதிபதிகள்	-9.67117
▁அதிகபட்ச	-9.67166
சார்	-9.67462
▁முடிவை	-9.67477
▁அமைச்சர	-9.67498
▁ஐரோப்ப	-9.67588
▁கில்	-9.67593
50	-9.67598
▁தூத்துக்குடி	-9.67606
▁தெ	-9.67634
க்குரிய	-9.67687
▁ஆகியவற்றை	-9.67702
▁சாய்	-9.67752
▁சிவசேனா	-9.67834
▁வெற்றியை	-9.6785
▁ஆடை	-9.67859
▁தயார்	-9.67879
▁தங்கம்	-9.67888
▁குழந்தைகளுக்கு	-9.67905
▁அடங்க	-9.68009
▁மீட்ட	-9.68013
▁அமைந்துள்ள	-9.68031
▁கனமழை	-9.68062
▁r	-9.6808
▁கணக்க	-9.68116
டே	-9.68191
▁படித்த	-9.68203
▁பாஸ்	-9.68221
re	-9.68227
▁சும	-9.68242
▁பில்லியன	-9.68291
▁அறிவிக்க	-9.68336
▁ராசிக்கு	-9.68388
f	-9.68393
▁விதிக்க	-9.68401
▁சட்டவிரோத	-9.6852
▁தடுத்த	-9.68604
▁பதிலடி	-9.68614
வாரி	-9.68696
▁செயலி	-9.68701
▁பிராந்திய	-9.6875
▁பேரில்	-9.68771
▁அறிந்த	-9.68798
▁பாக	-9.68853
ும்போது	-9.68863
▁சந்திப்பு	-9.68869
▁ஆதரவாளர்கள்	-9.6889
வார	-9.68943
▁கூறும்	-9.68965
▁ரொம்ப	-9.68981
ந்திர	-9.6902
▁கொள்ளலாம்	-9.69021
▁வார்டு	-9.69036
வாத	-9.69048
ேந்திர	-9.69062
யுள்ள	-9.69118
▁விலக	-9.69127
▁அன	-9.69282
▁H	-9.69287
▁வைத்திருந்த	-9.69396
▁ஆயிரக்கணக்கான	-9.69444
▁இடைக்கால	-9.69449
▁அணியின	-9.695
▁கீழ	-9.69558
▁வைக்கும்	-9.69579
▁குடும்பங்கள	-9.69667
▁பாத	-9.6974
▁பிரா	-9.6979
▁அமைத்து	-9.69804
▁கடமை	-9.69813
▁இலங்கைக்கு	-9.69913
▁கோவிலுக்கு	-9.69952
▁வழிபட்ட	-9.69968
▁ப்பட்டுள்ளது	-9.69992
▁மண்ண	-9.70002
▁அணு	-9.70016
▁வழியில்	-9.70033
▁போலி	-9.70072
▁டிரா	-9.70128
▁ாது	-9.70162
ாலே	-9.70184
▁தேவி	-9.70194
▁90	-9.70243
▁முடித்த	-9.70251
▁இருப்பதாகவும்	-9.70304
மலை	-9.70329
▁அலி	-9.70351
▁ஆன	-9.70363
▁விக்கெட்டுகளை	-9.70466
▁உலகக்	-9.70471
▁க்குள்	-9.70507
▁மட்டுமல்ல	-9.70552
▁அதிமுகவில	-9.70553
in	-9.70582
ஆ	-9.70731
▁அலங்கார	-9.70808
▁ிருப்பதாக	-9.70831
▁உற்சாக	-9.70843
▁உருவாக்கப்பட்ட	-9.70874
▁சொன்னார்	-9.70878
▁அலுவலர்	-9.7091
றிய	-9.70937
▁பொய்	-9.71049
▁சூப்பர்	-9.71085
▁இவ்வளவ	-9.71247
▁சவு	-9.71328
▁வன்	-9.71347
ெட்	-9.71404
▁போன்று	-9.71431
வல்	-9.71435
▁ராமர்	-9.71531
▁பேசுகையில்	-9.71551
▁அணிந்து	-9.71551
▁பிடி	-9.7157
▁முன்பே	-9.71598
▁நடை	-9.71695
த்ரா	-9.71725
▁லிங்க	-9.71749
▁சார்பாக	-9.71788
▁நிறைந்த	-9.71791
▁நானும்	-9.71809
தீ	-9.71875
சீ	-9.71879
▁பத்திரிகையாளர்	-9.71945
▁ஏற்ப	-9.71964
▁வார்	-9.72027
▁கும்ப	-9.72046
▁நடிப்ப	-9.72068
தினம்	-9.72092
▁சூழ்நிலை	-9.72119
▁செவ்வாய்	-9.72154
ளிப்ப	-9.72167
▁கட்டுமான	-9.72181
▁வேக	-9.72186
▁கூறியது	-9.72218
it	-9.7224
▁மகாராஷ்டிரா	-9.72278
▁காவிரி	-9.72305
▁சட்டத்தை	-9.7231
▁ராணி	-9.72354
▁பெட்டி	-9.72368
▁நடு	-9.72424
▁இதற்க	-9.72433
▁உடல	-9.72472
▁உறுதிப்படுத்த	-9.72478
▁கணவர	-9.7248
▁குற்றச்சாட்டுகள	-9.72531
▁காலநிலை	-9.72587
▁மேயர்	-9.7276
தாரர்	-9.72769
▁வாத	-9.7278
ாளி	-9.72811
ெண்	-9.72813
▁வரையில	-9.72851
ic	-9.72889
B	-9.7289
▁ஹிஜாப்	-9.72982
▁ஞான	-9.72983
▁சித்த	-9.73032
▁பாதிக்கப்பட	-9.73046
▁சந்திப்ப	-9.73093
▁வகையான	-9.73116
▁அழுத்தம்	-9.73172
▁விசேட	-9.73221
▁திரி	-9.73259
▁உண்மையில்	-9.73284
▁இறங்கி	-9.73386
▁அறிந்து	-9.73413
▁அதானி	-9.73463
▁வெட்டி	-9.73463
▁நெல்	-9.73481
▁அதிகாரம்	-9.73561
▁குடும்பத்தினர	-9.73577
ra	-9.73673
▁கட்டட	-9.73791
▁த்திற்க	-9.73792
ெடுத்த	-9.73798
▁குறிப்பிடப்பட்ட	-9.73811
▁முடிவ	-9.73867
▁காலங்களில	-9.73897
▁ங்களின்	-9.73946
▁ஒப்புதல்	-9.73962
மர்	-9.73962
▁வைத்திருக்க	-9.73995
▁உள்ளிட்டோர	-9.74029
▁ஆட்சியர்	-9.74119
▁வந்துள்ளது	-9.7413
▁குறிப்பிட்டுள்ள	-9.74148
.2	-9.74182
▁இக்	-9.74204
▁வது	-9.74209
▁பேட்டி	-9.74228
▁சம்ப	-9.74251
▁புள்ளி	-9.74417
▁ஜம்மு	-9.74435
▁மூளை	-9.74461
▁துறைமுக	-9.74466
▁கும்பாபிஷேகம்	-9.74471
▁நெல்லை	-9.74483
ண்டர்	-9.74499
▁கடந்து	-9.74502
▁நிலையை	-9.74509
தோற	-9.74551
▁குற்றவாளி	-9.74556
▁நேரங்களில	-9.74612
▁ஒலி	-9.74656
▁ஒளி	-9.74658
▁பரபரப்பு	-9.74667
▁தக்க	-9.74757
▁காட்டு	-9.74761
▁சகோதரர்	-9.74762
▁இறக்குமதி	-9.7492
▁உயர்த்த	-9.74952
▁இலக்கு	-9.74964
▁e	-9.75019
▁வேலைக்கு	-9.75116
▁இங்கிலாந்து	-9.75118
▁முன்னிலையில்	-9.75137
▁அட்டை	-9.75157
▁பிரச்சார	-9.75165
▁அஞ்ச	-9.75188
▁அறுவை	-9.75202
▁ஈடுபட்டனர்	-9.75217
▁வந்தால்	-9.75269
▁ஜீ	-9.75283
▁எதிர்க்கட்சிகள்	-9.75286
▁பக்தர்கள	-9.75316
▁யோடு	-9.75331
▁பஸ்	-9.75421
▁ிருக்கலாம்	-9.75497
நான்	-9.75536
தர	-9.75547
▁ஆணையர்	-9.7556
▁ஜான்	-9.75585
▁ஆவண	-9.75588
▁பாபு	-9.75605
▁அலுவலகம்	-9.75625
▁னும்	-9.75658
டைந்த	-9.75668
▁உத்தரவிட்ட	-9.75721
▁l	-9.75753
▁களத்தில்	-9.75823
▁லஞ்ச	-9.75874
▁எழுப்பி	-9.75891
த்துல	-9.75903
▁மர்ம	-9.75918
▁ஆட்ட	-9.75924
▁ுவார்கள்	-9.75928
▁சாத்திய	-9.7594
▁சார	-9.75952
▁..!	-9.76065
▁செய்திருந்த	-9.76074
▁வியாபார	-9.76098
▁செயல்பட்ட	-9.76317
கீழே	-9.76324
▁தளபதி	-9.76411
▁விளம்பர	-9.76426
▁கொள்ளை	-9.76427
▁விட்டதாக	-9.76477
▁பெண்கள	-9.76479
▁செய்யலாம்	-9.76548
▁முடித்து	-9.766
▁நவ	-9.76619
நாத	-9.76665
▁""	-9.76666
▁தாக்கிய	-9.76676
ொரு	-9.76746
▁வளாகத்தில	-9.76771
யெல்லாம்	-9.76784
▁அமைந்துள்ளது	-9.76817
▁கோயிலுக்கு	-9.76916
▁விமானம்	-9.76926
▁திருப்ப	-9.76964
▁பட்டியலில்	-9.76998
▁ராணுவம்	-9.77035
பேட்டை	-9.77057
ப்படுவதாக	-9.7709
▁கேரளா	-9.77102
▁சுப	-9.77133
▁இறக்க	-9.77163
▁கடற்படை	-9.77177
▁அக்னி	-9.77183
▁கைப்பற்ற	-9.77189
▁எட்டு	-9.77208
▁அவள	-9.77271
▁மன்ற	-9.77296
▁தலா	-9.77311
w	-9.77312
ந்தா	-9.77378
▁ராசிக்காரர்கள	-9.77399
▁வலம்	-9.77431
▁ஒருவரை	-9.77445
நாயக்க	-9.7746
▁பகுதியாக	-9.77561
ராய	-9.77606
▁மசூதி	-9.7765
▁யாத்திரை	-9.7765
தற்காக	-9.77657
▁எங்களை	-9.77707
▁ஆதரவ	-9.77739
▁மரணம்	-9.77748
கிர	-9.77773
▁கிள	-9.77885
▁மோசமாக	-9.77904
▁நடிக்க	-9.77936
▁நபர்கள்	-9.77937
▁மோகன்	-9.7799
▁ுவதை	-9.78016
▁நியாய	-9.78068
▁நிர	-9.78099
and	-9.78102
▁உத்தரப்பிரதேச	-9.78154
▁செய்வத	-9.782
▁தெரிந்த	-9.78202
▁ுதல்	-9.78209
▁உருவாக்கி	-9.78283
▁மீறி	-9.78307
▁நடைமுறைப்படுத்த	-9.78339
▁எவ்வாற	-9.78408
▁ஆலய	-9.78452
am	-9.78456
▁மறைந்த	-9.78574
▁சுர	-9.78591
▁ப்படுகின்றன	-9.78601
▁மந்திர	-9.78746
▁ிருப்ப	-9.78759
▁ஒப்பந்தம்	-9.78765
▁படங்கள்	-9.7884
▁பணியாற்றி	-9.78855
▁முதலமைச்சர	-9.78911
▁பாச	-9.78922
பூர்	-9.78933
▁செய்தால்	-9.79119
பவர்	-9.79148
▁அதிகரித்துள்ளது	-9.79214
▁பெற்றார்	-9.79232
▁எங்கு	-9.79291
▁செய்யப்பட்டார்	-9.79323
▁சிறிது	-9.79353
▁இன்ன	-9.79378
▁மீன	-9.79416
▁பரிந்துரை	-9.79442
▁நிமிடங்கள	-9.79482
▁அர	-9.79544
▁கனவு	-9.79549
▁விசா	-9.79554
▁ஆசிய	-9.79641
மூர்த்தி	-9.79643
▁எங்கே	-9.79682
▁பாட்டி	-9.79786
▁இந்தியாவை	-9.79799
▁ிருக்கின்றன	-9.79808
▁ஏக்கர	-9.79826
▁300	-9.79828
ந்தர்	-9.79831
▁சாக	-9.79893
▁தெரியாது	-9.79897
சூ	-9.79905
▁கொல்கத்தா	-9.79917
▁பன்	-9.7993
▁ஒற்றுமை	-9.7994
▁45	-9.79988
ென்	-9.79994
▁தும்	-9.80033
ூட்ட	-9.80062
▁நிகழ	-9.80077
▁அதிகரித்த	-9.80096
ாய	-9.80113
▁அரசை	-9.80144
▁வருவதாகவும்	-9.80191
▁சட்டப்பேரவை	-9.80198
▁தம்பி	-9.80216
▁பண்ணி	-9.80267
▁முனை	-9.80329
▁ஏக	-9.80338
▁யாதவ்	-9.80425
▁பலன்	-9.80436
▁உள்நாட்டு	-9.80456
▁டிஜிட்டல	-9.80456
▁உரையாற்ற	-9.80456
▁மறுக்க	-9.80509
▁இவருக்கு	-9.80511
▁பட்டி	-9.80582
▁இறுதியில்	-9.80686
▁அலுவலக	-9.80713
▁w	-9.80776
▁ஆஸ்திரேலிய	-9.8078
▁அரை	-9.80791
▁இப்	-9.80823
▁இயங்க	-9.80853
▁ஆழ	-9.80866
▁சிக்கல	-9.80933
▁அமித்	-9.80965
▁தற்காலிக	-9.80975
▁தலைநகர்	-9.80998
▁திரும்பிய	-9.81002
வார்	-9.81353
▁எனப்படும்	-9.81373
▁அணுக	-9.81379
▁வருகிற	-9.81387
▁அமைய	-9.81387
▁களுக்காக	-9.81396
▁தேர்தலுக்கு	-9.81454
ுவார்	-9.81472
▁W	-9.81482
▁அக	-9.81487
▁கண்டனம்	-9.81489
▁ஆயிரத்து	-9.81507
▁செயற்கை	-9.81512
▁மூர்த்தி	-9.81538
▁எழுப்பிய	-9.8159
▁ருக்கு	-9.81683
▁ஓட்டு	-9.81714
▁கவன	-9.81729
▁மம்தா	-9.81764
▁துணி	-9.8181
▁வெகு	-9.81819
▁நேரு	-9.81824
▁ஆங்கில	-9.81888
▁ஆய	-9.81906
▁கும்பல்	-9.82019
▁பண்டிகை	-9.82021
▁மட்டுமின்றி	-9.82021
▁கருத்தை	-9.82079
▁சபாநாயகர்	-9.82086
வாய	-9.8209
▁பெர்	-9.82098
▁இந்தி	-9.82164
▁நிலம்	-9.82199
▁ஒருமுறை	-9.82255
▁ஒருநாள்	-9.82285
▁இதனையடுத்து	-9.8229
▁ஒற்றை	-9.82336
▁பாதி	-9.82379
▁வீச	-9.82422
▁பேசும்	-9.82492
▁வீரர்கள	-9.82504
▁எடுக்கப்படும்	-9.82537
▁இடத்திற்கு	-9.82541
▁லோ	-9.82574
▁தில்லை	-9.82604
▁காட்டிய	-9.82612
▁தொழிலாளர்	-9.8264
▁தொண்டர்கள்	-9.82766
▁எதிர்கொண்ட	-9.82835
▁உயர்நீதிமன்ற	-9.82854
▁காட்சிகள்	-9.82862
▁நன்மை	-9.8295
▁திரை	-9.82959
▁அறிவித்துள்ளது	-9.82962
▁செய்தியாளர்களை	-9.83103
▁உளவு	-9.83104
▁போராட	-9.83168
▁பின்பு	-9.83186
▁கோல்	-9.83195
▁கொண்டிருந்தார்	-9.83242
▁மாநாட்டில்	-9.83261
▁திசை	-9.83326
▁விளங்க	-9.83348
▁வேண்டுமென்ற	-9.83354
▁கிடைக்கவில்லை	-9.83445
▁கன்னி	-9.83455
▁எம்எல்ஏ	-9.83465
▁நடப்பத	-9.83487
▁கூறப்பட்டுள்ளது	-9.83494
ட்ஸ்	-9.8352
▁வெளியேற	-9.8353
▁K	-9.83543
▁உருவாக்கிய	-9.83584
▁வட்டி	-9.83629
▁கவனிக்க	-9.83632
▁குழந்தைகளை	-9.83643
▁ஏற	-9.83715
▁ட்விட்டர	-9.83716
சேகர	-9.83732
▁பெற்றோர	-9.83768
▁தோனி	-9.83785
▁சென்	-9.83886
▁மக	-9.83888
▁சென்றது	-9.83898
▁வருவாய்	-9.83903
▁எக்ஸ்	-9.83907
▁பட்டியல்	-9.84006
▁திருட	-9.84038
▁2018	-9.84046
▁ஒழுங்கு	-9.84082
▁ுகிற	-9.84102
▁என்பதில்	-9.84199
▁குழந்தைகள	-9.84246
▁கஷ்ட	-9.84247
▁சத	-9.84364
▁வரவேற்பு	-9.84417
▁கன்	-9.8444
▁நிர்வாகி	-9.84472
▁எடுத்துச்	-9.84683
▁அமல்படுத்த	-9.84684
▁ுமா	-9.84687
▁ுகின்றன	-9.84696
▁வாய்ப்ப	-9.84718
▁என்பதுதான்	-9.84766
▁பிரிட்டன்	-9.84789
▁தாம்	-9.84798
▁பல்கலைக்கழகத்த	-9.84848
▁பெண்ணை	-9.84865
▁தாக்கி	-9.84868
▁மிகப்	-9.84883
▁புத்த	-9.8503
▁பெரிதாக	-9.85052
▁ிருந்தனர்	-9.85127
▁உண்மையான	-9.85132
▁பொதுமக்கள	-9.85133
▁பொதுச்செயலாளர்	-9.85166
▁சேத	-9.85219
▁எழுந்துள்ளது	-9.85222
▁அண்மைய	-9.85226
▁நிரந்தர	-9.85226
▁ஆபத்து	-9.85226
▁தொலை	-9.85248
▁கற	-9.85347
▁என்பவர	-9.85373
▁அதனால்தான்	-9.85394
▁சேர்ந்தவர்கள்	-9.85488
▁படுகொலை	-9.85497
▁செய்திகள்	-9.85508
▁காதல	-9.85533
▁ஃபி	-9.85535
▁புல	-9.85555
▁ராக	-9.85565
▁கோல	-9.85597
▁சாம்	-9.85664
▁i	-9.85731
▁தெரிவித்திருந்த	-9.85815
▁சன்	-9.8586
▁இவர்கள	-9.85863
on	-9.85903
▁கேள்விக்கு	-9.85912
▁காம	-9.85929
வான்	-9.85952
▁இரான	-9.8596
▁இள	-9.8596
▁ஓவரில	-9.85989
▁பின்ன	-9.86038
▁ஏனெனில்	-9.86043
▁உங்களை	-9.86079
▁அணியை	-9.86092
es	-9.86095
▁தெரிவித்துள்ள	-9.86101
▁உலா	-9.86111
▁விலகி	-9.86158
▁ீர்கள்	-9.86158
▁க்கூடாது	-9.8623
▁மீட்க	-9.86256
ad	-9.86296
ப்பட்டுள்ளன	-9.86305
▁வைத்தனர்	-9.86305
▁முதன்மை	-9.86333
சல்	-9.86333
▁கூறியிருந்தார்	-9.86428
▁குறைந்து	-9.8643
▁பணியை	-9.86442
▁சிக்க	-9.86496
▁எழுப்ப	-9.86497
▁தொழிலாளர்கள்	-9.86499
நாதன்	-9.8652
▁மார்	-9.86559
▁மாட்டார்கள்	-9.86574
▁இருந்தபோது	-9.86588
▁விடுதி	-9.86609
▁வெளியேற்ற	-9.86616
▁கனடா	-9.86631
▁பார்க்கும்	-9.86653
▁உயிர	-9.8671
களால்	-9.86732
▁சமயத்தில்	-9.86792
ப்பதற்கு	-9.86816
▁மட்ட	-9.86816
பீ	-9.86843
▁அமைச்சகம்	-9.86869
▁கலந்துரையாட	-9.8687
▁ஊடாக	-9.86875
▁ரயில	-9.86902
▁வெளியாகியுள்ளது	-9.86903
▁ஏதோ	-9.86914
▁ஆட்டம்	-9.86922
▁அஜித்	-9.86964
▁தோன்ற	-9.86995
▁உக்ரைன	-9.86997
▁காஷ்மீர்	-9.87067
▁காணப்பட்ட	-9.87069
▁ங்க	-9.8719
▁உச்சநீதிமன்ற	-9.87223
▁நிகழ்வில்	-9.8723
▁ஏறி	-9.87242
▁நிலைக்கு	-9.87251
▁திருப்பூர்	-9.87281
ஷ்ட	-9.87395
▁கடல	-9.87474
▁சிறுவர்	-9.87485
▁வர்களை	-9.87526
▁கேட்ப	-9.87532
▁கண்டறிய	-9.87609
▁நம்பி	-9.87638
▁குடும்பம்	-9.87665
▁குழுவினர்	-9.87667
▁போதுமான	-9.87682
▁கலாசார	-9.87698
▁கான	-9.87746
வன	-9.87777
▁பெண்களை	-9.87795
▁வட்டார	-9.87907
ொன்று	-9.87972
▁பருவ	-9.87979
▁நிகழ்ந்த	-9.87992
▁வேதனை	-9.88014
▁கருவி	-9.8803
▁பயணிகள	-9.88044
▁இழந்து	-9.88086
▁மாதங்களில்	-9.88143
▁பின்னணி	-9.88185
தெரிவித்துள்ளனர்	-9.88188
▁தாக்குதலை	-9.88243
▁ுபவர்கள	-9.8827
▁துணைத்	-9.88291
▁மண	-9.88298
▁சர	-9.88334
▁தரை	-9.88347
▁திரைப்படம்	-9.88371
▁பாம்பு	-9.88439
▁வாகனத்தில	-9.88474
▁யுக்ரேன	-9.88477
▁மல	-9.88482
▁கப்பல	-9.88524
▁அடுத்தடுத்து	-9.88547
▁தாக்கரே	-9.88565
▁பொருத்த	-9.88607
க்கால	-9.88654
▁அரப	-9.88654
▁பிரசார	-9.88667
▁தொகுதிகளில	-9.88694
▁வேண்டியது	-9.8874
▁ஆரோக்கிய	-9.88771
▁அதிலும்	-9.88819
▁வழிகாட்ட	-9.88822
▁வலியுறுத்த	-9.88831
▁முடியுமா	-9.88846
▁ஜெனரல்	-9.88862
▁சுரங்க	-9.88936
▁இறந்து	-9.88949
▁கடற்கரை	-9.88992
▁மீட்பு	-9.89003
▁ஆண	-9.89006
▁நேற்ற	-9.89024
▁மாட	-9.8908
▁நலன்	-9.89085
▁நிபுணர்	-9.89141
▁பிரிந்த	-9.89218
▁எட்ட	-9.89279
▁வேலையை	-9.89288
▁போலீசார	-9.89351
ெய்	-9.89354
▁உருவ	-9.89396
▁அமலாக்கத்துறை	-9.89398
▁பெற்றுக்	-9.89417
க்கல்	-9.89492
▁கொடுத்தார்	-9.89518
▁போன்றவை	-9.89583
▁ஏற்றி	-9.89604
▁வேண்டி	-9.89618
▁நிலவ	-9.89627
/	-9.89705
▁முன்வைத்த	-9.89789
▁சட்டமன்றத்	-9.89902
▁ுவதற்காக	-9.89927
▁கண்டறிந்த	-9.8995
தார	-9.89956
ுவார்கள்	-9.89986
▁வாக	-9.9001
▁விஷயங்களை	-9.9004
▁உறவினர்கள்	-9.90084
▁மூட	-9.90106
▁பெங்களூரு	-9.902
▁வெற்றிகரமா	-9.9021
ஸை	-9.90255
▁தீர்க்க	-9.9028
▁இதுதொடர்பாக	-9.90294
▁வரிசையில	-9.90424
▁மின்சாரம்	-9.90501
▁வழங்கினார்	-9.90552
▁நடத்தப்பட்டது	-9.90599
▁பெயர்ச்சி	-9.90629
ேஸ்வரர	-9.90661
▁லும்	-9.90751
▁எளித	-9.90768
▁வருவ	-9.90784
▁36	-9.90801
▁2016	-9.90806
▁நெடுஞ்சாலை	-9.90806
▁ஆகவே	-9.90937
▁வாழ்க்கையை	-9.90985
▁செல்போன்	-9.91125
▁மருத்துவக்	-9.91135
▁ஏழை	-9.91173
ன்ட்	-9.91203
▁செய்யவில்லை	-9.91308
▁அமைச்சின	-9.91345
▁மணியளவில்	-9.91381
▁சந்தோஷ	-9.91382
▁உணவுப்	-9.9139
▁பீட	-9.91409
▁ஆர்வம்	-9.91421
▁கொள்வது	-9.91428
▁வரவில்லை	-9.91437
▁தெரியாத	-9.91469
▁முடிக்க	-9.91469
▁போதை	-9.91502
▁விசாரித்து	-9.91541
▁மாணவிகள்	-9.91574
▁வாக்குறுதி	-9.91615
▁வழக்குகள்	-9.91619
▁லீ	-9.91667
▁வலியுறுத்திய	-9.91681
▁),	-9.9171
▁அளிக்கப்பட்ட	-9.91757
▁எழுந்தருளி	-9.91763
▁சோக	-9.91835
▁பிள்ளைகள	-9.91873
▁நாயக	-9.91902
▁இராஜாங்க	-9.9196
▁அவ்வளவு	-9.91965
பற்றி	-9.92019
ஹி	-9.92148
▁அழைப்ப	-9.92156
▁அறிவ	-9.92173
▁ஏரி	-9.92203
▁திருவண்ணாமலை	-9.92251
▁முன்னெடுக்க	-9.92255
▁அழைக்க	-9.92327
▁வைத்துக்	-9.92371
▁அறிக்கையை	-9.92414
▁எழ	-9.92464
▁த்தில	-9.9251
▁பொறுப்ப	-9.92623
▁தொடரும்	-9.92628
கார	-9.92703
▁பார்த்தால்	-9.92732
▁திட்டங்கள	-9.92735
▁செஸ்	-9.92739
▁இராணுவ	-9.92835
▁ஏனென்றால்	-9.92835
▁வெட்ட	-9.92884
▁மஞ்சள்	-9.92885
மொழி	-9.92897
▁என்பதற்காக	-9.92927
▁வழக்கமாக	-9.92966
▁பெற்றுள்ளது	-9.9299
▁அளித்து	-9.93039
ிட்டு	-9.9309
▁வெளியிட்டுள்ளது	-9.93093
ri	-9.93094
▁தமிழ்நாட்டின்	-9.93098
ro	-9.93103
▁37	-9.93103
▁வேண்டுமென	-9.93116
ப்போது	-9.93133
▁டீசல்	-9.93142
▁செல்லப்பட்ட	-9.9315
▁வருவதால்	-9.93157
▁மிக்க	-9.93194
▁காக்க	-9.93242
▁கருத்துகளை	-9.93251
▁செய்வதற்கு	-9.93282
ஸ்தா	-9.933
ிருக்கின்றனர்	-9.93334
▁எடுப்ப	-9.93356
▁கண்டுபிடித்த	-9.93426
▁விடுவ	-9.93432
▁சகோதரி	-9.93455
▁கிடந்த	-9.93523
பால	-9.936
▁உணர	-9.93672
▁அன்	-9.93698
▁நினைக்க	-9.93705
▁தேர்தல	-9.93726
G	-9.93793
▁சீனாவின	-9.93819
பால்	-9.93834
▁அம்மனுக்கு	-9.93865
▁ுவோம்	-9.93936
▁ஒத்துழைப்பு	-9.93953
▁குழப்ப	-9.93954
▁நாய்	-9.93962
பாஸ்	-9.93969
▁மயிலாடுதுறை	-9.94013
▁0	-9.94075
▁மட்டுமல்லாமல்	-9.94082
▁அளிக்கும்	-9.94085
▁அமர்ந்து	-9.94122
▁தொண்டர்கள	-9.94125
▁படகு	-9.9416
▁வீசி	-9.94256
▁டிரம்ப்	-9.94279
▁விஷயங்கள்	-9.94295
▁அதேநேரம்	-9.9431
▁தீபாராதனை	-9.9431
▁ரோஹித்	-9.944
▁இத்	-9.94412
க்கே	-9.94427
▁காத்திருந்த	-9.9444
▁சத்த	-9.94512
▁ஒதுக்க	-9.94516
ளித்த	-9.9452
▁போராடி	-9.94546
▁சுட்ட	-9.9455
▁ஜன	-9.94559
▁அதைப்	-9.94588
▁பாடசாலை	-9.94597
▁சுற்றுச்சூழல	-9.94607
▁V	-9.94615
▁தேர	-9.94636
▁தெரியுமா	-9.94639
▁ுங்கள்	-9.94648
▁வெளியிடப்பட்ட	-9.94683
க்கார	-9.94748
▁கொல்ல	-9.94792
ஃபி	-9.94834
▁பொற	-9.94911
▁அதன்பின்	-9.94915
▁மூன்றாம	-9.94925
▁போதிலும்	-9.94927
▁உலகள	-9.94945
▁செலவ	-9.94959
▁அதிமுகவின	-9.94968
▁கணக்கில்	-9.94974
▁ிருந்தால்	-9.95016
▁குழந்தையை	-9.95094
▁பலி	-9.95168
▁அமைப்புகள்	-9.95172
▁ஊராட்சி	-9.95216
▁நாடாளுமன்றத்	-9.95244
▁எளிதாக	-9.95257
▁எந்தவித	-9.95266
▁பிள்ளை	-9.95294
▁யானது	-9.95311
▁நண்பர்கள	-9.95342
▁அரசியலமைப்பு	-9.95345
வர்களுக்கு	-9.95371
▁கொடுப்ப	-9.95383
ாக்கி	-9.95398
மூ	-9.95431
▁பட்ஜெட்	-9.95483
▁பானர்ஜி	-9.95506
▁ட்வீட்	-9.95508
▁மஹிந்த	-9.95508
▁மாநாடு	-9.95531
▁முடக்க	-9.9554
காந்த	-9.95561
▁உட்பட்ட	-9.95583
▁பாலி	-9.95599
▁மாநாட்ட	-9.95601
▁காலகட்டத்தில்	-9.95624
▁லாப	-9.95644
▁n	-9.95658
▁தற்காக	-9.95702
▁நண்பர்கள்	-9.95714
▁சனிக்கிழமை	-9.95807
▁குடிநீர்	-9.95821
▁வட்ட	-9.95932
▁அமைதிய	-9.95968
▁நிவாரண	-9.95988
▁தன்மை	-9.9599
▁உணர்வு	-9.96048
▁பயங்கரவாத	-9.9606
டாக	-9.96086
▁ஆனா	-9.96102
▁சந்தேகம்	-9.96169
▁தாக்கத்தை	-9.96194
L	-9.96206
▁இணைக்க	-9.96238
▁எரிபொருள்	-9.96291
▁ஹரி	-9.96293
▁குஜராத்த	-9.96342
▁பிரச்னைகள்	-9.96379
▁பிரதி	-9.9638
ப்பில்	-9.96395
▁கற்ற	-9.96397
▁அதன்பிறகு	-9.96412
▁கன்னியாகுமரி	-9.96412
▁குறிப்பிட்டு	-9.96431
▁அவ்வாற	-9.96435
▁போரில்	-9.96454
▁ஆதரவாளர்கள	-9.96472
▁தீர்மான	-9.96479
▁போர	-9.9649
▁சிறப்பான	-9.96581
▁இருக்கின்றனர்	-9.96693
▁தூதரக	-9.96716
▁தொலைக்காட்சி	-9.96716
▁மன்னிப்பு	-9.96716
▁நாம	-9.96734
▁தண்ட	-9.9675
▁ஜூ	-9.96782
▁ஜப்பான்	-9.96825
▁நிபுணர்கள்	-9.96839
▁செய்வ	-9.96858
▁அமைச்சு	-9.96864
▁இருவர	-9.96866
▁பெரியார்	-9.9694
▁வேலைவாய்ப்பு	-9.96942
ராஜ	-9.96947
▁தாங்கள்	-9.96954
▁ரீ	-9.96963
▁இடங்கள்	-9.96969
▁நீலகிரி	-9.97023
லூர்	-9.97031
▁ராவ்	-9.97036
▁மக்களிடம	-9.97037
பிள்	-9.97039
▁சொல்வது	-9.97076
▁பலத்த	-9.97082
▁காத்திருக்க	-9.97093
▁வலிமை	-9.97125
▁ஆய்வாளர்	-9.97145
ஞ	-9.97158
▁போலீஸார	-9.97182
▁புரிய	-9.97207
▁குரல	-9.97232
▁வழிபட	-9.97242
▁பாய்	-9.9727
▁அமைப்பின	-9.97274
▁பாராட்டு	-9.97283
னியா	-9.97303
▁ஐபிஎல்	-9.97327
▁தொடர்பாளர	-9.97329
▁மற்றவர்கள	-9.97511
▁நட்பு	-9.97524
▁வாகனம்	-9.97564
▁ஞாயிற்றுக்கிழமை	-9.97633
▁நம்மை	-9.97638
▁எதிர்பார்ப்பு	-9.97649
▁வெளிப்படுத்த	-9.97655
▁g	-9.97671
▁கொடுக்கப்பட்ட	-9.97716
▁தொகையை	-9.97718
▁சோழ	-9.9773
▁காய்	-9.97837
▁நிலவி	-9.97871
▁பொறுப்பேற்ற	-9.97941
▁48	-9.97951
▁வெளிப்படையாக	-9.97985
▁தீவிரவாத	-9.97991
▁முடிவில்	-9.98041
▁தெரிவிக்கின்றன	-9.98044
▁களா	-9.98069
▁துவங்கி	-9.98085
▁பில்	-9.98086
▁மாறிய	-9.98158
▁வெள்ளிக்கிழமை	-9.9825
▁தொற்ற	-9.98291
▁யுக்ரேன்	-9.98315
▁உதவும்	-9.98327
▁தெரியாமல்	-9.9843
▁முற்றிலும	-9.98436
▁பென்	-9.98473
டெ	-9.98527
▁இம்ரான்	-9.98563
▁ஈரோடு	-9.98577
▁வீட்டின	-9.98579
▁சோனியா	-9.98581
▁அனைத்தையும	-9.98593
▁இயல	-9.98639
▁கொடூர	-9.98697
ிறேன்	-9.98701
▁தெரு	-9.98845
▁சாதகமாக	-9.9887
▁அறநிலையத்துறை	-9.98874
காரர்	-9.98881
▁தொலைவில்	-9.98922
▁மல்	-9.9893
▁பேட்டிங்	-9.9893
▁ுவதில்லை	-9.9897
▁பிரிவில	-9.99057
▁மாரியம்மன்	-9.99066
▁2017	-9.99076
▁செல்வது	-9.99134
▁தெலுங்கு	-9.99181
▁திருக்கல்யாண	-9.99181
▁படைத்த	-9.9922
▁கொள்வத	-9.99236
▁மதிப்பில	-9.99253
பாடு	-9.99255
▁தொடங்கினார்	-9.9934
▁பெரும்பான்மை	-9.99403
▁கூறப்பட்ட	-9.99405
▁கிளை	-9.99407
▁பார்த்துக்	-9.99425
▁பழக்க	-9.99466
▁தினசரி	-9.99494
த்துவ	-9.99549
▁வழங்கப்பட	-9.99581
▁விசாரணையை	-9.99589
▁அவுட்	-9.99608
▁தீர	-9.99672
▁குடியிருப்பு	-9.99674
▁பாரதிய	-9.99709
▁இந்துக்கள	-9.99726
▁தெலங்கானா	-9.99807
▁பாமக	-9.99814
▁ஆண்கள்	-9.99834
▁நிதிய	-9.99861
▁கழித்து	-9.99869
▁நே	-9.99874
▁ஏற்றுக்	-9.99885
▁கருப்ப	-9.99886
▁ஐடி	-9.9989
▁பொதுக்குழுவ	-9.9993
▁கைவிட	-9.99946
▁பதில	-9.99965
▁நடத்தும்	-9.99974
▁ஆண்டுக்கு	-9.99975
▁அழைத்த	-9.99979
வாசி	-9.99989
▁கண்காணிப்பு	-10.0003
▁கிரக	-10.0006
▁வண்டி	-10.0008
▁மீதும்	-10.0011
▁வேற	-10.0012
▁‛‛	-10.0012
▁ஏதேனும	-10.0012
▁ங்	-10.0013
னேன்	-10.0022
▁விதை	-10.0027
▁இருந்தும்	-10.0029
▁வேலைத்திட்ட	-10.0032
▁நிலையில்தான்	-10.0035
▁உடன	-10.0039
▁வான்	-10.0044
▁கூடுதலாக	-10.0044
▁லோக்சபா	-10.0044
▁வாடகை	-10.0044
▁ஷிண்டே	-10.0044
▁மீட்டு	-10.0044
▁கலவர	-10.0045
▁கவுன்சில	-10.0045
▁தலைவரும்	-10.0046
▁கண்டறியப்பட்ட	-10.0056
▁நிலவும்	-10.0058
▁விளை	-10.006
▁விட்டால்	-10.0061
▁பவுண்டரி	-10.0067
▁சூட	-10.0067
▁கிர	-10.0071
▁கோவா	-10.0072
▁எச்சரித்த	-10.0075
▁சமுதாய	-10.0075
▁ஏற்றுக்கொள்ள	-10.0076
▁h	-10.0082
▁பயணிக்க	-10.0083
▁பங்கேற்று	-10.0087
▁நபர்கள	-10.0091
▁திறந்த	-10.0092
▁ஆசி	-10.0096
▁காணி	-10.0098
▁சொல்லிய	-10.0099
வள	-10.0102
▁லட்சுமி	-10.0104
▁எதையும	-10.0104
▁ுவார்	-10.0107
▁ரஜினி	-10.0107
▁நிரப்ப	-10.0118
வேல்	-10.0121
▁ஸ்தான	-10.0122
▁என்பதையும்	-10.0123
▁களில	-10.0126
▁பிரச்சினைகள	-10.0136
▁சமயம்	-10.0139
▁மணிப்பூர்	-10.014
யார்	-10.0144
ol	-10.0145
▁நீள	-10.0145
▁பகுதிக்கு	-10.0147
▁நதி	-10.0158
.4	-10.0162
மற்ற	-10.0166
▁தங்களை	-10.0167
▁விழுப்புரம்	-10.0171
▁பெய்ய	-10.0172
ிருக்கிறார்கள்	-10.0173
பூர்வ	-10.0177
▁தவறாக	-10.0178
▁தயாரிப்பு	-10.0178
▁வருடம்	-10.0183
▁இதனைத்	-10.0187
▁பாஜகவை	-10.0193
▁கெட்ட	-10.0194
▁பொருள	-10.0197
▁இதைத்	-10.0202
▁தொலைபேசி	-10.0203
▁அயோத்தி	-10.0203
▁சிபிஐ	-10.0203
▁கிரா	-10.0203
▁தார	-10.0205
▁யோகம்	-10.0209
▁தியாக	-10.0211
▁திணைக்கள	-10.0214
ம்மா	-10.0225
மதி	-10.0227
▁U	-10.0227
▁மாடல்	-10.0228
▁குதிரை	-10.0235
▁கம்யூனிஸ்ட்	-10.0235
▁வெவ்வேற	-10.0236
▁விஷயத்தில	-10.0239
▁குற்றம்சாட்ட	-10.024
▁அழ	-10.0245
▁196	-10.0245
▁வாக்குகளை	-10.0245
▁டூ	-10.0247
▁நெருக்க	-10.0248
▁ஜெயக்குமார்	-10.025
▁f	-10.0252
ஸா	-10.0253
▁வெளியிட்டு	-10.0253
▁ுகிறோம்	-10.0254
▁கருதி	-10.0254
▁சான்றிதழ்	-10.0262
▁காயமடைந்த	-10.0262
▁மீள	-10.0263
▁உரையாட	-10.0268
▁சிந்தனை	-10.0271
▁ராஜபக்சே	-10.0272
▁நிர்வாகிகள	-10.0276
ப்பர்	-10.0282
▁கணவன்	-10.0283
▁விண்ணப்ப	-10.029
▁நிலையங்கள	-10.0293
▁வித்தியாசம	-10.0295
j	-10.03
▁இத்தனை	-10.03
▁கஞ்சா	-10.03
▁வணங்க	-10.0301
▁மோதல	-10.0306
▁முயற்சிகள்	-10.0308
▁வெளியானது	-10.0311
▁வசதிகள்	-10.0315
▁வந்துள்ளார்	-10.032
▁ஹை	-10.0321
▁மஹா	-10.0323
▁வரலாற்றில்	-10.0324
▁கும்பாபிஷேக	-10.0327
▁வேகத்தில	-10.0337
▁காரணம	-10.034
▁வத	-10.0344
▁திறக்க	-10.0346
▁அமையும்	-10.0348
▁நடத்தப்படும்	-10.0348
▁யோக	-10.0353
▁சொல்லும்	-10.0355
▁2014	-10.0355
▁பணிப்பாளர்	-10.0356
▁கூறியுள்ளது	-10.0362
▁தாங்க	-10.0362
ாராம்	-10.0363
▁பறிமுதல்	-10.0365
▁லட்சத்து	-10.0368
▁ஆட்டத்தில	-10.037
▁மாட்டேன்	-10.0372
▁33	-10.0372
▁உடலில	-10.0372
படுத்த	-10.0373
▁பிரதேசம்	-10.0378
▁கிடைக்காத	-10.0378
▁காரிய	-10.0378
▁ுவதில்	-10.0379
▁ஸ்டார்	-10.0383
▁ுள்ளோம்	-10.0406
ரத்ன	-10.0415
தோடு	-10.0428
▁டிக்கெட்	-10.0429
▁2015	-10.043
▁புரட்சி	-10.043
▁கொடுமை	-10.043
▁ஊடகங்களில	-10.0431
▁கலந்துரையாடல	-10.0435
▁ரசிகர்கள	-10.0439
▁மாற்றங்கள்	-10.0441
▁நீக்கப்பட்ட	-10.0444
▁இருந்தே	-10.0446
▁மாறாக	-10.0447
▁செயலாளராக	-10.0448
F	-10.0448
▁பசு	-10.0449
▁பலருக்கு	-10.0451
▁நர	-10.046
▁அற	-10.0463
▁நடித்து	-10.0468
▁வீடுகள்	-10.0468
ோர	-10.0473
த்தக்க	-10.0482
▁மாதங்கள்	-10.0482
▁கிராமத்தை	-10.0485
▁சுப்பிரமணிய	-10.0485
▁ஏதும	-10.0495
▁ராஜபக்ஷ	-10.0496
▁வண்ண	-10.0496
▁தேவையில்லை	-10.0496
▁v	-10.05
▁விளைவ	-10.0501
▁வரப்பட்ட	-10.0505
▁போகிறது	-10.0505
த்தர	-10.0505
▁(0	-10.0512
▁எடுக்கும்	-10.0513
▁போக்க	-10.0516
▁இன்றி	-10.0518
▁நிறுவனத்த	-10.052
▁காற்று	-10.0526
▁வைத்திய	-10.0531
▁அஸ்வின	-10.0536
▁போக்கு	-10.0548
▁ஏற்பட்டுள்ள	-10.0549
▁கட்சியினர்	-10.0557
ப்படுகின்றன	-10.0564
முக	-10.0566
▁உதய	-10.057
ரெ	-10.0574
▁பகிர்ந்த	-10.0587
▁ஆக்க	-10.0596
▁யோசனை	-10.0596
▁மீற	-10.0603
ce	-10.0613
▁ஆதரவை	-10.0615
பட்டி	-10.0616
▁d	-10.0617
▁நடந்துள்ளது	-10.0619
▁புகுந்த	-10.063
▁இடம்பெற	-10.063
லிங்க	-10.0631
ோட்ட	-10.0634
▁நாராயண	-10.0639
மெ	-10.0641
▁விழாவை	-10.0642
▁யாகும்	-10.0645
ரங்க	-10.0647
உ	-10.0648
▁ஆல்	-10.0649
▁நிறுத்தப்பட்ட	-10.0651
▁சந்தித்தார்	-10.0653
▁தருண	-10.0655
▁இறங்க	-10.0657
▁பிரதமராக	-10.0658
▁தங்கி	-10.0658
▁அனுப்பப்பட்ட	-10.067
▁ஷெ	-10.0674
▁பயணத்தை	-10.0676
▁ஆந்திரா	-10.0677
▁கண	-10.068
ஸ்டர்	-10.0682
▁இணையத்தில	-10.0696
மின்றி	-10.0709
▁வெளியில	-10.071
போன	-10.0713
▁அதிமுகவ	-10.0716
▁கைதிகள	-10.072
▁கையெழுத்த	-10.0722
▁ஸ்டா	-10.073
▁சர்க்கரை	-10.0731
▁விவசாயிகள	-10.0732
▁விரோத	-10.0733
ுடனான	-10.0735
▁வேலூர்	-10.0736
▁ள்ளது	-10.0737
▁புகைப்படங்கள	-10.0746
▁குடும்பத்தை	-10.0749
▁அப்பாவ	-10.0751
▁உன்ன	-10.0752
ுவேன்	-10.0752
▁ின்றன	-10.0753
ion	-10.0756
▁வேளாண்	-10.0759
▁பன்னீர்செல்வம்	-10.0759
▁வேத	-10.076
▁மதம்	-10.076
▁ஆஸ்திரேலியா	-10.0762
▁மலர்	-10.0762
த்தன்மை	-10.0767
▁அழிக்க	-10.0769
▁சாட்ட	-10.0769
▁ஜோடி	-10.0771
▁எதிர்கால	-10.0773
ாளர்கள்	-10.0777
▁கர்ப்ப	-10.0777
▁நோக்கம்	-10.0779
▁நெருங்கி	-10.0784
▁நிறுவ	-10.0784
▁திறமை	-10.0785
▁ஆரம்பிக்க	-10.0788
▁தாமத	-10.0789
▁பாலின	-10.0792
▁பொருளாதாரம்	-10.0795
▁வாகனங்கள்	-10.0808
▁அண்ணன்	-10.081
▁சுக	-10.0812
ென்று	-10.0815
▁முகம்	-10.0817
▁இரான்	-10.0818
▁நாடாளுமன்றத்தில	-10.0823
வரி	-10.0827
▁மொபைல	-10.0832
▁அவருடன்	-10.0835
▁ுவதாக	-10.0839
பெற்ற	-10.0839
▁சம்பள	-10.084
▁பேரணி	-10.0845
▁சூர	-10.0849
▁நேரடி	-10.085
▁இழப்பு	-10.0858
▁ராவ	-10.0863
▁தகவலை	-10.0864
▁செய்தித்	-10.0865
▁வருடங்கள	-10.0866
▁அமாவாசை	-10.0867
▁வரவேற்ற	-10.0867
▁விவாதிக்க	-10.087
▁புயல்	-10.0871
▁சேனல	-10.0873
▁தொட்ட	-10.0882
▁தளம்	-10.0883
▁திருவ	-10.0886
▁எதிர்காலத்தில	-10.0893
▁அளித்தார்	-10.0894
ுவதற்காக	-10.0896
▁அச்சுறுத்தல	-10.0919
▁காயம்	-10.0925
▁விழுந்து	-10.0925
▁ஆலை	-10.0925
▁பின்னால	-10.0926
▁வரவேற்க	-10.0935
st	-10.0938
▁அன்ன	-10.0941
▁வளர்க்க	-10.0941
▁சங்கர	-10.0942
▁ராய்	-10.0944
▁குறைய	-10.0945
▁மனதில	-10.0948
▁செல்வம்	-10.0962
▁களைப்	-10.0966
▁பிரிட்டிஷ்	-10.097
▁ஹைதராபாத்	-10.097
▁அதிகாரப்பூர்வ	-10.097
▁ஆபாச	-10.097
▁சம்பளம்	-10.097
▁பிரியங்கா	-10.0971
▁தொடரில	-10.0972
யோடு	-10.0978
▁கவு	-10.0981
▁அமல	-10.0991
▁ஓவர	-10.0991
▁வீண	-10.0996
▁ராசியில	-10.0998
▁பட்டு	-10.1004
▁திருநெல்வேலி	-10.1005
▁விக்ரம	-10.1005
▁பாதிப்பை	-10.1006
▁லால்	-10.1009
வித	-10.1013
ிரு	-10.1013
த்திலேயே	-10.102
▁குற்றங்கள	-10.1024
▁பந்துகளில	-10.1027
H	-10.1028
▁கண்டன	-10.1029
▁காணப்படும்	-10.1031
▁உழைப்ப	-10.104
▁நாளிதழ	-10.104
ப்படவில்லை	-10.1044
▁சக்கர	-10.105
வந்த	-10.1051
▁பேட்	-10.1057
▁ஆச்சரிய	-10.1075
▁சஞ்சய	-10.1075
▁நிலங்கள	-10.1075
▁சமூகத்தை	-10.1076
▁த்திற்காக	-10.1078
▁அறிவித்தார்	-10.1081
▁சிந்த	-10.1081
▁விவகாரங்கள	-10.1084
▁குழுக்கள	-10.1087
▁லாரி	-10.1088
▁அலுவலகத்த	-10.109
▁கண்டிப்ப	-10.1091
▁பாதிப்ப	-10.1092
ட்டம்	-10.1093
▁களைக்	-10.1096
▁ஆந்திர	-10.1097
▁பைடன்	-10.1099
▁உங்க	-10.1105
▁ஆபத்தான	-10.111
▁கொண்டாட்ட	-10.1111
▁நீடித்த	-10.1111
மென்ட்	-10.1111
▁உறுப்பு	-10.1112
▁அக்கட்சி	-10.1114
▁மார்க்	-10.1116
▁பணியாளர்கள்	-10.1117
▁கொண்டுள்ளது	-10.113
▁தனித்து	-10.1132
▁கழி	-10.1132
▁படிப்ப	-10.1142
▁சராசரி	-10.1145
▁இல்லையா	-10.1147
▁ஊழியர்கள	-10.1151
நி	-10.1153
▁சுத்தம	-10.1161
▁இப்ப	-10.1163
▁டில்	-10.1166
ct	-10.1166
▁ஜோதி	-10.117
▁இன்றும்	-10.1171
▁விரி	-10.1172
▁குழுவின	-10.1173
▁ஒன்பத	-10.1176
▁டிர	-10.1177
▁சமேத	-10.118
▁சௌ	-10.1181
▁தவிர்த்து	-10.1183
▁திட்டமிட்டு	-10.1186
பார்	-10.1187
▁ஆட்டோ	-10.119
ஓ	-10.1205
▁பரி	-10.1206
▁மனம்	-10.121
▁மாநகர	-10.1213
▁மணிநேர	-10.1216
▁காஞ்சிபுரம்	-10.1216
▁பச்சை	-10.1216
▁முடிகிறது	-10.1218
▁கொள்கிறேன்	-10.1218
▁சித்திரை	-10.1219
▁மெல்ல	-10.122
▁செய்கிறார்	-10.1222
▁ணும்	-10.1224
▁ஒருவருக்கு	-10.1228
▁பனி	-10.123
▁நடந்தன	-10.1234
▁மேலே	-10.1235
▁வந்தாலும்	-10.1235
▁இருந்ததால்	-10.1235
▁புலி	-10.1235
▁ஒதுக்கப்பட்ட	-10.1236
க்கொண்டே	-10.1247
▁தவ	-10.1247
▁ஏற்பாடுகள்	-10.1251
▁பாலஸ்தீன	-10.1251
▁காரை	-10.1253
▁ராஜேந்திர	-10.1254
▁தஞ்சாவூர்	-10.1259
▁இருந்தவர்	-10.1262
▁கூடும்	-10.1269
▁பிரசாரம்	-10.127
மூலம்	-10.1272
▁கவனமாக	-10.1274
▁போராட்டத்தை	-10.1276
▁அதிகாரிகளுக்கு	-10.1277
▁ஆணையத்த	-10.1278
கிறேன்	-10.1279
▁அன்பு	-10.1282
▁போட்டோ	-10.1283
▁ிறார்கள்	-10.1283
▁மாதங்களாக	-10.1287
▁ஷேக்	-10.1288
▁இருப்பவர்கள	-10.1291
▁காசி	-10.1301
▁மைதான	-10.1303
செய்ய	-10.1303
ாவிய	-10.1306
ரவி	-10.1309
▁பறவை	-10.1323
▁னாலும்	-10.1325
யினர்	-10.1329
தாவது	-10.133
▁32	-10.1331
▁நினைவ	-10.1332
▁400	-10.1333
▁கேஸ்	-10.1334
ுக்கே	-10.1342
▁பகவான	-10.1345
யுத்த	-10.1347
▁சிதம்பரம்	-10.135
▁பாரத்	-10.1356
▁விரைந்து	-10.1357
▁சூர்யா	-10.1359
▁விநியோக	-10.1361
▁சந்திப்பில்	-10.1363
▁தொடக்கத்தில்	-10.1367
▁இழுத்து	-10.1367
▁ஹிந்து	-10.1367
▁அறிவிப்ப	-10.137
▁செய்ததாக	-10.1371
▁செல்வாக்கு	-10.1376
▁முறைகேடு	-10.1378
▁பாடி	-10.1379
▁ிறார்	-10.1382
▁சிறுவன	-10.1385
▁யுள்ளார்	-10.1386
▁புதின்	-10.1388
▁விமர்சித்து	-10.1389
▁தாக்கம்	-10.1389
▁இரவில்	-10.139
▁பதவிக்கு	-10.1391
▁அளவிற்க	-10.1395
▁சங்கத்தின	-10.1396
▁பூர்த்தி	-10.1398
▁ள்ளார்	-10.1398
▁வீடியோவை	-10.14
ளவு	-10.1405
▁நட	-10.1406
▁முட்டை	-10.1412
▁காதலி	-10.1418
▁கொட	-10.1421
ின்றி	-10.1421
▁ராஜீவ்	-10.1431
▁அன்றைய	-10.1431
▁தைவான	-10.1434
▁பசுமை	-10.1437
▁என்னென்ன	-10.1439
▁இந்திரா	-10.1442
▁அமர்ந்த	-10.1443
▁வகுப்ப	-10.1444
▁இருக்கிறோம்	-10.1446
▁சதி	-10.1447
னீ	-10.145
▁மூலவர	-10.145
▁பட்டியல	-10.1453
▁ஊழியர்	-10.1454
▁ஆகி	-10.1456
▁வெளியேறி	-10.1457
▁களோடு	-10.146
▁ிறோம்	-10.1462
▁இதேபோல்	-10.1465
▁சமர்ப்பிக்க	-10.1467
▁துன்புறுத்த	-10.1467
▁வாக்களிக்க	-10.1468
▁சந்திரசேகர	-10.1469
▁பதிவாகி	-10.1469
▁பகுதிகளை	-10.147
▁விவரங்களை	-10.1471
▁சிவன்	-10.1472
▁காவல	-10.148
▁ஆதாரங்கள	-10.1484
▁அடை	-10.1485
▁தெய்வ	-10.1486
▁செயலக	-10.149
வியல்	-10.1496
▁அரசுப்	-10.1496
▁தெளிவ	-10.1499
▁விதம	-10.1499
▁பலவீன	-10.1504
▁பறந்த	-10.1505
▁கட்டுப்பாட்டில்	-10.1508
▁வளர்ந்த	-10.1511
▁மீட்கப்பட்ட	-10.1512
ாலய	-10.1518
▁முழுமைய	-10.152
▁கந்த	-10.1526
▁குறைந்தது	-10.1527
▁காணொளி	-10.1541
▁பதவியேற்ற	-10.1541
▁அரசியல்வாதி	-10.1541
▁தினேஷ்	-10.1546
▁பயணித்த	-10.1546
▁விருதுநகர்	-10.1547
▁விரும்பவில்லை	-10.1551
▁கேமரா	-10.1552
▁யினர	-10.1558
▁பேட்டியில்	-10.1562
▁கோஷ	-10.1562
▁இயக்குநர	-10.1568
▁இம்	-10.1573
▁நீதிமன்றத்த	-10.1573
▁வாரிய	-10.1574
க்கர்	-10.1575
▁நள்ளிரவ	-10.1577
▁சிஎஸ்கே	-10.1577
▁விழிப்புணர்வு	-10.1577
▁தென்காசி	-10.1579
▁அறிமுகம்	-10.1579
▁மான்	-10.158
▁சுதந்திரம்	-10.1584
▁பொன்ன	-10.1588
▁உத்தரவை	-10.1592
▁நியமனம்	-10.1593
▁வைக்கப்பட்டுள்ள	-10.1598
▁சூரியன்	-10.16
▁படையினர்	-10.16
▁மசோதா	-10.1601
▁நிறைவேற்றப்பட்ட	-10.1603
யொட்டி	-10.1603
ிருப்பதாக	-10.1604
▁முயற்சிகளை	-10.1612
▁வாச	-10.1614
▁ஆரம்பித்து	-10.1619
▁கருதப்படுகிறது	-10.1619
▁மண்டபத்தில	-10.162
▁ஒட்ட	-10.1621
▁மாட்டோம்	-10.1621
▁நன்க	-10.1621
▁நெட்டிசன்கள்	-10.1624
▁சாலையில	-10.1625
▁அலங்காரம்	-10.1627
▁இயக்கம்	-10.1627
▁தாக்குதலில	-10.1629
▁முக்கியம்	-10.1646
▁மட்டும்தான்	-10.1647
▁டிகிரி	-10.1657
▁காப்பு	-10.1661
புரி	-10.1665
▁உரிமைகள்	-10.1667
▁லாபம்	-10.1667
▁மிரட்டல்	-10.1671
▁சடல	-10.168
▁விவசாயி	-10.1688
▁கண்ணாடி	-10.1689
▁குறைபாடு	-10.1689
▁நீடிக்க	-10.169
▁அமித்ஷா	-10.1691
▁வீழ்ச்சி	-10.1702
▁நாட்டிற்கு	-10.1702
▁அவர்களிடம	-10.1702
▁மய	-10.1708
▁கண்டித்து	-10.1708
▁தேர்வில்	-10.171
புர	-10.171
▁கட்டாயம்	-10.1714
▁விடாமல்	-10.1715
▁கிரகங்கள	-10.1716
ur	-10.1716
▁அவற்ற	-10.1718
▁நாட்கள	-10.1719
▁கவுன்சிலர்	-10.1724
▁வழக்குப்பதிவு	-10.1726
▁சீமான்	-10.1727
▁மானிய	-10.1728
▁நூற	-10.173
▁சத்ய	-10.1733
▁பொருளாதாரத்தை	-10.1735
▁அகில	-10.174
▁கைப்பற்றி	-10.1743
▁விலங்குகள	-10.1744
▁வலைதள	-10.1748
▁போராட்டங்கள	-10.175
▁வாய்ப்பை	-10.1754
▁இடங்களிலும்	-10.1754
▁கொட்ட	-10.1759
▁ுகின்ற	-10.1761
▁தகவல	-10.1762
▁அரவிந்த்	-10.1763
▁ஊதிய	-10.1763
▁ஆசிரியர்கள்	-10.1766
▁சுரேஷ்	-10.1768
▁அமர்வு	-10.1773
▁ஆய்வாளர்கள்	-10.1775
ீஸ்வரர்	-10.1775
▁இதன்போது	-10.1776
▁கவனித்து	-10.1779
▁விலக்கு	-10.1783
▁பாதிக்க	-10.1787
வாறு	-10.179
பாளையம்	-10.1795
▁நு	-10.1796
▁செல்போன	-10.1797
▁பதற்றம்	-10.1798
▁சீட்	-10.1799
▁தாயார்	-10.18
▁நேபாள	-10.1801
▁திட்டத்தில	-10.1804
▁வேட்பாளர்கள்	-10.1805
▁இஸ்ரேலிய	-10.1805
▁2-	-10.1807
▁கற்றுக்	-10.1809
▁அரசியல	-10.1811
▁உதாரணமாக	-10.1813
▁ஓவர்	-10.1813
▁கல்ல	-10.1816
▁குற்றச்சாட்ட	-10.1818
▁பிளா	-10.1821
▁நாடாக	-10.1824
▁ஒட்டி	-10.1829
▁உற்சவ	-10.1834
▁ஈர	-10.1837
மீட்டர்	-10.1837
▁ஹோமம்	-10.1837
▁ஊக்க	-10.1838
கான்	-10.1838
▁நிரூபிக்க	-10.1839
▁கோவிட்	-10.1839
ஆவத	-10.184
▁தொழிலாளர்கள	-10.1841
▁நடத்தினார்	-10.1843
▁வலு	-10.1846
▁காற்ற	-10.1849
▁நாளாக	-10.1852
▁ஜாமீன்	-10.1853
ுள்ளோம்	-10.1858
▁பட்டா	-10.1861
▁அந்நாட்டு	-10.1863
▁தளத்தில்	-10.1869
▁பணியாற்றிய	-10.1869
▁உத்தவ்	-10.1876
▁குவிந்த	-10.1878
▁அழைக்கப்பட	-10.1881
▁யாளர	-10.1882
ீங்க	-10.189
▁பாடல	-10.1894
▁கோடை	-10.1898
▁தீவ	-10.1904
▁கொஞ்ச	-10.1904
▁மாறியது	-10.1904
▁பணிக்கு	-10.1905
▁கொண்டிருக்க	-10.1906
▁க்கள்	-10.1907
▁நாடக	-10.1908
▁வென்று	-10.1912
▁குறைவு	-10.1912
▁இந்தியர்கள்	-10.1914
▁ஜெயலலிதாவ	-10.1915
▁கணபதி	-10.1916
தெல்லாம்	-10.1918
▁உடல்நிலை	-10.1922
▁பிரிவ	-10.1927
▁சூடு	-10.1931
▁மோடியை	-10.1935
▁களிலிருந்து	-10.1935
▁சூழ்நிலையில்	-10.1938
▁சதுர	-10.1938
ேரி	-10.1938
▁இணைப்பு	-10.1945
▁மேலதிக	-10.1953
▁குவித்த	-10.1955
▁ஆனந்த	-10.1956
▁கர்நாடகாவில்	-10.1961
▁150	-10.1963
▁ரீதியா	-10.1964
▁செலுத்திய	-10.1965
கிரி	-10.1965
▁வீட	-10.1966
▁குமர	-10.1969
▁அரி	-10.1973
▁வலுப்படுத்த	-10.1976
▁நிதிஷ்	-10.1976
ுகிற	-10.1977
▁பெரித	-10.198
el	-10.1981
▁ரங்க	-10.1988
▁மீன்பிடி	-10.1991
▁நிச்சயம	-10.1991
▁காய்ச்சல்	-10.1991
▁பிரிவினர	-10.1992
▁பழநி	-10.1992
▁கட்டாய	-10.1993
▁பழமையான	-10.1994
▁அடைத்த	-10.1996
▁பொன்	-10.1996
▁சொல்கிறார்	-10.1997
▁குளிர	-10.1997
▁நெய்	-10.2003
▁55	-10.2004
▁ிருப்பார்	-10.2006
விராட்	-10.2009
▁என்பதும்	-10.2009
▁அசோக்	-10.201
▁தொடங்கும்	-10.2012
▁கடத்தல்	-10.2012
▁செயலாளர்கள்	-10.2013
▁உத	-10.2014
▁வலை	-10.2014
▁பட்சத்தில்	-10.203
▁மடங்கு	-10.203
ation	-10.203
▁ஆண்டுகளுக்குப்	-10.2031
யளிக்க	-10.2032
▁தீர்மானிக்க	-10.2033
▁பேசியது	-10.2034
▁ing	-10.2037
▁பதிவிட்டுள்ளார்	-10.204
▁நடத்துவத	-10.204
▁நாயகம்	-10.205
▁சங்கம்	-10.2052
ராஜா	-10.2053
▁குறு	-10.2063
▁பாதையில்	-10.2064
▁ஓவர்களில	-10.2065
▁of	-10.2069
▁படிப்பு	-10.207
▁இருவருக்கும	-10.2073
▁கமிட்டி	-10.2075
▁பூச	-10.2076
▁கொள்ளுங்கள்	-10.208
▁பயன்படுத்திய	-10.208
▁செய்	-10.2081
▁புகைப்படம்	-10.2082
வச	-10.2084
▁நெருங்க	-10.2084
▁ிட	-10.2084
▁எழுந்தது	-10.2087
▁விமர்ச	-10.2088
▁சிறுவன்	-10.2089
▁பிரேம	-10.2093
▁நிகழ்ச்சிகள்	-10.2094
▁மிகக்	-10.2095
▁நாத	-10.2102
▁சுட	-10.2106
▁குண்ட	-10.2106
▁நாடுகளை	-10.2106
▁நாயுடு	-10.2107
▁நிர்மலா	-10.2107
▁முதற்கட்ட	-10.2107
▁பாராட்ட	-10.2109
▁கேட்டார்	-10.2109
▁உணர்வ	-10.2111
▁அடைந்து	-10.2113
▁to	-10.2133
▁ுள்ள	-10.2134
▁கட்டுப்பாடு	-10.2134
▁பிரசாத்	-10.2136
▁சந்தன	-10.2141
▁நாடுகளின	-10.2143
▁உலகக்கோப்பை	-10.2146
▁சைக்கிள	-10.2146
ஞ்	-10.2149
▁கோபி	-10.215
▁வரிசை	-10.2155
▁தட்டி	-10.2158
▁எதிர	-10.216
▁விவசாயம்	-10.2164
நகர்	-10.2168
▁ரீதியில்	-10.2173
▁இஸ்லாமியர்கள	-10.2179
▁செய்வதாக	-10.2181
▁ஜெய்	-10.2181
ீர்களா	-10.2184
▁இடைவெளி	-10.2185
▁ஓய்வூதிய	-10.2185
▁தள்ளுபடி	-10.2185
▁ஊடகங்கள்	-10.2187
▁பிரமுகர	-10.2187
▁மனநிலை	-10.2192
▁இருக்கிறதா	-10.2196
▁துவங்க	-10.2198
▁கைப்பற்றிய	-10.2199
▁வழங்கப்பட்டுள்ள	-10.22
▁விலையை	-10.2203
▁கோபுர	-10.2204
▁இங்க	-10.2204
மர	-10.2205
▁ப்பட்டுள்ள	-10.2212
▁அனுபவம்	-10.2215
▁பதிவிட்ட	-10.2221
▁தலைமுறை	-10.2221
யென்றால்	-10.2224
▁பேசினோம்	-10.2224
▁கிடைப்பத	-10.2228
▁சாப்பிட்ட	-10.2232
▁திறக்கப்பட்ட	-10.2233
▁த்தோட	-10.2234
▁195	-10.2235
▁ஏன	-10.2236
▁பின்னணியில்	-10.2238
▁க்குப்	-10.2249
▁அழுத	-10.2249
▁னார்கள்	-10.2258
▁சரத்	-10.2259
க்கூடும்	-10.226
▁முறையை	-10.2262
▁அறக்கட்டளை	-10.2263
▁பற்றாக்குறை	-10.2263
▁புதுக்கோட்டை	-10.2264
▁கூட்டமைப்ப	-10.2264
▁திரள	-10.2265
▁குட்டி	-10.2269
▁செயல்படும்	-10.2269
▁பிரசாத	-10.227
▁திரட்ட	-10.2277
▁மாற்றப்பட்ட	-10.2278
▁மேஷ	-10.2278
க்கடை	-10.2279
▁வாழ்க்கையில	-10.2288
▁வீடுகளில	-10.229
▁ாங்க	-10.23
▁சவால்	-10.23
லால்	-10.2302
▁ராமநாதபுரம்	-10.2303
சிங்க	-10.2303
▁வாக்க	-10.2311
▁வைரலாகி	-10.2314
▁ின்றனர்	-10.232
▁அதன	-10.232
கூறியிருக்கிறார்	-10.2324
▁வைத்தது	-10.2324
▁மைதானத்தில	-10.2325
▁மாற்றிய	-10.2325
▁பகுதிகள்	-10.2329
▁யுள்ள	-10.233
▁கிடக்க	-10.2335
▁க்கூட	-10.2337
▁மாணவர்களை	-10.2342
▁ஷர்மா	-10.2343
▁வரவு	-10.2343
▁ஆனந்த்	-10.2344
▁கடன	-10.2353
▁செயற்	-10.2364
▁இடத்துக்கு	-10.2365
▁அறிவித்தது	-10.2369
▁நண்பர்	-10.2369
த்திற்காக	-10.2373
▁அலங்காரத்தில	-10.2375
▁பலமுறை	-10.2376
▁உடல்நல	-10.2382
▁இலட்ச	-10.2382
▁பொருந்த	-10.2383
▁கூறப்பட்டது	-10.2383
▁முன்னெடுத்த	-10.2384
▁தொட	-10.2388
பொ	-10.239
▁புற்றுநோய்	-10.239
▁முத்த	-10.2394
▁தள்ள	-10.2395
▁ரெண்ட	-10.2398
▁வீரர்களை	-10.24
▁அமைப்பை	-10.2401
▁ஓபிஎஸ்ஸ	-10.2405
▁மாசி	-10.241
▁வனத்துறை	-10.2415
▁கடத்த	-10.2416
▁எதிரி	-10.2418
V	-10.2421
ீஸ்	-10.2424
▁வெப்பநிலை	-10.2424
▁கடவுள்	-10.2426
போதும்	-10.2427
▁கேட்டபோது	-10.2431
ணும்	-10.2431
யிட்ட	-10.2435
▁போகிறார்	-10.244
le	-10.2444
▁பிரபலமான	-10.2447
▁வய	-10.2451
▁விளையாடி	-10.2451
▁பார	-10.2454
▁த்துக்க	-10.2457
▁அடிமை	-10.2459
▁மகள	-10.2462
▁தொடங்கப்பட்ட	-10.2462
▁கலாச்சார	-10.2463
▁திரிணாமுல்	-10.2463
▁வீராங்கனை	-10.2463
▁வாயிலாக	-10.2463
▁மேடையில	-10.2463
▁திணற	-10.2465
▁ஆதித்யநாத்	-10.247
▁விகிதம்	-10.247
▁ப்படுவத	-10.247
▁ஆனது	-10.2475
▁போரை	-10.2483
ளவில்	-10.2485
▁முடிவுகளை	-10.2486
▁உடைய	-10.249
▁வாக்குப்பதிவு	-10.2503
▁ரமேஷ்	-10.2503
▁சேர்க்கை	-10.2503
▁பேசும்போது	-10.251
▁உச்சி	-10.2514
▁மேடை	-10.2517
▁கொண்டுவர	-10.252
▁கத்தார	-10.2521
▁செய்தியாளர்	-10.2526
▁ஆன்	-10.2527
▁காப்ப	-10.2529
▁இந்	-10.253
▁பத்திரிகை	-10.2542
▁கருத்துக்களை	-10.2544
▁ரிஷப	-10.2544
▁பீகார்	-10.2548
us	-10.2549
சக்தி	-10.255
▁மேற்பட்டோர்	-10.2552
▁44	-10.2555
▁விவசாயிகளுக்கு	-10.2558
▁விரிவா	-10.256
ச்சல்	-10.2562
▁நிகழ்த்த	-10.2564
▁காரண	-10.2569
▁வளை	-10.2571
▁நடன	-10.2572
▁சண்முக	-10.2575
▁ுற	-10.2578
▁ட்டும்	-10.2579
▁கதாபாத்திர	-10.2581
▁சிவா	-10.2581
▁செய்கிறது	-10.2582
▁நீக்கம்	-10.2582
▁நடத்தப்பட்டு	-10.2583
▁மேம்பாட்டு	-10.2584
▁காய்கறி	-10.2584
▁மாத்திரை	-10.2584
▁படுக்கை	-10.2584
▁கவனத்தை	-10.2587
▁கொழு	-10.2592
மெண்ட்	-10.2593
▁களோ	-10.2601
▁உண்டா	-10.2603
hi	-10.2604
▁இறங்கிய	-10.2604
▁போற	-10.2605
யின்றி	-10.2607
▁படங்களை	-10.2608
▁வீட்டில	-10.2608
▁வீத	-10.2611
▁போட்டிகள்	-10.2617
▁கால்நடை	-10.2625
▁போராட்டக்காரர்	-10.2625
▁உண்டாகும்	-10.2625
▁பாதுகாப்பான	-10.2625
▁தொல்லை	-10.2627
▁தமிழ்நாட்டு	-10.2628
▁கட்டிட	-10.2632
▁அருந்த	-10.2632
▁போட்டியை	-10.2632
▁38	-10.2634
▁நிறைவேற்றி	-10.2639
▁லூ	-10.2639
▁காவலர்	-10.2648
▁ஆடுகள	-10.2651
▁படிக்கும்	-10.2659
▁மூவர	-10.2667
▁அங்கீகாரம்	-10.2668
▁கண்காணிப்பாளர்	-10.267
▁பிரச்னைகளை	-10.2674
▁குறைந்தபட்ச	-10.2675
▁நெருக்கமான	-10.2677
▁லின்	-10.2679
▁புகை	-10.2679
▁செய்வதற்க	-10.2683
▁அடைக்கப்பட்ட	-10.2684
▁ஆராய	-10.2684
▁போனது	-10.2685
▁பயன்படுத்துவத	-10.2686
▁அரசாங்கத்தின	-10.2686
▁மீனவர்கள்	-10.2688
▁பிரிவின்	-10.269
▁கருப்பு	-10.2701
▁இருந்ததாக	-10.2706
▁பரீட்சை	-10.2707
▁அலுவல்	-10.2707
▁மறக்க	-10.2707
▁மதிப்பெண்	-10.2708
▁கட்டிய	-10.2709
▁வேலையில்	-10.271
▁o	-10.2713
▁அவள்	-10.2713
▁ிருந்தாலும்	-10.2717
▁பாரதி	-10.272
▁சூட்ட	-10.2721
▁உட்	-10.2722
▁இருக்கிறேன்	-10.2722
▁கரூர்	-10.2723
▁விட்டேன்	-10.2724
▁திட்டமிட	-10.2729
▁போன்றவற்றை	-10.2733
▁நடவடிக்கையை	-10.2735
▁கோட்டா	-10.2744
▁2000	-10.2744
▁சேவைகள்	-10.2746
▁கடினமான	-10.2748
▁சனாதன	-10.2748
வேண்டும்	-10.2751
▁ஹோ	-10.2752
▁னேன்	-10.2754
யன்று	-10.2757
▁வெற்றிக்கு	-10.2757
▁நிமிட	-10.2757
▁ரக	-10.2758
▁விமர்சனங்கள	-10.2758
▁ஸார்	-10.2766
▁பாராட்டி	-10.2768
▁ஊர்வலம	-10.2769
ேஜ்	-10.2774
▁லிட்டர	-10.2775
▁வீடியோவில்	-10.278
▁னி	-10.2781
▁வளர்ந்து	-10.2782
▁முஸ்லிம்கள	-10.2786
▁மசோதாவ	-10.2786
▁எதிர்பார்ப்ப	-10.2788
▁உரிமையாளர்	-10.2789
▁தீபாவளி	-10.279
கலாநிதி	-10.279
▁சமாதான	-10.279
▁வழங்குவத	-10.279
▁வரலாம்	-10.2793
▁அறிவு	-10.28
▁பற்றியும்	-10.2801
▁விட்டன	-10.2802
▁+	-10.2808
▁விளையாட்ட	-10.281
▁தெரிவித்தது	-10.281
▁ாள்	-10.2816
▁வேளையில்	-10.2817
▁வருவதற்கு	-10.2819
▁அத்தியாவசிய	-10.2831
▁புலனாய்வு	-10.2831
▁தினங்கள	-10.2837
▁வருவதை	-10.2838
▁எழுந்து	-10.2838
▁முறையும்	-10.2841
▁இல	-10.2845
▁அம்ப	-10.2848
▁ங்களுக்க	-10.2849
▁நீட்டி	-10.285
▁சகோதர	-10.2854
▁ுவதால்	-10.2862
▁வெங்கட	-10.2868
▁நிபந்தனை	-10.2873
▁லீக்	-10.2877
▁பிரம்ம	-10.2885
▁ஜெர்மனி	-10.2886
▁பேச்ச	-10.2886
▁முக்கியமாக	-10.2888
▁வீழ்த்தி	-10.2891
▁நியமன	-10.2897
▁ப்படாத	-10.2902
▁சொன்னது	-10.2907
▁சூரியன	-10.2911
▁பெங்களூர்	-10.2912
▁லெபனான	-10.2915
▁மறந்து	-10.2915
▁நிலைப்பாட்ட	-10.2916
▁மகாராஷ்டிராவ	-10.2918
▁பாறை	-10.2918
▁புதன்	-10.2921
▁பரவல்	-10.2922
▁மறுநாள்	-10.2922
▁அபி	-10.2924
▁என்றனர்	-10.2926
▁உதவிகளை	-10.2927
▁ின்ற	-10.293
▁போடப்பட்ட	-10.293
▁பிடிக்கும்	-10.2933
▁டொ	-10.2934
▁வைத்திருப்ப	-10.2936
▁கடத்தி	-10.2942
▁சம்பவங்கள	-10.2943
▁39	-10.295
▁நிகழ்வுகள்	-10.2955
▁சிசிடிவி	-10.2957
ha	-10.2965
▁சமீபத்த	-10.2966
▁கிட	-10.2967
▁வந்தன	-10.2969
▁மிரட்ட	-10.297
▁2022-	-10.2971
▁நியூசிலாந்து	-10.2975
▁பாண்டியன்	-10.2976
ஃபா	-10.2976
▁புகார்கள்	-10.298
▁இழப்ப	-10.2982
▁விரிவாக	-10.299
▁அழகு	-10.2991
▁நியூ	-10.2993
▁பாதிக்கும்	-10.2996
▁சுட்டிக்காட்ட	-10.2999
▁வாக்காளர்கள	-10.3002
ரேஷ்ட	-10.3002
▁விமர்சிக்க	-10.3003
▁கொடியேற்ற	-10.3003
▁ஏவ	-10.3004
▁இவர்களுக்கு	-10.3005
▁தொழிற்சாலை	-10.3006
▁அதிகாரத்தை	-10.3008
▁சாத	-10.3011
▁ஹர்	-10.3011
▁ஆடு	-10.3014
▁செக்	-10.302
த்துக்காக	-10.302
▁னோம்	-10.3021
▁பூச்சி	-10.3023
▁அடக்க	-10.3023
▁உடைந்த	-10.3023
▁ஆப்கானிஸ்தான்	-10.3031
▁வருடங்களாக	-10.3032
▁34	-10.3033
▁வருகின்ற	-10.3035
▁அரிய	-10.3041
▁எதிர்பாராத	-10.3042
▁விண்கல	-10.3042
▁நோட்டீஸ்	-10.3043
▁முன்னேற்றம்	-10.3044
▁the	-10.3045
▁k	-10.3046
▁கணிப்பு	-10.3049
▁கமல்	-10.3051
▁தண்ணீர	-10.3054
ாறு	-10.306
▁இலை	-10.3061
▁நீங்கும்	-10.3064
▁குறையும்	-10.3071
▁நிலத்தை	-10.3077
ிருப்பது	-10.308
▁கேரளாவில	-10.3083
▁நூற்றாண்டு	-10.3083
யற்ற	-10.3086
▁மூடி	-10.3086
▁குறுக்க	-10.3087
▁கலக்க	-10.3087
லட்சுமி	-10.3088
▁மேற்	-10.309
et	-10.3091
த்தூர்	-10.3095
▁வசம	-10.3096
▁ஏற்றுக்கொண்ட	-10.3096
▁வந்திருந்த	-10.3097
▁உருவாக	-10.3099
▁கோயில	-10.31
▁கழகம்	-10.3101
▁மதிக்க	-10.3105
இது	-10.3106
▁பங்களிப்பு	-10.3109
▁சத்தம்	-10.311
▁ஜப்பான	-10.3113
▁பண்ணை	-10.3114
▁கொண்டாடி	-10.3118
▁கடிதத்தில்	-10.3118
▁எதிர்க்க	-10.3121
▁ஆப்பிரிக்க	-10.3126
▁நோயாளிகள	-10.3127
▁வைக்கப்பட்டது	-10.3131
▁நடைபெறவுள்ள	-10.3132
▁கடலூர்	-10.3134
▁திரும்பப்	-10.3143
▁கையாள	-10.3143
▁கொண்டதாக	-10.3143
▁முன்னிலை	-10.3144
▁கத்தி	-10.3147
ரான்	-10.3147
▁தூங்க	-10.3148
ச்சர்	-10.3151
பாத்	-10.3164
▁முருக	-10.3165
▁கழுத்த	-10.3165
▁செய்துள்ள	-10.3169
▁ராக்கெட்	-10.317
நாதர்	-10.317
▁65	-10.3171
▁ஹீரோ	-10.3171
▁வெளிவந்த	-10.3174
▁ஆராய்ச்சியாளர்	-10.3174
▁அறிகுறி	-10.3175
▁தயாரிக்கப்பட்ட	-10.3176
▁லிருந்து	-10.3189
▁வளர	-10.3197
ாயி	-10.3204
▁எல்லோரும	-10.3204
▁ஃபா	-10.3208
▁சிம்ம	-10.3211
▁நடத்தப்பட	-10.3213
▁இதற்கிடையில்	-10.3214
▁ஓமிக்ரான்	-10.3214
▁பேரூராட்சி	-10.3214
▁எரிவாயு	-10.3214
▁லேசான	-10.3215
▁திரண்ட	-10.3216
▁வகிக்க	-10.3216
▁ஓரளவு	-10.3217
▁ரகு	-10.3223
வழி	-10.3223
▁திருவிழாவ	-10.3225
▁நூல்	-10.3227
▁காய	-10.3228
▁குழந்தையின்	-10.3233
▁இயங்கி	-10.3235
▁தடுப்ப	-10.3236
▁மருத்துவர	-10.3236
▁லுக்கு	-10.3241
▁சல	-10.3245
ம்பல	-10.325
▁பாரத	-10.325
▁புகைப்பட	-10.3252
▁குழ	-10.3252
யடைந்த	-10.3254
▁er	-10.3254
▁தெலுங்கானா	-10.3258
▁விஷயத்தை	-10.3258
▁குறுக	-10.3258
▁இதைப்	-10.3259
▁பிரான்ஸ்	-10.326
க்குழு	-10.3262
▁மாற்றத்தை	-10.3264
▁டின்	-10.3267
▁செல்கிற	-10.3271
▁பேட்டர்கள	-10.3273
▁நடத்தியது	-10.3273
▁காட்டுகிறது	-10.3273
▁ஆத்திர	-10.3273
▁கோட்ட	-10.3275
▁குழந்தைக்கு	-10.328
▁உயிரை	-10.3288
▁உற்சவம்	-10.3289
▁மனுவை	-10.329
▁கண்ணீர்	-10.3301
▁வேண்டுமானாலும்	-10.3302
▁குழுக்கள்	-10.3302
▁வழிவக	-10.3302
▁வசூல	-10.3304
▁மக்களும்	-10.3304
▁முதலாவத	-10.3316
▁குப்பை	-10.3317
▁ஜெகன்	-10.3317
▁நிறைவடைந்த	-10.3318
▁பாதுகாப்புப்	-10.3319
▁பிரதிநிதிகள்	-10.332
▁காலத்திற்கு	-10.3332
▁உச்சநீதிமன்றம்	-10.3333
▁கொண்டவர்	-10.3338
▁ிறேன்	-10.3338
ராசா	-10.3339
▁ரியா	-10.334
▁நிகர	-10.3344
▁கனடாவ	-10.3345
▁கண்காட்சி	-10.3345
▁சமாளிக்க	-10.3345
ுவீர்கள்	-10.335
▁ஆரம்பத்தில	-10.3353
▁செயல்பாடு	-10.3355
▁சரண்	-10.3356
▁ஜாதி	-10.3358
▁வேட	-10.336
▁பொறுத்த	-10.336
▁பறிக்க	-10.3362
▁புரம்	-10.3363
▁கூறியுள்ளனர்	-10.3363
▁இருப்பார்	-10.3363
▁சாட்டப்பட்ட	-10.3364
▁கொள்வ	-10.3372
▁செய்வதற்காக	-10.3374
▁இறப்பு	-10.3381
▁வராக	-10.3387
▁தினகரன்	-10.3387
,500	-10.3392
▁al	-10.3392
▁முற்ற	-10.3393
▁முடிய	-10.3394
▁ிருக்கிறோம்	-10.3395
▁நம்பிக்கையை	-10.3396
▁கோவில	-10.3397
▁சன	-10.3403
▁புறப்பட்டு	-10.3405
▁வெளியேறிய	-10.3407
▁இரும்பு	-10.3408
▁இருவர்	-10.3411
▁சம்பவத்த	-10.3418
▁அம்பாள	-10.3419
▁ஒப்ப	-10.3422
▁குழுவை	-10.3429
▁அமலாக்க	-10.3431
▁பிளாஸ்டிக்	-10.3434
▁துருக்கி	-10.3434
▁பொறியியல	-10.3434
▁தோல்வியடைந்த	-10.3435
▁முக்கியமானது	-10.3436
▁வெளியாக	-10.3438
▁ஸ்கோர	-10.3439
▁சுகாதாரத்துறை	-10.3445
▁மந்த	-10.3446
▁அதிபர	-10.3446
▁வாய்ப்புள்ளது	-10.3447
▁சர்ச்சையை	-10.3448
▁சாந்தி	-10.3448
▁ப்படுத்த	-10.3449
▁ர்கள	-10.3451
▁கொட்டி	-10.3451
▁பராமரிப்பு	-10.3452
▁படைகள்	-10.3456
▁உள்ளதாகவும்	-10.3457
▁பரபர	-10.3458
▁பெய்த	-10.3458
▁நீக்கி	-10.3459
ப்போகிறது	-10.3461
மட்ட	-10.3462
▁49	-10.3465
▁வினோத	-10.3472
▁பேரறிவாளன	-10.3478
▁அக்கறை	-10.3478
▁தாமரை	-10.3478
▁மறுபுறம்	-10.3479
▁கடலோர	-10.3479
▁இப்போ	-10.3482
▁தேர்ச்சி	-10.3484
▁துறையினர்	-10.3486
மார்	-10.349
▁வரும்போது	-10.349
▁சொல்லப்படுகிற	-10.3492
▁தொழில்நுட்பம்	-10.3495
பெயர்	-10.3499
▁மாறும்	-10.3502
▁அர்	-10.3502
▁கடனை	-10.3504
▁புகார	-10.3513
▁ஒற்றைத்	-10.3514
▁சபையின	-10.3515
▁விளைவாக	-10.3515
▁எழுத்து	-10.3523
▁அங்கீகரிக்க	-10.3523
▁ிருக்கிறேன்	-10.3527
▁அறையில்	-10.3527
▁ஊருக்கு	-10.3528
▁இருக்கும்போது	-10.353
▁ஏற்படுகிறது	-10.3531
▁களம்	-10.3532
▁வெளிப்படுத்தி	-10.3534
▁தீர்மானங்கள	-10.3537
▁பயிர்	-10.354
▁கலந்த	-10.354
▁வெளிச்ச	-10.3547
il	-10.3548
▁பட்டியலின	-10.3552
▁ப்படுவது	-10.3553
▁காசா	-10.3556
▁செங்க	-10.3561
கிட்ட	-10.3567
▁இளம்பெண்	-10.3568
▁கண்காணிக்க	-10.3568
▁காரைக்கால்	-10.3568
▁தமிழர்கள்	-10.3568
▁பணிபுரிந்த	-10.3568
▁யூனியன	-10.3568
▁கூகுள	-10.3568
▁அம்மாநில	-10.3568
▁பார்ப்ப	-10.3573
▁பெற்றுக்கொள்ள	-10.3573
▁பாக்கிய	-10.3573
▁கோவில்களில்	-10.3573
▁எடுத்துக்கொள்ள	-10.3574
▁சுற்றிய	-10.3575
▁இஸ்ரேலுக்கு	-10.3581
▁உள்ளிட்டவை	-10.3591
ed	-10.3597
ேற்ப	-10.3599
▁வந்தபோது	-10.36
▁ஆதீன	-10.36
கண்ட	-10.3603
▁ஓட்டி	-10.3607
▁கடவுள	-10.3608
▁ஆடிய	-10.3608
▁மாட்டார்	-10.3612
▁முன்னுரிமை	-10.3613
▁புஷ்ப	-10.3615
▁சீரியல்	-10.3615
▁ஈரான்	-10.3615
▁நீண்டகால	-10.3617
▁சத்திய	-10.3617
▁சிக்ஸர்	-10.3621
ஏக்கள	-10.3622
▁தயாரிப்ப	-10.3622
▁உள்ளடக்கிய	-10.3625
▁அதுதான்	-10.3625
▁விட்டார்கள்	-10.3627
▁முயல	-10.363
▁ஆளாக	-10.3646
▁47	-10.3648
▁பன்னீர்	-10.3657
Y	-10.3658
▁உயிரிழப்பு	-10.3659
▁ஓராண்டு	-10.3661
▁கோரிய	-10.3683
▁கூடி	-10.3687
▁அவற்றின	-10.3693
▁மரங்கள	-10.3695
த்திலிருந்து	-10.3695
▁வார்த்தைகள	-10.3697
▁புத்தகங்கள	-10.3698
▁விவாதம்	-10.3701
▁News	-10.3703
▁ராமதாஸ்	-10.3703
▁மேற்கத்த	-10.3703
▁மதுபான	-10.3704
▁போதைப்பொருள்	-10.3704
குடி	-10.3704
▁பள்ளிக்கு	-10.3705
▁போவதாக	-10.3706
▁an	-10.3716
▁கொண்டிருந்தது	-10.3719
▁உத்திர	-10.3723
▁பட்டம்	-10.373
▁பழங்குடி	-10.3736
▁முழங்க	-10.3738
▁ஈட்ட	-10.374
▁கட்டமைப்பு	-10.3746
▁பதிவிட்டு	-10.3747
▁தலைநகர	-10.3748
▁இருப்பார்கள்	-10.3749
▁ஃப்ர	-10.3749
▁சங்கர்	-10.3749
▁ஊரடங்கு	-10.3749
▁அருள்பாலித்த	-10.3749
▁நியமித்த	-10.3749
▁மணிப்பூர	-10.3749
▁இளையராஜா	-10.3749
▁கீ	-10.3762
▁மாய	-10.3763
▁அருண்	-10.3764
▁கேள்விகள்	-10.3765
▁இல்லாததால்	-10.3766
▁பசி	-10.3771
▁அம்மாவ	-10.3772
▁பொறுத்து	-10.3773
▁மஸ்க்	-10.3775
▁கட்டுப்பாட்டு	-10.3777
▁அறிவித்து	-10.3777
▁இவற்ற	-10.3782
▁புலிகள	-10.3794
▁பயங்கர	-10.3794
▁சிவகங்கை	-10.3795
▁பொதுக்கூட்ட	-10.3795
▁திறப்பு	-10.3795
▁பாதிப்புகள்	-10.3795
▁விதிமுறைகள	-10.3796
▁லக்னோ	-10.3798
▁பாளையம்	-10.38
▁ஒன்	-10.3801
U	-10.3806
▁உறுப்பினராக	-10.3808
▁உன்	-10.3809
பகுதி	-10.3811
▁அறு	-10.3812
▁தாக்குதலுக்கு	-10.3814
▁கமிஷன	-10.382
▁ஆட்டத்தை	-10.382
▁ஆல	-10.382
▁ஏற்று	-10.3825
▁உத்தரவிட்டுள்ள	-10.3825
▁பூங்கா	-10.3828
▁ராமேஸ்வரம்	-10.3841
▁ஆஜராக	-10.3841
▁சமையல்	-10.3841
▁கோவிந்த	-10.3841
▁தோல்வியை	-10.3844
▁விரைவ	-10.3861
▁உள்ளதால்	-10.3865
▁தப்ப	-10.3868
▁அளித்துள்ளார்	-10.3875
▁வாங்கும்	-10.388
▁அக்கட்சியின	-10.3882
▁அபராதம்	-10.3887
▁ஜடேஜா	-10.3887
▁பிரகாஷ்	-10.3887
▁டிடிவி	-10.3887
▁பின்னடைவ	-10.3888
▁41	-10.3888
▁தக்காளி	-10.3889
▁ுகிறேன்	-10.3899
K	-10.3899
▁முதுக	-10.39
▁கட்டுப்பாட்ட	-10.3901
▁நாட்டுக்கு	-10.3903
▁அப்போதுதான்	-10.3905
▁பச	-10.3906
▁இடங்களுக்கு	-10.3912
▁ஊர்வலம்	-10.3913
▁வீழ்த்த	-10.3917
▁கடலில	-10.3925
▁கிளம்பி	-10.3927
▁கண்கள	-10.3927
▁கார்த்திக்	-10.3931
▁பூர்வ	-10.3934
▁சுக்கிரன்	-10.3934
▁ரிசர்வ்	-10.3934
▁ஹரியானா	-10.3934
▁பிரேத	-10.3934
▁தேசியக்	-10.3935
▁நிலவுகிறது	-10.3938
▁நிறுவனத்தை	-10.3938
▁இலக்கிய	-10.3947
▁பழனி	-10.3948
▁சிறுத்தை	-10.3949
போக	-10.3957
▁பரவலாக	-10.3957
▁உணவை	-10.396
▁பணவீக்க	-10.3981
▁மேலாண்மை	-10.3981
▁வாரிசு	-10.3983
▁இயக்குனர்	-10.3983
▁சிற்ப	-10.3983
▁கூட்டத்தை	-10.3983
▁புகாரின்	-10.3984
▁5-	-10.3986
▁பாலத்தீன	-10.3998
▁கட்டளை	-10.4
▁ங்களுடன	-10.4
▁வயதுக்கு	-10.4001
▁சென்றுள்ளார்	-10.4001
▁அம்ச	-10.4001
▁பெய்து	-10.4002
▁திட்டமிடப்பட்ட	-10.4002
▁விரைவாக	-10.4007
▁வங்கிக்	-10.4008
▁பாத்திர	-10.401
▁போலீஸ	-10.4014
▁மகர	-10.402
▁விகித	-10.402
▁மனிதன	-10.4022
ராஜன்	-10.4024
▁எஃப்	-10.4026
▁நகைச்சுவை	-10.4028
▁தமிழிசை	-10.4028
▁கண்ணன்	-10.4028
▁முடிவடைந்த	-10.4029
▁பதிலளிக்க	-10.4029
▁சொல்கிறார்கள்	-10.4029
▁சொத்துக்கள	-10.4032
▁வில	-10.4032
▁ஆள்	-10.4032
▁அறிவுரை	-10.4033
▁அளவை	-10.4036
▁அமைச்ச	-10.4039
▁வெள்ளம்	-10.404
▁திமுகவின	-10.4042
▁தலைவரான	-10.4046
▁பிரிய	-10.4048
▁கொடுத்தது	-10.4049
▁கார்டு	-10.4053
▁போராட்டங்கள்	-10.4056
▁ஏர்	-10.4057
▁குறைத்து	-10.406
▁பேருந்த	-10.4065
▁அன்னதானம்	-10.4067
▁ரத	-10.4067
▁அப்துல்	-10.407
▁முன்கூட்டிய	-10.4075
▁விரதம்	-10.4075
▁பார்வையாளர்கள	-10.4076
▁அகிலேஷ்	-10.4076
▁வகையிலும்	-10.408
▁காணப்படுகின்ற	-10.4081
▁பூட்ட	-10.4081
▁பிரபு	-10.4087
▁ஆவணங்கள்	-10.4088
▁கட்டுப்பாடுகள்	-10.4088
▁தாத்தா	-10.4088
▁பள்ளிகள்	-10.4089
▁194	-10.4091
▁அமைந்தது	-10.4092
▁நீல	-10.4095
▁re	-10.4098
▁மேற்கொள்ளப்பட	-10.4102
▁களமிறங்கிய	-10.4103
▁மாலத்தீவு	-10.4109
▁கார்த்தி	-10.4114
▁அணிகள்	-10.4114
▁பிறப்பித்த	-10.4117
▁ஆகியோரை	-10.4122
▁ஒருங்கிணைந்த	-10.4122
▁நன்கொடை	-10.4122
▁வறுமை	-10.4122
▁உடைத்து	-10.4124
▁வள்ளி	-10.4125
▁ிருப்பதை	-10.413
▁பைக்	-10.4132
▁பாலா	-10.4132
▁விரட்ட	-10.4135
▁இணைத்து	-10.4137
▁திருமாவளவன்	-10.4138
▁ஆலோசகர்	-10.4138
▁ட்டு	-10.4139
▁வசன	-10.414
▁போதிய	-10.4142
▁3-	-10.4143
பெரும்	-10.4144
ெழ	-10.4146
▁க்கே	-10.415
▁ப்பட்டன	-10.4162
▁சிரித்த	-10.4166
un	-10.4166
ர்ஜி	-10.4169
▁நெரிசல	-10.417
▁காணிக்கை	-10.4171
▁இன்றைக்கு	-10.4171
▁சமீப	-10.4173
▁என்னவென்றால்	-10.4174
▁ஒட்டிய	-10.4178
▁தேதியன்று	-10.418
▁கோபம்	-10.4183
▁பழக்கம்	-10.4184
▁இயந்திர	-10.4184
▁ீங்க	-10.4189
▁வித்தியாச	-10.4189
▁இதழ	-10.4193
▁நன்மைகள்	-10.4193
▁மெய்	-10.4196
▁செய்யப்படுகிறது	-10.4196
▁விவகாரத்த	-10.421
▁தானம்	-10.421
▁கூட்டி	-10.4215
▁கொள்முதல்	-10.4218
▁பொம்மை	-10.4218
ாளராக	-10.4219
▁42	-10.4219
▁மீம்ஸ்	-10.4221
▁இருப	-10.4222
▁ரெய்டு	-10.4224
▁அம்சங்கள	-10.4225
▁யொட்டி	-10.4227
▁புதின	-10.4231
▁கோழி	-10.4231
▁வெளிநாடு	-10.4232
▁போட்டுக்	-10.4241
பய	-10.4244
▁பண்ட	-10.425
▁உத்தரவிட்டார்	-10.4251
▁எட்டிய	-10.4256
▁மாதிரிய	-10.4256
▁பிரியா	-10.4257
▁கொடியேற்றத்த	-10.4262
▁உறவை	-10.4262
▁2011	-10.4266
▁படிப்படியாக	-10.4266
▁குரங்கு	-10.4266
▁நிரம்பி	-10.4266
▁நாமக்கல்	-10.4267
▁பாலிவுட்	-10.4267
▁என்கிறது	-10.4267
▁பார்வையிட்ட	-10.4269
▁தமிழ்நாட்டை	-10.427
▁சித்தி	-10.4274
nd	-10.4275
▁பெருமாள	-10.4277
▁பிறந்தநாள்	-10.4281
▁ஷோ	-10.4282
▁இவரை	-10.4286
▁உயர்ந்துள்ளது	-10.4288
▁ிருக்கிற	-10.4289
▁காரணங்கள்	-10.4292
tor	-10.4294
▁செயல்பாடுகள்	-10.4296
▁வந்தவர்	-10.4296
▁சிவப்பு	-10.4302
▁46	-10.4306
▁வருடங்களுக்கு	-10.4307
▁முன்னேற	-10.4311
▁எக்ஸ்பிரஸ்	-10.4314
▁சமர்ப்பித்த	-10.4314
▁நிதியமைச்சர்	-10.4314
▁குடிமக்கள	-10.4314
▁தேரோட்டம்	-10.4315
▁அன்புமணி	-10.4315
▁மீனாட்சி	-10.4315
▁பயன்படுத்தப்பட	-10.4315
▁செயல்முறை	-10.4318
▁வெறுப்பு	-10.4321
▁தலைவர்களை	-10.4322
▁விருப்பம்	-10.4328
▁அந்நாட்ட	-10.4331
▁ஆதிக்கம்	-10.4333
▁வேட்டை	-10.4335
▁ஃ	-10.4339
▁பரிந்துரைக்க	-10.4339
மங்கலம்	-10.4339
▁நோக்கில்	-10.4342
▁பந்துவீச்சாளர்	-10.4343
▁கட்டமைப்ப	-10.435
▁உயர்த்தி	-10.4353
▁காஷ்மீர	-10.4355
▁எவ்வித	-10.4362
▁மட்டக்களப்பு	-10.4362
▁இன்ஸ்டாகிராம	-10.4362
▁திருக்கோயில	-10.4363
▁பிரமாண்ட	-10.4363
▁பொதுவான	-10.4363
▁ஒழிப்பு	-10.4364
▁தொடங்கினர்	-10.4365
▁புள்ளிகள	-10.4367
▁சொல்ற	-10.4367
▁செய்கிறார்கள்	-10.4369
▁மாத்திரம	-10.437
▁ஆயுதங்களை	-10.438
▁ரூபாய்க்கு	-10.4387
▁த்திலேயே	-10.439
▁பவர்	-10.4393
▁துண்டு	-10.4394
▁தலையிட	-10.4402
▁மாடி	-10.4403
▁செங்கல்பட்டு	-10.4411
▁எலும்பு	-10.4411
▁‛	-10.4411
▁அளவ	-10.4414
▁ஓவிய	-10.4417
▁தேசியவாத	-10.4421
▁கூறுவது	-10.4422
எஃப்	-10.4431
▁பெண்ணின	-10.4433
▁இவ்	-10.4434
▁நிலநடுக்கம்	-10.4436
▁பிசி	-10.4437
▁தோன்றிய	-10.4447
▁டைம்	-10.4454
x	-10.4459
▁அதிர்ஷ்ட	-10.446
▁முதியவர்	-10.446
▁ப்படவுள்ள	-10.4465
▁மங்கள	-10.4466
▁சொல்	-10.447
▁யைப்	-10.4472
தீப்	-10.4475
▁செய்யவும்	-10.4477
▁உறவுகளை	-10.4479
▁சுவாமிகள்	-10.4488
▁விமானங்கள்	-10.4489
▁என்பதற்கு	-10.4493
▁தொட்டி	-10.4496
▁இழப்பீடு	-10.4496
▁மண்டப	-10.4499
▁விஷயம	-10.4505
▁சன்னதி	-10.4509
▁ஆதரிக்க	-10.451
▁ஒலிம்பிக்	-10.451
▁சதுர்த்தி	-10.451
▁இளைஞர்கள	-10.451
▁வசந்த	-10.4511
▁எல்லாவற்ற	-10.4513
▁தலித்	-10.4513
▁பட்ஜெட்ட	-10.4513
▁y	-10.4516
▁உப்பு	-10.4528
▁நோட்ட	-10.453
▁உறவினர்	-10.4538
▁விடுவிக்க	-10.4539
▁கொள்கையை	-10.4543
▁எழுந்தருள	-10.4543
▁தந்து	-10.4551
▁எப்படிய	-10.4557
▁மயக்க	-10.4558
▁டெல்டா	-10.4559
▁ஆயுள்	-10.4559
▁இம்முறை	-10.456
▁உணவுகளை	-10.4561
▁நடுத்த	-10.4561
▁மையமாக	-10.4565
▁சம்பந்தம	-10.4566
▁ஜய	-10.457
▁எச்	-10.4572
▁செயலாளர	-10.4573
▁பெற்றோர்கள்	-10.4579
▁நிறுவனங்களுக்கு	-10.4585
சுப்பிரமணியன்	-10.4592
▁முன்வைக்க	-10.46
id	-10.4602
▁லில்	-10.4604
▁ஆர்ப்பாட்ட	-10.4606
▁இந்நிகழ்வ	-10.4609
▁உயர்கல்வி	-10.4609
▁வாக்களித்த	-10.4609
▁ஒப்புக்கொண்ட	-10.461
▁அறிமுக	-10.4612
▁மகிழ்ச்சியாக	-10.4615
▁பிரதிநிதி	-10.4617
▁மிரட்டி	-10.4623
▁ஆவணங்களை	-10.4626
▁ஆதரவாளர	-10.4627
▁நிகழ்ச்சியை	-10.4634
▁விர	-10.4642
▁மூட்ட	-10.4643
▁ாரா	-10.4644
▁ஆஸ்திரேலியாவ	-10.4649
▁புறப்பட்ட	-10.4649
▁அச்சம்	-10.465
▁சீனாவில	-10.4651
▁ஒதுக்கி	-10.4651
▁ஆற்றல்	-10.4654
▁பத்ம	-10.4655
▁வியாழக்கிழமை	-10.4659
▁2013	-10.4659
▁காங்கிரச	-10.4659
▁பிரதிநிதித்துவ	-10.4659
▁ர்கள்	-10.4661
▁அதிபதி	-10.4661
▁உட்கார்ந்த	-10.4661
▁சமத்துவ	-10.4662
▁பட்டாசு	-10.4662
▁முயற்சிக்க	-10.4665
▁செய்யாமல்	-10.4669
▁சேர்க்கப்பட்ட	-10.4682
▁பக்தி	-10.4692
▁உறுதியான	-10.4706
▁அதேசமயம்	-10.4709
▁சடங்கு	-10.4709
▁புதுப்பிக்க	-10.4709
▁ஈபிஎஸ்	-10.4709
▁கம்பெனி	-10.4709
▁பிரசவ	-10.4709
▁ஒதுக்கீட்ட	-10.4709
▁செயற்பாடுகள	-10.4709
▁பந்தை	-10.4718
▁சிலருக்க	-10.4719
▁அஞ்சலி	-10.4723
▁is	-10.4725
▁போட்டியிடும்	-10.4727
▁செல்கிறார்	-10.4733
▁பலாத்காரம்	-10.4737
▁வெயில	-10.4739
▁2021-	-10.4743
▁பூர்	-10.4744
▁மையங்கள	-10.4747
▁பணியாளர்கள	-10.4749
▁போத	-10.4753
▁வசதிகளை	-10.4754
▁விரும்பி	-10.4757
▁மருத	-10.4757
▁கடினமாக	-10.476
பிற்படுத்தப்பட்ட	-10.476
▁பேரிடர்	-10.476
▁சொல்வ	-10.476
▁விளா	-10.4762
▁இவ்வ	-10.4765
▁சிதற	-10.4768
▁தயாராகி	-10.4768
▁திரைப்படங்கள	-10.4776
▁மருந்துகள்	-10.4776
▁மாரி	-10.478
▁விலையில்	-10.4781
▁தோற	-10.4785
▁இதன்படி	-10.4787
▁ஸ்தானத்தில	-10.4793
▁கமலா	-10.4795
▁கெஜ்ரிவால்	-10.48
▁லாமா	-10.4802
▁நாச	-10.4804
▁காஸா	-10.4805
▁செயற்பட	-10.4806
▁ஒய்	-10.4809
▁புண்ணிய	-10.481
▁இக்கோவில	-10.481
▁வாக்கெடுப்ப	-10.4811
▁விருந்தினர	-10.4811
▁வேண்டுமா	-10.4811
▁மகேஷ்	-10.4813
▁சிலைகள்	-10.4814
▁பாஜகவில	-10.4815
▁அரசியலை	-10.4815
▁குவா	-10.4816
குளம்	-10.4818
▁செய்தியை	-10.4819
▁மோத	-10.4826
▁நிறுத்திய	-10.4828
▁சம்பவத்தை	-10.4829
▁கதையை	-10.483
▁வாடிக்கையாளர்கள	-10.4831
க்கரை	-10.4833
ul	-10.4837
.10	-10.4838
▁பரிச	-10.4842
▁டெலி	-10.4844
▁நீரை	-10.4845
23	-10.4846
▁வழங்கியுள்ளது	-10.4846
▁ஓட்டுநர்	-10.485
▁மறை	-10.4853
▁சத்தீஸ்கர	-10.4861
▁வாழ்வாதார	-10.4861
▁அணுகுமுறை	-10.4861
▁விஷ்ணு	-10.4861
▁உருவாக்கும்	-10.4862
▁போரி	-10.4863
ரிமை	-10.4866
ெடுக்க	-10.4869
▁பகிர	-10.488
▁இளைஞர	-10.4883
▁சிங்கப்பூர்	-10.4884
▁வந்திருக்கிறார்	-10.4887
▁கூறுகிறார்கள்	-10.4889
காச	-10.4892
▁செலவில்	-10.4896
▁ஒப்புக்	-10.4896
▁தலைவர்களும்	-10.4899
▁பாதுகாப்பை	-10.4902
▁வாரங்கள	-10.4904
▁நினைக்கிற	-10.4908
▁ஹசீனா	-10.4913
▁திட்டத்திற்க	-10.4915
▁மண்டபம்	-10.4916
▁என்கின்றனர்	-10.4917
▁சீதாராமன்	-10.492
▁சூழல	-10.492
▁ஆரோக்கியம	-10.4921
▁ஆடியோ	-10.4926
▁விட்டதால்	-10.4928
▁மாசு	-10.4929
ir	-10.4933
▁அபாய	-10.4936
▁பேரவை	-10.4937
▁கிடைத்துள்ளது	-10.4937
▁சென்றபோது	-10.4937
▁ஆசிரியர	-10.4939
▁உயிரிழந்தார்	-10.4943
▁ஃபை	-10.4946
▁தெரிவிக்கிறார்	-10.4952
▁கூடவே	-10.496
▁உள்ளதா	-10.496
▁காட	-10.4964
▁சிறுநீரக	-10.4964
▁மனநல	-10.4964
▁ஆக்கிரமிப்பு	-10.4965
▁தற்	-10.4969
▁நினைக்கிறேன்	-10.4969
▁தெரியவந்துள்ளது	-10.497
▁லட்சக்கணக்கான	-10.4972
▁எழுத்தாளர்	-10.4972
▁எதை	-10.4975
▁வேண்டியிருந்தது	-10.4977
▁சீனிவாசன்	-10.4978
▁துவக்க	-10.4978
▁மீனவர்கள	-10.4979
▁வென்றது	-10.4981
▁கவச	-10.4982
▁கிரே	-10.4986
▁அழித்த	-10.4989
▁அருள	-10.4998
▁காளி	-10.4998
▁தொடர்பில	-10.4998
om	-10.5001
▁வித்தியாசத்த	-10.5002
▁ஒலிம்பியா	-10.5016
▁முர்மு	-10.5016
▁எளிய	-10.5016
▁நேட்டோ	-10.5016
▁கால்பந்த	-10.5018
▁சேரும்	-10.5018
வற்றை	-10.5021
▁ிருப்பதால்	-10.5022
▁நிற்கும்	-10.5024
▁உத்தரவிட்டது	-10.5025
▁காத்த	-10.5025
▁ஹோட்டல்	-10.5027
▁மஹ	-10.5029
▁நான்காவத	-10.5029
▁ஓரிர	-10.5038
▁ங்களாக	-10.5043
▁அத்தனை	-10.5044
▁ரஷ்யாவுக்கு	-10.5045
▁தரவு	-10.5047
▁குற்றவாளிகள்	-10.5048
▁சந்தர்ப்ப	-10.5049
▁டாலர	-10.5051
▁உயர்நீதிமன்றம்	-10.506
▁அதிகாரிகளை	-10.5065
▁வழங்குவது	-10.5065
▁விடுக்கப்பட்ட	-10.5065
▁தீயணைப்பு	-10.5068
▁இருதரப்பு	-10.5068
▁செயல்பாட்ட	-10.5068
▁கோத்தப	-10.507
▁கேட்டுக்கொண்ட	-10.507
சாதகமான	-10.5072
▁முடிவெடுக்க	-10.5072
▁வருகிறேன்	-10.5076
▁செய்துவிட்டு	-10.5076
▁இந்துத்துவ	-10.5078
▁ஊட்டி	-10.5079
▁நேரத்திற்கு	-10.508
▁மனோ	-10.5084
▁காங்	-10.5085
▁தலைவருமா	-10.5088
▁நுழைய	-10.5089
▁காத	-10.5091
▁நிறுவனத்தில	-10.5093
▁பிரிட்டன	-10.5094
▁சசிகலாவ	-10.5094
▁வெயில்	-10.5101
ொன்றை	-10.5103
▁!"	-10.5107
▁பறக்க	-10.5108
▁ஒப்படைக்க	-10.5113
▁ஊடகங்கள	-10.5116
▁Vikatan	-10.512
▁திருவள்ளூர்	-10.512
▁நூற்றுக்கணக்கான	-10.512
▁ஹர்திக்	-10.512
▁விவர	-10.5122
▁போடும்	-10.5134
▁சரவணன்	-10.5136
▁எழுதியுள்ளார்	-10.5137
▁மாநிலங்களவை	-10.5139
ென்ன	-10.5143
▁துரை	-10.5143
▁அதிகளவில	-10.5145
▁மஞ்ச	-10.5151
▁விளையாடிய	-10.5153
▁பிரித்து	-10.5156
▁எம்எல்ஏக்கள்	-10.5163
▁மனத	-10.5164
▁ஹோம	-10.5165
▁பிள	-10.5167
▁படியே	-10.5167
▁கடற்றொழில	-10.5173
▁அந்நிய	-10.5173
▁வைத்துள்ளது	-10.5173
▁ஈஸ்வர	-10.5174
▁உருவாகி	-10.5175
▁அதையடுத்து	-10.5176
▁வந்துள்ளனர்	-10.5179
▁பிறகுதான்	-10.5179
▁தைரியம	-10.518
▁நியமிக்க	-10.5181
▁பயன்படுத்திக்	-10.5183
▁ஆண்கள	-10.5184
▁இருப்பவர்	-10.5186
▁சூழலை	-10.5188
▁ஃபே	-10.5189
▁நேரத்தை	-10.5191
▁பேசுவது	-10.5199
▁காசு	-10.5202
ent	-10.5209
▁கலச	-10.5212
▁பதற்ற	-10.5215
▁மாய்	-10.5224
▁ஊடகவியலாளர்	-10.5226
▁விவாகரத்த	-10.5226
▁பழனிவேல்	-10.5226
த்தினர்	-10.5229
▁பழங்குடியின	-10.523
▁உருவான	-10.5231
▁வேலைகளை	-10.5231
▁தினத்தை	-10.5232
▁காவி	-10.5233
▁வாரி	-10.5242
▁சித்ரா	-10.5243
▁நினைப்ப	-10.5244
▁நெடு	-10.5247
வென	-10.5247
▁இருவரையும	-10.5249
▁விருத	-10.5251
▁அதிர	-10.5257
▁புவி	-10.5258
▁மனுக்கள	-10.5259
▁ஒவ்வொருவர	-10.526
▁காரணங்கள	-10.526
▁குத்தி	-10.5261
▁கடைகள்	-10.5271
▁அறிகுறிகள்	-10.5274
▁நிலைப்பாடு	-10.5279
▁மனோஜ்	-10.5279
▁பணிபுரிய	-10.528
▁நுழைவு	-10.5283
▁வெளியிட்டது	-10.5283
▁கருத்துகள்	-10.5288
▁உக்ரைனில	-10.529
▁பொருள்களை	-10.5291
▁கொரியா	-10.5293
▁இருக்கின்ற	-10.5294
▁பறித்த	-10.5295
▁சுமை	-10.5295
▁நாள்களுக்கு	-10.5297
▁கேட்டது	-10.5298
▁மோடிக்கு	-10.53
▁வழங்கியது	-10.5305
▁பதிவில்	-10.5305
▁குத்த	-10.5305
▁கேள்விகளை	-10.5306
▁விஞ்ஞானி	-10.5311
▁தவறி	-10.5312
▁உதாரண	-10.5315
▁க்கூடும்	-10.5316
▁பிளவு	-10.5317
▁விஞ்ஞானிகள்	-10.5319
▁ிப்பத	-10.532
▁பாஜகவினர்	-10.5327
▁முயற்சித்த	-10.5327
▁குடியுரிமை	-10.5333
▁சமாஜ்வாதி	-10.5333
▁சுவாரஸ்ய	-10.5333
▁ஸ்மார்ட்	-10.5333
▁விரும்புகிறேன்	-10.5333
▁பிறப்பிக்க	-10.5333
▁சீசனில	-10.5334
▁பகல்	-10.5334
▁சமூகத்தினர	-10.5337
▁ஈர்த்த	-10.5339
▁திருப்பணி	-10.5339
▁&	-10.5339
▁பவார்	-10.5341
▁போதைப்	-10.5347
▁செய்திருந்தார்	-10.5349
▁முருகன	-10.5351
▁மறுப்பு	-10.5353
▁நூல	-10.5353
▁விட்டோம்	-10.5353
▁கையை	-10.5356
ப்புற	-10.5357
▁தருவதாக	-10.5358
▁தமிழ்நாட்ட	-10.5363
▁அசத்த	-10.5364
▁கட்சிகளுக்கு	-10.5367
▁விவகார	-10.5369
▁கள்ள	-10.5372
▁சொல்லிக்	-10.5379
▁7:	-10.538
▁10-	-10.5382
▁ஆய்வில்	-10.5383
▁சாட்டி	-10.5384
▁தூய்மை	-10.5386
▁ாவிட்டால்	-10.5386
▁புதன்கிழமை	-10.5387
▁சச்சின்	-10.5387
▁பந்துவீச	-10.5388
▁தொடர்ச்சி	-10.5389
▁6:	-10.5389
▁விவரிக்க	-10.5389
▁வெளியாகியுள்ள	-10.5397
▁வைத்துள்ளார்	-10.5397
▁உத்தரப்	-10.5398
▁தியாகராஜன்	-10.5398
காளியம்மன்	-10.5401
▁இறைவன	-10.5408
▁99	-10.541
▁நபரை	-10.5412
தொழில்	-10.5414
▁கூறப்பட	-10.543
▁டாப்	-10.5436
▁அடுத்தடுத்த	-10.5439
▁நிலக்கரி	-10.5441
▁சாம்பியன	-10.5441
▁துரித	-10.5441
▁டாஸ்மாக்	-10.5441
▁சேகரித்த	-10.5441
▁தூதுவர்	-10.5442
▁அணிந்த	-10.5448
▁பெருக்க	-10.545
▁பார்க்கும்போது	-10.5452
▁பிரச்னையை	-10.5465
▁ாராம்	-10.5473
▁வேறுபாடு	-10.5474
▁வெளியிட்டார்	-10.5475
ப்பட்டுள்ளதாக	-10.5475
▁விலிருந்த	-10.5476
▁வந்ததாக	-10.5485
▁விக்கெட்டு	-10.5494
▁பிற்பகல	-10.5495
▁மாற்றுத்திறனாளி	-10.5495
▁பந்துவீச்சில	-10.5495
▁மாணிக்க	-10.5495
▁அகமது	-10.5495
ிவிடும்	-10.5495
▁ஆலோசனைக்	-10.5496
▁நெஞ்ச	-10.5506
▁பரவிய	-10.5508
▁சேகர்	-10.5508
▁ஈர்க்க	-10.5512
▁திறமைய	-10.5516
▁கமிஷனர	-10.5521
▁நகரங்களில	-10.5521
▁2019-	-10.5531
▁சுட்டுக்	-10.5532
ட்டோ	-10.5533
▁ஜீவ	-10.5533
▁அடிப்படையாக	-10.5535
▁ஒருங்கிணைப்ப	-10.5537
▁முடிவெடுத்த	-10.5537
▁ஹோட்டல	-10.5538
▁சகல	-10.5541
▁சேவையை	-10.5544
▁பயப்பட	-10.5546
▁வெளியாகிய	-10.5547
▁அரசியலுக்கு	-10.5547
▁மாநிலங்களுக்கு	-10.5549
▁on	-10.5549
▁போவதில்லை	-10.5549
▁ஒப்படைத்த	-10.5549
▁மேன்	-10.5551
பன்னீர்செல்வத்த	-10.5551
▁மாதத்திற்கு	-10.5552
▁கழ	-10.5552
▁அனுபவித்த	-10.5555
▁நாங்க	-10.5555
▁எனக்குத்	-10.5564
▁காட்சிகளை	-10.5564
▁மறுசீரமைப்பு	-10.5564
▁எதிர்ப்பை	-10.5567
▁தையடுத்து	-10.5569
▁வரித்துறை	-10.5569
▁ஆய்வ	-10.5571
காசி	-10.5574
ஒ	-10.5574
▁பொறுப்பை	-10.5579
▁வாரங்களுக்கு	-10.5588
▁மாகும்	-10.5588
▁அறிவிப்பை	-10.5589
▁நிறுவனர்	-10.5591
▁கார்த்திக	-10.5596
▁நிஜ	-10.5598
▁ஓவர்கள்	-10.5599
▁ஒடிசா	-10.5602
▁இடஒதுக்கீடு	-10.5604
▁கண்காணித்த	-10.5604
▁தட்டுப்பாடு	-10.5604
▁நிராகரித்த	-10.5604
▁ஆச்சர்ய	-10.5604
▁மெட்ரோ	-10.5604
▁சேகரிக்க	-10.5604
▁கனிமொழி	-10.5605
▁உண்ண	-10.5605
ாதிபதி	-10.5606
▁கிராமப்புற	-10.5607
▁கிண்டல	-10.5608
▁அகதிகள	-10.5608
▁விருந்த	-10.5608
▁முன்னேறி	-10.5612
▁விவரங்கள்	-10.5613
▁டாடா	-10.5615
ப்பிடி	-10.5616
▁தெரிவு	-10.5616
▁பேசிக்	-10.5616
▁மூடப்பட்ட	-10.5617
▁இளைய	-10.5619
▁வேண்ட	-10.5619
▁சின்னம்	-10.5619
▁அறிவித்துள்ளார்	-10.5622
▁ுவேன்	-10.5626
▁இவற்றை	-10.5627
▁அவங்க	-10.5629
▁செய்துகொண்ட	-10.5632
▁விகடன்	-10.5635
▁முன்வைத்து	-10.5636
▁சரிந்த	-10.5637
▁J	-10.5642
▁வேல்	-10.5642
▁சிறப்ப	-10.5651
▁சிறுத்தைகள்	-10.5652
ுநர்	-10.5652
▁யாரை	-10.5653
▁600	-10.5655
▁தெரிவித்துக்	-10.5657
▁அம்பேத்கர்	-10.5658
z	-10.566
▁பராமரிக்க	-10.566
▁பிரசித்தி	-10.566
▁கொங்கு	-10.566
12	-10.566
▁தழுவ	-10.5661
▁கங்கை	-10.5661
▁தங்கியிருந்த	-10.5662
▁வீரர	-10.5674
ந்தோ	-10.5679
▁பங்கேற்ப	-10.5682
▁கூலி	-10.5686
▁முழுவதும	-10.5686
▁குளம்	-10.569
▁பாய்ந்த	-10.5691
▁பண்டார	-10.5694
▁வைப்பது	-10.5711
▁சதம்	-10.5715
▁வாக்குவாதம்	-10.5715
▁முதல்முறையாக	-10.5715
▁பயன்பாடு	-10.5715
▁கொரோனாவ	-10.5721
▁நஷ்ட	-10.5725
▁ஆதீனம்	-10.5731
▁மீட்புப்	-10.5734
▁அறிவிக்கப்பட	-10.5734
▁விடுத்துள்ளார்	-10.5735
▁இந்தியர்கள	-10.5737
▁கல்வெட்டு	-10.574
▁ரூபாயை	-10.5741
▁மனுவில்	-10.5743
▁பட்டின	-10.5744
▁சவால	-10.5745
▁க்கார	-10.5746
▁அல்லாத	-10.5752
▁வழங்கப்படுகிறது	-10.5755
▁முகாம்கள	-10.5755
▁குடும்பத்தில	-10.576
▁வைகோ	-10.5761
▁படங்கள	-10.5763
▁சேவ	-10.5765
▁திருவா	-10.5767
▁ஆர்வம	-10.5767
▁பீகார	-10.5768
▁நாள்கள்	-10.5768
▁கள்ளச்சாராய	-10.5771
▁வழிநடத்த	-10.5771
▁வேட்புமனு	-10.5771
▁சுற்றுப்பயண	-10.5771
▁விஜயகாந்த்	-10.5771
▁நியூயார்க்	-10.5771
▁உண்டியல	-10.5771
▁தனிப்படை	-10.5771
▁ஊற்றி	-10.5772
▁ிருந்தன	-10.5776
▁திருமலை	-10.5778
▁அமைப்பினர	-10.578
▁அள்ளி	-10.5782
▁விருந்து	-10.5786
▁தேர்தலுக்கா	-10.5793
▁நிறுவனம	-10.5796
▁எடுத்தார்	-10.5797
▁பிணை	-10.5798
▁வெச்ச	-10.5804
▁மேற்கொண்டார்	-10.5805
▁காடுகள	-10.5812
▁சிறுமியை	-10.5819
▁பிரதம	-10.5819
▁சிக்கல்கள்	-10.5826
▁இடைத்தேர்தல	-10.5827
▁ஆன்மீக	-10.5827
▁பதிவான	-10.5828
▁பெறுவது	-10.5828
▁ஆண்டின	-10.5831
▁ுள்ளேன்	-10.5834
▁அளிக்கப்பட்டது	-10.5836
▁சீசன்	-10.5837
▁அதிகரிப்பு	-10.584
▁மனைவியை	-10.5845
ுகிறோம்	-10.5845
▁நல்லா	-10.5848
▁சங்கட	-10.5848
▁விதிகளை	-10.585
▁ின	-10.5854
▁வேண்டுகோள்	-10.5861
▁தோண்ட	-10.5865
▁வாழ்க	-10.5866
▁இந்தியாவிற்கு	-10.5871
▁தரிசன	-10.5876
▁டன	-10.5877
▁யிலிருந்த	-10.5878
▁இன்னிங்ஸ	-10.5883
▁அரையிறுதி	-10.5884
▁தேவஸ்தான	-10.5884
▁சதீஷ்	-10.5884
▁சூதாட்ட	-10.5884
▁ஆதரித்த	-10.5884
▁உறுதியளித்த	-10.5885
▁எதிர்ப்ப	-10.5888
▁இவ்வாறான	-10.5891
▁ரேஷன	-10.5892
▁காஸாவ	-10.5895
▁கோவிலை	-10.5901
▁மகனை	-10.5906
▁சாதனையை	-10.5907
▁வழங்கப்பட்டு	-10.5911
▁நிறுவனங்களை	-10.5911
▁ஊழியர்களுக்கு	-10.5912
▁அற்புத	-10.5923
▁கும்பல	-10.5925
▁அவர்களால்	-10.5929
▁சென்றுவிட்ட	-10.5929
▁குர்	-10.5932
▁தேவைப்படும்	-10.5932
▁டர்	-10.5933
▁பள்ள	-10.5934
▁1000	-10.5935
▁எலி	-10.5936
▁டான்	-10.5936
▁வீழ்த்திய	-10.5936
▁சுட்டிக்காட்டின	-10.5938
▁களமிறக்க	-10.5941
▁சல்மான்	-10.5941
▁கிராமங்களில	-10.5941
▁கணினி	-10.5941
▁கதவை	-10.5941
▁பரிதாப	-10.5941
▁இறைச்சி	-10.5943
▁கூறியதாவது	-10.5943
▁பழகி	-10.5945
▁ஜெயந்தி	-10.5945
▁யோகா	-10.5947
▁ஏமாற்றி	-10.5949
▁ஒத்துழைப்ப	-10.5952
▁விடலாம்	-10.5952
▁அமெரிக்காவில	-10.5969
▁உறவுகள்	-10.5972
▁விதிகள்	-10.5975
▁குடிக்க	-10.5977
▁கண்டி	-10.5983
▁அனுமதிக்கப்பட	-10.5987
▁விடுவார்கள்	-10.5988
▁அழைக்கப்பட்ட	-10.5991
▁BBC	-10.5998
▁இபிஎஸ்	-10.5998
▁கிருஷ்ணகிரி	-10.5999
▁1-	-10.5999
▁செய்கிற	-10.6003
▁ராஜன்	-10.6003
▁ரிஷி	-10.6006
▁விடுகிறது	-10.6006
▁மாஸ்டர்	-10.6007
▁பிளே	-10.6017
▁நிவாரணம்	-10.6021
▁ed	-10.6047
▁யெல்லாம்	-10.6047
▁உணர்ச்சி	-10.6055
▁குற்றம்சாட்டிய	-10.6055
▁இல்லாவிட்டால	-10.6055
▁நேர்காணல	-10.6055
▁மரபணு	-10.6055
▁மிதமான	-10.6055
▁தனுஷ்	-10.6055
▁பாண்டிய	-10.6056
▁ஹாரிஸ	-10.6057
▁கதிர்	-10.6057
▁வலது	-10.6059
▁விவாதங்கள	-10.6062
▁மூச்சு	-10.6064
▁நொடி	-10.6066
▁அளிக்கிறது	-10.6067
▁மைல்	-10.6069
▁தொல்ல	-10.6073
▁செய்யாத	-10.6073
▁மானது	-10.6074
▁ஆர்டர்	-10.6076
▁அடிப்படையில	-10.6085
▁குறிப்பு	-10.6087
▁லோக	-10.6089
மோகன்	-10.609
ment	-10.6093
▁பல்கலைக்கழகம்	-10.6093
▁யானைகள்	-10.6093
▁கிளம்பிய	-10.6094
▁அதுவே	-10.6095
யொரு	-10.6099
▁4-	-10.6099
▁போகிற	-10.6104
▁வாங்கிக்	-10.6108
▁குறிவைத்து	-10.6113
▁செய்பவர்கள	-10.6113
▁அதிர்ச்சியடைந்த	-10.6115
தீன்	-10.6115
ந்திரபாபு	-10.6116
▁பிரியாணி	-10.6117
▁மார்ப	-10.6121
▁பாருங்கள்	-10.6123
▁நுபு	-10.6124
▁முதலீட்டாளர்கள	-10.6124
▁பழங்குடியினர	-10.6125
▁அமைச்சகத்த	-10.6127
▁9:	-10.6128
▁காளை	-10.613
▁காணப்படுகிறது	-10.6137
▁தானா	-10.6137
▁குழப்பம்	-10.6137
▁திருத்தம்	-10.6138
▁வகையில	-10.6148
▁யாராவத	-10.6149
▁தீர்மானத்தை	-10.615
▁வற்ற	-10.615
▁மாவட்டத்தை	-10.6152
▁ஆட்கள	-10.6159
▁பேச்சை	-10.6161
▁சுவை	-10.6168
▁தொங்க	-10.617
X	-10.6171
▁வடகிழக்க	-10.6171
▁ஆர்சிபி	-10.6171
▁தஞ்சை	-10.6171
▁அதனைத்	-10.6173
▁பெண்ணுக்கு	-10.6175
ச்சேரி	-10.6177
▁பணியிடங்கள	-10.6177
▁திமுகவை	-10.6179
▁சோம	-10.6181
▁எல	-10.6185
ீஸ்வர	-10.6193
▁நிறுவனத்திற்கு	-10.6199
▁சுவர்	-10.6207
▁இரவ	-10.6216
▁்கி	-10.6218
▁குற்றம்சாட்டி	-10.622
▁நிர்வாண	-10.623
▁கூட்டுறவு	-10.623
▁ஜிஎஸ்டி	-10.623
▁மலையாள	-10.623
▁மேற்கொள்வத	-10.623
▁புரிதல	-10.6231
▁தீர்ப்பளித்த	-10.6231
▁நோயாளி	-10.6232
▁ஆறுமுக	-10.6232
▁கரி	-10.6235
▁யோசித்த	-10.6236
22	-10.6237
▁வயல	-10.6239
▁பெங்களூர	-10.6241
▁வரம்ப	-10.6242
▁ாததால்	-10.6242
யில்லாத	-10.6253
▁பரா	-10.626
▁நீங்கள	-10.626
▁ஒளிபரப்ப	-10.6261
▁உள்ளவர்கள்	-10.6262
▁வெளிநாட்ட	-10.6266
▁முகமை	-10.6268
▁துயர	-10.627
▁யெ	-10.6271
25	-10.6271
▁செலுத்தினர்	-10.6273
▁விமர்சனங்களை	-10.6276
▁தொடங்கியுள்ளது	-10.6277
▁சாப்பிட்டு	-10.6278
▁முதலீட்டு	-10.628
▁சொன்னா	-10.6281
▁ஊக்குவிக்க	-10.6288
▁யாழ்ப்பாண	-10.6288
▁ஆர்எஸ்எஸ்	-10.6288
பட்ச	-10.6288
▁துல்லியம	-10.6289
▁மீதமுள்ள	-10.6289
▁கெடு	-10.6303
▁உயிரிழந்தனர்	-10.6306
▁வளர்ப்ப	-10.6313
▁நிலையான	-10.6317
▁கொள்கிறார்	-10.6322
▁அதிபராக	-10.6323
▁மறுத்து	-10.6323
▁உரிமையை	-10.6326
▁அர்த்தம்	-10.6329
▁யாதவ	-10.6338
▁அறிவுறுத்திய	-10.6345
▁கிளப்பி	-10.6346
▁தெளிவுபடுத்த	-10.6348
▁ஆங்காங்க	-10.6348
▁பொலிஸ்	-10.6348
▁தாழ்வ	-10.6348
▁வியூக	-10.6348
▁துரைமுருகன்	-10.6348
▁கன்னட	-10.6349
▁பாதித்த	-10.6349
▁வசூலிக்க	-10.6351
▁வாயு	-10.6352
▁சலுகை	-10.6353
▁கோர்ட்	-10.6353
▁ஒடுக்க	-10.6355
▁பெறப்பட்ட	-10.6356
▁கிடைக்கிறது	-10.6356
▁கேட்	-10.6356
▁விக்கெட்டை	-10.6359
▁Re	-10.6362
▁விளாசி	-10.6367
▁உரிமைகளை	-10.6371
▁கச்சா	-10.6378
▁கூட்டங்கள	-10.6378
▁திறன	-10.638
▁காயங்கள	-10.6381
▁ிருப்பதாகவும்	-10.6383
▁வேளை	-10.6386
▁அம்மன	-10.6386
▁ரெடி	-10.6388
▁கமல	-10.6392
▁தொடக்கம்	-10.6398
ணர்வு	-10.6401
▁முதலீட்ட	-10.6405
▁ஜார்க்கண்ட்	-10.6407
▁புறக்கணித்த	-10.6407
▁ஆன்மிக	-10.6407
▁நோய்கள்	-10.6413
▁2009	-10.6413
▁நகைகளை	-10.6417
▁மறைக்க	-10.6425
▁ரன்களுக்கு	-10.6426
▁வாடி	-10.6426
▁மருந்த	-10.6427
▁கொண்டால்	-10.6428
▁பகுதியில	-10.6431
▁பேசுகிறார்	-10.6434
▁தகராறு	-10.6438
▁பேசியுள்ளார்	-10.6439
▁தோஷ	-10.6447
▁கிறிஸ்	-10.6451
▁தரப்புக்கு	-10.6452
▁வளர்ப்பு	-10.6459
▁திருவாரூர்	-10.6467
▁தேயிலை	-10.6467
▁எகிப்த	-10.6467
▁இஸ்ரோ	-10.6467
▁டேவிட்	-10.6467
▁கிங்ஸ்	-10.6467
▁உடம்ப	-10.6468
▁திருப்தி	-10.6468
▁பக்கத்து	-10.6468
▁அசாம்	-10.6469
▁ஒன்றுக்கு	-10.6472
▁பொறியாளர	-10.6473
▁அதிலிருந்த	-10.6473
▁நடராஜர	-10.6474
▁ஆராய்ந்த	-10.6475
▁வாதம்	-10.6478
▁மதத்தை	-10.6478
▁தாயார	-10.6483
▁(3	-10.6485
▁43	-10.6485
▁ரோடு	-10.6489
▁பெற்றுள்ளார்	-10.649
▁தாக்குதல	-10.6492
▁குழுவில	-10.6494
▁தருமபுர	-10.6494
▁ஒத்தி	-10.6495
ிறீர்கள்	-10.6496
▁யினை	-10.6497
▁ியுள்ளது	-10.6497
▁வரலாற்றை	-10.6498
▁பொறுப்பாளர	-10.6498
குறிப்பிடுகிறார்	-10.65
▁ஈடு	-10.6504
▁டிரைவர்	-10.6505
▁கட்சிகளும	-10.6509
▁குறைந்துள்ளது	-10.651
▁குழி	-10.6512
▁7-	-10.6515
டெங்கு	-10.6526
▁அவற்றில	-10.6527
▁இளங்கோ	-10.6527
▁துபாய்	-10.6527
▁இப்பகுதி	-10.6528
▁தேங்காய	-10.6528
▁காரணத்தால்	-10.6528
▁குரூப்	-10.653
▁கவலைப்பட	-10.6532
▁நோக்கமாக	-10.6532
▁தேசம்	-10.6538
▁நண்பர	-10.6538
▁நெருக்கடியை	-10.6542
▁பலியான	-10.6545
பாணி	-10.6545
▁உயிருக்கு	-10.6546
▁வீடுகளை	-10.6547
▁களமிறங்க	-10.6549
▁பிறகே	-10.6554
▁தெரிவிக்கும்	-10.6556
▁சுமத்த	-10.656
▁மாற்றங்களை	-10.6571
▁செய்திகளை	-10.6576
▁ஆவார்	-10.6579
▁படிப்பை	-10.6579
▁மையத்த	-10.658
▁சரக்கு	-10.658
▁பயம்	-10.6583
▁படங்களில	-10.6584
▁எதிர்காலம்	-10.6588
▁சமூகவலைதள	-10.6588
▁சனிபகவான	-10.6588
▁உழைத்த	-10.6588
▁இயல்பு	-10.6588
ive	-10.659
▁சாத்தியம்	-10.6598
40	-10.6598
▁பொதுச்செயலாளர	-10.6601
குமார	-10.6609
▁வனத்துறையினர	-10.6609
▁ஸ்டெ	-10.661
▁இறை	-10.6612
▁ங்களால	-10.6614
▁மிட	-10.6617
கரமான	-10.6617
▁முனி	-10.662
▁செல்வதற்கு	-10.6621
▁அர்த்த	-10.6624
▁டோஸ்	-10.663
▁நிலைமையை	-10.6639
▁அறங்காவலர்	-10.6649
▁தொழிலதிபர்	-10.6649
▁யூடியூப்	-10.6649
▁உபயோக	-10.6649
▁மோட்டார்	-10.6649
▁பரந்த	-10.6649
▁குணவர்தன	-10.6649
▁எதிர்கட்சி	-10.665
▁பரிகார	-10.665
▁சீனியர்	-10.665
▁இழக்க	-10.6651
▁சூழ	-10.6652
▁முகவரி	-10.6652
▁வெகுவாக	-10.6652
▁சீட்டு	-10.6655
லைட்	-10.666
▁பத்தாம	-10.666
▁ஆயிர	-10.6661
▁பொருளாளர	-10.6661
▁வலுவாக	-10.6663
▁விசாரணையின்	-10.6665
▁தொகுப்பு	-10.6666
▁ஹெலிகாப்டர்	-10.6669
▁சாவி	-10.6671
▁நிலுவையில	-10.6672
▁ஆளுநருக்கு	-10.6673
▁திமுகவில்	-10.6677
▁பேண	-10.668
▁படப்பிடிப்பு	-10.668
▁அமைச்சரும	-10.6681
ப்போகிறார்	-10.6681
▁சர்வ	-10.6683
▁உண்மையை	-10.6683
▁வெளிநாடுகளில	-10.6686
▁கிருஷ்ணன்	-10.6686
▁விலகிய	-10.6687
▁தவித்த	-10.669
▁ரீதியாகவும்	-10.6691
▁ஆகிவிட்ட	-10.6691
▁ஆகியோருக்கு	-10.6696
▁அவிநாசி	-10.671
▁ஆம்புலன்ஸ	-10.671
▁உத்தரகாண்ட்	-10.671
▁தேர்ந்தெடுத்த	-10.671
▁தீட்சிதர்	-10.671
▁காவலர்கள்	-10.671
▁பரிமாற்ற	-10.671
▁மட்டுமல்லாது	-10.6711
▁கைதுசெய்த	-10.6714
▁கணித்த	-10.6719
▁துப்பாக்கிச்	-10.6719
▁இங்கிலாந்த	-10.6722
▁செயல்பாடுகள	-10.6723
▁நெறி	-10.6723
▁ஆப்கானிஸ்தான	-10.6726
▁செய்வதில்	-10.6727
▁பூரி	-10.6732
▁சாய	-10.6735
னூர்	-10.6735
▁சம்பவத்தில	-10.6738
▁இன்ஸ்பெக்டர்	-10.6741
▁வங்கிகள்	-10.6743
▁திறனை	-10.6747
▁பெருமான	-10.6749
▁st	-10.6753
▁வைத்துள்ளனர்	-10.6755
▁அடங்கும்	-10.6761
▁பகுதிகளுக்கு	-10.6762
▁மாவட்டங்கள்	-10.6763
▁செலவிட	-10.6765
▁புத்தாண்டு	-10.6767
▁வீரர்களுக்கு	-10.6768
▁கொண்டுள்ளார்	-10.677
▁த்தன	-10.6771
▁எடுக்கவில்லை	-10.6772
▁உபகரணங்கள	-10.6772
▁கூட்டத்தொடர	-10.6772
▁பிரசாந்த	-10.6772
▁நேர்த்திக்கடன	-10.6772
▁குடியேற	-10.6772
▁மகிழ்ச்சியை	-10.6773
▁குதித்த	-10.6779
▁நான்காம	-10.678
▁அனுமதித்த	-10.6781
▁அதிகரித்துள்ள	-10.6781
▁மின்னல	-10.6782
▁பாடல்கள்	-10.6782
▁ஒழுங்க	-10.6786
▁த்தையும்	-10.6791
▁வளர்ச்சியை	-10.68
▁விடுவிக்கப்பட்ட	-10.6801
▁ரண	-10.6803
▁அரசியலமைப்ப	-10.6805
▁உடலுக்கு	-10.6807
▁போவது	-10.6807
▁கண்டுபிடிப்ப	-10.6807
▁வேலுமணி	-10.6809
▁மாற்றிக்	-10.6816
▁நாராயணன்	-10.6817
▁அகல	-10.6817
▁பொறுப்பில்	-10.6818
▁நாசா	-10.6821
வாலா	-10.6824
▁6-	-10.6829
▁எழுதப்பட்ட	-10.683
▁வந்திருக்கிறது	-10.683
▁முன்னெச்சரிக்கை	-10.6834
▁ுவோர	-10.6835
▁விரல	-10.6844
▁இயற்ற	-10.6844
▁மறுபடி	-10.6845
▁புத்தகத்தில்	-10.6851
▁நந்த	-10.6851
▁காவல்துறையினர	-10.6854
வாசல்	-10.6854
▁பாரிய	-10.6857
▁கிளப்பிய	-10.6857
▁ஒழி	-10.6859
▁தடவை	-10.686
▁நுழை	-10.6862
▁விடயங்கள	-10.6863
▁வளாகத்த	-10.6877
▁தட்டு	-10.6883
▁கவனத்த	-10.6896
▁கற்பனை	-10.6896
▁சரஸ்வதி	-10.6896
▁நுண்ணறிவ	-10.6896
▁முதன்முதல	-10.6896
▁நிர்மாண	-10.6897
▁காமெடி	-10.6897
▁யாகசாலை	-10.6897
▁நம்பிய	-10.6899
▁ுள்ளதால்	-10.6902
▁தேவைப்பட்ட	-10.6904
▁இறுதியாக	-10.6907
▁விவரித்த	-10.6907
▁வரியை	-10.6907
▁ராஜேஷ்	-10.6908
▁பணியாளர்	-10.6916
▁வேகம்	-10.6921
▁வெளியாகும்	-10.6926
▁2020-	-10.6927
▁உறவினர்கள	-10.6928
வியத்	-10.693
▁அமைப்புகள	-10.693
▁வயிற்று	-10.6931
▁சொல்கிறது	-10.6933
▁கார்ட	-10.6935
▁தயாரிப்பாளர்	-10.6935
▁கொண்டுவரப்பட்ட	-10.6935
▁வாலி	-10.6943
▁பகிரப்பட்ட	-10.6944
▁ஜார்ஜ	-10.6946
▁பரவும்	-10.6952
▁எடுத்துக்கொண்ட	-10.6953
▁தடைகளை	-10.6959
பெற	-10.6959
▁கண்டித்த	-10.6959
▁செயற்குழு	-10.6959
▁உடற்பயிற்சி	-10.6959
▁நெகிழ்ச்சி	-10.6959
▁எலிசபெத்	-10.6959
▁பொறுமை	-10.696
▁தெரிந்தது	-10.6967
▁தயாரித்த	-10.6971
▁கொள்ளவில்லை	-10.6975
▁பயந்து	-10.6975
▁பொழுது	-10.6976
▁எவர	-10.6982
▁புகழ	-10.6983
▁ஆராதனை	-10.6983
▁வெளியேறும்	-10.6986
▁கோரிக்கைகளை	-10.6988
▁பேசியபோது	-10.6992
▁நைட்	-10.7007
▁வைத்துள்ள	-10.7018
▁வருபவர்	-10.7019
▁மீம்ஸ்கள	-10.7019
▁நவராத்திரி	-10.7023
▁2010	-10.7023
▁மார்க்கெட்	-10.7023
ot	-10.7025
▁பெறலாம்	-10.7025
▁நத்தம்	-10.7025
▁பிடிஆர்	-10.7029
ினாலும்	-10.7029
▁தெரிவிக்கிறது	-10.7031
▁வெற்றிபெற்ற	-10.7033
▁தலைவி	-10.7036
▁கொண்டேன்	-10.704
▁வாகனங்கள	-10.704
▁வெறி	-10.7046
▁செலவுகள்	-10.7046
▁பொதுமக்களுக்கு	-10.7057
▁அப்போ	-10.7057
▁கல்வித்துறை	-10.7061
▁யுள்ளது	-10.7062
▁கொள்கிறார்கள்	-10.7066
பொழுது	-10.7069
▁தாள	-10.7071
▁மணல்	-10.7074
▁விநியோகம்	-10.7077
▁கிருஷ்ணா	-10.7081
▁சுவாச	-10.7083
▁தாங்கி	-10.7083
▁நிறைவேற	-10.7085
▁சிட்டி	-10.7085
▁அரண்மனை	-10.7086
▁அலட்சிய	-10.7086
▁பரிவர்த்தனை	-10.7086
▁வல்லுநர்கள்	-10.7086
▁வெங்காய	-10.7086
▁தெரிவிப்ப	-10.7088
▁ாதீர்கள்	-10.709
▁பேரரச	-10.709
▁ஈடுபடுத்த	-10.7092
▁இருந்ததை	-10.7096
▁இப்படித்தான்	-10.7097
▁மாஜி	-10.7105
▁பிடிப்ப	-10.7105
▁கழகத்தின	-10.7107
▁உரிம	-10.7108
▁அளித்துள்ளது	-10.7109
▁கோப்பையை	-10.7113
▁தலங்கள	-10.7122
யம்மன்	-10.7135
▁யுடன	-10.7136
வெல	-10.7139
▁டாஸ்	-10.7143
அழகிரி	-10.7145
▁கரும்பு	-10.7146
▁விவரம்	-10.7147
▁நிதியை	-10.7148
▁கட்டியெழுப்ப	-10.715
▁எளிமையா	-10.715
▁கடினம்	-10.715
▁குழுமத்த	-10.7151
▁th	-10.7152
▁மகிழ்ச்சிய	-10.7155
▁அளிப்பத	-10.7156
▁சைவ	-10.7157
▁58	-10.7159
▁புகாரில்	-10.716
▁நிம்மதி	-10.7164
▁புரோ	-10.7164
▁வளர்த்து	-10.7166
▁கண்காணிப்ப	-10.717
▁தண்ணீரை	-10.7173
▁போற்ற	-10.7176
▁போட்டியின்	-10.7177
▁கிமீ	-10.7178
▁படையினர	-10.7178
▁விஸ்வநாத	-10.7184
▁விட்டதாகவும்	-10.7194
▁ஆர்வத்த	-10.7195
▁உத்தி	-10.72
நாடு	-10.7201
▁பேசுவத	-10.7204
▁யையும்	-10.7209
▁ஆர்வலர்கள்	-10.7215
▁சலசலப்ப	-10.7215
▁தனிநபர்	-10.7215
▁உட்கட்சி	-10.7215
▁இதேவேளை	-10.7218
▁கோட்	-10.7229
▁எட்டி	-10.724
▁விரிவாக்க	-10.7241
▁ஸுக்கு	-10.7244
▁மாடுகள	-10.7245
▁செய்வதை	-10.7247
▁கபில	-10.7247
▁மீண்டு	-10.7249
▁ஏற்பட்டால்	-10.7249
▁கூறியதாக	-10.7254
▁5,000	-10.7274
▁சுவாமிக்கு	-10.7277
▁தொழிற்	-10.728
▁அர்ச்சகர்	-10.728
▁நீரிழிவு	-10.728
▁அரைசத	-10.728
▁கோளாறு	-10.728
▁புகாரளித்த	-10.7281
▁ஆர்ப்பாட்டம்	-10.7283
▁ண்டு	-10.7284
▁போனார்	-10.7285
▁போன்றவற்ற	-10.7285
▁கனி	-10.7306
ாலேயே	-10.7308
▁இடம்பெற்றது	-10.7314
ப்படுகின்றது	-10.7315
▁சவால்களை	-10.7316
ng	-10.7316
▁விண்ணப்பித்த	-10.7323
▁செய்யுங்கள்	-10.7325
இந்தியா	-10.7335
▁யாரோ	-10.7341
▁கேட்டால்	-10.7343
▁அவதூறு	-10.7345
▁கூற்றுப்படி	-10.7345
▁கர்ப்பிணி	-10.7345
▁மாதவிடாய	-10.7346
▁பிரவேச	-10.7346
▁பற்ற	-10.7347
▁பிரேசில	-10.735
▁விலும்	-10.7355
▁கடிதத்த	-10.736
▁அளித்தனர்	-10.7363
▁நடிகர	-10.7365
▁அலுவலகத்திற்கு	-10.7365
▁கவர்னர	-10.7367
▁ஒப்பந்தத்த	-10.7368
▁சைப	-10.7368
▁களுடன	-10.7376
▁பெறுவதற்கு	-10.7377
▁வகைகள்	-10.7394
▁அய்ய	-10.74
▁காலகட்ட	-10.7401
▁கருதப்படும்	-10.7402
▁மிரட்டிய	-10.7404
▁தீவிரப்படுத்த	-10.7409
▁சுயேச்சை	-10.7411
▁கைதுசெய்யப்பட்ட	-10.7411
▁எழுச்சி	-10.7411
புரட்டாசி	-10.7412
▁பிரதிஷ்ட	-10.7414
▁தேவையற்ற	-10.7415
▁பலியாகி	-10.7416
▁கணிக்க	-10.7418
▁டார்	-10.7419
▁உணர்த்த	-10.7419
▁நலனுக்க	-10.7426
▁கேள்விகளுக்கு	-10.7427
▁போராடிய	-10.7441
▁சாந்த	-10.7442
▁பெறுவத	-10.7444
▁உருவாகும்	-10.7445
▁தருமபுரி	-10.7447
▁காரணங்களால	-10.746
▁தெரிவிக்கின்ற	-10.7463
▁போருக்கு	-10.7464
▁தயாரித்து	-10.7465
▁உத்தரவிட	-10.7465
▁நடமாட	-10.7466
ஆர	-10.7477
▁திருநங்கை	-10.7477
▁அறுவடை	-10.7477
▁செல்கின்றனர்	-10.7477
▁வேடிக்கை	-10.7477
▁2012	-10.7481
▁சிவாஜி	-10.7483
ேஸ்வரி	-10.7484
▁வளர்ச்சிக்கு	-10.7485
▁உயர்த்தப்பட்ட	-10.7488
▁சாசன	-10.7489
▁பறக்கும்	-10.7493
▁ரசிகர்களுக்கு	-10.7495
▁பொருள்கள்	-10.7495
▁குன்ற	-10.7506
▁வர்களாக	-10.7507
▁ஒன்றிணைந்த	-10.7508
▁பெல	-10.751
▁நாவல	-10.7514
▁வாகனங்களை	-10.7517
▁சொன்னால்	-10.7522
▁சேவைகளை	-10.7522
▁மல்ல	-10.7525
▁ஃபெ	-10.7525
▁வழிபாட்டு	-10.753
▁வாரியம்	-10.7531
டீ	-10.7535
▁மவு	-10.7537
▁கிளர்ச்சி	-10.7539
▁நினைவில்	-10.7543
▁அபாயம்	-10.7544
▁நல்லிணக்க	-10.7544
▁பழிவாங்க	-10.7544
▁வாழ்நாள	-10.7544
▁பாகுபாடு	-10.7544
▁பந்துவீச்சு	-10.7544
▁கோதுமை	-10.7544
▁மயமாக்க	-10.7544
▁கடக்க	-10.7545
▁பாண்டி	-10.7547
▁தயங்க	-10.7549
▁01	-10.7551
▁சிங்கள	-10.7552
▁தொழில்துறை	-10.7553
▁மேலாளர	-10.7554
▁தோழி	-10.7554
▁நடப்பு	-10.7554
▁மேற்கொள்	-10.756
ாற்று	-10.7561
▁மருந்துகளை	-10.7561
▁பணக்கார	-10.7573
ிரௌ	-10.7576
▁கிளி	-10.7578
▁செல்வதை	-10.7587
45	-10.759
▁காலியாக	-10.7594
▁பக்த	-10.7597
▁le	-10.7599
▁மூலம	-10.76
▁பாருங்க	-10.7608
▁பரவியது	-10.761
▁பஞ்சாயத்து	-10.7611
▁பிரம்மாண்ட	-10.7611
▁பிரார்த்தனை	-10.7611
▁சித்தாந்த	-10.7611
▁பல்லாயிர	-10.7611
▁ஹூ	-10.7612
ீங்களா	-10.7612
▁தேவாலய	-10.7613
▁ரன்ரேட்	-10.7613
▁சேதமடைந்த	-10.7613
▁ஆழ்ந்த	-10.7613
▁பங்களா	-10.7614
▁அசைவ	-10.7614
▁யூனிட்	-10.7618
▁பிழை	-10.7619
▁2006	-10.762
▁பார்ப்பது	-10.7622
▁தத்துவ	-10.7624
▁கேலி	-10.7627
▁புரி	-10.7637
▁புகைப்படத்தை	-10.764
▁மங்கல	-10.7644
▁ஒன்றிணை	-10.7648
▁புதுவை	-10.7653
▁தொடரப்பட்ட	-10.7657
▁கூற்ற	-10.7659
▁நரம்ப	-10.7659
▁59	-10.7663
▁பிகார	-10.7663
▁சுட்டிக்காட்டிய	-10.7663
▁காண்ப	-10.7665
▁தேவர்	-10.7667
▁செய்வார்	-10.7677
▁பேட்ஸ்மேன	-10.7678
▁விரிவுபடுத்த	-10.7679
▁சுழற்சி	-10.7679
▁பௌத்த	-10.7679
▁சாகுபடி	-10.7679
▁லண்டன்	-10.7679
▁முதன்முறை	-10.7679
▁பண்ற	-10.768
▁தொழிலாளி	-10.7681
▁தற்கா	-10.7681
▁சூழ்ந்த	-10.7682
▁அந்தஸ்து	-10.7687
▁தெரியவந்த	-10.7688
▁விரும்புகிறார்	-10.7694
▁தொழிலை	-10.7697
▁சௌதி	-10.77
▁அமர்ந்திருந்த	-10.77
▁செட்டி	-10.7704
▁போட்டியாளர்கள	-10.7704
▁ஐநா	-10.7706
▁வெடிக்க	-10.7707
▁இடங்கள	-10.7708
▁பாண்டியா	-10.7709
▁ரொ	-10.7709
▁1,000	-10.7709
▁தடுமாற	-10.7712
▁நூற்றாண்ட	-10.7719
▁திமுகவுக்கு	-10.772
▁செய்வார்கள்	-10.7721
▁ஏற்படாத	-10.7722
▁திருட்டு	-10.7727
▁இல்லாம	-10.773
▁கொள்	-10.773
▁வைப்பத	-10.7731
▁தீவிரமான	-10.7741
▁அக்கா	-10.7745
▁பாபா	-10.7746
▁டொனால்ட	-10.7747
▁மதிப்பீடு	-10.7747
▁முன்பதிவு	-10.7747
▁ஹேமந்த	-10.7747
▁பிரம்மோற்சவ	-10.7747
The	-10.7747
▁காவடி	-10.7747
▁விமானப்படை	-10.7747
▁பாதுகாத்த	-10.7747
▁ப்ளே	-10.7748
▁ஏலம்	-10.7749
▁மகாலட்சுமி	-10.7749
▁இதுபோல	-10.775
▁வெளிப்படுத்திய	-10.7755
▁வரலாற்ற	-10.7755
▁அப்படித்தான்	-10.7757
▁2008	-10.7757
▁தெருவில	-10.7758
ய்யா	-10.7763
▁விடுத்தார்	-10.777
▁மறைத்து	-10.777
▁கணக்கெடுப்பு	-10.7775
▁64	-10.7779
▁பல்கலைக்கழகங்கள	-10.7785
▁எலா	-10.7788
▁பலன்கள்	-10.7789
▁பிளான்	-10.7791
▁சேர்ப்ப	-10.7793
▁தீவுகள	-10.78
▁இருந்தேன்	-10.7804
▁ஒருபுறம	-10.7805
▁பிரிக்க	-10.7805
▁அன்னை	-10.7812
▁கொடுத்துள்ளார்	-10.7813
▁அர்ப்பணிப்ப	-10.7815
▁மேற்பார்வை	-10.7815
▁நம்புகிறேன்	-10.7815
▁பேரழிவ	-10.7816
▁விற்று	-10.7816
▁துருவ	-10.782
▁செஞ்சி	-10.7823
▁கலவரம்	-10.7831
▁வாக்காளர்	-10.7832
▁சுதா	-10.7835
▁நியூஸ்	-10.7845
▁மல்லி	-10.7845
▁எதிர்த்த	-10.7846
▁கற்க	-10.7849
▁வழங்குவதற்கு	-10.7852
▁இப்போத	-10.7853
▁கழிவு	-10.7857
▁விதத்தில	-10.7858
▁காதலித்த	-10.7864
ap	-10.7865
▁உறவ	-10.7866
▁செல்லும்போது	-10.787
▁சாஹ	-10.787
▁திரவ	-10.787
▁பின்பற்றி	-10.787
▁கொள்வதாக	-10.7871
▁கொடுப்பது	-10.7874
▁செய்திருக்க	-10.7875
▁குழுவினர	-10.7876
▁சபா	-10.788
▁படத்திற்கு	-10.7883
▁பருவமழை	-10.7884
▁மக்கள்தொகை	-10.7884
▁திருப்பத்தூர்	-10.7885
▁மன்னார்	-10.7885
▁இருப்பத	-10.7887
▁அதிகரித்தது	-10.7888
▁மார்க	-10.7888
▁மூழ்கி	-10.789
றுத்த	-10.7892
▁பள்ளிகளில	-10.7894
▁ரிஸ்	-10.7896
▁விண்ணப்பிக்க	-10.79
க்காடு	-10.7905
▁வாங்குவத	-10.7905
▁தாமதமாக	-10.7919
▁ஜெக	-10.7923
▁தேன்	-10.7932
▁பிறந்தநாள	-10.7932
▁அம்மை	-10.7938
விவகார	-10.7939
▁மேல்முறையீடு	-10.7948
▁கலங்க	-10.7952
▁திருமஞ்சன	-10.7954
▁அவகாசம்	-10.7954
▁வளர்மதி	-10.7954
▁கறுப்பு	-10.7954
▁கிரீ	-10.796
▁சிரிப்ப	-10.7961
▁எதற்காக	-10.7964
▁செய்கின்றனர்	-10.7965
▁சான்று	-10.7966
ஜூ	-10.7966
▁இன்ப	-10.7971
▁பழமை	-10.7976
▁குறைத்த	-10.7977
▁கடக	-10.7977
▁போஸ்	-10.798
▁ஏற்படவில்லை	-10.7981
▁கருட	-10.7981
▁குடித்து	-10.7986
▁அச்சுறுத்த	-10.7987
▁செளத	-10.7987
▁வளரும்	-10.7988
▁ஊசி	-10.7989
ிற்காக	-10.7989
▁கொள்கிற	-10.799
▁செய்தேன்	-10.7992
▁அரேபியா	-10.7998
▁250	-10.7998
▁திருவிழாவில்	-10.7998
▁சாத்த	-10.7999
▁ஊழல	-10.8004
▁பயணத்தின்	-10.8009
▁எரிந்த	-10.8013
பேரில்	-10.8013
▁நொ	-10.8016
▁வீட்டிலிருந்த	-10.8016
த்தொகை	-10.8021
▁வெளியிடப்பட்டது	-10.8023
▁சமாஜ்	-10.8024
▁சீர்குலை	-10.8024
▁அன்றாட	-10.8024
▁வெடிகுண்டு	-10.8024
▁அரசாணை	-10.8024
▁வழித்தட	-10.8024
▁இக்கோயில	-10.8024
▁சந்திரயான்	-10.8024
▁ஆனி	-10.8024
▁உனக்கு	-10.8025
▁கூறுகின்றன	-10.8025
▁பும்ரா	-10.8026
▁தொடுத்த	-10.8027
▁கவர்ந்த	-10.803
▁இப்போதை	-10.8037
▁என்பவரை	-10.8048
▁மோர்	-10.8051
பொருள்	-10.8056
▁பாரா	-10.8058
▁காரணத்தை	-10.8058
▁தப்பிக்க	-10.8063
ொருவர்	-10.8064
▁கிழமை	-10.8084
செய்த	-10.8085
▁எல்லோருக்கும	-10.8087
▁த்தினால்	-10.8087
▁அதேநேரத்தில்	-10.8094
▁இடையூறு	-10.8094
▁உத்தரபிரதேச	-10.8094
▁ராஜ்யசபா	-10.8094
▁நாற்காலி	-10.8094
▁ஞாயிற	-10.8094
▁முன்னெடுப்ப	-10.8094
▁வீடியோக்களை	-10.8095
▁சிந்திக்க	-10.8099
ுவதில்லை	-10.8103
▁காத்து	-10.8103
um	-10.8104
▁Ma	-10.8105
▁நேர்ந்த	-10.8107
▁விடுக்க	-10.811
▁எட	-10.8113
பாறை	-10.8114
▁சுட்டிக்காட்டி	-10.8114
▁சீல்	-10.8114
▁அற்புதமா	-10.8116
▁கிறிஸ்தவ	-10.8118
▁ரசிகர்	-10.8119
▁பறி	-10.8123
▁திமுகவினர்	-10.8123
▁வாகனங்களில	-10.8131
▁சுனில	-10.814
▁ுவதன	-10.8148
▁கோள	-10.8164
▁இறுதிப்போட்டி	-10.8165
▁திரையுலக	-10.8165
▁சஸ்பெண்ட்	-10.8165
▁அர்ஜுன	-10.8165
▁உருவானது	-10.8165
▁அவதான	-10.8166
▁சவால்கள்	-10.8166
▁கெலாட்	-10.8166
▁ஆப்ரிக்க	-10.8166
▁எடுப்பத	-10.817
▁சுவர	-10.8172
▁நிறைவடை	-10.8174
▁கேரளாவ	-10.8175
▁நாங்கள	-10.8184
▁ஸ்டீ	-10.8187
▁வார்த்தைகளை	-10.819
கொண்டிருக்கின்றன	-10.819
▁ராமகிருஷ்ண	-10.8193
▁நடக்கவில்லை	-10.8195
▁ஈடுபட்டுள்ளனர்	-10.8201
os	-10.8204
▁கொண்டுள்ளனர்	-10.8207
▁தூங்கி	-10.8212
▁ரசிகர்களை	-10.8214
▁திருமணத்திற்கு	-10.8217
▁வெண்	-10.8219
▁வந்துவிட்டது	-10.8223
▁அறநிலையத்	-10.8235
▁புலம்பெயர்	-10.8236
▁சந்திரசூடன	-10.8236
▁நிரூபித்த	-10.8236
▁இத்தாலி	-10.8236
▁பகுஜ	-10.8236
▁கொள்வதற்கு	-10.824
▁வைப்பதற்க	-10.8245
▁சிறுபான்மையினர	-10.8246
ing	-10.8247
▁வருகின்றது	-10.8253
▁மீனா	-10.8255
▁வந்தேன்	-10.8257
▁காலனி	-10.826
▁ஏற்படலாம்	-10.8263
▁அண்ண	-10.8266
▁பாகிஸ்தானுக்கு	-10.8266
▁வளைய	-10.8273
ம்பட்டி	-10.8273
இன்	-10.8273
▁ஆண்டுகால	-10.8274
▁காட்டினார்	-10.828
▁போஸ்டர	-10.8283
▁கொத்த	-10.8284
லியா	-10.8285
▁விரும்பிய	-10.8285
▁கட்டணத்தை	-10.8298
▁பலன்களை	-10.8299
▁அடுத்ததாக	-10.83
▁பரிமாற	-10.8308
▁சபரிமலை	-10.8308
▁ஜல்லிக்கட்டு	-10.8308
▁விக்கிரமசிங்க	-10.8308
▁புறப்பாடு	-10.8308
டிமிர்	-10.8309
▁ரச	-10.8317
▁முன்வைக்கப்பட்ட	-10.8323
▁இளைஞர்களுக்கு	-10.8324
▁மறைவ	-10.8329
▁மரபு	-10.833
▁வர்ண	-10.8333
▁எல்லாமே	-10.8334
▁பரிந்துரைத்த	-10.8339
▁கொள்வார்கள்	-10.834
▁ஃபண்ட	-10.8342
▁என்னோட	-10.8346
▁ராஜூ	-10.8346
▁சாப்பாட	-10.8347
▁ஆராதனைகள்	-10.8353
▁நோட்டுகள	-10.8356
▁கூறியிருந்த	-10.8358
க்கணக்கான	-10.8366
▁68	-10.8366
▁எச்சரிக்க	-10.8367
விழா	-10.8369
ai	-10.8373
▁வலைத்தளங்களில	-10.8373
▁மதிப்பிட	-10.8376
▁Doc	-10.8381
▁கச்சத்தீவ	-10.8381
▁செவ்வாய்க்கிழமை	-10.8381
▁விளக்கமளித்த	-10.8381
▁பொன்முடி	-10.8381
▁மேற்கோள்	-10.8381
▁கமல்ஹாசன	-10.8381
▁அஜய்	-10.8381
▁டிஜிபி	-10.8381
▁தாக்கப்பட்ட	-10.8383
▁#	-10.8384
▁வக்ர	-10.8384
▁05	-10.8386
▁வகுத்த	-10.8392
▁கீதா	-10.8402
▁வட்டாரங்கள்	-10.8402
▁விளக்கினார்	-10.8404
▁எல்லோர	-10.8405
▁நூலக	-10.8409
▁கார்கே	-10.841
▁கேட்ச்	-10.8418
▁பத்திரங்கள	-10.8419
▁ஏழ	-10.8419
▁77	-10.8423
▁67	-10.8425
▁உருவாக்குவத	-10.8426
▁நிர்ணய	-10.843
▁கொல்லப்பட்டனர்	-10.843
▁யாரையும	-10.843
▁செய்துள்ளதாக	-10.8434
▁சொன்னார்கள்	-10.844
▁பணியிட	-10.8444
கிறதா	-10.8451
▁அணிவகுப்ப	-10.8454
▁தாலுகா	-10.8454
▁அதீத	-10.8454
▁ஸ்டேஷன	-10.8455
▁துறைகளில	-10.8459
▁நடைபெறுவத	-10.8461
▁கதவு	-10.8471
▁இளவரசர்	-10.8472
▁குறிப்ப	-10.8476
▁நம்பர	-10.8477
▁அதுவரை	-10.8483
▁காஷ்மீரில	-10.8486
▁அப்புறம	-10.8487
▁உடைக்க	-10.8493
▁de	-10.8499
▁நாயகி	-10.8501
▁வதற்கு	-10.8503
றிவு	-10.8512
▁யினால	-10.8519
▁56	-10.8521
▁புயல	-10.8525
▁தளங்கள	-10.8527
▁ஆஞ்சநேய	-10.8527
▁இரங்கல்	-10.8527
▁பத்திரிக்கை	-10.8527
▁சொகுச	-10.8527
▁யோசிக்க	-10.8528
▁அருவி	-10.8528
பக்கம்	-10.8529
▁அதிகாரபூர்வ	-10.8529
▁சர்வே	-10.8529
▁வித்யா	-10.8532
▁பார்ப்போம்	-10.8533
▁அனுபவிக்க	-10.8536
▁பயங்கரவாதிகள	-10.854
▁நடராஜன்	-10.8544
▁விடுவார்	-10.8547
▁?!	-10.8547
▁அவசியமான	-10.8552
▁விமர்சனத்த	-10.8555
▁உறவில	-10.8555
▁ஃபார்ம	-10.8559
▁ரஞ்சித்	-10.8565
▁ஆய்வக	-10.8568
ரியன்	-10.857
▁வரவேற்பை	-10.8571
▁மனதை	-10.8573
▁சீர்திருத்த	-10.8583
▁குடித்த	-10.8584
▁சமர	-10.8584
▁னான்	-10.8584
▁நிலப்பரப்ப	-10.8601
▁புரிந்துகொள்ள	-10.8601
▁மனிதாபிமான	-10.8601
யிரம்	-10.8602
▁அதுபோல	-10.8603
me	-10.8609
ow	-10.8609
▁51	-10.861
ate	-10.8616
▁தொற்றுநோய	-10.8616
▁அதனால	-10.8621
▁ஆதிக்க	-10.863
▁Co	-10.8637
▁69	-10.8642
ாபிஷேக	-10.8644
▁செல்வாக்க	-10.8645
▁மாச	-10.8649
▁54	-10.8651
▁இளவரச	-10.8658
▁விண்ண	-10.8668
▁பெறுவதற்கா	-10.8672
▁ஒப்புதல	-10.8673
▁ஊட்டச்சத்து	-10.8676
▁ரசாயன	-10.8676
▁கிஷோர்	-10.8676
▁கோலாகலமா	-10.8676
▁பாக்கெட்	-10.8676
▁விஜே	-10.8676
▁நேர்மைய	-10.8676
▁மேற்கண்ட	-10.8676
▁வாஷிங்டன்	-10.8677
▁குப்தா	-10.8677
▁தேநீர	-10.8677
▁செல்லாது	-10.8679
▁52	-10.8681
▁ஏழாம	-10.8685
ப்பள்ளி	-10.8685
▁மலேசியா	-10.8686
▁பங்களிப்பை	-10.8687
▁போற்றி	-10.8687
▁கண்டிக்க	-10.8689
▁மாறியுள்ளது	-10.8696
▁விழாவின	-10.8704
▁போஸ்ட்	-10.8704
▁தீர்மானித்த	-10.8705
▁சட்டத்திற்கு	-10.8711
▁கட்டங்கள	-10.8712
சந்திரன்	-10.8713
▁கிற்கு	-10.8716
▁அமர்வ	-10.8718
▁கணிசமா	-10.8721
▁இனிப்பு	-10.8721
▁72	-10.8722
▁கட்டிடங்கள	-10.8726
▁சிறி	-10.8727
▁வார்டில	-10.8729
▁பிரதீப	-10.8735
▁ஒழிக்க	-10.8738
▁சொல்லலாம்	-10.8743
▁சொல்லவில்லை	-10.8746
▁ஹமாஸ	-10.8748
▁மகிழ	-10.8749
▁கவர	-10.875
▁எதிரொலி	-10.8751
▁பிரதோஷ	-10.8751
▁பிரத்யேக	-10.8751
▁அநுர	-10.8751
▁திருவனந்தபுர	-10.8751
▁வடிவமைக்கப்பட்ட	-10.8751
▁ஆசிரியை	-10.8751
▁வேண்டுமானால்	-10.8751
▁ட்ரோன்	-10.8751
▁வன்னியர	-10.8751
▁முத்திரை	-10.8751
▁விசிக	-10.8752
▁வளங்கள	-10.8752
▁வாக்குமூலம்	-10.8754
▁கம்பி	-10.8755
▁ஐரோப்பாவ	-10.8758
▁1.5	-10.8764
▁ஓடிய	-10.8764
▁நீதித்துறை	-10.8765
▁உறுப்பினரும	-10.8768
▁120	-10.878
▁சுருக்க	-10.8786
▁பாகிஸ்தானில	-10.8787
▁வீரராக	-10.8796
▁வைகை	-10.8808
▁இதோ	-10.8809
▁சிறுபான்மை	-10.8817
▁இடதுசாரி	-10.8827
▁தலைமறைவாக	-10.8827
▁தேமுதிக	-10.8827
▁மாப்பிள்ளை	-10.8827
▁விரக்தி	-10.8827
▁உளவியல	-10.8827
▁சாவர்க்கர	-10.8827
im	-10.8831
▁ஈடுபட்டுள்ள	-10.8832
▁செயல்படுவத	-10.8832
▁கருணா	-10.8835
▁தேர்தலிலும்	-10.8836
▁சோர்வ	-10.8839
▁வீசப்பட்ட	-10.884
▁தாரா	-10.8842
▁நம்புகிறார்	-10.8842
▁பேட்டரி	-10.8846
▁யொன்ற	-10.8857
▁ஒளிபரப்பாக	-10.8862
▁துவங்கிய	-10.8864
▁உதவியாளர	-10.8866
▁சஹ	-10.8866
▁தசை	-10.8872
▁அடித்தார்	-10.8875
▁மறுத்துவிட்ட	-10.8876
▁சொல்வதை	-10.8877
▁புரிந்த	-10.8878
▁முக்கியமானதாக	-10.8882
▁நிறுவனங்களின	-10.8886
▁உயிரினங்கள	-10.889
▁குடும்பத்திற்கு	-10.889
▁கோபால	-10.8893
▁தென்னிந்திய	-10.8899
▁ரவீந்திர	-10.8901
▁வேட்பாளர்கள	-10.8902
*	-10.8903
▁செலாவணி	-10.8903
▁முகாமைத்துவ	-10.8903
▁சேமிப்பு	-10.8903
▁வழிமுறைகள	-10.8906
▁சாட்சிய	-10.8907
▁வங்காள	-10.8907
▁(20	-10.8909
▁பெறவில்லை	-10.891
▁ராமசாமி	-10.8913
▁சுற்றில	-10.892
▁கோர்ட்ட	-10.8921
▁தவிக்க	-10.8922
▁ஆணைக்குழு	-10.8922
▁பந்துகள	-10.8923
▁இயலாத	-10.8928
▁செய்திருக்கிறது	-10.893
▁கொரிய	-10.8935
▁பொருத்தப்பட்ட	-10.8936
vs	-10.8936
▁பூங்காவ	-10.8937
▁66	-10.8953
▁கோயிலை	-10.8954
▁அடைக்க	-10.8954
▁ஏலத்த	-10.8966
▁முற்றிலுமாக	-10.8967
▁57	-10.8969
▁உள்ளடக்க	-10.8977
▁புறக்கணிக்க	-10.898
▁நரசிம்ம	-10.898
▁மாரடைப்ப	-10.898
▁ஜென்ம	-10.898
▁அரங்கேறி	-10.8981
▁ராயல்	-10.8981
▁மகிந்த	-10.8982
▁கொண்டாடப்பட்ட	-10.8983
th	-10.8985
▁வாட்ஸ்	-10.899
▁துணிச்சல	-10.8991
▁வினர	-10.8994
▁பேசப்பட்ட	-10.8995
▁நுகர்வோர	-10.9003
▁சொன்னேன்	-10.9007
சக்கர	-10.9013
▁கொண்டிருப்ப	-10.9016
▁போராட்டத்த	-10.902
▁விலங்கு	-10.902
▁கொடூரமாக	-10.9023
▁2023-	-10.9042
▁கட்சியினர	-10.9048
▁பெருந்	-10.9049
ாபாத்	-10.9055
▁நகர்ந்த	-10.9055
▁சன்னி	-10.9056
▁ஆக்கிரமித்த	-10.9058
▁சன்ரைசர்ஸ	-10.9058
▁பரஸ்பர	-10.9058
▁தியேட்டர	-10.9058
▁பெய்யக்கூடும்	-10.9059
▁மறியல	-10.9059
▁தேடுதல்	-10.9062
▁விநியோகிக்க	-10.9064
▁பாக்ஸ	-10.9064
▁மிதுன	-10.9066
▁செய்வோம்	-10.9067
▁வாசக	-10.9069
▁700	-10.9071
▁ஆட்சியர	-10.9078
▁பம்ப	-10.908
▁யின	-10.9084
மிகு	-10.9085
▁வங்கியின	-10.9089
▁கிடப்ப	-10.909
▁ஊரக	-10.9099
▁எதிர்காலத்தை	-10.9101
▁பராமரிப்ப	-10.9103
▁இத்திட்ட	-10.9108
▁கத்திய	-10.9109
▁எழுப்பப்பட்ட	-10.9111
▁தன்மையை	-10.9118
▁துவக்கி	-10.9118
▁ஆரம்பித்தார்	-10.9122
▁கட்டாயப்படுத்த	-10.9123
▁பரம	-10.9124
▁காதலன	-10.9126
▁சினிமாவ	-10.9128
▁எதிர்நோக்க	-10.9136
▁கழிவறை	-10.9136
▁முஸ்லீம்	-10.9136
▁கையகப்படுத்த	-10.9136
▁கொந்தளிப்ப	-10.9136
▁பதிவுசெய்து	-10.9136
▁ார்களா	-10.9136
▁டிரெண்ட	-10.9136
▁டக்ள	-10.9136
▁தவணை	-10.9138
▁இதேபோல	-10.9141
▁பரபரப்ப	-10.9141
▁போதெல்லாம்	-10.9142
▁அப்துல்லா	-10.9144
▁விளைவிக்க	-10.9145
▁பாதையை	-10.9148
▁வேளாண்மை	-10.9148
▁கற்கள்	-10.9149
▁எழுப்பினார்	-10.9151
▁பார்த்தபோது	-10.9157
▁நடுவே	-10.9158
▁விடக்கூடாது	-10.9161
▁நியாயமான	-10.9163
▁உறு	-10.917
▁பிரிவுகளின்	-10.9189
▁அபார	-10.9195
▁கீர	-10.9198
▁வயநாட	-10.9199
▁எல்லையில	-10.9207
▁அமீரக	-10.9214
▁ஆஜரான	-10.9214
▁புனரமை	-10.9214
▁வளிமண்டல	-10.9214
▁முன்னிறுத்த	-10.9215
▁கதாநாயக	-10.9215
▁அம்பானி	-10.9215
▁புராண	-10.9215
▁பைரவ	-10.9216
▁தட்ட	-10.9216
▁களமிறங்கி	-10.9218
▁வெற்றிபெற	-10.9219
▁கருணை	-10.9219
▁சேதப்படுத்த	-10.922
▁சாராய	-10.9229
▁சீனாவுக்கு	-10.9233
▁பாகங்கள	-10.9239
▁ஜெகதீ	-10.9251
▁ஆரம்பிக்கப்பட்ட	-10.9255
ாததால்	-10.926
▁பிம்ப	-10.9261
▁பயன்பாட்ட	-10.9265
▁கவனித்த	-10.9267
▁நிலையங்களில	-10.9268
கிரா	-10.9275
▁பதற	-10.9287
▁தள்ளப்பட்ட	-10.929
ுக்கொள்கிறேன்	-10.9294
▁India	-10.9294
▁கலந்துகொள்ள	-10.9294
▁காப்பீடு	-10.9294
▁திருகோணமலை	-10.9294
▁தரையிறங்க	-10.9294
▁வைத்தியசாலை	-10.9294
▁விசேஷ	-10.9294
▁அமமுக	-10.9294
▁முன்னோடி	-10.9294
▁மேம்பால	-10.9294
▁முடங்கி	-10.9294
▁வரதராஜ	-10.9294
▁போராளி	-10.9296
▁செருப்ப	-10.9297
▁ஒழிப்புத்துறை	-10.9298
▁மதச்சார்ப	-10.9299
▁பேராசிரியர	-10.9299
▁மாகாணத்தில	-10.9299
▁கணக்கெடுப்ப	-10.93
▁அருக	-10.9302
▁பெற்றுள்ளனர்	-10.9304
▁ரோஜா	-10.9304
▁பைலட்	-10.9304
▁அறிமுகமான	-10.9308
▁கொடுங்க	-10.9311
▁வியாபாரிகள	-10.9311
▁ஆவேச	-10.9312
▁டிரம்ப	-10.9317
▁திரவிய	-10.9317
▁ுவதாகவும்	-10.9324
▁திலிருந்த	-10.9328
▁குடியிருப்ப	-10.9328
▁ஜாதக	-10.9328
▁சவாலாக	-10.9331
▁கொண்டிருப்பத	-10.9347
▁சினிமாவில	-10.9348
▁செயலகத்தில்	-10.9351
▁மறைமுக	-10.9357
▁பொருளாக	-10.9359
▁வெளிப்படை	-10.9363
▁95	-10.9369
▁கேப்டனாக	-10.9374
▁பரம்பரை	-10.9374
▁மியான்மர	-10.9374
▁வெளியீட்ட	-10.9374
▁வனப்பகுதி	-10.9374
▁வாரணாசி	-10.9374
▁ரஜினிகாந்த்	-10.9374
▁அதிவேக	-10.9374
▁நிதானம	-10.9374
▁டவுன்	-10.9374
▁எரிசக்தி	-10.9375
▁முன்னோர்கள	-10.9376
▁கதறி	-10.9377
▁உணவகங்கள	-10.9379
▁ரெட்	-10.938
▁வைக்கிறார்	-10.9388
▁புனே	-10.9389
▁உடனடி	-10.9398
▁ஸ்வீ	-10.9398
▁கனவ	-10.9409
▁பயணங்கள	-10.9409
▁விடுவோம்	-10.941
▁பையன	-10.9424
▁63	-10.9425
▁வருவார்கள்	-10.9434
▁உறை	-10.944
▁உரிமையாளர்கள்	-10.9451
▁தொல்	-10.9453
▁கேரக்டர	-10.9455
▁சிபிசிஐடி	-10.9455
▁தயிர்	-10.9455
▁உழைக்க	-10.9455
▁பல்கலைக்	-10.9455
▁சில்வா	-10.9463
▁தனித்தனியாக	-10.9464
▁அக்கம்	-10.9466
▁பகை	-10.9468
▁அணிவித்த	-10.9468
▁செயல்படுகிறது	-10.9469
▁லட்சத்திற்கு	-10.9478
▁ஆனார்	-10.948
▁நிலையத்துக்கு	-10.9488
▁செய்யப்படவில்லை	-10.9493
▁கங்கா	-10.9496
▁யாய்	-10.9497
35	-10.95
தென்னாப்பிரிக்கா	-10.9502
ுக்கோ	-10.9505
▁மீடியா	-10.9512
▁உணர்வுகளை	-10.9512
▁மெகா	-10.9515
ck	-10.9528
▁அதேபோன்று	-10.9536
▁நிலச்சரிவ	-10.9536
▁பிரதிபலிக்க	-10.9536
▁படுகாயமடைந்த	-10.9536
▁விளைவுகளை	-10.9536
▁வலய	-10.954
▁அவதார	-10.9541
ஒரு	-10.9542
▁03	-10.9542
▁ஆந்திராவில்	-10.9547
▁கொள்வதற்காக	-10.9549
▁சட்டங்களை	-10.9554
lo	-10.9558
▁பெரும்பான்மைய	-10.956
▁செய்தோம்	-10.9571
▁நட்ப	-10.9575
▁கேட்டோம்	-10.9576
▁உள்ளிட்டவற்ற	-10.9578
▁யாரிடம	-10.9595
▁இருவரும	-10.9614
▁என்பதற்க	-10.9616
▁நேரத்துக்கு	-10.9617
Q	-10.9618
அலங்கரிக்கப்பட்ட	-10.9618
▁சுற்றுவட்டார	-10.9618
▁திங்கட்கிழமை	-10.9618
▁தெரிந்துகொள்ள	-10.9618
▁நெதன்யாகு	-10.9618
▁வடகொரியா	-10.9618
▁1990	-10.9618
▁பதிவாகியுள்ளது	-10.9618
▁மெதுவாக	-10.9618
▁பருத்தி	-10.9618
▁அனிதா	-10.9618
மார்க்சிஸ்ட்	-10.9618
▁தொகுத்த	-10.9618
▁திருநாள	-10.9618
▁கோடீஸ்வர	-10.9619
▁பாராட்டிய	-10.962
▁பவுன்	-10.9623
▁ராதாகிருஷ்ணன்	-10.9625
▁வழக்கறிஞர	-10.9635
▁அம்பல	-10.9641
கண்டெடுக்கப்பட்ட	-10.9642
▁கழுவ	-10.9642
▁பிளஸ்	-10.9647
▁தனிமை	-10.9652
▁பாணியில	-10.9656
▁வழங்குவதற்கா	-10.9658
பிடித்த	-10.9664
▁85	-10.9665
▁வெளியேற்றப்பட்ட	-10.9666
▁வானதி	-10.9671
▁தளத்த	-10.9676
▁அஸ்த	-10.968
ிருக்கின்றன	-10.9691
▁நடத்துவதற்க	-10.9692
முருகன்	-10.9699
▁புறக்கணிப்ப	-10.97
▁படையெடுப்ப	-10.97
▁முன்னோக்கி	-10.97
▁வருங்கால	-10.97
▁சமூகநீதி	-10.97
▁தனித்துவமான	-10.97
▁மதிமுக	-10.97
▁நேரிடும்	-10.9701
▁வடிவமைப்ப	-10.9701
▁என்பன	-10.9701
பன்னீர்	-10.9702
▁முதலாளி	-10.9705
▁கொண்டிருந்தபோது	-10.9714
▁காயத்	-10.9715
▁வெளியேறினார்	-10.9715
▁பார்த்ததும	-10.9725
செய்கை	-10.9738
▁வர்ற	-10.9739
▁பரிசாக	-10.9742
▁கணித	-10.9753
▁In	-10.9756
▁உட்படுத்த	-10.9757
▁சரவண	-10.976
▁விநாயகர	-10.9764
▁பேசவில்லை	-10.9772
▁கட்டடங்கள	-10.9775
▁அழகிய	-10.9778
▁சேகர்பாபு	-10.9784
▁தொந்தரவ	-10.9784
▁வற்புறுத்த	-10.9784
▁சாம்பியன்ஷிப்	-10.9784
▁ஆதாய	-10.9785
▁கொள்வோம்	-10.9791
▁அதிர்ந்த	-10.9794
கரன்சி	-10.9796
▁பூஜா	-10.9801
▁மேஜர	-10.9802
ச்சாரி	-10.9802
▁காட்டில	-10.9807
யப்பன்	-10.981
▁எதிர்க்கட்சிகள	-10.9813
14	-10.9818
▁விட்டுவிட்டு	-10.9823
▁73	-10.9827
▁76	-10.9836
▁வண்ணம	-10.9839
ிருக்கிறேன்	-10.9839
▁தரவுகள்	-10.9848
▁பாக்ய	-10.9848
▁குற்றவாளிகளை	-10.9857
▁கொடுப்பார்	-10.9864
▁சரமாரியாக	-10.9868
▁சிவராத்திரி	-10.9868
▁ட்ரூடோ	-10.9868
▁பிரகடன	-10.9868
▁விருச்சிக	-10.9868
▁திருவீதி	-10.9868
▁ஜின்பிங்	-10.9868
▁புடவை	-10.9868
▁ஜெய்ஸ்வால	-10.9868
▁வேட்டையாட	-10.9869
▁வாக்களிப்ப	-10.9869
▁கொள்கிறோம்	-10.9872
▁பின்னரே	-10.9873
▁04	-10.9873
▁தாய்ப்பால	-10.9874
▁சுல்தான	-10.9875
▁2004	-10.9876
▁கொழுப்பு	-10.9879
▁விடுவித்த	-10.9881
▁ராணுவத்தினர	-10.9883
▁எழுதினார்	-10.9891
▁பூர்ண	-10.9891
▁விரும்பாத	-10.9898
▁மறைவுக்கு	-10.99
▁நந்தி	-10.9915
▁அறைக்கு	-10.9919
▁எம்எல்ஏக்கள	-10.993
▁விரும்புவத	-10.9933
▁காணவில்லை	-10.9934
▁வேந்தர	-10.994
▁செய்கின்ற	-10.994
▁புறப்பட	-10.9945
▁ஆப்பிள	-10.9945
▁பார்வையிட	-10.995
Z	-10.9953
▁உடன்படிக்கை	-10.9953
▁ஊடுருவ	-10.9953
▁சுழற்பந்துவீச்ச	-10.9953
▁செயற்கைக்கோள்	-10.9953
▁நிதியுதவி	-10.9953
▁ஹெஸ்பொலா	-10.9953
▁உயரதிகாரி	-10.9953
▁பள்ளிக்கூட	-10.9953
▁கடைப்பிடிக்க	-10.9953
▁பரமக்குடி	-10.9953
▁பூர்வீக	-10.9953
▁ஆறாம	-10.9953
▁ாமலே	-10.9953
▁உகந்த	-10.9953
▁பிச்சை	-10.9953
▁எஸ்டேட்	-10.9954
▁யுத்தம்	-10.9956
▁வகுப்பறை	-10.9957
▁ஆட்டமிழந்தார்	-10.9968
▁நலத்துறை	-10.9973
▁ரீதியில	-10.9978
▁உத்தரவின்	-10.9981
▁குழம்ப	-10.9983
▁கருதப்பட்ட	-10.9985
▁வருவார்	-10.9985
▁புலம்ப	-10.999
▁கிரிக்கெட்டில	-10.9998
▁வலியுறுத்தின	-11
▁இணைப்ப	-11.0003
▁ஆங்கிலேய	-11.0004
▁98	-11.0008
▁திலக	-11.0009
▁திரையரங்க	-11.0011
▁பார்த்தேன்	-11.0012
▁சொல்லப்பட்ட	-11.003
▁மாணவர	-11.0031
▁வீதிகளில	-11.0036
▁பல்லக்கில	-11.0038
▁ங்களே	-11.0038
▁தேவேந்திர	-11.0041
▁இனிமேல	-11.0041
▁திட்டமிட்டுள்ளத	-11.0042
W	-11.0043
க்கென	-11.0043
▁துப்பாக்கிச்சூட	-11.0045
▁திவ்ய	-11.0053
▁மாலத்தீவ	-11.0062
▁வாசலில	-11.0066
▁வீட்டுக்குள்	-11.007
▁அமைக்கப்படும்	-11.0072
▁கூட்டாளி	-11.0075
ஓய்வுபெற்ற	-11.0078
▁கம்பீர	-11.0082
▁கேட்டேன்	-11.0084
▁கடித்த	-11.009
▁செஞ்ச	-11.0105
▁தொகுப்ப	-11.0107
▁சிதம்பர	-11.0108
▁என்பவ	-11.0119
▁திகழ	-11.0122
▁ஏழுமலையான	-11.0124
▁பெறுமதி	-11.0124
▁பின்தங்கி	-11.0124
▁இருந்திருந்தால்	-11.0124
▁மைசூர	-11.0125
▁வேறொரு	-11.0126
▁வெட்க	-11.0126
▁வாய்ப்பில்லை	-11.0127
▁ஸ்ரீரங்க	-11.0131
▁தாலும்	-11.0132
▁வரப்போகிறது	-11.0138
▁கேட்டதற்கு	-11.014
▁ஏற்படுத்துகிறது	-11.0142
▁உடைத்த	-11.0146
▁அமைவ	-11.015
▁நிர்ணயிக்க	-11.0151
▁பரபரப்பாக	-11.0153
▁திறக்கப்பட	-11.0155
▁செயலர	-11.0162
▁மீறிய	-11.0163
▁விசை	-11.0172
▁பிரபலங்கள்	-11.0172
▁ரன்களில	-11.0174
▁பயன்பட	-11.0182
▁இயந்திரங்கள	-11.0185
▁61	-11.0187
▁கொடுக்கவில்லை	-11.0197
▁ாளர	-11.0201
▁பெருங்கடல	-11.0211
▁அதிர்வலை	-11.0211
▁ஆடம்பர	-11.0211
▁கருத்துக்கணிப்ப	-11.0211
▁சம்பாதிக்க	-11.0211
▁வர்மா	-11.0211
▁ஸ்ரீதேவி	-11.0211
▁நுட்ப	-11.0211
▁பந்துவீச்சை	-11.0211
▁சுனாமி	-11.0211
▁பட்டதாரி	-11.0211
▁மாஸ்கோ	-11.0211
▁கொவிட்	-11.0212
▁துன்ப	-11.0213
▁மயங்கி	-11.0218
▁திருமதி	-11.0219
▁வருவதற்க	-11.022
▁பெரும்பாலானோர	-11.022
▁ிவிட்டது	-11.0221
▁di	-11.0223
▁கிளம்ப	-11.0227
▁பிரபாகரன்	-11.023
▁மறைமுகமாக	-11.023
▁கலைஞர	-11.0244
▁தமிழர்கள	-11.0246
▁வைத்திருந்தார்	-11.0258
வர்தன	-11.0266
▁திணைக்களத்தின	-11.0268
▁குண்டர்	-11.0268
▁ராஜஸ்தானில	-11.028
▁ஒப்பந்தங்கள	-11.0293
▁எழுந்துள்ள	-11.0296
▁ஆளுங்கட்சி	-11.0299
▁ஒவ்வோர	-11.0299
▁பாதயாத்திரை	-11.0299
▁ஏகாதசி	-11.0299
▁விசய	-11.03
வெங்கடேசன்	-11.0301
▁விடுபட	-11.0301
▁சுபாஷ	-11.0301
▁இழுக்க	-11.0303
▁கீவ்	-11.0304
▁டெண்டர்	-11.0304
▁செந்தில்குமார்	-11.0306
▁ஆண்டாள்	-11.0307
▁ரசிக்க	-11.0308
▁1980	-11.0311
▁வாக்குறுதிகள	-11.0316
▁பொய்யான	-11.0321
▁தன்னிடம	-11.0322
▁இறப்ப	-11.0333
▁செலுத்தப்பட்ட	-11.0334
▁தரவுகளை	-11.0335
▁மகாத்ம	-11.0336
▁ரியல்	-11.0337
▁தெய்வங்கள	-11.0339
▁பார்ப்பதற்க	-11.0349
▁காரியங்கள	-11.0355
▁தோள	-11.0363
▁காசாவ	-11.0368
▁ஆசிரியர்கள	-11.0375
▁தாண்டிய	-11.0376
நானே	-11.0381
▁உட்கார	-11.0384
அதுமட்டுமல்லாமல்	-11.0384
▁எய்ம்ஸ்	-11.0387
▁தொலைநோக்க	-11.0387
▁நீர்மூழ்கி	-11.0387
▁அருங்காட்சியக	-11.0387
▁ஆட்சேப	-11.0387
▁உளைச்சல	-11.0387
▁தலைவலி	-11.0388
▁சங்கிலி	-11.0388
▁வேள்வி	-11.0388
▁ஈர்ப்பு	-11.0388
▁துர்கா	-11.0388
▁மியூச	-11.0389
▁முகவர்	-11.0391
▁உயர்மட்ட	-11.0392
▁மேற்படி	-11.0393
▁உருவாகியுள்ள	-11.0394
சுவாமி	-11.0395
▁வகுக்க	-11.04
▁அழிவ	-11.0401
▁தொடங்குகிறது	-11.0405
▁ஆண்டிற்க	-11.0406
▁மையத்தில	-11.041
▁தேய்	-11.0412
▁அறியப்பட	-11.0414
▁மக்களுக்காக	-11.0417
▁நிறுவப்பட்ட	-11.0427
▁வலைத்தளத்தில	-11.0435
▁விடுங்கள்	-11.044
▁பழங்கள்	-11.0444
▁வசிப்ப	-11.0447
▁இந்தியன்ஸ்	-11.0452
▁செடிகள	-11.0458
▁கடற்படையினர	-11.0458
▁அர்ச்சனை	-11.0477
▁கடைபிடிக்க	-11.0477
▁அருணாச்சல	-11.0477
▁சீக்கிரம	-11.0477
▁அதற்கமைய	-11.0477
▁இணக்கம	-11.0477
▁சோஷியல	-11.0477
▁மாமியார	-11.0477
▁நினைச்ச	-11.0477
▁நெருப்ப	-11.0478
▁கடலுக்கு	-11.0478
▁நேர்த்தி	-11.0478
▁குழுமம்	-11.0479
▁கையாண்ட	-11.048
▁இம்மாத	-11.0481
▁ஃப்ளாட்	-11.0482
▁வாய்ப்புள்ளதாக	-11.0482
▁விவேக்	-11.0487
▁கொள்கின்றனர்	-11.0488
▁சீரியலில	-11.0488
▁விரும்புகிறது	-11.049
▁வைத்துக்கொண்டு	-11.0494
▁தபால்	-11.0495
▁கவுண்ட	-11.0497
சண்முகம்	-11.0498
▁for	-11.05
▁கணிசமாக	-11.0513
▁ஊரில	-11.0514
▁நிபுணர	-11.0517
▁பைடன	-11.0518
▁74	-11.0518
▁மாகாணங்களில	-11.052
▁தெளி	-11.0524
▁பிலிப்	-11.0526
▁உறுப்பினர	-11.0532
▁பிறந்தவர்கள	-11.054
▁உள்கட்டமைப்ப	-11.0545
▁இழுத்த	-11.0547
▁பயன்படுத்தலாம்	-11.0547
▁அழுக	-11.0551
▁சாப்பிடுவத	-11.0552
டிப்படையில்	-11.0555
▁வருடாந்த	-11.0557
▁வந்துவிட்ட	-11.0557
▁யூர	-11.0557
▁யாளர்கள	-11.0558
▁சிவபெருமான	-11.0567
▁பொள்ளாச்சி	-11.0567
▁ஆபரண	-11.0567
▁தேவானந்தா	-11.0567
▁பாடத்திட்ட	-11.0567
▁லண்டனில	-11.0567
▁அதிசய	-11.0567
▁நயினார்	-11.0567
▁மீட்டெடுக்க	-11.0568
▁பொருத்தவரை	-11.0569
விளக்கு	-11.0572
▁அதிகப்படியா	-11.0574
▁மதிப்பீட்ட	-11.0582
▁நம்பப்படுகிறது	-11.0584
▁முதன்	-11.0585
▁கடத்தப்பட்ட	-11.0588
சஷ்டி	-11.0592
▁அலுவலகங்கள	-11.0614
▁குறைப்பத	-11.0622
▁வருமாறு	-11.0622
▁தெரிவ	-11.0633
▁சீனிவாச	-11.0634
அழைக்கப்படுகிறது	-11.0634
▁ஷாருக்	-11.0634
யளித்த	-11.0636
▁வளர்த்த	-11.0639
▁அதிகரிப்ப	-11.0642
est	-11.0644
▁தாண்ட	-11.065
▁விற்ப	-11.0653
▁மேம்படுத்துவத	-11.0655
▁தென்மேற்கு	-11.0658
▁மின்னணு	-11.0658
▁ரிப்போர்ட்	-11.0658
▁வரவழைத்த	-11.0658
▁விவேகானந்த	-11.0658
▁கௌதம	-11.0658
▁இதேபோன்ற	-11.0658
▁ஐஐடி	-11.0658
▁காமராஜர	-11.0658
▁முரளி	-11.0658
▁கவிதை	-11.0658
▁சரணடை	-11.0659
க்குறைய	-11.0659
ம்பிகை	-11.0661
நில	-11.0662
▁நிழல	-11.0662
▁இன்ஜின	-11.0663
▁நிர்வாகத்தின	-11.0667
கடந்த	-11.0669
▁அவசியம	-11.067
▁ஒப்படைக்கப்பட்ட	-11.0671
▁வைபவ	-11.0672
ூடாக	-11.0672
▁ரூபாவ	-11.0675
▁செம்ம	-11.0684
▁ஈடுபட்டிருந்த	-11.0686
▁ஐயப்பன	-11.069
▁பதற்றத்தை	-11.0691
▁கருதுகிறார்	-11.0695
▁பஞ்சாப	-11.0696
▁Ch	-11.0704
▁அரேபியாவ	-11.0706
hat	-11.0707
▁இடம்பெற்றுள்ள	-11.0709
▁இடிந்த	-11.0738
▁ஆஜர்படுத்த	-11.0744
▁ஃபேஸ்புக்	-11.0749
▁ஐஸ்வர்யா	-11.0749
▁கையிருப்ப	-11.0749
▁திருச்செந்தூர	-11.0749
▁முளைப்பா	-11.0749
▁ராணிப்பேட்டை	-11.0749
▁வளைகுடா	-11.0749
▁சிரியாவ	-11.0749
▁மிஸ்ரா	-11.075
▁வைகுண்ட	-11.075
▁சாவடி	-11.075
▁ஜெய்ப்பூர	-11.075
ம்பாக்கம்	-11.075
▁அஷ்டம	-11.0752
▁திரிபுர	-11.0752
▁உருக்க	-11.0756
▁குடிசை	-11.0757
▁வயதை	-11.0759
▁2002	-11.0761
▁பதவிக்கால	-11.0762
▁St	-11.0769
▁தெப்ப	-11.0781
▁புல்ல	-11.0781
▁கிரீன்	-11.0782
▁2018-	-11.0784
▁நாய்கள	-11.0785
▁உற்சவர	-11.0788
▁தம்ம	-11.079
▁அய்யா	-11.0802
▁நிராகரிக்க	-11.082
▁மனோகர	-11.0822
ாயுத	-11.0833
▁திருப்பரங்குன்ற	-11.0842
▁ஶ்ரீ	-11.0842
▁கிணறு	-11.0842
▁குவிக்கப்பட்ட	-11.0842
▁பார்வதி	-11.0842
ine	-11.0842
▁ரவுடி	-11.0842
புள்ளி	-11.0842
▁இப்படத்த	-11.0843
▁வெங்கடேஷ்	-11.0845
▁கருதுகின்றனர்	-11.0846
▁இளைஞரணி	-11.0848
தெரிவிக்கின்றனர்	-11.0851
கொடுக்க	-11.0855
▁இரத்த	-11.0855
▁செல்வராஜ்	-11.086
▁193	-11.0861
▁மரணங்கள	-11.0871
▁ஐந்தாவத	-11.0873
▁உணர்கிற	-11.0878
▁செம்ப	-11.0887
மில்லாத	-11.0889
▁எல்லாரும	-11.089
▁அபே	-11.0894
▁வைக்கப்படும்	-11.09
▁கேமராக்கள	-11.0906
▁விண்ணப்பங்கள	-11.0906
ுடனும்	-11.0909
▁பயிரிட	-11.091
▁ராஜஸ்தான	-11.0914
▁தொகுதிகளுக்கு	-11.0919
▁கருவ	-11.0932
▁அசாதாரண	-11.0935
▁இசையமைப்பாளர	-11.0935
▁அடுக்குமாடி	-11.0935
▁திரைக்கதை	-11.0935
▁இந்நாட்ட	-11.0935
▁உலகெங்க	-11.0936
கிழங்கு	-11.0936
▁துணைவேந்தர	-11.0936
▁சரும	-11.0936
▁சாடிய	-11.0937
▁2025	-11.094
▁ராமச்சந்திரன்	-11.0949
கிழமை	-11.0949
▁பண்ணிட்ட	-11.0954
▁காத்திருப்ப	-11.0955
▁உருவெடுத்த	-11.0956
▁கையெழுத்திட்ட	-11.096
▁விஷயங்களில	-11.0966
▁நேஷன	-11.0968
▁கணவன	-11.0991
▁பாஸ்கர	-11.0994
▁செய்யும்போது	-11.0999
▁முனைப்ப	-11.1
▁ஆட்டமிழந்த	-11.1013
▁கொள்வார்	-11.1027
▁Tamil	-11.103
▁அதுகுறித்த	-11.103
▁கவிழ்ந்த	-11.103
▁குருபகவான	-11.103
▁பவுர்ணமி	-11.103
▁பெருந்தொற்ற	-11.103
▁எதிர்வினை	-11.103
▁வேட்பு	-11.103
▁கேட்டறிந்த	-11.103
▁சோரன்	-11.1031
▁ஆட்டத்த	-11.1031
▁பிரசன்ன	-11.1033
▁அட்டாக்	-11.1035
▁02	-11.1038
▁ஆசியாவ	-11.1039
▁விளக்குகிறார்	-11.104
▁2007	-11.1041
▁வாசனை	-11.1041
▁தொடர்கிறது	-11.1041
▁நடுவில	-11.1042
▁அடுத்தகட்ட	-11.1048
▁144	-11.1052
▁சொல்கிற	-11.1057
▁2017-	-11.1062
▁ஒப்பிட	-11.1073
▁மூழ்கிய	-11.1074
▁பைக்கில	-11.1074
▁97	-11.1076
▁அனுமன	-11.1076
▁இங்கிருந்த	-11.1085
▁செயலாளரும	-11.1086
▁மனசு	-11.1089
▁ஆட்சியாளர	-11.1115
▁கணிப்ப	-11.1117
▁மருத்துவமனைகளில	-11.1123
▁la	-11.1124
▁லக்ன	-11.1124
▁விழிப்புணர்வ	-11.1125
▁இடமாற்றம்	-11.1125
▁மெசேஜ்	-11.1125
▁காப்பீட்டு	-11.1125
▁லாட்டரி	-11.1125
▁கொளுத்த	-11.1125
▁தன்னார்வ	-11.1126
▁சிரிக்க	-11.1128
▁கல்லறை	-11.113
▁பெற்றுக்கொண்ட	-11.1137
▁ஜோசப	-11.1141
▁சீட்ட	-11.1148
▁வழக்கின	-11.1149
▁ஆசாத்	-11.1161
▁சம்பவத்திற்கு	-11.1163
ெடுப்ப	-11.1167
▁தனிமைப்படுத்த	-11.1177
▁சாதன	-11.1181
▁ஜாமீன	-11.1184
▁நாடுகளுடன	-11.1188
▁ஏற்பட்டுள்ளதாக	-11.1189
▁நிறைவ	-11.12
்ளோ	-11.1202
▁வெறுப்ப	-11.1207
▁தனித்தனி	-11.121
உயிரிழந்துள்ளனர்	-11.1212
▁மனுத்தாக்கல்	-11.1221
▁இயல்பாக	-11.1221
▁செல்சியஸ	-11.1221
▁விஸ்வரூப	-11.1221
▁மணிகண்டன்	-11.1221
▁ராபர்ட்	-11.1221
▁வில்லியம்	-11.1221
▁போக்சோ	-11.1221
▁மருமகள	-11.1222
▁நிலவரம்	-11.1222
▁வழிவகுத்த	-11.1223
ஆபரேஷன்	-11.1224
▁அதுமட்டுமல்ல	-11.1225
▁ஹவுஸ	-11.1226
▁பேசுபொருளாக	-11.1229
▁கிடைத்துள்ள	-11.1232
▁வங்கதேசத்த	-11.1235
▁லிஸ்ட்	-11.1251
▁அறிவித்திருந்த	-11.1251
▁2014-	-11.1253
▁வந்தடைந்த	-11.1254
▁பாஜகவுடன	-11.1274
▁ஹர்ஷ	-11.1276
▁நடுவர்	-11.1279
▁தயாரா	-11.1284
▁கருதப்பட	-11.1286
▁பெருகி	-11.1296
▁நினைவிட	-11.1318
▁அந்தவகையில்	-11.1318
▁அறிஞர்	-11.1318
▁கேள்வியெழுப்ப	-11.1318
▁ஜூனியர்	-11.1318
▁தன்னம்பிக்கை	-11.1318
▁தெரிஞ்ச	-11.1318
▁லிமிடெட்	-11.1318
▁தரிசிக்க	-11.1318
▁தீண்டாமை	-11.1318
▁கணேசன்	-11.1318
▁அமிர்த	-11.1318
▁வெளியூர்	-11.1318
▁பரப்புரை	-11.1319
▁அமீர்	-11.1319
▁மாறுபட்ட	-11.1319
க்கோட்டை	-11.1319
▁அரியலூர்	-11.1319
▁பதக்கம்	-11.1319
▁பிள்ளையார்	-11.132
▁தர்மபுரி	-11.132
▁உடன்பாடு	-11.1321
▁கனிம	-11.1339
▁சுற்றுலாத்துறை	-11.1339
▁காட்சிப்படுத்த	-11.1343
▁மீடியாவில	-11.1347
▁டெய்	-11.1352
▁அமர்த்த	-11.1352
▁ne	-11.1357
▁வரவேற்ப	-11.1358
▁குளிக்க	-11.1361
▁கழிவுகள	-11.1369
▁இறுக	-11.1378
▁ஆலோசகர	-11.1385
▁ஐந்தாம	-11.1407
▁அங்கீகார	-11.1412
▁தந்திர	-11.1416
▁சமஸ்கிருத	-11.1416
▁சூறாவளி	-11.1416
▁தெற்காசிய	-11.1416
▁பாக்டீரியா	-11.1416
▁மிளகாய்	-11.1416
▁வைத்திலிங்கம்	-11.1416
▁கரையோர	-11.1416
▁சாலையோர	-11.1416
▁சாஸ்திர	-11.1416
▁நெகிழ	-11.1416
▁மைக்ரோ	-11.1416
▁நாகரிக	-11.1416
▁சமுத்திர	-11.1417
▁தகுந்த	-11.1417
▁பங்காற்ற	-11.1417
▁ஜன்னல	-11.1417
▁தனுசு	-11.1417
▁மிருக	-11.1417
▁பருப்பு	-11.1417
▁மழைநீர	-11.1418
▁ஒழுங்குபடுத்த	-11.1418
மில்லாமல்	-11.1419
முக்கியத்துவத்தை	-11.142
யளிக்கிறது	-11.1421
▁பரிவார	-11.1425
▁இருக்கையில்	-11.1425
▁சீருடை	-11.1434
▁வாதங்களை	-11.1435
▁பீர	-11.1438
▁as	-11.1441
▁குறைப்பு	-11.1447
▁தெரிவிக்கவில்லை	-11.1448
▁பயிர்கள	-11.1451
▁94	-11.1454
▁நன்ன	-11.1468
▁உஷா	-11.1469
▁நட்சத்திரங்கள	-11.1488
▁முதலாம	-11.1491
▁எட்டாம	-11.1491
▁அருண	-11.1503
த்தொடர்ந்து	-11.1506
புறம்	-11.1511
▁ஆலோசிக்க	-11.1515
▁சிறைச்சாலை	-11.1515
▁சூர்யகுமார்	-11.1515
▁ஞாபக	-11.1515
▁பாஸ்போர்ட்	-11.1515
▁1991	-11.1515
▁உத்தியோகபூர்வ	-11.1516
▁ஏற்பாட்ட	-11.1516
▁நிலவியது	-11.1516
▁டொலர்கள	-11.1516
▁ஏந்திய	-11.1516
▁ஸ்பெயின	-11.1517
▁திருக்கோவிலூர்	-11.1517
▁ரம்யா	-11.1518
கேஸ்வர	-11.152
▁தருவார்	-11.1521
com	-11.1522
ப்படுவார்கள்	-11.1524
▁இதையொட்டி	-11.1526
▁ஜெய்சங்கர	-11.1526
▁மேயர	-11.1526
▁2003	-11.1528
▁பன்றி	-11.1529
▁சும்மா	-11.1532
▁போலியான	-11.1543
▁பொருத்தமான	-11.1547
▁செலுத்துவத	-11.1548
▁பிரதேசங்கள	-11.1552
▁விதிப்ப	-11.1585
▁உயிரியல	-11.1585
▁சாதியினர	-11.1599
▁சலுகைகள	-11.1607
▁தேரோட்ட	-11.1614
▁கார்த்திகேயன்	-11.1615
▁ஜெலன்ஸ்கி	-11.1615
▁பள்ளிக்கல்வி	-11.1615
▁அஸ்ஸாம	-11.1615
▁ராகுல்காந்தி	-11.1615
▁நூற்றுக்க	-11.1615
▁விபரங்கள	-11.1615
▁தரப்பிலிருந்து	-11.1615
கும்பகோணம்	-11.1615
▁தெய்வானை	-11.1616
▁சேமிக்க	-11.1616
▁மேட்டூர	-11.1617
▁பதுங்கி	-11.1617
▁கிரகணம்	-11.1618
▁மேடம்	-11.1618
▁உறுதிமொழி	-11.1623
▁காரணங்களுக்க	-11.1634
▁வைக்கிறது	-11.1641
▁வரிசையாக	-11.1645
▁இத்திட்டத்த	-11.1652
▁பெற்றவர்கள	-11.1653
▁கூண்ட	-11.1654
▁பாதிக்கப்பட்டவர	-11.1658
▁உயிரோட	-11.1669
▁சாதனங்கள	-11.168
▁மட்டத்தில	-11.1682
▁பாதியில	-11.1689
▁கொடுப்பத	-11.1689
▁நிதியத்தின	-11.17
▁போடுவத	-11.1704
▁போலீசில	-11.1711
▁நியமிக்கப்பட	-11.1711
▁இந்நிகழ்ச்சி	-11.1716
▁நாகர்கோவில	-11.1716
▁புன்னகை	-11.1716
▁சர்வாதிகார	-11.1716
▁ஸ்கூட்டர	-11.1716
▁குற்றால	-11.1717
▁பாண்டே	-11.1717
▁சரியில்லை	-11.1717
▁பிரிவினை	-11.1717
▁ரம்மி	-11.1718
▁பிடிபட்ட	-11.172
▁திருத்தேர	-11.1723
▁2001	-11.1732
▁லியோ	-11.1735
வாய்ந்த	-11.1738
▁பிரிக்கப்பட்ட	-11.1746
▁ஃப்ள	-11.1749
▁நகர்த்த	-11.1749
▁யாருடைய	-11.1751
▁தலைப்பில	-11.1759
ெம்பர	-11.1785
▁கிழக்க	-11.1791
▁சபாநாயகர	-11.1793
▁சொல்லுங்க	-11.1817
ரீவில்லிபுத்தூர்	-11.1818
▁பெருந்தோட்ட	-11.1818
▁வம்சாவளி	-11.1818
▁கிரிப்டோ	-11.1818
▁நிலைநாட்ட	-11.1819
ராஜதந்திர	-11.1819
▁விமர்சகர்கள	-11.182
▁கருவறை	-11.182
▁சிவகாசி	-11.1822
▁வருபவர்கள	-11.1825
ity	-11.1826
▁06	-11.1827
▁மொய்	-11.1828
▁பிரசாரத்த	-11.1833
▁விஸ்வ	-11.1835
▁வயதுடைய	-11.1836
▁வாந்தி	-11.184
ட்ரிக்	-11.1844
▁உத்தரவிடப்பட்ட	-11.1846
ிருந்தேன்	-11.1848
▁கூட்டத்திற்க	-11.1851
ஃ	-11.1869
போதே	-11.1875
▁பாளைய	-11.188
தகாத	-11.188
▁சீக்கிய	-11.1882
▁பயில	-11.1886
▁சித்தார்த்	-11.1892
▁மொன்ற	-11.1897
▁ரசித்த	-11.1906
▁தகர	-11.1914
▁இப்ராஹிம்	-11.1921
▁கிளிநொச்சி	-11.1921
▁பால்குடம்	-11.1921
▁பொறுப்பேற்க	-11.1921
▁1999	-11.1921
▁மாம்பழ	-11.1921
▁விபரீத	-11.1921
▁முன்மொழிவு	-11.1921
▁கற்பிக்க	-11.1922
▁சேகரிப்ப	-11.1922
▁விநாடி	-11.1922
▁ஒண்ண	-11.1922
▁ஒதுங்கி	-11.1922
▁சாமானிய	-11.1922
▁நிற்பத	-11.1922
முனுசாமி	-11.1922
ப்பாக்கம்	-11.1922
▁அபராத	-11.1922
▁மகேந்திர	-11.1924
▁வாதிட்ட	-11.1927
▁ஹிந்தி	-11.1929
▁ஸ்டேட்	-11.1933
▁வாரத்தில	-11.1934
▁கோடிக்கணக்க	-11.1941
▁மாவட்டத்தில	-11.1948
▁ஆதித்ய	-11.1949
▁நோயால	-11.1981
▁வெளிநாட்டில	-11.1986
▁கணக்கிட	-11.1992
▁ஆட்டங்களில	-11.2002
▁நகல	-11.2004
▁நிம்மதிய	-11.2004
▁புற்றுநோய	-11.2004
▁காளஹஸ்தி	-11.2026
▁திட்டவட்டமாக	-11.2026
▁தென்கிழக்க	-11.2026
▁1996	-11.2026
▁கிணற்ற	-11.2026
▁தாம்பர	-11.2026
▁ரத்நாயக்க	-11.2026
▁கட்டுப்பாடுகள	-11.2026
▁நினைவுகூர	-11.2027
▁மெட்ரிக்	-11.2028
▁காமாட்சி	-11.2028
▁பவானி	-11.2029
▁தவிர்த்த	-11.203
▁சங்கீத	-11.2031
▁குணமடைந்த	-11.2031
▁விரைய	-11.2041
▁காஞ்சி	-11.2042
▁நாள்களாக	-11.2046
ஐசிசி	-11.205
▁முரண்பாட	-11.2052
▁எரிச்சல	-11.2065
▁பேச்சாளர்	-11.2065
▁எழுத்த	-11.2076
▁கடைகளில	-11.2079
▁அனுப்புவத	-11.2079
▁பதிவிட	-11.2081
▁சுப்ரமணிய	-11.2084
▁விழாவுக்க	-11.2101
▁விழாவிற்க	-11.2108
▁நாட்டில	-11.2113
▁பிழைத்த	-11.2119
ேஷன	-11.2121
▁சொல்வத	-11.2123
▁உருமாற	-11.2124
▁போயிட்ட	-11.2126
▁ஒப்பிடுகையில்	-11.2131
▁மாண்புமி	-11.2131
▁சித்தராமையா	-11.2131
▁தோற்கடித்த	-11.2131
▁மசாலா	-11.2131
▁காகித	-11.2131
▁நிலத்தடி	-11.2131
▁சின்ஹா	-11.2131
▁முப்படை	-11.2132
▁விழாவையொட்டி	-11.2132
▁வீச்சாளர	-11.2133
▁தரப்பிலும	-11.2135
▁பொருட்டு	-11.2136
▁நடுநிலை	-11.2136
▁ப்படுகின்ற	-11.2137
▁கசிந்த	-11.214
▁விலக்கி	-11.2141
▁முக்த	-11.2143
▁எழுப்பியுள்ளார்	-11.2149
▁காரணிகள	-11.2153
▁வழிபாட்ட	-11.2153
▁மாஸ்க்	-11.2162
▁இடம்பெற்றிருந்த	-11.2163
▁எப்போத	-11.2167
▁கடற்கரையில	-11.2171
ஓபிசி	-11.2177
▁நூற்றாண்டில	-11.2179
▁வாசித்த	-11.2197
ெண்ணெய்	-11.22
▁முழுவதிலும	-11.2218
@	-11.2237
DMK	-11.2237
▁இருந்தபோதிலும்	-11.2237
▁குற்றப்பத்திரிக	-11.2237
▁தைப்பூச	-11.2237
▁மூதாட்டி	-11.2237
▁பூதேவி	-11.2237
▁கடிதங்கள	-11.2237
▁குல்தீப்	-11.2237
▁உலோக	-11.2237
▁மகத்தான	-11.2237
▁தரிசித்த	-11.2238
▁வடிவமைத்த	-11.2238
▁வழக்கம்போல	-11.2238
▁பேட்டியளித்த	-11.2238
▁ஒப்பிடும்போது	-11.2238
▁வாட்ஸ்அப்	-11.2239
▁பணிகளுக்கா	-11.224
▁வெல்வ	-11.2247
▁விநாயக	-11.2269
▁பாரிஸ	-11.227
▁பேசினால	-11.2283
▁சமைத்த	-11.2283
▁விவாதித்த	-11.2288
▁போலீச	-11.2334
▁படகில	-11.2336
▁ஆக்கிரமிப்ப	-11.2342
▁கல்லீரல	-11.2345
▁நுரையீரல	-11.2345
▁அகமதாபாத்	-11.2345
▁ஆலோசித்த	-11.2345
▁கொடைக்கானல	-11.2345
▁பரிசோதித்த	-11.2345
▁புகழேந்தி	-11.2345
▁நிதியாண்டில	-11.2345
▁பூசாரி	-11.2345
▁விகாரை	-11.2345
▁எஞ்சிய	-11.2345
▁வாபஸ்	-11.2345
▁இணங்க	-11.2346
▁உறங்க	-11.2346
▁ஆரம்பிச்ச	-11.2346
▁கைதான	-11.2347
ரவீந்திரநாத்	-11.2347
▁கற்களை	-11.235
▁நடக்கின்றன	-11.2353
▁எழுகிறது	-11.2353
▁ஆயிரத்திற்கு	-11.2354
கொண்டிருக்கிறோம்	-11.2355
▁கேசவ	-11.2355
தானே	-11.2356
▁சட்டமூலம்	-11.2357
ஸ்டாலின	-11.236
▁பூக்கள	-11.2362
▁மொஹ	-11.2363
▁ch	-11.2365
▁இயக்கத்தின	-11.2367
▁வழங்கப்படவில்லை	-11.2373
▁ஜோதிட	-11.2381
▁பார்ப்பத	-11.2389
▁உயிரிழந்தவர்கள	-11.24
▁குற்றப்பிரிவ	-11.2421
▁யாரால	-11.2445
▁வசித்த	-11.2453
▁அருணாசல	-11.2454
▁உண்ணாவிரத	-11.2454
▁ஒவ்வொன்ற	-11.2454
▁கழிப்பறை	-11.2454
▁தென்னரசு	-11.2454
▁மானாமதுரை	-11.2454
▁தாலிபன்	-11.2454
▁விரிவுரை	-11.2454
▁ஒழுக்க	-11.2454
▁பொதுவெளி	-11.2454
▁பிரமாண	-11.2454
▁தலையிட்டு	-11.2454
▁ாதீங்க	-11.2456
▁ஊர்வலத்த	-11.2458
▁கிளாஸ	-11.246
▁பரத	-11.2462
▁ராணா	-11.2464
யிற்று	-11.2469
▁சட்டப்பிரிவ	-11.248
மரியாதை	-11.2482
ேட்டிங்	-11.2488
▁கைவிட்ட	-11.2494
▁பெருமளவ	-11.2496
▁ஆங்கிலேயர்கள	-11.2501
▁சர்வீ	-11.2511
▁பெரியளவில	-11.2512
▁எதிரிகள	-11.2512
▁உறைந்த	-11.2531
▁போஸ்டர்கள	-11.2537
▁தசாப்தங்கள	-11.2538
▁நடராஜ	-11.2559
▁ஒத்துழைக்க	-11.2563
▁செவிலியர்	-11.2563
▁ஜார்கண்ட்	-11.2563
▁தேஜஸ்வி	-11.2563
▁முதியோர்	-11.2563
▁வடிவேலு	-11.2563
▁ஒடிஷா	-11.2563
▁கைகூட	-11.2563
▁பகீர்	-11.2564
▁வனிதா	-11.2564
▁விசுவாச	-11.2564
▁தயவு	-11.2564
▁கார்பன்	-11.2564
▁காலமானார்	-11.2564
▁தயக்கம	-11.2564
▁உழவர்	-11.2565
▁காண்பிக்க	-11.2568
▁சிக்சர	-11.2571
ிந்திய	-11.2572
▁விசாரித்தபோது	-11.2573
▁உயர்தர	-11.2575
▁ுவதோடு	-11.2576
▁பிரேக்	-11.2583
▁பகிர்வ	-11.2585
▁திரையரங்குகள	-11.2598
▁பொருட்	-11.2599
▁மசோதாக்கள	-11.2613
▁திட்டத்துக்க	-11.262
▁தம்பதியினர	-11.2626
▁பிராமண	-11.2637
▁பெண்களுக்க	-11.2639
▁ராஜபக்ச	-11.2657
▁துறையினர	-11.2668
ஹிஸ்புல்லா	-11.2675
▁அர்ஜென்டினா	-11.2675
▁திஸாநாயக்க	-11.2675
▁விந்தணு	-11.2675
▁வேகப்பந்துவீச்ச	-11.2675
▁ாமலும்	-11.2675
▁நிலவரப்படி	-11.2675
▁செய்துகொள்ள	-11.2675
▁கோமாளி	-11.2675
▁சொர்க்க	-11.2675
▁அப்புறப்படுத்த	-11.2675
▁நொறுக்க	-11.2675
▁வருஷம	-11.2675
out	-11.2676
▁அனர்த்த	-11.2676
▁விரைந்த	-11.2679
▁குத்தகை	-11.268
▁சொல்கிறேன்	-11.268
▁நந்தினி	-11.2683
▁கோவில்பட்டி	-11.2686
▁வெளிநாடுகளுக்கு	-11.2688
▁போகிறோம்	-11.269
▁நிறைவேற்றப்பட	-11.2694
▁அதிகரிப்பத	-11.2702
▁ஸ்ரீராம	-11.2707
▁அமைப்பதற்க	-11.2708
▁ஹார்ட	-11.2717
▁காட்டுகின்றன	-11.2727
▁டிரைவ	-11.2732
▁சென்டர	-11.2739
▁திசையில	-11.2747
art	-11.2763
▁விளக்குகள	-11.2767
▁வைத்திருக்கிறார	-11.2772
▁கொள்கின்ற	-11.2774
▁பெருநகர	-11.2787
▁குற்றஞ்சாட்ட	-11.2787
▁பரிசீலிக்க	-11.2787
▁முற்பட்ட	-11.2787
▁ராஷ்டிர	-11.2787
▁என்பார்கள்	-11.2787
▁கவிதா	-11.2787
▁வாழ்த்துக்களை	-11.2788
▁மேம்பட்ட	-11.2788
▁தலைமையகத்த	-11.2788
▁ஒப்பிட்டு	-11.2788
▁வாத்திய	-11.2789
▁வளாகம்	-11.2789
▁நடனமாட	-11.279
▁ரத்தின	-11.2791
▁செய்கிறோம்	-11.2794
▁ஏற்படுத்துவத	-11.2802
▁முன்னர	-11.2804
▁சேலத்தில	-11.2806
▁எங்கிருந்த	-11.2813
கட்சி	-11.2813
▁பேசுகிற	-11.2819
▁ரன்னில	-11.2823
பிஷேகம்	-11.2823
▁நபிகள	-11.2859
▁பரமேஸ்வர	-11.2862
▁வைரலாக	-11.287
▁பிரபாகர	-11.2877
▁இஸ்லாம	-11.2894
▁பதிவிட்டுள்ள	-11.2897
▁அப்பாற்பட்ட	-11.2901
▁சமீபகாலமாக	-11.2901
▁தலையீடு	-11.2901
▁தொலைதூர	-11.2901
▁ரஹ்மான்	-11.2901
▁ஹார்மோன்	-11.2901
▁இச்சம்பவ	-11.2901
▁துரோகம்	-11.2901
▁தொழிற்சங்க	-11.2901
▁துண்டிக்கப்பட்ட	-11.2901
▁குபேர	-11.2901
▁பணிப்புரை	-11.2901
▁ஆசிரம	-11.2901
▁நடமாட்டம	-11.2901
▁அரிவாள	-11.2901
▁மௌன	-11.2901
▁மெத்தன	-11.2907
▁ஆஸ்த	-11.2908
▁ஸ்ரீலங்க	-11.291
▁தீவிரமடைந்த	-11.2911
▁2005	-11.2913
▁செய்திருப்பத	-11.2915
▁புழு	-11.292
▁பட்டியலிட	-11.2922
▁வியப்ப	-11.2931
▁குன்ன	-11.294
▁அணிந்திருந்த	-11.2962
ிருப்போம்	-11.2965
▁சுனக்	-11.2973
▁துபாயில	-11.2974
▁கூறுவத	-11.2987
▁குவைத்	-11.2992
▁வருண	-11.2997
▁கீத	-11.2997
ாசிரியர்	-11.3001
▁பேசிக்கொண்ட	-11.3006
▁ஆதரிப்ப	-11.3015
▁காற்றழுத்த	-11.3015
▁கோயம்புத்தூர்	-11.3015
▁ஜவஹர்	-11.3015
▁2026	-11.3015
▁பகிரங்கமாக	-11.3015
▁மெஸ்ஸி	-11.3015
▁மூலிகை	-11.3015
▁சட்டப்பூர்வ	-11.3016
▁ராதிகா	-11.3016
▁மெரினா	-11.3016
▁காரைக்குடி	-11.3016
▁ஜஸ்டின	-11.3016
▁சம்மன்	-11.3017
▁வான்வழி	-11.3017
▁த்துடனும்	-11.3017
▁யாழ்	-11.3018
▁வாழ்த்தி	-11.3019
▁நீச்சல்	-11.302
-19	-11.302
▁உதவித்தொகை	-11.302
▁க்கிட்டு	-11.3021
▁ஆப்பிரிக்காவ	-11.3021
▁காமராஜ்	-11.3021
வயிறு	-11.3023
▁தோன்றுகிறது	-11.3025
▁பயின்ற	-11.3027
▁குறைப்பதற்க	-11.3062
▁பேசுவார்	-11.3066
▁செய்யப்படுவத	-11.3077
▁பட்நாயக்	-11.3078
▁செல்வதற்க	-11.3083
▁பெருமளவில	-11.3087
▁தவிர்ப்பத	-11.3092
▁சீரியல	-11.3124
q	-11.3132
▁ஆட்டமிழக்க	-11.3132
▁வடமாநில	-11.3132
▁வியட்நாம	-11.3132
▁இதுதவிர	-11.3132
▁சஞ்சீவ	-11.3132
▁சட்டத்தரணி	-11.3132
▁நிர்வகிக்க	-11.3132
▁மகப்பேற	-11.3132
▁முற்றுகையிட்ட	-11.3132
▁நோன்பு	-11.3132
▁குஷ்பு	-11.3132
▁பிரெஞ்ச	-11.3132
▁கொள்வனவு	-11.3132
▁மலைப்பகுதி	-11.3132
▁பெருமித	-11.3132
▁காலப்பகுதி	-11.3132
▁சம்பாதித்த	-11.3132
▁எனக்கூற	-11.3132
▁ப்ளூ	-11.3132
▁பொருட்படுத்த	-11.3132
▁செயற்படுத்த	-11.3133
▁முற்றுப்	-11.3133
▁வீட்டார	-11.3134
▁நம்புகிறோம்	-11.3134
▁கோகுல	-11.3135
▁முதலிடத்தில	-11.3135
▁நிதிஷ்குமார்	-11.3135
▁அம்பேத்கர	-11.3135
▁நினைக்கிறார்கள்	-11.3138
▁07	-11.3141
▁நிற்கிறது	-11.3142
▁மழைக்கால	-11.3142
▁தொடர்புகொண்ட	-11.3143
▁தாராள	-11.3144
▁தியாகராஜ	-11.3148
▁பற்கள	-11.316
▁பங்களிப்ப	-11.317
▁தொடர்வத	-11.3173
▁விஷயங்கள	-11.3182
▁பொட்ட	-11.3183
போட்டியிடுகிறார்	-11.3192
▁இவன	-11.3197
▁ரேஸ	-11.3216
கொள்வது	-11.3221
▁அடைகிற	-11.3224
▁வாரியத்த	-11.3233
▁இறந்தவர்கள	-11.3241
▁வைரஸ	-11.3242
ill	-11.3245
▁அமேசான	-11.3249
▁ஒளிப்பதிவ	-11.3249
▁டெபாசிட்	-11.3249
▁மாயாவதி	-11.3249
▁கொள்ளையடித்த	-11.3249
▁மின்னஞ்சல	-11.3249
▁வியாழன	-11.3249
▁தகவலின்படி	-11.3249
விஜயபாஸ்கர்	-11.3249
▁சின்னத்திரை	-11.3249
▁சந்தீப்	-11.325
▁ரிலீஸ	-11.325
▁ரஞ்சன்	-11.325
▁வரையறை	-11.325
▁நெறிமுறைகள	-11.325
▁ஸ்கேன்	-11.325
▁கலாய்த்த	-11.3251
▁நடக்காது	-11.3251
▁வாக்குவாதத்த	-11.3253
▁சேமித்த	-11.3254
▁ஊழியர	-11.3255
▁அதைத்தொடர்ந்து	-11.3256
▁வீச்சில	-11.3256
▁கூர்ந்த	-11.3257
▁வயசு	-11.3258
▁சவுந்தர	-11.3259
▁உதவுகிறது	-11.3262
▁நடைபெறவிருக்க	-11.3266
▁மோகன	-11.3266
▁தேவார	-11.3267
▁வாசிக்க	-11.3269
▁வாசிப்ப	-11.3271
▁கிழக்கில	-11.3275
▁ஆவணங்கள	-11.3302
▁பக்கங்களில	-11.3307
▁கூறுகின்ற	-11.3329
▁உணவகத்த	-11.3329
சிபிக்	-11.3346
▁பரிசீலனை	-11.3368
▁பறிகொடுத்த	-11.3368
▁பேஸ்புக்	-11.3368
▁ப்போவதாக	-11.3368
▁வனவிலங்கு	-11.3368
▁திங்கள்கிழமை	-11.3368
▁விமரிசை	-11.3368
=	-11.3368
▁அநீதி	-11.3369
▁வைணவ	-11.3369
▁ஷெரீப்	-11.3369
▁பொழுதுபோக்க	-11.3369
▁பெருவிழா	-11.337
▁பெயரிடப்பட்ட	-11.3371
▁கிடைச்ச	-11.3371
▁இதைத்தொடர்ந்து	-11.3373
▁பூரண	-11.3373
▁வகிக்கிறது	-11.3373
▁09	-11.3377
▁மேல்முறையீட	-11.3378
▁கண்ணீர	-11.3379
▁நலத்திட்ட	-11.338
▁வலியுறுத்துகிற	-11.3388
▁மக்களுக்க	-11.3393
▁அதிகளவ	-11.3393
▁நாகராஜ	-11.3394
சங்கர்	-11.3395
J	-11.3407
▁அர்ஷ	-11.3418
PS	-11.3425
▁விஞ்ஞான	-11.3449
▁தண்டிக்கப்பட	-11.3461
▁குறைந்தபட்சம	-11.3463
▁ிப்பதற்கா	-11.3464
▁கொடுப்பதற்க	-11.3473
▁விளம்பரங்கள	-11.3476
▁கருக்கலைப்பு	-11.3489
▁சட்டமூலத்த	-11.3489
▁சுப்ரீம்	-11.3489
▁பதவியேற்பு	-11.3489
▁ஆழ்த்திய	-11.3489
▁பணியமர்த்த	-11.3489
▁பதிவேற்ற	-11.3489
▁லக்ஷ்ம	-11.3489
▁சமாளித்த	-11.3489
▁தாமஸ்	-11.349
▁கருத்தரங்க	-11.3492
▁ுகிறீர்கள்	-11.3492
▁திகழ்ந்த	-11.3493
▁புதைக்க	-11.3498
▁தெரியவரும்	-11.3499
▁கல்லூரிகளில	-11.3501
▁வாசிகள	-11.3509
▁சமைக்க	-11.3512
▁அமுத	-11.3568
tic	-11.358
▁மக்களால	-11.3589
▁அரேபிய	-11.3591
லையேற்ற	-11.3601
▁நிலநடுக்கத்த	-11.3603
▁ஸ்மித்	-11.3607
▁கவிஞர்	-11.3611
▁தொழுகை	-11.3611
▁பவர்ப்ளே	-11.3611
▁சமாஜ்வாடி	-11.3611
▁வலதுசாரி	-11.3611
▁ராஷ்ட்ர	-11.3611
▁பிரபஞ்ச	-11.3611
▁சவுத்ரி	-11.3611
▁முல்லை	-11.3612
▁பயனாளிகள	-11.3612
▁மலையக	-11.3612
▁குருவின	-11.3612
▁பின்வாங்க	-11.3612
▁நடிச்ச	-11.3612
▁காட்சியளித்த	-11.3613
▁மகிழ்ந்த	-11.3614
▁மலர்கள	-11.3615
▁வாங்குவதற்க	-11.3616
▁ஒடிசாவ	-11.3616
▁பிறப்பித்துள்ள	-11.3624
▁அன்னதான	-11.3631
▁பிரதாப	-11.3637
▁பேட்டிங்கில	-11.3643
▁ராஜராஜ	-11.3645
ிருக்கேன்	-11.3651
மில்லர்	-11.3656
ப்பிரிவு	-11.3668
▁வேறுபாடுகள	-11.3669
▁அனைத்த	-11.3678
▁கார்ப்பரே	-11.3679
கட்டமைப்பு	-11.3683
▁வாடிக்கையாளர	-11.3685
our	-11.3711
▁தொழிற்சாலைகள	-11.3717
▁அருள்பாலிக்க	-11.3734
▁இழிவுபடுத்த	-11.3734
▁சுற்றறிக்கை	-11.3734
▁மருமகன	-11.3734
▁வர்த்தமானி	-11.3734
▁ஸ்பெஷல்	-11.3734
▁முற்போக்கு	-11.3734
▁நிவர்த்தி	-11.3734
▁வரையறுக்க	-11.3734
▁உலுக்கி	-11.3734
விபத்துக்குள்ளான	-11.3734
▁உசேன்	-11.3734
▁சுதர்சன	-11.3734
▁குடியேற்ற	-11.3735
▁ஜானகி	-11.3735
▁ஒத்திவைக்க	-11.3735
▁முரணா	-11.3735
▁புற்று	-11.3736
▁உற்று	-11.3736
▁காம்ப	-11.3736
▁பீரங்கி	-11.3736
▁Ex	-11.3737
▁செய்தித்தாள	-11.3737
யிண்ட்	-11.3738
▁அழிப்ப	-11.3744
▁கொல்கத்தாவ	-11.3745
▁ஷங்கர	-11.3748
▁ரோட்டில	-11.3748
▁புத்தாண்ட	-11.3748
▁சான்றிதழ	-11.3753
வேண்டியிருக்கும்	-11.3756
ஃபீ	-11.376
▁ஸ்டைல	-11.3776
▁ஆங்கிலத்தில	-11.3793
▁ஒருவருக்க	-11.3811
▁கைலாச	-11.3834
▁காரர்கள	-11.3835
▁சிவாச்சாரியார்	-11.3859
▁சுத்திகரி	-11.3859
▁நல்வாழ்வு	-11.3859
▁இடைநீக்க	-11.3859
▁இளநீர்	-11.3859
▁தோற்கடிக்க	-11.3859
▁கிருத்திக	-11.3859
▁மலைக்கோயில	-11.3859
▁மேற்கூ	-11.3859
▁நளினி	-11.3859
▁கள்ளழகர	-11.3859
▁காலத்திலும்	-11.3859
▁சீரமைக்க	-11.386
▁இவ்வழக்க	-11.386
▁கோட்பாடு	-11.386
▁இழை	-11.3861
▁பௌல	-11.3861
▁உத்தரவாதம	-11.3861
▁எறிந்த	-11.3861
▁சொல்வார்கள்	-11.3862
▁பழுது	-11.3865
▁சண்டையிட	-11.3866
▁நிர்ணயித்த	-11.3896
க்குள்ளே	-11.3903
▁புடின	-11.3914
சுந்தரி	-11.3947
▁கெய்க்வாட்	-11.3986
▁பகுப்பாய்வு	-11.3986
▁பொதுத்தேர்வ	-11.3986
▁மனப்பான்மை	-11.3986
▁மாமல்லபுர	-11.3986
ा	-11.3986
▁உற்ஸவ	-11.3986
▁கிரிமினல்	-11.3986
▁திருப்புமுனை	-11.3986
▁நாகேந்திரன்	-11.3986
▁மின்வெட்டு	-11.3986
▁வரதட்சணை	-11.3986
▁மைக்கேல்	-11.3986
▁வெளுத்த	-11.3986
▁துருப்பு	-11.3986
▁ஆதங்க	-11.3986
▁செலவின	-11.3986
▁அலர்ட்	-11.3986
▁கோஷ்டி	-11.3987
▁வயதாகும்	-11.3988
▁வயதுக்குட்பட்ட	-11.3988
▁பல்லக்கு	-11.3988
▁கணேஷ்	-11.3991
▁செயற்பட்ட	-11.3999
வர்த்தன	-11.4
ள்ளாகி	-11.4001
குறிச்சி	-11.4001
▁கெஜ்ரிவால	-11.4011
▁உரிமையாளர	-11.4011
▁பரப்பளவ	-11.4012
▁பங்கீட	-11.4014
வண்ண	-11.4032
▁பறிபோ	-11.4034
ார்களோ	-11.4039
▁நிலுவை	-11.4067
▁ஆண்ட்ர	-11.4067
▁புண்படுத்த	-11.4114
▁தேசியக்கொடி	-11.4114
▁பதவியேற்க	-11.4114
▁மெட்ராஸ	-11.4114
▁அப்டேட்	-11.4114
▁ராஜயோக	-11.4114
▁மேம்பாடு	-11.4114
▁பாட்னா	-11.4117
▁அபிராம	-11.4117
▁ஆதரவளிக்க	-11.4119
▁வள்ளல	-11.412
▁மலிவ	-11.4124
▁கோணத்தில	-11.4124
▁ஸ்மிர	-11.4131
▁கவுரவ	-11.4144
▁அவங்கள	-11.4161
மாரியம்மன்	-11.4163
▁பயனர்கள	-11.4176
▁அடைவதற்க	-11.4191
▁குவிய	-11.4196
▁ங்கிற	-11.4202
▁அதிகரிப்பதற்க	-11.4206
▁ஓய்வெடு	-11.4206
▁அகாடமி	-11.4244
▁உள்ளூராட்சி	-11.4244
▁சித்ரவதை	-11.4244
▁சுவாரசிய	-11.4244
▁நிபுணத்துவ	-11.4244
க்குழுவினர்	-11.4244
▁பங்களாதேஷ	-11.4244
▁துளசி	-11.4244
▁ஆகையால்	-11.4245
▁குங்கும	-11.4245
▁சப்பர	-11.4245
▁ஸ்டோரி	-11.4245
▁அறிவாலய	-11.4246
▁புளிய	-11.4249
▁பதக்கங்கள	-11.4254
▁சர்தார	-11.4257
▁அடித்தளம	-11.4262
▁எடுப்பதற்க	-11.4267
▁ஓட்டுநர	-11.4276
▁கிரெட	-11.4276
▁ஐயப்ப	-11.4282
▁தருணங்கள	-11.4293
▁சீக்கியர்கள	-11.4295
▁பாலகிருஷ்ண	-11.4304
▁பாபர	-11.4304
▁எண்ணெய	-11.4305
ப்பெரும	-11.4347
▁அதிகாரங்கள	-11.4374
▁பார்ட்னர்ஷிப்	-11.4376
▁கயிறு	-11.4376
▁குண்டுவெடிப்ப	-11.4376
▁முன்னறிவிப்பு	-11.4376
▁வறட்சி	-11.4376
▁ஷூட்டிங்	-11.4376
▁பொதுப்பணி	-11.4376
▁அதேவேளையில்	-11.4376
▁உத்தேச	-11.4376
▁தீர்வாக	-11.4376
▁பாரபட்சம	-11.4376
▁டெஸ்டில	-11.4376
▁வறண்ட	-11.4377
▁விதவிதமா	-11.4377
▁ஊக்குவிப்பத	-11.4379
▁துரைசாமி	-11.4379
▁ரிக்டர	-11.4381
▁திருவிள	-11.4382
▁இதில	-11.4392
▁ஈழத்	-11.4393
▁தெற்க	-11.4399
▁உயிரின	-11.4399
ப்ரியா	-11.4408
▁மமத	-11.4426
▁வயிற்ற	-11.4434
▁காண்பித்த	-11.4454
ில்லாத	-11.4467
▁பயிர	-11.4467
▁அதிகமானோர	-11.4495
▁தருவத	-11.4501
▁அமைந்திருக்க	-11.4507
▁இணைவத	-11.4508
▁எமிரேட்ஸ	-11.4509
▁அந்நிறுவன	-11.4509
▁முருகப்பெருமான	-11.4509
▁ஸ்திரத்தன்மை	-11.4509
▁செங்கோட்டை	-11.4509
▁ஃபீல்ட	-11.4509
▁நெற்றி	-11.4509
▁சேஸிங்	-11.451
▁யுவராஜ	-11.451
▁வலுசக்தி	-11.451
▁அய்யனார்	-11.4511
▁ஃபோன	-11.4516
▁நம்பிக்கையில்லா	-11.4517
ரேவதி	-11.4524
▁சங்கங்கள	-11.4537
வேலுமணி	-11.4562
நல்லூர்	-11.4569
▁சையத	-11.4569
▁மூழ்க	-11.457
▁ிருக்கின்ற	-11.4605
▁உத்தியோகத்தர்கள	-11.4623
▁லோகேஷ	-11.4636
▁பாரம்பர்ய	-11.4644
▁வாக்குமூலத்த	-11.4644
▁அத்தியாய	-11.4644
▁ஆய்வறிக்கை	-11.4644
▁உயர்ஸ்தானிகர	-11.4644
▁ஒருங்கிணைத்த	-11.4644
▁சுற்றாடல	-11.4644
▁செந்தில்பாலாஜி	-11.4644
▁பாசிட்டிவ	-11.4644
▁மோசமடைந்த	-11.4644
▁வேக்சின்	-11.4644
▁சேதுபதி	-11.4644
▁சிவக்குமார்	-11.4644
▁தகவலறிந்த	-11.4644
▁பள்ளத்தாக்க	-11.4644
▁ுவாரா	-11.4644
▁தீர்வை	-11.4645
▁பிரிவினைவாத	-11.4646
▁நிமிஷ	-11.4646
▁தாய்மார்கள	-11.4646
▁அசுர	-11.4646
▁எகிற	-11.4649
▁ஒன்பதாம	-11.4676
▁கீப்பர	-11.4683
▁தினகரன	-11.4687
▁டாக்டர	-11.4687
▁மொழிகளில	-11.4694
பாலின	-11.4704
▁பேப்பர	-11.4704
▁நிமிடத்தில	-11.4732
▁ஆய்வாளர	-11.4738
▁துடித்த	-11.4743
▁பயணத்தில	-11.4778
▁GMT	-11.4781
▁அங்கீகரித்த	-11.4781
▁அப்பார்ட்மெண்ட்	-11.4781
▁உயிரிழக்க	-11.4781
▁குறிக்கோள	-11.4781
▁சீர்காழி	-11.4781
▁நடைபயண	-11.4781
▁நுண்ணுயிர	-11.4781
▁மல்லிகார்ஜுன	-11.4781
▁முல்லைத்தீவ	-11.4781
▁மூலோபாய	-11.4781
▁மேகதாது	-11.4781
▁வாக்குச்சாவடி	-11.4781
▁வெளியீடு	-11.4781
▁முய்சு	-11.4781
▁உள்நாட்டில	-11.4781
▁லேப்டாப்	-11.4781
▁எருமை	-11.4781
▁(10	-11.4781
▁ஸ்ட்ரைக்	-11.4781
▁தரப்பிற்கு	-11.4781
▁ஐபிஎஸ்	-11.4781
▁பட்டப்படிப்ப	-11.4782
பிஎஸ்சி	-11.4783
▁ஊஞ்சல	-11.4783
▁பெருகும்	-11.4783
▁ரவுண்ட	-11.4783
▁விரிசல்	-11.4783
▁யம்மன	-11.4787
▁உத்தியோகத்தர்	-11.4802
▁கிரைம	-11.4806
▁குடியரச	-11.4809
▁உத்தம	-11.4823
▁நேரத்தில	-11.4829
ழங்கால	-11.4837
▁மற்றும	-11.4837
▁பாட்டாள	-11.4844
அவுட்	-11.4845
தலைவர்	-11.4848
▁வலைத்தள	-11.4859
பத்திய	-11.4866
▁மாநிலத்தில	-11.4871
▁ஜெனர	-11.4904
▁முரண்	-11.4906
▁துர்நாற்ற	-11.492
▁இடஒதுக்கீட்ட	-11.492
▁இடப்பெயர்ச்சி	-11.492
▁கூட்டுத்தாபன	-11.492
▁சுயேட்சை	-11.492
▁சுரங்கப்பாதை	-11.492
▁புல்டோசர்	-11.492
▁ரவிச்சந்திரன்	-11.492
▁வரவழைக்கப்பட்ட	-11.492
▁அசம்பாவித	-11.492
▁கொந்தளித்த	-11.492
▁சூறையாட	-11.492
▁ஸ்கூல்	-11.492
▁பிற்பகுதி	-11.492
▁இஸ்லாமாபாத்	-11.492
▁துறவி	-11.492
▁தோழர்	-11.4921
▁தஞ்சம்	-11.4921
▁வீசக்கூடும்	-11.4922
▁சேப்பாக்க	-11.4922
▁பாடசாலைகள	-11.4925
▁சறுக்க	-11.4929
▁வயிற்றில	-11.493
புருஷ	-11.4931
ுர்வேத	-11.4932
▁லடாக்	-11.4936
செய்திருக்கிறோம்	-11.4942
▁திரையிட	-11.4943
▁தீர்ந்த	-11.4958
▁வியக்க	-11.4961
▁பத்திரிகையாளர	-11.4971
▁செய்திக்குறிப்ப	-11.5038
▁வசூலித்த	-11.5047
▁இறையாண்மை	-11.5061
▁சம்மதம்	-11.5061
▁சிறுவயதில	-11.5061
▁தலைகீழா	-11.5061
▁பகவதி	-11.5061
▁முரசொலி	-11.5061
▁பகவத்	-11.5061
▁பிரவீன்	-11.5061
▁பொறாமை	-11.5061
▁குளிர்கால	-11.5061
▁விளக்கேற்ற	-11.5061
▁புழக்க	-11.5061
வள்ளுவர்	-11.5061
▁பஜனை	-11.5061
▁அப்படியானால்	-11.5061
▁மன்னார்குடி	-11.5061
▁ஆபீஸ	-11.5062
▁விரும்புகிறோம்	-11.5063
▁அடிகளார	-11.5063
▁இட்லி	-11.5065
▁கட்டமைக்க	-11.5068
▁அக்பர	-11.5075
▁காட்டுவத	-11.5076
▁சடலங்கள	-11.5093
கிடைக்கப்போகிறது	-11.5098
▁பேட்டர	-11.5108
▁பிரதிநிதிகள	-11.5119
▁போட்டியாளர	-11.5123
▁பல்லவ	-11.5128
ரட்ச	-11.5137
▁ஓட்டங்கள	-11.5145
▁இதுதொடர்பா	-11.5173
▁ருத்ர	-11.5175
▁ரசிக	-11.5189
▁கடற்பரப்ப	-11.5198
▁குழப்பங்கள	-11.5202
▁ட்ரம்ப	-11.5202
▁அகழாய்வ	-11.5204
▁சிகரெட்	-11.5204
▁ஹாலிவுட்	-11.5204
▁தாலிபான்	-11.5204
▁வவுனியா	-11.5204
▁காணொலி	-11.5204
▁அண்மைக்	-11.5204
▁(21	-11.5204
▁ஆழ்வார்	-11.5204
▁மூலதன	-11.5204
▁ஏதுவாக	-11.5204
▁சரிபார்க்க	-11.5204
அவமதிப்பு	-11.5204
▁சமிதி	-11.5205
▁மிகச்சிற	-11.5205
▁சன்னதியில	-11.5205
▁முகலாய	-11.5206
▁கதாபாத்திரங்கள	-11.5214
▁இராம	-11.5215
▁ஓப்பன	-11.5221
▁அனைத்திலும	-11.5225
▁கிறிஸ்துவ	-11.524
▁வேண்டுகோள	-11.5263
▁எரிபொருள	-11.5263
▁பெண்ணிடம	-11.5265
சிதம்பரம்	-11.5267
▁குறிப்பிடுகின்ற	-11.5285
▁ஜாதகத்த	-11.5289
▁தப்பியோட	-11.5338
▁அலுவலகங்களில	-11.5345
▁ஆபரே	-11.5346
▁BJP	-11.5349
▁அநேக	-11.5349
▁இயற்பியல	-11.5349
▁உட்கொள்ள	-11.5349
▁சுறுசுறுப்ப	-11.5349
▁முறியடிக்க	-11.5349
▁மேக்ஸ்வெல்	-11.5349
▁வைட்டமின்	-11.5349
▁1998	-11.5349
▁பாராயணம்	-11.5349
▁பிசிசிஐ	-11.5349
▁முறியடித்த	-11.5349
▁வைரமுத்து	-11.5349
▁தாவூத	-11.5349
▁திலீப	-11.5349
▁ரவிக்குமார்	-11.5349
▁மென்மையா	-11.5349
▁அபேவர்தன	-11.5349
▁வினாடி	-11.5349
▁அவமதிக்க	-11.5349
▁இடிபாடுகள	-11.5349
▁ஆபத்தை	-11.5349
▁அவமானப்படுத்த	-11.5349
▁வதந்திகள	-11.535
▁அவசியமில்லை	-11.535
▁லலித்	-11.535
▁நீரஜ்	-11.535
▁பேட்ஸ்மேன்கள்	-11.535
▁மட்டுப்படுத்த	-11.5351
▁மாமனார	-11.5351
▁மகாதேவ	-11.5352
▁விறுவிறுப்பா	-11.5354
▁தேசிக	-11.5356
▁அதிகாரிகளுடன	-11.5358
▁புள்ளிவிவரங்கள	-11.5375
ஆழமான	-11.5402
▁நெட்டிசன்	-11.5456
▁மாற்றுவத	-11.5458
▁சுப்ம	-11.5466
▁வைபவம	-11.5475
▁நலத்திட்டங்கள	-11.5482
▁கலசங்கள	-11.5484
▁பண்டிட்	-11.5488
▁எடுத்துக்காட்ட	-11.5488
▁நம்மால	-11.5491
▁1997	-11.5496
▁அவதூறாக	-11.5496
▁உள்நோக்க	-11.5496
▁ஒருங்கிணைக்க	-11.5496
▁டார்கெட்	-11.5496
▁தீபாரதனை	-11.5496
▁மணமகன	-11.5496
▁கேள்விக்குறியாக	-11.5496
▁சாக்லேட்	-11.5496
▁விபூதி	-11.5496
▁ராமானுஜ	-11.5496
▁பொதுநல	-11.5496
▁அருமையா	-11.5496
▁கழிவுநீர	-11.5496
▁கவர்ச்சி	-11.5496
▁புவியியல	-11.5496
▁மாற்றியமைக்க	-11.5496
▁ராஜ்ஜிய	-11.5496
▁மென்பொருள	-11.5496
▁உள்வாங்க	-11.5497
▁வழிகாட்டுதல்கள	-11.5497
▁இன்னிங்ஸில	-11.5498
▁பிரகாசம	-11.5499
▁இந்தியாவுடன	-11.553
▁வேலைவாய்ப்ப	-11.5531
பன்னீர்செல்வ	-11.554
▁வேலைத்திட்டத்த	-11.5549
▁ஈடுபடுவத	-11.5549
சுப்ரமணியன்	-11.5562
▁உறவினர	-11.5562
▁விகடன	-11.5563
நவீன	-11.5563
▁செவ்வாய	-11.5564
▁தனியார	-11.5575
▁இடுப்ப	-11.5581
▁மலேசிய	-11.5625
▁திருக்கோவில	-11.5642
▁பவுண்ட	-11.5645
▁கையொப்ப	-11.5645
▁அவுஸ்திரேலிய	-11.5645
▁ஏஜென்சி	-11.5645
▁நெட்வொர்க்	-11.5645
▁மெக்சிகோ	-11.5645
▁ரொனால்டோ	-11.5645
▁முன்மொழியப்பட்ட	-11.5645
▁ரஹானே	-11.5645
▁வயதாகிறது	-11.5645
▁வீடமைப்பு	-11.5645
▁ஐகோர்ட்	-11.5645
▁ஸ்பேஸ்	-11.5645
▁வெண்கல	-11.5645
▁அரசமைப்பு	-11.5645
▁கீர்த்தி	-11.5645
▁கராச்சி	-11.5645
▁வெற்று	-11.5646
▁பிரகாரம்	-11.5646
▁கழற்றி	-11.5646
ரிட்ஜ்	-11.5646
களுக்கிடையில	-11.5648
▁பணியக	-11.5649
▁யூதர்கள	-11.5649
▁திணிப்ப	-11.565
▁தலைமுறையினர	-11.5679
▁வெயிட்	-11.5688
▁கசிவ	-11.5695
ase	-11.5708
▁வியந்த	-11.5713
ட்டாயமாக	-11.5735
▁ஈடுபாட	-11.5769
▁இழப்பீட	-11.5793
ாஷ்டம	-11.5794
▁அட்டவணை	-11.5796
▁கம்மின்ஸ்	-11.5796
▁குலதெய்வ	-11.5796
▁ஆக்கிரமிக்க	-11.5796
▁லட்சுமண	-11.5796
▁ஊக்குவித்த	-11.5796
▁நித்யானந்த	-11.5796
▁வயதிற்கு	-11.5796
▁லக்னெள	-11.5796
▁லாரன்ஸ்	-11.5796
▁(19	-11.5796
▁அடக்குமுறை	-11.5796
▁மதமாற்ற	-11.5796
▁பார்த்திபன	-11.5796
▁இமாச்சல	-11.5796
▁ரஷித்	-11.5797
▁மேற்பட்டவர்கள	-11.5797
▁நடாத்த	-11.5798
▁இதுவாகும்	-11.5798
▁களுமே	-11.5798
▁கூப்பிட்ட	-11.58
▁அஷ்வின	-11.5803
▁தெருக்களில	-11.581
▁புதித	-11.582
▁சீர்திருத்தங்கள	-11.5834
▁ராட்ச	-11.5838
▁வெளிப்பாட	-11.5853
▁காணப்படுவத	-11.5855
▁மாற்றுவதற்க	-11.5859
▁அசோக	-11.5881
▁மகாராஷ்டிர	-11.5931
▁பூரில	-11.5937
▁சந்தேகங்கள	-11.5941
▁இந்தோனேசியா	-11.595
▁கள்ளக்காதல	-11.595
▁பங்குச்சந்தை	-11.595
▁புகையிரத	-11.595
▁புறம்பான	-11.595
▁பொலிஸார	-11.595
▁மனிதநேய	-11.595
▁மேற்பரப்பில	-11.595
▁1992	-11.595
▁இறந்துவிட்டார்	-11.595
▁சக்கரவர்த்தி	-11.595
▁விபரம்	-11.595
நேற்றிரவு	-11.595
▁டிஎன்ஏ	-11.595
▁திரெள	-11.595
▁பெஞ்சமின	-11.595
▁பெரேரா	-11.595
▁ராமாயண	-11.595
port	-11.595
▁ஹெக்டே	-11.595
▁தண்ணி	-11.595
▁கூலிப்படை	-11.595
▁முன்மொழிந்த	-11.595
▁அவசியமாகும்	-11.595
▁கட்டாயமாக்க	-11.5951
▁குளோப	-11.5952
▁இருமல்	-11.5952
▁நழுவ	-11.5954
▁சிதைந்த	-11.5957
▁கிளாச	-11.5957
▁நால்வர	-11.5971
▁பதிவிட்டிருந்த	-11.5986
▁எவ்வளவ	-11.5996
கீழ்	-11.6025
▁சீனாவுடன	-11.6032
▁வேண்டுதல	-11.6035
த்தனமான	-11.6037
▁கழுத்தில	-11.608
சார்பற்ற	-11.6101
இனப்படுகொலை	-11.6106
▁இனப்பெருக்க	-11.6106
▁நயன்தாரா	-11.6106
▁நாச்சியார்	-11.6106
▁பெரமுன	-11.6106
▁பேரறிஞர	-11.6106
▁வாஜ்பாய	-11.6106
▁ஹெல்மெட்	-11.6106
▁வடிகால்	-11.6106
▁விக்னேஸ்வர	-11.6106
▁குடிமகன	-11.6106
▁குளறுபடி	-11.6106
▁ரேடியோ	-11.6106
▁வேண்டாமா	-11.6107
▁இயேசு	-11.6107
▁நியமிப்ப	-11.6107
▁உண்ப	-11.6107
▁கடைப்பிடித்த	-11.6107
▁மேத்யூ	-11.6107
▁கிருமி	-11.6107
▁வேல்முருகன்	-11.6107
▁போர்க்கள	-11.6107
▁நவாஸ்	-11.6107
▁திடுக்கிட	-11.6108
▁டென்ஷன	-11.6108
▁முத்துக்குமார	-11.6108
▁தையல்	-11.6109
▁சொற்கள	-11.611
▁அசைக்க	-11.6113
▁சோதித்த	-11.6117
▁பலரால	-11.6125
▁சந்தர்ப்பங்களில	-11.6133
▁கையால	-11.6141
24)	-11.6155
▁ஓய்வ	-11.616
▁பவுண்டரிகள	-11.616
▁பார்வையால	-11.6182
வீரமணி	-11.6184
ஹுவா	-11.6186
▁ஜெயக்குமார	-11.6194
▁ஜெர்மன	-11.6219
▁ஏழைகள	-11.6225
▁தொடுக்க	-11.6246
▁தெரியாம	-11.6249
▁போன்றவர்கள	-11.6258
▁ஆசீர்வாத	-11.6265
▁நாகாலாந்த	-11.6265
▁நோய்த்தொற்ற	-11.6265
▁பன்முகத்தன்மை	-11.6265
▁பரவாயில்லை	-11.6265
▁மதுவிலக்கு	-11.6265
▁மறுபரிசீலனை	-11.6265
▁ராஜபக்க்ஷ	-11.6265
▁அரவணை	-11.6265
▁எதிர்வினையாற்ற	-11.6265
▁ராஜகோபுர	-11.6265
▁சார்லஸ்	-11.6266
▁ஹேரத்	-11.6266
▁முனைவோர	-11.6266
▁பாம்பை	-11.6266
▁எடுத்துரைத்த	-11.6266
▁பருமன	-11.6269
▁நீர்நிலைகள	-11.6273
▁சமநிலைய	-11.6276
▁கண்டறிவத	-11.6276
▁பேசுவதற்க	-11.6281
▁கசப்ப	-11.6284
▁சிங்கப்பூர	-11.6286
▁இறந்துவிட்டத	-11.6323
வக்ஃப்	-11.6329
ந்தூர	-11.6342
▁படப்பிடிப்ப	-11.6344
▁தெரிந்தால	-11.637
▁வரவிருக்க	-11.638
▁போக்குவரத்த	-11.6389
▁முழுவத	-11.64
விண்ணப்பிக்கலாம்	-11.6401
▁திருத்தங்கள	-11.6406
▁துகள்கள	-11.6418
▁நடைப்பயண	-11.6426
▁அமுல்படுத்த	-11.6426
▁சப்போர்ட்	-11.6426
▁டைட்டானிக்	-11.6426
▁முக்குலத்தோர்	-11.6426
▁வெள்ளப்பெருக்கு	-11.6426
▁ஹம்பாந்தோட்டை	-11.6426
▁1994	-11.6426
▁ட்விஸ்ட்	-11.6426
▁திருக்குறள	-11.6426
▁வானொலி	-11.6426
▁வீரபாண்டி	-11.6426
▁முழக்கங்கள	-11.6426
▁ஜவுளி	-11.6427
▁(26	-11.6427
▁நோபல்	-11.6427
▁கங்கனா	-11.6427
▁வன்புணர்	-11.6427
▁வந்துவிடும்	-11.6427
▁என்ட்ரி	-11.6427
▁போதாது	-11.6428
▁சொல்கின்றன	-11.6429
▁புதூர	-11.643
▁பின்புறம	-11.6431
▁கான்ஸ்ட	-11.6436
▁செயலாற்ற	-11.6438
▁அடையாளங்கள	-11.6449
▁தலித்துகள	-11.6462
▁கலவைய	-11.6469
▁என்ஜின	-11.6476
நோய்	-11.6476
▁அடுப்ப	-11.6478
▁காப்பகத்த	-11.65
▁என்னவென்ற	-11.6582
▁முதற்	-11.659
▁இந்நிறுவன	-11.659
▁அபகரி	-11.659
▁அருப்புக்கோட்டை	-11.659
▁ஆக்சிஜன்	-11.659
▁சாய்பாபா	-11.659
▁சுங்கச்சாவடி	-11.659
▁சொற்பொழிவ	-11.659
▁டபிள்யூ	-11.659
▁தைராய்டு	-11.659
▁யஷ்வந்த்	-11.659
▁ராயப்பேட்டை	-11.659
▁உடுமலை	-11.659
▁பல்லடம்	-11.659
▁வணக்கம்	-11.659
▁ஹைகோர்ட்	-11.659
▁இன்ஸ்டா	-11.659
▁விதிவிலக்க	-11.659
▁(22)	-11.659
▁டைனோசர	-11.659
▁நாகரீக	-11.659
▁அர்ஜூன	-11.659
▁பாட்டீல்	-11.659
▁கிண்ண	-11.6591
▁டெஸ்லா	-11.6591
▁பின்வருமாறு	-11.6591
▁முகூர்த்த	-11.6591
செழியன்	-11.6591
▁நீக்குவத	-11.6591
▁செழிப்ப	-11.6592
▁சமாதி	-11.6592
▁ஹாங்காங்	-11.6592
▁உற்பத்தியாளர்கள	-11.6595
▁முடியும	-11.6602
▁உயிரிழப்ப	-11.6621
▁படமாக்க	-11.6629
▁திருப்பூர	-11.6634
▁ஏழாவத	-11.6641
▁நிறுவனத்திடம	-11.6661
▁பாதுகாப்பதற்க	-11.6665
ஈ	-11.6676
்சுவல	-11.6685
▁ஹெலிகாப்ட	-11.6701
▁பணக்காரர்கள	-11.6706
▁பெட்ரோ	-11.6735
▁அல்டிமேட்	-11.6757
▁ஆதிகேசவ	-11.6757
▁உடல்நலக்குறைவ	-11.6757
▁எலெக்ட்ரி	-11.6757
▁எவ்வாறாயினும்	-11.6757
▁தன்னிச்சையாக	-11.6757
▁பரிசீலித்த	-11.6757
▁பெய்ஜிங்	-11.6757
▁மயிலாப்பூர	-11.6757
▁லெப்டினன்	-11.6757
▁வாடிக்கையாக	-11.6757
▁விட்டுக்கொடுத்த	-11.6757
▁நேதாஜி	-11.6757
▁பனிப்பாறை	-11.6757
▁வீழ்ந்த	-11.6757
▁வன்மையாக	-11.6757
▁கஜேந்திர	-11.6757
▁அதிர்வு	-11.6757
▁அமோக	-11.6758
▁மேற்குலக	-11.6758
க்குட்பட்ட	-11.6761
▁மணமகள	-11.6772
▁சுருங்க	-11.6778
நிராகரிக்கப்பட்ட	-11.6797
▁சுருட்ட	-11.6803
▁பங்கெடு	-11.6814
▁இதுகுறித்த	-11.6816
கிருஷ்ணன்	-11.6818
▁சமரசம	-11.6832
பாரதி	-11.6846
▁முப்பத	-11.685
▁குளத்தில	-11.6858
▁தென்பட	-11.6859
▁சிரமங்கள	-11.686
▁பரப்பளவில	-11.6878
▁புள்ளிவிவர	-11.6895
▁ராமச்சந்திர	-11.6902
▁ஆகியோருடன	-11.6917
ப்ரவரி	-11.6922
▁அயர்லாந்த	-11.6927
▁திறம்பட	-11.6927
▁மணித்தியால	-11.6927
▁விசாகப்பட்டின	-11.6927
▁அதிகாரசபை	-11.6927
▁ஏஜென்ட	-11.6927
▁கங்குலி	-11.6927
▁காசோலை	-11.6927
▁சம்மேளன	-11.6927
▁செயல்திறன	-11.6927
▁நிலைநிறுத்த	-11.6927
▁பிரீமிய	-11.6927
_	-11.6927
▁டேனியல்	-11.6927
▁சிவகாமி	-11.6927
▁ரம்ஜான	-11.6927
▁காவல்நிலைய	-11.6927
▁ஸ்வாமி	-11.6927
▁விசாரிப்ப	-11.6927
▁கழுதை	-11.6927
▁ஏழ்மை	-11.6927
▁செலவழித்த	-11.6927
▁பிரயோக	-11.6927
▁ஹிட்லர	-11.6927
▁சவரன்	-11.6927
▁இமேஜ	-11.6927
▁கிழித்த	-11.6929
▁பாடுபட்ட	-11.693
▁பவுடர	-11.6932
▁டிக்கெட்டுகள	-11.6933
▁பிரிவுகளில	-11.6934
▁தென்னிந்தியாவி	-11.6936
▁பூஸ்ட	-11.6943
▁பிரதானியும	-11.6944
▁என்கின்ற	-11.6945
▁போட்டோக்கள	-11.6985
▁வரப்போக	-11.7006
தொடர்பு	-11.7018
▁இன்னைக்க	-11.702
கண்ணப்பன	-11.7025
▁தங்கியிருக்க	-11.7029
▁பாலத்தீனர்கள	-11.7034
▁திருமாவளவன	-11.7041
▁அறிவியல	-11.7044
விருத்தி	-11.7051
▁கதவுகள	-11.7064
▁சீதாராம	-11.7075
▁அடைவத	-11.7076
▁சூழலியல	-11.7078
எடுக்கப்படவில்லை	-11.7091
▁மேளதாள	-11.7099
தாமிரபரணி	-11.7099
▁Play	-11.7099
▁ஆடிப்பூர	-11.7099
▁ஐதீகம்	-11.7099
▁சாத்தியக்கூறுகள	-11.7099
▁சொல்லப்போனால்	-11.7099
▁டெண்டுல்கர	-11.7099
▁தரையிறக்க	-11.7099
▁நைஜீரிய	-11.7099
▁நடைபாதை	-11.7099
▁வேகப்பந்து	-11.7099
▁அமிதாப்	-11.7099
▁கோயம்பேட	-11.7099
▁மளிகை	-11.7099
▁கொள்ளையடிக்க	-11.7099
▁அரங்கேற்ற	-11.7099
▁அறிக்கையின்படி	-11.7099
▁சொதப்ப	-11.7099
▁அரிதான	-11.7099
▁பண்பாடு	-11.7099
▁சுலபம	-11.7099
▁சரிபார்ப்ப	-11.7099
தெரபி	-11.7109
▁பிரான்ச	-11.7121
பதற்றமான	-11.7134
அக்னிபத்	-11.7136
▁பாதுகாப்பிற்க	-11.7146
▁தரிசனத்திற்க	-11.7156
▁பாளையத்த	-11.7179
பயிற்சி	-11.7193
▁ஆணைக்குழுவின	-11.723
▁விக்ரமசிங்கவின	-11.7232
▁நடவடிக்கைகளுக்க	-11.7272
▁மாறுபட	-11.7273
▁குறுஞ்செய்தி	-11.7274
▁சம்பிரதாய	-11.7274
▁திண்டிவனம்	-11.7274
▁புலமைப்பரிசில்	-11.7274
▁ரெக்கார்ட	-11.7274
▁கருந்துளை	-11.7274
+	-11.7553
₹	-11.782
र	-11.9009
े	-11.9222
[	-11.9889
]	-11.9889
क	-12.0604
न	-12.111
	-12.111
्	-12.1373
$	-12.1644
ங	-12.169
ी	-12.3439
म	-12.3773
ि	-12.4117
प	-12.4475
स	-12.4475
`	-12.5144
ं	-12.523
ह	-12.523
ो	-12.6481
­	-12.6936
ஊ	-12.733
	-12.7412
त	-12.7912
ल	-12.8438
व	-12.8994
द	-12.9582
&	-13.0125
ग	-13.0207
>	-13.0207
௦	-13.0207
य	-13.0873
ब	-13.1588
ज	-13.1588
£	-13.2357
ू	-13.4099
भ	-13.5099
•	-13.6211
ા	-13.7461
ट	-13.8889
ध	-13.8889
~	-13.8889
°	-13.8889
	-13.8889
ए	-13.8889
#	-14.0474
ન	-14.0556
😂	-14.0556
ु	-14.0556
§	-14.2556
अ	-14.2556
ख	-14.2556
च	-14.2556
ै	-14.2556
મ	-14.2556
‍	-14.2556
જ	-14.5056
·	-14.5056
ड	-14.5056
ष	-14.5056
ે	-14.5056
௫	-14.5056
★	-14.5056
इ	-14.5056
ل	-14.5056
ર	-14.8389
ક	-14.8389
્	-14.8389
ત	-14.8389
×	-14.8389
é	-14.8389
ई	-14.8389
ौ	-14.8389
ી	-14.8389
ஶ	-14.8389
⁠	-14.8389
❔	-14.8389
	-14.8389
ا	-14.8389
ય	-15.3389
વ	-15.3389
સ	-15.3389
<	-15.3389
õ	-15.3389
÷	-15.3389
औ	-15.3389
छ	-15.3389
़	-15.3389
।	-15.3389
ટ	-15.3389
௩	-15.3389
′	-15.3389
⁄	-15.3389
●	-15.3389
◾	-15.3389
⦁	-15.3389
و	-15.3389
ي	-15.3389
‛	-16.3314
(	-16.3314
௨	-16.338
घ	-16.3381
š	-16.3382
	-16.3383
थ	-16.3384
आ	-16.3385
௧	-16.3386
ण	-16.3387
\	-16.3388
श	-16.3389
ō	-16.3389
ʻ	-16.3389
આ	-16.3389
દ	-16.3389
પ	-16.3389
ફ	-16.3389
ભ	-16.3389
િ	-16.3389
{	-16.3389
௬	-16.3389
^	-16.3389
}	-16.3389
®	-16.3389
Á	-16.3389
å	-16.3389
í	-16.3389
ñ	-16.3389
ô	-16.3389
ö	-16.3389
ł	-16.3389
̈	-16.3389
إ	-16.3389
د	-16.3389
م	-16.3389
અ	-16.3389
ઉ	-16.3389
ઓ	-16.3389
ણ	-16.3389
થ	-16.3389
લ	-16.3389
ો	-16.3389
௭	-16.3389
௹	-16.3389
‟	-16.3389
€	-16.3389
⏩	-16.3389
	-16.3389
	-16.3389
👇	-16.3389
💥	-16.3389
😊	-16.3389
😐	-16.3389
😲	-16.3389
ખ	-16.3389
फ	-16.3389
उ	-16.3389
ر	-16.339
س	-16.339
ه	-16.339
ஔ	-16.339
