{
  "version": "1.0",
  "truncation": null,
  "padding": null,
  "added_tokens": [
    {
      "id": 0,
      "content": "[UNK]",
      "single_word": false,
      "lstrip": false,
      "rstrip": false,
      "normalized": false,
      "special": true
    },
    {
      "id": 1,
      "content": "[CLS]",
      "single_word": false,
      "lstrip": false,
      "rstrip": false,
      "normalized": false,
      "special": true
    },
    {
      "id": 2,
      "content": "[SEP]",
      "single_word": false,
      "lstrip": false,
      "rstrip": false,
      "normalized": false,
      "special": true
    },
    {
      "id": 3,
      "content": "[PAD]",
      "single_word": false,
      "lstrip": false,
      "rstrip": false,
      "normalized": false,
      "special": true
    },
    {
      "id": 4,
      "content": "[MASK]",
      "single_word": false,
      "lstrip": false,
      "rstrip": false,
      "normalized": false,
      "special": true
    }
  ],
  "normalizer": {
    "type": "Sequence",
    "normalizers": [
      {
        "type": "NFKC"
      },
      {
        "type": "Lowercase"
      }
    ]
  },
  "pre_tokenizer": {
    "type": "Whitespace"
  },
  "post_processor": null,
  "decoder": {
    "type": "WordPiece",
    "prefix": "##",
    "cleanup": true
  },
  "model": {
    "type": "WordPiece",
    "unk_token": "[UNK]",
    "continuing_subword_prefix": "##",
    "max_input_chars_per_word": 100,
    "vocab": {
      "[UNK]": 0,
      "[CLS]": 1,
      "[SEP]": 2,
      "[PAD]": 3,
      "[MASK]": 4,
      "!": 5,
      "\"": 6,
      "#": 7,
      "$": 8,
      "%": 9,
      "&": 10,
      "'": 11,
      "(": 12,
      ")": 13,
      "*": 14,
      "+": 15,
      ",": 16,
      "-": 17,
      ".": 18,
      "/": 19,
      "0": 20,
      "1": 21,
      "2": 22,
      "3": 23,
      "4": 24,
      "5": 25,
      "6": 26,
      "7": 27,
      "8": 28,
      "9": 29,
      ":": 30,
      ";": 31,
      "<": 32,
      "=": 33,
      ">": 34,
      "?": 35,
      "@": 36,
      "[": 37,
      "\\": 38,
      "]": 39,
      "^": 40,
      "_": 41,
      "`": 42,
      "a": 43,
      "b": 44,
      "c": 45,
      "d": 46,
      "e": 47,
      "f": 48,
      "g": 49,
      "h": 50,
      "i": 51,
      "j": 52,
      "k": 53,
      "l": 54,
      "m": 55,
      "n": 56,
      "o": 57,
      "p": 58,
      "q": 59,
      "r": 60,
      "s": 61,
      "t": 62,
      "u": 63,
      "v": 64,
      "w": 65,
      "x": 66,
      "y": 67,
      "z": 68,
      "{": 69,
      "}": 70,
      "~": 71,
      "£": 72,
      "§": 73,
      "­": 74,
      "®": 75,
      "°": 76,
      "·": 77,
      "×": 78,
      "á": 79,
      "å": 80,
      "é": 81,
      "í": 82,
      "ñ": 83,
      "ô": 84,
      "õ": 85,
      "ö": 86,
      "÷": 87,
      "ł": 88,
      "ō": 89,
      "š": 90,
      "ʻ": 91,
      "̈": 92,
      "إ": 93,
      "ا": 94,
      "د": 95,
      "ر": 96,
      "س": 97,
      "ل": 98,
      "م": 99,
      "ه": 100,
      "و": 101,
      "ي": 102,
      "ं": 103,
      "अ": 104,
      "आ": 105,
      "इ": 106,
      "ई": 107,
      "उ": 108,
      "ए": 109,
      "औ": 110,
      "क": 111,
      "ख": 112,
      "ग": 113,
      "घ": 114,
      "च": 115,
      "छ": 116,
      "ज": 117,
      "ट": 118,
      "ड": 119,
      "ण": 120,
      "त": 121,
      "थ": 122,
      "द": 123,
      "ध": 124,
      "न": 125,
      "प": 126,
      "फ": 127,
      "ब": 128,
      "भ": 129,
      "म": 130,
      "य": 131,
      "र": 132,
      "ल": 133,
      "व": 134,
      "श": 135,
      "ष": 136,
      "स": 137,
      "ह": 138,
      "़": 139,
      "ा": 140,
      "ि": 141,
      "ी": 142,
      "ु": 143,
      "ू": 144,
      "े": 145,
      "ै": 146,
      "ो": 147,
      "ौ": 148,
      "्": 149,
      "।": 150,
      "અ": 151,
      "આ": 152,
      "ઉ": 153,
      "ઓ": 154,
      "ક": 155,
      "ખ": 156,
      "જ": 157,
      "ટ": 158,
      "ણ": 159,
      "ત": 160,
      "થ": 161,
      "દ": 162,
      "ન": 163,
      "પ": 164,
      "ફ": 165,
      "ભ": 166,
      "મ": 167,
      "ય": 168,
      "ર": 169,
      "લ": 170,
      "વ": 171,
      "સ": 172,
      "ા": 173,
      "િ": 174,
      "ી": 175,
      "ે": 176,
      "ો": 177,
      "્": 178,
      "ஃ": 179,
      "அ": 180,
      "ஆ": 181,
      "இ": 182,
      "ஈ": 183,
      "உ": 184,
      "ஊ": 185,
      "எ": 186,
      "ஏ": 187,
      "ஐ": 188,
      "ஒ": 189,
      "ஓ": 190,
      "ஔ": 191,
      "க": 192,
      "ங": 193,
      "ச": 194,
      "ஜ": 195,
      "ஞ": 196,
      "ட": 197,
      "ண": 198,
      "த": 199,
      "ந": 200,
      "ன": 201,
      "ப": 202,
      "ம": 203,
      "ய": 204,
      "ர": 205,
      "ற": 206,
      "ல": 207,
      "ள": 208,
      "ழ": 209,
      "வ": 210,
      "ஶ": 211,
      "ஷ": 212,
      "ஸ": 213,
      "ஹ": 214,
      "ா": 215,
      "ி": 216,
      "ீ": 217,
      "ு": 218,
      "ூ": 219,
      "ெ": 220,
      "ே": 221,
      "ை": 222,
      "ொ": 223,
      "ோ": 224,
      "ௌ": 225,
      "்": 226,
      "௦": 227,
      "௧": 228,
      "௨": 229,
      "௩": 230,
      "௫": 231,
      "௬": 232,
      "௭": 233,
      "௹": 234,
      "‌": 235,
      "‍": 236,
      "‎": 237,
      "‛": 238,
      "‟": 239,
      "•": 240,
      "′": 241,
      "⁄": 242,
      "⁠": 243,
      "€": 244,
      "₹": 245,
      "⏩": 246,
      "●": 247,
      "◾": 248,
      "★": 249,
      "❔": 250,
      "⦁": 251,
      "": 252,
      "": 253,
      "": 254,
      "": 255,
      "": 256,
      "": 257,
      "": 258,
      "�": 259,
      "👇": 260,
      "💥": 261,
      "😂": 262,
      "😊": 263,
      "😐": 264,
      "😲": 265,
      "🛩": 266,
      "##u": 267,
      "##n": 268,
      "##e": 269,
      "##l": 270,
      "##m": 271,
      "##க": 272,
      "##ன": 273,
      "##்": 274,
      "##த": 275,
      "##ி": 276,
      "##வ": 277,
      "##2": 278,
      "##1": 279,
      "##ட": 280,
      "##ை": 281,
      "##ா": 282,
      "##ர": 283,
      "##x": 284,
      "##ண": 285,
      "##ம": 286,
      "##ள": 287,
      "##7": 288,
      "##5": 289,
      "##a": 290,
      "##6": 291,
      "##r": 292,
      "##ு": 293,
      "##s": 294,
      "##b": 295,
      "##t": 296,
      "##p": 297,
      "##8": 298,
      "##9": 299,
      "##o": 300,
      "##v": 301,
      "##d": 302,
      "##i": 303,
      "##y": 304,
      "##ச": 305,
      "##ய": 306,
      "##ஸ": 307,
      "##g": 308,
      "##ப": 309,
      "##j": 310,
      "##k": 311,
      "##ஹ": 312,
      "##ோ": 313,
      "##3": 314,
      "##c": 315,
      "##h": 316,
      "##ெ": 317,
      "##ற": 318,
      "##ழ": 319,
      "##ங": 320,
      "##ஏ": 321,
      "##ல": 322,
      "##f": 323,
      "##ூ": 324,
      "##ீ": 325,
      "##ஷ": 326,
      "##ே": 327,
      "##ந": 328,
      "##\"": 329,
      "##.": 330,
      "##w": 331,
      "##z": 332,
      "##0": 333,
      "##4": 334,
      "##र": 335,
      "##இ": 336,
      "##ொ": 337,
      "##ஞ": 338,
      "##)": 339,
      "##q": 340,
      "##ஆ": 341,
      "##ஜ": 342,
      "##े": 343,
      "##%": 344,
      "##+": 345,
      "##ஐ": 346,
      "##प": 347,
      "##′": 348,
      "##ય": 349,
      "##!": 350,
      "##ई": 351,
      "##?": 352,
      "##ड": 353,
      "##़": 354,
      "##ा": 355,
      "##ஓ": 356,
      "##,": 357,
      "##ௌ": 358,
      "##સ": 359,
      "##ન": 360,
      "##ो": 361,
      "##எ": 362,
      "##स": 363,
      "##भ": 364,
      "##ी": 365,
      "##‛": 366,
      "##'": 367,
      "##त": 368,
      "##વ": 369,
      "##ણ": 370,
      "##*": 371,
      "##ै": 372,
      "##س": 373,
      "##و": 374,
      "##ل": 375,
      "##௦": 376,
      "##ه": 377,
      "##ஊ": 378,
      "##ક": 379,
      "##ર": 380,
      "##द": 381,
      "##ō": 382,
      "##મ": 383,
      "##श": 384,
      "##‌": 385,
      "##`": 386,
      "##>": 387,
      "##ध": 388,
      "##ફ": 389,
      "##થ": 390,
      "##_": 391,
      "##é": 392,
      "##ł": 393,
      "##د": 394,
      "##ي": 395,
      "##ल": 396,
      "##ા": 397,
      "##ñ": 398,
      "##-": 399,
      "##அ": 400,
      "##ે": 401,
      "##😂": 402,
      "##ू": 403,
      "##ह": 404,
      "##म": 405,
      "##न": 406,
      "##ô": 407,
      "###": 408,
      "##પ": 409,
      "##क": 410,
      "##ं": 411,
      "##ا": 412,
      "##;": 413,
      "##₹": 414,
      "##ज": 415,
      "##å": 416,
      "##்க": 417,
      "##்த": 418,
      "##்ப": 419,
      "##்ட": 420,
      "##ல்": 421,
      "##ன்": 422,
      "##க்க": 423,
      "##ம்": 424,
      "##ந்த": 425,
      "##ர்": 426,
      "த்த": 427,
      "##த்த": 428,
      "##து": 429,
      "##ள்": 430,
      "ப்ப": 431,
      "##ில": 432,
      "##ரு": 433,
      "##ட்ட": 434,
      "##ிய": 435,
      "க்க": 436,
      "து": 437,
      "##்கள": 438,
      "ரு": 439,
      "##தி": 440,
      "##்ச": 441,
      "ில்": 442,
      "##ப்ப": 443,
      "##்ற": 444,
      "##ன்ற": 445,
      "ம்": 446,
      "##ள்ள": 447,
      "ும்": 448,
      "ிற": 449,
      "வி": 450,
      "ட்ட": 451,
      "##கள": 452,
      "ுக்க": 453,
      "##ாக": 454,
      "மு": 455,
      "##ங்க": 456,
      "##ண்ட": 457,
      "##ற்ற": 458,
      "தி": 459,
      "செ": 460,
      "##டி": 461,
      "##ைய": 462,
      "ுக்கு": 463,
      "டு": 464,
      "கு": 465,
      "##ார": 466,
      "யி": 467,
      "கள": 468,
      "ிய": 469,
      "ாக": 470,
      "##ரி": 471,
      "ந்த": 472,
      "##ும": 473,
      "ும": 474,
      "##லை": 475,
      "பா": 476,
      "பி": 477,
      "##வர": 478,
      "##வி": 479,
      "ின்": 480,
      "##ான": 481,
      "##ும்": 482,
      "கொ": 483,
      "ுள்ள": 484,
      "ார்": 485,
      "போ": 486,
      "்கள": 487,
      "என்ற": 488,
      "ருந்த": 489,
      "மா": 490,
      "##டு": 491,
      "செய": 492,
      "என": 493,
      "கா": 494,
      "வே": 495,
      "ங்கள": 496,
      "##ன்ன": 497,
      "##னா": 498,
      "வர": 499,
      "தா": 500,
      "இந்த": 501,
      "ருக்க": 502,
      "##ல்ல": 503,
      "ர்": 504,
      "##க்": 505,
      "##்சி": 506,
      "ான": 507,
      "கூ": 508,
      "##றி": 509,
      "யில்": 510,
      "நட": 511,
      "##றை": 512,
      "த்தில": 513,
      "தொ": 514,
      "பெ": 515,
      "்ட": 516,
      "கட": 517,
      "்ப": 518,
      "##று": 519,
      "த்": 520,
      "##ற்க": 521,
      "க்": 522,
      "டுத்த": 523,
      "ப்": 524,
      "க்கு": 525,
      "நா": 526,
      "வா": 527,
      "##ப்": 528,
      "உள்ள": 529,
      "##வு": 530,
      "ன்": 531,
      "யை": 532,
      "ிறது": 533,
      "தெ": 534,
      "வரு": 535,
      "ஒரு": 536,
      "##னை": 537,
      "##ிர": 538,
      "##ங்கள": 539,
      "##த்": 540,
      "சி": 541,
      "பே": 542,
      "##ற்ப": 543,
      "ரா": 544,
      "ண்ட": 545,
      "நி": 546,
      "ல்": 547,
      "வெ": 548,
      "##ணி": 549,
      "மே": 550,
      "ிர": 551,
      "என்று": 552,
      "##ுவ": 553,
      "##ஸ்": 554,
      "##ச்ச": 555,
      "மற்ற": 556,
      "ார": 557,
      "பு": 558,
      "##மி": 559,
      "நில": 560,
      "ில": 561,
      "##்ய": 562,
      "னர்": 563,
      "ின": 564,
      "ுவ": 565,
      "்க": 566,
      "அதி": 567,
      "டி": 568,
      "வேண்ட": 569,
      "தே": 570,
      "##்வ": 571,
      "ரி": 572,
      "##ண்": 573,
      "ிட": 574,
      "##லா": 575,
      "கி": 576,
      "ுட": 577,
      "##மை": 578,
      "##ரச": 579,
      "##ார்": 580,
      "மீ": 581,
      "தொட": 582,
      "அவ": 583,
      "##ளர": 584,
      "##ம்ப": 585,
      "வழ": 586,
      "ால்": 587,
      "குறி": 588,
      "##னால்": 589,
      "தான்": 590,
      "##கு": 591,
      "தொடர": 592,
      "வர்கள": 593,
      "ற்ற": 594,
      "வந்த": 595,
      "முத": 596,
      "##ண்டு": 597,
      "ங்க": 598,
      "ின்ற": 599,
      "வை": 600,
      "பொ": 601,
      "செய்ய": 602,
      "செய்த": 603,
      "வீ": 604,
      "யாக": 605,
      "ித்த": 606,
      "தாக": 607,
      "கோ": 608,
      "ுக": 609,
      "##ட்": 610,
      "தெரி": 611,
      "அத": 612,
      "தற்க": 613,
      "பிர": 614,
      "பல": 615,
      "சே": 616,
      "ச்ச": 617,
      "அம": 618,
      "ேர": 619,
      "மை": 620,
      "##டை": 621,
      "ிற்க": 622,
      "த்தை": 623,
      "மி": 624,
      "தலை": 625,
      "யின்": 626,
      "அரச": 627,
      "களை": 628,
      "சா": 629,
      "ச்": 630,
      "##ளி": 631,
      "்ச": 632,
      "வருக": 633,
      "##னி": 634,
      "ைய": 635,
      "அவர்": 636,
      "தெரிவ": 637,
      "ின்றன": 638,
      "ிறார்": 639,
      "கள்": 640,
      "ஏற்ப": 641,
      "ிக்க": 642,
      "##ுக": 643,
      "ள்": 644,
      "##ந்து": 645,
      "கே": 646,
      "ெய": 647,
      "இது": 648,
      "யா": 649,
      "##்பத": 650,
      "தமி": 651,
      "##க்கு": 652,
      "தமிழ": 653,
      "ாவ": 654,
      "இத": 655,
      "க்கை": 656,
      "ன்ற": 657,
      "##சி": 658,
      "யும்": 659,
      "என்பத": 660,
      "டை": 661,
      "##டிய": 662,
      "கூற": 663,
      "மூ": 664,
      "அதிக": 665,
      "ிற்கு": 666,
      "##ரிய": 667,
      "நிலைய": 668,
      "முதல்": 669,
      "திரு": 670,
      "கட்ட": 671,
      "ாத": 672,
      "##ச்": 673,
      "கொண்ட": 674,
      "லா": 675,
      "##விட": 676,
      "சம": 677,
      "##க்கள": 678,
      "##ில்": 679,
      "அந்த": 680,
      "அவர": 681,
      "ால": 682,
      "##ன்று": 683,
      "தீ": 684,
      "மக்கள": 685,
      "##ரா": 686,
      "##ண்ண": 687,
      "ுத": 688,
      "ிட்ட": 689,
      "##ின": 690,
      "##ன்ப": 691,
      "சொ": 692,
      "தற்கு": 693,
      "##கவ": 694,
      "ஆனால்": 695,
      "ஸ்": 696,
      "சில": 697,
      "ருப்ப": 698,
      "ளி": 699,
      "##ரை": 700,
      "##சிய": 701,
      "##ய்": 702,
      "ஆண்டு": 703,
      "சு": 704,
      "ந்திய": 705,
      "##ர்வ": 706,
      "று": 707,
      "எதி": 708,
      "யில": 709,
      "ுடன்": 710,
      "ினா": 711,
      "கட்சி": 712,
      "பேச": 713,
      "##குதி": 714,
      "அறி": 715,
      "ாடு": 716,
      "குழ": 717,
      "மாக": 718,
      "ாம": 719,
      "மாந": 720,
      "##கர": 721,
      "்ச்சி": 722,
      "##ால": 723,
      "##ிட": 724,
      "த்து": 725,
      "பட": 726,
      "ணி": 727,
      "ர்த": 728,
      "ணை": 729,
      "##ன்னை": 730,
      "##முக": 731,
      "துறை": 732,
      "##கார": 733,
      "ட்டு": 734,
      "்த்த": 735,
      "##ரும": 736,
      "மேல": 737,
      "ம்ப": 738,
      "வழங்க": 739,
      "ாது": 740,
      "##ற்றி": 741,
      "##வே": 742,
      "ாட": 743,
      "ர்த்த": 744,
      "டும்": 745,
      "கடந்த": 746,
      "##்தி": 747,
      "ைச்ச": 748,
      "்த": 749,
      "##ளிய": 750,
      "முன்ன": 751,
      "ைச்சர": 752,
      "நீ": 753,
      "தை": 754,
      "##்ப்ப": 755,
      "##ட்டி": 756,
      "திர": 757,
      "முடிய": 758,
      "##வை": 759,
      "பத": 760,
      "வில்ல": 761,
      "ஸ்ட": 762,
      "ஞ்ச": 763,
      "நடத்த": 764,
      "டுக்க": 765,
      "ழு": 766,
      "யான": 767,
      "யு": 768,
      "ினார்": 769,
      "ேர்த": 770,
      "தலைவர": 771,
      "நடை": 772,
      "ஆம்": 773,
      "டுக": 774,
      "##ந்தி": 775,
      "னி": 776,
      "ேர்தல": 777,
      "ஆக": 778,
      "ுகள": 779,
      "ர்க": 780,
      "கார": 781,
      "வும்": 782,
      "##ப்பு": 783,
      "முறை": 784,
      "அரசு": 785,
      "போது": 786,
      "சென்ற": 787,
      "ல்ல": 788,
      "##வா": 789,
      "##ங்கு": 790,
      "இட": 791,
      "##லம": 792,
      "பய": 793,
      "ர்ந்த": 794,
      "ேன்": 795,
      "நடைப": 796,
      "பகுதி": 797,
      "த்தின": 798,
      "##ாவ": 799,
      "ிரத": 800,
      "##கை": 801,
      "பூ": 802,
      "னை": 803,
      "நடைபெ": 804,
      "கூட்ட": 805,
      "##ப்போ": 806,
      "வெளிய": 807,
      "திட்ட": 808,
      "மரு": 809,
      "பதி": 810,
      "பர": 811,
      "மாநில": 812,
      "கால": 813,
      "உட": 814,
      "##தா": 815,
      "என்ன": 816,
      "திமுக": 817,
      "ாவட்ட": 818,
      "ொரு": 819,
      "##ளை": 820,
      "போல": 821,
      "ந்திர": 822,
      "ோம்": 823,
      "ப்படி": 824,
      "ய்": 825,
      "ினர": 826,
      "மேலும": 827,
      "பெற்ற": 828,
      "ிடம": 829,
      "இல்": 830,
      "ார்கள": 831,
      "ென்னை": 832,
      "ரூ": 833,
      "ேற்ற": 834,
      "##வில": 835,
      "வு": 836,
      "ாட்ட": 837,
      "தன": 838,
      "பாஜ": 839,
      "சட்ட": 840,
      "மாத": 841,
      "##ிற": 842,
      "ர்க்க": 843,
      "##ழு": 844,
      "மணி": 845,
      "ங்களை": 846,
      "வர்": 847,
      "நடந்த": 848,
      "லை": 849,
      "உய": 850,
      "விச": 851,
      "வரும்": 852,
      "ீதி": 853,
      "விட": 854,
      "சீ": 855,
      "வைத்த": 856,
      "ுத்த": 857,
      "##ாட": 858,
      "ள்ள": 859,
      "பிற": 860,
      "தர": 861,
      "ண்டு": 862,
      "்ந்த": 863,
      "##லக": 864,
      "த்திய": 865,
      "சூ": 866,
      "ரோ": 867,
      "்ந்து": 868,
      "லங்க": 869,
      "##கழ": 870,
      "கை": 871,
      "முடி": 872,
      "ாமல்": 873,
      "்ந": 874,
      "##ங்": 875,
      "##பி": 876,
      "##மான": 877,
      "மக": 878,
      "ன்ன": 879,
      "ப்பட": 880,
      "ல்லா": 881,
      "பணி": 882,
      "ட்டது": 883,
      "ேதி": 884,
      "ட்டும": 885,
      "##ாள": 886,
      "##ியா": 887,
      "ராஜ": 888,
      "வரை": 889,
      "தற்ப": 890,
      "ிலும்": 891,
      "##ரே": 892,
      "ாளர": 893,
      "ப்பிட": 894,
      "ிறுவ": 895,
      "ட்": 896,
      "துவ": 897,
      "##மர": 898,
      "ிவ": 899,
      "றி": 900,
      "எதிர": 901,
      "ாய": 902,
      "மாண": 903,
      "கல": 904,
      "ிறுவன": 905,
      "்கள்": 906,
      "ியி": 907,
      "விசார": 908,
      "##லி": 909,
      "தனால்": 910,
      "தனது": 911,
      "##திய": 912,
      "்ற": 913,
      "##ருக": 914,
      "இல்லை": 915,
      "ழை": 916,
      "ுவிட": 917,
      "வெளி": 918,
      "##ாம": 919,
      "##ட்ச": 920,
      "நான்": 921,
      "முக்க": 922,
      "ரசிய": 923,
      "மீது": 924,
      "தமிழக": 925,
      "ெய்தி": 926,
      "தற்போ": 927,
      "ண்": 928,
      "கிடை": 929,
      "லி": 930,
      "ரசியல": 931,
      "மூலம": 932,
      "ியது": 933,
      "கண": 934,
      "அணி": 935,
      "ொட": 936,
      "வாழ": 937,
      "கிர": 938,
      "தால்": 939,
      "குறை": 940,
      "போன்ற": 941,
      "ாடுகள": 942,
      "மைப்ப": 943,
      "ஆட": 944,
      "அறிவி": 945,
      "##பர": 946,
      "கண்ட": 947,
      "படி": 948,
      "##பா": 949,
      "ிறப்ப": 950,
      "அது": 951,
      "இரு": 952,
      "##விர": 953,
      "எம்": 954,
      "காங்க": 955,
      "கூட": 956,
      "ோய": 957,
      "இன்று": 958,
      "##ோத": 959,
      "##ூர": 960,
      "க்கள": 961,
      "பக": 962,
      "ுதல": 963,
      "##ல்வ": 964,
      "தொழ": 965,
      "வேலை": 966,
      "##வடி": 967,
      "நடவடி": 968,
      "##மா": 969,
      "##ணம்": 970,
      "ும்ப": 971,
      "தாக்க": 972,
      "ைப்": 973,
      "பாஜக": 974,
      "நாட்ட": 975,
      "ஜெ": 976,
      "பொது": 977,
      "பிறகு": 978,
      "றுப்ப": 979,
      "ாகி": 980,
      "டெ": 981,
      "ாலும்": 982,
      "##ற்ச": 983,
      "நிலை": 984,
      "ிரதமர": 985,
      "##ல்ப": 986,
      "##ரவ": 987,
      "தகவ": 988,
      "மான": 989,
      "ெற்றி": 990,
      "##்ந": 991,
      "உத": 992,
      "சம்ப": 993,
      "ர்ப்ப": 994,
      "யாளர": 995,
      "ந்தை": 996,
      "##ணை": 997,
      "ிறார": 998,
      "ாஜ": 999,
      "##ர்கள": 1000,
      "செல்ல": 1001,
      "உண": 1002,
      "லங்கை": 1003,
      "அள": 1004,
      "்க்க": 1005,
      "பேர": 1006,
      "னு": 1007,
      "திப்ப": 1008,
      "மேற்க": 1009,
      "சொல்ல": 1010,
      "வக": 1011,
      "ஆட்சி": 1012,
      "ியாவ": 1013,
      "அதன்": 1014,
      "ுக்": 1015,
      "ுடைய": 1016,
      "பின்ன": 1017,
      "ஆய": 1018,
      "அடி": 1019,
      "டைந்த": 1020,
      "ஃப": 1021,
      "வீட்ட": 1022,
      "நகர": 1023,
      "சந்தி": 1024,
      "ோவில": 1025,
      "தெரிய": 1026,
      "காரண": 1027,
      "ுவத": 1028,
      "எதிர்": 1029,
      "தோ": 1030,
      "நிகழ": 1031,
      "##மன": 1032,
      "ோர": 1033,
      "ளித்த": 1034,
      "உலக": 1035,
      "விட்ட": 1036,
      "கொள்ள": 1037,
      "என்க": 1038,
      "ோட்டி": 1039,
      "யார": 1040,
      "ருத்த": 1041,
      "ிரஸ்": 1042,
      "யோ": 1043,
      "கவ": 1044,
      "ரிய": 1045,
      "வழி": 1046,
      "ுக்கொ": 1047,
      "ஜி": 1048,
      "##ூக": 1049,
      "##பட": 1050,
      "மாற்ற": 1051,
      "எந்த": 1052,
      "வில்": 1053,
      "சமூக": 1054,
      "##ள்ளி": 1055,
      "களில": 1056,
      "##வத": 1057,
      "குட": 1058,
      "ையும்": 1059,
      "யே": 1060,
      "ிழ": 1061,
      "ஆத": 1062,
      "டங்கள": 1063,
      "்வே": 1064,
      "##ஷ்": 1065,
      "பொரு": 1066,
      "கூறு": 1067,
      "விழ": 1068,
      "கூறுக": 1069,
      "##ங்கி": 1070,
      "வார": 1071,
      "னைத்த": 1072,
      "லு": 1073,
      "பயன்ப": 1074,
      "மருத்": 1075,
      "கேட்ட": 1076,
      "ுய": 1077,
      "ீதிம": 1078,
      "ுப்ப": 1079,
      "மன": 1080,
      "ுன்ப": 1081,
      "என்": 1082,
      "##ழ்": 1083,
      "ொடங்க": 1084,
      "டா": 1085,
      "##த்தி": 1086,
      "வழக்க": 1087,
      "எல்": 1088,
      "காவ": 1089,
      "##றுதி": 1090,
      "ஒன்ற": 1091,
      "##ோர": 1092,
      "எஸ்": 1093,
      "##ராட": 1094,
      "ஆர்": 1095,
      "##டன்": 1096,
      "ோயில": 1097,
      "ஒருவர": 1098,
      "வ்வ": 1099,
      "ய்ப்ப": 1100,
      "ுடி": 1101,
      "##ெரி": 1102,
      "அமெரி": 1103,
      "ஆகிய": 1104,
      "ரண்டு": 1105,
      "போராட": 1106,
      "உரு": 1107,
      "இர": 1108,
      "குற்ற": 1109,
      "லட்ச": 1110,
      "ைச்": 1111,
      "குடும": 1112,
      "வில": 1113,
      "சம்பவ": 1114,
      "த்துவ": 1115,
      "வீர": 1116,
      "ோட்ட": 1117,
      "போலீ": 1118,
      "புதிய": 1119,
      "பிடி": 1120,
      "கொடு": 1121,
      "அப்போ": 1122,
      "அதிகா": 1123,
      "முன்": 1124,
      "வய": 1125,
      "்பா": 1126,
      "காட்ட": 1127,
      "உங்கள": 1128,
      "பெரிய": 1129,
      "அவரது": 1130,
      "##தில்": 1131,
      "##சா": 1132,
      "லாம்": 1133,
      "##க்கம": 1134,
      "##ந்ந": 1135,
      "மும்": 1136,
      "##ழை": 1137,
      "ுமா": 1138,
      "வாங்க": 1139,
      "களில்": 1140,
      "ழி": 1141,
      "கலந்த": 1142,
      "்பாக": 1143,
      "காவல்": 1144,
      "ெண": 1145,
      "ிதி": 1146,
      "தன்": 1147,
      "தலைமை": 1148,
      "ப்பு": 1149,
      "தின": 1150,
      "பதவி": 1151,
      "ாள": 1152,
      "இதில்": 1153,
      "டைய": 1154,
      "ெண்கள": 1155,
      "யின": 1156,
      "##ட்ப": 1157,
      "##ல்வி": 1158,
      "ேற்று": 1159,
      "ந்தப்": 1160,
      "இய": 1161,
      "##கா": 1162,
      "்வேறு": 1163,
      "அதே": 1164,
      "கும": 1165,
      "கீ": 1166,
      "மீண்ட": 1167,
      "ிச்ச": 1168,
      "##ையே": 1169,
      "##ோச": 1170,
      "தங்கள": 1171,
      "ல்லது": 1172,
      "வகைய": 1173,
      "யுள்ள": 1174,
      "ுற": 1175,
      "##ழக": 1176,
      "திக்க": 1177,
      "தொழில": 1178,
      "ாட்சி": 1179,
      "ிறந்த": 1180,
      "பள்ளி": 1181,
      "ற்க": 1182,
      "ாங்க": 1183,
      "ிலைய": 1184,
      "ப்படை": 1185,
      "வைக்க": 1186,
      "##ணைய": 1187,
      "சிக": 1188,
      "பேர்": 1189,
      "ைக்": 1190,
      "##ம்பி": 1191,
      "ாள்": 1192,
      "நிர்வ": 1193,
      "##ியர": 1194,
      "கர": 1195,
      "##துக": 1196,
      "துவர": 1197,
      "மது": 1198,
      "பங்க": 1199,
      "அதிகம": 1200,
      "ுர": 1201,
      "மெ": 1202,
      "ுகிற": 1203,
      "மிக": 1204,
      "எண்ண": 1205,
      "லாம": 1206,
      "பக்த": 1207,
      "ல்லாம": 1208,
      "ாதார": 1209,
      "ரிகள": 1210,
      "ளிக்க": 1211,
      "ஈடு": 1212,
      "எங்கள": 1213,
      "க்கூ": 1214,
      "ரஷ": 1215,
      "செய்வ": 1216,
      "அங்கு": 1217,
      "##வ்வ": 1218,
      "ிரி": 1219,
      "##ரும்": 1220,
      "மாணவர": 1221,
      "யும": 1222,
      "மைய": 1223,
      "##யர": 1224,
      "ிலி": 1225,
      "பாட": 1226,
      "##ழி": 1227,
      "ிக்": 1228,
      "பொருள": 1229,
      "##ஞர": 1230,
      "##ுமை": 1231,
      "பக்தர": 1232,
      "ரே": 1233,
      "ண்ண": 1234,
      "நாள்": 1235,
      "நடக்க": 1236,
      "ேள்": 1237,
      "தேசிய": 1238,
      "பற்றி": 1239,
      "ேள்வி": 1240,
      "ர்ச": 1241,
      "ராக": 1242,
      "ாட்கள": 1243,
      "இப்போ": 1244,
      "##தை": 1245,
      "##வர்": 1246,
      "பாதுக": 1247,
      "பெற": 1248,
      "க்கூட": 1249,
      "ான்": 1250,
      "ாப்பு": 1251,
      "ாக்க": 1252,
      "##யே": 1253,
      "னக்கு": 1254,
      "்கெ": 1255,
      "்கெட்": 1256,
      "ரஷ்ய": 1257,
      "காரணம": 1258,
      "ில்லை": 1259,
      "ெயல்ப": 1260,
      "##ீர": 1261,
      "பதில": 1262,
      "ஆள": 1263,
      "வது": 1264,
      "ந்து": 1265,
      "ிச": 1266,
      "றை": 1267,
      "ர்கள": 1268,
      "ாளி": 1269,
      "ஒப்ப": 1270,
      "ிலை": 1271,
      "ிரு": 1272,
      "இந்ந": 1273,
      "திகார": 1274,
      "10": 1275,
      "தும": 1276,
      "##நர": 1277,
      "சக": 1278,
      "ரூபா": 1279,
      "நே": 1280,
      "எட": 1281,
      "சார": 1282,
      "ாங்கள": 1283,
      "விடு": 1284,
      "வளர": 1285,
      "அதில்": 1286,
      "ியா": 1287,
      "விஷ": 1288,
      "இயக்க": 1289,
      "தேவ": 1290,
      "ினர்": 1291,
      "னும": 1292,
      "வல": 1293,
      "அதை": 1294,
      "நினை": 1295,
      "யலா": 1296,
      "##ையாட": 1297,
      "ஆண்ட": 1298,
      "ும்போ": 1299,
      "கூறிய": 1300,
      "##மு": 1301,
      "ஈடுபட": 1302,
      "ுவது": 1303,
      "யலாளர": 1304,
      "வச": 1305,
      "ஸ்டால": 1306,
      "குடி": 1307,
      "குமார": 1308,
      "வந்து": 1309,
      "ுமன்ற": 1310,
      "ஸ்த": 1311,
      "இடத்த": 1312,
      "சிறு": 1313,
      "றுத்த": 1314,
      "##ற்": 1315,
      "ைத்": 1316,
      "வும": 1317,
      "கோடி": 1318,
      "ராம": 1319,
      "அப்ப": 1320,
      "்பாடி": 1321,
      "மறு": 1322,
      "கைது": 1323,
      "எடப": 1324,
      "னுப்ப": 1325,
      "ரத்த": 1326,
      "மலை": 1327,
      "வரி": 1328,
      "##ேக": 1329,
      "்நா": 1330,
      "டிய": 1331,
      "ழுந்த": 1332,
      "ோடி": 1333,
      "ிவிட": 1334,
      "கடை": 1335,
      "##ரீ": 1336,
      "ிக": 1337,
      "உருவா": 1338,
      "னுமதி": 1339,
      "க்கா": 1340,
      "நிறை": 1341,
      "சூழ": 1342,
      "்தி": 1343,
      "தய": 1344,
      "ொத்த": 1345,
      "ுறை": 1346,
      "ோடு": 1347,
      "தேச": 1348,
      "ிரும": 1349,
      "கிராம": 1350,
      "ையில்": 1351,
      "ுடிவு": 1352,
      "ிருமண": 1353,
      "பாக": 1354,
      "வாக": 1355,
      "பால": 1356,
      "பிரச": 1357,
      "##்ட்": 1358,
      "ுயற்ச": 1359,
      "ாந்தி": 1360,
      "திரும": 1361,
      "ுப": 1362,
      "பார": 1363,
      "தாவ": 1364,
      "ிகவ": 1365,
      "கரு": 1366,
      "டித்த": 1367,
      "அம்": 1368,
      "்ய": 1369,
      "ற்ப": 1370,
      "ூர": 1371,
      "ிகவும": 1372,
      "லுத்த": 1373,
      "##ையில": 1374,
      "பண": 1375,
      "ிகள": 1376,
      "தடு": 1377,
      "நிறு": 1378,
      "நெ": 1379,
      "உதவி": 1380,
      "நாட": 1381,
      "டெல்ல": 1382,
      "ஏற்ற": 1383,
      "ட்ச": 1384,
      "ுத்து": 1385,
      "மாதம்": 1386,
      "பெரும": 1387,
      "ிஸ": 1388,
      "மாற": 1389,
      "ீடு": 1390,
      "ாம்": 1391,
      "விமான": 1392,
      "ஷ்ட": 1393,
      "ழக்கு": 1394,
      "ட்சி": 1395,
      "ஜனா": 1396,
      "செல்வ": 1397,
      "க்கான": 1398,
      "ாக்கு": 1399,
      "உயர": 1400,
      "ீட்ட": 1401,
      "வின்": 1402,
      "நாம்": 1403,
      "லுவ": 1404,
      "த்தரவ": 1405,
      "யிட": 1406,
      "ங்கள்": 1407,
      "கல்வி": 1408,
      "பெயர": 1409,
      "புகார": 1410,
      "்தான": 1411,
      "ராண": 1412,
      "ஜனாதி": 1413,
      "டுவ": 1414,
      "##ரில்": 1415,
      "வித": 1416,
      "வற்ற": 1417,
      "முழ": 1418,
      "்நாடு": 1419,
      "டுப்ப": 1420,
      "தவ": 1421,
      "ிவகார": 1422,
      "முதல": 1423,
      "யுடன்": 1424,
      "தந்த": 1425,
      "ல்க": 1426,
      "ந்தக்": 1427,
      "தரப்ப": 1428,
      "பெண்": 1429,
      "ரோனா": 1430,
      "ராணுவ": 1431,
      "##வில்": 1432,
      "துவமன": 1433,
      "தூ": 1434,
      "வருவத": 1435,
      "கிய": 1436,
      "##ான்": 1437,
      "ஸ்ரே": 1438,
      "ரய": 1439,
      "பின்": 1440,
      "##ர்வு": 1441,
      "ஸ்ரீ": 1442,
      "எழு": 1443,
      "நிய": 1444,
      "பூஜ": 1445,
      "திக": 1446,
      "மழை": 1447,
      "தகவல": 1448,
      "##தல": 1449,
      "ாவது": 1450,
      "மின்": 1451,
      "ிள": 1452,
      "முடிவ": 1453,
      "##ால்": 1454,
      "##ர்ச": 1455,
      "ஸ்ரேல": 1456,
      "அன": 1457,
      "ஜெய": 1458,
      "அதிர": 1459,
      "தகவல்": 1460,
      "நிறைவ": 1461,
      "க்கும": 1462,
      "##ேச": 1463,
      "முக": 1464,
      "ிரதேச": 1465,
      "நோ": 1466,
      "பதிவு": 1467,
      "புர": 1468,
      "ாய்": 1469,
      "ாற்ற": 1470,
      "திராக": 1471,
      "இதை": 1472,
      "தாவது": 1473,
      "நு": 1474,
      "தேவை": 1475,
      "உரி": 1476,
      "ஒவ்வ": 1477,
      "ன்னும": 1478,
      "டன": 1479,
      "விலை": 1480,
      "ஜா": 1481,
      "மைக்க": 1482,
      "ாமி": 1483,
      "அனை": 1484,
      "ம்ம": 1485,
      "அனைவர": 1486,
      "உணவு": 1487,
      "பூஜை": 1488,
      "##கர்": 1489,
      "##ள்க": 1490,
      "விழா": 1491,
      "பட்ட": 1492,
      "ேற்க": 1493,
      "முழுவ": 1494,
      "ரன": 1495,
      "புரி": 1496,
      "ிங்": 1497,
      "காண": 1498,
      "கோரி": 1499,
      "உயர்": 1500,
      "##வும": 1501,
      "##பத்த": 1502,
      "உறுதி": 1503,
      "##ோக": 1504,
      "ூல": 1505,
      "இரண்ட": 1506,
      "ாச": 1507,
      "ஆளு": 1508,
      "வ்வா": 1509,
      "தங்க": 1510,
      "விக": 1511,
      "எனவே": 1512,
      "இதன்": 1513,
      "##ாய": 1514,
      "கன": 1515,
      "விஷய": 1516,
      "தயார": 1517,
      "டந்து": 1518,
      "சுற்ற": 1519,
      "ிச்சை": 1520,
      "ஆய்": 1521,
      "ஆய்வு": 1522,
      "அண்ண": 1523,
      "இருவர": 1524,
      "்த்தி": 1525,
      "##ப்பட": 1526,
      "கியோர": 1527,
      "ரஷ்யா": 1528,
      "ரை": 1529,
      "ழைத்த": 1530,
      "உச்ச": 1531,
      "ர்ம": 1532,
      "மத": 1533,
      "போல்": 1534,
      "சார்ப": 1535,
      "##க்கி": 1536,
      "இல்ல": 1537,
      "விதி": 1538,
      "மைச்ச": 1539,
      "காலை": 1540,
      "னிய": 1541,
      "ஆளுநர": 1542,
      "ர்வ": 1543,
      "ஏற்க": 1544,
      "##ையட": 1545,
      "்பத்த": 1546,
      "ச்னை": 1547,
      "ேஷ்": 1548,
      "தவிர": 1549,
      "ாலத்த": 1550,
      "இற": 1551,
      "அளவ": 1552,
      "ஸ்ட்": 1553,
      "மட்ட": 1554,
      "ிடம்": 1555,
      "ூன்று": 1556,
      "ரித்த": 1557,
      "வன": 1558,
      "போக": 1559,
      "உரிமை": 1560,
      "படத்த": 1561,
      "ஒரே": 1562,
      "னா": 1563,
      "ெரும்": 1564,
      "த்திர": 1565,
      "வாகன": 1566,
      "ாண்ட": 1567,
      "தடை": 1568,
      "##ென": 1569,
      "துணை": 1570,
      "யால்": 1571,
      "ீடிய": 1572,
      "ராகு": 1573,
      "விரு": 1574,
      "ாரணம்": 1575,
      "##மைய": 1576,
      "க்காக": 1577,
      "ிரியர": 1578,
      "ீடியோ": 1579,
      "ொகுதி": 1580,
      "விஜ": 1581,
      "ாதி": 1582,
      "##முற": 1583,
      "சீனா": 1584,
      "கல்ல": 1585,
      "ுவா": 1586,
      "சர்வ": 1587,
      "திகரி": 1588,
      "ழனி": 1589,
      "ளிய": 1590,
      "உள்ளன": 1591,
      "உற": 1592,
      "மனை": 1593,
      "ழனிச": 1594,
      "குழுவ": 1595,
      "பிரி": 1596,
      "இல": 1597,
      "த்தி": 1598,
      "உத்த": 1599,
      "போட்ட": 1600,
      "ுகள்": 1601,
      "தும்": 1602,
      "நேர": 1603,
      "வீரர": 1604,
      "ஜூ": 1605,
      "விரும": 1606,
      "கொலை": 1607,
      "ரங்க": 1608,
      "ாண": 1609,
      "ியத": 1610,
      "சத": 1611,
      "லட்சம": 1612,
      "யூ": 1613,
      "ேர்வு": 1614,
      "ுல": 1615,
      "ளையாட": 1616,
      "ம்பர": 1617,
      "ுகளை": 1618,
      "நம்": 1619,
      "ுங்கள": 1620,
      "ணைந்த": 1621,
      "வயத": 1622,
      "வேறு": 1623,
      "நிதி": 1624,
      "மகன": 1625,
      "ரிச": 1626,
      "்ண": 1627,
      "##தான": 1628,
      "ுமார்": 1629,
      "ிலே": 1630,
      "சை": 1631,
      "ரீ": 1632,
      "ிம": 1633,
      "ழுத்த": 1634,
      "பிஷ": 1635,
      "்பு": 1636,
      "த்தது": 1637,
      "ாகும்": 1638,
      "நடி": 1639,
      "மனைவி": 1640,
      "்பான": 1641,
      "ிக்கை": 1642,
      "கவன": 1643,
      "க்ட": 1644,
      "சரி": 1645,
      "வேட்ப": 1646,
      "சொன்ன": 1647,
      "ரசி": 1648,
      "மனி": 1649,
      "ாடி": 1650,
      "ைத்தி": 1651,
      "ுவி": 1652,
      "அதிபர": 1653,
      "உள்": 1654,
      "இதற்க": 1655,
      "இவர்": 1656,
      "துக்க": 1657,
      "மனித": 1658,
      "கீழ்": 1659,
      "ண்ட்": 1660,
      "ப்பாக": 1661,
      "ந்தத்": 1662,
      "ொருட்": 1663,
      "போலீஸ": 1664,
      "ணிப்ப": 1665,
      "ாதுகா": 1666,
      "பாஜகவ": 1667,
      "##டக": 1668,
      "ுக்கள": 1669,
      "சோ": 1670,
      "ூர்": 1671,
      "ரண": 1672,
      "ரன்கள": 1673,
      "மகள": 1674,
      "போலீச": 1675,
      "ுவாமி": 1676,
      "துர": 1677,
      "மோச": 1678,
      "புது": 1679,
      "ஒன்று": 1680,
      "யிரி": 1681,
      "மொ": 1682,
      "மாலை": 1683,
      "ஏன்": 1684,
      "கடுமை": 1685,
      "செல": 1686,
      "குரு": 1687,
      "கேட": 1688,
      "ிப்ப": 1689,
      "தான": 1690,
      "கூறி": 1691,
      "நாடாள": 1692,
      "லுவலக": 1693,
      "்ட்": 1694,
      "இங்கு": 1695,
      "ஆதர": 1696,
      "பிஷேக": 1697,
      "வேக": 1698,
      "ீங்கள": 1699,
      "ிகழ": 1700,
      "ுழ": 1701,
      "டிக்க": 1702,
      "வாத": 1703,
      "றக்க": 1704,
      "யிரிழ": 1705,
      "நம்பி": 1706,
      "ொண்ட": 1707,
      "குழு": 1708,
      "ிபி": 1709,
      "வருட": 1710,
      "ர்ச்ச": 1711,
      "வங்கி": 1712,
      "மிழ்": 1713,
      "##ீட": 1714,
      "யினர": 1715,
      "க்கிய": 1716,
      "##ிஸ": 1717,
      "பாகிஸ": 1718,
      "ிலேயே": 1719,
      "##ாண": 1720,
      "மேல்": 1721,
      "ற்றது": 1722,
      "துவரை": 1723,
      "ட்டி": 1724,
      "இளை": 1725,
      "ரம": 1726,
      "அண்ணா": 1727,
      "ீர்கள": 1728,
      "கிற": 1729,
      "ன்ப": 1730,
      "குதி": 1731,
      "ல்லாத": 1732,
      "இடையே": 1733,
      "ுச்": 1734,
      "அருக": 1735,
      "இதையட": 1736,
      "சிவ": 1737,
      "##வாத": 1738,
      "சேவை": 1739,
      "நல்ல": 1740,
      "பலர": 1741,
      "ம்பர்": 1742,
      "அல": 1743,
      "ோல": 1744,
      "சிங்": 1745,
      "##ிரம": 1746,
      "கணக்க": 1747,
      "மதுரை": 1748,
      "பத்த": 1749,
      "முழு": 1750,
      "அவரை": 1751,
      "கிரி": 1752,
      "ெருக": 1753,
      "##எஸ": 1754,
      "்க்கை": 1755,
      "எல்ல": 1756,
      "ழுப்ப": 1757,
      "கொள்": 1758,
      "புற": 1759,
      "தன்ன": 1760,
      "இணைய": 1761,
      "உடன": 1762,
      "மாணவி": 1763,
      "உடல": 1764,
      "ுரை": 1765,
      "ுந்த": 1766,
      "தரி": 1767,
      "ப்பத": 1768,
      "தார": 1769,
      "##பத": 1770,
      "யிலான": 1771,
      "விரை": 1772,
      "ிடையே": 1773,
      "இளைஞர": 1774,
      "ராசி": 1775,
      "நாத": 1776,
      "ங்கி": 1777,
      "ஓபி": 1778,
      "தனி": 1779,
      "சாலை": 1780,
      "இறுதி": 1781,
      "துவும": 1782,
      "ீர்": 1783,
      "ஓபிஎஸ": 1784,
      "ன்னி": 1785,
      "தயாரி": 1786,
      "தைய": 1787,
      "##றைய": 1788,
      "யிற்ச": 1789,
      "திய": 1790,
      "்களை": 1791,
      "ச்சா": 1792,
      "அருகே": 1793,
      "ொள்ள": 1794,
      "்த்தை": 1795,
      "ருக": 1796,
      "லிய": 1797,
      "உயிர": 1798,
      "ிமர்ச": 1799,
      "இடை": 1800,
      "றும்": 1801,
      "ல்வ": 1802,
      "உடல்": 1803,
      "போன": 1804,
      "மாட்ட": 1805,
      "ழைப்ப": 1806,
      "ியிட": 1807,
      "அளவில": 1808,
      "கில": 1809,
      "தில": 1810,
      "ேஷ": 1811,
      "ிக்கொ": 1812,
      "கருத": 1813,
      "யைப்": 1814,
      "ஆணைய": 1815,
      "்ர": 1816,
      "ச்சி": 1817,
      "ுற்ற": 1818,
      "மேற்ப": 1819,
      "##ேற": 1820,
      "மல": 1821,
      "ஆர": 1822,
      "ரியா": 1823,
      "ஊடக": 1824,
      "விரி": 1825,
      "ருண": 1826,
      "ன்ஸ": 1827,
      "ுடன": 1828,
      "சிறை": 1829,
      "##த்தை": 1830,
      "##களை": 1831,
      "20": 1832,
      "டிர": 1833,
      "##ோம்": 1834,
      "நாள": 1835,
      "வங்க": 1836,
      "கிட": 1837,
      "ொழி": 1838,
      "ளியேற": 1839,
      "ராஜ்": 1840,
      "ஆதரவ": 1841,
      "ென": 1842,
      "்ப்பு": 1843,
      "ட்ர": 1844,
      "இரவு": 1845,
      "ீதிபத": 1846,
      "பந்து": 1847,
      "ஞ்சா": 1848,
      "ளை": 1849,
      "யங்க": 1850,
      "ேஸ்": 1851,
      "உட்ப": 1852,
      "்வ": 1853,
      "கட்டி": 1854,
      "வரலா": 1855,
      "வ்வாற": 1856,
      "வரலாற": 1857,
      "ிங்க": 1858,
      "##சை": 1859,
      "்கு": 1860,
      "க்குற": 1861,
      "செயல": 1862,
      "எனக்": 1863,
      "அமர": 1864,
      "கல்லூ": 1865,
      "ழக்கம": 1866,
      "மைந்த": 1867,
      "ச்சரி": 1868,
      "வெளிந": 1869,
      "திருவ": 1870,
      "்ஜ": 1871,
      "இதனை": 1872,
      "ரம்பி": 1873,
      "ுமான": 1874,
      "்டி": 1875,
      "ினும்": 1876,
      "ிபிசி": 1877,
      "தவற": 1878,
      "##ியு": 1879,
      "##ரைன": 1880,
      "னால": 1881,
      "பரபர": 1882,
      "களாக": 1883,
      "பக்க": 1884,
      "சொந்த": 1885,
      "பரவ": 1886,
      "ராகுல": 1887,
      "பழ": 1888,
      "பணம்": 1889,
      "மார": 1890,
      "ுப்பா": 1891,
      "வகை": 1892,
      "மகா": 1893,
      "தீர்": 1894,
      "றிந்த": 1895,
      "வயது": 1896,
      "ன்மை": 1897,
      "சாமி": 1898,
      "ஷ்": 1899,
      "##ளவ": 1900,
      "ாளர்": 1901,
      "வ்வளவ": 1902,
      "மர": 1903,
      "சுத": 1904,
      "ய்ச": 1905,
      "இந்து": 1906,
      "நீக்க": 1907,
      "ூட்ட": 1908,
      "கிள": 1909,
      "்டு": 1910,
      "லர": 1911,
      "தீர்ம": 1912,
      "க்ரைன": 1913,
      "பிரா": 1914,
      "ானது": 1915,
      "ூட": 1916,
      "ண்டாட": 1917,
      "ப்பை": 1918,
      "காட்ச": 1919,
      "ுங்க": 1920,
      "ொருள்": 1921,
      "ிபத்த": 1922,
      "கைய": 1923,
      "எனவும": 1924,
      "வாக்க": 1925,
      "யோக": 1926,
      "ட்டை": 1927,
      "வடி": 1928,
      "ுமாறு": 1929,
      "போர்": 1930,
      "தென்": 1931,
      "கிரு": 1932,
      "ினை": 1933,
      "யைச்": 1934,
      "##்கு": 1935,
      "வைர": 1936,
      "சக்தி": 1937,
      "ல்கலை": 1938,
      "அனு": 1939,
      "##ழா": 1940,
      "ுவிழா": 1941,
      "சமீ": 1942,
      "தைத்": 1943,
      "ேட்ட": 1944,
      "சமய": 1945,
      "ஸ்தான": 1946,
      "பிள": 1947,
      "ியல": 1948,
      "சமீப": 1949,
      "வின": 1950,
      "வ்": 1951,
      "கொள்வ": 1952,
      "##ிழ": 1953,
      "ிகழ்வ": 1954,
      "உண்": 1955,
      "உண்மை": 1956,
      "ரயில்": 1957,
      "ற்றிய": 1958,
      "நிலவ": 1959,
      "டிப்ப": 1960,
      "முதலம": 1961,
      "நம்ப": 1962,
      "வரவ": 1963,
      "அதற்க": 1964,
      "ந்தச்": 1965,
      "ஓட்ட": 1966,
      "திற": 1967,
      "ரெ": 1968,
      "டப்ப": 1969,
      "ஆரா": 1970,
      "சந்த": 1971,
      "ாளை": 1972,
      "ஆட்ட": 1973,
      "ரீதி": 1974,
      "தீவிர": 1975,
      "பொதும": 1976,
      "ரசிகர": 1977,
      "லங்கா": 1978,
      "கார்": 1979,
      "்பி": 1980,
      "ற்பனை": 1981,
      "ண்ணீர": 1982,
      "மோத": 1983,
      "ோதி": 1984,
      "ாகவே": 1985,
      "நபர": 1986,
      "ுதி": 1987,
      "##பு": 1988,
      "போத": 1989,
      "##மத": 1990,
      "களும்": 1991,
      "##ளம": 1992,
      "உணர": 1993,
      "ட்டர": 1994,
      "ச்சு": 1995,
      "பதிவ": 1996,
      "போட": 1997,
      "நாய": 1998,
      "அம்மன": 1999,
      "றிய": 2000,
      "ிஷ": 2001,
      "ூடு": 2002,
      "ருவ": 2003,
      "ுதான்": 2004,
      "சோத": 2005,
      "ஊர": 2006,
      "ிரிவு": 2007,
      "கிருஷ": 2008,
      "விந": 2009,
      "கண்ண": 2010,
      "லே": 2011,
      "ிழமை": 2012,
      "வலியு": 2013,
      "ஆன": 2014,
      "குப்ப": 2015,
      "அக்": 2016,
      "ோத": 2017,
      "க்கது": 2018,
      "ஆச": 2019,
      "இணை": 2020,
      "ோக்கு": 2021,
      "கடன்": 2022,
      "பேச்ச": 2023,
      "யிலி": 2024,
      "வசதி": 2025,
      "ிழக்க": 2026,
      "ின்றி": 2027,
      "15": 2028,
      "புல": 2029,
      "ுதலீட": 2030,
      "னியார": 2031,
      "விரைவ": 2032,
      "சோதனை": 2033,
      "க்கண": 2034,
      "##்கா": 2035,
      "டம்ப": 2036,
      "குர": 2037,
      "டைத்த": 2038,
      "தந்தை": 2039,
      "பெண்ண": 2040,
      "ம்ச": 2041,
      "ப்பூர": 2042,
      "மூத்த": 2043,
      "நீண்ட": 2044,
      "சின்ன": 2045,
      "பகிர": 2046,
      "ஓவர": 2047,
      "வசிய": 2048,
      "ொள்க": 2049,
      "ய்ச்ச": 2050,
      "அதனை": 2051,
      "கண்கா": 2052,
      "கத்த": 2053,
      "யம": 2054,
      "சித்த": 2055,
      "சங்க": 2056,
      "க்கழக": 2057,
      "டக்க": 2058,
      "ீல": 2059,
      "ில்ல": 2060,
      "பீ": 2061,
      "##ரம": 2062,
      "ியமான": 2063,
      "ைப்பட": 2064,
      "ியதாக": 2065,
      "யல": 2066,
      "கேட்க": 2067,
      "அன்று": 2068,
      "ருங்க": 2069,
      "தொகை": 2070,
      "உத்தர": 2071,
      "ன்ம": 2072,
      "மகிழ": 2073,
      "ாம்ப": 2074,
      "்ப்ப": 2075,
      "்சி": 2076,
      "இடம்": 2077,
      "லியல்": 2078,
      "சாப்ப": 2079,
      "ாதிரி": 2080,
      "கடைசி": 2081,
      "ட்ப": 2082,
      "ிரட்ட": 2083,
      "ங்கில": 2084,
      "என்னை": 2085,
      "திரான": 2086,
      "புரம்": 2087,
      "அங்க": 2088,
      "நோக்க": 2089,
      "மைத்த": 2090,
      "12": 2091,
      "சட்டம": 2092,
      "காதல": 2093,
      "விவ": 2094,
      "ிலா": 2095,
      "கர்": 2096,
      "ேற்ப": 2097,
      "ந்த்": 2098,
      "்கடி": 2099,
      "சித": 2100,
      "ேயே": 2101,
      "ஊழ": 2102,
      "ிளக்க": 2103,
      "கவனம": 2104,
      "நுட்ப": 2105,
      "முத்த": 2106,
      "ஊழியர": 2107,
      "ேரில்": 2108,
      "ப்பா": 2109,
      "வெடி": 2110,
      "தரிச": 2111,
      "ுகா": 2112,
      "ெயர்": 2113,
      "க்கிற": 2114,
      "்களில": 2115,
      "ாதனை": 2116,
      "விழாவ": 2117,
      "ாணப்ப": 2118,
      "்யா": 2119,
      "லோச": 2120,
      "ேச": 2121,
      "ப்போத": 2122,
      "ாத்தி": 2123,
      "ோட்டு": 2124,
      "லெ": 2125,
      "ண்டி": 2126,
      "ொள்கை": 2127,
      "சிலர்": 2128,
      "வேல": 2129,
      "புகை": 2130,
      "தாகக்": 2131,
      "ிட்டு": 2132,
      "ப்ர": 2133,
      "ாக்கல": 2134,
      "டாக": 2135,
      "வட": 2136,
      "ேற்கு": 2137,
      "இன்ன": 2138,
      "சப": 2139,
      "்வு": 2140,
      "குறைவ": 2141,
      "வசி": 2142,
      "உற்ப": 2143,
      "விவர": 2144,
      "செய்க": 2145,
      "ாற்றம": 2146,
      "ோட": 2147,
      "##சாய": 2148,
      "க்கால": 2149,
      "ணைப்ப": 2150,
      "ிவசாய": 2151,
      "50": 2152,
      "ேத": 2153,
      "உடனடி": 2154,
      "நண": 2155,
      "ூடா": 2156,
      "நண்ப": 2157,
      "ஸ்வ": 2158,
      "ள்ளி": 2159,
      "இறந்த": 2160,
      "போர": 2161,
      "கலா": 2162,
      "பயணம்": 2163,
      "சபை": 2164,
      "in": 2165,
      "இதன": 2166,
      "மேம்ப": 2167,
      "யிகள": 2168,
      "ிம்": 2169,
      "விவசா": 2170,
      "ிடப்ப": 2171,
      "ான்கு": 2172,
      "யர": 2173,
      "ினால்": 2174,
      "ிறோம்": 2175,
      "கோவை": 2176,
      "சூழல": 2177,
      "கம்": 2178,
      "விவாத": 2179,
      "ஆய்வ": 2180,
      "இலக்க": 2181,
      "##ித": 2182,
      "சவ": 2183,
      "ோய்": 2184,
      "தோடு": 2185,
      "பிரதி": 2186,
      "சிற": 2187,
      "ங்கா": 2188,
      "ரான்": 2189,
      "ிக்கல": 2190,
      "யைத்": 2191,
      "ருமான": 2192,
      "மிட்ட": 2193,
      "ாகிகள": 2194,
      "கடி": 2195,
      "ேம": 2196,
      "நவ": 2197,
      "மோசம": 2198,
      "எல்லா": 2199,
      "வீடு": 2200,
      "ன்று": 2201,
      "லோசனை": 2202,
      "ங்கே": 2203,
      "30": 2204,
      "பணிகள": 2205,
      "##ீஸ்": 2206,
      "ரும": 2207,
      "காய": 2208,
      "வந்தி": 2209,
      "மோ": 2210,
      "ெல்ல": 2211,
      "ந்தில": 2212,
      "எழுத": 2213,
      "தேவைய": 2214,
      "ோக்கி": 2215,
      "ுகாதா": 2216,
      "ஒட்ட": 2217,
      "ட்டா": 2218,
      "சீர": 2219,
      "தக்க": 2220,
      "##ின்": 2221,
      "யண": 2222,
      "ன்றி": 2223,
      "ுன்ன": 2224,
      "ாப்": 2225,
      "ேஸ்வர": 2226,
      "மச": 2227,
      "வலை": 2228,
      "டையாள": 2229,
      "ரவி": 2230,
      "ெளிய": 2231,
      "போதும": 2232,
      "அவற்ற": 2233,
      "கப்ப": 2234,
      "க்கர": 2235,
      "ூடாது": 2236,
      "கடும்": 2237,
      "ஆவ": 2238,
      "ித": 2239,
      "ிக்கா": 2240,
      "ழைக்க": 2241,
      "னாலும": 2242,
      "ஸ்க": 2243,
      "ெளியே": 2244,
      "னந": 2245,
      "ும்பை": 2246,
      "ரக": 2247,
      "ொத்தம": 2248,
      "ுவங்க": 2249,
      "ளிப்ப": 2250,
      "மண": 2251,
      "##ீத": 2252,
      "ற்றோர": 2253,
      "கடித": 2254,
      "ியாக": 2255,
      "ுதல்": 2256,
      "ற்காக": 2257,
      "##வீத": 2258,
      "அம்மா": 2259,
      "சதவீத": 2260,
      "குஜ": 2261,
      "இனி": 2262,
      "மண்ட": 2263,
      "ய்ந்த": 2264,
      "ைத்த": 2265,
      "ண்கள": 2266,
      "தாரண": 2267,
      "ிப்பு": 2268,
      "மில்ல": 2269,
      "பட்ச": 2270,
      "ுபி": 2271,
      "்திரை": 2272,
      "உட்பட": 2273,
      "பாடு": 2274,
      "கடற்": 2275,
      "ண்டை": 2276,
      "க்ஸ": 2277,
      "யற்க": 2278,
      "பணியா": 2279,
      "யற்கை": 2280,
      "த்தீ": 2281,
      "லக": 2282,
      "சொல": 2283,
      "டம்பெ": 2284,
      "டங்கி": 2285,
      "லைமைய": 2286,
      "##ேன்": 2287,
      "ராட்ட": 2288,
      "ச்சார": 2289,
      "ப்பி": 2290,
      "பால்": 2291,
      "படம்": 2292,
      "்குழு": 2293,
      "ார்வை": 2294,
      "ாலா": 2295,
      "நீர": 2296,
      "எல்லை": 2297,
      "ாட்டு": 2298,
      "யெ": 2299,
      "னவர": 2300,
      "பகவ": 2301,
      "எனது": 2302,
      "வருவ": 2303,
      "யிலும": 2304,
      "அல்ல": 2305,
      "ினால": 2306,
      "னம்": 2307,
      "ாலை": 2308,
      "மீதான": 2309,
      "இதே": 2310,
      "11": 2311,
      "ஃப்": 2312,
      "ஏரா": 2313,
      "ரள": 2314,
      "ஆதரவு": 2315,
      "த்தனை": 2316,
      "ுபிடி": 2317,
      "ுமல்ல": 2318,
      "ினி": 2319,
      "டே": 2320,
      "ுப்": 2321,
      "ஏராளம": 2322,
      "டோ": 2323,
      "வீன": 2324,
      "ோலீஸ்": 2325,
      "அன்ப": 2326,
      "லய": 2327,
      "விஜய": 2328,
      "சன்": 2329,
      "குள": 2330,
      "நல": 2331,
      "ட்டர்": 2332,
      "ன்பவர": 2333,
      "கரி": 2334,
      "ோர்": 2335,
      "##கள்": 2336,
      "ியன்": 2337,
      "வசியம": 2338,
      "ரியாக": 2339,
      "லரும்": 2340,
      "ேச்ச": 2341,
      "ிறக்க": 2342,
      "வென்ற": 2343,
      "லீ": 2344,
      "கதை": 2345,
      "யரச": 2346,
      "மீற": 2347,
      "யைக்": 2348,
      "கற்ற": 2349,
      "தம": 2350,
      "##டுக": 2351,
      "ஆயிரம": 2352,
      "கட்டண": 2353,
      "கணவர": 2354,
      "போய்": 2355,
      "செயல்": 2356,
      "ப்பில": 2357,
      "வுள்ள": 2358,
      "ோப்ப": 2359,
      "தில்ல": 2360,
      "இவர": 2361,
      "பண்ண": 2362,
      "ஸ்வர": 2363,
      "ூடுதல": 2364,
      "டல": 2365,
      "அவை": 2366,
      "தள": 2367,
      "ித்து": 2368,
      "சிய": 2369,
      "ற்கான": 2370,
      "உதவ": 2371,
      "அட": 2372,
      "விளை": 2373,
      "பக்கம": 2374,
      "ட்டச": 2375,
      "ன்னா": 2376,
      "்தான்": 2377,
      "வத": 2378,
      "வாச": 2379,
      "ிஸ்": 2380,
      "நண்பர": 2381,
      "வலி": 2382,
      "்றி": 2383,
      "யிடம": 2384,
      "பங்கு": 2385,
      "தரிசன": 2386,
      "ாந்த": 2387,
      "நம்ம": 2388,
      "அமை": 2389,
      "பாடல": 2390,
      "ுலா": 2391,
      "ராமர": 2392,
      "பகவான": 2393,
      "சபா": 2394,
      "காலம்": 2395,
      "நான": 2396,
      "உறவ": 2397,
      "்பெ": 2398,
      "நின்ற": 2399,
      "பிரப": 2400,
      "ரியான": 2401,
      "கம்ப": 2402,
      "டைமுற": 2403,
      "ையும": 2404,
      "பாராள": 2405,
      "ாப்ப": 2406,
      "கில்": 2407,
      "்சினை": 2408,
      "த்தால": 2409,
      "ருமாள": 2410,
      "ருகில": 2411,
      "நரே": 2412,
      "ய்ய": 2413,
      "மாநகர": 2414,
      "தைப்": 2415,
      "ோல்வி": 2416,
      "ற்றி": 2417,
      "மூன்ற": 2418,
      "நியமி": 2419,
      "கிறது": 2420,
      "கண்டி": 2421,
      "மனு": 2422,
      "துகு": 2423,
      "்கால": 2424,
      "னின்": 2425,
      "சீனாவ": 2426,
      "அனுப": 2427,
      "துகுற": 2428,
      "ஓய": 2429,
      "ுருக": 2430,
      "ன்முற": 2431,
      "கிரிக": 2432,
      "மோதல": 2433,
      "நம": 2434,
      "லையில": 2435,
      "யாத": 2436,
      "ேற": 2437,
      "ன்ச": 2438,
      "ரல்": 2439,
      "ோட்டை": 2440,
      "ுந": 2441,
      "##an": 2442,
      "குஜரா": 2443,
      "்ன": 2444,
      "ீடுகள": 2445,
      "ியம": 2446,
      "ுமதி": 2447,
      "ாமல": 2448,
      "ர்செ": 2449,
      "ிலாளர": 2450,
      "கரை": 2451,
      "ஜோ": 2452,
      "ுட்ட": 2453,
      "ந்தர": 2454,
      "டீ": 2455,
      "றிமுக": 2456,
      "ுருகன": 2457,
      "அழக": 2458,
      "ொது": 2459,
      "ர்ஜ": 2460,
      "ஆயு": 2461,
      "ஏற்கன": 2462,
      "காம": 2463,
      "சாதி": 2464,
      "##ளிவ": 2465,
      "நுழை": 2466,
      "ுன": 2467,
      "ஞான": 2468,
      "டன்": 2469,
      "தப்ப": 2470,
      "ஸ்ப": 2471,
      "த்தகை": 2472,
      "ஒப்பந": 2473,
      "ந்தது": 2474,
      "ந்தேக": 2475,
      "ண்டனை": 2476,
      "அனுபவ": 2477,
      "ஆயுத": 2478,
      "க்காவ": 2479,
      "சிறுவ": 2480,
      "உறவு": 2481,
      "கிலோ": 2482,
      "விள": 2483,
      "இஸ்": 2484,
      "கிட்ட": 2485,
      "ஞ்சி": 2486,
      "வெள்ள": 2487,
      "ளம்": 2488,
      "மண்டல": 2489,
      "ர்மா": 2490,
      "சூரிய": 2491,
      "ிறேன்": 2492,
      "ஓட": 2493,
      "ுழுமை": 2494,
      "ிருது": 2495,
      "ஜே": 2496,
      "வள": 2497,
      "கான்": 2498,
      "ழிய": 2499,
      "ஓய்வ": 2500,
      "ஆஸ": 2501,
      "முன்வ": 2502,
      "விஜய்": 2503,
      "பின்ப": 2504,
      "வீழ": 2505,
      "ேட்டை": 2506,
      "ோப்பை": 2507,
      "ல்ய": 2508,
      "யல்ப": 2509,
      "பொறு": 2510,
      "வடிவ": 2511,
      "அரு": 2512,
      "##நா": 2513,
      "ாவத": 2514,
      "்ள": 2515,
      "ுள்ளன": 2516,
      "உருவ": 2517,
      "நிர": 2518,
      "கோப": 2519,
      "தேப": 2520,
      "சிங்க": 2521,
      "தழ": 2522,
      "ுத்": 2523,
      "கீழ": 2524,
      "வாழ்வ": 2525,
      "ரவ": 2526,
      "ுற்றி": 2527,
      "அப்பா": 2528,
      "களம": 2529,
      "விலக": 2530,
      "கதி": 2531,
      "செலவு": 2532,
      "ரையாட": 2533,
      "பலம": 2534,
      "அமைதி": 2535,
      "ாரா": 2536,
      "##ுமி": 2537,
      "ெய்": 2538,
      "##எஸ்": 2539,
      "வரத்த": 2540,
      "அங்கி": 2541,
      "கலை": 2542,
      "ிலான": 2543,
      "ரத்து": 2544,
      "ிறுமி": 2545,
      "ுயன்ற": 2546,
      "வான": 2547,
      "மின்ச": 2548,
      "சல": 2549,
      "டங்க": 2550,
      "முஸ்": 2551,
      "சுர": 2552,
      "வலைத": 2553,
      "யன்": 2554,
      "தாய்": 2555,
      "ிகப்ப": 2556,
      "்ஸ": 2557,
      "ஓர": 2558,
      "தன்னை": 2559,
      "ற்ச": 2560,
      "ொற்ற": 2561,
      "ட்டன": 2562,
      "தில்": 2563,
      "வீதி": 2564,
      "தேடி": 2565,
      "வீச்ச": 2566,
      "நமது": 2567,
      "கொள்க": 2568,
      "ப்போக": 2569,
      "ட்வி": 2570,
      "உதய": 2571,
      "நிர்": 2572,
      "ின்ப": 2573,
      "ிக்கி": 2574,
      "சனி": 2575,
      "ர்ட": 2576,
      "ைக்க": 2577,
      "திவிட": 2578,
      "பொதுக": 2579,
      "கள்ள": 2580,
      "கொடி": 2581,
      "ள்ளூர": 2582,
      "ராஜா": 2583,
      "ேக்": 2584,
      "ோன": 2585,
      "ீட்டு": 2586,
      "யில்ல": 2587,
      "டிவி": 2588,
      "ுதலை": 2589,
      "ிலைமை": 2590,
      "பாதை": 2591,
      "னம": 2592,
      "ப்பம": 2593,
      "ிசு": 2594,
      "ோலி": 2595,
      "ாக்": 2596,
      "பறி": 2597,
      "முஸ்ல": 2598,
      "வன்": 2599,
      "கைப்ப": 2600,
      "##ாயக": 2601,
      "நேரடி": 2602,
      "ளவு": 2603,
      "ஆரம்ப": 2604,
      "மரண": 2605,
      "ஐந்து": 2606,
      "ரர்கள": 2607,
      "வியா": 2608,
      "வேகம": 2609,
      "விரிவ": 2610,
      "ெட்": 2611,
      "ம்பா": 2612,
      "இறங்க": 2613,
      "ுமே": 2614,
      "ரயில": 2615,
      "ுன்னெ": 2616,
      "ரேல": 2617,
      "ஆல": 2618,
      "யரசு": 2619,
      "ெட்டி": 2620,
      "மீன": 2621,
      "சேகர": 2622,
      "தமிழர": 2623,
      "ெல": 2624,
      "ேல": 2625,
      "வீச": 2626,
      "ாணி": 2627,
      "ருள": 2628,
      "ெரிய": 2629,
      "ரேலிய": 2630,
      "்த்து": 2631,
      "ள்ளே": 2632,
      "்றால்": 2633,
      "சிகலா": 2634,
      "ட்டசப": 2635,
      "ப்ட": 2636,
      "ார்ச்": 2637,
      "##ோதர": 2638,
      "சகோதர": 2639,
      "இழ": 2640,
      "கழ": 2641,
      "்டார்": 2642,
      "ரிவ": 2643,
      "திறன": 2644,
      "இழந்த": 2645,
      "ஆறு": 2646,
      "யணி": 2647,
      "ெக்": 2648,
      "யாரும": 2649,
      "சுய": 2650,
      "லிங்க": 2651,
      "ச்சனை": 2652,
      "செலவ": 2653,
      "சுட்ட": 2654,
      "ிள்ள": 2655,
      "ித்": 2656,
      "ாக்கி": 2657,
      "உணவ": 2658,
      "ஒன்றை": 2659,
      "பிரிவ": 2660,
      "ஒத்த": 2661,
      "கொல்ல": 2662,
      "சிலர": 2663,
      "ைக்கு": 2664,
      "பேரா": 2665,
      "ண்டர": 2666,
      "##ோல": 2667,
      "தேபோல": 2668,
      "படுக": 2669,
      "துப்ப": 2670,
      "க்டர்": 2671,
      "முறைய": 2672,
      "த்ம": 2673,
      "ிள்ளை": 2674,
      "40": 2675,
      "படை": 2676,
      "ேச்சு": 2677,
      "ிமுக": 2678,
      "க்கொ": 2679,
      "ாஷ்": 2680,
      "தெளிவ": 2681,
      "பர்கள": 2682,
      "ஜூலை": 2683,
      "ூற்ற": 2684,
      "்ரா": 2685,
      "நாத்": 2686,
      "##ிலை": 2687,
      "ிக்ரம": 2688,
      "குல": 2689,
      "கவலை": 2690,
      "சன": 2691,
      "ுள்ளி": 2692,
      "ஆவண": 2693,
      "ரச": 2694,
      "கப்பல": 2695,
      "திண": 2696,
      "பேட்": 2697,
      "ுகை": 2698,
      "கமத": 2699,
      "ப்பூ": 2700,
      "டவ": 2701,
      "ணய": 2702,
      "ங்கர": 2703,
      "ுபவர": 2704,
      "விண்ண": 2705,
      "ண்மைய": 2706,
      "ொத்து": 2707,
      "ுற்றம": 2708,
      "்ஸ்": 2709,
      "ட்டில": 2710,
      "ஞ்சாப": 2711,
      "லலி": 2712,
      "ராஜப": 2713,
      "ுநர": 2714,
      "வித்த": 2715,
      "ருணா": 2716,
      "ன்ட": 2717,
      "பெரு": 2718,
      "ிமுகவ": 2719,
      "நடு": 2720,
      "்ஷ": 2721,
      "ுத்தக": 2722,
      "உடை": 2723,
      "டீர": 2724,
      "ீவிர": 2725,
      "ழிவ": 2726,
      "ீவிரம": 2727,
      "ொட்ட": 2728,
      "லலிதா": 2729,
      "கழக": 2730,
      "சந்தை": 2731,
      "14": 2732,
      "ீர": 2733,
      "ட்டோ": 2734,
      "கேப்": 2735,
      "ுவார": 2736,
      "டீரென": 2737,
      "ாஸ": 2738,
      "ங்கு": 2739,
      "மாகாண": 2740,
      "ப்பான": 2741,
      "யாராக": 2742,
      "விதம": 2743,
      "த்ய": 2744,
      "ளர்கள": 2745,
      "யணிகள": 2746,
      "ளவ": 2747,
      "ங்கட": 2748,
      "ொடர": 2749,
      "றங்க": 2750,
      "ிஜ": 2751,
      "நியூ": 2752,
      "ட்பு": 2753,
      "சொல்க": 2754,
      "ல்லி": 2755,
      "மேட": 2756,
      "வுன்": 2757,
      "சீன": 2758,
      "குவி": 2759,
      "ஆஸ்தி": 2760,
      "ோது": 2761,
      "##on": 2762,
      "றிஞர": 2763,
      "னநாயக": 2764,
      "ணத்தை": 2765,
      "ராத": 2766,
      "நிபு": 2767,
      "நிபுண": 2768,
      "கன்": 2769,
      "டிகர்": 2770,
      "ுத்தி": 2771,
      "ாற்று": 2772,
      "கௌ": 2773,
      "னோ": 2774,
      "சொல்வ": 2775,
      "ியோக": 2776,
      "ட்க": 2777,
      "ரம்": 2778,
      "ிற்ப": 2779,
      "18": 2780,
      "வகி": 2781,
      "ன்றைய": 2782,
      "25": 2783,
      "##ையா": 2784,
      "மாறி": 2785,
      "தொடர்": 2786,
      "தீன": 2787,
      "ுறவு": 2788,
      "குரல": 2789,
      "விடுவ": 2790,
      "ஷன": 2791,
      "யிற": 2792,
      "மூர": 2793,
      "பேராச": 2794,
      "ல்ப": 2795,
      "க்கி": 2796,
      "மக்கு": 2797,
      "ழப்ப": 2798,
      "##கம": 2799,
      "##றுவ": 2800,
      "த்ர": 2801,
      "வாள": 2802,
      "கவனி": 2803,
      "வரிசை": 2804,
      "ாத்த": 2805,
      "அவன": 2806,
      "சவால": 2807,
      "ீட்": 2808,
      "டிங்": 2809,
      "ிமி": 2810,
      "ொல": 2811,
      "ியல்": 2812,
      "எனத்": 2813,
      "ஆகும்": 2814,
      "ச்சல": 2815,
      "ணக்க": 2816,
      "தப்பி": 2817,
      "ழியாக": 2818,
      "நாக": 2819,
      "னர": 2820,
      "ுதன்": 2821,
      "##ar": 2822,
      "ஹோ": 2823,
      "ியன": 2824,
      "ுந்தர": 2825,
      "யானை": 2826,
      "ருமை": 2827,
      "டைப்ப": 2828,
      "ாளிகள": 2829,
      "்வுகள": 2830,
      "13": 2831,
      "ாண்டு": 2832,
      "ாகப்": 2833,
      "பெறுவ": 2834,
      "தீர்வ": 2835,
      "ஜூன்": 2836,
      "டர": 2837,
      "தல": 2838,
      "கண்டன": 2839,
      "ேர்வ": 2840,
      "்ரி": 2841,
      "அறிவு": 2842,
      "ரப்பு": 2843,
      "ழும": 2844,
      "ெள்ளி": 2845,
      "ங்கை": 2846,
      "யர்": 2847,
      "கூடிய": 2848,
      "ளக்கம": 2849,
      "ினார": 2850,
      "கையில": 2851,
      "கோர": 2852,
      "ரவை": 2853,
      "ெற": 2854,
      "சிறிய": 2855,
      "தற்கொ": 2856,
      "ுண்டு": 2857,
      "ொன்ற": 2858,
      "குண": 2859,
      "பேசி": 2860,
      "நிறைய": 2861,
      "ிலும": 2862,
      "உட்": 2863,
      "டைக்க": 2864,
      "ஸ்ம": 2865,
      "பை": 2866,
      "ெல்": 2867,
      "்றில்": 2868,
      "மிய": 2869,
      "முற்ற": 2870,
      "கொட": 2871,
      "லம்": 2872,
      "ட்டம": 2873,
      "விளைவ": 2874,
      "கால்": 2875,
      "ராஜபக": 2876,
      "ிரம": 2877,
      "ாராய": 2878,
      "வலைதள": 2879,
      "ுந்து": 2880,
      "ுமு": 2881,
      "வேத": 2882,
      "ற்று": 2883,
      "ிரிகை": 2884,
      "ாபா": 2885,
      "பிவிர": 2886,
      "எரி": 2887,
      "ங்களத": 2888,
      "ங்கல்": 2889,
      "ாரிய": 2890,
      "நகர்": 2891,
      "ல்யாண": 2892,
      "ஏப்": 2893,
      "திட": 2894,
      "ுநர்": 2895,
      "லன்": 2896,
      "ிச்சய": 2897,
      "ாளில்": 2898,
      "ப்பூச": 2899,
      "துடன்": 2900,
      "ட்ரோ": 2901,
      "வழிபட": 2902,
      "இஸ்லா": 2903,
      "அருள்": 2904,
      "ற்சவ": 2905,
      "பன்ன": 2906,
      "அங்கே": 2907,
      "நீங்க": 2908,
      "ுறப்ப": 2909,
      "உரிய": 2910,
      "த்திட": 2911,
      "விண்": 2912,
      "ுமை": 2913,
      "ுகாம": 2914,
      "துவாக": 2915,
      "டுமை": 2916,
      "ேட்டி": 2917,
      "சேர": 2918,
      "வுண்ட": 2919,
      "நீதி": 2920,
      "கிடைய": 2921,
      "யர்வ": 2922,
      "ுமி": 2923,
      "ன்ஸ்": 2924,
      "ேஜ": 2925,
      "பயன": 2926,
      "கிரக": 2927,
      "்பிய": 2928,
      "வெட்ட": 2929,
      "ாட்": 2930,
      "மஹ": 2931,
      "கல்": 2932,
      "அளவு": 2933,
      "ஷ்டிர": 2934,
      "ின்போ": 2935,
      "சுவ": 2936,
      "ன்னு": 2937,
      "ம்பி": 2938,
      "16": 2939,
      "சுப": 2940,
      "ரேன": 2941,
      "லாக": 2942,
      "ுதல்வ": 2943,
      "றுவ": 2944,
      "ஷா": 2945,
      "ஹா": 2946,
      "ராவிட": 2947,
      "மகார": 2948,
      "மிட": 2949,
      "மகாரா": 2950,
      "நினைவ": 2951,
      "ரப": 2952,
      "லத்த": 2953,
      "ொடர்ப": 2954,
      "ைட்": 2955,
      "திரி": 2956,
      "குறு": 2957,
      "ரளா": 2958,
      "சம்பந": 2959,
      "ரன்": 2960,
      "ான்ற": 2961,
      "ைல": 2962,
      "டனே": 2963,
      "ளங்கள": 2964,
      "ாஸ்": 2965,
      "ொற்று": 2966,
      "தேர": 2967,
      "ாலான": 2968,
      "எட்ட": 2969,
      "விய": 2970,
      "கோல": 2971,
      "ணைக்க": 2972,
      "ாகவும": 2973,
      "ஆதரவா": 2974,
      "தோற": 2975,
      "யணத்த": 2976,
      "அறை": 2977,
      "ஆற": 2978,
      "ம்மை": 2979,
      "24": 2980,
      "டிச": 2981,
      "ஆபத்த": 2982,
      "ிழி": 2983,
      "ளத்த": 2984,
      "ேயர": 2985,
      "ள்ளை": 2986,
      "களின்": 2987,
      "பயணி": 2988,
      "ல்வம்": 2989,
      "வோ": 2990,
      "தேட": 2991,
      "ோதனை": 2992,
      "##or": 2993,
      "னிப்ப": 2994,
      "னிமா": 2995,
      "ம்சா": 2996,
      "யத்த": 2997,
      "ழக்க": 2998,
      "##வரை": 2999,
      "டைகள": 3000,
      "ணிந்த": 3001,
      "விகித": 3002,
      "அத்த": 3003,
      "ுமுறை": 3004,
      "ர்ட்": 3005,
      "பெர": 3006,
      "இக்": 3007,
      "ிசை": 3008,
      "ுஷ": 3009,
      "ுட்": 3010,
      "ஞ்சம்": 3011,
      "துண": 3012,
      "ும்பா": 3013,
      "பன்னீ": 3014,
      "ுவை": 3015,
      "ிட்டி": 3016,
      "மால": 3017,
      "அலுவ": 3018,
      "ோர்ட்": 3019,
      "னங்கள": 3020,
      "அலுவல": 3021,
      "பட்டி": 3022,
      "ரிந்த": 3023,
      "ன்றிய": 3024,
      "கரம": 3025,
      "ூதி": 3026,
      "ாழ": 3027,
      "மான்": 3028,
      "ஒழ": 3029,
      "னல": 3030,
      "மறை": 3031,
      "ளாக": 3032,
      "ையே": 3033,
      "அண": 3034,
      "லோ": 3035,
      "ரமணி": 3036,
      "ங்": 3037,
      "வைப்ப": 3038,
      "ரல": 3039,
      "ோம": 3040,
      "ம்ஸ்": 3041,
      "தீப": 3042,
      "இன": 3043,
      "வரப்ப": 3044,
      "ச்சே": 3045,
      "சிலை": 3046,
      "திரட": 3047,
      "##er": 3048,
      "வான்": 3049,
      "ப்பர்": 3050,
      "பரப்ப": 3051,
      "17": 3052,
      "காந்த": 3053,
      "மீர": 3054,
      "யற்ப": 3055,
      "அக்க": 3056,
      "தம்": 3057,
      "லாப": 3058,
      "கூர": 3059,
      "யேற்ற": 3060,
      "மனத": 3061,
      "th": 3062,
      "யிர": 3063,
      "போதை": 3064,
      "ிதா": 3065,
      "தட": 3066,
      "ஆதி": 3067,
      "ண்ப": 3068,
      "ைப்ப": 3069,
      "தித்த": 3070,
      "கர்நா": 3071,
      "டகா": 3072,
      "னந்த": 3073,
      "டங்கு": 3074,
      "ரட்ட": 3075,
      "ென்": 3076,
      "அவச": 3077,
      "ெங்க": 3078,
      "ெல்ப": 3079,
      "ாகம்": 3080,
      "ளித": 3081,
      "மொழி": 3082,
      "இம்": 3083,
      "ளவில்": 3084,
      "ழைய": 3085,
      "ிமிட": 3086,
      "ாளைய": 3087,
      "டின": 3088,
      "ியாச": 3089,
      "னென": 3090,
      "யுக்": 3091,
      "100": 3092,
      "்டால்": 3093,
      "்பில்": 3094,
      "்கிரம": 3095,
      "மூல": 3096,
      "றுதி": 3097,
      "பூர்வ": 3098,
      "இப்ப": 3099,
      "த்தக": 3100,
      "மீட்ட": 3101,
      "்தவரை": 3102,
      "தைக்": 3103,
      "ந்தோ": 3104,
      "்லை": 3105,
      "ேஷன": 3106,
      "பாச": 3107,
      "வதி": 3108,
      "ிப்": 3109,
      "உடன்": 3110,
      "க்கல்": 3111,
      "்லைன": 3112,
      "ப்புற": 3113,
      "ஆப": 3114,
      "ளும்": 3115,
      "ுவதை": 3116,
      "ணுக": 3117,
      "ணர்வ": 3118,
      "ீப்": 3119,
      "மித்": 3120,
      "பாய": 3121,
      "டிக": 3122,
      "யினர்": 3123,
      "பஞ": 3124,
      "திவு": 3125,
      "மீன்": 3126,
      "ம்மன்": 3127,
      "பஞ்ச": 3128,
      "ங்கல": 3129,
      "டைவ": 3130,
      "கழி": 3131,
      "களைப்": 3132,
      "ியூ": 3133,
      "மாஸ்": 3134,
      "கண்டற": 3135,
      "ஆகியவ": 3136,
      "ட்டவர": 3137,
      "பாண்ட": 3138,
      "ுரங்க": 3139,
      "தூக்க": 3140,
      "ரஜ": 3141,
      "கிழ": 3142,
      "ற்றை": 3143,
      "ங்கீ": 3144,
      "ாயக": 3145,
      "ரூபாய": 3146,
      "வராக": 3147,
      "ய்க": 3148,
      "ன்ட்": 3149,
      "ள்வ": 3150,
      "ைஞர": 3151,
      "ண்டப": 3152,
      "சூழ்ந": 3153,
      "தூர": 3154,
      "ாரி": 3155,
      "இன்": 3156,
      "மர்ச": 3157,
      "ரியாத": 3158,
      "அந்ந": 3159,
      "முனை": 3160,
      "தவறு": 3161,
      "எல": 3162,
      "த்தர": 3163,
      "ாயகர்": 3164,
      "சிக்": 3165,
      "்புக": 3166,
      "ெண்ட": 3167,
      "காரை": 3168,
      "யல்": 3169,
      "ோஷ": 3170,
      "வேளை": 3171,
      "னமும்": 3172,
      "த்தா": 3173,
      "ராய": 3174,
      "காப்ப": 3175,
      "ூவ": 3176,
      "பரி": 3177,
      "கடல": 3178,
      "ிர்": 3179,
      "கடல்": 3180,
      "மர்சன": 3181,
      "ந்தி": 3182,
      "ரத": 3183,
      "ுகம": 3184,
      "நீட்": 3185,
      "ுகளில": 3186,
      "ீடி": 3187,
      "##டம": 3188,
      "ரிமை": 3189,
      "ோன்று": 3190,
      "வீசி": 3191,
      "ாட்டை": 3192,
      "ுவதாக": 3193,
      "ாதாரம": 3194,
      "சல்": 3195,
      "ாவில்": 3196,
      "ூப": 3197,
      "ாதா": 3198,
      "்ல": 3199,
      "மாம": 3200,
      "அறிவ": 3201,
      "வற்றை": 3202,
      "்பதி": 3203,
      "ஏற்பட": 3204,
      "ாயம்": 3205,
      "னுக்க": 3206,
      "டாத": 3207,
      "னியாக": 3208,
      "மார்க": 3209,
      "அச": 3210,
      "அச்ச": 3211,
      "ையா": 3212,
      "நீர்": 3213,
      "கண்டு": 3214,
      "ட்டிய": 3215,
      "பர்": 3216,
      "்கம": 3217,
      "சேத": 3218,
      "ச்செ": 3219,
      "ப்பன": 3220,
      "ாப்பா": 3221,
      "ன்கள": 3222,
      "ரப்ப": 3223,
      "##வின": 3224,
      "திலும": 3225,
      "க்ச": 3226,
      "ார்க": 3227,
      "நாம": 3228,
      "டிகை": 3229,
      "யூனி": 3230,
      "தவி": 3231,
      "விட்": 3232,
      "ட்டார": 3233,
      "ியில்": 3234,
      "பிரிய": 3235,
      "்நாட": 3236,
      "ஓர்": 3237,
      "பிஎஸ்": 3238,
      "வரிடம": 3239,
      "ti": 3240,
      "ளம": 3241,
      "கேர": 3242,
      "வலர": 3243,
      "குத்த": 3244,
      "றுக": 3245,
      "்ம": 3246,
      "ஞ்சு": 3247,
      "கன்ன": 3248,
      "ுக்கி": 3249,
      "ிட்": 3250,
      "ுற்று": 3251,
      "ெறும்": 3252,
      "ாந்து": 3253,
      "க்கடி": 3254,
      "ண்டா": 3255,
      "த்தூர": 3256,
      "தாம்": 3257,
      "ுமார": 3258,
      "லிவ": 3259,
      "ுண்ட": 3260,
      "்தம": 3261,
      "ாயா": 3262,
      "ச்சேர": 3263,
      "உப": 3264,
      "ூலி": 3265,
      "ியம்": 3266,
      "்பள": 3267,
      "ாசா": 3268,
      "்ட்ர": 3269,
      "எஸ": 3270,
      "சார்": 3271,
      "ழல்": 3272,
      "ெய்வ": 3273,
      "ையெ": 3274,
      "ணிக": 3275,
      "வலு": 3276,
      "எங்க": 3277,
      "ஹர": 3278,
      "த்தல": 3279,
      "டுகளை": 3280,
      "க்ர": 3281,
      "ிட்டன": 3282,
      "பூர": 3283,
      "ுரிய": 3284,
      "ைன": 3285,
      "சாத்த": 3286,
      "திரை": 3287,
      "காசி": 3288,
      "ணிகள": 3289,
      "ெல்வ": 3290,
      "பிக்": 3291,
      "ீவ": 3292,
      "சூழல்": 3293,
      "ர்ன": 3294,
      "எழுதி": 3295,
      "ினைவு": 3296,
      "தகம": 3297,
      "தன்மை": 3298,
      "ிகள்": 3299,
      "ுதித": 3300,
      "நாயகர": 3301,
      "சர": 3302,
      "்நாடக": 3303,
      "ஜ்": 3304,
      "க்களி": 3305,
      "சிக்க": 3306,
      "்ஜி": 3307,
      "பாஸ்": 3308,
      "ுறைய": 3309,
      "ின்ன": 3310,
      "ானே": 3311,
      "ுவார்": 3312,
      "ரூர": 3313,
      "ைதான": 3314,
      "கரில்": 3315,
      "ஏற்பா": 3316,
      "க்டர": 3317,
      "கான": 3318,
      "லம": 3319,
      "st": 3320,
      "லாந்த": 3321,
      "an": 3322,
      "ூக்கி": 3323,
      "டவு": 3324,
      "தள்ள": 3325,
      "ீங்க": 3326,
      "ூர்வ": 3327,
      "மேன": 3328,
      "ுடிய": 3329,
      "ையட": 3330,
      "60": 3331,
      "ொட்டி": 3332,
      "ியோ": 3333,
      "வண": 3334,
      "ரண்ட": 3335,
      "ராம்": 3336,
      "நிற": 3337,
      "லகம்": 3338,
      "ணிய": 3339,
      "ுலி": 3340,
      "றுதிய": 3341,
      "ூத்த": 3342,
      "்கிற": 3343,
      "ளங்க": 3344,
      "ஹெ": 3345,
      "லாக்க": 3346,
      "ீட்டர": 3347,
      "டர்": 3348,
      "ாபாத்": 3349,
      "er": 3350,
      "ாலி": 3351,
      "டக்கு": 3352,
      "நீதிம": 3353,
      "கவர": 3354,
      "ிவா": 3355,
      "த்தம்": 3356,
      "மாஸ": 3357,
      "எனப்": 3358,
      "லுங்க": 3359,
      "தானி": 3360,
      "##al": 3361,
      "ழிக்க": 3362,
      "கணி": 3363,
      "ஞா": 3364,
      "மலா": 3365,
      "ராச": 3366,
      "விர": 3367,
      "வம": 3368,
      "வழிய": 3369,
      "ப்பாட": 3370,
      "திருந": 3371,
      "ிற்ற": 3372,
      "ன்க": 3373,
      "க்குவ": 3374,
      "ாமத்த": 3375,
      "ோதா": 3376,
      "ிகளை": 3377,
      "்க்": 3378,
      "டில்": 3379,
      "ட்சிய": 3380,
      "ர்வல": 3381,
      "பொறுத": 3382,
      "ணிகளை": 3383,
      "னவு": 3384,
      "21": 3385,
      "ாகத்த": 3386,
      "டியே": 3387,
      "முட": 3388,
      "ங்கம்": 3389,
      "ந்தா": 3390,
      "சிந்த": 3391,
      "ிவச": 3392,
      "ஊர்": 3393,
      "ுப்பி": 3394,
      "உயர்ந": 3395,
      "இசை": 3396,
      "ொம": 3397,
      "ிரஸ": 3398,
      "னித்த": 3399,
      "ாசு": 3400,
      "என்ப": 3401,
      "ரியல": 3402,
      "களைக்": 3403,
      "்தப்ப": 3404,
      "ுவதில": 3405,
      "ான்மை": 3406,
      "##டன": 3407,
      "லைக்க": 3408,
      "பிரபல": 3409,
      "ாஜ்": 3410,
      "ேனா": 3411,
      "##am": 3412,
      "ண்ணா": 3413,
      "ுல்ல": 3414,
      "ோள": 3415,
      "ஈர": 3416,
      "ுகைய": 3417,
      "ுவருக": 3418,
      "விடும": 3419,
      "ிந்த": 3420,
      "ிதிகள": 3421,
      "வுக": 3422,
      "ானிய": 3423,
      "re": 3424,
      "ஹி": 3425,
      "ைகள": 3426,
      "##in": 3427,
      "ணிக்க": 3428,
      "ாசன": 3429,
      "ாவிட": 3430,
      "களத்த": 3431,
      "வாதி": 3432,
      "ிரத்த": 3433,
      "இடம": 3434,
      "புறம": 3435,
      "யல்பட": 3436,
      "19": 3437,
      "ொதுக்": 3438,
      "இவை": 3439,
      "ரக்க": 3440,
      "ம்மு": 3441,
      "ிலங்க": 3442,
      "வீரர்": 3443,
      "ூழ": 3444,
      "ுவில்": 3445,
      "யிடம்": 3446,
      "வுடன்": 3447,
      "ிருட": 3448,
      "ஆடி": 3449,
      "ிடத்த": 3450,
      "ுத்தம": 3451,
      "உண்ட": 3452,
      "ைட": 3453,
      "ப்பிர": 3454,
      "விற்க": 3455,
      "பிரத": 3456,
      "ுப்த": 3457,
      "ிஞ": 3458,
      "ிறதா": 3459,
      "ிச்சி": 3460,
      "்கா": 3461,
      "ரத்": 3462,
      "ெஸ்": 3463,
      "ேட்": 3464,
      "வால": 3465,
      "சத்த": 3466,
      "ானா": 3467,
      "ீதா": 3468,
      "்மத": 3469,
      "ேரி": 3470,
      "ழுது": 3471,
      "ூட்டு": 3472,
      "ுடியி": 3473,
      "னியா": 3474,
      "##ொரு": 3475,
      "ஷன்": 3476,
      "ஏழ": 3477,
      "பச": 3478,
      "ோக": 3479,
      "மித": 3480,
      "22": 3481,
      "வந்தத": 3482,
      "ன்றாக": 3483,
      "ஜித": 3484,
      "##்தா": 3485,
      "ுகத்த": 3486,
      "பயண": 3487,
      "வேள": 3488,
      "தொலை": 3489,
      "ட்ஸ்": 3490,
      "ர்வம": 3491,
      "ெம": 3492,
      "ானவர": 3493,
      "சாட்ட": 3494,
      "குண்ட": 3495,
      "ர்கள்": 3496,
      "வாரி": 3497,
      "யாகும": 3498,
      "னித": 3499,
      "ிண்ட": 3500,
      "ர்க்": 3501,
      "ne": 3502,
      "ரதி": 3503,
      "தற்கா": 3504,
      "நகை": 3505,
      "ர்ப": 3506,
      "றந": 3507,
      "ளைய": 3508,
      "கெ": 3509,
      "வப்ப": 3510,
      "ிடு": 3511,
      "்சே": 3512,
      "ன்றும": 3513,
      "அடைய": 3514,
      "லூர": 3515,
      "ிடி": 3516,
      "ைப்பு": 3517,
      "ப்பிய": 3518,
      "டுகள்": 3519,
      "றைந்த": 3520,
      "ுஷ்": 3521,
      "ிகை": 3522,
      "ோனி": 3523,
      "்டில்": 3524,
      "ல்ட": 3525,
      "ுட்டி": 3526,
      "ஜென": 3527,
      "யக்க": 3528,
      "வலம": 3529,
      "ந்தைய": 3530,
      "ட்டாய": 3531,
      "கங்கள": 3532,
      "கதா": 3533,
      "ட்டப்": 3534,
      "ியாளர": 3535,
      "ிகா": 3536,
      "ோண": 3537,
      "யிர்": 3538,
      "லிம": 3539,
      "நியம": 3540,
      "ரிசி": 3541,
      "ற்றும": 3542,
      "ாண்டி": 3543,
      "எப்போ": 3544,
      "காலி": 3545,
      "ாயில": 3546,
      "ீத": 3547,
      "ோக்": 3548,
      "இந்தி": 3549,
      "புத": 3550,
      "ரிம": 3551,
      "ிஐ": 3552,
      "ாரம்": 3553,
      "யானது": 3554,
      "ற்கு": 3555,
      "லவ": 3556,
      "ுட்டு": 3557,
      "ரம்ப": 3558,
      "றவை": 3559,
      "ப்ள": 3560,
      "ஆயிர": 3561,
      "னிலை": 3562,
      "ிரா": 3563,
      "ய்யா": 3564,
      "லன": 3565,
      "போன்": 3566,
      "சிரி": 3567,
      "ம்பல": 3568,
      "ிவார": 3569,
      "ுச": 3570,
      "ண்டிக": 3571,
      "னார்": 3572,
      "ீக": 3573,
      "ரித": 3574,
      "க்தி": 3575,
      "தட்ட": 3576,
      "முர": 3577,
      "ெட்ட": 3578,
      "23": 3579,
      "ுச்ச": 3580,
      "வைத்": 3581,
      "மானது": 3582,
      "பத்து": 3583,
      "கத்தா": 3584,
      "ஆற்ற": 3585,
      "ுமென": 3586,
      "க்ன": 3587,
      "பில": 3588,
      "லப்ப": 3589,
      "சாத": 3590,
      "ர்வைய": 3591,
      "ார்ட்": 3592,
      "பிறக": 3593,
      "உர": 3594,
      "ஜர": 3595,
      "ூச்ச": 3596,
      "்வா": 3597,
      "ியலில": 3598,
      "ைம": 3599,
      "்டா": 3600,
      "ைவ": 3601,
      "்யூ": 3602,
      "னப்பட": 3603,
      "்க்கு": 3604,
      "பாதி": 3605,
      "க்கம": 3606,
      "அதன்ப": 3607,
      "ேலு": 3608,
      "ரஸ்": 3609,
      "ாராம": 3610,
      "ேஸ": 3611,
      "ற்றவர": 3612,
      "ாளிக": 3613,
      "அம்ப": 3614,
      "்மை": 3615,
      "வேற": 3616,
      "ழிப்ப": 3617,
      "டையில": 3618,
      "ுதின": 3619,
      "தர்": 3620,
      "ிவக": 3621,
      "வட்ட": 3622,
      "ைவிட": 3623,
      "ஆப்": 3624,
      "ூப்": 3625,
      "மிக்க": 3626,
      "ப்பது": 3627,
      "சர்": 3628,
      "ழமை": 3629,
      "த்தவர": 3630,
      "ானம்": 3631,
      "அவ்வ": 3632,
      "இணையத": 3633,
      "லச": 3634,
      "ித்தி": 3635,
      "ஏற": 3636,
      "ொடி": 3637,
      "மாட": 3638,
      "மாளி": 3639,
      "ுரம்": 3640,
      "டம்": 3641,
      "லவர": 3642,
      "ாபி": 3643,
      "ாகர": 3644,
      "வினர்": 3645,
      "ஆதார": 3646,
      "தியாக": 3647,
      "ொதுச்": 3648,
      "vi": 3649,
      "ஸா": 3650,
      "ெடு": 3651,
      "அல்": 3652,
      "ோர்ட": 3653,
      "ரங்கள": 3654,
      "ல்கள": 3655,
      "ாரு": 3656,
      "ேட": 3657,
      "திடீர": 3658,
      "ஃபி": 3659,
      "தத்த": 3660,
      "ியான": 3661,
      "தளத்த": 3662,
      "டவுள": 3663,
      "ழங்கு": 3664,
      "ிதிய": 3665,
      "்றம": 3666,
      "யோட": 3667,
      "டையின": 3668,
      "பாரத": 3669,
      "ேண்ட": 3670,
      "ோன்ற": 3671,
      "தால": 3672,
      "க்கம்": 3673,
      "ேறு": 3674,
      "தாய": 3675,
      "ர்ண": 3676,
      "வளி": 3677,
      "ாரர": 3678,
      "ஸ்டா": 3679,
      "லைவ": 3680,
      "ண்மை": 3681,
      "னதா": 3682,
      "ிசா": 3683,
      "கடன": 3684,
      "சூர": 3685,
      "மொத்த": 3686,
      "றப்பு": 3687,
      "ுக்கே": 3688,
      "ியவர்": 3689,
      "ரிக்க": 3690,
      "ரவாத": 3691,
      "ோவ": 3692,
      "லால்": 3693,
      "அப்": 3694,
      "வார்": 3695,
      "மாணவ": 3696,
      "ாவி": 3697,
      "இவ்வ": 3698,
      "சனை": 3699,
      "ப்த": 3700,
      "க்களை": 3701,
      "குளி": 3702,
      "ிகித": 3703,
      "கையை": 3704,
      "கேரள": 3705,
      "உரை": 3706,
      "தொகு": 3707,
      "நான்க": 3708,
      "ைதி": 3709,
      "ராவ": 3710,
      "்கான": 3711,
      "ஆண்": 3712,
      "ப்பர": 3713,
      "ிஞ்": 3714,
      "ள்க": 3715,
      "ரும்ப": 3716,
      "ாகக்": 3717,
      "பாத்த": 3718,
      "்ச்": 3719,
      "ணியில": 3720,
      "ஸ்டர": 3721,
      "ாஷ": 3722,
      "ேன": 3723,
      "யூர": 3724,
      "கொல்": 3725,
      "ரிக்": 3726,
      "ட்வ": 3727,
      "யப்ப": 3728,
      "லைய": 3729,
      "ரிப": 3730,
      "மிக்": 3731,
      "்ரோ": 3732,
      "அணு": 3733,
      "ுப்பு": 3734,
      "ெயர": 3735,
      "ாட்ச": 3736,
      "ர்ல": 3737,
      "ண்டர்": 3738,
      "ிரவ": 3739,
      "இப்": 3740,
      "பந்த": 3741,
      "வொரு": 3742,
      "ப்போ": 3743,
      "ஸ்திர": 3744,
      "சும": 3745,
      "ணு": 3746,
      "மரா": 3747,
      "ாத்": 3748,
      "ெய்த": 3749,
      "யிலா": 3750,
      "ாண்": 3751,
      "ப்பதி": 3752,
      "ரோத": 3753,
      "கணவ": 3754,
      "தியம்": 3755,
      "வகு": 3756,
      "ாறு": 3757,
      "லைகள": 3758,
      "பவர": 3759,
      "வண்ண": 3760,
      "##il": 3761,
      "விழு": 3762,
      "பழனி": 3763,
      "ட்டல": 3764,
      "பான்": 3765,
      "ற்பு": 3766,
      "ிந்தி": 3767,
      "வர்த": 3768,
      "ண்டே": 3769,
      "ணர்வு": 3770,
      "னே": 3771,
      "ம்மா": 3772,
      "ட்டின": 3773,
      "ானி": 3774,
      "சாம": 3775,
      "ராஜன": 3776,
      "ளவில": 3777,
      "ீன்": 3778,
      "ைத": 3779,
      "டலா": 3780,
      "சம்": 3781,
      "க்கிர": 3782,
      "ார்ட": 3783,
      "றிவ": 3784,
      "ுனி": 3785,
      "ச்சம": 3786,
      "திலி": 3787,
      "தாம": 3788,
      "சிப": 3789,
      "காரிய": 3790,
      "கண்": 3791,
      "லக்க": 3792,
      "ாலும": 3793,
      "்ரீ": 3794,
      "போதே": 3795,
      "ட்டோர": 3796,
      "மூட": 3797,
      "தலைய": 3798,
      "டியா": 3799,
      "ாற": 3800,
      "ீம": 3801,
      "ர்ஷ": 3802,
      "ரின்": 3803,
      "ப்படவ": 3804,
      "ாவில": 3805,
      "பரவி": 3806,
      "யம்": 3807,
      "ெரி": 3808,
      "ேரு": 3809,
      "ொழ": 3810,
      "சைக்க": 3811,
      "ரையா": 3812,
      "ிரியா": 3813,
      "ுபட": 3814,
      "கைகள": 3815,
      "70": 3816,
      "யன": 3817,
      "ுங்கு": 3818,
      "உற்ச": 3819,
      "தாங்க": 3820,
      "ணும்": 3821,
      "மரி": 3822,
      "நிம": 3823,
      "மதம": 3824,
      "co": 3825,
      "ேளை": 3826,
      "ொய்": 3827,
      "##at": 3828,
      "்திரி": 3829,
      "மய": 3830,
      "ிவின": 3831,
      "ேக்க": 3832,
      "பிரம": 3833,
      "நேற்ற": 3834,
      "றந்த": 3835,
      "ேவி": 3836,
      "##as": 3837,
      "்கி": 3838,
      "தரவு": 3839,
      "வனத்": 3840,
      "பன": 3841,
      "ஜன": 3842,
      "டாம": 3843,
      "ிற்ச": 3844,
      "ற்றம": 3845,
      "ன்னீ": 3846,
      "்கர்": 3847,
      "ஞ்சம": 3848,
      "கமி": 3849,
      "களால்": 3850,
      "ன்னை": 3851,
      "கம": 3852,
      "ூங்க": 3853,
      "ுதா": 3854,
      "##re": 3855,
      "டமை": 3856,
      "ொலை": 3857,
      "ந்தன": 3858,
      "தேன": 3859,
      "வுக்க": 3860,
      "்நிலை": 3861,
      "ீய": 3862,
      "பேசின": 3863,
      "்பிர": 3864,
      "க்ஸ்": 3865,
      "இதுவ": 3866,
      "மம்": 3867,
      "ாய்வ": 3868,
      "ஆர்வ": 3869,
      "மத்த": 3870,
      "மதி": 3871,
      "மண்": 3872,
      "ளு": 3873,
      "டுத": 3874,
      "தையட": 3875,
      "ெர": 3876,
      "ெச": 3877,
      "ஒட": 3878,
      "னவ": 3879,
      "ம்தா": 3880,
      "ிச்": 3881,
      "ுவர": 3882,
      "நடிகர": 3883,
      "தண்ட": 3884,
      "தொற்ற": 3885,
      "##en": 3886,
      "ருவி": 3887,
      "டாக்": 3888,
      "ெள": 3889,
      "துரை": 3890,
      "ாயு": 3891,
      "கிழமை": 3892,
      "ஏழு": 3893,
      "ழுக": 3894,
      "ோக்க": 3895,
      "ிசி": 3896,
      "ந்தர்": 3897,
      "to": 3898,
      "ிரே": 3899,
      "ெப்ப": 3900,
      "ியார": 3901,
      "ளிப": 3902,
      "கரன்": 3903,
      "சுவா": 3904,
      "tion": 3905,
      "ிது": 3906,
      "குப": 3907,
      "பாவ": 3908,
      "காத": 3909,
      "ியர": 3910,
      "சாம்": 3911,
      "ாடல": 3912,
      "நாயக": 3913,
      "ாரில்": 3914,
      "ேலி": 3915,
      "ரிவா": 3916,
      "னக": 3917,
      "ோன்": 3918,
      "ல்விய": 3919,
      "ய்க்க": 3920,
      "ாஜி": 3921,
      "மிகப்": 3922,
      "லூ": 3923,
      "ிராக": 3924,
      "நிலம்": 3925,
      "தைச்": 3926,
      "பைக்": 3927,
      "டலாம்": 3928,
      "தலா": 3929,
      "ந்ந": 3930,
      "ன்பத": 3931,
      "ிந்து": 3932,
      "ேடி": 3933,
      "வாய்": 3934,
      "ஆகி": 3935,
      "லிக": 3936,
      "கடத்த": 3937,
      "பலி": 3938,
      "மாகி": 3939,
      "ன்னால": 3940,
      "ரான": 3941,
      "ூறு": 3942,
      "ேப": 3943,
      "்டர்": 3944,
      "ெரு": 3945,
      "ார்ப": 3946,
      "ல்லைய": 3947,
      "எத": 3948,
      "டக்கி": 3949,
      "ரைய": 3950,
      "ட்டல்": 3951,
      "னும்": 3952,
      "காயம": 3953,
      "27": 3954,
      "ேட்ப": 3955,
      "ாடா": 3956,
      "ென்ன": 3957,
      "க்கே": 3958,
      "ிஸ்ட": 3959,
      "ர்டு": 3960,
      "ுபா": 3961,
      "்பல்": 3962,
      "வெறு": 3963,
      "னிம": 3964,
      "ழ்க": 3965,
      "வரது": 3966,
      "தினம்": 3967,
      "டலில்": 3968,
      "the": 3969,
      "காஷ்": 3970,
      "ழக": 3971,
      "கும்ப": 3972,
      "்தத்த": 3973,
      "மந்த": 3974,
      "லில்": 3975,
      "ட்டம்": 3976,
      "திரைய": 3977,
      "ல்கிற": 3978,
      "டம": 3979,
      "லர்": 3980,
      "வள்": 3981,
      "்ஹ": 3982,
      "பொன்": 3983,
      "னிக்க": 3984,
      "ஆண": 3985,
      "ம்மி": 3986,
      "மாகும": 3987,
      "28": 3988,
      "னாக": 3989,
      "முய": 3990,
      "எண்": 3991,
      "ாபு": 3992,
      "பலன": 3993,
      "இத்த": 3994,
      "றுமை": 3995,
      "கத்தி": 3996,
      "சண்": 3997,
      "வுன": 3998,
      "வியல": 3999,
      "கற்": 4000,
      "##ra": 4001,
      "க்கர்": 4002,
      "ர்ஸ்": 4003,
      "ரையி": 4004,
      "ேந்த": 4005,
      "போவத": 4006,
      "துல": 4007,
      "ுமெ": 4008,
      "ங்களா": 4009,
      "புக": 4010,
      "ப்பணி": 4011,
      "்றத்த": 4012,
      "விடுத": 4013,
      "மணிய": 4014,
      "ாலைகள": 4015,
      "ஆலோச": 4016,
      "ூற": 4017,
      "்னா": 4018,
      "ல்லிய": 4019,
      "டியின": 4020,
      "தரும": 4021,
      "்திரம": 4022,
      "பரா": 4023,
      "திர்": 4024,
      "தார்": 4025,
      "200": 4026,
      "மாரி": 4027,
      "வினர": 4028,
      "al": 4029,
      "ீச்ச": 4030,
      "ப்பெ": 4031,
      "டுங்க": 4032,
      "ர்ஸ": 4033,
      "்கோ": 4034,
      "ன்றத்": 4035,
      "்ணன்": 4036,
      "வாதம்": 4037,
      "26": 4038,
      "மன்ற": 4039,
      "ேர்": 4040,
      "செய்": 4041,
      "வரவே": 4042,
      "ண்டிய": 4043,
      "ாடக": 4044,
      "ெடி": 4045,
      "ாலின": 4046,
      "ழித்த": 4047,
      "சரவ": 4048,
      "கட்டம": 4049,
      "ிலைகள": 4050,
      "80": 4051,
      "ழ்": 4052,
      "ருவர": 4053,
      "விந்த": 4054,
      "முருக": 4055,
      "களைத்": 4056,
      "நேரம்": 4057,
      "தற": 4058,
      "ிண": 4059,
      "ுள்ளா": 4060,
      "வால்": 4061,
      "ீனி": 4062,
      "ிறகு": 4063,
      "ன்னர": 4064,
      "ch": 4065,
      "##ri": 4066,
      "்டோ": 4067,
      "்பூர": 4068,
      "ஸ்ஸ": 4069,
      "முற": 4070,
      "ியமாக": 4071,
      "டான": 4072,
      "ுறைகள": 4073,
      "na": 4074,
      "கவே": 4075,
      "ிஎஸ்": 4076,
      "ெண்ண": 4077,
      "்கார": 4078,
      "்பாளர": 4079,
      "்பிடி": 4080,
      "ார்க்": 4081,
      "ிப": 4082,
      "க்கார": 4083,
      "ிளம்ப": 4084,
      "ாப": 4085,
      "ிஸ்த": 4086,
      "ெந்த": 4087,
      "ேக": 4088,
      "ாதவ": 4089,
      "ரோட": 4090,
      "ஜீ": 4091,
      "ெவ்வ": 4092,
      "ானத்த": 4093,
      "வீட": 4094,
      "ாலம": 4095,
      "ம்பு": 4096,
      "டையும": 4097,
      "அப": 4098,
      "ணன்": 4099,
      "னச": 4100,
      "னைய": 4101,
      "க்கெ": 4102,
      "##di": 4103,
      "ில்லா": 4104,
      "ின்றத": 4105,
      "பதற": 4106,
      "ஸ்வரர": 4107,
      "வதா": 4108,
      "திகா": 4109,
      "டுகள": 4110,
      "மாக்க": 4111,
      "ிடைய": 4112,
      "ோயி": 4113,
      "லுள்ள": 4114,
      "35": 4115,
      "ழம": 4116,
      "ாங்": 4117,
      "ிரை": 4118,
      "ிழந்த": 4119,
      "ஐந்த": 4120,
      "சுக": 4121,
      "டது": 4122,
      "லக்": 4123,
      "காக்க": 4124,
      "பரம": 4125,
      "டாவ": 4126,
      "ரித்": 4127,
      "நோய்": 4128,
      "ஏத": 4129,
      "ந்": 4130,
      "லோக": 4131,
      "மிர": 4132,
      "##ay": 4133,
      "றுக்க": 4134,
      "யந்த": 4135,
      "ரிப்ப": 4136,
      "கத": 4137,
      "ணாம": 4138,
      "ெண்": 4139,
      "##ro": 4140,
      "ாவல": 4141,
      "ழுத": 4142,
      "ழுதிய": 4143,
      "லிப": 4144,
      "கூடும": 4145,
      "டெல": 4146,
      "ியாகு": 4147,
      "ஸி": 4148,
      "ாக்ட": 4149,
      "்பவ": 4150,
      "ிதாக": 4151,
      "ra": 4152,
      "்புவ": 4153,
      "te": 4154,
      "க்கிட": 4155,
      "ச்சை": 4156,
      "டைக": 4157,
      "en": 4158,
      "ஆசி": 4159,
      "பவ": 4160,
      "பல்": 4161,
      "ருவத": 4162,
      "ரிட": 4163,
      "ெய்ய": 4164,
      "ண்ணை": 4165,
      "தையும": 4166,
      "ேத்": 4167,
      "ேசி": 4168,
      "காரம்": 4169,
      "ஆனா": 4170,
      "்ந்தி": 4171,
      "த்தம": 4172,
      "க்குழ": 4173,
      "தரக": 4174,
      "ிளை": 4175,
      "்லா": 4176,
      "புறம்": 4177,
      "னில்": 4178,
      "மன்": 4179,
      "ிந": 4180,
      "டுவத": 4181,
      "பாத": 4182,
      "்போ": 4183,
      "ாரத்": 4184,
      "மின": 4185,
      "ாவா": 4186,
      "லார": 4187,
      "க்கோ": 4188,
      "த்தன": 4189,
      "மாச": 4190,
      "வென": 4191,
      "ிரப்ப": 4192,
      "ிப்பத": 4193,
      "and": 4194,
      "டாமல்": 4195,
      "தற்": 4196,
      "லக்கு": 4197,
      "ோஸ": 4198,
      "யக": 4199,
      "ிகார": 4200,
      "பாலி": 4201,
      "ண்டன": 4202,
      "75": 4203,
      "ையை": 4204,
      "ஷ்டி": 4205,
      "கெட்ட": 4206,
      "ுளை": 4207,
      "##ve": 4208,
      "ராட": 4209,
      "ழுவ": 4210,
      "்கை": 4211,
      "சுப்": 4212,
      "ஜின": 4213,
      "ாசி": 4214,
      "ப்பந": 4215,
      "வணங்க": 4216,
      "மட": 4217,
      "ஷம": 4218,
      "மாவ": 4219,
      "ஏதோ": 4220,
      "லத்": 4221,
      "ுடு": 4222,
      "மலைய": 4223,
      "ிவே": 4224,
      "வசம": 4225,
      "ராட்": 4226,
      "வுர": 4227,
      "நப": 4228,
      "டிரா": 4229,
      "பழங்க": 4230,
      "ன்சி": 4231,
      "வையில": 4232,
      "##ce": 4233,
      "ையாக": 4234,
      "லித்": 4235,
      "லுக": 4236,
      "ையில": 4237,
      "சாரி": 4238,
      "விடுக": 4239,
      "ள்கிற": 4240,
      "ிகர": 4241,
      "திப": 4242,
      "காச": 4243,
      "of": 4244,
      "ீன": 4245,
      "ைப": 4246,
      "க்கில": 4247,
      "பூர்": 4248,
      "ரைச": 4249,
      "்டிக்": 4250,
      "சியா": 4251,
      "்ட்ட": 4252,
      "்றை": 4253,
      "ிறை": 4254,
      "முகவ": 4255,
      "்டை": 4256,
      "டியோ": 4257,
      "நெல்": 4258,
      "ஏம": 4259,
      "ரணி": 4260,
      "ப்பவர": 4261,
      "கரா": 4262,
      "னீ": 4263,
      "டிகள": 4264,
      "ாமர": 4265,
      "தேர்": 4266,
      "ொள": 4267,
      "்னி": 4268,
      "்பும்": 4269,
      "்னர்": 4270,
      "sh": 4271,
      "சப்": 4272,
      "##le": 4273,
      "காலம": 4274,
      "ுவோம்": 4275,
      "சூட": 4276,
      "னிட": 4277,
      "லர்கள": 4278,
      "31": 4279,
      "எது": 4280,
      "ரஹ": 4281,
      "ளாவ": 4282,
      "ிவில்": 4283,
      "ுண": 4284,
      "கிவிட": 4285,
      "டையை": 4286,
      "டூ": 4287,
      "்வத": 4288,
      "போவ": 4289,
      "வரைய": 4290,
      "ன்னார": 4291,
      "நேர்": 4292,
      "நிறுவ": 4293,
      "ேண்டி": 4294,
      "உலா": 4295,
      "கோய": 4296,
      "ன்னதா": 4297,
      "றைவ": 4298,
      "மூலம்": 4299,
      "னது": 4300,
      "லிட": 4301,
      "500": 4302,
      "ூம": 4303,
      "ொள்": 4304,
      "்து": 4305,
      "ுமண": 4306,
      "வரவேற": 4307,
      "ரர்": 4308,
      "ுது": 4309,
      "த்தட": 4310,
      "90": 4311,
      "பட்": 4312,
      "னிக்": 4313,
      "ுழு": 4314,
      "பாப": 4315,
      "்டாக": 4316,
      "ிலக்க": 4317,
      "ஸ்டி": 4318,
      "னல்": 4319,
      "ாக்கம": 4320,
      "ாரண": 4321,
      "45": 4322,
      "சான": 4323,
      "டர்கள": 4324,
      "ரொ": 4325,
      "ிம்ப": 4326,
      "ோவத": 4327,
      "க்கட": 4328,
      "நாளி": 4329,
      "ீட்டி": 4330,
      "கோள": 4331,
      "பிரே": 4332,
      "யாள": 4333,
      "லைத்த": 4334,
      "தானம": 4335,
      "அணிய": 4336,
      "அட்": 4337,
      "கவு": 4338,
      "ெரும": 4339,
      "ார்வ": 4340,
      "லைப்": 4341,
      "மங்கள": 4342,
      "பம": 4343,
      "ேசிய": 4344,
      "ச்சுவ": 4345,
      "சமா": 4346,
      "பீட": 4347,
      "ளவர": 4348,
      "ீஸ": 4349,
      "ீனா": 4350,
      "பான": 4351,
      "நித": 4352,
      "ச்சின": 4353,
      "29": 4354,
      "னார": 4355,
      "ெர்": 4356,
      "ண்டல": 4357,
      "ய்வு": 4358,
      "ாசம": 4359,
      "ுளி": 4360,
      "திவ": 4361,
      "ழிப": 4362,
      "டல்": 4363,
      "ன்கு": 4364,
      "காத்த": 4365,
      "்பின": 4366,
      "க்குட": 4367,
      "ழிவு": 4368,
      "கரன": 4369,
      "னாத": 4370,
      "ழிபாட": 4371,
      "சாக": 4372,
      "ரவில்": 4373,
      "பேரு": 4374,
      "##ic": 4375,
      "ma": 4376,
      "வடக": 4377,
      "ிணை": 4378,
      "##de": 4379,
      "ருட": 4380,
      "விகள": 4381,
      "ொள்வ": 4382,
      "உங்க": 4383,
      "ூட்": 4384,
      "ொந்த": 4385,
      "##ுடன": 4386,
      "##ka": 4387,
      "யேற": 4388,
      "பழக": 4389,
      "வாட்": 4390,
      "ற்றா": 4391,
      "ுன்பு": 4392,
      "படிய": 4393,
      "்று": 4394,
      "ரும்": 4395,
      "ண்ணி": 4396,
      "ஸ்தி": 4397,
      "ொன்ன": 4398,
      "பான்ம": 4399,
      "்றுப்": 4400,
      "ரவு": 4401,
      "க்கற": 4402,
      "ியவர": 4403,
      "கோட்ட": 4404,
      "ஈடுப": 4405,
      "ீம்": 4406,
      "ீஸ்": 4407,
      "ரூப": 4408,
      "ெல்வம": 4409,
      "லது": 4410,
      "பூச": 4411,
      "on": 4412,
      "ேல்": 4413,
      "ட்டுவ": 4414,
      "வைகள": 4415,
      "பஞ்சா": 4416,
      "அமல": 4417,
      "ேவ": 4418,
      "##it": 4419,
      "சிபி": 4420,
      "ன்றை": 4421,
      "டுகிற": 4422,
      "லீச": 4423,
      "ஓவ": 4424,
      "யமான": 4425,
      "கூடி": 4426,
      "ணங்கள": 4427,
      "னப்ப": 4428,
      "வுத": 4429,
      "ீதம": 4430,
      "சைய": 4431,
      "பியா": 4432,
      "ழங்க": 4433,
      "்பாள": 4434,
      "சில்": 4435,
      "ிடா": 4436,
      "கிண": 4437,
      "சுக்க": 4438,
      "ல்லு": 4439,
      "ிருத": 4440,
      "நாடக": 4441,
      "னிடம்": 4442,
      "எச்": 4443,
      "த்தார": 4444,
      "விடம": 4445,
      "ing": 4446,
      "##st": 4447,
      "##்ப்": 4448,
      "மாதம": 4449,
      "ிறு": 4450,
      "new": 4451,
      "திபதி": 4452,
      "அர": 4453,
      "ளப்ப": 4454,
      "ிகு": 4455,
      "ழுக்க": 4456,
      "ாயி": 4457,
      "டியில": 4458,
      "ல்லை": 4459,
      "ூழல்": 4460,
      "யங்கள": 4461,
      "வத்": 4462,
      "ீட": 4463,
      "ுல்": 4464,
      "நிப": 4465,
      "ணா": 4466,
      "டியாக": 4467,
      "300": 4468,
      "்றின்": 4469,
      "கல்வ": 4470,
      "ேண்டு": 4471,
      "##ss": 4472,
      "ாலு": 4473,
      "de": 4474,
      "ஹே": 4475,
      "குவா": 4476,
      "சிம": 4477,
      "லாத": 4478,
      "ஸ்லா": 4479,
      "்மா": 4480,
      "பில்": 4481,
      "சின்": 4482,
      "ன்னீர": 4483,
      "்ளே": 4484,
      "do": 4485,
      "nt": 4486,
      "லங்கள": 4487,
      "ிரதம": 4488,
      "ிவாக": 4489,
      "ாச்ச": 4490,
      "வரத": 4491,
      "ஒன்றி": 4492,
      "ியாகி": 4493,
      "ரையில": 4494,
      "ாட்டி": 4495,
      "வேட": 4496,
      "்கறி": 4497,
      "ாதக": 4498,
      "இடைய": 4499,
      "ாக்டர": 4500,
      "36": 4501,
      "tan": 4502,
      "இள": 4503,
      "எழ": 4504,
      "லின": 4505,
      "க்கல": 4506,
      "##னால": 4507,
      "ன்வ": 4508,
      "ிட்டா": 4509,
      "ஒவ்வொ": 4510,
      "di": 4511,
      "ேண": 4512,
      "ைர": 4513,
      "பிள்": 4514,
      "பிசி": 4515,
      "ராமத": 4516,
      "அலி": 4517,
      "சய": 4518,
      "ுறி": 4519,
      "ோழ": 4520,
      "யோர": 4521,
      "ியின்": 4522,
      "காணி": 4523,
      "யாளர்": 4524,
      "தத்தை": 4525,
      "்டீ": 4526,
      "ஸ்ர": 4527,
      "வட்டம": 4528,
      "இளம": 4529,
      "மம": 4530,
      "ய்கள": 4531,
      "ள்கள": 4532,
      "ூரில்": 4533,
      "பின": 4534,
      "வந்தன": 4535,
      "ஸ்ல": 4536,
      "்ணு": 4537,
      "யம்மன": 4538,
      "பள்ள": 4539,
      "ோப": 4540,
      "ோத்": 4541,
      "்பப்": 4542,
      "சால": 4543,
      "தீர": 4544,
      "கிரா": 4545,
      "தாரம": 4546,
      "ஆணை": 4547,
      "ிலோ": 4548,
      "ங்கம": 4549,
      "ராக்": 4550,
      "்டுகள": 4551,
      "்மன்": 4552,
      "ஏக்": 4553,
      "ுட்ப": 4554,
      "களைச்": 4555,
      "ஏவ": 4556,
      "னால்": 4557,
      "ஸார்": 4558,
      "ென்ற": 4559,
      "சாட": 4560,
      "ுழுவ": 4561,
      "ுர்": 4562,
      "32": 4563,
      "ரமா": 4564,
      "உள்ளா": 4565,
      "மேலா": 4566,
      "ாவும்": 4567,
      "ொருள": 4568,
      "வுட": 4569,
      "விடம்": 4570,
      "போகிற": 4571,
      "அழி": 4572,
      "லைன": 4573,
      "ளர": 4574,
      "ேறி": 4575,
      "பேரி": 4576,
      "ையர": 4577,
      "விசா": 4578,
      "ுப்பை": 4579,
      "டுவார": 4580,
      "go": 4581,
      "நூ": 4582,
      "ன்களை": 4583,
      "ூட்டி": 4584,
      "ப்பொ": 4585,
      "பாஸ": 4586,
      "தைக்க": 4587,
      "ுமாற": 4588,
      "சாதன": 4589,
      "மல்": 4590,
      "டைகள்": 4591,
      "விலி": 4592,
      "se": 4593,
      "பவர்": 4594,
      "ய்வ": 4595,
      "்லி": 4596,
      "ன்னத": 4597,
      "தேசம": 4598,
      "டய": 4599,
      "ிதான": 4600,
      "குதிய": 4601,
      "ுடை": 4602,
      "டனை": 4603,
      "ரண்": 4604,
      "்ரே": 4605,
      "்ப்பத": 4606,
      "news": 4607,
      "##li": 4608,
      "ராப": 4609,
      "ரிதா": 4610,
      "ையம": 4611,
      "கையாள": 4612,
      "்ப்பா": 4613,
      "tor": 4614,
      "ஜய": 4615,
      "றந்து": 4616,
      "##ch": 4617,
      "காப்": 4618,
      "ொங்க": 4619,
      "மும": 4620,
      "ுகிறத": 4621,
      "லீசார": 4622,
      "கத்": 4623,
      "சரிய": 4624,
      "டமா": 4625,
      "ுஜ": 4626,
      "விப": 4627,
      "குகள": 4628,
      "வாட": 4629,
      "றிவு": 4630,
      "ுவதும": 4631,
      "பட்டா": 4632,
      "vika": 4633,
      "ed": 4634,
      "ங்கும": 4635,
      "ுறவ": 4636,
      "்னர": 4637,
      "வானி": 4638,
      "ுவன": 4639,
      "பதவ": 4640,
      "காவல": 4641,
      "48": 4642,
      "ிஷ்": 4643,
      "##bc": 4644,
      "பண்ட": 4645,
      "ுள்": 4646,
      "காவி": 4647,
      "க்ஷ": 4648,
      "ராய்": 4649,
      "மையான": 4650,
      "ுறைப்": 4651,
      "ரமாக": 4652,
      "ெக": 4653,
      "ருச": 4654,
      "ாகா": 4655,
      "தாண்ட": 4656,
      "அதிர்": 4657,
      "ணித்த": 4658,
      "்பிக்": 4659,
      "ாழ்வ": 4660,
      "சத்து": 4661,
      "படியே": 4662,
      "சதி": 4663,
      "அதன": 4664,
      "அலங்க": 4665,
      "வளர்": 4666,
      "ரசு": 4667,
      "எவ்வ": 4668,
      "ெனி": 4669,
      "தெர": 4670,
      "வீத": 4671,
      "பதவிய": 4672,
      "அந": 4673,
      "கர்கள": 4674,
      "லும": 4675,
      "ெற்ற": 4676,
      "ோற": 4677,
      "ியே": 4678,
      "ுபட்ட": 4679,
      "ni": 4680,
      "vs": 4681,
      "ழல": 4682,
      "த்தல்": 4683,
      "ர்வா": 4684,
      "புட": 4685,
      "்கே": 4686,
      "டிந்த": 4687,
      "அணை": 4688,
      "றா": 4689,
      "ீற": 4690,
      "ோச": 4691,
      "மாய": 4692,
      "ிரன்": 4693,
      "டிவ": 4694,
      "தீவ": 4695,
      "ம்பிய": 4696,
      "பட்டு": 4697,
      "le": 4698,
      "li": 4699,
      "su": 4700,
      "ரசா": 4701,
      "ிறன": 4702,
      "லைவர": 4703,
      "ிடுவ": 4704,
      "தனை": 4705,
      "ிபர": 4706,
      "ூத": 4707,
      "சென்": 4708,
      "காது": 4709,
      "ிர்த": 4710,
      "கேட்": 4711,
      "ரைக்க": 4712,
      "55": 4713,
      "கழ்": 4714,
      "டக்": 4715,
      "ிஎ": 4716,
      "ல்ம": 4717,
      "ாதம்": 4718,
      "்பட்ட": 4719,
      "சிப்ப": 4720,
      "ராஷ": 4721,
      "்கிர": 4722,
      "்செ": 4723,
      "யுடன": 4724,
      "அக": 4725,
      "ூரி": 4726,
      "ச்சர்": 4727,
      "நோய": 4728,
      "யணம": 4729,
      "கங்க": 4730,
      "வாய": 4731,
      "ிரச": 4732,
      "பத்தா": 4733,
      "்ப்பை": 4734,
      "ar": 4735,
      "திபர": 4736,
      "னைகள": 4737,
      "ாளராக": 4738,
      "ிப்பா": 4739,
      "ருகிற": 4740,
      "ப்பதை": 4741,
      "ாகம": 4742,
      "றைகள": 4743,
      "ஆழ": 4744,
      "மர்": 4745,
      "்மான": 4746,
      "காற்ற": 4747,
      "ல்வா": 4748,
      "ரேட": 4749,
      "்திரு": 4750,
      "லையை": 4751,
      "me": 4752,
      "or": 4753,
      "ற்சி": 4754,
      "ீரிய": 4755,
      "ோப்": 4756,
      "ருவர்": 4757,
      "ெயி": 4758,
      "பணத்த": 4759,
      "தையை": 4760,
      "இரவ": 4761,
      "ேப்": 4762,
      "்வின": 4763,
      "##ou": 4764,
      "குந்த": 4765,
      "பாத்": 4766,
      "்பந்த": 4767,
      "ினத்த": 4768,
      "கோவில": 4769,
      "ாவை": 4770,
      "பேசு": 4771,
      "கனவ": 4772,
      "ஆலோ": 4773,
      "எடை": 4774,
      "ப்தி": 4775,
      "வரா": 4776,
      "சேன": 4777,
      "ாதை": 4778,
      "யுள்": 4779,
      "முகம்": 4780,
      "்ஸ்ட": 4781,
      "ுமன": 4782,
      "சுட": 4783,
      "ுவின்": 4784,
      "37": 4785,
      "மடை": 4786,
      "தாள": 4787,
      "ன்றது": 4788,
      "ரியம": 4789,
      "ருகி": 4790,
      "33": 4791,
      "la": 4792,
      "ணம்": 4793,
      "பன்": 4794,
      "ூத்": 4795,
      "சொல்": 4796,
      "ற்கா": 4797,
      "150": 4798,
      "ீர்க": 4799,
      "அரை": 4800,
      "யப்பட": 4801,
      "ளஹ": 4802,
      "##ாத": 4803,
      "்களா": 4804,
      "்டெ": 4805,
      "ஏற்று": 4806,
      "உயி": 4807,
      "ட்சித": 4808,
      "ருவாக": 4809,
      "ேசத்த": 4810,
      "ந்நி": 4811,
      "ுரு": 4812,
      "காற": 4813,
      "கோட": 4814,
      "ையின": 4815,
      "ல்லவ": 4816,
      "ாளும": 4817,
      "்புக்": 4818,
      "ெட்ர": 4819,
      "ொழில": 4820,
      "bbc": 4821,
      "ண்டவ": 4822,
      "ையான": 4823,
      "னிப்": 4824,
      "்திக்": 4825,
      "நெரு": 4826,
      "po": 4827,
      "ுள": 4828,
      "ெட": 4829,
      "்மு": 4830,
      "சாய": 4831,
      "ழுவி": 4832,
      "வுகள": 4833,
      "உயிரி": 4834,
      "ஜு": 4835,
      "பஸ்": 4836,
      "வதை": 4837,
      "ாகத்": 4838,
      "பார்": 4839,
      "தலைம": 4840,
      "பாரா": 4841,
      "ைக்கா": 4842,
      "ணவ": 4843,
      "றாம": 4844,
      "ட்டாள": 4845,
      "கனி": 4846,
      "ரந": 4847,
      "லான": 4848,
      "ீரி": 4849,
      "றிக்க": 4850,
      "ிற்று": 4851,
      "mo": 4852,
      "ழர": 4853,
      "்வர": 4854,
      "ரிவு": 4855,
      "ின்னர": 4856,
      "is": 4857,
      "யீட": 4858,
      "வெல்": 4859,
      "ன்றே": 4860,
      "ஐடி": 4861,
      "ுதுக": 4862,
      "குப்": 4863,
      "பாக்க": 4864,
      "ாயம": 4865,
      "ரியம்": 4866,
      "முகம": 4867,
      "தியில": 4868,
      "ூட்டம": 4869,
      "அழு": 4870,
      "வங்கள": 4871,
      "ீண": 4872,
      "விக்": 4873,
      "ுடியு": 4874,
      "கோவ": 4875,
      "த்திவ": 4876,
      "ன்பு": 4877,
      "ுச்சி": 4878,
      "ியர்": 4879,
      "ர்சன": 4880,
      "யிரம்": 4881,
      "ஏறி": 4882,
      "றைய": 4883,
      "ைந்த": 4884,
      "ிசோ": 4885,
      "41": 4886,
      "தவு": 4887,
      "ுக்கா": 4888,
      "ுக்கம": 4889,
      "ுமன்": 4890,
      "கொழு": 4891,
      "அதேப": 4892,
      "மையாக": 4893,
      "for": 4894,
      "ஏழை": 4895,
      "ாக்கள": 4896,
      "ிமா": 4897,
      "ூடி": 4898,
      "குவ": 4899,
      "்ப்": 4900,
      "ண்டார": 4901,
      "ிடை": 4902,
      "சேவ": 4903,
      "இதர": 4904,
      "ரத்தை": 4905,
      "ன்கள்": 4906,
      "உக": 4907,
      "னத்த": 4908,
      "ழில": 4909,
      "ில்லி": 4910,
      "ம்ஸ": 4911,
      "வாற": 4912,
      "சின": 4913,
      "றைவு": 4914,
      "தயா": 4915,
      "கையா": 4916,
      "ெட்டு": 4917,
      "wh": 4918,
      "னத": 4919,
      "வற": 4920,
      "ைகள்": 4921,
      "க்காட": 4922,
      "கிப": 4923,
      "..": 4924,
      "அலை": 4925,
      "ஜம": 4926,
      "படு": 4927,
      "ிபு": 4928,
      "்மி": 4929,
      "களுடன": 4930,
      "லீஸ": 4931,
      "பவு": 4932,
      "நாங்க": 4933,
      "மருத": 4934,
      "ஸ்தா": 4935,
      "ீட்டை": 4936,
      "்வார": 4937,
      "ai": 4938,
      "சிர": 4939,
      "ுண்": 4940,
      "டுபட": 4941,
      "ியப்ப": 4942,
      "்பக": 4943,
      "அய": 4944,
      "ானத": 4945,
      "ாரத்த": 4946,
      "்ணம": 4947,
      "ஸ்லாம": 4948,
      "ng": 4949,
      "இங்க": 4950,
      "யவ": 4951,
      "ருஷ": 4952,
      "புன": 4953,
      "புத்த": 4954,
      "டிப": 4955,
      "மிழ": 4956,
      "கைகளை": 4957,
      "வகா": 4958,
      "தமான": 4959,
      "ிருக": 4960,
      "ேகம": 4961,
      "##ோம": 4962,
      "ுக்கோ": 4963,
      "பிச": 4964,
      "்காண": 4965,
      "ையின்": 4966,
      "றுகள": 4967,
      "ம்பவ": 4968,
      "லைந": 4969,
      "இஸ்ர": 4970,
      "ent": 4971,
      "ணப்ப": 4972,
      "ேடு": 4973,
      "ானை": 4974,
      "டத்த": 4975,
      "ய்ப்": 4976,
      "##la": 4977,
      "நாடு": 4978,
      "டியை": 4979,
      "ரணத்த": 4980,
      "ல்லிக": 4981,
      "ாவு": 4982,
      "ூன்": 4983,
      "துள்ள": 4984,
      "ுவே": 4985,
      "கின்ற": 4986,
      "லால": 4987,
      "ுத்தா": 4988,
      "மறுப": 4989,
      "விருத": 4990,
      "ீர்ம": 4991,
      "்பெண்": 4992,
      "அழுத": 4993,
      "ce": 4994,
      "எளி": 4995,
      "ஓம்": 4996,
      "ஷி": 4997,
      "்வி": 4998,
      "்த்": 4999
    }
  }
}