{
  "version": "1.0",
  "truncation": null,
  "padding": null,
  "added_tokens": [
    {
      "id": 0,
      "content": "[UNK]",
      "single_word": false,
      "lstrip": false,
      "rstrip": false,
      "normalized": false,
      "special": true
    },
    {
      "id": 1,
      "content": "[CLS]",
      "single_word": false,
      "lstrip": false,
      "rstrip": false,
      "normalized": false,
      "special": true
    },
    {
      "id": 2,
      "content": "[SEP]",
      "single_word": false,
      "lstrip": false,
      "rstrip": false,
      "normalized": false,
      "special": true
    },
    {
      "id": 3,
      "content": "[PAD]",
      "single_word": false,
      "lstrip": false,
      "rstrip": false,
      "normalized": false,
      "special": true
    },
    {
      "id": 4,
      "content": "[MASK]",
      "single_word": false,
      "lstrip": false,
      "rstrip": false,
      "normalized": false,
      "special": true
    }
  ],
  "normalizer": {
    "type": "Sequence",
    "normalizers": [
      {
        "type": "NFKC"
      },
      {
        "type": "Lowercase"
      }
    ]
  },
  "pre_tokenizer": {
    "type": "Whitespace"
  },
  "post_processor": null,
  "decoder": {
    "type": "WordPiece",
    "prefix": "##",
    "cleanup": true
  },
  "model": {
    "type": "WordPiece",
    "unk_token": "[UNK]",
    "continuing_subword_prefix": "##",
    "max_input_chars_per_word": 100,
    "vocab": {
      "[UNK]": 0,
      "[CLS]": 1,
      "[SEP]": 2,
      "[PAD]": 3,
      "[MASK]": 4,
      "!": 5,
      "\"": 6,
      "#": 7,
      "$": 8,
      "%": 9,
      "&": 10,
      "'": 11,
      "(": 12,
      ")": 13,
      "*": 14,
      "+": 15,
      ",": 16,
      "-": 17,
      ".": 18,
      "/": 19,
      "0": 20,
      "1": 21,
      "2": 22,
      "3": 23,
      "4": 24,
      "5": 25,
      "6": 26,
      "7": 27,
      "8": 28,
      "9": 29,
      ":": 30,
      ";": 31,
      "<": 32,
      "=": 33,
      ">": 34,
      "?": 35,
      "@": 36,
      "[": 37,
      "\\": 38,
      "]": 39,
      "^": 40,
      "_": 41,
      "`": 42,
      "a": 43,
      "b": 44,
      "c": 45,
      "d": 46,
      "e": 47,
      "f": 48,
      "g": 49,
      "h": 50,
      "i": 51,
      "j": 52,
      "k": 53,
      "l": 54,
      "m": 55,
      "n": 56,
      "o": 57,
      "p": 58,
      "q": 59,
      "r": 60,
      "s": 61,
      "t": 62,
      "u": 63,
      "v": 64,
      "w": 65,
      "x": 66,
      "y": 67,
      "z": 68,
      "{": 69,
      "}": 70,
      "~": 71,
      "£": 72,
      "§": 73,
      "­": 74,
      "®": 75,
      "°": 76,
      "·": 77,
      "×": 78,
      "á": 79,
      "å": 80,
      "é": 81,
      "í": 82,
      "ñ": 83,
      "ô": 84,
      "õ": 85,
      "ö": 86,
      "÷": 87,
      "ł": 88,
      "ō": 89,
      "š": 90,
      "ʻ": 91,
      "̈": 92,
      "إ": 93,
      "ا": 94,
      "د": 95,
      "ر": 96,
      "س": 97,
      "ل": 98,
      "م": 99,
      "ه": 100,
      "و": 101,
      "ي": 102,
      "ं": 103,
      "अ": 104,
      "आ": 105,
      "इ": 106,
      "ई": 107,
      "उ": 108,
      "ए": 109,
      "औ": 110,
      "क": 111,
      "ख": 112,
      "ग": 113,
      "घ": 114,
      "च": 115,
      "छ": 116,
      "ज": 117,
      "ट": 118,
      "ड": 119,
      "ण": 120,
      "त": 121,
      "थ": 122,
      "द": 123,
      "ध": 124,
      "न": 125,
      "प": 126,
      "फ": 127,
      "ब": 128,
      "भ": 129,
      "म": 130,
      "य": 131,
      "र": 132,
      "ल": 133,
      "व": 134,
      "श": 135,
      "ष": 136,
      "स": 137,
      "ह": 138,
      "़": 139,
      "ा": 140,
      "ि": 141,
      "ी": 142,
      "ु": 143,
      "ू": 144,
      "े": 145,
      "ै": 146,
      "ो": 147,
      "ौ": 148,
      "्": 149,
      "।": 150,
      "અ": 151,
      "આ": 152,
      "ઉ": 153,
      "ઓ": 154,
      "ક": 155,
      "ખ": 156,
      "જ": 157,
      "ટ": 158,
      "ણ": 159,
      "ત": 160,
      "થ": 161,
      "દ": 162,
      "ન": 163,
      "પ": 164,
      "ફ": 165,
      "ભ": 166,
      "મ": 167,
      "ય": 168,
      "ર": 169,
      "લ": 170,
      "વ": 171,
      "સ": 172,
      "ા": 173,
      "િ": 174,
      "ી": 175,
      "ે": 176,
      "ો": 177,
      "્": 178,
      "ஃ": 179,
      "அ": 180,
      "ஆ": 181,
      "இ": 182,
      "ஈ": 183,
      "உ": 184,
      "ஊ": 185,
      "எ": 186,
      "ஏ": 187,
      "ஐ": 188,
      "ஒ": 189,
      "ஓ": 190,
      "ஔ": 191,
      "க": 192,
      "ங": 193,
      "ச": 194,
      "ஜ": 195,
      "ஞ": 196,
      "ட": 197,
      "ண": 198,
      "த": 199,
      "ந": 200,
      "ன": 201,
      "ப": 202,
      "ம": 203,
      "ய": 204,
      "ர": 205,
      "ற": 206,
      "ல": 207,
      "ள": 208,
      "ழ": 209,
      "வ": 210,
      "ஶ": 211,
      "ஷ": 212,
      "ஸ": 213,
      "ஹ": 214,
      "ா": 215,
      "ி": 216,
      "ீ": 217,
      "ு": 218,
      "ூ": 219,
      "ெ": 220,
      "ே": 221,
      "ை": 222,
      "ொ": 223,
      "ோ": 224,
      "ௌ": 225,
      "்": 226,
      "௦": 227,
      "௧": 228,
      "௨": 229,
      "௩": 230,
      "௫": 231,
      "௬": 232,
      "௭": 233,
      "௹": 234,
      "‌": 235,
      "‍": 236,
      "‎": 237,
      "‛": 238,
      "‟": 239,
      "•": 240,
      "′": 241,
      "⁄": 242,
      "⁠": 243,
      "€": 244,
      "₹": 245,
      "⏩": 246,
      "●": 247,
      "◾": 248,
      "★": 249,
      "❔": 250,
      "⦁": 251,
      "": 252,
      "": 253,
      "": 254,
      "": 255,
      "": 256,
      "": 257,
      "": 258,
      "�": 259,
      "👇": 260,
      "💥": 261,
      "😂": 262,
      "😊": 263,
      "😐": 264,
      "😲": 265,
      "🛩": 266,
      "##ே": 267,
      "##ட": 268,
      "##்": 269,
      "##ஜ": 270,
      "##ா": 271,
      "##க": 272,
      "##வ": 273,
      "##ு": 274,
      "##ம": 275,
      "##த": 276,
      "##ல": 277,
      "##ி": 278,
      "##ெ": 279,
      "##ற": 280,
      "##ோ": 281,
      "##ர": 282,
      "##ள": 283,
      "##ய": 284,
      "##ப": 285,
      "##ன": 286,
      "##ை": 287,
      "##ழ": 288,
      "##ண": 289,
      "##ச": 290,
      "##ஷ": 291,
      "##ீ": 292,
      "##ூ": 293,
      "##ங": 294,
      "##a": 295,
      "##r": 296,
      "##e": 297,
      "##c": 298,
      "##n": 299,
      "##t": 300,
      "##u": 301,
      "##ொ": 302,
      "##ஸ": 303,
      "##ந": 304,
      "##h": 305,
      "##g": 306,
      "##i": 307,
      "##எ": 308,
      "##0": 309,
      "##7": 310,
      "##5": 311,
      "##4": 312,
      "##அ": 313,
      "##ஞ": 314,
      "##j": 315,
      "##l": 316,
      "##8": 317,
      "##b": 318,
      "##s": 319,
      "##உ": 320,
      "##d": 321,
      "##v": 322,
      "##ஃ": 323,
      "##1": 324,
      "##9": 325,
      "##!": 326,
      "##3": 327,
      "##6": 328,
      "##o": 329,
      "##2": 330,
      "##m": 331,
      "##y": 332,
      "##ஹ": 333,
      "##f": 334,
      "##प": 335,
      "##्": 336,
      "##ू": 337,
      "##w": 338,
      "##x": 339,
      "##p": 340,
      "##ஆ": 341,
      "##‌": 342,
      "##?": 343,
      "##இ": 344,
      "##ஒ": 345,
      "##ஐ": 346,
      "##ஓ": 347,
      "##k": 348,
      "##ि": 349,
      "##श": 350,
      "##व": 351,
      "##न": 352,
      "##ा": 353,
      "##थ": 354,
      "##ஏ": 355,
      "##.": 356,
      "##ௌ": 357,
      "##௭": 358,
      "##q": 359,
      "##z": 360,
      "##ஈ": 361,
      "##-": 362,
      "##य": 363,
      "##௦": 364,
      "##&": 365,
      "##,": 366,
      "##+": 367,
      "##\"": 368,
      "##/": 369,
      "##ह": 370,
      "##ल": 371,
      "##ी": 372,
      "##र": 373,
      "##'": 374,
      "##स": 375,
      "##क": 376,
      "##े": 377,
      "##ष": 378,
      "##ट": 379,
      "##@": 380,
      "##�": 381,
      "##;": 382,
      "##ं": 383,
      "##)": 384,
      "##é": 385,
      "##ل": 386,
      "##ا": 387,
      "##_": 388,
      "##ر": 389,
      "##س": 390,
      "##و": 391,
      "##ه": 392,
      "##ي": 393,
      "##م": 394,
      "##د": 395,
      "##ஊ": 396,
      "##`": 397,
      "##મ": 398,
      "##લ": 399,
      "##:": 400,
      "##‛": 401,
      "##😐": 402,
      "##ા": 403,
      "##ટ": 404,
      "##ે": 405,
      "##š": 406,
      "##‍": 407,
      "##त": 408,
      "##ब": 409,
      "##ो": 410,
      "##[": 411,
      "##ै": 412,
      "##ड": 413,
      "##\\": 414,
      "##િ": 415,
      "##વ": 416,
      "##સ": 417,
      "##ન": 418,
      "##ી": 419,
      "##*": 420,
      "##म": 421,
      "##%": 422,
      "##ु": 423,
      "##छ": 424,
      "##ஶ": 425,
      "##å": 426,
      "##द": 427,
      "##í": 428,
      "##ध": 429,
      "###": 430,
      "##⁠": 431,
      "##ौ": 432,
      "##>": 433,
      "##ર": 434,
      "##્": 435,
      "##ય": 436,
      "##ક": 437,
      "##ત": 438,
      "##ज": 439,
      "##ख": 440,
      "##ए": 441,
      "##௫": 442,
      "##ई": 443,
      "##ö": 444,
      "##ફ": 445,
      "##થ": 446,
      "##ण": 447,
      "##õ": 448,
      "##ʻ": 449,
      "##ો": 450,
      "##જ": 451,
      "##]": 452,
      "##$": 453,
      "##ñ": 454,
      "##़": 455,
      "##भ": 456,
      "##इ": 457,
      "##ग": 458,
      "##(": 459,
      "##=": 460,
      "##😂": 461,
      "##<": 462,
      "##च": 463,
      "##પ": 464,
      "##❔": 465,
      "##ઓ": 466,
      "##′": 467,
      "##ō": 468,
      "##£": 469,
      "##ł": 470,
      "##ô": 471,
      "##ણ": 472,
      "##­": 473,
      "##💥": 474,
      "##௩": 475,
      "##₹": 476,
      "##÷": 477,
      "##×": 478,
      "##்க": 479,
      "##்த": 480,
      "##ம்": 481,
      "##ல்": 482,
      "##ன்": 483,
      "##க்க": 484,
      "##்ட": 485,
      "##ர்": 486,
      "##த்த": 487,
      "##ப்": 488,
      "##ிய": 489,
      "##ும்": 490,
      "##ள்": 491,
      "##ந்த": 492,
      "##ப்ப": 493,
      "##து": 494,
      "##ில்": 495,
      "##ரு": 496,
      "##ட்ட": 497,
      "##ங்க": 498,
      "##ைய": 499,
      "##ாக": 500,
      "##ற்": 501,
      "##தி": 502,
      "##ிற": 503,
      "##க்கு": 504,
      "##ின்": 505,
      "##டு": 506,
      "##்ச": 507,
      "##று": 508,
      "##ள்ள": 509,
      "##ண்ட": 510,
      "##ிர": 511,
      "##ார்": 512,
      "##ார": 513,
      "##த்து": 514,
      "மு": 515,
      "##ில": 516,
      "செ": 517,
      "##ான": 518,
      "##டி": 519,
      "##ற்ற": 520,
      "##ர்க": 521,
      "##ிக": 522,
      "என்": 523,
      "##லை": 524,
      "வி": 525,
      "##வி": 526,
      "##ட்டு": 527,
      "##ந்து": 528,
      "##ரி": 529,
      "கு": 530,
      "##ிரு": 531,
      "##வு": 532,
      "இரு": 533,
      "##ால்": 534,
      "##ளை": 535,
      "செய": 536,
      "இந்த": 537,
      "##ச்ச": 538,
      "மா": 539,
      "##றி": 540,
      "போ": 541,
      "##க்": 542,
      "கா": 543,
      "##த்": 544,
      "அவ": 545,
      "கொ": 546,
      "##ப்பு": 547,
      "##னர்": 548,
      "##த்தில்": 549,
      "##ையில்": 550,
      "##னை": 551,
      "##ளு": 552,
      "##ஸ்": 553,
      "தொ": 554,
      "##ான்": 555,
      "பெ": 556,
      "##ல்ல": 557,
      "##மை": 558,
      "நட": 559,
      "பா": 560,
      "வே": 561,
      "##ற்க": 562,
      "கூ": 563,
      "##க்கும்": 564,
      "##ர்கள்": 565,
      "##ுக": 566,
      "##ாவ": 567,
      "##ாய": 568,
      "##ுவ": 569,
      "##மி": 570,
      "தே": 571,
      "##ப்பட்ட": 572,
      "##ன்ற": 573,
      "##ம்ப": 574,
      "என": 575,
      "நா": 576,
      "##ட்ச": 577,
      "வெ": 578,
      "##ிறது": 579,
      "உள்ள": 580,
      "##ற்ப": 581,
      "##டிய": 582,
      "##ிட": 583,
      "##ளில்": 584,
      "அதி": 585,
      "பிர": 586,
      "அத": 587,
      "##ின": 588,
      "##ிக்க": 589,
      "##ண்": 590,
      "##ாள": 591,
      "தெ": 592,
      "##ங்கள்": 593,
      "##கள்": 594,
      "##ன்ன": 595,
      "பே": 596,
      "##ண்டு": 597,
      "ஒரு": 598,
      "##ரை": 599,
      "##ாத": 600,
      "##ச்": 601,
      "##மாக": 602,
      "##றை": 603,
      "##கு": 604,
      "##்கள்": 605,
      "##ளுக்கு": 606,
      "கோ": 607,
      "##ால": 608,
      "இத": 609,
      "தொட": 610,
      "மே": 611,
      "##ாம": 612,
      "##டுத்த": 613,
      "##திய": 614,
      "##வே": 615,
      "அர": 616,
      "##த்தை": 617,
      "என்று": 618,
      "##தாக": 619,
      "##ட்": 620,
      "##வில்": 621,
      "##மான": 622,
      "மற்ற": 623,
      "##்ய": 624,
      "வழ": 625,
      "##வர்": 626,
      "##ணி": 627,
      "வரு": 628,
      "##ரிய": 629,
      "##ரும்": 630,
      "பொ": 631,
      "செய்த": 632,
      "##ிட்ட": 633,
      "##ற்று": 634,
      "நில": 635,
      "கட": 636,
      "##ழு": 637,
      "அரச": 638,
      "..": 639,
      "மற்றும்": 640,
      "என்ற": 641,
      "பு": 642,
      "##ள்ளது": 643,
      "##ப்பட": 644,
      "##்த்த": 645,
      "##ோது": 646,
      "##ரா": 647,
      "##வும்": 648,
      "##வை": 649,
      "##ண்டும்": 650,
      "முத": 651,
      "##சி": 652,
      "##ன்று": 653,
      "##னால்": 654,
      "##லா": 655,
      "வீ": 656,
      "அமை": 657,
      "##ையும்": 658,
      "நீ": 659,
      "##டன்": 660,
      "##டுக": 661,
      "மீ": 662,
      "அதிக": 663,
      "##ப்பட்டு": 664,
      "குறி": 665,
      "##ளி": 666,
      "வா": 667,
      "சு": 668,
      "##ின்ற": 669,
      "##ழ்": 670,
      "##மா": 671,
      "தொடர்": 672,
      "##டை": 673,
      "நி": 674,
      "##ளின்": 675,
      "கே": 676,
      "இது": 677,
      "செய்ய": 678,
      "##பு": 679,
      "##னி": 680,
      "##ிறார்": 681,
      "தலை": 682,
      "##ிற்க": 683,
      "##ிருக்க": 684,
      "பல": 685,
      "தெரி": 686,
      "சே": 687,
      "##ியில்": 688,
      "##னு": 689,
      "தமி": 690,
      "மூ": 691,
      "##ண்ண": 692,
      "##வத": 693,
      "பி": 694,
      "இருந்த": 695,
      "##ிகள்": 696,
      "##பி": 697,
      "வை": 698,
      "எதி": 699,
      "அந்த": 700,
      "சி": 701,
      "என்ப": 702,
      "இந்திய": 703,
      "வருக": 704,
      "##நில": 705,
      "##ையை": 706,
      "##டுத்து": 707,
      "##நா": 708,
      "திரு": 709,
      "தெரிவி": 710,
      "##சிய": 711,
      "இட": 712,
      "நே": 713,
      "##களை": 714,
      "அவர்": 715,
      "வேண்டும்": 716,
      "ஏற்ப": 717,
      "##ிருந்த": 718,
      "##ும்ப": 719,
      "##வா": 720,
      "##வர": 721,
      "பய": 722,
      "##ாய்": 723,
      "##ாரண": 724,
      "இருக்க": 725,
      "சிற": 726,
      "20": 727,
      "##மு": 728,
      "##ார்கள்": 729,
      "து": 730,
      "##ற்கு": 731,
      "பார": 732,
      "சொ": 733,
      "நிற": 734,
      "##ய்": 735,
      "முதல்": 736,
      "##ியு": 737,
      "##த்தின்": 738,
      "ரா": 739,
      "அறி": 740,
      "##த்திய": 741,
      "##முக": 742,
      "##லி": 743,
      "##ங்கு": 744,
      "##ிற்கு": 745,
      "தீ": 746,
      "வெள": 747,
      "மக்க": 748,
      "ஆனால்": 749,
      "##ட்சி": 750,
      "##டிக்க": 751,
      "ஆக": 752,
      "##தை": 753,
      "##பெ": 754,
      "வந்த": 755,
      "##ங்களில்": 756,
      "கொண்ட": 757,
      "##ட்டி": 758,
      "##ள்ளார்": 759,
      "##ங்கள": 760,
      "சம": 761,
      "##ியை": 762,
      "##ஞ்ச": 763,
      "இர": 764,
      "சில": 765,
      "தி": 766,
      "##ர்த": 767,
      "##னா": 768,
      "##ப்பா": 769,
      "##ூர்": 770,
      "##பா": 771,
      "வெளிய": 772,
      "##வில்லை": 773,
      "##கா": 774,
      "##ோத": 775,
      "##வ்": 776,
      "##ிக்": 777,
      "##மைய": 778,
      "##ங்களை": 779,
      "##வாக": 780,
      "##ணை": 781,
      "##ருக்கு": 782,
      "##க்கிய": 783,
      "##லில்": 784,
      "##ோம்": 785,
      "##லும்": 786,
      "பண": 787,
      "##லு": 788,
      "உய": 789,
      "##ரே": 790,
      "##ன்ப": 791,
      "தா": 792,
      "##லம்": 793,
      "நடை": 794,
      "வர": 795,
      "##த்தி": 796,
      "முன்ன": 797,
      "##வது": 798,
      "##ழக": 799,
      "அமைச்ச": 800,
      "##லக": 801,
      "##ற்றி": 802,
      "தன": 803,
      "##ிலும்": 804,
      "##ழை": 805,
      "##வர்க": 806,
      "##ரிக்க": 807,
      "##ாம்": 808,
      "##்க்க": 809,
      "சந்த": 810,
      "##ருத்து": 811,
      "##மே": 812,
      "##மன்ற": 813,
      "##டுக்க": 814,
      "வழங்க": 815,
      "##வர்கள்": 816,
      "கடந்த": 817,
      "பிற": 818,
      "இருந்து": 819,
      "##ேன்": 820,
      "அரசு": 821,
      "நிலையில்": 822,
      "##டைய": 823,
      "##ப்பி": 824,
      "முடி": 825,
      "##ப்பட்டது": 826,
      "##ாது": 827,
      "முடிய": 828,
      "##ஷ்": 829,
      "அம": 830,
      "சட்ட": 831,
      "##ர்ந்த": 832,
      "##விட்ட": 833,
      "##ரோ": 834,
      "கூற": 835,
      "##ளும்": 836,
      "தேர்த": 837,
      "##ிடம்": 838,
      "போல": 839,
      "அப்ப": 840,
      "##ராக": 841,
      "##ியல்": 842,
      "சா": 843,
      "##ப்படும்": 844,
      "பிரத": 845,
      "##ின்றனர்": 846,
      "##ியின்": 847,
      "நடைபெ": 848,
      "பட": 849,
      "##வட்ட": 850,
      "##லாம்": 851,
      "செய்து": 852,
      "##ாமல்": 853,
      "சீ": 854,
      "##ப்படுக": 855,
      "##கவ": 856,
      "##ட்டில்": 857,
      "அனு": 858,
      "பகு": 859,
      "##்தான்": 860,
      "விச": 861,
      "மாநில": 862,
      "மாவட்ட": 863,
      "##ாளர்": 864,
      "பதி": 865,
      "##த்தார்": 866,
      "##னம்": 867,
      "##ிரி": 868,
      "கை": 869,
      "##ாவில்": 870,
      "##ரம்": 871,
      "பின்": 872,
      "##ங்கி": 873,
      "##ர்த்த": 874,
      "##ரில்": 875,
      "கிட": 876,
      "மோ": 877,
      "மேலும்": 878,
      "உட": 879,
      "##த்திற்கு": 880,
      "இல": 881,
      "ஆண்ட": 882,
      "என்ன": 883,
      "திட்ட": 884,
      "மிக": 885,
      "பாஜ": 886,
      "கூட்ட": 887,
      "##ெய": 888,
      "உள்ளது": 889,
      "##ழி": 890,
      "##ன்னை": 891,
      "##மர்": 892,
      "தொடர்ப": 893,
      "##ந்தது": 894,
      "##ல்லை": 895,
      "##ல்க": 896,
      "##வுக்கு": 897,
      "##போ": 898,
      "பொரு": 899,
      "பொது": 900,
      "தமிழ்": 901,
      "மக": 902,
      "பூ": 903,
      "மாத": 904,
      "##ாலும்": 905,
      "கட்ட": 906,
      "காரண": 907,
      "...": 908,
      "##ேச": 909,
      "இப்ப": 910,
      "##சா": 911,
      "இருப்ப": 912,
      "##தா": 913,
      "##ியாக": 914,
      "##களில்": 915,
      "ஆண்டு": 916,
      "ரூ": 917,
      "##00": 918,
      "அது": 919,
      "கால": 920,
      "குழ": 921,
      "அனை": 922,
      "குறித்து": 923,
      "அள": 924,
      "பர": 925,
      "##தால்": 926,
      "##ிருந்து": 927,
      "##ட்க": 928,
      "##ொரு": 929,
      "பத": 930,
      "எழு": 931,
      "ஆகிய": 932,
      "பாஜக": 933,
      "தான்": 934,
      "##தான்": 935,
      "##ட்டை": 936,
      "##்ச்ச": 937,
      "திர": 938,
      "##ஸ்ட": 939,
      "அதிகார": 940,
      "இருக்கும்": 941,
      "##ருக": 942,
      "##க்கி": 943,
      "##ின்றன": 944,
      "நிக": 945,
      "##ாவின்": 946,
      "##க்கம்": 947,
      "##தும்": 948,
      "சூ": 949,
      "##மும்": 950,
      "தற்ப": 951,
      "நெ": 952,
      "விவ": 953,
      "முன்": 954,
      "##ியா": 955,
      "##றைய": 956,
      "மருத்து": 957,
      "##க்கான": 958,
      "தொடர்ந்து": 959,
      "கண": 960,
      "கல": 961,
      "##வீ": 962,
      "நிறுவ": 963,
      "வரும்": 964,
      "கட்ச": 965,
      "##டும்": 966,
      "கிர": 967,
      "##ர்ச்ச": 968,
      "என்பது": 969,
      "##ப்பை": 970,
      "##ந்திர": 971,
      "##ிறார்கள்": 972,
      "##வம்": 973,
      "நீதி": 974,
      "##ள்ளனர்": 975,
      "உறு": 976,
      "##ங்களுக்கு": 977,
      "##ங்": 978,
      "##த்திர": 979,
      "சம்ப": 980,
      "##ப்பட்டுள்ளது": 981,
      "##ளாக": 982,
      "தனது": 983,
      "குறிப்ப": 984,
      "##ொண்ட": 985,
      "##றுக": 986,
      "மாண": 987,
      "கொண்டு": 988,
      "இய": 989,
      "கி": 990,
      "##திக்க": 991,
      "ராஜ": 992,
      "நான்": 993,
      "பேச": 994,
      "மக்கள்": 995,
      "பக": 996,
      "ஆத": 997,
      "தமிழக": 998,
      "மணி": 999,
      "தேதி": 1000,
      "தர": 1001,
      "அவர்க": 1002,
      "நக": 1003,
      "சென்னை": 1004,
      "##கம்": 1005,
      "##ியது": 1006,
      "##ையே": 1007,
      "வக": 1008,
      "கிடை": 1009,
      "போட்ட": 1010,
      "பழ": 1011,
      "##ாவது": 1012,
      "##ட்ப": 1013,
      "வருகிறது": 1014,
      "கரு": 1015,
      "அடி": 1016,
      "##ப்படுகிறது": 1017,
      "டி": 1018,
      "முக்கிய": 1019,
      "போலீ": 1020,
      "சேர்ந்த": 1021,
      "என்றும்": 1022,
      "விர": 1023,
      "குறை": 1024,
      "##ினார்": 1025,
      "உத": 1026,
      "இல்லை": 1027,
      "##ணம்": 1028,
      "காங்க": 1029,
      "இன்று": 1030,
      "##ப்படுத்த": 1031,
      "அவர": 1032,
      "##தியில்": 1033,
      "##ையா": 1034,
      "##ம்ம": 1035,
      "##ெல்ல": 1036,
      "##ந்தை": 1037,
      "நோ": 1038,
      "கூறி": 1039,
      "விள": 1040,
      "##டம்": 1041,
      "காங்கிர": 1042,
      "உண": 1043,
      "பாது": 1044,
      "##ாரம்": 1045,
      "எதிர்": 1046,
      "##விர": 1047,
      "தற்போது": 1048,
      "##ொள்ள": 1049,
      "##வடிக்க": 1050,
      "##தல்": 1051,
      "நடவடிக்க": 1052,
      "##ேய": 1053,
      "##சு": 1054,
      "அமைச்சர்": 1055,
      "பாதுகா": 1056,
      "எந்த": 1057,
      "202": 1058,
      "அல": 1059,
      "##த்துக்கு": 1060,
      "தெரிவித்து": 1061,
      "உலக": 1062,
      "தோ": 1063,
      "புக": 1064,
      "##பதி": 1065,
      "ஸ்ட": 1066,
      "வரை": 1067,
      "மட்டு": 1068,
      "தமிழ்நா": 1069,
      "##போது": 1070,
      "##ீர்": 1071,
      "##ழ்ச்ச": 1072,
      "அறிவி": 1073,
      "காவ": 1074,
      "பிறகு": 1075,
      "தகவ": 1076,
      "##தாகவும்": 1077,
      "மீது": 1078,
      "ஆர": 1079,
      "##ர்க்க": 1080,
      "பெற்ற": 1081,
      "குற்ற": 1082,
      "##மார்": 1083,
      "சொல்ல": 1084,
      "நேர": 1085,
      "தொழ": 1086,
      "மேற்க": 1087,
      "##ோர்": 1088,
      "இலங்க": 1089,
      "##ஸ்த": 1090,
      "##ாரி": 1091,
      "மூலம்": 1092,
      "பெய": 1093,
      "##ோக": 1094,
      "##ிகளை": 1095,
      "செல்ல": 1096,
      "வந்து": 1097,
      "அவர்கள்": 1098,
      "உரு": 1099,
      "எப்ப": 1100,
      "##ன்க": 1101,
      "##ர்வு": 1102,
      "போன்ற": 1103,
      "\",": 1104,
      "##ரவ": 1105,
      "தெரிய": 1106,
      "ஆண்டுக": 1107,
      "என்க": 1108,
      "##ல்ப": 1109,
      "அல்ல": 1110,
      "##ிருக்கிறது": 1111,
      "மத்திய": 1112,
      "##யில்": 1113,
      "##வரை": 1114,
      "தலைவர்": 1115,
      "வய": 1116,
      "இல்ல": 1117,
      "நிர்": 1118,
      "##வ்வ": 1119,
      "ஆர்": 1120,
      "உத்த": 1121,
      "ஸ்": 1122,
      "சென்ற": 1123,
      "காங்கிரஸ்": 1124,
      "##ரிச": 1125,
      "##வரும்": 1126,
      "சமூ": 1127,
      "தூ": 1128,
      "##ந்": 1129,
      "##றும்": 1130,
      "நடவடிக்கை": 1131,
      "உள்ளிட்ட": 1132,
      "வில": 1133,
      "அதை": 1134,
      "கூட": 1135,
      "##னார்": 1136,
      "##ையின்": 1137,
      "##பர்": 1138,
      "வேலை": 1139,
      "மருத்துவ": 1140,
      "அதிமுக": 1141,
      "##முறை": 1142,
      "அண": 1143,
      "குட": 1144,
      "நிறுவன": 1145,
      "விசாரண": 1146,
      "கூறுக": 1147,
      "பார்த்த": 1148,
      "வேண்ட": 1149,
      "##கர்": 1150,
      "##க்காக": 1151,
      "##ோடு": 1152,
      "எம்": 1153,
      "அதே": 1154,
      "##ள்க": 1155,
      "போரா": 1156,
      "இந்தியா": 1157,
      "கவ": 1158,
      "போது": 1159,
      "##க்கூ": 1160,
      "##ிலிருந்து": 1161,
      "##ைக்கு": 1162,
      "##ஆம்": 1163,
      "##ங்கே": 1164,
      "மொ": 1165,
      "##ற்காக": 1166,
      "##ப்பில்": 1167,
      "##ரின்": 1168,
      "அணி": 1169,
      "வெளி": 1170,
      "ஆம்": 1171,
      "வாய்": 1172,
      "நடத்த": 1173,
      "##ரீ": 1174,
      "##்து": 1175,
      "##ாகி": 1176,
      "##தம்": 1177,
      "##ாளர்க": 1178,
      "##ஜ்": 1179,
      "19": 1180,
      "##ாளர்கள்": 1181,
      "பிரதமர்": 1182,
      "10": 1183,
      "தேர்தல்": 1184,
      "முய": 1185,
      "அமெ": 1186,
      "##கள": 1187,
      "இரண்டு": 1188,
      "சமூக": 1189,
      "அமெரிக்க": 1190,
      "##ப்பத": 1191,
      "##ல்வே": 1192,
      "ஒன்ற": 1193,
      "திமுக": 1194,
      "##விட": 1195,
      "கண்ட": 1196,
      "வள": 1197,
      "##க்கப்பட்ட": 1198,
      "##ணைய": 1199,
      "பெரும்": 1200,
      "கட்சி": 1201,
      "குடும்ப": 1202,
      "விழ": 1203,
      "##வில": 1204,
      "பேசிய": 1205,
      "##டா": 1206,
      "ஏற்படுத்த": 1207,
      "அரசியல்": 1208,
      "புதிய": 1209,
      "எடுத்து": 1210,
      "முதல": 1211,
      "இதனால்": 1212,
      "அவரது": 1213,
      "##ப்பது": 1214,
      "தொடங்க": 1215,
      "பெரிய": 1216,
      "திரும": 1217,
      "##ிருக்கிறார்": 1218,
      "##ென": 1219,
      "##டுப": 1220,
      "சந்தி": 1221,
      "வைத்து": 1222,
      "மாற்ற": 1223,
      "ஆய": 1224,
      "வழக்க": 1225,
      "##யில": 1226,
      "##ாதார": 1227,
      "தின": 1228,
      "பயன்ப": 1229,
      "தய": 1230,
      "##ாள்": 1231,
      "##ல்வ": 1232,
      "##ற்கான": 1233,
      "அழை": 1234,
      "##ார்த்த": 1235,
      "இதில்": 1236,
      "இருக்கிறது": 1237,
      "நிலை": 1238,
      "குழந்தை": 1239,
      "##ுக்கு": 1240,
      "செய்": 1241,
      "##றிய": 1242,
      "##த்தது": 1243,
      "##ேயே": 1244,
      "##க்கள்": 1245,
      "இஸ்": 1246,
      "சார்": 1247,
      "நேற்று": 1248,
      "நினை": 1249,
      "##ல்வேறு": 1250,
      "பல்வேறு": 1251,
      "சென்று": 1252,
      "உத்தர": 1253,
      "##ாவை": 1254,
      "##ர்ந்து": 1255,
      "##தான": 1256,
      "நீதிமன்ற": 1257,
      "##ிகி": 1258,
      "நம்ப": 1259,
      "பக்த": 1260,
      "கொள்ள": 1261,
      "##ச்சி": 1262,
      "எல்ல": 1263,
      "##ியுள்ளது": 1264,
      "பெண": 1265,
      "மீண்டும்": 1266,
      "எண்ண": 1267,
      "நிலைய": 1268,
      "ஆய்": 1269,
      "##ாங்க": 1270,
      "##ப்பட்டுள்ள": 1271,
      "வழக்கு": 1272,
      "பள்ள": 1273,
      "அப்போது": 1274,
      "கீ": 1275,
      "பேர்": 1276,
      "அதன்": 1277,
      "கலந்து": 1278,
      "வாழ": 1279,
      "201": 1280,
      "பார்க்க": 1281,
      "##ட்டும்": 1282,
      "மன": 1283,
      "முதல்வர்": 1284,
      "நடி": 1285,
      "எஸ்": 1286,
      "கட்டு": 1287,
      "##ஜி": 1288,
      "##விட்டு": 1289,
      "இணை": 1290,
      "லட்ச": 1291,
      "காண": 1292,
      "பகுதி": 1293,
      "இன்ன": 1294,
      "அளி": 1295,
      "இற": 1296,
      "பிரி": 1297,
      "தொடர்பாக": 1298,
      "ரஷ": 1299,
      "##எஸ்": 1300,
      "வழி": 1301,
      "நடந்த": 1302,
      "##டக": 1303,
      "##ெட்": 1304,
      "அங்கு": 1305,
      "##ழுவ": 1306,
      "பெரு": 1307,
      "பட்ட": 1308,
      "##ைகள்": 1309,
      "நடைபெற்ற": 1310,
      "##ந்தி": 1311,
      "##ரான": 1312,
      "தேசிய": 1313,
      "போராட்ட": 1314,
      "அதிகரி": 1315,
      "பொறு": 1316,
      "##நாய": 1317,
      "வீர": 1318,
      "தீர்": 1319,
      "முறை": 1320,
      "##டுகள்": 1321,
      "தங்க": 1322,
      "எடுக்க": 1323,
      "நிர்வாக": 1324,
      "##ளுடன்": 1325,
      "ரஷ்ய": 1326,
      "பாதுகாப்பு": 1327,
      "பால": 1328,
      "மட்டுமே": 1329,
      "##ையாக": 1330,
      "செயல": 1331,
      "வெற்றி": 1332,
      "ஈடுப": 1333,
      "இந்": 1334,
      "##வின்": 1335,
      "##த்துறை": 1336,
      "கேள்": 1337,
      "அடுத்த": 1338,
      "பொருள": 1339,
      "##ிட்டு": 1340,
      "அனைத்து": 1341,
      "##ிறேன்": 1342,
      "தெரிவித்தார்": 1343,
      "##ற்ச": 1344,
      "##தில்": 1345,
      "எட": 1346,
      "##வதாக": 1347,
      "நிகழ்ச்ச": 1348,
      "சிறப்பு": 1349,
      "வாக்கு": 1350,
      "பெற்று": 1351,
      "அல்லது": 1352,
      "அதில்": 1353,
      "சர்": 1354,
      "நடந்தது": 1355,
      "##ல்கள்": 1356,
      "இதை": 1357,
      "##ிருந்தார்": 1358,
      "##யம்": 1359,
      "##பர": 1360,
      "அனும": 1361,
      "திற": 1362,
      "##டியாக": 1363,
      "என்பதை": 1364,
      "##ளுக்கும்": 1365,
      "காரணமாக": 1366,
      "பயன்படுத்த": 1367,
      "நிய": 1368,
      "##ிறோம்": 1369,
      "அக": 1370,
      "##ளுமன்ற": 1371,
      "ஸ்டால": 1372,
      "விடு": 1373,
      "##ஷ்ட": 1374,
      "##ிருக்கும்": 1375,
      "பாதி": 1376,
      "மறு": 1377,
      "வகையில்": 1378,
      "##நிலையில்": 1379,
      "சுவ": 1380,
      "##களுக்கு": 1381,
      "##ஸ்க": 1382,
      "இருந்தது": 1383,
      "ம்": 1384,
      "##த்தம்": 1385,
      "செயல்ப": 1386,
      "எடப்பா": 1387,
      "##ியும்": 1388,
      "##ொண்டு": 1389,
      "##ட்டின்": 1390,
      "கைது": 1391,
      "என்றார்": 1392,
      "படி": 1393,
      "வைத்த": 1394,
      "கூறினார்": 1395,
      "இப்போது": 1396,
      "##ச்சு": 1397,
      "##ல்வி": 1398,
      "ரூப": 1399,
      "கருத்து": 1400,
      "நிறை": 1401,
      "##வெ": 1402,
      "பின்னர்": 1403,
      "##சை": 1404,
      "ஏற்பட்ட": 1405,
      "முடிவு": 1406,
      "சக": 1407,
      "வருகின்றனர்": 1408,
      "அருக": 1409,
      "##்கு": 1410,
      "நல்ல": 1411,
      "குழு": 1412,
      "##வான": 1413,
      "##டைந்த": 1414,
      "வெளியே": 1415,
      "##ர்களுக்கு": 1416,
      "##சிக": 1417,
      "##த்துடன்": 1418,
      "வல": 1419,
      "##ோச": 1420,
      "மது": 1421,
      "##ாகு": 1422,
      "##ளா": 1423,
      "ஆட்ச": 1424,
      "கிராம": 1425,
      "தனி": 1426,
      "``": 1427,
      "##ருக்கும்": 1428,
      "##மையான": 1429,
      "சிறு": 1430,
      "மிகவும்": 1431,
      "##ினர்": 1432,
      "சிவ": 1433,
      "தொகு": 1434,
      "விஷ": 1435,
      "##யா": 1436,
      "எடப்பாடி": 1437,
      "செலு": 1438,
      "##சாய": 1439,
      "முழு": 1440,
      "##லாக": 1441,
      "##ியர்": 1442,
      "துறை": 1443,
      "தாக்கு": 1444,
      "இலங்கை": 1445,
      "முக": 1446,
      "##ஸ்ட்": 1447,
      "அறிக்க": 1448,
      "##ம்பி": 1449,
      "டெல்ல": 1450,
      "வச": 1451,
      "##டியோ": 1452,
      "##தியாக": 1453,
      "தெரிவித்த": 1454,
      "##ையடுத்து": 1455,
      "##்ட்": 1456,
      "மாதம்": 1457,
      "##மது": 1458,
      "##லிய": 1459,
      "##வதற்கு": 1460,
      "##ணுவ": 1461,
      "விரு": 1462,
      "##ப்படு": 1463,
      "##பார": 1464,
      "##ற்றை": 1465,
      "அலுவ": 1466,
      "விமான": 1467,
      "##ருக்க": 1468,
      "நாடுக": 1469,
      "எப்படி": 1470,
      "##மையாக": 1471,
      "முடியும்": 1472,
      "காவல": 1473,
      "##னாதி": 1474,
      "##லுக்கு": 1475,
      "கொரோ": 1476,
      "குறித்த": 1477,
      "உருவா": 1478,
      "நாம்": 1479,
      "##ளவு": 1480,
      "அதற்கு": 1481,
      "ஆளு": 1482,
      "##நி": 1483,
      "##ச்சை": 1484,
      "##தே": 1485,
      "ஜனாதி": 1486,
      "முன்னாள்": 1487,
      "##ளிடம்": 1488,
      "##றையில்": 1489,
      "தவ": 1490,
      "செல்": 1491,
      "##ராஜ": 1492,
      "##படி": 1493,
      "செய்யப்பட்ட": 1494,
      "தேவ": 1495,
      "தமிழ்நாடு": 1496,
      "##ிலேயே": 1497,
      "பிடி": 1498,
      "##ையான": 1499,
      "கார": 1500,
      "##ப்பின": 1501,
      "ஆல": 1502,
      "என்கிறார்": 1503,
      "விசாரணை": 1504,
      "ஜெய": 1505,
      "வாய்ப்பு": 1506,
      "சோ": 1507,
      "பார்": 1508,
      "ராம": 1509,
      "##னித": 1510,
      "##ர்களை": 1511,
      "மருத்துவம": 1512,
      "##ளம்": 1513,
      "நாங்கள்": 1514,
      "சாத": 1515,
      "விவசாய": 1516,
      "பெண்": 1517,
      "பணி": 1518,
      "##விய": 1519,
      "இதற்கு": 1520,
      "வாங்க": 1521,
      "கோடி": 1522,
      "வார": 1523,
      "டெ": 1524,
      "பதிவு": 1525,
      "##ப்பாக": 1526,
      "தலைமை": 1527,
      "நான": 1528,
      "##சிர": 1529,
      "பற்றி": 1530,
      "பழனி": 1531,
      "##ிகளில்": 1532,
      "மின்": 1533,
      "பொருளாதார": 1534,
      "தொழில்": 1535,
      "சிக்க": 1536,
      "உற": 1537,
      "##ற்சி": 1538,
      "முடியாது": 1539,
      "இஸ்ரே": 1540,
      "சத": 1541,
      "அங்க": 1542,
      "விவக": 1543,
      "இந்நிலையில்": 1544,
      "கடை": 1545,
      "மர": 1546,
      "##ேக": 1547,
      "##ிலான": 1548,
      "##நர்": 1549,
      "கோவில": 1550,
      "12": 1551,
      "வாக": 1552,
      "உயர்": 1553,
      "##ிருப்ப": 1554,
      "தகவல்": 1555,
      "##ாமி": 1556,
      "விமர்": 1557,
      "பூஜ": 1558,
      "ஸ்டாலின்": 1559,
      "உரி": 1560,
      "முழுவ": 1561,
      "நடந்து": 1562,
      "விட": 1563,
      "எதிராக": 1564,
      "ஒன்று": 1565,
      "பாதிக்க": 1566,
      "தாக்க": 1567,
      "ஒருவர்": 1568,
      "வங்க": 1569,
      "##ற்றிய": 1570,
      "உணவு": 1571,
      "30": 1572,
      "##களின்": 1573,
      "அடிப்பட": 1574,
      "ஒவ்வ": 1575,
      "##ிருந்தது": 1576,
      "தேர்தலில்": 1577,
      "##சாமி": 1578,
      "தீவிர": 1579,
      "கொடுத்த": 1580,
      "ஸ்ரீ": 1581,
      "##கிறது": 1582,
      "##ண்ட்": 1583,
      "##ைப்பட": 1584,
      "அரு": 1585,
      "முன்பு": 1586,
      "##ாட்டு": 1587,
      "15": 1588,
      "எனவே": 1589,
      "##வர்களுக்கு": 1590,
      "கொரோனா": 1591,
      "##ிகளுக்கு": 1592,
      "##ிக்கை": 1593,
      "குறிப்பிட": 1594,
      "##தியை": 1595,
      "மணிக்கு": 1596,
      "பக்தர்கள்": 1597,
      "##ப்பெ": 1598,
      "தெரிவிக்க": 1599,
      "##..": 1600,
      "பயண": 1601,
      "மூல": 1602,
      "விஜ": 1603,
      "அவரை": 1604,
      "கேட்ட": 1605,
      "மதி": 1606,
      "மெ": 1607,
      "வீடியோ": 1608,
      "##ர்ம": 1609,
      "நாட்க": 1610,
      "அண்ண": 1611,
      "பகுதியில்": 1612,
      "உடன": 1613,
      "கன": 1614,
      "##ப்ட": 1615,
      "காலை": 1616,
      "##கை": 1617,
      "##பிஎஸ்": 1618,
      "சிகி": 1619,
      "##னின்": 1620,
      "##ன்கள்": 1621,
      "எதிர்க": 1622,
      "நிறு": 1623,
      "ஜன": 1624,
      "##பை": 1625,
      "##ங்களின்": 1626,
      "பிரச்": 1627,
      "ஆதர": 1628,
      "ஏற்க": 1629,
      "மூன்று": 1630,
      "##மையில்": 1631,
      "##னுக்கு": 1632,
      "சார்ப": 1633,
      "வெள்ள": 1634,
      "தன்": 1635,
      "##ுடன்": 1636,
      "ராணுவ": 1637,
      "##ியுள்ளார்": 1638,
      "##ீடு": 1639,
      "ஆய்வு": 1640,
      "நடத்தி": 1641,
      "##ில்லை": 1642,
      "##ர்களின்": 1643,
      "ஒரே": 1644,
      "##ர்ச்சி": 1645,
      "நிகழ்": 1646,
      "அவருக்கு": 1647,
      "##நீ": 1648,
      "ட்": 1649,
      "நிதி": 1650,
      "யா": 1651,
      "அதிகாரிகள்": 1652,
      "பாட": 1653,
      "##த்தால்": 1654,
      "ஜூ": 1655,
      "பரி": 1656,
      "##த்துள்ளது": 1657,
      "இரண்ட": 1658,
      "##ஸ்தான்": 1659,
      "கோவில்": 1660,
      "சங்க": 1661,
      "##னில்": 1662,
      "காவல்து": 1663,
      "தொழில": 1664,
      "##ார்க": 1665,
      "எனக்கு": 1666,
      "காரணம்": 1667,
      "##சார்": 1668,
      "##ாரா": 1669,
      "வேறு": 1670,
      "##த்திற்க": 1671,
      "11": 1672,
      "உள்ளன": 1673,
      "##மீ": 1674,
      "##க்கோ": 1675,
      "ராகு": 1676,
      "உண்": 1677,
      "##வன்": 1678,
      "மட்டும்": 1679,
      "ஒவ்வொரு": 1680,
      "ஆயிர": 1681,
      "##நிலை": 1682,
      "கேள்வி": 1683,
      "குறிப்பிட்ட": 1684,
      "சொன்ன": 1685,
      "உச்ச": 1686,
      "புது": 1687,
      "தடை": 1688,
      "கூறிய": 1689,
      "ஜெ": 1690,
      "வைக்க": 1691,
      "மோடி": 1692,
      "கடி": 1693,
      "##ியுள்ள": 1694,
      "வேண்டிய": 1695,
      "சுற்று": 1696,
      "ஜனாதிபதி": 1697,
      "##ந்த்": 1698,
      "இதன்": 1699,
      "யார": 1700,
      "##ளையும்": 1701,
      "இன்னும்": 1702,
      "மனை": 1703,
      "விளையா": 1704,
      "நடக்க": 1705,
      "##ர்த்து": 1706,
      "அபி": 1707,
      "செல": 1708,
      "கொடுக்க": 1709,
      "கடு": 1710,
      "##ப்போ": 1711,
      "கல்ல": 1712,
      "சுமார்": 1713,
      "##னும்": 1714,
      "ஆட்சி": 1715,
      "ஊழ": 1716,
      "ஆட்ட": 1717,
      "தமிழ": 1718,
      "இந்தப்": 1719,
      "##ரிடம்": 1720,
      "##வதை": 1721,
      "##த்தா": 1722,
      "இந்து": 1723,
      "கொள்க": 1724,
      "##த்தான்": 1725,
      "சூழ": 1726,
      "வயது": 1727,
      "##த்தையும்": 1728,
      "சரிய": 1729,
      "போட்டிய": 1730,
      "கர்": 1731,
      "முழுவதும்": 1732,
      "குடிய": 1733,
      "##ாட்ட": 1734,
      "போலீஸ": 1735,
      "விட்டு": 1736,
      "##ப்புகள்": 1737,
      "உடல்": 1738,
      "##ம்மன்": 1739,
      "துணை": 1740,
      "சம்பவம்": 1741,
      "##லைக்க": 1742,
      "கோயில": 1743,
      "பெற": 1744,
      "##விழ": 1745,
      "இப்படி": 1746,
      "நிர": 1747,
      "##ெல்லாம்": 1748,
      "##ட்கள்": 1749,
      "இடங்களில்": 1750,
      "தவிர": 1751,
      "சம்பவ": 1752,
      "நு": 1753,
      "ஏன்": 1754,
      "நேரத்தில்": 1755,
      "விழா": 1756,
      "நாடா": 1757,
      "##சார": 1758,
      "மனித": 1759,
      "உயிரி": 1760,
      "##திகள்": 1761,
      "டெல்லி": 1762,
      "தெரிவித்துள்ளார்": 1763,
      "000": 1764,
      "நாடாளுமன்ற": 1765,
      "மோச": 1766,
      "இங்கு": 1767,
      "##ீர": 1768,
      "ரூபாய்": 1769,
      "அலுவலக": 1770,
      "##டுப்ப": 1771,
      "குரு": 1772,
      "கொலை": 1773,
      "தொடர்பான": 1774,
      "இவர்": 1775,
      "ஜி": 1776,
      "செய்யும்": 1777,
      "விரும்ப": 1778,
      "தன்ன": 1779,
      "தேர்வு": 1780,
      "பேர": 1781,
      "##ண்டி": 1782,
      "உறுதி": 1783,
      "இழ": 1784,
      "உயிரிழ": 1785,
      "பதவி": 1786,
      "பங்கே": 1787,
      "பாகி": 1788,
      "லட்சம்": 1789,
      "##லின்": 1790,
      "நாள்": 1791,
      "நம்": 1792,
      "மத": 1793,
      "##ப்பிர": 1794,
      "கீழ்": 1795,
      "##ந்துள்ளது": 1796,
      "இளை": 1797,
      "தங்கள்": 1798,
      "##ருந்து": 1799,
      "கோயில்": 1800,
      "##ேஷ்": 1801,
      "##வராக": 1802,
      "தேவை": 1803,
      "ரயில்": 1804,
      "##பத்தில்": 1805,
      "##த்தக்க": 1806,
      "##்தி": 1807,
      "##த்தக": 1808,
      "இறு": 1809,
      "##ுகள்": 1810,
      "பார்த்து": 1811,
      "இடையே": 1812,
      "இளைஞ": 1813,
      "ஆணைய": 1814,
      "##மைச்ச": 1815,
      "வீட்டில்": 1816,
      "இதையடுத்து": 1817,
      "##வார்": 1818,
      "அரசாங்க": 1819,
      "##ம்பர்": 1820,
      "##ோதனை": 1821,
      "##விட்டது": 1822,
      "##ரிக்கை": 1823,
      "வாகன": 1824,
      "மேற்ப": 1825,
      "##ளுக்கான": 1826,
      "##ஸ்வர": 1827,
      "##ினி": 1828,
      "##லைய": 1829,
      "போக": 1830,
      "##ினால்": 1831,
      "##க்கெ": 1832,
      "##ட்டுக்கு": 1833,
      "மி": 1834,
      "##ளால்": 1835,
      "##ினும்": 1836,
      "கேட்டு": 1837,
      "கல்வி": 1838,
      "அடை": 1839,
      "வருகிறார்": 1840,
      "பெண்க": 1841,
      "கள": 1842,
      "மேற்கொள்ள": 1843,
      "##க்குறி": 1844,
      "கூறப்படுகிறது": 1845,
      "காந்தி": 1846,
      "##ாச": 1847,
      "மாவட்டம்": 1848,
      "##களும்": 1849,
      "பிரதேச": 1850,
      "##ும்போது": 1851,
      "##க்கொண்ட": 1852,
      "அளிக்க": 1853,
      "உறுப்பின": 1854,
      "##த்திலும்": 1855,
      "இன்": 1856,
      "##ட்டிய": 1857,
      "வட": 1858,
      "##்கா": 1859,
      "கூட்டணி": 1860,
      "விரை": 1861,
      "பெண்கள்": 1862,
      "ஆலோச": 1863,
      "##ோதும்": 1864,
      "இணைய": 1865,
      "##ேற்ற": 1866,
      "##பே": 1867,
      "ஆன": 1868,
      "சிகிச்சை": 1869,
      "கும்ப": 1870,
      "எதிர்க்க": 1871,
      "##றுத்த": 1872,
      "அம்": 1873,
      "மைய": 1874,
      "மேல்": 1875,
      "டிர": 1876,
      "##்டர்": 1877,
      "எல்": 1878,
      "பெரும்ப": 1879,
      "கண்டு": 1880,
      "##ிழ": 1881,
      "சர்வத": 1882,
      "##த்தனர்": 1883,
      "நீங்கள்": 1884,
      "சர்வதேச": 1885,
      "பயி": 1886,
      "விஷய": 1887,
      "ஓபிஎஸ்": 1888,
      "##ப்பின்": 1889,
      "வேட்ப": 1890,
      "பந்து": 1891,
      "##ரல்": 1892,
      "இந்தியாவில்": 1893,
      "வாழ்": 1894,
      "நூ": 1895,
      "வாழ்க்க": 1896,
      "##னையில்": 1897,
      "துவ": 1898,
      "அரசிய": 1899,
      "சார்பில்": 1900,
      "##ஷ்ண": 1901,
      "திருப்ப": 1902,
      "##செ": 1903,
      "##ியார்": 1904,
      "கட்சியின்": 1905,
      "பிரச்னை": 1906,
      "200": 1907,
      "##செய": 1908,
      "##நாட்டு": 1909,
      "உட்ப": 1910,
      "முறைய": 1911,
      "மட்டும": 1912,
      "பஞ்ச": 1913,
      "##தற்கு": 1914,
      "கெ": 1915,
      "##ஸ்தான": 1916,
      "##மையை": 1917,
      "செய்தி": 1918,
      "##ங்கும்": 1919,
      "புற": 1920,
      "வந்தது": 1921,
      "இரவு": 1922,
      "சொந்த": 1923,
      "சரி": 1924,
      "##an": 1925,
      "நடைபெற்றது": 1926,
      "18": 1927,
      "அதன்ப": 1928,
      "அளவில்": 1929,
      "கொடுத்து": 1930,
      "##ல்களை": 1931,
      "போலீசார்": 1932,
      "##ங்களும்": 1933,
      "##ானது": 1934,
      "ஏற்பட்டு": 1935,
      "அதேபோ": 1936,
      "விட்ட": 1937,
      "##த்துவ": 1938,
      "பிபி": 1939,
      "பீ": 1940,
      "##ற்றில்": 1941,
      "##ம்பெ": 1942,
      "அரசின்": 1943,
      "கிடைக்க": 1944,
      "அடைய": 1945,
      "##மொ": 1946,
      "வரலா": 1947,
      "ஏற்று": 1948,
      "##நக": 1949,
      "விதி": 1950,
      "##ண்ப": 1951,
      "எது": 1952,
      "##மூ": 1953,
      "அற": 1954,
      "உக்": 1955,
      "சீன": 1956,
      "படை": 1957,
      "##க்கில்": 1958,
      "##ங்கிய": 1959,
      "கல்லூ": 1960,
      "##க்கத்தில்": 1961,
      "##ிடையே": 1962,
      "திரும்ப": 1963,
      "மண்ட": 1964,
      "##ுள்ள": 1965,
      "அழைத்து": 1966,
      "அருகே": 1967,
      "ஒது": 1968,
      "இதுவரை": 1969,
      "##வர்களை": 1970,
      "கூறுகிறார்": 1971,
      "பரபர": 1972,
      "மாலை": 1973,
      "நப": 1974,
      "ஆப": 1975,
      "##நிதி": 1976,
      "ஏற்பா": 1977,
      "##ாப்": 1978,
      "திட": 1979,
      "மை": 1980,
      "##ளே": 1981,
      "நாடு": 1982,
      "போர்": 1983,
      "செயல்": 1984,
      "இதனை": 1985,
      "விலை": 1986,
      "பணம்": 1987,
      "##ிகளின்": 1988,
      "##மெ": 1989,
      "##ரன்": 1990,
      "##ஷன்": 1991,
      "பல்க": 1992,
      "சிங்": 1993,
      "ரி": 1994,
      "##சம்": 1995,
      "காவல்": 1996,
      "வகு": 1997,
      "##பாடு": 1998,
      "தீர்மான": 1999,
      "##சன்": 2000,
      "சென்ன": 2001,
      "நெருக்க": 2002,
      "உக்ரை": 2003,
      "##புரம்": 2004,
      "உங்கள்": 2005,
      "##ணிய": 2006,
      "அனுமதி": 2007,
      "அனுப்ப": 2008,
      "காய": 2009,
      "##ஃப்": 2010,
      "அதிபர்": 2011,
      "கண்ண": 2012,
      "சுக": 2013,
      "எனவும்": 2014,
      "14": 2015,
      "பொதும": 2016,
      "##த்தும்": 2017,
      "பன்ன": 2018,
      "ஜோ": 2019,
      "பை": 2020,
      "##ுத": 2021,
      "சின்": 2022,
      "##நாத": 2023,
      "சமீ": 2024,
      "வேக": 2025,
      "50": 2026,
      "பரிச": 2027,
      "##த்துக்": 2028,
      "சுவாமி": 2029,
      "##வுடன்": 2030,
      "ரஷ்யா": 2031,
      "குடி": 2032,
      "பிரச்ச": 2033,
      "##ாக்": 2034,
      "யார்": 2035,
      "##தலை": 2036,
      "##வாறு": 2037,
      "கிள": 2038,
      "ரசிக": 2039,
      "##க்களை": 2040,
      "##வரின்": 2041,
      "மழை": 2042,
      "மகி": 2043,
      "அதனால்": 2044,
      "என்றால்": 2045,
      "செயலாளர்": 2046,
      "2022": 2047,
      "கிடைக்கும்": 2048,
      "##ள்ளன": 2049,
      "##வார்கள்": 2050,
      "முதலமைச்ச": 2051,
      "25": 2052,
      "நிறைவே": 2053,
      "புகார்": 2054,
      "நாட்டின்": 2055,
      "உள்ளனர்": 2056,
      "தொடங்கி": 2057,
      "எனக்": 2058,
      "அப்படி": 2059,
      "ஆளுநர்": 2060,
      "##வின": 2061,
      "குறிப்பி": 2062,
      "இல்லாத": 2063,
      "##ாரத்தில்": 2064,
      "நீதிபதி": 2065,
      "விமர்ச": 2066,
      "பேச்ச": 2067,
      "சந்திர": 2068,
      "நாய": 2069,
      "##க்கொள்ள": 2070,
      "##ப்பாளர்": 2071,
      "இந்தக்": 2072,
      "தயார": 2073,
      "##வர்களின்": 2074,
      "பள்ளி": 2075,
      "##ரம": 2076,
      "##ரிக": 2077,
      "ரீ": 2078,
      "##டர்": 2079,
      "##லர்": 2080,
      "##க்கொ": 2081,
      "போலீஸார்": 2082,
      "முன்ப": 2083,
      "குற்றம்": 2084,
      "##லே": 2085,
      "##ூரில்": 2086,
      "திருமண": 2087,
      "13": 2088,
      "செய்தனர்": 2089,
      "இயக்கு": 2090,
      "##er": 2091,
      "பாதிப்பு": 2092,
      "எடுத்த": 2093,
      "உதவி": 2094,
      "##தள": 2095,
      "##டுகளை": 2096,
      "தள": 2097,
      "##ள்ளி": 2098,
      "அமைப்பு": 2099,
      "வைர": 2100,
      "அச": 2101,
      "திட்டம்": 2102,
      "பத்திர": 2103,
      "##வருக்கு": 2104,
      "யு": 2105,
      "##ூட": 2106,
      "இள": 2107,
      "அதாவது": 2108,
      "உரிமை": 2109,
      "##க்கிர": 2110,
      "##த்தைச்": 2111,
      "சுத": 2112,
      "##ேகம்": 2113,
      "##கி": 2114,
      "##ம்பு": 2115,
      "##வதற்கான": 2116,
      "##ங்கா": 2117,
      "ஊடக": 2118,
      "##ரையா": 2119,
      "##ாலி": 2120,
      "மேற்பட்ட": 2121,
      "ஒப்ப": 2122,
      "இஸ்ரேல்": 2123,
      "உள்": 2124,
      "கைய": 2125,
      "யூ": 2126,
      "வருட": 2127,
      "தொடர்பு": 2128,
      "ஆகியோர்": 2129,
      "ஆசிர": 2130,
      "பதவ": 2131,
      "##ிருஷ்ண": 2132,
      "அட": 2133,
      "வெற்ற": 2134,
      "நீர்": 2135,
      "##வரு": 2136,
      "வலியு": 2137,
      "##ந்தார்": 2138,
      "விற்ப": 2139,
      "கலை": 2140,
      "##ியான": 2141,
      "##வுகள்": 2142,
      "குறிப்பிடத்தக்க": 2143,
      "இடை": 2144,
      "கேர": 2145,
      "நேரம்": 2146,
      "தற்க": 2147,
      "எதிர்பார": 2148,
      "##க்கூடிய": 2149,
      "விப": 2150,
      "##மாறு": 2151,
      "திருமணம்": 2152,
      "மாணவ": 2153,
      "நல": 2154,
      "நீண்ட": 2155,
      "இருக்கிறார்": 2156,
      "##ளிக்க": 2157,
      "##ணா": 2158,
      "மூத்த": 2159,
      "வருகின்றன": 2160,
      "##த்துள்ளார்": 2161,
      "விழு": 2162,
      "##சே": 2163,
      "##ட்டர்": 2164,
      "பிரப": 2165,
      "தரு": 2166,
      "##ிரே": 2167,
      "##ப்பே": 2168,
      "ராகுல்": 2169,
      "##நு": 2170,
      "16": 2171,
      "நகர": 2172,
      "##ிலோ": 2173,
      "வேண்டு": 2174,
      "கண்கா": 2175,
      "ஆதரவ": 2176,
      "##தாகக்": 2177,
      "ரோ": 2178,
      "ஈடுபட்ட": 2179,
      "அதிகமாக": 2180,
      "சேவை": 2181,
      "கொள்": 2182,
      "##ப்பினர்": 2183,
      "பல்கலைக்க": 2184,
      "##ில்தான்": 2185,
      "##ாளராக": 2186,
      "##ர்த்தி": 2187,
      "மனைவி": 2188,
      "இடத்தில்": 2189,
      "##வாத": 2190,
      "என்பதால்": 2191,
      "இந்தியாவின்": 2192,
      "##கொண்ட": 2193,
      "##த்தீ": 2194,
      "இந்தத்": 2195,
      "##க்கூட": 2196,
      "கேட்க": 2197,
      "பாரா": 2198,
      "வரவே": 2199,
      "பன்னீர்": 2200,
      "##ாப": 2201,
      "செய்க": 2202,
      "ஏற்படும்": 2203,
      "##க்குள்": 2204,
      "பூஜை": 2205,
      "இதே": 2206,
      "எதிர்ப்பு": 2207,
      "கவன": 2208,
      "நடைபெறும்": 2209,
      "குற்றச்ச": 2210,
      "பல்கலைக்கழக": 2211,
      "திட்டமி": 2212,
      "பாலியல்": 2213,
      "பழனிசாமி": 2214,
      "தமிழ்நாட்டில்": 2215,
      "அன்று": 2216,
      "அடிப்படையில்": 2217,
      "அதனை": 2218,
      "##த்தொ": 2219,
      "##ப்பான": 2220,
      "##நீதி": 2221,
      "தண்ட": 2222,
      "##தேச": 2223,
      "##மைப்பு": 2224,
      "100": 2225,
      "மறை": 2226,
      "கர்நா": 2227,
      "##ானி": 2228,
      "செலுத்த": 2229,
      "##த்தினர்": 2230,
      "##த்தியில்": 2231,
      "##at": 2232,
      "கொடு": 2233,
      "##மானது": 2234,
      "எதிரான": 2235,
      "உதவ": 2236,
      "##கோ": 2237,
      "##த்தைப்": 2238,
      "குறிப்பாக": 2239,
      "##்களை": 2240,
      "நடத்திய": 2241,
      "அந்தப்": 2242,
      "அவர்களின்": 2243,
      "காட்ட": 2244,
      "##ாமலை": 2245,
      "தனியார்": 2246,
      "வழக்கில்": 2247,
      "செய்திய": 2248,
      "திருவிழ": 2249,
      "ஆரம்ப": 2250,
      "போல்": 2251,
      "##களையும்": 2252,
      "##ங்கில": 2253,
      "வெளியிட்டு": 2254,
      "திரைப்பட": 2255,
      "செல்லும்": 2256,
      "மருத்துவமனை": 2257,
      "இன்ற": 2258,
      "##ராள": 2259,
      "நோய": 2260,
      "##த்திட்ட": 2261,
      "வேல": 2262,
      "##ில்லிய": 2263,
      "பெண்ண": 2264,
      "##ப்பட்டுள்ளன": 2265,
      "நிறுவனம்": 2266,
      "மதுரை": 2267,
      "##வோ": 2268,
      "##நாயக": 2269,
      "மனு": 2270,
      "17": 2271,
      "##ன்னி": 2272,
      "##ராட்சி": 2273,
      "இடம்": 2274,
      "ஆன்": 2275,
      "##க்குழு": 2276,
      "##லாம": 2277,
      "##த்தைக்": 2278,
      "##ட்டம்": 2279,
      "##தியின்": 2280,
      "##மோ": 2281,
      "சிலர்": 2282,
      "எச்ச": 2283,
      "என்னை": 2284,
      "மேம்ப": 2285,
      "மாற": 2286,
      "##ிருந்தனர்": 2287,
      "காலத்தில்": 2288,
      "பகுதிகளில்": 2289,
      "##மதி": 2290,
      "தொகுதி": 2291,
      "மாணவர்கள்": 2292,
      "அமெரிக்கா": 2293,
      "பணிய": 2294,
      "உற்ப": 2295,
      "கட்டுப்பா": 2296,
      "சர": 2297,
      "ஆரம்பி": 2298,
      "அதிகம்": 2299,
      "##வாள": 2300,
      "##விட்டார்": 2301,
      "##ாண": 2302,
      "##ப்பூர்": 2303,
      "பயணம்": 2304,
      "24": 2305,
      "##றித்து": 2306,
      "பிரதி": 2307,
      "சர்ச்ச": 2308,
      "##ந்தில்": 2309,
      "போட்டி": 2310,
      "எங்கள்": 2311,
      "கொண்டா": 2312,
      "##வதால்": 2313,
      "மார்": 2314,
      "##க்குப்": 2315,
      "##க்கண": 2316,
      "ரெ": 2317,
      "##த்தின": 2318,
      "##ாவும்": 2319,
      "பங்கு": 2320,
      "வெளியிட்ட": 2321,
      "##ொலை": 2322,
      "##வதற்காக": 2323,
      "பிறந்த": 2324,
      "##in": 2325,
      "தமிழகத்தில்": 2326,
      "##ுடைய": 2327,
      "பெயர்": 2328,
      "வித": 2329,
      "வெளியாக": 2330,
      "வன்": 2331,
      "ஒருங்கி": 2332,
      "##ியர்கள்": 2333,
      "இணைந்து": 2334,
      "நான்கு": 2335,
      "வருமான": 2336,
      "##வரி": 2337,
      "##மார": 2338,
      "##ரங்க": 2339,
      "அவர்களுக்கு": 2340,
      "##க்கப்பட்டு": 2341,
      "##ப்படவில்லை": 2342,
      "இருந்தாலும்": 2343,
      "ஒருங்கிணை": 2344,
      "அவசிய": 2345,
      "போக்கு": 2346,
      "ஆண்டுகளுக்கு": 2347,
      "நீதிமன்றம்": 2348,
      "##ங்களாக": 2349,
      "தாக்குதல்": 2350,
      "குறிப்பிடத்தக்கது": 2351,
      "##ரசு": 2352,
      "##ிகை": 2353,
      "இனி": 2354,
      "திருவ": 2355,
      "வலை": 2356,
      "ஹி": 2357,
      "பின்ன": 2358,
      "நடைபெற": 2359,
      "போலீஸ்": 2360,
      "அவ்": 2361,
      "டீ": 2362,
      "##ீர்கள்": 2363,
      "##ப்பட்டன": 2364,
      "##ன்றி": 2365,
      "நடைபெற்று": 2366,
      "கூடாது": 2367,
      "அளித்த": 2368,
      "முயற்சி": 2369,
      "கார்": 2370,
      "கிழ": 2371,
      "அடையாள": 2372,
      "##தோ": 2373,
      "பதில": 2374,
      "பங்க": 2375,
      "கோரிக்கை": 2376,
      "##நுட்ப": 2377,
      "இவ்": 2378,
      "நாளை": 2379,
      "கடும்": 2380,
      "செய்தார்": 2381,
      "##ாயம்": 2382,
      "தேர்": 2383,
      "சட்டமன்ற": 2384,
      "தயாரி": 2385,
      "வீடு": 2386,
      "எரி": 2387,
      "சுதந்திர": 2388,
      "##ளுக்காக": 2389,
      "கூடு": 2390,
      "##ந்திய": 2391,
      "##ளான": 2392,
      "##ப்படி": 2393,
      "இல்லாமல்": 2394,
      "செய்யப்பட்டு": 2395,
      "ஃப": 2396,
      "கோவிலில்": 2397,
      "தண்ண": 2398,
      "நாடுகள்": 2399,
      "சதவீ": 2400,
      "உட்பட": 2401,
      "##க்குறிப்பு": 2402,
      "##தன்": 2403,
      "விக்": 2404,
      "நாட்டில்": 2405,
      "##ராஜ்": 2406,
      "பலர்": 2407,
      "##னைய": 2408,
      "##வினர்": 2409,
      "அழு": 2410,
      "அறிக்கை": 2411,
      "மோத": 2412,
      "ஆறு": 2413,
      "வான": 2414,
      "போட்டு": 2415,
      "இடம்பெ": 2416,
      "விரி": 2417,
      "##ள்ளதாக": 2418,
      "அப": 2419,
      "விசாரி": 2420,
      "தரிச": 2421,
      "மச": 2422,
      "##னிய": 2423,
      "தொலை": 2424,
      "கூறுகையில்": 2425,
      "முயற்ச": 2426,
      "பணியா": 2427,
      "##க்கை": 2428,
      "இந்தச்": 2429,
      "தலைமைய": 2430,
      "மக்களுக்கு": 2431,
      "##ிகளும்": 2432,
      "##ங்களிலும்": 2433,
      "##ட்டிற்கு": 2434,
      "##நீதிமன்ற": 2435,
      "வசி": 2436,
      "##டியே": 2437,
      "படக்குறிப்பு": 2438,
      "##ாளர்களை": 2439,
      "மும்ப": 2440,
      "உள்ளார்": 2441,
      "மாட்ட": 2442,
      "ஆதரவு": 2443,
      "பிபிசி": 2444,
      "எனது": 2445,
      "எல்லாம்": 2446,
      "##வோம்": 2447,
      "அலங்க": 2448,
      "##on": 2449,
      "அனைவரும்": 2450,
      "மகிழ்ச்ச": 2451,
      "காட்ச": 2452,
      "முதலில்": 2453,
      "உடனடியாக": 2454,
      "ஏராள": 2455,
      "##ar": 2456,
      "##ன்மை": 2457,
      "சோதனை": 2458,
      "அவரு": 2459,
      "##ற்கும்": 2460,
      "கண்டுபி": 2461,
      "##ார்த்தை": 2462,
      "வடி": 2463,
      "பதில்": 2464,
      "கூட்டம்": 2465,
      "சை": 2466,
      "இருவரும்": 2467,
      "புதி": 2468,
      "##நாள்": 2469,
      "நடக்கும்": 2470,
      "##டியில்": 2471,
      "சட்டம்": 2472,
      "மண": 2473,
      "##ன்ச": 2474,
      "கடன்": 2475,
      "முடியாத": 2476,
      "சீனா": 2477,
      "##ழ்த்த": 2478,
      "##எல்": 2479,
      "##க்கார": 2480,
      "என்பத": 2481,
      "குழுவ": 2482,
      "##வ்வளவு": 2483,
      "போராட்டம்": 2484,
      "நிகழ்ச்சி": 2485,
      "எதிர்பார்க்க": 2486,
      "##வாய்": 2487,
      "##திக": 2488,
      "காவல்துறை": 2489,
      "நாக": 2490,
      "மாதி": 2491,
      "வெடி": 2492,
      "தவற": 2493,
      "இருந்தார்": 2494,
      "சந்தித்து": 2495,
      "விஜய": 2496,
      "சிர": 2497,
      "##மான்": 2498,
      "##ஹி": 2499,
      "தாக்கல்": 2500,
      "தொழில்நுட்ப": 2501,
      "சின்ன": 2502,
      "22": 2503,
      "குறைந்த": 2504,
      "ஆண்டுகளாக": 2505,
      "மேற்கு": 2506,
      "இருப்பினும்": 2507,
      "சுகாதார": 2508,
      "தாய்": 2509,
      "பலரும்": 2510,
      "23": 2511,
      "##ிகா": 2512,
      "##வால்": 2513,
      "புரி": 2514,
      "ஆலோசனை": 2515,
      "இருப்பதாக": 2516,
      "அம்ப": 2517,
      "##வற்றை": 2518,
      "இதன": 2519,
      "மீதான": 2520,
      "##நோ": 2521,
      "மேல": 2522,
      "அவரின்": 2523,
      "##ப்புற": 2524,
      "தலைமையில்": 2525,
      "பாதிக்கப்பட்ட": 2526,
      "##நே": 2527,
      "கூடிய": 2528,
      "##்த்து": 2529,
      "00": 2530,
      "##ரத்தில்": 2531,
      "மூன்ற": 2532,
      "##ையிலான": 2533,
      "##ப்படை": 2534,
      "பரவ": 2535,
      "##ணியில்": 2536,
      "தென்": 2537,
      "பெறு": 2538,
      "வரி": 2539,
      "எண்ணிக்கை": 2540,
      "உருவாக்க": 2541,
      "பிரிவு": 2542,
      "இறுதி": 2543,
      "##ஷேகம்": 2544,
      "ஒப்பந்த": 2545,
      "ஹெ": 2546,
      "##டாக": 2547,
      "பொருட்க": 2548,
      "அடிக்க": 2549,
      "திக": 2550,
      "கால்": 2551,
      "ஆவ": 2552,
      "கவு": 2553,
      "##க்கே": 2554,
      "தெரிவித்துள்ளது": 2555,
      "பார்வ": 2556,
      "தலைவர்கள்": 2557,
      "படம்": 2558,
      "நிறுத்த": 2559,
      "போன": 2560,
      "பாகிஸ்தான்": 2561,
      "இதுபோ": 2562,
      "##ஷி": 2563,
      "சொல்லி": 2564,
      "##குதி": 2565,
      "##ோதைய": 2566,
      "அதிகரித்து": 2567,
      "டாக": 2568,
      "ஆண்டில்": 2569,
      "ஒதுக்க": 2570,
      "40": 2571,
      "##ியுடன்": 2572,
      "அளவுக்கு": 2573,
      "குறிப்பிட்டு": 2574,
      "##ரக": 2575,
      "அவர்களை": 2576,
      "அறிவு": 2577,
      "அனுமதிக்க": 2578,
      "ஆயிரம்": 2579,
      "##ர்களும்": 2580,
      "##முறைய": 2581,
      "முதலமைச்சர்": 2582,
      "##க்கல்": 2583,
      "செல்வ": 2584,
      "வெளியிட": 2585,
      "21": 2586,
      "அக்க": 2587,
      "##விரு": 2588,
      "##ில்லியன்": 2589,
      "ஏராளமான": 2590,
      "நவ": 2591,
      "முன்னிட்டு": 2592,
      "முக்கியமான": 2593,
      "##ன்களை": 2594,
      "சென்னையில்": 2595,
      "பாராளுமன்ற": 2596,
      "வது": 2597,
      "நகர்": 2598,
      "##ிழமை": 2599,
      "கழி": 2600,
      "##டல்": 2601,
      "##ரேந்திர": 2602,
      "##ப்படுத்து": 2603,
      "அமைக்க": 2604,
      "வந்தார்": 2605,
      "##ப்போக": 2606,
      "##டியை": 2607,
      "புல": 2608,
      "எதிர்ப": 2609,
      "##னவே": 2610,
      "##ண்டிய": 2611,
      "குஜ": 2612,
      "##மாள்": 2613,
      "ஆதி": 2614,
      "நண்ப": 2615,
      "##ெடுக்க": 2616,
      "மத்தியில்": 2617,
      "கூறியுள்ளார்": 2618,
      "##ஞ்சி": 2619,
      "கிலோ": 2620,
      "##ஷா": 2621,
      "அனுப": 2622,
      "நியமி": 2623,
      "மக்களின்": 2624,
      "##றையை": 2625,
      "ஓய்": 2626,
      "கிரிக்க": 2627,
      "##குறித்து": 2628,
      "##ஞர்": 2629,
      "ப்": 2630,
      "##ட்டத்தில்": 2631,
      "சாலை": 2632,
      "தந்த": 2633,
      "குஜரா": 2634,
      "பிரதம": 2635,
      "##ளவில்": 2636,
      "மாவட்டத்தில்": 2637,
      "##ர்ப்ப": 2638,
      "##வித": 2639,
      "ஏற்பட்டது": 2640,
      "சிறுவ": 2641,
      "தகவல்கள்": 2642,
      "அறிமுக": 2643,
      "##ட்டா": 2644,
      "மாறி": 2645,
      "ஏற்கனவே": 2646,
      "கோவை": 2647,
      "கூட்டத்தில்": 2648,
      "கடுமையாக": 2649,
      "குற்றச்சாட்டு": 2650,
      "##நகர்": 2651,
      "பன்னீர்செ": 2652,
      "அவை": 2653,
      "ஆராய": 2654,
      "##தியான": 2655,
      "மொத்த": 2656,
      "வாக்க": 2657,
      "##நாயகர்": 2658,
      "மாநக": 2659,
      "தன்னுடைய": 2660,
      "கர": 2661,
      "கத": 2662,
      "##பட்ட": 2663,
      "##ன்பு": 2664,
      "##த்ய": 2665,
      "தொண்ட": 2666,
      "##ன்றால்": 2667,
      "##ெய்": 2668,
      "##ப்பும்": 2669,
      "##கன்": 2670,
      "##ன்ஸ்": 2671,
      "தரப்பு": 2672,
      "விற்பனை": 2673,
      "##en": 2674,
      "##ங்களையும்": 2675,
      "ஆண்டுகள்": 2676,
      "உற்ச": 2677,
      "##ிலுள்ள": 2678,
      "வண": 2679,
      "அறிவிக்க": 2680,
      "உக்ரைன்": 2681,
      "ஒப்பு": 2682,
      "பற": 2683,
      "##ியுள்ளனர்": 2684,
      "மருத்துவமனையில்": 2685,
      "பால்": 2686,
      "மக்கள": 2687,
      "மகன்": 2688,
      "),": 2689,
      "##ாட்சி": 2690,
      "##ிலை": 2691,
      "##ர்வ": 2692,
      "##ட்டிக்க": 2693,
      "மாற்று": 2694,
      "##ற்றம்": 2695,
      "##க்ஸ்": 2696,
      "நீதிமன்றத்தில்": 2697,
      "தேடி": 2698,
      "##வதில்": 2699,
      "சமய": 2700,
      "நரேந்திர": 2701,
      "பண்ண": 2702,
      "##ற்றா": 2703,
      "மாநிலம்": 2704,
      "மார": 2705,
      "##னே": 2706,
      "விளை": 2707,
      "##விடம்": 2708,
      "வன": 2709,
      "தடு": 2710,
      "##வுக": 2711,
      "தெளி": 2712,
      "##ாதாரம்": 2713,
      "##ப்த": 2714,
      "இருப்பது": 2715,
      "எதுவும்": 2716,
      "அண்ணாமலை": 2717,
      "##வால": 2718,
      "விருது": 2719,
      "திடீர": 2720,
      "##ாபி": 2721,
      "கவனம்": 2722,
      "முறையாக": 2723,
      "ல்": 2724,
      "##ும": 2725,
      "முறையில்": 2726,
      "எழுந்த": 2727,
      "கழக": 2728,
      "தாய": 2729,
      "தான": 2730,
      "##பட்ச": 2731,
      "சகோத": 2732,
      "##வருக்கும்": 2733,
      "##டைந்து": 2734,
      "##ப்பதற்கு": 2735,
      "முன்வை": 2736,
      "கோயிலில்": 2737,
      "சசிக": 2738,
      "##மடைந்த": 2739,
      "பட்டிய": 2740,
      "முஸ்": 2741,
      "சொல்": 2742,
      "தாக்குத": 2743,
      "மிர": 2744,
      "பேசி": 2745,
      "##ஸ்திரே": 2746,
      "கடைசி": 2747,
      "பகி": 2748,
      "##al": 2749,
      "முருக": 2750,
      "போக்குவர": 2751,
      "உங்களுக்கு": 2752,
      "கள்ள": 2753,
      "##பக": 2754,
      "ரன்கள்": 2755,
      "##ரான்": 2756,
      "மேற்கொண்ட": 2757,
      "நமது": 2758,
      "##விடும்": 2759,
      "##ிட்": 2760,
      "இருந்தால்": 2761,
      "தேவையான": 2762,
      "##சிங்க": 2763,
      "##நாத்": 2764,
      "நிதிய": 2765,
      ".,": 2766,
      "பற்றிய": 2767,
      "##or": 2768,
      "##க்கால": 2769,
      "##ண்டை": 2770,
      "இதுகுறித்து": 2771,
      "விவகாரம்": 2772,
      "##க்கூடாது": 2773,
      "தை": 2774,
      "##ிறு": 2775,
      "பகவ": 2776,
      "லி": 2777,
      "##ியம்": 2778,
      "##களைப்": 2779,
      "##வக": 2780,
      "காலம்": 2781,
      "ஆகியோ": 2782,
      "கண்காணி": 2783,
      "ஷா": 2784,
      "குழந்தைகள்": 2785,
      "சமீபத்தில்": 2786,
      "##வதாகவும்": 2787,
      "##ூர": 2788,
      "விரைவில்": 2789,
      "கைப்ப": 2790,
      "மிகப்பெ": 2791,
      "ஹோ": 2792,
      "வேண்டாம்": 2793,
      "ஐந்து": 2794,
      "அதிர்ச்ச": 2795,
      "அனுப்பி": 2796,
      "##னையை": 2797,
      "உயிர": 2798,
      "ஈடுபட்டு": 2799,
      "அய": 2800,
      "##த்தனை": 2801,
      "காட்டு": 2802,
      "மற்றொரு": 2803,
      "பிரபல": 2804,
      "முடியவில்லை": 2805,
      "##தார": 2806,
      "எதிர்க்கட்ச": 2807,
      "தந்தை": 2808,
      "##ாளி": 2809,
      "2024": 2810,
      "##றவு": 2811,
      "நாட்கள்": 2812,
      "பிரிட்ட": 2813,
      "மாநா": 2814,
      "சட்டச": 2815,
      "தன்னை": 2816,
      "பொதுமக்கள்": 2817,
      "##ச்சே": 2818,
      "சூரிய": 2819,
      "கர்நாடக": 2820,
      "மகா": 2821,
      "##லையில்": 2822,
      "##புண": 2823,
      "பக்க": 2824,
      "காத்த": 2825,
      "இரண்டாவது": 2826,
      "##த்தகைய": 2827,
      "##க்கணக்கான": 2828,
      "மலை": 2829,
      "திருக்க": 2830,
      "##த்தே": 2831,
      "டை": 2832,
      "##ங்கை": 2833,
      "ஆண": 2834,
      "##மணி": 2835,
      "சிறந்த": 2836,
      "கப்ப": 2837,
      "##னாக": 2838,
      "##சர்": 2839,
      "குறிப்பிட்டார்": 2840,
      "அம்மன்": 2841,
      "##தாவது": 2842,
      "கான்": 2843,
      "##ால்தான்": 2844,
      "சிறப்பாக": 2845,
      "போட்டியில்": 2846,
      "##யி": 2847,
      "வியா": 2848,
      "##வச": 2849,
      "அதிகாரி": 2850,
      "ஏற்பட": 2851,
      "எதிர்கால": 2852,
      "சேர்க்க": 2853,
      "##ாலை": 2854,
      "##த்தன": 2855,
      "##ுகிறது": 2856,
      "ஸ்க": 2857,
      "##ுமா": 2858,
      "புகைப்பட": 2859,
      "ஒன்றை": 2860,
      "ரண": 2861,
      "கேள்வ": 2862,
      "##பட": 2863,
      "மிகப்பெரிய": 2864,
      "மருந்து": 2865,
      "##சல்": 2866,
      "நடக்கிறது": 2867,
      "##ர்ட": 2868,
      "யாரும்": 2869,
      "##ட்பு": 2870,
      "2023": 2871,
      "பேரா": 2872,
      "அம்மா": 2873,
      "##ற்கை": 2874,
      "##றையினர்": 2875,
      "##ம்தான்": 2876,
      "##ானா": 2877,
      "கௌ": 2878,
      "மாக": 2879,
      "##ாதம்": 2880,
      "##ரியில்": 2881,
      "##ிரா": 2882,
      "கொல்ல": 2883,
      "சேர்ந்து": 2884,
      "##கே": 2885,
      "##டுகிறது": 2886,
      "தெரியவ": 2887,
      "விண்ண": 2888,
      "குடியரசு": 2889,
      "##ந்தர": 2890,
      "விமர்சி": 2891,
      "ட்விட்ட": 2892,
      "நிறைவேற்ற": 2893,
      "##ப்பிய": 2894,
      "கோப": 2895,
      "சொல்க": 2896,
      "##ங்களது": 2897,
      "நோக்கி": 2898,
      "அச்ச": 2899,
      "எங்களுக்கு": 2900,
      "எழுதிய": 2901,
      "உடன்": 2902,
      "மொத்தம்": 2903,
      "##விடு": 2904,
      "புர": 2905,
      "ஆயுத": 2906,
      "தாம": 2907,
      "##வுகளை": 2908,
      "##ற்றின்": 2909,
      "ஜூலை": 2910,
      "இன": 2911,
      "எங்க": 2912,
      "##த்திரை": 2913,
      "வீரர்கள்": 2914,
      "ரே": 2915,
      "##க்கொண்டு": 2916,
      "காத": 2917,
      "திடீரென": 2918,
      "மட்டுமல்ல": 2919,
      "கலா": 2920,
      "##ொள்": 2921,
      "பேச்சுவ": 2922,
      "பயிற்சி": 2923,
      "##ச்சினை": 2924,
      "சுற்றுலா": 2925,
      "கிருஷ்ண": 2926,
      "செய்யப்பட்டது": 2927,
      "சொத்து": 2928,
      "டாக்டர்": 2929,
      "அந்": 2930,
      "##ருமான": 2931,
      "ராச": 2932,
      "##மக்கு": 2933,
      "##த்தைத்": 2934,
      "பேசினார்": 2935,
      "##ப்பம்": 2936,
      "பாத": 2937,
      "மார்ச்": 2938,
      "ஆஸ்திரே": 2939,
      "##ீன்": 2940,
      "##ிருக்கிறார்கள்": 2941,
      "நிமி": 2942,
      "விடுதலை": 2943,
      "போய்": 2944,
      "விழாவில்": 2945,
      "##வியல்": 2946,
      "உடை": 2947,
      "##த்திலிருந்து": 2948,
      "##ிருப்பது": 2949,
      "##்களில்": 2950,
      "உயிரிழந்த": 2951,
      "செய்வது": 2952,
      "ஜெயல": 2953,
      "கல்வ": 2954,
      "ஸ்த": 2955,
      "நிபுண": 2956,
      "நடிகர்": 2957,
      "##நீர்": 2958,
      "மாநிலத்தில்": 2959,
      "##சாலை": 2960,
      "கடுமையான": 2961,
      "சப": 2962,
      "வழங்குவ": 2963,
      "முடிந்த": 2964,
      "##ின்றி": 2965,
      "அந்தக்": 2966,
      "##ப்பர்": 2967,
      "இயக்க": 2968,
      "##ானை": 2969,
      "##ுகளை": 2970,
      "மோதி": 2971,
      "பந்துவீ": 2972,
      "அடுத்து": 2973,
      "கணி": 2974,
      "##ர்ட்": 2975,
      "பணிகள்": 2976,
      "##ப்படுகின்றன": 2977,
      "##ழும்": 2978,
      "உதய": 2979,
      "வாய": 2980,
      "##ின்றது": 2981,
      "கண்டி": 2982,
      "விஜய்": 2983,
      "கேரள": 2984,
      "அக்": 2985,
      "செய்தது": 2986,
      "பட்": 2987,
      "##த்துவம்": 2988,
      "மாற்றம்": 2989,
      "எல்லா": 2990,
      "சுய": 2991,
      "சேர்த்து": 2992,
      "நியூ": 2993,
      "##த்திற்கும்": 2994,
      "விதிக்க": 2995,
      "பாலா": 2996,
      "ஜெயலலி": 2997,
      "இவர்கள்": 2998,
      "##ளித்த": 2999,
      "மகாரா": 3000,
      "என்கிற": 3001,
      "தொற்று": 3002,
      "நம்பிக்கை": 3003,
      "திருவிழா": 3004,
      "எளி": 3005,
      "சால": 3006,
      "பவு": 3007,
      "##பூர்": 3008,
      "அளவு": 3009,
      "சனி": 3010,
      "இஸ்லாம": 3011,
      "##es": 3012,
      "ஆகும்": 3013,
      "##னான": 3014,
      "##ில்ல": 3015,
      "பேராசிர": 3016,
      "இதற்க": 3017,
      "##வேண்டும்": 3018,
      "வாங்கி": 3019,
      "தற்கொலை": 3020,
      "தரிசனம்": 3021,
      "அடைந்த": 3022,
      "##னோ": 3023,
      "2021": 3024,
      "மேற்கொண்டு": 3025,
      "முஸ்லி": 3026,
      "விக்கெ": 3027,
      "கம": 3028,
      "##ருடன்": 3029,
      "##ல்யா": 3030,
      "குமார்": 3031,
      "இருக்கிற": 3032,
      "நிர்வாகிகள்": 3033,
      "ஜூன்": 3034,
      "அம்ம": 3035,
      "எனத்": 3036,
      "கீழ": 3037,
      "அதன்படி": 3038,
      "ஆராய்ச்ச": 3039,
      "நாட்டு": 3040,
      "பிரச": 3041,
      "##ளிலும்": 3042,
      "##்டோ": 3043,
      "##ந்துள்ள": 3044,
      "நடைமுறை": 3045,
      "பிரச்சினை": 3046,
      "##ிருக்கின்றனர்": 3047,
      "வழியாக": 3048,
      "இதுபோன்ற": 3049,
      "நுழை": 3050,
      "##மம்": 3051,
      "##ரவை": 3052,
      "##படுத்த": 3053,
      "சூழ்": 3054,
      "கிடைத்த": 3055,
      "வளர்ச்சி": 3056,
      "##ஆர்": 3057,
      "அதேபோல": 3058,
      "டே": 3059,
      "பக்கம்": 3060,
      "யோ": 3061,
      "##த்துள்ள": 3062,
      "நிறைய": 3063,
      "##ழிப்பு": 3064,
      "வலியுறு": 3065,
      "கிரிக்கெட்": 3066,
      "ரவி": 3067,
      "சிறிய": 3068,
      "சன": 3069,
      "##ஜா": 3070,
      "##ற்றும்": 3071,
      "மக்களை": 3072,
      "முன்னதாக": 3073,
      "அரி": 3074,
      "##வாய": 3075,
      "##ரியா": 3076,
      "##செய்ய": 3077,
      "போக்குவரத்து": 3078,
      "பறி": 3079,
      "##கிறார்": 3080,
      "##பிர": 3081,
      "வங்கி": 3082,
      "##ாமா": 3083,
      "அபிவிரு": 3084,
      "##ெழு": 3085,
      "##ிகு": 3086,
      "தினம்": 3087,
      "நடு": 3088,
      "##ரையில்": 3089,
      "##ப்பதாக": 3090,
      "கருத": 3091,
      "##புற": 3092,
      "##வதில்லை": 3093,
      "அறிக்கையில்": 3094,
      "உரிய": 3095,
      "##சர": 3096,
      "ஏப்": 3097,
      "##லோ": 3098,
      "##யூ": 3099,
      "பேருந்து": 3100,
      "வெளிநாட்டு": 3101,
      "##ாகும்": 3102,
      "வென்ற": 3103,
      "முதலீ": 3104,
      "வகுப்பு": 3105,
      "கதை": 3106,
      "ரத்த": 3107,
      "##த்தல்": 3108,
      "விவகாரத்தில்": 3109,
      "பணியில்": 3110,
      "பெற்றோ": 3111,
      "##வீன": 3112,
      "அருள்": 3113,
      "அறு": 3114,
      "கிடைய": 3115,
      "2019": 3116,
      "##ீக": 3117,
      "##ற்சிய": 3118,
      "##நிலைய": 3119,
      "உறுப்பினர்": 3120,
      "உற்பத்தி": 3121,
      "in": 3122,
      "##ருவ": 3123,
      "##ங்கல்": 3124,
      "வீட்டு": 3125,
      "மாகாண": 3126,
      "##திலும்": 3127,
      "அதிர": 3128,
      "##ேத": 3129,
      "##டித்து": 3130,
      "##ாலான": 3131,
      "##ல்வம்": 3132,
      "##த்தூர்": 3133,
      "கொஞ்ச": 3134,
      "நிச்ச": 3135,
      "நெரு": 3136,
      "பாகிஸ்தான": 3137,
      "##நிய": 3138,
      "நடத்து": 3139,
      "##ன்கொ": 3140,
      "துவங்க": 3141,
      "##ட்ஸ்": 3142,
      "##வருக": 3143,
      "199": 3144,
      "டா": 3145,
      "குறித்தும்": 3146,
      "தடுப்ப": 3147,
      "##ஷேக": 3148,
      "பொதுக்குழு": 3149,
      "விபத்து": 3150,
      "##ைப்": 3151,
      "விவர": 3152,
      "##வாதி": 3153,
      "ஆண்டுகளில்": 3154,
      "மரண": 3155,
      "அவ்வ": 3156,
      "ஏற்ற": 3157,
      "படைய": 3158,
      "வர்த்த": 3159,
      "இல்": 3160,
      "அருகில்": 3161,
      "ஜே": 3162,
      "க்க": 3163,
      "பண்ட": 3164,
      "##மித்": 3165,
      "ஆவண": 3166,
      "நாட்களுக்கு": 3167,
      "தலைவராக": 3168,
      "சூழலில்": 3169,
      "கல்லூரி": 3170,
      "மும்பை": 3171,
      "கிடையாது": 3172,
      "சம்பந்த": 3173,
      "தனக்கு": 3174,
      "சாதி": 3175,
      "நிறுவனங்கள்": 3176,
      "அதிகரிக்கும்": 3177,
      "27": 3178,
      "வழங்கப்படும்": 3179,
      "ஜனநாயக": 3180,
      "புரிந்து": 3181,
      "##விகி": 3182,
      "அழக": 3183,
      "லெ": 3184,
      "கிழக்கு": 3185,
      "குவி": 3186,
      "வகை": 3187,
      "தெரிவித்தனர்": 3188,
      "ஏற்படுத்தி": 3189,
      "குர": 3190,
      "##வர்களில்": 3191,
      "நிகழ்ச்சியில்": 3192,
      "ஒழு": 3193,
      "சினி": 3194,
      "திரா": 3195,
      "தொடங்கிய": 3196,
      "##திவு": 3197,
      "26": 3198,
      "அழ": 3199,
      "பிப்": 3200,
      "உண்மை": 3201,
      "##குதியில்": 3202,
      "சிங்க": 3203,
      "பன்னீர்செல்வம்": 3204,
      "தோல்வ": 3205,
      "வெளிநா": 3206,
      "வழக்கறி": 3207,
      "சரியான": 3208,
      "தடுக்க": 3209,
      "எனும்": 3210,
      "பேட்ட": 3211,
      "பின்ப": 3212,
      "பொறுத்த": 3213,
      "ரணில்": 3214,
      "##ஜெ": 3215,
      "##ந்தர்": 3216,
      "பெரும்பாலான": 3217,
      "பெங்கள": 3218,
      "கொண்டிருந்த": 3219,
      "பகுதியை": 3220,
      "நிலையத்தில்": 3221,
      "நபர்": 3222,
      "வட்ட": 3223,
      "##னல்": 3224,
      "##ஃப": 3225,
      "ஆளுந": 3226,
      "யோக": 3227,
      "##்டு": 3228,
      "சிறை": 3229,
      "அதிகமான": 3230,
      "துப்பா": 3231,
      "பொறுப்பு": 3232,
      "கொள்கை": 3233,
      "தண்ணீர்": 3234,
      "தலைமையிலான": 3235,
      "நிற்க": 3236,
      "##ாடு": 3237,
      "ரூபாய": 3238,
      "வலைதள": 3239,
      "##ட்ரோ": 3240,
      "ராசி": 3241,
      "விளக்க": 3242,
      "நம்பிக்க": 3243,
      "500": 3244,
      "ஏமா": 3245,
      "போட": 3246,
      "தரப்பில்": 3247,
      "அறிவிப்பு": 3248,
      "ஆட்சியில்": 3249,
      "கம்ப": 3250,
      "வந்தனர்": 3251,
      "கூடுதல்": 3252,
      "##வார": 3253,
      "##ுங்கள்": 3254,
      "வருகிறார்கள்": 3255,
      "ஏற்பட்டுள்ளது": 3256,
      "தற்போதைய": 3257,
      "மதிப்ப": 3258,
      "வலி": 3259,
      "வித்திய": 3260,
      "கும்பாபி": 3261,
      "ஹமா": 3262,
      "##டுவது": 3263,
      "இருக்கலாம்": 3264,
      "சதவிகி": 3265,
      "விளையாட்டு": 3266,
      "அவருடைய": 3267,
      "ரத்து": 3268,
      "வாழ்க்கை": 3269,
      "வளாக": 3270,
      "அரசுக்கு": 3271,
      "கட்சிய": 3272,
      "சரியாக": 3273,
      "தண்டனை": 3274,
      "ஆடி": 3275,
      "##ாந்து": 3276,
      "தொடங்கியது": 3277,
      "பரிந்து": 3278,
      "தெரிக": 3279,
      "பார்வைய": 3280,
      "கூட்டு": 3281,
      "பேசுக": 3282,
      "பயன்படுத்தி": 3283,
      "இலங்கையில்": 3284,
      "அவசியம்": 3285,
      "செயற்ப": 3286,
      "காஷ்": 3287,
      "##ங்களால்": 3288,
      "சசிகலா": 3289,
      "இம்": 3290,
      "குழந்த": 3291,
      "பெருமாள்": 3292,
      "பாக": 3293,
      "##ுவை": 3294,
      "புகார": 3295,
      "##ப்படுத்தி": 3296,
      "முயன்ற": 3297,
      "எவ்வளவு": 3298,
      "மகாராஷ்ட": 3299,
      "அப்பா": 3300,
      "##தற்காக": 3301,
      "##ாவிற்கு": 3302,
      "வெங்க": 3303,
      "##ொருள்": 3304,
      "##ையிலும்": 3305,
      "பிரச்சனை": 3306,
      "##ளுடைய": 3307,
      "சாப்ப": 3308,
      "எப்போதும்": 3309,
      "தவறு": 3310,
      "உண்டு": 3311,
      "தேர்ந்த": 3312,
      "##டியும்": 3313,
      "வெளியாகி": 3314,
      "சக்தி": 3315,
      "ரசிகர்கள்": 3316,
      "##ப்பட்டார்": 3317,
      "நாளில்": 3318,
      "##மாகக்": 3319,
      "##ரியாத": 3320,
      "##மலை": 3321,
      "##யர்": 3322,
      "உடனே": 3323,
      "எடு": 3324,
      "தட": 3325,
      "##க்ரே": 3326,
      "வீட்டுக்கு": 3327,
      "28": 3328,
      "கமி": 3329,
      "குண": 3330,
      "##ையோ": 3331,
      "மீன": 3332,
      "பிள்ள": 3333,
      "நினைக்க": 3334,
      "ஆய்வ": 3335,
      "அணியின்": 3336,
      "இதற்காக": 3337,
      "கேப்ட": 3338,
      "சந்தேக": 3339,
      "கன்ன": 3340,
      "டால": 3341,
      "இருக்கு": 3342,
      "தடுப்பூ": 3343,
      "ஏன": 3344,
      "##ஸின்": 3345,
      "நகை": 3346,
      "குற்றவாள": 3347,
      "##ழ்க": 3348,
      "மாவட்டங்களில்": 3349,
      "##ப்பிக்க": 3350,
      "இயக்குநர்": 3351,
      "##க்கள": 3352,
      "அதிகரிக்க": 3353,
      "தெரியும்": 3354,
      "தெரியவில்லை": 3355,
      "வித்தியாச": 3356,
      "ஒத்து": 3357,
      "##ன்னு": 3358,
      "புத்தக": 3359,
      "நிர்வாகம்": 3360,
      "சான்": 3361,
      "தள்ள": 3362,
      "உட்க": 3363,
      "நட்ச": 3364,
      "டிச": 3365,
      "பண்": 3366,
      "##it": 3367,
      "தொடர்பில்": 3368,
      "நட்சத்திர": 3369,
      "##லூர்": 3370,
      "##மாகும்": 3371,
      "கையில்": 3372,
      "##ீஸ்": 3373,
      "கொண்டுவ": 3374,
      "பரபரப்பை": 3375,
      "ஆந்திர": 3376,
      "மாநிலங்களில்": 3377,
      "அழைக்க": 3378,
      "கார்த்த": 3379,
      "திரி": 3380,
      "##ச்செய": 3381,
      "கடற்ப": 3382,
      "சுட்டிக்க": 3383,
      "ஐக்கிய": 3384,
      "##ியூ": 3385,
      "என்னு": 3386,
      "##களிலும்": 3387,
      "செய்யப்பட்டுள்ளது": 3388,
      "முன்னேற்ற": 3389,
      "பாஜகவ": 3390,
      "விக்ரம": 3391,
      "சகோதர": 3392,
      "உரையா": 3393,
      "கிட்ட": 3394,
      "##மிருந்து": 3395,
      "சதவீத": 3396,
      "ஹே": 3397,
      "##ic": 3398,
      "அதன": 3399,
      "எவ்": 3400,
      "ஹை": 3401,
      "ஆர்வ": 3402,
      "எல்லை": 3403,
      "யுக்ரே": 3404,
      "ரொ": 3405,
      "##விற்கு": 3406,
      "##ந்தா": 3407,
      "கொண்டனர்": 3408,
      "##ங்களைப்": 3409,
      "நிலைமை": 3410,
      "##டுகளில்": 3411,
      "விலக": 3412,
      "எம்எல்": 3413,
      "##மிற": 3414,
      "##றையும்": 3415,
      "குள": 3416,
      "சித": 3417,
      "இருக்கின்றன": 3418,
      "##ப்பாடு": 3419,
      "பங்கேற்ற": 3420,
      "##ஸ்வரர்": 3421,
      "நன்ற": 3422,
      "##ியே": 3423,
      "கடல்": 3424,
      "சிறையில்": 3425,
      "சிலை": 3426,
      "மொழ": 3427,
      "பழைய": 3428,
      "நாடுகளில்": 3429,
      "செலவு": 3430,
      "உருவாக": 3431,
      "சந்தித்த": 3432,
      "தெரிகிறது": 3433,
      "##ீப்": 3434,
      "அதற்கான": 3435,
      "தீப": 3436,
      "முழுமையாக": 3437,
      "60": 3438,
      "பக்கத்தில்": 3439,
      "பேட்டி": 3440,
      "நிறுவனத்தின்": 3441,
      "அதேபோல்": 3442,
      "ஓட்டு": 3443,
      "##am": 3444,
      "##ஸில்": 3445,
      "வருவதாக": 3446,
      "பயங்க": 3447,
      "##்துறை": 3448,
      "##ப்பதற்காக": 3449,
      "##ிகர": 3450,
      "சந்திக்க": 3451,
      "மோசமான": 3452,
      "##is": 3453,
      "செந்தில்": 3454,
      "##களைக்": 3455,
      "இன்னொரு": 3456,
      "வசதி": 3457,
      "##ஹா": 3458,
      "##ியம்மன்": 3459,
      "##ராட்ச": 3460,
      "எம்எல்ஏ": 3461,
      "##ஸை": 3462,
      "களமிற": 3463,
      "ஏற்பாடு": 3464,
      "தங்களது": 3465,
      "மருத்துவர்": 3466,
      "##ிர்": 3467,
      "##ரால்": 3468,
      "##இல்": 3469,
      "எதிர்த்து": 3470,
      "##விட்டால்": 3471,
      "சட்டசபை": 3472,
      "சுற்றி": 3473,
      "##ப்படுத்தும்": 3474,
      "விவகார": 3475,
      "நாள": 3476,
      "##ரவரி": 3477,
      "அபிவிருத்தி": 3478,
      "ஒலி": 3479,
      "செல்க": 3480,
      "பெட்ரோ": 3481,
      "கண்டறிய": 3482,
      "##லாக்க": 3483,
      "##ளிர்": 3484,
      "பேசுவ": 3485,
      "நேரடியாக": 3486,
      "ஆன்லை": 3487,
      "ஏப்ரல்": 3488,
      "பரிந்துரை": 3489,
      "##ிங்": 3490,
      "விவசாயிகள்": 3491,
      "குஜராத்": 3492,
      "அறிய": 3493,
      "கட்சிகள்": 3494,
      "தீர்ப்பு": 3495,
      "##ையொ": 3496,
      "##ிருக்கின்றன": 3497,
      "தம்ப": 3498,
      "ரக": 3499,
      "##றையின்": 3500,
      "பகிர்ந்து": 3501,
      "உள": 3502,
      "பெரி": 3503,
      "வழங்கும்": 3504,
      "அங்கீக": 3505,
      "இரண்டாம்": 3506,
      "நெருக்கடி": 3507,
      "வன்முறை": 3508,
      "ஆங்கில": 3509,
      "பேச்சு": 3510,
      "வழங்கி": 3511,
      "நோய்": 3512,
      "பல்ல": 3513,
      "பிடித்து": 3514,
      "ஓர்": 3515,
      "##த்திலேயே": 3516,
      "கலந்துரையா": 3517,
      "மதிப்பு": 3518,
      "கடிதம்": 3519,
      "இவை": 3520,
      "படுக": 3521,
      "##ணு": 3522,
      "உயர்த்த": 3523,
      "தினமும்": 3524,
      "##ாராய": 3525,
      "##ல்களில்": 3526,
      "வலு": 3527,
      "##ோட": 3528,
      "முன்னெ": 3529,
      "செவ்வ": 3530,
      "பரிசோதனை": 3531,
      "திராவிட": 3532,
      "##ுமி": 3533,
      "நீட்": 3534,
      "நாட்டை": 3535,
      "நேரில்": 3536,
      "பணத்தை": 3537,
      "குற்றம்சா": 3538,
      "ஆளும்": 3539,
      "##ம்க": 3540,
      "விநாயகர்": 3541,
      "மாணவி": 3542,
      "பெயரில்": 3543,
      "இவ்வாறு": 3544,
      "மய": 3545,
      "##ன்ட்": 3546,
      "தொடர்ச்ச": 3547,
      "செயல்பா": 3548,
      "வரிச": 3549,
      "அமித்": 3550,
      "தீர்வு": 3551,
      "##பாத்": 3552,
      "##வெளி": 3553,
      "அங்கே": 3554,
      "##வந்த": 3555,
      "வழக்கம்": 3556,
      "சித்த": 3557,
      "வழங்கிய": 3558,
      "##சில": 3559,
      "போதை": 3560,
      "உள்ளே": 3561,
      "அரசாங்கம்": 3562,
      "ஒளி": 3563,
      "##ணய": 3564,
      "##ற்பு": 3565,
      "##றுகிறது": 3566,
      "ஜா": 3567,
      "##விக்க": 3568,
      "மீன்": 3569,
      "பதவிய": 3570,
      "திகதி": 3571,
      "##ியைப்": 3572,
      "ஆகியவ": 3573,
      "உத்தரவு": 3574,
      "பஞ்சாப்": 3575,
      "அதோடு": 3576,
      "##ாளர்களுக்கு": 3577,
      "அக்டோ": 3578,
      "அன்ன": 3579,
      "##தையும்": 3580,
      "##ண்டர்": 3581,
      "வெளியான": 3582,
      "##க்கூடும்": 3583,
      "உறவின": 3584,
      "நாட்களில்": 3585,
      "உறுப்பினர்கள்": 3586,
      "திட்டத்தை": 3587,
      "இறந்த": 3588,
      "கட்டி": 3589,
      "##லத்தில்": 3590,
      "செப்ட": 3591,
      "நோக்க": 3592,
      "##ென்றால்": 3593,
      ".....": 3594,
      "##கொள்ள": 3595,
      "##வேன்": 3596,
      "##ிருந்தால்": 3597,
      "எப்போது": 3598,
      "35": 3599,
      "##விட்": 3600,
      "##ிக்கப்பட்ட": 3601,
      "மீட்க": 3602,
      "திருத்த": 3603,
      "வெறும்": 3604,
      "##ிக்கொண்ட": 3605,
      "ஆகியவை": 3606,
      "கிரக": 3607,
      "##ிருப்பதாக": 3608,
      "தஞ்ச": 3609,
      "நின்": 3610,
      "##ம்பர": 3611,
      "பொருட்கள்": 3612,
      "அதைத்": 3613,
      "ஒன்றாக": 3614,
      "##ெனவே": 3615,
      "இலவச": 3616,
      "##ந்திரன்": 3617,
      "##்குமார்": 3618,
      "ஏற்கெனவே": 3619,
      "உள்ளாட்சி": 3620,
      "தொகுதியில்": 3621,
      "##ர்களில்": 3622,
      "படத்தில்": 3623,
      "ஆகஸ்ட்": 3624,
      "சார்ந்த": 3625,
      "மோதல்": 3626,
      "இடம்பெற்ற": 3627,
      "மற": 3628,
      "##மாகப்": 3629,
      "சாத்திய": 3630,
      "##ங்களைக்": 3631,
      "வீழ்த்த": 3632,
      "வகி": 3633,
      "2020": 3634,
      "##த்திற்காக": 3635,
      "போட்டியிட": 3636,
      "கொண்டாட": 3637,
      "மான": 3638,
      "மில்லியன்": 3639,
      "##வையில்": 3640,
      "##புரி": 3641,
      "ஏற்படுத்தியுள்ளது": 3642,
      "ஊழிய": 3643,
      "அவசர": 3644,
      "நடவடிக்கைகள்": 3645,
      "அடிக்கடி": 3646,
      "##ும்பி": 3647,
      "##ஞ்சு": 3648,
      "கணவர்": 3649,
      "கட்சியில்": 3650,
      "அணுக": 3651,
      "பக்தர்களுக்கு": 3652,
      "##ுந்த": 3653,
      "அன்ப": 3654,
      "##னியா": 3655,
      "##ைக்": 3656,
      "##க்குச்": 3657,
      "உள்ளூர்": 3658,
      "தெரிந்து": 3659,
      "திருச்சி": 3660,
      "பேராசிரியர்": 3661,
      "##டே": 3662,
      "திருந": 3663,
      "புதுச்சே": 3664,
      "உங்க": 3665,
      "##20": 3666,
      "க்கும்": 3667,
      "ஒத்துழை": 3668,
      "மூலமாக": 3669,
      "உண்ட": 3670,
      "மட": 3671,
      "செல்போ": 3672,
      "##வர்களும்": 3673,
      "கவலை": 3674,
      "கலந்துகொண்ட": 3675,
      "பொருட்களை": 3676,
      "##ாடி": 3677,
      "##க்கர்": 3678,
      "தொக": 3679,
      "##ப்பட்டனர்": 3680,
      "ரீதியாக": 3681,
      "பிரா": 3682,
      "##ப்பதிவு": 3683,
      "என்பவர்": 3684,
      "##ையைப்": 3685,
      "விமர்சன": 3686,
      "29": 3687,
      "31": 3688,
      "இத்தகைய": 3689,
      "##க்கெட்": 3690,
      "##ாதனை": 3691,
      "வீச": 3692,
      "பயன்படுத்து": 3693,
      "##ராஜன்": 3694,
      "##ையுடன்": 3695,
      "கொண்டார்": 3696,
      "எழுப்ப": 3697,
      "செயல்பட்டு": 3698,
      "##களால்": 3699,
      "பிப்ரவரி": 3700,
      "##ங்கம்": 3701,
      "தமிழகம்": 3702,
      "மொழி": 3703,
      "சூழல்": 3704,
      "இங்கில": 3705,
      "##ஸ்டர்": 3706,
      "விவாத": 3707,
      "தொகை": 3708,
      "வலுவ": 3709,
      "நிமிட": 3710,
      "##ினம்": 3711,
      "அழைத்துச்": 3712,
      "##தர்": 3713,
      "##ம்ஸ்": 3714,
      "##த்துக்கும்": 3715,
      "முகமது": 3716,
      "அலுவலகத்தில்": 3717,
      "வணிக": 3718,
      "ஊர்வ": 3719,
      "##லால்": 3720,
      "##ீன": 3721,
      "வேத": 3722,
      "வாச": 3723,
      "##க்கிழ": 3724,
      "முழுக்க": 3725,
      "அடித்து": 3726,
      "வடிவ": 3727,
      "கௌரவ": 3728,
      "மன்ன": 3729,
      "##லமாக": 3730,
      "##ஹ்": 3731,
      "சவால": 3732,
      "##பூ": 3733,
      "##க்கட்ட": 3734,
      "காப்பா": 3735,
      "##்க்கு": 3736,
      "ஆதரவாக": 3737,
      "ஹமாஸ்": 3738,
      "##ிலிருந்த": 3739,
      "##ாயி": 3740,
      "முதலீடு": 3741,
      "நிகழ்வு": 3742,
      "##மொழி": 3743,
      "டோ": 3744,
      "##ிறி": 3745,
      "இருப்பதால்": 3746,
      "ஆதார": 3747,
      "விஷயம்": 3748,
      "இங்கே": 3749,
      "தக்க": 3750,
      "##ம்த": 3751,
      "மசோத": 3752,
      "ஜெயலலிதா": 3753,
      "அன்ற": 3754,
      "அமைச்சர்கள்": 3755,
      "நடத்தினர்": 3756,
      "ஓய்வு": 3757,
      "சபா": 3758,
      "##மில்லை": 3759,
      "உலகின்": 3760,
      "மாதிரி": 3761,
      "அக்டோபர்": 3762,
      "க்": 3763,
      "போய": 3764,
      "##ியன்": 3765,
      "வெளியு": 3766,
      "ஆணையம்": 3767,
      "இன்றைய": 3768,
      "கவுன்ச": 3769,
      "இஸ்லாமிய": 3770,
      "ஆரோ": 3771,
      "பராம": 3772,
      "பேச்சுவார்த்தை": 3773,
      "மரு": 3774,
      "தெலு": 3775,
      "திட்டத்தின்": 3776,
      "மரியாத": 3777,
      "##தில": 3778,
      "காட்சி": 3779,
      "சட": 3780,
      "மல": 3781,
      "##ீட்டு": 3782,
      "போட்டிகளில்": 3783,
      "கருணா": 3784,
      "முடிவுகள்": 3785,
      "அங்கிருந்து": 3786,
      "விக்ரமசிங்க": 3787,
      "##ம்பரம்": 3788,
      "டெல்லியில்": 3789,
      "வங்கதேச": 3790,
      "உச்சநீதிமன்ற": 3791,
      "நமக்கு": 3792,
      "அழி": 3793,
      "##த்துள்ளனர்": 3794,
      "##ிருக்கலாம்": 3795,
      "##வரையும்": 3796,
      "நினைவு": 3797,
      "வலியுறுத்த": 3798,
      "என்னுடைய": 3799,
      "##வேளை": 3800,
      "அத்துடன்": 3801,
      "தலைய": 3802,
      "##ஸ்வ": 3803,
      "எனப்": 3804,
      "உள்ளதாக": 3805,
      "வீட்ட": 3806,
      "சட்டத்தின்": 3807,
      "சேர்ந்தவர்": 3808,
      "விசாரணையில்": 3809,
      "ஒற்றை": 3810,
      "கூட்டண": 3811,
      "பழங்கு": 3812,
      "மூலாதாரம்": 3813,
      "அடையாளம்": 3814,
      "உழை": 3815,
      "செய்துக": 3816,
      "பயன்": 3817,
      "##ாய்வு": 3818,
      "##தில்லை": 3819,
      "பேருக்கு": 3820,
      "பிடிக்க": 3821,
      "##வரான": 3822,
      "##முத": 3823,
      "பதிவிட்டு": 3824,
      "ஏழு": 3825,
      "##கால": 3826,
      "##ப்பதற்கான": 3827,
      "ஏற்படுத்தும்": 3828,
      "முன்பாக": 3829,
      "பத்திரிக": 3830,
      "இழு": 3831,
      "##லாளர்": 3832,
      "##க்குழுவ": 3833,
      "##போல்": 3834,
      "கட்சியை": 3835,
      "எண்ணெய்": 3836,
      "படிக்க": 3837,
      "ஒட்டு": 3838,
      "யாக": 3839,
      "ரயில": 3840,
      "செயல்படுத்த": 3841,
      "கிராமத்தில்": 3842,
      "ஆஸ்திரேலிய": 3843,
      "வின்": 3844,
      "##ion": 3845,
      "##பெற்ற": 3846,
      "##ாளர்களின்": 3847,
      "போராட்டத்தில்": 3848,
      "தயாராக": 3849,
      "யாத": 3850,
      "##சரி": 3851,
      "##ப்புக்கு": 3852,
      "##வைத்": 3853,
      "##ையைக்": 3854,
      "கணக்கு": 3855,
      "நடிக": 3856,
      "ஐரோ": 3857,
      "தியாக": 3858,
      "##ேஷ": 3859,
      "மின்சார": 3860,
      "உறவு": 3861,
      "எதிர்பார்": 3862,
      "அல்": 3863,
      "பான": 3864,
      "விடுத்து": 3865,
      "அமலாக்க": 3866,
      "விளக்கம்": 3867,
      "ஜனவரி": 3868,
      "அரசியலில்": 3869,
      "அரசியல": 3870,
      "கட்டண": 3871,
      "உயர்நீதிமன்ற": 3872,
      "வேட்பாளர்": 3873,
      "தர்ம": 3874,
      "உலகம்": 3875,
      "\"\"": 3876,
      "45": 3877,
      "வாரம்": 3878,
      "ஒருங்கிணைப்பாளர்": 3879,
      "டிசம்பர்": 3880,
      "லாப": 3881,
      "##முதல்": 3882,
      "##போதும்": 3883,
      "ஒன்றில்": 3884,
      "தீவிரமாக": 3885,
      "வெளியுறவு": 3886,
      "##த்தான": 3887,
      "இருக்கிறார்கள்": 3888,
      "##சூ": 3889,
      "பொதுவாக": 3890,
      "அணை": 3891,
      "##ப்பன்": 3892,
      "##ையால்": 3893,
      "அறிவித்த": 3894,
      "பெண்களுக்கு": 3895,
      "ஷி": 3896,
      "##ரிமை": 3897,
      "எழுதி": 3898,
      "விநிய": 3899,
      "வைக்கப்பட்ட": 3900,
      "##ஜித்": 3901,
      "வழிபாடு": 3902,
      "சது": 3903,
      "##க்கா": 3904,
      "சாதக": 3905,
      "இவ": 3906,
      "சேர்த்த": 3907,
      "இதனிடையே": 3908,
      "##தொ": 3909,
      "##ியோ": 3910,
      "##ிக்கிழமை": 3911,
      "##ோதே": 3912,
      "குறைக்க": 3913,
      "தோல்வி": 3914,
      "198": 3915,
      "##as": 3916,
      "##ாளைய": 3917,
      "கோரிக்க": 3918,
      "ஆனாலும்": 3919,
      "வைரஸ்": 3920,
      "பெட்ரோல்": 3921,
      "மகள்": 3922,
      "##டனான": 3923,
      "வடக்கு": 3924,
      "சல": 3925,
      "##ண்டே": 3926,
      "பொதுச்செய": 3927,
      "அனைத்தும்": 3928,
      "விசாரணைக்கு": 3929,
      "சாதாரண": 3930,
      "பதவியை": 3931,
      "தொடர்ச்சியாக": 3932,
      "காந்த": 3933,
      "ராஜா": 3934,
      "கண்டுபிடிக்க": 3935,
      "இசை": 3936,
      "அணிக்கு": 3937,
      "அதிரு": 3938,
      "எழுந்தரு": 3939,
      "##ிகளுடன்": 3940,
      "##ச்சார": 3941,
      "போதும்": 3942,
      "##டியான": 3943,
      "ஆரோக்கிய": 3944,
      "எட்ட": 3945,
      "தமது": 3946,
      "##மல்ல": 3947,
      "விண்": 3948,
      "மால": 3949,
      "அவற்றை": 3950,
      "கொடிய": 3951,
      "தொழி": 3952,
      "வழங்கப்பட்டது": 3953,
      "இளைஞர்": 3954,
      "இளம்": 3955,
      "உப": 3956,
      "கடவு": 3957,
      "##ப்பிரம": 3958,
      "தல": 3959,
      "வெப்ப": 3960,
      "வீட்டிற்கு": 3961,
      "அனைவருக்கும்": 3962,
      "ஒன்றிய": 3963,
      "ஊழல்": 3964,
      "சிறி": 3965,
      "சிறும": 3966,
      "கோரி": 3967,
      "இதன்ப": 3968,
      "சென்றனர்": 3969,
      "அதிமுகவில்": 3970,
      "எண்ணிக்க": 3971,
      "##நாயக்க": 3972,
      "பிடித்த": 3973,
      "அலை": 3974,
      "தப்பி": 3975,
      "வல்ல": 3976,
      "##ன்த": 3977,
      "##டுகிறார்": 3978,
      "பணிகளை": 3979,
      "விரும்புக": 3980,
      "விக்கெட்டு": 3981,
      "##மன்": 3982,
      "##ழில்": 3983,
      "##ஞ்": 3984,
      "##க்குமார்": 3985,
      "கொட": 3986,
      "கோட்ட": 3987,
      "என்றாலும்": 3988,
      "சிந்த": 3989,
      "அதிப": 3990,
      "வர்த்தக": 3991,
      "நின்று": 3992,
      "தரும்": 3993,
      "வார்த்தை": 3994,
      "##னையும்": 3995,
      "கொடி": 3996,
      "இடையிலான": 3997,
      "நடவடிக்கைகளை": 3998,
      "அன்பு": 3999,
      "வீதி": 4000,
      "##விட்டனர்": 4001,
      "நகரில்": 4002,
      "வயதான": 4003,
      "இறந்து": 4004,
      "நிரூ": 4005,
      "பாஜகவின்": 4006,
      "எக்ஸ்": 4007,
      "##ண்டில்": 4008,
      "சிபி": 4009,
      "முக்கியத்துவம்": 4010,
      "வீரர்": 4011,
      "மோசடி": 4012,
      "##ஷம்": 4013,
      "##நல": 4014,
      "ஆட்சியை": 4015,
      "ரயில்வே": 4016,
      "திட்டமிட்டு": 4017,
      "##ணன்": 4018,
      "விடுத்த": 4019,
      "குறைவாக": 4020,
      "மனைவ": 4021,
      "மூன்றாவது": 4022,
      "ஓடி": 4023,
      "##ேக்": 4024,
      "மீட்பு": 4025,
      "முடிவுக்கு": 4026,
      "##ெனில்": 4027,
      "அபிஷேகம்": 4028,
      "எதிர்க்கட்சி": 4029,
      "நன்றாக": 4030,
      "சஞ்ச": 4031,
      "##ியிருக்கிறது": 4032,
      "முற்ற": 4033,
      "குண்ட": 4034,
      "அவரிடம்": 4035,
      "வருவது": 4036,
      "##ப்படாத": 4037,
      "கூறுகின்றனர்": 4038,
      "ஜனாதிப": 4039,
      "##ம்ப்": 4040,
      "##ச்செ": 4041,
      "##ிற்கும்": 4042,
      "முடியாமல்": 4043,
      "பாலாஜி": 4044,
      "##ையொட்டி": 4045,
      "செப்டம்பர்": 4046,
      "##துக": 4047,
      "##டித்த": 4048,
      "##ச்சூ": 4049,
      "அவர்கள": 4050,
      "தவிர்க்க": 4051,
      "##மூலம்": 4052,
      "மைதான": 4053,
      "##தோடு": 4054,
      "##பம்": 4055,
      "##ப்பதை": 4056,
      "பெறும்": 4057,
      "தகவல்களை": 4058,
      "கடித": 4059,
      "ட்விட்டர்": 4060,
      "ஆச்ச": 4061,
      "பெயரை": 4062,
      "பொறுத்தவரை": 4063,
      "##ந்தைய": 4064,
      "##ப்பூர்வ": 4065,
      "##ர்கள": 4066,
      "முதன்": 4067,
      "உயிர்": 4068,
      "போலவே": 4069,
      "மருத்துவமனைக்கு": 4070,
      "அரை": 4071,
      "காலி": 4072,
      "##ினோம்": 4073,
      "பயணி": 4074,
      "ஒப்படை": 4075,
      "##ிலி": 4076,
      "##வுக்கும்": 4077,
      "##ல்லா": 4078,
      "சேக": 4079,
      "பிரதான": 4080,
      "அர்": 4081,
      "அஞ்ச": 4082,
      "அமைச்சரவை": 4083,
      "உரிமைய": 4084,
      "நாட்களாக": 4085,
      "தெய்": 4086,
      "சென்றார்": 4087,
      "ஏற்படுத்தியது": 4088,
      "திறந்து": 4089,
      "##ங்கில்": 4090,
      "##தியம்": 4091,
      "th": 4092,
      "ஆத்": 4093,
      "##க்களின்": 4094,
      "##ண்மை": 4095,
      "உயர": 4096,
      "புதிதாக": 4097,
      "##லான": 4098,
      "##லிக்க": 4099,
      "பொருத்த": 4100,
      "பள்ளியில்": 4101,
      "கொஞ்சம்": 4102,
      "ஆசிய": 4103,
      "யானை": 4104,
      "லீ": 4105,
      "##டனும்": 4106,
      "நட்": 4107,
      "அடித்த": 4108,
      "##ழும்பு": 4109,
      "காதல்": 4110,
      "பகவான்": 4111,
      "75": 4112,
      "கூறு": 4113,
      "அதிர்ச்சி": 4114,
      "##களைத்": 4115,
      "வளர்ச்ச": 4116,
      "ஆட்சிக்கு": 4117,
      "நன்மை": 4118,
      "வில்": 4119,
      "##சன": 4120,
      "##ரித்து": 4121,
      "கிடைத்தது": 4122,
      "இலங்கையின்": 4123,
      "முர": 4124,
      "இருந்தனர்": 4125,
      "ராஜஸ்தான்": 4126,
      "எல்லோ": 4127,
      "பயணிகள்": 4128,
      "##நேரம்": 4129,
      "சிக்": 4130,
      "##மாகவே": 4131,
      "மாதத்தில்": 4132,
      "மாணவர்களுக்கு": 4133,
      "நியம": 4134,
      "மையம்": 4135,
      "##il": 4136,
      "சாதனை": 4137,
      "பூஜைகள்": 4138,
      "கடின": 4139,
      "தீர்த்த": 4140,
      "வழக்கை": 4141,
      "##ட்டல்": 4142,
      "திட்டங்கள்": 4143,
      "பெற்றது": 4144,
      "##ாளர்களிடம்": 4145,
      "சிகிச்ச": 4146,
      "வரலாற்று": 4147,
      "வேகமாக": 4148,
      "வருமானம்": 4149,
      "தக": 4150,
      "##ங்குவ": 4151,
      "மாற்றி": 4152,
      "கடந்து": 4153,
      "சுற்ற": 4154,
      "வருகை": 4155,
      "பதிலாக": 4156,
      "....": 4157,
      "கேப்டன்": 4158,
      "##பாக": 4159,
      "மாள": 4160,
      "தொடர": 4161,
      "இதுதான்": 4162,
      "பத்திரிகைய": 4163,
      "அஸ்": 4164,
      "ரன்களை": 4165,
      "##ாசி": 4166,
      "##மழை": 4167,
      "செய்யப்படும்": 4168,
      "கொண்டே": 4169,
      "முன்னர்": 4170,
      "எடுத்துக்": 4171,
      "கொடுக்கும்": 4172,
      "ஆன்லைன்": 4173,
      "##மற்ற": 4174,
      "##க்கர": 4175,
      "பதிவாக": 4176,
      "கதா": 4177,
      "கிறி": 4178,
      "லோக": 4179,
      "##மக": 4180,
      "##வுட்": 4181,
      "சீரிய": 4182,
      "நெடு": 4183,
      "##ப்பிரமணிய": 4184,
      "சவு": 4185,
      "சபை": 4186,
      "பசு": 4187,
      "##ணிக்க": 4188,
      "அண்ணா": 4189,
      "அறை": 4190,
      "இரா": 4191,
      "வன்கொ": 4192,
      "##ணும்": 4193,
      "##வேல்": 4194,
      "முன்னே": 4195,
      "தெரிவித்துள்ளனர்": 4196,
      "கவனி": 4197,
      "அழைப்பு": 4198,
      "மாநகராட்சி": 4199,
      "புனித": 4200,
      "அதிகாலை": 4201,
      "சேலம்": 4202,
      "வாக்குகள்": 4203,
      "சம்பந்தப்பட்ட": 4204,
      "வன்கொடு": 4205,
      "ஏவுக": 4206,
      "##ஸா": 4207,
      "##த்தோடு": 4208,
      "முட": 4209,
      "ராஜின": 4210,
      "##ப்பதில்": 4211,
      "ரஜ": 4212,
      "##ரிட": 4213,
      "தனியாக": 4214,
      "ஒழுங்கு": 4215,
      "ஆஜ": 4216,
      "##பால்": 4217,
      "##ப்போம்": 4218,
      "கொழும்பு": 4219,
      "##ிக்கார": 4220,
      "மிகுந்த": 4221,
      "தெரியவந்தது": 4222,
      "##ed": 4223,
      "##ிருக்கிறோம்": 4224,
      "##ியுள்ளன": 4225,
      "நவம்பர்": 4226,
      "##ுள்ளார்": 4227,
      "##ad": 4228,
      "காலக": 4229,
      "..!": 4230,
      "மீட்டர்": 4231,
      "புகழ்": 4232,
      "என்கிறார்கள்": 4233,
      "##வாரண": 4234,
      "##ாராம்": 4235,
      "பாலி": 4236,
      "##ம்பா": 4237,
      "##வதும்": 4238,
      "##மொத்த": 4239,
      "வலைதளங்களில்": 4240,
      "இறை": 4241,
      "##ெக": 4242,
      "மகளிர்": 4243,
      "குறிப்பிட்டுள்ளார்": 4244,
      "துப்பாக்கி": 4245,
      "க்கு": 4246,
      "##ிறகு": 4247,
      "##ழுது": 4248,
      "வீசிய": 4249,
      "நிவாரண": 4250,
      "வாழ்த்து": 4251,
      "ஊழியர்கள்": 4252,
      "துவங்கியது": 4253,
      "##க்குமா": 4254,
      "செங்க": 4255,
      "குறு": 4256,
      "விசார": 4257,
      "தூக்கி": 4258,
      "நிலையம்": 4259,
      "அச்சு": 4260,
      "##மாகி": 4261,
      "சும": 4262,
      "அடிப்படை": 4263,
      "##ப்பிரிக்க": 4264,
      "முருகன்": 4265,
      "##ரையும்": 4266,
      "##பால": 4267,
      "##த்தட்ட": 4268,
      "அணிய": 4269,
      "##ப்படுவது": 4270,
      "ஒட்டுமொத்த": 4271,
      "ஆப்க": 4272,
      "லக்": 4273,
      "##ரூ": 4274,
      "##ய்ய": 4275,
      "##த்துல": 4276,
      "ராஜப": 4277,
      "செயல்பட": 4278,
      "##சோ": 4279,
      "காட்டி": 4280,
      "மேலாக": 4281,
      "பிற்ப": 4282,
      "##போல": 4283,
      "மாணவர்": 4284,
      "விருப்ப": 4285,
      "சதவீதம்": 4286,
      "குடியரசுத்": 4287,
      "##க்தி": 4288,
      "##்சி": 4289,
      "இந்தியாவுக்கு": 4290,
      "நல்லது": 4291,
      "##செய்த": 4292,
      "படத்தின்": 4293,
      "ஆசிரியர்": 4294,
      "வழக்கறிஞர்": 4295,
      "ராஜினாமா": 4296,
      "ஆக்கிர": 4297,
      "கல்யா": 4298,
      "குதி": 4299,
      "##ன்னா": 4300,
      "என்றே": 4301,
      "இருந்தன": 4302,
      "அப்படியே": 4303,
      "##புறம்": 4304,
      "விக": 4305,
      "கொடுப்ப": 4306,
      "##ட்சிய": 4307,
      "பங்களி": 4308,
      "கீழே": 4309,
      "சினிமா": 4310,
      "கொல்க": 4311,
      "##ையைத்": 4312,
      "நடிகை": 4313,
      "தனிப்பட்ட": 4314,
      "ஒதுக்கீடு": 4315,
      "தடுப்பு": 4316,
      "சாப்பிட": 4317,
      "டொ": 4318,
      "##ஞான": 4319,
      "##ப்பான்": 4320,
      "##த்ரா": 4321,
      "##வரது": 4322,
      "##முள்ள": 4323,
      "2018": 4324,
      "சர்மா": 4325,
      "ஜெய்": 4326,
      "ஆசிரிய": 4327,
      "சௌ": 4328,
      "நன்றி": 4329,
      "பற்ற": 4330,
      "##ர்களிடம்": 4331,
      "எனினும்": 4332,
      "பங்கேற்க": 4333,
      "விதமாக": 4334,
      "வானிலை": 4335,
      "##ளிய": 4336,
      "##த்தொட": 4337,
      "எச்சரிக்கை": 4338,
      "ஆக்கிரமி": 4339,
      "கண்": 4340,
      "ரன்க": 4341,
      "கேம": 4342,
      "காரை": 4343,
      "அறநிலைய": 4344,
      "70": 4345,
      "சற்று": 4346,
      "பாஸ்": 4347,
      "##ம்பரிய": 4348,
      "கேது": 4349,
      "##ிருக்கிற": 4350,
      "நடித்த": 4351,
      "நூற்றா": 4352,
      "மயில": 4353,
      "##ராம": 4354,
      "ஆட்சிய": 4355,
      "##ர்களாக": 4356,
      "##குமார்": 4357,
      "திண்டு": 4358,
      "திரும்பி": 4359,
      "காவல்துறையினர்": 4360,
      "தடுப்பூசி": 4361,
      "வன்கொடுமை": 4362,
      "எத்தனை": 4363,
      "ஜென": 4364,
      "##ேட": 4365,
      "##க்கப்பட்டது": 4366,
      "முழ": 4367,
      "பாரம்பரிய": 4368,
      "பழனிச்ச": 4369,
      "விமர்சனம்": 4370,
      "கிட்டத்தட்ட": 4371,
      "##ஜன்": 4372,
      "##ஸி": 4373,
      "##்த்": 4374,
      "##ிக்காக": 4375,
      "தெரிந்த": 4376,
      "##க்கிழமை": 4377,
      "##வூ": 4378,
      "##தாம்": 4379,
      "##தற்கான": 4380,
      "முடிந்தது": 4381,
      "தெரிவிக்கப்பட்டுள்ளது": 4382,
      "எதிர்கொள்ள": 4383,
      "எதிர்பார்த்த": 4384,
      "ஸ்தான": 4385,
      "நவீன": 4386,
      "##ப்பட்டிருக்கிறது": 4387,
      "இதற்கான": 4388,
      "##புர": 4389,
      "தாண்டி": 4390,
      "மாதங்களுக்கு": 4391,
      "##த்திரம்": 4392,
      "##த்திற்கான": 4393,
      "விசாரிக்க": 4394,
      "சமா": 4395,
      "தங்களுக்கு": 4396,
      "##ீங்க": 4397,
      "நாள்க": 4398,
      "என்பதே": 4399,
      "கூறுகிறது": 4400,
      "ஆயு": 4401,
      "விசாரித்த": 4402,
      "தெளிவாக": 4403,
      "300": 4404,
      "தவி": 4405,
      "##டுப்பு": 4406,
      "சாப்பி": 4407,
      "அகில": 4408,
      "சிவசே": 4409,
      "வசூ": 4410,
      "இளைஞர்கள்": 4411,
      "திடீர்": 4412,
      "தீர்மானம்": 4413,
      "உதயநிதி": 4414,
      "ஆண்": 4415,
      "ஓவர": 4416,
      "நம்ம": 4417,
      "செய்துள்ளார்": 4418,
      "கட்டணம்": 4419,
      "நம்புக": 4420,
      "கள்ளக்குறி": 4421,
      "##க்களுக்கு": 4422,
      "##ந்தனர்": 4423,
      "##ாவ்": 4424,
      "##விரோத": 4425,
      "அங்குள்ள": 4426,
      "##ார்க்": 4427,
      "##ாட்": 4428,
      "##பான": 4429,
      "நாட்ட": 4430,
      "பொங்கல்": 4431,
      "கடற்க": 4432,
      "சாட்ட": 4433,
      "பார்க்கலாம்": 4434,
      "கைப்பற்ற": 4435,
      "நிச்சயம்": 4436,
      "இடி": 4437,
      "கற்ப": 4438,
      "நின்ற": 4439,
      "##சாம": 4440,
      "முதல்வராக": 4441,
      "நொ": 4442,
      "துறையில்": 4443,
      "மருத்துவர்கள்": 4444,
      "##களுடன்": 4445,
      "நான்க": 4446,
      "ஆஃப்": 4447,
      "##வகு": 4448,
      "வாய்ப்புகள்": 4449,
      "##வொரு": 4450,
      "##ரியான": 4451,
      "சமீப": 4452,
      "ரகசிய": 4453,
      "முத்து": 4454,
      "தேச": 4455,
      "பிரிய": 4456,
      "குடும்பத்தினர்": 4457,
      "தவறான": 4458,
      "ஏதாவது": 4459,
      "##ப்பட்டுள்ளதாக": 4460,
      "ஏற்பாடுகளை": 4461,
      "சாலையில்": 4462,
      "##தொடர்": 4463,
      "##சாரம்": 4464,
      "பேரும்": 4465,
      "வாக்குறு": 4466,
      "பந்துவீச்ச": 4467,
      "செயற்கை": 4468,
      "நாட": 4469,
      "##ரியும்": 4470,
      "வைத்தார்": 4471,
      "பெற்றோர்": 4472,
      "வாய்ந்த": 4473,
      "197": 4474,
      "வரலாறு": 4475,
      "80": 4476,
      "உர": 4477,
      "ஓட்ட": 4478,
      "##டிவி": 4479,
      "##ிகளையும்": 4480,
      "##ப்பட்டுள்ளனர்": 4481,
      "இலக்கு": 4482,
      "கட்டாய": 4483,
      "##க்குத்": 4484,
      "##த்துப்": 4485,
      "விஞ்": 4486,
      "அதற்காக": 4487,
      "பொதுச்": 4488,
      "கலவர": 4489,
      "டெஸ்ட்": 4490,
      "உள்பட": 4491,
      "##ேப": 4492,
      "நாணய": 4493,
      "தொடரில்": 4494,
      "செய்துள்ளனர்": 4495,
      "##பூர்வ": 4496,
      "##ட்டார்": 4497,
      "எம்பி": 4498,
      "##ையைச்": 4499,
      "உயர்வு": 4500,
      "முன்னில": 4501,
      "##ரும்பு": 4502,
      "சேத": 4503,
      "நேரு": 4504,
      "##ங்களிடம்": 4505,
      "உதாரண": 4506,
      "நாடுகளின்": 4507,
      "##ப்போகிறது": 4508,
      "அன": 4509,
      "எல": 4510,
      "சூர்": 4511,
      "##தர": 4512,
      "##ிடமிருந்து": 4513,
      "கோப்பை": 4514,
      "இதற்கிடையே": 4515,
      "an": 4516,
      "##வான்": 4517,
      "##மாகவும்": 4518,
      "முடிந்து": 4519,
      "உணர்வு": 4520,
      "தங்கம்": 4521,
      "சொந்தமான": 4522,
      "தொடர்புடைய": 4523,
      "ஃப்": 4524,
      "விகி": 4525,
      "##மடைந்து": 4526,
      "நாம": 4527,
      "தெற்கு": 4528,
      "தொடக்க": 4529,
      "நீங்க": 4530,
      "ஆகி": 4531,
      "##ன்கு": 4532,
      "பிபிசிய": 4533,
      "திருக்கோ": 4534,
      "அக்னி": 4535,
      "##ப்பட்டதாக": 4536,
      "##லுடன்": 4537,
      "##தியும்": 4538,
      "செய்துள்ளது": 4539,
      "##ப்பிரதேச": 4540,
      "நீதிபதிகள்": 4541,
      "எரிப": 4542,
      "பந்த": 4543,
      "##ண்க": 4544,
      "இருக்காது": 4545,
      "நடைபெறுகிறது": 4546,
      "சர்ச்சை": 4547,
      "சதவிகித": 4548,
      "இராஜ": 4549,
      "பத்து": 4550,
      "##ம்மு": 4551,
      "##ங்களுடன்": 4552,
      "சாமி": 4553,
      "வயதில்": 4554,
      "##ப்படுவதாக": 4555,
      "நகர்ப்புற": 4556,
      "அறுவை": 4557,
      "மஞ்ச": 4558,
      "வருகிறோம்": 4559,
      "எழுத": 4560,
      "கண்டறி": 4561,
      "மசூ": 4562,
      "வசிக்கும்": 4563,
      "##தீ": 4564,
      "கோலி": 4565,
      "சேவ": 4566,
      "அறிவியல்": 4567,
      "உலகக்": 4568,
      "பொறுப்ப": 4569,
      "அதிரடி": 4570,
      "சுட்டிக்காட்ட": 4571,
      "ஆற்ற": 4572,
      "##ளையில்": 4573,
      "##பின்": 4574,
      "குரல்": 4575,
      "##ச்சா": 4576,
      "வெல்ல": 4577,
      "##டியின்": 4578,
      "##ியைக்": 4579,
      "முகாம": 4580,
      "தயாரிக்க": 4581,
      "அறிவுறுத்த": 4582,
      "##எம்": 4583,
      "அமைப்பின்": 4584,
      "அதிகபட்ச": 4585,
      "சம்பவங்கள்": 4586,
      "##ல்ஸ்": 4587,
      "##ன்ம": 4588,
      "செயலக": 4589,
      "சுழ": 4590,
      "சுப்பிரமணிய": 4591,
      "உடலை": 4592,
      "தங்களின்": 4593,
      "நிறைவு": 4594,
      "போட்டியிட்ட": 4595,
      "ஆதரவாளர்கள்": 4596,
      "ஏவுகணை": 4597,
      "##ct": 4598,
      "பிரசார": 4599,
      "பிள": 4600,
      "##வாற": 4601,
      "##ங்களைச்": 4602,
      "பெய்ய": 4603,
      "தூத்துக்கு": 4604,
      "##லர்கள்": 4605,
      "காம": 4606,
      "பேரை": 4607,
      "##ாலே": 4608,
      "பயன": 4609,
      "அமைச்சராக": 4610,
      "இருப்பதை": 4611,
      "வேலைவாய்": 4612,
      "குடும்பத்தின": 4613,
      "சிறுமி": 4614,
      "முஸ்லிம்": 4615,
      "ஆப்": 4616,
      "வைத்திய": 4617,
      "முன்னோ": 4618,
      "கூட்டணியில்": 4619,
      "தயார்": 4620,
      "பார்வை": 4621,
      "வார்ட": 4622,
      "மண்டல": 4623,
      "மேம்படுத்த": 4624,
      "##ாளையம்": 4625,
      "பிக்": 4626,
      "ரு": 4627,
      "##ur": 4628,
      "##க்கணி": 4629,
      "##ந்தோ": 4630,
      "சிவா": 4631,
      "திண்டுக்கல்": 4632,
      "ஞான": 4633,
      "##கொண்டு": 4634,
      "##ணர்வு": 4635,
      "போன்று": 4636,
      "இருந்தும்": 4637,
      "சட்டவிரோத": 4638,
      "##ரோடு": 4639,
      "இறக்கு": 4640,
      "கவுன்சில": 4641,
      "யோச": 4642,
      "##ான்ஸ்": 4643,
      "இடையில்": 4644,
      "பரவி": 4645,
      "##விலான": 4646,
      "ரொம்ப": 4647,
      "##யல்": 4648,
      "##ட்டோ": 4649,
      "##மிக்க": 4650,
      "திணை": 4651,
      "உயர்ந்து": 4652,
      "திரைய": 4653,
      "உருவாக்கு": 4654,
      "மட்ட": 4655,
      "##லன்": 4656,
      "##டியா": 4657,
      "சூப்பர்": 4658,
      "நினைத்த": 4659,
      "சிக்கி": 4660,
      "ஆயிரக்கணக்கான": 4661,
      "பெரும்பான்": 4662,
      "புதுச்சேரி": 4663,
      "விண்வெளி": 4664,
      "கற்று": 4665,
      "##ிருப்பு": 4666,
      "மீட்ட": 4667,
      "இடைக்கால": 4668,
      "ரன்": 4669,
      "போன்": 4670,
      "##வர்த்த": 4671,
      "இருப்பதாகவும்": 4672,
      "பாஜகவுக்கு": 4673,
      "செல்வா": 4674,
      "நிறுத்தி": 4675,
      "கம்": 4676,
      "கழு": 4677,
      "முந்தைய": 4678,
      "முடிவெ": 4679,
      "பெரும்பாலும்": 4680,
      "##த்திடம்": 4681,
      "##றித": 4682,
      "##ரியை": 4683,
      "இரட்டை": 4684,
      "##ங்களைத்": 4685,
      "கட்டட": 4686,
      "கட்டுப்படுத்த": 4687,
      "தேர்ந்தெடுக்க": 4688,
      "2017": 4689,
      "##ஸ்க்": 4690,
      "பிரதேசத்தில்": 4691,
      "உள்துறை": 4692,
      "##டோ": 4693,
      "இந்தி": 4694,
      "வெறு": 4695,
      "பொருள்": 4696,
      "ஜனதா": 4697,
      "பீக": 4698,
      "##நாதன்": 4699,
      "உற்சாக": 4700,
      "ஜீ": 4701,
      "ஜாம": 4702,
      "பூர்": 4703,
      "##om": 4704,
      "விழிப்பு": 4705,
      "அமைந்த": 4706,
      "ஆகியவற்றை": 4707,
      "பிராந்திய": 4708,
      "##மீர்": 4709,
      "##வினை": 4710,
      "இதுதொடர்": 4711,
      "##ப்பிடி": 4712,
      "அணிந்து": 4713,
      "தகுதி": 4714,
      "##ர்களால்": 4715,
      "அணியில்": 4716,
      "வெளிப்படுத்த": 4717,
      "ராசிக்கார": 4718,
      "பேசுகையில்": 4719,
      "பருவ": 4720,
      "வர்": 4721,
      "வெளியில்": 4722,
      "##ழிவு": 4723,
      "இயற்கை": 4724,
      "உண்மையில்": 4725,
      "கவி": 4726,
      "வேளா": 4727,
      "சுரங்க": 4728,
      "கொண்டது": 4729,
      "உறுதியாக": 4730,
      "அமெரிக்காவின்": 4731,
      "சக்த": 4732,
      "அறிகு": 4733,
      "அழுத்தம்": 4734,
      "##ப்பால்": 4735,
      "##வைத்து": 4736,
      "அதிகாரம்": 4737,
      "தற்கால": 4738,
      "கிரி": 4739,
      "##த்தள": 4740,
      "பிரசா": 4741,
      "புற்று": 4742,
      "##ியைச்": 4743,
      "கூறியது": 4744,
      "ராஜ்": 4745,
      "நானும்": 4746,
      "அழுத்த": 4747,
      "அனுபவ": 4748,
      "ராசிக்கு": 4749,
      "மண்ண": 4750,
      "##ப்பிரி": 4751,
      "வேற": 4752,
      "##மிழ": 4753,
      "##வதன்": 4754,
      "ஏற்படுத்து": 4755,
      "##க்கியது": 4756,
      "அதுவும்": 4757,
      "கட்சிக்கு": 4758,
      "சார்பாக": 4759,
      "##மீது": 4760,
      "சொன்னார்": 4761,
      "##ing": 4762,
      "ஆத்மி": 4763,
      "##ிடு": 4764,
      "##ளோ": 4765,
      "##னிடம்": 4766,
      "##ol": 4767,
      "##ர்க்": 4768,
      "##ினார்கள்": 4769,
      "புள்ள": 4770,
      "தேர்தலை": 4771,
      "உறுதிய": 4772,
      "பகிர": 4773,
      "இச": 4774,
      "டிக்க": 4775,
      "##பன்": 4776,
      "##ையெல்லாம்": 4777,
      "##ஸ்பெ": 4778,
      "விசேட": 4779,
      "கட்டுமான": 4780,
      "விமானம்": 4781,
      "##க்கொள்": 4782,
      "அண்": 4783,
      "மணிய": 4784,
      "##லங்க": 4785,
      "##ஸுக்கு": 4786,
      "மாறு": 4787,
      "காப்ப": 4788,
      "தென்க": 4789,
      "நாடாளுமன்றத்தில்": 4790,
      "முன்பே": 4791,
      "##ர்களுடன்": 4792,
      "உள்ளட": 4793,
      "##னுடன்": 4794,
      "##முருக": 4795,
      "##ியைத்": 4796,
      "##விட்டதாக": 4797,
      "ராணுவம்": 4798,
      "எதிர்க்கட்சிகள்": 4799,
      "இவ்வளவு": 4800,
      "##ச்சல்": 4801,
      "வழியில்": 4802,
      "வீட்டை": 4803,
      "அறிந்து": 4804,
      "டிஜ": 4805,
      "இலங்கைக்கு": 4806,
      "கோவிலுக்கு": 4807,
      "ஒப்புதல்": 4808,
      "எட்டு": 4809,
      "##ங்குக": 4810,
      "விபத்தில்": 4811,
      "##ளித்தார்": 4812,
      "அந்தத்": 4813,
      "வளர்": 4814,
      "2014": 4815,
      "நியாய": 4816,
      "தேவையில்": 4817,
      "90": 4818,
      "##சீ": 4819,
      "பிரே": 4820,
      "தெரு": 4821,
      "அமைதி": 4822,
      "சந்திப்பு": 4823,
      "கும்பாபிஷேகம்": 4824,
      "இங்கிலாந்து": 4825,
      "சமாஜ்": 4826,
      "##ங்களுக்கும்": 4827,
      "##ரிப்பு": 4828,
      "இந்ந": 4829,
      "துறைமுக": 4830,
      "பிரதிநிதி": 4831,
      "வளாகத்தில்": 4832,
      "மழ": 4833,
      "ராய": 4834,
      "##டையில்": 4835,
      "##ப்பார்": 4836,
      "##ார்ட்": 4837,
      "வருகிற": 4838,
      "அலுவலகம்": 4839,
      "ஈடுபட்டனர்": 4840,
      "ஆராய்ச்சி": 4841,
      "மர்ம": 4842,
      "##பவர்கள்": 4843,
      "வழிக": 4844,
      "தீய": 4845,
      "வெளியிட்டுள்ள": 4846,
      "முன்னிலையில்": 4847,
      "கவர்": 4848,
      "##களுக்கும்": 4849,
      "##மின்": 4850,
      "##மட்டு": 4851,
      "##பான்": 4852,
      "வேலு": 4853,
      "முடிவை": 4854,
      "வந்துள்ளது": 4855,
      "ராமர்": 4856,
      "இணையதள": 4857,
      "கையெழு": 4858,
      "ஆப்கானி": 4859,
      "பேரில்": 4860,
      "அமைந்துள்ளது": 4861,
      "##மாண்ட": 4862,
      "தீபார": 4863,
      "சாம்ப": 4864,
      "ஸ்டாலின": 4865,
      "கொடியேற்ற": 4866,
      "ஊர்": 4867,
      "##பக்ச": 4868,
      "சாம": 4869,
      "லஞ்ச": 4870,
      "##ூப்": 4871,
      "##ர்களுக்கும்": 4872,
      "##வாச": 4873,
      "அறிந்த": 4874,
      "##பாச": 4875,
      "செலுத்தி": 4876,
      "களத்தில்": 4877,
      "##ணாம": 4878,
      "காஞ்சி": 4879,
      "துரை": 4880,
      "கொண்டுவர": 4881,
      "லை": 4882,
      "##கின்றன": 4883,
      "##ரண": 4884,
      "மூட": 4885,
      "##பிடி": 4886,
      "பூம": 4887,
      "அணு": 4888,
      "##ஸ்கர்": 4889,
      "36": 4890,
      "ஏழை": 4891,
      "##லியா": 4892,
      "வகையான": 4893,
      "நேரங்களில்": 4894,
      "வெளியேறி": 4895,
      "தமிழர்": 4896,
      "நபர்கள்": 4897,
      "கள்ளக்குறிச்சி": 4898,
      "பின": 4899,
      "##ay": 4900,
      "##ப்பார்கள்": 4901,
      "##க்குறை": 4902,
      "மேயர்": 4903,
      "ராஜபக்ச": 4904,
      "விய": 4905,
      "##ேஸ்வர": 4906,
      "##தலாக": 4907,
      "முகா": 4908,
      "##ப்புகளை": 4909,
      "தேனி": 4910,
      "பொறிய": 4911,
      "செய்யலாம்": 4912,
      "வெளிப்பட": 4913,
      "படித்து": 4914,
      "மரணம்": 4915,
      "##நாதர்": 4916,
      "எதிர்பார்க்கப்படுகிறது": 4917,
      "ஒலிம்ப": 4918,
      "விநியோக": 4919,
      "##ேந்திர": 4920,
      "##ளிக்கும்": 4921,
      "வாங்கிய": 4922,
      "மரியாதை": 4923,
      "கனி": 4924,
      "பில்லியன்": 4925,
      "நேற்ற": 4926,
      "பொதுக்குழுவ": 4927,
      "உத்தரப்பிரதேச": 4928,
      "ஒப்பந்தம்": 4929,
      "வலியுறுத்தி": 4930,
      "அட்ட": 4931,
      "##ரெ": 4932,
      "##ப்பூ": 4933,
      "##வுள்ளது": 4934,
      "##ாலய": 4935,
      "உதவிய": 4936,
      "தண்ணீ": 4937,
      "பெங்களூ": 4938,
      "ஜான்": 4939,
      "தகு": 4940,
      "விக்கெட்": 4941,
      "##ிட்டல்": 4942,
      "பகுதியாக": 4943,
      "குறைந்து": 4944,
      "##க்கப்பட்டார்": 4945,
      "குழந்தைகளுக்கு": 4946,
      "அதிகரித்துள்ளது": 4947,
      "திறக்க": 4948,
      "இழந்து": 4949,
      "வசித்து": 4950,
      "அதிர்ச்சியை": 4951,
      "##மிக்": 4952,
      "##யின்": 4953,
      "##்களுக்கு": 4954,
      "வென்று": 4955,
      "வந்தால்": 4956,
      "செலுத்து": 4957,
      "ஒற்று": 4958,
      "சிரி": 4959,
      "ஜம்மு": 4960,
      "நாராய": 4961,
      "##ாவள": 4962,
      "எனப்படும்": 4963,
      "தொடர்ந்த": 4964,
      "காலங்களில்": 4965,
      "சுவாம": 4966,
      "பரிசு": 4967,
      "##க்கொள்க": 4968,
      "சிரம": 4969,
      "பவுண்ட": 4970,
      "கமல்": 4971,
      "பாட்ட": 4972,
      "சட்டப்பே": 4973,
      "தோன்ற": 4974,
      "தெரியாது": 4975,
      "அபிஷேக": 4976,
      "##வடை": 4977,
      "##மைக்க": 4978,
      "##ட்சுமி": 4979,
      "தலைநகர்": 4980,
      "மிகப்": 4981,
      "வெள்ளி": 4982,
      "அடைந்து": 4983,
      "##மய": 4984,
      "##வதற்கும்": 4985,
      "இறுதியில்": 4986,
      "செய்தியாளர்களிடம்": 4987,
      "##ண்டா": 4988,
      "அமைத்து": 4989,
      "நீக்க": 4990,
      "முன்னணி": 4991,
      "பெருமை": 4992,
      "ஏற்றுமதி": 4993,
      "ஹிஜ": 4994,
      "##முறையாக": 4995,
      "பட்டியலில்": 4996,
      ").": 4997,
      "##ோக்": 4998,
      "##el": 4999
    }
  }
}