{
  "version": "1.0",
  "truncation": null,
  "padding": null,
  "added_tokens": [
    {
      "id": 10000,
      "content": "[UNK]",
      "single_word": false,
      "lstrip": false,
      "rstrip": false,
      "normalized": false,
      "special": true
    }
  ],
  "normalizer": null,
  "pre_tokenizer": {
    "type": "Sequence",
    "pretokenizers": [
      {
        "type": "Split",
        "pattern": {
          "Regex": "\\p{N}{1,3}| ?[^\\s\\p{L}\\p{N}]{2,}[\\r\\n/]*| +(?!\\S)"
        },
        "behavior": "Isolated",
        "invert": false
      }
    ]
  },
  "post_processor": null,
  "decoder": null,
  "model": {
    "type": "BPE",
    "dropout": null,
    "unk_token": null,
    "continuing_subword_prefix": null,
    "end_of_word_suffix": null,
    "fuse_unk": false,
    "byte_fallback": false,
    "ignore_merges": false,
    "vocab": {
      "\n": 0,
      " ": 1,
      "!": 2,
      "\"": 3,
      "#": 4,
      "$": 5,
      "%": 6,
      "&": 7,
      "'": 8,
      "(": 9,
      ")": 10,
      "*": 11,
      "+": 12,
      ",": 13,
      "-": 14,
      ".": 15,
      "/": 16,
      "0": 17,
      "1": 18,
      "2": 19,
      "3": 20,
      "4": 21,
      "5": 22,
      "6": 23,
      "7": 24,
      "8": 25,
      "9": 26,
      ":": 27,
      ";": 28,
      "<": 29,
      "=": 30,
      ">": 31,
      "?": 32,
      "@": 33,
      "A": 34,
      "B": 35,
      "C": 36,
      "D": 37,
      "E": 38,
      "F": 39,
      "G": 40,
      "H": 41,
      "I": 42,
      "J": 43,
      "K": 44,
      "L": 45,
      "M": 46,
      "N": 47,
      "O": 48,
      "P": 49,
      "Q": 50,
      "R": 51,
      "S": 52,
      "T": 53,
      "U": 54,
      "V": 55,
      "W": 56,
      "X": 57,
      "Y": 58,
      "Z": 59,
      "[": 60,
      "\\": 61,
      "]": 62,
      "^": 63,
      "_": 64,
      "`": 65,
      "a": 66,
      "b": 67,
      "c": 68,
      "d": 69,
      "e": 70,
      "f": 71,
      "g": 72,
      "h": 73,
      "i": 74,
      "j": 75,
      "k": 76,
      "l": 77,
      "m": 78,
      "n": 79,
      "o": 80,
      "p": 81,
      "q": 82,
      "r": 83,
      "s": 84,
      "t": 85,
      "u": 86,
      "v": 87,
      "w": 88,
      "x": 89,
      "y": 90,
      "z": 91,
      "{": 92,
      "}": 93,
      "~": 94,
      "£": 95,
      "§": 96,
      "¨": 97,
      "­": 98,
      "®": 99,
      "°": 100,
      "·": 101,
      "½": 102,
      "Á": 103,
      "×": 104,
      "å": 105,
      "é": 106,
      "í": 107,
      "ñ": 108,
      "ô": 109,
      "õ": 110,
      "ö": 111,
      "÷": 112,
      "ł": 113,
      "ō": 114,
      "š": 115,
      "ʻ": 116,
      "إ": 117,
      "ا": 118,
      "د": 119,
      "ر": 120,
      "س": 121,
      "ل": 122,
      "م": 123,
      "ه": 124,
      "و": 125,
      "ي": 126,
      "ं": 127,
      "अ": 128,
      "आ": 129,
      "इ": 130,
      "ई": 131,
      "उ": 132,
      "ए": 133,
      "औ": 134,
      "क": 135,
      "ख": 136,
      "ग": 137,
      "घ": 138,
      "च": 139,
      "छ": 140,
      "ज": 141,
      "ट": 142,
      "ड": 143,
      "ण": 144,
      "त": 145,
      "थ": 146,
      "द": 147,
      "ध": 148,
      "न": 149,
      "प": 150,
      "फ": 151,
      "ब": 152,
      "भ": 153,
      "म": 154,
      "य": 155,
      "र": 156,
      "ल": 157,
      "व": 158,
      "श": 159,
      "ष": 160,
      "स": 161,
      "ह": 162,
      "़": 163,
      "ा": 164,
      "ि": 165,
      "ी": 166,
      "ु": 167,
      "ू": 168,
      "े": 169,
      "ै": 170,
      "ो": 171,
      "ौ": 172,
      "्": 173,
      "ड़": 174,
      "।": 175,
      "અ": 176,
      "આ": 177,
      "ઉ": 178,
      "ઓ": 179,
      "ક": 180,
      "ખ": 181,
      "જ": 182,
      "ટ": 183,
      "ણ": 184,
      "ત": 185,
      "થ": 186,
      "દ": 187,
      "ન": 188,
      "પ": 189,
      "ફ": 190,
      "ભ": 191,
      "મ": 192,
      "ય": 193,
      "ર": 194,
      "લ": 195,
      "વ": 196,
      "સ": 197,
      "ા": 198,
      "િ": 199,
      "ી": 200,
      "ે": 201,
      "ો": 202,
      "્": 203,
      "ஃ": 204,
      "அ": 205,
      "ஆ": 206,
      "இ": 207,
      "ஈ": 208,
      "உ": 209,
      "ஊ": 210,
      "எ": 211,
      "ஏ": 212,
      "ஐ": 213,
      "ஒ": 214,
      "ஓ": 215,
      "ஔ": 216,
      "க": 217,
      "ங": 218,
      "ச": 219,
      "ஜ": 220,
      "ஞ": 221,
      "ட": 222,
      "ண": 223,
      "த": 224,
      "ந": 225,
      "ன": 226,
      "ப": 227,
      "ம": 228,
      "ய": 229,
      "ர": 230,
      "ற": 231,
      "ல": 232,
      "ள": 233,
      "ழ": 234,
      "வ": 235,
      "ஶ": 236,
      "ஷ": 237,
      "ஸ": 238,
      "ஹ": 239,
      "ா": 240,
      "ி": 241,
      "ீ": 242,
      "ு": 243,
      "ூ": 244,
      "ெ": 245,
      "ே": 246,
      "ை": 247,
      "ொ": 248,
      "ோ": 249,
      "ௌ": 250,
      "்": 251,
      "௦": 252,
      "௧": 253,
      "௨": 254,
      "௩": 255,
      "௫": 256,
      "௬": 257,
      "௭": 258,
      "௹": 259,
      "‌": 260,
      "‍": 261,
      "‎": 262,
      "‛": 263,
      "‟": 264,
      "•": 265,
      "″": 266,
      "⁠": 267,
      "₂": 268,
      "€": 269,
      "₹": 270,
      "℅": 271,
      "⏩": 272,
      "●": 273,
      "◾": 274,
      "★": 275,
      "❔": 276,
      "⦁": 277,
      "": 278,
      "": 279,
      "": 280,
      "": 281,
      "": 282,
      "": 283,
      "": 284,
      "�": 285,
      "👇": 286,
      "💥": 287,
      "😂": 288,
      "😊": 289,
      "😐": 290,
      "😲": 291,
      "🛩": 292,
      "் ": 293,
      "்க": 294,
      "்த": 295,
      "ு ": 296,
      "்ப": 297,
      "க்க": 298,
      "்ட": 299,
      "ம் ": 300,
      "ில": 301,
      "த்த": 302,
      ".\n": 303,
      "ிய": 304,
      "ந்த": 305,
      "ை ": 306,
      "ப்ப": 307,
      "ரு": 308,
      "ட்ட": 309,
      "்ற": 310,
      "ில் ": 311,
      "ார": 312,
      "ும் ": 313,
      "ி ": 314,
      "ன் ": 315,
      "்கள": 316,
      "ைய": 317,
      "வி": 318,
      "்.\n": 319,
      "ாக": 320,
      "தி": 321,
      "்ச": 322,
      "ர் ": 323,
      "ிற": 324,
      " ப": 325,
      "மு": 326,
      "ன்ற": 327,
      "ள்": 328,
      "்,": 329,
      "கள": 330,
      "ல் ": 331,
      "து ": 332,
      "டு": 333,
      "ள்ள": 334,
      "ண்ட": 335,
      "ான": 336,
      "ற்ற": 337,
      " க": 338,
      "ங்க": 339,
      "ு.\n": 340,
      "செ": 341,
      "ும": 342,
      " அ": 343,
      "ிர": 344,
      "ுக்க": 345,
      "வர": 346,
      " வ": 347,
      " ம": 348,
      " ந": 349,
      "ின் ": 350,
      "ல்": 351,
      "ிக்க": 352,
      "் க": 353,
      "ங்கள": 354,
      "் ப": 355,
      "ன்": 356,
      " இ": 357,
      " த": 358,
      "ால": 359,
      " ச": 360,
      "கு": 361,
      "ருக்க": 362,
      "செய": 363,
      "ுள்ள": 364,
      "ுவ": 365,
      "ாத": 366,
      "ன்ன": 367,
      "ப்பட்ட": 368,
      "ின": 369,
      "ர்": 370,
      "ருந்த": 371,
      "என": 372,
      "ித்த": 373,
      "் த": 374,
      "ல்ல": 375,
      "ு வ": 376,
      "ம்ப": 377,
      "ு ப": 378,
      "ாள": 379,
      "என்ற": 380,
      "ச்ச": 381,
      "ாவ": 382,
      "ுக": 383,
      "ரி": 384,
      "ப் ப": 385,
      "இந்த": 386,
      "த்தில் ": 387,
      "ாம": 388,
      "ாட": 389,
      "ு க": 390,
      "ால் ": 391,
      "ிக": 392,
      "டுத்த": 393,
      "ர்கள": 394,
      "ற்க": 395,
      "ிட": 396,
      "ாய": 397,
      "ைக்க": 398,
      "நட": 399,
      " ஆ": 400,
      "ு அ": 401,
      "ுத": 402,
      "ையில் ": 403,
      "தே": 404,
      "வே": 405,
      " மு": 406,
      "ாட்ட": 407,
      " உ": 408,
      "பெ": 409,
      "போ": 410,
      "ுற": 411,
      "ு,": 412,
      "ான் ": 413,
      "்வ": 414,
      "னர": 415,
      "வர் ": 416,
      "ற்ப": 417,
      "ிறத": 418,
      "ுக்கு ": 419,
      "ிப்ப": 420,
      "வர்கள": 421,
      "ுகள": 422,
      "ிகள": 423,
      "ொட": 424,
      "இத": 425,
      "் ச": 426,
      "ைத்த": 427,
      "டிய": 428,
      "ைகள": 429,
      "க் க": 430,
      "மா": 431,
      "மாக": 432,
      "்ய": 433,
      "ொண்ட": 434,
      "ரச": 435,
      "மே": 436,
      "ேர": 437,
      "ட்ச": 438,
      "ுட": 439,
      " வி": 440,
      "லை": 441,
      "ிவ": 442,
      "தாக": 443,
      "நில": 444,
      "ை அ": 445,
      "உள்ள": 446,
      "ிழ": 447,
      "ு த": 448,
      "த் த": 449,
      " வே": 450,
      "ிறார": 451,
      "வெ": 452,
      "மை": 453,
      "செய்த": 454,
      "திர": 455,
      "மான": 456,
      "்ல": 457,
      "ாக்க": 458,
      "ப்பட": 459,
      "ரிய": 460,
      "ிட்ட": 461,
      "ற்றும் ": 462,
      "ருக": 463,
      "ஒர": 464,
      "தி ": 465,
      "ரா": 466,
      "்.": 467,
      "அத": 468,
      "ிருந்த": 469,
      "ியில் ": 470,
      "ு ம": 471,
      "்த்த": 472,
      "திக": 473,
      "ுள்ளத": 474,
      "ை க": 475,
      "ண்": 476,
      "ூற": 477,
      "ுத்த": 478,
      "ு ச": 479,
      " எ": 480,
      "குற": 481,
      "ின்ற": 482,
      "ு ந": 483,
      "் ம": 484,
      "ுப்ப": 485,
      "்ர": 486,
      "் அ": 487,
      "வில": 488,
      "ிருக்க": 489,
      "ரும் ": 490,
      " வேண்ட": 491,
      "ர்ந்த": 492,
      "ை ப": 493,
      "இருந்த": 494,
      "செய்ய": 495,
      "ெரி": 496,
      "ித": 497,
      "ம்": 498,
      "திரு": 499,
      "ி,": 500,
      "ை த": 501,
      "ையில": 502,
      "ர்ப": 503,
      "மிழ": 504,
      "ண்ண": 505,
      "வித்த": 506,
      "ேச": 507,
      "ையும் ": 508,
      "விட்ட": 509,
      "க்கள": 510,
      "முத": 511,
      "ி வ": 512,
      "பி": 513,
      " என்ற": 514,
      "என்ப": 515,
      "ை ம": 516,
      "ன்ப": 517,
      "ன.\n": 518,
      "ோத": 519,
      "ுர": 520,
      "ாங்க": 521,
      "தற்க": 522,
      "முக": 523,
      "்க்க": 524,
      "ம் க": 525,
      "ஏற்ப": 526,
      "ோது ": 527,
      "ரவ": 528,
      "ச் ச": 529,
      "நீ": 530,
      "மூ": 531,
      "ர்வ": 532,
      "ை வ": 533,
      "20": 534,
      "ை ச": 535,
      "ருவ": 536,
      "ும் அ": 537,
      "ிற்க": 538,
      "்ச்ச": 539,
      "ி ப": 540,
      "ும் ப": 541,
      "ாரண": 542,
      "ருப்ப": 543,
      "ி க": 544,
      "ப்படு": 545,
      " ர": 546,
      "ருத்த": 547,
      "ு இ": 548,
      "ைவ": 549,
      "ை.\n": 550,
      "ுடன் ": 551,
      "..\n": 552,
      "ாண": 553,
      "ஆன": 554,
      "மீ": 555,
      " நில": 556,
      " இந்த": 557,
      "ோட": 558,
      "ில் ப": 559,
      "ும் க": 560,
      "ியாக": 561,
      "த்தின் ": 562,
      "ார் ": 563,
      "ங்கள் ": 564,
      "ைப் ப": 565,
      "டை": 566,
      "ை ந": 567,
      "ி அ": 568,
      "ாச": 569,
      "ாம் ": 570,
      "?\n": 571,
      "ஸ்ட": 572,
      "வீ": 573,
      "மைச்ச": 574,
      "ெரிவித்த": 575,
      "வின் ": 576,
      "டந்த": 577,
      "தொட": 578,
      "டுக்க": 579,
      "ை எ": 580,
      "வெள": 581,
      "றி": 582,
      "ுள்ளார": 583,
      "வில்ல": 584,
      " அரச": 585,
      "கவ": 586,
      "ஞ்ச": 587,
      "்\"": 588,
      "இந்திய": 589,
      "முற": 590,
      "பெற்ற": 591,
      "ாதி": 592,
      "ைக் க": 593,
      "ூட்ட": 594,
      "ழங்க": 595,
      "ரிக்க": 596,
      "ேன": 597,
      "இருக்க": 598,
      "டிக்க": 599,
      "ெய": 600,
      "ுப் ப": 601,
      "ு எ": 602,
      "மைய": 603,
      "ர் க": 604,
      "ி.": 605,
      "ு வி": 606,
      "ுழ": 607,
      "மன": 608,
      "ம் ப": 609,
      "ஸ் ": 610,
      "ாஜ": 611,
      "ூட": 612,
      "ொழ": 613,
      "த்திய": 614,
      "ழக்க": 615,
      "ைப்ப": 616,
      "ர் ப": 617,
      "ங்களில் ": 618,
      "டுகள": 619,
      "ீர": 620,
      "ோட்ட": 621,
      "ல்வ": 622,
      "ி த": 623,
      "ுப": 624,
      "ினார": 625,
      "ியின் ": 626,
      "த்திற்க": 627,
      "ராஜ": 628,
      " பிர": 629,
      "லக": 630,
      "்ந": 631,
      "ைத் த": 632,
      "ு வருக": 633,
      " மா": 634,
      "ோம": 635,
      "ை,": 636,
      "ப்பட்டத": 637,
      "டைய": 638,
      "ுக் க": 639,
      "ி ம": 640,
      "மேல": 641,
      "ொள்ள": 642,
      "ோய": 643,
      "ிப": 644,
      "ம் அ": 645,
      "00": 646,
      "ோ": 647,
      "ச் ": 648,
      "ோர": 649,
      "ந்தத": 650,
      "திமுக": 651,
      "ஆண்ட": 652,
      "ஆக": 653,
      "க்கிய": 654,
      "ை உ": 655,
      "ில் க": 656,
      "ாப்ப": 657,
      "வும் ": 658,
      "்ப்ப": 659,
      "குறித்த": 660,
      "ோக": 661,
      " என": 662,
      "ூர": 663,
      "!\n": 664,
      "ளவ": 665,
      "இது ": 666,
      "சென்ற": 667,
      "ாளர்கள": 668,
      "ு மு": 669,
      " வேண்டும": 670,
      "கர": 671,
      "ார்த்த": 672,
      "விக்க": 673,
      " முடிய": 674,
      "பிர": 675,
      "ு உ": 676,
      "செயல": 677,
      "ேற்ற": 678,
      "ர் ம": 679,
      " \"": 680,
      "டி": 681,
      "ாக இ": 682,
      " பெ": 683,
      "வச": 684,
      "ாப": 685,
      " ஜ": 686,
      "ேட்ட": 687,
      "விட": 688,
      "ஸ்த": 689,
      "திய": 690,
      "திகள": 691,
      "ொரு": 692,
      "நடை": 693,
      "ப்படுக": 694,
      "தன": 695,
      "லீ": 696,
      "ந்திர": 697,
      "ும் ச": 698,
      "ாவட்ட": 699,
      "்கள் ": 700,
      "ும் என்ற": 701,
      "தவ": 702,
      "ி ச": 703,
      "விர": 704,
      "தமிழ": 705,
      "லில் ": 706,
      "ியத": 707,
      "ியல் ": 708,
      "ெள": 709,
      "ின்றனர": 710,
      "ும் இ": 711,
      "தேச": 712,
      "சென்ன": 713,
      "திட்ட": 714,
      "அந்த": 715,
      "ொர": 716,
      " உள்ள": 717,
      "ிறுவ": 718,
      " ஒ": 719,
      "வ்வ": 720,
      "ாடுகள": 721,
      "து": 722,
      "டிவ": 723,
      "ரப்ப": 724,
      "ேர்ந்த": 725,
      "ி ந": 726,
      "த்தை ": 727,
      "ுள": 728,
      "ாழ": 729,
      "நடத்த": 730,
      "லங்க": 731,
      "ட்டும": 732,
      "ெரிய": 733,
      "திகார": 734,
      "ுற்ற": 735,
      "ாமல் ": 736,
      "என்ன": 737,
      "ன் க": 738,
      "ொல": 739,
      " ஒர": 740,
      "முன்ன": 741,
      "த்தில": 742,
      "செல": 743,
      "ு வந்த": 744,
      "ைச் ச": 745,
      "ஸ்": 746,
      "ாந்த": 747,
      "ர் ச": 748,
      "ம்ம": 749,
      "என்பத": 750,
      "ாட்ச": 751,
      "ை இ": 752,
      "ர் அ": 753,
      "உட": 754,
      "ரண்ட": 755,
      "ம் த": 756,
      "இதன": 757,
      "்..\n": 758,
      "எதிர": 759,
      "தம": 760,
      "ா ": 761,
      "ோவ": 762,
      "மெ": 763,
      "ிகழ": 764,
      "ிறுவன": 765,
      "ில் ச": 766,
      "ேய": 767,
      "ும்ப": 768,
      "ணிய": 769,
      "ொல்ல": 770,
      "வக": 771,
      "ில் அ": 772,
      "ொ": 773,
      "ு ஆ": 774,
      "ைந்த": 775,
      "மைப்ப": 776,
      "மன்ற": 777,
      "ம் தே": 778,
      "ப்போது ": 779,
      "ோன": 780,
      " ட": 781,
      "ிச": 782,
      "பட": 783,
      "ா,": 784,
      "ில்ல": 785,
      "ிச்ச": 786,
      "்ன": 787,
      "யிர": 788,
      "ீன": 789,
      "றுப்ப": 790,
      "ு.": 791,
      "ாஜக": 792,
      " இட": 793,
      "ரும": 794,
      "ப்பட்டுள்ளத": 795,
      "பெற": 796,
      "ாவின் ": 797,
      "ும் த": 798,
      "ை வி": 799,
      "சார": 800,
      "் ந": 801,
      " முத": 802,
      "ிறக": 803,
      "ெல்ல": 804,
      " ஆண்ட": 805,
      "ேக": 806,
      " நட": 807,
      "ராக": 808,
      "ுள்ளனர": 809,
      "ுல": 810,
      "ஒரு": 811,
      "குறிப்ப": 812,
      "ூல": 813,
      "ிறார்கள": 814,
      "ுதிய": 815,
      "ஆனால் ": 816,
      "லாம": 817,
      "த்திர": 818,
      "வேற": 819,
      "க்த": 820,
      "் வ": 821,
      "முதல் ": 822,
      "ஒன்ற": 823,
      "ேவ": 824,
      "ுவத": 825,
      "ஸ்ர": 826,
      "ேசிய": 827,
      "ோச": 828,
      "ார்க்க": 829,
      "ிறப்ப": 830,
      "ப்படுகிறத": 831,
      "வெளிய": 832,
      "ம் ஆண்ட": 833,
      "் மற்றும் ": 834,
      "ார்கள": 835,
      "என்பது ": 836,
      "ஆனால": 837,
      "ேட": 838,
      "ம் வ": 839,
      "ம் ம": 840,
      "மேற்க": 841,
      "ின் ப": 842,
      "ாங்கிர": 843,
      "ும் ந": 844,
      "ாதுக": 845,
      "ேல": 846,
      "் இ": 847,
      "ா க": 848,
      "ின்றன.\n": 849,
      "திக்க": 850,
      "வடிக்க": 851,
      "ான ப": 852,
      "ெற்ற": 853,
      "ுத் த": 854,
      "ருத்துவ": 855,
      "ுந": 856,
      "ீட்ட": 857,
      "ொருள": 858,
      "ஃப": 859,
      "நாட்ட": 860,
      "ின் க": 861,
      "202": 862,
      "்:": 863,
      "ஆகிய": 864,
      "ணிக்க": 865,
      "ல் க": 866,
      "நடந்த": 867,
      "ஆர": 868,
      "தொடர்ப": 869,
      "ாவில் ": 870,
      "ேர்த": 871,
      "து க": 872,
      "ா ப": 873,
      "யார": 874,
      "பல": 875,
      "்\n": 876,
      " ல": 877,
      "து அ": 878,
      "ழு": 879,
      "ர்ச்ச": 880,
      " நீ": 881,
      "ரும்ப": 882,
      "டித்த": 883,
      " இருக்க": 884,
      "ாற": 885,
      "ூப": 886,
      "ினர": 887,
      "ாதார": 888,
      "ர்ப்ப": 889,
      "ளித்த": 890,
      "எஸ": 891,
      "ாண்ட": 892,
      "ும் என": 893,
      "செல்ல": 894,
      "திவ": 895,
      "ணவ": 896,
      "்ந்த": 897,
      "ையாக": 898,
      "ம் ச": 899,
      "திமன்ற": 900,
      "தான": 901,
      "ரிச": 902,
      "தின": 903,
      "து ப": 904,
      "செய்யப்பட்ட": 905,
      " பே": 906,
      "ிக் க": 907,
      "ென": 908,
      "..": 909,
      "மர": 910,
      "குத": 911,
      "மாற்ற": 912,
      "த்துக்க": 913,
      "ு கொண்ட": 914,
      " வர": 915,
      "ணி ": 916,
      "ர்த": 917,
      "மூல": 918,
      "ு செய்த": 919,
      "உள்ளத": 920,
      "ிங": 921,
      " தலை": 922,
      "ுவிட்ட": 923,
      "ஏற்பட்ட": 924,
      "ொத": 925,
      "ாற்ற": 926,
      "ய்வ": 927,
      "ற்போது ": 928,
      "ல்கள": 929,
      " அன": 930,
      "ற்ச": 931,
      "ம் தேதி ": 932,
      "கடந்த": 933,
      "ாதுகாப்ப": 934,
      "ீட": 935,
      "னை ": 936,
      "மண": 937,
      "ிகள் ": 938,
      "ள்வ": 939,
      "டும்ப": 940,
      "டைந்த": 941,
      "டுப்ப": 942,
      "ஏற்படுத்த": 943,
      "ோல": 944,
      "தலை": 945,
      "ொடுத்த": 946,
      "ெட": 947,
      "விழ": 948,
      " தமிழ": 949,
      "திப": 950,
      "சாரண": 951,
      " மக்கள": 952,
      "ூறுக": 953,
      "்தான் ": 954,
      "யண": 955,
      "குழ": 956,
      "வர்கள் ": 957,
      "10": 958,
      "யன்ப": 959,
      "வும": 960,
      "மாநில": 961,
      "்ஸ": 962,
      "வன": 963,
      "மூக": 964,
      "ின்ன": 965,
      "ிருக்கிறத": 966,
      " கால": 967,
      "டுவ": 968,
      "ேஷ": 969,
      "ண்கள": 970,
      "ொடர்ந்த": 971,
      "மிக": 972,
      "19": 973,
      "இன்ற": 974,
      "ம்பவ": 975,
      "ிருப்ப": 976,
      "ர்கள் ": 977,
      "து என்ற": 978,
      "இல்ல": 979,
      " இந்திய": 980,
      "இதற்க": 981,
      "ணைய": 982,
      "ஆத": 983,
      "ுவர": 984,
      " நிலையில": 985,
      "டிப்ப": 986,
      "ட்டிய": 987,
      "போன்ற": 988,
      "டுக": 989,
      "ி வருக": 990,
      " ஏ": 991,
      " அந்த": 992,
      "ாய்ப்ப": 993,
      "ிந்த": 994,
      "டி ": 995,
      "ருட": 996,
      "மெரிக்க": 997,
      " பல": 998,
      "ைகள் ": 999,
      "ிருக்கிறார": 1000,
      "போத": 1001,
      "ுண": 1002,
      "ிம": 1003,
      "து ச": 1004,
      " நாட": 1005,
      "ோக்க": 1006,
      " ஓ": 1007,
      "இட": 1008,
      "அவர் ": 1009,
      "ட்சிய": 1010,
      "நாட": 1011,
      " திரு": 1012,
      "ளிக்க": 1013,
      "ில் இருந்த": 1014,
      "லந்த": 1015,
      "அரச": 1016,
      "ிடம் ": 1017,
      "ாளர் ": 1018,
      "நடைபெற்ற": 1019,
      "தான் ": 1020,
      "ிங்க": 1021,
      "ன் ப": 1022,
      "்கிறார": 1023,
      "ுகள் ": 1024,
      "ிள": 1025,
      "அவ": 1026,
      "ழக": 1027,
      "ாக ப": 1028,
      "ாங்கிரஸ": 1029,
      "ுக்கு ப": 1030,
      "செயல்ப": 1031,
      "ு\"": 1032,
      "ிர்வ": 1033,
      "வின": 1034,
      "ுக்கு அ": 1035,
      "ூறிய": 1036,
      "ான க": 1037,
      "ும் வ": 1038,
      "மல": 1039,
      "ா?\n": 1040,
      "த்தில் ப": 1041,
      "நாய": 1042,
      "ணக்க": 1043,
      "ீழ": 1044,
      "ு வருகிறத": 1045,
      " மாநில": 1046,
      "மக்கள": 1047,
      "உள்ளிட்ட": 1048,
      "ையின் ": 1049,
      "்!\n": 1050,
      "ல்வேற": 1051,
      "யன்படுத்த": 1052,
      "ெட்ட": 1053,
      "விள": 1054,
      "அவர": 1055,
      "ே க": 1056,
      "ங்களுக்கு ": 1057,
      " மற்றும் ": 1058,
      "ொடங்க": 1059,
      "இருப்ப": 1060,
      "றிய": 1061,
      " நிலையில் ": 1062,
      " ஊ": 1063,
      " இருந்த": 1064,
      "ொடர்ப": 1065,
      "ி.\n": 1066,
      "தீ": 1067,
      "ொழில": 1068,
      "ா த": 1069,
      "ே,": 1070,
      "ம்\n": 1071,
      "ுன": 1072,
      "வேல": 1073,
      " ய": 1074,
      "தேர்த": 1075,
      "குதியில் ": 1076,
      "ிலிருந்த": 1077,
      "201": 1078,
      "ாரணமாக": 1079,
      "ு\n": 1080,
      " சில": 1081,
      "ாவது ": 1082,
      "மக": 1083,
      "ூழ": 1084,
      "யக்க": 1085,
      "ே ப": 1086,
      "திப்ப": 1087,
      "சில": 1088,
      "அவர்கள": 1089,
      "ி எ": 1090,
      "ெளிய": 1091,
      "ஷ்ய": 1092,
      "டுப": 1093,
      "றிக்க": 1094,
      "ை:": 1095,
      "ாக க": 1096,
      "போல": 1097,
      "லுவ": 1098,
      "டப்ப": 1099,
      "குதிகள": 1100,
      "ல்வர் ": 1101,
      "ரித்த": 1102,
      " `": 1103,
      "ுச் ": 1104,
      "செய்வ": 1105,
      "ுடைய": 1106,
      " அவர": 1107,
      "ைச் சேர்ந்த": 1108,
      "த் ": 1109,
      "ிலும் ": 1110,
      "பர": 1111,
      "ிடைக்க": 1112,
      " வேண்டும் என்ற": 1113,
      "்நில": 1114,
      "ிரிய": 1115,
      "ை என்ற": 1116,
      "ன்கள": 1117,
      "ொள": 1118,
      "ிகழ்ச்ச": 1119,
      "இற": 1120,
      "ாதிக்க": 1121,
      "்'": 1122,
      "ொத்த": 1123,
      "முழ": 1124,
      "ில் த": 1125,
      "ுறிப்ப": 1126,
      "ுவதற்க": 1127,
      "ையை ": 1128,
      "ாவல": 1129,
      "ல் ப": 1130,
      "மைச்சர் ": 1131,
      "ம் செய்த": 1132,
      " தன": 1133,
      "அதே": 1134,
      "்ம": 1135,
      " வழக்க": 1136,
      " அத": 1137,
      " ஹ": 1138,
      "இதனால் ": 1139,
      "தால் ": 1140,
      "க்ர": 1141,
      "வீட்ட": 1142,
      "வெற்ற": 1143,
      "ிர்வாக": 1144,
      "ாமல": 1145,
      "நாள": 1146,
      "ப்பட்டுள்ள": 1147,
      "ஸ்க": 1148,
      "ெரிவித்தார": 1149,
      " சட்ட": 1150,
      "ின்ப": 1151,
      "வற்ற": 1152,
      "திற": 1153,
      "ராண": 1154,
      "ிராம": 1155,
      "ோவில": 1156,
      "டும": 1157,
      "அதற்க": 1158,
      " நேர": 1159,
      "ோப": 1160,
      "நிலைய": 1161,
      "ுதான் ": 1162,
      "முக்கிய": 1163,
      "இரண்ட": 1164,
      "ாளும": 1165,
      "த்தில் க": 1166,
      "ின் அ": 1167,
      "ஸ்டால": 1168,
      "ில் வ": 1169,
      "்நாட்ட": 1170,
      "நீதிமன்ற": 1171,
      "ாளுமன்ற": 1172,
      "நான் ": 1173,
      "மைக்க": 1174,
      "ப்படுத்த": 1175,
      "ஜன": 1176,
      "ிருந்தார": 1177,
      "டப்பாட": 1178,
      "ூறினார": 1179,
      "வர் க": 1180,
      "மற்றும் ": 1181,
      "யர": 1182,
      "ேயே": 1183,
      "இந": 1184,
      "ப்படி ": 1185,
      "நடைபெற": 1186,
      "ீத": 1187,
      "்துற": 1188,
      "ு..\n": 1189,
      "எந்த": 1190,
      "சிய": 1191,
      "ோர் ": 1192,
      "ங்களுக்க": 1193,
      "தமிழக": 1194,
      "தில": 1195,
      "துர": 1196,
      "ிஸ்த": 1197,
      " கு": 1198,
      "ங்கள் க": 1199,
      "ில் உள்ள": 1200,
      "ூடிய": 1201,
      "ஈடுப": 1202,
      "ுறுத்த": 1203,
      " ஆண்டுகள": 1204,
      "ுமார் ": 1205,
      "ிறுத்த": 1206,
      "ட்ப": 1207,
      "்?\n": 1208,
      " வய": 1209,
      "ுகிறத": 1210,
      "ராம": 1211,
      "ாக அ": 1212,
      "ா.": 1213,
      "டுத": 1214,
      "யற்ச": 1215,
      "க்தர்கள": 1216,
      "ுக்கள": 1217,
      "ூர் ": 1218,
      "ம் ந": 1219,
      " முடியாத": 1220,
      "ாதிப": 1221,
      "ாக இருந்த": 1222,
      "ு வர": 1223,
      "ாக ": 1224,
      "ுமார": 1225,
      " தீ": 1226,
      "ஷ்": 1227,
      "ொடுக்க": 1228,
      "அன": 1229,
      "மை ": 1230,
      "ையே": 1231,
      "ிறேன": 1232,
      "ியுள்ளத": 1233,
      "திகாரிகள": 1234,
      "ருத": 1235,
      "செலுத்த": 1236,
      "அதன": 1237,
      "நி": 1238,
      "ாலை ": 1239,
      "ான ": 1240,
      "ையடுத்த": 1241,
      "ோன்ற": 1242,
      " மன": 1243,
      "லீஸ": 1244,
      "ப்போத": 1245,
      " ஆக": 1246,
      " எதிர": 1247,
      " கட": 1248,
      "ஷ்ட": 1249,
      "ொருளாதார": 1250,
      "ித் த": 1251,
      "ன் ச": 1252,
      "து த": 1253,
      "ூபாய": 1254,
      "வேண்ட": 1255,
      "ாத்த": 1256,
      "ு செய்ய": 1257,
      "அங்க": 1258,
      "நாயக": 1259,
      "நடவடிக்க": 1260,
      "ைப்பட": 1261,
      "்நாட": 1262,
      "ருவாக்க": 1263,
      "விகள": 1264,
      "ழன": 1265,
      "மாண": 1266,
      "ூஜ": 1267,
      "செல்வ": 1268,
      "ில் ந": 1269,
      "பின்ன": 1270,
      "முடிவ": 1271,
      " முற": 1272,
      "தாக க": 1273,
      "ழுத்த": 1274,
      "து என": 1275,
      "்\",": 1276,
      "வது ": 1277,
      "ிறந்த": 1278,
      "ெக": 1279,
      "றிவ": 1280,
      "ெரிவிக்க": 1281,
      "நடக்க": 1282,
      ", ": 1283,
      "தேவ": 1284,
      "ாக்குத": 1285,
      "வகார": 1286,
      "ருமான": 1287,
      "ுடன": 1288,
      "ு எதிர": 1289,
      " மாண": 1290,
      "ூ.": 1291,
      "30": 1292,
      "ல் அ": 1293,
      "ு இருக்க": 1294,
      " மாத": 1295,
      " அளவ": 1296,
      " தகவ": 1297,
      "இலங்க": 1298,
      "ராணுவ": 1299,
      "ருத்துவமன": 1300,
      "ிறோம": 1301,
      "வசாய": 1302,
      "ஒரு ப": 1303,
      "உற": 1304,
      "ொரோன": 1305,
      "துவ": 1306,
      "முன்ப": 1307,
      "ராச": 1308,
      "ன் அ": 1309,
      "முதல": 1310,
      "ான ச": 1311,
      "ப்படும": 1312,
      " நடவடிக்க": 1313,
      "ா ந": 1314,
      "மய": 1315,
      "ழுந்த": 1316,
      "இந்நில": 1317,
      "ினர் ": 1318,
      "த்தர": 1319,
      "மேலும": 1320,
      "துக்க": 1321,
      "உலக": 1322,
      "ொன்ன": 1323,
      "ஏற்ற": 1324,
      "வழக்க": 1325,
      " தேர்த": 1326,
      " லட்ச": 1327,
      "தொடர்ந்த": 1328,
      "வருக்க": 1329,
      " ஆர": 1330,
      "ால் ப": 1331,
      "த்துடன் ": 1332,
      "ந்தித்த": 1333,
      "ார்ப": 1334,
      "குழந்த": 1335,
      "ட்டுப்ப": 1336,
      "ங்கிய": 1337,
      "ொள்க": 1338,
      "ளை": 1339,
      "னுப்ப": 1340,
      "ே ": 1341,
      "ஜய": 1342,
      "டக": 1343,
      "ியை ": 1344,
      "ா ம": 1345,
      "ோயில": 1346,
      "15": 1347,
      "குற்ற": 1348,
      "ர்ம": 1349,
      "ார்ட": 1350,
      "குடும்ப": 1351,
      " வீ": 1352,
      "மர்ச": 1353,
      " நாடுகள": 1354,
      "ம்பிக்க": 1355,
      "ம் எ": 1356,
      "ா ச": 1357,
      "ஸ்வர": 1358,
      "ணிகள": 1359,
      "நகர": 1360,
      "ங்களை ": 1361,
      "ிடித்த": 1362,
      "ாதிப்ப": 1363,
      "ஷய": 1364,
      "ுக்கொண்ட": 1365,
      "வித": 1366,
      "ிவிட்ட": 1367,
      "ஸ்ல": 1368,
      "லாம் ": 1369,
      "ஸ்ப": 1370,
      " குழ": 1371,
      "12": 1372,
      "நேர": 1373,
      "மும் ": 1374,
      "நடந்தத": 1375,
      " வெ": 1376,
      "தற்போது ": 1377,
      " அறி": 1378,
      " முன்ன": 1379,
      "ுரி": 1380,
      "மாற": 1381,
      " பட": 1382,
      "ஈடுபட்ட": 1383,
      "லிய": 1384,
      "ஆள": 1385,
      "ிருந்தத": 1386,
      "ு பிர": 1387,
      "ரண": 1388,
      "ைக": 1389,
      "ிகிச்ச": 1390,
      "ுக் கொண்ட": 1391,
      " அவர்கள": 1392,
      " உள்ளத": 1393,
      "கிர": 1394,
      "ஒரு ": 1395,
      "ையும": 1396,
      "விற்க": 1397,
      "ல் த": 1398,
      "ையான": 1399,
      " நாள": 1400,
      "ாக இருக்க": 1401,
      "யா": 1402,
      "லை ": 1403,
      "ீண்ட": 1404,
      "ஆம் ஆண்ட": 1405,
      "ு வரும் ": 1406,
      " என்றார": 1407,
      "ச்ன": 1408,
      "ஆதரவ": 1409,
      "கட": 1410,
      "திருமண": 1411,
      "ரே": 1412,
      "ழைத்த": 1413,
      "ிப் ப": 1414,
      "அப்போது ": 1415,
      "ுட்ட": 1416,
      "ட்டுமே": 1417,
      "எல்ல": 1418,
      "ஜெய": 1419,
      "ி வி": 1420,
      "ஷேக": 1421,
      "ம் என்ற": 1422,
      "வரை ": 1423,
      "ரத்த": 1424,
      "யிற": 1425,
      "ரஷ்ய": 1426,
      "ும் ம": 1427,
      "்-": 1428,
      " அவர் ": 1429,
      "ரிவ": 1430,
      "்...\n": 1431,
      "ுகொண்ட": 1432,
      " அமைச்ச": 1433,
      " ஜன": 1434,
      "ாகன": 1435,
      "லைவர் ": 1436,
      "ம் மற்றும் ": 1437,
      "ர் ந": 1438,
      "லைக்க": 1439,
      "கால": 1440,
      "த்துற": 1441,
      "ன்ம": 1442,
      "ேற": 1443,
      "ெல": 1444,
      "ை வழங்க": 1445,
      "குறிப்பிட்ட": 1446,
      "ைது ": 1447,
      "ிண": 1448,
      "ாலும": 1449,
      "த்தில் ச": 1450,
      "இண": 1451,
      "ெற": 1452,
      " மணிக்க": 1453,
      " போ": 1454,
      "ின் ச": 1455,
      "ல்லது ": 1456,
      "ொள்வ": 1457,
      " இரண்ட": 1458,
      "ாவல்துற": 1459,
      "பார": 1460,
      "முதல்வர் ": 1461,
      " கோட": 1462,
      "த்துக்கு ": 1463,
      "டிப்பட": 1464,
      "ு வெளிய": 1465,
      "வந்த": 1466,
      "ுவாம": 1467,
      "ட்சிகள": 1468,
      "ங்கள் ப": 1469,
      "ியல": 1470,
      "பெய": 1471,
      "டெல்ல": 1472,
      " வேண்டிய": 1473,
      "ஸ்ரீ": 1474,
      "கார": 1475,
      "வாழ": 1476,
      "போது ": 1477,
      "ணியில் ": 1478,
      "ழிய": 1479,
      "போர": 1480,
      " மூ": 1481,
      "ுச் ச": 1482,
      "யில": 1483,
      "ி உ": 1484,
      "ுறித்த": 1485,
      " முடியும": 1486,
      "நாத": 1487,
      "குப்ப": 1488,
      "இங்க": 1489,
      "ா அ": 1490,
      " வந்த": 1491,
      "ர் த": 1492,
      "போட்ட": 1493,
      "ு அரச": 1494,
      "ி ஆ": 1495,
      "ு வழங்க": 1496,
      "50": 1497,
      "ட்சியின் ": 1498,
      "ி:": 1499,
      "விப்ப": 1500,
      "11": 1501,
      "திகரித்த": 1502,
      "ிரு": 1503,
      "ையாட": 1504,
      "ின் த": 1505,
      "ில் ம": 1506,
      "ுகார": 1507,
      "ையில் ப": 1508,
      " கூட்ட": 1509,
      " பொ": 1510,
      "ை செய்த": 1511,
      "டக்க": 1512,
      " உட": 1513,
      "ப்படுவ": 1514,
      "ழுப்ப": 1515,
      "டுமைய": 1516,
      "வைத்த": 1517,
      "வள": 1518,
      "டியாக": 1519,
      "ெருக்க": 1520,
      "வெளியிட்ட": 1521,
      "ோராட்ட": 1522,
      ".க": 1523,
      "ொந்த": 1524,
      " முதல் ": 1525,
      " சத": 1526,
      " திட்ட": 1527,
      " கே": 1528,
      "ிடைத்த": 1529,
      "ன் த": 1530,
      "ன்று ": 1531,
      "குதிய": 1532,
      " சம்பவ": 1533,
      "டப்பாடி ப": 1534,
      "பிஷேக": 1535,
      "றுத்த": 1536,
      " வக": 1537,
      "றுப்பின": 1538,
      "மீது ": 1539,
      "குறிப்பிட": 1540,
      "ிரம": 1541,
      "ை ஆ": 1542,
      "ுள்ளன.\n": 1543,
      "ஏற்க": 1544,
      "ியம": 1545,
      " நிறுவன": 1546,
      " ஐ": 1547,
      "200": 1548,
      "ான்க": 1549,
      "இன்ன": 1550,
      " நாட்கள": 1551,
      "000": 1552,
      " '": 1553,
      "லுவலக": 1554,
      "ோப்ப": 1555,
      "திரும்ப": 1556,
      "எம": 1557,
      " வைத்த": 1558,
      "டப்பாடி பழன": 1559,
      "தாகவும் ": 1560,
      "ெரிவித்துள்ளார": 1561,
      "ரிட": 1562,
      "ுக்கு எதிர": 1563,
      " செ": 1564,
      " மண": 1565,
      "ண்டன": 1566,
      "ு மற்றும் ": 1567,
      "யிரிழ": 1568,
      " -": 1569,
      "ாள் ": 1570,
      "ட்சி ": 1571,
      "ொருட": 1572,
      "பத்த": 1573,
      "ற்றிய": 1574,
      "இர": 1575,
      " முடிவ": 1576,
      "ாதிபதி ": 1577,
      "ப்படும் ": 1578,
      "ண்க": 1579,
      "ிகழ்வ": 1580,
      "ாகிஸ்த": 1581,
      "ால் க": 1582,
      "ுவது ": 1583,
      "ேச்ச": 1584,
      "ாதம் ": 1585,
      "எல": 1586,
      "விசாரண": 1587,
      "ுக்கும் ": 1588,
      "ிடம் ப": 1589,
      "ாஸ": 1590,
      "இது": 1591,
      "an": 1592,
      "ேர்வ": 1593,
      "ஒவ்வ": 1594,
      "ே.": 1595,
      "ஒப்ப": 1596,
      "ுச்ச": 1597,
      "ுப் பிறக": 1598,
      " சிற": 1599,
      "ை நடத்த": 1600,
      "தேசிய": 1601,
      "ை எதிர": 1602,
      "ும் வக": 1603,
      "இதையடுத்த": 1604,
      "ளைஞ": 1605,
      "லோச": 1606,
      " வேண்டும் என": 1607,
      "பெரிய": 1608,
      "லைய": 1609,
      "ாலும் ": 1610,
      " வாய்ப்ப": 1611,
      "் மீ": 1612,
      "ல் ச": 1613,
      "ு வருவ": 1614,
      "ிஷ": 1615,
      "ர்த்த": 1616,
      "ைர": 1617,
      "ப் பிர": 1618,
      "ாரிய": 1619,
      " ``": 1620,
      "த்தக்க": 1621,
      " வாக்க": 1622,
      "புர": 1623,
      "ைக்கப்பட்ட": 1624,
      "ையில் க": 1625,
      "ு சென்ற": 1626,
      "ருள": 1627,
      "்ஜ": 1628,
      "நேற்ற": 1629,
      "ிடிக்க": 1630,
      " உற": 1631,
      "ி மற்றும் ": 1632,
      "ுக்கான": 1633,
      "ப்படிய": 1634,
      "ாக ந": 1635,
      " கட்ட": 1636,
      "ால் அ": 1637,
      " தொ": 1638,
      " விள": 1639,
      " ராஜ": 1640,
      "ப்ட": 1641,
      "ரங்க": 1642,
      "ுமதி ": 1643,
      "தவிய": 1644,
      "ூறப்படுகிறத": 1645,
      "இப்போது ": 1646,
      " பாஜக": 1647,
      "ங்கள் த": 1648,
      "பிரதம": 1649,
      "ானத": 1650,
      "மேலும் ": 1651,
      "ை என": 1652,
      "ை எடுக்க": 1653,
      "மீண்ட": 1654,
      "ண்ம": 1655,
      "எண்ண": 1656,
      "ஜ.க": 1657,
      "ரக": 1658,
      "பிச": 1659,
      "ுக்கு க": 1660,
      "ாம்ப": 1661,
      "யிற்ச": 1662,
      "திருப்ப": 1663,
      "இந்த ப": 1664,
      "மற்ற": 1665,
      "இதில் ": 1666,
      "மேற்ப": 1667,
      "த்திய அரச": 1668,
      "ண்ப": 1669,
      "ு இருந்த": 1670,
      "ல்க": 1671,
      "ை\n": 1672,
      "ாதன": 1673,
      "ு வருகின்றனர": 1674,
      " செய்த": 1675,
      " இல்ல": 1676,
      "தால": 1677,
      "ான் க": 1678,
      "ையில் ச": 1679,
      "ுதி": 1680,
      "த்தில் அ": 1681,
      "னைத்த": 1682,
      "ழிப": 1683,
      " தமிழக": 1684,
      " என்கிறார": 1685,
      "வு": 1686,
      "த்தின": 1687,
      "ர்வதேச": 1688,
      "ென்ற": 1689,
      "ை\"": 1690,
      "18": 1691,
      "ீச": 1692,
      "ருண": 1693,
      "ுள் ": 1694,
      "வழங்க": 1695,
      "ொட்ட": 1696,
      "ம் செய்ய": 1697,
      "நா": 1698,
      "ோரிக்க": 1699,
      "ை ஏற்படுத்த": 1700,
      "குதி ": 1701,
      "நக": 1702,
      "ஷ்ண": 1703,
      "ுய": 1704,
      "வெளியாக": 1705,
      "ிறை": 1706,
      "திட": 1707,
      "்ள": 1708,
      "கடந்த ": 1709,
      "ை சேர்ந்த": 1710,
      ".ப": 1711,
      "இந்த வி": 1712,
      " வள": 1713,
      "டியோ": 1714,
      " என்று க": 1715,
      "தித்த": 1716,
      "த்தில் உள்ள": 1717,
      "ையில் அ": 1718,
      "மேற்கொண்ட": 1719,
      "ுள்ளதாக": 1720,
      "இருக்கிறத": 1721,
      "வர்களுக்கு ": 1722,
      "எடுத்த": 1723,
      " அனைத்த": 1724,
      " மாற்ற": 1725,
      "எனக்க": 1726,
      "ிசாம": 1727,
      "ஏற்பட": 1728,
      "ரிப்ப": 1729,
      "ோ,": 1730,
      "வ்வாற": 1731,
      "வும் அ": 1732,
      "தள": 1733,
      "த்தை அ": 1734,
      "ை எடுத்த": 1735,
      "ிரிக்க": 1736,
      "ாங்கிரஸ் க": 1737,
      "ின்றன": 1738,
      "ூறுகிறார": 1739,
      "ம் உ": 1740,
      " முக்கிய": 1741,
      "வேற்ற": 1742,
      "மற": 1743,
      "ை வைத்த": 1744,
      "ங்களின் ": 1745,
      "ூரிய": 1746,
      "ுச் சென்ற": 1747,
      "ார்வ": 1748,
      "ை மற்றும் ": 1749,
      "ர்மான": 1750,
      "ேர்த்த": 1751,
      "ெல்லாம் ": 1752,
      "கைய": 1753,
      "14": 1754,
      "ாக,": 1755,
      "ு நீ": 1756,
      "ங்கள் அ": 1757,
      "னிய": 1758,
      "து ந": 1759,
      "மான ப": 1760,
      "தில் ": 1761,
      "்)": 1762,
      " மாவட்ட": 1763,
      "ும் உ": 1764,
      "ரப": 1765,
      " உலக": 1766,
      " பிரதம": 1767,
      " மே": 1768,
      "சப": 1769,
      "ீவ": 1770,
      "வ்வளவ": 1771,
      "த்தில் இருந்த": 1772,
      "ு ர": 1773,
      "பெரும் ": 1774,
      "மேற்கொள்ள": 1775,
      "in": 1776,
      "வேக": 1777,
      "டங்க": 1778,
      "க்ரை": 1779,
      "டந்த ": 1780,
      "லக்க": 1781,
      "ி\n": 1782,
      "ொருட்கள": 1783,
      "ுமக்கள": 1784,
      "ுட்ப": 1785,
      "தாகக் க": 1786,
      "ீர்கள": 1787,
      "்கிற": 1788,
      "டிந்த": 1789,
      "ாகவே": 1790,
      "அதன்ப": 1791,
      "ு தெரிவித்த": 1792,
      "மீப": 1793,
      "இந்தியாவ": 1794,
      "ி வந்த": 1795,
      " பிறக": 1796,
      "ருங்க": 1797,
      "ண்ணாமல": 1798,
      "ுவி": 1799,
      "ே த": 1800,
      "்;": 1801,
      "திர்ச்ச": 1802,
      "செலவ": 1803,
      "ொறுப்ப": 1804,
      "ழிவ": 1805,
      "வார": 1806,
      "யங்க": 1807,
      "ுச": 1808,
      "ப்ர": 1809,
      "ாகப் ப": 1810,
      "ரசிக": 1811,
      " வாழ": 1812,
      " ஆயிர": 1813,
      "ெடுக்க": 1814,
      "றிவித்த": 1815,
      "ஆம் தேதி ": 1816,
      "ியாளர்கள": 1817,
      "தனது ": 1818,
      "தேர்தல் ": 1819,
      "ாளர": 1820,
      "திகரிக்க": 1821,
      "ஸ் ப": 1822,
      " உய": 1823,
      "ைத் தொடர்ந்த": 1824,
      "ஒரு க": 1825,
      "ுங்க": 1826,
      "டப்பாடி பழனிசாம": 1827,
      " ரன்கள": 1828,
      "றிந்த": 1829,
      "அதிமுக": 1830,
      "ை உருவாக்க": 1831,
      "ிடம் க": 1832,
      "...\n": 1833,
      "றுத": 1834,
      "ின் உ": 1835,
      "ில் வி": 1836,
      "ன் ம": 1837,
      "ும் இல்ல": 1838,
      "லா": 1839,
      "ன் மூல": 1840,
      "ுக்கு ச": 1841,
      "ட்ர": 1842,
      "்பட": 1843,
      "e ": 1844,
      "க்கும் ": 1845,
      "ட்சிக்க": 1846,
      "ம் குறித்த": 1847,
      "தற்கான": 1848,
      "ாக்ட": 1849,
      " வீர": 1850,
      "ம்பர": 1851,
      "பிஎ": 1852,
      "்ஷ": 1853,
      "வரும் ": 1854,
      "மைத்த": 1855,
      "ாதிக்கப்பட்ட": 1856,
      "ோஷ": 1857,
      "வல": 1858,
      "ொதுமக்கள": 1859,
      "தமிழ்நாட்ட": 1860,
      "ழுத": 1861,
      "ா.\n": 1862,
      "ேத": 1863,
      "ு?\n": 1864,
      "ூக்க": 1865,
      "யிரிழந்த": 1866,
      "ை மு": 1867,
      "மிட்ட": 1868,
      "்தான": 1869,
      "ி பெற்ற": 1870,
      " சந்த": 1871,
      "16": 1872,
      "ாக த": 1873,
      "திகமாக": 1874,
      "ிக்கப்பட்ட": 1875,
      "இந்த நிலையில": 1876,
      "சிரிய": 1877,
      "மைந்த": 1878,
      "ம்ச": 1879,
      " பேர": 1880,
      "மேற்பட்ட": 1881,
      "த்தை க": 1882,
      "ன்ட": 1883,
      "ிருஷ்ண": 1884,
      "ன்க": 1885,
      "ி இ": 1886,
      "ுக்கு வ": 1887,
      "13": 1888,
      "இந்தப் ப": 1889,
      "ி உள்ள": 1890,
      "ணிப்ப": 1891,
      "குர": 1892,
      " சமூக": 1893,
      "இதுவர": 1894,
      "ேன் ": 1895,
      "கா": 1896,
      "ி வருகிறத": 1897,
      " ஆகிய": 1898,
      "தாகவும": 1899,
      "் பிர": 1900,
      "லியுறுத்த": 1901,
      "ு உள்ள": 1902,
      "ரூபாய": 1903,
      " அண": 1904,
      "ஸ்ரே": 1905,
      "ுநர் ": 1906,
      " நாட்ட": 1907,
      " விஷய": 1908,
      "ால் ச": 1909,
      " முயற்ச": 1910,
      "இது தொடர்ப": 1911,
      "ிங் ": 1912,
      "ர்கள் க": 1913,
      "றக்க": 1914,
      " அதிமுக": 1915,
      " உணவ": 1916,
      "ுக்கொள்ள": 1917,
      "25": 1918,
      "பால": 1919,
      "வும் க": 1920,
      "ையும் க": 1921,
      "ாவிட": 1922,
      "ஒவ்வொர": 1923,
      " அங்க": 1924,
      " சூழ": 1925,
      "ல்கள் ": 1926,
      "நடத்திய": 1927,
      " நீதிமன்ற": 1928,
      "மூன்ற": 1929,
      "er": 1930,
      " (": 1931,
      "ுகிறார": 1932,
      "லைம": 1933,
      "அது ": 1934,
      "ியூ": 1935,
      "ூர்வ": 1936,
      "தொடங்க": 1937,
      "ி உள்ளத": 1938,
      "நடைபெற்றத": 1939,
      "ொதுக்க": 1940,
      "ு:": 1941,
      " தின": 1942,
      "தெ": 1943,
      "ஒருவர் ": 1944,
      " என்ன": 1945,
      " குற்ற": 1946,
      "ட்சியில் ": 1947,
      "ுரிய": 1948,
      "ின் ந": 1949,
      "வை ": 1950,
      "ு அவர் ": 1951,
      "குறிப்பிடத்தக்க": 1952,
      "ிடைய": 1953,
      "ார்ப்ப": 1954,
      " விழ": 1955,
      "லைக்கழக": 1956,
      "தரவ": 1957,
      "உடன": 1958,
      "ூத": 1959,
      "ரிம": 1960,
      "பேச": 1961,
      "ச்சாட்ட": 1962,
      "த்தின் க": 1963,
      "முறைய": 1964,
      "ி நேர": 1965,
      "முழுவத": 1966,
      "நிதி ": 1967,
      "ை அமைச்ச": 1968,
      "பாஜக": 1969,
      "17": 1970,
      "ீச்ச": 1971,
      " நிர்வாக": 1972,
      "ான த": 1973,
      "ம் என": 1974,
      "100": 1975,
      "24": 1976,
      "மனைவ": 1977,
      " அமைப்ப": 1978,
      " இலங்க": 1979,
      "ொன்ற": 1980,
      "உய": 1981,
      "மடைந்த": 1982,
      "ும் ஆ": 1983,
      "ஏன": 1984,
      "ர்நாட": 1985,
      "பெண்கள": 1986,
      "டைச": 1987,
      "போலீஸ": 1988,
      " வேல": 1989,
      " இடங்களில் ": 1990,
      "கட்ட": 1991,
      "சிக": 1992,
      "ிழ்ச்ச": 1993,
      "த்துவ": 1994,
      "வற": 1995,
      "ாய் ": 1996,
      "ாய்ச்ச": 1997,
      "திரைப்பட": 1998,
      "ைகளை ": 1999,
      " பெண": 2000,
      "ிறது ": 2001,
      "ம்பர் ": 2002,
      " அரசியல் ": 2003,
      "வாக்க": 2004,
      "ிழக்க": 2005,
      "ாஜகவ": 2006,
      "ோதன": 2007,
      "ப்த": 2008,
      "சிற": 2009,
      "்ரா": 2010,
      "லட்ச": 2011,
      "at": 2012,
      "வாத": 2013,
      "ரின் ": 2014,
      "ைப": 2015,
      "முறையாக": 2016,
      "ூச": 2017,
      "்‌": 2018,
      "ல்வர": 2019,
      " ஆள": 2020,
      "ு இட": 2021,
      "ிலும": 2022,
      "இந்த நிலையில் ": 2023,
      "ஸ்திர": 2024,
      "ஒதுக்க": 2025,
      "பிஎஸ": 2026,
      " சென்ன": 2027,
      "எனவே": 2028,
      "ுகளில் ": 2029,
      "ி வைத்த": 2030,
      "தில்ல": 2031,
      "ங்கே": 2032,
      " வெற்ற": 2033,
      "சாத": 2034,
      "ின்": 2035,
      "ொக": 2036,
      "வர்களின் ": 2037,
      "அடுத்த": 2038,
      " பால": 2039,
      "ஒருவர": 2040,
      "ிக் கொண்ட": 2041,
      "வீத": 2042,
      "தய": 2043,
      "ல்ப": 2044,
      "ிடம": 2045,
      "விக": 2046,
      "வென்ற": 2047,
      "வெள்ள": 2048,
      "ைக் கொண்ட": 2049,
      "க்கூடிய": 2050,
      "ம் இ": 2051,
      "இந்நிலையில் ": 2052,
      "போலீ": 2053,
      "த்தைப் ப": 2054,
      "மது ": 2055,
      "ேலிய": 2056,
      " செயல": 2057,
      " வெளிய": 2058,
      "தமிழ்நாட": 2059,
      "ேட்க": 2060,
      "ரில் ": 2061,
      "வண": 2062,
      "ார்க": 2063,
      "் குறித்த": 2064,
      " நிகழ்ச்ச": 2065,
      "ாக ச": 2066,
      " மக": 2067,
      "ருவரும் ": 2068,
      " குழந்த": 2069,
      "ும் எ": 2070,
      "த்தில் த": 2071,
      "க்கூட": 2072,
      "ில்லிய": 2073,
      "ோடிய": 2074,
      "ஒரு ச": 2075,
      "ு கொள்ள": 2076,
      " விரும்ப": 2077,
      "ருக்கு ": 2078,
      "ாவத": 2079,
      "னது ": 2080,
      "ிருந்தனர": 2081,
      "த்தையும் ": 2082,
      "பெரும்ப": 2083,
      "ையில் இருந்த": 2084,
      "த்தை த": 2085,
      " விசாரண": 2086,
      "ஸ்தான": 2087,
      "வில்லை என்ற": 2088,
      "குறைந்த": 2089,
      "விய": 2090,
      "என்று க": 2091,
      "ழைப்ப": 2092,
      "ேரள": 2093,
      "ாது என்ற": 2094,
      "ஒரே": 2095,
      "ாமிய": 2096,
      "ும்போது ": 2097,
      "போட்டிய": 2098,
      "ரைய": 2099,
      "்செ": 2100,
      "ுகாதார": 2101,
      "வேட்ப": 2102,
      "த்தியில் ": 2103,
      "ுமாற": 2104,
      "த்தரவ": 2105,
      "ிஸ்ட": 2106,
      "ாளிகள": 2107,
      "ஸ்வ": 2108,
      "ும் இட": 2109,
      "ாங்கிரஸ் ": 2110,
      "ாக்கல் ": 2111,
      "ிதிய": 2112,
      " என்று ": 2113,
      "ேள்வ": 2114,
      "னைவ": 2115,
      "த்தை ப": 2116,
      "லைவ": 2117,
      "ிறைவேற்ற": 2118,
      "ாடு ": 2119,
      "ர்களின் ": 2120,
      "டையாள": 2121,
      "குடிய": 2122,
      "ீர் ": 2123,
      "ுமதிக்க": 2124,
      "ைக்கு ": 2125,
      "ுதந்திர": 2126,
      " கருத்த": 2127,
      "சட்ட": 2128,
      "ு முழ": 2129,
      "டிச": 2130,
      " இர": 2131,
      "் மூல": 2132,
      "டிர": 2133,
      " ரூபாய": 2134,
      "இது குறித்த": 2135,
      " அமெரிக்க": 2136,
      "ொற்ற": 2137,
      "னம": 2138,
      "ிலேயே": 2139,
      "ை கொண்ட": 2140,
      "சீன": 2141,
      "ந்துவ": 2142,
      "ர்ஜ": 2143,
      "விஜய": 2144,
      "on": 2145,
      "வெளி": 2146,
      " தி": 2147,
      "ந்தர": 2148,
      "ரிந்த": 2149,
      "குறிப்பிடத்தக்கத": 2150,
      "வும் ப": 2151,
      "்ஸ் ": 2152,
      "போராட்ட": 2153,
      "லித": 2154,
      " நப": 2155,
      "ங்களில் ப": 2156,
      "ு பெ": 2157,
      " எம": 2158,
      "ோள": 2159,
      "40": 2160,
      "ினைவ": 2161,
      "ி மாவட்ட": 2162,
      "படக்க": 2163,
      " தொழில": 2164,
      "ு மக்கள": 2165,
      "ு பல": 2166,
      "அமெரிக்க": 2167,
      "மத": 2168,
      "ண்டுப": 2169,
      " ஆம் ஆண்ட": 2170,
      "ைவிட": 2171,
      "அதன் ": 2172,
      " பேர் ": 2173,
      "s ": 2174,
      "ர்\n": 2175,
      " முதல்வர் ": 2176,
      "ி செய்ய": 2177,
      "ு கால": 2178,
      "ு வருகிறார": 2179,
      "ியான": 2180,
      " வெள": 2181,
      "ு விட்ட": 2182,
      "ு\",": 2183,
      "ு (": 2184,
      "ல்\n": 2185,
      "ஜனாதிபதி ": 2186,
      "நடிக": 2187,
      " காரண": 2188,
      "ல்ய": 2189,
      "ிழம": 2190,
      "படக்குறிப்ப": 2191,
      "ாகும": 2192,
      "தற்காக": 2193,
      "ஸ்டாலின": 2194,
      "ண்காண": 2195,
      "ுகளை ": 2196,
      "ராள": 2197,
      "ில் ஆ": 2198,
      " பல்வேற": 2199,
      "இந்தக் க": 2200,
      "ொதுக்குழ": 2201,
      "நல்ல": 2202,
      "ழைக்க": 2203,
      "ர்நாடக": 2204,
      "23": 2205,
      " அறிக்க": 2206,
      "ச்சின": 2207,
      "ு நாட": 2208,
      "ப்பட்டன.\n": 2209,
      "ரிகள": 2210,
      "டெ": 2211,
      "்நுட்ப": 2212,
      " தலைவர் ": 2213,
      "ிடையே": 2214,
      "த்தன": 2215,
      " பண": 2216,
      " போத": 2217,
      "ைச் ": 2218,
      "ாளராக": 2219,
      "ு ஆண்ட": 2220,
      " இருப்ப": 2221,
      "ித்தார": 2222,
      "்பார்க்க": 2223,
      "ியுள்ள": 2224,
      " பெண்கள": 2225,
      " ஒன்ற": 2226,
      "ாரர்கள": 2227,
      "வரி ": 2228,
      "ருகே": 2229,
      "கவன": 2230,
      "ட்டுமல்ல": 2231,
      "இணைந்த": 2232,
      " வழ": 2233,
      "இந்தியா": 2234,
      "் ஆ": 2235,
      "ல் ம": 2236,
      "மாணவர்கள": 2237,
      "-ம் ஆண்ட": 2238,
      "டன": 2239,
      " வார": 2240,
      "மித": 2241,
      "லாற்ற": 2242,
      "ாத்திர": 2243,
      "ூர் ம": 2244,
      "ுக்குப் ப": 2245,
      "ினைத்த": 2246,
      " போட்ட": 2247,
      "ிக்கொண்ட": 2248,
      "நிறுவன": 2249,
      "்சார": 2250,
      " ஆன": 2251,
      "ான் ப": 2252,
      "ற்போத": 2253,
      "ாகக் க": 2254,
      " எண்ண": 2255,
      "ை செய்ய": 2256,
      "சால": 2257,
      "ூற்ற": 2258,
      "்விட்ட": 2259,
      "ு முன்ப": 2260,
      " செய": 2261,
      "ங்கில": 2262,
      "ன்னீர": 2263,
      "ுல் க": 2264,
      "ு ஏற்பட்ட": 2265,
      " அதிகார": 2266,
      " உறுப்பின": 2267,
      " எல்ல": 2268,
      " ஆய்வ": 2269,
      "ஆரம்ப": 2270,
      "பக": 2271,
      "ar": 2272,
      " வீட்ட": 2273,
      "குள": 2274,
      "சிங்க": 2275,
      "ு ஏ": 2276,
      "ூடுத": 2277,
      "22": 2278,
      "நெ": 2279,
      "ு!\n": 2280,
      "லந்து கொண்ட": 2281,
      "ு தமிழ": 2282,
      "வெளிப்ப": 2283,
      "நல": 2284,
      "ச்சார": 2285,
      " இத": 2286,
      "டைகள": 2287,
      "ன்னுடைய": 2288,
      " எந்த": 2289,
      "ிண்ட": 2290,
      "ீவிர": 2291,
      "ு அந்த": 2292,
      "ிலோ": 2293,
      "ி இருக்க": 2294,
      " பார": 2295,
      "வசாயிகள": 2296,
      "ெடுத்த": 2297,
      "விளக்க": 2298,
      "ுடன் க": 2299,
      "ு முன்ன": 2300,
      "ுரிந்த": 2301,
      "சாம": 2302,
      "ார்கள் ": 2303,
      "யோக": 2304,
      "்கால": 2305,
      "ு இந்த": 2306,
      "ம்மா": 2307,
      "பொ": 2308,
      "இருப்பின": 2309,
      "ாக ம": 2310,
      "ள்\n": 2311,
      "ினால் ": 2312,
      "மாக க": 2313,
      "ிதி ": 2314,
      "ுதான": 2315,
      "உள்ளன.\n": 2316,
      "ருடைய": 2317,
      "ேஸ்வர": 2318,
      "ட்டும் ": 2319,
      "முன்னிட்ட": 2320,
      "ு செல்ல": 2321,
      "முயற்ச": 2322,
      "டையே": 2323,
      "த் தொடங்க": 2324,
      "ரிசன": 2325,
      "் பல": 2326,
      "்செல்வ": 2327,
      "ில் இ": 2328,
      "ெரிந்த": 2329,
      " பாதுகாப்ப": 2330,
      "ோர்ட": 2331,
      " வருட": 2332,
      "ம் தொடர்ப": 2333,
      "வேள": 2334,
      "த் திட்ட": 2335,
      " நகர": 2336,
      "ப்படவில்ல": 2337,
      "க்ட": 2338,
      "த்தைச் சேர்ந்த": 2339,
      "ங்கேற்ற": 2340,
      "ோல்வ": 2341,
      "ம் வழங்க": 2342,
      "ஸ்டாலின் ": 2343,
      "் வி": 2344,
      "ையிலான": 2345,
      " மாட்ட": 2346,
      "ுங்கள": 2347,
      "மாக இருக்க": 2348,
      "ை பிர": 2349,
      " திமுக": 2350,
      "ில் உ": 2351,
      " தேசிய": 2352,
      "ிருக்கும் ": 2353,
      "வேண்டும": 2354,
      "மேம்ப": 2355,
      "தேர்வ": 2356,
      "திருவிழ": 2357,
      " பெய": 2358,
      "வங்க": 2359,
      "அப்ப": 2360,
      "ூன": 2361,
      "ச்சரிக்க": 2362,
      "நிலையில": 2363,
      "ூறியுள்ளார": 2364,
      " மூல": 2365,
      "திவு செய்த": 2366,
      " சிவ": 2367,
      "ு போ": 2368,
      " நிலைய": 2369,
      "டன் ": 2370,
      " மிக": 2371,
      "றிவிக்க": 2372,
      "ுறிப்பிட்ட": 2373,
      "போல் ": 2374,
      "மத்திய": 2375,
      "ுறவ": 2376,
      "ஜெ": 2377,
      "ி செய்த": 2378,
      "ஸ் க": 2379,
      "ாவல் ": 2380,
      "ஆணைய": 2381,
      " இது ": 2382,
      "ன்னீர்செல்வ": 2383,
      "தார": 2384,
      "ம் செலுத்த": 2385,
      "ு நாள": 2386,
      " வேண்டும் ": 2387,
      "ூறுகையில": 2388,
      "ழைய": 2389,
      "முருக": 2390,
      "குந்த": 2391,
      "யுத": 2392,
      " முக": 2393,
      "தலைம": 2394,
      "இவர் ": 2395,
      "த்தைக் க": 2396,
      "ாக்கள": 2397,
      "இந்த க": 2398,
      ", க": 2399,
      "ார் என்ற": 2400,
      "டி க": 2401,
      "னவ": 2402,
      "ுத் ": 2403,
      "லாக": 2404,
      " வில": 2405,
      "மனித": 2406,
      "ையாட்ட": 2407,
      "``": 2408,
      "இன": 2409,
      "் எ": 2410,
      "வரது ": 2411,
      " ரஷ்ய": 2412,
      "ை சந்தித்த": 2413,
      "ர்வல": 2414,
      "ம்மன் க": 2415,
      "த்தரவிட்ட": 2416,
      "ர்க": 2417,
      " முய": 2418,
      "பா": 2419,
      "ு ஓ": 2420,
      "ைக்கு அ": 2421,
      "ார்ச": 2422,
      "ிறைவ": 2423,
      " பகுதிகள": 2424,
      " வாகன": 2425,
      "றந்த": 2426,
      "ேம": 2427,
      "ரேந்திர": 2428,
      "ுல் காந்த": 2429,
      "ும்போத": 2430,
      "en": 2431,
      " அதிப": 2432,
      "முதலீ": 2433,
      "ும் வகையில் ": 2434,
      "் உ": 2435,
      "ணியாற்ற": 2436,
      "ஆய்வ": 2437,
      "ர்க்க": 2438,
      "ாய்ந்த": 2439,
      "வீர": 2440,
      "மர்சன": 2441,
      "னவே": 2442,
      "பெண": 2443,
      "ிகளில் ": 2444,
      "கோத": 2445,
      "சிவ": 2446,
      "ுறைய": 2447,
      "குழந்தைகள": 2448,
      "அதிக": 2449,
      "ஞான": 2450,
      "ு வைத்த": 2451,
      "ேர்க்க": 2452,
      "த் தேர்த": 2453,
      "ை மாவட்ட": 2454,
      "த்திலிருந்த": 2455,
      "திடீர": 2456,
      "ருடன் ": 2457,
      "செயல்பட்ட": 2458,
      "எண்ணிக்க": 2459,
      ".த": 2460,
      "ார் க": 2461,
      "ாசிரிய": 2462,
      "கல": 2463,
      "மையான": 2464,
      " குடும்ப": 2465,
      "ிப்பட்ட": 2466,
      "க் கூட": 2467,
      "or": 2468,
      "ியில் ப": 2469,
      "ைச்ச": 2470,
      "ியுள்ளார": 2471,
      "ும் வி": 2472,
      "இருந்தத": 2473,
      " இளைஞ": 2474,
      "அவரது ": 2475,
      "சாரித்த": 2476,
      "இதுகுறித்த": 2477,
      " நடை": 2478,
      " நிகழ்வ": 2479,
      "் செய்த": 2480,
      "டிப்படையில் ": 2481,
      "21": 2482,
      "டல": 2483,
      " அவ": 2484,
      "ு பேச": 2485,
      "ொல்க": 2486,
      "ெடுப்ப": 2487,
      "சன": 2488,
      "ெளிவ": 2489,
      "ீப": 2490,
      "ண்டல": 2491,
      "எதிர்ப்ப": 2492,
      "ராத": 2493,
      "ூட்டண": 2494,
      "வர்கள் க": 2495,
      " விமான": 2496,
      " ஒரு ": 2497,
      "ைத": 2498,
      "ப்பட்டுள்ளன.\n": 2499,
      " சதவீத": 2500,
      " அதிகாரிகள": 2501,
      "இந்தியாவின் ": 2502,
      "த்திற்கு ": 2503,
      "க்கம் ": 2504,
      "ுக்கு முன்ப": 2505,
      "விரைவ": 2506,
      "மக்க": 2507,
      "ழை ": 2508,
      "ா என்ற": 2509,
      "த்தை ந": 2510,
      "பட்ச": 2511,
      " பிரதேச": 2512,
      "ி தமிழ": 2513,
      "ரேந்திர ம": 2514,
      "-ம் தேதி ": 2515,
      "லங்கார": 2516,
      "இந்நிலையில": 2517,
      " இன்ற": 2518,
      "ை உய": 2519,
      "al": 2520,
      " மற்ற": 2521,
      "ாக்குதல் ": 2522,
      "ர் மற்றும் ": 2523,
      "ே ச": 2524,
      "ஸ்ரேல் ": 2525,
      "நீண்ட": 2526,
      "இந்தியாவில் ": 2527,
      "வில் ": 2528,
      "ிவி": 2529,
      " குற": 2530,
      "ம் இல்ல": 2531,
      "ங்கள் ச": 2532,
      " தெ": 2533,
      "ச் செயல": 2534,
      "ரசிகர்கள": 2535,
      "ாது ": 2536,
      "ங்களில": 2537,
      "ி வருகின்றனர": 2538,
      "இதே": 2539,
      "ஒரு வ": 2540,
      "ை மீ": 2541,
      "ு வந்தத": 2542,
      "ு இல்ல": 2543,
      "லாம் என்ற": 2544,
      "த்தகைய": 2545,
      "ார் ப": 2546,
      "ஸ்திரேலிய": 2547,
      "இயக்க": 2548,
      " ஒரு": 2549,
      "நிய": 2550,
      " ஆரம்ப": 2551,
      "டித": 2552,
      "புதிய": 2553,
      "ுக்குள": 2554,
      "லைதள": 2555,
      "ு என்ன": 2556,
      "முடிய": 2557,
      "ோவில் ": 2558,
      "ுண்ட": 2559,
      "மாக ப": 2560,
      "ி பிர": 2561,
      " மூன்ற": 2562,
      "ொறுத்த": 2563,
      " வங்க": 2564,
      "ன்\n": 2565,
      "லலித": 2566,
      "ிஜ": 2567,
      " மத்திய": 2568,
      "ரோ": 2569,
      " ஊடக": 2570,
      "குண்ட": 2571,
      "ர் மோட": 2572,
      "றிஞ": 2573,
      "ிக்கும் ": 2574,
      "ுகைப்பட": 2575,
      "ுத்தக": 2576,
      "ுற்றுல": 2577,
      "ஸ் அ": 2578,
      "ிணைப்ப": 2579,
      " மேல": 2580,
      "த்து ": 2581,
      "ின்சார": 2582,
      "ிகர": 2583,
      "ை..\n": 2584,
      "ுக்கு த": 2585,
      "ை வாங்க": 2586,
      "ுடிய": 2587,
      "முறை ": 2588,
      " மாற": 2589,
      "ெரியும": 2590,
      "த்ய": 2591,
      "ப்பெரிய": 2592,
      " அதிக": 2593,
      "அதில் ": 2594,
      "ந்துவீச்ச": 2595,
      "ைகளில் ": 2596,
      "ிடுக": 2597,
      "ு சொல்ல": 2598,
      "ம் தெரிவித்த": 2599,
      "நாம் ": 2600,
      "ளிப்ப": 2601,
      "தவற": 2602,
      "சர": 2603,
      "கிறத": 2604,
      "ொதுவ": 2605,
      "னின் ": 2606,
      "த்தால் ": 2607,
      "வரின் ": 2608,
      "ையில் த": 2609,
      "ிடைக்கும": 2610,
      "அதேபோல": 2611,
      " தேர்தல் ": 2612,
      "ாபிஷேக": 2613,
      "ு விசாரண": 2614,
      "ாகிஸ்தான": 2615,
      " கடந்த": 2616,
      "ஆகியவற்ற": 2617,
      "எனவ": 2618,
      "வால": 2619,
      "் ஷ": 2620,
      "விமான": 2621,
      "ரிப": 2622,
      "நகராட்ச": 2623,
      "ற்பத்த": 2624,
      " புதிய": 2625,
      "நிலை ": 2626,
      "ுக் கொள்ள": 2627,
      "ு உள்ளத": 2628,
      " அற": 2629,
      "உட்பட": 2630,
      "ேந்திர": 2631,
      " நடந்த": 2632,
      " கோடி ": 2633,
      "திபதி ": 2634,
      "ாலியல் ": 2635,
      "ுகொள்ள": 2636,
      " இருந்தத": 2637,
      " வல": 2638,
      "ு சட்ட": 2639,
      "சந்த": 2640,
      "புத": 2641,
      "வாங்க": 2642,
      "எப்பட": 2643,
      "வழ": 2644,
      "திருக்க": 2645,
      "ுச் செல்ல": 2646,
      "வுன": 2647,
      "ுஷ": 2648,
      "ைம": 2649,
      "் போட்ட": 2650,
      "றிமுக": 2651,
      "திவிட்ட": 2652,
      "ருமாள": 2653,
      "டைத்த": 2654,
      "ு மாவட்ட": 2655,
      "ிரக": 2656,
      "ோதனை ": 2657,
      "மூலம் ": 2658,
      "ிறது என்ற": 2659,
      " மருத்துவ": 2660,
      "ாதல": 2661,
      "ு மாத": 2662,
      "அனைத்த": 2663,
      "ரை ": 2664,
      "திடீரென": 2665,
      "ு சில": 2666,
      "ாகிஸ்தான் ": 2667,
      "மும": 2668,
      "ு நாடுகள": 2669,
      "ணைக்க": 2670,
      "ுத்துற": 2671,
      "ஒருங்க": 2672,
      "ஐந்த": 2673,
      "ொல்வ": 2674,
      " பின்ன": 2675,
      "ிர்": 2676,
      "ங்கள் ம": 2677,
      "அதனால": 2678,
      "ைது செய்யப்பட்ட": 2679,
      "ாருக்க": 2680,
      "ூம": 2681,
      "ுக்காக": 2682,
      "ுவார்த்த": 2683,
      "d ": 2684,
      "இய": 2685,
      "ஐ.": 2686,
      "் அவர": 2687,
      "என்ன?\n": 2688,
      "முறைகள": 2689,
      "தை ": 2690,
      "ழுதிய": 2691,
      "ைச": 2692,
      "ம்மன": 2693,
      " பெரிய": 2694,
      "ாம் க": 2695,
      "ு என்ற": 2696,
      "க்கும் மேற்பட்ட": 2697,
      "வைக்க": 2698,
      "் என்ற": 2699,
      "ு விழ": 2700,
      "ழந்த": 2701,
      "மாணவ": 2702,
      "ிபுண": 2703,
      "எழுந்த": 2704,
      "ா வ": 2705,
      "ேப": 2706,
      "இந்தச் ச": 2707,
      " ஈ": 2708,
      "ோற": 2709,
      "்வே": 2710,
      "ாளர் ச": 2711,
      "ெண": 2712,
      "விருத்த": 2713,
      "ு வழக்க": 2714,
      " ராச": 2715,
      "இருக்கும் ": 2716,
      " கிராம": 2717,
      "ரசியல் ": 2718,
      "ாவை ": 2719,
      "....": 2720,
      "ப்படும் என்ற": 2721,
      "ம் பெற்ற": 2722,
      "ை பார்த்த": 2723,
      "இப்பட": 2724,
      "மானத": 2725,
      "ஏழ": 2726,
      "ம்பந்த": 2727,
      "உயிரிழந்த": 2728,
      "பத": 2729,
      "ட்டண": 2730,
      "ண்ணப்ப": 2731,
      " என்று அ": 2732,
      "வீன": 2733,
      "ு...\n": 2734,
      "லோசன": 2735,
      "ுவிட": 2736,
      "ுவதாக": 2737,
      "யில் ": 2738,
      "ையில் உள்ள": 2739,
      "ுக்கு ம": 2740,
      "ு முக்கிய": 2741,
      "இள": 2742,
      "யன": 2743,
      "முன": 2744,
      "போன": 2745,
      "கிர்ந்த": 2746,
      "ே அ": 2747,
      " பள்ள": 2748,
      "ல்கலைக்கழக": 2749,
      "ிறைய": 2750,
      "குஜ": 2751,
      "ுகள் ப": 2752,
      "ி வரும் ": 2753,
      "ீர்த்த": 2754,
      " உண": 2755,
      "மாக ": 2756,
      "அரசியல் ": 2757,
      "யார் ": 2758,
      "ிச் ": 2759,
      "ங்கட": 2760,
      "ிக்கு ": 2761,
      "துண": 2762,
      "சமூக": 2763,
      "க்கணக்க": 2764,
      "ியிருக்க": 2765,
      "ம்பெற்ற": 2766,
      "த்தில் ம": 2767,
      "விகித": 2768,
      "),": 2769,
      "ெண்ட": 2770,
      "ஏற்கனவே": 2771,
      "ஸ்ஸ": 2772,
      "ு பே": 2773,
      "ையும் ப": 2774,
      "ாளர் ப": 2775,
      "வீட": 2776,
      "த்தை ஏற்படுத்த": 2777,
      " ஜெய": 2778,
      "ாங்கள் ": 2779,
      "ாத்திய": 2780,
      "ோ அ": 2781,
      "க்ஸ": 2782,
      "ிடுவ": 2783,
      "ியில": 2784,
      "ு தரப்ப": 2785,
      "முன்னாள": 2786,
      "ிற்ப": 2787,
      " சீன": 2788,
      "ச்சன": 2789,
      " ஆட்ட": 2790,
      "மேல் ": 2791,
      "ழப்ப": 2792,
      "ாய்வ": 2793,
      "ாட்சிகள": 2794,
      "ீக": 2795,
      "ம் கொண்ட": 2796,
      " பிரச்ன": 2797,
      "குறைவ": 2798,
      "ுவரத்த": 2799,
      "யர்த்த": 2800,
      " ராணுவ": 2801,
      "ாது என": 2802,
      " தனது ": 2803,
      "ால் த": 2804,
      "ு செய்யப்பட்ட": 2805,
      "ு சிறப்ப": 2806,
      "இருக்கும": 2807,
      "ஏத": 2808,
      "ை தொடர்ந்த": 2809,
      "ை பெற்ற": 2810,
      "ஏற்பாடுகள": 2811,
      "ெட் ": 2812,
      "ொடுப்ப": 2813,
      "ன் ந": 2814,
      "ொலை": 2815,
      "ட்டி ": 2816,
      " முடியவில்ல": 2817,
      " நக": 2818,
      "ைப்பற்ற": 2819,
      "த்திரிக": 2820,
      " தமிழ்நாட": 2821,
      "் மீது ": 2822,
      " பாட": 2823,
      "ும் பிர": 2824,
      "27": 2825,
      "60": 2826,
      "அப்போத": 2827,
      "கன": 2828,
      "வ்": 2829,
      "செய்க": 2830,
      "த்தின் ப": 2831,
      "ுழந்த": 2832,
      "ழித்த": 2833,
      "ோல் ": 2834,
      " மத": 2835,
      "முதலில் ": 2836,
      "இவர்கள": 2837,
      "லந்துகொண்ட": 2838,
      "ய்ய": 2839,
      "ையாளர்கள": 2840,
      "ுகள் க": 2841,
      "பின்னர் ": 2842,
      " இயக்க": 2843,
      "பிவிருத்த": 2844,
      " கல": 2845,
      "ஊழிய": 2846,
      "ாஷ்ட": 2847,
      "ம் முழுவத": 2848,
      " மீ": 2849,
      "ு வில": 2850,
      " ஒப்ப": 2851,
      "ல்யாண": 2852,
      "மிகவும் ": 2853,
      "ாவல்துறைய": 2854,
      "டத்த": 2855,
      "ரான": 2856,
      "ினைக்க": 2857,
      " சேவ": 2858,
      "ி-": 2859,
      "ு தீ": 2860,
      "-வ": 2861,
      " தேவ": 2862,
      " ஷ": 2863,
      " மணி நேர": 2864,
      "ா மற்றும் ": 2865,
      "ாஸ் ": 2866,
      "ருகிறத": 2867,
      "ின்றத": 2868,
      "ஒத்த": 2869,
      "ப்பட்டார": 2870,
      "ர்ய": 2871,
      "ாரணம": 2872,
      "மாத": 2873,
      "ல்ல.\n": 2874,
      "ச்ச நீதிமன்ற": 2875,
      " நான் ": 2876,
      "ும் பல": 2877,
      "எடுக்க": 2878,
      "ூங்க": 2879,
      "வெளியிட": 2880,
      "ந்திப்ப": 2881,
      "ை இல்ல": 2882,
      "ு முழுவத": 2883,
      "ேஜ": 2884,
      "ஸ்ரேல": 2885,
      "ைது செய்த": 2886,
      "வாழ்க்க": 2887,
      "ுவிட்டத": 2888,
      "ீதியாக": 2889,
      "தியாக": 2890,
      "ோழ": 2891,
      "ாவுக்கு ": 2892,
      "ு அமைச்ச": 2893,
      "ாக்கிய": 2894,
      "ு வருகின்றன.\n": 2895,
      "ரியான": 2896,
      "பிள": 2897,
      "199": 2898,
      "அவருக்க": 2899,
      "ுக்குத் த": 2900,
      "இந்த வழக்க": 2901,
      " நாடாளுமன்ற": 2902,
      "ஆம் ": 2903,
      "உக்ரை": 2904,
      "ூப்ப": 2905,
      "விந்த": 2906,
      "ரும் க": 2907,
      "ிபிச": 2908,
      "என் ": 2909,
      " ஆட்சிய": 2910,
      "தவி ": 2911,
      "ழிப்ப": 2912,
      "போக்க": 2913,
      " மாணவர்கள": 2914,
      "ாவிற்க": 2915,
      "ியில் இருந்த": 2916,
      "ிச்சய": 2917,
      "28": 2918,
      "இரவ": 2919,
      "திராவிட": 2920,
      "ு இருப்ப": 2921,
      "நீக்க": 2922,
      " முயன்ற": 2923,
      "26": 2924,
      "த்தில் ந": 2925,
      "பெயர": 2926,
      "ு ஜ": 2927,
      " விவகார": 2928,
      " முதல": 2929,
      "ஏன் ": 2930,
      "மதுர": 2931,
      " அமைச்சர் ": 2932,
      "வெட்ட": 2933,
      "க்ரம": 2934,
      "யான": 2935,
      "ீரிய": 2936,
      "ி என்ற": 2937,
      " விக்க": 2938,
      "ரபரப்ப": 2939,
      "ஆட்ட": 2940,
      " பொருளாதார": 2941,
      "ுமையாக": 2942,
      "ையில்ல": 2943,
      "திறந்த": 2944,
      "தவிகள": 2945,
      "ொஞ்ச": 2946,
      " வச": 2947,
      "ுகள் அ": 2948,
      "லாம் என": 2949,
      "ாட்டிய": 2950,
      "ீல": 2951,
      "ுவங்க": 2952,
      "ிகவும் ": 2953,
      "ர்கள் த": 2954,
      "ை அண": 2955,
      "டைப்ப": 2956,
      "நடவடிக்கை எடுக்க": 2957,
      "ூண்ட": 2958,
      "ுக்கும": 2959,
      "ிரிவ": 2960,
      "ு வங்க": 2961,
      "ுகழ": 2962,
      "மகள": 2963,
      "குத்த": 2964,
      "லைவர": 2965,
      "வசிய": 2966,
      " தற்போது ": 2967,
      "ர் நரேந்திர ம": 2968,
      "டை ": 2969,
      "் ர": 2970,
      "ீண்டும் ": 2971,
      "டாக்ட": 2972,
      "ட்டார": 2973,
      "ச்செய": 2974,
      "ாட்சிய": 2975,
      "ில்லியன் ": 2976,
      "ாச்ச": 2977,
      "ிதழ": 2978,
      "அமைச்ச": 2979,
      "உணவ": 2980,
      "கோவ": 2981,
      "எல்": 2982,
      "மர்ந்த": 2983,
      "முன்": 2984,
      "வர்த்த": 2985,
      " நோய": 2986,
      "ஆகியோ": 2987,
      "ைப் பார்த்த": 2988,
      "t ": 2989,
      "பதி ": 2990,
      "ர்கள் ப": 2991,
      "ஸ்லாமிய": 2992,
      "று": 2993,
      " ராம": 2994,
      "னர் ": 2995,
      "ருப": 2996,
      "ு விள": 2997,
      " உறவ": 2998,
      "ு நடந்த": 2999,
      "ியில் க": 3000,
      " தகவல்கள": 3001,
      "ைல": 3002,
      "ட்டுப்பாட்ட": 3003,
      "மாவ": 3004,
      "க்கர": 3005,
      "ண்காணிப்ப": 3006,
      "500": 3007,
      " தே": 3008,
      "ல்லூர": 3009,
      "ட்சித் த": 3010,
      "ம் நடத்த": 3011,
      "ப்போக": 3012,
      "ற்றி ": 3013,
      "ு மன": 3014,
      "திருத்த": 3015,
      " வெள்ள": 3016,
      " அறிவிப்ப": 3017,
      "ற்பனை ": 3018,
      " போது ": 3019,
      "ு கட்ட": 3020,
      "யாரிப்ப": 3021,
      " துண": 3022,
      " சிறப்ப": 3023,
      "ாதக": 3024,
      "ாண்டிய": 3025,
      " மேற்க": 3026,
      "ும் இந்த": 3027,
      "ாகவும் ": 3028,
      " நேற்ற": 3029,
      "பண": 3030,
      "ு அதிக": 3031,
      "ைப்படுத்த": 3032,
      "ிம்ப": 3033,
      " எடுத்த": 3034,
      "நடித்த": 3035,
      "ஞ்சாப": 3036,
      "ாளர்கள் ": 3037,
      "மொத்த": 3038,
      "ான அ": 3039,
      "நிலவ": 3040,
      "தேர்தல": 3041,
      "மும்ப": 3042,
      "ங்களையும் ": 3043,
      "ுவார": 3044,
      "நீர் ": 3045,
      "ு நடத்த": 3046,
      "ிடிப்ப": 3047,
      "ைகள் க": 3048,
      " வீடியோ": 3049,
      "டிக": 3050,
      "ுக்ர": 3051,
      "ட்டுப்படுத்த": 3052,
      " மணி ": 3053,
      " அரசாங்க": 3054,
      "ிமிட": 3055,
      " மனித": 3056,
      "ஓட்ட": 3057,
      "போக": 3058,
      "ுபடுத்த": 3059,
      "ேள்": 3060,
      " முழ": 3061,
      "ைப் பெற்ற": 3062,
      "ஷ்மீ": 3063,
      "ரிந்துர": 3064,
      " நெ": 3065,
      " ஒரு ப": 3066,
      "ழுங்க": 3067,
      "ெக்ட": 3068,
      "ஆளுந": 3069,
      "ாஷ்டிர": 3070,
      "ுவர்கள": 3071,
      "ைத் ": 3072,
      " நடிக": 3073,
      "ம் வி": 3074,
      "ுக்கு ந": 3075,
      "ைட": 3076,
      "செந்த": 3077,
      "ிருக்கின்றனர": 3078,
      "ார்ந்த": 3079,
      " பூஜ": 3080,
      "களம": 3081,
      "ிடம் பேசிய": 3082,
      " வலைதள": 3083,
      "ற்பன": 3084,
      "ாக இருப்ப": 3085,
      "ாவல் நிலைய": 3086,
      " பந்த": 3087,
      "ால் ந": 3088,
      "சார்ப": 3089,
      "ஏற்பட்டத": 3090,
      "டுகிறத": 3091,
      "சமீப": 3092,
      "ம் நடந்தத": 3093,
      " கிலோ": 3094,
      " சமய": 3095,
      "ூலை ": 3096,
      "ஸ் த": 3097,
      "ு முடிவ": 3098,
      "ரீ": 3099,
      "ோக்கிய": 3100,
      " நெருக்க": 3101,
      "ு தொடர்ப": 3102,
      " தலைம": 3103,
      "தாக த": 3104,
      "ை அரச": 3105,
      "ராகுல் காந்த": 3106,
      "யணம் ": 3107,
      "ொழில்நுட்ப": 3108,
      "செல்ப": 3109,
      "ூன் ": 3110,
      "ோதி ": 3111,
      "ில் பிர": 3112,
      "யணிகள": 3113,
      "ன்ச": 3114,
      "ி\"": 3115,
      "ி!\n": 3116,
      " உள்ளிட்ட": 3117,
      "ொங்க": 3118,
      "முடிந்த": 3119,
      "ஒரு ந": 3120,
      "கொரோன": 3121,
      "ங்கள் மற்றும் ": 3122,
      "ும்பாபிஷேக": 3123,
      "ஏராள": 3124,
      "ு குறித்த": 3125,
      " நேரத்தில் ": 3126,
      "அதில": 3127,
      "ப்படுகின்றன.\n": 3128,
      "எடப்பாடி பழனிசாம": 3129,
      "ென்ன": 3130,
      "ந்ந": 3131,
      "ந்திக்க": 3132,
      "ின.\n": 3133,
      "நிலையில் ": 3134,
      "ை கண்ட": 3135,
      "சி": 3136,
      "தும": 3137,
      "சிகல": 3138,
      "இறந்த": 3139,
      "மர்சித்த": 3140,
      "ுட்டிக்க": 3141,
      "ும் அவர் ": 3142,
      "ி நிறுவன": 3143,
      "து குறித்த": 3144,
      "ிருக்கிறார்கள": 3145,
      "இதுபோன்ற": 3146,
      "ு மாநில": 3147,
      "ரிக": 3148,
      "ரிமைய": 3149,
      "வெற்றி பெற்ற": 3150,
      "ாளைய": 3151,
      " வேற": 3152,
      "ு வேல": 3153,
      "முதல்வர": 3154,
      "எங்க": 3155,
      "ுவின் ": 3156,
      "றுக்க": 3157,
      "ு கூற": 3158,
      "ொடிய": 3159,
      "ுபவ": 3160,
      "ர் ஜ": 3161,
      "இதனால": 3162,
      "தலைவர் ": 3163,
      " மோச": 3164,
      "ு தன": 3165,
      " முன்னாள": 3166,
      "லீசார": 3167,
      "த்தின் கீழ": 3168,
      "எங்கள": 3169,
      "ர் நீதிமன்ற": 3170,
      "ாசன": 3171,
      "ருக்கும் ": 3172,
      "ரியாத": 3173,
      "ு பூஜ": 3174,
      " ராக": 3175,
      "ாதிகள": 3176,
      " எதிர்க்க": 3177,
      "ொலை செய்த": 3178,
      "ஒற்ற": 3179,
      "ி..\n": 3180,
      " புத": 3181,
      "ிரட்ட": 3182,
      "மாக அ": 3183,
      "ற்போதைய": 3184,
      "சித்த": 3185,
      "ெண்ண": 3186,
      " இன்ன": 3187,
      "ு போட்ட": 3188,
      " விர": 3189,
      "டைக்க": 3190,
      "தீவிர": 3191,
      "குறிப்பிட்டார": 3192,
      "லவச": 3193,
      "ு என": 3194,
      "ந்தைய": 3195,
      " வழங்க": 3196,
      "பிஎஸ் ": 3197,
      "எல்ஏ": 3198,
      "ேகர": 3199,
      " அதற்க": 3200,
      "அதனால் ": 3201,
      "ு'": 3202,
      "ல் மற்றும் ": 3203,
      "ர்கள் அ": 3204,
      "ன்லை": 3205,
      "ப்பட்டு வருகிறத": 3206,
      "ில் பல": 3207,
      "லந்துர": 3208,
      "யாரும் ": 3209,
      "வந்தத": 3210,
      "செயல்படுத்த": 3211,
      "தேன": 3212,
      "மான க": 3213,
      "ும் அந்த": 3214,
      "ி எழுப்ப": 3215,
      "பெரும்பால": 3216,
      "ம்எல்ஏ": 3217,
      "ும் அதிக": 3218,
      "என்பதால் ": 3219,
      "க.": 3220,
      "வய": 3221,
      "ண்டப": 3222,
      "ெரிகிறத": 3223,
      "முத்த": 3224,
      " சுவாம": 3225,
      "ுகின்றனர": 3226,
      "வசர": 3227,
      "ம் வந்த": 3228,
      " திருப்ப": 3229,
      "இருப்பினும": 3230,
      "ர்களுக்கு ": 3231,
      "ெரியவில்ல": 3232,
      "எதிர்ப": 3233,
      "த்தை ம": 3234,
      " போலீஸ": 3235,
      "ே.\n": 3236,
      "திருப்த": 3237,
      "ு எந்த": 3238,
      "ும் சில": 3239,
      "ற்சவ": 3240,
      "களமிற": 3241,
      " இள": 3242,
      "ுதல": 3243,
      "ப்படும் என": 3244,
      " அவரது ": 3245,
      "முதலமைச்ச": 3246,
      "ட்க": 3247,
      "ட்விட்ட": 3248,
      " நடக்க": 3249,
      "இப்ப": 3250,
      "ாடிய": 3251,
      "மாகக் க": 3252,
      "எதிர்க்க": 3253,
      "உறுத": 3254,
      "பட்ட": 3255,
      "ாராட்ட": 3256,
      "ங்களை அ": 3257,
      "ன்முற": 3258,
      " இருக்கிறத": 3259,
      "கோதர": 3260,
      "ோம் என்ற": 3261,
      "ம் ஒன்ற": 3262,
      "ை எதிர்க": 3263,
      "ர் ஆ": 3264,
      "ிடையாத": 3265,
      "டைவ": 3266,
      "திர்": 3267,
      " சொல்ல": 3268,
      "ு பேசிய": 3269,
      "ை நிறுத்த": 3270,
      "றிவிப்ப": 3271,
      "நாடாளுமன்ற": 3272,
      "மூத்த": 3273,
      "ாழ்வ": 3274,
      "ு இருக்கிறத": 3275,
      " சதவிகித": 3276,
      "கம": 3277,
      "வான": 3278,
      "உடல் ": 3279,
      "செயல்பட": 3280,
      ", ப": 3281,
      "ஜின": 3282,
      "்களில் ": 3283,
      "ஸ்ட் ": 3284,
      "வெளிநாட்ட": 3285,
      "ார் ச": 3286,
      "ூர் மாவட்ட": 3287,
      " அடுத்த": 3288,
      " இய": 3289,
      "ாந்திய": 3290,
      "நாங்கள் ": 3291,
      " சுகாதார": 3292,
      "ோயில் ": 3293,
      "ை எதிர்த்த": 3294,
      "ாக வி": 3295,
      " துற": 3296,
      " வேட்ப": 3297,
      "ொழும்ப": 3298,
      "ாக்குதல": 3299,
      "பரப்ப": 3300,
      "ாயண": 3301,
      "லந்துரையாட": 3302,
      "ன்மைய": 3303,
      "நீங்கள் ": 3304,
      "மீண்டும் ": 3305,
      "இந்த ச": 3306,
      "ேச்சுவார்த்த": 3307,
      "போய": 3308,
      "ேராசிரிய": 3309,
      "ை நோக்க": 3310,
      "வுண்ட": 3311,
      "ேப்ட": 3312,
      "ளித்தார": 3313,
      "திறக்க": 3314,
      "ைமுக": 3315,
      "ினால": 3316,
      " ஆதரவ": 3317,
      "திருச்ச": 3318,
      "ு சிற": 3319,
      "ைக் கண்ட": 3320,
      "த்தைத் த": 3321,
      "ரித": 3322,
      " பேச்ச": 3323,
      "லைஞ": 3324,
      "நீர": 3325,
      "னும": 3326,
      "ுகள் த": 3327,
      "ொடர": 3328,
      "லைவர்கள": 3329,
      "உடல": 3330,
      "ு ஒன்ற": 3331,
      " அக": 3332,
      "ு நேர": 3333,
      "ிலுள்ள": 3334,
      " வைக்க": 3335,
      "ைகள் த": 3336,
      "29": 3337,
      "ுக்குப் பிறக": 3338,
      "நடக்கிறத": 3339,
      " - ": 3340,
      "ோ ப": 3341,
      "ெரியாத": 3342,
      "ாட்சி ": 3343,
      "ம் வர": 3344,
      " நம்பிக்க": 3345,
      " சப": 3346,
      "ன்கள் ": 3347,
      "ூர்த்த": 3348,
      "ுணர்வ": 3349,
      " அளவில் ": 3350,
      " நடவடிக்கை எடுக்க": 3351,
      "தெரிவித்தார": 3352,
      "் என": 3353,
      "ic": 3354,
      "இவ": 3355,
      "ிர் ": 3356,
      "ையும் ச": 3357,
      "ருவாக": 3358,
      "ி பேச": 3359,
      "ீம": 3360,
      "ரிஷ": 3361,
      "மாக்க": 3362,
      "ஏ.": 3363,
      " அன்ற": 3364,
      "ு ஆதரவ": 3365,
      "am": 3366,
      "es": 3367,
      "மால": 3368,
      " தங்க": 3369,
      "ாஷ": 3370,
      "ான்ற": 3371,
      "ு பெற்ற": 3372,
      "ுகிறார்கள": 3373,
      "இன்று ": 3374,
      "றிவுறுத்த": 3375,
      "உதவ": 3376,
      " அப்ப": 3377,
      "ாவில் ப": 3378,
      "ித் ": 3379,
      "ையும் அ": 3380,
      "நடைமுற": 3381,
      "ம் இருந்த": 3382,
      "ான்": 3383,
      "ி அரச": 3384,
      "ார் த": 3385,
      " அது ": 3386,
      "தேர்தலில் ": 3387,
      "ௌரவ": 3388,
      "த்தான் ": 3389,
      "ம்பள": 3390,
      "ைகள் அ": 3391,
      " ஜனாதிபதி ": 3392,
      "மில்ல": 3393,
      "ு கு": 3394,
      "ியா": 3395,
      "்கூட": 3396,
      " கேள்": 3397,
      "ர்ல": 3398,
      "ீகார": 3399,
      "ீர்மான": 3400,
      "ிருக்கும": 3401,
      "ு வக": 3402,
      "மேம்படுத்த": 3403,
      "ிமா": 3404,
      "க்குற": 3405,
      "அதாவது ": 3406,
      "ு மருத்துவமன": 3407,
      "- ": 3408,
      "ு நிறுவன": 3409,
      "ழை பெய": 3410,
      "ை விட்ட": 3411,
      " நல்ல": 3412,
      "தி அ": 3413,
      "த்தின் அ": 3414,
      " வயது ": 3415,
      " கேள்வ": 3416,
      "இவ்வாற": 3417,
      "ு பதில": 3418,
      "-வது ": 3419,
      "ுக்கு வந்த": 3420,
      "சூ": 3421,
      "மாட்ட": 3422,
      "ைகள் ப": 3423,
      "ுப்பாக்க": 3424,
      "வெளிப்படுத்த": 3425,
      "ி என": 3426,
      "மாக இருந்த": 3427,
      "பரபரப்ப": 3428,
      "ொடும": 3429,
      "ுச்சேர": 3430,
      "th": 3431,
      "னுமதி ": 3432,
      "பாத": 3433,
      "வரலாற்ற": 3434,
      "ப்பட்டனர": 3435,
      "ைப் போல": 3436,
      "தனிய": 3437,
      "எதிர்கால": 3438,
      "ியாச": 3439,
      "ர்மா": 3440,
      "வுக": 3441,
      "ம் ஆ": 3442,
      "ை தொடர்ப": 3443,
      "ாங்க.\n": 3444,
      "ாங்கிரஸ் த": 3445,
      ".பன்னீர்செல்வ": 3446,
      "70": 3447,
      "நோக்க": 3448,
      "ொருத்த": 3449,
      "ர் வி": 3450,
      "ு கூட்ட": 3451,
      "ண்மைய": 3452,
      "டுப்பூச": 3453,
      "இந்த விவகார": 3454,
      "உண்ம": 3455,
      "ை வெளியிட்ட": 3456,
      "் சிங": 3457,
      "டிகள": 3458,
      "ுல்ல": 3459,
      "ு ஊ": 3460,
      "ிக் ப": 3461,
      "ைகளுக்கு ": 3462,
      "திருவ": 3463,
      "ஒருவ": 3464,
      "ைது": 3465,
      "ன் ஆ": 3466,
      "நீங்க": 3467,
      "ின் கீழ": 3468,
      "ஆகியோர் ": 3469,
      " வாழ்க்க": 3470,
      "ை பல": 3471,
      "சோத": 3472,
      "ிள்ள": 3473,
      " மோத": 3474,
      "வெற": 3475,
      "ெய்வ": 3476,
      " டெல்ல": 3477,
      "க்ரமசிங்க": 3478,
      "ையா": 3479,
      " மதுர": 3480,
      "வேற்ப": 3481,
      "ார்ச் ": 3482,
      "இணைய": 3483,
      "ி'": 3484,
      "ீன் ": 3485,
      "ூர் க": 3486,
      "ூர் அ": 3487,
      "ரும் ப": 3488,
      "ைப் பயன்படுத்த": 3489,
      "நாக": 3490,
      "் வழங்க": 3491,
      "ுட்டிக்காட்ட": 3492,
      "அக": 3493,
      "ஒல": 3494,
      "ானிய": 3495,
      "ாலய": 3496,
      "தாக கூறப்படுகிறத": 3497,
      "குடியரச": 3498,
      "உண": 3499,
      "ாகத் த": 3500,
      " போராட்ட": 3501,
      "ு வே": 3502,
      "ையிலிருந்த": 3503,
      "ங்களும் ": 3504,
      "தங்க": 3505,
      "லில": 3506,
      "் (": 3507,
      "ாலாஜ": 3508,
      "த்தில் ஆ": 3509,
      " வகையில் ": 3510,
      "ு செய்வ": 3511,
      "ுடன் ப": 3512,
      "டிந்தத": 3513,
      "இல் ": 3514,
      "சார் ": 3515,
      "த்தில் ஈடுபட்ட": 3516,
      "ை அமைச்சர் ": 3517,
      "றுவ": 3518,
      "அதன் ப": 3519,
      "ொழில் ": 3520,
      "ியின் க": 3521,
      " தமிழ்நாட்ட": 3522,
      "ாஹ": 3523,
      "ைக் குற": 3524,
      " மாதிர": 3525,
      "ின்பட": 3526,
      " வளர்ச்ச": 3527,
      "ேருந்த": 3528,
      "ி வருகிறார": 3529,
      "உத": 3530,
      "யாத": 3531,
      "ை வழக்க": 3532,
      " இருக்கும": 3533,
      " கா": 3534,
      " வித": 3535,
      "் வந்த": 3536,
      "ாக்கல் செய்த": 3537,
      "ியிருக்கிறத": 3538,
      "ு கேட்ட": 3539,
      "வினர் ": 3540,
      "ஜெயலலித": 3541,
      "க்டோப": 3542,
      "ையை அ": 3543,
      "ப்படாத": 3544,
      "ஒரு ம": 3545,
      "ி வருவ": 3546,
      "ாதாரம": 3547,
      " அறிவித்த": 3548,
      "y ": 3549,
      "பிபிச": 3550,
      "சிறப்ப": 3551,
      " கூட": 3552,
      "ினோம": 3553,
      "ையும் த": 3554,
      " ஒரு க": 3555,
      "த்திலும் ": 3556,
      "ின்பற்ற": 3557,
      "ிடமிருந்த": 3558,
      "ியலில் ": 3559,
      "மாநகராட்ச": 3560,
      "ெனவே": 3561,
      "தாகவும் அ": 3562,
      "சென்னை ": 3563,
      "ஒருங்கிணைப்ப": 3564,
      "ா\n": 3565,
      " கோவ": 3566,
      "ுகிறேன": 3567,
      "ு எடுத்த": 3568,
      " திருமண": 3569,
      "ெலுங்க": 3570,
      "ச்சநீதிமன்ற": 3571,
      "ோருக்க": 3572,
      "ொண்டாட": 3573,
      "ர்ச்சியாக": 3574,
      "சேன": 3575,
      "ோண": 3576,
      "ை பயன்படுத்த": 3577,
      "ச்செயல": 3578,
      "எப்போத": 3579,
      "ுடும்ப": 3580,
      "ர்ஷ": 3581,
      "மாகப் ப": 3582,
      "டிஜ": 3583,
      "ைச் சந்தித்த": 3584,
      "தாய": 3585,
      "ோற்ற": 3586,
      "திச": 3587,
      "ஆகும": 3588,
      " ஆரம்பித்த": 3589,
      "ில் விக்ரமசிங்க": 3590,
      " ஸ்ரீ": 3591,
      "35": 3592,
      "is": 3593,
      "சந்திர": 3594,
      "செயற்ப": 3595,
      "த் துற": 3596,
      "ிற்ற": 3597,
      "ால் ம": 3598,
      "மேட": 3599,
      "பட மூல": 3600,
      "ேள்வி எழுப்ப": 3601,
      "பட மூலாதாரம": 3602,
      "பிறக": 3603,
      "ர்ச": 3604,
      "ுவந்த": 3605,
      "ு வெ": 3606,
      "தாகத் த": 3607,
      "மரண": 3608,
      "மலாக்க": 3609,
      "டின": 3610,
      " நான்க": 3611,
      " தனிய": 3612,
      "ஓபிஎஸ": 3613,
      "ு திட்ட": 3614,
      "விச": 3615,
      "ு காண": 3616,
      " ஓட்ட": 3617,
      "ாவுக்க": 3618,
      "ு தெரிவித்தார": 3619,
      "ும் கூட": 3620,
      "ங்கேற்க": 3621,
      "டும் ": 3622,
      "இதுவரை ": 3623,
      "ோல்விய": 3624,
      "அண்ணாமல": 3625,
      "ு நில": 3626,
      " நிதிய": 3627,
      "ம்சாட்ட": 3628,
      "ைவர": 3629,
      "ி பெற": 3630,
      "ாக உ": 3631,
      "ு மூ": 3632,
      "வ்வாய": 3633,
      "ாழ்த்த": 3634,
      "ண்டுபிடிக்க": 3635,
      "் சில": 3636,
      "ை விடுத்த": 3637,
      " நிர்வாகிகள": 3638,
      "ரத": 3639,
      "ே ந": 3640,
      "் ஹ": 3641,
      "ு முற": 3642,
      " அள": 3643,
      "ப்பட்டிருக்கிறத": 3644,
      "ைப் பற்ற": 3645,
      "கவான் ": 3646,
      "த்திற்கு அ": 3647,
      " பெண்ண": 3648,
      "சென்னையில் ": 3649,
      "அந்தப் ப": 3650,
      " தலைவர்கள": 3651,
      "இறுத": 3652,
      "வருமான": 3653,
      "ிந": 3654,
      "ிஸ் ": 3655,
      " பொதுக்குழ": 3656,
      "ச் சொல்ல": 3657,
      "பாய": 3658,
      "ி இருந்த": 3659,
      " மதிப்ப": 3660,
      "ர்நீதிமன்ற": 3661,
      "மீதான": 3662,
      "31": 3663,
      " கண": 3664,
      "ெரிவித்தனர": 3665,
      "முன்னதாக": 3666,
      "ாதுகாக்க": 3667,
      "நடப்ப": 3668,
      "என்பது குறித்த": 3669,
      "த்தை ச": 3670,
      "ுதல் ": 3671,
      " உத்தரவ": 3672,
      "ை வள": 3673,
      "மகிழ்ச்ச": 3674,
      "ion": 3675,
      "்படுத்த": 3676,
      "ூரில் ": 3677,
      "டை வி": 3678,
      " குட": 3679,
      "ுனித": 3680,
      "வாய": 3681,
      "ையை க": 3682,
      "ாலத்தில் ": 3683,
      "ு அத": 3684,
      "மாகும": 3685,
      "ங்களில் க": 3686,
      " லட்சம் ": 3687,
      "போலீசார": 3688,
      "்குமார": 3689,
      "த்திட்ட": 3690,
      "ியும் ": 3691,
      "்..": 3692,
      " ஃப": 3693,
      " மற": 3694,
      "வித்தியாச": 3695,
      "ரயில": 3696,
      "ீஸ்வர": 3697,
      "ை!\n": 3698,
      " மீட்ட": 3699,
      "ர்ண": 3700,
      " உரிம": 3701,
      "ஒரு த": 3702,
      "ி மாத": 3703,
      "ாபார": 3704,
      "ெட்டுகள": 3705,
      " சட்டமன்ற": 3706,
      "ார்பில் ": 3707,
      "கற்ற": 3708,
      "முற்ற": 3709,
      "னைவரும் ": 3710,
      "ீங்க": 3711,
      "ூர் ப": 3712,
      "ு முதல் ": 3713,
      "திநி": 3714,
      "ை தமிழ": 3715,
      "துச்செயல": 3716,
      "ு வந்தார": 3717,
      "198": 3718,
      " தீர்ப்ப": 3719,
      "அப்பட": 3720,
      "காச": 3721,
      "ே வ": 3722,
      " மொழ": 3723,
      "இந்த ஆண்ட": 3724,
      "ுடன் ச": 3725,
      "ாப்பாற்ற": 3726,
      "என்பதால": 3727,
      "மிட": 3728,
      "ு;": 3729,
      "ு அங்க": 3730,
      "ன் காரணமாக": 3731,
      "எல்லாம் ": 3732,
      "ு வெளியேற": 3733,
      "அவர்கள் ": 3734,
      "ா இ": 3735,
      "ி வர": 3736,
      "குதிக்க": 3737,
      "ு வழிப": 3738,
      "ட்சி அ": 3739,
      "நிகழ்ச்ச": 3740,
      "ம் (": 3741,
      "ாளர் க": 3742,
      " விஜய": 3743,
      " திரைப்பட": 3744,
      "முள்ள": 3745,
      " அதே": 3746,
      "மாகாண": 3747,
      "மேஷ": 3748,
      " ஆம் ": 3749,
      "ு ஆண்டுகள": 3750,
      "ரோப்ப": 3751,
      " தொட": 3752,
      " ஆம் தேதி ": 3753,
      "நியோக": 3754,
      "ழிக்க": 3755,
      "அதோட": 3756,
      "ுப்பிரம": 3757,
      "டைந்தத": 3758,
      " எனக் க": 3759,
      " ராஜபக": 3760,
      "ர்ட": 3761,
      "வைர": 3762,
      "ன்ஸ": 3763,
      "ிடம் இருந்த": 3764,
      "நிறுத்த": 3765,
      "வட": 3766,
      "ொம்ப": 3767,
      "ருணா": 3768,
      "உத்தர": 3769,
      "ஓய்வ": 3770,
      "வாட": 3771,
      "ுண்ண": 3772,
      "ை விட": 3773,
      "மூர்த்த": 3774,
      " பெற்ற": 3775,
      "விர்க்க": 3776,
      "வுன்ச": 3777,
      "எதுவ": 3778,
      "மத்திய அரச": 3779,
      "ுா": 3780,
      "ூடும": 3781,
      "்கிறார்கள": 3782,
      "த்துடன": 3783,
      " என்று ப": 3784,
      "ி ஜ": 3785,
      " பக்தர்கள": 3786,
      "ட்சி த": 3787,
      "ியில் உள்ள": 3788,
      "ண்ணீ": 3789,
      "ஆதரவாளர்கள": 3790,
      "ிடம் பேச": 3791,
      "ு அவர்கள": 3792,
      "இதுவ": 3793,
      " தகவல் ": 3794,
      "திருமணம் செய்த": 3795,
      "45": 3796,
      "உங்கள": 3797,
      "ு வாங்க": 3798,
      "ை மக்கள": 3799,
      "ினார்கள": 3800,
      " ஒவ்வ": 3801,
      " இடங்கள": 3802,
      " வயத": 3803,
      "ராக இருந்த": 3804,
      "ி)": 3805,
      "ிடிவ": 3806,
      "இதன் ": 3807,
      "தி க": 3808,
      "ின்போது ": 3809,
      "ுப்பிரமணிய": 3810,
      "ு பார்த்த": 3811,
      "ுரங்க": 3812,
      "இடம்பெற்ற": 3813,
      "விளையாட": 3814,
      "ிலிருந்து ": 3815,
      "குதிகளில் ": 3816,
      ", ச": 3817,
      "75": 3818,
      "மர்ப்ப": 3819,
      "த்தினர் ": 3820,
      "ுமான": 3821,
      "ினாம": 3822,
      "செய்தியாளர்கள": 3823,
      " தொடங்க": 3824,
      " தீர்மான": 3825,
      "ஆப": 3826,
      "தும் ": 3827,
      "ொரிய": 3828,
      " பட்ட": 3829,
      "ஸ்ம": 3830,
      "டவ": 3831,
      "ணைந்த": 3832,
      " பங்க": 3833,
      "ை தொடங்க": 3834,
      "தற்கு ": 3835,
      "ார்த்திக": 3836,
      "யாருக்க": 3837,
      "ண்பர்கள": 3838,
      " கிர": 3839,
      "-ல் ": 3840,
      "ிஸ": 3841,
      "ார் ம": 3842,
      "ாலையில் ": 3843,
      "்வெள": 3844,
      "ட்டியல": 3845,
      "ந்நாட்ட": 3846,
      "ம்த": 3847,
      " மீன": 3848,
      "ைக்கால": 3849,
      " உதவ": 3850,
      "ாவிட்ட": 3851,
      "ாராயண": 3852,
      "முன் ": 3853,
      " நிதி ": 3854,
      "ுகிற": 3855,
      "முன்னாள் ": 3856,
      "திவாக": 3857,
      "திபதிகள": 3858,
      "மிகப்பெரிய": 3859,
      "ிய க": 3860,
      " விவசாய": 3861,
      "ு பண": 3862,
      "ி வைக்க": 3863,
      "விரோத": 3864,
      "பள்ள": 3865,
      "ையுடன் ": 3866,
      "ு வெள": 3867,
      "வீடியோ": 3868,
      "எப்படி ": 3869,
      "யுக்ர": 3870,
      "ஹிந்த": 3871,
      " எனக்க": 3872,
      "ஏற்பட்டுள்ளத": 3873,
      "இதன்ப": 3874,
      "ுவிட்டார": 3875,
      "80": 3876,
      "லாற": 3877,
      "ம் ர": 3878,
      "ி விட்ட": 3879,
      "டுபட": 3880,
      "ிரூப": 3881,
      "ொலைக்க": 3882,
      "முன்னில": 3883,
      "முழுமையாக": 3884,
      " குடிய": 3885,
      "ஓர": 3886,
      "த்தோட": 3887,
      "இந்தத் த": 3888,
      "ம் காண": 3889,
      "ார் என": 3890,
      "ுழுவ": 3891,
      "் இல்ல": 3892,
      "ை மேற்கொண்ட": 3893,
      "ாக உள்ள": 3894,
      "ை அதிகாரிகள": 3895,
      "ை இழந்த": 3896,
      " டிர": 3897,
      " பேர் க": 3898,
      "சர்வதேச": 3899,
      "் தரப்ப": 3900,
      "ுழைப்ப": 3901,
      "முஸ்ல": 3902,
      "ாவில் க": 3903,
      "ு அவர": 3904,
      "ியாகும": 3905,
      "வீடுகள": 3906,
      "ுநோய": 3907,
      " ஒப்பந்த": 3908,
      "அவற்ற": 3909,
      " S": 3910,
      " செய்ய": 3911,
      "லாப": 3912,
      "ளி": 3913,
      "் மத்தியில் ": 3914,
      "ம் சாட்ட": 3915,
      "it": 3916,
      " தான் ": 3917,
      "மீட்ட": 3918,
      "ெரியவந்தத": 3919,
      "ென்க": 3920,
      "ஐக்கிய": 3921,
      " பேட்ட": 3922,
      "ுகின்றன.\n": 3923,
      "ு நான் ": 3924,
      "ரணில் விக்ரமசிங்க": 3925,
      "ஒப்பந்த": 3926,
      "காந்த": 3927,
      "ூச்ச": 3928,
      "ன் மற்றும் ": 3929,
      "மாஜ": 3930,
      "ஆத்ம": 3931,
      "கிருஷ்ண": 3932,
      "ூறியத": 3933,
      "த்தீவ": 3934,
      "ோடி ": 3935,
      "ி மக்கள": 3936,
      " தேர்தலில் ": 3937,
      "அதன்பட": 3938,
      "ையொட்ட": 3939,
      "ுள்ளோம": 3940,
      "டியோவ": 3941,
      "தாக அ": 3942,
      "ணிக": 3943,
      "தா": 3944,
      "தியின் ": 3945,
      "ிகுந்த": 3946,
      "க்கம": 3947,
      " வான": 3948,
      " மருத்துவமன": 3949,
      "் தேர்வ": 3950,
      "லைப்ப": 3951,
      "ிழமை ": 3952,
      "இறங்க": 3953,
      " அறிவிக்க": 3954,
      " திர": 3955,
      "ஜி": 3956,
      "ு நடவடிக்க": 3957,
      "ார் அ": 3958,
      "ை என்ன": 3959,
      "ீழ்த்த": 3960,
      "லுவல": 3961,
      "ணும": 3962,
      "ராய": 3963,
      "வாள": 3964,
      "ுக்கு இ": 3965,
      "தாக ப": 3966,
      "ை அடுத்த": 3967,
      "தனக்க": 3968,
      "த்திலேயே": 3969,
      "ுகார் அ": 3970,
      "ஏற்கெனவே": 3971,
      ".,": 3972,
      "ம் நடந்த": 3973,
      "து என்பத": 3974,
      " அதன": 3975,
      "சீ": 3976,
      "ிச் ச": 3977,
      "விருப்ப": 3978,
      "ங்கல": 3979,
      "ு அனுப்ப": 3980,
      "ிருப்பத": 3981,
      "ம்பந்தப்பட்ட": 3982,
      "லய": 3983,
      "ா\"": 3984,
      " இற": 3985,
      " நடத்த": 3986,
      "உதய": 3987,
      "கூட்ட": 3988,
      "மருத்துவ": 3989,
      "ொலை ": 3990,
      " முறையில் ": 3991,
      "காத": 3992,
      "லோக": 3993,
      "்கலைக்கழக": 3994,
      "ல்லாம் ": 3995,
      " எடப்பாடி பழனிசாம": 3996,
      "ிளம்ப": 3997,
      "-ஆம் ஆண்ட": 3998,
      "உருவாக்க": 3999,
      "ழியாக": 4000,
      "ை மாற்ற": 4001,
      " உள": 4002,
      "மாகவே": 4003,
      "ை கட்ட": 4004,
      "சிக்க": 4005,
      " மகள": 4006,
      "ப்பட வேண்டும": 4007,
      "திகதி ": 4008,
      "ெரிவித்துள்ளத": 4009,
      "் நிறுவன": 4010,
      "உத்த": 4011,
      "உங்கள் ": 4012,
      "ணிந்த": 4013,
      "ண்வெள": 4014,
      "னில் ": 4015,
      "மதிப்ப": 4016,
      "ஹார": 4017,
      "க்கிரம": 4018,
      "ிரதேச": 4019,
      "அதுவ": 4020,
      "நாட்டின் ": 4021,
      " ஊழிய": 4022,
      "ார்வைய": 4023,
      "ுது ": 4024,
      "ாளிக": 4025,
      "ேரவ": 4026,
      "யாரிக்க": 4027,
      "ீர்ப்ப": 4028,
      "ந்தேக": 4029,
      "திமுகவ": 4030,
      "ுவதற்கான": 4031,
      "உயர": 4032,
      "மாவட்ட": 4033,
      "ண்டுக்க": 4034,
      "ி வழங்க": 4035,
      " ஒதுக்க": 4036,
      "ூறுகின்றனர": 4037,
      "ியலமைப்ப": 4038,
      "முதலீட": 4039,
      "வாச": 4040,
      "ிபி": 4041,
      "விடு": 4042,
      "ேட்ப": 4043,
      "குற்றச்சாட்ட": 4044,
      "இப்படி ": 4045,
      " மருந்த": 4046,
      " இணைய": 4047,
      "ண்ணீர் ": 4048,
      "ஏற்படும": 4049,
      "ு முன": 4050,
      "டய": 4051,
      "ணித்த": 4052,
      "ஹமா": 4053,
      "ம் உள்ளிட்ட": 4054,
      " அணி ": 4055,
      "ை அளிக்க": 4056,
      "செய்வத": 4057,
      "ஒப்பட": 4058,
      "மோச": 4059,
      "்ஞான": 4060,
      "க்கத்தில் ": 4061,
      "து குறிப்பிடத்தக்கத": 4062,
      "ல்லூ": 4063,
      "இந்த த": 4064,
      "ி கொண்ட": 4065,
      "ட்டுமின்ற": 4066,
      "ிடைத்தத": 4067,
      " கோடி ரூபாய": 4068,
      "க்குறிச்ச": 4069,
      "சும": 4070,
      " பாதிப்ப": 4071,
      " வார்த்த": 4072,
      "ான் அ": 4073,
      "ை நேர": 4074,
      "தமிழகத்தில் ": 4075,
      " மாணவ": 4076,
      " வீரர்கள": 4077,
      "மட்ட": 4078,
      "il": 4079,
      "உள": 4080,
      "் மாநில": 4081,
      "த்தட்ட": 4082,
      "ொரு ப": 4083,
      "ழ்க": 4084,
      "ிவர": 4085,
      " கடந்த ": 4086,
      " அவருக்க": 4087,
      "என்று ": 4088,
      "ுகளின் ": 4089,
      "ு ஆய்வ": 4090,
      "ரிசோதன": 4091,
      "முக்கியமான": 4092,
      "டுமையான": 4093,
      "ுந்தர": 4094,
      "ேர் ": 4095,
      "ம் பெற": 4096,
      "ண்டறிய": 4097,
      "குவ": 4098,
      "ளவில் ": 4099,
      "நித": 4100,
      "பூர்வ": 4101,
      "ைகளின் ": 4102,
      "ம் காட்ட": 4103,
      "இவர": 4104,
      "ிகள் க": 4105,
      "் அமைச்ச": 4106,
      "ிருக்கின்றன.\n": 4107,
      "ர் பிர": 4108,
      " தேர்தல": 4109,
      "ஒள": 4110,
      "ா..\n": 4111,
      "திவு செய்ய": 4112,
      " மத்திய அரச": 4113,
      "மாக த": 4114,
      "ோ க": 4115,
      " இது": 4116,
      " டெ": 4117,
      "வருக": 4118,
      "ம் என்ன": 4119,
      "ள்நாட்ட": 4120,
      " காங்கிரஸ் க": 4121,
      "ல்லூரிய": 4122,
      "தாகவும் க": 4123,
      "என்பது குறிப்பிடத்தக்கத": 4124,
      "ால் பாதிக்கப்பட்ட": 4125,
      "திகரிக்கும": 4126,
      "ரி ": 4127,
      " கட்சிகள": 4128,
      " ஆவண": 4129,
      "போது அ": 4130,
      "இதுத": 4131,
      "ிவாரண": 4132,
      "90": 4133,
      "லெ": 4134,
      "ி?\n": 4135,
      "ியுள்ளனர": 4136,
      "்சத்திர": 4137,
      " பத": 4138,
      " பொருட்கள": 4139,
      " இன": 4140,
      "ினேன": 4141,
      "ஒழுங்க": 4142,
      "ு மே": 4143,
      "ங்களாக": 4144,
      "ு மிக": 4145,
      "ராஜினாம": 4146,
      "ாப்பிட": 4147,
      "வசியம": 4148,
      "ாவில் உள்ள": 4149,
      "தாக கூற": 4150,
      "ு காரண": 4151,
      " உத்தர": 4152,
      "மகார": 4153,
      "ஜித": 4154,
      "ை வர": 4155,
      " கல்வ": 4156,
      "வர் கூறினார": 4157,
      "பொருளாதார": 4158,
      "விவசாய": 4159,
      " கோரிக்க": 4160,
      " அலுவலக": 4161,
      "ை மற": 4162,
      "ரவாத": 4163,
      "சாரிக்க": 4164,
      "வீட்டில் ": 4165,
      "ஜனநாயக": 4166,
      "ஆளுநர் ": 4167,
      " குற்றச்சாட்ட": 4168,
      "ூற்றாண்ட": 4169,
      "ஆசிரிய": 4170,
      "டர்ந்த": 4171,
      "ியும": 4172,
      " வருமான": 4173,
      "ம்பரிய": 4174,
      "ு காலை ": 4175,
      "ு மைய": 4176,
      " மூத்த": 4177,
      "நான்க": 4178,
      "ுக்கும் இ": 4179,
      "குட": 4180,
      "போட": 4181,
      "மேலும் அ": 4182,
      "ரம": 4183,
      "வாகன": 4184,
      " சிக்க": 4185,
      "நட்சத்திர": 4186,
      "ிட்டத்தட்ட": 4187,
      "ில் இருந்து ": 4188,
      " எதிர்பார்க்க": 4189,
      "ஊடக": 4190,
      "ொகுதியில் ": 4191,
      "ார்": 4192,
      " சிகிச்ச": 4193,
      "பெங்கள": 4194,
      "வர்கள் ப": 4195,
      "ு ஆள": 4196,
      "ை ஆய்வ": 4197,
      "ஞாய": 4198,
      "டர்ப": 4199,
      "ானந்த": 4200,
      "ுமே": 4201,
      "ல்வி": 4202,
      "வர் ச": 4203,
      "ு இரவ": 4204,
      "ை உண": 4205,
      " மக்கள் ": 4206,
      "பாதுகாப்ப": 4207,
      "ா?": 4208,
      "ிக்ஸ": 4209,
      "ிடம் த": 4210,
      "ாணய": 4211,
      "300": 4212,
      "ும் வித": 4213,
      "ண்டிக": 4214,
      "ாயமடைந்த": 4215,
      " உத": 4216,
      " உறுப்ப": 4217,
      "விளையாட்ட": 4218,
      "மகன": 4219,
      "இரு": 4220,
      "ஏமாற்ற": 4221,
      "ு தே": 4222,
      "ுக்குள் ": 4223,
      "ால்ட": 4224,
      "ர்ன": 4225,
      " உக்ரை": 4226,
      "ு தான் ": 4227,
      "இருக்கிறார": 4228,
      "ணியாளர்கள": 4229,
      "தகவ": 4230,
      "ள்ளக்குறிச்ச": 4231,
      "ிவைத்த": 4232,
      "ு நாட்ட": 4233,
      "தியான": 4234,
      "ெரிவிக்கப்பட்டுள்ளத": 4235,
      "க்கூடாத": 4236,
      "இக்க": 4237,
      "ு தகவ": 4238,
      "ஏற்பாட": 4239,
      "மைக்கப்பட்ட": 4240,
      " ஸ்ட": 4241,
      "ைய தின": 4242,
      "ு பாஜக": 4243,
      "ரிசனம் செய்த": 4244,
      "்கான": 4245,
      "எனின": 4246,
      "ருத்துவர்கள": 4247,
      "ட்டுமொத்த": 4248,
      "ியை ஏற்படுத்த": 4249,
      "ிரிக்கெட": 4250,
      " என்பத": 4251,
      "அன்ற": 4252,
      "ை'": 4253,
      " முடியாமல் ": 4254,
      "சல": 4255,
      " சுற்ற": 4256,
      "ா காந்த": 4257,
      "ங்களது ": 4258,
      "ாலிக": 4259,
      "ாளர் அ": 4260,
      "ுகையில": 4261,
      "இந்த சம்பவ": 4262,
      "வில்லை என": 4263,
      "ம் அடைந்த": 4264,
      "ஸ்கள": 4265,
      " நாம் ": 4266,
      " இப்போது ": 4267,
      " வேண்டாம": 4268,
      "எடப்பாட": 4269,
      "மும் க": 4270,
      " சன": 4271,
      "ு மீ": 4272,
      "ம் கொடுத்த": 4273,
      "ஓவர": 4274,
      "அரசாங்க": 4275,
      "தமிழக அரச": 4276,
      "தந்த": 4277,
      "்மா": 4278,
      "ான்ச": 4279,
      "வர்கள் த": 4280,
      "ை அதிக": 4281,
      " ரயில": 4282,
      "டுவத": 4283,
      "197": 4284,
      " எதிர்ப்ப": 4285,
      "ு தமிழக": 4286,
      "இருவரும் ": 4287,
      "டால": 4288,
      "ணியின் ": 4289,
      "ோர் க": 4290,
      "ந்தன": 4291,
      " மல": 4292,
      "ிகாட்ட": 4293,
      "ு இரண்ட": 4294,
      " உறுப்பினர்கள": 4295,
      "ைதான": 4296,
      "ருமே": 4297,
      "க் கோப்ப": 4298,
      " ஒரு வ": 4299,
      "ொத்தம் ": 4300,
      "க்டோபர் ": 4301,
      " அழுத்த": 4302,
      "ண்ணீர": 4303,
      "ில் சில": 4304,
      " மாதம் ": 4305,
      "ு நாட்கள": 4306,
      " ஆனால் ": 4307,
      "ாக ஆ": 4308,
      "ு காரணமாக": 4309,
      "மாதிர": 4310,
      "ை\",": 4311,
      "உல": 4312,
      "ப்பூர்வ": 4313,
      "ாராம": 4314,
      "ர் ர": 4315,
      "ிரவ": 4316,
      "வரிச": 4317,
      "இதன் மூல": 4318,
      "ிபுர": 4319,
      "ார்க்கலாம": 4320,
      "ஊர": 4321,
      "னட": 4322,
      "ன்ஸ் ": 4323,
      "நாட்டில் ": 4324,
      "ொறுத்தவர": 4325,
      "் ஜ": 4326,
      "ங்களிப்ப": 4327,
      "ம்பர் ம": 4328,
      "ு கா": 4329,
      "த்திற்கு ப": 4330,
      " பிரிவ": 4331,
      "ூடுதல் ": 4332,
      "நோய": 4333,
      "ி இருக்கிறத": 4334,
      " கொரோன": 4335,
      " காவல்துற": 4336,
      "நீதிபதி ": 4337,
      "ழுந்தத": 4338,
      "திப்படுத்த": 4339,
      "நடைபெறும": 4340,
      " ஆளுந": 4341,
      "அப்படிய": 4342,
      "ுந்த": 4343,
      "ோத்த": 4344,
      "ி (": 4345,
      "் போன்ற": 4346,
      "ு அமைப்ப": 4347,
      "சுமார் ": 4348,
      "ஞ்ஞான": 4349,
      "த்தை சேர்ந்த": 4350,
      "ாராளுமன்ற": 4351,
      " போன்ற": 4352,
      " கத": 4353,
      "ை அவர் ": 4354,
      "ம் வகுப்ப": 4355,
      "ூறுகிறத": 4356,
      "தாகக் கூற": 4357,
      "ஏற": 4358,
      "குமார": 4359,
      "ய்": 4360,
      " அம": 4361,
      " விச": 4362,
      "என்பதே": 4363,
      "ாதித்த": 4364,
      "ொழிற": 4365,
      "விளைவ": 4366,
      "ிவிட்டத": 4367,
      "ு வெளியே": 4368,
      " சூழ்நில": 4369,
      "ொல்கத்த": 4370,
      "வுகண": 4371,
      "ஹெ": 4372,
      "ூத்துக்க": 4373,
      "ு மக": 4374,
      " பெருமாள": 4375,
      "ுத் துற": 4376,
      "ஈர": 4377,
      "கடைச": 4378,
      "செப்ட": 4379,
      "ுறக்க": 4380,
      "ிதம்பர": 4381,
      "என்பவர் ": 4382,
      "ு இன்ற": 4383,
      "மேலும் க": 4384,
      "அந்தக் க": 4385,
      "ில் சிக்க": 4386,
      "இல்லாத": 4387,
      "ோக்குவரத்த": 4388,
      " யோக": 4389,
      "a ": 4390,
      "ிம்ம": 4391,
      "ேக்க": 4392,
      "் ட": 4393,
      "இந்த ": 4394,
      "ம்மு": 4395,
      "மீன": 4396,
      "ர்ப்புற": 4397,
      "கடந்த சில": 4398,
      "ஊழ": 4399,
      " தவற": 4400,
      "ேர்தல் ": 4401,
      "குஜராத": 4402,
      "ை என்பத": 4403,
      " கார": 4404,
      "ைவரும் ": 4405,
      "் மற்றும் ப": 4406,
      "வளர்ச்ச": 4407,
      "ிய ப": 4408,
      "விரும்ப": 4409,
      "க்தர்கள் ": 4410,
      "மைந்துள்ள": 4411,
      "as": 4412,
      "சொல்ல": 4413,
      "ைக்கும் ": 4414,
      " வேக": 4415,
      "...": 4416,
      "ொழிலாளர்கள": 4417,
      "க்தர்கள் க": 4418,
      "ா:": 4419,
      "ெழுத்த": 4420,
      "ு ட": 4421,
      "ல் எ": 4422,
      "ினிமா": 4423,
      "ு துற": 4424,
      "வெப்ப": 4425,
      "ிருக்கிற": 4426,
      "முகாம": 4427,
      "மீத": 4428,
      "ு அரசியல் ": 4429,
      "ஊக்க": 4430,
      "ளித": 4431,
      "ம் போன்ற": 4432,
      "ை ஏற்ற": 4433,
      " சர்வதேச": 4434,
      "ு சொன்ன": 4435,
      "ி பல": 4436,
      "வன்க": 4437,
      "ு பிரதம": 4438,
      " பொறுப்ப": 4439,
      "ி ர": 4440,
      " நிமிட": 4441,
      "ங்கள் ந": 4442,
      "ீட்க": 4443,
      "திர்ச்சிய": 4444,
      "எஸ்": 4445,
      "தர": 4446,
      "ா'": 4447,
      "ம் என்பது ": 4448,
      "ிடம் ச": 4449,
      " ஆசிரிய": 4450,
      "நிலை": 4451,
      " சட்டசப": 4452,
      " எதிர்ப": 4453,
      "டி அ": 4454,
      "ர் என்ற": 4455,
      "நீட": 4456,
      "ச் செய்த": 4457,
      " தகவல்கள் ": 4458,
      " நடவடிக்கைகள": 4459,
      "ப்ரல் ": 4460,
      "ு)": 4461,
      "ம் இருக்க": 4462,
      "து தொடர்ப": 4463,
      "் கொண்ட": 4464,
      "ு கொடுத்த": 4465,
      "் அரச": 4466,
      "லைவாய்ப்ப": 4467,
      " வெளி": 4468,
      "கண": 4469,
      "ுக்குக் க": 4470,
      "ு அபிஷேக": 4471,
      "ியாக இருந்த": 4472,
      "ிச்சாம": 4473,
      " அனுமதிக்க": 4474,
      "ா...\n": 4475,
      "இன்னும் ": 4476,
      "ப்பட்டிருந்தத": 4477,
      "ச்சுறுத்த": 4478,
      "ில் பாலாஜ": 4479,
      "ம் மாவட்ட": 4480,
      "செயல்பாடுகள": 4481,
      "ொய": 4482,
      "ியமன": 4483,
      "உடல்": 4484,
      "பல்வேற": 4485,
      "ம் செய்யப்பட்ட": 4486,
      "ிடம் அ": 4487,
      "்நாத": 4488,
      " உடன": 4489,
      "இது தொடர்பாக": 4490,
      "ou": 4491,
      "ஊட": 4492,
      "ைன": 4493,
      "த்துல": 4494,
      " பேச": 4495,
      "ாமத": 4496,
      "ொண்டர்கள": 4497,
      "ஸ்தான் ": 4498,
      "அதேநேர": 4499,
      "பாக": 4500,
      "ிவிட": 4501,
      "ு எண்ண": 4502,
      "ை உறுத": 4503,
      "ாப்பிட்ட": 4504,
      "லின் ": 4505,
      "ட்டமைப்ப": 4506,
      "ையை ப": 4507,
      " வன": 4508,
      "ன்ஷ": 4509,
      " விளையாட்ட": 4510,
      "இளைஞ": 4511,
      "ைப் பெற": 4512,
      "ிப்ர": 4513,
      "ாங": 4514,
      "ையாள": 4515,
      "குண": 4516,
      "ை சிகிச்ச": 4517,
      "வசித்த": 4518,
      "ோனிய": 4519,
      "இஸ்ரேல் ": 4520,
      "தன்ன": 4521,
      "ும் போது ": 4522,
      "்கானிஸ்த": 4523,
      "ெண்கள": 4524,
      "ு இந்திய": 4525,
      "ை குற": 4526,
      "மாச": 4527,
      "ஜனாதிப": 4528,
      "ப் பிரதேச": 4529,
      "ணைக்கள": 4530,
      "\"\n": 4531,
      "எவ்வளவ": 4532,
      "ாரும் ": 4533,
      "ுறைவ": 4534,
      "ொடூர": 4535,
      "மைதான": 4536,
      "முகம": 4537,
      "ை வந்த": 4538,
      "ர் கோவில": 4539,
      "ி நிர்வாக": 4540,
      "ஒதுக்கீட": 4541,
      "ரம்ப": 4542,
      "்பட்ட": 4543,
      "ம் ஆகிய": 4544,
      "திர்வ": 4545,
      " நா": 4546,
      " விவசாயிகள": 4547,
      "ுழைந்த": 4548,
      "தீப": 4549,
      "செல்வாக்க": 4550,
      " குழந்தைகள": 4551,
      "க் கூடாத": 4552,
      "ம் உள்ளத": 4553,
      "த்தினர": 4554,
      "ும் போத": 4555,
      "குல": 4556,
      "ன்னிப்ப": 4557,
      "ு இருந்தத": 4558,
      "ு விலக": 4559,
      "ணய": 4560,
      "பிய": 4561,
      "் செய்ய": 4562,
      "் கொடுத்த": 4563,
      "லைக் க": 4564,
      "ு தொடர்ந்த": 4565,
      "ி அடைந்த": 4566,
      "நாயக்க": 4567,
      "இரண்டாவது ": 4568,
      "பேர": 4569,
      "பொதுவ": 4570,
      "ோரும் ": 4571,
      "து போல": 4572,
      "ுமைய": 4573,
      "ைக்கு ப": 4574,
      " பேருக்க": 4575,
      "தலைவர": 4576,
      "re": 4577,
      "கேரள": 4578,
      "ப் போக": 4579,
      "இதில": 4580,
      "ு வந்தனர": 4581,
      "ார்கள் என்ற": 4582,
      "ாஸ்ட": 4583,
      "ா என": 4584,
      "ப்பட்டிருந்த": 4585,
      "ம் கேட்ட": 4586,
      "ங்களுக்கு முன்ப": 4587,
      "ஆட்சிய": 4588,
      "ஒட்ட": 4589,
      " ஆதார": 4590,
      "ு தொடங்க": 4591,
      " பிரச்சின": 4592,
      "உறவின": 4593,
      "தன் ": 4594,
      "செவ்வாய": 4595,
      "ன்ஸ்ட": 4596,
      "ு வேற": 4597,
      "ு கொள்வ": 4598,
      "பெட்ர": 4599,
      "மேய": 4600,
      "கவான": 4601,
      "ொருள்கள": 4602,
      ", அ": 4603,
      "கத": 4604,
      "ாமு": 4605,
      "ிக்கிழம": 4606,
      "ுகிறோம": 4607,
      "மகன் ": 4608,
      "வழக்கம": 4609,
      "ad": 4610,
      "ு தின": 4611,
      "ார்ஜ": 4612,
      "ங்களை ப": 4613,
      "இந்த ம": 4614,
      "ுகளுக்கு ": 4615,
      "அதைத் தொடர்ந்த": 4616,
      "ு உலக": 4617,
      "ஆராய்ச்ச": 4618,
      "ற்சாக": 4619,
      "டுதல": 4620,
      "உடனடியாக": 4621,
      "யாதவ": 4622,
      "ங்கர": 4623,
      " உயிர": 4624,
      " வேள": 4625,
      "ொல்லப்பட்ட": 4626,
      "லந்து கொண்டனர": 4627,
      " A": 4628,
      "சைய": 4629,
      "றவ": 4630,
      "லிங்க": 4631,
      "ை ஒன்ற": 4632,
      " குர": 4633,
      "க் கூடிய": 4634,
      "என்னுடைய": 4635,
      "எதிர்க": 4636,
      "சுற்ற": 4637,
      "நான": 4638,
      "னுமதிக்க": 4639,
      "ருது": 4640,
      "து ம": 4641,
      "ில் அதிக": 4642,
      "ியமிக்கப்பட்ட": 4643,
      "போட்டியிட": 4644,
      "ா மாநில": 4645,
      "ோன் ": 4646,
      "்ஸ்": 4647,
      "த்தை எ": 4648,
      "ியுடன் ": 4649,
      "ியில் அ": 4650,
      "ிருக்கிறோம": 4651,
      "மகாராஷ்டிர": 4652,
      "ol": 4653,
      "னக்க": 4654,
      "ம்ய": 4655,
      "லுக்கு ": 4656,
      "ிதி": 4657,
      "ாக வ": 4658,
      "ிறைந்த": 4659,
      " அறிவ": 4660,
      "ங்களை க": 4661,
      " வரலாற்ற": 4662,
      " அந்தப் ப": 4663,
      "ும் வகையில": 4664,
      "ை மீற": 4665,
      "றிமுகப்படுத்த": 4666,
      " ராசிக்க": 4667,
      "யாக": 4668,
      "ா-": 4669,
      "ிராக": 4670,
      " எஸ": 4671,
      "திபர் ": 4672,
      "எழுந்தருள": 4673,
      "சுவாம": 4674,
      "விவகார": 4675,
      "ு போய": 4676,
      "ை அழைத்த": 4677,
      "ஆற": 4678,
      "நம்பிக்க": 4679,
      "மாள": 4680,
      "வுள்ளத": 4681,
      "ும் அரச": 4682,
      "வீச": 4683,
      " வர்த்த": 4684,
      "மாநில அரச": 4685,
      " திருச்ச": 4686,
      " மணிக்கு ": 4687,
      "ொழிற்ச": 4688,
      "அப்படி ": 4689,
      "ான்ம": 4690,
      "ங்களிலும் ": 4691,
      "ித்தத": 4692,
      "ேர்தலில் ": 4693,
      "ing": 4694,
      "ராஜினாமா ": 4695,
      "வாக": 4696,
      "ேர்": 4697,
      "ை குறித்த": 4698,
      " கட்ச": 4699,
      "ு வாக்க": 4700,
      "வர்களில் ": 4701,
      "உள்ளனர": 4702,
      "ிக் கொள்ள": 4703,
      "ு இருக்கிறார": 4704,
      "ொந்தமான": 4705,
      "ஆயிர": 4706,
      "இத்தகைய": 4707,
      "உண்ட": 4708,
      "எஸ் ": 4709,
      "மிஷ": 4710,
      "் வர": 4711,
      "வர்கள் அ": 4712,
      " ஐந்த": 4713,
      "ுத் திட்ட": 4714,
      "செயற்க": 4715,
      "ம்மன் ": 4716,
      " நபர்கள": 4717,
      "பெரும்பாலான": 4718,
      "வத": 4719,
      "ொற": 4720,
      "ோஜ": 4721,
      "ோதே": 4722,
      "ை (": 4723,
      "ு தப்ப": 4724,
      "துச் செயல": 4725,
      " ஜனாதிப": 4726,
      "வுன்சில": 4727,
      "உயிர": 4728,
      "னுக்கு ": 4729,
      " மில்லியன் ": 4730,
      "ங்களுடன் ": 4731,
      "் தாக்க": 4732,
      "ு அதிகார": 4733,
      "என்பதற்க": 4734,
      "ாக்குதல் நடத்த": 4735,
      "ணிப": 4736,
      "ையின் ப": 4737,
      "ு பெற": 4738,
      "ாவும் ": 4739,
      "ாயம் ": 4740,
      "டிசம்பர் ": 4741,
      "க்கணக்கான": 4742,
      "om": 4743,
      "கர்நாடக": 4744,
      "ிருத்த": 4745,
      "ுல் ": 4746,
      "விருக்க": 4747,
      "து போன்ற": 4748,
      "ாய் ப": 4749,
      "குதியாக": 4750,
      "முக்கியத்துவ": 4751,
      "நடைபெறுகிறத": 4752,
      " தகவல": 4753,
      " முன்னாள் ": 4754,
      "திகரித்துள்ளத": 4755,
      "கித": 4756,
      "ி ட": 4757,
      "ு வருகிறார்கள": 4758,
      "ோராட": 4759,
      " முதலீ": 4760,
      "செய்வதற்க": 4761,
      " தொழில்நுட்ப": 4762,
      "ழுவ": 4763,
      "ை...\n": 4764,
      "டுங்க": 4765,
      "் மட்டுமே": 4766,
      "விலக": 4767,
      "ி தரப்ப": 4768,
      "ரப்பிரதேச": 4769,
      "ான்றிதழ": 4770,
      "ஆம் தே": 4771,
      "யூ": 4772,
      "ும் என்பத": 4773,
      "ையை த": 4774,
      "ள்ளி ": 4775,
      " தன்ன": 4776,
      "ுவருக": 4777,
      "ு கட": 4778,
      "வேன": 4779,
      "ிகள் த": 4780,
      "ம் எடுத்த": 4781,
      " ஜனத": 4782,
      "ொடியேற்ற": 4783,
      "தல": 4784,
      "பன": 4785,
      "ம்ர": 4786,
      "ா ஆகிய": 4787,
      "ிலும் ப": 4788,
      "ாதிய": 4789,
      "ம்பிய": 4790,
      "ை கால": 4791,
      " இந்தியாவின் ": 4792,
      "ிளப்ப": 4793,
      "ஆட": 4794,
      "் குமார": 4795,
      "ை வீழ்த்த": 4796,
      "ுக் கொள்க": 4797,
      "ும் வாய்ப்ப": 4798,
      "உக்ரைன் ": 4799,
      " N": 4800,
      "டுஞ்ச": 4801,
      " இரவ": 4802,
      " சால": 4803,
      "ினார் ": 4804,
      "அதன் பிறக": 4805,
      "ை ர": 4806,
      " மாட": 4807,
      "ாவிய": 4808,
      "ு மீண்ட": 4809,
      "குடும்பத்தின": 4810,
      "ிஜாப": 4811,
      "ான்மைய": 4812,
      "தற்ற": 4813,
      "ில் இருக்க": 4814,
      " அச": 4815,
      "ுவார்கள": 4816,
      " ஆலோசன": 4817,
      "ைத்திட்ட": 4818,
      "ேசினார": 4819,
      "திட்டமிட்ட": 4820,
      " ஒரே": 4821,
      "ிருப்பதாக": 4822,
      " அதன் ": 4823,
      "ct": 4824,
      "ம்தான் ": 4825,
      " கோ": 4826,
      "ு வெற்ற": 4827,
      "லைப் ப": 4828,
      " எல": 4829,
      "ை நாட": 4830,
      " ஜனநாயக": 4831,
      "டிஜிட்ட": 4832,
      "யோச": 4833,
      " தேர்வ": 4834,
      "ுறைந்த": 4835,
      "த்திற்கும் ": 4836,
      "லக்ன": 4837,
      "36": 4838,
      "வுடன் ": 4839,
      " வீட": 4840,
      " மறுத்த": 4841,
      " ஆயுத": 4842,
      "ை பார்க்க": 4843,
      "ை வல": 4844,
      "ாம் ப": 4845,
      "லட்சும": 4846,
      "ியிருக்கிறார": 4847,
      "ன் என்ற": 4848,
      " போக": 4849,
      "ற்கர": 4850,
      "ட்டம் ": 4851,
      "ி சென்ற": 4852,
      "ி செலுத்த": 4853,
      "ிறும": 4854,
      " பொதுமக்கள": 4855,
      " நினைத்த": 4856,
      "ங்களால் ": 4857,
      "ு வீட்ட": 4858,
      " உர": 4859,
      "வீட்டிற்க": 4860,
      " வயதான": 4861,
      "ாக்கல் செய்ய": 4862,
      " நடைபெற்ற": 4863,
      "ஐரோப்ப": 4864,
      "டி ப": 4865,
      "தில் அ": 4866,
      "பை": 4867,
      "ி உள்ளிட்ட": 4868,
      " வட": 4869,
      " மணிய": 4870,
      "ு கிடைக்க": 4871,
      "பெரும": 4872,
      "வேண்டும் என்ற": 4873,
      "ுக்கு எதிராக": 4874,
      "ஈடுபட": 4875,
      "ணிகள் ": 4876,
      "நிர்வாக": 4877,
      "ாலும் அ": 4878,
      "ரிண": 4879,
      "ர்கள் ச": 4880,
      "ை கூட்ட": 4881,
      " அனுபவ": 4882,
      "ட்டுப்பாடுகள": 4883,
      "டப்பாடி பழனிச்சாம": 4884,
      " தொகுதிகள": 4885,
      "ு நீக்க": 4886,
      "ல்லூரிகள": 4887,
      "ிக்கொள்ள": 4888,
      " இரு": 4889,
      "ு வள": 4890,
      "ீர்க்க": 4891,
      " முடியும் என்ற": 4892,
      "தனித்த": 4893,
      " சிறும": 4894,
      "லோசனை ": 4895,
      " விளக்க": 4896,
      "ுதிதாக": 4897,
      "ும் அதிகமான": 4898,
      "்கார": 4899,
      " வைர": 4900,
      "் கூட்ட": 4901,
      "ு வைக்க": 4902,
      " முன்": 4903,
      "ு மத": 4904,
      "் மக்கள": 4905,
      "்ட்ட": 4906,
      "ுக்கு வழங்க": 4907,
      " இண": 4908,
      "ு மூல": 4909,
      "ில் பாஜக": 4910,
      "விர்த்த": 4911,
      "ஆரோக்கிய": 4912,
      "ிறது என்பத": 4913,
      "ரிபொருள": 4914,
      " ஒவ்வொர": 4915,
      "ஆஸ்திரேலிய": 4916,
      "ு கடந்த": 4917,
      "இதன் காரணமாக": 4918,
      "வெடித்த": 4919,
      "ெரிவித்துள்ளனர": 4920,
      "இதனையடுத்த": 4921,
      "மக்கள் ": 4922,
      "வன்கொடும": 4923,
      "கம் ": 4924,
      "நாடுகள": 4925,
      "முடித்த": 4926,
      "ான ம": 4927,
      " நாய": 4928,
      "ாவள": 4929,
      "ாசார": 4930,
      "ில் வைத்த": 4931,
      "நெருக்க": 4932,
      "ன் ர": 4933,
      "ினருக்க": 4934,
      "ை கொடுத்த": 4935,
      "முதன்": 4936,
      "மூழ்க": 4937,
      "உறவ": 4938,
      "வாழ்வ": 4939,
      " என்று கூறினார": 4940,
      "சேகர": 4941,
      "ேற்ப": 4942,
      "ு திரும்ப": 4943,
      "ள்ளிக்க": 4944,
      "ங்கள்\n": 4945,
      "ு வாழ": 4946,
      "மெண்ட": 4947,
      "ுக்கு எதிரான": 4948,
      " உயர்ந்த": 4949,
      "குரு ப": 4950,
      "ிர்ணய": 4951,
      "க்குமார": 4952,
      "ப்புற": 4953,
      " நபர": 4954,
      "செல்க": 4955,
      "ிணைந்த": 4956,
      " தமிழக அரச": 4957,
      "ி உள்ளார": 4958,
      "பாட": 4959,
      "வகுப்ப": 4960,
      "ுசெய்த": 4961,
      "து என்பது ": 4962,
      " காங்கிரஸ": 4963,
      "செங்க": 4964,
      " ஒரு ச": 4965,
      "ை விள": 4966,
      " ஏழ": 4967,
      "டுதுற": 4968,
      "தோட": 4969,
      " கர்நாடக": 4970,
      "ங்களை த": 4971,
      "குடி": 4972,
      "ு வய": 4973,
      " விவர": 4974,
      "ை அதிகார": 4975,
      "ோட்டியில் ": 4976,
      "ராஜாங்க": 4977,
      "யாராக": 4978,
      " அனுமதி ": 4979,
      "எத": 4980,
      "ாப் ப": 4981,
      "ீஸ": 4982,
      "ிப்புணர்வ": 4983,
      "ிவந்த": 4984,
      "வெல்ல": 4985,
      "ஞ்சாவ": 4986,
      "பிரிட்ட": 4987,
      " வீடுகள": 4988,
      "ூத்துக்குட": 4989,
      "ைதிகள": 4990,
      " கேரள": 4991,
      "வர்த": 4992,
      " இலக்க": 4993,
      " சுமார் ": 4994,
      "ு பெரிய": 4995,
      " என்று அவர் ": 4996,
      "ை மீட்ட": 4997,
      " இந்தப் ப": 4998,
      "சென்னை உய": 4999,
      "ேஷ் ": 5000,
      "மல்படுத்த": 5001,
      " பய": 5002,
      " போல": 5003,
      "ுவரும் ": 5004,
      "ாவில": 5005,
      "ாட்சி அ": 5006,
      " ஊர": 5007,
      "வெற்றி பெற": 5008,
      "ட்டள": 5009,
      " காண": 5010,
      " அல": 5011,
      "ஆனந்த": 5012,
      "ேர்தல": 5013,
      "ு எதிராக": 5014,
      " சந்தேக": 5015,
      "ஜூலை ": 5016,
      "நம்ப": 5017,
      "ிவே": 5018,
      " புள்ள": 5019,
      " நாக": 5020,
      "ுகார் ": 5021,
      "வர் அ": 5022,
      "ு தெரிவிக்க": 5023,
      "ழங்குடிய": 5024,
      "ு எடுக்க": 5025,
      "ுற்றுநோய": 5026,
      "முன்னேற்ற": 5027,
      "் இருப்ப": 5028,
      "ாக இருக்கும": 5029,
      "இப்போத": 5030,
      "இஸ்ரேல": 5031,
      "கோப": 5032,
      "ரக்க": 5033,
      "வொர": 5034,
      "ட்டாய": 5035,
      "ாகுப": 5036,
      " அல்லது ": 5037,
      "ைப் பார்க்க": 5038,
      " திருவ": 5039,
      " என்பது ": 5040,
      "டி த": 5041,
      "தவிக்க": 5042,
      "ாவர": 5043,
      "ுகளையும் ": 5044,
      "ச் சென்ற": 5045,
      "கடந்த ஆண்ட": 5046,
      "ங்கள் குறித்த": 5047,
      "48": 5048,
      "்தின": 5049,
      "ுரிம": 5050,
      "ி உள்ளனர": 5051,
      "டே": 5052,
      "டங்கிய": 5053,
      "நடுக்க": 5054,
      " முடிந்தத": 5055,
      "இதை ": 5056,
      "ு நீதிமன்ற": 5057,
      "ch": 5058,
      "பய": 5059,
      "வுள்ள": 5060,
      "ியாபார": 5061,
      "ிரந்தர": 5062,
      "ுக்கொள்வ": 5063,
      " இங்க": 5064,
      " ஆட": 5065,
      "விர,": 5066,
      "ில் வள": 5067,
      "el": 5068,
      "ம் உள்ள": 5069,
      " பூ": 5070,
      "ிதான": 5071,
      "ங்களில் இருந்த": 5072,
      "ே சென்ற": 5073,
      " முக்கியமான": 5074,
      "ரையிற": 5075,
      "ம் தெரிவித்துள்ளத": 5076,
      "ஏராளமான": 5077,
      "ியாய": 5078,
      "ியுள்ளன.\n": 5079,
      "ையைத் த": 5080,
      " புல": 5081,
      " கோவில": 5082,
      " நம்ப": 5083,
      "ு பல்வேற": 5084,
      "ைக்கான": 5085,
      " முஸ்ல": 5086,
      " விமர்சன": 5087,
      "ிவாச": 5088,
      "ருவருக்க": 5089,
      " ஒருங்க": 5090,
      "ஆகியோர": 5091,
      "குதியைச் சேர்ந்த": 5092,
      "ாரு": 5093,
      " பிற": 5094,
      "ையில் ந": 5095,
      "ிகள் ப": 5096,
      "தொடக்க": 5097,
      "முழுக்க": 5098,
      "ு பட": 5099,
      "் மன": 5100,
      "செயலாளர் ": 5101,
      "ை இயக்க": 5102,
      "ிங்ஸ": 5103,
      "ிந்திய": 5104,
      "நடைமுறைப்படுத்த": 5105,
      "ஊர்வல": 5106,
      "த்ர": 5107,
      "வருவ": 5108,
      "ி விழ": 5109,
      " பழ": 5110,
      " கும்ப": 5111,
      " தர": 5112,
      "ாததால் ": 5113,
      "ை அங்க": 5114,
      "அதை ": 5115,
      "ெரியவந்த": 5116,
      "நடைபெற்று வருகிறத": 5117,
      "ி உய": 5118,
      "ியமிக்க": 5119,
      "மைந்துள்ளத": 5120,
      " அதிபர் ": 5121,
      "வாளிகள": 5122,
      "ுநீ": 5123,
      "்பால": 5124,
      "தித்ய": 5125,
      " பயண": 5126,
      "ின் ஆ": 5127,
      "ாவது க": 5128,
      "இந்த முற": 5129,
      "ிருந்தால": 5130,
      "ின்றார": 5131,
      "ு விர": 5132,
      " எனத் த": 5133,
      "பிரதேச": 5134,
      "ாமல் இருந்த": 5135,
      "எட்ட": 5136,
      "ைவிட்ட": 5137,
      "ொள்": 5138,
      "ம் நடைபெற்றத": 5139,
      "திணைக்கள": 5140,
      " சக்த": 5141,
      "ு அளிக்க": 5142,
      "பெரு": 5143,
      "ைகள் மற்றும் ": 5144,
      "க் கூட்ட": 5145,
      "ு நேற்ற": 5146,
      "ை மட்டுமே": 5147,
      "ரவண": 5148,
      " \"க": 5149,
      "து\n": 5150,
      "ா என்பத": 5151,
      "ர்ப்பாட்ட": 5152,
      "ி எடுத்த": 5153,
      "தாகக் கூறப்படுகிறத": 5154,
      " ஆளுநர் ": 5155,
      "ஜெனர": 5156,
      " வேண்டும் என்பத": 5157,
      "விரைவில் ": 5158,
      "ா ர": 5159,
      "்லை": 5160,
      "ாகவும": 5161,
      "ங்குகள": 5162,
      " நவ": 5163,
      "ு போன": 5164,
      "டுத்தப்பட்ட": 5165,
      "ிகளை ": 5166,
      "ான காரண": 5167,
      "டிப்படையில": 5168,
      " எண்ணிக்க": 5169,
      "ு முழுவதும் ": 5170,
      "மலாக்கத்துற": 5171,
      " மெ": 5172,
      "ங்களைத் த": 5173,
      " தொடர்ப": 5174,
      "ித்திர": 5175,
      "மாண்ட": 5176,
      "ப்படும் ப": 5177,
      " நிலை ": 5178,
      "வின் க": 5179,
      "்துறை அமைச்ச": 5180,
      "நிதி": 5181,
      "குறிப்பிட்டுள்ளார": 5182,
      "ுவிடும": 5183,
      "போட்டியிட்ட": 5184,
      "ி இருக்கிறார": 5185,
      "ு போலீஸ": 5186,
      "இந்தச் சம்பவ": 5187,
      "ஓ.பன்னீர்செல்வ": 5188,
      "தற்போதைய": 5189,
      "க்கூடும": 5190,
      "ையெழுத்த": 5191,
      "ங்கியத": 5192,
      " ஆட்சியில் ": 5193,
      "ி வள": 5194,
      "விசாரணை நடத்த": 5195,
      " விக்கெட்டுகள": 5196,
      "திநிதிகள": 5197,
      "ஞாயிற்ற": 5198,
      "அச": 5199,
      "ும் வர": 5200,
      "ையெல்லாம் ": 5201,
      "ிறது என": 5202,
      " அக்க": 5203,
      "ம்பெற": 5204,
      "பெற்றோ": 5205,
      "ை உடன": 5206,
      "நகர் ": 5207,
      "போக்குவரத்த": 5208,
      " வெளிநாட்ட": 5209,
      " M": 5210,
      "ஒட்டுமொத்த": 5211,
      "எனது ": 5212,
      "ாமக": 5213,
      "ு அலங்கார": 5214,
      "வேட்ட": 5215,
      " வேண்டாம் ": 5216,
      "ை பற்ற": 5217,
      "ஞ்சள": 5218,
      "ீட்ப": 5219,
      "ட்டியலில் ": 5220,
      "இந்ந": 5221,
      "கே": 5222,
      " குறிப்ப": 5223,
      " இதற்க": 5224,
      "ியில் த": 5225,
      "ு நிகழ்ச்ச": 5226,
      "மூக வலைதள": 5227,
      "ூறியிருந்தார": 5228,
      "ான்ஸ": 5229,
      "ல்லத": 5230,
      "்...": 5231,
      " ரன்கள் ": 5232,
      " ஜெ": 5233,
      "தமிழ்நாட்டில் ": 5234,
      "க்ன": 5235,
      "மும் அ": 5236,
      "லன": 5237,
      "ூ.\n": 5238,
      " தள": 5239,
      "ு வீ": 5240,
      "ிபரப்ப": 5241,
      "ிறந்தநாள": 5242,
      "டிரம்ப": 5243,
      " அளவில": 5244,
      "தேட": 5245,
      "ை நான் ": 5246,
      "றிவிட்ட": 5247,
      "ஞ்சல": 5248,
      "பிரச்ன": 5249,
      " தலைவர": 5250,
      "ிருப்பது ": 5251,
      " போலீசார": 5252,
      "திர்ச்சியை ஏற்படுத்த": 5253,
      "ிடுகிறார": 5254,
      " முதலமைச்ச": 5255,
      "ிலும் க": 5256,
      "ட்டத்தில் ": 5257,
      " வரும் ": 5258,
      "ங்களைப் ப": 5259,
      "வர் ப": 5260,
      "ூறப்பட்டுள்ளத": 5261,
      " இடத்தில் ": 5262,
      "ூழல": 5263,
      "ஊழியர்கள": 5264,
      "400": 5265,
      "நாச": 5266,
      "மழ": 5267,
      "ும் திட்ட": 5268,
      "ையைக் க": 5269,
      "ின் எண்ணிக்க": 5270,
      " சாதன": 5271,
      "ைத்தள": 5272,
      "ம் கொடுக்க": 5273,
      "ோட்டிய": 5274,
      " ஓய்வ": 5275,
      "ெட்டிச": 5276,
      "செந்தில் பாலாஜ": 5277,
      "ழை பெய்ய": 5278,
      "உச்ச": 5279,
      "எழுதிய": 5280,
      "ிவின": 5281,
      "ாக எ": 5282,
      "ள்ளியில் ": 5283,
      "ுகளை அ": 5284,
      "ைகளுக்க": 5285,
      "திரைய": 5286,
      "ை காண": 5287,
      "ா (": 5288,
      "ருத்துவமனையில் ": 5289,
      "ருகே உள்ள": 5290,
      "உரிய": 5291,
      "சவ": 5292,
      "ோரிய": 5293,
      "்பிர": 5294,
      "ாகாண": 5295,
      "ிறிஸ்த": 5296,
      " புகார": 5297,
      " மைய": 5298,
      " நோக்க": 5299,
      " தெரிவித்தார": 5300,
      "ாளிய": 5301,
      " எம்எல்ஏ": 5302,
      "பிள்ள": 5303,
      "ு இன்ன": 5304,
      "அவருடைய": 5305,
      "தலைமையில் ": 5306,
      "ம் முழுவதும் ": 5307,
      " கள": 5308,
      "டம": 5309,
      "டி ச": 5310,
      "ண் ": 5311,
      "ொன": 5312,
      "ு ஹ": 5313,
      "ார்\n": 5314,
      "ி ஒன்ற": 5315,
      "ங்கன": 5316,
      "மிக்ர": 5317,
      "ாக இருந்தத": 5318,
      " ஆராய்ச்ச": 5319,
      "ோயிலில் ": 5320,
      "சுப": 5321,
      "பிற": 5322,
      " வாட": 5323,
      "ாவது ப": 5324,
      "ு மருத்துவ": 5325,
      "ுழு": 5326,
      " கடல": 5327,
      "ண்டுபிடித்த": 5328,
      "செல்போன": 5329,
      "க.\n": 5330,
      "வன் ": 5331,
      "்ரிய": 5332,
      "விவசாயிகள": 5333,
      " பர": 5334,
      " பகுதியில் ": 5335,
      " பத்திரிக": 5336,
      "ங்களைக் க": 5337,
      "ுள்ள நிலையில": 5338,
      "ு உய": 5339,
      "ுற்றச்சாட்ட": 5340,
      " P": 5341,
      "32": 5342,
      "ஆந்திர": 5343,
      "பாப": 5344,
      "ாடுதுற": 5345,
      "ுஜ": 5346,
      "ோஹ": 5347,
      "ில்தான் ": 5348,
      "ையால் ": 5349,
      "து எப்பட": 5350,
      " நிபுண": 5351,
      "மேத": 5352,
      "ம் அளித்த": 5353,
      "ை உயர்த்த": 5354,
      "ொரோனா ப": 5355,
      "நாதபுர": 5356,
      "யிரிழப்ப": 5357,
      "ெடுக்கப்பட்ட": 5358,
      " தாய": 5359,
      " ஆற": 5360,
      "ை மன": 5361,
      "ைச் சுற்ற": 5362,
      "ம் வாங்க": 5363,
      "ேஷ் க": 5364,
      "ிம்கள": 5365,
      "இரண்டாம் ": 5366,
      "டுதலை ": 5367,
      "ன்மொழ": 5368,
      "ிஸ்ட் க": 5369,
      "மித் ஷ": 5370,
      "ஜாம": 5371,
      "ா வி": 5372,
      "ட்டமன்ற": 5373,
      "டந்தத": 5374,
      "வசிக்க": 5375,
      "ாட்சித் த": 5376,
      "150": 5377,
      "பார்வ": 5378,
      " எண்ணெய": 5379,
      "அதிகார": 5380,
      "டையும் ": 5381,
      "லார": 5382,
      "்ரிவ": 5383,
      " புத்தக": 5384,
      "ுக்கோட்ட": 5385,
      "் பெ": 5386,
      " தல": 5387,
      "ு பதிவ": 5388,
      "ராண்ட": 5389,
      "ை சுற்ற": 5390,
      "லகிர": 5391,
      "நடத்தப்பட்ட": 5392,
      " மாணவிகள": 5393,
      " வகையில": 5394,
      " உணர்வ": 5395,
      "ு முன்தின": 5396,
      "ு காஷ்மீ": 5397,
      "ல்விக்க": 5398,
      "ு நிறுத்த": 5399,
      "ரிக்கப்பட்ட": 5400,
      "இருக்கின்றன.\n": 5401,
      "குறிப்பாக": 5402,
      "தீர்ப்ப": 5403,
      "நடைபெற உள்ளத": 5404,
      "தேவையான": 5405,
      "சம": 5406,
      "ணி": 5407,
      "ே!\n": 5408,
      "ானர்ஜ": 5409,
      "ங்களை ந": 5410,
      "ஞ்சிபுர": 5411,
      "ம் பிர": 5412,
      "றுப்பினர்கள": 5413,
      " முடிவு செய்த": 5414,
      "ென்றால் ": 5415,
      "ிச் சென்ற": 5416,
      "ம்யூன": 5417,
      " ஸ்தான": 5418,
      "உங்களுக்கு ": 5419,
      "க் ": 5420,
      "ட் ": 5421,
      "வாய்ப்ப": 5422,
      "ிலாந்த": 5423,
      " சம": 5424,
      " ஆப": 5425,
      "ு அழைத்த": 5426,
      "ுப்படுத்த": 5427,
      "் அதிக": 5428,
      " பெரும்ப": 5429,
      "ாமல் த": 5430,
      " மாநில அரச": 5431,
      "வெற்றி": 5432,
      " போலீ": 5433,
      " டி": 5434,
      "ஆன்லை": 5435,
      "ை என்பது ": 5436,
      "ில் ஈடுபட்ட": 5437,
      "ிரப்ப": 5438,
      " மால": 5439,
      " மீண்ட": 5440,
      " சின்ன": 5441,
      "ுவோம": 5442,
      "ு பாதுகாப்ப": 5443,
      "ு போன்ற": 5444,
      "ென்ட": 5445,
      "ில் வந்த": 5446,
      " மனைவ": 5447,
      "ில் நிர்வாக": 5448,
      " C": 5449,
      "ik": 5450,
      "லான": 5451,
      "ன்னியாகும": 5452,
      "அதும": 5453,
      "ை கட": 5454,
      "ியின் ப": 5455,
      " பிரச்சன": 5456,
      " முதல்வர": 5457,
      " பேர் ப": 5458,
      "வனம் செலுத்த": 5459,
      "நிலையத்துற": 5460,
      "பின்னர": 5461,
      "ப் பிரச்ன": 5462,
      "ண்மையில் ": 5463,
      "ரையாற்ற": 5464,
      "55": 5465,
      "ப்பேரவ": 5466,
      "ட்டம": 5467,
      " மழ": 5468,
      "் குழந்த": 5469,
      "ு வருட": 5470,
      "ை அனுப்ப": 5471,
      "ுத் தலைவர் ": 5472,
      "ூதரக": 5473,
      "பாநாயக": 5474,
      "டை விதிக்க": 5475,
      "ஞாயிற்றுக்க": 5476,
      "சூரிய": 5477,
      "மோத": 5478,
      "ூத்த": 5479,
      "ெஜ": 5480,
      "ுறப்பட்ட": 5481,
      "ை வீட்ட": 5482,
      "ராஜன": 5483,
      "வனித்த": 5484,
      "ி வருகின்றன.\n": 5485,
      "பெயர் ": 5486,
      "நம்ம": 5487,
      "ிஐ": 5488,
      "ைதான் ": 5489,
      "்?": 5490,
      "விவர": 5491,
      "ு வச": 5492,
      "ச்சரித்த": 5493,
      "ு அடுத்த": 5494,
      "ு அளித்த": 5495,
      "நிலைப்ப": 5496,
      "ஒரு அ": 5497,
      "் அமைச்சர் ": 5498,
      "குழப்ப": 5499,
      " இந்தியாவ": 5500,
      "ு எதிர்பார்க்க": 5501,
      " முன்னேற்ற": 5502,
      " அமைச்சரவ": 5503,
      " பாராளுமன்ற": 5504,
      " கிழக்க": 5505,
      " இதன": 5506,
      "ு வீர": 5507,
      "த்தில் நடந்த": 5508,
      "ு கொடுக்க": 5509,
      " உத்த": 5510,
      "மாத்திர": 5511,
      "ாமல் இருக்க": 5512,
      " சங்க": 5513,
      "மே ": 5514,
      "ருத்துவர": 5515,
      " மாறிய": 5516,
      "ுக் கொள்வ": 5517,
      " நீண்ட": 5518,
      " மாநிலங்களில் ": 5519,
      "யிற்ற": 5520,
      "டெல்லியில் ": 5521,
      "-க்கும் மேற்பட்ட": 5522,
      "33": 5523,
      "ரோட்ட": 5524,
      "ரைச": 5525,
      "ரீதியாக": 5526,
      "ிம் ": 5527,
      "முட்ட": 5528,
      " அவற்ற": 5529,
      "ினிம": 5530,
      "ு வார": 5531,
      "ை அந்த": 5532,
      "இன்றைய": 5533,
      "ழுந்துள்ளத": 5534,
      "ைது செய்ய": 5535,
      "ேன் என்ற": 5536,
      "் பிரதம": 5537,
      "தன் மூல": 5538,
      "மும் இல்ல": 5539,
      "ை;": 5540,
      "ி இருப்ப": 5541,
      "போர் ": 5542,
      "ெய்ட": 5543,
      "ு உட": 5544,
      "லங்கான": 5545,
      "ஸ்\n": 5546,
      "இதனிடையே": 5547,
      "த்துக்கள": 5548,
      "இலங்கையில் ": 5549,
      " நாள்கள": 5550,
      " பெயர": 5551,
      "பதவ": 5552,
      "டைபெற்ற": 5553,
      "ட்டுமான": 5554,
      "் நகர": 5555,
      "ாவில் இருந்த": 5556,
      "ூழல் ": 5557,
      " கடித": 5558,
      "தொடர்ந்து ": 5559,
      "ஏனென": 5560,
      "காங்கிரஸ் க": 5561,
      "வரும": 5562,
      "வாற": 5563,
      "ியே": 5564,
      "ப்பிரிக்க": 5565,
      "வினர": 5566,
      "ுக்கான ப": 5567,
      " சொன்ன": 5568,
      "் வழக்க": 5569,
      "ேஷன": 5570,
      "மாணவிகள": 5571,
      "\",": 5572,
      "காங்கிரஸ": 5573,
      "நவ": 5574,
      "ற்கள": 5575,
      "லுக": 5576,
      "ட்டப்பட்ட": 5577,
      "ாதாரண": 5578,
      "இதுதான் ": 5579,
      "ை காரணமாக": 5580,
      "ு விஷய": 5581,
      "இந்நிலையில் தான் ": 5582,
      "தற்ப": 5583,
      "பாஜகவ": 5584,
      "மொழ": 5585,
      "ு-": 5586,
      "‛‛": 5587,
      "ுமதிய": 5588,
      " அவர்கள் ": 5589,
      "் தொடர்ப": 5590,
      "ு அறிவித்த": 5591,
      "ற்புத": 5592,
      "ட்சும": 5593,
      " ரத்த": 5594,
      "ாபாத்திர": 5595,
      " ஒற்ற": 5596,
      "ா -": 5597,
      "முதலமைச்சர் ": 5598,
      "ொருட்கள் ": 5599,
      "ாம்பிய": 5600,
      "கங்க": 5601,
      "பூ": 5602,
      "ொது ": 5603,
      "ப்பான": 5604,
      "ு முன் ": 5605,
      "ட்டுமே க": 5606,
      "குற்றம்சாட்ட": 5607,
      "ைச் செய்த": 5608,
      "ிபிசி தமிழ": 5609,
      " ?\n": 5610,
      "In": 5611,
      " வலியுறுத்த": 5612,
      " சர்ச்ச": 5613,
      "் அதிகார": 5614,
      "படி ": 5615,
      "வெளியாகியுள்ளத": 5616,
      "த் தேர்தலில் ": 5617,
      "இயற்க": 5618,
      "ேள்விகள": 5619,
      "ா எ": 5620,
      "ு நிலைய": 5621,
      "ில் நடந்த": 5622,
      " அச்ச": 5623,
      " அபிவிருத்த": 5624,
      " து": 5625,
      "ு தனது ": 5626,
      "ை சந்திக்க": 5627,
      "ம் பேச": 5628,
      "ணியிட": 5629,
      "தொடர்புடைய": 5630,
      "பிரதமர் மோட": 5631,
      "கல் ": 5632,
      "மாய": 5633,
      " பாத": 5634,
      "ானது ": 5635,
      " சந்திர": 5636,
      " சுற்றுல": 5637,
      "ாய்க்க": 5638,
      "அதாவத": 5639,
      "ு விட": 5640,
      "ுள் ந": 5641,
      "ஃப் ": 5642,
      "எஸ்க": 5643,
      "37": 5644,
      "வோ": 5645,
      "ு மாற்ற": 5646,
      "ை நீ": 5647,
      "ப் பெரிய": 5648,
      "் சேர்த்த": 5649,
      "என்பவர": 5650,
      "ை மூல": 5651,
      "ப்படுவது ": 5652,
      "ியாக இருக்க": 5653,
      "வீழ": 5654,
      " பிரிட்ட": 5655,
      "ஆகஸ்ட் ": 5656,
      "ேவையான": 5657,
      "196": 5658,
      "முதலீட்ட": 5659,
      "ஓட": 5660,
      "கிராம": 5661,
      "வடக்க": 5662,
      "ே வந்த": 5663,
      "ம் -": 5664,
      " கிரக": 5665,
      "ைகளையும் ": 5666,
      "ை காட்ட": 5667,
      "ை மிக": 5668,
      "ை வழிப": 5669,
      "வ்வப்போது ": 5670,
      "ேயே க": 5671,
      " நீதிபதி ": 5672,
      "அங்கிருந்த": 5673,
      "ருள்பால": 5674,
      "போலீஸார் ": 5675,
      "பரபரப்பை ஏற்படுத்த": 5676,
      "di": 5677,
      "இச": 5678,
      "எங்கள் ": 5679,
      "ோம் என": 5680,
      " கோடிய": 5681,
      " காங்கிரஸ் ": 5682,
      " இல் ": 5683,
      "ாட் க": 5684,
      "வேற்க": 5685,
      " விபத்த": 5686,
      "் மாத": 5687,
      "ும் அவர": 5688,
      "ாப்ட": 5689,
      "ரிசீல": 5690,
      "காராஷ்டிர": 5691,
      "ரகசிய": 5692,
      "மறைவ": 5693,
      "ew": 5694,
      "ஜூன் ": 5695,
      "ணங்க": 5696,
      "த்தீ": 5697,
      " பன்னீர்செல்வ": 5698,
      "ப் பெ": 5699,
      "் அந்த": 5700,
      "ிருக்கலாம": 5701,
      "ிருக்கிறேன": 5702,
      "ம் கிடைக்க": 5703,
      "ும் அளவ": 5704,
      "ம் பே": 5705,
      "உட்க": 5706,
      "மேற்கு வங்க": 5707,
      "ையை ஏற்படுத்த": 5708,
      "ெலிக": 5709,
      "and ": 5710,
      "வ்வேற": 5711,
      " கேள்விகள": 5712,
      "வர்தன": 5713,
      " T": 5714,
      "தொழில": 5715,
      "வைக்கப்பட்ட": 5716,
      "ோர் ப": 5717,
      "ை மேற்கொள்ள": 5718,
      "்சப": 5719,
      " அடையாள": 5720,
      "ிக்கப்பட்டத": 5721,
      "ைக்காக": 5722,
      "பெண்ண": 5723,
      "ு மால": 5724,
      "ை வக": 5725,
      "ர் அலுவலக": 5726,
      "மென்ட": 5727,
      " ஏற்ற": 5728,
      "ு எதிர்ப்ப": 5729,
      "ா மீ": 5730,
      " கூட்டண": 5731,
      "தமிழ்நாடு அரச": 5732,
      "யில் நிலைய": 5733,
      "ஆச": 5734,
      "ரவிந்த": 5735,
      "ிர் ப": 5736,
      "ுரு": 5737,
      "ம் என்பத": 5738,
      "ையோ": 5739,
      "செய்தனர": 5740,
      "ுடன் இணைந்த": 5741,
      "ர் மோடிய": 5742,
      "ஆகியவ": 5743,
      " பல்கலைக்கழக": 5744,
      " நாட்கள் ": 5745,
      "ப்படுவத": 5746,
      "ரிடம் ": 5747,
      "ஒத்துழைப்ப": 5748,
      "முன்வைத்த": 5749,
      "ணி நேர": 5750,
      "ு செல்வ": 5751,
      " அ.த": 5752,
      "ு பேர": 5753,
      "ு புதிய": 5754,
      " எடப்பாட": 5755,
      "ு நோய": 5756,
      "க்கள் ": 5757,
      "ேவைய": 5758,
      " காலகட்ட": 5759,
      " ஏராள": 5760,
      " வழக்கறிஞ": 5761,
      " வெளியுறவ": 5762,
      "ு ஏற்பட்டத": 5763,
      "ஊக்கு": 5764,
      "நியூ": 5765,
      "ூவ": 5766,
      "ுவாத": 5767,
      "ர்வே": 5768,
      "மாகவும் ": 5769,
      "்ரீ": 5770,
      "ும் பாஜக": 5771,
      "ைக் கூட்ட": 5772,
      "ுழைவ": 5773,
      "டையேய": 5774,
      "ிகழ்ந்த": 5775,
      "அவர் க": 5776,
      "அனுமதிக்க": 5777,
      "யங்கரவாத": 5778,
      "பிஎஸ்ஸ": 5779,
      "ழைப்பு வி": 5780,
      "ur": 5781,
      "உதவிய": 5782,
      "க-": 5783,
      "ி போன்ற": 5784,
      "ள்ளிகள": 5785,
      " குள": 5786,
      "ிக்கிறத": 5787,
      "ங்களுக்கு ப": 5788,
      "் பட": 5789,
      "் பாதுகாப்ப": 5790,
      "நடிப்ப": 5791,
      " ஆட்ச": 5792,
      "முதாய": 5793,
      "ோடு ": 5794,
      "விரத": 5795,
      "ம்மு காஷ்மீ": 5796,
      "ேஷ்ட": 5797,
      "அவள": 5798,
      " மாவட்டங்களில் ": 5799,
      "ம்மன் கோவில": 5800,
      "எம்": 5801,
      "ுன்ன": 5802,
      " பக்க": 5803,
      "ல்ம": 5804,
      "ுள்ளது ": 5805,
      "ச்சந்திர": 5806,
      "ு கருத்த": 5807,
      "ிக் ": 5808,
      "ாக இல்ல": 5809,
      "ா தொற்ற": 5810,
      "ு வெளியிட்ட": 5811,
      "ஆர் ": 5812,
      "கோ": 5813,
      "ிலும் ச": 5814,
      "ந்தை ": 5815,
      "குகள": 5816,
      "ர்களை ": 5817,
      "ர் சில": 5818,
      "ின் பாதுகாப்ப": 5819,
      "ராமரிப்ப": 5820,
      " சந்திப்ப": 5821,
      " ஸ்க": 5822,
      "ஆழ": 5823,
      "என்": 5824,
      "ெர": 5825,
      " நினைக்க": 5826,
      "ண்முக": 5827,
      "ரவாதிகள": 5828,
      " ஒரு த": 5829,
      " டால": 5830,
      "அதேபோல் ": 5831,
      "ரேபிய": 5832,
      "ிடம் கேட்ட": 5833,
      "வலியுறுத்த": 5834,
      "ுகு": 5835,
      "ையைப் ப": 5836,
      " கொள்க": 5837,
      " நீர": 5838,
      "் தலைம": 5839,
      "வர்கள் ச": 5840,
      "ிகள் அ": 5841,
      "ை மைய": 5842,
      "ுபட்ட": 5843,
      "ஆதீன": 5844,
      " ரா": 5845,
      "iv": 5846,
      "இத்த": 5847,
      "இவற்ற": 5848,
      "லஞ்ச": 5849,
      "ப்பெ": 5850,
      "ம்பி ": 5851,
      "தேர்ந்த": 5852,
      "லைமை ": 5853,
      "ுப்பதிவ": 5854,
      "ை தெரிவித்த": 5855,
      "ஞ்சய": 5856,
      " முடியாது என்ற": 5857,
      "சார்ந்த": 5858,
      " பேருந்த": 5859,
      "ுக்கொண்டார": 5860,
      "அதன்பிறக": 5861,
      "முருகன": 5862,
      "பிபிசி தமிழ": 5863,
      "ொலை செய்யப்பட்ட": 5864,
      "றங்க": 5865,
      "ுப்பட": 5866,
      "ு என்பது ": 5867,
      "ிறன": 5868,
      " அடி ": 5869,
      " மின்சார": 5870,
      "ால்தான் ": 5871,
      "ிடந்த": 5872,
      "ாய்க": 5873,
      "இதய": 5874,
      "ை கேட்ட": 5875,
      "ுப் பதில": 5876,
      "ஒன்றிய": 5877,
      " மணி முதல் ": 5878,
      " வர்த்தக": 5879,
      "44": 5880,
      "எழுத": 5881,
      "நினைவ": 5882,
      "ூர்ய": 5883,
      "ே வி": 5884,
      "்ரிக": 5885,
      "ருது ": 5886,
      " பஞ்ச": 5887,
      " தண்டன": 5888,
      "் சங்க": 5889,
      "ைத்தான் ": 5890,
      "த் தலைவர் ": 5891,
      "மேலும் ப": 5892,
      "ஒருவேள": 5893,
      "ா பானர்ஜ": 5894,
      " வரவேற்ப": 5895,
      " அனுப்ப": 5896,
      "ூறியுள்ளத": 5897,
      "ூறியிருக்கிறார": 5898,
      "குதியில் உள்ள": 5899,
      "பாராளுமன்ற": 5900,
      "இங்கிலாந்த": 5901,
      "டெஸ்ட": 5902,
      "கூட": 5903,
      "பாகிஸ்தான": 5904,
      "ே இருக்க": 5905,
      "ியிருந்த": 5906,
      "்,\n": 5907,
      "ுக்கொள்க": 5908,
      " நல": 5909,
      "ாலும் ச": 5910,
      "ுக்கு ஆதரவ": 5911,
      "வெங்கட": 5912,
      "மீட்ப": 5913,
      " அரசின் ": 5914,
      " பிரபல": 5915,
      " டிக": 5916,
      "ஒருப": 5917,
      "யாரித்த": 5918,
      "அண": 5919,
      "பாகிஸ்தான் ": 5920,
      " சார்ப": 5921,
      "ப் பல": 5922,
      "்கள் என்ற": 5923,
      "ருமபுர": 5924,
      " ஏற்க": 5925,
      "வர் கூறுகிறார": 5926,
      " குஜ": 5927,
      "ரத்து செய்ய": 5928,
      "ணியில் ஈடுபட்ட": 5929,
      "ோர்ட்ட": 5930,
      "ர்ப்புற உள்ள": 5931,
      ").\n": 5932,
      "ஓபிஎஸ் ": 5933,
      "ட்வ": 5934,
      "னி ": 5935,
      "ொகுப்ப": 5936,
      "விரிவ": 5937,
      " தொடர்ந்த": 5938,
      "செய்கிறார": 5939,
      "இது போன்ற": 5940,
      "ுள் த": 5941,
      " டாக்ட": 5942,
      "ைதரா": 5943,
      "ு மூன்ற": 5944,
      "ுகார் அளித்த": 5945,
      " யார": 5946,
      "அல": 5947,
      "ூர் ச": 5948,
      "ுமண": 5949,
      " வருவ": 5950,
      " வடிவ": 5951,
      "ித்தான் ": 5952,
      "ு அதிகாரிகள": 5953,
      "மாக இருப்ப": 5954,
      "விலக்க": 5955,
      "ி...\n": 5956,
      "த்தியோக": 5957,
      "ு முடிந்த": 5958,
      "ஆரம்பிக்க": 5959,
      "195": 5960,
      " ஓபிஎஸ": 5961,
      "சிலாந்த": 5962,
      "ீசல் ": 5963,
      "கவனம் செலுத்த": 5964,
      " வலைத்தள": 5965,
      " ராகுல் காந்த": 5966,
      "காலை ": 5967,
      " தரப்ப": 5968,
      "ுள்ளார் ": 5969,
      "ச்சரிய": 5970,
      "ர்கள் மற்றும் ": 5971,
      " மும்ப": 5972,
      "ு தற்போது ": 5973,
      "ரும் ச": 5974,
      " அரசு ": 5975,
      " உள்ளன.\n": 5976,
      "மணிப்ப": 5977,
      "ா நடந்தத": 5978,
      "என்று கூற": 5979,
      "கத்த": 5980,
      "ியதாக": 5981,
      "ாக மாற": 5982,
      " காவ": 5983,
      "ுவாச": 5984,
      "ன்னதான": 5985,
      "ு அதிகரித்த": 5986,
      "முதல்": 5987,
      "ம் காரணமாக": 5988,
      "வின் ப": 5989,
      "ி தலைம": 5990,
      "ும் நோக்க": 5991,
      "கடன் ": 5992,
      "எண்ணெய": 5993,
      "் மூலம் ": 5994,
      "மாவாச": 5995,
      "டிகிறத": 5996,
      " ராஜபக்ச": 5997,
      ") ": 5998,
      "38": 5999,
      "o ": 6000,
      "of": 6001,
      "பக்தர்கள": 6002,
      "லவர": 6003,
      "ைக்குரிய": 6004,
      "மாக உ": 6005,
      "மாக உள்ளத": 6006,
      "ை வீ": 6007,
      "கவல் ": 6008,
      "டிச்ச": 6009,
      "ி சில": 6010,
      "ிந்தன": 6011,
      " ஆண்டுகளில் ": 6012,
      "நெல்": 6013,
      "களமிறங்க": 6014,
      "ஆண": 6015,
      "உருவ": 6016,
      " கணக்க": 6017,
      "ிக்கு ப": 6018,
      "ு கிடைத்த": 6019,
      "ை கைது செய்த": 6020,
      "ிருக்க வேண்டும": 6021,
      "ுக்கு அனுப்ப": 6022,
      "ென்றால": 6023,
      "ரிசனம் செய்தனர": 6024,
      ", த": 6025,
      "அத்துடன் ": 6026,
      "ஆயுத": 6027,
      "படிய": 6028,
      "ு உள்ளிட்ட": 6029,
      "ங்களுடைய": 6030,
      " இன்று ": 6031,
      "குரு": 6032,
      "எனக் க": 6033,
      "ாயிர": 6034,
      "ு சமய": 6035,
      "ித் ச": 6036,
      "ர் பதவ": 6037,
      "ுபுற": 6038,
      "பிரசார": 6039,
      "ியல் த": 6040,
      "ட்டுமே ப": 6041,
      "எதிர்பார்க்க": 6042,
      "ம் தேவ": 6043,
      "த்தில் கொண்ட": 6044,
      "டுமையாக வி": 6045,
      "நெல்வேல": 6046,
      "ே இருந்த": 6047,
      "ம் செய்வ": 6048,
      "ண்டிப்ப": 6049,
      "ுக்கிர": 6050,
      " தாக்குத": 6051,
      "ு பக்தர்கள": 6052,
      "ாவது ச": 6053,
      "ாட்டில": 6054,
      "ச் சட்ட": 6055,
      "வெளியேற": 6056,
      "த்துக்கும் ": 6057,
      "மீபத்தில் ": 6058,
      "ரபரப்பை ஏற்படுத்த": 6059,
      "எச்சரிக்க": 6060,
      "கட்சிகள": 6061,
      "விமர்சன": 6062,
      " கூற": 6063,
      " சொ": 6064,
      " சித்த": 6065,
      "வேச": 6066,
      "ுகள் மற்றும் ": 6067,
      "தொடர்ச்சியாக": 6068,
      " மாநாட்ட": 6069,
      "ு உட்ப": 6070,
      "ர்ச்சிய": 6071,
      " ஏக்க": 6072,
      "போதும": 6073,
      "வெற்றிய": 6074,
      "ங்கிலாந்த": 6075,
      "or ": 6076,
      " செலவ": 6077,
      "உண்மைய": 6078,
      "மாலை ": 6079,
      "விஷ": 6080,
      "ுகளும் ": 6081,
      " விவாத": 6082,
      "மைக் க": 6083,
      "ை மீண்ட": 6084,
      "ும் வழங்க": 6085,
      "குற்றம் சாட்ட": 6086,
      "க்கிரமிப்ப": 6087,
      "இஸ்லாமிய": 6088,
      "காரண": 6089,
      "ன் (": 6090,
      " அமை": 6091,
      " வார்ட": 6092,
      "ு பகுதிகள": 6093,
      "ுறை ": 6094,
      "லைமைய": 6095,
      " ரக": 6096,
      "ை எழுப்ப": 6097,
      "றிமுதல் ": 6098,
      " உள்ளார": 6099,
      "நாள் ": 6100,
      " என்கிறார் ": 6101,
      "மாவளவ": 6102,
      " ஒருங்கிணைப்ப": 6103,
      "ஆற்ற": 6104,
      "காண": 6105,
      "மட்டுமே": 6106,
      "ுலக": 6107,
      "து ஏன": 6108,
      " அன்ப": 6109,
      "் பால": 6110,
      " ஆண": 6111,
      " ஆஸ்திரேலிய": 6112,
      "ை அளித்த": 6113,
      "ை கூட": 6114,
      "ு விடு": 6115,
      " வளாக": 6116,
      "திருக்கல்யாண": 6117,
      " ‛‛": 6118,
      "le": 6119,
      "டிப": 6120,
      "தக்க": 6121,
      "ேறிய": 6122,
      "ொகுதி ": 6123,
      "ையை ந": 6124,
      "நட்ப": 6125,
      "ரியாக": 6126,
      "மீது ப": 6127,
      "ஸ்தீன": 6128,
      "ையின் அ": 6129,
      "ூழலில் ": 6130,
      "ப்படுவதாக": 6131,
      "ோரிக்கை விடுத்த": 6132,
      " பெண்கள் ": 6133,
      " எதிர்பார்ப்ப": 6134,
      "டக்கிய": 6135,
      "துதான் ": 6136,
      "பொதுமக்கள": 6137,
      "ரன": 6138,
      "ழி": 6139,
      "ைவே": 6140,
      "ும் போ": 6141,
      "திண்டுக்க": 6142,
      "ல்வித்த": 6143,
      "ாதனை ": 6144,
      "ிடைப்ப": 6145,
      " முன": 6146,
      "நிலைம": 6147,
      "ை அனைத்த": 6148,
      "தினகர": 6149,
      " வரிச": 6150,
      "டுவார்கள": 6151,
      "ரஷ்யாவ": 6152,
      "லோசக": 6153,
      "ுடன் கூடிய": 6154,
      "ிர்மல": 6155,
      "ப் ": 6156,
      "மாட": 6157,
      "ெந்த": 6158,
      "்ந்தத": 6159,
      "ும் முயற்ச": 6160,
      " அம்ப": 6161,
      " இடை": 6162,
      "மாக இருந்தத": 6163,
      "ு செய்தியாளர்கள": 6164,
      "ி வருகிறார்கள": 6165,
      " யோச": 6166,
      "திறப்ப": 6167,
      " திட்டமிட்ட": 6168,
      "தேர்தல் ஆணைய": 6169,
      "ங்கேற்றனர": 6170,
      "புதுச்சேர": 6171,
      "ெஜ்ரிவ": 6172,
      "உர": 6173,
      "வுத": 6174,
      "ீய": 6175,
      "ர் ஒருவர் ": 6176,
      " பயிற்ச": 6177,
      " நே": 6178,
      "ை தந்த": 6179,
      "ரவல": 6180,
      "ை வச": 6181,
      "டந்த சில": 6182,
      "மேலும் த": 6183,
      " ஒத்த": 6184,
      "ேத்க": 6185,
      "வெளிப்படைய": 6186,
      "எக்ஸ": 6187,
      "னியாக": 6188,
      "பி ": 6189,
      "த்தை உருவாக்க": 6190,
      "விண்ணப்ப": 6191,
      "ுகொள்வ": 6192,
      "ு அமெரிக்க": 6193,
      "ட்சிகள் ": 6194,
      "ை அதிகரிக்க": 6195,
      "ரவீ": 6196,
      "ேயே ப": 6197,
      "ில் அவர் ": 6198,
      "ஒருமுற": 6199,
      "இதற்கிடையே": 6200,
      "ஆரம்பித்த": 6201,
      "நிலை மாற்ற": 6202,
      "ட்சித் தலைவர் ": 6203,
      "பெங்களூர": 6204,
      "34": 6205,
      "ாற்றும் ": 6206,
      "ே..\n": 6207,
      " நாணய": 6208,
      "ல்முறைய": 6209,
      "நடிக்க": 6210,
      " உதவிகள": 6211,
      "ற்பத்திய": 6212,
      "ு தொட": 6213,
      "ை எந்த": 6214,
      "ுழுவின் ": 6215,
      "ீர்க": 6216,
      "குழுவ": 6217,
      "அதனால்தான் ": 6218,
      "ழை பெய்த": 6219,
      "ஆட்ச": 6220,
      "ணவர் ": 6221,
      "ா!\n": 6222,
      "ீஸ் ": 6223,
      "ு நடைபெற்ற": 6224,
      "ியல்வ": 6225,
      "ப்போவ": 6226,
      "விப": 6227,
      " புகைப்பட": 6228,
      "ினர் க": 6229,
      "ையிலேயே": 6230,
      " ரீதியாக": 6231,
      "பிரபல": 6232,
      "ுச் சட்ட": 6233,
      "ாவல்துறையினர் ": 6234,
      "ஆவது ": 6235,
      "டத்தில் ": 6236,
      "ுகுந்த": 6237,
      " கன": 6238,
      " அலங்கார": 6239,
      "ம் கட்ட": 6240,
      "டைக": 6241,
      "அதற்கு ": 6242,
      "ண்கல": 6243,
      " பிரதமர் மோட": 6244,
      "காஷ": 6245,
      "ஒரு சில": 6246,
      "ஆங்கில": 6247,
      "எத்தன": 6248,
      "ஐய": 6249,
      "ரன் ": 6250,
      "ு -": 6251,
      "ருமாற": 6252,
      "ுமன": 6253,
      "ுக்கும் ப": 6254,
      " மர": 6255,
      "என்கிறார": 6256,
      "மேன": 6257,
      " அரசியல": 6258,
      "இது த": 6259,
      "தனிப்பட்ட": 6260,
      " யான": 6261,
      "செப்டம்பர் ": 6262,
      ", ம": 6263,
      "-க்க": 6264,
      "யணிக்க": 6265,
      "ா உள்ளிட்ட": 6266,
      "ட்டாச": 6267,
      "ிறிய": 6268,
      "ங்கிருந்த": 6269,
      " தம்ப": 6270,
      "ு அதிமுக": 6271,
      "ு மத்திய": 6272,
      "ன்புறுத்த": 6273,
      "ும் நேர": 6274,
      " காலத்தில் ": 6275,
      "இல்லாமல் ": 6276,
      "ுச் செல்வ": 6277,
      "மயில": 6278,
      "ரோஹ": 6279,
      "லந்துகொண்டனர": 6280,
      "ப்போகிறத": 6281,
      "ென்காச": 6282,
      "மிர": 6283,
      "மும் ப": 6284,
      "ுதின": 6285,
      "க்காரர்கள": 6286,
      "ில் சென்ற": 6287,
      "முக்க": 6288,
      " வாச": 6289,
      "ுகிய": 6290,
      "ர்களில் ": 6291,
      " முருக": 6292,
      "ைத்தொடர்ந்த": 6293,
      "ு இலங்க": 6294,
      "ுழுக்கள": 6295,
      "ாபாத": 6296,
      "த்திலும": 6297,
      " ஆண்டுகளாக": 6298,
      " ஆண்டுகளுக்கு முன்ப": 6299,
      "ை ஆணைய": 6300,
      " குறைந்த": 6301,
      "வழியாக": 6302,
      "சின்ன": 6303,
      "ஹிஜாப": 6304,
      "ிடு": 6305,
      "ை பெற": 6306,
      " பதிவ": 6307,
      "் தே": 6308,
      "ாமர": 6309,
      "ாட்டில் ": 6310,
      "்ரோ": 6311,
      "ீரமைப்ப": 6312,
      "ுவதில் ": 6313,
      " நீதிபதிகள": 6314,
      "டுவதற்க": 6315,
      "டிப்படைய": 6316,
      " தீர்வ": 6317,
      "ாக இருக்கிறத": 6318,
      "யாத்திர": 6319,
      "தவியேற்ற": 6320,
      " ஆயிரம் ": 6321,
      "ation": 6322,
      "ைச் செய்ய": 6323,
      " கேள்விக்க": 6324,
      "ொழிற்சால": 6325,
      "னாய்வ": 6326,
      " கட்சிய": 6327,
      "் போ": 6328,
      "ின்த": 6329,
      "ு வாய்ப்ப": 6330,
      "ுகோள": 6331,
      "ைக்கிள": 6332,
      "ு சமூக": 6333,
      "ையிலும் ": 6334,
      "ும் கால": 6335,
      "் இயக்க": 6336,
      "ின்னர் ": 6337,
      "மக்கள் த": 6338,
      "னுப": 6339,
      "ைரிய": 6340,
      "ை?\n": 6341,
      "த்தீன": 6342,
      "ை போட்ட": 6343,
      "ட்டுர": 6344,
      "ண்ட் ": 6345,
      " மன்ன": 6346,
      " தட": 6347,
      "ப்பட உள்ளத": 6348,
      "ு மண்டல": 6349,
      " இந்தக் க": 6350,
      "ி அமைச்ச": 6351,
      "தொடங்கிய": 6352,
      " என்கிற": 6353,
      "ப்படுகின்றத": 6354,
      " ஒரு ந": 6355,
      "ும் நிகழ்ச்ச": 6356,
      "இறக்க": 6357,
      " பிரதமர் நரேந்திர ம": 6358,
      "வேட்பாளராக": 6359,
      "வெறும் ": 6360,
      "சேல": 6361,
      "ஜோ": 6362,
      "ஸ் ம": 6363,
      "ூதிய": 6364,
      " சேல": 6365,
      "ையில் ஈடுபட்ட": 6366,
      "பெரி": 6367,
      "ுகளை ப": 6368,
      "ு சிகிச்ச": 6369,
      " என் ": 6370,
      "ுப் பேசிய": 6371,
      "தொடர்பான": 6372,
      "இன்று (": 6373,
      " நெருக்கடிய": 6374,
      "திர்ஷ்ட": 6375,
      "யுக்ரேன": 6376,
      "ெட்டிசன்கள": 6377,
      "எங்களுக்கு ": 6378,
      "ெங்க": 6379,
      "ு ஏற்பட": 6380,
      "ர் ஷ": 6381,
      " அண்ண": 6382,
      "ுகளைத் த": 6383,
      "மாநாட்ட": 6384,
      "ஒரு நாள": 6385,
      "மையும": 6386,
      "ம்பவ இட": 6387,
      "தேவைய": 6388,
      "ா மாவட்ட": 6389,
      "கடல": 6390,
      "ஜ.க-": 6391,
      "ை முன்": 6392,
      "போலீசார் ": 6393,
      "மித்ஷ": 6394,
      "ஒலிம்ப": 6395,
      "மாஜ்வ": 6396,
      "டுஞ்சால": 6397,
      "அண்ண": 6398,
      "எஃப": 6399,
      "தாக்க": 6400,
      "நன்ற": 6401,
      "நமது ": 6402,
      "பழ": 6403,
      "ு \"": 6404,
      "ியது ": 6405,
      "குழு": 6406,
      "அது": 6407,
      "பிப்ர": 6408,
      "ு உதவ": 6409,
      "ு உத்தரவிட்ட": 6410,
      "ஸ்ரேலிய": 6411,
      "ரிசோதனை ": 6412,
      "ின் அடிப்படையில் ": 6413,
      "ித் தொடர்ப": 6414,
      "உறுதிய": 6415,
      "ராசிக்க": 6416,
      " மணி": 6417,
      "ப் பிரிவ": 6418,
      "தென்ன": 6419,
      " சென்னை ": 6420,
      "வங்கதேச": 6421,
      "ல்லூரி ": 6422,
      " சென்ற": 6423,
      "நாம": 6424,
      "பேசிய": 6425,
      "ி;": 6426,
      "ே?\n": 6427,
      "ியங்க": 6428,
      "ை நடத்திய": 6429,
      "ி -": 6430,
      "ாக உள்ளத": 6431,
      " கோப": 6432,
      " இல": 6433,
      " என்று த": 6434,
      " தீவிர": 6435,
      "ருதப்படுகிறத": 6436,
      "வால்கள": 6437,
      "அ.த": 6438,
      "ம்தான": 6439,
      "ை இந்த": 6440,
      "ல் ந": 6441,
      "ு பெய": 6442,
      "ு போராட்ட": 6443,
      " விடு": 6444,
      "லைத் த": 6445,
      "மீது க": 6446,
      "ை நாம் ": 6447,
      "ை எடுப்ப": 6448,
      " வேண்டுமென": 6449,
      "வெற்றிகர": 6450,
      "வர்த்தக": 6451,
      "ஏராளமான ப": 6452,
      " B": 6453,
      "மோ": 6454,
      "றித்த": 6455,
      "ல்ட": 6456,
      "ை இந்திய": 6457,
      " கிள": 6458,
      " இஸ்லாமிய": 6459,
      "இந்த அ": 6460,
      "ாயில": 6461,
      "ு அருக": 6462,
      "ுக் கூட்ட": 6463,
      "ப்பட்டுள்ளதாக": 6464,
      "ாக அவர் ": 6465,
      "இரட்ட": 6466,
      "ட்சியில் இருந்த": 6467,
      "ேபாள": 6468,
      "ஒளிபரப்ப": 6469,
      "எனினும": 6470,
      "39": 6471,
      "ra": 6472,
      "ூக": 6473,
      "ொபை": 6474,
      "ர் வ": 6475,
      " வன்முற": 6476,
      " உயர": 6477,
      "ிற்கு ": 6478,
      "ை நிறைவேற்ற": 6479,
      "கவல்கள": 6480,
      "் வாங்க": 6481,
      " வெப்ப": 6482,
      "ு வரும் நிலையில": 6483,
      "ொறுப்பேற்ற": 6484,
      "ட்சிக்கு வந்த": 6485,
      "ட்டுமல்லாமல் ": 6486,
      " வானில": 6487,
      "சூட": 6488,
      "பார்த்த": 6489,
      "லுக்க": 6490,
      "ூன்ற": 6491,
      " தாக்க": 6492,
      "ம்பெய": 6493,
      "ுக்கு சென்ற": 6494,
      "ிகளின் ": 6495,
      "ைகளை அ": 6496,
      "ப்படும் ச": 6497,
      "ு விசாரித்த": 6498,
      "ஆண்டுகள": 6499,
      "துங்க": 6500,
      " திருவிழ": 6501,
      "இருப்பத": 6502,
      "வேட்பாளர்கள": 6503,
      "65": 6504,
      "ஆபத்த": 6505,
      "சுதந்திர": 6506,
      "மர்வ": 6507,
      "வைத் த": 6508,
      "ெழுப்ப": 6509,
      "விசாரித்த": 6510,
      "ிடி": 6511,
      "இதில் க": 6512,
      "ிருந்தன.\n": 6513,
      "ை தடுக்க": 6514,
      "கவல": 6515,
      " என க": 6516,
      "ை விடு": 6517,
      "ு வருவதாக": 6518,
      "ோறும் ": 6519,
      " ஜெயலலித": 6520,
      "ருணாநிதி ": 6521,
      " ராசிக்காரர்கள": 6522,
      "41": 6523,
      "ாவி": 6524,
      "ொக்க": 6525,
      "்வி": 6526,
      "ள்ளுப": 6527,
      "ங்களை ச": 6528,
      "ால் என்ன": 6529,
      "செய்தார": 6530,
      "ுரேஷ": 6531,
      "ை நம்ப": 6532,
      "ின் கருத்த": 6533,
      "து அரச": 6534,
      "டுகிறார": 6535,
      "ுக்கு பிறக": 6536,
      "ுவங்கியத": 6537,
      "ம்ரான் க": 6538,
      "ஆலோசன": 6539,
      "ஏக": 6540,
      "ஜெக": 6541,
      "டீ": 6542,
      "் உள்ளிட்ட": 6543,
      "ம் மு": 6544,
      "ை நடந்தத": 6545,
      "ப்பகுதியில் ": 6546,
      "ர் என": 6547,
      " புர": 6548,
      " பில்லியன் ": 6549,
      " காச": 6550,
      "ு அறிக்க": 6551,
      "ற்பட": 6552,
      "ி வீ": 6553,
      "டிக்கும் ": 6554,
      "ம் மக்கள": 6555,
      "ஆதார": 6556,
      "இடத்தில் ": 6557,
      " வீடியோவ": 6558,
      "முதல்வர் ஸ்டாலின் ": 6559,
      " செயற்க": 6560,
      "றுவை சிகிச்ச": 6561,
      "திர்வரும் ": 6562,
      "க்கார": 6563,
      "ி ஹ": 6564,
      "ின் பிர": 6565,
      " இறுத": 6566,
      "ாடி ": 6567,
      "ு காட்ட": 6568,
      "ு கூட": 6569,
      "ைக்கு வந்த": 6570,
      "ான் த": 6571,
      "ெரியாமல் ": 6572,
      "ொலை வழக்க": 6573,
      " பொதுச்செயல": 6574,
      "ாலியல் வன்கொடும": 6575,
      "ோ அல்லது ": 6576,
      "ரீட்ச": 6577,
      "காம": 6578,
      "பங்க": 6579,
      "பஞ்ச": 6580,
      "க்கோப்ப": 6581,
      "ியோ": 6582,
      "ப்பன": 6583,
      "ட்டனர": 6584,
      "விருந்த": 6585,
      " பாஜகவ": 6586,
      "ிக்கும": 6587,
      "ல்லது க": 6588,
      " ஆச": 6589,
      " விநாயக": 6590,
      "ு மாலை ": 6591,
      " வேண்டியத": 6592,
      "திரும": 6593,
      "ைக் காட்ட": 6594,
      "ணியை ": 6595,
      "ின் பொருளாதார": 6596,
      "ு விளக்க": 6597,
      "ஆர்வ": 6598,
      "உண்": 6599,
      "உற்பத்த": 6600,
      "உச்ச நீதிமன்ற": 6601,
      "தைய": 6602,
      "ிலும் அ": 6603,
      " பணிகள": 6604,
      " அட்ட": 6605,
      "வரச": 6606,
      "ுகள் குறித்த": 6607,
      "ைகளை ப": 6608,
      " வேலை ": 6609,
      "ு நம்ப": 6610,
      "தற்கு முன்ப": 6611,
      "த்தின் மூல": 6612,
      "இந்திய அண": 6613,
      "ு கொண்டிருந்த": 6614,
      "தொடங்கியத": 6615,
      "இதுதொடர்ப": 6616,
      " உக்ரைன் ": 6617,
      "ter": 6618,
      "அக்க": 6619,
      "கரா": 6620,
      "பாச": 6621,
      " கர": 6622,
      " தொண்ட": 6623,
      "ாதீர்கள": 6624,
      "ர்ஸ் ": 6625,
      " ஆர்வ": 6626,
      "ிகளுக்கு ": 6627,
      "குறிப்பாக,": 6628,
      "வெளியேற்ற": 6629,
      "நாயகர": 6630,
      "திடீர் ": 6631,
      " தலைவர் அண்ணாமல": 6632,
      "இவ்வளவ": 6633,
      "பஞ்சாப": 6634,
      "் செய்யப்பட்ட": 6635,
      " கொட": 6636,
      "ங்களுக்கு அ": 6637,
      "ு கே": 6638,
      "ாய் க": 6639,
      "பெருமாள": 6640,
      "ை கடந்த": 6641,
      "ை எப்பட": 6642,
      "ராஜன் ": 6643,
      "ு உறுத": 6644,
      "தனது க": 6645,
      "ொல்கிறார": 6646,
      "ை விசாரித்த": 6647,
      "ஆர்ட": 6648,
      "்ஜெட": 6649,
      "மற்றொர": 6650,
      "குஜரா": 6651,
      "ை எதிர்கொண்ட": 6652,
      " பெருமாள் க": 6653,
      "அத்துடன": 6654,
      "ா்": 6655,
      "ா உ": 6656,
      "ுதிகள": 6657,
      "ப்பிரிவ": 6658,
      "ாகல": 6659,
      " நிதி": 6660,
      "ின் வில": 6661,
      "ரிட்ட": 6662,
      "வர்களுக்க": 6663,
      "ிவருக": 6664,
      "ை அறிந்த": 6665,
      "ு சுமார் ": 6666,
      "ு முயற்ச": 6667,
      "தனது ப": 6668,
      "த்தை முன்னிட்ட": 6669,
      "ாவின் க": 6670,
      "ிரிக்கெட் ": 6671,
      " ரன்கள் சேர்த்த": 6672,
      "ல்பட்ட": 6673,
      " மகிழ்ச்ச": 6674,
      " குடியரச": 6675,
      " உறுப்பினர் ": 6676,
      "47": 6677,
      "ஆட்சி ": 6678,
      "ஓ.ப": 6679,
      "ீப்ப": 6680,
      "ே இ": 6681,
      "ண்டார": 6682,
      " கப்ப": 6683,
      "ாதல் ": 6684,
      "ாத்கார": 6685,
      "ர்மன": 6686,
      "மான நிலைய": 6687,
      "ிட்டார": 6688,
      "்.,": 6689,
      "ும் பண": 6690,
      "ி அந்த": 6691,
      "ல்விய": 6692,
      "ு வருகிறோம": 6693,
      "ம் அளிக்க": 6694,
      "ுள் ப": 6695,
      "் இட": 6696,
      "தினமும் ": 6697,
      "யணித்த": 6698,
      " நேரத்தில": 6699,
      "ு எதிரான": 6700,
      " ஆயிரத்து ": 6701,
      "ர்க்கர": 6702,
      "க்கணக்கான ப": 6703,
      "சமீபத்தில் ": 6704,
      "ி உயர்வ": 6705,
      "பச": 6706,
      "வ் தாக்க": 6707,
      "ன் பட": 6708,
      " கிருஷ்ண": 6709,
      " முத்த": 6710,
      "மாக ந": 6711,
      "ை அலுவலக": 6712,
      "மான ச": 6713,
      "ிதான் ": 6714,
      "ி கால": 6715,
      "ி கேட்ட": 6716,
      "ூட்டணி ": 6717,
      "ர் கோயில": 6718,
      "ாபுர": 6719,
      "ில் அரச": 6720,
      "ம் தேத": 6721,
      "மேற்கொள்வ": 6722,
      " ஊழ": 6723,
      "ுறிப்பிட": 6724,
      "ணியில் இருந்த": 6725,
      " கட்டண": 6726,
      "பெரும் அ": 6727,
      "றக்கட்டள": 6728,
      "துணை ": 6729,
      "ரிணாமு": 6730,
      "தோ": 6731,
      "மல்ல": 6732,
      "மருத்துவமன": 6733,
      "ூல் ": 6734,
      "ம் ஏற்பட்ட": 6735,
      "ாராத": 6736,
      "ையையும் ": 6737,
      "திரிகள": 6738,
      " இச": 6739,
      "ுக்கு முன்ன": 6740,
      "ை கொடுக்க": 6741,
      " ஜூலை ": 6742,
      " ஆண்டுகள் ": 6743,
      "ணக்கெடுப்ப": 6744,
      "திறன": 6745,
      "ான ஏற்பாடுகள": 6746,
      "பின்னர் அ": 6747,
      " அமைச்சர்கள": 6748,
      "அதன்படி ": 6749,
      "லாச்சார": 6750,
      "பெண்கள் ": 6751,
      "நீண்ட கால": 6752,
      "ை எதிர்கொள்ள": 6753,
      "இப்படிய": 6754,
      "கோட": 6755,
      "ொலைவ": 6756,
      "ு குற": 6757,
      "ிய ": 6758,
      "ப்பிர": 6759,
      "விற்பன": 6760,
      " போர": 6761,
      "ு பிறப்ப": 6762,
      "ு அவ": 6763,
      "டிக்கடி ": 6764,
      "ி நகர": 6765,
      "அவர்களின் ": 6766,
      "ிடைக்கவில்ல": 6767,
      "நடைபெறும் ": 6768,
      "ைக்கு அனுப்ப": 6769,
      "ம்முடைய": 6770,
      "-ஆம் தேதி ": 6771,
      "05": 6772,
      "ஸ் ச": 6773,
      "ு செ": 6774,
      " கண்ண": 6775,
      " மாகாண": 6776,
      " தெய்வ": 6777,
      "ாவசிய": 6778,
      "மாக,": 6779,
      "ு நகர": 6780,
      " சம்பவம் ": 6781,
      "மேற்கொள்ளப்பட்ட": 6782,
      "திவிட்டுள்ளார": 6783,
      "ர்லாந்த": 6784,
      "ஏற்பாடு செய்த": 6785,
      "நீட் தேர்வ": 6786,
      "டி வ": 6787,
      "பே": 6788,
      "்!": 6789,
      "ண்டிக்க": 6790,
      "ற்றாக்க": 6791,
      " அண்ணாமல": 6792,
      "ல்நட": 6793,
      " சுதந்திர": 6794,
      "ுள்ளேன": 6795,
      "ாவது அ": 6796,
      "ாய்த்த": 6797,
      "ிருந்தால் ": 6798,
      "த்திற்கான": 6799,
      "ிகழ்த்த": 6800,
      "படிப்ப": 6801,
      " திருத்த": 6802,
      "தீர்மான": 6803,
      " எதிர்கால": 6804,
      " அவர்களின் ": 6805,
      "ம்தா பானர்ஜ": 6806,
      "ிபிஐ": 6807,
      "கொழும்ப": 6808,
      "ரய": 6809,
      "ரூப": 6810,
      " தேர": 6811,
      "ித்தனர": 6812,
      "இந்த நிகழ்ச்ச": 6813,
      "மாக ச": 6814,
      "மாகத் த": 6815,
      "ை அறிக்க": 6816,
      "ப்படும் க": 6817,
      " என்று ச": 6818,
      "ை உண்ட": 6819,
      "ேஷ் ப": 6820,
      "ெரிவிக்கின்றன.\n": 6821,
      "ுரித": 6822,
      "வெளியிட்டுள்ள": 6823,
      "டைசி ": 6824,
      " பின்னர் ": 6825,
      " வசதிகள": 6826,
      "ிப்ரவரி ": 6827,
      "அறிவ": 6828,
      "இவருக்க": 6829,
      "ஒன்ப": 6830,
      "சேக": 6831,
      "நப": 6832,
      "ப்ள": 6833,
      " வைப்ப": 6834,
      " தன்னுடைய": 6835,
      "ுவருகிறத": 6836,
      "ித்துற": 6837,
      " ஆந்திர": 6838,
      " முடிகிறத": 6839,
      "மைப் ப": 6840,
      "் அமைப்ப": 6841,
      "ை பிடித்த": 6842,
      "ு இர": 6843,
      "ைவருக்க": 6844,
      "ுப் பேச": 6845,
      "ம் அரச": 6846,
      "திமுகவின் ": 6847,
      " ஒழிப்ப": 6848,
      "ுக்கு சிறப்ப": 6849,
      "ங்கேற்ப": 6850,
      "ஆய": 6851,
      "காரணம": 6852,
      "சிறந்த": 6853,
      "சொன்ன": 6854,
      "நிதிய": 6855,
      "வட்ட": 6856,
      "ூன் ம": 6857,
      "ெற்க": 6858,
      "ொறிய": 6859,
      "ம் சார்ப": 6860,
      "ிறீர்கள": 6861,
      " மசோத": 6862,
      "ாலின": 6863,
      "ன்னீர் ": 6864,
      "ப்பட்டுள்ளனர": 6865,
      "ு கிராம": 6866,
      "ு அற": 6867,
      "ுகள் ம": 6868,
      " விதிகள": 6869,
      "ல்வி ": 6870,
      " பெரு": 6871,
      "வெளியானத": 6872,
      "அவரின் ": 6873,
      "து தெரியவந்தத": 6874,
      " உயர்வ": 6875,
      " செயலக": 6876,
      "வீரர்கள": 6877,
      "ு விசாரணை நடத்த": 6878,
      "ுஷ்ப": 6879,
      "்லை\n": 6880,
      " R": 6881,
      "ed ": 6882,
      "அன்ப": 6883,
      "அமைச்சர் ": 6884,
      "சங்க": 6885,
      "வாதிக்க": 6886,
      " அம்ச": 6887,
      "ுகள் ச": 6888,
      "ைகளைப் ப": 6889,
      "ை அடித்த": 6890,
      "ுத்தாண்ட": 6891,
      "ு சுவாம": 6892,
      " எடுக்க": 6893,
      " ரய": 6894,
      "முறைக": 6895,
      " பெரும": 6896,
      "அனைவரும் ": 6897,
      "ன் அமெரிக்க": 6898,
      "பிரதமர் ": 6899,
      "பிரதமர் நரேந்திர ம": 6900,
      " பெண் ": 6901,
      "செந்தில": 6902,
      " விரைவ": 6903,
      "உருவாக": 6904,
      "காண்ட": 6905,
      "சர்ச்ச": 6906,
      "தையும் ": 6907,
      "வியல் ": 6908,
      "வார்ட": 6909,
      "ண்டைய": 6910,
      " சசிகல": 6911,
      "ாடக": 6912,
      "டைட்ட": 6913,
      "ஞ்சன": 6914,
      "தீஷ": 6915,
      "ீதியில் ": 6916,
      "ுடனான": 6917,
      "ோயில்கள": 6918,
      "மூன்றாவது ": 6919,
      "ா வைர": 6920,
      "்சபா த": 6921,
      "காங்கிரஸ் ": 6922,
      "லேச": 6923,
      "ாடு": 6924,
      "ிரி ": 6925,
      " இஸ்ரேல் ": 6926,
      " சீ": 6927,
      " சுப": 6928,
      "ினைப்ப": 6929,
      "வேதன": 6930,
      "ு தற்க": 6931,
      "ை வலியுறுத்த": 6932,
      "ி அனுப்ப": 6933,
      "ி மாதம் ": 6934,
      "என்பது த": 6935,
      "் இன்ற": 6936,
      "ார்ட்ட": 6937,
      "ஒப்புத": 6938,
      "ொதுக்குழுவ": 6939,
      "46": 6940,
      "ணிவ": 6941,
      "மன்ன": 6942,
      "ளிய": 6943,
      "வுள": 6944,
      " பார்க்க": 6945,
      " பாகிஸ்தான": 6946,
      "முந்தைய": 6947,
      " கீழ": 6948,
      "ு வழ": 6949,
      "ு பார்க்க": 6950,
      "டுத்தடுத்த": 6951,
      "இதுப": 6952,
      "ை மட்ட": 6953,
      "ை மாத": 6954,
      "ைக் கேட்ட": 6955,
      "ு எல்ல": 6956,
      "ை இன்ற": 6957,
      "ேஷன் ": 6958,
      "மிகவும் ப": 6959,
      "இடைக்கால": 6960,
      "ாத்திருந்த": 6961,
      "ட்டுப்பாட": 6962,
      "ி ஆதித்ய": 6963,
      "து நல்லத": 6964,
      "ஜனாதிபதி ரணில் விக்ரமசிங்க": 6965,
      "டிதம் எ": 6966,
      "ாட் கோல": 6967,
      "49": 6968,
      "இலவச": 6969,
      "சுப்பிரமணிய": 6970,
      "ெரு": 6971,
      " பிள": 6972,
      "ுள்ளன": 6973,
      "ப்பட்டதாக": 6974,
      "ம்புல": 6975,
      "ரிச்ச": 6976,
      "ிடக்க": 6977,
      "ாட்டிற்க": 6978,
      "ைகளும் ": 6979,
      "ைகள் குறித்த": 6980,
      "ுட் ": 6981,
      "ு நன்ற": 6982,
      "வெளியில் ": 6983,
      "த்தியாவசிய": 6984,
      "விரைந்த": 6985,
      "ில் சிறப்ப": 6986,
      " மக்கள் க": 6987,
      " யாத்திர": 6988,
      " ஹமா": 6989,
      "ெல்ட": 6990,
      "் மீதான": 6991,
      "பிஎல் ": 6992,
      "எதிர்பார்த்த": 6993,
      "ு சமய அற": 6994,
      "ை முன்னிட்ட": 6995,
      "ும் நடவடிக்க": 6996,
      "திண": 6997,
      " வகுப்ப": 6998,
      " மண்டப": 6999,
      " தான": 7000,
      "ட்சத்திர": 7001,
      "ோதும": 7002,
      "ோவில் க": 7003,
      "ுவதற்காக": 7004,
      "நடக்கும": 7005,
      " என்கிறார் அவர": 7006,
      " சூழல் ": 7007,
      "மனைவி ": 7008,
      "றுதிப்படுத்த": 7009,
      "ற்பனை செய்ய": 7010,
      "ாய்கற": 7011,
      "ay": 7012,
      "ு செலவ": 7013,
      "க்கிர": 7014,
      "ுமூல": 7015,
      "செய்ப": 7016,
      "் தமிழ": 7017,
      "ு போக": 7018,
      " எழுத்த": 7019,
      "ுபவர்கள": 7020,
      "ி நாள": 7021,
      "தலைவர்கள": 7022,
      "மலை ": 7023,
      " அறிகுற": 7024,
      "தெற்க": 7025,
      "குடியிருப்ப": 7026,
      "ு தமிழ்நாட": 7027,
      "மாகக் கொண்ட": 7028,
      "உத்தரவ": 7029,
      "நெல்ல": 7030,
      "ாஃப": 7031,
      "து என்ன?\n": 7032,
      " அழக": 7033,
      "வரலாற": 7034,
      " நட்சத்திர": 7035,
      "ங்களின் ப": 7036,
      " இருவரும் ": 7037,
      "ாதி ": 7038,
      "ாளருமான": 7039,
      "ுகள்\n": 7040,
      "ிப்படுத்த": 7041,
      " விண்வெள": 7042,
      "ு தர": 7043,
      "வீதி ": 7044,
      "ம் பிடித்த": 7045,
      "ொழுத": 7046,
      "ை உலக": 7047,
      "ு..": 7048,
      "நடந்தன.\n": 7049,
      "ிங் க": 7050,
      " நேரங்களில் ": 7051,
      "ீதாராம": 7052,
      "துவங்கியத": 7053,
      "ு இருந்தார": 7054,
      "இரவு ": 7055,
      "ல்வித்துற": 7056,
      "id": 7057,
      "ir": 7058,
      "ஃபெ": 7059,
      "்வர": 7060,
      "ந்தார": 7061,
      "விமர்ச": 7062,
      "ுமையான": 7063,
      "ாலும் ப": 7064,
      "த்தில் பல": 7065,
      " உச்ச நீதிமன்ற": 7066,
      "ம்ஸ் ": 7067,
      "ை சரிய": 7068,
      "இல்லை என்ற": 7069,
      "ாக பேச": 7070,
      "ிவிட்டார": 7071,
      "்ஜெட்ட": 7072,
      " வெளியிட்ட": 7073,
      "முடியாத": 7074,
      " மணி வர": 7075,
      " எதிர்க்கட்சிகள": 7076,
      "எதிர்பார்ப்ப": 7077,
      "ு வேண்ட": 7078,
      "ை தமிழக": 7079,
      "us": 7080,
      "ீஷ": 7081,
      "ீர்வ": 7082,
      "ம் மூல": 7083,
      "ாரத": 7084,
      " காங்கிரஸ் த": 7085,
      "ும்\n": 7086,
      "ிரித்த": 7087,
      "ிரேஷ்ட": 7088,
      " வல்ல": 7089,
      " வழிப": 7090,
      " நாங்கள் ": 7091,
      "ிக்கையாளர்கள": 7092,
      "ல்லது ப": 7093,
      "ு மதிப்ப": 7094,
      "ைப்பொருள": 7095,
      "ம் அதிக": 7096,
      "தியம் ": 7097,
      "லில் இருந்த": 7098,
      "் வைத்த": 7099,
      "ருதரப்ப": 7100,
      "த் தேர்தல் ": 7101,
      "ட்விட்டர் ப": 7102,
      "ஒருவருக்க": 7103,
      " லட்சம் ரூபாய": 7104,
      "ரயில்வே": 7105,
      " டெஸ்ட": 7106,
      "ு எண்ணிக்க": 7107,
      "நிறைய": 7108,
      "ே உ": 7109,
      " காட்ட": 7110,
      " கொல": 7111,
      " அணிக்க": 7112,
      "ுக்கும் இட": 7113,
      " சிங்க": 7114,
      " சூரிய": 7115,
      "ாவுடன் ": 7116,
      "ாய்கள": 7117,
      " ஆணைய": 7118,
      "மாக ம": 7119,
      "முதற்க": 7120,
      "மீற": 7121,
      "முன்னெடுக்க": 7122,
      "ஒருவர் க": 7123,
      "ல் கொடுத்த": 7124,
      "ா போன்ற": 7125,
      " தலைமை ": 7126,
      "ூழ்நில": 7127,
      "சிகலா": 7128,
      " இளைஞர்கள": 7129,
      "42": 7130,
      "சி ": 7131,
      "தற்போத": 7132,
      "லிட்ட": 7133,
      "ாஸ்க": 7134,
      "்பந்த": 7135,
      "ம் சென்ற": 7136,
      "ிக்க வேண்டும": 7137,
      "ன்மை ": 7138,
      " சுய": 7139,
      "ுறைமுக": 7140,
      "மான ": 7141,
      "ை சொல்ல": 7142,
      "ி பூஜ": 7143,
      " ரூப": 7144,
      "ஸ்டர் ": 7145,
      " ட்விட்ட": 7146,
      "ஒருநாள": 7147,
      "ம் வாய்ந்த": 7148,
      "ுவிட்டனர": 7149,
      "டுவது ": 7150,
      " அந்தக் க": 7151,
      "வேண்டிய": 7152,
      "றிவாள": 7153,
      " உலகக் கோப்ப": 7154,
      "பெரும் பரபரப்பை ஏற்படுத்த": 7155,
      "in ": 7156,
      " நாட்டின் ": 7157,
      "உறுதியாக": 7158,
      ") என்ற": 7159,
      "டைக்கப்பட்ட": 7160,
      "தன்னுடைய": 7161,
      "ாஸ்": 7162,
      "ிலான": 7163,
      " பாகிஸ்தான் ": 7164,
      " பரிசோதன": 7165,
      "மான ம": 7166,
      "க்களப்ப": 7167,
      "ி வக": 7168,
      "வீசிய": 7169,
      "தினசர": 7170,
      "194": 7171,
      " இந்தியா": 7172,
      "ொள்கிறார": 7173,
      "ரிவாய": 7174,
      " ஒதுக்கீட": 7175,
      "\"க": 7176,
      "ov": 7177,
      "வருட": 7178,
      "ு '": 7179,
      "ாக்ஸ": 7180,
      " பொத": 7181,
      " கோல": 7182,
      " தர்ம": 7183,
      "ினரும் ": 7184,
      " ஆற்ற": 7185,
      "அதான": 7186,
      "ு நிற்க": 7187,
      "மூள": 7188,
      "ாளர்கள் க": 7189,
      "ிசிடிவ": 7190,
      " இந்தியாவில் ": 7191,
      " அவரின் ": 7192,
      " மனுவ": 7193,
      " அளவுக்கு ": 7194,
      "கடன": 7195,
      "த்துறை அமைச்ச": 7196,
      "இந்த விஷய": 7197,
      "குறைந்தபட்ச": 7198,
      " முகாம": 7199,
      "எதிர்ப்பு தெரிவித்த": 7200,
      "ெலுங்கான": 7201,
      "ம் இருப்ப": 7202,
      "ல்வெட்ட": 7203,
      " சி": 7204,
      "ல்லக்க": 7205,
      "என்று அ": 7206,
      "இதில் ப": 7207,
      "க் கொள்க": 7208,
      " நிலை": 7209,
      "ஸ்ட்ர": 7210,
      "ு உண்ட": 7211,
      "ு உணவ": 7212,
      "ப்படுகிறார": 7213,
      "இல்லைய": 7214,
      "ஒரு பகுதியாக": 7215,
      "உலகின் ": 7216,
      " நாடுகளில் ": 7217,
      "ங்கள் தொடர்ப": 7218,
      "எண்ணிக்கை ": 7219,
      " ஒருவர் ": 7220,
      "ிட்டத்தட்ட ": 7221,
      "நிச்சய": 7222,
      "ழுக்க": 7223,
      "ேஸ": 7224,
      "ே ம": 7225,
      "ே இல்ல": 7226,
      "ி ஆகிய": 7227,
      " பஞ்சாப": 7228,
      "ம்பட்ட": 7229,
      "் சட்ட": 7230,
      "ை அமைத்த": 7231,
      "அதனை ": 7232,
      "ின்றி ": 7233,
      "ை சட்ட": 7234,
      "இருக்கிறார்கள": 7235,
      "அந்த வகையில் ": 7236,
      "ு ஆர": 7237,
      "இதற்கிட": 7238,
      " வாழ்வ": 7239,
      "சாதாரண": 7240,
      "ீவிரமாக": 7241,
      " மற்றொர": 7242,
      "BC": 7243,
      "கீழ": 7244,
      "மும் ச": 7245,
      "ரூ": 7246,
      "ெ.": 7247,
      " குண": 7248,
      "ல்லிக்க": 7249,
      " உதய": 7250,
      "ு தலைவர் ": 7251,
      "ி கிராம": 7252,
      "ும் இடையே": 7253,
      "வெளியான": 7254,
      "தலைமை ": 7255,
      "அதற்கான": 7256,
      "ஏற்றுக்கொள்ள": 7257,
      "யிற்சிய": 7258,
      "ட்டுமல்ல,": 7259,
      "் ஷிண்ட": 7260,
      "எஸ்ட": 7261,
      "ணிச": 7262,
      "நமக்க": 7263,
      "ஸ்ய": 7264,
      "ுருக்க": 7265,
      "ோண்ட": 7266,
      "த்தையும": 7267,
      "ும் ஒன்ற": 7268,
      " கொண்ட": 7269,
      " காற்ற": 7270,
      " குறிப்பிட்ட": 7271,
      "ு பிறக": 7272,
      "ாயக்க": 7273,
      "வேத": 7274,
      "ேர்ப்ப": 7275,
      " விட": 7276,
      "ை அதிகரித்த": 7277,
      " என்று தெரிவித்தார": 7278,
      "ை மீட்க": 7279,
      "ும் அதே": 7280,
      " உள்ளனர": 7281,
      " மக்கள் த": 7282,
      "டுகின்றனர": 7283,
      "ணக்கான": 7284,
      "வேலைக்க": 7285,
      "ஜனவரி ": 7286,
      "ில் நேற்ற": 7287,
      "த்துறைய": 7288,
      "ால் அது ": 7289,
      "atan": 7290,
      "ு இடங்களில் ": 7291,
      "ை அணிந்த": 7292,
      " பேச்சுவார்த்த": 7293,
      " ஊழியர்கள": 7294,
      "ஒப்படைக்க": 7295,
      "01": 7296,
      "i ": 7297,
      "அப": 7298,
      "கிழ்ச்ச": 7299,
      "சேர்ந்த": 7300,
      "னைவர": 7301,
      "ரில் ப": 7302,
      "ப்பட்ட ": 7303,
      "ுகார்கள": 7304,
      "ப் போவ": 7305,
      "ம் அருக": 7306,
      " பெற": 7307,
      "படித்த": 7308,
      "யிர்கள": 7309,
      "வெளியுறவ": 7310,
      " அதில் ": 7311,
      " முறை ": 7312,
      " வீடிய": 7313,
      "யிற்சி ": 7314,
      "வேகமாக": 7315,
      "மொத்தம் ": 7316,
      "இதன்போது ": 7317,
      "அலுவலக": 7318,
      "ஆர்": 7319,
      "இழந்த": 7320,
      "மின்சார": 7321,
      "ருத்தில் கொண்ட": 7322,
      "ையோட": 7323,
      "ுக்குச் ச": 7324,
      "ல்ஹ": 7325,
      "் கால": 7326,
      " துர": 7327,
      "ி அளித்த": 7328,
      "ம் தான் ": 7329,
      "ேட்ஸ்": 7330,
      "இதற்கான": 7331,
      "இணைப்ப": 7332,
      " வாக்குகள": 7333,
      " சுவாமி க": 7334,
      "எதிர்க்கட்சிகள": 7335,
      "ுடன் சேர்ந்த": 7336,
      "ம்பர் மாத": 7337,
      "ழங்குடியின": 7338,
      " ....": 7339,
      "யோ": 7340,
      "ென்": 7341,
      "ெஞ்ச": 7342,
      "ேப்ப": 7343,
      "விநியோக": 7344,
      "ை அமைக்க": 7345,
      "ை அறிவித்த": 7346,
      "ம்மாநில": 7347,
      "திகளில் ": 7348,
      "ேட் ": 7349,
      " லட்சம் க": 7350,
      "போலீஸ் ": 7351,
      " விமான நிலைய": 7352,
      "உட்பட ": 7353,
      " மோசமான": 7354,
      "ம்பர் மாதம் ": 7355,
      "ெலிகாப்ட": 7356,
      "Vik": 7357,
      "இயங்க": 7358,
      "உரிம": 7359,
      "ஏப்ரல் ": 7360,
      "பந்த": 7361,
      "ொகுதிகள": 7362,
      "ப்பான் ": 7363,
      "ையாளர் ": 7364,
      " அபிஷேக": 7365,
      " தன் ": 7366,
      "ல்லது அ": 7367,
      "ுறைக்க": 7368,
      "மேக": 7369,
      "ிழமைய": 7370,
      "ுத்தான் ": 7371,
      " எச்சரிக்க": 7372,
      "ை வாய்ப்ப": 7373,
      "ராஜேந்திர": 7374,
      "ைத் தடுக்க": 7375,
      "ொள்ளைய": 7376,
      "பிரதான": 7377,
      "த்தில்தான் ": 7378,
      "் வங்க": 7379,
      "ும் நிகழ்வ": 7380,
      "ஏற்பட்டுள்ள": 7381,
      "இறுதி": 7382,
      "அனுப்ப": 7383,
      "ு பிரிவ": 7384,
      "ழைத்துச் சென்ற": 7385,
      " பிரதமர் ": 7386,
      "ுட்பட்ட": 7387,
      "ழிவக": 7388,
      "னைவருக்க": 7389,
      " ஒன்றிய": 7390,
      "ent": 7391,
      "ிவிடும": 7392,
      " இயக்குந": 7393,
      " உள்துறை அமைச்ச": 7394,
      "ரவீந்திர": 7395,
      "உளவ": 7396,
      "டலில் ": 7397,
      "டேஜ": 7398,
      "மணிய": 7399,
      "ரஜின": 7400,
      "ுங்கள் ": 7401,
      "தி\n": 7402,
      "ள்ளிரவ": 7403,
      " மில்லிய": 7404,
      " தொழ": 7405,
      " சோதன": 7406,
      " உற்சவ": 7407,
      "போது க": 7408,
      "் சிற": 7409,
      "க் கூற": 7410,
      "ராங்கன": 7411,
      "் மதிப்ப": 7412,
      "மைச்சரவ": 7413,
      "ராஜஸ்தான் ": 7414,
      "ி மதிப்ப": 7415,
      "இதனிடைய": 7416,
      "ின் பேர": 7417,
      " லெ": 7418,
      "ரிசர்வ": 7419,
      " தனக்க": 7420,
      "ஏற்றுமதி ": 7421,
      " நாளில் ": 7422,
      "ஆம் ஆண்டு ": 7423,
      " கூட்டணி ": 7424,
      " மாட்டார்கள": 7425,
      "ுத் திரும்ப": 7426,
      "த் தேர்தல": 7427,
      " கூடாத": 7428,
      "உத்தரப்பிரதேச": 7429,
      " செல்ல": 7430,
      "ஏவுகண": 7431,
      "நேய": 7432,
      "னிப்ப": 7433,
      "ளவில": 7434,
      "ூகுள": 7435,
      "ேந்த": 7436,
      "ியை ப": 7437,
      "ில் இந்த": 7438,
      "ி வெளியிட்ட": 7439,
      " கம்ப": 7440,
      " தேன": 7441,
      "் தொட": 7442,
      "் தேவ": 7443,
      "ப் போராட்ட": 7444,
      "ுறுதிகள": 7445,
      "குறைக்க": 7446,
      "ி வீர": 7447,
      "ஏற்பாடு ": 7448,
      " இந்த வழக்க": 7449,
      " வரை ": 7450,
      "இதற்காக": 7451,
      " குண்ட": 7452,
      "ுசீரமைப்ப": 7453,
      "உடனே": 7454,
      "ாவை முன்னிட்ட": 7455,
      "ஏதாவது ": 7456,
      " ராஜபக்ஷ": 7457,
      "கராற": 7458,
      "600": 7459,
      "ஏக்கள": 7460,
      "ரொம்ப": 7461,
      "ியர்கள": 7462,
      "ும் நில": 7463,
      "ும் என்பது ": 7464,
      "ையராஜ": 7465,
      "முய": 7466,
      "களாவிய": 7467,
      " நண்ப": 7468,
      "் பேச": 7469,
      "என்கிற": 7470,
      "ாவற்ற": 7471,
      "ற்கால": 7472,
      "ிகளில் ப": 7473,
      "இதன்": 7474,
      "ு சேர்ந்த": 7475,
      "ி கொடுத்த": 7476,
      "ும் இரண்ட": 7477,
      "ட்டும்தான் ": 7478,
      "ம் வைத்த": 7479,
      "குழும": 7480,
      " காலை ": 7481,
      "ட்பட": 7482,
      " சமூக வலைதள": 7483,
      "டையாளம் காண": 7484,
      " தேர்தல் ஆணைய": 7485,
      "க.ஸ்டாலின் ": 7486,
      " மீட்டர் ": 7487,
      " மணிநேர": 7488,
      "அமை": 7489,
      "றுதி": 7490,
      "வல்ல": 7491,
      "ா..": 7492,
      "ீர்கள் ": 7493,
      "ு ஒர": 7494,
      "ை செலுத்த": 7495,
      " பி": 7496,
      " வந்தத": 7497,
      "ிக்கப்பட்டுள்ளத": 7498,
      "ு வல": 7499,
      "ாளி ": 7500,
      "தாக இருக்க": 7501,
      "ு சிவ": 7502,
      "ெரிவ": 7503,
      "மூன்று ": 7504,
      "டைப": 7505,
      "ராஜீவ": 7506,
      "ு உடன": 7507,
      "ும் சொல்ல": 7508,
      "் வாழ": 7509,
      "ஸ்ரீர": 7510,
      "ூறியுள்ளனர": 7511,
      "ராமத": 7512,
      "இலங்கைக்க": 7513,
      " அறிக்கையில": 7514,
      "ை பிரதம": 7515,
      "இயல்ப": 7516,
      "ஆம் ஆத்ம": 7517,
      "ro": 7518,
      "உத்தரவிட்ட": 7519,
      "ஏல": 7520,
      "கள்ளக்குறிச்ச": 7521,
      "சாந்த": 7522,
      "ுனர": 7523,
      " பத்த": 7524,
      " அடிப்பட": 7525,
      " வணிக": 7526,
      " தேச": 7527,
      "ம்பல": 7528,
      "ான் ம": 7529,
      "மேஜ": 7530,
      "த் தேவ": 7531,
      "ு நெருக்க": 7532,
      "ும் பேச": 7533,
      " பெரும் ": 7534,
      "குற்றவாள": 7535,
      "டெல்லி ": 7536,
      " தொழிலாளர்கள": 7537,
      "ல் மாவட்ட": 7538,
      " பெயரில் ": 7539,
      "ை உணர்ந்த": 7540,
      "em": 7541,
      "டம் ": 7542,
      "னுபவ": 7543,
      "மங்கல": 7544,
      "ட்டியல் ": 7545,
      " கன்ன": 7546,
      " அவசர": 7547,
      "ின்க": 7548,
      "ு வாகன": 7549,
      "ம்பேத்க": 7550,
      "ுகூட": 7551,
      "ைகள் ந": 7552,
      "ை அமைப்ப": 7553,
      "ை தொட": 7554,
      "ம் கண்ட": 7555,
      "த்திற்குப் பிறக": 7556,
      "ம் அறிவித்த": 7557,
      "ை உடைத்த": 7558,
      "ில் கலந்த": 7559,
      "விக்கெட்ட": 7560,
      "துசார": 7561,
      "ொல்ற": 7562,
      "மர்த்த": 7563,
      " மக்களின் ": 7564,
      "டி செய்த": 7565,
      "ா தள": 7566,
      " வேண்டும் என்று க": 7567,
      "ம் உண்ட": 7568,
      "ன்கூட்ட": 7569,
      " ஆம் திகதி ": 7570,
      " இணையதள": 7571,
      "ரிணாமுல் க": 7572,
      "43": 7573,
      "கொ": 7574,
      "சா": 7575,
      "தில் ச": 7576,
      "ேண்ட": 7577,
      "ார்ம": 7578,
      "ர் ஹ": 7579,
      " பதில": 7580,
      " காம": 7581,
      " காவல": 7582,
      " தெரிவித்துள்ளார": 7583,
      "ு கட்சிகள": 7584,
      "மீக": 7585,
      "ை எல்லாம் ": 7586,
      "ழங்குட": 7587,
      "திமுக அரச": 7588,
      "ும் இன்ற": 7589,
      "ைச் சொல்ல": 7590,
      " நட்ப": 7591,
      "ென்ச": 7592,
      "ஸ்பெக்ட": 7593,
      "ிகிச்சை பெற்ற": 7594,
      " நாட்களுக்கு முன்ப": 7595,
      "ை எதிர்க்க": 7596,
      "திடீ": 7597,
      " திருக்க": 7598,
      "ண்டுபிடிப்ப": 7599,
      "வேண்டுமான": 7600,
      "al ": 7601,
      "இயக்குந": 7602,
      " மோதல் ": 7603,
      "ுட்டிக்காட்டினார": 7604,
      "ொடியேற்றத்துடன் ": 7605,
      "ாருங்கள": 7606,
      "ன்னியாகுமர": 7607,
      "06": 7608,
      "ஏதேன": 7609,
      "ிது ": 7610,
      "ோர்கள": 7611,
      "த்தும": 7612,
      "த்தால": 7613,
      "ாரம்பரிய": 7614,
      "ங்காய": 7615,
      "ு பதிவு செய்த": 7616,
      "ு அதிகமாக": 7617,
      "மாறிய": 7618,
      " விப": 7619,
      "ு மற": 7620,
      "ேசன": 7621,
      "ி தனது ": 7622,
      "ைத் தலைவர் ": 7623,
      " முடியும் என": 7624,
      "பிரிவ": 7625,
      "ாழ்ப்ப": 7626,
      "ு ஆயுத": 7627,
      "ுல்க": 7628,
      "திவு செய்யப்பட்ட": 7629,
      "ங்களுக்கான": 7630,
      "ூடியூப": 7631,
      "ார்ட்": 7632,
      "ூற்றுக்க": 7633,
      "்..!\n": 7634,
      "ன்ஸ்டாக": 7635,
      "Vikatan": 7636,
      "ஆசிய": 7637,
      "ங் ": 7638,
      "ஜராக": 7639,
      "நாராயண": 7640,
      "பயண": 7641,
      "ிமைய": 7642,
      "ேண": 7643,
      "ேற்க": 7644,
      "ையை ச": 7645,
      "விபத்த": 7646,
      "ர் நில": 7647,
      " கேட்ட": 7648,
      "வர்": 7649,
      "வரை க": 7650,
      "இந்த ந": 7651,
      "உள்ளடக்கிய": 7652,
      "ிபந்தன": 7653,
      "ி நாட": 7654,
      "விழாவ": 7655,
      "ும் வழக்க": 7656,
      "ான திட்ட": 7657,
      "ைச்சுவ": 7658,
      "ாது என்பத": 7659,
      " பந்துகளில் ": 7660,
      "ொனால்ட": 7661,
      "பகர": 7662,
      "பூஜ": 7663,
      "லால் ": 7664,
      "ீற": 7665,
      "ொய்ய": 7666,
      "ம் இத": 7667,
      "ருவிகள": 7668,
      " பொருள": 7669,
      "ு வீச்ச": 7670,
      "ு தங்க": 7671,
      "ைக் காண": 7672,
      "இலங்கை ": 7673,
      " சிறிய": 7674,
      "நியாய": 7675,
      "ட்டியலின": 7676,
      "ொலைக்காட்ச": 7677,
      " தகவல்கள் வெளியாக": 7678,
      "்நாத் ஷிண்ட": 7679,
      "்கானிஸ்தான": 7680,
      " New": 7681,
      "ிர்மலா ச": 7682,
      "ஃபோ": 7683,
      "இலக்க": 7684,
      "சக்த": 7685,
      "ருதி ": 7686,
      "வரவேற்ப": 7687,
      "ிக்கிறார": 7688,
      "ாடல் ": 7689,
      " ஆங்கில": 7690,
      "ுறப்ப": 7691,
      "திரண்ட": 7692,
      "ை மிகவும் ": 7693,
      "ார் நிறுவன": 7694,
      "ு எழுத": 7695,
      "ை உறுதிப்படுத்த": 7696,
      " முடியாது என": 7697,
      "ர் மாளிக": 7698,
      " \"ப": 7699,
      "ில் சட்ட": 7700,
      " வயது ச": 7701,
      "ுவிடுவ": 7702,
      "ணிப்பாளர் ": 7703,
      "ொல்கிறார்கள": 7704,
      "மாதான": 7705,
      "ேள்விக்க": 7706,
      "குடியரசுத் தலைவர் ": 7707,
      "ஒட்டிய": 7708,
      "காய": 7709,
      "ஜே": 7710,
      "ொகைய": 7711,
      "் திட்ட": 7712,
      "ம் இன்ற": 7713,
      "விதிக்க": 7714,
      "ாக மாற்ற": 7715,
      "முடிக்க": 7716,
      " கட்சியின் ": 7717,
      "ங்களும": 7718,
      "ாயன": 7719,
      "வர்கள் ம": 7720,
      "ி வழிப": 7721,
      "இந்தியா க": 7722,
      "ு வித": 7723,
      "ராஜபக": 7724,
      "ை இன்ன": 7725,
      "ுநாள": 7726,
      "டுகிறார்கள": 7727,
      "ு செய்யப்பட்டத": 7728,
      "எல்லா": 7729,
      "ரஷ்யாவின் ": 7730,
      "உடனடிய": 7731,
      " வேண்டும் என்பது ": 7732,
      "ாக்குதல் நடத்திய": 7733,
      " நடந்தத": 7734,
      "ழப்பீட": 7735,
      "உறவினர்கள": 7736,
      " ரசிகர்கள": 7737,
      "et": 7738,
      " வின": 7739,
      "த்தின் ச": 7740,
      "ை நாள": 7741,
      "இந்தியா ": 7742,
      "ூராட்ச": 7743,
      "ர் மாவட்ட": 7744,
      "ுள் அ": 7745,
      "என்னென்ன": 7746,
      "ாண்டி ": 7747,
      "ல்களில் ": 7748,
      "விளம்பர": 7749,
      "ோவிலில் ": 7750,
      " உறுத": 7751,
      " வேலைத்திட்ட": 7752,
      " இயற்க": 7753,
      " வேட்பாளர்கள": 7754,
      "மாளிக்க": 7755,
      "ிர்மலா சீதாராம": 7756,
      ")\n": 7757,
      "பில": 7758,
      "மி": 7759,
      "ொருந்த": 7760,
      " அரப": 7761,
      "் பெற்ற": 7762,
      " இப்ப": 7763,
      "ருக்கு ப": 7764,
      "இந்த திட்ட": 7765,
      " ஆட்சி ": 7766,
      "ு அனுமதி ": 7767,
      "ற்படைய": 7768,
      "வர்களை ": 7769,
      "ிகளுடன் ": 7770,
      "ு நினைத்த": 7771,
      "ாசல": 7772,
      "த்திற்கு வந்த": 7773,
      "ாமல் போன": 7774,
      "உதயநிதி ": 7775,
      "ராவ": 7776,
      "ரோட": 7777,
      "வருடைய": 7778,
      "ெருங்க": 7779,
      "ையின் க": 7780,
      "ையைச் சேர்ந்த": 7781,
      "ண்டை ": 7782,
      " குறித்த": 7783,
      "ு கீழ": 7784,
      "ு அமைச்சர் ": 7785,
      "ைகளை த": 7786,
      "உள்ளன": 7787,
      "ு தான": 7788,
      "ு மீண்டும் ": 7789,
      " எட்ட": 7790,
      "ு நாம் ": 7791,
      "ம்ன": 7792,
      "திருமாவளவ": 7793,
      "ி பட": 7794,
      "ு இயக்க": 7795,
      "த்தின் த": 7796,
      "ெய்த": 7797,
      "ு எதுவ": 7798,
      "ீர்த": 7799,
      "டையே க": 7800,
      "த்திலுள்ள": 7801,
      "ை இரண்ட": 7802,
      " ஓ.பன்னீர்செல்வ": 7803,
      "அவர்களுக்கு ": 7804,
      "லுவல்கள": 7805,
      "ின்படி ": 7806,
      "துர்த்த": 7807,
      "ப்போதைய": 7808,
      "மாணவர்கள் ": 7809,
      "வழக்கறிஞ": 7810,
      "த்தினால் ": 7811,
      "ு தெரிவித்துள்ளத": 7812,
      " சூழலில் ": 7813,
      "ி வைத்தார": 7814,
      "ூடுதல": 7815,
      "ு பேசினார": 7816,
      "ந்துவீச்சாளர்கள": 7817,
      " ரயில்வே": 7818,
      "அழக": 7819,
      "கன் ": 7820,
      "தாபாத்திர": 7821,
      "ஹி": 7822,
      "ாங்கள": 7823,
      "க்கட்ட": 7824,
      " மொத்த": 7825,
      "் போராட்ட": 7826,
      "் தொற்ற": 7827,
      "ைகளை க": 7828,
      " விரிவ": 7829,
      " நிலைம": 7830,
      "ைப் பொறுத்தவர": 7831,
      "ைத் தொடங்க": 7832,
      "ோரின் ": 7833,
      " ஒல": 7834,
      "ாடுகள் ": 7835,
      "ணிக்கு ": 7836,
      "விசாரணைக்க": 7837,
      "ு ஏற்பட்டுள்ளத": 7838,
      "ம் தொடர்பான": 7839,
      " G": 7840,
      "ஊட்ட": 7841,
      "எளி": 7842,
      "கில": 7843,
      "தியில் ": 7844,
      "துடன": 7845,
      "வடிவ": 7846,
      "ஹோம": 7847,
      "ீ.\n": 7848,
      "ேல் ": 7849,
      "ேட்ச": 7850,
      "ொப்ப": 7851,
      "இந்துக்கள": 7852,
      "வெவ்வேற": 7853,
      "ுத்துவ": 7854,
      "ை மிரட்ட": 7855,
      "நீதி ": 7856,
      "முறையில் ": 7857,
      "ி தன": 7858,
      " பிரசார": 7859,
      " ஜூன் ": 7860,
      "தேசமய": 7861,
      "முதல்வர் ஸ்டாலின": 7862,
      "வாழ்த்த": 7863,
      "ே...\n": 7864,
      "ன்கொட": 7865,
      "வேட்பாளர் ": 7866,
      "மாக இருக்கிறத": 7867,
      "வ்வித": 7868,
      "பிப்ரவரி ": 7869,
      "டோ": 7870,
      "ும் மக்கள": 7871,
      "ி ஓ": 7872,
      " வாங்க": 7873,
      "ுள்ளது என்ற": 7874,
      "் தன": 7875,
      "ு வீச": 7876,
      "ுகைய": 7877,
      "ு அவருக்க": 7878,
      "ு அணிகள": 7879,
      " உத்தரவிட்ட": 7880,
      "் சப": 7881,
      "ைகள் ம": 7882,
      " விண்ணப்ப": 7883,
      "செய்யப்பட்டத": 7884,
      "ையிலான க": 7885,
      "பிசிய": 7886,
      "ன்பிட": 7887,
      "நீலகிர": 7888,
      "ில் பேச": 7889,
      "ெரிவித்திருக்கிறார": 7890,
      "கவியல": 7891,
      " மாநகராட்ச": 7892,
      " பெங்கள": 7893,
      "முன்னெடுத்த": 7894,
      "ிங் ப": 7895,
      "ங்களுக்குத் த": 7896,
      "முடிவு செய்த": 7897,
      "ல் அறிக்க": 7898,
      "ரத்து செய்த": 7899,
      "தித்துவ": 7900,
      "றக்குமதி ": 7901,
      " காரணம": 7902,
      " முழுவத": 7903,
      "திருவண்ணாமல": 7904,
      "யுக்ரேன் ": 7905,
      "ஐரோப்பிய": 7906,
      " ஒத்துழைப்ப": 7907,
      "\" என்ற": 7908,
      "இடையே": 7909,
      "ு மாகாண": 7910,
      "ியை க": 7911,
      "்சிப": 7912,
      " பயன்படுத்த": 7913,
      " இவர் ": 7914,
      "ாலும் க": 7915,
      "ுகின்றன": 7916,
      " ஆண்கள": 7917,
      "ு தலை": 7918,
      " எங்க": 7919,
      "ி வைக்கப்பட்ட": 7920,
      "தொடர": 7921,
      "உடலில் ": 7922,
      " நடித்த": 7923,
      "ராமநாதபுர": 7924,
      "ப்ரல் ம": 7925,
      "குளிர": 7926,
      "மாக இருக்கும": 7927,
      " தமிழ்நாடு அரச": 7928,
      "உதாரணமாக": 7929,
      " செல்வ": 7930,
      "குமார் ": 7931,
      "சரிய": 7932,
      "நினைத்த": 7933,
      "ேன்\n": 7934,
      "ியை த": 7935,
      "ந்திய": 7936,
      "ன் உள்ளிட்ட": 7937,
      "ிரதம": 7938,
      "ுக்குள்ள": 7939,
      "ுக்குச் சென்ற": 7940,
      " நாம": 7941,
      "ப்பட்ட ப": 7942,
      "இந்தத் திட்ட": 7943,
      "ு துண": 7944,
      "திரள": 7945,
      "ஏற்படுகிறத": 7946,
      "ு விவர": 7947,
      "ோரி ": 7948,
      "ி நக": 7949,
      "ஒருபோத": 7950,
      " அனும": 7951,
      " ஏவுகண": 7952,
      "ிமொழ": 7953,
      "எந்தவித": 7954,
      "ம் நிறைவேற்ற": 7955,
      "த்தில் சிக்க": 7956,
      "தாகவும் த": 7957,
      "நேற்று (": 7958,
      "யங்கர": 7959,
      "ு பெண": 7960,
      "ாகக் கொண்ட": 7961,
      "ம் தொடர்பாக": 7962,
      " பகுதிகளில் ": 7963,
      "ுகழ்ப": 7964,
      " இயல": 7965,
      "99": 7966,
      "சிதம்பர": 7967,
      "ஜம்மு காஷ்மீ": 7968,
      "மருந்த": 7969,
      "ரண்": 7970,
      "ைவிக்க": 7971,
      " பதவ": 7972,
      "ு கேட்க": 7973,
      " உள்நாட்ட": 7974,
      "ம் பல": 7975,
      "இது ப": 7976,
      "ின் பல": 7977,
      "வனிக்க": 7978,
      "ளிக்கிறத": 7979,
      " நாடுகள் ": 7980,
      "காஷ்மீ": 7981,
      " அங்கிருந்த": 7982,
      "ுரிந்து கொள்ள": 7983,
      "ொலைபேச": 7984,
      "த்தின் கீழ் ": 7985,
      "டிஜிட்டல் ": 7986,
      "ொரோனா பாதிப்ப": 7987,
      "த்தீஸ்க": 7988,
      "250": 7989,
      "தாவது ": 7990,
      "மாம": 7991,
      "ழிந்த": 7992,
      "ேதம": 7993,
      "ை-": 7994,
      "ோ என்ற": 7995,
      "ை போன்ற": 7996,
      "முத்திர": 7997,
      "ல் வி": 7998,
      "ரிமை ": 7999,
      "திகழ": 8000,
      "ு நினைக்க": 8001,
      "் அனைத்த": 8002,
      "ருத்து": 8003,
      "இந்திய அணி ": 8004,
      "லீசார் ": 8005,
      "மைப்படுத்த": 8006,
      "ும் நப": 8007,
      "ழனிவே": 8008,
      "இலங்கையின் ": 8009,
      " ஆராதன": 8010,
      "ுக்கும் மேல": 8011,
      " முதல்வர் ம": 8012,
      " வழிகாட்ட": 8013,
      "ு பூஜைகள் ": 8014,
      "திநிதித்துவ": 8015,
      "ிபிசிய": 8016,
      "ீசல் வில": 8017,
      "மயிலாடுதுற": 8018,
      "கண்ட": 8019,
      "கோட்ட": 8020,
      "சுய": 8021,
      "சுற்றுல": 8022,
      "தொழ": 8023,
      "பக்க": 8024,
      "வை": 8025,
      "ூய": 8026,
      "ும் நிலையில": 8027,
      " கி": 8028,
      "ல்ஸ": 8029,
      "ன்ல": 8030,
      "குடித்த": 8031,
      "ுவக்க": 8032,
      "ர்ஸ": 8033,
      "ாடல்கள": 8034,
      " முடிந்த": 8035,
      "ிப்பதற்க": 8036,
      " விடய": 8037,
      "ு சம்பவ": 8038,
      "இருந்தன.\n": 8039,
      "ி கட்ட": 8040,
      " ரீ": 8041,
      "மீட்க": 8042,
      "ங்களில் ஒன்ற": 8043,
      "ோயில் க": 8044,
      "ூரில் உள்ள": 8045,
      "தனியாக": 8046,
      "ி சிவ": 8047,
      " லாப": 8048,
      "டுமையாக": 8049,
      "ுவது குறித்த": 8050,
      " என்று கூற": 8051,
      "ை முடித்த": 8052,
      "ு உள்ளார": 8053,
      "ு பெண்கள": 8054,
      " அதிகாரிகள் ": 8055,
      "டை விதித்த": 8056,
      "உள்பட": 8057,
      "e)": 8058,
      "அவன": 8059,
      "தில் க": 8060,
      "ைப்பட்ட": 8061,
      "ோற்க": 8062,
      "ருஷ": 8063,
      "ான்ஸ் ": 8064,
      " காரிய": 8065,
      " அவர் க": 8066,
      "வரை ப": 8067,
      "் பண்ண": 8068,
      "ன்ஸ்பெக்ட": 8069,
      "ு பணிகள": 8070,
      "த்தில் இருக்க": 8071,
      " உண்ம": 8072,
      "ுறுப்ப": 8073,
      "ுகளை த": 8074,
      " விருப்ப": 8075,
      "தாகும": 8076,
      "்லாந்த": 8077,
      "ை கைப்பற்ற": 8078,
      "் அணிய": 8079,
      "ச் சொன்ன": 8080,
      " இந்த விவகார": 8081,
      "டைபெற": 8082,
      "ெரிவித்திருந்தார": 8083,
      "ியின் அ": 8084,
      " ஒழுங்க": 8085,
      "ுள் க": 8086,
      " அனைவரும் ": 8087,
      "ம் நூற்றாண்ட": 8088,
      "ளைச்ச": 8089,
      "ொதுக்கூட்ட": 8090,
      "the ": 8091,
      "ஞாயிற்றுக்கிழம": 8092,
      "ீர்திருத்த": 8093,
      "நவீன": 8094,
      "ஹைதரா": 8095,
      "ைந்தத": 8096,
      "்கிறத": 8097,
      "்கின்றன": 8098,
      "ியாட": 8099,
      "ர் (": 8100,
      " தற்க": 8101,
      "ப் பெற": 8102,
      "த்தில் வழக்க": 8103,
      "ாயக": 8104,
      "ைக்குப் ப": 8105,
      " ஆய": 8106,
      " ஆபத்த": 8107,
      "ுதுப்ப": 8108,
      " உச்ச": 8109,
      "மாநகர": 8110,
      "ு மற்ற": 8111,
      "ி வரும": 8112,
      "நீள": 8113,
      "ை சிற": 8114,
      "ை எப்படி ": 8115,
      "ெயர": 8116,
      "எஸ்ப": 8117,
      "ூறுகிறார்கள": 8118,
      " பலரும் ": 8119,
      "அதே சமய": 8120,
      "போட்டி ": 8121,
      "ஜ.க-வ": 8122,
      "இந்த நிலையில்தான் ": 8123,
      "பாலியல் ": 8124,
      "ி வைத்தனர": 8125,
      "விஜய் ": 8126,
      "ிற்படுத்தப்பட்ட": 8127,
      "ஆம் திகதி ": 8128,
      " துணை ": 8129,
      "ை ஆய்வு மைய": 8130,
      ".வ": 8131,
      "ஆர் ப": 8132,
      "எழுப்ப": 8133,
      "கிழக்க": 8134,
      "ள்பட": 8135,
      "ோர்வ": 8136,
      "்ரி": 8137,
      "ிராஜ": 8138,
      "டுத்தர": 8139,
      "ுதார": 8140,
      "ட்சித": 8141,
      "தாகவே": 8142,
      "ுத்திறன": 8143,
      "ுரைய": 8144,
      "ோயம்ப": 8145,
      "இதனைத் தொடர்ந்த": 8146,
      "ெல்லாம் க": 8147,
      "108": 8148,
      "ோவில்கள": 8149,
      " செங்க": 8150,
      " மேம்ப": 8151,
      " செயலாளர் ": 8152,
      " நபர் ": 8153,
      " அவருடைய": 8154,
      "டாக்டர் ": 8155,
      "நிலவுகிறத": 8156,
      " முதலீட்ட": 8157,
      " பெரும்பால": 8158,
      "ன்னீர் செல்வ": 8159,
      "அவ்வாற": 8160,
      "உச்சநீதிமன்ற": 8161,
      "ை)": 8162,
      "்விட": 8163,
      "ு சென்ன": 8164,
      "ை உள்ளிட்ட": 8165,
      "ன் என": 8166,
      "விநாயக": 8167,
      "விவாத": 8168,
      "து வழக்கம": 8169,
      " குமார": 8170,
      " காட்சிகள": 8171,
      "வரவ": 8172,
      " இப்பட": 8173,
      " சம்பள": 8174,
      "செயலக": 8175,
      "இந்த நிகழ்வ": 8176,
      "நடராஜ": 8177,
      " முற்ப": 8178,
      "் சமூக": 8179,
      "ை பூஜ": 8180,
      "ித்ர": 8181,
      " நிலநடுக்க": 8182,
      "ாப்த": 8183,
      "உடன் ": 8184,
      "ுகள் உள்ளன.\n": 8185,
      "முடிவுகள": 8186,
      " செப்ட": 8187,
      "குதி மக்கள": 8188,
      "ியூசிலாந்த": 8189,
      "ார்கள் என": 8190,
      "ு பதிலளித்த": 8191,
      "ம்யூனிஸ்ட் க": 8192,
      "un": 8193,
      "எவ்வாற": 8194,
      "சொந்த": 8195,
      "துப": 8196,
      "ூனிய": 8197,
      "ம் ஏற்பட்டத": 8198,
      "ும் செய்ய": 8199,
      "திபல": 8200,
      "ிகள் மற்றும் ": 8201,
      "ருத்துக்கள": 8202,
      "ாசிய": 8203,
      "ம்மாள": 8204,
      " வரலாற": 8205,
      "ிங்ட": 8206,
      "இதற்கு முன்ப": 8207,
      "ட்சியினர் ": 8208,
      " மாநிலங்கள": 8209,
      "ங்களுக்கும் ": 8210,
      "ண்டனம் தெரிவித்த": 8211,
      "ு சென்றனர": 8212,
      " விளையாட": 8213,
      " இல்லைய": 8214,
      "வணிக": 8215,
      "உக்ரைன": 8216,
      "ு போட்டிய": 8217,
      "ுகழ்பெற்ற": 8218,
      " திற": 8219,
      "உள்நாட்ட": 8220,
      "நிறைவ": 8221,
      "வலை": 8222,
      "ோவின் ": 8223,
      "து இல்ல": 8224,
      " மார்ச் ": 8225,
      " மகாராஷ்டிர": 8226,
      "் காந்த": 8227,
      " உதவிய": 8228,
      "் அனைவரும் ": 8229,
      "ை பாஜக": 8230,
      "ையிலான ப": 8231,
      "முதல்வ": 8232,
      "ைவான": 8233,
      " அரசியலமைப்ப": 8234,
      "ி.,": 8235,
      "ுற்றம்சாட்ட": 8236,
      "வகையில் ": 8237,
      "ாங்கிரச": 8238,
      "பல்கலைக்கழக": 8239,
      " நீர் ": 8240,
      "ரும்போது ": 8241,
      "ின்போத": 8242,
      "ராமேஸ்வர": 8243,
      "க்தர்கள் ப": 8244,
      "அங்குள்ள": 8245,
      " மாதங்கள": 8246,
      "குற்றவாளிகள": 8247,
      "அதிமுகவ": 8248,
      " பேராசிரிய": 8249,
      "ுக்கும் இடையே": 8250,
      "ை வலுப்படுத்த": 8251,
      "நிதிஷ": 8252,
      "ழைப்பு விடுத்த": 8253,
      "ிசிடிவி க": 8254,
      "ig": 8255,
      "ஆவ": 8256,
      "இல": 8257,
      "எழுத்த": 8258,
      "ீங்கள": 8259,
      "்காண": 8260,
      "ி மூல": 8261,
      "ாக இந்த": 8262,
      "ிராம் ": 8263,
      "ித்துள்ளத": 8264,
      "ப் பட": 8265,
      "ைகளால் ": 8266,
      "திரட்ட": 8267,
      "ண்மை ": 8268,
      "ை சிறப்ப": 8269,
      "மீடிய": 8270,
      "ங்கள் உள்ளன.\n": 8271,
      " அரசியலில் ": 8272,
      "ங்களில் அ": 8273,
      "ராஜஸ்தான": 8274,
      "ுக் கொடுத்த": 8275,
      "ியதால் ": 8276,
      "ும் இணைந்த": 8277,
      "த்தை நடத்த": 8278,
      "ுவதில்ல": 8279,
      "இடம்பெற": 8280,
      "ில் தங்க": 8281,
      "து தாய": 8282,
      " ஐ.": 8283,
      " திண்டுக்க": 8284,
      "திராவிட மாட": 8285,
      "வயது ": 8286,
      "ஊழல் ": 8287,
      "பெட்ரோல் ": 8288,
      "ில் வளாக": 8289,
      "ரவிந்த் க": 8290,
      "முதற்கட்ட": 8291,
      ": `": 8292,
      "ஏவ": 8293,
      "மார்ச் ": 8294,
      "வன்முற": 8295,
      "ே\"": 8296,
      "ொச்ச": 8297,
      "ங்களை இ": 8298,
      " தூர": 8299,
      " சொத்த": 8300,
      "் தொடர்ந்த": 8301,
      "ம் கூட": 8302,
      "ை நிகழ்ச்ச": 8303,
      "ை எட்ட": 8304,
      "ாப்பிடுவ": 8305,
      "ு உத": 8306,
      "் இழப்ப": 8307,
      "யணைப்ப": 8308,
      " உட்க": 8309,
      " உடல் ": 8310,
      "குதியில": 8311,
      " வைத்திய": 8312,
      "லாநிதி ": 8313,
      "பெண் ": 8314,
      " வங்கதேச": 8315,
      "ொள்முதல் ": 8316,
      "58": 8317,
      "ap": 8318,
      "st": 8319,
      "சாக": 8320,
      "ணுக": 8321,
      "ென்ப": 8322,
      "ு குழ": 8323,
      "ு ஒரு ப": 8324,
      "ியை அ": 8325,
      "ாரின் ": 8326,
      "செஞ்ச": 8327,
      " மருத்துவர்கள": 8328,
      " தாக்குதல": 8329,
      "ாலம் ": 8330,
      "ல்லாத": 8331,
      "ு வலியுறுத்த": 8332,
      "ாவல் த": 8333,
      " உளவ": 8334,
      "ுறையில் ": 8335,
      "ு நாய": 8336,
      "் மாவட்ட": 8337,
      "ை வீச": 8338,
      "ு வருகின்றன": 8339,
      "மேலும் ச": 8340,
      "தொடர்பாக": 8341,
      "ழுச்ச": 8342,
      " ஆண்டுகளுக்கு ": 8343,
      "உறு": 8344,
      " கட்டட": 8345,
      "நடிகர் ": 8346,
      " புதுச்சேர": 8347,
      "வித்தியாசத்தில் ": 8348,
      "முஸ்லிம்கள": 8349,
      "ுநீரக": 8350,
      " குஜராத": 8351,
      " நாணய நிதிய": 8352,
      "ை முன்வைத்த": 8353,
      "பகரண": 8354,
      "ஓமிக்ர": 8355,
      "மிக்க": 8356,
      "ஹஸ்த": 8357,
      "ி திட்ட": 8358,
      "முடக்க": 8359,
      " அணிய": 8360,
      " மரண": 8361,
      "ன்முறைய": 8362,
      " இறந்த": 8363,
      " இஸ்ரேல": 8364,
      "போதே": 8365,
      "ிகள் ந": 8366,
      "மாணிக்க": 8367,
      "ை மோச": 8368,
      "ு விவகார": 8369,
      "ம் அமைக்க": 8370,
      "ம் அனுப்ப": 8371,
      "ு முடித்த": 8372,
      "ை விழ": 8373,
      "ை விவகார": 8374,
      "் நல": 8375,
      "அரசியல": 8376,
      "ெரிவிக்கின்றனர": 8377,
      "ு நாடாளுமன்ற": 8378,
      "ீல்ட": 8379,
      "க்கர வாகன": 8380,
      "தி அரேபிய": 8381,
      "ul": 8382,
      "எம்எல்ஏ": 8383,
      "ந் தே": 8384,
      "ராக்க": 8385,
      "விருது": 8386,
      "திமுறைகள": 8387,
      " வண்ண": 8388,
      " தரவ": 8389,
      "ுவன": 8390,
      "ுகின்ற": 8391,
      "ப் போட்ட": 8392,
      "ு கடந்த ": 8393,
      "ைக்கு த": 8394,
      "மேட்ட": 8395,
      "ட்சி க": 8396,
      "அதையடுத்த": 8397,
      "ித்ரா": 8398,
      "ண்ணன": 8399,
      "ை மீண்டும் ": 8400,
      "ொழுது ": 8401,
      "ேட்டிங் ": 8402,
      "திய ஜனத": 8403,
      "்:\n": 8404,
      "து அவசியம": 8405,
      "இறப்ப": 8406,
      "ங்கியிருந்த": 8407,
      "்),": 8408,
      "ுசாம": 8409,
      " வெற்றி பெற்ற": 8410,
      "க்கூடாது என்ற": 8411,
      "ை இல்லாத": 8412,
      "ும் விதமாக": 8413,
      "சென்னை உயர் நீதிமன்ற": 8414,
      "ஈட்ட": 8415,
      "க-வ": 8416,
      "ு ஒ": 8417,
      "விஷய": 8418,
      "ாகிருஷ்ண": 8419,
      "ாலிப": 8420,
      " முன்ப": 8421,
      "ுப்புர": 8422,
      "ம்ஸ்கள": 8423,
      "தற்கொலை செய்த": 8424,
      "ைப் போன்ற": 8425,
      "ை நிரூப": 8426,
      "ச் செய்ய": 8427,
      "வும் த": 8428,
      "தமிழர் க": 8429,
      "ில் சந்தித்த": 8430,
      "நடந்து வருகிறத": 8431,
      " ஓபிஎஸ் ": 8432,
      "ு செய்யப்பட்டுள்ளத": 8433,
      "முதல்வர் ஸ்டால": 8434,
      "ாக நடந்த": 8435,
      "ி வந்தார": 8436,
      "ன் மூலம் ": 8437,
      " மிகப்பெரிய": 8438,
      "கனட": 8439,
      "வர்த்தன": 8440,
      "பதி மு": 8441,
      "களமிறங்கிய": 8442,
      "ேச்சுவார்த்தை நடத்த": 8443,
      "ஓரளவ": 8444,
      " சட்டசபை ": 8445,
      "56": 8446,
      "ag": 8447,
      "ஊற்ற": 8448,
      "ணி அ": 8449,
      "மரியாத": 8450,
      "ெருவ": 8451,
      "த்தனை ": 8452,
      "ான ந": 8453,
      "ுக்கும் அ": 8454,
      "டுத்து நிறுத்த": 8455,
      "ு அல்லது ": 8456,
      "ு அறிவிக்க": 8457,
      "தாக ச": 8458,
      "ஒரே க": 8459,
      "ு மிகவும் ": 8460,
      "பிபிசிய": 8461,
      "மூகவ": 8462,
      "ை சம்பவ": 8463,
      " ரத": 8464,
      "ு இய": 8465,
      " எதிர்க": 8466,
      "அங்கு ": 8467,
      "ம் எடுக்க": 8468,
      "ஜெயக்குமார": 8469,
      "ிரிக்கெட்ட": 8470,
      "ுறிப்பிட்டார": 8471,
      "முதலீடுகள": 8472,
      "ொல்வத": 8473,
      "ஏதோ": 8474,
      "ற்பனை செய்த": 8475,
      "ுவாரஸ்ய": 8476,
      "ேள்வி": 8477,
      "க.ஸ்டாலின": 8478,
      "ெரியவந்துள்ளத": 8479,
      "திணற": 8480,
      "ஆகவ": 8481,
      "இடை": 8482,
      "உறுப்ப": 8483,
      "க்ச": 8484,
      "றைய": 8485,
      "ைவர் ": 8486,
      "ந்த் ச": 8487,
      " காந்த": 8488,
      " கிரிக்கெட": 8489,
      "ங்களின் க": 8490,
      "ுள்ளனர் ": 8491,
      "் தள": 8492,
      "ாவில் அ": 8493,
      "த்தில் நடைபெற்ற": 8494,
      "ைக்குத் த": 8495,
      "ைகள் ச": 8496,
      "ொண்டு வர": 8497,
      "லைந்த": 8498,
      "நீடித்த": 8499,
      "ை உணவ": 8500,
      "ணவன": 8501,
      "ா தனது ": 8502,
      " தீப": 8503,
      "மாணவர்களுக்கு ": 8504,
      "நடக்கும் ": 8505,
      "திருமணம் ": 8506,
      "ழுப்புர": 8507,
      "இன்னொர": 8508,
      " செந்த": 8509,
      "ேன் என": 8510,
      "ட்டுமல்லாமல": 8511,
      "மர்ப்பிக்க": 8512,
      "முன்னிலையில் ": 8513,
      "ு எதிர்பார்க்கப்படுகிறத": 8514,
      "08": 8515,
      "ab": 8516,
      "ஏ-": 8517,
      "டும் க": 8518,
      "ிருத": 8519,
      "ுமுற": 8520,
      "ருவெ": 8521,
      "ி நடந்தத": 8522,
      "செள": 8523,
      " அணிகள": 8524,
      " மட்ட": 8525,
      "ின் இந்த": 8526,
      " இங்கிலாந்த": 8527,
      " தந்த": 8528,
      "ர்ந": 8529,
      "ிகள்\n": 8530,
      "இதில் ச": 8531,
      "மாஸ்க": 8532,
      "தாக அறிவித்த": 8533,
      "ில் பேசிய": 8534,
      "ை நகர": 8535,
      "ுப் பிர": 8536,
      "த்திற்கு ச": 8537,
      "ராஜ்ய": 8538,
      "ாவின் ப": 8539,
      "் வள": 8540,
      "ு பிரச்ன": 8541,
      " நாட்களில் ": 8542,
      "ணியாற்றிய": 8543,
      "செய்கிறத": 8544,
      "ைப் போலவே": 8545,
      "அதேசமய": 8546,
      "ஈர்த்த": 8547,
      "எப்போது ": 8548,
      "டற்கர": 8549,
      "நம": 8550,
      "லவ": 8551,
      "ம் ஆகியவற்ற": 8552,
      "ியர் ": 8553,
      " கோட்ட": 8554,
      " வட்ட": 8555,
      " இவர": 8556,
      "ுகர்வ": 8557,
      "இந்திர": 8558,
      "ு கொள்க": 8559,
      "ாயத்த": 8560,
      " ஆர்வல": 8561,
      "ு அனைத்த": 8562,
      " உரிமைய": 8563,
      "ான் ச": 8564,
      "் சார்ப": 8565,
      "ு மட்டுமே": 8566,
      "் மிக": 8567,
      "ை வைக்க": 8568,
      "ை நா": 8569,
      "ாம் வீட்ட": 8570,
      "ராஜ் ": 8571,
      "ி நேற்ற": 8572,
      "்னர் ": 8573,
      "ெடிப்ப": 8574,
      " குழுவ": 8575,
      " மணிப்ப": 8576,
      "ாரியம்மன் க": 8577,
      "த்தில் இருந்து ": 8578,
      "வெளிநாடுகள": 8579,
      "-ம் ஆண்டு ": 8580,
      "ைதுசெய்யப்பட்ட": 8581,
      "ார்த்திகேய": 8582,
      "ோடி ரூபாய": 8583,
      "ி ஆதித்யநாத": 8584,
      "51": 8585,
      "im": 8586,
      "அல்லது ": 8587,
      "கத்தின் ": 8588,
      "ணம் ": 8589,
      "பின": 8590,
      "புல": 8591,
      "றைக்க": 8592,
      "ு தேவ": 8593,
      "ு நடந்தத": 8594,
      "திஷ்ட": 8595,
      "்சிய": 8596,
      "ள்ளச்சார": 8597,
      "ுமணி ": 8598,
      " மீண்டும் ": 8599,
      "் தனது ": 8600,
      "ல்லது ச": 8601,
      "ாவால் ": 8602,
      "ாடல": 8603,
      "ு மட்ட": 8604,
      "ைப் பற்றிய": 8605,
      "றிகுற": 8606,
      "ுழற்ச": 8607,
      "ம் நேற்ற": 8608,
      " வேண்டிய அ": 8609,
      "ி ஆணைய": 8610,
      " ஐக்கிய": 8611,
      "இதையடுத்து ": 8612,
      "ூதாட்ட": 8613,
      " அறுவ": 8614,
      "ு தொடர்பான": 8615,
      "முதலமைச்சர் ம": 8616,
      "ராஜாங்க அமைச்ச": 8617,
      " யோசன": 8618,
      "07": 8619,
      "கல்வ": 8620,
      "கிப": 8621,
      "கொல்கத்த": 8622,
      "மோட": 8623,
      "வழிப": 8624,
      "ிநாத": 8625,
      "ம் போல": 8626,
      "ி பெ": 8627,
      "ச்சர்ய": 8628,
      "ாவில் ச": 8629,
      "ு மத்திய அரச": 8630,
      "திருந": 8631,
      "ில் பல்வேற": 8632,
      "கவல் த": 8633,
      "மேலா": 8634,
      "ல் காரணமாக": 8635,
      "ீழ்ச்ச": 8636,
      " நாள் ": 8637,
      "பாராதனை ": 8638,
      "er ": 8639,
      "ூட்டணி அ": 8640,
      "ிச் செல்ல": 8641,
      "ூப்பர் ": 8642,
      " விக்கெட": 8643,
      "ு மனித": 8644,
      "ிடிவி ": 8645,
      "ிராகரித்த": 8646,
      "ஜெனரல் ": 8647,
      "02": 8648,
      "BBC": 8649,
      "என் க": 8650,
      "தூக்க": 8651,
      "வுட": 8652,
      "ில் ர": 8653,
      "விழுந்த": 8654,
      " சிறந்த": 8655,
      "ித்துவ": 8656,
      "ச்சனை ": 8657,
      "ை கட்டுப்படுத்த": 8658,
      " என்றனர": 8659,
      " இந்தத் த": 8660,
      "வில்லைய": 8661,
      "ு விமான": 8662,
      "டையும": 8663,
      " பெட்ர": 8664,
      "திகளவ": 8665,
      "ும் என்று க": 8666,
      " லோக": 8667,
      " மக்களுக்கு ": 8668,
      "ல் தியாக": 8669,
      "குறிப்பிடப்பட்டுள்ளத": 8670,
      "ாக நடைபெற்ற": 8671,
      " தொக": 8672,
      " முயற்சிகள": 8673,
      " சூழல": 8674,
      " விழிப்புணர்வ": 8675,
      "உயி": 8676,
      " விசாரணை நடத்த": 8677,
      " ஒருவர": 8678,
      "ரிஷப": 8679,
      "சென்னை உயர்நீதிமன்ற": 8680,
      "பெரிதாக": 8681,
      "எப்படிய": 8682,
      "எடப்பாடி பழனிச்சாம": 8683,
      "பின் ": 8684,
      "லையில் ": 8685,
      "ுவித்த": 8686,
      "ொதுச்செயல": 8687,
      " புத்த": 8688,
      " வாய": 8689,
      " வருக": 8690,
      " மேட": 8691,
      "ரிமாற்ற": 8692,
      "மாநாட": 8693,
      "தாக,": 8694,
      "அதன் அ": 8695,
      "ை பாதுகாப்ப": 8696,
      "முகமது ": 8697,
      "ைவாச": 8698,
      "ைப் பொறுத்த": 8699,
      "ு உற": 8700,
      "ை விரிவ": 8701,
      "ார்க்கப்படுகிறத": 8702,
      "ம் வாக்க": 8703,
      "் இருவரும் ": 8704,
      " நீங்கள் ": 8705,
      "ரசிகர்கள் ": 8706,
      "ு தீர்மான": 8707,
      "ோனியா காந்த": 8708,
      "ழனிவேல் தியாக": 8709,
      "-ந் தே": 8710,
      "59": 8711,
      "ot": 8712,
      "எம்ப": 8713,
      "ஓர் ": 8714,
      "ணைத்த": 8715,
      "மார": 8716,
      "ீடுகள": 8717,
      "ொச": 8718,
      "க்கத்தில": 8719,
      "ி நிலைய": 8720,
      " பார்த்த": 8721,
      " போர் ": 8722,
      "ள்ளிய": 8723,
      "ங்கும": 8724,
      "ன்ர": 8725,
      " தயாரிப்ப": 8726,
      "ாவும": 8727,
      "ுகால": 8728,
      "ப் பணிகள": 8729,
      " ஆன்லை": 8730,
      "ுக்கு வர": 8731,
      "ு தெரிவித்துள்ளார": 8732,
      "ு நின்ற": 8733,
      "ை தாக்க": 8734,
      "ை நிறுவன": 8735,
      "டிக்கெட": 8736,
      "ைப்பற்றிய": 8737,
      "ப்படுகிறார்கள": 8738,
      "ை இலங்க": 8739,
      "மாநிலத்தில் ": 8740,
      "அவரது க": 8741,
      "லுவான": 8742,
      "ராமர் க": 8743,
      " மாணவர்கள் ": 8744,
      " மூன்று ": 8745,
      " கூட்டணியில் ": 8746,
      " பொதுச் செயல": 8747,
      "ு உள்ளனர": 8748,
      "ு விட்டத": 8749,
      " வாரம் ": 8750,
      "ாவிட்டால": 8751,
      "சத்த": 8752,
      "சசிகல": 8753,
      "ால்வ": 8754,
      "ை ஒருங்கிணைப்ப": 8755,
      " பழைய": 8756,
      "களத்தில் ": 8757,
      "டுங்கள": 8758,
      "ான்ட": 8759,
      "ற்றி அ": 8760,
      " அதிகமாக": 8761,
      " வை": 8762,
      " மந்திர": 8763,
      "் கேட்ட": 8764,
      "ுவதே": 8765,
      "ித்துள்ளார": 8766,
      "ர்கள் ந": 8767,
      "வே இல்ல": 8768,
      " விருத": 8769,
      "லைவர் க": 8770,
      "் மாதம் ": 8771,
      "ை தன": 8772,
      "ஆண்டுத": 8773,
      "ும் இலங்க": 8774,
      "உடன்ப": 8775,
      "ா என்பது ": 8776,
      "ில்லாமல் ": 8777,
      "் வாக்க": 8778,
      "ு கொண்டார": 8779,
      "டும்போது ": 8780,
      "ும் வாக்க": 8781,
      " யுக்ர": 8782,
      "ி எம": 8783,
      "ுவதற்கு ": 8784,
      "ுக் கொண்டார": 8785,
      " வேண்டியிருந்தத": 8786,
      "வெளியாகி உள்ளத": 8787,
      " பாலியல் ": 8788,
      " வழி": 8789,
      " உணவக": 8790,
      " ஜனாதிபதி ரணில் விக்ரமசிங்க": 8791,
      "மூகவலைதள": 8792,
      "\"ப": 8793,
      "மோக": 8794,
      "யந்த": 8795,
      "ஹோட்ட": 8796,
      "ம் செல்ல": 8797,
      "ியிருந்தத": 8798,
      "ப்பல் ": 8799,
      "ுமர": 8800,
      " மாச": 8801,
      " நினைவ": 8802,
      " தருண": 8803,
      "ு பால": 8804,
      "ு படித்த": 8805,
      "ு பார்க்கலாம": 8806,
      " முதிய": 8807,
      "ிப்பத": 8808,
      "ை அடைந்த": 8809,
      "ு சீன": 8810,
      "ும் பணிகள": 8811,
      " ரண": 8812,
      "டந்த ஆண்ட": 8813,
      "பிரச்சின": 8814,
      " ஒரு ம": 8815,
      "யணம் செய்ய": 8816,
      "யன்பாட்ட": 8817,
      " மணிக்கு க": 8818,
      "இரு தரப்ப": 8819,
      " கட்டிட": 8820,
      "மேம்பாட்ட": 8821,
      " நடைமுற": 8822,
      " தென்ன": 8823,
      " கிலோமீட்ட": 8824,
      "ித் திட்ட": 8825,
      "ைக் குறைக்க": 8826,
      "ஆம் தேதிய": 8827,
      "09": 8828,
      "120": 8829,
      "ak": 8830,
      "நடு": 8831,
      "ோதிக்க": 8832,
      "்குமார் ": 8833,
      "த்தைக் கொண்ட": 8834,
      "ியைத் த": 8835,
      " நன்ம": 8836,
      "ினர் ப": 8837,
      "ு பின்ன": 8838,
      "ிகாந்த": 8839,
      "ுக்கு நாள": 8840,
      "ைகளில் க": 8841,
      " விட்ட": 8842,
      " நிலைப்ப": 8843,
      "த்தின் மீது ": 8844,
      "ைப் பிர": 8845,
      "ம் பேர் ": 8846,
      "டையூற": 8847,
      "ம் அந்த": 8848,
      "் வருக": 8849,
      "க்தர்களுக்கு அ": 8850,
      "ஷ்டம": 8851,
      "து தந்த": 8852,
      "டகிழக்க": 8853,
      " ஜனவரி ": 8854,
      " பொது ": 8855,
      " உறவின": 8856,
      " தொலை": 8857,
      "ிடம் கூறினார": 8858,
      "ி உள்ளன.\n": 8859,
      " பேர் உயிரிழந்த": 8860,
      " நடைபெற": 8861,
      "செய்கிறார்கள": 8862,
      "முன்வைக்க": 8863,
      "ராஜினாமா செய்த": 8864,
      "ஒலிம்பியாட": 8865,
      "ஆண்கள": 8866,
      "ஐபிஎல் ": 8867,
      "காஸ": 8868,
      "தெரிவித்துள்ளார": 8869,
      "மண்ட": 8870,
      "மும் த": 8871,
      "ூள": 8872,
      "ம் இருக்கிறத": 8873,
      "ை கு": 8874,
      "ை வெளிப்படுத்த": 8875,
      "ப்பா": 8876,
      "ன் வி": 8877,
      "சென்ட": 8878,
      " அதிர": 8879,
      "ுக்கான க": 8880,
      "ப்பட்டுள்ளார": 8881,
      "ினி ": 8882,
      "ு பகுதியில் ": 8883,
      "டியில் ": 8884,
      "ிவைக்க": 8885,
      "ை கிடைக்க": 8886,
      "ரும் அ": 8887,
      "ை தான் ": 8888,
      "நீடிக்க": 8889,
      "ை நிர்வாக": 8890,
      "ோட்டீ": 8891,
      "ு உரிய": 8892,
      "ரப்போக": 8893,
      "வகாச": 8894,
      "ஃப்ர": 8895,
      "இதற்குப் பிறக": 8896,
      "ஆதரிக்க": 8897,
      "எந்தவொர": 8898,
      "ைகள்\n": 8899,
      "இரான": 8900,
      "ு ரயில": 8901,
      "இந்தப் பட": 8902,
      " உணவுகள": 8903,
      " ரூபாய் ": 8904,
      "முடியும": 8905,
      "ரிதாப": 8906,
      "ால் மட்டுமே": 8907,
      "ுண்ணிய": 8908,
      "ியல்வாதிகள": 8909,
      "ேட்ஸ்மே": 8910,
      "52": 8911,
      "ac": 8912,
      "ஈர்க்க": 8913,
      "சோக": 8914,
      "சேவ": 8915,
      "நின்ற": 8916,
      "லட்சிய": 8917,
      "ிவின் ": 8918,
      "ோலீஸ": 8919,
      "ம் என்ன?\n": 8920,
      "ியிருப்ப": 8921,
      "ி என்ன": 8922,
      " அணியில் ": 8923,
      " விய": 8924,
      " நவீன": 8925,
      "் பவார": 8926,
      "ன்மிக": 8927,
      " சகோதர": 8928,
      "ாளஹஸ்த": 8929,
      "ிக்ன": 8930,
      "வர் என்ற": 8931,
      "ேரிய": 8932,
      "ு தெரிய": 8933,
      "ு தீவிர": 8934,
      "ெரிந்தத": 8935,
      "ி வந்தத": 8936,
      "மனத": 8937,
      "ு உண": 8938,
      "துண்ட": 8939,
      "ரப்பில் ": 8940,
      "ிக் கணக்க": 8941,
      "வேலை ": 8942,
      " இரண்டாவது ": 8943,
      " நிறுவனத்தின் ": 8944,
      "ார்வையாளர்கள": 8945,
      "ைபவ": 8946,
      "வென்றால": 8947,
      "சட்டமன்ற": 8948,
      " போட்டிகளில் ": 8949,
      "ேமிப்ப": 8950,
      "இதேபோல": 8951,
      " மேற்கு வங்க": 8952,
      " முன்னாள் அமைச்சர் ": 8953,
      " எதிர்பார்க்கப்படுகிறத": 8954,
      "ிடம் தெரிவித்தார": 8955,
      "திர்ச்சியடைந்த": 8956,
      "டுமையாக விமர்சித்த": 8957,
      "னாக": 8958,
      "பர் ": 8959,
      "புத்த": 8960,
      "ரை": 8961,
      "வைக": 8962,
      "ு குடும்ப": 8963,
      "செக": 8964,
      "வரை அ": 8965,
      "ாளரும் ": 8966,
      " விஞ்ஞான": 8967,
      "ிருந்தேன": 8968,
      "ு நல்ல": 8969,
      "் அங்க": 8970,
      "ெரிவிப்ப": 8971,
      "மீது அ": 8972,
      "ெய்ய": 8973,
      "ுபு": 8974,
      "த்திற்காக": 8975,
      "துபோல": 8976,
      "ா கால": 8977,
      "டுகின்றன.\n": 8978,
      "இடம் பெற்ற": 8979,
      "அரசியலமைப்ப": 8980,
      "ாக்குதல்கள": 8981,
      "ும் மற்ற": 8982,
      "மறுபுற": 8983,
      "ு:\n": 8984,
      " மிகவும் ": 8985,
      "வைரலாக": 8986,
      "ிடிவி தினகர": 8987,
      "'க": 8988,
      "03": 8989,
      "77": 8990,
      "os": 8991,
      "லால": 8992,
      "லா ": 8993,
      "ிஃப": 8994,
      "ுன்ற": 8995,
      "ு மாணவர்கள": 8996,
      "ட்டமிழ": 8997,
      " கவன": 8998,
      " மே ": 8999,
      " நான": 9000,
      "ல்ஸ் ": 9001,
      "ங்கள் மூல": 9002,
      "ம்பாக்க": 9003,
      "வேந்திர": 9004,
      "ப்படும் அ": 9005,
      "ு சத": 9006,
      "குறுக்க": 9007,
      "்ரமணிய": 9008,
      "ிருக்கிறது ": 9009,
      "ரவி வருகிறத": 9010,
      "ெய்": 9011,
      "ாப்பிரிக்க": 9012,
      "வசிக்கும் ": 9013,
      "ும் சிறப்ப": 9014,
      "து சட்ட": 9015,
      "து சொந்த": 9016,
      "தீர்வ": 9017,
      " குழப்ப": 9018,
      "முதல்வர் ம": 9019,
      "ாளரான": 9020,
      "மனைவிய": 9021,
      " போதிலும": 9022,
      "ாளர் சந்திப்ப": 9023,
      "தவி விலக": 9024,
      " முதலமைச்சர் ": 9025,
      " வீடியோக்கள": 9026,
      "ு வெள்ள": 9027,
      "ருணாநித": 9028,
      "டவுள": 9029,
      "ஓவரில் ": 9030,
      "திய ஜனதா க": 9031,
      "od": 9032,
      "அம்மா": 9033,
      "இச்ச": 9034,
      "உரிமைய": 9035,
      "பால் ": 9036,
      "மொன்ற": 9037,
      "ெஷ": 9038,
      "ெரும்ப": 9039,
      "ே எ": 9040,
      " பவுண்ட": 9041,
      "டுமாற": 9042,
      " கலைஞ": 9043,
      "ப்பட்டு உள்ளத": 9044,
      "் தெரிவித்தனர": 9045,
      "ாமி த": 9046,
      "ிக்ப": 9047,
      " ஆத": 9048,
      " உற்பத்த": 9049,
      "ிவரும் ": 9050,
      "ப்படாமல் ": 9051,
      "ோதிய": 9052,
      "ுப் பின்ன": 9053,
      " பெருந்த": 9054,
      "ைச் சந்திக்க": 9055,
      "ர் சங்க": 9056,
      " திரும்ப": 9057,
      "ிர்வாண": 9058,
      "ாவலர் ": 9059,
      "ப்படுவார்கள": 9060,
      "சபை ": 9061,
      "ாகப் பயன்படுத்த": 9062,
      "ஏனைய": 9063,
      "ர்நாடகா": 9064,
      "மனிதர்கள": 9065,
      " அளவிற்க": 9066,
      "ிது நேர": 9067,
      "04": 9068,
      "எளித": 9069,
      "நே": 9070,
      "ழில": 9071,
      "ழைக்கப்பட்ட": 9072,
      "ு குழந்தைகள": 9073,
      " படிப்ப": 9074,
      " காய": 9075,
      "ங்காங்க": 9076,
      "ுக்கும் க": 9077,
      " நிறுத்த": 9078,
      "ினாலும": 9079,
      "ு பாதிப்ப": 9080,
      "ுகளைப் ப": 9081,
      "மானிய": 9082,
      "இருந்தார": 9083,
      "திருட": 9084,
      "ை வீர": 9085,
      "ோடு க": 9086,
      "ை நினைவ": 9087,
      "ோலிய": 9088,
      "ுக்கு அதிக": 9089,
      "த்தில் பாஜக": 9090,
      "பராதம் ": 9091,
      "வெற்றிக்க": 9092,
      "வேண்டும் என": 9093,
      "ெக்ச": 9094,
      " கோடி மதிப்ப": 9095,
      " உறுதிய": 9096,
      "ஏற்படும் ": 9097,
      " முக்கியத்துவ": 9098,
      "ு தீர்வ": 9099,
      "ாழ்ப்பாண": 9100,
      " ஸ்ப": 9101,
      "ஆட்சியில் ": 9102,
      "கண்ண": 9103,
      "சம்பவ": 9104,
      "்தீப": 9105,
      "ி இந்த": 9106,
      "ர் இ": 9107,
      "வராத்திர": 9108,
      " மூர்த்த": 9109,
      "் கூற": 9110,
      " தயார": 9111,
      " சக": 9112,
      "ப்பட்டின": 9113,
      "போது ப": 9114,
      "ம் கிடைக்கும": 9115,
      "ொழில் அ": 9116,
      "ி மருத்துவமன": 9117,
      "வசூல": 9118,
      "ை விரும்ப": 9119,
      "ர்ப்பணிப்ப": 9120,
      "ு செய்தனர": 9121,
      " ஏப்ரல் ": 9122,
      "ில் இருந்து ப": 9123,
      " வழக்கில் ": 9124,
      "an ": 9125,
      "ுச்சூழ": 9126,
      " செய்திய": 9127,
      "பாஜகவின் ": 9128,
      "ெளிவுபடுத்த": 9129,
      "நீண்டகால": 9130,
      "விமான நிலைய": 9131,
      "சந்தேக": 9132,
      "ோதனை நடத்த": 9133,
      "ஸ்மார்ட": 9134,
      "ாவிட்டால் ": 9135,
      "-ம் தே": 9136,
      "ஓபிஎஸ்ஸ": 9137,
      "சிந்த": 9138,
      "மிருந்த": 9139,
      "ீல் ": 9140,
      "ு திமுக": 9141,
      "த்தை வ": 9142,
      "ை முடிவ": 9143,
      "ட்டிக்க": 9144,
      "ல் என்ற": 9145,
      "ின் மூல": 9146,
      "ிக்கள": 9147,
      "குதி": 9148,
      "ின்ட": 9149,
      "ர்நில": 9150,
[...]
