<unk>	0
<s>	0
</s>	0
.	-2.74414
,	-3.33969
்	-4.95926
ம்	-5.1474
▁இந்த	-5.22702
ப்	-5.27158
க்	-5.29714
▁என்று	-5.46747
த்	-5.59803
▁மற்றும்	-5.61265
▁ஒரு	-5.65757
கள்	-5.84404
▁	-5.84478
து	-5.86561
ின்	-5.87655
▁என	-5.88407
▁அவர்	-5.89943
ும்	-5.91083
:	-5.95071
"	-5.95767
ச்	-5.97399
▁வேண்டும்	-6.00845
▁"	-6.06401
?	-6.1889
யின்	-6.19447
யும்	-6.2246
ு	-6.22807
▁ஆனால்	-6.23333
▁அந்த	-6.23564
க	-6.26431
▁இது	-6.29511
ில்	-6.31227
▁உள்ள	-6.32761
க்கு	-6.36305
ை	-6.3749
யில்	-6.42675
தான்	-6.43135
▁என்ற	-6.43182
-	-6.44093
▁நிலையில்	-6.4529
▁கடந்த	-6.45913
களின்	-6.46082
▁இருந்து	-6.49137
▁முதல்	-6.57629
▁அரசு	-6.58539
!	-6.59538
▁பல	-6.61701
ல்	-6.6287
களை	-6.65331
▁மேலும்	-6.66769
)	-6.67895
▁(	-6.68096
▁உள்ளது	-6.68168
▁சில	-6.69383
யை	-6.72866
'	-6.73002
வின்	-6.73269
▁தான்	-6.79569
▁குறித்து	-6.80042
▁ஆண்டு	-6.80727
த்தில்	-6.80765
ன	-6.82244
▁தொடர்ந்து	-6.82692
▁இருக்கும்	-6.83436
▁செய்து	-6.85604
ுக்கு	-6.85703
பி	-6.86758
▁தனது	-6.86923
▁வரும்	-6.89072
வும்	-6.89727
▁மக்கள்	-6.8994
ார்	-6.91315
▁சென்னை	-6.91494
களில்	-6.91563
▁-	-6.91717
▁வருகிறது	-6.91902
▁தேதி	-6.92075
▁என்பது	-6.92222
▁'	-6.92595
▁செய்ய	-6.92952
▁பாஜக	-6.94603
▁என்ன	-6.94862
▁நான்	-6.94864
▁இல்லை	-6.9493
▁அமைச்சர்	-6.95883
ன்	-6.96566
▁இந்திய	-6.96638
▁என்றும்	-6.97564
▁இன்று	-6.9809
▁தற்போது	-6.98333
ஆம்	-6.99993
▁கொண்டு	-7.00092
ஸ்	-7.00138
னர்	-7.03145
ால்	-7.03199
▁மீது	-7.04432
ய	-7.05298
▁தலைவர்	-7.05706
▁வரை	-7.06279
▁பிறகு	-7.07291
▁மூலம்	-7.07909
▁அது	-7.09649
ி	-7.09696
▁அவர்கள்	-7.1043
...	-7.10448
ர்	-7.11142
த்தின்	-7.12341
களுக்கு	-7.13741
ா	-7.1558
▁காங்கிரஸ்	-7.15812
ான	-7.15952
ே	-7.16748
▁சேர்ந்த	-7.17036
▁இருந்த	-7.17475
▁வந்த	-7.20034
வை	-7.20558
▁2	-7.20612
▁மத்திய	-7.20662
▁தேர்தல்	-7.2261
",	-7.22841
▁பிரதமர்	-7.2405
வே	-7.24177
▁எந்த	-7.24769
▁இரண்டு	-7.24947
▁இதனால்	-7.28735
▁புதிய	-7.29307
▁அவரது	-7.29337
ப்பட்டுள்ளது	-7.29443
▁போது	-7.30728
த்தை	-7.31627
ுள்ளது	-7.32136
▁இருக்கிறது	-7.32563
களும்	-7.32724
▁இதில்	-7.33707
▁பல்வேறு	-7.34636
▁அரசியல்	-7.35066
▁நேற்று	-7.35148
▁போன்ற	-7.35347
▁கட்சி	-7.35731
▁பேர்	-7.36388
▁உள்ளிட்ட	-7.36548
▁3	-7.3763
▁மீண்டும்	-7.37705
▁முதல்வர்	-7.37872
▁அணி	-7.38717
க்கும்	-7.38952
ாக	-7.39067
▁அதன்	-7.39275
▁இந்தியா	-7.39457
ுள்ளார்	-7.39611
ல	-7.39712
டி	-7.39795
▁கொண்ட	-7.40079
▁ரூ	-7.42621
▁அப்போது	-7.42843
மு	-7.42987
யாக	-7.43359
ிருக்கிறார்	-7.43938
▁தொடர்பாக	-7.44467
▁பா	-7.44733
▁அதிமுக	-7.44817
▁தமிழக	-7.46453
▁வந்து	-7.46655
▁மட்டுமே	-7.46665
சி	-7.47278
▁திமுக	-7.47391
▁தெரிவித்தார்	-7.48482
▁வெற்றி	-7.49146
மாக	-7.49349
தி	-7.4962
▁ஆம்	-7.50008
▁அ	-7.50377
யே	-7.50435
▁அதில்	-7.5085
தாக	-7.51002
▁அல்லது	-7.51033
▁நடந்தது	-7.51173
▁சமூக	-7.51227
;	-7.51448
▁5	-7.51683
ிருக்கிறது	-7.52192
வது	-7.52507
▁மாநில	-7.52905
▁வகையில்	-7.53086
▁இருந்தது	-7.53919
▁சிறப்பு	-7.54014
▁நடவடிக்கை	-7.54069
▁பெண்	-7.54297
▁கூட	-7.54322
▁சென்று	-7.54968
▁பெரிய	-7.55039
▁வேலை	-7.55803
▁கூறினார்	-7.55952
▁செய்த	-7.56347
ட்	-7.56721
▁அனைத்து	-7.56757
▁மாவட்ட	-7.57054
▁பின்னர்	-7.57236
▁4	-7.57256
▁என்றார்	-7.57416
▁வருகின்றனர்	-7.57809
ங்கள்	-7.58151
▁அங்கு	-7.58295
▁முக்கிய	-7.58365
வர்	-7.58531
▁இலங்கை	-7.58878
▁காரணமாக	-7.59174
▁பேசிய	-7.59282
▁இப்போது	-7.59551
▁எம்	-7.59551
▁என்	-7.60427
மும்	-7.60525
▁``	-7.61194
▁அதை	-7.61206
▁எடப்பாடி	-7.61381
▁`	-7.61601
எஸ்	-7.61768
ஜ	-7.61939
▁தேசிய	-7.62516
▁மிகவும்	-7.6273
▁பாதுகாப்பு	-7.62805
ுள்ளனர்	-7.63083
▁10	-7.63196
▁மாதம்	-7.63631
யா	-7.64556
ம	-7.65076
▁முறை	-7.65076
▁எப்படி	-7.65654
▁முடியும்	-7.65712
வி	-7.65721
▁பட	-7.65986
மான	-7.66265
ுடன்	-7.6641
▁இரு	-7.66902
மா	-7.67853
▁நாம்	-7.67958
▁விசாரணை	-7.68828
▁முன்னாள்	-7.68988
▁என்பதை	-7.6913
▁மணி	-7.69135
▁வைத்து	-7.69487
▁நடந்த	-7.69785
▁தகவல்	-7.70015
▁என்கிறார்	-7.71229
▁தமிழ்நாடு	-7.71246
▁கொரோனா	-7.72132
த்திற்கு	-7.72321
▁கைது	-7.72731
▁கோடி	-7.73476
▁இதற்கு	-7.73496
ப்பட்ட	-7.7369
▁தி	-7.73763
▁இந்நிலையில்	-7.73827
▁பற்றி	-7.73937
மே	-7.73977
▁வர	-7.74107
▁முடியாது	-7.74884
▁நாங்கள்	-7.75079
▁வழக்கு	-7.75299
▁ஜனாதிபதி	-7.75713
▁அதிக	-7.76931
▁ஒருவர்	-7.77139
ப	-7.77202
▁ஆகிய	-7.77629
வில்லை	-7.77707
▁நாடு	-7.77863
ிய	-7.78033
▁தேர்தலில்	-7.78662
வில்	-7.78836
▁முன்பு	-7.79209
▁காலை	-7.79575
த	-7.80318
▁பக்தர்கள்	-7.81209
▁பகுதியில்	-7.81495
வ	-7.81701
▁டி	-7.82159
▁இவர்	-7.82327
▁அதற்கு	-7.83035
▁அடுத்த	-7.83045
லாம்	-7.8313
▁மணிக்கு	-7.83559
▁பெரும்	-7.836
க்க	-7.83653
▁மோடி	-7.84452
▁செய்யப்பட்ட	-7.84487
ப்படும்	-7.84521
▁மூன்று	-7.84523
▁இருக்க	-7.84666
▁எனவே	-7.85203
▁எதிராக	-7.85366
▁ஓ	-7.85657
▁செல்ல	-7.8607
போது	-7.86277
▁தலைமை	-7.86422
▁அதிகாரிகள்	-7.86547
▁காரணம்	-7.87151
▁மட்டும்	-7.8829
▁6	-7.8837
▁கோவில்	-7.88452
▁உள்ளன	-7.88641
▁ஒரே	-7.89328
▁சி	-7.89882
ப்பட்டது	-7.90015
▁வழங்க	-7.90857
▁காந்தி	-7.91325
▁இன்னும்	-7.91378
க்கான	-7.91927
ப்படுகிறது	-7.92127
▁இதை	-7.92612
▁பொருளாதார	-7.92615
தா	-7.92973
வா	-7.93005
யுடன்	-7.93069
▁பதிவு	-7.93313
▁பி	-7.93553
▁நிலை	-7.93561
▁அவருக்கு	-7.93632
▁சுமார்	-7.93957
▁துறை	-7.93992
▁முழுவதும்	-7.94121
▁அதே	-7.9456
▁ரூபாய்	-7.9461
வுக்கு	-7.9465
▁முடிவு	-7.94754
▁ஒன்று	-7.94873
▁சம்பவம்	-7.95057
த்த	-7.9578
▁நேரத்தில்	-7.95809
▁எடுத்து	-7.95892
▁இடங்களில்	-7.96097
▁கோயில்	-7.96342
▁தமிழ்	-7.96488
யான	-7.96828
▁நாள்	-7.97089
▁உலக	-7.9717
தை	-7.97212
▁அவரை	-7.98078
▁தெரிவித்த	-7.98166
ிடம்	-7.98367
▁ஏன்	-7.98487
▁ஒவ்வொரு	-7.98558
தால்	-7.98612
▁டெல்லி	-7.98833
▁தொடர்பான	-7.98908
▁7	-7.99026
▁ஸ்டாலின்	-7.99185
▁பெற்ற	-7.99302
▁செய்யும்	-7.99462
ாமல்	-8.00065
▁கே	-8.00153
▁ஆய்வு	-8.00154
▁இதன்	-8.00521
▁குறித்த	-8.00733
▁லட்சம்	-8.00741
வர்கள்	-8.00774
▁எடுக்க	-8.01142
▁கீழ்	-8.01164
▁இந்தப்	-8.01883
▁விட	-8.01952
▁கூறி	-8.02047
▁மிக	-8.02495
▁தங்கள்	-8.02515
▁வீட்டில்	-8.02654
▁போல	-8.02683
▁வேண்டிய	-8.0286
ச	-8.03318
▁கலந்து	-8.03413
▁தன்	-8.03416
▁தேர்வு	-8.03475
னா	-8.03495
▁முன்	-8.03633
ர	-8.03841
▁நல்ல	-8.03967
▁விழா	-8.03983
▁இதையடுத்து	-8.03996
▁போர்	-8.04019
ப்பட்டு	-8.04555
▁வருகிறார்	-8.0493
▁தடை	-8.05216
▁கூட்டணி	-8.05884
▁கூறப்படுகிறது	-8.05987
▁கேள்வி	-8.06067
களையும்	-8.0609
ட	-8.06191
▁சென்ற	-8.06494
▁நடந்து	-8.06857
▁மாவட்டம்	-8.07038
னி	-8.07578
▁எனக்கு	-8.07977
▁தெரிவித்துள்ளார	-8.08202
▁பார்க்க	-8.08231
▁பதவி	-8.08671
▁மு	-8.09153
▁நிதி	-8.09352
▁பெண்கள்	-8.09415
▁வேறு	-8.09658
ரா	-8.09673
▁கொள்ள	-8.09775
▁கொலை	-8.09888
யால்	-8.10374
▁குறிப்பிட்ட	-8.10787
▁பணி	-8.11002
▁சார்பில்	-8.1105
▁சர்வதேச	-8.11346
▁நடத்த	-8.11734
ோ	-8.11748
▁ஆட்சி	-8.11894
ஜி	-8.12415
▁குழந்தை	-8.12429
▁கட்சியின்	-8.12487
▁இரவு	-8.12845
▁இந்தியாவில்	-8.13225
▁அளவில்	-8.13251
▁வந்தது	-8.13299
▁போலீசார்	-8.13393
▁நடைபெற்றது	-8.13542
▁மாலை	-8.13709
▁8	-8.13829
▁நீங்கள்	-8.14064
ரி	-8.14082
▁நடத்தி	-8.14162
▁இங்கு	-8.14414
▁இதுவரை	-8.1461
▁பெற	-8.1466
▁இப்படி	-8.1466
ுள்ள	-8.14829
▁அரசின்	-8.14901
▁செயலாளர்	-8.15155
ஏ	-8.15312
▁பயன்படுத்த	-8.15329
▁12	-8.15484
▁அருகே	-8.15536
▁கூறுகிறார்	-8.1562
▁கருத்து	-8.15973
▁உணவு	-8.163
▁அதிபர்	-8.16863
▁ஆர்	-8.17052
▁சிகிச்சை	-8.17143
▁வாய்ப்பு	-8.17145
த்துக்கு	-8.17473
▁வயது	-8.17675
▁கல்வி	-8.17677
▁மனைவி	-8.17694
▁1	-8.1771
▁சிங்	-8.17738
ிருக்கும்	-8.17915
▁கால	-8.18277
▁அமெரிக்க	-8.18312
▁புகார்	-8.18456
▁நடைபெற்ற	-8.18569
▁20	-8.18623
▁யார்	-8.18865
ேன்	-8.18909
மை	-8.19107
▁பணம்	-8.19355
▁இடையே	-8.19815
▁ப	-8.20271
▁தர	-8.20712
▁துணை	-8.20742
▁எனவும்	-8.2088
களுடன்	-8.20883
டன்	-8.21031
▁விட்டு	-8.21045
▁பள்ளி	-8.21346
▁குழு	-8.21449
ங்களை	-8.21518
எல்	-8.21647
லி	-8.21832
▁ஏற்பட்ட	-8.21922
ப்பட	-8.22192
▁விலை	-8.2221
▁அதனால்	-8.22718
லா	-8.22841
▁கிடைக்கும்	-8.22927
▁ஆளுநர்	-8.22999
▁என்றால்	-8.23039
களால்	-8.23077
ிருந்தார்	-8.23149
ரை	-8.23407
▁உங்கள்	-8.23541
ப்ப	-8.24083
▁உள்ளனர்	-8.24339
▁காவல்	-8.24433
▁ஓபிஎஸ்	-8.24794
த்தான்	-8.25088
▁நாட்டின்	-8.25357
s	-8.25741
▁சொல்ல	-8.2585
லை	-8.25851
▁பெற்று	-8.26211
▁போலீஸார்	-8.26428
▁எனக்	-8.26453
▁திட்டம்	-8.26886
▁செய்தனர்	-8.26902
▁பின்	-8.27001
▁இ	-8.27104
கா	-8.27467
▁ஆகியோர்	-8.27745
▁15	-8.27888
ோம்	-8.2791
▁பாதிக்கப்பட்ட	-8.27929
▁போட்டி	-8.28044
ுவது	-8.28176
▁குரு	-8.28367
▁அதாவது	-8.28384
▁ஐ	-8.28389
ஆர்	-8.28463
▁செய்தி	-8.28491
ஐ	-8.28523
▁ரயில்	-8.2853
▁உடல்	-8.28613
▁சுவாமி	-8.28878
▁மற்ற	-8.2908
தாகவும்	-8.29173
▁நேரம்	-8.29297
அ	-8.29323
▁மே	-8.2942
ாத	-8.29741
▁இருக்கிறார்	-8.29801
▁குறிப்பிடத்தக்க	-8.29806
▁அனுமதி	-8.29955
▁இஸ்ரேல்	-8.30149
▁பழனிசாமி	-8.30253
▁தேவை	-8.30262
▁என்பதால்	-8.30424
க்காக	-8.30902
பா	-8.31095
த்து	-8.31113
▁வருகின்றன	-8.31245
▁உதவி	-8.3144
▁மூத்த	-8.31615
▁இடத்தில்	-8.31627
▁உயர்	-8.31685
▁மேல்	-8.31846
▁திருமணம்	-8.32054
▁அடிப்படையில்	-8.32202
▁ஏற்படும்	-8.32268
▁11	-8.32449
ங்களில்	-8.33011
▁வீடு	-8.3317
களாக	-8.33459
▁பொது	-8.33481
▁அன்று	-8.33673
▁கொடுத்த	-8.33848
ங்க	-8.34008
▁9	-8.34179
▁நடைபெறும்	-8.34357
▁பார்த்து	-8.34369
டு	-8.34471
விட	-8.34516
▁மருத்துவ	-8.34568
படி	-8.3464
▁மழை	-8.3465
▁ஸ்ரீ	-8.34971
▁தாக்குதல்	-8.35217
▁எதிர்ப்பு	-8.35257
▁வீடியோ	-8.35279
▁கட்ட	-8.35338
▁உறுதி	-8.35657
▁ரஷ்யா	-8.35946
▁வழக்கில்	-8.36063
▁வி	-8.36112
▁செல்லும்	-8.36193
▁பாலியல்	-8.36573
▁கை	-8.36606
▁குறிப்பாக	-8.36646
▁இந்து	-8.36728
னை	-8.36874
▁இந்தியாவின்	-8.36982
▁ராகுல்	-8.37134
மி	-8.37277
▁பூஜை	-8.37406
▁இடம்	-8.37598
▁தொழில்	-8.37695
▁பெயர்	-8.37726
கே	-8.37738
▁இந்தக்	-8.37844
ந்த	-8.37882
▁நிறுவனம்	-8.37883
▁தமிழ்நாட்டில்	-8.3796
▁ஏ	-8.38066
▁விமான	-8.3844
▁தனியார்	-8.38453
▁பாதிப்பு	-8.38532
▁வங்கி	-8.38554
▁அப்படி	-8.38614
▁ஆ	-8.38654
▁காலத்தில்	-8.38708
▁மதுரை	-8.38887
▁சட்ட	-8.38949
▁அறிக்கை	-8.39014
▁மா	-8.39185
▁பகுதிகளில்	-8.39267
▁க	-8.39355
▁சிலர்	-8.39413
▁மாணவர்கள்	-8.39779
▁ஆக	-8.39958
▁அந்தப்	-8.40157
▁பயணம்	-8.40409
ட்ட	-8.40662
▁அதிகம்	-8.40728
▁கொடுக்க	-8.40872
▁காவல்துறை	-8.41142
▁அதிகமாக	-8.41459
▁ராணுவ	-8.41625
ிருந்த	-8.41813
▁போல்	-8.41849
▁இருந்தாலும்	-8.41986
▁மாத	-8.42392
▁18	-8.42546
▁போலீஸ்	-8.43038
▁தொடங்கி	-8.43127
▁நான்கு	-8.43273
▁பகுதி	-8.43279
▁பதில்	-8.43444
▁அளித்த	-8.4386
▁மாற்ற	-8.43898
▁கொடுத்து	-8.44206
▁நீதிமன்றம்	-8.44238
▁அமெரிக்கா	-8.44252
▁பேச	-8.44585
▁செய்தார்	-8.4459
▁கூடாது	-8.44696
▁உறுப்பினர்	-8.44834
▁இந்தத்	-8.4494
▁கடும்	-8.45106
▁தமிழகத்தில்	-8.45211
▁பிபிசி	-8.45265
▁நாடாளுமன்ற	-8.4554
▁எதிரான	-8.45851
▁வெளியே	-8.45946
▁நீண்ட	-8.46091
▁இல்லாமல்	-8.46165
வு	-8.46495
▁நிகழ்ச்சி	-8.46533
▁எண்ணிக்கை	-8.46649
▁நாடுகள்	-8.46805
▁கோவிலில்	-8.46989
▁உட்பட	-8.47048
▁கடன்	-8.47094
▁ம	-8.47132
▁நீர்	-8.47338
யோ	-8.47421
க்குறிப்பு	-8.47547
▁ஆதரவு	-8.47656
▁தந்தை	-8.47878
▁பலர்	-8.48174
▁எங்கள்	-8.48327
னு	-8.48577
▁கூறுகையில்	-8.4867
▁அதனை	-8.48676
ிருந்தது	-8.48703
▁நாட்டில்	-8.48723
▁மக்களுக்கு	-8.4874
▁இணைந்து	-8.49163
▁த	-8.49215
▁எஸ்	-8.49319
வுடன்	-8.49562
▁இல்லாத	-8.49569
▁உள்ளார்	-8.49662
▁நீதிபதி	-8.49865
ாலும்	-8.49893
▁அதிகாரி	-8.49927
▁இருவரும்	-8.50393
▁அனைவரும்	-8.50415
▁உடனடியாக	-8.50569
விட்டு	-8.50589
▁போராட்டம்	-8.50614
▁அவை	-8.50693
▁கூட்டம்	-8.50706
▁எல்லாம்	-8.50745
▁சீனா	-8.50852
தில்	-8.50992
▁கோரிக்கை	-8.50994
▁இருந்தார்	-8.51048
▁கி	-8.51263
▁நடைபெற்று	-8.51464
▁30	-8.51686
▁அவர்களுக்கு	-8.51699
தே	-8.51768
▁தாக்கல்	-8.51851
ுவதற்கு	-8.51879
▁முதலில்	-8.51893
▁சட்டம்	-8.52272
▁பலரும்	-8.52474
ுள்ளன	-8.52492
▁19	-8.5253
▁முயற்சி	-8.52611
▁மீதான	-8.5286
▁மேற்பட்ட	-8.52894
▁இருப்பினும்	-8.52937
▁தலைமையில்	-8.52983
கூட	-8.53097
▁முதலமைச்சர்	-8.53227
▁விற்பனை	-8.53599
▁அவரின்	-8.53609
▁இதனை	-8.53816
▁நடக்கும்	-8.53957
▁கார்	-8.54393
ப்பு	-8.54541
ையும்	-8.54689
▁சரி	-8.54697
▁தங்க	-8.54873
▁படம்	-8.54968
▁தெரிவித்து	-8.55048
▁ஆண்டில்	-8.55132
▁தெரிவித்துள்ளது	-8.5518
ிற்கு	-8.55181
▁கோவை	-8.5556
ள்	-8.55707
வரும்	-8.55837
▁மகன்	-8.55849
▁தலைவர்கள்	-8.5595
யிலிருந்து	-8.55976
▁சொல்லி	-8.56232
▁ஆண்டுகளுக்கு	-8.5636
▁அளவுக்கு	-8.56407
த்துடன்	-8.56465
ிலும்	-8.56466
▁முன்னிட்டு	-8.56927
▁இருப்பதாக	-8.57026
▁சேவை	-8.57228
▁அல்ல	-8.57327
▁ஆயிரம்	-8.57444
▁வந்தார்	-8.57574
▁தவிர	-8.5761
▁இந்தச்	-8.5765
▁கூறியுள்ளார்	-8.57821
ஷ்	-8.57894
▁நாளை	-8.58171
▁எதிர்பார்க்க	-8.58217
▁ஆண்டுகளாக	-8.58608
▁அண்ணாமலை	-8.58669
▁வைக்க	-8.58684
▁குற்றச்சாட்டு	-8.58751
▁குடும்ப	-8.58924
▁மத்தியில்	-8.58956
▁பிற	-8.5906
▁சென்னையில்	-8.59281
▁மக்களின்	-8.59309
▁முழு	-8.5932
▁மத	-8.59472
சா	-8.59486
▁ஏற்பட்டது	-8.59625
▁வரி	-8.59649
▁உரிமை	-8.59658
▁மாவட்டத்தில்	-8.59666
▁மன	-8.59755
▁கூட்டத்தில்	-8.60077
▁வாங்க	-8.60131
▁செலுத்த	-8.60405
▁அடி	-8.60419
ள	-8.60438
▁தகவல்கள்	-8.60551
▁பாகிஸ்தான்	-8.60553
ங்	-8.60672
▁நம்பிக்கை	-8.60712
▁தென்	-8.60793
▁ஏற்கனவே	-8.60894
▁எனது	-8.60926
▁தன்னுடைய	-8.60987
▁பயிற்சி	-8.6112
▁நடத்திய	-8.61462
டை	-8.61734
▁50	-8.618
கி	-8.6198
▁மருத்துவமனையில்	-8.62169
யிலும்	-8.62467
▁பேசி	-8.62498
▁கடுமையாக	-8.62689
▁சோதனை	-8.62747
▁மேற்கு	-8.62784
▁இருந்தால்	-8.63042
▁ஆண்டுகள்	-8.63055
▁பிரச்னை	-8.63206
▁நீதிமன்றத்தில்	-8.63535
▁என்னை	-8.63725
தன்	-8.63803
▁விஜய்	-8.63813
▁அமைப்பு	-8.63852
▁கேட்டு	-8.63872
இ	-8.63986
▁நீதிமன்ற	-8.64498
▁தொடர்பு	-8.64582
▁முடியாத	-8.64766
▁நரேந்திர	-8.64819
▁எதுவும்	-8.64839
▁ரன்கள்	-8.64841
▁கவனம்	-8.64877
வோ	-8.64998
▁முறையில்	-8.65019
▁முடியவில்லை	-8.65299
▁முறையாக	-8.65411
▁13	-8.65496
▁பால்	-8.65508
▁மாநிலம்	-8.65596
▁மோதி	-8.65634
▁உச்ச	-8.65695
▁கோயிலில்	-8.6574
▁16	-8.65843
▁சந்தித்து	-8.6593
களுக்கான	-8.66038
▁உக்ரைன்	-8.66062
▁மின்	-8.66121
▁நம்	-8.66152
▁ஜி	-8.66184
▁சமீபத்தில்	-8.66259
▁சொந்த	-8.66295
▁இருப்பது	-8.66646
▁விவகாரம்	-8.67159
ுகிறது	-8.67159
▁தேவையான	-8.6721
என்	-8.67293
▁வைத்த	-8.67357
▁உ	-8.6744
யிடம்	-8.6744
▁இதுகுறித்து	-8.67475
▁கல்லூரி	-8.67522
▁காலம்	-8.67714
ட்டு	-8.67745
▁அதிகரித்து	-8.67815
▁நடிகர்	-8.67918
▁14	-8.6801
▁தேடி	-8.68167
ிலிருந்து	-8.68252
▁மனித	-8.68437
▁தனி	-8.68588
▁குழந்தைகள்	-8.68686
ுவதற்கான	-8.68772
▁கடைசி	-8.6891
▁வேண்டாம்	-8.68923
ினார்	-8.69038
▁நாட்கள்	-8.69158
▁ஐந்து	-8.69212
▁விரைவில்	-8.69548
▁நமது	-8.69563
▁ச	-8.69607
▁இனி	-8.69864
▁பார்த்த	-8.69945
▁அழைத்து	-8.70062
▁மாணவி	-8.70279
▁நபர்	-8.70353
கு	-8.70657
▁பொதுமக்கள்	-8.70766
▁போட்டியில்	-8.70766
ண	-8.70901
▁அம்மன்	-8.70956
▁ஒன்றை	-8.70971
▁கேட்ட	-8.70998
▁இரண்டாவது	-8.71126
20	-8.71204
▁17	-8.71368
▁பற்றிய	-8.71394
▁குறிப்பிட்டார்	-8.71545
▁உங்களுக்கு	-8.71916
▁சிறந்த	-8.72165
▁பேசினார்	-8.72494
▁உருவாக்க	-8.72579
▁ஏராளமான	-8.72698
▁தன்னை	-8.72819
▁நடக்கிறது	-8.72854
▁கிராம	-8.72875
▁மிகப்பெரிய	-8.72953
▁அனுப்பி	-8.72988
க்கூடிய	-8.73008
த்தால்	-8.73011
▁நோக்கி	-8.7306
▁வெளியிட்ட	-8.73192
▁நடைபெற	-8.73351
▁செய்வது	-8.73502
இல்	-8.73742
ோடு	-8.73879
▁முக்கியமான	-8.73911
▁யாரும்	-8.73916
▁அவர்களை	-8.73979
▁சாலை	-8.74543
▁அரச	-8.74608
டா	-8.74613
▁ரஷ்ய	-8.74628
ான்	-8.74717
▁24	-8.74798
▁திருவிழா	-8.7491
ுக்கும்	-8.75001
▁மொத்தம்	-8.75478
▁கூடிய	-8.75585
▁வீரர்கள்	-8.75738
▁ஜூலை	-8.75832
ந்து	-8.75838
▁செய்யப்பட்டது	-8.76082
▁டாக்டர்	-8.76154
சு	-8.76164
கை	-8.76166
▁திடீரென	-8.76266
களுக்கும்	-8.76801
▁வழி	-8.77111
▁பிரிவு	-8.77416
▁வாங்கி	-8.77557
▁அளிக்க	-8.77563
▁மாநிலத்தில்	-8.77664
▁உற்பத்தி	-8.7789
▁ஷா	-8.7792
▁மற்றொரு	-8.7792
ப்படவில்லை	-8.77953
▁பேச்சுவார்த்தை	-8.77968
▁விழாவில்	-8.78065
▁மும்பை	-8.78066
▁தொடர்	-8.78289
▁வாழ்க்கை	-8.78598
▁25	-8.78628
▁ந	-8.78786
▁பாராளுமன்ற	-8.78861
▁தரப்பு	-8.79007
ப்பட்டுள்ளன	-8.79076
▁கடுமையான	-8.79119
▁நகர	-8.79139
▁திரு	-8.79144
▁பணிகள்	-8.79225
▁பொதுக்குழு	-8.79287
▁செய்தது	-8.79288
ுள்ளதாக	-8.79358
▁பிரதேச	-8.79444
▁போய்	-8.79463
▁இவர்கள்	-8.79471
▁கிரிக்கெட்	-8.7997
▁மார்ச்	-8.80043
த்திலும்	-8.80071
▁ஆகும்	-8.80129
▁குறைந்த	-8.80166
▁தனக்கு	-8.80198
▁2022	-8.80218
▁ஆலோசனை	-8.80254
▁சிறப்பாக	-8.80274
▁மாற்றம்	-8.80315
ன்னு	-8.80327
▁போட்டு	-8.80343
▁அளவு	-8.80419
▁சேர்ந்து	-8.80436
▁ஏற்படுத்தி	-8.80486
▁மருத்துவர்	-8.80526
மீ	-8.80545
▁100	-8.80872
▁நிர்வாகிகள்	-8.80881
வ்	-8.80901
▁தரிசனம்	-8.80981
▁சு	-8.81065
▁எல்லா	-8.81305
எம்	-8.81393
▁கு	-8.81549
▁செய்யப்பட்டு	-8.81804
▁பக்கம்	-8.82364
▁திருமண	-8.82442
க்குள்	-8.8249
▁அதன்படி	-8.82566
▁குமார்	-8.82597
▁கோ	-8.82598
▁கிடைத்த	-8.82718
▁வழியாக	-8.82723
▁நோய்	-8.82901
▁மகா	-8.83059
▁தங்கள	-8.83106
ிருக்கிறார்கள்	-8.83165
த்தி	-8.83173
▁என்கிற	-8.83217
ிருக்கின்றனர்	-8.83239
க்கள்	-8.83282
▁அதேபோல	-8.83391
▁மேற்கொள்ள	-8.83397
▁பங்கு	-8.83456
▁நிறைய	-8.83457
▁எ	-8.83469
▁பயன்படுத்தி	-8.83491
▁தினம்	-8.83567
வன்	-8.83933
▁சனி	-8.83943
▁நிறுத்த	-8.84029
▁இதுபோன்ற	-8.84147
▁தெரிவிக்க	-8.84253
▁தீ	-8.84263
ினால்	-8.84288
தற்கு	-8.84363
▁கான்	-8.84662
ங்களின்	-8.84881
▁அபிவிருத்தி	-8.85187
▁அடுத்து	-8.8519
▁அந்தக்	-8.85191
வால்	-8.85418
▁சுகாதார	-8.8546
▁ஜூன்	-8.85711
▁உரிய	-8.85856
ிருக்க	-8.85892
▁பூ	-8.85925
▁அறிக்கையில்	-8.85938
▁விவகாரத்தில்	-8.85952
▁சக்தி	-8.86065
ற்ற	-8.86099
▁கூறிய	-8.86136
களிலும்	-8.86375
▁தீவிர	-8.86727
▁பணியில்	-8.86767
▁கட்டி	-8.86824
▁எங்களுக்கு	-8.86841
▁சிறு	-8.87068
▁காண	-8.87269
▁போக்குவரத்து	-8.87414
ார்கள்	-8.8745
ள்ள	-8.87538
ற	-8.87685
▁கிலோ	-8.87771
▁எனத்	-8.87818
▁ஆறு	-8.88029
▁சிறிய	-8.88036
▁தண்டனை	-8.88056
கோ	-8.88107
▁குற்றம்	-8.88219
▁அருகில்	-8.88314
▁திட்டத்தை	-8.88375
▁வெளிநாட்டு	-8.88802
▁பிறந்த	-8.88815
வரை	-8.88954
▁மாறி	-8.89013
▁சூழலில்	-8.89054
ாது	-8.89062
▁மனு	-8.89104
▁ஆண்டுகளில்	-8.89225
▁நிறுவனங்கள்	-8.89574
▁கிடையாது	-8.89579
▁வழங்கப்படும்	-8.89794
▁எடுத்த	-8.89965
ுதல்	-8.90025
வர்களுக்கு	-8.9008
▁40	-8.90183
▁வீரர்	-8.90228
▁அதிகரிக்கும்	-8.90369
மோ	-8.90439
▁தற்கொலை	-8.9064
▁மக்களை	-8.9065
▁தெரிவித்தனர்	-8.90709
▁ஹ	-8.9085
ஷ	-8.91003
ச்சி	-8.91005
ுமாறு	-8.91106
கர்	-8.91223
▁வாக்கு	-8.91238
▁நிகழ்ச்சியில்	-8.91253
▁கதை	-8.91291
▁அறிவிக்கப்பட்ட	-8.91335
▁ஆட்சியில்	-8.91618
▁தொடங்கியது	-8.91725
ுக்கான	-8.91815
ட்டி	-8.91902
களிடம்	-8.91933
▁நிலையத்தில்	-8.91995
▁பணத்தை	-8.9209
▁தண்ணீர்	-8.9215
▁ரணில்	-8.92217
▁சரியான	-8.92312
▁விபத்து	-8.92354
▁வளர்ச்சி	-8.92449
▁தாய்	-8.92492
▁தலைமையிலான	-8.9271
▁வகை	-8.92832
▁வெளியாகி	-8.92918
▁முன்னதாக	-8.92949
▁தரப்பில்	-8.93005
▁கிழக்கு	-8.93047
த்திலிருந்து	-8.93076
▁21	-8.93265
▁2024	-8.93279
▁சுற்றி	-8.93337
▁இளைஞர்	-8.93383
சன்	-8.93388
▁கேட்க	-8.93423
▁குறித்தும்	-8.93508
▁நீ	-8.93557
▁கொள்கை	-8.93602
▁மலை	-8.9364
▁அனுப்ப	-8.93695
▁சசிகலா	-8.93775
▁இயக்குநர்	-8.93816
▁வந்தனர்	-8.94051
▁ஏற்பட்டுள்ளது	-8.94174
▁கூடுதல்	-8.94228
ளி	-8.94494
▁அவசியம்	-8.94504
களைப்	-8.94556
▁இருக்கலாம்	-8.94567
▁பரபரப்பை	-8.94598
▁படை	-8.94616
▁வருகிறார்கள்	-8.94682
▁அவருடைய	-8.9485
ும்போது	-8.94962
▁மருத்துவமனை	-8.9498
▁தொகுதி	-8.95102
▁இணை	-8.95252
▁பெருமாள்	-8.95335
களைக்	-8.95339
▁திரும்ப	-8.95459
▁போக	-8.95471
▁அம்மா	-8.95487
▁அமைக்க	-8.95499
றி	-8.95548
▁நாட்களுக்கு	-8.95577
ப்படுகின்றன	-8.956
ங்களுக்கு	-8.95771
▁விடுதலை	-8.95907
▁தொகை	-8.95999
விற்கு	-8.96064
▁நாளில்	-8.9613
▁ஏற்பாடு	-8.96154
▁வகுப்பு	-8.96302
▁தற்போதைய	-8.96356
▁உண்டு	-8.96375
▁மொழி	-8.96379
▁பிர	-8.96403
▁சரியாக	-8.96414
யைச்	-8.96519
▁அறிவிப்பு	-8.96692
▁எப்போதும்	-8.96732
▁ஏற்படுத்த	-8.96759
▁அரசுக்கு	-8.968
▁ரசிகர்கள்	-8.9684
▁ரத்து	-8.96872
▁போட	-8.96977
▁உடனே	-8.97002
▁தொழில்நுட்ப	-8.97089
▁எவ்வளவு	-8.97093
▁தொடர்பில்	-8.97116
▁தெரியவில்லை	-8.97119
▁எனும்	-8.97137
▁தலைவராக	-8.97251
▁தொடங்கிய	-8.97272
▁இலங்கையில்	-8.97403
▁மாநகராட்சி	-8.9743
ிறது	-8.97449
▁வேட்பாளர்	-8.97545
▁சட்டமன்ற	-8.97657
▁நாட்டு	-8.97783
▁ஜெயலலிதா	-8.97882
▁தெரியும்	-8.97908
▁மாவட்டங்களில்	-8.98243
▁தடுக்க	-8.98252
▁சட்டசபை	-8.98384
▁வட	-8.98466
▁காட்ட	-8.98586
▁ரத்த	-8.98697
ுகிறார்	-8.98743
▁நிலைமை	-8.98863
▁இட	-8.98915
▁கையில்	-8.99111
ச்ச	-8.9919
▁மாதிரி	-8.99506
▁மாநிலங்களில்	-8.99547
▁மோசமான	-8.99699
▁ஒருங்கிணைப்பாளர	-8.99728
▁மோதல்	-8.99773
▁நிர்வாகம்	-8.99923
▁உண்மை	-8.99958
▁மேற்கொண்டு	-9.00164
▁சேர்ந்தவர்	-9.00788
▁22	-9.00797
▁தொற்று	-9.00844
▁இருக்கின்றன	-9.01089
▁இவை	-9.01313
▁திகதி	-9.01317
▁வழங்கி	-9.01463
▁சார்ந்த	-9.01514
▁கொண்டனர்	-9.01569
▁முடிந்த	-9.01647
▁சிறையில்	-9.01682
▁ஐக்கிய	-9.01707
▁பக்கத்தில்	-9.01763
யர்	-9.01796
▁நாடுகளில்	-9.019
▁சீன	-9.01903
▁தெரிகிறது	-9.01993
▁23	-9.02009
▁பேச்சு	-9.0208
▁வ	-9.02122
▁சேர்த்து	-9.02383
நா	-9.02411
▁பண	-9.02435
▁முழுமையாக	-9.02447
▁வருவதாக	-9.02451
▁நிறுவனத்தின்	-9.02488
ரோ	-9.02606
யைப்	-9.02657
▁சொன்ன	-9.02744
▁அதற்கான	-9.02776
▁உள்ளே	-9.03016
யையும்	-9.03032
▁இதே	-9.03054
▁அதேபோல்	-9.03161
ுகின்றனர்	-9.03191
▁மொத்த	-9.03269
▁படி	-9.03324
விடம்	-9.03473
▁போன	-9.03658
▁செ	-9.03698
▁நாட்டை	-9.03703
▁இதற்காக	-9.03852
▁வழங்கும்	-9.03902
ிலேயே	-9.04181
▁செயல்	-9.04321
▁முதலீடு	-9.0441
ழ	-9.04441
னின்	-9.04471
▁நடக்க	-9.04563
▁குஜராத்	-9.04647
▁சூழல்	-9.04767
▁நேரடியாக	-9.04781
வாக	-9.04865
▁பழைய	-9.04954
▁கௌரவ	-9.04958
▁உத்தரவு	-9.05243
▁பல்கலைக்கழக	-9.05416
▁விவசாயிகள்	-9.05443
▁அங்கே	-9.05521
▁நீட்	-9.05556
▁சந்தித்த	-9.05564
ய்	-9.05571
▁மோசடி	-9.05692
▁அதைத்	-9.05745
ுவதற்காக	-9.05764
▁இரண்டாம்	-9.05846
ப்பட்டன	-9.05878
▁ஓர்	-9.05912
▁கடிதம்	-9.05914
▁கட்சிகள்	-9.0607
▁தீர்ப்பு	-9.0638
▁காட்சி	-9.06474
▁சிலை	-9.0652
▁வழக்கம்	-9.0678
▁இறுதி	-9.06819
வரின்	-9.0714
▁நேரில்	-9.07203
▁பெயரில்	-9.07268
▁சிறுமி	-9.07309
▁வழங்கிய	-9.07337
▁கூற	-9.07531
▁தினமும்	-9.07561
களான	-9.07564
▁விளையாட்டு	-9.07584
▁ஆளும்	-9.07624
▁ஜ	-9.07632
▁கடல்	-9.07699
▁எண்ணெய்	-9.07851
▁பொருட்களை	-9.07958
▁கணவர்	-9.08052
ரு	-9.08107
▁செலவு	-9.08172
▁விநாயகர்	-9.08181
▁ஏற்படுத்திய	-9.08216
▁ஏப்ரல்	-9.08298
▁ஆகியவை	-9.08402
▁அரசாங்கம்	-9.08491
▁நில	-9.08582
1	-9.08597
▁நாட்களில்	-9.08615
▁அதோடு	-9.08645
▁பஞ்சாப்	-9.08717
▁வன்முறை	-9.08788
▁என்பவர்	-9.08823
▁உறுப்பினர்கள்	-9.08835
e	-9.09108
▁மாணவர்	-9.09171
▁அதிகமான	-9.09196
க்குப்	-9.09271
▁ஏற்ற	-9.09285
▁சந்திக்க	-9.09329
▁தந்த	-9.09505
▁பிடித்து	-9.09547
▁பிடித்த	-9.09619
ப்பா	-9.09652
▁வெளியிட	-9.09703
▁பக்தர்களுக்கு	-9.0972
ூர்	-9.09757
▁இன்னொரு	-9.09795
▁தொகுதியில்	-9.09876
ுமா	-9.09921
▁போட்டியிட	-9.10105
▁மில்லியன்	-9.10192
▁அதிர்ச்சி	-9.10361
ிருப்பது	-9.10397
▁பொருட்கள்	-9.10463
/	-9.10521
▁வெறும்	-9.10643
▁அடைந்த	-9.10702
களே	-9.10724
▁கண்ட	-9.10954
i	-9.10976
▁பேராசிரியர்	-9.1104
ுகிறார்கள்	-9.11055
ாய்	-9.11087
▁வெளியான	-9.1109
ங்களும்	-9.11099
ரிய	-9.1111
▁கட்டுப்படுத்த	-9.1118
▁கலை	-9.11393
▁படத்தில்	-9.11418
▁இவ்வாறு	-9.11448
▁திருச்சி	-9.11451
▁குறிப்பிட	-9.11541
▁சின்ன	-9.1157
ரின்	-9.11579
▁ஏற்கெனவே	-9.11589
▁எதிர்	-9.11876
▁தலை	-9.11965
தற்கான	-9.12067
▁எதிர்க்கட்சி	-9.12188
▁அடிக்கடி	-9.12261
o	-9.12292
ச்சு	-9.12294
▁விஷயம்	-9.12296
ீ	-9.12412
▁தோல்வி	-9.12425
▁தீவிரமாக	-9.12617
இந்த	-9.12672
▁நிர்வாக	-9.12694
ந	-9.1274
▁நடவடிக்கைகள்	-9.12997
▁விவசாய	-9.13194
▁காட்டி	-9.13222
▁இருப்பதால்	-9.13229
தோ	-9.13297
▁கொண்டார்	-9.13306
▁உள்ளதாக	-9.13308
▁கட்சியில்	-9.13343
▁மகள்	-9.1348
▁ஒன்றாக	-9.13567
▁கர்நாடக	-9.13886
▁இங்கே	-9.14148
▁பெரும்பாலான	-9.14179
▁உயிரிழந்த	-9.14234
ராஜ்	-9.14317
▁சாதி	-9.1437
▁வழிபாடு	-9.14384
▁அழைத்துச்	-9.14405
▁ஈடுபட்டு	-9.14513
▁வீட்டுக்கு	-9.14534
▁இத்தகைய	-9.14679
▁முழுக்க	-9.14683
▁வேகமாக	-9.14714
▁செயல்பட	-9.14729
▁அலுவலகத்தில்	-9.14902
ுங்கள்	-9.14943
▁எச்சரிக்கை	-9.15028
ரே	-9.15049
▁பதவியை	-9.15061
▁வைரஸ்	-9.15149
க்கொண்டு	-9.15231
▁பிப்ரவரி	-9.15511
▁எதிர்த்து	-9.15701
▁சுதந்திர	-9.15773
▁புது	-9.15895
ைப்	-9.15899
▁ஆகஸ்ட்	-9.15927
▁விக்ரமசிங்க	-9.16182
க்கூடாது	-9.16199
▁நெருக்கடி	-9.16334
▁இயக்க	-9.16364
▁தவறு	-9.16527
▁நடிகை	-9.16548
▁உயிர்	-9.16597
▁நடத்தினர்	-9.16766
ுள்ளதாகவும்	-9.16789
▁உள்ளூர்	-9.1679
▁ஸ்	-9.17027
▁2019	-9.17028
▁ஆணையம்	-9.17076
▁செயல்பட்டு	-9.17126
▁சபை	-9.1721
ஹ	-9.17292
▁செந்தில்	-9.17328
▁நமக்கு	-9.17369
3	-9.17495
▁முகமது	-9.17526
▁திட்டத்தின்	-9.17558
▁கட்சியை	-9.17731
▁போட்டிகளில்	-9.1776
▁ஆடி	-9.17777
▁தொடங்க	-9.17793
▁பொறுப்பு	-9.17868
▁சா	-9.1787
▁அங்கிருந்து	-9.18042
▁பெண்களுக்கு	-9.18076
▁தா	-9.18116
▁ஆண்	-9.18144
▁முடிவுகள்	-9.18168
▁உடன்	-9.18367
த்துறை	-9.18378
▁சர்ச்சை	-9.18522
▁அணிக்கு	-9.18653
▁மூலாதாரம்	-9.18711
▁திட்ட	-9.18761
▁தயாராக	-9.18817
▁அத்துடன்	-9.18818
▁2021	-9.18863
▁நீதி	-9.18897
▁ராகு	-9.18902
▁பேருக்கு	-9.18919
▁உறவு	-9.18961
▁மருத்துவமனைக்கு	-9.18975
▁அடையாளம்	-9.18986
▁ஏற்படுத்தும்	-9.18997
▁அமைச்சர்கள்	-9.18998
▁இன்றைய	-9.19063
▁டெல்லியில்	-9.19077
▁விசாரணையில்	-9.19093
ிருக்கின்றன	-9.19126
▁வாரம்	-9.19201
▁கால்	-9.19315
▁நா	-9.19545
▁ஆசிரியர்	-9.19549
▁மருந்து	-9.19602
▁வீட்டு	-9.1963
வேண்டும்	-9.19638
▁தடுப்பூசி	-9.19693
▁வருகை	-9.19753
▁அடிப்படை	-9.1983
▁தமிழகம்	-9.19917
▁மது	-9.19935
▁நடவடிக்கைகளை	-9.19959
ஆ	-9.19999
▁நின்று	-9.20288
▁போராட்டத்தில்	-9.2032
▁சொத்து	-9.20345
▁கண்டுபிடிக்க	-9.20444
னுக்கு	-9.2056
▁அரசாங்க	-9.20618
▁கிராமத்தில்	-9.20632
▁விளக்கம்	-9.20761
ுவோம்	-9.20778
லே	-9.20824
ைக்	-9.2087
▁S	-9.20883
▁ஹமாஸ்	-9.2094
▁ஒன்றில்	-9.20995
ுவதாக	-9.21171
▁தெரிய	-9.21394
▁பாட	-9.21502
▁பாலாஜி	-9.21569
▁பால	-9.21588
▁கோலி	-9.21637
9	-9.21728
▁தகுதி	-9.21866
▁உலகின்	-9.21947
யம்	-9.21959
▁அமைச்சரவை	-9.22107
யோடு	-9.22114
▁ஊழல்	-9.22152
ணி	-9.22191
▁ஜனவரி	-9.22221
▁அரசியலில்	-9.22237
▁வென்ற	-9.22507
▁அக்டோபர்	-9.22579
▁இருக்கிறார்கள்	-9.22617
ுவார்கள்	-9.22759
▁2023	-9.22905
▁யானை	-9.22925
▁ஆராய்ச்சி	-9.2294
▁வடக்கு	-9.22945
▁பேருந்து	-9.2319
தும்	-9.23408
▁கிடைத்தது	-9.23582
▁நிகழ்வு	-9.23604
▁ஏற்படுத்தியுள்ள	-9.23649
▁இதனிடையே	-9.23818
▁நிலைய	-9.23819
▁இல்	-9.23831
ுகின்றன	-9.23871
▁ர	-9.24018
▁தொடர்ச்சியாக	-9.24024
▁ஆனாலும்	-9.24025
▁நிறைவேற்ற	-9.24059
▁இசை	-9.24135
ருக்கு	-9.24265
▁அடித்து	-9.24332
▁ஆதரவாக	-9.24462
குமார்	-9.24484
▁விருது	-9.24513
▁கொடி	-9.24525
▁கொண்டிருந்த	-9.24585
களுக்காக	-9.24606
ுவதை	-9.24839
▁தமது	-9.24922
▁பெட்ரோல்	-9.24953
▁இளம்	-9.24981
▁கண்டு	-9.25049
▁மாற்றி	-9.25051
▁வழக்கை	-9.25145
),	-9.25151
▁பிரச்சனை	-9.25177
▁என்றாலும்	-9.2525
▁வழங்கப்பட்டது	-9.25313
▁என்னுடைய	-9.25359
▁சுற்றுலா	-9.25373
▁ஜனநாயக	-9.25404
▁மேற்கொண்ட	-9.25489
▁இணைய	-9.25533
▁ரவி	-9.25589
▁60	-9.25685
▁தீர்வு	-9.25783
▁அதிகரிக்க	-9.25931
▁சென்றனர்	-9.25939
▁தமிழர்	-9.25987
▁ஈடுபட்ட	-9.25988
▁புதிதாக	-9.2601
▁டிசம்பர்	-9.26024
▁ஊர்	-9.26034
வர	-9.2613
▁செல்வ	-9.26159
▁நன்றி	-9.26243
▁படிக்க	-9.26337
▁இடையிலான	-9.26381
▁உலகம்	-9.26411
பு	-9.26419
▁பணிகளை	-9.26422
2	-9.26476
▁வழக்கறிஞர்	-9.2651
ராக	-9.26543
▁பெறும்	-9.26633
▁சிவ	-9.2667
▁செய்யப்பட்டுள்ள	-9.267
▁கண்	-9.26701
▁அனைவருக்கும்	-9.26774
A	-9.26798
▁அண்ணா	-9.268
▁கவலை	-9.26853
▁முக்கியத்துவம்	-9.26942
▁அனைத்தும்	-9.26986
▁வருவது	-9.27044
▁முடியாமல்	-9.27157
▁குறைவாக	-9.27276
▁அப்பா	-9.27284
ிருந்தனர்	-9.27363
▁அதிமுகவில்	-9.27382
▁வயதான	-9.2751
▁பொறுத்தவரை	-9.27525
▁கூறுகின்றனர்	-9.27535
▁அபிஷேகம்	-9.27653
▁தொழிலாளர்	-9.27666
▁வசதி	-9.27679
ிருக்கலாம்	-9.27727
y	-9.27821
▁போட்ட	-9.27901
▁அவரிடம்	-9.2791
▁சென்றார்	-9.27993
▁ரன்களை	-9.28047
த்தையும்	-9.28051
▁அணை	-9.28101
▁அறிவித்த	-9.28209
▁ரயில்வே	-9.28257
▁சினிமா	-9.28282
▁பெற்றோர்	-9.28337
▁இடத்தை	-9.28461
யிலேயே	-9.28724
▁முடிவுக்கு	-9.28727
▁மூன்றாவது	-9.28827
▁மூலமாக	-9.28868
▁தரும்	-9.28881
யைக்	-9.28983
▁முஸ்லிம்	-9.28998
▁எடுத்துக்	-9.2904
▁27	-9.29051
▁போலவே	-9.29073
▁வருமான	-9.2914
▁மதிப்பு	-9.29158
▁ஊடக	-9.29237
4	-9.29287
▁போதும்	-9.29365
▁சட்டத்தின்	-9.29432
▁பிரச்சினை	-9.29495
▁ஏற்படுத்தியது	-9.29553
▁சற்று	-9.29592
▁பெற்றது	-9.29652
▁கடை	-9.29665
▁கொஞ்சம்	-9.29806
▁ஆட்சிக்கு	-9.29845
னும்	-9.29899
▁நகரில்	-9.29926
▁கொண்டே	-9.29934
▁பகவான்	-9.29939
லில்	-9.29949
தோடு	-9.29956
▁ட்விட்டர்	-9.30022
▁அழைப்பு	-9.30078
ிருப்பதாக	-9.30164
க்கி	-9.30195
▁மாதத்தில்	-9.30228
ிட	-9.30304
று	-9.30316
▁நேர	-9.30368
யூ	-9.30395
▁எழுத	-9.3044
▁ராஜா	-9.30498
▁எழுதிய	-9.30552
▁பள்ளியில்	-9.30833
▁சிறை	-9.31044
▁வாகன	-9.31046
▁செய்யப்படும்	-9.31202
▁மையம்	-9.31252
▁தகவல்களை	-9.31256
▁காதல்	-9.31308
▁திட்டங்கள்	-9.31435
▁அதிகாலை	-9.31556
▁பயணிகள்	-9.31635
▁விதமாக	-9.31654
சை	-9.31705
▁சோ	-9.31733
▁இருந்தனர்	-9.31759
▁சர்மா	-9.31825
▁குறைக்க	-9.3183
யில	-9.31864
▁எம்பி	-9.31894
▁பதிலாக	-9.31912
▁வருமானம்	-9.31917
▁பொருள்	-9.3192
▁மாணவர்களுக்கு	-9.31924
▁அவற்றை	-9.31928
▁26	-9.31981
ஃப்	-9.32081
ூ	-9.32173
▁சம்பந்தப்பட்ட	-9.32245
ுக்காக	-9.32246
▁பூஜைகள்	-9.32259
▁ராஜஸ்தான்	-9.32342
▁பு	-9.32351
▁வைக்கப்பட்ட	-9.32365
ஷா	-9.32365
▁வாக்குகள்	-9.32539
▁வெளியிட்டுள்ள	-9.32545
▁ஜோ	-9.3263
▁பட்ட	-9.32676
▁மீட்டர்	-9.32772
▁ஈ	-9.32887
▁ஒதுக்கீடு	-9.3289
▁எனப்	-9.32929
▁கொழும்பு	-9.32985
டோ	-9.32994
▁ஒன்றிய	-9.33003
▁முன்னர்	-9.33043
▁விசாரிக்க	-9.33143
▁மிகுந்த	-9.33287
▁இன்	-9.33433
▁தெரியவந்தது	-9.33592
▁பெயரை	-9.33593
..!	-9.33631
▁இலங்கையின்	-9.33661
ஸ்டாலின்	-9.33867
▁மேற்கொள்ளப்பட்ட	-9.33913
▁வானிலை	-9.34084
▁கோப்பை	-9.34117
க்கா	-9.34207
▁செப்டம்பர்	-9.34304
▁அல்	-9.34329
▁வலியுறுத்தி	-9.34395
▁முன்பாக	-9.34419
▁பொதுவாக	-9.34456
ெ	-9.34474
▁ராஜினாமா	-9.34485
▁முக	-9.34515
ண்ட	-9.34599
ுவார்	-9.34614
▁வலைதளங்களில்	-9.34691
▁ஆன்லைன்	-9.34693
▁தனியாக	-9.34721
▁பார்வை	-9.34723
கள	-9.34937
▁திராவிட	-9.34956
▁துவங்கியது	-9.34965
▁தவிர்க்க	-9.35018
▁மேலாக	-9.35025
விட்டார்	-9.35163
▁போ	-9.3527
▁விசாரணைக்கு	-9.35337
யு	-9.35368
▁நன்றாக	-9.3538
ியது	-9.35403
▁இறந்த	-9.35471
▁சாப்பிட	-9.3548
▁மகளிர்	-9.35499
▁ஊழியர்கள்	-9.35539
▁நிலையம்	-9.35581
ுள்ளோம்	-9.35592
ுவதில்	-9.35636
▁கேப்டன்	-9.3571
▁சதவீதம்	-9.35773
வர்களை	-9.36047
▁கருணாநிதி	-9.36121
▁கீழே	-9.36137
த்திற்காக	-9.36197
▁பரிசோதனை	-9.36207
▁என்கிறார்கள்	-9.3622
▁கோரி	-9.36226
▁நகர்	-9.36237
▁செய்துள்ளார்	-9.36309
▁தாண்டி	-9.36363
▁செயல்படுத்த	-9.36404
பன்னீர்செல்வம்	-9.36428
▁சேலம்	-9.36518
பே	-9.36542
▁ஏற்பட்டு	-9.36579
▁நல்லது	-9.36594
▁வைத்தார்	-9.36624
t	-9.36734
▁சங்க	-9.36736
▁அலை	-9.3675
போ	-9.36795
▁28	-9.37115
▁வார	-9.37165
S	-9.37339
ஷி	-9.37397
ஜ்	-9.37427
புரம்	-9.37454
▁தெரிவிக்கப்பட்ட	-9.37455
▁அப்படியே	-9.3749
▁?	-9.3753
▁து	-9.37545
▁நி	-9.37548
ஸ	-9.3755
▁உதயநிதி	-9.37559
ப்பட்டுள்ள	-9.37576
▁நம்ப	-9.37673
▁முதல்வராக	-9.37739
▁எப்போது	-9.37782
▁கடந்து	-9.37802
▁இருந்தன	-9.37827
▁அவர்கள	-9.37881
▁ஒ	-9.37955
▁எனினும்	-9.37962
▁வர்த்தக	-9.38026
▁படத்தின்	-9.38059
▁இருக்கு	-9.3806
▁கொண்டாட	-9.38098
▁தனிப்பட்ட	-9.38146
▁குடியரசுத்	-9.38155
▁ஏற்பாடுகளை	-9.38169
▁நியமிக்கப்பட்ட	-9.38222
▁இந்தியாவுக்கு	-9.38365
விட்ட	-9.38389
▁நடித்த	-9.38467
தில்லை	-9.38479
▁பகிர்ந்து	-9.38491
▁எங்க	-9.38501
▁என்றே	-9.38518
▁ரீதியாக	-9.38564
ண்டு	-9.38664
▁சாமி	-9.38788
▁பரவி	-9.38801
▁கா	-9.38903
▁வீட்டிற்கு	-9.38944
▁எத்தனை	-9.38992
▁காவல்துறையினர்	-9.39053
▁டெஸ்ட்	-9.39068
னோ	-9.39112
தற்காக	-9.39133
▁போன்	-9.39174
▁இயற்கை	-9.39211
▁இதுதான்	-9.39214
▁விமர்சனம்	-9.39291
▁அதிரடி	-9.39325
p	-9.39353
▁வலி	-9.39372
ிறார்	-9.39486
▁முடிந்தது	-9.39489
▁பத்து	-9.39491
▁கொடுக்கும்	-9.39532
▁எல்லை	-9.3954
▁குரல்	-9.39681
▁விக்கெட்	-9.39702
▁அதிகார	-9.39753
▁வரலாறு	-9.39807
▁கிட்டத்தட்ட	-9.39853
▁என்பதே	-9.39868
▁கூறுகிறது	-9.39877
▁மரியாதை	-9.39889
▁அவசர	-9.39967
தாகக்	-9.40008
7	-9.40055
▁தீர்மானம்	-9.40148
▁மாற்று	-9.40183
▁நாட்களாக	-9.40214
▁நவம்பர்	-9.40296
▁இளைஞர்கள்	-9.40316
▁பொதுச்	-9.40327
ாரா	-9.40364
T	-9.40418
▁கட்டணம்	-9.40586
.1	-9.40672
▁திடீர்	-9.40705
▁மாகாண	-9.4082
▁அங்குள்ள	-9.40826
▁பார்க்கலாம்	-9.40856
▁புதுச்சேரி	-9.40984
▁குடும்பத்தினர்	-9.41069
▁வார்த்தை	-9.41112
▁மகிழ்ச்சி	-9.41265
▁தேர்ந்தெடுக்க	-9.41348
▁நிச்சயம்	-9.41384
▁சேர	-9.4144
▁துறையில்	-9.41626
▁மாற	-9.41767
▁இதற்கான	-9.41825
▁விவசாயி	-9.41839
▁பொங்கல்	-9.41842
▁மருத்துவர்கள்	-9.41908
▁தேர்	-9.42001
▁பேரும்	-9.42091
▁சாலையில்	-9.42098
▁உள்பட	-9.42274
▁வாழ	-9.4235
▁சமய	-9.42458
▁ஆஃப்	-9.42468
▁கேரளா	-9.42529
ாள்	-9.42542
▁வாய்ப்புகள்	-9.42575
▁பெ	-9.426
னார்	-9.42638
▁ஆத்மி	-9.42655
▁ஏதாவது	-9.42665
▁ஆட்சியை	-9.42928
▁A	-9.42961
▁சார்	-9.42982
▁கூட்ட	-9.42994
▁தொடரில்	-9.43051
▁கழக	-9.4307
▁தொடர	-9.43101
I	-9.43257
▁கேது	-9.43298
▁உடலை	-9.4343
▁நிறைவு	-9.43491
த்திற்கான	-9.43591
▁செய்துள்ளனர்	-9.43657
al	-9.4372
▁வரலாற்று	-9.43755
▁தேனி	-9.43776
ஜா	-9.4387
▁கேரள	-9.43938
▁வா	-9.43948
▁கள்ளக்குறிச்சி	-9.43976
▁புனித	-9.43977
▁அனுமதிக்க	-9.43985
லோ	-9.44052
▁நினைவு	-9.44092
▁சண்டை	-9.44123
▁திட்டங்களை	-9.44158
▁விளையாட	-9.44187
▁சொந்தமான	-9.44189
▁வீர	-9.44219
▁இஸ்லாமிய	-9.44222
▁நிறுத்தி	-9.44226
▁தவறான	-9.44316
▁உயர்வு	-9.44346
▁வெளி	-9.44374
▁அறிவிக்க	-9.44388
▁வயதில்	-9.44477
▁வன்கொடுமை	-9.44526
▁தங்களுக்கு	-9.44567
▁திறந்து	-9.44645
▁வீசிய	-9.44661
▁எல்	-9.44753
▁பேரை	-9.44759
▁ஷ	-9.44764
▁பண்ண	-9.44853
▁இதற்கிடையே	-9.44854
P	-9.44904
யன்	-9.45063
▁மாதங்களுக்கு	-9.45144
▁அமைதி	-9.45156
▁ஆகியவற்றை	-9.45215
er	-9.45361
▁பிடிக்க	-9.45519
▁நீங்க	-9.45536
▁செலுத்தி	-9.45552
▁நடைபெறுகிறது	-9.4556
▁சம்பவங்கள்	-9.45613
நான்	-9.45627
▁இருக்காது	-9.45654
▁கர்நாடகா	-9.45658
▁பாஜகவுக்கு	-9.45674
▁கணக்கு	-9.45713
▁அடித்த	-9.45763
▁ராசி	-9.45788
▁செய்துள்ளது	-9.45859
▁மின்சார	-9.4595
▁மி	-9.45966
▁வசிக்கும்	-9.46019
▁இடையில்	-9.46054
▁வருகிறோம்	-9.46063
▁தங்கம்	-9.46069
▁பிரதான	-9.46194
▁கப்பல்	-9.46301
▁வணிக	-9.46365
ோர்	-9.4648
▁ஓய்வு	-9.46568
▁ஆதரவாளர்கள்	-9.46682
▁தெற்கு	-9.46689
▁ரா	-9.46761
▁அமைப்பின்	-9.46787
▁ஏற்றுமதி	-9.46896
▁முருகன்	-9.46898
போதும்	-9.46911
▁சம்பவ	-9.46914
▁இழந்த	-9.4694
▁நீதிபதிகள்	-9.46962
6	-9.46968
▁பிரபல	-9.46978
▁திண்டுக்கல்	-9.47044
களைத்	-9.47072
ளை	-9.47123
▁கிடைக்க	-9.47196
▁மகாராஷ்டிரா	-9.47371
ஷன்	-9.47475
▁முன்னணி	-9.47487
▁கூட்டணியில்	-9.47546
▁வெள்ளி	-9.47679
▁காலி	-9.47793
▁காலமாக	-9.47869
▁விமர்சித்த	-9.47869
▁தேர்தலை	-9.47956
▁ஈடுபட	-9.47989
▁தின	-9.48008
▁வீதி	-9.48009
▁மர	-9.481
▁தங்களின்	-9.48146
▁ரி	-9.48256
▁2020	-9.48339
▁தொடக்க	-9.48339
ிறார்கள்	-9.48399
▁ராசிக்கு	-9.48418
▁உள்துறை	-9.48488
▁உலகக்	-9.48489
▁தூத்துக்குடி	-9.48723
ைத்	-9.48766
▁திருப்பதி	-9.48773
வொரு	-9.48788
▁மண்டல	-9.48864
ஸ்ட்	-9.49067
▁மெ	-9.4914
ஸி	-9.49218
▁ரூபா	-9.49262
ப்பை	-9.49309
ியுள்ளது	-9.49332
▁இந்தி	-9.49376
க்கே	-9.49386
▁போன்று	-9.49401
மீது	-9.49437
▁ஜனதா	-9.49441
▁இருப்பதாகவும்	-9.4945
▁பெரும்பாலும்	-9.49649
▁ஏழு	-9.49658
▁விடுமுறை	-9.49744
ாங்க	-9.49774
▁200	-9.49814
▁பிரதேசத்தில்	-9.49869
▁ரொம்ப	-9.49888
▁சிவசேனா	-9.49891
▁பெருமை	-9.50038
▁அதிருப்தி	-9.50044
சர்	-9.501
▁இடைக்கால	-9.5012
▁பாடல்	-9.50126
a	-9.50186
▁திட்டமிட்ட	-9.50193
▁உங்கள	-9.50264
▁முந்தைய	-9.50354
▁யோகி	-9.50362
▁ரன்	-9.50394
▁கட்சிக்கு	-9.50441
▁சொன்னார்	-9.5045
▁அதற்காக	-9.50608
வர்களின்	-9.50631
ின்றனர்	-9.50645
ட்டை	-9.50695
▁பேசுகையில்	-9.50829
▁இரட்டை	-9.5083
ட்டும்	-9.50855
▁நல	-9.50866
▁விக்கெட்டுகளை	-9.50999
▁அனுமதிக்கப்பட்ட	-9.51012
▁சிக்கல்	-9.51041
▁வெளியில்	-9.51082
▁திரைப்பட	-9.51101
▁சூரிய	-9.51143
▁நிறைந்த	-9.51204
▁முன்பே	-9.51338
▁தடுப்பு	-9.5142
▁கூறியது	-9.51471
▁நகர்ப்புற	-9.51512
▁குழந்தைகளுக்கு	-9.5152
▁சார்பாக	-9.5154
▁ஊழியர்	-9.51608
▁ஏற்க	-9.51677
பர்	-9.5172
▁வசித்து	-9.51741
ர்கள்	-9.51752
▁ஆரம்ப	-9.51754
▁ஆசை	-9.51769
▁அறிவியல்	-9.5186
கம்	-9.51887
▁பின்பற்ற	-9.51909
▁ஏற்பட	-9.51944
▁பத்திரிகையாளர்	-9.51996
▁விதிக்க	-9.52015
▁ரெட்டி	-9.52071
▁அணியில்	-9.52101
▁மேயர்	-9.5214
▁இலவச	-9.52163
▁கடற்படை	-9.52176
▁படித்து	-9.52185
▁சிக்கி	-9.5221
▁மட்டுமல்ல	-9.52218
5	-9.52233
▁ராஜ	-9.52302
▁அழுத்தம்	-9.52323
னால்	-9.52368
▁அதிகாரம்	-9.52435
▁இணைந்த	-9.52512
u	-9.52539
ட்டா	-9.52697
8	-9.5279
▁ஒப்புதல்	-9.52822
ஞ்ச	-9.52825
▁சந்திப்பு	-9.5287
▁பகுதியை	-9.52908
டர்	-9.52933
▁ஆட்சியர்	-9.52936
▁இல்ல	-9.52968
▁பரபரப்பு	-9.52994
▁ஜே	-9.53012
வந்த	-9.53016
ீர்கள்	-9.53031
▁அதுவும்	-9.5317
▁முடிவை	-9.53181
▁அரிசி	-9.53183
▁நவீன	-9.53211
▁விபத்தில்	-9.53255
உ	-9.5345
▁காப்பாற்ற	-9.53555
▁வெளியேற	-9.53573
▁கனடா	-9.53659
▁வாழ்த்து	-9.53699
▁திரும்பி	-9.53717
▁சூப்பர்	-9.53727
▁தூக்கி	-9.53852
▁வளாகத்தில்	-9.53999
▁காலநிலை	-9.54008
▁அமெரிக்காவின்	-9.54078
▁விமானம்	-9.54089
▁பேரில்	-9.54125
▁வீட்டை	-9.54178
▁இவ்வளவு	-9.54205
▁ராணுவம்	-9.54275
▁கும்பாபிஷேகம்	-9.5428
▁முன்னிலையில்	-9.54288
▁ஈடுபட்டனர்	-9.54313
▁எதிர்க்கட்சிகள்	-9.54392
ப்போ	-9.54524
ண்ட்	-9.546
▁சதவீத	-9.5462
▁இன	-9.54651
ைச்	-9.54675
▁இறக்குமதி	-9.54686
d	-9.54687
▁அலுவலகம்	-9.54694
▁அரசை	-9.54721
▁கொண்டது	-9.54724
▁படத்தை	-9.5495
▁வாய்ந்த	-9.54964
▁சட்டத்தை	-9.54975
▁பில்லியன்	-9.54995
பின்	-9.55006
னே	-9.55018
ுவதால்	-9.55031
▁29	-9.55103
▁எழுதி	-9.55134
▁அமைந்துள்ளது	-9.55318
▁எங்கு	-9.55363
▁வெள்ளை	-9.55418
▁ஆன	-9.55469
▁திறன்	-9.55498
▁எட்டு	-9.55587
ொ	-9.55675
▁அதானி	-9.55683
▁அறுவை	-9.55691
ிருக்கிறோம்	-9.5573
▁அதிர்ச்சியை	-9.5573
▁வந்துள்ளது	-9.55778
▁களத்தில்	-9.55783
▁உறுதியாக	-9.55802
▁வாங்கிய	-9.5581
▁இடம்பெற்ற	-9.5584
▁வழங்கப்பட்ட	-9.55875
▁ஆணையர்	-9.55875
▁நிறுவன	-9.55901
விட்டது	-9.55946
▁இருப்பதை	-9.56001
▁நபர்கள்	-9.5611
▁புரிந்து	-9.562
யைத்	-9.56215
▁காவிரி	-9.5623
▁அணிந்து	-9.56245
▁பே	-9.56282
▁ஜம்மு	-9.56424
▁நேரங்களில்	-9.56454
▁வகையான	-9.5651
த்தைச்	-9.56711
▁சக	-9.56739
▁வந்தால்	-9.56794
and	-9.56802
▁இலங்கைக்கு	-9.56902
▁ஒருமுறை	-9.56954
▁தயார்	-9.56979
▁மரணம்	-9.57003
▁சந்தை	-9.57037
▁அமைந்துள்ள	-9.57082
▁சாதனை	-9.571
▁ராமர்	-9.57299
▁ஒப்பந்தம்	-9.57307
▁நிர்வாகி	-9.57336
மன்	-9.5737
▁நீக்க	-9.57436
▁மரண	-9.57455
▁செய்யலாம்	-9.57487
▁எண்ண	-9.57503
▁நேரு	-9.57568
▁நடைமுறைப்படுத்த	-9.57592
▁கள	-9.57646
▁இறங்கி	-9.57684
▁பேட்டி	-9.57691
▁எங்களை	-9.57795
▁அதிகரித்துள்ளது	-9.57884
▁நானும்	-9.57971
▁பலன்	-9.57972
▁நகராட்சி	-9.57993
▁காலங்களில்	-9.58032
▁பழனிச்சாமி	-9.58032
▁அறை	-9.58208
▁உதவ	-9.58426
▁31	-9.58537
ந்	-9.58579
▁அறிமுகப்படுத்த	-9.5858
in	-9.58593
ினை	-9.58609
ுகிறோம்	-9.5867
க்கூட	-9.58691
▁பட்டியலில்	-9.58722
▁சேர்க்க	-9.58723
▁விண்வெளி	-9.58732
▁சிறிது	-9.58753
▁மூல	-9.58791
▁தெரியாது	-9.58871
▁கலைஞர்	-9.58876
▁அலி	-9.58935
▁ஓவரில்	-9.58988
▁வருட	-9.59026
▁மேம்படுத்த	-9.59078
ழி	-9.59082
▁வேலைக்கு	-9.59083
▁சாதாரண	-9.59107
▁தாக்க	-9.59243
▁உள்ளாட்சி	-9.59261
▁பீ	-9.59307
▁கருத்தை	-9.59312
▁வலம்	-9.59318
▁அமைத்து	-9.59364
▁செய்தியாளர்களிட	-9.59539
▁எங்கே	-9.59572
ஓ	-9.59698
▁இறுதியில்	-9.59747
▁குற்ற	-9.5977
▁ஆஸ்திரேலிய	-9.59967
க்கொண்ட	-9.59996
டில்	-9.60007
▁செய்தால்	-9.60029
▁எனப்படும்	-9.60044
▁தலைநகர்	-9.60091
யி	-9.60133
▁கண்டனம்	-9.60185
யானது	-9.6019
▁பதிலடி	-9.60229
▁ஆட	-9.6023
▁கொல்கத்தா	-9.60282
▁ஆஸ்திரேலியா	-9.60302
▁மோசமாக	-9.60314
த்திலேயே	-9.60358
ிருந்தால்	-9.60385
▁பங்கேற்க	-9.60424
▁யாதவ்	-9.60516
▁பெற்றார்	-9.60525
▁பாதை	-9.60556
▁விழுந்த	-9.60582
▁இவருக்கு	-9.60662
▁இந்தியாவை	-9.60755
▁செய்யப்பட்டார்	-9.60769
▁மிகப்	-9.60773
▁அமைச்சராக	-9.60834
▁ஆயிரக்கணக்கான	-9.60995
D	-9.61058
▁நிலம்	-9.61094
▁நடத்தப்பட்ட	-9.61308
▁தொண்டர்கள்	-9.61315
R	-9.61325
சோ	-9.61465
▁மட்டுமின்றி	-9.61559
விலிருந்து	-9.61564
▁உத்தர	-9.61657
▁75	-9.61673
▁தொடர்புடைய	-9.61781
▁இதனையடுத்து	-9.61826
▁உண்மையில்	-9.61828
▁பேசும்	-9.61864
▁நிலையை	-9.61869
▁எடுக்கப்படும்	-9.61869
▁பை	-9.62004
▁தெரிந்து	-9.62021
▁இருந்தும்	-9.62121
▁M	-9.6213
:00	-9.62143
▁கோர	-9.62171
▁என்பதில்	-9.62202
▁இடத்திற்கு	-9.62203
▁அறிவித்துள்ளது	-9.62224
▁B	-9.62258
▁சென்றது	-9.62262
▁எம	-9.62281
▁ஃப	-9.62293
▁செய்தியாளர்களை	-9.62373
▁கரு	-9.62405
▁ஒருநாள்	-9.62462
▁கூறும்	-9.62544
▁கும்பல்	-9.62662
▁500	-9.62673
ஆவது	-9.62675
▁அமித்	-9.6271
க்களை	-9.62755
▁சபாநாயகர்	-9.62768
▁இணையத்தில்	-9.62777
▁C	-9.62801
▁ஹிஜாப்	-9.62821
▁விட்ட	-9.6291
▁கிடைக்கவில்லை	-9.63046
▁எடுக்கப்பட்ட	-9.63166
▁இங்கிலாந்து	-9.63172
▁அடைய	-9.63211
▁குடும்பத்தினர	-9.63218
▁உயர்த்த	-9.63244
▁படங்கள்	-9.6325
▁கூறப்பட்டுள்ளது	-9.63314
▁மம்தா	-9.63421
க்ஸ்	-9.63427
▁எவ்வாறு	-9.63432
▁நெல்லை	-9.63442
▁பட்டியல்	-9.63507
▁பாஸ்	-9.63524
▁கட்சித்	-9.63634
▁அந்தத்	-9.63822
மணி	-9.6385
▁விசேட	-9.63856
B	-9.63903
g	-9.63917
▁வரவேற்பு	-9.63922
▁தமிழிடம்	-9.63968
▁மாநாட்டில்	-9.63985
▁ஜெ	-9.64017
▁செய்திகள்	-9.64019
▁நின்ற	-9.64035
▁மீறி	-9.64148
செ	-9.6415
▁பங்கேற்ற	-9.64182
r	-9.64245
▁அவன்	-9.64282
▁எழுந்துள்ளது	-9.64334
▁டிஜிட்டல்	-9.64525
▁பெண்ணை	-9.64536
▁பிரிட்டன்	-9.64544
▁எண்	-9.64577
▁சேர்ந்தவர்கள்	-9.64631
▁ஓடி	-9.64687
▁நம்ம	-9.64733
▁தலா	-9.64804
▁கொண்டிருக்கிறது	-9.64832
▁ஒட்டுமொத்த	-9.64904
▁ஆபத்து	-9.64988
ாளர்	-9.65013
▁காட்சிகள்	-9.65019
▁பொதுச்செயலாளர்	-9.651
▁கூறியிருந்தார்	-9.65117
▁70	-9.65169
▁ஒருவரை	-9.65211
▁செவ்வாய்	-9.65284
▁வட்டி	-9.65297
▁என்னிடம்	-9.65313
பை	-9.65491
ட்டில்	-9.65495
ப்படுத்த	-9.65508
▁அதிகரித்த	-9.6552
▁எதிர்பார்த்த	-9.65613
▁விட்டது	-9.65691
▁வாகனத்தில்	-9.65746
▁அனுப்பிய	-9.65779
▁மசூதி	-9.65782
▁மோகன்	-9.65801
▁அமல்படுத்த	-9.65817
▁ஏனெனில்	-9.65866
▁குடும்பம்	-9.65901
▁மறு	-9.65918
▁வெளியாகியுள்ளது	-9.65927
யாகும்	-9.65994
▁தொழிலாளர்கள்	-9.66017
▁விடுத்த	-9.66092
▁உண்மையான	-9.66113
▁ஆட்டம்	-9.66113
▁என்பதுதான்	-9.66156
▁நிகழ்வில்	-9.66181
▁மீன்	-9.66195
த்தா	-9.66215
▁வாழ்க்கையில்	-9.66255
▁அமைச்சகம்	-9.6635
▁நோ	-9.66351
▁வைக்கும்	-9.6641
▁டீ	-9.66431
▁ஊடாக	-9.66454
▁பிபிசியிடம்	-9.66476
ஹா	-9.66506
▁அதனால்தான்	-9.66544
த்தோடு	-9.66575
▁ஒற்றை	-9.6658
▁சே	-9.66627
வான	-9.66707
ஸை	-9.66896
c	-9.66914
▁பெரிதாக	-9.66973
▁ஏதோ	-9.67012
▁பகுதியைச்	-9.67034
▁ராணி	-9.67067
துடன்	-9.67075
▁திரைப்படம்	-9.67091
ுடைய	-9.67105
விடும்	-9.67156
▁பலி	-9.67179
▁படுகொலை	-9.67252
பட்ட	-9.67255
▁டாலர்	-9.67357
M	-9.67369
▁கோவிலுக்கு	-9.67369
▁T	-9.67463
▁பணியாற்றி	-9.67495
▁ட	-9.6753
ுமான	-9.6759
▁மாதங்களில்	-9.67614
▁அறிந்த	-9.67625
இது	-9.67659
பதி	-9.67661
களைச்	-9.67692
ங்கி	-9.67775
லு	-9.67861
▁எழுந்த	-9.67925
ிறோம்	-9.67936
▁மீட்பு	-9.67963
▁கூட்டு	-9.67972
▁நிபுணர்	-9.67992
▁அணிய	-9.68028
▁அண்மையில்	-9.68099
▁திருப்பூர்	-9.68106
▁தோனி	-9.68114
ண்	-9.68121
▁அடுத்தடுத்து	-9.68194
▁அமெரிக்காவில்	-9.6825
▁படித்த	-9.68305
▁கோட்டை	-9.68315
▁குழுவின்	-9.68329
ல்ல	-9.68445
▁வரிசையில்	-9.68462
▁காஷ்மீர்	-9.68502
▁சமயத்தில்	-9.68515
▁ஏற்ப	-9.68623
▁வருவதாகவும்	-9.68629
▁யாருக்கு	-9.68653
▁வெள்ள	-9.68673
▁நடத்தப்பட்டது	-9.68745
▁அணியை	-9.68775
▁போகும்	-9.68864
▁ஜெனரல்	-9.68987
ெல்லாம்	-9.69025
▁திட்டத்தில்	-9.69127
▁பாபு	-9.69137
▁உறவினர்கள்	-9.69157
▁அளித்து	-9.69224
▁அதிலும்	-9.69278
▁பிரிவில்	-9.69293
C	-9.6932
▁திருப்பி	-9.69322
▁பார்க்கும்	-9.69406
▁வழக்குகள்	-9.69532
▁அலுவலக	-9.69541
▁ஆர்வம்	-9.69673
▁முடித்த	-9.69692
▁சட்டமன்றத்	-9.69696
▁ராசியில்	-9.69698
▁முடிந்து	-9.69728
▁பணியை	-9.69855
▁முயன்ற	-9.69881
▁அருள்	-9.69946
▁வழங்கினார்	-9.69946
▁2018	-9.6997
▁உயர்ந்த	-9.69997
▁ஆகவே	-9.70047
▁பொய்	-9.70073
▁கனமழை	-9.70136
▁உருவாக்கி	-9.70155
▁இவரது	-9.70177
▁ஆரம்பித்த	-9.70242
▁மின்சாரம்	-9.70248
▁உணர	-9.70321
▁இதுதொடர்பாக	-9.70368
O	-9.70515
▁பதிலளித்த	-9.70555
டே	-9.70568
றை	-9.70638
▁தாக்கரே	-9.70685
▁கனவு	-9.70753
▁விசாரித்து	-9.70836
▁போன்றவை	-9.70836
▁ஆண்டின்	-9.70844
▁மணியளவில்	-9.70945
ின்றன	-9.70959
▁பஸ்	-9.70996
மலை	-9.71055
.5	-9.71142
ing	-9.71309
▁முடியுமா	-9.71318
▁நாடுகளுக்கு	-9.71354
▁அகற்ற	-9.71361
▁பரிசு	-9.71405
▁மாணவிகள்	-9.71452
▁அரை	-9.71463
▁பகுதியாக	-9.71497
▁அவ்வப்போது	-9.71526
▁இராஜாங்க	-9.71526
▁முன்னெடுக்க	-9.71526
▁வாழும்	-9.7158
▁வெளியிட்டுள்ளது	-9.71628
▁அமலாக்கத்துறை	-9.71678
க்கை	-9.71881
▁சிக்கிய	-9.72083
ிருந்தாலும்	-9.72087
▁பாதுகாக்க	-9.72093
▁திருவண்ணாமலை	-9.7211
▁தெரிவிக்கின்றன	-9.72112
▁எதிர்பார்ப்பு	-9.72131
▁விலகி	-9.72172
▁போலி	-9.72222
.2	-9.72246
▁குறிப்பிட்டு	-9.72248
▁ரஷ்யாவின்	-9.72292
▁டிவி	-9.7231
▁நினைத்து	-9.72331
ிற	-9.72436
▁ராம	-9.72513
▁அறிக்கையை	-9.72565
▁ஜெய	-9.726
▁அமர்ந்து	-9.727
▁பார்	-9.72716
▁லி	-9.72762
▁தெரிவித்துள்ளனர	-9.72845
▁விசாரித்த	-9.72875
ரூ	-9.72904
▁கேட்டுக்	-9.72937
▁வைத்தனர்	-9.72953
▁அமைப்புகள்	-9.7297
▁ஏனென்றால்	-9.72992
ed	-9.7312
லின்	-9.73137
▁வழக்கமாக	-9.73159
▁வேண்டி	-9.73162
▁நண்பர்கள்	-9.73267
▁செய்யவில்லை	-9.7328
▁ஒதுக்க	-9.73289
▁டீசல்	-9.73292
ோட	-9.73306
▁குடும்பத்தில்	-9.73335
ானது	-9.73391
பூர்	-9.7344
▁எடுத்துச்	-9.73487
▁பதவியில்	-9.73535
▁பெண்களை	-9.73557
▁திருப்ப	-9.73568
▁வாழ்க்கையை	-9.73592
n	-9.73606
▁பிள்ளை	-9.73617
▁அம்மனுக்கு	-9.73619
▁தொடரும்	-9.73672
▁விஷயங்கள்	-9.73679
எ	-9.73794
▁அளிக்கும்	-9.73844
▁அமைச்சின	-9.73863
▁பல்கலைக்கழகத்த	-9.7387
▁பார்த்தால்	-9.73895
▁தெரியுமா	-9.73902
G	-9.73908
▁குறைவான	-9.73918
▁உருவாக்கப்பட்ட	-9.7408
▁பெயர்ச்சி	-9.74235
▁பயண	-9.74449
▁பாரம்பரிய	-9.74527
▁வலியுறுத்திய	-9.74535
▁அலுவலர்	-9.74628
▁உலகில்	-9.74658
ராஜ	-9.74716
▁ராம்	-9.74738
▁பானர்ஜி	-9.74781
▁முன்தினம்	-9.74783
▁அதேநேரம்	-9.74785
விட்டதாக	-9.7483
▁அலங்கார	-9.74922
போல	-9.7493
▁நாடாளுமன்றத்	-9.74935
▁அட்டை	-9.74961
▁பிரச்னைகள்	-9.75063
▁உடலில	-9.75101
▁நம்பி	-9.75151
▁சந்தேகம்	-9.75172
▁ஆட்டத்தில்	-9.75185
லுக்கு	-9.75201
▁ஆனா	-9.75209
▁வேத	-9.75225
▁கொல்லப்பட்ட	-9.75282
போல்	-9.75299
ரம்	-9.7532
▁மதியம்	-9.75325
▁இடங்கள்	-9.7535
▁கண்டறிய	-9.75361
▁மாநாடு	-9.75418
▁தமிழ்நாட்டின்	-9.75425
▁மருத்துவக்	-9.75471
▁உலா	-9.75487
▁குண்டு	-9.75522
▁காரில்	-9.75531
▁நாணய	-9.75532
ப்படாத	-9.75538
▁வேலையை	-9.75629
▁இருக்கின்றனர்	-9.75631
▁கூ	-9.75641
வெ	-9.7568
▁நம்மை	-9.75723
▁பெற்றுள்ளது	-9.75745
▁வழியில்	-9.75767
▁பந்துகளில்	-9.75768
▁35	-9.75773
▁டிரம்ப்	-9.75831
சீ	-9.75916
ாகவும்	-9.75931
▁காலையில்	-9.75946
▁பாகிஸ்தான	-9.76001
▁அதன்பிறகு	-9.76014
▁P	-9.76057
an	-9.76111
▁செஸ்	-9.76125
ar	-9.76156
கில்	-9.76159
மானது	-9.76223
▁தாக்கத்தை	-9.76312
▁காலகட்டத்தில்	-9.76322
▁யாருக்கும்	-9.76372
▁குறை	-9.76382
▁ஆய்வாளர்	-9.76422
ப்பது	-9.76453
▁கல்	-9.76473
▁எதிர்கால	-9.76485
▁எது	-9.7649
▁ஜப்பான்	-9.76533
▁சேர்த்த	-9.76577
▁தொலைக்காட்சி	-9.76602
▁நிபுணர்கள்	-9.76613
▁இடங்களை	-9.76656
▁வேண்டியது	-9.76656
▁வரவில்லை	-9.76674
▁குழுவினர்	-9.76716
▁யுக்ரேன்	-9.76836
▁பலத்த	-9.7684
▁80	-9.76911
▁வேலைவாய்ப்பு	-9.76913
ரும்	-9.76923
▁தெளிவாக	-9.76934
▁ஊடகங்களில்	-9.76946
நிலை	-9.76994
▁அறநிலையத்துறை	-9.77011
▁அழைக்க	-9.7702
▁பாடசாலை	-9.77038
▁எடை	-9.77042
▁ராஜ்	-9.77045
▁சொல்வது	-9.77076
▁ஐபிஎல்	-9.77216
▁தீர்த்த	-9.77281
▁ஐரோப்பிய	-9.77291
▁எரிபொருள்	-9.77308
▁முடிவில்	-9.77336
ிருக்கிறேன்	-9.77356
▁பந்த	-9.77387
▁கொள்ளை	-9.77472
▁அமைந்த	-9.77475
▁வெளிப்படையாக	-9.77524
▁அஜித்	-9.77527
▁வருவதால்	-9.77579
▁உங்களை	-9.77635
▁ஜா	-9.77695
▁உதவும்	-9.77817
▁மஞ்சள்	-9.77849
▁வருவாய்	-9.77893
▁கருத்தில்	-9.78008
▁உள்ளிட்டோர்	-9.7806
ப்படுவதாக	-9.78081
▁அறிந்து	-9.78121
▁மூன்றாம்	-9.78145
▁ஞாயிற்றுக்கிழமை	-9.78171
▁தெரியாமல்	-9.78222
▁தொடர்ந்த	-9.78326
▁தாங்கள்	-9.78382
தர்	-9.78403
▁வாகனம்	-9.78451
▁பங்கேற்று	-9.78455
▁அனைத்தையும்	-9.78459
▁தளபதி	-9.78463
▁கன்னியாகுமரி	-9.78464
▁நீலகிரி	-9.78473
▁சாதகமாக	-9.78518
▁பெரியார்	-9.7854
▁குடிநீர்	-9.78561
▁குடியரசு	-9.7857
▁கோயிலுக்கு	-9.78628
▁வேட்பாளராக	-9.78652
▁தேர்தலுக்கு	-9.78668
▁உள்நாட்டு	-9.78701
▁ஏழை	-9.78734
▁பின்னணி	-9.78765
▁ல	-9.7877
▁மக்களிடம்	-9.78784
▁வெள்ளிக்கிழமை	-9.78788
▁சிறப்பான	-9.78805
▁இழப்பு	-9.7884
▁செல்போன்	-9.7888
▁முற்றிலும	-9.78882
▁விஷயங்களை	-9.78987
முறை	-9.79067
▁அரபு	-9.79086
▁உறுதிப்படுத்த	-9.79136
▁வன	-9.79137
▁நண்பர்	-9.79166
▁குற்றம்சாட்ட	-9.79181
▁வெளியிட்டு	-9.79198
▁ரோ	-9.79218
▁பர்	-9.79249
ுவேன்	-9.79273
▁கொள்ளலாம்	-9.79299
▁சுற்று	-9.79318
▁போதே	-9.79326
▁திரும்பிய	-9.79403
▁வலுவான	-9.7941
▁மட்டுமல்லாமல்	-9.79441
▁90	-9.79534
▁நிலவும்	-9.79538
▁வங்க	-9.79548
▁நடத்தும்	-9.79659
விட்டனர்	-9.79659
▁கண்காணிப்பு	-9.79697
▁நட்பு	-9.7971
▁ஏதேனும்	-9.79712
▁தினசரி	-9.79716
▁ஒருவேளை	-9.79723
E	-9.79734
▁சோனியா	-9.79738
சம்	-9.79748
ூரில்	-9.79768
▁போரில்	-9.79777
▁செயலி	-9.79889
▁தொகுதிகளில்	-9.79943
வராக	-9.79967
▁ஒத்துழைப்பு	-9.80025
▁‛‛	-9.80029
▁பாமக	-9.80032
▁வெற்றியை	-9.80058
▁இஸ்ரேல	-9.80087
த்தைக்	-9.80191
▁ஆண்கள்	-9.80251
▁தலைவரும்	-9.80279
▁மீதும்	-9.8032
▁அப்	-9.80329
▁கழித்து	-9.80347
▁ஷிண்டே	-9.80348
▁குழந்தையை	-9.80388
▁உத்தரப்பிரதேச	-9.80398
▁கணக்கில்	-9.80456
▁வெல்ல	-9.80571
▁அபிஷேக	-9.80599
▁கூடுதலாக	-9.80664
▁கவனிக்க	-9.80684
▁என்பதையும்	-9.80724
▁மனதில்	-9.80733
▁செய்யப்பட	-9.80742
▁வருடம்	-9.80749
▁விளக்க	-9.80892
▁சகோதரர்	-9.80893
ந்தி	-9.80929
▁ஈரோடு	-9.8099
பட	-9.81027
▁எம்எல்ஏ	-9.81069
▁செல்வது	-9.81082
▁அவர்களிடம்	-9.81086
▁பண்ணி	-9.811
▁அமைய	-9.81147
▁சொல்லப்படுகிறது	-9.81156
ணும்	-9.81306
▁தொலைவில்	-9.81326
▁தயாரிக்க	-9.81381
▁மூட	-9.81395
யிலுள்ள	-9.81412
▁முடிக்க	-9.81423
▁எதையும்	-9.81435
▁ஆசிய	-9.81503
▁சமயம்	-9.81531
த்திற்கும்	-9.81554
▁போட்டியிட்ட	-9.81678
▁இருந்தே	-9.81823
▁தே	-9.81843
▁இன்றும்	-9.81929
▁பொருளாதாரம்	-9.81938
▁தேவி	-9.81965
▁தவறாக	-9.82047
▁கணவன்	-9.82091
▁ஆயிரத்து	-9.82103
கின்	-9.82233
▁சிபிஐ	-9.82278
▁ராஜபக்சே	-9.82298
▁தம்பி	-9.82366
▁நிலவி	-9.8239
▁வெளியானது	-9.82398
▁அமைக்கப்பட்ட	-9.82404
▁நிறுவனத்தில்	-9.82414
கிறது	-9.82428
▁தெரிந்த	-9.82431
▁விசாரணையை	-9.82447
▁தப்பி	-9.82561
களோ	-9.82603
h	-9.82606
F	-9.82621
▁அமையும்	-9.8267
▁மாடல்	-9.8276
▁இதனைத்	-9.82795
▁மொத்தமாக	-9.82825
▁நடந்துள்ளது	-9.82834
▁கூறியுள்ளது	-9.82854
▁கொடுத்தார்	-9.82922
▁விழுப்புரம்	-9.82923
▁எளிதாக	-9.82927
▁வரலாற்றில்	-9.82958
▁தாக்குதலை	-9.83009
யெல்லாம்	-9.83018
▁நடைமுறை	-9.83031
வீ	-9.83048
▁நடத்தப்படும்	-9.83063
▁மணிப்பூர்	-9.83071
▁வசதிகள்	-9.83099
ங்கா	-9.83116
▁எங்கள	-9.83121
▁தன்மை	-9.83143
▁கொண்டிருக்கும்	-9.83173
களா	-9.83182
▁வீடுகள்	-9.83242
▁பறிமுதல்	-9.83249
▁கோல்	-9.8327
▁மீட்டு	-9.83286
▁செயற்கை	-9.83294
▁துப்பாக்கி	-9.83503
▁ஆப்	-9.83507
வன	-9.83543
▁கம்யூனிஸ்ட்	-9.83584
ற்	-9.83608
▁தீபாராதனை	-9.83704
▁முத்து	-9.83711
▁போராடி	-9.8373
▁குற்றவாளி	-9.83782
▁குறைந்து	-9.83818
▁நாக	-9.83899
▁தொலைபேசி	-9.83913
▁தேச	-9.83932
▁கன	-9.83939
▁மாரியம்மன்	-9.83948
▁நிற	-9.83965
▁2017	-9.84029
▁டெ	-9.84035
▁தடுத்து	-9.84059
▁அவ்வளவு	-9.84074
▁நகை	-9.84092
▁அடிக்க	-9.84093
▁பேர	-9.84093
▁ரோஹித்	-9.84108
▁கொள்ளும்	-9.84117
▁இழந்து	-9.84146
▁உயர	-9.84147
▁பட்ஜெட்	-9.84225
▁ராஜபக்ஷ	-9.84241
▁தள்ளி	-9.84255
▁பாஜகவை	-9.84271
▁சந்தித்தார்	-9.84342
▁மாறாக	-9.84343
▁வந்துள்ளார்	-9.84348
▁ஜெயக்குமார்	-9.84413
▁உத்தரவிட்ட	-9.8449
▁எடுக்கும்	-9.84494
▁யோகம்	-9.84542
▁காற்று	-9.84544
▁ட்விட்டரில்	-9.84593
▁ஏக்கர்	-9.84597
▁நெல்	-9.84599
▁ஓட்ட	-9.84648
ிருந்து	-9.84775
▁மாற்றங்கள்	-9.84775
▁மாதங்கள்	-9.84778
▁சதவிகிதம்	-9.84793
▁பிராந்திய	-9.8481
த்தைப்	-9.84813
▁in	-9.84875
▁இம்ரான்	-9.84898
▁தங்களை	-9.84966
▁பணிப்பாளர்	-9.84986
▁முயற்சிகள்	-9.84988
▁அணு	-9.85088
வருகிறது	-9.85096
ண்டா	-9.85106
▁வெட்டி	-9.85174
▁பரிந்துரை	-9.85355
or	-9.85372
▁நிலையில்தான்	-9.85394
▁நடை	-9.85509
▁தகவலை	-9.85527
▁அளவிலான	-9.85575
▁அளித்தார்	-9.85643
▁அமைச்சு	-9.85666
▁அடங்கிய	-9.85699
க்கொள்ள	-9.858
▁ஆதி	-9.8582
▁அதைப்	-9.85865
க்குச்	-9.85893
▁மதம்	-9.85963
▁அவருடன்	-9.85964
▁குழந்தைகளை	-9.85986
▁300	-9.86011
▁மயிலாடுதுறை	-9.86084
▁இதய	-9.86105
▁இன்றி	-9.86111
▁எந்தவித	-9.86214
▁நேற்றைய	-9.8624
ங்களையும்	-9.8628
களோடு	-9.86281
▁தெலுங்கு	-9.86307
▁இலக்கு	-9.86461
▁தேவையில்லை	-9.86589
▁ஏறி	-9.86598
▁தாக்குதலில்	-9.8661
▁செய்தித்	-9.86639
▁தொகையை	-9.86656
▁விதி	-9.86683
▁எதிர்காலத்தில்	-9.86703
▁கல்லூரியில்	-9.86772
▁புள்ளி	-9.86798
▁பிரதமராக	-9.86799
▁ஒளி	-9.868
பர	-9.8683
▁பிரதேசம்	-9.86919
▁குதிரை	-9.86939
ரீ	-9.8699
▁தெரியாத	-9.86992
▁லா	-9.87002
▁இதுவே	-9.87101
▁வாகனங்கள்	-9.87105
▁லோக்சபா	-9.87167
▁செய்தியாளர்	-9.87248
▁வெவ்வேறு	-9.87265
▁பஞ்ச	-9.87298
▁நோக்கம்	-9.87335
▁முடி	-9.87339
▁ஊராட்சி	-9.87435
▁என்பதற்காக	-9.87526
▁வேளாண்	-9.87557
ண்டி	-9.87592
▁மாணவ	-9.87735
▁அக்கட்சி	-9.87749
ஹி	-9.87762
▁பயணத்தை	-9.87821
▁மோ	-9.87918
▁அறிவித்தார்	-9.87945
▁கூடும்	-9.87954
▁குடும்பத்தை	-9.87993
▁தாக்கி	-9.87996
▁பண்டிகை	-9.88
▁காணாமல்	-9.88032
▁இரான்	-9.88081
▁வேற	-9.8809
▁சுப	-9.88121
▁கட்சியினர்	-9.88138
▁விருப்ப	-9.88157
▁நிலைக்கு	-9.88174
▁துணைத்	-9.88174
ப்பட்டார்	-9.88176
▁வங்கதேச	-9.88194
▁சூழ்நிலை	-9.8822
▁உருவாக்கிய	-9.88228
▁என்பதும்	-9.88252
▁சர்க்கரை	-9.88287
▁டோ	-9.88335
▁பின்னால்	-9.88352
▁கொ	-9.88375
▁பாதி	-9.88401
▁வீடுகளில்	-9.88408
▁பெங்களூரு	-9.88428
▁கொண்டுவர	-9.8852
▁நடந்தன	-9.88565
ினோம்	-9.88572
▁கேள்விக்கு	-9.88589
▁மஹிந்த	-9.88632
▁மஹா	-9.88636
கால	-9.88694
▁சிலருக்கு	-9.88727
▁பாதிப்பை	-9.88781
▁45	-9.88817
மற்ற	-9.88842
ப்பட்டிருக்கிறது	-9.8887
H	-9.88873
▁சதவிகித	-9.88887
▁மண்	-9.88898
▁சிவில்	-9.88949
▁ஆந்திரா	-9.88978
▁வீசி	-9.88988
▁ஷி	-9.89022
▁மசோதா	-9.89049
▁வீட்டின்	-9.89057
▁உணவுப்	-9.89107
▁ஏற்றுக்கொள்ள	-9.8915
சாமி	-9.89175
m	-9.89198
▁இடையேயான	-9.89203
▁வேலூர்	-9.89327
▁மறைந்த	-9.89407
▁புயல்	-9.89456
▁மீட்க	-9.89456
▁மாட்டார்கள்	-9.89555
▁சம	-9.89648
▁சம்பளம்	-9.89709
▁நாட	-9.89718
▁யாத்திரை	-9.89724
▁மர்ம	-9.89737
▁காணப்படும்	-9.89843
ட்ஸ்	-9.89871
▁2014	-9.89873
▁சொல்லும்	-9.8996
▁பைடன்	-9.89975
▁போதிலும்	-9.90079
▁உயர்நீதிமன்ற	-9.90094
▁பங்கேற்றனர்	-9.90135
▁மாநிலத்தின்	-9.90178
▁அண்ணன்	-9.90241
▁முக்கியம்	-9.9032
b	-9.90336
▁நதி	-9.90409
▁ஒருவருக்கு	-9.90428
▁இருக்கிறோம்	-9.90444
l	-9.90455
▁செய்வதற்கு	-9.90513
▁தொடங்கினார்	-9.90532
▁இல்லையா	-9.90558
▁வாய்	-9.9059
▁செல்வாக்கு	-9.90602
▁விழுந்து	-9.90631
▁இலக்க	-9.90666
▁ஆந்திர	-9.90682
▁எதிர்கொள்ள	-9.90693
▁மிகக்	-9.90694
▁நட்சத்திர	-9.90696
ுகிறேன்	-9.90698
▁பிரியங்கா	-9.90725
▁இப்ப	-9.90728
ராம்	-9.90787
▁வெ	-9.90848
▁பணியாளர்கள்	-9.90945
▁மனம்	-9.90947
ழு	-9.90958
▁இருந்தபோது	-9.91085
▁விலக	-9.91133
▁கலந்துகொண்டனர்	-9.91155
▁அலங்காரத்தில்	-9.91205
▁குமார	-9.91215
▁வே	-9.91218
ற்று	-9.91272
▁தேட	-9.91323
▁கெ	-9.91371
▁மைய	-9.91382
▁G	-9.91418
ுற	-9.91449
ுவதில்லை	-9.91552
▁யாரு	-9.9156
▁பன்னீர்செல்வம்	-9.91583
▁இதைத்	-9.91604
▁இருந்ததால்	-9.91677
▁திருநெல்வேலி	-9.91796
▁ஏற்பாடுகள்	-9.91828
▁பிரசாரம்	-9.91859
▁பிக்	-9.91865
ஃப	-9.91872
▁விழாவை	-9.91951
▁செய்கிறார்	-9.91988
▁நாய்	-9.92003
12	-9.92033
▁மாணவர்களின்	-9.92147
ஸின்	-9.92148
பொ	-9.92152
▁பிரிட்டிஷ்	-9.92153
▁இடங்களிலும்	-9.9216
▁அளவிற்கு	-9.92166
▁முன்வைத்த	-9.92186
▁N	-9.9219
▁சிங்க	-9.92217
▁கடலில்	-9.92228
ின்றி	-9.92231
▁பாஜகவில்	-9.92243
▁சந்திப்பில்	-9.92248
லால்	-9.9226
▁புலி	-9.92346
▁திருத்த	-9.92405
▁விமர்சித்து	-9.92473
ப்படுவது	-9.92528
▁காயம்	-9.92532
▁உடல்நிலை	-9.92534
▁டன்	-9.92543
▁மண்டபத்தில்	-9.92545
▁ஏவுகணை	-9.92548
▁கவனமாக	-9.92558
▁பவுண்டரி	-9.92584
▁விழிப்புணர்வு	-9.92618
வார்	-9.92632
▁தொடர்பாளர்	-9.92639
▁இயக்கம்	-9.9267
மில்லை	-9.92728
ினர்	-9.92799
▁சீ	-9.92799
▁திசை	-9.92814
▁அத்தகைய	-9.92862
▁பாதிக்கப்பட	-9.92872
▁படிப்பு	-9.9289
▁மைதானத்தில்	-9.92894
▁சுய	-9.9291
▁விரைந்து	-9.92921
▁தொடக்கத்தில்	-9.93033
▁நினைத்த	-9.93152
ராஜா	-9.93158
▁இதேபோல்	-9.93195
▁அதிகாரிகளுக்கு	-9.93197
பிர	-9.93235
▁எழுப்பிய	-9.93257
▁அறிய	-9.93288
▁போராட	-9.93292
▁தளம்	-9.93298
▁போராட்டத்தை	-9.9332
▁தாக்கம்	-9.93323
▁புதின்	-9.93497
▁ரகசிய	-9.93511
▁வெளியேற்ற	-9.93581
▁தயாரிப்பு	-9.93593
▁இரவில்	-9.93609
▁தஞ்சாவூர்	-9.93641
ரவி	-9.9374
க்குழு	-9.93881
▁காஞ்சிபுரம்	-9.93952
▁என்னென்ன	-9.93983
▁சகோதரி	-9.94004
ஒரு	-9.94028
▁கட்டுப்பாட்டில்	-9.94036
▁அடையாள	-9.94101
▁காட்டிய	-9.94109
மர	-9.94165
▁வளர்ந்த	-9.94242
▁வீடியோவை	-9.94291
▁வாக்குகளை	-9.94294
▁சமர்ப்பிக்க	-9.94314
▁பூர்த்தி	-9.94314
ிக்	-9.94328
க்கூடும்	-9.94442
▁மாதிரியான	-9.94455
▁பிரி	-9.94532
▁அங்கிருந்த	-9.94543
▁மேலே	-9.94595
▁வந்தாலும்	-9.94633
▁நியமனம்	-9.94636
▁கோரிக்கையை	-9.94674
▁அண்டை	-9.94702
வுக்கும்	-9.94706
▁உள்	-9.94712
▁விஷயத்தில்	-9.94721
▁சிவன்	-9.9474
ன்ஸ்	-9.94796
▁அக்	-9.94866
▁தமிழகத்தின்	-9.94907
▁திட்டமிட்டு	-9.94939
▁பொ	-9.94946
▁குறைந்தது	-9.94971
▁சிஎஸ்கே	-9.95048
▁தினேஷ்	-9.95061
▁குடி	-9.95085
▁முன்னேற்ற	-9.95095
ரில்	-9.95152
▁காணி	-9.95175
▁சிதம்பரம்	-9.95222
L	-9.9528
▁அறிமுகம்	-9.95288
▁எக்ஸ்	-9.95317
▁எல்லையில்	-9.95321
▁யூ	-9.95339
▁ஷேக்	-9.95358
▁டிக்கெட்	-9.95379
▁பாரத்	-9.95395
▁அன்றைய	-9.95417
▁அப்போதைய	-9.95432
▁உரிமைகள்	-9.95434
▁ஆண்டும்	-9.95463
▁நிரந்தர	-9.95493
யாகவும்	-9.95497
▁ஆடை	-9.95499
▁பந்து	-9.95515
▁நெட்டிசன்கள்	-9.95532
▁சாய்	-9.95555
▁சூர்யா	-9.95566
▁பேட்டியில்	-9.95655
▁பதவிக்கு	-9.95684
▁போராட்ட	-9.957
▁பதிவிட்ட	-9.95714
▁உடை	-9.95725
▁செயலாளராக	-9.9573
▁உத்தரவை	-9.95738
▁அலங்காரம்	-9.95763
▁சஞ்சய்	-9.9579
▁அமர்வு	-9.95794
▁பாரதிய	-9.95847
▁சூரியன்	-9.95882
ிருப்ப	-9.95882
▁பின்பு	-9.95938
▁கஞ்சா	-9.95951
▁சுதந்திரம்	-9.95971
▁அரசாங்கத்தின்	-9.95984
00	-9.9607
▁விரும்பவில்லை	-9.96109
▁நிற்க	-9.9611
▁கட்டாயம்	-9.96137
▁கமிட்டி	-9.96156
▁முகம்	-9.96165
▁வேட்பாளர்கள்	-9.96193
▁டிகிரி	-9.96194
▁எழுப்பி	-9.96247
▁ஹா	-9.96264
▁லாபம்	-9.96271
▁ஏதும	-9.96276
▁அந்நாட்டு	-9.96304
▁ஆட்டோ	-9.96308
▁லஞ்ச	-9.96334
▁K	-9.96399
▁ஆசிரியர்கள்	-9.96413
▁தாயார்	-9.96432
▁சனிக்கிழமை	-9.96443
▁தானே	-9.96486
N	-9.96488
▁வாய்ப்பை	-9.96491
ுக்குள்	-9.96566
▁பரப்ப	-9.96596
▁ஆளுநர	-9.96603
▁பேட்டிங்	-9.96622
▁அவற்றின்	-9.96631
▁லட்சுமி	-9.96636
▁நேரடி	-9.96678
▁கிரி	-9.96703
▁H	-9.96731
▁வேதனை	-9.96744
▁குழுவில்	-9.96772
ஸில்	-9.96815
▁இருக்கிற	-9.96876
▁வழக்குப்பதிவு	-9.96908
▁தென்காசி	-9.96911
▁அனைவரையும்	-9.96915
▁கருதப்படுகிறது	-9.96943
▁கொண்டிருந்தார்	-9.96945
தானே	-9.96965
▁கருத	-9.97047
▁அதன்பின்	-9.97056
▁மட்டும்தான்	-9.97082
▁கட்டுரை	-9.97108
▁மேல	-9.97167
▁பொருளாதாரத்தை	-9.97169
டாக	-9.97188
▁இத்தனை	-9.97222
▁மன்னிப்பு	-9.97259
▁ஆய்வாளர்கள்	-9.97265
▁முடிகிறது	-9.97289
▁இந்திரா	-9.97345
▁ஜாமீன்	-9.97357
▁செல்வம்	-9.97376
▁கருதி	-9.97424
மர்	-9.97453
கொ	-9.97501
▁பேசியது	-9.97503
▁வைத்திருந்த	-9.97552
▁இதன்போது	-9.9756
▁ஆண்டுக்கு	-9.97584
▁கொல்ல	-9.97644
▁ஆங்கில	-9.97662
▁விருதுநகர்	-9.97668
▁வித்தியாசத்தில்	-9.97694
▁பணியாற்ற	-9.97758
▁பாதுகாப்பாக	-9.97788
▁சந்தையில்	-9.97905
▁பதற்றம்	-9.97947
▁உறவினர்	-9.98008
▁போக்கு	-9.98079
▁தேர்வில்	-9.98112
▁ஓட	-9.98126
40	-9.982
▁சூழ்நிலையில்	-9.98218
▁குடியிருப்பு	-9.98244
▁ஏற்றி	-9.98285
▁நடிக்க	-9.98316
▁மாறிய	-9.98409
▁ஓவர்களில்	-9.98517
டைய	-9.98564
▁ஒற்றுமை	-9.98574
▁தவிர்த்து	-9.98576
?!	-9.9858
f	-9.98683
த்துல	-9.987
▁கொண்டுள்ளது	-9.98706
▁திறந்த	-9.98741
▁உணர்வு	-9.98742
சே	-9.98781
▁நன்கு	-9.98801
▁பக்க	-9.98802
▁எதிர்க்கட்சித்	-9.98836
▁கடமை	-9.98837
ும்படி	-9.98868
▁ஒப்பந்த	-9.98913
▁மிரட்டல்	-9.9895
▁மறுத்த	-9.98952
▁திறக்க	-9.99006
▁பகுதிக்கு	-9.99057
▁மாறியது	-9.99134
▁ஆதரவை	-9.99169
▁சமேத	-9.99176
▁வெற்றிகரமாக	-9.99184
▁உத்தவ்	-9.99204
▁பதிவிட்டுள்ளார்	-9.99282
▁அமைத்த	-9.99285
▁ஊடகங்கள்	-9.99286
▁அரவிந்த்	-9.99298
▁உர	-9.99311
பால்	-9.99322
▁சந்திர	-9.99338
▁இருந்தவர்	-9.99349
▁தீர்க்க	-9.99352
▁வாழ்ந்து	-9.99371
▁விவசாயம்	-9.99409
▁ஏரி	-9.99424
▁செயலாளர்கள்	-9.99477
▁பதி	-9.99493
ித்து	-9.99557
▁ஆற்றில்	-9.99651
ியா	-9.99682
▁சீமான்	-9.99737
▁ஒட்டி	-9.99749
ாகும்	-9.99782
▁குறைவு	-9.99868
▁ஆண்டுகளுக்குப்	-9.99891
▁உள்ளாட்சித்	-9.99977
▁கட்டப்பட்ட	-9.99991
ஸா	-10.0001
▁துறையின்	-10.0001
▁வேகத்தில்	-10.0003
ப்படி	-10.0003
▁எழுந்தது	-10.0003
▁குறி	-10.0004
▁சிறுவன்	-10.0011
▁சிந்தனை	-10.0012
▁ஹோமம்	-10.0014
▁உடல	-10.002
▁ஏற்பட்டுள்ள	-10.0024
▁நாளாக	-10.0027
▁திரை	-10.0028
▁குறிப்பிடப்பட்ட	-10.0028
ணை	-10.0029
▁கேட்டார்	-10.003
▁உதாரணமாக	-10.0035
▁கண்ணாடி	-10.0037
▁பேசினோம்	-10.0037
▁ஆண்டுதோறும்	-10.0037
▁மடங்கு	-10.0037
▁இந்தியர்கள்	-10.0043
▁போகிறது	-10.0047
ஃபி	-10.005
▁சம்பவத்தில்	-10.0053
ுவதாகவும்	-10.0055
ரிடம்	-10.0055
கொண்ட	-10.0055
▁கருத்துகளை	-10.0063
▁இடி	-10.0066
▁சூ	-10.0069
▁புகைப்படம்	-10.007
▁அனுபவம்	-10.0071
▁ராசிக்காரர்கள	-10.0075
▁சங்கம்	-10.0076
வான்	-10.008
10	-10.0083
▁யு	-10.0084
▁நிவாரண	-10.009
▁விஜய	-10.0093
ச்சா	-10.0096
விலும்	-10.0104
▁வேண்டுமென	-10.0105
▁நடித்து	-10.0106
▁காசா	-10.0108
▁விடும்	-10.011
▁மிக்க	-10.0121
பால	-10.0122
▁நாடாளுமன்றத்தில	-10.0123
▁விலக்கு	-10.0124
இந்தியா	-10.0125
▁தொடங்கும்	-10.0128
▁அந்தச்	-10.0131
ம்மா	-10.0135
▁நாடாக	-10.0138
வதற்கு	-10.0139
▁E	-10.0141
ra	-10.0147
க்கொண்டே	-10.0151
▁உச்சநீதிமன்ற	-10.0151
▁நாட்டிற்கு	-10.0152
ங்களிலும்	-10.0158
as	-10.016
▁வெகு	-10.0166
▁தர்ம	-10.0171
▁செயல்படும்	-10.0171
▁கேட்டபோது	-10.0177
க்கோ	-10.0177
▁மோடியை	-10.0179
▁அங்க	-10.018
▁மாணவர்களை	-10.0182
▁படையினர்	-10.0187
▁பூமி	-10.0188
▁கைப்பற்ற	-10.0189
▁நிர்மலா	-10.0191
▁பழநி	-10.0191
▁விராட்	-10.0192
ப்பட்டிருந்தது	-10.0193
▁தம்பதி	-10.0196
.4	-10.0197
▁கேரளாவில்	-10.0199
கார்	-10.0203
▁என்னால்	-10.0208
▁கட்டத்தில்	-10.021
வழி	-10.021
▁அறிவித்தது	-10.0212
▁மன்ற	-10.0213
▁நாளுக்கு	-10.0215
▁பகுதிகளை	-10.0221
▁காரை	-10.0221
▁இறக்க	-10.0222
▁ஜோடி	-10.0224
▁தள்ளுபடி	-10.023
குமார	-10.0231
k	-10.0234
லும்	-10.0235
பூ	-10.0236
▁தக்க	-10.0241
▁பெரு	-10.0243
▁அமைப்பை	-10.0248
▁நிகழ்ச்சிகள்	-10.0249
▁சொல்கிறார்	-10.0251
▁கூறப்பட்டது	-10.0254
▁கட்டுமான	-10.0258
▁பெரும்பான்மை	-10.0265
கர	-10.0266
▁அறக்கட்டளை	-10.027
▁நாயுடு	-10.027
▁D	-10.0273
▁அரசுப்	-10.0278
▁பலமுறை	-10.0287
▁பின்னணியில்	-10.0291
▁ஒழுங்கு	-10.0302
▁நன்மை	-10.0303
▁இடத்துக்கு	-10.0303
▁அணுக	-10.0306
த்துக்காக	-10.031
▁ஷர்மா	-10.0314
▁புற்றுநோய்	-10.0315
▁கலந்துகொண்ட	-10.0315
▁லாரி	-10.0316
▁போட்டிகள்	-10.0317
▁கர்நாடகாவில்	-10.0319
க்கால	-10.0322
▁அவ	-10.0322
▁பிரதி	-10.0323
▁விலையை	-10.0327
▁ஆனது	-10.0337
▁ஒன்றும்	-10.0347
▁ராமநாதபுரம்	-10.035
▁புதுக்கோட்டை	-10.035
டுக்கு	-10.0354
▁முடித்து	-10.0362
▁தங்கி	-10.0363
▁சுரேஷ்	-10.0365
▁காய்ச்சல்	-10.0365
%	-10.0367
▁ஆரம்பத்தில்	-10.0368
ுள்ளதால்	-10.0376
""	-10.0381
▁வெளிப்படுத்த	-10.0385
▁கர்	-10.0385
ிருப்பதாகவும்	-10.0391
ாதீர்கள்	-10.0395
▁செயல்பாடு	-10.0401
▁கோவிட்	-10.0403
▁கிராம்	-10.0404
▁நாடுகளும்	-10.0413
▁பெற்றுக்	-10.0416
▁வாழ்ந்த	-10.0417
▁48	-10.0431
▁நெ	-10.0435
▁நம்மிடம்	-10.0435
▁தோ	-10.0439
▁பச்சை	-10.0442
▁பீகார்	-10.0443
படியே	-10.0444
at	-10.0449
▁முக்கியமாக	-10.045
▁வழங்கப்பட	-10.0453
▁இங்குள்ள	-10.0462
▁கிளை	-10.0469
மாய்	-10.0471
தல்	-10.0473
▁மதுரையில்	-10.0475
▁கிலோமீட்டர்	-10.0477
▁வெப்பநிலை	-10.048
ப்பில்	-10.0482
▁2016	-10.0483
▁பேசும்போது	-10.0487
▁ஆனந்த்	-10.0488
▁ரஜினி	-10.0494
▁மீனவர்கள்	-10.0495
▁வைத்துக்	-10.05
▁வாயிலாக	-10.0511
▁மேற்பட்டோர்	-10.0515
▁பாத	-10.0516
▁150	-10.0517
▁ரீதியில்	-10.0518
▁F	-10.0518
▁செய்கிறது	-10.0524
▁""	-10.0524
▁விட்டார்	-10.0524
▁நாயகம்	-10.0525
▁நிறுவனங்கள	-10.0531
▁நாட்ட	-10.0532
▁நடு	-10.0545
ங்கு	-10.0546
னில்	-10.0548
▁போராட்டக்காரர்	-10.055
▁பேட்	-10.055
▁திரிணாமுல்	-10.0552
▁உண்டாகும்	-10.0558
▁சித்திரை	-10.0562
▁விகிதம்	-10.0564
▁கார	-10.0565
▁நலன்	-10.0568
▁அங்கீகாரம்	-10.0568
▁இராணுவ	-10.0571
▁சமூகத்தை	-10.0574
▁கல்யாண	-10.0578
▁சீட்	-10.0581
▁வீச	-10.0581
▁படிக்கும்	-10.0592
▁எட்ட	-10.0599
▁நீக்கம்	-10.0607
▁செய்திருந்தனர்	-10.0607
▁விதிக்கப்பட்ட	-10.0608
▁விசா	-10.0608
it	-10.0609
த்துக்கும்	-10.061
▁பொருட்கள	-10.0613
சிங்	-10.0613
▁பகுதிகள்	-10.0617
▁மூர்த்தி	-10.0618
▁விவசாயிகளுக்கு	-10.0625
▁வென்று	-10.0627
▁வெளியுறவு	-10.0627
▁தெலங்கானா	-10.063
▁கருத்துக்களை	-10.0633
▁முழுமையான	-10.0636
▁விரும்ப	-10.0641
▁அமித்ஷா	-10.0651
▁எழுந்து	-10.0653
▁பிரச்சினைகள்	-10.0656
▁நெருங்கிய	-10.0659
▁வைரலாகி	-10.0662
▁தூரம்	-10.0665
▁போன்றவற்றை	-10.0665
▁மாதங்களாக	-10.067
▁உணர்ந்த	-10.067
▁ஐடி	-10.0676
▁பய	-10.0677
▁ஓட்டு	-10.0678
▁இருக்கிறேன்	-10.0683
▁வரவு	-10.069
▁தெரிவித்தது	-10.0698
▁கிடந்த	-10.07
▁வனத்துறை	-10.0701
ிடையே	-10.0708
▁மக்களவை	-10.0713
▁அப்ப	-10.0715
▁போதுமான	-10.0716
▁ட்வீட்	-10.0717
▁விரிவான	-10.0717
ளா	-10.0718
▁நம்முடைய	-10.0719
▁மாநகர	-10.0719
▁வரையிலான	-10.072
▁நடத்தப்பட்டு	-10.0721
▁சேவைகள்	-10.0722
▁என்றனர்	-10.0723
▁தரம்	-10.0723
▁தூங்க	-10.0725
▁கட்டண	-10.0727
V	-10.0729
▁கண்காணிப்பாளர்	-10.0733
▁வீடியோவில்	-10.074
▁குள	-10.0744
▁கூறினர்	-10.0746
▁கண்டித்து	-10.0749
▁போரை	-10.075
▁களம்	-10.0754
▁வாக்குப்பதிவு	-10.0755
▁என்னும்	-10.0756
▁ஏனைய	-10.0759
▁ஏற்று	-10.0759
▁விற்க	-10.0762
▁தன	-10.0762
▁பரவ	-10.0765
▁அவள்	-10.0771
▁இறந்து	-10.0774
ரான	-10.0775
▁வளர்ந்து	-10.0777
▁செயல்பட்ட	-10.0784
▁கோவையில்	-10.0791
am	-10.0799
▁கடவுள்	-10.0801
▁பிரதிநிதி	-10.0802
▁வழக்கமான	-10.0807
▁உட்பட்ட	-10.0807
▁கொடுமை	-10.0811
தர	-10.0819
▁ரெ	-10.0821
▁ஆணைய	-10.0823
ப்பட்டுள்ளதாக	-10.0824
▁நிகழ்வுகள்	-10.0826
்கள்	-10.0827
▁கலந்துரையாட	-10.0828
▁பசுமை	-10.0828
▁எழுப்ப	-10.0831
▁விவரங்களை	-10.0839
▁ஒன்பது	-10.0843
▁உலகளாவிய	-10.0843
▁கரூர்	-10.0843
▁வீரர்களை	-10.0846
▁மறுநாள்	-10.0847
▁லீக்	-10.0848
ாததால்	-10.085
▁பாம்பு	-10.0855
▁மேடையில்	-10.0855
ல்லா	-10.0856
▁இஸ்ரேலிய	-10.0856
▁சுற்றுச்சூழல்	-10.0862
▁பற்றியும்	-10.0863
▁கைப்பற்றி	-10.0865
▁கன்னி	-10.0867
▁மாளிகை	-10.0867
இன்	-10.087
▁சர்	-10.0873
▁லட்ச	-10.0874
▁விரிவாக	-10.0876
▁அறிவுறுத்த	-10.0876
கொடியேற்றத்துடன்	-10.0877
▁நாளான	-10.0878
▁இலை	-10.0878
▁எழுந்தருளி	-10.0883
▁ராஜீவ்	-10.0885
19	-10.0891
▁ரமேஷ்	-10.0891
▁கடினமான	-10.0892
▁தளத்தில்	-10.0894
▁குறையும்	-10.0895
▁பாதிக்கும்	-10.0895
▁இம்	-10.0897
த்துக்கான	-10.0898
▁தெ	-10.0904
ின	-10.0906
ரேஷ்ட	-10.0906
▁ஏமாற்ற	-10.0908
▁முன்னேற்றம்	-10.091
▁நீங்கும்	-10.0911
▁புகார்கள்	-10.0911
▁படங்களில்	-10.0912
▁பரவல்	-10.0913
▁தற்காலிக	-10.0915
▁பத்திரிகை	-10.0915
▁காவலர்	-10.0921
▁நியூசிலாந்து	-10.0924
▁வருடங்களாக	-10.0928
▁தொல்லை	-10.0928
▁அரசியலமைப்பு	-10.093
▁முடிவுகளை	-10.0937
▁அமர்ந்த	-10.0939
▁உரிமையாளர்	-10.0942
.....	-10.0942
▁குறித்துப்	-10.0955
நி	-10.0958
▁வாக்களிக்க	-10.0958
▁ஆபாச	-10.0958
ுவதன்	-10.0962
▁முன்னிலை	-10.0963
ஹ்	-10.0967
▁புதன்	-10.0968
▁நிறைவேற்றப்பட்ட	-10.0968
▁வது	-10.0968
▁மொபைல்	-10.0977
▁பெங்களூர்	-10.0979
▁வேளையில்	-10.0981
▁யாக	-10.0982
▁of	-10.0982
▁கொள்வது	-10.0986
▁வலியுறுத்த	-10.0987
▁வருகிற	-10.099
▁பள்ளிகளில்	-10.0993
▁எடுத்துக்கொள்ள	-10.0994
▁பணியாற்றிய	-10.0995
▁சை	-10.0997
▁அசோக்	-10.1004
▁பயங்கரவாத	-10.1012
▁காஸா	-10.1012
▁சமீபத்திய	-10.1013
▁32	-10.1014
கிரி	-10.1014
▁அகில	-10.1015
50	-10.1016
.6	-10.1019
▁மலர்	-10.102
▁சபையின்	-10.1022
▁நடத்தியது	-10.1025
0	-10.1026
யற்ற	-10.103
▁தரப்பினர்	-10.1034
ரன்	-10.1035
▁ஆப்கானிஸ்தான்	-10.1041
▁இயங்கி	-10.1051
▁வரலாம்	-10.1055
▁கொள்கிறேன்	-10.1056
▁சிசிடிவி	-10.1056
ாம	-10.1056
▁நாம	-10.1058
▁நோட்டீஸ்	-10.1066
▁வெளிநாடு	-10.108
▁அதிகாரத்தை	-10.1084
▁கருப்பு	-10.1084
ிவிட்டது	-10.1089
▁கூறியிருக்கிறார	-10.109
▁சவால்	-10.1094
▁பெண்ணின	-10.1094
▁கடலூர்	-10.1099
▁புலனாய்வு	-10.1101
▁பிரிவின்	-10.1101
▁கடிதத்தில்	-10.1102
▁விளையாடி	-10.1103
▁கணபதி	-10.1104
▁அதிகாரப்பூர்வ	-10.1113
தையடுத்து	-10.1117
▁கும்பாபிஷேக	-10.1127
▁இருவர்	-10.1131
▁36	-10.1139
▁இருக்கும்போது	-10.114
வருகின்றனர்	-10.1143
▁ஆகி	-10.1146
▁பங்களிப்பு	-10.1146
ிருப்பதால்	-10.1151
▁டா	-10.1158
▁நடவடிக்கையை	-10.1158
▁அமாவாசை	-10.1164
லாமா	-10.1166
▁சத்தம்	-10.117
▁தீர்ப்பை	-10.1171
▁பிரச்னைகளை	-10.1175
▁கடற்கரை	-10.1176
▁எரிவாயு	-10.1185
வாய்	-10.1186
▁பொதுமக்கள	-10.1186
▁படங்களை	-10.1188
▁இருப்பவர்	-10.1189
▁உற்சவம்	-10.1189
▁வருவதற்கு	-10.1193
▁தமிழில்	-10.1193
▁முட்டை	-10.1195
▁ஆராய்ச்சியாளர்	-10.1196
▁வரும்போது	-10.1199
▁போட்டியை	-10.1201
ப்பட்டதாக	-10.1201
▁பாலின	-10.1201
▁கட்சிகளும்	-10.1202
▁வெளியிடப்பட்ட	-10.1203
▁எல்லோரும்	-10.1205
▁சுட்டிக்காட்ட	-10.1208
▁போதை	-10.1209
▁கழகம்	-10.1214
▁பிரதிநிதிகள்	-10.1216
▁மாலையில்	-10.1216
ராம	-10.1221
▁முயற்சியில்	-10.1222
வைத்த	-10.1223
கன்	-10.1226
▁இதற்கிடையில்	-10.1229
▁கட்டுப்பாடு	-10.1233
▁இணைப்பு	-10.1236
▁ஓமிக்ரான்	-10.1237
யார்	-10.1237
▁தொழில்நுட்பம்	-10.1238
யினை	-10.124
▁பிரான்ஸ்	-10.1243
▁அடைந்து	-10.1244
▁மறுக்க	-10.1246
களுக்குப்	-10.1246
▁உச்சநீதிமன்றம்	-10.1248
▁வந்தன	-10.1248
w	-10.1253
▁நிறுவ	-10.1255
▁பாதையில்	-10.1257
▁ஞான	-10.1264
▁அப்பகுதி	-10.1266
▁இவர்களுக்கு	-10.1266
▁விஷயத்தை	-10.1267
ிக்க	-10.1268
▁மக்களவைத்	-10.1268
▁செய்துகொண்ட	-10.1269
மதி	-10.127
▁சுப்பிரமணிய	-10.1271
▁செய்வதற்கான	-10.1273
▁நிதிஷ்	-10.1278
▁சதி	-10.1282
▁நிலத்தை	-10.1285
▁சமாளிக்க	-10.1286
▁மக்களும்	-10.1291
▁மூளை	-10.1294
▁புறப்பட்டு	-10.1299
▁ஆடிய	-10.13
ாலே	-10.1303
ிருப்பதை	-10.1318
▁மனுவை	-10.1326
▁ஆசி	-10.1333
னியா	-10.1337
▁கூறியுள்ளனர்	-10.1338
▁பயன்படுத்தும்	-10.1339
▁தமிழர்கள்	-10.1343
வருக்கு	-10.1343
▁சட்டவிரோத	-10.1345
ம்பு	-10.1348
திரு	-10.1356
▁பாதுகாப்புப்	-10.1357
▁முக்கியமானது	-10.1358
▁அவ்வாறு	-10.1361
▁நகரம்	-10.1363
▁பிறகும்	-10.1366
▁இருப்பார்	-10.1373
▁வார்டு	-10.138
▁மெல்ல	-10.1387
▁ரே	-10.1388
▁முறையை	-10.1388
ொரு	-10.1398
கொண்டு	-10.1401
▁வைத்தது	-10.1406
▁அக்கறை	-10.1406
▁லேசான	-10.1407
வைச்	-10.1407
▁தேர்ச்சி	-10.1409
▁முதன்மை	-10.1409
▁அன்பு	-10.141
▁டூ	-10.1411
▁உள்ளதாகவும்	-10.1414
▁சர்ச்சையை	-10.1414
▁இப்போ	-10.1422
▁பிரசாத்	-10.1422
▁தினகரன்	-10.1433
▁லட்சத்து	-10.1434
▁காசி	-10.1438
க்கல்	-10.1442
▁பராமரிப்பு	-10.1445
▁அழைத்த	-10.1448
▁பட்டம்	-10.1449
▁இதன்மூலம்	-10.1451
▁நிகழ்ந்த	-10.1452
▁ஏற்படுகிறது	-10.1454
▁ஸார்	-10.1455
▁படைகள்	-10.1458
ிறேன்	-10.1459
▁சந்தேக	-10.1462
▁என்பதைப்	-10.1466
கல்	-10.147
▁உதவியுடன்	-10.1476
▁கோப	-10.1478
▁அறையில்	-10.1481
▁ஜெய்	-10.1487
▁லாப	-10.1488
▁ஹி	-10.1492
▁அங்கீகரிக்க	-10.1495
▁கண்காணிக்க	-10.1495
▁முழங்க	-10.1495
▁அம்மாநில	-10.1496
▁செய்வதற்காக	-10.1496
▁சான்றிதழ்	-10.1496
▁இதுபற்றி	-10.1498
▁குல	-10.15
▁கண்ணீர்	-10.1503
▁மீம்ஸ்	-10.1511
ினாலும்	-10.152
▁ஜான்	-10.1522
▁விவாதம்	-10.1525
▁ஆரம்பிக்க	-10.1534
▁மறுபுறம்	-10.154
▁முன்னுரிமை	-10.154
▁வேண்டுமானாலும்	-10.154
▁கைவிட	-10.1547
▁கேள்விகள்	-10.1549
▁பழமையான	-10.155
▁சுகாதாரத்துறை	-10.156
▁மாறும்	-10.1561
▁வழிபட	-10.1563
▁பசி	-10.1565
▁பெற்றுக்கொள்ள	-10.1572
சார்	-10.1573
▁காட்டு	-10.1575
▁அழகு	-10.1579
▁மக	-10.1582
▁விளைவாக	-10.1586
es	-10.1588
▁காரைக்கால்	-10.1595
▁கரை	-10.1596
`	-10.1597
▁உங்க	-10.1598
போன	-10.1599
K	-10.1603
▁கடனை	-10.1608
▁ராய்	-10.1611
▁செலுத்திய	-10.1613
▁குழுக்கள்	-10.1614
▁ஹரி	-10.1616
▁திறமை	-10.1623
▁ஊர்வலம்	-10.1631
▁கோவில்களில்	-10.1637
▁கட்டிய	-10.1639
U	-10.1647
ித்த	-10.1649
▁நிறுவனமான	-10.1649
▁வருவதை	-10.165
▁முறையான	-10.1655
▁பாகிஸ்தானில்	-10.1658
ுகிற	-10.1661
மின்றி	-10.1663
▁இருப்பார்கள்	-10.1664
▁சொல்கிறார்கள்	-10.1665
▁பாதிப்புகள்	-10.1666
சல்	-10.1669
ஏக்நாத்	-10.1679
▁இரும்பு	-10.1688
ாதது	-10.1688
▁போதைப்பொருள்	-10.1689
▁அதற்குப்	-10.1691
▁முறையும்	-10.1694
18	-10.1695
ிங்	-10.1697
▁இல்லாததால்	-10.1699
ரியா	-10.17
▁மை	-10.1708
▁ஈரான்	-10.1711
▁ஆட்டத்தை	-10.1711
▁நடத்தினார்	-10.1712
மாகும்	-10.1716
▁அவரும்	-10.1721
ன்னா	-10.1721
▁பிரிந்து	-10.1722
▁பதிவிட்டு	-10.1722
▁News	-10.1722
வேண்டிய	-10.1726
▁ஹிந்து	-10.1728
ங்களுடன்	-10.1733
▁வாய்ப்புள்ளது	-10.1733
ுவதே	-10.1735
▁பிடிக்கும்	-10.1739
▁மும்பையில்	-10.1742
▁மூ	-10.1742
▁உறுப்பினராக	-10.1743
த்திர	-10.1745
▁400	-10.1752
▁பழங்குடி	-10.1753
▁கமல்	-10.1757
▁போராட்டங்கள்	-10.1757
ிடமிருந்து	-10.1762
▁சீரியல்	-10.1765
▁மாற்றத்தை	-10.1765
▁சிவகங்கை	-10.1769
▁ஊரடங்கு	-10.1769
▁எந்தப்	-10.1769
▁வெள்ளம்	-10.1771
▁கொன்ற	-10.1772
▁வழக்க	-10.1772
▁ஆகியோரை	-10.1776
▁ரீதியான	-10.1777
▁அணிகள்	-10.1778
மின்	-10.1778
▁முயற்சிகளை	-10.1778
▁உதவிகளை	-10.1782
▁சென்றுள்ளார்	-10.1788
▁விதமான	-10.1792
▁உணவை	-10.1801
▁கலாசார	-10.1802
▁போனது	-10.1808
▁அளித்துள்ளார்	-10.1809
▁பாதிக்க	-10.1814
▁ஜடேஜா	-10.1815
▁சுரங்க	-10.1817
▁ராமதாஸ்	-10.1822
▁கட்டுப்பாட்டு	-10.1822
னான்	-10.1825
▁பிரபலமான	-10.1827
▁அழுத்த	-10.1828
▁டே	-10.1829
▁விமானத்தில்	-10.1834
▁உள்ளதால்	-10.1836
▁குட்டி	-10.1837
le	-10.1837
▁குழந்தைக்கு	-10.1855
▁பரபர	-10.1856
▁ஏற்றுக்	-10.1859
▁நிலவுகிறது	-10.1862
▁நெய்	-10.1864
▁தோல்வியை	-10.1866
▁காட்டுகிறது	-10.1868
▁போட்டோ	-10.1869
▁வந்தபோது	-10.1869
▁வெப்ப	-10.1873
▁அபராதம்	-10.1877
▁கார்த்திக்	-10.1877
டம்	-10.1882
▁காக்க	-10.1891
▁கொடுத்தது	-10.1891
களிடையே	-10.1898
▁இடங்களுக்கு	-10.1902
▁ஹைதராபாத்	-10.1906
▁தலையில்	-10.1908
▁ரிசர்வ்	-10.1908
▁மேலாண்மை	-10.1908
▁இழுத்து	-10.1912
▁அவற்றில்	-10.1917
யல்	-10.192
▁நம்பிக்கையை	-10.1924
▁தாக்கிய	-10.1928
▁பன்னீர்	-10.1929
▁இயக்குனர்	-10.193
▁பள்ளிகள்	-10.193
கிறார்	-10.1931
த்தினால்	-10.1932
▁அத்தனை	-10.1936
▁செலுத்தும்	-10.1937
▁வைக்கப்பட்டது	-10.1939
▁கும்ப	-10.1952
▁நவ	-10.1953
▁வெளியேறி	-10.1954
▁ஒப்படைக்க	-10.1955
▁பொன்	-10.1957
▁அறிவுரை	-10.1958
▁அமைந்தது	-10.1959
▁பழக்க	-10.1964
ப்படுத்தி	-10.1964
▁மாட்டோம்	-10.1965
▁கட்டமாக	-10.1968
▁குறைய	-10.1969
▁துவங்கி	-10.1969
▁ஜன	-10.1974
▁அப்போதுதான்	-10.1977
ார	-10.1977
▁அவர்களில்	-10.1977
▁நுழைந்த	-10.1979
▁ஆவணங்கள்	-10.1981
தைத்	-10.1981
▁விடுவிக்க	-10.1984
▁ஆராய	-10.1985
கார	-10.1988
▁களமிறங்கிய	-10.1988
▁புகை	-10.1996
▁பெய்து	-10.2
▁டிடிவி	-10.2002
னிடம்	-10.2003
▁அக்னி	-10.2003
▁அளவை	-10.201
▁செய்வதாக	-10.2013
▁ஆபத்தான	-10.2017
▁ஆலோசகர்	-10.2018
▁நோக்க	-10.2019
▁அறிவு	-10.2025
விட்டால்	-10.2033
▁அவன	-10.2033
▁விருப்பம்	-10.2035
▁செய்ததாக	-10.2038
வாறு	-10.204
▁திறப்பு	-10.2042
▁சிவா	-10.2044
▁உன்	-10.2048
▁உத்தரவிட்டுள்ள	-10.2049
▁தமிழிசை	-10.205
▁the	-10.2054
▁பயணி	-10.2058
▁நபர	-10.2059
▁உரை	-10.2061
தைப்	-10.2061
▁யா	-10.2061
▁அதைச்	-10.2061
▁கடத்தல்	-10.2071
▁காரணங்கள்	-10.2074
▁என்கிறது	-10.2074
▁வீழ்த்தி	-10.2077
▁சேர்க்கை	-10.2078
▁மான்	-10.2078
▁உடன	-10.208
▁கட்டுப்பாடுகள்	-10.2081
▁செயல்பாடுகள்	-10.2084
▁குழுவை	-10.2084
▁நன்மைகள்	-10.2084
▁தேசியக்	-10.2087
▁வண்டி	-10.2089
▁நிறுவனத்தை	-10.2092
▁உடைத்து	-10.2093
▁அப்துல்	-10.2094
▁இவரை	-10.2094
▁ஊர்வலமாக	-10.2097
▁என்னவென்றால்	-10.2097
▁குறுகிய	-10.2097
▁பிளாஸ்டிக்	-10.2097
▁ரெண்டு	-10.21
▁ரெய்டு	-10.2103
▁கோடை	-10.2104
முள்ள	-10.2105
▁தேதியன்று	-10.2106
▁தலைவரான	-10.2106
▁அமர	-10.2107
▁விரைவாக	-10.2107
▁அன்னதானம்	-10.2113
▁மாட்டேன்	-10.2113
▁திருமாவளவன்	-10.2115
▁பிறந்தநாள்	-10.2116
▁உறவை	-10.2121
▁உத்தரவிட்டார்	-10.2121
▁எதிர்கொண்ட	-10.2122
ுங்க	-10.2122
▁வெளிவந்த	-10.2122
▁மண	-10.213
▁அதுதான்	-10.2131
▁தெரிவித்துள்ள	-10.2137
▁கோவா	-10.2142
▁முன்கூட்டிய	-10.2145
▁ராமேஸ்வரம்	-10.2145
▁முதலே	-10.2149
▁வகித்த	-10.2167
▁பெண்ண	-10.2169
25	-10.2172
▁சிகிச்சைக்காக	-10.2173
▁பள்ளிக்கு	-10.2173
▁தமிழ்நாட்டை	-10.2179
▁சமீப	-10.2182
▁சாப்பிட்ட	-10.2183
கிட்ட	-10.2189
▁வீ	-10.2192
▁இன்றைக்கு	-10.2193
▁என்பதற்கு	-10.2194
▁பணியாளர்	-10.2194
▁தாத்தா	-10.2195
▁யாரை	-10.2197
▁எங்களிடம்	-10.2198
▁அகிலேஷ்	-10.2199
▁மகாராஷ்டிராவில்	-10.2202
▁உயர்ந்துள்ளது	-10.2204
▁விரதம்	-10.2207
▁சுக்கிரன்	-10.2208
▁அழ	-10.2209
னாக	-10.2212
▁அதிரடியாக	-10.2214
▁உக்ரைனில	-10.2216
▁ஆதிக்கம்	-10.2221
▁நோக்கில்	-10.2222
▁ஒழிப்பு	-10.2227
▁பிரசார	-10.2228
▁நூற்றாண்டு	-10.2232
▁நபி	-10.2237
▁ஆதித்யநாத்	-10.2238
▁சமர்ப்பித்த	-10.2241
▁நாமக்கல்	-10.2242
▁வருடங்களுக்கு	-10.2247
▁நிதியமைச்சர்	-10.2248
▁ஒற்றைத்	-10.2252
▁கோபம்	-10.2256
▁மையத்தில்	-10.2256
▁குறைத்து	-10.2256
ur	-10.2257
மான்	-10.2261
▁விழ	-10.2268
த்திய	-10.2273
.3	-10.2274
▁கட்சிகளின்	-10.2274
▁வாங்கும்	-10.2278
ணம்	-10.2288
▁பொருத்த	-10.2289
கான்	-10.2289
▁படிப்படியாக	-10.229
▁s	-10.2293
▁தெரிவித்திருந்த	-10.2293
▁நாட்டுக்கு	-10.2295
▁கொள்முதல்	-10.2298
▁to	-10.2299
▁சிறுவர்	-10.2301
▁வழக்கின்	-10.2303
ுடனான	-10.2304
▁பார்த்துக்	-10.2305
▁கூட்டத்தை	-10.2305
▁தள	-10.2309
▁அப்பகுதியில்	-10.231
▁தோற்ற	-10.2311
▁அவுட்	-10.2311
▁பாதுகாப்பான	-10.2312
▁பந்துவீச்சாளர்	-10.2312
▁தெலுங்கானா	-10.2322
▁கூடி	-10.2323
▁வட்ட	-10.2327
ாவிட்டால்	-10.2329
▁செய்கிறார்கள்	-10.233
▁தீர்மானிக்க	-10.2334
▁எவ்வித	-10.2339
▁மேம்பாட்டு	-10.234
போதே	-10.2342
▁மீன்பிடி	-10.2343
▁செய்யப்படுகிறது	-10.2343
▁அழைக்கப்படும்	-10.2345
ினேன்	-10.235
▁2-	-10.235
▁குழந்தையின்	-10.2351
▁சாந்தி	-10.2352
மாகவும்	-10.2353
▁தேரோட்டம்	-10.2358
▁ரசிகர்	-10.2359
▁கையாள	-10.236
பெரும்	-10.2362
▁மாவட்டச்	-10.2363
▁எதிர்பாராத	-10.2364
▁பெற்றோர்கள்	-10.2365
▁பாட்டி	-10.237
வையும்	-10.2374
▁சிக்க	-10.2375
▁குண	-10.2375
ாவின்	-10.2379
யினால்	-10.2381
▁இறங்க	-10.2383
▁இழப்பீடு	-10.2388
▁அன்புமணி	-10.2389
▁வழிபட்டனர்	-10.2391
வைத்து	-10.2391
▁குறைபாடு	-10.2391
▁தொழிற்சாலை	-10.2393
st	-10.2395
▁சுவாமிகள்	-10.2395
▁தொடங்கினர்	-10.2398
▁பழக்கம்	-10.2399
▁கூறுவது	-10.2402
ுக்குப்	-10.2402
▁பொதுவான	-10.2403
ுக்கே	-10.2404
▁புகழ்	-10.2405
▁மூடி	-10.2405
▁ரீ	-10.2406
▁சரத்	-10.2408
▁லெ	-10.2412
ுள்ளேன்	-10.2414
▁விமானங்கள்	-10.242
▁இருக்கிறதா	-10.2421
▁மேற்கத்த	-10.2427
▁நெருக்கமான	-10.243
▁கேட்டுக்கொண்ட	-10.2432
ாராம்	-10.2434
▁வழங்குவது	-10.2436
▁எக்ஸ்பிரஸ்	-10.2437
▁‛	-10.2438
▁கிடைத்துள்ளது	-10.2438
ட்டர்	-10.244
▁பரீட்சை	-10.2441
▁இதைப்	-10.2442
▁நிலநடுக்கம்	-10.2445
▁செயலக	-10.245
▁2015	-10.2452
▁போதிய	-10.2457
▁காத்த	-10.246
▁விலையில்	-10.246
▁சீனாவில்	-10.2462
தேவி	-10.247
▁இருப்பவர்கள்	-10.2473
▁சுட்டிக்காட்டின	-10.2475
▁தந்து	-10.2475
▁கொஞ்ச	-10.248
▁வளர்க்க	-10.248
▁துறைகளில்	-10.2487
▁தாமரை	-10.2489
▁கலாநிதி	-10.249
▁பரிந்துரைக்க	-10.2493
▁வகையிலும்	-10.2493
▁வித	-10.2496
நகர்	-10.2498
▁கலந்துகொண்டு	-10.2501
▁பணிக்கு	-10.2508
▁ஆவணங்களை	-10.2513
▁அச்சம்	-10.2519
▁பகிர்ந்த	-10.2529
▁உணவுகளை	-10.2529
கின்றன	-10.2532
▁பாராட்டு	-10.2534
▁இலக்கை	-10.2535
▁I	-10.2536
▁மட்டக்களப்பு	-10.2536
▁இம்முறை	-10.2537
▁விடுதி	-10.2541
▁சங்கத்தின	-10.2545
▁பாதுகாப்பை	-10.2548
▁ஆயுள்	-10.255
▁அமைதியாக	-10.255
14	-10.2554
▁சமையல்	-10.2559
▁கோட்ட	-10.2565
▁இயக்கத்தில்	-10.2569
▁ராவ்	-10.2569
▁வயதுக்கு	-10.257
▁தெரு	-10.2572
▁உருவ	-10.2573
▁லீ	-10.2575
24	-10.2582
▁செங்கல்பட்டு	-10.2587
தம்	-10.2588
▁41	-10.2589
▁ஸ்தானத்தில	-10.259
▁பிரதிநிதித்துவ	-10.259
▁போட்டியிடும்	-10.2593
23	-10.2595
▁பூங்கா	-10.2597
▁பங்குனி	-10.2599
?"	-10.2605
en	-10.2606
▁ஆற்றல்	-10.2607
▁ஆடு	-10.2607
▁அறிவிப்ப	-10.2607
ீர்	-10.261
▁நிறுவனங்களுக்கு	-10.2613
ந்தர்	-10.2616
▁திரும்பப்	-10.2619
▁ஆரம்பித்து	-10.2622
▁வழக்குப்	-10.2622
▁உயிரிழப்பு	-10.2622
▁மீட்கப்பட்ட	-10.2626
▁வாரிய	-10.2627
▁வழங்கியுள்ளது	-10.2629
▁கண்டிப்பாக	-10.2642
▁ஆயுதங்களை	-10.2642
▁இதன்படி	-10.2652
வல	-10.2652
▁சூடு	-10.2653
▁வாடகை	-10.2653
▁துறைமுக	-10.2655
விட்டேன்	-10.2659
▁பயணிக்க	-10.266
▁வைர	-10.266
▁சுற்றியுள்ள	-10.2661
▁உறவுகளை	-10.2662
வர்களில்	-10.2664
▁படகு	-10.2667
லாக	-10.2669
▁அழிக்க	-10.267
▁பேரூராட்சி	-10.2671
▁டை	-10.2673
▁விடுக்க	-10.2676
▁அச்ச	-10.2677
ப்பட்டி	-10.2678
▁சக்கர	-10.2679
க்கார	-10.2679
▁சங்கர்	-10.2682
▁R	-10.2682
▁பெட்டி	-10.2682
▁ஒடிசா	-10.2683
▁கொள்கையை	-10.2683
▁சிலைகள்	-10.2684
▁அரசியலை	-10.2685
▁வங்கிக்	-10.2685
▁வெற்றிக்கு	-10.2687
▁உயிரிழந்தார்	-10.2687
▁அதேசமயம்	-10.2687
▁ஈபிஎஸ்	-10.2687
▁டெல்டா	-10.2688
▁நிச்சயமாக	-10.2689
▁ஏர்	-10.2689
▁வாரிசு	-10.2692
▁சிவப்பு	-10.2693
▁2000	-10.2693
▁கார்டு	-10.2696
▁அதிகபட்சமாக	-10.2698
▁பலாத்காரம்	-10.2703
▁நாடுகளுக்கும்	-10.2707
▁சொன்னது	-10.2709
யினர்	-10.2713
வைப்	-10.2714
▁காயமடைந்த	-10.2715
▁நிறுவனங்களில்	-10.2715
▁இணைக்க	-10.2719
▁ஓம்	-10.272
ஸ்ரீ	-10.272
▁அயோத்தி	-10.2723
ad	-10.2726
▁மகிழ்ச்சியாக	-10.2733
▁துணி	-10.2735
நாத	-10.2737
▁உருவாக்கும்	-10.2737
▁பட்டாசு	-10.2739
▁வியாழக்கிழமை	-10.274
▁அதைக்	-10.274
▁சம்பவத்தை	-10.2742
▁பாலஸ்தீன	-10.2744
▁அஞ்சலி	-10.2747
▁அறிவித்து	-10.2748
டும்	-10.2749
பெ	-10.2752
▁குஜராத்தில்	-10.2756
▁கெஜ்ரிவால்	-10.2759
▁தேசியவாத	-10.2762
▁செய்யவும்	-10.2772
▁வாக்குறுதி	-10.2773
▁உத்தரவிட்டது	-10.2774
▁உப்பு	-10.2775
▁கூறுகிறார்கள்	-10.2779
▁திருக்கல்யாண	-10.2782
▁வைத்திருக்க	-10.2784
▁33	-10.2786
▁ஏற	-10.2786
▁கட்டட	-10.2789
▁அவரால்	-10.2792
▁அமைப்ப	-10.2792
▁கோபுர	-10.2793
▁சென்றபோது	-10.2795
ையில்	-10.2804
▁போஸ்டர்	-10.2804
▁பரவலாக	-10.2804
ங்கை	-10.2807
▁கொண்டாடி	-10.281
எஃப்	-10.2811
▁வெயில்	-10.2813
▁நிகழ்ச்சியை	-10.2815
ியுள்ளார்	-10.2815
▁வென்றது	-10.2821
re	-10.2822
▁கிருஷ்ண	-10.2833
▁தூதரக	-10.2836
தன	-10.2839
▁ஹசீனா	-10.284
▁நடுத்தர	-10.2841
▁லிட்டர்	-10.2841
▁பந்தை	-10.2841
▁புண்ணிய	-10.2842
ஜே	-10.2843
▁செலவில்	-10.2845
▁என்கின்றனர்	-10.2846
▁சொல்லிய	-10.2852
▁பேரணி	-10.2855
▁இருவர	-10.2858
▁சிங்கப்பூர்	-10.2862
▁வேலையில்	-10.287
பீ	-10.2871
▁உயர்நீதிமன்றம்	-10.2871
▁மருந்துகள்	-10.2875
▁வழங்கியது	-10.2876
▁பேசுவது	-10.2878
க்குத்	-10.2884
▁தை	-10.2885
▁செய்யாமல்	-10.2885
▁அமைச்சரவையில்	-10.2887
▁நவீன்	-10.2888
▁புதுப்பிக்க	-10.2892
▁கப்பல	-10.2895
▁வெளியிட்டது	-10.2895
▁சீதாராமன்	-10.2902
▁கூறப்படும்	-10.2905
ிருந்தன	-10.2906
▁மனிதர்கள்	-10.2907
▁பட்சத்தில்	-10.2907
▁ஹோட்டல்	-10.2907
16	-10.2911
▁சமூகத்தில்	-10.2912
▁தள்ள	-10.2914
▁இப்படிப்பட்ட	-10.2914
▁பயணித்த	-10.2918
▁தானம்	-10.2921
▁தலைநகர	-10.2923
▁ஜெர்மனி	-10.2927
▁கந்த	-10.2927
▁தலைமுறை	-10.2929
▁வரிசை	-10.2929
▁கீ	-10.2934
▁ஆனந்த	-10.2938
▁பழனி	-10.2938
▁3-	-10.294
க்கரை	-10.2941
▁நினைக்கிறேன்	-10.2945
▁யோசனை	-10.2946
▁தெரியவந்துள்ளது	-10.295
▁சட்டசபையில்	-10.2952
▁இருப்ப	-10.2956
▁கோரிய	-10.2957
▁ஊரில்	-10.2957
▁மகேஷ்	-10.2959
▁ஆயுத	-10.2959
▁நாடுகளை	-10.2963
▁மீனாட்சி	-10.2967
▁எதிரி	-10.2969
ன்று	-10.2976
▁55	-10.2978
▁ஆலய	-10.299
▁நியூ	-10.2992
▁கட்டளை	-10.2995
▁தீயணைப்பு	-10.2996
▁மதிப்பிலான	-10.2996
▁எளிய	-10.2996
▁ஓரிரு	-10.2996
▁பேரிடர்	-10.2997
ால	-10.2999
▁10-	-10.2999
▁சார	-10.3
▁பிறப்பித்த	-10.3001
▁தொழிலில்	-10.3005
▁தெரிவிக்கிறார்	-10.3008
▁தலைவர்களும்	-10.3008
▁காலத்திற்கு	-10.3009
▁எழுத்தாளர்	-10.3011
தீ	-10.3014
▁கேள்விகளை	-10.3029
▁பணிகளில்	-10.3032
மிக்க	-10.3033
லம்	-10.3034
▁பலருக்கும்	-10.304
▁புகழ்பெற்ற	-10.3049
▁மன்னர்	-10.305
▁சாதகமான	-10.3052
▁வலியுறுத்தினார்	-10.3054
▁சம்பள	-10.3056
▁பக்தி	-10.3059
▁இருதரப்பு	-10.3059
▁பொதுக்குழுவில்	-10.3067
▁எழுதியுள்ளார்	-10.307
▁விதித்த	-10.3074
▁எம்எல்ஏக்கள்	-10.3083
▁கவுன்சிலர்	-10.3084
▁கருத்துகள்	-10.3086
▁வேட்டை	-10.3088
▁2019-	-10.3098
▁முதலாவது	-10.3101
▁நேட்டோ	-10.3101
ந்தா	-10.3104
▁எதிர்கொள்ளும்	-10.3106
யாய்	-10.3109
▁உள்ளிட்டவை	-10.3111
▁புத்தக	-10.3112
▁நிற்கும்	-10.3114
▁ஆள்	-10.3117
▁துறையினர்	-10.3123
▁பிரா	-10.3124
▁மாநிலத்	-10.3127
▁தனித்து	-10.3131
▁தயாராகி	-10.3134
▁தீபாவளி	-10.3138
▁உறுப்பு	-10.3141
ற்ப	-10.3141
▁கிரக	-10.3141
▁மேலதிக	-10.3145
▁விளையாடிய	-10.3145
▁பசு	-10.3148
▁கவனத்தை	-10.3151
▁தலித்	-10.3153
▁ஒலிம்பியாட்	-10.3153
▁நூற்றுக்கணக்கான	-10.3153
▁ஹர்திக்	-10.3153
▁முறைப்படி	-10.3161
▁இருவரையும்	-10.3161
▁செய்தியை	-10.3161
▁அதையடுத்து	-10.3162
▁கூடவே	-10.3162
▁சட்டப்படி	-10.3164
▁பிரித்து	-10.317
மன	-10.3172
▁அதிகாரிகளை	-10.3176
▁அறிகுறிகள்	-10.3176
▁சட்டத்தில்	-10.3177
தார	-10.3177
▁பொறுத்து	-10.3182
▁காப்பு	-10.3183
▁துருக்கி	-10.319
கல	-10.3191
▁விவகார	-10.3193
▁உருவான	-10.3196
த்தர	-10.3198
டின்	-10.3202
▁லக்னோ	-10.3204
▁செய்திருந்தார்	-10.3205
▁நீதிமன்றத்தின்	-10.3205
▁நிலைப்பாடு	-10.3208
▁ஆவது	-10.3209
▁வெளியுறவுத்துறை	-10.3209
▁வெளியிட்டார்	-10.321
▁கல	-10.321
▁Vikatan	-10.3211
▁இதர	-10.3211
நாதன்	-10.3212
▁அவங்க	-10.3215
▁இரண்ட	-10.3219
▁புற	-10.3222
▁கிராமத்தைச்	-10.3225
0,000	-10.3226
▁தக்காளி	-10.3226
ic	-10.3231
▁விவாதிக்க	-10.3232
ற்கு	-10.3232
▁பாஜகவினர்	-10.3233
▁வசதிகளை	-10.3233
▁பவார்	-10.3234
வரி	-10.3235
▁விஞ்ஞானிகள்	-10.3236
சில்	-10.3237
▁உத்தரவிட	-10.3238
▁விஞ்ஞானி	-10.3238
▁உற்சவ	-10.3244
▁மறந்து	-10.3246
▁முயன்று	-10.3247
▁சமுதாய	-10.3249
▁நெடுஞ்சாலை	-10.3252
நீ	-10.3254
▁நீரை	-10.326
▁திருவள்ளூர்	-10.3261
▁போட்டியிட்டு	-10.3261
▁மாடி	-10.3261
பாய்	-10.3262
▁பிறப்பிக்க	-10.3262
யன்று	-10.3263
▁ஆய்வில்	-10.3263
▁கேட்ப	-10.3268
▁வை	-10.3269
▁மறக்க	-10.3271
▁பிடி	-10.3271
▁நிலைப்பாட்டை	-10.3271
களிடமிருந்து	-10.3277
▁மண்டபம்	-10.3279
▁வேண்டியிருந்தது	-10.3281
▁கண்ண	-10.3284
▁தலையிட	-10.3284
▁பயன்படுத்திய	-10.3284
▁அடைக்கப்பட்ட	-10.3289
ங்களாக	-10.3293
▁மறுப்பு	-10.3303
▁பல்	-10.3306
ஆக	-10.3307
ஞ்சி	-10.3308
லீ	-10.3309
▁விரும்புகிறேன்	-10.3315
▁சூழலை	-10.3316
▁நேரத்தை	-10.3317
▁சித்ரா	-10.3317
▁உயிரை	-10.3318
▁சங்கர	-10.3321
▁அறிவிப்பை	-10.3324
▁கடத்த	-10.3324
▁மனோஜ்	-10.3325
▁கமலா	-10.3325
ுவதற்கும்	-10.3334
▁எனச்	-10.3342
▁எதிர்ப்பை	-10.3344
▁மட	-10.3353
ாவில்	-10.3359
▁சகல	-10.3359
▁கம்ப	-10.336
▁மருத்துவம்	-10.336
▁குற்றவாளிகள்	-10.3362
▁ஊ	-10.3362
▁எண்ணிக்கையில்	-10.3365
▁கவனித்து	-10.3367
▁சமாஜ்வாதி	-10.3368
டல்	-10.3371
▁பழனிவேல்	-10.3372
▁பொறியியல்	-10.3372
▁இருவருக்கும	-10.3373
:30	-10.3374
▁திட்டமிட	-10.3375
▁பாய்	-10.3378
▁நகரங்களில்	-10.3379
▁என்பதைக்	-10.3379
▁வெளியேறிய	-10.3379
▁கமிஷனர்	-10.3382
▁பாராட்டி	-10.3387
▁உலகக்கோப்பை	-10.3387
▁ஹை	-10.3399
▁பொறுப்பை	-10.3406
▁மஸ்க்	-10.3408
▁பனி	-10.3411
▁செய்தியாளர்கள்	-10.3415
▁37	-10.3421
▁நிலக்கரி	-10.3422
▁நான்காவது	-10.3422
▁ஒன்றரை	-10.3423
▁வேண்டுமா	-10.3428
▁விருந்து	-10.3434
▁ஒன்	-10.3436
▁பாடி	-10.3438
ளித்த	-10.3445
ாவது	-10.3446
▁தேவ	-10.3448
க்கர்	-10.3449
▁பண்ணை	-10.3451
▁ஊருக்கு	-10.3451
▁முறைகேடு	-10.3452
ch	-10.3457
▁அடுத்தடுத்த	-10.3457
▁கார்த்தி	-10.3459
க்கொண்டிருந்த	-10.3463
▁நிம்மதி	-10.3464
▁புலிகள்	-10.3467
▁பெர்	-10.3467
▁சேரும்	-10.3467
▁தூதுவர்	-10.3468
▁இளையராஜா	-10.3471
▁மாற்றுத்திறனாளி	-10.3477
▁நிறுவனர்	-10.3479
▁மோடிக்கு	-10.3481
▁எடுத்தார்	-10.3482
பல	-10.3483
▁பதிவில்	-10.3483
▁உளவு	-10.3484
▁அத்தியாவசிய	-10.3485
▁எந்தத்	-10.349
வேல்	-10.3491
▁சச்சின்	-10.3492
▁சீனிவாசன்	-10.3495
▁முன்வைத்து	-10.3496
▁வலுப்படுத்த	-10.3496
▁தாம்	-10.3497
30	-10.3497
▁கதையை	-10.3498
▁உத்தரப்	-10.3499
▁அறிவித்துள்ளார்	-10.3499
▁கெட்ட	-10.35
▁நபரை	-10.3503
▁பார்க்கும்போது	-10.3504
▁கடைகள்	-10.3505
▁வாக்காளர்	-10.3507
▁ஆல்	-10.3522
▁வாழ்வ	-10.3522
▁ஆவண	-10.353
▁விஷ்ணு	-10.3534
▁பகல்	-10.3535
▁44	-10.3536
▁வந்துள்ளனர்	-10.3543
▁தியாகராஜன்	-10.3547
தான	-10.3547
▁சிறுநீரக	-10.3547
th	-10.3548
னாலும்	-10.3556
▁நாளும்	-10.3558
யாளர்	-10.356
▁குறிப்பிட்டுள்ள	-10.3564
▁கால்நடை	-10.3569
ப்படுகின்றது	-10.357
வருமான	-10.357
▁இருந்ததாக	-10.3571
▁நாள்கள்	-10.3571
▁மிரட்டி	-10.3572
த்திலுள்ள	-10.3572
▁நிறைவேற்றி	-10.3573
▁சன்னதி	-10.3573
▁வரவேற்க	-10.3579
▁ஆதீனம்	-10.358
▁மேற்கொண்டார்	-10.3583
▁பராமரிக்க	-10.3587
▁கனிமொழி	-10.3587
▁மெட்ரோ	-10.3588
▁மகனை	-10.359
▁சமூகம்	-10.3593
▁மறுசீரமைப்பு	-10.3598
▁செய்துவிட்டு	-10.36
சல	-10.3604
▁விடுத்துள்ளார்	-10.3604
ங்களுக்கான	-10.3605
யாராவது	-10.3606
▁கடினமாக	-10.3607
▁கைதுசெய்யப்பட்ட	-10.3612
▁நிறுவனங்களை	-10.3612
▁பலம்	-10.3612
யொரு	-10.3614
▁விகடன்	-10.3614
▁இவற்றை	-10.3616
▁மேடை	-10.3617
▁தெரியவந்த	-10.3619
▁ஜாதி	-10.3621
▁கிளம்பி	-10.3621
▁எளிதில	-10.3623
▁L	-10.3625
▁சதம்	-10.3627
▁இஸ்ரேலுக்கு	-10.3628
ேஷ்	-10.3632
▁அரசால்	-10.3634
▁தலைவர	-10.3636
▁காத்திருந்த	-10.3637
▁108	-10.3638
▁படுத்த	-10.3639
ட்டோ	-10.364
▁இடஒதுக்கீடு	-10.3643
▁வாக்குவாதம்	-10.3643
▁ஒலி	-10.3643
▁அதிகரிப்பு	-10.3644
▁ரக	-10.3644
▁தமிழ்நாட்டு	-10.3647
▁அகமது	-10.3648
▁பட்டு	-10.3653
▁புரட்சி	-10.3654
▁அரசிடம்	-10.366
▁விவரங்கள்	-10.3662
▁சுத்தம்	-10.3662
.50	-10.3664
▁அருண்	-10.367
▁34	-10.3671
▁வைத்துள்ளார்	-10.3675
▁தோட்ட	-10.3678
ப்பர்	-10.368
▁ப்ர	-10.3685
▁ஓவர்	-10.3686
▁திட்டமிடப்பட்ட	-10.3686
▁அளிக்கப்பட்டது	-10.3688
▁உச்சி	-10.3688
▁ஆதரவாளர்	-10.3689
▁சீனாவின	-10.3697
▁கொண்டவர்	-10.3701
▁அணிந்த	-10.3701
▁பிரச்னையை	-10.3703
யுமான	-10.3704
▁முதல்முறையாக	-10.3708
▁அலுவல்கள்	-10.3709
▁ராக்கெட்	-10.3711
▁இலக்கிய	-10.3712
▁ரூபாய்க்கு	-10.3714
▁யூனியன்	-10.3717
வதை	-10.3719
▁வெள்ளத்தில்	-10.372
▁கில்	-10.3724
▁அரசியலுக்கு	-10.3725
▁சிறுத்தைகள்	-10.3727
et	-10.3732
கீ	-10.3733
▁விவகாரத்தை	-10.3734
▁விரோத	-10.3734
அந்த	-10.3737
▁அதிகபட்ச	-10.374
தையும்	-10.374
▁டாப்	-10.3742
▁வழங்கப்படுகிறது	-10.3744
▁சுற்றுலாப்	-10.3744
▁சராசரி	-10.3749
▁எச்சரித்த	-10.3751
▁மட்ட	-10.3752
▁இவ்வாறான	-10.3755
▁காய	-10.3757
▁பிரேத	-10.3759
▁ரூபாயை	-10.3765
▁வருகிறேன்	-10.3765
▁வேண்டுகோள்	-10.3768
▁மனுவில்	-10.3773
▁வழங்கப்பட்டு	-10.3775
▁சரவணன்	-10.3775
▁புதன்கிழமை	-10.3784
▁அரசியல்வாதி	-10.3787
ராஜன்	-10.379
▁மொ	-10.3792
▁இறங்கிய	-10.3794
▁தட்டி	-10.3797
▁38	-10.3801
▁என்பவர	-10.3811
▁பயன்பாடு	-10.3811
▁கொங்கு	-10.3816
21	-10.3817
▁சிறுத்தை	-10.3822
▁வாகனங்களில்	-10.3822
▁வருடங்கள்	-10.3822
▁சிக்கல்கள்	-10.3824
▁சுக	-10.3836
▁மாநிலங்கள்	-10.3837
▁வீராங்கனை	-10.3839
▁நிவாரணம்	-10.3839
▁ஆண்ட	-10.3842
▁வாரத்தில்	-10.3842
▁அமைக்கும்	-10.3843
▁அந்தந்த	-10.3843
▁முன்வைக்க	-10.3846
▁உறவுகள்	-10.385
ப்பின்	-10.385
▁தாக்குதலுக்கு	-10.3852
▁விமர்சிக்க	-10.3859
▁காவி	-10.3862
ப்படுத்தும்	-10.3865
▁பொதுக்	-10.3865
▁மிகச்	-10.3867
▁ஆன்மீக	-10.3868
பட்டி	-10.3869
▁பிரச்சார	-10.3869
▁ஆலை	-10.3869
▁உயிருடன்	-10.3871
▁விளம்பர	-10.3876
▁பாலம்	-10.3876
▁இன்னமும	-10.3877
▁முன்ன	-10.3878
▁சேவையை	-10.3878
▁காசு	-10.3879
▁விஜயகாந்த்	-10.3883
றது	-10.3883
▁சிறுமியை	-10.3883
▁புகாரின்	-10.3885
▁நல்லா	-10.3889
▁எழுத்து	-10.389
▁அதுவே	-10.389
▁பொறுப்பேற்ற	-10.3891
▁எனக்குத்	-10.3894
▁கண்ணன்	-10.3895
▁விரும்பும்	-10.3897
▁பொம்மை	-10.3899
▁தேவைப்படும்	-10.39
▁அம்பேத்கர்	-10.3902
▁தூக்க	-10.3908
▁வெடித்த	-10.3915
▁5-	-10.3915
▁விதிகள்	-10.3917
▁அல்லாத	-10.3918
ாள	-10.3923
ுமே	-10.3923
▁விமர்சனங்களை	-10.3926
▁கூறியதாவது	-10.3926
▁காஷ்மீரில்	-10.3934
▁ஊழியர்களுக்கு	-10.3935
▁வெறுப்பு	-10.3936
▁ஓவர்கள்	-10.394
▁ஜெயந்தி	-10.3941
▁பாவ	-10.3943
▁கலந்துரையாடல்	-10.3943
▁தாங்க	-10.3954
▁நாளிதழ்	-10.3956
ின்ற	-10.3958
▁ஆலோசனைக்	-10.3959
.8	-10.3959
▁பற்றாக்குறை	-10.396
▁வீழ்ச்சி	-10.3962
▁திருத்தம்	-10.3962
சரி	-10.3963
▁பல்கலைக்கழகம்	-10.3966
▁பேச்சை	-10.3968
▁பழ	-10.3971
▁பிறகுதான்	-10.3971
▁நாங்க	-10.3971
▁தலைவர்களை	-10.3976
▁ராஜேந்திர	-10.3978
▁தருவதாக	-10.3982
▁கிருஷ்ணகிரி	-10.3983
▁டாடா	-10.3985
▁கோழி	-10.3986
மூர்த்தி	-10.3989
▁அளிக்கிறது	-10.3989
ப்படுவார்கள்	-10.3991
▁லட்சக்கணக்கான	-10.3992
▁ஆணையத்தின்	-10.3994
▁தீப	-10.3994
▁நியமிக்க	-10.3996
▁நூறு	-10.3996
17	-10.4004
▁கேமரா	-10.4006
▁சாம்	-10.4011
▁லால்	-10.4012
களிலிருந்து	-10.4016
▁கொட்டி	-10.4018
வல்	-10.4019
ாலோ	-10.402
▁தொடங்கியுள்ளது	-10.402
▁சாதனையை	-10.4021
ரங்க	-10.4021
▁குரங்கு	-10.4025
▁பெரிதும	-10.4026
▁வறுமை	-10.4026
▁பயன்	-10.4031
▁சுர	-10.4038
▁மிதமான	-10.404
▁மாநிலங்களுக்கு	-10.4044
▁BBC	-10.4044
கொள்ள	-10.4046
▁அதி	-10.4046
▁உக்ரைன	-10.4047
▁வைகோ	-10.405
▁அரசும்	-10.4051
▁செக்	-10.4052
▁செய்யப்பட்டனர்	-10.4055
▁மதிக்க	-10.4056
▁காணப்படுகிறது	-10.4058
▁எண்ணம்	-10.4059
▁சேர்க்கப்பட்ட	-10.4064
▁நாளைக்கு	-10.4066
ினார்கள்	-10.4067
▁ஜனநாயகக்	-10.4069
.10	-10.4072
▁வெளிப்படுத்தி	-10.4073
▁மீட்ட	-10.4084
▁அளிக்கப்பட்ட	-10.4086
▁கலந்த	-10.4087
▁வள	-10.4093
▁குழப்பம்	-10.4094
▁ஐரோப்பா	-10.4094
▁கணினி	-10.4099
▁தட்டுப்பாடு	-10.4099
▁ரத	-10.4099
▁பிரியாணி	-10.4099
▁அதிர்ச்சியடைந்த	-10.41
▁சைபர்	-10.41
▁இளம்பெண்	-10.4102
▁&	-10.4104
டெ	-10.4104
▁ரயிலில்	-10.4106
▁முதலமைச்சர	-10.4109
▁சல்மான்	-10.4111
பார்	-10.4114
▁ஆகியோரும்	-10.4115
லர்	-10.4115
▁உடைய	-10.4116
▁காட்சிகளை	-10.4129
▁பிரபு	-10.413
▁உயிரிழந்தனர்	-10.413
▁முடக்க	-10.4132
▁அவர்களால்	-10.4134
▁டாஸ்மாக்	-10.4137
▁இப்போதும்	-10.414
▁அவரைப்	-10.4142
▁படுக்கை	-10.4144
தின்	-10.4144
▁கள்ள	-10.4147
▁சதுர்த்தி	-10.4156
▁சந்திரபாபு	-10.4157
▁முதலீட்டு	-10.4157
▁யோகா	-10.4158
▁நெருக்கமாக	-10.4166
▁நிமிடங்கள்	-10.4166
ஃபா	-10.4166
▁ய	-10.4167
▁வண்ண	-10.4169
ஸ்ட	-10.4172
▁கங்கை	-10.4175
சுவாமி	-10.4176
மங்கலம்	-10.4178
▁ஸ்டாலின	-10.4179
▁பாண்டியன்	-10.4181
▁கைப்பற்றிய	-10.4183
▁செலுத்தினர்	-10.4183
ாகவே	-10.4184
▁ஆய்வுகள்	-10.4188
▁தொடக்கம்	-10.4188
கொள்வத	-10.419
▁வணங்க	-10.419
▁அர்த்தம்	-10.4192
▁ஊற்றி	-10.4195
தாம்	-10.4195
▁அரேபியா	-10.4197
▁பாதிக்கப்பட்டு	-10.4198
▁கடைசியாக	-10.4199
▁கம்பெனி	-10.4199
▁கண்காட்சி	-10.42
்கி	-10.4213
▁தஞ்சை	-10.4216
▁ஆர்சிபி	-10.4216
▁அதிமுகவை	-10.4227
▁அஸ்வின்	-10.4231
▁1000	-10.4234
▁O	-10.4234
ிவிடும்	-10.4235
▁வேக	-10.4236
▁பொருள்களை	-10.4237
▁ஏற்றுக்கொண்ட	-10.4238
▁இடம்பெற	-10.4238
▁நிரூபிக்க	-10.424
▁உள்ளவர்கள்	-10.424
ாக்க	-10.424
▁முஸ்லிம்கள்	-10.4247
▁சின்னம்	-10.4249
▁பதவியேற்ற	-10.4254
ௌ	-10.4264
▁விதிகளை	-10.4268
▁வெட்ட	-10.4269
▁விதை	-10.4269
ிருப்பார்	-10.427
▁காவல	-10.4273
▁தொல்லியல்	-10.4275
▁படப்பிடிப்பு	-10.4275
வர்களாக	-10.4275
▁தரிசன	-10.4278
▁நிலுவையில்	-10.4279
யுள்ள	-10.4279
▁துரைமுருகன்	-10.4286
▁பிரகாஷ்	-10.4287
▁முகமை	-10.4291
▁நள்ளிரவு	-10.4291
▁நோயாளி	-10.4291
▁பெண்ணுக்கு	-10.4293
லன்	-10.4294
▁வந்தவர்	-10.4295
▁சீசன்	-10.4298
பன்	-10.4299
▁ஆகியோருக்கு	-10.43
▁மதிப்பில்	-10.43
▁குறிவைத்து	-10.4304
த்தினை	-10.4305
▁வேட்புமனு	-10.431
▁விக்கெட்டை	-10.4313
▁பைக்	-10.4314
▁அதிபராக	-10.4314
▁காணொளி	-10.4314
▁குற்றம்சாட்டிய	-10.432
on	-10.4321
▁ஆவார்	-10.4322
▁தல	-10.433
▁பாறை	-10.4332
▁முன்னேற	-10.4332
▁மனநிலை	-10.4334
..?	-10.4334
▁நடத்துவது	-10.4335
▁ஜார்க்கண்ட்	-10.4335
▁ஜிஎஸ்டி	-10.4335
▁அறிவுறுத்திய	-10.4336
கடந்த	-10.4336
▁W	-10.4342
se	-10.4344
▁ரத்தம்	-10.4344
▁விஷ	-10.4344
▁அந்நிய	-10.4345
▁காங்கிரஸின்	-10.4346
▁கிராமங்களில்	-10.4348
▁வைத்துள்ளது	-10.435
▁மீள	-10.4351
ியல்	-10.4351
▁மார்	-10.4355
▁தீர்மானத்தை	-10.4358
▁கையை	-10.4358
▁மனைவியை	-10.436
▁தயாரிக்கப்பட்ட	-10.436
▁நடத்தப்பட	-10.4361
ri	-10.4362
▁அவள	-10.4362
▁மேற்கொண்டனர்	-10.4363
சர	-10.4365
▁வள்ளி	-10.4366
▁குறைந்துள்ளது	-10.4369
▁உள்ளடக்கிய	-10.4374
▁கச்சா	-10.4375
▁பேசியுள்ளார்	-10.4385
▁ஹரியானா	-10.439
ப்பட்டிருந்த	-10.4393
▁அக்கட்சியின	-10.4393
▁வாக்களித்த	-10.4393
▁சர்ச்சைக்குரிய	-10.4396
▁பொலிஸ்	-10.4396
13	-10.4396
▁தங்களுடைய	-10.4398
▁செயல்முறை	-10.44
ப்படாமல்	-10.4403
▁மாசி	-10.4405
▁மாலத்தீவு	-10.4408
▁குறு	-10.4412
க்கில்	-10.4418
▁நோய்கள்	-10.442
▁அதிகளவில	-10.4423
▁ஒட்டிய	-10.4424
▁ஆர்டர்	-10.4425
ுக்	-10.4426
▁சாத்தியம்	-10.443
▁திருட	-10.4431
▁யானைகள்	-10.4432
▁மூலவர்	-10.4439
▁பென்	-10.4443
▁கைதுசெய்த	-10.4446
▁வட்டார	-10.4451
▁நிராகரிக்க	-10.4455
▁42	-10.4456
▁காவல்துறையினர	-10.4456
▁காரணத்தால்	-10.446
▁கிடைக்கிறது	-10.4462
▁சுட	-10.4463
▁போடும்	-10.4464
▁தெரிவு	-10.4468
▁அசாம்	-10.4471
▁செல்வதற்கு	-10.4471
த்தார்	-10.4478
▁தலைவரும	-10.4479
▁விலகிய	-10.448
▁விமர்சனங்கள்	-10.4481
▁மசோதாவை	-10.4481
ுவிட்டது	-10.4482
▁கடலோர	-10.4484
▁டிரைவர்	-10.4486
▁நிலையான	-10.4487
▁பாரத	-10.4488
▁நாள்களுக்கு	-10.4493
▁வீடுகளை	-10.4495
▁துயர	-10.4495
▁நேபாள	-10.4499
▁வரலாற்றை	-10.4499
▁சொல்	-10.4501
▁நிறுவனத்திற்கு	-10.4501
▁மறைக்க	-10.4504
▁மேற்கொள்ளும்	-10.4508
ேந்திர	-10.4509
▁நுபுர்	-10.4515
▁இபிஎஸ்	-10.4515
▁ஆன்மிக	-10.4515
▁இஸ்ரோ	-10.4516
ென்று	-10.4516
▁குரூப்	-10.4516
▁கூட்டி	-10.4517
.7	-10.4518
▁திருவாரூர்	-10.452
▁சந்தித்துப்	-10.4521
▁காளை	-10.4524
▁அடங்கும்	-10.4526
▁கீழ	-10.4526
▁நிலையங்களில்	-10.4526
▁கன்	-10.4527
▁பகுதிகளிலும்	-10.4528
ப்பதற்கு	-10.4534
▁மறுத்து	-10.4535
▁நிலையத்திற்கு	-10.4535
என்று	-10.4537
னம்	-10.454
▁ஆக்கிரமிப்பு	-10.454
▁வழக்குகளில்	-10.4541
ப்பட்டனர்	-10.4543
▁தீவு	-10.4545
ுவீர்கள்	-10.4548
▁சன்	-10.4551
▁உயிருக்கு	-10.4555
▁கோவிலை	-10.4556
▁வளர்ப்பு	-10.4557
▁நீர	-10.4557
மூ	-10.456
▁p	-10.456
▁சென்னைக்கு	-10.4562
ீஸ்	-10.4562
▁கூட்டணியை	-10.4563
▁ஒன்றுக்கு	-10.4565
▁எதிர்காலம்	-10.4571
த்துக்	-10.4574
▁அஞ்ச	-10.4575
▁இளைய	-10.4576
▁யூடியூப்	-10.4576
▁இயல்பு	-10.4577
▁உள்ளதா	-10.4578
▁வெகுவாக	-10.4578
பாளையம்	-10.4578
▁செய்திகளை	-10.4579
▁வெடி	-10.4587
▁அனுபவ	-10.4591
▁படிப்பை	-10.4591
▁அனுப்பப்பட்ட	-10.4591
▁நடப்பது	-10.4592
▁இதைக்	-10.4593
▁அதனைத்	-10.4593
▁பழங்குடியின	-10.4593
▁ஒருவரான	-10.4598
▁நிரப்ப	-10.4599
றிய	-10.4602
▁திமுகவை	-10.4603
▁ஓராண்டு	-10.4609
ப்படை	-10.4619
▁கேஸ்	-10.462
▁பெறுவது	-10.4623
▁உரிமையை	-10.4623
▁நெருக்கடியை	-10.4627
▁உயர்கல்வி	-10.4628
▁நாராயண	-10.463
▁ஆதார்	-10.4632
▁குற்றம்சாட்டி	-10.4633
▁குறைந்தபட்சம்	-10.4633
▁பிரதம	-10.4636
▁வரையில்	-10.4638
▁ஆங்காங்கே	-10.4638
▁தகராறு	-10.4638
▁ஆர்எஸ்எஸ்	-10.4638
ில்லை	-10.4638
▁பிரசித்தி	-10.4638
▁முகவரி	-10.4639
▁துபாய்	-10.4639
▁பாலி	-10.464
▁உறவில்	-10.4643
▁பணிபுரியும்	-10.4645
▁ஆகியவற்றின்	-10.4652
▁ஹெலிகாப்டர்	-10.4652
▁விளக்கு	-10.4654
▁இறப்பு	-10.4656
த்தைத்	-10.466
டுகள்	-10.4666
▁காலில்	-10.4671
il	-10.4672
▁பயம்	-10.4673
▁லே	-10.4673
▁வீழ்த்த	-10.4676
▁ஸ்டா	-10.4678
ண்டர்	-10.468
▁நகைகளை	-10.4682
▁இந்தியன்	-10.4682
▁வங்கிகள்	-10.4685
▁எடுக்கவில்லை	-10.4687
யூர்	-10.4687
▁தெய்வ	-10.4689
▁சொ	-10.469
▁ஒதுக்கி	-10.4691
ணா	-10.4691
▁39	-10.4691
▁கட்டாய	-10.4694
▁செல்	-10.4695
ப்பார்	-10.4695
ாகி	-10.4698
▁கோட்டாபய	-10.4699
08	-10.47
▁பந்துவீச்சில்	-10.4701
▁ஆறுதல்	-10.4702
▁பொதுமக்களுக்கு	-10.4705
▁வான்	-10.4708
▁சொல்கிறது	-10.4708
▁வித்தியாசமான	-10.4709
▁ஒன்றான	-10.4711
▁நிகழ்ச்சிகளில்	-10.4711
▁மீதமுள்ள	-10.4713
ப்போகும்	-10.4718
▁திமுகவில்	-10.4721
▁ஆளுநருக்கு	-10.4728
▁நாசா	-10.4736
▁தெரிந்தது	-10.474
▁தொலை	-10.4741
▁பெற்றுள்ளார்	-10.4742
▁ஒதுக்கப்பட்ட	-10.4742
▁தீர	-10.4743
ீங்க	-10.4744
▁முதற்கட்ட	-10.4757
▁உத்தரகாண்ட்	-10.4761
▁V	-10.4762
▁வேகம்	-10.4762
ங்கள	-10.4764
▁பாருங்கள்	-10.4765
▁ஜோதி	-10.4765
▁இங்க	-10.4768
▁பரவும்	-10.4768
▁மணிப்பூரில்	-10.4768
▁அளித்துள்ளது	-10.4771
▁உரிமைகளை	-10.4773
▁வட்டாரத்தில்	-10.4773
▁உத்திர	-10.4773
▁மண்ண	-10.4774
▁கிங்ஸ்	-10.4779
▁ஜீ	-10.4781
▁உயர்த்தி	-10.4785
புர	-10.4785
ன்ற	-10.4785
▁வேலைகளை	-10.4786
வினர்	-10.4788
▁ஆயுதங்கள்	-10.4789
படுத்த	-10.479
▁உயர்ந்து	-10.4791
▁பாலா	-10.4795
▁மாற்றங்களை	-10.4797
வதி	-10.4798
லான	-10.4799
▁உதய	-10.4807
▁வாடிக்கையாளர்கள	-10.4807
▁உருவாகி	-10.481
▁பணியாற்றும்	-10.4811
▁தேசம்	-10.4811
▁கடையில்	-10.4815
▁பதிவாகி	-10.4817
▁ஓட்டுநர்	-10.4819
▁இந்துக்கள்	-10.4821
▁முன்னெச்சரிக்கை	-10.4824
▁சோழ	-10.4825
ராசா	-10.4827
▁கொடியை	-10.4828
▁விடாமல்	-10.4828
▁குறைந்தபட்ச	-10.4828
▁பறந்த	-10.4829
▁கலச	-10.4831
▁சீசனில்	-10.4832
▁அற்புதமான	-10.4833
▁அரங்கில்	-10.4837
▁இன்ஸ்பெக்டர்	-10.4838
▁கூகுள்	-10.4839
▁பாடல்கள்	-10.4839
▁பிறகே	-10.4839
▁பேசியபோது	-10.4843
▁கொரியா	-10.4843
60	-10.4844
▁போராட்டங்களை	-10.4845
▁பட்டியலை	-10.4846
▁பட்டியலின	-10.4846
▁படேல்	-10.4846
▁மகிழ்ச்சியை	-10.4855
▁அச	-10.4861
▁நினைக்க	-10.4865
▁மார்க்	-10.4868
▁வெளியாகும்	-10.4877
▁வேளை	-10.4881
▁சுந்தர	-10.4881
▁சிலையை	-10.4884
▁அனு	-10.4886
ுகின்ற	-10.4886
▁புத்தாண்டு	-10.4887
▁யாகசாலை	-10.4887
▁உங்களுடைய	-10.4889
▁மட்டுமல்லாது	-10.4891
வார	-10.4894
▁வாரங்களுக்கு	-10.4895
▁இணையதளத்தில்	-10.4897
▁நீல	-10.49
▁செயற்பட	-10.4903
▁வெடித்து	-10.4908
▁மாவட்டத்தின்	-10.4909
▁வாய்ப்ப	-10.4909
▁சட்டவிரோதமாக	-10.4912
▁குழப்ப	-10.4917
▁மாவட்டங்கள்	-10.4918
▁உடலுக்கு	-10.4923
▁தெரிவித்துக்	-10.4927
▁ஆரோக்கிய	-10.4927
வுடனான	-10.493
▁இதுவும்	-10.493
▁காவலர்கள்	-10.4931
is	-10.4934
▁விவாகரத்து	-10.4947
▁யோக	-10.4949
▁உடற்பயிற்சி	-10.495
▁காமெடி	-10.495
▁தேர்தலுக்கான	-10.4951
▁அருள்பாலித்தார்	-10.4952
▁காரணங்களால்	-10.4954
▁தெரிவிக்கிறது	-10.4957
▁கொள்ளுங்கள்	-10.4962
▁பிடிஆர்	-10.4963
26	-10.4964
▁சந்தன	-10.4965
▁நடன	-10.4966
▁முருக	-10.4969
க்கிறது	-10.4972
▁நேர்	-10.4975
▁கட்டிட	-10.4979
▁சரக்கு	-10.4981
ப்போகிறது	-10.4983
▁சந்திப்ப	-10.4984
▁காது	-10.4985
▁இறுதியாக	-10.4985
▁காணப்பட்ட	-10.499
▁இடம்பெற்றது	-10.499
▁ஆடியோ	-10.4993
▁செய்வதை	-10.4996
▁புகைப்பட	-10.4998
▁பிரிக்க	-10.5002
▁கொண்டிருந்தனர்	-10.5004
▁செலவுகள்	-10.5006
▁விநியோகம்	-10.5008
▁இடை	-10.5012
▁போராடிய	-10.5012
▁அன	-10.5012
▁இதேவேளை	-10.5014
▁நவராத்திரி	-10.5014
▁மோட்டார்	-10.5014
முத்து	-10.5015
▁அவிநாசி	-10.5015
▁கற்பனை	-10.5015
ிற்கான	-10.5018
நாடு	-10.5023
▁நீக்கப்பட்ட	-10.5023
▁செய்வதால்	-10.5024
▁சட்டப்பேரவை	-10.5024
▁புத்தகத்தில்	-10.5027
▁எப்போதுமே	-10.5027
▁வல்லுநர்கள்	-10.5028
▁கட்சியும்	-10.5028
▁சாப்பிட்டு	-10.5029
▁உளவுத்துறை	-10.5029
▁அவனை	-10.5032
நாதர்	-10.5042
▁கோரிக்கைகளை	-10.5046
▁மாகாணத்தில்	-10.5046
▁டு	-10.505
▁விநியோக	-10.505
▁அரிய	-10.5052
▁இயங்க	-10.5055
▁செய்துள்ள	-10.5056
▁ஒருங்கிணைந்த	-10.5058
▁உணவுகள்	-10.5059
▁மனிதர்	-10.5061
▁துவக்க	-10.5064
15	-10.5065
▁செலவிட	-10.5067
▁கண்டுபிடித்த	-10.5069
▁பயந்து	-10.5071
▁மாநிலங்களவை	-10.5071
வங்க	-10.5076
▁ஒலிம்பிக்	-10.5077
▁செயற்குழு	-10.5078
▁மக்கள்தொகை	-10.5078
▁அருகிலுள்ள	-10.5078
▁குணவர்தன	-10.5078
▁கருவி	-10.5081
துறை	-10.5082
▁ஆன்லைனில	-10.5082
தொ	-10.5084
▁அளித்தனர்	-10.5084
el	-10.5084
▁நான்காம்	-10.5086
ன்ட்	-10.5087
▁ஜெகன்	-10.5088
28	-10.509
ப்படலாம்	-10.5091
▁பத்தாம்	-10.5092
▁மாஸ்டர்	-10.5093
▁சேர்	-10.5094
▁விடிய	-10.5097
▁பலியான	-10.5098
வாத	-10.51
▁விவரம்	-10.5103
▁கடினம்	-10.5104
▁பாடம்	-10.5105
▁ஆர்ப்பாட்டம்	-10.5105
▁இயங்கும்	-10.5105
▁வளர்ச்சியை	-10.5106
▁கொடுக்கப்பட்ட	-10.5108
▁இருந்தேன்	-10.5111
▁ஏற்பட்டால்	-10.5111
▁ஊடகவியலாளர்	-10.5113
▁நிபந்தனை	-10.5115
▁திட்டத்திற்கு	-10.5119
▁2022-	-10.5121
ir	-10.5124
▁ஓட்டி	-10.5127
▁விக்ரம்	-10.5135
▁வந்திருக்கிறார்	-10.5136
▁புகுந்த	-10.5147
▁கோப்பையை	-10.5148
▁அதிலிருந்து	-10.515
▁விழாவின்	-10.5156
சியா	-10.5158
லிங்க	-10.5159
▁வளர்த்து	-10.5169
▁பயங்கர	-10.5169
▁குடியுரிமை	-10.517
▁நீண்டகால	-10.517
▁இப்படித்தான்	-10.5171
சன	-10.5177
▁ஆராதனை	-10.5178
▁எச்	-10.518
▁சேகர்	-10.518
▁தொகுப்பு	-10.5181
ஜன	-10.5183
▁ஸ்தான	-10.5185
▁செயல	-10.5187
▁பில்	-10.5194
▁வலிமை	-10.5195
▁தெரிவிக்கும்	-10.5197
▁போவதாக	-10.5199
▁கல்விக்	-10.5201
▁நிகழ்ச்சிக்கு	-10.5203
ப்பணி	-10.5203
▁பரிவர்த்தனை	-10.5207
▁இந்நிகழ்வில்	-10.521
▁தேர்தல்களில்	-10.5215
▁சதுர	-10.5217
▁2021-	-10.5218
▁காம	-10.5221
ப்பள்ளி	-10.5227
▁வைத்திருக்கும்	-10.5227
▁ஆட்ட	-10.5229
▁கொண்டிருந்தது	-10.5229
த்ரா	-10.523
▁அடைந்தது	-10.5231
ம்பா	-10.5236
▁கணிப்பு	-10.524
▁ஹீரோ	-10.5249
சிங்க	-10.5249
▁கத்தார்	-10.5251
▁கோர்ட்	-10.5252
▁பருவ	-10.5256
▁இர	-10.5256
▁இலவசமாக	-10.5257
ிலுள்ள	-10.526
▁முதலமைச்சராக	-10.5263
▁நிலைமையை	-10.5264
▁மிரட்டிய	-10.5265
▁சந்திக்கும்	-10.5269
▁வெளிப்படுத்திய	-10.5269
▁பகுதிகளுக்கு	-10.5272
▁நீரிழிவு	-10.5273
▁பிரசாந்த்	-10.5273
▁கூற்றுப்படி	-10.5273
▁கால்பந்து	-10.5273
▁மக்களிடையே	-10.5273
த்திற்குள்	-10.5275
▁நம்பிய	-10.5275
▁தண்ணீரை	-10.5276
▁கருதப்படும்	-10.528
▁நாள	-10.528
▁உதவிய	-10.5281
▁கொண்டதாக	-10.5282
▁உண்மையை	-10.5283
▁தனிநபர்	-10.5283
பூரில்	-10.5285
▁மதத்தை	-10.5287
▁காதலி	-10.5288
▁போட்டியின்	-10.5291
▁கொடுத்துள்ளார்	-10.5291
▁முடிவெடுக்க	-10.5291
யின்போது	-10.5293
தாகத்	-10.5294
▁தொழில்துறை	-10.5294
▁துப்பாக்கிச்	-10.5295
▁ஆர்வலர்கள்	-10.5296
▁கழகத்தின்	-10.5297
▁புகைப்படங்கள்	-10.5297
ய்யா	-10.53
▁அன்ன	-10.5302
புரி	-10.5303
▁வைக்கப்பட்டுள்ள	-10.5304
▁பயிர்	-10.5305
▁தரை	-10.5306
▁வீரர்களுக்கு	-10.5307
▁மங்கள	-10.5309
▁கடைசியில்	-10.5309
▁கிம்	-10.531
▁தலைமைச்	-10.5312
▁தீவிரம்	-10.5317
▁தங்கை	-10.5322
▁அணுகுமுறை	-10.5323
▁அக	-10.5324
▁பாலத்தீன	-10.5325
▁வெளியேறும்	-10.5326
▁கண்டித்த	-10.5327
▁தயாரித்து	-10.533
▁உப	-10.5337
la	-10.5338
▁வசந்த	-10.5339
ation	-10.534
▁ரிஷி	-10.5341
▁உதவிகள்	-10.5342
யம்மன்	-10.5342
▁நிதியை	-10.5344
▁புகாரில்	-10.5347
▁கேட்கும்	-10.535
▁வகைகள்	-10.5351
▁ராஜேஷ்	-10.5351
▁தரவு	-10.5352
▁உருவாகும்	-10.5352
னூர்	-10.5355
▁இதைச்	-10.5356
▁பாரிய	-10.5357
பிடி	-10.5359
▁பாரதி	-10.5363
▁கிரகங்கள	-10.5363
▁மையமாக	-10.5364
▁விடுவிக்கப்பட்ட	-10.5364
▁வாழ்வில்	-10.5364
▁கட்டமைப்பு	-10.5367
▁நியமன	-10.5374
▁வைத்துள்ளனர்	-10.5376
▁தடுக்கும்	-10.5378
ளிக்க	-10.5378
▁கொடூர	-10.5383
▁கல்வித்துறை	-10.5384
▁உறுதியான	-10.5388
▁கூட்டணிக்	-10.539
▁சொன்னால்	-10.5392
▁அபாயம்	-10.5394
ராய்	-10.5396
▁எதிர்க்க	-10.54
▁உணர்ச்சி	-10.5405
▁சோவியத்	-10.5405
▁பிற்பகல்	-10.5405
▁டெங்கு	-10.5406
▁கட்டு	-10.5407
▁நிர்ணயிக்க	-10.541
▁ஆதீன	-10.5412
▁புரிந்துகொள்ள	-10.5415
▁வாரியம்	-10.5416
▁தடைகள்	-10.5422
ப்படுவதை	-10.5426
▁காத்திருக்க	-10.5431
▁வாகனங்களை	-10.5434
v	-10.5437
▁பரவியது	-10.5437
▁65	-10.5439
▁பூச	-10.544
▁ஒய்	-10.544
▁ரஷ்யாவுக்கு	-10.544
▁நிறுவனங்களின	-10.5441
ழை	-10.5449
க்கொள்கிறேன்	-10.5449
▁நிலத்தில்	-10.5452
▁பொறுப்பில்	-10.5453
▁வரித்துறை	-10.5453
▁உயரம்	-10.5456
▁ரசிகர்களுக்கு	-10.5457
▁படிப்ப	-10.546
▁திருமலை	-10.546
▁வைப்பது	-10.546
▁உலகப்	-10.5466
▁குடிக்க	-10.5466
▁நினைவில்	-10.5469
▁வண்ணம்	-10.5471
▁கர்ப்பிணி	-10.5471
▁அறுவடை	-10.5471
▁தயங்க	-10.5472
▁காட்டும்	-10.5472
▁எழுச்சி	-10.5472
▁சுட்டிக்காட்டிய	-10.5473
▁தேவையற்ற	-10.5475
▁வெளியாகியுள்ளன	-10.5476
▁கணிக்க	-10.5478
▁பேரவை	-10.5479
▁உணர்ந்து	-10.5483
ைய	-10.5489
▁அசைவ	-10.5494
விடாமல்	-10.5495
ுவர்	-10.5495
▁ஓரளவு	-10.5495
▁எதை	-10.5498
▁கேலி	-10.5502
▁மணல்	-10.5503
▁யாரோ	-10.5503
குறிப்பிடுகிறார்	-10.5507
▁அடைந்தனர்	-10.5509
▁போதைப்	-10.5511
▁செய்யுங்கள்	-10.5512
▁நீக்கி	-10.5518
வர்களும்	-10.5519
▁மீட்புப்	-10.5521
▁தினத்தை	-10.5526
▁கேட்டால்	-10.5528
▁மனோ	-10.5528
70	-10.5529
▁கூட்டுறவு	-10.5532
▁முகாம்	-10.5534
▁கர	-10.5536
▁பிள்ளைகள்	-10.5537
▁அவதூறு	-10.5539
▁புரட்டாசி	-10.5539
▁தருமபுரி	-10.5541
▁செல்கின்றனர்	-10.5542
▁வடகிழக்கு	-10.5542
▁மனநல	-10.5548
▁நடப்பு	-10.555
▁அவர்களுடைய	-10.5552
▁அலுவலகத்திற்கு	-10.5556
திலிருந்து	-10.556
▁வந்திருக்கிறது	-10.556
▁கிராமம்	-10.5564
▁சவால்களை	-10.5564
▁லோ	-10.5565
▁வலை	-10.557
▁கலக்க	-10.5573
▁பந்துவீச்சு	-10.5574
▁வளர்ச்சிக்கு	-10.5577
ாரோ	-10.558
▁மாட்டார்	-10.558
▁வேறுபாடு	-10.5582
▁விடுத்தார்	-10.5584
▁பறக்கும்	-10.5586
▁டெல்லிக்கு	-10.5588
▁செய்வார்	-10.559
▁பயப்பட	-10.5594
▁அறிகுறி	-10.5601
▁மாற்றிய	-10.5602
▁பேரையும்	-10.5603
▁உட்கட்சி	-10.5606
▁கோதுமை	-10.5606
▁பிக்பாஸ்	-10.5606
▁இல்லையென்றால்	-10.5608
தாவது	-10.5613
▁சௌ	-10.5614
▁இக்	-10.5615
▁ஐநா	-10.5618
▁பயன்படுத்திக்	-10.5618
▁வீடியோக்கள்	-10.5621
▁வந்ததும்	-10.5622
வுள்ளது	-10.5627
▁காலியாக	-10.5636
▁புதுவை	-10.5637
▁கணக்கெடுப்பு	-10.5637
▁பேரறிவாளன்	-10.5641
▁கவுன்சில்	-10.5645
▁என்பவரை	-10.5646
▁சுவாமிக்கு	-10.5647
▁சைவ	-10.565
▁விரும்புகிறார்	-10.5651
▁பெறலாம்	-10.5651
▁வரியை	-10.5652
▁நலம்	-10.5654
ப்பாக	-10.5655
▁வீழ்த்திய	-10.5657
ருவ	-10.5663
▁வலுவாக	-10.5665
▁நுழைய	-10.567
▁வெளியிடப்பட்டது	-10.5671
▁பரி	-10.5671
▁பிரதமரின	-10.5673
▁பிரார்த்தனை	-10.5674
▁பிரச்சாரம்	-10.5676
▁கூலி	-10.5676
▁கரும்பு	-10.5676
▁கிமீ	-10.5677
▁பெறுவதற்கு	-10.5677
▁அந்தஸ்து	-10.5683
▁திருக்கோயில்	-10.5683
▁சூதாட்ட	-10.5684
▁இருந்ததை	-10.5684
▁தொகுதிகள்	-10.5684
▁ஆகியவற்றில்	-10.5685
ாரு	-10.5686
▁லண்டன்	-10.569
▁வெப்பம்	-10.5691
▁முன்பதிவு	-10.5694
▁வைக்கப்பட்டு	-10.5699
▁கடற்கரையில்	-10.57
▁எந்தக்	-10.5705
▁டோஸ்	-10.5705
▁வெளியாகிய	-10.5708
▁பார்ப்பது	-10.5709
▁அதிகரித்தது	-10.571
▁எடுக்கப்பட்டு	-10.573
▁கொட்ட	-10.5733
▁பாண்டியா	-10.5734
▁முதியவர்	-10.5735
▁தேர்வை	-10.5738
மல்	-10.574
▁கல்லூரிகளில்	-10.574
டிங்	-10.5743
▁பாகுபாடு	-10.5743
▁வைகாசி	-10.5743
▁கேட்டது	-10.5743
▁0	-10.5744
▁நம்புகிறேன்	-10.5744
▁திணைக்கள	-10.5745
▁விமானப்படை	-10.5745
▁டேவிட்	-10.5747
▁காரணமாகவே	-10.5747
▁கத்தி	-10.5748
▁தொழிலை	-10.5748
▁சௌதி	-10.5748
ிற்கும்	-10.5748
▁செல்லும்போது	-10.575
▁குடும்பங்கள்	-10.575
▁ரேஷன்	-10.5754
ஜெ	-10.5755
▁சினிமாவில்	-10.5758
▁தற்காலிகமாக	-10.5763
த்திடம்	-10.5765
▁அங்கேயே	-10.5768
▁மாளிகையில்	-10.5769
பிள்	-10.5771
▁அமைச்ச	-10.5775
▁நட	-10.5778
கொண்டிருந்த	-10.5779
▁நெருங்கி	-10.5779
▁என்றெல்லாம்	-10.5782
▁ஏலம்	-10.5784
▁ஆணைக்குழு	-10.5787
▁அதுவரை	-10.5788
▁.....	-10.5789
▁முர்மு	-10.579
▁வர்த்தகம்	-10.5798
▁செல்வதை	-10.5799
ுது	-10.58
யின	-10.5802
▁செய்தல்	-10.5807
▁கேள்விகளுக்கு	-10.5808
▁மக்கள	-10.5808
▁அக்கா	-10.5812
▁சரஸ்வதி	-10.5815
ளவில்	-10.5816
▁சிவாஜி	-10.5816
யடைந்த	-10.5816
▁கடற்றொழில்	-10.5817
▁அடைக்க	-10.5817
ஒ	-10.5821
▁பிரசவ	-10.5822
▁நியூஸ்	-10.5824
▁தரப்பினரும்	-10.5825
▁திருட்டு	-10.5832
தைக்	-10.5832
▁விரும்பிய	-10.5833
▁நுழைந்து	-10.5835
▁கூட்டணியின்	-10.5836
ரான்	-10.5838
▁ராணுவத்தில்	-10.5839
▁பிரம்ம	-10.584
▁அமைப்பினர்	-10.5841
▁பஞ்சாயத்து	-10.5846
▁விடை	-10.5847
ந்த்	-10.5848
▁எதிர்ப்ப	-10.585
▁துண்டு	-10.5855
▁கலவரம்	-10.5855
▁ஏற்படவில்லை	-10.5856
ாளராக	-10.5859
▁புகைப்படத்தை	-10.5872
▁வினோத்	-10.5872
▁சென்றுள்ளனர்	-10.5874
▁மக்களுக்கும்	-10.5875
ங்களால்	-10.5879
▁தடைகளை	-10.5879
▁சாகுபடி	-10.5881
▁சுழற்சி	-10.5881
▁பிரதிஷ்டை	-10.5881
▁மல்யுத்த	-10.5881
▁மேல்முறையீடு	-10.5881
▁ஆழ்ந்த	-10.5882
▁ஜூ	-10.5882
▁எலான்	-10.5882
▁தினங்களுக்கு	-10.5885
தெல்லாம்	-10.5886
▁சமயங்களில்	-10.5889
▁சொல்லவில்லை	-10.589
▁பலன்கள்	-10.5893
▁இடத்திலும்	-10.5893
▁கண்காணித்து	-10.5894
▁இறைச்சி	-10.5898
▁பாலிவுட்	-10.5899
▁அபாய	-10.59
▁வெளிநாட்டில	-10.5902
▁வழக்குகளை	-10.5902
▁சாம்பியன்	-10.5902
▁செய்தியில்	-10.5904
▁அப்படித்தான்	-10.5905
▁போட்டுக்	-10.5905
▁யாதவ	-10.5906
ோருக்கு	-10.5907
▁டிரா	-10.591
▁வந்ததாக	-10.5911
▁நிகர	-10.5915
▁பொருள்கள்	-10.5915
சில	-10.5918
கின்றனர்	-10.5919
▁தீவிரமான	-10.5923
ஸுக்கு	-10.5929
▁வழங்குவதற்கு	-10.5929
▁47	-10.5937
கண்ட	-10.5941
▁நண்பர	-10.5942
க்கம்	-10.5942
▁பறவை	-10.5944
▁தீவிரவாத	-10.5947
▁கூறுகின்றன	-10.5948
ஏக்கள்	-10.595
▁வெயில	-10.595
▁ஆஜராக	-10.595
▁சனாதன	-10.595
▁அவகாசம்	-10.5951
▁திரௌபதி	-10.5951
▁திருப்பத்தூர்	-10.5951
▁கடத்தி	-10.5954
.30	-10.5954
▁பெய்ய	-10.5955
▁நடராஜர்	-10.5955
▁தெருவில்	-10.5957
▁செய்கின்றனர்	-10.5958
▁ஊசி	-10.5958
▁திமுகவுக்கு	-10.5958
▁தோல்வியடைந்த	-10.5959
▁பங்குச்	-10.5959
▁விண்ணப்பிக்க	-10.5963
▁என்னைப்	-10.5963
▁நிகழ	-10.5964
▁காந்தியை	-10.5965
▁கலாச்சார	-10.5966
▁விதம்	-10.5967
▁சைக்கிள்	-10.5969
மெ	-10.597
▁தைவான்	-10.5971
▁கொல்லப்பட்டனர்	-10.5972
▁ஆப்பிரிக்க	-10.5976
▁குப்பை	-10.5977
▁புத்த	-10.5979
▁செய்வார்கள்	-10.5982
வர்களிடம்	-10.5983
▁வாதம்	-10.5987
▁மருந்துகளை	-10.5989
,500	-10.5992
ியுள்ளனர்	-10.5994
▁2011	-10.5996
▁அள்ளி	-10.5996
▁உருவானது	-10.5997
▁வளரும்	-10.6002
▁தாமதமாக	-10.6005
த்தக்க	-10.6007
்பதற்கான	-10.6011
மடை	-10.6015
▁கொண்டுவரப்பட்ட	-10.602
▁மாதத்திற்கு	-10.602
▁அன்றாட	-10.6021
▁மறுபடியும்	-10.6021
▁ஊட்டி	-10.6022
▁நடவடிக்கையும்	-10.6023
ண்ண	-10.6023
▁தெளிவான	-10.6027
▁மாதவிடாய்	-10.6027
▁மன்னார்	-10.6028
▁சமாஜ்	-10.6028
▁தெரிந்துகொள்ள	-10.6028
▁மறைத்து	-10.6031
▁தேங்காய்	-10.6032
ையா	-10.6033
▁சேவைகளை	-10.6034
▁ஹே	-10.6035
▁வீடியோக்களை	-10.6037
▁திட்டமிட்டுள்ள	-10.6046
▁+	-10.6046
▁வலு	-10.6048
▁ஆழ	-10.6051
▁இடையூறு	-10.6052
▁ரசிகர்களை	-10.6053
▁வருமானத்தை	-10.6053
ஞ்சு	-10.6059
▁எண்ணிக்கையை	-10.6065
▁சுவை	-10.6066
▁கட்	-10.6068
▁சவால்கள்	-10.6069
▁கோபி	-10.6074
▁அதிகாரிகளும்	-10.6076
▁வலது	-10.6076
வாதி	-10.6079
▁செய்தேன்	-10.608
பிற்படுத்தப்பட்ட	-10.608
க்குக்	-10.6081
ூரை	-10.6081
▁மரபணு	-10.6083
▁அதேநேரத்தில்	-10.6092
▁கான	-10.6092
▁பருவமழை	-10.6092
▁பும்ரா	-10.6093
▁மகாலட்சுமி	-10.6093
▁கார்த்திகை	-10.6095
▁கையெழுத்து	-10.6097
▁சிந்திக்க	-10.6097
மாகவே	-10.6098
▁கிருஷ்ணா	-10.6104
▁46	-10.6104
▁காட்டிலும்	-10.6104
▁செய்வதில்	-10.6105
▁கண்டறியப்பட்ட	-10.6108
க்கப்பட்ட	-10.611
▁நடக்கவில்லை	-10.6112
▁தங்கியிருந்த	-10.6112
▁தூதர்	-10.6114
▁கலெக்டர்	-10.6114
▁வைத்திய	-10.6115
▁சொன்னார்கள்	-10.6116
▁ஈடுபட்டுள்ளனர்	-10.6117
▁அமைப்பில்	-10.6118
▁சீல்	-10.6119
▁சத்தீஸ்கர்	-10.6121
▁4-	-10.6124
▁அடை	-10.6127
▁தப்பிக்க	-10.6129
▁இழப்ப	-10.6133
நாயக்க	-10.6135
▁இணையதள	-10.6135
▁தமிழகத்தை	-10.6137
▁விற்று	-10.6137
▁ஏமாற்றி	-10.614
▁காரணத்தை	-10.6145
▁கணவர	-10.6146
▁முடிவடைந்த	-10.6152
▁சலுகை	-10.6154
▁ஆன்	-10.6155
2022	-10.6156
விட்டார்கள்	-10.6156
ம்பட்டி	-10.6156
நாங்கள்	-10.616
▁செய்யப்பட்டன	-10.6162
▁ரசிகர்கள	-10.6163
▁வளர்மதி	-10.6164
▁கிடைக்காத	-10.6166
வள	-10.6169
▁சென்றால்	-10.6169
▁விளக்கினார்	-10.6171
▁சதீஷ்	-10.6174
▁அடியில்	-10.6175
▁ஏற்படலாம்	-10.6176
ஸ்டர்	-10.6178
▁மதிப்பீடு	-10.6181
டீ	-10.6181
▁மகளை	-10.6182
▁எம்ஜிஆர்	-10.6183
யான்	-10.6183
யாவது	-10.6183
தல	-10.6183
▁விட்டனர்	-10.6186
▁அம்பாள்	-10.6189
▁பிளான்	-10.6189
▁மீற	-10.619
▁இவரின	-10.619
▁துரை	-10.6193
▁ஆனி	-10.6194
▁கட்சிகளுக்கு	-10.6195
▁திமுகவினர்	-10.6196
▁காங்கிரச	-10.6204
▁சித்த	-10.6206
வருகிறார்	-10.6206
▁உள்ளோம்	-10.6207
▁பேருந்துகள்	-10.6208
▁கூட்டணிக்கு	-10.621
▁பிரியா	-10.6213
ென	-10.6214
27	-10.6224
▁வாழை	-10.6224
▁திராவிடர்	-10.623
ிர	-10.6233
▁சஸ்பெண்ட்	-10.6236
▁கறுப்பு	-10.6236
▁வசம்	-10.6241
▁திறனை	-10.6245
▁கனடாவில்	-10.6248
▁வாய்ப்புகளை	-10.6249
▁6-	-10.6251
▁அடுத்ததாக	-10.6253
▁மதிய	-10.6263
▁கட்சியாக	-10.6267
▁வரப்பட்ட	-10.6267
முக	-10.6268
▁நகைச்சுவை	-10.6269
நெ	-10.6269
▁முடிவெடுத்த	-10.6273
▁வாக்காளர்கள்	-10.6274
▁கட்டியெழுப்ப	-10.6277
▁கட	-10.628
▁அரி	-10.6286
▁பிரமுகர்	-10.6296
▁சட்டமன்றத்தில்	-10.6298
▁பங்க	-10.6298
80	-10.6299
வினால்	-10.63
கொட	-10.63
ாளர்கள்	-10.6303
▁ஒருபுறம்	-10.6308
▁இறுதிப்போட்டி	-10.6308
▁அஜய்	-10.6309
▁சந்திரயான்	-10.6309
▁வெளிநாடுகளில	-10.631
▁முயற்சித்த	-10.6311
▁பொன்முடி	-10.6314
▁வட்டாரங்கள்	-10.6314
▁அவரே	-10.6316
▁மதிப்புள்ள	-10.6316
▁முன்வைக்கப்பட்ட	-10.6316
விட்டோம்	-10.6317
▁கேள்வியை	-10.6319
▁மரபு	-10.632
▁தண்ணீரில்	-10.6322
▁குடும்பத்துடன்	-10.6323
▁c	-10.6328
▁சிலிண்டர்	-10.633
ூர	-10.6332
▁அவசரமாக	-10.6333
▁முடிய	-10.6335
▁விரிவுபடுத்த	-10.6339
▁நிலையங்கள்	-10.6342
▁ரீதியாகவும்	-10.6344
▁வந்துவிட்டது	-10.6347
தெ	-10.6348
ிருந்தேன்	-10.6351
▁சொல்லலாம்	-10.6351
▁நடைபெற்றன	-10.6356
▁வெற்றிபெற	-10.6359
▁சீட்டு	-10.6359
குரு	-10.6362
▁கோல	-10.6365
▁அதிகாரிகளின்	-10.6368
▁ஹெ	-10.6371
▁இருப்பதாகக்	-10.6373
▁புகுந்து	-10.6376
▁கொடுப்பது	-10.6379
▁பகுஜன்	-10.6381
▁சபரிமலை	-10.6382
▁கலந்துகொள்ள	-10.6385
▁நியாய	-10.6387
▁தன்னிடம்	-10.6391
கோவில்	-10.6393
5,000	-10.6395
▁எதற்காக	-10.6399
us	-10.6399
▁ரு	-10.64
▁கார்கே	-10.64
-1	-10.6401
▁கேட்ச்	-10.6407
▁திருவிழாவில்	-10.6409
யில்லை	-10.6412
▁ஆராதனைகள்	-10.6414
▁பெயர	-10.6414
▁2013	-10.6418
▁பரவிய	-10.6418
▁துவங்க	-10.6419
▁வந்தேன்	-10.6421
▁மரம்	-10.6424
▁வருத்தம்	-10.6429
கவின்	-10.643
▁சட்டங்கள்	-10.643
ப்போன	-10.643
▁நன்கொடை	-10.6434
▁செல்கிறார்	-10.6435
▁தென்னாப்பிரிக்க	-10.6436
ிருப்பார்கள்	-10.6441
▁ரன்களுக்கு	-10.6441
▁அமர்ந்திருந்த	-10.6441
வாழ்	-10.6443
▁43	-10.6445
▁கல்வெட்டு	-10.645
▁எலும்பு	-10.6453
▁வெடிகுண்டு	-10.6455
▁இரங்கல்	-10.6455
▁டிஜிபி	-10.6455
▁மதிப்பிட	-10.6456
▁நிறுத்தப்பட்ட	-10.6456
▁#	-10.6456
▁பார்ப்போம்	-10.6457
▁மனதை	-10.6458
ற்க	-10.6459
▁அடையும்	-10.6459
ினி	-10.6461
▁ஒப்புக்	-10.6461
▁மூழ்கி	-10.6462
ங்களைப்	-10.6463
த்துக்குள்	-10.6466
▁விடுத்து	-10.6466
▁சத்திய	-10.6471
▁போற்றி	-10.6471
▁சட்டப்பேரவையில்	-10.6473
▁வந்திருந்த	-10.6476
▁திருப்தி	-10.6477
▁பல்கலைக்கழகங்கள	-10.6478
▁சிங்கள	-10.6481
▁வாழ்	-10.6483
▁கொடியேற்ற	-10.6484
▁பள்ளிக்	-10.6484
ாகப்	-10.6486
▁விதத்தில்	-10.6486
▁படைத்த	-10.6488
▁தூண்ட	-10.6489
▁துறைக்கு	-10.649
▁ஸ்டாலினை	-10.6492
▁காரிய	-10.6495
▁ஓடிய	-10.6498
▁பழங்குடியினர்	-10.6499
ங்களைக்	-10.6499
▁இஸ்லாமியர்கள்	-10.6506
▁குற்றச்சாட்டை	-10.6512
▁மாவட்டத்தை	-10.6524
வற்றை	-10.6527
▁பங்களிப்பை	-10.6528
▁நேர்த்திக்கடன்	-10.6529
▁ஜல்லிக்கட்டு	-10.6529
▁அதீத	-10.6529
▁ஒழிக்க	-10.6529
▁மேக	-10.6529
▁பெய்த	-10.6529
vs	-10.6531
▁செவ்வாய்க்கிழமை	-10.6531
▁இந்தியாவிற்கு	-10.6532
▁காளி	-10.6533
விட்டன	-10.6536
▁வரைக்கும்	-10.6539
▁கிடைத்து	-10.6541
▁உரையாற்றிய	-10.6542
▁மொழியில்	-10.6542
▁சொல்லிக்	-10.6543
▁51	-10.6544
▁அண்ட்	-10.6546
ல்ஸ்	-10.6547
▁வனத்துறையினர்	-10.6549
ுக்க	-10.6554
▁வருகின்றது	-10.6558
▁கமிஷன்	-10.6559
▁வார்த்தைகளை	-10.6559
▁விலைக்கு	-10.6562
▁அமைக்கப்பட்டு	-10.6562
▁நிகழ்வை	-10.6578
ுபவர்கள்	-10.6578
▁கூறியதாக	-10.6579
▁ஒப்புக்கொண்ட	-10.658
31	-10.6582
▁தோல்	-10.6582
▁பாதிப்ப	-10.6583
▁ஸ்டார்	-10.6583
▁புதுச்சேரியில்	-10.6585
▁பெயர்கள்	-10.6589
▁இடது	-10.6592
▁சபா	-10.6592
▁இளைஞர்களுக்கு	-10.6593
▁வேலுமணி	-10.6595
▁2020-	-10.6595
▁மீ	-10.6597
டான	-10.6599
ர்ஸ்	-10.66
▁மேற்கண்ட	-10.6604
சூ	-10.6606
▁இதெல்லாம்	-10.6607
▁சுட்டுக்	-10.6607
▁எத்தனையோ	-10.6611
▁ஆக்க	-10.6611
▁வலைத்தளங்களில	-10.6612
ானந்த	-10.6616
ணு	-10.6617
▁இளவரசர்	-10.6619
▁மாறியுள்ளது	-10.6624
▁சர்வே	-10.6625
பில்	-10.6625
▁அருந்த	-10.6625
▁ஆம்புலன்ஸ்	-10.6626
▁எல்லாமே	-10.6632
மேன்	-10.6637
▁ஆள	-10.6645
▁வரவேற்பை	-10.6646
▁அறங்காவலர்	-10.665
▁பாகிஸ்தானுக்கு	-10.6654
முன்	-10.6655
▁குடித்த	-10.6656
▁இந்தாண்டு	-10.6657
▁இவர்களை	-10.6658
▁இயக்கிய	-10.6658
▁குட	-10.6664
விடலாம்	-10.6664
▁சேனல்	-10.6666
ீர்களா	-10.6669
▁தயாரித்த	-10.6675
▁மோத	-10.6676
▁அம்மை	-10.6677
▁நியூயார்க்	-10.6678
▁Doctor	-10.6679
▁ஊட்டச்சத்து	-10.6679
▁மனிதாபிமான	-10.6679
▁இன்ஸ்டாகிராம்	-10.6679
▁வாக்குமூலம்	-10.6679
▁கட்டணத்தை	-10.6691
▁வேட்பாளர்களை	-10.6694
▁திருமணத்திற்கு	-10.67
▁போருக்கு	-10.6701
துதான்	-10.6702
▁முன்னால்	-10.6702
மொழி	-10.6702
▁நீரில்	-10.6703
▁திரி	-10.6704
▁வசூல்	-10.6705
▁செல்லாது	-10.6708
▁கல்வியை	-10.6709
▁தொட்ட	-10.6719
▁கடவுள	-10.6723
▁குறைக்கும்	-10.6723
என்ன	-10.6724
▁சிரியா	-10.6725
▁எஃப்	-10.6727
▁கண்டி	-10.6729
▁இனிப்பு	-10.6732
▁சதவீதமாக	-10.6733
▁விலங்குகள்	-10.6734
▁அருவி	-10.6734
ோரின்	-10.6736
▁மேற்கொள்ளப்பட	-10.6736
▁ஆகியோரின	-10.6738
யொட்டி	-10.6739
▁பகிர	-10.674
▁ஷோ	-10.6746
▁நடவடிக்கையில்	-10.6747
▁சந்திரன்	-10.6747
▁தொட	-10.6748
▁விண்ண	-10.6748
▁காணும்	-10.6751
▁ஏழாம	-10.6754
▁விசிக	-10.6755
▁அடித்தார்	-10.6758
▁முகாமில்	-10.6759
▁குழுக்	-10.6759
▁குர்	-10.6761
▁லூ	-10.6762
▁பயிற்சியாளர்	-10.6763
▁நத்தம்	-10.6763
ட்ரி	-10.6764
▁பலன	-10.6764
▁சர	-10.6764
▁250	-10.6767
▁வைகை	-10.677
om	-10.677
▁உனக்கு	-10.6772
▁நாராயணன்	-10.6773
▁காலத்தை	-10.678
▁வார்த்தைகள்	-10.6781
▁தனுஷ்	-10.6782
▁சொல்வதை	-10.6783
▁அமைதியான	-10.6783
▁அர	-10.6785
▁வாக்குறுதிகளை	-10.6785
மடைந்த	-10.6787
ாட்சி	-10.6789
▁புஷ்ப	-10.6791
தாஸ்	-10.6793
க்காரர்	-10.6794
▁கடைகளில்	-10.6794
ha	-10.6794
▁திரட்ட	-10.6797
▁லஞ்சம்	-10.6797
ளவு	-10.6798
பூஜை	-10.68
▁வாயு	-10.6801
▁அரையிறுதி	-10.6804
▁பந்தில	-10.6805
▁படத்திற்கு	-10.681
90	-10.6812
▁அரசுகள்	-10.6812
ஹோ	-10.6816
▁கவனித்த	-10.682
▁பேட்டரி	-10.6821
▁நடிப்ப	-10.6823
▁க்கும்	-10.6826
▁தூய்மை	-10.6826
▁ஸ்மார்ட்	-10.6827
▁அல	-10.6827
யிலிருந்த	-10.6828
தார்	-10.6829
▁தேமுதிக	-10.6831
▁ஆசிரியை	-10.6831
▁முகாமைத்துவ	-10.6831
னெ	-10.6832
▁புறப்பாடு	-10.6833
▁ராஜஸ்தானில்	-10.6835
▁புத்தகம்	-10.6839
▁சுனில்	-10.6842
▁சட்டத்திற்கு	-10.6843
▁பலர	-10.6844
▁சாட்டப்பட்ட	-10.6845
▁வாஷிங்டன்	-10.6846
▁கொடுத்தனர்	-10.6847
▁பதற்ற	-10.6848
▁இறுதிப்	-10.6849
▁விநியோகிக்க	-10.6849
▁முற்றிலுமாக	-10.685
▁ஸ்கோர்	-10.6851
▁கைகளில்	-10.6855
ப்போம்	-10.686
வரா	-10.6863
பந்த	-10.6864
நாத்	-10.6864
▁பார்த்தபோது	-10.6866
▁தங்கிய	-10.6871
▁தடுத்த	-10.6874
▁எலி	-10.6875
▁பொருள	-10.6876
▁12-	-10.6878
▁சோதனையில்	-10.6881
▁அதிபதி	-10.6886
▁முக்கியமானதாக	-10.6886
▁கொரிய	-10.6895
▁கட்டும்	-10.6897
▁பின்பற்றி	-10.69
▁தொழிலதிபர்	-10.6902
▁வச	-10.6906
▁புறக்கணிக்க	-10.6908
▁கோலாகலமாக	-10.6908
ுமாறும்	-10.6908
▁திரளான	-10.6909
▁தனிப்படை	-10.6909
▁பொதுத்	-10.691
▁காவடி	-10.6911
▁தயாரிக்கும்	-10.6913
▁கொடூரமாக	-10.692
ப்படுவதில்லை	-10.6928
▁விதித்து	-10.6929
▁வடிவ	-10.693
ாண்டு	-10.693
▁மையத்தின்	-10.6931
▁நடராஜன்	-10.6931
▁பயணத்தில்	-10.6936
ுடனும்	-10.6937
75	-10.6943
▁தேயிலை	-10.695
▁உள்ளடக்க	-10.6951
▁நம்பர்	-10.6952
தலை	-10.6954
▁நடத்தை	-10.6955
W	-10.6961
வகை	-10.6966
▁கன்னட	-10.6967
x	-10.6969
▁அடைத்து	-10.6972
ப்போவதாக	-10.6974
▁எங்களது	-10.6976
▁நினைப்ப	-10.698
▁உத்தி	-10.6982
▁வாங்கிக்	-10.6983
▁வளாக	-10.6983
▁மதிப்பெண்	-10.6984
▁கணிசமான	-10.6985
▁துவங்கிய	-10.6985
▁பெய்யக்கூடும்	-10.6986
▁இருந்துள்ளது	-10.6987
▁ஷாக்	-10.6988
▁எடுத்தது	-10.699
▁மறை	-10.6991
▁பீகாரில்	-10.6991
▁கம்பி	-10.6992
▁ஆரம்பித்தார்	-10.6992
▁பௌத்த	-10.6993
▁நீதித்துறை	-10.6994
▁அம்	-10.6996
▁சிக்ஸர்	-10.6998
▁தேடுதல்	-10.6999
சின்	-10.7
ent	-10.7003
▁பணவீக்கம்	-10.7006
▁கிஷோர்	-10.7006
▁அனைவரின்	-10.7009
▁ஆளாக	-10.7012
▁பக்தர்களின்	-10.7013
▁ஆர	-10.7014
பெற	-10.7014
11	-10.7015
▁குற்றங்கள்	-10.7018
▁வியாபாரம்	-10.702
ிடமும்	-10.702
வருகின்றன	-10.7024
▁அமைதியை	-10.7029
▁எழ	-10.703
▁கூட்டாளி	-10.7034
▁வெற்றிபெற்ற	-10.7034
▁காட்டினார்	-10.7042
்ட	-10.7042
▁கண்டறிந்து	-10.7044
▁ராஜ்யசபா	-10.7045
▁கொண்டாடும்	-10.7046
29	-10.7046
▁சர்வ	-10.7048
▁என்னதான்	-10.7051
▁கைதி	-10.7052
▁அமைச்சக	-10.7054
ாதீங்க	-10.7061
▁தாங்கி	-10.7062
▁சொகுசு	-10.7063
▁கையகப்படுத்த	-10.7063
▁தவணை	-10.7064
▁குழி	-10.7064
▁சேதமடைந்த	-10.7064
▁இல்லாவிட்டால்	-10.7065
▁உதவியாக	-10.7065
▁எதிர்த்த	-10.7078
ொன்ற	-10.708
கிறார்கள்	-10.7082
▁கண்டுபிடிப்பு	-10.7083
▁ஆரோக்கியமான	-10.7083
▁அத	-10.7085
▁துறையை	-10.7087
▁சிக்னல்	-10.7088
▁சொந்தமாக	-10.7088
▁எழுப்பினார்	-10.7091
▁இதோ	-10.7091
▁அளவ	-10.7093
▁தரப்புக்கு	-10.7094
▁வீரராக	-10.7096
▁என்னோட	-10.7098
▁பதிவுசெய்து	-10.7099
▁கிளர்ச்சி	-10.7107
▁வேடிக்கை	-10.7109
தானா	-10.7112
விட்டதால்	-10.7113
▁தூர	-10.7115
▁கல்ல	-10.7118
ரீதியாக	-10.7119
ீஸ்வரர்	-10.7119
▁அதையும்	-10.7121
▁இருந்துள்ளார்	-10.7129
▁முக்கியப்	-10.7129
▁ப்ளே	-10.7129
"..	-10.713
▁பயன்படுத்தப்பட	-10.7132
▁சுவர்	-10.7139
▁சென்னையை	-10.714
▁பன்	-10.7141
▁அம்பானி	-10.7142
▁தேர்தலிலும்	-10.7143
▁கழிவறை	-10.7143
▁விளம்பரம்	-10.7144
▁எப்படியாவது	-10.7147
▁லிங்க	-10.7148
▁மீண்டு	-10.7148
▁கைத்தொழில்	-10.7148
▁கூட்டத்திற்கு	-10.7151
▁நுண்ணறிவு	-10.7153
▁சொன்னேன்	-10.7157
▁ஊரக	-10.7158
▁கிண்டல்	-10.7161
▁தொட்டி	-10.7163
▁பவன்	-10.7164
▁நிஜ	-10.7167
▁அணியும்	-10.7169
ங்களே	-10.7172
▁வளர	-10.7174
▁நூல்	-10.7176
▁பெய்யும்	-10.7178
▁கர்ப்ப	-10.7179
களுக்குள்	-10.7185
▁துருவ	-10.7185
▁ஆரம்பித்தது	-10.7186
▁அபி	-10.7187
▁செய்துகொள்ள	-10.7188
வைக்	-10.719
ுகள்	-10.7192
சென்னை	-10.7193
▁ஆதாரங்களை	-10.7193
ேஸ்வரர்	-10.7194
▁மேஷம்	-10.7199
▁சந்திரசேகர்	-10.7199
▁மத்தியப்	-10.7202
▁பக்கத்து	-10.7204
▁மீன	-10.7206
இந்திய	-10.7207
▁தவறி	-10.7208
▁எடுத்துக்கொண்ட	-10.7208
▁600	-10.721
▁சிறுவர்கள்	-10.7211
▁சேமிப்பு	-10.7215
மல்ல	-10.7215
▁சன்ரைசர்ஸ்	-10.7221
▁பரஸ்பர	-10.7221
▁சுழற்பந்துவீச்ச	-10.7221
▁குப்தா	-10.7221
▁பெற்றவர்	-10.7223
▁அதேபோன்று	-10.7224
▁நிமிடங்களில்	-10.7225
ாகக்	-10.7225
▁பாருங்க	-10.7227
▁காணிக்கை	-10.7228
▁பட்ஜெட்டில்	-10.7228
▁வெளியாக	-10.7229
▁தேவர்	-10.7229
▁அழுத	-10.723
▁அறநிலையத்	-10.723
▁சவாலாக	-10.723
ுபவர்	-10.7232
▁இழக்க	-10.7232
▁எலிசபெத்	-10.7232
▁ஹேமந்த்	-10.7232
▁எதிர்காலத்தை	-10.7233
▁வழங்கப்பட்டுள்ள	-10.7238
▁தருமபுரம்	-10.7238
▁செயலகத்தில்	-10.7239
▁நடிப்பில்	-10.724
▁அப்படிப்பட்ட	-10.7241
▁வெளியேறினார்	-10.7242
▁கேட்டோம்	-10.7242
▁நியாயமான	-10.7243
▁இடைவெளி	-10.7246
▁மீனா	-10.7248
▁கிர	-10.7257
▁இல்லத்தில்	-10.7258
▁மகன	-10.726
கிர	-10.7263
▁அடிக்கல்	-10.7266
▁கண்டன	-10.7266
▁தடவை	-10.7269
▁ஆப்பிரிக்கா	-10.727
▁தொ	-10.727
▁விற்ற	-10.7272
+	-10.7272
ிற்காக	-10.7275
▁கோயிலை	-10.7277
▁சப்	-10.728
▁இப்	-10.7286
▁வருகின்ற	-10.7289
▁வெல்லும்	-10.729
▁நகைகள்	-10.7292
ெய்	-10.7292
▁சுமந்து	-10.7295
▁சுட்டு	-10.7296
▁அச்சுறுத்தல்	-10.7298
▁கொடுத்தால்	-10.7299
பிறகு	-10.7301
▁முஸ்லீம்	-10.7301
▁கருத்துக்கணிப்ப	-10.7301
▁மாப்பிள்ளை	-10.7302
▁வேண்டுமானால்	-10.7302
▁அப்போதே	-10.7304
▁நானே	-10.7305
▁பறக்க	-10.7305
குடி	-10.7305
விதமான	-10.7306
▁சில்வா	-10.7307
▁தேநீர்	-10.7311
▁இவற்றில்	-10.7312
▁முத்திரை	-10.7313
▁இதேபோல	-10.7314
▁மாநிலங்களிலும்	-10.7314
▁ஆதரிக்க	-10.7317
▁எதற்கு	-10.7317
ரத்ன	-10.732
▁இலங்கையை	-10.7321
▁கடிதத்தை	-10.7326
▁ஃபை	-10.7326
▁மறைமுக	-10.733
▁அகல	-10.733
▁எழுதினார்	-10.7335
▁சிகிச்சைக்கு	-10.7335
▁கல்யாணம்	-10.7335
▁கொண்டுவந்த	-10.7338
▁லெபனான்	-10.7338
▁பாதுகாப்ப	-10.7339
▁பாராட்டிய	-10.734
▁டீம்	-10.7341
j	-10.7341
▁சாதிய	-10.7342
பெண்	-10.7342
ச்சை	-10.7344
▁எதிரானது	-10.7348
▁உட்	-10.7349
▁படையினர	-10.7349
▁உணர்வ	-10.7349
▁கொண்டுள்ளார்	-10.7349
▁நைட்	-10.7351
ின்போது	-10.7353
▁நட்சத்திரம்	-10.7353
▁ஆக்	-10.7355
த்தினர்	-10.7358
▁கட்டுக்குள்	-10.7359
ியிருக்கிறார்	-10.7359
▁ஆனார்	-10.736
▁பட்டா	-10.736
ப்படுகிறார்கள்	-10.7362
▁இயக்கத்தின்	-10.7362
▁கேப்டனாக	-10.7367
▁செஞ்சி	-10.7372
▁உற்சாக	-10.7372
▁போகிறார்	-10.7375
▁பலன்களை	-10.7376
த்தன்மை	-10.7378
▁காப்பீடு	-10.7382
▁சிபிசிஐடி	-10.7382
▁டக்ளஸ்	-10.7382
▁எரிசக்தி	-10.7382
▁அமமுக	-10.7382
▁முதன்முறையாக	-10.7383
▁சிட்டி	-10.7384
நே	-10.7386
▁செயல்படுகிறது	-10.739
டித்து	-10.7391
ருக்கும்	-10.7394
▁தனித்தனியாக	-10.7397
▁போக்க	-10.7399
▁வாச	-10.7403
▁அறிவ	-10.7405
▁விழுந்தது	-10.7405
▁நடுவே	-10.7406
▁குறிப்பு	-10.7406
▁செல்போனை	-10.7406
▁பிரிவுகளின்	-10.7408
▁பூமியில்	-10.7415
▁புர	-10.7417
▁வீதிகளில்	-10.7417
▁உருவாக	-10.7419
▁கூறப்பட்ட	-10.742
.15	-10.742
▁மேஷ	-10.7421
▁அழைக்கப்பட்ட	-10.7421
▁கிடைக்காது	-10.7421
▁சீர்திருத்த	-10.7423
க்கொண்டார்	-10.7425
▁குடும்பத்திற்கு	-10.7426
▁சிம்ம	-10.743
▁வேலைகள்	-10.7431
ஸ்த	-10.7434
பாஜக	-10.7434
▁பதிவான	-10.7436
▁ஹோ	-10.7439
▁பேச்ச	-10.7451
▁கோர்	-10.7456
▁திருகோணமலை	-10.7463
▁உண்டியல்	-10.7463
▁டெலிவரி	-10.7463
▁பரம்பரை	-10.7464
▁சீனாவுக்கு	-10.7469
▁ஏராளமானோர்	-10.7469
▁வருடங்களில்	-10.7471
▁உரையாடல்	-10.7472
▁குழும	-10.7474
▁நிகழும்	-10.7475
▁மாநிலத்தை	-10.7476
▁எதுவும	-10.7478
▁பணிபுரிந்து	-10.7479
▁ரஜினிகாந்த்	-10.748
▁கூட்டமைப்பு	-10.7482
▁பொதுக்குழுவை	-10.7483
▁வயிற்று	-10.7483
▁நடைபெறவுள்ள	-10.7492
நாயக	-10.7497
▁அழகிய	-10.7498
▁உற்பத்தியை	-10.7499
▁பத்திர	-10.7501
▁போஸ்	-10.7506
▁அற	-10.7509
விழா	-10.7509
ப்பதற்கான	-10.751
▁நடந்தால்	-10.7512
ிருக்கிற	-10.7512
முடி	-10.7512
▁பார்வையாளர்கள்	-10.7512
▁விலங்கு	-10.7513
▁சேதம்	-10.7514
▁எழுதப்பட்ட	-10.7514
▁டிரம்ப	-10.7515
▁பயன்படுத்துவது	-10.7515
▁உரிமையாளர்கள்	-10.7521
▁முன்னேறி	-10.7527
▁ஆர்வலர்	-10.7533
▁என்றுதான்	-10.7535
▁மானிய	-10.7536
▁தாக்குதல்கள்	-10.7537
ங்கோ	-10.7538
▁பேரின்	-10.754
35	-10.7541
▁வைத்தியசாலை	-10.7545
▁என்பன	-10.7545
▁திங்கட்கிழமை	-10.7546
▁மதிமுக	-10.7547
▁ரோஜா	-10.7547
▁விலைவாசி	-10.7547
▁பாண்டிய	-10.7549
▁பதிவாகியுள்ளது	-10.7549
▁பெருக்க	-10.755
▁குவிந்த	-10.755
▁சட்டப்	-10.7555
▁ஆந்திராவில்	-10.7556
▁மஹ	-10.7557
▁திருக்கல்யாணம்	-10.7557
▁வாரி	-10.7561
▁குறியீடு	-10.7561
▁கடல	-10.7563
▁அன்	-10.7565
▁வகிக்கும்	-10.7565
▁தேதிக்கு	-10.7567
▁பேசவில்லை	-10.7567
ங்களுக்கும்	-10.757
▁கோடியே	-10.7576
▁தப்ப	-10.758
▁தொண்டு	-10.7584
▁ஹாரிஸ்	-10.7584
▁தாமதம்	-10.7585
▁மலையாள	-10.7585
கரை	-10.7586
▁பேட்டர்கள்	-10.7588
▁49	-10.7589
▁கொள்ளவில்லை	-10.7596
▁கற்றுக்	-10.7598
▁வக்ர	-10.7601
▁திருப்பணி	-10.7603
▁விட்டதாக	-10.7604
▁ஆவின்	-10.7606
▁ஒழிப்புத்துறை	-10.7606
▁சாத்த	-10.761
▁பறிக்க	-10.761
▁புகைப்படங்களை	-10.7612
▁பதிவுசெய்ய	-10.7613
▁வியாபாரி	-10.7613
பல்	-10.7613
ul	-10.7613
▁ஜனாதிபதியாக	-10.7614
புரத்தில்	-10.7622
▁ரஞ்சித்	-10.7622
▁இவர	-10.7623
▁ஒன்றியம்	-10.7624
▁கோயில்களில்	-10.7626
▁முன்னோக்கி	-10.7628
▁விசேஷ	-10.7628
▁அப்புறம்	-10.7628
லிருந்து	-10.7629
▁பகவான	-10.763
▁மெதுவாக	-10.7631
▁அருகேயுள்ள	-10.7632
▁துவக்கி	-10.7632
தாலும்	-10.7635
▁அளித்துள்ள	-10.7637
▁டொனால்ட்	-10.7638
▁பழனிசாமிக்கு	-10.764
▁அதிகாரிகளிடம்	-10.7641
▁புறநகர்	-10.7642
▁அட்	-10.7642
▁ரயில்கள்	-10.7642
▁இலட்சம்	-10.7645
▁சரியா	-10.7645
▁உடனடி	-10.7649
▁சிறுநீர்	-10.765
க்குரிய	-10.7652
▁மாத்திரை	-10.7659
ot	-10.7661
▁2018-	-10.7665
▁கிளம்பிய	-10.7666
▁சட்டங்களை	-10.767
▁சூட்ட	-10.7672
சுப்பிரமணியன்	-10.7673
்கிய	-10.7674
▁வருவார்கள்	-10.7675
▁மாணவன்	-10.7677
வள்	-10.7679
▁நபர்களை	-10.7683
▁ஓய்வூதிய	-10.7685
▁சுட்டிக்காட்டி	-10.7686
▁அவர்களும்	-10.7686
▁அரசே	-10.7687
▁பிரிந்த	-10.7687
▁எண்ணை	-10.769
33	-10.7692
▁ஒன்றிணைந்து	-10.7693
கரு	-10.7695
▁இணையதளம்	-10.7696
▁பாபா	-10.7697
▁அவளை	-10.7697
நிலையில்	-10.7697
▁விளைவு	-10.7699
▁திருவ	-10.7701
un	-10.7701
த்திற்குப்	-10.7707
▁இதுபோல	-10.7708
▁இருவருமே	-10.7712
▁நேரிடும்	-10.7712
▁செய்வோம்	-10.7713
▁நரசிம்ம	-10.7714
▁அப்துல்லா	-10.7714
▁ஓய்வுபெற்ற	-10.7715
▁வார்டில்	-10.7718
▁பேசியதாக	-10.772
▁120	-10.772
▁எல்லோருக்கும்	-10.7723
▁வேளாண்மை	-10.7724
▁நினைவ	-10.7724
வுக்கான	-10.7725
▁தனித்துவமான	-10.7726
▁போட்டிக்கு	-10.7727
▁மோதிய	-10.7738
▁கோரிக்கைகள்	-10.7739
▁ஈடுபடும்	-10.7739
▁பாடலை	-10.7741
▁தரவுகள்	-10.7748
▁தொழில்நுட்பத்தை	-10.7754
▁மாநிலங்கள	-10.7757
▁வராது	-10.7758
▁கிளம்ப	-10.7761
▁எடப்பாடிக்கு	-10.7763
▁பலியாகி	-10.7766
hi	-10.7767
▁அவரைக்	-10.7767
▁வங்கதேசம்	-10.7767
▁இணைத்து	-10.7775
▁நிறுத்தம்	-10.7779
ிட்ட	-10.7782
ணர்	-10.7784
▁உறுதியளித்த	-10.7785
ப்படுவதாகவும்	-10.7788
▁ஃபி	-10.7789
▁தாக்கப்பட்ட	-10.7789
▁நெதன்யாகு	-10.7795
▁வரதராஜ	-10.7796
▁எல்லாவற்றையும்	-10.7796
▁பொருளாளர்	-10.7796
▁சரமாரியாக	-10.7797
▁புரிந்த	-10.7798
▁சீர்	-10.78
▁வானதி	-10.7801
▁பெற்றுள்ளனர்	-10.7802
▁வகித்து	-10.7802
▁நு	-10.7805
யாகவே	-10.7806
▁புரிய	-10.7806
▁சத்ய	-10.7808
▁விஷம்	-10.7808
▁அழகான	-10.7809
▁செயற்கைக்கோள்	-10.7811
நாள்	-10.7815
மத	-10.7816
வோடு	-10.7817
▁பொறுப்ப	-10.782
▁மாட்டு	-10.782
▁கேட்டேன்	-10.782
லூர்	-10.782
▁தேவஸ்தான	-10.7821
▁காணவில்லை	-10.7824
▁உரையில்	-10.7825
யிருக்கிறது	-10.7825
▁மெகா	-10.7833
▁திசையில்	-10.7833
▁ஆதாரங்கள்	-10.7834
▁பதிலளிக்க	-10.7836
ter	-10.7836
▁நடைமுறையில்	-10.7837
▁கண்டுபிடித்து	-10.7839
▁ஒட்டுமொத்தமாக	-10.7839
▁வெடித்தது	-10.784
ிர்	-10.784
ாவ	-10.7842
▁பார்த்தார்	-10.7843
ியன்	-10.7844
▁ஒருசில	-10.7844
▁20-	-10.7844
▁தொழிலாளி	-10.7844
▁தட்டு	-10.7846
▁கெலாட்	-10.7848
▁தீர்ப்பளித்த	-10.7849
யின்றி	-10.785
வெளி	-10.785
பன்னீர்	-10.7851
▁பாலு	-10.7851
பத்	-10.7852
▁உயரும்	-10.7852
▁கட்சிகளை	-10.7856
▁வாயில்	-10.7858
▁செய்தோம்	-10.7859
▁கதவை	-10.7865
▁நீள	-10.7868
ாளர	-10.7868
▁கொண்டால்	-10.7869
▁காதல	-10.7871
▁மாட்ட	-10.7873
▁தோழி	-10.788
▁உடன்படிக்கை	-10.788
▁கடைப்பிடிக்க	-10.788
▁மார்க்சிஸ்ட்	-10.788
▁ட்ரூடோ	-10.788
▁பரமக்குடி	-10.788
▁அனிதா	-10.788
▁போவதில்லை	-10.788
▁கனி	-10.7882
▁நபர்களுக்கு	-10.7882
▁எஸ்டேட்	-10.7882
▁சிக்கலான	-10.7882
▁நிரம்பிய	-10.7883
ளே	-10.7885
▁ஆட்டமிழந்தார்	-10.7885
▁எல்லையை	-10.7885
▁பேருந்தில்	-10.7886
▁நூற்றாண்டில்	-10.7887
லிய	-10.7888
▁பர	-10.7888
▁தொடங்குகிறது	-10.7889
▁வருபவர்	-10.7889
▁இதையெல்லாம்	-10.7889
▁பரிசாக	-10.7891
▁1,000	-10.7893
▁அம்மனை	-10.7893
▁அக்னிபாத்	-10.7893
▁சுந்தர்	-10.7893
▁உணர்வுகளை	-10.7898
▁மந்திர	-10.7901
▁எழுப்பினர்	-10.7901
ர்ட்	-10.7902
▁செய்யத்	-10.7902
▁தரையில்	-10.7906
▁பேசுகிறார்	-10.7906
ிரு	-10.7907
▁நிலங்கள்	-10.7908
▁தோன்ற	-10.791
▁பாராட்ட	-10.7912
▁மாற்றும்	-10.7917
▁மண்டலம்	-10.7923
▁சித்தி	-10.7924
▁வாக்கெடுப்பு	-10.7926
அவர்	-10.7928
▁தொகுதிகளை	-10.7928
▁அந்நாட்டின	-10.7928
▁செய்துள்ளதாக	-10.7928
காம்	-10.793
ளு	-10.7931
▁தீர்மானங்களை	-10.7932
▁கழிவு	-10.7936
பேட்டை	-10.7937
▁போஸ்ட்	-10.7937
▁சீனியர்	-10.7938
▁சட்டை	-10.7938
▁விண்ணப்பித்த	-10.7943
▁நே	-10.7946
▁கொண்டுள்ளனர்	-10.795
▁அரண்மனை	-10.7951
▁இளைஞர்களை	-10.7951
▁யோசிக்க	-10.7957
▁பேசிக்	-10.7958
▁வந்தே	-10.7961
▁நாள்களில்	-10.7962
▁கோளாறு	-10.7964
▁நிதியுதவி	-10.7965
▁உகந்த	-10.7966
▁2023-	-10.7966
▁நடவடிக்கைகளில்	-10.7966
▁பருத்தி	-10.7968
▁தயாரிப்பாளர்	-10.7969
▁ஒட்ட	-10.797
▁விரும்பி	-10.7973
▁தட	-10.7974
▁காஸாவில்	-10.7974
▁வரம்பு	-10.7975
▁பத்திரமாக	-10.7975
▁செல்கிறது	-10.7977
▁வித்	-10.7977
▁6:00	-10.7978
▁58	-10.798
▁சங்கட	-10.7983
▁கிரா	-10.7985
▁f	-10.7985
▁முனைவர்	-10.7985
▁19-	-10.7987
.9	-10.7987
ராமன்	-10.7988
ாவை	-10.799
▁வளர்ப்ப	-10.7992
▁செயலர்	-10.7997
▁இறை	-10.7998
▁பாதையை	-10.7999
▁சென்	-10.8
▁பிரச்சினைகளை	-10.8002
▁அமைப்பான	-10.8002
▁மண்ணில்	-10.8002
▁கும்பல	-10.8002
▁வித்தியாசம்	-10.8006
▁அவர்களுடன்	-10.8009
னிக்	-10.801
▁மாசு	-10.8011
▁கொடுப்ப	-10.8014
▁சத	-10.8015
▁அமைக்கப்படும்	-10.8016
ேரி	-10.8018
▁யுத்தம்	-10.8018
▁ஆண்டுகால	-10.802
▁மாணவர	-10.8022
▁பாதுகாக்கும்	-10.8022
2023	-10.8023
▁பொய்யான	-10.8029
கட்டுரை	-10.8034
னேன்	-10.8039
ுவதோடு	-10.8043
▁ஆதார	-10.8043
▁பாதிப்புகளை	-10.8044
வைக்க	-10.8047
வரு	-10.8048
ாறு	-10.8048
▁சபையில்	-10.8048
▁செயல்பாடுகளை	-10.8049
▁பெண்களும்	-10.8051
▁அன்ப	-10.8051
▁மகிந்த	-10.8052
▁வாகனத்தை	-10.8053
▁குவித்த	-10.8054
▁கட்டங்களாக	-10.8055
▁தலையை	-10.8057
▁கீதா	-10.8058
▁சூரியன	-10.8059
▁உட்கார	-10.8059
▁7-	-10.8061
▁ஏற்படுத்துகிறது	-10.8062
▁வசூலிக்க	-10.8063
▁லட்சத்திற்கு	-10.8065
ாட	-10.8065
▁காதலித்து	-10.8065
▁பரபரப்பாக	-10.8065
▁கேட்டதற்கு	-10.8066
▁ஓடும்	-10.8066
▁1-	-10.8066
▁கொள்கைகள்	-10.8067
▁காங்	-10.8068
▁தோறும்	-10.8069
▁சாட்சி	-10.8073
▁பார்த்தேன்	-10.8075
▁போனில்	-10.8075
▁தசை	-10.8075
▁வேட்பாளரை	-10.8076
▁இருந்திருந்தால்	-10.8077
▁நட்சத்திரத்தில்	-10.8079
▁கவர்னர்	-10.8079
விட்டதாகவும்	-10.8079
▁தொண்டர்கள	-10.8081
▁சனிபகவான்	-10.8082
மில்	-10.8083
▁கைதிகள்	-10.8084
▁மேலாளர்	-10.8084
▁நிறுத்திய	-10.8087
▁குடித்து	-10.8089
▁பெறப்பட்ட	-10.8092
.20	-10.8092
காலத்தில்	-10.8095
பட்டு	-10.8097
▁அளிப்ப	-10.8106
ியும்	-10.811
▁தெளிவாகத்	-10.8112
▁திணைக்களம்	-10.8121
▁ஆச்சர்ய	-10.8124
▁அப்போ	-10.8125
000	-10.8125
▁மாற்றப்பட்ட	-10.813
▁சாலைகளில்	-10.813
ாண்ட	-10.813
பிடித்த	-10.8133
▁நகரத்தில்	-10.8134
கரமான	-10.8134
▁வீதியுலா	-10.8139
▁ஹெஸ்பொலா	-10.8139
▁வெளிவிவகார	-10.8139
▁பிள	-10.8139
▁சேகர்பாபு	-10.8139
▁சம்பாதிக்க	-10.8139
▁தேவேந்திர	-10.8139
▁பின்னரே	-10.8139
▁பொருத்தவரை	-10.8141
▁அதற்குள்	-10.8142
▁ஸ்ரீதேவி	-10.8143
▁போலீசில்	-10.8143
▁உலகளவில்	-10.8143
வாக்க	-10.8145
▁வெடிப்பு	-10.8146
▁விவகாரங்கள்	-10.8147
▁வடிவமைக்கப்பட்ட	-10.8148
▁பிளஸ்	-10.8148
▁வகுப்பறை	-10.8149
ai	-10.815
▁வீசப்பட்ட	-10.8152
▁விக்னேஷ்	-10.8153
வட	-10.8154
37	-10.8156
▁இந்நாட்ட	-10.8156
தொரு	-10.8157
சார	-10.8159
▁காடு	-10.8162
▁கடக்க	-10.8164
▁எங்களால்	-10.8165
▁ஸ்ட	-10.8166
▁விடுதியில்	-10.8167
சிவ	-10.8169
▁தாலி	-10.817
▁குற்றவாளிகளை	-10.8171
ுவதும்	-10.8172
▁துன்ப	-10.8175
களிலேயே	-10.8186
▁மரங்கள்	-10.8187
▁a	-10.8189
▁நிலையத்துக்கு	-10.819
▁நுழைவு	-10.8194
யர	-10.8195
▁தலைவரை	-10.8196
▁செல்வன்	-10.8196
▁2012	-10.8197
▁வாடகைக்கு	-10.8198
▁சரண்	-10.8204
▁பொதுச்செயலாளராக	-10.8205
▁இருக்கை	-10.8205
▁அரசாணை	-10.8206
▁ஈடுபட்டார்	-10.8206
▁பொழுது	-10.8207
▁விரும்பாத	-10.821
▁வன்முறையை	-10.8212
▁சண்முகம்	-10.8219
▁உடைந்த	-10.8219
▁செய்யும்போது	-10.8221
▁தீபக்	-10.8223
▁விருதை	-10.8224
விடுகிறது	-10.8226
▁ஏகாதசி	-10.8226
▁மேஜர்	-10.8226
▁ஜார்ஜ்	-10.8227
▁வாய்ப்பில்லை	-10.8227
▁ஆளுமை	-10.8227
▁சமூகநீதி	-10.8228
▁ராமசாமி	-10.8232
▁வரப்போகிறது	-10.8232
▁கொள்கைகளை	-10.8235
▁கொவிட்	-10.8236
▁ஆண்டாள்	-10.8239
▁அடிமை	-10.824
ென்	-10.8241
▁அமைச்சரும்	-10.8241
▁வருத்த	-10.8241
▁52	-10.8242
▁இன்ப	-10.8246
▁போரின்	-10.8247
▁நகரை	-10.825
▁அளிக்கப்பட்டு	-10.8251
▁பாதிக்கப்படும்	-10.8252
மெண்ட்	-10.8256
▁உணவக	-10.8257
▁திருமணத்தை	-10.8258
▁சண்முக	-10.8261
▁எடுத்துள்ளது	-10.8263
▁அம்சங்கள்	-10.8264
▁களமிறங்க	-10.8265
▁அடக்கம்	-10.8269
▁சென்றதாக	-10.8275
▁தொடங்கப்பட்ட	-10.8276
▁கதிர்	-10.8277
▁தேதிகளில்	-10.8278
▁பிரமாண்ட	-10.8279
▁மூச்சு	-10.828
▁அமெரிக்காவை	-10.8284
▁கிறிஸ்தவ	-10.8288
▁மதிப்ப	-10.8288
▁வழங்கினர்	-10.829
▁வில்	-10.8291
▁நடிகர்கள்	-10.8298
▁அழைக்கப்படுகிற	-10.83
▁வீட்டுக்குள்	-10.8301
கிட்டே	-10.8302
▁முயன்றார்	-10.8303
▁பறந்து	-10.8308
▁சுனாமி	-10.8315
▁பெறுமதி	-10.8315
▁தேர்தலின்	-10.8315
▁உயர்மட்ட	-10.8317
▁செளதி	-10.8317
▁கிழமை	-10.832
▁2004	-10.832
▁நேரத்திற்கு	-10.8322
▁புள்ளிகளுடன்	-10.8322
▁வான	-10.8323
▁கணவரை	-10.8324
▁குரலில்	-10.8326
▁தேடும்	-10.8328
▁தூக்கு	-10.8331
▁தள்ளப்பட்ட	-10.8333
ுவிடும்	-10.8336
▁முகத்தை	-10.834
▁உற்சவர்	-10.834
▁பலருக்கு	-10.834
▁பயன	-10.8342
▁விட்டுவிட்டு	-10.8343
▁பிராந்தியத்தில்	-10.8344
▁பொருத்தப்பட்ட	-10.8347
▁துலாம்	-10.8347
▁பூச்சி	-10.8348
▁வைத்துக்கொண்டு	-10.8351
▁இந்தியன்ஸ்	-10.8352
▁நேரமாக	-10.8357
த்தூர்	-10.8358
▁பேருக்கும்	-10.8361
▁ரிஷப	-10.8363
ப்பட்டால்	-10.8364
▁பிரச்சனைகள்	-10.8367
▁விவாத	-10.8368
▁2009	-10.8369
▁ஊதியம்	-10.837
▁சாலைகள்	-10.8371
▁கொன்று	-10.8372
ஜித்	-10.8372
▁மகனுக்கு	-10.8374
ொன்று	-10.8375
J	-10.8375
வரம்	-10.8375
▁தொடரின்	-10.8375
▁ஆசிரியர	-10.8377
▁மிஸ்	-10.8378
▁காணப்பட்டது	-10.838
▁போனால்	-10.8381
குல	-10.8382
▁பாய்ந்த	-10.8385
▁வழங்கல்	-10.8385
▁பழகி	-10.8387
▁கொழுப்பு	-10.8387
▁எடுப்ப	-10.839
▁அறிமுக	-10.8391
05	-10.8393
▁மருத்துவர	-10.8398
டியா	-10.8399
▁பேக்	-10.8403
▁செய்யப்படவில்லை	-10.8404
▁அதற்கமைய	-10.8404
▁கணிசமாக	-10.8404
▁எய்ம்ஸ்	-10.8404
▁ஐந்தாவது	-10.8404
ப்பிர	-10.8405
▁கடைபிடிக்க	-10.8405
▁தீர்த்து	-10.8405
▁ராகுல்காந்தி	-10.8405
▁போவது	-10.8408
▁புடவை	-10.8408
▁பாணியில்	-10.8411
▁மாய	-10.8412
▁8-	-10.8412
ிப்பு	-10.8412
▁பங்கேற்ப	-10.8413
▁வங்கியில்	-10.8414
▁ஆயுதம்	-10.8415
▁டெண்டர்	-10.8415
▁ஒருவர	-10.8416
▁கிரிக்கெட்டில்	-10.8421
▁ஊர்தி	-10.8421
▁நியமித்த	-10.8421
▁காய்கறி	-10.8422
▁உறுப்பினர்களை	-10.8423
ப்படவுள்ளது	-10.8423
▁வேண்டியுள்ளது	-10.8425
ையே	-10.8425
▁வருவார்	-10.8426
▁தீர்ப்ப	-10.8429
▁விளையாடும்	-10.8431
▁ஓவரை	-10.8432
▁சமன்	-10.8435
▁கிருஷ்ணன்	-10.8435
▁அரசுக்கும்	-10.8435
▁கிராமப்புற	-10.844
▁வர்ற	-10.8443
▁நிலையத்தின்	-10.8444
வந்தார்	-10.8445
▁ரோடு	-10.8446
▁பாதியில்	-10.8447
ட்ரோ	-10.8449
▁பழக	-10.8452
▁அடையாளத்தை	-10.8452
ப்படுவதால்	-10.8459
ின்படி	-10.8462
▁மறைமுகமாக	-10.8463
▁அணிகளுக்கு	-10.8463
▁பயன்படுத்தலாம்	-10.8463
ியிருக்கிறது	-10.8465
▁நீடிக்க	-10.8467
▁கொண்டுள்ள	-10.8468
▁கருத்துக்	-10.8468
▁தொடுத்த	-10.8472
ிகள்	-10.8475
யிருந்த	-10.8477
▁அவனுக்கு	-10.8478
முடியும்	-10.8481
▁/	-10.8481
id	-10.8482
▁54	-10.8483
▁பிறப்பு	-10.8484
ிலோ	-10.8487
▁11-	-10.8488
▁ரசாயன	-10.8489
▁செய்தார்கள்	-10.8492
▁அனுமதிக்கப்பட	-10.8492
▁ஹர்	-10.8493
▁பல்லாயிரக்கணக்க	-10.8494
▁தேவானந்தா	-10.8494
▁உளவியல்	-10.8494
▁மீட்டெடுக்க	-10.8494
▁வீதம்	-10.8495
▁ஆத்திரமடைந்த	-10.8495
▁அர்ச்சனை	-10.8495
▁புவி	-10.8496
▁பெங்களூரில்	-10.8499
▁விஷயங்களில்	-10.8502
▁திருமதி	-10.8502
▁மான	-10.8504
▁கிராமத்தை	-10.8504
▁கெடு	-10.8505
ிக்கும்	-10.8505
▁7:00	-10.8506
▁விரும்புகிறது	-10.8506
▁நம்பப்படுகிறது	-10.851
▁அன்பில்	-10.8513
▁அஸ்	-10.8516
▁பழங்கள்	-10.8517
▁பாக	-10.8517
ிருக்கு	-10.8519
▁வாக்னர	-10.852
▁சூடான	-10.852
▁விக்ரம	-10.8522
▁குறிக்கும்	-10.8524
▁மதுபான	-10.8524
▁05	-10.8526
களுக்கே	-10.8527
▁உச்சம்	-10.8528
போக	-10.8529
▁தன்மையை	-10.853
▁அதுமட்டுமல்ல	-10.8531
▁பிரச்னைக்கு	-10.8534
ப்பதாக	-10.8534
▁பிரபலங்கள்	-10.8534
▁திரைப்படத்தில்	-10.8536
▁2014-	-10.8537
▁டெக்	-10.854
கம	-10.8545
ில்லாத	-10.8546
▁உழைப்பு	-10.8549
▁செய்திருக்கிறது	-10.855
▁கம்பம்	-10.8553
▁செயல்களில்	-10.8555
▁மக்களால	-10.8556
▁தொடர்ந்தார்	-10.8557
▁எண்ணி	-10.8559
▁பரிந்துரைத்த	-10.8559
வியல்	-10.8561
▁செய்வத	-10.8562
▁காரணமா	-10.8564
.00	-10.8567
▁தென்னிந்திய	-10.8572
▁வரையிலும்	-10.8574
ுக்குச்	-10.8576
ரல்	-10.8576
▁மாநிலங்களை	-10.8577
மல	-10.8579
▁நிலையத்தை	-10.858
▁இரத்த	-10.8584
▁ஏறக்குறைய	-10.8585
▁வேள்வி	-10.8585
▁ஒவ்வோர	-10.8585
▁ஐஐடி	-10.8585
▁ஆறாம்	-10.8585
▁அரங்க	-10.8586
▁வங்காள	-10.8586
▁அன்னை	-10.8586
▁கருணை	-10.8587
▁பரபரப்பான	-10.8589
▁பரிதாபமாக	-10.8589
▁தந்தார்	-10.859
▁தபால்	-10.859
▁நிர்வாகிகளை	-10.8593
▁கொழும்பில்	-10.8595
▁வகுப்பில்	-10.8595
▁ராதாகிருஷ்ணன்	-10.8596
▁வெளியாகின	-10.8598
▁ராஜூ	-10.8599
▁வர்மா	-10.86
▁நோக்கமாக	-10.8603
▁பந்துவீச்சை	-10.8604
▁தரவுகளை	-10.8605
▁சுட்ட	-10.8605
ீன்	-10.8607
06	-10.8612
ப்பூ	-10.8612
▁தட்ட	-10.8613
▁ஆட்சியின்	-10.862
ுமோ	-10.8623
▁தலைமறைவாக	-10.8626
▁வைத்துள்ள	-10.8629
▁யூனிட்	-10.8633
ுள்	-10.8635
▁நடைபெறவுள்ளது	-10.8638
▁ஈர்ப்பு	-10.8639
▁பந்துவீச	-10.8641
▁பெருமையை	-10.8647
▁பெறவில்லை	-10.8649
Y	-10.8649
▁வைத்திருந்தார்	-10.8649
▁ஸ்டாலினுக்கு	-10.865
▁குழுமம்	-10.865
▁அனைவர	-10.8654
▁தலைவருக்கு	-10.8657
▁பயணிக்கும்	-10.866
▁விசாரணையின்	-10.8666
தள	-10.8669
▁ராஜன்	-10.867
▁உதவியாளர்	-10.8671
▁மற்றவர்கள்	-10.8672
▁மேற்கோள்	-10.8676
▁எந்தெந்த	-10.8677
▁கழுத்தில்	-10.8677
▁ஜேம்ஸ்	-10.8677
▁பிறக்கும்	-10.8678
▁தயிர்	-10.8679
▁கவிதை	-10.868
▁மூழ்கிய	-10.8682
▁இருப்பு	-10.8683
▁வலைத்தளத்தில்	-10.8684
▁திரும்பும்	-10.8687
▁கட்டப்பட்டு	-10.8688
▁விரல்	-10.8689
▁முறைமை	-10.869
▁பெரி	-10.8694
▁இத்	-10.8697
▁தெளிவுபடுத்த	-10.8697
▁ஜு	-10.8699
▁தோன்றிய	-10.87
▁வடிவில்	-10.8701
ரக	-10.8701
▁மயக்க	-10.8703
▁இயந்திர	-10.8703
▁ஆவணி	-10.8704
▁பார்ப்ப	-10.871
▁பைடன	-10.8711
▁பரிமாற்ற	-10.8712
▁பிரசாதம்	-10.8713
▁கதவு	-10.8713
▁சவுதி	-10.8714
ab	-10.872
▁சிரமம்	-10.8721
▁கேஸ்கள்	-10.8721
▁காய்	-10.8723
▁ரகசியமாக	-10.8725
▁144	-10.8726
▁பலப்படுத்த	-10.8728
▁வாய்ப்புள்ளதாக	-10.8728
▁அனுமதித்த	-10.8732
▁யுக்ரேன	-10.8734
02	-10.8738
வாசல்	-10.8743
▁பல்கலைக்	-10.8746
▁பேசியிருந்தார்	-10.8748
மாகி	-10.875
▁ஆசாத்	-10.875
▁நியாயம்	-10.8751
▁மருத்துவப்	-10.8752
▁கலவர	-10.8761
▁விவரிக்க	-10.8762
▁செல்லவில்லை	-10.8762
▁தாலுகா	-10.8763
ion	-10.8764
▁அர்	-10.8765
▁பொள்ளாச்சி	-10.8769
▁மகாத்மா	-10.877
▁காயத்ரி	-10.877
▁தென்மேற்கு	-10.877
▁அருணாச்சல	-10.8771
▁எங்களுடைய	-10.8771
▁கவலைப்பட	-10.8772
▁கீவ்	-10.8772
▁கருதுகின்றனர்	-10.8772
▁முதன்	-10.8773
க்களின்	-10.8773
▁நலத்துறை	-10.8773
▁இடத்திலேயே	-10.8774
▁வாட்ஸ்	-10.8775
▁உண்மையிலேயே	-10.8776
▁மாறிவிட்டது	-10.8777
கால்	-10.8777
▁அப்பாவி	-10.8778
▁நீடித்த	-10.8779
▁ஷமி	-10.8779
▁பாஜகவுடன்	-10.8781
பாடு	-10.8782
ளம்	-10.8785
▁விவேக்	-10.8786
▁கருட	-10.8786
▁வெளியேற்றப்பட்ட	-10.8788
▁அதிர	-10.8788
பள்ளி	-10.8789
▁இடமாக	-10.8791
▁விளக்குகிறார்	-10.8794
வினை	-10.8795
▁உயிர	-10.88
▁தோல்விக்கு	-10.8802
▁உன்னை	-10.8802
"...	-10.8803
▁உத்தரபிரதேச	-10.8805
யிர	-10.8807
ப்பார்கள்	-10.8809
▁உற்பத்தியில்	-10.8809
▁பிரதமர	-10.8812
ுவாரா	-10.8812
▁தினத்தில்	-10.8814
▁களமிறங்கி	-10.8815
▁தண்டனையை	-10.8815
▁செயலை	-10.8817
ta	-10.8818
▁ஆரம்பிக்கப்பட்ட	-10.8819
▁வயதை	-10.8821
▁சம்பந்த	-10.8822
▁பதிலை	-10.8822
▁பார்த்ததும்	-10.8822
▁கிட்ட	-10.8825
அதுமட்டுமல்லாமல்	-10.8826
ப்பதை	-10.8831
▁ஆதாரம்	-10.8832
▁மாமா	-10.8832
தல்ல	-10.8836
▁பாராளுமன்றத்தில	-10.8837
▁அற்புத	-10.8837
▁விளைவுகளை	-10.8838
தமிழக	-10.8839
▁சுமை	-10.8843
▁முகத்தில	-10.8843
▁எதிர்கொண்டு	-10.8844
▁செய்யக்	-10.8844
▁மனிதர்கள	-10.8845
▁பவனி	-10.885
▁செல்லப்பட்ட	-10.8852
▁மகர	-10.8852
▁கண	-10.8855
▁காப்ப	-10.8857
▁பங்களா	-10.8861
te	-10.8863
▁திருப்பரங்குன்ற	-10.8863
▁சரும	-10.8863
▁வீட்டிலேயே	-10.8863
▁திரைக்கதை	-10.8863
▁அமைச்சருமான	-10.8863
▁சங்கிலி	-10.8863
▁புறக்கணித்த	-10.8864
▁வகையிலான	-10.8864
ம்மாள்	-10.8864
▁தீபம்	-10.8865
▁கிளி	-10.8865
▁ஏசி	-10.8866
▁மிஸ்ரா	-10.8866
▁ராஜு	-10.8866
▁உணர்வை	-10.8867
▁விவகாரங்களில்	-10.8867
▁கையெழுத்திட்ட	-10.8868
▁வழிவகுக்கும்	-10.8869
▁சுற்ற	-10.8869
▁டைம்ஸ்	-10.887
▁ஐஸ்வர்யா	-10.8871
வதால்	-10.8872
▁நடுவில்	-10.8873
▁முழுவதுமாக	-10.8873
க்கடை	-10.8873
▁பொருளாக	-10.8875
▁ஆழமான	-10.8877
▁மக்களுக்காக	-10.8879
▁வழிநடத்த	-10.888
▁வெடிக்க	-10.8882
▁செய்தபோது	-10.8883
▁உரையை	-10.8884
▁செந்தில்குமார்	-10.8885
▁சேகரிக்க	-10.8885
ாவுக்கு	-10.8886
விர	-10.8887
▁சுற்றுப்பயணம்	-10.8887
த்திட்ட	-10.8888
▁மாநாட்டு	-10.8891
▁கற்கள்	-10.8891
ப்பதற்காக	-10.8892
01	-10.8892
▁ஹமாஸ	-10.8893
▁இவர்களில்	-10.8893
▁அயோத்தியில்	-10.8893
▁சித்து	-10.8893
▁மணிநேரம்	-10.8894
▁அமெரிக்காவுக்கு	-10.8894
▁மகனும்	-10.8897
▁ஊதிய	-10.8899
▁நடிப்பு	-10.8902
▁w	-10.8902
43	-10.8905
▁ஜப்பான	-10.8906
de	-10.8907
ேஸ்வர	-10.891
▁விஷயமாக	-10.891
மாத	-10.8913
▁கொடுக்கவில்லை	-10.8913
▁2010	-10.8917
▁In	-10.8921
▁இந்தியாவும்	-10.8921
▁செலவை	-10.8923
▁போலீஸில	-10.8931
ப்படுகின்றனர்	-10.8933
2024	-10.8935
▁63	-10.8935
காம	-10.8937
நீங்கள்	-10.8938
▁U	-10.8939
▁அதிகாலையில்	-10.8941
▁2008	-10.8948
▁படுத்து	-10.8949
விடுவார்கள்	-10.8949
▁செய்	-10.8949
வதாக	-10.8953
▁64	-10.8953
▁மின்னணு	-10.8957
▁வளைகுடா	-10.8957
▁வேட்பு	-10.8957
▁வைகுண்ட	-10.8957
▁இளைஞரணி	-10.8958
▁பின்வாங்க	-10.8959
▁குடிசை	-10.896
▁வீடான	-10.8961
▁இனிமேல்	-10.8963
▁வெங்கடேஷ்	-10.8965
▁இடிந்து	-10.8965
▁பதவிகள்	-10.8965
க்காடு	-10.8969
▁யோசித்து	-10.897
▁தூரத்தில்	-10.8971
▁வால்	-10.8974
புல்	-10.8977
▁2,000	-10.8977
தற்கும்	-10.898
▁சந்திரசூடன்	-10.8981
▁நந்தி	-10.8983
▁இருந்ததாகவும்	-10.8984
▁அய்யா	-10.8986
▁ஒருங்கிணைப்பு	-10.899
▁வேலைத்திட்டம்	-10.8992
▁15-	-10.8996
▁வேல்	-10.8997
▁தொந்தரவு	-10.8998
▁இத்தாலி	-10.8999
.25	-10.8999
▁புகாரை	-10.9
▁பதிலளித்தார்	-10.9003
▁பவர்	-10.9004
விருக்கும்	-10.9004
▁சாதாரணமாக	-10.9004
ow	-10.9004
▁சரிசெய்ய	-10.9006
▁சீரியலில	-10.9009
▁பிரிவினர்	-10.9009
▁உதவியை	-10.9014
▁72	-10.9024
▁கல்வித்	-10.9024
▁பண்டார	-10.9024
▁வீதியில்	-10.9024
Ch	-10.9028
▁சேவையில்	-10.9029
▁கட்டமைப்ப	-10.903
▁யுத்த	-10.9031
▁for	-10.9031
▁சிறுபான்மை	-10.9032
▁பற்றிப்	-10.9033
▁குழாய்	-10.9036
ol	-10.9037
▁நிறுவனத்துக்கு	-10.9038
▁பிறந்து	-10.9039
▁அட	-10.9041
▁ஜென்ம	-10.9042
▁ஒருவன்	-10.9044
▁அதிகாரியாக	-10.9046
முனை	-10.9047
த்தது	-10.9048
▁அதிருப்தியை	-10.9049
▁எதிர்வினை	-10.9049
▁புதின	-10.9051
▁ஏழரை	-10.9053
▁லாட்டரி	-10.9053
▁வேகப்பந்துவீச்ச	-10.9053
▁ஸ	-10.9054
▁திருச்சியில்	-10.9054
▁காரணங்களுக்காக	-10.9055
வினர	-10.9056
▁ஒப்பந்தத்தை	-10.9062
▁கிளப்பி	-10.9062
▁திரண்டு	-10.9064
▁அனுப்பும்	-10.9066
▁மெசேஜ்	-10.9068
▁கிரகங்கள்	-10.907
▁வடம்	-10.9072
▁செடி	-10.9073
த்துவ	-10.9074
▁சான்று	-10.9077
▁படு	-10.9078
▁சோரன்	-10.9078
▁வைப்ப	-10.9078
▁மிரட்ட	-10.9079
▁கலைஞர	-10.9079
▁பின்தங்கிய	-10.908
▁போலீஸாருக்கு	-10.9086
▁வழிபட்டு	-10.909
வாச	-10.9093
▁பொறுப்பேற்று	-10.9093
li	-10.9094
▁போலீசாருக்கு	-10.9096
▁வழியே	-10.9099
▁கொள்வ	-10.9101
▁தமிழ்நாட்டுக்கு	-10.9103
ண்டை	-10.9108
▁பூஜையும்	-10.9112
த்தே	-10.9114
▁2017-	-10.9118
உலக	-10.912
சக்தி	-10.9123
மடைய	-10.9124
▁நேர்ந்த	-10.9129
▁கரி	-10.913
▁தனித்தனி	-10.9131
▁பழி	-10.9131
▁வருமாறு	-10.9136
▁சம்பவத்திற்கு	-10.9136
47	-10.9141
▁அம்ப	-10.9141
▁பதற்றத்தை	-10.9145
தாகும்	-10.9146
▁முதலை	-10.9148
▁விவாதத்தை	-10.9149
▁இக்கோவிலில்	-10.9149
▁அடுக்குமாடி	-10.9149
▁மனுத்தாக்கல்	-10.9149
▁ரவுடி	-10.9149
▁மலேசியா	-10.9149
▁ராணிப்பேட்டை	-10.9149
▁குற்றவியல்	-10.9149
▁இருசக்கர	-10.915
▁அதிர்ச்சியில்	-10.9151
▁தண்ணீர	-10.9152
▁வன்முறையில்	-10.9153
▁நயினார்	-10.9153
▁தொடர்கிறது	-10.9153
▁ரஷ்யாவை	-10.9153
▁மக்களுக்கான	-10.9154
▁லண்டனில்	-10.9154
டியில்	-10.9154
ப்பகுதி	-10.9159
▁நிதியத்தின்	-10.9161
▁செய்கிற	-10.9161
▁நாளே	-10.9161
▁அவர்களே	-10.9163
▁கல்லறை	-10.9163
▁உட்கார்ந்து	-10.9165
▁சேகரித்து	-10.9165
▁செல்வராஜ்	-10.9167
▁செம்ப	-10.9167
ட்டின்	-10.9169
▁சந்தித்தது	-10.9174
ப்படுவதற்கு	-10.9175
▁சோம	-10.9175
▁ஐந்தாம	-10.9176
▁நிறத்தில்	-10.9181
▁எமக்கு	-10.9182
▁வழங்குகிறது	-10.9184
▁சூர	-10.9186
ுக்குத்	-10.9188
ுகிறீர்கள்	-10.9191
▁56	-10.9191
▁மெய்	-10.9193
▁நெடு	-10.9195
▁சமூகவலைதளங்களில	-10.9198
ஸ்டா	-10.9198
▁அட்டாக்	-10.9201
▁போத	-10.9204
மில்லாத	-10.9205
▁சோக	-10.9206
▁ஒளிபரப்ப	-10.9206
வதற்கான	-10.9208
▁எட்டாம	-10.9209
▁அனுபவிக்க	-10.921
▁பின்னடைவு	-10.9211
▁பிரிய	-10.9214
▁ஆராய்ந்து	-10.9215
36	-10.9216
▁திருநங்கை	-10.9216
களுக்குத்	-10.9217
▁பொறுப்பாளர்	-10.9219
▁தரப்ப	-10.922
▁m	-10.9222
▁எடுக்கப்பட்டது	-10.9223
500	-10.9223
▁குரலை	-10.9225
▁ஒருவராக	-10.9225
▁முடிவ	-10.9226
▁வெளியீட்டு	-10.9227
▁நபருக்கு	-10.9232
▁இப்படியான	-10.9235
பூர்வ	-10.9238
▁ஆளுநராக	-10.9238
கூ	-10.9239
▁தோன்றும்	-10.9243
▁நெருக்கடியில்	-10.9243
▁1.5	-10.9245
மையை	-10.9245
▁லிமிடெட்	-10.9246
▁தரிசிக்க	-10.9246
▁தீண்டாமை	-10.9246
▁தாழ்வு	-10.9246
▁பல்லக்கில்	-10.9246
▁திருவீதி	-10.9247
▁உடன்பாடு	-10.9247
▁இவருடைய	-10.9247
▁நிலவரம்	-10.9248
▁பறித்து	-10.9248
ராணி	-10.9249
▁சல	-10.9251
▁ஹோட்டலில்	-10.9252
▁9:00	-10.9255
நோ	-10.9255
▁சராசரியாக	-10.9256
▁ஃபா	-10.9257
▁அந்தவகையில்	-10.9258
▁ஆப்பிள்	-10.9258
▁மாவட்டங்களிலும்	-10.9258
▁01	-10.926
▁எல்லோர	-10.926
▁அதுபோல	-10.9261
▁இடமாற்றம்	-10.9262
▁உரிமம்	-10.9262
!"	-10.9264
▁நீங்கி	-10.9266
▁அவரைத்	-10.9268
▁பிரபாகரன்	-10.9269
▁செலாவணி	-10.9269
▁காட்சிப்படுத்த	-10.9273
▁வலைதள	-10.9274
▁திரவ	-10.9277
▁தாள	-10.9278
▁ஈரான	-10.9282
▁தொடர்பாகவும்	-10.9284
▁5,000	-10.9285
▁ஹர்ஷ	-10.929
பாஸ்	-10.9294
ாமலேயே	-10.9294
▁நீடித்து	-10.9297
▁முதலீட்டாளர்கள்	-10.9301
▁சுப்பிரமணியன்	-10.9302
▁வரவேற்ப	-10.9303
▁கட்டமைப்பை	-10.9304
ிருக்கேன்	-10.9308
▁ஈட்ட	-10.9312
ஈ	-10.9312
▁சிரிக்க	-10.9312
ாமலும்	-10.9316
வுல	-10.9317
▁சுற்றுலாத்துறை	-10.9322
▁நிறைவேற்று	-10.9322
▁பிரதோஷ	-10.9326
▁வராமல்	-10.9327
ராவ்	-10.9328
▁புள்ளிகள்	-10.933
▁கொண்டாட்ட	-10.933
▁உடைந்து	-10.9332
▁மீனவர்	-10.9332
▁ஆட்சிக்	-10.9332
▁இறுதிச்	-10.9333
▁தெப்ப	-10.9333
▁விதிக்கப்பட்டது	-10.9335
மேல்	-10.934
▁வராத	-10.9341
ுகிறதா	-10.9341
▁அநுர	-10.9344
▁தன்னம்பிக்கை	-10.9344
▁போக்சோ	-10.9344
▁திடீரென்று	-10.9344
▁திருக்கோவிலூர்	-10.9344
▁ராபர்ட்	-10.9344
▁மாறுபட்ட	-10.9344
▁ஒழுங்குபடுத்த	-10.9345
▁இந்துக்கள	-10.9345
▁நிலைநாட்ட	-10.9345
▁பரப்புரை	-10.9345
▁யாராலும்	-10.9345
▁ஈர்க்க	-10.9346
▁தலைவி	-10.9347
▁தீர்மானித்த	-10.9347
▁பிரதீப்	-10.9348
▁சோஷியல்	-10.9349
ma	-10.935
▁உடைத்த	-10.9352
-2	-10.9353
▁பழமை	-10.9354
▁சிறுவனின்	-10.9355
▁வாழ்நாள்	-10.9356
▁புறப்பட்ட	-10.9356
▁அமைச்சகத்தின்	-10.9358
▁சீர	-10.9358
▁கட்டடம்	-10.9362
▁சந்திரசேகர	-10.9369
▁பதக்கம்	-10.9369
▁நிறை	-10.937
▁இருக்கையில்	-10.937
▁நேர்காணல்	-10.9371
▁கமல்ஹாசன்	-10.9372
ங்களிலிருந்து	-10.9377
▁தெரிவிக்கவில்லை	-10.9378
▁பேரு	-10.938
▁நிகழ்ச்சியும்	-10.9382
▁டார்	-10.9385
▁மனைவிக்கு	-10.9389
▁இப்பகுதி	-10.9389
▁நோயாளிகள்	-10.9392
▁வடகொரியா	-10.9395
த்தல்	-10.9396
▁முதல்வரும்	-10.9396
▁பெயர்களை	-10.9401
▁கொள்ளாமல்	-10.9401
▁ரஷ்யாவில்	-10.9402
▁சென்னையின்	-10.9402
▁வேலு	-10.9403
▁செய்தாலும்	-10.9404
ti	-10.9406
z	-10.9409
▁பிரதேசத்தின்	-10.9412
▁உழைப்ப	-10.9413
▁சிம்	-10.9413
▁மீனம்	-10.9416
▁பாடிய	-10.9417
▁பெற்றனர்	-10.9418
▁செட்	-10.9423
▁கோப்பையில்	-10.9424
மாகக்	-10.9425
▁உலகெங்க	-10.9427
▁ஆலோசனைகளை	-10.9432
கொண்டே	-10.9432
▁புகாரளித்த	-10.9433
▁பத்ம	-10.9435
▁சாத்திய	-10.9435
▁மேற்க	-10.9439
▁நலனுக்காக	-10.9443
▁இச்சம்பவ	-10.9443
▁பெருமளவில	-10.9443
▁ஜூனியர்	-10.9443
▁அரியலூர்	-10.9443
▁ஜோசப்	-10.9444
▁வீண்	-10.9444
▁முன்னரே	-10.9445
▁வெளியூர்	-10.9445
▁கோடியாக	-10.9445
▁நடந்ததாக	-10.9446
▁பவுன்	-10.9446
▁வேண்டுமென்றே	-10.9446
▁அர்த்த	-10.9446
தீப்	-10.9449
5%	-10.9449
▁வியப்ப	-10.945
▁2003	-10.9452
▁அதிகரித்துள்ள	-10.9452
▁பரிவார	-10.9452
▁சூர்யகுமார்	-10.9453
▁சவாலான	-10.9453
▁தொடரை	-10.9454
▁உங்களிடம்	-10.9457
▁கோவிலின்	-10.9459
▁பொருந்தும்	-10.9459
ாஸ்	-10.9463
▁தீர்ப்பில்	-10.9463
▁பழனிசாமியை	-10.9464
▁மைல்	-10.9464
▁நிலவியது	-10.9465
▁திருமஞ்சனம்	-10.9467
▁புத்தகங்கள்	-10.9469
▁ஊர	-10.9469
42	-10.947
▁ஈடுபட்டிருந்த	-10.947
▁99	-10.9472
▁உண்மையாக	-10.9473
▁ஆணை	-10.9473
▁கட்டுப்பாடுகளை	-10.9473
▁எனக்கும்	-10.9474
▁காரணமான	-10.9474
▁பீதி	-10.9475
▁தரப்பும்	-10.9477
▁குளிக்க	-10.9477
ப்பன்	-10.9478
▁வலய	-10.9479
▁விண்ணப்ப	-10.948
AN	-10.948
▁பொருத்தமான	-10.9481
▁பாட்டு	-10.9483
▁அறிவித்திருந்த	-10.9484
▁முனை	-10.9485
▁ஆஜரான	-10.9485
56	-10.9487
▁ஆரம்பம்	-10.9487
▁பயணிகளை	-10.949
▁ஷெ	-10.949
▁ஃபே	-10.9497
▁வழக்கறிஞர்கள்	-10.95
▁கண்கள்	-10.95
▁நேரத்துக்கு	-10.95
▁உச்சநீதிமன்றத்த	-10.9501
▁கருத்துக்கள்	-10.9501
▁உயிரிழந்துள்ளனர	-10.9503
▁முதலீடுகளை	-10.9505
▁மொழியை	-10.9505
▁மேலிடம்	-10.9506
போர்	-10.9507
▁67	-10.9509
▁பிளவு	-10.951
ஷே	-10.9513
▁ஆளுங்கட்சி	-10.9514
▁சாந்த	-10.9514
▁பார்வையிட	-10.9515
▁தரமான	-10.9516
▁ட்ர	-10.9519
▁ஆண்டை	-10.952
▁தேர்ந்தெடுத்த	-10.9521
▁கவன	-10.9522
▁செலுத்தினார்	-10.9523
பாபு	-10.9523
▁பணிபுரிந்த	-10.9524
சங்க	-10.9525
▁விரக்தி	-10.9526
▁தமிழ	-10.9527
ெல்	-10.9529
▁விளக்கமளித்த	-10.9533
▁அடிப்படையாகக்	-10.9536
▁செப்	-10.9536
▁விட்டால்	-10.9538
▁தனுசு	-10.9543
▁உத்தியோகபூர்வ	-10.9543
▁சிறைச்சாலை	-10.9543
▁சீருடை	-10.9543
▁ரம்யா	-10.9544
▁கண்டெடுக்க	-10.9544
▁நடுநிலை	-10.9544
▁ரியல்	-10.9546
▁டாலர்கள்	-10.9547
▁வைத்திலிங்கம்	-10.9548
▁இப்போதே	-10.9548
▁துல்லியமாக	-10.9549
▁அபிஷேக்	-10.9551
▁திருவிழாவின்	-10.9551
▁துர்கா	-10.9553
▁கவனத்தில்	-10.9554
▁வன்னியர்	-10.9555
▁போர	-10.9555
▁தகவலும்	-10.9557
▁நாடக	-10.9558
▁முதன்முதல	-10.9558
▁மூட்டை	-10.956
▁கடி	-10.9565
▁கோபத்தில்	-10.9568
▁திருவிழாவை	-10.9568
சென்	-10.9572
▁நீடிக்கும்	-10.9573
▁முயன்றனர்	-10.9574
▁உணவில்	-10.9574
▁பதிவுசெய்த	-10.9576
▁புல	-10.9578
▁ஆதரவுடன்	-10.9579
▁தேர்வுக்கு	-10.958
ாரே	-10.9581
▁கூறு	-10.9581
கட	-10.9582
▁செல்வாக்கை	-10.9589
▁புல்	-10.959
▁நடவடிக்கைக்கு	-10.9592
▁முயற்சியை	-10.9596
தவ	-10.9596
பாண்டியன்	-10.9596
▁உடல்நலம்	-10.96
▁ஜாதகத்த	-10.9601
லிங்	-10.9604
▁வழிகாட்ட	-10.9606
▁வீடுகளுக்கு	-10.9607
▁ஆல	-10.9607
▁தொட்டு	-10.9607
யாகி	-10.9608
▁அவசியமான	-10.9608
▁விமானப்	-10.9612
கீழ்	-10.9613
▁மொழிகளில்	-10.9616
me	-10.9622
▁புனே	-10.9623
▁குறைத்த	-10.9625
ாய	-10.9631
ட்டாக	-10.9631
▁குண்ட	-10.9633
▁விஜயம்	-10.9633
டைந்த	-10.9636
▁புத்தகத்தை	-10.9638
▁தாஸ்	-10.9638
விடுவார்	-10.9639
▁கவர்ந்த	-10.9639
▁வளிமண்டல	-10.9644
▁ஜெலன்ஸ்கி	-10.9644
▁தொகுத்து	-10.9644
▁இருபது	-10.9644
▁தர்மபுரி	-10.9645
▁சேமிக்க	-10.9645
▁தரப்பிலிருந்து	-10.9646
▁Tamil	-10.9646
▁அஞ்சு	-10.9646
▁சரியில்லை	-10.9647
▁வாசனை	-10.9647
▁பயிரிட	-10.9648
▁ஆதிக்க	-10.9649
▁திறமையான	-10.9652
▁30-	-10.9653
▁வீட்டிலிருந்து	-10.9653
▁பிரச்னையாக	-10.9659
▁க்ர	-10.9665
▁சன்னி	-10.9666
▁பாடல்களை	-10.9667
▁பரிசோதனைக்காக	-10.9668
▁வரிசையாக	-10.9669
▁மணிகண்டன்	-10.9669
த்துறையில்	-10.967
▁நாயகி	-10.9671
மத்திய	-10.9671
▁கொடூரமான	-10.9673
▁போலியான	-10.9673
▁ஆங்கிலத்தில்	-10.9673
வேலு	-10.9674
▁படைப்பு	-10.9676
▁அபே	-10.9679
▁தொற்ற	-10.9679
▁வந்ததால்	-10.968
▁கடத்தப்பட்ட	-10.9682
▁காஸ்	-10.9683
▁இயற்ற	-10.9684
▁ராணுவத்தை	-10.9687
▁இயக்குநராக	-10.969
ியதாக	-10.9691
வீர	-10.9691
▁மண்டலத்தில்	-10.9692
களாம்	-10.9692
▁இருக்கக்கூடிய	-10.9694
▁நெரிசல்	-10.9696
▁நீதிமன்றத்தை	-10.9696
▁b	-10.9697
வாசி	-10.9698
ில்லாமல்	-10.9699
▁57	-10.9699
▁தாக்குதல்களை	-10.97
▁திட்டங்களுக்கு	-10.9701
▁அதிகரிப்ப	-10.9703
▁இதனைக்	-10.9704
▁9-	-10.9706
?..	-10.9708
▁வைரலாக	-10.9709
▁சீரியல	-10.9711
▁தொழில	-10.9712
பெற்ற	-10.9713
▁அச்சத்தை	-10.9713
▁காந்திக்கு	-10.9716
▁வெறி	-10.9721
▁கல்லூரிகள்	-10.9728
▁விதிமுறைகளை	-10.973
▁மாடு	-10.9732
▁பேட்ஸ்மேன்	-10.9736
▁படுகாயமடைந்த	-10.9737
▁முதலீடுகள்	-10.9741
▁கட்சிக்குள்	-10.9741
▁கருத்துக்கு	-10.9745
▁முளைப்பாரி	-10.9746
▁விண்கலம்	-10.9746
▁ஶ்ரீ	-10.9746
▁ரோகித்	-10.9746
▁ரம்மி	-10.9746
▁பார்வதி	-10.9747
▁ஒளிபரப்பாகி	-10.9747
▁வளம்	-10.9747
▁இங்கிருந்து	-10.9748
▁சும்மா	-10.975
வென	-10.975
▁கத்தியால்	-10.975
பூர	-10.9751
▁செல்போனில்	-10.9754
▁விரைவு	-10.9754
▁பாண்டே	-10.9755
▁வியாபாரத்தில்	-10.9755
▁தடையை	-10.9755
▁வெண்	-10.9756
▁அமீர்	-10.9757
▁J	-10.9757
▁காணப்படுகின்றது	-10.9759
▁நெருக்கடிக்கு	-10.9759
▁வாரங்களில்	-10.976
ஞ்சா	-10.9763
▁பெரும்பாலானோர்	-10.9766
▁அமைக்கப்பட்டது	-10.9766
▁பூரி	-10.9767
ிடத்தில்	-10.977
▁1990	-10.9772
▁பெற்றுள்ள	-10.9773
சந்த	-10.9775
▁நெருங்க	-10.9776
▁சூழ்ந்த	-10.9777
வானி	-10.9779
▁பிடிப்ப	-10.9779
முருகன்	-10.978
▁தீர்மானங்கள்	-10.9781
▁அதிமுகவினர்	-10.9781
எனக்கு	-10.9784
▁சொத்துக்கள்	-10.9785
ஞ்	-10.9785
▁ஏமாற்றம்	-10.9786
ச்சர்	-10.9786
▁சேர்த்தது	-10.9787
▁ஜய	-10.9788
▁மாணவர்களும்	-10.9789
-3	-10.979
ந்திர	-10.9792
▁கள்ளச்சாராயம்	-10.9793
▁போய	-10.9794
▁பாதுகாப்புத்	-10.9797
▁காபி	-10.9797
▁அழுத்தத்தை	-10.9799
வயது	-10.9802
▁காரணங்களை	-10.9803
▁பவுர்ணமி	-10.9804
▁தொடரப்பட்ட	-10.9806
▁எழுந்தன	-10.9806
▁கட்டுமானப்	-10.9807
▁வாடிக்கையாளர்	-10.9811
▁கேட்	-10.9812
▁ஏந்திய	-10.9812
ப்பட்டுள்ளனர்	-10.9813
▁வாங்குவது	-10.9814
▁ஒன்றாகும்	-10.9817
▁வரையான	-10.9818
▁ஊக்குவிக்க	-10.9821
▁ஹெச்	-10.9822
▁பிச்சை	-10.9822
மாட்டேன்	-10.9824
▁ஆகியோர	-10.9824
திமுக	-10.9824
ள்ளது	-10.9827
-19	-10.9828
▁பிடித்தது	-10.9829
▁உக்ரைனுக்கு	-10.983
▁இலக்குகளை	-10.9836
▁உடல்நல	-10.984
க்கோரி	-10.9841
▁டொலர்	-10.9842
▁ஈடுபட்டதாக	-10.9843
▁யாரையும	-10.9843
ly	-10.9846
▁ஆற்ற	-10.9849
▁பெருந்தோட்ட	-10.9849
▁சற்றே	-10.9849
▁பொறுப்பேற்க	-10.9849
▁தீர்த்தவாரி	-10.9849
▁தகுந்த	-10.985
▁பகை	-10.9852
▁மீடியாவில்	-10.9853
▁தியாக	-10.9853
மார்	-10.9854
▁இதையொட்டி	-10.9854
▁10,000	-10.9855
▁தருணத்தில்	-10.9856
▁குத்தி	-10.9856
▁வயதுடைய	-10.9857
▁கருவறை	-10.9857
▁பாசன	-10.9858
▁தலைப்பில்	-10.986
▁தொகுதிகளிலும்	-10.986
▁ரசிக்க	-10.986
▁இப்ராஹிம்	-10.986
▁மோதலில்	-10.9861
▁அடையாளமாக	-10.9862
▁பிடிபட்ட	-10.9863
▁திரும	-10.9863
▁பால்குடம்	-10.9866
▁கற்பிக்க	-10.9867
▁இளைஞர	-10.9867
செய்த	-10.9868
▁எடுப்பது	-10.9872
ங்களைச்	-10.9873
▁மீதி	-10.9875
▁கொள்கிறார்கள்	-10.9878
ஜன்	-10.9879
▁கிரகணம்	-10.9881
▁நிலைநிறுத்த	-10.9882
▁சேகரிப்ப	-10.9883
▁அனுப்பினார்	-10.9884
▁வங்கத்தில்	-10.9885
▁வழிபாட்டு	-10.9886
▁சன	-10.9891
▁பறவைகள்	-10.9892
▁சம்பா	-10.9895
▁வளர்த்த	-10.9896
▁கார்கள்	-10.9897
▁நிபுணர	-10.9897
▁பொதுக்கூட்டத்த	-10.9898
▁நீட்டி	-10.9898
ாம்	-10.9899
க்களுக்கு	-10.9901
▁கதறி	-10.9902
▁பதவிகளை	-10.9903
▁அணிவித்து	-10.9903
▁நிமிடம்	-10.9904
▁பட்	-10.9905
48	-10.9909
com	-10.9912
▁ஞாயிறு	-10.9913
▁இந்துத்துவ	-10.9913
▁கேட்டுள்ளார்	-10.9914
▁மாஸ்கோ	-10.9914
▁ஈடுபட்டுள்ள	-10.9915
▁சுவாச	-10.9915
▁மூன்ற	-10.9916
▁சோகத்தை	-10.9916
▁தவிர்த்த	-10.9916
▁குறைப்பு	-10.9919
டிக்க	-10.992
▁18-	-10.992
▁தொழிலாளர்களை	-10.9921
▁பேசு	-10.9921
▁தயாரிப்ப	-10.9924
▁துக்க	-10.9926
▁உயர்வை	-10.9929
▁கண்களை	-10.9935
▁நெதர்லாந்து	-10.9935
▁அரசியல	-10.9936
▁கொள்கிறார்	-10.9939
▁கணக்கை	-10.994
▁வழிகளில்	-10.9941
▁ஒன்றையும்	-10.9942
செய்ய	-10.9942
ண்டே	-10.9943
▁ஒத்துழைப்பை	-10.9944
▁கொடுக்கப்பட்டது	-10.9947
▁முதலாளி	-10.9947
காச	-10.995
▁அழைப்ப	-10.9951
▁காளஹஸ்தி	-10.9953
▁விபரீத	-10.9953
▁உள்கட்டமைப்பு	-10.9953
▁சிவகாசி	-10.9954
▁விருந்தினராக	-10.9954
▁புன்னகை	-10.9954
▁ஸ்ரீரங்கம்	-10.9954
▁நடுவர்	-10.9954
▁திட்டவட்டமாக	-10.9955
▁யாருடைய	-10.9955
▁வாந்தி	-10.9956
▁விவாதங்கள்	-10.9959
▁உயர்தர	-10.9959
▁கருத்துத்	-10.996
▁04	-10.9962
▁ஏலத்தில்	-10.9964
க்காரர்கள்	-10.9964
▁59	-10.9964
ருடன்	-10.9967
▁பூஜையில்	-10.9967
▁குக்	-10.9968
▁ஐஸ்	-10.9969
▁மகன்கள்	-10.9972
▁டாஸ்	-10.9973
▁தொகையில்	-10.9973
▁முன்னேற்றக்	-10.9974
▁700	-10.9976
▁வார்டுகளில்	-10.9977
▁நோக்கத்தில்	-10.9977
▁பயணத்தின்	-10.9977
வர்களுக்கும்	-10.9978
▁ஒன்றுதான்	-10.998
▁க்ள	-10.9982
▁பெறுகிறது	-10.9983
▁மேலிட	-10.9983
▁போகலாம்	-10.9984
▁தேவைகளை	-10.9986
▁காய்கறிகள்	-10.9987
ஹே	-10.9987
▁சொல்ற	-10.999
▁எதிராகப்	-10.9991
▁உமா	-10.9992
▁2006	-10.9993
பன்னீர்செல்வத்த	-10.9993
▁உற்சாகமாக	-10.9994
▁ஃபார்ம	-10.9997
▁அவ்வ	-10.9998
▁மீறிய	-10.9998
▁அவரவர்	-10.9998
▁வந்துள்ள	-10.9999
▁போனார்	-10.9999
▁ஊடகப்	-10.9999
▁துன்புறுத்த	-11.0003
▁நிதிநிலை	-11.0004
▁அரசியல்வாதிகள்	-11.0011
▁இருக்கின்ற	-11.0013
லியா	-11.0013
▁செலவுகளை	-11.0013
ிருக்காது	-11.0014
ரிக்	-11.0016
▁h	-11.0017
▁என்னுடன்	-11.0021
லட்சுமி	-11.0021
டெக்	-11.0022
எப்	-11.0024
▁வழங்கப்பட்டன	-11.0025
ப்புற	-11.0028
▁இதயம்	-11.0031
3%	-11.0031
▁தற்கொலைக்கு	-11.0038
▁மத்தியிலும்	-11.0038
▁பெற்றோர	-11.0043
காங்கிரஸ்	-11.0043
வைத்	-11.0045
▁தேன்	-11.0049
கூட்ட	-11.0052
▁மாரி	-11.0053
▁பறித்த	-11.0057
▁கும்பகோணம்	-11.0058
▁கோத்தபய	-11.0058
▁கோத்தபாய	-11.0058
▁மாரடைப்பு	-11.0058
▁விளாடிமிர்	-11.0058
▁தருணம்	-11.0058
▁நிலத்தடி	-11.0058
▁ஒப்பிடுகையில்	-11.0058
▁மன்மோகன்	-11.0059
▁அடிப்படையிலான	-11.0059
▁சமஸ்கிருத	-11.0061
▁தவறிய	-11.0061
▁இருந்தபோதிலும்	-11.0062
▁தொடர்பில	-11.0064
▁சாவடி	-11.0064
▁மேடம்	-11.0064
▁பருப்பு	-11.0065
▁மெட்ரிக்	-11.0066
ியுங்கள்	-11.0066
▁டான்	-11.0067
▁விரைய	-11.0074
▁நாங்களும்	-11.0075
▁ஓர	-11.0077
▁அளித்தது	-11.0077
யுடனும்	-11.0077
▁எழுப்பியுள்ளார்	-11.0077
▁ஆச்சரிய	-11.0078
▁என்பத	-11.0081
மக்கள்	-11.0082
▁பாபர்	-11.0085
▁நேரமும்	-11.0086
துரை	-11.0088
▁ஏப்	-11.0089
▁ஆற்றிய	-11.0095
▁என்பதைத்	-11.0096
▁முன்னெடுத்த	-11.0098
▁காங்கிரஸுக்கு	-11.01
▁மக்களவையில்	-11.01
▁விடுத்துள்ளது	-11.0102
▁பங்குகள்	-11.0102
ென்ன	-11.0105
பொருள	-11.0105
▁மாணவிகளுக்கு	-11.0108
▁அளிக்கப்படும்	-11.011
▁விடுக்கப்பட்ட	-11.0113
▁கவசம்	-11.0115
▁தலைவர்களுக்கு	-11.0121
▁சுதந்திரமாக	-11.0127
▁தைரிய	-11.0127
98	-11.0129
▁பானு	-11.0133
▁தெரிவித்துள்ளன	-11.0134
▁இயக்கத்தை	-11.0136
அதிமுக	-11.0138
▁கொள்ளவும்	-11.014
▁மாலிக்	-11.0141
சேகர	-11.0141
▁பேச்சுக்கு	-11.0141
▁எதிர்கட்சி	-11.0142
▁தழுவிய	-11.0142
▁பலமாக	-11.0146
▁ஏல	-11.0148
▁பங்கேற்றார்	-11.0149
▁சசி	-11.015
▁காப்பாற்றி	-11.0154
வாலா	-11.0155
▁ஆற	-11.0157
நிதி	-11.0157
▁குண்டுகள்	-11.0161
யிர்	-11.0163
▁கவு	-11.0164
▁கிளிநொச்சி	-11.0165
▁குற்றப்பத்திரிக	-11.0165
▁தைப்பூச	-11.0165
▁மூதாட்டி	-11.0165
▁சின்ஹா	-11.0165
co	-11.0167
▁ஒப்பிடும்போது	-11.0167
▁நள்ளிரவில்	-11.0167
▁தூக்கம்	-11.0167
▁தெய்வானை	-11.0168
▁கிணறு	-11.0168
▁கரையோர	-11.0169
னாள்	-11.017
34	-11.0171
ின்றது	-11.0171
டிஸ்	-11.0171
▁வெற்றிகரமான	-11.0172
▁கணக்கிட	-11.0173
▁மகத்தான	-11.0174
▁போட்டிகளை	-11.0174
▁ஐயப்பன்	-11.0175
▁நிமிடத்தில்	-11.0175
65	-11.0177
▁விசாரித்தபோது	-11.0179
▁காத்து	-11.0179
தாய்	-11.018
▁இசையமைப்பாளர்	-11.0181
▁அனுபவித்த	-11.0184
▁இடிக்க	-11.0184
▁ரெடி	-11.0184
▁அமைச்சரின	-11.0185
▁ஆப்கானிஸ்தான	-11.0186
▁துணைவேந்தர்	-11.0186
▁எனக்கூறி	-11.0187
▁ஹெட்	-11.0189
▁நகர்ந்து	-11.0191
▁மனுக்கள்	-11.0191
▁கண்காணிப்ப	-11.0193
▁தொடர்பிலும்	-11.0194
▁ஆட்கள்	-11.0195
▁ராவத்	-11.0196
▁கணக்குகள்	-11.0196
▁உறுப்பினருமா	-11.0197
சபை	-11.0198
▁ஆகவும்	-11.0198
▁மனிதர்களை	-11.0198
▁நட்டா	-11.0198
▁மலையில்	-11.0199
▁தோன்றியது	-11.0199
▁தொற்றுநோய்	-11.0199
▁பதவியிலிருந்து	-11.0201
ண்ணா	-11.0202
▁தப்பிச்	-11.0202
மென்ட்	-11.0202
▁14-	-11.0204
03	-11.0205
▁பூமிக்கு	-11.0205
▁திதி	-11.0207
▁ரெட்	-11.0209
▁பாச	-11.0213
▁பைக்கில	-11.0213
▁பிரம்மோற்சவ	-11.0213
மியா	-11.0215
▁இஸ்ரேலை	-11.0216
ாக்கி	-11.0219
▁பூமியின்	-11.0221
▁தவ	-11.0221
▁நிலையிலும்	-11.0223
▁அரசாங்கத்தை	-11.0224
லோக	-11.0226
▁பேனர்	-11.0227
▁இஸ்ரேலில்	-11.0227
▁சட்டப்பேரவைத்	-11.0227
▁மாச	-11.023
▁என்பவருக்கு	-11.023
ர்களின்	-11.0233
▁பொறுமை	-11.0234
ப்பூர்	-11.0234
▁மேம்படுத்தும்	-11.0234
ment	-11.0234
▁பிணை	-11.0237
மினி	-11.0238
▁நிறுவனங்களும்	-11.0243
▁பூஜா	-11.0244
▁வரவேற்ற	-11.0245
ர்ந்த	-11.0245
▁மரணத்திற்கு	-11.0247
▁நிறம்	-11.0248
சான்	-11.0248
▁காரியம்	-11.0249
▁வரப்பட்டது	-11.0254
▁நாற்காலி	-11.0256
குளம்	-11.0259
▁ஷாட்	-11.026
▁கைப்பற்றியது	-11.0261
▁சகோதரர்கள்	-11.0264
ce	-11.0264
மண	-11.0265
▁நிற்ப	-11.0266
▁மேற்படி	-11.027
▁இடம்பெற்றிருந்த	-11.027
▁தொடர்ச்சி	-11.0272
▁ஊக்க	-11.0272
▁அதிகப்படியான	-11.0272
▁சித்தராமையா	-11.0272
▁மேட்டூர்	-11.0272
▁ஐஏஎஸ்	-11.0272
▁வாபஸ்	-11.0272
▁இணங்க	-11.0272
▁குல்தீப்	-11.0272
▁மாத்திரம்	-11.0273
▁அமலுக்கு	-11.0273
▁சாப்பாடு	-11.0273
▁முகேஷ்	-11.0274
▁ஹிந்தி	-11.0274
▁பன்றி	-11.0274
▁எழுகிறது	-11.0275
▁இன்னிங்ஸில்	-11.0276
▁எழுந்தருளினார்	-11.0277
▁நடக்கின்றன	-11.0277
▁எடுக்கப்பட	-11.0278
▁நோய	-11.0278
▁அதிமுகவுக்கு	-11.0279
செய்து	-11.0283
▁இயல்பான	-11.0285
▁சீராக	-11.0286
▁பேச்சாளர்	-11.0289
முதல்	-11.0289
▁மாதமாக	-11.029
▁காவல்துறைக்கு	-11.0291
▁ஜெய்ஸ்வால்	-11.0292
▁சுற்றில்	-11.0294
▁தீட்சிதர்கள்	-11.0294
▁ஃபண்ட்	-11.0298
▁மாநிலமான	-11.0298
▁நுகர்வோர்	-11.03
▁கலாசாரம்	-11.0301
▁இருக்கா	-11.0302
▁செயல்பாட்ட	-11.0302
▁தாயை	-11.0304
▁வேண்ட	-11.0309
▁பூர்வ	-11.0312
▁என்றாலே	-11.0312
▁அடைந்தார்	-11.0313
▁ஒத்த	-11.0313
▁தமிழுக்கு	-11.0313
▁குடிமக்கள்	-11.032
தெரிவிக்கின்றனர்	-11.0322
▁உள்ளிட்டவற்றை	-11.0322
▁அழகாக	-11.0324
சிறு	-11.0324
▁பக்தர்	-11.0324
44	-11.0326
▁சுற்றுவட்டார	-11.0329
▁53	-11.0329
▁வைக்கப்படும்	-11.0331
▁தைரியம்	-11.0332
▁கட்டுப்பாட்டை	-11.0332
ாரி	-11.0333
▁மேற்கொள்வ	-11.0334
▁வென்றார்	-11.0341
▁வேறொரு	-11.0343
யாளர்கள்	-11.0344
▁நாள்களாக	-11.0344
▁இணைப்ப	-11.0345
▁கணக்க	-11.0347
▁கட்சியிலிருந்து	-11.0348
▁திணற	-11.0352
▁அறியப்பட்ட	-11.0354
▁விமானத்தை	-11.0355
32	-11.0359
களுமே	-11.036
▁ஏவுகணைகள்	-11.036
▁அடிக்கும்	-11.036
▁வசித்த	-11.0361
▁பலகை	-11.0362
▁திட்டி	-11.0362
▁செல்வதாக	-11.0363
ஞ்ச்	-11.0363
ஹான்	-11.0364
ரஸ்	-11.0368
▁சம்பவங்களை	-11.0369
▁பயணிகளுக்கு	-11.037
▁விக்கிரமசிங்க	-11.0373
▁அரசியலமைப்புச்	-11.0377
▁அரைசதம்	-11.0381
▁திருவனந்தபுரம்	-11.0381
▁தென்னரசு	-11.0381
▁ரத்நாயக்க	-11.0381
▁ஐசிசி	-11.0382
▁1999	-11.0383
▁மிளகாய்	-11.0383
ப்பேட்டை	-11.0384
▁நம்புகிறோம்	-11.0385
▁உணவ	-11.0388
▁தொடங்கின	-11.039
▁மார்க்கெட்	-11.0391
▁முதற்கட்டமாக	-11.0391
▁கழித்த	-11.0391
▁பிளே	-11.0391
▁கணேசன்	-11.0391
▁பிளாக்	-11.0396
▁நோட்டு	-11.0399
▁ஓபிஎஸ்ஸுக்கு	-11.0401
▁உடல்கள்	-11.0401
▁வழங்கப்படவில்லை	-11.0402
▁வெங்காயம்	-11.0402
▁தெரிவ	-11.0404
▁போடப்பட்ட	-11.0405
▁சிராஜ்	-11.0406
▁தாவ	-11.0407
▁போராடும்	-11.0409
▁எஞ்சிய	-11.0411
▁69	-11.0412
ுக்கோ	-11.0413
▁பலனை	-11.0413
▁ஆற்றின்	-11.0414
▁கலங்க	-11.0415
▁85	-11.0416
▁நிமிடங்களுக்கு	-11.0417
▁உபயோக	-11.0418
▁ஆர்வமாக	-11.0419
▁வாதங்களை	-11.0419
▁நிமிட	-11.042
▁எம்பிக்கள்	-11.0422
▁சாரா	-11.0426
▁உங்களால்	-11.043
▁செய்யாத	-11.0433
▁நொடி	-11.0438
▁ஆய்வக	-11.0438
▁பராமரிப்ப	-11.0439
கமாக	-11.044
▁மீட்கும்	-11.044
றா	-11.0443
▁காணப்படுகின்றன	-11.0443
▁கொள்வதாக	-11.0444
▁அதனால	-11.0445
▁எட்டிய	-11.0445
▁மாற்றிக்	-11.0447
▁சாம்பியன்ஷிப்	-11.0449
▁அவளுக்கு	-11.0449
▁விரி	-11.0452
ுவதைத்	-11.0453
▁தலைமைக்கு	-11.0456
▁சேர்ந்தார்	-11.0456
▁அரசில்	-11.0461
▁தேரர்	-11.0461
▁இடதுசாரி	-11.0462
▁குட்	-11.0466
▁நபராக	-11.0469
07	-11.0471
ெடுத்த	-11.0471
▁அலுவலகத்தை	-11.0473
▁குவிந்து	-11.0473
க்கிட்டு	-11.0473
▁பண்ற	-11.0474
ிடும்	-11.0479
▁அடித்துக்	-11.0479
த்தனம்	-11.0481
▁குண்டர்	-11.0485
▁66	-11.0488
41	-11.0489
▁சாப	-11.049
▁மாநாட்டை	-11.0491
▁ஒத்துழைக்க	-11.0491
▁இப்போதைக்கு	-11.0491
▁காகித	-11.0491
▁சட்டமூலம்	-11.0492
▁பூதேவி	-11.0494
▁காமராஜர்	-11.0494
▁சமாதான	-11.0494
▁ஜாமீனில்	-11.0494
▁ஆட்	-11.0495
▁கதாபாத்திரங்கள	-11.0495
▁நிறைவடைந்த	-11.0496
▁வைரஸ	-11.0496
▁சாதிக்க	-11.0496
▁அடைத்தனர்	-11.0497
▁காலமானார்	-11.0497
▁கார்த்திகேயன்	-11.0497
▁அதுக்கு	-11.0499
▁ஏவுகணைகளை	-11.0499
▁கவச	-11.0501
▁பங்கை	-11.0503
▁சம்ப	-11.0506
▁ஆதரவாளர்களை	-11.0507
▁பெற்றால்	-11.0508
▁விமர்சகர்கள்	-11.0508
▁வாழ்வாதார	-11.051
▁வைத்தியர்	-11.0511
▁வகித்தார்	-11.0514
▁சீதா	-11.0515
▁பேண	-11.0519
vi	-11.0522
▁ஒப்பந்தத்தில்	-11.0522
▁ஜான்சன்	-11.0523
▁உணவுத்	-11.0523
▁ஆதரித்து	-11.0526
▁ஈடு	-11.0526
▁ஏற்பட்டுள்ளதாக	-11.0527
▁மாவு	-11.0527
யியல்	-11.0531
▁பைலட்	-11.0531
▁மாநிலமாக	-11.0532
▁திரும்பினார்	-11.0534
▁சகோதர	-11.0535
▁மயங்கி	-11.0536
▁ஒன்றின்	-11.0536
▁கட்டுரையில்	-11.0539
▁பயணமாக	-11.0542
▁செயலாளரும்	-11.0543
நீர்	-11.0544
▁இந்தியர்கள	-11.0546
▁ஈடுபடுத்த	-11.0547
▁கொண்டிருக்க	-11.0548
▁அலங்கரிக்க	-11.0548
▁கண்களில்	-11.055
▁முன்வர	-11.0551
▁ஆங்கிலம்	-11.0551
▁புத்தகங்களை	-11.0553
▁நாடகம்	-11.0557
▁74	-11.0565
▁அங்கம்	-11.0568
▁குக்கி	-11.0568
னுடன்	-11.057
▁பணிகளுக்கு	-11.057
▁பகவானை	-11.0572
▁அர்ச்சகர்	-11.0573
▁ஆயிரத்திற்கு	-11.0574
அவுட்	-11.0578
▁ஃப்ர	-11.0579
▁பார்வையில்	-11.058
▁கண்டறியப்பட்டது	-11.0581
விருந்த	-11.0582
▁விரைந்த	-11.0584
▁பாடல	-11.0584
▁பிரிவுகளில்	-11.0588
▁ஆடம்பர	-11.0589
▁அனுபவித்து	-11.059
▁செய்யுமாறு	-11.0594
▁காரண	-11.0596
▁பங்கேற்கும்	-11.0601
▁கொலையாளி	-11.0602
▁நிலவரப்படி	-11.0602
▁புகழேந்தி	-11.0602
▁மாண்புமிகு	-11.0602
▁கழுத்தை	-11.0602
▁காமாட்சி	-11.0602
▁கோமாளி	-11.0603
▁கழிப்பறை	-11.0603
▁உதவித்தொகை	-11.0604
▁பூஸ்டர்	-11.0604
▁ராஜபக்ச	-11.0605
▁சூழல	-11.0606
▁விழாவையொட்டி	-11.0606
அது	-11.0609
▁துளி	-11.061
▁நீங்களும்	-11.0612
▁கலந்துகொண்டார்	-11.0613
▁அறிவிப்புகள்	-11.0615
லாமே	-11.0616
▁ஜார்கண்ட்	-11.0617
ியதால்	-11.0619
▁செங்க	-11.062
▁மரங்களை	-11.0621
▁விளங்கும்	-11.0623
த்தானே	-11.0624
▁தாய்ப்பால்	-11.0625
▁உபகரணங்கள்	-11.0625
▁அணிக்காக	-11.0625
▁இருந்தவர்கள்	-11.0627
▁சொல்லிவிட்டு	-11.0627
▁சுல்தான்	-11.0627
▁துரோகம்	-11.0629
டையும்	-11.0634
த்துக்குப்	-11.0635
▁தேர	-11.0636
ப்படுகிறார்	-11.0641
▁நிலங்களை	-11.0642
▁தலையிட்டு	-11.0647
▁புரிதல்	-11.0649
▁பயனர்	-11.0653
▁அலுவலகத்துக்கு	-11.0653
▁பதிவிட	-11.0655
கெ	-11.0656
▁வீரர்களும்	-11.0659
.11	-11.066
▁அடுக்கு	-11.0664
▁உத்தியோகத்தர்கள	-11.0666
ட்டேன்	-11.0671
▁நிரூபித்த	-11.0673
▁மாஜி	-11.0675
▁வீரர	-11.0676
▁விளை	-11.0677
▁பிரதமரை	-11.0681
▁வழங்குவதாக	-11.0682
▁விரிவாக்க	-11.0682
▁முன்னோடி	-11.0685
▁பட்டதாரி	-11.0686
▁சுங்க	-11.0686
▁தியாகி	-11.0686
▁2016-	-11.0687
.45	-11.0693
▁வருங்கால	-11.0693
பெயர்	-11.0694
▁விடுதலைப்	-11.0695
ப்படாது	-11.0697
▁தலைவலி	-11.0699
▁சடங்கு	-11.07
வுண்ட	-11.0702
▁அமலில	-11.0707
பாரதி	-11.0707
▁அலுவலர்கள்	-11.0711
ப்பட்டதால்	-11.0712
▁மீடியா	-11.0713
▁நாடாளுமன்றம்	-11.0714
▁அர்ஜென்டினா	-11.0714
▁சொர்க்க	-11.0714
▁தொலைதூர	-11.0714
▁மசாலா	-11.0714
▁ஓபிசி	-11.0715
▁தினத்தன்று	-11.0715
▁இதைத்தொடர்ந்து	-11.0715
▁வனிதா	-11.0715
▁தேஜஸ்வி	-11.0715
▁சஷ்டி	-11.0715
▁மேம்பட்ட	-11.0716
22	-11.0717
▁உரையாற்றினார்	-11.0717
▁நிரம்பி	-11.0718
▁பொருட்டு	-11.0719
▁முற்பட்ட	-11.0719
▁நிதியாண்டில்	-11.0719
▁2026	-11.0719
தமிழ்	-11.072
▁போராட்டத்தின்	-11.072
▁போலீஸார	-11.072
▁என்பார்கள்	-11.0721
▁ஒழுக்க	-11.0721
▁சிக்கலை	-11.0723
ற்கான	-11.0723
▁பகிரப்பட்டு	-11.0724
▁68	-11.0724
▁பாக்கிய	-11.0724
▁ஹார்மோன்	-11.0726
▁தாய்லாந்து	-11.0727
▁ஆலயம்	-11.0728
▁கோடிக்கு	-11.0729
▁சத்து	-11.0729
ிந்தைய	-11.0731
க்கால்	-11.0731
வார்கள்	-11.0731
▁இரானின்	-11.0732
▁போக்கை	-11.0733
▁பான்	-11.0734
▁பூனை	-11.0736
▁யுக்ரேனில்	-11.0737
▁அனல்	-11.0738
▁விலக்கி	-11.074
எங்கள்	-11.0741
கிராம	-11.0745
▁மயில்	-11.0754
▁மன்	-11.0755
▁பணக்கார	-11.0758
▁தீவிரவாதிகள்	-11.0761
▁திரட்டி	-11.0762
▁ஐயப்ப	-11.0762
▁வெளிநாடுகளுக்கு	-11.0763
▁நெகிழ்ச்சி	-11.0763
▁வேலி	-11.0764
▁கொண்டேன்	-11.0768
▁புராண	-11.0769
97	-11.0769
▁ஆகிவிட்ட	-11.0769
▁தந்தது	-11.0771
▁கோர்ட்டில	-11.0773
க்களும்	-11.0774
.......	-11.0774
வாரி	-11.0775
▁ஒலிக்க	-11.0776
▁சாய	-11.0776
▁காதலை	-11.0777
▁தரவில்லை	-11.0778
▁பள்ளிகளுக்கு	-11.0782
▁சம்பத்	-11.0783
▁மந்திரி	-11.0784
வம்	-11.0785
▁ராசா	-11.0786
um	-11.0789
▁விழாவுக்கு	-11.0789
▁உருவெடுத்த	-11.079
▁அவற்ற	-11.079
வண்ண	-11.0791
09	-11.0792
▁எஸ்பி	-11.0793
▁பெருந்தொற்று	-11.0794
ணும்னு	-11.0796
▁சுகாதாரம்	-11.0799
▁தீய	-11.08
▁காரின்	-11.08
▁17-	-11.0804
ாயிரம்	-11.0806
▁உடைக்க	-11.0806
▁முன்னேறிய	-11.0807
▁விமர்சித்தார்	-11.0808
டுகளை	-11.0809
▁காத்திருந்து	-11.0809
▁குடும்பத்துக்கு	-11.0812
▁வாசல்	-11.0812
▁வழங்கவில்லை	-11.0815
▁1980	-11.0815
ாடி	-11.0816
▁ஆரோக்கியம்	-11.0817
▁துப்பாக்கியால	-11.0818
▁சந்தனம்	-11.0819
காட்ட	-11.0823
▁கோபத்தை	-11.0824
▁73	-11.0824
பரி	-11.0824
ஸ்திர	-11.0825
வில்லிபுத்தூர்	-11.0825
யிருக்கும்	-11.0826
▁மாவட்டங்களுக்கு	-11.0827
▁தலையீடு	-11.0828
▁திஸாநாயக்க	-11.0828
▁ஹிஸ்புல்லா	-11.0828
▁பணிப்புரை	-11.0828
▁பொதுவெளியில்	-11.0828
▁அப்பாற்பட்ட	-11.0828
▁ஒப்படைக்கப்பட்ட	-11.0828
▁புரிந்துணர்வு	-11.0828
▁வடிவேலு	-11.0828
▁Re	-11.0828
▁உயிரியல்	-11.0829
▁துண்டிக்கப்பட்ட	-11.0829
▁கிரீன்	-11.0829
▁குறுக்கே	-11.083
▁சொல்கிறேன்	-11.083
▁செய்கிறோம்	-11.0831
▁முதலிடம்	-11.0831
▁தன்னுடன்	-11.0831
▁நந்தினி	-11.0832
விற்கும்	-11.0833
▁சிலைகளை	-11.0834
▁துபாயில	-11.0834
▁முதியோர்	-11.0835
களின்படி	-11.0836
▁பாடகர்	-11.0837
▁பாக்	-11.0838
▁சிலைக்கு	-11.0841
▁மண்டை	-11.0846
▁இடைத்தேர்தல்	-11.0846
▁ஆடைகளை	-11.0849
▁மீறல்	-11.0849
▁லிஸ்ட்	-11.085
▁உயர்நீதிமன்றத்த	-11.085
▁அனுபவத்தை	-11.085
▁மூவரும்	-11.0851
▁சொல்லுங்கள்	-11.0851
▁சுபாஷ்	-11.0853
▁கூறும்போது	-11.0854
ப்போய்	-11.086
▁வெப்	-11.0864
▁ஈர	-11.0865
▁சசிகலாவை	-11.0865
▁உயரத்தில்	-11.0866
தங்க	-11.0866
▁ஒப்பிட்டு	-11.0867
▁காயங்கள்	-11.0867
▁எகிப்து	-11.0868
▁செய்பவர்கள்	-11.0869
▁மூடப்பட்ட	-11.087
▁சாலையை	-11.087
▁பணியிட	-11.0871
▁தியேட்டர்	-11.0871
▁கொள்வதற்காக	-11.0873
▁ஏறிய	-11.0873
▁வைக்கிறார்	-11.0873
▁மேற்கொண்டது	-11.0875
பழ	-11.088
▁செய்தவர்	-11.0881
▁இந்துத்துவா	-11.0885
▁கொடுக்கப்படும்	-11.0886
▁கண்ணில்	-11.0887
▁கலவை	-11.0887
▁ஓபிஎஸ்ஸ	-11.0891
▁சாதனைகளை	-11.0892
▁அறிவிக்கப்பட	-11.0892
pe	-11.0893
▁உரம்	-11.0895
ஃ	-11.0895
▁கிரே	-11.0896
ஸாக	-11.0897
▁புரோ	-11.0898
▁சோகம்	-11.0901
▁பிரபலமாக	-11.0902
▁பொதுப்	-11.0903
▁சுனக்	-11.0907
▁மேரி	-11.0907
வுக்காக	-11.0908
▁நிக	-11.0909
▁புஷ்பா	-11.0909
ங்கிற	-11.0909
▁கடைக்கு	-11.0909
▁பெண்ணும்	-11.0911
▁அறைக்கு	-11.0912
▁வளாகம்	-11.0913
ொன்றை	-11.0914
▁ரன்களில	-11.0919
ப்போகிறார்	-11.0925
▁போட்டியிடுகிறார	-11.0926
▁வாரணாசி	-11.0927
சண்முகம்	-11.0928
▁மாஸ்க்	-11.0928
▁தமிழர	-11.093
▁காக்கும்	-11.093
▁பொறியாளர்	-11.093
▁அதிகாரபூர்வ	-11.0931
ந்தது	-11.0936
▁கலைக்க	-11.0936
▁பிரத்யேக	-11.0937
▁உண்ண	-11.0938
▁சந்தி	-11.0939
▁விடுபட	-11.0939
▁மானாமதுரை	-11.0943
▁விகாரை	-11.0943
▁மெரினா	-11.0943
▁காலிஸ்தான்	-11.0943
வுள்ள	-11.0943
▁செருப்பு	-11.0943
▁போரிஸ்	-11.0944
▁எதிரே	-11.0945
▁தோன்றுகிறது	-11.0945
▁கவிதா	-11.0946
சந்திர	-11.0947
▁சாசன	-11.0947
▁நீச்சல்	-11.0948
▁கொடுத்துள்ளது	-11.0949
▁மோதல்கள்	-11.0949
▁சம்மன்	-11.0951
▁எழு	-11.0951
கண்ண	-11.0953
▁டைம்	-11.0954
▁வீட்டிலும்	-11.0956
▁சஜித்	-11.0956
▁கார்பன்	-11.0958
மகா	-11.0959
▁அனுமன்	-11.0959
▁கோயிலின்	-11.0961
▁சரிந்து	-11.0961
▁பகிரங்கமாக	-11.0962
▁இருப்பதற்கு	-11.0968
▁அழகிரி	-11.0969
▁ஆட்டத்தின்	-11.097
▁நினைத்தால்	-11.0974
ers	-11.0976
▁சேர்த்தனர்	-11.0977
▁சன்னதியில்	-11.0977
▁வழங்குமாறு	-11.098
▁மாணவியை	-11.0982
▁வித்தியாசமாக	-11.0983
▁வெளிவர	-11.0985
▁பாகிஸ்தானை	-11.0985
▁குளத்தில்	-11.0985
▁தேதிக்குள்	-11.0986
▁தமிழ்நாட்டிற்கு	-11.0987
▁நேராக	-11.0987
ப்பொருட்கள	-11.0988
▁13-	-11.0991
தொடர்பான	-11.0991
▁அடிப்படையாக	-11.0992
▁வருடத்தில்	-11.0992
ாட்டம்	-11.0993
கத்தில்	-11.0993
▁இல்லம்	-11.0993
யார	-11.0994
▁பகிர்ந்துகொண்ட	-11.0997
▁புத்தி	-11.0997
▁அவருக்குப்	-11.0998
ru	-11.0998
▁இக்கட்ட	-11.0999
▁பரிமாற	-11.0999
விலுள்ள	-11.1002
▁கண்டிக்க	-11.1003
▁பாக்கியம்	-11.1004
▁கேம்	-11.1006
▁செய்யவேண்டும்	-11.1009
▁சந்தோஷ்	-11.1009
▁எம்எல்ஏக்கள	-11.1009
▁போராட்டங்கள	-11.1012
▁தொடங்கப்பட்டது	-11.1015
▁வளைய	-11.1015
▁நீராடி	-11.1016
கொண்டிருக்கின்றன	-11.1018
▁சிறந்தது	-11.1018
▁வெட்டு	-11.1018
▁அனைத்துக்	-11.1018
லோன்	-11.1022
▁குடை	-11.1025
▁எரி	-11.1026
▁ஆதரித்த	-11.1027
குழந்தை	-11.103
▁உழவர்	-11.103
▁விமானி	-11.1037
▁பொருளாதாரத்	-11.1039
பகுதி	-11.1041
▁முடிந்ததும்	-11.1041
▁பாதயாத்திரை	-11.1044
▁கணித்த	-11.1044
▁எடுத்துக்கொண்டு	-11.1046
▁திருமணமான	-11.1047
▁தீர்த்தம்	-11.1047
▁சேர்க்கும்	-11.1047
▁வந்தவர்கள்	-11.1049
▁மனிதன்	-11.105
▁நடனம்	-11.105
பேர்	-11.1051
▁தாயார	-11.1051
▁கோவில்பட்டி	-11.1052
▁பத	-11.1053
▁அடுத்தகட்ட	-11.1054
▁விரும்புவதாக	-11.1054
க்கொள்ளும்	-11.1056
▁ஆயிர	-11.1057
ுகின்றது	-11.1058
▁ஆட்டமிழக்க	-11.1059
▁உதாரணம்	-11.1059
▁இதுதவிர	-11.1059
▁பறிகொடுத்த	-11.1059
▁ராதிகா	-11.1059
▁மெஸ்ஸி	-11.1059
▁காற்றழுத்த	-11.1059
▁கொள்வனவு	-11.1059
▁அஸ்வினி	-11.106
▁அதைத்தொடர்ந்து	-11.106
▁ராணா	-11.1061
▁தொண்டர்	-11.1061
▁கால்வாய்	-11.1062
▁தொடர்ச்சியான	-11.1063
▁பகீர்	-11.1064
▁பிரிட்டனில்	-11.1064
▁உயிரிழந்தவர்கள	-11.1065
▁குபேர	-11.1067
▁செல்வி	-11.1067
▁...	-11.1067
▁வருந்த	-11.1068
▁வேகத்தை	-11.1068
▁இருவருக்கு	-11.107
▁மக்களே	-11.1072
▁செய்வதன்	-11.1073
பாக	-11.1074
▁பொன்ன	-11.1076
▁நினைக்கிறார்கள்	-11.1077
▁படகில்	-11.1079
ஸ்டோ	-11.108
▁பரம	-11.1081
▁மனைவியும்	-11.1082
▁டவுன்	-11.1083
▁பெரியளவில	-11.1083
▁பிரேக்	-11.1083
▁கப்	-11.1084
▁நிதிஷ்குமார்	-11.1085
▁சிறுவனை	-11.1087
▁காஞ்சி	-11.1087
▁விஜயன்	-11.1088
ிலே	-11.1088
▁செல்லப்பட்டு	-11.1089
▁விளையாட்டுப்	-11.109
▁இழுக்க	-11.1091
▁சிவராத்திரி	-11.1092
▁பெறுவதற்கான	-11.1092
▁ராமச்சந்திரன்	-11.1093
▁எடையை	-11.1094
▁நெடுஞ்சாலையில்	-11.1095
களாலும்	-11.1095
▁கங்கா	-11.1098
▁மாதா	-11.1098
▁கொண்டிருந்தபோது	-11.1099
▁கிராமத்திற்கு	-11.11
▁கோட்	-11.1102
விடக்	-11.1103
▁உருவாக்குவது	-11.1104
38	-11.1105
▁கமல	-11.1107
▁அனில்	-11.111
▁பரப்பி	-11.1111
▁சுயேச்சை	-11.1111
▁இரண்டாக	-11.1114
▁இடம்பெறும்	-11.1114
▁செலுத்துவது	-11.1114
மாலை	-11.1115
▁சமாதானம்	-11.1121
▁ஆதரவாளர்கள	-11.1125
ட்டே	-11.1126
▁ஷன்	-11.1127
▁ஆட்சியைப்	-11.1128
பாட	-11.1129
▁இனம்	-11.1131
▁சமூகத்தினர்	-11.1134
வச	-11.1134
தனை	-11.1141
▁வந்திருந்தார்	-11.1141
ck	-11.1143
▁பட்டி	-11.1147
திலும்	-11.1147
பட்சத்தில்	-11.1148
▁எதிர்க்கட்சியாக	-11.1148
ேஷன்	-11.1148
ிவிட்டார்	-11.1155
▁இள	-11.1157
▁ராசிக்காரர்கள்	-11.1157
▁அன்பை	-11.1159
▁எடுத்துள்ளார்	-11.116
▁ரூபாயும்	-11.116
தாகவே	-11.1163
▁தவற	-11.1165
றும்	-11.1167
▁62	-11.1168
▁சொல்வத	-11.117
▁கொடு	-11.117
▁முகவர்	-11.1173
▁நிதிய	-11.1175
▁ஆஞ்சநேயர்	-11.1177
▁இருந்தபோதும்	-11.1177
▁சமீபகாலமாக	-11.1177
▁மூலிகை	-11.1177
▁சந்தீப்	-11.1177
▁ஜூலி	-11.1177
▁கச்சத்தீவு	-11.1177
▁வரையறை	-11.1177
▁இதனைத்தொடர்ந்து	-11.1177
▁லோக்	-11.1178
▁வாசலில்	-11.1178
▁ஒழுங்குமுறை	-11.1179
▁தகவலின்படி	-11.1179
▁உயிரோடு	-11.1179
▁தோசை	-11.118
▁யாப்பா	-11.118
▁பீட	-11.118
▁மெக்	-11.118
▁நிற்கிறது	-11.1181
செயல	-11.1182
▁முரளி	-11.1182
▁பார்ட்டி	-11.1183
▁2024-	-11.1183
▁வேண்டுமென்றால்	-11.1184
▁உதவுகிறது	-11.1185
▁பிறக்க	-11.1186
▁அலகு	-11.1189
▁ஹசன்	-11.1189
▁முதலாம்	-11.1189
மேலும்	-11.1191
▁இருந்தோம்	-11.1191
▁எதிர்த்துப்	-11.1191
▁கோயம்புத்தூர்	-11.1191
lo	-11.1192
▁ஆற்று	-11.1194
▁நடக்காது	-11.1194
▁ரகு	-11.1196
▁விதிக்கப்படும்	-11.1196
▁l	-11.1199
க்கொடுத்த	-11.12
▁அகதிகள்	-11.1201
விருக்கிறது	-11.1201
▁ரிப்போர்ட்	-11.1202
▁முன்வந்த	-11.1202
▁விடுத்துள்ளனர்	-11.1204
▁வரவேண்டும்	-11.1207
▁பாண்டி	-11.1207
▁நிர்ணயம்	-11.1211
▁விசாரித்தனர்	-11.1213
▁வீட்டிற்குள்	-11.1213
▁காணலாம்	-11.1215
▁ஃபேஸ்புக்	-11.1215
▁வழித்தட	-11.1216
▁போராட்டத்திற்கு	-11.1217
▁கட்டப்பட்டது	-11.122
ிருந்தோம்	-11.1221
▁பத்திரிக்கையாளர	-11.1222
▁வணங்கி	-11.1222
காரி	-11.1223
▁உட்கார்ந்த	-11.1225
▁2005	-11.1227
▁திணைக்களத்தின	-11.1228
▁தந்தையை	-11.1229
▁யாகம்	-11.123
▁தவித்து	-11.123
▁செயல்படுத்தி	-11.1235
▁ரன்னில	-11.1237
▁குஜராத்த	-11.1239
நேர	-11.124
▁அழக	-11.1241
ம்பாக்கம்	-11.1242
▁லட்சத்தை	-11.1242
▁தப்பித்து	-11.1245
▁விண்ணப்பம்	-11.1246
▁வேண்டுமென்று	-11.1247
▁பார்க்காமல்	-11.1247
இரு	-11.1248
▁பிப்	-11.125
400	-11.1253
▁கிழக்கில	-11.1254
ிதா	-11.1254
▁சாஹ	-11.1258
▁பின்ன	-11.126
▁நம்புகிறார்	-11.1274
▁சுக்	-11.1277
ிற்குள்	-11.1279
வருடன்	-11.128
னஸ்	-11.1281
ெட்	-11.1283
▁ஒன்ற	-11.1285
▁நடவடிக்கையாக	-11.1286
▁ஆளுநரை	-11.1287
▁நுட்ப	-11.1287
os	-11.1289
op	-11.1291
▁முன்னேற்றத்தை	-11.1293
▁நிலநடுக்கத்த	-11.1294
▁போடி	-11.1295
மில்லாமல்	-11.1295
▁அணிவகுப்பு	-11.1296
▁டெபாசிட்	-11.1296
▁பேஸ்புக்	-11.1296
▁சேலத்தில்	-11.1296
▁காரைக்குடி	-11.1296
▁மூலவருக்கு	-11.1298
▁அநீதி	-11.1299
▁வெளியிடும்	-11.1301
▁லவ்	-11.1302
▁கடலை	-11.1304
▁வாழ்த்துக்களை	-11.1304
▁தடுப்புச்	-11.1305
▁மேட்டுப்பாளையம்	-11.1308
▁50,000	-11.1308
▁படைகளை	-11.131
▁சீனாவை	-11.1312
▁துறைமுகம்	-11.1312
▁அறிமுகமான	-11.1313
▁பாதித்த	-11.1315
▁மார்பக	-11.1315
▁ஸ்கேன்	-11.1316
▁ராஜேந்திரன்	-11.1316
▁ஆபரேஷன்	-11.1316
▁பொருட்களுக்கு	-11.1316
▁சடலத்தை	-11.1317
னுக்கும்	-11.1318
▁ஜனநாயகம்	-11.1318
▁விழிப்புணர்வை	-11.132
▁போட்டிகளிலும்	-11.1321
▁மாமியார்	-11.1321
76	-11.1322
▁பிரசாரத்தில்	-11.1323
▁கப்பல்கள்	-11.1332
77	-11.1332
▁நெருக்கம்	-11.1335
▁விழும்	-11.1336
▁தேர்வுகள்	-11.1338
▁கூட்டத்தொடர்	-11.1339
▁பொதுமக்களை	-11.1343
▁அழித்த	-11.1343
▁கூடியது	-11.1344
▁ஜின்பிங்	-11.1344
▁இருந்திருக்கும்	-11.1344
99	-11.1344
▁நடப்பதாக	-11.1345
▁போலீசார	-11.1345
▁வைபவம்	-11.1348
▁உழைத்து	-11.1349
▁அம்பேத்கர	-11.135
▁ஹோம	-11.135
▁தலைமைக்	-11.135
ப்பிரிவ	-11.1351
▁சென்றோம்	-11.1351
▁நடந்துகொண்ட	-11.1352
▁பத்தி	-11.1352
▁சொத்துக்களை	-11.1355
▁சென்றேன்	-11.1356
▁சிந்து	-11.1358
▁மகளுக்கு	-11.1359
▁பெண்களுக்கான	-11.1359
கிட்டு	-11.136
▁கத்தார	-11.1361
▁எழுதியவர்	-11.1361
▁திறக்கப்பட்டு	-11.1362
▁பேசுவதை	-11.1364
▁எழும்	-11.1365
▁படகுகள்	-11.1368
▁விருதுகள்	-11.1368
ரச	-11.1369
▁எனவேதான்	-11.1369
எச்	-11.1371
▁இந்தநிலையில்	-11.1374
▁தமக்கு	-11.1374
▁திருடி	-11.1376
னிங்	-11.1376
▁சிந்த	-11.1377
▁அய்ய	-11.1377
▁கவர	-11.1377
▁தடம்	-11.1384
▁பொருளை	-11.1385
X	-11.1387
▁போராளி	-11.1387
▁சார்ந்து	-11.1389
கலை	-11.1391
ிட்டு	-11.1393
▁2015-	-11.1394
▁நிறைவேற்றிய	-11.1395
▁முதல	-11.1396
▁கிடைத்தன	-11.1396
▁பதிவை	-11.1401
வல்லி	-11.1402
▁டிவியில	-11.1407
▁சுற்றுலாத்	-11.1409
ரேட்	-11.1409
ிறீர்கள்	-11.141
▁முன்னாடி	-11.1411
▁சோதனைகள்	-11.1412
▁தளமாக	-11.1414
55	-11.1415
னால	-11.1416
▁குஷ்பு	-11.1416
▁ஜவஹர்	-11.1416
▁பணியமர்த்த	-11.1416
▁பரிசீலனை	-11.1416
▁வனவிலங்கு	-11.1416
▁விமரிசையாக	-11.1416
▁தாம்பரம்	-11.1416
▁வயிறு	-11.1417
▁வகிக்கிறது	-11.1417
▁இத்திட்டம்	-11.1418
ுள்ளார்கள்	-11.1419
▁தேர்தல்கள்	-11.1419
▁வைணவ	-11.1419
ிக்கு	-11.1421
▁பந்துகளை	-11.1422
▁இளமை	-11.1425
▁அழகர்	-11.1428
▁தீவிரப்படுத்த	-11.1429
▁சேர்ப்ப	-11.1429
▁சிறப்புமிக்க	-11.1429
▁முழுவதிலும்	-11.143
▁லோக	-11.143
▁வலைதளத்தில்	-11.143
▁வகுப்புகள்	-11.1431
▁ஒத்திவைக்க	-11.1432
ஜீ	-11.1433
▁நிலவ	-11.1434
▁95	-11.1435
▁மௌன	-11.1435
▁நடைமுறைக்கு	-11.1436
▁பத்திரங்கள்	-11.1439
▁குருபகவான்	-11.1439
▁காட்சியை	-11.144
தாகச்	-11.1441
த்திற்குச்	-11.1442
▁பாட்டில்	-11.1445
▁தெரியவரும்	-11.1447
▁எதிராகவும்	-11.1447
▁ஆணையத்தில்	-11.1448
▁முதலிடத்தில	-11.1448
▁திரையுலக	-11.1449
▁போனை	-11.1452
▁கோரும்	-11.1453
▁மனுக்களை	-11.1453
▁800	-11.1454
▁எரிந்து	-11.1454
▁பையன்	-11.1456
கிரா	-11.1457
▁தேவையை	-11.1458
ப்படுவார்	-11.1458
▁மரணங்கள்	-11.1459
▁பார்க்கிறார்கள்	-11.1459
▁அடக்க	-11.146
▁உருவாக்கப்படும்	-11.1461
▁சென்றாலும்	-11.1461
▁மட்டத்தில்	-11.1461
▁எப்படியும்	-11.1462
விடுவோம்	-11.1463
39	-11.1463
▁வலிமையான	-11.1465
▁பிரமுகர்கள்	-11.1465
▁கிறிஸ்	-11.1466
▁அமைந்து	-11.1467
▁நிகழ்வுகளை	-11.147
▁மங்கல	-11.1472
▁காங்கிரஸை	-11.1473
▁ஓவிய	-11.1474
▁தாமத	-11.1475
▁கைகளை	-11.1475
ப்பட்டதாகவும்	-11.1478
அப்	-11.1478
▁பிரவேச	-11.1482
புது	-11.1483
த்தர்	-11.1483
▁உருவாக்கினார்	-11.1484
▁பூத	-11.1485
49	-11.1486
ாகிய	-11.1488
▁திங்கள்கிழமை	-11.1489
ிகா	-11.149
▁வேன்	-11.1491
▁77	-11.1493
▁ரஷ்யாவிற்கு	-11.1493
▁அகற்றி	-11.1495
▁பரவலை	-11.1495
யின்படி	-11.1496
முடியாது	-11.1501
▁பந்துல	-11.1501
▁மானியம்	-11.1503
▁சமத்துவ	-11.1512
▁புலம்ப	-11.1517
▁கோவில்கள்	-11.1519
ப்பிட	-11.152
▁மோர்	-11.152
▁சிரம	-11.1521
▁தாக்கும்	-11.1522
▁பிரச்னைகளுக்கு	-11.1522
▁செல்லலாம்	-11.1524
▁போயி	-11.1524
▁பரந்த	-11.1529
▁முதன்மையான	-11.1532
▁03	-11.1534
▁இருந்தார்கள்	-11.1534
க்கிட்ட	-11.1535
▁அனைத்துத்	-11.1536
▁அரேபியாவ	-11.1537
▁இச்	-11.1538
▁பவர்ப்ளே	-11.1538
▁அதிர்வலைகளை	-11.1538
▁அரசியலமைப்பின்	-11.1538
▁திருச்செந்தூர்	-11.1538
▁மகப்பேறு	-11.1538
▁கோடிக்கணக்கான	-11.1538
▁பதிவேற்ற	-11.1538
▁தற்பொழுது	-11.1538
▁மாயாவதி	-11.1538
▁ரங்கசாமி	-11.1539
▁தென்கிழக்கு	-11.1539
▁ராம்நாத்	-11.1539
▁நடிச்ச	-11.154
▁கடித	-11.154
▁கலந்துரையாடலில்	-11.1541
▁திறக்கப்பட்ட	-11.1546
im	-11.1547
▁பேசியதாவது	-11.1547
▁புரியும்	-11.1548
▁ஐந்த	-11.1549
▁நண்பர்களுடன்	-11.1549
▁பிறந்தார்	-11.1551
▁அறிவிக்கப்பட்டு	-11.1551
▁கருக்கலைப்பு	-11.1553
▁தீட்ட	-11.1553
▁அதுகுறித்து	-11.1556
▁சொல்வார்கள்	-11.1556
▁பற்றிக்	-11.1558
▁வாசிக்க	-11.1558
▁மதத்தின்	-11.1558
தெரிவிக்கின்றார்	-11.1562
▁கௌதம்	-11.1563
▁விதிமுறைகள்	-11.1563
▁இங்கிலாந்த	-11.1566
▁சந்தோஷ	-11.1567
▁ஆகிறது	-11.1568
▁குதித்த	-11.157
யில்லாமல்	-11.1572
▁முதல்முறை	-11.1572
▁கட்டிடங்கள்	-11.1573
▁காமராஜ்	-11.1574
▁சவு	-11.1575
க்கொண்டிருக்கும்	-11.1575
▁கற்களை	-11.1575
▁ரஹ்மான்	-11.1575
▁பிரேசில்	-11.1577
▁குவித்து	-11.158
ார்களா	-11.1587
▁அலுவலகத்தின்	-11.1589
▁கம	-11.159
▁வேறுபாடுகள்	-11.1591
ut	-11.1592
▁கண்டறியும்	-11.1592
கிற்கு	-11.1593
▁மின்சாரத்தை	-11.1595
▁நர	-11.1595
▁நிகழ்வாக	-11.1601
ate	-11.1601
▁அழிந்து	-11.1607
▁கவுன்சிலர்கள்	-11.1607
▁உழைத்த	-11.1607
▁வழிகள்	-11.1609
▁நாகை	-11.1609
ne	-11.1612
▁சப்த	-11.1616
▁ஊழியர்களை	-11.1624
▁புரத	-11.1628
95	-11.1629
வையாக	-11.1631
▁அறிக்கைகள்	-11.1632
▁பந்துகள்	-11.1637
▁பூர்வீக	-11.1639
▁விஞ்ஞான	-11.1645
▁பதவியேற்பு	-11.1646
▁ஆண்டாக	-11.1652
▁வித்தியாச	-11.1654
▁சேகரித்த	-11.1654
▁அப்பாவு	-11.1655
▁கிடைக்குமா	-11.1656
▁தரத்தை	-11.1656
▁பாஸ்போர்ட்	-11.166
▁செலுத்தப்பட்டது	-11.1661
▁பினராயி	-11.1662
▁பீரங்கி	-11.1662
▁மாத்திரமே	-11.1662
▁மின்னலுடன்	-11.1662
▁முற்றுப்புள்ளி	-11.1662
▁உசேன்	-11.1662
▁மேல்முறையீட்டு	-11.1662
▁சுற்றறிக்கை	-11.1662
▁வயநாடு	-11.1662
▁வலதுசாரி	-11.1662
▁சமாஜ்வாடி	-11.1662
▁பண்டைய	-11.1662
▁குற்றப்பிரிவு	-11.1662
▁கடன்களை	-11.1663
▁சவுத்ரி	-11.1664
▁ஸ்தல	-11.1664
▁டொ	-11.1664
▁விடவும்	-11.1665
▁தொழுகை	-11.1666
▁சமைக்க	-11.1667
▁விரும்பினால்	-11.1667
52	-11.167
▁மனிதர்களுக்கு	-11.167
▁நிராகரித்த	-11.1671
▁அருள்மிகு	-11.1671
▁சான்	-11.1671
▁விவரித்தார்	-11.1672
▁அமைந்திருக்கும்	-11.1673
போய்	-11.1674
கொள்கிற	-11.1675
ப்பட்டாலும்	-11.1675
▁லட்டு	-11.1675
▁நடமாட்டம்	-11.1676
▁செய்கின்றன	-11.1677
க்கண	-11.1679
▁கலைஞர்கள்	-11.1679
▁கவிஞர்	-11.1681
▁எனக்குப்	-11.1681
▁பார	-11.1682
▁கைப்பற்றப்பட்ட	-11.1682
▁20,000	-11.1686
▁மாட	-11.1687
▁பார்த்தாலும்	-11.1687
▁திட்டங்களில்	-11.1689
▁நாயகன்	-11.169
▁எல்லாரும்	-11.1691
▁X	-11.1692
▁விதித்துள்ளது	-11.1692
▁தருகிறது	-11.1695
▁பெட்டியில்	-11.1702
▁கட்டாயப்படுத்த	-11.1702
டிக்	-11.1703
▁சிலரை	-11.1705
▁பாரி	-11.1706
▁வியாபாரிகள்	-11.1706
▁முன்பாகவே	-11.1707
▁இப்படியாக	-11.1709
▁re	-11.1712
▁இழுத்த	-11.1717
▁பந்த்	-11.1717
▁மனசு	-11.1719
▁சாவி	-11.172
▁அரசர்	-11.172
▁பயங்கரவாதிகள்	-11.1721
▁குற்றச்சாட்ட	-11.1722
▁ஆகம	-11.1724
▁சமூகத்தினர	-11.1727
▁சூரியனை	-11.1729
▁விதித்தது	-11.173
▁அமைப்புகளின்	-11.1735
லிங்கம்	-11.1735
▁செய்யக்கூடாது	-11.1735
▁ஆய்வின்	-11.1736
▁அத்துமீறி	-11.1736
▁கச	-11.1745
▁வேல	-11.1746
▁வைத்தே	-11.1747
▁பாம்புகள்	-11.1748
ச்சே	-11.1748
85	-11.175
▁அழிப்ப	-11.175
▁ஓரளவுக்கு	-11.1752
▁சத்த	-11.1752
▁செல்லாமல்	-11.1754
வாஸ்	-11.1758
▁நிகழ்ச்சிகளை	-11.1762
▁அவசிய	-11.1765
ீஷ்	-11.1766
▁பேரன்	-11.1772
▁பாக்ஸ்	-11.1772
▁பிறந்தவர்	-11.1775
▁ஸ்மித்	-11.1777
61	-11.1778
▁காணிக்கையாக	-11.1779
மனை	-11.178
▁தக	-11.1782
▁ஆபரண	-11.1782
▁வயிற்றில	-11.1783
த்தம்	-11.1783
▁நிகழ்ச்சியின்	-11.1784
▁இந்தியாவுக்கும்	-11.1784
▁சட்டத்தரணி	-11.1787
▁சலசலப்பு	-11.1787
▁நிவர்த்தி	-11.1787
▁முற்போக்கு	-11.1787
▁வர்த்தமானி	-11.1787
▁யாழ்	-11.1787
▁தோற்கடிக்க	-11.1787
▁ஜஸ்டின்	-11.1787
▁குடியேற்ற	-11.1787
▁மலையக	-11.1787
▁ஸ்ரீலங்கா	-11.1787
▁நூற்றுக்கு	-11.1788
▁நேர்மையான	-11.179
▁இந்தியாவிலேயே	-11.179
78	-11.1791
▁இடைத்தேர்தலில்	-11.1792
▁ரீதியிலான	-11.1795
▁மீன்கள்	-11.1795
▁கொலைசெய்த	-11.1795
▁கோவிந்த	-11.1795
▁இரானிய	-11.1795
▁நேஷனல	-11.1795
▁காற்றில்	-11.1797
▁பெரும்பான்மையான	-11.1798
▁வேட்டையாட	-11.18
ay	-11.1803
▁மைதானம்	-11.1803
▁பிள்ளைகளுக்கு	-11.1805
est	-11.1807
▁விரட்ட	-11.1807
▁லாலு	-11.1808
▁கழுவ	-11.181
▁பிசினஸ்	-11.1813
▁தோட்டத்தில்	-11.1813
▁ஆலயத்தில்	-11.1813
▁கதைகள்	-11.1816
▁நிர்ணயித்த	-11.1817
▁மஞ்ச	-11.1817
▁கொள்வதற்கு	-11.1821
▁கூறவில்லை	-11.1821
▁பார்த்துவிட்டு	-11.1822
▁எளிமையாக	-11.1822
▁நை	-11.1822
▁மையங்கள்	-11.1824
▁விடயங்கள்	-11.1825
▁அரசாங்கத்திற்கு	-11.1827
ட்ரா	-11.1827
▁அதிகமானோர	-11.183
▁அவருக்குத்	-11.183
▁எனில்	-11.1831
▁அதிகாரிகளுடன்	-11.1834
▁ஒவ்வொருவரும்	-11.1834
▁உரையாட	-11.1835
▁லக்	-11.1837
▁நடந்திருக்கிறது	-11.1838
▁தப்பிய	-11.184
க்குடி	-11.184
▁யாழ்ப்பாண	-11.1843
▁ஒடுக்க	-11.1844
▁61	-11.1845
▁துளை	-11.1846
▁பெற்றதாக	-11.1846
▁உதவியது	-11.1847
▁ஆசியா	-11.1847
ிருக்கிறதா	-11.1848
ரிஸ்	-11.1849
வனை	-11.1849
▁கடைகளை	-11.1849
▁திரைப்படங்கள்	-11.1851
▁கவுன்சில	-11.1853
ட்டார்	-11.1855
▁லக்ன	-11.1856
▁சக்தியை	-11.1861
▁நோன்பு	-11.1861
▁குடும்பங்கள	-11.1864
▁தோண்டி	-11.1866
▁உறை	-11.1867
▁ஷியா	-11.187
▁மல	-11.187
ிறதா	-11.1872
▁உறுதிசெய்ய	-11.1873
விடு	-11.1878
▁காலத்துக்கு	-11.1879
▁பொடி	-11.1883
▁வார்	-11.1891
ஞ	-11.1892
▁முப்படை	-11.1892
ோமா	-11.19
எனது	-11.19
▁கொல்கத்தாவில	-11.1901
▁செயற்படுத்த	-11.1901
▁காலகட்ட	-11.1901
▁இருப்பதும்	-11.1904
ுவான்	-11.1904
▁இருக்கவில்லை	-11.1906
▁ஏவ	-11.1912
▁கடக	-11.1912
▁சேர்த்துக்	-11.1912
▁கெய்க்வாட்	-11.1913
▁சிவாச்சாரியார்	-11.1913
▁மின்வெட்டு	-11.1913
▁பதவிக்காலம்	-11.1913
▁சீரமைக்க	-11.1914
▁இளநீர்	-11.1914
▁பிரபஞ்ச	-11.1914
▁இல்லாதது	-11.1914
▁சக்திவாய்ந்த	-11.1914
▁வாக்குவாதத்தில்	-11.1916
▁நளினி	-11.1917
▁பவானி	-11.1917
▁பெற்றோரிடம்	-11.1918
▁வெற்றியைப்	-11.1918
▁கற்க	-11.1918
▁பணியிடங்கள்	-11.1919
▁ரோந்து	-11.192
▁வேலைக்காக	-11.1922
▁இயற்கையான	-11.1922
▁*	-11.1923
ிருப்போம்	-11.1927
▁பொன்னியின்	-11.1927
▁நாகேந்திரன்	-11.1928
▁இரண்டும்	-11.1928
▁கரம்	-11.1928
▁கவனத்திற்கு	-11.1928
▁காத்திருக்கும்	-11.1929
▁காட்டியது	-11.1929
காலம்	-11.193
▁ஜானகி	-11.193
த்தின	-11.1931
▁எதிர்பார்க்காத	-11.1933
செல்வ	-11.1934
▁பலரையும்	-11.1935
▁காட்டமாக	-11.1935
▁திரைப்படங்களில்	-11.1936
96	-11.1936
▁பிரிவை	-11.1937
▁விவரித்த	-11.1937
▁தோண்ட	-11.1938
▁சிறப்பாகச்	-11.1938
க்கொடி	-11.194
தேசிய	-11.1942
▁குணம்	-11.1942
▁பார்த்தது	-11.1945
▁கும்பம்	-11.1945
▁பயணித்து	-11.1946
▁சாப்பிடுவது	-11.1946
▁தலைமைப்	-11.1946
▁நடைபெறுவது	-11.1948
▁சீக்கிய	-11.1948
▁தொண்டர்களை	-11.1949
ரெஸ்	-11.195
▁உடலுறவு	-11.1952
▁எங்களுக்குத்	-11.1952
▁இருக்கின்றது	-11.1953
▁அணிகளும்	-11.1955
▁விளைவுகள்	-11.1958
▁வாழ்க	-11.1961
▁கேள்விப்பட்ட	-11.1962
▁பெருவிழா	-11.1962
▁2007	-11.1963
ள்ளேயே	-11.1963
▁நினைக்கும்	-11.1964
▁நுழை	-11.1968
பட்டியில்	-11.1968
▁நிகழ்த்த	-11.1973
சிஸ்	-11.1979
யாவின்	-11.198
▁யூத	-11.198
வுக்குள்	-11.1983
▁கள்ளச்சாராய	-11.1983
ak	-11.1987
▁யோசனைக்கு	-11.1997
▁ஆட்சியர	-11.2
▁குறிப்ப	-11.2002
▁கில்ல	-11.2004
▁நிர்வாகத்தின்	-11.2004
▁மணிக்குள்	-11.2007
▁திணைக்களத்த	-11.2008
▁காதலர்	-11.2008
▁கைதான	-11.2008
▁இருக்குமா	-11.2008
▁கிளப்	-11.2008
▁பூரண	-11.2008
▁தாய	-11.2009
▁உழைக்க	-11.2014
▁வலியுறுத்துகிற	-11.2015
▁காலனி	-11.2017
▁விபத்த	-11.2018
▁நந்த	-11.2018
▁அமர்த்த	-11.202
▁76	-11.2026
க்கோட்டை	-11.2029
▁மீனவ	-11.2029
▁நலத்திட்ட	-11.203
▁கட்சியான	-11.2033
▁மதிப்பை	-11.2035
பெரிய	-11.2038
▁பேசினர்	-11.2038
ஸோ	-11.2041
▁வரதட்சணை	-11.2042
▁உற்ஸவ	-11.2042
▁ஸ்பெஷல்	-11.2042
▁பதவியேற்க	-11.2042
▁அதுமட்டுமின்றி	-11.2042
▁புண்படுத்த	-11.2042
▁ஆதரவளிக்க	-11.2042
▁ஆறுமுகசாமி	-11.2042
▁மார்கழி	-11.2042
▁கழுத்து	-11.2042
▁அப்டேட்	-11.2042
▁பெரியவர்கள்	-11.2042
▁இணைக்கும்	-11.2043
▁மதச்சார்பற்ற	-11.2044
▁கூற்று	-11.2044
▁மழைநீர்	-11.2044
▁இணைந்தார்	-11.2046
▁இந்தியத்	-11.2047
▁உத	-11.2048
▁மைக்	-11.2048
▁முடித்துவிட்டு	-11.2048
▁India	-11.2048
வித	-11.2049
▁இக்கோயிலில்	-11.2049
▁ஆதரவான	-11.205
சாலை	-11.2051
ுவதைப்	-11.2054
▁பயங்கரவாதி	-11.2054
▁காளியம்மன்	-11.2054
▁அக்கம்	-11.2056
▁தூதரகம்	-11.206
▁ஏற்படாமல்	-11.206
88	-11.2062
▁வியாபார	-11.2062
▁சிறுமிக்கு	-11.2062
▁ராஷ்டிர	-11.2063
மென்	-11.2064
▁கொண்டாடப்பட்டது	-11.2065
▁செல்சியஸ்	-11.2066
▁ராகுல	-11.2066
▁வருமா	-11.2066
▁அச்சத்தில்	-11.207
▁ஜெய்ப்பூர்	-11.2071
▁காலத்திலும்	-11.2073
▁தோற்று	-11.2073
▁பலவீனமாக	-11.2073
▁அதன்பின்னர்	-11.2075
▁ரூபாயாக	-11.2076
▁டியூ	-11.2076
▁வைப்பு	-11.2077
▁ஆர்வம	-11.2079
▁மேக்	-11.2079
▁படிப்பில்	-11.2081
▁கட்சியுடன்	-11.2082
▁தவிக்கும்	-11.2083
▁தேவாலய	-11.2084
▁வல்லுநர்	-11.2085
▁குலாம்	-11.2086
▁28-	-11.2086
▁சாவர்க்கர்	-11.2088
▁கையாண்ட	-11.2089
▁டெல்	-11.209
▁அவர்களைப்	-11.2091
▁நிகழ்வ	-11.2091
▁நடைபெறவில்லை	-11.2092
▁வெட்க	-11.2092
▁விரும்பினார்	-11.2093
▁மென்	-11.2094
▁அண்ணாமலைக்கு	-11.2095
▁குழுக்களை	-11.2095
▁பாக்ய	-11.2101
▁இரா	-11.2102
▁விமானங்களை	-11.2105
ரவ	-11.2107
▁ஏற்பட்டதாக	-11.2108
▁சிறுபான்மையினர்	-11.2112
ப்பாக்கம்	-11.2115
▁உயிரிழப்புகள்	-11.2117
▁தங்கும்	-11.2117
▁சுகாதாரத்	-11.2118
▁திருமணமாகி	-11.2123
▁சமநிலை	-11.2125
▁மேற்கொண்டுள்ள	-11.2128
▁பேனா	-11.2129
▁நிதியம்	-11.2129
▁தேக்க	-11.213
▁கொண்டவர்கள்	-11.2131
▁புக்	-11.2132
▁வயதாகும்	-11.2132
▁அலுவலகங்களில	-11.2133
▁அளித்துள்ளனர்	-11.2133
▁மேலான	-11.2135
சிதம்பரம்	-11.2142
ப்படுத்திய	-11.2145
▁வெளிய	-11.2146
▁நாடி	-11.2146
54	-11.2146
வேலுமணி	-11.2148
▁கலாச்சாரம்	-11.215
▁உத்தரப்பிரதேசம்	-11.215
▁ஒத்தி	-11.2151
ஜோ	-11.2151
▁தூண்டும்	-11.2155
▁எழுதுகிறார்	-11.2157
▁சின்னத்தை	-11.2158
▁திறமையை	-11.2158
▁நம்மால	-11.2158
▁ஈஸ்வர	-11.2159
'-	-11.2161
▁சதவிகிதமாக	-11.2161
ரெட்	-11.2163
மால்	-11.2163
▁Ma	-11.2163
▁பதிவுகள்	-11.2163
▁பிள்ளையார்	-11.2169
59	-11.217
மாட்டார்கள்	-11.217
▁இணைக்கப்பட்ட	-11.2171
▁கருப்பை	-11.2171
▁அகாடமி	-11.2171
▁கிரிமினல்	-11.2171
▁அதனடிப்படையில்	-11.2171
▁உள்ளூராட்சி	-11.2171
▁சித்ரவதை	-11.2171
▁மைக்கேல்	-11.2171
▁மேம்பாடு	-11.2171
தால	-11.2172
▁வரவழைத்து	-11.2172
ால்தான்	-11.2172
▁இளங்கோவன்	-11.2172
▁அலர்ட்	-11.2172
▁பொண்ணு	-11.2172
▁தப்பு	-11.2174
▁மறுத்துவிட்டார்	-11.2176
ப்பாட	-11.2176
▁பேய்	-11.2178
▁தாமஸ்	-11.218
▁அதிகரிக்கிறது	-11.2181
▁வாரங்களாக	-11.2181
▁சித்தர்	-11.2181
▁பாவம்	-11.2182
ுமென	-11.2182
▁பாவனை	-11.2183
▁இலட்சத்து	-11.2184
▁ஒப்படைத்த	-11.2185
க்கலாம்	-11.2186
▁இயக்கி	-11.2186
▁படமாக	-11.2187
▁செம	-11.219
▁சாட்டிய	-11.2191
▁சுவாரஸ்யமான	-11.2192
▁ரஷ்யாவிடம்	-11.2193
▁கற்ற	-11.2193
க்கொள்வது	-11.2195
▁கொல்லப்பட்டார்	-11.2199
▁குறிப்பிடும்	-11.2199
▁கோஷ்டி	-11.2199
▁சிக்கல்களை	-11.2201
ப்பகுதியில்	-11.2201
▁ஜெய்சங்கர்	-11.2203
▁ரன்ரேட்	-11.2208
▁ஆழமாக	-11.2208
▁அனுபவங்களை	-11.2209
▁காணாத	-11.221
▁குத்து	-11.2212
▁முடங்கி	-11.2214
▁போட்டியாளர்கள	-11.2217
▁மதிப்பெண்கள்	-11.222
▁போதையில்	-11.2221
▁குவா	-11.2222
▁அதற்கும்	-11.2223
▁பகுப்பாய்வு	-11.2223
கரி	-11.2224
▁ஏற்கவில்லை	-11.2226
▁அறிவிக்கப்படும்	-11.2226
யாம்	-11.2227
ரண	-11.2227
▁பழிவாங்க	-11.2228
தேவ்	-11.2229
குறி	-11.2232
ிக்கொள்ள	-11.2233
▁பனை	-11.2239
▁காங்கிரஸில	-11.2241
ஸ்கி	-11.2241
▁2025	-11.2243
▁லு	-11.2246
▁பழிவாங்கும்	-11.2246
மூல	-11.2247
▁பிரம்மாண்ட	-11.2248
▁தொழிற்சாலைகள்	-11.2249
▁கோள்	-11.225
முடியாத	-11.2253
▁அறிவுறுத்தி	-11.2258
க்கொண்டனர்	-11.2261
▁புண்	-11.2261
▁குளம்	-11.2262
▁கற்றுக்கொண்ட	-11.2264
▁கல்யாண்	-11.2269
வெல்	-11.2272
▁தூங்கி	-11.2273
▁ஷே	-11.2273
▁ஒப்பிட	-11.2275
▁சென்றுள்ளது	-11.2276
▁நகரமான	-11.2277
▁திட்டத்துக்கு	-11.2278
வரான	-11.228
▁தொகுதிகளுக்கு	-11.2283
ுவாங்க	-11.2286
▁பரிசீலிக்க	-11.2287
▁கைவிடப்பட்ட	-11.2287
▁பூமியை	-11.2288
-20	-11.2289
▁பழம்	-11.2289
நில	-11.229
▁சுருக்க	-11.2291
▁வெச்சு	-11.2292
▁இத	-11.2293
▁தண்ட	-11.2296
▁யோகத்தை	-11.2297
▁விநாயக	-11.23
▁அங்கமாக	-11.2303
▁இளவரசி	-11.2303
▁நிபுணத்துவ	-11.2303
▁ஆகையால்	-11.2303
▁கோட்பாடு	-11.2303
யோட	-11.2304
▁பிரதாப்	-11.2304
▁பரிகார	-11.2305
▁வயதுக்குட்பட்ட	-11.2306
▁ஆரத்தி	-11.2306
▁தரப்பிலும்	-11.2306
▁நாள்தோறும்	-11.2306
▁உருவாக்கியது	-11.2307
▁எங்கிருந்து	-11.2307
ஸும்	-11.2309
▁வீழ்த்தினார்	-11.2312
▁அதேவேளையில்	-11.2312
▁இருப்பேன்	-11.2314
▁ரஞ்சன்	-11.2315
▁புறம்	-11.2315
▁23-	-11.2318
▁இலக்காக	-11.2318
▁இருக்கக்	-11.2318
▁தீர்வாக	-11.2319
▁பதற்றமான	-11.232
▁ஹூ	-11.2321
▁சரிவு	-11.2321
▁ஒருபக்கம்	-11.2322
▁3,000	-11.2323
▁கிடைக்காமல்	-11.2323
▁இந்தியாவிலும்	-11.2324
▁பொறுத்த	-11.2324
▁தொடங்குவதற்கு	-11.2324
டாக்	-11.2327
▁உறுதிமொழி	-11.2328
▁மாகாணங்களில்	-11.2328
▁தோற்றம்	-11.233
▁எழுந்தருள	-11.2333
▁செயற்பாட்டாளர்	-11.2333
▁ஜன்னல்	-11.2334
▁அழுது	-11.2337
▁வைரலானது	-11.2338
▁அமைப்புகளை	-11.234
▁முன்னெடுத்து	-11.2342
ive	-11.2343
▁செலவ	-11.2343
▁அளிக்கவில்லை	-11.2343
▁இதழ	-11.2343
ஸ்தா	-11.2344
▁கூட்டுப்	-11.2346
▁கோஷம்	-11.2346
இந்து	-11.2346
▁ஆகிவிட்டது	-11.2348
▁வித்யா	-11.2348
▁போகிற	-11.2351
▁உற்பத்தியாளர்கள	-11.2351
▁சாடிய	-11.2352
ap	-11.2353
▁இருங்கள்	-11.2354
▁குளிர்	-11.2354
த்தும்	-11.2356
▁சென்றுவிட்டார்	-11.2356
ேயே	-11.2358
▁கற்ப	-11.2359
▁ராஜ்ய	-11.2359
▁ஏந்தி	-11.236
▁பிராமணர்	-11.2369
ப்படுகிற	-11.2372
▁கணித	-11.2375
க்காகவும்	-11.2377
▁உலோக	-11.2378
▁நீக்கிய	-11.2379
▁தவித்த	-11.2381
▁சிகிச்சையில்	-11.2385
▁மாற்றமும்	-11.2386
▁குகை	-11.2388
▁கைவிட்டு	-11.2388
▁மகரம்	-11.2389
▁இறந்தவர்கள	-11.2392
▁அழித்து	-11.2392
▁உள	-11.2394
▁பிறந்தநாளை	-11.2395
▁கனவை	-11.2398
கான	-11.2399
▁அதைவிட	-11.2401
▁பெற்றோருக்கு	-11.2401
▁கோவாவில	-11.2403
▁குதித்து	-11.2403
ந்தை	-11.2405
▁முன்னறிவிப்பு	-11.2407
வந்தது	-11.2408
▁திட	-11.2408
▁ஒத்து	-11.2409
57	-11.2411
க்கிங்	-11.2411
▁சம்பவத்துக்கு	-11.2411
▁மோகன	-11.2411
▁நாய்கள்	-11.2412
▁சுற்றுக்கு	-11.2412
▁முனி	-11.2412
▁நக	-11.2417
▁மறைந்து	-11.2418
▁இணையாக	-11.2419
பிரதேச	-11.2421
▁கலா	-11.2422
ant	-11.2424
9%	-11.2427
▁விளக்கி	-11.2428
கூர்	-11.2429
▁இஸ்	-11.2429
▁ராயல்	-11.243
▁புகழ்ந்து	-11.2432
▁சிறைக்கு	-11.2435
▁சூறாவளி	-11.2436
▁சலசலப்பை	-11.2436
▁பார்ட்னர்ஷிப்	-11.2436
▁வறட்சி	-11.2436
▁சுதர்சன	-11.2436
▁வலுசக்தி	-11.2437
▁சேஸிங்	-11.2437
▁ஈர்த்த	-11.2437
▁1989	-11.2438
▁சரிபார்க்க	-11.2438
▁முதுகலை	-11.2439
▁ரிக்டர	-11.2439
▁செய்கிறேன்	-11.244
▁மடி	-11.2441
▁06	-11.2441
▁ஒப்பந்தத்தின்	-11.2442
04	-11.2442
▁மின்னஞ்சல்	-11.2446
▁திரையரங்குகளில்	-11.2446
▁தூக்கிட்டு	-11.2446
▁பிரிவினர	-11.2447
▁வரவேற்றனர்	-11.2447
▁வந்தோம்	-11.2449
▁சேலை	-11.2449
▁பிகார்	-11.2449
94	-11.245
▁சுதந்திரப்	-11.245
▁அனுப்பியது	-11.2451
கிற	-11.2451
▁நடராஜ	-11.2452
▁உயர்ந்தது	-11.2457
மட்ட	-11.2458
▁காட்டில்	-11.2459
▁பெருமாளுக்கு	-11.2459
கிருஷ்ண	-11.2459
லாவ	-11.2463
▁ஏற்படாது	-11.2463
▁கேட்பது	-11.2464
▁செயற்பாடுகளை	-11.247
▁கவனித்துக்	-11.247
▁அறிவிக்கும்	-11.2472
▁ஹர	-11.2474
▁எச்சரிக்கையாக	-11.2475
▁கூறியிருந்தது	-11.2476
▁முதலீட்டாளர்	-11.2477
த்தனர்	-11.2478
▁வசனம்	-11.2478
▁மண்ணை	-11.248
▁குளிர்கால	-11.2481
.22	-11.2482
▁காலமாகவே	-11.2484
▁இவ்வ	-11.2486
▁பெயரும்	-11.2487
ப்பட்டவர்	-11.2487
▁தூக்கிய	-11.2488
வளை	-11.2488
யிட்டு	-11.2489
▁நடித்துள்ளார்	-11.2493
▁25-	-11.2494
த்தின்போது	-11.2494
▁குவிக்கப்பட்ட	-11.2496
▁24-	-11.2497
▁பேரழிவு	-11.2498
▁சிற்ப	-11.25
▁தீவுகள்	-11.2501
பாலு	-11.2501
▁தொடர்ப	-11.2502
▁வருடமாக	-11.2502
▁டாக்டர	-11.2504
▁சீர்திருத்தங்கள	-11.2504
ine	-11.2507
▁விடுவித்த	-11.2508
▁நடந்தாலும்	-11.2508
▁இருந்தா	-11.2508
▁வைபவ	-11.2508
வந்து	-11.2512
▁பட்டத்தை	-11.2512
▁சேவா	-11.2512
▁பிரபலம்	-11.2513
▁மக்களையும்	-11.2513
▁பெட்டிகள்	-11.2514
▁விட்டுக்	-11.2516
▁நிலா	-11.2516
▁காலத்தின்	-11.2517
▁ஆர்ப்பாட்ட	-11.2519
▁விழி	-11.252
▁எல்லைப்	-11.2521
▁வாக்க	-11.2521
▁அமலாக்க	-11.2524
▁போர்டு	-11.2527
68	-11.2527
▁நீர்நிலை	-11.2529
▁சொல்லப்பட்டது	-11.2529
▁எல்லைக்குள்	-11.2529
▁எழுந்துள்ளன	-11.253
nd	-11.2532
▁நீராட	-11.2533
▁சிம்மம்	-11.2533
நேரு	-11.2535
▁வடிவம்	-11.2539
▁தெரிவித்ததாக	-11.2542
▁ஒடிஷா	-11.2543
▁மேற்கொள்வது	-11.2544
▁கலர்	-11.2546
▁விருந்தினர்	-11.2547
▁02	-11.2547
▁முன்மொழி	-11.2551
▁கட்டம்	-11.2552
▁தெற்க	-11.2552
▁ட்ரோன்	-11.2553
கொடுக்க	-11.2556
▁நாட்களுக்குள்	-11.2556
▁குவைத்	-11.2557
▁சாக	-11.2559
▁அளிப்பதாக	-11.2559
▁அம்ச	-11.2559
▁குடியரச	-11.256
▁வெங்கட்	-11.2561
களிடமும்	-11.2561
▁பொற	-11.2563
▁சளி	-11.2567
▁பங்குகளை	-11.2568
▁போற்ற	-11.2568
▁வங்கதேசத்தில	-11.2571
▁வழிமுறை	-11.2571
வனுக்கு	-11.2571
▁தன்னார்வ	-11.2571
▁சடலம்	-11.2572
▁ஆய்வறிக்கை	-11.2572
▁செந்தில்பாலாஜி	-11.2572
▁கூறுகின்றார்	-11.2572
IC	-11.2572
▁எரிமலை	-11.2573
▁நிறுவனத்திடம்	-11.2573
▁நாடுகளுடன	-11.2574
▁சாகல	-11.2574
▁நானா	-11.2575
▁டைட்டன்ஸ்	-11.2575
▁அமலாக்கப்	-11.2576
▁எளிமையான	-11.2576
▁சின்	-11.2577
▁சேத	-11.2578
▁கட்டை	-11.2579
▁காவல்துறையில்	-11.2579
▁பிரிட்டனின்	-11.258
▁பெருநகர	-11.258
க்கட்டி	-11.258
▁பெண்ணிடம்	-11.2581
▁பூங்காவில்	-11.2583
▁வேக்சின்	-11.2584
ாமை	-11.2585
▁மையங்களில்	-11.2586
வதா	-11.2587
லைன்	-11.2587
▁லதா	-11.2588
ச்சென்ற	-11.2588
▁முயற்சிகளில்	-11.2588
பாண்டி	-11.2589
▁ரோட்டில்	-11.2589
▁வைக்கிறது	-11.2591
▁பணியாற்றினார்	-11.2592
▁போதுமானதாக	-11.2593
▁கல்லீரல்	-11.2594
▁க்கு	-11.2595
கின்ற	-11.2595
▁சாட்ட	-11.2596
300	-11.2596
▁மினி	-11.2599
▁நினைத்தார்	-11.2599
▁மீள்	-11.2601
▁கொள்வார்கள்	-11.2603
▁மறைவுக்கு	-11.2604
▁வெளியிடப்படும்	-11.2606
▁நடத்துவதற்கு	-11.2607
▁கூறலாம்	-11.2607
▁ஜோன்ஸ்	-11.2608
▁பெயரிடப்பட்ட	-11.2608
▁அவதார	-11.2609
▁டாலருக்கு	-11.261
▁சஹ	-11.2611
▁மகிழ்ச்சியான	-11.2612
புரா	-11.2616
▁மற்றபடி	-11.2618
▁சபாநாயகர	-11.2621
▁நண்பன்	-11.2623
▁கூறியுள்ள	-11.2625
க்கெட்	-11.2626
▁சந்திப்பின்	-11.2629
▁நடிகராக	-11.2629
▁டாக்	-11.2629
ாவிட்டாலும்	-11.2631
▁ஆக்கிரமித்த	-11.2631
▁அம்சம்	-11.2631
▁வாசக	-11.2633
▁படைக்க	-11.2635
▁நடந்துள்ளன	-11.2635
▁அசாதாரண	-11.2637
▁தீர்வை	-11.2637
▁பற்ற	-11.2638
▁ஒட்டு	-11.2641
▁பிரதமருக்கு	-11.2641
கையில்	-11.2642
▁ஏற்பட்டதால்	-11.2643
▁வைத்துக்கொள்ள	-11.2645
▁குழுமத்தின	-11.2646
▁கொடுப்பனவு	-11.2646
▁இதற்குக்	-11.2648
▁ப்ரோ	-11.2649
▁கேன்	-11.2649
▁தியாகம்	-11.265
▁சாதித்த	-11.265
▁பாஜகவும்	-11.2652
மாட்டார்	-11.2656
வில	-11.2658
தீன்	-11.2661
▁தமிழ்த்	-11.2662
▁உன்ன	-11.2667
▁இடங்களையும்	-11.2668
▁உருக்க	-11.2675
▁தள்ளிய	-11.2676
வோம்	-11.2676
▁பெற்றுக்கொண்ட	-11.2677
▁வாரத்திற்கு	-11.2682
நகரில்	-11.2684
▁இன்ன	-11.2685
▁இடங்கள	-11.2688
▁வீடியோவாக	-11.2689
இன்று	-11.269
▁நான்தான்	-11.269
▁பக்தர்களை	-11.2691
▁தலைவர்களில்	-11.2696
200	-11.2696
▁சாதன	-11.2703
மேடு	-11.2703
▁பார்க்கிறார்	-11.2704
▁சமுத்திர	-11.2704
▁வகைகளை	-11.2706
▁சுப்ரமணிய	-11.2708
▁நிறைவேற	-11.2708
▁அப்பார்ட்மெண்ட்	-11.2708
▁GMT	-11.2709
▁ஒருவருக்கொருவர	-11.2709
▁சீர்காழி	-11.2709
▁பழங்கால	-11.2709
▁பாரம்பர்ய	-11.2709
▁முய்சு	-11.2709
▁மேகதாது	-11.2709
▁உட்கட்டமைப்பு	-11.2709
▁லேப்டாப்	-11.2709
▁ஒண்ணு	-11.2709
▁ஊஞ்சல	-11.2709
▁ஷூட்டிங்	-11.2709
▁விரிசல்	-11.2709
▁ராஜ்நாத்	-11.271
▁ஆஜராகி	-11.271
▁காட்டுகின்றன	-11.2711
▁92	-11.2711
▁பிரெஞ்சு	-11.2711
▁வழிவகை	-11.2711
▁போலீஸாரிடம்	-11.2713
▁குவாரி	-11.2714
▁தீங்கு	-11.2714
▁விஜே	-11.2715
▁ஆக்கிரமிப்ப	-11.2715
▁ஜோடோ	-11.2715
▁இயக்குநர	-11.2715
▁விண்ணப்பங்கள்	-11.2716
▁பார்ப்பதற்கு	-11.2716
▁தொடர்பும்	-11.2717
▁ஷேர்	-11.2717
▁முகாமிட்ட	-11.2717
▁தாண்ட	-11.2718
களாகவும்	-11.2719
▁இறக்கி	-11.2719
▁நம்பிக்கையில்லா	-11.2721
▁செய்வ	-11.2721
▁விதவிதமா	-11.2722
▁பரிசோதனைக்கு	-11.2722
ப்படுகின்ற	-11.2723
▁பாராட்டினார்	-11.2723
▁பெருகும்	-11.2724
▁வரிகள்	-11.2725
▁இயலாது	-11.2725
▁மருந்தை	-11.2726
▁சாகச	-11.2727
46	-11.2727
▁விளைவிக்கும்	-11.2728
▁திறன	-11.273
வாட்	-11.273
டித்த	-11.2731
▁தொகுதியை	-11.2731
▁மூன்றில்	-11.2733
▁நிர்வாணமாக	-11.2734
▁இப்பகுதியில்	-11.2734
▁நாசர்	-11.2736
▁எட்டி	-11.2737
▁தென்னை	-11.2742
▁ஆண்களுக்கு	-11.2743
▁விவாதிக்கப்பட்ட	-11.2743
▁பெருகி	-11.2743
▁வளர்	-11.2744
▁நார்	-11.2745
▁ஊக்குவிக்கும்	-11.2745
▁ஜியோ	-11.2748
▁நம்பிக்கையில்	-11.2748
திர	-11.2748
▁வேந்தர்	-11.2749
▁பேரணியில்	-11.2752
▁மாதவன்	-11.2753
▁செய்யக்கூடிய	-11.2753
▁கிறிஸ்துவ	-11.2754
▁முயற்சித்து	-11.2757
த்திற்கே	-11.2758
67	-11.2758
▁புறப்பட	-11.2759
▁கிராமிய	-11.2762
▁செய்யப்பட்டதாக	-11.2763
▁தொடங்கியுள்ளனர்	-11.277
▁கணிப்புகள்	-11.277
▁பிரசாரத்தை	-11.2771
▁முன்வைத்தார்	-11.2771
ெடுக்க	-11.2771
▁குழந்தைகளுடன்	-11.2772
▁2023:	-11.2773
▁ஜெயக்குமார	-11.2777
▁வார்த்தையை	-11.2778
▁சொந்தமானது	-11.2779
▁புதுமை	-11.2782
▁முதல்வருக்கு	-11.2783
▁எல்லைக்கு	-11.2787
காட்	-11.2788
▁துன்புறுத்தல்	-11.2789
▁கொடிய	-11.2789
▁யூதர்கள	-11.2789
▁வேட	-11.279
58	-11.2791
▁டாக்டர்கள்	-11.2792
ிப்பது	-11.2793
▁அங்கும்	-11.2794
▁தம்	-11.2795
▁நடத்தப்படுகிறது	-11.2799
▁சந்திரன	-11.2801
▁தருவது	-11.2802
வாடி	-11.2808
▁வந்தார்கள்	-11.2811
மயமாக்க	-11.2812
▁ஆலோசிக்க	-11.2816
▁திருமணத்துக்கு	-11.2817
க்கெல்லாம்	-11.2818
▁அதிபர	-11.2819
▁ரிஷப்	-11.2819
▁செய்துகொண்டார்	-11.282
மாநில	-11.2821
▁இடிக்கப்பட்ட	-11.2822
▁அறிஞர்	-11.2825
▁வாட்	-11.2826
▁மெயின்	-11.2831
த்திரி	-11.2831
▁மழைக்கால	-11.2832
▁வெளியுறவுத்	-11.2834
க்கிட	-11.2836
▁சிறார்	-11.2837
▁பாகம்	-11.2838
▁இல்லையே	-11.2839
▁கானுக்கு	-11.2839
▁பேசுவதற்கு	-11.284
▁சந்திரா	-11.2841
▁மற்றவர்களை	-11.2841
▁விட்டுச்	-11.2842
▁நெரிசல	-11.2847
யொன்றை	-11.2847
▁இடப்பெயர்ச்சி	-11.2847
▁மூலோபாய	-11.2847
▁வெளியீடு	-11.2847
▁மல்லிகார்ஜுன	-11.2847
▁வாக்குச்சாவடி	-11.2847
▁தஞ்சம்	-11.2847
▁ஆவடி	-11.2848
▁கயிறு	-11.2848
▁அய்யனார்	-11.2848
▁கிளப்ப	-11.2849
▁வீசக்கூடும்	-11.2849
▁சட்டப்பிரிவு	-11.2849
▁எண்ணிக்கையிலான	-11.2849
▁ஸ்டார்ட்	-11.285
▁கையெழுத்திட	-11.285
▁வாட்ஸ்அப்	-11.285
▁அடுத்தபடியாக	-11.285
▁போபால்	-11.2851
▁விரும்புகிறோம்	-11.2851
▁1970	-11.2852
▁இரண்டையும்	-11.2853
களினால்	-11.2853
▁ஸ்டோரி	-11.2853
▁ஹைதராபாத்தில்	-11.2853
▁வசிக்க	-11.2854
▁கருதுகிறார்	-11.2855
▁எருமை	-11.2856
▁பருவநிலை	-11.2856
▁தோல	-11.2856
▁பயிற்சிகளை	-11.2857
▁ஜாங்	-11.2859
▁செய்கை	-11.2861
▁வாட்ச்	-11.2861
க்கல்லூரி	-11.2862
▁மரணமடைந்த	-11.2863
▁22-	-11.2864
▁பக்கங்களில்	-11.2865
▁வழங்கவும்	-11.2867
▁நாட்களை	-11.2868
ட்டாங்க	-11.2868
▁சார்ஜ	-11.287
▁பெண்ணாக	-11.2871
▁சிவக்குமார்	-11.2871
▁சுரங்கப்பாதை	-11.2872
▁நடுங்க	-11.2873
▁இயந்திரங்கள்	-11.2874
▁சிபி	-11.2875
▁உபி	-11.2877
▁கடனாக	-11.2877
▁சேமித்து	-11.2877
!"-	-11.2878
63	-11.2879
▁செல்வார்கள்	-11.288
வருகிறார்கள்	-11.2881
யிலோ	-11.2881
▁அறிவை	-11.2885
▁வனப்பகுதி	-11.2886
▁காற்றின்	-11.2889
▁ஏற்படுவது	-11.289
▁நெறி	-11.2893
▁குல்	-11.2898
▁ட்ரா	-11.29
▁கிராமங்களை	-11.29
▁கிளாஸ்	-11.29
▁நிர்மாண	-11.2901
▁பிரிவினருக்கு	-11.2903
▁மன்னர	-11.2903
▁நஷ்டம்	-11.2903
▁முயற்சிக்க	-11.2904
▁பேசாமல்	-11.2905
▁உலகை	-11.2907
▁அனுப்பப்பட்டது	-11.2909
▁இவ்	-11.2912
▁காந்த	-11.2913
▁உயர்நிலை	-11.2916
▁தர்மம்	-11.2916
▁இல்லாம	-11.2916
▁உறவினர	-11.2917
▁காதலன்	-11.2918
▁தினகரன	-11.2921
▁பயந்த	-11.2921
கொண்டிருக்கிறது	-11.2922
தாரி	-11.2923
யிலான	-11.2925
▁நகர்த்த	-11.2926
▁பதிவிட்டுள்ள	-11.2927
▁மோதலை	-11.2928
▁16-	-11.293
▁கல்வியில்	-11.2932
▁விளாசி	-11.2933
▁நியமிக்கப்பட	-11.2936
▁இதுபோன்று	-11.2936
▁ஆற்றலை	-11.2938
▁அர்ப்பணிப்பு	-11.2944
▁கைதுசெய்ய	-11.2944
▁இருக்காங்க	-11.2945
▁நீளம்	-11.2946
▁தந்திர	-11.2947
▁இன்றுவரை	-11.2951
▁பிழைத்த	-11.2952
தென	-11.2952
▁1,0	-11.2953
▁எடுத்தால்	-11.2957
▁ஆடைகள்	-11.2958
ுவதையும்	-11.2959
▁உயரதிகாரி	-11.2959
தமிழ்நாடு	-11.2959
ஃபீ	-11.296
க்குள்ளே	-11.2961
▁திருடிய	-11.2961
▁செலவுத்	-11.2962
▁கப்பலை	-11.2962
▁கணவருக்கு	-11.2964
▁கோடியை	-11.2965
▁அங்கி	-11.2965
▁உள்ளார்கள்	-11.2966
▁இளைஞரை	-11.2967
▁எரிந்த	-11.2968
ம்தேதி	-11.297
அவ	-11.297
45	-11.297
ப்பட்டதை	-11.2972
▁தருவார்	-11.2978
▁தொடர்ந்தது	-11.2978
▁2002	-11.2982
▁புலம்பெயர்	-11.2982
▁பாதிப்பும்	-11.2983
2,000	-11.2984
▁செய்திருக்க	-11.2985
▁சித்தார்த்	-11.2988
▁சுப்ரீம்	-11.2988
ा	-11.2988
▁இறையாண்மை	-11.2988
▁காணொலி	-11.2988
▁நிலச்சரிவு	-11.2988
▁கையிருப்பு	-11.2988
▁கள்ளழகர்	-11.2988
▁ஸ்கூல்	-11.2988
▁ஐபிஎஸ்	-11.2988
▁சம்மதம்	-11.2989
▁திருவிளக்கு	-11.2989
▁ரேவதி	-11.2989
▁பரப்பளவில்	-11.2989
▁இறப்ப	-11.2989
▁பொதுக்கூட்டம்	-11.2989
▁அமைவாக	-11.2991
▁வெளியிட்டிருந்த	-11.2991
பத்து	-11.2991
▁வாதிட	-11.2992
▁யாரிடமும்	-11.2994
▁மதிப்பீட்டில்	-11.2995
▁புகார	-11.2999
▁கொடைக்கானல்	-11.2999
ரஷ்யா	-11.3
▁கொள்வோம்	-11.3002
▁சாப்பிடும்	-11.3002
▁உலர்	-11.3003
▁8:00	-11.3004
▁நாகர்கோவில்	-11.3004
த்துடனும்	-11.3008
▁தன்னால்	-11.3008
▁நிருபர்	-11.3008
தர்ம	-11.301
▁மிசோரம்	-11.301
▁வேண்டியதில்லை	-11.3011
ப்போதைய	-11.3011
சட்ட	-11.3011
▁உதவித்	-11.3012
▁71	-11.3013
▁மருத்துவரை	-11.3013
▁v	-11.3014
▁மூலமும்	-11.3016
▁அம	-11.302
▁விதிமுறை	-11.3021
▁ஸ்பெயின்	-11.3023
▁மியான்மர்	-11.3023
▁ஒன்பதாம்	-11.3024
▁உடம்பு	-11.3024
▁மாற்றாக	-11.3024
▁பேசினால்	-11.3024
▁வளங்கள்	-11.3025
▁விருச்சிகம்	-11.3026
▁வழங்குதல்	-11.3029
▁சுரண்ட	-11.303
▁பிரேம்	-11.3032
▁பாகங்கள்	-11.3032
▁தொண்டை	-11.3032
▁நீண்டகாலமாக	-11.3032
பணம்	-11.3036
▁அர்ஜுன்	-11.3037
▁பிடியில்	-11.3037
▁மாத்திரைகள்	-11.3038
▁பச	-11.3042
ளாக	-11.3048
▁தமிழகத்திற்கு	-11.3048
▁மரிய	-11.3049
▁பண்டிட்	-11.3049
▁செயற்பாடுகள்	-11.305
▁கருப்ப	-11.3052
▁விரட்டி	-11.3053
▁முடிந்துள்ளது	-11.3054
▁is	-11.3055
▁பிரிவ	-11.3057
▁பேட்டர்	-11.306
மழை	-11.306
▁இல	-11.306
▁தேவைப்படுகிறது	-11.3062
▁தரப்பினர	-11.3062
▁தேவைப்பட்டது	-11.3064
▁மனை	-11.3064
▁தத்துவ	-11.3065
▁ஆண்டவர்	-11.3065
▁பார்வையை	-11.3066
▁பேருந்துகளில்	-11.3067
▁பன்னீர்செல்வத்த	-11.307
▁ஏற்படாத	-11.3072
▁ஊழியர	-11.3072
▁குடும்பத்தார	-11.3074
▁அதிர்ஷ்ட	-11.3074
▁உட்படுத்த	-11.3075
▁வகுத்த	-11.3075
▁பெண்மணி	-11.3076
ோரை	-11.3078
▁காப்பீட்டு	-11.3079
▁கூறினார்கள்	-11.308
▁விடுகிறது	-11.3082
81	-11.3083
▁விளங்க	-11.3084
வலி	-11.3086
▁ஆர்பி	-11.3088
▁சிறந்து	-11.3089
த்ரி	-11.309
▁இந்	-11.309
▁ஆளான	-11.309
ஃப்ள	-11.3091
▁மனப்பான்மை	-11.3092
▁அழிவ	-11.3094
......	-11.3096
▁இயல்பாக	-11.3096
▁ஊற்ற	-11.3101
அழகிரி	-11.3102
▁பிரச்சனைகளை	-11.3103
▁பாதுகாப்புடன்	-11.3104
▁குடும்பங்களை	-11.3106
▁ஆண்டுகளாகவே	-11.3106
▁ஈட்டி	-11.3111
ud	-11.3111
▁தோற்கடித்த	-11.3111
▁ஆர்ப்பாட்டத்தில	-11.3114
பிரதமர்	-11.3115
▁வாக்குப்	-11.3116
▁சமமாக	-11.312
▁செயல்கள்	-11.3127
▁விற்பனைக்கு	-11.3127
▁கழ	-11.3129
ப்பட்டிருக்கும்	-11.3129
▁குரோ	-11.313
▁The	-11.3131
▁தானிய	-11.3131
▁நிகழ்ச்சியான	-11.3131
▁ஒதுக்கீட்டை	-11.3131
▁பட்டமளிப்பு	-11.3131
▁துளசி	-11.3131
▁ஐப்பசி	-11.3131
▁சமிதி	-11.3131
▁மமதா	-11.3131
▁இஸ்லாமாபாத்	-11.3131
▁ஏதுவாக	-11.3131
▁பஜனை	-11.3131
▁மின்னல்	-11.3131
▁துணைப்	-11.3132
சஸ்	-11.3132
ுபவர்களுக்கு	-11.3132
RA	-11.3133
▁சுட்டிக்	-11.3134
▁எழுத்த	-11.3136
▁ஆட்டங்களில்	-11.3136
▁மற்றும	-11.3137
யையொட்டி	-11.3137
▁வாருங்கள்	-11.3139
▁சுற்றிலும்	-11.3139
▁இடைநீக்கம்	-11.3139
▁தலைமையை	-11.314
▁அண்ணன	-11.3141
▁காரியங்கள்	-11.3141
▁மனுதாரர்	-11.3141
▁அசை	-11.3142
▁நூல	-11.3143
▁விடுப்பு	-11.3145
▁கேக்	-11.3146
▁தெலங்கானாவில்	-11.3146
▁இருக்கக்கூடும்	-11.3147
▁குழந்தைகளும்	-11.3148
▁சிதற	-11.3149
▁முகாம்களில்	-11.3152
▁நரம்பு	-11.3154
▁காலணி	-11.3154
▁போதெல்லாம்	-11.3154
கிடைக்கப்போகிறது	-11.3155
▁பணிகளுக்காக	-11.3155
▁மாநகராட்சியில்	-11.3156
▁சாட்டி	-11.3157
ve	-11.3159
▁அறிந்துகொள்ள	-11.3159
▁சந்தர்ப்பம்	-11.316
▁பங்களிப்ப	-11.3161
▁நிறைவேற்றப்பட	-11.3161
▁ருசி	-11.3162
▁லைன்	-11.3163
▁வளர்ச்சியில்	-11.3165
▁வழங்குவதற்காக	-11.3167
▁திட்டமிடல்	-11.3167
▁சிக்கிக்	-11.3168
வாரா	-11.3169
▁தரப்பிற்கு	-11.3172
த்துப்	-11.3172
▁நாட்	-11.3173
▁அதிபதியாக	-11.3173
▁கத	-11.3173
▁திட்டமும்	-11.3173
கிறேன்	-11.3174
▁முதல்வரை	-11.3175
▁முயன்றது	-11.3176
▁தொடர்புகொண்டு	-11.3176
▁தளத்தை	-11.3178
ni	-11.3179
▁சாமியார்	-11.3179
▁தீர்வுகளை	-11.318
▁அல்லாமல்	-11.3184
▁சூழ்நிலையை	-11.3184
▁பேசிக்கொண்ட	-11.3184
▁மருமகள்	-11.3185
▁தம்பதிக்கு	-11.3185
▁ராணுவத்தினர்	-11.3185
ங்கே	-11.3186
▁கடின	-11.3186
▁ஆங்கிலேயர்	-11.319
▁செலுத்தப்படும்	-11.3191
▁மழையால்	-11.3191
▁மயான	-11.3192
▁ரியா	-11.3192
▁நகரங்கள்	-11.3195
ill	-11.3196
▁உத்தம	-11.3203
▁கறி	-11.3204
▁முறையே	-11.3204
100	-11.3204
▁பேரறிவாளன	-11.3205
▁பயோ	-11.3205
▁வல்ல	-11.3206
▁சந்த	-11.3208
▁வேலைத்திட்டத்தை	-11.321
சுர	-11.3211
▁வைத்திருக்கிறது	-11.3211
▁கோவிந்த்	-11.3213
கட்டி	-11.3213
▁என்பதுடன்	-11.3215
▁மில்லி	-11.3215
ச்சாமி	-11.3215
▁திறக்கப்பட்டது	-11.3215
▁வைத்துவிட்டு	-11.3218
▁தனிமைப்படுத்த	-11.3218
ுவீங்க	-11.3222
▁பதிவாகிய	-11.3226
▁பொருத்தி	-11.323
▁நிரந்தரமாக	-11.323
▁காங்கிரஸ	-11.3235
நாராயண	-11.3237
▁ரங்க	-11.3237
▁பூண்டு	-11.3239
▁தலைவராகவும்	-11.324
▁பணத்தில்	-11.324
க்கொள்ளுங்கள்	-11.3241
The	-11.3247
ராகுல்	-11.3247
ஒரே	-11.3249
▁நர்	-11.3252
▁சமமான	-11.3253
▁கைதிகளை	-11.3253
தேஷ்	-11.3255
▁மாவட்டங்களை	-11.3255
▁அனர்த்த	-11.3256
▁அகதி	-11.3257
▁நன்றியை	-11.3257
▁சீசன	-11.3257
▁கடையை	-11.3259
வீர்	-11.3263
▁தேர்தல	-11.3264
சாக	-11.3265
▁பேட்டியளித்த	-11.3266
▁தேதியை	-11.3267
▁போற	-11.3267
▁கௌ	-11.327
▁கஜ	-11.3274
▁சுற்றாடல்	-11.3276
▁டிசம்பரில்	-11.3276
▁முறியடிக்க	-11.3276
▁வவுனியா	-11.3276
▁வைட்டமின்	-11.3276
▁பிரவீன்	-11.3276
▁ஆகாஷ்	-11.3276
▁பொறாமை	-11.3276
▁அபேவர்தன	-11.3276
ப்பாதை	-11.3276
▁மன்னார்குடி	-11.3276
▁சேதுபதி	-11.3277
▁அவசியமில்லை	-11.3277
▁மட்டுப்படுத்த	-11.3277
யன	-11.3277
▁மேக்ஸ்வெல்	-11.3277
▁மூலதன	-11.3278
▁துறவி	-11.3278
▁செய்வேன்	-11.3279
▁முரசொலி	-11.3279
▁கும்பாபிஷேகத்தை	-11.328
▁கடல்சார்	-11.328
▁அதனுடன்	-11.328
▁நின்றது	-11.3282
▁ஆகியோருடன்	-11.3283
▁நீரஜ்	-11.3283
▁அவல	-11.3284
▁அப்படியானால்	-11.3284
▁கொடுங்கள்	-11.3284
▁50%	-11.3285
பண	-11.3286
▁ஊடகம்	-11.3286
▁நேசிக்க	-11.3288
சுந்தர	-11.3288
ிடமே	-11.3289
க்காய்	-11.3289
ப்போவதில்லை	-11.329
▁370	-11.3291
▁கணேஷ்	-11.3293
▁கொலு	-11.3293
▁கடலுக்கு	-11.3294
▁மைசூர்	-11.3295
▁சிறுபான்மையினர	-11.3296
▁தணிக்கை	-11.3297
யுமே	-11.3301
▁நஷ்ட	-11.3301
▁திறப்ப	-11.3303
▁கற்று	-11.3306
▁யோ	-11.3306
▁நடிக்கும்	-11.3306
▁ஏமாற்றிய	-11.3306
▁வந்ததாகவும்	-11.3308
▁பட்டினி	-11.3308
▁மிருக	-11.331
▁இடைப்பட்ட	-11.331
▁ஃபார்	-11.3311
▁கேட்கவில்லை	-11.3312
▁தானும்	-11.3312
▁தாண்டிய	-11.3312
▁ஸ்கூட்டர்	-11.3314
லூ	-11.3314
▁வீதிகள்	-11.3315
▁125	-11.3316
▁பேட்ஸ்மேன்கள்	-11.3318
▁செய்துள்ளோம்	-11.332
▁வீணா	-11.332
▁உணர்த்த	-11.332
▁சொல்லும்போது	-11.3321
▁கைக்கு	-11.3322
வீதி	-11.3322
▁வைத்தால்	-11.3324
▁பயணிகளின்	-11.3324
▁கலால்	-11.3325
க்கொள்	-11.3326
▁ஆபத்தை	-11.3327
▁திருப்பணிகள்	-11.3328
▁துப்பாக்கிச்சூட	-11.3328
ண்டோ	-11.3329
▁அறிவிப்பில்	-11.333
ஹெ	-11.3331
▁உயரமான	-11.3333
▁ஒற்றுமையாக	-11.3336
▁தொல்	-11.3336
▁சேனா	-11.3336
▁தீர்மான	-11.3339
▁பெற்றுள்ளன	-11.3339
▁கிரிக்கெட்ட	-11.334
▁அணுகி	-11.3343
▁இறந்துவிட்ட	-11.3345
▁மரத்தில்	-11.3347
▁தீரும்	-11.3348
னியர்	-11.3349
▁அம்பு	-11.335
▁வீராங்கனைகள்	-11.3351
▁சொன்னதை	-11.3351
▁விகடன	-11.3352
▁தேரோட்ட	-11.3352
▁உயிரின	-11.3357
▁வெல்	-11.3357
நல்ல	-11.3359
▁போட்டியாளர்கள்	-11.3359
▁பலரை	-11.336
▁வழிபட்ட	-11.336
▁....	-11.3361
▁வணிகம்	-11.3362
▁பாதுகாத்து	-11.3364
▁அவமதிப்பு	-11.3364
▁ராதா	-11.3364
▁நிலவிய	-11.3365
▁இவரும்	-11.3365
▁அந்நாட்ட	-11.3368
▁குத்த	-11.3369
▁அரு	-11.3369
▁ஓய்வ	-11.3369
▁கொண்டாட்டம்	-11.337
▁நிதின்	-11.3376
▁நிறுத்தப்பட்டது	-11.3378
▁ஓய்வூதியம்	-11.3379
▁முன்னிறுத்தி	-11.3379
▁ஆபத்தானது	-11.3379
▁முழுவதும	-11.338
▁ஜெயின்	-11.3383
▁சமுதாயத்தை	-11.3385
ர்களுக்கு	-11.3388
ருத்தி	-11.339
▁வேறுபட்ட	-11.339
▁நிக்க	-11.3391
▁கொடியேற்றம்	-11.3392
ரம	-11.3394
இலங்கை	-11.3394
▁குணப்படுத்த	-11.3394
க்கட	-11.3395
62	-11.3396
.100	-11.3396
▁வச்சு	-11.3397
▁ஆரோக்கியமாக	-11.3397
▁ஊக்குவிப்ப	-11.3397
▁கொண்டாடப்படுகிற	-11.34
▁தீட்சிதர்	-11.3401
▁இல்லா	-11.3401
▁நிர்வாண	-11.3401
▁விலகும்	-11.3402
▁சரவண	-11.3406
4%	-11.3408
▁வழிகாட்டி	-11.3408
▁வடிவமைப்ப	-11.3409
▁ரயில	-11.3411
▁மகிழ	-11.3411
▁நேபாளம்	-11.3416
▁அதிர்ந்து	-11.3417
▁கற	-11.3418
▁அத்தை	-11.3419
▁யார	-11.3419
▁நெகிழ	-11.342
▁அதிரா	-11.3422
▁வடிவமைத்த	-11.3423
▁கார்ப்பரேட்	-11.3423
▁அவதூறாக	-11.3423
▁டுவிட்டர்	-11.3423
▁பாட்டாளி	-11.3423
▁பிசிசிஐ	-11.3423
▁ரவிச்சந்திரன்	-11.3423
▁ஸ்மிருதி	-11.3423
▁நெட்வொர்க்	-11.3423
▁முல்லைத்தீவு	-11.3423
▁ஆழ்வார்	-11.3423
▁சாக்லேட்	-11.3423
▁மாற்றியமைக்க	-11.3423
▁சர்வீஸ்	-11.3424
▁வைரமுத்து	-11.3424
▁துரைசாமி	-11.3424
▁கொள்கின்றனர்	-11.3426
▁துவங்குகிறது	-11.3427
▁வேகத்திலும்	-11.3427
▁கரன்சி	-11.3427
▁அங்கீகார	-11.3428
▁எடுத்தல்	-11.3429
▁தான	-11.3429
▁டெஸ்டில்	-11.3431
▁கோடியில்	-11.3433
▁சிக்கியது	-11.3433
▁நினைத்தேன்	-11.3435
▁எட்டியுள்ளது	-11.3435
▁ப்ளூ	-11.3435
▁லோகேஷ்	-11.3436
[...]
