<unk>	0
<s>	0
</s>	0
்க	-0
்த	-1
ம்	-2
ல்	-3
ன்	-4
▁ப	-5
▁க	-6
க்க	-7
்ட	-8
ர்	-9
▁ம	-10
த்த	-11
▁வ	-12
ப்	-13
▁அ	-14
▁த	-15
▁ச	-16
ிய	-17
ும்	-18
ள்	-19
ந்த	-20
▁இ	-21
ப்ப	-22
து	-23
ில்	-24
ரு	-25
ட்ட	-26
▁ந	-27
▁எ	-28
ங்க	-29
ைய	-30
ாக	-31
ற்	-32
தி	-33
ிற	-34
க்கு	-35
ின்	-36
டு	-37
▁உ	-38
்ச	-39
று	-40
ள்ள	-41
▁ஆ	-42
ண்ட	-43
ிர	-44
ார்	-45
ார	-46
த்து	-47
ில	-48
▁மு	-49
▁செ	-50
ான	-51
டி	-52
ற்ற	-53
ர்க	-54
வி	-55
லை	-56
▁என்	-57
▁வி	-58
ரி	-59
கள	-60
ட்டு	-61
ந்து	-62
▁கு	-63
ிரு	-64
க்	-65
வு	-66
▁இரு	-67
ால்	-68
▁செய	-69
▁ஒ	-70
ச்ச	-71
▁இந்த	-72
றி	-73
▁மா	-74
▁ர	-75
▁போ	-76
ஸ்	-77
▁கா	-78
த்	-79
▁அவ	-80
கள்	-81
▁கொ	-82
ப்பு	-83
னர்	-84
த்தில்	-85
ையில்	-86
னை	-87
ங்கள	-88
ான்	-89
▁தொ	-90
ல்ல	-91
மை	-92
▁பெ	-93
▁நட	-94
▁பா	-95
ுக்கு	-96
ாள	-97
ற்க	-98
▁வே	-99
க்கும்	-100
▁கூ	-101
மி	-102
ர்கள்	-103
ாவ	-104
ாய	-105
ண்டு	-106
▁ஏ	-107
ர்கள	-108
ப்பட்ட	-109
▁தே	-110
ணி	-111
ன்ற	-112
ம்ப	-113
ுவ	-114
ட்ச	-115
▁என	-116
ிறது	-117
▁வெ	-118
..	-119
▁உள்ள	-120
ற்ப	-121
டிய	-122
ிட	-123
சி	-124
கு	-125
▁அதி	-126
▁பிர	-127
ண்	-128
▁அத	-129
மு	-130
ங்கள்	-131
ன்ன	-132
▁தெ	-133
▁பே	-134
ாத	-135
ரை	-136
▁ஒரு	-137
▁நா	-138
ச்	-139
மாக	-140
ின	-141
றை	-142
ட்	-143
ால	-144
்கள்	-145
▁கோ	-146
▁இத	-147
▁பு	-148
▁தொட	-149
டுத்த	-150
▁மே	-151
வே	-152
திய	-153
த்தை	-154
தாக	-155
ாம	-156
▁அர	-157
▁என்று	-158
ிக	-159
வில்	-160
மான	-161
▁மற்ற	-162
வர்	-163
்ய	-164
▁1	-165
▁வழ	-166
▁2	-167
▁ஜ	-168
▁வரு	-169
ிக்க	-170
ரிய	-171
டை	-172
ரும்	-173
▁செய்த	-174
▁பொ	-175
ற்று	-176
ிட்ட	-177
▁நில	-178
ழு	-179
களை	-180
சிய	-181
▁மற்றும்	-182
▁என்ற	-183
ள்ளது	-184
ரா	-185
்த்த	-186
ோது	-187
வும்	-188
டும்	-189
லா	-190
வை	-191
டன்	-192
ண்டும்	-193
▁முத	-194
ன்று	-195
பி	-196
னால்	-197
▁சு	-198
கிறது	-199
▁அமை	-200
்கள	-201
ையும்	-202
▁வீ	-203
பு	-204
ப்பட்டு	-205
▁நீ	-206
▁குறி	-207
▁அதிக	-208
▁மீ	-209
▁வா	-210
ின்ற	-211
மா	-212
னி	-213
ழ்	-214
▁தொடர்	-215
ளி	-216
▁நி	-217
▁தெரி	-218
▁செய்ய	-219
ிறார்	-220
▁இது	-221
▁கட	-222
▁தலை	-223
ிற்க	-224
ிருக்க	-225
▁கே	-226
▁பல	-227
சு	-228
▁சே	-229
▁ட	-230
வத	-231
▁மூ	-232
ட்சி	-233
▁இருந்த	-234
▁தமி	-235
▁என்ப	-236
▁எதி	-237
நில	-238
நா	-239
▁அந்த	-240
▁வை	-241
ியில்	-242
ையை	-243
டுத்து	-244
▁இந்திய	-245
▁தெரிவி	-246
▁வேண்டும்	-247
ணை	-248
▁ஏற்ப	-249
▁இட	-250
▁அவர்	-251
▁திரு	-252
ிருந்த	-253
▁சி	-254
▁நே	-255
வர	-256
வா	-257
▁ய	-258
▁"	-259
ங்கு	-260
லி	-261
▁பய	-262
ட்டி	-263
ாய்	-264
னு	-265
▁இருக்க	-266
ார்கள்	-267
▁சிற	-268
ற்கு	-269
▁து	-270
▁நிற	-271
ய்	-272
▁சொ	-273
ியு	-274
த்தின்	-275
▁முதல்	-276
▁பார	-277
▁ஓ	-278
ண்ண	-279
▁அறி	-280
▁பி	-281
களில்	-282
▁ரா	-283
த்திய	-284
00	-285
முக	-286
டிக்க	-287
ஸ்ட	-288
பெ	-289
பா	-290
ிற்கு	-291
▁வெள	-292
▁தீ	-293
▁மக்க	-294
தை	-295
கா	-296
▁ஆனால்	-297
▁வந்த	-298
ங்களில்	-299
▁ஆண்டு	-300
ள்ளார்	-301
ப்பட	-302
▁ஆக	-303
ப்படு	-304
ியை	-305
ஞ்ச	-306
▁சம	-307
▁ல	-308
▁ஹ	-309
▁கொண்ட	-310
வது	-311
னா	-312
▁சில	-313
▁இர	-314
ர்த	-315
ப்பா	-316
ூர்	-317
▁வெளிய	-318
▁கார	-319
வில்லை	-320
கின்ற	-321
ோத	-322
த்தி	-323
வ்	-324
ற்றி	-325
லும்	-326
மைய	-327
வாக	-328
ங்களை	-329
ருக்கு	-330
க்கிய	-331
லில்	-332
ோம்	-333
ரே	-334
ன்ப	-335
▁20	-336
ாரி	-337
▁உய	-338
லம்	-339
▁தா	-340
▁நடை	-341
ணம்	-342
ழக	-343
மே	-344
▁முன்ன	-345
ளை	-346
▁அமைச்ச	-347
ிலும்	-348
ழை	-349
சா	-350
க்கப்பட்ட	-351
▁தன	-352
வர்கள	-353
▁வர	-354
்க்க	-355
ருத்து	-356
▁ஊ	-357
மன்ற	-358
ங்கி	-359
▁சந்த	-360
வர்கள்	-361
ாம்	-362
▁தி	-363
▁(	-364
ப்பி	-365
லக	-366
▁இருந்து	-367
▁பிற	-368
ேன்	-369
▁நிலையில்	-370
டைய	-371
▁கடந்த	-372
ரிக்க	-373
▁முடி	-374
ஷ்	-375
ாது	-376
▁முடிய	-377
ர்ந்த	-378
▁அரசு	-379
▁சட்ட	-380
ரோ	-381
விட்ட	-382
▁அம	-383
▁செய்து	-384
▁கூற	-385
ராக	-386
▁தேர்த	-387
▁போல	-388
ிடம்	-389
ப்படும்	-390
▁அப்ப	-391
▁வழங்க	-392
▁3	-393
கவ	-394
▁சா	-395
▁நடைபெ	-396
ியின்	-397
லாம்	-398
▁பிரத	-399
ஸ்த	-400
வட்ட	-401
டுக்க	-402
ாமல்	-403
▁பட	-404
களுக்கு	-405
ழி	-406
▁அனு	-407
ட்டில்	-408
ிரி	-409
▁பகு	-410
கி	-411
▁சீ	-412
ும்ப	-413
ாளர்	-414
▁மாவட்ட	-415
▁பதி	-416
த்தார்	-417
▁மாநில	-418
னம்	-419
சார	-420
ரம்	-421
ாவில்	-422
ர்த்த	-423
ரில்	-424
▁கை	-425
▁கிட	-426
▁பின்	-427
லு	-428
வுக்கு	-429
▁மோ	-430
த்திற்கு	-431
▁மேலும்	-432
போ	-433
▁உட	-434
▁திட்ட	-435
ெய	-436
▁உள்ளது	-437
▁இல	-438
ன்னை	-439
▁கூட்ட	-440
▁என்ன	-441
மர்	-442
ந்தது	-443
ல்லை	-444
▁பாஜ	-445
கை	-446
▁பொரு	-447
தா	-448
ாலும்	-449
தம்	-450
▁பொது	-451
▁பூ	-452
▁தொடர்ப	-453
▁கட்ட	-454
▁கால	-455
▁தமிழ்	-456
▁இருப்ப	-457
க்கி	-458
ியாக	-459
▁இப்ப	-460
▁எழு	-461
▁ரூ	-462
▁அள	-463
கிற	-464
▁குறித்து	-465
▁மிக	-466
ப்பட்டது	-467
ொரு	-468
▁கொண்டு	-469
தால்	-470
ேச	-471
தான்	-472
ிருந்து	-473
▁அது	-474
▁அனை	-475
▁குழ	-476
▁ஆகிய	-477
ட்டை	-478
்ச்ச	-479
▁பத	-480
▁ஈ	-481
ியா	-482
▁இருக்கும்	-483
▁பர	-484
...	-485
▁தான்	-486
க்கம்	-487
▁ஐ	-488
▁திர	-489
▁பாஜக	-490
வீ	-491
▁நிக	-492
ாவின்	-493
தும்	-494
▁5	-495
மும்	-496
க்கான	-497
▁முன்	-498
▁கல	-499
▁சூ	-500
▁விவ	-501
றைய	-502
▁தற்ப	-503
▁மருத்து	-504
▁நெ	-505
▁பண	-506
▁தொடர்ந்து	-507
கிறார்	-508
▁நிறுவ	-509
▁நாட	-510
▁வரும்	-511
ந்திர	-512
ச்சி	-513
▁4	-514
கர்	-515
ப்பை	-516
▁என்பது	-517
வம்	-518
ள்ளனர்	-519
ங்களுக்கு	-520
ங்	-521
த்திர	-522
▁கிர	-523
▁உறு	-524
▁நீதி	-525
ப்பட்டுள்ளது	-526
▁மணி	-527
க்கொ	-528
கம்	-529
▁தனது	-530
▁சம்ப	-531
▁குறிப்ப	-532
்களை	-533
கார	-534
▁இய	-535
ட்டிய	-536
க்த	-537
▁கட்சி	-538
▁தேதி	-539
▁கண	-540
▁ஆத	-541
▁கி	-542
▁தர	-543
▁மக்கள்	-544
ையே	-545
▁-	-546
▁கிடை	-547
ட்ப	-548
எஸ்	-549
ாவது	-550
▁வருகிறது	-551
▁சென்னை	-552
▁அவர்கள	-553
▁`	-554
▁மாண	-555
▁'	-556
ப்படுகிறது	-557
▁தமிழக	-558
▁அரசிய	-559
▁அடி	-560
▁கரு	-561
▁பழ	-562
ாதார	-563
▁முக்கிய	-564
▁சேர்ந்த	-565
▁ராஜ	-566
▁போலீ	-567
▁நாடு	-568
▁என்றும்	-569
ுடன்	-570
▁குறை	-571
்தான்	-572
டம்	-573
▁விர	-574
▁இல்லை	-575
ியது	-576
ப்படுத்த	-577
▁பாதி	-578
னார்	-579
ம்ம	-580
▁நான்	-581
தியில்	-582
ெல்ல	-583
▁அவர	-584
▁கூறி	-585
ந்தை	-586
ையா	-587
▁இன்று	-588
▁உத	-589
ங்கிர	-590
▁விள	-591
▁நோ	-592
விர	-593
தல்	-594
▁உண	-595
▁எதிர்	-596
▁பாது	-597
போது	-598
வடிக்க	-599
கையில்	-600
▁தற்போது	-601
▁நடவடிக்க	-602
ேய	-603
▁அரு	-604
▁காங்கிர	-605
▁அல	-606
ஆம்	-607
▁அமைச்சர்	-608
த்துக்கு	-609
▁பாதுகா	-610
▁தெரிவித்து	-611
பதி	-612
▁எந்த	-613
▁வரை	-614
▁தோ	-615
▁மட்டு	-616
ீர்	-617
கின்றனர்	-618
ழ்ச்ச	-619
களின்	-620
▁அறிவி	-621
▁பிறகு	-622
தாகவும்	-623
▁தகவ	-624
ற்கொ	-625
▁காவ	-626
▁டி	-627
▁மீது	-628
▁அணி	-629
ர்க்க	-630
மார்	-631
▁பெற்ற	-632
▁தமிழ்நா	-633
▁ஷ	-634
கொ	-635
▁குற்ற	-636
▁ஆர	-637
▁கூறு	-638
▁சொல்ல	-639
▁நேர	-640
ோர்	-641
▁விசார	-642
▁உரு	-643
▁மூலம்	-644
▁வந்து	-645
▁செல்ல	-646
▁வள	-647
யில்	-648
▁இலங்க	-649
▁அரச	-650
▁பெய	-651
▁தொழ	-652
▁அவர்கள்	-653
ரவ	-654
",	-655
▁போன்ற	-656
▁எப்ப	-657
▁உலக	-658
ந்	-659
ல்ப	-660
▁மக்கள	-661
▁பணி	-662
▁தெரிய	-663
ரிச	-664
வரை	-665
க்காக	-666
▁காரண	-667
ிருக்கிறது	-668
▁அல்ல	-669
ர்வு	-670
வரும்	-671
▁என்க	-672
▁தலைவர்	-673
வ்வ	-674
ள்ளி	-675
▁இல்ல	-676
▁நாள	-677
▁மத்திய	-678
▁நிர்	-679
றும்	-680
▁சென்ற	-681
▁வய	-682
ினார்	-683
▁சமூ	-684
▁உத்த	-685
▁நடவடிக்கை	-686
▁தூ	-687
▁உள்ளிட்ட	-688
▁காங்கிரஸ்	-689
▁ஸ்ட	-690
லிய	-691
பர்	-692
▁கூட	-693
ையின்	-694
விய	-695
▁202	-696
▁வில	-697
▁அதை	-698
முறை	-699
▁வேலை	-700
க்கை	-701
▁மருத்துவ	-702
▁ஸ்	-703
ாகி	-704
▁நிறுவன	-705
▁சர்	-706
ோடு	-707
▁பார்த்த	-708
▁கட்ச	-709
▁அதிமுக	-710
கே	-711
▁அதே	-712
மதி	-713
க்கூ	-714
ிலிருந்து	-715
ரின்	-716
▁போது	-717
▁அதிகாரி	-718
▁போரா	-719
ற்காக	-720
ங்கே	-721
▁6	-722
ப்பில்	-723
ஜி	-724
▁மொ	-725
ரீ	-726
▁வெளி	-727
▁வாய்	-728
்து	-729
டும்ப	-730
▁நடத்த	-731
▁நிலை	-732
ஜ்	-733
ாளர்கள்	-734
ாளர்கள	-735
▁வார	-736
▁முய	-737
க்கள்	-738
ெரிக்க	-739
ணைய	-740
▁தேர்தல்	-741
▁மாத	-742
▁மேற்கொ	-743
ப்பத	-744
வேறு	-745
▁கவ	-746
▁பிரதமர்	-747
▁இரண்டு	-748
வில	-749
விட	-750
▁சமூக	-751
▁இந்தியா	-752
▁ஒன்ற	-753
▁வேண்ட	-754
▁பேசிய	-755
▁பெரும்	-756
▁ஏற்படுத்த	-757
▁குடும்ப	-758
▁அமெரிக்க	-759
▁எடுத்து	-760
▁முதல	-761
▁திமுக	-762
▁புதிய	-763
▁அரசியல்	-764
ென	-765
▁பல்	-766
ப்பது	-767
▁இதனால்	-768
ிருக்கிறார்	-769
▁அவரது	-770
▁ஆள	-771
▁கண்ட	-772
▁சந்தி	-773
▁வைத்து	-774
▁விழ	-775
யில	-776
▁பெரிய	-777
றிய	-778
▁பயன்ப	-779
ற்கான	-780
ாள்	-781
▁ஆய	-782
▁தய	-783
▁7	-784
டுப	-785
▁அழை	-786
▁செல்	-787
▁இருக்கிறது	-788
▁19	-789
▁மாற்ற	-790
▁செய்	-791
களும்	-792
▁தின	-793
த்தது	-794
ேயே	-795
ற்சி	-796
வரு	-797
▁எம்	-798
▁தொடங்க	-799
▁இதில்	-800
▁திரும	-801
▁வழி	-802
▁குழந்தை	-803
க்கள	-804
ச்சை	-805
▁சென்று	-806
▁பல்வேறு	-807
தான	-808
▁நினை	-809
வின்	-810
ாவை	-811
வெ	-812
▁சார்	-813
▁10	-814
▁உத்தர	-815
▁நேற்று	-816
கின்றன	-817
▁பொருள	-818
ஸ்க	-819
▁இஸ்	-820
▁நீதிமன்ற	-821
▁பக்த	-822
ிறார்கள்	-823
▁கொள்ள	-824
ியுள்ளது	-825
▁நம்ப	-826
▁நக	-827
ர்ந்து	-828
▁பெரு	-829
▁ஆய்	-830
▁நிலைய	-831
ப்பட்டுள்ள	-832
▁மீண்டும்	-833
▁வழக்கு	-834
▁எல்ல	-835
▁அண	-836
▁பேர்	-837
ட்டும்	-838
▁கலந்து	-839
▁பெண	-840
▁அதன்	-841
▁அப்போது	-842
▁பார்க்க	-843
▁கீ	-844
ந்தி	-845
▁வாழ	-846
விட்டு	-847
▁நடி	-848
▁மன	-849
▁இணை	-850
▁முதல்வர்	-851
▁பிரி	-852
▁பகுதி	-853
▁வெற்றி	-854
▁லட்ச	-855
▁அளி	-856
▁செயல	-857
▁ஆர்	-858
▁கட்டு	-859
▁தொடர்பாக	-860
▁இன்ன	-861
▁இற	-862
பார	-863
ிகள்	-864
▁கல்	-865
ஷ்ய	-866
ெட்	-867
▁நடந்த	-868
ுக்கும்	-869
▁201	-870
▁அங்கு	-871
ழுவ	-872
▁விடு	-873
▁நடைபெற்ற	-874
ரான	-875
▁அதிகரி	-876
நாய	-877
கன்	-878
▁போராட்ட	-879
▁முறை	-880
வதாக	-881
▁தீர்	-882
▁பொறு	-883
▁வழக்க	-884
▁நிர்வாக	-885
▁தேசிய	-886
▁மட்டுமே	-887
தில்	-888
ையாக	-889
▁பாதுகாப்பு	-890
▁ஈடுப	-891
்கு	-892
த்துறை	-893
▁கேள்	-894
▁வீர	-895
▁ஆம்	-896
▁இந்	-897
▁ரஷ்ய	-898
▁தெரிவித்தார்	-899
சை	-900
ப்போ	-901
ச்சு	-902
▁காண	-903
▁விசாரணை	-904
▁அடுத்த	-905
ிட்டு	-906
▁அனைத்து	-907
▁நிகழ்ச்ச	-908
▁இலங்கை	-909
▁எட	-910
▁பெற்று	-911
பர	-912
▁வாக்கு	-913
▁சிறப்பு	-914
▁அல்லது	-915
▁நடந்தது	-916
ல்கள்	-917
▁அதில்	-918
ிருந்தார்	-919
யம்	-920
ாளு	-921
டியாக	-922
▁திற	-923
▁என்பதை	-924
▁காரணமாக	-925
▁பயன்படுத்த	-926
▁இதை	-927
லோ	-928
▁மறு	-929
ஷ்ட	-930
ிருக்கும்	-931
ாளுமன்ற	-932
▁வகையில்	-933
ள்க	-934
நிலையில்	-935
▁நிய	-936
▁இருந்தது	-937
ல்க	-938
த்தம்	-939
▁செயல்ப	-940
ட்டின்	-941
▁சுவ	-942
ம்பி	-943
▁கைது	-944
▁எடப்பா	-945
▁கூறினார்	-946
▁வைத்த	-947
▁பெண்	-948
வான	-949
▁படி	-950
▁ரூப	-951
▁நிறை	-952
▁கருத்து	-953
▁என்றார்	-954
▁ஆண்ட	-955
▁அக	-956
▁ஏற்பட்ட	-957
▁முடிவு	-958
▁வருகின்றனர்	-959
▁சிறு	-960
▁இப்போது	-961
டைந்த	-962
▁பின்னர்	-963
▁குழு	-964
தே	-965
ின்றனர்	-966
▁பேச	-967
▁8	-968
ராஜ	-969
ர்களுக்கு	-970
த்துடன்	-971
▁வெளியே	-972
▁நல்ல	-973
யா	-974
▁எடுக்க	-975
ாடு	-976
மையான	-977
மீ	-978
்களில்	-979
▁``	-980
▁தனி	-981
▁சோ	-982
மது	-983
▁தொகு	-984
▁கேள்வி	-985
▁கிராம	-986
லாக	-987
சாய	-988
▁விஷ	-989
▁செலு	-990
▁ஃ	-991
▁துறை	-992
▁மிகவும்	-993
▁மது	-994
ஸ்ட்	-995
▁எடப்பாடி	-996
▁பொருளாதார	-997
▁தாக்கு	-998
டியோ	-999
நி	-1000
▁முழு	-1001
்களுக்கு	-1002
ாகு	-1003
தியாக	-1004
▁பேசி	-1005
▁புக	-1006
▁தெரிவித்த	-1007
ாமி	-1008
ையடுத்து	-1009
்ட்	-1010
வதற்கு	-1011
▁மாதம்	-1012
ற்றை	-1013
ணுவ	-1014
ற்றிய	-1015
▁கடை	-1016
▁டெல்ல	-1017
ின்றன	-1018
▁சிவ	-1019
▁ஆட்ச	-1020
▁9	-1021
▁விரு	-1022
▁அலுவ	-1023
▁வல	-1024
மையாக	-1025
ங்களின்	-1026
▁விமான	-1027
▁முடியும்	-1028
▁விதி	-1029
▁எப்படி	-1030
னாதி	-1031
000	-1032
ியர்	-1033
▁குறித்த	-1034
▁உருவா	-1035
▁காவல	-1036
▁அனுமதி	-1037
ீடு	-1038
பாடு	-1039
▁அதற்கு	-1040
ினர்	-1041
படி	-1042
றையில்	-1043
▁கொரோ	-1044
▁ஜனாதி	-1045
▁நாம்	-1046
▁செய்யப்பட்ட	-1047
லுக்கு	-1048
▁ஆளு	-1049
▁முன்னாள்	-1050
ளவு	-1051
ப்பின	-1052
ிலேயே	-1053
▁தவ	-1054
ையான	-1055
▁வச	-1056
▁சிக	-1057
▁பிடி	-1058
▁பற்றி	-1059
▁வாய்ப்பு	-1060
னித	-1061
டக	-1062
ட்க	-1063
ர்களை	-1064
சிக	-1065
▁மருத்துவம	-1066
▁பார்	-1067
நீ	-1068
ாலின்	-1069
▁தேவ	-1070
▁தமிழ்நாடு	-1071
▁விவசாய	-1072
▁கோடி	-1073
▁என்கிறார்	-1074
▁தங்க	-1075
ப்பாக	-1076
▁பதிவு	-1077
எல்	-1078
சிர	-1079
▁இதற்கு	-1080
▁முக	-1081
▁தலைமை	-1082
▁மதி	-1083
▁ஜெய	-1084
ருக்க	-1085
▁முடியாது	-1086
பை	-1087
▁உற	-1088
▁டெ	-1089
▁மின்	-1090
▁சிக்க	-1091
▁விவகார	-1092
▁தொழில்	-1093
▁சத	-1094
ண்ணி	-1095
நர்	-1096
ிலான	-1097
▁அங்க	-1098
▁பழனி	-1099
▁இந்நிலையில்	-1100
சே	-1101
▁நான	-1102
▁போட்ட	-1103
▁மர	-1104
▁நாங்கள்	-1105
▁பரி	-1106
▁கோவில	-1107
▁போட்டி	-1108
▁உயர்	-1109
▁தகவல்	-1110
ிருப்ப	-1111
▁இஸ்ரே	-1112
▁விட	-1113
▁உரி	-1114
▁விமர்	-1115
▁முழுவ	-1116
▁நடந்து	-1117
கிறார்கள்	-1118
சாமி	-1119
▁பூஜ	-1120
ர்ச்ச	-1121
▁எதிராக	-1122
▁ராம	-1123
▁ஒன்று	-1124
▁ஒருவர்	-1125
ிருந்தது	-1126
▁மி	-1127
▁வாக	-1128
▁உணவு	-1129
▁தேர்தலில்	-1130
வன்	-1131
▁தாக்க	-1132
▁கொடுத்த	-1133
ண்ட்	-1134
ளம்	-1135
▁தீவிர	-1136
▁முன்பு	-1137
சன	-1138
வர்களுக்கு	-1139
ாட்டு	-1140
▁பதவி	-1141
▁ஒவ்வ	-1142
▁வாங்க	-1143
▁உடன	-1144
▁குறிப்பிட	-1145
தியை	-1146
▁மணிக்கு	-1147
ப்பெ	-1148
▁எனவே	-1149
▁பக்தர்கள்	-1150
▁கேட்ட	-1151
ர்ச்சி	-1152
▁வீடியோ	-1153
▁அவரை	-1154
▁கொரோனா	-1155
▁பகுதியில்	-1156
கோ	-1157
▁ஸ்ரீ	-1158
பிஎஸ்	-1159
நிலை	-1160
ப்ட	-1161
▁நடத்தி	-1162
▁காலை	-1163
▁சிகி	-1164
▁நிறு	-1165
▁பள்ளி	-1166
▁பிரச்	-1167
▁ஆதர	-1168
▁எதிர்க	-1169
▁கன	-1170
▁வீடு	-1171
மையில்	-1172
▁மெ	-1173
▁மூல	-1174
▁சார்ப	-1175
▁ஏற்க	-1176
▁அண்ண	-1177
ியுள்ளார்	-1178
ில்லை	-1179
▁ஆய்வு	-1180
▁விஜ	-1181
▁மூன்று	-1182
▁ராணுவ	-1183
▁தன்	-1184
ர்களின்	-1185
சார்	-1186
▁ஜன	-1187
க்கப்பட்டது	-1188
▁நிகழ்	-1189
▁பாட	-1190
களாக	-1191
▁அவருக்கு	-1192
▁நிதி	-1193
த்தால்	-1194
▁அதிகாரிகள்	-1195
த்துள்ளது	-1196
ஸ்தான்	-1197
▁நு	-1198
▁முயற்சி	-1199
ஸ்தான	-1200
▁அதிகார	-1201
க்கோ	-1202
▁இரண்ட	-1203
▁தொழில	-1204
▁காரணம்	-1205
▁ட்	-1206
ர்ம	-1207
ர்த்து	-1208
▁கோவில்	-1209
செ	-1210
த்திற்க	-1211
▁காவல்து	-1212
▁ஆட்சி	-1213
▁உள்ளன	-1214
▁வேறு	-1215
▁யா	-1216
▁மட்டும்	-1217
▁ஒரே	-1218
▁கூறிய	-1219
னின்	-1220
▁சங்க	-1221
னுக்கு	-1222
▁12	-1223
▁ஆயிர	-1224
▁குறிப்பிட்ட	-1225
▁சொன்ன	-1226
▁வேண்டிய	-1227
▁தெரிவிக்க	-1228
ைகள்	-1229
ஷே	-1230
▁செல	-1231
▁தமிழ	-1232
▁தடை	-1233
▁ஜூ	-1234
ியுள்ள	-1235
▁ஒவ்வொரு	-1236
ந்த்	-1237
▁உச்ச	-1238
▁கடி	-1239
▁யார	-1240
▁ஜனாதிபதி	-1241
▁நடக்க	-1242
▁சுற்று	-1243
பே	-1244
▁விளையா	-1245
▁உண்	-1246
▁கடு	-1247
▁மோடி	-1248
ணா	-1249
ட்டம்	-1250
▁இதன்	-1251
▁கொடு	-1252
▁இன்னும்	-1253
▁எனக்கு	-1254
▁அபி	-1255
ன்க	-1256
வதை	-1257
களையும்	-1258
▁போட்டிய	-1259
▁ராகு	-1260
▁மனை	-1261
ரிடம்	-1262
▁புது	-1263
▁கல்ல	-1264
▁வட	-1265
டா	-1266
த்தான்	-1267
▁கொள்க	-1268
விழ	-1269
த்தையும்	-1270
▁சூழ	-1271
ியும்	-1272
ண்டி	-1273
▁சுமார்	-1274
▁ஊழ	-1275
▁முழுவதும்	-1276
▁செய்தி	-1277
▁சரிய	-1278
த்தா	-1279
ாளி	-1280
▁ஜெ	-1281
ிறேன்	-1282
▁இந்தப்	-1283
▁விட்டு	-1284
ுடைய	-1285
▁போலீஸ	-1286
ப்புகள்	-1287
▁உடல்	-1288
க்கப்பட்டு	-1289
னில்	-1290
ம்மன்	-1291
ோக	-1292
▁ரன	-1293
▁குடிய	-1294
▁சாத	-1295
னும்	-1296
ளா	-1297
▁சம்பவம்	-1298
▁கோயில	-1299
▁பெற	-1300
▁அரசா	-1301
▁துணை	-1302
வார	-1303
▁15	-1304
ெல்லாம்	-1305
▁இடங்களில்	-1306
▁கர்	-1307
லைக்க	-1308
▁தவிர	-1309
▁நிர	-1310
வார்	-1311
▁இப்படி	-1312
▁வயது	-1313
▁இந்து	-1314
▁ஒப்ப	-1315
▁சம்பவ	-1316
▁நேரத்தில்	-1317
▁உதவி	-1318
க்கொண்ட	-1319
20	-1320
▁கல்வி	-1321
▁கள	-1322
▁சிகிச்சை	-1323
▁கூட்டணி	-1324
ீர	-1325
▁உயிரி	-1326
▁விழா	-1327
▁பால	-1328
▁அலுவலக	-1329
▁ரூபாய்	-1330
,000	-1331
ஆர்	-1332
▁ஏன்	-1333
▁தொடர்பான	-1334
▁குரு	-1335
▁செய்யும்	-1336
▁உறுதி	-1337
▁மோச	-1338
மைச்ச	-1339
▁நாடாளுமன்ற	-1340
▁டெல்லி	-1341
பால	-1342
▁தேர்வு	-1343
▁ஸ்டாலின்	-1344
▁மனித	-1345
▁இழ	-1346
▁கொலை	-1347
▁இவர்	-1348
▁தன்ன	-1349
▁இங்கு	-1350
▁உயிரிழ	-1351
▁பங்கே	-1352
ுக்கான	-1353
▁லட்சம்	-1354
லின்	-1355
▁நாள்	-1356
ப்பிர	-1357
ந்துள்ளது	-1358
▁கண்டு	-1359
▁ஆலோ	-1360
▁பேர	-1361
▁இறு	-1362
▁கீழ்	-1363
ரிக்கை	-1364
▁எதிர்பார	-1365
ருந்து	-1366
an	-1367
வராக	-1368
▁தங்கள்	-1369
▁நம்	-1370
பத்தில்	-1371
▁இளை	-1372
▁கோயில்	-1373
நிதி	-1374
▁11	-1375
▁மக	-1376
▁தேவை	-1377
▁பார்த்து	-1378
▁இடையே	-1379
▁ரயில்	-1380
▁மத	-1381
▁ஆணைய	-1382
த்தக்க	-1383
ம்பர்	-1384
▁வீட்டில்	-1385
▁இளைஞ	-1386
லைய	-1387
ோதனை	-1388
விட்டது	-1389
▁இதையடுத்து	-1390
▁மேற்ப	-1391
ருக்கும்	-1392
▁அடிப்பட	-1393
ஸ்வர	-1394
▁அரசாங்க	-1395
▁வாகன	-1396
▁பாகி	-1397
▁சுவாமி	-1398
ைக்கு	-1399
க்கெ	-1400
ம்பு	-1401
▁கேட்டு	-1402
செய	-1403
த்தக	-1404
▁கொடுக்க	-1405
ட்டுக்கு	-1406
▁அடை	-1407
▁வருகிறார்	-1408
▁தடு	-1409
ிக்	-1410
ப்பின்	-1411
ினும்	-1412
க்குறி	-1413
▁மேற்கொள்ள	-1414
▁கூறப்படுகிறது	-1415
மூ	-1416
கொண்ட	-1417
▁மாவட்டம்	-1418
▁பிரதேச	-1419
▁வங்க	-1420
▁காந்தி	-1421
▁அளிக்க	-1422
▁எண்ண	-1423
மோ	-1424
த்திலும்	-1425
▁உறுப்பின	-1426
்கா	-1427
ட்டா	-1428
▁வெள்ள	-1429
சன்	-1430
சம்	-1431
ோதும்	-1432
▁எண்ணி	-1433
ிறோம்	-1434
▁இணைய	-1435
▁விரை	-1436
▁விச	-1437
்டர்	-1438
▁மைய	-1439
ேற்ற	-1440
▁மேல்	-1441
த்தனர்	-1442
▁பெண்கள்	-1443
ரல்	-1444
வார்கள்	-1445
த்தின	-1446
வதேச	-1447
▁பொருட	-1448
▁எதிர்க்க	-1449
▁விஷய	-1450
தற்கு	-1451
▁வேட்ப	-1452
▁பயி	-1453
▁பந்து	-1454
▁ஆன	-1455
நாட்டு	-1456
▁துவ	-1457
▁டிர	-1458
▁ஓபிஎஸ்	-1459
▁சார்பில்	-1460
▁வாழ்க்க	-1461
▁சர்வதேச	-1462
▁அம்	-1463
▁வாழ்	-1464
▁நூ	-1465
▁பிரச்னை	-1466
ழமை	-1467
▁கட்சியின்	-1468
▁தொடர்பு	-1469
▁மட்டும	-1470
நக	-1471
ியார்	-1472
▁ஆட்ட	-1473
▁முறைய	-1474
மையை	-1475
மொ	-1476
▁உட்ப	-1477
ங்கும்	-1478
▁வைக்க	-1479
ம்பெ	-1480
▁புற	-1481
▁வந்தது	-1482
ஞ்சா	-1483
றுத்த	-1484
▁நடைபெற்றது	-1485
▁இந்தியாவில்	-1486
▁ஜோ	-1487
▁அளவில்	-1488
▁வேண்டு	-1489
ானது	-1490
▁சொந்த	-1491
▁கொடுத்து	-1492
ங்களும்	-1493
▁ஏற்பட்டு	-1494
▁போலீசார்	-1495
▁கெ	-1496
▁இரவு	-1497
▁அதன்ப	-1498
▁அதேபோ	-1499
▁யோ	-1500
ற்றில்	-1501
ங்கிய	-1502
▁கிடைக்க	-1503
ாக்	-1504
க்கில்	-1505
▁அரசின்	-1506
▁அழைத்து	-1507
▁அடைய	-1508
▁பிபி	-1509
▁ஏற்று	-1510
▁விட்ட	-1511
க்கத்தில்	-1512
▁சரி	-1513
னையில்	-1514
ினி	-1515
▁சக	-1516
▁படை	-1517
ப்பூர்	-1518
ிடையே	-1519
▁திரை	-1520
மெ	-1521
வர்களை	-1522
▁கல்லூ	-1523
▁நீங்கள்	-1524
▁எது	-1525
▁தரு	-1526
▁இன்	-1527
▁அருகே	-1528
க்கார	-1529
▁போர்	-1530
▁சீன	-1531
▁ஒது	-1532
▁கூறுகிறார்	-1533
தலை	-1534
▁வரலா	-1535
▁மண்ட	-1536
.1	-1537
ுள்ள	-1538
▁பரபர	-1539
▁இதுவரை	-1540
க்களை	-1541
▁மாலை	-1542
வியை	-1543
▁நம்பிக்க	-1544
வுடன்	-1545
ணிய	-1546
க்ரை	-1547
▁திட	-1548
▁செயல்	-1549
ண்ப	-1550
▁பயணி	-1551
▁பீ	-1552
ப்பூ	-1553
ும்போது	-1554
ரன்	-1555
▁விலை	-1556
in	-1557
புரம்	-1558
▁தீர்மான	-1559
ஃப்	-1560
▁இதனை	-1561
▁பல்க	-1562
▁வகு	-1563
ிக்கொ	-1564
▁காவல்	-1565
▁மகி	-1566
▁அனுப்ப	-1567
▁பணம்	-1568
▁நெருக்க	-1569
▁மை	-1570
▁திரும்ப	-1571
மார	-1572
▁எனவும்	-1573
சனை	-1574
▁அதிபர்	-1575
வின	-1576
த்தும்	-1577
நாத	-1578
▁ஆப	-1579
ராட்சி	-1580
▁காய	-1581
▁சென்ன	-1582
ுத	-1583
▁பொதும	-1584
த்துக்	-1585
குறி	-1586
▁சிங்	-1587
வாதி	-1588
▁வேக	-1589
வாறு	-1590
▁பிரச்ச	-1591
வரின்	-1592
▁சமீ	-1593
▁200	-1594
▁ரோ	-1595
லே	-1596
▁என்றால்	-1597
▁செயலாளர்	-1598
ற்ச	-1599
▁பை	-1600
▁குடி	-1601
▁நப	-1602
▁கிடைக்கும்	-1603
ள்ளன	-1604
▁சின்	-1605
▁அதனால்	-1606
▁உக்ரை	-1607
▁மழை	-1608
ஷ்ண	-1609
▁ஏற்பாடு	-1610
்த்து	-1611
▁உங்கள்	-1612
ல்களை	-1613
▁தயார	-1614
▁புகார்	-1615
▁உள்ளனர்	-1616
▁தொடங்கி	-1617
▁முதலமைச்ச	-1618
▁எனக்	-1619
▁யார்	-1620
ஷன்	-1621
▁குறிப்பி	-1622
க்கொள்ள	-1623
▁இல்லாத	-1624
▁நிறைவே	-1625
▁ரஷ்யா	-1626
▁நீதிபதி	-1627
டர்	-1628
▁கிள	-1629
▁பங்கு	-1630
வர்களின்	-1631
ந்திய	-1632
ட்டர்	-1633
▁நாட்டின்	-1634
ப்பாளர்	-1635
▁அப்படி	-1636
▁நிகழ்ச்சி	-1637
▁18	-1638
லர்	-1639
ங்கா	-1640
▁கண்ண	-1641
▁ஆளுநர்	-1642
தள	-1643
▁யு	-1644
ூட	-1645
▁போலீஸார்	-1646
▁விழு	-1647
▁மார	-1648
வருக்கு	-1649
▁செய்தனர்	-1650
▁எடு	-1651
▁பாதிப்பு	-1652
▁நாய	-1653
▁எடுத்த	-1654
▁பரிச	-1655
▁ரீ	-1656
்களின்	-1657
▁அமைப்பு	-1658
▁கைய	-1659
▁வைர	-1660
▁முன்ப	-1661
பிர	-1662
ர்த்தி	-1663
▁திட்டம்	-1664
ியல்	-1665
க்கிர	-1666
▁இயக்கு	-1667
க்ர	-1668
▁உரிமை	-1669
▁இந்தக்	-1670
▁அறிக்க	-1671
▁திருமண	-1672
▁குற்றம்	-1673
▁தள	-1674
த்தைச்	-1675
▁பத்திர	-1676
▁தோல்	-1677
வதற்கான	-1678
ப்த	-1679
▁அதாவது	-1680
ரையா	-1681
▁ஊடக	-1682
▁மேற்பட்ட	-1683
வுகள்	-1684
▁ஆகியோர்	-1685
▁வருட	-1686
க்தி	-1687
▁தொகுதி	-1688
▁வலியு	-1689
நே	-1690
மாறு	-1691
ப்பே	-1692
▁உள்	-1693
▁ஆசிர	-1694
▁விற்ப	-1695
▁சந்திர	-1696
ானி	-1697
ந்தார்	-1698
▁குறிப்பிடத்தக்க	-1699
▁ரி	-1700
▁நீர்	-1701
▁சுத	-1702
நு	-1703
▁கலை	-1704
க்கூடிய	-1705
▁இஸ்ரேல்	-1706
▁இடை	-1707
▁நேரம்	-1708
▁நல	-1709
▁அட	-1710
▁மனைவி	-1711
▁இருக்கிறார்	-1712
▁நகர	-1713
▁வருகின்றன	-1714
த்துள்ளார்	-1715
ிர்	-1716
▁ரசிக	-1717
ார்த்த	-1718
லியல்	-1719
▁மூத்த	-1720
er	-1721
ிலோ	-1722
ியான	-1723
▁கேர	-1724
▁விப	-1725
▁நீண்ட	-1726
▁திருமணம்	-1727
▁யூ	-1728
ன்னீர்	-1729
நீதி	-1730
▁ஏற்படும்	-1731
▁சர	-1732
களுடன்	-1733
▁கண்கா	-1734
▁இள	-1735
▁ஈடுபட்ட	-1736
களைப்	-1737
த்துவ	-1738
▁ஆதரவ	-1739
▁அதிகமாக	-1740
ாட்ட	-1741
▁கொள்	-1742
▁வங்கி	-1743
ப்பினர்	-1744
ிரே	-1745
ாளராக	-1746
ில்தான்	-1747
▁இடத்தில்	-1748
க்கூட	-1749
▁பேச்ச	-1750
▁என்பதால்	-1751
த்தீ	-1752
▁சுக	-1753
▁பெறு	-1754
லைக்கழக	-1755
தாகக்	-1756
த்தொ	-1757
▁சேவை	-1758
தேச	-1759
▁வரவே	-1760
▁செய்க	-1761
▁30	-1762
▁பிரப	-1763
▁14	-1764
▁நடைபெறும்	-1765
▁இதே	-1766
▁கவன	-1767
▁குற்றச்ச	-1768
▁பூஜை	-1769
▁திட்டமி	-1770
க்குப்	-1771
▁அடிப்படையில்	-1772
ப்பான	-1773
▁பட்டிய	-1774
▁எதிர்ப்பு	-1775
▁பல்கலைக்கழக	-1776
ேஷ்	-1777
▁கேட்க	-1778
மைப்பு	-1779
▁பழனிசாமி	-1780
ாங்க	-1781
▁,	-1782
▁அன்று	-1783
வோ	-1784
த்தினர்	-1785
ப்பாடு	-1786
ினால்	-1787
▁அதனை	-1788
த்தியில்	-1789
மானது	-1790
▁எதிரான	-1791
▁காட்சி	-1792
த்தைப்	-1793
ாலி	-1794
▁இந்தத்	-1795
▁நடத்திய	-1796
▁மறை	-1797
▁பாலியல்	-1798
ாமலை	-1799
▁குறிப்பாக	-1800
▁இந்தியாவின்	-1801
▁பட்ட	-1802
▁வழக்கில்	-1803
▁செய்திய	-1804
வினர்	-1805
க்குள்	-1806
வாத	-1807
ன்னி	-1808
▁ராகுல்	-1809
▁அவர்களின்	-1810
ங்கில	-1811
▁தண்ட	-1812
நாடு	-1813
▁வசி	-1814
▁போல்	-1815
▁திருவிழ	-1816
▁வெளியிட்டு	-1817
்டு	-1818
▁கர்நா	-1819
▁செல்லும்	-1820
த்திட்ட	-1821
ில்லிய	-1822
▁மருத்துவமனை	-1823
▁அந்தப்	-1824
▁தனியார்	-1825
ப்பட்டுள்ளன	-1826
▁எரி	-1827
▁நோய	-1828
▁திரைப்பட	-1829
க்கப்படும்	-1830
க்குழு	-1831
▁வரி	-1832
▁ஆரம்ப	-1833
▁நிறுவனம்	-1834
▁ஜி	-1835
▁அறிக்கை	-1836
at	-1837
ன்றி	-1838
▁போக	-1839
▁தமிழ்நாட்டில்	-1840
30	-1841
ரசு	-1842
▁மனு	-1843
கிறோம்	-1844
▁எஸ்	-1845
த்தைக்	-1846
▁ராசி	-1847
தியின்	-1848
லாம	-1849
▁இடம்	-1850
▁இன்ற	-1851
▁மேம்ப	-1852
▁எச்ச	-1853
▁சிலர்	-1854
ிருந்தனர்	-1855
▁காலத்தில்	-1856
▁பிரதி	-1857
▁பகுதிகளில்	-1858
ும்பு	-1859
▁ஆரம்பி	-1860
▁உற்ப	-1861
▁மாணவி	-1862
▁அதிகம்	-1863
விட்டார்	-1864
▁மாணவர்கள்	-1865
விடு	-1866
▁அருக	-1867
▁பயணம்	-1868
▁பணிய	-1869
லையில்	-1870
▁அழு	-1871
ந்தில்	-1872
தோ	-1873
▁மாற	-1874
▁மதுரை	-1875
வதால்	-1876
ப்படி	-1877
ுக்காக	-1878
▁அமெரிக்கா	-1879
ாவும்	-1880
▁பள்ள	-1881
வதற்காக	-1882
▁ஆன்	-1883
▁வெளியிட்ட	-1884
வோம்	-1885
ஜா	-1886
▁கோரிக்கை	-1887
▁பின்ன	-1888
▁பிறந்த	-1889
▁ஆதி	-1890
▁வித	-1891
வரி	-1892
க்ஸ்	-1893
ங்கிணை	-1894
▁வெளியாக	-1895
▁இணைந்து	-1896
ப்படவில்லை	-1897
▁கூடு	-1898
▁என்னை	-1899
ிருஷ்ண	-1900
▁இருந்தாலும்	-1901
▁வருமான	-1902
▁50	-1903
ியர்கள்	-1904
▁அவர்களுக்கு	-1905
▁விரும்ப	-1906
▁ஆண்டுகளுக்கு	-1907
ங்களாக	-1908
▁அவசிய	-1909
▁ஒருங்கிணை	-1910
▁போக்கு	-1911
▁ரெ	-1912
▁வன்	-1913
▁தாக்குதல்	-1914
▁நான்கு	-1915
▁செலுத்த	-1916
▁பயண	-1917
▁நீதிமன்றம்	-1918
▁13	-1919
▁பதில	-1920
▁நடைபெற	-1921
▁அச	-1922
▁வலை	-1923
ீர்கள்	-1924
▁நடைபெற்று	-1925
▁கூடாது	-1926
ராள	-1927
▁அளித்த	-1928
▁சுகாதார	-1929
▁எதிர்க்கட்சி	-1930
▁மார்	-1931
▁பற்றிய	-1932
▁போலீஸ்	-1933
▁அவ்	-1934
▁கடும்	-1935
▁தமிழகத்தில்	-1936
▁16	-1937
நுட்ப	-1938
தன்	-1939
ாயம்	-1940
▁அடையாள	-1941
▁செய்தார்	-1942
நாயக	-1943
ப்பதி	-1944
ாரம்	-1945
▁சொல்	-1946
▁25	-1947
▁சட்டமன்ற	-1948
▁விரி	-1949
▁தயாரி	-1950
▁தேர்	-1951
சில	-1952
on	-1953
வாய்	-1954
ிகை	-1955
....	-1956
களுக்கும்	-1957
▁பெயர்	-1958
ட்டிற்கு	-1959
▁இல்லாமல்	-1960
▁செய்யப்பட்டு	-1961
▁நாடுகள்	-1962
▁சதவீ	-1963
▁கோவிலில்	-1964
▁அற	-1965
ராஜ்	-1966
▁உட்பட	-1967
க்குறிப்பு	-1968
▁கார்	-1969
▁பலர்	-1970
நீதிமன்ற	-1971
குதி	-1972
▁தண்ண	-1973
னிய	-1974
களிலும்	-1975
▁சுதந்திர	-1976
▁எங்கள்	-1977
▁ஹி	-1978
▁ஆறு	-1979
▁கணி	-1980
ள்ளதாக	-1981
▁இடம்பெ	-1982
▁போட்டு	-1983
▁மோத	-1984
ாண	-1985
▁டீ	-1986
▁இனி	-1987
▁இவ்	-1988
ப்படை	-1989
▁நகர்	-1990
▁விசாரி	-1991
▁கூறுகையில்	-1992
நோ	-1993
கிறேன்	-1994
▁பணியா	-1995
▁நாட்டில்	-1996
க்கண	-1997
ளிக்க	-1998
▁தொலை	-1999
▁இறுதி	-2000
ங்களிலும்	-2001
க்கே	-2002
▁தலைமைய	-2003
டியே	-2004
ாளர்களை	-2005
▁மக்களுக்கு	-2006
▁படக்குறிப்பு	-2007
▁உள்ளார்	-2008
ஷி	-2009
▁கல்லூரி	-2010
ஹி	-2011
செல்	-2012
▁ஆதரவு	-2013
▁பிபிசி	-2014
▁கண்காணி	-2015
▁புரி	-2016
ன்மை	-2017
ருடன்	-2018
ற்கும்	-2019
சியில்	-2020
▁எல்லாம்	-2021
மான்	-2022
▁2022	-2023
▁ஏராள	-2024
டியில்	-2025
▁அலங்க	-2026
▁கண்டுபி	-2027
என்	-2028
▁17	-2029
▁அனைவரும்	-2030
▁உடனடியாக	-2031
▁மகிழ்ச்ச	-2032
▁சந்தித்து	-2033
டல்	-2034
நாள்	-2035
▁இதன	-2036
வ்வளவு	-2037
.5	-2038
சூ	-2039
▁சோதனை	-2040
▁பதில்	-2041
▁கூட்டம்	-2042
▁இருவரும்	-2043
▁நடக்கும்	-2044
▁காட்ட	-2045
▁வெற்ற	-2046
▁கடன்	-2047
▁என்பத	-2048
▁குழுவ	-2049
▁முடியாத	-2050
வால்	-2051
க்கல்	-2052
▁இந்தச்	-2053
▁எதிர்பார்க்க	-2054
க்கப்பட்டுள்ளது	-2055
▁வடி	-2056
களைக்	-2057
▁மும்ப	-2058
▁மாதி	-2059
▁கொண்டா	-2060
▁இருந்தார்	-2061
▁போராட்டம்	-2062
▁போன	-2063
▁வான	-2064
▁தாக்கல்	-2065
பம்	-2066
▁முதலில்	-2067
▁காவல்துறை	-2068
▁புதி	-2069
▁சட்டம்	-2070
வற்றை	-2071
▁பலரும்	-2072
▁வெடி	-2073
▁ஆண்டுகளாக	-2074
▁பேசு	-2075
ணியில்	-2076
▁புகை	-2077
▁ஆலோசனை	-2078
▁தொழில்நுட்ப	-2079
▁தவற	-2080
▁இருப்பதாக	-2081
▁இருப்பினும்	-2082
▁மீதான	-2083
▁சிர	-2084
▁எதிர்கொ	-2085
▁பாதிக்கப்பட்ட	-2086
ar	-2087
ப்புற	-2088
▁தலைமையில்	-2089
ெய்	-2090
▁கூடிய	-2091
▁எண்ணிக்கை	-2092
▁அவரின்	-2093
▁குறைந்த	-2094
▁சை	-2095
ழ்த்த	-2096
▁விசாரண	-2097
ையிலான	-2098
விரு	-2099
▁சின்ன	-2100
ரத்தில்	-2101
▁சீனா	-2102
▁தாய்	-2103
னைய	-2104
ஷேகம்	-2105
▁பரவ	-2106
▁மேற்கு	-2107
▁வசதி	-2108
▁ஒப்பந்த	-2109
▁விமர்சி	-2110
வைய	-2111
▁அதிகரித்து	-2112
▁தெரிவித்துள்ளது	-2113
▁திக	-2114
▁பிரிவு	-2115
நகர்	-2116
▁பயிற்சி	-2117
▁தலைவர்கள்	-2118
▁தென்	-2119
▁மாட்ட	-2120
▁மூன்ற	-2121
▁அடிக்க	-2122
▁கிழ	-2123
னவே	-2124
▁சொல்லி	-2125
ோதைய	-2126
ூரில்	-2127
▁படம்	-2128
▁ஆண்டில்	-2129
▁நாக	-2130
முறைய	-2131
ாட்சி	-2132
▁விஜய	-2133
ங்கை	-2134
▁குறிப்பிட்டு	-2135
ப்பட்டன	-2136
▁அளவுக்கு	-2137
▁எனது	-2138
▁தரிச	-2139
ியுடன்	-2140
▁அம்ப	-2141
ர்களும்	-2142
▁கால்	-2143
▁வெளியிட	-2144
ில்லியன்	-2145
ப்பும்	-2146
▁அறிவு	-2147
▁ஏராளமான	-2148
▁முன்னிட்டு	-2149
▁வக	-2150
▁ஆவ	-2151
▁இதுபோ	-2152
▁அவர்களை	-2153
▁முக்கியமான	-2154
▁முதலமைச்சர்	-2155
டியை	-2156
▁ஆயிரம்	-2157
ரேந்திர	-2158
ஞ்சி	-2159
வுன்	-2160
▁வந்தார்	-2161
ப்படுத்து	-2162
ஷா	-2163
▁கழி	-2164
மாள்	-2165
ிழமை	-2166
ண்டிய	-2167
▁அக்க	-2168
பக	-2169
▁கிலோ	-2170
▁கூறியுள்ளார்	-2171
▁பாராளுமன்ற	-2172
▁தங்கள	-2173
▁நியமி	-2174
பட்ட	-2175
றையை	-2176
▁நண்ப	-2177
ட்டத்தில்	-2178
▁டாக	-2179
பார்	-2180
ஞர்	-2181
▁மேல	-2182
குறித்து	-2183
ரங்க	-2184
▁மத்தியில்	-2185
ரக	-2186
ஜரா	-2187
▁24	-2188
▁கிரிக்க	-2189
▁மாறி	-2190
▁மக்களின்	-2191
▁சென்னையில்	-2192
▁நிறுத்த	-2193
வித	-2194
▁ஏற்பட்டது	-2195
▁அனுப	-2196
▁மாவட்டத்தில்	-2197
▁சாலை	-2198
▁தகவல்கள்	-2199
▁அறிமுக	-2200
▁ஹெ	-2201
▁கடுமையாக	-2202
ன்னீர்செல்	-2203
தியான	-2204
▁தந்த	-2205
▁பாகிஸ்தான்	-2206
▁கூட்டத்தில்	-2207
நாயகர்	-2208
▁குற்றச்சாட்டு	-2209
▁ஆராய	-2210
▁சந்தே	-2211
ாச	-2212
▁அணு	-2213
),	-2214
ன்ஸ்	-2215
ற்றம்	-2216
▁குஜரா	-2217
▁ஏற்கனவே	-2218
▁அவை	-2219
▁பிரதம	-2220
▁தன்னுடைய	-2221
ன்றால்	-2222
▁மொத்த	-2223
த்ய	-2224
▁ஓய்	-2225
னே	-2226
▁நவ	-2227
ண்டை	-2228
▁தரப்பு	-2229
▁விற்பனை	-2230
▁ஆண்டுகள்	-2231
மணி	-2232
ிறு	-2233
▁கர	-2234
▁மாநக	-2235
விடம்	-2236
ிலுள்ள	-2237
▁லா	-2238
▁சிறுவ	-2239
▁கத	-2240
ங்களையும்	-2241
▁உற்ச	-2242
ியுள்ளனர்	-2243
▁ஒப்பு	-2244
▁மருத்துவமனையில்	-2245
எம்	-2246
▁கோவை	-2247
வதில்	-2248
▁மகன்	-2249
en	-2250
▁ஷா	-2251
▁நாளை	-2252
ெடு	-2253
ர்ப்ப	-2254
▁தேடி	-2255
▁நீதிமன்றத்தில்	-2256
ன்பு	-2257
▁பறி	-2258
லூர்	-2259
▁சமய	-2260
ற்றா	-2261
▁ஞ	-2262
களால்	-2263
▁மாற்று	-2264
ிலை	-2265
▁மாநிலம்	-2266
▁விளை	-2267
▁ப்	-2268
▁ஊர்	-2269
▁பக	-2270
▁இருப்பது	-2271
▁எதுவும்	-2272
▁தெளி	-2273
▁நரேந்திர	-2274
வதாகவும்	-2275
பட்ச	-2276
▁கவனம்	-2277
▁முறையாக	-2278
▁எழுந்த	-2279
▁முறையில்	-2280
மடைந்த	-2281
▁திருவ	-2282
▁பால்	-2283
▁திடீர	-2284
வருக்கும்	-2285
or	-2286
சிங்க	-2287
டைந்து	-2288
ப்பதற்கு	-2289
க்கால	-2290
விடும்	-2291
▁முன்வை	-2292
▁கடைசி	-2293
ும	-2294
▁கோயிலில்	-2295
.,	-2296
▁உக்ரைன்	-2297
▁கும்ப	-2298
▁வன	-2299
▁தாய	-2300
ஸ்திரே	-2301
▁தான	-2302
▁விருது	-2303
▁தாக்குத	-2304
▁பகி	-2305
▁ஸ்க	-2306
▁சகோத	-2307
▁ரன்கள்	-2308
▁மிர	-2309
▁அண்ணாமலை	-2310
▁போக்குவர	-2311
▁S	-2312
ாரா	-2313
▁இருந்தால்	-2314
▁100	-2315
▁டா	-2316
நாத்	-2317
▁கழக	-2318
ன்கள்	-2319
▁நிதிய	-2320
▁தேவையான	-2321
▁அப	-2322
▁முரு	-2323
க்கூடாது	-2324
▁விவகாரம்	-2325
▁வாங்கி	-2326
▁ஆகியோ	-2327
▁இதுகுறித்து	-2328
வால	-2329
▁பகவ	-2330
▁தொண்ட	-2331
▁A	-2332
▁காலம்	-2333
al	-2334
▁மிகப்பெ	-2335
ியம்	-2336
▁அனுப்பி	-2337
▁புர	-2338
ரமாக	-2339
▁பஞ்சா	-2340
▁ஈடுபட்டு	-2341
▁கைப்ப	-2342
த்தனை	-2343
▁வேண்டாம்	-2344
வல	-2345
த்திரை	-2346
▁குழந்தைகள்	-2347
▁முடியவில்லை	-2348
வச	-2349
றவு	-2350
ிகா	-2351
▁ஹோ	-2352
▁ஐந்து	-2353
.2	-2354
▁உங்களுக்கு	-2355
்களும்	-2356
▁மற்றொரு	-2357
▁சமீபத்தில்	-2358
▁நமது	-2359
▁விரைவில்	-2360
▁லி	-2361
▁கள்ள	-2362
▁நாட்கள்	-2363
ிட்	-2364
▁காட்டு	-2365
▁அதிர்ச்ச	-2366
த்தே	-2367
▁பிரபல	-2368
ச்சே	-2369
வந்த	-2370
▁மகா	-2371
▁முஸ்	-2372
பட	-2373
புண	-2374
தாவது	-2375
▁சட்டச	-2376
த்தகைய	-2377
▁தந்தை	-2378
க்கணக்கான	-2379
▁தை	-2380
கொள்ள	-2381
க்கொண்டு	-2382
▁காத்த	-2383
▁பொதுமக்கள்	-2384
ப்பிய	-2385
▁சூரிய	-2386
சர்	-2387
▁வகை	-2388
▁பக்க	-2389
▁தன்னை	-2390
தார	-2391
▁திருக்க	-2392
▁பிரிட்ட	-2393
▁இரண்டாவது	-2394
▁மேற்கொண்ட	-2395
▁உயிர	-2396
▁பெரும்ப	-2397
ால்தான்	-2398
▁அம்மன்	-2399
▁குறிப்பிட்டார்	-2400
▁கான்	-2401
▁சிறப்பாக	-2402
▁போட்டியில்	-2403
▁கப்ப	-2404
னோ	-2405
யூ	-2406
ிரா	-2407
▁சசிக	-2408
▁கர்நாடக	-2409
▁சேர்க்க	-2410
த்தன	-2411
▁மலை	-2412
ாகும்	-2413
▁ஒன்றை	-2414
▁ஒதுக்க	-2415
▁சிறந்த	-2416
ானா	-2417
▁நடக்கிறது	-2418
சல்	-2419
▁மிகப்பெரிய	-2420
▁மின்சார	-2421
ஹா	-2422
ற்கை	-2423
ருடைய	-2424
ப்பதாக	-2425
▁நோக்கி	-2426
▁பற	-2427
ாதம்	-2428
றையினர்	-2429
▁புகைப்பட	-2430
▁ரண	-2431
ப்பம்	-2432
ரியில்	-2433
ுமா	-2434
▁நடு	-2435
▁கொல்ல	-2436
▁சேர்ந்து	-2437
▁யாரும்	-2438
னாக	-2439
▁எதிர்கால	-2440
▁மருந்து	-2441
▁ஆண	-2442
▁வியா	-2443
▁மோதி	-2444
ம்தான்	-2445
▁கௌ	-2446
▁பேரா	-2447
▁சொல்க	-2448
ட்பு	-2449
ய்ய	-2450
▁ரே	-2451
▁மாக	-2452
▁எழுதிய	-2453
ட்டிக்க	-2454
▁40	-2455
ற்றின்	-2456
▁ஏற்பட	-2457
▁மொத்தம்	-2458
▁உடன்	-2459
கால	-2460
இந்த	-2461
▁அச்ச	-2462
▁வீரர்கள்	-2463
ற்றும்	-2464
▁ட்விட்ட	-2465
▁மேற்கொண்டு	-2466
▁மட்டுமல்ல	-2467
இல்	-2468
▁ஆயுத	-2469
▁ஆய்வ	-2470
நீர்	-2471
ச்சினை	-2472
▁திடீரென	-2473
▁குடியரசு	-2474
▁கும்	-2475
▁செய்யப்பட்டது	-2476
மக்கு	-2477
த்தைத்	-2478
▁வார்த்த	-2479
ீன்	-2480
▁அந்	-2481
ருமான	-2482
▁பேச்சுவ	-2483
▁சுற்றுலா	-2484
▁பேசினார்	-2485
▁டை	-2486
▁விண்ண	-2487
▁சொத்து	-2488
ிருக்கிறார்கள்	-2489
▁21	-2490
▁இன	-2491
னையை	-2492
ப்பர்	-2493
▁போய்	-2494
▁பாத	-2495
ானை	-2496
சாலை	-2497
ர்ட்	-2498
▁நிமி	-2499
ிருப்பது	-2500
த்திலிருந்து	-2501
▁அம்மா	-2502
▁0	-2503
▁உடை	-2504
▁செய்வது	-2505
▁எங்களுக்கு	-2506
யர்	-2507
▁பேச்சுவார்த்த	-2508
▁விழாவில்	-2509
▁காத	-2510
ின்றி	-2511
▁நிபுண	-2512
▁வழங்குவ	-2513
▁மாநிலத்தில்	-2514
▁ஆஸ்திரே	-2515
▁விடுதலை	-2516
▁உயிரிழந்த	-2517
▁மொழி	-2518
▁முடிந்த	-2519
லலி	-2520
ந்தர	-2521
▁அளவு	-2522
▁சாதி	-2523
▁ஜூலை	-2524
▁பந்துவீ	-2525
▁எல்லா	-2526
▁நடிகர்	-2527
▁டாக்டர்	-2528
காரா	-2529
▁தற்கொ	-2530
ப்படுகின்றன	-2531
களைத்	-2532
▁பணிகள்	-2533
▁வலியுறு	-2534
பூர்	-2535
▁கடுமையான	-2536
்டோ	-2537
▁அந்தக்	-2538
▁முதலீடு	-2539
▁செய்தது	-2540
▁படு	-2541
▁பெண்ண	-2542
த்துவம்	-2543
▁சேர்த்து	-2544
த்திற்கும்	-2545
்க்	-2546
▁மண	-2547
▁கலா	-2548
▁தாம	-2549
▁வாய	-2550
▁கண்டி	-2551
▁என்கிற	-2552
▁மாற்றம்	-2553
டாக	-2554
▁பட்	-2555
▁அடுத்து	-2556
▁வளர்ச்சி	-2557
லையை	-2558
▁22	-2559
▁எளி	-2560
▁திருவிழா	-2561
▁ஆகும்	-2562
▁நம்பிக்கை	-2563
னான	-2564
▁நியூ	-2565
▁இவர்கள்	-2566
▁சனி	-2567
▁சால	-2568
▁புகார	-2569
வேண்டும்	-2570
▁தரிசனம்	-2571
▁அடைந்த	-2572
▁தொற்று	-2573
▁சுய	-2574
ட்சிய	-2575
ளித்த	-2576
▁விக்கெ	-2577
▁உற்பத்தி	-2578
வியல்	-2579
▁பாலா	-2580
▁அரி	-2581
▁நகை	-2582
▁கேரள	-2583
▁இருக்கிற	-2584
ிடு	-2585
கமாக	-2586
▁நிர்வாகிகள்	-2587
▁எனத்	-2588
▁இதற்க	-2589
▁நிறைவேற்ற	-2590
ந்துள்ள	-2591
▁மார்ச்	-2592
▁பேராசிர	-2593
மம்	-2594
▁கீழ	-2595
▁விஜய்	-2596
▁தற்கொலை	-2597
▁ஆராய்ச்ச	-2598
▁நடைமுறை	-2599
வாய	-2600
▁குமார்	-2601
▁பிரச்சினை	-2602
ிருக்கின்றனர்	-2603
ரவை	-2604
▁ஜெயலலி	-2605
▁வழியாக	-2606
▁உருவாக்க	-2607
ஞ்சம்	-2608
▁2024	-2609
▁அதன்படி	-2610
ில்ல	-2611
▁அம்ம	-2612
▁23	-2613
▁நுழை	-2614
▁கிடைத்த	-2615
▁சூழ்	-2616
படுத்த	-2617
ாமா	-2618
வீன	-2619
த்துள்ள	-2620
▁நாட்டு	-2621
நிய	-2622
▁அதேபோல	-2623
ரியா	-2624
▁பரு	-2625
ழிப்பு	-2626
▁பக்கம்	-2627
▁கம	-2628
செய்ய	-2629
▁நடத்து	-2630
▁கிரிக்கெட்	-2631
ெழு	-2632
▁மகாரா	-2633
▁நிறைய	-2634
▁இஸ்லாம	-2635
▁இதுபோன்ற	-2636
ரையில்	-2637
▁போக்குவரத்து	-2638
▁அபிவிரு	-2639
வுகளை	-2640
▁தினம்	-2641
▁மக்களை	-2642
▁கருத	-2643
es	-2644
▁சிறிய	-2645
வதில்லை	-2646
▁முஸ்லி	-2647
ஜெ	-2648
புற	-2649
ங்கல்	-2650
த்தல்	-2651
்களாக	-2652
▁உரிய	-2653
▁ஜூன்	-2654
▁அறிக்கையில்	-2655
▁வகுப்பு	-2656
▁விவகாரத்தில்	-2657
ன்னு	-2658
▁ரத்த	-2659
▁கதை	-2660
▁வென்ற	-2661
▁பேருந்து	-2662
▁முன்னதாக	-2663
▁டே	-2664
▁அறு	-2665
▁பணியில்	-2666
▁குர	-2667
▁மகள	-2668
நிலைய	-2669
டித்து	-2670
▁கிடைய	-2671
▁சக்தி	-2672
▁T	-2673
ற்சிய	-2674
▁உறுப்பினர்	-2675
▁B	-2676
ன்கொ	-2677
வாள	-2678
▁பெற்றோ	-2679
▁வெளிநாட்டு	-2680
த்தூர்	-2681
ேத	-2682
ட்ஸ்	-2683
▁அதிர	-2684
▁மாகாண	-2685
▁வீட்டு	-2686
குந்த	-2687
▁நெரு	-2688
▁இயக்க	-2689
▁C	-2690
▁மீன	-2691
▁பெரும்பால	-2692
▁குறித்தும்	-2693
ஷேக	-2694
▁அவ்வ	-2695
▁ஆண்டுகளில்	-2696
▁M	-2697
▁2021	-2698
▁படைய	-2699
▁விவர	-2700
ணு	-2701
பூ	-2702
▁நிச்ச	-2703
▁வழங்கி	-2704
மித்	-2705
▁குவி	-2706
▁எங்கள	-2707
▁பொதுக்குழு	-2708
▁2019	-2709
▁அருகில்	-2710
▁உதய	-2711
▁வர்த்த	-2712
▁விபத்து	-2713
▁நாட்களுக்கு	-2714
▁சூழலில்	-2715
▁தலைவராக	-2716
▁வழங்கப்படும்	-2717
:00	-2718
க்ரே	-2719
▁கிடையாது	-2720
▁.	-2721
▁சன	-2722
விகி	-2723
▁ஆவண	-2724
க்ஸ	-2725
▁அதிகரிக்கும்	-2726
▁புல	-2727
▁மரண	-2728
▁புரிந்து	-2729
▁நிறுவனங்கள்	-2730
▁பேச்சு	-2731
▁பாகிஸ்தான	-2732
▁பண்ட	-2733
வர்களில்	-2734
▁வாக்க	-2735
குதியில்	-2736
ஞ்சு	-2737
▁அருள்	-2738
▁கொள்கை	-2739
▁தெரிவித்தனர்	-2740
▁ஏற்படுத்தி	-2741
க்ரம	-2742
▁சிங்க	-2743
▁தனக்கு	-2744
▁தொடங்கிய	-2745
▁மும்பை	-2746
▁நிகழ்ச்சியில்	-2747
▁ஏப்	-2748
▁2023	-2749
▁ஏற்ற	-2750
ந்தர்	-2751
ன்னீர்செல்வம்	-2752
▁ஜனநாயக	-2753
▁எனும்	-2754
▁பின்ப	-2755
▁பொறுத்த	-2756
▁நிலையத்தில்	-2757
▁ரணில்	-2758
▁பகுதியை	-2759
▁கொண்டிருந்த	-2760
ணய	-2761
ட்ரோ	-2762
பாபி	-2763
▁நபர்	-2764
▁சரியான	-2765
▁வழக்கறி	-2766
▁சினி	-2767
▁தவறு	-2768
ளவில்	-2769
▁சம்பந்த	-2770
▁வாழ்க்கை	-2771
▁பெரும்பாலான	-2772
▁உண்மை	-2773
▁தலைமையிலான	-2774
மலை	-2775
▁லெ	-2776
ீட்டு	-2777
▁நிற்க	-2778
▁வலைதள	-2779
▁பெங்கள	-2780
▁ரூபாய	-2781
▁P	-2782
▁சிறை	-2783
▁அதிகமான	-2784
ுங்கள்	-2785
▁கிழக்கு	-2786
▁தரப்பில்	-2787
திலும்	-2788
▁மேற்க	-2789
▁தண்ணீர்	-2790
ுவை	-2791
▁உள	-2792
▁வந்தனர்	-2793
▁விவசாயி	-2794
▁அறிவிப்பு	-2795
▁ஆட்சியில்	-2796
▁சர்ச்சை	-2797
▁அரசுக்கு	-2798
▁வருகிறார்கள்	-2799
▁ஏற்பட்டுள்ளது	-2800
▁199	-2801
▁போட	-2802
▁திருப்ப	-2803
▁சப	-2804
▁வலி	-2805
▁வட்ட	-2806
▁பங்கள	-2807
▁துப்பா	-2808
▁பொறுப்பு	-2809
▁சதவிகி	-2810
▁கூடுதல்	-2811
ர்ட	-2812
▁வித்திய	-2813
▁இருக்கலாம்	-2814
202	-2815
▁ஏமா	-2816
▁ரத்து	-2817
▁வளாக	-2818
தற்காக	-2819
▁அமைக்க	-2820
▁கும்பாபி	-2821
▁தொடங்கியது	-2822
▁விளையாட்டு	-2823
ாந்து	-2824
▁ஆளுந	-2825
▁சரியாக	-2826
▁மதிப்ப	-2827
நாட்டில்	-2828
▁அவருடைய	-2829
▁கட்சிய	-2830
▁பயன்படுத்தி	-2831
வுக	-2832
▁தடுக்க	-2833
▁பரிந்து	-2834
▁பார்வைய	-2835
▁பிப்	-2836
▁தண்டனை	-2837
வெளி	-2838
▁குள	-2839
▁அவசியம்	-2840
ணமாக	-2841
▁செயற்ப	-2842
▁முயன்ற	-2843
▁கட்டுப்பா	-2844
னல்	-2845
▁விளக்க	-2846
ப்படுத்தி	-2847
பொரு	-2848
▁அக்	-2849
▁ஆடி	-2850
▁இம்	-2851
ாவிற்கு	-2852
▁முன்னெ	-2853
▁பவு	-2854
▁கூட்டு	-2855
▁தற்போதைய	-2856
▁வெளியாகி	-2857
▁ஒழு	-2858
ரியாத	-2859
▁திரா	-2860
விற்கு	-2861
▁பெருமாள்	-2862
டியும்	-2863
▁உண்டு	-2864
▁கிருஷ்ண	-2865
▁பிரச்சனை	-2866
▁பாக	-2867
▁குழந்த	-2868
▁மாதிரி	-2869
▁நடைபெறு	-2870
▁கட்டி	-2871
▁நாளில்	-2872
▁ரசிகர்கள்	-2873
▁இலங்கையில்	-2874
▁தட	-2875
கவின்	-2876
▁சாப்ப	-2877
▁தேர்ந்த	-2878
▁ஃப	-2879
டங்கு	-2880
▁உடனே	-2881
▁செலவு	-2882
▁பேட்டி	-2883
வையில்	-2884
▁கமி	-2885
▁பேட்ட	-2886
ங்கியது	-2887
▁தெரியவ	-2888
is	-2889
▁அப்பா	-2890
▁பிரசார	-2891
▁எப்போதும்	-2892
▁அணியின்	-2893
▁எவ்வளவு	-2894
▁நினைக்க	-2895
சர	-2896
▁மகாராஷ்ட	-2897
▁சட்டசபை	-2898
ப்பிக்க	-2899
▁சசிகலா	-2900
▁டால	-2901
▁பிள்ள	-2902
▁இருக்கு	-2903
▁மாவட்டங்களில்	-2904
ீஸ்	-2905
▁வீட்டுக்கு	-2906
தொ	-2907
ையோ	-2908
▁ஹமா	-2909
▁ஒத்து	-2910
▁தெரியவில்லை	-2911
▁ஏன	-2912
▁தெரியும்	-2913
ஸை	-2914
▁குறு	-2915
▁இதற்காக	-2916
ையிலும்	-2917
▁தொடர்பில்	-2918
▁உட்க	-2919
▁புத்தக	-2920
▁நிர்வாகம்	-2921
▁மச	-2922
▁தடுப்பூ	-2923
▁பரபரப்பை	-2924
வியில்	-2925
்குமார்	-2926
▁விக்ரம	-2927
▁இயக்குநர்	-2928
ச்செய	-2929
▁சுட்டிக்க	-2930
▁அபிவிருத்தி	-2931
▁கன்ன	-2932
▁மாநிலங்களில்	-2933
▁I	-2934
கும்	-2935
ஸின்	-2936
▁நட்ச	-2937
▁கையில்	-2938
▁நட்சத்திர	-2939
▁சான்	-2940
▁கடற்ப	-2941
▁முன்னேற்ற	-2942
சீ	-2943
▁உதவ	-2944
▁உரையா	-2945
▁சதவீத	-2946
▁சுற்றி	-2947
மிருந்து	-2948
▁பாதிக்க	-2949
▁கேப்ட	-2950
▁ஜே	-2951
▁திரி	-2952
ிங்	-2953
▁அழக	-2954
▁கடல்	-2955
▁கிட்ட	-2956
ங்களைப்	-2957
▁ஆந்திர	-2958
▁கொண்டனர்	-2959
வேன்	-2960
▁தள்ள	-2961
▁விரும்பு	-2962
மிற	-2963
மணிய	-2964
ொட்டி	-2965
றையும்	-2966
▁அதிகரிக்க	-2967
▁இருக்கின்றன	-2968
எல்ஏ	-2969
ண்டே	-2970
▁அதன	-2971
்துறை	-2972
▁காஷ்	-2973
ஸ்வரர்	-2974
▁எல்லை	-2975
▁நிலைமை	-2976
▁பங்கேற்ற	-2977
▁ஐக்கிய	-2978
▁நாடுகளில்	-2979
▁சிலை	-2980
▁உருவாக	-2981
▁சந்தித்த	-2982
▁தெரிகிறது	-2983
▁எவ்	-2984
▁கம்ப	-2985
▁பதவிய	-2986
▁சிறையில்	-2987
▁விமர்ச	-2988
▁பக்கத்தில்	-2989
ந்தா	-2990
▁வருவதாக	-2991
▁நிறுவனத்தின்	-2992
ப்பதற்காக	-2993
ழ்க	-2994
▁பண்ண	-2995
▁ஓட்டு	-2996
▁அதற்கான	-2997
▁கார்த்த	-2998
▁சந்திக்க	-2999
▁முழுமையாக	-3000
புரி	-3001
▁அதேபோல்	-3002
யோ	-3003
▁களமிற	-3004
▁எம்எல்ஏ	-3005
▁ஹை	-3006
▁ஒலி	-3007
க்குச்	-3008
விட்டால்	-3009
▁இன்னொரு	-3010
▁மருத்துவர்	-3011
▁குண	-3012
▁தங்களது	-3013
▁எதிர்த்து	-3014
ரவரி	-3015
ப்படுத்தும்	-3016
ரால்	-3017
மாகும்	-3018
▁சந்தேக	-3019
▁t	-3020
ின்று	-3021
▁ஹே	-3022
▁பிள	-3023
▁பேசுவ	-3024
▁கண்டறிய	-3025
▁நேரடியாக	-3026
▁உங்கள	-3027
▁(1	-3028
ார்கள	-3029
▁மோசமான	-3030
▁கட்சிகள்	-3031
▁யுக்ரே	-3032
▁பரிந்துரை	-3033
ிருக்கின்றன	-3034
▁போய	-3035
றையின்	-3036
▁அங்கீ	-3037
▁பகிர்ந்து	-3038
▁அறிய	-3039
▁தொகை	-3040
▁பழைய	-3041
▁பயங்க	-3042
▁வழங்கும்	-3043
▁விவசாயிகள்	-3044
it	-3045
▁அழ	-3046
லாக்க	-3047
▁பெரி	-3048
▁அலங்கார	-3049
▁தீர்ப்பு	-3050
▁பெட்ரோ	-3051
▁பிடித்து	-3052
ீப்	-3053
▁வலு	-3054
▁கொழ	-3055
▁டிச	-3056
▁நோய்	-3057
▁கடிதம்	-3058
த்திலேயே	-3059
▁செந்தில்	-3060
▁நெருக்கடி	-3061
▁கலந்துரையா	-3062
ாலை	-3063
லைன்	-3064
ரான்	-3065
ண்டர்	-3066
▁என்னு	-3067
ியம்மன்	-3068
▁தோல்வி	-3069
▁குஜராத்	-3070
▁மதிப்பு	-3071
ாராய	-3072
▁இரண்டாம்	-3073
▁வன்முறை	-3074
▁ரக	-3075
▁ரொ	-3076
ஸில்	-3077
▁வாழ்த்து	-3078
ுமி	-3079
▁ஓர்	-3080
▁நன்ற	-3081
ாதாரம்	-3082
▁நேரில்	-3083
▁உயர்த்த	-3084
▁பரிசோதனை	-3085
▁ஜா	-3086
ற்பு	-3087
▁இவை	-3088
களைச்	-3089
ங்கம்	-3090
▁பெயரில்	-3091
.4	-3092
மன்	-3093
பாத்	-3094
▁ஒளி	-3095
▁பல்ல	-3096
▁ஆளும்	-3097
▁பணத்தை	-3098
ெல்	-3099
▁தினமும்	-3100
முத	-3101
▁பிரா	-3102
▁வரிச	-3103
▁தீர்வு	-3104
▁வழங்கிய	-3105
▁குற்றம்சா	-3106
▁திகதி	-3107
▁ஆங்கில	-3108
▁தொடர்ச்ச	-3109
ோட	-3110
ியே	-3111
▁தம்ப	-3112
▁உள்ளே	-3113
▁நாட்டை	-3114
தையும்	-3115
▁ஏப்ரல்	-3116
▁வழக்கம்	-3117
▁ஆகியவ	-3118
▁உத்தரவு	-3119
▁அரசாங்கம்	-3120
ic	-3121
▁விநாயகர்	-3122
ாளர்களுக்கு	-3123
▁அங்கே	-3124
▁அதோடு	-3125
▁வெங்க	-3126
க்கூடும்	-3127
▁வெளியான	-3128
▁நாட்களில்	-3129
▁உறுப்பினர்கள்	-3130
விட்	-3131
▁செல்க	-3132
▁மூலமாக	-3133
▁திட்டத்தை	-3134
am	-3135
▁உறவின	-3136
▁27	-3137
முதல்	-3138
ென்றால்	-3139
ூர	-3140
மொழி	-3141
க்கட்ட	-3142
▁அமித்	-3143
▁செவ்வ	-3144
ிருந்தால்	-3145
▁பிரதிநிதி	-3146
ன்ட்	-3147
▁மீன்	-3148
்டோபர்	-3149
▁கவுன்	-3150
ந்திரன்	-3151
▁(2	-3152
▁போதை	-3153
▁திருந	-3154
▁வழிபாடு	-3155
ிருப்பதாக	-3156
ெனவே	-3157
டுவது	-3158
▁மீட்க	-3159
▁ஆகியவை	-3160
▁எப்போது	-3161
▁அதைத்	-3162
▁பஞ்சாப்	-3163
▁இறந்த	-3164
▁பொருட்கள்	-3165
▁தொகுதியில்	-3166
▁N	-3167
பால்	-3168
ும்பி	-3169
▁வெறும்	-3170
திகள்	-3171
▁நோக்க	-3172
▁ஒன்றாக	-3173
▁உள்ளாட்சி	-3174
சரி	-3175
▁கிரக	-3176
ர்களில்	-3177
▁சார்ந்த	-3178
▁இடம்பெற்ற	-3179
▁மோதல்	-3180
ங்களைக்	-3181
▁வகி	-3182
▁அன்ன	-3183
த்திற்காக	-3184
▁போட்டியிட	-3185
▁இவ்வாறு	-3186
▁வீழ்த்த	-3187
▁படத்தில்	-3188
▁மில்லியன்	-3189
டே	-3190
▁1,	-3191
▁இலவச	-3192
▁ஊழிய	-3193
▁ஏற்கெனவே	-3194
ஃப	-3195
னியா	-3196
ராஜன்	-3197
▁கொண்டாட	-3198
▁சாத்திய	-3199
▁ஆட்சியை	-3200
▁நடவடிக்கைகள்	-3201
▁பக்தர்களுக்கு	-3202
ம்பா	-3203
▁உறவு	-3204
▁திராவிட	-3205
▁அடிக்கடி	-3206
▁தெரிந்து	-3207
▁நீட்	-3208
▁கணவர்	-3209
▁புள்ளி	-3210
மாகக்	-3211
்க்கு	-3212
ப்போம்	-3213
▁ஒத்துழை	-3214
▁நிகழ்வு	-3215
▁26	-3216
▁ரவி	-3217
▁கட்சியில்	-3218
▁28	-3219
ண்டா	-3220
க்கர்	-3221
▁செல்போ	-3222
வர்களும்	-3223
▁அனுமதிக்க	-3224
▁பொருட்களை	-3225
▁கலந்துகொண்ட	-3226
கரி	-3227
லால்	-3228
க்கெட்	-3229
▁ரீதியாக	-3230
ாதனை	-3231
ப்பதிவு	-3232
களுக்கான	-3233
▁என்பவர்	-3234
▁பேராசிரியர்	-3235
ம்பர	-3236
▁அன்ப	-3237
▁பயன்படுத்து	-3238
▁சபை	-3239
ப்பதை	-3240
▁எழுப்ப	-3241
▁உள்ளூர்	-3242
▁விமர்சன	-3243
▁கொண்டார்	-3244
▁செயல்பட்டு	-3245
▁மான	-3246
தர்	-3247
▁கவலை	-3248
▁நிர்வாகி	-3249
▁D	-3250
பய	-3251
ராம	-3252
▁வேத	-3253
ஸ்டர்	-3254
▁சகோதர	-3255
▁நிமிட	-3256
ியூ	-3257
▁சூழல்	-3258
▁விவாத	-3259
கத்தில்	-3260
த்துக்கும்	-3261
▁அழைத்துச்	-3262
சோ	-3263
ினம்	-3264
ற்கால	-3265
ம்த	-3266
▁பஞ்ச	-3267
▁திருச்சி	-3268
ஹ்	-3269
ம்ஸ்	-3270
்கூட	-3271
▁மாணவ	-3272
ையுடன்	-3273
▁அலுவலகத்தில்	-3274
ப்பொரு	-3275
▁அடித்து	-3276
▁இத்தகைய	-3277
ாளைய	-3278
▁கௌரவ	-3279
▁இங்கில	-3280
▁முழுக்க	-3281
▁புதுச்சே	-3282
▁செப்ட	-3283
▁ஆதரவாக	-3284
டோ	-3285
▁வடிவ	-3286
▁மாற்றி	-3287
ிலிருந்த	-3288
▁வணி	-3289
மில்லை	-3290
▁செல்வ	-3291
▁ஆகஸ்ட்	-3292
▁காப்பா	-3293
▁வேகமாக	-3294
▁இருப்பதால்	-3295
ஸ்வ	-3296
▁பிப்ரவரி	-3297
▁60	-3298
▁ஆதார	-3299
▁சவால	-3300
லத்தில்	-3301
▁விஷயம்	-3302
▁நடத்தினர்	-3303
▁ஆல	-3304
டுகிறது	-3305
▁வித்தியாச	-3306
▁சித	-3307
▁பண்	-3308
▁நினைவு	-3309
▁அமைச்சர்கள்	-3310
▁2020	-3311
▁மன்ன	-3312
▁வலுவ	-3313
▁ஆணையம்	-3314
ியன்	-3315
▁பராம	-3316
▁மசோத	-3317
▁கட்சியை	-3318
▁தமிழகம்	-3319
போல்	-3320
▁மரு	-3321
பெற்ற	-3322
▁விலக	-3323
க்குழுவ	-3324
▁திட்டத்தின்	-3325
▁முகமது	-3326
▁வெளியு	-3327
▁செயல்பாடு	-3328
▁தக்க	-3329
▁தெலு	-3330
▁தீவிரமாக	-3331
த்துள்ளனர்	-3332
▁முடிவுகள்	-3333
▁போட்டிகளில்	-3334
▁விக்ரமசிங்க	-3335
▁பேச்சுவார்த்தை	-3336
ாயி	-3337
▁எங்க	-3338
ம்பரம்	-3339
▁அன்ற	-3340
▁இங்கே	-3341
ப்பட்டார்	-3342
▁ஆரோ	-3343
▁சித்த	-3344
வரையும்	-3345
ிருக்கலாம்	-3346
▁டோ	-3347
வேளை	-3348
▁நின்று	-3349
▁அங்கிருந்து	-3350
▁சபா	-3351
▁எனப்	-3352
▁எழுதி	-3353
▁மரியாத	-3354
▁உள்ளதாக	-3355
▁சேர்ந்தவர்	-3356
▁விசாரணையில்	-3357
▁உச்சநீதிமன்ற	-3358
ாய்வு	-3359
▁வீட்ட	-3360
க்களின்	-3361
▁அத்துடன்	-3362
▁தடுப்பூசி	-3363
▁மூலாதாரம்	-3364
▁டெல்லியில்	-3365
▁அழி	-3366
▁தலைய	-3367
தில்லை	-3368
▁ஜெயலலிதா	-3369
▁சட்டத்தின்	-3370
கிரி	-3371
வரான	-3372
வைத்	-3373
லாளர்	-3374
▁பயன்	-3375
▁பிடிக்க	-3376
▁பேருக்கு	-3377
▁பதிவிட்டு	-3378
ப்பதற்கான	-3379
▁அடையாளம்	-3380
▁ஏற்படுத்தும்	-3381
ல்லா	-3382
▁இன்றைய	-3383
▁முன்பாக	-3384
திக	-3385
▁உழை	-3386
▁மாநகராட்சி	-3387
க்கா	-3388
▁பதவியை	-3389
▁செயல்படுத்த	-3390
தீ	-3391
▁படிக்க	-3392
▁பழங்கு	-3393
ப்புக்கு	-3394
ாளர்களின்	-3395
▁பத்திரிக	-3396
சில்	-3397
ையைப்	-3398
▁ரயில	-3399
▁எண்ணெய்	-3400
தில	-3401
▁ஓய்வு	-3402
▁இஸ்லாமிய	-3403
▁போராட்டத்தில்	-3404
▁அல்	-3405
▁இழு	-3406
▁நமக்கு	-3407
வுக்கும்	-3408
▁விடுத்து	-3409
▁விளக்கம்	-3410
▁எதிர்பார்	-3411
▁யாத	-3412
கொண்டு	-3413
▁கணக்கு	-3414
▁ஆஸ்திரேலிய	-3415
போதும்	-3416
▁ஒட்டு	-3417
▁ஹமாஸ்	-3418
▁வங்கதேச	-3419
▁கிராமத்தில்	-3420
▁பான	-3421
▁உலகின்	-3422
▁வேட்பாளர்	-3423
ரூ	-3424
▁இல்	-3425
▁சிறுமி	-3426
▁ஏழு	-3427
▁விண்	-3428
▁திருத்த	-3429
▁உயர்நீதிமன்ற	-3430
▁இசை	-3431
▁ஒற்றை	-3432
▁வாரம்	-3433
ion	-3434
ழில்	-3435
ப்பன்	-3436
▁வருகை	-3437
கின்றது	-3438
▁தயாராக	-3439
▁ஒன்றில்	-3440
▁துப்பாக்கி	-3441
.3	-3442
த்தான	-3443
▁இருக்கிறார்கள்	-3444
ஷம்	-3445
▁மய	-3446
▁மற	-3447
▁ஷி	-3448
▁அமலாக்க	-3449
▁அறிவித்த	-3450
▁வெளியுறவு	-3451
ரிமை	-3452
▁அணை	-3453
ச்சார	-3454
விக்க	-3455
▁அரசியலில்	-3456
▁ஐரோ	-3457
▁தியாக	-3458
▁அக்டோபர்	-3459
க்கப்பட்டார்	-3460
ஜித்	-3461
▁ஜனவரி	-3462
▁குண்டு	-3463
ிறி	-3464
▁கருணா	-3465
▁விநிய	-3466
▁க்	-3467
லிக்க	-3468
ையைக்	-3469
ோதே	-3470
மல்ல	-3471
ிக்கிழமை	-3472
▁சேர்த்த	-3473
▁தயாரிக்க	-3474
ைப்	-3475
டனான	-3476
▁வைரஸ்	-3477
▁அரசியல	-3478
.30	-3479
▁ஆட	-3480
டியான	-3481
▁இதனிடையே	-3482
▁தஞ்ச	-3483
▁அனைத்தும்	-3484
▁பெண்களுக்கு	-3485
▁தொடர்ச்சியாக	-3486
பாக	-3487
வமாக	-3488
▁ஆனாலும்	-3489
▁கண்டுபிடிக்க	-3490
50	-3491
▁சது	-3492
க்கணி	-3493
▁மகள்	-3494
▁உலகம்	-3495
▁எழுந்தரு	-3496
▁பொதுச்செய	-3497
▁அணிக்கு	-3498
யி	-3499
▁மல	-3500
ாதாரண	-3501
ையால்	-3502
▁தமது	-3503
▁தொழி	-3504
▁அதிரு	-3505
▁இளைஞர்	-3506
▁போதும்	-3507
▁பெட்ரோல்	-3508
▁வழங்கப்பட்டது	-3509
▁கோரி	-3510
▁பொதுவாக	-3511
▁வலியுறுத்த	-3512
நல	-3513
பின்	-3514
▁தர்ம	-3515
▁பிரச	-3516
▁ஆரோக்கிய	-3517
▁என்னுடைய	-3518
▁தீப	-3519
▁கொடிய	-3520
க்கெடு	-3521
நாயக்க	-3522
▁தப்பி	-3523
▁பிடித்த	-3524
▁சென்றனர்	-3525
ஞ்	-3526
சிக்க	-3527
▁இதன்ப	-3528
▁உயிர்	-3529
▁வெப்ப	-3530
▁அவற்றை	-3531
▁விக்கெட்டு	-3532
க்குமார்	-3533
▁டிசம்பர்	-3534
▁என்றாலும்	-3535
▁வீட்டிற்கு	-3536
▁இளம்	-3537
▁சிறி	-3538
ீன	-3539
▁வல்ல	-3540
▁வீதி	-3541
குமார்	-3542
▁தரும்	-3543
▁வடக்கு	-3544
▁அதிருப்த	-3545
▁இடையிலான	-3546
ணன்	-3547
▁உல	-3548
▁198	-3549
ங்கில்	-3550
▁காந்த	-3551
விட்டனர்	-3552
▁R	-3553
▁அலை	-3554
டித்த	-3555
▁கொடி	-3556
▁நிரூ	-3557
ண்டில்	-3558
▁மோசடி	-3559
▁அடிப்படை	-3560
▁அனைவருக்கும்	-3561
ப்பார்	-3562
▁சிந்த	-3563
▁வீரர்	-3564
▁இறந்து	-3565
▁முக்கியத்துவம்	-3566
ன்த	-3567
மற்ற	-3568
▁குறைவாக	-3569
▁விடுத்த	-3570
▁திட்டமிட்டு	-3571
ண்மை	-3572
ெனில்	-3573
▁வழக்கை	-3574
▁அபிஷேகம்	-3575
▁அதிமுகவில்	-3576
.0	-3577
தோடு	-3578
ம்ப்	-3579
மூலம்	-3580
▁அதிப	-3581
▁ஊழல்	-3582
ப்படாத	-3583
▁வருவது	-3584
▁முடிவுக்கு	-3585
▁கூறுகின்றனர்	-3586
ச்சூ	-3587
ங்குவ	-3588
▁நின்ற	-3589
▁வயதான	-3590
ிற்கும்	-3591
ப்பட்டனர்	-3592
▁முடியாமல்	-3593
கர	-3594
▁நம்பு	-3595
▁மைதான	-3596
▁ஒன்றிய	-3597
▁அவரிடம்	-3598
▁எண்ணிக்க	-3599
▁ஓடி	-3600
ந்தைய	-3601
▁ஒப்படை	-3602
▁நன்றாக	-3603
▁பெறும்	-3604
▁ரயில்வே	-3605
▁தகவல்களை	-3606
▁தவிர்க்க	-3607
▁வைக்கப்பட்ட	-3608
ாடி	-3609
ியோ	-3610
யின்	-3611
▁கடவு	-3612
▁கடித	-3613
▁விசே	-3614
▁பெயரை	-3615
▁பாஜகவின்	-3616
▁வார்த்தை	-3617
▁பொறுத்தவரை	-3618
▁கட்டுப்பாடு	-3619
ிலி	-3620
▁சிபி	-3621
▁நடிகை	-3622
▁முற்ற	-3623
▁ஜனாதிப	-3624
ன்னா	-3625
▁சஞ்ச	-3626
மக	-3627
▁லீ	-3628
▁கொட	-3629
▁போலவே	-3630
▁முதன்	-3631
▁காட்டி	-3632
▁ஆச்ச	-3633
▁அர்	-3634
▁ஏற்படுத்திய	-3635
▁மருத்துவமனைக்கு	-3636
▁காலி	-3637
ையொட்டி	-3638
▁உரிமைய	-3639
▁பாலாஜி	-3640
▁திறந்து	-3641
▁சென்றார்	-3642
▁அதிர்ச்சி	-3643
▁மூன்றாவது	-3644
▁ஏற்படுத்தியது	-3645
மழை	-3646
தியம்	-3647
as	-3648
▁அரை	-3649
டனும்	-3650
லான	-3651
▁நடிக	-3652
க்குத்	-3653
▁பிரதான	-3654
▁நாட்களாக	-3655
▁அமைச்சரவை	-3656
▁ட்விட்டர்	-3657
▁நடவடிக்கைகளை	-3658
மன	-3659
▁‛	-3660
போல	-3661
▁வளர்	-3662
▁அடித்த	-3663
▁புதிதாக	-3664
▁செய்யப்படும்	-3665
▁?	-3666
▁ஆடு	-3667
▁ஆத்	-3668
நேரம்	-3669
▁நகரில்	-3670
▁வழங்கு	-3671
▁நட்	-3672
▁நெடு	-3673
னையும்	-3674
▁பகவான்	-3675
▁கிடைத்தது	-3676
▁கோப	-3677
▁இருந்தனர்	-3678
▁மாதத்தில்	-3679
க்ட	-3680
▁நன்மை	-3681
▁மையம்	-3682
▁கட்டண	-3683
▁சாதனை	-3684
▁தூக்கி	-3685
▁கோரிக்க	-3686
▁பள்ளியில்	-3687
க்கர	-3688
வேல்	-3689
▁கொஞ்சம்	-3690
▁பயணிகள்	-3691
▁பூஜைகள்	-3692
▁பெற்றது	-3693
▁பொருத்த	-3694
▁ஆட்சிக்கு	-3695
ட்டல்	-3696
▁வருமானம்	-3697
ாளர்களிடம்	-3698
▁திட்டங்கள்	-3699
பொ	-3700
▁கடந்து	-3701
▁பதிலாக	-3702
▁மீட்பு	-3703
வுட்	-3704
▁மாள	-3705
▁கடின	-3706
▁தொடர	-3707
▁யானை	-3708
▁எக்ஸ்	-3709
▁சர்ச்ச	-3710
▁ரன்களை	-3711
▁ராஜஸ்தான்	-3712
▁மாணவர்களுக்கு	-3713
▁தெய்	-3714
ல்களில்	-3715
▁கொண்டே	-3716
▁எடுத்துக்	-3717
▁இலங்கையின்	-3718
▁கொடுக்கும்	-3719
ங்கோ	-3720
▁காதல்	-3721
▁நன்றி	-3722
▁பதிவாக	-3723
வரது	-3724
ிறகு	-3725
▁முட	-3726
▁ஆசிய	-3727
▁தீர்த்த	-3728
க்களுக்கு	-3729
ப்பார்கள்	-3730
ப்பிரமணிய	-3731
▁பத்திரிகைய	-3732
▁கதா	-3733
▁நிவார	-3734
▁கேப்டன்	-3735
▁வர்த்தக	-3736
..!	-3737
▁யாக	-3738
செய்த	-3739
மொத்த	-3740
ன்கொடு	-3741
▁முன்னே	-3742
▁அழைப்பு	-3743
▁முன்னர்	-3744
▁உயர	-3745
▁விதமாக	-3746
▁வாக்குகள்	-3747
த்ரா	-3748
▁அறை	-3749
த்தோடு	-3750
ப்பதில்	-3751
வான்	-3752
▁ராஜின	-3753
▁ஆஜ	-3754
▁இரா	-3755
▁தெரு	-3756
ங்களால்	-3757
▁வரலாற்று	-3758
▁தெரியவந்தது	-3759
ைக்	-3760
ணும்	-3761
வதும்	-3762
▁கவனி	-3763
▁எல்லோ	-3764
க்கிறது	-3765
ியுள்ளன	-3766
▁தனியாக	-3767
ஸ்டாலின்	-3768
ிருக்கிறோம்	-3769
▁செப்டம்பர்	-3770
he	-3771
சுவ	-3772
▁31	-3773
▁காலக	-3774
▁சீரிய	-3775
ுள்ளார்	-3776
▁மிகுந்த	-3777
▁திரும்பி	-3778
▁ஒதுக்கீடு	-3779
ாசி	-3780
முரு	-3781
ழுது	-3782
ாலின	-3783
▁காணி	-3784
▁புகழ்	-3785
▁புனித	-3786
▁வன்கொடு	-3787
▁என்கிறார்கள்	-3788
▁வலைதளங்களில்	-3789
▁அன்பு	-3790
▁ஆன்லைன்	-3791
▁சம்பந்தப்பட்ட	-3792
ரிட	-3793
▁29	-3794
▁சவு	-3795
▁ஏவுக	-3796
▁வீசிய	-3797
▁அதிகாலை	-3798
▁துவங்கியது	-3799
▁எட்ட	-3800
▁குதி	-3801
▁நிலையம்	-3802
il	-3803
ாட்	-3804
▁தக	-3805
▁கழு	-3806
▁அச்சு	-3807
ப்பிரிக்க	-3808
▁ஊழியர்கள்	-3809
ாராம்	-3810
க்குமா	-3811
த்தட்ட	-3812
ப்படுவது	-3813
▁இதுதான்	-3814
▁விசாரணைக்கு	-3815
▁முர	-3816
த்துல	-3817
ன்களை	-3818
▁அணிய	-3819
▁கிறி	-3820
ரையும்	-3821
▁பங்களி	-3822
ப்பான்	-3823
்களையும்	-3824
புர	-3825
ளிய	-3826
்சி	-3827
▁அஸ்	-3828
▁பசு	-3829
▁மேலாக	-3830
▁சதவீதம்	-3831
▁வளர்ச்ச	-3832
▁சேலம்	-3833
▁நல்லது	-3834
▁மகளிர்	-3835
ஸா	-3836
▁V	-3837
▁s	-3838
க்டர்	-3839
▁அவசர	-3840
▁மாறு	-3841
▁காலமாக	-3842
▁இறை	-3843
புறம்	-3844
முள்ள	-3845
▁ராஜப	-3846
தற்கான	-3847
▁அண்ணா	-3848
▁இருந்தன	-3849
▁மீட்டர்	-3850
▁ராஜினாமா	-3851
▁ஒட்டுமொத்த	-3852
பன்னீர்செல்வம்	-3853
▁என்றே	-3854
▁பிற்ப	-3855
▁விசாரிக்க	-3856
▁வழக்கறிஞர்	-3857
▁பாலி	-3858
▁அப்படியே	-3859
▁இந்தியாவுக்கு	-3860
வூ	-3861
▁ரஜ	-3862
▁ஆக்கிர	-3863
▁சாப்பிட	-3864
▁ஆசிரியர்	-3865
▁படத்தின்	-3866
▁எச்சரிக்கை	-3867
ர்களிடம்	-3868
▁செயல்பட	-3869
▁தடுப்பு	-3870
▁பங்கேற்க	-3871
ஜன்	-3872
த்தொட	-3873
▁மாணவர்	-3874
▁எனினும்	-3875
▁விருப்ப	-3876
▁கண்	-3877
▁கீழே	-3878
▁சினிமா	-3879
▁சும	-3880
▁முழ	-3881
ம்பரிய	-3882
▁ஆசிரிய	-3883
▁நடித்த	-3884
ிருக்கிற	-3885
▁தனிப்பட்ட	-3886
▁குடியரசுத்	-3887
▁ஆயு	-3888
▁சர்மா	-3889
▁சற்று	-3890
▁ஸ்தான	-3891
▁ஆக்கிரமி	-3892
▁லக்	-3893
▁காரை	-3894
த்திரம்	-3895
▁தாண்டி	-3896
▁நூற்றா	-3897
லன்	-3898
தாம்	-3899
▁நவீன	-3900
▁சுற்ற	-3901
▁பண்ணி	-3902
▁மண்டல	-3903
▁கொழும்பு	-3904
▁காவல்துறையினர்	-3905
▁கேம	-3906
▁கொல்க	-3907
க்கிழமை	-3908
ஞ்ஞ	-3909
பான	-3910
▁வானிலை	-3911
▁தெரிந்த	-3912
▁விமர்சனம்	-3913
▁எதிர்கொள்ள	-3914
▁உண்ட	-3915
த்துப்	-3916
▁வட்டார	-3917
த்திற்கான	-3918
▁முடிந்தது	-3919
▁மாதங்களுக்கு	-3920
re	-3921
▁ஜென	-3922
▁என்பதே	-3923
▁கூறுகிறது	-3924
▁வன்கொடுமை	-3925
▁கிட்டத்தட்ட	-3926
ணியை	-3927
▁வசூ	-3928
▁ஆப்க	-3929
களிடம்	-3930
▁கல்யா	-3931
▁ஒழுங்கு	-3932
▁தெளிவாக	-3933
▁பழனிச்ச	-3934
▁தீர்மானம்	-3935
▁விசாரித்த	-3936
▁தல	-3937
ீங்க	-3938
விரோத	-3939
▁2018	-3940
▁அறநிலைய	-3941
▁நவம்பர்	-3942
▁இளைஞர்கள்	-3943
▁செய்துள்ளார்	-3944
ாவ்	-3945
▁சமா	-3946
▁தவி	-3947
▁கேது	-3948
▁பரிசு	-3949
▁ஆட்சிய	-3950
▁சாப்பி	-3951
▁கட்டணம்	-3952
▁தங்களுக்கு	-3953
யல்	-3954
▁ஓவர	-3955
ரியான	-3956
▁அழைக்க	-3957
▁பணிகளை	-3958
▁பாரம்பரிய	-3959
▁பார்க்கலாம்	-3960
்த்	-3961
டிவி	-3962
தொடர்	-3963
ர்களாக	-3964
▁எத்தனை	-3965
▁அங்குள்ள	-3966
▁முதல்வராக	-3967
வகு	-3968
▁நொ	-3969
ட்டோ	-3970
▁பிரே	-3971
▁திடீர்	-3972
▁திண்டு	-3973
▁கைப்பற்ற	-3974
▁துறையில்	-3975
தர	-3976
▁டொ	-3977
ராஜா	-3978
▁மயில	-3979
▁நிச்சயம்	-3980
ட்டார்	-3981
வொரு	-3982
காரம்	-3983
▁அஞ்ச	-3984
▁இதற்கான	-3985
▁பொங்கல்	-3986
▁வாய்ப்புகள்	-3987
▁சௌ	-3988
▁ஆண்	-3989
பிக்க	-3990
ரியும்	-3991
▁உதயநிதி	-3992
▁மருத்துவர்கள்	-3993
▁குடும்பத்தினர்	-3994
▁சாலையில்	-3995
ப்பட்டுள்ளதாக	-3996
▁கற்ப	-3997
▁பாஸ்	-3998
▁பேரும்	-3999
வன	-4000
▁இடி	-4001
▁அகில	-4002
▁சமீப	-4003
▁சிவசே	-4004
▁பிரிய	-4005
▁ஏதாவது	-4006
▁வாய்ந்த	-4007
▁நிறுத்தி	-4008
▁வெளிநாடு	-4009
▁வைத்தார்	-4010
▁பந்துவீச்ச	-4011
▁தொக	-4012
▁கட்டாய	-4013
ங்களுடன்	-4014
ிக்கொண்ட	-4015
ad	-4016
▁ஸ	-4017
சாம	-4018
▁ரு	-4019
ரும்பு	-4020
▁உள்பட	-4021
▁எம்பி	-4022
▁அறிவிக்க	-4023
▁வாக்குறு	-4024
ந்தனர்	-4025
▁நான்க	-4026
▁ரகசிய	-4027
▁விஞ்ஞ	-4028
▁இலக்கு	-4029
▁பொதுச்	-4030
▁தொடரில்	-4031
▁செய்துள்ளனர்	-4032
▁நாணய	-4033
ாளையம்	-4034
▁குரல்	-4035
▁நாட்ட	-4036
▁உர	-4037
மின்	-4038
▁கடற்க	-4039
▁உயர்வு	-4040
▁வரலாறு	-4041
▁செயற்கை	-4042
▁முன்னில	-4043
கட	-4044
▁வணிக	-4045
▁கருது	-4046
▁டெஸ்ட்	-4047
▁அதற்காக	-4048
ப்போகிறது	-4049
▁பெற்றோர்	-4050
▁நாடுகளின்	-4051
▁கள்ளக்குறி	-4052
▁தவறான	-4053
.6	-4054
▁சேத	-4055
▁கோப்பை	-4056
▁சொந்தமான	-4057
▁முடிந்து	-4058
▁தொடர்புடைய	-4059
▁ஆஃப்	-4060
▁கலவர	-4061
▁விகி	-4062
▁பெரும	-4063
மடைந்து	-4064
▁கண்டறி	-4065
-1	-4066
ச்சா	-4067
▁உணர்வு	-4068
▁இதற்கிடையே	-4069
லுடன்	-4070
▁தொடக்க	-4071
▁உதார	-4072
▁நம்ம	-4073
தியும்	-4074
▁சாட்ட	-4075
▁தங்கம்	-4076
ப்பிரதேச	-4077
▁பிபிசிய	-4078
▁திருக்கோ	-4079
ிடமிருந்து	-4080
▁செய்துள்ளது	-4081
▁பேசின	-4082
▁சதவிகித	-4083
▁இருக்காது	-4084
▁நடைபெறுகிறது	-4085
மிழ	-4086
▁சாமி	-4087
ப்படுவதாக	-4088
▁செலுத்தி	-4089
▁எழுத	-4090
▁வசிக்கும்	-4091
▁வருகிறோம்	-4092
▁தேச	-4093
▁தகுதி	-4094
▁வயதில்	-4095
▁குறைக்க	-4096
▁நீதிபதிகள்	-4097
ேப	-4098
ந்தோ	-4099
லங்க	-4100
▁வேளா	-4101
டியின்	-4102
▁உலகக்	-4103
▁ஃப்	-4104
ளையில்	-4105
▁அறுவை	-4106
▁அதிரடி	-4107
களுக்காக	-4108
▁அதிகபட்ச	-4109
▁அமைப்பின்	-4110
டியா	-4111
ரோடு	-4112
▁செயலக	-4113
▁தெற்கு	-4114
▁நிறைவு	-4115
▁ஆராய்ச்சி	-4116
▁சம்பவங்கள்	-4117
▁ஆதரவாளர்கள்	-4118
▁போட்டியிட்ட	-4119
▁E	-4120
வாற	-4121
டியூ	-4122
▁சுழ	-4123
▁பெய்ய	-4124
▁முகாம	-4125
▁வெல்ல	-4126
ங்களைச்	-4127
▁எரிபொரு	-4128
▁முருகன்	-4129
▁நகர்ப்புற	-4130
கேஷ்	-4131
வாளி	-4132
▁நாம	-4133
ையைத்	-4134
▁ஆற்ற	-4135
▁பரவி	-4136
▁இருப்பதை	-4137
▁கவுன்சில	-4138
▁குடும்பத்தின	-4139
கல்	-4140
ாலே	-4141
▁இவ	-4142
▁197	-4143
▁பயன	-4144
ணர்வு	-4145
▁உடலை	-4146
▁கோலி	-4147
▁பந்த	-4148
▁பேரை	-4149
ப்போது	-4150
▁தயார்	-4151
▁பத்து	-4152
▁தங்களின்	-4153
▁மேம்படுத்த	-4154
ரெ	-4155
▁ஜெய்	-4156
▁சாதாரண	-4157
▁பார்வை	-4158
▁முன்னோ	-4159
▁கூட்டணியில்	-4160
▁இராஜ	-4161
▁பருவ	-4162
▁ஹிஜா	-4163
வர்த்த	-4164
▁முருக	-4165
▁போன்று	-4166
▁வேலைவாய்	-4167
▁அமைச்சராக	-4168
▁இருந்தும்	-4169
யு	-4170
ம்மு	-4171
விலான	-4172
▁ராஜா	-4173
▁ஏவுகணை	-4174
▁இடையில்	-4175
ed	-4176
▁திணை	-4177
▁இறக்கு	-4178
▁உயர்ந்து	-4179
▁உருவாக்கு	-4180
பன்	-4181
மீது	-4182
▁ஆகி	-4183
▁கவு	-4184
▁முது	-4185
▁சிக்கி	-4186
▁பொறுப்ப	-4187
▁விண்வெளி	-4188
▁தூத்துக்கு	-4189
ou	-4190
and	-4191
ல்ஸ்	-4192
▁மசூ	-4193
▁உதவிய	-4194
ப்புகளை	-4195
▁விவாதி	-4196
▁வெற்றியை	-4197
▁ஆயிரக்கணக்கான	-4198
ான்ஸ்	-4199
்டில்	-4200
▁கற்று	-4201
▁திரைய	-4202
▁அறிவுறுத்த	-4203
▁இருப்பதாகவும்	-4204
மீர்	-4205
ஸ்க்	-4206
▁மட்ட	-4207
▁முத்து	-4208
▁நினைத்த	-4209
றித	-4210
ச்செ	-4211
ரியை	-4212
க்கொள்	-4213
ப்பால்	-4214
ங்களைத்	-4215
த்திடம்	-4216
பவர்கள்	-4217
▁முடிவெ	-4218
ட்சியின்	-4219
▁பெரும்பான்	-4220
▁பெரும்பாலும்	-4221
நாதன்	-4222
▁மஞ்ச	-4223
▁ரொம்ப	-4224
▁செல்வா	-4225
▁பராமரி	-4226
▁உள்துறை	-4227
▁பிரதேசத்தில்	-4228
▁கட்டுப்படுத்த	-4229
மாகி	-4230
ர்க்	-4231
ழிவு	-4232
▁சிவா	-4233
▁சூர்	-4234
▁போன்	-4235
▁கட்டட	-4236
▁பாஜகவுக்கு	-4237
▁திண்டுக்கல்	-4238
▁அமைந்த	-4239
▁உற்சாக	-4240
▁பொருள்	-4241
▁முந்தைய	-4242
▁இடைக்கால	-4243
▁விழிப்பு	-4244
▁ஆகியவற்றை	-4245
வினை	-4246
▁ரன்	-4247
▁இந்ந	-4248
ப்பிடி	-4249
▁அணிந்து	-4250
▁வசித்து	-4251
▁சட்டவிரோத	-4252
▁ஆப்	-4253
மாகப்	-4254
வைத்து	-4255
ர்களால்	-4256
▁அணியில்	-4257
▁திணைக்கள	-4258
▁திருப்பி	-4259
▁ராசிக்கார	-4260
▁பேசுகையில்	-4261
▁வெளிப்படுத்த	-4262
சக	-4263
▁ஜாம	-4264
▁மொழ	-4265
▁கொண்டது	-4266
▁ஏற்பாடுகளை	-4267
▁ஜனதா	-4268
றுப்பு	-4269
▁சுரங்க	-4270
▁உறுதியாக	-4271
▁வெளியில்	-4272
▁புதுச்சேரி	-4273
வக	-4274
▁வண	-4275
▁ஷே	-4276
த்தள	-4277
▁கம்	-4278
மிக்க	-4279
▁துணி	-4280
ப்பிரி	-4281
▁மீட்ட	-4282
க்கியது	-4283
▁கூறியது	-4284
▁இதுதொடர்	-4285
▁புறக்கணி	-4286
▁ராசிக்கு	-4287
மய	-4288
வதன்	-4289
▁கிரி	-4290
▁அக்னி	-4291
▁அமைதி	-4292
▁ஆத்மி	-4293
ட்சியில்	-4294
▁சார்பாக	-4295
▁அதிகாரம்	-4296
▁சொன்னார்	-4297
ங்களுக்கும்	-4298
▁ஏற்படுத்து	-4299
பான்	-4300
▁மனோ	-4301
▁மால	-4302
▁வீச	-4303
▁பூர்	-4304
▁அதுவும்	-4305
▁வைத்திய	-4306
,5	-4307
ct	-4308
▁ஜீ	-4309
▁வேற	-4310
▁பகிர	-4311
▁ராஜ்	-4312
▁இரட்டை	-4313
▁உறுதிய	-4314
▁தற்கால	-4315
▁தேர்தலை	-4316
▁அழுத்தம்	-4317
ப்பட்டிருக்கிறது	-4318
▁கவி	-4319
னுடன்	-4320
▁துரு	-4321
ஸுக்கு	-4322
▁புற்று	-4323
ப்பட்டதாக	-4324
▁கட்சிக்கு	-4325
▁வர்	-4326
▁முன்பே	-4327
ர்களுடன்	-4328
விட்டதாக	-4329
▁பிராந்திய	-4330
பிடி	-4331
▁ஞான	-4332
ச்சல்	-4333
ெடுக்க	-4334
▁அழுத்த	-4335
▁அறிந்து	-4336
▁வழியில்	-4337
▁விமானம்	-4338
▁முஸ்லிம்	-4339
▁வார்டு	-4340
▁ராணுவம்	-4341
▁ஒப்புதல்	-4342
▁கட்டுமான	-4343
▁விபத்தில்	-4344
▁70	-4345
லியா	-4346
▁காப்ப	-4347
▁அந்தத்	-4348
▁இயற்கை	-4349
▁அமெரிக்காவின்	-4350
தூ	-4351
வழி	-4352
கொலை	-4353
திரு	-4354
▁உள்ளட	-4355
ளித்தார்	-4356
▁துறைமுக	-4357
▁கோவிலுக்கு	-4358
▁வளாகத்தில்	-4359
▁கும்பாபிஷேகம்	-4360
▁எதிர்க்கட்சிகள்	-4361
ol	-4362
நான்	-4363
ார்ட்	-4364
▁டிக்க	-4365
▁நீங்க	-4366
▁பிரசா	-4367
▁வருகிற	-4368
▁ஈடுபட்டனர்	-4369
▁2017	-4370
▁சமாஜ்	-4371
▁வீட்டை	-4372
▁அலுவலகம்	-4373
▁தேவையில்	-4374
▁முன்னிலையில்	-4375
▁வெளியிட்டுள்ள	-4376
மட்டு	-4377
▁மணிய	-4378
▁சிறும	-4379
▁விசேட	-4380
ிருப்பு	-4381
▁சூப்பர்	-4382
▁படித்து	-4383
▁அறிவியல்	-4384
▁G	-4385
▁L	-4386
ழல்	-4387
▁மழ	-4388
▁எட்டு	-4389
▁உண்மையில்	-4390
▁வந்துள்ளது	-4391
▁வலியுறுத்தி	-4392
ing	-4393
▁எல்	-4394
▁டிஜ	-4395
ாட்டி	-4396
லையும்	-4397
▁இந்தி	-4398
▁நியாய	-4399
▁பேரில்	-4400
▁முடிவை	-4401
▁வெள்ளி	-4402
▁செலுத்து	-4403
▁இங்கிலாந்து	-4404
▁அமைந்துள்ளது	-4405
ஸி	-4406
களு	-4407
பக்ச	-4408
ம்மா	-4409
▁பிக்	-4410
▁இணையதள	-4411
▁கையெழு	-4412
▁கொடியேற்ற	-4413
▁35	-4414
ஸ்பெ	-4415
▁கவர்	-4416
▁புலி	-4417
▁சாம்ப	-4418
▁தீபார	-4419
▁தென்க	-4420
மாகவும்	-4421
▁அறிந்த	-4422
▁களத்தில்	-4423
▁கொண்டுவர	-4424
ர்களுக்கும்	-4425
▁அதிர்ச்சியை	-4426
▁75	-4427
ஸ்கர்	-4428
▁மர்ம	-4429
▁வாங்கிய	-4430
▁சந்திப்பு	-4431
.8	-4432
ொன்ற	-4433
▁அண்	-4434
▁ஆசை	-4435
▁கனி	-4436
▁ராய	-4437
▁குளி	-4438
வையும்	-4439
▁வகையான	-4440
▁இவ்வளவு	-4441
▁நபர்கள்	-4442
▁வெளியேறி	-4443
▁குற்றவாளி	-4444
▁நேரங்களில்	-4445
நாள	-4446
▁மூட	-4447
▁முகா	-4448
க்குறை	-4449
▁அனுபவ	-4450
▁பொறிய	-4451
▁மேயர்	-4452
க்கொள்க	-4453
▁ராஜபக்ச	-4454
om	-4455
தலாக	-4456
னிவா	-4457
நாதர்	-4458
டையில்	-4459
▁செய்யலாம்	-4460
ூரு	-4461
ேட்	-4462
▁தீய	-4463
▁ஸ்த	-4464
▁2014	-4465
ட்சுமி	-4466
▁மரணம்	-4467
இது	-4468
ரத்	-4469
▁பட்டா	-4470
▁ஆப்கானி	-4471
▁வெளிப்பட	-4472
▁ஒப்பந்தம்	-4473
▁பில்லியன்	-4474
ாகப்	-4475
வுள்ளது	-4476
▁தமிழர்	-4477
யான	-4478
வடை	-4479
ாலய	-4480
▁சட	-4481
▁பின	-4482
▁விய	-4483
ிட்டல்	-4484
▁இழந்து	-4485
▁மரியாதை	-4486
▁குறைந்து	-4487
▁பகுதியாக	-4488
▁அதிகரித்துள்ளது	-4489
த்தர	-4490
▁பொதுக்குழுவ	-4491
▁சிரம	-4492
▁ஜான்	-4493
▁ராமர்	-4494
▁காஞ்சி	-4495
▁வென்று	-4496
▁வந்தால்	-4497
▁எனப்படும்	-4498
▁காலங்களில்	-4499
▁உத்தரப்பிரதேச	-4500
).	-4501
ேஷ	-4502
▁துரை	-4503
▁விக்	-4504
▁தோன்ற	-4505
▁நானும்	-4506
வதற்கும்	-4507
▁ஏற்றுமதி	-4508
▁தெரியாது	-4509
▁தொடர்ந்த	-4510
▁c	-4511
வாதம்	-4512
▁மீறி	-4513
▁சந்தோ	-4514
▁தண்ணீ	-4515
▁அபிஷேக	-4516
▁அடைந்து	-4517
▁இலங்கைக்கு	-4518
.7	-4519
▁லே	-4520
ென்ன	-4521
▁அட்ட	-4522
▁சிரி	-4523
▁விலங்கு	-4524
▁வெற்றிக	-4525
▁சட்டப்பே	-4526
▁நகராட்சி	-4527
▁விக்கெட்	-4528
▁கள்ளக்குறிச்சி	-4529
▁குழந்தைகளுக்கு	-4530
▁அன	-4531
பாபு	-4532
ராம்	-4533
▁கமல்	-4534
▁மிகப்	-4535
▁அமைத்து	-4536
▁இறுதியில்	-4537
▁பட்டியலில்	-4538
கரன்	-4539
த்திரி	-4540
▁நேற்ற	-4541
▁தலைநகர்	-4542
▁முன்னணி	-4543
▁பரபரப்பு	-4544
▁அமைந்துள்ள	-4545
▁ஏழை	-4546
ையைச்	-4547
▁தேனி	-4548
▁வீசி	-4549
▁ஒற்று	-4550
வருகிறது	-4551
▁இச	-4552
காஷ்	-4553
▁சார	-4554
.....	-4555
▁நேரு	-4556
▁ஆணையர்	-4557
▁பெருமை	-4558
த்தினால்	-4559
▁கண்டனம்	-4560
▁சான்றித	-4561
▁முஸ்லிம	-4562
▁விடுமுறை	-4563
▁வேலைத்திட்ட	-4564
ிழ	-4565
ாதி	-4566
.202	-4567
▁உலகள	-4568
▁ஓவரில்	-4569
▁பிள்ளை	-4570
ent	-4571
மென	-4572
ாவள	-4573
▁மண்	-4574
▁நிராக	-4575
முருகன்	-4576
▁உள்நாட்டு	-4577
ay	-4578
▁லோ	-4579
வாரி	-4580
▁500	-4581
▁செய்யப்பட்டார்	-4582
ட்ச்	-4583
மாகவே	-4584
▁அமைய	-4585
▁ஜம்மு	-4586
▁நிலம்	-4587
▁யாதவ்	-4588
ாயிற்று	-4589
▁செய்தால்	-4590
▁தற்காலிக	-4591
ணியின்	-4592
முறையை	-4593
▁கர்நாட	-4594
▁அமர்ந்த	-4595
▁வேண்டுமெ	-4596
▁கோயிலுக்கு	-4597
▁பழனிச்சாமி	-4598
▁மட்டுமின்றி	-4599
▁எடுக்கப்படும்	-4600
பாச	-4601
ல்வி	-4602
▁ஆடை	-4603
▁ஒடி	-4604
▁பங்க	-4605
▁தள்ளி	-4606
முறையாக	-4607
▁காலநிலை	-4608
▁செயல்படு	-4609
▁இதனையடுத்து	-4610
▁செய்தியாளர்களை	-4611
▁உப	-4612
ம்தா	-4613
▁யோகி	-4614
▁நாராய	-4615
ிருக்கு	-4616
▁பேசும்	-4617
▁அமர்ந்து	-4618
▁அச்சுறுத்த	-4619
▁கேள்விக்கு	-4620
▁தொண்டர்கள்	-4621
▁கலந்துரையாட	-4622
▁p	-4623
▁ஆழ	-4624
▁பூம	-4625
ுரிமை	-4626
▁ஒருமுறை	-4627
▁பெற்றார்	-4628
▁பங்கேற்று	-4629
▁உத்தரவிட்டு	-4630
▁அறிவித்துள்ளது	-4631
▁காம	-4632
வுள்ள	-4633
ட்டியில்	-4634
▁கட்சித்	-4635
▁ஆண்டுக்கு	-4636
▁இணையத்தில்	-4637
▁திட்டங்களை	-4638
ஆவது	-4639
▁ப்ள	-4640
ங்களே	-4641
னிடம்	-4642
▁பலன்	-4643
▁ஊக்கு	-4644
▁வைக்கும்	-4645
▁செய்திகள்	-4646
கிய	-4647
▁80	-4648
வர்த	-4649
ீட்ட	-4650
▁உடலில்	-4651
▁ஆட்சியர்	-4652
▁எந்தவொரு	-4653
▁எதிர்பார்த்த	-4654
▁உளவு	-4655
▁சாய்	-4656
▁பாதை	-4657
▁படத்தை	-4658
ிக்கொள்ள	-4659
▁எவ்வாறு	-4660
த்திற்குப்	-4661
ிருக்கிறேன்	-4662
▁கூறப்பட்டுள்ளது	-4663
""	-4664
ண்முக	-4665
▁மெட்	-4666
▁வண்ண	-4667
▁வழிக	-4668
த்தீவு	-4669
▁மன்னி	-4670
▁கூறும்	-4671
▁நினைத்து	-4672
▁என்பதுதான்	-4673
பந்த	-4674
▁மன்ற	-4675
▁முனை	-4676
▁அமல்ப	-4677
▁ஒருநாள்	-4678
▁வாடிக்க	-4679
▁தமிழிடம்	-4680
▁பாராட்டு	-4681
▁லோக	-4682
ாவால்	-4683
▁சண்ட	-4684
▁அகற்ற	-4685
▁கம்யூ	-4686
க்குமாறு	-4687
ளிக்கும்	-4688
▁படங்கள்	-4689
▁கொண்டிருக்கிறது	-4690
▁எண்	-4691
▁மலைய	-4692
லாந்து	-4693
ளியில்	-4694
▁இறங்கி	-4695
▁எச்சரி	-4696
▁இயக்குந	-4697
▁திருப்பதி	-4698
▁பிரிட்டன்	-4699
▁இடத்திற்கு	-4700
▁எழுந்துள்ளது	-4701
-2	-4702
ன்கு	-4703
▁ஐபி	-4704
▁கஷ்ட	-4705
▁வலம்	-4706
▁வெகு	-4707
▁திறன்	-4708
▁கப்பல்	-4709
▁டிஜிட்டல்	-4710
▁மாநாட்டில்	-4711
ாதா	-4712
டிகள்	-4713
ேஸ்வர	-4714
வருமான	-4715
ாததால்	-4716
▁பாட்ட	-4717
▁இந்தியாவை	-4718
▁கிடைக்கவில்லை	-4719
le	-4720
▁சோழ	-4721
ானின்	-4722
டையும்	-4723
▁அணியை	-4724
▁கோட்ட	-4725
▁இடத்தை	-4726
▁ஹிஜாப்	-4727
▁காய்ச்ச	-4728
▁என்னிடம்	-4729
▁புற்றுநோ	-4730
▁குடும்பம்	-4731
▁F	-4732
க்ஷ	-4733
த்ர	-4734
ரவி	-4735
▁இளைய	-4736
▁இழந்த	-4737
▁அவர்களது	-4738
க்கப்பட்டன	-4739
▁கண்டுபிடி	-4740
▁மகிழ்ச்சி	-4741
▁வாகனத்தில்	-4742
▁சேர்ந்தவர்கள்	-4743
த்ரி	-4744
ாகவும்	-4745
▁சிறிது	-4746
▁பதிலடி	-4747
▁பவுண்ட	-4748
▁உயர்ந்த	-4749
▁ஏனெனில்	-4750
▁உண்மையான	-4751
▁சபாநாயகர்	-4752
▁அதனால்தான்	-4753
▁தேர்தலுக்கு	-4754
▁தூத்துக்குடி	-4755
▁வாழ்க்கையில்	-4756
▁கூறியிருந்தார்	-4757
▁பொதுச்செயலாளர்	-4758
▁வெளியாகியுள்ளது	-4759
,1	-4760
▁நர	-4761
▁ஹா	-4762
ிறுவ	-4763
▁சமர்	-4764
▁விடுவி	-4765
▁சிக்கல்	-4766
▁விட்டது	-4767
▁தொழிலாளர்கள்	-4768
கமான	-4769
▁ஊடாக	-4770
▁ஓட்ட	-4771
▁குமார	-4772
க்கோட்டை	-4773
▁விளக்கு	-4774
▁அமைச்சகம்	-4775
▁கருணாநிதி	-4776
▁நிகழ்வில்	-4777
▁நடத்தப்பட்ட	-4778
▁பிபிசியிடம்	-4779
▁மகாராஷ்டிரா	-4780
னிதா	-4781
▁ஆர்வ	-4782
ாளிகள்	-4783
க்களில்	-4784
ரவையில்	-4785
▁குழப்ப	-4786
▁இறக்குமதி	-4787
▁காட்சிகள்	-4788
▁பழங்குடிய	-4789
▁ஏதோ	-4790
▁அவன்	-4791
▁ரோஹி	-4792
▁அளித்து	-4793
▁தரப்பின	-4794
த்திற்குள்	-4795
ப்பிற்கு	-4796
வர்களிடம்	-4797
▁முயற்சிய	-4798
▁பகுதியைச்	-4799
வள	-4800
▁90	-4801
ோவில்	-4802
▁ஒன்ப	-4803
▁அரிசி	-4804
▁நிறைந்த	-4805
▁என்பதில்	-4806
▁சீனாவின்	-4807
▁பட்டியல்	-4808
▁முடித்து	-4809
தரா	-4810
ேசன்	-4811
▁தலா	-4812
▁ராணி	-4813
▁நீக்க	-4814
▁குழுவின்	-4815
▁வழக்குகள்	-4816
▁மாதங்களில்	-4817
துறை	-4818
ழ்வு	-4819
▁ஆகவே	-4820
▁நேர்	-4821
மின்றி	-4822
ாளரும்	-4823
▁ஊர்வல	-4824
▁சந்தை	-4825
▁மசோதா	-4826
ட்டுகள்	-4827
வுகிறது	-4828
▁அத்திய	-4829
▁ஒருவரை	-4830
▁கலாசார	-4831
▁திருப்பூர்	-4832
▁திரைப்படம்	-4833
▁அடுத்தடுத்து	-4834
▁நடத்தப்பட்டது	-4835
தமி	-4836
▁சாம	-4837
ொன்று	-4838
க்கால்	-4839
▁கேரளா	-4840
ம்பிக்க	-4841
▁ஆர்ப்பா	-4842
▁வருவதாகவும்	-4843
▁அமெரிக்காவில்	-4844
▁லை	-4845
தைப்	-4846
▁சாவ	-4847
▁மஹி	-4848
▁செங்க	-4849
▁வல்லு	-4850
ிருந்தன	-4851
▁ஆட்டம்	-4852
▁கட்டிய	-4853
▁பாடசாலை	-4854
▁காஷ்மீர்	-4855
▁ராசியில்	-4856
▁மட	-4857
▁சேவ	-4858
▁ஒன்றி	-4859
▁சர்க்க	-4860
▁யாருக்கு	-4861
▁உறவினர்கள்	-4862
▁நாடுகளுக்கு	-4863
:30	-4864
்டி	-4865
்கர்	-4866
ண்டன்	-4867
தானம்	-4868
▁வாரி	-4869
செய்து	-4870
▁சண்டை	-4871
▁சேகரி	-4872
▁மோகன்	-4873
ாலையில்	-4874
மூர்த்தி	-4875
ிருஷ்ணன்	-4876
▁அதிலும்	-4877
▁சென்றது	-4878
▁இவருக்கு	-4879
▁பிரிவில்	-4880
▁கட்டமை	-4881
ப்பூரில்	-4882
▁கர்நாடகா	-4883
▁அண்மையில்	-4884
▁அமைச்சின்	-4885
▁திட்டத்தில்	-4886
சாரி	-4887
ையெல்லாம்	-4888
▁பயிற்சிய	-4889
▁வரவேற்பு	-4890
▁மின்சாரம்	-4891
▁போட்டியிடு	-4892
ஜு	-4893
ல்யா	-4894
▁சீர	-4895
றையின	-4896
▁ராம்	-4897
▁இவரது	-4898
▁முதிய	-4899
▁நெட்டி	-4900
▁போகும்	-4901
ினார்கள்	-4902
▁வாங்குவ	-4903
▁விழுந்த	-4904
▁குறிப்பிடு	-4905
ளு	-4906
பாய	-4907
ீல்	-4908
▁இதய	-4909
த்திற	-4910
▁பொன்	-4911
▁பதற்ற	-4912
▁மம்தா	-4913
▁பெண்ணை	-4914
▁ஆரம்பிக்க	-4915
▁வேண்டுமான	-4916
▁இதுதொடர்பாக	-4917
▁அறிமுகப்படுத்த	-4918
றது	-4919
▁அதிர்	-4920
▁முன்த	-4921
▁விற்க	-4922
▁ஆண்டின்	-4923
▁கவனிக்க	-4924
▁தாக்கரே	-4925
▁வியாபார	-4926
▁சட்டமன்றத்	-4927
பாஸ்	-4928
▁குல	-4929
▁தனு	-4930
▁இராணுவ	-4931
▁பயங்கர	-4932
▁வேலையை	-4933
▁கம்யூனி	-4934
▁அதன்பின்	-4935
▁இந்தியாவ	-4936
▁மாணவிகள்	-4937
▁வரிசையில்	-4938
▁திட்டமிட்ட	-4939
▁மகாராஷ்டிர	-4940
▁குற்றம்சாட்ட	-4941
▁வெளியிட்டுள்ளது	-4942
திர்	-4943
▁இக்கோ	-4944
▁பணியை	-4945
▁ஆர்வம்	-4946
▁ஏற்படு	-4947
▁படித்த	-4948
ப்பையும்	-4949
▁அளிக்கும்	-4950
▁தாக்குதலை	-4951
▁மணியளவில்	-4952
▁ஊர	-4953
ாகவே	-4954
▁அதானி	-4955
க்குரிய	-4956
▁ஆபத்து	-4957
▁கட்டிட	-4958
▁இராஜாங்க	-4959
▁ஞாயிற்று	-4960
▁திருவண்ண	-4961
▁அவ்வப்போது	-4962
▁பார்க்கும்	-4963
ரைச்	-4964
▁அம்ச	-4965
▁காணொ	-4966
▁பாரு	-4967
▁மீதும்	-4968
▁வாழும்	-4969
ங்குகிறது	-4970
▁பாதுகாக்க	-4971
▁பெண்களின்	-4972
▁ரஷ்யாவின்	-4973
ிருந்தாலும்	-4974
ரண	-4975
ண்க	-4976
கார்	-4977
▁ஏறி	-4978
▁நீலக	-4979
▁மண்ண	-4980
▁ராஜே	-4981
▁பெரிதாக	-4982
▁என்பதற்காக	-4983
குவ	-4984
▁அப்	-4985
▁பணியாற்றி	-4986
ீவ்	-4987
ர்ஜி	-4988
வாசி	-4989
ாயிர	-4990
▁ஏதே	-4991
ாளரான	-4992
▁ட்வீ	-4993
▁அதற்க	-4994
▁புத்த	-4995
ையையும்	-4996
▁பதவியில்	-4997
▁வைத்தனர்	-4998
ஸ்டி	-4999
க்குக்	-5000
நடுக்க	-5001
விந்த்	-5002
▁அப்து	-5003
▁பகுதிய	-5004
▁போராடி	-5005
▁முறைகே	-5006
▁வடிவமை	-5007
▁வெள்ளை	-5008
▁தொடரும்	-5009
▁பெண்களை	-5010
▁ஏனென்றால்	-5011
▁சுட்டிக்காட்ட	-5012
▁மன்	-5013
பட்டு	-5014
மாட்ட	-5015
▁பேரு	-5016
▁டீசல்	-5017
▁அர்ச்ச	-5018
▁பெண்கள	-5019
▁அவ்வளவு	-5020
▁தீர்க்க	-5021
ிக்கொண்டு	-5022
▁பெங்களூரு	-5023
▁அமைப்புகள்	-5024
▁தேர்ந்தெடு	-5025
▁ஏழ	-5026
யமாக	-5027
▁போத	-5028
▁அரசை	-5029
ப்பதால்	-5030
▁உத்திய	-5031
▁ஜெனரல்	-5032
▁இன்றும்	-5033
▁கும்பல்	-5034
▁செய்யவில்லை	-5035
▁குடும்பத்தில்	-5036
நட	-5037
ஜ்ரி	-5038
▁2016	-5039
ப்புரம்	-5040
▁உலகில்	-5041
▁குறைவான	-5042
▁சிவசேனா	-5043
▁தோல்விய	-5044
▁செவ்வாய்	-5045
▁சுற்றுச்சூ	-5046
▁அசோ	-5047
▁போலி	-5048
ார்க்க	-5049
ியாகும	-5050
▁எங்கே	-5051
▁கனமழை	-5052
ப்பூர்வ	-5053
▁அறிகுறி	-5054
▁அனுப்பிய	-5055
▁நண்பர்கள்	-5056
ையிலிருந்து	-5057
▁உயிரிழந்து	-5058
▁விசாரித்து	-5059
க்ச	-5060
ாலோ	-5061
▁காள	-5062
▁தூத	-5063
சக்தி	-5064
▁பாடல்	-5065
▁மீட்டு	-5066
▁எந்தவித	-5067
▁மயிலாடு	-5068
▁கேட்டுக்	-5069
▁தெரியுமா	-5070
▁சமயத்தில்	-5071
▁மருத்துவக்	-5072
க்கப்பட்டுள்ளனர்	-5073
ங்க்	-5074
▁அலி	-5075
▁அரேப	-5076
▁அர்த்த	-5077
▁அதேநேரம்	-5078
▁சிறுத்தை	-5079
▁நிலநடுக்க	-5080
▁பிரச்னைகள்	-5081
▁ஒத்துழைப்பு	-5082
ேல்	-5083
தாஸ்	-5084
▁300	-5085
▁யோக	-5086
ாண்டு	-5087
வாதிகள்	-5088
▁காஷ்மீ	-5089
▁ராமநாத	-5090
▁ஸ்டாலின	-5091
▁எடுத்துச்	-5092
▁விஷயங்கள்	-5093
▁வழங்கினார்	-5094
▁பெற்றுள்ளது	-5095
▁அயோ	-5096
ிற்கான	-5097
▁செயலி	-5098
▁நட்பு	-5099
▁உருவான	-5100
▁தொலைக்க	-5101
▁கொல்கத்தா	-5102
▁ஆட்டத்தில்	-5103
▁பார்த்தால்	-5104
▁இருக்கின்றனர்	-5105
▁தமிழ்நாட்டின்	-5106
▁விக்கெட்டுகளை	-5107
ik	-5108
ாவா	-5109
லைக்	-5110
▁மித	-5111
னையாக	-5112
▁பிளா	-5113
▁கொரோன	-5114
▁மதியம்	-5115
▁மாநாடு	-5116
▁கிறிஸ்த	-5117
▁காலையில்	-5118
▁எடுக்கும்	-5119
▁முன்தினம்	-5120
▁யாருக்கும்	-5121
▁H	-5122
▁ஓர	-5123
▁கோர	-5124
▁வாத	-5125
▁அய்ய	-5126
ர்தான்	-5127
க்கத்தை	-5128
▁காரில்	-5129
▁பாம்பு	-5130
▁ஒழிப்பு	-5131
▁செயல்பட்ட	-5132
▁பந்துகளில்	-5133
▁in	-5134
ல்கள	-5135
▁வளை	-5136
▁காவிரி	-5137
▁தஞ்சாவ	-5138
ற்சியில்	-5139
▁ஜப்பான்	-5140
▁சட்டத்தை	-5141
▁நிபுணர்கள்	-5142
▁அரசியலமைப்பு	-5143
".	-5144
▁நை	-5145
▁சன்	-5146
ியைக்	-5147
ள்ளோம்	-5148
▁தாக்கி	-5149
▁சுப்பிரமணிய	-5150
ணர்	-5151
ாவிய	-5152
பட்டி	-5153
▁சுட்டு	-5154
▁சிக்கிய	-5155
▁படுகொலை	-5156
▁பாண்டிய	-5157
▁வெளியேற	-5158
▁யுக்ரேன்	-5159
க்கொண்டார்	-5160
▁எச்சரிக்க	-5161
▁ஊடகங்களில்	-5162
▁கன்னியாகும	-5163
▁பௌ	-5164
ஸ்கே	-5165
▁அட்	-5166
▁ரிச	-5167
▁கனடா	-5168
▁சக்த	-5169
ிருத்த	-5170
கத்தின்	-5171
▁உதவும்	-5172
▁இயந்திர	-5173
▁விளம்பர	-5174
▁பின்பற்ற	-5175
▁அம்மனுக்கு	-5176
▁நாடாளுமன்றத்	-5177
மல	-5178
▁இண	-5179
சிபி	-5180
▁புத	-5181
▁ரெய	-5182
ங்கர்	-5183
▁சுரே	-5184
▁செஸ்	-5185
▁படகு	-5186
▁நிலையை	-5187
▁நெல்லை	-5188
▁வெட்டி	-5189
▁பட்டியல	-5190
▁முடியுமா	-5191
ஜே	-5192
▁ஆனா	-5193
▁லேச	-5194
ஸ்கள்	-5195
ியைப்	-5196
▁சுப்	-5197
க்ரான்	-5198
நாட்டின்	-5199
▁வழிபட்ட	-5200
▁என்பதும்	-5201
▁ஐரோப்பிய	-5202
▁உருவாக்கி	-5203
▁குறைந்தபட்ச	-5204
கூட	-5205
▁45	-5206
▁ஹரி	-5207
▁அனும	-5208
▁தரும	-5209
▁வாகனம்	-5210
முறையில்	-5211
▁எழுந்து	-5212
▁உள்ளிட்டோர்	-5213
▁ஏற்றுக்கொள்ள	-5214
▁வெளிப்படையாக	-5215
கொள்	-5216
▁மூழ்க	-5217
▁அதுமட்டு	-5218
▁முடிவில்	-5219
▁விழுந்து	-5220
▁குழுவினர்	-5221
▁வேண்டியது	-5222
▁முற்றிலும்	-5223
▁அனைத்தையும்	-5224
▁செய்துகொண்ட	-5225
▁வழங்கப்பட்ட	-5226
▁காலகட்டத்தில்	-5227
டான	-5228
பகவ	-5229
ழும்	-5230
▁ஓரா	-5231
▁சாக	-5232
முடிய	-5233
▁சன்ன	-5234
▁மஞ்சள்	-5235
▁நெட்டிசன	-5236
▁பெரியார்	-5237
▁வருவதால்	-5238
▁தெரியாமல்	-5239
வர்தன	-5240
ாரின்	-5241
▁அரபு	-5242
▁போதே	-5243
▁லோக்ச	-5244
▁நடிக்க	-5245
▁ரெட்டி	-5246
▁டிரம்ப்	-5247
▁நிலவும்	-5248
▁பவுண்டரி	-5249
▁மூன்றாம்	-5250
▁கொள்ளலாம்	-5251
▁மக்களிடம்	-5252
▁என்பதையும்	-5253
▁வேட்பாளராக	-5254
▁பொருளாதாரம்	-5255
',	-5256
டுகள்	-5257
▁தேதிய	-5258
▁நம்மை	-5259
▁சொல்வது	-5260
▁விதிக்க	-5261
▁தெலுங்கு	-5262
▁திருக்கல்யா	-5263
▁மட்டுமல்லாமல்	-5264
ாலா	-5265
வைக்	-5266
▁கும	-5267
ழிக்க	-5268
▁கற்க	-5269
பாட்டு	-5270
▁கடத்த	-5271
த்தன்மை	-5272
ருக்கான	-5273
▁போரில்	-5274
▁ஏதேனும்	-5275
▁ஒருவேளை	-5276
▁அதன்பிறகு	-5277
பீ	-5278
▁ஷெ	-5279
▁‛‛	-5280
ஜெட்	-5281
ப்பய	-5282
வைப்	-5283
▁சரவ	-5284
▁மாய	-5285
துக்க	-5286
மிடம்	-5287
▁ஜோதி	-5288
▁தெலங்க	-5289
▁போதுமான	-5290
▁சந்தேகம்	-5291
▁தலைவரும்	-5292
▁வரவில்லை	-5293
▁அமல்படுத்த	-5294
ியிருக்கிறது	-5295
▁தொகுதிகளில்	-5296
▁எடுக்கப்பட்ட	-5297
▁(0	-5298
ரவாத	-5299
ிடும்	-5300
▁இப்போ	-5301
▁கதாபா	-5302
▁மாளிக	-5303
வீர்கள்	-5304
▁இடங்கள்	-5305
▁இருந்தே	-5306
▁கொண்டிருக்கும்	-5307
▁யான	-5308
▁சமுத	-5309
சித்து	-5310
வியின்	-5311
▁கடற்படை	-5312
▁பிறப்பி	-5313
▁முடிக்க	-5314
▁நடத்தும்	-5315
▁அதிமுகவின்	-5316
▁அவர்களிடம்	-5317
▁நிலையில்தான்	-5318
▁உலா	-5319
▁சேர	-5320
▁ஈரோடு	-5321
▁கோப்ப	-5322
▁சமயம்	-5323
▁முற்ப	-5324
▁வலுவான	-5325
▁எரிபொருள்	-5326
▁சொல்லப்படுகிறது	-5327
id	-5328
கூ	-5329
▁36	-5330
பாய்	-5331
பிள்	-5332
ரிக்	-5333
ல்லி	-5334
ாதது	-5335
▁நோட்ட	-5336
▁பலத்த	-5337
▁மனதில்	-5338
▁ஆட்டமிழ	-5339
▁எதையும்	-5340
▁போன்றவை	-5341
ாவிட்டால்	-5342
▁கூடுதலாக	-5343
▁அங்கிருந்த	-5344
▁ஆப்பிரிக்க	-5345
ித	-5346
ப்ள	-5347
வதே	-5348
மேஷ்	-5349
▁அபர	-5350
▁எலி	-5351
▁இடது	-5352
▁ஆண்கள்	-5353
▁தடுத்து	-5354
▁அருள்பால	-5355
க்காரர்கள்	-5356
▁சோத	-5357
பூர்வ	-5358
▁அரிய	-5359
▁கருதி	-5360
க்களும்	-5361
▁ஐபிஎல்	-5362
▁வருடம்	-5363
▁விநியோக	-5364
▁திட்டமிட	-5365
▁காப்பாற்ற	-5366
▁கண்காணிப்பு	-5367
ra	-5368
ரைக்	-5369
▁சிபிஐ	-5370
▁தட்டு	-5371
▁அமையும்	-5372
▁பணிபுரி	-5373
▁வீடுகள்	-5374
▁தொலைவில்	-5375
▁ராஜபக்சே	-5376
▁அதிர்ச்சிய	-5377
ப்பட்டிருந்தது	-5378
el	-5379
▁வாட	-5380
▁ஆதரி	-5381
▁பாபு	-5382
▁பொலி	-5383
▁வெவ்	-5384
▁கணவன்	-5385
▁பரிமா	-5386
▁இதனைத்	-5387
▁இல்லைய	-5388
▁கிளம்ப	-5389
▁ஆண்டும்	-5390
▁காட்டிய	-5391
▁நடத்தப்படும்	-5392
சின்	-5393
ஜென்	-5394
மண்ட	-5395
▁இத்த	-5396
▁கனவு	-5397
▁சமைய	-5398
▁பாய்	-5399
▁விலகி	-5400
▁பிரம்ம	-5401
▁தாங்கள்	-5402
▁கணக்கில்	-5403
▁மணிப்பூர்	-5404
▁மன்னிப்பு	-5405
▁வரலாற்றில்	-5406
▁கூறியுள்ளது	-5407
▁நடந்துள்ளது	-5408
▁விழுப்புரம்	-5409
▁நிறுவனத்தில்	-5410
.9	-5411
ew	-5412
ஸ்பு	-5413
▁அசை	-5414
▁அட்டை	-5415
▁எங்கு	-5416
▁மின்ன	-5417
▁சாதகமாக	-5418
▁பெண்ணின்	-5419
▁கருத்தில்	-5420
லெ	-5421
▁ஆலய	-5422
▁வயி	-5423
▁வைரல	-5424
இந்திய	-5425
▁காதலி	-5426
▁சிகிச்ச	-5427
த்துக்காக	-5428
▁பறிமுதல்	-5429
▁மேற்கொள்	-5430
▁வாடிக்கைய	-5431
மல்	-5432
ாதே	-5433
▁தேரோ	-5434
▁தொலைபே	-5435
▁கொடுத்தார்	-5436
▁டு	-5437
▁ஒளிபர	-5438
▁வசதிகள்	-5439
▁வெளியேற்ற	-5440
▁மாரியம்மன்	-5441
,4	-5442
iv	-5443
ாவளி	-5444
▁மதம்	-5445
▁இதுவே	-5446
▁கண்டன	-5447
▁யோகம்	-5448
▁எழுத்த	-5449
▁தங்கிய	-5450
▁திறக்க	-5451
▁மறுத்து	-5452
▁பிரிட்டி	-5453
▁மாற்றங்கள்	-5454
▁ஜெயக்குமார்	-5455
மதா	-5456
வீர	-5457
▁196	-5458
ிடமும்	-5459
▁வாயில	-5460
▁வியாழ	-5461
▁கூடும்	-5462
▁பாரதிய	-5463
▁அறிக்கையை	-5464
▁உற்பத்திய	-5465
▁முக்கியம்	-5466
▁ட்விட்டரில்	-5467
▁W	-5468
▁தளபதி	-5469
▁மாறாக	-5470
▁கழித்து	-5471
▁வலைத்தள	-5472
▁குடிநீர்	-5473
▁கொள்ளும்	-5474
▁செயலாளராக	-5475
▁செய்யப்பட	-5476
▁தீபாராதனை	-5477
▁முயற்சிகள்	-5478
▁K	-5479
கிர	-5480
ரியின்	-5481
▁கேட்ப	-5482
▁ஜெர்ம	-5483
▁தள்ளு	-5484
▁பிரியா	-5485
▁அமைச்சு	-5486
▁விஞ்ஞான	-5487
▁குற்றவாள	-5488
▁கும்பாபிஷேக	-5489
▁சந்தித்தார்	-5490
▁ஆச	-5491
மையும்	-5492
▁அதைப்	-5493
▁தினசரி	-5494
▁செல்வது	-5495
▁வந்துள்ளார்	-5496
ைத்	-5497
▁சுப	-5498
▁சேமி	-5499
ழ்ச்சி	-5500
▁குறைய	-5501
▁இத்தனை	-5502
▁இந்நிக	-5503
▁இம்ரான்	-5504
▁நேற்றைய	-5505
▁ராஜபக்ஷ	-5506
▁சமர்ப்பி	-5507
▁பிரதேசம்	-5508
▁ஏற்பட்டுள்ள	-5509
▁வைத்திருந்த	-5510
▁37	-5511
்டன்	-5512
▁பலி	-5513
ணிகள்	-5514
ியைச்	-5515
▁வீரா	-5516
▁இணைந்த	-5517
▁ஏக்கர்	-5518
▁கலைஞர்	-5519
▁காற்று	-5520
▁நூற்று	-5521
▁அளவிலான	-5522
▁அவருடன்	-5523
▁நிராகரி	-5524
▁கணக்கெடு	-5525
▁சிறப்பான	-5526
▁சதவிகிதம்	-5527
▁ஆஸ்திரேலியா	-5528
▁தாக்குதலில்	-5529
▁எதிர்காலத்தில்	-5530
,2	-5531
மில்	-5532
▁அமர	-5533
▁வேல	-5534
வாங்க	-5535
▁கலைஞ	-5536
▁போடு	-5537
▁மீனா	-5538
▁காரிய	-5539
▁டாலர்	-5540
▁சோனியா	-5541
▁துணைத்	-5542
▁நிவாரண	-5543
▁பட்ஜெட்	-5544
புரத்தில்	-5545
▁மாதங்கள்	-5546
▁மொத்தமாக	-5547
▁கல்லூரியில்	-5548
▁திருவண்ணாமலை	-5549
ஒரு	-5550
▁எமது	-5551
▁ஏற்றி	-5552
▁பிரமா	-5553
▁வருத்த	-5554
▁நோக்கம்	-5555
▁வெவ்வேறு	-5556
▁அளித்தார்	-5557
▁வாகனங்கள்	-5558
▁வெளியானது	-5559
ot	-5560
ணத்தில்	-5561
மைச்சர்	-5562
▁சீனிவா	-5563
▁நடந்தன	-5564
▁கம்யூனிஸ்ட்	-5565
of	-5566
ராய	-5567
த்தலை	-5568
▁இரான்	-5569
▁ஹைதரா	-5570
▁அரசுப்	-5571
▁ஆதித்ய	-5572
▁இன்ஸ்ட	-5573
▁வேளாண்	-5574
▁காணாமல்	-5575
▁பழனிசாம	-5576
▁விரைந்து	-5577
ங்களுக்கான	-5578
▁கட்சியினர்	-5579
்தொ	-5580
சியை	-5581
மாய்	-5582
வலம்	-5583
த்தன்	-5584
▁தூது	-5585
▁ரூபா	-5586
விட்டன	-5587
▁வாடகை	-5588
▁எங்களை	-5589
▁சிவில்	-5590
▁தாக்கிய	-5591
▁நியூசில	-5592
▁பிரதமராக	-5593
ுடு	-5594
முல்	-5595
▁தர்	-5596
ட்கள்	-5597
ணிக்க	-5598
ீர்கள	-5599
ெல்வே	-5600
▁நெல்	-5601
▁பாமக	-5602
▁மொபை	-5603
▁வட்டி	-5604
▁வளர்க்க	-5605
▁நிலைப்பா	-5606
▁O	-5607
▁ஊட	-5608
▁ஏற	-5609
முடைய	-5610
▁பயிர	-5611
▁அஜித்	-5612
▁ஈடுபட	-5613
▁சம்பள	-5614
▁என்னவெ	-5615
▁வீட்டின்	-5616
▁வீடுகளில்	-5617
▁தேவையில்லை	-5618
▁தாவ	-5619
▁பூமி	-5620
ியிடம்	-5621
▁நாளித	-5622
▁பணியிட	-5623
▁வேலூர்	-5624
▁ஷிண்டே	-5625
▁இடையேயான	-5626
▁உத்தியோக	-5627
ப்பகுதியில்	-5628
▁மாநிலத்தின்	-5629
▁w	-5630
▁ஐய	-5631
▁சரா	-5632
▁அற்ப	-5633
▁இங்க	-5634
ச்சின்	-5635
▁இதைத்	-5636
▁மார்க	-5637
த்தேர்த	-5638
▁படிப்ப	-5639
▁பாஜகவை	-5640
▁மறைந்த	-5641
▁ரோஹித்	-5642
▁காணப்படும்	-5643
▁அறிவித்தார்	-5644
▁உறுதிப்படுத்த	-5645
▁v	-5646
ஜர்	-5647
ீம்	-5648
ென்று	-5649
▁2015	-5650
ஸ்டிக்	-5651
ும்படி	-5652
▁பைடன்	-5653
▁உணவுப்	-5654
▁மஹிந்த	-5655
▁சம்பளம்	-5656
▁தீர்ப்ப	-5657
▁ஆரம்பித்து	-5658
▁பங்கேற்றனர்	-5659
▁மாட்டார்கள்	-5660
மனம்	-5661
▁கரை	-5662
ழ்ந்த	-5663
ுமாறு	-5664
▁டிரை	-5665
▁வான்	-5666
ிடையில்	-5667
▁கோட்டை	-5668
▁வேட்பு	-5669
▁ஆச்சரிய	-5670
▁செய்தித்	-5671
▁பின்னால்	-5672
▁போதிலும்	-5673
▁சிலருக்கு	-5674
▁தவிர்த்து	-5675
▁இருக்கிறோம்	-5676
▁மயிலாடுதுறை	-5677
ிரவு	-5678
▁எடை	-5679
ியால்	-5680
▁மனம்	-5681
▁மறுப	-5682
▁விதை	-5683
வரிடம்	-5684
▁பேரறி	-5685
▁புத்தா	-5686
▁போட்டோ	-5687
▁உணர்ந்த	-5688
▁செல்போன்	-5689
▁சொல்லும்	-5690
▁காயமடைந்த	-5691
▁இருந்தபோது	-5692
வர்களுக்கும்	-5693
▁தொடங்கினார்	-5694
▁பணியாளர்கள்	-5695
?!	-5696
சல	-5697
தைக்	-5698
▁சிஎ	-5699
▁அணுகு	-5700
▁அதிகள	-5701
▁தோட்ட	-5702
விருக்க	-5703
னுக்கும்	-5704
▁ஊக்குவி	-5705
▁படிக்கும்	-5706
▁ஏற்பாடுகள்	-5707
▁செய்வதற்கு	-5708
▁அலங்காரத்தில்	-5709
▁கலந்துகொண்டனர்	-5710
ிலே	-5711
▁32	-5712
னைப்	-5713
லித்	-5714
▁சப்	-5715
திகளை	-5716
▁சமேத	-5717
▁சென்	-5718
டுக்கு	-5719
▁தந்து	-5720
▁அந்தச்	-5721
▁சமுதாய	-5722
▁நிரந்தர	-5723
▁ஆயிரத்து	-5724
▁பிரசாரம்	-5725
▁பணிப்பாளர்	-5726
▁ஞாயிற்றுக்கிழமை	-5727
மலா	-5728
▁""	-5729
ஒதுக்க	-5730
லுக்கான	-5731
▁கெஜ்ரி	-5732
▁நிர்ணய	-5733
▁வேலையில்	-5734
▁தாக்கத்தை	-5735
▁இருந்ததால்	-5736
▁திருநெல்வே	-5737
ப்படுகின்றது	-5738
▁மாணவர்களின்	-5739
▁ஹீ	-5740
கட்ட	-5741
▁அவி	-5742
▁தரி	-5743
மாநில	-5744
▁கோல்	-5745
▁இழப்ப	-5746
▁தரப்ப	-5747
க்குள்ள	-5748
▁கடலில்	-5749
▁துன்பு	-5750
▁ஊராட்சி	-5751
▁நீலகிரி	-5752
▁பானர்ஜி	-5753
த்தொடர்ந்து	-5754
▁போதைப்பொரு	-5755
▁சந்திப்பில்	-5756
▁பன்னீர்செல்வம்	-5757
et	-5758
மொழ	-5759
▁48	-5760
▁சல	-5761
▁ஆணை	-5762
▁வில்	-5763
ார்களா	-5764
▁மாடல்	-5765
▁அனுப்பு	-5766
▁செவ்வாய	-5767
▁அளவிற்கு	-5768
▁ஆய்வாளர்	-5769
▁இடங்களிலும்	-5770
▁அசா	-5771
▁தகு	-5772
▁டெல்	-5773
வியும்	-5774
▁இன்றி	-5775
▁கலந்த	-5776
▁தூக்க	-5777
▁தோற்ற	-5778
▁ஆராதனை	-5779
▁எளிதாக	-5780
▁கிலோமீ	-5781
▁விழாவை	-5782
மிக்ரான்	-5783
வுபடுத்த	-5784
▁அடங்கிய	-5785
▁அத்தகைய	-5786
▁சுக்கிர	-5787
▁தாக்கம்	-5788
▁லோக்சபா	-5789
▁திருவள்ள	-5790
▁பதிலளித்த	-5791
▁மாதங்களாக	-5792
▁மண்டபத்தில்	-5793
வோர்	-5794
ண்கள்	-5795
ரியாக	-5796
▁ஐந்த	-5797
▁சீசன	-5798
▁தெய்வ	-5799
▁மெல்ல	-5800
வர்களாக	-5801
▁அலுவலர்	-5802
▁பாஜகவில்	-5803
ப்பதாகவும்	-5804
▁தொடக்கத்தில்	-5805
ரைய	-5806
▁மஹ	-5807
ளில்	-5808
▁அவள	-5809
▁சாம்	-5810
▁வேலு	-5811
▁கொன்ற	-5812
▁முகம்	-5813
▁அண்ணன்	-5814
▁தஞ்சாவூர்	-5815
▁ஜாத	-5816
▁ஹெல	-5817
▁நள்ள	-5818
ெடுத்த	-5819
▁கணக்க	-5820
▁சிக்ஸ	-5821
▁புதின்	-5822
▁இயக்கம்	-5823
▁கருத்தை	-5824
▁முடித்த	-5825
▁காஞ்சிபுரம்	-5826
▁தமிழகத்தின்	-5827
▁அறநிலையத்துறை	-5828
ரமான	-5829
▁ஆபாச	-5830
▁தளம்	-5831
▁தாமத	-5832
ட்டிங்	-5833
தோறும்	-5834
▁ஏதும்	-5835
▁பரப்ப	-5836
▁அற்புத	-5837
▁இரவில்	-5838
▁உங்களை	-5839
வெளியில்	-5840
▁இதேபோல்	-5841
▁நியமனம்	-5842
▁வருவாய்	-5843
▁உரிமைகள்	-5844
▁சித்திரை	-5845
▁வழக்கறிஞ	-5846
▁வேண்டுமென	-5847
▁அமலாக்கத்துறை	-5848
ாதான	-5849
ation	-5850
ினேன்	-5851
▁இடைய	-5852
▁சினிம	-5853
▁பின்பு	-5854
▁முதற்க	-5855
▁என்னென்ன	-5856
▁ராமேஸ்வர	-5857
▁எல்லையில்	-5858
▁மாதிரியான	-5859
▁செய்கிறார்	-5860
▁பிரிட்டிஷ்	-5861
▁விஷயத்தில்	-5862
▁மைதானத்தில்	-5863
,8	-5864
▁பனி	-5865
▁பர்	-5866
▁ரிஷ	-5867
மில்ல	-5868
▁மேலா	-5869
▁அண்டை	-5870
▁முடிவ	-5871
▁லிட்ட	-5872
▁மோசமாக	-5873
▁அறிமுகம்	-5874
▁அலங்காரம்	-5875
▁சிதம்பரம்	-5876
சியா	-5877
ரைப்	-5878
▁ஏர்	-5879
ம்பெய	-5880
முத்து	-5881
▁சக்கர	-5882
▁சீர்க	-5883
▁அன்றைய	-5884
ாதீர்கள்	-5885
▁வந்தாலும்	-5886
▁சுதந்திரம்	-5887
▁நெட்டிசன்கள்	-5888
▁f	-5889
களே	-5890
விள	-5891
யும்	-5892
ாமன்	-5893
▁and	-5894
ங்கால	-5895
நாட்ட	-5896
▁கொஞ்ச	-5897
▁சேகர்	-5898
▁நுண்ண	-5899
▁மாறிய	-5900
▁பதவியே	-5901
▁மந்திர	-5902
▁அப்போதைய	-5903
▁கட்டாயம்	-5904
▁விதிமுறை	-5905
▁பேட்டியில்	-5906
▁மட்டும்தான்	-5907
▁வேட்பாளர்கள்	-5908
▁அரசாங்கத்தின்	-5909
▁விழிப்புணர்வு	-5910
nd	-5911
வழ	-5912
ர்ண	-5913
ாதன	-5914
பற்றி	-5915
▁வரைய	-5916
▁சிவன்	-5917
▁சிஎஸ்கே	-5918
▁சிறுபான்	-5919
▁சூழ்நிலை	-5920
▁வழக்கமாக	-5921
▁விளையாடி	-5922
▁அதிகரித்த	-5923
▁குறைந்தது	-5924
ன்னீர்செல்வ	-5925
▁வெள்ளிக்கிழமை	-5926
▁கட்டுப்பாட்டில்	-5927
மடை	-5928
ம்மை	-5929
▁கடமை	-5930
▁தகவல	-5931
ங்கலம்	-5932
▁இறங்க	-5933
▁காயம்	-5934
▁கைவிட	-5935
ப்பகுதி	-5936
▁செல்வம்	-5937
▁அவற்றின்	-5938
▁ஆசிரியர்கள்	-5939
ch	-5940
od	-5941
us	-5942
களான	-5943
▁சலு	-5944
▁இளவர	-5945
▁லஞ்ச	-5946
▁வாசி	-5947
▁சுவார	-5948
▁தம்பி	-5949
▁குழுவில்	-5950
▁வாழ்ந்து	-5951
▁குறித்துப்	-5952
▁ஆய்வாளர்கள்	-5953
▁கன்னியாகுமரி	-5954
▁கருதப்படுகிறது	-5955
றல்	-5956
▁ஃபே	-5957
▁கமிஷ	-5958
▁லாபம்	-5959
▁அம்பேத	-5960
▁ஏமாற்ற	-5961
▁தாயார்	-5962
▁மார்க்க	-5963
▁இதன்போது	-5964
▁முடிகிறது	-5965
▁அனைவரையும்	-5966
▁ஒருவருக்கு	-5967
நடை	-5968
பாள	-5969
முடி	-5970
▁பரீ	-5971
ராஜர்	-5972
▁மிகக்	-5973
ப்புடன்	-5974
▁பாலஸ்த	-5975
▁பதற்றம்	-5976
▁பின்னணி	-5977
ாளர்களும்	-5978
▁இதற்குப்	-5979
▁பணியாற்ற	-5980
▁பாதிப்பை	-5981
▁திரும்பிய	-5982
▁எதிர்வரும்	-5983
▁தொடர்பாளர்	-5984
▁விருதுநகர்	-5985
▁கொண்டுள்ளது	-5986
▁வேலைவாய்ப்பு	-5987
▁வழக்குப்பதிவு	-5988
▁நடைமுறைப்படுத்த	-5989
,9	-5990
ஜை	-5991
பில்	-5992
லமாக	-5993
▁லாப	-5994
▁உணர்	-5995
▁புதை	-5996
▁மேலே	-5997
▁தைரிய	-5998
பாடுகள்	-5999
▁கொள்ளை	-6000
▁சஞ்சய்	-6001
▁ஜாமீன்	-6002
▁தம்பதி	-6003
▁திறந்த	-6004
▁விடும்	-6005
▁உட்பட்ட	-6006
▁தெரியாத	-6007
▁இடஒதுக்க	-6008
▁திருமாவள	-6009
▁தேர்வில்	-6010
▁சந்தையில்	-6011
▁செயலாளர்கள்	-6012
▁பாதுகாப்பாக	-6013
▁எதிர்க்கட்சித்	-6014
▁வித்தியாசத்தில்	-6015
த்யா	-6016
▁ரசி	-6017
▁நேரடி	-6018
▁பொய்ய	-6019
▁படுக்க	-6020
▁ஒன்றிணை	-6021
▁சூரியன்	-6022
த்தில்தான்	-6023
▁வழங்கப்பட	-6024
▁முன்னெடுக்க	-6025
மிக	-6026
காசி	-6027
ச்சல	-6028
வீன்	-6029
▁பஸ்	-6030
வந்து	-6031
வாறான	-6032
ீட்டை	-6033
▁சம்ம	-6034
▁தானே	-6035
▁நன்கு	-6036
▁பாரத்	-6037
டத்தில்	-6038
▁வேண்டி	-6039
▁ஒன்றும்	-6040
▁சொல்லிய	-6041
▁பேசியது	-6042
▁நியமிக்க	-6043
▁வளர்ந்து	-6044
▁விரும்பவில்லை	-6045
,3	-6046
,6	-6047
▁ஒட்ட	-6048
▁டாஸ்	-6049
▁திசை	-6050
காந்த்	-6051
ட்டிக்	-6052
▁ஓய்வூ	-6053
▁கேமரா	-6054
▁பொன்ன	-6055
▁அமர்வு	-6056
▁பழமையான	-6057
▁இஸ்ரேலிய	-6058
▁சந்தர்ப்ப	-6059
▁கோரிக்கையை	-6060
சீர	-6061
▁ஜெக	-6062
திக்க	-6063
ியைத்	-6064
▁புலன	-6065
▁ஸ்பெ	-6066
▁சங்கம்	-6067
▁சீமான்	-6068
▁ஆற்றில்	-6069
▁பாலத்தீ	-6070
▁விளையாட	-6071
▁விவசாயம்	-6072
▁வெற்றிகரமாக	-6073
ப்பட்டுள்ளனர்	-6074
▁பதிவிட்டுள்ளார்	-6075
1-	-6076
மறை	-6077
மயம்	-6078
ிராம்	-6079
▁பட்ச	-6080
▁கஞ்சா	-6081
▁மிக்க	-6082
▁ஹோமம்	-6083
ூராட்சி	-6084
▁ஹிந்து	-6085
▁இல்லையா	-6086
▁சிறுவன்	-6087
▁ஊடகங்கள்	-6088
▁அந்நாட்டு	-6089
▁வேகத்தில்	-6090
▁சனிக்கிழமை	-6091
▁சூழ்நிலையில்	-6092
னது	-6093
ானே	-6094
ாலு	-6095
ையன்	-6096
▁ராக	-6097
கத்தை	-6098
▁நீடி	-6099
▁நெகி	-6100
▁யாரு	-6101
▁ஒத்தி	-6102
▁அணிந்த	-6103
▁உத்தவ்	-6104
▁சண்முக	-6105
ச்சியில்	-6106
▁போகிறது	-6107
▁மாறியது	-6108
த்துக்கான	-6109
▁உதாரணமாக	-6110
▁துறையின்	-6111
▁பேசினோம்	-6112
▁ஓவர்களில்	-6113
▁செய்துள்ள	-6114
▁செல்வாக்கு	-6115
▁ஆண்டுதோறும்	-6116
▁சம்பவத்தில்	-6117
ிருப்பதாகவும்	-6118
,7	-6119
▁டூ	-6120
க்கலை	-6121
ரங்கு	-6122
▁உங்க	-6123
▁வரவு	-6124
▁சீதார	-6125
▁தொழிற்	-6126
▁என்னால்	-6127
களுக்குப்	-6128
ப்பட்டால்	-6129
▁அதிருப்தி	-6130
▁செயல்படும்	-6131
▁ஆண்டுகளுக்குப்	-6132
▁தெரிவிக்கின்றன	-6133
ur	-6134
▁சல்	-6135
▁மந்த	-6136
▁மீம்	-6137
▁ஷேக்	-6138
▁சைக்கி	-6139
▁மறுசீர	-6140
▁உலகக்கோ	-6141
▁சந்திரசே	-6142
▁பிரச்சார	-6143
▁இந்தியர்கள்	-6144
▁உள்ளாட்சித்	-6145
▁நிகழ்ச்சிகள்	-6146
ீனம்	-6147
▁ரம்	-6148
ச்சுவ	-6149
▁பத்த	-6150
▁நிறைவ	-6151
▁கருத்த	-6152
▁பிரமுக	-6153
▁இடங்களை	-6154
▁என்னும்	-6155
▁வரவேற்ப	-6156
▁எழுப்பிய	-6157
▁போட்டிகள்	-6158
▁ஆராய்ச்சிய	-6159
▁d	-6160
ஃபி	-6161
ாமே	-6162
ொலி	-6163
ாத்க	-6164
▁ஷர்	-6165
ர்களான	-6166
▁இயல்ப	-6167
▁புயல்	-6168
ாளருமான	-6169
▁பரப்பு	-6170
▁மோடியை	-6171
▁வழிவகு	-6172
▁அனுபவம்	-6173
▁ஜெயலலித	-6174
▁அரவிந்த்	-6175
▁படையினர்	-6176
▁வேலைக்கு	-6177
▁கட்டத்தில்	-6178
▁தெரிவித்தது	-6179
▁அறிவிக்கப்பட்ட	-6180
ஷ்டி	-6181
ார்க	-6182
▁பழக	-6183
ுவில்	-6184
சுக்கு	-6185
▁இயற்க	-6186
▁கன்னி	-6187
▁நம்பி	-6188
▁தினேஷ்	-6189
▁பெட்டி	-6190
▁மறுக்க	-6191
▁முதன்மை	-6192
▁விலக்கு	-6193
▁கேரளாவில்	-6194
▁மாநிலங்கள	-6195
▁எதிர்கொண்ட	-6196
▁கூறப்பட்டது	-6197
0-	-6198
லாத	-6199
▁லெப	-6200
டலில்	-6201
▁தோனி	-6202
▁சுத்த	-6203
▁முத்த	-6204
▁கவனமாக	-6205
▁சகோதரி	-6206
▁டிகிரி	-6207
▁நாயுடு	-6208
▁பரீட்ச	-6209
▁பலமுறை	-6210
▁பலாத்க	-6211
▁வாக்கள	-6212
▁எழுத்து	-6213
▁நிபுணர்	-6214
▁வரவேற்க	-6215
▁வளர்ந்த	-6216
▁அறக்கட்ட	-6217
▁எழுந்தது	-6218
ங்களுக்காக	-6219
▁அருள்பாலி	-6220
▁கைதுசெய்ய	-6221
▁புகைப்படம்	-6222
▁வாழ்க்கையை	-6223
2)	-6224
ாமல	-6225
எஃப்	-6226
▁கனட	-6227
▁கன்	-6228
▁ரவீ	-6229
ுவின்	-6230
▁சிசி	-6231
▁ஹர்த	-6232
▁மடங்கு	-6233
▁நடித்து	-6234
ப்பதில்லை	-6235
▁நாளுக்கு	-6236
▁பள்ளிக்க	-6237
▁பொறுப்பே	-6238
▁வாய்ப்பை	-6239
▁ஆரம்பித்த	-6240
▁ஒருபோதும்	-6241
▁கதாபாத்திர	-6242
▁ஜனாதிபதியின்	-6243
ொண்ட	-6244
▁உண்ண	-6245
▁தாலி	-6246
▁மல்ல	-6247
லர்கள்	-6248
ளித்து	-6249
▁வாரிய	-6250
▁குறைவு	-6251
▁நேர்த்த	-6252
▁தென்காசி	-6253
▁வைத்துக்	-6254
▁தயாரிப்பு	-6255
▁முதற்கட்ட	-6256
▁அறிவித்தது	-6257
▁இடத்துக்கு	-6258
▁கொல்லப்பட்ட	-6259
▁ராமநாதபுரம்	-6260
▁ரை	-6261
ஸ்ரீ	-6262
▁அன்	-6263
▁வின	-6264
ாவசிய	-6265
▁சூடு	-6266
▁வலது	-6267
ணாமுல்	-6268
▁காப்பு	-6269
▁முற்று	-6270
▁விநியோ	-6271
▁என்றனர்	-6272
▁வீராங்க	-6273
▁பேட்டிங்	-6274
▁மோடியின்	-6275
▁கேட்டபோது	-6276
▁நாடுகளும்	-6277
▁பயங்கரவாத	-6278
▁ஆரம்பத்தில்	-6279
▁கர்நாடகாவில்	-6280
▁நிறுவனங்களின்	-6281
ஜூ	-6282
ளாக	-6283
ிறை	-6284
▁ஏக	-6285
தைத்	-6286
மிகு	-6287
லைப்	-6288
▁புவ	-6289
▁மெய	-6290
▁தேடு	-6291
▁தேவி	-6292
▁யாழ்	-6293
லிலும்	-6294
ிற்காக	-6295
▁காய்க	-6296
▁குடிம	-6297
▁நிலவர	-6298
▁நிலவி	-6299
▁பரிசீ	-6300
▁பீகார்	-6301
▁விராட்	-6302
▁இழுத்து	-6303
▁எழுப்பி	-6304
ப்படுத்திய	-6305
▁வழிகாட்டு	-6306
▁செய்யப்பட்டுள்ள	-6307
2-	-6308
▁ம்	-6309
க்ரோ	-6310
மையா	-6311
▁துர	-6312
▁நடன	-6313
மைக்க	-6314
▁நீரா	-6315
னியில்	-6316
▁ஆர்வல	-6317
▁எதிரி	-6318
▁கருவி	-6319
▁தங்கி	-6320
▁தூதரக	-6321
▁நிம்ம	-6322
ப்பிரிவு	-6323
▁மதிப்பெ	-6324
▁லட்சுமி	-6325
▁இத்திட்ட	-6326
▁நம்மிடம்	-6327
▁முதலீட்ட	-6328
▁பிரியங்கா	-6329
▁குழந்தைகளை	-6330
▁எடுத்துக்கொள்ள	-6331
▁பத்திரிகையாளர்	-6332
ஐடி	-6333
▁of	-6334
போதே	-6335
▁பத்	-6336
▁ராவ	-6337
▁வது	-6338
னைகள்	-6339
▁விடய	-6340
ந்தின்	-6341
ற்றால்	-6342
▁காண்ப	-6343
▁நேபாள	-6344
ெடுத்து	-6345
▁நீக்கம்	-6346
▁விக்கிர	-6347
▁பகுதிகள்	-6348
▁வயதுக்கு	-6349
▁வேண்டுகோ	-6350
▁அறிவித்து	-6351
▁செய்கிறது	-6352
▁மதுரையில்	-6353
மாவ	-6354
ம்க	-6355
▁ஆற	-6356
போர்	-6357
றிவு	-6358
ஸ்வரி	-6359
ினோம்	-6360
▁பட்டு	-6361
ல்லிக்க	-6362
▁நாயகம்	-6363
▁இன்னிங்	-6364
▁சம்பாதி	-6365
▁துவங்கி	-6366
▁பிறகும்	-6367
▁காய்ச்சல்	-6368
▁தொடங்கும்	-6369
▁தொழிலாளர்	-6370
▁மீனவர்கள்	-6371
▁திரிணாமுல்	-6372
▁மேற்பட்டோர்	-6373
▁நடத்தப்பட்டு	-6374
▁b	-6375
ஸ்கோ	-6376
▁உணர	-6377
க்கடை	-6378
▁உருவ	-6379
▁பெர்	-6380
னையின்	-6381
ிக்காக	-6382
ிக்கான	-6383
▁அனுபவி	-6384
▁கர்ப்ப	-6385
▁கிராம்	-6386
▁கோட்டா	-6387
▁சேவைகள்	-6388
▁விகிதம்	-6389
▁உக்ரைனில்	-6390
▁உண்டாகும்	-6391
▁விசாரணையை	-6392
▁பேசும்போது	-6393
▁மேம்பாட்டு	-6394
ப்படுவார்கள்	-6395
▁பிரச்சினைகள்	-6396
▁செய்திருந்தனர்	-6397
▁சதி	-6398
▁திண	-6399
ங்களா	-6400
▁ஆனது	-6401
▁புஷ்	-6402
▁ஹோட்ட	-6403
▁அர்ப்ப	-6404
▁கோவிட்	-6405
▁பெற்றுக்	-6406
▁பற்றியும்	-6407
▁மாணவர்களை	-6408
▁முழுமையான	-6409
டுத்தப்பட்ட	-6410
▁அங்கீகாரம்	-6411
▁h	-6412
▁33	-6413
நிறு	-6414
▁கிரு	-6415
▁நந்த	-6416
ாரிகள்	-6417
இந்தியா	-6418
▁சிறுநீ	-6419
▁அமைப்பை	-6420
▁நிர்மலா	-6421
▁போலீசார	-6422
▁கோவையில்	-6423
▁ரீதியில்	-6424
▁மாணவியின்	-6425
▁இருக்கிறேன்	-6426
காவ	-6427
பவர்	-6428
▁அவள்	-6429
▁கணிச	-6430
▁தரம்	-6431
ந்தும்	-6432
▁ஈடுபடு	-6433
▁இந்திரா	-6434
▁கூறினர்	-6435
▁சமர்ப்ப	-6436
▁விரிவான	-6437
▁உங்களின்	-6438
▁குறையும்	-6439
▁நம்முடைய	-6440
▁பதவிக்கு	-6441
▁பூர்த்தி	-6442
▁சாப்பிட்ட	-6443
▁புகார்கள்	-6444
▁வீடியோவில்	-6445
▁பின்னணியில்	-6446
ாரை	-6447
▁சேன	-6448
▁மாம	-6449
▁விக	-6450
▁அவதூ	-6451
▁ஏனைய	-6452
▁சிரே	-6453
▁பொய்	-6454
▁தூரம்	-6455
▁விண்க	-6456
▁யூடியூ	-6457
▁மிரட்டல்	-6458
▁வரையிலான	-6459
▁விட்டார்	-6460
க்கும்போது	-6461
▁பாதுகாப்புப்	-6462
▁அதிகாரிகளுக்கு	-6463
ுமே	-6464
▁150	-6465
ந்தம்	-6466
▁மசூதி	-6467
▁ஆனந்த்	-6468
ராத்திரி	-6469
▁அப்படிய	-6470
▁காய்கறி	-6471
▁தெலுங்க	-6472
▁இங்குள்ள	-6473
▁கேட்டார்	-6474
▁பதிவிட்ட	-6475
▁காந்தியின்	-6476
▁தொழிற்சாலை	-6477
▁எதிர்பார்ப்பு	-6478
நேர	-6479
பலி	-6480
ீஷ்	-6481
▁பாவ	-6482
ர்களே	-6483
ாலேயே	-6484
▁கூடி	-6485
▁சிவக	-6486
ந்துவீ	-6487
▁கரூர்	-6488
▁பற்றா	-6489
▁பலவீன	-6490
▁அழிக்க	-6491
▁உத்தரவ	-6492
▁குதிரை	-6493
▁மறுநாள்	-6494
▁வெற்றிபெ	-6495
▁பெயர்ச்சி	-6496
▁சொல்கிறார்	-6497
▁நிகழ்வுகள்	-6498
▁அத்தியாவசிய	-6499
▁முன்னேற்றம்	-6500
வதி	-6501
வைச்	-6502
▁பழி	-6503
படியே	-6504
மாக்க	-6505
▁களம்	-6506
▁பாகு	-6507
▁வெறு	-6508
▁இலட்ச	-6509
▁நாளான	-6510
▁பட்ஜெ	-6511
▁ரிசர்	-6512
▁ஒன்பது	-6513
▁கால்நடை	-6514
▁கொள்ளைய	-6515
▁விரிவாக	-6516
▁உலகளாவிய	-6517
▁நீங்கும்	-6518
▁மேடையில்	-6519
▁எழுந்தருளி	-6520
ஜீ	-6521
ன்கூ	-6522
ீஸ்வர	-6523
ையானது	-6524
▁கொடூர	-6525
▁பரவல்	-6526
மாற்றம்	-6527
வேண்டிய	-6528
▁சமாதான	-6529
▁தொகையை	-6530
▁நிபந்த	-6531
▁மறைமுக	-6532
▁முறையை	-6533
▁தளத்தில்	-6534
▁தீர்மானி	-6535
▁நிகழ்த்த	-6536
▁நிலைக்கு	-6537
▁யாத்திரை	-6538
▁படங்களில்	-6539
▁பணியாற்றிய	-6540
▁பள்ளிகளில்	-6541
▁பாதிக்கும்	-6542
தேவி	-6543
லாமா	-6544
தாகத்	-6545
ியான்	-6546
பையில்	-6547
▁ராஜீவ்	-6548
▁சபையின்	-6549
▁என்பதைப்	-6550
▁தள்ளுபடி	-6551
▁விண்ணப்ப	-6552
த்துக்குப்	-6553
▁கண்டித்து	-6554
▁பெங்களூர்	-6555
▁நெருக்கமான	-6556
க்கப்பட்டனர்	-6557
▁இவர்களுக்கு	-6558
▁கிலோமீட்டர்	-6559
▁தொலைக்காட்சி	-6560
▁நியூசிலாந்து	-6561
▁சுற்றுச்சூழல்	-6562
▁மலே	-6563
ின்றது	-6564
▁அருணா	-6565
▁இளம்பெ	-6566
▁வரலாம்	-6567
▁சிரேஷ்ட	-6568
▁பயணத்தை	-6569
▁வெற்றிய	-6570
▁படப்பிடி	-6571
▁சமீபத்திய	-6572
▁திமுகவின்	-6573
▁வருடங்களாக	-6574
▁சமர்ப்பிக்க	-6575
▁ஆப்கானிஸ்தான்	-6576
▁கொண்டிருந்தார்	-6577
ter	-6578
▁ஆசி	-6579
▁சாய	-6580
▁அழகு	-6581
▁டிவி	-6582
▁ரஜின	-6583
யிலில்	-6584
▁இருதர	-6585
▁சலுகை	-6586
▁தகவலை	-6587
▁எந்தப்	-6588
ட்டையில்	-6589
ப்பேட்டை	-6590
▁பெருந்த	-6591
▁உடல்நிலை	-6592
▁விஷயங்களை	-6593
▁கொள்கிறேன்	-6594
▁பொருளாதாரத்தை	-6595
காச	-6596
▁41	-6597
விழா	-6598
▁New	-6599
▁கலெ	-6600
▁கோய	-6601
ப்பாத	-6602
▁சுரு	-6603
▁ரங்க	-6604
ந்தூர்	-6605
▁ஆட்டோ	-6606
▁நியமன	-6607
▁கடலூர்	-6608
▁வெங்கட	-6609
▁திருப்பு	-6610
▁நோட்டீஸ்	-6611
▁வழக்கமான	-6612
▁வீடியோவை	-6613
▁வேளையில்	-6614
▁கடிதத்தில்	-6615
▁தொழில்நுட்பம்	-6616
40	-6617
ir	-6618
ov	-6619
▁எத	-6620
▁நய	-6621
புர்	-6622
▁ஓரி	-6623
▁செள	-6624
▁மின	-6625
▁வாச	-6626
▁விவே	-6627
▁உற்சவ	-6628
▁கழகம்	-6629
▁கொந்த	-6630
▁பச்சை	-6631
▁ரமேஷ்	-6632
ையிலேயே	-6633
▁உற்சவம்	-6634
▁கொண்டாடி	-6635
▁செயற்பாடு	-6636
▁நடத்தியது	-6637
▁கட்சிகளும்	-6638
▁சட்டப்பேரவை	-6639
▁மேம்படுத்து	-6640
▁விமர்சித்து	-6641
▁திருநெல்வேலி	-6642
ஸ்ப	-6643
▁55	-6644
வேலு	-6645
▁கோட	-6646
▁டன்	-6647
▁பிக	-6648
▁மல்	-6649
▁ஆடிய	-6650
▁நேரி	-6651
▁ஆராய்	-6652
▁தன்மை	-6653
▁நகரம்	-6654
▁புதன்	-6655
▁வந்தன	-6656
ீஸ்வரர்	-6657
▁எரிவாய	-6658
▁கல்யாண	-6659
▁கருப்பு	-6660
▁மக்களவை	-6661
▁வாழ்ந்த	-6662
▁மாலையில்	-6663
▁எல்லோரும்	-6664
▁மேல்முறைய	-6665
▁புறப்பட்டு	-6666
▁போன்றவற்றை	-6667
▁குடியிருப்பு	-6668
▁பிரதிநிதிகள்	-6669
த்திருக்கிறார்	-6670
▁இருக்கும்போது	-6671
▁a	-6672
.00	-6673
▁ஏக்	-6674
▁அபாய	-6675
▁கிளை	-6676
▁கோடை	-6677
▁பழநி	-6678
கரிக்க	-6679
ஞ்சாலை	-6680
ட்சியை	-6681
தாகும்	-6682
▁பழக்க	-6683
▁இருவர்	-6684
▁கூற்று	-6685
ப்படாமல்	-6686
▁கட்டுரை	-6687
▁சகோதரர்	-6688
▁பிரான்ஸ்	-6689
▁பிரிவின்	-6690
▁அவர்களில்	-6691
▁கைப்பற்றி	-6692
▁புலனாய்வு	-6693
▁கட்டப்பட்ட	-6694
▁முயற்சியில்	-6695
▁முக்கியமானது	-6696
▁பெற்றுக்கொள்ள	-6697
▁உச்சநீதிமன்றம்	-6698
ம்பே	-6699
▁ஈடு	-6700
▁மீத	-6701
▁வறு	-6702
ங்காவ	-6703
சியாக	-6704
ிட்டி	-6705
ச்சார்	-6706
ப்பேன்	-6707
▁கூறின	-6708
▁தரிசன	-6709
▁நாடாக	-6710
▁விழாவ	-6711
▁நிதிஷ்	-6712
▁நிரூபி	-6713
தையடுத்து	-6714
▁உத்தரவிட	-6715
▁எக்ஸ்பிர	-6716
▁ஒருவரின்	-6717
▁செங்கல்ப	-6718
▁மக்களும்	-6719
திலிருந்து	-6720
▁ஓமிக்ரான்	-6721
▁குழந்தையை	-6722
▁சங்கத்தின்	-6723
▁முக்கியமாக	-6724
▁வாக்களிக்க	-6725
▁உள்ளதாகவும்	-6726
▁குழந்தையின்	-6727
▁செய்வதற்கான	-6728
▁இதற்கிடையில்	-6729
▁பயன்படுத்தும்	-6730
atan	-6731
ுவது	-6732
ல்தான்	-6733
▁குழும	-6734
▁மறக்க	-6735
▁யூனிய	-6736
▁யோசனை	-6737
▁அப்புற	-6738
▁தங்களை	-6739
▁பின்னடை	-6740
▁பிரிக்க	-6741
▁மாற்றிய	-6742
▁வைரலாகி	-6743
ர்களையும்	-6744
▁மட்டக்கள	-6745
ச்சந்திரன்	-6746
▁தமிழர்கள்	-6747
▁மக்களவைத்	-6748
▁கருத்துக்களை	-6749
▁கூறியுள்ளனர்	-6750
BC	-6751
மாற	-6752
னைக்	-6753
றேன்	-6754
▁195	-6755
▁அவச	-6756
▁ஆல்	-6757
▁2000	-6758
▁இச்ச	-6759
▁சுயே	-6760
▁பேட்	-6761
▁பாலின	-6762
▁சுரேஷ்	-6763
▁பட்டம்	-6764
▁மறந்து	-6765
▁மொபைல்	-6766
க்கொண்டே	-6767
ஸ்தானில்	-6768
▁அவ்வாறு	-6769
▁தமிழில்	-6770
▁பாராட்ட	-6771
▁அதற்குப்	-6772
▁சர்க்கரை	-6773
▁நீண்டகால	-6774
▁பாதையில்	-6775
▁கேள்விகள்	-6776
▁நெருங்கிய	-6777
த்துறையினர்	-6778
▁எதிர்பாராத	-6779
▁நாட்டிற்கு	-6780
▁வாக்குப்பதிவு	-6781
▁m	-6782
.10	-6783
ோதி	-6784
தல்ல	-6785
▁ஐடி	-6786
▁உடைய	-6787
▁உதவு	-6788
▁எதிர	-6789
▁எனச்	-6790
▁கடலோ	-6791
ட்டியே	-6792
ணைப்பு	-6793
லும்பு	-6794
ிகாப்ட	-6795
▁படைகள்	-6796
▁போன்றவ	-6797
▁ஊருக்கு	-6798
▁தினகரன்	-6799
▁வீரர்களை	-6800
▁எழுந்தருள	-6801
▁பகுதிக்கு	-6802
▁நூற்றாண்டு	-6803
ற்கா	-6804
ாலம்	-6805
▁மாட	-6806
▁அமர்	-6807
▁ஸார்	-6808
பகவான்	-6809
▁சாதிய	-6810
▁விரோத	-6811
லட்சுமி	-6812
ினாலும்	-6813
▁அணிகள்	-6814
▁கொடுமை	-6815
▁படிப்பு	-6816
▁முயன்று	-6817
▁முறையும்	-6818
ிருப்பதால்	-6819
▁இதன்மூலம்	-6820
▁வரும்போது	-6821
▁ஏற்படுகிறது	-6822
▁பழங்குடியின	-6823
ளின்	-6824
ிகர்	-6825
்ட்ட	-6826
▁மீள	-6827
ikatan	-6828
ம்பியா	-6829
▁அசோக்	-6830
▁தவறாக	-6831
▁மனுவை	-6832
ளவுக்கு	-6833
▁சத்தம்	-6834
▁ஜப்பான	-6835
▁அம்மாநில	-6836
▁கிடைத்து	-6837
▁முன்னெடு	-6838
▁ஹெலிகாப்ட	-6839
▁செய்வதற்காக	-6840
▁பாதிப்புகள்	-6841
நேய	-6842
▁2-	-6843
▁400	-6844
▁கில்	-6845
ட்ஸ்மே	-6846
▁நாளாக	-6847
▁தொல்லை	-6848
▁வல்லுந	-6849
▁அறையில்	-6850
▁தேசியக்	-6851
▁வாயிலாக	-6852
▁விவாதம்	-6853
▁வைத்தது	-6854
▁மறுபுறம்	-6855
▁இருந்தவர்	-6856
▁உதவியுடன்	-6857
▁செலுத்திய	-6858
▁வேண்டுமானாலும்	-6859
னஸ்	-6860
லத்தை	-6861
வைகள்	-6862
ாரில்	-6863
▁ஊக்க	-6864
▁கந்த	-6865
▁கூகு	-6866
▁பென்	-6867
▁போரை	-6868
▁ஸ்கூ	-6869
▁ஹீரோ	-6870
சுவாமி	-6871
▁தலைநக	-6872
▁மோதிய	-6873
▁அரசும்	-6874
▁வாட்ஸ்	-6875
▁கொள்வது	-6876
▁பிரசாத்	-6877
▁விளைவாக	-6878
▁வெளிச்ச	-6879
▁குற்றச்சா	-6880
▁சாம்பியன்	-6881
▁காரைக்கால்	-6882
▁கோவில்களில்	-6883
▁இருவருக்கும்	-6884
ce	-6885
மேல்	-6886
ரிஸ்	-6887
▁ஐஸ்	-6888
▁சரத்	-6889
▁பலம்	-6890
▁பேரி	-6891
▁ஸ்ட்	-6892
▁அவமதி	-6893
▁எழுது	-6894
▁கார்க	-6895
▁சத்தீ	-6896
▁சந்தோஷ	-6897
▁ஊர்வலம்	-6898
▁சிசிடிவி	-6899
▁டிக்கெட்	-6900
▁தீர்ப்பை	-6901
▁பிரபலமான	-6902
▁பிரிந்து	-6903
▁குழுக்கள்	-6904
▁நெடுஞ்சாலை	-6905
▁பராமரிப்பு	-6906
▁இருப்பார்கள்	-6907
▁சொல்கிறார்கள்	-6908
▁தரவு	-6909
கங்கள்	-6910
▁கணபதி	-6911
▁பெய்து	-6912
▁மாத்திர	-6913
▁வெள்ளம்	-6914
▁பேரறிவாள	-6915
▁தரப்பினர்	-6916
▁வருவதற்கு	-6917
▁மும்பையில்	-6918
▁கண்காணிப்பாளர்	-6919
?"	-6920
ளான	-6921
▁ஜடே	-6922
▁ட்ர	-6923
ார்க்	-6924
▁News	-6925
▁படுக	-6926
▁பவர்	-6927
▁ஹாரி	-6928
▁ஈரான்	-6929
▁குண்ட	-6930
▁அவரும்	-6931
▁இவர்கள	-6932
▁கண்ணீர்	-6933
▁பள்ளிகள்	-6934
▁அப்போதுதான்	-6935
▁செய்தியாளர்	-6936
▁அதுமட்டுமல்ல	-6937
▁போராட்டங்கள்	-6938
▁வாய்ப்புள்ளது	-6939
os	-6940
படு	-6941
மாதி	-6942
ம்போ	-6943
▁பது	-6944
▁வரவ	-6945
▁ஆதீன	-6946
▁பிசி	-6947
▁பெய்த	-6948
▁ராஜ்ய	-6949
▁வாழ்வ	-6950
▁சுந்தர	-6951
ற்றையும்	-6952
▁அதுதான்	-6953
▁ஆந்திரா	-6954
▁ஏக்நாத்	-6955
▁தலையில்	-6956
▁பணிக்கு	-6957
▁பண்டிகை	-6958
▁ரீதியான	-6959
▁அர்ப்பணி	-6960
▁உள்ளதால்	-6961
▁பேட்ஸ்மே	-6962
▁பொதுக்கூ	-6963
▁மீன்பிடி	-6964
▁வருகின்ற	-6965
▁தெலங்கானா	-6966
▁இல்லாததால்	-6967
▁நடத்தினார்	-6968
▁விமானத்தில்	-6969
▁பாகிஸ்தானில்	-6970
▁அளித்துள்ளார்	-6971
▁உருவாக்கப்பட்ட	-6972
ia	-6973
ளைய	-6974
வல்	-6975
ிர்த	-6976
னக்கு	-6977
▁கிங்	-6978
மெண்ட்	-6979
▁அத்து	-6980
▁ஆஜராக	-6981
▁ஒப்பி	-6982
▁ஜெகன்	-6983
▁பசுமை	-6984
▁பாண்ட	-6985
▁லக்னோ	-6986
▁நோயாளி	-6987
▁இரும்பு	-6988
▁காட்சிய	-6989
▁ராமதாஸ்	-6990
▁விடுக்க	-6991
நேரத்தில்	-6992
▁லட்சத்து	-6993
ப்போகிறார்	-6994
▁பிடிக்கும்	-6995
▁குழந்தைகளின்	-6996
▁வைக்கப்பட்டது	-6997
ென்	-6998
னான்	-6999
▁தரை	-7000
▁திச	-7001
வாகும்	-7002
ாட்டிய	-7003
ட்சியாக	-7004
ப்பட்டி	-7005
▁எல்லாவ	-7006
▁சத்திய	-7007
▁நிலக்க	-7008
▁மாநகரா	-7009
▁விதமான	-7010
▁அபராதம்	-7011
▁உத்தரவை	-7012
▁முறையான	-7013
▁கிரிக்கெ	-7014
▁நிலவுகிறது	-7015
▁உறுப்பினராக	-7016
▁காட்டுகிறது	-7017
▁விவசாயிகளுக்கு	-7018
மாய	-7019
▁லூ	-7020
வரிச	-7021
▁ஹர்	-7022
வைக்க	-7023
▁இரான	-7024
▁சரண்	-7025
வெட்டு	-7026
ீர்களா	-7027
▁கடலோர	-7028
▁வரவழை	-7029
▁உடல்நல	-7030
▁மதுபான	-7031
விட்டேன்	-7032
▁இலக்கிய	-7033
▁ரிசர்வ்	-7034
▁அவற்றில்	-7035
▁இதுபற்றி	-7036
▁நிரூபிக்க	-7037
▁நிறுவனமான	-7038
▁கலந்துகொண்டு	-7039
பல்	-7040
முனை	-7041
▁அவு	-7042
▁போர	-7043
▁யுவ	-7044
துவாக	-7045
ாவைச்	-7046
ட்பட்ட	-7047
த்தொகை	-7048
▁உயிரு	-7049
▁சமூகவ	-7050
▁தமிழி	-7051
▁பிரேத	-7052
▁புண்ண	-7053
▁மாறும்	-7054
▁ஏற்றுக்	-7055
▁என்கிறது	-7056
▁புகாரின்	-7057
▁மாட்டோம்	-7058
▁இருப்பார்	-7059
▁கொண்டாட்ட	-7060
▁விண்ணப்பி	-7061
▁இடம்பெற்று	-7062
கிழ	-7063
ராத	-7064
மிர்	-7065
ட்களை	-7066
ாரும்	-7067
▁சீட்	-7068
▁உயர்க	-7069
▁நெரிச	-7070
▁முன்கூ	-7071
▁அறிவுறு	-7072
▁ஆபத்தான	-7073
▁இணைப்பு	-7074
▁கடினமான	-7075
▁கண்ணாடி	-7076
▁ஆவணங்கள்	-7077
▁செய்வதாக	-7078
த்துக்குள்	-7079
▁முடிவுகளை	-7080
▁உருவாக்கிய	-7081
▁கட்சிகளின்	-7082
▁செலுத்தும்	-7083
▁அக்கட்சியின்	-7084
▁அமைக்கப்பட்ட	-7085
▁சென்றுள்ளார்	-7086
▁புதுக்கோட்டை	-7087
மிட	-7088
த்தோ	-7089
மாக்	-7090
▁சுர	-7091
லாமல்	-7092
▁உணவக	-7093
▁கிரா	-7094
▁கொடூ	-7095
▁தகரா	-7096
▁பணவீ	-7097
▁அதைச்	-7098
▁நன்கொ	-7099
படுத்து	-7100
▁அரங்கே	-7101
▁அமித்ஷா	-7102
ள்ளதாகவும்	-7103
விருக்கும்	-7104
▁காரணங்கள்	-7105
▁பட்டியலின	-7106
▁விருப்பம்	-7107
▁போராட்டத்தை	-7108
க்கப்பட்டுள்ளார்	-7109
ஜன	-7110
மட்ட	-7111
▁கான	-7112
▁வரத	-7113
▁இவ்வ	-7114
▁பிழை	-7115
▁மூளை	-7116
▁ஃபார்	-7117
▁தேங்க	-7118
▁சூர்யா	-7119
▁டிடிவி	-7120
▁நடுத்த	-7121
▁விரைவாக	-7122
▁அப்பகுதி	-7123
▁தோல்வியை	-7124
▁நன்மைகள்	-7125
▁அன்னதானம்	-7126
▁இஸ்ரேலின்	-7127
▁தேதியன்று	-7128
வருகின்றனர்	-7129
▁மேற்கத்திய	-7130
▁திருமாவளவன்	-7131
▁ஸ்தானத்தில்	-7132
▁என்னவென்றால்	-7133
▁கட்டுப்பாடுகள்	-7134
ஜின	-7135
தாப	-7136
ூறு	-7137
ாளரை	-7138
▁நண்	-7139
பாட்ட	-7140
மாகத்	-7141
▁சேர்	-7142
▁லீக்	-7143
சித்தி	-7144
ப்பெரு	-7145
வருடன்	-7146
▁சசிகல	-7147
▁சூர்ய	-7148
▁தோற்க	-7149
▁கமிட்டி	-7150
த்திலுள்ள	-7151
த்துறையின்	-7152
▁ராமேஸ்வரம்	-7153
▁சிகிச்சைக்காக	-7154
9-	-7155
▁(3	-7156
▁38	-7157
,500	-7158
▁மரப	-7159
▁புகு	-7160
பாட்டை	-7161
ாளிக்க	-7162
▁ஒட்டி	-7163
▁கொரிய	-7164
▁முதலே	-7165
▁வழிநட	-7166
▁ஆர்எஸ்	-7167
▁இவரின்	-7168
▁விரதம்	-7169
பாத்தில்	-7170
ப்படலாம்	-7171
▁உட்கார்	-7172
▁ஊரடங்கு	-7173
▁தலைவரான	-7174
▁திறப்பு	-7175
▁தொழிலதி	-7176
▁அமைந்தது	-7177
▁ஊர்வலமாக	-7178
▁வாங்கும்	-7179
▁அதிரடியாக	-7180
▁எங்களிடம்	-7181
▁கொடுத்தது	-7182
▁பிறந்தநாள்	-7183
▁செயல்பாடுகள்	-7184
▁உத்தரவிட்டார்	-7185
▁மகாராஷ்டிராவில்	-7186
ினை	-7187
ப்பர	-7188
▁194	-7189
▁டக்	-7190
▁அதேச	-7191
▁இவரை	-7192
▁சில்	-7193
த்தையே	-7194
▁போதிய	-7195
▁ஒற்றுமை	-7196
▁ஒற்றைத்	-7197
▁குறுகிய	-7198
▁பன்னீர்	-7199
▁அங்கீகரி	-7200
▁இன்ஸ்டாக	-7201
▁நோக்கில்	-7202
▁பாலத்தீன	-7203
▁மாவட்டச்	-7204
த்துறையில்	-7205
▁சுவாமிகள்	-7206
▁நாட்டுக்கு	-7207
▁முன்னுரிமை	-7208
▁உயர்ந்துள்ளது	-7209
▁செய்யப்படுகிறது	-7210
6-	-7211
▁U	-7212
ப்ரா	-7213
ஷிப்	-7214
▁the	-7215
▁கலச	-7216
▁கையா	-7217
▁ஆனந்த	-7218
▁போனது	-7219
வர்தான்	-7220
▁பொழுது	-7221
▁மறுத்த	-7222
▁அகிலேஷ்	-7223
▁வரவேற்ற	-7224
▁ஆதிக்கம்	-7225
▁முன்னிலை	-7226
▁வழக்குப்	-7227
▁சுக்கிரன்	-7228
▁மையத்தில்	-7229
▁நிறைவேற்று	-7230
▁படிப்படியாக	-7231
▁அப்பகுதியில்	-7232
▁செய்கிறார்கள்	-7233
ரித	-7234
▁3-	-7235
▁44	-7236
ற்றொ	-7237
▁கிஷ	-7238
▁குட	-7239
கிறதா	-7240
லிங்க	-7241
ட்டுப்	-7242
▁ஆலோசக	-7243
▁கோபம்	-7244
▁கோரிய	-7245
▁விவாக	-7246
▁இயங்கி	-7247
▁வாரிசு	-7248
▁பாக்கிய	-7249
▁விருந்த	-7250
ியுள்ளதாக	-7251
▁மாணவர்கள	-7252
▁வழக்கின்	-7253
▁விலையில்	-7254
▁கொள்முதல்	-7255
▁தேரோட்டம்	-7256
▁பதவியேற்ற	-7257
▁தொடங்கினர்	-7258
▁பாதுகாப்பான	-7259
▁அழைக்கப்படும்	-7260
போன	-7261
▁34	-7262
ப்பன	-7263
ம்பை	-7264
ரேட்	-7265
▁கிண	-7266
க்குற	-7267
ண்டல்	-7268
▁கோட்	-7269
▁புரிய	-7270
கள்தான்	-7271
▁துவங்க	-7272
▁ரெண்டு	-7273
▁விலையை	-7274
▁கடத்தல்	-7275
▁பழக்கம்	-7276
▁பொதுவான	-7277
▁குறைபாடு	-7278
▁பங்கேற்ப	-7279
▁முறைகேடு	-7280
▁வங்கியின்	-7281
▁செய்யப்படு	-7282
▁புற்றுநோய்	-7283
▁வழிபட்டனர்	-7284
▁பெற்றோர்கள்	-7285
▁கிடைத்துள்ளது	-7286
▁சுகாதாரத்துறை	-7287
▁தாக்குதலுக்கு	-7288
ரச	-7289
க்ட்	-7290
லான்	-7291
ஸ்கி	-7292
ஸ்து	-7293
ாவதி	-7294
ுக்க	-7295
ல்லிய	-7296
▁கிளா	-7297
க்கின்	-7298
▁எவ்வித	-7299
▁ட்வீட்	-7300
லிருந்து	-7301
வுக்குப்	-7302
▁கடற்கரை	-7303
▁விளக்கம	-7304
▁அக்கட்சி	-7305
▁சமாளிக்க	-7306
▁செய்ததாக	-7307
▁தொலைபேசி	-7308
▁பிரமாண்ட	-7309
▁மாட்டேன்	-7310
▁வந்தபோது	-7311
▁வெளியிடு	-7312
▁துறைகளில்	-7313
▁எக்ஸ்பிரஸ்	-7314
▁விமானங்கள்	-7315
▁நடவடிக்கையை	-7316
▁நிலநடுக்கம்	-7317
மண	-7318
.50	-7319
சிங்	-7320
ப்பெய	-7321
▁மிஸ்	-7322
ப்படம்	-7323
▁சவால்	-7324
▁விவரி	-7325
ாலத்தில்	-7326
▁திருவார	-7327
▁வங்கிக்	-7328
▁இந்தியப்	-7329
▁சாப்பிடு	-7330
▁சீனாவில்	-7331
▁தேர்ச்சி	-7332
▁வனத்துறை	-7333
▁செய்யவும்	-7334
▁தீர்மானிக்க	-7335
▁பெரும்பான்மை	-7336
ஆக	-7337
▁நம	-7338
சூர்	-7339
▁ஆள்	-7340
ரேஷன்	-7341
▁காசா	-7342
▁கிளி	-7343
▁கொழு	-7344
▁சிம்ம	-7345
▁சிற்ப	-7346
▁நேர்க	-7347
▁இலக்கை	-7348
▁கிடந்த	-7349
▁கலாநிதி	-7350
▁சொன்னது	-7351
▁தீபாவளி	-7352
ந்துவீச்ச	-7353
▁அதிர்ஷ்ட	-7354
▁ஆங்கிலேய	-7355
▁திரும்பப்	-7356
▁வகையிலும்	-7357
களிலிருந்து	-7358
▁இயக்கத்தில்	-7359
▁தமிழ்நாட்டை	-7360
▁நிதியமைச்சர்	-7361
▁கூறுகிறார்கள்	-7362
ig	-7363
கவிய	-7364
லைத்	-7365
ையமை	-7366
▁சரண	-7367
▁மேய	-7368
ாமில்	-7369
▁ராய்	-7370
▁அதைக்	-7371
▁அவமான	-7372
▁கோத்த	-7373
▁சீர்த	-7374
ம்பட்டி	-7375
▁உடைத்து	-7376
▁சிலைகள்	-7377
▁பங்குனி	-7378
▁கடற்படைய	-7379
▁தலைவருமான	-7380
▁முயற்சிகளை	-7381
▁செங்கல்பட்டு	-7382
▁போட்டியிடும்	-7383
▁வழங்கியுள்ளது	-7384
ுய	-7385
▁நீள	-7386
▁ரகு	-7387
▁ஹசீ	-7388
க்கப்	-7389
தத்தை	-7390
▁கடனை	-7391
▁சிக்	-7392
▁மாடு	-7393
▁ராவ்	-7394
மென்ட்	-7395
்களால்	-7396
▁ஊடகவிய	-7397
▁சமூகம்	-7398
▁எலும்பு	-7399
▁சிவகங்கை	-7400
▁வழங்கியது	-7401
▁கண்டிப்பாக	-7402
▁பயன்படுத்திய	-7403
▁மட்டக்களப்பு	-7404
▁நாடுகளுக்கும்	-7405
நல்ல	-7406
ஸ்தி	-7407
▁கோஷ	-7408
ஸ்திர	-7409
▁சிலி	-7410
சியின்	-7411
▁குறிய	-7412
▁கெட்ட	-7413
▁விஸ்வ	-7414
▁ஷர்மா	-7415
ுவதற்கு	-7416
▁ஈபிஎஸ்	-7417
▁உத்திர	-7418
▁ஊழியர்	-7419
▁கடவுள்	-7420
▁தென்னா	-7421
▁நண்பர்	-7422
▁முட்டை	-7423
▁ரெய்டு	-7424
▁இதன்படி	-7425
▁கட்டமாக	-7426
▁குரங்கு	-7427
▁கூறுவது	-7428
▁சிவப்பு	-7429
▁மாநிலத்	-7430
▁அதேசமயம்	-7431
▁நிகழ்ந்த	-7432
▁பகிர்ந்த	-7433
▁உருவாக்கும்	-7434
▁போட்டியிட்டு	-7435
▁மகிழ்ச்சியாக	-7436
▁முன்கூட்டியே	-7437
▁நிறுவனங்களில்	-7438
▁வருடங்களுக்கு	-7439
7-	-7440
தன	-7441
மர	-7442
மனை	-7443
்யா	-7444
▁ஜு	-7445
யான்	-7446
ள்ளை	-7447
▁பன்	-7448
மிட்ட	-7449
மோகன்	-7450
▁நெறி	-7451
▁புல்	-7452
மையின்	-7453
▁இலக்க	-7454
▁கையாள	-7455
▁தென்ன	-7456
▁அச்சம்	-7457
▁சங்கர்	-7458
▁தொடர்க	-7459
▁செலவில்	-7460
▁வென்றது	-7461
▁ஆதித்யநாத்	-7462
▁கெஜ்ரிவால்	-7463
▁பலாத்காரம்	-7464
▁பார்த்துக்	-7465
▁உத்தரவிட்டது	-7466
ீத	-7467
▁தில	-7468
▁நுழ	-7469
▁பெர	-7470
வதைத்	-7471
▁கூலி	-7472
பெரும்	-7473
▁ஆடியோ	-7474
▁செந்த	-7475
▁எந்தத்	-7476
▁குழுவை	-7477
▁படுத்த	-7478
▁மேலதிக	-7479
▁உத்தரகா	-7480
▁உறுப்பு	-7481
▁எப்படிய	-7482
▁சின்னம்	-7483
▁முன்மொழி	-7484
▁வாக்கெடு	-7485
▁என்பதற்கு	-7486
▁செய்யாமல்	-7487
▁சமூகத்தில்	-7488
▁சுற்றியுள்ள	-7489
▁பொறுப்பேற்ற	-7490
▁இருப்பவர்கள்	-7491
▁உயிரிழந்தார்	-7492
▁போதைப்பொருள்	-7493
▁உயர்நீதிமன்றம்	-7494
ிகோ	-7495
ூப்	-7496
▁ஜய	-7497
ர்கா	-7498
ியாகி	-7499
▁ஓவிய	-7500
▁சத்ய	-7501
ந்திரா	-7502
மார்ட்	-7503
ளிப்பு	-7504
▁ஆதரவை	-7505
▁சமூகவலை	-7506
▁நுழைந்த	-7507
▁பந்தில்	-7508
▁இழப்பீடு	-7509
▁என்பதைக்	-7510
▁பிரச்சின	-7511
▁பிரார்த்த	-7512
▁மருந்துகள்	-7513
▁இடங்களுக்கு	-7514
▁என்கின்றனர்	-7515
▁குஜராத்தில்	-7516
▁வெளியிட்டது	-7517
▁இப்படிப்பட்ட	-7518
ம்ச	-7519
▁கோல	-7520
▁பாடி	-7521
த்தவர்	-7522
வினால்	-7523
▁இதைப்	-7524
▁தானம்	-7525
லிங்கம்	-7526
▁அவரால்	-7527
▁வெயில்	-7528
லுக்கும்	-7529
▁எரிவாயு	-7530
▁பட்டாசு	-7531
த்தின்போது	-7532
ப்பூர்வமாக	-7533
▁கூறப்படும்	-7534
▁பிளாஸ்டிக்	-7535
▁சிங்கப்பூர்	-7536
▁அமைச்சரவையில்	-7537
▁லட்சக்கணக்கான	-7538
ul	-7539
▁39	-7540
▁பச	-7541
ெய்ய	-7542
▁இலை	-7543
▁களை	-7544
▁மஹா	-7545
▁2013	-7546
கர்கள்	-7547
ாயிரம்	-7548
▁ஆயுள்	-7549
மங்கலம்	-7550
▁காணொளி	-7551
▁பரவலாக	-7552
▁பிரம்மா	-7553
▁பணிகளில்	-7554
▁சான்றிதழ்	-7555
▁சென்றபோது	-7556
▁விளையாடிய	-7557
▁உத்தரவிட்ட	-7558
▁கருத்துகள்	-7559
▁பட்சத்தில்	-7560
▁மருத்துவம்	-7561
▁சட்டசபையில்	-7562
▁தலைவர்களும்	-7563
▁நினைக்கிறேன்	-7564
▁தெரியவந்துள்ளது	-7565
மீக	-7566
ஷ்ணா	-7567
▁தார	-7568
▁மேக	-7569
காசம்	-7570
▁காசி	-7571
▁வாதி	-7572
விலும்	-7573
▁ஊரில்	-7574
▁ஓரிரு	-7575
▁டைட்ட	-7576
▁சமையல்	-7577
▁தமிழிசை	-7578
▁லிட்டர்	-7579
ிருப்பார்	-7580
▁அமைதியாக	-7581
▁கொண்டாடு	-7582
▁தொழிலில்	-7583
▁பாராட்டி	-7584
▁பொறுத்து	-7585
▁ஒலிம்பியா	-7586
▁சீதாராமன்	-7587
▁தீயணைப்பு	-7588
▁வழங்குவது	-7589
▁வெப்பநிலை	-7590
▁பலருக்கும்	-7591
▁மதிப்பிலான	-7592
▁திருக்கல்யாண	-7593
5-	-7594
ஞ்ச்	-7595
னேஷ்	-7596
ராக்	-7597
▁உபக	-7598
▁தரைய	-7599
த்தினை	-7600
▁2019-	-7601
▁உப்பு	-7602
▁கூடவே	-7603
ச்சத்து	-7604
▁அன்புமணி	-7605
▁மூர்த்தி	-7606
▁மேலாண்மை	-7607
▁நிச்சயமாக	-7608
▁எம்எல்ஏக்கள்	-7609
▁தேர்ந்தெடுக்க	-7610
4)	-7611
th	-7612
ரையை	-7613
ஷ்ணு	-7614
▁காஸ	-7615
▁நபி	-7616
ம்கூட	-7617
றிந்த	-7618
▁அஷ்ட	-7619
▁சிதை	-7620
▁விசா	-7621
த்திறன	-7622
ப்பதன்	-7623
▁எம்ஜி	-7624
▁ரஜினி	-7625
▁கடற்றொ	-7626
▁நேட்டோ	-7627
்களிலும்	-7628
▁அப்துல்	-7629
▁பெருமாள	-7630
▁நாமக்கல்	-7631
▁முதலாவது	-7632
▁பிரதமரின்	-7633
▁சட்டத்தில்	-7634
▁பங்களிப்பு	-7635
▁வெற்றிக்கு	-7636
▁வலியுறுத்திய	-7637
▁அதிகாரப்பூர்வ	-7638
▁எழுதியுள்ளார்	-7639
▁பொதுக்குழுவில்	-7640
னெ	-7641
▁42	-7642
▁மகே	-7643
த்திட	-7644
ாவாசை	-7645
ிலில்	-7646
▁கங்க	-7647
▁டிரா	-7648
▁பில்	-7649
யிற்சி	-7650
▁பணிபு	-7651
▁பாரதி	-7652
மையுடன்	-7653
▁ஆற்றல்	-7654
▁சடங்கு	-7655
▁தீட்சி	-7656
▁தயாராகி	-7657
▁போட்டியை	-7658
▁அதையடுத்து	-7659
▁அறிகுறிகள்	-7660
▁இடைத்தேர்த	-7661
ப்படுகிறார்கள்	-7662
▁நீதிமன்றத்தின்	-7663
▁நூற்றுக்கணக்கான	-7664
!"	-7665
சகர்	-7666
வானி	-7667
ிகேய	-7668
▁இதர	-7669
▁ஹேம	-7670
வைத்த	-7671
வையாக	-7672
▁காடு	-7673
▁ஜின்	-7674
▁நுகர்	-7675
▁பவார்	-7676
▁மகேஷ்	-7677
▁இழப்பு	-7678
▁கார்டு	-7679
▁சேரும்	-7680
▁Vikatan	-7681
▁சுவாரஸ்	-7682
▁நடுத்தர	-7683
▁துறையினர்	-7684
பவர்களுக்கு	-7685
ப்படுகிறார்	-7686
▁இருவரையும்	-7687
▁உள்ளிட்டவை	-7688
▁பாதுகாப்பை	-7689
ப்பட்டிருந்த	-7690
▁அடிப்படையாக	-7691
▁நாள்களுக்கு	-7692
▁விஞ்ஞானிகள்	-7693
▁வலியுறுத்தினார்	-7694
டெ	-7695
நெ	-7696
ாட	-7697
▁to	-7698
▁108	-7699
▁காச	-7700
திமுக	-7701
▁துரோ	-7702
▁நடமா	-7703
▁நீரி	-7704
▁மாசி	-7705
▁மாசு	-7706
வதாகக்	-7707
▁ஆம்பு	-7708
▁கடத்தி	-7709
▁பஞ்சாய	-7710
▁ஆய்வில்	-7711
▁துல்லிய	-7712
▁நாள்கள்	-7713
▁ஓய்வூதிய	-7714
▁கவனித்து	-7715
▁தலைவர்களை	-7716
▁பாஜகவினர்	-7717
▁மனிதர்கள்	-7718
▁இருக்கிறதா	-7719
▁அதிகபட்சமாக	-7720
▁திருவள்ளூர்	-7721
▁வேண்டியிருந்தது	-7722
..?	-7723
▁எழ	-7724
▁அடு	-7725
ப்பணி	-7726
ையற்ற	-7727
▁ஆவது	-7728
▁மேடை	-7729
▁தாங்க	-7730
▁தொல்ல	-7731
னுக்காக	-7732
ுவையில்	-7733
▁வருவதை	-7734
▁விவாகர	-7735
▁அமாவாசை	-7736
▁மண்டபம்	-7737
▁நிறுத்து	-7738
▁பழங்குடி	-7739
▁இஸ்ரேலுக்கு	-7740
▁கிராமத்தைச்	-7741
▁எண்ணிக்கையில்	-7742
▁விரும்புகிறேன்	-7743
ிண	-7744
ர்ஸ்	-7745
ள்ளா	-7746
▁எளிய	-7747
▁ட்ரோ	-7748
மேற்கு	-7749
▁நவீன்	-7750
முறைகள்	-7751
ம்பரில்	-7752
ீட்டில்	-7753
▁பிரகாஷ்	-7754
▁இந்நிகழ்	-7755
▁குறைத்து	-7756
▁பழனிவேல்	-7757
▁இயக்குனர்	-7758
▁சர்ச்சையை	-7759
▁பொறியியல்	-7760
▁புகழ்பெற்ற	-7761
▁குற்றவாளிகள்	-7762
,0	-7763
மனு	-7764
ப்பொ	-7765
▁சகல	-7766
▁வைப	-7767
பந்து	-7768
▁கோவா	-7769
▁வாழை	-7770
ர்ப்பு	-7771
▁கழிவு	-7772
▁சமாளி	-7773
த்தொடர்	-7774
▁அணிவகு	-7775
▁ஈர்க்க	-7776
▁உயிரின	-7777
▁கடைகள்	-7778
▁தரையிற	-7779
▁துண்டு	-7780
▁தென்னி	-7781
▁பூங்கா	-7782
▁வகிக்க	-7783
▁அத்துமீ	-7784
▁அறிவுரை	-7785
▁உத்தரப்	-7786
▁சாதகமான	-7787
▁நிலத்தை	-7788
▁பிரிவின	-7789
ிருந்தேன்	-7790
▁பகுதிகளை	-7791
▁நான்காவது	-7792
▁உள்ளடக்கிய	-7793
▁கார்த்திக்	-7794
▁நகரங்களில்	-7795
ப்படுத்துவது	-7796
▁வந்துள்ளனர்	-7797
▁வேண்டுமென்ற	-7798
▁மாற்றுத்திறன	-7799
▁வெளியிட்டார்	-7800
▁எதிர்கொள்ளும்	-7801
▁செய்தியாளர்கள்	-7802
im	-7803
ஷ்க	-7804
ாவே	-7805
துரை	-7806
மிக்	-7807
▁தேட	-7808
வருமே	-7809
▁தவறி	-7810
▁வாஷி	-7811
▁வியூ	-7812
▁அரங்க	-7813
▁அவுட்	-7814
▁ஓட்டி	-7815
▁குத்த	-7816
▁துரித	-7817
▁போஸ்ட	-7818
▁வேதனை	-7819
ட்டியது	-7820
ராகவும்	-7821
▁ஆத்திர	-7822
ற்றுக்கு	-7823
▁இன்ஸ்பெ	-7824
▁எளிதில்	-7825
▁சச்சின்	-7826
▁பதிவில்	-7827
▁புலிகள்	-7828
ப்பவர்கள்	-7829
▁இன்றைக்கு	-7830
▁இப்போதும்	-7831
▁சீனிவாசன்	-7832
▁விரும்புவ	-7833
▁ஹைதராபாத்	-7834
▁முன்வைத்து	-7835
▁அடுத்தடுத்த	-7836
▁வழங்கப்பட்டு	-7837
ருவ	-7838
விவ	-7839
வாரா	-7840
▁பாச	-7841
▁ரத்	-7842
▁அரைய	-7843
▁மான்	-7844
▁உபகரண	-7845
▁வியாப	-7846
▁வெட்ட	-7847
▁அந்நிய	-7848
▁ஆச்சர்	-7849
▁ஆதீனம்	-7850
▁குப்பை	-7851
▁நாளும்	-7852
▁மறுப்பு	-7853
▁வாய்ப்ப	-7854
▁தலைவர்கள	-7855
▁தேசியவாத	-7856
▁மீனாட்சி	-7857
▁பிறகுதான்	-7858
▁சுற்றுப்பய	-7859
▁தெலுங்கானா	-7860
▁பேரூராட்சி	-7861
▁பொதுச்செயல	-7862
▁ரூபாய்க்கு	-7863
▁குழந்தைக்கு	-7864
▁தமிழ்நாட்டு	-7865
▁செய்துவிட்டு	-7866
▁பாகிஸ்தானின்	-7867
▁செய்திருந்தார்	-7868
▁அறிவித்துள்ளார்	-7869
▁வெளியுறவுத்துறை	-7870
இன்	-7871
▁வத	-7872
தியு	-7873
▁ஓம்	-7874
▁கோவி	-7875
▁பாக்	-7876
▁வார்	-7877
ம்பூர்	-7878
விலில்	-7879
▁மானிய	-7880
ட்டுகளை	-7881
லுக்காக	-7882
▁ஒன்றரை	-7883
▁மிரட்ட	-7884
▁முழங்க	-7885
▁மெட்ரோ	-7886
▁வருவாய	-7887
ிருப்பதை	-7888
▁வெறுப்பு	-7889
▁பிரசித்தி	-7890
ாவிலிருந்து	-7891
▁கருத்துகளை	-7892
▁சுற்றுலாப்	-7893
▁தியாகராஜன்	-7894
▁நிலைப்பாட்டை	-7895
▁நிஜ	-7896
▁ரவு	-7897
▁இருப	-7898
▁முளை	-7899
டிக்கு	-7900
▁கோலாக	-7901
▁வாழ்க	-7902
ியையும்	-7903
▁அரசால்	-7904
▁நுழைவு	-7905
▁பிரபாக	-7906
▁புதன்க	-7907
▁மதிக்க	-7908
களின்படி	-7909
▁அமைந்து	-7910
▁சுத்தம்	-7911
▁பயணிக்க	-7912
▁பேசுவது	-7913
▁முழுவது	-7914
▁ஹர்திக்	-7915
▁இன்னமும்	-7916
▁நிற்கும்	-7917
▁அளிக்கப்பட்டது	-7918
▁விடுத்துள்ளார்	-7919
நாக	-7920
▁65	-7921
வியா	-7922
▁10-	-7923
▁ஆலை	-7924
தமிழ்	-7925
▁சூதா	-7926
▁நஷ்ட	-7927
நிலையை	-7928
பிரதேச	-7929
▁அகமது	-7930
▁அதுவே	-7931
▁ஆடுகள	-7932
▁பந்தை	-7933
▁மஸ்க்	-7934
▁விகடன்	-7935
▁அந்தந்த	-7936
▁ஜார்க்க	-7937
▁யூனியன்	-7938
ல்களுக்கு	-7939
▁எனக்குத்	-7940
▁நாளைக்கு	-7941
▁ஸ்மார்ட்	-7942
▁அலுவல்கள்	-7943
▁இருந்ததாக	-7944
▁பிரச்னையை	-7945
▁விவரங்கள்	-7946
▁கிராமப்புற	-7947
▁சாப்பிட்டு	-7948
▁போட்டியின்	-7949
▁எதிர்கொண்டு	-7950
▁ஒலிம்பியாட்	-7951
▁சிறுத்தைகள்	-7952
▁புதுப்பிக்க	-7953
▁வாக்குவாதம்	-7954
▁மேற்கொண்டார்	-7955
▁வாரங்களுக்கு	-7956
▁விண்ணப்பிக்க	-7957
▁நிறுவனங்களுக்கு	-7958
▁வழங்கப்படுகிறது	-7959
em	-7960
வரா	-7961
▁புட	-7962
எஸ்டி	-7963
▁சதம்	-7964
▁தாம்	-7965
▁தூய்	-7966
▁விடை	-7967
க்காடு	-7968
▁உடன்ப	-7969
▁நியூய	-7970
▁மனோஜ்	-7971
▁வெகுவ	-7972
ியாவில்	-7973
▁அவரைப்	-7974
▁பதிவான	-7975
ிடத்தில்	-7976
▁அரசிடம்	-7977
▁கொழும்ப	-7978
▁மனுவில்	-7979
▁உணர்ந்து	-7980
▁நிவாரணம்	-7981
▁பாலஸ்தீன	-7982
ப்பதற்கும்	-7983
ர்களுக்கான	-7984
விட்டாலும்	-7985
▁வருகிறேன்	-7986
▁கட்டமைப்பு	-7987
▁சிக்கல்கள்	-7988
▁நிலைப்பாடு	-7989
▁இடஒதுக்கீடு	-7990
▁வலியுறுத்து	-7991
▁வெள்ளத்தில்	-7992
▁பார்க்கும்போது	-7993
ஜக	-7994
▁அஜ	-7995
▁உன்	-7996
▁ஹவு	-7997
▁சத்த	-7998
▁சரிச	-7999
▁பகல்	-8000
த்தேன்	-8001
போர்ட்	-8002
▁தலித்	-8003
▁தாமரை	-8004
▁திறமை	-8005
▁பிளவு	-8006
▁வழிபட	-8007
▁கமிஷனர்	-8008
▁தனித்து	-8009
▁ஆலோசனைக்	-8010
▁இவ்வாறான	-8011
▁அமைக்கும்	-8012
▁வாரத்தில்	-8013
▁விவரங்களை	-8014
சுப்பிரமணிய	-8015
▁மாநிலங்கள்	-8016
▁மறுசீரமைப்பு	-8017
▁பல்கலைக்கழகம்	-8018
4-	-8019
யை	-8020
ாஜ்	-8021
▁5-	-8022
▁கசி	-8023
▁கமலா	-8024
▁மலர்	-8025
▁அவங்க	-8026
▁காக்க	-8027
▁ஜடேஜா	-8028
▁நீர்ம	-8029
▁பாலம்	-8030
▁சரவணன்	-8031
▁இம்முறை	-8032
▁வீழ்த்தி	-8033
▁ஆகியோரின்	-8034
▁திருத்தம்	-8035
▁வாக்குகளை	-8036
▁அம்பேத்கர்	-8037
▁தேவைப்படும்	-8038
▁வாகனங்களில்	-8039
யே	-8040
றா	-8041
ிரத	-8042
அந்த	-8043
பிசி	-8044
ஸும்	-8045
ுங்க	-8046
▁கச்ச	-8047
▁லாரி	-8048
விளக்கு	-8049
▁அஞ்சலி	-8050
▁கண்ணன்	-8051
▁அரையிறு	-8052
▁உறவுகள்	-8053
▁நேர்காண	-8054
▁பிரம்மோ	-8055
▁யாராவது	-8056
▁ஆய்வுகள்	-8057
▁உயிருடன்	-8058
▁ஜனநாயகக்	-8059
▁திருச்செ	-8060
த்திற்குச்	-8061
▁அதிகளவில்	-8062
▁அவர்களால்	-8063
▁சமாஜ்வாதி	-8064
▁சமூகவலைதள	-8065
▁பின்பற்று	-8066
▁வருடங்கள்	-8067
▁காஷ்மீரில்	-8068
▁கூறியதாவது	-8069
▁கொரோனாவால்	-8070
▁சீர்திருத்த	-8071
▁பொருட்களின்	-8072
▁வைத்திருக்க	-8073
▁கட்டுப்பாட்டு	-8074
▁செய்யப்பட்டனர்	-8075
▁மேற்கொள்ளப்பட்ட	-8076
1)	-8077
ak	-8078
▁ஓட	-8079
என்ன	-8080
ண்டோ	-8081
▁ஒய்	-8082
▁நாய்	-8083
▁நூறு	-8084
▁நெய்	-8085
▁முகவ	-8086
▁நல்லா	-8087
▁ஆகியோரை	-8088
▁இங்கிலா	-8089
▁ஓவர்கள்	-8090
▁விதிகள்	-8091
▁தேவஸ்தான	-8092
▁விருந்து	-8093
▁சட்டப்படி	-8094
▁தேர்தலின்	-8095
▁முறைப்படி	-8096
ிலிருந்தும்	-8097
▁அளிக்கிறது	-8098
▁ஆணையத்தின்	-8099
▁களமிறங்கிய	-8100
▁துன்புறுத்த	-8101
ap	-8102
தின	-8103
▁43	-8104
▁46	-8105
▁ஷோ	-8106
▁BBC	-8107
ச்சிக	-8108
▁புகழ	-8109
▁வைகோ	-8110
▁கோபுர	-8111
▁சுந்த	-8112
▁நீதிப	-8113
▁பிரபு	-8114
▁அறங்காவ	-8115
▁இருதரப்பு	-8116
▁ராஜேந்திர	-8117
▁விவாதிக்க	-8118
▁வெளியேறிய	-8119
▁காணப்படுகிறது	-8120
▁தொடங்கியுள்ளது	-8121
▁&	-8122
"..	-8123
ிலா	-8124
▁ஃபை	-8125
▁லார	-8126
ஞ்சல்	-8127
▁ஊட்ட	-8128
▁செக்	-8129
▁சோர்	-8130
▁தடைய	-8131
▁நலன்	-8132
▁பன்ன	-8133
▁2022-	-8134
▁துறைய	-8135
▁வடகிழ	-8136
▁வீச்ச	-8137
▁அல்லாத	-8138
▁உண்மைய	-8139
▁தலைமறை	-8140
▁விநாயக	-8141
ிறீர்கள்	-8142
▁பேரிடர்	-8143
▁எங்களின்	-8144
▁குழப்பம்	-8145
▁பெரிதும்	-8146
▁மோடிக்கு	-8147
▁உயர்கல்வி	-8148
▁மதிப்பில்	-8149
விட்டார்கள்	-8150
▁உயிரிழப்பு	-8151
▁உள்ளவர்கள்	-8152
▁நிறைவேற்றி	-8153
▁பிறப்பிக்க	-8154
▁விரும்பும்	-8155
▁உயிரிழந்தனர்	-8156
10	-8157
▁+	-8158
மிய	-8159
வனை	-8160
ிலு	-8161
கில்	-8162
ஜின்	-8163
லையே	-8164
ெண்ண	-8165
▁ஒன்	-8166
ாவதாக	-8167
ாவைப்	-8168
▁இயல்	-8169
▁தனிந	-8170
▁மூடி	-8171
ஜியின்	-8172
த்திக்	-8173
▁சைபர்	-8174
▁டாக்ட	-8175
ாவிலும்	-8176
▁நிரப்ப	-8177
▁பிரான்	-8178
▁ரத்தம்	-8179
▁சீக்கிய	-8180
▁தொழிற்ச	-8181
▁ரயிலில்	-8182
▁எதிர்த்த	-8183
▁குடியிரு	-8184
்களுக்கும்	-8185
▁கேள்விகளை	-8186
▁பொதுமக்கள	-8187
▁வேண்டுகோள்	-8188
▁செலுத்தினர்	-8189
▁முன்னெடுத்து	-8190
▁பாதிக்கப்பட்டு	-8191
ாப	-8192
ாவாக	-8193
▁உரை	-8194
▁கோவ	-8195
குமார	-8196
▁1000	-8197
▁சாதன	-8198
▁மரும	-8199
மானார்	-8200
▁ஆங்கா	-8201
▁திருட	-8202
▁மண்டப	-8203
▁மாநகர	-8204
▁அடைக்க	-8205
▁இசையமை	-8206
▁எண்ணம்	-8207
▁கொன்று	-8208
▁தெரிவு	-8209
▁போடும்	-8210
மைப்பின்	-8211
ஷ்குமார்	-8212
▁உறவுகளை	-8213
▁சல்மான்	-8214
▁அர்த்தம்	-8215
▁அறிவிப்பை	-8216
▁ஆகியோரும்	-8217
▁கண்டறிந்து	-8218
▁நிமிடங்கள்	-8219
▁சந்தித்துப்	-8220
▁தட்டுப்பாடு	-8221
▁காவல்துறையின	-8222
▁ஷூ	-8223
வாடி	-8224
▁தூர	-8225
▁மிள	-8226
▁காஸா	-8227
▁பாறை	-8228
றிந்து	-8229
▁அணிவி	-8230
▁உச்சி	-8231
▁நாங்க	-8232
▁மிகச்	-8233
▁ரஞ்சி	-8234
▁அரசியலை	-8235
▁அஸ்வின்	-8236
▁நோய்கள்	-8237
▁இந்தியன்	-8238
▁யாழ்ப்பா	-8239
▁எடுத்தார்	-8240
▁பாண்டியன்	-8241
▁விடுவிக்க	-8242
▁அறக்கட்டளை	-8243
▁நிலுவையில்	-8244
▁அரசியலுக்கு	-8245
▁முஸ்லிம்கள்	-8246
▁வைத்துள்ளது	-8247
▁பேசியுள்ளார்	-8248
கைய	-8249
ராது	-8250
லிங்	-8251
வீதி	-8252
ச்சரி	-8253
ொழுது	-8254
▁கைதி	-8255
▁ஜார்	-8256
தர்கள்	-8257
▁அருண்	-8258
▁உருவெ	-8259
▁பீகார	-8260
மையன்று	-8261
ிட்டார்	-8262
்க்கும்	-8263
▁அமைத்த	-8264
▁இணைக்க	-8265
▁இறப்பு	-8266
▁கத்திய	-8267
▁மிதமான	-8268
ப்போகும்	-8269
▁இதுவும்	-8270
▁ஓராண்டு	-8271
▁பாத்திர	-8272
▁மிரட்டி	-8273
▁வரையில்	-8274
ட்டமைப்பு	-8275
▁இளையராஜா	-8276
▁கண்டிக்க	-8277
▁தொடக்கம்	-8278
▁வேறுபாடு	-8279
▁காங்கிரஸின்	-8280
▁துரைமுருகன்	-8281
▁தெரிவிக்கும்	-8282
▁மேற்கொண்டனர்	-8283
▁குறைந்துள்ளது	-8284
▁தென்னாப்பிரிக்க	-8285
op	-8286
பழ	-8287
.20	-8288
வறை	-8289
ாப்	-8290
▁49	-8291
ctor	-8292
வசம்	-8293
ந்தன்	-8294
ப்பறை	-8295
▁உணவை	-8296
▁எத்த	-8297
▁காசு	-8298
டிக்கை	-8299
ட்டிவ்	-8300
வுடனான	-8301
ரீதியாக	-8302
வுக்கான	-8303
்களுடன்	-8304
▁அதனைத்	-8305
▁கூட்டி	-8306
▁பொதுக்	-8307
▁பொலிஸ்	-8308
▁யானைகள்	-8309
▁கொள்கையை	-8310
▁தனித்துவ	-8311
▁தங்களுடைய	-8312
▁தொல்லியல்	-8313
▁மாற்றத்தை	-8314
▁ஆண்டுக்கான	-8315
▁சந்திரபாபு	-8316
▁நிகழ்ச்சியை	-8317
▁வழக்குகளில்	-8318
▁விசாரணையின்	-8319
▁வியாழக்கிழமை	-8320
▁சர்ச்சைக்குரிய	-8321
கான	-8322
▁எம	-8323
ஷ்மி	-8324
▁அபே	-8325
▁உறை	-8326
▁இம்ம	-8327
▁கோபி	-8328
▁டாப்	-8329
்களைப்	-8330
▁கோர்ட	-8331
▁சஸ்பெ	-8332
▁பறக்க	-8333
▁அத்தனை	-8334
▁காலில்	-8335
▁சாந்தி	-8336
▁பொம்மை	-8337
த்தொழில்	-8338
▁உதவிகளை	-8339
▁எங்கும்	-8340
▁எழுப்பு	-8341
▁கிளம்பி	-8342
▁திருப்த	-8343
▁பெருங்க	-8344
ப்பாக்கம்	-8345
▁கலாச்சார	-8346
▁வங்கிகள்	-8347
▁விஷயத்தை	-8348
▁கூட்டணியை	-8349
▁கூட்டுறவு	-8350
▁பள்ளிக்கு	-8351
▁விருந்தின	-8352
▁உலகக்கோப்பை	-8353
▁கிடைக்கிறது	-8354
▁கிராமங்களில்	-8355
▁விமர்சனங்கள்	-8356
▁விதிக்கப்பட்ட	-8357
3)	-8358
எஸ	-8359
ive	-8360
வேச	-8361
ஹர்	-8362
பெரு	-8363
▁எகி	-8364
▁காதல	-8365
▁சலசல	-8366
▁ஜோடி	-8367
▁முர்	-8368
ன்தான்	-8369
▁அசாம்	-8370
▁இஸ்ரோ	-8371
▁சுங்க	-8372
▁தேயில	-8373
ாருக்கு	-8374
ியாவின்	-8375
▁ஆறுமுக	-8376
▁இவற்றை	-8377
▁எந்தக்	-8378
▁நுபுர்	-8379
▁அதிபராக	-8380
▁அடங்கும்	-8381
▁முகத்தில்	-8382
▁முன்வைக்க	-8383
▁அதிகரிப்பு	-8384
▁திருவாரூர்	-8385
▁தென்னிந்திய	-8386
▁நேர்த்திக்க	-8387
5)	-8388
ீத்	-8389
டையே	-8390
ற்றல்	-8391
▁உன்ன	-8392
▁பைக்	-8393
ரங்கம்	-8394
▁ஆதார்	-8395
▁உடற்ப	-8396
வதையும்	-8397
▁குடியே	-8398
▁மார்க்	-8399
▁ஆலோசகர்	-8400
▁ஒருவரான	-8401
▁புரட்சி	-8402
▁இளம்பெண்	-8403
▁கடைசியாக	-8404
▁நள்ளிரவு	-8405
▁நிறுவனர்	-8406
▁பொறுப்பை	-8407
▁இவர்களின்	-8408
▁எதிர்காலம்	-8409
▁கலந்துகொள்ள	-8410
▁வெற்றிபெற்ற	-8411
▁நிலையங்களில்	-8412
▁பகுதிகளிலும்	-8413
▁முதல்முறையாக	-8414
▁குறைந்தபட்சம்	-8415
கையை	-8416
ப்ஸ்	-8417
▁கரி	-8418
▁கொல	-8419
▁புய	-8420
கடந்த	-8421
றாங்க	-8422
றுகள்	-8423
▁காமெ	-8424
க்கல்ல	-8425
ழ்ந்து	-8426
▁ஆலோசன	-8427
▁இறக்க	-8428
▁பூங்க	-8429
▁உறவில்	-8430
▁நீக்கி	-8431
▁பரவும்	-8432
▁அயோத்தி	-8433
▁முன்பதி	-8434
ங்கள்தான்	-8435
▁ஆட்டத்தை	-8436
▁பிரித்து	-8437
▁விக்கிரம	-8438
▁ஆங்காங்கே	-8439
▁கட்சியும்	-8440
▁திமுகவில்	-8441
▁நிறுத்திய	-8442
▁முதலீட்டு	-8443
▁முன்னெச்ச	-8444
▁வாக்குறுதி	-8445
▁சிறுபான்மைய	-8446
▁ஜார்க்கண்ட்	-8447
▁நெருக்கடியை	-8448
ப்படுகின்றனர்	-8449
▁வைத்துள்ளார்	-8450
▁நிகழ்ச்சிகளில்	-8451
தய	-8452
ன்ம	-8453
ோரை	-8454
▁47	-8455
▁கழ	-8456
நலம்	-8457
வங்க	-8458
வியத்	-8459
ேயும்	-8460
்தீப்	-8461
▁அணுக	-8462
▁அரண்	-8463
▁நிகழ	-8464
▁மில்	-8465
க்கிங்	-8466
வாழ்வு	-8467
ஸ்வரன்	-8468
▁எதுவு	-8469
▁தேசம்	-8470
பிடிக்க	-8471
ப்பள்ளி	-8472
வகையில்	-8473
ின்றார்	-8474
▁கொங்கு	-8475
▁நாராயண	-8476
▁வாக்களி	-8477
▁கோட்டாபய	-8478
▁தனிப்படை	-8479
▁வளர்ப்பு	-8480
▁வேண்டுமா	-8481
▁எதிர்ப்பை	-8482
▁சாத்தியம்	-8483
▁சொல்கிறது	-8484
▁நடத்துவது	-8485
▁ரன்களுக்கு	-8486
▁பணிபுரியும்	-8487
▁அளித்துள்ளது	-8488
▁எடுக்கவில்லை	-8489
▁மேற்கொள்ளும்	-8490
▁பந்துவீச்சில்	-8491
கீ	-8492
ாரோ	-8493
சான்	-8494
விஸ்	-8495
வோடு	-8496
▁நல்	-8497
மாகச்	-8498
▁எலிச	-8499
▁சாகு	-8500
ாரிடம்	-8501
ொருவர்	-8502
▁சனாதன	-8503
▁நிற்ப	-8504
▁பிரேச	-8505
▁முறிய	-8506
▁வேகம்	-8507
தற்கும்	-8508
▁கருப்ப	-8509
▁பலியான	-8510
▁மூச்சு	-8511
ப்படுவதை	-8512
▁கடையில்	-8513
▁சீரியல்	-8514
▁ஜிஎஸ்டி	-8515
▁தலைமுறை	-8516
▁நடப்பது	-8517
▁மனைவியை	-8518
▁விடாமல்	-8519
த்தவர்கள்	-8520
▁கட்சியின	-8521
▁ஜல்லிக்க	-8522
த்துவிட்டு	-8523
ப்பாளர்கள்	-8524
▁என்றுதான்	-8525
▁பராமரிக்க	-8526
▁பாருங்கள்	-8527
▁மாலத்தீவு	-8528
▁குறிவைத்து	-8529
▁சென்னைக்கு	-8530
▁பிரச்னைகளை	-8531
▁ஆகியவற்றின்	-8532
▁கிருஷ்ணகிரி	-8533
▁தெரிவித்துக்	-8534
▁மாவட்டத்தின்	-8535
▁வட்டாரத்தில்	-8536
மூல	-8537
ினா	-8538
குரு	-8539
போன்	-8540
.2022	-8541
▁காது	-8542
▁கோளா	-8543
▁மகால	-8544
▁வால்	-8545
த்துச்	-8546
▁ஆன்லை	-8547
▁சங்கர	-8548
▁தூங்க	-8549
▁பிறகே	-8550
▁ராஷ்ட	-8551
▁விடிய	-8552
▁ஆறுதல்	-8553
▁உள்ளதா	-8554
▁கூகுள்	-8555
▁மலையாள	-8556
▁உணவுகள்	-8557
▁கடைப்பி	-8558
▁தூதுவர்	-8559
▁நிலையான	-8560
▁மசோதாவை	-8561
▁மாலத்தீ	-8562
▁அரங்கில்	-8563
▁கார்த்தி	-8564
▁முதன்முத	-8565
▁கைதுசெய்த	-8566
▁பேசியபோது	-8567
த்துக்குள்ள	-8568
▁காரணத்தால்	-8569
▁இடம்பெற்றது	-8570
▁மணிப்பூரில்	-8571
▁கொடுக்கப்பட்ட	-8572
um	-8573
அர	-8574
▁க்க	-8575
▁ஆக்க	-8576
▁மாநா	-8577
▁லால்	-8578
வருடைய	-8579
▁படேல்	-8580
▁பாஜகவ	-8581
▁பாடம்	-8582
▁மீம்ஸ	-8583
▁வண்டி	-8584
▁வாஷிங	-8585
▁எலிசபெ	-8586
▁ஒன்றான	-8587
▁சித்தா	-8588
▁டெல்டா	-8589
▁தாத்தா	-8590
▁நிர்வா	-8591
டுக்கும்	-8592
த்தக்கது	-8593
ார்களாம்	-8594
▁ஆதரிக்க	-8595
▁சீசனில்	-8596
▁தம்பதிய	-8597
▁படங்களை	-8598
▁பணக்கார	-8599
▁வாழ்த்த	-8600
த்துவத்தை	-8601
▁செலவுகள்	-8602
▁நுழைந்து	-8603
▁பாடல்கள்	-8604
▁ஆயுதங்கள்	-8605
▁உங்களுடைய	-8606
▁கூட்டணிக்	-8607
விருக்கிறது	-8608
▁பொறுப்பில்	-8609
▁விஜயகாந்த்	-8610
▁உத்தரகாண்ட்	-8611
▁காலத்திற்கு	-8612
▁பணியாற்றும்	-8613
▁இணையதளத்தில்	-8614
▁மட்டுமல்லாது	-8615
av	-8616
ஸ்ஸ	-8617
்டை	-8618
ண்ணு	-8619
தளம்	-8620
ாகக்	-8621
▁சமை	-8622
▁சம்	-8623
▁நாவ	-8624
க்காத	-8625
ாதான்	-8626
▁ஜாதி	-8627
▁தாலு	-8628
▁பாசி	-8629
▁பாரத	-8630
▁வன்ன	-8631
▁ஹார்	-8632
நகரில்	-8633
▁கச்சா	-8634
▁பாரிய	-8635
▁மங்கள	-8636
விடாமல்	-8637
▁இபிஎஸ்	-8638
▁கட்டளை	-8639
▁காவலர்	-8640
▁குட்டி	-8641
▁தகராறு	-8642
▁நிர்மா	-8643
▁அலங்கரி	-8644
▁உரிமையை	-8645
▁செய்துவ	-8646
▁தகவலின்	-8647
▁தக்காளி	-8648
▁நீடிக்க	-8649
▁படிப்பை	-8650
▁பிடிஆர்	-8651
▁பிறப்பு	-8652
கிறீர்கள்	-8653
▁இறுதியாக	-8654
▁உடலுக்கு	-8655
▁புலம்பெய	-8656
▁மீதமுள்ள	-8657
▁வந்ததும்	-8658
▁வந்துள்ள	-8659
▁ஆர்எஸ்எஸ்	-8660
▁காவலர்கள்	-8661
▁பத்திரிகை	-8662
▁விநியோகம்	-8663
▁அதிகாரத்தை	-8664
▁கொள்ளுங்கள்	-8665
▁மாவட்டங்கள்	-8666
▁தேர்தலுக்கான	-8667
▁தெரிவிக்கிறது	-8668
▁கொண்டிருந்தனர்	-8669
▁அருள்பாலித்தார்	-8670
ளோ	-8671
est	-8672
்தே	-8673
▁பன	-8674
▁வற	-8675
சாத்	-8676
நாசி	-8677
ப்பழ	-8678
▁உபய	-8679
▁ரில	-8680
என்று	-8681
ட்டது	-8682
ொன்றை	-8683
▁அளவை	-8684
▁சபரி	-8685
▁ஹரிய	-8686
▁பண்ணை	-8687
▁கொடியை	-8688
▁உண்மையை	-8689
▁கல்விக்	-8690
▁யாத்திர	-8691
▁வயிற்று	-8692
▁அதிமுகவை	-8693
▁மக்கள்தொ	-8694
▁விழாவின்	-8695
▁அளித்தனர்	-8696
▁எப்போதுமே	-8697
▁புத்தாண்டு	-8698
▁காரணங்களால்	-8699
▁வல்லுநர்கள்	-8700
▁தேர்தல்களில்	-8701
▁புத்தகத்தில்	-8702
▁பெற்றுள்ளார்	-8703
▁நியமிக்கப்பட்ட	-8704
ஹோ	-8705
▁ல்	-8706
amil	-8707
ஷனல்	-8708
ையில	-8709
ச்சாவ	-8710
ராமன்	-8711
▁அரைச	-8712
▁டாடா	-8713
▁டிரெ	-8714
த்ததாக	-8715
▁அப்போ	-8716
▁சன்னி	-8717
ப்பதும்	-8718
▁இயல்பு	-8719
▁தடைகள்	-8720
▁பண்டிக	-8721
▁பயந்து	-8722
▁பேச்சை	-8723
▁விரிவு	-8724
▁விஷ்ணு	-8725
▁உதவிகள்	-8726
▁செயற்கு	-8727
▁தீவிரம்	-8728
க்களையும்	-8729
▁இயங்கும்	-8730
▁உறுதியான	-8731
▁குணவர்தன	-8732
▁சிறுநீரக	-8733
▁நான்காம்	-8734
▁நிலக்கரி	-8735
▁நிலைமையை	-8736
▁ராக்கெட்	-8737
▁வளர்த்து	-8738
▁இருந்தேன்	-8739
▁தெரியவந்த	-8740
▁அதிகாரிகளை	-8741
▁அருகிலுள்ள	-8742
ிருப்பார்கள்	-8743
▁நம்பிக்கையை	-8744
▁மாகாணத்தில்	-8745
▁ஆர்ப்பாட்டம்	-8746
ai	-8747
வய	-8748
வகை	-8749
ுலக	-8750
▁ரத	-8751
னந்த	-8752
ஹான்	-8753
▁கனக	-8754
▁சடல	-8755
▁துய	-8756
▁ராத	-8757
ணத்தை	-8758
ரமணிய	-8759
வதோடு	-8760
ோரின்	-8761
▁புரோ	-8762
▁பொறி	-8763
▁யோகா	-8764
▁வினா	-8765
ட்டியை	-8766
படியாக	-8767
▁இதைக்	-8768
▁குளிர	-8769
▁கொட்ட	-8770
▁மாளிகை	-8771
▁முகாமை	-8772
▁மூலவர்	-8773
▁விடுதி	-8774
▁வேகப்ப	-8775
விட்டோம்	-8776
▁இதேவேளை	-8777
▁சாதனையை	-8778
▁சிந்தனை	-8779
▁தலைமைச்	-8780
▁நாடுகளை	-8781
▁பத்தாம்	-8782
▁போராடிய	-8783
▁விக்ரம்	-8784
▁உணர்ச்சி	-8785
▁பரிவர்த்த	-8786
▁உரிமையாளர்	-8787
▁ஏற்பட்டால்	-8788
பன்னீர்செல்வ	-8789
▁அதிலிருந்து	-8790
▁சந்திக்கும்	-8791
த்திருக்கிறது	-8792
▁இப்படித்தான்	-8793
▁ஒருங்கிணைந்த	-8794
▁விவசாயிகளின்	-8795
▁கொண்டிருந்தது	-8796
▁வைத்திருக்கும்	-8797
un	-8798
ேக	-8799
▁51	-8800
▁மௌ	-8801
ட்ரி	-8802
யுத்த	-8803
▁உறவை	-8804
▁ஏக்க	-8805
▁தீவு	-8806
▁நீரை	-8807
ங்கிக்	-8808
▁2021-	-8809
▁இதைச்	-8810
▁இந்தோ	-8811
▁ஒடிசா	-8812
▁துண்ட	-8813
க்குறைய	-8814
▁மீண்டு	-8815
▁ரூபாயை	-8816
▁விரிவா	-8817
▁விற்று	-8818
▁அரசுகள்	-8819
▁ஒதுக்கி	-8820
▁கத்தார்	-8821
▁கனிமொழி	-8822
▁தன்னார்	-8823
▁பெறுவது	-8824
▁வசூலிக்க	-8825
▁விஞ்ஞானி	-8826
▁கட்டியெழு	-8827
▁செய்வதால்	-8828
▁பேராசிரிய	-8829
▁பொருள்களை	-8830
▁வெளியாகும்	-8831
▁இந்நிகழ்வில்	-8832
ாசம்	-8833
▁உணவ	-8834
▁எச்	-8835
▁தசா	-8836
▁ஊதிய	-8837
▁நிரு	-8838
குண்டு	-8839
▁ஊற்றி	-8840
▁பூச்ச	-8841
பாண்டிய	-8842
▁ஒட்டிய	-8843
▁சுழற்ப	-8844
▁மாதவிட	-8845
▁வகைகள்	-8846
▁விவரம்	-8847
ந்தோறும்	-8848
▁உணவுகளை	-8849
▁கடினமாக	-8850
▁டாஸ்மாக்	-8851
▁மாபெரும்	-8852
▁வரலாற்றை	-8853
▁அற்புதமான	-8854
▁கழகத்தின்	-8855
▁கால்பந்து	-8856
▁தடுக்கும்	-8857
▁ஆர்வலர்கள்	-8858
▁இந்துக்கள்	-8859
▁மக்களிடையே	-8860
▁ஆகியோருக்கு	-8861
▁உத்தியோகத்த	-8862
▁கருதப்படும்	-8863
▁கூற்றுப்படி	-8864
▁துப்பாக்கிச்	-8865
▁புகைப்படங்கள்	-8866
ow	-8867
ோன்	-8868
்ரீ	-8869
தூர்	-8870
ையோர	-8871
▁ஃபெ	-8872
▁அமு	-8873
▁ஏரி	-8874
▁மணம	-8875
▁பயம்	-8876
▁வேல்	-8877
▁ஸ்டே	-8878
னாலும்	-8879
▁உயரம்	-8880
நீக்கம்	-8881
ோருக்கு	-8882
▁அபாயம்	-8883
▁கிங்ஸ்	-8884
▁புத்தி	-8885
ாளர்களாக	-8886
▁வாரியம்	-8887
▁உட்கட்சி	-8888
▁பிரதிஷ்ட	-8889
▁யூடியூப்	-8890
▁வாழ்வில்	-8891
▁வெளியேறு	-8892
க்கொண்டனர்	-8893
ாகிருஷ்ணன்	-8894
▁கடைசியில்	-8895
▁பெண்ணுக்கு	-8896
▁வைத்துள்ளனர்	-8897
▁தெரிவித்துள்ள	-8898
போத	-8899
▁டய	-8900
ள்கள்	-8901
▁நாயக	-8902
▁ஆவார்	-8903
▁உலகப்	-8904
பிஷேகம்	-8905
▁இடிக்க	-8906
▁நிதியை	-8907
▁பரிதாப	-8908
ியாகவும்	-8909
▁ஒலிம்பி	-8910
▁கவனத்தை	-8911
▁கிராமம்	-8912
▁ரஜினிகா	-8913
▁காட்டும்	-8914
▁கேட்கும்	-8915
▁சேர்க்கை	-8916
▁டிவியில்	-8917
▁நீரிழிவு	-8918
▁பிற்பகல்	-8919
▁புகாரில்	-8920
▁மேற்பார்	-8921
▁விவரிக்க	-8922
▁நலத்திட்ட	-8923
▁பிரசாந்த்	-8924
▁வேட்புமனு	-8925
▁புதன்கிழமை	-8926
▁இலங்கைக்கான	-8927
▁ரஷ்யாவுக்கு	-8928
▁மக்களுக்கும்	-8929
▁எடுக்கப்பட்டு	-8930
▁புரிந்துகொள்ள	-8931
▁வந்திருக்கிறது	-8932
▁அனுமதிக்கப்பட்ட	-8933
8-	-8934
தவி	-8935
யன்	-8936
த்மா	-8937
▁கதி	-8938
▁புன	-8939
ையோடு	-8940
▁கிமீ	-8941
▁பாரி	-8942
▁வினோ	-8943
▁ஓரளவு	-8944
▁பரவிய	-8945
▁ஆன்மீக	-8946
▁முர்மு	-8947
ருக்குப்	-8948
▁ஆர்சிபி	-8949
▁இணைத்து	-8950
▁கரும்பு	-8951
▁கர்ப்பி	-8952
▁குடிக்க	-8953
▁சோவியத்	-8954
▁செய்தியை	-8955
▁மீட்புப்	-8956
▁மோட்டார்	-8957
▁விளையாடு	-8958
▁அடைந்தனர்	-8959
▁பணியாற்று	-8960
▁செல்வதற்கு	-8961
க்கொள்கிறேன்	-8962
▁செய்யுங்கள்	-8963
▁வித்தியாசமான	-8964
▁ஊழியர்களுக்கு	-8965
▁வெளியாகியுள்ளன	-8966
▁அதிர்ச்சியடைந்த	-8967
ஃபா	-8968
அப்	-8969
சபா	-8970
ரர்	-8971
▁52	-8972
தானே	-8973
விவர	-8974
▁கோம	-8975
ப்பதே	-8976
ுக்கே	-8977
▁நொறு	-8978
லித்து	-8979
ட்டத்தை	-8980
பாளையம்	-8981
▁கடினம்	-8982
▁குளிர்	-8983
▁போவதாக	-8984
▁வண்ணம்	-8985
பாட்டில்	-8986
▁கேட்டது	-8987
▁செய்தல்	-8988
▁புரட்டா	-8989
ளிக்கிறது	-8990
விட்டதால்	-8991
ியுள்ளோம்	-8992
ையில்தான்	-8993
▁கேட்டால்	-8994
▁சிறுமியை	-8995
▁தேவையற்ற	-8996
▁பேரையும்	-8997
▁வெளிவந்த	-8998
▁உருவாகும்	-8999
▁கூட்டத்தை	-9000
▁நிலத்தில்	-9001
▁அவர்களுடைய	-9002
▁விவகாரத்தை	-9003
▁கூட்டணியின்	-9004
▁செல்கின்றனர்	-9005
▁நம்பிக்கையில்	-9006
▁வெளியிடப்பட்டது	-9007
▁J	-9008
ணாம	-9009
வரே	-9010
ஜிபி	-9011
டிக்	-9012
ஸ்வதி	-9013
ாலினை	-9014
▁2011	-9015
▁ஆஞ்ச	-9016
▁கோது	-9017
▁டெலி	-9018
▁மணிக	-9019
▁மனநல	-9020
▁யாரோ	-9021
னாவின்	-9022
▁மரபணு	-9023
க்காலம்	-9024
▁சிங்கள	-9025
▁படுகாய	-9026
▁பிரத்ய	-9027
▁மனுதார	-9028
▁முழக்க	-9029
▁நெடுஞ்ச	-9030
▁பெறலாம்	-9031
▁வெப்பம்	-9032
▁ஆளுநரின்	-9033
▁கொண்டவர்	-9034
▁சொன்னால்	-9035
▁பிக்பாஸ்	-9036
▁புகுந்து	-9037
▁மத்தியப்	-9038
விலிருந்து	-9039
▁காரணமாகவே	-9040
▁சம்பவத்தை	-9041
▁தொகுதிகள்	-9042
▁வர்த்தகம்	-9043
▁எடுத்துக்க	-9044
▁குடியுரிமை	-9045
▁சமூகத்தின்	-9046
▁சிறுமியின்	-9047
▁பேரறிவாளன்	-9048
▁பற்றாக்குறை	-9049
▁வைக்கப்பட்டு	-9050
ப்படுத்தப்பட்ட	-9051
▁நடவடிக்கையும்	-9052
▁வெளியிடப்பட்ட	-9053
ரணி	-9054
ாரே	-9055
▁Do	-9056
▁கப	-9057
▁....	-9058
▁ரோகி	-9059
▁விழி	-9060
ம்பில்	-9061
ஸ்புக்	-9062
▁ஹசீனா	-9063
▁அண்ணாம	-9064
▁ஆர்டர்	-9065
▁கொட்டி	-9066
▁சரக்கு	-9067
▁சேவையை	-9068
▁படையின	-9069
▁லண்டன்	-9070
▁செந்தில	-9071
▁திமுகவை	-9072
ப்புகளில்	-9073
▁ஆண்டுகால	-9074
▁பறக்கும்	-9075
▁ஆன்லைனில்	-9076
▁பிள்ளைகள்	-9077
▁பிரச்சாரம்	-9078
▁பிரம்மாண்ட	-9079
▁சாட்டப்பட்ட	-9080
▁இன்ஸ்பெக்டர்	-9081
▁கட்சிகளுக்கு	-9082
▁தெளிவுபடுத்த	-9083
▁இல்லையென்றால்	-9084
▁குற்றம்சாட்டி	-9085
▁கொடுத்துள்ளார்	-9086
15	-9087
ாஸ்	-9088
ைச்	-9089
▁4-	-9090
சாயன	-9091
நோய்	-9092
னைத்	-9093
ல்ட்	-9094
ஷியல்	-9095
▁எஃப்	-9096
▁கொடை	-9097
▁நலம்	-9098
▁மணல்	-9099
▁வடகொ	-9100
▁தெப்ப	-9101
▁பேரணி	-9102
க்குவது	-9103
ர்களைக்	-9104
▁ஐரோப்ப	-9105
▁பாட்டி	-9106
▁மீம்ஸ்	-9107
▁வேட்டை	-9108
ட்டியின்	-9109
▁அங்கேயே	-9110
▁இவர்களை	-9111
▁ஒத்திவை	-9112
▁கேள்விய	-9113
▁ஜெயந்தி	-9114
▁பரவியது	-9115
▁புண்ணிய	-9116
▁பயன்பாடு	-9117
▁ஒன்றுக்கு	-9118
▁சதுர்த்தி	-9119
▁சினிமாவில்	-9120
▁செய்தியில்	-9121
▁பிரம்மோற்ச	-9122
▁விடுத்தார்	-9123
▁அதிகரித்தது	-9124
▁ஆகியவற்றில்	-9125
▁கடற்கரையில்	-9126
▁நம்புகிறேன்	-9127
▁குடும்பங்கள்	-9128
▁g	-9129
ந்தன	-9130
ஸ்டு	-9131
ௌபதி	-9132
த்தில	-9133
ம்பிய	-9134
▁ஏலம்	-9135
▁புவி	-9136
விவகார	-9137
▁எட்டி	-9138
▁சூழலை	-9139
▁ரேஷன்	-9140
வேந்திர	-9141
▁சிலையை	-9142
▁பங்குச்	-9143
▁பலன்கள்	-9144
▁செய்வார்	-9145
▁பிரியாணி	-9146
▁விதித்து	-9147
▁ஆயுதங்களை	-9148
▁பொருள்கள்	-9149
▁கடற்றொழில்	-9150
▁மாளிகையில்	-9151
▁தரப்பினரும்	-9152
▁ராணுவத்தில்	-9153
▁கல்லூரிகளில்	-9154
▁சென்றுள்ளனர்	-9155
▁வந்திருக்கிறார்	-9156
கலை	-9157
பத்	-9158
பாத	-9159
ூரி	-9160
வாஸ்	-9161
ஷின்	-9162
▁அலெ	-9163
▁மீற	-9164
▁வளி	-9165
ஞ்சிய	-9166
ட்டாக	-9167
தாகச்	-9168
த்தாக	-9169
ப்போல	-9170
▁ஆஜர்	-9171
▁ஓவர்	-9172
▁பற்ற	-9173
▁வள்ள	-9174
னியின்	-9175
ிகேயன்	-9176
▁அர்ஜு	-9177
▁எலான்	-9178
▁பதிவே	-9179
▁கலவரம்	-9180
▁கிளப்ப	-9181
▁நடப்பு	-9182
▁பூச்சி	-9183
▁வளரும்	-9184
▁வைகாசி	-9185
த்தலைவர்	-9186
▁அரேபியா	-9187
▁அவிநாசி	-9188
▁வசதிகளை	-9189
▁சந்திரசூ	-9190
▁நிபந்தனை	-9191
▁பதிலளிக்க	-9192
▁எதிர்கட்சி	-9193
▁விக்கெட்டை	-9194
▁கோரிக்கைகளை	-9195
▁வீடியோக்கள்	-9196
▁அப்படித்தான்	-9197
▁தினங்களுக்கு	-9198
▁பயன்படுத்திக்	-9199
▁ஆண்டுகளுக்கும்	-9200
▁மாநிலங்களுக்கு	-9201
வாச	-9202
ூன்	-9203
சம்ப	-9204
டிங்	-9205
▁அபு	-9206
போன்ற	-9207
வாசல்	-9208
வியாக	-9209
ையார்	-9210
▁கிம்	-9211
▁கைலா	-9212
▁தருண	-9213
▁நபரை	-9214
தைக்கு	-9215
ளுக்கு	-9216
்குமார	-9217
▁கணினி	-9218
க்கவும்	-9219
▁அக்கறை	-9220
▁கல்விய	-9221
▁குரூப்	-9222
▁தலையிட	-9223
▁துபாய்	-9224
▁தைவான்	-9225
▁போதைப்	-9226
▁மேற்கோ	-9227
▁என்னைப்	-9228
▁நடராஜர்	-9229
▁படையெடு	-9230
▁மாஸ்டர்	-9231
▁வீடுகளை	-9232
▁உருவானது	-9233
▁திருமஞ்ச	-9234
▁மாட்டார்	-9235
▁யாரையும்	-9236
ப்பட்டதால்	-9237
▁பாதுகாப்ப	-9238
▁புரட்டாசி	-9239
▁அமைப்பினர்	-9240
▁இடத்திலும்	-9241
▁சமயங்களில்	-9242
▁அந்நாட்டின்	-9243
▁என்றெல்லாம்	-9244
▁செய்வார்கள்	-9245
▁செய்கின்றனர்	-9246
▁செய்யப்பட்டன	-9247
▁மேல்முறையீடு	-9248
▁கண்டுபிடித்து	-9249
▁திருப்பத்தூர்	-9250
▁கொல்லப்பட்டனர்	-9251
▁பொதுமக்களுக்கு	-9252
▁பவ	-9253
ண்ணா	-9254
னிங்	-9255
ச்சர்	-9256
வேசம்	-9257
▁பும்	-9258
▁மதிய	-9259
▁வாக்	-9260
ச்சேரி	-9261
விதமான	-9262
▁சங்கட	-9263
▁சத்து	-9264
▁வாதம்	-9265
விடலாம்	-9266
▁க்கும்	-9267
▁சராசரி	-9268
▁சீர்கு	-9269
▁டெங்கு	-9270
கின்றார்	-9271
ற்றினார்	-9272
▁இப்படிய	-9273
▁உறவினர்	-9274
▁உள்ளோம்	-9275
▁தெளிவான	-9276
▁வைப்பது	-9277
வருகிறார்	-9278
▁அடைந்தது	-9279
▁சவால்கள்	-9280
▁செய்தேன்	-9281
▁சட்டசபைத்	-9282
▁முக்கியப்	-9283
▁கூறுகின்றன	-9284
▁சமூகத்தைச்	-9285
▁மறுபடியும்	-9286
▁விமர்சித்த	-9287
▁இருப்பதாகக்	-9288
▁ஏற்படவில்லை	-9289
▁சொன்னார்கள்	-9290
▁அதிகாரிகளும்	-9291
▁முதலமைச்சராக	-9292
▁திட்டத்திற்கு	-9293
▁வெளிநாடுகளில்	-9294
19	-9295
ா்	-9296
.15	-9297
ers	-9298
சப்	-9299
ுள்	-9300
▁6-	-9301
னையோ	-9302
ல்கா	-9303
சித்த	-9304
தமிழக	-9305
த்தாள	-9306
▁ஒருப	-9307
▁கெலா	-9308
▁சீல்	-9309
▁மாதா	-9310
▁ரிஷி	-9311
▁வண்ட	-9312
பேட்டை	-9313
ுள்ளது	-9314
▁நுழைய	-9315
▁வேட்ட	-9316
படுத்தி	-9317
ல்களும்	-9318
▁தினத்த	-9319
▁வெட்டு	-9320
போதிலும்	-9321
▁அவகாசம்	-9322
▁மன்னார்	-9323
▁ஓட்டுநர்	-9324
▁தெருவில்	-9325
▁மாத்திரை	-9326
▁விட்டனர்	-9327
▁அமைப்பில்	-9328
▁கவுன்சில்	-9329
▁முன்பதிவு	-9330
▁காட்டிலும்	-9331
▁சத்தீஸ்கர்	-9332
▁சுற்றுவட்ட	-9333
▁சுவாமிக்கு	-9334
▁நிறுவனத்தை	-9335
▁விவாகரத்து	-9336
▁வெளியேறும்	-9337
▁தீர்மானத்தை	-9338
▁பேருந்துகள்	-9339
▁மாநிலங்களவை	-9340
▁அதேநேரத்தில்	-9341
▁கணக்கெடுப்பு	-9342
▁போராட்டங்களை	-9343
▁தெரிந்துகொள்ள	-9344
▁ஈடுபட்டுள்ளனர்	-9345
up	-9346
வலி	-9347
சங்க	-9348
ணயம்	-9349
ென்ற	-9350
▁நதி	-9351
▁பாய	-9352
களோடு	-9353
ொற்று	-9354
▁காவி	-9355
▁குர்	-9356
▁சராச	-9357
ரிப்பு	-9358
்களைக்	-9359
▁விதம்	-9360
நாங்கள்	-9361
ாவையும்	-9362
▁ஒப்பிட	-9363
▁கமல்ஹா	-9364
▁கோர்ட்	-9365
▁சித்ரா	-9366
▁டொனால்	-9367
▁மாட்டு	-9368
▁அடியில்	-9369
▁அடையும்	-9370
▁உருவாகி	-9371
▁குழுவின	-9372
▁ஆப்ரிக்க	-9373
▁ஆவணங்களை	-9374
▁எம்ஜிஆர்	-9375
▁கட்சியாக	-9376
▁நினைவில்	-9377
▁பட்டியலை	-9378
▁பாலிவுட்	-9379
▁அடுத்ததாக	-9380
▁ஏற்படலாம்	-9381
▁தந்தையின்	-9382
▁தெரிந்தது	-9383
▁வழிபாட்டு	-9384
▁வீராங்கனை	-9385
▁கவுன்சிலர்	-9386
▁திமுகவினர்	-9387
▁நெருக்கமாக	-9388
▁முதல்வரின்	-9389
▁தற்காலிகமாக	-9390
▁நடக்கவில்லை	-9391
▁சட்டவிரோதமாக	-9392
▁நிலையத்திற்கு	-9393
மழ	-9394
சுர	-9395
நோய	-9396
ளஸ்	-9397
ஷல்	-9398
சிஸ்	-9399
▁வேட	-9400
ஹஸ்தி	-9401
▁உள்க	-9402
▁கோழி	-9403
▁டென்	-9404
▁ஸ்டெ	-9405
க்குடி	-9406
ியுமான	-9407
▁2020-	-9408
▁சர்வே	-9409
▁பௌத்த	-9410
▁வணங்க	-9411
▁வருடா	-9412
வர்த்தி	-9413
▁அவதூறு	-9414
▁எண்ணெய	-9415
▁நல்லிண	-9416
▁நியூஸ்	-9417
▁மனநிலை	-9418
▁மன்னர்	-9419
▁இறங்கிய	-9420
▁கறுப்பு	-9421
▁திரௌபதி	-9422
▁நிலப்பர	-9423
▁வீழ்ச்ச	-9424
ப்படையில்	-9425
▁கனடாவில்	-9426
▁பேசுபொரு	-9427
▁விலைக்கு	-9428
▁சஸ்பெண்ட்	-9429
▁செய்வதில்	-9430
▁நடைபெற்றன	-9431
▁முன்வைத்த	-9432
▁வைத்துள்ள	-9433
▁உத்தரபிரதேச	-9434
▁செயற்கைக்கோ	-9435
▁அதிகாரிகளின்	-9436
▁வாக்காளர்கள்	-9437
▁இந்தியாவிற்கு	-9438
▁சட்டமன்றத்தில்	-9439
6)	-9440
hi	-9441
ிகே	-9442
னிக்	-9443
ப்தா	-9444
மேன்	-9445
ெய்த	-9446
▁ஒழி	-9447
▁தணி	-9448
▁பலன	-9449
மண்டல	-9450
▁அவரே	-9451
▁இன்ப	-9452
▁கையை	-9453
▁துடி	-9454
க்கமாக	-9455
ிக்கிழ	-9456
ீங்களா	-9457
▁உண்டா	-9458
▁சந்தன	-9459
▁விசாக	-9460
▁விடுப	-9461
யத்தில்	-9462
ர்களைப்	-9463
▁சன்னதி	-9464
▁டேவிட்	-9465
▁துறையை	-9466
▁பட்டின	-9467
ப்பில்லை	-9468
▁அம்பாள்	-9469
▁அவசரமாக	-9470
▁செய்யத்	-9471
▁தினத்தை	-9472
▁விதிகளை	-9473
▁ஹரியானா	-9474
▁ஒருபுறம்	-9475
▁திரையுலக	-9476
▁இறுதிப்போ	-9477
▁சொல்லலாம்	-9478
▁தயாரித்து	-9479
▁ஆதரவாளர்கள	-9480
▁சந்திரயான்	-9481
▁நிலையங்கள்	-9482
▁மதிப்புள்ள	-9483
▁விமர்சிக்க	-9484
▁வீரர்களின்	-9485
▁உடற்பயிற்சி	-9486
▁ரீதியாகவும்	-9487
▁வட்டாரங்கள்	-9488
▁விளக்கினார்	-9489
▁வந்துவிட்டது	-9490
▁குடும்பத்துடன்	-9491
▁பிரதிநிதித்துவ	-9492
கல	-9493
▁l	-9494
கோண	-9495
பாட	-9496
ீழ்	-9497
▁இடு	-9498
▁தோழ	-9499
பிமான	-9500
▁ஆளாக	-9501
▁ஓடிய	-9502
▁சௌதி	-9503
▁நூலக	-9504
▁மரம்	-9505
▁மும்	-9506
▁லண்ட	-9507
வில்லி	-9508
▁சித்ர	-9509
▁பிராம	-9510
▁கார்கே	-9511
▁தசாப்த	-9512
▁பகுஜன்	-9513
▁மியான்	-9514
▁முல்லை	-9515
▁விளைவி	-9516
ப்பாளராக	-9517
▁எதற்காக	-9518
▁கல்வியை	-9519
▁திருமலை	-9520
▁யாகசாலை	-9521
▁வந்தவர்	-9522
▁வேலுமணி	-9523
ப்பாளையம்	-9524
▁என்னதான்	-9525
▁கேள்வியை	-9526
▁போட்டுக்	-9527
▁மல்யுத்த	-9528
▁அரையிறுதி	-9529
▁ஆட்சியின்	-9530
▁ஆராதனைகள்	-9531
▁சட்டங்கள்	-9532
▁தண்ணீரில்	-9533
▁நடத்தப்பட	-9534
▁மதிப்பீடு	-9535
▁வடகிழக்கு	-9536
▁வரைக்கும்	-9537
▁எழுத்தாளர்	-9538
▁நவராத்திரி	-9539
ப்படுவதில்லை	-9540
▁காத்திருந்த	-9541
▁குடும்பத்தை	-9542
▁சொல்லவில்லை	-9543
▁தலைவர்களின்	-9544
சுப்பிரமணியன்	-9545
▁செல்லும்போது	-9546
▁திருவிழாவில்	-9547
▁படப்பிடிப்பு	-9548
▁விமர்சனங்களை	-9549
▁வீரர்களுக்கு	-9550
▁நிகழ்ச்சிக்கு	-9551
▁ரசிகர்களுக்கு	-9552
▁தெரிவிக்கிறார்	-9553
ab	-9554
▁#	-9555
?..	-9556
ஜிய	-9557
யாக	-9558
ூல்	-9559
▁vs	-9560
▁உழ	-9561
மென்	-9562
▁சுன	-9563
வத்தை	-9564
▁அடிய	-9565
ஏக்கள்	-9566
மிட்டு	-9567
ுடனும்	-9568
▁தாண்ட	-9569
▁மாரடை	-9570
▁வயதாக	-9571
▁விகித	-9572
▁வெயில	-9573
▁ஆன்மிக	-9574
▁தோன்று	-9575
▁பண்டார	-9576
▁மணிநேர	-9577
▁வழித்த	-9578
ப்பாகும்	-9579
▁என்பவரை	-9580
▁ஏமாற்றி	-9581
கிருஷ்ணன்	-9582
▁கோப்பையை	-9583
▁தன்னிடம்	-9584
▁பெயர்கள்	-9585
▁கார்த்திகை	-9586
▁பார்ப்போம்	-9587
▁பெறுவதற்கு	-9588
▁மகிழ்ச்சிய	-9589
▁வழிகாட்டுத	-9590
▁வெடிகுண்டு	-9591
▁திமுகவுக்கு	-9592
ப்படுவதாகவும்	-9593
▁நடவடிக்கையில்	-9594
▁உறுப்பினர்களின்	-9595
▁சட்டப்பேரவையில்	-9596
ag	-9597
ஜெய	-9598
ரத்ன	-9599
▁நீர	-9600
▁முன	-9601
▁வசன	-9602
▁ஹோம	-9603
ப்போன	-9604
ின்ஸ்	-9605
▁சொகு	-9606
▁நைட்	-9607
▁மிரு	-9608
▁வசம்	-9609
▁வளைய	-9610
ரையின்	-9611
லியில்	-9612
▁அண்ட்	-9613
▁அள்ளி	-9614
▁தஞ்சை	-9615
▁தட்டி	-9616
▁தனிமை	-9617
▁நிலவு	-9618
▁பங்கா	-9619
▁நகைகளை	-9620
▁வசிக்க	-9621
▁செய்யக்	-9622
▁பகிரங்க	-9623
▁வந்தேன்	-9624
னிதாபிமான	-9625
▁எம்பிக்க	-9626
▁நெருங்கி	-9627
▁பார்ப்பது	-9628
▁விதத்தில்	-9629
▁அளித்துள்ள	-9630
▁ஆளுநருக்கு	-9631
▁பத்திரிக்க	-9632
▁வருகின்றது	-9633
விட்டதாகவும்	-9634
▁அரசியல்வாதி	-9635
▁செவ்வாய்க்க	-9636
▁ஆக்கிரமிப்பு	-9637
▁பகுதிகளுக்கு	-9638
▁பொதுமக்களின்	-9639
▁பழங்குடியினர்	-9640
▁நிறுவனத்திற்கு	-9641
வள்	-9642
மடைய	-9643
▁ஆனி	-9644
சர்ஸ்	-9645
த்தடி	-9646
வியது	-9647
▁அதீத	-9648
▁இறைய	-9649
▁கத்த	-9650
▁சுபா	-9651
▁செரு	-9652
▁தேமு	-9653
▁பிலி	-9654
திலேயே	-9655
▁முட்ட	-9656
▁லேசான	-9657
▁ஸ்திர	-9658
▁அதுவரை	-9659
▁அமிர்த	-9660
▁கமிஷன்	-9661
▁நீரில்	-9662
▁எல்லாமே	-9663
▁பதிவாகி	-9664
ிருக்கேன்	-9665
▁எத்தனையோ	-9666
▁கொடுப்பன	-9667
▁முன்னேறி	-9668
▁மேற்கண்ட	-9669
▁மொழியில்	-9670
▁கல்வெட்டு	-9671
▁செயற்குழு	-9672
▁வாழ்வாதார	-9673
▁குறைக்கும்	-9674
▁மாறியுள்ளது	-9675
▁ஜெயலலிதாவின்	-9676
▁இஸ்லாமியர்கள்	-9677
▁வனத்துறையினர்	-9678
▁புதுச்சேரியில்	-9679
ut	-9680
hat	-9681
சாக	-9682
சிற	-9683
ரவு	-9684
▁உக	-9685
▁நாத	-9686
▁லாக	-9687
ச்சிய	-9688
▁ஃபிர	-9689
▁சுடு	-9690
▁பழமை	-9691
▁புரா	-9692
▁பக்தி	-9693
▁மீட்ப	-9694
▁Doctor	-9695
▁ஓட்டுந	-9696
▁பால்கு	-9697
▁லஞ்சம்	-9698
▁வலுவாக	-9699
▁அதையும்	-9700
▁ஆஞ்சநேய	-9701
▁இடம்பெற	-9702
▁இறுதிப்	-9703
▁முன்னேற	-9704
▁கொல்கத்த	-9705
▁சந்திரன்	-9706
▁செல்லாது	-9707
▁தீவிரமான	-9708
▁வருத்தம்	-9709
▁ஒப்படைக்க	-9710
▁மாதவிடாய்	-9711
்	-9712
▁	-9713
க	-9714
த	-9715
ி	-9716
ு	-9717
ர	-9718
ப	-9719
ட	-9720
ம	-9721
ா	-9722
வ	-9723
ல	-9724
ன	-9725
ை	-9726
ய	-9727
ற	-9728
ள	-9729
ச	-9730
ந	-9731
.	-9732
அ	-9733
ே	-9734
ண	-9735
இ	-9736
ெ	-9737
ோ	-9738
,	-9739
எ	-9740
ங	-9741
ொ	-9742
ழ	-9743
ீ	-9744
ூ	-9745
ஆ	-9746
உ	-9747
ஸ	-9748
ஜ	-9749
ஒ	-9750
0	-9751
2	-9752
1	-9753
ஏ	-9754
ஷ	-9755
"	-9756
-	-9757
5	-9758
3	-9759
ஹ	-9760
ஞ	-9761
:	-9762
4	-9763
?	-9764
ஓ	-9765
'	-9766
9	-9767
6	-9768
a	-9769
7	-9770
8	-9771
e	-9772
ஊ	-9773
)	-9774
(	-9775
!	-9776
ஐ	-9777
`	-9778
i	-9779
n	-9780
o	-9781
t	-9782
ஈ	-9783
ஃ	-9784
r	-9785
s	-9786
l	-9787
d	-9788
h	-9789
;	-9790
c	-9791
u	-9792
m	-9793
A	-9794
ௌ	-9795
S	-9796
p	-9797
C	-9798
I	-9799
T	-9800
g	-9801
P	-9802
y	-9803
M	-9804
B	-9805
%	-9806
N	-9807
D	-9808
R	-9809
v	-9810
k	-9811
E	-9812
w	-9813
f	-9814
b	-9815
O	-9816
/	-9817
G	-9818
L	-9819
‛	-9820
F	-9821
V	-9822
H	-9823
K	-9824
U	-9825
W	-9826
j	-9827
J	-9828
+	-9829
x	-9830
Y	-9831
&	-9832
z	-9833
X	-9834
#	-9835
*	-9836
Q	-9837
Z	-9838
ஶ	-9839
@	-9840
q	-9841
=	-9842
ा	-9843
_	-9844
₹	-9845
र	-9846
े	-9847
ஔ	-9848
[	-9849
]	-9850
क	-9851
न	-9852
	-9853
्	-9854
$	-9855
ी	-9856
म	-9857
ि	-9858
प	-9859
स	-9860
ं	-9861
ह	-9862
ो	-9863
­	-9864
	-9865
त	-9866
ल	-9867
व	-9868
द	-9869
>	-9870
ग	-9871
௦	-9872
य	-9873
ज	-9874
ब	-9875
£	-9876
श	-9877
ू	-9878
भ	-9879
•	-9880
ા	-9881
~	-9882
°	-9883
ए	-9884
ट	-9885
ध	-9886
	-9887
ु	-9888
ન	-9889
😂	-9890
\	-9891
§	-9892
अ	-9893
ख	-9894
च	-9895
ै	-9896
મ	-9897
‍	-9898
·	-9899
ل	-9900
इ	-9901
ड	-9902
ण	-9903
ष	-9904
જ	-9905
ે	-9906
௧	-9907
௫	-9908
★	-9909
×	-9910
é	-9911
ا	-9912
आ	-9913
ई	-9914
थ	-9915
ौ	-9916
ક	-9917
ત	-9918
ર	-9919
ી	-9920
્	-9921
⁠	-9922
❔	-9923
	-9924
	-9925
<	-9926
õ	-9927
÷	-9928
š	-9929
و	-9930
ي	-9931
औ	-9932
घ	-9933
छ	-9934
़	-9935
।	-9936
ટ	-9937
ય	-9938
વ	-9939
સ	-9940
௨	-9941
௩	-9942
′	-9943
⁄	-9944
●	-9945
◾	-9946
⦁	-9947
^	-9948
{	-9949
}	-9950
®	-9951
Á	-9952
å	-9953
í	-9954
ñ	-9955
ô	-9956
ö	-9957
ł	-9958
ō	-9959
ʻ	-9960
̈	-9961
إ	-9962
د	-9963
ر	-9964
س	-9965
م	-9966
ه	-9967
उ	-9968
फ	-9969
અ	-9970
આ	-9971
ઉ	-9972
ઓ	-9973
ખ	-9974
ણ	-9975
થ	-9976
દ	-9977
પ	-9978
ફ	-9979
ભ	-9980
લ	-9981
િ	-9982
ો	-9983
௬	-9984
௭	-9985
௹	-9986
‟	-9987
€	-9988
⏩	-9989
	-9990
	-9991
👇	-9992
💥	-9993
😊	-9994
😐	-9995
😲	-9996
