<unk>	0
<s>	0
</s>	0
▁த	-0
்க	-1
▁க	-2
்த	-3
▁ி	-4
▁ப	-5
▁்	-6
▁ு	-7
▁ம	-8
▁வ	-9
▁ா	-10
ன்	-11
▁.	-12
▁ச	-13
ல்	-14
▁ர	-15
்ப	-16
்ட	-17
▁அ	-18
▁ந	-19
▁இ	-20
▁ட	-21
க்க	-22
ம்	-23
▁ய	-24
ந்த	-25
▁,	-26
ர்	-27
▁எ	-28
்கள	-29
▁த்த	-30
த்த	-31
▁ை	-32
ள்	-33
து	-34
▁ப்ப	-35
ில	-36
ரு	-37
ட்ட	-38
ிய	-39
▁க்க	-40
▁து	-41
ன்ற	-42
▁ஆ	-43
▁உ	-44
▁ரு	-45
்ச	-46
▁ில்	-47
ப்ப	-48
தி	-49
ள்ள	-50
ண்ட	-51
▁ே	-52
▁ம்	-53
▁ும்	-54
ற்	-55
ங்க	-56
ற்ற	-57
▁வி	-58
▁ிற	-59
▁ன	-60
▁ல	-61
▁ட்ட	-62
▁ுக்க	-63
ாக	-64
▁மு	-65
▁செ	-66
▁தி	-67
டி	-68
▁ோ	-69
ங்கள	-70
ைய	-71
▁ுக்கு	-72
▁டு	-73
▁கு	-74
ார	-75
▁யி	-76
▁கள	-77
▁ிய	-78
▁ெ	-79
▁ாக	-80
ரி	-81
ல்ல	-82
▁ந்த	-83
ும	-84
▁ும	-85
▁பா	-86
▁ின்	-87
▁பி	-88
வர	-89
வி	-90
▁்கள	-91
▁ஒ	-92
ான	-93
ன்ன	-94
ும்	-95
▁கொ	-96
▁ுள்ள	-97
▁ார்	-98
லை	-99
▁போ	-100
▁என்ற	-101
▁ருந்த	-102
▁மா	-103
▁ங்கள	-104
று	-105
டு	-106
▁செய	-107
▁கா	-108
▁வே	-109
றி	-110
▁வர	-111
னா	-112
கள	-113
▁தா	-114
▁ண	-115
▁இந்த	-116
▁ருக்க	-117
▁2	-118
▁ர்	-119
றை	-120
▁ஸ	-121
▁ீ	-122
▁ொ	-123
▁ஏ	-124
▁0	-125
க்	-126
்சி	-127
▁ான	-128
▁ஜ	-129
▁கூ	-130
▁1	-131
▁ழ	-132
ற்க	-133
▁யில்	-134
▁நட	-135
▁"	-136
▁த்தில	-137
▁ள	-138
▁தொ	-139
▁பெ	-140
▁்ட	-141
▁கட	-142
▁்ப	-143
▁த்	-144
▁க்	-145
▁டுத்த	-146
▁ப்	-147
▁க்கு	-148
▁நா	-149
▁வா	-150
ப்	-151
▁என	-152
▁உள்ள	-153
வு	-154
▁யை	-155
ிர	-156
ற்ப	-157
▁ிறது	-158
▁தெ	-159
▁வரு	-160
▁ஒரு	-161
ன்ப	-162
னை	-163
▁ூ	-164
த்	-165
▁சி	-166
▁பே	-167
▁ரா	-168
▁ண்ட	-169
▁நி	-170
▁வெ	-171
ணி	-172
▁மே	-173
▁ிர	-174
▁என்று	-175
ஸ்	-176
ச்ச	-177
▁மற்ற	-178
ுவ	-179
▁ார	-180
▁பு	-181
மி	-182
▁நில	-183
▁ன்	-184
▁ில	-185
்ய	-186
▁்த	-187
▁னர்	-188
▁ுவ	-189
▁்க	-190
▁ின	-191
▁அதி	-192
▁-	-193
▁டி	-194
▁வேண்ட	-195
▁தே	-196
▁ரி	-197
ண்	-198
▁ிட	-199
▁கி	-200
்வ	-201
▁ுட	-202
மை	-203
ரச	-204
ார்	-205
▁மீ	-206
▁தொட	-207
ளர	-208
▁அவ	-209
ம்ப	-210
▁வழ	-211
▁ால்	-212
▁குறி	-213
னால்	-214
▁தான்	-215
கு	-216
▁தொடர	-217
▁வர்கள	-218
▁ற்ற	-219
▁வந்த	-220
▁முத	-221
ண்டு	-222
▁ின்ற	-223
▁வை	-224
▁பொ	-225
▁செய்ய	-226
▁செய்த	-227
ட்	-228
▁வீ	-229
▁யாக	-230
▁ித்த	-231
▁தாக	-232
▁கோ	-233
▁ுக	-234
▁தெரி	-235
▁அத	-236
▁தற்க	-237
▁பிர	-238
▁பல	-239
▁சே	-240
▁ச்ச	-241
▁:	-242
▁அம	-243
▁ேர	-244
▁மை	-245
டை	-246
▁ிற்க	-247
▁த்தை	-248
▁மி	-249
▁தலை	-250
▁யின்	-251
▁அரச	-252
▁களை	-253
▁சா	-254
▁ங்க	-255
▁ச்	-256
▁ற	-257
▁ல்ல	-258
▁ஹ	-259
சி	-260
▁3	-261
▁வருக	-262
▁ைய	-263
▁அவர்	-264
▁தெரிவ	-265
▁ின்றன	-266
▁ிறார்	-267
▁கள்	-268
▁ஏற்ப	-269
▁ஷ	-270
▁ிக்க	-271
ந்து	-272
▁கே	-273
▁ெய	-274
▁வெள	-275
▁இது	-276
▁யா	-277
▁என்ப	-278
▁தமி	-279
▁தமிழ	-280
▁ாவ	-281
லா	-282
▁இத	-283
ுக	-284
▁க்கை	-285
▁்ச	-286
▁ன்ற	-287
▁?	-288
▁யும்	-289
▁என்பத	-290
க்கு	-291
▁டை	-292
டிய	-293
▁ஓ	-294
ாம	-295
▁கூற	-296
▁5	-297
▁மூ	-298
▁அதிக	-299
னி	-300
▁ிற்கு	-301
ரிய	-302
▁நிலைய	-303
ில்	-304
▁முதல்	-305
▁'	-306
▁திரு	-307
▁கட்ட	-308
▁று	-309
▁ாத	-310
ச்	-311
▁கொண்ட	-312
விட	-313
▁4	-314
▁சம	-315
க்கள	-316
▁அந்த	-317
▁அவர	-318
▁ால	-319
ன்று	-320
▁ஞ	-321
▁தீ	-322
▁மக்கள	-323
ரா	-324
ண்ண	-325
▁ுத	-326
▁ிட்ட	-327
்தி	-328
ின	-329
▁ல்	-330
▁சொ	-331
▁தற்கு	-332
கவ	-333
▁ஆனால்	-334
▁ஸ்	-335
▁சில	-336
▁ருப்ப	-337
▁ளி	-338
சிய	-339
ய்	-340
▁ஆண்டு	-341
▁சு	-342
▁ந்திய	-343
ர்வ	-344
▁எதி	-345
▁யில	-346
▁ுடன்	-347
▁ினா	-348
▁9	-349
▁கட்சி	-350
ால	-351
▁பேச	-352
குதி	-353
▁அறி	-354
▁ாடு	-355
▁குழ	-356
▁மாக	-357
ன்னை	-358
▁ாம	-359
▁மாந	-360
கர	-361
ரை	-362
▁்ச்சி	-363
ிட	-364
▁த்து	-365
▁பட	-366
▁ணி	-367
▁ர்த	-368
▁ணை	-369
முக	-370
▁துறை	-371
கார	-372
▁ட்டு	-373
▁ம்ப	-374
ரும	-375
▁மேல	-376
▁வழங்க	-377
▁ாது	-378
ற்றி	-379
▁ன்ன	-380
▁ஊ	-381
வே	-382
▁ாட	-383
▁ர்த்த	-384
▁டும்	-385
▁கடந்த	-386
▁ைச்ச	-387
▁முன்ன	-388
▁(	-389
▁ைச்சர	-390
▁தை	-391
ட்டி	-392
்ப்ப	-393
▁திர	-394
▁நீ	-395
▁முடிய	-396
வை	-397
▁!	-398
▁ள்ள	-399
▁பத	-400
▁வில்ல	-401
▁ஸ்ட	-402
▁ஞ்ச	-403
▁நடத்த	-404
▁டுக்க	-405
▁ழு	-406
▁யான	-407
▁யு	-408
▁ினார்	-409
▁ேர்த	-410
▁தலைவர	-411
▁நடை	-412
▁ஆம்	-413
▁டுக	-414
ந்தி	-415
▁னி	-416
▁ேர்தல	-417
▁6	-418
▁ஆக	-419
▁`	-420
▁ுகள	-421
▁கார	-422
ப்பு	-423
▁வும்	-424
▁ாள	-425
▁முறை	-426
▁)	-427
▁லா	-428
▁அரசு	-429
▁போது	-430
▁சென்ற	-431
▁ஐ	-432
வா	-433
ங்கு	-434
▁7	-435
லம	-436
▁இட	-437
▁பய	-438
▁ர்ந்த	-439
▁இல்ல	-440
▁ேன்	-441
▁நடைப	-442
▁பகுதி	-443
▁த்தின	-444
▁ர்க	-445
கை	-446
ாவ	-447
▁ிரத	-448
▁பூ	-449
▁னை	-450
▁நடைபெ	-451
▁கூட்ட	-452
ப்போ	-453
▁வெளிய	-454
▁திட்ட	-455
▁மரு	-456
▁பதி	-457
▁பர	-458
▁மாநில	-459
▁கால	-460
▁உட	-461
தா	-462
▁என்ன	-463
▁திமுக	-464
▁ாவட்ட	-465
▁ொரு	-466
▁8	-467
▁போல	-468
▁ந்திர	-469
▁ோம்	-470
▁ப்படி	-471
▁ய்	-472
▁ினர	-473
▁மேலும	-474
▁பெற்ற	-475
▁ிடம	-476
▁ார்கள	-477
▁ென்னை	-478
▁ரூ	-479
▁ேற்ற	-480
வில	-481
▁வு	-482
ங்	-483
▁ாட்ட	-484
▁்த்த	-485
▁தன	-486
▁பாஜ	-487
▁சட்ட	-488
▁மாத	-489
ிற	-490
▁ர்க்க	-491
ழு	-492
▁மணி	-493
▁ங்களை	-494
▁வர்	-495
▁நடந்த	-496
▁லை	-497
▁உய	-498
▁விச	-499
▁வரும்	-500
▁ீதி	-501
▁விட	-502
▁சீ	-503
▁வைத்த	-504
▁ுத்த	-505
ாட	-506
▁பிற	-507
▁தர	-508
▁ண்டு	-509
▁்ந்த	-510
லக	-511
▁த்திய	-512
▁சூ	-513
▁ரோ	-514
▁்ந்து	-515
▁லங்க	-516
கழ	-517
▁கை	-518
▁ஈ	-519
▁முடி	-520
▁க்கள	-521
▁ாமல்	-522
▁்ந	-523
பி	-524
மான	-525
▁மக	-526
▁ப்பட	-527
▁ஃ	-528
▁பணி	-529
▁ட்டது	-530
ாள	-531
▁ேதி	-532
▁ட்டும	-533
ியா	-534
▁ராஜ	-535
▁வரை	-536
▁தற்ப	-537
▁ிலும்	-538
ரே	-539
▁ாளர	-540
▁ப்பிட	-541
▁றி	-542
▁ிறுவ	-543
▁ட்	-544
▁துவ	-545
மர	-546
▁ிவ	-547
▁எதிர	-548
▁ாய	-549
▁மாண	-550
▁கல	-551
▁ிறுவன	-552
▁்கள்	-553
▁ியி	-554
▁விசார	-555
லி	-556
▁தனால்	-557
▁தனது	-558
திய	-559
▁்ற	-560
ருக	-561
▁இல்லை	-562
▁ழை	-563
▁ுவிட	-564
▁வெளி	-565
ட்ச	-566
▁நான்	-567
▁முக்க	-568
▁ரசிய	-569
▁மீது	-570
▁தமிழக	-571
▁ெய்தி	-572
▁தற்போ	-573
▁ண்	-574
▁கிடை	-575
▁லி	-576
▁ரசியல	-577
▁மூலம	-578
▁ியது	-579
▁கண	-580
▁அணி	-581
▁ொட	-582
▁வாழ	-583
பா	-584
▁கிர	-585
▁ள்	-586
▁தால்	-587
▁குறை	-588
▁போன்ற	-589
▁ாடுகள	-590
▁மைப்ப	-591
▁ஆட	-592
▁அறிவி	-593
பர	-594
▁கண்ட	-595
▁படி	-596
▁ிறப்ப	-597
▁அது	-598
▁இரு	-599
விர	-600
▁எம்	-601
▁காங்க	-602
▁கூட	-603
▁ோய	-604
▁இன்று	-605
ோத	-606
ூர	-607
▁பக	-608
▁ுதல	-609
ல்வ	-610
▁்க்க	-611
▁தொழ	-612
▁வேலை	-613
வடி	-614
▁நடவடி	-615
மா	-616
ணம்	-617
▁ும்ப	-618
▁தாக்க	-619
▁ைப்	-620
▁பாஜக	-621
▁நாட்ட	-622
▁ஜெ	-623
▁பொது	-624
▁பிறகு	-625
▁றுப்ப	-626
▁ாகி	-627
▁டெ	-628
▁ாலும்	-629
பட	-630
ற்ச	-631
▁நிலை	-632
▁ிரதமர	-633
ரவ	-634
▁தகவ	-635
▁மான	-636
▁ெற்றி	-637
்ந	-638
▁உத	-639
▁சம்ப	-640
▁ர்ப்ப	-641
▁யாளர	-642
ளை	-643
▁ந்தை	-644
ணை	-645
▁ிறார	-646
▁ாஜ	-647
ர்கள	-648
▁செல்ல	-649
▁உண	-650
▁அள	-651
▁லங்கை	-652
▁பேர	-653
▁னு	-654
▁திப்ப	-655
▁மேற்க	-656
▁சொல்ல	-657
▁வக	-658
▁ஆட்சி	-659
▁ியாவ	-660
▁அதன்	-661
▁ுக்	-662
▁ுடைய	-663
▁பின்ன	-664
▁ஆய	-665
▁அடி	-666
▁டைந்த	-667
▁ஃப	-668
▁வீட்ட	-669
▁நகர	-670
▁சந்தி	-671
▁ோவில	-672
▁தெரிய	-673
▁காரண	-674
▁ுவத	-675
▁எதிர்	-676
▁தோ	-677
▁நிகழ	-678
மன	-679
▁ோர	-680
வத	-681
▁ளித்த	-682
▁உலக	-683
▁விட்ட	-684
▁கொள்ள	-685
▁என்க	-686
▁ோட்டி	-687
▁யார	-688
▁ருத்த	-689
▁ிரஸ்	-690
▁யோ	-691
▁கவ	-692
▁ரிய	-693
▁வழி	-694
▁ுக்கொ	-695
ூக	-696
▁ஜி	-697
▁மாற்ற	-698
▁எந்த	-699
▁வில்	-700
▁சமூக	-701
ல்ப	-702
ள்ளி	-703
▁களில	-704
▁குட	-705
▁ையும்	-706
▁யே	-707
▁ிழ	-708
▁ஆத	-709
▁டங்கள	-710
▁்வே	-711
ஷ்	-712
▁பொரு	-713
▁கூறு	-714
▁விழ	-715
▁கூறுக	-716
ங்கி	-717
▁வார	-718
▁னைத்த	-719
▁லு	-720
▁பயன்ப	-721
▁மருத்	-722
▁கேட்ட	-723
▁ுய	-724
▁ீதிம	-725
▁ுப்ப	-726
▁மன	-727
▁ுன்ப	-728
▁என்	-729
ழ்	-730
▁ொடங்க	-731
▁டா	-732
த்தி	-733
▁வழக்க	-734
▁காவ	-735
றுதி	-736
▁ஒன்ற	-737
ோர	-738
▁எஸ்	-739
ராட	-740
▁ஆர்	-741
டன்	-742
▁ோயில	-743
▁ஒருவர	-744
▁வ்வ	-745
▁ய்ப்ப	-746
ெரி	-747
▁ுடி	-748
▁அமெரி	-749
▁ஆகிய	-750
▁போராட	-751
▁ரண்டு	-752
▁உரு	-753
▁இர	-754
▁குற்ற	-755
▁லட்ச	-756
▁ைச்	-757
▁குடும	-758
▁வில	-759
▁சம்பவ	-760
▁த்துவ	-761
▁வீர	-762
▁ோட்ட	-763
▁போலீ	-764
சா	-765
▁புதிய	-766
▁பிடி	-767
▁கொடு	-768
▁அப்போ	-769
▁அதிகா	-770
▁முன்	-771
▁வய	-772
▁்பா	-773
▁காட்ட	-774
▁உங்கள	-775
▁பெரிய	-776
▁அவரது	-777
▁லாம்	-778
தில்	-779
க்கம	-780
ந்ந	-781
▁மும்	-782
ழை	-783
▁ுமா	-784
▁வாங்க	-785
▁களில்	-786
▁ழி	-787
▁கலந்த	-788
▁்பாக	-789
▁காவல்	-790
▁ெண	-791
▁ிதி	-792
▁தன்	-793
▁தலைமை	-794
▁ப்பு	-795
▁தின	-796
▁பதவி	-797
▁இதில்	-798
▁டைய	-799
▁ெண்கள	-800
▁யின	-801
▁ர்கள	-802
ட்ப	-803
ல்வி	-804
▁ேற்று	-805
▁ந்தப்	-806
▁இய	-807
கா	-808
▁்வேறு	-809
▁அதே	-810
▁கும	-811
▁கீ	-812
▁மீண்ட	-813
▁ிச்ச	-814
ையே	-815
ோச	-816
▁தங்கள	-817
▁ல்லது	-818
▁வகைய	-819
▁யுள்ள	-820
ழக	-821
▁திக்க	-822
▁தொழில	-823
▁ாட்சி	-824
▁ிறந்த	-825
▁பள்ளி	-826
▁ுற	-827
▁ற்க	-828
▁ாங்க	-829
ளி	-830
▁ிலைய	-831
▁ப்படை	-832
▁வைக்க	-833
ணைய	-834
▁சிக	-835
▁பேர்	-836
ம்பி	-837
▁ைக்	-838
▁ாள்	-839
▁நிர்வ	-840
ியர	-841
▁கர	-842
துக	-843
▁துவர	-844
▁மது	-845
▁பங்க	-846
▁அதிகம	-847
▁ுர	-848
▁மெ	-849
▁மிக	-850
▁ுகிற	-851
▁எண்ண	-852
▁லாம	-853
▁பக்த	-854
ியே	-855
▁ல்லாம	-856
▁ாதார	-857
▁ரிகள	-858
▁ளிக்க	-859
▁ஈடு	-860
▁எங்கள	-861
▁க்கூ	-862
▁ரஷ	-863
▁செய்வ	-864
▁அங்கு	-865
வ்வ	-866
▁ிரி	-867
ரும்	-868
▁மாணவர	-869
▁யும	-870
▁மைய	-871
யர	-872
▁ிலி	-873
▁பாட	-874
ழி	-875
▁ிக்	-876
▁பொருள	-877
ஞர	-878
ுமை	-879
▁பக்தர	-880
▁ரே	-881
▁ண்ண	-882
▁நாள்	-883
▁நடக்க	-884
▁ேள்	-885
▁தேசிய	-886
தை	-887
▁பற்றி	-888
▁ேள்வி	-889
▁ராக	-890
▁ர்ச	-891
▁ாட்கள	-892
▁இப்போ	-893
வர்	-894
▁பாதுக	-895
▁பெற	-896
▁க்கூட	-897
▁ான்	-898
▁ாப்பு	-899
▁ாக்க	-900
யே	-901
▁னக்கு	-902
▁்கெ	-903
▁்கெட்	-904
▁ரஷ்ய	-905
▁காரணம	-906
▁ில்லை	-907
▁ெயல்ப	-908
ீர	-909
▁பதில	-910
▁ஆள	-911
▁வது	-912
▁ந்து	-913
▁ிச	-914
▁றை	-915
▁ஒப்ப	-916
▁ிலை	-917
▁ிரு	-918
▁இந்ந	-919
▁திகார	-920
▁தும	-921
நர	-922
▁சக	-923
▁ரூபா	-924
▁10	-925
▁நே	-926
▁எட	-927
▁சார	-928
▁விடு	-929
▁ாங்கள	-930
▁வளர	-931
▁அதில்	-932
▁ியா	-933
▁விஷ	-934
▁இயக்க	-935
▁தேவ	-936
▁ினர்	-937
▁னும	-938
▁வல	-939
▁அதை	-940
▁நினை	-941
▁யலா	-942
ையாட	-943
▁ஆண்ட	-944
▁;	-945
▁ும்போ	-946
▁கூறிய	-947
மு	-948
▁ஈடுபட	-949
▁ுவது	-950
▁யலாளர	-951
▁வச	-952
▁ஸ்டால	-953
▁குடி	-954
▁குமார	-955
▁வந்து	-956
▁ுமன்ற	-957
▁ஸ்த	-958
▁இடத்த	-959
▁சிறு	-960
▁றுத்த	-961
▁ைத்	-962
▁வும	-963
▁கோடி	-964
▁ராம	-965
▁அப்ப	-966
▁்பாடி	-967
▁மறு	-968
▁கைது	-969
▁எடப	-970
▁னுப்ப	-971
▁ரத்த	-972
▁மலை	-973
▁வரி	-974
ேக	-975
▁ற்ப	-976
▁்நா	-977
▁எல்ல	-978
▁ழுந்த	-979
▁ோடி	-980
▁ிவிட	-981
ரீ	-982
▁கடை	-983
▁எல்	-984
▁ிக	-985
▁உருவா	-986
▁னுமதி	-987
▁க்கா	-988
▁நிறை	-989
▁சூழ	-990
▁தய	-991
▁ொத்த	-992
▁ுறை	-993
▁தேச	-994
▁ோடு	-995
▁ிரும	-996
▁கிராம	-997
▁ல்லா	-998
▁ையில்	-999
▁ுடிவு	-1000
▁ிருமண	-1001
▁பாக	-1002
▁வாக	-1003
▁பால	-1004
▁பிரச	-1005
▁ுயற்ச	-1006
▁ாந்தி	-1007
▁திரும	-1008
▁ுப	-1009
▁பார	-1010
▁தாவ	-1011
▁ிகவ	-1012
▁கரு	-1013
▁டித்த	-1014
▁அம்	-1015
▁்ய	-1016
▁ூர	-1017
▁ிகவும	-1018
▁லுத்த	-1019
ையில	-1020
▁ிகள	-1021
▁பண	-1022
▁தடு	-1023
▁நிறு	-1024
▁நெ	-1025
▁உதவி	-1026
▁நாட	-1027
▁டெல்ல	-1028
▁ஏற்ற	-1029
▁ட்ச	-1030
▁ுத்து	-1031
▁மாதம்	-1032
▁பெரும	-1033
▁ிஸ	-1034
▁மாற	-1035
▁ீடு	-1036
▁ாம்	-1037
▁விமான	-1038
▁ஷ்ட	-1039
▁ழக்கு	-1040
▁ட்சி	-1041
▁ஜனா	-1042
▁செல்வ	-1043
▁க்கான	-1044
▁உயர	-1045
▁ாக்கு	-1046
▁ீட்ட	-1047
▁நாம்	-1048
▁வின்	-1049
▁t	-1050
▁லுவ	-1051
▁த்தரவ	-1052
▁யிட	-1053
▁ங்கள்	-1054
▁கல்வி	-1055
▁பெயர	-1056
▁்தான	-1057
▁புகார	-1058
▁ராண	-1059
▁ஜனாதி	-1060
▁டுவ	-1061
ரில்	-1062
▁வித	-1063
▁வற்ற	-1064
▁முழ	-1065
▁்நாடு	-1066
▁டுப்ப	-1067
▁தவ	-1068
▁ிவகார	-1069
▁முதல	-1070
▁யுடன்	-1071
▁தந்த	-1072
▁ந்தக்	-1073
▁தரப்ப	-1074
▁பெண்	-1075
▁ரோனா	-1076
▁ராணுவ	-1077
வில்	-1078
▁துவமன	-1079
▁தூ	-1080
▁வருவத	-1081
▁கிய	-1082
ற்று	-1083
ான்	-1084
▁ஸ்ரே	-1085
▁ரய	-1086
▁பின்	-1087
ர்வு	-1088
▁ஸ்ரீ	-1089
▁எழு	-1090
▁நிய	-1091
▁பூஜ	-1092
▁திக	-1093
▁மழை	-1094
▁தகவல	-1095
தல	-1096
▁ாவது	-1097
▁மின்	-1098
▁ிள	-1099
▁முடிவ	-1100
ால்	-1101
ர்ச	-1102
▁ல்க	-1103
▁ஸ்ரேல	-1104
▁அன	-1105
▁ஜெய	-1106
▁அதிர	-1107
▁தகவல்	-1108
▁நிறைவ	-1109
▁க்கும	-1110
ேச	-1111
▁முக	-1112
▁ிரதேச	-1113
▁பதிவு	-1114
▁புர	-1115
▁நோ	-1116
▁ாய்	-1117
▁திராக	-1118
▁இதை	-1119
▁தாவது	-1120
▁நு	-1121
▁தேவை	-1122
▁உரி	-1123
▁ஒவ்வ	-1124
▁ன்னும	-1125
▁டன	-1126
▁விலை	-1127
▁ஜா	-1128
▁மைக்க	-1129
▁டிய	-1130
▁ாளி	-1131
▁ாமி	-1132
னைவர	-1133
▁ம்ம	-1134
▁அனைவர	-1135
▁உணவு	-1136
▁பூஜை	-1137
கர்	-1138
ள்க	-1139
▁விழா	-1140
▁பட்ட	-1141
▁ேற்க	-1142
▁முழுவ	-1143
▁ரன	-1144
▁புரி	-1145
▁ிங்	-1146
▁காண	-1147
▁உயர்	-1148
▁கோரி	-1149
வும	-1150
பத்த	-1151
▁உறுதி	-1152
ோக	-1153
▁ூல	-1154
▁இரண்ட	-1155
▁ாச	-1156
▁ஆளு	-1157
▁வ்வா	-1158
▁விக	-1159
▁எனவே	-1160
▁தங்க	-1161
▁இதன்	-1162
ாய	-1163
▁கன	-1164
▁தயார	-1165
▁விஷய	-1166
▁சுற்ற	-1167
▁டந்து	-1168
▁ிச்சை	-1169
▁ஆய்	-1170
▁ஆய்வு	-1171
▁அண்ண	-1172
▁இருவர	-1173
▁்த்தி	-1174
ப்பட	-1175
▁கியோர	-1176
▁ரஷ்யா	-1177
▁ரை	-1178
▁ழைத்த	-1179
▁உச்ச	-1180
▁ர்ம	-1181
▁போல்	-1182
▁மத	-1183
▁சார்ப	-1184
க்கி	-1185
▁விதி	-1186
▁மைச்ச	-1187
▁காலை	-1188
▁னிய	-1189
▁ஆளுநர	-1190
▁ர்வ	-1191
▁ன்ப	-1192
ையட	-1193
▁ஏற்க	-1194
▁்பத்த	-1195
▁s	-1196
▁ச்னை	-1197
▁ேஷ்	-1198
▁தவிர	-1199
▁ாலத்த	-1200
▁இற	-1201
▁அளவ	-1202
▁ஸ்ட்	-1203
▁மட்ட	-1204
▁ிடம்	-1205
▁ூன்று	-1206
▁ரித்த	-1207
▁வன	-1208
▁போக	-1209
▁உரிமை	-1210
▁படத்த	-1211
▁ஒரே	-1212
▁னா	-1213
▁ெரும்	-1214
▁வாகன	-1215
▁த்திர	-1216
ற்றம	-1217
▁ாண்ட	-1218
▁தடை	-1219
ென	-1220
▁துணை	-1221
▁யால்	-1222
ிரம	-1223
▁ீடிய	-1224
▁ராகு	-1225
▁விரு	-1226
▁ாரணம்	-1227
மைய	-1228
்ட்	-1229
▁க்காக	-1230
▁ிரியர	-1231
▁ீடியோ	-1232
▁ொகுதி	-1233
▁விஜ	-1234
▁ாதி	-1235
முற	-1236
▁சீனா	-1237
▁ுவா	-1238
▁கல்ல	-1239
▁சர்வ	-1240
▁திகரி	-1241
▁ழனி	-1242
▁உள்ளன	-1243
▁உற	-1244
▁மனை	-1245
▁ழனிச	-1246
▁குழுவ	-1247
▁பிரி	-1248
▁இல	-1249
▁த்தி	-1250
▁உத்த	-1251
▁போட்ட	-1252
▁ுகள்	-1253
▁தும்	-1254
▁நேர	-1255
▁வீரர	-1256
▁ஜூ	-1257
▁விரும	-1258
▁கொலை	-1259
▁ரங்க	-1260
▁ாண	-1261
▁ியத	-1262
▁சத	-1263
▁லட்சம	-1264
▁ேர்வு	-1265
▁ுல	-1266
▁யூ	-1267
▁ளையாட	-1268
▁ம்பர	-1269
▁ுகளை	-1270
▁நம்	-1271
▁ுங்கள	-1272
▁வயத	-1273
▁ணைந்த	-1274
▁வேறு	-1275
▁மகன	-1276
▁நிதி	-1277
▁ரிச	-1278
தான	-1279
▁்ண	-1280
▁ிலே	-1281
▁ுமார்	-1282
▁சை	-1283
▁ரீ	-1284
▁ிம	-1285
▁ழுத்த	-1286
▁பிஷ	-1287
▁்பு	-1288
▁த்தது	-1289
▁ாகும்	-1290
▁நடி	-1291
▁மனைவி	-1292
▁்பான	-1293
▁ிக்கை	-1294
▁கவன	-1295
▁க்ட	-1296
▁சரி	-1297
▁சொன்ன	-1298
▁வேட்ப	-1299
▁ரசி	-1300
▁மனி	-1301
▁ாடி	-1302
▁ைத்தி	-1303
▁ுவி	-1304
▁அதிபர	-1305
▁உள்	-1306
▁இதற்க	-1307
▁இவர்	-1308
▁துக்க	-1309
▁மனித	-1310
▁கீழ்	-1311
▁ண்ட்	-1312
▁ப்பாக	-1313
▁ந்தத்	-1314
▁ொருட்	-1315
▁போலீஸ	-1316
▁ணிப்ப	-1317
▁பாஜகவ	-1318
▁ாதுகா	-1319
டக	-1320
▁ுக்கள	-1321
▁சோ	-1322
▁ூர்	-1323
▁ரன்கள	-1324
▁மகள	-1325
▁ரண	-1326
▁போலீச	-1327
▁ுவாமி	-1328
▁துர	-1329
▁மோச	-1330
▁புது	-1331
▁யிரி	-1332
▁ஒன்று	-1333
▁மொ	-1334
▁மாலை	-1335
▁ஏன்	-1336
▁கடுமை	-1337
▁செல	-1338
▁குரு	-1339
▁கேட	-1340
▁ிப்ப	-1341
▁தான	-1342
▁கூறி	-1343
▁நாடாள	-1344
▁லுவலக	-1345
▁்ட்	-1346
▁இங்கு	-1347
▁ஆதர	-1348
▁பிஷேக	-1349
▁வேக	-1350
▁ீங்கள	-1351
▁ிகழ	-1352
▁ுழ	-1353
▁டிக்க	-1354
▁வாத	-1355
▁றக்க	-1356
▁யிரிழ	-1357
▁ொண்ட	-1358
▁நம்பி	-1359
▁குழு	-1360
▁ிபி	-1361
▁வருட	-1362
▁ர்ச்ச	-1363
▁வங்கி	-1364
▁மிழ்	-1365
ீட	-1366
▁யினர	-1367
▁க்கிய	-1368
ிஸ	-1369
▁பாகிஸ	-1370
▁ிலேயே	-1371
ாண	-1372
▁மேல்	-1373
▁ற்றது	-1374
▁துவரை	-1375
▁ட்டி	-1376
▁ரம	-1377
▁இளை	-1378
▁அண்ணா	-1379
▁ீர்கள	-1380
▁கிற	-1381
▁குதி	-1382
▁ல்லாத	-1383
▁இடையே	-1384
▁ுச்	-1385
▁அருக	-1386
▁இதையட	-1387
வாத	-1388
▁சிவ	-1389
▁சேவை	-1390
▁பலர	-1391
▁நல்ல	-1392
▁ம்பர்	-1393
▁அல	-1394
▁ோல	-1395
▁சிங்	-1396
▁கணக்க	-1397
▁மதுரை	-1398
▁பத்த	-1399
▁முழு	-1400
▁அவரை	-1401
▁கிரி	-1402
எஸ	-1403
▁ெருக	-1404
▁்க்கை	-1405
▁ழுப்ப	-1406
▁கொள்	-1407
▁புற	-1408
▁தன்ன	-1409
▁இணைய	-1410
▁உடன	-1411
▁மாணவி	-1412
▁உடல	-1413
▁ுரை	-1414
போ	-1415
▁ுந்த	-1416
▁தரி	-1417
▁ப்பத	-1418
பத	-1419
▁தார	-1420
▁யிலான	-1421
▁விரை	-1422
▁இளைஞர	-1423
▁ிடையே	-1424
▁ராசி	-1425
▁நாத	-1426
▁n	-1427
▁ங்கி	-1428
▁ஓபி	-1429
▁தனி	-1430
▁சாலை	-1431
▁இறுதி	-1432
▁துவும	-1433
▁ீர்	-1434
▁ஓபிஎஸ	-1435
▁தயாரி	-1436
▁தைய	-1437
றைய	-1438
▁யிற்ச	-1439
▁ன்னி	-1440
▁திய	-1441
▁்களை	-1442
▁ச்சா	-1443
▁அருகே	-1444
▁ொள்ள	-1445
▁்த்தை	-1446
▁ருக	-1447
▁லிய	-1448
▁உயிர	-1449
▁ிமர்ச	-1450
▁இடை	-1451
▁ல்வ	-1452
▁றும்	-1453
▁உடல்	-1454
▁போன	-1455
▁மாட்ட	-1456
▁ழைப்ப	-1457
▁ியிட	-1458
▁அளவில	-1459
▁கில	-1460
▁ேஷ	-1461
▁தில	-1462
▁ிக்கொ	-1463
▁கருத	-1464
▁யைப்	-1465
▁்ர	-1466
▁ஆணைய	-1467
▁ச்சி	-1468
▁மேற்ப	-1469
▁மல	-1470
▁ஆர	-1471
▁ரியா	-1472
▁ஊடக	-1473
▁விரி	-1474
▁ருண	-1475
▁ன்ஸ	-1476
▁ுடன	-1477
▁சிறை	-1478
களை	-1479
த்தை	-1480
ோம்	-1481
▁டிர	-1482
▁நாள	-1483
▁வங்க	-1484
▁20	-1485
▁கிட	-1486
▁ளியே	-1487
▁a	-1488
▁ொழி	-1489
▁ளியேற	-1490
▁ஆதரவ	-1491
▁ராஜ்	-1492
▁i	-1493
▁்ப்பு	-1494
▁ட்ர	-1495
▁இரவு	-1496
▁ீதிபத	-1497
▁பந்து	-1498
▁ஞ்சா	-1499
▁ளை	-1500
▁ேஸ்	-1501
▁யங்க	-1502
▁உட்ப	-1503
▁்வ	-1504
▁கட்டி	-1505
லாற	-1506
▁வரலாற	-1507
▁வ்வாற	-1508
▁ிங்க	-1509
சை	-1510
▁்கு	-1511
▁க்குற	-1512
▁செயல	-1513
▁அமர	-1514
▁எனக்	-1515
▁கல்லூ	-1516
▁மைந்த	-1517
▁ழக்கம	-1518
▁ச்சரி	-1519
▁வெளிந	-1520
▁திருவ	-1521
▁்ஜ	-1522
▁இதனை	-1523
▁ுமான	-1524
▁ரம்பி	-1525
▁்டி	-1526
▁ினும்	-1527
▁ிபிசி	-1528
▁தவற	-1529
ியு	-1530
▁ெள	-1531
ரைன	-1532
▁னால	-1533
▁பரபர	-1534
▁களாக	-1535
▁பக்க	-1536
▁பரவ	-1537
▁சொந்த	-1538
▁ராகுல	-1539
▁பழ	-1540
▁மார	-1541
▁பணம்	-1542
▁ுப்பா	-1543
▁மகா	-1544
▁வகை	-1545
▁தீர்	-1546
▁வயது	-1547
▁றிந்த	-1548
▁சாமி	-1549
▁ன்மை	-1550
ளவ	-1551
▁ஷ்	-1552
▁ாளர்	-1553
▁வ்வளவ	-1554
▁மர	-1555
▁சுத	-1556
▁ய்ச	-1557
▁இந்து	-1558
▁நீக்க	-1559
▁கிள	-1560
▁ூட்ட	-1561
▁்டு	-1562
▁லர	-1563
▁தீர்ம	-1564
▁க்ரைன	-1565
▁பிரா	-1566
▁ானது	-1567
▁ூட	-1568
▁ண்டாட	-1569
▁ப்பை	-1570
▁காட்ச	-1571
▁ுங்க	-1572
▁ொருள்	-1573
▁e	-1574
▁ிபத்த	-1575
▁கைய	-1576
▁எனவும	-1577
▁வாக்க	-1578
▁யோக	-1579
▁ட்டை	-1580
▁வடி	-1581
▁ுமாறு	-1582
▁தென்	-1583
▁போர்	-1584
▁கிரு	-1585
▁ினை	-1586
▁யைச்	-1587
▁ென	-1588
்கு	-1589
▁வைர	-1590
▁சக்தி	-1591
▁ல்கலை	-1592
▁அனு	-1593
ழா	-1594
▁ுவிழா	-1595
▁சமீ	-1596
▁தைத்	-1597
▁சமய	-1598
▁ேட்ட	-1599
▁ஸ்தான	-1600
▁பிள	-1601
▁ியல	-1602
▁சமீப	-1603
▁வின	-1604
▁வ்	-1605
▁கொள்வ	-1606
ிழ	-1607
▁ிகழ்வ	-1608
ண்மை	-1609
▁உண்மை	-1610
▁ரயில்	-1611
▁ற்றிய	-1612
▁நிலவ	-1613
▁டிப்ப	-1614
▁முதலம	-1615
▁வரவ	-1616
▁நம்ப	-1617
▁அதற்க	-1618
▁ந்தச்	-1619
▁ஓட்ட	-1620
▁திற	-1621
▁ரெ	-1622
▁டப்ப	-1623
▁ஆரா	-1624
▁ாளை	-1625
▁சந்த	-1626
▁ஆட்ட	-1627
▁ரீதி	-1628
▁தீவிர	-1629
▁பொதும	-1630
▁ரசிகர	-1631
▁லங்கா	-1632
▁்பி	-1633
▁கார்	-1634
▁ற்பனை	-1635
▁ண்ணீர	-1636
▁மோத	-1637
மத	-1638
▁ோதி	-1639
▁ாகவே	-1640
▁ௌ	-1641
பு	-1642
▁நபர	-1643
▁ுதி	-1644
▁போத	-1645
▁களும்	-1646
ளம	-1647
▁உணர	-1648
▁ட்டர	-1649
▁ச்சு	-1650
▁பதிவ	-1651
▁போட	-1652
▁நாய	-1653
▁அம்மன	-1654
▁றிய	-1655
▁ிஷ	-1656
▁ூடு	-1657
▁ருவ	-1658
▁ுதான்	-1659
▁சோத	-1660
▁ஊர	-1661
▁இல்	-1662
▁ிரிவு	-1663
▁கிருஷ	-1664
▁விந	-1665
▁கண்ண	-1666
▁லே	-1667
▁ிழமை	-1668
▁வலியு	-1669
▁ஆன	-1670
▁குப்ப	-1671
▁ோத	-1672
▁அக்	-1673
▁க்கது	-1674
▁ஆச	-1675
▁இணை	-1676
▁ோக்கு	-1677
▁கடன்	-1678
▁பேச்ச	-1679
▁யிலி	-1680
▁வசதி	-1681
▁ிழக்க	-1682
▁ின்றி	-1683
▁புல	-1684
▁னியார	-1685
▁ுதலீட	-1686
▁சோதனை	-1687
▁விரைவ	-1688
▁க்கண	-1689
்கா	-1690
▁டம்ப	-1691
▁குர	-1692
▁டைத்த	-1693
▁தந்தை	-1694
▁15	-1695
▁பெண்ண	-1696
▁ம்ச	-1697
▁ப்பூர	-1698
▁நீண்ட	-1699
▁மூத்த	-1700
▁பகிர	-1701
▁சின்ன	-1702
▁ஓவர	-1703
▁வசிய	-1704
▁ொள்க	-1705
▁ய்ச்ச	-1706
▁அதனை	-1707
▁கண்கா	-1708
▁கத்த	-1709
▁யம	-1710
▁்சி	-1711
▁சித்த	-1712
▁சங்க	-1713
▁க்கழக	-1714
▁ீல	-1715
▁டக்க	-1716
▁ில்ல	-1717
▁்தி	-1718
▁பீ	-1719
▁ியமான	-1720
▁ியதாக	-1721
▁ைப்பட	-1722
▁யல	-1723
▁கேட்க	-1724
▁அன்று	-1725
▁ருங்க	-1726
▁தொகை	-1727
▁உத்தர	-1728
▁ன்ம	-1729
▁மகிழ	-1730
▁ாம்ப	-1731
▁S	-1732
▁்ப்ப	-1733
▁இடம்	-1734
▁லியல்	-1735
▁சாப்ப	-1736
▁ாதிரி	-1737
▁கடைசி	-1738
▁ட்ப	-1739
▁ங்கில	-1740
▁ிரட்ட	-1741
▁என்னை	-1742
▁திரான	-1743
▁புரம்	-1744
▁அங்க	-1745
▁நோக்க	-1746
▁மைத்த	-1747
▁சட்டம	-1748
▁காதல	-1749
▁12	-1750
▁விவ	-1751
▁ிலா	-1752
▁கர்	-1753
▁A	-1754
▁ந்த்	-1755
▁ேற்ப	-1756
▁்கடி	-1757
▁சித	-1758
▁ேயே	-1759
▁ஊழ	-1760
▁கவனம	-1761
▁ிளக்க	-1762
▁நுட்ப	-1763
▁முத்த	-1764
▁ஊழியர	-1765
▁ப்பா	-1766
▁ேரில்	-1767
▁வெடி	-1768
▁தரிச	-1769
▁ுகா	-1770
▁ெயர்	-1771
▁க்கிற	-1772
▁்களில	-1773
▁ாதனை	-1774
▁விழாவ	-1775
▁ாணப்ப	-1776
▁்யா	-1777
▁ேச	-1778
▁லோச	-1779
▁ப்போத	-1780
▁ாத்தி	-1781
▁ோட்டு	-1782
▁லெ	-1783
▁ண்டி	-1784
▁ொள்கை	-1785
▁சிலர்	-1786
▁வேல	-1787
▁புகை	-1788
▁தாகக்	-1789
▁ிட்டு	-1790
▁ப்ர	-1791
▁ாக்கல	-1792
▁டாக	-1793
▁ேற்கு	-1794
▁சப	-1795
▁்வு	-1796
▁இன்ன	-1797
▁குறைவ	-1798
▁வசி	-1799
▁உற்ப	-1800
▁விவர	-1801
▁செய்க	-1802
▁ாற்றம	-1803
▁ோட	-1804
சாய	-1805
▁க்கால	-1806
▁ணைப்ப	-1807
▁ிவசாய	-1808
▁ேத	-1809
▁உடனடி	-1810
ண்ப	-1811
▁ூடா	-1812
▁நண்ப	-1813
▁வட	-1814
▁ஸ்வ	-1815
▁இறந்த	-1816
▁போர	-1817
▁கலா	-1818
▁பயணம்	-1819
▁50	-1820
▁சபை	-1821
▁இதன	-1822
▁மேம்ப	-1823
▁யிகள	-1824
▁ிம்	-1825
▁விவசா	-1826
▁ிடப்ப	-1827
▁யர	-1828
▁ான்கு	-1829
▁கோவை	-1830
▁ினால்	-1831
▁ிறோம்	-1832
▁சூழல	-1833
▁கம்	-1834
▁ஆய்வ	-1835
▁விவாத	-1836
▁இலக்க	-1837
ித	-1838
▁சவ	-1839
▁ோய்	-1840
▁தோடு	-1841
▁பிரதி	-1842
▁சிற	-1843
▁ங்கா	-1844
▁ரான்	-1845
▁ிக்கல	-1846
▁யைத்	-1847
▁மிட்ட	-1848
▁ருமான	-1849
▁ாகிகள	-1850
▁கடி	-1851
▁ேம	-1852
▁நவ	-1853
▁மோசம	-1854
▁எல்லா	-1855
▁ன்று	-1856
▁வீடு	-1857
▁லோசனை	-1858
▁ங்கே	-1859
▁பணிகள	-1860
ீஸ்	-1861
▁காய	-1862
▁ரும	-1863
▁வந்தி	-1864
▁மோ	-1865
▁ெல்ல	-1866
▁ந்தில	-1867
▁எழுத	-1868
▁தேவைய	-1869
▁30	-1870
▁ோக்கி	-1871
▁ுகாதா	-1872
▁ஒட்ட	-1873
▁ட்டா	-1874
▁சீர	-1875
ின்	-1876
▁தக்க	-1877
▁யல்	-1878
▁ண்கள	-1879
▁யண	-1880
▁ன்றி	-1881
▁ுன்ன	-1882
▁ாப்	-1883
▁ேஸ்வர	-1884
▁மச	-1885
▁வலை	-1886
▁டையாள	-1887
▁ரவி	-1888
▁போதும	-1889
▁அவற்ற	-1890
▁கப்ப	-1891
▁க்கர	-1892
▁ூடாது	-1893
▁ள்ளி	-1894
▁கடும்	-1895
▁ஆவ	-1896
▁ித	-1897
▁ிக்கா	-1898
▁னாலும	-1899
▁ழைக்க	-1900
▁ஸ்க	-1901
▁ெளியே	-1902
▁னந	-1903
▁ும்பை	-1904
▁ரக	-1905
▁ொத்தம	-1906
▁ுவங்க	-1907
▁ளிப்ப	-1908
▁மண	-1909
வீ	-1910
▁கடித	-1911
▁ற்றோர	-1912
▁ியாக	-1913
▁ுதல்	-1914
▁ற்காக	-1915
வீத	-1916
▁அம்மா	-1917
▁சதவீத	-1918
▁குஜ	-1919
▁இனி	-1920
▁மண்ட	-1921
▁ய்ந்த	-1922
▁ைத்த	-1923
▁தாரண	-1924
▁மில்ல	-1925
▁ிப்பு	-1926
▁பட்ச	-1927
ிரை	-1928
▁ுபி	-1929
▁உட்பட	-1930
▁்திரை	-1931
▁கடற்	-1932
▁பாடு	-1933
▁ண்டை	-1934
▁க்ஸ	-1935
▁யற்க	-1936
▁பணியா	-1937
▁யற்கை	-1938
▁C	-1939
▁த்தீ	-1940
▁லக	-1941
▁சொல	-1942
▁டம்பெ	-1943
▁டங்கி	-1944
▁லைமைய	-1945
ேன்	-1946
▁ச்சார	-1947
▁ராட்ட	-1948
▁படம்	-1949
▁பால்	-1950
▁ப்பி	-1951
▁்குழு	-1952
▁ார்வை	-1953
▁நீர	-1954
▁ாலா	-1955
▁எல்லை	-1956
▁ாட்டு	-1957
▁யெ	-1958
▁னவர	-1959
▁பகவ	-1960
▁எனது	-1961
▁வருவ	-1962
▁யிலும	-1963
▁அல்ல	-1964
▁ினால	-1965
▁இதே	-1966
▁னம்	-1967
▁ாலை	-1968
▁மீதான	-1969
▁ஃப்	-1970
▁ஏரா	-1971
▁ரள	-1972
▁ஆதரவு	-1973
▁த்தனை	-1974
▁ுபிடி	-1975
▁ினி	-1976
▁ுமல்ல	-1977
▁டே	-1978
▁ுப்	-1979
▁11	-1980
▁ஏராளம	-1981
▁டோ	-1982
▁வீன	-1983
▁ோலீஸ்	-1984
▁T	-1985
▁லய	-1986
▁அன்ப	-1987
▁விஜய	-1988
▁சன்	-1989
▁குள	-1990
▁நல	-1991
▁ட்டர்	-1992
▁ன்பவர	-1993
▁கரி	-1994
கள்	-1995
▁ோர்	-1996
▁ியன்	-1997
▁வசியம	-1998
▁ரியாக	-1999
▁லரும்	-2000
▁ேச்ச	-2001
▁ிறக்க	-2002
▁வென்ற	-2003
▁லீ	-2004
▁கதை	-2005
▁மீற	-2006
▁யரச	-2007
▁யைக்	-2008
▁கற்ற	-2009
▁தம	-2010
டுக	-2011
▁ஆயிரம	-2012
▁கணவர	-2013
▁கட்டண	-2014
▁போய்	-2015
▁செயல்	-2016
▁ப்பில	-2017
▁வுள்ள	-2018
▁ோப்ப	-2019
▁தில்ல	-2020
▁இவர	-2021
▁பண்ண	-2022
▁ஸ்வர	-2023
▁ூடுதல	-2024
▁P	-2025
▁டல	-2026
▁அவை	-2027
▁தள	-2028
▁ித்து	-2029
▁சிய	-2030
▁ற்கான	-2031
▁உதவ	-2032
▁விளை	-2033
▁அட	-2034
▁ட்டச	-2035
▁பக்கம	-2036
▁்தான்	-2037
▁வத	-2038
▁வாச	-2039
▁ிஸ்	-2040
▁நண்பர	-2041
▁வலி	-2042
▁்றி	-2043
▁யிடம	-2044
▁தரிசன	-2045
▁பங்கு	-2046
▁நம்ம	-2047
▁ாந்த	-2048
▁அமை	-2049
▁பாடல	-2050
▁ுலா	-2051
▁ராமர	-2052
▁பகவான	-2053
▁சபா	-2054
▁காலம்	-2055
▁உறவ	-2056
▁நான	-2057
▁்பெ	-2058
▁நின்ற	-2059
▁பிரப	-2060
▁ரியான	-2061
on	-2062
▁கம்ப	-2063
▁டைமுற	-2064
▁ையும	-2065
▁பாராள	-2066
▁ாப்ப	-2067
▁கில்	-2068
▁்சினை	-2069
▁த்தால	-2070
▁ருமாள	-2071
▁ருகில	-2072
▁நரே	-2073
▁ய்ய	-2074
▁தைப்	-2075
▁மாநகர	-2076
▁ற்றி	-2077
▁மூன்ற	-2078
▁ோல்வி	-2079
▁கிறது	-2080
▁நியமி	-2081
▁மனு	-2082
▁கண்டி	-2083
குற	-2084
▁அனுப	-2085
▁னின்	-2086
▁்கால	-2087
▁சீனாவ	-2088
▁துகுற	-2089
▁ஓய	-2090
▁ுருக	-2091
▁மோதல	-2092
▁கிரிக	-2093
▁ன்முற	-2094
▁நம	-2095
▁B	-2096
▁யாத	-2097
▁லையில	-2098
▁ேற	-2099
▁ரல்	-2100
▁ோட்டை	-2101
▁ுந	-2102
▁குஜரா	-2103
▁்ன	-2104
▁ீடுகள	-2105
▁ாமல	-2106
▁ியம	-2107
▁ுமதி	-2108
▁ர்செ	-2109
▁ிலாளர	-2110
▁கரை	-2111
▁ந்தர	-2112
▁ுட்ட	-2113
▁டீ	-2114
▁றிமுக	-2115
▁ுருகன	-2116
▁ஜோ	-2117
▁அழக	-2118
▁ஆயு	-2119
▁ர்ஜ	-2120
▁ொது	-2121
▁ஏற்கன	-2122
ளிவ	-2123
▁காம	-2124
▁சாதி	-2125
▁நுழை	-2126
▁r	-2127
▁ுன	-2128
▁ஞான	-2129
▁டன்	-2130
▁ஸ்ப	-2131
▁தப்ப	-2132
▁ஒப்பந	-2133
▁த்தகை	-2134
▁ந்தது	-2135
▁அனுபவ	-2136
▁ண்டனை	-2137
▁ந்தேக	-2138
▁M	-2139
▁ஆயுத	-2140
▁க்காவ	-2141
▁உறவு	-2142
▁கிலோ	-2143
▁சிறுவ	-2144
▁விள	-2145
▁இஸ்	-2146
▁கிட்ட	-2147
▁c	-2148
▁ஞ்சி	-2149
▁வெள்ள	-2150
▁ளம்	-2151
▁மண்டல	-2152
▁ர்மா	-2153
▁சூரிய	-2154
▁ிறேன்	-2155
▁ஓட	-2156
▁ுழுமை	-2157
▁ிருது	-2158
▁்ள	-2159
▁ஜே	-2160
▁வள	-2161
▁கான்	-2162
▁ழிய	-2163
▁ஓய்வ	-2164
▁ஆஸ	-2165
▁முன்வ	-2166
▁விஜய்	-2167
▁வீழ	-2168
▁பின்ப	-2169
▁ேட்டை	-2170
▁ோப்பை	-2171
▁ல்ய	-2172
▁பொறு	-2173
▁வடிவ	-2174
நா	-2175
▁அரு	-2176
▁ாவத	-2177
ரம	-2178
▁உருவ	-2179
▁ுள்ளன	-2180
▁கோப	-2181
▁நிர	-2182
▁சிங்க	-2183
▁தழ	-2184
▁ுத்	-2185
▁கீழ	-2186
▁வாழ்வ	-2187
▁அப்பா	-2188
▁ுற்றி	-2189
▁ரவ	-2190
▁களம	-2191
▁விலக	-2192
▁கதி	-2193
▁செலவு	-2194
▁பலம	-2195
▁ரையாட	-2196
▁அமைதி	-2197
▁ாரா	-2198
ுமி	-2199
▁ெய்	-2200
எஸ்	-2201
▁வரத்த	-2202
▁கலை	-2203
▁ிலான	-2204
▁அங்கி	-2205
▁ரத்து	-2206
▁ிறுமி	-2207
▁ுயன்ற	-2208
▁வான	-2209
▁மின்ச	-2210
▁சல	-2211
▁சுர	-2212
▁டங்க	-2213
▁முஸ்	-2214
▁வலைத	-2215
▁யன்	-2216
▁தாய்	-2217
▁ிகப்ப	-2218
▁்ஸ	-2219
▁ஓர	-2220
▁ற்ச	-2221
▁ட்டன	-2222
▁தில்	-2223
▁தன்னை	-2224
▁வீதி	-2225
▁தேடி	-2226
▁வீச்ச	-2227
▁நமது	-2228
▁கொள்க	-2229
▁உதய	-2230
▁ட்வி	-2231
▁ப்போக	-2232
▁நிர்	-2233
▁ிக்கி	-2234
▁சனி	-2235
▁ன்ச	-2236
▁ர்ட	-2237
▁ைக்க	-2238
▁திவிட	-2239
▁பொதுக	-2240
▁I	-2241
▁கள்ள	-2242
▁கொடி	-2243
▁ராஜா	-2244
▁ள்ளூர	-2245
▁ோன	-2246
▁ேக்	-2247
▁ீட்டு	-2248
▁டிவி	-2249
▁ுதலை	-2250
▁யில்ல	-2251
▁ிலைமை	-2252
▁பாதை	-2253
▁னம	-2254
▁ிசு	-2255
▁ப்பம	-2256
▁ாக்	-2257
▁ோலி	-2258
▁பறி	-2259
▁முஸ்ல	-2260
ாயக	-2261
▁வன்	-2262
▁கைப்ப	-2263
▁நேரடி	-2264
▁மரண	-2265
▁ளவு	-2266
▁ஆரம்ப	-2267
or	-2268
an	-2269
▁ஐந்து	-2270
▁ரர்கள	-2271
▁வியா	-2272
▁வேகம	-2273
▁விரிவ	-2274
▁ெட்	-2275
▁ம்பா	-2276
▁இறங்க	-2277
▁ுமே	-2278
▁ரயில	-2279
▁ுன்னெ	-2280
▁ரேல	-2281
▁ஆல	-2282
▁யரசு	-2283
▁மீன	-2284
▁ெட்டி	-2285
▁சேகர	-2286
▁தமிழர	-2287
▁ெல	-2288
▁ேல	-2289
▁வீச	-2290
▁ருள	-2291
▁ாணி	-2292
▁ெரிய	-2293
▁ரேலிய	-2294
▁்த்து	-2295
▁ள்ளே	-2296
▁சிகலா	-2297
▁ட்டசப	-2298
▁்றால்	-2299
ோதர	-2300
▁ப்ட	-2301
▁சகோதர	-2302
▁ார்ச்	-2303
▁இழ	-2304
▁கழ	-2305
▁ரிவ	-2306
▁திறன	-2307
▁இழந்த	-2308
▁்டார்	-2309
▁ஆறு	-2310
▁சுய	-2311
▁யணி	-2312
▁ெக்	-2313
▁யாரும	-2314
▁லிங்க	-2315
▁ச்சனை	-2316
▁செலவ	-2317
▁சுட்ட	-2318
▁ித்	-2319
▁ிள்ள	-2320
▁ாக்கி	-2321
▁உணவ	-2322
▁ஒன்றை	-2323
▁பிரிவ	-2324
▁ஒத்த	-2325
▁சிலர	-2326
▁கொல்ல	-2327
▁ண்டர	-2328
▁பேரா	-2329
▁ைக்கு	-2330
போல	-2331
▁தேபோல	-2332
▁படுக	-2333
▁க்டர்	-2334
▁துப்ப	-2335
▁த்ம	-2336
▁முறைய	-2337
▁ிள்ளை	-2338
▁படை	-2339
▁ேச்சு	-2340
▁க்கொ	-2341
▁ிமுக	-2342
▁ாஷ்	-2343
▁ஜூலை	-2344
▁தெளிவ	-2345
▁பர்கள	-2346
▁்ரா	-2347
▁நாத்	-2348
▁ூற்ற	-2349
ிலை	-2350
▁40	-2351
▁ிக்ரம	-2352
▁குல	-2353
▁கவலை	-2354
▁சன	-2355
▁ஆவண	-2356
▁ுள்ளி	-2357
▁D	-2358
▁ரச	-2359
▁கப்பல	-2360
▁திண	-2361
▁ுகை	-2362
▁பேட்	-2363
▁l	-2364
▁கமத	-2365
▁ப்பூ	-2366
▁டவ	-2367
▁ணய	-2368
▁ங்கர	-2369
▁ுபவர	-2370
▁ண்மைய	-2371
▁விண்ண	-2372
▁ுற்றம	-2373
▁ொத்து	-2374
▁்ஸ்	-2375
▁ட்டில	-2376
▁ஞ்சாப	-2377
▁லலி	-2378
▁ராஜப	-2379
▁ுநர	-2380
▁ருணா	-2381
▁வித்த	-2382
▁ன்ட	-2383
▁பெரு	-2384
▁ிமுகவ	-2385
▁நடு	-2386
▁்ஷ	-2387
▁ுத்தக	-2388
விரம	-2389
▁உடை	-2390
▁டீர	-2391
▁ழிவ	-2392
▁ீவிரம	-2393
▁ொட்ட	-2394
▁லலிதா	-2395
▁கழக	-2396
▁சந்தை	-2397
▁N	-2398
▁ீர	-2399
▁கேப்	-2400
▁ட்டோ	-2401
▁ுவார	-2402
▁டீரென	-2403
▁ாஸ	-2404
▁ங்கு	-2405
▁மாகாண	-2406
▁ப்பான	-2407
▁/	-2408
▁14	-2409
▁விதம	-2410
▁யாராக	-2411
▁த்ய	-2412
▁ளர்கள	-2413
▁யணிகள	-2414
▁ளவ	-2415
▁ொடர	-2416
▁ங்கட	-2417
▁றங்க	-2418
▁ிஜ	-2419
▁ட்பு	-2420
▁நியூ	-2421
▁சொல்க	-2422
▁ல்லி	-2423
▁மேட	-2424
▁வுன்	-2425
▁சீன	-2426
▁குவி	-2427
▁ஆஸ்தி	-2428
▁ோது	-2429
▁றிஞர	-2430
▁னநாயக	-2431
▁ணத்தை	-2432
புண	-2433
▁ராத	-2434
▁நிபுண	-2435
▁கன்	-2436
▁டிகர்	-2437
▁ுத்தி	-2438
▁ாற்று	-2439
▁கௌ	-2440
▁னோ	-2441
▁சொல்வ	-2442
▁ியோக	-2443
▁ரம்	-2444
▁ிற்ப	-2445
▁வகி	-2446
▁ன்றைய	-2447
ையா	-2448
▁தீன	-2449
▁குரல	-2450
▁மாறி	-2451
▁ுறவு	-2452
▁தொடர்	-2453
▁விடுவ	-2454
▁ஷன	-2455
▁18	-2456
▁மூர	-2457
▁யிற	-2458
▁பேராச	-2459
▁க்கி	-2460
கம	-2461
றுவ	-2462
▁25	-2463
▁த்ர	-2464
▁வாள	-2465
▁கவனி	-2466
▁ழப்ப	-2467
▁மக்கு	-2468
▁வரிசை	-2469
▁அவன	-2470
▁ாத்த	-2471
▁in	-2472
▁சவால	-2473
▁ீட்	-2474
▁டிங்	-2475
▁ொல	-2476
▁ிமி	-2477
▁எனத்	-2478
▁ியல்	-2479
▁ஆகும்	-2480
▁ச்சல	-2481
▁ென்	-2482
▁ணக்க	-2483
▁தப்பி	-2484
▁ழியாக	-2485
▁னர	-2486
▁நாக	-2487
▁ுதன்	-2488
▁ஹோ	-2489
▁ியன	-2490
▁ுந்தர	-2491
▁யானை	-2492
▁ருமை	-2493
▁டைப்ப	-2494
▁ாளிகள	-2495
▁்வுகள	-2496
▁ாகப்	-2497
▁ாண்டு	-2498
▁ஜூன்	-2499
▁தீர்வ	-2500
▁பெறுவ	-2501
ுறை	-2502
▁டர	-2503
▁தல	-2504
▁கண்டன	-2505
▁்ரி	-2506
▁ேர்வ	-2507
▁அறிவு	-2508
▁ழும	-2509
▁ரப்பு	-2510
▁ெள்ளி	-2511
▁ங்கை	-2512
▁13	-2513
▁யர்	-2514
▁கூடிய	-2515
▁ினார	-2516
▁ளக்கம	-2517
▁கோர	-2518
▁கையில	-2519
▁ெற	-2520
▁ரவை	-2521
▁சிறிய	-2522
▁தற்கொ	-2523
▁குண	-2524
▁பேசி	-2525
▁ொன்ற	-2526
▁நிறைய	-2527
▁ுண்டு	-2528
▁ன்கள	-2529
▁ிலும	-2530
▁உட்	-2531
▁ஸ்ம	-2532
▁டைக்க	-2533
▁பை	-2534
▁ெல்	-2535
▁்றில்	-2536
▁மிய	-2537
▁கொட	-2538
▁முற்ற	-2539
▁லம்	-2540
▁ட்டம	-2541
▁விளைவ	-2542
▁கால்	-2543
▁ராஜபக	-2544
▁ிரம	-2545
▁ாராய	-2546
▁வலைதள	-2547
▁வேத	-2548
▁ற்று	-2549
▁ிரிகை	-2550
▁ுந்து	-2551
▁‛	-2552
▁ாபா	-2553
▁பிவிர	-2554
▁எரி	-2555
▁ங்கல்	-2556
▁ங்களத	-2557
▁ாரிய	-2558
▁நகர்	-2559
▁ல்யாண	-2560
▁ஏப்	-2561
▁திட	-2562
▁ுநர்	-2563
▁லன்	-2564
▁ப்பூச	-2565
▁ாளில்	-2566
▁ிச்சய	-2567
▁ட்ரோ	-2568
▁துடன்	-2569
▁ற்சவ	-2570
▁அருள்	-2571
▁இஸ்லா	-2572
▁வழிபட	-2573
▁பன்ன	-2574
▁அங்கே	-2575
▁நீங்க	-2576
▁ுறப்ப	-2577
▁ுமை	-2578
▁உரிய	-2579
▁விண்	-2580
▁த்திட	-2581
▁ுகாம	-2582
▁துவாக	-2583
▁டுமை	-2584
▁சேர	-2585
▁வுண்ட	-2586
▁ேட்டி	-2587
▁நீதி	-2588
▁கிடைய	-2589
▁ுமி	-2590
▁ன்ஸ்	-2591
▁யர்வ	-2592
▁ேஜ	-2593
▁பயன	-2594
▁கிரக	-2595
▁்பிய	-2596
▁வெட்ட	-2597
▁ாட்	-2598
▁மஹ	-2599
▁கல்	-2600
▁அளவு	-2601
▁ஷ்டிர	-2602
▁ின்போ	-2603
▁சுவ	-2604
▁ன்னு	-2605
▁ம்பி	-2606
▁சுப	-2607
▁ரேன	-2608
▁லாக	-2609
▁ுதல்வ	-2610
▁ஷா	-2611
▁ஹா	-2612
▁ராவிட	-2613
காரா	-2614
▁மிட	-2615
▁மகாரா	-2616
▁நினைவ	-2617
▁ரப	-2618
▁லத்த	-2619
▁ொடர்ப	-2620
▁ரளா	-2621
▁ைட்	-2622
▁குறு	-2623
▁திரி	-2624
▁சம்பந	-2625
▁16	-2626
▁ைல	-2627
▁டனே	-2628
▁ரன்	-2629
▁ான்ற	-2630
▁ளங்கள	-2631
▁ாஸ்	-2632
ar	-2633
▁ொற்று	-2634
▁தேர	-2635
▁ாலான	-2636
▁கோல	-2637
▁விய	-2638
▁எட்ட	-2639
▁ணைக்க	-2640
▁ஆதரவா	-2641
▁ாகவும	-2642
▁தோற	-2643
▁யணத்த	-2644
▁ஆற	-2645
▁அறை	-2646
▁ட்க	-2647
▁ம்மை	-2648
▁டிச	-2649
▁ிழி	-2650
▁ஆபத்த	-2651
▁ேயர	-2652
▁ளத்த	-2653
▁ள்ளை	-2654
▁பயணி	-2655
▁களின்	-2656
▁ல்வம்	-2657
▁வோ	-2658
▁தேட	-2659
▁ோதனை	-2660
▁னிமா	-2661
▁ம்சா	-2662
▁னிப்ப	-2663
▁யத்த	-2664
வரை	-2665
▁டைகள	-2666
▁ழக்க	-2667
▁ணிந்த	-2668
▁விகித	-2669
▁அத்த	-2670
▁ுமுறை	-2671
▁24	-2672
▁பெர	-2673
▁ர்ட்	-2674
▁இக்	-2675
▁ிசை	-2676
▁ுஷ	-2677
▁ுட்	-2678
▁ஞ்சம்	-2679
▁துண	-2680
▁பன்னீ	-2681
▁ும்பா	-2682
▁ுவை	-2683
▁ிட்டி	-2684
▁R	-2685
▁மால	-2686
▁அலுவ	-2687
▁ோர்ட்	-2688
▁ல்ப	-2689
▁னங்கள	-2690
▁அலுவல	-2691
▁கரம	-2692
▁ன்றிய	-2693
▁பட்டி	-2694
▁ரிந்த	-2695
▁ூதி	-2696
▁ாழ	-2697
▁மான்	-2698
▁ஒழ	-2699
▁னல	-2700
▁மறை	-2701
▁ளாக	-2702
▁ையே	-2703
▁அண	-2704
▁ரமணி	-2705
▁ங்	-2706
▁வைப்ப	-2707
▁ரல	-2708
▁லோ	-2709
▁ோம	-2710
▁தீப	-2711
▁ம்ஸ்	-2712
▁இன	-2713
▁வரப்ப	-2714
▁சிலை	-2715
▁ச்சே	-2716
▁திரட	-2717
▁வான்	-2718
▁பரப்ப	-2719
▁ப்பர்	-2720
▁மீர	-2721
▁காந்த	-2722
▁யற்ப	-2723
▁தம்	-2724
▁லாப	-2725
▁அக்க	-2726
▁கூர	-2727
▁மனத	-2728
▁யேற்ற	-2729
▁யிர	-2730
▁போதை	-2731
▁17	-2732
▁ிதா	-2733
▁தட	-2734
▁ஆதி	-2735
▁ண்ப	-2736
▁ைப்ப	-2737
▁கர்நா	-2738
▁தித்த	-2739
▁டகா	-2740
▁னந்த	-2741
▁அவச	-2742
▁ரட்ட	-2743
▁டங்கு	-2744
▁றுவ	-2745
▁ெங்க	-2746
▁ாகம்	-2747
▁ெல்ப	-2748
▁ளித	-2749
▁மொழி	-2750
▁இம்	-2751
▁ழைய	-2752
▁ளவில்	-2753
▁ிமிட	-2754
▁ாளைய	-2755
▁டின	-2756
▁ியாச	-2757
▁100	-2758
▁னென	-2759
▁யுக்	-2760
▁மூல	-2761
▁றுதி	-2762
▁பூர்வ	-2763
▁்கிரம	-2764
▁்டால்	-2765
▁்பில்	-2766
▁இப்ப	-2767
▁த்தக	-2768
▁மீட்ட	-2769
▁்தவரை	-2770
▁தைக்	-2771
▁ந்தோ	-2772
▁ேஷன	-2773
▁்லை	-2774
▁பாச	-2775
▁வதி	-2776
▁ிப்	-2777
▁p	-2778
▁உடன்	-2779
▁க்கல்	-2780
▁்லைன	-2781
▁ப்புற	-2782
▁ஆப	-2783
▁ளும்	-2784
▁ுவதை	-2785
▁ணுக	-2786
▁ீப்	-2787
▁ணர்வ	-2788
▁மித்	-2789
▁டிக	-2790
▁பாய	-2791
▁யினர்	-2792
ஞ்ச	-2793
▁திவு	-2794
▁பஞ்ச	-2795
▁மீன்	-2796
▁ம்மன்	-2797
▁டைவ	-2798
▁ங்கல	-2799
▁கழி	-2800
▁களைப்	-2801
▁ியூ	-2802
▁மாஸ்	-2803
▁ஆகியவ	-2804
▁கண்டற	-2805
▁ட்டவர	-2806
▁பாண்ட	-2807
▁தூக்க	-2808
▁ுரங்க	-2809
▁ரஜ	-2810
▁கிழ	-2811
▁ாயக	-2812
▁ங்கீ	-2813
▁ற்றை	-2814
▁ரூபாய	-2815
▁வராக	-2816
▁ய்க	-2817
▁ைஞர	-2818
▁ண்டப	-2819
▁ன்ட்	-2820
▁சூழ்ந	-2821
▁தூர	-2822
▁ாரி	-2823
▁இன்	-2824
▁ன்னா	-2825
▁மர்ச	-2826
▁ரியாத	-2827
▁அந்ந	-2828
▁தவறு	-2829
▁முனை	-2830
▁எல	-2831
▁த்தர	-2832
▁ாயகர்	-2833
▁சிக்	-2834
▁்புக	-2835
▁காரை	-2836
▁ெண்ட	-2837
▁ோஷ	-2838
▁வேளை	-2839
▁னமும்	-2840
▁ராய	-2841
▁த்தா	-2842
▁காப்ப	-2843
▁ூவ	-2844
er	-2845
▁கடல	-2846
▁பரி	-2847
▁ிர்	-2848
▁கடல்	-2849
▁மர்சன	-2850
▁ந்தி	-2851
▁ுகம	-2852
▁நீட்	-2853
▁ுகளில	-2854
▁ரத	-2855
டம	-2856
▁ீடி	-2857
▁ரிமை	-2858
▁வீசி	-2859
▁ாட்டை	-2860
▁ோன்று	-2861
▁ாதாரம	-2862
▁ுவதாக	-2863
▁ூப	-2864
▁சல்	-2865
▁ாதா	-2866
▁ாவில்	-2867
▁்ல	-2868
▁மாம	-2869
▁அறிவ	-2870
▁வற்றை	-2871
▁்பதி	-2872
▁ஏற்பட	-2873
▁ாயம்	-2874
▁டாத	-2875
▁னியாக	-2876
▁னுக்க	-2877
▁மார்க	-2878
▁அச	-2879
▁ையா	-2880
▁அச்ச	-2881
▁நீர்	-2882
▁கண்டு	-2883
▁ட்டிய	-2884
▁சேத	-2885
▁பர்	-2886
▁்கம	-2887
▁ச்செ	-2888
▁ப்பன	-2889
▁ாப்பா	-2890
வின	-2891
▁ரப்ப	-2892
▁திலும	-2893
▁க்ச	-2894
▁ார்க	-2895
▁நாம	-2896
▁டிகை	-2897
▁யூனி	-2898
▁தவி	-2899
▁விட்	-2900
▁்நாட	-2901
▁ட்டார	-2902
▁பிரிய	-2903
▁ியில்	-2904
▁ஓர்	-2905
▁பிஎஸ்	-2906
▁வரிடம	-2907
▁m	-2908
▁ளம	-2909
▁கேர	-2910
▁வலர	-2911
▁குத்த	-2912
▁்ம	-2913
▁ஞ்சு	-2914
▁கன்ன	-2915
▁ுக்கி	-2916
▁ிட்	-2917
▁ுற்று	-2918
▁ெறும்	-2919
▁றுக	-2920
▁க்கடி	-2921
▁ாந்து	-2922
▁ண்டா	-2923
▁தாம்	-2924
▁த்தூர	-2925
▁லிவ	-2926
▁ுமார	-2927
▁்தம	-2928
▁ுண்ட	-2929
▁ாயா	-2930
▁ச்சேர	-2931
▁ூலி	-2932
▁்பள	-2933
▁ியம்	-2934
▁உப	-2935
▁ாசா	-2936
▁்ட்ர	-2937
▁G	-2938
▁எஸ	-2939
▁ழல்	-2940
▁சார்	-2941
▁ெய்வ	-2942
▁ணிக	-2943
▁வலு	-2944
▁ையெ	-2945
▁க்ர	-2946
▁பூர	-2947
▁எங்க	-2948
▁த்தல	-2949
▁டுகளை	-2950
▁ிட்டன	-2951
▁ஹர	-2952
▁ைன	-2953
▁ுரிய	-2954
▁சாத்த	-2955
▁காசி	-2956
▁ணிகள	-2957
▁திரை	-2958
▁பிக்	-2959
▁ெல்வ	-2960
▁ீவ	-2961
▁சூழல்	-2962
▁ர்ன	-2963
▁எழுதி	-2964
▁ினைவு	-2965
▁தகம	-2966
▁ிகள்	-2967
▁தன்மை	-2968
▁ுதித	-2969
▁நாயகர	-2970
▁E	-2971
▁சர	-2972
▁்நாடக	-2973
▁ஜ்	-2974
▁்ஜி	-2975
▁க்களி	-2976
▁சிக்க	-2977
▁பாஸ்	-2978
▁ுறைய	-2979
▁ரூர	-2980
▁ானே	-2981
▁ின்ன	-2982
▁ுவார்	-2983
▁ைதான	-2984
▁க்டர	-2985
▁ஏற்பா	-2986
▁கரில்	-2987
▁o	-2988
▁லம	-2989
▁கான	-2990
▁லாந்த	-2991
▁ூக்கி	-2992
▁டவு	-2993
▁தள்ள	-2994
▁ீங்க	-2995
▁ூர்வ	-2996
▁மேன	-2997
▁ையட	-2998
▁ுடிய	-2999
▁ியோ	-3000
▁ொட்டி	-3001
▁வண	-3002
▁ரண்ட	-3003
▁ராம்	-3004
▁60	-3005
▁நிற	-3006
▁லகம்	-3007
▁ல்கள	-3008
nd	-3009
▁ணிய	-3010
▁ுலி	-3011
▁றுதிய	-3012
▁ூத்த	-3013
▁்கிற	-3014
▁ஹெ	-3015
▁ளங்க	-3016
▁லாக்க	-3017
▁ீட்டர	-3018
▁d	-3019
▁டர்	-3020
▁ாபாத்	-3021
▁ாலி	-3022
▁V	-3023
▁டக்கு	-3024
▁நீதிம	-3025
▁கவர	-3026
▁மாஸ	-3027
▁ிவா	-3028
▁எனப்	-3029
▁தானி	-3030
▁த்தம்	-3031
▁லுங்க	-3032
▁ழிக்க	-3033
▁ஞா	-3034
▁கணி	-3035
▁மலா	-3036
▁ராச	-3037
he	-3038
▁விர	-3039
▁வம	-3040
▁வழிய	-3041
▁b	-3042
▁திருந	-3043
▁ப்பாட	-3044
▁ti	-3045
▁க்குவ	-3046
▁ாமத்த	-3047
▁er	-3048
▁ோதா	-3049
▁ிகளை	-3050
▁்க்	-3051
▁டில்	-3052
▁ர்வல	-3053
▁ட்சிய	-3054
▁பொறுத	-3055
▁ணிகளை	-3056
▁னவு	-3057
▁டியே	-3058
▁ாகத்த	-3059
▁முட	-3060
▁ள்வ	-3061
▁ங்கம்	-3062
▁ிவச	-3063
▁ந்தா	-3064
▁சிந்த	-3065
▁ஊர்	-3066
▁உயர்ந	-3067
▁ுப்பி	-3068
▁இசை	-3069
▁21	-3070
▁ொம	-3071
▁ிரஸ	-3072
▁ாசு	-3073
▁னித்த	-3074
▁ரியல	-3075
▁களைக்	-3076
▁ான்மை	-3077
▁ுவதில	-3078
▁்தப்ப	-3079
டன	-3080
▁பிரபல	-3081
▁லைக்க	-3082
▁ாஜ்	-3083
▁ேனா	-3084
▁ண்ணா	-3085
▁ோள	-3086
▁ுல்ல	-3087
▁ஈர	-3088
▁ுகைய	-3089
▁விடும	-3090
▁ுவருக	-3091
▁ிந்த	-3092
▁ிதிகள	-3093
▁வுக	-3094
▁ானிய	-3095
▁ஹி	-3096
▁ாசன	-3097
▁ைகள	-3098
▁ணிக்க	-3099
▁%	-3100
▁இடம	-3101
▁புறம	-3102
▁வாதி	-3103
▁ாவிட	-3104
▁களத்த	-3105
▁யல்பட	-3106
▁ிரத்த	-3107
▁g	-3108
▁ொதுக்	-3109
▁இவை	-3110
▁ம்மு	-3111
▁ரக்க	-3112
▁வீரர்	-3113
▁ிலங்க	-3114
al	-3115
▁ூழ	-3116
▁யிடம்	-3117
▁ுவில்	-3118
▁ிருட	-3119
▁வுடன்	-3120
▁ஆடி	-3121
▁ிடத்த	-3122
▁ுத்தம	-3123
▁ைட	-3124
▁உண்ட	-3125
▁பிரத	-3126
▁ுப்த	-3127
▁ப்பிர	-3128
▁விற்க	-3129
▁ிஞ	-3130
▁ிறதா	-3131
▁ிச்சி	-3132
▁19	-3133
▁்கா	-3134
▁ரத்	-3135
▁வால	-3136
▁ெஸ்	-3137
▁ேட்	-3138
▁ானா	-3139
▁ீதா	-3140
▁்மத	-3141
▁சத்த	-3142
▁ேரி	-3143
▁ழுது	-3144
▁ுடியி	-3145
▁ூட்டு	-3146
ொரு	-3147
▁னியா	-3148
▁ஷன்	-3149
▁ஏழ	-3150
▁பச	-3151
▁ோக	-3152
▁மித	-3153
▁ஜித	-3154
▁ன்றாக	-3155
▁வந்தத	-3156
்தா	-3157
▁பயண	-3158
▁ுகத்த	-3159
▁L	-3160
▁வேள	-3161
▁ட்ஸ்	-3162
▁தொலை	-3163
▁22	-3164
▁ர்வம	-3165
▁ெம	-3166
▁ானவர	-3167
▁சாட்ட	-3168
▁வாரி	-3169
▁குண்ட	-3170
▁ர்கள்	-3171
▁னித	-3172
▁யாகும	-3173
▁ர்க்	-3174
▁ிண்ட	-3175
▁ரதி	-3176
▁தற்கா	-3177
▁நகை	-3178
▁றந	-3179
▁ர்ப	-3180
▁ளைய	-3181
▁கெ	-3182
▁ிடு	-3183
▁்சே	-3184
▁அடைய	-3185
▁வப்ப	-3186
▁ன்றும	-3187
am	-3188
▁F	-3189
▁லூர	-3190
▁ிடி	-3191
▁டுகள்	-3192
▁ப்பிய	-3193
▁றைந்த	-3194
▁ைப்பு	-3195
▁ுஷ்	-3196
▁ிகை	-3197
▁ோனி	-3198
▁்டில்	-3199
▁ஜென	-3200
▁ல்ட	-3201
▁ுட்டி	-3202
▁வலம	-3203
▁யக்க	-3204
▁ந்தைய	-3205
▁ட்டாய	-3206
▁கதா	-3207
▁கங்கள	-3208
▁ட்டப்	-3209
▁ியாளர	-3210
▁ோண	-3211
▁லிம	-3212
▁ிகா	-3213
▁நியம	-3214
▁யிர்	-3215
▁ரிசி	-3216
▁ற்றும	-3217
▁ாண்டி	-3218
▁காலி	-3219
▁ாயில	-3220
▁எப்போ	-3221
▁ீத	-3222
▁புத	-3223
▁ரிம	-3224
▁ோக்	-3225
▁இந்தி	-3226
▁ிஐ	-3227
▁ாரம்	-3228
▁யானது	-3229
▁ற்கு	-3230
▁லவ	-3231
▁ுட்டு	-3232
▁றவை	-3233
▁ரம்ப	-3234
▁ப்ள	-3235
▁ஆயிர	-3236
▁ிரா	-3237
▁னிலை	-3238
▁ய்யா	-3239
▁லன	-3240
▁சிரி	-3241
▁போன்	-3242
▁ம்பல	-3243
▁ிவார	-3244
▁ுச	-3245
▁ண்டிக	-3246
▁ீக	-3247
▁ரித	-3248
▁னார்	-3249
▁முர	-3250
▁க்தி	-3251
▁தட்ட	-3252
▁ெட்ட	-3253
▁வைத்	-3254
▁ுச்ச	-3255
▁கத்தா	-3256
▁பத்து	-3257
▁மானது	-3258
▁க்ன	-3259
▁ஆற்ற	-3260
▁ுமென	-3261
▁23	-3262
▁சாத	-3263
▁பில	-3264
▁லப்ப	-3265
▁ர்வைய	-3266
▁பிறக	-3267
▁ார்ட்	-3268
▁உர	-3269
▁ஜர	-3270
▁்வா	-3271
▁ூச்ச	-3272
▁ியலில	-3273
▁ைம	-3274
▁்டா	-3275
▁ைவ	-3276
▁்யூ	-3277
▁பாதி	-3278
▁னப்பட	-3279
▁்க்கு	-3280
▁ேலு	-3281
▁க்கம	-3282
▁அதன்ப	-3283
▁ரஸ்	-3284
▁ாராம	-3285
▁ேஸ	-3286
▁ற்றவர	-3287
▁ாளிக	-3288
▁வேற	-3289
▁்மை	-3290
▁அம்ப	-3291
▁ுதின	-3292
▁டையில	-3293
▁ழிப்ப	-3294
▁தர்	-3295
▁ிவக	-3296
▁வட்ட	-3297
▁ைவிட	-3298
▁ஆப்	-3299
▁ூப்	-3300
▁மிக்க	-3301
▁ப்பது	-3302
▁சர்	-3303
▁ழமை	-3304
▁அவ்வ	-3305
▁ானம்	-3306
▁இணையத	-3307
▁த்தவர	-3308
▁லச	-3309
▁ித்தி	-3310
▁ஏற	-3311
▁மாட	-3312
▁ொடி	-3313
▁மாளி	-3314
▁ுரம்	-3315
▁டம்	-3316
▁லவர	-3317
▁ாகர	-3318
▁ாபி	-3319
▁வினர்	-3320
▁ஆதார	-3321
▁தியாக	-3322
▁ொதுச்	-3323
▁ஸா	-3324
▁ெடு	-3325
▁v	-3326
▁அல்	-3327
▁ோர்ட	-3328
▁ேட	-3329
▁ாரு	-3330
▁திடீர	-3331
▁ரங்கள	-3332
▁ஃபி	-3333
▁டவுள	-3334
▁தத்த	-3335
▁ியான	-3336
▁தளத்த	-3337
▁யோட	-3338
▁்றம	-3339
▁பாரத	-3340
▁ிதிய	-3341
▁டையின	-3342
▁ழங்கு	-3343
▁தால	-3344
▁ேண்ட	-3345
▁ோன்ற	-3346
▁க்கம்	-3347
in	-3348
▁தாய	-3349
▁ர்ண	-3350
▁ேறு	-3351
▁லைவ	-3352
▁வளி	-3353
▁ாரர	-3354
▁ண்மை	-3355
▁ஸ்டா	-3356
▁கடன	-3357
▁சூர	-3358
▁னதா	-3359
▁ிசா	-3360
▁மொத்த	-3361
▁ரிக்க	-3362
▁றப்பு	-3363
▁ியவர்	-3364
▁ுக்கே	-3365
▁ோவ	-3366
▁ரவாத	-3367
▁லால்	-3368
ha	-3369
▁அப்	-3370
▁மாணவ	-3371
▁வார்	-3372
▁ாவி	-3373
▁சனை	-3374
▁ப்த	-3375
▁இவ்வ	-3376
▁குளி	-3377
▁கேரள	-3378
▁கையை	-3379
▁ிகித	-3380
▁க்களை	-3381
▁w	-3382
▁உரை	-3383
▁தொகு	-3384
▁நான்க	-3385
▁ராவ	-3386
▁ைதி	-3387
▁்கான	-3388
▁ஆண்	-3389
▁ிஞ்	-3390
▁ப்பர	-3391
▁யல்ப	-3392
▁ள்க	-3393
▁்ச்	-3394
▁ாகக்	-3395
▁பாத்த	-3396
▁ரும்ப	-3397
▁ணியில	-3398
▁ஸ்டர	-3399
▁ாஷ	-3400
▁ேன	-3401
▁யூர	-3402
▁கொல்	-3403
▁ரிக்	-3404
▁அணு	-3405
▁ட்வ	-3406
▁ரிப	-3407
▁லைய	-3408
▁்ரோ	-3409
▁மிக்	-3410
▁யப்ப	-3411
▁ெயர	-3412
▁ாட்ச	-3413
▁ுப்பு	-3414
▁னே	-3415
▁ர்ல	-3416
▁ிரவ	-3417
▁ண்டர்	-3418
▁இப்	-3419
▁ளிய	-3420
▁பந்த	-3421
▁ப்போ	-3422
▁வொரு	-3423
▁ஸ்திர	-3424
▁ணு	-3425
▁சும	-3426
▁மரா	-3427
▁ாத்	-3428
▁யிலா	-3429
▁ெய்த	-3430
▁கணவ	-3431
▁ரோத	-3432
▁ாண்	-3433
▁தியம்	-3434
▁ப்பதி	-3435
▁வகு	-3436
▁ாறு	-3437
▁லைகள	-3438
▁f	-3439
▁பவர	-3440
▁பழனி	-3441
▁வண்ண	-3442
▁விழு	-3443
▁ட்டல	-3444
▁பான்	-3445
▁ற்பு	-3446
▁ண்டே	-3447
▁வர்த	-3448
▁ிந்தி	-3449
▁H	-3450
▁சாம	-3451
▁ானி	-3452
▁ம்மா	-3453
▁ராஜன	-3454
▁ட்டின	-3455
▁ணர்வு	-3456
▁ைத	-3457
▁ீன்	-3458
▁ளவில	-3459
▁டலா	-3460
▁சம்	-3461
▁றிவ	-3462
▁ார்ட	-3463
▁க்கிர	-3464
▁ுனி	-3465
▁ச்சம	-3466
▁திலி	-3467
▁சிப	-3468
▁தாம	-3469
▁காரிய	-3470
▁கண்	-3471
▁லக்க	-3472
▁ாலும	-3473
il	-3474
▁்ரீ	-3475
▁போதே	-3476
▁மூட	-3477
▁தலைய	-3478
▁ட்டோர	-3479
▁ாற	-3480
▁ீம	-3481
▁ர்ஷ	-3482
▁டியா	-3483
▁ரின்	-3484
▁ப்படவ	-3485
▁ாவில	-3486
▁பரவி	-3487
▁ொழ	-3488
▁யம்	-3489
▁ெரி	-3490
▁ேரு	-3491
▁சைக்க	-3492
▁ரையா	-3493
▁ிரியா	-3494
▁ுபட	-3495
▁கைகள	-3496
▁யன	-3497
▁ுங்கு	-3498
▁70	-3499
▁உற்ச	-3500
▁தாங்க	-3501
▁நிம	-3502
▁மதம	-3503
▁மரி	-3504
▁ணும்	-3505
▁ேளை	-3506
▁ொய்	-3507
▁்திரி	-3508
▁மய	-3509
▁பிரம	-3510
▁ிவின	-3511
▁ேக்க	-3512
▁நேற்ற	-3513
▁றந்த	-3514
▁ேவி	-3515
▁்கி	-3516
▁தரவு	-3517
▁வனத்	-3518
▁பன	-3519
▁டாம	-3520
▁ன்னீ	-3521
▁ற்றம	-3522
▁ிற்ச	-3523
▁ஞ்சம	-3524
▁்கர்	-3525
▁ஜன	-3526
▁கமி	-3527
▁ன்னை	-3528
▁களால்	-3529
▁கம	-3530
▁ுதா	-3531
▁ூங்க	-3532
▁டமை	-3533
▁தேன	-3534
▁ொலை	-3535
▁ந்தன	-3536
▁வுக்க	-3537
▁்நிலை	-3538
▁ீய	-3539
▁பேசின	-3540
▁இதுவ	-3541
▁க்ஸ்	-3542
▁்பிர	-3543
▁மம்	-3544
▁ாய்வ	-3545
▁மண்	-3546
▁மதி	-3547
▁ஆர்வ	-3548
▁மத்த	-3549
▁ளு	-3550
▁டுத	-3551
▁ெச	-3552
▁ெர	-3553
▁தையட	-3554
▁st	-3555
▁ஒட	-3556
▁னவ	-3557
▁ிச்	-3558
▁ுவர	-3559
▁ம்தா	-3560
▁நடிகர	-3561
▁தண்ட	-3562
▁தொற்ற	-3563
es	-3564
▁டாக்	-3565
▁ருவி	-3566
▁ாயு	-3567
▁துரை	-3568
▁கிழமை	-3569
▁O	-3570
▁ஏழு	-3571
▁ழுக	-3572
▁ோக்க	-3573
▁ிசி	-3574
▁ந்தர்	-3575
▁ிரே	-3576
▁ன்க	-3577
▁ியார	-3578
▁ெப்ப	-3579
▁ளிப	-3580
▁tion	-3581
▁கரன்	-3582
▁சுவா	-3583
▁காத	-3584
▁குப	-3585
▁பாவ	-3586
▁ிது	-3587
▁K	-3588
▁ாடல	-3589
▁ியர	-3590
▁சாம்	-3591
▁நாயக	-3592
▁W	-3593
▁ேலி	-3594
▁ரிவா	-3595
▁ாரில்	-3596
▁னக	-3597
▁ோன்	-3598
▁ய்க்க	-3599
▁ல்விய	-3600
▁ாஜி	-3601
▁ிற்ற	-3602
▁மிகப்	-3603
▁லூ	-3604
▁தைச்	-3605
▁பைக்	-3606
▁ிராக	-3607
▁டலாம்	-3608
▁நிலம்	-3609
▁ஆகி	-3610
▁தலா	-3611
▁ந்ந	-3612
▁லிக	-3613
▁ேடி	-3614
▁வாய்	-3615
▁ிந்து	-3616
▁பலி	-3617
▁மாகி	-3618
▁கடத்த	-3619
▁ன்னால	-3620
▁ேப	-3621
▁ரான	-3622
▁ூறு	-3623
▁்டர்	-3624
▁ெரு	-3625
▁ார்ப	-3626
▁ல்லைய	-3627
▁எத	-3628
▁ரைய	-3629
▁டக்கி	-3630
▁ட்டல்	-3631
▁காயம	-3632
▁னும்	-3633
▁ாடா	-3634
▁ேட்ப	-3635
▁க்கே	-3636
▁ர்டு	-3637
▁ிஸ்ட	-3638
▁ென்ன	-3639
▁னிம	-3640
▁ுபா	-3641
▁வெறு	-3642
▁்பல்	-3643
▁27	-3644
▁ழ்க	-3645
▁வரது	-3646
▁டலில்	-3647
▁தினம்	-3648
▁காஷ்	-3649
▁ழக	-3650
▁கும்ப	-3651
▁்தத்த	-3652
▁மந்த	-3653
▁லில்	-3654
▁ட்டம்	-3655
▁திரைய	-3656
▁ல்கிற	-3657
▁டம	-3658
▁்ஹ	-3659
▁லர்	-3660
▁வள்	-3661
▁பொன்	-3662
▁னிக்க	-3663
▁ஆண	-3664
▁ம்மி	-3665
▁மாகும	-3666
▁28	-3667
▁னாக	-3668
▁முய	-3669
▁எண்	-3670
▁பலன	-3671
▁ாபு	-3672
▁ன்பத	-3673
▁இத்த	-3674
▁றுமை	-3675
▁சண்	-3676
▁வுன	-3677
▁வியல	-3678
▁கத்தி	-3679
▁கற்	-3680
▁ரையி	-3681
▁ர்ஸ்	-3682
▁க்கர்	-3683
▁போவத	-3684
▁ேந்த	-3685
▁துல	-3686
▁புக	-3687
▁ுமெ	-3688
▁ங்களா	-3689
▁ஆலோச	-3690
▁மணிய	-3691
▁ப்பணி	-3692
▁விடுத	-3693
▁ாலைகள	-3694
▁்றத்த	-3695
▁ூற	-3696
▁்னா	-3697
▁டியின	-3698
▁ல்லிய	-3699
▁தரும	-3700
▁்திரம	-3701
▁200	-3702
▁பரா	-3703
▁தார்	-3704
▁திர்	-3705
▁மாரி	-3706
▁வினர	-3707
▁ர்ஸ	-3708
▁்கோ	-3709
▁ப்பெ	-3710
▁ீச்ச	-3711
▁்ணன்	-3712
▁டுங்க	-3713
▁ன்றத்	-3714
▁வாதம்	-3715
▁ாடக	-3716
▁ேர்	-3717
▁செய்	-3718
▁மன்ற	-3719
▁வரவே	-3720
▁ண்டிய	-3721
▁ெடி	-3722
▁ாலின	-3723
▁ழித்த	-3724
▁சரவ	-3725
▁கட்டம	-3726
▁ிலைகள	-3727
▁26	-3728
▁ழ்	-3729
▁ருவர	-3730
▁களைத்	-3731
▁நேரம்	-3732
▁முருக	-3733
▁விந்த	-3734
▁80	-3735
▁தற	-3736
▁ிண	-3737
▁வால்	-3738
▁ுள்ளா	-3739
▁ீனி	-3740
▁ன்னர	-3741
▁ிறகு	-3742
▁ஸ்ஸ	-3743
▁்டோ	-3744
▁்பூர	-3745
▁முற	-3746
▁ியமாக	-3747
nt	-3748
▁டான	-3749
▁ுறைகள	-3750
▁கவே	-3751
▁ிஎஸ்	-3752
▁ெண்ண	-3753
▁்கார	-3754
▁ார்க்	-3755
▁்பாளர	-3756
▁்பிடி	-3757
▁ிப	-3758
▁க்கார	-3759
▁ிளம்ப	-3760
re	-3761
▁ாப	-3762
▁ிஸ்த	-3763
▁ேக	-3764
▁ரோட	-3765
▁ாதவ	-3766
▁ெந்த	-3767
▁வீட	-3768
▁ாலம	-3769
▁ம்பு	-3770
▁ெவ்வ	-3771
▁டையும	-3772
▁ானத்த	-3773
ka	-3774
▁ஜீ	-3775
▁னச	-3776
▁ணன்	-3777
▁னைய	-3778
▁க்கெ	-3779
hi	-3780
ra	-3781
▁அப	-3782
▁பதற	-3783
▁ஸ்வரர	-3784
▁ின்றத	-3785
▁ில்லா	-3786
▁வதா	-3787
▁ோயி	-3788
▁டுகள	-3789
▁திகா	-3790
▁ிடைய	-3791
▁மாக்க	-3792
▁லுள்ள	-3793
▁ழம	-3794
▁ாங்	-3795
▁ிரை	-3796
▁ிழந்த	-3797
▁சுக	-3798
▁டது	-3799
▁பரம	-3800
▁லக்	-3801
▁ஐந்த	-3802
▁காக்க	-3803
▁டாவ	-3804
▁நோய்	-3805
▁ரித்	-3806
▁35	-3807
▁ஏத	-3808
▁ந்	-3809
▁லோக	-3810
▁மிர	-3811
▁றுக்க	-3812
▁யந்த	-3813
▁ரிப்ப	-3814
▁டெல	-3815
▁ணாம	-3816
▁லிப	-3817
▁ழுத	-3818
▁ாவல	-3819
▁ெண்	-3820
▁கூடும	-3821
▁ழுதிய	-3822
▁ியாகு	-3823
▁கத	-3824
▁ஸி	-3825
▁்பவ	-3826
▁ாக்ட	-3827
▁ிதாக	-3828
▁்புவ	-3829
▁டைக	-3830
▁ச்சை	-3831
▁க்கிட	-3832
▁பவ	-3833
▁ஆசி	-3834
▁பல்	-3835
▁ரிட	-3836
▁ண்ணை	-3837
▁ருவத	-3838
▁ெய்ய	-3839
▁தையும	-3840
▁Vi	-3841
▁ேசி	-3842
▁ேத்	-3843
▁காரம்	-3844
▁ஆனா	-3845
▁தரக	-3846
▁த்தம	-3847
▁க்குழ	-3848
▁்ந்தி	-3849
om	-3850
▁ிளை	-3851
▁்லா	-3852
▁புறம்	-3853
▁ிந	-3854
▁பாத	-3855
▁மன்	-3856
▁மின	-3857
▁ாவா	-3858
▁்போ	-3859
▁டுவத	-3860
▁னில்	-3861
▁ாரத்	-3862
as	-3863
▁லார	-3864
▁க்கோ	-3865
▁மாச	-3866
▁வென	-3867
▁த்தன	-3868
▁டாமல்	-3869
▁ிப்பத	-3870
▁ிரப்ப	-3871
▁ோஸ	-3872
▁தற்	-3873
▁லக்கு	-3874
▁யக	-3875
▁ண்டன	-3876
▁பாலி	-3877
▁ிகார	-3878
▁ையை	-3879
▁ஷ்டி	-3880
▁கெட்ட	-3881
ay	-3882
▁ராட	-3883
▁ுளை	-3884
▁ழுவ	-3885
▁்கை	-3886
▁சுப்	-3887
▁ஜின	-3888
▁ாசி	-3889
▁ப்பந	-3890
▁வணங்க	-3891
▁75	-3892
▁மட	-3893
▁ஷம	-3894
▁ஏதோ	-3895
▁மாவ	-3896
▁லத்	-3897
▁ுடு	-3898
▁மலைய	-3899
▁வசம	-3900
▁ிவே	-3901
▁வுர	-3902
▁ராட்	-3903
▁நப	-3904
▁டிரா	-3905
▁பழங்க	-3906
▁ன்சி	-3907
▁லித்	-3908
▁ையாக	-3909
▁வையில	-3910
▁லுக	-3911
▁சாரி	-3912
▁ையில	-3913
▁ள்கிற	-3914
▁விடுக	-3915
▁திப	-3916
▁ிகர	-3917
▁காச	-3918
▁u	-3919
▁ீன	-3920
▁ைப	-3921
▁ரைச	-3922
▁பூர்	-3923
▁க்கில	-3924
▁்டிக்	-3925
▁ிறை	-3926
▁்டை	-3927
▁்றை	-3928
▁சியா	-3929
▁டியோ	-3930
▁நெல்	-3931
▁முகவ	-3932
▁்ட்ட	-3933
▁ஏம	-3934
▁ரணி	-3935
▁ப்பவர	-3936
ou	-3937
▁U	-3938
▁னீ	-3939
▁கரா	-3940
▁ாமர	-3941
▁டிகள	-3942
ve	-3943
▁and	-3944
▁தேர்	-3945
ic	-3946
▁ொள	-3947
▁்னி	-3948
▁்னர்	-3949
▁்பும்	-3950
▁சப்	-3951
▁சூட	-3952
▁காலம	-3953
▁ுவோம்	-3954
▁னிட	-3955
▁லர்கள	-3956
▁ரஹ	-3957
▁எது	-3958
▁ளாவ	-3959
▁ுண	-3960
▁டையை	-3961
▁கிவிட	-3962
▁ிவில்	-3963
▁போவ	-3964
▁்வத	-3965
▁வரைய	-3966
▁ன்னார	-3967
▁31	-3968
▁நேர்	-3969
▁நிறுவ	-3970
▁ேண்டி	-3971
▁டூ	-3972
▁உலா	-3973
▁கோய	-3974
▁றைவ	-3975
▁ன்னதா	-3976
▁மூலம்	-3977
▁500	-3978
▁னது	-3979
▁லிட	-3980
▁ூம	-3981
▁ுமண	-3982
▁ொள்	-3983
▁வரவேற	-3984
le	-3985
▁ரர்	-3986
▁ுது	-3987
▁த்தட	-3988
▁90	-3989
▁பட்	-3990
▁னிக்	-3991
▁பாப	-3992
▁ுழு	-3993
▁ஸ்டி	-3994
▁்டாக	-3995
▁ிலக்க	-3996
ad	-3997
▁னல்	-3998
▁ாரண	-3999
▁ாக்கம	-4000
▁45	-4001
▁ரொ	-4002
▁சான	-4003
▁ோவத	-4004
▁க்கட	-4005
▁நாளி	-4006
▁ிம்ப	-4007
▁டர்கள	-4008
▁கோள	-4009
▁யாள	-4010
▁அணிய	-4011
▁தானம	-4012
▁பிரே	-4013
▁லைத்த	-4014
▁ீட்டி	-4015
▁அட்	-4016
▁கவு	-4017
▁லைப்	-4018
▁ார்வ	-4019
▁ெரும	-4020
▁மங்கள	-4021
▁பம	-4022
ுடன	-4023
▁சமா	-4024
▁ேசிய	-4025
▁ச்சுவ	-4026
▁ீஸ	-4027
▁நித	-4028
▁பான	-4029
▁பீட	-4030
▁ளவர	-4031
▁ீனா	-4032
▁ச்சின	-4033
ew	-4034
▁29	-4035
▁னார	-4036
▁ாசம	-4037
▁ெர்	-4038
▁ண்டல	-4039
▁ய்வு	-4040
▁to	-4041
▁திவ	-4042
▁ழிப	-4043
▁ுளி	-4044
▁கரன	-4045
▁டல்	-4046
▁னாத	-4047
▁ன்கு	-4048
▁ழிவு	-4049
▁்பின	-4050
▁காத்த	-4051
▁க்குட	-4052
▁ழிபாட	-4053
▁சாக	-4054
▁பேரு	-4055
▁ரவில்	-4056
▁ருட	-4057
▁வடக	-4058
▁ிணை	-4059
▁விகள	-4060
▁ொள்வ	-4061
▁யேற	-4062
▁ூட்	-4063
▁உங்க	-4064
▁ொந்த	-4065
ri	-4066
▁பழக	-4067
▁ற்றா	-4068
▁வாட்	-4069
▁ுன்பு	-4070
▁்று	-4071
▁ண்ணி	-4072
▁படிய	-4073
▁ரும்	-4074
▁ஸ்தி	-4075
▁ொன்ன	-4076
▁பான்ம	-4077
▁்றுப்	-4078
.5	-4079
▁+	-4080
▁ரவு	-4081
▁க்கற	-4082
▁ஈடுப	-4083
▁ியவர	-4084
▁கோட்ட	-4085
ro	-4086
▁ரூப	-4087
▁ீம்	-4088
▁ீஸ்	-4089
▁ெல்வம	-4090
▁பூச	-4091
▁லது	-4092
▁ேல்	-4093
▁வைகள	-4094
▁ட்டுவ	-4095
▁பஞ்சா	-4096
▁அமல	-4097
▁ேவ	-4098
▁லீச	-4099
▁சிபி	-4100
▁ன்றை	-4101
▁டுகிற	-4102
▁ஓவ	-4103
▁கூடி	-4104
▁யமான	-4105
ed	-4106
▁வுத	-4107
▁ீதம	-4108
▁னப்ப	-4109
▁ணங்கள	-4110
en	-4111
▁கிண	-4112
▁சைய	-4113
▁ிடா	-4114
▁சில்	-4115
▁நாடக	-4116
▁பியா	-4117
▁ல்லு	-4118
▁ழங்க	-4119
▁ிருத	-4120
▁்பாள	-4121
▁சுக்க	-4122
▁னிடம்	-4123
▁of	-4124
▁எச்	-4125
▁விடம	-4126
▁த்தார	-4127
்ப்	-4128
▁மாதம	-4129
▁al	-4130
▁ிறு	-4131
▁ட்கள	-4132
▁திபதி	-4133
▁அர	-4134
▁ing	-4135
▁ாயி	-4136
▁ிகு	-4137
▁ளப்ப	-4138
▁டியில	-4139
▁ழுக்க	-4140
▁h	-4141
▁ல்லை	-4142
▁ூழல்	-4143
▁ீட	-4144
▁நிப	-4145
▁வத்	-4146
▁ுல்	-4147
▁யங்கள	-4148
ol	-4149
▁ணா	-4150
▁300	-4151
▁ாற்ற	-4152
▁டியாக	-4153
▁்றின்	-4154
▁ாலு	-4155
▁கல்வ	-4156
▁ேண்டு	-4157
▁சிம	-4158
▁லாத	-4159
▁குவா	-4160
▁ஸ்லா	-4161
▁்மா	-4162
▁்ளே	-4163
▁சின்	-4164
▁பில்	-4165
▁ன்னீர	-4166
▁ிரதம	-4167
▁ிவாக	-4168
▁லங்கள	-4169
▁வரத	-4170
▁ாச்ச	-4171
▁ஒன்றி	-4172
▁ியாகி	-4173
▁வேட	-4174
▁ாதக	-4175
▁இடைய	-4176
▁்கறி	-4177
▁ரையில	-4178
▁ாக்டர	-4179
▁ாட்டி	-4180
னால	-4181
▁இள	-4182
▁எழ	-4183
▁ஹே	-4184
▁ன்வ	-4185
▁லின	-4186
▁க்கல	-4187
▁ஒவ்வொ	-4188
▁ிட்டா	-4189
▁36	-4190
▁ேண	-4191
▁ைர	-4192
▁பிசி	-4193
▁பிள்	-4194
▁ராமத	-4195
ce	-4196
▁ோழ	-4197
▁அலி	-4198
▁யோர	-4199
▁ுறி	-4200
▁சய	-4201
▁ியின்	-4202
▁காணி	-4203
▁யாளர்	-4204
▁y	-4205
▁ஸ்ர	-4206
▁்டீ	-4207
▁தத்தை	-4208
▁வட்டம	-4209
▁மம	-4210
▁இளம	-4211
▁பின	-4212
▁ஸ்ல	-4213
▁ியே	-4214
▁்ணு	-4215
▁ய்கள	-4216
▁ள்கள	-4217
▁யம்மன	-4218
▁வந்தன	-4219
▁ூரில்	-4220
▁ோப	-4221
▁சால	-4222
▁தீர	-4223
▁ோத்	-4224
▁கிரா	-4225
▁தாரம	-4226
▁பள்ள	-4227
▁்பப்	-4228
▁ஆணை	-4229
▁ிலோ	-4230
▁ங்கம	-4231
▁ராக்	-4232
▁்மன்	-4233
▁்டுகள	-4234
▁ஏக்	-4235
▁ுட்ப	-4236
▁களைச்	-4237
▁nt	-4238
▁ஏவ	-4239
▁சாட	-4240
▁னால்	-4241
▁ஸார்	-4242
▁ுழுவ	-4243
▁ென்ற	-4244
▁New	-4245
▁ுர்	-4246
▁ரமா	-4247
▁வுட	-4248
▁மேலா	-4249
▁ொருள	-4250
▁உள்ளா	-4251
▁போகிற	-4252
▁விடம்	-4253
▁ாவும்	-4254
▁அழி	-4255
▁லைன	-4256
ia	-4257
▁ளர	-4258
▁ேறி	-4259
▁ையர	-4260
▁பேரி	-4261
▁விசா	-4262
▁டுவார	-4263
▁ுப்பை	-4264
▁32	-4265
▁நூ	-4266
▁ன்களை	-4267
▁பாஸ	-4268
▁சாதன	-4269
▁ப்பொ	-4270
▁ுமாற	-4271
▁தைக்க	-4272
▁ூட்டி	-4273
it	-4274
▁tan	-4275
▁மல்	-4276
▁விலி	-4277
▁டைகள்	-4278
at	-4279
▁ய்வ	-4280
▁்லி	-4281
▁தேசம	-4282
▁ன்னத	-4283
▁பவர்	-4284
▁டய	-4285
▁ுடை	-4286
▁ிதான	-4287
▁குதிய	-4288
de	-4289
et	-4290
▁டனை	-4291
▁ரண்	-4292
▁்ரே	-4293
▁்ப்பத	-4294
▁ராப	-4295
▁ையம	-4296
▁ரிதா	-4297
▁கையாள	-4298
▁்ப்பா	-4299
▁tor	-4300
▁காப்	-4301
▁றந்து	-4302
▁ஜய	-4303
▁மும	-4304
▁ொங்க	-4305
▁லீசார	-4306
▁ுகிறத	-4307
▁ுஜ	-4308
▁கத்	-4309
▁டமா	-4310
▁வாட	-4311
▁விப	-4312
▁குகள	-4313
▁சரிய	-4314
▁றிவு	-4315
▁பட்டா	-4316
▁ுவதும	-4317
▁ுறவ	-4318
▁்னர	-4319
▁வானி	-4320
▁ங்கும	-4321
▁பதவ	-4322
▁ுவன	-4323
▁காவல	-4324
▁ிஷ்	-4325
▁the	-4326
▁க்ஷ	-4327
▁ுள்	-4328
▁காவி	-4329
▁பண்ட	-4330
▁ரமாக	-4331
▁ராய்	-4332
▁மையான	-4333
▁ுறைப்	-4334
BC	-4335
▁48	-4336
▁or	-4337
▁ெக	-4338
▁ருச	-4339
▁ாகா	-4340
▁News	-4341
▁ாழ்வ	-4342
▁அதிர்	-4343
▁சத்து	-4344
▁ணித்த	-4345
▁தாண்ட	-4346
▁படியே	-4347
▁்பிக்	-4348
ai	-4349
▁J	-4350
▁k	-4351
▁அதன	-4352
▁சதி	-4353
▁ரசு	-4354
▁வளர்	-4355
▁அலங்க	-4356
▁தெர	-4357
▁வீத	-4358
▁ெனி	-4359
▁எவ்வ	-4360
▁பதவிய	-4361
▁அந	-4362
▁ோற	-4363
▁லும	-4364
▁கர்கள	-4365
▁ுபட்ட	-4366
▁ழல	-4367
▁புட	-4368
▁்கே	-4369
▁Vika	-4370
▁ர்வா	-4371
▁டிந்த	-4372
▁த்தல்	-4373
▁றா	-4374
▁ீற	-4375
▁ோச	-4376
▁அணை	-4377
▁டிவ	-4378
▁தீவ	-4379
▁மாய	-4380
▁ிரன்	-4381
▁பட்டு	-4382
▁ம்பிய	-4383
▁on	-4384
▁ரசா	-4385
▁ிறன	-4386
▁லைவர	-4387
▁ிடுவ	-4388
▁ூத	-4389
▁தனை	-4390
▁ிபர	-4391
▁காது	-4392
▁கேட்	-4393
▁சென்	-4394
▁ிர்த	-4395
▁ரைக்க	-4396
▁55	-4397
▁ிஎ	-4398
▁கழ்	-4399
▁டக்	-4400
▁ல்ம	-4401
▁ாதம்	-4402
▁ராஷ	-4403
▁்செ	-4404
▁யுடன	-4405
▁்கிர	-4406
▁சிப்ப	-4407
▁்பட்ட	-4408
▁அக	-4409
▁நோய	-4410
▁யணம	-4411
▁ூரி	-4412
▁ச்சர்	-4413
▁வாய	-4414
▁ிரச	-4415
▁கங்க	-4416
▁பத்தா	-4417
▁்ப்பை	-4418
▁திபர	-4419
▁னைகள	-4420
▁ருகிற	-4421
▁ாளராக	-4422
▁ிப்பா	-4423
oc	-4424
▁ாகம	-4425
▁றைகள	-4426
▁ப்பதை	-4427
▁ஆழ	-4428
▁மர்	-4429
▁ரேட	-4430
▁லையை	-4431
▁ல்வா	-4432
▁்மான	-4433
▁காற்ற	-4434
▁்திரு	-4435
▁ெயி	-4436
▁ோப்	-4437
▁தையை	-4438
▁ற்சி	-4439
▁ீரிய	-4440
▁பணத்த	-4441
▁ருவர்	-4442
▁ஆலோ	-4443
▁இரவ	-4444
▁கனவ	-4445
▁ாவை	-4446
▁ேப்	-4447
▁பாத்	-4448
▁பேசு	-4449
▁்வின	-4450
▁குந்த	-4451
▁கோவில	-4452
▁ினத்த	-4453
▁்பந்த	-4454
▁எடை	-4455
▁சேன	-4456
▁வரா	-4457
▁ாதை	-4458
▁ப்தி	-4459
▁யுள்	-4460
▁்ஸ்ட	-4461
▁முகம்	-4462
▁சுட	-4463
▁ுமன	-4464
▁ொற்ற	-4465
▁ுவின்	-4466
▁தாள	-4467
▁மடை	-4468
▁ரியம	-4469
▁ருகி	-4470
▁ன்றது	-4471
▁&	-4472
▁37	-4473
▁150	-4474
▁ணம்	-4475
▁பன்	-4476
▁ூத்	-4477
▁சொல்	-4478
▁ற்கா	-4479
▁ீர்க	-4480
ாத	-4481
▁33	-4482
▁re	-4483
▁te	-4484
▁ளஹ	-4485
▁அரை	-4486
▁்டெ	-4487
▁்களா	-4488
▁ஏற்று	-4489
▁யப்பட	-4490
▁உயி	-4491
▁ந்நி	-4492
▁ட்சித	-4493
▁ருவாக	-4494
▁ேசத்த	-4495
▁காற	-4496
▁கோட	-4497
▁ுரு	-4498
▁ல்லவ	-4499
▁ாளும	-4500
▁ெட்ர	-4501
▁ையின	-4502
▁ொழில	-4503
▁்புக்	-4504
▁ண்டவ	-4505
▁நெரு	-4506
▁னிப்	-4507
▁ையான	-4508
▁்திக்	-4509
▁ுள	-4510
▁ெட	-4511
▁BBC	-4512
▁சாய	-4513
▁்மு	-4514
▁ழுவி	-4515
▁வுகள	-4516
▁உயிரி	-4517
▁ஜு	-4518
▁பஸ்	-4519
▁வதை	-4520
▁தலைம	-4521
▁பாரா	-4522
▁பார்	-4523
▁ாகத்	-4524
▁ைக்கா	-4525
▁ணவ	-4526
▁றாம	-4527
▁ட்டாள	-4528
ho	-4529
▁ரந	-4530
▁கனி	-4531
▁லான	-4532
▁ீரி	-4533
▁றிக்க	-4534
▁ிற்று	-4535
is	-4536
▁ழர	-4537
▁்வர	-4538
▁ரிவு	-4539
▁ின்னர	-4540
▁யீட	-4541
▁ன்றே	-4542
▁வெல்	-4543
▁ஐடி	-4544
▁ாயம	-4545
▁குப்	-4546
▁முகம	-4547
▁ுதுக	-4548
▁தியில	-4549
▁பாக்க	-4550
▁ரியம்	-4551
▁ூட்டம	-4552
▁ீண	-4553
▁அழு	-4554
▁கோவ	-4555
▁ன்பு	-4556
▁விக்	-4557
▁த்திவ	-4558
▁வங்கள	-4559
▁ுச்சி	-4560
▁ுடியு	-4561
▁ர்சன	-4562
▁ியர்	-4563
▁யிரம்	-4564
▁ஏறி	-4565
▁றைய	-4566
▁ிசோ	-4567
▁ைந்த	-4568
▁41	-4569
▁தவு	-4570
▁அதேப	-4571
▁கொழு	-4572
▁ுமன்	-4573
▁மையாக	-4574
▁ுக்கம	-4575
▁ுக்கா	-4576
▁இதர	-4577
▁ஏழை	-4578
▁குவ	-4579
▁சேவ	-4580
▁ிடை	-4581
▁ிமா	-4582
▁ூடி	-4583
▁்ப்	-4584
▁ண்டார	-4585
▁ன்கள்	-4586
▁ரத்தை	-4587
▁ாக்கள	-4588
▁உக	-4589
▁சின	-4590
▁தயா	-4591
▁ம்ஸ	-4592
▁ழில	-4593
▁வாற	-4594
▁கையா	-4595
▁னத்த	-4596
▁றைவு	-4597
▁ில்லி	-4598
▁ெட்டு	-4599
▁னத	-4600
▁வற	-4601
▁கிப	-4602
▁ைகள்	-4603
▁க்காட	-4604
▁ஜம	-4605
▁அலை	-4606
▁படு	-4607
▁லீஸ	-4608
▁ிபு	-4609
▁்மி	-4610
▁களுடன	-4611
▁பவு	-4612
▁மருத	-4613
▁ஸ்தா	-4614
▁்வார	-4615
▁நாங்க	-4616
▁ீட்டை	-4617
▁சிர	-4618
▁ுண்	-4619
▁்பக	-4620
▁டுபட	-4621
▁ியப்ப	-4622
▁அய	-4623
▁ானத	-4624
▁்ணம	-4625
▁ின்ப	-4626
▁ஸ்லாம	-4627
▁ாரத்த	-4628
▁யவ	-4629
▁டிப	-4630
▁புன	-4631
▁மிழ	-4632
▁ருஷ	-4633
▁வகா	-4634
▁இங்க	-4635
▁கைகளை	-4636
▁புத்த	-4637
od	-4638
ோம	-4639
▁பிச	-4640
▁லைந	-4641
▁ேகம	-4642
▁இஸ்ர	-4643
▁தமான	-4644
▁ம்பவ	-4645
▁றுகள	-4646
▁ிருக	-4647
▁்காண	-4648
▁ுக்கோ	-4649
▁ையின்	-4650
▁ானை	-4651
▁ேடு	-4652
▁ணப்ப	-4653
▁டத்த	-4654
▁டியை	-4655
▁நாடு	-4656
▁ய்ப்	-4657
▁ரணத்த	-4658
▁ல்லிக	-4659
▁..	-4660
▁லால	-4661
▁ாவு	-4662
▁ுவே	-4663
▁ூன்	-4664
▁அழுத	-4665
▁மறுப	-4666
▁ீர்ம	-4667
▁ுற்ற	-4668
▁கின்ற	-4669
▁துள்ள	-4670
▁விருத	-4671
▁ுத்தா	-4672
▁்பெண்	-4673
▁400	-4674
▁எளி	-4675
▁ஓம்	-4676
▁ருத	-4677
▁்த்	-4678
▁்வி	-4679
▁ருட்	-4680
▁ோகம்	-4681
▁ப்பெர	-4682
▁போய	-4683
▁ரெட	-4684
▁வர்க	-4685
▁ையாள	-4686
▁ச்சிய	-4687
▁்கப்ப	-4688
ov	-4689
▁ஒன்	-4690
▁தினம	-4691
▁பிரசா	-4692
▁ைச	-4693
▁குச	-4694
▁ிதர	-4695
▁ரியை	-4696
▁ராஷ்ட	-4697
▁றைக்க	-4698
▁ைகளில	-4699
▁ed	-4700
▁ஷி	-4701
▁துள	-4702
▁ரேஷ	-4703
▁ர்ய	-4704
▁ைன்	-4705
▁ட்பா	-4706
▁ட்டதா	-4707
▁ண்டில	-4708
▁ரிசோத	-4709
▁ிலையை	-4710
▁பக்	-4711
▁ிளக	-4712
▁ுறு	-4713
▁்மன	-4714
▁நபர்	-4715
▁ரமான	-4716
▁சுவாம	-4717
▁34	-4718
▁ஜன்	-4719
▁ரோல	-4720
▁குள்	-4721
▁ணிக்	-4722
▁ாதிய	-4723
▁தாலும	-4724
▁38	-4725
▁ni	-4726
▁ent	-4727
▁டைம	-4728
▁லட்	-4729
▁வேண	-4730
▁ந்தம	-4731
▁ுறைவ	-4732
▁தனைகள	-4733
▁ற்றில	-4734
▁விஷயம	-4735
▁ிடும்	-4736
▁ீண்டு	-4737
▁ூன	-4738
▁ஆசை	-4739
▁உன்	-4740
▁வைய	-4741
▁்சா	-4742
▁சிறி	-4743
▁டற்ப	-4744
▁விநா	-4745
▁ஸில்	-4746
▁ிகால	-4747
▁ள்ளதா	-4748
ூர்	-4749
▁108	-4750
▁பைய	-4751
▁ல்த	-4752
▁ியை	-4753
▁ற்பத	-4754
▁வாழ்க	-4755
▁42	-4756
▁ோஸ்	-4757
▁செயற்	-4758
▁யத்து	-4759
▁ிஸ்ட்	-4760
▁இயற	-4761
▁டைப	-4762
▁ிதம	-4763
▁கெடு	-4764
▁ிடுக	-4765
▁துவர்	-4766
▁றையில	-4767
▁ல்லூர	-4768
▁அபி	-4769
▁சிட	-4770
▁டத்தை	-4771
▁ொழில்	-4772
▁்பாடு	-4773
▁39	-4774
▁65	-4775
▁St	-4776
▁th	-4777
▁தச	-4778
▁யச	-4779
▁கப்	-4780
▁சென	-4781
▁தாலு	-4782
▁அரி	-4783
▁்தீ	-4784
▁இருப	-4785
▁கைக்	-4786
▁செயற	-4787
▁லைப்ப	-4788
▁்புகள	-4789
▁ng	-4790
▁னக்	-4791
▁ராகவ	-4792
▁றையா	-4793
▁ியத்	-4794
▁பிரதம	-4795
▁வீடிய	-4796
▁சகல	-4797
▁னில	-4798
▁ுகு	-4799
▁சப்ப	-4800
▁ரில்	-4801
▁லும்	-4802
▁னர்கள	-4803
▁வியல்	-4804
▁்குடி	-4805
▁கட்	-4806
▁ிள்	-4807
▁்தன	-4808
▁டிக்	-4809
▁னிட்	-4810
▁ம்மன	-4811
▁ழ்ந்த	-4812
▁ar	-4813
▁றத	-4814
amil	-4815
▁டிம	-4816
▁வனி	-4817
▁உரிம	-4818
▁டியும	-4819
▁தனக்க	-4820
▁ற்றம்	-4821
▁ாவின்	-4822
▁வணி	-4823
▁வெல	-4824
▁ொற்	-4825
▁்து	-4826
▁்ச்ச	-4827
▁ழகத்த	-4828
▁ுடங்க	-4829
▁an	-4830
▁Ind	-4831
▁ஓடி	-4832
▁பணம	-4833
▁வல்	-4834
▁ெப்	-4835
▁ஆசிரி	-4836
pp	-4837
▁லாவ	-4838
▁ீரா	-4839
▁மைக்	-4840
▁ள்ளா	-4841
▁வைப்	-4842
▁ிரிவ	-4843
▁்குட	-4844
▁ையினர	-4845
▁ra	-4846
▁ளத	-4847
▁ேய	-4848
▁றுப	-4849
▁குட்	-4850
▁ாகச்	-4851
▁ியப்	-4852
▁ிருப	-4853
▁ne	-4854
▁மந	-4855
▁தாப	-4856
▁ானு	-4857
▁ெற்ற	-4858
▁மற்றொ	-4859
▁ரிடம்	-4860
▁்டத்த	-4861
▁எப்	-4862
▁றிஞ	-4863
▁ளான	-4864
▁விம	-4865
▁ோல்	-4866
▁சமாக	-4867
▁ர்கா	-4868
▁லாக்	-4869
▁ொடர்	-4870
▁்தூர	-4871
▁டத்தி	-4872
▁ியத்த	-4873
▁்பற்ற	-4874
st	-4875
மல	-4876
▁ஆள்	-4877
▁லாச	-4878
▁ுமல	-4879
▁்தா	-4880
▁்ளூ	-4881
▁லிக்க	-4882
ோன	-4883
▁ெஸ	-4884
▁The	-4885
▁கொல	-4886
▁அன்ற	-4887
▁பாடி	-4888
▁பும்	-4889
▁லிங்	-4890
▁ைந	-4891
▁பாண	-4892
▁மஹா	-4893
▁ய்த	-4894
▁கித்	-4895
▁ச்சர	-4896
▁தன்ப	-4897
▁மதுர	-4898
▁வாறு	-4899
▁கத்தை	-4900
▁for	-4901
▁ணங்க	-4902
▁#	-4903
▁மில	-4904
▁ிற்	-4905
▁ெயல	-4906
▁்ணா	-4907
▁மாள்	-4908
▁ரியத	-4909
▁றப்ப	-4910
▁றேன்	-4911
▁லூர்	-4912
▁கித	-4913
▁சாவ	-4914
▁றார	-4915
▁ூழல	-4916
▁்பர	-4917
▁இன்ற	-4918
▁மதிய	-4919
▁மன்ன	-4920
▁ற்றத	-4921
▁லின்	-4922
▁அதனால	-4923
▁ள்ளும	-4924
▁வதற்க	-4925
li	-4926
▁ஜய்	-4927
▁ையு	-4928
▁சாத்	-4929
▁யாரு	-4930
▁லியா	-4931
▁ள்ளு	-4932
▁்வதி	-4933
▁ந்தவர	-4934
▁44	-4935
▁Doc	-4936
▁தலம	-4937
▁்கிழ	-4938
▁திருக	-4939
▁வந்தா	-4940
▁vs	-4941
▁அழ	-4942
▁ரஸ	-4943
▁ொர	-4944
▁துன	-4945
▁ருந	-4946
▁ந்தே	-4947
▁கைகள்	-4948
▁லுக்க	-4949
▁ொன்னா	-4950
▁்கின்	-4951
▁டுமா	-4952
▁னமாக	-4953
▁ப்பக	-4954
▁ீர்வ	-4955
▁யாட	-4956
▁வரம்	-4957
▁ீதிய	-4958
▁na	-4959
▁ஆடை	-4960
▁திந	-4961
▁சான்	-4962
▁திக்	-4963
▁தேன்	-4964
▁மையை	-4965
▁ுபோன	-4966
▁ைவர்	-4967
▁்டான	-4968
▁யிட்ட	-4969
▁ுவும்	-4970
▁ூக	-4971
▁உத்	-4972
▁காப	-4973
▁கரிக	-4974
▁காய்	-4975
▁சமான	-4976
▁துவா	-4977
▁மையா	-4978
▁ம்பை	-4979
▁ுதிக	-4980
▁ேம்ப	-4981
▁ப்பம்	-4982
▁ப்பின	-4983
▁யந	-4984
▁ீச	-4985
▁ரைவ	-4986
▁ஷ்ய	-4987
▁்தள	-4988
▁்பன	-4989
▁ஆராய	-4990
▁வாரம	-4991
▁பிடிப	-4992
▁ஷல	-4993
▁ஜூன	-4994
▁யமா	-4995
▁காட்	-4996
▁டுவர	-4997
▁ாலம்	-4998
▁்பாத	-4999
▁ித்தா	-5000
▁ce	-5001
▁ளஸ	-5002
▁nce	-5003
▁ணித	-5004
▁ண்ம	-5005
▁ளைக	-5006
▁ேனி	-5007
▁குக்	-5008
▁ண்ணு	-5009
▁மல்ல	-5010
▁லமாக	-5011
▁ல்லத	-5012
▁ோதும	-5013
▁ல்லும	-5014
▁49	-5015
▁ௌர	-5016
▁தேதி	-5017
▁தைகள	-5018
▁ென்ட	-5019
▁்காட்	-5020
ru	-5021
hat	-5022
▁Re	-5023
▁ஆதா	-5024
▁ணைய	-5025
▁்சன	-5026
▁சிகர	-5027
▁டிப்	-5028
▁ச்சிக	-5029
▁தானம்	-5030
▁ய்யும	-5031
▁43	-5032
▁்டர	-5033
▁அருள	-5034
▁யிட்	-5035
▁ிபிச	-5036
▁என்றா	-5037
ch	-5038
▁2.	-5039
▁ாளா	-5040
▁்தோ	-5041
▁த்தே	-5042
▁்பத்	-5043
▁கூறின	-5044
▁க்கப்	-5045
▁X	-5046
▁46	-5047
▁AI	-5048
▁வக்	-5049
▁துகள்	-5050
▁ானில்	-5051
▁*	-5052
▁47	-5053
▁னஸ	-5054
▁தோல்	-5055
▁ந்தக	-5056
▁வதாக	-5057
▁ார்த	-5058
▁ுறம்	-5059
▁India	-5060
▁கிக்க	-5061
▁ண்டாம	-5062
▁ல்தான	-5063
▁்கிழம	-5064
▁le	-5065
▁இத்	-5066
▁னதி	-5067
▁வுத்	-5068
▁ியக்	-5069
▁எனக்க	-5070
▁தர்கள	-5071
▁ன்றம்	-5072
▁ரப்பி	-5073
▁ானின்	-5074
▁ுக்கட	-5075
la	-5076
▁51	-5077
்த்த	-5078
▁மீத	-5079
▁ுவம	-5080
▁்வள	-5081
▁பெய்	-5082
▁மைப்	-5083
▁யாகு	-5084
▁ுநாள	-5085
▁ழ்த்த	-5086
▁ோயில்	-5087
▁்தூர்	-5088
▁ஜஸ	-5089
▁ணம	-5090
▁ஹம	-5091
▁ையொ	-5092
▁ட்டே	-5093
▁ம்பட	-5094
▁ிரைய	-5095
▁Tamil	-5096
▁லாமல்	-5097
▁ல்கள்	-5098
▁ஆக்	-5099
▁சகர	-5100
▁ணப்	-5101
▁ையோ	-5102
▁சாப்	-5103
▁ெளிவ	-5104
▁ற்றின	-5105
▁is	-5106
▁இரா	-5107
▁ஏர்	-5108
▁மயம	-5109
▁யுத	-5110
▁மேற்	-5111
▁்பாப	-5112
▁தந்தி	-5113
ut	-5114
▁சங்	-5115
▁ாரை	-5116
▁ோட்	-5117
▁களான	-5118
▁சுக்	-5119
▁்பன்	-5120
▁ும்பு	-5121
vi	-5122
▁ஒத	-5123
▁குன	-5124
▁மைச	-5125
▁அடிப	-5126
▁ட்சம	-5127
▁மிட்	-5128
▁ல்லப	-5129
▁சங்கள	-5130
▁ாருக்	-5131
ss	-5132
▁250	-5133
▁தென	-5134
▁ுன்	-5135
▁னைவர	-5136
▁ருது	-5137
▁ணக்கா	-5138
ot	-5139
▁ஆட்ச	-5140
▁ல்வி	-5141
▁ினும	-5142
▁ுவர்	-5143
▁ொண்டு	-5144
▁Y	-5145
▁இதய	-5146
▁டற்	-5147
▁முன	-5148
▁றவி	-5149
▁ுழை	-5150
▁்ளாட	-5151
▁பார்க	-5152
▁றைகள்	-5153
▁64	-5154
▁டக	-5155
▁ளா	-5156
▁ொற	-5157
▁ஐநா	-5158
▁கேள	-5159
▁னடி	-5160
▁ரக்	-5161
▁க்கீ	-5162
▁்சார	-5163
▁உறு	-5164
▁டமி	-5165
▁ரணம	-5166
▁ாமத	-5167
▁்றே	-5168
▁காங்	-5169
▁ண்ணெ	-5170
▁புரம	-5171
▁ாசிய	-5172
▁ாங்கு	-5173
▁ாதிபத	-5174
▁்டியா	-5175
ஜி	-5176
ive	-5177
▁ma	-5178
▁ழன	-5179
▁பற்	-5180
▁மைக	-5181
▁கையி	-5182
▁பாக்	-5183
▁பிப்	-5184
▁றிவி	-5185
▁சரியா	-5186
▁பித்த	-5187
▁்டிங்	-5188
ir	-5189
▁52	-5190
▁de	-5191
▁ரட	-5192
▁களி	-5193
▁ரவர	-5194
▁ேரா	-5195
▁டெல்	-5196
▁மக்க	-5197
▁ர்பி	-5198
▁வத்த	-5199
▁ொடிய	-5200
▁்வாத	-5201
▁அவசிய	-5202
▁சத்தி	-5203
▁ஶ	-5204
▁Su	-5205
▁ஜஸ்	-5206
▁தரா	-5207
▁மேஷ	-5208
▁வரும	-5209
▁ாடல்	-5210
▁்பர்	-5211
▁la	-5212
▁லட	-5213
▁ளன	-5214
▁மென	-5215
▁ிளா	-5216
▁ுரத	-5217
▁ந்தவ	-5218
▁ப்பவ	-5219
▁வாழ்	-5220
▁ிபுர	-5221
▁குக்க	-5222
▁ியங்க	-5223
▁ியிடம	-5224
▁72	-5225
▁In	-5226
▁நக	-5227
▁செப்	-5228
▁மில்	-5229
▁வன்ம	-5230
▁க்கத்	-5231
▁க்காத	-5232
▁ேந்தி	-5233
▁்வார்	-5234
▁1.	-5235
▁54	-5236
▁nd	-5237
▁சசி	-5238
▁யதா	-5239
▁ரின	-5240
▁ினோ	-5241
▁இருந	-5242
▁கோட்	-5243
▁சிப்	-5244
▁திரே	-5245
▁நாளை	-5246
▁யணம்	-5247
▁ர்வு	-5248
▁பொருட	-5249
▁ர்களை	-5250
▁லித்த	-5251
ga	-5252
▁58	-5253
▁ஊரக	-5254
▁றும	-5255
▁ீண்	-5256
▁ுரா	-5257
▁்சல	-5258
▁னிஸ்	-5259
▁ர்சி	-5260
▁ல்பா	-5261
▁வித்	-5262
▁ாயக்	-5263
▁ுங்கி	-5264
▁நர	-5265
▁ற்	-5266
▁ணும	-5267
▁பவம	-5268
▁வுப	-5269
▁்பத	-5270
▁னக்க	-5271
▁னமான	-5272
▁ய்க்	-5273
▁லந்த	-5274
▁வெப்	-5275
▁ிரக்	-5276
▁ுபவர்	-5277
▁ுப்பட	-5278
▁ெருக்	-5279
▁்தானி	-5280
வ்	-5281
▁DM	-5282
▁vi	-5283
▁ைக	-5284
▁ஆனி	-5285
▁டிட	-5286
▁்டன	-5287
▁்டே	-5288
▁்ளி	-5289
▁டின்	-5290
▁தெளி	-5291
▁ரவில	-5292
▁ள்வத	-5293
▁்கில்	-5294
ig	-5295
ஷா	-5296
▁ஒளி	-5297
▁யாச	-5298
▁ோகி	-5299
▁திரா	-5300
▁ப்பண	-5301
▁ீக்க	-5302
▁ம்பிக	-5303
▁ாரணமா	-5304
ow	-5305
ீரெ	-5306
▁Ma	-5307
▁Ra	-5308
▁se	-5309
▁ேசம	-5310
▁டாது	-5311
▁பயணம	-5312
▁மைகள	-5313
▁ரியர	-5314
▁ருடை	-5315
▁ழ்வு	-5316
▁சுப்ப	-5317
▁தியான	-5318
▁ிடீரெ	-5319
▁63	-5320
▁ரர	-5321
▁120	-5322
▁த்தொ	-5323
▁்டன்	-5324
▁ட்டுக	-5325
▁95	-5326
▁De	-5327
▁சட	-5328
▁ers	-5329
▁யூன	-5330
▁ியும	-5331
▁ையால	-5332
▁ைவாக	-5333
▁்கட்	-5334
▁த்தான	-5335
▁போக்க	-5336
▁ப்பார	-5337
▁யதில்	-5338
▁ய்கிற	-5339
▁ிடங்க	-5340
▁்டின்	-5341
▁57	-5342
▁IN	-5343
▁சற	-5344
▁ஷே	-5345
▁கைத	-5346
▁நெட	-5347
▁ூக்	-5348
▁ியில	-5349
▁சொத்த	-5350
▁ன்றுக	-5351
▁ார்த்	-5352
▁ுள்ளத	-5353
▁்பதிவ	-5354
tt	-5355
▁கவி	-5356
▁தைப	-5357
▁தோல	-5358
▁ளத்	-5359
▁ூலம்	-5360
▁இடம்ப	-5361
▁ட்டத்	-5362
▁ண்ணெய	-5363
▁``	-5364
▁com	-5365
▁சாப	-5366
▁டில	-5367
▁பம்	-5368
▁ரடி	-5369
▁்கர	-5370
and	-5371
▁53	-5372
▁85	-5373
▁மற	-5374
▁600	-5375
▁மெட	-5376
▁மோக	-5377
▁ரணை	-5378
▁ரீத	-5379
▁ாதம	-5380
▁மங்க	-5381
▁லீஸ்	-5382
▁வாங்	-5383
▁ிநாட	-5384
▁ில்வ	-5385
▁ேசம்	-5386
▁்களாக	-5387
▁்காரர	-5388
▁99	-5389
▁di	-5390
▁ha	-5391
▁ஏக	-5392
▁ாந	-5393
▁ஆன்	-5394
▁ைவர	-5395
▁்டைய	-5396
▁ற்றுவ	-5397
▁ிட்டத	-5398
AN	-5399
▁sh	-5400
▁யுக	-5401
▁ாமன	-5402
▁ினம	-5403
▁ைமை	-5404
▁்சர	-5405
▁டுவி	-5406
▁ட்டவ	-5407
▁மீட்	-5408
▁ரிசை	-5409
▁ாகிய	-5410
▁ுரைய	-5411
▁்பும	-5412
▁ட்கள்	-5413
▁யிலில	-5414
▁ரப்பட	-5415
▁லத்தை	-5416
▁ைந்து	-5417
▁@	-5418
▁DMK	-5419
▁ைதா	-5420
▁்தர	-5421
▁தலைவ	-5422
▁ப்பல	-5423
▁ள்கை	-5424
▁ங்கிண	-5425
▁ருடன்	-5426
▁றிஞர்	-5427
▁ிக்கு	-5428
▁56	-5429
▁59	-5430
▁62	-5431
▁ty	-5432
▁றல	-5433
▁சைவ	-5434
▁னிவ	-5435
▁ியட	-5436
▁ிரப	-5437
▁ோரி	-5438
▁ஏக்க	-5439
▁வேன்	-5440
▁ிதர்	-5441
▁ிறோம	-5442
▁தைகள்	-5443
▁ாடும்	-5444
▁ாரின்	-5445
▁்சின்	-5446
▁்தின்	-5447
se	-5448
▁யத	-5449
▁gov	-5450
▁னாவ	-5451
▁ரது	-5452
▁க்ரே	-5453
▁ட்டக	-5454
▁்வாய	-5455
▁ம்பத்	-5456
▁ிடுவத	-5457
▁ெல்லா	-5458
▁el	-5459
▁me	-5460
▁யட	-5461
▁நிக	-5462
▁னாம	-5463
▁பப்	-5464
▁பிட	-5465
▁ிவி	-5466
▁டலில	-5467
▁ரைத்	-5468
▁ூன்ற	-5469
▁எண்ணி	-5470
▁தயாரா	-5471
▁த்தும	-5472
▁ராத்த	-5473
▁ேற்பட	-5474
▁su	-5475
▁யீ	-5476
▁அத்	-5477
▁இதோ	-5478
▁கறி	-5479
▁நீத	-5480
▁ாரப	-5481
▁்பூ	-5482
▁த்தோ	-5483
▁னைப்	-5484
▁ருநா	-5485
▁லைக்	-5486
▁ூக்க	-5487
▁ூப்ப	-5488
▁ங்கப்	-5489
▁ையத்த	-5490
▁Ex	-5491
▁ct	-5492
▁...	-5493
▁தக்	-5494
▁மானி	-5495
▁ீண்ட	-5496
ma	-5497
▁z	-5498
▁ஷர	-5499
▁ளின	-5500
▁வேன	-5501
▁ிரன	-5502
▁சாட்	-5503
▁டமாக	-5504
▁றொரு	-5505
▁வாமி	-5506
▁ாவல்	-5507
▁க்கின	-5508
▁ள்ளிய	-5509
▁ுத்தை	-5510
▁ுப்பத	-5511
▁்கும்	-5512
lu	-5513
▁67	-5514
▁இடி	-5515
▁டார	-5516
▁டேன	-5517
▁க்ரம	-5518
▁தூர்	-5519
▁நிமி	-5520
▁ல்வர	-5521
▁ிகரி	-5522
▁ிகர்	-5523
▁்குவ	-5524
▁ரைப்ப	-5525
▁வேலைய	-5526
▁ிநாயக	-5527
▁ியும்	-5528
▁66	-5529
▁68	-5530
▁Mo	-5531
▁ணன	-5532
▁யஷ	-5533
▁ஆடு	-5534
▁உற்	-5535
▁சத்	-5536
▁பாம	-5537
▁பிய	-5538
▁்ரம	-5539
▁யமாக	-5540
▁யாமல	-5541
▁வரத்	-5542
▁ங்கைய	-5543
▁ரத்தி	-5544
▁லைகளை	-5545
▁்குவத	-5546
ard	-5547
▁73	-5548
▁hi	-5549
▁டனு	-5550
▁றித	-5551
▁ிவர	-5552
▁ொறு	-5553
▁ோனா	-5554
▁பாலா	-5555
▁மகன்	-5556
▁ியார்	-5557
ct	-5558
▁ad	-5559
▁தக	-5560
▁1.5	-5561
▁ion	-5562
▁டலை	-5563
▁ளப்	-5564
▁ளுந	-5565
▁்ளோ	-5566
▁அம்ம	-5567
▁துக்	-5568
▁பரம்	-5569
▁தொண்ட	-5570
▁ிப்பை	-5571
ps	-5572
ur	-5573
▁=	-5574
art	-5575
▁69	-5576
▁it	-5577
▁மஸ	-5578
▁லத	-5579
▁லப	-5580
▁144	-5581
▁ஷ்ம	-5582
▁ாற்	-5583
▁ுமத	-5584
▁ுவல	-5585
▁்கன	-5586
▁கிட்	-5587
▁டுவா	-5588
▁ன்சா	-5589
▁ருள்	-5590
▁லேயே	-5591
▁ளில்	-5592
▁ிராம	-5593
▁னவும்	-5594
▁விப்ப	-5595
▁ைப்பத	-5596
▁Z	-5597
▁ge	-5598
▁ya	-5599
▁யஸ	-5600
▁ளே	-5601
▁வொ	-5602
▁ூண	-5603
▁நபி	-5604
▁எப்ப	-5605
▁கூடா	-5606
▁படக்	-5607
▁பினர	-5608
▁புக்	-5609
▁ேரம்	-5610
▁்சேர	-5611
▁க்கள்	-5612
▁தையில	-5613
▁ிட்டர	-5614
▁ேவையா	-5615
▁ையால்	-5616
ni	-5617
ணர	-5618
ill	-5619
▁Se	-5620
▁am	-5621
▁பித	-5622
▁ளாத	-5623
▁ஷ்ண	-5624
▁ாகச	-5625
▁ோசன	-5626
▁்பே	-5627
▁்றத	-5628
▁கக்க	-5629
▁னையை	-5630
▁புணர	-5631
▁யதில	-5632
▁யிலு	-5633
▁ியவை	-5634
▁்புத	-5635
▁திரிய	-5636
▁பாட்ட	-5637
▁வருமா	-5638
▁ுவதால	-5639
▁்பாட்	-5640
pe	-5641
ess	-5642
oli	-5643
▁ta	-5644
▁ஐக	-5645
▁றவ	-5646
▁லஸ	-5647
▁ஆலை	-5648
▁ஊசி	-5649
▁குக	-5650
▁தல்	-5651
▁பதா	-5652
▁பனை	-5653
▁மத்	-5654
▁ரட்	-5655
▁ஹரி	-5656
▁ேலை	-5657
▁ப்பே	-5658
▁ம்பெ	-5659
▁ின்ச	-5660
▁னத்தை	-5661
▁பத்தி	-5662
▁்துறை	-5663
ge	-5664
▁திச	-5665
▁மகர	-5666
▁வுச	-5667
▁ிநா	-5668
▁ினே	-5669
▁ிலம	-5670
▁ீவி	-5671
▁்றா	-5672
▁எச்ச	-5673
▁திகம	-5674
▁முற்	-5675
▁லிக்	-5676
▁ைகளை	-5677
▁்டமி	-5678
▁யர்கள	-5679
▁ாட்டம	-5680
fe	-5681
va	-5682
▁74	-5683
▁GM	-5684
▁கொர	-5685
▁படம	-5686
▁ணத்த	-5687
▁தவித	-5688
▁ர்தா	-5689
▁ல்லூ	-5690
▁ளமான	-5691
▁ிஞர்	-5692
▁்புர	-5693
▁ந்தம்	-5694
▁ாரும்	-5695
▁ுந்தி	-5696
▁Pro	-5697
▁தாத	-5698
▁தேப	-5699
▁னப்	-5700
▁புள	-5701
▁ஸில	-5702
▁ேசு	-5703
▁மாதி	-5704
▁ற்கெ	-5705
▁ிண்ண	-5706
▁ியால	-5707
JP	-5708
ck	-5709
ியத	-5710
▁61	-5711
▁71	-5712
▁lo	-5713
▁இலை	-5714
▁ாஜா	-5715
▁ிரக	-5716
▁ுணா	-5717
▁ேகத	-5718
▁ைசி	-5719
▁்சு	-5720
▁மார்	-5721
▁வியி	-5722
▁வேட்	-5723
▁க்குள	-5724
▁ன்சார	-5725
▁ர்கால	-5726
▁்கியத	-5727
lo	-5728
▁கடு	-5729
▁சுற	-5730
▁யாவ	-5731
▁ரங்	-5732
▁்வொ	-5733
▁தமாக	-5734
▁ம்பத	-5735
▁்கோட	-5736
▁செயலா	-5737
▁ம்பவம	-5738
▁றுவது	-5739
▁ிதித்	-5740
▁்த்தா	-5741
▁Na	-5742
▁ஜை	-5743
▁ஸவ	-5744
▁700	-5745
▁BJP	-5746
▁கவா	-5747
▁பொற	-5748
▁ரில	-5749
▁ிறி	-5750
▁ோரா	-5751
▁கிறத	-5752
▁துப்	-5753
▁ய்வத	-5754
▁ராளம	-5755
▁லைத்	-5756
▁ணையில	-5757
mp	-5758
▁1,	-5759
▁3.	-5760
▁en	-5761
▁ஸர	-5762
▁GMT	-5763
▁con	-5764
▁யத்	-5765
▁ிரோ	-5766
▁ிலக	-5767
▁ுங்	-5768
▁ேம்	-5769
▁சேரி	-5770
▁ச்சத	-5771
▁னைக்	-5772
▁ியாம	-5773
▁்சர்	-5774
▁குடிய	-5775
▁ங்களி	-5776
▁ண்டது	-5777
▁ப்படம	-5778
▁ியிரு	-5779
▁ுந்தா	-5780
ja	-5781
adu	-5782
▁77	-5783
▁es	-5784
▁ஞ்	-5785
▁றீ	-5786
▁ஹல	-5787
மையா	-5788
▁ட்ஸ	-5789
▁தலி	-5790
▁னரா	-5791
▁ரப்	-5792
▁பிட்	-5793
▁றுவத	-5794
▁வக்க	-5795
▁ோகிற	-5796
▁டமும்	-5797
▁டார்க	-5798
▁ுவிட்	-5799
▁்மையா	-5800
▁ा	-5801
▁4.	-5802
▁Al	-5803
▁BA	-5804
▁Pl	-5805
▁ொக	-5806
▁கென	-5807
▁டத்	-5808
▁மைத	-5809
▁ரசம	-5810
▁்வல	-5811
▁இதுப	-5812
▁துவி	-5813
▁மரிய	-5814
▁ானில	-5815
PS	-5816
na	-5817
▁2,	-5818
▁ka	-5819
▁ஆலய	-5820
▁ஜிய	-5821
▁பேட	-5822
▁லப்	-5823
▁வெற	-5824
▁்னோ	-5825
▁்பவர	-5826
▁ன்னைய	-5827
▁ிரிக்	-5828
▁(1	-5829
▁92	-5830
▁சந	-5831
▁800	-5832
▁மீள	-5833
▁ரதா	-5834
▁கிர்	-5835
▁யன்ற	-5836
▁வைக்	-5837
▁ாய்ப	-5838
▁ிரிய	-5839
▁ுவோம	-5840
▁்தார	-5841
▁ங்குள	-5842
▁ந்துவ	-5843
▁ர்பான	-5844
▁ெல்லி	-5845
ke	-5846
qu	-5847
▁CO	-5848
▁li	-5849
▁காக	-5850
▁பசு	-5851
▁ோகம	-5852
▁அமர்	-5853
▁தனைய	-5854
▁படுத	-5855
▁ர்த்	-5856
▁வனம்	-5857
▁வாதம	-5858
▁ேசத்	-5859
▁க்கெட	-5860
▁ட்சும	-5861
▁ட்டமை	-5862
▁தனியா	-5863
▁மையில	-5864
▁வரின்	-5865
▁ெற்று	-5866
AR	-5867
ER	-5868
▁ணர	-5869
▁தத்	-5870
▁நதி	-5871
▁ியு	-5872
▁ஆக்க	-5873
▁ந்தச	-5874
▁பரிச	-5875
▁பர்க	-5876
▁ரைக்	-5877
▁றத்த	-5878
▁லியல	-5879
▁வுடன	-5880
▁்திய	-5881
▁பத்தை	-5882
▁வனத்த	-5883
▁விக்ர	-5884
▁ியோர்	-5885
oo	-5886
deo	-5887
▁னெ	-5888
▁IND	-5889
▁ன்ல	-5890
▁ரோக	-5891
▁வம்	-5892
▁ாமா	-5893
▁ிசம	-5894
▁ினத	-5895
▁ொன்	-5896
▁இளைஞ	-5897
▁காரர	-5898
▁க்கவ	-5899
▁ந்தத	-5900
▁ழுவத	-5901
▁ெறும	-5902
▁்பால	-5903
▁ஆண்டி	-5904
▁பிக்க	-5905
▁மன்றம	-5906
▁ராட்ச	-5907
▁்தமாக	-5908
me	-5909
ஷே	-5910
▁76	-5911
▁Ch	-5912
▁வனத	-5913
▁ிவு	-5914
▁ீசி	-5915
▁குடு	-5916
▁ராவி	-5917
▁ிழாவ	-5918
▁டரில்	-5919
▁ட்களை	-5920
▁ப்பதா	-5921
▁லீஸார	-5922
▁்டுப்	-5923
ஜ்	-5924
are	-5925
▁படக	-5926
▁மனோ	-5927
▁ய்ப	-5928
▁ளிக	-5929
▁வுள	-5930
▁ாதன	-5931
▁ூலை	-5932
▁்பை	-5933
▁களும	-5934
▁டந்த	-5935
▁டைத்	-5936
▁தனால	-5937
▁பினா	-5938
▁ார்ச	-5939
▁ேரத்	-5940
▁ந்ததா	-5941
ww	-5942
▁Q	-5943
ini	-5944
▁be	-5945
▁et	-5946
▁ணீ	-5947
▁www	-5948
▁ஏரி	-5949
▁நடன	-5950
▁னமு	-5951
▁ரால	-5952
▁ூண்	-5953
▁்சவ	-5954
▁Live	-5955
▁திவா	-5956
▁தொழி	-5957
▁ருளா	-5958
▁ஷ்யா	-5959
▁்கோவ	-5960
▁குகளை	-5961
▁கூடாத	-5962
▁யத்தை	-5963
▁ள்ளிட	-5964
▁வதால்	-5965
▁ிப்போ	-5966
▁்சேரி	-5967
▁்பின்	-5968
ala	-5969
ith	-5970
▁82	-5971
▁ch	-5972
▁இலக	-5973
▁எதை	-5974
▁ஒலி	-5975
▁சோழ	-5976
▁துட	-5977
▁நீல	-5978
▁னமா	-5979
▁முஸ	-5980
▁ster	-5981
▁தித்	-5982
▁ன்றத	-5983
▁ரேலி	-5984
▁ரைன்	-5985
▁ன்பது	-5986
▁ல்களை	-5987
▁ுழுவத	-5988
ந்	-5989
▁78	-5990
▁96	-5991
▁சண	-5992
▁ெழ	-5993
▁out	-5994
▁tic	-5995
▁இவ்	-5996
▁க்த	-5997
▁செம	-5998
▁டால	-5999
▁டுப	-6000
▁கிப்	-6001
▁டுப்	-6002
▁டுமல	-6003
▁ர்வத	-6004
▁றில்	-6005
▁சாலைய	-6006
▁டுதல்	-6007
▁னைகள்	-6008
▁லியன்	-6009
▁ாதிப்	-6010
▁ாபிஷே	-6011
▁ுவத்த	-6012
mi	-6013
our	-6014
▁Sa	-6015
▁Sc	-6016
▁Vs	-6017
▁sc	-6018
▁டந	-6019
▁ுஸ	-6020
▁50%	-6021
▁கலச	-6022
▁ுணர	-6023
▁ுறம	-6024
▁ேலா	-6025
▁அமைக	-6026
▁கர்க	-6027
▁னடிய	-6028
▁மென்	-6029
▁்குள	-6030
▁்புற	-6031
▁ந்துள	-6032
▁னைகளை	-6033
▁றங்கி	-6034
▁ெல்வத	-6035
▁ோவில்	-6036
ht	-6037
▁84	-6038
▁86	-6039
▁Te	-6040
▁htt	-6041
▁ஐஸ்	-6042
▁கடக	-6043
▁சொத	-6044
▁யக்	-6045
▁ரகர	-6046
▁ர்ந	-6047
▁ாஜக	-6048
▁ூசி	-6049
▁ெற்	-6050
▁ச்சன	-6051
▁ட்சத	-6052
▁பிபி	-6053
▁ரால்	-6054
▁்பிற	-6055
▁கலாம்	-6056
▁தியின	-6057
▁ற்றங்	-6058
▁ிலில்	-6059
▁_	-6060
▁j	-6061
ast	-6062
hen	-6063
▁91	-6064
▁கற	-6065
▁2.5	-6066
▁ஈஷா	-6067
▁லவ்	-6068
▁ளதா	-6069
▁ாவட	-6070
▁ுமு	-6071
▁ொல்	-6072
▁்னு	-6073
▁Play	-6074
▁சேர்	-6075
▁ிபத்	-6076
▁ெய்க	-6077
▁துதான	-6078
gi	-6079
us	-6080
▁ly	-6081
▁ri	-6082
▁ஏசி	-6083
▁குற	-6084
▁கொள	-6085
▁னிப	-6086
▁ரமண	-6087
▁றல்	-6088
▁லாட	-6089
▁லைக	-6090
▁வரம	-6091
▁வரல	-6092
▁ிறத	-6093
▁ுதன	-6094
▁ுரி	-6095
▁்வீ	-6096
▁கிஸ்	-6097
▁டர்ந	-6098
▁ிர்ப	-6099
▁இல்லா	-6100
▁கிச்ச	-6101
▁ப்பும	-6102
▁ாப்பி	-6103
▁ிக்கவ	-6104
▁ில்தா	-6105
▁ெற்றோ	-6106
▁ைப்பை	-6107
est	-6108
▁81	-6109
▁97	-6110
▁ஜக	-6111
▁ளய	-6112
▁ேள	-6113
▁180	-6114
▁Con	-6115
▁கஸ்	-6116
▁சயம	-6117
▁சைக	-6118
▁டும	-6119
▁யூத	-6120
▁்வை	-6121
▁கின்	-6122
▁டவர்	-6123
▁னாள்	-6124
▁ர்வை	-6125
▁ற்றவ	-6126
▁video	-6127
▁ப்பத்	-6128
▁முகத்	-6129
▁ராக்க	-6130
▁்கிறத	-6131
IA	-6132
da	-6133
யர்	-6134
▁6.	-6135
▁88	-6136
▁CS	-6137
▁உல	-6138
▁ஒல	-6139
▁125	-6140
▁Int	-6141
▁ஆகம	-6142
▁கமா	-6143
▁சக்	-6144
▁றது	-6145
▁லோர	-6146
▁ிறா	-6147
▁ுணை	-6148
▁உறுத	-6149
▁களால	-6150
▁திகள	-6151
▁நேரி	-6152
▁யிடு	-6153
▁லியன	-6154
▁ஸ்லி	-6155
▁ுவரை	-6156
▁ூர்த	-6157
▁புள்ள	-6158
▁பெயர்	-6159
▁ற்கும	-6160
▁ூன்றா	-6161
▁ையைக்	-6162
AT	-6163
▁En	-6164
▁ic	-6165
▁ழா	-6166
▁ஷய	-6167
▁10%	-6168
▁சிந	-6169
▁ுபவ	-6170
▁்ரல	-6171
▁சைக்	-6172
▁பெட்	-6173
▁யிலே	-6174
▁வாக்	-6175
▁ாயத்	-6176
▁ிறைவ	-6177
▁ிலக்	-6178
▁்விட	-6179
▁செந்த	-6180
id	-6181
ld	-6182
நீ	-6183
per	-6184
▁94	-6185
▁IP	-6186
▁PM	-6187
▁ab	-6188
▁லஷ	-6189
▁ெப	-6190
▁Man	-6191
▁ort	-6192
▁ளைவ	-6193
▁ஷமி	-6194
▁கலாம	-6195
▁ன்னெ	-6196
▁யன்ப	-6197
▁லையு	-6198
▁ல்யா	-6199
▁ல்வத	-6200
▁ான்க	-6201
▁ொல்வ	-6202
▁ோடிய	-6203
▁்புப	-6204
▁கிறார	-6205
▁சர்கள	-6206
▁ட்டேன	-6207
▁ட்டைய	-6208
▁தேர்வ	-6209
▁ரியர்	-6210
▁றிப்ப	-6211
▁ார்பி	-6212
▁ுக்கல	-6213
▁்கிக்	-6214
ly	-6215
▁₹	-6216
eri	-6217
ing	-6218
▁(2	-6219
▁83	-6220
▁Mu	-6221
▁do	-6222
▁130	-6223
▁nai	-6224
▁சரா	-6225
▁ததா	-6226
▁ழுப	-6227
▁ிழா	-6228
▁ுனை	-6229
▁காக்	-6230
▁டையு	-6231
▁பயிற	-6232
▁ால்க	-6233
▁ிரைவ	-6234
▁ுவதா	-6235
▁ுவாக	-6236
▁ூரில	-6237
▁கிறதா	-6238
▁ங்கார	-6239
▁லைகள்	-6240
▁ுழுக்	-6241
▁ேர்த்	-6242
el	-6243
th	-6244
ul	-6245
ine	-6246
▁at	-6247
▁தண	-6248
▁40%	-6249
▁ide	-6250
▁shi	-6251
▁ைவு	-6252
▁்பட	-6253
▁ஆசிர	-6254
▁களைய	-6255
▁டலாம	-6256
▁டித்	-6257
▁பாட்	-6258
▁ருகே	-6259
▁ருத்	-6260
▁ிர்வ	-6261
▁சிரிய	-6262
▁ண்ணாம	-6263
▁மாநாட	-6264
▁மானம்	-6265
▁ம்பாப	-6266
▁றித்த	-6267
▁ியுடன	-6268
AS	-6269
▁03	-6270
▁05	-6271
▁79	-6272
▁ூச	-6273
▁20%	-6274
▁ter	-6275
▁டலு	-6276
▁புவ	-6277
▁ரணத	-6278
▁றுச	-6279
▁லில	-6280
▁்கட	-6281
▁்ரை	-6282
▁கழ்வ	-6283
▁சாரத	-6284
▁றையை	-6285
▁ளால்	-6286
▁வரப்	-6287
▁்டிப	-6288
▁்ரான	-6289
▁்வர்	-6290
▁டப்பட	-6291
▁ததால்	-6292
▁ந்தார	-6293
▁மாறிய	-6294
▁ிருக்	-6295
▁ிருத்	-6296
▁்விட்	-6297
ne	-6298
ase	-6299
▁2-	-6300
▁An	-6301
▁no	-6302
▁tt	-6303
▁110	-6304
▁ஆல்	-6305
▁காட	-6306
▁காள	-6307
▁டப்	-6308
▁தரவ	-6309
▁பனி	-6310
▁்யு	-6311
▁டைபெ	-6312
▁மானம	-6313
▁அடையா	-6314
▁ச்சரவ	-6315
▁டும்ப	-6316
▁பட்டன	-6317
▁ாரிக்	-6318
▁ுகில்	-6319
கே	-6320
▁4,	-6321
▁93	-6322
▁TN	-6323
▁டற	-6324
▁ீப	-6325
oday	-6326
▁கின	-6327
▁நிச	-6328
▁ரவா	-6329
▁கோப்	-6330
▁ட்டண	-6331
▁நாட்	-6332
▁நேரம	-6333
▁ல்கி	-6334
▁ிதம்	-6335
▁ையிட	-6336
▁்றது	-6337
▁Today	-6338
▁https	-6339
▁கோயில	-6340
▁க்குக	-6341
▁மணிக்	-6342
ab	-6343
▁01	-6344
▁em	-6345
▁ex	-6346
▁டச	-6347
▁117	-6348
▁140	-6349
▁ணவு	-6350
▁தரை	-6351
▁னிச	-6352
▁னுட	-6353
▁றம்	-6354
▁ளவை	-6355
▁வறு	-6356
▁ஹஜ்	-6357
▁ாகு	-6358
▁ீக்	-6359
▁ேரம	-6360
▁ைவே	-6361
▁்ரவ	-6362
▁சினி	-6363
▁சூரி	-6364
▁மாகா	-6365
▁ம்போ	-6366
▁ிலர்	-6367
▁ிலிர	-6368
▁ுடித	-6369
▁்சல்	-6370
▁்தர்	-6371
▁கழகத்	-6372
▁க்கறி	-6373
▁ாசிக்	-6374
▁ியால்	-6375
▁்ளிக்	-6376
si	-6377
▁ஔ	-6378
ari	-6379
▁3,	-6380
▁87	-6381
▁98	-6382
▁Sh	-6383
▁பள	-6384
▁டைத	-6385
▁பழி	-6386
▁ுஜர	-6387
▁ுவீ	-6388
▁்சய	-6389
▁சாங்	-6390
▁பாய்	-6391
▁முகா	-6392
▁ானதா	-6393
▁ெஸ்ட	-6394
▁்கரி	-6395
▁ற்றுக	-6396
▁ிட்டம	-6397
au	-6398
mk	-6399
ran	-6400
▁7.	-6401
▁IC	-6402
▁Pa	-6403
▁30%	-6404
▁350	-6405
▁Com	-6406
▁Res	-6407
▁pro	-6408
▁மட்	-6409
▁மெர	-6410
▁றகு	-6411
▁றப்	-6412
▁ளுக	-6413
▁குல்	-6414
▁படைய	-6415
▁வையா	-6416
▁ுமுற	-6417
▁ங்கத்	-6418
▁டிகள்	-6419
▁நாளில	-6420
▁போதைய	-6421
▁யன்பட	-6422
LA	-6423
eo	-6424
▁[	-6425
ara	-6426
lec	-6427
▁Co	-6428
▁II	-6429
▁Me	-6430
▁tu	-6431
▁கச	-6432
▁Wor	-6433
▁thi	-6434
▁உமா	-6435
▁குத	-6436
▁தகு	-6437
▁நிஜ	-6438
▁யது	-6439
▁ுஸ்	-6440
▁ோசி	-6441
▁்ணன	-6442
▁்லு	-6443
▁ரசிக	-6444
▁றோம்	-6445
▁வலர்	-6446
▁ிர்ந	-6447
▁சியம்	-6448
▁டப்பா	-6449
▁னடியா	-6450
▁ாதிக்	-6451
▁ினைத்	-6452
▁ையுடன	-6453
SS	-6454
ee	-6455
ama	-6456
▁Is	-6457
▁கமு	-6458
▁கெட	-6459
▁லதா	-6460
▁னங்க	-6461
▁பிஎஸ	-6462
▁ரச்ச	-6463
▁றிக்	-6464
▁ாதிர	-6465
▁ிலைம	-6466
▁்தகை	-6467
▁இதனால	-6468
▁ாயத்த	-6469
▁்கமாக	-6470
▁்தமான	-6471
BT	-6472
IN	-6473
யா	-6474
ேன	-6475
▁]	-6476
ass	-6477
▁Sp	-6478
▁lt	-6479
▁pl	-6480
▁கஹ	-6481
▁சஸ	-6482
▁10,	-6483
▁160	-6484
▁mar	-6485
▁sta	-6486
▁எலி	-6487
▁சரக	-6488
▁தனா	-6489
▁தீய	-6490
▁னுக	-6491
▁ரகா	-6492
▁லாற	-6493
▁ாதல	-6494
▁லுக்	-6495
▁வையு	-6496
▁ாய்ந	-6497
▁ாஷ்ட	-6498
▁ியாத	-6499
▁ிரிட	-6500
▁ிருவ	-6501
▁ங்கிர	-6502
▁ணியின	-6503
▁ந்துக	-6504
▁லப்பட	-6505
▁ாய்ப்	-6506
▁ாரங்க	-6507
▁ுத்தல	-6508
▁ுமக்க	-6509
▁ைக்கி	-6510
ap	-6511
di	-6512
ff	-6513
மே	-6514
▁5,	-6515
▁Bo	-6516
▁Di	-6517
▁ST	-6518
▁by	-6519
▁he	-6520
▁cal	-6521
▁டவி	-6522
▁தூத	-6523
▁நூற	-6524
▁பசி	-6525
▁பத்	-6526
▁புப	-6527
▁யங்	-6528
▁ிமு	-6529
▁்னே	-6530
▁குகி	-6531
▁தனிய	-6532
▁புள்	-6533
▁மிரு	-6534
▁ற்கை	-6535
▁லுவல	-6536
▁ுறுத	-6537
▁்சிய	-6538
▁்பாட	-6539
▁கட்டப	-6540
▁ட்டக்	-6541
▁ம்பால	-6542
▁ிதமாக	-6543
ET	-6544
ate	-6545
▁5%	-6546
▁7,	-6547
▁Bu	-6548
▁nc	-6549
▁ஏஐ	-6550
▁நன	-6551
gain	-6552
▁இறை	-6553
▁ஓலா	-6554
▁கக்	-6555
▁கைக	-6556
▁தரம	-6557
▁ானவ	-6558
▁ீச்	-6559
▁ேவை	-6560
▁டாமல	-6561
▁டாம்	-6562
▁ணில்	-6563
▁ய்தா	-6564
▁ளம்ப	-6565
▁ையத்	-6566
▁னைக்க	-6567
▁ரிட்ட	-6568
▁விளைய	-6569
▁ிப்பி	-6570
AM	-6571
RI	-6572
▁क	-6573
▁	-6574
ace	-6575
ood	-6576
▁02	-6577
▁FI	-6578
▁TV	-6579
▁ia	-6580
▁ku	-6581
▁ீழ	-6582
▁ஆயி	-6583
▁உபி	-6584
▁சளி	-6585
▁யுள	-6586
▁ளிர	-6587
▁ாகன	-6588
▁ெழு	-6589
▁ையத	-6590
▁ைவி	-6591
▁with	-6592
▁டுங்	-6593
▁டைப்	-6594
▁தியி	-6595
▁த்தூ	-6596
▁னைத்	-6597
▁ிளம்	-6598
▁ேகம்	-6599
▁Inter	-6600
▁கப்பட	-6601
▁ாங்கி	-6602
▁ாலமாக	-6603
▁ிதிக்	-6604
▁ைப்பா	-6605
ep	-6606
ft	-6607
hy	-6608
sh	-6609
▁न	-6610
▁्	-6611
ash	-6612
▁04	-6613
▁5.	-6614
▁Ba	-6615
▁LG	-6616
▁co	-6617
▁ro	-6618
▁தந	-6619
▁ெத	-6620
▁For	-6621
▁Tra	-6622
▁கனம	-6623
▁தப்	-6624
▁யால	-6625
▁ல்ந	-6626
▁poli	-6627
▁டமைப	-6628
▁ட்சு	-6629
▁தம்ப	-6630
▁திப்	-6631
▁துபோ	-6632
▁பற்ற	-6633
▁ருக்	-6634
▁ரைப்	-6635
▁ுடும	-6636
▁்காவ	-6637
▁்தம்	-6638
▁்போக	-6639
▁ண்டாவ	-6640
▁பிரிட	-6641
▁ென்று	-6642
▁$	-6643
▁र	-6644
odi	-6645
ook	-6646
▁06	-6647
▁3-	-6648
▁He	-6649
▁nm	-6650
▁நய	-6651
▁யொ	-6652
▁ளந	-6653
▁105	-6654
▁nic	-6655
▁இந்	-6656
▁துற	-6657
▁னத்	-6658
▁லாஜ	-6659
▁ானம	-6660
▁Card	-6661
▁LGBT	-6662
▁சியை	-6663
▁னுக்	-6664
▁பதிய	-6665
▁ிலில	-6666
▁ுதிய	-6667
▁்யாவ	-6668
▁்றிய	-6669
▁again	-6670
▁ட்டுப	-6671
▁ண்கள்	-6672
▁ன்றில	-6673
▁ொள்ளு	-6674
EC	-6675
ark	-6676
▁Am	-6677
▁du	-6678
▁வூ	-6679
▁ஷோ	-6680
▁ஸம	-6681
▁138	-6682
▁dis	-6683
▁res	-6684
▁அபு	-6685
▁தித	-6686
▁ரைப	-6687
▁ளவி	-6688
▁ளஹஸ	-6689
▁ாதத	-6690
▁ிகி	-6691
▁்சை	-6692
▁்தப	-6693
▁sive	-6694
▁கூடு	-6695
▁சக்க	-6696
▁மானத	-6697
▁யாரா	-6698
▁லிம்	-6699
▁வோம்	-6700
▁ிரான	-6701
▁காமல்	-6702
▁த்தைய	-6703
▁முதலி	-6704
▁றுதிப	-6705
▁ைத்தா	-6706
IC	-6707
NA	-6708
ath	-6709
ice	-6710
▁Lo	-6711
▁ba	-6712
▁va	-6713
▁ஒர	-6714
▁றொ	-6715
▁(1)	-6716
▁900	-6717
▁ble	-6718
▁sam	-6719
▁களே	-6720
▁காஷ	-6721
▁சவா	-6722
▁னான	-6723
▁ழ்வ	-6724
▁ுநா	-6725
▁்பீ	-6726
▁தரப்	-6727
▁ய்ச்	-6728
▁ாடும	-6729
▁ினம்	-6730
▁ெரிக	-6731
▁ெள்ள	-6732
▁்காட	-6733
▁்டிக	-6734
▁சியல்	-6735
▁ல்லப்	-6736
▁ுவனம்	-6737
▁ையாளர	-6738
IT	-6739
ie	-6740
ry	-6741
all	-6742
ind	-6743
▁Ar	-6744
▁PA	-6745
▁To	-6746
▁UN	-6747
▁as	-6748
▁if	-6749
▁ru	-6750
▁உள	-6751
▁ஒவ	-6752
▁102	-6753
▁3.5	-6754
▁adi	-6755
▁tra	-6756
▁எட்	-6757
▁ஓகே	-6758
▁தூக	-6759
▁நல்	-6760
▁பிஎ	-6761
▁யரி	-6762
▁ளர்	-6763
▁ுரல	-6764
▁ுளா	-6765
▁்ஸி	-6766
▁எதுவ	-6767
▁டர்ப	-6768
▁ிரச்	-6769
▁ிலைப	-6770
▁ூரிய	-6771
▁ர்பார	-6772
▁ுதியை	-6773
▁ூகத்த	-6774
▁ேட்டு	-6775
io	-6776
ji	-6777
un	-6778
ஜை	-6779
ene	-6780
ina	-6781
ort	-6782
▁07	-6783
▁IM	-6784
▁Po	-6785
▁TH	-6786
▁TT	-6787
▁இஓ	-6788
ையும	-6789
▁101	-6790
▁170	-6791
▁240	-6792
▁Uni	-6793
▁ial	-6794
▁ple	-6795
▁rai	-6796
▁ram	-6797
▁ஐஜி	-6798
▁தகை	-6799
▁தசை	-6800
▁தச்	-6801
▁மீப	-6802
▁லைம	-6803
▁ளைப	-6804
▁ூஜை	-6805
▁்பம	-6806
▁What	-6807
▁ress	-6808
▁அதில	-6809
▁கமான	-6810
▁க்கப	-6811
▁டியி	-6812
▁ணியா	-6813
▁தியை	-6814
▁த்தவ	-6815
▁பிவி	-6816
▁வென்	-6817
▁ூடிய	-6818
▁ூறிய	-6819
▁ெண்க	-6820
▁்கின	-6821
▁்கிவ	-6822
▁்தன்	-6823
▁்ரைன	-6824
▁யலில்	-6825
▁யையும	-6826
▁ரண்டா	-6827
▁விற்ப	-6828
▁வையான	-6829
20	-6830
DA	-6831
ti	-6832
பல	-6833
ers	-6834
ica	-6835
rom	-6836
▁08	-6837
▁1-	-6838
▁Ac	-6839
▁Ad	-6840
▁Li	-6841
▁tn	-6842
▁um	-6843
▁us	-6844
▁ஒள	-6845
▁ளட	-6846
▁370	-6847
▁70%	-6848
▁Pho	-6849
▁ine	-6850
▁கங்	-6851
▁னிக	-6852
▁மகி	-6853
▁மணம	-6854
▁யற்	-6855
▁ரோன	-6856
▁வடை	-6857
▁வனம	-6858
▁ாரம	-6859
▁ிகல	-6860
▁்கொ	-6861
▁Chen	-6862
▁Mini	-6863
▁Poli	-6864
▁tive	-6865
▁உணர்	-6866
▁சும்	-6867
▁டியல	-6868
▁ப்பள	-6869
▁யாடி	-6870
▁ர்வி	-6871
▁ிகழ்	-6872
▁ையாத	-6873
▁்குற	-6874
▁சர்ச்	-6875
▁த்திக	-6876
▁மைகள்	-6877
▁ைத்தன	-6878
▁்திற்	-6879
▁்பூர்	-6880
SA	-6881
ang	-6882
▁09	-6883
▁6,	-6884
▁RC	-6885
▁si	-6886
▁பஸ	-6887
▁ளப	-6888
▁ொன	-6889
▁109	-6890
▁360	-6891
▁7.5	-6892
▁80%	-6893
▁App	-6894
▁Cor	-6895
▁Pri	-6896
▁day	-6897
▁man	-6898
▁ஊரை	-6899
▁கவச	-6900
▁தள்	-6901
▁ன்த	-6902
▁யுட	-6903
▁ிகம	-6904
▁ிமை	-6905
▁Modi	-6906
▁lead	-6907
▁சினா	-6908
▁டமிட	-6909
▁மோதி	-6910
▁யார்	-6911
▁றால்	-6912
▁ல்வே	-6913
▁ாடப்	-6914
▁ிசைய	-6915
▁ியோர	-6916
▁ிர்ச	-6917
▁ோருக	-6918
▁்சம்	-6919
▁ம்பித	-6920
▁ர்வாக	-6921
▁ளியில	-6922
▁வியில	-6923
▁ிடுகி	-6924
▁ிரச்ன	-6925
▁ொண்டன	-6926
▁்செல்	-6927
AL	-6928
je	-6929
ant	-6930
clu	-6931
▁(3	-6932
▁2'	-6933
▁RE	-6934
▁SA	-6935
▁Th	-6936
▁mo	-6937
▁ol	-6938
▁pa	-6939
▁sa	-6940
▁sp	-6941
ight	-6942
▁90%	-6943
▁AIA	-6944
▁Ass	-6945
▁COP	-6946
▁CSK	-6947
▁has	-6948
▁ive	-6949
▁ral	-6950
▁ted	-6951
▁wor	-6952
▁சட்	-6953
▁த்க	-6954
▁னீர	-6955
▁பொத	-6956
▁மாள	-6957
▁யாம	-6958
▁றுந	-6959
▁்தச	-6960
▁what	-6961
▁கமாக	-6962
▁கோவி	-6963
▁ன்பா	-6964
▁ழுதி	-6965
▁ாதுக	-6966
▁ிரமா	-6967
▁ோராட	-6968
▁்தும	-6969
▁கட்டு	-6970
▁படியா	-6971
▁பொதுவ	-6972
▁ாசிரி	-6973
▁ிடுதல	-6974
RA	-6975
▁ि	-6976
ver	-6977
▁2)	-6978
▁CM	-6979
▁IS	-6980
▁RA	-6981
▁Ro	-6982
▁Ti	-6983
▁lk	-6984
▁ry	-6985
▁ளக	-6986
▁121	-6987
▁175	-6988
▁OPS	-6989
▁You	-6990
▁ary	-6991
▁you	-6992
▁அடை	-6993
▁எதோ	-6994
▁ாலர	-6995
▁ாளு	-6996
▁ூழ்	-6997
▁ொழு	-6998
▁்மீ	-6999
▁Chat	-7000
▁Elec	-7001
▁டைக்	-7002
▁ணியை	-7003
▁னித்	-7004
▁ருவா	-7005
▁லரும	-7006
▁லிதா	-7007
▁ாடிய	-7008
▁ாணப்	-7009
▁ாய்க	-7010
▁ுமைய	-7011
▁்துள	-7012
▁LGBTQ	-7013
▁சுமார	-7014
▁ட்டமா	-7015
▁வுகள்	-7016
▁ீர்ப்	-7017
▁ுகார்	-7018
▁ுடும்	-7019
CC	-7020
PA	-7021
PT	-7022
co	-7023
▁x	-7024
▁म	-7025
ear	-7026
han	-7027
ock	-7028
res	-7029
▁(6	-7030
▁1)	-7031
▁Fu	-7032
▁ew	-7033
▁go	-7034
▁இவ	-7035
▁றே	-7036
▁ளூ	-7037
▁ெவ	-7038
▁(2)	-7039
▁137	-7040
▁234	-7041
▁Sta	-7042
▁ran	-7043
▁ric	-7044
▁say	-7045
▁sis	-7046
▁ஐயா	-7047
▁கிஸ	-7048
▁ணர்	-7049
▁தது	-7050
▁துச	-7051
▁தூய	-7052
▁பரு	-7053
▁மக்	-7054
▁ளக்	-7055
▁ிஞர	-7056
▁ிலு	-7057
▁Nadu	-7058
▁nadu	-7059
▁will	-7060
▁கவில	-7061
▁படாத	-7062
▁ரியு	-7063
▁ர்ச்	-7064
▁லையா	-7065
▁ளைச்	-7066
▁ிமான	-7067
▁ிறிய	-7068
▁ுறைப	-7069
▁கலைக்	-7070
▁கவின்	-7071
▁காவில	-7072
▁ங்குக	-7073
▁ணிகள்	-7074
▁திகமா	-7075
▁பார்த	-7076
▁லந்து	-7077
▁ாணிப்	-7078
▁ில்கள	-7079
▁ுரையா	-7080
▁ுறையை	-7081
▁ோதும்	-7082
▁்தியம	-7083
▁்லாம்	-7084
OS	-7085
US	-7086
one	-7087
ree	-7088
wit	-7089
▁9.	-7090
▁Sy	-7091
▁றம	-7092
▁வந	-7093
▁Rep	-7094
▁act	-7095
▁ஊரே	-7096
▁ஊவா	-7097
▁ஏவி	-7098
▁களு	-7099
▁ணுவ	-7100
▁நீள	-7101
▁முள	-7102
▁றுத	-7103
▁ாலத	-7104
▁ினு	-7105
▁ீது	-7106
▁்வெ	-7107
▁Stal	-7108
▁ணைக்	-7109
▁மூர்	-7110
▁ரிட்	-7111
▁ரிவி	-7112
▁ர்பா	-7113
▁றியத	-7114
▁லிரு	-7115
▁ழிப்	-7116
▁ாமத்	-7117
▁ீனாவ	-7118
▁ொல்ல	-7119
▁்சித	-7120
▁ங்கின	-7121
▁ச்சைய	-7122
▁டையாத	-7123
▁பயணத்	-7124
▁பவத்த	-7125
▁ர்களா	-7126
▁வத்தை	-7127
▁ாதத்த	-7128
▁ொண்டா	-7129
EE	-7130
TA	-7131
▁प	-7132
▁स	-7133
asi	-7134
jay	-7135
ome	-7136
்கல	-7137
▁+2	-7138
▁4-	-7139
▁8,	-7140
▁89	-7141
▁Go	-7142
▁Qu	-7143
▁RR	-7144
▁WH	-7145
▁fa	-7146
▁ll	-7147
▁mi	-7148
▁qu	-7149
▁கக	-7150
▁ணல	-7151
▁135	-7152
▁15%	-7153
▁2.0	-7154
▁450	-7155
▁550	-7156
▁60%	-7157
▁Act	-7158
▁Col	-7159
▁Eda	-7160
▁How	-7161
▁did	-7162
▁dmk	-7163
▁nda	-7164
▁ned	-7165
▁tal	-7166
▁கிச	-7167
▁பகை	-7168
▁மோட	-7169
▁யதி	-7170
▁ிறக	-7171
▁ுற்	-7172
▁mini	-7173
▁plan	-7174
▁அதிம	-7175
▁கர்ப	-7176
▁காரா	-7177
▁கிக்	-7178
▁க்கத	-7179
▁சனம்	-7180
▁சினை	-7181
▁தவறா	-7182
▁ரணைய	-7183
▁ாகும	-7184
▁ாலிய	-7185
▁ியதா	-7186
▁ியேற	-7187
▁்குக	-7188
▁்டின	-7189
▁்டிர	-7190
▁தையடு	-7191
▁ன்னாள	-7192
▁பல்கல	-7193
▁பிட்ட	-7194
▁ருவரு	-7195
▁ுச்செ	-7196
▁்போம்	-7197
HA	-7198
IV	-7199
▁ह	-7200
ppe	-7201
rea	-7202
▁2:	-7203
▁CE	-7204
▁Hu	-7205
▁MI	-7206
▁bl	-7207
▁mb	-7208
▁up	-7209
▁ஈட	-7210
▁எவ	-7211
▁தஹ	-7212
▁104	-7213
▁113	-7214
▁119	-7215
▁15,	-7216
▁25%	-7217
▁Gov	-7218
▁Gre	-7219
▁IPL	-7220
▁Pre	-7221
▁lai	-7222
▁van	-7223
▁டங்	-7224
▁யமை	-7225
▁ூபா	-7226
▁ூலம	-7227
▁ெவ்	-7228
▁ோவை	-7229
▁்தட	-7230
▁்தல	-7231
▁்னீ	-7232
▁்றோ	-7233
▁cont	-7234
▁நூற்	-7235
▁யவர்	-7236
▁ரிப்	-7237
▁ாரும	-7238
▁ீர்ப	-7239
▁ெடுக	-7240
▁ையைய	-7241
▁ோர்க	-7242
▁World	-7243
▁ிக்கட	-7244
▁ெய்வத	-7245
▁்கட்ட	-7246
▁்தியா	-7247
AC	-7248
PI	-7249
oll	-7250
ore	-7251
▁(5	-7252
▁As	-7253
▁Gu	-7254
▁NC	-7255
▁Pu	-7256
▁Ru	-7257
▁SC	-7258
▁ac	-7259
▁sm	-7260
▁கப	-7261
▁ஜப	-7262
ourt	-7263
▁115	-7264
▁403	-7265
▁Che	-7266
▁Chi	-7267
▁Dis	-7268
▁ght	-7269
▁ord	-7270
▁உல்	-7271
▁டோர	-7272
▁யாப	-7273
▁ரைத	-7274
▁ழலி	-7275
▁ாகவ	-7276
▁samy	-7277
▁சாரம	-7278
▁டையா	-7279
▁டோம்	-7280
▁ட்டத	-7281
▁தினா	-7282
▁நிலம	-7283
▁ப்பீ	-7284
▁மாவட	-7285
▁லைமை	-7286
▁ளின்	-7287
▁வீதம	-7288
▁Cards	-7289
▁ந்திக	-7290
▁றையின	-7291
▁ாய்க்	-7292
▁ிடையா	-7293
▁ிருச்	-7294
▁ேம்பட	-7295
▁ையைப்	-7296
DS	-7297
jp	-7298
ink	-7299
int	-7300
ram	-7301
▁Ce	-7302
▁Cu	-7303
▁IT	-7304
▁Ju	-7305
▁ND	-7306
▁NE	-7307
▁OT	-7308
▁Sm	-7309
▁il	-7310
▁po	-7311
▁pu	-7312
▁ur	-7313
▁ளோ	-7314
▁4.5	-7315
▁GPT	-7316
▁Mar	-7317
▁Med	-7318
▁are	-7319
▁ber	-7320
▁cha	-7321
▁cou	-7322
▁spe	-7323
▁கவல	-7324
▁டித	-7325
▁பண்	-7326
▁மொத	-7327
▁வற்	-7328
▁ஹக்	-7329
▁ெங்	-7330
▁ேகர	-7331
▁்கத	-7332
▁from	-7333
▁that	-7334
▁னவர்	-7335
▁லியு	-7336
▁வலிய	-7337
▁வுக்	-7338
▁ான்ம	-7339
▁ிசார	-7340
▁ிறேன	-7341
▁்கல்	-7342
▁்தல்	-7343
▁்துவ	-7344
▁்பது	-7345
▁்போர	-7346
▁Exclu	-7347
▁Vijay	-7348
▁tamil	-7349
▁திரம்	-7350
▁த்துக	-7351
▁ாடிக்	-7352
▁ாட்டா	-7353
▁ிதத்த	-7354
▁ும்பி	-7355
▁்புத்	-7356
DF	-7357
be	-7358
im	-7359
▁­	-7360
ank	-7361
era	-7362
ero	-7363
ory	-7364
▁AN	-7365
▁Ku	-7366
▁My	-7367
▁QR	-7368
▁pm	-7369
▁sy	-7370
▁கஷ	-7371
▁கஸ	-7372
▁னப	-7373
▁பந	-7374
▁ஹை	-7375
▁ைஞ	-7376
omen	-7377
▁116	-7378
▁142	-7379
▁280	-7380
▁RCB	-7381
▁Spe	-7382
▁WHO	-7383
▁bil	-7384
▁உக்	-7385
▁குந	-7386
▁செவ	-7387
▁தாண	-7388
▁தைக	-7389
▁பயோ	-7390
▁ருப	-7391
▁ள்ப	-7392
▁Pala	-7393
▁case	-7394
▁காத்	-7395
▁காரம	-7396
▁கியி	-7397
▁குமா	-7398
▁சாயி	-7399
▁டியர	-7400
▁த்தத	-7401
▁னதாக	-7402
▁ன்றன	-7403
▁ய்வா	-7404
▁ிரட்	-7405
▁ுகன்	-7406
▁்கைய	-7407
▁்தலை	-7408
▁்வில	-7409
▁happe	-7410
▁திகம்	-7411
▁ன்மைய	-7412
▁வுகளை	-7413
▁ுன்னே	-7414
▁ெரியவ	-7415
FA	-7416
FI	-7417
IS	-7418
ju	-7419
ya	-7420
கோ	-7421
▁े	-7422
▁	-7423
ali	-7424
oma	-7425
▁(8	-7426
▁AF	-7427
▁Au	-7428
▁BO	-7429
▁EC	-7430
▁Le	-7431
▁On	-7432
▁Or	-7433
▁PS	-7434
▁ld	-7435
▁om	-7436
▁ஜல	-7437
▁யப	-7438
▁11,	-7439
▁114	-7440
▁145	-7441
▁155	-7442
▁220	-7443
▁24,	-7444
▁Off	-7445
▁bjp	-7446
▁chi	-7447
▁gra	-7448
▁அபே	-7449
▁ஒய்	-7450
▁ஓடு	-7451
▁கனக	-7452
▁சேஷ	-7453
▁துத	-7454
▁தேக	-7455
▁தேத	-7456
▁தோஷ	-7457
▁னரி	-7458
▁ய்ந	-7459
▁ரகு	-7460
▁வலய	-7461
▁வாம	-7462
▁ாரத	-7463
▁ுகி	-7464
▁ொகு	-7465
▁ோசம	-7466
▁ோதர	-7467
▁ோற்	-7468
▁meet	-7469
▁work	-7470
▁டிச்	-7471
▁ட்டப	-7472
▁ணித்	-7473
▁தியர	-7474
▁மிழர	-7475
▁முக்	-7476
▁யவில	-7477
▁ரணம்	-7478
▁ாபாத	-7479
▁ிலாக	-7480
▁Edapp	-7481
▁INDIA	-7482
▁சந்தே	-7483
▁ரியும	-7484
▁விகள்	-7485
▁ைக்கழ	-7486
▁்படும	-7487
EA	-7488
mo	-7489
▁ी	-7490
ams	-7491
ick	-7492
டம்	-7493
▁(4	-7494
▁AM	-7495
▁Du	-7496
▁ED	-7497
▁EV	-7498
▁FB	-7499
▁GO	-7500
▁Ha	-7501
▁MP	-7502
▁MS	-7503
▁SH	-7504
▁Up	-7505
▁ke	-7506
▁pe	-7507
▁கய	-7508
▁‛‛	-7509
ervi	-7510
▁103	-7511
▁107	-7512
▁128	-7513
▁165	-7514
▁19,	-7515
▁30,	-7516
▁All	-7517
▁Day	-7518
▁MLA	-7519
▁One	-7520
▁Thi	-7521
▁ret	-7522
▁tha	-7523
▁ure	-7524
▁way	-7525
▁who	-7526
▁அவ்	-7527
▁ஊதா	-7528
▁கோத	-7529
▁ஜூல	-7530
▁போற	-7531
▁ரபல	-7532
▁ிசன	-7533
▁்கீ	-7534
▁்தூ	-7535
▁Revi	-7536
▁arre	-7537
▁part	-7538
▁tics	-7539
▁பணிய	-7540
▁யிரு	-7541
▁ரிகை	-7542
▁ரிசன	-7543
▁றிப்	-7544
▁ளிக்	-7545
▁வழிக	-7546
▁ாய்ச	-7547
▁ேட்க	-7548
▁்சின	-7549
▁்தால	-7550
▁்னால	-7551
▁்பூச	-7552
▁க்கீட	-7553
▁க்தர்	-7554
▁ங்கிய	-7555
▁பையில	-7556
▁ய்வதற	-7557
▁ருச்ச	-7558
▁ளிடம்	-7559
▁ிசாரி	-7560
▁்தில்	-7561
ES	-7562
IP	-7563
NG	-7564
du	-7565
gh	-7566
gy	-7567
hu	-7568
▁ं	-7569
▁त	-7570
ame	-7571
ami	-7572
aya	-7573
ert	-7574
ish	-7575
▁6%	-7576
▁6-	-7577
▁Ag	-7578
▁Aw	-7579
▁DA	-7580
▁Jo	-7581
▁Nu	-7582
▁PC	-7583
▁SS	-7584
▁UA	-7585
▁US	-7586
▁da	-7587
▁ey	-7588
▁ut	-7589
▁ve	-7590
▁we	-7591
▁ஊட	-7592
▁ஒன	-7593
▁டஸ	-7594
▁மழ	-7595
▁ளற	-7596
▁வப	-7597
witt	-7598
▁106	-7599
▁11)	-7600
▁111	-7601
▁12,	-7602
▁152	-7603
▁163	-7604
▁173	-7605
▁181	-7606
▁190	-7607
▁2-3	-7608
▁230	-7609
▁490	-7610
▁Ana	-7611
▁Big	-7612
▁Exp	-7613
▁ity	-7614
▁nan	-7615
▁nch	-7616
▁ney	-7617
▁not	-7618
▁அந்	-7619
▁ஆமை	-7620
▁உலை	-7621
▁உஷா	-7622
▁கச்	-7623
▁நட்	-7624
▁ம்த	-7625
▁றைப	-7626
▁லமா	-7627
▁ொங்	-7628
▁ோதல	-7629
▁ோரு	-7630
▁Rese	-7631
▁book	-7632
▁line	-7633
▁supp	-7634
▁கண்க	-7635
▁தண்ண	-7636
▁தாவத	-7637
▁துகள	-7638
▁தேசி	-7639
▁ந்தப	-7640
▁ராத்	-7641
▁ாமிய	-7642
▁ியமா	-7643
▁ிரைப	-7644
▁ுவரி	-7645
▁ொடக்	-7646
▁பங்கள	-7647
▁ப்பாற	-7648
▁மகிழ்	-7649
▁ம்புக	-7650
▁றைப்ப	-7651
▁ார்ப்	-7652
▁ாற்றி	-7653
▁ிர்ச்	-7654
▁ுன்னா	-7655
DP	-7656
EL	-7657
IR	-7658
▁व	-7659
▁ो	-7660
ati	-7661
eni	-7662
old	-7663
▁-2	-7664
▁8.	-7665
▁Mi	-7666
▁NA	-7667
▁NS	-7668
▁Op	-7669
▁SL	-7670
▁ca	-7671
▁hu	-7672
▁id	-7673
▁im	-7674
▁jo	-7675
▁ss	-7676
anka	-7677
▁(3)	-7678
▁122	-7679
▁14,	-7680
▁177	-7681
▁650	-7682
▁Air	-7683
▁Ama	-7684
▁Ant	-7685
▁Kan	-7686
▁Pra	-7687
▁Red	-7688
▁Sri	-7689
▁ant	-7690
▁lli	-7691
▁mic	-7692
▁அவல	-7693
▁ஆஷா	-7694
▁டவர	-7695
▁ண்க	-7696
▁மேள	-7697
▁யப்	-7698
▁யுற	-7699
▁றைம	-7700
▁லித	-7701
▁ழப்	-7702
▁்தே	-7703
▁்பல	-7704
▁says	-7705
▁ship	-7706
▁டார்	-7707
▁ணைத்	-7708
▁னாதி	-7709
▁ன்னே	-7710
▁ரிடம	-7711
▁ிலம்	-7712
▁ேரில	-7713
▁்களே	-7714
▁்றார	-7715
▁Green	-7716
▁Women	-7717
▁க்காம	-7718
▁ட்டால	-7719
▁ஸ்லிம	-7720
▁ாலின்	-7721
▁ிமன்ற	-7722
▁ியம்ம	-7723
▁ிரிட்	-7724
▁ெய்யப	-7725
▁ோயிலி	-7726
▁்டினா	-7727
KS	-7728
gu	-7729
ll	-7730
sp	-7731
xt	-7732
▁ल	-7733
igh	-7734
rou	-7735
▁4%	-7736
▁6)	-7737
▁AR	-7738
▁BB	-7739
▁Be	-7740
▁Do	-7741
▁Dr	-7742
▁Fa	-7743
▁Lu	-7744
▁MA	-7745
▁WW	-7746
▁We	-7747
▁bi	-7748
▁cu	-7749
▁gu	-7750
▁my	-7751
▁sw	-7752
▁கஜ	-7753
▁கந	-7754
▁னட	-7755
▁மப	-7756
▁றட	-7757
sion	-7758
▁118	-7759
▁156	-7760
▁185	-7761
▁23,	-7762
▁25,	-7763
▁28,	-7764
▁6.5	-7765
▁95%	-7766
▁Cap	-7767
▁Cou	-7768
▁IAS	-7769
▁Mon	-7770
▁Nor	-7771
▁app	-7772
▁new	-7773
▁one	-7774
▁ora	-7775
▁org	-7776
▁ori	-7777
▁why	-7778
▁ஏஜ்	-7779
▁களோ	-7780
▁திம	-7781
▁ளூர	-7782
▁ாறா	-7783
▁ிவை	-7784
▁ோதன	-7785
▁்டக	-7786
▁Comp	-7787
▁High	-7788
▁Hind	-7789
▁Rain	-7790
▁pala	-7791
▁stal	-7792
▁tory	-7793
▁இதில	-7794
▁எழுப	-7795
▁கரில	-7796
▁ச்சந	-7797
▁டால்	-7798
▁ாதிப	-7799
▁ொல்க	-7800
▁்கம்	-7801
▁்டித	-7802
▁்வது	-7803
▁Award	-7804
▁ssion	-7805
▁குகள்	-7806
▁டர்பா	-7807
▁திரிக	-7808
▁த்ததா	-7809
▁ன்பதை	-7810
▁றியது	-7811
▁ிலையி	-7812
▁ிளையா	-7813
▁ெரிவி	-7814
▁ேகத்த	-7815
DO	-7816
PF	-7817
RO	-7818
WI	-7819
av	-7820
cu	-7821
ஹா	-7822
▁ग	-7823
▁द	-7824
IVE	-7825
ady	-7826
ale	-7827
amp	-7828
ile	-7829
lim	-7830
ong	-7831
red	-7832
▁-1	-7833
▁4)	-7834
▁5)	-7835
▁5-	-7836
▁7)	-7837
▁Em	-7838
▁Hy	-7839
▁La	-7840
▁NG	-7841
▁NO	-7842
▁PO	-7843
▁Pe	-7844
▁Si	-7845
▁Un	-7846
▁Ve	-7847
▁ai	-7848
▁bo	-7849
▁cy	-7850
▁hy	-7851
▁ki	-7852
▁mu	-7853
▁ow	-7854
▁pp	-7855
▁pr	-7856
▁ணத	-7857
▁யற	-7858
adha	-7859
▁1.3	-7860
▁1.4	-7861
▁1.6	-7862
▁1.8	-7863
▁112	-7864
▁12%	-7865
▁153	-7866
▁164	-7867
▁18,	-7868
▁182	-7869
▁And	-7870
▁IMF	-7871
▁Imp	-7872
▁Mad	-7873
▁Pan	-7874
▁Sho	-7875
▁Sol	-7876
▁Stu	-7877
▁Sur	-7878
▁Ter	-7879
▁che	-7880
▁cri	-7881
▁her	-7882
▁ous	-7883
▁raj	-7884
▁இரண	-7885
▁எள்	-7886
▁சமண	-7887
▁சோக	-7888
▁படவ	-7889
▁ம்க	-7890
▁றவு	-7891
▁றான	-7892
▁ுகன	-7893
▁ுரம	-7894
▁ைவா	-7895
▁ோதை	-7896
▁Maha	-7897
▁blic	-7898
▁கவுக	-7899
▁செல்	-7900
▁டிவு	-7901
▁றித்	-7902
▁ழுமை	-7903
▁ாசிர	-7904
▁ிகம்	-7905
▁ிடத்	-7906
▁்படவ	-7907
▁court	-7908
▁அப்பட	-7909
▁கர்ப்	-7910
▁கார்த	-7911
▁க்கிழ	-7912
▁டினார	-7913
▁ட்சம்	-7914
▁திபர்	-7915
▁தியும	-7916
▁தேசத்	-7917
▁த்துத	-7918
▁பிரதே	-7919
▁ம்பெற	-7920
▁ருகின	-7921
▁ள்ளார	-7922
▁ழுவது	-7923
▁வாய்ப	-7924
▁ேசினா	-7925
▁ேலும்	-7926
▁ைத்து	-7927
▁்சியா	-7928
BS	-7929
EN	-7930
IO	-7931
MA	-7932
fi	-7933
pt	-7934
ௌன	-7935
▁>	-7936
▁य	-7937
irl	-7938
ist	-7939
▁-3	-7940
▁1/	-7941
▁8)	-7942
▁ES	-7943
▁IV	-7944
▁Ja	-7945
▁MO	-7946
▁No	-7947
▁Vo	-7948
▁ck	-7949
▁ga	-7950
▁so	-7951
▁எள	-7952
▁ஏன	-7953
▁சச	-7954
▁டப	-7955
▁றோ	-7956
▁வஹ	-7957
▁126	-7958
▁129	-7959
▁134	-7960
▁141	-7961
▁151	-7962
▁16,	-7963
▁161	-7964
▁20,	-7965
▁29)	-7966
▁AUS	-7967
▁Bha	-7968
▁CEO	-7969
▁Cri	-7970
▁DNA	-7971
▁Dra	-7972
▁Kar	-7973
▁Not	-7974
▁Pay	-7975
▁RRR	-7976
▁Sha	-7977
▁age	-7978
▁att	-7979
▁end	-7980
▁pho	-7981
▁pri	-7982
▁ron	-7983
▁tes	-7984
▁uri	-7985
▁wat	-7986
▁இச்	-7987
▁ஈத்	-7988
▁ஈஸ்	-7989
▁எவ்	-7990
▁ஒப்	-7991
▁ஒர்	-7992
▁மௌன	-7993
▁லவி	-7994
▁ழிக	-7995
▁வொர	-7996
▁ாகத	-7997
▁ாணவ	-7998
▁ிண்	-7999
▁ுவோ	-8000
▁்டம	-8001
▁்னெ	-8002
▁Boss	-8003
▁Cent	-8004
▁Engi	-8005
▁Inst	-8006
▁Ravi	-8007
▁Scie	-8008
▁arch	-8009
▁been	-8010
▁bili	-8011
▁chen	-8012
▁gene	-8013
▁next	-8014
▁scho	-8015
▁stra	-8016
▁சுமா	-8017
▁தியா	-8018
▁ய்தி	-8019
▁ளக்க	-8020
▁ிடப்	-8021
▁ிபாட	-8022
▁ிராவ	-8023
▁ுன்வ	-8024
▁ுயன்	-8025
▁ெறுவ	-8026
▁்கது	-8027
▁்லிம	-8028
▁Story	-8029
▁Twitt	-8030
▁ifica	-8031
▁உறவின	-8032
▁குள்ள	-8033
▁தண்ணீ	-8034
▁ரணமாக	-8035
▁லியில	-8036
▁ேரத்த	-8037
LE	-8038
MS	-8039
PM	-8040
bu	-8041
fu	-8042
mu	-8043
su	-8044
wa	-8045
▁ब	-8046
val	-8047
▁"2	-8048
▁(7	-8049
▁AT	-8050
▁Ap	-8051
▁At	-8052
▁DR	-8053
▁MK	-8054
▁Mr	-8055
▁Ta	-8056
▁`1	-8057
▁ah	-8058
▁ci	-8059
▁cl	-8060
▁gn	-8061
▁ஈழ	-8062
▁ஐந	-8063
▁லஹ	-8064
▁ஷூ	-8065
irst	-8066
pera	-8067
▁10)	-8068
▁13,	-8069
▁133	-8070
▁162	-8071
▁17,	-8072
▁171	-8073
▁198	-8074
▁2.3	-8075
▁2.4	-8076
▁21,	-8077
▁215	-8078
▁224	-8079
▁225	-8080
▁25)	-8081
▁26,	-8082
▁27%	-8083
▁31,	-8084
▁649	-8085
▁750	-8086
▁Can	-8087
▁Eco	-8088
▁MAN	-8089
▁Non	-8090
▁Rec	-8091
▁Tru	-8092
▁ain	-8093
▁dia	-8094
▁kar	-8095
▁let	-8096
▁lle	-8097
▁nor	-8098
▁nta	-8099
▁ory	-8100
▁pre	-8101
▁red	-8102
▁rep	-8103
▁rol	-8104
▁sec	-8105
▁sho	-8106
▁sue	-8107
▁tri	-8108
▁war	-8109
▁ஆங்	-8110
▁இரை	-8111
▁ஈகோ	-8112
▁ஏனோ	-8113
▁டைச	-8114
▁தடா	-8115
▁தபோ	-8116
▁தோட	-8117
▁பூத	-8118
▁பேண	-8119
▁மசி	-8120
▁யாண	-8121
▁ரச்	-8122
▁றதா	-8123
▁றிக	-8124
▁ஹோம	-8125
▁ியக	-8126
▁ெலு	-8127
▁Anna	-8128
▁Deep	-8129
▁FIFA	-8130
▁Face	-8131
▁Heal	-8132
▁LIVE	-8133
▁Offi	-8134
▁Pres	-8135
▁Tech	-8136
▁elec	-8137
▁gram	-8138
▁llar	-8139
▁ஒற்ற	-8140
▁கரமா	-8141
▁குரி	-8142
▁சர்க	-8143
▁டுதல	-8144
▁ததும	-8145
▁ன்கி	-8146
▁ன்பி	-8147
▁றுகி	-8148
▁ல்தா	-8149
▁ளார்	-8150
▁வாளர	-8151
▁ாராள	-8152
▁ிகைய	-8153
▁்கலா	-8154
▁்சில	-8155
▁்ளிக	-8156
▁்ளோம	-8157
▁Lanka	-8158
▁Opera	-8159
▁Proje	-8160
▁Servi	-8161
▁கோப்ப	-8162
▁சிகர்	-8163
▁ணையத்	-8164
▁தேர்த	-8165
▁மாதத்	-8166
▁ரச்சி	-8167
▁ரிவித	-8168
▁ிற்பன	-8169
▁ூழலில	-8170
AA	-8171
GC	-8172
HU	-8173
OR	-8174
ca	-8175
ci	-8176
te	-8177
um	-8178
▁£	-8179
ary	-8180
cha	-8181
ell	-8182
har	-8183
ilm	-8184
ion	-8185
iss	-8186
now	-8187
ody	-8188
ric	-8189
row	-8190
▁"1	-8191
▁--	-8192
▁00	-8193
▁2%	-8194
▁AC	-8195
▁AS	-8196
▁CC	-8197
▁CT	-8198
▁Eu	-8199
▁Hi	-8200
▁ID	-8201
▁ME	-8202
▁Ne	-8203
▁Of	-8204
▁RS	-8205
▁Tu	-8206
▁VS	-8207
▁Wa	-8208
▁dy	-8209
▁ie	-8210
▁ja	-8211
▁sl	-8212
▁wa	-8213
▁ஏல	-8214
▁ணட	-8215
▁ஹத	-8216
rand	-8217
▁(6)	-8218
▁1/2	-8219
▁127	-8220
▁131	-8221
▁157	-8222
▁168	-8223
▁174	-8224
▁18)	-8225
▁183	-8226
▁193	-8227
▁210	-8228
▁260	-8229
▁365	-8230
▁Are	-8231
▁Aut	-8232
▁Bar	-8233
▁Bra	-8234
▁EPS	-8235
▁FIR	-8236
▁Gen	-8237
▁Per	-8238
▁Sec	-8239
▁Shi	-8240
▁Tha	-8241
▁all	-8242
▁ard	-8243
▁ass	-8244
▁can	-8245
▁dge	-8246
▁exp	-8247
▁gem	-8248
▁han	-8249
▁ina	-8250
▁ist	-8251
▁les	-8252
▁nge	-8253
▁off	-8254
▁old	-8255
▁peo	-8256
▁pra	-8257
▁sed	-8258
▁thy	-8259
▁wom	-8260
▁ஓசை	-8261
▁நமோ	-8262
▁நின	-8263
▁பிஏ	-8264
▁மேக	-8265
▁ளார	-8266
▁ளில	-8267
▁வங்	-8268
▁வப்	-8269
▁வாண	-8270
▁ாச்	-8271
▁ிலர	-8272
▁ொரோ	-8273
▁்ளு	-8274
▁Asia	-8275
▁Bank	-8276
▁Deve	-8277
▁GOAT	-8278
▁Mode	-8279
▁Time	-8280
▁With	-8281
▁Work	-8282
▁comp	-8283
▁life	-8284
▁logy	-8285
▁ndra	-8286
▁over	-8287
▁rict	-8288
▁sche	-8289
▁slim	-8290
▁ture	-8291
▁அறிக	-8292
▁ங்கப	-8293
▁டியு	-8294
▁தவிய	-8295
▁நாடா	-8296
▁படிக	-8297
▁மூன்	-8298
▁ற்பட	-8299
▁ாணிப	-8300
▁ிடுத	-8301
▁ுகார	-8302
▁ுவான	-8303
▁ுவாம	-8304
▁்தத்	-8305
▁்துட	-8306
▁்துப	-8307
▁்முற	-8308
▁Ameri	-8309
▁Hindu	-8310
▁Smart	-8311
▁Thiru	-8312
▁commi	-8313
▁count	-8314
▁த்திற	-8315
▁ந்தால	-8316
▁ந்துர	-8317
▁ாய்ச்	-8318
▁ாரிகள	-8319
▁ிகமாக	-8320
▁ுகளும	-8321
▁்கலாம	-8322
▁்ச்சை	-8323
BI	-8324
FT	-8325
HI	-8326
PL	-8327
WA	-8328
YA	-8329
sc	-8330
வட	-8331
▁ज	-8332
▁ங	-8333
▁௦	-8334
ade	-8335
chi	-8336
eek	-8337
igi	-8338
ott	-8339
usb	-8340
▁",	-8341
▁(9	-8342
▁7-	-8343
▁9,	-8344
▁Ab	-8345
▁Bi	-8346
▁CN	-8347
▁Cl	-8348
▁Cy	-8349
▁DE	-8350
▁DS	-8351
▁Fi	-8352
▁GT	-8353
▁IO	-8354
▁Ni	-8355
▁SE	-8356
▁SU	-8357
▁Sw	-8358
▁Ul	-8359
▁ii	-8360
▁ko	-8361
▁tw	-8362
▁za	-8363
▁இச	-8364
▁ஏர	-8365
▁டட	-8366
▁டத	-8367
▁னஹ	-8368
▁ளள	-8369
alla	-8370
ours	-8371
outh	-8372
roup	-8373
▁(5)	-8374
▁(8)	-8375
▁13)	-8376
▁136	-8377
▁14%	-8378
▁147	-8379
▁149	-8380
▁154	-8381
▁17)	-8382
▁178	-8383
▁19)	-8384
▁2-1	-8385
▁2.2	-8386
▁2.7	-8387
▁205	-8388
▁207	-8389
▁22,	-8390
▁221	-8391
▁256	-8392
▁27,	-8393
▁3-4	-8394
▁3.2	-8395
▁340	-8396
▁850	-8397
▁Glo	-8398
▁INS	-8399
▁Oly	-8400
▁Par	-8401
▁Pow	-8402
▁Ran	-8403
▁Ret	-8404
▁TVS	-8405
▁WWE	-8406
▁ari	-8407
▁bit	-8408
▁cho	-8409
▁col	-8410
▁ert	-8411
▁his	-8412
▁ics	-8413
▁nes	-8414
▁our	-8415
▁pur	-8416
▁sha	-8417
▁tro	-8418
▁tta	-8419
▁ver	-8420
▁ஆமா	-8421
▁காந	-8422
▁சனா	-8423
▁துப	-8424
▁நேச	-8425
▁பலே	-8426
▁பளு	-8427
▁பவா	-8428
▁யரா	-8429
▁யாற	-8430
▁யுவ	-8431
▁ரென	-8432
▁றின	-8433
▁லைப	-8434
▁ாலக	-8435
▁ிமன	-8436
▁்னை	-8437
▁Bigg	-8438
▁Cong	-8439
▁Dire	-8440
▁Inte	-8441
▁Mana	-8442
▁Sasi	-8443
▁Save	-8444
▁Sing	-8445
▁Test	-8446
▁Univ	-8447
▁back	-8448
▁form	-8449
▁have	-8450
▁join	-8451
▁logi	-8452
▁ness	-8453
▁tran	-8454
▁yout	-8455
▁சர்ச	-8456
▁டாவத	-8457
▁டுக்	-8458
▁நகரி	-8459
▁பணத்	-8460
▁பதிக	-8461
▁யாகவ	-8462
▁ரணத்	-8463
▁ளிர்	-8464
▁ியாற	-8465
▁்வரா	-8466
▁forma	-8467
▁tical	-8468
▁கிறேன	-8469
▁கைக்க	-8470
▁சட்டப	-8471
▁தாரம்	-8472
▁ன்னர்	-8473
▁படும்	-8474
▁பொதுச	-8475
▁ப்புத	-8476
▁மிரட்	-8477
▁முன்ப	-8478
▁ுன்னி	-8479
▁ேட்பா	-8480
GE	-8481
ID	-8482
KR	-8483
LO	-8484
ME	-8485
MI	-8486
PP	-8487
RC	-8488
ef	-8489
ki	-8490
▁श	-8491
ERT	-8492
asa	-8493
asu	-8494
ere	-8495
ett	-8496
ild	-8497
lea	-8498
lue	-8499
oci	-8500
ole	-8501
ppy	-8502
que	-8503
qui	-8504
போத	-8505
▁1%	-8506
▁3%	-8507
▁DC	-8508
▁EX	-8509
▁GS	-8510
▁KU	-8511
▁Ko	-8512
▁MB	-8513
▁NT	-8514
▁PT	-8515
▁Wi	-8516
▁ap	-8517
▁cr	-8518
▁cs	-8519
▁ef	-8520
▁ju	-8521
▁lu	-8522
▁mk	-8523
▁pt	-8524
▁rn	-8525
▁vo	-8526
▁ஆம	-8527
▁ரஊ	-8528
ouse	-8529
▁(4)	-8530
▁1.2	-8531
▁132	-8532
▁139	-8533
▁176	-8534
▁179	-8535
▁186	-8536
▁187	-8537
▁192	-8538
▁199	-8539
▁21)	-8540
▁213	-8541
▁226	-8542
▁28)	-8543
▁29,	-8544
▁294	-8545
▁3.8	-8546
▁30)	-8547
▁312	-8548
▁320	-8549
▁Art	-8550
▁Boy	-8551
▁Car	-8552
▁Cit	-8553
▁Hor	-8554
▁IPC	-8555
▁Kol	-8556
▁Mov	-8557
▁OBC	-8558
▁OTP	-8559
▁Pen	-8560
▁Rah	-8561
▁THE	-8562
▁TWI	-8563
▁Who	-8564
▁ack	-8565
▁ara	-8566
▁cia	-8567
▁gal	-8568
▁ies	-8569
▁itu	-8570
▁lla	-8571
▁nal	-8572
▁ncy	-8573
▁nel	-8574
▁net	-8575
▁nou	-8576
▁nth	-8577
▁stu	-8578
▁tis	-8579
▁zed	-8580
▁zon	-8581
▁அதோ	-8582
▁ஆஹா	-8583
▁ஊரு	-8584
▁ஏகே	-8585
▁சதா	-8586
▁வைப	-8587
▁ஹரே	-8588
▁ீசா	-8589
▁ுசெ	-8590
▁ூச்	-8591
▁ொகை	-8592
▁்தை	-8593
▁்லப	-8594
▁Anti	-8595
▁Cont	-8596
▁Fina	-8597
▁Home	-8598
▁Khan	-8599
▁Mari	-8600
▁Medi	-8601
▁Raja	-8602
▁Resu	-8603
▁Scho	-8604
▁Show	-8605
▁TTER	-8606
▁admk	-8607
▁dist	-8608
▁girl	-8609
▁http	-8610
▁pati	-8611
▁ries	-8612
▁காரி	-8613
▁கினா	-8614
▁சியம	-8615
▁தபோத	-8616
▁தியம	-8617
▁திலே	-8618
▁தையு	-8619
▁பல்வ	-8620
▁மீதா	-8621
▁ருந்	-8622
▁ியைய	-8623
▁ிரம்	-8624
▁ீர்த	-8625
▁ுகத்	-8626
▁ுடிக	-8627
▁ெளிய	-8628
▁ேரடி	-8629
▁்செல	-8630
▁்புள	-8631
▁்ளிய	-8632
▁Colle	-8633
▁Commi	-8634
▁First	-8635
▁Super	-8636
▁இருக்	-8637
▁கார்க	-8638
▁கையின	-8639
▁ச்சத்	-8640
▁திகள்	-8641
▁ன்னுட	-8642
▁யாமல்	-8643
▁ளிகள்	-8644
▁ளுக்க	-8645
▁ிரைப்	-8646
▁ுந்தத	-8647
CS	-8648
DC	-8649
FF	-8650
FP	-8651
LI	-8652
LL	-8653
MC	-8654
RH	-8655
TC	-8656
WS	-8657
ak	-8658
em	-8659
gg	-8660
ani	-8661
ata	-8662
jab	-8663
▁"3	-8664
▁+1	-8665
▁8:	-8666
▁AD	-8667
▁BS	-8668
▁CR	-8669
▁Fo	-8670
▁LA	-8671
▁LS	-8672
▁MG	-8673
▁MQ	-8674
▁NH	-8675
▁Ob	-8676
▁PI	-8677
▁PR	-8678
▁RO	-8679
▁SD	-8680
▁SO	-8681
▁ev	-8682
▁ff	-8683
▁fo	-8684
▁os	-8685
▁ue	-8686
▁ze	-8687
▁ணப	-8688
▁றள	-8689
▁லந	-8690
▁ஷஸ	-8691
▁0.5	-8692
▁12)	-8693
▁124	-8694
▁13%	-8695
▁14)	-8696
▁146	-8697
▁148	-8698
▁159	-8699
▁167	-8700
▁169	-8701
▁172	-8702
▁196	-8703
▁2.9	-8704
▁203	-8705
▁206	-8706
▁228	-8707
▁235	-8708
▁270	-8709
▁275	-8710
▁299	-8711
▁302	-8712
▁35%	-8713
▁376	-8714
▁4.4	-8715
▁4.7	-8716
▁420	-8717
▁489	-8718
▁50,	-8719
▁75%	-8720
▁99%	-8721
▁Bri	-8722
▁COM	-8723
▁Ele	-8724
▁Fli	-8725
▁Fou	-8726
▁Hot	-8727
▁Inc	-8728
▁Inf	-8729
▁LIN	-8730
▁Lab	-8731
▁Net	-8732
▁ani	-8733
▁ask	-8734
▁bet	-8735
▁bir	-8736
▁cle	-8737
▁dio	-8738
▁ell	-8739
▁elv	-8740
▁fic	-8741
▁gen	-8742
▁gle	-8743
▁hil	-8744
▁ian	-8745
▁lar	-8746
▁med	-8747
▁nga	-8748
▁que	-8749
▁san	-8750
▁son	-8751
▁ube	-8752
▁yan	-8753
▁அன்	-8754
▁ஓலை	-8755
▁கரக	-8756
▁களா	-8757
▁சயன	-8758
▁சோள	-8759
▁ஜனக	-8760
▁டச்	-8761
▁டதா	-8762
▁ணைக	-8763
▁தலீ	-8764
▁துக	-8765
▁ரஊப	-8766
▁ரசர	-8767
▁றச்	-8768
▁வதே	-8769
▁்ளை	-8770
▁Book	-8771
▁Capt	-8772
▁Code	-8773
▁Digi	-8774
▁Euro	-8775
▁Food	-8776
▁Gand	-8777
▁Gene	-8778
▁Glob	-8779
▁Lady	-8780
▁Mani	-8781
▁Nare	-8782
▁Orga	-8783
▁Port	-8784
▁Rama	-8785
▁Rule	-8786
▁Sent	-8787
▁govt	-8788
▁land	-8789
▁orts	-8790
▁pres	-8791
▁spec	-8792
▁this	-8793
▁tiva	-8794
▁ஏராள	-8795
▁கவல்	-8796
▁சியு	-8797
▁ண்கா	-8798
▁தியு	-8799
▁துச்	-8800
▁ந்தெ	-8801
▁னநாய	-8802
▁யாரி	-8803
▁றுக்	-8804
▁றையி	-8805
▁ளியா	-8806
▁ழில்	-8807
▁ாதைய	-8808
▁ாரித	-8809
▁ாலைய	-8810
▁ாளரு	-8811
▁ியுற	-8812
▁ிருஷ	-8813
▁ுதிப	-8814
▁ெயற்	-8815
▁ொதுக	-8816
▁்கவி	-8817
▁்காம	-8818
▁்குப	-8819
▁்தில	-8820
▁Chief	-8821
▁Happy	-8822
▁Olymp	-8823
▁Share	-8824
▁Solar	-8825
▁Space	-8826
▁Video	-8827
▁slams	-8828
▁stice	-8829
▁காரர்	-8830
▁கொரோன	-8831
▁க்குப	-8832
▁சார்ந	-8833
▁சேர்க	-8834
▁ண்டுப	-8835
▁தலில்	-8836
▁த்துட	-8837
▁ன்படி	-8838
▁பாலிய	-8839
▁ப்பாள	-8840
▁மத்தி	-8841
▁றையாக	-8842
▁ால்தா	-8843
▁ிர்கா	-8844
▁ுத்தத	-8845
▁ொடக்க	-8846
▁்தார்	-8847
▁்விக்	-8848
CL	-8849
DI	-8850
FO	-8851
FX	-8852
IM	-8853
RT	-8854
UN	-8855
UT	-8856
bi	-8857
ec	-8858
vt	-8859
zi	-8860
▁भ	-8861
▁ू	-8862
▁•	-8863
ING	-8864
ach	-8865
ane	-8866
arm	-8867
eng	-8868
ham	-8869
ord	-8870
▁""	-8871
▁2"	-8872
▁3)	-8873
▁5:	-8874
▁6:	-8875
▁7%	-8876
▁8%	-8877
▁AB	-8878
▁CA	-8879
▁CH	-8880
▁Ec	-8881
▁Im	-8882
▁LE	-8883
▁OF	-8884
▁ON	-8885
▁OS	-8886
▁PB	-8887
▁So	-8888
▁Ya	-8889
▁Yo	-8890
▁Yu	-8891
▁au	-8892
▁bu	-8893
▁ny	-8894
▁od	-8895
▁ul	-8896
▁के	-8897
▁அற	-8898
▁நத	-8899
▁னன	-8900
▁யஹ	-8901
lack	-8902
▁1.7	-8903
▁143	-8904
▁16)	-8905
▁18%	-8906
▁197	-8907
▁20)	-8908
▁201	-8909
▁212	-8910
▁214	-8911
▁238	-8912
▁243	-8913
▁245	-8914
▁251	-8915
▁287	-8916
▁288	-8917
▁3-0	-8918
▁3.7	-8919
▁33%	-8920
▁43%	-8921
▁506	-8922
▁6.4	-8923
▁6.8	-8924
▁7.1	-8925
▁720	-8926
▁8.5	-8927
▁85%	-8928
▁Auc	-8929
▁BOO	-8930
▁Cup	-8931
▁Del	-8932
▁Dep	-8933
▁Emp	-8934
▁Ent	-8935
▁Geo	-8936
▁IPO	-8937
▁KKR	-8938
▁LSG	-8939
▁NIA	-8940
▁PAK	-8941
▁Pet	-8942
▁RSS	-8943
▁TAN	-8944
▁Tri	-8945
▁UAE	-8946
▁UPS	-8947
▁bia	-8948
▁bra	-8949
▁cra	-8950
▁dhi	-8951
▁dra	-8952
▁emp	-8953
▁gar	-8954
▁hal	-8955
▁met	-8956
▁nad	-8957
▁nia	-8958
▁pen	-8959
▁per	-8960
▁pet	-8961
▁pic	-8962
▁rat	-8963
▁rec	-8964
▁ris	-8965
▁ual	-8966
▁uni	-8967
▁was	-8968
▁ஆணவ	-8969
▁ஆணி	-8970
▁ஆளை	-8971
▁இழை	-8972
▁ஊறு	-8973
▁எவை	-8974
▁ஓசி	-8975
▁கயா	-8976
▁கறை	-8977
▁சதய	-8978
▁டோம	-8979
▁ணமா	-8980
▁நமத	-8981
▁னைவ	-8982
▁பயி	-8983
▁பறை	-8984
▁மந்	-8985
▁யஷஸ	-8986
▁ளமா	-8987
▁வண்	-8988
▁்தவ	-8989
▁்யப	-8990
▁Assi	-8991
▁Asso	-8992
▁Back	-8993
▁Case	-8994
▁Dhan	-8995
▁Form	-8996
▁Fran	-8997
▁Fund	-8998
▁Grow	-8999
▁NEET	-9000
▁Open	-9001
▁Peri	-9002
▁Poll	-9003
▁Post	-9004
▁Rail	-9005
▁Raji	-9006
▁Regi	-9007
▁Siva	-9008
▁Soci	-9009
▁Spec	-9010
▁Sure	-9011
▁Tran	-9012
▁UAPA	-9013
▁Upda	-9014
▁Vira	-9015
▁Week	-9016
▁brea	-9017
▁cent	-9018
▁does	-9019
▁food	-9020
▁lain	-9021
▁pari	-9022
▁post	-9023
▁reme	-9024
▁shou	-9025
▁sing	-9026
▁sion	-9027
▁stan	-9028
▁time	-9029
▁tore	-9030
▁ttee	-9031
▁vika	-9032
▁year	-9033
▁சுகள	-9034
▁ணமாக	-9035
▁திரன	-9036
▁ன்றா	-9037
▁பாண்	-9038
▁போட்	-9039
▁ருமா	-9040
▁றைக்	-9041
▁ழித்	-9042
▁ிகளா	-9043
▁ியமி	-9044
▁ிவிக	-9045
▁ுவிக	-9046
▁ேகமா	-9047
▁்கிட	-9048
▁்படு	-9049
▁Apple	-9050
▁Black	-9051
▁Emera	-9052
▁Rahul	-9053
▁Sport	-9054
▁தண்டன	-9055
▁தன்னு	-9056
▁லத்தி	-9057
▁வதில்	-9058
▁விழுந	-9059
▁வெளிப	-9060
▁ிடிக்	-9061
▁ிரும்	-9062
▁ிர்வா	-9063
▁ிஸ்தா	-9064
▁ுகைப்	-9065
▁ூடும்	-9066
▁்பங்க	-9067
EM	-9068
FH	-9069
MR	-9070
PC	-9071
PO	-9072
PR	-9073
ba	-9074
gn	-9075
go	-9076
ko	-9077
ku	-9078
mb	-9079
ms	-9080
nc	-9081
ng	-9082
sa	-9083
ta	-9084
td	-9085
za	-9086
ஆக	-9087
சல	-9088
நோ	-9089
ICA	-9090
aid	-9091
air	-9092
eet	-9093
lus	-9094
ndu	-9095
▁(0	-9096
▁0.	-9097
▁1:	-9098
▁Ca	-9099
▁Cr	-9100
▁DH	-9101
▁DO	-9102
▁Da	-9103
▁Ey	-9104
▁Ho	-9105
▁IA	-9106
▁Je	-9107
▁KV	-9108
▁Ka	-9109
▁LO	-9110
▁Pi	-9111
▁Pr	-9112
▁Rh	-9113
▁UP	-9114
▁ak	-9115
▁ep	-9116
▁fi	-9117
▁fu	-9118
▁ns	-9119
▁nu	-9120
▁rs	-9121
▁rt	-9122
▁ud	-9123
▁ye	-9124
▁ஓத	-9125
▁ஜத	-9126
▁டள	-9127
▁பப	-9128
▁லஜ	-9129
▁ஹஜ	-9130
▁ஹஸ	-9131
▁ஹூ	-9132
▁ொண	-9133
▁ொத	-9134
hark	-9135
lima	-9136
reed	-9137
▁(9)	-9138
▁1-0	-9139
▁11%	-9140
▁123	-9141
▁158	-9142
▁189	-9143
▁2-0	-9144
▁219	-9145
▁22)	-9146
▁227	-9147
▁229	-9148
▁255	-9149
▁27)	-9150
▁28%	-9151
▁3.3	-9152
▁31)	-9153
▁310	-9154
▁318	-9155
▁322	-9156
▁380	-9157
▁4.6	-9158
▁480	-9159
▁543	-9160
▁55%	-9161
▁575	-9162
▁6-7	-9163
▁662	-9164
▁7-8	-9165
▁840	-9166
▁AFG	-9167
▁AFP	-9168
▁Aji	-9169
▁Amb	-9170
▁BRI	-9171
▁Bio	-9172
▁Cro	-9173
▁Dho	-9174
▁FSS	-9175
▁Her	-9176
▁ICC	-9177
▁IDF	-9178
▁IIT	-9179
▁Kri	-9180
▁Lau	-9181
▁Ltd	-9182
▁Mah	-9183
▁May	-9184
▁Mic	-9185
▁NAT	-9186
▁NDA	-9187
▁Out	-9188
▁PFI	-9189
▁PSC	-9190
▁Pat	-9191
▁RAJ	-9192
▁SAN	-9193
▁Sup	-9194
▁Tho	-9195
▁VFX	-9196
▁Web	-9197
▁art	-9198
▁bab	-9199
▁bal	-9200
▁bas	-9201
▁cor	-9202
▁dec	-9203
▁ery	-9204
▁ess	-9205
▁fou	-9206
▁get	-9207
▁iga	-9208
▁lay	-9209
▁led	-9210
▁may	-9211
▁nci	-9212
▁ops	-9213
▁pse	-9214
▁rov	-9215
▁she	-9216
▁tai	-9217
▁tch	-9218
▁ten	-9219
▁too	-9220
▁tus	-9221
▁yam	-9222
▁yar	-9223
▁அகல	-9224
▁அதா	-9225
▁அபய	-9226
▁அலற	-9227
▁ஆளா	-9228
▁இஷா	-9229
▁ஈவி	-9230
▁உறை	-9231
▁எசல	-9232
▁ஏடு	-9233
▁ஏது	-9234
▁ஓடை	-9235
▁ஓயா	-9236
▁களவ	-9237
▁சமூ	-9238
▁ஜங்	-9239
▁ணவி	-9240
▁தட்	-9241
▁நன்	-9242
▁நவ்	-9243
▁னுப	-9244
▁னேற	-9245
▁பலா	-9246
▁பவள	-9247
▁மடு	-9248
▁மலர	-9249
▁யஷ்	-9250
▁ளிவ	-9251
▁வழக	-9252
▁வுண	-9253
▁ாறி	-9254
▁ிபா	-9255
▁ிழு	-9256
▁ுந்	-9257
▁ூனி	-9258
▁ெலவ	-9259
▁ையி	-9260
▁ொடு	-9261
▁ோவி	-9262
▁்நி	-9263
▁Care	-9264
▁Coro	-9265
▁Dist	-9266
▁Film	-9267
▁Free	-9268
▁Gold	-9269
▁Isra	-9270
▁Jaya	-9271
▁Kash	-9272
▁Lead	-9273
▁Life	-9274
▁Limi	-9275
▁Line	-9276
▁Madu	-9277
▁Mast	-9278
▁PBKS	-9279
▁Pand	-9280
▁Park	-9281
▁Part	-9282
▁Sche	-9283
▁Seem	-9284
▁Shar	-9285
▁Star	-9286
▁Stre	-9287
▁Syst	-9288
▁Team	-9289
▁Tiru	-9290
▁UPSC	-9291
▁Ulti	-9292
▁Veri	-9293
▁Zone	-9294
▁body	-9295
▁comm	-9296
▁ctor	-9297
▁high	-9298
▁kill	-9299
▁know	-9300
▁nama	-9301
▁news	-9302
▁port	-9303
▁rain	-9304
▁rash	-9305
▁reau	-9306
▁rese	-9307
▁rome	-9308
▁spee	-9309
▁talk	-9310
▁wood	-9311
▁ஆபத்	-9312
▁டவடி	-9313
▁டாலி	-9314
▁தல்வ	-9315
▁தேசத	-9316
▁னிடம	-9317
▁படுவ	-9318
▁ாரணம	-9319
▁ிரப்	-9320
▁ிளைவ	-9321
▁ுபடு	-9322
▁ுறப்	-9323
▁்கலை	-9324
▁்நில	-9325
▁்றோர	-9326
▁Confe	-9327
▁Court	-9328
▁Delhi	-9329
▁Exper	-9330
▁Group	-9331
▁Insti	-9332
▁Madra	-9333
▁Movie	-9334
▁NCERT	-9335
▁South	-9336
▁Surve	-9337
▁party	-9338
▁price	-9339
▁swami	-9340
▁கக்கூ	-9341
▁க்கமா	-9342
▁ங்குவ	-9343
▁டல்கள	-9344
▁தவிகள	-9345
▁த்துற	-9346
▁றத்தி	-9347
▁விக்க	-9348
▁ாகுல்	-9349
▁ிகாரி	-9350
▁ியிலி	-9351
▁ுதிக்	-9352
▁ொண்டி	-9353
▁்க்கட	-9354
▁்சாட்	-9355
▁்துடன	-9356
AP	-9357
BA	-9358
CO	-9359
DU	-9360
GA	-9361
HC	-9362
IE	-9363
RF	-9364
UR	-9365
bs	-9366
df	-9367
fa	-9368
no	-9369
op	-9370
vo	-9371
ym	-9372
ें	-9373
ஷி	-9374
▁~	-9375
▁°	-9376
▁ट	-9377
▁ા	-9378
▁	-9379
ASA	-9380
HAN	-9381
RNA	-9382
ana	-9383
ask	-9384
esi	-9385
had	-9386
ich	-9387
iti	-9388
jor	-9389
oly	-9390
omb	-9391
orm	-9392
rai	-9393
xis	-9394
▁"4	-9395
▁0-	-9396
▁3'	-9397
▁4:	-9398
▁BR	-9399
▁Bl	-9400
▁CV	-9401
▁HD	-9402
▁IG	-9403
▁Ir	-9404
▁It	-9405
▁NV	-9406
▁NZ	-9407
▁Ph	-9408
▁Ri	-9409
▁SP	-9410
▁Sk	-9411
▁Ud	-9412
▁Wh	-9413
▁`5	-9414
▁bh	-9415
▁ee	-9416
▁fe	-9417
▁gi	-9418
▁gl	-9419
▁gy	-9420
▁ot	-9421
▁ou	-9422
▁ym	-9423
▁இஅ	-9424
▁இஇ	-9425
▁ஊற	-9426
▁ணக	-9427
▁தத	-9428
▁தஷ	-9429
▁பஜ	-9430
▁ஸட	-9431
▁ஸு	-9432
avin	-9433
lood	-9434
ovid	-9435
reat	-9436
▁(24	-9437
▁..?	-9438
▁1-1	-9439
▁1.1	-9440
▁15)	-9441
▁166	-9442
▁2.1	-9443
▁2.6	-9444
▁2.8	-9445
▁202	-9446
▁208	-9447
▁23.	-9448
▁242	-9449
▁249	-9450
▁254	-9451
▁26)	-9452
▁261	-9453
▁262	-9454
▁263	-9455
▁273	-9456
▁292	-9457
▁295	-9458
▁296	-9459
▁326	-9460
▁4.1	-9461
▁4.2	-9462
▁4.3	-9463
▁5.2	-9464
▁6.2	-9465
▁65%	-9466
▁7.6	-9467
▁950	-9468
▁ANI	-9469
▁Ano	-9470
▁Att	-9471
▁Bro	-9472
▁CNG	-9473
▁COV	-9474
▁Cho	-9475
▁EWS	-9476
▁End	-9477
▁III	-9478
▁Law	-9479
▁MGR	-9480
▁Mil	-9481
▁NIR	-9482
▁OTT	-9483
▁PAR	-9484
▁PMK	-9485
▁Pul	-9486
▁Rat	-9487
▁Rou	-9488
▁SEC	-9489
▁SRH	-9490
▁Sel	-9491
▁Sex	-9492
▁Squ	-9493
▁Sub	-9494
▁TER	-9495
▁Tab	-9496
▁Tea	-9497
▁UPI	-9498
▁Und	-9499
▁Vik	-9500
▁War	-9501
▁Why	-9502
▁air	-9503
▁ali	-9504
▁any	-9505
▁bio	-9506
▁car	-9507
▁cau	-9508
▁clu	-9509
▁dem	-9510
▁dow	-9511
▁ens	-9512
▁est	-9513
▁fit	-9514
▁gam	-9515
▁gan	-9516
▁ges	-9517
▁goi	-9518
▁imp	-9519
▁ise	-9520
▁law	-9521
▁lea	-9522
▁lin	-9523
▁mir	-9524
▁nde	-9525
▁ner	-9526
▁pla	-9527
▁ree	-9528
▁sen	-9529
▁tho	-9530
▁thu	-9531
▁top	-9532
▁ula	-9533
▁uru	-9534
▁val	-9535
▁में	-9536
▁ஆளே	-9537
▁இட்	-9538
▁ஈகை	-9539
▁ஊமை	-9540
▁ஏபி	-9541
▁ஓரே	-9542
▁கதற	-9543
▁கைல	-9544
▁சரத	-9545
▁சலே	-9546
▁சாண	-9547
▁சோம	-9548
▁டாட	-9549
▁தகர	-9550
▁தடய	-9551
▁ததை	-9552
▁தூப	-9553
▁தொண	-9554
▁னிஸ	-9555
▁பரத	-9556
▁மடி	-9557
▁மமக	-9558
▁ரகன	-9559
▁ரசன	-9560
▁ரதம	-9561
▁ரிக	-9562
▁றேன	-9563
▁ாணு	-9564
▁ியவ	-9565
▁ுகே	-9566
▁ுவக	-9567
▁்கக	-9568
▁்தக	-9569
▁Asse	-9570
▁Auth	-9571
▁Aval	-9572
▁BOOK	-9573
▁Best	-9574
▁Bill	-9575
▁Call	-9576
▁Cred	-9577
▁DRDO	-9578
▁Data	-9579
▁Demo	-9580
▁From	-9581
▁Guru	-9582
▁ICTA	-9583
▁Inve	-9584
▁Kera	-9585
▁King	-9586
▁Late	-9587
▁Link	-9588
▁MBBS	-9589
▁Mega	-9590
▁Mill	-9591
▁Pers	-9592
▁Rela	-9593
▁Repu	-9594
▁Russ	-9595
▁Sant	-9596
▁Seri	-9597
▁Shah	-9598
▁Viru	-9599
▁Waya	-9600
▁Will	-9601
▁edap	-9602
▁ende	-9603
▁fake	-9604
▁fice	-9605
▁give	-9606
▁hand	-9607
▁hist	-9608
▁ific	-9609
▁ital	-9610
▁late	-9611
▁like	-9612
▁love	-9613
▁mRNA	-9614
▁mode	-9615
▁ncil	-9616
▁rama	-9617
▁resi	-9618
▁resu	-9619
▁said	-9620
▁soon	-9621
▁stro	-9622
▁team	-9623
▁thro	-9624
▁tiru	-9625
▁vest	-9626
▁view	-9627
▁ward	-9628
▁ware	-9629
▁குச்	-9630
▁க்கழ	-9631
▁திகர	-9632
▁நடிக	-9633
▁னைவு	-9634
▁ப்பற	-9635
▁மிழி	-9636
▁மேலு	-9637
▁லலித	-9638
▁ளூர்	-9639
▁வேற்	-9640
▁ாடுக	-9641
▁ாரங்	-9642
▁ிடும	-9643
▁ிதமா	-9644
▁ியலி	-9645
▁ிரபல	-9646
▁ுகில	-9647
▁்காக	-9648
▁்குச	-9649
▁்படா	-9650
▁்பிட	-9651
▁Aadha	-9652
▁Alert	-9653
▁Chand	-9654
▁Chess	-9655
▁Child	-9656
▁China	-9657
▁Const	-9658
▁Force	-9659
▁Great	-9660
▁House	-9661
▁Indep	-9662
▁Media	-9663
▁Press	-9664
▁Train	-9665
▁Virat	-9666
▁break	-9667
▁crore	-9668
▁laint	-9669
▁neers	-9670
▁press	-9671
▁richi	-9672
▁காலத்	-9673
▁கியது	-9674
▁சியில	-9675
▁ந்தபோ	-9676
▁படுவத	-9677
▁மற்று	-9678
▁ம்தான	-9679
▁யாட்ட	-9680
▁றிவிட	-9681
▁றையும	-9682
▁விநாய	-9683
▁வெற்ற	-9684
▁ிகழ்ச	-9685
▁ுட்கள	-9686
▁்குறி	-9687
10	-9688
19	-9689
95	-9690
BD	-9691
CK	-9692
DE	-9693
EI	-9694
II	-9695
OD	-9696
PY	-9697
RB	-9698
TS	-9699
TV	-9700
TY	-9701
YC	-9702
my	-9703
os	-9704
pu	-9705
rt	-9706
sy	-9707
▁ए	-9708
▁ध	-9709
▁ु	-9710
ARS	-9711
CCI	-9712
FHS	-9713
HAI	-9714
MAR	-9715
PEC	-9716
ada	-9717
adi	-9718
amo	-9719
ber	-9720
elc	-9721
gha	-9722
hli	-9723
ign	-9724
ita	-9725
mit	-9726
ots	-9727
urd	-9728
றுக	-9729
▁"7	-9730
▁9%	-9731
▁9)	-9732
▁BG	-9733
▁BH	-9734
▁BM	-9735
▁By	-9736
▁DU	-9737
▁FA	-9738
▁JA	-9739
▁KO	-9740
▁Ke	-9741
▁LI	-9742
▁NI	-9743
▁OC	-9744
▁PL	-9745
▁PN	-9746
▁SK	-9747
▁TA	-9748
▁TE	-9749
▁TO	-9750
▁TR	-9751
▁UK	-9752
▁VA	-9753
▁Va	-9754
▁ag	-9755
▁bn	-9756
▁fy	-9757
▁ho	-9758
▁io	-9759
▁ir	-9760
▁op	-9761
▁tm	-9762
▁ts	-9763
▁की	-9764
▁அஹ	-9765
▁ஆஷ	-9766
▁இம	-9767
▁ஏஜ	-9768
▁நள	-9769
▁மஜ	-9770
aste	-9771
illa	-9772
olly	-9773
over	-9774
rant	-9775
very	-9776
▁(7)	-9777
▁12.	-9778
▁14.	-9779
▁14:	-9780
▁188	-9781
▁191	-9782
▁195	-9783
▁2',	-9784
▁216	-9785
▁218	-9786
▁222	-9787
▁223	-9788
▁23)	-9789
▁231	-9790
▁236	-9791
▁24)	-9792
▁258	-9793
▁268	-9794
▁277	-9795
▁282	-9796
▁285	-9797
▁303	-9798
▁311	-9799
▁317	-9800
▁336	-9801
▁354	-9802
▁357	-9803
▁368	-9804
▁39,	-9805
▁4-1	-9806
▁4.8	-9807
▁410	-9808
▁440	-9809
▁460	-9810
▁47%	-9811
▁470	-9812
▁48,	-9813
▁5-6	-9814
▁504	-9815
▁510	-9816
▁530	-9817
▁540	-9818
▁660	-9819
▁7.4	-9820
▁7.8	-9821
▁790	-9822
▁80,	-9823
▁9.4	-9824
▁9.5	-9825
▁93%	-9826
▁96%	-9827
▁98%	-9828
▁Age	-9829
▁Ale	-9830
▁Ali	-9831
▁Ara	-9832
▁Ast	-9833
▁BHA	-9834
▁Bab	-9835
▁Bai	-9836
▁Ban	-9837
▁CDC	-9838
▁Cha	-9839
▁Deg	-9840
▁Den	-9841
▁Dip	-9842
▁Dou	-9843
▁Dut	-9844
▁Enc	-9845
▁Eve	-9846
▁FBI	-9847
▁Fra	-9848
▁Gas	-9849
▁Goo	-9850
▁Gun	-9851
▁Hyd	-9852
▁IPS	-9853
▁Ini	-9854
▁LAN	-9855
▁Min	-9856
▁PIB	-9857
▁Qua	-9858
▁RAM	-9859
▁Raj	-9860
▁SIP	-9861
▁SMS	-9862
▁Sam	-9863
▁Sau	-9864
▁She	-9865
▁TVK	-9866
▁Tom	-9867
▁UGC	-9868
▁UNI	-9869
▁USA	-9870
▁Vet	-9871
▁Voi	-9872
▁aft	-9873
▁ail	-9874
▁bhp	-9875
▁boy	-9876
▁bro	-9877
▁cer	-9878
▁def	-9879
▁dha	-9880
▁duc	-9881
▁ees	-9882
▁eld	-9883
▁els	-9884
▁ems	-9885
▁era	-9886
▁fer	-9887
▁fli	-9888
▁goo	-9889
▁how	-9890
▁ind	-9891
▁ini	-9892
▁ira	-9893
▁kri	-9894
▁lem	-9895
▁lit	-9896
▁llo	-9897
▁lti	-9898
▁mai	-9899
▁mal	-9900
▁mer	-9901
▁mon	-9902
▁mov	-9903
▁ndi	-9904
▁niv	-9905
▁nte	-9906
▁pan	-9907
▁pdf	-9908
▁pol	-9909
▁pow	-9910
▁pti	-9911
▁sco	-9912
▁set	-9913
▁sex	-9914
▁sia	-9915
▁stm	-9916
▁tar	-9917
▁ton	-9918
▁tru	-9919
▁tur	-9920
▁ugh	-9921
▁wer	-9922
▁whe	-9923
▁win	-9924
▁அதல	-9925
▁அதள	-9926
▁ஆவன	-9927
▁உஸ்	-9928
▁ஏறு	-9929
▁ஐபி	-9930
▁ஓதி	-9931
▁ஜீவ	-9932
▁நேய	-9933
▁பசை	-9934
▁பணய	-9935
▁ரகட	-9936
▁ரகல	-9937
▁ரமு	-9938
▁லவு	-9939
▁வளவ	-9940
▁வைத	-9941
▁ஹலோ	-9942
▁ிஷய	-9943
▁ீரெ	-9944
▁்கல	-9945
▁்ந்	-9946
▁Agni	-9947
▁Agri	-9948
▁Beng	-9949
▁Blue	-9950
▁Brea	-9951
▁Corp	-9952
▁East	-9953
▁Envi	-9954
▁Exec	-9955
▁Exit	-9956
▁Gett	-9957
▁Hist	-9958
▁Husb	-9959
▁Karu	-9960
▁MODI	-9961
▁Mali	-9962
▁Mand	-9963
▁Mark	-9964
▁Mass	-9965
▁Miss	-9966
▁NFHS	-9967
▁NHAI	-9968
▁Once	-9969
▁PCOS	-9970
▁PMLA	-9971
▁Paki	-9972
▁Pass	-9973
▁Penn	-9974
▁Plan	-9975
▁Plus	-9976
▁Sams	-9977
▁Savi	-9978
▁Scam	-9979
▁Sept	-9980
▁Vija	-9981
▁Year	-9982
▁anti	-9983
▁bill	-9984
▁chan	-9985
▁cide	-9986
▁come	-9987
▁died	-9988
▁ease	-9989
▁erfe	-9990
▁face	-9991
▁file	-9992
▁free	-9993
▁grap	-9994
▁husb	-9995
▁kart	-9996
▁lica	-9997
▁loma	-9998
▁name	-9999
▁nced	-10000
▁near	-10001
▁peri	-10002
▁pers	-10003
▁rasu	-10004
▁reas	-10005
▁rule	-10006
▁seni	-10007
▁seri	-10008
▁soft	-10009
▁syst	-10010
▁tech	-10011
▁tici	-10012
▁tric	-10013
▁அதாவ	-10014
▁தர்க	-10015
▁னுபவ	-10016
▁போரா	-10017
▁மருந	-10018
▁யாது	-10019
▁றச்ச	-10020
▁ற்றொ	-10021
▁ளர்க	-10022
▁ளிநா	-10023
▁ளிப்	-10024
▁ழியா	-10025
▁ாள்க	-10026
▁ில்க	-10027
▁ுவில	-10028
▁ுஷ்ண	-10029
▁ையம்	-10030
▁்சும	-10031
▁்ளப்	-10032
▁Aavin	-10033
▁Bihar	-10034
▁Board	-10035
▁Champ	-10036
▁Clima	-10037
▁Dhanu	-10038
▁Diary	-10039
▁Grand	-10040
▁KUMAR	-10041
▁Kalla	-10042
▁Kohli	-10043
▁Kolka	-10044
▁Mahra	-10045
▁March	-10046
▁Model	-10047
▁Priva	-10048
▁Right	-10049
▁Start	-10050
▁Think	-10051
▁Tradi	-10052
▁condu	-10053
▁hours	-10054
▁place	-10055
▁priva	-10056
▁relea	-10057
▁reque	-10058
▁shock	-10059
▁state	-10060
▁super	-10061
▁train	-10062
▁tweet	-10063
▁watch	-10064
▁குறைக	-10065
▁ஞர்கள	-10066
▁டுவது	-10067
▁திகளை	-10068
▁திர்க	-10069
▁படிப்	-10070
▁பெறுக	-10071
▁ப்பற்	-10072
▁ய்திய	-10073
▁ர்செல	-10074
▁ளக்கு	-10075
▁ியாமல	-10076
▁ுதலில	-10077
▁ுற்றவ	-10078
▁ெய்தத	-10079
▁்சில்	-10080
▁்னிட்	-10081
50	-10082
68	-10083
BM	-10084
CI	-10085
CN	-10086
CU	-10087
EP	-10088
FR	-10089
GH	-10090
GT	-10091
IG	-10092
IL	-10093
LD	-10094
LS	-10095
My	-10096
PE	-10097
TR	-10098
cc	-10099
cy	-10100
dd	-10101
dy	-10102
ex	-10103
fo	-10104
iv	-10105
kh	-10106
ny	-10107
ze	-10108
டா	-10109
தீ	-10110
ஸி	-10111
ஹே	-10112
▁\	-10113
▁§	-10114
▁अ	-10115
▁ख	-10116
▁च	-10117
▁‍	-10118
▁😂	-10119
AMI	-10120
AST	-10121
DIA	-10122
aim	-10123
alm	-10124
aru	-10125
cea	-10126
hit	-10127
lam	-10128
olu	-10129
ori	-10130
oud	-10131
ous	-10132
ril	-10133
ull	-10134
ult	-10135
unc	-10136
ung	-10137
zha	-10138
▁1"	-10139
▁3:	-10140
▁7:	-10141
▁8-	-10142
▁9:	-10143
▁AK	-10144
▁AL	-10145
▁Af	-10146
▁Ai	-10147
▁BC	-10148
▁BE	-10149
▁BF	-10150
▁BN	-10151
▁CU	-10152
▁Dy	-10153
▁EB	-10154
▁EF	-10155
▁EN	-10156
▁Ed	-10157
▁El	-10158
▁Fe	-10159
▁Fl	-10160
▁GR	-10161
▁Ga	-10162
▁Gy	-10163
▁HM	-10164
▁IR	-10165
▁IU	-10166
▁Il	-10167
▁JO	-10168
▁KA	-10169
▁KN	-10170
▁MD	-10171
▁NL	-10172
▁Ou	-10173
▁PU	-10174
▁RT	-10175
▁Rs	-10176
▁TM	-10177
▁Uk	-10178
▁Us	-10179
▁Za	-10180
▁Zo	-10181
▁cm	-10182
▁eb	-10183
▁ei	-10184
▁iv	-10185
▁ji	-10186
▁km	-10187
▁mn	-10188
▁ov	-10189
▁pi	-10190
▁rk	-10191
▁ua	-10192
▁un	-10193
▁yi	-10194
▁உஷ	-10195
▁ஏப	-10196
▁ஜவ	-10197
▁டண	-10198
▁பஹ	-10199
▁மவ	-10200
▁ளஷ	-10201
▁ஸன	-10202
▁ஸோ	-10203
adio	-10204
arge	-10205
arth	-10206
leep	-10207
omes	-10208
ound	-10209
ream	-10210
scar	-10211
▁(10	-10212
▁(11	-10213
▁(13	-10214
▁-19	-10215
▁1-2	-10216
▁10.	-10217
▁11.	-10218
▁15'	-10219
▁16%	-10220
▁17%	-10221
▁18.	-10222
▁19%	-10223
▁194	-10224
▁204	-10225
▁20:	-10226
▁22%	-10227
▁24%	-10228
▁241	-10229
▁246	-10230
▁247	-10231
▁259	-10232
▁264	-10233
▁27.	-10234
▁271	-10235
▁274	-10236
▁286	-10237
▁290	-10238
▁291	-10239
▁293	-10240
▁3.0	-10241
▁3.4	-10242
▁3.6	-10243
▁3.9	-10244
▁308	-10245
▁314	-10246
▁328	-10247
▁330	-10248
▁332	-10249
▁338	-10250
▁356	-10251
▁359	-10252
▁366	-10253
▁367	-10254
▁373	-10255
▁375	-10256
▁390	-10257
▁395	-10258
▁4-5	-10259
▁40,	-10260
▁417	-10261
▁430	-10262
▁435	-10263
▁444	-10264
▁445	-10265
▁45%	-10266
▁47,	-10267
▁496	-10268
▁5.1	-10269
▁5.4	-10270
▁5.9	-10271
▁505	-10272
▁508	-10273
▁52%	-10274
▁524	-10275
▁525	-10276
▁53%	-10277
▁570	-10278
▁577	-10279
▁6.1	-10280
▁6.3	-10281
▁6.6	-10282
▁616	-10283
▁625	-10284
▁627	-10285
▁69%	-10286
▁7.2	-10287
▁73%	-10288
▁737	-10289
▁76%	-10290
▁AGE	-10291
▁API	-10292
▁Aad	-10293
▁Acc	-10294
▁Adi	-10295
▁Aka	-10296
▁Ang	-10297
▁Ash	-10298
▁Bad	-10299
▁Bin	-10300
▁Bon	-10301
▁CAM	-10302
▁CON	-10303
▁Cau	-10304
▁Cem	-10305
▁DAV	-10306
▁DSD	-10307
▁Dal	-10308
▁Dmk	-10309
▁EMI	-10310
▁EPF	-10311
▁ESA	-10312
▁FAC	-10313
▁Fed	-10314
▁Fly	-10315
▁Fri	-10316
▁GER	-10317
▁GET	-10318
▁GST	-10319
▁Get	-10320
▁Gra	-10321
▁HCL	-10322
▁Har	-10323
▁IVF	-10324
▁Jai	-10325
▁KYC	-10326
▁Kid	-10327
▁LPL	-10328
▁Leo	-10329
▁Lok	-10330
▁Mat	-10331
▁Men	-10332
▁Mod	-10333
▁NAR	-10334
▁NFT	-10335
▁NSE	-10336
▁Oct	-10337
▁Ola	-10338
▁PAN	-10339
▁PAY	-10340
▁PDF	-10341
▁PDP	-10342
▁PPF	-10343
▁PRO	-10344
▁PSG	-10345
▁Peo	-10346
▁Phy	-10347
▁Pon	-10348
▁Pvt	-10349
▁RES	-10350
▁Rob	-10351
▁Roy	-10352
▁SRI	-10353
▁SSC	-10354
▁STA	-10355
▁Sar	-10356
▁Sir	-10357
▁Son	-10358
▁Sor	-10359
▁TDS	-10360
▁TEA	-10361
▁TTD	-10362
▁TTV	-10363
▁Thu	-10364
▁Vis	-10365
▁WFP	-10366
▁Whe	-10367
▁``3	-10368
▁ama	-10369
▁ami	-10370
▁ans	-10371
▁ast	-10372
▁big	-10373
▁ced	-10374
▁cop	-10375
▁det	-10376
▁dhu	-10377
▁doc	-10378
▁doe	-10379
▁ene	-10380
▁eri	-10381
▁ext	-10382
▁fil	-10383
▁glo	-10384
▁got	-10385
▁him	-10386
▁hot	-10387
▁iad	-10388
▁ice	-10389
▁ign	-10390
▁ism	-10391
▁ivi	-10392
▁jan	-10393
▁job	-10394
▁lab	-10395
▁lam	-10396
▁lan	-10397
▁las	-10398
▁lia	-10399
▁lor	-10400
▁mad	-10401
▁mis	-10402
▁mou	-10403
▁nar	-10404
▁olu	-10405
▁ome	-10406
▁ond	-10407
▁ong	-10408
▁ore	-10409
▁osi	-10410
▁ott	-10411
▁par	-10412
▁pay	-10413
▁pha	-10414
▁phe	-10415
▁rac	-10416
▁rce	-10417
▁rge	-10418
▁rma	-10419
▁rva	-10420
▁rya	-10421
▁sau	-10422
▁see	-10423
▁ses	-10424
▁sty	-10425
▁tom	-10426
▁tue	-10427
▁voi	-10428
▁whi	-10429
▁zen	-10430
▁அசர	-10431
▁ஆசன	-10432
▁ஆணா	-10433
▁ஆந்	-10434
▁ஆரி	-10435
▁ஆரே	-10436
▁ஆறே	-10437
▁ஆவி	-10438
▁உபய	-10439
▁எனி	-10440
▁ஒம்	-10441
▁ககள	-10442
▁கபட	-10443
▁கமல	-10444
▁கரஜ	-10445
▁கோக	-10446
▁சதை	-10447
▁ஜமா	-10448
▁ஜெப	-10449
▁டுள	-10450
▁மற்	-10451
▁மீட	-10452
▁யலி	-10453
▁ரபர	-10454
▁ரைன	-10455
▁றிந	-10456
▁றைக	-10457
▁ழைக	-10458
▁வடு	-10459
▁வட்	-10460
▁வளை	-10461
▁ஸார	-10462
▁ுகொ	-10463
▁Admi	-10464
▁Arju	-10465
▁Augu	-10466
▁Auto	-10467
▁BCCI	-10468
▁Body	-10469
▁Capi	-10470
▁Char	-10471
▁City	-10472
▁Comm	-10473
▁Cook	-10474
▁Defe	-10475
▁Econ	-10476
▁Edap	-10477
▁Elem	-10478
▁FAST	-10479
▁FIDE	-10480
▁Find	-10481
▁Flip	-10482
▁Hero	-10483
▁Hosp	-10484
▁ICMR	-10485
▁Inno	-10486
▁Kama	-10487
▁Lord	-10488
▁Love	-10489
▁MANI	-10490
▁Main	-10491
▁Make	-10492
▁Moni	-10493
▁Ocea	-10494
▁Para	-10495
▁Path	-10496
▁Posi	-10497
▁Prop	-10498
▁Pulm	-10499
▁Rash	-10500
▁Resp	-10501
▁Rest	-10502
▁SECI	-10503
▁Seni	-10504
▁Spot	-10505
▁Synd	-10506
▁This	-10507
▁Tita	-10508
▁Tube	-10509
▁UNDP	-10510
▁Visu	-10511
▁West	-10512
▁Wife	-10513
▁Word	-10514
▁Zero	-10515
▁Zoma	-10516
▁bile	-10517
▁char	-10518
▁cond	-10519
▁conv	-10520
▁days	-10521
▁dies	-10522
▁erry	-10523
▁flix	-10524
▁half	-10525
▁head	-10526
▁hike	-10527
▁ival	-10528
▁laji	-10529
▁last	-10530
▁load	-10531
▁loym	-10532
▁mbai	-10533
▁more	-10534
▁nara	-10535
▁ning	-10536
▁oint	-10537
▁orta	-10538
▁pass	-10539
▁play	-10540
▁rchi	-10541
▁regi	-10542
▁ribu	-10543
▁sque	-10544
▁stre	-10545
▁suic	-10546
▁take	-10547
▁vari	-10548
▁vidi	-10549
▁warn	-10550
▁wash	-10551
▁wind	-10552
▁zone	-10553
▁கவான	-10554
▁க்தர	-10555
▁ணீர்	-10556
▁திமு	-10557
▁துகா	-10558
▁துத்	-10559
▁பிறப	-10560
▁மெரி	-10561
▁யாவை	-10562
▁ருடன	-10563
▁றுகை	-10564
▁ற்றோ	-10565
▁ளுநர	-10566
▁வல்க	-10567
▁விமர	-10568
▁விர்	-10569
▁வுண்	-10570
▁ாளம்	-10571
▁ீபத்	-10572
▁ெடுப	-10573
▁ெலவு	-10574
▁ேலிய	-10575
▁்குழ	-10576
▁்டரி	-10577
▁்திவ	-10578
▁Count	-10579
▁Event	-10580
▁Hijab	-10581
▁Homes	-10582
▁Index	-10583
▁Jhark	-10584
▁Krish	-10585
▁Large	-10586
▁Major	-10587
▁Micro	-10588
▁Oscar	-10589
▁Ranji	-10590
▁Supre	-10591
▁Trail	-10592
▁Ukrai	-10593
▁blood	-10594
▁death	-10595
▁heart	-10596
▁light	-10597
▁raise	-10598
▁right	-10599
▁servi	-10600
▁ships	-10601
▁அரசின	-10602
▁காலமா	-10603
▁கூடுத	-10604
▁க்கைய	-10605
▁சையில	-10606
▁ச்சாட	-10607
▁ண்டிர	-10608
▁னுடைய	-10609
▁னையும	-10610
▁ன்கிற	-10611
▁ன்னிட	-10612
▁படிக்	-10613
▁பப்பட	-10614
▁ப்பைய	-10615
▁யவில்	-10616
▁ரசுக்	-10617
▁ரிசனம	-10618
▁ரியில	-10619
▁றத்தை	-10620
▁றினார	-10621
▁ள்ளிக	-10622
▁ழுவின	-10623
▁விதமா	-10624
▁ுக்கீ	-10625
▁ெய்து	-10626
▁ைப்பி	-10627
▁ொல்லி	-10628
▁்கையை	-10629
▁்பார்	-10630
▁்றவர்	-10631
++	-10632
15	-10633
24	-10634
CA	-10635
DK	-10636
ED	-10637
FL	-10638
GP	-10639
JA	-10640
MO	-10641
OM	-10642
TO	-10643
UI	-10644
UL	-10645
VA	-10646
WF	-10647
YS	-10648
bw	-10649
jo	-10650
kk	-10651
kt	-10652
pa	-10653
to	-10654
ud	-10655
என	-10656
சு	-10657
மீ	-10658
யோ	-10659
ெற	-10660
▁·	-10661
▁इ	-10662
▁ण	-10663
▁ष	-10664
▁જ	-10665
▁௧	-10666
▁௫	-10667
▁★	-10668
ART	-10669
ATI	-10670
CSO	-10671
FPA	-10672
aba	-10673
alk	-10674
amy	-10675
cli	-10676
den	-10677
elp	-10678
end	-10679
ern	-10680
eth	-10681
get	-10682
gle	-10683
idd	-10684
ili	-10685
ilk	-10686
kna	-10687
oca	-10688
odo	-10689
oke	-10690
ppu	-10691
rup	-10692
ssi	-10693
tle	-10694
urg	-10695
url	-10696
ury	-10697
ush	-10698
usk	-10699
ிர்	-10700
▁'1	-10701
▁-5	-10702
▁5'	-10703
▁??	-10704
▁AG	-10705
▁Ay	-10706
▁BL	-10707
▁BU	-10708
▁CB	-10709
▁CL	-10710
▁DV	-10711
▁EM	-10712
▁EP	-10713
▁ET	-10714
▁FC	-10715
▁FO	-10716
▁GB	-10717
▁GH	-10718
▁GN	-10719
▁Gl	-10720
▁IF	-10721
▁IH	-10722
▁Ig	-10723
▁JN	-10724
▁Ji	-10725
▁Ki	-10726
▁LL	-10727
▁LT	-10728
▁Ly	-10729
▁MN	-10730
▁NR	-10731
▁Py	-10732
▁RN	-10733
▁SB	-10734
▁TI	-10735
▁TS	-10736
▁Tr	-10737
▁Ty	-10738
▁UI	-10739
▁YO	-10740
▁`2	-10741
▁`3	-10742
▁ae	-10743
▁af	-10744
▁ay	-10745
▁ky	-10746
▁mg	-10747
▁mm	-10748
▁mp	-10749
▁ms	-10750
▁ob	-10751
▁oy	-10752
▁ph	-10753
▁rd	-10754
▁uk	-10755
▁wi	-10756
▁wn	-10757
▁yo	-10758
▁का	-10759
▁ने	-10760
▁पर	-10761
▁ஊக	-10762
▁ஓண	-10763
▁தஸ	-10764
▁பற	-10765
▁றக	-10766
▁றற	-10767
▁லல	-10768
▁ளச	-10769
▁வவ	-10770
▁ஸஸ	-10771
apan	-10772
essa	-10773
olio	-10774
ouch	-10775
rich	-10776
ross	-10777
▁"24	-10778
▁"30	-10779
▁(0)	-10780
▁+1,	-10781
▁0-1	-10782
▁044	-10783
▁1.9	-10784
▁16.	-10785
▁184	-10786
▁2-2	-10787
▁21.	-10788
▁211	-10789
▁23%	-10790
▁233	-10791
▁237	-10792
▁239	-10793
▁266	-10794
▁269	-10795
▁272	-10796
▁304	-10797
▁306	-10798
▁30:	-10799
▁316	-10800
▁325	-10801
▁334	-10802
▁341	-10803
▁352	-10804
▁353	-10805
▁36.	-10806
▁364	-10807
▁371	-10808
▁372	-10809
▁377	-10810
▁378	-10811
▁38%	-10812
▁381	-10813
▁384	-10814
▁388	-10815
▁39%	-10816
▁393	-10817
▁394	-10818
▁397	-10819
▁40)	-10820
▁402	-10821
▁42,	-10822
▁427	-10823
▁45,	-10824
▁471	-10825
▁478	-10826
▁49%	-10827
▁494	-10828
▁498	-10829
▁499	-10830
▁5-0	-10831
▁503	-10832
▁512	-10833
▁514	-10834
▁516	-10835
▁526	-10836
▁534	-10837
▁551	-10838
▁552	-10839
▁565	-10840
▁576	-10841
▁6.7	-10842
▁614	-10843
▁62%	-10844
▁622	-10845
▁630	-10846
▁635	-10847
▁652	-10848
▁676	-10849
▁680	-10850
▁685	-10851
▁697	-10852
▁7.9	-10853
▁70,	-10854
▁702	-10855
▁712	-10856
▁731	-10857
▁754	-10858
▁770	-10859
▁8.2	-10860
▁8.8	-10861
▁820	-10862
▁9.6	-10863
▁916	-10864
▁974	-10865
▁AAP	-10866
▁ABC	-10867
▁AFR	-10868
▁AII	-10869
▁AND	-10870
▁ASI	-10871
▁Aca	-10872
▁Alo	-10873
▁Alt	-10874
▁Ani	-10875
▁BLA	-10876
▁BMW	-10877
▁BSE	-10878
▁Bas	-10879
▁Bir	-10880
▁Blo	-10881
▁Bre	-10882
▁Bru	-10883
▁CAA	-10884
▁CAG	-10885
▁CAR	-10886
▁CBC	-10887
▁CIT	-10888
▁CNN	-10889
▁CPI	-10890
▁CPM	-10891
▁CSR	-10892
▁Cal	-10893
▁Cir	-10894
▁Clu	-10895
▁CrB	-10896
▁Cry	-10897
▁DAL	-10898
▁DAN	-10899
▁DAY	-10900
▁DES	-10901
▁DIN	-10902
▁Dir	-10903
▁Don	-10904
▁Dow	-10905
▁Dri	-10906
▁ECR	-10907
▁EEE	-10908
▁Eng	-10909
▁Eye	-10910
▁FAA	-10911
▁FMC	-10912
▁FPO	-10913
▁FRB	-10914
▁Fat	-10915
▁Fla	-10916
▁Fro	-10917
▁GAN	-10918
▁GDP	-10919
▁GRT	-10920
▁Gar	-10921
▁Gly	-10922
▁God	-10923
▁HIV	-10924
▁Hub	-10925
▁Hyp	-10926
▁IMA	-10927
▁ISS	-10928
▁Ide	-10929
▁Ins	-10930
▁JDS	-10931
▁JEE	-10932
▁Jam	-10933
▁Jew	-10934
▁KAN	-10935
▁KDU	-10936
▁KPY	-10937
▁Kim	-10938
▁Kis	-10939
▁Kon	-10940
▁Lal	-10941
▁Lee	-10942
▁Lit	-10943
▁MQM	-10944
▁MSP	-10945
▁Max	-10946
▁Met	-10947
▁Moi	-10948
▁NAC	-10949
▁NAL	-10950
▁NAM	-10951
▁NCC	-10952
▁NET	-10953
▁NEW	-10954
▁NGO	-10955
▁NIT	-10956
▁NPL	-10957
▁NSO	-10958
▁Nam	-10959
▁PAT	-10960
▁PLO	-10961
▁PML	-10962
▁PTI	-10963
▁PTO	-10964
▁Que	-10965
▁RAN	-10966
▁RBI	-10967
▁REU	-10968
▁RIP	-10969
▁RWA	-10970
▁Run	-10971
▁SAI	-10972
▁SHA	-10973
▁SUR	-10974
▁Sai	-10975
▁Sal	-10976
▁San	-10977
▁Sen	-10978
▁Spi	-10979
▁THA	-10980
▁Tax	-10981
▁Top	-10982
▁Tre	-10983
▁Tun	-10984
▁USS	-10985
▁Use	-10986
▁Utt	-10987
▁VCK	-10988
▁VEL	-10989
▁Vai	-10990
▁Van	-10991
▁Var	-10992
▁Ved	-10993
▁WAR	-10994
▁WAS	-10995
▁Was	-10996
▁Xia	-10997
▁`10	-10998
▁acc	-10999
▁ach	-11000
▁aff	-11001
▁aji	-11002
▁alt	-11003
▁ase	-11004
▁ava	-11005
▁ban	-11006
▁bec	-11007
▁bri	-11008
▁but	-11009
▁cru	-11010
▁dau	-11011
▁dro	-11012
▁due	-11013
▁eco	-11014
▁ele	-11015
▁erc	-11016
▁ern	-11017
▁eye	-11018
▁fly	-11019
▁ful	-11020
▁gai	-11021
▁ger	-11022
▁gna	-11023
▁gni	-11024
▁gue	-11025
▁had	-11026
▁het	-11027
▁hom	-11028
▁hro	-11029
▁hyd	-11030
▁ile	-11031
▁ili	-11032
▁ill	-11033
▁ire	-11034
▁its	-11035
▁iva	-11036
▁kku	-11037
▁lau	-11038
▁lbw	-11039
▁lex	-11040
▁lse	-11041
▁lta	-11042
▁lts	-11043
▁ltu	-11044
▁mak	-11045
▁men	-11046
▁nam	-11047
▁nie	-11048
▁nka	-11049
▁num	-11050
▁ola	-11051
▁ols	-11052
▁oor	-11053
▁opp	-11054
▁oth	-11055
▁ova	-11056
▁pal	-11057
▁pat	-11058
▁pia	-11059
▁pod	-11060
▁ppu	-11061
▁qui	-11062
▁raa	-11063
▁rap	-11064
▁rea	-11065
▁rew	-11066
▁rks	-11067
▁rot	-11068
▁rse	-11069
▁rti	-11070
▁sac	-11071
▁sem	-11072
▁sic	-11073
▁sin	-11074
▁ste	-11075
▁sup	-11076
▁sur	-11077
▁tag	-11078
▁tia	-11079
▁tin	-11080
▁two	-11081
▁tya	-11082
▁und	-11083
▁vai	-11084
▁vis	-11085
▁wal	-11086
▁yal	-11087
▁yev	-11088
▁அசை	-11089
▁அடா	-11090
▁அரக	-11091
▁ஆதன	-11092
▁ஆயா	-11093
▁ஆஷு	-11094
▁இனை	-11095
▁ஈவா	-11096
▁ஈவு	-11097
▁உதை	-11098
▁உபா	-11099
▁உம்	-11100
▁ஊதி	-11101
▁எமி	-11102
▁ஏசு	-11103
▁ஐம்	-11104
▁ஐயோ	-11105
▁ஓரு	-11106
▁கஜா	-11107
▁கடா	-11108
▁கவ்	-11109
▁கேச	-11110
▁சரஸ	-11111
▁சவ்	-11112
▁சஹா	-11113
▁சேக	-11114
▁டரஸ	-11115
▁ணவர	-11116
▁ணிப	-11117
▁தமா	-11118
▁தரன	-11119
▁தஹி	-11120
▁நச்	-11121
▁நனோ	-11122
▁படா	-11123
▁பவத	-11124
▁பிஇ	-11125
▁மஜத	-11126
▁யமி	-11127
▁ரிந	-11128
▁ரோம	-11129
▁லுத	-11130
▁ளஷல	-11131
▁ழுந	-11132
▁வசன	-11133
▁வசை	-11134
▁ஸவர	-11135
▁ஹனி	-11136
▁ாடப	-11137
▁ிநி	-11138
▁ுகவ	-11139
▁ெளி	-11140
▁ொட்	-11141
▁்னம	-11142
▁்ளா	-11143
▁AIFF	-11144
▁AMIT	-11145
▁Alex	-11146
▁Allu	-11147
▁Amit	-11148
▁Axis	-11149
▁Bala	-11150
▁Ball	-11151
▁Basi	-11152
▁Bomb	-11153
▁Carb	-11154
▁Cell	-11155
▁Cert	-11156
▁Chef	-11157
▁Chro	-11158
▁DHFL	-11159
▁DMDK	-11160
▁Dark	-11161
▁Deal	-11162
▁Devi	-11163
▁Divi	-11164
▁Ekna	-11165
▁Elon	-11166
▁Emer	-11167
▁Equi	-11168
▁Exam	-11169
▁Expe	-11170
▁Expo	-11171
▁FACE	-11172
▁Fact	-11173
▁Farm	-11174
▁Fast	-11175
▁Fort	-11176
▁Fuel	-11177
▁Gang	-11178
▁Help	-11179
▁Hone	-11180
▁ICRA	-11181
▁IMEC	-11182
▁IMEI	-11183
▁IORA	-11184
▁IPCC	-11185
▁IUCN	-11186
▁Indu	-11187
▁JICA	-11188
▁Joma	-11189
▁Josh	-11190
▁Jour	-11191
▁KING	-11192
▁Kala	-11193
▁Kass	-11194
▁Kill	-11195
▁Know	-11196
▁Mala	-11197
▁Male	-11198
▁Meen	-11199
▁Monk	-11200
▁Mood	-11201
▁Move	-11202
▁Musk	-11203
▁NAAC	-11204
▁NASA	-11205
▁NIRF	-11206
▁Obse	-11207
▁Octo	-11208
▁Onli	-11209
▁Paci	-11210
▁Paul	-11211
▁Peko	-11212
▁Prof	-11213
▁Race	-11214
▁Rana	-11215
▁Refu	-11216
▁Resi	-11217
▁Rich	-11218
▁SARS	-11219
▁STER	-11220
▁Sach	-11221
▁Shiv	-11222
▁Shri	-11223
▁Soft	-11224
▁Stra	-11225
▁Supp	-11226
▁TERS	-11227
▁Tele	-11228
▁Temp	-11229
▁Term	-11230
▁Terr	-11231
▁That	-11232
▁Toka	-11233
▁Udha	-11234
▁Veer	-11235
▁Vish	-11236
▁Visi	-11237
▁When	-11238
▁advi	-11239
▁babu	-11240
▁bach	-11241
▁bail	-11242
▁bird	-11243
▁bots	-11244
▁cand	-11245
▁card	-11246
▁chia	-11247
▁choi	-11248
▁cine	-11249
▁code	-11250
▁cong	-11251
▁cott	-11252
▁cred	-11253
▁defe	-11254
▁deli	-11255
▁desi	-11256
▁dire	-11257
▁eyes	-11258
▁fact	-11259
▁fail	-11260
▁fest	-11261
▁ffer	-11262
▁ffic	-11263
▁fica	-11264
▁film	-11265
▁fits	-11266
▁flue	-11267
▁gang	-11268
▁gave	-11269
▁good	-11270
▁hant	-11271
▁hold	-11272
▁home	-11273
▁hong	-11274
▁lade	-11275
▁lant	-11276
▁less	-11277
▁llah	-11278
▁madu	-11279
▁mana	-11280
▁miss	-11281
▁murd	-11282
▁need	-11283
▁poll	-11284
▁prai	-11285
▁raja	-11286
▁rape	-11287
▁read	-11288
▁refu	-11289
▁rela	-11290
▁rema	-11291
▁remo	-11292
▁rica	-11293
▁sami	-11294
▁seal	-11295
▁send	-11296
▁spam	-11297
▁stic	-11298
▁stru	-11299
▁sudd	-11300
▁sure	-11301
▁than	-11302
▁tick	-11303
▁ties	-11304
▁tish	-11305
▁tivi	-11306
▁twit	-11307
▁upda	-11308
▁vice	-11309
▁vish	-11310
▁ween	-11311
▁when	-11312
▁your	-11313
▁ஆனால	-11314
▁இதைய	-11315
▁துகொ	-11316
▁நன்ற	-11317
▁னையா	-11318
▁னையி	-11319
▁னைவி	-11320
▁பித்	-11321
▁மோடி	-11322
▁யானத	-11323
▁ரவிட	-11324
▁ரேல்	-11325
▁றுமி	-11326
▁லோசன	-11327
▁ல்பட	-11328
▁ளிகள	-11329
▁ள்ளூ	-11330
▁ழகம்	-11331
▁வளவு	-11332
▁விப்	-11333
▁விற்	-11334
▁ாதத்	-11335
▁ாநகர	-11336
▁ியின	-11337
▁ியுள	-11338
▁ிருந	-11339
▁ீதான	-11340
▁ுகம்	-11341
▁ுதலம	-11342
▁ைபெற	-11343
▁்காள	-11344
▁்டமை	-11345
▁்டில	-11346
▁்துச	-11347
▁்பங்	-11348
▁்பரி	-11349
▁்பார	-11350
▁்பாவ	-11351
▁்போம	-11352
▁April	-11353
▁COVID	-11354
▁Chang	-11355
▁Commu	-11356
▁Corru	-11357
▁Crime	-11358
▁Cyber	-11359
▁Dream	-11360
▁Encla	-11361
▁Enter	-11362
▁Every	-11363
▁Freed	-11364
▁GETTY	-11365
▁Heart	-11366
▁Hydro	-11367
▁Imran	-11368
▁Inclu	-11369
▁Infor	-11370
▁Islam	-11371
▁Japan	-11372
▁Jihad	-11373
▁Kanga	-11374
▁MEDIA	-11375
▁Megha	-11376
▁Muham	-11377
▁POCSO	-11378
▁Paris	-11379
▁Parli	-11380
▁Party	-11381
▁Point	-11382
▁Prade	-11383
▁Prime	-11384
▁Prize	-11385
▁Rajya	-11386
▁Rohit	-11387
▁Sleep	-11388
▁Smile	-11389
▁Speak	-11390
▁Squad	-11391
▁Stand	-11392
▁Starl	-11393
▁Surge	-11394
▁Teeth	-11395
▁Terra	-11396
▁Touch	-11397
▁Trade	-11398
▁Trich	-11399
▁Trump	-11400
▁UNFPA	-11401
▁based	-11402
▁class	-11403
▁colle	-11404
▁covid	-11405
▁ction	-11406
▁famil	-11407
▁folio	-11408
▁group	-11409
▁house	-11410
▁ition	-11411
▁lanka	-11412
▁lover	-11413
▁micro	-11414
▁plant	-11415
▁proje	-11416
▁ption	-11417
▁ready	-11418
▁share	-11419
▁slims	-11420
▁space	-11421
▁start	-11422
▁story	-11423
▁title	-11424
▁twitt	-11425
▁women	-11426
▁அபிஷே	-11427
▁காரத்	-11428
▁குறைந	-11429
▁ந்தும	-11430
▁னார்க	-11431
▁ன்றனர	-11432
▁பகிர்	-11433
▁பிடிக	-11434
▁ப்பதற	-11435
▁ப்புக	-11436
▁ற்றத்	-11437
▁ற்றொர	-11438
▁லாற்ற	-11439
▁லைவர்	-11440
▁ளுடன்	-11441
▁ளுநர்	-11442
▁வதும்	-11443
▁ிலிரு	-11444
▁ுகளாக	-11445
▁ுதிப்	-11446
▁ொண்டத	-11447
▁ொண்டே	-11448
▁்துகள	-11449
▁்வில்	-11450
..	-11451
AI	-11452
FC	-11453
GF	-11454
GI	-11455
PV	-11456
SL	-11457
UB	-11458
UD	-11459
UV	-11460
VI	-11461
WC	-11462
ZA	-11463
hn	-11464
mm	-11465
rd	-11466
sk	-11467
இட	-11468
இத	-11469
யூ	-11470
▁ड	-11471
▁थ	-11472
▁ै	-11473
▁ौ	-11474
▁ત	-11475
▁મ	-11476
▁ી	-11477
▁ે	-11478
▁્	-11479
▁❔	-11480
ADA	-11481
ASH	-11482
ASS	-11483
ETC	-11484
GTN	-11485
ats	-11486
bha	-11487
bse	-11488
clo	-11489
elt	-11490
esa	-11491
esu	-11492
fah	-11493
him	-11494
hua	-11495
icy	-11496
ino	-11497
ise	-11498
jaj	-11499
EF	-11500
Ga	-11501
LF	-11502
NC	-11503
No	-11504
OF	-11505
QR	-11506
RD	-11507
VM	-11508
ev	-11509
gl	-11510
ib	-11511
ok	-11512
sm	-11513
tm	-11514
tu	-11515
ஜோ	-11516
வன	-11517
▁×	-11518
▁⁠	-11519
▁	-11520
ATA	-11521
CSL	-11522
att	-11523
dea	-11524
erc	-11525
jee	-11526
jou	-11527
joy	-11528
lag	-11529
lit	-11530
lli	-11531
nta	-11532
oon	-11533
ora	-11534
ppo	-11535
rie	-11536
rtu	-11537
run	-11538
sse	-11539
tra	-11540
var	-11541
vel	-11542
ven	-11543
wan	-11544
war	-11545
xed	-11546
நாட	-11547
ிறத	-11548
▁!!	-11549
▁"5	-11550
▁$1	-11551
▁'2	-11552
▁'3	-11553
▁1;	-11554
▁AP	-11555
▁Aa	-11556
▁Aj	-11557
▁Av	-11558
▁DJ	-11559
▁EE	-11560
▁ER	-11561
▁Ep	-11562
▁FD	-11563
▁GA	-11564
▁GI	-11565
▁HE	-11566
▁IQ	-11567
▁JC	-11568
▁KC	-11569
▁KH	-11570
▁LC	-11571
▁LM	-11572
▁MC	-11573
▁MM	-11574
▁MT	-11575
▁MY	-11576
▁Mc	-11577
▁NB	-11578
▁NP	-11579
▁NU	-11580
▁OR	-11581
▁Oc	-11582
▁Om	-11583
▁Ox	-11584
▁Oz	-11585
▁PG	-11586
▁PK	-11587
▁RI	-11588
▁RJ	-11589
▁RW	-11590
▁SG	-11591
▁TB	-11592
▁Tn	-11593
▁Tw	-11594
▁UM	-11595
▁VI	-11596
▁VO	-11597
▁Vu	-11598
▁WA	-11599
La	-11600
PU	-11601
பே	-11602
▁आ	-11603
▁	-11604
itm	-11605
thy	-11606
▁"6	-11607
▁0%	-11608
▁1'	-11609
▁Et	-11610
▁GW	-11611
▁Hz	-11612
▁Mp	-11613
▁WC	-11614
▁WI	-11615
▁XE	-11616
▁XY	-11617
▁YU	-11618
▁`6	-11619
▁aa	-11620
▁br	-11621
▁dh	-11622
▁dr	-11623
▁eo	-11624
▁ft	-11625
▁gh	-11626
▁ip	-11627
▁kk	-11628
▁ks	-11629
▁oc	-11630
▁oi	-11631
▁pH	-11632
▁py	-11633
▁sk	-11634
▁sr	-11635
▁ui	-11636
▁uo	-11637
▁vu	-11638
▁zo	-11639
▁से	-11640
▁அஸ	-11641
▁உச	-11642
▁உழ	-11643
▁ஏஏ	-11644
▁சள	-11645
▁யஜ	-11646
▁யய	-11647
▁ளல	-11648
▁ஹு	-11649
▁௧௦	-11650
▁₹1	-11651
ADAV	-11652
INGH	-11653
RCTC	-11654
abha	-11655
alem	-11656
duca	-11657
igra	-11658
loor	-11659
nake	-11660
oman	-11661
orea	-11662
டியா	-11663
▁"21	-11664
▁"40	-11665
▁(25	-11666
▁(31	-11667
▁(60	-11668
▁(62	-11669
▁(88	-11670
▁-14	-11671
▁0-2	-11672
▁01,	-11673
▁03)	-11674
▁04)	-11675
▁05)	-11676
▁08,	-11677
▁1-5	-11678
▁11'	-11679
▁11:	-11680
▁13.	-11681
▁15.	-11682
▁18-	-11683
▁19.	-11684
▁2'.	-11685
▁209	-11686
▁21%	-11687
▁21-	-11688
▁217	-11689
▁24.	-11690
▁253	-11691
▁25:	-11692
▁267	-11693
▁27-	-11694
▁278	-11695
▁279	-11696
▁281	-11697
▁29%	-11698
▁3-5	-11699
api	-11700
aro	-11701
edu	-11702
erk	-11703
▁`4	-11704
▁`8	-11705
alli	-11706
aram	-11707
▁244	-11708
▁3-7	-11709
▁3.1	-11710
▁30.	-11711
▁307	-11712
▁323	-11713
▁324	-11714
▁329	-11715
▁331	-11716
▁34%	-11717
▁345	-11718
▁347	-11719
▁348	-11720
▁361	-11721
▁363	-11722
▁37.	-11723
▁379	-11724
▁38.	-11725
▁385	-11726
▁386	-11727
▁396	-11728
▁4-0	-11729
▁4-3	-11730
▁4.0	-11731
▁4.9	-11732
▁404	-11733
▁406	-11734
▁413	-11735
▁415	-11736
▁418	-11737
▁42%	-11738
▁423	-11739
▁424	-11740
▁426	-11741
▁428	-11742
▁432	-11743
▁436	-11744
▁437	-11745
▁442	-11746
▁443	-11747
▁45.	-11748
▁461	-11749
▁462	-11750
▁464	-11751
▁465	-11752
▁467	-11753
▁468	-11754
▁479	-11755
▁492	-11756
▁493	-11757
▁5.3	-11758
▁5.6	-11759
▁509	-11760
▁51,	-11761
▁511	-11762
▁52,	-11763
▁520	-11764
▁529	-11765
▁53.	-11766
▁532	-11767
▁533	-11768
▁54)	-11769
▁542	-11770
▁554	-11771
▁557	-11772
▁56%	-11773
▁59.	-11774
▁591	-11775
▁592	-11776
▁6-2	-11777
▁6.9	-11778
▁606	-11779
▁613	-11780
▁620	-11781
▁631	-11782
▁64%	-11783
▁640	-11784
▁655	-11785
▁657	-11786
▁67,	-11787
▁69.	-11788
▁690	-11789
▁698	-11790
▁7,8	-11791
▁7.7	-11792
▁70.	-11793
▁704	-11794
▁71%	-11795
▁71,	-11796
▁711	-11797
▁718	-11798
▁725	-11799
▁730	-11800
▁75,	-11801
▁752	-11802
▁760	-11803
▁78%	-11804
▁780	-11805
▁8-9	-11806
▁8.6	-11807
▁81%	-11808
▁813	-11809
▁825	-11810
▁828	-11811
▁854	-11812
▁860	-11813
▁864	-11814
▁868	-11815
▁888	-11816
▁9.8	-11817
▁91%	-11818
▁911	-11819
▁925	-11820
▁928	-11821
▁946	-11822
▁958	-11823
▁970	-11824
▁973	-11825
▁977	-11826
▁987	-11827
▁997	-11828
▁998	-11829
▁ACE	-11830
▁ADR	-11831
▁ANA	-11832
▁ATS	-11833
▁Aff	-11834
▁Aga	-11835
▁Ala	-11836
▁Ame	-11837
▁Anu	-11838
▁Apo	-11839
▁Aru	-11840
▁Asa	-11841
▁Ath	-11842
▁BAN	-11843
▁BHK	-11844
▁BHU	-11845
▁BMI	-11846
▁Bac	-11847
▁Bal	-11848
▁Bea	-11849
▁Bee	-11850
▁Bul	-11851
▁CBS	-11852
▁CEF	-11853
▁CHA	-11854
▁CHI	-11855
▁CNX	-11856
▁CPR	-11857
▁CRZ	-11858
▁CTB	-11859
▁CTE	-11860
▁Cad	-11861
▁Cey	-11862
▁CoV	-11863
▁Cra	-11864
▁Cre	-11865
▁DAI	-11866
▁DGP	-11867
▁DIP	-11868
▁DIS	-11869
▁DNC	-11870
▁DOM	-11871
▁DPR	-11872
▁Dan	-11873
▁Did	-11874
▁Dom	-11875
▁EAR	-11876
▁ECG	-11877
▁ECI	-11878
▁ENG	-11879
▁EOS	-11880
▁ESG	-11881
▁ESP	-11882
▁EST	-11883
▁EVM	-11884
▁Ear	-11885
▁Emi	-11886
▁Emo	-11887
▁Ero	-11888
▁Est	-11889
▁Ext	-11890
▁FDA	-11891
▁FIL	-11892
▁Fac	-11893
▁Far	-11894
▁Fet	-11895
▁Fil	-11896
▁Fin	-11897
▁Fog	-11898
▁Fox	-11899
▁GAR	-11900
▁GHC	-11901
▁GOV	-11902
▁GPS	-11903
▁GRI	-11904
▁Gau	-11905
▁Gho	-11906
▁Gla	-11907
▁Gon	-11908
▁HBD	-11909
▁HDL	-11910
▁HMS	-11911
▁HRA	-11912
▁Had	-11913
▁His	-11914
▁IAN	-11915
▁ICU	-11916
▁IEA	-11917
▁IFF	-11918
▁IOM	-11919
▁ISt	-11920
▁ITI	-11921
▁IVR	-11922
▁Ima	-11923
▁Ips	-11924
▁JAC	-11925
▁KAR	-11926
▁KGF	-11927
▁KVA	-11928
▁Kal	-11929
▁LEO	-11930
▁LIC	-11931
▁LVM	-11932
▁Lay	-11933
▁MBA	-11934
▁MBS	-11935
▁MEA	-11936
▁MIL	-11937
▁MIN	-11938
▁Maa	-11939
▁Mom	-11940
▁NAN	-11941
▁NCP	-11942
▁NDM	-11943
▁NDR	-11944
▁NEE	-11945
▁NOT	-11946
▁NPP	-11947
▁NVQ	-11948
▁Neu	-11949
▁Nik	-11950
▁Now	-11951
▁OIC	-11952
▁OSI	-11953
▁Oil	-11954
▁Ord	-11955
▁Oui	-11956
▁PCP	-11957
▁PCR	-11958
▁PER	-11959
▁PIC	-11960
▁PMD	-11961
▁PMO	-11962
▁PPP	-11963
▁PRA	-11964
▁Pal	-11965
▁Pol	-11966
▁Qui	-11967
▁RAW	-11968
▁REW	-11969
▁RSF	-11970
▁RTM	-11971
▁Rai	-11972
▁Ref	-11973
▁Rut	-11974
▁SCI	-11975
▁SEL	-11976
▁SFI	-11977
▁SHU	-11978
▁SIT	-11979
▁SLS	-11980
▁Sat	-11981
▁Sea	-11982
▁Sek	-11983
▁Ser	-11984
▁Set	-11985
▁Sid	-11986
▁Ste	-11987
▁Sue	-11988
▁TAR	-11989
▁TCS	-11990
▁TFR	-11991
▁TIO	-11992
▁TTS	-11993
▁Tag	-11994
▁Tan	-11995
▁Tet	-11996
▁Tig	-11997
▁Tok	-11998
▁Tow	-11999
▁Tro	-12000
▁USD	-12001
▁Vaa	-12002
▁WOR	-12003
▁WTC	-12004
▁Wid	-12005
▁XUV	-12006
▁Yeo	-12007
▁ZPM	-12008
▁`15	-12009
▁ade	-12010
▁alo	-12011
▁ame	-12012
▁arh	-12013
▁bef	-12014
▁bel	-12015
▁bha	-12016
▁bow	-12017
▁buy	-12018
▁cap	-12019
▁cem	-12020
▁chm	-12021
▁cow	-12022
▁ddi	-12023
▁deb	-12024
▁des	-12025
▁dic	-12026
▁die	-12027
▁dog	-12028
▁doi	-12029
▁dri	-12030
▁edu	-12031
▁een	-12032
▁ely	-12033
▁eng	-12034
▁erk	-12035
▁erm	-12036
▁ero	-12037
▁eve	-12038
▁fee	-12039
▁fro	-12040
▁fru	-12041
▁ged	-12042
▁gic	-12043
▁gon	-12044
▁hab	-12045
▁hat	-12046
▁hel	-12047
▁hip	-12048
▁hra	-12049
▁iOS	-12050
▁ify	-12051
▁ild	-12052
▁ils	-12053
▁ink	-12054
▁ipe	-12055
▁iri	-12056
▁itt	-12057
▁jar	-12058
▁kam	-12059
▁kin	-12060
▁lal	-12061
▁lde	-12062
▁ler	-12063
▁lty	-12064
▁nGa	-12065
▁ngu	-12066
▁nhe	-12067
▁nio	-12068
▁nit	-12069
▁noc	-12070
▁now	-12071
▁odi	-12072
▁ody	-12073
▁ofa	-12074
▁oli	-12075
▁omi	-12076
▁omy	-12077
▁oon	-12078
▁orm	-12079
▁orn	-12080
▁ors	-12081
▁pec	-12082
▁phi	-12083
▁ppa	-12084
▁psc	-12085
▁psy	-12086
▁put	-12087
▁raz	-12088
▁rds	-12089
▁ren	-12090
▁rid	-12091
▁rui	-12092
▁rve	-12093
▁sal	-12094
▁ser	-12095
▁sol	-12096
▁sou	-12097
▁squ	-12098
▁sra	-12099
▁sse	-12100
▁sti	-12101
▁sto	-12102
▁sub	-12103
▁suf	-12104
▁tax	-12105
▁tma	-12106
▁tou	-12107
▁tre	-12108
▁tto	-12109
▁ttu	-12110
▁tty	-12111
▁ulo	-12112
▁ult	-12113
▁ung	-12114
▁urn	-12115
▁ury	-12116
▁use	-12117
▁vck	-12118
▁vid	-12119
▁vir	-12120
▁vit	-12121
▁won	-12122
▁yer	-12123
▁yin	-12124
▁zha	-12125
▁zzi	-12126
▁ஆணோ	-12127
▁ஆனை	-12128
▁ஆலூ	-12129
▁ஆளி	-12130
▁ஆழி	-12131
▁இனு	-12132
▁இமய	-12133
▁ஈவ்	-12134
▁ஈஸி	-12135
▁உசி	-12136
▁உலர	-12137
▁ஊடே	-12138
▁எனை	-12139
▁எரு	-12140
▁எவா	-12141
▁ஏணி	-12142
▁ஏமி	-12143
▁ஐன்	-12144
▁ஒகே	-12145
▁ஒடி	-12146
▁ஓக்	-12147
▁கபே	-12148
▁கலி	-12149
▁களூ	-12150
▁சகஜ	-12151
▁சகா	-12152
▁சடை	-12153
▁சலோ	-12154
▁சிஏ	-12155
▁ஜனன	-12156
▁ஜல்	-12157
▁டறி	-12158
▁டாள	-12159
▁டிந	-12160
▁தகன	-12161
▁தமு	-12162
▁தளி	-12163
▁தொல	-12164
▁நரை	-12165
▁னரு	-12166
▁மகே	-12167
▁மபி	-12168
▁மழு	-12169
▁மஹவ	-12170
▁மேற	-12171
▁ரசக	-12172
▁ரவே	-12173
▁றங்	-12174
▁லகம	-12175
▁ளரா	-12176
▁ளும	-12177
▁ஹனா	-12178
▁ஹன்	-12179
▁ிடீ	-12180
▁ிமர	-12181
▁ிலத	-12182
▁ிஷே	-12183
▁ீழ்	-12184
▁Adju	-12185
▁Adve	-12186
▁Aero	-12187
▁Amen	-12188
▁Atte	-12189
▁Baat	-12190
▁Baby	-12191
▁Band	-12192
▁Bang	-12193
▁Baro	-12194
▁Base	-12195
▁Begg	-12196
▁Beli	-12197
▁Boyc	-12198
▁Boys	-12199
▁CGTN	-12200
▁CMIE	-12201
▁CPEC	-12202
▁CUET	-12203
▁Cali	-12204
▁Cast	-12205
▁Cath	-12206
▁Chhe	-12207
▁Chit	-12208
▁Citi	-12209
▁Club	-12210
▁Coim	-12211
▁Coin	-12212
▁Colo	-12213
▁Cool	-12214
▁Crim	-12215
▁Cult	-12216
▁DVET	-12217
▁Dani	-12218
▁Desi	-12219
▁Dhar	-12220
▁Dina	-12221
▁Disa	-12222
▁Disc	-12223
▁Dise	-12224
▁Elep	-12225
▁Endo	-12226
▁Enfi	-12227
▁Enja	-12228
▁Eyes	-12229
▁FAAH	-12230
▁Fair	-12231
▁Fire	-12232
▁Foll	-12233
▁Fore	-12234
▁Full	-12235
▁Func	-12236
▁Gall	-12237
▁Girl	-12238
▁Good	-12239
▁Gram	-12240
▁Gyan	-12241
▁Hand	-12242
▁Hate	-12243
▁Hema	-12244
▁Hill	-12245
▁Hots	-12246
▁IRGC	-12247
▁ISIS	-12248
▁ISRO	-12249
▁Indi	-12250
▁Indo	-12251
▁Info	-12252
▁Inse	-12253
▁Insu	-12254
▁Invi	-12255
▁Jack	-12256
▁Jean	-12257
▁KHAN	-12258
▁Kaba	-12259
▁Kart	-12260
▁Keer	-12261
▁LINE	-12262
▁Lear	-12263
▁Liqu	-12264
▁List	-12265
▁Loke	-12266
▁Lost	-12267
▁Mama	-12268
▁Mann	-12269
▁Mara	-12270
▁Marc	-12271
▁Meet	-12272
▁Meme	-12273
▁Minu	-12274
▁Modu	-12275
▁Moly	-12276
▁Myth	-12277
▁NDTV	-12278
▁NEWJ	-12279
▁NIRC	-12280
▁NOAA	-12281
▁NSBM	-12282
▁Nord	-12283
▁OTOF	-12284
▁Only	-12285
▁Pari	-12286
▁Paym	-12287
▁Perm	-12288
▁Poon	-12289
▁Prac	-12290
▁Prez	-12291
▁Proc	-12292
▁RAJA	-12293
▁RAJE	-12294
▁REGA	-12295
▁Rape	-12296
▁Real	-12297
▁Reas	-12298
▁Rent	-12299
▁Resc	-12300
▁Revo	-12301
▁Roll	-12302
▁SDPI	-12303
▁SEBI	-12304
▁SETC	-12305
▁STEM	-12306
▁Sara	-12307
▁Sath	-12308
▁Sell	-12309
▁Sexu	-12310
▁Sham	-12311
▁Siam	-12312
▁Solu	-12313
▁Sony	-12314
▁Stop	-12315
▁Stro	-12316
▁Task	-12317
▁Toma	-12318
▁Tour	-12319
▁Trea	-12320
▁Type	-12321
▁Udai	-12322
▁Unit	-12323
▁Uplo	-12324
▁Vall	-12325
▁Vasa	-12326
▁Volu	-12327
▁Wall	-12328
▁Zoom	-12329
▁anja	-12330
▁army	-12331
▁artm	-12332
▁assi	-12333
▁axis	-12334
▁bden	-12335
▁bene	-12336
▁bike	-12337
▁bite	-12338
▁blem	-12339
▁bram	-12340
▁burg	-12341
▁camp	-12342
▁care	-12343
▁cbse	-12344
▁cele	-12345
▁cell	-12346
▁coim	-12347
▁dark	-12348
▁deep	-12349
▁dget	-12350
▁duri	-12351
▁dust	-12352
▁exam	-12353
▁fall	-12354
▁fast	-12355
▁fell	-12356
▁fess	-12357
▁fici	-12358
▁fied	-12359
▁fish	-12360
▁flag	-12361
▁four	-12362
▁gara	-12363
▁ggle	-12364
▁gned	-12365
▁goes	-12366
▁gree	-12367
▁hair	-12368
▁hood	-12369
▁horm	-12370
▁ical	-12371
▁icle	-12372
▁kera	-12373
▁lang	-12374
▁lear	-12375
▁lign	-12376
▁link	-12377
▁list	-12378
▁live	-12379
▁llan	-12380
▁lled	-12381
▁lock	-12382
▁long	-12383
▁loss	-12384
▁made	-12385
▁mari	-12386
▁mass	-12387
▁medi	-12388
▁nday	-12389
▁nded	-12390
▁njab	-12391
▁offs	-12392
▁olar	-12393
▁omes	-12394
▁onse	-12395
▁osit	-12396
▁ossi	-12397
▁para	-12398
▁pare	-12399
▁pens	-12400
▁ppur	-12401
▁ptor	-12402
▁ract	-12403
▁raju	-12404
▁rava	-12405
▁ravi	-12406
▁reco	-12407
▁reen	-12408
▁riot	-12409
▁rism	-12410
▁rium	-12411
▁rock	-12412
▁ronm	-12413
▁safe	-12414
▁same	-12415
▁sara	-12416
▁scam	-12417
▁sell	-12418
▁shop	-12419
▁show	-12420
▁sick	-12421
▁side	-12422
▁stat	-12423
▁stin	-12424
▁stry	-12425
▁tara	-12426
▁temp	-12427
▁tham	-12428
▁tice	-12429
▁ting	-12430
▁tisg	-12431
▁took	-12432
▁tter	-12433
▁vacc	-12434
▁vala	-12435
▁very	-12436
▁viru	-12437
▁ways	-12438
▁welc	-12439
▁well	-12440
▁wife	-12441
▁wish	-12442
▁word	-12443
▁zero	-12444
▁அவரு	-12445
▁ஊழிய	-12446
▁க்ரை	-12447
▁சரதர	-12448
▁சித்	-12449
▁சுத்	-12450
▁டிகர	-12451
▁ணவர்	-12452
▁ண்டத	-12453
▁திரம	-12454
▁பப்ப	-12455
▁முத்	-12456
▁மைதி	-12457
▁மைத்	-12458
▁ரணமா	-12459
▁ரதேச	-12460
▁றார்	-12461
▁றின்	-12462
▁றியி	-12463
▁ற்கன	-12464
▁ற்பா	-12465
▁ளையா	-12466
▁ள்ளன	-12467
▁ழும்	-12468
▁வெட்	-12469
▁ாயகர	-12470
▁ாரணை	-12471
▁ாலமா	-12472
▁ிளக்	-12473
▁ிவித	-12474
▁ெடுத	-12475
▁ொடுப	-12476
▁ோதைய	-12477
▁ோல்வ	-12478
▁்பட்	-12479
▁்பம்	-12480
▁்பில	-12481
▁்றம்	-12482
▁்லாம	-12483
▁்வொர	-12484
▁Adani	-12485
▁Again	-12486
▁Agree	-12487
▁Archi	-12488
▁Bajaj	-12489
▁Bolly	-12490
▁Chhat	-12491
▁Chung	-12492
▁Colla	-12493
▁Colom	-12494
▁Cooku	-12495
▁Counc	-12496
▁Cours	-12497
▁Covid	-12498
▁Death	-12499
▁Earth	-12500
▁Educa	-12501
▁Engli	-12502
▁Enjoy	-12503
▁Famil	-12504
▁Flash	-12505
▁Fraud	-12506
▁Grant	-12507
▁Hidea	-12508
▁Horse	-12509
▁Hours	-12510
▁Hyper	-12511
▁IRCTC	-12512
▁Insta	-12513
▁Jammu	-12514
▁Kanna	-12515
▁Karna	-12516
▁Korea	-12517
▁Machi	-12518
▁Mahua	-12519
▁Marri	-12520
▁Medic	-12521
▁Milli	-12522
▁Mohan	-12523
▁Offic	-12524
▁PUCSL	-12525
▁Palla	-12526
▁Paytm	-12527
▁Peace	-12528
▁Prese	-12529
▁Produ	-12530
▁Quali	-12531
▁Quest	-12532
▁Radha	-12533
▁Radio	-12534
▁Rafah	-12535
▁Requi	-12536
▁SINGH	-12537
▁SIPRI	-12538
▁Sabha	-12539
▁Singh	-12540
▁Skill	-12541
▁Small	-12542
▁Stick	-12543
▁Stock	-12544
▁Sulli	-12545
▁Syrup	-12546
▁Tendu	-12547
▁Track	-12548
▁Ultra	-12549
▁Viole	-12550
▁Virtu	-12551
▁Viswa	-12552
▁Woman	-12553
▁YADAV	-12554
▁adjou	-12555
▁block	-12556
▁board	-12557
▁brain	-12558
▁claim	-12559
▁commu	-12560
▁conde	-12561
▁confe	-12562
▁conse	-12563
▁corre	-12564
▁creat	-12565
▁crime	-12566
▁exclu	-12567
▁filed	-12568
▁first	-12569
▁force	-12570
▁freed	-12571
▁grand	-12572
▁grant	-12573
▁graph	-12574
▁great	-12575
▁hindu	-12576
▁karna	-12577
▁marri	-12578
▁messa	-12579
▁migra	-12580
▁model	-12581
▁paper	-12582
▁parli	-12583
▁pleat	-12584
▁raaja	-12585
▁radha	-12586
▁raphy	-12587
▁rease	-12588
▁ruitm	-12589
▁sabha	-12590
▁shind	-12591
▁shops	-12592
▁south	-12593
▁spoke	-12594
▁think	-12595
▁truth	-12596
▁villa	-12597
▁viole	-12598
▁world	-12599
▁years	-12600
▁youth	-12601
▁என்பவ	-12602
▁கட்டா	-12603
▁கழ்வு	-12604
▁த்தத்	-12605
▁த்தமா	-12606
▁த்துப	-12607
▁நிகழ்	-12608
▁னையில	-12609
▁னைவரு	-12610
▁ன்றார	-12611
▁ன்றால	-12612
▁பேசிய	-12613
▁ப்படா	-12614
▁மாதிர	-12615
▁மிழர்	-12616
▁யக்கு	-12617
▁ரடியா	-12618
▁ருடைய	-12619
▁ர்மான	-12620
▁றுகிற	-12621
▁லகத்த	-12622
▁ளிநாட	-12623
▁ானங்க	-12624
▁ாளுமன	-12625
▁ிகிறத	-12626
▁ித்தத	-12627
▁ிலத்த	-12628
▁ூட்டத	-12629
▁ைவராக	-12630
▁்கிடை	-12631
▁்தைகள	-12632
▁்னார்	-12633
▁்னால்	-12634
AMA	-12635
ATE	-12636
BTA	-12637
CAC	-12638
DPL	-12639
ECD	-12640
ERA	-12641
GAR	-12642
HUL	-12643
ICE	-12644
INT	-12645
ION	-12646
ISF	-12647
ITT	-12648
LAI	-12649
NGC	-12650
OPE	-12651
ORY	-12652
OSH	-12653
RAI	-12654
RAP	-12655
REE	-12656
USH	-12657
XTA	-12658
ZIM	-12659
ght	-12660
imm	-12661
oop	-12662
pea	-12663
qua	-12664
seu	-12665
urk	-12666
xel	-12667
▁Qh	-12668
▁XD	-12669
▁YT	-12670
▁आज	-12671
▁को	-12672
▁है	-12673
▁જન	-12674
▁₹2	-12675
OSHI	-12676
RIME	-12677
anja	-12678
anta	-12679
aree	-12680
loga	-12681
ooja	-12682
oonj	-12683
steo	-12684
urno	-12685
urre	-12686
▁!!!	-12687
▁(16	-12688
▁(20	-12689
▁(21	-12690
▁(22	-12691
▁(26	-12692
▁(32	-12693
▁(50	-12694
▁(51	-12695
▁(75	-12696
▁(77	-12697
▁,15	-12698
▁,19	-12699
hoo	-12700
hru	-12701
ova	-12702
sti	-12703
▁JB	-12704
▁JP	-12705
▁JU	-12706
illi	-12707
▁-20	-12708
▁-25	-12709
▁-59	-12710
▁0%,	-12711
▁0.1	-12712
▁002	-12713
▁021	-12714
▁03-	-12715
▁074	-12716
▁076	-12717
▁1-3	-12718
▁1-6	-12719
▁1..	-12720
▁2,3	-12721
▁2..	-12722
▁3-3	-12723
▁3-6	-12724
▁335	-12725
▁339	-12726
▁342	-12727
▁37%	-12728
▁4-2	-12729
▁41)	-12730
▁41,	-12731
▁41:	-12732
▁42)	-12733
▁431	-12734
▁438	-12735
▁446	-12736
▁46,	-12737
▁463	-12738
▁476	-12739
▁5-1	-12740
▁5.8	-12741
▁51%	-12742
▁51.	-12743
▁522	-12744
▁55.	-12745
▁553	-12746
▁556	-12747
▁558	-12748
▁56)	-12749
▁560	-12750
▁578	-12751
▁579	-12752
▁584	-12753
▁585	-12754
▁61'	-12755
▁61.	-12756
▁610	-12757
▁619	-12758
▁62.	-12759
▁621	-12760
▁648	-12761
▁664	-12762
▁665	-12763
▁681	-12764
▁68:	-12765
▁7.3	-12766
▁72%	-12767
▁724	-12768
▁73,	-12769
▁73.	-12770
▁736	-12771
▁74%	-12772
▁74-	-12773
▁741	-12774
▁744	-12775
▁763	-12776
▁765	-12777
▁768	-12778
▁77,	-12779
▁771	-12780
▁775	-12781
▁792	-12782
▁8.4	-12783
▁811	-12784
▁816	-12785
▁819	-12786
▁830	-12787
▁844	-12788
▁852	-12789
▁869	-12790
▁87.	-12791
▁873	-12792
▁878	-12793
▁88,	-12794
▁889	-12795
▁89%	-12796
▁892	-12797
▁893	-12798
▁9.9	-12799
ken	-12800
lat	-12801
owl	-12802
ris	-12803
xic	-12804
yee	-12805
▁++	-12806
▁JE	-12807
▁UE	-12808
▁UL	-12809
▁UR	-12810
▁Ut	-12811
▁yl	-12812
atha	-12813
oles	-12814
▁(18	-12815
▁(19	-12816
▁000	-12817
▁32%	-12818
▁32)	-12819
▁36%	-12820
▁369	-12821
▁382	-12822
▁411	-12823
▁451	-12824
▁456	-12825
▁459	-12826
▁469	-12827
▁482	-12828
▁483	-12829
▁814	-12830
▁919	-12831
▁92%	-12832
▁927	-12833
▁94%	-12834
▁948	-12835
▁952	-12836
▁956	-12837
▁960	-12838
▁97%	-12839
▁98.	-12840
▁991	-12841
▁994	-12842
▁999	-12843
▁?..	-12844
▁ACC	-12845
▁ADA	-12846
▁ADH	-12847
▁ALI	-12848
▁ALL	-12849
▁AME	-12850
▁APL	-12851
▁ASF	-12852
▁ATA	-12853
▁ATK	-12854
▁AUT	-12855
▁Ade	-12856
▁Aft	-12857
▁Agg	-12858
▁Alb	-12859
▁Ami	-12860
▁Amy	-12861
▁Ari	-12862
▁Arm	-12863
▁Aus	-12864
▁BAC	-12865
▁BAL	-12866
▁BDS	-12867
▁BIM	-12868
▁BIS	-12869
▁BRA	-12870
▁BRO	-12871
▁BRS	-12872
▁Bit	-12873
▁Bjp	-12874
▁Bot	-12875
▁But	-12876
▁Buy	-12877
▁CAN	-12878
▁CBI	-12879
▁CII	-12880
▁CMA	-12881
▁CMS	-12882
▁COT	-12883
▁CPS	-12884
▁CRY	-12885
▁CSE	-12886
▁CVV	-12887
▁Cel	-12888
▁Civ	-12889
▁Cop	-12890
▁DAR	-12891
▁DDA	-12892
▁DHD	-12893
▁DHI	-12894
▁DUT	-12895
▁Deb	-12896
▁Def	-12897
▁Dei	-12898
▁Dia	-12899
asm	-12900
bra	-12901
ila	-12902
ilv	-12903
qsa	-12904
raj	-12905
▁HR	-12906
▁Hb	-12907
▁KF	-12908
▁KM	-12909
▁KR	-12910
▁KS	-12911
▁OD	-12912
▁WM	-12913
▁fs	-12914
▁ug	-12915
▁wh	-12916
HILE	-12917
earl	-12918
▁"15	-12919
▁"48	-12920
▁(17	-12921
▁02.	-12922
▁26-	-12923
▁298	-12924
▁35.	-12925
▁355	-12926
▁358	-12927
▁46.	-12928
▁573	-12929
▁65.	-12930
▁705	-12931
▁708	-12932
▁723	-12933
▁75.	-12934
▁753	-12935
▁755	-12936
▁75:	-12937
▁805	-12938
▁BPC	-12939
▁Bed	-12940
▁CBU	-12941
▁CTV	-12942
▁DAW	-12943
▁Dop	-12944
▁Dru	-12945
▁Dry	-12946
▁ECH	-12947
▁ECO	-12948
▁ENT	-12949
▁EVC	-12950
▁Edi	-12951
▁Eli	-12952
▁Emb	-12953
▁FIA	-12954
▁FRI	-12955
▁FTA	-12956
▁Fib	-12957
▁Flu	-12958
▁GAV	-12959
▁GES	-12960
▁GHz	-12961
▁GMC	-12962
▁GRO	-12963
▁Gou	-12964
▁HAL	-12965
▁HAN	-12966
▁HAR	-12967
▁HEL	-12968
▁Hai	-12969
▁Han	-12970
▁Hit	-12971
▁Hyu	-12972
▁ICE	-12973
▁ICO	-12974
▁IIS	-12975
▁INT	-12976
▁IOA	-12977
▁IOC	-12978
▁ISE	-12979
▁ISK	-12980
▁IgE	-12981
▁Ink	-12982
▁Irf	-12983
▁Isa	-12984
▁JAL	-12985
▁JDU	-12986
▁JHU	-12987
▁Jan	-12988
▁JeM	-12989
▁Jim	-12990
▁KPM	-12991
▁Kap	-12992
▁Key	-12993
▁Kha	-12994
▁Kov	-12995
▁LAL	-12996
▁LCU	-12997
▁LEC	-12998
▁LEW	-12999
LAY	-13000
ars	-13001
edd	-13002
erv	-13003
hed	-13004
ola	-13005
▁EA	-13006
▁Ev	-13007
▁FU	-13008
▁GK	-13009
▁GZ	-13010
▁Ge	-13011
▁Gi	-13012
▁HA	-13013
▁LD	-13014
▁LY	-13015
▁RB	-13016
▁RD	-13017
▁RP	-13018
▁Ry	-13019
▁VP	-13020
▁VR	-13021
▁bt	-13022
▁gs	-13023
▁mc	-13024
▁oo	-13025
▁ps	-13026
▁vy	-13027
ircu	-13028
▁"75	-13029
▁(14	-13030
▁16-	-13031
▁17.	-13032
▁17:	-13033
▁22"	-13034
▁232	-13035
▁24-	-13036
▁248	-13037
▁252	-13038
▁257	-13039
▁26%	-13040
▁276	-13041
▁439	-13042
▁466	-13043
▁569	-13044
▁60.	-13045
▁608	-13046
▁609	-13047
▁774	-13048
▁Ber	-13049
▁Dam	-13050
▁Fal	-13051
▁GZR	-13052
▁ISD	-13053
▁Ila	-13054
▁Kru	-13055
▁LNA	-13056
▁LUN	-13057
▁Lei	-13058
▁Liv	-13059
▁Lou	-13060
▁Low	-13061
▁Lub	-13062
▁Lux	-13063
▁MAL	-13064
▁MBC	-13065
▁MGM	-13066
▁Mau	-13067
▁Mem	-13068
▁Mer	-13069
▁Mes	-13070
▁MiG	-13071
▁Mid	-13072
▁Mim	-13073
▁Mis	-13074
▁Mix	-13075
▁MoR	-13076
▁Mou	-13077
▁Mun	-13078
▁Myv	-13079
▁NAV	-13080
▁NCE	-13081
▁NER	-13082
▁NEY	-13083
▁NHS	-13084
▁NIC	-13085
▁NLC	-13086
▁NPA	-13087
▁NPS	-13088
▁NSS	-13089
▁NTA	-13090
▁NTR	-13091
▁Neo	-13092
▁Nep	-13093
▁Nom	-13094
▁OAM	-13095
▁OCP	-13096
▁ODI	-13097
▁OLS	-13098
▁OMR	-13099
for	-13100
▁AA	-13101
▁AU	-13102
▁AW	-13103
▁Az	-13104
▁BD	-13105
▁BI	-13106
▁BP	-13107
▁CF	-13108
▁CI	-13109
▁CP	-13110
▁DF	-13111
▁DI	-13112
▁DY	-13113
▁FT	-13114
▁IB	-13115
▁KK	-13116
▁MR	-13117
▁NM	-13118
▁PE	-13119
▁SN	-13120
▁SR	-13121
▁Tt	-13122
▁Ug	-13123
▁iz	-13124
▁ls	-13125
▁lz	-13126
▁nj	-13127
▁12-	-13128
▁12:	-13129
▁18+	-13130
▁20-	-13131
▁28.	-13132
▁301	-13133
▁315	-13134
▁401	-13135
▁50.	-13136
▁528	-13137
▁740	-13138
▁8.7	-13139
▁822	-13140
▁DIA	-13141
▁LIX	-13142
▁Lak	-13143
▁Mor	-13144
▁NCS	-13145
▁NEC	-13146
▁OUT	-13147
▁Odi	-13148
▁Oth	-13149
▁Our	-13150
▁PAW	-13151
▁PDA	-13152
▁PIO	-13153
▁PIT	-13154
▁PNR	-13155
▁POL	-13156
▁PTR	-13157
▁Pap	-13158
▁Ped	-13159
▁PhD	-13160
▁Pir	-13161
▁Plu	-13162
▁Por	-13163
▁Pte	-13164
▁RAB	-13165
▁RGE	-13166
▁RSP	-13167
▁RSV	-13168
▁RUS	-13169
▁RWP	-13170
▁Ram	-13171
▁Rev	-13172
▁Rew	-13173
▁Ris	-13174
▁Ron	-13175
▁SAM	-13176
▁SAP	-13177
▁SAT	-13178
▁SDG	-13179
▁SIC	-13180
▁SIV	-13181
▁SLR	-13182
▁SOS	-13183
▁SPG	-13184
▁SSL	-13185
▁SSR	-13186
▁STE	-13187
▁STU	-13188
▁Sun	-13189
▁Syn	-13190
▁TAC	-13191
▁TAS	-13192
▁TAT	-13193
▁TEC	-13194
▁TET	-13195
▁TFT	-13196
▁TIT	-13197
▁TMC	-13198
▁TRI	-13199
DY	-13200
ity	-13201
log	-13202
ிலங	-13203
▁9'	-13204
▁AV	-13205
▁CK	-13206
▁Od	-13207
▁Os	-13208
▁sg	-13209
▁எஜ	-13210
▁'16	-13211
▁392	-13212
▁6-0	-13213
▁795	-13214
▁Ask	-13215
▁Atl	-13216
▁CKS	-13217
▁FOR	-13218
▁Hea	-13219
▁Hey	-13220
▁LeT	-13221
▁NGT	-13222
▁Rad	-13223
▁SEN	-13224
▁TSA	-13225
▁TTF	-13226
▁TTI	-13227
▁Tek	-13228
▁Tik	-13229
▁Tub	-13230
▁UCC	-13231
▁UFO	-13232
▁UNP	-13233
▁UPA	-13234
▁USI	-13235
▁USh	-13236
▁Uns	-13237
▁VAT	-13238
▁VIS	-13239
▁Vic	-13240
▁Vig	-13241
▁Vir	-13242
▁WCC	-13243
▁WFI	-13244
▁WMD	-13245
▁WMO	-13246
▁WWF	-13247
▁Wei	-13248
▁Whi	-13249
▁Wil	-13250
▁Wri	-13251
▁YAR	-13252
▁ZEE	-13253
▁Zoo	-13254
▁`11	-13255
▁``4	-13256
▁``5	-13257
▁add	-13258
▁ado	-13259
▁adu	-13260
▁aia	-13261
▁amp	-13262
▁ams	-13263
▁ank	-13264
▁arl	-13265
▁arr	-13266
▁ash	-13267
▁asp	-13268
▁aut	-13269
▁beh	-13270
▁bip	-13271
▁bor	-13272
▁bul	-13273
▁bus	-13274
▁cat	-13275
▁chu	-13276
▁clo	-13277
▁coc	-13278
▁cov	-13279
▁cut	-13280
▁dam	-13281
▁dav	-13282
▁deg	-13283
▁den	-13284
▁dep	-13285
▁dip	-13286
▁dou	-13287
▁dry	-13288
▁eal	-13289
▁eat	-13290
▁ect	-13291
▁eep	-13292
▁eer	-13293
▁egl	-13294
▁egy	-13295
▁elf	-13296
▁elp	-13297
▁erg	-13298
▁etc	-13299
GU	-13300
MY	-13301
ेल	-13302
ரூ	-13303
▁घ	-13304
▁छ	-13305
IRE	-13306
amb	-13307
avy	-13308
erg	-13309
▁+9	-13310
▁,,	-13311
▁.1	-13312
▁.6	-13313
▁FL	-13314
▁QU	-13315
▁SM	-13316
▁ஓஹ	-13317
▁சங	-13318
▁மள	-13319
▁"12	-13320
▁"17	-13321
▁+91	-13322
▁11-	-13323
▁23:	-13324
▁284	-13325
▁289	-13326
▁344	-13327
▁457	-13328
▁46%	-13329
▁571	-13330
▁59%	-13331
▁604	-13332
▁745	-13333
▁853	-13334
▁877	-13335
▁Ads	-13336
▁DIG	-13337
▁Dev	-13338
▁IHU	-13339
▁Loc	-13340
▁MEO	-13341
▁NGS	-13342
▁PRI	-13343
▁RCP	-13344
▁RRB	-13345
▁SES	-13346
▁bed	-13347
▁cio	-13348
▁ctu	-13349
▁dly	-13350
▁ete	-13351
▁ett	-13352
▁fac	-13353
▁fax	-13354
▁ffe	-13355
▁fle	-13356
▁fyi	-13357
▁goa	-13358
▁gre	-13359
▁gri	-13360
▁gul	-13361
▁hai	-13362
▁ham	-13363
▁har	-13364
▁hia	-13365
▁hup	-13366
▁hur	-13367
▁hyp	-13368
▁hyu	-13369
▁ici	-13370
▁ifi	-13371
▁igh	-13372
▁ilt	-13373
▁ino	-13374
▁int	-13375
▁inu	-13376
▁ipu	-13377
▁ium	-13378
▁jee	-13379
▁kai	-13380
▁kan	-13381
▁kei	-13382
▁kon	-13383
▁lak	-13384
▁lie	-13385
▁lip	-13386
▁lis	-13387
▁liz	-13388
▁lly	-13389
▁lne	-13390
▁loc	-13391
▁log	-13392
▁lot	-13393
▁mab	-13394
▁mah	-13395
▁mas	-13396
▁mat	-13397
▁mbo	-13398
▁mia	-13399
!)	-13400
DD	-13401
Hg	-13402
RP	-13403
TE	-13404
lf	-13405
vu	-13406
zy	-13407
யை	-13408
ரண	-13409
ஸை	-13410
⁄2	-13411
▁ई	-13412
▁ટ	-13413
▁◾	-13414
லாள	-13415
்க்	-13416
▁-7	-13417
▁HU	-13418
▁RU	-13419
▁bb	-13420
▁dd	-13421
▁ec	-13422
▁ஷௌ	-13423
▁(!)	-13424
▁077	-13425
▁1⁄2	-13426
▁265	-13427
▁33,	-13428
▁590	-13429
▁626	-13430
▁646	-13431
▁675	-13432
▁68%	-13433
▁688	-13434
▁Alp	-13435
▁Bor	-13436
▁Bur	-13437
▁CSI	-13438
▁Det	-13439
▁GEM	-13440
▁IAM	-13441
▁ICG	-13442
▁ISO	-13443
▁JNU	-13444
▁LLR	-13445
▁MAR	-13446
▁MUN	-13447
▁Miz	-13448
▁OCC	-13449
▁Ora	-13450
▁Pmk	-13451
▁Psy	-13452
▁RAT	-13453
▁SAR	-13454
▁SPA	-13455
▁SWA	-13456
▁Ted	-13457
▁mod	-13458
▁mph	-13459
▁mps	-13460
▁mun	-13461
▁nae	-13462
▁nak	-13463
▁ndy	-13464
▁neu	-13465
▁ngi	-13466
▁nis	-13467
▁nja	-13468
▁nma	-13469
▁nni	-13470
▁noi	-13471
▁nom	-13472
▁nti	-13473
▁nue	-13474
▁ode	-13475
▁oil	-13476
▁onn	-13477
▁ony	-13478
▁opt	-13479
▁ost	-13480
▁own	-13481
▁pad	-13482
▁pox	-13483
▁pta	-13484
▁qua	-13485
▁quo	-13486
▁ras	-13487
▁ray	-13488
▁rch	-13489
▁rco	-13490
▁reb	-13491
▁rem	-13492
▁rev	-13493
▁rgi	-13494
▁rio	-13495
▁rix	-13496
▁rne	-13497
▁rob	-13498
▁roi	-13499
).	-13500
35	-13501
AG	-13502
Al	-13503
OT	-13504
Qi	-13505
SB	-13506
hm	-13507
ts	-13508
ஜா	-13509
லோ	-13510
▁<	-13511
▁●	-13512
ndi	-13513
▁,2	-13514
▁EG	-13515
▁EU	-13516
▁GE	-13517
▁YS	-13518
▁`7	-13519
▁dm	-13520
▁ik	-13521
▁rb	-13522
▁-10	-13523
▁15:	-13524
▁21:	-13525
▁567	-13526
▁63%	-13527
▁807	-13528
▁Ahm	-13529
▁BNP	-13530
▁Fle	-13531
▁Gut	-13532
▁Mai	-13533
▁Mam	-13534
▁NDO	-13535
▁PIN	-13536
▁RCH	-13537
▁Soo	-13538
▁WWW	-13539
▁amu	-13540
▁dit	-13541
▁dua	-13542
▁fur	-13543
▁nil	-13544
▁pub	-13545
▁rao	-13546
▁rom	-13547
▁rop	-13548
▁ros	-13549
▁rou	-13550
▁rre	-13551
▁rry	-13552
▁rum	-13553
▁rup	-13554
▁rus	-13555
▁ryo	-13556
▁saw	-13557
▁sca	-13558
▁sce	-13559
▁sch	-13560
▁sci	-13561
▁sea	-13562
▁sek	-13563
▁sep	-13564
▁shq	-13565
▁sim	-13566
▁sio	-13567
▁sit	-13568
▁smu	-13569
▁sor	-13570
▁ssa	-13571
▁ssm	-13572
▁sum	-13573
▁tab	-13574
▁tam	-13575
▁tau	-13576
▁tne	-13577
▁tol	-13578
▁tte	-13579
▁udh	-13580
▁ups	-13581
▁ura	-13582
▁ute	-13583
▁utt	-13584
▁uty	-13585
▁vSA	-13586
▁vac	-13587
▁var	-13588
▁vas	-13589
▁vax	-13590
▁ved	-13591
▁wai	-13592
▁web	-13593
▁wei	-13594
▁wou	-13595
▁wro	-13596
▁xin	-13597
▁zer	-13598
▁ஃபூ	-13599
4,	-13600
40	-13601
77	-13602
CE	-13603
LB	-13604
TN	-13605
XO	-13606
do	-13607
of	-13608
பண	-13609
ஷோ	-13610
ஹை	-13611
▁õ	-13612
▁औ	-13613
▁ક	-13614
cel	-13615
imu	-13616
vga	-13617
was	-13618
்ச்	-13619
▁HB	-13620
▁और	-13621
▁हर	-13622
▁"16	-13623
▁'50	-13624
▁24:	-13625
▁283	-13626
▁441	-13627
▁497	-13628
▁588	-13629
▁67:	-13630
▁686	-13631
▁747	-13632
▁88.	-13633
▁912	-13634
▁94.	-13635
▁BPT	-13636
▁BSI	-13637
▁Dec	-13638
▁GSP	-13639
▁Jab	-13640
▁Kom	-13641
▁LEN	-13642
▁LNG	-13643
▁Old	-13644
▁VII	-13645
▁Yas	-13646
▁ate	-13647
▁bic	-13648
▁emb	-13649
▁fra	-13650
▁lon	-13651
▁low	-13652
▁nas	-13653
▁nec	-13654
▁sew	-13655
▁அகா	-13656
▁அபூ	-13657
▁அயன	-13658
▁அயா	-13659
▁அர்	-13660
▁ஆலே	-13661
▁ஆவா	-13662
▁ஆஷ்	-13663
▁ஆஸி	-13664
▁இங்	-13665
▁இடு	-13666
▁இதி	-13667
▁இமை	-13668
▁இறக	-13669
▁ஈசி	-13670
▁ஈச்	-13671
▁ஈயை	-13672
▁ஈஷ்	-13673
▁உமை	-13674
▁உளி	-13675
▁உழல	-13676
▁எதே	-13677
▁எபோ	-13678
▁எலே	-13679
▁ஏடி	-13680
▁ஏழே	-13681
▁ஏஸ்	-13682
▁ஐடா	-13683
▁ஓங்	-13684
▁ஓஜா	-13685
▁ஓஷோ	-13686
▁ஓஹோ	-13687
▁கசா	-13688
▁கதவ	-13689
▁கனு	-13690
▁கமழ	-13691
▁கலய	-13692
▁கொழ	-13693
▁சகட	-13694
▁சகய	-13695
▁சனச	-13696
▁சனோ	-13697
▁சரப	-13698
▁சஷி	-13699
CH	-13700
JE	-13701
MB	-13702
OB	-13703
Rh	-13704
SI	-13705
ST	-13706
TI	-13707
TU	-13708
WE	-13709
We	-13710
nu	-13711
so	-13712
yj	-13713
ஜன	-13714
ஹூ	-13715
▁ર	-13716
▁௨	-13717
ria	-13718
▁ஜஹ	-13719
▁னய	-13720
▁வங	-13721
▁ஸத	-13722
rank	-13723
▁517	-13724
▁580	-13725
▁589	-13726
▁65,	-13727
▁943	-13728
▁AWI	-13729
▁Ada	-13730
▁BLO	-13731
▁CAT	-13732
▁Cab	-13733
▁FMB	-13734
▁Fic	-13735
▁Lea	-13736
▁RJD	-13737
▁See	-13738
▁TIC	-13739
▁Zev	-13740
▁Zhe	-13741
▁bik	-13742
▁ela	-13743
▁enz	-13744
▁ica	-13745
▁mba	-13746
▁stc	-13747
▁twg	-13748
▁அவே	-13749
▁சஙக	-13750
▁சேம	-13751
▁ஜகா	-13752
▁ஜடா	-13753
▁ஜனே	-13754
▁ணங்	-13755
▁தசம	-13756
▁தசா	-13757
▁தடவ	-13758
▁தமன	-13759
▁தரல	-13760
▁தரு	-13761
▁தறி	-13762
▁தவீ	-13763
▁தவே	-13764
▁தேல	-13765
▁தைல	-13766
▁தொற	-13767
▁நமஹ	-13768
▁நயா	-13769
▁நரக	-13770
▁னைக	-13771
▁பவி	-13772
▁பேல	-13773
▁மதன	-13774
▁மஹி	-13775
▁யஸஸ	-13776
▁ரலா	-13777
▁ரவக	-13778
▁ரவம	-13779
▁ரஷ்	-13780
▁லரு	-13781
▁ளகஸ	-13782
▁வந்	-13783
▁விற	-13784
▁ஹேம	-13785
▁ிதத	-13786
▁ீஸா	-13787
▁ுகத	-13788
▁ூங்	-13789
▁்கூ	-13790
▁்லூ	-13791
▁‛‛2	-13792
▁ADHD	-13793
▁ARUN	-13794
▁Aadh	-13795
▁Aadu	-13796
▁Aaru	-13797
▁Abdu	-13798
▁Achi	-13799
rb	-13800
uc	-13801
xi	-13802
அவ	-13803
டூ	-13804
▁÷	-13805
▁š	-13806
▁௩	-13807
▁⦁	-13808
ERN	-13809
RIS	-13810
ily	-13811
its	-13812
odg	-13813
▁"8	-13814
▁4'	-13815
▁?'	-13816
▁HS	-13817
▁ZO	-13818
▁xy	-13819
▁அஷ	-13820
▁ஜட	-13821
▁ணச	-13822
▁றர	-13823
▁ஸீ	-13824
▁(15	-13825
▁32.	-13826
▁337	-13827
▁4,5	-13828
▁419	-13829
▁537	-13830
▁593	-13831
▁69'	-13832
▁699	-13833
▁824	-13834
▁Ati	-13835
▁Dot	-13836
▁ETF	-13837
▁Egg	-13838
▁FAN	-13839
▁IMR	-13840
▁Job	-13841
▁PET	-13842
▁SOH	-13843
▁Xoc	-13844
▁lic	-13845
▁ruc	-13846
▁sad	-13847
▁அறு	-13848
▁அலா	-13849
▁அவி	-13850
▁இவி	-13851
▁உனா	-13852
▁ஊறி	-13853
▁எடு	-13854
▁ஏய்	-13855
▁சரண	-13856
▁தடி	-13857
▁யவன	-13858
▁ஹவா	-13859
▁ாகப	-13860
▁ியள	-13861
▁ARYA	-13862
▁Adip	-13863
▁Adit	-13864
▁Adva	-13865
▁Affi	-13866
▁Agro	-13867
▁Aham	-13868
▁Algo	-13869
▁Allo	-13870
▁Alti	-13871
▁Amir	-13872
▁Anbu	-13873
▁Angu	-13874
▁Anka	-13875
▁Anto	-13876
▁Aqsa	-13877
▁Arre	-13878
▁Arti	-13879
▁Asth	-13880
▁Asus	-13881
▁Atta	-13882
▁Aven	-13883
▁Avia	-13884
▁BBTA	-13885
▁BNYS	-13886
▁BOSS	-13887
▁BREA	-13888
▁BROS	-13889
▁Bane	-13890
▁Beef	-13891
▁Beet	-13892
▁Belt	-13893
▁Bene	-13894
▁Bern	-13895
▁Bett	-13896
▁Bike	-13897
▁Bilk	-13898
▁Biog	-13899
7,	-13900
pm	-13901
ஈழ	-13902
▁é	-13903
ாகி	-13904
▁EL	-13905
▁Ye	-13906
▁nn	-13907
▁டஷ	-13908
▁ஷு	-13909
▁ஹன	-13910
▁₹5	-13911
▁(12	-13912
▁(30	-13913
▁08)	-13914
▁19:	-13915
▁2),	-13916
▁319	-13917
▁409	-13918
▁42.	-13919
▁472	-13920
▁597	-13921
▁636	-13922
▁715	-13923
▁812	-13924
▁907	-13925
▁951	-13926
▁BHE	-13927
▁CWC	-13928
▁Dro	-13929
▁JAN	-13930
▁Jeo	-13931
▁KAT	-13932
▁Pad	-13933
▁UDF	-13934
▁UNG	-13935
▁dom	-13936
▁nna	-13937
▁poi	-13938
▁urb	-13939
▁அஹு	-13940
▁ஆகா	-13941
▁ஆட்	-13942
▁ஊடு	-13943
▁ஒண்	-13944
▁ஒது	-13945
▁ஒலா	-13946
▁ஓட்	-13947
▁சலா	-13948
▁நாச	-13949
▁புஜ	-13950
▁ராள	-13951
▁லங்	-13952
▁வைக	-13953
▁ஹட்	-13954
▁ஹப்	-13955
▁்ணி	-13956
▁்தெ	-13957
▁Area	-13958
▁BDPL	-13959
▁Bail	-13960
▁Bodi	-13961
▁Bond	-13962
▁Bori	-13963
▁Bose	-13964
▁Brav	-13965
▁CAGR	-13966
▁CARA	-13967
▁CCTV	-13968
▁CHIK	-13969
▁CHIN	-13970
▁CISF	-13971
▁CITU	-13972
▁CPIM	-13973
▁CSIR	-13974
▁Cafe	-13975
▁Calc	-13976
▁Camp	-13977
▁Cape	-13978
▁Casa	-13979
▁Chan	-13980
▁Cher	-13981
▁Choi	-13982
▁Chri	-13983
▁Cine	-13984
▁Circ	-13985
▁Coff	-13986
▁Cold	-13987
▁Conv	-13988
▁Core	-13989
▁Corn	-13990
▁Crea	-13991
▁Croo	-13992
▁Cule	-13993
▁Cumu	-13994
▁Curl	-13995
▁Cust	-13996
▁DART	-13997
▁DAVE	-13998
▁DAWO	-13999
Go	-14000
YO	-14001
gp	-14002
ans	-14003
▁8'	-14004
▁9+	-14005
▁AQ	-14006
▁EI	-14007
▁MV	-14008
▁bs	-14009
▁ஸல	-14010
▁(27	-14011
▁1.0	-14012
▁14-	-14013
▁17-	-14014
▁60,	-14015
▁634	-14016
▁776	-14017
▁87%	-14018
▁9.2	-14019
▁APP	-14020
▁Aed	-14021
▁MSF	-14022
▁Mak	-14023
▁Mei	-14024
▁SBI	-14025
▁SWI	-14026
▁Way	-14027
▁ben	-14028
▁dee	-14029
▁nse	-14030
▁pes	-14031
▁rie	-14032
▁ஆபா	-14033
▁ஆஷூ	-14034
▁இடோ	-14035
▁ஈறு	-14036
▁உயன	-14037
▁கழு	-14038
▁சரஹ	-14039
▁தண்	-14040
▁ளாட	-14041
▁ஷபா	-14042
▁Ajit	-14043
▁Beha	-14044
▁DIPR	-14045
▁DMIT	-14046
▁DPRK	-14047
▁Dang	-14048
▁Dare	-14049
▁Date	-14050
▁Davi	-14051
▁Dead	-14052
▁Dece	-14053
▁Deni	-14054
▁Dies	-14055
▁Dine	-14056
▁Disp	-14057
▁Diya	-14058
▁Does	-14059
▁Dona	-14060
▁Drau	-14061
▁Dune	-14062
▁Duty	-14063
▁EMIS	-14064
▁EPIC	-14065
▁EXIT	-14066
▁Eats	-14067
▁Ence	-14068
▁Ener	-14069
▁Enga	-14070
▁Equa	-14071
▁Esse	-14072
▁Esta	-14073
▁Exce	-14074
▁FAMI	-14075
▁FREE	-14076
▁FUEL	-14077
▁Facu	-14078
▁Fail	-14079
▁Famo	-14080
▁Fede	-14081
▁Fert	-14082
▁Fest	-14083
▁Fift	-14084
▁File	-14085
▁Fine	-14086
▁Fish	-14087
▁Five	-14088
▁Flax	-14089
▁Foot	-14090
▁Four	-14091
▁Foxc	-14092
▁Frog	-14093
▁GATE	-14094
▁GOLD	-14095
▁GRAM	-14096
▁Game	-14097
▁Gard	-14098
▁Gend	-14099
▁Gymp	-14100
▁HEAL	-14101
▁Hair	-14102
▁Hama	-14103
▁Hang	-14104
▁Hard	-14105
▁Hase	-14106
▁Haya	-14107
▁Head	-14108
▁Hock	-14109
▁Hold	-14110
▁Hole	-14111
▁Hori	-14112
▁Horo	-14113
▁Hous	-14114
▁Huda	-14115
▁Huss	-14116
▁IFFI	-14117
▁IHME	-14118
▁IIFA	-14119
▁INCO	-14120
▁Ilai	-14121
▁Ince	-14122
▁Inco	-14123
▁Iran	-14124
▁Iris	-14125
▁Iron	-14126
▁Irri	-14127
▁Jaga	-14128
▁Jana	-14129
▁Jasm	-14130
▁Java	-14131
▁Jesu	-14132
▁Jind	-14133
▁Jobs	-14134
▁Jodo	-14135
▁Joke	-14136
▁June	-14137
▁Jury	-14138
▁KCNA	-14139
▁KPMG	-14140
▁KUMA	-14141
▁Kaly	-14142
▁Kara	-14143
▁Kath	-14144
▁Kids	-14145
▁Kisi	-14146
▁Kiss	-14147
▁Ladi	-14148
▁Lake	-14149
▁Land	-14150
▁Last	-14151
▁Laws	-14152
▁Left	-14153
▁Lite	-14154
▁LoRA	-14155
▁Load	-14156
▁Loan	-14157
▁Loca	-14158
▁Lock	-14159
▁Logi	-14160
▁Long	-14161
▁Look	-14162
▁Loss	-14163
▁Luck	-14164
▁MISS	-14165
▁MTET	-14166
▁Mack	-14167
▁Made	-14168
▁Madh	-14169
▁Maga	-14170
▁Mail	-14171
▁Maje	-14172
▁Maki	-14173
▁Manu	-14174
▁Mart	-14175
▁Masa	-14176
▁Mask	-14177
▁Mean	-14178
▁Mein	-14179
▁Meli	-14180
▁Melo	-14181
▁Memb	-14182
▁Meso	-14183
▁Midd	-14184
▁Milk	-14185
▁Miti	-14186
▁Mizu	-14187
▁Moon	-14188
▁More	-14189
▁Movi	-14190
▁Murd	-14191
▁Myst	-14192
▁NARE	-14193
▁NATA	-14194
▁NATO	-14195
▁NBFC	-14196
▁NDRF	-14197
▁NETF	-14198
▁NIFT	-14199
▁NITI	-14200
▁NREL	-14201
▁Nara	-14202
▁Nass	-14203
▁Near	-14204
▁Need	-14205
▁Neer	-14206
▁Newz	-14207
▁Nike	-14208
▁Nine	-14209
▁Nith	-14210
▁Niti	-14211
▁OECD	-14212
▁ONGC	-14213
▁OPEC	-14214
▁Obst	-14215
▁Ocul	-14216
▁Olaf	-14217
▁Olym	-14218
▁Omic	-14219
▁Ophi	-14220
▁Oppe	-14221
▁Oppo	-14222
▁Orie	-14223
▁PARI	-14224
▁PCOD	-14225
▁PDPP	-14226
▁PENG	-14227
▁PERE	-14228
▁PITH	-14229
▁POLL	-14230
▁POLS	-14231
▁Pact	-14232
▁Pain	-14233
▁Pale	-14234
▁Palm	-14235
▁Pare	-14236
▁Pasu	-14237
▁Phar	-14238
▁Phil	-14239
▁Pich	-14240
▁Plea	-14241
▁Poet	-14242
▁Poly	-14243
▁Powd	-14244
▁Pred	-14245
▁Pris	-14246
▁Pseu	-14247
▁Qual	-14248
▁Quit	-14249
▁Quiz	-14250
▁RAMA	-14251
▁RAVI	-14252
▁RCEP	-14253
▁Raje	-14254
▁Rate	-14255
▁Read	-14256
▁Rear	-14257
▁Reck	-14258
▁Recy	-14259
▁Redi	-14260
▁Rega	-14261
▁Regu	-14262
▁Rete	-14263
▁Retu	-14264
▁Reut	-14265
▁Rice	-14266
▁Road	-14267
▁Roma	-14268
▁Room	-14269
▁Rosk	-14270
▁Rupe	-14271
▁SDAT	-14272
▁SHAR	-14273
▁SOCI	-14274
▁STEC	-14275
▁Safe	-14276
▁Saga	-14277
▁Saha	-14278
▁Sahi	-14279
▁Sakt	-14280
▁Sala	-14281
▁Sama	-14282
▁Sand	-14283
▁Sard	-14284
▁Sate	-14285
▁Schi	-14286
▁Scor	-14287
▁Seas	-14288
▁Sele	-14289
▁Self	-14290
▁Selv	-14291
▁Sess	-14292
▁Seva	-14293
▁Shop	-14294
▁Sili	-14295
▁Silv	-14296
▁Skin	-14297
▁Spee	-14298
▁Spey	-14299
▁Spri	-14300
▁Stri	-14301
▁Stru	-14302
▁Susu	-14303
▁Symp	-14304
▁TACT	-14305
▁TAMI	-14306
▁THOR	-14307
▁Talk	-14308
▁Tama	-14309
▁Tani	-14310
▁Tank	-14311
▁Tata	-14312
▁Tham	-14313
▁Thia	-14314
▁Thro	-14315
▁Tick	-14316
▁Tole	-14317
▁Town	-14318
▁Trav	-14319
▁Trip	-14320
▁Twin	-14321
▁Twit	-14322
▁UEFA	-14323
▁UNEP	-14324
▁Uber	-14325
▁Utta	-14326
▁VELU	-14327
▁VISH	-14328
▁VITT	-14329
▁VOIP	-14330
▁Vari	-14331
▁Vasu	-14332
▁Vege	-14333
▁Vehi	-14334
▁Velu	-14335
▁Vert	-14336
▁Veto	-14337
▁Vice	-14338
▁Vida	-14339
▁Vidu	-14340
▁View	-14341
▁Vina	-14342
▁Visa	-14343
▁Vise	-14344
▁WASP	-14345
▁Wait	-14346
▁Wash	-14347
▁Wasp	-14348
▁Wave	-14349
▁Welc	-14350
▁Were	-14351
▁Wick	-14352
▁Wido	-14353
▁Wien	-14354
▁Wils	-14355
▁Wind	-14356
▁Wing	-14357
▁Wire	-14358
▁YUAN	-14359
▁Yazi	-14360
▁Yeoh	-14361
▁Zhen	-14362
▁Zion	-14363
▁affe	-14364
▁apps	-14365
▁arri	-14366
▁arte	-14367
▁assa	-14368
▁asse	-14369
▁athi	-14370
▁babi	-14371
▁baby	-14372
▁ball	-14373
▁bank	-14374
▁bara	-14375
▁bass	-14376
▁beha	-14377
▁berg	-14378
▁best	-14379
▁blin	-14380
▁bmit	-14381
▁boll	-14382
▁bomb	-14383
▁bott	-14384
▁bron	-14385
▁call	-14386
▁calo	-14387
▁came	-14388
▁capt	-14389
▁cast	-14390
▁cate	-14391
▁cere	-14392
▁cert	-14393
▁cess	-14394
▁chat	-14395
▁citi	-14396
▁city	-14397
▁club	-14398
▁cois	-14399
▁coli	-14400
▁colo	-14401
▁comf	-14402
▁copy	-14403
▁coro	-14404
▁coup	-14405
▁cult	-14406
▁cvga	-14407
▁dass	-14408
▁date	-14409
▁dati	-14410
▁dead	-14411
▁dese	-14412
▁dest	-14413
▁deve	-14414
▁digi	-14415
▁dios	-14416
▁dira	-14417
▁dish	-14418
▁disp	-14419
▁draw	-14420
▁ecli	-14421
▁elde	-14422
▁elry	-14423
▁erse	-14424
▁erty	-14425
▁exec	-14426
▁exte	-14427
▁fair	-14428
▁farm	-14429
▁fear	-14430
▁fema	-14431
▁fere	-14432
▁filt	-14433
▁fina	-14434
▁foot	-14435
▁frac	-14436
▁fuel	-14437
▁game	-14438
▁gend	-14439
▁giri	-14440
▁glas	-14441
▁grad	-14442
▁grou	-14443
▁grow	-14444
▁guin	-14445
▁hang	-14446
▁hash	-14447
▁heal	-14448
▁help	-14449
▁hero	-14450
▁hiro	-14451
▁hole	-14452
▁hosp	-14453
▁hous	-14454
▁hunt	-14455
▁ilor	-14456
▁inct	-14457
▁info	-14458
▁jour	-14459
▁kade	-14460
▁kami	-14461
▁karu	-14462
▁kash	-14463
▁labs	-14464
▁lady	-14465
▁laim	-14466
▁lakh	-14467
▁lane	-14468
▁leaf	-14469
▁left	-14470
▁leme	-14471
▁lied	-14472
▁lies	-14473
▁ling	-14474
▁lith	-14475
▁llai	-14476
▁loca	-14477
▁lodo	-14478
▁lose	-14479
▁mach	-14480
▁make	-14481
▁mand	-14482
▁mark	-14483
▁mast	-14484
▁mate	-14485
▁memo	-14486
▁milk	-14487
▁mmHg	-14488
▁modi	-14489
▁moni	-14490
▁moon	-14491
▁muru	-14492
▁nant	-14493
▁nare	-14494
▁ncer	-14495
▁ncha	-14496
▁ndai	-14497
▁ndha	-14498
▁neet	-14499
▁ners	-14500
▁nivu	-14501
▁nose	-14502
▁omer	-14503
▁onde	-14504
▁orce	-14505
▁ount	-14506
▁ourc	-14507
▁pain	-14508
▁past	-14509
▁peni	-14510
▁peya	-14511
▁plat	-14512
▁plea	-14513
▁plot	-14514
▁plus	-14515
▁poet	-14516
▁polt	-14517
▁posi	-14518
▁preg	-14519
▁prie	-14520
▁pseu	-14521
▁pura	-14522
▁quad	-14523
▁rach	-14524
▁raid	-14525
▁rail	-14526
▁raim	-14527
▁rait	-14528
▁raje	-14529
▁ramu	-14530
▁rand	-14531
▁rasa	-14532
▁rate	-14533
▁rath	-14534
▁ravu	-14535
▁rcha	-14536
▁reat	-14537
▁rece	-14538
▁redi	-14539
▁redu	-14540
▁regu	-14541
▁reli	-14542
▁rene	-14543
▁resc	-14544
▁reve	-14545
▁rich	-14546
▁rine	-14547
▁ript	-14548
▁rise	-14549
▁rish	-14550
▁rist	-14551
▁riva	-14552
▁rjee	-14553
▁road	-14554
▁room	-14555
▁rupt	-14556
▁russ	-14557
▁sait	-14558
▁sand	-14559
▁sasi	-14560
▁scal	-14561
▁sces	-14562
▁scie	-14563
▁seat	-14564
▁seed	-14565
▁seek	-14566
▁sena	-14567
▁shah	-14568
▁shar	-14569
▁sign	-14570
▁sine	-14571
▁sink	-14572
▁soci	-14573
▁some	-14574
▁ssez	-14575
▁stai	-14576
▁stom	-14577
▁subs	-14578
▁surp	-14579
▁susp	-14580
▁swal	-14581
▁sync	-14582
▁synd	-14583
▁tada	-14584
▁tail	-14585
▁tank	-14586
▁tary	-14587
▁tcha	-14588
▁tear	-14589
▁term	-14590
▁terr	-14591
▁test	-14592
▁tial	-14593
▁tili	-14594
▁till	-14595
▁told	-14596
▁tori	-14597
▁tors	-14598
▁tour	-14599
▁true	-14600
▁tton	-14601
▁tuit	-14602
▁turn	-14603
▁type	-14604
▁upto	-14605
▁vail	-14606
▁vapi	-14607
▁veri	-14608
▁vers	-14609
▁vess	-14610
▁ving	-14611
▁vior	-14612
▁vith	-14613
▁wait	-14614
▁wall	-14615
▁want	-14616
▁warm	-14617
▁wave	-14618
▁went	-14619
▁wers	-14620
▁west	-14621
▁yurl	-14622
▁zine	-14623
▁அணிக	-14624
▁கியம	-14625
▁கியு	-14626
▁கையு	-14627
▁சியல	-14628
▁சொன்	-14629
▁டமும	-14630
▁டுத்	-14631
▁தவீத	-14632
▁திநி	-14633
▁திவி	-14634
▁பிடத	-14635
▁பிடு	-14636
▁மதிப	-14637
▁ம்பந	-14638
▁ம்பம	-14639
▁யிற்	-14640
▁ராஷ்	-14641
▁ரிகி	-14642
▁றவர்	-14643
▁ற்றப	-14644
▁லுங்	-14645
▁லுத்	-14646
▁ளிலு	-14647
▁ளைஞர	-14648
▁ள்ளப	-14649
▁ழாவி	-14650
▁வழக்	-14651
▁வழங்	-14652
▁விந்	-14653
▁வ்வொ	-14654
▁ாகுல	-14655
▁ிஜய்	-14656
▁ிடிப	-14657
▁ினத்	-14658
▁ிரதே	-14659
▁ிரிக	-14660
▁ுழுக	-14661
▁்கழக	-14662
▁்கவே	-14663
▁்கிக	-14664
▁்பதா	-14665
▁்பெற	-14666
▁்லைய	-14667
▁Aadhe	-14668
▁Alamy	-14669
▁Ameer	-14670
▁Apart	-14671
▁Appre	-14672
▁Atlas	-14673
▁Aware	-14674
▁BHUTA	-14675
▁Bache	-14676
▁Barge	-14677
▁Bigge	-14678
▁Birth	-14679
▁Brain	-14680
▁Brand	-14681
▁COVER	-14682
▁CRIME	-14683
▁Cardi	-14684
▁Caste	-14685
▁Chass	-14686
▁Cheer	-14687
▁Cheet	-14688
▁Chida	-14689
▁Chith	-14690
▁Citra	-14691
▁Civil	-14692
▁Clade	-14693
▁Class	-14694
▁Click	-14695
▁Cloud	-14696
▁Coach	-14697
▁Conde	-14698
▁Conve	-14699
▁Corde	-14700
▁Corre	-14701
▁Cough	-14702
▁Crick	-14703
▁Cross	-14704
▁Cycli	-14705
▁Cyclo	-14706
▁Daily	-14707
▁Dalit	-14708
▁Dhani	-14709
▁Draft	-14710
▁Encou	-14711
▁Enfor	-14712
▁Enqui	-14713
▁Excha	-14714
▁Exerc	-14715
▁Explo	-14716
▁FOCAC	-14717
▁Fight	-14718
▁Fixed	-14719
▁Floor	-14720
▁Frank	-14721
▁Ganja	-14722
▁Glass	-14723
▁Globe	-14724
▁Gover	-14725
▁Gross	-14726
▁INSAS	-14727
▁INSEE	-14728
▁INSTA	-14729
▁INTER	-14730
▁Ident	-14731
▁Insid	-14732
▁Ipsos	-14733
▁Irfan	-14734
▁Jalli	-14735
▁Joint	-14736
▁KHILE	-14737
▁KOICA	-14738
▁Kanch	-14739
▁Katha	-14740
▁Khark	-14741
▁Kidne	-14742
▁Kolar	-14743
▁Kolat	-14744
▁Light	-14745
▁Mauri	-14746
▁Miche	-14747
▁Moham	-14748
▁NATIO	-14749
▁NEXTA	-14750
▁Night	-14751
▁Odesa	-14752
▁Offer	-14753
▁Osteo	-14754
▁PATEL	-14755
▁PICTU	-14756
▁PRASA	-14757
▁Pandi	-14758
▁Pappu	-14759
▁Parti	-14760
▁Patel	-14761
▁Pathu	-14762
▁Pawan	-14763
▁Pekoe	-14764
▁Penna	-14765
▁Perfe	-14766
▁Plast	-14767
▁Plots	-14768
▁Pollu	-14769
▁Ponni	-14770
▁Prave	-14771
▁Prega	-14772
▁Preve	-14773
▁Previ	-14774
▁Qhara	-14775
▁Queen	-14776
▁RAHUL	-14777
▁Rahma	-14778
▁Raise	-14779
▁Ranga	-14780
▁Ratna	-14781
▁Remit	-14782
▁Royal	-14783
▁SCERT	-14784
▁STORY	-14785
▁Salem	-14786
▁Sanju	-14787
▁Santa	-14788
▁Santo	-14789
▁Savar	-14790
▁Scott	-14791
▁Selva	-14792
▁Sensi	-14793
▁Shank	-14794
▁Shape	-14795
▁Shari	-14796
▁Shark	-14797
▁Shiba	-14798
▁Shift	-14799
▁Shivs	-14800
▁Shock	-14801
▁Short	-14802
▁Sight	-14803
▁Sorry	-14804
▁Sound	-14805
▁Sover	-14806
▁Speed	-14807
▁Spell	-14808
▁Spiru	-14809
▁Split	-14810
▁Stern	-14811
▁Sticy	-14812
▁Stone	-14813
▁Stori	-14814
▁Storm	-14815
▁Supri	-14816
▁Survi	-14817
▁Syria	-14818
▁Teach	-14819
▁Tenta	-14820
▁Terro	-14821
▁Timel	-14822
▁Toxic	-14823
▁Tribu	-14824
▁Uttar	-14825
▁Valla	-14826
▁Vanni	-14827
▁Varia	-14828
▁Veera	-14829
▁Vigne	-14830
▁Villa	-14831
▁Viral	-14832
▁Virus	-14833
▁Visit	-14834
▁Weath	-14835
▁Woonj	-14836
▁Years	-14837
▁Youth	-14838
▁birla	-14839
▁birth	-14840
▁birya	-14841
▁brand	-14842
▁candi	-14843
▁caste	-14844
▁chain	-14845
▁chari	-14846
▁cheat	-14847
▁child	-14848
▁circu	-14849
▁clash	-14850
▁clima	-14851
▁colla	-14852
▁condi	-14853
▁confi	-14854
▁confu	-14855
▁const	-14856
▁conve	-14857
▁counc	-14858
▁cracy	-14859
▁crash	-14860
▁crick	-14861
▁cross	-14862
▁cruel	-14863
▁defic	-14864
▁emerg	-14865
▁every	-14866
▁exami	-14867
▁excel	-14868
▁fight	-14869
▁fruit	-14870
▁greem	-14871
▁green	-14872
▁heavy	-14873
▁hijab	-14874
▁hindi	-14875
▁hyper	-14876
▁loyee	-14877
▁major	-14878
▁medic	-14879
▁night	-14880
▁plast	-14881
▁prade	-14882
▁radio	-14883
▁rahim	-14884
▁riend	-14885
▁rilli	-14886
▁sacni	-14887
▁sever	-14888
▁shiva	-14889
▁shoot	-14890
▁singh	-14891
▁small	-14892
▁snake	-14893
▁sound	-14894
▁spade	-14895
▁speed	-14896
▁srini	-14897
▁staff	-14898
▁stand	-14899
▁stics	-14900
▁store	-14901
▁swamy	-14902
▁swing	-14903
▁third	-14904
▁thiru	-14905
▁threa	-14906
▁trail	-14907
▁tried	-14908
▁urthy	-14909
▁verdi	-14910
▁virus	-14911
▁visit	-14912
▁which	-14913
▁while	-14914
▁worth	-14915
▁would	-14916
▁yahoo	-14917
▁youtu	-14918
▁அதிமு	-14919
▁அளவுக	-14920
▁கல்யா	-14921
▁கியத்	-14922
▁குகிற	-14923
▁குதிக	-14924
▁குழந்	-14925
▁கேற்ற	-14926
▁சாரம்	-14927
▁சென்ன	-14928
▁டகங்க	-14929
▁டந்தத	-14930
▁டைபெற	-14931
▁ட்டனர	-14932
▁ணத்தி	-14933
▁திராவ	-14934
▁திருத	-14935
▁நெருக	-14936
▁ந்தைக	-14937
▁னிட்ட	-14938
▁படக்க	-14939
▁பழனிச	-14940
▁பேட்ட	-14941
▁ப்பப்	-14942
▁மட்டு	-14943
▁ய்தது	-14944
▁ரசின்	-14945
▁ரிகிற	-14946
▁ருகன்	-14947
▁றுகின	-14948
▁ற்சிக	-14949
▁ளத்தி	-14950
▁ள்ளனர	-14951
▁வரங்க	-14952
▁ாநிலங	-14953
▁ாய்ந்	-14954
▁ாலியல	-14955
▁ியாவு	-14956
▁ிழ்ச்	-14957
▁ிஷயங்	-14958
▁ெயலாள	-14959
▁ெளியா	-14960
▁ேர்க்	-14961
▁ேர்ந்	-14962
▁்தங்க	-14963
▁்பதால	-14964
▁்ளிட்	-14965
▁்வாகி	-14966
Bev	-14967
CNI	-14968
COT	-14969
GAV	-14970
GGI	-14971
GUE	-14972
ODY	-14973
TRM	-14974
UBE	-14975
UDH	-14976
URU	-14977
dfL	-14978
gno	-14979
iRT	-14980
iWF	-14981
mmy	-14982
nye	-14983
rta	-14984
sky	-14985
tCO	-14986
yiv	-14987
łos	-14988
▁ér	-14989
▁अभ	-14990
▁अर	-14991
▁इस	-14992
▁खा	-14993
▁घर	-14994
▁રફ	-14995
ARTH	-14996
EFSI	-14997
ENIL	-14998
IGER	-14999
CLU	-15000
PCI	-15001
IIMA	-15002
ILIA	-15003
IMES	-15004
ISTO	-15005
OODY	-15006
ORTE	-15007
adiq	-15008
glow	-15009
ibil	-15010
jord	-15011
loos	-15012
oudh	-15013
ucca	-15014
▁"63	-15015
▁$13	-15016
▁$35	-15017
▁$77	-15018
▁'3'	-15019
▁(04	-15020
▁+18	-15021
▁-5)	-15022
▁.11	-15023
▁.15	-15024
▁.35	-15025
▁.64	-15026
▁.67	-15027
▁0.3	-15028
▁1:8	-15029
▁ABB	-15030
▁ABO	-15031
▁AGA	-15032
▁AKI	-15033
▁ALY	-15034
▁AUD	-15035
▁AVI	-15036
▁AYC	-15037
▁Aaj	-15038
▁Aix	-15039
▁Azi	-15040
▁BCs	-15041
▁BDM	-15042
▁BLU	-15043
▁BLY	-15044
▁BMG	-15045
▁BNS	-15046
▁BSc	-15047
▁BTS	-15048
▁BWF	-15049
▁Byc	-15050
▁Bye	-15051
▁Byp	-15052
▁CAB	-15053
▁CFS	-15054
▁CFX	-15055
▁CHR	-15056
▁CIi	-15057
▁CUB	-15058
▁CVo	-15059
▁DHE	-15060
▁DIM	-15061
▁DJC	-15062
▁DOJ	-15063
▁Daw	-15064
▁Dgp	-15065
▁EBD	-15066
▁EEZ	-15067
▁EIU	-15068
▁ELD	-15069
▁EMG	-15070
▁EPR	-15071
▁ETG	-15072
▁ETY	-15073
▁Ego	-15074
▁Epi	-15075
▁FAK	-15076
▁FDG	-15077
▁FLY	-15078
▁FSL	-15079
▁FUI	-15080
▁FUN	-15081
▁Fea	-15082
▁GBP	-15083
▁GEW	-15084
▁GIG	-15085
▁GJE	-15086
▁GKN	-15087
▁GPU	-15088
▁GWU	-15089
▁Gib	-15090
▁Gym	-15091
▁HAF	-15092
▁HDR	-15093
▁HDW	-15094
▁HEI	-15095
▁HMG	-15096
▁HOB	-15097
▁IED	-15098
▁IGs	-15099
BRC	-15100
DCI	-15101
MCA	-15102
SRH	-15103
fID	-15104
bere	-15105
▁1%)	-15106
▁BMC	-15107
▁DCR	-15108
▁DCZ	-15109
▁DIL	-15110
▁DTC	-15111
▁Dak	-15112
▁EFF	-15113
▁EID	-15114
▁EME	-15115
▁EXO	-15116
▁EXp	-15117
▁GLO	-15118
▁Gao	-15119
▁HRC	-15120
▁IHR	-15121
▁ILO	-15122
▁IUM	-15123
▁IWF	-15124
▁IgA	-15125
▁Imt	-15126
▁JAG	-15127
▁JID	-15128
▁JUG	-15129
▁JUI	-15130
▁KBD	-15131
▁KCR	-15132
▁KFD	-15133
▁KVK	-15134
▁Koy	-15135
▁Koz	-15136
▁LAJ	-15137
▁LCG	-15138
▁LEY	-15139
▁LMG	-15140
▁LML	-15141
▁LOK	-15142
▁LOT	-15143
▁LRC	-15144
▁LRT	-15145
▁LTD	-15146
▁MCM	-15147
▁MMI	-15148
▁MNF	-15149
▁MVP	-15150
▁MYV	-15151
▁NBA	-15152
▁NHT	-15153
▁NPH	-15154
▁NRC	-15155
▁NRL	-15156
▁NTe	-15157
▁NVM	-15158
▁NVS	-15159
▁NWS	-15160
▁NZv	-15161
▁OCD	-15162
▁OCE	-15163
▁OFE	-15164
▁OOD	-15165
▁OPC	-15166
▁OPY	-15167
▁ORG	-15168
▁ObE	-15169
▁Osw	-15170
▁Oxf	-15171
▁Ozo	-15172
▁PFO	-15173
▁PFR	-15174
▁PGP	-15175
▁PIK	-15176
▁PNB	-15177
▁PPE	-15178
▁PRC	-15179
▁PUR	-15180
▁Phd	-15181
▁QST	-15182
▁QUA	-15183
▁QUE	-15184
▁RBM	-15185
▁RGH	-15186
▁ROM	-15187
▁ROY	-15188
▁RUL	-15189
▁RUN	-15190
▁SBE	-15191
▁SFH	-15192
▁SGD	-15193
▁SKM	-15194
▁SME	-15195
▁SND	-15196
▁SOU	-15197
▁SPB	-15198
▁SPD	-15199
DHI	-15200
fsc	-15201
ottu	-15202
▁"10	-15203
▁(96	-15204
▁004	-15205
▁006	-15206
▁2%,	-15207
▁ACD	-15208
▁ACP	-15209
▁ASU	-15210
▁BHI	-15211
▁Bsc	-15212
▁Cyl	-15213
▁DSO	-15214
▁FCU	-15215
▁GWA	-15216
▁Hiz	-15217
▁IDH	-15218
▁IYA	-15219
▁LCD	-15220
▁NUR	-15221
▁Neg	-15222
▁Nii	-15223
▁Ody	-15224
▁RSD	-15225
▁SRF	-15226
▁SRK	-15227
▁SUM	-15228
▁SUN	-15229
▁Sky	-15230
▁Swi	-15231
▁TAP	-15232
▁TBX	-15233
▁TGT	-15234
▁TMH	-15235
▁TON	-15236
▁TOT	-15237
▁TRY	-15238
▁TUR	-15239
▁Ttf	-15240
▁Tuo	-15241
▁Two	-15242
▁TyC	-15243
▁UHC	-15244
▁ULh	-15245
▁UPE	-15246
▁UTS	-15247
▁Umm	-15248
▁Urb	-15249
▁VAW	-15250
▁VKR	-15251
▁VLO	-15252
▁VSP	-15253
▁WEF	-15254
▁WFO	-15255
▁WOM	-15256
▁WPY	-15257
▁WTO	-15258
▁YDD	-15259
▁YOU	-15260
▁YRF	-15261
▁Yaa	-15262
▁Yac	-15263
▁Yez	-15264
▁ZOE	-15265
▁`27	-15266
▁`42	-15267
▁`60	-15268
▁`85	-15269
▁aak	-15270
▁aph	-15271
▁apy	-15272
▁bbc	-15273
▁bhb	-15274
▁bto	-15275
▁ddy	-15276
▁eop	-15277
▁fix	-15278
▁fog	-15279
▁gms	-15280
▁gyp	-15281
▁hof	-15282
▁igg	-15283
▁jau	-15284
▁lpu	-15285
▁mrb	-15286
▁msr	-15287
▁nze	-15288
▁obt	-15289
▁oup	-15290
▁oys	-15291
▁pto	-15292
▁pvt	-15293
▁rbo	-15294
▁rpu	-15295
▁ubi	-15296
▁vSL	-15297
▁zaj	-15298
▁zza	-15299
▁बड	-15300
GCAR	-15301
aiwa	-15302
odca	-15303
ursu	-15304
▁"25	-15305
▁"72	-15306
▁(72	-15307
▁Apa	-15308
▁CHU	-15309
▁CNI	-15310
▁DHU	-15311
▁Hwa	-15312
▁Kwa	-15313
▁OMS	-15314
▁RMS	-15315
▁Rwa	-15316
▁Swa	-15317
▁Taa	-15318
▁VOR	-15319
▁`16	-15320
▁`17	-15321
▁civ	-15322
▁dfu	-15323
▁eca	-15324
▁eum	-15325
▁hci	-15326
▁rsu	-15327
▁rte	-15328
▁sfu	-15329
▁tsu	-15330
▁vum	-15331
▁अभी	-15332
▁खास	-15333
▁बड़	-15334
▁रेल	-15335
▁રફથ	-15336
▁அஸி	-15337
▁எஜே	-15338
▁ஏரோ	-15339
▁ஏலே	-15340
▁ஏஸி	-15341
▁ஒபே	-15342
▁ஜடோ	-15343
▁ஜஹ்	-15344
▁பஹத	-15345
▁மஜக	-15346
▁ஷஷி	-15347
▁₹10	-15348
▁ABCD	-15349
▁AMUL	-15350
▁APEC	-15351
▁ARMY	-15352
▁ASCO	-15353
▁ASEA	-15354
▁ASIA	-15355
▁ASWE	-15356
▁Advo	-15357
▁Advt	-15358
▁Ajla	-15359
▁Alca	-15360
▁Amex	-15361
▁Ansa	-15362
▁Anxi	-15363
▁Apka	-15364
▁Apke	-15365
▁Apti	-15366
▁Arul	-15367
▁Ashu	-15368
▁Asti	-15369
▁Aswa	-15370
▁Atal	-15371
▁Atti	-15372
▁Ausv	-15373
▁Axel	-15374
▁Ayur	-15375
▁Ayya	-15376
▁Aziz	-15377
▁BASL	-15378
▁BHAM	-15379
▁BHIM	-15380
▁BLCK	-15381
▁BODY	-15382
▁BOYS	-15383
▁Babi	-15384
▁Baku	-15385
▁Bana	-15386
▁Barr	-15387
▁Batt	-15388
▁Baza	-15389
▁Bird	-15390
▁Blam	-15391
▁Blan	-15392
▁Blou	-15393
▁Blow	-15394
▁Born	-15395
▁Bowl	-15396
▁Brev	-15397
▁Brok	-15398
▁Bros	-15399
END	-15400
ENI	-15401
LEM	-15402
LEP	-15403
PEI	-15404
YLE	-15405
ista	-15406
▁$50	-15407
▁-3,	-15408
▁1/3	-15409
▁1/5	-15410
▁6:3	-15411
▁ESZ	-15412
▁GEN	-15413
▁GIO	-15414
▁GLE	-15415
▁HEN	-15416
▁HVA	-15417
▁IVA	-15418
▁MOD	-15419
▁MOR	-15420
▁MOU	-15421
▁NIO	-15422
▁NMA	-15423
▁NOR	-15424
▁NTJ	-15425
▁Noi	-15426
▁OLE	-15427
▁PEN	-15428
▁POO	-15429
▁POW	-15430
▁Peb	-15431
▁Pfi	-15432
▁Pta	-15433
▁QEN	-15434
▁SMA	-15435
▁Tug	-15436
▁UnA	-15437
▁UnL	-15438
▁VEN	-15439
▁box	-15440
▁ckr	-15441
▁cyc	-15442
▁hyb	-15443
▁mum	-15444
▁unm	-15445
▁AMMA	-15446
▁Ando	-15447
▁BEND	-15448
▁Bulb	-15449
▁Burg	-15450
▁Byju	-15451
▁Byte	-15452
▁CATT	-15453
▁CERN	-15454
▁CFIT	-15455
▁CHEC	-15456
▁CHIS	-15457
▁CHRD	-15458
▁CHUV	-15459
▁CKIE	-15460
▁CODE	-15461
▁COMP	-15462
▁CREA	-15463
▁CRPC	-15464
▁Cage	-15465
▁Caps	-15466
▁Carl	-15467
▁Caul	-15468
▁Cerv	-15469
▁Chah	-15470
▁Chau	-15471
▁Chow	-15472
▁Clea	-15473
▁Coop	-15474
▁CrPC	-15475
▁Craw	-15476
▁Crec	-15477
▁Cret	-15478
▁Crew	-15479
▁Croc	-15480
▁Cron	-15481
▁Crop	-15482
▁Cryo	-15483
▁Cryp	-15484
▁Cubi	-15485
▁Cyli	-15486
▁DALL	-15487
▁DARE	-15488
▁DAVI	-15489
▁DDIA	-15490
▁DEET	-15491
▁DEMO	-15492
▁DEMY	-15493
▁DENG	-15494
▁DENI	-15495
▁DEPA	-15496
▁DEVA	-15497
▁DIGI	-15498
▁DILE	-15499
DOF	-15500
PFP	-15501
ROK	-15502
spi	-15503
spo	-15504
▁गई	-15505
anzi	-15506
▁-16	-15507
▁-17	-15508
▁5-3	-15509
▁5-9	-15510
▁ADO	-15511
▁ARV	-15512
▁ARY	-15513
▁BBA	-15514
▁BDO	-15515
▁Bei	-15516
▁DIO	-15517
▁DVT	-15518
▁Dog	-15519
▁Ecu	-15520
▁Emc	-15521
▁Laa	-15522
▁Lud	-15523
▁Luu	-15524
▁MAA	-15525
▁MDH	-15526
▁SDO	-15527
▁WWV	-15528
▁XDR	-15529
▁YPF	-15530
▁ccu	-15531
▁gav	-15532
▁gua	-15533
▁ucu	-15534
▁xAI	-15535
▁இஹா	-15536
▁மபூ	-15537
▁ARDA	-15538
▁ASIF	-15539
▁Bead	-15540
▁Crun	-15541
▁DANI	-15542
▁DIOS	-15543
▁DIVE	-15544
▁DMRC	-15545
▁DOGE	-15546
▁DOSS	-15547
▁DULL	-15548
▁DUTT	-15549
▁Dahn	-15550
▁Daim	-15551
▁Damn	-15552
▁Daro	-15553
▁Dawn	-15554
▁Debt	-15555
▁Deci	-15556
▁Deno	-15557
▁Desa	-15558
▁Dete	-15559
▁DfID	-15560
▁Dogo	-15561
▁Domi	-15562
▁Dong	-15563
▁Dont	-15564
▁Driv	-15565
▁Dumb	-15566
▁Duti	-15567
▁Dutt	-15568
▁ECCI	-15569
▁ECHO	-15570
▁ECON	-15571
▁EDLI	-15572
▁EFTA	-15573
▁ELSS	-15574
▁ENGI	-15575
▁EPFO	-15576
▁EPlu	-15577
▁ESAN	-15578
▁ESQR	-15579
▁EVgo	-15580
▁Echo	-15581
▁Ecli	-15582
▁Ecom	-15583
▁Edit	-15584
▁Elan	-15585
▁Elea	-15586
▁Elim	-15587
▁Ende	-15588
▁Epst	-15589
▁Eroj	-15590
▁Eros	-15591
▁Espo	-15592
▁Eter	-15593
▁Ethi	-15594
▁Even	-15595
▁Exte	-15596
▁FCDO	-15597
▁FOOD	-15598
▁FORU	-15599
ELI	-15600
OPV	-15601
gyp	-15602
▁तो	-15603
IRUS	-15604
▁$16	-15605
▁-2)	-15606
▁-22	-15607
▁6%+	-15608
▁6-8	-15609
▁6-9	-15610
▁8.3	-15611
▁ESH	-15612
▁GIR	-15613
▁IJA	-15614
▁Joy	-15615
▁MBZ	-15616
▁NAP	-15617
▁Ngu	-15618
▁Nuc	-15619
▁Nue	-15620
▁Num	-15621
▁Opa	-15622
▁Opt	-15623
▁PCB	-15624
▁PCX	-15625
▁RIO	-15626
▁SKI	-15627
▁SLE	-15628
▁SLT	-15629
▁SST	-15630
▁SSW	-15631
▁TKS	-15632
▁UAV	-15633
▁USG	-15634
▁bhu	-15635
▁hua	-15636
▁hub	-15637
▁nza	-15638
▁ogu	-15639
▁rba	-15640
▁rgu	-15641
▁uta	-15642
▁Airp	-15643
▁Airt	-15644
▁Came	-15645
▁DELI	-15646
▁EVKS	-15647
▁Egyp	-15648
▁Etry	-15649
▁FUND	-15650
▁Falc	-15651
▁Fame	-15652
▁Fans	-15653
▁Fein	-15654
▁Fema	-15655
▁Feti	-15656
▁Flem	-15657
▁Flow	-15658
▁Flux	-15659
▁Foss	-15660
▁Fras	-15661
▁Fred	-15662
▁GARE	-15663
▁GARY	-15664
▁GATI	-15665
▁GAZA	-15666
▁GERD	-15667
▁GGGI	-15668
▁GHTS	-15669
▁GIDA	-15670
▁GIGN	-15671
▁GPEI	-15672
▁GRAP	-15673
▁Gane	-15674
▁Gent	-15675
▁Ghad	-15676
▁Gild	-15677
▁Glac	-15678
▁Gofu	-15679
▁Gond	-15680
▁Gray	-15681
▁Grou	-15682
▁HEMA	-15683
▁HERA	-15684
▁HMMA	-15685
▁HOPE	-15686
▁HRCE	-15687
▁HSBC	-15688
▁HUGH	-15689
▁HUWA	-15690
▁Hadr	-15691
▁Hamo	-15692
▁Hanu	-15693
▁Harb	-15694
▁HeLa	-15695
▁Hell	-15696
▁Hems	-15697
▁Here	-15698
▁Herp	-15699
EAF	-15700
EAP	-15701
ESH	-15702
ESO	-15703
upt	-15704
▁£3	-15705
IPER	-15706
IVES	-15707
enju	-15708
▁(80	-15709
▁-2:	-15710
▁AMD	-15711
▁AMR	-15712
▁AMS	-15713
▁Aya	-15714
▁Aza	-15715
▁BOI	-15716
▁Due	-15717
▁Dug	-15718
▁Dup	-15719
▁Duq	-15720
▁ECT	-15721
▁FFI	-15722
▁HRW	-15723
▁IHC	-15724
▁KES	-15725
▁KMC	-15726
▁KTR	-15727
▁Kue	-15728
▁MFA	-15729
▁MPL	-15730
▁MPs	-15731
▁MSK	-15732
▁MSc	-15733
▁Mys	-15734
▁Myu	-15735
▁RFI	-15736
▁SIS	-15737
▁TIP	-15738
▁Tah	-15739
▁epo	-15740
▁gya	-15741
▁keu	-15742
▁pea	-15743
▁pei	-15744
▁pez	-15745
▁ஜலே	-15746
▁‛‛5	-15747
▁AMFI	-15748
▁ATIC	-15749
▁Adop	-15750
▁Audi	-15751
▁CHAU	-15752
▁DEAF	-15753
▁Days	-15754
▁Dupe	-15755
▁Duqm	-15756
▁Duss	-15757
▁ECTA	-15758
▁Enca	-15759
▁Giva	-15760
▁Happ	-15761
▁Have	-15762
▁Heyy	-15763
▁HiRI	-15764
▁Hino	-15765
▁Hizb	-15766
▁Hodg	-15767
▁Hoff	-15768
▁Hooc	-15769
▁Hush	-15770
▁Hypo	-15771
▁ICBM	-15772
▁ICOM	-15773
▁IFFE	-15774
▁IFFK	-15775
▁IGJA	-15776
▁IHRI	-15777
▁INCI	-15778
▁INST	-15779
▁INTO	-15780
▁IRCC	-15781
▁IRIS	-15782
▁ITTE	-15783
▁IUML	-15784
▁Igno	-15785
▁Imme	-15786
▁Immu	-15787
▁Infi	-15788
▁Ippo	-15789
▁JACK	-15790
▁JBIC	-15791
▁JEET	-15792
▁JNIM	-15793
▁Jain	-15794
▁Janu	-15795
▁KARU	-15796
▁KASH	-15797
▁KMCT	-15798
▁KNCA	-15799
▁£5	-15800
▁-50	-15801
▁Aso	-15802
▁BOY	-15803
▁CDS	-15804
▁CVF	-15805
▁Cum	-15806
▁FAO	-15807
▁GDF	-15808
▁Gud	-15809
▁HDF	-15810
▁ITC	-15811
▁ITN	-15812
▁ITS	-15813
▁Juh	-15814
▁MDS	-15815
▁NCB	-15816
▁NCF	-15817
▁NCM	-15818
▁NCR	-15819
▁NCW	-15820
▁NDT	-15821
▁NEP	-15822
▁OTH	-15823
▁RDS	-15824
▁SDF	-15825
▁Sim	-15826
▁Wim	-15827
▁pob	-15828
▁urt	-15829
▁ஐஸை	-15830
▁Azad	-15831
▁Bung	-15832
▁CSDS	-15833
▁Cank	-15834
▁Chet	-15835
▁Chiu	-15836
▁Curi	-15837
▁Fold	-15838
▁Gula	-15839
▁Gust	-15840
▁HDFC	-15841
▁ITCZ	-15842
▁ITEC	-15843
▁Juhk	-15844
▁KOFO	-15845
▁KOGA	-15846
▁KOUL	-15847
▁KREM	-15848
▁KROK	-15849
▁KULE	-15850
▁KUSH	-15851
▁Kaar	-15852
▁Kami	-15853
▁Kana	-15854
▁Kani	-15855
▁Keck	-15856
▁Khad	-15857
▁Khed	-15858
▁Kish	-15859
▁Kism	-15860
▁Kofe	-15861
▁Kona	-15862
▁Kurk	-15863
▁Kuru	-15864
▁LAJI	-15865
▁LALU	-15866
▁LAYA	-15867
▁LESH	-15868
▁LEWS	-15869
▁LIFT	-15870
▁LILI	-15871
▁LIYA	-15872
▁LTBI	-15873
▁Lane	-15874
▁Lary	-15875
▁Laut	-15876
▁Lega	-15877
▁Lege	-15878
▁Lett	-15879
▁Litt	-15880
▁Loui	-15881
▁Luis	-15882
▁Luka	-15883
▁Luke	-15884
▁Lust	-15885
▁MAAB	-15886
▁MALE	-15887
▁MATA	-15888
▁MCMC	-15889
▁MINA	-15890
▁MING	-15891
▁MIOT	-15892
▁MOGH	-15893
▁MRSA	-15894
▁MTRB	-15895
▁MUNI	-15896
▁Madi	-15897
▁Magn	-15898
▁Makk	-15899
ACA	-15900
ACK	-15901
EEL	-15902
HAJ	-15903
OSE	-15904
OST	-15905
USE	-15906
UST	-15907
▁अद	-15908
▁दी	-15909
▁ही	-15910
asih	-15911
reek	-15912
▁(65	-15913
▁(92	-15914
▁+2,	-15915
▁9.1	-15916
▁CAC	-15917
▁FPI	-15918
▁GaF	-15919
▁IAF	-15920
▁IBA	-15921
▁IOS	-15922
▁JEO	-15923
▁KHA	-15924
▁KUS	-15925
▁LAC	-15926
▁LIV	-15927
▁LSE	-15928
▁PSB	-15929
▁Quo	-15930
▁Syd	-15931
▁TRU	-15932
▁TSP	-15933
▁WEE	-15934
▁WHH	-15935
▁cup	-15936
▁llm	-15937
▁mbs	-15938
▁mix	-15939
▁இவன	-15940
▁ஈடே	-15941
▁Bone	-15942
▁CERT	-15943
▁CLUB	-15944
▁DEEL	-15945
▁Dome	-15946
▁Dysp	-15947
▁Dzha	-15948
▁Feed	-15949
▁GaFq	-15950
▁HUSE	-15951
▁Huma	-15952
▁Humi	-15953
▁IISc	-15954
▁INTA	-15955
▁JOSE	-15956
▁JUST	-15957
▁Kone	-15958
▁Marq	-15959
▁Maru	-15960
▁Marx	-15961
▁Mero	-15962
▁Mesu	-15963
▁Meta	-15964
▁Mims	-15965
▁Mins	-15966
▁Mits	-15967
▁Mobi	-15968
▁Mont	-15969
▁Morm	-15970
▁NAMV	-15971
▁NARY	-15972
▁NASS	-15973
▁NAVY	-15974
▁NCBS	-15975
▁NCRB	-15976
▁NDRA	-15977
▁NDRC	-15978
▁NIXO	-15979
▁NLEM	-15980
▁NMRA	-15981
▁NOMI	-15982
▁NPHH	-15983
▁NSDC	-15984
▁NTSB	-15985
▁Nagp	-15986
▁Nasa	-15987
▁Nedu	-15988
▁Nega	-15989
▁Nere	-15990
▁Next	-15991
▁Niho	-15992
▁Niki	-15993
▁Nila	-15994
▁OBCs	-15995
▁OCPD	-15996
▁ORGA	-15997
▁ORLA	-15998
▁OSOT	-15999
BRA	-16000
cob	-16001
jec	-16002
▁xN	-16003
▁(33	-16004
▁(36	-16005
▁(64	-16006
▁2)?	-16007
▁Aim	-16008
▁BEA	-16009
▁CMP	-16010
▁CPA	-16011
▁CRA	-16012
▁EPA	-16013
▁GRA	-16014
▁ISB	-16015
▁ISH	-16016
▁ISI	-16017
▁OFP	-16018
▁PKK	-16019
▁PRE	-16020
▁RAG	-16021
▁RAI	-16022
▁RAU	-16023
▁RED	-16024
▁REM	-16025
▁REN	-16026
▁REV	-16027
▁Rog	-16028
▁SAD	-16029
▁SAE	-16030
▁SSP	-16031
▁ThE	-16032
▁Thw	-16033
▁Tim	-16034
▁YCC	-16035
▁Yaj	-16036
▁dco	-16037
▁moe	-16038
▁olf	-16039
▁pak	-16040
▁saa	-16041
▁vya	-16042
▁ளசம	-16043
▁Bear	-16044
▁Bhak	-16045
▁COPD	-16046
▁Cres	-16047
▁Fres	-16048
▁HAIR	-16049
▁LECO	-16050
▁NDOC	-16051
▁Naje	-16052
▁Ober	-16053
▁Obes	-16054
▁Oman	-16055
▁Oppu	-16056
▁Ordi	-16057
▁Ores	-16058
▁Orko	-16059
▁PADS	-16060
▁PAID	-16061
▁PALE	-16062
▁PALL	-16063
▁PARE	-16064
▁PBSA	-16065
▁PCPD	-16066
▁PESO	-16067
▁PETN	-16068
▁PGIM	-16069
▁PICS	-16070
▁PIPS	-16071
▁PIRE	-16072
▁PLAN	-16073
▁PLAY	-16074
▁PLOS	-16075
▁POLE	-16076
▁POLI	-16077
▁POOL	-16078
▁POST	-16079
▁PREM	-16080
▁PRof	-16081
▁PSWF	-16082
▁PTEN	-16083
▁PUSH	-16084
▁Padm	-16085
▁Pakh	-16086
▁Pamp	-16087
▁Pana	-16088
▁Pant	-16089
▁Papa	-16090
▁Peak	-16091
▁Pedi	-16092
▁Peek	-16093
▁Pens	-16094
▁Peps	-16095
▁Pera	-16096
▁Peta	-16097
▁Pion	-16098
▁Pipp	-16099
ALI	-16100
ENT	-16101
Ido	-16102
SAC	-16103
YSA	-16104
SAPS	-16105
angu	-16106
hang	-16107
rome	-16108
▁"20	-16109
▁07.	-16110
▁075	-16111
▁09%	-16112
▁09.	-16113
▁1-4	-16114
▁Add	-16115
▁BSA	-16116
▁GSA	-16117
▁IMD	-16118
▁IMS	-16119
▁JSA	-16120
▁LLS	-16121
▁Lib	-16122
▁Liu	-16123
▁NOV	-16124
▁Neh	-16125
▁PoS	-16126
▁RCA	-16127
▁RCM	-16128
▁SDA	-16129
▁SSA	-16130
▁TAL	-16131
▁THC	-16132
▁THS	-16133
▁TTR	-16134
▁UMA	-16135
▁kti	-16136
▁llg	-16137
▁Acce	-16138
▁Acer	-16139
▁Aded	-16140
▁Adje	-16141
▁Admk	-16142
▁Advi	-16143
▁Brad	-16144
▁Cang	-16145
▁Cord	-16146
▁FALI	-16147
▁Faru	-16148
▁HIVA	-16149
▁HSAC	-16150
▁IMSC	-16151
▁Jina	-16152
▁KUDI	-16153
▁Liam	-16154
▁Lift	-16155
▁Lott	-16156
▁MENT	-16157
▁Mina	-16158
▁NYSA	-16159
▁Nehw	-16160
▁PadF	-16161
▁Pica	-16162
▁Pole	-16163
▁Pool	-16164
▁Pope	-16165
▁Pret	-16166
▁Pric	-16167
▁Puja	-16168
▁Pull	-16169
▁Puri	-16170
▁Push	-16171
▁Pyth	-16172
▁Płos	-16173
▁QENF	-16174
▁QPFP	-16175
▁QUAD	-16176
▁Qure	-16177
▁RACE	-16178
▁RAFA	-16179
▁RAIH	-16180
▁RAME	-16181
▁RASH	-16182
▁RAUT	-16183
▁RCAF	-16184
▁RCMP	-16185
▁REAL	-16186
▁REVO	-16187
▁REZA	-16188
▁RODO	-16189
▁ROOM	-16190
▁RPPS	-16191
▁RUPE	-16192
▁RUSI	-16193
▁Raci	-16194
▁Radz	-16195
▁Rahu	-16196
▁Raju	-16197
▁Ramp	-16198
▁Rasi	-16199
ECA	-16200
ECE	-16201
ECL	-16202
ICS	-16203
ITS	-16204
NIC	-16205
unk	-16206
unu	-16207
ICIA	-16208
ryna	-16209
ryst	-16210
▁ACT	-16211
▁AJA	-16212
▁Ard	-16213
▁BBD	-16214
▁BOX	-16215
▁CDF	-16216
▁Fah	-16217
▁GNA	-16218
▁HMB	-16219
▁Heb	-16220
▁Hez	-16221
▁ITA	-16222
▁Jeb	-16223
▁Kun	-16224
▁LAU	-16225
▁Loi	-16226
▁MIT	-16227
▁PAL	-16228
▁PAP	-16229
▁Pie	-16230
▁REC	-16231
▁UNA	-16232
▁USB	-16233
▁Yun	-16234
▁fie	-16235
▁gio	-16236
▁lun	-16237
▁pie	-16238
▁sie	-16239
▁zio	-16240
▁Amar	-16241
▁Arle	-16242
▁Army	-16243
▁BOXE	-16244
▁Bath	-16245
▁Bhan	-16246
▁CVID	-16247
▁DECE	-16248
▁Diss	-16249
▁ETra	-16250
▁Gath	-16251
▁HITS	-16252
▁Hark	-16253
▁Heat	-16254
▁Hunu	-16255
▁IRDA	-16256
▁ITJP	-16257
▁JOLL	-16258
▁Kind	-16259
▁LLIA	-16260
▁Loot	-16261
▁MASH	-16262
▁MECL	-16263
▁MICS	-16264
▁Mene	-16265
▁Mint	-16266
▁Ozil	-16267
▁RECR	-16268
▁Rath	-16269
▁Rati	-16270
▁Ratn	-16271
▁Ravo	-16272
▁Refo	-16273
▁Reni	-16274
▁Ride	-16275
▁Rind	-16276
▁Ripp	-16277
▁Rise	-16278
▁Riti	-16279
▁Riya	-16280
▁Robo	-16281
▁Rock	-16282
▁Roja	-16283
▁Roop	-16284
▁Rose	-16285
▁Rumi	-16286
▁Rush	-16287
▁Ryot	-16288
▁SAAR	-16289
▁SACO	-16290
▁SAID	-16291
▁SAIN	-16292
▁SAVA	-16293
▁SEAN	-16294
▁SECP	-16295
▁SHAD	-16296
▁SHAH	-16297
▁SICH	-16298
▁SIVA	-16299
AMY	-16300
ETU	-16301
XSA	-16302
ept	-16303
▁$5	-16304
▁कर	-16305
▁नम	-16306
▁नू	-16307
agle	-16308
face	-16309
oosh	-16310
▁06)	-16311
▁06.	-16312
▁062	-16313
▁5%,	-16314
▁5.7	-16315
▁ABL	-16316
▁Baz	-16317
▁Bug	-16318
▁Cep	-16319
▁GBV	-16320
▁HAM	-16321
▁Khy	-16322
▁MET	-16323
▁MGD	-16324
▁MMK	-16325
▁MRI	-16326
▁Mwa	-16327
▁PUS	-16328
▁RMA	-16329
▁STO	-16330
▁TAM	-16331
▁TSO	-16332
▁TVU	-16333
▁Thy	-16334
▁ToD	-16335
▁USM	-16336
▁cob	-16337
▁coi	-16338
▁hem	-16339
▁iac	-16340
▁iah	-16341
▁ihy	-16342
▁nco	-16343
▁ncw	-16344
▁osh	-16345
▁phy	-16346
▁slp	-16347
▁swa	-16348
▁šov	-16349
▁नमो	-16350
▁नूह	-16351
▁Baha	-16352
▁Bain	-16353
▁Baka	-16354
▁Bazz	-16355
▁Bioa	-16356
▁Buri	-16357
▁DYFI	-16358
▁Drug	-16359
▁Forb	-16360
▁Ford	-16361
▁Fork	-16362
▁HAMS	-16363
▁LAMY	-16364
▁Math	-16365
▁Pept	-16366
▁Pimp	-16367
▁Prix	-16368
▁Pulp	-16369
▁SLFP	-16370
▁SLPP	-16371
▁SNDT	-16372
▁SOHO	-16373
▁SOLA	-16374
▁SOPU	-16375
▁SPAC	-16376
▁SSLC	-16377
▁SSLV	-16378
▁STOP	-16379
▁STRO	-16380
▁SURE	-16381
▁Sahu	-16382
▁Salm	-16383
▁Salt	-16384
▁Samb	-16385
▁Samm	-16386
▁Samu	-16387
▁Sani	-16388
▁Sans	-16389
▁Sars	-16390
▁Satu	-16391
▁Saty	-16392
▁SdfL	-16393
▁Serp	-16394
▁Seta	-16395
▁Shei	-16396
▁Ship	-16397
▁Sira	-16398
▁Skir	-16399
GSS	-16400
LLA	-16401
apa	-16402
aug	-16403
ffa	-16404
ffs	-16405
▁हो	-16406
GSSD	-16407
addu	-16408
▁5,6	-16409
▁ARR	-16410
▁ASS	-16411
▁BTR	-16412
▁BoP	-16413
▁CLA	-16414
▁Dac	-16415
▁Div	-16416
▁EBT	-16417
▁FIN	-16418
▁Fee	-16419
▁Fie	-16420
▁GLA	-16421
▁ICH	-16422
▁ICK	-16423
▁Its	-16424
▁KIN	-16425
▁Kau	-16426
▁Meh	-16427
▁NDC	-16428
▁NSB	-16429
▁Pak	-16430
▁Pee	-16431
▁RET	-16432
▁VIE	-16433
▁XRF	-16434
▁Zee	-16435
▁idi	-16436
▁irc	-16437
▁pau	-16438
▁tua	-16439
▁yeo	-16440
▁zee	-16441
▁ASSE	-16442
▁Adhi	-16443
▁Amal	-16444
▁Boat	-16445
▁Bole	-16446
▁Coor	-16447
▁Coov	-16448
▁Cost	-16449
▁Dama	-16450
▁INSS	-16451
▁Meht	-16452
▁Mela	-16453
▁NMMS	-16454
▁OFRP	-16455
▁Octa	-16456
▁PAFF	-16457
▁Page	-16458
▁Paka	-16459
▁Peep	-16460
▁RAIL	-16461
▁Saff	-16462
▁Sakk	-16463
▁Snow	-16464
▁Sola	-16465
▁Sold	-16466
▁Sole	-16467
▁Song	-16468
▁Soon	-16469
▁Spit	-16470
▁Squa	-16471
▁Stap	-16472
▁Sukt	-16473
▁Susp	-16474
▁Swab	-16475
▁Swar	-16476
▁Swig	-16477
▁Swit	-16478
▁Syna	-16479
▁TAAL	-16480
▁TAPV	-16481
▁TART	-16482
▁TATI	-16483
▁TATO	-16484
▁TBXT	-16485
▁TECH	-16486
▁TERI	-16487
▁THAK	-16488
▁TIES	-16489
▁TIFA	-16490
▁TIWA	-16491
▁TONY	-16492
▁TTCU	-16493
▁TTLE	-16494
▁TTPS	-16495
▁TUBE	-16496
▁TURN	-16497
▁Taap	-16498
▁Taba	-16499
DAS	-16500
neu	-16501
sif	-16502
ulf	-16503
elly	-16504
iago	-16505
idne	-16506
ulla	-16507
▁01)	-16508
▁01.	-16509
▁011	-16510
▁01:	-16511
▁03,	-16512
▁05.	-16513
▁065	-16514
▁07)	-16515
▁2-4	-16516
▁4,9	-16517
▁79.	-16518
▁875	-16519
▁936	-16520
▁937	-16521
▁981	-16522
▁983	-16523
▁989	-16524
▁ADG	-16525
▁Anc	-16526
▁DAS	-16527
▁Gel	-16528
▁Hua	-16529
▁Khu	-16530
▁MCU	-16531
▁NAZ	-16532
▁NLA	-16533
▁Shv	-16534
▁Soh	-16535
▁Tsi	-16536
▁UNT	-16537
▁Wel	-16538
▁asi	-16539
▁ati	-16540
▁ats	-16541
▁exc	-16542
▁kne	-16543
▁nob	-16544
▁nsi	-16545
▁ppy	-16546
▁rth	-16547
▁ttd	-16548
▁tti	-16549
▁ttv	-16550
▁une	-16551
▁ஈகே	-16552
▁Angi	-16553
▁Asif	-16554
▁Garb	-16555
▁Gels	-16556
▁Gulf	-16557
▁Hari	-16558
▁Huaw	-16559
▁NATH	-16560
▁NLAW	-16561
▁NPCI	-16562
▁Pneu	-16563
▁SUIT	-16564
▁Shka	-16565
▁TAGE	-16566
▁Tamo	-16567
▁Tane	-16568
▁Tara	-16569
▁Taru	-16570
▁Tell	-16571
▁Temb	-16572
▁Thar	-16573
▁Thol	-16574
▁Thug	-16575
▁Timb	-16576
▁Tips	-16577
▁Tipu	-16578
▁Tits	-16579
▁Tomb	-16580
▁Tomi	-16581
▁Tool	-16582
▁Trap	-16583
▁Trau	-16584
▁Tree	-16585
▁Triu	-16586
▁Troi	-16587
▁True	-16588
▁Tues	-16589
▁UNAM	-16590
▁UNLF	-16591
▁URMI	-16592
▁UnAu	-16593
▁UnLu	-16594
▁Undo	-16595
▁Unfi	-16596
▁Utha	-16597
▁VAHA	-16598
▁VICE	-16599
IAI	-16600
ICL	-16601
dly	-16602
alid	-16603
daho	-16604
idhi	-16605
▁$15	-16606
▁(23	-16607
▁3',	-16608
▁81.	-16609
▁810	-16610
▁83%	-16611
▁831	-16612
▁832	-16613
▁834	-16614
▁83?	-16615
▁885	-16616
▁886	-16617
▁9.)	-16618
▁944	-16619
▁945	-16620
▁975	-16621
▁97:	-16622
▁BIA	-16623
▁BOB	-16624
▁Bag	-16625
▁CSA	-16626
▁CSC	-16627
▁CSF	-16628
▁CTR	-16629
▁Dub	-16630
▁Enb	-16631
▁FAT	-16632
▁FOD	-16633
▁GRH	-16634
▁GUT	-16635
▁IPl	-16636
▁Lip	-16637
▁RIA	-16638
▁TIA	-16639
▁VIA	-16640
▁WPL	-16641
▁aid	-16642
▁asr	-16643
▁gly	-16644
▁icu	-16645
▁pda	-16646
▁pim	-16647
▁rly	-16648
▁sid	-16649
▁wel	-16650
▁உலத	-16651
▁உலவ	-16652
▁Apha	-16653
▁Apps	-16654
▁CICL	-16655
▁Conc	-16656
▁DINO	-16657
▁Enro	-16658
▁FATF	-16659
▁GUTS	-16660
▁Hing	-16661
▁Idly	-16662
▁Into	-16663
▁Ipso	-16664
▁Ling	-16665
▁Lyri	-16666
▁MSCA	-16667
▁Ming	-16668
▁Muan	-16669
▁Muja	-16670
▁PIAI	-16671
▁Pong	-16672
▁REJE	-16673
▁SANS	-16674
▁Sper	-16675
▁TEJA	-16676
▁Vagi	-16677
▁Vamp	-16678
▁Vana	-16679
▁Vara	-16680
▁Varu	-16681
▁Vedz	-16682
▁Vent	-16683
▁Vero	-16684
▁Vidy	-16685
▁Vous	-16686
▁WACA	-16687
▁WASI	-16688
▁WAYS	-16689
▁WBRC	-16690
▁WILL	-16691
▁WING	-16692
▁WIRE	-16693
▁Wahe	-16694
▁Walk	-16695
▁Want	-16696
▁Warm	-16697
▁Watt	-16698
▁Weav	-16699
GCA	-16700
imi	-16701
lmi	-16702
▁__	-16703
▁jp	-16704
▁$20	-16705
▁.1.	-16706
▁78)	-16707
▁78.	-16708
▁783	-16709
▁785	-16710
▁793	-16711
▁82)	-16712
▁827	-16713
▁84%	-16714
▁84,	-16715
▁84.	-16716
▁841	-16717
▁842	-16718
▁843	-16719
▁86*	-16720
▁91.	-16721
▁918	-16722
▁96.	-16723
▁963	-16724
▁Abu	-16725
▁Cog	-16726
▁GOO	-16727
▁IGP	-16728
▁IOD	-16729
▁KMF	-16730
▁MHC	-16731
▁Pto	-16732
▁Qin	-16733
▁REX	-16734
▁TID	-16735
▁Teh	-16736
▁ThZ	-16737
▁Ulc	-16738
▁WHE	-16739
▁WPC	-16740
▁cus	-16741
▁eti	-16742
▁hen	-16743
▁jad	-16744
▁jpj	-16745
▁smi	-16746
▁Bast	-16747
▁DEPU	-16748
▁DGCA	-16749
▁Drao	-16750
▁Eval	-16751
▁Gast	-16752
▁Hast	-16753
▁Iimi	-16754
▁Pear	-16755
▁REDS	-16756
▁Scan	-16757
▁Scle	-16758
▁Tehr	-16759
▁Tela	-16760
▁Varm	-16761
▁Webb	-16762
▁Weir	-16763
▁Welf	-16764
▁Well	-16765
▁Whit	-16766
▁Wifi	-16767
▁Wild	-16768
▁Wise	-16769
▁Woke	-16770
▁Wrai	-16771
▁Writ	-16772
▁Xiah	-16773
▁YMCA	-16774
▁YOYO	-16775
▁Yang	-16776
▁Yass	-16777
▁Yeop	-16778
▁Yoga	-16779
▁Yoon	-16780
▁Youm	-16781
▁Your	-16782
▁Yuns	-16783
▁Yuva	-16784
▁ZOOM	-16785
▁Zahe	-16786
▁Zeek	-16787
▁Zers	-16788
▁Zhan	-16789
▁Zlat	-16790
▁Zoho	-16791
▁accu	-16792
▁acle	-16793
▁addi	-16794
▁advt	-16795
▁afla	-16796
▁aign	-16797
▁appe	-16798
▁arms	-16799
BER	-16800
ERI	-16801
cqu	-16802
emp	-16803
equ	-16804
mpy	-16805
oob	-16806
oof	-16807
ULHU	-16808
YBER	-16809
omme	-16810
▁02)	-16811
▁1,2	-16812
▁3..	-16813
▁77%	-16814
▁77.	-16815
▁772	-16816
▁784	-16817
▁8,9	-16818
▁921	-16819
▁AER	-16820
▁Alf	-16821
▁Als	-16822
▁Alz	-16823
▁BAA	-16824
▁BAE	-16825
▁CCD	-16826
▁CED	-16827
▁DFE	-16828
▁GRE	-16829
▁Haa	-16830
▁MOJ	-16831
▁NEO	-16832
▁Nao	-16833
▁Naq	-16834
▁SER	-16835
▁Sae	-16836
▁VER	-16837
▁WER	-16838
▁WFF	-16839
▁aja	-16840
▁eme	-16841
▁enc	-16842
▁equ	-16843
▁esi	-16844
▁kao	-16845
▁moo	-16846
▁rke	-16847
▁rqu	-16848
▁sah	-16849
▁uti	-16850
▁woo	-16851
▁yme	-16852
▁AQAP	-16853
▁Bare	-16854
▁CCDH	-16855
▁Chha	-16856
▁Chin	-16857
▁Chur	-16858
▁Coob	-16859
▁DFEH	-16860
▁Dufo	-16861
▁Fake	-16862
▁GHEE	-16863
▁GROT	-16864
▁HERI	-16865
▁MAEF	-16866
▁MALA	-16867
▁MOJO	-16868
▁NEDA	-16869
▁Rang	-16870
▁Rish	-16871
▁Synt	-16872
▁TEWA	-16873
▁Tron	-16874
▁UNCL	-16875
▁VERY	-16876
▁aged	-16877
▁arme	-16878
▁arul	-16879
▁asia	-16880
▁asso	-16881
▁athe	-16882
▁auth	-16883
▁aval	-16884
▁awar	-16885
▁bIdo	-16886
▁bagg	-16887
▁baim	-16888
▁bala	-16889
▁bali	-16890
▁banu	-16891
▁bars	-16892
▁bath	-16893
▁batt	-16894
▁bbat	-16895
▁bedu	-16896
▁belt	-16897
▁berc	-16898
▁bhai	-16899
gge	-16900
glo	-16901
xiv	-16902
IPEC	-16903
amba	-16904
hill	-16905
iclo	-16906
loss	-16907
odge	-16908
rill	-16909
▁-21	-16910
▁5,4	-16911
▁5..	-16912
▁61%	-16913
▁717	-16914
▁71:	-16915
▁743	-16916
▁748	-16917
▁940	-16918
▁AED	-16919
▁AMT	-16920
▁Afe	-16921
▁Clo	-16922
▁Dms	-16923
▁GME	-16924
▁Gem	-16925
▁IGF	-16926
▁LIA	-16927
▁Mik	-16928
▁Sei	-16929
▁Sey	-16930
▁Slo	-16931
▁UDA	-16932
▁amo	-16933
▁blo	-16934
▁dfe	-16935
▁ege	-16936
▁fva	-16937
▁iog	-16938
▁irs	-16939
▁lop	-16940
▁oge	-16941
▁sge	-16942
▁ssu	-16943
▁taa	-16944
▁yog	-16945
▁கயோ	-16946
▁வநத	-16947
▁Afee	-16948
▁Baht	-16949
▁Cosm	-16950
▁DUAL	-16951
▁Dars	-16952
▁ECMO	-16953
▁Essi	-16954
▁Fear	-16955
▁Goda	-16956
▁Holi	-16957
▁KNDF	-16958
▁Koor	-16959
▁Lire	-16960
▁Mage	-16961
▁Pali	-16962
▁Rege	-16963
▁Reva	-16964
▁Rxiv	-16965
▁Seat	-16966
▁Seer	-16967
▁Seho	-16968
▁Slop	-16969
▁Supe	-16970
▁VIII	-16971
▁WION	-16972
▁adva	-16973
▁bifi	-16974
▁bihu	-16975
▁biop	-16976
▁bith	-16977
▁bjee	-16978
▁blad	-16979
▁bled	-16980
▁bone	-16981
▁bora	-16982
▁born	-16983
▁boxd	-16984
▁boyf	-16985
▁bral	-16986
▁brid	-16987
▁bull	-16988
▁byju	-16989
▁cana	-16990
▁cars	-16991
▁caus	-16992
▁chai	-16993
▁chak	-16994
▁chea	-16995
▁chef	-16996
▁chik	-16997
▁chip	-16998
▁clea	-16999
▁ZI	-17000
▁Ze	-17001
▁Zi	-17002
▁[3	-17003
▁xx	-17004
▁zk	-17005
▁zu	-17006
urri	-17007
▁"13	-17008
▁66,	-17009
▁673	-17010
▁674	-17011
▁678	-17012
▁68,	-17013
▁68.	-17014
▁683	-17015
▁694	-17016
▁69:	-17017
▁71.	-17018
▁734	-17019
▁735	-17020
▁73:	-17021
▁Ayo	-17022
▁DRS	-17023
▁ETC	-17024
▁Klu	-17025
▁MIK	-17026
▁MON	-17027
▁MoA	-17028
▁Mob	-17029
▁Moo	-17030
▁Oni	-17031
▁Ops	-17032
▁Rps	-17033
▁Seb	-17034
▁Sni	-17035
▁Ups	-17036
▁Vel	-17037
▁Zhi	-17038
▁Zia	-17039
▁Zir	-17040
▁[3]	-17041
▁bps	-17042
▁cul	-17043
▁dur	-17044
▁hie	-17045
▁hir	-17046
▁ilu	-17047
▁lur	-17048
▁vur	-17049
▁zor	-17050
▁Bard	-17051
▁Chal	-17052
▁CiWF	-17053
▁Euse	-17054
▁Fint	-17055
▁Hung	-17056
▁JOSS	-17057
▁Klug	-17058
▁Lion	-17059
▁MIKE	-17060
▁MONK	-17061
▁Moha	-17062
▁Mohi	-17063
▁Moss	-17064
▁Scru	-17065
▁User	-17066
▁Velm	-17067
▁Ward	-17068
▁Yard	-17069
▁chin	-17070
▁clot	-17071
▁coal	-17072
▁coid	-17073
▁colu	-17074
▁conn	-17075
▁cool	-17076
▁core	-17077
▁corp	-17078
▁cort	-17079
▁cosm	-17080
▁cric	-17081
▁crim	-17082
▁cuet	-17083
▁dara	-17084
▁ddhi	-17085
▁defa	-17086
▁defi	-17087
▁deni	-17088
[...]
