<unk>	0
<s>	0
</s>	0
்க	-0
்த	-1
ம்	-2
▁ப	-3
▁க	-4
ல்	-5
ன்	-6
▁வ	-7
்ட	-8
▁த	-9
க்க	-10
ர்	-11
▁ம	-12
த்த	-13
▁அ	-14
▁ச	-15
்ப	-16
ரு	-17
ிய	-18
ள்	-19
ந்த	-20
▁இ	-21
து	-22
ில்	-23
ட்ட	-24
ப்ப	-25
ும்	-26
▁ந	-27
▁எ	-28
ங்க	-29
ாக	-30
ைய	-31
ிற	-32
தி	-33
ின்	-34
க்கு	-35
்ச	-36
▁உ	-37
டு	-38
▁ஆ	-39
ள்ள	-40
று	-41
ண்ட	-42
ார்	-43
ற்	-44
ரி	-45
▁மு	-46
▁செ	-47
த்து	-48
▁வி	-49
டி	-50
ர்க	-51
ான	-52
லை	-53
ற்ற	-54
▁,	-55
வி	-56
▁என்	-57
ில	-58
ிர	-59
ார	-60
▁கு	-61
ிரு	-62
ந்து	-63
ட்டு	-64
▁இரு	-65
ளை	-66
ால்	-67
ிக	-68
▁செய	-69
▁ர	-70
வு	-71
▁போ	-72
▁மா	-73
▁ஒ	-74
▁இந்த	-75
▁கொ	-76
றி	-77
▁கா	-78
ச்ச	-79
▁ய	-80
ப்	-81
ர்கள்	-82
▁அவ	-83
ஸ்	-84
க்	-85
னை	-86
னர்	-87
▁பா	-88
ளு	-89
த்தில்	-90
ையில்	-91
▁பெ	-92
▁தொ	-93
மை	-94
ப்பு	-95
த்	-96
ான்	-97
ல்ல	-98
▁வே	-99
▁நட	-100
ம்ப	-101
▁.	-102
▁கூ	-103
ுவ	-104
ுக	-105
ற்க	-106
▁நா	-107
▁தே	-108
மி	-109
▁ஏ	-110
ன்ற	-111
▁வெ	-112
ப்பட்ட	-113
▁என	-114
▁கட	-115
க்கும்	-116
ிறது	-117
ாய	-118
▁வரு	-119
▁உள்ள	-120
ிட	-121
கள்	-122
ரை	-123
ியா	-124
ளில்	-125
லா	-126
▁அதி	-127
வில்	-128
▁அத	-129
ணி	-130
ற்ப	-131
▁தெ	-132
ண்டு	-133
▁பே	-134
ங்கள்	-135
றை	-136
ன்ன	-137
▁ஒரு	-138
▁கோ	-139
ண்	-140
ளுக்கு	-141
டுத்த	-142
▁மே	-143
▁2	-144
▁1	-145
▁இத	-146
▁தொட	-147
கு	-148
மாக	-149
ின	-150
ரா	-151
▁பிர	-152
▁ஜ	-153
▁என்று	-154
▁அர	-155
த்தை	-156
▁மற்ற	-157
▁வழ	-158
வர்	-159
்ய	-160
டிய	-161
ளி	-162
திய	-163
▁"	-164
ால	-165
மான	-166
▁செய்த	-167
▁பொ	-168
▁ட	-169
▁பு	-170
ட்ச	-171
ழு	-172
தாக	-173
வே	-174
▁நி	-175
▁அரச	-176
ச்	-177
வை	-178
▁மற்றும்	-179
▁என்ற	-180
வா	-181
ிட்ட	-182
்கு	-183
ள்ளது	-184
▁வா	-185
ற்று	-186
மா	-187
்த்த	-188
ப்பட	-189
சி	-190
▁வேண்ட	-191
▁முத	-192
னால்	-193
ட்	-194
ோது	-195
ன்று	-196
▁து	-197
▁வீ	-198
ரிய	-199
ாம	-200
▁அமை	-201
▁சி	-202
▁நீ	-203
▁மீ	-204
னி	-205
▁அதிக	-206
▁வை	-207
▁நில	-208
▁குறி	-209
▁சு	-210
பி	-211
▁திரு	-212
டன்	-213
ின்ற	-214
▁தொடர்	-215
டை	-216
▁பி	-217
▁செய்ய	-218
ளின்	-219
கிறது	-220
ாத	-221
வும்	-222
ிறார்	-223
ழ்	-224
▁தெரி	-225
▁கே	-226
▁தலை	-227
▁இது	-228
▁சே	-229
▁ல	-230
வது	-231
▁பல	-232
களை	-233
னு	-234
▁மூ	-235
▁தமி	-236
ிருக்க	-237
▁இருந்த	-238
ப்பட்டு	-239
▁எதி	-240
▁வேண்டும்	-241
▁அந்த	-242
ியில்	-243
▁என்ப	-244
▁ப்	-245
ரும்	-246
ணை	-247
▁த்த	-248
ுள்ள	-249
நா	-250
▁அவர்	-251
▁தான்	-252
▁தெரிவி	-253
▁ரா	-254
▁நே	-255
▁இட	-256
ட்டி	-257
ாள	-258
▁ஏற்ப	-259
ையை	-260
▁நிற	-261
ிருந்த	-262
▁க்	-263
▁பய	-264
▁கொண்ட	-265
..	-266
பு	-267
மு	-268
▁சிற	-269
ய்	-270
தை	-271
ற்கு	-272
▁இருக்க	-273
னா	-274
▁சொ	-275
ையும்	-276
லி	-277
டுத்து	-278
▁முதல்	-279
க்கை	-280
▁20	-281
▁ஓ	-282
வர	-283
ண்ண	-284
சிய	-285
்கள்	-286
▁வந்த	-287
ிற்கு	-288
்சி	-289
▁கள	-290
ளிய	-291
▁அறி	-292
நில	-293
பா	-294
▁தீ	-295
த்தி	-296
முக	-297
▁மக்க	-298
க்கப்பட்ட	-299
கா	-300
▁தா	-301
த்தின்	-302
▁ஆனால்	-303
▁ஹ	-304
ஸ்ட	-305
லில்	-306
ங்களில்	-307
▁-	-308
▁ஆக	-309
ங்கு	-310
டும்	-311
▁வெளிய	-312
ப்பா	-313
ர்க்க	-314
த்திய	-315
ப்பி	-316
லும்	-317
வ்	-318
ங்களை	-319
க்கிய	-320
லக	-321
▁இர	-322
ற்றி	-323
ூர்	-324
▁தி	-325
▁கார	-326
▁ப்ப	-327
▁சம	-328
▁பண	-329
▁வர	-330
ிகள்	-331
▁'	-332
▁த்	-333
ருக்கு	-334
வாக	-335
▁சா	-336
ர்த	-337
ோம்	-338
▁பிற	-339
ங்கள	-340
00	-341
லு	-342
சா	-343
தா	-344
பெ	-345
▁உய	-346
லம்	-347
ேன்	-348
▁வருக	-349
ரிக்க	-350
▁நடை	-351
ியை	-352
ழை	-353
ார்கள்	-354
▁முன்ன	-355
▁சில	-356
▁அமைச்ச	-357
ழக	-358
▁தன	-359
▁3	-360
வத	-361
▁சந்த	-362
ன்ப	-363
▁முடி	-364
▁ஊ	-365
ருத்து	-366
▁நிலையில்	-367
ஞ்ச	-368
மன்ற	-369
▁உட	-370
▁வழங்க	-371
வின்	-372
▁பார	-373
ரே	-374
▁(	-375
▁அரசு	-376
▁பட	-377
ாய்	-378
▁கடந்த	-379
ரோ	-380
▁இருந்து	-381
▁மோ	-382
மைய	-383
வில்லை	-384
ிக்	-385
▁போல	-386
ிலும்	-387
ர்ந்த	-388
▁சட்ட	-389
▁ம்	-390
றிய	-391
ப்போது	-392
ஷ்	-393
▁தேர்த	-394
▁அம	-395
க்கி	-396
▁இந்தியா	-397
ராக	-398
கி	-399
ங்கி	-400
ாம்	-401
ட்சி	-402
தம்	-403
ியல்	-404
▁டி	-405
▁பகு	-406
மே	-407
▁பிரத	-408
ிடம்	-409
▁பின்	-410
▁சீ	-411
▁க்க	-412
வட்ட	-413
▁நடைபெ	-414
ின்றனர்	-415
லாம்	-416
வர்கள்	-417
ரம்	-418
ணம்	-419
▁கி	-420
▁கை	-421
டுக	-422
▁போது	-423
▁அனு	-424
ர்த்த	-425
ஸ்த	-426
▁பதி	-427
ழி	-428
டைய	-429
ட்டில்	-430
▁மாநில	-431
▁மாவட்ட	-432
டுக்க	-433
ங்	-434
▁திட்ட	-435
▁கிட	-436
▁..	-437
▁5	-438
▁யும்	-439
னம்	-440
ப்படி	-441
▁பூ	-442
▁ஆண்ட	-443
ஜக	-444
▁பொரு	-445
ரில்	-446
▁4	-447
▁கூட்ட	-448
▁மேலும்	-449
ப்படும்	-450
▁மிக	-451
▁என்ன	-452
▁இல	-453
▁உள்ளது	-454
மர்	-455
ன்னை	-456
ல்லை	-457
▁பாஜக	-458
▁கட்ட	-459
▁ச்	-460
த்தார்	-461
▁செய்து	-462
▁தொடர்ப	-463
▁பொது	-464
▁கால	-465
ள்ளார்	-466
▁தமிழ்	-467
ந்தது	-468
ேச	-469
கவ	-470
டா	-471
▁ஆண்டு	-472
ாலும்	-473
▁அடி	-474
ட்டை	-475
▁ரூ	-476
▁கொண்டு	-477
▁பத	-478
▁குழ	-479
சார	-480
ியின்	-481
ர்களுக்கு	-482
▁குறித்து	-483
▁ஐ	-484
ிருந்து	-485
ாரி	-486
▁அனை	-487
▁அது	-488
ச்சி	-489
▁ஆகிய	-490
▁இருப்ப	-491
ர்கள	-492
ளர்	-493
▁எழு	-494
▁ஈ	-495
▁முன்	-496
▁வரும்	-497
▁சூ	-498
▁இருக்கும்	-499
க்கம்	-500
டுகிறது	-501
▁நிக	-502
▁நெ	-503
▁என்பது	-504
த்திற்கு	-505
ின்றன	-506
▁ுவ	-507
▁கல	-508
▁தற்ப	-509
ர்களை	-510
▁ராஜ	-511
▁இந்திய	-512
▁மருத்து	-513
▁தொடர்ந்து	-514
▁நிறுவ	-515
ொரு	-516
ட்க	-517
ங்களுக்கு	-518
ாமல்	-519
ம்பி	-520
வுக்கு	-521
▁நீதி	-522
▁ு	-523
▁மணி	-524
களில்	-525
ையா	-526
▁குறிப்ப	-527
▁உறு	-528
▁வருகிறது	-529
வம்	-530
தல்	-531
▁பர	-532
▁சம்ப	-533
ெய	-534
▁!	-535
▁தனது	-536
▁கரு	-537
▁நக	-538
▁ிருக்க	-539
▁தர	-540
ந்திர	-541
▁கண	-542
ியாக	-543
▁கட்ச	-544
▁தோ	-545
▁தேதி	-546
ிறார்கள்	-547
▁இய	-548
▁மக்கள்	-549
▁மாண	-550
▁ன	-551
ப்பை	-552
▁`	-553
▁தமிழக	-554
▁சென்னை	-555
வடி	-556
▁ஆத	-557
▁பழ	-558
▁கிடை	-559
▁ஷ	-560
தால்	-561
கம்	-562
▁மீது	-563
ப்படுத்த	-564
▁வரை	-565
▁பேச	-566
க்த	-567
போ	-568
வீ	-569
டம்	-570
▁சேர்ந்த	-571
▁முக்கிய	-572
க்கான	-573
▁போட்ட	-574
▁:	-575
▁குறை	-576
▁நோ	-577
▁போலீ	-578
▁பெரு	-579
▁டெ	-580
▁எதிர்	-581
ழா	-582
▁என்றும்	-583
ல்க	-584
ந்தை	-585
▁க்கு	-586
▁பாதி	-587
▁இல்லை	-588
▁நான்	-589
ரிச	-590
▁கள்	-591
▁அவர	-592
▁காங்க	-593
▁இன்று	-594
▁விவ	-595
▁விள	-596
▁உத	-597
எஸ்	-598
▁கூறி	-599
▁உண	-600
தியில்	-601
ங்கிய	-602
▁தற்போது	-603
▁விட்ட	-604
▁பாது	-605
▁ஸ்	-606
▁காங்கிர	-607
▁பாதுகா	-608
▁அரு	-609
ுக்கு	-610
▁அமைச்சர்	-611
மும்	-612
▁தொழ	-613
▁அளி	-614
▁நடவடி	-615
▁விரு	-616
▁மக	-617
▁6	-618
பதி	-619
ப்பட்டது	-620
▁கிர	-621
▁புக	-622
▁எந்த	-623
றைய	-624
ேய	-625
▁உலக	-626
▁பிறகு	-627
▁மட்டு	-628
ினார்	-629
▁தெரிவித்து	-630
▁பெற்ற	-631
▁அல	-632
ழ்ச	-633
▁வக	-634
ோத	-635
ர்களின்	-636
▁அறிவி	-637
▁தமிழ்நா	-638
ப்பட்டுள்ளது	-639
▁202	-640
றும்	-641
டியா	-642
▁தகவ	-643
ீர்	-644
ந்	-645
▁குற்ற	-646
ோர்	-647
ாளர்	-648
▁வந்து	-649
ாரம்	-650
மார்	-651
ட்ப	-652
▁சொல்ல	-653
ஆம்	-654
▁நேர	-655
ற்கொ	-656
▁செல்ல	-657
▁அள	-658
த்திர	-659
▁மூலம்	-660
▁பெய	-661
▁கூறு	-662
ப்படுகிறது	-663
▁உரு	-664
▁இலங்க	-665
நி	-666
▁அவர்கள்	-667
விட்ட	-668
▁யா	-669
▁7	-670
ம்ம	-671
▁ஸ்ட	-672
▁காரண	-673
யில்	-674
▁பிரி	-675
▁தலைவர்	-676
▁போன்ற	-677
ர்வு	-678
▁செயல்	-679
▁மருத்துவ	-680
ுடன்	-681
▁சென்ற	-682
▁அல்ல	-683
▁ுள்ள	-684
▁சந்தி	-685
▁ஆர	-686
▁மத்திய	-687
▁வய	-688
▁கொள்ள	-689
▁என்க	-690
▁நிர்	-691
▁ஆண்டுக	-692
▁தூ	-693
▁படி	-694
▁காவ	-695
ில்லை	-696
▁இல்ல	-697
கர்	-698
▁காங்கிரஸ்	-699
ளும்	-700
ாகி	-701
▁...	-702
▁உத்த	-703
▁முடிய	-704
▁நடவடிக்கை	-705
▁சமூ	-706
▁சர்	-707
▁வேலை	-708
வ்வ	-709
▁மொ	-710
்ப்ப	-711
▁அணி	-712
▁பார்த்த	-713
▁உள்ளிட்ட	-714
முறை	-715
▁முடியா	-716
▁போரா	-717
▁அதை	-718
சு	-719
▁நிறுவன	-720
▁அதிமுக	-721
▁விசார	-722
ாதார	-723
▁நிலை	-724
ையே	-725
▁கூறிய	-726
▁திர	-727
மதி	-728
▁கூட	-729
▁வெளி	-730
▁வாய	-731
▁கட்சி	-732
▁வும்	-733
னார்	-734
▁அதே	-735
▁அதிகாரி	-736
பர்	-737
போது	-738
ற்காக	-739
ங்கே	-740
ள்ளி	-741
ணைய	-742
ளாக	-743
▁தேர்தல்	-744
▁பிரதமர்	-745
▁முய	-746
த்துக்கு	-747
▁களை	-748
ஜி	-749
▁நடத்த	-750
▁சமூக	-751
லிய	-752
▁வைத்து	-753
▁கவ	-754
ண்டும்	-755
வதாக	-756
க்காக	-757
▁மாத	-758
▁ஏற்படுத்த	-759
▁செல்	-760
ெரிக்க	-761
▁இரண்டு	-762
வரை	-763
▁கண்ட	-764
▁அமெரிக்க	-765
டும்ப	-766
▁ஒன்ற	-767
▁திமுக	-768
▁குடும்ப	-769
▁அண	-770
வேறு	-771
▁பேசிய	-772
▁மேற்கொ	-773
விய	-774
தும்	-775
▁19	-776
▁அரசியல்	-777
ந்தி	-778
▁பல்	-779
▁புதிய	-780
▁உத்தர	-781
▁எம்	-782
▁தின	-783
▁விட	-784
ரீ	-785
ரின்	-786
▁எடுத்து	-787
▁மாற்ற	-788
▁விடு	-789
▁இதனால்	-790
ோடு	-791
▁10	-792
▁அவரது	-793
வரும்	-794
க்கள்	-795
ப்பில்	-796
▁ஆய	-797
்து	-798
▁சார்	-799
▁ுக	-800
யா	-801
▁குழந்தை	-802
▁கூறுக	-803
▁நடி	-804
▁பட்ட	-805
▁பெரிய	-806
ஜ்	-807
ாவது	-808
ற்கான	-809
▁பயன்ப	-810
ாள்	-811
ப்பது	-812
ென	-813
ச்சை	-814
க்கொ	-815
▁அழை	-816
▁இதில்	-817
ள்க	-818
ுள்ளது	-819
▁இருக்கிறது	-820
▁சென்று	-821
▁கல்	-822
▁கூற	-823
▁இஸ்	-824
▁?	-825
▁கீ	-826
▁ஸ	-827
▁நினை	-828
▁நேற்று	-829
▁வார	-830
▁பல்வேறு	-831
ிலிருந்து	-832
▁பேர்	-833
▁விழா	-834
▁ஆர்	-835
▁பகுதி	-836
ேயே	-837
▁பக்த	-838
தான	-839
▁பார்க்க	-840
▁ஆதர	-841
▁நிலைய	-842
▁அப்போது	-843
▁நீதிமன்ற	-844
▁காண	-845
ெட்	-846
▁செய்	-847
விர	-848
▁8	-849
▁வழி	-850
▁கட்டு	-851
▁மீண்டும்	-852
▁ஆய்	-853
▁அதன்	-854
▁முதல்வர்	-855
▁வழக்கு	-856
▁முறை	-857
▁வாழ	-858
▁எல்ல	-859
▁மன	-860
▁ஆம்	-861
▁கலந்து	-862
▁பெண	-863
ையின்	-864
▁வெற்றி	-865
▁களு	-866
▁லட்ச	-867
ாங்க	-868
கே	-869
▁தெரிய	-870
▁இற	-871
▁201	-872
▁உற	-873
▁முதல	-874
▁இணை	-875
டுப	-876
▁பிடி	-877
▁9	-878
▁வைத்த	-879
▁ிருந்த	-880
▁இன்ன	-881
▁தொடர்பாக	-882
த்துறை	-883
▁ரஷ	-884
▁திரும	-885
▁நடந்த	-886
▁வீர	-887
கை	-888
▁தீர்	-889
▁நடைபெற்ற	-890
▁வாய்ப்ப	-891
▁போராட்ட	-892
▁பால	-893
ள்ளனர்	-894
▁தய	-895
▁ஃ	-896
ட்டும்	-897
▁தேசிய	-898
ன்க	-899
▁பொறு	-900
▁அதிகரி	-901
▁பாதுகாப்பு	-902
▁திற	-903
டுகள்	-904
▁நிர்வாக	-905
பை	-906
▁வழக்க	-907
க்கல்	-908
யில	-909
▁ரஷ்ய	-910
டைந்த	-911
▁மட்டுமே	-912
▁பொருள	-913
▁பயன்படுத்த	-914
▁பெற்று	-915
சை	-916
▁ஈடுப	-917
▁இந்	-918
ிற்க	-919
▁கேள்	-920
▁விசாரணை	-921
▁இலங்கை	-922
▁அடுத்த	-923
▁அனைத்து	-924
▁மர	-925
ழுவ	-926
▁தெரிவித்தார்	-927
ர்ந்து	-928
ரான	-929
▁நிகழ்ச	-930
ிறேன்	-931
வெ	-932
ிகளை	-933
▁எட	-934
▁ிரு	-935
▁சிறப்பு	-936
▁குழு	-937
▁வாக்கு	-938
▁சுவ	-939
▁அதில்	-940
▁தாக	-941
▁இப்போது	-942
ற்றிய	-943
▁அல்லது	-944
ிட்டு	-945
▁நடந்தது	-946
நாய	-947
▁இதை	-948
▁வருகின்றனர்	-949
தான்	-950
▁வகையில்	-951
▁காரணமாக	-952
ுள்ளார்	-953
▁என்பதை	-954
ிரி	-955
▁யின்	-956
▁நிய	-957
ிருக்கிறது	-958
யம்	-959
▁மறு	-960
▁பெண்	-961
ளுமன்ற	-962
▁அக	-963
க்கப்பட்டு	-964
லுக்கு	-965
▁துறை	-966
டியாக	-967
ல்கள்	-968
▁தெரிவித்த	-969
▁இருந்தது	-970
▁)	-971
▁கோவி	-972
▁செயல்ப	-973
▁எடப்பா	-974
ிறோம்	-975
▁நல்ல	-976
▁சோ	-977
ஷ்ட	-978
த்தம்	-979
▁கைது	-980
ளா	-981
▁கூறினார்	-982
▁என்றார்	-983
▁கருத்து	-984
▁தங்க	-985
▁நிறை	-986
▁பின்னர்	-987
▁அங்கு	-988
▁முடிவு	-989
▁ஏற்பட்ட	-990
▁அங்க	-991
லோ	-992
▁கிராம	-993
சிக	-994
தற்கு	-995
▁சிறு	-996
்ட்	-997
ட்டின்	-998
▁வெளியே	-999
▁எடப்பாடி	-1000
▁யை	-1001
ியர்	-1002
▁விட்டு	-1003
▁தனி	-1004
▁தொகு	-1005
▁மது	-1006
▁கேள்வி	-1007
▁``	-1008
▁வேண்டிய	-1009
ச்சு	-1010
தில்	-1011
▁எடுக்க	-1012
▁தன்	-1013
▁மெ	-1014
▁கடை	-1015
வான	-1016
நிலையில்	-1017
களுக்கு	-1018
▁முழு	-1019
▁பணி	-1020
▁முயற	-1021
▁மிகவும்	-1022
ிருக்கிறார்	-1023
▁விஷ	-1024
▁முடியும்	-1025
▁செலு	-1026
▁சிவ	-1027
▁யில்	-1028
ஸ்ட்	-1029
லாக	-1030
▁யோ	-1031
▁மாதம்	-1032
▁மின்	-1033
▁டெல்ல	-1034
▁தாக்கு	-1035
தாகவும்	-1036
▁ரூப	-1037
சாய	-1038
தே	-1039
▁கோடி	-1040
ற்றை	-1041
▁விதி	-1042
ாகு	-1043
▁பார்	-1044
மையான	-1045
டியோ	-1046
ினர்	-1047
▁எப்படி	-1048
ையாக	-1049
▁செய்யப்பட்ட	-1050
த்தது	-1051
▁அனுமதி	-1052
▁விமான	-1053
மது	-1054
▁உருவா	-1055
▁அலுவ	-1056
▁குறித்த	-1057
தியாக	-1058
ையடுத்து	-1059
▁வாக	-1060
ரோனா	-1061
க்கா	-1062
▁தேவ	-1063
னாதி	-1064
ணுவ	-1065
▁கொரோனா	-1066
ளவு	-1067
▁நாம்	-1068
▁அதற்கு	-1069
▁களுக்கு	-1070
▁ஜெய	-1071
▁காவல	-1072
▁அப்ப	-1073
▁வச	-1074
மையாக	-1075
▁ஆட்ச	-1076
▁முன்னாள்	-1077
▁ஜனாதி	-1078
▁செயலா	-1079
▁தவ	-1080
▁ஆளு	-1081
பர	-1082
விட	-1083
நர்	-1084
க்கூ	-1085
▁தமிழ்நாடு	-1086
▁ா	-1087
விட்டு	-1088
▁சிக	-1089
▁ராம	-1090
▁மருத்துவம	-1091
▁பதிவு	-1092
▁ட்	-1093
▁தொழில்	-1094
க்கிறது	-1095
▁என்கிறார்	-1096
▁பற்றி	-1097
▁தலைமை	-1098
▁விவசாய	-1099
ஸ்க	-1100
▁மதி	-1101
▁முடியாது	-1102
ச்சா	-1103
ட்டிய	-1104
▁முக	-1105
▁களில்	-1106
▁இதற்கு	-1107
ரவ	-1108
▁;	-1109
டக	-1110
ண்ட்	-1111
னித	-1112
ாலின்	-1113
▁கொடுத்த	-1114
ீடு	-1115
ளம்	-1116
▁தகவல்	-1117
▁நாங்கள்	-1118
▁பழனி	-1119
கார	-1120
▁பூஜ	-1121
▁களின்	-1122
▁பொருளாதார	-1123
வதற்கு	-1124
ிருந்தார்	-1125
▁நான	-1126
▁இஸ்ரே	-1127
▁கொள்க	-1128
▁இந்நிலையில்	-1129
ரியா	-1130
▁உயர்	-1131
சிர	-1132
ண்ணி	-1133
டாது	-1134
000	-1135
▁சத	-1136
சாமி	-1137
றையில்	-1138
▁பதவி	-1139
எல்	-1140
▁விமர்	-1141
ிலான	-1142
▁உரி	-1143
▁நாடுக	-1144
▁ஸ்ரீ	-1145
▁பகுதியில்	-1146
மல்	-1147
னுக்கு	-1148
ருக்கும்	-1149
▁முழுவ	-1150
▁ஒருவர்	-1151
▁நடந்து	-1152
▁தேர்தலில்	-1153
▁எதிராக	-1154
▁நெரு	-1155
▁ஒன்று	-1156
▁உணவு	-1157
தியை	-1158
▁குறிப்பிட	-1159
▁அமெரிக்கா	-1160
▁மணிக்கு	-1161
ண்டி	-1162
ியாள	-1163
▁அடிப்பட	-1164
▁பாட	-1165
ராஜ	-1166
▁மும்	-1167
ப்பின	-1168
க்கப்பட்டது	-1169
▁ஒவ்வ	-1170
▁முன்பு	-1171
▁களும்	-1172
டுப்ப	-1173
▁கேட்ட	-1174
▁காலை	-1175
▁லா	-1176
▁நிறு	-1177
▁யாக	-1178
▁எனவே	-1179
ிலேயே	-1180
▁பக்தர்கள்	-1181
▁ரி	-1182
க்கோ	-1183
ப்பாக	-1184
▁வீடியோ	-1185
▁கன	-1186
▁கோவில்	-1187
பிஎஸ்	-1188
ைப்பட	-1189
▁12	-1190
்க்க	-1191
▁மாணவ	-1192
▁வங்க	-1193
▁அவரை	-1194
▁உடன	-1195
ளுடன்	-1196
▁நிதி	-1197
▁ரஷ்யா	-1198
▁பெரும்	-1199
▁நாட்க	-1200
▁சங்க	-1201
▁சிகி	-1202
▁அண்ண	-1203
▁விஜ	-1204
▁நடத்தி	-1205
▁மி	-1206
▁பிரச்	-1207
ையான	-1208
▁மூன்று	-1209
▁வளர்	-1210
▁ஏற்க	-1211
▁ஆட்சி	-1212
",	-1213
▁ஜன	-1214
▁ஆய்வு	-1215
▁போக	-1216
நிலை	-1217
▁ராணுவ	-1218
ங்களின்	-1219
ர்த்து	-1220
▁சார்ப	-1221
நீ	-1222
▁நிகழ்	-1223
ேக	-1224
▁தீவிர	-1225
▁கர்	-1226
▁தை	-1227
ிருக்கும்	-1228
▁அவருக்கு	-1229
▁a	-1230
▁அதிகாரிகள்	-1231
படி	-1232
த்தா	-1233
▁காரணம்	-1234
▁ஆயிர	-1235
▁உயிரி	-1236
▁இரண்ட	-1237
▁வேறு	-1238
▁மட்டும்	-1239
கன்	-1240
▁தடை	-1241
▁காவல்து	-1242
▁இவ	-1243
ரிக்கை	-1244
▁பெற	-1245
▁மோடி	-1246
▁15	-1247
▁ஜூ	-1248
▁கடி	-1249
▁செய்யும்	-1250
▁ஒரே	-1251
▁குறிப்பிட்ட	-1252
▁சொன்ன	-1253
ாரா	-1254
▁பாரா	-1255
ாடு	-1256
த்துடன்	-1257
ஸ்தான	-1258
▁ஜனாதிபதி	-1259
▁புது	-1260
மையில்	-1261
▁ஒவ்வொரு	-1262
ப்ட	-1263
▁பயண	-1264
▁உள்ளன	-1265
▁இதன்	-1266
ங்கும்	-1267
மீ	-1268
ுகள்	-1269
▁கொள்	-1270
▁கல்ல	-1271
▁மனை	-1272
▁எனக்கு	-1273
ஸ்தான்	-1274
▁உச்ச	-1275
▁சுற்று	-1276
▁ராகு	-1277
▁இன்னும்	-1278
▁விளையா	-1279
▁அபி	-1280
▁சூழ	-1281
னில்	-1282
ன்கள்	-1283
▁எதிர்க	-1284
▁இந்தப்	-1285
ரிடம்	-1286
வாள	-1287
ந்த்	-1288
▁குரு	-1289
▁உண்	-1290
சார்	-1291
▁உடல்	-1292
▁கடு	-1293
▁அம்	-1294
▁துணை	-1295
ல்லாம்	-1296
▁ஊழ	-1297
▁கல்வி	-1298
▁ஜெ	-1299
▁ஆட்ட	-1300
▁தமிழ	-1301
▁சுமார்	-1302
▁முழுவதும்	-1303
▁கும்	-1304
ானி	-1305
▁நாள்	-1306
▁இப்படி	-1307
▁சம்பவம்	-1308
▁ரூபாய்	-1309
▁வின்	-1310
ம்பு	-1311
▁உதவி	-1312
▁பரி	-1313
▁வேட்ப	-1314
▁சிகிச்சை	-1315
▁இந்து	-1316
▁கொலை	-1317
▁தொழில	-1318
▁மை	-1319
▁குடிய	-1320
ாமி	-1321
▁வயது	-1322
▁11	-1323
▁போலீஸ	-1324
▁நு	-1325
▁பூஜை	-1326
ஞ்சா	-1327
▁தேர்வு	-1328
ரல்	-1329
▁இடங்களில்	-1330
ப்போ	-1331
ம்மன்	-1332
▁இவர்	-1333
▁நேரத்தில்	-1334
▁நிர	-1335
▁க்கும்	-1336
▁டெல்லி	-1337
ன்னு	-1338
▁சம்பவ	-1339
▁நாடு	-1340
▁கோயில்	-1341
▁யான	-1342
ம்பர்	-1343
ணா	-1344
▁மனித	-1345
▁உறுதி	-1346
▁i	-1347
▁நாடா	-1348
▁ஏன்	-1349
▁பரிச	-1350
▁செல	-1351
▁மோச	-1352
▁வருகிறார்	-1353
கள	-1354
▁ஸ்டாலின்	-1355
ர்ம	-1356
▁வட	-1357
ப்பெ	-1358
▁தொடர்பான	-1359
▁மாக	-1360
▁சீனா	-1361
▁நம்பி	-1362
▁நாடாளுமன்ற	-1363
▁அலுவலக	-1364
▁தொடங்கிய	-1365
ஸ்ப	-1366
▁விசா	-1367
த்துக்	-1368
▁கீழ்	-1369
▁நம்	-1370
க்கெ	-1371
▁தங்கள்	-1372
▁தேவை	-1373
▁மத	-1374
▁வில	-1375
▁சரிய	-1376
▁கொடுக்க	-1377
,000	-1378
▁உயிரிழ	-1379
▁இழ	-1380
▁தெரிவிக்க	-1381
▁லட்சம்	-1382
ாளர்கள்	-1383
▁இறு	-1384
ிகளில்	-1385
▁பங்கே	-1386
▁ரயில்	-1387
▁விரும்ப	-1388
ியுள்ளது	-1389
▁நிகழ்ச்ச	-1390
வன்	-1391
ோதனை	-1392
▁கூட்டணி	-1393
▁ஆலோ	-1394
▁பிரதேச	-1395
▁யே	-1396
வாத	-1397
▁பள்ளி	-1398
▁இளை	-1399
நிதி	-1400
▁கோயில	-1401
▁வீட்டில்	-1402
▁பேர	-1403
▁யு	-1404
▁பாகி	-1405
▁விற	-1406
ட்கள்	-1407
▁காந்தி	-1408
ருந்து	-1409
ார்த்த	-1410
▁வாகன	-1411
பத்தில்	-1412
▁மேல்	-1413
▁பார்த்து	-1414
னின்	-1415
▁விலை	-1416
த்துள்ளது	-1417
▁ி	-1418
▁இளைஞ	-1419
ள்ளன	-1420
▁பள்ள	-1421
▁இதையடுத்து	-1422
▁ரோ	-1423
▁அரசாங்க	-1424
▁ஆணைய	-1425
லர்	-1426
▁ார்	-1427
▁செய்தி	-1428
ங்கா	-1429
ினி	-1430
▁அதிர்	-1431
பாடு	-1432
▁ங்கள	-1433
மைச்ச	-1434
லின்	-1435
▁மைய	-1436
▁கேட்டு	-1437
ழமை	-1438
▁பீ	-1439
்டர்	-1440
ர்த்தி	-1441
▁அடை	-1442
களின்	-1443
▁ும்	-1444
▁மேற்ப	-1445
▁மாவட்டம்	-1446
▁மேற்கொள்ள	-1447
▁கூறப்படுகிறது	-1448
ஸ்வர	-1449
ினும்	-1450
ேற்ற	-1451
▁போர்	-1452
ப்புகள்	-1453
▁அப	-1454
▁வாங்க	-1455
▁புற	-1456
▁எண்ண	-1457
க்குறி	-1458
ியது	-1459
▁பெண்கள்	-1460
வார்	-1461
▁கண்டு	-1462
▁கெ	-1463
▁சிங்	-1464
▁வாழ்	-1465
▁பை	-1466
▁சரி	-1467
▁குடி	-1468
ளுக்கும்	-1469
▁விரை	-1470
▁வந்தது	-1471
த்தக்க	-1472
▁பந்து	-1473
▁செய்யப்பட்டு	-1474
▁படை	-1475
▁எண்ணி	-1476
▁நூ	-1477
்தான்	-1478
சே	-1479
ஆர்	-1480
▁போட்டிய	-1481
▁இணைய	-1482
▁ஓபிஎஸ்	-1483
▁",	-1484
தற்காக	-1485
த்தக	-1486
வதை	-1487
▁இன்	-1488
▁பிரச்னை	-1489
▁வர்	-1490
▁பெண்க	-1491
▁பெரும்ப	-1492
▁உறுப்பின	-1493
▁மட்டும	-1494
▁ஜோ	-1495
▁அற	-1496
▁எதிர்க்க	-1497
▁இந்தியாவில்	-1498
▁அதிகார	-1499
▁வாழ்க்க	-1500
வதேச	-1501
▁சர்வதேச	-1502
▁னர்	-1503
▁வள	-1504
▁கண்க	-1505
▁விஷய	-1506
ட்டுக்கு	-1507
▁ஆன	-1508
ாலி	-1509
ெல்	-1510
▁மாலை	-1511
▁சார்பில்	-1512
▁கட்சியின்	-1513
சம்	-1514
▁தொடங்க	-1515
சன்	-1516
பிடி	-1517
▁உட்ப	-1518
ேஷ்	-1519
ெல்லாம்	-1520
▁கொடுத்து	-1521
▁ரீ	-1522
▁யார்	-1523
▁நீங்கள்	-1524
▁இங்கு	-1525
▁அரசிய	-1526
▁மண்ட	-1527
▁சாத	-1528
▁சொந்த	-1529
ியார்	-1530
▁இரவு	-1531
▁பக்க	-1532
▁அளவில்	-1533
▁ஆலோச	-1534
ீர	-1535
▁சுவாமி	-1536
▁சக	-1537
▁கல்லூ	-1538
▁போலீசார்	-1539
▁திருப்ப	-1540
▁நடைபெற்றது	-1541
▁மூல	-1542
▁துவ	-1543
▁சின்	-1544
ப்பாளர்	-1545
▁வைக்க	-1546
▁ஏற்பட்டு	-1547
கொ	-1548
▁பிபி	-1549
க்கில்	-1550
▁ப்பட்டு	-1551
வராக	-1552
▁அரசின்	-1553
▁அதேபோ	-1554
▁அடைய	-1555
▁வரலா	-1556
▁முறைய	-1557
விழா	-1558
▁18	-1559
▁எது	-1560
நாட்டு	-1561
▁பெயர்	-1562
▁அதன்ப	-1563
▁வில்	-1564
▁காவல்	-1565
▁ஒது	-1566
னும்	-1567
▁அருகே	-1568
னையில்	-1569
▁கூறுகிறார்	-1570
▁இதுவரை	-1571
▁தரு	-1572
▁திரும்ப	-1573
ிடையே	-1574
▁அனுப்ப	-1575
தலை	-1576
▁திட	-1577
ண்ப	-1578
▁பணம்	-1579
▁போல்	-1580
▁பரபர	-1581
ப்பதாக	-1582
▁உக்	-1583
▁மக்கள	-1584
▁200	-1585
▁கலை	-1586
▁செயலாளர்	-1587
▁ஆரம்பி	-1588
ுறு	-1589
▁ஜி	-1590
▁நப	-1591
▁ஏற்று	-1592
▁பயிற	-1593
▁அதிபர்	-1594
▁இதனை	-1595
▁நாய	-1596
ினால்	-1597
ர்களும்	-1598
▁காய	-1599
▁தீர்மான	-1600
▁மகி	-1601
▁மழை	-1602
▁வகு	-1603
▁கண்ண	-1604
▁அழைத்து	-1605
▁செலுத்த	-1606
▁யூ	-1607
▁நெருக்க	-1608
ம்பெ	-1609
▁மான	-1610
ந்துள்ளது	-1611
▁பல்க	-1612
▁வில்லை	-1613
▁வாய்ப்பு	-1614
▁வேக	-1615
ிருந்தது	-1616
▁எனக்	-1617
▁கொடு	-1618
▁இடையே	-1619
▁வன்	-1620
▁எனவும்	-1621
▁பல்கலை	-1622
▁தொடங்கி	-1623
▁சுக	-1624
ற்றில்	-1625
▁உக்ரை	-1626
▁சென்ன	-1627
▁புகார்	-1628
▁சமீ	-1629
▁ஆப	-1630
▁ஆளுநர்	-1631
ட்டா	-1632
▁ிருக்கிறது	-1633
மையை	-1634
ரன்	-1635
▁அப்படி	-1636
▁நாட்டின்	-1637
▁தொலை	-1638
▁உங்கள்	-1639
▁உரிமை	-1640
▁ரசிக	-1641
▁அதனால்	-1642
ாக்	-1643
▁என்றால்	-1644
▁வருகின்றன	-1645
ட்டர்	-1646
▁கிடைக்கும்	-1647
▁நம்ப	-1648
▁கொண்டா	-1649
▁நீதிபதி	-1650
நக	-1651
வியை	-1652
▁பொதும	-1653
▁ஃப	-1654
▁பிரச்ச	-1655
▁முதலமைச்ச	-1656
▁தொடர்பு	-1657
▁சந்திர	-1658
▁நிறைவே	-1659
ஷ்ண	-1660
▁இல்லாத	-1661
▁வெள்ள	-1662
▁உள்ளனர்	-1663
▁செல்லும்	-1664
ுத	-1665
▁இந்தக்	-1666
ஷன்	-1667
ோக	-1668
▁திட்டம்	-1669
▁நீர்	-1670
▁30	-1671
த்தால்	-1672
▁போட்டி	-1673
வாதி	-1674
▁s	-1675
▁செய்தனர்	-1676
லைய	-1677
▁வலிய	-1678
▁2022	-1679
ஃப்	-1680
▁ப்பட	-1681
▁முயற்சி	-1682
ன்னி	-1683
▁எடுத்த	-1684
▁தொகுதி	-1685
▁விவகார	-1686
▁தேர்	-1687
▁சர	-1688
▁தோல்	-1689
▁தலைவ	-1690
டர்	-1691
ராட்சி	-1692
▁குற்றம்	-1693
▁திருமண	-1694
▁நல	-1695
▁போலீஸார்	-1696
▁14	-1697
▁தவி	-1698
▁த்தை	-1699
▁வரி	-1700
▁மனைவி	-1701
▁பாதிப்பு	-1702
க்கப்படும்	-1703
▁வருட	-1704
க்ர	-1705
▁வைர	-1706
▁நேரம்	-1707
▁ஒப்ப	-1708
▁அமைப்பு	-1709
▁பேச்ச	-1710
▁தள	-1711
▁அதாவது	-1712
▁அளித்த	-1713
வாறு	-1714
▁ப்பட்ட	-1715
▁ஆகியோர்	-1716
▁மண	-1717
▁கைய	-1718
க்தி	-1719
க்களை	-1720
▁வீடு	-1721
மாறு	-1722
▁டா	-1723
▁ஊடக	-1724
▁இஸ்ரேல்	-1725
▁சேவை	-1726
▁மேற்பட்ட	-1727
▁50	-1728
▁வேண்டு	-1729
▁குறிப்பி	-1730
ியன்	-1731
▁மாட்ட	-1732
▁நடத்திய	-1733
▁ஆசிர	-1734
தள	-1735
▁இள	-1736
ேகம்	-1737
▁இடை	-1738
▁விற்ப	-1739
▁தான	-1740
காரம்	-1741
ர்களிடம்	-1742
▁கோரிக்கை	-1743
▁13	-1744
மொ	-1745
▁குறிப்பிடத்தக்க	-1746
சோ	-1747
▁விப	-1748
▁கேர	-1749
▁வலியுறு	-1750
▁இடம்	-1751
▁திருமணம்	-1752
▁அறிக்க	-1753
ிகா	-1754
▁இயக்கு	-1755
ரையா	-1756
▁இருக்கிறார்	-1757
மூ	-1758
ப்பின்	-1759
க்கார	-1760
▁விழு	-1761
▁நீண்ட	-1762
▁மூத்த	-1763
ப்பினர்	-1764
▁கார்	-1765
▁இடத்தில்	-1766
▁முன்ப	-1767
▁ஈடுபட்ட	-1768
▁சுத	-1769
ல்களை	-1770
வரின்	-1771
▁A	-1772
ர்களில்	-1773
▁கண்கா	-1774
தமாக	-1775
▁காலத்தில்	-1776
▁ஏற்படும்	-1777
▁ல்	-1778
ன்னீர்	-1779
▁அதிகமாக	-1780
▁க்கூ	-1781
▁பிரப	-1782
▁பெறு	-1783
ைகள்	-1784
▁பல்கலைக்க	-1785
▁எஸ்	-1786
▁நகர	-1787
மைப்பு	-1788
ப்த	-1789
க்கிர	-1790
▁தயாரி	-1791
▁என்பதால்	-1792
▁எப்போது	-1793
▁திருவிழா	-1794
மோ	-1795
▁செய்க	-1796
▁பிறந்த	-1797
▁பழனிசாமி	-1798
▁இந்தியாவின்	-1799
ீர்கள்	-1800
▁கேட்க	-1801
▁மறை	-1802
▁அந்தப்	-1803
ிரே	-1804
▁16	-1805
▁லி	-1806
நு	-1807
▁இதே	-1808
ளிக்க	-1809
▁பல்கலைக்கழக	-1810
▁மருத்துவமனை	-1811
▁நடைபெறும்	-1812
▁தமிழ்நாட்டில்	-1813
ிகளுக்கு	-1814
▁ரெ	-1815
▁t	-1816
▁கிடைக்க	-1817
ிரா	-1818
▁அதனை	-1819
▁பாலியல்	-1820
▁திட்டமி	-1821
▁எதிர்ப்பு	-1822
▁அடிப்படையில்	-1823
▁அன்று	-1824
▁ராகுல்	-1825
ாமலை	-1826
▁த்தில்	-1827
▁25	-1828
▁அட	-1829
வுகள்	-1830
▁இந்தத்	-1831
▁மனு	-1832
ரித்த	-1833
▁பகுதிகளில்	-1834
▁அறிக்கை	-1835
▁வழக்கில்	-1836
ுள்ளனர்	-1837
நீதி	-1838
புரம்	-1839
ூரில்	-1840
▁கர்நா	-1841
▁மதுரை	-1842
மெ	-1843
ப்பான	-1844
▁வரவே	-1845
▁மாணவி	-1846
வால்	-1847
▁குறிப்பாக	-1848
▁எதிரான	-1849
▁திரைப்பட	-1850
▁தனியார்	-1851
ஜா	-1852
ிலோ	-1853
▁அவர்களின்	-1854
▁வருமான	-1855
▁முயற்ச	-1856
▁சிலர்	-1857
வினர்	-1858
▁S	-1859
நாத	-1860
▁குற்றச்சா	-1861
▁வெளியிட்டு	-1862
▁நிறுவனம்	-1863
▁முக்கியமான	-1864
▁வசி	-1865
▁பங்கு	-1866
▁பணியா	-1867
த்தியில்	-1868
▁விமர்ச	-1869
▁ுள்ளது	-1870
வார்கள்	-1871
ட்டம்	-1872
▁ஆன்	-1873
▁பற்றிய	-1874
▁த்தின்	-1875
▁வேல	-1876
▁கட்டுப்பா	-1877
ருடன்	-1878
▁பிரதி	-1879
ங்கில	-1880
ந்தில்	-1881
▁கிள	-1882
▁இன்ற	-1883
ன்மை	-1884
▁மார்	-1885
படுத்த	-1886
▁என்னை	-1887
er	-1888
▁எதிர்ப	-1889
▁மாணவர்கள்	-1890
▁பயணம்	-1891
▁ஹி	-1892
▁ஆதி	-1893
▁தாக்குதல்	-1894
ன்றி	-1895
▁உற்ப	-1896
▁டீ	-1897
▁நிகழ்ச்சி	-1898
▁வலை	-1899
▁அதிகம்	-1900
தற்கான	-1901
ளித்த	-1902
▁டை	-1903
▁மேம்ப	-1904
▁நண்ப	-1905
▁எச்ச	-1906
ாது	-1907
▁17	-1908
▁எரி	-1909
▁ஷா	-1910
▁சொல்	-1911
▁வெடி	-1912
▁ஆதரவு	-1913
த்திலும்	-1914
▁இருப்பதாக	-1915
வின	-1916
▁சை	-1917
▁நடைபெற	-1918
▁தமிழகத்தில்	-1919
வரி	-1920
வாய	-1921
▁கூடாது	-1922
▁போக்கு	-1923
▁கொண்டிருந்த	-1924
லாத	-1925
▁அருக	-1926
▁இருந்தாலும்	-1927
த்தினர்	-1928
▁வெளியிட்ட	-1929
ாண	-1930
▁சொல்லி	-1931
▁வல	-1932
▁ராசி	-1933
த்திரி	-1934
▁போலீஸ்	-1935
த்தீ	-1936
▁நான்கு	-1937
▁போட்டு	-1938
▁நோய	-1939
▁நாளை	-1940
க்குழு	-1941
ங்கிணை	-1942
an	-1943
க்கப்பட	-1944
▁ஒருங்கிணை	-1945
▁தண்ட	-1946
க்கொள்ள	-1947
▁இணைந்து	-1948
▁அவர்களுக்கு	-1949
ரசு	-1950
▁பால்	-1951
▁நீதிமன்றம்	-1952
▁காட்ட	-1953
▁செய்தார்	-1954
▁ஆண்டுகளுக்கு	-1955
வார	-1956
▁0	-1957
▁இவ்	-1958
க்கப்பட்டுள்ளது	-1959
▁அவசிய	-1960
றித்து	-1961
யி	-1962
தேச	-1963
பம்	-1964
ஞ்சி	-1965
▁பதில்	-1966
டுவது	-1967
கோ	-1968
▁சனி	-1969
ழும்	-1970
▁ுள்ளனர்	-1971
ழ்த்த	-1972
▁வெளியாக	-1973
▁அவ்	-1974
ிருஷ்ண	-1975
▁புரி	-1976
▁கல்லூரி	-1977
▁கடன்	-1978
▁கோவிலில்	-1979
▁கடும்	-1980
▁பின்ன	-1981
க்கண	-1982
▁கால்	-1983
▁த்திற்கு	-1984
▁வடி	-1985
▁வந்தார்	-1986
ஷா	-1987
▁அடையாள	-1988
▁நிறுத்த	-1989
▁மாதி	-1990
▁கர	-1991
▁தென்	-1992
▁பதில	-1993
▁கணி	-1994
▁போன	-1995
▁சுதந்திர	-1996
பார்க்க	-1997
▁நாடுகள்	-1998
▁சட்டமன்ற	-1999
▁த்து	-2000
▁இனி	-2001
▁தால்	-2002
நுட்ப	-2003
▁எங்கள்	-2004
▁வெற்ற	-2005
▁இல்லாமல்	-2006
▁நாட்டில்	-2007
▁நடைபெற்று	-2008
லே	-2009
▁ஆறு	-2010
▁எல்லா	-2011
▁டாக	-2012
▁நாக	-2013
▁அம்மா	-2014
▁இறுதி	-2015
▁24	-2016
▁சதவீ	-2017
▁தண்ண	-2018
▁உட்பட	-2019
வில	-2020
▁கூட்டம்	-2021
▁சோதனை	-2022
▁பிபிசி	-2023
▁குழுவ	-2024
க்குறிப்பு	-2025
லியன்	-2026
▁மக்களுக்கு	-2027
ியான	-2028
▁அழு	-2029
▁பலர்	-2030
▁கூடிய	-2031
டல்	-2032
▁கூடு	-2033
...	-2034
▁ிருப்ப	-2035
▁ஏற்பாடு	-2036
▁ஜா	-2037
▁திக	-2038
▁படம்	-2039
▁காவல்துறை	-2040
▁பங்க	-2041
ப்பிர	-2042
▁தாக்க	-2043
▁இந்தச்	-2044
ஞர்	-2045
▁சட்டம்	-2046
▁பொருட்க	-2047
ப்பே	-2048
▁லாம்	-2049
டாக	-2050
▁முடியாத	-2051
▁கூறுகையில்	-2052
▁போராட்டம்	-2053
ாயம்	-2054
▁எண்ணிக்கை	-2055
நாயக	-2056
▁மகிழ்ச	-2057
▁வர்கள்	-2058
▁படக்குறிப்பு	-2059
ந்திய	-2060
▁உள்ளார்	-2061
▁மில்	-2062
▁சாலை	-2063
▁எல்லாம்	-2064
ரங்க	-2065
▁சின்ன	-2066
▁அனைவரும்	-2067
▁சந்தித்து	-2068
▁ரே	-2069
▁நகர்	-2070
▁அலங்க	-2071
▁முதலில்	-2072
ானது	-2073
ரித்து	-2074
வ்வளவு	-2075
நீதிமன்ற	-2076
▁கண்காணி	-2077
▁ஏரா	-2078
▁வெளியிட	-2079
▁உடனடியாக	-2080
on	-2081
ள்ளதாக	-2082
▁மீதான	-2083
▁குறைந்த	-2084
▁இருவரும்	-2085
ூர்வ	-2086
▁உள	-2087
▁ஆலோசனை	-2088
▁பாதிக்கப்பட்ட	-2089
▁பிரிவு	-2090
▁களையும்	-2091
▁கழி	-2092
▁புதி	-2093
▁நடக்கும்	-2094
ட்டிற்கு	-2095
▁தாக்கல்	-2096
▁இதன	-2097
▁வசதி	-2098
▁இருந்தார்	-2099
▁கண்டுபிடி	-2100
▁தொழில்நுட்ப	-2101
▁கிழ	-2102
ளமான	-2103
ப்படை	-2104
த்திட்ட	-2105
ானா	-2106
விற்கு	-2107
▁மேற்கு	-2108
▁சுகாதார	-2109
▁ஆண்டுகளாக	-2110
ஹி	-2111
▁பேசி	-2112
▁இடம்பெ	-2113
▁அர்	-2114
▁இருப்பினும்	-2115
▁தெரியா	-2116
▁பலரும்	-2117
▁எதிர்பார்க்க	-2118
▁புர	-2119
▁வன	-2120
▁தலைமைய	-2121
▁மலை	-2122
ியர்கள்	-2123
மார	-2124
▁சமா	-2125
▁தலைமையில்	-2126
▁தந்த	-2127
▁வருவதாக	-2128
க்குள்	-2129
▁ிருக்கிறார்	-2130
▁அவரின்	-2131
த்துவ	-2132
ருமான	-2133
ையிலான	-2134
▁தவற	-2135
▁சிக்க	-2136
▁தலைவர்கள்	-2137
▁ன்	-2138
ளுக்கான	-2139
தியின்	-2140
▁வுக்கு	-2141
▁காட்ச	-2142
▁கவு	-2143
த்தியா	-2144
தன்	-2145
க்கிழமை	-2146
ர்க்	-2147
▁ாத	-2148
▁ஒப்பந்த	-2149
▁விட்டது	-2150
க்கே	-2151
▁அவை	-2152
▁தரிச	-2153
மடைந்த	-2154
▁மூன்ற	-2155
▁ஆயிரம்	-2156
▁ஆண்டில்	-2157
▁எனது	-2158
ங்களும்	-2159
▁விமர்சி	-2160
▁தெரிவித்துள்ளது	-2161
▁முதலமைச்சர்	-2162
ஷேகம்	-2163
▁அம்ப	-2164
▁C	-2165
▁அதிகரித்து	-2166
ியும்	-2167
▁மகன்	-2168
▁உயிரிழந்த	-2169
▁ஞ	-2170
ன்னுடைய	-2171
▁அளவுக்கு	-2172
தோ	-2173
ிகை	-2174
▁தாய	-2175
▁தாய்	-2176
▁அவர்களை	-2177
▁விற்பனை	-2178
ுற	-2179
▁தவிர	-2180
▁விரி	-2181
▁சென்னையில்	-2182
நாள்	-2183
▁நடக்க	-2184
ோதைய	-2185
▁மகா	-2186
▁த்தான்	-2187
ஷி	-2188
▁நாள	-2189
▁புல	-2190
▁குமார்	-2191
▁முன்னிட்டு	-2192
மான்	-2193
▁அறிவு	-2194
▁கோவை	-2195
▁ஊர்	-2196
▁ங்க	-2197
களும்	-2198
▁பார்வ	-2199
▁ஏராளமான	-2200
▁மக்களின்	-2201
▁மத்தியில்	-2202
30	-2203
ப்புற	-2204
▁கிலோ	-2205
டியே	-2206
▁குறிப்பிட்டு	-2207
▁டன்	-2208
விட்டது	-2209
▁பாராளுமன்ற	-2210
ராஜ்	-2211
▁யுடன்	-2212
▁தேடி	-2213
ப்பிய	-2214
ரேந்திர	-2215
▁செய்வத	-2216
▁விஜய	-2217
▁கூட்டத்தில்	-2218
▁பாகிஸ்தான்	-2219
▁கூறியுள்ளார்	-2220
▁குஜ	-2221
றுத்த	-2222
▁மாவட்டத்தில்	-2223
▁நியமி	-2224
நே	-2225
▁இதுபோ	-2226
ண்டை	-2227
▁யார	-2228
▁40	-2229
▁தரப்பு	-2230
.1	-2231
குதி	-2232
னவே	-2233
▁கிரிக்க	-2234
▁நவ	-2235
▁ஆகியவ	-2236
▁களால்	-2237
▁காலம்	-2238
▁குஜரா	-2239
▁வாக்க	-2240
க்கொண்ட	-2241
▁கடுமையாக	-2242
ெய்	-2243
▁அனுப	-2244
நாயகர்	-2245
▁ஏற்பட்டது	-2246
▁கான்	-2247
▁முரு	-2248
▁ஓய்	-2249
▁தகவல்கள்	-2250
▁இப்ப	-2251
▁மாறி	-2252
த்தைச்	-2253
▁விளை	-2254
▁அறிமுக	-2255
▁கண்டி	-2256
▁மொத்த	-2257
ளவில்	-2258
▁ஏற்கனவே	-2259
ங்கல்	-2260
▁ஆவ	-2261
▁100	-2262
குறித்து	-2263
செல்	-2264
▁சிறுவ	-2265
ருடைய	-2266
▁கத	-2267
▁தன்னுடைய	-2268
▁பற	-2269
▁எடு	-2270
▁ஆண்டுகள்	-2271
▁ஆராய	-2272
ங்களாக	-2273
▁வண	-2274
▁T	-2275
▁பெருமா	-2276
என்	-2277
▁மாநக	-2278
▁உற்ச	-2279
▁முறையில்	-2280
▁மருத்துவமனையில்	-2281
.5	-2282
ன்றால்	-2283
▁கூட்டண	-2284
▁செய்தியாள	-2285
க்கணக்கான	-2286
▁சமய	-2287
தியான	-2288
▁பயிற்சி	-2289
▁மாநிலம்	-2290
▁முடியவில்லை	-2291
▁முறையாக	-2292
▁ஒப்பு	-2293
சில	-2294
▁ஹோ	-2295
தாவது	-2296
▁சிலை	-2297
ன்னீர்செல்	-2298
▁அண்ணாமலை	-2299
▁ரன்கள்	-2300
▁தெளி	-2301
▁கவன	-2302
த்தையும்	-2303
▁நீதிமன்றத்தில்	-2304
▁கழக	-2305
ியம்	-2306
விரு	-2307
ட்டத்தில்	-2308
றையை	-2309
▁நரேந்திர	-2310
பே	-2311
த்திரை	-2312
▁வேண்டாம்	-2313
▁குற்றச்சாட்டு	-2314
▁தந்தை	-2315
▁நோக்கி	-2316
▁அனுப்பி	-2317
▁உக்ரைன்	-2318
▁கவனம்	-2319
▁பகி	-2320
ிகளின்	-2321
▁கோயிலில்	-2322
▁த்துக்கு	-2323
▁M	-2324
▁களாக	-2325
▁விருது	-2326
டுகின்றன	-2327
▁பக	-2328
▁பிரதம	-2329
▁எதுவும்	-2330
ரான்	-2331
ன்பு	-2332
▁பகவ	-2333
▁போய்	-2334
▁திடீர	-2335
▁எழுந்த	-2336
▁இருப்பது	-2337
வல	-2338
▁உடை	-2339
▁ஸ்க	-2340
▁கடைசி	-2341
ஹா	-2342
த்தொ	-2343
▁தாகவும்	-2344
▁நம்பிக்கை	-2345
▁ஹெ	-2346
▁சகோத	-2347
ற்கை	-2348
▁ள்ள	-2349
▁விலக	-2350
▁பெண்ண	-2351
▁பட்டிய	-2352
▁போக்குவர	-2353
▁இயக்க	-2354
▁இருந்தால்	-2355
ற்றா	-2356
▁ஆரம்ப	-2357
at	-2358
நாத்	-2359
▁குழந்தைகள்	-2360
▁ேன்	-2361
▁க்கான	-2362
த்துள்ளார்	-2363
▁கள்ள	-2364
ஸ்திரே	-2365
▁களுடன்	-2366
சூ	-2367
▁உங்களுக்கு	-2368
▁முஸ்	-2369
▁தேவையான	-2370
▁வளர்ச்சி	-2371
▁B	-2372
▁லை	-2373
▁நமது	-2374
▁விவகாரம்	-2375
டுப்பு	-2376
▁சூரிய	-2377
▁திருவ	-2378
▁இன	-2379
▁இதுகுறித்து	-2380
நகர்	-2381
▁சசிக	-2382
▁மாற்று	-2383
▁சமீபத்தில்	-2384
▁ஏன	-2385
▁டே	-2386
ும	-2387
▁நாட்கள்	-2388
▁விரைவில்	-2389
த்ய	-2390
த்தனை	-2391
ன்களை	-2392
னையை	-2393
▁தொண்ட	-2394
▁காட்டு	-2395
த்தனர்	-2396
ப்படுத்தி	-2397
▁I	-2398
▁ோம்	-2399
▁காத்த	-2400
▁பிரபல	-2401
▁மிகப்பெ	-2402
▁22	-2403
டிக்க	-2404
்டு	-2405
▁மிர	-2406
▁ஐந்து	-2407
த்திற்க	-2408
ப்பம்	-2409
ற்றம்	-2410
▁கிட்ட	-2411
▁P	-2412
டியை	-2413
▁மற்றொரு	-2414
வோம்	-2415
ங்கை	-2416
▁வாங்கி	-2417
▁போட்டியில்	-2418
ரக	-2419
▁உள்	-2420
த்தும்	-2421
▁கொல்ல	-2422
▁ுள்ளன	-2423
▁மேற்கொண்ட	-2424
ந்தர	-2425
▁மோதி	-2426
▁முன்னெ	-2427
▁விசாரண	-2428
▁பாலா	-2429
en	-2430
▁பேரா	-2431
▁வங்கி	-2432
ிர்	-2433
ன்ஸ்	-2434
▁கப்ப	-2435
த்தகைய	-2436
▁எதிர்கொ	-2437
▁பொதுமக்கள்	-2438
க்கால	-2439
▁தன்னை	-2440
றையினர்	-2441
▁சேர்க்க	-2442
▁விர	-2443
வச	-2444
▁சட்டச	-2445
▁அம்மன்	-2446
▁யாரும்	-2447
▁சிறப்பாக	-2448
▁மாநா	-2449
▁வியா	-2450
▁இரண்டாவது	-2451
▁செய்வது	-2452
▁தாக்குத	-2453
▁21	-2454
▁ஈடுபட்டு	-2455
▁வாய்	-2456
▁கைப்ப	-2457
▁ஆகியோ	-2458
▁அடிக்க	-2459
▁சசிகலா	-2460
பக	-2461
புண	-2462
▁ரத்த	-2463
ிட்	-2464
▁மருந்து	-2465
க்கெட்	-2466
▁சிறந்த	-2467
பட்ச	-2468
▁கிடைத்த	-2469
▁செய்யப்பட்டது	-2470
ர்ட்	-2471
கிறார்	-2472
▁குறிப்பிட்டார்	-2473
மணி	-2474
ராம	-2475
▁கலா	-2476
▁சாதி	-2477
▁கும்ப	-2478
▁புகைப்பட	-2479
▁அய	-2480
ங்களிலும்	-2481
▁சுற்றுலா	-2482
▁ஒன்றை	-2483
▁23	-2484
▁மின்சார	-2485
▁எதிர்கால	-2486
▁ே	-2487
▁அப்பா	-2488
▁மட்டுமல்ல	-2489
▁சிர	-2490
மக்கு	-2491
நோ	-2492
சிங்க	-2493
▁வீரர்கள்	-2494
▁நடக்கிறது	-2495
▁மிகப்பெரிய	-2496
▁r	-2497
▁2024	-2498
▁பஞ்சா	-2499
ச்சினை	-2500
வருக்கும்	-2501
▁மாற	-2502
▁வார்த்த	-2503
▁நடிகர்	-2504
▁கௌ	-2505
▁செயலாள	-2506
▁ால்	-2507
▁விஜய்	-2508
▁குடியரசு	-2509
▁ரண	-2510
▁விடுதலை	-2511
வர்களுக்கு	-2512
or	-2513
சர்	-2514
மிட	-2515
▁சொத்து	-2516
▁டு	-2517
▁தயார	-2518
▁இஸ்லா	-2519
ிற்	-2520
லிதா	-2521
வுகளை	-2522
▁தாம	-2523
ங்களது	-2524
டியில்	-2525
▁டாக்டர்	-2526
▁பிரச்சினை	-2527
▁இம்	-2528
▁உடன்	-2529
▁சொல்க	-2530
▁எழுதிய	-2531
▁தடுப்ப	-2532
▁மொத்தம்	-2533
▁உற்பத்தி	-2534
சல்	-2535
▁ஆயுத	-2536
20	-2537
▁தல	-2538
▁மாற்றம்	-2539
▁விழாவில்	-2540
▁சிறை	-2541
▁இதற்க	-2542
▁செய்தது	-2543
▁ட்விட்ட	-2544
▁கலந்துகொ	-2545
▁கொள்கை	-2546
▁பேசினார்	-2547
▁ரு	-2548
▁காத	-2549
ரத்தில்	-2550
▁திடீரென	-2551
▁நிறைவேற்ற	-2552
▁அக்	-2553
ிலுள்ள	-2554
▁அதிர்ச்ச	-2555
▁சேர்ந்து	-2556
ிறு	-2557
▁பணிகள்	-2558
▁மேல	-2559
▁பட்	-2560
▁அந்தக்	-2561
▁ங்கள்	-2562
▁பேச்சுவ	-2563
▁அந்	-2564
▁பரு	-2565
▁பவு	-2566
வதால்	-2567
▁2023	-2568
▁விண்ண	-2569
▁மாநிலத்தில்	-2570
▁ஆண	-2571
ாலான	-2572
▁ஒதுக்க	-2573
▁எங்களுக்கு	-2574
▁பேச்சுவார்த்த	-2575
▁ஆஸ்திரே	-2576
▁எங்க	-2577
▁தொற்று	-2578
▁நாட்டு	-2579
▁நடைமுறை	-2580
▁மேற்கொண்டு	-2581
▁ோ	-2582
ற்றின்	-2583
▁நியூ	-2584
▁நிபுண	-2585
▁கடுமையான	-2586
ற்கொலை	-2587
▁தெரியவ	-2588
▁தற்கொலை	-2589
▁ஜெயல	-2590
▁பக்கம்	-2591
▁முன்வை	-2592
▁ுள்ளார்	-2593
தமான	-2594
▁ஜூலை	-2595
▁அடுத்து	-2596
▁ஏற்பட	-2597
▁கீழ	-2598
▁உதய	-2599
▁பந்துவீ	-2600
▁பாத	-2601
▁க்காக	-2602
▁அளவு	-2603
மண	-2604
ியோ	-2605
▁வகை	-2606
ப்பர்	-2607
▁ஆகும்	-2608
▁என்கிற	-2609
▁வாழ்க்கை	-2610
▁சுய	-2611
வியல்	-2612
▁கருத	-2613
▁தரிசனம்	-2614
▁இவர்கள்	-2615
தார	-2616
▁னு	-2617
நீர்	-2618
▁எதிர்க்கட்ச	-2619
ப்பிட	-2620
▁ஆதரவாள	-2621
▁ஜெயலலிதா	-2622
▁கிரிக்கெட்	-2623
▁அடைந்த	-2624
▁மார்ச்	-2625
▁எளி	-2626
ச்சே	-2627
ுகளை	-2628
▁இல்	-2629
▁கதை	-2630
▁எனத்	-2631
▁வழியாக	-2632
▁அக்க	-2633
▁நிர்வாகிகள்	-2634
▁மும்பை	-2635
▁பறி	-2636
▁அழி	-2637
▁பேராசிர	-2638
▁அரி	-2639
▁கவனி	-2640
▁நுழை	-2641
்களை	-2642
▁அச்ச	-2643
▁மகாரா	-2644
▁2021	-2645
▁சக்தி	-2646
▁ஆராய்ச	-2647
▁அதன்படி	-2648
ஞ்சம்	-2649
தையும்	-2650
▁சிறிய	-2651
வீன	-2652
▁போக்குவரத்து	-2653
ாலை	-2654
ரியில்	-2655
▁வேட்பாள	-2656
▁போட	-2657
▁தினம்	-2658
▁மக்களை	-2659
ரவை	-2660
▁பணியில்	-2661
த்தின	-2662
▁உறுப்பினர்	-2663
▁c	-2664
▁நடு	-2665
▁நிறைய	-2666
த்துவம்	-2667
▁அளிக்க	-2668
▁இருக்கிற	-2669
▁பொதுக்குழு	-2670
▁சூழ்	-2671
▁கொண்டனர்	-2672
▁முஸ்லி	-2673
▁ஏற்படுத்தி	-2674
ரமாக	-2675
▁வழங்கிய	-2676
▁இதுபோன்ற	-2677
▁சால	-2678
பட்ட	-2679
▁கொண்டார்	-2680
▁முன்னதாக	-2681
பார	-2682
▁லெ	-2683
▁சீன	-2684
▁விக்கெ	-2685
▁சேர்த்து	-2686
ீன்	-2687
▁மாகாண	-2688
▁பயன்படுத்தி	-2689
▁வருகிறார்கள்	-2690
ன்ட்	-2691
னோ	-2692
▁வகி	-2693
▁D	-2694
ெழு	-2695
▁ஜூன்	-2696
▁வென்ற	-2697
▁த்திற்க	-2698
▁வந்தனர்	-2699
▁அதேபோல	-2700
▁தனக்கு	-2701
▁அபிவிரு	-2702
▁வாழ்த்த	-2703
▁பேருந்து	-2704
▁கிழக்கு	-2705
▁அச	-2706
▁யால்	-2707
வருக்கு	-2708
▁வகுப்பு	-2709
ுமா	-2710
ுகிறது	-2711
▁நிதிய	-2712
▁பெருமாள்	-2713
்டோ	-2714
▁வீட்டு	-2715
▁முடிந்த	-2716
▁வழங்குவ	-2717
▁அறிக்கையில்	-2718
எம்	-2719
▁உரிய	-2720
▁ிருக்கும்	-2721
▁வெளிநாட்டு	-2722
னாக	-2723
▁மல	-2724
▁நபர்	-2725
த்தான்	-2726
ளுக்காக	-2727
னான	-2728
ன்னா	-2729
▁அறு	-2730
▁அதிர	-2731
ின்றது	-2732
▁விபத்து	-2733
▁விவகாரத்தில்	-2734
▁உண்மை	-2735
▁கிருஷ்ண	-2736
ந்தர்	-2737
ந்தா	-2738
ழிப்பு	-2739
▁2019	-2740
▁ஏற்ற	-2741
▁உருவாக்க	-2742
▁e	-2743
▁தலைவராக	-2744
மம்	-2745
க்கள	-2746
வுடன்	-2747
க்ஸ்	-2748
▁வலி	-2749
▁கட்டி	-2750
க்கூடிய	-2751
▁குறித்தும்	-2752
▁பகுதியை	-2753
ஷேக	-2754
▁விவர	-2755
தில்லை	-2756
▁குவி	-2757
▁பணத்தை	-2758
ராத	-2759
ையாது	-2760
வதற்கான	-2761
▁பாகிஸ்தான	-2762
▁சூழலில்	-2763
▁நிறுவனங்கள்	-2764
▁நிச்ச	-2765
ியாளர்	-2766
▁அருகில்	-2767
யர்	-2768
மித்	-2769
▁வர்த்த	-2770
▁பொறுத்த	-2771
▁அவர்கள	-2772
▁ஆண்டுகளில்	-2773
னல்	-2774
மிய	-2775
வுக	-2776
▁199	-2777
▁போதும்	-2778
▁in	-2779
ன்கொ	-2780
▁மரண	-2781
▁பண்ட	-2782
▁மாதிரி	-2783
▁N	-2784
▁டோ	-2785
▁விட்டார்	-2786
▁நாட்களுக்கு	-2787
ியாளர்கள்	-2788
▁பாக	-2789
ளியில்	-2790
▁னா	-2791
▁ஆவண	-2792
▁ஒலி	-2793
ின்றி	-2794
▁அவ்வ	-2795
▁பிள்ள	-2796
▁ஜனநாயக	-2797
▁தண்டனை	-2798
▁புரிந்து	-2799
செய	-2800
▁சிங்க	-2801
▁கையில்	-2802
▁கிடையாது	-2803
▁வழங்கப்படும்	-2804
:00	-2805
டுவதாக	-2806
▁சர்ச்சை	-2807
ar	-2808
▁எனும்	-2809
▁அதிகரிக்கும்	-2810
▁நிகழ்ச்சியில்	-2811
▁தண்ணீர்	-2812
▁ஆடி	-2813
ேத	-2814
▁கேரளா	-2815
திவு	-2816
▁சம்பந்த	-2817
▁நிலையத்தில்	-2818
▁சினி	-2819
ப்பதற்கு	-2820
ண்டே	-2821
▁ஏப்	-2822
▁வான	-2823
▁தெரிவித்தனர்	-2824
▁அதிகமான	-2825
▁திட்டத்தை	-2826
▁விடும்	-2827
▁விளக்க	-2828
▁விக்ர	-2829
▁கட்சிய	-2830
▁சரியாக	-2831
ன்னீர்செல்வம்	-2832
▁மொழி	-2833
▁ாமல்	-2834
▁ஆட்சியில்	-2835
▁R	-2836
▁மய	-2837
▁வலைதள	-2838
ற்றும்	-2839
▁உள்ளா	-2840
▁நிற்க	-2841
▁துப்பா	-2842
விகி	-2843
▁தவறு	-2844
▁திரா	-2845
▁ரணில்	-2846
▁பிரச்சனை	-2847
▁பெரும்பாலான	-2848
னே	-2849
ல்லா	-2850
▁சரியான	-2851
▁ங்களை	-2852
▁ரத்து	-2853
▁வழக்கறி	-2854
▁வட்ட	-2855
▁வளாக	-2856
▁பெங்கள	-2857
ீட்டு	-2858
த்தூர்	-2859
▁தரப்பில்	-2860
ந்துள்ள	-2861
▁சினிமா	-2862
▁நாளில்	-2863
▁ஏமா	-2864
▁குர	-2865
ந்தார்	-2866
▁இயக்குநர்	-2867
▁தலைமையிலான	-2868
▁பிப்	-2869
ுங்கள்	-2870
லாளர்	-2871
in	-2872
▁கும்பா	-2873
▁பொறுப்பு	-2874
▁வெளியாகி	-2875
▁சான்	-2876
▁அறிவிப்பு	-2877
▁வோ	-2878
▁தடுக்க	-2879
▁பெற்றோ	-2880
▁கூடுதல்	-2881
▁கும்பாபி	-2882
▁ப்படுகிறது	-2883
▁விளையாட்டு	-2884
▁வெளிநா	-2885
▁நகை	-2886
▁கடல்	-2887
▁பயணி	-2888
ரையில்	-2889
▁அரசுக்கு	-2890
▁கர்நாட	-2891
▁பேட்டி	-2892
▁முயன்ற	-2893
▁தொடங்கியது	-2894
▁அபிவிருத்தி	-2895
▁மால	-2896
முறைய	-2897
▁பில்	-2898
▁சதவிகி	-2899
▁தற்போதைய	-2900
▁பின்ப	-2901
▁அவசியம்	-2902
▁ஏற்பட்டுள்ளது	-2903
யூ	-2904
▁அவருடைய	-2905
▁இருக்கலாம்	-2906
ளிர்	-2907
▁ஸ்ப	-2908
ொருள்	-2909
▁ஒன்றாக	-2910
▁வித்தியா	-2911
ினா	-2912
▁மார	-2913
ல்களில்	-2914
▁ஜே	-2915
▁தொகை	-2916
▁செல்வ	-2917
▁சட்டசபை	-2918
▁பத்திரி	-2919
▁பரிந்து	-2920
▁முதலீடு	-2921
▁போட்டியிட	-2922
▁இலங்கையில்	-2923
▁1,	-2924
▁ப்படும்	-2925
▁நோக்க	-2926
▁புத்தக	-2927
▁எவ்வளவு	-2928
▁கூட்டு	-2929
▁வெள்ளி	-2930
▁கொண்டாட	-2931
ட்ரோ	-2932
▁எல்லை	-2933
▁மேற்க	-2934
▁சந்தித்த	-2935
▁எப்போதும்	-2936
▁குண	-2937
▁நிலைமை	-2938
ண்டா	-2939
▁ஹமா	-2940
▁நடத்து	-2941
ீப்	-2942
▁மகாராஷ்ட	-2943
▁கமி	-2944
▁குறு	-2945
திலும்	-2946
▁செயற்ப	-2947
விட்டார்	-2948
▁தேர்ந்த	-2949
▁தன்ன	-2950
▁மகிழ்ச்ச	-2951
▁ஒழு	-2952
▁உண்டு	-2953
▁தோல்வி	-2954
▁ரசிகர்கள்	-2955
▁27	-2956
ல்லி	-2957
▁படைய	-2958
▁பேட்ட	-2959
▁மாறிய	-2960
▁தொடக்க	-2961
▁பிடித்து	-2962
▁தெரியவில்லை	-2963
▁தெரியும்	-2964
▁தொடர்பில்	-2965
▁முன்னேற்ற	-2966
▁28	-2967
▁கம்ப	-2968
ப்பாடு	-2969
▁மாவட்டங்களில்	-2970
▁சப	-2971
▁உடனே	-2972
▁நோய்	-2973
▁பிரசார	-2974
▁நடவடிக்க	-2975
தர்	-2976
▁பரவ	-2977
ிகளும்	-2978
ும்போது	-2979
▁மோசமான	-2980
ஞ்சு	-2981
▁எடுத்துக்	-2982
▁l	-2983
▁அவச	-2984
▁அணியின்	-2985
▁ரீதியாக	-2986
▁பக்கத்தில்	-2987
▁மாநிலங்களில்	-2988
ஸா	-2989
▁ீ	-2990
▁காஷ்	-2991
▁தடுப்பூ	-2992
▁வன்முறை	-2993
▁வீட்டுக்கு	-2994
வெளி	-2995
▁இதற்காக	-2996
▁கர்நாடகா	-2997
வோ	-2998
ுமி	-2999
▁வு	-3000
▁டால	-3001
▁பேசுக	-3002
▁விக்ரம	-3003
▁ஆளுந	-3004
▁அதிகரிக்க	-3005
னியா	-3006
ற்கும்	-3007
▁திருத்த	-3008
▁பார்வைய	-3009
▁கொண்டிருக்க	-3010
ண்டர்	-3011
▁நட்ச	-3012
▁சுட்டி	-3013
▁நட்சத்திர	-3014
▁திரி	-3015
ப்பட்டுள்ள	-3016
புற	-3017
▁படுக	-3018
▁நெருக்கடி	-3019
▁ஹே	-3020
▁மதிப்ப	-3021
▁o	-3022
▁சுற்றி	-3023
ப்பார்கள்	-3024
ொட்டி	-3025
▁செந்தில்	-3026
▁26	-3027
▁கார்த்த	-3028
▁பங்கேற்ற	-3029
▁நிர்வாகம்	-3030
▁ஹை	-3031
▁களுக்கான	-3032
▁பரபரப்பை	-3033
▁எவ்	-3034
▁வரிச	-3035
▁கேப்ட	-3036
▁மருத்துவர்	-3037
▁ஆந்திர	-3038
க்கொண்டு	-3039
மிருந்து	-3040
▁சிறையில்	-3041
▁வழங்கி	-3042
▁புகார	-3043
▁இருக்கு	-3044
ணு	-3045
▁60	-3046
▁ஐக்கிய	-3047
▁ிருந்தது	-3048
▁சுட்டிக்கா	-3049
பாத்	-3050
▁அதன	-3051
மலை	-3052
த்தன	-3053
ர்களாக	-3054
▁செலவு	-3055
களையும்	-3056
▁பேச்சு	-3057
க்குப்	-3058
ெக	-3059
▁உரையா	-3060
▁நாடுகளில்	-3061
▁ரக	-3062
▁அழக	-3063
▁காட்சி	-3064
▁வழங்கும்	-3065
▁தள்ள	-3066
▁பரிசோதனை	-3067
▁பெரி	-3068
▁த்துடன்	-3069
▁பரிந்துரை	-3070
கைய	-3071
ழ்க	-3072
▁மீன	-3073
▁பண்ண	-3074
▁குழந்த	-3075
▁அதேபோல்	-3076
▁தெரிகிறது	-3077
மிற	-3078
எல்ஏ	-3079
▁களுக்கும்	-3080
▁முழுமையாக	-3081
▁இருக்கின்றன	-3082
▁தப்பி	-3083
ங்கியது	-3084
▁சந்திக்க	-3085
▁பிரா	-3086
▁ஒத்து	-3087
▁உருவாக	-3088
▁சார்ந்த	-3089
▁அதற்கான	-3090
▁குஜராத்	-3091
▁நிறுவனத்தின்	-3092
▁E	-3093
▁சபை	-3094
▁தட	-3095
டோ	-3096
▁கவலை	-3097
ஸ்வரர்	-3098
▁கடற்ப	-3099
▁பயங்க	-3100
த்தல்	-3101
▁திகதி	-3102
▁எம்எல்ஏ	-3103
▁நடைபெறு	-3104
▁இவை	-3105
▁வெங்க	-3106
▁இன்னொரு	-3107
▁p	-3108
▁ஆளும்	-3109
▁தேர்ந்தெ	-3110
ூர	-3111
▁பஞ்ச	-3112
▁களமிற	-3113
▁பொருட்கள்	-3114
▁ஆல	-3115
▁கோப	-3116
▁கன்ன	-3117
▁நாட்டை	-3118
▁தங்களது	-3119
▁பழைய	-3120
ரவரி	-3121
ாந்து	-3122
▁மோதல்	-3123
ீஸ்	-3124
▁ஷி	-3125
▁ஒளி	-3126
▁போதை	-3127
▁கண்டறிய	-3128
▁கட்சிகள்	-3129
▁தீர்ப்பு	-3130
▁பேச்சுவார்த்தை	-3131
ுவை	-3132
▁ஓர்	-3133
ின்று	-3134
▁உட்க	-3135
▁பெட்ரோ	-3136
▁அலங்கார	-3137
ட்ஸ்	-3138
▁மீன்	-3139
வதற்காக	-3140
▁மதிப்பு	-3141
▁வழக்கம்	-3142
ிருந்தனர்	-3143
▁பொருட்களை	-3144
▁விவசாயிகள்	-3145
al	-3146
ஜெ	-3147
▁டிச	-3148
▁ரவி	-3149
ாதாரண	-3150
வியில்	-3151
▁ார்கள்	-3152
▁நினைக்க	-3153
▁நேரடியாக	-3154
▁விநாயகர்	-3155
▁எதிர்த்து	-3156
▁சவ	-3157
▁வலு	-3158
▁தினமும்	-3159
▁இரண்டாம்	-3160
ளே	-3161
ளுடைய	-3162
▁ஆன்லை	-3163
▁கடிதம்	-3164
▁கலந்துரையா	-3165
்துறை	-3166
▁நீட்	-3167
ட்சித்	-3168
▁பதவிய	-3169
▁ஆங்கில	-3170
வாதம்	-3171
▁வீதி	-3172
ப்பும்	-3173
▁அங்கீ	-3174
▁செல்க	-3175
▁பகிர்ந்து	-3176
லாக்க	-3177
▁கிரக	-3178
▁ஓட்டு	-3179
▁வுடன்	-3180
▁என்னு	-3181
ஞ்	-3182
▁தில்	-3183
▁தீர்வு	-3184
லூர்	-3185
▁கொழும்	-3186
▁பிரதிநிதி	-3187
▁இடி	-3188
க்கர்	-3189
▁மகாராஷ்டிரா	-3190
▁ரொ	-3191
▁தம்ப	-3192
ப்பட்டன	-3193
▁நேரில்	-3194
▁குற்றம்சா	-3195
▁மட	-3196
▁அங்கே	-3197
▁அதைத்	-3198
▁மூலமாக	-3199
குதியில்	-3200
▁இவ்வாறு	-3201
▁பஞ்சாப்	-3202
▁பெயரில்	-3203
▁நாட்களில்	-3204
ுந்த	-3205
▁அமித்	-3206
▁உள்ளே	-3207
▁சூழல்	-3208
▁ஏப்ரல்	-3209
▁அரசாங்கம்	-3210
ாராய	-3211
▁ாலும்	-3212
▁நன்ற	-3213
▁இறந்த	-3214
▁ரூபாய	-3215
▁ஆகியவை	-3216
▁கொண்டே	-3217
▁தொகுதியில்	-3218
▁உறுப்பினர்கள்	-3219
கமாக	-3220
▁அதோடு	-3221
▁செயல்படுத்த	-3222
▁மொழ	-3223
▁செவ்வ	-3224
▁வெளியான	-3225
▁m	-3226
▁போய	-3227
▁திராவிட	-3228
.2	-3229
▁மீட்ப	-3230
▁தயாராக	-3231
▁மில்லியன்	-3232
▁்க	-3233
▁கணவர்	-3234
▁ுகிறது	-3235
▁படத்தில்	-3236
▁ராஜ்	-3237
▁ஆட்சியை	-3238
▁கொடி	-3239
▁உள்ளதாக	-3240
▁அழைத்துச்	-3241
ுறவு	-3242
▁பான	-3243
▁மீட்க	-3244
▁உத்தரவு	-3245
▁ங்களில்	-3246
▁தொடர்ச்ச	-3247
▁பக்தர்களுக்கு	-3248
▁அல்	-3249
▁பயங்கர	-3250
▁வெறும்	-3251
்டோபர்	-3252
புரி	-3253
▁கிற	-3254
▁ராஜா	-3255
▁கவுன்	-3256
ெனவே	-3257
▁பாண்ட	-3258
▁மரியா	-3259
▁பிரிட்ட	-3260
▁நம்பிக்க	-3261
▁இடம்பெற்ற	-3262
சாலை	-3263
நிலைய	-3264
▁உயர்த்த	-3265
▁ஏற்கெனவே	-3266
▁என்பவர்	-3267
▁லே	-3268
▁இலவச	-3269
▁சித்த	-3270
▁வருவது	-3271
▁பேராசிரியர்	-3272
மன்	-3273
▁உயிர்	-3274
▁வீழ்த்த	-3275
▁திருச்சி	-3276
▁குள	-3277
▁விய	-3278
▁வீச	-3279
▁கட்சியில்	-3280
▁ிற	-3281
▁சாத்திய	-3282
▁தீவிரமாக	-3283
▁நடவடிக்கைகள்	-3284
▁வைக்கப்பட்ட	-3285
இல்	-3286
▁சபா	-3287
▁சந்தேக	-3288
▁திட்டத்தின்	-3289
▁கௌரவ	-3290
ப்பதிவு	-3291
▁உள்ளூர்	-3292
▁அடிக்கடி	-3293
▁அணுக	-3294
▁வடிவ	-3295
▁தெரிந்து	-3296
▁பேசுவ	-3297
▁2020	-3298
▁புதுச்சே	-3299
மொழி	-3300
▁கோரி	-3301
▁சகோதர	-3302
ேக்	-3303
▁மரு	-3304
ஸ்டர்	-3305
சியில்	-3306
▁விவாத	-3307
▁பத்திர	-3308
ச்செய	-3309
▁எம்பி	-3310
▁இத்தகைய	-3311
▁ஒத்துழை	-3312
▁கொடுப்ப	-3313
சோதா	-3314
▁நமக்கு	-3315
▁வேகமாக	-3316
▁சேர்ந்தவர்	-3317
த்ரா	-3318
▁உங்க	-3319
ென்றால்	-3320
▁எண்ணெய்	-3321
▁விமர்சன	-3322
▁வாரம்	-3323
▁பிப்ரவரி	-3324
கிரி	-3325
▁செல்போ	-3326
▁நினைவு	-3327
▁நிகழ்வு	-3328
▁வேட்பாளர்	-3329
▁வாச	-3330
வித	-3331
ம்பா	-3332
ாய்வு	-3333
▁தமிழகம்	-3334
▁சித	-3335
▁செப்ட	-3336
▁சமர்	-3337
▁வரவேற்ப	-3338
▁வார்த்தை	-3339
▁பயன்	-3340
▁நிமிட	-3341
▁காட்டி	-3342
▁விஷயம்	-3343
▁கட்சியை	-3344
▁அலுவலகத்தில்	-3345
ரிமை	-3346
▁பிடித்த	-3347
▁அன்ப	-3348
▁வணிக	-3349
▁ுவது	-3350
▁உறவின	-3351
▁ஆகஸ்ட்	-3352
▁இங்கில	-3353
▁முழுக்க	-3354
லியா	-3355
▁காப்பா	-3356
▁களிலும்	-3357
▁செயல்பட	-3358
▁ஏற்படுத்திய	-3359
றையும்	-3360
ேந்திர	-3361
▁மண்டல	-3362
ம்பர	-3363
வாய்	-3364
▁அலை	-3365
▁விந	-3366
வாளர்	-3367
▁வலுவ	-3368
வர்களை	-3369
▁மசோதா	-3370
▁முகமது	-3371
▁சேர்த்த	-3372
ர்களுடன்	-3373
▁செயல்பட்டு	-3374
டுகிறார்	-3375
ினம்	-3376
▁ஆதரவாக	-3377
▁ஆதார	-3378
▁இங்கே	-3379
▁அமைச்சர்கள்	-3380
ஸை	-3381
▁மகள்	-3382
ப்பூர்	-3383
▁வழிபாடு	-3384
▁இருப்பதால்	-3385
▁கிராமத்தில்	-3386
▁எனப்	-3387
▁பணிய	-3388
▁ஓய்வு	-3389
▁நடத்தினர்	-3390
▁உதவ	-3391
▁இன்றைய	-3392
▁(2	-3393
▁உறவு	-3394
▁போலவே	-3395
்குமார்	-3396
▁உலகின்	-3397
▁வித்தியாச	-3398
பய	-3399
ஸி	-3400
▁வேத	-3401
▁அண்ணா	-3402
▁ஆணையம்	-3403
▁சட	-3404
▁காரை	-3405
வையில்	-3406
டுகளில்	-3407
▁சாப்பிட	-3408
▁சட்டத்தின்	-3409
.,	-3410
வக	-3411
ம்ஸ்	-3412
▁ஆரோ	-3413
▁கனடா	-3414
▁பதவியை	-3415
▁முடிவுகள்	-3416
▁ிருந்தார்	-3417
▁அங்கிருந்து	-3418
▁மருத்துவமனைக்கு	-3419
ரால்	-3420
▁பராம	-3421
▁நின்று	-3422
▁மாற்றி	-3423
▁டெல்லியில்	-3424
▁ஊழிய	-3425
▁அடித்து	-3426
▁உச்சநீதிமன்ற	-3427
nd	-3428
ம்பரம்	-3429
▁விக்ரமசிங்க	-3430
ண்ணை	-3431
▁இசை	-3432
ற்கால	-3433
▁தெலு	-3434
▁யானை	-3435
▁தியாக	-3436
▁வைரஸ்	-3437
ால்தான்	-3438
▁வங்கதேச	-3439
▁போட்டிகளில்	-3440
▁அன்ற	-3441
▁கட்டண	-3442
▁மூலாத	-3443
▁ஹமாஸ்	-3444
▁யிலும்	-3445
▁இஸ்லாமிய	-3446
▁விசாரணையில்	-3447
ஹ்	-3448
▁தர்ம	-3449
டைந்து	-3450
▁ஒற்றை	-3451
▁கருணா	-3452
▁கர்நாடக	-3453
ட்டப்பட்ட	-3454
▁அடையாளம்	-3455
▁அதிர்ச்சி	-3456
▁எழுதி	-3457
▁நகரில்	-3458
▁பெறும்	-3459
▁பேருக்கு	-3460
வேளை	-3461
▁அத்துடன்	-3462
▁பதிவிட்டு	-3463
▁ஏற்படுத்தும்	-3464
▁போராட்டத்தில்	-3465
▁29	-3466
▁ஏழு	-3467
▁பல்ல	-3468
▁பிரச	-3469
▁சர்மா	-3470
க்கப்பட்டுள்ள	-3471
▁வீரர்	-3472
▁கணக்கு	-3473
▁மூலாதாரம்	-3474
்தா	-3475
▁ஓடி	-3476
▁னார்	-3477
▁விற்க	-3478
▁பழங்கு	-3479
▁விசாரித்த	-3480
ண்மை	-3481
▁இழு	-3482
▁உழை	-3483
▁அரசியல	-3484
▁அமலாக்க	-3485
▁முன்பாக	-3486
ியம்மன்	-3487
▁யாத	-3488
▁சாமி	-3489
ணியில்	-3490
▁மோசடி	-3491
▁வருகை	-3492
க்கூடாது	-3493
▁லீ	-3494
▁காவி	-3495
▁முடிந்தது	-3496
ராஜன்	-3497
ட்டல்	-3498
▁காலி	-3499
▁விடுத்து	-3500
▁விளக்கம்	-3501
▁க்கூடிய	-3502
▁அரசியலில்	-3503
்பு	-3504
▁ஐரோ	-3505
வதில்	-3506
▁சிறி	-3507
▁மற	-3508
▁அணை	-3509
▁கம்	-3510
ர்களா	-3511
ிற்று	-3512
▁அன்ன	-3513
▁அறிவித்த	-3514
▁முடியாமல்	-3515
▁உலகம்	-3516
▁தரும்	-3517
▁படிக்க	-3518
▁அணிக்கு	-3519
▁ஒன்றில்	-3520
▁உயர்நீதிமன்ற	-3521
ூப்	-3522
▁கவி	-3523
ங்கம்	-3524
▁அறிய	-3525
▁இளைஞர்	-3526
டே	-3527
▁/	-3528
▁பெண்களுக்கு	-3529
ியே	-3530
தத்தை	-3531
▁வல்ல	-3532
▁ஒட்டு	-3533
▁ஜனவரி	-3534
▁பொதுவாக	-3535
▁அடிப்படை	-3536
▁எதிர்பார்	-3537
▁இளம்	-3538
▁வீட்ட	-3539
▁வெளியுறவு	-3540
இந்த	-3541
க்கட்ட	-3542
▁விதமாக	-3543
▁அக்டோபர்	-3544
▁மாநகராட்சி	-3545
▁இருக்கிறார்கள்	-3546
▁நடவடிக்கைகளை	-3547
▁G	-3548
சரி	-3549
ிலி	-3550
▁ர்	-3551
ங்களால்	-3552
ப்படவில்லை	-3553
▁ரை	-3554
▁பணிகளை	-3555
▁அளித்து	-3556
▁ங்களும்	-3557
▁கொட	-3558
விடம்	-3559
▁கிரி	-3560
▁பாலாஜி	-3561
▁இடைய	-3562
▁தலைய	-3563
▁சென்றனர்	-3564
▁(1	-3565
▁198	-3566
▁கடவு	-3567
▁பள்ளியில்	-3568
▁V	-3569
▁d	-3570
சில்	-3571
▁விண்	-3572
தத்தில்	-3573
▁இதனிடையே	-3574
▁ஃப்	-3575
▁சது	-3576
திகள்	-3577
▁ஆனாலும்	-3578
▁ற	-3579
▁இங்க	-3580
▁பெட்ரோல்	-3581
ஷம்	-3582
ையம்	-3583
▁ஊழல்	-3584
▁உதவிய	-3585
▁வெப்ப	-3586
வரையும்	-3587
▁சாதாரண	-3588
▁அனைத்தும்	-3589
வள	-3590
▁சல	-3591
ஜித்	-3592
▁தொடர்ச்சியாக	-3593
▁அவற்றை	-3594
▁வடக்கு	-3595
▁31	-3596
▁உண்ட	-3597
ில்தான்	-3598
▁என்னுடைய	-3599
▁வீட்டிற்கு	-3600
▁சேக	-3601
▁பெயரை	-3602
▁ஆரோக்கிய	-3603
▁எழுந்தரு	-3604
▁யிலிருந்து	-3605
▁விக்கெட்டு	-3606
வுட்	-3607
ங்கானா	-3608
▁அமைச்சரவை	-3609
▁என்றாலும்	-3610
▁கட்டுப்படுத்த	-3611
▁சிபி	-3612
▁தமது	-3613
▁கொடிய	-3614
▁திருந	-3615
▁பொருத்த	-3616
▁கொடுக்கும்	-3617
க்கணி	-3618
சிக்க	-3619
▁அம்ம	-3620
▁அடித்த	-3621
▁அமைக்க	-3622
▁பிடிக்க	-3623
▁டிசம்பர்	-3624
▁கலந்துகொண்ட	-3625
பட	-3626
ீன	-3627
▁ஒன்றிய	-3628
▁குறைவாக	-3629
▁அதிமுகவில்	-3630
▁அனைவருக்கும்	-3631
▁வழங்கப்பட்டது	-3632
வரு	-3633
▁விசே	-3634
▁புதிதாக	-3635
ருப்த	-3636
▁நடிகை	-3637
▁முற்ற	-3638
▁காலமாக	-3639
▁விடுத்த	-3640
▁அதிருப்த	-3641
முத	-3642
▁விருப்ப	-3643
▁விரும்புக	-3644
▁கொல்லப்பட்ட	-3645
வதி	-3646
▁சாதனை	-3647
▁முத்து	-3648
▁முக்கியத்துவம்	-3649
ரிகள்	-3650
▁யிடம்	-3651
▁தூக்கி	-3652
▁கொண்டது	-3653
▁அபிஷேகம்	-3654
▁இடையிலான	-3655
▁சென்றார்	-3656
▁மூன்றாவது	-3657
▁திட்டங்கள்	-3658
▁அழ	-3659
▁உயிர	-3660
▁வயதான	-3661
ப்பிரமண	-3662
▁பாஜகவின்	-3663
▁துப்பாக்கி	-3664
▁L	-3665
▁தொக	-3666
த்தைப்	-3667
▁வழக்கை	-3668
▁தீர்த்த	-3669
ஸில்	-3670
▁அரை	-3671
▁முன	-3672
▁வானி	-3673
றையின்	-3674
▁நன்றாக	-3675
▁ரயில்வே	-3676
▁வாழ்த்து	-3677
▁கூறுகின்றனர்	-3678
▁வர்த்தக	-3679
▁பொறுத்தவரை	-3680
▁ுகிறார்கள்	-3681
▁செய்யப்படும்	-3682
பாக	-3683
டனான	-3684
ிழமை	-3685
▁ஆச்ச	-3686
▁தெரு	-3687
▁கேப்டன்	-3688
▁தகவல்களை	-3689
▁நாட்களாக	-3690
விக்க	-3691
▁பாலி	-3692
▁இறந்து	-3693
▁அவரிடம்	-3694
▁பொதுச்செய	-3695
.30	-3696
▁திறந்து	-3697
▁ங்களுக்கு	-3698
▁முடிவுக்கு	-3699
▁F	-3700
ையோ	-3701
▁லோ	-3702
▁மைதான	-3703
▁ஒப்படை	-3704
▁துறையில்	-3705
▁ஆச	-3706
▁அஸ்	-3707
▁லக்	-3708
▁சிக்	-3709
▁நன்மை	-3710
▁பகவான்	-3711
▁கொஞ்சம்	-3712
▁ஆட்சிக்கு	-3713
▁ட்விட்டர்	-3714
▁எச்சரிக்கை	-3715
▁தெய்	-3716
▁காதல்	-3717
▁தவிர்க்க	-3718
▁h	-3719
▁தக	-3720
▁கண்	-3721
▁பத்து	-3722
▁முதன்	-3723
▁த்தால்	-3724
▁சமர்ப்பி	-3725
▁சொந்தமான	-3726
▁அறை	-3727
ப்பன்	-3728
▁நீடி	-3729
▁அன்பு	-3730
ையிலும்	-3731
▁பெற்றது	-3732
▁பயணிகள்	-3733
▁எல்	-3734
▁களே	-3735
▁தானே	-3736
▁மாணவர்	-3737
▁வழக்கறிஞர்	-3738
▁சன	-3739
▁மீட்டர்	-3740
ணும்	-3741
▁ஆத்	-3742
ெனில்	-3743
▁போதே	-3744
▁நன்றி	-3745
▁மையம்	-3746
▁பிரதான	-3747
க்குமார்	-3748
am	-3749
▁‛	-3750
ாடி	-3751
▁ள்	-3752
▁இதன்ப	-3753
▁பூஜைகள்	-3754
▁மாதத்தில்	-3755
▁பயிற்ச	-3756
▁ஏற்படுத்தியது	-3757
ஃப	-3758
▁சஞ்ச	-3759
▁நியம	-3760
▁ஆசிரியர்	-3761
▁திட்டமிட்டு	-3762
ணய	-3763
தியம்	-3764
▁மீட்பு	-3765
▁குடியரசுத்	-3766
வூ	-3767
மழை	-3768
▁35	-3769
வரான	-3770
▁உயர	-3771
▁மாள	-3772
ண்டில்	-3773
▁ரன்களை	-3774
▁கொள்ளும்	-3775
▁வைத்தார்	-3776
▁முர	-3777
▁குதி	-3778
▁இலங்கையின்	-3779
▁சம்பந்தப்பட்ட	-3780
ரூ	-3781
▁்	-3782
ச்சார	-3783
ந்தைய	-3784
▁தொடர	-3785
▁அதிகாலை	-3786
த்தே	-3787
▁ரன்	-3788
முதல்	-3789
▁வருமானம்	-3790
▁இருந்தனர்	-3791
▁ராஜஸ்தான்	-3792
▁மாணவர்களுக்கு	-3793
மலா	-3794
▁எழுத	-3795
▁துடன்	-3796
▁நிலையம்	-3797
▁முன்னர்	-3798
ணன்	-3799
▁ஆண்	-3800
▁தடுப்பூசி	-3801
லால்	-3802
▁இதேபோ	-3803
▁பதிலாக	-3804
▁செயல்பா	-3805
▁வரலாற்று	-3806
▁கிடைத்தது	-3807
es	-3808
▁நெடு	-3809
▁ஸ்தான	-3810
▁மிகுந்த	-3811
▁வாக்குகள்	-3812
ளான	-3813
்பா	-3814
▁ுப	-3815
ழில்	-3816
▁பசு	-3817
களைப்	-3818
▁திரும்பி	-3819
▁ுகின்றனர்	-3820
ப்பிடி	-3821
▁எல்லோ	-3822
▁சீரிய	-3823
▁இதுதான்	-3824
▁செப்டம்பர்	-3825
ோட	-3826
▁இறை	-3827
▁சவு	-3828
ினாமா	-3829
▁கடின	-3830
▁புனித	-3831
▁அழைப்பு	-3832
▁ஆன்லைன்	-3833
▁ுவதற்கு	-3834
▁பூர்	-3835
ப்பூர்வ	-3836
▁கடந்து	-3837
▁ப்பட்டது	-3838
க்கர	-3839
▁கதா	-3840
▁இதுத	-3841
▁ராம்	-3842
▁நிவார	-3843
▁பதிவாக	-3844
▁கொண்டுவ	-3845
▁ஒதுக்கீடு	-3846
▁u	-3847
▁ஹா	-3848
ப்பதை	-3849
▁கிறி	-3850
▁கோர	-3851
▁குரல்	-3852
▁எழுப்ப	-3853
▁த்திலும்	-3854
▁ரஜ	-3855
▁முட	-3856
மூலம்	-3857
▁வன்கொ	-3858
▁தனியாக	-3859
▁கொழும்பு	-3860
▁ஏவுக	-3861
▁வன்கொடு	-3862
▁பெற்றோர்	-3863
▁ப்படவில்லை	-3864
.4	-3865
▁v	-3866
▁தாண்டி	-3867
▁படுத்த	-3868
▁பொதுச்	-3869
▁தெரியவந்தது	-3870
▁துரு	-3871
▁கல்யா	-3872
▁மகளிர்	-3873
▁வானிலை	-3874
திக	-3875
▁ஆஜ	-3876
▁அஞ்ச	-3877
▁சேலம்	-3878
▁முதலீ	-3879
ரெ	-3880
▁அப்	-3881
▁ரூபா	-3882
▁சிக்கிய	-3883
▁ராஜினாமா	-3884
டுக்கப்பட்ட	-3885
▁என்கிறார்கள்	-3886
▁வெளிப்படுத்த	-3887
பக்	-3888
ழுது	-3889
▁அதிப	-3890
▁நவீன	-3891
ட்டினார்	-3892
பான	-3893
ுகொ	-3894
▁70	-3895
▁ரயில	-3896
▁மேலாக	-3897
▁சதவீதம்	-3898
▁படத்தின்	-3899
▁வருகிறோம்	-3900
▁வலைதளங்களில்	-3901
ச்சூ	-3902
▁அவசர	-3903
▁கில்	-3904
நாயக்க	-3905
▁நடித்த	-3906
▁கேட்டுக்	-3907
▁ஊழியர்கள்	-3908
▁ஆஸ்திரேலியா	-3909
மக	-3910
▁சவால	-3911
▁அச்சு	-3912
▁முருக	-3913
▁தடுப்பு	-3914
▁துவங்கியது	-3915
்ட்ட	-3916
▁கீழே	-3917
விடும்	-3918
▁வீசிய	-3919
▁சிக்கி	-3920
▁நல்லது	-3921
ஸின்	-3922
ாராம்	-3923
▁நிரூ	-3924
▁பத்திரிகைய	-3925
மொத்த	-3926
▁ிறது	-3927
▁காந்த	-3928
▁ஜனாதிப	-3929
ப்பிரிக்க	-3930
▁வன்கொடுமை	-3931
▁ஒட்டுமொத்த	-3932
சேனா	-3933
நேரம்	-3934
▁பந்த	-3935
▁உள்ப	-3936
▁பார்வை	-3937
▁தங்களுக்கு	-3938
▁விசாரணைக்கு	-3939
▁தும்	-3940
ியுள்ள	-3941
▁பொருள்	-3942
▁போன்றவ	-3943
நல	-3944
▁என்றே	-3945
▁முன்னே	-3946
▁இந்தியாவுக்கு	-3947
வைத்	-3948
டியான	-3949
▁எத்தனை	-3950
▁சர்ச்ச	-3951
▁உதயநிதி	-3952
▁கட்டணம்	-3953
▁சாலையில்	-3954
▁டொ	-3955
ராட்ச	-3956
▁சதவீத	-3957
▁இயற்கை	-3958
▁சிறுமி	-3959
▁வாய்ந்த	-3960
▁அப்படியே	-3961
▁பங்கேற்க	-3962
▁தனிப்பட்ட	-3963
்த்	-3964
▁காலக	-3965
▁ஆக்கிர	-3966
ிலிருந்த	-3967
▁n	-3968
்யா	-3969
▁சௌ	-3970
த்தட்ட	-3971
மில்லை	-3972
ரிப்பு	-3973
▁போகும்	-3974
▁பிறப்பி	-3975
ங்களையும்	-3976
▁ிருக்கிறார்கள்	-3977
வேன்	-3978
த்தான	-3979
▁அருள்	-3980
▁தீர்மானம்	-3981
ணமாக	-3982
▁2018	-3983
▁ுகிற	-3984
▁நின்ற	-3985
▁இருந்தன	-3986
▁எனினும்	-3987
▁ஆக்கிரமி	-3988
▁எண்ணிக்க	-3989
▁கோலி	-3990
▁விசாரிக்க	-3991
▁ஆப்	-3992
▁னால்	-3993
▁குண்ட	-3994
▁கூறும்	-3995
▁அறநிலைய	-3996
▁விமர்சனம்	-3997
▁செய்துள்ளார்	-3998
கால	-3999
▁குமார	-4000
▁சற்று	-4001
▁வட்டார	-4002
▁முதல்வராக	-4003
▁கொண்டிருக்கிறது	-4004
▁இரா	-4005
▁தேச	-4006
ம்பரிய	-4007
▁டெஸ்ட்	-4008
▁தெளிவாக	-4009
▁பொங்கல்	-4010
▁காவல்துறையினர்	-4011
ிங்	-4012
▁75	-4013
▁நொ	-4014
வரது	-4015
▁ஆயு	-4016
▁சும	-4017
▁போன்	-4018
▁ஒழுங்கு	-4019
▁ஆராய்ச்சி	-4020
▁முழ	-4021
▁ான்	-4022
▁பிற்ப	-4023
▁நூற்றா	-4024
▁நவம்பர்	-4025
▁நிறுத்தி	-4026
▁கிட்டத்தட்ட	-4027
கும்	-4028
▁ட்ட	-4029
▁உரிமைய	-4030
▁பாரம்பரிய	-4031
▁எதிர்பார்த்த	-4032
▁மாதங்களுக்கு	-4033
▁விச	-4034
▁ஆஃப்	-4035
▁மன்ன	-4036
▁கோப்பை	-4037
ஸ்டாலின்	-4038
▁திட்டங்களை	-4039
▁ஆகி	-4040
▁வசூ	-4041
▁சிவா	-4042
▁கொல்க	-4043
▁திடீர்	-4044
▁இதற்கான	-4045
▁இளைஞர்கள்	-4046
▁பார்க்கலாம்	-4047
சன	-4048
ion	-4049
▁னை	-4050
▁ஆப்க	-4051
▁கற்ப	-4052
▁கேது	-4053
▁வால்	-4054
ளையும்	-4055
▁தொழிற	-4056
வாய்ப்ப	-4057
▁என்பதே	-4058
▁கூறுகிறது	-4059
டிவி	-4060
▁கேம	-4061
▁திண்டு	-4062
▁பேரும்	-4063
பன்னீர்செல்வம்	-4064
▁அகில	-4065
▁ஆர்வ	-4066
▁மீட்ட	-4067
▁விடம்	-4068
▁விற்கு	-4069
▁அங்குள்ள	-4070
▁கொல்கத்தா	-4071
▁கள்ளக்குறி	-4072
▁மேம்படுத்த	-4073
ஞ்ஞ	-4074
வேல்	-4075
▁ஜென	-4076
▁ஞாய	-4077
ாகும்	-4078
▁உணர்	-4079
▁வாங்கிய	-4080
▁த்திலிருந்து	-4081
▁மருத்துவர்கள்	-4082
▁குடும்பத்தினர்	-4083
்ச்ச	-4084
▁ரகசிய	-4085
▁தெரிந்த	-4086
▁நிச்சயம்	-4087
▁கொண்டிருக்கும்	-4088
▁பாதை	-4089
▁பங்களி	-4090
▁செலுத்தி	-4091
▁முஸ்லிம்	-4092
▁வாய்ப்புகள்	-4093
புறம்	-4094
▁சிறும	-4095
▁பண்ணி	-4096
▁வரலாறு	-4097
▁80	-4098
▁பிள்ளை	-4099
▁தொடரில்	-4100
▁ிருக்கின்றனர்	-4101
லன்	-4102
லான	-4103
▁ச்ச	-4104
▁தயா	-4105
▁பிள	-4106
▁கேரள	-4107
▁இலக்கு	-4108
▁போன்று	-4109
▁நாடுகளின்	-4110
▁செய்துள்ளனர்	-4111
he	-4112
▁b	-4113
விரோ	-4114
▁கலவர	-4115
▁சமீப	-4116
▁தகுதி	-4117
▁முருகன்	-4118
▁ஏற்பாடுகளை	-4119
வரில்	-4120
▁காணி	-4121
▁விகி	-4122
ப்பதற்காக	-4123
ic	-4124
▁சன்	-4125
▁மாறு	-4126
▁தவறான	-4127
▁ஏதாவது	-4128
▁களிடம்	-4129
▁நிறைவு	-4130
▁பிரதேசத்தில்	-4131
▁ஜீ	-4132
▁மம	-4133
▁நடிக	-4134
▁நாராய	-4135
▁கட்டாய	-4136
▁செயற்கை	-4137
▁வாக்குறு	-4138
▁எதிர்கொள்ள	-4139
▁ஏற்பா	-4140
▁வயதில்	-4141
▁197	-4142
▁மோத	-4143
ச்சாமி	-4144
▁விஞ்ஞ	-4145
▁உணர்வு	-4146
▁தங்கம்	-4147
▁குறைக்க	-4148
ணர்வு	-4149
▁நாணய	-4150
▁உள்பட	-4151
▁சந்தை	-4152
▁அதற்காக	-4153
▁குடியிரு	-4154
டான	-4155
▁வது	-4156
▁சூர்	-4157
▁னின்	-4158
▁ஹிஜா	-4159
ப்பான்	-4160
▁வெல்ல	-4161
ர்களுக்கும்	-4162
▁O	-4163
ழிவு	-4164
ப்பாள	-4165
▁ஓட்ட	-4166
ங்கில்	-4167
▁அக்னி	-4168
களிலும்	-4169
▁ஏவுகணை	-4170
▁செய்துள்ளது	-4171
▁வசித்து	-4172
▁2,	-4173
வொரு	-4174
ாலின	-4175
▁500	-4176
▁உதார	-4177
▁நாட்ட	-4178
▁தமிழர்	-4179
க்கூடும்	-4180
விட்டால்	-4181
▁கட்சிக்கு	-4182
▁முது	-4183
ளிலும்	-4184
வதில்லை	-4185
▁தெற்கு	-4186
▁னுக்கு	-4187
ிருப்பது	-4188
▁ிருப்பது	-4189
▁இதற்கிடையே	-4190
▁சம்பவங்கள்	-4191
▁ன்னு	-4192
▁பேரை	-4193
த்திரம்	-4194
▁உயர்வு	-4195
▁கண்டறி	-4196
லிருந்து	-4197
▁தொடர்புடைய	-4198
▁புதுச்சேரி	-4199
ராஜா	-4200
▁கடற்க	-4201
த்திலேயே	-4202
▁தொடர்ந்த	-4203
▁ாது	-4204
▁அணிய	-4205
▁பரவி	-4206
▁நான்க	-4207
ையொட்டி	-4208
▁அமைச்சராக	-4209
▁போட்டியிட்ட	-4210
யல்	-4211
வளி	-4212
பட்டு	-4213
▁நம்ம	-4214
▁பருவ	-4215
▁அமைதி	-4216
▁மரியாதை	-4217
▁ுகிறார்	-4218
▁விட்டனர்	-4219
▁பந்துவீச்ச	-4220
▁f	-4221
ாலே	-4222
▁ஞான	-4223
▁அதிரடி	-4224
▁நம்புக	-4225
▁நினைத்த	-4226
▁வெற்றியை	-4227
▁நீதிபதிகள்	-4228
▁ப்பட்டுள்ளது	-4229
▁ராய	-4230
▁மயில	-4231
▁அறுவை	-4232
▁உலகக்	-4233
▁அறிவியல்	-4234
▁இருக்காது	-4235
▁வர்களுக்கு	-4236
▁கூட்டணியில்	-4237
▁நடைபெறுகிறது	-4238
வான்	-4239
ார்ட்	-4240
▁முடிந்து	-4241
▁சந்திப்பு	-4242
▁செய்துள்ள	-4243
▁நகர்ப்புற	-4244
டனும்	-4245
ந்தனை	-4246
▁தக்க	-4247
▁நிரூபி	-4248
▁இடையில்	-4249
▁தங்களின்	-4250
▁வசிக்கும்	-4251
ொடர்	-4252
▁இந்தி	-4253
▁காப்ப	-4254
▁செயலக	-4255
▁வழியில்	-4256
▁விண்வெளி	-4257
▁பெரும்பான்	-4258
ம்மா	-4259
ம்மு	-4260
▁பெய்ய	-4261
▁பேரில்	-4262
▁அதிகபட்ச	-4263
▁வைக்கும்	-4264
▁ஆதரவாளர்கள்	-4265
▁மசூ	-4266
▁உடலை	-4267
▁அழைக்க	-4268
▁அமைப்பின்	-4269
▁கழு	-4270
▁மனோ	-4271
▁ஆற்ற	-4272
▁தோடு	-4273
த்தைக்	-4274
▁முன்னில	-4275
▁இருப்பதை	-4276
▁இருந்தும்	-4277
▁மகிழ்ச்சி	-4278
▁தூத்துக்கு	-4279
ஸ்க்	-4280
▁சுழ	-4281
விலான	-4282
▁தயார்	-4283
▁சிவசேனா	-4284
▁படித்து	-4285
▁மன்	-4286
▁திணை	-4287
▁விக்	-4288
▁திறன்	-4289
▁பேசின	-4290
▁வெளியில்	-4291
▁வலியுறுத்தி	-4292
வகு	-4293
▁அன	-4294
▁னும்	-4295
▁திண்டுக்கல்	-4296
▁பயன்படுத்து	-4297
பன்	-4298
▁உர	-4299
▁மட்ட	-4300
▁ஆத்மி	-4301
ங்களிடம்	-4302
▁சட்டவிரோ	-4303
▁H	-4304
ஜன்	-4305
ியூ	-4306
▁ுமா	-4307
ுரிமை	-4308
▁ஜனதா	-4309
▁முகா	-4310
▁.....	-4311
▁திரைய	-4312
ிடமிருந்து	-4313
▁கொள்ளலாம்	-4314
▁பிராந்திய	-4315
▁இப்	-4316
தானம்	-4317
▁கற்று	-4318
▁ரொம்ப	-4319
▁பிபிசிய	-4320
க்குழுவ	-4321
▁ஆசிரிய	-4322
▁க்குள்	-4323
▁உள்துறை	-4324
▁கோவிலுக்கு	-4325
▁கனி	-4326
▁எரிப	-4327
▁முனை	-4328
▁ரன்க	-4329
▁இடைக்கால	-4330
▁கவுன்சில	-4331
▁ஆயிரக்கணக்கான	-4332
▁ராக	-4333
▁வெறு	-4334
▁பிரான்	-4335
▁தேர்தலை	-4336
▁வைத்திய	-4337
சீ	-4338
ேப	-4339
▁தற்கு	-4340
▁பாஜகவுக்கு	-4341
▁இருப்பதாகவும்	-4342
தீ	-4343
▁மூட	-4344
▁பட்டா	-4345
▁பிரசா	-4346
▁பிரிய	-4347
▁ப்படு	-4348
லத்தில்	-4349
▁இரட்டை	-4350
▁முந்தைய	-4351
▁திருக்கோ	-4352
▁குடும்பத்தின	-4353
▁பெரும்பாலும்	-4354
is	-4355
▁அறிக	-4356
▁ராணி	-4357
ப்படுக	-4358
▁கட்டட	-4359
▁சுரங்க	-4360
▁புற்று	-4361
▁ிருப்பதாக	-4362
▁""	-4363
மீர்	-4364
▁காம	-4365
▁ஜாம	-4366
▁2017	-4367
▁இயல்	-4368
▁துரை	-4369
▁மஞ்ச	-4370
வர்த்த	-4371
▁நீங்க	-4372
▁அழுத்த	-4373
▁வீட்டை	-4374
▁விபத்தில்	-4375
▁வேலைவாய்ப்ப	-4376
it	-4377
▁w	-4378
▁பாள	-4379
▁கவர்	-4380
▁வேளா	-4381
பையில்	-4382
▁உற்சாக	-4383
▁கூறியது	-4384
▁சொன்னார்	-4385
▁அனுமதிக்க	-4386
▁ஆகியவற்றை	-4387
▁பாய்	-4388
▁ராமர்	-4389
▁செல்வா	-4390
▁அணியில்	-4391
▁சூப்பர்	-4392
▁உயர்ந்து	-4393
▁விக்கெட்	-4394
▁விழிப்பு	-4395
ச்சல்	-4396
▁இராஜ	-4397
▁தோன்ற	-4398
▁மன்னி	-4399
▁வழிகா	-4400
▁நிலையை	-4401
▁அணிந்து	-4402
▁ராசிக்கார	-4403
ைப்	-4404
▁வண்ண	-4405
▁முடிவெ	-4406
▁முன்பே	-4407
▁மாதிரிய	-4408
▁காலங்களில்	-4409
▁பேசுகையில்	-4410
▁ஸ்த	-4411
குமார்	-4412
▁காஞ்சி	-4413
▁நானும்	-4414
▁இவ்வளவு	-4415
▁சார்பாக	-4416
▁அமெரிக்காவின்	-4417
றித	-4418
▁வேற	-4419
▁நாள்க	-4420
▁அமைந்த	-4421
▁தற்கால	-4422
▁அமைத்து	-4423
▁ஆந்திரா	-4424
▁விமானம்	-4425
▁அதிகாரம்	-4426
▁அழுத்தம்	-4427
▁இதுதொடர்	-4428
▁கட்டுமான	-4429
▁ராசிக்கு	-4430
▁கொடியேற்ற	-4431
▁ஆசை	-4432
▁அனுபவ	-4433
▁ுமாறு	-4434
▁விவாதி	-4435
▁அறிந்து	-4436
▁உண்மையில்	-4437
ப்படுகின்றன	-4438
க்களின்	-4439
▁அதுவும்	-4440
▁புறக்கணி	-4441
▁45	-4442
▁90	-4443
▁பெருமை	-4444
▁ராணுவம்	-4445
பூர்வ	-4446
▁முகாம	-4447
▁அந்தத்	-4448
▁எடுப்ப	-4449
▁வகையான	-4450
▁தேவையில்	-4451
▁வந்துள்ளது	-4452
த்திலிருந்து	-4453
▁சேத	-4454
▁தூத	-4455
▁வார்ட	-4456
▁விசேட	-4457
▁முடிவை	-4458
▁ங்களின்	-4459
▁வந்தால்	-4460
▁ஒப்புதல்	-4461
▁லோக	-4462
முள்ள	-4463
▁மீறி	-4464
▁படத்தை	-4465
▁முன்னோ	-4466
கின்றனர்	-4467
▁பரபரப்பு	-4468
▁செய்யப்பட	-4469
முரு	-4470
ிருப்ப	-4471
▁இறக்கு	-4472
▁வருகிற	-4473
▁தீர்மானி	-4474
▁கும்பாபிஷேகம்	-4475
▁வெளியிட்டுள்ள	-4476
▁எதிர்க்கட்சிகள்	-4477
▁அமல்	-4478
லாந்து	-4479
ாதாரம்	-4480
▁மேயர்	-4481
▁களத்தில்	-4482
வாற	-4483
▁அணு	-4484
▁டிஜ	-4485
▁தடு	-4486
▁தர்	-4487
லாமல்	-4488
▁சமாஜ்	-4489
▁நியாய	-4490
▁வளாகத்தில்	-4491
▁நாம	-4492
▁2014	-4493
▁புள்ளி	-4494
▁துறைமுக	-4495
▁முன்னணி	-4496
▁அனுப்பிய	-4497
▁ஏற்றுமதி	-4498
▁யாருக்கு	-4499
▁இங்கிலாந்து	-4500
ூரு	-4501
ொலை	-4502
னிதா	-4503
▁ஏழை	-4504
▁யோகி	-4505
▁அலுவலகம்	-4506
புர	-4507
வினை	-4508
▁ஜான்	-4509
▁உள்ளட	-4510
▁ுவார்கள்	-4511
▁ஈடுபட்டனர்	-4512
▁நேரங்களில்	-4513
▁பழனிச்சாமி	-4514
▁முன்னிலையில்	-4515
ங்கோ	-4516
னிவா	-4517
▁செயல	-4518
▁நபர்கள்	-4519
யமாக	-4520
▁..!	-4521
▁சேவ	-4522
ரம்ப்	-4523
ளையில்	-4524
▁தீபார	-4525
▁உறுதியாக	-4526
▁வெளியேறி	-4527
▁பில்லியன்	-4528
▁ிருக்கலாம்	-4529
▁மெட்	-4530
▁கருது	-4531
▁இணையதள	-4532
▁எங்களை	-4533
▁கையெழு	-4534
▁விடுமுறை	-4535
▁ுவதற்கான	-4536
▁நடத்தப்பட்ட	-4537
▁ஆடை	-4538
▁பாஸ்	-4539
▁மர்ம	-4540
▁மரணம்	-4541
▁வென்று	-4542
▁தொழிற்ச	-4543
▁செய்யலாம்	-4544
▁கோயிலுக்கு	-4545
▁கள்ளக்குறிச்சி	-4546
ினை	-4547
ல்ஸ்	-4548
▁கமல்	-4549
ையுடன்	-4550
▁பரிசு	-4551
▁காலநிலை	-4552
▁தாக்கிய	-4553
▁குற்றவாள	-4554
▁திருப்பி	-4555
▁அமைந்துள்ளது	-4556
.3	-4557
ற்ச	-4558
வடை	-4559
நான்	-4560
விட்	-4561
▁தீய	-4562
▁பர்	-4563
▁தண்ணீ	-4564
▁பவுண்ட	-4565
▁கட்சித்	-4566
▁தொழிலாள	-4567
▁விட்டதாக	-4568
▁அதிர்ச்சியை	-4569
▁குழந்தைகளுக்கு	-4570
திர்	-4571
▁ுதல்	-4572
▁எட்டு	-4573
▁தள்ளி	-4574
▁படங்கள்	-4575
▁இலங்கைக்கு	-4576
▁பட்டியலில்	-4577
செ	-4578
▁ஆட	-4579
▁சோழ	-4580
▁மிகப்	-4581
▁அறிந்த	-4582
பக்ச	-4583
மானது	-4584
▁மன்ற	-4585
▁இழந்த	-4586
▁ஆப்கானி	-4587
▁ராஜபக்ச	-4588
▁பகுதியாக	-4589
ணாம	-4590
▁கான	-4591
▁வின	-4592
▁தேனி	-4593
▁ஜம்மு	-4594
த்திற்கும்	-4595
▁செயல்பட்ட	-4596
ாசி	-4597
▁ஆணையர்	-4598
▁எழுப்பிய	-4599
▁செய்தால்	-4600
▁ஒப்பந்தம்	-4601
▁கலந்துரையாட	-4602
ள்ப	-4603
தலாக	-4604
்க்கு	-4605
▁கப்பல்	-4606
▁பெற்றார்	-4607
▁திருப்பதி	-4608
ரிக்கப்பட்ட	-4609
▁ப்படுகின்றன	-4610
ரிட	-4611
▁அண்	-4612
ஸ்கர்	-4613
▁சிரம	-4614
▁பிரே	-4615
▁புள்ள	-4616
ப்பிரதேச	-4617
▁வேண்டுமெ	-4618
▁உத்தரப்பிரதேச	-4619
▁செய்யப்பட்டார்	-4620
மற்ற	-4621
யிலை	-4622
▁சந்தோ	-4623
▁சாம்ப	-4624
▁மோகன்	-4625
▁வெள்ளை	-4626
வர்களின்	-4627
ேட்	-4628
▁),	-4629
▁நர	-4630
▁பலன்	-4631
▁தயாரிக்க	-4632
மிடம்	-4633
ையால்	-4634
▁சண்டை	-4635
▁இறங்கி	-4636
▁ஆட்சியர்	-4637
▁குறைந்து	-4638
▁தெரியாது	-4639
▁அதிகரித்துள்ளது	-4640
த்ரி	-4641
ட்சுமி	-4642
ிட்டல்	-4643
▁அகற்ற	-4644
▁தென்க	-4645
▁அபிஷேக	-4646
▁சிக்கல்	-4647
▁எனப்படும்	-4648
▁அமைந்துள்ள	-4649
▁இளைய	-4650
▁நேரு	-4651
▁மணிய	-4652
▁யாதவ்	-4653
▁இழந்து	-4654
▁ஓவரில்	-4655
▁பேசும்	-4656
க்கோட்டை	-4657
▁அமர்ந்த	-4658
▁சான்றித	-4659
▁கருணாநிதி	-4660
ொலி	-4661
▁வான்	-4662
▁நிலம்	-4663
▁நேற்ற	-4664
▁ஹிஜாப்	-4665
▁தலைநகர்	-4666
▁சட்டப்பே	-4667
▁இறுதியில்	-4668
▁சுப்பிரமண	-4669
க்கப்பட்டார்	-4670
▁ிருக்கின்றன	-4671
il	-4672
த்தள	-4673
▁பயன	-4674
ரியும்	-4675
▁ஒற்று	-4676
▁வருவதாகவும்	-4677
▁g	-4678
மென	-4679
மிக்	-4680
ரோடு	-4681
வாரி	-4682
செய்ய	-4683
▁துணி	-4684
▁பகிர	-4685
▁உறுதிய	-4686
ட்டோ	-4687
▁அடைந்து	-4688
▁திருச்ச	-4689
▁குழுவின்	-4690
▁உள்நாட்டு	-4691
▁வழங்கப்பட்ட	-4692
▁ெ	-4693
ாதி	-4694
ழ்வு	-4695
▁எக்	-4696
▁ஒடி	-4697
ழ்ந்த	-4698
▁யோடு	-4699
▁கண்டனம்	-4700
▁களுக்காக	-4701
▁வெளிப்பட	-4702
▁தொண்டர்கள்	-4703
பாச	-4704
▁பொன்	-4705
க்குறை	-4706
▁மோடிய	-4707
▁தற்காலிக	-4708
▁விண்ணப்பி	-4709
▁அச்சுறுத்த	-4710
▁ஆஸ்திரேலிய	-4711
▁வேலைத்திட்ட	-4712
▁W	-4713
ழல்	-4714
தாம்	-4715
▁நிராக	-4716
▁கோட்டை	-4717
▁பிரியா	-4718
▁தேர்தலுக்கு	-4719
▁தூத்துக்குடி	-4720
ந்தோ	-4721
▁தலா	-4722
▁அரிசி	-4723
▁தில்லை	-4724
▁காட்டிய	-4725
▁பின்பற்ற	-4726
▁வேலைக்கு	-4727
▁சபாநாயகர்	-4728
▁அவன்	-4729
▁நேர்	-4730
▁மம்தா	-4731
▁மீதும்	-4732
▁இடங்களை	-4733
▁ஒருமுறை	-4734
▁பார்ப்ப	-4735
▁எந்தவொரு	-4736
▁உள்ளாட்சி	-4737
▁காட்சிகள்	-4738
ட்ச்	-4739
▁பிக	-4740
▁அமைய	-4741
▁உங்களை	-4742
▁குழப்ப	-4743
▁பாடசாலை	-4744
▁வரிசையில்	-4745
▁பார்க்கும்	-4746
▁மட்டுமின்றி	-4747
▁செய்தியாளர்களை	-4748
மிழ	-4749
▁முதலா	-4750
▁ஒருநாள்	-4751
▁கொண்டுவர	-4752
▁பட்டியல்	-4753
▁இடத்திற்கு	-4754
▁இதனையடுத்து	-4755
▁எடுக்கப்படும்	-4756
▁அறிமுகப்படுத்த	-4757
▁எப்ப	-4758
த்தீவு	-4759
▁விளக்கு	-4760
▁விழுந்த	-4761
▁உருவாக்கிய	-4762
ct	-4763
▁அரசை	-4764
▁வலம்	-4765
▁கம்யூ	-4766
▁கட்டிய	-4767
ளித்தார்	-4768
▁மாநாட்டில்	-4769
▁அறிவித்துள்ளது	-4770
▁K	-4771
▁அலி	-4772
▁உளவு	-4773
▁வெகு	-4774
▁பதிலடி	-4775
▁என்னிடம்	-4776
▁டிஜிட்டல்	-4777
▁இணையத்தில்	-4778
▁300	-4779
ொன்று	-4780
▁அதானி	-4781
▁ஈடுபட	-4782
▁பாடல்	-4783
▁வளர்ச்ச	-4784
▁வாகனத்தில்	-4785
▁கிடைக்கவில்லை	-4786
▁கூறப்பட்டுள்ளது	-4787
நோய்	-4788
▁ுகின்றன	-4789
▁செய்திகள்	-4790
▁பிரிட்டன்	-4791
▁திட்டமிட்ட	-4792
ணர்	-4793
பாள	-4794
▁சேர	-4795
▁இந்ந	-4796
▁காஸா	-4797
▁சேமி	-4798
ளித்து	-4799
்களில்	-4800
▁இடத்தை	-4801
▁உடலில்	-4802
▁உயர்ந்த	-4803
▁எவ்வாறு	-4804
▁நிறைந்த	-4805
▁தமிழிடம்	-4806
▁இறக்குமதி	-4807
▁இச	-4808
▁மழ	-4809
ொன்ற	-4810
▁படு	-4811
▁புத	-4812
▁கஷ்ட	-4813
▁கேமரா	-4814
▁மோசமாக	-4815
▁கும்பல்	-4816
▁குடும்பம்	-4817
▁என்பதுதான்	-4818
▁பொதுச்செயலாளர்	-4819
▁வரா	-4820
ண்முக	-4821
▁தொழிலாளர்கள்	-4822
▁சேர்ந்தவர்கள்	-4823
வல்	-4824
ைக்கு	-4825
▁அட்ட	-4826
▁லும்	-4827
▁ஊக்கு	-4828
▁விடுவி	-4829
ப்பதற்கான	-4830
▁ஆயிரத்து	-4831
▁பிரிவில்	-4832
▁ிருந்தனர்	-4833
ட்சிய	-4834
▁பாரு	-4835
▁அணியை	-4836
க்கத்தை	-4837
▁ீர்கள்	-4838
▁அமர்ந்து	-4839
▁உண்மையான	-4840
▁என்பதில்	-4841
▁எழுந்துள்ளது	-4842
த்தன்மை	-4843
▁க்கூடாது	-4844
▁நகராட்சி	-4845
▁அதனால்தான்	-4846
▁இருந்தபோது	-4847
▁வாழ்க்கையில்	-4848
▁ஆழ	-4849
காஷ்	-4850
மல்ல	-4851
▁ஐபி	-4852
ரப்பு	-4853
▁திட்டத்தில்	-4854
▁உலா	-4855
லுடன்	-4856
▁புகழ	-4857
▁ரோஹி	-4858
முறையை	-4859
▁காண்ப	-4860
▁ஆட்டம்	-4861
▁அவர்களது	-4862
▁ஆராய்ச்ச	-4863
▁காஷ்மீர்	-4864
▁வைத்தனர்	-4865
▁இந்தியாவை	-4866
▁பகுதியைச்	-4867
▁லு	-4868
▁பாபு	-4869
ந்திரன்	-4870
▁போராடி	-4871
▁ரெட்டி	-4872
▁ஏனெனில்	-4873
க்களுக்கு	-4874
▁நினைத்து	-4875
▁குல	-4876
▁சிறிது	-4877
▁சட்டத்தை	-4878
▁திரைப்படம்	-4879
▁மாட்டார்கள்	-4880
▁கூறியிருந்தார்	-4881
ent	-4882
க்ரே	-4883
ென்ன	-4884
▁சக்த	-4885
▁குழுவினர்	-4886
▁நிகழ்வில்	-4887
▁வெளியாகியுள்ளது	-4888
▁ஏதோ	-4889
▁கரை	-4890
ேஸ்வர	-4891
▁ஊடாக	-4892
டுக்கு	-4893
முருகன்	-4894
▁காவிரி	-4895
▁அமைச்சகம்	-4896
▁பங்கேற்று	-4897
▁திருப்பூர்	-4898
▁எதிர்க்கட்சி	-4899
▁தகு	-4900
▁யூன	-4901
▁கேட்ப	-4902
ரவையில்	-4903
▁வேலையை	-4904
▁காய்ச்ச	-4905
▁சிறுத்தை	-4906
▁வரவேற்பு	-4907
▁எடுத்துச்	-4908
▁பழங்குடிய	-4909
▁வேண்டுமான	-4910
▁கேள்விக்கு	-4911
▁விசாரித்து	-4912
▁பிபிசியிடம்	-4913
▁வைத்திருந்த	-4914
▁அமெரிக்காவில்	-4915
▁ிய	-4916
▁போலி	-4917
▁தேதிய	-4918
ப்புகளை	-4919
▁கலைஞர்	-4920
▁படித்த	-4921
▁கொள்வது	-4922
▁செவ்வாய்	-4923
▁நாடுகளுக்கு	-4924
ர்ஜி	-4925
லேயே	-4926
▁மஹி	-4927
▁ஹரி	-4928
த்தொட	-4929
▁ுவதை	-4930
▁ஊர்வல	-4931
▁புத்த	-4932
▁ஒருவரை	-4933
▁கலாசார	-4934
▁சர்க்க	-4935
▁சீனாவின்	-4936
▁வைத்துக்	-4937
▁உத்தரவிட்டு	-4938
வழி	-4939
▁பலி	-4940
▁வளை	-4941
▁கட்டமை	-4942
▁பெரிதாக	-4943
▁வெற்றிக	-4944
▁தாக்குதலை	-4945
▁மாதங்களில்	-4946
▁அடுத்தடுத்து	-4947
வன	-4948
ுகோ	-4949
▁கிரு	-4950
▁ஜெய்	-4951
▁காதலி	-4952
▁ராஜபக்	-4953
▁இவருக்கு	-4954
▁வழக்குகள்	-4955
சனை	-4956
்தன	-4957
ுவது	-4958
ேசன்	-4959
▁இதய	-4960
▁வித	-4961
▁ஒன்ப	-4962
▁பிளா	-4963
▁யாரு	-4964
▁பெண்ணை	-4965
▁தாக்கரே	-4966
▁ஆரம்பித்து	-4967
▁மருத்துவக்	-4968
▁ஒன்றி	-4969
முறையாக	-4970
▁அதிலும்	-4971
▁கோரிக்க	-4972
▁தரப்பின	-4973
▁ுவதற்காக	-4974
▁அண்மையில்	-4975
▁பணியாற்றி	-4976
▁மின்சாரம்	-4977
▁உறவினர்கள்	-4978
▁பொதுக்குழுவ	-4979
தூ	-4980
▁தார	-4981
▁பூம	-4982
▁சாய்	-4983
▁கனமழை	-4984
▁ஆர்ப்பா	-4985
▁சென்றது	-4986
▁ுள்ளதாக	-4987
▁திட்டமிட	-4988
▁வலியுறுத்திய	-4989
▁உறுதிப்படுத்த	-4990
ாலோ	-4991
▁எட்ட	-4992
▁ஜோதி	-4993
ழ்ச்சி	-4994
▁பணியை	-4995
▁பதற்ற	-4996
▁கம்யூனி	-4997
▁சீர	-4998
▁தனு	-4999
▁முதிய	-5000
▁ஆய்வாள	-5001
▁கட்டிட	-5002
▁தங்கிய	-5003
▁நிரந்தர	-5004
▁பெங்களூரு	-5005
▁வேண்டியது	-5006
▁நடத்தப்பட்டது	-5007
▁சுப்	-5008
▁வர்களை	-5009
▁மாணவிகள்	-5010
▁ராசியில்	-5011
▁சட்டமன்றத்	-5012
ரத்	-5013
▁சாக	-5014
▁மண்ண	-5015
▁இவரது	-5016
▁ஆர்வம்	-5017
▁சாப்பி	-5018
▁கட்டுரை	-5019
▁தீர்க்க	-5020
▁முஸ்லிம	-5021
▁அமைச்சின்	-5022
▁பெண்களின்	-5023
▁அறிவுறுத்த	-5024
▁இதுதொடர்பாக	-5025
▁எடுக்கப்பட்ட	-5026
▁36	-5027
ங்களா	-5028
▁ஆகவே	-5029
▁தேவி	-5030
▁நீலக	-5031
ர்களால்	-5032
▁ஒலிம்ப	-5033
▁பெண்களை	-5034
▁ரஷ்யாவின்	-5035
▁செய்யவில்லை	-5036
:30	-5037
தரா	-5038
▁2016	-5039
ட்டிக்	-5040
்தினம்	-5041
▁உயிரு	-5042
▁சுவாம	-5043
▁யுக்ரே	-5044
▁ராமநாத	-5045
▁வாழும்	-5046
▁தீர்ப்ப	-5047
▁தொடரும்	-5048
▁விளையாட	-5049
▁ஞாயிற்று	-5050
▁வரவில்லை	-5051
▁பாதிக்கப்பட்டு	-5052
ay	-5053
▁ஆபத்து	-5054
▁நெட்டி	-5055
▁பூங்கா	-5056
▁பொறுப்ப	-5057
ராய	-5058
க்ரேன்	-5059
டையில்	-5060
▁ஆண்டின்	-5061
▁குறைவான	-5062
▁அறிக்கையை	-5063
▁உருவாக்கி	-5064
▁சமயத்தில்	-5065
▁மணியளவில்	-5066
▁விக்கெட்டுகளை	-5067
re	-5068
பால்	-5069
வுகிறது	-5070
▁அர்ச்ச	-5071
▁உலகில்	-5072
▁காலையில்	-5073
▁நிலைக்கு	-5074
▁பெற்றுக்	-5075
▁ஒத்துழைப்பு	-5076
▁செஸ்	-5077
கத்தில்	-5078
▁ஜெனரல்	-5079
▁அவ்வளவு	-5080
▁படுகொலை	-5081
▁இராஜாங்க	-5082
▁முடியுமா	-5083
▁அளிக்கும்	-5084
▁அவ்வப்போது	-5085
▁பார்த்தால்	-5086
▁வெளியிட்டுள்ளது	-5087
பிர	-5088
▁சுப	-5089
▁சுரு	-5090
▁அப்து	-5091
▁பட்டு	-5092
▁ுங்கள்	-5093
▁தோல்விய	-5094
▁திருவண்ண	-5095
▁பதவியில்	-5096
▁அமல்படுத்த	-5097
▁பெற்றுள்ளது	-5098
ளித	-5099
ரமான	-5100
▁ஆனா	-5101
▁அம்ச	-5102
▁எங்கே	-5103
▁இன்றும்	-5104
▁அமைப்புகள்	-5105
▁கொண்டிருந்தார்	-5106
ய்ய	-5107
▁37	-5108
துறை	-5109
▁சார	-5110
ப்பணி	-5111
▁ஆசிய	-5112
▁மலைய	-5113
▁கோட்ட	-5114
▁ுவோம்	-5115
▁இராணுவ	-5116
▁காஷ்மீ	-5117
▁கடற்படை	-5118
▁பட்டியல	-5119
▁முடித்து	-5120
▁ஏனென்றால்	-5121
▁காப்பாற்ற	-5122
▁என்பதற்காக	-5123
▁தமிழ்நாட்டின்	-5124
▁ஷெ	-5125
ஜெட்	-5126
பாபு	-5127
▁அட்	-5128
▁சண்ட	-5129
▁கடத்த	-5130
▁டீசல்	-5131
▁மிக்க	-5132
▁ஐரோப்பிய	-5133
▁கன்னியாக	-5134
▁வருவதால்	-5135
▁நண்பர்கள்	-5136
▁குடும்பத்தில்	-5137
ரண	-5138
கமான	-5139
ீங்க	-5140
▁யாள	-5141
▁இக்கோ	-5142
▁உணவுப்	-5143
▁தாக்கி	-5144
▁அதன்பிற	-5145
▁கிறிஸ்த	-5146
▁டிரம்ப்	-5147
த்திற்காக	-5148
▁அரசியலமைப்பு	-5149
ாச	-5150
மிக	-5151
▁அசோ	-5152
▁ஏதே	-5153
கொள்ள	-5154
ண்டன்	-5155
▁கோல்	-5156
▁பட்ச	-5157
▁மீனா	-5158
▁தட்டு	-5159
▁மயிலாடு	-5160
ப்போகிறது	-5161
▁விஷயங்கள்	-5162
▁யாருக்கும்	-5163
▁நை	-5164
ரிவு	-5165
மட்டு	-5166
▁கற்க	-5167
▁பேரு	-5168
களுடன்	-5169
▁என்பத	-5170
▁நீக்க	-5171
▁யானது	-5172
▁காரில்	-5173
▁வாடிக்க	-5174
▁மட்டுமல்லாமல்	-5175
▁உப	-5176
யின்	-5177
நாதன்	-5178
▁களான	-5179
நடுக்க	-5180
ெக்டர்	-5181
▁இழப்ப	-5182
▁பரவிய	-5183
ப்பிட்ட	-5184
▁மஞ்சள்	-5185
▁தீபாராத	-5186
▁அதேநேரம்	-5187
▁கணக்கில்	-5188
▁வழக்கமாக	-5189
ண்க	-5190
▁பௌ	-5191
ர்களே	-5192
▁தஞ்சா	-5193
▁தற்காக	-5194
▁மதியம்	-5195
▁மீட்டு	-5196
▁தெரியுமா	-5197
▁நிலநடுக்க	-5198
▁ிருந்தால்	-5199
▁சுற்றுச்சூ	-5200
▁பிரச்னைகள்	-5201
▁வலியுறுத்த	-5202
ளால்	-5203
▁அரேப	-5204
▁தாம்	-5205
▁பகுதிய	-5206
▁ருக்கு	-5207
▁வடிவமை	-5208
▁அதன்பின்	-5209
▁போதிலும்	-5210
▁நாடாளுமன்றத்	-5211
ீவ்	-5212
ஜ்ரி	-5213
களால்	-5214
▁சில்	-5215
▁தரும	-5216
▁க்கள்	-5217
ப்புரம்	-5218
▁அர்த்த	-5219
▁நெல்லை	-5220
▁வாகனம்	-5221
▁விநியோ	-5222
வுபடுத்த	-5223
▁ஜப்பான்	-5224
▁மறுத்து	-5225
▁விளம்பர	-5226
ிருப்பதாக	-5227
▁பெரியார்	-5228
ப்பட்டுள்ளன	-5229
▁பந்துகளில்	-5230
▁செய்திருக்க	-5231
▁ரெய	-5232
▁அற்ப	-5233
▁ட்வீ	-5234
கின்றன	-5235
டியும்	-5236
விலும்	-5237
▁திருமா	-5238
ளிக்கும்	-5239
டுகளுக்கு	-5240
▁நடத்தும்	-5241
▁அறிவித்து	-5242
▁முன்தினம்	-5243
▁வழங்கினார்	-5244
▁காலகட்டத்தில்	-5245
பிள்	-5246
▁அயோ	-5247
▁அவி	-5248
▁அட்டை	-5249
▁நோயாள	-5250
▁போரில்	-5251
▁முறைகே	-5252
▁ஒழிப்பு	-5253
▁யுக்ரேன்	-5254
▁எரிபொருள்	-5255
▁ஆட்டத்தில்	-5256
ou	-5257
ுல்	-5258
▁சப்	-5259
▁காசா	-5260
▁அதைப்	-5261
▁தரப்ப	-5262
க்குரிய	-5263
▁உருவான	-5264
▁சுட்டு	-5265
▁விலங்க	-5266
▁எடுக்கும்	-5267
▁மக்களிடம்	-5268
▁உயிரிழந்து	-5269
▁இருக்கின்றனர்	-5270
பில்	-5271
▁சுரே	-5272
▁அதற்க	-5273
▁தெய்வ	-5274
▁இணைந்த	-5275
▁சொல்வது	-5276
▁சிறப்பான	-5277
▁கன்னியாகும	-5278
▁நிபுணர்கள்	-5279
ad	-5280
சேக	-5281
ன்கு	-5282
ரியை	-5283
ாயிர	-5284
▁யின	-5285
நாதர்	-5286
▁ஒருவேளை	-5287
▁செல்வது	-5288
▁தொலைக்கா	-5289
▁மன்னிப்பு	-5290
ீல்	-5291
▁3,	-5292
▁தெல	-5293
▁லேச	-5294
▁வாட	-5295
▁உத்திய	-5296
▁கொள்ளை	-5297
▁திரும்பிய	-5298
▁பாதுகாக்க	-5299
as	-5300
பான்	-5301
▁ஏறி	-5302
க்கால்	-5303
மாகும்	-5304
▁உதவும்	-5305
▁குண்டு	-5306
▁வலுவான	-5307
▁முடிவில்	-5308
▁கருத்தில்	-5309
▁அம்மனுக்கு	-5310
▁குறைந்தபட்ச	-5311
▁48	-5312
ையல்	-5313
▁சென்	-5314
▁பொலி	-5315
▁வட்டி	-5316
▁ஆண்கள்	-5317
▁கைப்பற்ற	-5318
▁சந்தேகம்	-5319
▁மூன்றாம்	-5320
▁விசாரணையை	-5321
▁ஊடகங்களில்	-5322
▁முற்றிலும்	-5323
▁வாழ்க்கையை	-5324
ர்கா	-5325
▁கன்	-5326
▁நாட	-5327
ப்படு	-5328
▁நிர்ண	-5329
▁பரிமா	-5330
▁மூழ்க	-5331
▁கருத்த	-5332
▁வெட்டி	-5333
▁இயக்குந	-5334
▁இயந்திர	-5335
▁வழிபட்ட	-5336
▁ஏற்படுத்து	-5337
▁வெளிப்படையாக	-5338
ீம்	-5339
▁பின	-5340
▁திரை	-5341
▁கருதி	-5342
▁நம்மை	-5343
ரிக்கும்	-5344
▁பட்ஜெட்	-5345
▁என்பதும்	-5346
▁தெரியாமல்	-5347
▁கொடுத்தார்	-5348
▁வேட்பாளராக	-5349
▁ஆல்	-5350
▁இடது	-5351
▁ஈரோடு	-5352
▁பலத்த	-5353
▁பாட்ட	-5354
▁சோனியா	-5355
▁ப்படுத்த	-5356
▁ுவதில்லை	-5357
▁குழந்தையை	-5358
▁உள்ளிட்டோர்	-5359
றல்	-5360
▁ரம்	-5361
ிட்டி	-5362
▁மேலா	-5363
▁விஞ்ஞான	-5364
▁ஸ்டாலின	-5365
▁தொலைவில்	-5366
▁மாரியம்மன்	-5367
யு	-5368
ுகை	-5369
்சபா	-5370
▁ஓரா	-5371
▁....	-5372
▁அரபு	-5373
▁வேலு	-5374
▁சமயம்	-5375
க்கல்யா	-5376
▁மாநாடு	-5377
▁சதவிகித	-5378
▁தெலுங்கு	-5379
▁அனைத்தையும்	-5380
▁திருக்கல்யா	-5381
▁நிலையில்தான்	-5382
▁வைக்கப்பட்டு	-5383
ஜு	-5384
ாலய	-5385
்டி	-5386
▁ஓர	-5387
வர்தன	-5388
▁கனவு	-5389
▁நெல்	-5390
▁மல்ல	-5391
▁இப்போ	-5392
▁தளபதி	-5393
▁அரசுப்	-5394
▁வருடம்	-5395
▁நிலவும்	-5396
▁போன்றவை	-5397
▁தலைவரும்	-5398
▁ஆப்பிரிக்க	-5399
▁கண்காணிப்பு	-5400
▁தொகுதிகளில்	-5401
ரிக்	-5402
ேயான	-5403
▁ரிச	-5404
▁விக	-5405
▁ஷர்	-5406
த்துல	-5407
▁பாமக	-5408
▁வல்லு	-5409
▁என்னவெ	-5410
▁துணைத்	-5411
▁போட்டோ	-5412
▁இடங்கள்	-5413
▁கழித்து	-5414
▁விழுந்து	-5415
▁தெலங்கானா	-5416
▁மணிப்பூர்	-5417
▁விஷயங்களை	-5418
▁என்பதையும்	-5419
▁‛‛	-5420
பேசி	-5421
டித்த	-5422
▁அரிய	-5423
▁அங்கீக	-5424
▁அருள்ப	-5425
▁இதனைத்	-5426
▁எழுந்து	-5427
▁குற்றவா	-5428
▁பணியாற்ற	-5429
▁விட்டால்	-5430
▁அதன்பிறகு	-5431
▁அதிமுகவின்	-5432
▁நிறுவனத்தில்	-5433
றவு	-5434
்கர்	-5435
▁சாய	-5436
▁பூமி	-5437
▁ஏற்றி	-5438
▁பிரமா	-5439
▁மின்ன	-5440
▁வாடகை	-5441
▁ுவார்	-5442
▁தங்களை	-5443
வர்களில்	-5444
▁அலுவலர்	-5445
▁ஏதேனும்	-5446
▁லட்சுமி	-5447
▁லோக்சபா	-5448
▁கூடுதலாக	-5449
▁பிரதேசம்	-5450
▁பொருளாதாரம்	-5451
om	-5452
நாடு	-5453
மில்	-5454
வூர்	-5455
ஸ்கே	-5456
▁டிர	-5457
▁சமுத	-5458
க்காது	-5459
▁அஜித்	-5460
▁கதாபா	-5461
▁பரப்ப	-5462
▁பிரம்ம	-5463
▁மனதில்	-5464
▁கருத்தை	-5465
▁நடித்து	-5466
▁போதுமான	-5467
▁உருவாக்கு	-5468
▁வெளியேற்ற	-5469
▁அவர்களிடம்	-5470
▁முயற்சிகள்	-5471
▁ஏற்றுக்கொள்ள	-5472
மல	-5473
ூன்	-5474
▁மண்	-5475
▁வைரல	-5476
ையாளர்	-5477
▁டாலர்	-5478
▁யோகம்	-5479
ுள்ளதாக	-5480
▁இன்ஸ்ட	-5481
▁கணக்கெ	-5482
▁தாங்கள்	-5483
▁ஆய்வாளர்	-5484
▁அங்கிருந்த	-5485
மாகி	-5486
▁சன்ன	-5487
▁வெவ்	-5488
▁தம்பி	-5489
ாலையில்	-5490
▁ஐபிஎல்	-5491
▁வலைத்தள	-5492
.6	-5493
▁U	-5494
▁இண	-5495
▁எண்	-5496
▁போத	-5497
▁தேரோ	-5498
▁வழிபா	-5499
▁இருந்தே	-5500
▁எதையும்	-5501
▁கவனிக்க	-5502
▁சாதகமாக	-5503
▁முடித்த	-5504
▁விழுப்புரம்	-5505
ேல்	-5506
▁ாம	-5507
தாஸ்	-5508
தாகக்	-5509
▁இரான	-5510
▁மதம்	-5511
▁கணவன்	-5512
▁சிபிஐ	-5513
▁நூற்று	-5514
▁வசதிகள்	-5515
▁ுகிறோம்	-5516
▁மொத்தமாக	-5517
▁கல்லூரியில்	-5518
▁ஜெயக்குமார்	-5519
▁திருவண்ணாமலை	-5520
ேஷ	-5521
ஸ்வ	-5522
▁ஊர	-5523
ராட்	-5524
▁196	-5525
▁சரவ	-5526
▁பஸ்	-5527
▁ஆராத	-5528
▁டில்	-5529
▁வீசி	-5530
சித்து	-5531
▁விலகி	-5532
▁காற்று	-5533
▁தொகையை	-5534
▁நடிக்க	-5535
▁யாகும்	-5536
▁அமைச்சு	-5537
▁ஏற்றுக்	-5538
▁குடிநீர்	-5539
▁பிரிட்டி	-5540
▁பெண்ணின்	-5541
▁கம்யூனிஸ்ட்	-5542
▁வந்துள்ளார்	-5543
▁எல	-5544
▁ஹீ	-5545
▁சல்	-5546
▁அரவி	-5547
▁அமையும்	-5548
▁ஆட்டமிழ	-5549
▁தடுத்து	-5550
▁வீடுகள்	-5551
▁திணைக்கள	-5552
▁ராஜபக்சே	-5553
▁பதிலளித்த	-5554
▁நடத்தப்படும்	-5555
ப்பூ	-5556
மேஷ்	-5557
▁அசை	-5558
▁எங்கு	-5559
▁கஞ்சா	-5560
▁கொன்ற	-5561
▁தவறாக	-5562
▁இத்தனை	-5563
▁கூடும்	-5564
▁ுவதில்	-5565
ப்படுவதாக	-5566
ையெல்லாம்	-5567
▁வர்களின்	-5568
▁வரலாற்றில்	-5569
▁ஆக்	-5570
▁இக்	-5571
சக்தி	-5572
▁களைப்	-5573
▁வியாழ	-5574
▁சீனிவா	-5575
▁தம்பதி	-5576
▁படிப்ப	-5577
▁ஷிண்டே	-5578
▁ஆண்டும்	-5579
▁ுள்ளோம்	-5580
▁கூறியுள்ளது	-5581
▁ஞாயிற்றுக்கிழமை	-5582
▁பனி	-5583
னைகள்	-5584
▁தினக	-5585
▁ஸ்ட்	-5586
▁மாறாக	-5587
▁வருவாய்	-5588
▁சூழ்நிலை	-5589
▁பறிமுதல்	-5590
▁அருள்பாலி	-5591
▁கட்சியினர்	-5592
▁33	-5593
ஸ்பு	-5594
▁பிக்	-5595
▁முகம்	-5596
ின்றார்	-5597
▁வருத்த	-5598
▁பின்னணி	-5599
▁விண்ணப்ப	-5600
▁மாற்றங்கள்	-5601
▁(0	-5602
▁2015	-5603
▁நட்பு	-5604
▁தெரியாத	-5605
▁பணிபுரி	-5606
▁மாதங்கள்	-5607
▁செயலாளராக	-5608
▁மாதிரியான	-5609
▁கும்பாபிஷேக	-5610
▁ட்விட்டரில்	-5611
▁எதிர்காலத்தில்	-5612
▁சொல்லப்படுகிறது	-5613
ஸ்டி	-5614
▁விதை	-5615
▁இதுவே	-5616
▁சேகர்	-5617
▁பாஜகவை	-5618
▁உணர்ந்த	-5619
▁செல்வம்	-5620
▁போகிறது	-5621
▁காயமடைந்த	-5622
த்யா	-5623
▁and	-5624
▁கண்டன	-5625
▁முத்த	-5626
▁ஏக்கர்	-5627
▁இம்ரான்	-5628
▁ராஜபக்ஷ	-5629
▁வெளியேற	-5630
▁சதவிகிதம்	-5631
▁தொழிலாளர்	-5632
▁தேவையில்லை	-5633
▁தாக்குதலில்	-5634
▁வைத்திருக்க	-5635
▁நடைமுறைப்படுத்த	-5636
▁ை	-5637
ிலை	-5638
▁.0	-5639
மாவா	-5640
▁ஆலய	-5641
▁எடை	-5642
▁கோவா	-5643
▁டெல்	-5644
▁இரான்	-5645
▁ஒளிபர	-5646
▁ஜெர்ம	-5647
▁நோட்ட	-5648
▁பின்பு	-5649
▁ரோஹித்	-5650
▁அளவிலான	-5651
▁செலுத்து	-5652
▁செல்போன்	-5653
▁தாக்கத்தை	-5654
▁முக்கியம்	-5655
▁நடந்துள்ளது	-5656
மின்	-5657
ராம்	-5658
லித்	-5659
▁ஆணை	-5660
▁மாடல்	-5661
▁ள்ளது	-5662
▁தினசரி	-5663
ிருஷ்ணன்	-5664
▁நெட்டிச	-5665
▁நோக்கம்	-5666
▁சொல்லும்	-5667
▁த்திற்கான	-5668
▁செய்வதற்கு	-5669
▁மயிலாடுதுறை	-5670
ரவி	-5671
ஷ்டி	-5672
▁கும	-5673
▁சரா	-5674
▁க்கொ	-5675
▁சாம்	-5676
▁இதைத்	-5677
▁களைக்	-5678
▁காரிய	-5679
▁ின்றன	-5680
▁இந்நிக	-5681
▁சிவில்	-5682
▁மறைந்த	-5683
▁விழாவை	-5684
▁பாராட்டு	-5685
▁மாட்டேன்	-5686
▁சந்தித்தார்	-5687
▁அறநிலையத்துறை	-5688
சாம	-5689
▁படக	-5690
▁மனம்	-5691
▁வீரா	-5692
▁புகழ்	-5693
▁அடங்கிய	-5694
▁அவருடன்	-5695
▁அதுமட்டு	-5696
▁ஏற்பட்டுள்ள	-5697
▁பன்னீர்செல்வம்	-5698
▁ஏற	-5699
▁எமது	-5700
▁சேர்	-5701
▁திசை	-5702
▁முற்ப	-5703
▁ுவதாக	-5704
▁நேற்றைய	-5705
ப்படுத்து	-5706
ப்பட்டார்	-5707
▁செய்தித்	-5708
▁விளையாடி	-5709
▁வெவ்வேறு	-5710
▁வாகனங்கள்	-5711
▁வெள்ளிக்கிழமை	-5712
பாய	-5713
ளாவிய	-5714
ாண்டு	-5715
▁மொபை	-5716
▁நிவாரண	-5717
▁பணியிட	-5718
▁வேண்டி	-5719
▁அதிருப்தி	-5720
▁விமர்சித்து	-5721
▁அமலாக்கத்துறை	-5722
வேலி	-5723
▁டிரை	-5724
▁விரோ	-5725
▁கோப்ப	-5726
▁வேலூர்	-5727
▁பவுண்டரி	-5728
▁வழங்கப்பட	-5729
▁பார்த்துக்	-5730
▁வாக்குறுதி	-5731
ew	-5732
▁குமா	-5733
▁இன்றி	-5734
▁ஹைதரா	-5735
▁காணாமல்	-5736
▁சொல்லிய	-5737
▁பிரதமராக	-5738
▁சிலருக்கு	-5739
▁வெளியானது	-5740
▁குழந்தைகளை	-5741
▁பணிப்பாளர்	-5742
▁மாநிலத்தின்	-5743
▁பிட	-5744
வுள்ள	-5745
▁தளம்	-5746
▁தூது	-5747
▁பொய்	-5748
ஸ்டிக்	-5749
▁சக்கர	-5750
▁தூக்க	-5751
மடைந்து	-5752
ிகளுடன்	-5753
▁அண்ணன்	-5754
▁பாரதிய	-5755
▁உத்தியோக	-5756
▁அளித்தார்	-5757
▁யோக	-5758
▁வார்	-5759
▁அமாவா	-5760
▁பேரறி	-5761
த்திடம்	-5762
ிடையில்	-5763
▁இழப்பு	-5764
▁கிடைத்து	-5765
▁பின்னால்	-5766
▁வீட்டின்	-5767
▁வீடுகளில்	-5768
▁ங்	-5769
ிரவு	-5770
ழ்ச்ச	-5771
ியால்	-5772
ஸுக்கு	-5773
▁தோட்ட	-5774
▁வாயில	-5775
▁கிளம்ப	-5776
▁சம்பளம்	-5777
▁நீலகிரி	-5778
▁பானர்ஜி	-5779
▁குழுவில்	-5780
▁கருத்துகளை	-5781
சாரி	-5782
ங்கர்	-5783
▁இல்லைய	-5784
▁புத்தா	-5785
▁நியூசில	-5786
▁வேண்டுமென	-5787
ol	-5788
பூ	-5789
▁ஐய	-5790
▁சம்பள	-5791
▁தந்து	-5792
▁மிகக்	-5793
▁நடந்தன	-5794
▁மஹிந்த	-5795
▁வளர்க்க	-5796
ர்களுக்கான	-5797
▁தொடங்கினார்	-5798
▁பணியாளர்கள்	-5799
கிற	-5800
பகவ	-5801
ுடு	-5802
ச்சல	-5803
▁தீபா	-5804
ப்பார்	-5805
▁கன்னி	-5806
▁லிட்ட	-5807
▁வசூலி	-5808
▁கடலில்	-5809
மூர்த்தி	-5810
▁அறிவுறு	-5811
▁இடையேயான	-5812
▁செய்துகொ	-5813
▁துறையின்	-5814
▁விரைந்து	-5815
▁த்திற்காக	-5816
▁பிரியங்கா	-5817
▁பிரிட்டிஷ்	-5818
▁கட்டுப்பாடு	-5819
▁அதிகாரப்பூர்வ	-5820
▁ாக	-5821
▁ஏர்	-5822
துக்க	-5823
▁டாஸ்	-5824
டித்து	-5825
▁சுற்ற	-5826
▁பைடன்	-5827
▁ஆதித்ய	-5828
▁திருநெல்	-5829
▁காணப்படும்	-5830
▁கொண்டுள்ளது	-5831
பால	-5832
▁Vi	-5833
ட்சை	-5834
▁எக்ஸ்	-5835
▁கணக்க	-5836
▁கலந்த	-5837
▁நாளித	-5838
▁முடிவ	-5839
▁அந்தச்	-5840
▁பயணத்தை	-5841
▁படிக்கும்	-5842
▁அறிவித்தார்	-5843
▁மண்டபத்தில்	-5844
▁32	-5845
னையாக	-5846
▁ஆவது	-5847
▁பெட்ட	-5848
▁ஆச்சரிய	-5849
▁ிறார்கள்	-5850
▁ஊட	-5851
ங்க்	-5852
வுன்	-5853
மாக்க	-5854
▁லால்	-5855
▁கருவி	-5856
▁தோற்ற	-5857
▁எளிதாக	-5858
▁இயக்கம்	-5859
▁சுக்கிர	-5860
▁பாஜகவில்	-5861
▁வெற்றிபெ	-5862
▁55	-5863
▁195	-5864
▁பத்	-5865
ஸ்கள்	-5866
▁ணும்	-5867
▁சமுதாய	-5868
▁தாக்கம்	-5869
▁பிரசாரம்	-5870
▁ஆண்டுக்கு	-5871
▁தவிர்த்து	-5872
▁ஏற்பாடுகள்	-5873
▁குறித்துப்	-5874
▁தமிழகத்தின்	-5875
▁அலங்காரத்தில்	-5876
▁அறிவிக்கப்பட்ட	-5877
கல்	-5878
கிய	-5879
ஜென்	-5880
▁யில	-5881
ளிடம்	-5882
▁சமேத	-5883
▁மேலே	-5884
▁ஆட்டோ	-5885
▁எழுத்த	-5886
▁கெஜ்ரி	-5887
▁வேளாண்	-5888
▁திரிணாம	-5889
▁வந்தாலும்	-5890
▁இருந்ததால்	-5891
▁கட்டப்பட்ட	-5892
▁சனிக்கிழமை	-5893
▁மாணவர்களின்	-5894
ண்டல்	-5895
மைக்க	-5896
▁தோனி	-5897
▁ப்போ	-5898
▁பழக்க	-5899
▁பாரத்	-5900
▁புதின்	-5901
முறையில்	-5902
▁அத்தகைய	-5903
▁சித்திரை	-5904
▁ராமேஸ்வர	-5905
▁லட்சத்து	-5906
▁வேலையில்	-5907
▁தஞ்சாவூர்	-5908
▁முடிகிறது	-5909
▁கொள்கிறேன்	-5910
▁காஞ்சிபுரம்	-5911
▁கன்னியாகுமரி	-5912
வலம்	-5913
▁பரீ	-5914
திக்க	-5915
பட்டி	-5916
▁காயம்	-5917
▁புயல்	-5918
▁கவனமாக	-5919
▁கோட்டா	-5920
▁பாலஸ்த	-5921
▁மந்திர	-5922
▁வரும்ப	-5923
▁திருவள்ள	-5924
▁செயல்பாடு	-5925
▁தீபாராதனை	-5926
▁ராஜேந்திர	-5927
▁சுதந்திரம்	-5928
▁செய்கிறார்	-5929
▁விழிப்புணர்வு	-5930
ஜர்	-5931
திகா	-5932
▁அசா	-5933
கிக்க	-5934
னுடன்	-5935
றையின	-5936
ஸ்வரி	-5937
▁கடமை	-5938
▁ஷேக்	-5939
னையும்	-5940
▁சிக்ஸ	-5941
▁னாலும்	-5942
▁ஊராட்சி	-5943
▁சகோதரர்	-5944
▁சுற்றிய	-5945
▁செங்கல்	-5946
▁அளவிற்கு	-5947
▁சிதம்பரம்	-5948
▁தொடர்பாளர்	-5949
▁இடங்களிலும்	-5950
▁சந்திப்பில்	-5951
ஆவது	-5952
▁ஜெக	-5953
▁அனும	-5954
▁பெர்	-5955
▁சிவன்	-5956
▁பாம்ப	-5957
▁மார்க	-5958
▁ிறோம்	-5959
ியாவில்	-5960
▁அற்புத	-5961
▁க்குப்	-5962
▁சண்முக	-5963
▁துன்பு	-5964
மிக்ரான்	-5965
▁பங்கேற்றனர்	-5966
▁தொடக்கத்தில்	-5967
▁4,	-5968
▁இத்	-5969
▁சிஎ	-5970
▁மல்	-5971
▁ஆபாச	-5972
▁நள்ள	-5973
▁வரவு	-5974
ுகளில்	-5975
▁குறைய	-5976
▁இரவில்	-5977
▁சூர்யா	-5978
▁திறந்த	-5979
▁ஹிந்து	-5980
▁இதேபோல்	-5981
▁எழுப்பி	-5982
▁சூரியன்	-5983
▁மேற்கொள்	-5984
▁விதிமுறை	-5985
▁அதிகரித்த	-5986
▁குறைந்தது	-5987
▁அதிர்ச்சிய	-5988
▁கோரிக்கையை	-5989
▁மைதானத்தில்	-5990
னிய	-5991
ரிஸ்	-5992
▁அந்ந	-5993
▁பேசு	-5994
▁விற்	-5995
ிற்கான	-5996
▁அண்டை	-5997
▁குதிரை	-5998
▁சந்தர்	-5999
▁நிபுணர்	-6000
▁பழனிசாம	-6001
▁பாதிக்க	-6002
▁வேலைவாய்ப்பு	-6003
பலி	-6004
ம்மை	-6005
▁எலி	-6006
▁ஹெல	-6007
▁தாலி	-6008
ட்டிங்	-6009
மின்றி	-6010
▁அன்றைய	-6011
▁இந்திரா	-6012
▁படிப்பு	-6013
▁என்னென்ன	-6014
▁யாத்திரை	-6015
▁விஷயத்தில்	-6016
▁இருக்கிறோம்	-6017
▁தொலைக்காட்சி	-6018
▁அரசாங்கத்தின்	-6019
▁காணொ	-6020
▁வருப	-6021
போதும்	-6022
▁தங்கி	-6023
▁அறிகுற	-6024
▁கிராம்	-6025
▁படையினர்	-6026
▁அலங்காரம்	-6027
டுத்தப்பட்ட	-6028
▁செல்வாக்கு	-6029
▁உள்ளாட்சித்	-6030
▁கட்டுப்பாட்டில்	-6031
▁சதி	-6032
▁ரின்	-6033
▁ஏதும்	-6034
▁தன்மை	-6035
▁நம்மு	-6036
▁ிறார்	-6037
வாதிகள்	-6038
▁காப்பு	-6039
▁சஞ்சய்	-6040
▁மேம்பா	-6041
▁துவங்கி	-6042
▁நியமனம்	-6043
▁அப்போதைய	-6044
▁அறிமுகம்	-6045
▁உரிமைகள்	-6046
▁எல்லையில்	-6047
▁பகுதிக்கு	-6048
▁பெயர்ச்சி	-6049
▁மாதங்களாக	-6050
▁பேட்டியில்	-6051
▁விருதுநகர்	-6052
▁கலந்துகொண்டனர்	-6053
▁பத்திரிகையாளர்	-6054
ிக்க	-6055
▁400	-6056
▁பழக	-6057
டிகள்	-6058
ழக்கு	-6059
▁பேட்	-6060
▁லாபம்	-6061
▁ஆரம்பித்த	-6062
▁எச்சரிக்க	-6063
▁சந்தையில்	-6064
▁விரும்பவில்லை	-6065
சித்த	-6066
▁சிசி	-6067
▁லஞ்ச	-6068
டையும்	-6069
▁நுண்ண	-6070
▁நேரடி	-6071
▁பகவான	-6072
ிற்கும்	-6073
▁அம்பேத	-6074
▁இல்லையா	-6075
▁சிஎஸ்கே	-6076
▁பாலத்தீ	-6077
▁சிறுபான்	-6078
▁அனைவரையும்	-6079
▁ஆசிரியர்கள்	-6080
▁வேட்பாளர்கள்	-6081
▁2-	-6082
ப்பய	-6083
ுபடி	-6084
▁லாப	-6085
▁இளவர	-6086
▁நீரா	-6087
▁த்தோடு	-6088
▁விடாமல்	-6089
▁கட்டாயம்	-6090
▁தேர்வில்	-6091
▁மாட்டோம்	-6092
▁மூர்த்தி	-6093
▁வேகத்தில்	-6094
▁மட்டும்தான்	-6095
▁நெட்டிசன்கள்	-6096
▁கருதப்படுகிறது	-6097
▁சோத	-6098
டங்கு	-6099
▁பாடி	-6100
▁ராவ்	-6101
▁செயலி	-6102
▁மெல்ல	-6103
▁தாயார்	-6104
▁உட்பட்ட	-6105
த்தொடர்ந்து	-6106
லமாக	-6107
ல்வி	-6108
▁பாவ	-6109
▁புஷ	-6110
▁புதை	-6111
▁மறுப	-6112
ங்கலம்	-6113
▁தைரிய	-6114
▁அணிந்த	-6115
▁குறைவு	-6116
▁முதற்க	-6117
▁வெங்கட	-6118
▁அமித்ஷா	-6119
▁சிகிச்ச	-6120
▁அவற்றின்	-6121
▁திருமாவள	-6122
▁எதிர்வரும்	-6123
சியை	-6124
▁அன்	-6125
▁புலன	-6126
▁நாளாக	-6127
▁சங்கம்	-6128
▁சீமான்	-6129
▁ஊக்குவி	-6130
▁என்னால்	-6131
▁பதற்றம்	-6132
ப்படுத்தும்	-6133
▁ஒருவருக்கு	-6134
▁ஆய்வாளர்கள்	-6135
▁இந்தியர்கள்	-6136
▁வழக்குப்பதிவு	-6137
▁வத	-6138
றிவு	-6139
வந்த	-6140
ாரின்	-6141
▁நாடாக	-6142
▁யுள்ள	-6143
▁ஹோமம்	-6144
▁ஜாமீன்	-6145
▁ஒன்றும்	-6146
▁மார்க்க	-6147
▁விலக்கு	-6148
▁அரவிந்த்	-6149
▁இதன்போது	-6150
▁இஸ்ரேலிய	-6151
▁பாதிப்பை	-6152
▁ஓவர்களில்	-6153
▁செயலாளர்கள்	-6154
▁எதிர்க்கட்சித்	-6155
.8	-6156
றா	-6157
▁டூ	-6158
▁கொல	-6159
▁டிவி	-6160
▁நந்த	-6161
▁பேரி	-6162
▁கைவிட	-6163
▁சுவார	-6164
▁சுந்தர	-6165
▁ஒன்றிணை	-6166
▁இதற்குப்	-6167
▁உதாரணமாக	-6168
▁தளத்தில்	-6169
க்காரர்கள்	-6170
▁செலுத்திய	-6171
▁தொடங்கும்	-6172
▁பணியாற்றிய	-6173
▁பாதுகாப்பாக	-6174
▁நிகழ்ச்சிகள்	-6175
கார்	-6176
▁ஐந்த	-6177
▁கமிஷ	-6178
ஒதுக்க	-6179
▁கோவிட்	-6180
ராத்திரி	-6181
▁சிறுவன்	-6182
▁செவ்வாய	-6183
▁பணிக்கு	-6184
▁மாறியது	-6185
▁விவசாயம்	-6186
▁வீடியோவை	-6187
▁சாம்பியன்	-6188
▁வித்தியாசத்தில்	-6189
வசிய	-6190
▁கலைஞ	-6191
▁மான்	-6192
▁ஒடிசா	-6193
▁சுத்த	-6194
▁நன்கு	-6195
▁உத்தவ்	-6196
▁இழுத்து	-6197
▁செய்வதாக	-6198
▁வயதுக்கு	-6199
▁கைப்பற்றி	-6200
▁கட்டத்தில்	-6201
▁சூழ்நிலையில்	-6202
க்ட	-6203
றது	-6204
ள்களை	-6205
▁தரம்	-6206
▁தகவலை	-6207
மீட்டர்	-6208
▁டிகிரி	-6209
▁நாயகம்	-6210
▁முறையை	-6211
▁பதிவிட்ட	-6212
▁பூர்த்தி	-6213
▁ப்படுவது	-6214
▁வாழ்ந்து	-6215
▁சம்பவத்தில்	-6216
▁தேட	-6217
▁ஹர்	-6218
▁சச்ச	-6219
▁லின்	-6220
தோறும்	-6221
வெட்டு	-6222
▁கொஞ்ச	-6223
▁தொட்ட	-6224
▁தற்கான	-6225
ப்பாட்டை	-6226
▁ஆற்றில்	-6227
▁நிர்வாகி	-6228
▁உத்தரவிட்ட	-6229
▁ஆண்டுதோறும்	-6230
▁கர்நாடகாவில்	-6231
மையா	-6232
▁ing	-6233
▁சாம	-6234
▁கிரா	-6235
▁நெகி	-6236
▁இல்லா	-6237
▁ஓய்வூ	-6238
▁அமர்வு	-6239
▁எக்ஸ்ப	-6240
▁ஏமாற்ற	-6241
▁துவங்க	-6242
வெளியில்	-6243
▁பண்டிகை	-6244
▁பழமையான	-6245
▁பிறகும்	-6246
▁அறிவிக்க	-6247
▁ஊடகங்கள்	-6248
▁எழுந்தது	-6249
▁சர்க்கரை	-6250
▁நாளுக்கு	-6251
▁பாதையில்	-6252
▁காய்ச்சல்	-6253
▁புகைப்படம்	-6254
▁போராட்டத்தை	-6255
▁வெற்றிகரமாக	-6256
▁ஆண்டுகளுக்குப்	-6257
▁அனுமதிக்கப்பட்ட	-6258
ீஷ்	-6259
▁44	-6260
▁பாச	-6261
▁சூடு	-6262
▁பவர்	-6263
▁ரங்க	-6264
▁வாரிய	-6265
▁தினேஷ்	-6266
▁பதவியே	-6267
▁மடங்கு	-6268
▁வழிவகு	-6269
▁விராட்	-6270
▁விலையை	-6271
▁அனுபவம்	-6272
▁பேசியது	-6273
▁வாழ்ந்த	-6274
▁யுள்ளார்	-6275
▁அந்நாட்டு	-6276
▁சொல்கிறார்	-6277
▁பட்சத்தில்	-6278
▁பதிவிட்டுள்ளார்	-6279
▁of	-6280
வீன்	-6281
▁அமர	-6282
▁ரவீ	-6283
ராஜர்	-6284
▁ஒத்தி	-6285
▁கிடந்த	-6286
▁ின்றனர்	-6287
▁ரீதியில்	-6288
▁கேரளாவில்	-6289
▁செயல்படும்	-6290
▁ஆரம்பத்தில்	-6291
▁கொள்ளுங்கள்	-6292
▁ஏழ	-6293
ையன்	-6294
▁ப்ள	-6295
வாறான	-6296
ுமாறு	-6297
▁உணவக	-6298
ட்டார்	-6299
▁ஆனந்த்	-6300
▁நாயுடு	-6301
▁மறுக்க	-6302
▁என்னும்	-6303
▁நிர்மலா	-6304
▁போதைப்ப	-6305
▁தென்காசி	-6306
▁பகுதிகள்	-6307
▁பிரச்சார	-6308
▁உக்ரைனில்	-6309
▁தயாரிப்பு	-6310
▁முதற்கட்ட	-6311
லாள	-6312
▁ஒழி	-6313
ம்பெய	-6314
▁கிங்	-6315
▁அணுகு	-6316
▁சைக்கி	-6317
்களுக்கு	-6318
▁உலகக்கோ	-6319
▁னார்கள்	-6320
▁இடஒதுக்க	-6321
▁பதவிக்கு	-6322
▁கைப்பற்றிய	-6323
▁செய்யப்பட்டுள்ள	-6324
சீர	-6325
▁எழ	-6326
▁150	-6327
▁புவ	-6328
▁ரிஷ	-6329
▁வரைய	-6330
▁வலது	-6331
த்தோடு	-6332
▁கணபதி	-6333
▁யோசனை	-6334
▁கல்யாண	-6335
▁கொடுமை	-6336
▁பிரமுக	-6337
▁மோடியை	-6338
ிருந்தால்	-6339
▁தள்ளுபடி	-6340
▁மதுரையில்	-6341
▁பின்னணியில்	-6342
▁பொருளாதாரத்தை	-6343
ve	-6344
வற்ற	-6345
▁துர	-6346
▁லெப	-6347
ிராம்	-6348
▁கின்	-6349
▁பாகு	-6350
▁பச்சை	-6351
▁மசூதி	-6352
ப்பதில்	-6353
▁மறுசீர	-6354
▁அக்கட்ச	-6355
▁அமைப்பை	-6356
▁முதன்மை	-6357
▁வளர்ந்த	-6358
▁பேசினோம்	-6359
▁பேட்டிங்	-6360
▁நிதியமைச்ச	-6361
மய	-6362
▁ஐடி	-6363
▁களோ	-6364
▁மஹா	-6365
▁களம்	-6366
▁சம்ம	-6367
▁பேரூ	-6368
▁களோடு	-6369
▁நிலவி	-6370
▁பற்றா	-6371
▁பயன்பா	-6372
ப்பூரில்	-6373
▁வைத்தது	-6374
▁அறக்கட்ட	-6375
▁போட்டிகள்	-6376
▁எதிர்பார்ப்பு	-6377
ேர்	-6378
தோடு	-6379
லாத்க	-6380
▁அவள்	-6381
▁சீதார	-6382
▁நேபாள	-6383
▁பட்டி	-6384
▁பலாத்க	-6385
▁மாற்றிய	-6386
▁இங்குள்ள	-6387
▁மிரட்டல்	-6388
▁மோடியின்	-6389
▁காந்தியின்	-6390
▁கூறப்பட்டது	-6391
▁ராமநாதபுரம்	-6392
▁ஜனாதிபதியின்	-6393
▁திருநெல்வேலி	-6394
ra	-6395
கட	-6396
சல	-6397
▁தரை	-6398
▁தால	-6399
▁பன்	-6400
▁மெய	-6401
▁உண்ண	-6402
▁டின்	-6403
▁பத்த	-6404
▁வாதி	-6405
▁நிம்ம	-6406
▁நிலவர	-6407
▁ஷர்மா	-6408
▁ட்டும்	-6409
▁பலமுறை	-6410
▁முற்று	-6411
▁நீக்கம்	-6412
▁வரவேற்க	-6413
▁வீராங்க	-6414
▁ஒருபோதும்	-6415
▁கண்டித்து	-6416
▁சாப்பிட்ட	-6417
▁இடத்துக்கு	-6418
▁நடத்தப்பட்டு	-6419
▁பிரச்சினைகள்	-6420
சமாக	-6421
▁தரி	-6422
வற்றை	-6423
ுவில்	-6424
▁கிளை	-6425
▁போரை	-6426
னையின்	-6427
ருக்கான	-6428
▁பீகார்	-6429
▁என்றனர்	-6430
▁ரீதியான	-6431
▁விகிதம்	-6432
▁கோவையில்	-6433
▁பற்றியும்	-6434
▁தெரிவித்தது	-6435
▁நிறுவனங்களின்	-6436
▁தெரிவிக்கின்றன	-6437
நடை	-6438
▁to	-6439
ஞ்சை	-6440
பற்றி	-6441
▁பறவை	-6442
▁க்கூட	-6443
▁வந்தன	-6444
▁உங்களின்	-6445
▁போட்டியை	-6446
▁கேட்டபோது	-6447
▁நாடுகளும்	-6448
▁முழுமையான	-6449
▁கதாபாத்திர	-6450
▁தொழிற்சாலை	-6451
▁பள்ளிகளில்	-6452
▁சட்டப்பேரவை	-6453
▁அதிகாரிகளுக்கு	-6454
்க்	-6455
ீனம்	-6456
▁திண	-6457
ிடும்	-6458
▁சீட்	-6459
▁ஹர்த	-6460
▁தூதரக	-6461
▁பரிசீ	-6462
▁பொன்ன	-6463
க்காரர்	-6464
ுவதற்கு	-6465
▁கர்ப்ப	-6466
ப்பேட்டை	-6467
▁வாயிலாக	-6468
▁டிக்கெட்	-6469
▁நம்மிடம்	-6470
▁மேடையில்	-6471
▁திரிணாமுல்	-6472
ர்ண	-6473
▁ஏக	-6474
▁பண்	-6475
▁ாள்	-6476
ணிக்க	-6477
▁அழகு	-6478
▁இருத	-6479
▁கந்த	-6480
னங்கள்	-6481
▁நாளான	-6482
▁பாலின	-6483
▁ரமேஷ்	-6484
▁சுரேஷ்	-6485
▁நிதிஷ்	-6486
▁பிரசாத	-6487
▁உத்தரவை	-6488
▁பிரசாத்	-6489
▁நிகழ்த்த	-6490
▁பயங்கரவாத	-6491
▁மீனவர்கள்	-6492
▁பேசும்போது	-6493
▁வாக்குப்பதிவு	-6494
▁உருவாக்கப்பட்ட	-6495
le	-6496
ஐடி	-6497
▁ஆடு	-6498
▁உணர	-6499
▁வாத	-6500
▁புல்	-6501
▁திறக்க	-6502
▁கருப்பு	-6503
▁சேவைகள்	-6504
▁நெடுஞ்சா	-6505
▁புதுப்பி	-6506
▁போட்டியி	-6507
▁முதலீட்ட	-6508
▁வேண்டுகோ	-6509
▁செய்கிறது	-6510
▁அறிவித்தது	-6511
▁கிலோமீட்டர்	-6512
▁பாதுகாப்பான	-6513
▁மேற்பட்டோர்	-6514
ோதே	-6515
▁38	-6516
▁65	-6517
மிக்க	-6518
▁கிளா	-6519
▁சனாத	-6520
▁தருண	-6521
▁னேன்	-6522
▁பலம்	-6523
▁காய்க	-6524
▁தூரம்	-6525
வலர்கள்	-6526
▁தொல்லை	-6527
▁எழுத்து	-6528
▁கடற்கரை	-6529
▁மீன்பிடி	-6530
▁தரப்பினர்	-6531
▁மாணவியின்	-6532
▁விலிருந்து	-6533
▁சுற்றுச்சூழல்	-6534
.7	-6535
▁ஆற	-6536
▁பழி	-6537
▁கோடை	-6538
▁டிரா	-6539
▁பென்	-6540
▁மீம்	-6541
▁கொடூர	-6542
▁மாளிகை	-6543
▁இன்னிங்	-6544
▁கால்நடை	-6545
▁சபையின்	-6546
▁பிரிவின்	-6547
▁முறையும்	-6548
▁உண்டாகும்	-6549
▁மாணவர்களை	-6550
ன்னீர்செல்வ	-6551
▁அங்கீகாரம்	-6552
▁குடியிருப்பு	-6553
▁பாதுகாப்புப்	-6554
நட	-6555
▁34	-6556
காசி	-6557
த்திற	-6558
▁ஸார்	-6559
ரையும்	-6560
▁அருணா	-6561
▁கரூர்	-6562
▁எந்தப்	-6563
▁பணியாள	-6564
▁பொழுது	-6565
▁ராஜீவ்	-6566
▁விதமான	-6567
ப்பிரிவு	-6568
▁சம்பாதி	-6569
▁மக்களவை	-6570
▁உலகளாவிய	-6571
▁நம்முடைய	-6572
▁நெடுஞ்சாலை	-6573
▁நெருக்கமான	-6574
▁முக்கியமாக	-6575
ரணி	-6576
▁நய	-6577
▁லூ	-6578
்டன்	-6579
▁காள	-6580
▁மாட	-6581
▁விழ	-6582
ண்டிய	-6583
▁அவதூ	-6584
மெண்ட்	-6585
ிருத்த	-6586
▁யூடிய	-6587
▁வாரிச	-6588
▁போலீசா	-6589
▁மொபைல்	-6590
▁வரலாம்	-6591
▁விட்டன	-6592
▁மதிப்பெ	-6593
▁விரிவான	-6594
▁உடல்நிலை	-6595
▁வரையிலான	-6596
▁வளர்ந்து	-6597
▁வாங்கும்	-6598
▁விட்டேன்	-6599
▁படங்களில்	-6600
▁புகார்கள்	-6601
▁இருக்கிறேன்	-6602
▁ிருந்தாலும்	-6603
▁கண்டுபிடிக்க	-6604
ங்கால	-6605
▁ஏனைய	-6606
▁கூடி	-6607
▁ராய்	-6608
▁உற்சவ	-6609
கத்தின்	-6610
▁அனுபவி	-6611
▁அத்தியா	-6612
▁உத்தரவிட	-6613
▁கேட்டார்	-6614
▁பொறுப்பே	-6615
▁பெங்களூர்	-6616
▁பிடிக்கும்	-6617
▁வீடியோவில்	-6618
▁முன்னெடுக்க	-6619
▁நியூசிலாந்து	-6620
ed	-6621
ரச	-6622
▁+	-6623
▁k	-6624
▁er	-6625
▁பச	-6626
▁ஆனது	-6627
▁அசோக்	-6628
▁ஆதரவை	-6629
▁செய்ப	-6630
▁நகரம்	-6631
▁பெய்து	-6632
ப்படுவது	-6633
▁செயற்பா	-6634
▁விக்கிர	-6635
▁அர்ப்பணி	-6636
▁குறையும்	-6637
▁பகுதிகளை	-6638
▁வழக்கமான	-6639
▁வேளையில்	-6640
▁திமுகவின்	-6641
▁நெருங்கிய	-6642
▁விவரங்களை	-6643
▁சங்கத்தின்	-6644
▁நாட்டிற்கு	-6645
▁காத்திருக்க	-6646
▁ுள்ளதாகவும்	-6647
▁செய்திருந்தனர்	-6648
▁ஃபோ	-6649
▁நடன	-6650
▁ராவ	-6651
▁வறு	-6652
▁2000	-6653
▁அமர்	-6654
▁சிரே	-6655
▁நடமா	-6656
▁ாங்க	-6657
▁கழகம்	-6658
▁புரம்	-6659
▁சிந்தி	-6660
▁மனைவிய	-6661
▁மறைமுக	-6662
▁ுவதால்	-6663
வுக்கும்	-6664
▁வைரலாகி	-6665
▁எதிர்பார	-6666
▁என்பதைப்	-6667
▁கொண்டாடி	-6668
▁புலனாய்வு	-6669
▁எழுந்தருளி	-6670
▁நிகழ்வுகள்	-6671
▁அத்தியாவசிய	-6672
▁இவர்களுக்கு	-6673
▁முன்னேற்றம்	-6674
மயம்	-6675
ியோக	-6676
▁குட	-6677
▁நிப	-6678
றிந்த	-6679
்த்து	-6680
▁ட்டு	-6681
காந்த்	-6682
ணையின்	-6683
▁பரவல்	-6684
▁பலவீன	-6685
▁ரிசர்	-6686
▁ஒன்பது	-6687
▁மாறும்	-6688
▁எந்தவித	-6689
▁ஒற்றுமை	-6690
▁மறுநாள்	-6691
▁ஆப்கானிஸ்தான்	-6692
▁39	-6693
▁New	-6694
▁ஃபே	-6695
▁2022-	-6696
▁புதன்	-6697
வுள்ளது	-6698
ரித்தார்	-6699
▁தமிழில்	-6700
▁நிர்ணயி	-6701
▁நீங்கும்	-6702
▁எல்லோரும்	-6703
▁முடிவுகளை	-6704
▁பாதிக்கும்	-6705
▁செய்வதற்கான	-6706
▁பயன்படுத்தும்	-6707
▁வைக்கப்பட்டது	-6708
வைச்	-6709
வோர்	-6710
▁ஓரி	-6711
▁நேரி	-6712
▁னோம்	-6713
▁கொந்த	-6714
▁பசுமை	-6715
▁கூற்று	-6716
▁சத்தம்	-6717
▁சிறுநீ	-6718
▁நுழைந்த	-6719
▁விரிவாக	-6720
▁சிசிடிவி	-6721
▁படப்பிடி	-6722
▁வீரர்களை	-6723
▁பாண்டியன்	-6724
▁ப்படுவதாக	-6725
வலர்	-6726
ஸ்கி	-6727
▁செள	-6728
▁தில	-6729
▁பழநி	-6730
வைத்து	-6731
▁போனது	-6732
▁மறக்க	-6733
▁இருவர்	-6734
▁ஊழியர்	-6735
▁மறுத்த	-6736
▁கமிட்டி	-6737
▁மாலையில்	-6738
▁வழக்கறிஞ	-6739
க்கொண்டார்	-6740
▁குழுக்கள்	-6741
▁ங்களிலும்	-6742
▁புற்றுநோய்	-6743
▁வருடங்களாக	-6744
சிபி	-6745
ர்கு	-6746
▁நாய்	-6747
▁ஆராய்	-6748
▁நிறைவ	-6749
▁விண்க	-6750
▁பாட்டி	-6751
▁சிரேஷ்ட	-6752
▁சீதாராம	-6753
▁ஒருவரின்	-6754
▁தீர்ப்பை	-6755
▁நோட்டீஸ்	-6756
▁சமீபத்திய	-6757
▁எதிர்பாராத	-6758
▁முயற்சியில்	-6759
இது	-6760
▁எத	-6761
ரேட்	-6762
▁ஏக்	-6763
▁அபரா	-6764
▁அய்ய	-6765
▁விவே	-6766
ந்தூர்	-6767
▁இறங்க	-6768
▁இலட்ச	-6769
▁ஆட்சிய	-6770
▁ட்வீட்	-6771
▁அப்படிய	-6772
▁கூறினர்	-6773
▁மக்களும்	-6774
▁இருந்தவர்	-6775
▁கடிதத்தில்	-6776
▁மேம்பாட்டு	-6777
▁தொழில்நுட்பம்	-6778
லத்தை	-6779
ியான்	-6780
▁வாசி	-6781
▁ஃபார்	-6782
▁அவுட்	-6783
▁தரிசன	-6784
▁கடலூர்	-6785
▁பட்டம்	-6786
▁பரப்பு	-6787
▁அதற்குப்	-6788
▁வனத்துறை	-6789
▁அவர்களில்	-6790
▁கட்சிகளும்	-6791
▁பங்களிப்பு	-6792
▁வாக்களிக்க	-6793
▁குழந்தையின்	-6794
▁நடவடிக்கையை	-6795
▁al	-6796
▁மஹ	-6797
ளியை	-6798
▁சேன	-6799
▁அபாய	-6800
▁மூளை	-6801
▁விடய	-6802
▁ஹீரோ	-6803
ப்பெரு	-6804
▁மாளிக	-6805
ியுள்ளன	-6806
▁யிலேயே	-6807
▁உற்சவம்	-6808
▁ஊருக்கு	-6809
▁ஐரோப்பா	-6810
▁கண்ணாடி	-6811
▁விருந்த	-6812
▁மட்டக்கள	-6813
▁லிருந்து	-6814
▁போன்றவற்றை	-6815
▁அமைக்கப்பட்ட	-6816
▁உச்சநீதிமன்றம்	-6817
kat	-6818
மதா	-6819
▁an	-6820
▁கழ	-6821
▁194	-6822
▁மீத	-6823
ென்று	-6824
▁பிழை	-6825
▁முன்க	-6826
▁ிறேன்	-6827
▁எரிவாய	-6828
▁படைகள்	-6829
▁முட்டை	-6830
▁கண்ணீர்	-6831
▁தேசியக்	-6832
▁படங்களை	-6833
▁விதிக்க	-6834
▁விநியோக	-6835
ப்படுத்திய	-6836
▁ஓமிக்ரான்	-6837
▁வருவதற்கு	-6838
▁முயற்சிகளை	-6839
▁களிலிருந்து	-6840
▁செய்தியாளர்	-6841
▁இதற்கிடையில்	-6842
▁பிரதிநிதிகள்	-6843
▁முக்கியமானது	-6844
▁கண்காணிப்பாளர்	-6845
▁5,	-6846
ற்சி	-6847
▁ஆசி	-6848
▁சீச	-6849
த்தொகை	-6850
▁பொய்ய	-6851
▁மனுவை	-6852
▁ரஜினி	-6853
▁குழுவை	-6854
▁தனித்து	-6855
▁பிரான்ஸ்	-6856
▁மக்களவைத்	-6857
▁தெலுங்கானா	-6858
▁வந்திருக்க	-6859
▁காட்டுகிறது	-6860
▁கருத்துக்களை	-6861
▁பெரும்பான்மை	-6862
▁the	-6863
▁கோய	-6864
▁பது	-6865
▁இத்த	-6866
▁எனச்	-6867
▁க்கே	-6868
▁ஸின்	-6869
வியின்	-6870
▁ஆனந்த	-6871
▁கோத்த	-6872
▁பாரதி	-6873
▁பொறிய	-6874
ியாவின்	-6875
▁மறந்து	-6876
ங்களுடன்	-6877
▁கொள்ளைய	-6878
▁தினகரன்	-6879
▁பாராட்டி	-6880
▁பேரறிவாள	-6881
▁வாய்ப்பை	-6882
த்திற்குள்	-6883
▁மாநகராட்ச	-6884
▁புறப்பட்டு	-6885
▁பாகிஸ்தானில்	-6886
▁வேண்டுமானாலும்	-6887
லோர	-6888
▁கூகு	-6889
▁சுயே	-6890
▁மலர்	-6891
▁லீக்	-6892
க்குமா	-6893
▁சங்கர்	-6894
▁பாம்பு	-6895
▁அவ்வாறு	-6896
▁நாடுகளை	-6897
▁பின்னடை	-6898
▁இத்திட்ட	-6899
▁பங்கேற்ப	-6900
▁சர்ச்சையை	-6901
▁தமிழர்கள்	-6902
▁மேல்முறைய	-6903
▁வழிகாட்டு	-6904
▁வெளியேறிய	-6905
▁உள்ளதாகவும்	-6906
▁செய்வதற்காக	-6907
▁கூறியுள்ளனர்	-6908
500	-6909
மறை	-6910
▁ஐஸ்	-6911
▁மரப	-6912
▁லில்	-6913
▁வராக	-6914
த்தியை	-6915
னியில்	-6916
▁குடிம	-6917
▁தூங்க	-6918
க்களில்	-6919
▁அணிகள்	-6920
▁அப்புற	-6921
▁நண்பர்	-6922
▁இரும்பு	-6923
▁கேள்விகள்	-6924
▁துறையினர்	-6925
▁நடத்தினார்	-6926
▁பராமரிப்பு	-6927
▁ிருக்கிறோம்	-6928
▁புதுக்கோட்டை	-6929
▁ள	-6930
ிலு	-6931
ென்	-6932
▁49	-6933
புர்	-6934
ஸ்பி	-6935
▁ஆடிய	-6936
▁சிவக	-6937
▁ஜின்	-6938
▁ஹாரி	-6939
ணைப்பு	-6940
லிலும்	-6941
▁இதைப்	-6942
▁ஒட்டி	-6943
▁தாங்க	-6944
▁அறையில்	-6945
▁தொலைபேசி	-6946
▁நடத்தியது	-6947
▁வரும்போது	-6948
▁வாடிக்கைய	-6949
▁பிளாஸ்டிக்	-6950
▁கோவில்களில்	-6951
▁விமானத்தில்	-6952
▁கொண்டிருந்தது	-6953
▁சுகாதாரத்துறை	-6954
▁வாய்ப்புள்ளது	-6955
▁ார	-6956
ஷிப்	-6957
▁கிண	-6958
▁டக்	-6959
வாங்க	-6960
▁கடலோர	-6961
▁வழிபட	-6962
▁ரெண்டு	-6963
▁இணைப்பு	-6964
▁சிந்தனை	-6965
▁விளைவாக	-6966
▁விவாதம்	-6967
க்கத்தில்	-6968
▁மறுபுறம்	-6969
▁இதன்மூலம்	-6970
▁செலுத்தும்	-6971
▁விட்டார்கள்	-6972
▁ிருக்கிறேன்	-6973
▁இருக்கும்போது	-6974
▁at	-6975
▁ஜு	-6976
▁யுவ	-6977
ையைச்	-6978
ரியானா	-6979
ிகாப்ட	-6980
▁குழும	-6981
▁ஜெகன்	-6982
▁பெரும	-6983
▁கடவுள்	-6984
▁வாட்ஸ்	-6985
▁அதுதான்	-6986
▁வெளிச்ச	-6987
ச்சந்திரன்	-6988
▁உதவியுடன்	-6989
▁ஹெலிகாப்ட	-6990
▁எதிர்கொண்ட	-6991
▁ஏற்படுகிறது	-6992
▁பழங்குடியின	-6993
▁பாதிப்புகள்	-6994
▁is	-6995
▁கப	-6996
▁வரவ	-6997
katan	-6998
ழ்ப்ப	-6999
▁சரண்	-7000
▁பத்தி	-7001
▁அரசும்	-7002
▁அவரும்	-7003
▁இளம்பெ	-7004
▁ப்படுக	-7005
▁லுக்கு	-7006
▁அப்பகுதி	-7007
▁அம்மாநில	-7008
▁எக்ஸ்பிர	-7009
▁பிரபலமான	-7010
▁பிரிந்து	-7011
▁நிறுவனமான	-7012
▁காரைக்கால்	-7013
▁ப்பட்டுள்ள	-7014
▁மும்பையில்	-7015
▁இருவருக்கும்	-7016
▁பெற்றுக்கொள்ள	-7017
▁எடுத்துக்கொள்ள	-7018
.00	-7019
▁47	-7020
▁னி	-7021
ணியை	-7022
ிகர்	-7023
▁ரகு	-7024
ரிப்ப	-7025
▁கமலா	-7026
▁நெறி	-7027
▁ஈரான்	-7028
▁சத்தீ	-7029
▁னிடம்	-7030
லட்சுமி	-7031
▁கடத்தல்	-7032
▁தீபாவளி	-7033
▁பன்னீர்	-7034
▁ங்களுடன்	-7035
▁நீண்டகால	-7036
▁பள்ளிகள்	-7037
▁மாநிலங்கள	-7038
▁உள்ளடக்கிய	-7039
▁முன்னுரிமை	-7040
▁குழந்தைகளின்	-7041
குவ	-7042
ாதா	-7043
ூரை	-7044
தேவி	-7045
▁ஈடு	-7046
▁ஜாத	-7047
க்கடை	-7048
▁காசி	-7049
▁ஸ்கூ	-7050
ந்தின்	-7051
விதமான	-7052
ிற்காக	-7053
▁மோதிய	-7054
▁ராஜ்ய	-7055
▁ஜப்பான	-7056
▁நீட்டி	-7057
▁வழங்கு	-7058
க்குமாறு	-7059
▁ஊர்வலம்	-7060
▁ஓராண்டு	-7061
▁பாளையம்	-7062
▁முறையான	-7063
▁வரவேற்ற	-7064
▁ிருக்கிற	-7065
▁விவசாயிகளுக்கு	-7066
ஸ்து	-7067
▁திச	-7068
▁நுக	-7069
▁News	-7070
▁ஆதீன	-7071
▁ஊக்க	-7072
▁கடனை	-7073
▁எதிரி	-7074
▁எலும்	-7075
▁சாதிய	-7076
▁வேதனை	-7077
ாளர்களை	-7078
▁போவதாக	-7079
▁மதுபான	-7080
▁வருவதை	-7081
க்கிறார்	-7082
▁கட்டமாக	-7083
▁தலையில்	-7084
▁ராமதாஸ்	-7085
▁வெள்ளம்	-7086
▁உள்ளதால்	-7087
▁முன்னிலை	-7088
▁இருப்பார்கள்	-7089
பின்	-7090
ழிசை	-7091
வாசி	-7092
▁ரத்	-7093
▁வரத	-7094
▁கொழு	-7095
▁செக்	-7096
▁மிஸ்	-7097
வரிடம்	-7098
▁அதைச்	-7099
▁சவால்	-7100
▁சத்திய	-7101
▁ஏக்நாத்	-7102
▁இளையராஜா	-7103
▁பாலத்தீன	-7104
▁ராஜஸ்தான	-7105
▁இருப்பார்	-7106
▁பள்ளிக்கு	-7107
▁இல்லாததால்	-7108
▁போராட்டங்கள்	-7109
ஜை	-7110
▁5-	-7111
மிர்	-7112
▁ஜடே	-7113
னிடம்	-7114
▁யைச்	-7115
▁ரும்	-7116
▁கையாள	-7117
▁லக்னோ	-7118
▁ஹோட்ட	-7119
▁நோட்டு	-7120
▁திறப்பு	-7121
▁முயன்று	-7122
▁பொதுக்கூ	-7123
▁மேற்கத்திய	-7124
▁உறுப்பினராக	-7125
▁ஸ்தானத்தில்	-7126
▁தாக்குதலுக்கு	-7127
நேய	-7128
▁41	-7129
▁மேக	-7130
க்கலை	-7131
▁ஆஜராக	-7132
▁குத்த	-7133
▁நல்லா	-7134
▁நெரிச	-7135
▁விடுக	-7136
த்தேர்த	-7137
▁ஒட்டிய	-7138
▁துண்டி	-7139
▁பேட்ஸ்	-7140
▁அபராதம்	-7141
▁கடினமான	-7142
▁அக்கட்சி	-7143
▁இதுபற்றி	-7144
▁இஸ்ரேலின்	-7145
▁ராமேஸ்வரம்	-7146
▁விமர்சித்த	-7147
▁அப்போதுதான்	-7148
▁அதுமட்டுமல்ல	-7149
▁பயன்படுத்திய	-7150
▁அளித்துள்ளார்	-7151
▁சம்	-7152
▁மாய	-7153
▁மீள	-7154
ிற்சி	-7155
▁உருவ	-7156
▁ஊட்ட	-7157
ிடமும்	-7158
▁கோபம்	-7159
▁ஜடேஜா	-7160
▁தாமரை	-7161
▁புண்ண	-7162
▁ர்கள்	-7163
▁டிடிவி	-7164
▁இலக்கிய	-7165
▁பிரகாஷ்	-7166
▁ுகிறேன்	-7167
▁அவற்றில்	-7168
▁செய்ததாக	-7169
▁தேர்ச்சி	-7170
▁குற்றவாளி	-7171
▁திரும்பப்	-7172
▁பதவியேற்ற	-7173
லாவ	-7174
▁3-	-7175
ஸ்கோ	-7176
▁ஆள்	-7177
கத்தை	-7178
ங்களே	-7179
▁தகரா	-7180
▁மூடி	-7181
பகவான்	-7182
யிலில்	-7183
ெடுக்க	-7184
▁அவமதி	-7185
▁திறமை	-7186
▁பிரேத	-7187
▁கண்ணன்	-7188
▁ஒற்றைத்	-7189
▁ரிசர்வ்	-7190
▁வங்கிக்	-7191
▁ஹரியானா	-7192
▁குறைபாடு	-7193
▁புகாரின்	-7194
▁சுக்கிரன்	-7195
▁நிலவுகிறது	-7196
▁குழந்தைக்கு	-7197
▁சென்றுள்ளார்	-7198
▁கட்டுப்பாடுகள்	-7199
ce	-7200
ஃபி	-7201
தாப	-7202
ீத்	-7203
▁பாய	-7204
ண்கள்	-7205
▁பணவீ	-7206
செய்து	-7207
▁உயர்க	-7208
▁குறிய	-7209
▁சிம்ம	-7210
▁சிற்ப	-7211
▁தலைநக	-7212
▁தானம்	-7213
▁வரவழை	-7214
▁அனுப்பு	-7215
▁ஆபத்தான	-7216
▁தலைவரான	-7217
▁விரைவாக	-7218
▁அமைந்தது	-7219
▁ஆவணங்கள்	-7220
▁பாலஸ்தீன	-7221
▁மாட்டார்	-7222
▁மாவட்டச்	-7223
▁வந்தபோது	-7224
▁கட்சிகளின்	-7225
▁முன்வைத்து	-7226
▁சொல்கிறார்கள்	-7227
▁மகாராஷ்டிராவில்	-7228
id	-7229
▁y	-7230
வேலு	-7231
▁இலை	-7232
▁கிஷ	-7233
ியாட்	-7234
▁இவரை	-7235
▁சிலி	-7236
ப்பால்	-7237
மென்ட்	-7238
ூட்டிய	-7239
▁அத்து	-7240
▁அவர்க	-7241
▁இயங்க	-7242
▁கெட்ட	-7243
▁க்கார	-7244
▁சகோதரி	-7245
▁சந்தோஷ	-7246
▁நகைச்ச	-7247
டுக்கும்	-7248
▁குறுகிய	-7249
▁தமிழிசை	-7250
▁பழக்கம்	-7251
▁என்கிறது	-7252
▁அன்னதானம்	-7253
▁பட்டியலின	-7254
▁வகையிலும்	-7255
▁விருப்பம்	-7256
▁உள்ளிட்டவை	-7257
▁சிகிச்சைக்காக	-7258
றாக	-7259
▁42	-7260
ராக்	-7261
▁கலச	-7262
▁சுர	-7263
▁வேல்	-7264
▁பட்ஜெ	-7265
▁முதலே	-7266
▁அரங்கே	-7267
▁தாத்தா	-7268
▁நடுத்த	-7269
▁விரதம்	-7270
▁அகிலேஷ்	-7271
▁அமாவாசை	-7272
▁நோக்கில்	-7273
▁முறைகேடு	-7274
▁வழக்குப்	-7275
▁எங்களிடம்	-7276
▁காரணங்கள்	-7277
▁கொடுத்தது	-7278
▁ஆதித்யநாத்	-7279
▁திருமாவளவன்	-7280
▁முன்கூட்டிய	-7281
▁அக்கட்சியின்	-7282
▁செயல்பாடுகள்	-7283
BC	-7284
▁ஓட	-7285
கேஷ்	-7286
பாய்	-7287
க்கரி	-7288
தாரர்	-7289
மிட்ட	-7290
க்கமாக	-7291
▁அந்நா	-7292
▁க்களை	-7293
▁நன்கொ	-7294
▁போதிய	-7295
ச்சத்து	-7296
▁அமைத்த	-7297
▁மாத்திர	-7298
▁ஊர்வலமாக	-7299
▁நன்மைகள்	-7300
▁செய்யவும்	-7301
▁பிறந்தநாள்	-7302
▁செய்யப்படுகிறது	-7303
▁உபய	-7304
▁கோட	-7305
▁பெர	-7306
▁லாக	-7307
▁யைப்	-7308
▁ரஜின	-7309
▁விவாக	-7310
▁விஸ்வ	-7311
▁அண்ணாம	-7312
▁இறப்பு	-7313
▁உடல்நல	-7314
▁எட்டிய	-7315
ற்றுக்கு	-7316
▁விடுக்க	-7317
▁நிபந்தனை	-7318
▁அதிரடியாக	-7319
▁சுவாமிகள்	-7320
▁தேதியன்று	-7321
▁சுப்பிரமணிய	-7322
▁என்னவென்றால்	-7323
▁மேற்கொள்ளப்பட்ட	-7324
ch	-7325
et	-7326
us	-7327
ஷ்ணா	-7328
▁கூலி	-7329
▁பாக்	-7330
கர்கள்	-7331
▁அதைக்	-7332
▁வீச்ச	-7333
▁இவரின்	-7334
▁மீடியா	-7335
▁ஊரடங்கு	-7336
▁எரிவாயு	-7337
▁தலைமுறை	-7338
ப்பட்டனர்	-7339
▁ஆங்கிலேய	-7340
▁சீனாவில்	-7341
▁வழக்கின்	-7342
▁கொள்முதல்	-7343
▁சான்றிதழ்	-7344
▁பாதுகாப்ப	-7345
▁பிரச்னைகளை	-7346
▁தமிழ்நாட்டை	-7347
▁உத்தரவிட்டார்	-7348
▁வருடங்களுக்கு	-7349
.9	-7350
▁46	-7351
▁2011	-7352
▁மேடை	-7353
ந்துவீ	-7354
▁கார்க	-7355
▁குளிர்	-7356
▁சிவப்பு	-7357
▁தேர்தலு	-7358
▁தொழிலதி	-7359
▁ஆதிக்கம்	-7360
▁தொழிலில்	-7361
▁தோல்வியை	-7362
▁த்திலேயே	-7363
▁வெறுப்பு	-7364
▁தேரோட்டம்	-7365
▁த்துக்கான	-7366
▁மையத்தில்	-7367
▁வெப்பநிலை	-7368
▁தொடங்கினர்	-7369
▁துன்புறுத்த	-7370
▁படிப்படியாக	-7371
▁பாதிக்கப்பட	-7372
▁உயர்ந்துள்ளது	-7373
od	-7374
மாக்	-7375
▁கொடூ	-7376
நிலையை	-7377
▁கலாநிதி	-7378
▁பிரம்மா	-7379
▁அன்புமணி	-7380
▁சிவகங்கை	-7381
▁தலைவருமான	-7382
▁துறைகளில்	-7383
▁எக்ஸ்பிரஸ்	-7384
▁நாட்டுக்கு	-7385
▁அப்பகுதியில்	-7386
▁நிதியமைச்சர்	-7387
▁செய்கிறார்கள்	-7388
▁நாடுகளுக்கும்	-7389
5)	-7390
▁அவு	-7391
▁கோஷ	-7392
▁போற	-7393
ர்களான	-7394
▁இலக்க	-7395
ியலாளர்	-7396
▁வாக்கெ	-7397
▁உணவுகளை	-7398
▁கூறுவது	-7399
▁பாக்கிய	-7400
▁பொதுவான	-7401
▁முடிக்க	-7402
கிறார்கள்	-7403
▁இந்தியப்	-7404
▁இன்ஸ்டாக	-7405
▁சமாளிக்க	-7406
▁பிரமாண்ட	-7407
▁பொறுப்பேற்ற	-7408
▁போதைப்பொருள்	-7409
▁மட்டக்களப்பு	-7410
மீக	-7411
ெக்	-7412
▁ஜய	-7413
சீனா	-7414
ாலம்	-7415
டலில்	-7416
▁குளி	-7417
▁கையா	-7418
▁ஜோடி	-7419
▁பற்ற	-7420
▁வயதாக	-7421
▁அச்சம்	-7422
▁மார்க்	-7423
▁ஆகியோரை	-7424
▁நிலத்தை	-7425
▁மாநிலத்	-7426
▁கொள்கையை	-7427
▁வருகின்ற	-7428
▁விலையில்	-7429
▁நிச்சயமாக	-7430
▁வங்கியின்	-7431
▁விமானங்கள்	-7432
▁நிகழ்ச்சியை	-7433
▁நிலநடுக்கம்	-7434
▁செங்கல்பட்டு	-7435
▁அழைக்கப்படும்	-7436
மடை	-7437
ஷ்ணு	-7438
▁தொழி	-7439
சித்தி	-7440
ளிப்பு	-7441
▁இப்பட	-7442
▁உப்பு	-7443
▁தேங்க	-7444
▁இயங்கி	-7445
▁திருவார	-7446
▁அதிர்ஷ்ட	-7447
▁இழப்பீடு	-7448
▁பத்திரிகை	-7449
▁பெற்றோர்கள்	-7450
▁இருப்பவர்கள்	-7451
▁மேய	-7452
சியாக	-7453
▁போடு	-7454
நர்கள்	-7455
▁அவமான	-7456
▁காக்க	-7457
▁கோரிய	-7458
▁தோற்க	-7459
▁பிரபாக	-7460
▁மையமாக	-7461
▁அப்துல்	-7462
▁அமைதியாக	-7463
▁திருப்பு	-7464
▁மேலாண்மை	-7465
▁செய்யாமல்	-7466
▁கார்த்திக்	-7467
▁வழிபட்டனர்	-7468
▁உருவாக்கும்	-7469
▁போட்டியிடும்	-7470
ாதை	-7471
பிக்	-7472
தித்த	-7473
னக்கு	-7474
ெண்ட்	-7475
▁அளவை	-7476
ெடுத்த	-7477
▁ஆயுள்	-7478
▁தாகக்	-7479
▁ஆற்றல்	-7480
▁இலக்கை	-7481
▁கடத்தி	-7482
▁குப்பை	-7483
▁சாந்தி	-7484
▁ள்ளார்	-7485
▁உட்கார்	-7486
▁வியாபார	-7487
▁என்பதைக்	-7488
▁பகிர்ந்த	-7489
▁இடம்பெற்று	-7490
▁கண்டிப்பாக	-7491
▁நம்பிக்கையை	-7492
▁மகிழ்ச்சியாக	-7493
▁கூறுகிறார்கள்	-7494
▁அஜ	-7495
▁ஷோ	-7496
தியா	-7497
ஸ்தி	-7498
ீட்டை	-7499
▁அதேச	-7500
▁நெய்	-7501
▁பாறை	-7502
▁எம்ஜி	-7503
▁சீர்த	-7504
▁நியமன	-7505
▁கருப்ப	-7506
▁சமூகம்	-7507
▁சமையல்	-7508
▁சின்னம்	-7509
▁சிலைகள்	-7510
▁சொன்னது	-7511
▁பங்குனி	-7512
▁பந்தில்	-7513
▁விவசாயி	-7514
▁செய்தியை	-7515
▁போட்டுக்	-7516
த்திற்குப்	-7517
▁ஹைதராபாத்	-7518
▁வெற்றிக்கு	-7519
▁இயக்கத்தில்	-7520
▁வழங்கப்பட்டு	-7521
▁கட்டுப்பாட்டு	-7522
ாட்	-7523
ிறை	-7524
ுகா	-7525
்தொ	-7526
எஃப்	-7527
ர்ஸ்	-7528
▁ஃபை	-7529
▁நுழ	-7530
▁ின்	-7531
துவாக	-7532
ந்தம்	-7533
▁2013	-7534
▁கோபி	-7535
▁சரத்	-7536
▁புரா	-7537
▁மாசி	-7538
வாகும்	-7539
▁ஆர்எஸ்	-7540
▁உத்திர	-7541
▁தென்னா	-7542
▁வெயில்	-7543
▁இறங்கிய	-7544
▁கார்த்தி	-7545
▁நிறுத்திய	-7546
த்துறையினர்	-7547
▁சமூகத்தில்	-7548
▁மருந்துகள்	-7549
ப்படுகின்றது	-7550
▁குஜராத்தில்	-7551
▁சுற்றியுள்ள	-7552
▁நிறுவனங்களில்	-7553
▁சுல	-7554
▁பொற	-7555
▁மாம	-7556
ட்டாக	-7557
▁2021-	-7558
மாற்றம்	-7559
▁அஞ்சலி	-7560
▁ஈபிஎஸ்	-7561
▁எந்தத்	-7562
▁டெல்டா	-7563
▁ப்பட்டன	-7564
▁விளக்கம	-7565
▁அதேசமயம்	-7566
▁பணிகளில்	-7567
▁முன்மொழி	-7568
▁கெஜ்ரிவால்	-7569
▁பலாத்காரம்	-7570
▁முன்கூட்டியே	-7571
▁நியமிக்கப்பட்ட	-7572
மொழ	-7573
▁!"	-7574
கட்ட	-7575
லையை	-7576
ள்ளா	-7577
▁ஈர்	-7578
▁உன்	-7579
▁கறு	-7580
▁களா	-7581
சேகர்	-7582
▁லாமா	-7583
▁வாழை	-7584
▁அப்போ	-7585
▁துல்ல	-7586
▁பிரபு	-7587
▁பெய்த	-7588
▁வார்டு	-7589
▁வியாபா	-7590
▁அடுக்கு	-7591
▁இதன்படி	-7592
▁உடைத்து	-7593
▁லிட்டர்	-7594
▁வென்றது	-7595
▁நிகழ்ந்த	-7596
▁மீனாட்சி	-7597
▁வீழ்த்தி	-7598
▁சட்டவிரோத	-7599
ையிலிருந்து	-7600
▁நிறைவேற்றி	-7601
▁நூற்றாண்டு	-7602
▁அதிகபட்சமாக	-7603
▁மேம்படுத்து	-7604
▁கலந்துகொண்டு	-7605
விள	-7606
▁சரண	-7607
▁ரவு	-7608
▁சிதை	-7609
▁புகு	-7610
▁புகை	-7611
▁மாசு	-7612
ந்திரி	-7613
ரியின்	-7614
ற்றால்	-7615
▁கூடவே	-7616
▁தலித்	-7617
▁மகேஷ்	-7618
▁அவரால்	-7619
▁சேரும்	-7620
▁போடும்	-7621
▁அறிவுரை	-7622
▁செலவில்	-7623
▁நடுத்தர	-7624
▁மண்டபம்	-7625
▁நேர்த்தி	-7626
ாளர்களுக்கு	-7627
▁சிங்கப்பூர்	-7628
▁தலைவர்களும்	-7629
▁பொருட்களின்	-7630
▁வழங்கியுள்ளது	-7631
ஜே	-7632
்பெ	-7633
▁பவ	-7634
னான்	-7635
▁ோர்	-7636
ள்வது	-7637
▁எஃப்	-7638
▁கைதி	-7639
▁தவறி	-7640
▁நலன்	-7641
▁நீரி	-7642
▁இயற்க	-7643
▁பரவலாக	-7644
▁ஆலோசகர்	-7645
▁உதவிகளை	-7646
▁வாழ்வாத	-7647
நேரத்தில்	-7648
▁நிற்கும்	-7649
▁என்பதற்கு	-7650
▁மனிதர்கள்	-7651
▁மாற்றத்தை	-7652
▁முறைப்படி	-7653
▁கருத்துகள்	-7654
▁கூறப்படும்	-7655
▁சுற்றுலாப்	-7656
▁இடங்களுக்கு	-7657
▁இப்படிப்பட்ட	-7658
▁உயிரிழந்தார்	-7659
▁திருக்கல்யாண	-7660
▁கிடைத்துள்ளது	-7661
▁உயர்நீதிமன்றம்	-7662
ிண	-7663
னாளி	-7664
▁ஆலை	-7665
▁ஹவு	-7666
▁ாரா	-7667
▁அஷ்ட	-7668
▁உடைய	-7669
▁ஊடகவ	-7670
▁சத்ய	-7671
▁ட்ரோ	-7672
▁நீரை	-7673
▁ஆடியோ	-7674
▁ஹசீனா	-7675
▁உத்தரகா	-7676
▁மிரட்டி	-7677
▁ிருப்பதை	-7678
▁இயக்குனர்	-7679
▁கூறப்பட்ட	-7680
▁சந்தர்ப்ப	-7681
▁சீதாராமன்	-7682
▁சென்றபோது	-7683
▁பிரார்த்த	-7684
▁விட்டதால்	-7685
▁இருக்கிறதா	-7686
▁உரிமையாளர்	-7687
▁நிறுவனத்தை	-7688
▁என்கின்றனர்	-7689
▁சட்டசபையில்	-7690
▁உத்தரவிட்டது	-7691
▁அமைச்சரவையில்	-7692
▁பயன்படுத்திக்	-7693
▁ாள	-7694
▁போர	-7695
▁கையை	-7696
▁விடை	-7697
▁ீங்க	-7698
ப்போம்	-7699
▁ஊரில்	-7700
▁பாலம்	-7701
▁மிகச்	-7702
▁எவ்வித	-7703
▁கிளம்பி	-7704
▁சேர்க்கை	-7705
▁சொல்லிக்	-7706
▁நாமக்கல்	-7707
▁சீனிவாசன்	-7708
▁தலைவர்களை	-7709
▁வாக்குகளை	-7710
ப்பகுதியில்	-7711
▁களமிறங்கிய	-7712
▁சட்டத்தில்	-7713
▁மருத்துவம்	-7714
▁குற்றவாளிகள்	-7715
▁நினைக்கிறேன்	-7716
▁லட்சக்கணக்கான	-7717
▁பொதுக்குழுவில்	-7718
▁தெரியவந்துள்ளது	-7719
▁வேண்டியிருந்தது	-7720
ot	-7721
.50	-7722
்ப்	-7723
▁re	-7724
ற்றொ	-7725
▁108	-7726
▁உரை	-7727
▁ஒய்	-7728
▁தீப	-7729
▁ஹேம	-7730
ையற்ற	-7731
▁எளிய	-7732
▁ஓவிய	-7733
▁ஒப்பி	-7734
▁ஓரிரு	-7735
▁கால்ப	-7736
▁அவரைப்	-7737
▁கடைகள்	-7738
▁நாராயண	-7739
▁நாளும்	-7740
▁நேட்டோ	-7741
▁புத்தி	-7742
▁புலிகள்	-7743
புரத்தில்	-7744
▁ஆட்டத்தை	-7745
▁ஆயுதங்களை	-7746
▁சட்டப்படி	-7747
▁பிரதமரின்	-7748
▁விளையாடிய	-7749
▁அறக்கட்டளை	-7750
▁ிருப்பதால்	-7751
▁வெளியிட்டது	-7752
▁எம்எல்ஏக்கள்	-7753
▁செய்துவிட்டு	-7754
சமான	-7755
மட்ட	-7756
▁உபக	-7757
▁ஒன்	-7758
▁உறவை	-7759
▁டான்	-7760
▁துரோ	-7761
▁ஸ்டா	-7762
வையும்	-7763
▁பந்தை	-7764
▁நீக்கி	-7765
▁உறவுகளை	-7766
▁உறுப்பு	-7767
▁பழங்குடி	-7768
▁முதலாவது	-7769
▁கேள்விகளை	-7770
▁தீயணைப்பு	-7771
▁பிறகுதான்	-7772
▁வருகிறேன்	-7773
▁வழங்கியது	-7774
▁கட்டமைப்பு	-7775
▁பலருக்கும்	-7776
▁மதிப்பிலான	-7777
▁வந்துள்ளனர்	-7778
▁வைத்துள்ளது	-7779
▁எதிர்கொள்ளும்	-7780
முனை	-7781
▁ஓம்	-7782
▁சோர்	-7783
▁தரவு	-7784
▁அதுபோ	-7785
▁படியே	-7786
▁போகிற	-7787
ளவுக்கு	-7788
▁கூட்டி	-7789
▁சரவணன்	-7790
▁யொட்டி	-7791
▁விவாகர	-7792
▁Vikatan	-7793
▁சாதகமான	-7794
▁ஹர்திக்	-7795
▁எனக்குத்	-7796
▁க்கூடும்	-7797
▁பொறுத்து	-7798
▁பாதுகாப்பை	-7799
▁திருவள்ளூர்	-7800
▁போட்டியிட்டு	-7801
▁எழுதியுள்ளார்	-7802
▁நூற்றுக்கணக்கான	-7803
ஜன	-7804
முடி	-7805
யிர்	-7806
▁10-	-7807
▁சாவ	-7808
ரங்கு	-7809
ரியாக	-7810
ள்கள்	-7811
ீஸ்வர	-7812
▁இசைய	-7813
▁லாரி	-7814
கிறேன்	-7815
்பெற்ற	-7816
▁உச்சி	-7817
ப்பகுதி	-7818
ல்லிக்க	-7819
வீர்கள்	-7820
▁கடற்றொ	-7821
▁தென்னி	-7822
▁அரசியலை	-7823
▁துல்லிய	-7824
▁பெருந்த	-7825
▁பேரிடர்	-7826
▁ஆலோசனைக்	-7827
▁கைதுசெய்ய	-7828
▁அதையடுத்து	-7829
▁புகழ்பெற்ற	-7830
▁ஒலிம்பியாட்	-7831
▁கிராமத்தைச்	-7832
▁வேண்டுமென்ற	-7833
▁நீதிமன்றத்தின்	-7834
ரர்	-7835
ானே	-7836
▁th	-7837
▁ஷூ	-7838
ம்பை	-7839
▁இதர	-7840
ுவின்	-7841
▁உணவை	-7842
▁பைக்	-7843
▁வியூ	-7844
களிடம்	-7845
க்குடி	-7846
சுக்கு	-7847
ழுக்கு	-7848
▁போராட	-7849
▁ாராம்	-7850
டத்தில்	-7851
▁சித்ரா	-7852
▁உத்தரப்	-7853
▁சுவாரஸ்	-7854
▁பழனிவேல்	-7855
▁கொண்டாட்ட	-7856
▁பொருள்களை	-7857
▁அறிகுறிகள்	-7858
▁இருவரையும்	-7859
▁நகரங்களில்	-7860
▁இஸ்ரேலுக்கு	-7861
▁நாள்களுக்கு	-7862
▁அமைக்கப்பட்டு	-7863
பல்	-7864
வறை	-7865
▁எச்	-7866
▁கோல	-7867
▁நட்ப	-7868
▁குளம்	-7869
▁தென்ன	-7870
▁நேர்க	-7871
▁பணிபு	-7872
▁பவார்	-7873
▁மனோஜ்	-7874
▁ஸ்மார	-7875
▁இன்ஸ்ப	-7876
▁கொரியா	-7877
▁தொடர்க	-7878
▁நுழைவு	-7879
▁பஞ்சாய	-7880
▁பேசிக்	-7881
▁மாகும்	-7882
▁ரெய்டு	-7883
▁வகுப்ப	-7884
▁காட்சிய	-7885
▁கேள்விய	-7886
▁தயாராகி	-7887
▁நாள்கள்	-7888
▁பதிவில்	-7889
▁வரையில்	-7890
▁பாஜகவினர்	-7891
▁பிரச்னையை	-7892
▁வழங்குவது	-7893
▁விஞ்ஞானிகள்	-7894
▁விதிக்கப்பட்ட	-7895
▁கொண்டிருந்தனர்	-7896
▁செய்திருந்தார்	-7897
▁வெளியுறவுத்துறை	-7898
▁&	-7899
நேர	-7900
ூறு	-7901
சூர்	-7902
மண்ட	-7903
காசம்	-7904
சிகள்	-7905
▁டாப்	-7906
▁பகல்	-7907
▁அலுவல	-7908
▁நவீன்	-7909
▁மஸ்க்	-7910
▁மாநகர	-7911
▁மானிய	-7912
▁ரஞ்சி	-7913
▁ஒன்றரை	-7914
▁பொம்மை	-7915
ினார்கள்	-7916
▁ஆய்வில்	-7917
▁ஒப்புக்	-7918
▁தருவதாக	-7919
▁மறுப்பு	-7920
▁ஓய்வூதிய	-7921
▁கொண்டதாக	-7922
▁நாளைக்கு	-7923
▁விட்டோம்	-7924
▁விதித்து	-7925
▁சமாஜ்வாதி	-7926
▁பொறியியல்	-7927
▁வாரத்தில்	-7928
▁தமிழ்நாட்டு	-7929
▁வெள்ளத்தில்	-7930
▁தெரிவித்துக்	-7931
▁நிலைப்பாட்டை	-7932
▁பாகிஸ்தானின்	-7933
▁எண்ணிக்கையில்	-7934
▁விரும்புகிறேன்	-7935
▁99	-7936
▁on	-7937
ிகேய	-7938
ையிற	-7939
▁புட	-7940
ச்சிக	-7941
▁கிளி	-7942
▁துரி	-7943
▁தூய்	-7944
▁நூறு	-7945
க்காளி	-7946
▁அரங்க	-7947
▁பண்ணை	-7948
ம்பட்டி	-7949
ுவையில்	-7950
▁சேவையை	-7951
▁புதன்க	-7952
▁ப்படாத	-7953
▁சச்சின்	-7954
களுக்கும்	-7955
▁கிரிக்கெ	-7956
▁தேசியவாத	-7957
▁வெளிநாடு	-7958
▁ாவிட்டால்	-7959
▁அதிகரிப்பு	-7960
▁தியாகராஜன்	-7961
▁மகிழ்ச்சிய	-7962
▁வெளியிட்டார்	-7963
யோ	-7964
▁(3	-7965
னேஷ்	-7966
யான்	-7967
ரையை	-7968
▁நிஜ	-7969
▁வைப	-7970
▁கங்க	-7971
▁அருண்	-7972
▁கழிவு	-7973
▁கிளர்	-7974
▁கோலாக	-7975
▁சிந்த	-7976
▁மண்டப	-7977
▁லிங்க	-7978
▁ஆத்திர	-7979
▁களுக்க	-7980
▁அத்துமீ	-7981
▁கமிஷனர்	-7982
▁கற்றுக்	-7983
க்கத்தக்க	-7984
▁ராக்கெட்	-7985
▁விருந்து	-7986
▁அமைக்கும்	-7987
▁நான்காவது	-7988
▁பற்றாக்குறை	-7989
▁வாரங்களுக்கு	-7990
▁செய்தியாளர்கள்	-7991
▁பார்க்கும்போது	-7992
ஞ்ச்	-7993
மைப்	-7994
▁சகல	-7995
▁பசி	-7996
ation	-7997
▁சதம்	-7998
▁செவி	-7999
▁வாஷி	-8000
ச்சார்	-8001
▁2019-	-8002
▁அகமது	-8003
▁நாங்க	-8004
▁பூர்வ	-8005
▁ுவேன்	-8006
க்களும்	-8007
ீஸ்வரர்	-8008
▁ஈர்க்க	-8009
▁காவலர்	-8010
▁குட்டி	-8011
▁தரையிற	-8012
▁முழங்க	-8013
▁மேலதிக	-8014
த்தினால்	-8015
▁ஓவர்கள்	-8016
▁பெறுவது	-8017
▁வழிமுறை	-8018
▁ஆவணங்களை	-8019
▁இப்போதும்	-8020
▁மாலத்தீவு	-8021
▁அதிகாரிகளை	-8022
▁அடிப்படையாக	-8023
▁சீர்திருத்த	-8024
▁மாற்றுத்திற	-8025
ாரை	-8026
்யூ	-8027
ப்தி	-8028
வாட்	-8029
ிர்த	-8030
▁ஜார்	-8031
▁உபகரண	-8032
▁உயிரை	-8033
▁கோபுர	-8034
▁சலுகை	-8035
ம்பரில்	-8036
▁அரசால்	-8037
▁தெரிவு	-8038
▁விகடன்	-8039
▁இம்முறை	-8040
▁எளிதில்	-8041
▁யூனியன்	-8042
▁இன்னமும்	-8043
▁இன்றைக்கு	-8044
▁இருந்ததாக	-8045
▁கிடைக்காத	-8046
▁கூட்டத்தை	-8047
▁சம்பவத்தை	-8048
▁தையடுத்து	-8049
▁நடத்தப்பட	-8050
▁போவதில்லை	-8051
▁அம்பேத்கர்	-8052
▁ரூபாய்க்கு	-8053
▁அடுத்தடுத்த	-8054
▁மறுசீரமைப்பு	-8055
ia	-8056
▁J	-8057
ரமண	-8058
்தீப்	-8059
▁ஜாதி	-8060
▁டாடா	-8061
▁பும்	-8062
▁முளை	-8063
▁சூழலை	-8064
▁பிளவு	-8065
▁ஆச்சர்	-8066
▁ஆதீனம்	-8067
▁மெட்ரோ	-8068
▁உறவினர்	-8069
▁சீரியல்	-8070
▁சுத்தம்	-8071
▁பிறப்பு	-8072
▁கடற்படைய	-8073
▁சந்திரசூ	-8074
▁விவரங்கள்	-8075
▁உயிரிழப்பு	-8076
▁கிராமப்புற	-8077
▁மாநிலங்கள்	-8078
▁இடஒதுக்கீடு	-8079
▁சிறுத்தைகள்	-8080
▁தட்டுப்பாடு	-8081
▁விண்ணப்பிக்க	-8082
▁அறிவித்துள்ளார்	-8083
▁நிறுவனங்களுக்கு	-8084
2)	-8085
el	-8086
▁6,	-8087
▁கசி	-8088
▁தூர	-8089
ரேஷன்	-8090
▁ஆடுக	-8091
▁அவங்க	-8092
▁சுந்த	-8093
▁ரூபாயை	-8094
▁அரசிடம்	-8095
▁பேசுவது	-8096
▁ிருந்தன	-8097
▁பிரசித்தி	-8098
▁விவகாரத்தை	-8099
▁வலியுறுத்தினார்	-8100
▁நம	-8101
▁ிட	-8102
துரை	-8103
ளிக்	-8104
▁மின	-8105
க்கப்	-8106
▁ஓவர்	-8107
▁கத்த	-8108
▁நபரை	-8109
▁நஷ்ட	-8110
▁முகவ	-8111
▁வைகோ	-8112
ாயிரம்	-8113
▁திருட	-8114
▁ராஜன்	-8115
▁வள்ளி	-8116
▁அந்தந்த	-8117
▁பயணிக்க	-8118
▁மனுவில்	-8119
▁சிறுமியை	-8120
▁மோடிக்கு	-8121
▁கல்வெட்டு	-8122
▁அதிகாரத்தை	-8123
▁கவுன்சிலர்	-8124
▁சிக்கல்கள்	-8125
▁வாக்குவாதம்	-8126
▁மேற்கொண்டார்	-8127
▁வியாழக்கிழமை	-8128
▁பல்கலைக்கழகம்	-8129
▁அளிக்கப்பட்டது	-8130
▁விடுத்துள்ளார்	-8131
▁வழங்கப்படுகிறது	-8132
▁it	-8133
▁எம	-8134
சிசி	-8135
▁மிள	-8136
▁அரைய	-8137
▁இவ்வ	-8138
▁கச்ச	-8139
▁சூதா	-8140
▁தேடு	-8141
▁மாடு	-8142
▁ஹார்	-8143
க்கடன்	-8144
▁ஆம்பு	-8145
▁மானது	-8146
▁வழிநட	-8147
பாடுகள்	-8148
▁நியூயா	-8149
▁நிரப்ப	-8150
▁அமைந்து	-8151
▁கல்விக்	-8152
▁தக்காளி	-8153
▁வேட்பும	-8154
▁அதிமுகவை	-8155
▁இவ்வாறான	-8156
▁வாங்கிக்	-8157
▁அலுவல்கள்	-8158
▁அவர்களால்	-8159
▁திருத்தம்	-8160
▁தேர்தலின்	-8161
▁சுற்றுப்பய	-8162
▁சென்னைக்கு	-8163
▁விரும்பும்	-8164
▁வேண்டுகோள்	-8165
ஃபா	-8166
க்ச	-8167
தியு	-8168
ையர்	-8169
▁அமு	-8170
▁கரி	-8171
ஞ்சல்	-8172
▁ஜென்	-8173
▁நிமி	-8174
▁பொறி	-8175
▁மந்த	-8176
முத்து	-8177
லையும்	-8178
▁கதையை	-8179
▁பேசுப	-8180
▁வணங்க	-8181
▁வாழ்க	-8182
▁கோவிலை	-8183
▁பதிவான	-8184
▁பொதுக்	-8185
▁உறவுகள்	-8186
▁ஜார்க்க	-8187
▁பொருந்த	-8188
▁யாராவது	-8189
▁விடலாம்	-8190
▁விதிகள்	-8191
▁ுள்ளேன்	-8192
த்துவத்தை	-8193
ந்துவீச்ச	-8194
▁இந்தியன்	-8195
▁உயிருடன்	-8196
▁எங்களின்	-8197
▁நிவாரணம்	-8198
▁யெல்லாம்	-8199
▁வருடங்கள்	-8200
▁இடைத்தேர்த	-8201
▁நிலைப்பாடு	-8202
▁போட்டியின்	-8203
▁வாகனங்களில்	-8204
▁வந்திருக்கிறார்	-8205
த்ர	-8206
▁1-	-8207
▁4-	-8208
ம்பிய	-8209
வருமே	-8210
▁1000	-8211
▁கடித	-8212
▁காது	-8213
▁அதுவே	-8214
▁சனாதன	-8215
▁சைபர்	-8216
▁டைட்ட	-8217
▁வண்டி	-8218
▁அதனைத்	-8219
▁இஸ்லாம	-8220
▁கொட்டி	-8221
▁போதைப்	-8222
▁விநாயக	-8223
▁அரையிறு	-8224
▁களிடையே	-8225
▁ங்களால்	-8226
▁முழுவது	-8227
▁இந்நிகழ்	-8228
▁ஜனநாயகக்	-8229
▁தேவஸ்தான	-8230
▁மீட்புப்	-8231
▁உயர்கல்வி	-8232
▁கொரோனாவால்	-8233
▁ஆப்பிரிக்கா	-8234
▁தேவைப்படும்	-8235
னைய	-8236
▁ar	-8237
▁ed	-8238
ண்ணு	-8239
எஸ்டி	-8240
செய்த	-8241
▁முர்	-8242
யிற்சி	-8243
▁சுங்க	-8244
▁நீர்ம	-8245
▁பறக்க	-8246
▁ராஷ்ட	-8247
ிருப்பு	-8248
▁அணிவகு	-8249
▁கார்டு	-8250
▁காலில்	-8251
▁ங்களாக	-8252
▁ரத்தம்	-8253
▁விடுதி	-8254
பாத்தில்	-8255
விட்டதாக	-8256
▁சல்மான்	-8257
▁யானைகள்	-8258
த்திற்கான	-8259
▁ஆய்வுகள்	-8260
▁குறைத்து	-8261
▁குழப்பம்	-8262
▁நிறுவனர்	-8263
▁வேண்டுமா	-8264
▁ஆகியோரின்	-8265
▁இருதரப்பு	-8266
▁கூட்டணியை	-8267
▁விடுகிறது	-8268
▁காஷ்மீரில்	-8269
▁கூறியதாவது	-8270
▁விடுவார்கள்	-8271
ளோ	-8272
▁600	-8273
▁BBC	-8274
ாலேயே	-8275
▁தெற்க	-8276
▁இபிஎஸ்	-8277
▁எண்ணம்	-8278
▁வகித்த	-8279
▁ுகின்ற	-8280
விட்டனர்	-8281
▁இங்கிலா	-8282
▁மாஸ்டர்	-8283
▁ரயிலில்	-8284
▁வாங்குவ	-8285
▁கடைசியாக	-8286
▁திருச்செ	-8287
▁பெரிதும்	-8288
▁வர்களில்	-8289
▁அதிகளவில்	-8290
▁வைத்துள்ளார்	-8291
▁நிலையத்திற்கு	-8292
▁வெளியிடப்பட்ட	-8293
▁குற்றம்சாட்டிய	-8294
சேகர	-8295
வானி	-8296
க்டர்	-8297
ாரில்	-8298
ொன்றை	-8299
▁புலி	-8300
▁மைக்	-8301
▁யோகா	-8302
▁தட்டி	-8303
▁அறங்கா	-8304
▁மிதமான	-8305
▁மூச்சு	-8306
▁அயோத்தி	-8307
▁சீக்கிய	-8308
▁நேர்காண	-8309
▁வைப்பது	-8310
▁கொண்டால்	-8311
▁அளிக்கிறது	-8312
▁ஆணையத்தின்	-8313
▁அரசியலுக்கு	-8314
▁உலகக்கோப்பை	-8315
▁காங்கிரஸின்	-8316
▁முஸ்லிம்கள்	-8317
▁கிராமங்களில்	-8318
4)	-8319
ter	-8320
▁ுற	-8321
▁தசா	-8322
▁வடக	-8323
ோவில்	-8324
▁அரண்	-8325
▁ஆக்க	-8326
▁மாதா	-8327
▁வடகி	-8328
ாளிகள்	-8329
▁களைத்	-8330
▁தொல்ல	-8331
▁ிற்கு	-8332
த்தொடர்	-8333
▁அல்லாத	-8334
▁கொடியை	-8335
▁கடையில்	-8336
▁பிரம்மோ	-8337
▁தொடக்கம்	-8338
▁ஆகியோரும்	-8339
▁பாருங்கள்	-8340
▁மதிப்பில்	-8341
▁உள்ளவர்கள்	-8342
▁குறிவைத்து	-8343
▁சந்திரபாபு	-8344
▁சாப்பிட்டு	-8345
▁காணப்படுகிறது	-8346
▁செய்யப்பட்டனர்	-8347
1)	-8348
ப்தா	-8349
ிற்ற	-8350
ட்களை	-8351
த்திட	-8352
ாமில்	-8353
▁ஸ்டே	-8354
▁ஆதார்	-8355
▁உலகப்	-8356
▁சத்து	-8357
▁எந்தக்	-8358
▁தீட்சி	-8359
▁ாததால்	-8360
▁கட்டும்	-8361
▁நோய்கள்	-8362
▁மசோதாவை	-8363
▁வேலைகளை	-8364
ட்டமைப்பு	-8365
▁அறிவிப்பை	-8366
▁சதுர்த்தி	-8367
▁முதலீட்டு	-8368
▁நிமிடங்கள்	-8369
▁நிறுவனங்களை	-8370
▁மேற்கொள்ளும்	-8371
▁எடுக்கப்பட்டு	-8372
▁தென்னாப்பிரிக்க	-8373
லஸ்	-8374
ாளி	-8375
்தி	-8376
▁ஷ்	-8377
கவலை	-8378
▁கணவ	-8379
▁சதுர	-8380
▁டென்	-8381
▁மரும	-8382
▁இதைக்	-8383
▁தேசம்	-8384
▁புரிய	-8385
▁வாதம்	-8386
ப்பதால்	-8387
▁அத்தனை	-8388
▁அழைத்த	-8389
▁ஆறுமுக	-8390
▁கொங்கு	-8391
▁நிர்வா	-8392
▁மன்னர்	-8393
▁விஷ்ணு	-8394
▁அஸ்வின்	-8395
▁குரங்கு	-8396
▁ஜிஎஸ்டி	-8397
▁பிரிவின	-8398
▁அர்த்தம்	-8399
▁நள்ளிரவு	-8400
ங்களுக்காக	-8401
விலிருந்து	-8402
▁எடுத்தார்	-8403
▁எல்லாவற்ற	-8404
▁கூட்டுறவு	-8405
▁தொல்லியல்	-8406
▁நிலுவையில்	-8407
▁நெருக்கமாக	-8408
▁சந்தித்துப்	-8409
▁செலுத்தினர்	-8410
▁உயிரிழந்தனர்	-8411
▁களிடமிருந்து	-8412
▁தேர்ந்தெடுக்க	-8413
▁தொடங்கியுள்ளது	-8414
ுலக	-8415
▁43	-8416
நபர்	-8417
▁ில்	-8418
டமும்	-8419
▁காதல	-8420
▁தின்	-8421
▁தீவு	-8422
▁நாடக	-8423
▁மென்	-8424
▁சன்னி	-8425
▁மங்கள	-8426
▁ரேஷன்	-8427
▁வேட்ட	-8428
மையன்று	-8429
▁தலைமறை	-8430
▁வாரிசு	-8431
▁அதிபராக	-8432
▁ஒதுக்கி	-8433
▁யாழ்ப்ப	-8434
▁மீதமுள்ள	-8435
▁விக்கிரம	-8436
▁விஷயத்தை	-8437
▁ஆர்எஸ்எஸ்	-8438
▁முகத்தில்	-8439
▁அறிவுறுத்திய	-8440
▁தெரிவிக்கும்	-8441
ir	-8442
ur	-8443
ீத	-8444
ாமே	-8445
ிலே	-8446
▁7-	-8447
▁கய	-8448
▁உறை	-8449
ஸ்திர	-8450
▁வயதி	-8451
லையில்	-8452
▁ஆங்கா	-8453
▁வெகுவ	-8454
▁ுவதன்	-8455
க்கொள்க	-8456
▁நுபுர்	-8457
▁பொலிஸ்	-8458
▁மீம்ஸ்	-8459
▁அரேபியா	-8460
▁இதுவும்	-8461
▁எங்கும்	-8462
▁என்னைப்	-8463
▁பயணித்த	-8464
▁வீடுகளை	-8465
▁கலாச்சார	-8466
▁பிரதிபலி	-8467
▁பொறுப்பை	-8468
▁வளர்ப்பு	-8469
▁வேறுபாடு	-8470
▁சாத்தியம்	-8471
▁செய்திகளை	-8472
▁திரையரங்க	-8473
▁முன்வைத்த	-8474
▁வீராங்கனை	-8475
▁கொள்கிறார்	-8476
▁கிடைக்கிறது	-8477
▁துரைமுருகன்	-8478
▁தெளிவுபடுத்த	-8479
▁நிலையங்களில்	-8480
▁பேசியுள்ளார்	-8481
▁ிருப்பதாகவும்	-8482
▁சர்ச்சைக்குரிய	-8483
னெ	-8484
▁st	-8485
ொழுது	-8486
▁2009	-8487
▁கோளா	-8488
▁சத்த	-8489
▁மகனை	-8490
▁மாய்	-8491
▁யைக்	-8492
▁ரோடு	-8493
ந்தனர்	-8494
்களின்	-8495
▁உருவெ	-8496
▁கார்ட	-8497
▁பங்கா	-8498
▁பீகார	-8499
▁வரிசை	-8500
வர்த்தி	-8501
▁ஆன்மிக	-8502
▁இவற்றை	-8503
▁தகராறு	-8504
▁தலையிட	-8505
▁தூதுவர்	-8506
▁நிலையான	-8507
▁விக்ரம்	-8508
▁வங்கிகள்	-8509
▁வந்துள்ள	-8510
▁விழாவின்	-8511
▁நடத்துவது	-8512
▁இந்துக்கள்	-8513
▁எதிர்காலம்	-8514
▁ரன்களுக்கு	-8515
▁குடும்பத்தை	-8516
▁ஜார்க்கண்ட்	-8517
▁நெருக்கடியை	-8518
▁வழக்குகளில்	-8519
▁விசாரணையின்	-8520
▁அளிக்கப்பட்ட	-8521
▁பெற்றுள்ளார்	-8522
▁முதல்முறையாக	-8523
ூரி	-8524
▁Do	-8525
▁அபே	-8526
▁எகி	-8527
க்கிழ	-8528
மோகன்	-8529
▁கொடை	-8530
▁சஸ்ப	-8531
▁ரிஷி	-8532
▁அசாம்	-8533
▁இஸ்ரோ	-8534
▁சொல்ற	-8535
▁மரபணு	-8536
ட்டத்தை	-8537
▁கிங்ஸ்	-8538
▁கூகுள்	-8539
▁கடினமாக	-8540
▁படிப்பை	-8541
▁பிரச்சின	-8542
▁பிரித்து	-8543
▁போகிறார்	-8544
▁மத்தியப்	-8545
▁ியுள்ளது	-8546
▁தங்களுடைய	-8547
▁வெளியாகிய	-8548
▁ஆண்டுக்கான	-8549
▁எழுத்தாளர்	-8550
▁திருவாரூர்	-8551
▁புதன்கிழமை	-8552
▁காலத்திற்கு	-8553
▁மாகாணத்தில்	-8554
▁தேர்தலுக்கான	-8555
▁பகுதிகளிலும்	-8556
▁விமர்சனங்கள்	-8557
▁குறைந்தபட்சம்	-8558
▁குறைந்துள்ளது	-8559
▁டய	-8560
தல்ல	-8561
▁ஃபி	-8562
▁டர்	-8563
▁நதி	-8564
▁பயி	-8565
▁குர்	-8566
▁டெக்	-8567
▁வண்ட	-8568
வாழ்வு	-8569
▁செந்த	-8570
▁பிறகே	-8571
▁முதுக	-8572
▁இளங்கோ	-8573
▁கட்டளை	-8574
▁கோர்ட்	-8575
▁சரக்கு	-8576
▁சித்தா	-8577
▁நிலவிய	-8578
▁பலியான	-8579
▁வண்ணம்	-8580
▁ஆதரிக்க	-8581
▁உண்மையை	-8582
▁பாத்திர	-8583
▁கொண்டவர்	-8584
▁நிலைமையை	-8585
▁கட்சியும்	-8586
▁கூட்டணிக்	-8587
▁வைத்துள்ள	-8588
▁காரணத்தால்	-8589
▁மாற்றங்களை	-8590
▁விஜயகாந்த்	-8591
▁சந்திக்கும்	-8592
▁செய்துகொண்ட	-8593
▁கொடுக்கப்பட்ட	-8594
▁நிகழ்ச்சிகளில்	-8595
நாசி	-8596
▁கதி	-8597
▁நல்	-8598
லிங்க	-8599
ுவதாக	-8600
▁காமெ	-8601
▁சலசல	-8602
▁சாகு	-8603
▁தீவி	-8604
▁பாரத	-8605
கவலைதள	-8606
▁இறக்க	-8607
▁கச்சா	-8608
▁பாடம்	-8609
▁பிரவே	-8610
▁விடிய	-8611
▁அந்நிய	-8612
▁இயல்பு	-8613
▁தகவல்க	-8614
▁மூலவர்	-8615
▁விளங்க	-8616
ிகளிலும்	-8617
▁கனிமொழி	-8618
▁கவனத்தை	-8619
▁தனித்தன	-8620
▁படுத்து	-8621
▁மனைவியை	-8622
▁அடங்கும்	-8623
▁உறுதியான	-8624
▁கேட்கும்	-8625
▁மாற்றிக்	-8626
▁இவர்களின்	-8627
▁எதிர்ப்பை	-8628
▁கிருஷ்ணன்	-8629
▁சமூகவலைதள	-8630
▁திமுகவில்	-8631
ங்களுக்கும்	-8632
▁கிருஷ்ணகிரி	-8633
▁மாவட்டங்கள்	-8634
▁மாவட்டத்தின்	-8635
▁திட்டத்திற்கு	-8636
கோண	-8637
▁6-	-8638
▁வம்	-8639
▁டெலி	-8640
▁வேகம்	-8641
ாருக்கு	-8642
▁சிலையை	-8643
▁யினால்	-8644
ப்பாளராக	-8645
▁ஒருவரான	-8646
▁கிராமம்	-8647
▁நடப்பது	-8648
▁பிரிக்க	-8649
▁வயிற்று	-8650
▁வெகுவாக	-8651
▁குணவர்தன	-8652
▁டாஸ்மாக்	-8653
▁த்தையும்	-8654
▁பாடல்கள்	-8655
▁மோட்டார்	-8656
▁வாழ்வில்	-8657
ப்போகிறார்	-8658
▁அற்புதமான	-8659
▁உங்களுடைய	-8660
▁காட்சிகளை	-8661
▁காவலர்கள்	-8662
▁பராமரிக்க	-8663
▁விவாதிக்க	-8664
▁ரீதியாகவும்	-8665
▁கொண்டுள்ளார்	-8666
▁துப்பாக்கிச்	-8667
▁குற்றம்சாட்டி	-8668
▁பந்துவீச்சில்	-8669
பொ	-8670
▁7,	-8671
▁னே	-8672
த்தர	-8673
ெண்ண	-8674
▁தோழ	-8675
டுவதை	-8676
வியத்	-8677
▁பயம்	-8678
▁புரோ	-8679
▁வினோ	-8680
▁படேல்	-8681
▁பயிர்	-8682
▁வரியை	-8683
வேந்திர	-8684
▁அக்கறை	-8685
▁உறவில்	-8686
▁பரவும்	-8687
▁மலையாள	-8688
▁ஸ்டார்	-8689
மைப்பின்	-8690
▁அவிநாசி	-8691
▁கத்தார்	-8692
▁திமுகவை	-8693
▁பரிசீலி	-8694
▁கட்சியின	-8695
▁கோட்டாபய	-8696
▁பட்டியலை	-8697
▁ஆங்காங்கே	-8698
▁கண்டறிந்து	-8699
▁புத்தாண்டு	-8700
▁பொறுப்பில்	-8701
▁விவாகரத்து	-8702
▁ஆகியவற்றின்	-8703
▁உத்தரகாண்ட்	-8704
▁சாட்டப்பட்ட	-8705
▁சிறுபான்மைய	-8706
▁பணிபுரியும்	-8707
▁மணிப்பூரில்	-8708
▁இன்ஸ்பெக்டர்	-8709
▁எடுக்கவில்லை	-8710
▁ஏற்றுக்கொண்ட	-8711
▁மட்டுமல்லாது	-8712
▁மேற்கொண்டனர்	-8713
▁வைத்துள்ளனர்	-8714
▁வெளிப்படுத்தி	-8715
▁வந்திருக்கிறது	-8716
ாலினை	-8717
▁ச்சி	-8718
▁டிரெ	-8719
▁நாசா	-8720
▁வினா	-8721
ஸ்புக்	-8722
▁எதுவு	-8723
▁நிற்ப	-8724
▁பாரிய	-8725
▁போவது	-8726
▁ஆறுதல்	-8727
▁ஒன்றான	-8728
▁ஒப்பிட	-8729
▁குடியே	-8730
▁நிர்மா	-8731
▁பலியாக	-8732
▁முகாமை	-8733
▁.......	-8734
▁ஆர்சிபி	-8735
▁காந்திய	-8736
▁புரட்சி	-8737
▁யுள்ளது	-8738
▁எதிர்த்த	-8739
▁சிறுநீரக	-8740
▁ஜல்லிக்க	-8741
▁தனித்துவ	-8742
▁நாராயணன்	-8743
▁நிலக்கரி	-8744
▁பிரியாணி	-8745
▁ரவீந்திர	-8746
▁ஆயுதங்கள்	-8747
▁பணியாற்றும்	-8748
▁புத்தகத்தில்	-8749
▁வட்டாரத்தில்	-8750
▁குறிப்பிடப்பட்ட	-8751
னது	-8752
▁மௌ	-8753
மிதா	-8754
▁மித	-8755
க்குற	-8756
ணிகள்	-8757
▁காளி	-8758
▁மகால	-8759
▁வன்ன	-8760
▁வேளை	-8761
டிக்கை	-8762
▁ஊற்றி	-8763
▁ஆன்மீக	-8764
▁உள்ளதா	-8765
▁சராசரி	-8766
▁வேட்டை	-8767
▁உணவுகள்	-8768
▁உருவாகி	-8769
▁கடைபிடி	-8770
▁தலைமைச்	-8771
▁வசதிகளை	-8772
▁அரங்கில்	-8773
▁இறுதியாக	-8774
▁கொண்டேன்	-8775
▁செலவுகள்	-8776
▁வந்ததும்	-8777
▁ஒன்றுக்கு	-8778
▁தெரிந்தது	-8779
▁முன்னெச்ச	-8780
▁வெளியாகும்	-8781
▁வெளியேறும்	-8782
▁காத்திருந்த	-8783
▁பொதுச்செயலாள	-8784
▁வித்தியாசமான	-8785
▁வைத்திருக்கும்	-8786
▁அதிர்ச்சியடைந்த	-8787
ov	-8788
ூதி	-8789
▁ஆள	-8790
▁வற	-8791
டிங்	-8792
திரு	-8793
ையைக்	-8794
▁சபரி	-8795
▁சீர்	-8796
▁மெகா	-8797
பெரும்	-8798
ப்படாத	-8799
ப்பவர்	-8800
ானந்தா	-8801
▁2020-	-8802
▁ஆர்டர்	-8803
▁தேயிலை	-8804
▁பொதுத்	-8805
▁முர்மு	-8806
▁யையும்	-8807
▁சீசனில்	-8808
▁வருக்கு	-8809
▁உணர்ச்சி	-8810
▁ஓட்டுநர்	-8811
▁கவனித்து	-8812
▁காந்தியை	-8813
▁நிறுத்து	-8814
▁புலம்பெய	-8815
▁முதன்முத	-8816
▁ுள்ளதால்	-8817
▁என்றுதான்	-8818
▁எழுந்தருள	-8819
▁சொல்கிறது	-8820
▁தயாரித்து	-8821
▁விநியோகம்	-8822
▁கொள்ளவில்லை	-8823
▁துப்பாக்கிய	-8824
▁தேர்தல்களில்	-8825
சபெ	-8826
த்மா	-8827
பாஸ்	-8828
மேல்	-8829
ம்போ	-8830
ல்ட்	-8831
ிறுவ	-8832
▁துய	-8833
▁அவனை	-8834
▁டும்	-8835
▁ண்டு	-8836
▁தாஸ்	-8837
▁நிரு	-8838
▁ப்பா	-8839
▁யினை	-8840
ியாவது	-8841
▁அரண்ம	-8842
▁இதைச்	-8843
▁உடற்ப	-8844
▁பக்தி	-8845
▁முறிய	-8846
▁வாஷிங	-8847
▁எலிசபெ	-8848
▁தேர்வை	-8849
▁பயந்து	-8850
▁ஏமாற்றி	-8851
▁செயற்கு	-8852
▁ஜெயந்தி	-8853
▁தகவலின்	-8854
▁பெறலாம்	-8855
▁இருந்ததை	-8856
▁உடலுக்கு	-8857
▁காட்டும்	-8858
▁நான்காம்	-8859
▁வரலாற்றை	-8860
▁வீழ்ச்சி	-8861
▁வெடித்து	-8862
▁பிரசாந்த்	-8863
▁பேசியபோது	-8864
▁உடற்பயிற்சி	-8865
▁ஆப்கானிஸ்தான	-8866
▁இணையதளத்தில்	-8867
▁சட்டவிரோதமாக	-8868
▁போராட்டங்களை	-8869
),	-8870
சின	-8871
மாநில	-8872
▁2010	-8873
▁மணல்	-8874
▁வழிப	-8875
▁வாக்	-8876
பிரதேச	-8877
மேற்கு	-8878
றிந்து	-8879
▁ஆராதனை	-8880
▁இசையமை	-8881
▁நத்தம்	-8882
▁விரிவா	-8883
▁விவரம்	-8884
▁உரிமையை	-8885
▁செய்தல்	-8886
▁பிடிஆர்	-8887
▁விதிகளை	-8888
▁ஹோட்டல்	-8889
▁உணர்ந்து	-8890
▁கிருஷ்ணா	-8891
▁விரும்பி	-8892
▁காணப்பட்ட	-8893
▁செய்வதால்	-8894
▁பரிவர்த்த	-8895
▁உளவுத்துறை	-8896
▁மக்களிடையே	-8897
▁காரணங்களால்	-8898
▁ரஷ்யாவுக்கு	-8899
▁அளித்துள்ளது	-8900
▁படப்பிடிப்பு	-8901
▁விமர்சனங்களை	-8902
▁கொள்கிறார்கள்	-8903
▁தெரிவிக்கிறது	-8904
▁அருள்பாலித்தார்	-8905
சுவ	-8906
▁58	-8907
ஜிபி	-8908
நலம்	-8909
பெரு	-8910
மாள்	-8911
வசம்	-8912
ையோர	-8913
▁கனக	-8914
▁லார	-8915
▁இருப	-8916
▁கோழி	-8917
▁ரியா	-8918
▁ின்ற	-8919
▁அம்பா	-8920
▁தூண்ட	-8921
▁பிரேச	-8922
▁ராதாக	-8923
▁விதம்	-8924
▁குரூப்	-8925
▁தோறும்	-8926
▁த்தினை	-8927
▁பரிதாப	-8928
▁பேச்சை	-8929
▁மீண்டு	-8930
ப்போர்ட்	-8931
▁தண்ணீரை	-8932
▁தீவிரம்	-8933
▁பத்தாம்	-8934
▁வெடித்த	-8935
▁அடைந்தது	-8936
▁புகாரில்	-8937
▁வளர்த்து	-8938
▁ாதீர்கள்	-8939
க்கணக்கில்	-8940
▁எப்போதுமே	-8941
▁ஒலிம்பிக்	-8942
▁கழகத்தின்	-8943
▁ஏற்பட்டால்	-8944
▁டெல்லிக்கு	-8945
▁அரசியல்வாதி	-8946
▁தீர்மானத்தை	-8947
▁வல்லுநர்கள்	-8948
▁இப்படித்தான்	-8949
▁ஒருங்கிணைந்த	-8950
▁காவல்துறையின	-8951
▁விவசாயிகளின்	-8952
23	-8953
▁ின	-8954
லாட்	-8955
லிங்	-8956
வாடி	-8957
▁யுக	-8958
ெக்ட்	-8959
▁கிமீ	-8960
▁கிம்	-8961
▁நலம்	-8962
▁மரம்	-8963
▁மாரி	-8964
மையும்	-8965
▁எழுது	-8966
▁விழாவ	-8967
யகுமார்	-8968
▁கடினம்	-8969
▁தடைகள்	-8970
▁துறையை	-8971
▁வகைகள்	-8972
▁விலும்	-8973
▁உதவிகள்	-8974
▁பட்டாசு	-8975
▁இயங்கும்	-8976
▁தொடங்கின	-8977
▁நெருங்கி	-8978
▁யூடியூப்	-8979
▁கட்டியெழு	-8980
▁கால்பந்து	-8981
▁அருகிலுள்ள	-8982
▁குடியுரிமை	-8983
▁பெண்ணுக்கு	-8984
▁பேரறிவாளன்	-8985
▁விமர்சிக்க	-8986
▁இடம்பெற்றது	-8987
▁மாநிலங்களவை	-8988
▁ஆர்ப்பாட்டம்	-8989
▁விட்டதாகவும்	-8990
▁நம்பிக்கையில்	-8991
வரிச	-8992
▁நாத	-8993
யுத்த	-8994
ீரியா	-8995
்பாஸ்	-8996
▁பாலு	-8997
▁ஸில்	-8998
க்கிங்	-8999
டுக்கி	-9000
▁5,000	-9001
▁எட்டி	-9002
▁நீதிப	-9003
▁போஸ்ட	-9004
▁அழிக்க	-9005
▁சன்னதி	-9006
▁சீட்டு	-9007
▁பெட்டி	-9008
▁முல்லை	-9009
ிடத்தில்	-9010
▁இதேவேளை	-9011
▁சாதனையை	-9012
▁சோவியத்	-9013
▁புண்ணிய	-9014
ர்களையும்	-9015
▁கேட்டால்	-9016
▁சந்திரன்	-9017
▁பயன்பாடு	-9018
▁பிக்பாஸ்	-9019
▁மாபெரும்	-9020
▁வெளிவந்த	-9021
▁அளித்தனர்	-9022
▁கண்காட்சி	-9023
▁நிரூபிக்க	-9024
▁ஆர்வலர்கள்	-9025
▁அதிலிருந்து	-9026
▁விபத்துக்கு	-9027
▁முதலமைச்சராக	-9028
▁புகைப்படங்கள்	-9029
க்கப்பட்டுள்ளார்	-9030
சபா	-9031
▁அந	-9032
amil	-9033
களாக	-9034
ண்டோ	-9035
▁துள	-9036
▁வளி	-9037
றித்த	-9038
றுகள்	-9039
▁அரைச	-9040
▁ஊதிய	-9041
▁சரஸ்	-9042
▁படகு	-9043
▁யாரோ	-9044
▁ஸ்டெ	-9045
தர்கள்	-9046
ாரிடம்	-9047
▁கொன்று	-9048
த்தொழில்	-9049
வேண்டும்	-9050
ுகளுக்கு	-9051
▁அரசுகள்	-9052
▁தன்னார்	-9053
▁திருமலை	-9054
▁யிலுள்ள	-9055
▁வந்தவர்	-9056
▁டிவியில்	-9057
▁நீரிழிவு	-9058
▁நுழைந்து	-9059
▁கடைசியில்	-9060
▁தடுக்கும்	-9061
▁எதிர்கொண்டு	-9062
▁செய்யுங்கள்	-9063
▁இந்நிகழ்வில்	-9064
▁மக்களுக்கும்	-9065
▁நிகழ்ச்சிக்கு	-9066
மாடி	-9067
வதன்	-9068
▁ஃபெ	-9069
▁புய	-9070
▁தாவர	-9071
▁நகரை	-9072
▁மணிக	-9073
▁மேன்	-9074
ட்டாசி	-9075
▁இந்தோ	-9076
▁உயரம்	-9077
▁சங்கர	-9078
▁பேரணி	-9079
▁சமாதான	-9080
▁நகைகளை	-9081
▁நிதியை	-9082
▁பட்டின	-9083
▁மனநிலை	-9084
▁மாதவிட	-9085
க்கொண்டே	-9086
▁இலவசமாக	-9087
▁கர்ப்பி	-9088
▁தினத்தை	-9089
▁படுக்கை	-9090
▁போராடிய	-9091
▁ரஜினிகா	-9092
▁வர்களாக	-9093
▁வாரியம்	-9094
▁இளம்பெண்	-9095
▁க்கொண்டே	-9096
▁தொகுப்பு	-9097
▁பிற்பகல்	-9098
▁போருக்கு	-9099
▁மாத்திரை	-9100
▁மிரட்டிய	-9101
▁உருவாகும்	-9102
▁பிள்ளைகள்	-9103
▁பொருள்கள்	-9104
▁வடகிழக்கு	-9105
▁வரித்துறை	-9106
▁ிருப்பார்	-9107
▁செல்வதற்கு	-9108
▁இலங்கைக்கான	-9109
▁கருதப்படும்	-9110
▁கூற்றுப்படி	-9111
pp	-9112
கூ	-9113
▁ரத	-9114
ரீம்	-9115
விஸ்	-9116
▁..?	-9117
▁மசா	-9118
ச்சர்	-9119
விலில்	-9120
விலேயே	-9121
▁ஆவார்	-9122
இந்தியா	-9123
லிங்கம்	-9124
விளக்கு	-9125
▁அடைக்க	-9126
▁அபாயம்	-9127
▁படையின	-9128
▁வெடிகு	-9129
க்கெட்டு	-9130
ிகளையும்	-9131
▁சரஸ்வதி	-9132
▁நேரத்தை	-9133
▁வேலுமணி	-9134
▁ஆளுநரின்	-9135
▁கொள்வதாக	-9136
▁சொன்னால்	-9137
▁தேவையற்ற	-9138
▁பறக்கும்	-9139
▁பிரதிஷ்ட	-9140
▁ஸ்மார்ட்	-9141
▁இருப்பவர்	-9142
▁தொகுதிகள்	-9143
▁நலத்திட்ட	-9144
▁நிலத்தில்	-9145
▁விடுவிக்க	-9146
▁சினிமாவில்	-9147
▁மாளிகையில்	-9148
▁சுட்டிக்காட்டி	-9149
▁மாநிலங்களுக்கு	-9150
அப்	-9151
ோரை	-9152
▁Ch	-9153
▁கம	-9154
தளம்	-9155
▁தணி	-9156
▁புன	-9157
▁பூச	-9158
▁2012	-9159
▁ஆளாக	-9160
▁காய்	-9161
▁புவி	-9162
▁கிறது	-9163
▁சங்கட	-9164
▁சீசன்	-9165
▁தஞ்சை	-9166
▁தனிமை	-9167
▁தாண்ட	-9168
▁படையெ	-9169
▁பாளைய	-9170
▁சட்டப்	-9171
▁சிங்கள	-9172
▁டெங்கு	-9173
▁மாட்டு	-9174
▁வருவாய	-9175
▁வலுவாக	-9176
ந்தோறும்	-9177
ப்பையும்	-9178
▁குடிக்க	-9179
▁சுந்தர்	-9180
த்துக்காக	-9181
▁பேரையும்	-9182
▁களுக்குப்	-9183
▁புரட்டாசி	-9184
▁வேட்புமனு	-9185
▁அவர்களுடைய	-9186
▁சமூகத்தின்	-9187
▁சிறுமியின்	-9188
▁செல்கின்றனர்	-9189
▁நிறுவனத்திற்கு	-9190
-1	-9191
.0	-9192
▁01	-9193
ஸ்சி	-9194
ந்தன்	-9195
▁கோது	-9196
▁மாயா	-9197
▁வடகொ	-9198
▁வெல்	-9199
ழ்ந்து	-9200
ஸ்வரன்	-9201
▁ஓரளவு	-9202
▁டாக்ட	-9203
னார்கள்	-9204
ளத்தில்	-9205
ீட்டில்	-9206
ையிலேயே	-9207
▁நடப்பு	-9208
▁நல்லிண	-9209
▁நீரில்	-9210
▁பயப்பட	-9211
▁மியான்	-9212
▁வழித்த	-9213
▁இவர்களை	-9214
▁காலியாக	-9215
▁குழுவின	-9216
▁செய்வதை	-9217
▁வெப்பம்	-9218
▁உயர்த்தி	-9219
▁வுக்கும்	-9220
▁ஆன்லைனில்	-9221
▁செயற்குழு	-9222
▁வரைக்கும்	-9223
▁கண்காணிக்க	-9224
▁காட்டிலும்	-9225
▁சுவாமிக்கு	-9226
▁செய்தியில்	-9227
▁நவராத்திரி	-9228
▁பிரச்சாரம்	-9229
▁வளர்ச்சியை	-9230
▁வீரர்களின்	-9231
▁கூட்டணியின்	-9232
▁நீக்கப்பட்ட	-9233
▁முன்னெடுத்து	-9234
ப்படுத்தப்பட்ட	-9235
▁ஊழியர்களுக்கு	-9236
ig	-9237
▁59	-9238
ௌபதி	-9239
▁ஏரி	-9240
ப்பெய	-9241
▁2006	-9242
▁கைலா	-9243
▁சுபா	-9244
▁நாயக	-9245
▁நொறு	-9246
▁ரோகி	-9247
ொருவர்	-9248
்ட்டில்	-9249
▁கலவரம்	-9250
▁சுழற்ப	-9251
▁பங்களா	-9252
▁படைத்த	-9253
▁மதிக்க	-9254
▁திரௌபதி	-9255
▁போர்க்க	-9256
சுப்பிரமண	-9257
▁கட்சியாக	-9258
▁சமூகத்தை	-9259
▁துறைக்கு	-9260
▁பாலிவுட்	-9261
▁இருந்தேன்	-9262
▁கவுன்சில்	-9263
▁பதிலளிக்க	-9264
▁வழக்குகளை	-9265
▁பஞ்சாயத்து	-9266
▁பிரம்மாண்ட	-9267
▁ஆகியோருக்கு	-9268
▁கோரிக்கைகளை	-9269
▁தரப்பினரும்	-9270
▁பார்வையிட்ட	-9271
▁கல்லூரிகளில்	-9272
▁திருக்கோயில்	-9273
▁தோல்வியடைந்த	-9274
▁இல்லையென்றால்	-9275
▁கண்டுபிடித்து	-9276
▁சுட்டிக்காட்டிய	-9277
ியு	-9278
ெடி	-9279
▁).	-9280
▁ஐநா	-9281
▁குஷ	-9282
▁சமு	-9283
த்தன்	-9284
பர்ட்	-9285
▁ஆஞ்ச	-9286
▁காசு	-9287
▁டோஸ்	-9288
▁தற்க	-9289
▁நெட்	-9290
▁ராமக	-9291
ம்பூர்	-9292
▁1,000	-9293
▁திறனை	-9294
▁தெப்ப	-9295
▁நிர்வ	-9296
▁நுகர்	-9297
▁பரிசோ	-9298
ிருக்கு	-9299
▁தடைகளை	-9300
▁துபாய்	-9301
▁தைவான்	-9302
▁லண்டன்	-9303
▁வேகப்ப	-9304
▁ஜெர்மனி	-9305
▁தம்பதிய	-9306
▁பலன்கள்	-9307
▁மாலத்தீ	-9308
▁அந்தஸ்து	-9309
▁சுட்டுக்	-9310
▁செய்வார்	-9311
▁திருட்டு	-9312
▁பிரிவினை	-9313
▁பேட்ஸ்மே	-9314
▁யாரையும்	-9315
▁காரணமாகவே	-9316
▁கொடுப்பது	-9317
▁வர்த்தகம்	-9318
▁ங்களுக்கான	-9319
▁த்திற்கும்	-9320
▁விடுத்தார்	-9321
▁கடற்கரையில்	-9322
▁செய்வார்கள்	-9323
▁திமுகவுக்கு	-9324
▁மகிழ்ச்சியை	-9325
▁வீடியோக்கள்	-9326
▁கணக்கெடுப்பு	-9327
▁நடவடிக்கையும்	-9328
▁64	-9329
▁In	-9330
▁உழ	-9331
▁ஸை	-9332
மாய்	-9333
ரகம்	-9334
ஷனல்	-9335
▁அபு	-9336
▁மவு	-9337
▁ாய்	-9338
ஞ்சிய	-9339
ையார்	-9340
▁2008	-9341
▁ஏலம்	-9342
▁தார்	-9343
▁வசம்	-9344
▁ஷாக்	-9345
ச்சேரி	-9346
▁ஆலோசக	-9347
▁னுடன்	-9348
▁பறந்த	-9349
▁பிரசவ	-9350
▁வுள்ள	-9351
▁டேவிட்	-9352
▁டொனால்	-9353
▁பிளான்	-9354
▁வைகாசி	-9355
▁அங்கேயே	-9356
▁ஒத்திவை	-9357
▁கல்வியை	-9358
▁கேட்டது	-9359
▁பள்ளிக்	-9360
▁கலெக்டர்	-9361
▁கோப்பையை	-9362
▁தெருவில்	-9363
▁வரப்பட்ட	-9364
விட்டாலும்	-9365
▁மாதவிடாய்	-9366
▁முன்பதிவு	-9367
▁பிரம்மோற்ச	-9368
▁அதிகரித்தது	-9369
▁ஆகியவற்றில்	-9370
▁இருப்பதாகக்	-9371
▁உத்தியோகத்த	-9372
▁ஊடகவியலாளர்	-9373
▁என்றெல்லாம்	-9374
▁கல்வித்துறை	-9375
▁செல்லப்பட்ட	-9376
▁ஹெலிகாப்டர்	-9377
▁அப்படித்தான்	-9378
▁குடும்பங்கள்	-9379
▁கொடுத்துள்ளார்	-9380
ஜின	-9381
ம்பே	-9382
வீதி	-9383
பெற்ற	-9384
ொற்று	-9385
▁உதவு	-9386
▁துடி	-9387
▁பாட்	-9388
▁மனநல	-9389
க்காடு	-9390
ிறுத்த	-9391
▁எலான்	-9392
▁கொட்ட	-9393
▁சந்தன	-9394
▁தண்டி	-9395
▁தலைவி	-9396
▁பதிவே	-9397
▁ஸ்திர	-9398
க்கியது	-9399
நீக்கம்	-9400
▁தப்பிய	-9401
▁நியூஸ்	-9402
▁படுகாய	-9403
▁பாண்டி	-9404
▁விற்று	-9405
ஷ்குமார்	-9406
▁செய்யாத	-9407
▁நடராஜர்	-9408
▁பங்குச்	-9409
▁பரீட்சை	-9410
▁மன்னார்	-9411
▁எம்ஜிஆர்	-9412
▁தேங்காய்	-9413
▁நினைவில்	-9414
▁மல்யுத்த	-9415
▁மேற்பார்	-9416
▁அடைந்தனர்	-9417
▁அரையிறுதி	-9418
▁கொண்டுள்ள	-9419
▁செய்வதில்	-9420
▁அமைப்பினர்	-9421
▁சமயங்களில்	-9422
▁நிறைவேற்று	-9423
▁தற்காலிகமாக	-9424
▁நம்புகிறேன்	-9425
▁ராணுவத்தில்	-9426
▁வலுப்படுத்த	-9427
▁செய்யப்பட்டன	-9428
▁தெரிவிக்கிறார்	-9429
▁வெளியாகியுள்ளன	-9430
லோக	-9431
ேஸ்	-9432
▁Ind	-9433
▁சமை	-9434
ற்றல்	-9435
▁தடைய	-9436
▁நிகழ	-9437
▁நைட்	-9438
▁மதிய	-9439
▁யாரை	-9440
▁விழி	-9441
▁அறிகு	-9442
▁உண்டா	-9443
▁நுழைய	-9444
படுத்தி	-9445
▁கற்பனை	-9446
▁காணும்	-9447
▁தொழிலை	-9448
▁பண்டார	-9449
▁பூச்சி	-9450
▁வளரும்	-9451
▁அம்பாள்	-9452
▁இடம்பெற	-9453
▁இடைவெளி	-9454
▁தாமதமாக	-9455
▁பரவியது	-9456
▁செய்தேன்	-9457
▁புகுந்து	-9458
▁மக்கள்தொ	-9459
டுகின்றனர்	-9460
▁பிரதிஷ்டை	-9461
▁கடற்றொழில்	-9462
▁கார்த்திகை	-9463
▁வருமானத்தை	-9464
▁கட்சிகளுக்கு	-9465
▁தினங்களுக்கு	-9466
▁திருவிழாவில்	-9467
▁மேல்முறையீடு	-9468
▁வீரர்களுக்கு	-9469
▁திருப்பத்தூர்	-9470
▁ஆண்டுகளுக்கும்	-9471
▁வெளியிடப்பட்டது	-9472
ha	-9473
விவ	-9474
பிசி	-9475
ள்ளை	-9476
▁வேட	-9477
்பூர்	-9478
▁அவரே	-9479
▁ஆஜர்	-9480
▁ஏக்க	-9481
▁சீல்	-9482
▁சும்	-9483
▁பழமை	-9484
▁பவன்	-9485
▁மாஜி	-9486
தியும்	-9487
மானார்	-9488
ிகேயன்	-9489
▁அர்ஜு	-9490
▁சர்வே	-9491
னுக்காக	-9492
▁பிரத்ய	-9493
▁விலகிய	-9494
▁அவகாசம்	-9495
▁எதற்காக	-9496
▁கறுப்பு	-9497
▁சிறுவர்	-9498
▁செய்யக்	-9499
▁டிரைவர்	-9500
▁தெளிவான	-9501
▁உட்கட்சி	-9502
▁க்கொண்டு	-9503
▁சென்றால்	-9504
▁திருமஞ்ச	-9505
▁நியமிக்க	-9506
▁சட்டசபைத்	-9507
▁பயணத்தின்	-9508
▁முக்கியப்	-9509
▁வழிபாட்டு	-9510
▁விருந்தின	-9511
▁ிலிருந்து	-9512
▁இடத்திலும்	-9513
▁கையெழுத்து	-9514
▁சமூகத்தைச்	-9515
▁த்துக்கும்	-9516
▁மறுபடியும்	-9517
▁விக்கெட்டை	-9518
▁ஏற்படவில்லை	-9519
▁கண்காணித்து	-9520
▁கூட்டணிக்கு	-9521
▁ஆக்கிரமிப்பு	-9522
▁செய்கின்றனர்	-9523
▁வெளிநாடுகளில்	-9524
ri	-9525
ுய	-9526
சப்	-9527
ஜின்	-9528
ுங்க	-9529
▁"..	-9530
▁ஆனி	-9531
▁இச்ச	-9532
▁மிரு	-9533
▁வள்ள	-9534
ர்குலை	-9535
▁அணிவி	-9536
▁அன்றா	-9537
▁காவடி	-9538
▁சதீஷ்	-9539
▁உண்மைய	-9540
▁உனக்கு	-9541
▁பும்ரா	-9542
▁அடியில்	-9543
▁இறைச்சி	-9544
▁செய்யத்	-9545
▁உரிமைகளை	-9546
▁சீர்குலை	-9547
▁துருக்கி	-9548
▁த்தினால்	-9549
▁மொழியில்	-9550
▁விவரிக்க	-9551
▁ஆரம்பிக்க	-9552
▁த்துக்காக	-9553
▁வீழ்த்திய	-9554
▁கூறுகின்றன	-9555
▁சத்தீஸ்கர்	-9556
▁சந்திரயான்	-9557
▁முதல்வரின்	-9558
▁வந்திருந்த	-9559
▁அந்நாட்டின்	-9560
▁ப்பட்டுள்ளதாக	-9561
▁புதுச்சேரியில்	-9562
ro	-9563
ive	-9564
வீர	-9565
ஷல்	-9566
ஷ்க	-9567
ோன்	-9568
சாத்	-9569
வியா	-9570
▁கோண	-9571
▁மணம	-9572
ிலில்	-9573
▁செரு	-9574
▁ட்ரூ	-9575
▁நார்	-9576
▁பிலி	-9577
ட்பட்ட	-9578
ரிக்கா	-9579
ுகளின்	-9580
▁அம்மை	-9581
▁கங்கை	-9582
▁கத்தி	-9583
▁பிராம	-9584
▁வருடா	-9585
▁அவதூறு	-9586
▁இணைக்க	-9587
▁கமல்ஹா	-9588
▁திரிபு	-9589
▁கணிப்பு	-9590
▁வந்தேன்	-9591
▁உருவானது	-9592
▁ஒருபுறம்	-9593
▁கனடாவில்	-9594
▁சவால்களை	-9595
▁சவால்கள்	-9596
▁பெயர்கள்	-9597
▁ப்படாமல்	-9598
▁முன்னேறி	-9599
▁ராஜ்யசபா	-9600
▁வருத்தம்	-9601
▁வர்களும்	-9602
ங்களுக்கான	-9603
▁அமைப்பில்	-9604
▁தந்தையின்	-9605
▁வாகனங்களை	-9606
▁திமுகவினர்	-9607
▁பேரூராட்சி	-9608
▁உத்தரபிரதேச	-9609
ிருக்கின்றனர்	-9610
▁அதிகாரிகளும்	-9611
▁அதேநேரத்தில்	-9612
▁கொண்டுள்ளனர்	-9613
▁இந்தியாவிற்கு	-9614
.10	-9615
▁.1	-9616
▁52	-9617
▁or	-9618
ctor	-9619
னந்த	-9620
ராசா	-9621
▁250	-9622
▁ஆவே	-9623
▁கட்	-9624
▁அவதி	-9625
▁சௌதி	-9626
▁த்தன	-9627
▁வாயு	-9628
▁வாலி	-9629
றிக்கை	-9630
▁ஊட்டி	-9631
▁சுட்ட	-9632
▁பௌத்த	-9633
ியாளராக	-9634
▁பாராட்ட	-9635
ல்களுக்கு	-9636
▁திரையுலக	-9637
▁பிறந்தநா	-9638
▁அடுத்ததாக	-9639
▁ஆட்சியின்	-9640
▁இதெல்லாம்	-9641
▁இறுதிப்போ	-9642
▁சஸ்பெண்ட்	-9643
▁தண்ணீரில்	-9644
▁பார்ப்பது	-9645
▁பின்பற்றி	-9646
▁விதத்தில்	-9647
▁நிலையங்கள்	-9648
▁பெறுவதற்கு	-9649
▁வருகின்றது	-9650
▁நடக்கவில்லை	-9651
▁பேருந்துகள்	-9652
▁முடிவெடுக்க	-9653
▁வலியுறுத்து	-9654
▁வந்துவிட்டது	-9655
▁வாக்காளர்கள்	-9656
▁ஈடுபட்டுள்ளனர்	-9657
9)	-9658
ing	-9659
ர்ட	-9660
ஹர்	-9661
▁vs	-9662
ுவர்	-9663
▁சடல	-9664
▁இன்ப	-9665
▁எதிர	-9666
ஏக்கள்	-9667
ீர்களா	-9668
▁2,000	-9669
▁அள்ளி	-9670
▁கணினி	-9671
▁வலிமை	-9672
▁விசாக	-9673
▁ஈர்த்த	-9674
▁தினத்த	-9675
▁துண்டு	-9676
▁மேற்கோ	-9677
▁அடையும்	-9678
▁இயக்கிய	-9679
▁என்னதான்	-9680
▁தீவிரமான	-9681
▁நெறிமுறை	-9682
▁அறநிலையத்	-9683
▁ஏற்படலாம்	-9684
▁கட்டணத்தை	-9685
▁சட்டங்கள்	-9686
▁திராவிடர்	-9687
▁வாய்ப்புகளை	-9688
▁சட்டமன்றத்தில்	-9689
▁பிரதிநிதித்துவ	-9690
▁பொதுமக்களுக்கு	-9691
▁தெரிவிக்கப்பட்ட	-9692
ீட்	-9693
▁68	-9694
▁Re	-9695
குடா	-9696
விவர	-9697
▁உயி	-9698
▁ஒருவ	-9699
▁நூலக	-9700
▁மாடி	-9701
▁ராஜூ	-9702
ம்பில்	-9703
க்காலம்	-9704
ப்பட்டி	-9705
▁அறுவடை	-9706
▁அவசரமாக	-9707
▁எல்லாமே	-9708
▁யாகசாலை	-9709
▁கடைகளில்	-9710
▁தன்னிடம்	-9711
▁ஆராதனைகள்	-9712
▁பெற்றுள்ள	-9713
▁ஆளுநருக்கு	-9714
▁சுற்றுவட்ட	-9715
▁மருந்துகளை	-9716
▁கொள்வார்கள்	-9717
▁சொன்னார்கள்	-9718
▁தலைவர்களின்	-9719
▁பிரார்த்தனை	-9720
▁அதிகாரிகளின்	-9721
▁ஜல்லிக்கட்டு	-9722
▁முன்னெச்சரிக்கை	-9723
6)	-9724
▁#	-9725
கிர	-9726
ஸ்ர	-9727
ிலா	-9728
ூல்	-9729
ோரி	-9730
▁67	-9731
▁77	-9732
சின்	-9733
▁திவ	-9734
ஹஸ்தி	-9735
▁கீதா	-9736
▁கேலி	-9737
▁கேஸ்	-9738
▁பிளே	-9739
▁ுவதே	-9740
க்கின்	-9741
க்குத்	-9742
படியாக	-9743
▁ஒருவர	-9744
▁கதிர்	-9745
▁விரோத	-9746
▁கார்கே	-9747
▁கிளப்ப	-9748
▁பகுஜன்	-9749
▁பாட்டு	-9750
▁முழக்க	-9751
▁ராஜேஷ்	-9752
ேந்திரன்	-9753
▁எங்களது	-9754
▁கரும்பு	-9755
▁சபையில்	-9756
▁செல்வன்	-9757
▁வந்ததாக	-9758
▁கேள்வியை	-9759
▁முகாமில்	-9760
▁ஸ்டாலினை	-9761
▁இந்தாண்டு	-9762
▁நகைச்சுவை	-9763
▁மதிப்புள்ள	-9764
▁சந்திரசேகர்	-9765
▁செவ்வாய்க்க	-9766
▁வட்டாரங்கள்	-9767
▁விளக்கினார்	-9768
▁ஜெயலலிதாவின்	-9769
▁பகுதிகளுக்கு	-9770
▁இஸ்லாமியர்கள்	-9771
▁கேள்விகளுக்கு	-9772
▁பழங்குடியினர்	-9773
▁குடும்பத்துடன்	-9774
▁கொல்லப்பட்டனர்	-9775
▁சட்டப்பேரவையில்	-9776
நோய	-9777
்ரீ	-9778
▁56	-9779
▁85	-9780
▁?!	-9781
▁ஹூ	-9782
வோடு	-9783
▁ஹோம	-9784
லன்ஸ்	-9785
ாளராக	-9786
▁சாக்	-9787
▁செடி	-9788
▁தேன்	-9789
▁ந்து	-9790
▁னான்	-9791
▁பத்ம	-9792
▁மறிய	-9793
▁எத்தன	-9794
▁கம்பெ	-9795
▁லேசான	-9796
▁அதுவரை	-9797
▁தசாப்த	-9798
▁தாலுகா	-9799
ச்சியில்	-9800
▁அணியும்	-9801
▁இறுதிப்	-9802
▁இளவரசர்	-9803
▁பதிவாகி	-9804
▁ஒளிபரப்ப	-9805
▁குடித்து	-9806
▁குமாரின்	-9807
▁கொடுப்பன	-9808
▁பாண்டியா	-9809
▁புத்தகம்	-9810
▁செல்கிறார்	-9811
▁சென்றுள்ளனர்	-9812
▁குற்றச்சாட்டை	-9813
▁தெரிவித்துள்ள	-9814
▁நடவடிக்கையில்	-9815
▁ரசிகர்களுக்கு	-9816
▁அலுவலகத்திற்கு	-9817
ut	-9818
மன	-9819
கான	-9820
ாதே	-9821
▁51	-9822
ட்ரி	-9823
னிங்	-9824
பார்	-9825
மாதி	-9826
ீரல்	-9827
▁அநு	-9828
▁மரா	-9829
▁அழுத	-9830
▁சொகு	-9831
▁நரசி	-9832
▁மிது	-9833
▁ரசாய	-9834
▁ராஜக	-9835
▁வராத	-9836
விவகார	-9837
▁தடுமா	-9838
▁பயிரி	-9839
▁மாரடை	-9840
ுக்கும்	-9841
▁Doctor	-9842
▁ஆழ்ந்த	-9843
▁கமிஷன்	-9844
▁நம்பர்	-9845
▁ஸுக்கு	-9846
▁ஆஞ்சநேய	-9847
▁இரங்கல்	-9848
▁என்பவரை	-9849
▁எலும்பு	-9850
▁செல்வதை	-9851
▁நடராஜன்	-9852
▁நிகழ்வை	-9853
▁நிறைவடை	-9854
▁பகிரங்க	-9855
▁மறைத்து	-9856
▁கவலைப்பட	-9857
▁கூறியதாக	-9858
▁பக்கத்து	-9859
▁மதிப்பிட	-9860
▁மோதியின்	-9861
▁விஞ்ஞானி	-9862
▁விற்கும்	-9863
▁செயல்முறை	-9864
▁பேராசிரிய	-9865
▁மதிப்பீடு	-9866
▁குற்றங்கள்	-9867
▁தொழில்துறை	-9868
▁பார்ப்போம்	-9869
▁விலங்குகள்	-9870
▁அதிகாரபூர்வ	-9871
▁எண்ணிக்கையை	-9872
▁வேட்பாளர்களை	-9873
▁இன்ஸ்டாகிராம்	-9874
▁உறுப்பினர்களின்	-9875
மாய	-9876
▁54	-9877
▁69	-9878
தாது	-9879
ஸ்ஸி	-9880
▁அத்	-9881
▁இச்	-9882
▁மீற	-9883
பிமான	-9884
முதிக	-9885
▁ஓடிய	-9886
▁காடு	-9887
▁காளை	-9888
▁தாரா	-9889
▁தைப்	-9890
▁பாலை	-9891
▁லண்ட	-9892
▁ஹிட்	-9893
▁அக்கா	-9894
▁அண்ட்	-9895
▁தானிய	-9896
▁மனிதா	-9897
▁காய்கற	-9898
▁கோதுமை	-9899
▁திருநா	-9900
▁நிலப்ப	-9901
▁புதுவை	-9902
▁முகாம்	-9903
களுக்கான	-9904
▁அமைதியை	-9905
▁இணைத்து	-9906
▁கைகளில்	-9907
▁நாளிதழ்	-9908
▁விதித்த	-9909
ளிக்கிறது	-9910
▁அமைதியான	-9911
▁களமிறங்க	-9912
▁தருமபுரி	-9913
▁பீகாரில்	-9914
▁விலைக்கு	-9915
▁அணுகுமுறை	-9916
▁பயணத்தில்	-9917
▁ரசிகர்களை	-9918
▁உரையாற்றிய	-9919
▁குறைக்கும்	-9920
▁மனிதாபிமான	-9921
▁வாக்களித்த	-9922
▁சமர்ப்பித்த	-9923
▁பொதுமக்களின்	-9924
▁அனுமதிக்கப்பட	-9925
▁நிறுத்தப்பட்ட	-9926
▁புரிந்துகொள்ள	-9927
▁வனத்துறையினர்	-9928
▁தயாரிக்கப்பட்ட	-9929
▁நேர்த்திக்கடன்	-9930
வலை	-9931
▁05	-9932
டையே	-9933
வானை	-9934
வாஸ்	-9935
ணையாக	-9936
நாட்ட	-9937
ிகளாக	-9938
ேசியா	-9939
ோர்ட்	-9940
▁டார்	-9941
▁தடவை	-9942
▁நூல்	-9943
▁பாபா	-9944
▁புகா	-9945
ார்களா	-9946
▁வசூல்	-9947
▁கிஷோர்	-9948
▁குப்தா	-9949
▁கேட்ச்	-9950
▁சிபிசி	-9951
▁போஸ்ட்	-9952
▁மாப்பி	-9953
▁லஞ்சம்	-9954
▁வெட்டு	-9955
டுவதற்கு	-9956
▁அடைத்து	-9957
▁உணர்த்த	-9958
▁எழுச்சி	-9959
▁புகுந்த	-9960
ிலிருந்தே	-9961
▁செல்லாது	-9962
▁மேற்கண்ட	-9963
ிகளுக்கும்	-9964
▁சொல்லலாம்	-9965
▁தெரியவந்த	-9966
▁வாழ்வாதார	-9967
▁வாஷிங்டன்	-9968
▁வீதிகளில்	-9969
▁அறங்காவலர்	-9970
பன்னீர்செல்வ	-9971
▁சொல்லவில்லை	-9972
▁நட்சத்திரம்	-9973
▁மாறியுள்ளது	-9974
▁ரசிகர்களின்	-9975
▁புகைப்படத்தை	-9976
▁வாக்குறுதிகளை	-9977
ஜூ	-9978
வாச	-9979
சாலி	-9980
▁for	-9981
▁மோக	-9982
மண்டல	-9983
▁உள்க	-9984
▁ஒட்ட	-9985
▁நானே	-9986
▁பச்ச	-9987
▁மியூ	-9988
▁வேன்	-9989
ஜியின்	-9990
▁சேதம்	-9991
▁பிரதோ	-9992
▁ரிடம்	-9993
▁விசிக	-9994
▁காமெடி	-9995
▁சுனில்	-9996
▁நிதியா	-9997
▁விரிவு	-9998
▁வீரராக	-9999
▁ஸ்கோர்	-10000
▁அதையும்	-10001
▁கணிசமான	-10002
▁தனிநபர்	-10003
▁பாண்டிய	-10004
▁பாருங்க	-10005
▁மீம்ஸ்க	-10006
▁தப்பிக்க	-10007
▁பிரத்யேக	-10008
▁மாற்றும்	-10009
▁முன்னால்	-10010
▁ுபவர்கள்	-10011
▁அவர்களும்	-10012
▁கொள்ளவும்	-10013
▁கொள்ளாமல்	-10014
▁திருவனந்த	-10015
▁தரப்புக்கு	-10016
▁முடிவடைந்த	-10017
▁தயாரிக்கும்	-10018
▁வாக்குமூலம்	-10019
▁வார்த்தைகள்	-10020
▁அனுப்பப்பட்ட	-10021
▁செல்லும்போது	-10022
▁வளர்ச்சிக்கு	-10023
▁வேண்டுமானால்	-10024
▁கூட்டத்திற்கு	-10025
வதே	-10026
▁72	-10027
▁de	-10028
▁உக	-10029
▁பன	-10030
ஹான்	-10031
▁120	-10032
▁சூர	-10033
▁நீள	-10034
கொண்ட	-10035
ாந்தி	-10036
▁அஜய்	-10037
▁சேது	-10038
▁டீம்	-10039
▁தியே	-10040
▁னில்	-10041
▁மிசோ	-10042
ணியின்	-10043
▁எழும்	-10044
▁கூறின	-10045
▁புஷ்ப	-10046
▁வியாப	-10047
க்குறைய	-10048
▁டிஜிபி	-10049
▁திரளான	-10050
▁நகரின்	-10051
▁பொதுப்	-10052
▁போற்றி	-10053
▁கிளப்பி	-10054
▁தேமுதிக	-10055
▁மூர்த்த	-10056
▁வேலைகள்	-10057
▁எத்தனையோ	-10058
▁கட்சிகளை	-10059
▁சாவர்க்க	-10060
▁துவங்கிய	-10061
ப்பாளர்கள்	-10062
▁உயிருக்கு	-10063
▁ஒப்படைக்க	-10064
▁தலைமறைவாக	-10065
▁பெறவில்லை	-10066
▁கொடுத்தால்	-10067
▁கொண்டாடும்	-10068
▁விமானப்படை	-10069
▁தேர்தலிலும்	-10070
▁பக்தர்களின்	-10071
▁முக்கியமானதாக	-10072
▁செய்திருக்கிறது	-10073
3)	-10074
தன	-10075
ளஸ்	-10076
▁57	-10077
▁66	-10078
▁8-	-10079
▁95	-10080
▁அஷ்	-10081
▁சைவ	-10082
▁டிய	-10083
மாகவே	-10084
▁உடலு	-10085
▁கரன்	-10086
▁சாதன	-10087
▁பெய்	-10088
▁மகளை	-10089
▁வெறி	-10090
▁ஸ்பெ	-10091
ிலுமாக	-10092
▁கொரிய	-10093
▁செலாவ	-10094
▁த்துல	-10095
▁நிதான	-10096
▁முஸ்ல	-10097
ங்களைச்	-10098
ரப்பில்	-10099
▁அருந்த	-10100
▁காணொளி	-10101
▁செலவிட	-10102
▁ரசிகர்	-10103
▁வங்காள	-10104
▁உதவியாக	-10105
▁கம்பெனி	-10106
▁காவலில்	-10107
▁சட்டத்த	-10108
▁சாட்டிய	-10109
▁ரஞ்சித்	-10110
▁கல்யாணம்	-10111
▁சதவீதமாக	-10112
▁சொந்தமாக	-10113
▁தனிப்படை	-10114
▁திசையில்	-10115
▁பாகுபாடு	-10116
▁ரன்களில்	-10117
▁அப்படியான	-10118
▁பணவீக்கம்	-10119
▁மையத்தின்	-10120
▁வர்களிடம்	-10121
▁ஆரோக்கியமான	-10122
▁மீட்கப்பட்ட	-10123
▁முற்றிலுமாக	-10124
▁ராஜஸ்தானில்	-10125
▁வலைத்தளங்களில்	-10126
▁பொருளாதாரத்தில்	-10127
ப்ஸ்	-10128
▁ஊரக	-10129
▁சோஷ	-10130
சர்ஸ்	-10131
ராமன்	-10132
ர்ணமி	-10133
▁உன்ன	-10134
தியுலா	-10135
▁2023-	-10136
▁எஸ்பி	-10137
▁கோட்ப	-10138
▁யுத்த	-10139
▁வெட்ட	-10140
ோருக்கு	-10141
▁அவரைக்	-10142
▁தேவாலய	-10143
▁மேட்டு	-10144
▁சாகுபடி	-10145
▁பருவமழை	-10146
▁கொடூரமாக	-10147
▁சொன்னேன்	-10148
▁கோலாகலமாக	-10149
▁சோதனையில்	-10150
▁நடைபெற்றன	-10151
▁நுண்ணறிவு	-10152
▁வியாபாரம்	-10153
▁விளம்பரம்	-10154
▁உற்பத்தியை	-10155
▁காட்டினார்	-10156
▁அப்படிப்பட்ட	-10157
லய	-10158
இன்	-10159
சுர	-10160
▁எதை	-10161
▁தம்	-10162
▁தாள	-10163
▁ரஹ்	-10164
னியர்	-10165
வாசல்	-10166
▁தைத்	-10167
▁பான்	-10168
▁மெசே	-10169
வில்லி	-10170
▁ஆப்பி	-10171
▁ஆவின்	-10172
▁ஏழாம்	-10173
▁சன்ரை	-10174
▁நாடான	-10175
▁நெதர்	-10176
▁பரஸ்ப	-10177
▁ினார்	-10178
▁குத்து	-10179
▁நகைகள்	-10180
▁போரின்	-10181
நிதியின்	-10182
ிறீர்கள்	-10183
▁அப்போதே	-10184
▁க்களின்	-10185
▁தன்மையை	-10186
▁தேடுதல்	-10187
▁அனைவரின்	-10188
▁எடுத்தது	-10189
▁காங்கிரஸ	-10190
▁செய்வோம்	-10191
▁தீவிரவாத	-10192
▁பணியாளர்	-10193
▁வைத்திலி	-10194
விருக்கும்	-10195
▁சிறுவர்கள்	-10196
▁நியூயார்க்	-10197
▁செயற்கைக்கோ	-10198
▁பெய்யக்கூடும்	-10199
ai	-10200
hi	-10201
சர	-10202
▁ண	-10203
▁le	-10204
ண்ணா	-10205
▁இதோ	-10206
▁ஊடு	-10207
மாகக்	-10208
▁கேன்	-10209
▁கையக	-10210
▁விபர	-10211
த்தவர்	-10212
▁எப்பட	-10213
▁நடுவே	-10214
▁பரம்ப	-10215
▁மேஷம்	-10216
▁வந்தே	-10217
▁வராது	-10218
▁வறுமை	-10219
▁இன்டர்	-10220
▁என்னோட	-10221
▁ஐஸ்வர்	-10222
▁கற்கள்	-10223
▁சித்து	-10224
▁சொகுசு	-10225
▁தொட்டு	-10226
▁பார்ட்	-10227
▁பேரின்	-10228
▁மில்லை	-10229
▁இலட்சம்	-10230
▁உள்ளோம்	-10231
▁எதிர்நோ	-10232
▁கிண்டல்	-10233
▁சேவைகளை	-10234
▁பெருங்க	-10235
▁யாகவும்	-10236
▁யோசிக்க	-10237
▁லெபனான்	-10238
ாளர்களின்	-10239
▁இலங்கையை	-10240
▁ஈடுபடும்	-10241
▁எதிரானது	-10242
▁பூமியில்	-10243
▁மக்களால்	-10244
▁வேளாண்மை	-10245
▁அப்துல்லா	-10246
▁வங்கதேசம்	-10247
▁கைத்தொழில்	-10248
▁புள்ளிவிவர	-10249
▁போதெல்லாம்	-10250
▁அறிக்கையின்	-10251
▁எப்படியாவது	-10252
▁பணிபுரிந்து	-10253
▁பதிவுசெய்து	-10254
▁பார்த்தபோது	-10255
▁விடக்கூடாது	-10256
▁வீடியோக்களை	-10257
▁விரிவுபடுத்த	-10258
▁அளிக்கப்பட்டு	-10259
▁இல்லாவிட்டால்	-10260
ரது	-10261
லனை	-10262
தன்ய	-10263
பற்ற	-10264
ஸ்பொ	-10265
▁700	-10266
க்கூட	-10267
த்தடி	-10268
▁அமீர	-10269
▁அவரு	-10270
▁கோமா	-10271
▁புனர	-10272
▁ராஜு	-10273
▁வக்ர	-10274
▁ஸ்வி	-10275
▁ஆஜரான	-10276
▁உட்கொ	-10277
▁கருணை	-10278
▁திங்க	-10279
▁வரின்	-10280
▁கெலாட்	-10281
▁செங்கோ	-10282
▁முகவரி	-10283
▁வாயில்	-10284
▁விளைவி	-10285
▁ஆச்சர்ய	-10286
▁இப்படிய	-10287
▁கார்ப்ப	-10288
▁நன்கொடை	-10289
▁வெற்றிய	-10290
▁ஹேமந்த்	-10291
▁உரையாற்ற	-10292
▁எலிசபெத்	-10293
▁கடிதத்தை	-10294
▁காஸாவில்	-10295
▁டொனால்ட்	-10296
▁பெய்யும்	-10297
▁வெல்லும்	-10298
▁அக்னிபாத்	-10299
▁கருத்துக்	-10300
▁கொடுத்தனர்	-10301
▁படத்திற்கு	-10302
▁ஸ்ரீவில்லி	-10303
▁ஆரம்பித்தது	-10304
▁கட்டுக்குள்	-10305
▁கூட்டமைப்பு	-10306
▁பட்ஜெட்டில்	-10307
▁வைத்திருப்ப	-10308
▁ஒதுக்கப்பட்ட	-10309
▁பெற்றுள்ளனர்	-10310
▁குடும்பத்தின்	-10311
▁செவ்வாய்க்கிழமை	-10312
8)	-10313
os	-10314
வரா	-10315
ிகோ	-10316
ொழி	-10317
▁St	-10318
▁ஏவ	-10319
ங்கல	-10320
லைட்	-10321
ளாக்	-10322
▁களி	-10323
▁பைல	-10324
கவின்	-10325
திபதி	-10326
▁அறிவ	-10327
▁எரிச	-10328
▁கருட	-10329
▁காலா	-10330
▁ப்பு	-10331
▁ரோஜா	-10332
▁வாடி	-10333
▁வாரி	-10334
கோணமலை	-10335
▁அதிவே	-10336
▁அமமுக	-10337
▁ஓட்டி	-10338
▁நாயகி	-10339
▁மயில்	-10340
ச்சாவடி	-10341
▁கோயிலை	-10342
▁சவாலாக	-10343
▁சித்தி	-10344
▁சிவாஜி	-10345
▁தடுத்த	-10346
▁திரவிய	-10347
▁தேநீர்	-10348
▁தொண்டு	-10349
▁பால்கு	-10350
▁மூழ்கி	-10351
▁வினோத்	-10352
▁ஹெஸ்பொ	-10353
▁இடையூறு	-10354
▁சாலைகள்	-10355
▁சுமந்து	-10356
▁சொல்வதை	-10357
▁மண்டலம்	-10358
▁முன்னேற	-10359
▁காப்பீடு	-10360
▁தேதிக்கு	-10361
▁பேசுபொரு	-10362
▁மதச்சார்	-10363
▁ரயில்கள்	-10364
▁விடுவார்	-10365
▁தருமபுரம்	-10366
▁நடிப்பில்	-10367
▁ுவதாகவும்	-10368
▁இல்லத்தில்	-10369
▁என்பதற்கான	-10370
▁சன்ரைசர்ஸ்	-10371
▁திருகோணமலை	-10372
க்கொள்கிறேன்	-10373
▁கலந்துகொள்ள	-10374
▁செயலகத்தில்	-10375
▁பந்துவீச்சு	-10376
▁அடைக்கப்பட்ட	-10377
▁எடப்பாடிக்கு	-10378
▁தாக்குதல்கள்	-10379
▁நிமிடங்களில்	-10380
▁மாநிலங்களிலும்	-10381
▁வெளிப்படுத்திய	-10382
ஃபோ	-10383
காச	-10384
ஜிய	-10385
ப்ள	-10386
▁63	-10387
▁8,	-10388
▁9-	-10389
▁as	-10390
ப்ட்	-10391
▁எய்	-10392
▁அரசே	-10393
▁மனதை	-10394
▁யாய்	-10395
▁ஸ்வீ	-10396
க்களம்	-10397
பேட்டை	-10398
ரங்கம்	-10399
▁டவுன்	-10400
▁துறைய	-10401
▁தேவர்	-10402
▁பேரவை	-10403
▁முகமை	-10404
▁வாரணா	-10405
பிஷேகம்	-10406
▁இதேபோல	-10407
▁கிற்கு	-10408
▁செயலர்	-10409
▁செலவழி	-10410
▁டக்ளஸ்	-10411
▁நிலச்ச	-10412
▁மறைக்க	-10413
▁வெளியி	-10414
▁செந்தில	-10415
▁நிகழும்	-10416
▁நேர்ந்த	-10417
▁பலன்களை	-10418
▁மண்ணில்	-10419
▁யாத்திர	-10420
▁வருபவர்	-10421
▁அப்புறம்	-10422
▁இவற்றில்	-10423
▁எரிசக்தி	-10424
▁கேப்டனாக	-10425
▁நடந்தால்	-10426
▁விடுவோம்	-10427
▁சிந்திக்க	-10428
▁நிறுத்தம்	-10429
▁வகிக்கும்	-10430
▁விழுந்தது	-10431
▁வருவார்கள்	-10432
▁இயக்கத்தின்	-10433
▁ரஜினிகாந்த்	-10434
▁பிரச்சினைகளை	-10435
▁பொதுக்குழுவை	-10436
▁இளைஞர்களுக்கு	-10437
▁உரிமையாளர்கள்	-10438
▁சுப்பிரமணியன்	-10439
▁திருக்கல்யாணம்	-10440
▁Y	-10441
போன	-10442
▁73	-10443
▁உல	-10444
சியா	-10445
ரத்ன	-10446
வெல்	-10447
ஷின்	-10448
ஸ்வி	-10449
▁அகா	-10450
▁கெள	-10451
▁தசை	-10452
▁தீர	-10453
▁மேஷ	-10454
▁வதை	-10455
்ட்டி	-10456
▁அதீத	-10457
▁எஸ்ட	-10458
▁காமா	-10459
▁குரோ	-10460
▁கூர்	-10461
▁மோர்	-10462
▁ரெட்	-10463
தித்து	-10464
▁அடிமை	-10465
▁சாட்ட	-10466
▁தயிர்	-10467
▁தவிர்	-10468
▁வீடுக	-10469
்சிஸ்ட்	-10470
▁கோடியே	-10471
▁கோளாறு	-10472
▁சிட்டி	-10473
▁சில்வா	-10474
▁டுக்கு	-10475
▁போனால்	-10476
▁வசிக்க	-10477
▁நபர்களை	-10478
▁நெடுஞ்ச	-10479
▁வகித்து	-10480
▁எனக்கும்	-10481
▁ஒன்றியம்	-10482
▁சுயேச்சை	-10483
▁செய்தோம்	-10484
▁செல்போனை	-10485
▁பொன்முடி	-10486
▁விலைவாசி	-10487
▁இளைஞர்களை	-10488
▁சிபிசிஐடி	-10489
▁நூற்றாண்ட	-10490
▁கிடைக்காது	-10491
▁செய்யப்படு	-10492
▁மக்கள்தொகை	-10493
▁வேலைக்குச்	-10494
▁ஸ்டாலினின்	-10495
▁ஜனாதிபதியாக	-10496
▁தனித்தனியாக	-10497
▁இருந்திருக்க	-10498
▁முதன்முறையாக	-10499
▁எல்லோருக்கும்	-10500
▁கலந்துரையாடல்	-10501
▁செயல்படுகிறது	-10502
▁நிலையத்துக்கு	-10503
▁செய்யப்படவில்லை	-10504
▁es	-10505
▁ான	-10506
பாணி	-10507
▁எரு	-10508
▁துற	-10509
▁ாலோ	-10510
மானிய	-10511
▁அவளை	-10512
▁சராச	-10513
▁நிகர	-10514
▁ப்ளே	-10515
கங்கள்	-10516
டினார்	-10517
ழ்வார்	-10518
▁Tamil	-10519
▁அன்னை	-10520
▁உடனான	-10521
▁பின்த	-10522
▁விடக்	-10523
▁ஆழ்த்த	-10524
▁கத்திய	-10525
▁தாமதம்	-10526
▁தோன்றி	-10527
▁நெதன்ய	-10528
▁ஹாரிஸ்	-10529
▁எழுப்பு	-10530
▁சிக்ஸர்	-10531
▁செயற்பட	-10532
▁டெலிவரி	-10533
▁பற்றிப்	-10534
▁வுள்ளது	-10535
▁கேட்டோம்	-10536
▁சண்முகம்	-10537
▁சென்னையை	-10538
▁சேமிப்பு	-10539
▁அதேபோன்று	-10540
▁க்களுக்கு	-10541
▁சீரியலில்	-10542
▁பாராட்டிய	-10543
▁விளைவுகளை	-10544
▁எச்சரித்து	-10545
▁திலிருந்து	-10546
▁பங்களிப்பை	-10547
▁ஆந்திராவில்	-10548
▁ஒன்றிணைந்து	-10549
▁கொள்வதற்காக	-10550
▁கோரிக்கைகள்	-10551
▁வருடங்களில்	-10552
▁அர்ப்பணிப்பு	-10553
▁அதிகாரிகளிடம்	-10554
▁இருந்துள்ளார்	-10555
▁பார்வையாளர்கள்	-10556
7)	-10557
.20	-10558
ஒரு	-10559
ணாக	-10560
்கி	-10561
▁ஸி	-10562
▁ஹு	-10563
தாரி	-10564
மிகு	-10565
ஷ்மி	-10566
ெந்த	-10567
▁உடு	-10568
க்கதை	-10569
ட்டரி	-10570
ன்றம்	-10571
▁1990	-10572
▁சிம்	-10573
▁சுக்	-10574
▁பேக்	-10575
▁வற்ப	-10576
கையில்	-10577
டுப்பை	-10578
ுகொள்ள	-10579
▁அனிதா	-10580
▁சாட்ச	-10581
▁சுவர்	-10582
▁தனுஷ்	-10583
▁பிளஸ்	-10584
▁வானதி	-10585
▁ிலும்	-10586
▁சாட்டி	-10587
▁நேரமாக	-10588
▁மாணவிய	-10589
▁விளைவு	-10590
களின்படி	-10591
▁காரணமான	-10592
▁செய்யப்	-10593
▁துவக்கி	-10594
▁மெதுவாக	-10595
▁கடலுக்கு	-10596
▁சிக்கலான	-10597
▁திங்கட்க	-10598
▁தீர்த்து	-10599
▁வடகொரியா	-10600
▁வார்டில்	-10601
த்துக்கும்	-10602
▁களமிறங்கி	-10603
▁வன்முறையை	-10604
▁அரசுக்கும்	-10605
▁தொழிலதிபர்	-10606
▁பேட்டர்கள்	-10607
▁மாப்பிள்ளை	-10608
▁விளையாடும்	-10609
▁நபர்களுக்கு	-10610
ப்பட்டுள்ளனர்	-10611
▁சுற்றுவட்டார	-10612
க்கப்பட்டுள்ளன	-10613
▁தெரிந்துகொள்ள	-10614
▁புகைப்படங்களை	-10615
▁ராதாகிருஷ்ணன்	-10616
▁திரைப்படத்தில்	-10617
▁பதிவாகியுள்ளது	-10618
▁பயன்படுத்துவது	-10619
▁பிராந்தியத்தில்	-10620
ul	-10621
▁61	-10622
ரசன்	-10623
ர்த்	-10624
▁(20	-10625
▁டொல	-10626
▁பழு	-10627
▁ஷன்	-10628
ேயும்	-10629
▁கதவை	-10630
▁சால்	-10631
▁வேள்	-10632
க்கமான	-10633
ாடுகளை	-10634
ேயுள்ள	-10635
்கிழமை	-10636
▁ஃப்ளா	-10637
▁அழகான	-10638
▁என்பன	-10639
▁ஓடும்	-10640
▁சடங்க	-10641
▁ஜென்ம	-10642
▁பிம்ப	-10643
▁முட்ட	-10644
▁உயரும்	-10645
▁கம்பம்	-10646
▁தையும்	-10647
▁பரிசாக	-10648
▁மதிமுக	-10649
▁மாணவன்	-10650
▁மிரட்ட	-10651
நாட்டில்	-10652
ிடப்பட்ட	-10653
ில்லாமல்	-10654
▁புறநகர்	-10655
▁மரங்கள்	-10656
▁வற்புறு	-10657
ம்பாக்கம்	-10658
▁இணையதளம்	-10659
▁எங்களால்	-10660
▁காணிக்கை	-10661
▁நேரிடும்	-10662
▁போலீஸில்	-10663
▁வருங்கால	-10664
▁குறைவாகவே	-10665
▁ங்களையும்	-10666
▁பேசவில்லை	-10667
▁போடப்பட்ட	-10668
▁முக்கியக்	-10669
▁அருகேயுள்ள	-10670
▁அளித்துள்ள	-10671
▁அவர்களுடன்	-10672
▁இதையெல்லாம்	-10673
▁நடைமுறையில்	-10674
▁பரிவர்த்தனை	-10675
▁பாதிப்புகளை	-10676
▁இருந்துள்ளது	-10677
▁வெளியேறினார்	-10678
▁ஒட்டுமொத்தமாக	-10679
▁எல்லாவற்றையும்	-10680
▁பாகிஸ்தானுக்கு	-10681
▁கொண்டிருந்தபோது	-10682
ரைய	-10683
ிகு	-10684
்தோ	-10685
▁76	-10686
▁பஜ	-10687
மேன்	-10688
ராஸ்	-10689
▁உதி	-10690
▁உளை	-10691
▁ந்த	-10692
▁மிட	-10693
த்தாக	-10694
ோரின்	-10695
தைக்கு	-10696
▁இழக்க	-10697
▁உன்னை	-10698
▁விஷம்	-10699
பன்னீர்	-10700
ப்பெயர்	-10701
▁திங்கள	-10702
▁திரண்ட	-10703
▁பண்டிக	-10704
▁பாதையை	-10705
▁போனார்	-10706
▁போனில்	-10707
▁முரண்ப	-10708
▁வாழ்வு	-10709
தாரர்கள்	-10710
▁இறுதிச்	-10711
▁கோயம்பு	-10712
▁தரவுகள்	-10713
ப்பிடிக்க	-10714
▁இருவருமே	-10715
▁கொள்வோம்	-10716
▁சுவாரஸ்ய	-10717
▁ுவீர்கள்	-10718
▁சேகர்பாபு	-10719
▁தேதிகளில்	-10720
▁நாள்களில்	-10721
▁பொருளாளர்	-10722
▁விரும்பிய	-10723
▁ஏராளமானோர்	-10724
▁பேருந்தில்	-10725
▁மருத்துவப்	-10726
▁குற்றவாளிகளை	-10727
▁சட்டத்திற்கு	-10728
▁தங்கியிருந்த	-10729
▁தயாரிப்பாளர்	-10730
▁பழனிசாமிக்கு	-10731
▁வாக்கெடுப்பு	-10732
▁விட்டுவிட்டு	-10733
▁நடவடிக்கைகளில்	-10734
ice	-10735
னஸ்	-10736
▁நள	-10737
▁யெ	-10738
னாமி	-10739
வாரா	-10740
▁1.5	-10741
▁சுட	-10742
ள்ளான	-10743
▁2004	-10744
▁சிரா	-10745
▁சுடு	-10746
▁ச்சு	-10747
▁பழகி	-10748
▁பூரி	-10749
▁அருவி	-10750
▁சரமார	-10751
▁தீபம்	-10752
▁பிரகட	-10753
▁மயக்க	-10754
மையுடன்	-10755
▁அம்மனை	-10756
▁உயிரின	-10757
▁ஜின்பி	-10758
▁ட்ரூடோ	-10759
▁உரையில்	-10760
▁கல்வித்	-10761
▁சீக்கிர	-10762
▁சீனியர்	-10763
▁தரையில்	-10764
▁தாய்ப்ப	-10765
▁பின்னரே	-10766
▁முனைவர்	-10767
▁வளர்மதி	-10768
▁விடுவது	-10769
ப்பதில்லை	-10770
▁அடிக்கல்	-10771
▁உலகளவில்	-10772
▁சைக்கிள்	-10773
▁நகருக்கு	-10774
▁நிலங்கள்	-10775
▁பிரசாதம்	-10776
▁வாகனத்தை	-10777
▁வேட்டையா	-10778
▁அடித்தார்	-10779
▁ஆதாரங்கள்	-10780
▁எழுதினார்	-10781
▁காணவில்லை	-10782
▁சரமாரியாக	-10783
▁சாலைகளில்	-10784
▁புறப்பாடு	-10785
▁பெண்களும்	-10786
▁மறைவுக்கு	-10787
▁முற்றுகைய	-10788
▁விருச்சிக	-10789
▁வெடித்தது	-10790
▁கொள்கிறோம்	-10791
▁கோயில்களில்	-10792
▁மாற்றப்பட்ட	-10793
▁வார்த்தைகளை	-10794
▁நூற்றாண்டில்	-10795
▁பொறுப்பேற்று	-10796
est	-10797
யன்	-10798
வீக	-10799
ிரத	-10800
ுவா	-10801
▁03	-10802
▁98	-10803
ன்றை	-10804
ராஹி	-10805
லார்	-10806
லைக்	-10807
▁ஊசி	-10808
▁6:00	-10809
▁சரிச	-10810
▁புனே	-10811
▁போஸ்	-10812
▁ஸ்தா	-10813
▁ஊடுரு	-10814
▁ங்களே	-10815
▁சரியா	-10816
▁தங்கை	-10817
▁தீபக்	-10818
▁துரித	-10819
▁பதக்க	-10820
▁பாடலை	-10821
▁வசந்த	-10822
▁ஆளுங்க	-10823
▁உச்சம்	-10824
▁செஞ்சி	-10825
▁தாங்கி	-10826
▁தாயின்	-10827
▁தொந்தர	-10828
▁நம்பிய	-10829
▁பரிமாற	-10830
▁பிச்சை	-10831
▁மணிநேர	-10832
களுக்காக	-10833
▁அருங்கா	-10834
▁உடன்படி	-10835
▁உயரதிகா	-10836
▁சுப்ரமண	-10837
▁நிதியுத	-10838
▁பரமக்கு	-10839
▁யுத்தம்	-10840
▁வருவார்	-10841
▁நலத்துறை	-10842
▁விட்டுச்	-10843
▁ஹெஸ்பொலா	-10844
▁உத்தரவின்	-10845
▁கொள்கைகளை	-10846
▁சனிபகவான்	-10847
▁செல்கிறது	-10848
▁பத்திரமாக	-10849
▁வங்கியில்	-10850
▁கட்டங்களாக	-10851
▁ஜாதகத்தில்	-10852
▁திருமணத்தை	-10853
▁பார்த்தேன்	-10854
▁ஊட்டச்சத்து	-10855
▁செய்தார்கள்	-10856
▁ராணுவத்தின்	-10857
▁அருங்காட்சிய	-10858
▁ஒப்புக்கொண்ட	-10859
▁தீர்மானங்களை	-10860
▁பாதுகாக்கும்	-10861
▁மார்க்சிஸ்ட்	-10862
▁வெளிநாட்டில்	-10863
▁ஸ்ரீவில்லிபு	-10864
▁ஆட்டமிழந்தார்	-10865
▁ஒருங்கிணைப்பு	-10866
▁ஒழிப்புத்துறை	-10867
நகர	-10868
பத்	-10869
▁en	-10870
▁ra	-10871
ஸ்தா	-10872
▁12-	-10873
▁உமா	-10874
▁கேச	-10875
▁சோம	-10876
▁வளர	-10877
ணர்வை	-10878
பிக்க	-10879
வத்தை	-10880
ினேன்	-10881
▁ஒத்த	-10882
▁தழுவ	-10883
▁துர்	-10884
▁நாளே	-10885
▁பன்ன	-10886
▁மெக்	-10887
▁மேற்	-10888
க்குச்	-10889
ஸ்கிரு	-10890
▁காற்ற	-10891
▁செளதி	-10892
▁மீறிய	-10893
▁மேஜர்	-10894
▁ரீதிய	-10895
▁ருடன்	-10896
▁வெயில	-10897
▁ஆயுதம்	-10898
▁சண்டைய	-10899
▁தாலும்	-10900
▁துலாம்	-10901
▁படுக்க	-10902
▁மகிந்த	-10903
▁ஆசிரியை	-10904
▁ஆட்சிக்	-10905
▁கவர்னர்	-10906
▁கைதிகள்	-10907
▁தொடரின்	-10908
▁நம்மால்	-10909
▁ராமசாமி	-10910
▁வழங்கல்	-10911
▁விடவும்	-10912
▁வில்லிய	-10913
▁அமைப்பான	-10914
▁இடத்தைப்	-10915
▁இருவரின்	-10916
▁கேட்டேன்	-10917
▁சந்திப்ப	-10918
▁ப்படுவதை	-10919
▁விக்னேஷ்	-10920
▁எங்களுடைய	-10921
▁காதலித்து	-10922
▁கிராமத்தை	-10923
▁திருப்பணி	-10924
▁தெளிவாகத்	-10925
▁தொகுதிகளை	-10926
▁நகரத்தில்	-10927
▁நடிகர்கள்	-10928
▁மனைவியின்	-10929
▁வரையிலும்	-10930
▁வாக்காளர்	-10931
▁வேட்பாளரை	-10932
▁சேர்த்துக்	-10933
▁பேசுகிறார்	-10934
▁நடைபெறவுள்ள	-10935
▁வித்தியாசம்	-10936
▁அறிவிக்கப்பட	-10937
▁ஆரம்பித்தார்	-10938
▁அமைக்கப்படும்	-10939
▁உறுப்பினர்களை	-10940
▁வங்கதேசத்தில்	-10941
▁துப்பாக்கிச்சூ	-10942
.15	-10943
சலே	-10944
்தே	-10945
▁ஈழ	-10946
சிக்	-10947
வனம்	-10948
வைக்	-10949
ாரர்	-10950
▁20-	-10951
▁இவர	-10952
ணத்தை	-10953
த்தலை	-10954
▁அரசா	-10955
▁ஏகாத	-10956
▁கோட்	-10957
▁வைகு	-10958
▁ாதது	-10959
டியின்	-10960
திகளாக	-10961
▁சட்டை	-10962
▁டிஎன்	-10963
▁தூதர்	-10964
▁பூச்ச	-10965
▁வர்மா	-10966
▁வெட்க	-10967
வானந்தா	-10968
▁தோற்று	-10969
▁வேறொரு	-10970
▁மலையில்	-10971
ப்பாக்கம்	-10972
▁அதற்குள்	-10973
▁நியாயமான	-10974
▁பல்லாயிர	-10975
▁பாணியில்	-10976
▁பூஜையும்	-10977
▁முத்திரை	-10978
▁முஸ்லீம்	-10979
▁வீதியுலா	-10980
▁பள்ளியின்	-10981
▁கேட்டதற்கு	-10982
▁திணைக்களம்	-10983
▁பார்த்தார்	-10984
▁பிரபலங்கள்	-10985
▁பேருக்கும்	-10986
▁மகாலட்சுமி	-10987
▁விடுதியில்	-10988
▁வெளிவிவகார	-10989
▁நிறைவேற்றிய	-10990
▁நிலையத்தின்	-10991
▁பிரிவுகளின்	-10992
▁வரப்போகிறது	-10993
▁விவகாரங்கள்	-10994
▁வழங்குவதற்கு	-10995
▁வாய்ப்பில்லை	-10996
▁கொடுக்கவில்லை	-10997
▁வேண்டியுள்ளது	-10998
▁இருந்திருந்தால்	-10999
▁ஏற்படுத்துகிறது	-11000
▁நட்சத்திரத்தில்	-11001
▁பொதுச்செயலாளராக	-11002
ணிய	-11003
▁04	-11004
▁ic	-11005
▁கச	-11006
தூர்	-11007
னிக்	-11008
மடைய	-11009
ர்லா	-11010
▁கலி	-11011
▁ஜான	-11012
▁நீல	-11013
▁டிஸ்	-11014
▁திணி	-11015
▁மாமா	-11016
▁மீனவ	-11017
▁வினை	-11018
▁வைகை	-11019
▁ியது	-11020
சேகரன்	-11021
▁ஆய்வக	-11022
▁கிழமை	-11023
▁சுதர்	-11024
▁தனியா	-11025
▁நுட்ப	-11026
▁பிசின	-11027
▁புகைய	-11028
▁மாம்ப	-11029
▁மேலிட	-11030
▁விகார	-11031
▁வீதம்	-11032
▁அதிபதி	-11033
▁எண்ணெய	-11034
▁கொவிட்	-11035
▁ஜார்ஜ்	-11036
▁தேடும்	-11037
▁நடத்தை	-11038
▁பறந்து	-11039
▁மாஸ்கோ	-11040
▁அடக்கம்	-11041
▁அமைச்சக	-11042
▁குரலில்	-11043
▁செல்சிய	-11044
▁திருமதி	-11045
▁பருத்தி	-11046
▁திருப்தி	-11047
▁நிரம்பிய	-11048
▁போலீசில்	-11049
▁முதியவர்	-11050
▁வியாபாரி	-11051
▁ிவிட்டது	-11052
ராட்சியில்	-11053
▁அடித்துக்	-11054
▁கடைப்பிடி	-11055
▁நிலையத்தை	-11056
▁பிரபாகரன்	-11057
▁பிரிவினர்	-11058
▁மறைமுகமாக	-11059
▁வாடகைக்கு	-11060
▁அடையாளத்தை	-11061
▁ஓய்வுபெற்ற	-11062
▁பிறப்பித்த	-11063
▁மற்றவர்கள்	-11064
▁ஊழியர்களின்	-11065
▁பந்துவீச்சை	-11066
சுப்பிரமணியன்	-11067
▁கருத்துக்கணி	-11068
▁வீட்டுக்குள்	-11069
▁பாதிக்கப்படும்	-11070
um	-11071
னீ	-11072
▁IN	-11073
சிஸ்	-11074
ஜிங்	-11075
ாணம்	-11076
▁19-	-11077
▁உத்	-11078
▁சின	-11079
▁துஷ	-11080
▁பகை	-11081
ஞ்சன்	-11082
ிகார்	-11083
▁1980	-11084
▁7:00	-11085
▁கிரே	-11086
▁கீவ்	-11087
▁கேட்	-11088
▁சாசன	-11089
▁பிணை	-11090
▁முனி	-11091
▁வித்	-11092
ச்சாலை	-11093
ஸ்டின்	-11094
▁ஆறாம்	-11095
▁உணர்க	-11096
▁பாதயா	-11097
▁பாஸ்ப	-11098
▁ரியல்	-11099
பாளையம்	-11100
மங்கலம்	-11101
▁டைம்ஸ்	-11102
▁வரதராஜ	-11103
▁ீர்களா	-11104
▁அதிகப்ப	-11105
▁ஆண்டாள்	-11106
▁இப்ராஹி	-11107
▁உற்சவர்	-11108
▁சமத்துவ	-11109
▁டெண்டர்	-11110
▁இருந்தபோ	-11111
▁களிடமும்	-11112
▁பலருக்கு	-11113
▁பாதியில்	-11114
▁அனுப்பும்	-11115
▁அம்சங்கள்	-11116
▁குளத்தில்	-11117
▁கொள்கைகள்	-11118
▁சிலிண்டர்	-11119
▁தினத்தில்	-11120
▁புள்ளிகள்	-11121
▁வழங்கினர்	-11122
க்காலத்தில்	-11123
▁அமைச்சரும்	-11124
▁எழுப்பினர்	-11125
▁சென்னையின்	-11126
▁தற்போதுள்ள	-11127
▁பல்லக்கில்	-11128
▁எழுப்பினார்	-11129
▁பிரச்சனைகள்	-11130
▁பெங்களூரில்	-11131
▁பயிற்சியாளர்	-11132
▁செந்தில்குமார்	-11133
ாமணி	-11134
ூழ்க	-11135
▁800	-11136
▁உட்	-11137
▁சரு	-11138
▁ஊர்த	-11139
▁கம்ம	-11140
▁கலாய	-11141
▁கிழி	-11142
▁சரவண	-11143
▁டாக்	-11144
▁தவணை	-11145
▁தொல்	-11146
▁பிரெ	-11147
▁ரிஷப	-11148
▁தரமான	-11149
▁தொற்ற	-11150
▁பவுன்	-11151
ுகிறார்	-11152
▁உணவுத்	-11153
▁ஊதியம்	-11154
▁காண்பி	-11155
▁தொலைநோ	-11156
▁பரீட்ச	-11157
▁யாருமே	-11158
▁அன்பில்	-11159
▁இனிமேல்	-11160
▁இருப்பு	-11161
▁ஈர்ப்பு	-11162
▁உளவியல்	-11163
▁எதிரொலி	-11164
▁எய்ம்ஸ்	-11165
▁ஒவ்வோர்	-11166
▁சுழற்சி	-11167
▁தப்பிச்	-11168
▁நினைப்ப	-11169
▁பதவிகள்	-11170
▁பழங்கள்	-11171
▁மகாத்மா	-11172
▁மேற்படி	-11173
▁அவனுக்கு	-11174
▁உயர்மட்ட	-11175
▁தண்டனையை	-11176
▁மேற்கோள்	-11177
▁நீர்மூழ்க	-11178
▁பிறக்கும்	-11179
▁விடுங்கள்	-11180
▁ஆம்புலன்ஸ்	-11181
▁இந்தியன்ஸ்	-11182
▁மக்களுக்காக	-11183
▁தொடங்குகிறது	-11184
▁புள்ளிகளுடன்	-11185
▁ிருப்பார்கள்	-11186
▁வலைத்தளத்தில்	-11187
▁கிரிக்கெட்டில்	-11188
▁திருமணத்திற்கு	-11189
▁மருத்துவமனையின்	-11190
ow	-11191
▁(4	-11192
▁74	-11193
▁யி	-11194
பவர்	-11195
▁இமா	-11196
▁சுன	-11197
▁டம்	-11198
ண்களை	-11199
ின்ஸ்	-11200
▁ஓவரை	-11201
▁குக்	-11202
▁சமன்	-11203
▁செட்	-11204
சுவாமி	-11205
ட்டிவ்	-11206
▁ஆனார்	-11207
▁சவுதி	-11208
▁சாந்த	-11209
▁சொற்ப	-11210
▁தானாக	-11211
▁பாக்ட	-11212
▁பொங்க	-11213
▁விற்ற	-11214
▁இல்லாம	-11215
▁ஜேம்ஸ்	-11216
▁யூனிட்	-11217
வளத்துறை	-11218
▁கணிசமாக	-11219
▁குழுமம்	-11220
▁சிக்னல்	-11221
▁நியாயம்	-11222
▁பணக்கார	-11223
▁பரம்பரை	-11224
▁போலீசார	-11225
▁வாக்னர்	-11226
▁அதற்கமைய	-11227
▁அர்ச்சனை	-11228
▁ஐந்தாவது	-11229
▁கிறிஸ்தவ	-11230
▁சிறுநீர்	-11231
▁வேடிக்கை	-11232
▁ஈடுபடுத்த	-11233
▁சட்டங்களை	-11234
▁பெறப்பட்ட	-11235
▁முயன்றார்	-11236
▁முயற்சியை	-11237
▁வழிகாட்டுத	-11238
▁கட்டப்பட்டு	-11239
▁சந்திப்பின்	-11240
▁சமர்ப்பிக்க	-11241
▁தனித்துவமான	-11242
▁மக்களுக்கான	-11243
▁விஷயங்களில்	-11244
▁எதிர்காலத்தை	-11245
▁கொள்கின்றனர்	-11246
▁விரும்புகிறது	-11247
▁பயன்படுத்தலாம்	-11248
▁வைத்துக்கொண்டு	-11249
ா்	-11250
தவி	-11251
வத்	-11252
▁கஜ	-11253
....	-11254
சனம்	-11255
றையா	-11256
▁ஆபர	-11257
▁கலக	-11258
▁தடய	-11259
▁மூள	-11260
▁யூத	-11261
▁ரிய	-11262
ரியன்	-11263
ர்மன்	-11264
லக்ட்	-11265
ழுத்த	-11266
▁அதிச	-11267
▁சர்வ	-11268
▁பண்ப	-11269
▁பயனு	-11270
▁பிஸ்	-11271
▁வளம்	-11272
▁வைப்	-11273
க்கல்ல	-11274
டிப்பட	-11275
▁இயற்ற	-11276
▁செம்ம	-11277
▁துன்ப	-11278
▁நெஞ்ச	-11279
▁போக்க	-11280
▁மேட்ட	-11281
▁வழியே	-11282
த்தானது	-11283
லன்ஸ்கி	-11284
▁சிரமம்	-11285
▁செயலிழ	-11286
▁தாழ்வு	-11287
▁நபரின்	-11288
▁பொள்ளா	-11289
▁வயிற்ற	-11290
▁காய்கறி	-11291
▁குடித்த	-11292
▁சபரிமலை	-11293
▁திரண்டு	-11294
▁நயினார்	-11295
▁நீடித்த	-11296
▁பற்றிக்	-11297
▁மேலாளர்	-11298
▁வருமாறு	-11299
▁கொழுப்பு	-11300
▁சேகரிக்க	-11301
▁விட்டுக்	-11302
▁வெடிப்பு	-11303
▁ஆணைக்குழு	-11304
▁இவர்களில்	-11305
▁தேவானந்தா	-11306
▁நோயாளிகள்	-11307
▁பிடித்தது	-11308
▁வகுப்பில்	-11309
டிப்படையில்	-11310
▁இழப்புக்கு	-11311
▁கட்டுமானப்	-11312
▁குறிக்கும்	-11313
▁கொழும்பில்	-11314
▁செயல்களில்	-11315
▁பயணிக்கும்	-11316
▁பாடத்திட்ட	-11317
▁பொருத்தவரை	-11318
▁முயற்சிக்க	-11319
▁அயோத்தியில்	-11320
▁உண்மையிலேயே	-11321
▁தாக்கப்பட்ட	-11322
▁ஆத்திரமடைந்த	-11323
▁எடுத்துள்ளது	-11324
▁செய்துள்ளதாக	-11325
▁பன்னீர்செல்வ	-11326
▁நம்பப்படுகிறது	-11327
க்கப்பட்டுள்ளனர்	-11328
0)	-11329
22	-11330
ரவு	-11331
▁AI	-11332
ment	-11333
ஶ்ரீ	-11334
▁10,	-11335
▁தேஜ	-11336
▁்கி	-11337
▁ஆவணி	-11338
▁காங்	-11339
▁கேம்	-11340
▁கொளு	-11341
▁செழி	-11342
நாயகம்	-11343
ப்பாறை	-11344
வினால்	-11345
ஸ்டில்	-11346
▁3,000	-11347
▁அழுது	-11348
▁முள்ள	-11349
▁அகற்றி	-11350
▁அமிர்த	-11351
▁ஆகவும்	-11352
▁உடைந்த	-11353
▁தலைவரை	-11354
▁மகனும்	-11355
▁வராமல்	-11356
▁நடுவில்	-11357
▁வீழ்ச்ச	-11358
ச்சாராயம்	-11359
▁எந்தெந்த	-11360
▁தகுதியான	-11361
▁பேசியதாக	-11362
▁மணிநேரம்	-11363
▁ரகசியமாக	-11364
▁வீதியில்	-11365
▁ஆதாரங்களை	-11366
▁ஏறக்குறைய	-11367
▁கழுத்தில்	-11368
▁சித்தாந்த	-11369
▁பரபரப்பான	-11370
▁பரிதாபமாக	-11371
▁பாஜகவுடன்	-11372
▁கொள்வதற்கு	-11373
▁தென்மேற்கு	-11374
▁இந்தியாவும்	-11375
▁எடுத்துக்கா	-11376
▁தொடர்ந்தார்	-11377
▁நேரத்துக்கு	-11378
▁முடிவெடுத்த	-11379
▁வெற்றிபெற்ற	-11380
▁அழைக்கப்பட்ட	-11381
▁கண்டுபிடித்த	-11382
▁பாதுகாப்புத்	-11383
▁விவகாரங்களில்	-11384
பஸ்	-11385
ப்ளே	-11386
▁193	-11387
▁நீர	-11388
கடந்த	-11389
ாவதாக	-11390
▁2002	-11391
▁அபிஷ	-11392
▁வயதை	-11393
▁ஹெச்	-11394
ஸ்திரி	-11395
▁2018-	-11396
▁அஸ்வி	-11397
▁எண்ணை	-11398
▁எனில்	-11399
▁கடக்க	-11400
▁தலையை	-11401
▁தென்ப	-11402
▁புன்ன	-11403
▁வீடான	-11404
த்தியம்	-11405
ிருந்தன	-11406
▁அவரைத்	-11407
▁இதுபோல	-11408
▁ஒருவன்	-11409
▁கிரீன்	-11410
▁க்குச்	-11411
▁சரிசெய	-11412
▁சுமத்த	-11413
▁த்துறை	-11414
▁த்தைக்	-11415
▁நாயக்க	-11416
▁நீங்கி	-11417
▁பரிசோத	-11418
▁மனிதர்	-11419
▁மிஸ்ரா	-11420
▁மேக்ஸ்	-11421
▁மொழியை	-11422
▁ார்களா	-11423
டுகையில்	-11424
▁எதுவுமே	-11425
▁காயத்ரி	-11426
▁கேஸ்கள்	-11427
▁க்களில்	-11428
▁ஜெய்ப்ப	-11429
▁தோன்றிய	-11430
▁வடிவில்	-11431
▁வளர்த்த	-11432
▁வளைகுடா	-11433
▁விமானப்	-11434
▁ஆண்டுகால	-11435
▁ஆதரவாளர்	-11436
▁ஐஸ்வர்யா	-11437
▁கப்பலில்	-11438
▁சிக்கிக்	-11439
▁களுக்குள்	-11440
▁கைதுசெய்த	-11441
▁தூரத்தில்	-11442
▁பரபரப்பாக	-11443
▁அமைச்சரின்	-11444
▁ஈடுபட்டார்	-11445
▁சிறுபான்மை	-11446
▁கொண்டிருப்ப	-11447
▁உற்பத்தியில்	-11448
▁திங்கட்கிழமை	-11449
▁ராணிப்பேட்டை	-11450
▁தொழிலாளர்களின்	-11451
▁மாற்றுத்திறனாளி	-11452
▁53	-11453
▁71	-11454
▁?"	-11455
▁ஏல	-11456
▁ஞா	-11457
காய்	-11458
ரைன்	-11459
▁ஏடி	-11460
▁தரா	-11461
ார்த்	-11462
▁ஆண்க	-11463
▁குபே	-11464
▁சாவி	-11465
▁ஜாமீ	-11466
▁தானா	-11467
▁யைத்	-11468
▁லைன்	-11469
▁ஶ்ரீ	-11470
த்துப்	-11471
வுடனான	-11472
▁ஆழமான	-11473
▁உரையை	-11474
▁காளிய	-11475
▁தபால்	-11476
▁துண்ட	-11477
▁நாதன்	-11478
▁நெல்ல	-11479
வரையில்	-11480
▁அதுபோல	-11481
▁அத்திய	-11482
▁ஆதாரம்	-11483
▁உதவியை	-11484
▁குத்தி	-11485
▁சான்று	-11486
▁சுனாமி	-11487
▁பேட்டை	-11488
▁அழிந்து	-11489
▁இலக்காக	-11490
▁இளைஞரணி	-11491
▁கட்டடம்	-11492
▁கோடியாக	-11493
▁பிறந்து	-11494
▁உண்டியல்	-11495
▁எதிராகப்	-11496
▁கிளம்பிய	-11497
▁தொந்தரவு	-11498
▁மேல்நிலை	-11499
திலிருந்து	-11500
▁கூறியுள்ள	-11501
▁சிறுவனின்	-11502
▁செல்வராஜ்	-11503
▁புறப்பட்ட	-11504
▁வெங்கடேஷ்	-11505
▁அதிகாரியாக	-11506
▁இடத்திலேயே	-11507
▁கவனித்துக்	-11508
▁திரும்பும்	-11509
▁திருவிழாவை	-11510
▁தேர்வுக்கு	-11511
▁அதிருப்தியை	-11512
▁இக்கோவிலில்	-11513
▁செல்லவில்லை	-11514
▁பார்த்ததும்	-11515
▁மாறிவிட்டது	-11516
▁திருச்சியில்	-11517
▁திருப்பரங்கு	-11518
▁வைக்கப்படும்	-11519
▁கருதுகின்றனர்	-11520
▁நடவடிக்கைக்கு	-11521
▁நிறுவனத்துக்கு	-11522
▁குடும்பத்திற்கு	-11523
▁தமிழ்நாட்டுக்கு	-11524
.25	-11525
்டே	-11526
மியா	-11527
ளிகள்	-11528
வந்து	-11529
▁"...	-11530
▁2025	-11531
▁அனல்	-11532
▁ஆதரவ	-11533
▁உலகெ	-11534
▁சமைய	-11535
▁பண்ற	-11536
▁பாலக	-11537
▁ரன்ன	-11538
மிடெட்	-11539
லியில்	-11540
▁சாடிய	-11541
▁ஜார்க	-11542
▁தொடரை	-11543
▁நிலவு	-11544
▁புறம்	-11545
▁விறுவ	-11546
ூர்த்தி	-11547
▁உரையாட	-11548
▁ஒழிக்க	-11549
▁கிடக்க	-11550
▁சிரியா	-11551
▁துணைவே	-11552
▁தோன்று	-11553
▁நள்ளிர	-11554
▁பிரதோஷ	-11555
▁அசாதாரண	-11556
▁அலட்சிய	-11557
▁ஆப்பிள்	-11558
▁இடிந்து	-11559
▁வெடிக்க	-11560
▁சேவையில்	-11561
▁தரப்பும்	-11562
▁மாநாட்டு	-11563
▁வகையிலான	-11564
▁அனைத்துக்	-11565
▁இப்படியான	-11566
▁கிரகங்கள்	-11567
▁சேகரித்து	-11568
▁பொதுமக்கள	-11569
▁வெளியாகின	-11570
▁குற்றவியல்	-11571
▁தேவைப்பட்ட	-11572
▁முதலீடுகளை	-11573
▁முழுவதுமாக	-11574
▁வீட்டிலேயே	-11575
▁அடுக்குமாடி	-11576
▁அதிகாலையில்	-11577
▁அமைச்சருமான	-11578
▁ஒப்பந்தத்தை	-11579
▁புத்தகங்கள்	-11580
▁வன்முறையில்	-11581
▁செயல்பாடுகளை	-11582
▁செய்யும்போது	-11583
▁வழிவகுக்கும்	-11584
▁அமர்ந்திருந்த	-11585
▁இருந்ததாகவும்	-11586
▁சுற்றுப்பயணம்	-11587
▁ராமச்சந்திரன்	-11588
நெ	-11589
வழ	-11590
▁X	-11591
▁02	-11592
▁97	-11593
ூட்ட	-11594
▁144	-11595
▁ஃபா	-11596
சக்கர	-11597
றியது	-11598
▁2007	-11599
▁9:00	-11600
▁ஏழரை	-11601
▁ஒருப	-11602
▁கதவு	-11603
▁குலு	-11604
▁ஜன்ன	-11605
▁பாரி	-11606
▁ப்ரோ	-11607
▁ரில்	-11608
▁ஷாரு	-11609
▁2017-	-11610
▁ஊடகப்	-11611
▁சோரன்	-11612
▁துபாய	-11613
▁மாத்த	-11614
க்கல்வி	-11615
▁எமக்கு	-11616
▁துவக்க	-11617
▁தூய்மை	-11618
▁மரியாத	-11619
▁லெபனான	-11620
▁விஜயம்	-11621
▁வேட்பு	-11622
ாலத்தில்	-11623
▁அப்பாவி	-11624
▁அவர்களே	-11625
▁உடைந்து	-11626
▁எல்லையை	-11627
▁காலத்தை	-11628
▁நடிப்பு	-11629
▁பிரதீப்	-11630
▁பிரிந்த	-11631
▁பொருளாக	-11632
▁இரண்டும்	-11633
▁இருசக்கர	-11634
▁கண்டிக்க	-11635
▁குருவின்	-11636
▁கோவிலின்	-11637
▁செல்வதாக	-11638
▁பெயர்களை	-11639
▁ஸ்ரீதேவி	-11640
க்கப்பட்டன	-11641
▁சாதாரணமாக	-11642
▁திட்டவட்ட	-11643
▁பதவியேற்ப	-11644
▁ப்படுத்தி	-11645
டுகிறார்கள்	-11646
▁அடுத்தகட்ட	-11647
▁தொடர்கிறது	-11648
▁வெடிகுண்டு	-11649
▁வெளியீட்டு	-11650
▁சந்திரசூடன்	-11651
▁நிதியத்தின்	-11652
▁தொடங்கியுள்ள	-11653
▁தொடர்பாகவும்	-11654
▁மாநிலங்களின்	-11655
▁அதிர்ச்சியில்	-11656
▁குடும்பத்தைச்	-11657
▁விளக்குகிறார்	-11658
▁வேலைத்திட்டம்	-11659
▁கட்டுப்பாடுகளை	-11660
eo	-11661
மழ	-11662
வகை	-11663
▁-1	-11664
▁88	-11665
▁சஹ	-11666
றிவி	-11667
▁ட்ர	-11668
▁அஸ்ஸ	-11669
▁கெடு	-11670
▁தப்ப	-11671
▁பழம்	-11672
▁புரு	-11673
▁போரி	-11674
த்தாள்	-11675
ப்பாரி	-11676
ஸ்வால்	-11677
▁அய்யா	-11678
▁துருவ	-11679
▁பாக்ய	-11680
▁பாடுப	-11681
பவர்கள்	-11682
▁இதனைக்	-11683
▁கண்கள்	-11684
▁மெசேஜ்	-11685
▁வரையான	-11686
டுப்பில்	-11687
▁ஆளுநராக	-11688
▁இவருடைய	-11689
▁கார்கள்	-11690
▁குவிந்த	-11691
▁சோஷியல்	-11692
▁பயணிகளை	-11693
▁போஸ்டர்	-11694
▁மின்னணு	-11695
▁ரஷ்யாவை	-11696
▁தயாரித்த	-11697
▁திருவீதி	-11698
▁போதுதான்	-11699
▁வந்ததால்	-11700
▁வழிபட்டு	-11701
▁விநியோகி	-11702
▁அனுபவிக்க	-11703
▁அருள்மிகு	-11704
▁இடமாற்றம்	-11705
▁கொடைக்கான	-11706
▁சராசரியாக	-11707
▁திருநங்கை	-11708
▁நிறத்தில்	-11709
▁பரமக்குடி	-11710
▁முன்வைக்க	-11711
▁வாக்குவாத	-11712
▁விரும்பாத	-11713
▁காப்பீட்டு	-11714
▁தலைவருக்கு	-11715
▁பழனிசாமியை	-11716
▁முன்னோக்கி	-11717
▁உட்கார்ந்து	-11718
▁காணப்பட்டது	-11719
▁மண்டலத்தில்	-11720
▁அச்சுறுத்தல்	-11721
▁அதிமுகவுக்கு	-11722
▁பதிலளித்தார்	-11723
▁பிரதேசத்தின்	-11724
▁போலீஸாருக்கு	-11725
▁அடிப்படையாகக்	-11726
▁அதிகரித்துள்ள	-11727
▁நிகழ்ச்சியும்	-11728
▁நெருக்கடியில்	-11729
▁பார்த்திருக்க	-11730
▁எடுக்கப்பட்டது	-11731
▁காரணங்களுக்காக	-11732
▁நிறைவேற்றப்பட்ட	-11733
▁மாவட்டங்களிலும்	-11734
ge	-11735
ீழ	-11736
லறை	-11737
▁ஜவ	-11738
▁11-	-11739
▁நபி	-11740
▁பரம	-11741
ர்களோ	-11742
ஸ்வரூ	-11743
ாயணம்	-11744
ோக்கு	-11745
▁சிற்	-11746
▁சுமை	-11747
▁தத்த	-11748
▁விசை	-11749
தையில்	-11750
▁அடங்க	-11751
▁அறியா	-11752
▁கணவரை	-11753
▁கண்டெ	-11754
▁தடையை	-11755
▁தற்கா	-11756
▁போக்ச	-11757
▁மாண்ப	-11758
ச்சையாக	-11759
ிருந்தே	-11760
ேசியில்	-11761
▁10,000	-11762
▁50,000	-11763
▁உடலின்	-11764
▁கண்களை	-11765
▁காரணமா	-11766
▁துர்கா	-11767
▁த்தைப்	-11768
▁நிச்சய	-11769
▁பெயரிட	-11770
▁முடக்க	-11771
▁வேள்வி	-11772
▁வையும்	-11773
ட்சியில்	-11774
▁அபிஷேக்	-11775
▁இயல்பாக	-11776
▁இல்லையே	-11777
▁செவிலிய	-11778
▁திருக்க	-11779
▁த்திடம்	-11780
▁நிலவரம்	-11781
▁மனுத்தா	-11782
▁மாணிக்க	-11783
▁விலங்கு	-11784
▁விஸ்வரூ	-11785
▁குறியீடு	-11786
▁சமூகநீதி	-11787
▁செலவுகளை	-11788
▁பெருமையை	-11789
▁லண்டனில்	-11790
▁வாழ்நாள்	-11791
▁ஆராய்ந்து	-11792
▁உங்களிடம்	-11793
▁கர்ப்பிணி	-11794
▁தமிழகத்தை	-11795
▁பின்னடைவு	-11796
▁மணிகண்டன்	-11797
▁மதிப்பெண்	-11798
▁மனிதர்களை	-11799
▁முன்னறிவி	-11800
▁ரஷ்யாவில்	-11801
▁பின்தங்கிய	-11802
▁வங்கத்தில்	-11803
▁வைக்கிறார்	-11804
▁அமெரிக்காவை	-11805
▁பொறுப்பாளர்	-11806
▁மேட்டுப்பாள	-11807
▁கருத்துக்கள்	-11808
▁திருவிழாவின்	-11809
▁பழனிசாமியின்	-11810
▁மனுத்தாக்கல்	-11811
▁வேண்டுமென்றே	-11812
▁சாம்பியன்ஷிப்	-11813
▁நடைபெறவுள்ளது	-11814
▁திணைக்களத்தின்	-11815
ஜ்ப	-11816
▁96	-11817
▁்ட	-11818
தாப்	-11819
ாசிய	-11820
்சன்	-11821
▁காச	-11822
▁பணய	-11823
▁மகர	-11824
வரிசை	-11825
▁கதறி	-11826
▁சூழல	-11827
▁நாகா	-11828
▁ராசா	-11829
▁வீண்	-11830
மிட்டு	-11831
▁ஆளுமை	-11832
▁இடமாக	-11833
▁குன்ற	-11834
▁ஜோசப்	-11835
▁நடராஜ	-11836
▁பெயரி	-11837
▁ப்படி	-11838
▁ஸ்பெய	-11839
ருங்கள்	-11840
வகையில்	-11841
ெடுத்து	-11842
▁ஃபண்ட்	-11843
▁அரசாணை	-11844
▁உணவில்	-11845
▁உரிமம்	-11846
▁கணக்கை	-11847
▁கணேசன்	-11848
▁வதற்கு	-11849
▁விவேக்	-11850
▁வைப்பு	-11851
▁அழித்து	-11852
▁ஆரம்பம்	-11853
▁இனிப்பு	-11854
▁உழைப்பு	-11855
▁எஸ்டேட்	-11856
▁சூதாட்ட	-11857
▁ஜூனியர்	-11858
▁தந்தார்	-11859
▁தலைப்பு	-11860
▁நிர்வாண	-11861
▁பதக்கம்	-11862
▁அரியலூர்	-11863
▁உடன்பாடு	-11864
▁குவிந்து	-11865
▁கொடூரமான	-11866
▁சென்றதாக	-11867
▁தன்னம்பி	-11868
▁தர்மபுரி	-11869
▁நீடித்து	-11870
▁பல்கலைக்	-11871
▁பாட்டில்	-11872
▁பூஜையில்	-11873
▁பெற்றால்	-11874
▁யாராலும்	-11875
▁லிமிடெட்	-11876
▁வளிமண்டல	-11877
▁தேவேந்திர	-11878
▁நலனுக்காக	-11879
▁விரும்புவ	-11880
▁ஹோட்டலில்	-11881
▁கேள்வியெழு	-11882
▁திடீரென்று	-11883
▁பிள்ளையார்	-11884
▁புத்தகத்தை	-11885
▁மாநிலங்களை	-11886
▁முதல்வரும்	-11887
▁அந்தவகையில்	-11888
▁கருத்துக்கு	-11889
▁திருக்கோவில	-11890
▁நிர்வாகிகளை	-11891
▁நேரத்திற்கு	-11892
▁யிருக்கிறது	-11893
▁நீதிமன்றத்தை	-11894
▁மாணவிகளுக்கு	-11895
▁வழக்கறிஞர்கள்	-11896
▁சுழற்பந்துவீச்ச	-11897
▁முதலீட்டாளர்கள்	-11898
and	-11899
▁94	-11900
▁ஈர	-11901
ர்வே	-11902
▁ஃபு	-11903
▁கப்	-11904
▁சமி	-11905
▁மலே	-11906
றாவளி	-11907
▁5:00	-11908
▁காகி	-11909
▁சித்	-11910
▁சீரு	-11911
▁பெல்	-11912
▁மரபு	-11913
▁மைல்	-11914
▁வடம்	-11915
ப்பொரு	-11916
மர்த்த	-11917
ர்தான்	-11918
ியுடன்	-11919
▁அவதான	-11920
▁ஆக்டி	-11921
▁ஏஜென்	-11922
▁களைச்	-11923
▁குட்ட	-11924
▁தனுசு	-11925
▁தயங்க	-11926
▁நாகரி	-11927
▁பலமாக	-11928
▁மஞ்சு	-11929
டைந்தது	-11930
▁நாகர்க	-11931
▁புரட்ச	-11932
▁மைக்ரோ	-11933
▁விளாடி	-11934
▁சூறாவளி	-11935
▁செலாவணி	-11936
▁தரவுகளை	-11937
▁தாழ்த்த	-11938
▁நிம்மதி	-11939
▁பருப்பு	-11940
▁போகலாம்	-11941
த்திலுள்ள	-11942
▁குறைப்பு	-11943
▁சமஸ்கிரு	-11944
▁டாலர்கள்	-11945
▁தோன்றும்	-11946
▁பைக்கில்	-11947
க்கெல்லாம்	-11948
▁கமல்ஹாசன்	-11949
▁கருத்துத்	-11950
▁செய்தபோது	-11951
▁நேர்காணல்	-11952
▁யாழ்ப்பாண	-11953
▁அணிகளுக்கு	-11954
▁கோப்பையில்	-11955
▁செய்தாலும்	-11956
▁தீர்ப்பில்	-11957
▁பயங்கரவாதி	-11958
▁பாக்டீரியா	-11959
▁இருக்கையில்	-11960
▁திருமஞ்சனம்	-11961
▁மாதத்திற்கு	-11962
▁தாக்குதல்களை	-11963
▁அமைச்சகத்தின்	-11964
▁ஒழுங்குபடுத்த	-11965
▁கண்டறியப்பட்ட	-11966
▁வைத்திலிங்கம்	-11967
▁துப்பாக்கியால்	-11968
▁பேசியிருந்தார்	-11969
▁தெரிவிக்கவில்லை	-11970
▁விதிக்கப்பட்டது	-11971
MK	-11972
▁*	-11973
னன்	-11974
வனை	-11975
ிகொ	-11976
ேரி	-11977
்சா	-11978
▁62	-11979
ங்கொ	-11980
ட்ஜ்	-11981
ப்டி	-11982
▁ரான	-11983
▁1991	-11984
▁2003	-11985
▁அநுர	-11986
▁ஈரான	-11987
▁கிரை	-11988
▁யாரி	-11989
▁ஷெரீ	-11990
சியின்	-11991
தலுடன்	-11992
▁அம்பல	-11993
▁அழகிய	-11994
▁ஆசாத்	-11995
▁உண்ணா	-11996
▁என்பவ	-11997
▁கவிதை	-11998
▁சேனல்	-11999
▁ஜெய்ச	-12000
▁த்தின	-12001
▁ரம்யா	-12002
▁வாசல்	-12003
▁விசேஷ	-12004
ற்றுவது	-12005
விலக்கு	-12006
▁ஆதிக்க	-12007
▁இருபது	-12008
▁உட்கார	-12009
▁ஏந்திய	-12010
▁தாகும்	-12011
▁புத்து	-12012
▁மதத்தை	-12013
▁தகவலும்	-12014
▁பறவைகள்	-12015
▁பலியாகி	-12016
▁போலியான	-12017
▁முன்னரே	-12018
▁முன்மொழ	-12019
▁மேலிடம்	-12020
▁மோதலில்	-12021
▁அங்கீகார	-12022
▁உடல்நலம்	-12023
▁குறிப்பு	-12024
▁தொகுத்து	-12025
▁நிலவியது	-12026
▁வழிகளில்	-12027
▁இதையொட்டி	-12028
▁கவனத்தில்	-12029
▁தொடர்ச்சி	-12030
▁கல்லூரிகள்	-12031
▁சீனாவுக்கு	-12032
▁செய்யுமாறு	-12033
▁செல்வாக்கை	-12034
▁நீடிக்கும்	-12035
▁பலப்படுத்த	-12036
▁பொருத்தமான	-12037
▁முதலீடுகள்	-12038
▁உக்ரைனுக்கு	-12039
▁சூர்யகுமார்	-12040
▁நெதர்லாந்து	-12041
▁முகாமைத்துவ	-12042
▁முன்னெடுத்த	-12043
▁வழங்குகிறது	-12044
▁விதிமுறைகளை	-12045
▁ஆங்கிலத்தில்	-12046
▁தொடங்கப்பட்ட	-12047
▁ஸ்டாலினுக்கு	-12048
▁உத்தியோகபூர்வ	-12049
▁திருக்கோவிலூர்	-12050
▁வைத்திருந்தார்	-12051
ப்க	-12052
▁78	-12053
லுமி	-12054
ுடைய	-12055
▁பைட	-12056
▁விம	-12057
▁ஸ்ம	-12058
கோணம்	-12059
ொர்க்	-12060
்டில்	-12061
▁ஆய்வ	-12062
▁சிகர	-12063
▁டைம்	-12064
▁தட்ட	-12065
▁நோயா	-12066
▁மெரி	-12067
▁ஹாட்	-12068
ுகளும்	-12069
▁ஃபீல்	-12070
▁டுகள்	-12071
▁நேர்ம	-12072
▁பைலட்	-12073
▁மேடம்	-12074
▁ராவத்	-12075
நிறுத்த	-12076
▁ஏற்றும	-12077
▁ஞாயிறு	-12078
▁பன்முக	-12079
▁புகாரை	-12080
▁விருதை	-12081
ல்காந்தி	-12082
▁இப்போதே	-12083
▁எரிபொரு	-12084
▁ஐந்தாம்	-12085
▁ஒருவராக	-12086
▁களாலும்	-12087
▁கிரகணம்	-12088
▁துணிச்ச	-12089
▁நெரிசல்	-12090
▁பதவிகளை	-12091
▁மகன்கள்	-12092
▁யுடனும்	-12093
▁ராபர்ட்	-12094
▁அவசியமான	-12095
▁ஆதரவுடன்	-12096
▁என்னுடன்	-12097
▁என்பதைத்	-12098
▁ஏமாற்றம்	-12099
▁கொள்வார்	-12100
▁திறமையான	-12101
▁பந்துவீச	-12102
▁பரிமாற்ற	-12103
▁பெற்றனர்	-12104
▁மகனுக்கு	-12105
▁வரிசையாக	-12106
▁இலக்குகளை	-12107
▁கிளர்ச்சி	-12108
▁ஜெலன்ஸ்கி	-12109
▁போட்டிகளை	-12110
▁மனைவிக்கு	-12111
▁வைக்கிறது	-12112
▁எழுதப்பட்ட	-12113
▁நினைத்துக்	-12114
▁பிரச்னையாக	-12115
▁அரசாங்கத்தை	-12116
▁எழுந்தருளிய	-12117
▁தீர்மானிக்க	-12118
▁கட்டியெழுப்ப	-12119
▁செயல்படுத்தி	-12120
▁பள்ளிக்கல்வி	-12121
▁முதன்முதலில்	-12122
▁ராகுல்காந்தி	-12123
▁விண்ணப்பித்த	-12124
▁காங்கிரஸுக்கு	-12125
▁கார்த்திகேயன்	-12126
▁வீட்டிலிருந்து	-12127
நொ	-12128
தில	-12129
மூல	-12130
லாய	-12131
▁Ra	-12132
பூர்	-12133
வாலா	-12134
ஸிங்	-12135
▁பலன	-12136
▁ுவத	-12137
▁ூர்	-12138
வந்த்	-12139
▁2001	-12140
▁ஆபரண	-12141
▁குமர	-12142
▁கைகூ	-12143
▁செப்	-12144
▁பாத்	-12145
▁பிரை	-12146
▁லாமே	-12147
▁லியோ	-12148
▁வர்ற	-12149
கோர்ட்	-12150
திற்கு	-12151
▁செயலை	-12152
▁பாபர்	-12153
▁புடவை	-12154
▁யாவது	-12155
▁விந்த	-12156
▁வில்ல	-12157
நாங்கள்	-12158
்தோறும்	-12159
▁தாய்மா	-12160
▁பாண்டே	-12161
▁பின்னா	-12162
▁ரோகித்	-12163
▁வரையறு	-12164
▁விரைவு	-12165
▁அட்டாக்	-12166
▁அதுக்கு	-12167
▁அம்பானி	-12168
▁அரண்மனை	-12169
▁அர்ஜென்	-12170
▁சர்வாதி	-12171
▁பார்வதி	-12172
▁யாருடைய	-12173
▁இந்தியத்	-12174
▁காட்டில்	-12175
▁தொகையில்	-12176
▁நகர்ந்து	-12177
▁பிரமுகர்	-12178
ப்பட்டினம்	-12179
▁இளங்கோவன்	-12180
▁ஒன்றாகும்	-12181
▁ஒன்றுதான்	-12182
▁கட்சியைச்	-12183
▁கத்தியால்	-12184
▁கோபத்தில்	-12185
▁சமூகத்தின	-12186
▁சரியில்லை	-12187
▁சேர்த்தது	-12188
▁த்திலுள்ள	-12189
▁நாங்களும்	-12190
▁பெறுகிறது	-12191
▁மொழிகளில்	-12192
▁இயக்குநராக	-12193
▁காந்திக்கு	-12194
▁கும்பகோணம்	-12195
▁சந்தித்தது	-12196
▁பொள்ளாச்சி	-12197
▁முளைப்பாரி	-12198
▁வரப்பட்டது	-12199
▁வாரங்களில்	-12200
▁விட்டுக்கொ	-12201
க்கிழமையன்று	-12202
▁கட்சிக்குள்	-12203
▁சொத்துக்கள்	-12204
▁தீர்த்தவாரி	-12205
▁ப்பட்டுள்ளன	-12206
▁மக்களவையில்	-12207
▁முன்னேற்றக்	-12208
▁கேட்டுள்ளார்	-12209
▁மாவட்டத்தைச்	-12210
▁இருக்கக்கூடிய	-12211
▁கள்ளச்சாராயம்	-12212
▁காவல்துறையின்	-12213
▁தேர்ந்தெடுத்த	-12214
▁நெருக்கடிக்கு	-12215
▁பரிசோதனைக்காக	-12216
▁அமைக்கப்பட்டது	-12217
▁அரசியலமைப்புச்	-12218
▁அரசியல்வாதிகள்	-12219
▁காணப்படுகின்றது	-12220
ஷன	-12221
சித	-12222
▁06	-12223
டினா	-12224
ப்து	-12225
மினி	-12226
ூடாக	-12227
▁ஆளா	-12228
▁பரா	-12229
▁வலய	-12230
▁ஷமி	-12231
மித்த	-12232
றிக்க	-12233
▁கரம்	-12234
▁கேசி	-12235
▁சுவை	-12236
▁நொடி	-12237
▁பதிய	-12238
▁விநா	-12239
▁வோடு	-12240
ப்பணம்	-12241
▁அமீர்	-12242
▁இதயம்	-12243
▁காலனி	-12244
▁நிறம்	-12245
▁பரந்த	-12246
▁பாடிய	-12247
▁மீனம்	-12248
▁முயல்	-12249
▁யாகம்	-12250
▁வம்சா	-12251
▁வையாக	-12252
சிரியர்	-12253
ந்தோட்ட	-12254
ப்பள்ளி	-12255
வாய்ந்த	-12256
ையையும்	-12257
▁அன்றாட	-12258
▁எலக்ட்	-12259
▁ஏற்படு	-12260
▁தூண்டி	-12261
▁பரப்பி	-12262
▁மக்களே	-12263
▁வாந்தி	-12264
▁வித்யா	-12265
னுக்கும்	-12266
வதற்கும்	-12267
விற்கும்	-12268
▁இஸ்ரேலை	-12269
▁கிரிப்ட	-12270
▁சந்தனம்	-12271
▁தேர்வாக	-12272
▁நிமிடம்	-12273
▁நேரமும்	-12274
▁வயதுடைய	-12275
▁வாசலில்	-12276
▁வைகுண்ட	-12277
▁காரணத்தை	-12278
▁சுற்றில்	-12279
▁பெற்றவர்	-12280
▁மனுக்கள்	-12281
▁விண்கலம்	-12282
▁அடையாளமாக	-12283
▁அணிவித்து	-12284
▁அனைத்துப்	-12285
▁இஸ்ரேலில்	-12286
▁ஒன்றையும்	-12287
▁மல்லிகார்	-12288
▁விடுதலைப்	-12289
▁வெளிநாட்ட	-12290
▁அவருக்குப்	-12291
▁கட்டமைப்பை	-12292
▁செல்போனில்	-12293
▁நாடுகளுடன்	-12294
▁பணிகளுக்கு	-12295
▁புத்திசாலி	-12296
▁பொருந்தும்	-12297
▁மீடியாவில்	-12298
▁விவாதங்கள்	-12299
▁அதிமுகவினர்	-12300
▁கட்டுரையில்	-12301
▁தென்னிந்திய	-12302
▁பெருந்தோட்ட	-12303
▁மாணவர்களும்	-12304
▁குற்றம்சாட்ட	-12305
▁தீர்மானங்கள்	-12306
▁தொழிலாளர்களை	-12307
▁உள்கட்டமைப்பு	-12308
▁வியாபாரத்தில்	-12309
▁அமெரிக்காவுக்கு	-12310
▁னோ	-12311
சைன்	-12312
ற்றே	-12313
ுவல்	-12314
்சர்	-12315
▁18-	-12316
▁30-	-12317
▁கறி	-12318
▁னாக	-12319
▁பீட	-12320
▁பெல	-12321
▁வேண	-12322
ஞ்சலி	-12323
புகள்	-12324
வியாக	-12325
▁1999	-12326
▁கடலை	-12327
▁கனிம	-12328
▁காபி	-12329
▁தாயை	-12330
▁நிலா	-12331
த்துவா	-12332
னுசாமி	-12333
ப்பாதை	-12334
ப்பிங்	-12335
▁2022)	-12336
▁உகந்த	-12337
▁கவசம்	-12338
▁சற்றே	-12339
▁முரளி	-12340
▁விபரீ	-12341
▁வைப்ப	-12342
குறித்த	-12343
ரித்தது	-12344
▁கிளிநொ	-12345
▁டிரம்ப	-12346
▁தந்தது	-12347
▁துதான்	-12348
▁போக்சோ	-12349
▁மாம்பழ	-12350
▁ஹார்மோ	-12351
ப்பிற்கு	-12352
ஸ்புல்லா	-12353
▁எகிப்து	-12354
▁காலகட்ட	-12355
▁கோத்தபய	-12356
▁சித்தரா	-12357
▁சிரிக்க	-12358
▁திரட்டி	-12359
▁மலேசியா	-12360
▁மிளகாய்	-12361
▁விவேகான	-12362
▁ஏலத்தில்	-12363
▁காட்சியை	-12364
▁பங்குகள்	-12365
▁பாடல்களை	-12366
▁மன்மோகன்	-12367
▁மாநாட்டை	-12368
▁வெளியேறு	-12369
▁ஸ்டார்ட்	-12370
▁அனைத்துத்	-12371
▁ஆலோசனைகளை	-12372
▁இப்ராஹிம்	-12373
▁கணக்குகள்	-12374
▁குண்டுகள்	-12375
▁தலைப்பில்	-12376
▁நிதியுதவி	-12377
▁நீங்களும்	-12378
▁நுகர்வோர்	-12379
▁பால்குடம்	-12380
▁புரத்தில்	-12381
▁ஆர்ப்பாட்ட	-12382
▁குறித்துக்	-12383
▁தருணத்தில்	-12384
▁நீதித்துறை	-12385
▁பேச்சுக்கு	-12386
▁ஸ்ரீரங்கம்	-12387
ப்படுத்துவது	-12388
▁அங்கீகரிக்க	-12389
▁இங்கிருந்து	-12390
▁சுதந்திரமாக	-12391
▁தொடர்ந்தும்	-12392
▁செலுத்தினார்	-12393
▁நாடாளுமன்றம்	-12394
▁கொல்கத்தாவில்	-12395
▁பதவியிலிருந்து	-12396
▁விடுவிக்கப்பட்ட	-12397
2.	-12398
பழ	-12399
▁(5	-12400
▁ஐஏ	-12401
▁தச	-12402
சம்ப	-12403
மானி	-12404
ரசர்	-12405
ேற்ப	-12406
▁தோஷ	-12407
▁மேள	-12408
▁யர்	-12409
▁வீட	-12410
ஃப்ட்	-12411
▁1996	-12412
▁குழி	-12413
▁சுதா	-12414
▁டிக்	-12415
▁மினி	-12416
▁ராஜே	-12417
▁வாறு	-12418
▁ஹெல்	-12419
ந்திரா	-12420
ம்பிகை	-12421
வாயில்	-12422
ாளரும்	-12423
▁சீராக	-12424
▁படும்	-12425
▁மின்க	-12426
ட்டாளர்	-12427
▁20,000	-12428
▁அரசுத்	-12429
▁அவரவர்	-12430
▁ஒருசில	-12431
▁குழாய்	-12432
▁கோபால்	-12433
▁சம்பத்	-12434
▁தகுந்த	-12435
▁தருணம்	-12436
▁தூக்கு	-12437
▁தென்கி	-12438
▁பரிகார	-12439
▁முதுகு	-12440
▁ஆர்வலர்	-12441
▁இரண்டரை	-12442
▁உடல்கள்	-12443
▁ஐயப்பன்	-12444
▁சந்திரா	-12445
▁சபாநாயக	-12446
▁தூக்கம்	-12447
▁நினைவுக	-12448
▁நெருங்க	-12449
▁பெருமான	-12450
▁பொய்யான	-12451
▁அளித்தது	-12452
▁கலாசாரம்	-12453
▁காளஹஸ்தி	-12454
▁நபருக்கு	-12455
▁நாள்களாக	-12456
▁நீர்நிலை	-12457
▁பூமியின்	-12458
▁மாநிலமான	-12459
▁அடிக்கும்	-12460
▁உற்சாகமாக	-12461
▁ஏவுகணைகள்	-12462
▁சுகாதாரம்	-12463
▁தீர்த்தம்	-12464
▁தோன்றியது	-12465
▁பதற்றத்தை	-12466
▁முயன்றனர்	-12467
▁ரத்நாயக்க	-12468
▁விமானத்தை	-12469
▁வெங்காயம்	-12470
▁காய்கறிகள்	-12471
▁சம்பவங்களை	-12472
▁தமிழ்நாட்ட	-12473
▁போட்டிக்கு	-12474
▁விளாடிமிர்	-12475
▁ஒளிபரப்பாகி	-12476
▁கல்லூரியின்	-12477
▁நோக்கத்தில்	-12478
▁மத்தியிலும்	-12479
▁வார்டுகளில்	-12480
▁திட்டவட்டமாக	-12481
▁விருந்தினராக	-12482
▁சேர்க்கப்பட்ட	-12483
▁கொடுக்கப்பட்டது	-12484
▁84	-12485
▁எய	-12486
▁ரஹ	-12487
டில்	-12488
பகால	-12489
ப்பொ	-12490
வரம்	-12491
▁க்ள	-12492
▁மகள	-12493
▁ரில	-12494
எஸ்சி	-12495
க்கரை	-12496
க்காத	-12497
வசமாக	-12498
்பட்ட	-12499
▁கிட்	-12500
▁டெய்	-12501
▁தகவல	-12502
▁நாடி	-12503
▁மாவு	-12504
▁ரேட்	-12505
▁ஹெட்	-12506
ண்டாமை	-12507
▁India	-12508
▁அகமதா	-12509
▁இழிவு	-12510
▁உடனடி	-12511
▁ஐசிசி	-12512
▁சந்தே	-12513
▁நுரைய	-12514
▁மசாலா	-12515
▁ஆட்கள்	-12516
▁ஆற்றிய	-12517
▁ஏகாதசி	-12518
▁கைக்கு	-12519
▁கொள்வன	-12520
▁சிந்து	-12521
▁சின்ஹா	-12522
▁சென்ட்	-12523
▁திருக்	-12524
▁நாடகம்	-12525
▁நோயால்	-12526
▁போக்கை	-12527
▁மூட்டை	-12528
▁எட்டாம்	-12529
▁கொந்தளி	-12530
▁சமீபகால	-12531
▁தலைமைக்	-12532
▁தைரியம்	-12533
▁நிர்வகி	-12534
▁மலைக்கோ	-12535
▁வாக்களி	-12536
▁இடதுசாரி	-12537
▁எனக்குப்	-12538
▁காக்கும்	-12539
▁கோத்தபாய	-12540
▁ஜின்பிங்	-12541
▁தவிர்த்த	-12542
▁பொருட்டு	-12543
▁காலத்தின்	-12544
▁பாக்கியம்	-12545
▁மாரடைப்பு	-12546
▁வெற்றிபெற	-12547
▁எந்தவிதமான	-12548
▁ஜெய்ஸ்வால்	-12549
▁தேர்தல்கள்	-12550
▁நள்ளிரவில்	-12551
▁நிலையிலும்	-12552
▁பார்வையில்	-12553
▁ரிப்போர்ட்	-12554
▁ஆதரவாளர்களை	-12555
▁சித்தராமையா	-12556
▁தற்கொலைக்கு	-12557
▁பிரம்மோற்சவ	-12558
▁புறக்கணிக்க	-12559
▁பொருளாதாரத்	-12560
▁வீடுகளுக்கு	-12561
▁வெற்றிகரமான	-12562
▁அதிகப்படியான	-12563
▁செல்லப்பட்டு	-12564
▁தீட்சிதர்கள்	-12565
▁படுகாயமடைந்த	-12566
▁முதற்கட்டமாக	-12567
▁விழாவையொட்டி	-12568
▁அடிப்படையிலான	-12569
▁அளிக்கப்படும்	-12570
▁இசையமைப்பாளர்	-12571
▁எதிர்பார்த்து	-12572
▁ஒப்பிடுகையில்	-12573
▁மேம்படுத்தும்	-12574
▁விடுத்துள்ளது	-12575
▁பெரும்பாலானோர்	-12576
▁எழுப்பியுள்ளார்	-12577
im	-12578
வெல	-12579
்கை	-12580
▁De	-12581
ப்பழ	-12582
ையில	-12583
▁14-	-12584
▁15-	-12585
▁காக	-12586
▁கெய	-12587
▁சந்	-12588
▁வெய	-12589
▁வேள	-12590
▁ோடு	-12591
னியல்	-12592
▁ஆளான	-12593
▁க்கோ	-12594
▁சாரா	-12595
▁டிங்	-12596
▁திஸா	-12597
▁துளை	-12598
▁பணிக	-12599
▁ப்ரீ	-12600
▁மாவோ	-12601
▁மூதா	-12602
நகரில்	-12603
▁2014-	-12604
▁அழகாக	-12605
▁உதாரண	-12606
▁கற்பி	-12607
▁களாம்	-12608
▁கவலைய	-12609
▁சர்வீ	-12610
▁நடைபய	-12611
டுகளும்	-12612
விட்டர்	-12613
ிகளிடம்	-12614
▁அரசில்	-12615
▁கணிக்க	-12616
▁கழிவறை	-12617
▁குடிசை	-12618
▁திருடி	-12619
▁தைப்பூ	-12620
▁நோயாளி	-12621
▁பராமரி	-12622
▁பூரில்	-12623
▁முக்கு	-12624
ட்டியின்	-12625
பேசியில்	-12626
▁ஆற்றின்	-12627
▁காரியம்	-12628
▁க்களும்	-12629
▁சரிந்து	-12630
▁சிரித்த	-12631
▁தொடுத்த	-12632
▁பேட்டிய	-12633
▁மங்கலம்	-12634
▁லேசானது	-12635
ர்களிடையே	-12636
▁அவளுக்கு	-12637
▁ஆங்கிலம்	-12638
▁உங்களால்	-12639
▁காமராஜர்	-12640
▁குற்றப்ப	-12641
▁குல்தீப்	-12642
▁கோடிக்கு	-12643
▁சாப்பாடு	-12644
▁சிங்கின்	-12645
▁சுல்தான்	-12646
▁தீண்டாமை	-12647
▁நிலங்களை	-12648
▁ஆப்ரிக்கா	-12649
▁ஏவுகணைகளை	-12650
▁மாத்திரம்	-12651
▁ரீதியிலான	-12652
▁வழக்கம்போ	-12653
▁ிருந்தேன்	-12654
▁காளியம்மன்	-12655
▁குடிமக்கள்	-12656
▁சேர்க்கும்	-12657
▁சேர்ந்தார்	-12658
▁வருடத்தில்	-12659
▁இந்துத்துவா	-12660
▁இப்போதைக்கு	-12661
▁தொடர்பிலும்	-12662
▁நிமிடத்தில்	-12663
▁பங்கேற்றார்	-12664
▁பத்திரங்கள்	-12665
▁ராஜேந்திரன்	-12666
▁வைத்துவிட்டு	-12667
▁அதிருப்தியில்	-12668
▁உறுப்பினருமான	-12669
▁ஒப்பிடும்போது	-12670
▁கட்டுப்பாட்டை	-12671
▁சட்டப்பேரவைத்	-12672
▁நிறுவனங்களும்	-12673
▁அலுவலகத்துக்கு	-12674
▁இருந்தபோதிலும்	-12675
▁திருவனந்தபுரம்	-12676
▁வாய்ப்புள்ளதாக	-12677
▁வேண்டுமென்றால்	-12678
ஆக	-12679
ஜீ	-12680
ற்ஸ	-12681
ழிய	-12682
ஸ்ச	-12683
பாலா	-12684
▁அவத	-12685
▁உலு	-12686
▁தலி	-12687
▁நிழ	-12688
▁மலி	-12689
ல்கர்	-12690
ாளரான	-12691
ுமிகு	-12692
ேந்தி	-12693
்சின்	-12694
▁அசைவ	-12695
▁சிவி	-12696
▁பானு	-12697
▁பூஜா	-12698
▁மயமா	-12699
▁யற்ற	-12700
▁வழிய	-12701
▁வாலா	-12702
ர்க்கை	-12703
▁ஐஏஎஸ்	-12704
▁குணம்	-12705
▁கைதான	-12706
▁நட்டா	-12707
▁பத்தா	-12708
▁வாபஸ்	-12709
▁விகித	-12710
▁விசுவ	-12711
தார்த்த	-12712
ரிசையாக	-12713
▁இல்லம்	-12714
▁கற்களை	-12715
▁சடங்கு	-12716
▁செயின்	-12717
▁நாயகன்	-12718
▁நீராடி	-12719
▁பயணமாக	-12720
▁பிளாக்	-12721
▁ப்பில்	-12722
▁மகளின்	-12723
▁மனிதன்	-12724
▁முகேஷ்	-12725
▁அரைசதம்	-12726
▁என்றாலே	-12727
▁எழுந்தன	-12728
▁கரையில்	-12729
▁நிரம்பி	-12730
▁பேட்டரி	-12731
▁மந்திரி	-12732
▁மரங்களை	-12733
▁மாணவியை	-12734
▁முகத்தை	-12735
▁வெங்கட்	-12736
▁ெல்லாம்	-12737
ோதெல்லாம்	-12738
▁அமலுக்கு	-12739
▁எழுகிறது	-12740
▁கண்டித்த	-12741
▁பிடிபட்ட	-12742
▁மீட்கும்	-12743
▁மேட்டூர்	-12744
▁விறுவிறு	-12745
▁வெளியூர்	-12746
▁அனுபவித்த	-12747
▁அப்பார்ட்	-12748
▁எச்சரித்த	-12749
▁சட்டமூலம்	-12750
▁தமிழுக்கு	-12751
▁தேர்வுகள்	-12752
▁பார்ட்னர்	-12753
▁புகழேந்தி	-12754
▁பொறியாளர்	-12755
▁அலுவலகத்தை	-12756
▁இருக்கின்ற	-12757
▁எடுக்கப்பட	-12758
▁தாய்ப்பால்	-12759
▁த்திற்குள்	-12760
▁நடக்கின்றன	-12761
▁மாண்புமிகு	-12762
▁இன்னிங்ஸில்	-12763
▁கடைப்பிடிக்க	-12764
▁கைப்பற்றியது	-12765
▁உள்ளிட்டவற்றை	-12766
▁தொகுதிகளிலும்	-12767
▁பொருட்களுக்கு	-12768
▁திட்டங்களுக்கு	-12769
▁கட்சியிலிருந்து	-12770
▁தொழில்நுட்பத்தை	-12771
▁வழங்கப்படவில்லை	-12772
மர	-12773
ஹோ	-12774
ate	-12775
தனை	-12776
மத்	-12777
வணை	-12778
வென	-12779
க்கட	-12780
ழுவி	-12781
▁குற	-12782
▁செம	-12783
▁நன்	-12784
மரியா	-12785
▁காம்	-12786
▁சியா	-12787
▁போடி	-12788
▁ராணா	-12789
▁விஷ்	-12790
▁ஷியா	-12791
▁ஸ்டை	-12792
▁ுவர்	-12793
ங்குடி	-12794
தந்திர	-12795
▁ஆண்டை	-12796
▁ஓபிசி	-12797
▁கன்னட	-12798
▁ங்களு	-12799
▁ஜெகதீ	-12800
▁தைவான	-12801
▁நபராக	-12802
▁பதிவை	-12803
▁புண்ப	-12804
▁புராண	-12805
▁மானாம	-12806
▁வியட்	-12807
▁அக்கம்	-12808
▁எளிதான	-12809
▁கழிப்ப	-12810
▁சிராஜ்	-12811
▁சும்மா	-12812
▁துக்கு	-12813
▁தேவையை	-12814
▁படகில்	-12815
▁பரிவார	-12816
▁பெர்னா	-12817
▁வாட்ச்	-12818
▁ாதீங்க	-12819
வேளையில்	-12820
▁ஆர்வமாக	-12821
▁நாற்கால	-12822
▁புரிதல்	-12823
▁பூஸ்டர்	-12824
▁வழித்தட	-12825
▁வுக்கான	-12826
ாளியம்மன்	-12827
▁ஆதரித்து	-12828
▁உண்ணாவிர	-12829
▁கருக்கலை	-12830
▁காயங்கள்	-12831
▁குவித்து	-12832
▁கோயிலின்	-12833
▁தரிசிக்க	-12834
▁தென்னரசு	-12835
▁பகவானின்	-12836
▁மாறுபட்ட	-12837
▁மெட்ரிக்	-12838
▁வென்றார்	-12839
ப்பூர்வமாக	-12840
▁எல்லைக்கு	-12841
▁கிழக்கில்	-12842
▁கொள்கிறது	-12843
▁தலைமைக்கு	-12844
▁தலையிட்டு	-12845
▁தீர்ப்பளி	-12846
▁தென்னிந்த	-12847
▁ராணுவத்தை	-12848
▁வகித்தார்	-12849
▁எம்பிக்கள்	-12850
▁கடைபிடிக்க	-12851
▁காலிஸ்தான்	-12852
▁கோர்ட்டில்	-12853
▁சகோதரர்கள்	-12854
▁சம்பாதிக்க	-12855
▁தாய்லாந்து	-12856
▁நிறைவடைந்த	-12857
▁யுக்ரேனில்	-12858
▁வீரர்களும்	-12859
▁பங்கேற்கும்	-12860
▁பிரச்னைக்கு	-12861
▁பிரிவுகளில்	-12862
▁அறிவிப்புகள்	-12863
▁இருந்தவர்கள்	-12864
▁ஓபிஎஸ்ஸுக்கு	-12865
▁பகுதியிலுள்ள	-12866
▁பரிந்துரைக்க	-12867
▁வழங்கப்பட்டன	-12868
▁வேண்டுமென்று	-12869
▁ுபவர்களுக்கு	-12870
▁கருணாநிதியின்	-12871
▁விக்கிரமசிங்க	-12872
▁நிமிடங்களுக்கு	-12873
பீ	-12874
▁மள	-12875
சேன்	-12876
ரைக்	-12877
▁அஜி	-12878
▁எப்	-12879
▁ஜால	-12880
▁டெல	-12881
▁வசன	-12882
▁அள்ள	-12883
▁இயலா	-12884
▁காஸ்	-12885
▁குடை	-12886
▁தயவு	-12887
▁துயர	-12888
▁ன்னா	-12889
▁மால்	-12890
▁விஜே	-12891
▁வெளு	-12892
▁அதனால	-12893
▁உயர்த	-12894
▁ஒடிஷா	-12895
▁சோகம்	-12896
▁தியான	-12897
▁பகீர்	-12898
▁பறிகொ	-12899
▁பழிவா	-12900
▁மிச்ச	-12901
▁ராஜகோ	-12902
▁ராமன்	-12903
▁லட்டு	-12904
▁லுடன்	-12905
▁வனிதா	-12906
▁வாசனை	-12907
▁வெச்ச	-12908
▁......	-12909
▁அங்கம்	-12910
▁அங்காள	-12911
▁ஆடம்பர	-12912
▁காத்து	-12913
▁காரின்	-12914
▁சுபாஷ்	-12915
▁செல்வி	-12916
▁தத்துவ	-12917
▁தூங்கி	-12918
▁மாதமாக	-12919
▁முயல்க	-12920
▁வகிக்க	-12921
▁வழிகள்	-12922
▁வைரலாக	-12923
▁ுவதோடு	-12924
▁ஆவணப்பட	-12925
▁ஒன்றின்	-12926
▁கண்ணில்	-12927
▁கார்பன்	-12928
▁சிக்கலை	-12929
▁சிலைகளை	-12930
▁செலவுத்	-12931
▁ஜான்சன்	-12932
▁தலைமைப்	-12933
▁தேஜஸ்வி	-12934
▁பாய்ந்த	-12935
த்தன்மையை	-12936
▁அணிக்காக	-12937
▁அதற்கும்	-12938
▁கண்களில்	-12939
▁சசிகலாவை	-12940
▁சிலைக்கு	-12941
▁ஜாமீனில்	-12942
▁நடத்திக்	-12943
▁போராடும்	-12944
▁அடைந்தார்	-12945
▁அர்ச்சகர்	-12946
▁உட்படுத்த	-12947
▁உதவியாளர்	-12948
▁உயர்ஸ்தான	-12949
▁எதிர்வினை	-12950
▁காலமானார்	-12951
▁ஜார்கண்ட்	-12952
▁நெதன்யாகு	-12953
▁வாங்குவது	-12954
▁அலுவலர்கள்	-12955
▁உபகரணங்கள்	-12956
▁சன்னதியில்	-12957
▁செயலாளரும்	-12958
▁பாகிஸ்தானை	-12959
▁மட்டத்தில்	-12960
▁வந்தார்கள்	-12961
▁வருவதற்கான	-12962
▁அறிவுறுத்தி	-12963
▁புத்தகங்களை	-12964
▁தீவிரவாதிகள்	-12965
▁விமர்சகர்கள்	-12966
▁ஒப்பந்தத்தில்	-12967
▁விசாரித்தபோது	-12968
th	-12969
சபை	-12970
ட்ல	-12971
யது	-12972
ஸ்ஸ	-12973
▁ஷே	-12974
ஃபர்	-12975
த்வி	-12976
ள்ளே	-12977
ாயுத	-12978
▁கேப	-12979
▁ரசி	-12980
▁லதா	-12981
▁வள்	-12982
ச்சிற	-12983
▁இனம்	-12984
▁ஐஐடி	-12985
▁கபில	-12986
▁குவா	-12987
▁பியூ	-12988
▁போனை	-12989
▁மதுர	-12990
▁மேரி	-12991
▁ஸும்	-12992
ப்பேறு	-12993
ியலில்	-12994
▁ஆண்டி	-12995
▁ஆலயம்	-12996
▁காதலை	-12997
▁குரலை	-12998
▁குழாய	-12999
▁பந்த்	-13000
▁ப்பது	-13001
▁மன்னா	-13002
▁விரைய	-13003
▁ிலேயே	-13004
ச்சாராய	-13005
னத்தின்	-13006
மரியாதை	-13007
▁அனுமன்	-13008
▁ஆளுநரை	-13009
▁கூட்டா	-13010
▁கோமாளி	-13011
▁கோரும்	-13012
▁நீக்கு	-13013
▁படைகளை	-13014
▁பயிரிட	-13015
▁புறம்ப	-13016
▁புஷ்பா	-13017
▁விஜயன்	-13018
▁ாமலும்	-13019
▁அங்கும்	-13020
▁அனர்த்த	-13021
▁இரானின்	-13022
▁இருக்கா	-13023
▁களுக்கே	-13024
▁கழுத்தை	-13025
▁கவனித்த	-13026
▁குத்தகை	-13027
▁கோபத்தை	-13028
▁சொர்க்க	-13029
▁மூவரும்	-13030
▁உண்மையாக	-13031
▁உயிரியல்	-13032
▁செய்வதன்	-13033
▁தரவில்லை	-13034
▁தாக்கும்	-13035
▁நிதிநிலை	-13036
▁புரியும்	-13037
▁போகிறோம்	-13038
▁ப்பதற்கு	-13039
▁மாநிலமாக	-13040
▁யோசித்து	-13041
▁வாக்குப்	-13042
த்துறையின்	-13043
▁திருமணமான	-13044
▁மனைவியும்	-13045
▁மாநிலத்தை	-13046
▁விளங்கும்	-13047
▁ஊக்குவிக்க	-13048
▁எப்படியும்	-13049
▁கண்டுகொள்ள	-13050
▁காப்பாற்றி	-13051
▁சொல்கிறேன்	-13052
▁தினத்தன்று	-13053
▁திஸாநாயக்க	-13054
▁துல்லியமாக	-13055
▁நிலவரப்படி	-13056
▁பொதுமக்களை	-13057
▁வந்தவர்கள்	-13058
▁விழாவுக்கு	-13059
▁வீட்டிலும்	-13060
▁வெளியிடும்	-13061
▁அர்ஜென்டினா	-13062
▁கடத்தப்பட்ட	-13063
▁சமூகத்தினர்	-13064
▁சுற்றுச்சூழ	-13065
▁செய்துகொள்ள	-13066
▁பகிரப்பட்டு	-13067
▁பெறுவதற்கான	-13068
▁காத்திருந்து	-13069
▁விளையாட்டுப்	-13070
▁எழுந்தருளினார்	-13071
▁கொடுக்கப்படும்	-13072
▁திரைப்படத்தின்	-13073
▁வெளிநாடுகளுக்கு	-13074
பரா	-13075
ிகே	-13076
▁08	-13077
▁79	-13078
மேட்	-13079
ழகன்	-13080
▁ஏசி	-13081
▁சத்	-13082
▁நறு	-13083
▁மடை	-13084
▁லவ்	-13085
க்கென	-13086
▁உரம்	-13087
▁தோழி	-13088
▁பரமே	-13089
▁பலனை	-13090
▁விசய	-13091
▁வெப்	-13092
▁ுங்க	-13093
ளவிலான	-13094
விட்டன	-13095
ியுமான	-13096
▁ஆசியா	-13097
▁இன்னி	-13098
▁கவிதா	-13099
▁சஷ்டி	-13100
▁சுவாச	-13101
▁தன்னி	-13102
▁நடனம்	-13103
▁நாதர்	-13104
▁நேராக	-13105
▁பதிலை	-13106
▁புவிய	-13107
▁பையன்	-13108
▁மும்ப	-13109
▁ுக்கு	-13110
வர்களாக	-13111
ிறுத்தி	-13112
▁ஆடைகளை	-13113
▁உளைச்ச	-13114
▁சாலையை	-13115
▁பகவானை	-13116
▁பறிக்க	-13117
▁யில்லை	-13118
▁வரம்பு	-13119
▁வர்க்க	-13120
▁வளாகம்	-13121
▁வினால்	-13122
ப்பாகும்	-13123
▁அகதிகள்	-13124
▁அறிகுறி	-13125
▁இடம்பெய	-13126
▁உங்களது	-13127
▁உயிரோடு	-13128
▁கணவரின்	-13129
▁காணிக்க	-13130
▁சக்தியை	-13131
▁சிறுவனை	-13132
▁பாரபட்ச	-13133
▁பெருநகர	-13134
▁ராஷ்டிர	-13135
▁வாரணாசி	-13136
▁இருக்கக்	-13137
▁கொண்டோம்	-13138
▁சார்ந்து	-13139
▁சிறந்தது	-13140
▁செருப்பு	-13141
▁ஜனநாயகம்	-13142
▁தன்னுடன்	-13143
▁பெண்ணும்	-13144
▁முன்னோடி	-13145
▁லட்சத்தை	-13146
ட்டுகிறார்	-13147
▁ஒப்பிட்டு	-13148
▁குற்றஞ்சா	-13149
▁தடுப்புச்	-13150
▁புற்றுநோய	-13151
▁அளிக்கப்பட	-13152
▁இந்துத்துவ	-13153
▁என்பார்கள்	-13154
▁சுற்றுலாத்	-13155
▁செய்கிறோம்	-13156
▁உடன்படிக்கை	-13157
▁செய்பவர்கள்	-13158
▁சொல்லுங்கள்	-13159
▁நம்புகிறார்	-13160
▁ப்படவுள்ளது	-13161
▁மீட்டெடுக்க	-13162
▁முடிந்ததும்	-13163
▁வழங்கவில்லை	-13164
▁சொல்லிவிட்டு	-13165
▁நிதியாண்டில்	-13166
▁கையெழுத்திட்ட	-13167
▁புரிந்துணர்வு	-13168
▁வாழ்த்துக்களை	-13169
▁லட்சத்திற்கும்	-13170
▁போராட்டத்திற்கு	-13171
ak	-13172
st	-13173
ணவ	-13174
பெய	-13175
வலி	-13176
▁9,	-13177
▁ab	-13178
நாம்	-13179
▁சரத	-13180
▁பக்	-13181
▁புழ	-13182
▁ாரு	-13183
▁2005	-13184
▁கொசு	-13185
▁புழு	-13186
▁ராஜி	-13187
▁வரம்	-13188
▁ஸ்வா	-13189
▁ஹசன்	-13190
▁ிப்ப	-13191
ப்புரை	-13192
▁அனில்	-13193
▁எமிரே	-13194
▁கங்கா	-13195
▁டொலர்	-13196
▁பித்த	-13197
▁மகிழ்	-13198
▁ஸ்ரீல	-13199
▁ஹெக்ட	-13200
ியடைந்த	-13201
ுகின்றன	-13202
▁கரையோர	-13203
▁பிராமண	-13204
▁போர்டு	-13205
▁விழும்	-13206
த்தூரில்	-13207
▁ஆபரேஷன்	-13208
▁இச்சம்ப	-13209
▁எல்லைப்	-13210
▁கடன்களை	-13211
▁குண்டுவ	-13212
▁துரோகம்	-13213
▁துறையின	-13214
▁நரசிம்ம	-13215
▁பறித்து	-13216
▁பாதித்த	-13217
▁ப்பட்டி	-13218
▁முதலாம்	-13219
▁முப்படை	-13220
▁ரஹ்மான்	-13221
▁லாட்டரி	-13222
▁அப்பாற்ப	-13223
▁அம்பேத்க	-13224
▁இதற்குக்	-13225
▁உரையாடல்	-13226
▁குறுக்கே	-13227
▁கூட்டுப்	-13228
▁கொண்டும்	-13229
▁சமாதானம்	-13230
▁பதிவாகிய	-13231
▁முதலிடம்	-13232
▁மோதல்கள்	-13233
▁ஃபேஸ்புக்	-13234
▁அடைத்தனர்	-13235
▁அறிமுகமான	-13236
▁அவர்களைப்	-13237
▁ஆட்சியைப்	-13238
▁உயரத்தில்	-13239
▁ஊழியர்களை	-13240
▁எடுத்துரை	-13241
▁காரணங்களை	-13242
▁பணிப்புரை	-13243
ப்பெயர்ச்சி	-13244
▁அறியப்பட்ட	-13245
▁ஆட்டத்தின்	-13246
▁உட்கார்ந்த	-13247
▁கிளிநொச்சி	-13248
▁தேதிக்குள்	-13249
▁தொடரப்பட்ட	-13250
▁தொடர்பிலான	-13251
▁தொழிற்சங்க	-13252
▁பெட்டியில்	-13253
▁முயற்சித்த	-13254
▁ஹிஸ்புல்லா	-13255
▁எதிர்த்துப்	-13256
▁காங்கிரஸில்	-13257
▁காலத்துக்கு	-13258
▁இடைத்தேர்தல்	-13259
▁சிகிச்சைக்கு	-13260
▁திரும்பினார்	-13261
▁பெருந்தொற்று	-13262
▁போலீசாருக்கு	-13263
▁வித்தியாசமாக	-13264
▁கொடுத்துள்ளது	-13265
▁திறக்கப்பட்டு	-13266
▁ராசிக்காரர்கள்	-13267
▁வைக்கப்பட்டுள்ள	-13268
.1,	-13269
முன	-13270
ரப்	-13271
ஷத்	-13272
ிரை	-13273
ோடி	-13274
ணையை	-13275
நல்ல	-13276
பியா	-13277
ருதி	-13278
வாலை	-13279
▁13-	-13280
▁2.5	-13281
▁ஜாக	-13282
▁தல்	-13283
▁தோன	-13284
▁பயோ	-13285
▁வவு	-13286
▁2026	-13287
▁அடிய	-13288
▁கியூ	-13289
▁கென்	-13290
▁சரும	-13291
▁நாத்	-13292
▁பாசி	-13293
▁மனது	-13294
▁ரெடி	-13295
▁லோக்	-13296
சண்முக	-13297
பிள்யூ	-13298
▁ஆக்ரோ	-13299
▁ஆசீர்	-13300
▁எதிரே	-13301
▁ஏரியா	-13302
▁சஜித்	-13303
▁சாவடி	-13304
▁சிலரை	-13305
▁சூடான	-13306
▁ஜவஹர்	-13307
▁படமாக	-13308
▁பிற்க	-13309
▁வருமா	-13310
▁வேந்த	-13311
கார்த்த	-13312
டாதிபதி	-13313
▁அமலில்	-13314
▁உயர்வை	-13315
▁கட்டம்	-13316
▁குமாரி	-13317
▁சம்மன்	-13318
▁நேஷனல்	-13319
▁பரஸ்பர	-13320
▁பாக்ஸ்	-13321
▁பெரம்ப	-13322
▁போரிஸ்	-13323
▁மின்றி	-13324
▁மெரினா	-13325
▁யாப்பா	-13326
▁ராதிகா	-13327
▁லிஸ்ட்	-13328
▁வரப்போ	-13329
▁வெச்சு	-13330
▁இருப்பத	-13331
▁உதாரணம்	-13332
▁காமராஜ்	-13333
▁சிதம்பர	-13334
▁தந்தையை	-13335
▁நீச்சல்	-13336
▁மகத்தான	-13337
▁முறைகள்	-13338
▁வான்வழி	-13339
▁அதிர்வலை	-13340
▁எனவேதான்	-13341
▁க்கிட்டு	-13342
▁சான்றிதழ	-13343
▁நடந்ததாக	-13344
▁மதத்தின்	-13345
▁உணர்வுகளை	-13346
▁த்துடனும்	-13347
▁உதவித்தொகை	-13348
▁காற்றழுத்த	-13349
▁நினைத்தால்	-13350
▁வகுப்புகள்	-13351
▁இளைஞர்களின்	-13352
▁தோன்றுகிறது	-13353
▁வாக்குகளைப்	-13354
▁வேறுபாடுகள்	-13355
▁வீட்டிற்குள்	-13356
▁உரையாற்றினார்	-13357
▁கோயம்புத்தூர்	-13358
▁தலைவர்களுக்கு	-13359
▁முன்னேற்றத்தை	-13360
▁விமர்சித்தார்	-13361
▁ஆராய்ச்சியாளர்	-13362
▁தமிழ்நாட்டிற்கு	-13363
▁பார்க்கிறார்கள்	-13364
▁மேட்டுப்பாளையம்	-13365
1.	-13366
யோக	-13367
ஸர்	-13368
▁07	-13369
▁81	-13370
போதே	-13371
மலைய	-13372
மீது	-13373
ரிங்	-13374
▁உளு	-13375
▁ஏஜெ	-13376
▁பனை	-13377
▁றது	-13378
த்தறி	-13379
றையான	-13380
ினோம்	-13381
▁இண்ட	-13382
▁கோகு	-13383
▁சலுக	-13384
▁ட்ரெ	-13385
▁பற்க	-13386
▁பலகை	-13387
▁ப்ளூ	-13388
▁மாணி	-13389
▁யோசி	-13390
▁ஷாட்	-13391
ராய்டு	-13392
▁10:00	-13393
▁ஆக்சி	-13394
▁கிளப்	-13395
▁டிராக	-13396
▁தாராள	-13397
▁நித்ய	-13398
▁பவானி	-13399
▁பாவம்	-13400
▁மலையே	-13401
▁ரவுடி	-13402
▁வயிறு	-13403
▁உடைக்க	-13404
▁எனக்கூ	-13405
▁குக்கி	-13406
▁குஷ்பு	-13407
▁க்குக்	-13408
▁தேடிக்	-13409
▁நோன்பு	-13410
▁பகுப்ப	-13411
▁பெருமி	-13412
▁வணங்கி	-13413
▁வைத்தே	-13414
▁வைபவம்	-13415
ங்கிலும்	-13416
ட்படுத்த	-13417
▁இதுதவிர	-13418
▁இரண்டாக	-13419
▁இருக்கை	-13420
▁குவித்த	-13421
▁கூடியது	-13422
▁செய்கிற	-13423
▁தண்டவாள	-13424
▁நிலவின்	-13425
▁படகுகள்	-13426
▁வடமாநில	-13427
▁ோருக்கு	-13428
▁எடுப்பது	-13429
▁கொள்வனவு	-13430
▁கோவாவில்	-13431
▁தாம்பரம்	-13432
▁தொழிலதிப	-13433
▁நிர்ணயம்	-13434
▁பெற்றுத்	-13435
▁மனுக்களை	-13436
▁மாமியார்	-13437
▁ரூபாயும்	-13438
▁வெற்றிக்	-13439
▁ஆஞ்சநேயர்	-13440
▁கிறார்கள்	-13441
▁தீவிரவாதி	-13442
▁தொடர்புகொ	-13443
▁நிற்கிறது	-13444
▁நெகிழ்ச்ச	-13445
▁படிப்பில்	-13446
▁விடவில்லை	-13447
▁விருதுகள்	-13448
▁அவருக்குத்	-13449
▁ஆரோக்கியம்	-13450
▁இடம்பெறும்	-13451
▁இத்திட்டம்	-13452
▁கச்சத்தீவு	-13453
▁தரப்பிலும்	-13454
▁மின்னலுடன்	-13455
▁வரவேண்டும்	-13456
▁விண்ணப்பம்	-13457
▁குழுமத்தின்	-13458
▁சொத்துக்களை	-13459
▁நம்புகிறோம்	-13460
▁பாதயாத்திரை	-13461
▁பிரிட்டனில்	-13462
▁பொறுப்பேற்க	-13463
▁ப்படுவதற்கு	-13464
▁மேற்கொண்டது	-13465
ப்பட்டுள்ளதாக	-13466
▁இருந்தபோதும்	-13467
▁எங்களுக்குத்	-13468
▁கட்டப்பட்டது	-13469
▁தொலைபேசியில்	-13470
▁நிதிஷ்குமார்	-13471
▁பொருட்படுத்த	-13472
▁நிகழ்ச்சியின்	-13473
▁போட்டிகளிலும்	-13474
▁போராட்டத்தின்	-13475
▁அரசியலமைப்பின்	-13476
▁நெடுஞ்சாலையில்	-13477
▁பார்த்துவிட்டு	-13478
▁இந்தியாவுக்கும்	-13479
▁எதிர்க்கட்சியாக	-13480
▁நினைக்கிறார்கள்	-13481
▁j	-13482
ித்	-13483
▁ad	-13484
சிங்	-13485
ென்ற	-13486
▁இடம	-13487
▁கரா	-13488
▁துக	-13489
▁ஸ்வ	-13490
எஸ்பி	-13491
▁அமேச	-13492
▁உலோக	-13493
▁சீதா	-13494
▁டெஸ்	-13495
▁தடம்	-13496
▁தற்ச	-13497
▁தாழ்	-13498
▁திணற	-13499
▁பணப்	-13500
▁பாசன	-13501
▁பொழி	-13502
▁ரால்	-13503
▁வயல்	-13504
▁வாட்	-13505
▁விரத	-13506
கொண்டு	-13507
▁அப்பெ	-13508
▁ஆண்ட்	-13509
▁இணங்க	-13510
▁கலங்க	-13511
▁சம்பா	-13512
▁டெபாச	-13513
▁தனித்	-13514
▁தவறிய	-13515
▁ரசாயன	-13516
ச்சாரம்	-13517
பாஸ்கர்	-13518
▁இவர்கள	-13519
▁ஒழுங்க	-13520
▁கடைகளை	-13521
▁கதைகள்	-13522
▁கிறார்	-13523
▁சமூகப்	-13524
▁புல்டோ	-13525
▁மாஸ்க்	-13526
▁யூடியூ	-13527
▁ரசிக்க	-13528
▁வசித்த	-13529
▁வயநாடு	-13530
▁விக்னே	-13531
▁விஜய்ய	-13532
▁ஸ்கேன்	-13533
▁காணலாம்	-13534
▁கும்பம்	-13535
▁சந்தீப்	-13536
▁செயலில்	-13537
▁சோகத்தை	-13538
▁பிந்தைய	-13539
▁பெயரும்	-13540
▁பேசுவதை	-13541
ந்தரராஜன்	-13542
▁என்கவுன்	-13543
▁தொகுதியை	-13544
▁நடக்காது	-13545
▁பூமிக்கு	-13546
▁வகுப்பறை	-13547
▁விடுவதாக	-13548
▁வேகமாகப்	-13549
▁வைத்தால்	-13550
▁அருணாச்சல	-13551
▁உதவுகிறது	-13552
▁கப்பல்கள்	-13553
▁கிடைக்கப்	-13554
▁கோவில்கள்	-13555
▁சேலத்தில்	-13556
▁துறைமுகம்	-13557
▁பெண்ணிடம்	-13558
▁மூடப்பட்ட	-13559
▁விவாதத்தை	-13560
விருக்கிறது	-13561
▁அறிக்கைகள்	-13562
▁இருப்பதும்	-13563
▁எதிராகவும்	-13564
▁கண்டறியும்	-13565
▁சந்திரசேகர	-13566
▁தகவலின்படி	-13567
▁நினைக்கும்	-13568
▁மூலவருக்கு	-13569
▁ஈடுபட்டுள்ள	-13570
▁ஒத்துழைப்பை	-13571
▁நடைமுறைக்கு	-13572
▁பார்க்காமல்	-13573
▁குறிப்பிடும்	-13574
▁தொடர்ச்சியான	-13575
▁பெண்களுக்கான	-13576
▁பொதுவெளியில்	-13577
ிருக்கிறார்கள்	-13578
▁கிராமத்திற்கு	-13579
▁அதைத்தொடர்ந்து	-13580
▁காணப்படுகின்றன	-13581
▁தொடங்கப்பட்டது	-13582
▁பிரச்னைகளுக்கு	-13583
▁விடுத்துள்ளனர்	-13584
▁விதிக்கப்படும்	-13585
▁அறிவிக்கப்பட்டு	-13586
▁இதனைத்தொடர்ந்து	-13587
▁இருந்திருக்கும்	-13588
▁எடுத்துக்கொண்டு	-13589
ho	-13590
un	-13591
ன்த	-13592
ம்க	-13593
ஷர்	-13594
▁09	-13595
▁றி	-13596
ங்கட	-13597
னூர்	-13598
ப்ரா	-13599
மானு	-13600
மிளா	-13601
மேடு	-13602
ராயி	-13603
▁17-	-13604
▁ion	-13605
▁இட்	-13606
▁கவச	-13607
▁தேய	-13608
▁பேண	-13609
▁மாச	-13610
பிஷேக	-13611
ிருதி	-13612
ெய்தி	-13613
ேரில்	-13614
▁அகாட	-13615
▁அபார	-13616
▁சிரி	-13617
▁ஜெயி	-13618
▁ட்டா	-13619
▁தேவ்	-13620
▁போயி	-13621
▁மீள்	-13622
▁வரத்	-13623
க்கொடி	-13624
ீங்களா	-13625
▁அமுல்	-13626
▁கண்ணா	-13627
▁செஞ்ச	-13628
▁மூலமே	-13629
▁மூவர்	-13630
▁வனவில	-13631
▁வாஜ்ப	-13632
ர்களாம்	-13633
▁உடைத்த	-13634
▁உதவித்	-13635
▁கலைக்க	-13636
▁தங்கப்	-13637
▁தமக்கு	-13638
▁திகழ்க	-13639
▁நபிகள்	-13640
▁நாடும்	-13641
▁பிரிவை	-13642
▁மயங்கி	-13643
▁ள்ளேயே	-13644
ச்சியார்	-13645
ப்புள்ளி	-13646
▁உடலுறவு	-13647
▁களுடனான	-13648
▁சூரியனை	-13649
▁பெரியகு	-13650
▁ர்களின்	-13651
▁விஷயமாக	-13652
▁அச்சத்தை	-13653
▁காமாட்சி	-13654
▁குதித்து	-13655
▁சாதனைகளை	-13656
▁தெல்லாம்	-13657
▁பந்துகள்	-13658
▁பெருவிழா	-13659
▁பொழுதுபோ	-13660
▁ப்போவதாக	-13661
▁முன்னாடி	-13662
ாளிகளுக்கு	-13663
▁இப்படியாக	-13664
▁இருந்தோம்	-13665
▁காட்டியது	-13666
▁குடும்பத்	-13667
▁சுகாதாரத்	-13668
▁செல்லலாம்	-13669
▁நெருக்கம்	-13670
▁புகழ்ந்து	-13671
▁ள்ளார்கள்	-13672
▁வயிற்றில்	-13673
▁வீசப்பட்ட	-13674
▁அணிவகுப்பு	-13675
▁இருவருக்கு	-13676
▁சுதந்திரப்	-13677
▁தோல்விக்கு	-13678
▁த்துக்குள்	-13679
▁புகாரளித்த	-13680
▁பொன்னியின்	-13681
▁வகிக்கிறது	-13682
▁விருக்கும்	-13683
▁கட்டிடங்கள்	-13684
▁சிவராத்திரி	-13685
▁செலுத்துவது	-13686
▁தென்கிழக்கு	-13687
▁பிரமுகர்கள்	-13688
▁மனிதர்களின்	-13689
▁இருந்தார்கள்	-13690
▁பிரசாரத்தில்	-13691
▁மதச்சார்பற்ற	-13692
▁விசாரித்தனர்	-13693
▁இந்தியாவிலேயே	-13694
▁இறுதிப்போட்டி	-13695
▁கோடிக்கணக்கான	-13696
▁சிறுபான்மையின	-13697
▁பயங்கரவாதிகள்	-13698
▁விழிப்புணர்வை	-13699
▁இதைத்தொடர்ந்து	-13700
ஜ்ஜ	-13701
▁!!	-13702
தீன்	-13703
விடு	-13704
▁1,2	-13705
▁The	-13706
▁உணவ	-13707
▁சென	-13708
▁தளப	-13709
சியம்	-13710
றியாக	-13711
ாலயம்	-13712
▁அப்ட	-13713
▁உபயோ	-13714
▁கனமழ	-13715
▁குளோ	-13716
▁சப்த	-13717
▁சர்த	-13718
▁தல்ல	-13719
▁தாமத	-13720
▁தைக்	-13721
▁பதாக	-13722
▁யாழ்	-13723
▁லக்ன	-13724
▁வர்ண	-13725
▁விளி	-13726
▁வைச்	-13727
பாட்டை	-13728
றுத்தி	-13729
▁அணுகி	-13730
▁இம்மா	-13731
▁கிணறு	-13732
▁குன்ன	-13733
▁சொக்க	-13734
▁டிஆர்	-13735
▁தாமஸ்	-13736
▁நரம்ப	-13737
▁வினோத	-13738
▁ுபவர்	-13739
மிருந்த	-13740
▁ஆட்சேப	-13741
▁ஒப்புத	-13742
▁குமாரை	-13743
▁தொட்டி	-13744
▁த்தைச்	-13745
▁நடுவர்	-13746
▁மாலிக்	-13747
ட்டியில்	-13748
த்தக்கது	-13749
த்தலைவர்	-13750
▁இத்தாலி	-13751
▁எரிந்து	-13752
▁களிலேயே	-13753
▁சங்கிலி	-13754
▁தங்கும்	-13755
▁தமிழ்த்	-13756
▁நந்தினி	-13757
▁பகுதிகள	-13758
▁மறைந்து	-13759
▁மானியம்	-13760
▁ரன்னில்	-13761
▁ஆகியவற்ற	-13762
▁கிடைத்தன	-13763
▁செல்லூர்	-13764
▁சோதனைகள்	-13765
▁நிலத்தடி	-13766
▁பதிவுகள்	-13767
▁பெற்றதாக	-13768
▁மரணங்கள்	-13769
▁மார்க்கெ	-13770
▁ராம்நாத்	-13771
▁வன்னியர்	-13772
▁வலிமையான	-13773
▁இயக்கத்தை	-13774
▁கலைஞர்கள்	-13775
▁கிடக்கும்	-13776
▁சேதமடைந்த	-13777
▁நிலைநாட்ட	-13778
▁பார்த்தது	-13779
▁பிறந்தார்	-13780
▁பேச்சாளர்	-13781
▁விதித்தது	-13782
▁ஆணையத்தில்	-13783
▁உலகக்கோப்ப	-13784
▁குருபகவான்	-13785
▁சிக்கல்களை	-13786
▁சென்றாலும்	-13787
▁சேர்த்தனர்	-13788
▁தெரியவரும்	-13789
▁பணியமர்த்த	-13790
▁பதவியேற்பு	-13791
▁பெரியளவில்	-13792
▁முதன்மையான	-13793
▁முத்துக்கு	-13794
▁வழங்குவதாக	-13795
▁விமரிசையாக	-13796
▁ுகிறீர்கள்	-13797
▁அனுப்பினார்	-13798
▁ஒழுங்குமுறை	-13799
▁கொண்டவர்கள்	-13800
▁பணியிடங்கள்	-13801
▁மின்சாரத்தை	-13802
▁முழுவதிலும்	-13803
▁வலைதளத்தில்	-13804
▁வியாபாரிகள்	-13805
▁உருவாக்குவது	-13806
▁கருக்கலைப்பு	-13807
▁கூட்டத்தொடர்	-13808
▁சிறப்புமிக்க	-13809
▁திட்டங்களில்	-13810
▁நிகழ்ச்சிகளை	-13811
▁பள்ளிகளுக்கு	-13812
▁பிள்ளைகளுக்கு	-13813
▁விதித்துள்ளது	-13814
▁ஆரோக்கியத்தில்	-13815
▁ஏற்பட்டுள்ளதாக	-13816
▁குற்றப்பத்திரி	-13817
▁திருச்செந்தூர்	-13818
▁மேல்முறையீட்டு	-13819
▁உருவாக்கப்படும்	-13820
▁கண்டறியப்பட்டது	-13821
ps	-13822
ard	-13823
கத்	-13824
மிர	-13825
▁92	-13826
▁ag	-13827
சையை	-13828
மெட்	-13829
விக்	-13830
ாதது	-13831
▁ாலே	-13832
ண்டாக	-13833
ுயிர்	-13834
▁கணித	-13835
▁சப்ப	-13836
▁பேனா	-13837
▁லாலு	-13838
க்கேல்	-13839
ச்சியை	-13840
ப்பினை	-13841
▁அபராத	-13842
▁உடற்க	-13843
▁உன்னி	-13844
▁எப்போ	-13845
▁கௌதம்	-13846
▁சிவகா	-13847
▁பேரழி	-13848
▁மண்டை	-13849
▁மிருக	-13850
▁ரம்மி	-13851
▁வற்றை	-13852
▁விரிச	-13853
ப்பெற்ற	-13854
லுக்காக	-13855
▁ஆகிறது	-13856
▁இறக்கி	-13857
▁கிரிமி	-13858
▁சவாலான	-13859
▁தனித்த	-13860
▁தரத்தை	-13861
▁திரட்ட	-13862
▁பண்டைய	-13863
▁பந்துல	-13864
▁பிரேம்	-13865
▁பூமியை	-13866
▁பொருளை	-13867
▁வரதட்ச	-13868
▁விடுபட	-13869
ந்தோட்டை	-13870
▁சித்தர்	-13871
▁தீவுகள்	-13872
▁தோற்றம்	-13873
▁பிசினஸ்	-13874
▁பினராயி	-13875
▁வாரியாக	-13876
▁காற்றில்	-13877
▁சமுத்திர	-13878
▁தொழிலாளி	-13879
▁நிகழ்வாக	-13880
▁பிரேசில்	-13881
▁மகப்பேறு	-13882
▁மகளுக்கு	-13883
▁ரங்கசாமி	-13884
▁வழிநடத்த	-13885
ப்பெருக்கு	-13886
▁சமாஜ்வாடி	-13887
▁சின்னத்தை	-13888
▁செல்லாமல்	-13889
▁தற்பொழுது	-13890
▁திரைக்கதை	-13891
▁பாம்புகள்	-13892
▁மில்லாமல்	-13893
▁முன்பாகவே	-13894
▁வரவழைத்து	-13895
▁விடயங்கள்	-13896
▁சிறப்பாகச்	-13897
▁சிறுமிக்கு	-13898
▁பணிபுரிந்த	-13899
▁அதிர்வலைகளை	-13900
▁தோட்டத்தில்	-13901
▁விதிமுறைகள்	-13902
▁அமைப்புகளின்	-13903
▁அலுவலகத்தின்	-13904
▁நண்பர்களுடன்	-13905
▁பெருமாளுக்கு	-13906
▁விரும்பினால்	-13907
▁எடுத்துள்ளார்	-13908
▁ஒப்பந்தத்தின்	-13909
▁கவுன்சிலர்கள்	-13910
▁காவல்துறைக்கு	-13911
▁செய்யக்கூடாது	-13912
▁முதலமைச்சரின்	-13913
▁ஆயிரத்திற்கும்	-13914
▁இடைத்தேர்தலில்	-13915
▁எதிர்பார்க்காத	-13916
▁சுற்றுலாத்துறை	-13917
▁கலந்துரையாடலில்	-13918
▁வழங்கப்பட்டுள்ள	-13919
▁Ex	-13920
ழகர்	-13921
▁ஆகம	-13922
▁சசி	-13923
▁சைய	-13924
▁நடா	-13925
▁நாச	-13926
▁பஜ்	-13927
▁பில	-13928
▁ரிட	-13929
▁ாரோ	-13930
பெயர்	-13931
யோகம்	-13932
ானிக்	-13933
ுவும்	-13934
▁குட்	-13935
▁சிதற	-13936
▁சைலே	-13937
▁பவனி	-13938
▁மாஸ்	-13939
▁யூனி	-13940
▁வளைய	-13941
▁ஹாலி	-13942
னர்கள்	-13943
ழ்த்து	-13944
▁அதிரா	-13945
▁உசேன்	-13946
▁உபயோக	-13947
▁உற்று	-13948
▁எறும்	-13949
▁குந்த	-13950
▁ஜானகி	-13951
▁மதுரா	-13952
▁ரன்ரே	-13953
க்குகள்	-13954
சாரிகள்	-13955
▁அழகிரி	-13956
▁இயக்கி	-13957
▁உணர்வை	-13958
▁எஞ்சிய	-13959
▁குலாம்	-13960
▁பிரேக்	-13961
▁வேண்டா	-13962
▁அன்னதான	-13963
▁ஆய்வின்	-13964
▁உதவியது	-13965
▁குண்டர்	-13966
▁கோவிந்த	-13967
▁சந்தோஷ்	-13968
▁ஜஸ்டின்	-13969
▁தியாகம்	-13970
▁திறமையை	-13971
▁பிரதமரை	-13972
▁பிரேமதா	-13973
▁பெண்ணாக	-13974
▁மார்கழி	-13975
▁மீன்கள்	-13976
▁ஸ்பெஷல்	-13977
▁அணிகளும்	-13978
▁கழிப்பறை	-13979
▁காசாவில்	-13980
▁சரிசெய்ய	-13981
▁தருகிறது	-13982
▁மரத்தில்	-13983
▁வசூலிக்க	-13984
ப்பதாகவும்	-13985
▁இணைத்துக்	-13986
▁எல்லாரும்	-13987
▁ஓரளவுக்கு	-13988
▁குடியேற்ற	-13989
▁சைலேந்திர	-13990
▁நடமாட்டம்	-13991
▁நேர்மையான	-13992
▁போட்டியாள	-13993
▁மாத்திரமே	-13994
▁மானாமதுரை	-13995
▁வேலைக்காக	-13996
▁ஸ்ரீலங்கா	-13997
▁அனுபவித்து	-13998
▁அமைப்புகளை	-13999
▁ஆட்டமிழக்க	-14000
[...]
