<unk>	0
<s>	0
</s>	0
▁்	-3.14179
▁.	-3.506
▁ு	-3.99159
▁ம	-4.09241
▁வ	-4.09687
▁க	-4.11917
▁,	-4.13308
▁த	-4.18051
▁ப	-4.1812
▁அ	-4.22665
▁இ	-4.32448
▁ி	-4.45587
▁ச	-4.5504
▁ந	-4.56073
▁ை	-4.79042
▁ில்	-4.80178
▁ப்ப	-4.80855
▁த்த	-4.82829
▁ும்	-4.88535
▁ம்	-4.9192
▁து	-4.96634
ம	-4.97975
ல	-5.00448
ர	-5.00803
வ	-5.01253
▁ர	-5.01492
த்த	-5.09555
▁ுக்கு	-5.25113
க	-5.28182
▁ா	-5.30078
ன	-5.30762
ப்ப	-5.37221
▁க்க	-5.41319
▁ட்ட	-5.42499
▁எ	-5.44366
க்க	-5.46256
ய	-5.46494
▁ின்	-5.4685
்	-5.46996
▁ாக	-5.48293
த	-5.49867
▁ஆ	-5.54488
▁ார்	-5.60038
▁ுள்ள	-5.60726
▁்கள	-5.66434
ந்த	-5.66453
▁ருந்த	-5.6781
▁ர்	-5.69769
ுக்க	-5.72915
▁கள	-5.75944
ட	-5.84818
▁ும	-5.86542
▁இந்த	-5.89589
▁உ	-5.90221
▁0	-5.90492
▁யில்	-5.90765
ி	-5.90993
▁ட	-5.93144
▁ங்கள	-5.9456
▁"	-5.94795
▁பா	-5.96518
▁ய	-5.97107
ா	-5.97574
▁ிய	-5.9856
▁2	-5.99648
▁ான	-6.01745
▁ப்	-6.02605
▁க்கு	-6.028
▁த்	-6.03566
▁டுத்த	-6.05196
▁ே	-6.08149
ு	-6.08778
▁யை	-6.13179
▁க்	-6.13763
▁ிறது	-6.14782
▁உள்ள	-6.16554
▁ன	-6.16739
▁ஒரு	-6.1802
ில	-6.18892
▁்ட	-6.20713
▁ரு	-6.20899
ங்கள	-6.2093
▁ந்த	-6.24112
▁1	-6.25063
ை	-6.27163
▁என்று	-6.29372
ிய	-6.3172
▁ல	-6.31939
▁மற்ற	-6.3194
ர்கள	-6.32284
▁வி	-6.3367
▁என	-6.35957
▁னர்	-6.37656
▁கொ	-6.38204
▁த்தி	-6.39237
▁என்ற	-6.425
▁-	-6.43317
▁தி	-6.43474
ேண்ட	-6.4517
ப	-6.48746
ச	-6.53393
ட்ட	-6.5394
▁ால்	-6.54755
▁குறி	-6.55252
▁தான்	-6.55709
▁தொடர	-6.5652
▁செய்ய	-6.61712
▁செய்த	-6.61933
▁யாக	-6.65101
▁தாக	-6.65279
கள	-6.66717
ம்	-6.67704
▁:	-6.69897
ருக	-6.70103
து	-6.73517
▁யின்	-6.73827
▁த்தை	-6.74375
▁களை	-6.76887
▁ித்த	-6.7697
▁ன்	-6.7863
▁பல	-6.79053
▁செ	-6.80338
▁கள்	-6.8164
▁அவர்	-6.82351
▁ின்றன	-6.8247
▁ிறார்	-6.82836
▁பிர	-6.83184
▁ஏற்ப	-6.83454
▁ட்டு	-6.84476
▁வந்த	-6.86072
க்கள	-6.86087
▁ய்	-6.86264
▁நட	-6.86919
▁ஒ	-6.87034
▁ஜ	-6.8756
▁என்ப	-6.87781
▁ிற	-6.87817
▁இது	-6.88051
▁அம	-6.89429
ிட்ட	-6.90439
▁க்கை	-6.90619
▁?	-6.90952
வர	-6.9114
▁யும்	-6.91637
ப்	-6.91941
ள	-6.92858
▁அதிக	-6.93674
▁முதல்	-6.9471
▁ிற்கு	-6.94848
▁'	-6.95968
▁ச்	-6.96503
ந்து	-6.96685
ாட்ட	-6.98054
▁சே	-6.9809
ும	-6.98884
ண	-6.9892
▁கட்ட	-6.99044
▁3	-6.99527
▁டி	-6.99779
ொண்ட	-7.00058
▁ஹ	-7.001
▁ோ	-7.00312
ற்கு	-7.00502
▁ற்ற	-7.00833
▁ஏ	-7.01749
▁கூற	-7.02123
▁திரு	-7.04183
ெரிவ	-7.05406
▁வா	-7.0685
▁அந்த	-7.07005
▁ஆண்டு	-7.07712
▁ந்திய	-7.0898
ான	-7.0909
▁எதிர	-7.09906
க்	-7.10682
டத்த	-7.10975
▁ுடன்	-7.11055
▁5	-7.11744
▁கட்சி	-7.11836
▁அவர	-7.11885
்தில	-7.12002
▁ிட்ட	-7.12017
▁வர	-7.12616
▁ளி	-7.12969
▁பேச	-7.13274
▁டை	-7.14158
▁ீ	-7.15168
▁்ச்சி	-7.1852
▁9	-7.18561
ாக	-7.1889
▁4	-7.20211
ங்க	-7.20511
▁மீ	-7.20586
▁ஸ	-7.20695
▁துறை	-7.20961
ற	-7.2126
▁்ப	-7.21311
▁த்து	-7.21348
ே	-7.21782
▁ணை	-7.22055
ச்ச	-7.23002
▁முறை	-7.23106
▁வழங்க	-7.23374
▁று	-7.23691
▁ெ	-7.2453
▁டும்	-7.24785
▁ைச்ச	-7.26939
ில்ல	-7.27196
ுப்ப	-7.27469
▁!	-7.2815
▁மாக	-7.28259
▁(	-7.28351
▁பி	-7.29028
▁நிலை	-7.29479
டந்த	-7.29585
▁முடி	-7.29688
ிலைய	-7.3003
ென்ற	-7.30449
▁என்	-7.30651
▁என்ன	-7.31324
▁ேர்த	-7.31533
▁ினார்	-7.31549
▁கால	-7.33247
▁ன்ற	-7.335
▁`	-7.33515
▁ஆனால	-7.33661
▁வும்	-7.33749
▁)	-7.34181
▁ரி	-7.34546
▁ுக்க	-7.34632
▁அரசு	-7.34864
▁போது	-7.3515
▁போ	-7.35359
லைவர	-7.35641
▁ஓ	-7.35799
▁ண்ட	-7.37257
▁ேன்	-7.38104
▁பகுதி	-7.38286
த்	-7.38643
▁சில	-7.38858
▁ணி	-7.39331
▁வர்	-7.3942
டைபெ	-7.39907
▁டுக	-7.39983
▁ார	-7.40339
▁வெளி	-7.4044
▁சா	-7.41065
▁ச்ச	-7.4163
ூட்ட	-7.41901
ன்ற	-7.42138
▁ழு	-7.42347
▁ல்	-7.42381
▁ஐ	-7.42535
▁ுவ	-7.43361
▁திமுக	-7.43978
ிட	-7.44119
▁தமிழ	-7.44558
ாநில	-7.44877
ெரிய	-7.45252
▁ந்திர	-7.45696
▁ங்க	-7.46036
▁ேர	-7.46077
▁ோம்	-7.46221
▁தீ	-7.46295
▁மணி	-7.46373
தி	-7.4652
ுன்ன	-7.46837
▁ப்படி	-7.47136
▁னை	-7.47347
▁கோ	-7.47452
▁யில	-7.47732
▁ினர	-7.47836
▁ாது	-7.48012
▁சி	-7.48102
▁6	-7.48189
▁ிடம	-7.48388
▁ென்னை	-7.4858
▁யான	-7.48612
▁ிக்க	-7.48626
மான	-7.48963
ேலும	-7.50027
ெற்ற	-7.5011
▁பாஜக	-7.50265
▁ார்கள	-7.50959
ுற்ற	-7.51011
ந	-7.51203
▁பெ	-7.51964
▁7	-7.51993
▁அரச	-7.52149
▁ங்களை	-7.52332
▁வை	-7.52743
▁பொ	-7.53152
▁வரும்	-7.53164
▁நடந்த	-7.53596
▁ர்க்க	-7.53641
▁சட்ட	-7.54513
▁ின	-7.54891
▁8	-7.54964
▁வைத்த	-7.55464
▁ஷ	-7.55825
▁ுக	-7.55875
ுடிய	-7.5707
▁ண்டு	-7.57262
▁பு	-7.58156
ைப்ப	-7.58503
▁தொ	-7.58756
ெ	-7.58772
னது	-7.59567
▁வரை	-7.59856
▁ாமல்	-7.59917
▁கிடை	-7.60256
▁வே	-7.60292
▁க்கா	-7.60648
▁ழை	-7.60665
வட்ட	-7.6116
்ப	-7.61233
▁ஸ்	-7.61245
▁ல்லா	-7.61971
▁வெ	-7.62183
▁ேதி	-7.62438
▁ட்டது	-7.62939
▁வில்	-7.63267
▁தேச	-7.63536
▁நான்	-7.6391
ாக்க	-7.6413
▁ாளர	-7.64389
▁ிலும்	-7.64404
▁ற	-7.64829
ந்தி	-7.65372
க்கொ	-7.65607
▁ிறுவ	-7.65779
▁ப்பட	-7.6601
▁குழ	-7.66085
▁கே	-7.66193
▁க்கள	-7.66233
▁ாடு	-7.66236
▁தெரி	-7.66348
▁ுகள	-7.66581
▁ாத	-7.66886
▁கூட	-7.67891
▁ிட	-7.68012
▁ாட்ட	-7.68353
▁மூலம	-7.68395
▁விட	-7.6917
▁அணி	-7.69207
▁ூ	-7.69471
▁தனால்	-7.69768
ாங்க	-7.69902
▁திர	-7.70434
▁இல்லை	-7.70604
▁்கள்	-7.70961
▁ொரு	-7.71301
டி	-7.71347
▁மா	-7.7147
▁ுவிட	-7.71539
▁ரசிய	-7.71761
▁ியி	-7.71924
ிசார	-7.72155
▁தற்க	-7.7219
▁ெய்தி	-7.72605
▁தமிழக	-7.72712
விட	-7.72728
▁ில	-7.73246
ெளிய	-7.73428
▁ியது	-7.74207
▁ள்ள	-7.74517
▁முன்	-7.75307
▁தால்	-7.75597
▁குறை	-7.75711
▁ண	-7.76053
ங்கு	-7.76165
▁தே	-7.76283
▁பதி	-7.76952
ழக்க	-7.7696
ற்ச	-7.7721
▁கண்ட	-7.77301
▁டு	-7.7731
▁ள	-7.77437
▁படி	-7.78134
▁பணி	-7.78738
▁ீதி	-7.78757
▁இன்று	-7.79114
ச்	-7.79176
▁ஞ்ச	-7.79257
▁எம்	-7.79343
▁ுதல	-7.79526
▁ள்	-7.79694
▁வேலை	-7.8
▁பேர	-7.80147
▁ந்தை	-7.80227
களை	-7.80589
▁அது	-7.80927
▁ிரதம	-7.80973
▁னி	-7.81283
போ	-7.81372
ழ	-7.82315
ோன்ற	-7.8233
வடி	-7.82444
றிவி	-7.82676
ுள்ள	-7.82894
▁சு	-7.83172
▁அதன்	-7.83306
▁ைப்	-7.83809
▁பொது	-7.83993
▁பிறகு	-7.84049
▁ஜெ	-7.84199
▁யார	-7.84269
▁வழி	-7.84569
▁ாலும்	-7.84799
ீட்ட	-7.86113
டைய	-7.86308
டுகள	-7.86524
▁்ந்த	-7.86761
▁ெற்றி	-7.87001
▁ாகி	-7.87048
ின்ன	-7.87602
▁தை	-7.88107
▁மே	-7.88294
ாளர	-7.88451
வே	-7.88624
▁யாளர	-7.8873
▁சம்ப	-7.88896
▁ிறார	-7.89068
த்து	-7.89713
வும	-7.89793
▁பட	-7.89875
▁லங்கை	-7.90215
ெல்ல	-7.90563
▁ஜி	-7.90821
▁ஆட்சி	-7.92045
▁ெண்	-7.92146
▁ோவில	-7.92263
▁ர்ப்ப	-7.92301
▁யி	-7.92397
▁ஃப	-7.92442
▁ியாவ	-7.92531
▁நகர	-7.92717
▁மை	-7.93664
▁ொட	-7.93687
ேற்க	-7.94137
▁நிகழ	-7.94163
ாற்ற	-7.94866
டு	-7.94918
▁அடி	-7.95087
▁கொள்ள	-7.95146
▁ோட்டி	-7.95585
▁ுக்	-7.95676
ப்போ	-7.95814
ார	-7.95933
▁ிரஸ்	-7.96176
▁நிர்	-7.97117
▁சமூ	-7.97202
▁உல	-7.97401
▁சம	-7.98704
▁ையும்	-7.98914
▁ஆர்	-7.99398
▁வாழ	-7.99435
ண்டு	-7.99576
▁பின்	-7.9962
▁களில	-7.99995
▁செல்	-7.99996
ற்றி	-8.00357
▁யோ	-8.0043
ில்	-8.01066
▁கூறு	-8.01657
▁யல	-8.01861
▁நில	-8.02305
▁மான	-8.03003
யன்ப	-8.03126
▁தற்	-8.0377
▁லா	-8.03971
▁முதல	-8.04259
▁ுன்ப	-8.0454
▁மாத	-8.04955
ண்ண	-8.05231
ெரி	-8.05287
▁மூ	-8.05577
▁ஊ	-8.05767
▁ஒன்ற	-8.05939
▁ராம	-8.06122
▁்ற	-8.06318
▁ோயில	-8.06384
ரே	-8.06399
▁எஸ்	-8.06588
▁ிதி	-8.06678
ற்ற	-8.06685
▁போரா	-8.07195
▁ஆகிய	-8.073
▁லட்ச	-8.0794
▁பதவி	-8.08784
▁ைச்	-8.08944
▁ொ	-8.09062
▁புதிய	-8.09259
▁உருவ	-8.09383
▁பிடி	-8.09558
▁த்துவ	-8.09906
னால்	-8.10039
ுடும	-8.10058
▁லை	-8.10454
ோ	-8.1123
▁ாஜ	-8.11232
▁மரு	-8.1167
ந்ந	-8.11753
▁லாம்	-8.11794
▁கா	-8.11911
▁மருத	-8.12018
▁செய்	-8.12162
▁மும்	-8.12187
ின்	-8.12595
ூட	-8.13085
▁ரோ	-8.1324
▁களில்	-8.13447
▁காவல்	-8.13588
▁மாணவ	-8.13697
▁யா	-8.13748
▁ிர	-8.13792
▁தலைமை	-8.14217
▁நிறை	-8.14249
பாக	-8.14349
▁	-8.14631
▁சொல்	-8.14735
ொல்ல	-8.15092
▁மு	-8.15108
கைய	-8.15317
▁வாங்க	-8.15352
▁வருவ	-8.15389
▁தா	-8.15421
▁இதில்	-8.15683
▁கிர	-8.15889
▁பூ	-8.15993
▁ேற்று	-8.16246
▁விழா	-8.1668
வேறு	-8.16757
▁ாங்க	-8.16834
▁லி	-8.17017
தற்க	-8.17179
▁அதே	-8.17435
▁நீ	-8.17655
▁தேவை	-8.18004
ூர	-8.18077
ம்ப	-8.18112
▁ல்லது	-8.18149
▁டா	-8.18233
▁வார	-8.18461
▁யே	-8.18724
▁ாட்சி	-8.19231
▁பள்ளி	-8.19297
பத்த	-8.19508
▁ேற்ற	-8.1993
▁எண்ண	-8.20041
ீண்ட	-8.20128
▁ப்படை	-8.20318
▁விடு	-8.20333
▁ாள்	-8.20353
▁மீத	-8.20457
▁ிலைய	-8.20484
▁ரூ	-8.20735
▁பேர்	-8.20741
ுழுவ	-8.20849
▁ிறந்த	-8.20974
▁போல	-8.2133
▁ால	-8.21355
▁ைக்	-8.21381
▁தர	-8.21395
▁தெ	-8.21559
▁மிக	-8.21672
▁ஸ்டா	-8.22067
▁ுகிற	-8.22451
▁ிலி	-8.22718
தை	-8.22772
▁ாதார	-8.22843
▁ரிகள	-8.23064
▁ுவத	-8.23246
▁லாம	-8.23344
▁தலை	-8.24163
▁தின	-8.24346
▁ெயல	-8.24683
▁யும	-8.24902
▁இரு	-8.24947
▁பங்க	-8.25559
▁பாட	-8.26014
▁நாள்	-8.26047
ண்ட	-8.26051
▁கார	-8.26103
▁ஈடுப	-8.26515
▁ேள்வி	-8.26894
ொருள	-8.2711
ொடு	-8.27111
▁பெற	-8.27131
▁ோர	-8.27138
▁ாப்பு	-8.27429
▁மலை	-8.27695
▁னக்கு	-8.27829
க்தர	-8.28182
▁்கெட்	-8.28227
▁ந்து	-8.28265
ாதுக	-8.28308
தில்	-8.28353
ேட்ட	-8.28381
▁வீ	-8.28388
ொழில	-8.28411
ைக்க	-8.28499
▁ிக்	-8.28619
▁ில்லை	-8.28833
▁இப்போ	-8.28882
▁மெ	-8.29677
▁அறி	-8.302
▁துவ	-8.30222
ரா	-8.30397
▁ுய	-8.31051
ின	-8.31602
▁ரூபா	-8.31734
லந்த	-8.31851
▁தன்	-8.31901
▁லு	-8.32004
▁வளர	-8.32202
▁ஒப்ப	-8.32539
▁றி	-8.32786
▁ட்சி	-8.32802
▁கிரா	-8.32831
▁ைத்	-8.33005
▁ண்ண	-8.33243
▁சீ	-8.3332
▁ாவ	-8.3384
▁ிவக	-8.34051
▁நினை	-8.34166
▁;	-8.3452
▁ர்கள	-8.34742
▁ஆண்ட	-8.34742
▁ினர்	-8.34754
▁குடி	-8.35347
▁குமார	-8.35637
▁ும்போ	-8.35789
▁ன்னு	-8.35877
▁ஆக	-8.35991
▁சிறு	-8.36175
ட்	-8.36454
▁எட	-8.36497
▁ுவது	-8.36607
▁கோடி	-8.36747
▁்பாடி	-8.36861
▁ப்பு	-8.36963
ட்கள	-8.37046
▁மறு	-8.37125
▁ோடி	-8.37189
▁கைது	-8.3726
▁வது	-8.37711
▁கூறி	-8.3776
▁எல்	-8.37779
▁கண	-8.38653
ரவ	-8.38998
▁னுமதி	-8.39005
▁விரு	-8.39163
▁மைய	-8.39305
தனை	-8.40189
▁ோடு	-8.40357
▁ோட்ட	-8.40407
▁ுறை	-8.40646
ரப்ப	-8.4084
▁ையில்	-8.40857
▁ரா	-8.40876
▁ிரும	-8.40906
▁ிற்க	-8.40963
▁ாம்	-8.41028
▁ுடிவு	-8.4103
▁ட்	-8.41187
▁ாய்	-8.41242
யக்க	-8.41336
ிகார	-8.41551
▁ூர	-8.42115
▁பிரச	-8.42965
தன்	-8.43231
▁ாந்தி	-8.43281
▁வும	-8.43723
▁நிறு	-8.44174
▁நா	-8.44346
▁ியா	-8.44352
▁உதவி	-8.44806
▁ஸ்ட	-8.44885
▁ின்ற	-8.44983
▁ான்	-8.45022
ையில	-8.45288
▁ச்சா	-8.45523
▁ஏற்ற	-8.45739
▁உயர	-8.45811
▁பெண்	-8.45913
▁மாதம்	-8.4634
▁ொத்த	-8.46468
▁பெரும	-8.46549
▁பால	-8.4678
▁மாற	-8.47602
▁ராஜ	-8.47613
ழக	-8.47802
▁ழக்கு	-8.47951
▁பெயர	-8.48069
▁ரியா	-8.48304
▁ஜனா	-8.48398
னி	-8.48423
▁ழி	-8.4876
▁அதிர	-8.48816
▁அளவ	-8.49083
▁நாம்	-8.49135
ுத்த	-8.49339
▁ாக்கு	-8.49498
ீர	-8.49868
▁கல்வி	-8.49926
▁டுவ	-8.50038
ுகார	-8.504
▁்நாடு	-8.50875
▁வாக	-8.50999
▁யுடன்	-8.51321
ல்ல	-8.51378
▁வின்	-8.51561
▁ூர்	-8.51804
▁சிக	-8.51871
▁ரோனா	-8.52316
▁ராணு	-8.52364
▁தோ	-8.53239
▁வற்ற	-8.53259
றி	-8.53369
ர்வ	-8.53847
▁தூ	-8.53849
▁ஸ்ரே	-8.53887
▁ம்ப	-8.54471
▁ஸ்ரீ	-8.54639
▁ண்டா	-8.5475
▁தகவல	-8.54917
▁ங்கி	-8.55468
▁ங்கள்	-8.55529
▁்தான	-8.55911
ல்	-8.55958
▁மழை	-8.55988
▁ல்ல	-8.56583
▁ஆதரவ	-8.56811
▁ஈ	-8.56867
▁நேர	-8.56907
மன	-8.57144
▁டன	-8.57289
ொ	-8.57436
▁ிரதே	-8.57806
▁தகவல்	-8.57892
▁பதிவு	-8.58296
▁மின்	-8.5833
றப்ப	-8.58522
▁மேல	-8.5859
▁முக	-8.58776
▁தாவது	-8.58827
ருவர	-8.5885
▁திராக	-8.58927
▁ற்கா	-8.59095
▁ழக்க	-8.59186
▁ஒவ்வ	-8.59317
▁விலை	-8.59627
▁ாமி	-8.59705
▁மகா	-8.59782
▁ாக்க	-8.59927
னைவர	-8.59954
▁தற்ப	-8.6002
▁காரண	-8.6014
▁தும	-8.60254
▁தீர்	-8.60317
▁இதை	-8.60382
▁ாவத	-8.60411
▁பூஜை	-8.60546
▁உணவு	-8.60567
▁ஜா	-8.60932
▁குழு	-8.61058
▁ிங்	-8.61217
▁காண	-8.61564
▁றை	-8.61588
▁புரி	-8.61603
▁உறுதி	-8.61882
▁வ்வா	-8.62232
▁ூன்ற	-8.62712
▁விஷய	-8.62749
▁மைக்க	-8.62858
▁ிச்சை	-8.62927
▁தயார	-8.63006
ரண்ட	-8.63083
▁ஆய்வு	-8.63204
▁முழு	-8.63212
▁ழ	-8.63231
▁சொ	-8.634
ியோர	-8.63459
▁ூல	-8.63751
▁ரஷ்யா	-8.64009
▁டந்து	-8.64055
▁ாரா	-8.64078
ற்ப	-8.64468
விர	-8.65044
▁உயர்	-8.65147
ளுநர	-8.65224
▁போல்	-8.65526
▁நெ	-8.65532
▁ஏற்க	-8.6566
▁ச்னை	-8.65849
▁விதி	-8.65939
▁ேஷ்	-8.66259
ஜ	-8.6638
ாரணம	-8.66657
ன்ன	-8.66867
▁ஸ்ட்	-8.66934
ன்	-8.67029
▁ீர்	-8.67394
▁உரிமை	-8.67552
▁தங்க	-8.67681
▁்த்தி	-8.67801
▁பே	-8.67846
க்கு	-8.68001
▁ெரும்	-8.6802
▁ுமார	-8.68127
▁ிடம்	-8.68255
▁துணை	-8.68432
▁ாளை	-8.68479
▁யால்	-8.68493
▁தடை	-8.68522
▁ப்பி	-8.68752
▁இல்ல	-8.68758
▁ாரணம்	-8.68869
▁ராகு	-8.6888
▁னா	-8.69166
▁ாண்ட	-8.69562
▁ீடியோ	-8.69593
▁ொகுதி	-8.69686
▁ரே	-8.69989
▁ட்ச	-8.70047
▁்ந	-8.70188
▁சீனா	-8.70577
முற	-8.70649
▁மகன	-8.70854
ார்ப	-8.70931
▁ழனி	-8.70976
▁10	-8.71461
▁னு	-8.71938
▁சிலர	-8.72059
ோரி	-8.7229
▁வீரர	-8.72294
▁ுமா	-8.7247
▁ீடு	-8.72521
▁க்காக	-8.73011
▁கொலை	-8.73114
▁ுகள்	-8.73284
▁குதி	-8.73403
▁ளையா	-8.73512
▁ேர்வு	-8.73542
ப்பட	-8.73582
▁்பு	-8.73606
ரவு	-8.73919
▁வயத	-8.74214
▁ம்பர	-8.74248
▁ிகள	-8.7438
ென	-8.74439
▁வேறு	-8.74475
▁திகர	-8.74498
▁வகை	-8.74595
▁நிதி	-8.74634
▁ாய	-8.74811
ைச்ச	-8.74817
▁மன	-8.74874
ிரும	-8.74995
▁ரிச	-8.75098
▁ட்டி	-8.7546
த்தி	-8.75469
▁ரங்க	-8.75692
ஷ	-8.76065
▁மனைவி	-8.76267
▁ாகும்	-8.76322
▁ாண	-8.76932
▁ட்டா	-8.76992
திபர	-8.77246
▁உள்	-8.77266
▁ாடி	-8.77389
▁ிக்கை	-8.77408
▁சரி	-8.77411
▁உள்ளன	-8.77458
▁ொண்ட	-8.77629
▁கீழ்	-8.77875
▁இவர்	-8.77903
ேட்ப	-8.77963
▁பரவ	-8.7799
▁போலீ	-8.78148
▁ர்ம	-8.78164
னித	-8.78175
ைத்	-8.78225
ரியர	-8.7832
தில	-8.78484
▁ிலை	-8.7849
▁லுவல	-8.78595
ோலீஸ	-8.78687
▁தும்	-8.78759
ொன்ன	-8.7885
ேயே	-8.78938
▁ுவாமி	-8.79018
▁ுதல்	-8.79077
▁மோச	-8.79209
▁ிகவ	-8.79354
▁யிரி	-8.79407
▁மாலை	-8.79444
▁ண்ட்	-8.79485
▁ஏன்	-8.79537
டுமை	-8.79592
▁சோ	-8.79609
▁ஒன்று	-8.79755
▁குரு	-8.79794
▁னியா	-8.79986
▁ீட்ட	-8.80174
▁உயிர	-8.80291
ஷேக	-8.80656
▁நாடா	-8.80791
▁கேட்	-8.80851
▁தன்ன	-8.80863
▁ாம	-8.8126
▁போக	-8.81547
கிஸ	-8.81728
▁மட்ட	-8.82195
▁வருட	-8.82352
▁த்தது	-8.82426
▁வேக	-8.82477
▁மிழ்	-8.82506
▁டெ	-8.8252
▁நம்	-8.82583
▁ாதுக	-8.82625
▁வங்கி	-8.82663
▁ெருக	-8.82665
▁உத்த	-8.82681
▁யினர	-8.82708
▁நம்பி	-8.82884
ீட	-8.83258
▁ைய	-8.83319
▁ப்பா	-8.83742
▁மேல்	-8.83926
▁ற்றது	-8.84058
▁டிக்க	-8.84077
பான	-8.84152
ணிகள	-8.84564
▁துவரை	-8.84679
▁தொழ	-8.84932
தா	-8.8512
▁தேவ	-8.85219
▁ுத்த	-8.85264
▁ிரு	-8.85357
▁இளைஞ	-8.85401
▁சூ	-8.85414
தையட	-8.85705
▁சிங்	-8.85972
▁சேவை	-8.86066
▁இதன	-8.86145
▁சாலை	-8.86179
▁வு	-8.86234
▁இடையே	-8.86363
▁ம்பர்	-8.86655
▁ஆணை	-8.86677
வாத	-8.86747
▁ிஸ	-8.86776
▁மதுரை	-8.86992
▁கொள்	-8.87144
பிஎஸ	-8.87538
▁உடன	-8.87619
▁நல்ல	-8.87671
▁்க்கை	-8.87781
▁எழுத	-8.87868
▁உடல	-8.87906
▁கிரி	-8.87925
▁டிய	-8.87953
▁அறிவ	-8.88108
▁ுரை	-8.88342
▁இணைய	-8.88432
▁ரண	-8.88585
▁மாணவி	-8.88716
வரை	-8.88806
▁நாள	-8.88954
ண்ணா	-8.89038
டையே	-8.89049
▁விரை	-8.89055
▁பக்க	-8.8915
▁ராசி	-8.89237
▁இறுதி	-8.89588
▁நாத	-8.89601
ன்கள	-8.89625
ிக்க	-8.89767
ரிய	-8.90255
▁ன்னி	-8.90557
▁ொள்ள	-8.90648
்கிற	-8.90655
▁லங்க	-8.90666
▁ுச்	-8.90672
மர்ச	-8.90919
▁இடை	-8.91002
▁தனி	-8.9153
▁உடல்	-8.91683
▁றும்	-8.9188
▁ேஷ	-8.91948
▁செயல	-8.92097
▁காத	-8.92127
▁ொழி	-8.92449
▁ரிய	-8.9265
▁ச்சு	-8.92688
▁ஊட	-8.92873
ரி	-8.92951
▁ாலா	-8.93236
▁ன்ஸ	-8.93255
▁போன	-8.93338
▁ாளி	-8.93614
▁ுடன	-8.93615
▁யூ	-8.93759
▁ியிட	-8.93825
▁ச்சி	-8.9391
▁சிறை	-8.94015
ைந்த	-8.94132
▁்த்தை	-8.94248
▁ச்சர	-8.95098
▁ிக	-8.95325
▁்ப்பு	-8.95747
▁ராஜ்	-8.95902
▁ீதிப	-8.95938
▁ாச	-8.95949
▁ென	-8.96101
லாற	-8.96148
▁ஞ்சா	-8.9644
▁ினும	-8.96524
ம்மன	-8.96527
கு	-8.96627
▁வித	-8.96712
ல்லூ	-8.97048
▁யங்க	-8.97213
மை	-8.97278
▁பட்ட	-8.97312
▁உட்ப	-8.97391
▁எனக்	-8.97561
▁தவற	-8.9775
▁ரை	-8.97777
▁ிபிசி	-8.97823
▁நபர	-8.97903
▁ன்று	-8.98035
▁ஆயிர	-8.98333
ேற்ப	-8.98334
ற்றம	-8.98419
▁ளை	-8.98571
ப்பா	-8.98579
▁ன்மை	-8.98587
▁அருக	-8.98823
▁பரபர	-8.98847
▁டக்க	-8.98879
▁ஞா	-8.98884
▁அமர	-8.9921
▁பணம்	-8.99435
▁குள	-8.99571
▁சாமி	-8.99779
▁கடை	-8.99903
ாட்ச	-8.99949
▁வயது	-8.99958
▁வீச	-9.006
▁கர	-9.0072
▁ஷ்	-9.00771
வளவ	-9.00876
▁கட	-9.00897
▁கல	-9.00985
▁நியம	-9.01103
▁பிரி	-9.01163
▁ுப்ப	-9.01269
▁ஷ்ட	-9.01305
▁சுத	-9.01429
▁ொருள்	-9.01604
▁ாளர்	-9.01722
ென்	-9.01737
▁ர்வ	-9.01919
ிள	-9.02293
▁சத	-9.02672
▁க்ரை	-9.02672
▁ுமாறு	-9.02724
▁போர்	-9.03269
▁சக்தி	-9.03531
▁ஓர	-9.03657
▁ல்கல	-9.0368
▁ுவிழா	-9.03786
▁வங்க	-9.03873
▁சமீ	-9.03881
▁ிங்க	-9.04201
▁ற்றி	-9.04422
▁நடி	-9.04559
▁ரசிக	-9.04666
▁துவர	-9.04875
▁உண்மை	-9.04961
▁ுங்க	-9.0527
▁ரயில்	-9.05307
▁ளியே	-9.05312
▁ானது	-9.05411
▁பிள	-9.05848
▁கவன	-9.06067
பிடி	-9.06454
▁ருவ	-9.06507
▁ொட்ட	-9.06705
▁உணர	-9.06966
▁திற	-9.07208
▁ன்ன	-9.07317
▁ட்டை	-9.07377
▁ரீதி	-9.07491
▁ற்பனை	-9.07895
▁ருமா	-9.08036
▁நம்ப	-9.0805
▁மோத	-9.0806
▁ஆரா	-9.08064
▁ஊர	-9.08066
▁கார்	-9.08485
▁ௌ	-9.08504
▁ுப்	-9.08576
▁ன்ப	-9.08637
.	-9.08848
▁லர	-9.08861
▁வாத	-9.08886
▁ரெ	-9.08902
▁களும்	-9.08938
▁ோதி	-9.08971
▁யிடம	-9.08984
▁மத	-9.09017
▁யு	-9.09389
ருத	-9.09662
ன்ப	-9.09774
▁கரு	-9.09775
▁ண்டி	-9.09942
▁ுதான்	-9.09957
கழ்வ	-9.10094
▁வலிய	-9.10168
▁ிரிவு	-9.10456
▁போட	-9.10509
▁விக	-9.10602
▁இடம்	-9.11038
▁ரையா	-9.11056
▁ிஷ	-9.11076
▁ிழமை	-9.11131
▁யிலி	-9.1119
▁ஸ்தா	-9.112
▁ன்றி	-9.11333
▁றிய	-9.11455
▁இணை	-9.11522
▁பதிவ	-9.11775
ீவிர	-9.11788
▁ெல்	-9.11816
ரம	-9.12049
தே	-9.12102
▁வசதி	-9.12174
▁ோக்கு	-9.12178
▁கடன்	-9.12207
▁ட்வ	-9.12406
▁சோதனை	-9.12634
▁குர	-9.12655
▁க்கி	-9.1268
▁ப்பத	-9.12741
▁இல்	-9.12742
▁பகிர	-9.13107
▁தந்தை	-9.13191
▁கண்க	-9.13388
▁பீ	-9.13713
▁மகிழ	-9.14246
▁வரவ	-9.14293
▁ப்பை	-9.14699
▁ண்மை	-9.14784
▁ரத்த	-9.14871
ள்ள	-9.14921
▁மாந	-9.1511
▁அன்று	-9.15279
▁தொகை	-9.15483
▁ன்னா	-9.15722
▁துர	-9.15905
தான	-9.16001
▁நீண்ட	-9.16067
ிரிவ	-9.16278
,	-9.16356
▁காய	-9.16498
ப்பி	-9.16528
▁வரி	-9.16562
▁க்கது	-9.16673
▁ருங்க	-9.16865
▁ாதிரி	-9.16963
▁இந்து	-9.17077
▁கடைசி	-9.17103
▁அங்க	-9.17162
▁சை	-9.17214
▁லியல	-9.17552
▁தேட	-9.1767
▁ற்ப	-9.17774
▁புரம்	-9.17821
▁்யா	-9.17919
▁கன	-9.17936
▁டப்ப	-9.18113
▁வச	-9.18318
▁லே	-9.18375
▁ப்போ	-9.18561
▁ியல	-9.18578
ுஷ	-9.18865
▁்கடி	-9.19
ளவில	-9.1906
▁ினால	-9.19079
▁ஊழிய	-9.1912
▁ேயே	-9.1914
ைப்	-9.19199
▁ேற்ப	-9.19292
▁கை	-9.19396
▁ட்டோ	-9.19485
▁ுழு	-9.19536
▁வெடி	-9.19722
▁ன்ம	-9.19742
▁ெயர்	-9.19801
▁நுட	-9.19843
▁கவனம	-9.19856
▁முத	-9.20007
▁யிலா	-9.2007
ுண்ட	-9.20171
▁டிர	-9.20244
டும்	-9.20247
▁்ட்	-9.20269
ேச்ச	-9.20493
▁ஆச	-9.20615
▁ங்கல	-9.20634
▁பண	-9.20665
▁ொள்கை	-9.20812
▁ாதனை	-9.21068
▁புகை	-9.21162
▁சித	-9.21231
ிவசா	-9.21306
▁்பி	-9.21384
▁மது	-9.21432
▁யர்	-9.21464
▁ாத்தி	-9.21469
▁நண்ப	-9.2212
▁சங்க	-9.22159
▁வசி	-9.22168
▁பயணம்	-9.22593
வ்வ	-9.22601
▁சபை	-9.22615
▁ியன	-9.22643
▁ங்கா	-9.22664
▁ோட	-9.22694
▁றுதி	-9.22858
▁ஆன	-9.22923
▁அக்	-9.23011
▁செய்க	-9.2312
▁தைய	-9.23314
▁ஆய்வ	-9.23456
▁ள்ளி	-9.23482
▁ூட்ட	-9.23489
▁வீர	-9.23531
▁ிறோம்	-9.23561
▁கோவை	-9.23562
த்தை	-9.23706
▁சூழல	-9.23729
றந்த	-9.23744
பா	-9.2375
▁விந	-9.24129
▁தான	-9.24229
▁ோய்	-9.24456
கால	-9.24557
▁ரான்	-9.24579
குற	-9.24594
▁ேத	-9.24706
▁ஸ்வ	-9.24915
ழை	-9.25034
▁லோசனை	-9.25123
▁வீடு	-9.25312
▁20	-9.25545
ளை	-9.25819
▁ோக்கி	-9.25941
டித	-9.26029
▁போர	-9.26201
▁பாரா	-9.26271
▁ரிவ	-9.26304
▁டைய	-9.26463
▁ரவி	-9.26532
ோக	-9.26824
▁ிச்ச	-9.2699
▁ியோ	-9.2706
கித	-9.27134
▁ூடாது	-9.27323
▁ருகி	-9.27347
▁ந்த்	-9.2744
▁ெளியே	-9.28058
ம்பி	-9.28097
▁மொ	-9.28118
▁ெல்ல	-9.28146
▁ும்பை	-9.28261
ோத	-9.28373
▁ற்றோ	-9.28527
i	-9.28541
வீத	-9.2864
▁அம்மா	-9.28831
ட்ச	-9.28862
▁குஜ	-9.28912
▁லைமை	-9.28964
▁ண்கள	-9.29071
ஸ்	-9.29196
▁ேற்க	-9.29251
ோடு	-9.29255
வற்ற	-9.29379
▁ிக்கா	-9.29401
ையாள	-9.29641
ேம்ப	-9.2971
▁்திரை	-9.29728
▁க்ஸ	-9.29763
டற்	-9.29818
▁ிப்பு	-9.2989
▁யற்க	-9.30081
▁டோ	-9.30208
▁ுன்ன	-9.30308
▁போத	-9.3039
▁பணிய	-9.30552
▁மோ	-9.30707
▁வுன	-9.30732
▁டங்கி	-9.30821
▁பார	-9.30977
▁ாள	-9.31085
ின்ற	-9.31143
▁அப்ப	-9.312
▁ண்டை	-9.31207
▁த்தீ	-9.31227
▁்குழு	-9.31253
▁ணு	-9.3129
▁ார்வை	-9.31393
சாய	-9.31396
▁பாடு	-9.31517
▁வேல	-9.31534
ாரண	-9.31658
▁எல்லை	-9.31757
▁ிவா	-9.31849
▁படம்	-9.31857
▁ாப்	-9.31946
ாதா	-9.32034
▁ந்தே	-9.32163
▁கலா	-9.323
▁கரி	-9.32343
ீ	-9.32435
▁ேச	-9.32442
▁ஏராள	-9.32462
▁பகவ	-9.32527
▁னவர	-9.32565
▁ற்று	-9.32644
▁ாட்டு	-9.32936
ஸ	-9.32987
▁ஆதரவு	-9.33043
▁ோர்	-9.33122
▁விஜய	-9.33244
▁பால்	-9.33521
▁த்தனை	-9.33541
▁ோலீஸ்	-9.33587
மத	-9.33826
▁லரும	-9.33874
▁மண்ட	-9.34114
▁ஃப்	-9.34229
ையை	-9.34327
▁விளை	-9.34518
▁ேற	-9.3486
▁ட்டர்	-9.34862
▁யம	-9.34873
றை	-9.35082
ம்பெ	-9.35096
▁யின	-9.35386
▁னம்	-9.35414
▁ளவ	-9.35436
▁நீர	-9.35622
▁அல்ல	-9.35846
▁இல	-9.35915
டுதல	-9.36019
▁ரியாக	-9.3605
▁ாட்	-9.36115
▁சன்	-9.36131
▁போய்	-9.36132
▁ஷ்டி	-9.36163
▁செயல்	-9.3701
▁பிற	-9.37245
ன்னை	-9.37279
▁அவை	-9.37456
▁ினி	-9.37478
▁சிய	-9.37539
▁உறவ	-9.37572
▁யிட	-9.3783
▁உதவ	-9.37972
▁ிம்	-9.3798
▁ஓட	-9.38065
▁வலி	-9.3817
▁ஸ்வர	-9.38271
ெண்ண	-9.38351
▁நி	-9.38367
கிற	-9.38811
▁்தான்	-9.38884
▁ிஸ்	-9.39159
▁ட்டர	-9.39256
▁ையும	-9.39407
▁வாச	-9.39532
t	-9.39631
பட	-9.39646
▁்சினை	-9.39811
▁வாழ்	-9.40093
▁காலம்	-9.40178
மாக	-9.40301
▁ுலா	-9.40305
▁சபா	-9.40361
▁ோல்வி	-9.40371
▁யர	-9.40384
▁கதை	-9.40429
▁கிறது	-9.40553
▁ம்ம	-9.40757
e	-9.40774
a	-9.40776
▁கூ	-9.40812
▁அனுப	-9.40814
▁ளவில	-9.4117
▁கு	-9.41171
▁சூழ	-9.41172
▁மனு	-9.41339
▁பிரப	-9.41355
▁ல்லி	-9.41362
▁டீ	-9.41592
▁யண	-9.41602
▁ர்செ	-9.41703
▁ேம	-9.4178
▁ோட்டை	-9.41835
▁றிமு	-9.41884
ல்லா	-9.41896
▁15	-9.41906
▁்டு	-9.41997
▁s	-9.42156
▁ஆயு	-9.42418
▁யாத	-9.42427
▁ஜோ	-9.42563
▁ாமல	-9.42657
▁கரை	-9.42709
▁டே	-9.42795
▁லய	-9.42806
▁த்தகை	-9.42837
▁சாதி	-9.42938
▁ளம்	-9.43054
▁12	-9.43096
▁ரல்	-9.43096
▁வேள	-9.43126
▁ண்டனை	-9.43191
▁லோ	-9.43373
▁கிலோ	-9.43425
▁ெல	-9.43457
▁டங்க	-9.43485
▁டெல்	-9.4363
▁உறவு	-9.43658
▁ுமதி	-9.43746
▁ன்றை	-9.43769
▁கம்	-9.43905
s	-9.43974
▁தெளி	-9.44
▁சூரிய	-9.44119
▁ிறேன்	-9.44196
▁ுடி	-9.44233
▁டன்	-9.44408
▁ர்மா	-9.44509
▁தவி	-9.4453
▁யன்	-9.44541
▁ஓய்	-9.4459
▁ங்கு	-9.446
▁ிருது	-9.44653
▁ளா	-9.44666
▁கான்	-9.44905
▁ெய்	-9.45148
▁ோப்பை	-9.45203
▁ஞ்சி	-9.45235
▁ேட்டை	-9.4526
▁ஏழ	-9.45326
▁விஜய்	-9.45354
▁பொறு	-9.45382
▁ஜே	-9.45539
▁ுபவர	-9.45644
்கு	-9.45667
▁ந்தது	-9.45732
▁நாயக	-9.45983
▁ஸ்த	-9.46058
▁ோன	-9.46252
▁நிர	-9.46291
▁கோப	-9.46418
▁ரேலி	-9.46537
▁ஆள	-9.46555
▁கில்	-9.46682
ூச	-9.46901
▁அமைதி	-9.46951
▁செலவு	-9.46966
▁புற	-9.47208
▁ினை	-9.47262
▁பங்கு	-9.47302
▁கீழ	-9.47394
▁சிங்க	-9.4756
▁ிறுமி	-9.47754
ெள்ள	-9.47838
▁முஸ்	-9.48015
▁வலைத	-9.48047
▁அங்கி	-9.48065
▁கலை	-9.48236
▁தாய்	-9.48257
▁ிப்ப	-9.48347
▁ற்ச	-9.48364
▁பொரு	-9.4849
▁காம	-9.48575
▁ரஷ்ய	-9.48713
ரிசன	-9.48742
▁ம்பா	-9.48817
▁த்தா	-9.49393
▁அப்பா	-9.49476
நகர	-9.49582
▁ுந்த	-9.49622
ருகன	-9.49644
▁ரன்	-9.49691
▁றிஞர	-9.49737
▁ிலைமை	-9.49916
ாலும	-9.4994
▁ஜூன	-9.49941
▁டிவி	-9.49951
▁கொள்க	-9.50028
▁எல்ல	-9.50097
▁ீட்டு	-9.50289
▁ிசு	-9.50291
ோக்க	-9.50314
▁ராஜா	-9.50386
▁ோலி	-9.50394
▁ாஷ்	-9.50486
▁தில்	-9.5061
▁ிள	-9.50664
▁ேக்	-9.50671
▁கோர	-9.50844
▁ளவு	-9.50919
▁வட	-9.50947
▁ுதலை	-9.50977
▁கொடி	-9.50979
▁மி	-9.50982
▁பாதை	-9.50988
▁ரயில	-9.5099
ீழ	-9.51048
▁வியா	-9.51155
▁விரி	-9.5124
▁ரத்து	-9.51389
▁திரை	-9.51394
▁ிக்கி	-9.51659
▁யரசு	-9.51694
▁குல	-9.51776
▁ரம்ப	-9.51841
▁ெட்டி	-9.51895
▁சேகர	-9.51907
றங்க	-9.51941
▁ெட்	-9.52053
▁ுற	-9.52239
▁விள	-9.52369
▁சிகலா	-9.52511
▁்றால்	-9.52514
▁சனி	-9.52584
▁ஜூல	-9.52733
▁ிரி	-9.52736
▁்டார்	-9.5292
▁பூர்	-9.52925
▁ெரிய	-9.52956
▁செலவ	-9.52966
▁ச்சனை	-9.53043
▁ஆறு	-9.53049
▁றங்க	-9.53117
▁ாணி	-9.53183
கோத	-9.53245
▁தள	-9.53318
▁உணவ	-9.53347
▁புர	-9.53366
▁கழ	-9.53471
▁னால	-9.53541
▁இவர	-9.53659
▁ெக்	-9.53716
சியம	-9.53853
ரண	-9.53935
▁்ஜ	-9.54063
▁ாக்கி	-9.54243
▁ிள்ளை	-9.54312
▁ுமே	-9.54326
▁க்டர்	-9.54378
▁புத	-9.54497
▁ுகை	-9.54558
▁ேச்சு	-9.54573
▁ிமுக	-9.54653
ுற	-9.5477
ுடன்	-9.54825
▁வன்	-9.54842
▁ியதா	-9.55031
▁கவலை	-9.55173
▁்ஸ்	-9.55211
ார்	-9.55235
ூன்ற	-9.55254
▁ாலை	-9.55277
▁பேரா	-9.55282
▁30	-9.55634
▁படை	-9.5578
▁உத	-9.5586
▁நாத்	-9.55894
▁பேட்	-9.55907
▁ம்பி	-9.55989
▁்கிர	-9.55991
▁க்கொ	-9.56021
▁கொட	-9.56177
ேற்ற	-9.56213
▁மீன	-9.56257
▁பெரு	-9.56552
▁ுநர	-9.56588
▁ைத்த	-9.56747
▁மச	-9.56838
▁ருணா	-9.57147
ரம்ப	-9.57223
▁நோ	-9.5726
▁ராஜப	-9.5727
▁ுத்	-9.57313
▁கன்	-9.5736
▁்பெ	-9.57404
▁ொடர்	-9.57411
டுக	-9.57439
▁50	-9.57441
▁உடை	-9.57459
▁ன்ச	-9.57472
▁லலிதா	-9.57477
வாக	-9.57547
போல	-9.57565
▁விண்	-9.57572
▁ங்கை	-9.57623
▁சந்தை	-9.57799
▁ுவார	-9.57992
▁ாஸ	-9.58234
▁/	-9.58369
▁கேப்	-9.5851
▁ந்தர	-9.58934
▁டீர	-9.59049
▁ழிவ	-9.59131
▁விதம	-9.59161
ியூ	-9.59251
▁ீவி	-9.59353
▁ண்டர	-9.5936
▁ட்பு	-9.59384
ளக்க	-9.5951
▁மாறி	-9.59592
ஸ்தி	-9.59779
▁கதி	-9.59782
ுவி	-9.59829
▁ராத	-9.60063
▁ீட்	-9.60116
▁இழ	-9.60123
▁டிகர்	-9.60185
புண	-9.60269
மது	-9.60523
▁கௌ	-9.6056
▁ாந்த	-9.6057
▁11	-9.60605
▁ாற்று	-9.60687
ழி	-9.60696
▁ல்யா	-9.60793
▁யிற	-9.61053
▁சீன	-9.61105
▁ுறவு	-9.61161
▁ருள	-9.6139
▁ரண்ட	-9.61395
▁ன்ட	-9.61407
▁ிதா	-9.61411
▁னோ	-9.61502
▁ியாக	-9.61657
▁ித்	-9.6188
▁வரிசை	-9.61905
▁ிஜ	-9.62245
▁ரக	-9.6229
▁டிங்	-9.62385
▁ல்வ	-9.62404
▁ஆகும்	-9.62626
ஸ்வர	-9.62763
▁பழ	-9.62835
▁ஆப	-9.62867
ிலும	-9.62891
▁ிர்	-9.62909
▁சர்	-9.63202
▁ென்	-9.6333
▁டாக	-9.63521
சப	-9.63548
▁ஹோ	-9.63623
▁வாள	-9.63725
▁ருமை	-9.63886
▁ியல்	-9.64149
▁உட்	-9.64243
▁வில	-9.64306
▁ரப்பு	-9.64363
ீதி	-9.64367
▁ளு	-9.64369
வண	-9.64374
▁ெள்ளி	-9.64383
▁ட்ர	-9.64396
▁ஷன	-9.64646
▁ிற்ப	-9.64652
▁பெறு	-9.64669
வங்க	-9.64721
▁ேர்வ	-9.64886
▁்புக	-9.64936
▁யானை	-9.64959
வுகள	-9.65166
▁னநாய	-9.65199
ால	-9.65211
▁ரவை	-9.65228
▁ினார	-9.65261
▁அவச	-9.65312
▁குண	-9.65348
▁ளக்க	-9.6535
▁க்கர	-9.65406
▁நாட	-9.65427
00	-9.65477
▁ணக்க	-9.65711
▁ுத்தி	-9.65711
▁ிலும	-9.65713
கி	-9.65737
▁்றில்	-9.65755
▁குற	-9.65906
▁ணிகள	-9.66127
▁பயன	-9.66173
▁ிரிகை	-9.66538
▁ராக	-9.66695
▁ாண்டு	-9.6685
▁ொல	-9.67017
ார்க	-9.67275
▁ாளில்	-9.67612
களில	-9.67656
▁ட்ரோ	-9.67685
ஸ்லா	-9.67738
▁ுநர்	-9.67751
▁ழியா	-9.67811
▁அருள்	-9.67829
▁ல்ப	-9.67999
▁்ஷ	-9.68023
▁ிரம	-9.6804
▁லன்	-9.6829
வில்	-9.68389
▁டுமை	-9.68599
▁்ரா	-9.68641
▁ேட்டி	-9.68709
▁ேஸ்	-9.68764
▁கழக	-9.68806
▁இன்	-9.68851
▁மூர	-9.68924
▁‛	-9.69123
▁ோய	-9.69141
▁நகர்	-9.69528
▁ேய	-9.69601
▁ழும	-9.69704
▁வடி	-9.69795
▁லம்	-9.69938
▁ன்ஸ்	-9.69963
▁விஷ	-9.70058
▁நீதி	-9.70133
▁அளவு	-9.70288
▁சுப	-9.70448
▁்ண	-9.7045
▁மஹ	-9.7054
▁தொடர்	-9.70631
▁ிரா	-9.70637
▁ிசை	-9.70715
▁புறம	-9.70743
▁ுள்ளி	-9.70835
▁ரளா	-9.70876
வால	-9.70954
▁திரி	-9.71198
▁ஓவ	-9.71361
▁ினா	-9.71426
▁ொற்று	-9.71459
▁ுள்ளன	-9.7161
▁சிறி	-9.71664
▁கால்	-9.71786
்ந	-9.72072
▁ருண	-9.72136
▁ஷா	-9.72305
▁ாஸ்	-9.72495
ணி	-9.72938
▁ல்வம்	-9.72959
▁ாற்ற	-9.73301
▁ுட்	-9.73331
▁பெர	-9.73391
▁போதை	-9.73392
ெட்ட	-9.73515
▁டிச	-9.73565
▁னிமா	-9.73583
▁ோதனை	-9.73674
▁ரம்	-9.73814
▁ட்க	-9.73847
▁ுமுறை	-9.73861
▁கிட	-9.73906
▁ஹா	-9.73957
▁ழ்	-9.73969
▁ிழி	-9.74108
▁ள்ளை	-9.74131
▁ைட்	-9.74157
▁ையா	-9.74179
▁சேர	-9.74193
▁கி	-9.74194
▁ம்மை	-9.74282
▁அறை	-9.74336
ன்னீ	-9.74765
▁்ரி	-9.74803
▁கல்	-9.75022
▁டைகள	-9.75088
▁பிரத	-9.75263
▁ுண்டு	-9.75426
▁ங்	-9.75496
தாக	-9.75586
▁ோர்ட்	-9.75609
▁ஞ்சம்	-9.7563
▁ர்ட்	-9.75667
லுவல	-9.75672
▁ம்ச	-9.75836
▁ள்ளூ	-9.75931
▁ையே	-9.76596
▁ூதி	-9.7663
▁ரமணி	-9.76661
▁பட்டி	-9.76694
▁ஆற	-9.76744
▁ளத்த	-9.76976
▁ூற	-9.7733
▁்ஸ	-9.77456
▁ேரில	-9.77623
▁தேர	-9.77939
▁விச	-9.78338
▁ச்சே	-9.78363
▁வான்	-9.78444
▁டவ	-9.78507
▁ம்ஸ்	-9.78575
▁ஆட	-9.78737
▁ிட்டி	-9.78917
▁ழம	-9.78964
▁மான்	-9.7898
▁ில்ல	-9.79069
▁ப்பர்	-9.79081
▁ோது	-9.79095
▁ுமை	-9.79231
▁டகா	-9.79404
▁ுஷ	-9.79412
▁சிலை	-9.79755
▁கரம	-9.79798
▁கணவ	-9.79912
▁யிர	-9.79974
▁மொழி	-9.80067
▁ஸ்தி	-9.80173
▁சார்	-9.80194
▁ாட	-9.80287
▁தைக்	-9.80317
▁மித	-9.80725
▁இட	-9.8078
்நா	-9.80831
▁ோவ	-9.80937
▁ோத	-9.80978
▁100	-9.81121
▁்டால்	-9.8119
காம	-9.81218
▁எழு	-9.81499
▁்பில்	-9.81571
▁ட்டன	-9.81587
▁டங்கு	-9.81892
▁வோ	-9.82042
▁ியத	-9.82247
▁னர	-9.82302
▁்லை	-9.82327
▁ெறும	-9.82421
▁சிக்	-9.82687
▁மால	-9.82823
▁லீ	-9.82926
▁ணர்வ	-9.8326
▁உடன்	-9.83284
▁தூர	-9.83621
▁18	-9.83735
▁ம்மன்	-9.83736
▁ுமி	-9.83828
▁திவு	-9.83859
▁ாக்	-9.84059
▁ியூ	-9.8409
▁க்கல்	-9.84143
▁ுவதை	-9.84328
▁மீன்	-9.84433
▁மாஸ்	-9.84484
▁லத்த	-9.84491
ணவர	-9.84535
▁யினர்	-9.84655
y	-9.84701
▁ழுத	-9.8472
▁ீப்	-9.84762
ர்	-9.84816
▁லிங்	-9.84995
வு	-9.85222
▁ாயக	-9.85485
▁ாளிக	-9.85666
▁முனை	-9.85677
▁மர்ச	-9.85752
▁ாயகர்	-9.8594
▁ளித	-9.85999
▁தவறு	-9.862
▁துண	-9.86206
▁40	-9.86224
▁ன்ட்	-9.86278
▁ாரி	-9.86304
▁24	-9.86468
▁ீடி	-9.86507
▁ரஜ	-9.86623
▁ூப	-9.86715
யணி	-9.86883
டிவ	-9.87121
▁ரப	-9.87152
மும்	-9.87226
▁ிவச	-9.87245
▁ூக்க	-9.87453
▁25	-9.87655
ோற	-9.8766
▁மிட	-9.87774
▁கடல்	-9.87917
▁நீட்	-9.88016
▁மாகா	-9.88064
▁ணத்த	-9.88171
▁மண	-9.88195
▁ராய	-9.88232
▁ோம	-9.88287
▁ரிமை	-9.88481
▁ோன்று	-9.88488
ணு	-9.88605
▁ீங்க	-9.88898
▁கடல	-9.89073
▁னவு	-9.89186
▁டர	-9.89281
▁ன்னீ	-9.89315
▁ாயம்	-9.89804
▁ாகம்	-9.8986
▁ாவில்	-9.89872
▁லுவ	-9.8999
▁டின	-9.90135
▁விட்	-9.90177
▁யல்	-9.90253
▁14	-9.90256
▁திகா	-9.90331
மிட	-9.90352
▁றுவ	-9.90471
▁நீர்	-9.905
▁ள்வ	-9.90574
▁டிகை	-9.9082
▁ீர	-9.91063
▁னியாக	-9.91136
ரிடம	-9.91294
ரங்க	-9.9134
▁டாத	-9.91489
▁டிக	-9.91497
▁ாப்பா	-9.91535
▁்நாட	-9.91553
▁ிழ	-9.91564
▁பிஎஸ்	-9.91641
▁பர்	-9.91735
▁ாதா	-9.91738
▁்பதி	-9.91788
▁பரி	-9.91884
▁முட	-9.91987
▁கீ	-9.92061
▁ந்தி	-9.92097
▁வலர	-9.92286
▁ுற்று	-9.92436
▁ளம	-9.92587
▁ளங்க	-9.92596
▁யூன	-9.92636
▁கிற	-9.92732
▁சிற	-9.92858
▁16	-9.93242
▁ைக்க	-9.9327
▁சல்	-9.93471
ைய	-9.93514
o	-9.93545
▁நாம	-9.93591
▁ஞ்சு	-9.93669
▁தாம்	-9.93965
▁ியம	-9.941
ிடம்	-9.94107
▁்கம	-9.94112
▁ழல்	-9.94154
▁எஸ	-9.94277
▁ூலி	-9.94468
▁பிவி	-9.94538
▁காசி	-9.94727
▁ாசா	-9.94939
▁ல்லை	-9.94952
▁13	-9.94991
▁ெய்வ	-9.95012
▁ுப	-9.95052
▁தன்மை	-9.95276
▁பிக்	-9.95514
▁ற்க	-9.95554
▁ோல	-9.95657
▁சூழல்	-9.95801
▁ுக்கி	-9.96057
▁்தம	-9.96082
▁ெல்வ	-9.96269
▁ுகம	-9.96283
▁லாக	-9.96443
▁விழ	-9.9658
▁போவ	-9.96659
▁வள	-9.9667
▁பாஸ்	-9.96674
▁க்டர	-9.96768
▁ிகள்	-9.96795
▁்ஜி	-9.96948
▁ண்ணா	-9.97072
▁ுவார்	-9.9709
▁கைய	-9.97394
▁ிச	-9.97483
▁எங்க	-9.97784
▁நிற	-9.97794
▁பேசி	-9.97811
▁ரித	-9.97819
▁ொது	-9.97915
▁கேர	-9.98075
▁கர்	-9.98297
▁லகம்	-9.98452
▁ுறைய	-9.98617
▁றுக	-9.98666
▁பாய	-9.98784
▁ாபாத்	-9.99024
▁ுந்து	-9.99049
▁ணிக	-9.99126
▁ுலி	-9.99228
▁மாஸ	-9.99338
▁ஆதா	-9.99355
▁ாலி	-9.99411
▁ிலா	-9.9954
▁ிட்	-9.99937
▁ெர	-10.0013
▁ானே	-10.0025
▁ெஸ்	-10.005
▁ராச	-10.0051
▁ுழ	-10.0053
▁்கா	-10.0076
▁ியம்	-10.0087
▁டர்	-10.0105
▁டக்கு	-10.012
சா	-10.0149
▁வதி	-10.0158
▁ோதா	-10.0166
சி	-10.0172
▁ராம்	-10.0184
u	-10.0184
▁ணா	-10.019
▁உப	-10.021
▁மலா	-10.0224
▁ிரஸ	-10.0241
ைச்	-10.0265
▁இசை	-10.0281
▁ாந்து	-10.029
▁னல	-10.0317
▁கண்டு	-10.0343
▁ஆலோ	-10.0349
▁ான்மை	-10.0354
▁ுண்ட	-10.0356
▁ஊர்	-10.036
▁ாசு	-10.0366
▁டில்	-10.0369
▁கேட	-10.0377
▁ரச	-10.0386
▁ங்கம்	-10.0389
வின	-10.0392
▁in	-10.0415
▁17	-10.0426
▁ரவ	-10.0444
▁ேட்	-10.0446
▁சுவா	-10.0454
▁ேனா	-10.0458
▁யுக	-10.0466
▁இடம	-10.0507
c	-10.0512
▁டியா	-10.0527
▁ஜ்	-10.0559
▁ிப்	-10.0566
▁%	-10.0579
ும்	-10.0581
▁ஏற	-10.0583
ஹ	-10.0591
▁ற்கு	-10.0592
▁யல்பட	-10.0604
ீங்க	-10.061
▁ீவ	-10.0612
▁இவை	-10.0654
▁ம்மு	-10.0687
▁குட	-10.0689
▁்கிற	-10.0698
ொரு	-10.0699
▁ாஜ்	-10.072
ியாக	-10.0733
ிற்க	-10.0739
▁பூர	-10.0745
▁ஈர	-10.0756
▁லைய	-10.0757
▁வாதி	-10.0775
▁ஹர	-10.0775
▁ிகா	-10.0776
▁வீரர்	-10.0782
▁ேரி	-10.0783
▁ிறதா	-10.0799
▁ீதா	-10.082
▁ிச்சி	-10.0828
லா	-10.0829
▁பாக	-10.0849
d	-10.0878
ொலை	-10.0879
▁சிரி	-10.0881
▁ூட்டு	-10.0891
▁ாதி	-10.0912
▁ந்தா	-10.093
▁பயண	-10.0945
▁ட்ஸ்	-10.0956
▁கைகள	-10.0962
▁ஷன்	-10.0963
ிலி	-10.0971
▁வுடன்	-10.0976
▁ராவ	-10.0978
▁யாரு	-10.0986
▁ர்வை	-10.1035
▁வுக	-10.1037
▁டையி	-10.105
▁வான	-10.1056
லு	-10.1105
▁நகை	-10.1121
▁போன்	-10.1159
▁ஹி	-10.1163
தித	-10.117
▁ைப்பு	-10.1176
▁றந	-10.1179
▁நடை	-10.1188
▁டுகள்	-10.1193
▁வாரி	-10.1228
▁ளைய	-10.1228
▁ுஷ்	-10.1235
▁ுட்டி	-10.1236
▁னித	-10.1247
▁வின	-10.1254
▁ர்கள்	-10.1259
▁ிகை	-10.1264
▁லூர	-10.1266
▁ோனி	-10.1294
▁யிர்	-10.1355
▁டல	-10.1374
ரோ	-10.1378
ைவு	-10.1379
▁ிஐ	-10.1386
▁ரிசி	-10.1425
▁ுட்டு	-10.1426
▁றவை	-10.1431
▁ருவர	-10.146
▁னிலை	-10.1469
▁பஞ்ச	-10.1471
▁ய்யா	-10.149
▁ோக்	-10.1495
▁ேலு	-10.1505
▁னார்	-10.1538
▁லிம	-10.1554
▁ாழ	-10.1562
▁ய்ய	-10.1564
▁யானது	-10.1573
▁ாரம்	-10.1575
▁A	-10.1587
▁அடைய	-10.1597
▁நிம	-10.1602
ித்	-10.1616
p	-10.1628
டியி	-10.1679
▁ரத்	-10.1719
▁ஆய	-10.172
▁ர்க்	-10.172
▁கொல்	-10.1721
▁்யூ	-10.1722
▁கத்தா	-10.1724
▁மானது	-10.1751
▁பிறக	-10.1753
▁ெடு	-10.1758
▁திரா	-10.1762
▁காலி	-10.1792
▁வேற	-10.1798
▁ேஸ	-10.1813
▁ுமெ	-10.1817
லங்க	-10.1818
▁சார	-10.1828
▁ொடி	-10.1837
▁க்ர	-10.185
▁நான	-10.1862
▁க்தி	-10.1881
▁ஆர	-10.1905
▁ார்ட்	-10.1927
▁தம்	-10.1928
▁ீத	-10.1951
ிண	-10.2003
▁மாளி	-10.2011
▁ன்னை	-10.2016
▁ரசி	-10.2019
▁தேன	-10.2023
▁மார	-10.2024
m	-10.2026
▁ட்டம	-10.2032
லைகள	-10.2032
▁er	-10.2039
தோ	-10.2041
▁ாத்த	-10.2046
▁ூப்	-10.2058
▁ிசா	-10.2073
▁ுரம்	-10.2074
▁ரதி	-10.208
▁வினர்	-10.2083
▁னதா	-10.2091
▁முர	-10.2109
▁லைகள	-10.2116
ஞர	-10.2117
▁அனு	-10.2121
▁்டா	-10.213
▁ோர்ட	-10.214
▁பாதி	-10.216
▁ன்னத	-10.2184
▁டுகள	-10.2202
▁ர்ட	-10.2208
▁ழங்கு	-10.221
50	-10.2216
▁21	-10.2224
ும்ப	-10.2228
▁ரிக்	-10.2234
ிடீர	-10.2239
▁சாத	-10.2239
▁ல்க	-10.2248
▁ேட்ட	-10.225
▁60	-10.225
▁மிக்	-10.2254
▁ேறு	-10.2302
▁றப்பு	-10.231
▁வைத்	-10.2327
▁ியவர்	-10.2341
▁அண்ண	-10.2358
▁ோன்ற	-10.2364
▁லால்	-10.2376
▁வளி	-10.2398
▁மாட	-10.2398
தின	-10.2417
▁ானா	-10.2418
▁வீட	-10.2423
▁ஆண்	-10.2423
▁தர்	-10.2428
▁ஃபி	-10.2431
▁ரீ	-10.2442
▁லக	-10.2446
▁உரை	-10.2449
ஞ்	-10.2451
▁ுக்கே	-10.2452
▁சனை	-10.2455
▁கடன	-10.2475
▁்வே	-10.2476
▁ாண்	-10.248
▁விர	-10.2486
▁யல்ப	-10.2496
▁கண்	-10.2525
▁ரிம	-10.2545
▁த்தம்	-10.2546
▁ஸா	-10.2558
▁ீக	-10.2566
▁தாய	-10.2596
▁ெயர	-10.2599
▁வால	-10.2619
ால்	-10.2622
▁வசிய	-10.2631
▁ொதுக	-10.2635
▁ேசி	-10.2637
▁ாரு	-10.2646
▁கல்ல	-10.2673
5	-10.2702
▁தியம்	-10.2709
▁்வா	-10.2722
▁ரிப	-10.2729
▁ண்டர்	-10.2729
▁பழனி	-10.2745
▁19	-10.2747
▁ாறு	-10.2753
▁ாட்ச	-10.2761
▁லைவ	-10.2767
▁விழு	-10.2784
▁ெய்த	-10.2799
▁்றம	-10.2832
▁லவ	-10.284
▁ணர்வு	-10.2844
▁ானம்	-10.2846
▁விசா	-10.2849
▁ஐந்த	-10.2863
▁ம்மா	-10.2906
▁கும	-10.2911
▁ீன்	-10.2914
▁ண்டே	-10.292
▁ிடி	-10.2931
▁அல்	-10.2956
▁டம்	-10.299
▁ாயி	-10.3012
▁தரி	-10.3019
▁வனத்	-10.3019
▁ாலும	-10.3033
▁வார்	-10.3053
▁ணியி	-10.3064
ரீ	-10.3068
▁ிற்ற	-10.3071
▁அதி	-10.3076
▁னே	-10.308
▁ஆப்	-10.3085
▁சிப	-10.3089
▁ிரை	-10.3099
ையும	-10.314
▁நாய	-10.3157
▁ிரியா	-10.3167
▁மாண	-10.3199
▁வியல	-10.3214
▁்பா	-10.3216
▁்திரி	-10.3246
▁ொய்	-10.3246
காண	-10.3246
▁்கி	-10.3247
▁ாவில	-10.326
▁ன்கள	-10.3262
▁ணும்	-10.3273
▁றிவ	-10.3288
▁டலில	-10.3296
▁ேவி	-10.3328
)	-10.333
▁்வு	-10.3334
▁யத்த	-10.3334
▁தையட	-10.3354
▁சூர	-10.3369
▁உர	-10.3371
▁்கர்	-10.3424
▁ாபி	-10.3433
▁22	-10.3435
▁ல்கள	-10.3445
▁தாவ	-10.3448
n	-10.3468
▁ித்தி	-10.3499
நிலை	-10.3509
▁ேரு	-10.3526
பாட	-10.354
▁ுபட	-10.3546
▁ொலை	-10.3549
▁தாம	-10.3577
▁்மை	-10.3586
▁ிகர	-10.3589
▁ேட	-10.3596
▁டமை	-10.3622
▁ஜர	-10.3657
▁C	-10.3665
▁மண்	-10.3665
▁ளிய	-10.3679
▁ாஷ	-10.3719
▁ட்ப	-10.3723
▁்பாள	-10.3726
▁ியார	-10.3727
▁கான	-10.374
▁க்ஸ்	-10.3743
▁கிழமை	-10.3776
▁லப்ப	-10.3781
▁23	-10.3785
ொகு	-10.3785
▁றந்த	-10.38
▁வாய்	-10.38
டிகர	-10.3833
▁ன்பத	-10.3876
▁றா	-10.3876
▁ரையி	-10.3878
▁குப	-10.3895
▁ெள	-10.3895
▁tion	-10.39
▁துரை	-10.3901
▁ாயு	-10.3911
▁க்கம்	-10.392
ட்ர	-10.3922
▁டாக்	-10.3922
▁மரி	-10.3928
▁ரித்	-10.3931
▁மூல	-10.3933
▁கரன்	-10.3944
▁ேலி	-10.3951
▁க்ட	-10.3958
▁ந்தர்	-10.3975
▁ீன	-10.3976
▁லன	-10.3981
▁ிப	-10.4001
▁ருவி	-10.4011
▁மரா	-10.4038
▁ூழல	-10.4041
▁ம்தா	-10.4043
▁சாம	-10.4083
▁ாடல	-10.4084
▁ாற	-10.4094
▁S	-10.4109
▁டலாம்	-10.411
▁்சே	-10.4111
▁பைக்	-10.4111
▁ளிப	-10.4152
▁ோன்	-10.4189
▁ாத்	-10.4207
▁ெரி	-10.4217
▁நிலம்	-10.4253
▁்டர்	-10.4267
வுள	-10.4276
▁ஞ்சம	-10.4283
▁சாம்	-10.4288
▁டியி	-10.4291
▁ப்பதி	-10.4293
▁்பூர	-10.4322
▁ாஜி	-10.4344
▁ாடா	-10.4371
▁ந்ந	-10.4379
▁ுதா	-10.4388
▁ஆகி	-10.4402
▁B	-10.4402
▁னும்	-10.4408
▁ேட்ப	-10.4409
▁காஷ்	-10.4445
▁ிஸ்ட	-10.4447
▁்பல்	-10.4449
▁ுவதா	-10.4487
▁ென்ன	-10.4497
▁அச	-10.4508
▁யக்க	-10.4523
▁ராவி	-10.4528
ெறு	-10.4533
▁ிந்தி	-10.4554
▁ிகழ	-10.4562
▁கற்	-10.4575
▁லிக	-10.4587
கான	-10.4588
▁ன்க	-10.4592
▁வள்	-10.4616
▁ாபு	-10.4637
▁லர்	-10.4651
▁சண்	-10.467
▁ஒட	-10.4675
▁ானி	-10.4723
▁ீம	-10.4726
▁லில்	-10.4731
▁ம்மி	-10.4735
▁ூடு	-10.4756
▁ழக	-10.4785
▁ாலின	-10.4793
▁ர்டு	-10.4821
▁ழுக	-10.4847
▁ர்ஸ்	-10.486
▁எல	-10.4862
திரம	-10.4878
▁்ணன்	-10.4914
▁க்கர்	-10.4944
▁மாரி	-10.4944
▁வினர	-10.496
▁வாதம்	-10.4963
▁ர்ஸ	-10.4967
▁லம	-10.4991
▁ம்பு	-10.4991
▁ப்பது	-10.4994
▁்நா	-10.5022
▁டுங்க	-10.5024
▁ன்னர	-10.5048
▁ஜன	-10.5055
▁ெடி	-10.5089
▁ாங்	-10.5092
▁தண்ட	-10.5097
▁கூடி	-10.5107
▁பரம	-10.5107
▁்னா	-10.5128
and	-10.5135
▁ிஸ்த	-10.518
▁ோக்க	-10.5194
▁தேர்	-10.5203
▁கரில	-10.5294
▁்டோ	-10.5346
▁பலி	-10.5355
▁்கார	-10.5357
▁ேப	-10.5374
▁னிம	-10.5374
▁ிச்	-10.5382
▁வால்	-10.539
▁ஜீ	-10.5391
▁யப்ப	-10.5391
▁ணன்	-10.5395
▁ோயி	-10.5415
▁ெண்ண	-10.5432
▁ேன	-10.5456
▁கிரு	-10.5459
▁புக	-10.5466
▁ற்றம	-10.5484
▁திர்	-10.5485
▁நோய்	-10.5529
r	-10.5536
▁ச்சை	-10.5564
▁டுத	-10.5568
▁ஆனா	-10.5579
▁ஆண	-10.5599
▁முற	-10.5611
▁ாசி	-10.5635
▁லக்க	-10.5642
▁பவர	-10.5669
▁கத்தி	-10.5691
▁மிர	-10.5701
▁இந்தி	-10.5701
▁ிடைய	-10.5729
▁ாக்ட	-10.5735
▁தரிச	-10.5742
ப்பை	-10.5755
▁க்கூ	-10.579
▁ேர்	-10.58
▁ரத	-10.5821
▁ையை	-10.5833
▁ுச்ச	-10.5838
▁்வத	-10.5842
▁ராட்	-10.5865
▁ெய்ய	-10.5904
▁ாரத்	-10.5911
▁காரம்	-10.5936
▁டெல	-10.5961
▁ோஸ	-10.5974
▁ாவி	-10.598
▁ுங்கு	-10.6005
▁லக்	-10.6072
▁ல்லு	-10.6099
▁செயற	-10.6111
▁ஸி	-10.6118
▁லக்கு	-10.6144
▁27	-10.6168
▁ஷம	-10.6188
▁டுவத	-10.6197
▁70	-10.6199
▁வுத	-10.62
▁ிகார	-10.6205
▁பாலி	-10.6208
▁ான்க	-10.6213
▁D	-10.6227
▁தார	-10.6232
தற	-10.6239
▁க்கெ	-10.6249
▁டாவ	-10.626
▁சுக	-10.6276
▁லித்	-10.6278
▁்கை	-10.6309
திய	-10.6319
▁ையின	-10.6328
k	-10.6335
▁ராட	-10.6352
▁ாவல	-10.6362
▁ிளை	-10.637
▁ொழில	-10.6384
▁னீ	-10.64
▁சுப்	-10.6408
▁ார்க்	-10.6432
▁ஜய	-10.644
ணங்க	-10.6449
▁னிக்	-10.6465
▁ன்சி	-10.6466
▁சாரி	-10.6483
▁க்கோ	-10.6496
▁்டிக்	-10.6506
▁ப்பெ	-10.6517
▁டிரா	-10.654
ாள	-10.6545
▁ையில	-10.6545
▁டியோ	-10.6547
▁ையாக	-10.6548
▁ெட்ட	-10.6564
▁்கோ	-10.6569
▁ார்ட	-10.6579
▁லத்	-10.6594
▁ிடுவ	-10.6598
▁காச	-10.6644
▁மதி	-10.6655
▁னந	-10.6683
▁வாற	-10.669
▁்னர்	-10.6694
▁ுவோம்	-10.6699
▁ண்	-10.6702
▁ாலம	-10.671
▁ட்டம்	-10.6715
▁ரான	-10.6719
▁பான்	-10.6724
▁ொள	-10.6743
▁மேற்	-10.6756
▁்பும்	-10.6775
▁நாளி	-10.6781
▁26	-10.6801
▁I	-10.6827
▁P	-10.6837
▁ேண்டி	-10.6858
▁லுக	-10.6868
▁to	-10.6873
▁ரஹ	-10.6878
▁டாமல	-10.688
▁டூ	-10.6896
▁ரணி	-10.6896
▁N	-10.69
மி	-10.6914
▁ொள்	-10.6941
சன	-10.6947
▁500	-10.6948
▁அப்	-10.695
டங்க	-10.7062
▁டிகள	-10.7093
▁ார்ப	-10.7126
▁்பின	-10.7155
▁ரர்	-10.7158
▁ூட	-10.7186
▁ுடை	-10.7187
▁சமா	-10.7206
▁ுடிய	-10.7236
▁ெரும	-10.7247
▁இப்	-10.7249
▁ெரு	-10.7263
▁75	-10.7291
▁ிஎ	-10.7304
▁ண்டன	-10.7315
▁ரள	-10.7319
▁கிழ	-10.7323
▁ீஸ	-10.7329
▁டைக	-10.7332
▁லைப்	-10.7344
▁உலா	-10.7355
▁ூட்	-10.7364
▁ல்வி	-10.7366
ிஎஸ்	-10.7366
▁ீனா	-10.7381
▁மன்	-10.7384
▁னல்	-10.7393
▁எண்	-10.7405
▁ய்வு	-10.7408
▁றைவ	-10.7415
▁சொல	-10.7417
▁ங்களா	-10.7424
▁ேல	-10.7425
▁ஸ்டி	-10.7433
▁28	-10.7433
▁ுதி	-10.7439
▁மையா	-10.7453
▁தானம	-10.7471
கா	-10.75
▁டல்	-10.7512
▁நித	-10.7526
▁ழிவு	-10.7528
▁னாத	-10.7533
▁ரமா	-10.7545
▁ிணை	-10.7596
▁யுள்	-10.7599
▁ுளி	-10.7602
▁்லா	-10.7615
▁மாவ	-10.7657
ழங்க	-10.7677
▁யேற	-10.7684
▁கவு	-10.7693
றுப்	-10.7713
▁ரவில்	-10.7714
▁்பவ	-10.7722
ழு	-10.774
▁யன	-10.7757
▁வாட்	-10.7762
▁G	-10.7766
▁ருக	-10.7777
▁ைகள	-10.784
▁டம்ப	-10.7848
▁ிறை	-10.7875
▁குகள	-10.7877
▁ீஸ்	-10.7891
▁ென்ற	-10.7897
ெல்	-10.79
▁கரன	-10.794
▁உங்க	-10.7969
▁ேந்த	-10.797
▁விகள	-10.7975
▁ிரத	-10.7978
▁ரூப	-10.7989
▁சிபி	-10.803
▁கோய	-10.8035
▁முழ	-10.8077
b	-10.8093
▁வதா	-10.8108
▁பியா	-10.8113
பதி	-10.8116
▁ழங்க	-10.812
▁வென	-10.816
▁ேல்	-10.818
▁நிப	-10.8201
▁ing	-10.8229
▁மின	-10.8239
▁ுமண	-10.824
l	-10.8269
▁குவ	-10.8309
ழ்வ	-10.8325
▁ீம்	-10.8365
ளி	-10.8401
▁ாப	-10.8404
▁னார	-10.8404
▁35	-10.8432
▁பட்	-10.8437
▁ரும்	-10.8457
▁ஸ்லா	-10.8469
▁்ளே	-10.8479
▁சம்	-10.8497
▁னக	-10.8499
▁யணம	-10.852
▁டமா	-10.852
▁80	-10.8533
▁st	-10.8551
▁கல்வ	-10.8571
▁லூ	-10.8599
▁ுடு	-10.8634
ட்டம	-10.8635
▁ிந்து	-10.8637
▁of	-10.8644
▁சைய	-10.8647
▁45	-10.865
▁ியாகி	-10.865
▁ீரி	-10.8679
▁வீத	-10.8688
▁ெவ்	-10.8696
▁T	-10.8698
▁பிசி	-10.8699
▁தாரம	-10.8711
▁ிடா	-10.8713
▁னைய	-10.8739
▁+	-10.8744
▁சின்	-10.8745
▁al	-10.8747
▁காவி	-10.877
▁ாலு	-10.8774
▁்டை	-10.8795
▁காலம	-10.8797
▁லீச	-10.881
▁்ச்	-10.8814
▁்மா	-10.8823
பிர	-10.8837
▁அலி	-10.8844
▁லின	-10.8865
டை	-10.8896
பட்ட	-10.8906
▁ுகா	-10.8909
▁பிள்	-10.8936
A	-10.8946
▁ஹே	-10.8978
▁ிருத	-10.8978
▁எச்	-10.8998
▁்மன்	-10.9
▁அதன	-10.9006
▁வேட	-10.9006
ேஷ	-10.9012
▁ிலோ	-10.9038
▁R	-10.9059
▁ஸார்	-10.9064
▁காணி	-10.9065
▁F	-10.9078
▁ியவர	-10.9088
▁ாவும்	-10.914
வர்	-10.9148
I	-10.915
▁E	-10.9157
த்தா	-10.9164
▁ராக்	-10.9168
▁ைஞ	-10.9176
▁விடம	-10.9177
▁னப்ப	-10.9198
▁எது	-10.9234
▁nt	-10.9243
▁காப்	-10.9258
▁மாதம	-10.9268
▁ரண்	-10.9289
ுவா	-10.9301
▁ாட்டி	-10.9301
▁ிண	-10.9308
▁ஏக்	-10.9309
▁ீட	-10.9319
▁க்கற	-10.933
▁ுமாற	-10.9335
▁tan	-10.9345
▁வுட	-10.9353
▁31	-10.9354
▁ொருள	-10.9363
▁பாஸ	-10.9374
▁ருட	-10.9401
▁வலை	-10.9407
▁ஏம	-10.9434
▁ோற	-10.9458
▁ுழுவ	-10.9459
▁ிறு	-10.9467
▁டைகள்	-10.9476
▁te	-10.9502
▁எழ	-10.9537
▁வரா	-10.9599
▁ழல	-10.9608
▁ிரிய	-10.9623
▁ோப	-10.963
▁யிலு	-10.9632
▁90	-10.9655
▁29	-10.9688
▁யாளர்	-10.9689
▁tor	-10.969
▁றிவு	-10.9692
▁காவல	-10.9715
▁திபர	-10.9722
▁துவா	-10.9738
▁Vik	-10.976
▁the	-10.9782
▁பள்ள	-10.9786
▁டுவா	-10.979
▁ேண	-10.9824
▁்லி	-10.9827
▁தினம	-10.9834
▁ுள்	-10.9854
▁றந்து	-10.9857
▁பட்டா	-10.9858
▁News	-10.9864
▁படியே	-10.9865
▁ாபா	-10.9865
▁வரத	-10.9866
▁வானி	-10.9886
▁n	-10.9888
▁ர்ச	-10.9929
:	-10.9931
▁ராய்	-10.9951
ுடன	-10.9964
▁ர்வா	-10.9969
▁ரசு	-10.9983
▁டவு	-10.9997
▁ுறவ	-11.0001
▁சாட	-11.0035
▁தற	-11.0037
▁ிஷ்	-11.0061
▁தொட	-11.0071
0%	-11.0124
▁அணை	-11.0134
▁ருந	-11.0144
▁்கே	-11.0146
▁ிளம்	-11.0151
▁ிரன்	-11.0151
▁ூரி	-11.0162
▁ையம	-11.0166
▁களால	-11.0209
▁்சி	-11.0263
il	-11.0264
▁யுடன	-11.0274
வின்	-11.0279
▁வரவே	-11.0295
▁பட்டு	-11.0311
▁பார்	-11.0327
▁பக்த	-11.0346
▁ூத்	-11.0346
▁கையாள	-11.0385
▁ரசா	-11.0408
▁தெர	-11.0424
▁லைவர	-11.0427
▁சென்	-11.0439
▁ீர்க	-11.0449
▁நோய	-11.0485
▁்னர	-11.0495
▁னைகள	-11.0504
▁கழ்	-11.0512
▁on	-11.0547
திரு	-11.0548
▁வளர்	-11.0557
▁ோச	-11.0571
▁றைகள	-11.0581
▁ட்கள	-11.0595
▁கிப	-11.0605
▁காது	-11.0633
▁ல்வா	-11.0635
▁ாதம்	-11.0636
▁ிரச	-11.0677
▁ெற்ற	-11.0698
▁ற்சி	-11.0706
▁w	-11.0725
▁v	-11.0727
▁ஸ்ல	-11.073
▁தலைவ	-11.0734
▁ொற்ற	-11.0764
▁ூடி	-11.0783
▁ஸ்ர	-11.0785
▁னிப்	-11.0811
▁&	-11.0819
▁முகம்	-11.0862
▁ளஹ	-11.0881
▁ுறி	-11.0911
▁வுகள	-11.0912
▁ழுவி	-11.0936
▁ழுவ	-11.0957
▁ெய	-11.0959
▁ுமன்	-11.0971
▁நெரு	-11.0997
▁ணவ	-11.1008
▁சுவ	-11.1017
▁K	-11.1018
▁எடை	-11.1025
▁்திக்	-11.1036
▁சான	-11.1036
▁ாளும	-11.1042
20	-11.1059
▁BBC	-11.1073
▁ியே	-11.1084
பவர	-11.1095
பிக்	-11.1098
▁ளர	-11.1101
2	-11.113
▁காற	-11.1139
▁ுரு	-11.1147
▁ப்பூ	-11.1147
▁பாத	-11.1171
யேற	-11.1178
▁ோப்	-11.1184
▁த்தல்	-11.1195
▁ணம்	-11.12
▁இரவ	-11.1223
▁ொற	-11.1226
▁வாட	-11.1226
ியல்	-11.1254
டீ	-11.1272
▁ன்றது	-11.1282
▁ையாள	-11.1301
▁ங்கம	-11.1314
▁ூத	-11.1315
▁48	-11.1318
▁H	-11.1322
▁தயா	-11.1336
▁ஜூ	-11.1348
▁ஏவ	-11.1381
▁விப	-11.1385
▁மர்	-11.14
▁ரியம	-11.1405
▁குப்	-11.1415
டியா	-11.1429
g	-11.146
▁ரிவு	-11.1462
▁32	-11.1471
▁ஆழ	-11.1472
▁சுட	-11.1518
▁ுச்சி	-11.1518
▁்மு	-11.1544
▁ரியம்	-11.1561
▁ர்ப	-11.1564
▁டக்	-11.1576
ஞ்சா	-11.1577
▁ூழ	-11.159
▁ேகம	-11.1614
▁ிப்பா	-11.1614
▁ன்பு	-11.1631
▁டும	-11.1633
▁ப்தி	-11.1643
▁ியர்	-11.1645
▁பாத்	-11.166
ரை	-11.1666
▁ன்றே	-11.1668
▁ுஜ	-11.1672
▁வெல்	-11.1673
▁O	-11.1711
▁ழிய	-11.1723
▁்னி	-11.1741
▁ni	-11.1745
▁ன்கள்	-11.176
▁ரஸ	-11.1761
▁றைவு	-11.1768
▁ெட்டு	-11.177
▁ிமா	-11.1782
▁கையா	-11.1787
▁a	-11.1815
தனால	-11.1817
▁ாதை	-11.1817
ra	-11.1839
▁ேச்ச	-11.1841
▁்செ	-11.1846
▁ைகள்	-11.1862
▁ருச	-11.1872
▁V	-11.1877
▁நடைப	-11.1884
▁பேசு	-11.1892
▁நே	-11.1901
▁ீண	-11.1903
▁ல்லூ	-11.1906
▁ஆசி	-11.1915
னோ	-11.1918
▁ய்ப்	-11.1932
▁ில்லி	-11.1935
▁சில்	-11.1936
▁ுண்	-11.1952
▁அலை	-11.1952
▁வரு	-11.1987
▁i	-11.2009
▁ிமி	-11.2014
▁னெ	-11.2029
08	-11.2044
▁திவ	-11.2048
▁கோட	-11.2048
▁36	-11.2065
▁இடைய	-11.2067
▁்வார	-11.2079
▁திட	-11.2084
▁re	-11.2116
▁ம்ஸ	-11.2139
▁ட்டச	-11.2154
▁லும	-11.2161
▁லிய	-11.2161
ட்ப	-11.2182
▁ாயம	-11.223
▁ாரண	-11.2237
▁ுவி	-11.2244
▁ேப்	-11.226
▁முகம	-11.2271
▁்பெண்	-11.2273
▁வந்தன	-11.2279
ழுத	-11.2297
▁ெக	-11.2302
▁ூன்	-11.2333
▁na	-11.236
▁ோகம்	-11.2362
▁400	-11.2368
▁தாலு	-11.2392
▁நாடு	-11.2395
▁ணிக்	-11.2396
▁தலைம	-11.24
▁ராஷ்	-11.24
▁குச	-11.2416
▁டியை	-11.2429
▁ெட	-11.2445
▁ஒன்	-11.2447
▁an	-11.2453
▁ிடை	-11.2458
▁கோவ	-11.2469
▁சப்	-11.2509
re	-11.2518
▁ed	-11.2523
E	-11.2551
ஸ்ர	-11.2559
▁விநா	-11.258
▁நூ	-11.2596
▁யரச	-11.2597
▁சத்து	-11.2598
▁ுவா	-11.2625
னை	-11.2698
▁றையா	-11.2711
▁ிதர	-11.2712
al	-11.2717
▁தீவ	-11.2731
சோ	-11.2733
▁ent	-11.2749
▁படு	-11.2771
னைகள	-11.2773
▁Do	-11.2783
▁ழில	-11.2802
▁ஜஸ	-11.2815
▁ாதிப	-11.2832
▁றவ	-11.2845
▁ேடு	-11.2856
▁ள்ளதா	-11.2862
▁ிலே	-11.2869
▁ிளக	-11.2884
▁பிச	-11.2888
▁ஜு	-11.2899
▁ுறு	-11.291
▁விக்	-11.2929
▁டிப	-11.2941
▁ஜன்	-11.2942
▁ாகத்	-11.2955
▁ர்கா	-11.2959
▁காங்	-11.2965
▁ஆசை	-11.2984
▁ாவு	-11.2993
▁கெடு	-11.3003
st	-11.3004
▁மிழ	-11.3051
▁ிஸ்ட்	-11.3051
▁்பாடு	-11.3071
▁th	-11.3076
▁ோஸ்	-11.3085
▁லட்	-11.3089
▁சாய	-11.3092
▁55	-11.3093
▁குள்	-11.3115
▁வேண	-11.3119
▁ீச	-11.3129
தீ	-11.3134
▁லாக்	-11.3158
▁ற்பத	-11.3186
▁41	-11.3186
▁்மி	-11.3202
D	-11.3204
▁ையால	-11.3209
▁ம்பவ	-11.322
▁வாழ்க	-11.3223
▁தோல	-11.3228
▁உன்	-11.3242
▁பின	-11.3262
▁கைக்	-11.3264
▁ுவன	-11.3273
▁33	-11.332
▁்குடி	-11.334
▁யமா	-11.3343
▁ணிய	-11.3346
துக	-11.3355
▁அபி	-11.3362
ணைய	-11.3371
▁ரஷ	-11.3374
▁ne	-11.339
ோவில	-11.3426
%	-11.3444
▁காட்	-11.3446
▁உரிம	-11.3459
▁னிட்	-11.3463
சார	-11.3469
▁ய்ச	-11.3499
▁தீர	-11.3502
▁L	-11.3515
▁்சா	-11.3515
▁டையு	-11.3527
▁ள்ளு	-11.3534
▁ொற்	-11.3553
▁துவர்	-11.3567
▁ma	-11.3624
▁்குட	-11.3625
▁ிவி	-11.3648
ri	-11.3664
▁ுற்ற	-11.368
▁ிள்	-11.3693
▁லும்	-11.3702
▁ஷி	-11.3749
▁ிடும்	-11.3755
▁ிடுக	-11.3787
▁ளத	-11.3812
▁யத்து	-11.3826
▁திக	-11.3841
▁்தூர	-11.3848
▁ce	-11.3853
▁மைக்	-11.3882
▁The	-11.3909
▁ைன்	-11.3919
▁ீரா	-11.3929
▁1.	-11.3942
▁M	-11.398
▁வாய	-11.3985
▁ோல்	-11.3994
▁ng	-11.4019
▁தியி	-11.4025
ங்	-11.404
▁ெப்	-11.4057
▁சின	-11.4066
▁ிபி	-11.408
▁யம்	-11.4085
▁ிரிவ	-11.4086
▁றுப	-11.4096
▁லால	-11.4115
▁்தன	-11.4116
▁சேன	-11.4126
வேற	-11.4132
ஸ்ட	-11.4132
▁ணங்க	-11.4169
▁டிவ	-11.4181
▁டிக்	-11.4183
▁#	-11.4184
▁றேன்	-11.4184
▁மாள்	-11.4187
நாயக	-11.4194
▁la	-11.4201
▁டுப	-11.4207
▁கனி	-11.4208
▁பணம	-11.4223
f	-11.4223
▁ள்ளா	-11.4227
▁திக்	-11.4235
S	-11.4257
C	-11.4259
▁சாத்	-11.4305
h	-11.4323
▁லூர்	-11.4346
▁ூரில	-11.4348
▁லியா	-11.4367
▁nce	-11.4412
▁வணி	-11.4413
▁்ணா	-11.4419
்ளூ	-11.4455
▁்சல	-11.4464
▁றார	-11.4487
ான்ம	-11.4491
▁ொன்னா	-11.4493
▁ூன	-11.4533
U	-11.4542
▁ுதிக	-11.4548
▁ஆஸ	-11.4566
▁ற்றம்	-11.4575
v	-11.4594
▁ோதும	-11.4607
▁வர்க	-11.4611
▁ெற	-11.4614
▁ையு	-11.4626
▁கைகள்	-11.4638
▁கித	-11.4638
▁ஞ	-11.4673
▁கையி	-11.4677
▁போய	-11.4703
▁கித்	-11.4707
G	-11.4708
▁வதை	-11.4715
▁ra	-11.4722
▁றத	-11.4723
▁மதுர	-11.4778
▁ரியர	-11.478
▁்சேர	-11.4783
▁னமு	-11.4792
-	-11.4823
▁ரிட	-11.4834
▁வ்வ	-11.4841
▁னக்	-11.4844
நாட	-11.4844
ாமல்	-11.4856
▁ியத்	-11.4857
▁ைவர்	-11.4869
▁ஆடை	-11.488
▁உற்	-11.4893
▁ொன்ன	-11.494
▁பூஜ	-11.4941
▁ொல்	-11.4983
R	-11.4988
O	-11.4994
▁யாட	-11.501
▁34	-11.503
▁ோக	-11.5035
▁னிய	-11.5046
▁ண்ம	-11.505
▁38	-11.505
▁de	-11.5052
▁காப	-11.5066
▁குக்	-11.5078
▁்காட்	-11.5086
▁ிதம	-11.509
▁39	-11.5091
▁is	-11.5104
ிவா	-11.5127
▁37	-11.5138
4	-11.5142
▁கூடா	-11.5166
▁அருள	-11.518
▁42	-11.5196
▁ிபிச	-11.5207
▁ta	-11.5215
▁ஆசிர	-11.5219
▁ம்மன	-11.5265
▁ன்சா	-11.5288
▁வத்	-11.5295
▁ெளி	-11.5368
▁ஷ்ய	-11.5369
▁X	-11.5376
▁தானம்	-11.5379
▁்பத்	-11.539
▁ாலம்	-11.5405
▁துகள்	-11.5415
'	-11.5426
▁India	-11.5454
▁*	-11.5454
கிழம	-11.5456
▁65	-11.5462
▁ேம்ப	-11.55
▁ஐந	-11.5552
▁ண்ணு	-11.5559
▁தைகள	-11.556
▁for	-11.5578
▁யிட்	-11.5593
▁திந	-11.5594
ro	-11.5641
▁ிபு	-11.5642
▁சிகர	-11.5654
▁குடு	-11.5664
▁்தூர்	-11.5667
▁டிப்	-11.5689
▁பாண	-11.5691
40	-11.5716
▁வைப்	-11.5741
H	-11.5754
▁லீஸ	-11.5774
▁ிடு	-11.5776
▁ல்லத	-11.5784
நாள	-11.5784
▁வரம்	-11.5802
▁றைய	-11.5805
▁ல்லப	-11.5831
▁பாடி	-11.5832
▁ல்கள்	-11.5848
▁தென	-11.5849
7	-11.5859
ற்று	-11.5874
▁ழ்வ	-11.5876
▁ோட்	-11.5884
▁W	-11.5893
▁சாப்	-11.5908
▁டற்	-11.5914
▁ஈடு	-11.599
▁சங்	-11.6015
▁me	-11.6022
▁திகம	-11.6045
▁்ளா	-11.6062
▁2.	-11.6064
▁னும	-11.6069
▁ணப்	-11.6134
▁Tam	-11.6149
▁ியப்	-11.6158
▁மிட்	-11.6184
▁சரிய	-11.6192
▁சால	-11.6203
▁்பன	-11.6204
▁்தர	-11.6214
ெய்	-11.6222
▁அம்ம	-11.6284
▁யந	-11.6295
கரி	-11.6311
ிரு	-11.6333
▁னடி	-11.6345
▁ிழா	-11.6352
▁ுரைய	-11.6357
▁றைகள்	-11.6362
▁யாகு	-11.637
▁சுக்	-11.6422
▁U	-11.6473
1	-11.6473
th	-11.648
▁பற்	-11.6501
er	-11.6513
▁கோட்	-11.6522
▁44	-11.6535
▁்டிங்	-11.6548
ss	-11.655
F	-11.6563
▁றப்ப	-11.6567
▁ல்ய	-11.6573
▁ஆட்ச	-11.6579
ck	-11.6579
▁னைவர	-11.6586
ஜி	-11.6588
▁ண்ணெ	-11.66
▁தைப	-11.6602
▁se	-11.6617
▁ிகழ்	-11.6626
▁மைச	-11.6635
▁ர்பி	-11.6662
▁AI	-11.669
▁றிவி	-11.6695
போன	-11.672
ஶ	-11.6727
▁வெல	-11.6733
▁ுவர்	-11.6735
60	-11.6737
▁ya	-11.6742
▁்றே	-11.6755
▁க்கீ	-11.6761
ch	-11.6765
▁தொழி	-11.6785
8	-11.6795
▁்பர்	-11.6807
▁லியன	-11.6808
▁கூறின	-11.6826
▁கேள	-11.6842
▁யச	-11.686
▁உத்	-11.6864
ion	-11.6898
▁ாடல்	-11.69
▁னதி	-11.6902
தால்	-11.693
▁ீண்	-11.6978
▁ோகி	-11.6985
▁்வார்	-11.7008
▁ைதா	-11.7026
▁வனி	-11.704
▁or	-11.7075
▁ிளா	-11.7085
▁புரம	-11.7098
▁ட்சம	-11.7124
▁தால	-11.7145
"	-11.7187
▁ோயில்	-11.7203
▁மைப்	-11.727
▁ge	-11.7281
▁ூக	-11.7311
▁ணைய	-11.7362
று	-11.7369
x	-11.7378
▁ாரணமா	-11.7382
டீரெ	-11.7393
N	-11.7406
▁ஒளி	-11.741
80	-11.7415
▁ar	-11.7451
▁டைம	-11.7464
பு	-11.7477
▁சேவ	-11.7481
▁le	-11.7488
30	-11.7494
▁அழ	-11.7519
10	-11.7524
en	-11.7531
▁ொடர	-11.7535
▁To	-11.7547
▁ொர	-11.7563
44	-11.7564
▁ாயக்	-11.7568
▁ருடை	-11.7573
▁ழன	-11.7586
▁்கட்	-11.7604
▁ர்வு	-11.7633
▁சசி	-11.7639
▁ணித	-11.7648
▁ிஞர	-11.7704
▁ers	-11.7732
in	-11.7732
▁Ma	-11.7765
▁ரணை	-11.7772
▁்சர	-11.7784
▁கட்	-11.7804
▁பயணம	-11.7806
T	-11.7807
▁ெஸ	-11.7815
▁47	-11.7819
▁சிப்	-11.7829
▁லைக்	-11.7836
▁டைப	-11.784
▁ாமத	-11.7873
▁்தானி	-11.7884
ma	-11.7925
la	-11.7943
▁வரும	-11.7946
▁ொழ	-11.7947
▁சவா	-11.7953
▁ய்க்	-11.7958
▁``	-11.7979
▁ரணம	-11.7979
▁பிஷ	-11.7981
▁no	-11.7991
▁்ளோ	-11.7996
V	-11.7996
li	-11.7999
▁யீ	-11.8
B	-11.8034
▁வாங்	-11.8044
▁ூக்	-11.8069
▁டாது	-11.8069
▁மைகள	-11.8072
▁்டன்	-11.8128
▁di	-11.8133
▁லீஸ்	-11.8143
▁முன	-11.816
▁46	-11.8167
▁Na	-11.8184
▁ூலம்	-11.8186
▁ஷே	-11.824
▁ீண்ட	-11.8245
▁ரீத	-11.8253
▁ளத்	-11.8255
▁43	-11.8256
M	-11.827
w	-11.8271
▁ேசம	-11.8272
ஐ	-11.8278
▁ேசம்	-11.8285
▁ரவில	-11.8313
▁எப்	-11.8326
le	-11.8329
▁58	-11.8331
▁ற்றத	-11.8335
▁மீட்	-11.8336
ed	-11.8338
சிரி	-11.8352
▁ிநா	-11.8356
▁மனை	-11.8377
▁51	-11.8378
70	-11.8394
@	-11.8398
▁DMK	-11.8398
▁ேந்தி	-11.84
▁ள்கை	-11.8403
▁ஜம	-11.8412
▁ிறோம	-11.8465
▁கைத	-11.8483
▁ணும	-11.8508
▁ty	-11.8513
K	-11.8533
▁்சின்	-11.8536
▁தைகள்	-11.8567
▁ோரா	-11.8583
▁ிதர்	-11.8588
▁யாமல	-11.8637
▁ொள்க	-11.8652
▁வேன்	-11.8673
▁y	-11.8729
▁ம்பத்	-11.8837
ly	-11.8869
▁டின்	-11.8878
▁72	-11.8885
▁Mo	-11.8928
▁மைக	-11.8933
▁...	-11.8948
▁ct	-11.8948
▁டையா	-11.8951
5%	-11.8985
▁யஷ	-11.9
ce	-11.9005
ng	-11.9013
▁ஃ	-11.9033
z	-11.9057
▁f	-11.9065
▁ொன்	-11.909
▁னமா	-11.9093
▁சாப	-11.9111
se	-11.9112
▁64	-11.9168
▁49	-11.9182
▁li	-11.9208
▁ிரப	-11.9234
▁்குவ	-11.9236
▁e	-11.925
▁ருது	-11.9271
▁சாட்	-11.9289
▁ாவல்	-11.9314
யோ	-11.9318
▁ணம	-11.9337
▁னில	-11.9339
▁வியி	-11.9365
▁ேரா	-11.9368
▁கிறத	-11.9369
▁es	-11.9369
▁ிற்	-11.9383
▁டமி	-11.9383
▁3.	-11.9425
▁ியும்	-11.9436
வீ	-11.945
▁ளுந	-11.9452
9	-11.9477
▁J	-11.9481
▁am	-11.9521
▁றுவத	-11.9549
rt	-11.9556
▁நிக	-11.9595
▁இதோ	-11.9601
▁54	-11.9625
▁=	-11.9649
▁ேவைய	-11.9671
▁63	-11.9677
▁52	-11.9685
▁வரத்	-11.9691
▁99	-11.9719
▁டேன	-11.9719
▁மார்	-11.9726
▁பாக்	-11.9747
▁வைக்	-11.976
▁gov	-11.977
▁Z	-11.9772
▁sh	-11.9774
▁be	-11.9787
ru	-11.9799
▁நபி	-11.9842
▁ோரி	-11.9855
▁r	-11.9873
▁ாற்	-11.9874
▁வேட்	-11.9894
▁o	-11.9917
ிஸ்	-11.9917
▁்பாட்	-11.992
ow	-11.9927
▁வருமா	-11.9929
▁ியவை	-11.9947
▁ka	-11.9971
▁ற்	-11.9978
▁Pa	-11.9983
▁Ba	-12.0011
AN	-12.0012
▁ைமை	-12.0014
▁வித்	-12.0014
▁கிட்	-12.0023
▁ளப்	-12.0041
▁ஊசி	-12.0045
▁சிர	-12.005
ரியா	-12.0051
▁ுறம	-12.0082
▁el	-12.0088
▁ஆலை	-12.0099
▁யதில	-12.0106
▁ருள்	-12.013
▁ேலை	-12.0135
▁யஸ	-12.0139
▁்கர	-12.016
துறை	-12.0189
▁59	-12.0212
ar	-12.0263
JP	-12.0279
▁ளே	-12.0282
▁முற்	-12.0292
▁்டமி	-12.0295
▁56	-12.0325
L	-12.0331
▁படக்	-12.0338
▁உரி	-12.0344
▁்புத	-12.0348
▁லிக்	-12.0352
▁co	-12.04
▁Pro	-12.0405
▁ூண	-12.0416
▁ஹரி	-12.0445
▁ெழ	-12.0456
▁்சு	-12.0466
▁வெற	-12.0474
▁ுணா	-12.061
▁ேகத	-12.0616
கியத	-12.0627
▁ேசத்	-12.0628
▁நீத	-12.0641
▁Su	-12.0656
▁it	-12.0673
▁உரு	-12.0674
▁k	-12.0685
▁வையா	-12.0698
▁ரங்	-12.0709
▁புக்	-12.0716
▁றித	-12.0748
▁்வொ	-12.0764
▁்தார	-12.0771
vi	-12.0786
▁lo	-12.0793
▁h	-12.0827
▁St	-12.0879
▁67	-12.088
▁en	-12.0888
▁காவ	-12.09
▁GMT	-12.0941
மையா	-12.0958
▁்பூ	-12.096
▁ய்வத	-12.0965
▁u	-12.1005
▁com	-12.1036
▁Sa	-12.1036
▁்றா	-12.1043
▁ேரம்	-12.1052
3	-12.1058
P	-12.1065
▁ட்ஸ	-12.1075
யுடன	-12.1122
▁si	-12.1123
▁ஆளு	-12.1136
▁கவா	-12.1137
▁லைத்	-12.1144
▁அரு	-12.1154
0	-12.1161
▁ஞ்	-12.1168
▁ுங்	-12.1188
▁ा	-12.1221
▁்பும	-12.1249
▁ழுவத	-12.1249
▁ைசி	-12.1252
▁புள	-12.1308
▁1,	-12.1315
▁De	-12.1336
▁Pla	-12.1364
▁57	-12.1382
▁சென	-12.1462
de	-12.1468
▁ுவோம	-12.1468
▁பிட்	-12.1478
ill	-12.1481
▁BA	-12.1487
▁இவ்	-12.1491
▁c	-12.1499
▁பொற	-12.1512
▁தலி	-12.1525
17	-12.153
ாளம	-12.1548
▁தேப	-12.1558
▁53	-12.1567
புர	-12.157
▁800	-12.1574
▁Ra	-12.1587
▁69	-12.1588
▁ியும	-12.159
▁t	-12.1603
▁4.	-12.1632
▁ரைக்	-12.1642
▁ாய்ப	-12.1718
▁pa	-12.1723
▁யணி	-12.1749
▁ஆக்	-12.1778
▁னைக்	-12.1779
j	-12.1796
▁ிபத்	-12.1803
▁ோகம	-12.1807
▁62	-12.1819
▁66	-12.1852
Y	-12.1853
▁வனம்	-12.1859
▁ம்பெ	-12.186
▁2,	-12.1867
▁85	-12.1905
▁68	-12.1912
▁95	-12.1919
▁nd	-12.1926
PS	-12.197
ain	-12.1974
▁நூற	-12.1976
▁ஆடு	-12.1982
ரைன	-12.2067
பிஷே	-12.209
▁et	-12.2135
▁ிரன	-12.2155
▁ஒத	-12.2214
▁ூடா	-12.222
▁்றத	-12.2222
▁னைத்	-12.2244
out	-12.2254
▁Live	-12.2269
▁ம்பத	-12.228
▁ியால	-12.2282
▁தனால	-12.2287
▁hi	-12.2296
▁பர்க	-12.2303
▁்பத	-12.2304
ke	-12.2331
▁73	-12.2345
▁74	-12.2346
▁பேட	-12.2351
▁்கின	-12.2355
▁ண்டது	-12.2372
ூ	-12.2393
சர்	-12.2399
ww	-12.2426
▁சேர்	-12.2435
▁பினா	-12.2477
▁ூண்	-12.2482
▁வுடன	-12.2506
▁vi	-12.2529
ni	-12.2559
▁ba	-12.2586
▁ster	-12.2587
▁முஸ	-12.2604
▁மாதி	-12.264
▁ரைன்	-12.2644
▁வுள	-12.2655
▁றையி	-12.2663
mp	-12.2666
▁Te	-12.2668
▁ொக	-12.2702
▁ஏரி	-12.2714
▁சுற	-12.2748
▁வனத	-12.2758
▁டுதல்	-12.2764
▁ருளா	-12.2795
▁மென	-12.2809
▁m	-12.2825
▁ரட்	-12.2829
▁ணீ	-12.2907
▁னைகள்	-12.2907
▁டுப்	-12.2926
னியா	-12.2933
சை	-12.2939
▁50%	-12.2949
ியின	-12.2956
▁லீஸா	-12.3016
▁ேரத்	-12.304
▁ணன	-12.306
▁லோச	-12.3062
ாமி	-12.3073
ide	-12.3076
▁ia	-12.3082
▁http	-12.3087
▁உறு	-12.3101
75	-12.3116
குள	-12.312
an	-12.3137
▁d	-12.3149
▁ூசி	-12.3156
▁In	-12.3157
▁டைத்	-12.3161
▁ெற்	-12.3174
90	-12.3222
▁at	-12.3249
me	-12.3253
▁Ex	-12.3259
▁_	-12.3259
▁Ac	-12.3264
nt	-12.3275
▁ic	-12.3281
▁sta	-12.3284
.6	-12.329
▁வாதம	-12.329
.3	-12.3325
▁71	-12.3416
et	-12.3422
ிபி	-12.3427
▁றோ	-12.3432
▁vide	-12.3435
▁கலாம்	-12.3438
▁Mu	-12.3447
▁கர்க	-12.3474
▁ரமண	-12.3503
▁ுதன	-12.3509
▁ac	-12.3522
lo	-12.3529
▁ஏசி	-12.3535
▁61	-12.3537
▁ஈஷ	-12.3542
▁ad	-12.3574
▁92	-12.3579
▁டவர்	-12.3585
▁னாள்	-12.3615
▁77	-12.3619
ga	-12.365
▁வேன	-12.3686
▁சைக்	-12.3701
19	-12.3713
16	-12.3715
▁றல்	-12.3724
it	-12.3731
▁ாந	-12.3735
▁em	-12.3744
▁ிவு	-12.3777
ve	-12.3785
▁ரதா	-12.3806
▁உறுத	-12.3812
▁125	-12.3816
▁b	-12.3853
டிப	-12.3858
ne	-12.3866
di	-12.3869
கோட	-12.3891
ld	-12.39
▁றிஞ	-12.3901
▁ஸ்லி	-12.3921
24	-12.3932
▁ராண	-12.3935
21	-12.3935
fe	-12.3955
▁ch	-12.3962
34	-12.3967
am	-12.3971
▁Man	-12.3976
▁ரவா	-12.3993
▁ாதம	-12.3999
▁Co	-12.4011
ad	-12.4047
13	-12.4057
▁10%	-12.4064
IA	-12.4071
▁7.	-12.4077
▁6.	-12.4099
▁ைப்பை	-12.4118
▁ியாம	-12.4123
▁nai	-12.4127
▁ாயத்	-12.4134
▁ர்த்	-12.4156
▁va	-12.4158
▁யத்	-12.4161
▁ab	-12.417
▁ort	-12.4171
▁p	-12.4173
▁Ta	-12.4175
▁Al	-12.418
▁Che	-12.4203
38	-12.421
va	-12.428
▁ெய்க	-12.4285
நீ	-12.4287
or	-12.429
▁றல	-12.4296
▁ri	-12.4327
▁மைத	-12.4333
▁Cha	-12.4337
▁do	-12.4337
▁₹	-12.4361
▁Inte	-12.4362
ll	-12.4365
யிற	-12.438
▁டித்	-12.4382
▁கமா	-12.4387
▁டத்	-12.4395
▁l	-12.444
▁ர்பா	-12.4478
▁டலாம	-12.4519
▁ிலக்	-12.4523
▁Ka	-12.4537
▁னப்	-12.4583
▁நாட்	-12.4589
15	-12.4621
te	-12.4656
▁ெங்	-12.4675
▁ரின	-12.4677
3%	-12.4689
▁mo	-12.47
▁96	-12.4709
▁இலக	-12.472
▁ter	-12.4759
▁னிப	-12.4775
▁லைகள்	-12.4777
06	-12.4781
▁ro	-12.4797
▁சிந	-12.48
▁78	-12.4809
▁ல்கி	-12.481
sh	-12.4823
▁Y	-12.4831
12	-12.4859
▁ாப்பி	-12.4865
▁76	-12.4868
▁கோவி	-12.4878
▁சொத	-12.4885
day	-12.4953
Q	-12.4958
11	-12.4971
▁்விட்	-12.4979
▁wh	-12.5028
▁Res	-12.5036
ho	-12.5046
W	-12.5065
▁யிலே	-12.5082
14	-12.5086
▁காக்	-12.5096
▁su	-12.5108
▁ழா	-12.5153
▁TN	-12.517
▁காரர	-12.5204
▁சைக	-12.5211
▁Mi	-12.5214
▁ுபவ	-12.5226
▁ிருத்	-12.5232
▁sa	-12.5268
▁86	-12.5337
▁ாவட	-12.5377
े	-12.5382
▁ஹஜ்	-12.5384
ha	-12.5386
▁4,	-12.5388
▁லப்	-12.5406
▁tic	-12.5436
mil	-12.5441
▁கழ்வ	-12.5448
▁pol	-12.5449
ினா	-12.5451
▁ிதம்	-12.546
▁எதை	-12.5471
ith	-12.5484
▁கழகத்	-12.5499
▁ிலர்	-12.5507
▁ur	-12.5553
▁thi	-12.5558
SS	-12.5562
▁துவி	-12.5571
▁Sta	-12.5573
▁83	-12.5584
▁ஔ	-12.56
▁pro	-12.56
▁tra	-12.56
வாய	-12.5619
▁சாங்	-12.562
▁05	-12.5632
da	-12.5634
▁tha	-12.5643
▁Bo	-12.5677
▁சூரி	-12.568
35	-12.5705
na	-12.5719
.1	-12.5735
26	-12.5744
ur	-12.5746
▁மானம்	-12.5755
ளிக்	-12.5759
▁ிரிட	-12.5786
▁கலாம	-12.5806
▁ளர்	-12.5809
▁த்தூ	-12.5814
qu	-12.5822
▁IND	-12.5822
▁03	-12.5845
▁pe	-12.5854
37	-12.5862
▁சினி	-12.5864
▁30%	-12.587
AT	-12.5899
▁Bu	-12.5899
▁mar	-12.5932
▁82	-12.5947
▁Ro	-12.5978
▁ரணத	-12.5987
ஷா	-12.6009
▁ti	-12.6025
▁ag	-12.6045
ive	-12.6048
▁[	-12.6049
ood	-12.6082
▁No	-12.6086
▁ைவு	-12.6113
▁88	-12.6115
▁கெட	-12.6121
▁டிகள்	-12.6126
TA	-12.6135
▁g	-12.6148
▁ாதிக்	-12.6165
77	-12.6168
▁Is	-12.617
▁ol	-12.6174
ry	-12.6179
▁றிக்	-12.6189
▁உமா	-12.6193
28	-12.6206
▁Wor	-12.6211
1,	-12.6245
▁Se	-12.6262
▁ca	-12.6265
▁தித்	-12.6293
▁Go	-12.6322
18	-12.6343
03	-12.6355
ka	-12.6387
▁Me	-12.6406
▁ிரட்	-12.6438
▁ாய்ந	-12.6457
ep	-12.6488
▁91	-12.6499
ஏ	-12.6509
▁tiv	-12.651
▁ூச	-12.6519
▁]	-12.652
▁்கட	-12.655
▁ட்சு	-12.655
▁lt	-12.656
65	-12.6588
ER	-12.6593
▁ராஷ	-12.6602
mi	-12.6611
id	-12.6669
▁ழுப	-12.6683
▁குகி	-12.67
ja	-12.6708
▁84	-12.6717
▁படம	-12.6731
▁டந	-12.6732
▁வலர்	-12.674
▁97	-12.6741
DA	-12.6747
▁யங்	-12.6754
25	-12.6764
▁by	-12.6765
▁Ja	-12.6778
▁01	-12.6809
▁ளுக	-12.6809
▁புள்	-12.684
▁ku	-12.6855
es	-12.6857
▁Lo	-12.6877
hi	-12.6898
▁Be	-12.6929
▁cal	-12.693
▁்கரி	-12.6933
▁PA	-12.6966
nd	-12.6971
▁94	-12.6995
▁Ele	-12.7014
eo	-12.7018
▁ருத்	-12.7026
▁ga	-12.7029
▁5,	-12.7044
▁tu	-12.7045
▁5%	-12.7052
▁he	-12.7052
▁தனா	-12.7057
▁குத	-12.7058
▁ேவை	-12.7067
22	-12.7094
▁Min	-12.7102
▁தனிய	-12.7112
▁ையத்	-12.7126
▁யற்	-12.7129
▁ரால	-12.714
SK	-12.7167
▁Mar	-12.7191
▁ுஸ	-12.7191
▁7,	-12.7207
▁டுங்	-12.7235
▁ாதிர	-12.7246
▁ெப	-12.7259
J	-12.7267
	-12.727
▁क	-12.727
▁TV	-12.7272
73	-12.7283
▁றப்	-12.7312
▁Tra	-12.7317
▁go	-12.7319
▁ிமு	-12.7329
▁வரப்	-12.7356
▁யாள	-12.7369
RI	-12.7374
▁லுக்	-12.7406
ிறார	-12.7417
▁nm	-12.7452
▁ram	-12.7455
▁PM	-12.7457
▁ீச்	-12.7472
▁சுமா	-12.7495
▁ைவி	-12.7498
▁rai	-12.75
▁இந்	-12.7506
▁87	-12.751
▁93	-12.7525
्	-12.7533
▁न	-12.7534
▁ேகம்	-12.7534
▁ய்தா	-12.7573
▁mi	-12.758
▁For	-12.7605
▁்ணன	-12.7608
▁ஆயி	-12.7619
▁யுள	-12.763
▁Di	-12.7632
.9	-12.7638
▁fa	-12.7648
▁NA	-12.7661
68	-12.7683
ர்ந	-12.7688
el	-12.7698
▁81	-12.7703
▁On	-12.7714
ge	-12.7725
▁உபி	-12.7738
2%	-12.7749
▁ீக்	-12.7792
IT	-12.7794
nk	-12.78
▁as	-12.78
▁$	-12.7804
▁LGBT	-12.7804
▁र	-12.7805
▁nic	-12.7806
▁Card	-12.7815
▁En	-12.7897
si	-12.7903
▁ுநா	-12.7911
76	-12.7913
49	-12.7924
ent	-12.7947
▁SA	-12.7951
▁னுக்	-12.7974
62	-12.7993
▁79	-12.7996
▁கோப்	-12.8034
ணை	-12.8042
clu	-12.8048
42	-12.8049
▁Sc	-12.8053
▁ho	-12.8075
Z	-12.8078
64	-12.8083
▁Au	-12.8088
▁ll	-12.81
▁சளி	-12.81
▁அமை	-12.8101
▁Uni	-12.8102
▁Ch	-12.8105
▁தமி	-12.815
▁னுட	-12.8157
டுப்	-12.821
▁02	-12.8224
▁cha	-12.8236
31	-12.8262
ர்ச்	-12.8291
▁ru	-12.8298
▁du	-12.8306
▁வூ	-12.8354
▁வாக்	-12.8355
▁வோம்	-12.8366
▁II	-12.8371
▁(1)	-12.8374
▁ble	-12.839
43	-12.8391
▁06	-12.8392
▁காட	-12.842
▁Wh	-12.8459
▁us	-12.8478
27	-12.8478
▁ாணப்	-12.8517
▁RA	-12.8522
▁கொள	-12.8535
▁காஷ	-12.8539
54	-12.8547
▁Hu	-12.8582
▁IC	-12.8589
▁Pol	-12.8592
▁பிஎ	-12.8597
45	-12.8617
-1	-12.8631
▁UN	-12.8652
X	-12.8658
!	-12.8658
▁da	-12.866
▁றொ	-12.8664
▁ஓகே	-12.8671
▁102	-12.8671
▁ளவி	-12.8677
▁ஷோ	-12.8704
▁tn	-12.8716
▁ெள்ள	-12.8723
RA	-12.8724
▁ரைப	-12.8724
63	-12.8731
SA	-12.8758
▁lea	-12.878
▁bi	-12.8803
36	-12.8806
07	-12.8828
▁்டிக	-12.8828
▁்தப	-12.8834
▁்காட	-12.884
EC	-12.8864
▁ெரிக	-12.8879
8%	-12.8896
▁La	-12.8903
at	-12.893
▁Wha	-12.8942
▁ுபி	-12.8954
lu	-12.8963
▁ple	-12.8965
▁Pri	-12.8966
▁ress	-12.8966
▁இஓ	-12.9
▁Con	-12.9042
▁Ha	-12.9047
▁res	-12.9063
▁Ph	-12.9087
▁Chi	-12.909
▁ிர்ச	-12.909
ிறதா	-12.9104
▁ST	-12.9107
▁ine	-12.9126
1)	-12.9153
▁்தம்	-12.9168
▁தரப்	-12.917
▁Jo	-12.9246
he	-12.926
92	-12.9275
▁Modi	-12.9277
▁um	-12.9279
IN	-12.9314
▁po	-12.9323
wa	-12.9324
▁man	-12.9362
▁ண்கள்	-12.9363
▁ha	-12.9408
▁்றோ	-12.9412
▁மைகள்	-12.9422
AL	-12.9429
6	-12.9449
▁So	-12.947
▁Re	-12.9472
▁has	-12.9538
▁98	-12.9552
▁Pu	-12.9557
▁ிரச்	-12.9561
ell	-12.9563
ी	-12.9599
▁Exp	-12.96
▁day	-12.9605
▁dis	-12.9619
▁ொங்	-12.9656
85	-12.9668
▁னுக	-12.968
ard	-12.9686
▁04	-12.9692
▁றால்	-12.9704
▁nda	-12.972
je	-12.9748
▁ளைப	-12.9757
▁ve	-12.982
▁6,	-12.9858
▁ாமத்	-12.9861
93	-12.9875
im	-12.9879
▁Ga	-12.9892
▁COP	-12.9933
▁Per	-12.9934
▁ral	-12.9934
▁ive	-12.9938
▁You	-12.995
▁்சம்	-12.9954
▁கங்	-12.9962
▁plan	-13
88	-13.0032
▁2'	-13.0041
செல்	-13.0042
▁Ca	-13.007
on	-13.0073
▁wha	-13.0088
NA	-13.0113
8,	-13.0116
▁ran	-13.0126
▁ze	-13.0147
▁bo	-13.0153
▁ய்ப	-13.017
71	-13.0187
CB	-13.0199
▁wor	-13.0237
99	-13.0263
அ	-13.0275
ि	-13.0278
▁Vija	-13.0278
▁lk	-13.0278
▁sup	-13.0278
▁MI	-13.0285
mb	-13.0298
▁Va	-13.0306
ti	-13.0321
▁09	-13.0351
57	-13.0368
ME	-13.038
PT	-13.0383
81	-13.0393
▁ry	-13.0396
ord	-13.0397
▁Gu	-13.0402
fic	-13.0428
78	-13.0487
▁ுகார்	-13.0491
▁ex	-13.0505
32	-13.0508
▁Po	-13.0529
▁ளூ	-13.0536
adi	-13.0577
▁வுகள்	-13.0593
▁Nadu	-13.0635
▁nadu	-13.0635
▁म	-13.0635
▁ew	-13.0635
▁dm	-13.0636
▁say	-13.0636
▁(2)	-13.0639
▁x	-13.0646
▁sp	-13.0652
▁2)	-13.0659
▁RE	-13.068
-3	-13.0697
29	-13.0706
53	-13.0716
41	-13.0718
▁il	-13.0741
▁ணர்	-13.0742
▁Cor	-13.0749
▁All	-13.0757
98	-13.0798
▁sho	-13.0837
▁gh	-13.0861
74	-13.0906
oc	-13.0909
▁min	-13.0915
ூஜை	-13.0916
▁1)	-13.0943
RT	-13.095
?	-13.1002
ya	-13.1004
▁Rep	-13.1006
▁up	-13.1006
61	-13.1009
▁டங்	-13.1031
AM	-13.1061
▁war	-13.1086
▁08	-13.1092
▁ிதமா	-13.11
94	-13.1119
▁யுட	-13.1128
▁Ho	-13.115
89	-13.1171
4%	-13.1231
ci	-13.1234
▁lla	-13.1261
EE	-13.1261
HO	-13.1269
▁Mah	-13.1281
▁ாளு	-13.1284
▁கர்ப	-13.1334
SC	-13.1341
▁Pre	-13.1355
இ	-13.1387
▁Edap	-13.139
▁प	-13.139
▁स	-13.139
▁2.0	-13.139
▁fro	-13.139
▁+2	-13.1391
▁Du	-13.1395
old	-13.1403
▁CM	-13.1424
CC	-13.1448
▁pu	-13.1467
ல்கல	-13.1482
▁Gen	-13.1494
▁tal	-13.1502
▁Rev	-13.1505
▁z	-13.1509
▁Or	-13.151
▁Ju	-13.1523
DS	-13.1525
23	-13.1529
FI	-13.153
96	-13.1533
97	-13.1548
▁hu	-13.1597
US	-13.1612
▁கிக்	-13.1655
▁8,	-13.1684
▁ண்க	-13.1707
EO	-13.171
87	-13.1724
▁ki	-13.1752
igh	-13.1754
▁cou	-13.1762
▁ह	-13.179
▁cont	-13.179
▁IPL	-13.179
▁Gr	-13.1794
▁lai	-13.1796
▁்னீ	-13.1796
தியா	-13.181
▁104	-13.1813
▁van	-13.1823
தியம	-13.184
CA	-13.187
59	-13.1874
47	-13.1884
▁mb	-13.1884
▁25%	-13.1885
▁Ar	-13.1903
▁07	-13.1907
▁che	-13.1909
▁raj	-13.1933
▁டர்ப	-13.1951
▁Fu	-13.1954
▁ld	-13.1962
▁Gov	-13.1966
95	-13.198
▁Thi	-13.1986
▁ric	-13.1998
▁An	-13.2006
46	-13.2017
▁2:	-13.2017
SP	-13.2031
எ	-13.2071
7,	-13.2097
▁யவர்	-13.2107
▁id	-13.2108
▁gra	-13.2109
▁Li	-13.2119
▁chi	-13.2138
▁Cu	-13.2151
▁ரிட்	-13.2175
+	-13.2203
▁Pala	-13.2207
▁ship	-13.2207
▁are	-13.2211
▁கிச	-13.2217
1%	-13.222
▁Bi	-13.2223
OS	-13.2227
har	-13.225
▁9.	-13.2252
▁bil	-13.2262
▁comm	-13.2263
▁gen	-13.2282
▁Le	-13.2341
du	-13.2352
RR	-13.236
all	-13.2398
▁sm	-13.2413
56	-13.2445
86	-13.245
▁shi	-13.245
ook	-13.2464
6%	-13.2469
ie	-13.2481
PO	-13.2481
EA	-13.2505
ES	-13.2546
WA	-13.2559
▁cu	-13.256
ear	-13.258
67	-13.261
▁Ne	-13.2611
▁ிறேன	-13.2621
▁SC	-13.2633
;	-13.2638
ो	-13.2641
▁happ	-13.2641
▁pri	-13.2642
▁cas	-13.2645
▁ja	-13.2647
dha	-13.2651
▁ke	-13.2653
▁UP	-13.2664
▁bj	-13.2696
▁Hea	-13.2699
PI	-13.2707
▁ber	-13.2727
▁we	-13.2751
79	-13.2768
▁Dr	-13.2786
▁Ope	-13.2786
▁Ku	-13.2787
▁sch	-13.2793
▁மிழர	-13.2797
ET	-13.2817
▁வற்	-13.283
WI	-13.284
▁MA	-13.2867
one	-13.2872
▁At	-13.2905
om	-13.2914
▁்கல்	-13.2934
▁ie	-13.2938
▁Wa	-13.2939
PA	-13.2967
SI	-13.2973
48	-13.3007
AC	-13.3016
▁ளூர	-13.303
▁IS	-13.3037
▁tt	-13.3038
▁US	-13.3039
▁Mad	-13.3041
ary	-13.3058
▁mu	-13.3085
ஆ	-13.3093
­	-13.3096
▁QR	-13.3096
▁ific	-13.3096
▁App	-13.3096
▁pm	-13.3097
▁Up	-13.3098
▁My	-13.3099
MA	-13.3101
8)	-13.3102
▁Fac	-13.3115
▁sy	-13.3122
▁nch	-13.3139
▁Spe	-13.3144
▁Tha	-13.3152
▁Shar	-13.3168
ash	-13.3221
DF	-13.3221
தலை	-13.3221
33	-13.3232
▁ut	-13.324
69	-13.3258
asi	-13.3282
▁Dis	-13.3306
▁TH	-13.3308
▁Fa	-13.3313
▁im	-13.3385
▁Ko	-13.3391
ௌ	-13.3405
72	-13.3444
▁gn	-13.3452
▁ளோ	-13.3456
▁8.	-13.3462
▁குந	-13.3498
▁om	-13.3501
▁wa	-13.3531
வனம்	-13.3532
ous	-13.3547
▁SH	-13.3566
▁89	-13.3566
▁jo	-13.3572
	-13.3572
▁Medi	-13.3572
▁INDIA	-13.3572
▁Wom	-13.3572
▁bu	-13.3585
▁155	-13.359
91	-13.3622
▁Ana	-13.3624
EN	-13.3627
▁Wi	-13.3635
ST	-13.3644
▁Eng	-13.365
▁அபே	-13.3678
▁Ti	-13.3685
▁யவில	-13.3717
NG	-13.3743
ext	-13.3751
▁Comm	-13.3767
66	-13.381
▁nan	-13.3815
▁GO	-13.392
▁ED	-13.3928
LE	-13.3954
▁Vi	-13.3963
▁ொகு	-13.3977
▁Vis	-13.399
▁்தூ	-13.4009
▁Ass	-13.4022
▁Day	-13.4072
▁‛‛	-13.4072
▁Eco	-13.4072
▁MLA	-13.4072
▁tri	-13.4072
▁way	-13.4072
▁Cap	-13.4073
▁part	-13.4073
▁op	-13.4073
▁tics	-13.4074
▁Ama	-13.4074
▁Vo	-13.4077
▁line	-13.4079
sp	-13.4094
▁ai	-13.4114
hu	-13.4118
▁Pres	-13.4119
▁103	-13.4121
ate	-13.4129
▁han	-13.4188
▁Com	-13.4215
▁per	-13.4216
lla	-13.4222
MF	-13.4248
▁We	-13.4256
▁you	-13.4272
▁IT	-13.4276
▁Dev	-13.4281
▁os	-13.4281
ish	-13.4292
EL	-13.4326
▁ss	-13.433
▁form	-13.4333
39	-13.4343
PR	-13.4356
▁gu	-13.4361
லாம்	-13.4384
▁pal	-13.4396
▁Kar	-13.4402
▁Ban	-13.4421
oon	-13.4444
▁Pan	-13.4518
▁Fin	-13.4539
▁sam	-13.4547
51	-13.4572
▁book	-13.4598
▁त	-13.4598
▁Awar	-13.4598
▁cri	-13.4599
▁ं	-13.4599
▁UA	-13.46
▁ey	-13.4601
▁Nu	-13.4606
ul	-13.4611
SE	-13.4618
▁152	-13.4626
▁Pra	-13.4631
IP	-13.4641
▁6%	-13.4648
ver	-13.4677
▁அந்	-13.4739
▁MP	-13.4742
ark	-13.4755
HU	-13.4771
sion	-13.4776
TI	-13.478
▁sha	-13.4788
▁EV	-13.4793
04	-13.4812
▁Un	-13.4826
TT	-13.4831
▁ko	-13.4835
▁Sp	-13.4839
air	-13.4844
PL	-13.4863
▁Raj	-13.4876
▁BB	-13.4892
▁ci	-13.4896
பெற	-13.4897
IO	-13.4907
ing	-13.4908
▁nes	-13.4957
▁Kan	-13.4973
52	-13.4976
sk	-13.5036
-2	-13.5038
▁her	-13.5079
58	-13.5092
▁nc	-13.5095
▁pi	-13.5098
ast	-13.5102
eat	-13.5102
▁(6	-13.5124
CE	-13.5128
▁New	-13.5153
q	-13.5153
व	-13.5154
▁Green	-13.5154
▁blic	-13.5154
▁Air	-13.5154
▁app	-13.5154
▁mic	-13.5155
▁Lu	-13.5158
▁ori	-13.516
▁(3)	-13.5161
▁SE	-13.5183
IFA	-13.5251
▁Red	-13.5262
▁ph	-13.5284
MS	-13.5299
TO	-13.5337
3)	-13.5361
▁kar	-13.5364
5)	-13.5376
▁Ant	-13.5384
IS	-13.5386
TR	-13.5402
BI	-13.5423
▁Car	-13.5431
ju	-13.5438
CP	-13.5468
ID	-13.5491
ert	-13.5503
KS	-13.5531
eet	-13.5553
OR	-13.556
no	-13.5573
LI	-13.5617
▁pla	-13.5624
▁Th	-13.5648
▁tur	-13.567
MK	-13.5693
▁fl	-13.5712
amy	-13.5739
▁IAS	-13.5742
▁Twit	-13.5742
IVE	-13.5742
▁High	-13.5742
▁wom	-13.5742
▁WW	-13.5742
▁Hind	-13.5742
▁ल	-13.5742
▁new	-13.5743
▁Imp	-13.5743
▁org	-13.5743
▁my	-13.5744
▁Cri	-13.5745
▁Q	-13.5751
ott	-13.5763
▁156	-13.5771
ong	-13.579
▁ul	-13.5798
▁4%	-13.5816
DP	-13.5816
▁Offi	-13.5819
▁ேள்	-13.5821
▁ND	-13.5827
▁pt	-13.5829
▁ant	-13.5839
▁Kha	-13.5842
▁FB	-13.586
ளையா	-13.594
2)	-13.5949
rk	-13.595
gg	-13.5974
▁Sav	-13.6041
LO	-13.6051
▁Ri	-13.611
anka	-13.611
▁Fe	-13.611
▁Sch	-13.6115
▁SL	-13.6116
▁Ag	-13.6117
▁pres	-13.6134
▁his	-13.6143
▁Op	-13.6166
▁Nor	-13.6186
▁par	-13.6196
▁Inc	-13.62
LA	-13.6209
▁bl	-13.6215
▁Pi	-13.622
ach	-13.6221
ef	-13.6232
▁3-	-13.6234
▁AM	-13.6305
▁Rec	-13.6306
௦	-13.6367
▁Home	-13.6367
▁dge	-13.6367
▁द	-13.6367
▁Fir	-13.6367
▁Bha	-13.6368
ube	-13.6368
▁And	-13.6369
▁cy	-13.6369
▁Sma	-13.637
▁Je	-13.6381
▁ow	-13.6384
▁182	-13.6387
GC	-13.6404
▁Sha	-13.6409
CR	-13.6455
ine	-13.6457
▁zon	-13.6466
▁Coll	-13.6481
SR	-13.6528
▁CO	-13.6544
AP	-13.6576
TS	-13.6589
▁pre	-13.6606
PF	-13.6624
▁tes	-13.6625
▁cond	-13.6659
um	-13.6669
SO	-13.6685
▁Aa	-13.6687
▁ee	-13.6712
▁lain	-13.6717
▁்ளிக	-13.6725
4)	-13.6745
▁Can	-13.6748
MC	-13.6767
▁can	-13.6777
iva	-13.6798
▁les	-13.681
▁vo	-13.6816
▁NG	-13.6825
▁ver	-13.685
RY	-13.6858
IM	-13.6887
▁pur	-13.6901
▁Of	-13.6948
▁Ann	-13.6961
▁dia	-13.6964
BS	-13.6977
य	-13.7034
▁elec	-13.7034
▁Story	-13.7034
▁>	-13.7034
▁IPC	-13.7034
▁pho	-13.7034
▁exp	-13.7034
▁ron	-13.7035
▁wat	-13.7035
▁bra	-13.7036
▁Her	-13.7036
▁Tri	-13.7036
▁Pay	-13.7037
▁uri	-13.7037
▁Dra	-13.7038
▁Cre	-13.7038
▁Are	-13.704
CS	-13.7046
▁Bra	-13.7047
▁1/	-13.7047
ஊ	-13.7745
ங	-13.847
श	-13.9351
र	-14.0257
ू	-14.026
/	-14.1237
ஓ	-14.2233
ஞ	-14.2243
•	-14.2371
ा	-14.3618
ા	-14.3621
ं	-14.5046
ஈ	-14.5046
~	-14.5049
°	-14.5049
ए	-14.5049
ट	-14.5049
ध	-14.5049
	-14.5049
ु	-14.6716
ન	-14.6716
😂	-14.6716
*	-14.8713
§	-14.8716
च	-14.8716
ै	-14.8716
મ	-14.8716
‍	-14.8716
உ	-15.1213
ड	-15.1216
·	-15.1216
ل	-15.1216
ण	-15.1216
ष	-15.1216
ે	-15.1216
௫	-15.1216
★	-15.1216
&	-15.4546
é	-15.4549
×	-15.4549
ا	-15.4549
ई	-15.4549
थ	-15.4549
ौ	-15.4549
ક	-15.4549
ત	-15.4549
ર	-15.4549
ી	-15.4549
્	-15.4549
⁠	-15.4549
❔	-15.4549
	-15.4549
	-15.4549
`	-15.954
ल	-15.9546
प	-15.9546
स	-15.9546
म	-15.9546
क	-15.9546
]	-15.9546
₹	-15.9546
<	-15.9549
÷	-15.9549
و	-15.9549
ي	-15.9549
औ	-15.9549
़	-15.9549
।	-15.9549
ટ	-15.9549
ય	-15.9549
વ	-15.9549
સ	-15.9549
௩	-15.9549
′	-15.9549
⁄	-15.9549
●	-15.9549
◾	-15.9549
⦁	-15.9549
௨	-16.9528
छ	-16.9529
घ	-16.953
š	-16.9531
õ	-16.9532
आ	-16.9533
௧	-16.9534
જ	-16.9535
इ	-16.9536
ख	-16.9537
अ	-16.9538
\	-16.9539
£	-16.954
ब	-16.9541
ज	-16.9542
ग	-16.9543
$	-16.9544
[	-16.9545
ஔ	-16.9546
भ	-16.9546
>	-16.9546
द	-16.9546
त	-16.9546
ह	-16.9546
न	-16.9546
=	-16.9547
_	-16.9547
#	-16.9547
ஒ	-16.9547
‛	-16.9547
ஃ	-16.9548
(	-16.9549
^	-16.9549
{	-16.9549
}	-16.9549
®	-16.9549
Á	-16.9549
å	-16.9549
í	-16.9549
ñ	-16.9549
ô	-16.9549
ö	-16.9549
ł	-16.9549
ō	-16.9549
ʻ	-16.9549
̈	-16.9549
إ	-16.9549
د	-16.9549
ر	-16.9549
س	-16.9549
م	-16.9549
ه	-16.9549
उ	-16.9549
फ	-16.9549
અ	-16.9549
આ	-16.9549
ઉ	-16.9549
ઓ	-16.9549
ખ	-16.9549
ણ	-16.9549
થ	-16.9549
દ	-16.9549
પ	-16.9549
ફ	-16.9549
ભ	-16.9549
લ	-16.9549
િ	-16.9549
ો	-16.9549
௬	-16.9549
௭	-16.9549
௹	-16.9549
‟	-16.9549
€	-16.9549
⏩	-16.9549
	-16.9549
	-16.9549
👇	-16.9549
💥	-16.9549
😊	-16.9549
😐	-16.9549
😲	-16.9549
