<unk>	0
<s>	0
</s>	0
.	-2.78729
,	-3.38511
ம்	-4.94439
்	-5.04298
க்	-5.18833
ப்	-5.20768
▁இந்த	-5.27046
த்	-5.48242
▁என்று	-5.51296
கள்	-5.52922
▁மற்றும்	-5.65917
▁ஒரு	-5.69568
து	-5.70407
ும்	-5.81146
ு	-5.89935
▁என	-5.92165
▁அவர்	-5.93935
▁	-5.94521
ச்	-5.97563
ின்	-5.9848
"	-5.98846
:	-5.99185
▁வேண்டும்	-6.05498
க்கு	-6.09934
▁"	-6.11036
க	-6.15254
யின்	-6.19777
யும்	-6.20846
?	-6.22591
யில்	-6.24857
▁அந்த	-6.27952
▁ஆனால்	-6.27984
ை	-6.29256
▁இது	-6.33351
▁உள்ள	-6.36733
ில்	-6.39957
களை	-6.40878
தான்	-6.41003
-	-6.4105
த்தில்	-6.45907
யை	-6.46358
களின்	-6.46445
▁என்ற	-6.47186
ல்	-6.48529
▁நிலையில்	-6.49949
▁கடந்த	-6.50489
▁இருந்து	-6.53203
▁அரசு	-6.60385
▁முதல்	-6.61845
!	-6.62001
▁பல	-6.62822
ய	-6.63227
ன்	-6.6354
ன	-6.64527
▁(	-6.67611
ி	-6.69408
)	-6.70779
▁மேலும்	-6.71425
▁சில	-6.71932
ஸ்	-6.72402
ார்	-6.72429
▁உள்ளது	-6.72893
வின்	-6.75519
பி	-6.76014
'	-6.76546
ர்	-6.76957
களில்	-6.7934
வும்	-6.79708
▁குறித்து	-6.83626
▁தான்	-6.84222
▁ஆண்டு	-6.84333
த்தை	-6.84719
ுக்கு	-6.86115
▁தொடர்ந்து	-6.87348
▁இருக்கும்	-6.87772
▁செய்து	-6.882
னர்	-6.9019
▁செய்ய	-6.90952
▁தனது	-6.9158
▁வரும்	-6.93167
ா	-6.93628
▁தேதி	-6.94323
▁மக்கள்	-6.94605
ால்	-6.95104
▁சென்னை	-6.95852
த்தின்	-6.96314
▁-	-6.96337
▁வருகிறது	-6.9656
▁என்பது	-6.96744
▁என்ன	-6.96931
▁பாஜக	-6.97149
▁'	-6.97219
களுக்கு	-6.97388
▁நான்	-6.9747
▁அமைச்சர்	-6.98529
▁இல்லை	-6.99094
▁இந்திய	-7.00059
வை	-7.02233
▁இன்று	-7.02614
▁என்றும்	-7.02841
▁தற்போது	-7.03017
▁கொண்டு	-7.03965
ஆம்	-7.04739
வே	-7.0775
▁தலைவர்	-7.08045
சி	-7.08158
ே	-7.08797
▁மீது	-7.08968
...	-7.09464
மாக	-7.10408
▁வரை	-7.10525
யாக	-7.11259
ட்	-7.11588
▁பிறகு	-7.11818
▁மூலம்	-7.12574
ல	-7.1259
▁அது	-7.12824
ங்கள்	-7.1342
டி	-7.13943
▁அவர்கள்	-7.15447
▁இருந்த	-7.17114
▁வந்த	-7.17929
ுள்ளது	-7.18593
களும்	-7.19678
▁சேர்ந்த	-7.20206
▁காங்கிரஸ்	-7.20467
தி	-7.21612
▁2	-7.22681
ான	-7.23276
▁அ	-7.2331
▁தேர்தல்	-7.24527
▁மத்திய	-7.25085
",	-7.27147
▁இரண்டு	-7.27715
ம	-7.2812
▁எந்த	-7.28633
▁பிரதமர்	-7.28713
ுள்ளார்	-7.29745
வ	-7.29979
க்கும்	-7.30533
ாக	-7.30698
▁பா	-7.30853
ப	-7.31527
யா	-7.31549
▁இதனால்	-7.31911
▁புதிய	-7.32752
மும்	-7.33418
▁போது	-7.33571
▁அவரது	-7.33993
▁கொண்ட	-7.34277
க்க	-7.34864
▁போன்ற	-7.36718
ப்பட்டுள்ளது	-7.37089
▁இருக்கிறது	-7.37227
மு	-7.37319
▁கட்சி	-7.37347
தாக	-7.3753
மான	-7.37697
த்த	-7.38069
வர்	-7.3821
▁இதில்	-7.38362
▁3	-7.38753
வி	-7.39021
ிய	-7.39219
▁பல்வேறு	-7.39286
▁அணி	-7.3945
▁அரசியல்	-7.39727
▁நேற்று	-7.39797
▁உள்ளிட்ட	-7.40201
மா	-7.40208
▁பேர்	-7.41071
த	-7.41362
▁இந்தியா	-7.41417
▁மீண்டும்	-7.4236
▁முதல்வர்	-7.42498
▁அதன்	-7.43454
யே	-7.44098
ர	-7.44517
▁ரூ	-7.45713
▁வந்து	-7.47152
▁அப்போது	-7.47496
ிருக்கிறார்	-7.47846
▁வெற்றி	-7.48252
▁அதிமுக	-7.48292
வில்லை	-7.48554
▁தொடர்பாக	-7.49107
▁தமிழக	-7.50773
▁திமுக	-7.50779
▁சமூக	-7.51122
▁மட்டுமே	-7.51315
வது	-7.52061
ப்பட்ட	-7.52391
▁நடவடிக்கை	-7.52468
த்திற்கு	-7.52529
▁தெரிவித்தார்	-7.53149
ஜ	-7.53371
▁செய்த	-7.53415
▁5	-7.53636
▁அனைத்து	-7.53906
ிருக்கிறது	-7.54532
▁மாநில	-7.54784
▁ஆம்	-7.54809
▁கூட	-7.55368
▁பெரிய	-7.5541
▁வர	-7.55503
▁அதில்	-7.55513
▁அல்லது	-7.55712
▁நடந்தது	-7.55878
ுள்ளனர்	-7.55922
;	-7.56098
▁சென்று	-7.56317
▁என்	-7.56466
▁பெண்	-7.57204
▁பேசிய	-7.57306
▁வகையில்	-7.57748
▁வேலை	-7.5778
▁4	-7.58023
▁சிறப்பு	-7.58109
▁கூறினார்	-7.58268
▁பட	-7.58585
▁இருந்தது	-7.58671
ப்படும்	-7.59278
▁10	-7.59875
▁என்றார்	-7.60213
▁அங்கு	-7.60257
மே	-7.60347
ட	-7.60681
எஸ்	-7.60805
வில்	-7.60831
▁மாவட்ட	-7.60955
▁முறை	-7.61682
▁பின்னர்	-7.61904
▁இப்போது	-7.62055
▁எம்	-7.62192
▁காரணமாக	-7.6226
▁முக்கிய	-7.62455
▁வருகின்றனர்	-7.62481
▁இலங்கை	-7.6275
ரி	-7.62805
▁அதை	-7.6343
▁இரு	-7.63445
▁பாதுகாப்பு	-7.64179
▁எடப்பாடி	-7.64884
▁``	-7.65844
▁`	-7.66249
லாம்	-7.6677
ுடன்	-7.67119
▁தேசிய	-7.67129
▁மிகவும்	-7.67392
▁எப்படி	-7.67447
▁மாதம்	-7.68373
▁சி	-7.6843
வா	-7.69763
▁நடந்த	-7.70072
னி	-7.70187
▁முடியும்	-7.7039
▁டி	-7.70585
▁மணி	-7.70713
▁தி	-7.71097
▁என்பதை	-7.71697
▁விசாரணை	-7.71783
▁வைத்து	-7.72147
▁பி	-7.72235
ப்பட்டது	-7.72675
▁நாம்	-7.72703
ச	-7.7287
▁கொரோனா	-7.7314
▁முன்னாள்	-7.73639
▁தகவல்	-7.73858
தா	-7.74021
▁இருக்க	-7.74272
ாமல்	-7.74345
ப்ப	-7.74358
னா	-7.74365
தை	-7.74566
▁இதற்கு	-7.75233
▁பற்றி	-7.75289
▁கோடி	-7.75333
▁ப	-7.75421
▁என்கிறார்	-7.75784
▁தமிழ்நாடு	-7.75896
▁கைது	-7.77652
▁அதிக	-7.77668
▁ஜனாதிபதி	-7.77774
▁செல்ல	-7.77794
▁இந்நிலையில்	-7.78479
▁நாடு	-7.78562
யான	-7.78607
லா	-7.78649
ரா	-7.79148
▁தலைமை	-7.79284
▁ஓ	-7.79567
▁முடியாது	-7.79588
▁ஆகிய	-7.79723
▁நாங்கள்	-7.79742
▁வழக்கு	-7.7979
▁முன்பு	-7.80389
வர்கள்	-7.80455
ப்பட்டு	-7.81686
த்து	-7.81805
▁ஒருவர்	-7.81902
▁அதற்கு	-7.82018
ங்களை	-7.82758
▁தேர்தலில்	-7.83316
வுக்கு	-7.83455
▁மோடி	-7.83951
▁இவர்	-7.83997
▁காலை	-7.84261
போது	-7.84305
▁வழங்க	-7.84534
ேன்	-7.84603
ங்க	-7.84622
ுள்ள	-7.84744
லி	-7.84793
▁அடுத்த	-7.85829
▁பக்தர்கள்	-7.85874
த்துக்கு	-7.85997
லை	-7.86064
▁பகுதியில்	-7.8617
▁நிலை	-7.8659
▁பெரும்	-7.87071
▁செய்யப்பட்ட	-7.87354
▁அவருக்கு	-7.87614
▁பெற்ற	-7.87743
▁மணிக்கு	-7.8827
யுடன்	-7.88323
கா	-7.88419
▁கே	-7.88611
ட்ட	-7.88723
▁தர	-7.89129
▁மூன்று	-7.89175
▁விட	-7.89831
▁எனவே	-7.89943
▁எதிராக	-7.8997
▁உலக	-7.89982
▁கோவில்	-7.90014
க்கான	-7.90334
தால்	-7.90479
▁துறை	-7.90768
ப்படுகிறது	-7.90871
▁இதை	-7.91085
▁அதிகாரிகள்	-7.91255
▁6	-7.91329
ரை	-7.91505
▁காரணம்	-7.91812
மை	-7.92628
▁மட்டும்	-7.92959
ந்த	-7.93077
▁பதிவு	-7.93127
▁நடத்த	-7.93317
▁உள்ளன	-7.93366
▁ஒரே	-7.93369
▁மு	-7.9355
ஜி	-7.93648
▁காந்தி	-7.93939
▁வி	-7.94202
▁ஒன்று	-7.94567
▁பொருளாதார	-7.94587
▁தெரிவித்த	-7.95511
▁சென்ற	-7.95555
▁முடிவு	-7.95689
▁இன்னும்	-7.96034
▁ஆய்வு	-7.96089
▁பெற	-7.96343
▁தமிழ்	-7.96547
ப்பட	-7.96921
மி	-7.9736
▁கோயில்	-7.97785
விட	-7.98003
ிடம்	-7.98131
▁அதே	-7.98298
▁ரூபாய்	-7.98303
களையும்	-7.98494
▁சுமார்	-7.98603
▁எடுத்து	-7.98644
▁ம	-7.98753
ோம்	-7.98759
▁முழுவதும்	-7.98769
ிருக்கும்	-7.99035
பா	-7.99373
யால்	-7.99388
▁நாள்	-7.99733
▁சம்பவம்	-7.99754
ுவது	-7.99806
▁க	-7.99902
▁நேரத்தில்	-8.00479
▁1	-8.00607
▁இடங்களில்	-8.00751
▁டெல்லி	-8.00832
▁மிக	-8.00923
▁கால	-8.01007
ப்பு	-8.0138
▁போல	-8.01394
▁ஒவ்வொரு	-8.01723
▁ஏன்	-8.01812
ாத	-8.01822
▁கீழ்	-8.0199
▁தடை	-8.02007
▁விழா	-8.02145
▁7	-8.02198
▁தன்	-8.02503
▁போர்	-8.02585
▁அவரை	-8.02615
▁இதன்	-8.02735
டு	-8.02845
▁எடுக்க	-8.02976
▁ஆ	-8.0321
அ	-8.03251
▁கொலை	-8.03307
▁தொடர்பான	-8.03557
▁பார்க்க	-8.03589
▁ஸ்டாலின்	-8.03839
▁கூறி	-8.03882
▁செய்யும்	-8.04168
▁முன்	-8.0435
▁நல்ல	-8.04911
▁இ	-8.05019
▁பயன்படுத்த	-8.05033
டன்	-8.05045
▁குறித்த	-8.05281
▁லட்சம்	-8.05422
▁கொள்ள	-8.05478
னை	-8.06029
▁கேள்வி	-8.06053
ள	-8.06511
▁தேர்வு	-8.06646
▁நடந்து	-8.06788
▁இந்தப்	-8.07177
▁தங்கள்	-8.07199
▁வீட்டில்	-8.07305
▁வேண்டிய	-8.07366
▁வருகிறார்	-8.07889
▁பதவி	-8.0816
▁மே	-8.08177
▁கலந்து	-8.08399
▁கூட்டணி	-8.08514
▁இதையடுத்து	-8.08647
▁எனக்கு	-8.09085
▁ஆர்	-8.09876
▁நிதி	-8.10284
▁கூறப்படுகிறது	-8.1064
▁நடத்தி	-8.10682
s	-8.11255
▁பணி	-8.11299
▁குழந்தை	-8.1184
▁வேறு	-8.11864
கே	-8.11873
▁மாவட்டம்	-8.11905
வு	-8.11952
▁ஆட்சி	-8.13196
▁பேச	-8.13261
▁இப்படி	-8.13279
ங்களில்	-8.13516
▁சிகிச்சை	-8.13621
▁குறிப்பிட்ட	-8.13977
க்காக	-8.14213
▁பெண்கள்	-8.14252
▁12	-8.14724
▁சொல்ல	-8.14743
களுடன்	-8.14827
▁மா	-8.14894
ோ	-8.1504
▁கல்வி	-8.15158
▁8	-8.15489
▁சார்பில்	-8.157
▁இங்கு	-8.15767
▁தெரிவித்துள்ளார	-8.15832
▁சர்வதேச	-8.15996
▁விட்டு	-8.16549
▁இதுவரை	-8.16621
களால்	-8.16874
▁ச	-8.16926
▁கட்சியின்	-8.17149
▁மாலை	-8.17272
▁இரவு	-8.17504
களாக	-8.17627
▁வாய்ப்பு	-8.17763
▁கட்ட	-8.17814
▁அளவில்	-8.17892
▁இந்தியாவில்	-8.179
ஏ	-8.17963
▁ஏ	-8.17987
▁வந்தது	-8.18021
▁போலீசார்	-8.18062
▁நடைபெற்றது	-8.18239
▁கருத்து	-8.18265
▁பள்ளி	-8.1829
ிருந்தார்	-8.18422
▁நீங்கள்	-8.18734
ந்து	-8.18744
▁கை	-8.19386
▁விலை	-8.19492
▁அரசின்	-8.19568
▁உணவு	-8.19584
▁செயலாளர்	-8.19722
▁மனைவி	-8.1996
▁கூறுகிறார்	-8.20167
▁அருகே	-8.20184
▁துணை	-8.20236
▁19	-8.20328
▁20	-8.2043
ிருந்த	-8.20554
▁சட்ட	-8.20678
▁சிங்	-8.21074
▁ஏற்பட்ட	-8.21183
தாகவும்	-8.21211
▁அதிபர்	-8.21554
▁குழு	-8.21776
▁உதவி	-8.2186
ஐ	-8.22303
▁வயது	-8.2233
▁புகார்	-8.22958
▁அமெரிக்க	-8.23057
▁நடைபெற்ற	-8.2309
▁தேவை	-8.23358
▁எ	-8.23548
▁யார்	-8.23563
▁ஐ	-8.23728
டை	-8.23885
ஷ்	-8.24035
▁பின்	-8.24037
▁பணம்	-8.24094
▁ஆளுநர்	-8.24109
▁இடையே	-8.2446
▁மழை	-8.24472
எல்	-8.24521
▁குரு	-8.24757
விட்டு	-8.25083
▁சுவாமி	-8.25123
▁பெற்று	-8.25228
▁11	-8.25255
▁எனவும்	-8.25652
ட்டு	-8.25863
▁செய்தி	-8.25923
▁த	-8.2645
த்தான்	-8.2668
▁சு	-8.26702
▁போட்டி	-8.27279
ஆர்	-8.27285
▁அதனால்	-8.27365
▁கிடைக்கும்	-8.27623
▁கொடுத்த	-8.27705
▁என்றால்	-8.27733
ற	-8.27804
ினார்	-8.27835
▁உடல்	-8.28133
▁உங்கள்	-8.28217
சா	-8.28314
▁மாற்ற	-8.28318
படி	-8.28447
▁பாதிக்கப்பட்ட	-8.28484
▁அனுமதி	-8.28593
▁15	-8.28919
▁காவல்	-8.291
▁உள்ளனர்	-8.29127
▁மேல்	-8.29316
கு	-8.2953
▁ஓபிஎஸ்	-8.29605
யோ	-8.29713
ட்டி	-8.29769
▁நாட்டின்	-8.30012
சு	-8.30944
ாலும்	-8.3099
▁போலீஸார்	-8.31109
▁கொடுக்க	-8.31166
▁உ	-8.31415
▁செய்தனர்	-8.31594
▁திட்டம்	-8.31627
▁உயர்	-8.32143
▁எனக்	-8.32377
▁ஆகியோர்	-8.3242
▁அப்படி	-8.32843
கோ	-8.32973
▁அதாவது	-8.33039
▁ரயில்	-8.33122
▁உறுதி	-8.33232
▁மற்ற	-8.33266
▁வீடியோ	-8.33518
▁எதிர்ப்பு	-8.33528
▁கி	-8.33992
▁நேரம்	-8.34041
▁பாதிப்பு	-8.34239
ள்	-8.34274
▁இருக்கிறார்	-8.34341
▁குறிப்பிடத்தக்க	-8.34361
▁பூஜை	-8.34387
▁மாத	-8.34456
▁மருத்துவ	-8.34532
▁இஸ்ரேல்	-8.34797
▁பழனிசாமி	-8.34815
▁என்பதால்	-8.35077
▁ஸ்ரீ	-8.35127
ங்	-8.35286
▁வீடு	-8.35555
▁ஆக	-8.35661
த்துடன்	-8.35753
ுள்ளன	-8.35861
▁வருகின்றன	-8.35878
▁பொது	-8.35957
▁அறிக்கை	-8.36005
▁மதுரை	-8.36047
கி	-8.36201
▁பெயர்	-8.36261
▁இடத்தில்	-8.36324
▁மூத்த	-8.36345
▁திருமணம்	-8.36805
▁ராணுவ	-8.36822
தில்	-8.36854
▁அடிப்படையில்	-8.3687
▁தொழில்	-8.36912
▁ஏற்படும்	-8.36968
வ்	-8.37196
ண	-8.37515
ிற்கு	-8.3759
▁9	-8.37724
▁அதிகமாக	-8.37775
தே	-8.38076
▁அன்று	-8.3833
▁தங்க	-8.38875
ுவதற்கு	-8.38945
▁பார்த்து	-8.39004
▁நடைபெறும்	-8.39056
ற்ற	-8.39499
▁தாக்குதல்	-8.39707
னு	-8.40077
▁வங்கி	-8.40134
▁காவல்துறை	-8.40244
▁விமான	-8.40316
▁அளித்த	-8.40428
▁ரஷ்யா	-8.40556
▁பகுதி	-8.40601
▁சீனா	-8.40659
▁வழக்கில்	-8.40719
▁இந்து	-8.40788
▁செல்லும்	-8.4095
▁செலுத்த	-8.41033
▁வ	-8.41121
த்தி	-8.41129
▁பாலியல்	-8.41224
▁குறிப்பாக	-8.41297
▁இந்தியாவின்	-8.41638
ிலும்	-8.41737
▁ராகுல்	-8.41787
▁நாடாளுமன்ற	-8.42111
▁தனியார்	-8.42137
▁இடம்	-8.42443
▁நிறுவனம்	-8.42585
▁தமிழ்நாட்டில்	-8.42603
▁எஸ்	-8.42702
ளி	-8.43038
▁தொடங்கி	-8.43195
▁காலத்தில்	-8.4346
இ	-8.43519
▁வாங்க	-8.43707
▁போல்	-8.43754
▁இந்தக்	-8.43912
▁பகுதிகளில்	-8.43931
ிருந்தது	-8.4407
▁வைக்க	-8.44176
▁சிலர்	-8.44231
▁தந்தை	-8.44399
▁குடும்ப	-8.44445
▁மாணவர்கள்	-8.44483
ுகிறது	-8.44495
▁18	-8.44693
▁பயணம்	-8.45113
▁முயற்சி	-8.45134
▁அந்தப்	-8.45231
▁அதிகம்	-8.45674
ையும்	-8.45701
▁கடன்	-8.46465
▁இருந்தாலும்	-8.46656
▁கு	-8.46717
▁நீர்	-8.46749
▁கார்	-8.46778
▁எண்ணிக்கை	-8.46814
▁சொல்லி	-8.46847
▁நிகழ்ச்சி	-8.46859
▁பிபிசி	-8.46944
▁மன	-8.47088
டா	-8.4746
ங்களுக்கு	-8.4767
வுடன்	-8.47719
▁போலீஸ்	-8.47723
ச்ச	-8.4782
▁நான்கு	-8.47964
ழ	-8.48002
யிடம்	-8.48026
கை	-8.48036
▁பதில்	-8.48127
▁கொடுத்து	-8.48185
யிலும்	-8.4819
▁ஆதரவு	-8.48203
▁இல்லாத	-8.48301
வரும்	-8.48363
▁அவர்களுக்கு	-8.48413
ஷ	-8.48625
▁அடி	-8.48703
▁வைத்த	-8.48729
▁அமெரிக்கா	-8.49024
▁நீதிமன்றம்	-8.49035
வோ	-8.4919
▁செய்தார்	-8.4921
▁கோரிக்கை	-8.49227
▁உறுப்பினர்	-8.49319
▁கூடாது	-8.49351
▁கடும்	-8.49798
▁சா	-8.49903
▁தமிழகத்தில்	-8.49983
▁எதிரான	-8.50448
▁வெளியே	-8.50561
▁தீ	-8.5059
▁இந்தத்	-8.50666
▁விற்பனை	-8.50763
▁நீண்ட	-8.5077
▁இல்லாமல்	-8.50827
▁ஹ	-8.51031
ச்சி	-8.51068
▁மத	-8.51143
▁அல்ல	-8.51438
▁கோவிலில்	-8.51645
▁அதனை	-8.51683
▁உட்பட	-8.51694
▁நாடுகள்	-8.51697
▁பார்த்த	-8.51835
▁தனி	-8.52042
▁சரி	-8.52167
றி	-8.52263
க்குறிப்பு	-8.52288
▁அவை	-8.52537
▁பிற	-8.52629
▁திரு	-8.52859
▁எங்கள்	-8.53014
▁பலர்	-8.53077
▁நகர	-8.53142
▁மக்களுக்கு	-8.53242
▁கூறுகையில்	-8.53321
▁நாட்டில்	-8.53375
▁அதிகாரி	-8.53584
▁இணைந்து	-8.53897
▁ந	-8.54071
▁நீதிபதி	-8.54326
▁நம்பிக்கை	-8.54347
▁உள்ளார்	-8.54387
கூட	-8.54489
▁கோ	-8.54893
▁பூ	-8.55006
▁தொடர்பு	-8.55025
▁இருவரும்	-8.5506
▁அனைவரும்	-8.5509
▁உடனடியாக	-8.55222
தற்கு	-8.55266
▁பிரச்னை	-8.5527
▁போராட்டம்	-8.55341
▁கூட்டம்	-8.55488
▁எல்லாம்	-8.55519
▁இருந்தார்	-8.55696
▁நாளை	-8.55761
▁நடைபெற்று	-8.56185
▁நடக்கும்	-8.56292
▁இதனை	-8.56303
▁30	-8.56367
ான்	-8.56422
▁தாக்கல்	-8.56509
▁முதலில்	-8.56554
▁பயிற்சி	-8.56605
▁இருப்பதாக	-8.56838
▁பிர	-8.57032
தன்	-8.57065
▁அரச	-8.57156
▁பலரும்	-8.57157
▁சட்டம்	-8.57274
▁உரிமை	-8.57447
▁அமைப்பு	-8.57496
▁மீதான	-8.57514
▁மேற்பட்ட	-8.57534
▁இருப்பினும்	-8.57585
▁தலைமையில்	-8.57741
▁முதலமைச்சர்	-8.57905
ரு	-8.57994
▁அவரின்	-8.58287
▁சேவை	-8.58388
▁படம்	-8.58436
▁என்னை	-8.58514
▁முடியாத	-8.58957
ுள்ளதாக	-8.5906
▁உருவாக்க	-8.59421
▁கிராம	-8.59474
▁ஆண்டில்	-8.59798
த்தால்	-8.59813
▁தெரிவித்துள்ளது	-8.59865
▁தெரிவித்து	-8.60119
யிலிருந்து	-8.60195
▁கோவை	-8.60214
▁எடுத்த	-8.60375
▁மகன்	-8.60445
▁மோதி	-8.6067
▁பேசி	-8.60877
▁ஆண்டுகளுக்கு	-8.60911
▁தவிர	-8.6092
▁அளவுக்கு	-8.61108
▁தலைவர்கள்	-8.61125
▁ஷா	-8.61394
யர்	-8.61443
▁முன்னிட்டு	-8.61577
▁செ	-8.61632
▁ஜி	-8.61732
e	-8.61761
▁பு	-8.61916
▁தென்	-8.62007
▁நீதிமன்ற	-8.62044
▁ஆயிரம்	-8.62106
▁நிறுத்த	-8.62159
ினால்	-8.62203
▁வந்தார்	-8.6223
▁இந்தச்	-8.62236
▁வரி	-8.62279
▁50	-8.62285
▁கூறியுள்ளார்	-8.62494
20	-8.62529
ங்களின்	-8.62646
என்	-8.6284
▁எதிர்பார்க்க	-8.62864
▁கடுமையாக	-8.62881
▁பாராளுமன்ற	-8.62881
▁அண்ணாமலை	-8.63224
▁ஆண்டுகளாக	-8.63276
▁இனி	-8.63404
▁தா	-8.63424
▁குற்றச்சாட்டு	-8.63442
▁மத்தியில்	-8.6355
▁சோதனை	-8.63814
▁முழு	-8.6384
▁கேட்ட	-8.63906
▁மக்களின்	-8.63978
▁சென்னையில்	-8.64102
ிருக்க	-8.64175
களுக்கான	-8.64198
▁ஏற்பட்டது	-8.64377
நா	-8.64418
▁தேடி	-8.64438
▁மாவட்டத்தில்	-8.64445
க்கூடிய	-8.64622
▁மின்	-8.64641
▁கூட்டத்தில்	-8.64765
மீ	-8.64955
ரின்	-8.65158
▁பாகிஸ்தான்	-8.65192
▁16	-8.65356
ப்பா	-8.65378
▁தகவல்கள்	-8.65468
▁ஏற்கனவே	-8.65541
▁மனித	-8.65547
த்திலும்	-8.65554
▁தன்னுடைய	-8.65638
▁மாணவி	-8.65653
▁13	-8.65791
ோடு	-8.66257
▁கேட்டு	-8.66332
ார்கள்	-8.6634
▁எனது	-8.66383
▁கூறிய	-8.66421
▁நடத்திய	-8.66497
ுகிறார்	-8.66569
▁கல்லூரி	-8.66653
▁காண	-8.66836
கர்	-8.66838
▁மருத்துவமனையில்	-8.6685
▁நபர்	-8.67071
▁உச்ச	-8.67074
களுக்கும்	-8.67156
▁பால்	-8.67281
▁மேற்கு	-8.67462
▁இருந்தால்	-8.67634
ள்ள	-8.67783
வன்	-8.68232
▁நீதிமன்றத்தில்	-8.68241
▁வாழ்க்கை	-8.68279
ரோ	-8.6836
▁ஆண்டுகள்	-8.68378
▁அழைத்து	-8.68422
▁அளிக்க	-8.68478
▁விஜய்	-8.68535
▁கடைசி	-8.6854
▁நம்	-8.6863
▁ஸ்	-8.68884
▁தொடர்	-8.68959
▁பிரிவு	-8.69095
▁இருப்பது	-8.69151
▁வாங்கி	-8.69296
▁நரேந்திர	-8.6947
▁எதுவும்	-8.69489
▁கவனம்	-8.69569
▁ரன்கள்	-8.69569
▁14	-8.69597
▁முறையில்	-8.69813
▁வழி	-8.69984
▁முறையாக	-8.70153
▁முடியவில்லை	-8.70188
▁நடைபெற	-8.70288
▁கோயிலில்	-8.70397
▁மாநிலம்	-8.70693
▁உக்ரைன்	-8.70702
▁உங்களுக்கு	-8.70724
க்கள்	-8.70784
▁சந்தித்து	-8.70788
▁சொந்த	-8.70851
ஆ	-8.7087
▁சமீபத்தில்	-8.70918
களிலும்	-8.71516
▁17	-8.71653
களிடம்	-8.71703
▁காலம்	-8.71826
▁பற்றிய	-8.71846
▁விவகாரம்	-8.71876
▁தேவையான	-8.71878
ச்சு	-8.72075
▁தன்னை	-8.72075
▁இதுகுறித்து	-8.72129
ப்படவில்லை	-8.72452
▁நடிகர்	-8.72475
▁அதிகரித்து	-8.72626
▁கான்	-8.72726
வால்	-8.72774
▁கூடிய	-8.72847
ூர்	-8.72869
ுக்கும்	-8.73126
▁வட	-8.73236
ுவதாக	-8.7333
சன்	-8.73416
▁ரஷ்ய	-8.73436
▁குழந்தைகள்	-8.73558
▁வேண்டாம்	-8.73572
▁திருவிழா	-8.736
ுவதற்கான	-8.73601
▁நோக்கி	-8.73757
▁நாட்கள்	-8.73815
▁ஐந்து	-8.73883
▁போட்டு	-8.73884
▁ஏராளமான	-8.7397
ய்	-8.74043
▁ஆலோசனை	-8.74096
▁விரைவில்	-8.74193
▁நமது	-8.74232
▁சாலை	-8.7439
வாக	-8.74453
வரை	-8.74467
ிலிருந்து	-8.74646
▁நோய்	-8.74736
▁முக்கியமான	-8.74771
▁படை	-8.74884
இல்	-8.74911
o	-8.74922
ுதல்	-8.7515
▁அவர்களை	-8.75224
▁பொதுமக்கள்	-8.75405
▁போட்டியில்	-8.75479
▁அம்மன்	-8.75601
▁ஒன்றை	-8.75634
க்குள்	-8.75665
▁இரண்டாவது	-8.75774
▁மகா	-8.75819
▁வாக்கு	-8.76059
▁குறிப்பிட்டார்	-8.76235
▁ர	-8.76465
▁போக	-8.76538
▁இட	-8.76559
▁சிறந்த	-8.76691
▁உற்பத்தி	-8.76832
▁மும்பை	-8.77193
▁பேசினார்	-8.77194
▁அனுப்பி	-8.77258
▁ஏற்படுத்த	-8.77288
ும்போது	-8.77466
▁நடக்கிறது	-8.77507
▁மிகப்பெரிய	-8.77604
விற்கு	-8.7779
▁ஜ	-8.77792
▁வெளியிட்ட	-8.78147
எம்	-8.78214
▁செய்வது	-8.78222
ன்னு	-8.78512
▁யாரும்	-8.78644
மோ	-8.78678
▁24	-8.78703
▁வளர்ச்சி	-8.79011
வர	-8.79025
▁போக்குவரத்து	-8.79029
▁நில	-8.79516
▁நி	-8.7955
▁100	-8.79585
▁மேற்கொள்ள	-8.79752
▁தெரிவிக்க	-8.79753
▁மொத்தம்	-8.80226
▁ஏற்படுத்தி	-8.80267
▁நீ	-8.80404
▁ஜூலை	-8.80476
▁வீரர்கள்	-8.80532
▁டாக்டர்	-8.80688
களைப்	-8.8073
ாது	-8.80731
ருக்கு	-8.80767
▁போய்	-8.80875
▁திடீரென	-8.80916
▁செய்யப்பட்டது	-8.80927
▁எல்லா	-8.80949
▁25	-8.8103
று	-8.81415
▁கட்டி	-8.81432
▁வீரர்	-8.8147
ந	-8.81487
▁திருமண	-8.8151
▁கேட்க	-8.81755
▁தரப்பு	-8.81852
▁கா	-8.81973
▁தங்கள	-8.82047
ிறது	-8.82091
ுகின்றனர்	-8.82158
லில்	-8.82257
▁என்கிற	-8.82296
▁நா	-8.82336
ணி	-8.82479
▁மாநிலத்தில்	-8.82487
▁மற்றொரு	-8.8256
▁பேச்சுவார்த்தை	-8.82615
ராக	-8.82697
▁விழாவில்	-8.82739
▁கண்ட	-8.82831
▁பிரதேச	-8.82874
ுமாறு	-8.8298
னின்	-8.83091
▁குறைந்த	-8.83329
▁அதன்படி	-8.83437
▁பயன்படுத்தி	-8.83539
▁கடுமையான	-8.83768
▁சக்தி	-8.83893
▁பொதுக்குழு	-8.83916
▁போட	-8.83939
▁பணிகள்	-8.84118
களைக்	-8.84153
▁மலை	-8.84188
▁கிரிக்கெட்	-8.84205
▁செய்தது	-8.84227
▁கிடைத்த	-8.84243
க்குப்	-8.84259
▁சிறு	-8.8427
▁விடுதலை	-8.843
▁பங்கு	-8.84383
▁இவர்கள்	-8.84463
ீ	-8.84599
▁மார்ச்	-8.84777
▁கதை	-8.84837
ண்ட	-8.84854
▁ஆகும்	-8.84911
▁2022	-8.84913
வர்களுக்கு	-8.84926
▁சிறப்பாக	-8.84933
▁தீவிர	-8.84971
▁மருத்துவர்	-8.84981
▁தலை	-8.85133
▁தனக்கு	-8.85142
▁அளவு	-8.85164
▁மி	-8.85247
▁மாற்றம்	-8.85371
▁எங்களுக்கு	-8.85393
▁சேர்ந்து	-8.85531
▁நிர்வாகிகள்	-8.85581
▁தரிசனம்	-8.85652
பு	-8.85695
ூ	-8.85698
▁கொள்கை	-8.85907
ியது	-8.8593
யம்	-8.86225
▁பணத்தை	-8.86576
▁செய்யப்பட்டு	-8.86781
ஹ	-8.86965
▁சின்ன	-8.87047
▁சசிகலா	-8.87093
▁பக்கம்	-8.87291
▁சூழலில்	-8.87311
▁ஆறு	-8.87311
▁குமார்	-8.87346
▁காட்ட	-8.87368
▁சுகாதார	-8.87402
▁வழியாக	-8.87429
க்கி	-8.87646
▁சனி	-8.87679
ிருக்கிறார்கள்	-8.87691
யைச்	-8.87701
▁மொழி	-8.87878
த்துறை	-8.8799
▁அதேபோல	-8.88093
ிருக்கின்றனர்	-8.88124
▁நிறைய	-8.882
▁வெளிநாட்டு	-8.88255
▁இணை	-8.88294
▁பேச்சு	-8.88302
▁தினம்	-8.88305
▁சிறிய	-8.88307
▁ஒ	-8.88309
ங்களும்	-8.88395
▁சங்க	-8.88609
▁இதுபோன்ற	-8.88724
▁மனு	-8.88758
ிட	-8.88806
▁மக்களை	-8.88876
▁கிலோ	-8.88882
▁ரத்த	-8.88999
▁மாறி	-8.89158
▁அடுத்து	-8.89439
ுமா	-8.89447
ப்பட்டுள்ளன	-8.89564
▁படி	-8.8962
▁பிறந்த	-8.89782
▁அம்மா	-8.89795
▁அபிவிருத்தி	-8.89837
▁விபத்து	-8.89941
▁சரியான	-8.89988
▁பெ	-8.90282
▁வா	-8.90339
▁ஜூன்	-8.90375
ுகிறார்கள்	-8.90527
யைப்	-8.90532
▁உரிய	-8.9055
யூ	-8.90604
▁விவகாரத்தில்	-8.90623
▁அந்தக்	-8.90626
▁அறிக்கையில்	-8.90662
▁திரும்ப	-8.9069
▁40	-8.90742
▁சுற்றி	-8.90788
▁இயக்குநர்	-8.91212
விடம்	-8.91218
▁வகை	-8.91277
ெ	-8.91438
▁பணியில்	-8.91502
▁கூற	-8.91559
▁பல்கலைக்கழக	-8.91593
▁போன	-8.917
▁கிழக்கு	-8.91735
▁சந்தித்த	-8.92059
▁பால	-8.92079
▁குற்றம்	-8.92329
▁தண்டனை	-8.92656
ட்டை	-8.9275
▁தொடங்கிய	-8.92768
▁நிலைமை	-8.92932
▁அருகில்	-8.92956
9	-8.93087
க்கா	-8.93173
▁திட்டத்தை	-8.93202
த்தையும்	-8.93227
யையும்	-8.93286
னுக்கு	-8.9339
▁எனத்	-8.93469
▁மருத்துவமனை	-8.9355
ுக்கான	-8.93666
ுங்கள்	-8.93756
▁அறிவிக்கப்பட்ட	-8.93805
த்திலிருந்து	-8.93824
▁தொழில்நுட்ப	-8.9385
▁உண்மை	-8.93896
▁முடிந்த	-8.93936
▁ஆண்டுகளில்	-8.93988
▁சரியாக	-8.94014
▁அனுப்ப	-8.94067
▁அறிவிப்பு	-8.94148
▁தொகை	-8.94171
▁உயிரிழந்த	-8.94222
▁கிடையாது	-8.94229
▁நிறுவனங்கள்	-8.94237
▁S	-8.94332
▁இயக்க	-8.94431
▁சோ	-8.94491
▁வழங்கப்படும்	-8.94517
ரே	-8.94805
▁பிடித்த	-8.95114
▁அதிகரிக்கும்	-8.95188
▁தற்கொலை	-8.95217
▁தடுக்க	-8.95289
▁காட்சி	-8.9531
▁தெரிவித்தனர்	-8.95402
ரிய	-8.95582
ண்ட்	-8.95761
▁உத்தரவு	-8.95856
▁நிகழ்ச்சியில்	-8.95965
சை	-8.95968
தும்	-8.96107
▁செயல்பட	-8.96128
▁ஏற்பாடு	-8.96314
ுவதற்காக	-8.96323
▁ஆட்சியில்	-8.96351
ஷா	-8.96377
▁தொடங்கியது	-8.96474
ப்படுகின்றன	-8.96485
▁நாட்டு	-8.96532
க்கொண்டு	-8.96665
▁நிலையத்தில்	-8.96705
▁தொடங்க	-8.96744
▁வழங்கிய	-8.96762
▁தண்ணீர்	-8.96786
▁ரணில்	-8.96874
▁சொன்ன	-8.96931
▁மாதிரி	-8.96938
▁வகுப்பு	-8.96956
▁தாய்	-8.97093
▁தலைமையிலான	-8.97361
ுவோம்	-8.97393
ிருப்பது	-8.97435
▁உயிர்	-8.9745
▁பே	-8.97496
▁ஏற்ற	-8.97538
▁விவசாய	-8.97565
▁முன்னதாக	-8.97597
▁தரப்பில்	-8.97661
▁21	-8.9785
▁வேட்பாளர்	-8.97852
▁கலை	-8.97888
▁இளைஞர்	-8.97892
▁2024	-8.97914
▁சட்டசபை	-8.97964
▁பண	-8.98156
குமார்	-8.98227
▁நடக்க	-8.98562
ைப்	-8.9858
▁தொகுதி	-8.9872
▁வந்தனர்	-8.98805
▁ஏற்பட்டுள்ளது	-8.98863
▁கூடுதல்	-8.9889
▁போ	-8.98966
▁து	-8.9902
▁அவசியம்	-8.99188
▁வீட்டு	-8.99214
▁ரத்து	-8.99225
▁பரபரப்பை	-8.99231
▁இருக்கலாம்	-8.99262
▁முக	-8.99348
▁குறித்தும்	-8.99359
▁அவருடைய	-8.99501
▁வருகிறார்கள்	-8.99628
▁வெளியாகி	-8.99791
ுகின்றன	-8.99889
▁பெருமாள்	-8.99988
▁நாட்களுக்கு	-9.00323
▁வன்முறை	-9.0043
▁தோல்வி	-9.0044
▁சபை	-9.00795
▁நாளில்	-9.00796
▁தற்போதைய	-9.01002
▁நிர்வாக	-9.01013
▁உண்டு	-9.01019
ுவதை	-9.01069
▁நிறைவேற்ற	-9.01176
▁எப்போதும்	-9.01467
▁சர்ச்சை	-9.01517
▁திகதி	-9.01547
▁ரசிகர்கள்	-9.01573
▁தொடர்பில்	-9.01578
▁உடனே	-9.01652
▁எவ்வளவு	-9.01742
▁தெரியவில்லை	-9.01891
▁அரசுக்கு	-9.01988
▁தலைவராக	-9.02004
▁சிறுமி	-9.02033
▁மாநகராட்சி	-9.02046
▁நாட்டை	-9.02091
▁சட்டமன்ற	-9.02142
▁இலங்கையில்	-9.02184
▁எனும்	-9.02493
▁ஜெயலலிதா	-9.02507
▁நெருக்கடி	-9.02522
▁தெரியும்	-9.02668
ிலேயே	-9.02681
1	-9.02833
▁செயல்	-9.02851
▁அமைக்க	-9.0286
கம்	-9.02866
▁சீன	-9.02868
▁மாவட்டங்களில்	-9.02915
▁கவலை	-9.02945
y	-9.0299
யி	-9.03009
▁வழங்கி	-9.03018
▁அடைந்த	-9.03061
▁பாட	-9.03131
யன்	-9.03166
▁வசதி	-9.03336
▁தொற்று	-9.03355
▁ஊடக	-9.0369
▁இதற்காக	-9.03692
உ	-9.03844
வேண்டும்	-9.03888
▁கையில்	-9.0395
▁அரசாங்க	-9.03978
பே	-9.04084
▁போட்டியிட	-9.04212
▁மாநிலங்களில்	-9.04216
▁23	-9.04259
▁குறிப்பிட	-9.04338
▁மோசமான	-9.04346
▁மோதல்	-9.0435
▁ஒருங்கிணைப்பாளர	-9.04396
▁இறுதி	-9.04691
▁நிர்வாகம்	-9.04794
▁மேற்கொண்டு	-9.04806
▁சேர்ந்தவர்	-9.04975
வரின்	-9.04997
தோ	-9.05082
▁22	-9.05095
▁வருகை	-9.05231
▁தீர்ப்பு	-9.05385
▁உள்ளே	-9.05503
▁குஜராத்	-9.05568
▁இருக்கின்றன	-9.0572
▁அதிர்ச்சி	-9.05874
▁தவறு	-9.05978
ஞ்ச	-9.06042
▁இவை	-9.06066
▁சார்ந்த	-9.06112
ண்டி	-9.06141
i	-9.06323
▁தெரிய	-9.06334
▁கொண்டனர்	-9.06339
▁ஐக்கிய	-9.06353
▁பிரச்சனை	-9.06376
▁சிறையில்	-9.06382
▁பக்கத்தில்	-9.06476
▁சேர்த்து	-9.06504
ண்டு	-9.06535
▁நாடுகளில்	-9.0661
▁தெரிகிறது	-9.06644
▁நிலைய	-9.06921
▁வருவதாக	-9.07067
▁முழுமையாக	-9.07094
▁நிறுவனத்தின்	-9.07138
3	-9.07182
▁பிடித்து	-9.07211
இந்த	-9.07395
▁ஆகியவை	-9.07411
▁பழைய	-9.07412
▁அதற்கான	-9.07447
▁பேராசிரியர்	-9.07472
ாய்	-9.07583
▁மொத்த	-9.07716
▁இதே	-9.07728
▁அதேபோல்	-9.07751
கள	-9.07765
ப்பட்டன	-9.0784
ிருப்பதாக	-9.07854
2	-9.08159
▁ஆண்	-9.08321
▁இன்னொரு	-9.08402
ராஜ்	-9.08417
▁சாதி	-9.08445
▁ஆளும்	-9.08459
▁பொறுப்பு	-9.08491
▁புது	-9.08629
▁விளையாட்டு	-9.08629
ஜ்	-9.08684
▁எதிர்	-9.08777
ொ	-9.08828
▁முதலீடு	-9.08879
▁வழங்கும்	-9.08879
▁நீட்	-9.08935
▁பஞ்சாப்	-9.08936
ாங்க	-9.08988
மன்	-9.09035
ஃப்	-9.0907
▁ஜா	-9.09079
▁இறந்த	-9.09122
லே	-9.09272
▁சூழல்	-9.09404
A	-9.09443
▁நேரடியாக	-9.09449
▁கட்டுப்படுத்த	-9.09483
▁கௌரவ	-9.09582
ஷி	-9.09586
▁எதிர்க்கட்சி	-9.09588
ஹா	-9.09627
▁தந்த	-9.09755
களான	-9.09781
▁திட்ட	-9.09786
▁கால்	-9.09868
▁சந்திக்க	-9.0999
▁விவசாயிகள்	-9.10169
▁அங்கே	-9.10171
▁ஜோ	-9.10316
▁மோசடி	-9.10342
▁இரண்டாம்	-9.10494
▁அதைத்	-9.10505
▁சிவ	-9.10529
ைக்	-9.10571
▁கடிதம்	-9.10595
▁கண்	-9.10683
▁பாலாஜி	-9.10814
▁ஓர்	-9.10837
▁வெளியிட	-9.10853
▁அதிகரிக்க	-9.10866
▁பெரும்பாலான	-9.10936
▁உறவு	-9.1097
▁செல்வ	-9.10979
4	-9.11017
தில்லை	-9.11135
தற்கான	-9.1116
விட்டார்	-9.11284
▁சிலை	-9.11305
▁கட்சிகள்	-9.1136
▁A	-9.11389
▁மகள்	-9.11535
▁வழக்கம்	-9.1156
யோடு	-9.11584
யில	-9.11755
▁மாற	-9.11823
▁நேரில்	-9.11872
▁பெயரில்	-9.11941
▁வழிபாடு	-9.12016
யைக்	-9.12177
▁ஈடுபட்ட	-9.12203
▁வென்ற	-9.12208
▁தினமும்	-9.12214
▁வெளி	-9.12279
க்கூடாது	-9.12315
▁கடல்	-9.12391
ளை	-9.12429
▁எண்ணெய்	-9.12501
/	-9.12562
▁நமக்கு	-9.12595
ப்பை	-9.12635
▁வீர	-9.12642
▁கணவர்	-9.12718
▁பொருட்களை	-9.12722
▁விநாயகர்	-9.1281
▁ஏப்ரல்	-9.12948
▁செலவு	-9.12951
▁கொண்டார்	-9.13126
▁பட்ட	-9.13131
7	-9.13196
களே	-9.132
▁ஒன்றாக	-9.13213
▁நாட்களில்	-9.13267
▁இணைய	-9.13282
▁ஏற்படுத்திய	-9.13287
▁அதோடு	-9.13321
டர்	-9.13353
▁மாணவர்	-9.13368
▁அரசாங்கம்	-9.13404
▁என்பவர்	-9.13435
▁அதிகமான	-9.13464
al	-9.13481
▁பிப்ரவரி	-9.13564
ுவார்கள்	-9.13636
போ	-9.13676
▁உறுப்பினர்கள்	-9.13686
▁இங்கே	-9.13735
▁எச்சரிக்கை	-9.13736
▁ரி	-9.13761
▁மூலமாக	-9.13813
▁நடிகை	-9.14026
p	-9.14043
▁பக்தர்களுக்கு	-9.14382
▁சொத்து	-9.1444
▁தொகுதியில்	-9.14565
னும்	-9.14801
ோர்	-9.14864
▁மில்லியன்	-9.14865
▁காட்டி	-9.14943
▁இசை	-9.15021
▁பொருட்கள்	-9.15145
▁வெறும்	-9.15286
தோடு	-9.15291
▁நேர	-9.15366
▁சுதந்திர	-9.15508
▁அப்பா	-9.15546
▁நீதி	-9.15696
▁வெளியான	-9.15699
▁மது	-9.15717
ாள்	-9.15922
தற்காக	-9.16019
▁திருச்சி	-9.16102
▁இவ்வாறு	-9.16109
▁ஏற்கெனவே	-9.16239
▁நிகழ்வு	-9.16291
▁படத்தில்	-9.16347
▁அணை	-9.16365
▁கொ	-9.16669
▁அறிவித்த	-9.16724
▁அடிக்கடி	-9.16921
▁ஆடி	-9.16969
▁விஷயம்	-9.1699
▁குறைக்க	-9.17005
னே	-9.17042
▁அலை	-9.17097
▁தீவிரமாக	-9.17355
▁திட்டத்தின்	-9.17473
ஸ	-9.17612
▁நம்ப	-9.17776
யு	-9.17801
ிருந்தனர்	-9.17813
▁செந்தில்	-9.17872
▁இருப்பதால்	-9.17883
▁மெ	-9.18079
▁கடை	-9.18083
▁உள்ளதாக	-9.18147
▁அமைச்சரவை	-9.18171
▁நல	-9.18183
▁கட்சியில்	-9.18212
▁நடவடிக்கைகள்	-9.18284
▁விக்ரமசிங்க	-9.1834
R	-9.18382
▁கர்நாடக	-9.18382
ுக்காக	-9.18463
▁கொண்டிருந்த	-9.18686
▁செய்யப்பட்டுள்ள	-9.18926
▁சினிமா	-9.18945
ல்ல	-9.18993
▁ஆசிரியர்	-9.19022
▁அழைத்துச்	-9.19073
▁ஜனவரி	-9.19161
றை	-9.19197
S	-9.19198
▁ஈடுபட்டு	-9.19211
▁வீட்டுக்கு	-9.19305
▁இத்தகைய	-9.19324
▁அடிப்படை	-9.19357
▁முழுக்க	-9.19357
▁வேகமாக	-9.19384
களுக்காக	-9.19538
▁அலுவலகத்தில்	-9.19586
er	-9.19772
▁வைரஸ்	-9.19812
▁பேருந்து	-9.19921
▁பதவியை	-9.19958
ஜா	-9.19996
5	-9.20152
▁சிறை	-9.2018
பை	-9.20183
t	-9.2024
▁மேற்கொண்ட	-9.20352
P	-9.20356
▁எதிர்த்து	-9.20407
ுவதில்	-9.20506
▁ஆகஸ்ட்	-9.20576
▁தீர்வு	-9.20704
னோ	-9.20781
ழி	-9.20781
c	-9.20812
▁செயல்படுத்த	-9.20857
ுள்ளதாகவும்	-9.20883
▁யானை	-9.20933
▁பெற்றோர்	-9.20933
),	-9.21175
T	-9.21253
▁அதிகார	-9.21321
▁நீக்க	-9.21375
▁உள்ளூர்	-9.21483
ஷன்	-9.21484
▁நடத்தினர்	-9.21487
க்கே	-9.21499
▁2019	-9.21604
▁ஆராய்ச்சி	-9.2161
▁தகுதி	-9.21672
ிருக்கின்றன	-9.21738
▁அடித்து	-9.21777
▁உடன்	-9.21789
▁ஆணையம்	-9.21901
▁செயல்பட்டு	-9.21907
▁கூட்ட	-9.22149
▁முகமது	-9.22167
▁தமிழர்	-9.22272
▁அணிக்கு	-9.2228
விட்ட	-9.22323
வந்த	-9.22397
▁போட்டிகளில்	-9.22456
▁ஷ	-9.22568
▁பரிசோதனை	-9.22579
▁அல்	-9.22581
r	-9.22606
▁ராகு	-9.22632
▁எண்ண	-9.22637
ட்டா	-9.2268
▁அங்கிருந்து	-9.22722
▁பெண்களுக்கு	-9.2275
▁ஈ	-9.23161
▁கட்சியை	-9.23184
▁முடிவுகள்	-9.23229
▁ஊர்	-9.23236
சர்	-9.23335
▁மூலாதாரம்	-9.23362
▁தயாராக	-9.23386
▁பேருக்கு	-9.23486
▁2021	-9.23506
▁அத்துடன்	-9.23534
ப்போ	-9.23627
ுள்ளோம்	-9.23634
▁கரு	-9.23699
▁அடையாளம்	-9.23701
▁வருவது	-9.23706
▁இன்றைய	-9.23706
▁மருத்துவமனைக்கு	-9.23728
a	-9.23746
▁பெயரை	-9.23765
▁ஏற்படுத்தும்	-9.23816
▁டெல்லியில்	-9.23849
▁விசாரணையில்	-9.23899
புரம்	-9.24034
▁வாரம்	-9.24039
▁மருந்து	-9.24155
▁தடுப்பூசி	-9.24168
▁மகிழ்ச்சி	-9.24344
▁மர	-9.24477
▁அண்ணா	-9.24642
▁அமைச்சர்கள்	-9.24695
▁இன்	-9.24868
▁ஜெ	-9.24916
▁ஊழல்	-9.24919
டோ	-9.24995
▁போராட்டத்தில்	-9.25013
▁முஸ்லிம்	-9.25039
C	-9.25076
▁கண்டுபிடிக்க	-9.25095
▁நடவடிக்கைகளை	-9.25095
▁மாகாண	-9.25257
▁கண்டு	-9.25274
▁இன	-9.25297
▁நின்று	-9.253
▁தமிழகம்	-9.25301
▁ராஜா	-9.25316
▁பார்வை	-9.25325
தாகக்	-9.25346
▁கிராமத்தில்	-9.25391
▁கோலி	-9.25414
▁மாணவர்களுக்கு	-9.25594
ஸ்ட்	-9.256
▁ஹமாஸ்	-9.2561
▁ஒன்றில்	-9.25651
▁சாப்பிட	-9.25652
▁சர்மா	-9.25657
▁விளக்கம்	-9.25662
▁குற்ற	-9.26094
▁வாகன	-9.26136
▁இடத்தை	-9.26182
▁பிரச்சினை	-9.26199
ட்டில்	-9.26309
▁அடித்த	-9.26427
▁மாற்றி	-9.26453
▁பணிகளை	-9.26462
▁அழைப்பு	-9.26484
▁வருமான	-9.26566
த்தா	-9.26586
▁உலகின்	-9.26611
▁ரவி	-9.26692
▁சென்றார்	-9.26781
▁அரசியலில்	-9.26907
ுவார்	-9.271
▁ராசி	-9.27136
▁கொடி	-9.27169
▁அவற்றை	-9.27227
▁அக்டோபர்	-9.27228
ர்கள்	-9.27255
ின்றனர்	-9.2738
களைத்	-9.27461
▁இருக்கிறார்கள்	-9.27544
▁2023	-9.27568
ிருக்கலாம்	-9.27607
ியுள்ளது	-9.27796
▁வடக்கு	-9.27803
▁போட்ட	-9.27955
ீர்கள்	-9.27956
த்தைச்	-9.27977
▁நடித்த	-9.28018
▁பண்ண	-9.28155
▁படிக்க	-9.28275
▁ஏற்படுத்தியுள்ள	-9.28307
▁கிடைத்தது	-9.28343
க்ஸ்	-9.28344
▁ராஜ	-9.28391
▁இதனிடையே	-9.28468
▁60	-9.28523
▁நன்றி	-9.28541
▁எம்பி	-9.28547
▁எல்லை	-9.28561
▁இல்	-9.28656
▁தொடர்ச்சியாக	-9.28677
▁ஆனாலும்	-9.28684
செ	-9.28756
▁பக்க	-9.28893
▁விசாரிக்க	-9.29023
▁ஆசை	-9.29057
u	-9.29109
▁ஆதரவாக	-9.29112
▁வே	-9.29132
▁உதயநிதி	-9.29194
..!	-9.29503
▁தமது	-9.29571
▁பெட்ரோல்	-9.29597
▁கிடைக்க	-9.29645
▁ஜனநாயக	-9.29676
▁ஈடுபட	-9.29754
▁இளம்	-9.29796
▁விருது	-9.29803
▁சட்டத்தின்	-9.29864
▁வழக்கை	-9.29901
▁சே	-9.29903
▁சுற்றுலா	-9.29926
▁திராவிட	-9.29944
▁என்றாலும்	-9.29974
▁ஆட்சியை	-9.29977
▁என்னுடைய	-9.30009
▁நினைவு	-9.30013
▁வழங்கப்பட்டது	-9.30041
B	-9.30208
▁வலி	-9.30512
▁வார	-9.30598
▁புதிதாக	-9.30661
▁டிசம்பர்	-9.30673
▁சென்றனர்	-9.30682
ப்பட்டுள்ள	-9.30698
ிறார்	-9.30762
வர்களை	-9.30938
▁வழக்கறிஞர்	-9.31005
▁ஃப	-9.3103
▁இடையிலான	-9.31031
▁இயற்கை	-9.31073
▁வெளியிட்டுள்ள	-9.31128
▁திரைப்பட	-9.31402
▁அனைவருக்கும்	-9.31408
d	-9.31419
▁முக்கியத்துவம்	-9.31588
6	-9.31782
▁முடியாமல்	-9.31811
▁விசாரணைக்கு	-9.31821
▁உலகம்	-9.31829
▁வைக்கப்பட்ட	-9.31947
▁பெறும்	-9.31974
▁ஒன்றிய	-9.32014
▁குறைவாக	-9.32035
டில்	-9.32067
▁பீ	-9.32085
▁அதிமுகவில்	-9.32086
▁குரல்	-9.32114
▁தொடர	-9.32117
▁தொழிலாளர்	-9.32127
▁பொறுத்தவரை	-9.32146
▁வயதான	-9.32161
லோ	-9.3219
▁ரா	-9.32191
▁கூறுகின்றனர்	-9.32202
▁தகவல்களை	-9.32235
▁கழக	-9.32377
▁அபிஷேகம்	-9.32422
▁மாற்று	-9.3245
▁நன்றாக	-9.32524
▁அவரிடம்	-9.32572
▁மண்டல	-9.32622
▁அனைத்தும்	-9.32627
▁பொருள்	-9.32675
▁பின்பற்ற	-9.32739
ஸி	-9.3276
▁அவசர	-9.32798
▁வெ	-9.32885
க்கொண்ட	-9.3291
▁ரயில்வே	-9.32942
▁ரன்களை	-9.32944
▁எழுத	-9.33044
▁எடுத்துக்	-9.33209
▁கொண்டாட	-9.33278
▁27	-9.33381
▁ஜே	-9.3339
▁மூன்றாவது	-9.33477
னார்	-9.33546
▁முடிவுக்கு	-9.33649
▁ரூபா	-9.33664
யிலேயே	-9.33713
▁போலவே	-9.33787
ந்	-9.33917
▁மரியாதை	-9.33941
ம்பு	-9.34129
▁சற்று	-9.34262
▁மதிப்பு	-9.34264
▁ஏற்படுத்தியது	-9.34268
▁கேப்டன்	-9.34284
▁பிரதான	-9.34487
▁ஆட்சிக்கு	-9.3449
▁தரும்	-9.34495
▁கொஞ்சம்	-9.34506
▁பகவான்	-9.34577
▁கொண்டே	-9.34594
▁நகரில்	-9.34659
▁ட்விட்டர்	-9.34696
▁பெற்றது	-9.34778
k	-9.3484
▁சதவீத	-9.34938
▁மாதத்தில்	-9.35037
.1	-9.3505
▁போதும்	-9.3505
ட்டும்	-9.35327
8	-9.35369
▁திறந்து	-9.35382
▁ரன்	-9.35495
▁ராம	-9.35509
மணி	-9.35608
▁பள்ளியில்	-9.35624
▁திரும்பி	-9.35683
பர்	-9.35769
ாளர்	-9.35794
▁எழுதிய	-9.35954
I	-9.35997
▁காதல்	-9.36004
▁மையம்	-9.36087
▁செய்யப்படும்	-9.36153
▁புனித	-9.36166
▁அதிகாலை	-9.36167
▁திட்டங்கள்	-9.36169
▁வர்த்தக	-9.36176
ண்	-9.3633
▁பயணிகள்	-9.36356
▁உயர்வு	-9.3636
▁26	-9.36388
▁சாதனை	-9.36389
▁விதமாக	-9.36391
ராஜ	-9.36441
▁தாக்க	-9.36499
▁பதிலாக	-9.36559
ற்று	-9.36588
▁இருந்தனர்	-9.36592
லின்	-9.36612
▁இல்ல	-9.36649
▁வருமானம்	-9.36753
ரும்	-9.36835
▁சம்பந்தப்பட்ட	-9.36915
▁கோரி	-9.3694
▁சந்தை	-9.37043
▁ராஜஸ்தான்	-9.37061
▁அதிரடி	-9.37063
▁பூஜைகள்	-9.3726
▁உதவ	-9.37282
யைத்	-9.37341
ங்கி	-9.37427
▁மீட்டர்	-9.37441
▁வாக்குகள்	-9.37476
▁ஒதுக்கீடு	-9.3754
▁கொழும்பு	-9.37644
▁மேற்கொள்ளப்பட்ட	-9.37731
▁முன்னர்	-9.37776
வெ	-9.37894
▁மிகுந்த	-9.37941
▁தெரிவிக்கப்பட்ட	-9.37978
பதி	-9.38007
▁தாண்டி	-9.38134
▁தெரியவந்தது	-9.38261
ar	-9.38264
▁இலங்கையின்	-9.38317
ாரா	-9.38335
ைத்	-9.38375
நிலை	-9.38466
▁நகர்	-9.38524
ஸ்டாலின்	-9.38606
an	-9.38615
ரம்	-9.38644
▁எனப்	-9.38649
தர்	-9.38694
க்கை	-9.38695
▁கோப்பை	-9.38696
▁வானிலை	-9.38734
▁தவறான	-9.38804
▁செப்டம்பர்	-9.38953
▁வரலாற்று	-9.38981
▁ரோ	-9.38999
▁முன்பாக	-9.39059
▁பொதுவாக	-9.39095
▁ராஜினாமா	-9.39135
▁நண்பர்	-9.39143
▁வன்கொடுமை	-9.39336
▁ஆன்லைன்	-9.39337
▁வலைதளங்களில்	-9.39347
▁தூக்கி	-9.39382
▁ஏற்க	-9.39396
▁மேம்படுத்த	-9.39434
▁ஏற்பட	-9.39454
▁தனியாக	-9.39509
▁சண்டை	-9.39551
▁மரண	-9.39559
M	-9.39631
▁துவங்கியது	-9.39631
▁தவிர்க்க	-9.39656
▁இடம்பெற்ற	-9.39703
▁மேலாக	-9.39738
▁வீ	-9.39748
▁வலியுறுத்தி	-9.3977
வான	-9.39817
▁அவர்கள	-9.39873
▁பை	-9.39973
▁சம்பவ	-9.40022
▁மகளிர்	-9.40145
மீது	-9.40278
பின்	-9.40278
▁ஊழியர்கள்	-9.40304
▁நிலையம்	-9.40588
▁B	-9.40598
▁செலுத்தி	-9.40656
ைச்	-9.40659
▁சதவீதம்	-9.40689
த்திற்காக	-9.40739
▁வீசிய	-9.40749
▁கருணாநிதி	-9.4077
▁கீழே	-9.40793
▁28	-9.40832
▁அமைதி	-9.40862
▁திட்டங்களை	-9.40884
▁செய்துள்ளார்	-9.4095
பன்னீர்செல்வம்	-9.41103
▁சேலம்	-9.41172
▁பொ	-9.41226
▁பெரு	-9.41309
▁விக்கெட்	-9.41371
▁என்கிறார்கள்	-9.41427
▁கப்பல்	-9.41447
▁வைத்தார்	-9.41491
லுக்கு	-9.41533
▁நல்லது	-9.41548
▁?	-9.41606
▁படத்தை	-9.41629
▁மூ	-9.41818
▁விழுந்த	-9.41898
▁என்றே	-9.41912
ழு	-9.41993
▁பிடிக்க	-9.42014
▁ஏற்பட்டு	-9.4207
▁அனுமதிக்க	-9.42093
▁கொடுக்கும்	-9.42104
ிருக்கிறோம்	-9.42127
▁அப்படியே	-9.42169
ிறோம்	-9.42229
▁ட	-9.42229
▁இருப்பதை	-9.4225
▁எப்போது	-9.42312
.5	-9.42376
▁பரிசு	-9.42498
சாமி	-9.42524
▁முதல்வராக	-9.42529
▁வாழ	-9.42591
ிக்	-9.42603
▁எனினும்	-9.42613
னால்	-9.42632
▁இருந்தன	-9.42694
லு	-9.42707
▁குடியரசுத்	-9.42846
▁தனிப்பட்ட	-9.42851
▁ஜெய	-9.42863
▁இந்தியாவுக்கு	-9.42865
▁படத்தின்	-9.42871
▁தேர்	-9.42942
வர்களின்	-9.42984
▁நியமிக்கப்பட்ட	-9.42997
▁ஏற்பாடுகளை	-9.43011
ுமான	-9.43072
▁இஸ்லாமிய	-9.43149
▁ரீதியாக	-9.43203
▁பொதுச்	-9.43272
ங்கா	-9.43335
▁டீ	-9.43497
▁இலவச	-9.43567
▁எத்தனை	-9.43633
▁இருக்கு	-9.43635
▁சாமி	-9.43659
▁பகிர்ந்து	-9.43673
▁காவல்துறையினர்	-9.43694
▁டெஸ்ட்	-9.43714
▁வீட்டிற்கு	-9.4373
▁கடந்து	-9.43844
▁விளையாட	-9.43932
▁இதுதான்	-9.43975
▁போன்	-9.44023
▁விமர்சனம்	-9.44096
வொரு	-9.44127
▁முடிந்தது	-9.44145
▁பரவி	-9.44156
க்களை	-9.44226
▁சார்	-9.44444
▁வரலாறு	-9.44445
ப்படுத்த	-9.44451
▁ஏற்றுமதி	-9.44492
▁கிட்டத்தட்ட	-9.44503
▁என்பதே	-9.4453
▁கூறுகிறது	-9.44541
▁தங்களுக்கு	-9.44545
▁நோ	-9.4458
▁M	-9.44691
▁வார்த்தை	-9.44729
▁நாட்களாக	-9.44849
▁நிறுத்தி	-9.44871
▁நவம்பர்	-9.44945
▁வீதி	-9.44991
▁பத்து	-9.45016
▁தீர்மானம்	-9.45018
▁இளைஞர்கள்	-9.45135
▁நாணய	-9.45137
▁நகராட்சி	-9.45151
▁வெள்ளி	-9.45178
▁எங்க	-9.45253
▁பாரம்பரிய	-9.45355
▁திடீர்	-9.45356
D	-9.45411
00	-9.45428
▁கட்டணம்	-9.45481
▁பிரபல	-9.45493
▁அங்குள்ள	-9.45513
▁பார்க்கலாம்	-9.45551
▁புதுச்சேரி	-9.45592
▁இழந்த	-9.45616
▁குடும்பத்தினர்	-9.45684
க்கொள்ள	-9.45736
சோ	-9.45902
▁விவசாயி	-9.45963
▁படித்து	-9.45976
▁தேர்ந்தெடுக்க	-9.45999
▁நிச்சயம்	-9.46041
த்தோடு	-9.46048
▁200	-9.46241
ிற	-9.46251
▁துறையில்	-9.46483
▁இதற்கான	-9.46486
▁சேர	-9.46492
▁கருத	-9.4654
▁பொங்கல்	-9.4655
▁கேது	-9.46753
▁மருத்துவர்கள்	-9.46762
ிறார்கள்	-9.46794
▁சாலையில்	-9.46828
▁பெருமை	-9.46849
▁பேரும்	-9.4687
த்தைப்	-9.46966
▁லா	-9.47042
▁ஆஃப்	-9.47127
▁தே	-9.4718
O	-9.4718
▁சமய	-9.47194
▁தொடக்க	-9.47244
▁ஆத்மி	-9.47318
▁கேரளா	-9.4732
▁ஏதாவது	-9.47322
E	-9.47394
▁ஆரம்ப	-9.47398
▁விடுமுறை	-9.47517
▁உள்பட	-9.4759
த்திற்கான	-9.47598
▁அறிவிக்க	-9.47647
▁வாய்ப்புகள்	-9.4765
ப்படி	-9.47692
▁ஹா	-9.47709
▁தொடரில்	-9.47718
▁தின	-9.47782
g	-9.47889
ிருந்தால்	-9.47954
சீ	-9.47994
▁தேர்தலை	-9.48003
▁எல்	-9.48042
▁திறன்	-9.48075
▁உடலை	-9.48117
த்தைக்	-9.48167
▁விளக்க	-9.48199
▁கள	-9.48233
▁நிறைவு	-9.48246
▁ஆரம்பித்த	-9.483
▁செய்துள்ளனர்	-9.48361
ளா	-9.48382
▁கேரள	-9.48412
▁தேனி	-9.48441
▁டெ	-9.4848
▁வங்கதேச	-9.48574
▁கள்ளக்குறிச்சி	-9.48626
▁டிவி	-9.48663
▁வசித்து	-9.4869
▁அதற்காக	-9.4876
▁சொந்தமான	-9.48812
▁ஊழியர்	-9.48854
பர	-9.48882
கிறது	-9.48949
▁தொடர்புடைய	-9.49074
▁C	-9.49128
▁வயதில்	-9.49128
▁உயர்த்த	-9.49214
ங்களிலும்	-9.4937
▁இதற்கிடையே	-9.49504
▁கூ	-9.49558
▁பேரை	-9.49567
▁சூரிய	-9.49572
▁உறுதியாக	-9.49677
▁வெளியேற	-9.49791
▁மாதங்களுக்கு	-9.49831
விட்டனர்	-9.49871
▁பாதை	-9.49917
▁ஆகியவற்றை	-9.49938
▁29	-9.49989
▁நடைபெறுகிறது	-9.50223
▁பாஜகவுக்கு	-9.5029
▁சம்பவங்கள்	-9.50311
▁வணிக	-9.50328
▁இருக்காது	-9.50337
▁நீங்க	-9.50345
▁மின்சார	-9.50366
நான்	-9.5048
▁கர்நாடகா	-9.50511
▁செய்துள்ளது	-9.5065
▁இணைந்த	-9.50651
▁வசிக்கும்	-9.50674
▁P	-9.50705
▁கணக்கு	-9.50713
▁வருகிறோம்	-9.50729
▁இடையில்	-9.50736
▁திருப்பி	-9.50741
போதும்	-9.50749
▁வாங்கிய	-9.50787
▁முடிவை	-9.50795
▁திண்டுக்கல்	-9.50907
▁அதிர்ச்சியை	-9.5095
▁சந்திப்பு	-9.51156
▁ஓய்வு	-9.51212
or	-9.51297
▁தெற்கு	-9.51353
▁ஆதரவாளர்கள்	-9.51399
▁தங்கம்	-9.51436
▁அமைப்பின்	-9.51439
▁காலி	-9.51463
▁முடி	-9.51464
▁முருகன்	-9.5156
▁தெரிவிக்கின்றன	-9.51587
த்திலேயே	-9.51601
▁பார்	-9.51684
▁எழுதி	-9.517
பட்ட	-9.51726
▁வீட்டை	-9.51774
வன	-9.51799
▁நீதிபதிகள்	-9.51891
▁பஞ்ச	-9.51969
▁முன்னணி	-9.51982
ப்பது	-9.51999
▁மகாராஷ்டிரா	-9.52033
பூர்	-9.52115
ஓ	-9.52178
▁கூட்டணியில்	-9.52341
▁கனடா	-9.52416
▁விமர்சித்த	-9.52439
▁ல	-9.52627
களைச்	-9.52657
▁அறிந்த	-9.52727
▁தங்களின்	-9.52793
▁காலமாக	-9.52802
ுகிறோம்	-9.52802
▁நவீன	-9.52938
▁உத்தர	-9.53077
▁விதி	-9.53097
▁உள்துறை	-9.53139
▁மூல	-9.53141
குமார	-9.53215
▁ராசிக்கு	-9.53241
▁உலகக்	-9.5325
▁தூத்துக்குடி	-9.53368
▁திருப்பதி	-9.53445
▁அடைய	-9.5348
ந்தி	-9.53527
▁ஓடி	-9.53604
▁சிக்கி	-9.53621
ினை	-9.53625
▁கடற்படை	-9.53827
டே	-9.53866
ங்கு	-9.53866
▁2020	-9.53922
▁அமைந்துள்ள	-9.54028
▁படித்த	-9.54041
▁ஜனதா	-9.54102
▁இருப்பதாகவும்	-9.5415
▁அமைத்து	-9.54185
ுவதால்	-9.54268
▁கட்சிக்கு	-9.54289
▁பெரும்பாலும்	-9.54299
▁ஏழு	-9.54324
எ	-9.54371
▁மீன்	-9.54404
ித்த	-9.54432
சம்	-9.54488
▁சிவசேனா	-9.54533
▁ரொம்ப	-9.54533
▁நிறுவன	-9.54563
ின	-9.54596
▁பிரதேசத்தில்	-9.54614
▁அதிருப்தி	-9.54617
▁இந்தி	-9.54657
▁போன்று	-9.54734
▁பாடல்	-9.54758
▁இடைக்கால	-9.54771
ஹி	-9.54793
▁அனுப்பிய	-9.54891
▁இலங்கைக்கு	-9.54902
▁முந்தைய	-9.55004
▁அலி	-9.55041
▁சொன்னார்	-9.5507
▁யோகி	-9.55078
n	-9.55112
▁நகர்ப்புற	-9.55254
▁அனுமதிக்கப்பட்ட	-9.5528
▁நம்ம	-9.55381
▁இரட்டை	-9.55471
▁பேசுகையில்	-9.55481
▁சிக்கல்	-9.55543
▁விக்கெட்டுகளை	-9.55659
▁வாழ்த்து	-9.5567
▁திருத்த	-9.5572
▁மறு	-9.55733
▁சேர்க்க	-9.55742
வீ	-9.55769
▁வெளியில்	-9.55796
▁சிக்கிய	-9.55853
▁கன	-9.5592
▁பாஸ்	-9.55955
மலை	-9.55984
▁நிறைந்த	-9.55992
▁தடுப்பு	-9.55994
▁முன்பே	-9.56004
and	-9.56024
▁வருட	-9.56061
மானது	-9.56084
▁சார்பாக	-9.56192
▁குழந்தைகளுக்கு	-9.56228
▁பழனிச்சாமி	-9.56259
▁அமைத்த	-9.56286
ங்களையும்	-9.56389
l	-9.56417
ூரில்	-9.56422
▁கூறியது	-9.56471
ரில்	-9.56496
▁ஆஸ்திரேலியா	-9.56498
▁பதி	-9.56501
▁அறிவியல்	-9.56503
▁அறை	-9.56663
▁பத்திரிகையாளர்	-9.56676
ித்து	-9.56686
▁அணிந்து	-9.56702
▁பய	-9.5671
விட்டது	-9.56742
in	-9.56747
▁ரெட்டி	-9.56749
▁மேயர்	-9.56825
▁மட்டுமல்ல	-9.56847
▁பேர	-9.56948
▁உடை	-9.56952
ண்டா	-9.57052
▁அணியில்	-9.57064
▁அழுத்தம்	-9.57154
க்குழு	-9.57159
யானது	-9.57201
▁திட்டமிட்ட	-9.57218
▁பரபரப்பு	-9.57407
▁அதிகாரம்	-9.57437
▁பங்கேற்க	-9.57491
ஸை	-9.57553
▁ஆட்சியர்	-9.57604
▁ஒப்புதல்	-9.57607
ினர்	-9.57672
▁பகுதியை	-9.57704
கன்	-9.57732
▁அரிசி	-9.57798
▁விபத்தில்	-9.57912
▁அதுவும்	-9.57966
▁பரப்ப	-9.58026
▁கல்	-9.58074
▁முயன்ற	-9.58122
▁வெள்ளை	-9.58144
ுவேன்	-9.58209
▁உங்கள	-9.58364
▁சூப்பர்	-9.58377
▁சக	-9.584
க்கூட	-9.58416
ரூ	-9.58654
▁காலநிலை	-9.58677
▁வளாகத்தில்	-9.58681
▁அமெரிக்காவின்	-9.58725
▁பொய்	-9.58766
▁அகற்ற	-9.58777
▁பேரில்	-9.58814
▁இவ்வளவு	-9.58855
▁எங்கு	-9.58862
▁முன்னிலையில்	-9.58957
▁கும்பாபிஷேகம்	-9.59001
▁ஈடுபட்டனர்	-9.59007
▁இங்கிலாந்து	-9.59059
ச்சா	-9.59111
▁காப்பாற்ற	-9.59171
▁விமானம்	-9.59207
▁எதிர்க்கட்சிகள்	-9.59244
வார்	-9.59312
ற்	-9.5932
▁விசேட	-9.59336
▁இறக்குமதி	-9.59336
▁ஒளி	-9.59381
க்கோ	-9.59462
▁அலுவலகம்	-9.59505
▁ராணுவம்	-9.59533
ுகிறேன்	-9.59557
▁வாய்ந்த	-9.59559
▁விடுத்த	-9.59584
▁விசாரித்த	-9.59617
▁பில்லியன்	-9.59641
ின்றன	-9.59897
துடன்	-9.59904
▁கூட்டு	-9.59953
▁அரசை	-9.60002
▁விதிக்க	-9.60046
▁அமைந்துள்ளது	-9.60058
▁அருள்	-9.60106
F	-9.60112
▁அரை	-9.60155
ப்படாத	-9.6027
கொண்ட	-9.60272
▁கொண்டது	-9.60273
▁அதானி	-9.60336
▁அறுவை	-9.60382
▁சட்டத்தை	-9.604
▁எட்டு	-9.60449
▁செயலி	-9.60484
▁களத்தில்	-9.60501
▁வந்துள்ளது	-9.6055
▁ஆணையர்	-9.60576
▁வழங்கப்பட்ட	-9.60728
▁விஜய	-9.60747
▁குறை	-9.60834
▁T	-9.60834
▁காவிரி	-9.60883
▁நடத்தப்பட்ட	-9.60963
▁அதிகரித்த	-9.60966
▁போலி	-9.6107
▁ஜம்மு	-9.61074
▁நபர்கள்	-9.61084
▁நேரங்களில்	-9.61119
▁ஆன	-9.61165
▁வகையான	-9.61177
G	-9.61331
▁புரிந்து	-9.61348
▁லெ	-9.61368
▁ஹிஜாப்	-9.61375
▁வந்தால்	-9.61413
▁முத்து	-9.61413
▁பதிலளித்த	-9.61419
▁உண்மையில்	-9.61499
த்திர	-9.61563
▁ஏழை	-9.61591
▁தயார்	-9.61614
▁விட்ட	-9.6162
▁ஒருமுறை	-9.61646
▁மறுத்த	-9.61765
▁எம	-9.61776
▁பேட்டி	-9.61791
▁நிர்வாகி	-9.61943
▁மரணம்	-9.61962
▁அப்	-9.61965
▁ராமர்	-9.61983
▁ஒப்பந்தம்	-9.62104
▁நின்ற	-9.62184
▁நடைமுறைப்படுத்த	-9.62195
▁ஆட	-9.62265
▁செய்யலாம்	-9.62285
னில்	-9.62301
தம்	-9.62314
▁சுற்று	-9.624
மில்லை	-9.62454
▁நேரு	-9.62464
யாகும்	-9.62513
▁அதிகரித்துள்ளது	-9.62538
▁நானும்	-9.62611
▁சீ	-9.62642
▁கோட்டை	-9.62669
.2	-9.62696
▁காலங்களில்	-9.62731
▁போட்டியிட்ட	-9.62762
ed	-9.62782
▁பாடசாலை	-9.62846
ing	-9.6286
▁பஸ்	-9.62893
▁எங்களை	-9.62946
▁துப்பாக்கி	-9.63093
▁மோசமாக	-9.63096
▁31	-9.63113
இது	-9.63177
▁பலன்	-9.63178
▁இறங்கி	-9.63223
▁விண்வெளி	-9.63239
த்திற்கும்	-9.63253
▁பண்ணி	-9.63332
▁மசூதி	-9.63352
▁அறிமுகப்படுத்த	-9.6337
▁பட்டியலில்	-9.63379
▁கலைஞர்	-9.63387
▁டோ	-9.63408
▁கொல்கத்தா	-9.63443
▁சிறிது	-9.63462
▁தெரியாது	-9.63585
ிறேன்	-9.6362
▁ஓவரில்	-9.63635
ப்படுவது	-9.63656
▁சாதாரண	-9.63703
▁பிள்ளை	-9.6371
ாகவும்	-9.63861
▁உள்ளாட்சி	-9.63892
▁ஆயுத	-9.63967
▁ஏற்ப	-9.63971
▁வலம்	-9.64018
▁கெ	-9.64058
▁செய்தியாளர்களிட	-9.6419
▁திருப்ப	-9.64215
▁எங்கே	-9.64226
▁ஆஸ்திரேலிய	-9.64255
▁கோர	-9.64258
▁சிங்க	-9.64282
▁வைத்திருந்த	-9.64301
▁வன	-9.6437
▁பாதி	-9.6441
▁செய்யப்பட	-9.6442
▁பகுதியாக	-9.64436
▁இறுதியில்	-9.64474
h	-9.64477
ணை	-9.64582
விலிருந்து	-9.64604
▁செய்தால்	-9.64666
▁தலைநகர்	-9.64769
▁எதிர்பார்த்த	-9.64802
▁அலங்கார	-9.64816
▁பதிலடி	-9.6486
▁அழைக்க	-9.64934
▁விரும்ப	-9.64935
▁கண்டனம்	-9.6494
▁கருத்தை	-9.65018
▁வேலைக்கு	-9.65045
▁கனவு	-9.65082
▁அவ	-9.65088
▁எனப்படும்	-9.6517
▁ஆயிரக்கணக்கான	-9.65178
▁யாதவ்	-9.65187
பட	-9.65255
▁அமைந்த	-9.65265
ிக்க	-9.65296
▁இவருக்கு	-9.65367
▁பெற்றார்	-9.65416
ன்ஸ்	-9.65459
▁அமைய	-9.65487
▁பாதுகாக்க	-9.65536
▁செய்யப்பட்டார்	-9.65548
▁இந்தியாவை	-9.65577
▁அமைச்சராக	-9.65598
சே	-9.65599
▁மோ	-9.65705
பிர	-9.65742
▁மிகப்	-9.65785
ணா	-9.65814
m	-9.65844
▁எடுக்கப்பட்ட	-9.6588
முறை	-9.65909
▁அலுவலக	-9.65947
மற்ற	-9.65986
▁தொண்டர்கள்	-9.66049
▁ஒதுக்க	-9.66138
▁கனமழை	-9.66177
▁அறிய	-9.66198
▁மட்டுமின்றி	-9.66209
▁நிலம்	-9.66305
▁ரெ	-9.66467
▁இதனையடுத்து	-9.66476
▁எடுக்கப்படும்	-9.66569
▁மீறி	-9.66575
▁பெரிதாக	-9.66624
▁இடங்களை	-9.66646
▁75	-9.66647
ுடைய	-9.66676
re	-9.66741
▁தலா	-9.66799
▁பேசும்	-9.66886
▁என்பதில்	-9.669
:00	-9.6692
▁அறிவித்துள்ளது	-9.66921
▁ராம்	-9.67035
▁இடத்திற்கு	-9.67063
வல்	-9.67113
▁ஒருநாள்	-9.67147
▁செய்தியாளர்களை	-9.67199
▁500	-9.67238
▁நட்பு	-9.67257
▁வெள்ள	-9.67265
▁கும்பல்	-9.67313
▁அமித்	-9.67369
▁நிலையை	-9.67375
ஆவது	-9.6741
▁அமர	-9.67425
▁சபாநாயகர்	-9.67448
ுற	-9.67479
▁கூறும்	-9.67501
▁தெரிந்து	-9.67526
▁தள்ளி	-9.67529
▁இணையத்தில்	-9.67534
▁நிற	-9.67608
▁நினைத்த	-9.67623
▁உயர்நீதிமன்ற	-9.67632
▁சென்றது	-9.67642
▁குடும்பத்தினர	-9.67846
▁கூறப்பட்டுள்ளது	-9.6797
▁கிடைக்கவில்லை	-9.68059
▁மம்தா	-9.68073
▁எவ்வாறு	-9.68087
▁நெல்லை	-9.68102
▁படங்கள்	-9.68178
▁பட்டியல்	-9.68195
▁தேர்தலுக்கு	-9.68239
b	-9.68301
▁லி	-9.68367
போல்	-9.68392
▁வரவேற்பு	-9.68507
▁போகும்	-9.68532
ப்படுவதாக	-9.68629
▁மாநாட்டில்	-9.68632
▁தமிழிடம்	-9.68638
▁தெரிந்த	-9.6864
▁நோக்க	-9.68664
▁பங்கேற்ற	-9.68736
கின்	-9.6874
▁கட்சித்	-9.6875
▁மேல	-9.68789
யார்	-9.688
▁எண்	-9.6888
▁எழுந்துள்ளது	-9.69001
கால	-9.69086
▁அவன்	-9.69089
▁டிஜிட்டல்	-9.69151
▁செய்திகள்	-9.692
▁பெண்ணை	-9.69239
▁திறக்க	-9.69296
பொ	-9.69297
▁பயண	-9.69299
▁பிரிட்டன்	-9.69305
▁விருப்ப	-9.69437
50	-9.69438
▁கொண்டிருக்கிறது	-9.69491
▁ஒட்டுமொத்த	-9.69515
ஃப	-9.6957
▁சேர்ந்தவர்கள்	-9.69581
▁70	-9.69607
▁ஆபத்து	-9.69624
▁பொதுச்செயலாளர்	-9.69748
▁கூறியிருந்தார்	-9.69773
▁வாய்	-9.69886
▁அந்தத்	-9.69915
▁செவ்வாய்	-9.69933
▁காட்சிகள்	-9.69976
▁என்னிடம்	-9.6999
▁சதவிகித	-9.69991
▁D	-9.70014
▁தேட	-9.70045
▁உயர	-9.70116
▁ஒருவரை	-9.70117
▁சை	-9.70123
▁வட்டி	-9.70133
கின்றன	-9.70136
▁இருந்தும்	-9.7017
கார	-9.70227
ுவதில்லை	-9.70254
▁அமல்படுத்த	-9.70262
▁உருவாக்கப்பட்ட	-9.70285
▁விட்டது	-9.70413
▁மோகன்	-9.70435
களோ	-9.70454
க்குச்	-9.70458
▁வாகனத்தில்	-9.70481
▁ஏனெனில்	-9.70517
கர	-9.70568
▁வெளியாகியுள்ளது	-9.70596
▁மூட	-9.70617
▁அக்	-9.70749
▁உண்மையான	-9.70785
▁உங்களை	-9.70817
▁தொழிலாளர்கள்	-9.70822
▁நிகழ்வில்	-9.70847
▁என்பதுதான்	-9.70862
▁உணர	-9.70958
வதற்கு	-9.71016
▁அமைச்சகம்	-9.71048
▁உலா	-9.71051
▁வாழ்க்கையில்	-9.71055
▁ஆட்டம்	-9.71075
▁ஊடாக	-9.71104
▁மைய	-9.7112
▁பிபிசியிடம்	-9.7114
ிருக்கிறேன்	-9.71162
▁ஒற்றை	-9.71179
▁அதனால்தான்	-9.71209
▁ஹே	-9.71214
▁குடும்பம்	-9.71351
▁ஓட்டு	-9.71359
▁ஓட்ட	-9.71387
▁வைக்கும்	-9.71413
▁ஆப்	-9.7143
L	-9.71497
▁ஏதோ	-9.71678
▁வேத	-9.71696
▁ராணி	-9.71718
▁எழுந்த	-9.7182
▁முடிந்து	-9.71826
▁பகுதியைச்	-9.7184
▁படுகொலை	-9.71903
▁டாலர்	-9.71915
போல	-9.72031
▁கோவிலுக்கு	-9.72068
▁குமார	-9.72098
▁திரைப்படம்	-9.72116
▁பலி	-9.72198
N	-9.72289
▁மாதங்களில்	-9.72295
▁குற்றவாளி	-9.72371
▁ஏற்றி	-9.72374
▁பவுண்டரி	-9.72478
▁தம்பி	-9.72554
▁நிபுணர்	-9.72555
▁மீட்பு	-9.72693
▁அண்மையில்	-9.72742
▁திருப்பூர்	-9.72766
▁தோனி	-9.72788
ணும்	-9.7281
▁நினைத்து	-9.72829
▁தோ	-9.72854
வராக	-9.7286
▁அடுத்தடுத்து	-9.72883
▁அமெரிக்காவில்	-9.72935
▁கண்ண	-9.72947
▁தளபதி	-9.72957
ரீ	-9.72974
▁சர்	-9.72978
▁குழுவின்	-9.72991
லால்	-9.731
▁அஜித்	-9.73126
▁வரிசையில்	-9.73129
▁தாக்குதலை	-9.73135
▁போராட்ட	-9.73151
▁தல	-9.73171
▁உயர்ந்த	-9.73186
▁கட்டண	-9.732
ட்டர்	-9.73218
▁சமயத்தில்	-9.73224
▁காஷ்மீர்	-9.73242
▁யாருக்கு	-9.73252
▁வருவதாகவும்	-9.73287
▁வங்க	-9.73305
பெ	-9.73352
▁செல்போன்	-9.73397
▁நாக	-9.73429
▁நடத்தப்பட்டது	-9.73551
▁செயற்கை	-9.7359
▁நடை	-9.73603
▁வெட்டி	-9.73609
▁பணியாற்றி	-9.73613
▁வேதனை	-9.73627
▁ஜெனரல்	-9.73676
▁சம	-9.73683
▁சந்தேக	-9.737
▁யூ	-9.7371
▁கேட்டுக்	-9.73739
▁விஷயங்களை	-9.73788
▁ராஜ்	-9.73822
▁பாபு	-9.73861
▁திட்டத்தில்	-9.73882
▁நட்சத்திர	-9.73932
▁கோல்	-9.73934
▁அதிலும்	-9.73942
▁பிரிவில்	-9.73961
▁உறவினர்கள்	-9.73964
▁ஆணைய	-9.73989
▁தாக்கி	-9.74005
at	-9.74044
▁N	-9.74048
▁பார்க்கும்	-9.74092
▁அணியை	-9.74115
ோட	-9.74186
▁அணிய	-9.74261
▁அளித்து	-9.74283
▁ஆர்வம்	-9.74362
▁செயல்பட்ட	-9.74401
▁ராசியில்	-9.74443
▁சூழ்நிலை	-9.74527
▁பின்னணி	-9.74545
▁சுரங்க	-9.74559
▁முடித்த	-9.74575
▁சட்டமன்றத்	-9.74592
▁2018	-9.74621
நீ	-9.74665
▁வழங்கினார்	-9.74701
▁ஆகவே	-9.74771
▁பரிந்துரை	-9.7479
▁இவரது	-9.74899
▁வழக்குகள்	-9.74915
நி	-9.7496
▁இதுதொடர்பாக	-9.75018
▁அக்கட்சி	-9.75031
▁மின்சாரம்	-9.75062
▁பணியை	-9.75064
▁ரகசிய	-9.75075
▁கொண்டுவர	-9.75147
ப்பில்	-9.75236
f	-9.75311
▁தாக்கரே	-9.75341
▁அபிஷேக	-9.75346
ாகும்	-9.75377
▁ஆண்டின்	-9.75571
▁மணியளவில்	-9.75595
▁நாடுகளுக்கு	-9.75619
▁விசாரித்து	-9.75628
▁வெற்றியை	-9.75683
▁அறிந்து	-9.75778
ஹ்	-9.75849
▁போன்றவை	-9.75892
▁டே	-9.75898
▁நகை	-9.75912
▁முடியுமா	-9.75993
▁எழுப்பிய	-9.75999
▁உருவாக்கி	-9.76029
▁இராஜாங்க	-9.76176
▁அவ்வப்போது	-9.76176
▁முன்னெடுக்க	-9.76177
▁எழுப்ப	-9.76199
னம்	-9.76221
▁கரை	-9.76268
பூ	-9.76293
▁அமலாக்கத்துறை	-9.76317
▁வாழும்	-9.76322
விடும்	-9.76391
▁வெளியிட்டுள்ளது	-9.76391
ினேன்	-9.76408
▁செய்வதற்கு	-9.76498
▁மாணவிகள்	-9.76499
ிருந்தாலும்	-9.76509
▁எதிர்பார்ப்பு	-9.7657
▁குண்டு	-9.7663
▁நிலைக்கு	-9.76669
மர்	-9.76689
▁திருவண்ணாமலை	-9.7676
களா	-9.76788
ண்ண	-9.76835
சார்	-9.76856
ரவி	-9.76888
▁ரஷ்யாவின்	-9.76937
▁தேவி	-9.76967
பாளையம்	-9.77044
ானது	-9.77055
▁அவ்வளவு	-9.77055
▁முடிக்க	-9.77274
▁குறிப்பிட்டு	-9.77307
▁பாராட்டு	-9.77345
▁சூ	-9.77366
▁அறிக்கையை	-9.77585
▁எது	-9.77611
▁கொடுத்தார்	-9.77622
▁அமர்ந்து	-9.77639
▁ஏனென்றால்	-9.77642
▁பாகிஸ்தான	-9.77681
▁வைத்தனர்	-9.77716
விட்டதாக	-9.77822
▁ஆதி	-9.77901
▁டீசல்	-9.77946
▁வழக்கமாக	-9.77946
ரான	-9.7798
▁யா	-9.78
▁செய்யவில்லை	-9.78027
▁அமைப்புகள்	-9.78067
▁அமைச்சின	-9.7813
▁எக்ஸ்	-9.78133
ப்பட்டார்	-9.78183
▁இருக்கிற	-9.78199
▁நண்பர்கள்	-9.78226
▁குடும்பத்தில்	-9.78226
▁விலகி	-9.78252
▁அம்மனுக்கு	-9.78267
▁கவனிக்க	-9.78291
▁பதவியில்	-9.784
▁விஷயங்கள்	-9.78425
▁தொடரும்	-9.78503
▁நாய்	-9.78518
▁தீபாராதனை	-9.78532
க்கூடும்	-9.7855
▁தெரியுமா	-9.78561
ிருப்ப	-9.78572
▁குறைவான	-9.7858
▁எடுத்துச்	-9.78587
▁வழிபட	-9.7861
▁ஒத்துழைப்பு	-9.7862
▁பார்த்தால்	-9.78631
▁நாடாளுமன்றத்	-9.78721
▁வேண்டி	-9.78727
▁பெண்களை	-9.78808
வைத்த	-9.78823
▁வாழ்க்கையை	-9.78836
▁உத்தரவிட்ட	-9.7886
▁பெயர்ச்சி	-9.78916
▁உறவினர்	-9.7896
▁அளிக்கும்	-9.78986
தர	-9.79008
▁கன்னி	-9.79049
ரிடம்	-9.79139
▁இஸ்ரேல	-9.79156
▁அலுவலர்	-9.79158
▁ஓட	-9.79166
மர	-9.792
ளிக்க	-9.79285
கில்	-9.79327
▁உலகில்	-9.79345
▁பந்த	-9.79415
▁எடை	-9.7942
ெல்லாம்	-9.79428
▁முன்தினம்	-9.79431
▁அதேநேரம்	-9.79431
▁பானர்ஜி	-9.79431
▁ஊராட்சி	-9.79433
▁மயிலாடுதுறை	-9.79438
யின	-9.79438
ிருந்து	-9.79499
▁ஹி	-9.79534
வருகிறது	-9.79559
▁தள	-9.79677
▁அட்டை	-9.79695
H	-9.79706
▁ஐரோப்பிய	-9.79732
▁இம்	-9.79786
▁கேள்விக்கு	-9.79807
ரன்	-9.79809
▁இராணுவ	-9.7982
▁மூளை	-9.79858
▁ஆட்டத்தில்	-9.79903
▁தப்பி	-9.79908
▁ஆனா	-9.79923
▁கொல்லப்பட்ட	-9.79934
▁டிரம்ப்	-9.79978
ுக்குள்	-9.79994
டாக	-9.80008
▁மதியம்	-9.80038
▁மாநாடு	-9.80049
▁ரோஹித்	-9.80053
▁இடங்கள்	-9.80085
▁தமிழ்நாட்டின்	-9.8009
▁இலக்கு	-9.80093
ளித்த	-9.80158
▁சந்தேகம்	-9.80183
▁வலியுறுத்த	-9.80188
▁பிரச்னைகள்	-9.80192
▁காரில்	-9.80208
▁எம்எல்ஏ	-9.80216
▁35	-9.80255
▁நம்மை	-9.8026
▁சந்திர	-9.80278
ந்தர்	-9.80314
▁மஞ்சள்	-9.80343
▁இருக்கின்றனர்	-9.80381
▁உடலில	-9.80398
ேஷ்	-9.8041
▁பெற்றுள்ளது	-9.8042
▁பந்துகளில்	-9.8043
▁மருத்துவக்	-9.80457
▁வழியில்	-9.80532
▁வெளியேற்ற	-9.80572
▁நம்பி	-9.80574
▁F	-9.80632
▁அணு	-9.80662
▁அதன்பிறகு	-9.80672
▁யாத்திரை	-9.80711
▁வலியுறுத்திய	-9.80725
▁எதிர்கால	-9.80743
பால்	-9.80775
▁காலையில்	-9.80836
▁அமைக்கப்பட்ட	-9.80986
▁ஆய்வாளர்	-9.81002
▁காலகட்டத்தில்	-9.81009
▁சேர்த்த	-9.8103
▁செஸ்	-9.81051
▁விலக	-9.81058
▁பலத்த	-9.81061
▁வரவில்லை	-9.81127
▁உர	-9.81145
▁நிவாரண	-9.81156
▁ஜப்பான்	-9.8116
▁யாருக்கும்	-9.81176
ஞ்சி	-9.81181
▁துறைமுக	-9.81185
▁மர்ம	-9.81193
▁வேலையை	-9.81213
▁80	-9.81248
▁தொலைக்காட்சி	-9.81252
▁நிபுணர்கள்	-9.81379
▁பர்	-9.81422
▁தாக்கத்தை	-9.81433
▁மை	-9.81436
▁யுக்ரேன்	-9.81469
ும்படி	-9.81477
▁தன	-9.81485
ையில்	-9.81488
▁குழுவினர்	-9.81544
▁வேலைவாய்ப்பு	-9.81564
▁தெளிவாக	-9.81579
▁தீர்த்த	-9.8159
▁ஊடகங்களில்	-9.81621
▁அறநிலையத்துறை	-9.81637
▁குற்றம்சாட்ட	-9.8174
▁300	-9.81756
▁சுப	-9.81758
▁வேண்டியது	-9.81782
▁இழப்பு	-9.81813
▁ஐபிஎல்	-9.81866
ட்ஸ்	-9.81868
டைய	-9.81917
▁எரிபொருள்	-9.81946
en	-9.8195
▁சொல்வது	-9.82036
ால	-9.82047
▁முடிவில்	-9.82063
▁கொள்ளை	-9.82071
▁வெளிப்படையாக	-9.82175
▁உணர்வு	-9.82235
▁வருவதால்	-9.82244
▁கண்டறிய	-9.82271
த்துல	-9.82397
▁லே	-9.82598
▁துணி	-9.82604
▁நுழைந்த	-9.82616
▁உதவும்	-9.82692
▁ஆசிய	-9.82703
▁உள்ளிட்டோர்	-9.82794
▁மூன்றாம்	-9.82796
▁ஞாயிற்றுக்கிழமை	-9.828
▁கருத்தில்	-9.82878
▁ஏற்றுக்கொள்ள	-9.82905
▁உறுதிப்படுத்த	-9.82908
▁தெரியாமல்	-9.82909
▁தம்பதி	-9.82926
▁தொடர்ந்த	-9.82948
▁குடியரசு	-9.82965
ியா	-9.83001
ாம	-9.83044
ினோம்	-9.83044
▁அனைத்தையும்	-9.8311
▁கன்னியாகுமரி	-9.83113
▁நீலகிரி	-9.83123
▁எதிர்கொண்ட	-9.83129
த்துக்கும்	-9.83138
லம்	-9.83152
▁இறக்க	-9.83159
▁தாங்கள்	-9.83177
▁பதிவிட்ட	-9.83182
▁சாதகமாக	-9.83183
▁பங்கேற்று	-9.8319
▁குடிநீர்	-9.83205
▁உள்நாட்டு	-9.83303
▁கோயிலுக்கு	-9.83335
▁வேட்பாளராக	-9.83362
▁வாகனம்	-9.83413
▁பெரியார்	-9.83422
▁இம்ரான்	-9.83423
▁வெள்ளிக்கிழமை	-9.83439
40	-9.83442
▁மக்களிடம்	-9.83446
▁சிறப்பான	-9.83459
மார்	-9.83477
▁அரபு	-9.83742
சல்	-9.83743
▁அச்ச	-9.83782
25	-9.83847
▁வருவாய்	-9.8387
▁கொள்ளலாம்	-9.84013
▁போதே	-9.84034
▁ஷி	-9.84048
▁வலுவான	-9.84052
▁வெளியிட்டு	-9.84057
▁90	-9.84096
▁மட்டுமல்லாமல்	-9.84104
தார	-9.84115
▁உள்	-9.84118
▁யாரு	-9.84188
▁நிலவும்	-9.84203
▁சிக்க	-9.84253
▁முற்றிலும	-9.84286
▁கண்காணிப்பு	-9.84293
ஸா	-9.8436
▁ஏதேனும்	-9.84362
▁நிலவி	-9.84363
▁ஒருவேளை	-9.84363
▁தினசரி	-9.84368
▁சோனியா	-9.84374
%	-9.84393
▁படைத்த	-9.84445
▁போரில்	-9.8446
▁மாளிகை	-9.84485
வான்	-9.84506
▁ஏறி	-9.84527
▁தொகுதிகளில்	-9.84626
▁‛‛	-9.84679
▁பாமக	-9.84682
▁டிக்கெட்	-9.84688
பால	-9.84701
▁தமிழ	-9.84776
▁மறைந்த	-9.84781
▁நடத்தும்	-9.84825
▁குடியிருப்பு	-9.84904
▁தொடங்கினார்	-9.8492
▁உத்தரப்பிரதேச	-9.8492
▁திரும்பிய	-9.84938
▁தலைவரும்	-9.84941
▁ஷிண்டே	-9.84998
▁கழித்து	-9.85011
யிலுள்ள	-9.85034
▁தயாரிக்க	-9.85108
▁கணக்கில்	-9.85149
▁கட்டுமான	-9.8515
▁in	-9.85167
▁ஆண்கள்	-9.8521
▁சுய	-9.85253
ார	-9.85261
▁வெல்ல	-9.85297
▁மண	-9.85312
▁கூடுதலாக	-9.85315
▁குறைந்து	-9.85359
▁சகோதரர்	-9.85408
▁மனதில்	-9.85408
▁என்பதையும்	-9.85458
ிங்	-9.85507
▁கொள்ளும்	-9.85617
▁வருடம்	-9.85627
▁ஈரோடு	-9.85639
▁குழந்தையை	-9.85665
▁மாணவ	-9.85668
ப்பட்டிருக்கிறது	-9.85669
கொ	-9.85766
கான்	-9.85783
▁யு	-9.85829
▁சொல்லப்படுகிறது	-9.85837
▁அவர்களிடம்	-9.85903
▁நிறுவ	-9.85907
it	-9.85971
▁தொலைவில்	-9.85987
▁மசோதா	-9.86013
▁எதையும்	-9.86077
▁டை	-9.86109
▁மீட்டு	-9.86113
▁செல்வது	-9.86114
நாதன்	-9.8618
▁அடிக்க	-9.86226
▁வீசி	-9.86228
ுவதாகவும்	-9.86327
▁ஞான	-9.86349
▁நன்மை	-9.86357
▁தேச	-9.86363
▁மண்	-9.8637
▁மன்னிப்பு	-9.86371
▁சமயம்	-9.86377
▁இருந்தே	-9.86416
▁குள	-9.86505
▁கொண்டிருக்கும்	-9.86599
▁மன்ற	-9.86633
▁ஆடு	-9.86669
ஸின்	-9.86669
▁கணவன்	-9.86735
▁தவறாக	-9.86744
ராம்	-9.86812
தான	-9.86877
▁சிபிஐ	-9.86929
▁ராஜபக்சே	-9.86947
▁மீதும்	-9.86964
▁போராட	-9.87004
▁ஏவுகணை	-9.87006
▁தயாரிப்பு	-9.87079
யினர்	-9.87094
▁இருப்ப	-9.87099
யாகவும்	-9.87127
▁நிறுவனத்தில்	-9.87135
▁வெளியானது	-9.87167
▁முன்னேற்ற	-9.87169
▁புள்ளி	-9.87267
▁நிற்க	-9.87339
▁நடைமுறை	-9.87437
▁அமையும்	-9.87456
▁மாடல்	-9.87483
▁பொருளாதாரம்	-9.87547
▁மொத்தமாக	-9.8755
▁விழுப்புரம்	-9.87573
▁சிந்தனை	-9.87584
▁ஆயிரத்து	-9.8759
▁நடந்துள்ளது	-9.8759
▁வரலாற்றில்	-9.87608
▁கூறியுள்ளது	-9.87635
யெல்லாம்	-9.87635
▁இதனைத்	-9.87642
மான்	-9.87652
ாள	-9.87704
▁விசாரணையை	-9.87713
▁மணிப்பூர்	-9.87714
▁கொன்ற	-9.87739
▁தன்மை	-9.87775
▁முன்வைத்த	-9.87817
▁கொல்ல	-9.87833
▁அங்க	-9.87882
▁இதய	-9.87883
▁நடத்தப்படும்	-9.87888
▁காணி	-9.87899
▁பறிமுதல்	-9.879
மூ	-9.87914
த்தர	-9.87955
க்கால	-9.88019
▁எளிதாக	-9.88069
▁வசதிகள்	-9.88159
▁எந்தவித	-9.88189
▁கம்யூனிஸ்ட்	-9.88227
▁நடித்து	-9.88276
ம்மா	-9.88295
▁குறி	-9.88338
ஸ்ட	-9.8839
▁வீடுகள்	-9.88406
க்கொண்டே	-9.88424
am	-9.88461
▁G	-9.88493
▁தொலைபேசி	-9.88556
▁மாரியம்மன்	-9.88595
▁வேற	-9.88599
▁வெகு	-9.88623
▁2017	-9.88665
▁பட்ஜெட்	-9.88715
▁இன்றும்	-9.88734
▁தடுத்து	-9.88807
ல்லா	-9.8884
▁ராஜபக்ஷ	-9.88886
▁வந்துள்ளார்	-9.89003
▁ஜெயக்குமார்	-9.89043
▁மாறாக	-9.89049
▁காற்று	-9.89066
▁சந்தித்தார்	-9.89108
▁உணவுப்	-9.89141
▁நதி	-9.89173
▁கிரி	-9.89213
▁தெரிவித்துள்ளனர	-9.89216
▁இத்தனை	-9.89219
▁ட்விட்டரில்	-9.89253
மதி	-9.8926
▁ஏக்கர்	-9.8926
▁பாஜகவை	-9.89341
▁இழந்து	-9.89357
▁பிராந்திய	-9.89413
▁சாய்	-9.89417
▁யோகம்	-9.89437
▁போராடி	-9.89441
▁செயலாளராக	-9.89536
▁நெல்	-9.89565
▁கஞ்சா	-9.89566
▁மாதங்கள்	-9.89591
▁கிடந்த	-9.89591
▁மாற்றங்கள்	-9.89613
▁பணிப்பாளர்	-9.8963
▁பண்டிகை	-9.8966
▁இடி	-9.89664
▁கடற்கரை	-9.8969
▁சதவிகிதம்	-9.89747
""	-9.89752
▁எடுக்கும்	-9.8979
க்கல்	-9.89925
▁தங்களை	-9.90037
களோடு	-9.90038
ியுள்ளார்	-9.90112
▁நிலையில்தான்	-9.90147
▁வழக்க	-9.9016
▁பொருத்த	-9.90196
▁அமைச்சு	-9.90215
▁அளவிலான	-9.90226
▁தோட்ட	-9.90226
▁முயற்சிகள்	-9.90228
▁இலக்க	-9.90287
வேண்டிய	-9.9029
▁ஒப்பந்த	-9.90312
▁தகவலை	-9.90329
▁அடங்கிய	-9.90384
▁ஏமாற்ற	-9.90402
▁அளித்தார்	-9.90416
ிவிட்டது	-9.90452
▁K	-9.90456
யற்ற	-9.90464
▁அப்ப	-9.90477
▁பணியாற்ற	-9.9054
▁அவருடன்	-9.90595
▁தக்க	-9.90689
▁லோக்சபா	-9.9074
w	-9.90761
▁முடித்து	-9.90765
▁இன்றி	-9.90788
▁வீச	-9.90872
.....	-9.90888
▁தெ	-9.9089
▁நேற்றைய	-9.9089
▁சனிக்கிழமை	-9.90899
▁தெலுங்கு	-9.91029
▁அதைப்	-9.91033
▁பேட்டிங்	-9.91115
▁குண	-9.91133
▁குழந்தைகளை	-9.9116
ra	-9.91204
ினாலும்	-9.91249
▁தேவையில்லை	-9.9125
▁தாக்குதலில்	-9.91258
▁வார்டு	-9.9134
ீர்	-9.91402
▁எதிர்காலத்தில்	-9.91404
as	-9.9143
▁மதம்	-9.91445
▁மலர்	-9.91458
லும்	-9.91467
▁விதிக்கப்பட்ட	-9.9147
ic	-9.91518
▁செய்தியாளர்	-9.91537
▁கல்லூரியில்	-9.91561
▁குதிரை	-9.91567
▁தொகையை	-9.9165
▁செய்தித்	-9.91667
ஸில்	-9.91786
▁வாகனங்கள்	-9.91856
▁நிரந்தர	-9.9186
▁H	-9.91868
▁தெரியாத	-9.91877
வாய்	-9.91906
▁வெவ்வேறு	-9.91918
▁பிரதமராக	-9.91953
▁பிரதேசம்	-9.91964
▁திரை	-9.91985
▁டா	-9.91998
தீ	-9.92065
▁என்பதற்காக	-9.92164
▁வேளாண்	-9.92198
▁செல்	-9.92215
▁இதுவே	-9.92227
▁உச்சநீதிமன்ற	-9.9227
▁வாக்குகளை	-9.9228
▁ஆண்டுக்கு	-9.92308
ராஜா	-9.92395
▁ஆட்ட	-9.92431
▁மட்ட	-9.92453
▁நோக்கம்	-9.92455
ராம	-9.9254
▁பயணத்தை	-9.92585
▁இப்ப	-9.92662
▁அறிவித்தார்	-9.92683
▁வள	-9.92707
▁காணாமல்	-9.92743
▁நெ	-9.92762
▁இரான்	-9.92837
▁ஆலை	-9.92891
▁சர்க்கரை	-9.92938
▁வெப்ப	-9.92948
▁கட்சியினர்	-9.93017
▁கூடும்	-9.93021
▁பின்னால்	-9.93039
▁துணைத்	-9.93082
▁கடமை	-9.93117
▁வீடுகளில்	-9.93131
▁பெங்களூரு	-9.9317
▁ரே	-9.93188
▁அழுத்த	-9.93189
▁நேரடி	-9.932
▁மஹிந்த	-9.93279
யல்	-9.93291
▁45	-9.93302
▁போக்கு	-9.93323
▁நடந்தன	-9.93454
▁சிலருக்கு	-9.93489
மூர்த்தி	-9.93501
0,000	-9.93503
மாய்	-9.93541
▁பாதிப்பை	-9.93554
ாவில்	-9.93565
▁செயலக	-9.9358
▁L	-9.9361
▁மஹா	-9.93615
12	-9.93654
▁வீட்டின்	-9.93704
வுக்கும்	-9.93791
▁சிவில்	-9.93793
▁ஆந்திரா	-9.93799
▁இடையேயான	-9.93887
▁வேலூர்	-9.93983
▁அதிகாரப்பூர்வ	-9.94056
▁பாதிக்கப்பட	-9.94125
▁ஜோடி	-9.9413
ுள்ளதால்	-9.94145
▁குடி	-9.94172
▁மாட்டார்கள்	-9.94256
▁மார்	-9.94279
▁திசை	-9.94289
▁புயல்	-9.94304
▁கர்	-9.9439
ஒரு	-9.94427
▁நடிக்க	-9.94445
▁சம்பளம்	-9.94446
▁காணப்படும்	-9.94501
▁சொல்லும்	-9.94538
▁லீ	-9.94567
ாலே	-9.9462
▁பைடன்	-9.94626
▁உருவாக்கிய	-9.9463
▁நாட்ட	-9.9465
▁மீட்க	-9.94655
ிடமிருந்து	-9.94697
▁கார	-9.94703
▁போதிலும்	-9.94731
்கள்	-9.94751
ணம்	-9.94796
▁பங்கேற்றனர்	-9.94802
ற்கு	-9.94806
ப்படுத்தி	-9.94831
▁2014	-9.94885
▁அண்ணன்	-9.94899
ாக்க	-9.94908
▁ஊ	-9.94974
▁மாநிலத்தின்	-9.95
▁கமிட்டி	-9.95021
▁திறந்த	-9.95028
கிறார்	-9.9505
▁இருக்கிறோம்	-9.95136
▁விசா	-9.95157
▁ஆந்திர	-9.95163
▁ஸ்தான	-9.95164
▁ஒருவருக்கு	-9.95168
▁எதிர்கொள்ள	-9.95204
▁செல்வாக்கு	-9.95219
ற்ப	-9.95241
▁இல்லையா	-9.95285
▁குடும்பத்தை	-9.95337
▁பிரியங்கா	-9.95377
▁என்பதும்	-9.95392
▁தீர்க்க	-9.95427
.30	-9.95431
▁நவ	-9.95448
வல	-9.95483
▁திறமை	-9.95493
▁E	-9.95567
▁இருந்தபோது	-9.95652
▁பணியாளர்கள்	-9.9571
▁சமேத	-9.95729
▁புலி	-9.95762
வைத்து	-9.95784
▁அமர்ந்த	-9.9579
க்குத்	-9.958
▁கலந்துகொண்டனர்	-9.95817
▁மறுக்க	-9.95824
▁தவிர்த்து	-9.9592
▁விழுந்து	-9.95927
▁அலங்காரத்தில்	-9.95938
த்துக்	-9.95954
▁தாக்கிய	-9.95972
▁பின்பு	-9.95978
▁தர்ம	-9.95996
▁மாநகர	-9.96051
▁முதன்மை	-9.96073
▁தேவ	-9.96135
▁பிரசார	-9.96176
▁பன்னீர்செல்வம்	-9.9619
▁லாரி	-9.96209
▁முக்கியம்	-9.96288
▁உட்பட்ட	-9.9631
ஃபி	-9.96318
▁இருந்ததால்	-9.96332
10	-9.96338
பல	-9.96349
ரியா	-9.96354
ீங்க	-9.96365
ாதீர்கள்	-9.96386
▁திருநெல்வேலி	-9.96445
▁லட்ச	-9.96477
▁மிகக்	-9.96515
▁செய்கிறார்	-9.96537
கார்	-9.96569
▁மனம்	-9.96599
ங்கள	-9.96652
ங்களுடன்	-9.96708
▁இதைத்	-9.96708
▁விழாவை	-9.96738
▁பிரசாரம்	-9.96792
▁பிரிட்டிஷ்	-9.96794
▁மாணவர்களின்	-9.96797
▁ஏற்பாடுகள்	-9.96798
▁மாதங்களாக	-9.96813
▁இடங்களிலும்	-9.96824
▁அளவிற்கு	-9.96825
ன்னா	-9.9687
▁கடலில்	-9.96894
▁கட்டப்பட்ட	-9.96914
▁சந்திப்பில்	-9.96956
▁ஹரி	-9.96964
▁நாட	-9.97041
▁ஏற்பட்டுள்ள	-9.97055
▁பாஜகவில்	-9.97073
▁போதுமான	-9.97085
லான	-9.97124
▁உடல்நிலை	-9.9715
▁விழிப்புணர்வு	-9.97183
▁விமர்சித்து	-9.97204
▁மண்டபத்தில்	-9.97244
▁கவனமாக	-9.9725
▁ஆண்ட	-9.97299
▁தொடர்பாளர்	-9.97306
▁காயம்	-9.9731
▁விதை	-9.97379
ின்றி	-9.97423
னாக	-9.97443
▁அத்தகைய	-9.97513
▁டன்	-9.97524
ந்தா	-9.97556
▁மைதானத்தில்	-9.97573
▁விரைந்து	-9.97594
▁பிரி	-9.97679
▁தொடக்கத்தில்	-9.97769
▁ய	-9.97803
▁அதிகாரிகளுக்கு	-9.97803
▁அடையாள	-9.97808
▁இதேபோல்	-9.97823
es	-9.97848
▁வித	-9.97855
▁சித்திரை	-9.97998
▁இயக்கம்	-9.98042
▁ஆட்டோ	-9.98065
▁படிப்பு	-9.98112
பட்டி	-9.98129
▁புதின்	-9.98138
▁வழங்கப்பட	-9.98138
யாளர்	-9.98173
▁அங்கிருந்த	-9.98232
ுடனான	-9.98275
▁இரவில்	-9.98276
▁தஞ்சாவூர்	-9.98287
▁போராட்டத்தை	-9.98303
▁ஆடை	-9.98344
▁தளம்	-9.98364
▁பிக்	-9.98396
▁தாக்கம்	-9.98475
யொட்டி	-9.98514
▁கட்டுரை	-9.98551
▁அன்பு	-9.98568
▁சகோதரி	-9.98597
▁காஞ்சிபுரம்	-9.98602
▁வளர்ந்த	-9.98612
▁என்னென்ன	-9.98653
▁கட	-9.98678
▁கட்டுப்பாட்டில்	-9.9869
▁மக	-9.98779
▁சமர்ப்பிக்க	-9.98964
▁பூர்த்தி	-9.98965
▁காட்டு	-9.99022
ொரு	-9.99031
▁மாதிரியான	-9.99101
▁வீடியோவை	-9.99126
▁மேலே	-9.99155
மெ	-9.99172
st	-9.99181
0	-9.99201
நகர்	-9.99212
▁மூர்த்தி	-9.99252
▁வாக்களிக்க	-9.99333
▁விஷயத்தில்	-9.99367
▁அண்டை	-9.99374
▁வந்தாலும்	-9.99375
ாததால்	-9.99405
▁வாழ்ந்த	-9.99473
▁மேடை	-9.99484
இந்தியா	-9.99509
2022	-9.99536
▁நியமனம்	-9.99572
▁கோரிக்கையை	-9.99618
▁கட்டட	-9.99628
றிய	-9.99639
▁சிவன்	-9.99666
▁ரஜினி	-9.99696
▁சிஎஸ்கே	-9.99699
மாகும்	-9.997
▁காணொளி	-9.99701
▁தினேஷ்	-9.99718
▁தமிழகத்தின்	-9.99723
▁திட்டமிட்டு	-9.99725
▁குறைந்தது	-9.99806
ாவின்	-9.99849
▁சிதம்பரம்	-9.99918
ரங்க	-9.9993
▁பந்து	-9.99977
▁அறிமுகம்	-9.9999
▁காட்டிய	-9.99998
▁ஆசி	-10.0002
▁பிரதிநிதி	-10.0004
படியே	-10.0005
▁அன்றைய	-10.0007
▁எல்லையில்	-10.0008
▁அப்போதைய	-10.0009
ப்பின்	-10.0015
▁நெட்டிசன்கள்	-10.0017
▁ஆகி	-10.0024
▁சூர்யா	-10.0029
▁பேட்டியில்	-10.0035
▁விவரங்களை	-10.0036
வழி	-10.0039
▁உத்தரவை	-10.0044
▁சஞ்சய்	-10.0044
▁அதன்பின்	-10.0045
▁வெளியிடப்பட்ட	-10.0048
▁அமர்வு	-10.0048
▁ஷேக்	-10.005
ுகின்ற	-10.0056
▁செயல்பாடு	-10.0058
▁பாரத்	-10.0059
▁உரிமைகள்	-10.006
▁போட்டோ	-10.006
▁பச்சை	-10.0062
▁சூரியன்	-10.0063
▁பரவ	-10.0065
▁அரசாங்கத்தின்	-10.0068
▁அலங்காரம்	-10.0071
முள்ள	-10.0071
▁காசா	-10.0073
▁உடல	-10.0076
▁ஆளுநர	-10.0082
▁அந்நாட்டு	-10.0082
▁டிகிரி	-10.0085
வருக்கு	-10.0086
▁லஞ்ச	-10.0087
▁பாரதிய	-10.0095
▁கல்யாண	-10.0096
▁கட்டாயம்	-10.0097
▁சுதந்திரம்	-10.0098
▁தாயார்	-10.0105
னியா	-10.0105
▁லாபம்	-10.0106
▁அப்பகுதி	-10.0108
▁தானே	-10.0113
▁வேட்பாளர்கள்	-10.0117
▁s	-10.0119
▁மீன்பிடி	-10.0122
▁நலன்	-10.0123
▁பதவிக்கு	-10.0124
▁அவற்றின்	-10.0128
ிடையே	-10.0131
▁நடு	-10.0132
▁ஆசிரியர்கள்	-10.0134
▁லட்சுமி	-10.0137
.4	-10.0138
▁கண்டித்து	-10.014
லாக	-10.0144
▁உணர்ந்த	-10.0148
▁குழுவில்	-10.0148
▁வாய்ப்பை	-10.015
▁எட்ட	-10.0151
▁தெய்வ	-10.0153
புர	-10.0154
▁வரவேற்க	-10.0156
▁தென்காசி	-10.0156
▁வழக்குப்பதிவு	-10.0156
▁இந்திரா	-10.0157
▁அனைவரையும்	-10.0157
▁அமித்ஷா	-10.0158
▁கருதப்படுகிறது	-10.0162
▁அடை	-10.0166
K	-10.0167
:30	-10.017
▁கொண்டிருந்தார்	-10.0172
▁முகம்	-10.0173
▁அறிவுறுத்த	-10.0173
▁மட்டும்தான்	-10.0176
▁பணியாற்றிய	-10.018
ுகிற	-10.018
▁மட	-10.0184
▁முடிகிறது	-10.0195
▁விரும்பவில்லை	-10.0197
▁ஜாமீன்	-10.02
வள	-10.0201
▁பாம்பு	-10.0205
▁ஆய்வாளர்கள்	-10.0205
▁கல	-10.0205
▁பல்கலைக்கழகத்த	-10.0208
▁சந்திப்ப	-10.0209
▁ஆங்கில	-10.022
▁இதன்போது	-10.0222
டுக்கு	-10.0231
▁விருதுநகர்	-10.0232
▁வித்தியாசத்தில்	-10.0236
▁பாலின	-10.0239
▁கருதி	-10.0241
▁முட்டை	-10.0242
▁பாதுகாப்பாக	-10.025
▁மாறிய	-10.0251
ப்பட்டிருந்தது	-10.0256
▁செல்வம்	-10.0257
▁சான்றிதழ்	-10.0257
▁எழுப்பி	-10.0261
▁கொடுமை	-10.0264
▁பொருளாதாரத்தை	-10.0267
▁சந்தையில்	-10.0269
▁பசுமை	-10.0273
தானே	-10.0273
▁கர	-10.0276
▁பதற்றம்	-10.0277
▁தேர்வில்	-10.0278
▁விற்க	-10.028
?!	-10.0282
▁சூழ்நிலையில்	-10.0295
ென்று	-10.03
விலும்	-10.03
▁பிரதி	-10.0301
ch	-10.0302
டல்	-10.0306
▁சீட்	-10.0311
▁ஒற்றுமை	-10.0311
▁ஓவர்களில்	-10.0319
▁குறிப்பிடப்பட்ட	-10.032
▁சாம்	-10.0325
▁ஆண்டும்	-10.0328
▁பேசியது	-10.0328
▁கொண்டுள்ளது	-10.0332
▁படிக்கும்	-10.0332
ற்க	-10.0333
▁நிறுவனங்கள	-10.0333
▁மொ	-10.0334
பார்	-10.0338
சிங்க	-10.0339
▁வைர	-10.0344
▁நன்கு	-10.0345
▁கலந்துரையாட	-10.0352
ங்கை	-10.0358
▁மிரட்டல்	-10.0364
▁எதிர்க்கட்சித்	-10.0369
▁இருந்தவர்	-10.0373
▁எச்சரித்த	-10.0376
11	-10.0381
▁வெற்றிகரமாக	-10.0383
▁உத்தவ்	-10.0385
ாராம்	-10.0386
▁மாறியது	-10.0386
▁ஆதரவை	-10.0389
த்ரா	-10.0391
▁அரவிந்த்	-10.0394
▁கிரக	-10.0394
▁இருப்பவர்	-10.0396
▁பதிவிட்டுள்ளார்	-10.0396
▁பழமையான	-10.0397
▁உரு	-10.0399
▁எங்கள	-10.0402
▁ஊடகங்கள்	-10.0405
சிங்	-10.0411
டும்	-10.0412
▁அகில	-10.0412
▁வாழ்ந்து	-10.0413
ிருப்பதை	-10.0418
▁பொருட்கள	-10.0427
▁ஏரி	-10.0428
▁ஆற்றில்	-10.0432
▁பகுதிக்கு	-10.0433
▁சவால்	-10.0433
மாகவும்	-10.0434
▁சீமான்	-10.0439
▁சொ	-10.044
▁பயங்கரவாத	-10.0448
▁அணுக	-10.0448
ிருப்பதாகவும்	-10.0451
டம்	-10.0452
▁இணைப்பு	-10.0462
தொ	-10.0463
▁தூக்க	-10.0472
▁உள்ளாட்சித்	-10.0472
▁நடத்தினார்	-10.0472
▁வேகத்தில்	-10.0472
▁விவசாயம்	-10.0473
▁குறைவு	-10.0474
▁எழுந்தது	-10.0476
ேந்திர	-10.0477
▁துறையின்	-10.0479
திரு	-10.0479
▁செயலாளர்கள்	-10.0479
▁ஜன	-10.0481
▁சிறுவன்	-10.0482
னிடம்	-10.0487
▁ஒட்டி	-10.0491
▁ஆண்டுகளுக்குப்	-10.0496
▁ஹோமம்	-10.0497
▁நாளாக	-10.0498
▁உதாரணமாக	-10.0499
▁மடங்கு	-10.05
▁ஆண்டுதோறும்	-10.0502
▁கண்ணாடி	-10.0502
▁பேசினோம்	-10.0503
▁கேட்டார்	-10.0513
லாமா	-10.0518
▁இந்தியர்கள்	-10.052
▁போகிறது	-10.0522
▁அசோக்	-10.0528
▁சம்பவத்தில்	-10.0529
▁செயல	-10.0537
▁ராசிக்காரர்கள	-10.0542
▁சவு	-10.0546
▁கிளை	-10.0551
▁புகைப்படம்	-10.0557
▁அனுபவம்	-10.0562
▁பழ	-10.0562
▁முடக்க	-10.0567
▁வேண்டுமென	-10.0569
படுத்த	-10.057
▁கிருஷ்ண	-10.0578
▁இருக்கிறதா	-10.0579
▁விலக்கு	-10.058
விட்டன	-10.0586
▁கருத்துகளை	-10.0586
▁டூ	-10.0589
▁செய்துகொண்ட	-10.0591
▁பாட்டி	-10.0593
▁நிதிஷ்	-10.0595
ப்பட்டதாக	-10.0595
க்கிறது	-10.0595
▁நாட்டிற்கு	-10.0597
▁அந்தச்	-10.0598
▁எதிரி	-10.0601
விட்டால்	-10.0604
த்துக்காக	-10.0605
▁உற்சவ	-10.0611
ad	-10.0612
▁நாடாக	-10.0612
▁விவாத	-10.0614
.6	-10.0616
▁உலகக்கோப்பை	-10.0616
ன்று	-10.0617
▁வெளிப்படுத்த	-10.0622
▁மிக்க	-10.0632
U	-10.0638
▁அழைத்த	-10.0642
▁கேட்டபோது	-10.0643
▁சங்கம்	-10.0644
▁விடும்	-10.0644
▁நிர்மலா	-10.0656
▁பழநி	-10.0656
▁படையினர்	-10.0657
▁வரவு	-10.0657
▁விராட்	-10.0657
▁கேரளாவில்	-10.0666
▁மாணவர்களை	-10.0667
is	-10.0668
▁பூமி	-10.0674
கிரி	-10.0674
வதை	-10.0676
வார	-10.068
▁என்னால்	-10.0681
▁தொடங்கும்	-10.0682
▁செயல்படும்	-10.0686
▁தோற்ற	-10.0686
▁நாளுக்கு	-10.0687
▁பெற்றுக்	-10.0689
▁ஏதும	-10.0691
▁புர	-10.0693
தல்	-10.0695
▁தள்ளுபடி	-10.0695
▁டிரா	-10.0702
மின்	-10.0704
▁அறிவித்தது	-10.0706
▁காரை	-10.0709
▁சொல்கிறார்	-10.0709
▁கலந்துகொண்ட	-10.0712
▁மோடியை	-10.0714
▁கட்டத்தில்	-10.0718
▁செலுத்திய	-10.0719
▁பெரும்பான்மை	-10.0723
▁கைப்பற்ற	-10.0724
முக	-10.0726
▁பாலஸ்தீன	-10.0729
▁கூறப்பட்டது	-10.0729
▁அமைப்பை	-10.073
▁நாயுடு	-10.0735
▁அறக்கட்டளை	-10.0735
▁நிகழ்ந்த	-10.0737
▁சுப்பிரமணிய	-10.0747
▁பலமுறை	-10.0755
▁பின்னணியில்	-10.0762
▁இடத்துக்கு	-10.0766
▁வண்டி	-10.0769
▁பகுதிகளை	-10.077
▁நிகழ்ச்சிகள்	-10.0772
▁ஷர்மா	-10.0775
▁வாழ்வ	-10.0775
▁விட்டார்	-10.0775
▁கேட்ப	-10.0776
▁ட்வீட்	-10.0777
▁ஒழுங்கு	-10.0778
ன்ற	-10.0779
ஜெ	-10.078
▁லட்சத்து	-10.078
▁தலைமுறை	-10.0783
▁கர்நாடகாவில்	-10.0786
▁சுந்தர	-10.0792
▁வருகிற	-10.0792
▁பொறுப்ப	-10.0793
▁ஹெ	-10.0794
▁புற்றுநோய்	-10.0796
களுக்குப்	-10.0799
போதே	-10.08
ாவிட்டால்	-10.081
▁ஆனது	-10.0811
வையும்	-10.0811
▁ராமநாதபுரம்	-10.0815
▁புதுக்கோட்டை	-10.0815
இன்	-10.0816
▁பென்	-10.0821
▁சுரேஷ்	-10.0827
எஃப்	-10.083
▁காய்ச்சல்	-10.0831
▁மக்கள	-10.0831
▁விளம்பர	-10.0839
▁ஆரம்பத்தில்	-10.0843
▁கட்டு	-10.0848
ட்டோ	-10.0852
▁விலையை	-10.0853
த்திய	-10.0853
▁போட்டிகள்	-10.0855
யில்லை	-10.0856
▁விவகார	-10.0858
▁தங்கி	-10.0861
▁அரசுப்	-10.0864
மன	-10.0873
▁காசி	-10.088
▁பயன்படுத்திய	-10.0881
▁கோவிட்	-10.0881
▁போதை	-10.0882
▁நாடுகளும்	-10.089
கொண்டு	-10.0895
▁கைவிட	-10.0896
▁புத்தக	-10.0897
▁நம்மிடம்	-10.0901
▁பீகார்	-10.0908
▁ஆச்சரிய	-10.091
▁பயணி	-10.0913
▁பாத	-10.0913
▁48	-10.0915
ங்களுக்கான	-10.0916
45	-10.0928
▁இங்குள்ள	-10.0928
▁காயமடைந்த	-10.0935
பீ	-10.0937
ினார்கள்	-10.0941
▁கிலோமீட்டர்	-10.0941
▁வெப்பநிலை	-10.0946
▁ஒன்றும்	-10.0947
▁""	-10.0949
▁மீம்ஸ்	-10.095
▁150	-10.0952
▁கிராம்	-10.0953
▁முக்கியமாக	-10.0953
▁பேசும்போது	-10.0955
▁மீனவர்கள்	-10.096
▁ஆனந்த்	-10.0962
▁மதுரையில்	-10.0964
ri	-10.0974
▁கீ	-10.0975
▁குழுக்	-10.0976
▁வாயிலாக	-10.0977
▁of	-10.0977
▁கம்ப	-10.0981
▁மேற்பட்டோர்	-10.0981
▁ரீதியில்	-10.0982
▁இறந்து	-10.0983
ுது	-10.0985
▁பிரபலமான	-10.099
19	-10.0991
▁செய்கிறது	-10.0991
ப்பார்	-10.0992
▁ஆராய	-10.0996
▁இருவருக்கும	-10.1001
ந்த்	-10.1005
▁நாம	-10.1005
▁சென்	-10.1007
ஸ்ரீ	-10.1009
▁காக்க	-10.1011
▁2016	-10.1011
▁சேர்க்கை	-10.1011
▁ஜான்	-10.1011
▁கலக்க	-10.1016
▁நாயகம்	-10.1017
▁திரிணாமுல்	-10.1017
▁போராட்டக்காரர்	-10.1022
ாளராக	-10.1026
▁உண்டாகும்	-10.1027
▁உரை	-10.103
▁தொட	-10.1032
▁இறங்கிய	-10.1038
▁விடுதி	-10.1039
கல	-10.1042
▁அங்கீகாரம்	-10.1046
தைத்	-10.1053
க்கம்	-10.1056
▁வைத்துக்	-10.1056
▁விகிதம்	-10.1056
▁தொழிற்சாலை	-10.1061
▁அச	-10.1064
▁கோபுர	-10.1067
▁செய்திருந்தனர்	-10.1075
▁மீ	-10.1075
▁சன்	-10.1077
தல	-10.1079
ாலோ	-10.108
▁வெளியுறவு	-10.1082
▁யாக	-10.1083
▁பிரா	-10.1084
▁விவசாயிகளுக்கு	-10.1088
▁தெலங்கானா	-10.1094
▁வெளிவந்த	-10.11
▁மேம்பாட்டு	-10.11
▁முழுமையான	-10.1101
▁விளக்கு	-10.1106
▁தட	-10.1107
▁பிரசாத்	-10.1112
▁கருத்துக்களை	-10.1112
யுள்ள	-10.1121
▁குழப்ப	-10.1123
வைச்	-10.1126
▁நெருங்கிய	-10.1127
▁எழுந்து	-10.1131
▁ஏர்	-10.1137
▁சதி	-10.1137
15	-10.1138
▁இப்போ	-10.1139
▁R	-10.114
▁அனு	-10.1147
ப்பட்டி	-10.1147
கிட்ட	-10.1149
▁நீக்கம்	-10.1149
த்தைத்	-10.115
▁பிரச்சினைகள்	-10.115
▁செய்ததாக	-10.1151
▁பகுதிகள்	-10.1151
▁இருக்கிறேன்	-10.1153
V	-10.1155
▁ஐடி	-10.1155
▁உருவ	-10.1158
▁தூரம்	-10.1159
த்துக்கான	-10.116
▁ஆனந்த	-10.1161
▁பேட்	-10.1162
▁வென்று	-10.1167
ுவதன்	-10.1168
▁போன்றவற்றை	-10.1171
தைப்	-10.1173
▁மக்களவை	-10.1176
க்குரிய	-10.1178
லர்	-10.1181
▁கால்நடை	-10.1182
▁விரிவான	-10.1183
▁நம்முடைய	-10.1184
▁வரையிலான	-10.1185
▁I	-10.1186
▁வனத்துறை	-10.1187
▁வெளியேறி	-10.1188
▁ஏற்றுக்கொண்ட	-10.1193
ுள்ளேன்	-10.1196
▁கண்காணிப்பாளர்	-10.1196
21	-10.1198
▁வைரலாகி	-10.1201
▁மறக்க	-10.1201
.3	-10.1204
களிலிருந்து	-10.121
▁வீடியோவில்	-10.1212
▁பாதிக்க	-10.1214
▁வாக்குப்பதிவு	-10.1215
▁கோப	-10.1217
▁தெரிவித்தது	-10.1219
le	-10.122
▁சுட்டிக்காட்ட	-10.122
▁நடத்தப்பட்டு	-10.1222
▁ஏனைய	-10.1224
▁கூறினர்	-10.1224
ாதது	-10.1227
▁போரை	-10.1238
▁என்றனர்	-10.1239
▁சேவைகள்	-10.1241
▁அவள்	-10.1241
▁புரட்சி	-10.1244
▁துவங்கி	-10.1246
லன்	-10.1254
▁குறித்துப்	-10.1256
▁களம்	-10.1261
▁கடவுள்	-10.1271
▁கோவையில்	-10.1271
▁வகித்த	-10.1274
▁வழக்கமான	-10.1277
க்கொண்டிருந்த	-10.1277
▁நாளான	-10.1278
▁விஷ	-10.128
▁வளர்ந்து	-10.1284
ுவிட்டது	-10.1287
▁முயற்சிகளை	-10.1288
▁பாதுகாப்பான	-10.1288
▁தூங்க	-10.1289
▁தனித்து	-10.1297
▁என்னும்	-10.1306
▁உலகளாவிய	-10.1308
▁ஒன்பது	-10.1308
▁மறுநாள்	-10.1308
▁கரூர்	-10.131
▁இஸ்ரேலிய	-10.1313
▁ஏற்று	-10.1319
▁சார	-10.1319
க்கார	-10.132
▁நிகழ்வுகள்	-10.1328
▁மேடையில்	-10.133
▁சுற்றுச்சூழல்	-10.1335
▁தாங்க	-10.1337
▁நூற்றாண்டு	-10.1337
ளவு	-10.1339
த்தக்க	-10.1341
ுக்	-10.1341
▁விரிவாக	-10.1341
▁பொன்	-10.1347
▁வலுப்படுத்த	-10.1348
▁தை	-10.135
▁ராஜீவ்	-10.135
▁ஜெர்மனி	-10.135
▁முன்னிலை	-10.1352
▁வெளிநாடு	-10.1354
▁ரமேஷ்	-10.1356
▁பற்றியும்	-10.1357
▁கடினமான	-10.1358
▁நியூசிலாந்து	-10.136
பாய்	-10.1362
▁காவலர்	-10.1363
▁கும்ப	-10.1365
▁இலை	-10.1367
▁உரிமையாளர்	-10.1369
▁தொற்ற	-10.137
மின்றி	-10.1371
▁கைப்பற்றி	-10.1371
▁தளத்தில்	-10.1371
▁பாதிக்கும்	-10.1374
▁தற்காலிக	-10.1376
ரேஷ்ட	-10.1377
▁பத்திரிகை	-10.1379
▁குறையும்	-10.1382
▁நீங்கும்	-10.1382
▁பரவல்	-10.1382
▁மாடி	-10.1383
▁படங்களில்	-10.1387
▁அரசியலமைப்பு	-10.1391
▁விமர்சிக்க	-10.1392
▁வருடங்களாக	-10.1393
▁தொல்லை	-10.1394
▁எழுந்தருளி	-10.1395
▁வீரர்களை	-10.1395
▁அழகு	-10.1395
▁தட்டி	-10.1397
▁பழக்க	-10.1398
▁முன்னேற்றம்	-10.14
▁36	-10.14
▁எடுத்துக்கொள்ள	-10.1402
▁பெட்டி	-10.1413
▁ஆபாச	-10.142
▁ராய்	-10.1421
நாத	-10.1421
▁லாப	-10.1421
▁நபர	-10.1421
▁விரோத	-10.1423
▁32	-10.1436
▁புதன்	-10.1437
வாத	-10.1437
▁தெரு	-10.1437
▁வளர்க்க	-10.1445
▁புகார்கள்	-10.1446
▁வேளையில்	-10.1448
▁ஜீ	-10.1449
▁பெங்களூர்	-10.1449
▁நிரப்ப	-10.145
▁மொபைல்	-10.1451
▁சொன்னது	-10.1454
ீஸ்	-10.1454
ிருப்பதால்	-10.1459
▁உறுப்பு	-10.1462
▁முடிவுகளை	-10.1463
▁அக்னி	-10.1469
▁தரம்	-10.147
▁முடிய	-10.1472
▁பள்ளிகளில்	-10.1472
▁காஸா	-10.1475
▁புகை	-10.1476
▁சமீபத்திய	-10.1478
தையடுத்து	-10.148
▁வாய்ப்ப	-10.148
கொடியேற்றத்துடன்	-10.1481
விட்டேன்	-10.1482
▁கொள்வது	-10.1483
▁கொட்ட	-10.1485
▁இறப்பு	-10.1486
▁சக்கர	-10.1488
▁சிறுவர்	-10.149
▁நியமன	-10.1494
▁சபையின்	-10.1499
▁ஆப்கானிஸ்தான்	-10.1504
▁பங்களிப்பு	-10.1506
போக	-10.1511
▁ஜெய்	-10.1514
▁தரப்பினர்	-10.1515
▁அவன	-10.1515
▁பரபர	-10.1516
▁நடத்தியது	-10.1517
பிடி	-10.1517
த்தன்மை	-10.1518
▁வது	-10.152
▁கொள்கிறேன்	-10.1521
▁சிசிடிவி	-10.1521
▁அறிவு	-10.1521
▁லீக்	-10.1523
▁யோக	-10.1524
▁வெற்றிபெற்ற	-10.1525
▁உயிரை	-10.153
▁நோட்டீஸ்	-10.153
மொழி	-10.1531
▁புற	-10.1538
▁வரலாம்	-10.1541
▁பத்திர	-10.1558
▁புலனாய்வு	-10.1564
▁கடலூர்	-10.1565
▁கருப்பு	-10.1567
▁உடன	-10.1568
▁கணபதி	-10.1569
▁கடிதத்தில்	-10.157
▁வருத்த	-10.158
▁பிரிவின்	-10.158
ாட்சி	-10.158
▁பசு	-10.1586
▁பொதுமக்கள	-10.1587
▁ஹை	-10.1588
▁பெண்ணின	-10.1591
▁புகழ்	-10.1596
▁முதலமைச்சர	-10.1601
பெரும்	-10.1602
▁வெற்றிக்கு	-10.1603
▁இருக்கும்போது	-10.1604
▁சமூகத்தை	-10.1605
▁அடைந்து	-10.1605
▁வாரிய	-10.1606
▁இயங்கி	-10.1608
▁இருவர்	-10.1616
ாறு	-10.1618
▁அனுபவ	-10.162
வருகின்றனர்	-10.1622
▁பணியாளர்	-10.1623
▁அதிகாரத்தை	-10.1625
▁கும்பாபிஷேக	-10.1625
▁கட்டுப்பாடு	-10.1634
▁பிறப்பித்த	-10.1637
▁சொல்	-10.1641
▁தெரிவித்துள்ள	-10.1648
▁விளையாடி	-10.1648
▁ஒதுக்கப்பட்ட	-10.1648
▁எரிவாயு	-10.165
▁பேரூராட்சி	-10.165
▁தீர்ப்பை	-10.1652
தலை	-10.1653
ப்பட்டுள்ளதாக	-10.1654
▁வரும்போது	-10.1654
▁பரீட்சை	-10.1654
ஜே	-10.1658
▁எல்லோரும்	-10.1671
▁வருவதற்கு	-10.1671
▁சத்தம்	-10.1672
▁தமிழில்	-10.1673
▁ஆராய்ச்சியாளர்	-10.1674
த்தினர்	-10.168
▁காரிய	-10.168
னான்	-10.1683
▁மன்னர்	-10.1683
▁அமாவாசை	-10.1684
▁கட்சிகளும்	-10.1686
▁உற்சவம்	-10.1686
▁பிடி	-10.1686
▁இடை	-10.1694
▁இதற்கிடையில்	-10.1694
▁பிரதிநிதிகள்	-10.1697
த்தூர்	-10.17
▁ஓர	-10.1701
▁ஓமிக்ரான்	-10.1702
ஞ	-10.1704
th	-10.1704
▁காணப்பட்ட	-10.1704
▁மாலையில்	-10.1705
▁பிரான்ஸ்	-10.1706
▁உப	-10.1709
▁முயற்சியில்	-10.1715
பன்	-10.172
▁போட்டியை	-10.1726
▁கழகம்	-10.1729
▁நடவடிக்கையை	-10.1733
▁பாதையில்	-10.1733
▁விஷயத்தை	-10.1734
▁உச்சநீதிமன்றம்	-10.1736
▁ரீ	-10.1737
▁சமாளிக்க	-10.1738
▁மக்களவைத்	-10.1738
▁செய்வதற்கான	-10.1739
ஒ	-10.1749
ுக்குப்	-10.1749
▁பிரச்னைகளை	-10.1754
யினால்	-10.1757
▁சிவா	-10.176
டீ	-10.176
▁தொழில்நுட்பம்	-10.1762
சில்	-10.1762
▁இவர்களுக்கு	-10.1767
▁சமுதாய	-10.1769
▁மக்களும்	-10.1771
யினை	-10.1772
ழை	-10.1772
▁படங்களை	-10.1774
▁வந்தன	-10.1776
▁கோவா	-10.1779
ஃபா	-10.1779
னாலும்	-10.1783
▁மனுவை	-10.1785
▁புறப்பட்டு	-10.1786
▁வெளியேறிய	-10.1787
18	-10.179
▁2000	-10.1794
ப்பகுதி	-10.18
ுக்கே	-10.18
▁சட்டவிரோத	-10.1804
▁ஒற்றைத்	-10.1809
▁கூறியுள்ளனர்	-10.1811
▁ஆடிய	-10.1812
▁அவ்வாறு	-10.1826
ங்களாக	-10.1831
செய்ய	-10.1835
ல்ஸ்	-10.1838
▁தமிழர்கள்	-10.1842
▁மெல்ல	-10.1842
▁ஆக்	-10.185
▁முக்கியமானது	-10.1853
▁நிறைவேற்றப்பட்ட	-10.1855
▁கவு	-10.1856
▁முன்வைக்க	-10.1857
on	-10.1858
சல	-10.1862
▁நிலத்தை	-10.1863
▁எடுப்ப	-10.1863
▁இருப்பார்	-10.1865
▁ரு	-10.1866
▁இரண்ட	-10.1866
ப்பர்	-10.1866
▁நே	-10.187
▁அக்கறை	-10.1871
▁லேசான	-10.1871
▁ஆல்	-10.1871
▁தேர்ச்சி	-10.1875
?"	-10.188
▁ராக்கெட்	-10.1881
▁பாதுகாப்புப்	-10.1883
▁பயன்படுத்தும்	-10.1884
▁கருவி	-10.1888
நாயக்க	-10.1888
▁உள்ளதாகவும்	-10.1892
▁தினகரன்	-10.1892
▁குழந்தையின்	-10.1898
த்தினால்	-10.1899
▁பனி	-10.19
▁பயிர்	-10.1907
▁இதன்மூலம்	-10.1915
▁ஏற்படுகிறது	-10.192
▁ஸார்	-10.1923
வைப்	-10.1926
▁காத்த	-10.1928
▁சர்ச்சையை	-10.1929
▁அர	-10.1931
▁பராமரிப்பு	-10.1933
▁பேரவை	-10.1941
▁உதவியுடன்	-10.1946
▁இர	-10.1949
▁ஆரம்பிக்க	-10.195
ன்ட்	-10.1951
▁வைத்தது	-10.1951
▁அறையில்	-10.1955
ப்பதற்கு	-10.1955
▁கட்டிட	-10.1958
▁அங்கீகரிக்க	-10.196
▁இதுபற்றி	-10.196
▁கண்காணிக்க	-10.196
▁துருக்கி	-10.196
▁முழங்க	-10.196
▁கடலோர	-10.196
▁செய்வதற்காக	-10.1961
▁அம்மாநில	-10.1961
▁விழ	-10.1962
▁நகரம்	-10.1971
▁கண்ணீர்	-10.1975
▁பட்டம்	-10.1986
▁ஏற	-10.1989
▁என்பதைப்	-10.199
▁ப்ர	-10.1991
▁நூல்	-10.1993
▁படைகள்	-10.1993
புரி	-10.1994
▁முறையை	-10.1995
ுவதே	-10.1999
ிவிடும்	-10.2004
▁சுகாதாரத்துறை	-10.2005
▁மறுபுறம்	-10.2005
▁முன்னுரிமை	-10.2005
▁வேண்டுமானாலும்	-10.2006
ியல்	-10.2007
▁பெற்றுக்கொள்ள	-10.2008
▁குட	-10.2009
களிடையே	-10.2016
ூர	-10.2031
க்கப்பட்ட	-10.2035
▁வட்ட	-10.2039
▁விவாதம்	-10.2041
▁தலைநகர	-10.2041
el	-10.2044
கல்	-10.2047
▁கண்டுபிடித்த	-10.2048
▁விளைவாக	-10.2052
டுகள்	-10.2052
▁காரைக்கால்	-10.206
▁பூங்கா	-10.2063
`	-10.2064
▁எதிர்க்க	-10.2068
▁பண்ணை	-10.2072
ிலுள்ள	-10.2075
▁உள்ளடக்கிய	-10.2082
க்கர்	-10.2085
மிக்க	-10.2093
▁உங்க	-10.2095
▁ஊர்வலம்	-10.2096
▁கடனை	-10.2096
▁சனாதன	-10.2099
▁பிறகும்	-10.2099
வேல்	-10.2105
▁குழுக்கள்	-10.2107
ur	-10.211
▁அழ	-10.2112
ட்ரோ	-10.2114
▁கேள்விகள்	-10.2115
▁அன்	-10.2115
▁உள்ளிட்டவை	-10.2116
▁கோவில்களில்	-10.2118
▁நிறுவனமான	-10.2119
▁பாகிஸ்தானில்	-10.2122
கீ	-10.2127
ராஜன்	-10.2127
▁முறையான	-10.213
▁400	-10.214
▁இருப்பார்கள்	-10.2142
▁சொல்கிறார்கள்	-10.2142
▁மாறும்	-10.2143
ஏக்நாத்	-10.2146
▁நெய்	-10.2146
▁இரும்பு	-10.2153
பூர்வ	-10.2153
▁போதைப்பொருள்	-10.2153
▁வருவதை	-10.2155
▁ஆதீன	-10.2162
▁இல்லாததால்	-10.2164
▁கடத்தல்	-10.2165
வரி	-10.2166
ாவ	-10.2173
▁ஈரான்	-10.2174
▁பார்ப்ப	-10.2177
▁சிரம	-10.2178
▁வணங்க	-10.2181
வர்களில்	-10.2187
▁முறையும்	-10.2187
▁News	-10.2187
▁திரி	-10.219
▁யோசனை	-10.2195
▁வாய்ப்புள்ளது	-10.2197
▁முன்ன	-10.2197
▁அவரும்	-10.22
24	-10.2207
▁ரசிகர்	-10.2208
▁ஹிந்து	-10.221
▁W	-10.2211
▁மஸ்க்	-10.2214
▁பாதிப்புகள்	-10.2215
▁பதிவிட்டு	-10.2215
▁காவல	-10.2217
ுங்க	-10.2218
டெ	-10.2222
▁மும்பையில்	-10.2224
▁போராட்டங்கள்	-10.2224
▁பிரிந்து	-10.2224
▁ஆட்டத்தை	-10.2227
▁இயங்க	-10.2228
▁அதற்குப்	-10.2228
▁சீரியல்	-10.2228
▁பிடிக்கும்	-10.223
▁கமல்	-10.2231
▁ஊரடங்கு	-10.2232
▁பழங்குடி	-10.2233
▁சிவகங்கை	-10.2234
▁கீழ	-10.2235
▁கலாசார	-10.2239
▁குப்பை	-10.224
▁ரீதியான	-10.2241
▁வை	-10.2245
▁போய	-10.2246
▁ஒன்	-10.2246
▁உளவு	-10.2249
▁இஸ்ரேலுக்கு	-10.2249
கண்ட	-10.2249
ரான்	-10.2251
▁உறுப்பினராக	-10.2251
▁சென்றுள்ளார்	-10.2253
▁விதமான	-10.2259
▁தூ	-10.2262
▁வெள்ளம்	-10.2264
ப்பள்ளி	-10.2268
▁ஆகியோரை	-10.2269
▁பசி	-10.2279
▁ஜடேஜா	-10.228
▁தோல்வியடைந்த	-10.2281
▁O	-10.2281
▁லக்னோ	-10.2282
▁அளித்துள்ளார்	-10.2282
▁உள்ளதால்	-10.2285
ெய்	-10.2285
▁நியமிக்க	-10.2285
▁ராமதாஸ்	-10.2287
▁பார்த்துக்	-10.2287
▁ஆலய	-10.2293
▁சமையல்	-10.2294
▁பெர்	-10.2299
▁உணவை	-10.23
டின்	-10.2301
▁பேரணி	-10.231
▁மந்த	-10.231
▁எந்தப்	-10.231
▁குட்டி	-10.2312
ியதாக	-10.232
▁வந்தபோது	-10.2321
▁போனது	-10.2322
▁மதுபான	-10.2326
▁நிலவுகிறது	-10.2327
▁தெரிவித்திருந்த	-10.2328
▁விமானத்தில்	-10.2329
▁அமைப்ப	-10.2331
▁காட்டுகிறது	-10.2336
▁ஏற்றுக்	-10.2338
▁யாரை	-10.2343
▁அபராதம்	-10.2345
▁கட்டிய	-10.2352
▁நிரூபிக்க	-10.2358
▁கட்டுப்பாட்டு	-10.2363
▁இடங்களுக்கு	-10.2365
▁கூறியிருக்கிறார	-10.2366
க்கில்	-10.2369
▁சொல்லிய	-10.2371
▁ஹைதராபாத்	-10.2371
▁படுத்த	-10.2372
▁பயங்கர	-10.2372
▁மேலாண்மை	-10.2373
▁ரிசர்வ்	-10.2373
▁பிரேத	-10.2373
▁படுக்கை	-10.2374
▁அத்தனை	-10.2375
▁குழந்தைக்கு	-10.2377
▁வளாக	-10.2379
▁பூச	-10.2381
▁இழுத்து	-10.2382
▁அவற்றில்	-10.2384
ுவதற்கும்	-10.2386
▁இலக்கிய	-10.2389
லீ	-10.239
▁பன்னீர்	-10.2392
▁இயக்குனர்	-10.2393
▁வாங்கும்	-10.2393
▁மாற்றத்தை	-10.24
▁வான	-10.24
▁தலையில்	-10.2402
▁தாக்குதலுக்கு	-10.2403
▁மீற	-10.2409
▁பீட	-10.2415
▁உதவிகளை	-10.2415
▁பல்	-10.2416
▁கார்த்திக்	-10.2419
▁தூண்ட	-10.242
▁முடிவடைந்த	-10.242
▁தாமரை	-10.2424
▁அறிவுரை	-10.2424
▁வைக்கப்பட்டது	-10.2426
▁பிரச்சார	-10.2428
▁கொடுத்தது	-10.2428
▁மாட்டோம்	-10.243
▁மாற்றிய	-10.243
▁ஸ்டாலின	-10.2433
▁கேட்டுக்கொண்ட	-10.2434
▁கார்த்தி	-10.2434
▁தோல்வியை	-10.2434
▁நீக்கப்பட்ட	-10.2435
▁அணிகள்	-10.2437
▁பெய்து	-10.2441
கொள்வத	-10.2442
▁அமைந்தது	-10.2444
போன	-10.2444
துறை	-10.2446
▁அப்போதுதான்	-10.2448
▁மனோ	-10.2448
▁p	-10.2451
▁ஆவணங்கள்	-10.2453
▁தக்காளி	-10.2467
▁டிடிவி	-10.2467
▁the	-10.2468
ில்லை	-10.2473
▁அளவை	-10.2476
▁ஆபத்தான	-10.2477
▁களமிறங்கிய	-10.2479
▁உத்தரவிட்டுள்ள	-10.2483
▁கட்டமாக	-10.2484
▁ஆலோசகர்	-10.2485
▁செய்வதாக	-10.2486
▁நம்பிக்கையை	-10.2487
▁உற்சாக	-10.2489
▁இருவர	-10.2494
▁பள்ளிகள்	-10.2494
▁செலுத்தும்	-10.2497
▁வாடிக்கையாளர்கள	-10.2497
▁வெடித்த	-10.2499
▁விடுவிக்க	-10.2504
▁திறப்பு	-10.2505
60	-10.2511
ிருந்தன	-10.2513
▁தமிழிசை	-10.2515
▁பந்துவீச	-10.252
▁முறைகேடு	-10.2523
▁புகைப்பட	-10.2528
மடைந்த	-10.2529
▁ரக	-10.253
▁அவர்களில்	-10.2542
▁விருப்பம்	-10.2543
▁காரணங்கள்	-10.2546
▁ஒப்படைக்க	-10.2552
30	-10.2553
சரி	-10.2555
▁சிறுத்தை	-10.2556
▁சத்த	-10.2557
▁கட்டுப்பாடுகள்	-10.2558
▁அப்துல்	-10.2558
▁மீட்ட	-10.2559
▁கட்டமைப்பு	-10.2561
▁ஊர்வலமாக	-10.2562
▁என்னவென்றால்	-10.2562
▁குறுகிய	-10.2562
▁இளையராஜா	-10.2563
▁பிளாஸ்டிக்	-10.2563
▁குழுவை	-10.2564
▁ரெண்டு	-10.2564
▁செயல்பாடுகள்	-10.2565
▁பாரத	-10.2566
▁ரெய்டு	-10.2568
▁என்கிறது	-10.2571
▁தேதியன்று	-10.2571
▁கட்டளை	-10.2571
▁உடைத்து	-10.2572
▁தலைவரான	-10.2572
▁விரைவாக	-10.2572
▁நன்மைகள்	-10.2573
▁இணைத்து	-10.2573
▁கோடை	-10.2577
▁வீழ்த்தி	-10.2579
▁திருமாவளவன்	-10.2579
▁மாட்டேன்	-10.2579
▁பிறந்தநாள்	-10.258
▁இறங்க	-10.2581
▁இவரை	-10.2585
▁கிட்ட	-10.2587
▁அன்னதானம்	-10.2589
வாறு	-10.2589
▁குறைய	-10.2591
▁உத்தரவிட்டார்	-10.2591
ம்பா	-10.2591
ௌ	-10.2593
▁உறவை	-10.2594
▁பருவ	-10.2595
▁பரவலாக	-10.2599
▁அதி	-10.2603
▁கலச	-10.2604
▁முன்கூட்டிய	-10.261
▁ராமேஸ்வரம்	-10.261
▁அதுதான்	-10.2612
▁நிறுவனத்தை	-10.2613
▁குல	-10.2613
▁போதிய	-10.2614
▁முதலே	-10.2617
▁அதைச்	-10.2619
தன	-10.2622
▁மான்	-10.2623
▁தேசியக்	-10.2628
ப்பட்டனர்	-10.2631
▁அக	-10.2633
▁சாப்பிட்ட	-10.264
▁சமீப	-10.2642
▁அல	-10.2643
▁உக்ரைனில	-10.2645
▁சிகிச்சைக்காக	-10.2646
▁ஆதித்யநாத்	-10.265
▁தெலுங்கானா	-10.2653
▁பள்ளிக்கு	-10.2656
ியுள்ளனர்	-10.2658
▁இன்றைக்கு	-10.2658
▁என்பதற்கு	-10.2659
▁அகிலேஷ்	-10.2659
▁வாரிசு	-10.266
தையும்	-10.266
▁உன்	-10.2663
▁எங்களிடம்	-10.2663
▁தயாரிக்கப்பட்ட	-10.2663
ாகி	-10.2663
▁தாத்தா	-10.2663
▁தமிழ்நாட்டை	-10.2666
▁குறைபாடு	-10.2667
▁மகாராஷ்டிராவில்	-10.2669
▁உயர்ந்துள்ளது	-10.2671
▁சுக்கிரன்	-10.2673
டிங்	-10.2676
▁விரதம்	-10.2678
▁பாராட்ட	-10.2682
ாய	-10.2682
▁ரசிகர்கள	-10.2683
▁அதிரடியாக	-10.2686
▁பெண்ண	-10.2686
▁நியூ	-10.2687
▁தீர்மான	-10.27
▁நாட்டுக்கு	-10.2703
▁ஆதிக்கம்	-10.2704
▁சமர்ப்பித்த	-10.2706
▁வழிநடத்த	-10.2706
▁தலைவர	-10.2706
▁நாமக்கல்	-10.2707
▁நாராயண	-10.2708
▁செயல்முறை	-10.2709
▁நோக்கில்	-10.271
▁நிதியமைச்சர்	-10.2711
▁வருடங்களுக்கு	-10.2714
▁விலங்கு	-10.2722
▁நபி	-10.2724
ப்படுத்தும்	-10.2727
யாய்	-10.2729
▁to	-10.2731
▁மையத்தில்	-10.2734
தின்	-10.2735
▁நாள	-10.2736
▁குறைத்து	-10.2737
▁இருந்ததாக	-10.274
▁கோபம்	-10.2741
▁நோயாளி	-10.2745
▁கட்சிகளின்	-10.2747
▁ஒழிப்பு	-10.2748
▁தவ	-10.275
▁சுட	-10.2751
▁படிப்படியாக	-10.2755
ாகவே	-10.2756
▁கொள்முதல்	-10.2763
▁திணைக்கள	-10.2764
▁பாராட்டி	-10.2766
டான	-10.2767
▁வெடி	-10.277
▁சௌ	-10.277
▁பந்துவீச்சாளர்	-10.2772
14	-10.2776
மாகவே	-10.2779
▁அப்பகுதியில்	-10.2784
▁வழக்கின்	-10.2784
ேஸ்வர	-10.2785
சர	-10.2785
▁ஹோ	-10.2791
▁2-	-10.2791
▁படிப்ப	-10.2791
▁தீர்மானிக்க	-10.2794
▁பங்க	-10.2796
▁மறை	-10.2798
▁லிங்க	-10.2798
▁நெருக்கமான	-10.28
த்தல்	-10.2804
▁எவ்வித	-10.2804
▁செய்கிறார்கள்	-10.281
▁நீர	-10.2812
▁எதிர்பாராத	-10.2813
▁அழைக்கப்படும்	-10.2813
▁அவுட்	-10.2816
▁செய்யப்படுகிறது	-10.2818
▁ஊர	-10.2821
▁கையாள	-10.2824
▁மாவட்டச்	-10.283
▁தேரோட்டம்	-10.2836
▁கூட்டத்தை	-10.2837
ிடமும்	-10.2839
▁பாறை	-10.2841
▁மூடி	-10.2842
▁சாந்தி	-10.2843
▁கோரிய	-10.2845
▁சம்பவத்தை	-10.2847
▁ஆதரவாளர்	-10.285
▁கூடி	-10.285
▁இழப்பீடு	-10.2853
▁மீனாட்சி	-10.2853
▁அன்புமணி	-10.2854
விர	-10.2854
வர்களாக	-10.2855
▁வழிபட்டனர்	-10.2856
▁பொதுவான	-10.2859
▁கல்ல	-10.2861
▁பெற்றோர்கள்	-10.2871
▁கூறுவது	-10.2873
▁தொடங்கினர்	-10.2877
ப்படை	-10.288
▁பழக்கம்	-10.2886
▁குறு	-10.2887
ந்திர	-10.2888
▁கிடைத்துள்ளது	-10.2899
23	-10.2899
▁சரத்	-10.2901
▁எக்ஸ்பிரஸ்	-10.2902
▁ஆதரிக்க	-10.2902
▁பொம்மை	-10.2902
▁‛	-10.2903
▁விமானங்கள்	-10.2905
ளவில்	-10.2906
▁அச்சம்	-10.2907
▁2015	-10.291
த்துவ	-10.2911
ீஸ்வரர்	-10.2917
▁வழங்குவது	-10.2918
ரத்ன	-10.2918
▁நிலநடுக்கம்	-10.2922
க்கரை	-10.2927
ுக்க	-10.2928
ட்ரி	-10.2929
.8	-10.2936
▁சீனாவில்	-10.2936
▁அரி	-10.2942
▁காலத்திற்கு	-10.2942
▁கட்டாய	-10.2946
▁திட்டமிட	-10.2948
▁கொஞ்ச	-10.2949
தேவி	-10.2951
▁வீழ்ச்சி	-10.2951
▁சதுர்த்தி	-10.2952
▁அமைதியாக	-10.2953
16	-10.2955
▁கலாநிதி	-10.2955
▁கிளம்பி	-10.2955
▁மீட்கப்பட்ட	-10.2955
▁பிரதமர	-10.2958
▁சுவாமிகள்	-10.2958
▁இருப்பவர்கள்	-10.2959
▁வகையிலும்	-10.296
▁விலையில்	-10.296
ைய	-10.2961
தாம்	-10.2966
▁பகிர்ந்த	-10.2969
▁மையமாக	-10.297
▁துறைகளில்	-10.2974
▁கலந்துகொண்டு	-10.2976
.00	-10.2983
▁இதைப்	-10.2988
▁தந்து	-10.299
▁ஓவர்	-10.2991
சியா	-10.2998
▁மேற்கத்த	-10.2999
▁மட்டக்களப்பு	-10.3001
▁குரங்கு	-10.3001
▁இலக்கை	-10.3002
▁இம்முறை	-10.3002
▁வேட்டை	-10.3004
▁நினைக்க	-10.3007
▁ஆவணங்களை	-10.3007
▁சூடு	-10.3013
▁ஆயுள்	-10.3014
▁வைத்திருக்க	-10.3018
▁காத்திருந்த	-10.3022
▁ராவ்	-10.3022
வாதி	-10.3022
▁தூதரக	-10.3026
▁எதிர்ப்ப	-10.3032
▁கன்	-10.3038
▁தூர	-10.3039
▁பாதுகாப்பை	-10.3042
▁மேலதிக	-10.3042
▁41	-10.3044
▁பரிந்துரைக்க	-10.3047
▁அணிந்த	-10.3048
த்திற்குள்	-10.3048
▁வயதுக்கு	-10.305
▁செங்கல்பட்டு	-10.3051
▁வாக்களித்த	-10.3052
▁பிரதிநிதித்துவ	-10.3052
▁உயிரிழப்பு	-10.3054
▁பணிக்கு	-10.306
▁இயக்கத்தில்	-10.3061
▁வண்ண	-10.3062
▁உணவுகளை	-10.3063
ிற்கான	-10.3068
▁பங்குனி	-10.3071
▁ஆற்றல்	-10.3078
▁நிறுவனங்களுக்கு	-10.3078
▁போட்டியிடும்	-10.3086
▁வைத்திய	-10.3086
▁வழங்கியுள்ளது	-10.3091
▁வறுமை	-10.3102
▁தொலை	-10.3104
▁வேக	-10.3104
▁கண்டிப்பாக	-10.3106
▁சுற்றியுள்ள	-10.3107
வினர்	-10.3112
▁வாடகை	-10.3112
▁ஃபி	-10.3113
சன	-10.3114
▁இதன்படி	-10.312
▁அன்ன	-10.3123
ருவ	-10.3127
▁படகு	-10.3127
▁லோ	-10.313
▁பயணிக்க	-10.3131
▁வழக்குப்	-10.3135
▁மிரட்ட	-10.3137
▁திரும்பப்	-10.3139
▁பழனி	-10.3146
ப்போகிறது	-10.3146
▁ஒடிசா	-10.3147
▁ஒலி	-10.315
்கி	-10.315
▁அதேசமயம்	-10.3152
▁ஈபிஎஸ்	-10.3152
▁3-	-10.3152
▁டெல்டா	-10.3153
▁நிச்சயமாக	-10.3153
▁அறிவிப்ப	-10.3156
▁ஆயுதங்களை	-10.3159
5%	-10.3162
▁சிவப்பு	-10.3163
▁அதிகபட்சமாக	-10.3167
▁சங்கர்	-10.317
▁கோட்ட	-10.3171
▁உயிரிழந்தார்	-10.3171
▁பலாத்காரம்	-10.3171
▁ஆள்	-10.3178
▁நிறுவனங்களில்	-10.3181
ையா	-10.3183
▁உறவுகளை	-10.3183
▁அயோத்தி	-10.3184
▁சிலைகள்	-10.3185
▁சூட்ட	-10.3186
▁ஓட்டுநர்	-10.3186
▁அரசியலை	-10.3187
▁செயற்பட	-10.3189
▁33	-10.319
▁பரி	-10.3191
▁கொள்கையை	-10.3196
▁நாடுகளுக்கும்	-10.3197
▁அழிக்க	-10.32
▁தேசியவாத	-10.32
▁கம்பெனி	-10.3203
▁காதலி	-10.3203
▁ஆரம்பித்து	-10.3204
▁வியாழக்கிழமை	-10.3205
▁பட்டாசு	-10.3205
▁ரூபாய்க்கு	-10.3205
களிடமிருந்து	-10.3206
▁வங்கிக்	-10.3209
▁முருக	-10.3209
யூர்	-10.3212
▁அனைவர	-10.3212
▁கார்டு	-10.3212
▁வாக்குறுதி	-10.3214
▁மதிக்க	-10.3214
▁அஞ்சலி	-10.3216
▁பேரிடர்	-10.3218
il	-10.3218
▁குஜராத்தில்	-10.322
▁மகிழ்ச்சியாக	-10.3224
▁கப்பல	-10.3227
▁பாவ	-10.3227
▁கெஜ்ரிவால்	-10.3231
▁பட்டு	-10.3232
▁கோல	-10.3233
▁திருக்கல்யாண	-10.3234
▁கடினமாக	-10.3235
▁பில்	-10.3241
▁கொண்டாடி	-10.3248
▁அறிவித்து	-10.3249
▁உத்தரவிட்டது	-10.3251
▁வலு	-10.3252
v	-10.3253
▁உப்பு	-10.3256
▁உருவாக்கும்	-10.3257
▁அவரால்	-10.326
▁சென்றபோது	-10.3266
தெல்லாம்	-10.3269
▁அன்ப	-10.3269
▁ஆடியோ	-10.3269
▁தாம்	-10.3278
▁போஸ்டர்	-10.3279
▁கணக்க	-10.328
▁செய்யவும்	-10.329
▁அழைப்ப	-10.3297
த்தே	-10.3299
தாவது	-10.3301
▁வெயில்	-10.3302
▁நிகழ்ச்சியை	-10.3303
▁சுட்டிக்காட்டின	-10.3305
▁புண்ணிய	-10.3305
▁ஹசீனா	-10.3306
▁நடுத்தர	-10.3306
▁மனநல	-10.3306
▁லிட்டர்	-10.3306
et	-10.3306
.10	-10.3307
▁அதிகளவில	-10.3308
▁செலவில்	-10.3309
▁என்கின்றனர்	-10.331
▁இணையதள	-10.3313
35	-10.3314
▁பேசுவது	-10.3314
▁வென்றது	-10.3317
▁பந்தை	-10.3317
ாண்டு	-10.332
ol	-10.3321
▁சிங்கப்பூர்	-10.3326
▁பற்றாக்குறை	-10.3326
சுவாமி	-10.333
▁கூறுகிறார்கள்	-10.3334
▁குறிப்பிட்டுள்ள	-10.3334
▁இறை	-10.3337
கின்ற	-10.3342
▁நவீன்	-10.335
▁காப்பு	-10.3353
கொள்ள	-10.3353
▁புதுப்பிக்க	-10.3357
▁லட்சக்கணக்கான	-10.3358
▁55	-10.336
▁சீதாராமன்	-10.3361
▁இப்படிப்பட்ட	-10.3365
▁அமைச்சரவையில்	-10.3366
▁வசந்த	-10.3367
▁ஹோட்டல்	-10.3371
▁மருந்துகள்	-10.3371
▁பட்சத்தில்	-10.3374
▁கூறப்படும்	-10.3377
▁மனிதர்கள்	-10.3379
▁வெளியிட்டது	-10.3382
▁தானம்	-10.3385
▁செய்யாமல்	-10.3387
▁உயர்நீதிமன்றம்	-10.339
▁வரிசை	-10.3392
ப்படலாம்	-10.3393
பல்	-10.3393
மல்	-10.3393
▁வழங்கியது	-10.3394
சேகர	-10.3401
▁வேலையில்	-10.3406
▁ஜாதக	-10.3409
▁மகேஷ்	-10.3409
▁நினைக்கிறேன்	-10.3411
▁தெரியவந்துள்ளது	-10.3416
▁தெரிவிக்கிறார்	-10.3418
▁அறிவ	-10.342
▁ஓம்	-10.3421
▁இணைக்க	-10.3424
▁ஜூ	-10.3426
▁ஊரில்	-10.3428
ளம்	-10.3429
▁உள்ளதா	-10.343
▁பயணித்த	-10.343
▁சட்டசபையில்	-10.3432
ணு	-10.3434
▁நீல	-10.3446
▁10-	-10.3447
▁பட்டியலின	-10.3452
த்தினை	-10.3453
▁தீயணைப்பு	-10.3461
▁மதிப்பிலான	-10.3461
▁எளிய	-10.3461
▁முர்மு	-10.3461
▁ஓரிரு	-10.3461
▁சமூகத்தில்	-10.3462
▁சத	-10.3463
ங்களால்	-10.3465
▁சத்ய	-10.3466
▁எழுத்தாளர்	-10.3467
▁தொழிலில்	-10.3469
▁சிறுநீரக	-10.347
▁நாடுகளை	-10.3471
▁அரங்க	-10.3472
வருமான	-10.3475
▁சம்பள	-10.3494
▁தலைவர்களும்	-10.3502
22	-10.3511
▁பணிகளில்	-10.3513
▁புகழ்பெற்ற	-10.3513
▁பலருக்கும்	-10.3516
▁சாதகமான	-10.3518
▁கிர	-10.3519
▁மாநிலங்களவை	-10.3519
▁இருதரப்பு	-10.3521
▁வலியுறுத்தினார்	-10.3522
▁பக்தி	-10.3528
ப்படுவார்கள்	-10.3528
▁நினைப்ப	-10.3528
▁கவுன்சிலர்	-10.3533
▁பொதுக்குழுவில்	-10.3536
▁ஆக்கிரமிப்பு	-10.3537
▁எழுதியுள்ளார்	-10.3537
▁ஆவண	-10.3538
ங்களைக்	-10.3541
▁நிபந்தனை	-10.3544
▁தள்ள	-10.3544
நாதர்	-10.3544
த்திலுள்ள	-10.3545
துதான்	-10.3545
▁அனுப்பப்பட்ட	-10.3546
▁மறுத்து	-10.3547
▁வலைதள	-10.3547
ப்பாக	-10.3555
▁கேள்விகளை	-10.3557
▁எம்எல்ஏக்கள்	-10.3558
▁உடைய	-10.356
▁கடத்த	-10.3564
▁அந்நிய	-10.3566
▁முதலாவது	-10.3566
▁நேட்டோ	-10.3566
கிர	-10.357
ாவது	-10.3578
▁விதித்த	-10.3586
▁2019-	-10.3587
லட்சுமி	-10.3589
▁எதிர்கொள்ளும்	-10.3592
ங்களைப்	-10.3596
▁துறையினர்	-10.3596
▁தீபாவளி	-10.3598
ண்டர்	-10.3598
▁முடிவெடுக்க	-10.3598
▁கந்த	-10.3601
ாளர	-10.3604
▁தயாராகி	-10.3606
▁அடைக்கப்பட்ட	-10.361
ியிருக்கிறது	-10.3611
▁விடுக்க	-10.3617
▁பயன	-10.3618
▁ஊடகவியலாளர்	-10.3618
▁ஒலிம்பியாட்	-10.3618
▁நூற்றுக்கணக்கான	-10.3618
▁ஹர்திக்	-10.3619
▁தலித்	-10.3623
▁நிற்கும்	-10.3624
▁இருவரையும்	-10.3627
▁மிகச்	-10.3628
▁அதையடுத்து	-10.3629
▁சட்டப்படி	-10.363
▁முறைப்படி	-10.3631
▁கவனத்தை	-10.3632
த்தின	-10.3638
னூர்	-10.3638
த்தார்	-10.3646
▁அவங்க	-10.3648
▁கருத்துகள்	-10.3649
▁துவங்க	-10.3649
▁ஸ்டார்	-10.3649
▁அறிகுறிகள்	-10.365
ர்ட்	-10.365
▁கூடவே	-10.3653
ஜன	-10.3658
▁உருவான	-10.3658
▁பிரித்து	-10.366
▁நீதிமன்றத்தின்	-10.3672
▁வெளியுறவுத்துறை	-10.3674
▁ஆவது	-10.3674
▁நிலைப்பாடு	-10.3674
▁வடிவ	-10.3674
▁Vikatan	-10.3675
▁செய்திருந்தார்	-10.3677
▁இதர	-10.3681
▁வெளியிட்டார்	-10.3681
▁தலையிட	-10.3682
▁வெறுப்பு	-10.3687
▁அதிகாரிகளை	-10.3688
யாவது	-10.3692
▁மாநிலத்	-10.3692
▁விஞ்ஞானி	-10.3694
▁உதய	-10.3695
▁வெளியாகிய	-10.3696
W	-10.3698
▁பாஜகவினர்	-10.3699
▁ரத	-10.3699
▁சட்டத்தில்	-10.3699
▁விளையாடிய	-10.3705
▁பொறுத்து	-10.3707
▁நேபாள	-10.3708
▁கிராமத்தைச்	-10.3709
▁விஞ்ஞானிகள்	-10.3711
▁செய்தியை	-10.3713
▁பவார்	-10.3713
▁செய்துள்ள	-10.3714
▁நிஜ	-10.3716
▁ஆளாக	-10.3721
▁அதைக்	-10.3721
▁கேட்டது	-10.3722
▁நிறை	-10.3723
▁திருவள்ளூர்	-10.3725
கின்றனர்	-10.3726
பில்	-10.3727
▁ஆய்வில்	-10.3728
▁பிறப்பிக்க	-10.3728
யடைந்த	-10.3732
லூர்	-10.3732
யன்று	-10.3736
▁நிலைப்பாட்டை	-10.3737
▁வேண்டியிருந்தது	-10.3747
▁எரி	-10.3752
▁நீரை	-10.3756
▁போட்டியிட்டு	-10.3761
▁முயன்று	-10.3763
▁ஸ்டா	-10.3772
▁மண்டபம்	-10.3772
▁மறுப்பு	-10.3773
▁விவாதிக்க	-10.3776
ஞ்சு	-10.3776
▁மனோஜ்	-10.378
▁விரும்புகிறேன்	-10.378
▁நெடுஞ்சாலை	-10.3782
▁கதவு	-10.3783
us	-10.3784
▁பைக்	-10.3784
▁சூழலை	-10.3785
▁சித்ரா	-10.3786
▁பிரகாஷ்	-10.3787
வச	-10.3791
▁37	-10.3792
▁அறிவிப்பை	-10.3794
▁கமலா	-10.3797
ியிருக்கிறார்	-10.3798
ர்ந்த	-10.38
▁எனச்	-10.3822
▁பள்ள	-10.3824
▁ரஷ்யாவுக்கு	-10.3827
சிவ	-10.3831
▁மறந்து	-10.3833
▁சமாஜ்வாதி	-10.3833
ானந்த	-10.3834
ப்படாமல்	-10.3835
▁பழனிவேல்	-10.3837
▁பொறியியல்	-10.3837
ாரு	-10.3838
▁சகல	-10.3839
▁பாய்	-10.3841
▁கமிஷனர்	-10.3841
▁தொ	-10.3841
▁வாரங்களுக்கு	-10.3843
ஞ்ச்	-10.3846
▁கொரியா	-10.3847
▁அவள	-10.385
▁நகரங்களில்	-10.3851
ுவிடும்	-10.3851
▁சோழ	-10.3854
▁குற்றவாளிகள்	-10.3855
▁எண்ணிக்கையில்	-10.3856
▁நாடாளுமன்றத்தில	-10.3864
▁வசதிகளை	-10.3867
▁எதிர்ப்பை	-10.3867
▁நுழைய	-10.3867
▁ஊருக்கு	-10.3868
பெற	-10.3871
▁தொட்ட	-10.3871
ளு	-10.3872
லிங்க	-10.3886
▁குடியுரிமை	-10.3887
▁நிலக்கரி	-10.3887
▁நான்காவது	-10.3887
▁எளிதில	-10.3888
▁ஈஸ்வர	-10.3888
▁ஒன்றரை	-10.3889
▁சின்னம்	-10.3891
▁வேண்டுமா	-10.3894
ாளர்கள்	-10.3895
▁சேத	-10.3896
▁செய்தியாளர்கள்	-10.3898
▁விருந்து	-10.3902
▁வாக்காளர்	-10.3904
▁நேரத்தை	-10.3908
▁பெய்ய	-10.3911
▁கள்ள	-10.3912
▁அடுத்தடுத்த	-10.3915
▁நிம்மதி	-10.3927
▁காய	-10.3928
▁உத்தரவிட	-10.3936
▁மருத்துவம்	-10.3941
▁என்பதைக்	-10.3942
▁மாற்றுத்திறனாளி	-10.3942
▁நியாய	-10.3947
▁தூதுவர்	-10.3949
▁புலிகள்	-10.3949
▁கத்தி	-10.3949
▁அத்தியாவசிய	-10.3949
▁கெட்ட	-10.3951
▁சங்கர	-10.3952
▁பதிவில்	-10.3953
▁சேரும்	-10.3955
▁சச்சின்	-10.3956
▁நிறுவனர்	-10.3956
வரு	-10.3957
▁சீனிவாசன்	-10.396
பெண்	-10.3963
▁அறிவித்துள்ளார்	-10.397
▁பார்க்கும்போது	-10.3971
ation	-10.3972
▁சுக	-10.3973
▁பொறுப்பை	-10.3974
யின்போது	-10.3975
▁காண்ப	-10.3977
▁பங்கேற்ப	-10.3983
▁திட்டமிடப்பட்ட	-10.3983
▁மானிய	-10.3985
▁நபரை	-10.3991
▁உத்தரப்	-10.3992
▁முன்வைத்து	-10.3993
▁நிராகரித்த	-10.3997
▁விஷ்ணு	-10.3997
▁ஆச்சர்ய	-10.3997
▁பகல்	-10.4003
▁மோடிக்கு	-10.4005
▁ஊட்டி	-10.4011
▁தியாகராஜன்	-10.4012
▁கொண்டவர்	-10.4018
▁கடைகள்	-10.402
▁எடுத்தார்	-10.4022
▁வந்துள்ளனர்	-10.4028
ப்பிர	-10.403
▁நாளும்	-10.4032
▁தரை	-10.4032
▁சன்னதி	-10.4033
▁34	-10.4035
▁கொடுப்ப	-10.4038
ஆக	-10.4039
▁தெரிவு	-10.4039
▁அம்	-10.4039
▁சுர	-10.4041
றது	-10.4046
ப்படுகின்றது	-10.405
ir	-10.405
▁பராமரிக்க	-10.4052
▁பிரசித்தி	-10.4052
▁கனிமொழி	-10.4052
ப்போன	-10.4053
▁முடிவெடுத்த	-10.4053
▁மெட்ரோ	-10.4053
▁கதையை	-10.4055
▁கைதுசெய்யப்பட்ட	-10.4055
▁மேற்கொண்டார்	-10.4058
▁மிரட்டி	-10.406
▁அதிகரிப்பு	-10.4061
ிருப்பார்	-10.4063
▁உணவ	-10.4064
யாராவது	-10.4066
▁ஸ்ட	-10.4066
▁ஷெ	-10.4067
▁மறுசீரமைப்பு	-10.4069
▁நீள	-10.4069
▁விடுத்துள்ளார்	-10.4072
யொரு	-10.4073
▁எந்தத்	-10.4075
▁விகடன்	-10.4077
▁தெரியவந்த	-10.4078
▁தோன்ற	-10.4081
▁ஆதீனம்	-10.4082
▁கலவர	-10.4084
▁கலந்த	-10.4089
▁ஜாதி	-10.4093
▁செய்துவிட்டு	-10.4094
▁அளிப்ப	-10.4096
▁இவற்றை	-10.4098
▁108	-10.41
▁நிறைவேற்றி	-10.4102
▁மகனை	-10.4103
▁அறு	-10.4108
▁இடஒதுக்கீடு	-10.4108
▁வாக்குவாதம்	-10.4108
▁அகமது	-10.4108
▁பிரசவ	-10.4108
▁நிறுவனங்களை	-10.411
களுக்குள்	-10.411
▁பாடி	-10.411
▁அரசால்	-10.4112
▁அதிபர	-10.412
மண	-10.4124
ிற்கும்	-10.4125
▁வேறுபாடு	-10.4126
▁அரசிடம்	-10.413
▁சுத்தம்	-10.4134
▁வைத்துள்ளார்	-10.4135
▁சதம்	-10.4135
▁விவரங்கள்	-10.4137
ுபவர்	-10.4138
டிக்க	-10.414
▁அருண்	-10.4143
▁பரவிய	-10.4144
▁V	-10.4146
▁கொடுக்கப்பட்ட	-10.415
▁பாலத்தீன	-10.4151
▁நாள்கள்	-10.4159
▁அதனைத்	-10.416
▁பயன்	-10.4164
▁வேட்புமனு	-10.4164
▁அளிக்கப்பட்டது	-10.4165
▁உச்சி	-10.4166
▁44	-10.4173
▁கண்டறியப்பட்ட	-10.4173
▁முதல்முறையாக	-10.4174
▁அலுவல்கள்	-10.4178
▁கவனித்து	-10.4179
▁யூனியன்	-10.4181
▁ஒருவர	-10.4184
▁தமிழ்நாட்டு	-10.4184
▁வருகின்ற	-10.4185
▁வீழ்த்திய	-10.4187
▁காம	-10.4187
▁அதிகபட்ச	-10.4188
▁வெள்ளத்தில்	-10.4196
▁முகாம்	-10.4202
▁விடிய	-10.4205
▁நட	-10.4205
▁பிள	-10.421
ப்பட்டிருந்த	-10.421
▁சிறுத்தைகள்	-10.421
▁சராசரி	-10.4212
▁38	-10.4215
▁வழங்கப்படுகிறது	-10.4215
▁சுற்றுலாப்	-10.422
▁தூய்மை	-10.422
▁இவ்வாறான	-10.4221
▁தனிப்படை	-10.4222
ிற்காக	-10.4224
▁விவகாரத்தை	-10.4226
▁மகன	-10.4234
▁துண்ட	-10.4234
▁வருகிறேன்	-10.4237
▁அரசியலுக்கு	-10.424
▁சரவணன்	-10.424
▁மனுவில்	-10.4243
▁அரசியல்வாதி	-10.4244
அந்த	-10.4245
▁வேண்டுகோள்	-10.4245
▁புதன்கிழமை	-10.4248
▁குவித்த	-10.4257
▁சீசன்	-10.4258
▁நல்லா	-10.4268
13	-10.4271
▁ட்ர	-10.4272
▁டாப்	-10.4273
▁ரூபாயை	-10.4273
▁பின்ன	-10.4275
▁பிரச்னையை	-10.4275
ொன்று	-10.4276
▁சூதாட்ட	-10.4276
▁பயன்பாடு	-10.4276
▁கொங்கு	-10.4279
▁வழங்கப்பட்டு	-10.4282
▁என்பவர	-10.4285
▁வாகனங்களில்	-10.4291
▁வீராங்கனை	-10.4293
▁வருடங்கள்	-10.4295
மாகி	-10.4295
▁இவர	-10.43
▁நேர்	-10.4304
வங்க	-10.431
▁அரேபியா	-10.4314
▁சிக்கல்கள்	-10.4314
▁கில்	-10.4317
யிருந்த	-10.4318
▁மீள	-10.4319
▁வாரத்தில்	-10.4324
யுமான	-10.4329
▁சமூகம்	-10.4333
▁ஆன்மீக	-10.4333
▁அமைக்கும்	-10.4333
▁தீர	-10.4334
▁பொறுப்பேற்ற	-10.4335
▁இறைச்சி	-10.4335
▁உயிருடன்	-10.4336
▁உருவாக	-10.434
பிள்	-10.4341
▁காவி	-10.4344
▁மாநிலங்கள்	-10.4345
▁ஊழியர்களுக்கு	-10.4346
▁காசு	-10.4346
▁விஜயகாந்த்	-10.4347
▁அல்லாத	-10.435
▁நிவாரணம்	-10.4351
▁புகாரின்	-10.4352
▁விளை	-10.4352
நேர	-10.4355
ப்பன்	-10.4357
▁எச்	-10.4363
▁அம்பேத்கர்	-10.4364
▁கண்ணன்	-10.4365
▁உறவுகள்	-10.4367
ாவை	-10.4372
▁திருட	-10.4373
ென	-10.4377
▁தேவைப்படும்	-10.4379
யம்மன்	-10.4381
▁5-	-10.4382
ோரின்	-10.4382
▁அந்தந்த	-10.4389
▁சிறுமியை	-10.439
▁அரையிறுதி	-10.439
▁எதிர்கட்சி	-10.4391
▁எழுத்து	-10.4392
▁சேவையை	-10.4392
▁கூறியதாவது	-10.4392
▁அதுவே	-10.4393
கூ	-10.4398
▁திருமலை	-10.4398
▁நாங்க	-10.4398
▁ஜெயந்தி	-10.44
▁பாதுகாப்ப	-10.44
▁காஷ்மீரில்	-10.4402
▁கண்டறிந்த	-10.4402
▁நாள்களுக்கு	-10.4408
தாகத்	-10.441
▁நடத்தப்பட	-10.4411
▁விரும்பும்	-10.4413
▁கலந்துரையாடல்	-10.4413
▁சம்பந்த	-10.4419
.7	-10.4422
▁பொதுக்	-10.4427
ிப்பு	-10.4428
▁சேர்க்கப்பட்ட	-10.443
▁விதிகள்	-10.443
▁விமர்சனங்களை	-10.443
.50	-10.443
▁ராஜேந்திர	-10.4436
▁ஓவர்கள்	-10.4436
▁எனக்குத்	-10.4439
▁நாளிதழ்	-10.4445
▁பிறகுதான்	-10.4446
▁இளம்பெண்	-10.4446
▁கிருஷ்ணகிரி	-10.4448
▁டாடா	-10.4451
▁கோழி	-10.4454
▁அளிக்கிறது	-10.4456
ஜீ	-10.4458
▁பேச்சை	-10.4461
▁பூச்சி	-10.4461
ப்போகிறார்	-10.4463
▁நூறு	-10.4463
▁ஜோதி	-10.4466
▁ஆணையத்தின்	-10.4466
ராய்	-10.4467
▁சீர	-10.4469
▁அளிக்கப்பட்ட	-10.4472
▁அன	-10.4474
ளே	-10.4481
▁பாலம்	-10.4482
▁தொடங்கியுள்ளது	-10.4486
▁தங்கியிருந்த	-10.4486
▁வெட்ட	-10.449
ுவர்	-10.4491
▁ஆலோசனைக்	-10.4492
▁கேமரா	-10.4497
▁நண்பர	-10.4497
▁உருவாகி	-10.4497
▁சொல்ற	-10.4501
▁தருவதாக	-10.4501
▁வான்	-10.4503
▁திருத்தம்	-10.4504
▁BBC	-10.4505
▁மிதமான	-10.4506
▁இளைய	-10.4506
▁பர	-10.4508
வதி	-10.4509
▁லால்	-10.451
un	-10.4511
▁தீவு	-10.4511
..?	-10.4511
▁பட்டி	-10.4512
▁அரசியல	-10.4515
▁வைகோ	-10.4517
75	-10.4518
▁பல்கலைக்கழகம்	-10.4521
▁தெரிவிப்ப	-10.4523
ப்பதற்காக	-10.4524
▁மாநிலங்களுக்கு	-10.4525
▁காணப்படுகிறது	-10.4527
வற்றை	-10.4532
▁நாளைக்கு	-10.4534
▁முதல	-10.4543
▁செய்யப்பட்டனர்	-10.4544
▁பெரிதும	-10.4547
▁2022-	-10.4548
▁யோகா	-10.455
▁ஜனநாயகக்	-10.4552
▁மங்கள	-10.4552
▁ஐரோப்பா	-10.4559
▁சுட்டுக்	-10.456
▁உக்ரைன	-10.4561
▁குடிக்க	-10.4562
▁கர்ப்ப	-10.4563
▁சல்மான்	-10.4564
▁கணினி	-10.4564
▁தட்டுப்பாடு	-10.4564
▁அதிர்ச்சியடைந்த	-10.4565
▁பிரியாணி	-10.4565
▁சைபர்	-10.4566
▁ஜெகன்	-10.4566
▁&	-10.4568
▁ரயிலில்	-10.457
ாகப்	-10.4571
குடி	-10.4573
▁சாதனையை	-10.4581
▁பறவை	-10.4582
▁கொட்டி	-10.4588
▁ஆகியோரும்	-10.4589
▁டாஸ்மாக்	-10.4594
▁கைதுசெய்த	-10.4594
▁பிரபு	-10.4602
மங்கலம்	-10.4603
▁குழப்பம்	-10.4605
மடை	-10.4605
▁உயிரிழந்தனர்	-10.4609
▁பாலி	-10.461
நாடு	-10.4611
17	-10.4613
ிறதா	-10.4614
▁அவர்களால்	-10.4618
▁தலைவர்களை	-10.4621
▁குறிப்பு	-10.4622
▁சந்திரபாபு	-10.4622
▁நீக்கி	-10.4622
▁முதலீட்டு	-10.4623
முடி	-10.4623
▁மூச்சு	-10.4627
▁கங்கை	-10.4628
▁நிமிடங்கள்	-10.4628
▁எண்ணம்	-10.4628
▁ஆரோக்கிய	-10.4632
▁நெருக்கமாக	-10.4633
▁கல்வெட்டு	-10.464
▁+	-10.4642
▁இன்னமும	-10.4643
பிறகு	-10.4648
▁பாண்டியன்	-10.465
▁பாலா	-10.4651
ாஸ்	-10.4655
▁செலுத்தினர்	-10.4657
▁அவரைப்	-10.4661
▁கண்காட்சி	-10.4661
▁பிரம்ம	-10.4666
▁ஃபை	-10.4668
la	-10.4668
▁வந்தவர்	-10.4669
▁முன்னேற	-10.4669
se	-10.4669
▁கைப்பற்றிய	-10.4669
த்துக்குள்	-10.4675
▁அர்த்தம்	-10.4678
▁இந்தியாவிற்கு	-10.4678
▁கடைசியாக	-10.4679
▁பதற்ற	-10.4679
x	-10.468
▁தஞ்சை	-10.4681
▁ஆர்சிபி	-10.4681
▁வெளிப்படுத்தி	-10.4682
▁பிரதம	-10.4686
▁பன்	-10.4687
ிகள்	-10.4687
▁நொடி	-10.4689
இந்திய	-10.4691
▁பலம்	-10.4691
▁கட்சிகளுக்கு	-10.4695
▁தொடக்கம்	-10.4696
▁c	-10.4699
▁அஸ்வின்	-10.4699
▁பதவியேற்ற	-10.4703
ருக்கும்	-10.4704
▁காட்சிகளை	-10.4706
▁1000	-10.4707
▁ஊற்றி	-10.4711
▁இடம்பெற	-10.4713
ீன்	-10.4719
ங்களுக்கும்	-10.4722
▁அதிமுகவை	-10.4723
▁பாடல	-10.4725
▁வாச	-10.4725
▁பாதிக்கப்பட்டு	-10.4732
▁காய்	-10.4738
▁பொருள்களை	-10.4738
▁தொல்லியல்	-10.474
▁கூட்டாளி	-10.474
▁படப்பிடிப்பு	-10.474
▁வசூலிக்க	-10.4742
▁வெற்றிபெற	-10.4745
▁நிலுவையில்	-10.4748
▁துரைமுருகன்	-10.475
▁உள்ளவர்கள்	-10.4752
▁பெண்ணுக்கு	-10.4753
▁வள்ளி	-10.4754
▁நள்ளிரவு	-10.4754
▁முஸ்லிம்கள்	-10.4756
▁வல்ல	-10.4756
ul	-10.4765
வுள்ளது	-10.4766
▁முகமை	-10.4768
▁புத்த	-10.4769
▁மதிப்பில்	-10.4772
▁ஆகியோருக்கு	-10.4773
▁குறிவைத்து	-10.4773
லிய	-10.4774
நெ	-10.4784
▁தரிசன	-10.4789
▁ஆல	-10.4789
▁மனநிலை	-10.479
▁விக்கெட்டை	-10.4793
▁காவல்துறையினர	-10.4794
கடந்த	-10.4794
பத்	-10.4796
▁ஜார்க்கண்ட்	-10.48
▁தென்னாப்பிரிக்க	-10.48
▁ஜிஎஸ்டி	-10.48
▁உதவிய	-10.4804
▁பட்டா	-10.4807
▁வட்டார	-10.4807
▁கச்சா	-10.4809
▁ஆவார்	-10.481
▁ஆய்வுகள்	-10.481
▁மலையாள	-10.481
▁அதிபராக	-10.4812
▁சாப்பிட்டு	-10.4813
▁பழங்குடியின	-10.4814
▁காங்கிரஸின்	-10.4816
▁கிராமங்களில்	-10.4819
▁நிகர	-10.4819
▁சாட்ட	-10.4826
▁அபி	-10.4827
வினால்	-10.4829
▁அட்	-10.483
பட்டு	-10.4831
▁வைத்துள்ளது	-10.4832
▁விதிகளை	-10.4832
ப்பணி	-10.4833
▁மேற்கொண்டனர்	-10.4836
▁குறைந்துள்ளது	-10.4839
▁இப்போதும்	-10.4841
▁சேனல்	-10.4847
▁ஸ்தானத்தில	-10.4847
▁கலாச்சார	-10.4848
ோருக்கு	-10.4849
▁தீப	-10.4852
▁வருபவர்	-10.4853
▁ஹரியானா	-10.4855
▁ஃபா	-10.4855
▁42	-10.4858
▁பொலிஸ்	-10.486
▁சர்ச்சைக்குரிய	-10.4861
▁மதிப்ப	-10.4861
▁தங்களுடைய	-10.4863
▁நு	-10.4864
ுமே	-10.4864
▁மாலத்தீவு	-10.4867
ுவீர்கள்	-10.4869
▁பேசியுள்ளார்	-10.487
▁ஒட்டிய	-10.4876
▁நடத்துவது	-10.4886
▁கொண்டாட்ட	-10.4888
▁கன்னட	-10.4889
▁ஆர்டர்	-10.4889
▁தீர்மானத்தை	-10.489
▁யாதவ	-10.489
▁தீர்ப்ப	-10.4895
கம	-10.4895
▁லூ	-10.4897
திலிருந்து	-10.4897
▁சங்கட	-10.4897
▁பாக	-10.49
▁அற	-10.49
▁மனைவியை	-10.4901
த்திடம்	-10.4901
▁மூலவர்	-10.4909
ப்போகும்	-10.4909
▁ரத்தம்	-10.491
▁சாட்டப்பட்ட	-10.4916
▁நிராகரிக்க	-10.492
▁கூட்டுறவு	-10.492
▁காரணத்தால்	-10.4921
▁நிறுத்திய	-10.4923
▁கிடைக்கிறது	-10.4925
ent	-10.4925
▁சாத்தியம்	-10.4926
▁மாசி	-10.4927
▁காத்திருக்க	-10.4933
▁அசாம்	-10.4935
▁யானைகள்	-10.4941
▁செல்வதற்கு	-10.4942
▁செக்	-10.4945
சார	-10.4946
நாள்	-10.4946
▁சந்தித்துப்	-10.4947
ணர்	-10.4949
▁டிரைவர்	-10.4949
▁மசோதாவை	-10.495
க்குக்	-10.4954
▁விமர்சனங்கள்	-10.4955
▁ஓட்டி	-10.4958
மல்ல	-10.4959
ிருக்கிற	-10.4963
ுபவர்கள்	-10.4963
▁வலை	-10.4964
▁நோய்கள்	-10.4965
▁தீவிரவாத	-10.4965
▁நிலையான	-10.4971
▁மந்திர	-10.4971
▁குற்றம்சாட்டிய	-10.4971
▁வரலாற்றை	-10.4971
என்று	-10.4971
▁நிறுவனத்திற்கு	-10.4972
சூ	-10.4973
கரு	-10.4976
▁திருவாரூர்	-10.498
▁நுபுர்	-10.498
▁ஆன்மிக	-10.498
▁தேயிலை	-10.498
▁இபிஎஸ்	-10.498
▁இஸ்ரோ	-10.4981
▁குரூப்	-10.4981
▁போடும்	-10.4983
▁கையை	-10.4985
வருகிறார்	-10.4985
▁அறிவுறுத்திய	-10.4986
▁காளை	-10.4986
▁வளர்ப்ப	-10.4987
▁டேவிட்	-10.4989
▁நிகழ	-10.499
▁அருள	-10.4992
▁நிலையங்களில்	-10.4992
08	-10.4992
▁பெயர	-10.4993
ிர்	-10.4993
▁பகுதிகளிலும்	-10.4994
▁அடங்கும்	-10.4998
ப்படுவதை	-10.5
▁ஷோ	-10.5
▁பலியான	-10.5002
ண்டை	-10.5007
▁உயிருக்கு	-10.5008
▁சித்தி	-10.5009
▁கூட்டி	-10.5011
▁துயர	-10.5011
▁வீடுகளை	-10.5011
▁39	-10.5012
தாஸ்	-10.5012
▁பாதித்த	-10.5014
ேஸ்வரர்	-10.5015
▁அஞ்ச	-10.5015
▁சித்த	-10.5023
▁செய்வதில்	-10.5023
▁வழக்குகளில்	-10.5026
ருடன்	-10.503
▁சொல்வத	-10.5031
▁நிலையத்திற்கு	-10.5032
▁குழும	-10.5036
▁நகைச்சுவை	-10.5037
▁யூடியூப்	-10.5041
▁மேற்கொள்ளும்	-10.5042
▁இழக்க	-10.5043
▁வெகுவாக	-10.5044
▁தொழில்துறை	-10.5045
▁விலகிய	-10.5047
த்திட்ட	-10.5047
வைக்க	-10.505
▁வீழ்த்த	-10.5051
▁வளர்ப்பு	-10.5053
▁கோவிலை	-10.5055
▁மோத	-10.5056
▁அப்போ	-10.506
▁எதிர்காலம்	-10.5062
▁ஒருவரான	-10.5066
▁தொழிலதிபர்	-10.5066
வாழ்	-10.5068
▁நடப்பது	-10.507
▁இயல்பு	-10.5078
▁பாச	-10.5082
▁படிப்பை	-10.5083
▁ஜய	-10.5084
▁சிக்ஸர்	-10.5085
▁உயர்கல்வி	-10.5097
▁பிரிக்க	-10.5097
▁2020-	-10.5097
▁கூட்டணியை	-10.5099
▁உணர்ச்சி	-10.5102
▁அறங்காவலர்	-10.5103
▁ஆங்காங்கே	-10.5103
▁தகராறு	-10.5103
▁ஆர்எஸ்எஸ்	-10.5103
▁முகவரி	-10.5104
▁துபாய்	-10.5105
▁கலந்துகொள்ள	-10.5105
▁விடை	-10.5107
▁திமுகவை	-10.5107
▁பரந்த	-10.5109
மென்ட்	-10.5109
▁உறவில்	-10.5109
▁போர	-10.5109
▁ஆதார	-10.511
▁பணிபுரியும்	-10.511
துரை	-10.5111
▁குறைந்தபட்சம்	-10.5111
▁வீரர	-10.5111
▁பெறுவது	-10.5112
▁ஆதார்	-10.5117
▁ஒன்றுக்கு	-10.512
▁ஆகியவற்றின்	-10.5122
ின்ற	-10.5123
▁மண்ண	-10.5125
▁ஓராண்டு	-10.5131
▁ஹெலிகாப்டர்	-10.5131
▁தங்கிய	-10.5132
கொட	-10.5139
▁மறைக்க	-10.514
ட்ரா	-10.5142
▁வைப்ப	-10.5148
▁செய்திகளை	-10.5149
▁கேட்கும்	-10.5154
▁துன்புறுத்த	-10.5154
▁இக்	-10.5159
தைக்	-10.5161
▁உரிமையை	-10.5162
▁மனிதர்	-10.5164
▁பொதுமக்களுக்கு	-10.5164
▁பந்துவீச்சில்	-10.5164
▁கோட்டாபய	-10.5164
▁தெரிவித்துக்	-10.5166
▁அளவ	-10.5167
▁சுவை	-10.5167
▁ஆறுதல்	-10.5168
▁எடுக்கவில்லை	-10.517
▁காலில்	-10.5172
முத்து	-10.5172
▁வித்தியாசமான	-10.5175
▁ஒன்றான	-10.5177
▁சொல்கிறது	-10.518
▁ஒதுக்கி	-10.518
▁நெருக்கடியை	-10.518
▁ஆளுநருக்கு	-10.5183
om	-10.5184
▁காளி	-10.5187
▁நிகழ்ச்சிகளில்	-10.5189
▁இங்க	-10.519
விழா	-10.5192
▁மீதமுள்ள	-10.5192
▁நகைகளை	-10.5194
ூரை	-10.5196
▁கண்டி	-10.5197
▁சீட்டு	-10.5198
▁கண	-10.5198
▁சீனியர்	-10.52
▁பாரிய	-10.52
80	-10.5201
▁அரசும்	-10.5201
▁திமுகவில்	-10.5203
▁வரையில்	-10.5203
▁பரம	-10.5204
▁கேஸ்	-10.5208
▁பெற்றுள்ளார்	-10.5214
▁சென்னைக்கு	-10.5216
▁முதற்கட்ட	-10.5218
▁உயர்த்தி	-10.5221
▁படு	-10.5224
பூரில்	-10.5224
▁பெய்த	-10.5226
▁பாலிவுட்	-10.5226
▁உத்தரகாண்ட்	-10.5227
▁தொண்டர்கள	-10.5227
▁பாருங்கள்	-10.5229
28	-10.5232
▁மணிப்பூரில்	-10.5233
▁உத்திர	-10.5237
▁நாசா	-10.5238
▁குழி	-10.5239
▁தெரிந்தது	-10.5241
▁கிங்ஸ்	-10.5241
▁சிற்ப	-10.5242
▁வட்டாரத்தில்	-10.5243
▁பயம்	-10.5244
ிர	-10.5244
▁வங்கிகள்	-10.5245
நாயக	-10.5245
▁அளித்துள்ளது	-10.5252
▁வேகம்	-10.5257
▁சத்திய	-10.526
▁பாதிப்ப	-10.5262
▁பரவும்	-10.5262
▁பறந்த	-10.5265
ராசா	-10.5268
▁ஆயுதங்கள்	-10.5273
▁இந்தியன்	-10.5276
▁குறைந்தபட்ச	-10.5281
ிக்கும்	-10.5284
கரமான	-10.5286
▁கட்சியினர	-10.5287
▁முன்னெச்சரிக்கை	-10.5289
▁இந்துக்கள்	-10.5297
▁பணியாற்றும்	-10.5298
27	-10.5299
▁சீசனில்	-10.5299
▁அற்புதமான	-10.5299
▁கருத்த	-10.53
▁கடையில்	-10.5302
▁இன்ஸ்பெக்டர்	-10.5302
▁தேசம்	-10.5304
▁அரங்கில்	-10.5309
▁படேல்	-10.531
▁சேர்	-10.5311
▁பிறகே	-10.5311
▁கூகுள்	-10.5312
▁விடாமல்	-10.5312
▁பேசியபோது	-10.5313
,500	-10.5313
▁நிறுத்தப்பட்ட	-10.5316
▁உரிமைகளை	-10.5316
▁கடவுள	-10.5317
▁கொடியை	-10.5319
▁எதை	-10.5322
▁பட்டியலை	-10.5324
▁குற்றம்சாட்டி	-10.5325
▁போராட்டங்களை	-10.5332
▁பாடல்கள்	-10.5333
▁உயர்ந்து	-10.5335
▁நலம்	-10.5335
▁வேளை	-10.5336
கொண்டிருந்த	-10.5345
▁புத்தாண்டு	-10.5352
▁யாகசாலை	-10.5352
▁உங்களுடைய	-10.5354
▁மட்டுமல்லாது	-10.5356
▁பரிமாற்ற	-10.5359
வுடனான	-10.536
▁வெளியாகும்	-10.5363
னெ	-10.5365
▁வேலுமணி	-10.5365
▁தயாரித்த	-10.537
▁இணையதளத்தில்	-10.5371
▁சிலையை	-10.5373
சின்	-10.5377
▁சட்டவிரோதமாக	-10.5383
▁உடலுக்கு	-10.5383
▁பதிவாகி	-10.5384
▁விமர்சன	-10.5385
▁கொண்டதாக	-10.5387
▁கண்டித்த	-10.5387
ென்ன	-10.5387
நீர்	-10.5388
தார்	-10.5389
▁அழுத	-10.5392
▁சங்கத்தின	-10.5393
▁பலர	-10.5394
▁மாற்றங்களை	-10.5398
os	-10.5398
▁மாவட்டத்தின்	-10.5401
ய்யா	-10.5401
▁ரன்களுக்கு	-10.5403
▁விவாகரத்து	-10.5404
வர்களிடம்	-10.5412
▁காவலர்கள்	-10.5412
▁இடது	-10.5415
▁உடற்பயிற்சி	-10.5415
▁காமெடி	-10.5415
▁தேர்தலுக்கான	-10.5416
▁அருள்பாலித்தார்	-10.542
▁காரணங்களால்	-10.5421
▁நியமித்த	-10.5421
ங்கோ	-10.5422
▁நடன	-10.5422
▁தெரிவிக்கிறது	-10.5424
ஸ்டா	-10.5427
▁மகிழ்ச்சியை	-10.5428
▁பிடிஆர்	-10.5428
▁எலி	-10.5429
▁கொள்ளுங்கள்	-10.5431
▁வேலைகளை	-10.5433
▁போற	-10.5436
▁மாவட்டங்கள்	-10.5437
▁வெடித்து	-10.5445
▁சரக்கு	-10.5452
▁சீர்	-10.5457
ாதீங்க	-10.546
▁இறுதியாக	-10.5463
▁வலுவாக	-10.5463
▁வந்திருக்கிறார்	-10.5465
▁தரப்புக்கு	-10.5466
ுவதும்	-10.5472
▁இதுவும்	-10.5473
▁அரிய	-10.5476
▁தரவு	-10.5478
▁அவிநாசி	-10.5479
▁இதேவேளை	-10.5479
▁நவராத்திரி	-10.5479
▁நெகிழ்ச்சி	-10.5479
▁மோட்டார்	-10.5479
▁கொண்டிருந்தனர்	-10.548
▁கற்பனை	-10.548
▁மேற்கொள்வ	-10.5481
▁சட்டப்பேரவை	-10.5482
▁விநியோக	-10.5483
▁செலவிட	-10.5484
▁விநியோகம்	-10.5486
▁வைக்கப்பட்டுள்ள	-10.5487
▁செய்வதால்	-10.549
▁செய்வதை	-10.549
▁பயப்பட	-10.5492
▁துவக்க	-10.5494
▁இடம்பெற்றது	-10.5494
▁எப்போதுமே	-10.5494
▁போக்க	-10.5496
▁வல்லுநர்கள்	-10.5498
▁ஒப்புக்கொண்ட	-10.55
▁கண்டன	-10.5501
ீர்களா	-10.5502
▁புத்தகத்தில்	-10.5503
▁அருந்த	-10.551
▁முத்த	-10.5511
▁செலவுகள்	-10.5514
▁ஒருங்கிணைந்த	-10.5515
▁அவனை	-10.5516
▁கட்சியும்	-10.5521
தெ	-10.5521
▁போராடிய	-10.5521
▁இள	-10.5522
வுக்கான	-10.5526
▁உளவுத்துறை	-10.5528
▁தயாரிப்பாளர்	-10.5529
▁மாகாணத்தில்	-10.5536
▁திருவ	-10.5536
▁பயந்து	-10.5541
▁ஒலிம்பிக்	-10.5542
▁அருகிலுள்ள	-10.5543
▁செயற்குழு	-10.5543
▁மக்கள்தொகை	-10.5543
▁ஆன்லைனில	-10.5543
▁குணவர்தன	-10.5543
▁நான்காம்	-10.5551
▁ஈடு	-10.5552
▁சந்த	-10.5556
▁மாஸ்டர்	-10.5559
ஸுக்கு	-10.5559
▁பத்தாம்	-10.5564
க்கிங்	-10.5564
▁அளித்தனர்	-10.5566
▁சந்திக்கும்	-10.5566
▁புகுந்த	-10.5569
தனை	-10.5572
▁கோரிக்கைகளை	-10.5573
▁காது	-10.5575
▁கடினம்	-10.5575
▁போதைப்	-10.5577
ஷே	-10.5578
▁ஏற்பட்டால்	-10.5579
26	-10.5581
▁விவரம்	-10.5582
▁இயங்கும்	-10.5585
▁சந்தன	-10.5589
▁விக்ரம்	-10.559
▁ஆர்ப்பாட்டம்	-10.5593
▁திட்டத்திற்கு	-10.5594
டித்து	-10.5594
றேன்	-10.5597
▁மார்க்	-10.5597
▁நெஞ்ச	-10.5599
▁அழைக்கப்பட்ட	-10.5601
▁புறப்பட்ட	-10.5604
ஸ்தா	-10.5608
▁உட்கட்சி	-10.5608
▁பிரியா	-10.5608
▁அக்கட்சியின	-10.561
▁தெரிவிக்கும்	-10.5613
ங்களே	-10.5615
யின்றி	-10.5617
▁அதிலிருந்து	-10.5617
▁இருந்தேன்	-10.5621
ஸ்டர்	-10.5623
▁நீண்டகால	-10.5624
வர்களும்	-10.5625
▁சாத்திய	-10.5625
▁உத்தி	-10.5626
▁விழாவின்	-10.5627
▁கோப்பையை	-10.563
ின்படி	-10.5631
▁ஆராதனை	-10.5633
▁இப்படித்தான்	-10.5638
▁சேகர்	-10.5638
▁உணவுகள்	-10.5639
▁பிளே	-10.5639
▁டு	-10.5641
ெண்ட	-10.5646
▁துப்பாக்கிச்	-10.5649
▁கஷ்ட	-10.5654
▁ஓவிய	-10.5655
▁வளர்த்து	-10.5655
▁எதிர்த்த	-10.5657
ay	-10.5662
▁போவதாக	-10.5665
▁நிகழ்ச்சிக்கு	-10.5666
▁பரிவர்த்தனை	-10.5672
வரம்	-10.5673
▁பக்கத்து	-10.5675
▁இந்நிகழ்வில்	-10.5678
▁அகல	-10.5684
ிட்ட	-10.5684
▁சதுர	-10.5686
▁2021-	-10.5687
▁இயந்திர	-10.5687
▁ஆற்ற	-10.569
▁கல்விக்	-10.5691
பந்த	-10.5691
▁போட்டியின்	-10.5693
▁பாடம்	-10.5693
▁வலிமை	-10.5693
▁கிளி	-10.5696
▁வளர்ச்சியை	-10.5697
▁ஹீரோ	-10.5701
விடாமல்	-10.5704
▁இயக்குநர	-10.5705
▁மூடப்பட்ட	-10.5708
▁வைத்திருக்கும்	-10.571
ாட	-10.5712
▁கத்தார்	-10.5712
▁.....	-10.5722
▁தேர்தல்களில்	-10.5723
▁விண்ணப்பித்த	-10.5725
ாரி	-10.5728
▁கணிப்பு	-10.5728
பெற்ற	-10.5732
▁ஊதிய	-10.5732
▁கொண்டிருந்தது	-10.5734
▁நீரிழிவு	-10.5738
▁கால்பந்து	-10.5738
▁பிரசாந்த்	-10.5738
▁கூற்றுப்படி	-10.5738
▁மக்களிடையே	-10.5739
▁கொடுத்துள்ளார்	-10.574
▁இலவசமாக	-10.5742
வைக்	-10.5743
▁தண்ணீரை	-10.5744
▁தனிநபர்	-10.5748
▁கோஷ	-10.5751
▁விடுவிக்கப்பட்ட	-10.5752
▁அடைந்தது	-10.5753
▁கருதப்படும்	-10.5753
▁காதல	-10.5755
▁கூலி	-10.5755
▁அம்மை	-10.5756
▁கோர்ட்	-10.5756
▁தொகுப்பு	-10.5759
▁போலீஸார	-10.5763
▁பாரதி	-10.5765
▁புகைப்படங்கள்	-10.5765
▁பகுதிகளுக்கு	-10.5766
டியா	-10.5767
▁அச்சுறுத்தல்	-10.5767
▁ஆர்வலர்கள்	-10.577
▁கழகத்தின்	-10.5771
த்தது	-10.5771
▁தங்கை	-10.5773
▁மேற்க	-10.5774
▁முதலமைச்சராக	-10.5775
▁முனி	-10.5776
▁அணுகுமுறை	-10.5781
ந்தது	-10.5786
▁கரும்பு	-10.5787
▁நம்பிய	-10.5792
▁வீரர்களுக்கு	-10.5796
▁கடைசியில்	-10.58
வதற்கான	-10.5802
▁வெளிப்படுத்திய	-10.5804
▁கிடைப்பத	-10.5804
▁திட்டமிட்டுள்ள	-10.5805
▁ராஜேஷ்	-10.5807
▁உணர்த்த	-10.5808
▁நிலைமையை	-10.5808
▁ரிஷி	-10.5808
▁புகாரில்	-10.5812
▁என்பத	-10.5814
▁தலைமைச்	-10.5821
▁கொடூர	-10.583
▁அவதி	-10.5831
ங்களைச்	-10.5832
▁இன்ப	-10.5836
சந்த	-10.5836
▁வாழ்வில்	-10.5836
மாத	-10.584
▁தயாரித்து	-10.585
▁உருவாகும்	-10.5854
▁h	-10.5855
▁உறுதியான	-10.5855
▁வைத்துள்ளனர்	-10.5855
li	-10.5857
▁இதைக்	-10.586
▁சொன்னால்	-10.5861
ிருந்தேன்	-10.5862
▁பலியாகி	-10.5862
▁உண்மையை	-10.5866
மியா	-10.5869
▁வெளியேறும்	-10.5869
▁அரண்மனை	-10.587
▁சோவியத்	-10.587
▁பிற்பகல்	-10.587
▁வேடிக்கை	-10.587
▁அபாயம்	-10.5871
▁டெங்கு	-10.5872
▁தடுக்கும்	-10.5872
▁தீவிரம்	-10.5873
▁நிர்ணயிக்க	-10.5874
மேன்	-10.5878
▁தடவை	-10.588
▁புரிந்துகொள்ள	-10.588
▁வகைகள்	-10.5881
ஸ்த	-10.5882
▁வரித்துறை	-10.5885
விட்டார்கள்	-10.5891
▁பதிலளிக்க	-10.5893
▁சோக	-10.5895
▁கல்வித்துறை	-10.5896
ாரோ	-10.5897
▁இதைச்	-10.5903
முன்	-10.5904
▁களமிறங்க	-10.5905
மூல	-10.5907
கீழ்	-10.591
▁குண்ட	-10.5911
▁வாரியம்	-10.5912
▁அரு	-10.5913
▁ஒய்	-10.5916
பக்க	-10.5916
மயமாக்க	-10.5919
▁பரவியது	-10.592
▁கைதி	-10.5921
ுடனும்	-10.5923
சாலை	-10.5924
தற்கும்	-10.5924
ியன்	-10.5926
▁நிதியை	-10.5927
09	-10.5928
▁நினைவில்	-10.5928
id	-10.5933
▁கூட்டணிக்	-10.5935
▁கர்ப்பிணி	-10.5936
▁சுயேச்சை	-10.5936
▁பந்துவீச்சு	-10.5936
▁அறுவடை	-10.5937
2023	-10.5937
▁தயங்க	-10.5938
▁எழுச்சி	-10.5938
▁மிரட்டிய	-10.5938
▁கணிக்க	-10.594
▁ரசிகர்களுக்கு	-10.5941
▁செயல்பாட்ட	-10.5941
▁தேவையற்ற	-10.5942
▁கிள	-10.5942
▁துண்டு	-10.5942
ண்ணா	-10.5943
▁வெளியாகியுள்ளன	-10.5943
▁வாகனங்களை	-10.5944
▁உணர்ந்து	-10.5944
▁பொறுப்பில்	-10.5945
▁வலது	-10.5946
ha	-10.5947
ஞ்சா	-10.5949
சில	-10.595
▁ஓரளவு	-10.595
▁வைப்பது	-10.5951
▁65	-10.5954
மில்	-10.5955
▁உதவிகள்	-10.5958
▁திரட்ட	-10.5959
▁நிலத்தில்	-10.5962
▁ஆகியோர	-10.5964
▁வண்ணம்	-10.5964
ினி	-10.5965
ளோ	-10.5968
▁யாரோ	-10.5969
▁மணல்	-10.5969
▁இத்	-10.5971
▁உயரம்	-10.5976
க்காரர்	-10.5978
▁அடைந்தனர்	-10.5985
▁பிரிந்த	-10.5989
▁மீட்புப்	-10.599
க்கொள்கிறேன்	-10.599
▁செய்யுங்கள்	-10.599
யிர	-10.5998
▁கேலி	-10.5999
ுமாறும்	-10.6003
▁அவதூறு	-10.6004
▁புரட்டாசி	-10.6004
▁பேச்ச	-10.6004
▁கேட்டால்	-10.6005
▁தருமபுரி	-10.6007
▁தலைவரும	-10.6007
▁செல்கின்றனர்	-10.6007
▁வடகிழக்கு	-10.6008
▁குறைத்த	-10.6008
ர்ஸ்	-10.6014
▁தினத்தை	-10.6015
ஜித்	-10.6016
ot	-10.6017
செல்வ	-10.6017
▁அவர்களுடைய	-10.6018
▁தப்ப	-10.6018
▁கிம்	-10.6019
▁பகிர	-10.6019
▁நடப்பு	-10.6026
▁காய்கறி	-10.6032
▁வந்திருக்கிறது	-10.6033
நே	-10.6034
▁காட்டும்	-10.6036
▁சுட்டிக்காட்டிய	-10.6037
▁பிள்ளைகள்	-10.604
▁மாட்டார்	-10.6044
▁அலுவலகத்திற்கு	-10.6046
▁அறிகுறி	-10.6048
▁பயன்படுத்திக்	-10.6049
▁முடிவ	-10.605
▁தடைகள்	-10.605
▁செய்வார்	-10.6052
ிடத்தில்	-10.6053
▁உரையாட	-10.6055
▁விடுத்தார்	-10.6058
▁மதத்தை	-10.6062
▁பறக்கும்	-10.6063
▁உலகப்	-10.6063
▁சவால்களை	-10.6068
▁கிமீ	-10.6069
மையை	-10.607
▁திருநங்கை	-10.6071
▁விரிவுபடுத்த	-10.6071
▁இல்லையென்றால்	-10.6071
▁காலியாக	-10.6072
▁பிக்பாஸ்	-10.6072
▁கோதுமை	-10.6072
▁பேரையும்	-10.6072
▁மாய	-10.6072
▁போட்டுக்	-10.6073
▁தோழி	-10.6074
▁சேதமடைந்த	-10.6078
▁வாழை	-10.608
வரா	-10.6082
▁பண்ற	-10.6083
▁வீடியோக்கள்	-10.6089
▁ஐநா	-10.609
▁கூறியதாக	-10.6094
▁கூறப்பட்ட	-10.6099
▁பேரறிவாளன்	-10.6103
▁புதுவை	-10.6113
▁சிங்கள	-10.6116
▁என்பவரை	-10.6119
பொருள	-10.6121
▁கவுன்சில்	-10.6126
▁கற்க	-10.6132
▁அழக	-10.6135
▁பொன்ன	-10.6135
▁பெறலாம்	-10.6138
▁வளர்ச்சிக்கு	-10.6138
▁கோளாறு	-10.6139
▁பிரார்த்தனை	-10.6139
▁முன்பதிவு	-10.6141
▁படையினர	-10.6141
▁தத்துவ	-10.6143
▁திருக்கோயில்	-10.6148
தல்ல	-10.6149
▁ஆகியவற்றில்	-10.615
▁சைவ	-10.6152
▁அந்தஸ்து	-10.6152
▁கணக்கெடுப்பு	-10.6153
▁லண்டன்	-10.6154
▁பெறுவதற்கு	-10.6158
▁காடு	-10.6158
▁வெளியிடப்பட்டது	-10.6159
▁அசை	-10.6161
▁டெல்லிக்கு	-10.6164
▁தாள	-10.6165
ட்டேன்	-10.6166
▁வரியை	-10.6168
▁விரும்புகிறார்	-10.6169
▁எடுக்கப்பட்டு	-10.6171
▁நிறுவனங்களின	-10.6174
▁பிரச்சாரம்	-10.6174
▁அசைவ	-10.6178
ச்சை	-10.6178
▁கடற்கரையில்	-10.6179
▁செல்லப்பட்ட	-10.6179
▁டோஸ்	-10.6182
▁சுவாமிக்கு	-10.6183
▁இடைவெளி	-10.6183
▁முதியவர்	-10.6188
▁ஆணைக்குழு	-10.6191
▁கிராமம்	-10.6191
▁அதிகரித்தது	-10.6197
▁கொள்வ	-10.6197
ரம	-10.6199
வாசி	-10.6202
ெட்	-10.6203
▁தொகுதிகள்	-10.6204
▁செல்லும்போது	-10.6205
ப்படுத்திய	-10.6206
▁பாகுபாடு	-10.6208
▁வைகாசி	-10.6208
▁தேர்வை	-10.6209
▁வைக்கப்பட்டு	-10.6209
▁நம்புகிறேன்	-10.6211
▁விமானப்படை	-10.6211
▁வெப்பம்	-10.6212
▁தொழிலை	-10.6217
▁சௌதி	-10.6218
▁கல்லூரிகளில்	-10.6218
▁பார்ப்பது	-10.622
▁ரேஷன்	-10.6221
▁பாண்டியா	-10.6221
▁தயாரிப்ப	-10.6226
ow	-10.6226
▁சினிமாவில்	-10.6229
▁இவ்வ	-10.6232
ாவுக்கு	-10.6233
▁தற்காலிகமாக	-10.6234
▁அங்கேயே	-10.6235
▁அள்ளி	-10.6237
▁காரணமாகவே	-10.624
▁வந்ததும்	-10.6244
▁என்றெல்லாம்	-10.6244
▁குடும்பங்கள்	-10.6248
▁மாளிகையில்	-10.625
▁அமைச்ச	-10.6253
▁விடுக்கப்பட்ட	-10.6255
▁எழ	-10.6257
▁அதுவரை	-10.6261
▁ஏலம்	-10.6262
▁ஸ	-10.6262
▁திரும	-10.6263
களாம்	-10.6265
ப்பதாக	-10.627
70	-10.6271
▁ஆள	-10.6275
▁விண்ணப்பிக்க	-10.6276
▁தொழிலாளி	-10.6277
▁சித்தாந்த	-10.6277
▁போற்ற	-10.6277
▁பிரம்மோற்சவ	-10.6278
▁தொடுத்த	-10.6279
▁சரஸ்வதி	-10.6279
▁கடற்றொழில்	-10.6282
▁2012	-10.6282
▁சிவாஜி	-10.6282
▁0	-10.6284
▁இருந்ததை	-10.6289
▁கேள்விகளுக்கு	-10.629
ெடுக்க	-10.6291
▁சொல்லிக்	-10.6293
▁மஹ	-10.6294
தள	-10.6295
▁பஞ்சாயத்து	-10.6296
▁செல்வதை	-10.6299
▁வாழ்	-10.6301
▁கூட்டணியின்	-10.6302
▁தரப்பினரும்	-10.6304
▁அமைப்பினர்	-10.6304
▁நேரத்திற்கு	-10.6309
▁திருட்டு	-10.6311
தாலும்	-10.6312
▁நியூஸ்	-10.6312
னிக்	-10.632
▁வர்த்தகம்	-10.6321
▁குடித்து	-10.6321
யர	-10.6321
▁அபாய	-10.6334
▁மணிநேர	-10.6335
ென்	-10.6337
▁செய்தல்	-10.6338
▁எந்தக்	-10.634
▁பறக்க	-10.6341
▁ஆண்டுகால	-10.6344
▁47	-10.6345
▁சுழற்சி	-10.6346
▁பிரதிஷ்டை	-10.6346
▁மல்யுத்த	-10.6346
▁மேல்முறையீடு	-10.6346
▁சாகுபடி	-10.6346
▁ஆழ்ந்த	-10.6347
▁எலான்	-10.6347
▁இருக்கை	-10.6348
▁சண்முக	-10.6348
▁வெளிநாட்டில	-10.6349
▁வினோத்	-10.6351
▁கலங்க	-10.6351
▁சென்றுள்ளனர்	-10.6352
▁ஏற்படவில்லை	-10.6353
▁தினங்களுக்கு	-10.6353
▁சமயங்களில்	-10.6355
▁ராணுவத்தில்	-10.6356
100	-10.6357
▁கண்காணித்து	-10.6361
டுகளை	-10.6362
▁நெருங்கி	-10.6362
▁இடத்திலும்	-10.6363
▁மாடு	-10.6364
▁சாம்பியன்	-10.6365
▁சன்னி	-10.6365
யான்	-10.6366
ீங்களா	-10.6366
▁கலவரம்	-10.6366
▁அப்படித்தான்	-10.6373
யாளர்கள்	-10.6373
▁சாசன	-10.638
▁புகைப்படத்தை	-10.6385
▁பலன்கள்	-10.6388
நாத்	-10.6389
▁கூட்டணிக்கு	-10.6394
▁நுழைந்து	-10.6397
▁மேற்கொள்ளப்பட	-10.6398
hi	-10.64
▁வழங்கப்பட்டுள்ள	-10.64
▁ஆன்	-10.6401
▁வழங்குவதற்கு	-10.6403
▁சொல்லவில்லை	-10.6405
▁காத்து	-10.6406
▁மாட்ட	-10.6406
▁தீவிரமான	-10.6407
▁சுவர்	-10.6408
▁ரியா	-10.6411
▁கூறுகின்றன	-10.6412
▁ஆப்பிரிக்க	-10.6413
▁பிரிய	-10.6414
▁திமுகவுக்கு	-10.6415
▁செய்தியில்	-10.6415
▁அவகாசம்	-10.6416
▁திரௌபதி	-10.6416
▁பாண்டிய	-10.6417
▁திருப்பத்தூர்	-10.6417
▁நடராஜர்	-10.6422
▁ஆஜராக	-10.6423
▁பொருள்கள்	-10.6423
▁தெருவில்	-10.6424
▁செய்கின்றனர்	-10.6425
▁உணர்வ	-10.6427
▁பங்குச்	-10.643
ஏக்கள்	-10.6431
▁கிரகங்கள	-10.6431
விட்டதாகவும்	-10.6431
▁ஊசி	-10.6433
▁ஃபே	-10.6435
ப்போம்	-10.6436
▁கொல்லப்பட்டனர்	-10.644
▁மக்களுக்கும்	-10.6442
▁கடத்தி	-10.6445
▁வழக்குகளை	-10.6447
▁சைக்கிள்	-10.6448
▁மதிய	-10.645
ெடுத்த	-10.6451
▁செய்வார்கள்	-10.6459
▁அன்னை	-10.646
▁2011	-10.6461
▁புல	-10.6462
▁அக்கா	-10.6463
ராமன்	-10.6464
▁வாதம்	-10.6465
05	-10.6469
▁உருவானது	-10.6472
▁அத	-10.6474
▁தைவான்	-10.6478
▁வந்ததாக	-10.6478
▁தடைகளை	-10.6479
▁மறைத்து	-10.648
▁மருந்துகளை	-10.6485
▁சமாஜ்	-10.6486
▁அன்றாட	-10.6486
▁இடையூறு	-10.6486
▁மாதவிடாய்	-10.6486
▁மறுபடியும்	-10.6486
▁தேங்காய்	-10.6487
▁மன்னார்	-10.6487
▁வார்	-10.6487
▁தலைமையக	-10.6488
▁வெயில	-10.6489
வதாக	-10.6489
▁தெளிவான	-10.6491
▁2008	-10.6493
▁தெரிந்துகொள்ள	-10.6493
▁வளரும்	-10.6493
▁விதம்	-10.6495
▁தாமதமாக	-10.6495
▁கோபி	-10.6499
▁மத்தியப்	-10.6504
▁சட்டை	-10.6506
▁வீடியோக்களை	-10.6506
கிறார்கள்	-10.6508
▁மாச	-10.6508
▁நாவல	-10.6509
▁என்னைப்	-10.6511
▁ஒத்தி	-10.6512
▁பெருக்க	-10.6512
▁மாதத்திற்கு	-10.6512
▁விரும்பிய	-10.6514
▁இதுபோல	-10.6517
ஹோ	-10.652
▁மரபணு	-10.6521
▁சேகரிக்க	-10.6525
▁கிருஷ்ணா	-10.6526
▁நடவடிக்கையும்	-10.6528
▁காந்தியை	-10.653
பாஸ்	-10.6531
பிற்படுத்தப்பட்ட	-10.6543
▁உடைந்த	-10.6547
▁அடைக்க	-10.6548
▁அதிகாரிகளும்	-10.6549
▁ஆக்க	-10.6554
▁ராஜ்யசபா	-10.6557
▁அதேநேரத்தில்	-10.6557
▁அரசாணை	-10.6557
▁பருவமழை	-10.6558
▁பும்ரா	-10.6558
▁கெலாட்	-10.6558
▁சவால்கள்	-10.6559
மேடு	-10.6559
▁மகாலட்சுமி	-10.6559
▁கார்த்திகை	-10.6562
▁சான்று	-10.6562
▁திணற	-10.6563
▁ப்ளே	-10.6565
▁சிந்திக்க	-10.6565
▁சேவைகளை	-10.6567
▁காட்டிலும்	-10.6573
புரத்தில்	-10.6575
கோவில்	-10.6575
▁செய்தேன்	-10.6575
செய்த	-10.6576
▁கலெக்டர்	-10.6577
யாகி	-10.6579
▁அமைப்பில்	-10.6584
▁சத்தீஸ்கர்	-10.6584
▁46	-10.6586
▁நடக்கவில்லை	-10.6587
▁கையெழுத்து	-10.6587
▁ரசிகர்களை	-10.6587
▁ஈடுபட்டுள்ளனர்	-10.659
▁எண்ணிக்கையை	-10.659
▁கவன	-10.6591
▁தூதர்	-10.6591
▁வருமானத்தை	-10.6591
▁4-	-10.6596
க்கொண்டார்	-10.6596
▁சலுகை	-10.6599
▁சீல்	-10.66
▁முயற்சித்த	-10.6605
▁நாயக	-10.6605
▁கொன்று	-10.661
ம்பட்டி	-10.661
ோர	-10.6611
▁கவர்ந்த	-10.6613
▁விற்று	-10.6616
▁சொன்னார்கள்	-10.6616
▁கிடைத்து	-10.6617
▁தப்பிக்க	-10.6619
▁ஒப்படைத்த	-10.6619
▁கான	-10.6621
▁கடல	-10.6622
ாக்கி	-10.6622
▁கவலைப்பட	-10.6623
▁வளர்மதி	-10.6629
▁சென்றால்	-10.6631
ிரு	-10.6635
▁கொண்டுவரப்பட்ட	-10.6636
▁6-	-10.6637
▁சதீஷ்	-10.6638
▁காரணத்தை	-10.6641
▁விளக்கினார்	-10.6642
▁போன்றவற்ற	-10.6643
▁புரிய	-10.6645
▁ஏற்படலாம்	-10.6646
▁எம்ஜிஆர்	-10.6646
▁வந்திருந்த	-10.6652
▁கற்றுக்	-10.6652
▁பிளான்	-10.6653
▁அம்பாள்	-10.6653
▁மேக	-10.6654
▁சூரியன	-10.6657
ப்படுகிறார்கள்	-10.6657
▁பாட்டில்	-10.6657
▁மதிப்பீடு	-10.6659
▁a	-10.666
▁திமுகவினர்	-10.6661
நாங்கள்	-10.6662
▁ஃப்ர	-10.6662
▁செய்யப்பட்டன	-10.6663
டியில்	-10.6664
▁ஏமாற்றி	-10.6665
▁கிடைக்காத	-10.6665
01	-10.6667
▁நேர்ந்த	-10.6668
ுக்குத்	-10.6669
ட்டின்	-10.6672
▁காங்கிரச	-10.6672
வகை	-10.6673
▁விட்டனர்	-10.6677
சுப்பிரமணியன்	-10.6679
ரீதியாக	-10.6679
▁துரை	-10.6679
▁பலன	-10.6682
▁ஆனி	-10.6685
▁சாட்சி	-10.6692
பழ	-10.6692
▁கட்டியெழுப்ப	-10.6695
▁கொடியேற்ற	-10.6697
▁ஆழ	-10.6697
▁அடியில்	-10.6698
▁சஸ்பெண்ட்	-10.6701
▁வில்	-10.6701
▁இத்தாலி	-10.6701
▁யோசிக்க	-10.6701
▁உத்தரபிரதேச	-10.6701
▁கறுப்பு	-10.6702
▁திராவிடர்	-10.6704
▁உட்	-10.6715
விட்டோம்	-10.6715
▁கனடாவில்	-10.6716
▁வளர	-10.6718
90	-10.6718
▁கிரா	-10.672
▁திறனை	-10.6721
▁வசம்	-10.6723
▁பேருந்துகள்	-10.6728
▁டாஸ்	-10.673
▁கட்	-10.6731
▁அடுத்ததாக	-10.6734
▁உள்ளோம்	-10.6734
j	-10.674
▁ஒப்புக்	-10.6741
000	-10.6747
▁சப்	-10.6748
▁பிரமுகர்	-10.675
வாச	-10.675
▁வாக்காளர்கள்	-10.6753
▁சர	-10.6754
▁வேண்ட	-10.6756
▁லு	-10.6758
▁கணவர	-10.6759
▁அதிர	-10.6765
▁விளக்கமளித்த	-10.6773
▁இறுதிப்போட்டி	-10.6773
▁ஒருபுறம்	-10.6773
▁சந்திரயான்	-10.6774
▁அஜய்	-10.6774
▁வக்ர	-10.6774
்பதற்கான	-10.6778
▁பொன்முடி	-10.6779
▁வட்டாரங்கள்	-10.6783
▁மதிப்புள்ள	-10.6784
▁தண்ணீரில்	-10.6786
▁போத	-10.6786
▁ஆர	-10.6787
▁சட்டமன்றத்தில்	-10.6788
குரு	-10.6788
▁அவரே	-10.6789
▁தவறி	-10.6791
▁சிலிண்டர்	-10.6793
▁கட்சியாக	-10.6795
▁குடும்பத்துடன்	-10.6795
▁வரப்பட்ட	-10.6797
▁மரபு	-10.6798
▁வாய்ப்புகளை	-10.6803
▁வந்துவிட்டது	-10.6804
▁சாந்த	-10.6806
▁அவசரமாக	-10.6812
▁ரீதியாகவும்	-10.6812
▁நிலையங்கள்	-10.6813
▁யுத்த	-10.6815
ியும்	-10.6815
▁சுந்தர்	-10.6826
ேஷன்	-10.6826
▁பிடிப்ப	-10.6828
▁சொல்லலாம்	-10.6832
▁அதிகாரிகளின்	-10.6834
▁நெடு	-10.6835
▁43	-10.6844
▁நடைபெற்றன	-10.6845
ate	-10.6845
▁ஊக்க	-10.6845
ப்பற்றி	-10.6845
▁சபரிமலை	-10.6846
▁பகுஜன்	-10.6846
▁தன்னிடம்	-10.6852
ப்படுகிறார்	-10.6854
▁ஒப்புதல	-10.6855
▁குவா	-10.6856
▁எதற்காக	-10.6858
யாகவே	-10.6868
5,000	-10.6869
ப்பார்கள்	-10.6869
த்ரி	-10.687
▁கார்கே	-10.6874
▁2013	-10.6879
▁எலும்பு	-10.688
▁திருவிழாவில்	-10.6882
▁கேள்வியை	-10.6882
▁கொடுப்பது	-10.6886
▁திருப்தி	-10.6886
▁மீனவர்	-10.6888
பிடித்த	-10.6889
▁கழ	-10.6889
▁நன்கொடை	-10.689
▁ஆராதனைகள்	-10.6891
▁புகுந்து	-10.6892
▁செல்கிறார்	-10.6894
▁உன்ன	-10.6899
கரை	-10.69
▁கெடு	-10.6901
மாகக்	-10.6905
▁இருப்பதாகக்	-10.6905
▁அமர்ந்திருந்த	-10.6908
ொன்ற	-10.691
▁வெடிகுண்டு	-10.692
▁இரங்கல்	-10.692
▁டிஜிபி	-10.692
▁கடி	-10.6921
▁#	-10.6921
▁கேட்ச்	-10.6923
▁நூலக	-10.6924
▁மதிப்பிட	-10.6926
▁பார்ப்போம்	-10.6926
▁காலகட்ட	-10.6929
▁பரிந்துரைத்த	-10.6929
▁வந்தேன்	-10.6929
▁பின்பற்றி	-10.693
▁ஒட்ட	-10.6936
48	-10.6937
விடலாம்	-10.6938
ிருப்பார்கள்	-10.6941
▁சட்டங்கள்	-10.6941
▁சட்டப்பேரவையில்	-10.6942
▁தமிழகத்தை	-10.6951
▁விரும்பி	-10.6951
▁மீனா	-10.6953
▁குத்தி	-10.6953
பார	-10.6957
▁விடுத்து	-10.6962
▁விதத்தில்	-10.6964
▁ஈர்த்த	-10.6965
▁பழங்குடியினர்	-10.6965
்கிய	-10.6966
▁விகித	-10.6966
▁வருத்தம்	-10.6966
▁வெளியாக	-10.6967
▁அதுபோல	-10.6971
▁கிரே	-10.6973
▁முன்வைக்கப்பட்ட	-10.6973
பேட்டை	-10.6974
▁மனதை	-10.6979
வுண்ட	-10.6981
▁ஸ்டாலினை	-10.6982
▁இஸ்லாமியர்கள்	-10.6985
▁இழப்ப	-10.6987
க்குடி	-10.6993
▁நேர்த்திக்கடன்	-10.6994
▁ஜல்லிக்கட்டு	-10.6994
▁அதீத	-10.6994
▁ஒழிக்க	-10.6994
▁அடையும்	-10.6994
▁இந்	-10.6994
▁செவ்வாய்க்கிழமை	-10.6995
▁சபா	-10.6996
▁விலைக்கு	-10.6996
▁நர	-10.6996
ாண்ட	-10.6996
▁கோர்	-10.6997
▁2023-	-10.6998
▁பங்களிப்பை	-10.6998
▁போற்றி	-10.7
ப்பிட	-10.7001
ஹான்	-10.7002
▁மேற்பார்வை	-10.7002
▁கீதா	-10.7002
▁குற்றச்சாட்டை	-10.7003
▁ஆய்வக	-10.7004
▁ஆளு	-10.7005
▁51	-10.7006
▁மரம்	-10.7011
04	-10.7011
▁வனத்துறையினர்	-10.7013
▁இவ்	-10.7014
▁உரையாற்றிய	-10.7014
க்கால்	-10.7014
▁மூழ்கி	-10.7019
ரண	-10.7019
▁வரைக்கும்	-10.7023
▁கமிஷன்	-10.7033
-1	-10.7034
▁அண்ட்	-10.7035
ter	-10.7037
▁டொலர்	-10.7038
▁மொழியில்	-10.7039
▁ஆசிரியர	-10.7039
▁அவசியமான	-10.7041
வாரி	-10.7042
▁வருகின்றது	-10.7042
▁அமைக்கப்பட்டு	-10.7048
▁மாற்றப்பட்ட	-10.7048
▁கிளப்பி	-10.705
▁இளைஞர்களுக்கு	-10.7053
▁வார்த்தைகளை	-10.7055
▁அட	-10.7056
▁தோல்	-10.7057
▁துறைக்கு	-10.706
▁புதுச்சேரியில்	-10.7061
▁தவற	-10.7063
▁முத்திரை	-10.7069
▁மேற்கண்ட	-10.707
▁நிகழ்வை	-10.7071
▁இதெல்லாம்	-10.7073
ப்பூ	-10.7076
▁எத்தனையோ	-10.7077
▁குழுவினர	-10.7079
▁செடி	-10.708
▁இளவரசர்	-10.7083
▁அவமான	-10.7085
▁மாறியுள்ளது	-10.7088
▁ஆம்புலன்ஸ்	-10.7089
▁பாபா	-10.7096
▁மகளை	-10.7096
▁உழைப்ப	-10.7098
▁எல்லாமே	-10.7102
▁வெளிநாடுகளில	-10.7105
▁பாகிஸ்தானுக்கு	-10.7108
31	-10.7112
▁சர்வே	-10.7119
▁வரவேற்பை	-10.712
▁குடித்த	-10.712
▁சர்வ	-10.7123
▁அனுபவிக்க	-10.7126
▁ஓடிய	-10.7126
ப்போவதாக	-10.7128
▁வலைத்தளங்களில	-10.7129
குறிப்பிடுகிறார்	-10.713
▁அர்த்த	-10.7131
▁250	-10.7138
▁இயக்கிய	-10.7141
▁இந்தாண்டு	-10.7143
▁நியூயார்க்	-10.7143
▁Doctor	-10.7144
▁மனிதாபிமான	-10.7144
▁ஊட்டச்சத்து	-10.7144
▁ரசாயன	-10.7144
▁வாக்குமூலம்	-10.7144
▁இன்ஸ்டாகிராம்	-10.7144
▁ட்ரோன்	-10.7144
அவர்	-10.7144
▁மாசு	-10.7145
கவின்	-10.7146
▁சுற்ற	-10.7151
▁போலீசார	-10.7154
▁ஹமாஸ	-10.7154
▁விரி	-10.7155
▁பள்ளிக்	-10.7156
▁தைவான	-10.7156
▁உருவெடுத்த	-10.7158
▁பிணை	-10.7161
க்கோட்டை	-10.7167
▁வசூல்	-10.7168
▁முன்னால்	-10.7172
▁இனிப்பு	-10.7172
▁செல்லாது	-10.7173
▁நீரில்	-10.7174
56	-10.7175
▁திருமணத்திற்கு	-10.7176
பாட	-10.718
▁பெயர்கள்	-10.7181
ப்பதை	-10.7189
▁வேட்பாளர்களை	-10.7193
▁சிம்ம	-10.7197
▁சிரியா	-10.7198
▁விண்ண	-10.72
வள்	-10.7205
▁தரப்பினர	-10.7205
▁விலங்குகள்	-10.7205
▁எஃப்	-10.7207
▁போருக்கு	-10.7211
▁ஷாட்	-10.7213
ரல்	-10.7214
▁தூங்கி	-10.7217
▁விரக்தி	-10.7219
▁முரளி	-10.7219
▁ஏழாம	-10.7219
▁விசிக	-10.722
▁உனக்கு	-10.722
▁குழாய்	-10.722
▁U	-10.7222
▁முதன்	-10.7224
▁நத்தம்	-10.7227
▁கொரிய	-10.7227
▁இதோ	-10.7229
▁முகாமில்	-10.723
ாகக்	-10.723
vs	-10.7231
செயல	-10.7233
▁அருவி	-10.7233
▁புஷ்ப	-10.7234
▁கட்டணத்தை	-10.7237
வியல்	-10.7237
வுள்ள	-10.7238
▁நாராயணன்	-10.724
▁இந்துக்கள	-10.7241
▁சந்திரன்	-10.7241
▁குறைக்கும்	-10.7242
▁வைகை	-10.7242
▁தனுஷ்	-10.7245
▁ஆதிக்க	-10.7245
▁அமைதியான	-10.7252
▁பொறுப்பாளர்	-10.7253
▁இவர்களை	-10.7254
▁பயிற்சியாளர்	-10.7254
▁சதவீதமாக	-10.7255
ஸ்திர	-10.7256
கரன்	-10.7258
▁வாக்குறுதிகளை	-10.7261
பூஜை	-10.7267
▁குர்	-10.7268
▁அடித்தார்	-10.7269
▁பேட்டரி	-10.7271
▁கடைகளில்	-10.7272
வாலா	-10.7274
வதால்	-10.7278
▁கவனித்த	-10.7284
▁வார்த்தைகள்	-10.7285
▁12-	-10.7285
▁வாயு	-10.7287
▁நீடித்த	-10.7288
▁லஞ்சம்	-10.7289
ாம்	-10.7289
▁சட்டத்திற்கு	-10.7291
▁விவரிக்க	-10.7295
▁கல்வியை	-10.7296
▁செலாவணி	-10.7296
▁முகாமைத்துவ	-10.7296
▁தேமுதிக	-10.7296
▁ஸ்மார்ட்	-10.7296
▁ஆசிரியை	-10.7296
▁புறப்பாடு	-10.7296
▁பெறப்பட்ட	-10.7297
▁மாநாட்டு	-10.7297
▁க்கும்	-10.7299
▁வாங்கிக்	-10.73
▁சுனில்	-10.7304
▁மண்டப	-10.7304
de	-10.7305
டையும்	-10.7306
▁ஹோம	-10.7306
▁ராஜஸ்தானில்	-10.7307
▁நந்த	-10.731
▁வாஷிங்டன்	-10.731
▁நடவடிக்கையில்	-10.7312
▁ஸ்கோர்	-10.7314
▁விநியோகிக்க	-10.7315
றா	-10.7315
▁முற்றிலுமாக	-10.7317
▁தடுத்த	-10.7318
▁நடிப்ப	-10.732
▁வைத்துள்ள	-10.7323
▁சொல்வதை	-10.7323
▁இப்	-10.7323
▁காணும்	-10.7324
▁பொருள	-10.7326
த்திற்குப்	-10.7327
▁பல்ல	-10.7329
▁உள்ளடக்க	-10.7333
▁படத்திற்கு	-10.7336
▁கொடுத்தனர்	-10.7337
ப்பதற்கான	-10.7338
▁பார்த்தபோது	-10.7339
க்கொள்	-10.7341
ட்டாங்க	-10.7346
▁இயற்ற	-10.7347
▁அதிபதி	-10.7349
த்தர்	-10.7351
▁புத்தகம்	-10.7354
ப்படுவதில்லை	-10.7354
▁சீர்திருத்த	-10.7357
▁இறுதிப்	-10.7358
ண்டே	-10.7359
▁செய்வத	-10.7361
▁கைகளில்	-10.7361
▁விட்டதாக	-10.7362
▁முக்கியமானதாக	-10.7363
▁காப்பக	-10.7367
▁சுதா	-10.7371
▁புறக்கணிக்க	-10.7373
▁கோலாகலமாக	-10.7373
▁காவடி	-10.7373
ரக	-10.7375
▁திரளான	-10.7376
▁சோதனையில்	-10.7376
வோடு	-10.7378
03	-10.7379
ாடி	-10.7379
▁கொடூரமாக	-10.7389
▁அசத்த	-10.7391
விட்டதால்	-10.7392
▁பேரா	-10.7393
▁நடராஜன்	-10.7397
▁மையத்தின்	-10.7399
▁வால்	-10.74
▁தயாரிக்கும்	-10.7403
▁விழி	-10.7403
ரிக்	-10.7405
▁விதித்து	-10.7407
▁பயணத்தில்	-10.7417
55	-10.7419
க்கடை	-10.7421
▁மதிப்பெண்	-10.7422
▁சேர்ப்ப	-10.7422
200	-10.7424
யிலிருந்த	-10.7427
அப்	-10.743
▁ஓய்வூதிய	-10.7431
▁நம்பர்	-10.7434
▁கொண்டாடும்	-10.7435
▁யூனிட்	-10.7436
▁சூர	-10.7445
▁எங்களது	-10.7445
ச்சர்	-10.7446
▁கணிசமான	-10.745
▁பெய்யக்கூடும்	-10.7451
▁மகிந்த	-10.7451
▁பௌத்த	-10.7453
▁இரா	-10.7455
▁பீகாரில்	-10.7456
▁பொதுத்	-10.7457
▁தேடுதல்	-10.7465
▁அடைத்து	-10.7467
வென	-10.7467
▁கிஷோர்	-10.747
▁நீதித்துறை	-10.7471
▁பணவீக்கம்	-10.7476
▁முயல	-10.7476
▁கம்பி	-10.7479
▁க்ள	-10.748
▁பத்ம	-10.7482
▁பக்தர்களின்	-10.7486
▁சுட்டு	-10.7487
▁அனைவரின்	-10.7489
வருகின்றன	-10.749
▁தலைவி	-10.7491
▁நாடக	-10.7492
▁என்னோட	-10.7492
▁காப்ப	-10.7494
▁துவங்கிய	-10.7495
▁ஆரம்பித்தார்	-10.7495
▁இருந்துள்ளது	-10.7496
▁சோம	-10.7496
▁பராமரிப்ப	-10.7497
▁கண்டறிந்து	-10.7499
▁சுமை	-10.75
▁தாங்கி	-10.7502
▁குற்றங்கள்	-10.7503
▁வியாபாரம்	-10.7504
▁கண்டிக்க	-10.7505
ுவாரா	-10.7506
வாக்க	-10.7506
▁சேவ	-10.7506
▁கொண்டுவந்த	-10.7513
▁அமைச்சக	-10.7513
▁காட்டினார்	-10.7522
குந்த	-10.7522
லெ	-10.7524
▁மாட்டு	-10.7525
▁சொகுசு	-10.7528
▁கையகப்படுத்த	-10.7528
▁பயனர்	-10.7529
▁தவணை	-10.7529
▁இல்லாவிட்டால்	-10.753
▁அமைதியை	-10.7535
வட	-10.7535
லியா	-10.7536
▁என்னதான்	-10.7548
sh	-10.7551
▁சிக்னல்	-10.7551
▁600	-10.7551
▁பொறுத்த	-10.7552
▁ஆரோக்கியமான	-10.7552
▁அர்	-10.7554
கிராம	-10.7556
களுக்குத்	-10.7556
▁போனார்	-10.7557
▁ரவீந்திர	-10.7562
▁பதிவுசெய்து	-10.7565
▁கிளர்ச்சி	-10.7569
▁எழுப்பினார்	-10.7569
▁பொறியாளர்	-10.757
▁கண்டுபிடிப்பு	-10.7571
▁இஸ்லாமியர்கள	-10.7572
▁கதிர்	-10.7576
▁கிளம்ப	-10.7576
▁முனை	-10.7581
▁எடுத்தது	-10.7581
▁எடுத்துக்கொண்ட	-10.7581
செய்து	-10.7581
▁உதவியாக	-10.7582
▁துருவ	-10.7584
▁கட்டும்	-10.7585
▁w	-10.7586
வந்தார்	-10.759
ையே	-10.759
ியதால்	-10.7591
▁மைல்	-10.7592
▁வீரராக	-10.7598
▁நுண்ணறிவு	-10.7598
▁முக்கியப்	-10.76
ுவோர்	-10.7602
ப்படுவதாகவும்	-10.7604
▁வர்ற	-10.7605
▁ஆஜரான	-10.7607
▁அம்பானி	-10.7607
▁தூக்கு	-10.7607
▁கழிவறை	-10.7609
▁தேர்தலிலும்	-10.7609
▁பெற்றவர்	-10.761
▁m	-10.7611
ாமலேயே	-10.7611
வோம்	-10.7611
▁கைத்தொழில்	-10.7613
▁அதையும்	-10.7614
▁எப்படியாவது	-10.7614
▁நடத்தை	-10.7615
▁இருந்துள்ளார்	-10.7616
▁கற்று	-10.7617
▁சொந்தமாக	-10.7619
65	-10.762
▁சந்திரசேகர	-10.7621
▁கிண்டல்	-10.7624
▁சந்தோஷ	-10.763
▁சொன்னேன்	-10.7631
▁மீண்டு	-10.7631
யிட்ட	-10.7638
▁கூட்டத்திற்கு	-10.7639
ப்பாட	-10.764
▁மேலிட	-10.7642
▁ஊரக	-10.7643
▁அணியும்	-10.7643
காலத்தில்	-10.7645
▁செய்துகொள்ள	-10.7646
▁பாருங்க	-10.7648
▁கணித்த	-10.7649
▁பெய்யும்	-10.7651
▁பவன்	-10.7651
▁தொகுப்ப	-10.7655
▁பூர்வ	-10.7656
சென்னை	-10.7661
என்ன	-10.7664
▁விளம்பரம்	-10.7668
▁ராக	-10.7669
சக்தி	-10.7669
▁போஸ்ட்	-10.7671
▁மோதிய	-10.7671
▁சேமிப்பு	-10.7672
▁சந்திரசேகர்	-10.7673
▁காலத்தை	-10.7675
▁கார்ட	-10.7675
▁ஸ்டெ	-10.7676
34	-10.7676
▁மேஷம்	-10.7677
29	-10.7685
▁சன்ரைசர்ஸ்	-10.7686
▁சுழற்பந்துவீச்ச	-10.7686
▁பரஸ்பர	-10.7686
▁ஹேமந்த்	-10.7686
▁அதேபோன்று	-10.7686
▁குப்தா	-10.7687
▁ஷாக்	-10.7687
வார்கள்	-10.7687
▁சவாலாக	-10.7689
▁நிமிடங்களில்	-10.7689
▁ஆதாரங்களை	-10.7691
▁பட்ஜெட்டில்	-10.7693
▁அறநிலையத்	-10.7696
மேல்	-10.77
▁ஆரம்பித்தது	-10.7701
▁சாத்த	-10.7702
▁புயல	-10.7702
▁போயி	-10.7703
▁நடிப்பில்	-10.7704
▁தருமபுரம்	-10.7707
▁மல	-10.7707
▁துறையை	-10.7708
▁சிறுவர்கள்	-10.7708
▁வெளியேறினார்	-10.7712
Y	-10.7715
▁கேட்டோம்	-10.7715
me	-10.7717
▁மீன	-10.7717
▁நியாயமான	-10.7718
▁அழகிய	-10.7719
▁குழ	-10.7721
▁தசை	-10.7721
▁செயலகத்தில்	-10.7722
சந்திர	-10.7724
▁கொடுத்தால்	-10.7724
▁காணிக்கை	-10.7726
▁மெய்	-10.7726
▁தொட்டி	-10.7729
▁எலிசபெத்	-10.7731
▁அப்படிப்பட்ட	-10.7734
▁அடிக்கல்	-10.7739
+	-10.774
▁அஸ்	-10.7741
▁பண்டார	-10.7746
▁இல்லத்தில்	-10.7749
தானா	-10.7753
▁விற்ற	-10.7753
▁எதிர்காலத்தை	-10.7756
ிப்பது	-10.7756
▁சுமந்து	-10.7757
▁வெல்லும்	-10.7763
▁ஆப்பிரிக்கா	-10.7764
▁கட்டுக்குள்	-10.7766
▁அமீரக	-10.7766
▁முஸ்லீம்	-10.7766
▁மாப்பிள்ளை	-10.7766
▁கருத்துக்கணிப்ப	-10.7766
▁தேநீர்	-10.7767
▁வேண்டுமானால்	-10.7768
▁இளைஞர	-10.7768
▁அப்போதே	-10.7771
▁சில்வா	-10.7772
வர்தன	-10.7773
▁நானே	-10.7774
▁இவற்றில்	-10.7781
▁f	-10.7781
▁புகழ	-10.7782
காம	-10.7782
▁காங்	-10.7782
▁இதேபோல	-10.7784
மனை	-10.7786
▁மாநிலங்களிலும்	-10.7787
▁மறைமுக	-10.7788
▁கோயிலை	-10.7791
▁சிட்டி	-10.7793
▁அவ்வ	-10.7794
▁நகைகள்	-10.7795
ச்சல்	-10.7796
▁கச	-10.7798
▁லெபனான்	-10.7801
விடு	-10.7801
க்காரர்கள்	-10.7801
▁எழுதப்பட்ட	-10.7802
டுங்க	-10.7802
▁பேசு	-10.7803
▁சசி	-10.7804
▁எழுதினார்	-10.7805
வில	-10.7805
▁கடிதத்தை	-10.7806
▁மாவட்டத்தை	-10.7808
02	-10.7809
▁செயலாளர	-10.781
▁உத	-10.7811
வினை	-10.7821
▁பிறந்தவர்	-10.7821
▁வெண்	-10.7822
▁நிமிட	-10.7827
▁ஆனார்	-10.7829
▁விண்ணப்ப	-10.7835
▁உபயோக	-10.7835
▁கல்யாணம்	-10.784
▁சாட்டிய	-10.784
▁கேப்டனாக	-10.7841
▁வாரி	-10.7843
▁கொண்டுள்ளார்	-10.7847
▁காப்பீடு	-10.7847
▁சிபிசிஐடி	-10.7847
▁டக்ளஸ்	-10.7847
▁முதன்முறையாக	-10.7847
▁பிரதோஷ	-10.7847
▁போராளி	-10.7847
▁அமமுக	-10.7847
▁எரிசக்தி	-10.7847
ின்றது	-10.785
ta	-10.7852
▁இயக்கத்தின்	-10.7858
குல	-10.786
▁செயல்படுகிறது	-10.786
▁எதிரானது	-10.7862
▁தனித்தனியாக	-10.7864
கிறேன்	-10.7865
▁கதாபாத்திர	-10.7867
▁போகிறார்	-10.7868
▁நடுவே	-10.7871
▁செல்போனை	-10.7873
▁எதற்கு	-10.7876
z	-10.7879
▁பலன்களை	-10.7881
ட்டாக	-10.7883
▁சாதிய	-10.7885
▁எம்எல்ஏக்கள	-10.7886
▁நட்சத்திரம்	-10.7886
▁கருத்துக்	-10.7886
▁பூமியில்	-10.7887
▁மேஷ	-10.7888
▁வீதிகளில்	-10.789
லிங்கம்	-10.7891
▁கிடைக்காது	-10.7893
▁பிரிவுகளின்	-10.7894
ment	-10.7896
▁தேவர்	-10.7897
▁பதிவான	-10.7898
▁சென்னையை	-10.7898
▁பந்தில	-10.79
பாக	-10.7902
பாஜக	-10.7902
▁டீம்	-10.7906
▁செஞ்சி	-10.7909
▁தேர்தல	-10.7911
▁நடைபெறவுள்ள	-10.7913
▁விழுந்தது	-10.7918
▁மான	-10.7923
▁பறிக்க	-10.7923
பரி	-10.7924
▁தட்ட	-10.7928
▁உண்டியல்	-10.7928
▁திருகோணமலை	-10.7928
▁பரம்பரை	-10.7928
▁வாரணாசி	-10.7928
▁இடதுசாரி	-10.7929
▁டெலிவரி	-10.7929
▁1990	-10.7931
▁ஆட்சியின்	-10.7935
▁அவதார	-10.7935
▁அப்துல்லா	-10.7936
▁இலங்கையை	-10.7936
▁ஏராளமானோர்	-10.7937
▁வருடங்களில்	-10.7938
ஞ்	-10.7939
▁சீனாவுக்கு	-10.7941
▁ரஜினிகாந்த்	-10.7944
▁நிகழும்	-10.7944
▁டிரம்ப	-10.7945
▁பவர்	-10.7946
▁உரையாடல்	-10.7947
▁அரசுகள்	-10.7947
▁49	-10.7949
▁எதுவும	-10.795
▁பணிபுரிந்து	-10.795
கொண்டே	-10.7951
▁எண்ணி	-10.7957
▁பொதுக்குழுவை	-10.7957
▁கலா	-10.7959
▁குடும்பத்திற்கு	-10.7964
▁போடப்பட்ட	-10.797
▁b	-10.797
லிங்	-10.7972
▁நினைவ	-10.7974
▁நடந்தால்	-10.7977
▁மிர	-10.7977
வினர	-10.7985
▁புவி	-10.7987
க்கோரி	-10.7987
▁கனி	-10.799
▁ஒழிப்புத்துறை	-10.799
▁குவிந்த	-10.799
▁நைட்	-10.7992
▁1-	-10.7992
▁ஆர்வலர்	-10.7994
▁பார்வையாளர்கள்	-10.7996
▁அளித்துள்ள	-10.8001
▁பயன்படுத்துவது	-10.8003
▁செய்வ	-10.8005
ப்பொருட்கள	-10.8005
▁உரிமையாளர்கள்	-10.8008
▁சுற்றுவட்டார	-10.801
▁திங்கட்கிழமை	-10.801
▁படுகாயமடைந்த	-10.801
▁வைத்தியசாலை	-10.8011
▁என்பன	-10.8011
▁மதிமுக	-10.8013
▁விலைவாசி	-10.8014
▁மார்க்கெட்	-10.8014
▁ரோஜா	-10.8014
▁பதிவாகியுள்ளது	-10.8015
▁கூட்டமைப்பு	-10.8019
37	-10.802
▁ஆந்திராவில்	-10.8023
▁பேரின்	-10.8026
▁புரோ	-10.8026
▁போஸ்	-10.803
!"	-10.8032
▁சேதம்	-10.8035
ுள்	-10.8036
ப்பட்டால்	-10.8038
▁குறியீடு	-10.804
▁சரியா	-10.804
▁கிறிஸ்	-10.804
▁வகிக்கும்	-10.8041
▁உற்பத்தியை	-10.8041
▁காரணமான	-10.8042
▁திருக்கல்யாணம்	-10.8043
▁ஹாரிஸ்	-10.8044
▁பாராட்டிய	-10.8047
▁கருட	-10.8052
▁கோடியே	-10.8053
ிற்குள்	-10.8053
நிலையில்	-10.8053
▁வழித்தட	-10.8055
ிருக்கு	-10.8055
▁பேட்டர்கள்	-10.8057
▁திருப்பணி	-10.8061
▁என்றுதான்	-10.8065
J	-10.8066
▁தாமதம்	-10.8072
▁வியாபாரி	-10.8075
▁முற்ற	-10.8077
கமாக	-10.8078
▁முயற்சிக்க	-10.8078
▁பெற்றோர	-10.8087
▁தொண்டு	-10.8087
▁பேசவில்லை	-10.8087
36	-10.8087
.15	-10.8088
▁ரஞ்சித்	-10.8088
ti	-10.809
▁முன்னோக்கி	-10.8093
▁விசேஷ	-10.8093
▁அப்புறம்	-10.8093
▁தாரா	-10.8093
▁புறநகர்	-10.8094
▁சிகிச்சைக்கு	-10.8094
▁புகைப்படங்களை	-10.8097
▁கொள்ளவில்லை	-10.8098
▁அருகேயுள்ள	-10.8099
▁மெதுவாக	-10.8101
▁டொனால்ட்	-10.8103
விடுகிறது	-10.8103
▁பூஜா	-10.8105
▁மாத்திரை	-10.8106
▁அதிகாரிகளிடம்	-10.8109
▁பிரதமரின	-10.811
▁7-	-10.8112
▁பகவான	-10.8113
▁120	-10.8114
▁சிறுநீர்	-10.8115
▁உடனடி	-10.8117
▁கோயில்களில்	-10.8118
▁தாக்குதல்கள்	-10.8118
▁முன்னேறி	-10.8124
ma	-10.8124
▁ஆவின்	-10.8125
ின்போது	-10.8126
டைந்த	-10.8126
▁ஜனாதிபதியாக	-10.8127
▁இலட்சம்	-10.8127
▁2018-	-10.813
▁சிரித்த	-10.8136
▁கொண்டிருக்க	-10.8136
▁துவக்கி	-10.8137
▁பகை	-10.8139
▁கேட்	-10.8144
வாசல்	-10.8147
▁பழனிசாமிக்கு	-10.8149
▁வருவார்கள்	-10.8158
▁சிம்	-10.8158
▁ஒன்றியம்	-10.8159
▁ஒன்றிணைந்து	-10.8163
▁மாணவன்	-10.8163
▁பத	-10.8165
முனை	-10.8168
▁போலீஸ	-10.817
மெண்ட்	-10.8171
▁வேலைகள்	-10.8172
▁அரசே	-10.8173
▁எழுந்தருள	-10.8175
▁சம்ப	-10.8175
▁சிறுபான்மை	-10.8176
▁வயிற்று	-10.8176
▁புறக்கணிப்ப	-10.8176
▁நரசிம்ம	-10.8176
▁பவுன்	-10.8177
▁சாம்பியன்ஷிப்	-10.8177
▁இருவருமே	-10.8177
▁ஓய்வுபெற்ற	-10.8177
▁நேரிடும்	-10.8177
▁கருணை	-10.818
▁செய்வோம்	-10.818
▁கொண்டுள்ள	-10.8181
▁ஹர்	-10.8183
▁வார்டில்	-10.8185
▁கிளம்பிய	-10.8187
▁அவளை	-10.8187
▁எல்லோருக்கும்	-10.8187
▁வேளாண்மை	-10.8188
▁விளைவு	-10.819
▁தனித்துவமான	-10.8192
ப்படுகின்றனர்	-10.8193
▁இச்	-10.8194
▁ஆளுமை	-10.8195
ai	-10.8205
▁இணையதளம்	-10.8208
மக்கள்	-10.8211
▁சட்டப்	-10.8211
▁சென்றதாக	-10.8211
▁உறை	-10.8214
AN	-10.8217
▁காங்கிரஸ	-10.8219
ஜூ	-10.8222
▁தரவுகள்	-10.8228
▁தேவாலய	-10.8232
▁ரயில்கள்	-10.8233
▁திரண்ட	-10.8233
▁நபர்களை	-10.8234
▁In	-10.8235
விதமான	-10.8237
▁ஏவ	-10.824
▁வராது	-10.8242
▁புரிந்த	-10.8243
▁உறுதியளித்த	-10.8248
▁கவுன்சில	-10.8249
▁பதிவுசெய்ய	-10.8255
▁தாவ	-10.8258
▁செயற்கைக்கோள்	-10.826
▁நெதன்யாகு	-10.826
▁வற்புறுத்த	-10.826
▁சிவபெருமான	-10.826
▁நிகழ்வ	-10.8261
▁வரதராஜ	-10.8261
▁எல்லாவற்றையும்	-10.8261
▁பொருளாளர்	-10.8261
மத	-10.8261
▁சரமாரியாக	-10.8262
▁தயிர்	-10.8263
▁கிளா	-10.8264
▁பெரி	-10.8266
▁பேசியதாக	-10.827
ஸ்கோ	-10.8272
▁மன்	-10.8273
▁தேவஸ்தான	-10.8273
▁வானதி	-10.8274
▁அழகான	-10.8276
ச்சே	-10.8277
▁கதவை	-10.8282
ab	-10.8282
▁சட்டங்களை	-10.8282
▁வலய	-10.8284
33	-10.8289
▁அவர்களும்	-10.829
▁பெற்றுள்ளனர்	-10.8291
ுக்கோ	-10.8294
▁அடிமை	-10.8294
▁சுங்க	-10.8296
▁பாடலை	-10.8296
▁புலம்ப	-10.8299
ாய்வு	-10.83
மல	-10.83
▁கேட்டேன்	-10.83
ள்ளேயே	-10.83
▁ஆதாரங்கள்	-10.8302
▁உரையில்	-10.8302
500	-10.8302
▁வகித்து	-10.8304
▁திசையில்	-10.8307
▁தீர்ப்பளித்த	-10.8309
▁நிதிய	-10.8309
▁காணவில்லை	-10.8309
▁மெகா	-10.831
▁நடைமுறையில்	-10.8311
▁சுட்டிக்காட்டி	-10.8311
▁மிஸ்	-10.8312
▁ஒருசில	-10.8314
im	-10.8315
ாமலும்	-10.8315
சங்க	-10.8315
▁ஒட்டுமொத்தமாக	-10.8316
பன்னீர்	-10.8318
நாராயண	-10.8318
▁கொண்டால்	-10.8319
▁விஷம்	-10.832
▁வடகொரியா	-10.8321
▁வெடித்தது	-10.8323
▁எண்ணை	-10.8323
▁பாலு	-10.8324
▁அந்நாட்டின	-10.8325
▁அவரைக்	-10.8327
▁ப்ள	-10.8328
ுவாங்க	-10.8329
▁கோரிக்கைகள்	-10.833
வெளி	-10.833
▁20-	-10.833
▁பேசுகிறார்	-10.8331
த்துறையில்	-10.8337
▁தைரிய	-10.834
வம்	-10.8342
▁ஈடுபடும்	-10.8343
▁உடன்படிக்கை	-10.8345
▁கடைப்பிடிக்க	-10.8345
▁ட்ரூடோ	-10.8345
▁மார்க்சிஸ்ட்	-10.8345
▁போவதில்லை	-10.8345
▁புராண	-10.8345
▁அனிதா	-10.8345
▁பரமக்குடி	-10.8345
▁சிக்கலான	-10.8346
▁எஸ்டேட்	-10.8347
▁நிரம்பிய	-10.8349
▁தேதிக்கு	-10.835
▁பேருந்தில்	-10.835
▁வடிவமைக்கப்பட்ட	-10.8351
▁கண்டுபிடித்து	-10.8351
▁செய்தோம்	-10.8352
▁ஜென்ம	-10.8353
▁இதையெல்லாம்	-10.8355
▁சரிந்த	-10.8355
▁ஆட்டமிழந்தார்	-10.8356
▁நூற்றாண்டில்	-10.8356
▁தட்டு	-10.8357
▁செய்துள்ளதாக	-10.8358
▁எடப்பாடிக்கு	-10.8358
ிகா	-10.8358
▁அம்மனை	-10.8359
▁தொடங்குகிறது	-10.8359
▁வங்கதேசம்	-10.8362
▁நபர்களுக்கு	-10.8362
ுமோ	-10.8363
▁பரிசாக	-10.8363
▁போகிற	-10.8364
கூட்ட	-10.8366
▁உயரும்	-10.8367
▁எல்லையை	-10.8368
▁எழுப்பினர்	-10.837
ம்மாள்	-10.8371
▁வாக்கெடுப்பு	-10.8371
▁1,000	-10.8372
▁மறைவுக்கு	-10.8374
▁போட்டிக்கு	-10.8375
றப்ப	-10.8377
ட்டிய	-10.8379
▁காஷ்மீர	-10.8381
மாதிரி	-10.8381
▁தொழில்நுட்பத்தை	-10.8381
pe	-10.8382
▁கழிவு	-10.8384
▁தரையில்	-10.8386
▁கிராமப்புற	-10.839
▁வாயில்	-10.8391
▁வச	-10.8396
▁நிலங்கள்	-10.8406
▁அய்ய	-10.8406
▁பார்த்தார்	-10.8411
▁கத	-10.8414
▁மாரி	-10.8421
பாண்டி	-10.8423
ந்தர	-10.8425
ுக்குச்	-10.8426
▁58	-10.8429
▁நிதியுதவி	-10.8431
▁வதந்தி	-10.8431
▁ஜின்பிங்	-10.8431
▁ஊடுருவ	-10.8431
▁உகந்த	-10.8431
▁தீர்மானங்களை	-10.8431
▁திருவீதி	-10.8432
▁பருத்தி	-10.8434
▁தொகுதிகளை	-10.8438
▁ஆத்திர	-10.8439
▁காஸாவில்	-10.8441
▁கொண்டுள்ளனர்	-10.8442
▁6:00	-10.8442
க்காடு	-10.8447
▁முன்னெடுத்த	-10.8449
சென்	-10.8449
▁முறைமை	-10.845
▁இளைஞர்களை	-10.845
▁செல்கிறது	-10.845
▁19-	-10.8452
▁நாள்களில்	-10.8452
▁கம	-10.8454
▁வரம்பு	-10.8454
▁பத்திரமாக	-10.8454
▁முனைவர்	-10.8455
ங்களுக்காக	-10.846
▁மண்ணில்	-10.8464
▁செயலர்	-10.8464
▁அமைப்பான	-10.8465
▁ஜு	-10.8466
▁வந்தே	-10.8472
▁அக்னிபாத்	-10.8473
▁பேசிக்	-10.8475
னுடன்	-10.8479
▁வித்தியாசம்	-10.848
▁நடவடிக்கைகளில்	-10.8483
▁நிறுத்தம்	-10.8483
▁பலகை	-10.8484
மினி	-10.8485
▁உணர்வுகளை	-10.8488
கையில்	-10.8489
▁ஆர்ப்பாட்ட	-10.8491
▁அமைக்கப்படும்	-10.8491
▁மண்டலம்	-10.8495
▁அழைக்கப்படுகிற	-10.8496
▁மீறிய	-10.8496
▁அவர்களுடன்	-10.8497
▁ஈட்ட	-10.8498
▁அதுமட்டுமல்ல	-10.8503
▁நந்தி	-10.8504
புது	-10.8506
▁எதிர்கொள்வ	-10.851
▁பொய்யான	-10.8513
▁தாலுகா	-10.8514
▁பாதுகாக்கும்	-10.8515
▁யுத்தம்	-10.8515
▁தாக்கப்பட்ட	-10.8515
▁குண்டர்	-10.8516
▁பாதையை	-10.8518
▁பரபரப்பாக	-10.8519
"...	-10.8519
ப்பாக்கம்	-10.852
▁ரெடி	-10.852
தவ	-10.8521
▁பண்ட	-10.8522
▁கட்டங்களாக	-10.8522
▁J	-10.8523
கட்டுரை	-10.8523
▁உட்கார	-10.8527
▁துப்பாக்கிச்சூட	-10.853
▁நம	-10.8531
▁உயிர	-10.8531
▁தோறும்	-10.8533
ுவதோடு	-10.8534
▁ஏற்படுத்துகிறது	-10.8534
▁கேட்டதற்கு	-10.8537
▁காதலித்து	-10.8537
▁அதற்குள்	-10.8539
▁மேலாளர்	-10.8539
▁வேட்பாளரை	-10.854
▁பிரச்சினைகளை	-10.8541
ப்படுவதற்கு	-10.8543
▁கவர்னர்	-10.8543
▁பெண்களும்	-10.8543
▁சனிபகவான்	-10.8545
▁இருந்திருந்தால்	-10.8547
கிற்கு	-10.8549
▁போனில்	-10.8552
▁சபையில்	-10.8553
▁52	-10.8554
▁பூரி	-10.8556
▁பார்த்தேன்	-10.8557
▁கட்சிகளை	-10.8561
▁லட்சத்திற்கு	-10.8561
▁நட்சத்திரத்தில்	-10.8564
▁செயல்பாடுகளை	-10.8566
▁கைதிகள்	-10.8569
▁அவர	-10.8569
▁பார	-10.8575
▁மாற்றும்	-10.8579
வலி	-10.8583
ியுங்கள்	-10.8584
▁வெடிப்பு	-10.8584
▁நை	-10.8588
▁தள்ளப்பட்ட	-10.8589
▁சுமத்த	-10.8593
▁அலட்சிய	-10.8593
▁தெளிவாகத்	-10.8593
▁மாநிலத்தை	-10.8595
▁வாகனத்தை	-10.8595
▁உடைத்த	-10.8604
▁வீதியுலா	-10.8604
▁வெளிவிவகார	-10.8604
▁ஹெஸ்பொலா	-10.8604
▁சேகர்பாபு	-10.8604
▁சம்பாதிக்க	-10.8604
▁மயங்கி	-10.8604
▁பட்டதாரி	-10.8605
▁துன்ப	-10.8605
▁வேறொரு	-10.8605
▁தேவேந்திர	-10.8605
▁பின்னரே	-10.8606
ரஸ்	-10.8606
▁வாக்க	-10.8606
▁பொருத்தவரை	-10.8608
▁ஸ்ரீதேவி	-10.8608
▁வந்துள்ள	-10.8609
யென	-10.8609
▁போலீசில்	-10.8609
▁சாலைகளில்	-10.861
னுக்கும்	-10.861
▁உலகளவில்	-10.861
▁பச	-10.8614
▁விக்னேஷ்	-10.8617
▁பாதிப்புகளை	-10.8617
▁கடக்க	-10.8618
▁அம்ப	-10.8618
▁விவகாரங்கள்	-10.8621
▁வகுப்பறை	-10.8623
▁பிளஸ்	-10.8623
vi	-10.8623
ce	-10.8625
▁ஓடும்	-10.8626
பள்ளி	-10.8627
▁இந்நாட்ட	-10.8627
ப்படுவதால்	-10.8629
▁சரண்	-10.8631
களிலேயே	-10.8631
▁எங்களால்	-10.8631
▁கொள்கைகள்	-10.8633
▁செய்	-10.864
▁திணைக்களம்	-10.8641
▁விடுதியில்	-10.8645
தொரு	-10.8649
ப்பிரிவ	-10.8653
▁தாலி	-10.8654
▁தாண்டிய	-10.8655
யின்படி	-10.8656
▁தொடங்கின	-10.8658
▁நுழைவு	-10.8659
▁நிலையத்துக்கு	-10.866
ராவ்	-10.8662
▁மரங்கள்	-10.8665
6,000	-10.8669
▁பொழுது	-10.867
▁வாடகைக்கு	-10.8673
▁தலையை	-10.8673
▁நகரத்தில்	-10.8674
▁எடுத்துள்ளது	-10.8679
▁செய்யும்போது	-10.8681
▁கும்பல	-10.8683
▁செல்வன்	-10.8684
கலை	-10.8688
▁பொதுச்செயலாளராக	-10.869
▁அளிக்கப்பட்டு	-10.8691
▁ஏகாதசி	-10.8691
▁சிவராத்திரி	-10.8691
▁பாதயாத்திரை	-10.8691
▁ஆடம்பர	-10.8691
▁மேஜர்	-10.8692
▁ஜார்ஜ்	-10.8692
▁வாய்ப்பில்லை	-10.8692
▁சமூகநீதி	-10.8693
▁ஆண்டாள்	-10.8694
▁இழுக்க	-10.8694
▁ராமசாமி	-10.8695
▁நாளிதழ	-10.8695
▁1980	-10.8695
▁விருதை	-10.8699
▁வாசக	-10.87
▁வரப்போகிறது	-10.87
கிட்டே	-10.8701
ாதா	-10.8703
▁கொவிட்	-10.8703
நோ	-10.8704
▁கிறிஸ்தவ	-10.8704
▁ஈடுபட்டார்	-10.8706
▁ரசிக்க	-10.8707
▁தலைவரை	-10.8708
▁செய்யத்	-10.8709
1,000	-10.871
▁நிபுணர	-10.8713
▁சண்முகம்	-10.8714
▁அமைச்சரும்	-10.8715
▁குற்றவாளிகளை	-10.8715
▁வீட்டுக்குள்	-10.8716
க்கலை	-10.8718
▁தீபக்	-10.8721
▁உணவக	-10.8722
▁ஆகியோரின	-10.8723
▁அம்சங்கள்	-10.8728
▁பேசிக்கொண்ட	-10.8728
யியல்	-10.8733
▁பாதிக்கப்படும்	-10.8734
▁பிரமாண்ட	-10.8738
▁இவரின	-10.8742
▁அடக்கம்	-10.8743
▁கம்பீர	-10.8746
ிலோ	-10.8748
▁போரின்	-10.8751
▁தெளிவுபடுத்த	-10.8758
▁தொடங்கப்பட்ட	-10.8763
▁வீசப்பட்ட	-10.8765
▁வழங்கினர்	-10.877
▁குற்றச்சாட்ட	-10.8772
▁வன்முறையை	-10.8773
▁திருமணத்தை	-10.8774
▁விரும்பாத	-10.8775
▁வேண்டுமென்று	-10.8775
ப்படவுள்ளது	-10.8779
▁அமெரிக்காவை	-10.8779
▁செம்ம	-10.8779
▁முதலாளி	-10.878
▁கிழமை	-10.878
▁சுனாமி	-10.878
▁செளதி	-10.878
▁பெறுமதி	-10.878
▁மேற்படி	-10.8781
▁கொழுப்பு	-10.8782
▁உயர்மட்ட	-10.8782
▁பழக	-10.8784
▁முயன்றார்	-10.8785
▁2004	-10.8788
▁புள்ளிகளுடன்	-10.8788
ேரி	-10.879
▁கணவரை	-10.8791
▁தேர்தலின்	-10.8794
▁குரலில்	-10.8795
ங்களிலிருந்து	-10.8796
▁கொள்கைகளை	-10.8798
வுல	-10.8802
43	-10.8804
▁இழுத்த	-10.8806
▁உற்சவர்	-10.881
▁சுவாச	-10.8811
▁துலாம்	-10.8813
▁பறந்து	-10.8814
▁இலக்காக	-10.8816
▁விட்டுவிட்டு	-10.882
▁ரிஷப	-10.8821
▁தேதிகளில்	-10.8821
▁பிராந்தியத்தில்	-10.8821
க்கெல்லாம்	-10.8822
▁வைத்துக்கொண்டு	-10.8827
▁இந்தியன்ஸ்	-10.8829
47	-10.883
▁விளையாடும்	-10.8832
▁2009	-10.8833
▁பலருக்கு	-10.8834
மைப்பு	-10.8837
லியன்	-10.8837
▁பணியிட	-10.884
க்காய்	-10.8841
▁பாய்ந்த	-10.8841
விடுவார்	-10.8843
▁தேடும்	-10.8848
▁தொடரின்	-10.8851
▁நடிகர்கள்	-10.8854
▁மருத்துவர	-10.8854
▁ஈடுபட்டுள்ள	-10.8854
▁போனால்	-10.8854
▁அணிகளுக்கு	-10.8855
▁மகனுக்கு	-10.8857
▁இங்கிலாந்த	-10.8864
▁எஸ்பி	-10.8864
▁ஊர்தி	-10.8866
▁கரி	-10.8868
▁அதற்கமைய	-10.8869
▁கணிசமாக	-10.8869
▁எய்ம்ஸ்	-10.8869
▁புடவை	-10.8869
▁ஐந்தாவது	-10.8869
ுகிறதா	-10.887
▁கடைபிடிக்க	-10.887
▁ராகுல்காந்தி	-10.887
திலும்	-10.8872
கட்சி	-10.8872
களுக்கே	-10.8872
ிடும்	-10.8873
▁அவல	-10.8875
▁ஊதியம்	-10.8877
▁நேரமாக	-10.8878
▁நாட்	-10.8878
▁நிறைவேற்று	-10.888
▁டெண்டர்	-10.888
▁8-	-10.8883
▁பாணியில்	-10.8883
தாரண	-10.8884
லாமே	-10.8886
ெல்	-10.8886
▁கிரிக்கெட்டில்	-10.8886
▁செய்யப்படவில்லை	-10.8886
மில்லாத	-10.8892
▁வருவார்	-10.8895
▁பேருக்கும்	-10.8896
▁செங்க	-10.8897
▁கையாண்ட	-10.8897
▁கதறி	-10.8898
▁பிரான்ச	-10.8899
▁அறிமுக	-10.8899
▁டான்	-10.8901
▁ரோடு	-10.8904
▁ஓவரை	-10.8905
▁வேண்டியுள்ளது	-10.8906
▁காணப்பட்டது	-10.8908
எப்	-10.8909
▁2014-	-10.8909
தாகும்	-10.8911
▁பலப்படுத்த	-10.8912
ிருக்கேன்	-10.8915
▁எதிர்கொண்டு	-10.8915
▁கிருஷ்ணன்	-10.8916
ம்பாக்கம்	-10.8918
▁வழங்கல்	-10.8921
co	-10.8921
▁வங்கியில்	-10.8923
▁நிலையத்தின்	-10.8927
▁சமன்	-10.8929
▁நீடிக்க	-10.893
▁தீர்த்து	-10.8931
விருக்கும்	-10.8933
▁பிரச்சனைகள்	-10.8935
▁மறைமுகமாக	-10.8936
▁/	-10.8936
▁பாதியில்	-10.8937
▁சாலைகள்	-10.8937
ாரே	-10.8938
▁குறைவ	-10.8941
▁54	-10.8941
▁மாட	-10.8945
▁போவது	-10.8946
▁பயன்படுத்தலாம்	-10.895
▁தொழிற்	-10.895
▁உறுப்பினர்களை	-10.8953
▁பயங்கரவாதி	-10.8954
ion	-10.8954
▁அவனுக்கு	-10.8956
யிர்	-10.8957
முடியும்	-10.8958
▁தேவானந்தா	-10.8959
▁அருங்காட்சியக	-10.8959
▁ஃப்ளாட்	-10.8959
▁அதிசய	-10.8959
▁பல்லாயிரக்கணக்க	-10.8959
▁உளவியல்	-10.8959
▁மீட்டெடுக்க	-10.896
▁வெட்க	-10.896
▁அர்ச்சனை	-10.8961
▁தலைவலி	-10.8961
▁சூடான	-10.8961
▁வேட்டையாட	-10.8961
▁ஆத்திரமடைந்த	-10.8962
▁வீதம்	-10.8962
▁நேர்த்தி	-10.8964
▁அடையாளத்தை	-10.8966
▁விரும்புகிறது	-10.8967
▁பெங்களூரில்	-10.8967
▁7:00	-10.8971
61	-10.8974
▁திருமதி	-10.8974
▁விஷயங்களில்	-10.8974
▁பழங்கள்	-10.8978
▁கருணா	-10.898
▁நம்பப்படுகிறது	-10.898
▁புல்	-10.8981
2024	-10.8981
▁கிராமத்தை	-10.8984
▁11-	-10.8985
▁தென்னிந்திய	-10.8987
▁முகத்தை	-10.8988
▁அன்பில்	-10.8989
▁பிறப்பு	-10.899
▁குறிக்கும்	-10.8995
▁05	-10.8996
ப்படாது	-10.9001
▁விக்ரம	-10.9005
ுவதைத்	-10.9009
▁பிரபலங்கள்	-10.9009
▁ஆரம்பிக்கப்பட்ட	-10.901
ுகிறீர்கள்	-10.9011
▁நாச	-10.9011
lo	-10.9012
டெக்	-10.9016
▁பேண	-10.9017
▁பழகி	-10.9019
த்திரி	-10.9019
ஈ	-10.9019
▁வாக்னர	-10.902
▁தன்மையை	-10.9022
▁ஆயுதம்	-10.9022
▁காரணமா	-10.9022
▁பாண்டி	-10.9023
நில	-10.9023
▁செய்திருக்கிறது	-10.9024
▁நேரத்துக்கு	-10.9025
வுக்காக	-10.9026
▁தொடர்ந்தார்	-10.9026
உலக	-10.9026
த்துக்குப்	-10.9028
▁சஹ	-10.9029
▁வெறி	-10.9032
▁பேக்	-10.9032
▁செயல்களில்	-10.9032
▁திரைப்படத்தில்	-10.9034
▁அரசுக்கும்	-10.904
▁நிற்ப	-10.9047
▁ஆத	-10.9049
▁ஏறக்குறைய	-10.905
▁ஒவ்வோர	-10.905
▁பந்துவீச்சை	-10.905
▁வேள்வி	-10.905
▁பரபரப்பான	-10.905
▁ஐஐடி	-10.905
▁ராதாகிருஷ்ணன்	-10.905
▁ஆறாம்	-10.905
▁வங்காள	-10.9052
▁பிரபலமாக	-10.9052
▁வரையிலும்	-10.9052
▁மாணவர	-10.9053
வித	-10.9055
▁பரிதாபமாக	-10.9055
▁கொழும்பில்	-10.9056
▁முக்கியத்துவத்த	-10.9056
▁மூட்டை	-10.9056
▁விற்ப	-10.9057
▁தபால்	-10.9058
▁தந்தார்	-10.9063
▁பெறவில்லை	-10.9065
▁வகுப்பில்	-10.9066
▁அனுமதிக்கப்பட	-10.9067
▁ராஜூ	-10.9067
▁வர்மா	-10.9068
▁கங்கா	-10.9068
▁சமத்துவ	-10.9072
▁நகரை	-10.9073
▁வெளியாகின	-10.9075
▁பணக்காரர்	-10.9077
▁கம்பம்	-10.9078
▁இரத்த	-10.9082
▁நிர்வாகிகளை	-10.9083
06	-10.9084
▁செய்தார்கள்	-10.9086
▁பிரிவை	-10.909
▁இறுதிச்	-10.9093
▁ஈர்ப்பு	-10.9094
▁தலைமறைவாக	-10.9095
மடைய	-10.9097
▁தரவுகளை	-10.9098
ru	-10.9103
▁நடைபெறவுள்ளது	-10.9108
▁ஷாருக்	-10.911
▁பிழை	-10.9112
▁ஸ்டாலினுக்கு	-10.9114
▁விமானி	-10.9115
▁நோக்கமாக	-10.9117
▁வளர்த்த	-10.9118
▁சாவி	-10.9119
▁நினைவிட	-10.9119
▁வைக்கிறார்	-10.9124
▁கொடுக்கவில்லை	-10.9126
▁தலைவருக்கு	-10.9126
ேஸ்வரி	-10.9126
▁சாக	-10.9127
▁நலத்திட்ட	-10.9132
காச	-10.9133
ிலிருந்த	-10.9134
▁வாய்ப்புள்ளதாக	-10.9134
ுகின்றது	-10.9135
▁சாதன	-10.9138
ப்பூர்	-10.9141
▁மேற்கோள்	-10.9141
▁எதிரொலி	-10.9142
▁ஆபரண	-10.9142
▁எந்தெந்த	-10.9142
▁கழுத்தில்	-10.9142
▁கவிதை	-10.9142
▁ஜேம்ஸ்	-10.9142
▁கட்டப்பட்டு	-10.9143
▁விசாரணையின்	-10.9143
▁பயணிக்கும்	-10.9143
ில்லாத	-10.9146
▁விரல்	-10.9147
▁உச்சம்	-10.9149
▁வலைத்தளத்தில்	-10.9151
▁டெக்	-10.9151
▁மற்றவர்கள்	-10.9152
▁மயக்க	-10.9156
▁குழுமம்	-10.9156
▁இருக்கின்ற	-10.9157
▁நிலையத்தை	-10.916
▁for	-10.9162
செல்	-10.9162
▁உழைப்பு	-10.9162
யாவின்	-10.9164
▁நலத்துறை	-10.9166
▁பிறக்கும்	-10.9168
▁சமூகத்தினர	-10.9169
▁வடிவில்	-10.9171
▁ராஜன்	-10.9171
▁அப்பாவி	-10.9174
▁ஆவணி	-10.9176
▁மூழ்கிய	-10.9179
▁பெருமையை	-10.9181
▁பைடன	-10.9181
▁கருப்ப	-10.9183
▁உதவியாளர்	-10.9186
காம்	-10.9187
▁பிரச்னைக்கு	-10.9192
▁வராத	-10.9195
▁வைத்திருந்தார்	-10.9196
▁பிரசாதம்	-10.9197
▁144	-10.9197
▁ஆட்	-10.92
▁கேஸ்கள்	-10.9202
▁யுக்ரேன	-10.9206
வரிடம்	-10.9215
▁ரகசியமாக	-10.9216
▁பெற்றுள்ள	-10.9218
▁கேம்	-10.9219
க்காகவும்	-10.9221
▁பேசியிருந்தார்	-10.9222
▁தோல்விக்கு	-10.9224
▁டார்	-10.9226
▁சவுதி	-10.9226
ெடுத்து	-10.9229
▁பல்கலைக்	-10.9234
▁பொள்ளாச்சி	-10.9235
▁ரிப்போர்ட்	-10.9235
▁மகாத்மா	-10.9235
▁காயத்ரி	-10.9235
▁முன்னாடி	-10.9235
▁தென்மேற்கு	-10.9235
▁அருணாச்சல	-10.9236
▁எங்களுடைய	-10.9236
லிருந்து	-10.9237
▁வெல்	-10.9237
தமிழ்	-10.9239
▁தோன்றிய	-10.9239
▁கீவ்	-10.924
▁கருதுகின்றனர்	-10.9241
▁இடத்திலேயே	-10.9241
▁பிச்சை	-10.9241
▁உண்மையிலேயே	-10.9241
▁மாறிவிட்டது	-10.9243
▁சாடிய	-10.9243
ஹே	-10.9244
▁வாட்ஸ்	-10.9248
▁பதிலை	-10.925
▁பாஜகவுடன்	-10.925
▁சின்	-10.9251
▁இருப்பு	-10.9252
▁ஷமி	-10.9254
▁விவேக்	-10.9256
▁நஷ்ட	-10.9257
▁திரும்பும்	-10.9258
▁கருதுகிறார்	-10.9261
▁நியாயம்	-10.9262
▁செட்	-10.9265
▁விளக்குகிறார்	-10.9269
தேவ்	-10.927
▁நீக்கிய	-10.9271
▁செல்லவில்லை	-10.9272
வீர்	-10.9272
ப்பாடு	-10.9273
▁மனுதாரர்	-10.9275
▁ஒன்ற	-10.9276
ap	-10.9278
மட்ட	-10.928
op	-10.9282
▁சிரமம்	-10.9283
▁மாநிலங்களை	-10.9283
▁பொருத்தப்பட்ட	-10.9284
▁01	-10.9286
ண்டோ	-10.929
கால்	-10.9294
▁வயதை	-10.9294
▁இடிந்து	-10.9294
▁உன்னை	-10.9295
▁அற்புத	-10.9295
▁தினத்தில்	-10.9301
▁ஆசாத்	-10.9302
▁பார்த்ததும்	-10.9303
▁சமநிலை	-10.9305
▁புறக்கணித்த	-10.9307
தமிழக	-10.9308
வேலு	-10.9308
▁உற்பத்தியில்	-10.9309
▁தோண்ட	-10.9311
▁அமெரிக்காவுக்கு	-10.9313
▁தண்டனையை	-10.9314
கொலை	-10.9314
▁விளைவுகளை	-10.9315
07	-10.9318
▁பங்களா	-10.9325
கொள்கிறார்	-10.9327
▁வீட்டிலேயே	-10.9328
▁திருப்பரங்குன்ற	-10.9328
▁திரைக்கதை	-10.9328
▁சரும	-10.9328
▁அமைச்சருமான	-10.9329
▁வகையிலான	-10.9329
▁சங்கிலி	-10.9329
▁மக்களுக்காக	-10.9331
▁நடிப்பு	-10.9332
▁நிறைவேற்றிய	-10.9332
▁வீண்	-10.9332
▁மிஸ்ரா	-10.9333
விடுவார்கள்	-10.9333
▁வகுக்க	-10.9334
▁கையெழுத்திட்ட	-10.9334
▁காலனி	-10.9334
▁விவகாரங்களில்	-10.9335
▁சிறைக்கு	-10.9335
▁செந்தில்குமார்	-10.9335
▁நுட்ப	-10.9336
காரி	-10.9336
▁ஐஸ்வர்யா	-10.9337
▁டைம்ஸ்	-10.9338
▁முழுவதுமாக	-10.9339
▁மூன்ற	-10.9339
▁ஆதாரம்	-10.934
▁வழிவகுக்கும்	-10.934
▁நடுவில்	-10.9341
▁அகற்றி	-10.9341
te	-10.9342
▁ஆழமான	-10.9344
▁தாமத	-10.9345
▁மாமா	-10.9346
க்கட	-10.9346
▁ஒருங்கிணைப்பு	-10.9346
▁கலைக்க	-10.9347
▁தீபம்	-10.9348
▁செய்தபோது	-10.9349
▁பொருளாக	-10.9351
▁அமைந்து	-10.9351
▁72	-10.9354
▁பற்றிப்	-10.9356
▁கற்கள்	-10.9356
▁வியூக	-10.9358
▁அனுமதித்த	-10.9359
▁அயோத்தியில்	-10.9364
▁ஜப்பான	-10.9365
▁சாஹ	-10.9365
▁உணர்வை	-10.9368
▁சுட்ட	-10.9369
▁காரண	-10.937
▁மருத்துவப்	-10.9377
▁சுற்றுப்பயணம்	-10.9377
▁2010	-10.9378
▁பவனி	-10.9382
▁உரையை	-10.9382
▁மகனும்	-10.9382
ll	-10.9384
▁இடமாக	-10.9386
▁சாய	-10.9387
▁63	-10.939
தீப்	-10.939
▁கணிப்ப	-10.9391
▁இவர்களில்	-10.9394
▁வெளியேற்றப்பட்ட	-10.9396
குழந்தை	-10.9396
▁ரகு	-10.9398
▁ராவத்	-10.9398
▁தெப்ப	-10.94
▁மகர	-10.9403
▁ஏசி	-10.9407
▁ராஜு	-10.9407
▁செலவை	-10.9408
▁ஆட்டமிழந்த	-10.941
49	-10.9411
▁விஷயமாக	-10.9412
ப்புற	-10.9418
▁64	-10.9419
நீங்கள்	-10.9421
▁அதிகாலையில்	-10.9422
▁அசாதாரண	-10.9422
▁தொந்தரவு	-10.9422
▁மின்னணு	-10.9422
▁வளைகுடா	-10.9422
▁வேட்பு	-10.9422
▁அடுத்தகட்ட	-10.9422
▁வைகுண்ட	-10.9423
▁வெங்கடேஷ்	-10.9423
▁வீடான	-10.9424
▁இளைஞரணி	-10.9424
▁மணிநேரம்	-10.9424
▁இனிமேல்	-10.9425
▁பின்வாங்க	-10.9425
▁குடிசை	-10.9426
▁இந்தியாவும்	-10.9428
▁உண்ண	-10.9428
க்கொள்ளும்	-10.943
▁2002	-10.9431
▁களமிறங்கி	-10.9435
▁வித்	-10.9436
▁யோசித்து	-10.9438
▁வெடிக்க	-10.9439
▁பாட்டு	-10.9439
Ch	-10.9441
▁கடன	-10.9441
▁சந்திரசூடன்	-10.9445
த்தலைவர்	-10.9446
▁2,000	-10.9447
▁செயலை	-10.9447
பாடு	-10.9448
▁தூரத்தில்	-10.9452
▁மனசு	-10.9457
▁சித்து	-10.946
▁புதின	-10.9461
▁சரிசெய்ய	-10.9465
▁உருக்க	-10.9465
▁அய்யா	-10.9467
▁இருந்ததாகவும்	-10.9468
▁பிரிவினர்	-10.9471
▁புகாரை	-10.9473
▁வேலைத்திட்டம்	-10.9481
▁பதிலளித்தார்	-10.9481
▁சாதாரணமாக	-10.9483
ஜன்	-10.9484
ஸ்ஸ	-10.9485
வையாக	-10.9489
▁மலேசியா	-10.9489
▁கணித	-10.9492
▁15-	-10.9495
▁நிறுவனத்துக்கு	-10.9501
▁வேல்	-10.9502
▁சீரியலில	-10.9505
▁வீதியில்	-10.9509
▁எதிர்வினை	-10.9512
▁கமல	-10.9513
நகர	-10.9516
▁வேகப்பந்துவீச்ச	-10.9518
▁ஏழரை	-10.9518
▁லாட்டரி	-10.9518
▁பின்தங்கிய	-10.9518
▁காரணங்களுக்காக	-10.9519
▁தமிழ்நாட்டுக்கு	-10.9521
ஸ்டாலின	-10.9521
ப்பட்டவர்	-10.9522
▁மெசேஜ்	-10.9532
▁சேவையில்	-10.9534
▁கிரகங்கள்	-10.9535
▁அதிகாரியாக	-10.9535
▁இன்ன	-10.9537
▁திருச்சியில்	-10.9538
▁பல்கலைக்கழகங்கள	-10.9539
▁செய்கிற	-10.9539
▁அதிருப்தியை	-10.954
ப்படுவார்	-10.9541
▁அனல்	-10.9544
▁சோரன்	-10.9544
▁கூறு	-10.9546
▁கலைஞர	-10.9547
வெல்	-10.9548
▁திரண்டு	-10.9548
▁ஒருவன்	-10.9559
▁வழிபட்டு	-10.9559
ia	-10.9564
▁அபே	-10.9564
▁நிகழ்த்த	-10.9566
▁காப்பீட்டு	-10.9567
▁பலவீன	-10.9572
59	-10.9572
▁வழியே	-10.9574
▁போலீஸாருக்கு	-10.9574
▁படுத்து	-10.9576
▁56	-10.9576
▁சாரா	-10.9577
▁தனிமைப்படுத்த	-10.9577
▁போலீசாருக்கு	-10.9578
▁ஒப்பந்தத்தை	-10.9581
▁2017-	-10.9586
▁பொறுப்பேற்று	-10.9591
▁தனித்தனி	-10.9594
தொடர	-10.9597
▁பிறந்து	-10.9599
▁அனுப்பும்	-10.9599
▁அவற்ற	-10.9603
▁பூஜையும்	-10.9604
பாண்டியன்	-10.9604
▁கண்டெடுக்க	-10.9605
வீர	-10.9608
▁தியாக	-10.9609
▁கல்வித்	-10.9609
▁தக	-10.961
முடியாது	-10.9611
▁சம்பவத்திற்கு	-10.9614
▁இக்கோவிலில்	-10.9614
▁மனுத்தாக்கல்	-10.9614
▁அடுக்குமாடி	-10.9614
▁ரவுடி	-10.9614
▁நயினார்	-10.9614
▁பின்னடைவு	-10.9614
▁ராணிப்பேட்டை	-10.9614
▁வில்லியம்	-10.9614
▁திலக	-10.9615
▁குற்றவியல்	-10.9615
▁கவிழ்ந்த	-10.9615
▁இருசக்கர	-10.9616
▁வாடி	-10.9616
▁மக்களுக்கான	-10.9617
ிறீர்கள்	-10.9618
▁தண்ணீர	-10.9618
▁வருமாறு	-10.9618
▁லண்டனில்	-10.9619
▁செல்வராஜ்	-10.9621
▁தொடர்கிறது	-10.9621
▁2007	-10.9621
▁நிதியத்தின்	-10.9625
▁ரஷ்யாவை	-10.9627
▁பொடி	-10.9627
▁அவர்களே	-10.963
காட்ட	-10.9632
▁நாளே	-10.9633
பெர்	-10.9634
▁உட்கார்ந்து	-10.9636
▁பதவிகள்	-10.9636
▁சேகரித்து	-10.9638
▁கல்லறை	-10.964
▁அதிர்ச்சியில்	-10.9647
▁திணைக்களத்தின	-10.9652
▁முகவர்	-10.9652
▁மாநிலங்கள	-10.9653
▁வன்முறையில்	-10.9654
▁ஐந்தாம	-10.9656
▁வழங்குகிறது	-10.9663
▁கொடுப்பனவு	-10.9664
▁பைக்கில	-10.9666
▁பேரரச	-10.9667
▁கோவில	-10.967
▁நிறத்தில்	-10.967
▁மனிதர்கள	-10.9671
▁கோவிந்த	-10.9676
▁பதற்றத்தை	-10.9677
▁முதலை	-10.968
▁வெளியீட்டு	-10.9681
ers	-10.9686
▁ஆராய்ந்து	-10.9686
மத்திய	-10.9687
▁சிந்த	-10.9687
▁ஒளிபரப்ப	-10.9689
▁எமக்கு	-10.9689
di	-10.969
▁குஜராத்த	-10.9692
▁நீங்கி	-10.9696
▁நபருக்கு	-10.9697
▁இறப்ப	-10.9699
▁பறித்து	-10.9699
38	-10.9699
▁Co	-10.97
▁ஐஸ்	-10.9702
க்குழுவினர்	-10.9702
▁ஒருவராக	-10.9702
▁குன்ற	-10.9706
ge	-10.9706
▁தோன்றும்	-10.9707
▁ஆளுநராக	-10.9708
▁நெறிமுறை	-10.971
▁இப்படியான	-10.971
▁பழி	-10.9711
▁தரிசிக்க	-10.9711
▁லிமிடெட்	-10.9711
▁ஶ்ரீ	-10.9711
▁தீண்டாமை	-10.9711
▁தாழ்வு	-10.9711
▁பல்லக்கில்	-10.9711
▁ஆப்பிள்	-10.9712
▁உடன்பாடு	-10.9712
▁இவருடைய	-10.9713
▁நிலவரம்	-10.9713
▁99	-10.9713
▁நிலைநிறுத்த	-10.9714
▁உறுதிமொழி	-10.9716
▁ஹோட்டலில்	-10.9717
▁தொகுதிகளுக்கு	-10.9719
▁9:00	-10.9719
ச்சேரி	-10.972
um	-10.972
▁உதவியை	-10.9721
na	-10.9722
▁காட்சிப்படுத்த	-10.9723
▁எடுக்கப்பட்டது	-10.9723
▁அந்தவகையில்	-10.9723
வற்ற	-10.9724
▁மற	-10.9724
▁அமர்த்த	-10.9725
▁சராசரியாக	-10.9725
▁பாதுகாத்து	-10.9727
▁குரலை	-10.9728
ாட்டம்	-10.9729
▁தேன்	-10.973
▁தண்ட	-10.973
▁கட்டமைப்ப	-10.973
▁இடமாற்றம்	-10.9731
▁செப்	-10.9731
▁பிரபாகரன்	-10.9732
▁மாவட்டங்களிலும்	-10.9732
த்திற்குச்	-10.9733
▁திரவ	-10.9733
▁சந்தித்தது	-10.9735
▁கூறியுள்ள	-10.9737
▁வகுப்ப	-10.9745
▁உரிமம்	-10.9746
▁5,000	-10.9747
▁தூண்டி	-10.9747
▁விவாதத்தை	-10.9747
லோன்	-10.9748
▁நெருக்கடியில்	-10.9749
▁எல்லோர	-10.9749
▁எட்டாம	-10.975
▁தெரிஞ்ச	-10.9753
▁ஈரான	-10.9758
▁பிரம்மாண்ட	-10.976
▁பாரி	-10.9766
▁Re	-10.9769
▁சுற்றுலாத்துறை	-10.9769
▁முதலீட்டாளர்கள்	-10.9769
▁குவிக்கப்பட்ட	-10.977
▁லக்ன	-10.9771
▁கட்டமைப்பை	-10.9774
▁மார்க்க	-10.9776
▁வரவேற்ப	-10.9778
▁1.5	-10.9779
▁சுப்பிரமணியன்	-10.978
▁நீடித்து	-10.9781
▁உயர்த்தப்பட்ட	-10.9783
▁பார்வையிட	-10.9783
▁தொடர்பாகவும்	-10.9785
▁சிரிக்க	-10.9785
லைன்	-10.9786
▁இத	-10.9788
கிரா	-10.9789
▁வடம்	-10.9791
▁திருத்தேர	-10.9795
▁மனைவிக்கு	-10.9795
▁இப்பகுதி	-10.9797
68	-10.9802
ne	-10.9805
▁அழிந்து	-10.9807
▁அநுர	-10.9809
▁அறிஞர்	-10.9809
▁தன்னம்பிக்கை	-10.9809
▁பரப்புரை	-10.9809
▁போக்சோ	-10.9809
▁திடீரென்று	-10.9809
▁ராபர்ட்	-10.9809
▁சோஷியல்	-10.9809
▁திருக்கோவிலூர்	-10.9809
▁செம்ப	-10.981
▁மாறுபட்ட	-10.981
கட	-10.981
▁ஒழுங்குபடுத்த	-10.981
தெரிவிக்கின்றார்	-10.981
▁நிலைநாட்ட	-10.981
▁யாராலும்	-10.9811
புல்	-10.9811
▁பிரதீப்	-10.9811
▁நக	-10.9817
▁2025	-10.9817
▁உடைக்க	-10.9818
▁அவரைத்	-10.9819
▁வாழ்நாள்	-10.982
▁அமைச்சகத்தின்	-10.9821
▁ஒப்பிட	-10.9822
▁சிறுவனின்	-10.9825
அதுமட்டுமல்லாமல்	-10.9825
ிந்திய	-10.9826
▁சமரச	-10.9827
▁ஹர்ஷ	-10.9828
▁பெருகி	-10.9829
▁புள்ளிகள்	-10.983
▁சமூகவலைதளங்களில	-10.9831
விற்கும்	-10.9833
▁நேர்காணல்	-10.9834
▁கமல்ஹாசன்	-10.9835
▁யாழ்ப்பாண	-10.9836
▁விதிக்கப்பட்டது	-10.9838
▁வேலு	-10.984
▁வராமல்	-10.9844
-20	-10.9845
▁இருக்கையில்	-10.9851
▁பழமை	-10.9851
▁பெருந்	-10.9853
▁re	-10.9854
ருந்த	-10.9856
▁விநாயக	-10.9857
▁ஆர்வம	-10.9857
▁தெரிவிக்கவில்லை	-10.9859
▁சாதியினர	-10.9861
▁நிகழ்ச்சியும்	-10.9864
▁ஈர்க்க	-10.9864
▁நீர்நிலை	-10.9865
மாலை	-10.9865
பணி	-10.9866
▁சென்னையின்	-10.9867
▁பதிவுசெய்த	-10.9871
▁அட்டாக்	-10.9871
▁பதக்கம்	-10.9873
▁அப்பாவு	-10.9874
▁முதல்வரும்	-10.9875
com	-10.9878
▁ரஷ்யாவில்	-10.9879
▁அவசிய	-10.9885
▁செய்தாலும்	-10.9887
ட்டே	-10.9887
▁ஒத்து	-10.9888
▁நோயாளிகள்	-10.9889
▁செய்யாத	-10.989
▁பிரதேசத்தின்	-10.989
▁கொள்ளாமல்	-10.989
▁விளையாட்ட	-10.9891
ப்போகிற	-10.9895
▁புகாரளித்த	-10.9896
டித்த	-10.9896
▁குரல	-10.9898
▁கோப்பையில்	-10.9905
▁கட்டடம்	-10.9907
▁சவாலான	-10.9908
▁நலனுக்காக	-10.9908
▁இச்சம்பவ	-10.9908
▁ஜூனியர்	-10.9908
▁பெருமளவில	-10.9908
▁புனே	-10.9908
▁அரியலூர்	-10.9908
▁சூர்யகுமார்	-10.9908
▁பாஸ்போர்ட்	-10.9908
▁இயல்பாக	-10.9909
▁ஜோசப்	-10.9909
▁கிரீன்	-10.991
▁முன்னரே	-10.9911
▁வெளியூர்	-10.9911
▁உடைந்து	-10.9911
▁வேண்டுமென்றே	-10.9912
ப்பகுதியில்	-10.9914
▁2003	-10.9917
▁உங்களிடம்	-10.9922
ly	-10.9924
▁வியப்ப	-10.9925
▁ஹெட்	-10.9926
▁சித்தர்	-10.9927
▁புத்தகங்கள்	-10.9927
▁பரிவார	-10.9927
▁பொருந்தும்	-10.9929
▁ஸ்ரீராம	-10.9932
▁நிலவியது	-10.9933
▁கோவிலின்	-10.9934
▁67	-10.9935
ee	-10.9935
▁தீர்ப்பில்	-10.9936
▁தலைப்பு	-10.9936
▁திருமஞ்சனம்	-10.9937
▁அங்கீகார	-10.9937
▁பெற்றனர்	-10.9937
▁ஆண்டை	-10.9938
▁விபத்த	-10.9939
▁உலகெங்க	-10.9941
வர்களுக்கும்	-10.9943
▁பீதி	-10.9948
▁மருந்த	-10.9952
▁பொருட்	-10.9955
▁கட்டுப்பாடுகளை	-10.9957
ோன்	-10.9958
▁தீய	-10.9961
▁கோடியாக	-10.9963
▁இந்தியர்கள	-10.9965
னால	-10.9967
வல்லி	-10.9967
▁பொருத்தமான	-10.9968
▁பொறுமை	-10.9968
▁குளிக்க	-10.9968
▁ஆளுங்கட்சி	-10.9969
▁தொடரை	-10.9969
▁தீர்மானித்த	-10.9971
▁மைதானத்த	-10.9971
▁அதிகரித்துள்ள	-10.9977
▁வந்ததால்	-10.9977
▁தேர்ந்தெடுத்த	-10.9977
▁குட்	-10.9978
▁மாட்டி	-10.998
▁பணிபுரிந்த	-10.9981
▁திருவிழாவை	-10.9981
▁உண்மையாக	-10.9983
▁தடுப்ப	-10.9983
▁கருத்துக்கள்	-10.9988
▁நடந்ததாக	-10.9996
▁பழனிசாமியை	-10.9997
▁ஆட்சிக்	-10.9998
த்தொகை	-11.0003
▁பயணிகளை	-11.0004
▁பெயர்களை	-11.0005
▁சிறைச்சாலை	-11.0008
▁ஞாபக	-11.0008
▁வைத்திலிங்கம்	-11.0008
▁தனுசு	-11.0008
▁உத்தியோகபூர்வ	-11.0008
▁சீருடை	-11.0008
▁வளர்	-11.0009
▁வன்னியர்	-11.0009
▁ரம்யா	-11.001
▁மேலிடம்	-11.001
▁நடுநிலை	-11.001
▁பிளவு	-11.001
பாபு	-11.0011
▁பதுங்கி	-11.0012
▁இப்போதே	-11.0014
▁விட்டால்	-11.0014
▁ரியல்	-11.0015
▁துல்லியமாக	-11.0015
ோரை	-11.0018
ிட்டு	-11.0018
▁துர்கா	-11.0019
▁செலுத்தினார்	-11.0019
▁முதலீடுகளை	-11.0019
▁திருவிழாவின்	-11.0021
கெ	-11.0021
▁அபிஷேக்	-11.0021
▁நல்லிணக்க	-11.0021
▁வழக்கறிஞர்கள்	-11.0021
ாமை	-11.0022
▁யோ	-11.0027
▁முதன்முதல	-11.0029
▁கவனத்தில்	-11.003
▁தகவலும்	-11.0031
▁ஆலோசனைகளை	-11.0031
▁இல்லையே	-11.0033
▁ஆரம்பம்	-11.0033
▁தெரிவித்துள்ளன	-11.0033
▁அடிப்படையாகக்	-11.0036
▁பிரச்னையாக	-11.0037
சான்	-11.0037
▁காரணிகள	-11.0038
▁வைரலாக	-11.004
▁நீடிக்கும்	-11.0042
99	-11.0043
▁கோபத்தில்	-11.0046
▁தரமான	-11.0048
சிஸ்	-11.0049
▁முயன்றனர்	-11.005
▁டாலர்கள்	-11.0051
▁ஆதரவுடன்	-11.0052
ட்டார்	-11.0055
▁செல்வாக்கை	-11.0056
42	-11.0056
▁ஆண	-11.0058
▁உணவில்	-11.0063
▁பந்தய	-11.0064
▁தரப்பும்	-11.0065
ராணி	-11.0067
▁கண்கள்	-11.0071
▁வித்யா	-11.0073
▁உடல்நலம்	-11.0077
▁கடத்தப்பட்ட	-11.0078
▁பக்தர்	-11.008
ரேட்	-11.0085
▁ஈடுபட்டிருந்த	-11.0088
▁நெருங்க	-11.0092
▁பேரு	-11.0094
▁வீடுகளுக்கு	-11.0095
▁விரட்ட	-11.01
▁மொழிகளில்	-11.0102
▁படைப்பு	-11.0102
▁வளிமண்டல	-11.0109
▁Tamil	-11.0109
▁ஜெலன்ஸ்கி	-11.0109
▁விருந்தினர்	-11.0109
▁பயிரிட	-11.0109
▁இருபது	-11.011
▁57	-11.011
▁பரப்பி	-11.011
▁தர்மபுரி	-11.011
▁தரப்பிலிருந்து	-11.011
தரன்	-11.0111
▁சேமிக்க	-11.0112
▁துர்	-11.0112
▁பிரசன்ன	-11.0112
ற்காக	-11.0113
▁சரியில்லை	-11.0114
▁ஆணை	-11.0115
▁தொகுத்து	-11.0115
▁வாசனை	-11.0116
ரிங்	-11.0116
▁30-	-11.0118
-2	-11.0121
▁திறமையான	-11.0121
▁வழிகாட்ட	-11.0121
▁வீட்டிலிருந்து	-11.0121
▁பாடிய	-11.0122
ப்பட்டுள்ளனர்	-11.0123
ரண்	-11.0124
▁அதிகரிப்ப	-11.0128
▁மணிகண்டன்	-11.0133
▁உஷா	-11.0135
▁வரிசையாக	-11.0138
▁மீனம்	-11.0139
▁விமானப்	-11.014
▁மொழியை	-11.0141
▁கொடூரமான	-11.0141
▁சபாநாயகர	-11.0142
▁பரிசோதனைக்காக	-11.0144
நகரில்	-11.0145
▁சுற்றுச்சூழல	-11.0145
த்தின்போது	-11.0146
▁போலியான	-11.0146
யுடனும்	-11.0147
▁செலவ	-11.015
▁ஆங்கிலத்தில்	-11.0151
▁இருக்கக்கூடிய	-11.0155
காண	-11.0155
▁க்ர	-11.0157
▁நெரிசல்	-11.0157
▁அபார	-11.016
▁நாயகி	-11.0161
▁காப்பாற்றி	-11.0162
58	-11.0163
▁போட்டியாளர்கள	-11.0163
ak	-11.0167
ங்கிய	-11.0168
▁புத்தகத்தை	-11.0171
▁அறிவித்திருந்த	-11.0172
▁9-	-11.0175
டிஸ்	-11.0175
▁பிரிவ	-11.0175
▁பாடல்களை	-11.0176
▁கோயில	-11.0178
பாடி	-11.0179
▁அஞ்சு	-11.0181
▁தேர்வுக்கு	-11.0181
▁தாஸ்	-11.0183
பூர	-11.0185
▁தொழில	-11.0188
▁எடுக்கப்பட	-11.019
▁திட்டங்களுக்கு	-11.0191
▁மண்டலத்தில்	-11.0193
▁முயற்சியை	-11.0194
க்கொண்டிருக்கும்	-11.0196
தனால்	-11.0197
செய்	-11.0199
▁வியாபார	-11.0199
▁இயக்குநராக	-11.0204
▁பேட்ஸ்மேன்	-11.0205
-19	-11.0206
▁சாதனங்கள	-11.0208
▁முளைப்பாரி	-11.0211
▁விண்கலம்	-11.0211
▁அமீர்	-11.0211
ப்பேட்டை	-11.0211
▁கேன்	-11.0211
▁ரோகித்	-11.0212
▁ரம்மி	-11.0212
▁பார்வதி	-11.0212
▁ஒளிபரப்பாகி	-11.0212
▁இங்கிருந்து	-11.0214
▁பன்றி	-11.0215
▁தானிய	-11.0216
▁சொன்னா	-11.0217
▁கத்தியால்	-11.0217
▁செல்போனில்	-11.0218
▁பெரும்பாலானோர்	-11.0218
▁தொட்டு	-11.0219
▁பாண்டே	-11.022
▁சும்மா	-11.022
▁மாஸ்கோ	-11.0221
▁சூழ்ந்த	-11.0221
▁விரைவு	-11.0222
▁காணப்படுகின்றது	-11.0226
▁விதிமுறைகளை	-11.0226
▁வியாபாரத்தில்	-11.0226
▁வாரங்களில்	-11.0227
களாகவும்	-11.0228
மாற	-11.0229
▁துணிச்சல	-11.0236
▁தாக்குதல்களை	-11.0238
ிவிட்டார்	-11.0239
போர்	-11.0241
▁விளங்க	-11.0241
57	-11.0243
▁விஜயம்	-11.0245
▁வாட்	-11.0246
▁அதிமுகவினர்	-11.0246
▁ஏந்திய	-11.0248
▁இதனைக்	-11.0248
▁பூனை	-11.0249
▁தீர்மானங்கள்	-11.0252
▁சொத்துக்கள்	-11.0253
46	-11.0253
▁கட்சிக்குள்	-11.0255
▁அமைக்கப்பட்டது	-11.0257
▁பவுர்ணமி	-11.026
▁துளை	-11.0261
▁மாணவர்களும்	-11.0261
▁ப்ரோ	-11.0261
▁சீரியல	-11.0262
▁வாக்களிப்ப	-11.0265
▁எழுந்தன	-11.0265
▁தொடரப்பட்ட	-11.0266
▁சீராக	-11.0267
▁கள்ளச்சாராயம்	-11.0268
▁விஷயங்கள	-11.027
▁நடமாட	-11.0272
முருகன்	-11.0273
▁காந்திக்கு	-11.0274
▁விஷயம	-11.0275
க்குட்பட்ட	-11.0277
-3	-11.0277
▁முதலீடுகள்	-11.0279
கொள்கிற	-11.0282
▁சேர்த்தது	-11.0283
▁ஊக்குவிக்க	-11.0284
▁உக்ரைனுக்கு	-11.0284
▁உடல்நல	-11.0284
யிட்டு	-11.0284
▁59	-11.0285
எனக்கு	-11.0285
கரி	-11.0287
▁நீதிமன்றத்தை	-11.029
▁எனக்கும்	-11.0292
▁மாற்றிக்	-11.0293
▁கட்டுமானப்	-11.0294
▁சல	-11.0295
2,000	-11.0295
திருத்த	-11.0296
மாட்டேன்	-11.0297
பாலி	-11.0298
▁சம்பா	-11.0301
சபை	-11.0307
▁ஸ்ட்ர	-11.0309
▁வாங்குவது	-11.0309
▁ஒன்றாகும்	-11.031
▁நோய	-11.0312
▁காபி	-11.0312
▁நடவடிக்கைக்கு	-11.0312
▁பெருந்தோட்ட	-11.0314
▁பொறுப்பேற்க	-11.0314
▁ஒவ்வொன்ற	-11.0314
▁சற்றே	-11.0314
▁விநாடி	-11.0314
▁கருவறை	-11.0314
▁தீர்த்தவாரி	-11.0315
▁ஒதுங்கி	-11.0315
▁மேற்கொண்டுள்ள	-11.0316
.......	-11.0317
▁தகுந்த	-11.0318
▁மீடியாவில்	-11.0319
▁கல்லூரிகள்	-11.0319
▁தலைப்பில்	-11.0319
▁வரையான	-11.032
▁தருணத்தில்	-11.0321
▁சஞ்ச	-11.0322
▁வயதுடைய	-11.0324
▁வளம்	-11.0324
▁10,000	-11.0324
▁இதையொட்டி	-11.0324
▁இப்ராஹிம்	-11.0325
▁விரட்டி	-11.0325
▁காரணங்களை	-11.0326
▁தொகுதிகளிலும்	-11.0327
▁நெருக்கடிக்கு	-11.0327
▁ஏமாற்றம்	-11.0328
▁குறைப்பு	-11.0328
▁அழித்த	-11.0328
▁கற்பிக்க	-11.0329
▁ஹெச்	-11.033
▁தடையை	-11.033
▁பிடிபட்ட	-11.0331
▁மோதலில்	-11.0331
திமுக	-11.0332
▁பால்குடம்	-11.0334
க்கிட்டு	-11.0336
▁வழிபாட்டு	-11.0338
▁தாண்ட	-11.0338
சிறு	-11.034
களின்படி	-11.0342
▁அடங்க	-11.0342
▁உள்ளிட்டோர	-11.0345
▁சேகரிப்ப	-11.0345
▁அடையாளமாக	-11.0346
▁இலக்குகளை	-11.035
▁கருத்துக்கு	-11.0353
▁குக்கி	-11.0353
▁கொள்கிறார்கள்	-11.0353
▁அச்சத்தை	-11.0357
▁இந்துத்துவ	-11.0359
▁நெதர்லாந்து	-11.036
ிலே	-11.0361
▁பாசன	-11.0362
▁இல்லாம	-11.0363
▁அனுப்பினார்	-11.0363
▁அணிவித்து	-11.0366
▁சித்தார்த்	-11.0368
▁வங்கத்தில்	-11.0371
▁தவிர்த்த	-11.0373
கிற	-11.0373
▁நீட்டி	-11.0374
▁எழுத்த	-11.0377
▁அழுத்தத்தை	-11.038
▁ராணுவத்தை	-11.0381
▁கிரகணம்	-11.0384
▁பொதுக்கூட்டத்த	-11.0384
▁பறவைகள்	-11.0385
▁திரட்டி	-11.0385
▁பிடித்தது	-11.0387
▁கேட்டுள்ளார்	-11.0389
▁கொத்த	-11.039
▁18-	-11.0397
▁ஞாயிறு	-11.0398
ந்தை	-11.0404
▁நிமிடம்	-11.0406
▁கொள்கிறார்	-11.0408
▁உயர்வை	-11.041
வயது	-11.0411
▁ஓபிஎஸ்ஸ	-11.0413
▁ஒன்றையும்	-11.0413
▁04	-11.0413
▁உள்கட்டமைப்பு	-11.0418
▁காளஹஸ்தி	-11.0418
▁விபரீத	-11.0418
▁விருந்தினராக	-11.0418
▁சிவகாசி	-11.0418
▁மாம்பழ	-11.0418
▁ஸ்ரீரங்கம்	-11.0418
▁கௌ	-11.0418
▁ஈடுபட்டதாக	-11.0419
54	-11.0419
▁புன்னகை	-11.0419
▁திட்டவட்டமாக	-11.042
▁தொழிலாளர்களை	-11.042
▁யாருடைய	-11.0421
▁பிள்ளையார்	-11.0421
▁ஒத்துழைப்பை	-11.0423
▁வாந்தி	-11.0424
▁உயர்தர	-11.0427
யார	-11.0427
▁இவற்ற	-11.0429
▁தோற்கடித்த	-11.0429
▁பாதுகாப்புத்	-11.043
▁வழிகளில்	-11.043
▁நடுவர்	-11.0431
▁ஏலத்தில்	-11.0434
ள்ளது	-11.0435
ிருக்காது	-11.0436
▁லட்சிய	-11.0436
நீர	-11.0437
ேற்ற	-11.0438
▁முன்னேற்றக்	-11.0439
▁விவாதங்கள்	-11.0439
சனை	-11.044
▁கொள	-11.0441
காளியம்மன்	-11.0441
44	-11.0441
98	-11.0444
▁பதின	-11.0445
▁ஜோதிட	-11.0445
▁சோகத்தை	-11.0445
▁கொடுக்கப்பட்டது	-11.0446
வானி	-11.0447
▁பயணத்தின்	-11.045
▁2006	-11.0453
▁வார்டுகளில்	-11.0453
ிருக்கின்ற	-11.0456
▁எடுப்பது	-11.0458
பன்னீர்செல்வத்த	-11.0458
▁மேரி	-11.046
▁ஏல	-11.0462
▁700	-11.0464
▁போகலாம்	-11.0464
▁பெறுகிறது	-11.0465
▁குணமடைந்த	-11.0468
▁நிதிநிலை	-11.0469
▁ஒன்றுதான்	-11.047
ரெட்	-11.0471
▁தொகையில்	-11.0472
▁நோக்கத்தில்	-11.0478
▁காய்கறிகள்	-11.048
▁பதவிகளை	-11.048
▁நடப்ப	-11.0482
▁அலங்கரிக்க	-11.0489
கொடுக்க	-11.049
▁ஆங்கிலேயர்	-11.0491
em	-11.0494
▁என்னுடன்	-11.0494
▁கணக்கை	-11.0495
▁பூஜையில்	-11.0496
▁அரசியல்வாதிகள்	-11.0496
▁மெக்	-11.0498
▁உற்சாகமாக	-11.0499
▁தரப்ப	-11.0501
▁பயோ	-11.0501
▁வழங்கப்பட்டன	-11.0502
▁அவரவர்	-11.0502
ீஸ்வர	-11.0505
ப்பதில்	-11.0506
ாதிபதி	-11.0509
காங்கிரஸ்	-11.051
▁கொடிய	-11.0513
▁வேலைத்திட்ட	-11.0515
▁என்னவாக	-11.0517
▁மத்தியிலும்	-11.0518
▁செலவுகளை	-11.0519
▁கருத்துத்	-11.052
▁திரையுலக	-11.0523
▁கும்பகோணம்	-11.0523
▁கோத்தபய	-11.0523
▁கோத்தபாய	-11.0523
▁மாரடைப்பு	-11.0523
▁விளாடிமிர்	-11.0523
▁தருணம்	-11.0523
▁பருப்பு	-11.0523
▁ஒப்பிடுகையில்	-11.0524
▁நிலத்தடி	-11.0524
▁மன்மோகன்	-11.0524
▁மெட்ரிக்	-11.0524
க்கட்சி	-11.0524
▁அடிப்படையிலான	-11.0524
சூர்	-11.0525
▁சமஸ்கிருத	-11.0526
▁சகோதர	-11.0526
▁விரைய	-11.0526
▁குற்றால	-11.0527
▁இருந்தபோதிலும்	-11.0527
▁கசிந்த	-11.053
▁சாவடி	-11.0531
தாகச்	-11.0532
▁மேடம்	-11.0533
▁எதிராகப்	-11.0536
▁துக்க	-11.0537
▁பறித்த	-11.0537
▁உமா	-11.0538
மொன்றை	-11.0541
ut	-11.0542
▁மீதி	-11.0543
▁இதயம்	-11.0543
▁நாங்களும்	-11.0545
▁நாகரிக	-11.0548
▁நீட்டிக்க	-11.0549
▁எழுப்பியுள்ளார்	-11.055
▁ஆற்றிய	-11.0557
▁மகன்கள்	-11.0558
▁இருக்கா	-11.0559
▁தற்கொலைக்கு	-11.0559
▁தீட்ட	-11.056
▁பாபர்	-11.0561
▁அச்சுறுத்த	-11.0564
▁நேரமும்	-11.0568
▁கார்கள்	-11.0569
▁அழுது	-11.057
3%	-11.0571
▁மக்களவையில்	-11.0573
63	-11.0575
▁விடுத்துள்ளது	-11.0577
▁அளிக்கப்படும்	-11.0577
▁ஆக்கிரமிப்ப	-11.0581
▁காங்கிரஸுக்கு	-11.0582
▁கண்களை	-11.0583
▁நாள்களாக	-11.0584
கிருஷ்ண	-11.0587
▁கவசம்	-11.0592
ில்லாமல்	-11.0594
ப்பட்டாலும்	-11.0597
▁மாணவிகளுக்கு	-11.0598
ங்குடி	-11.0602
தாரி	-11.0602
▁பூமிக்கு	-11.0602
அதிமுக	-11.0606
▁தலைவர்களுக்கு	-11.0614
▁வருங்கால	-11.0615
▁தடம்	-11.0615
▁ஆரம்பமாக	-11.0617
▁பங்கேற்றார்	-11.0618
▁ஊடகப்	-11.062
▁கண்காணிப்ப	-11.0622
▁பானு	-11.0622
▁தவறிய	-11.0625
களுமே	-11.0626
மால்	-11.0628
▁சுதந்திரமாக	-11.0628
▁தொடர்பில	-11.0629
▁தைப்பூச	-11.063
▁பேட்டியளித்த	-11.063
▁கிளிநொச்சி	-11.063
▁மூதாட்டி	-11.063
▁கிணறு	-11.063
▁குற்றப்பத்திரிக	-11.063
▁கரையோர	-11.063
▁தெய்வானை	-11.063
▁முன்மொழிவு	-11.0631
▁சின்ஹா	-11.0631
▁ஒப்பிடும்போது	-11.0631
▁நள்ளிரவில்	-11.0632
நிதி	-11.0638
▁வெற்றிகரமான	-11.0639
▁தழுவிய	-11.064
▁மகத்தான	-11.0641
▁இசையமைப்பாளர்	-11.0644
▁கொள்ளவும்	-11.0644
▁ஐயப்பன்	-11.0645
▁பெருநகர	-11.0646
ப்போய்	-11.0646
▁கணக்கிட	-11.0646
▁விசாரித்தபோது	-11.0647
▁அளித்தது	-11.0647
▁துணைவேந்தர்	-11.0648
▁எனக்கூறி	-11.065
▁நிமிடத்தில்	-11.065
▁ஆதரவ	-11.0653
▁ஆளான	-11.0656
▁ஆப்கானிஸ்தான	-11.0657
லாவ	-11.066
▁மனுக்கள்	-11.0661
▁தொடர்பிலும்	-11.0662
▁தொற்றுநோய்	-11.0662
▁தேரோட்ட	-11.0666
▁பதவியிலிருந்து	-11.0666
▁வைபவ	-11.0666
▁மாலிக்	-11.0667
▁குண்டுகள்	-11.0668
▁மனிதர்களை	-11.0669
▁சோழர்	-11.067
▁இந்நிகழ்ச்சி	-11.0671
நாயகி	-11.0671
▁தோன்றியது	-11.0671
▁நற்	-11.0673
▁பங்குகள்	-11.0673
தாய்	-11.0673
▁என்பவருக்கு	-11.0674
▁இஸ்ரேலை	-11.0676
ரிஸ்	-11.0676
▁ஆதரவாளர்கள	-11.0677
▁ஆட்கள்	-11.068
▁14-	-11.068
▁ஜமா	-11.0683
▁என்பதைத்	-11.0683
▁அனுபவித்த	-11.0684
▁பூமியின்	-11.0685
▁நகர்ந்து	-11.0686
தேச	-11.0689
▁இஸ்ரேலில்	-11.069
▁உறுப்பினருமா	-11.069
▁குக்	-11.0692
▁தேவைகளை	-11.0692
▁குடிப்ப	-11.0693
▁ஆகவும்	-11.0693
▁ஆற	-11.0695
▁நிலையிலும்	-11.0698
▁வரவேற்ற	-11.0699
▁சட்டப்பேரவைத்	-11.07
படியாக	-11.0702
▁சிறி	-11.0702
▁மலையில்	-11.0703
▁முன்வர	-11.0705
ணும்னு	-11.0705
▁சந்திரன	-11.0708
▁பேச்சுக்கு	-11.0709
▁அதிமுகவுக்கு	-11.0711
▁கணக்குகள்	-11.0711
▁கிரகண	-11.0713
ுபவர்களுக்கு	-11.0715
▁பற்ற	-11.0718
▁நாற்காலி	-11.0718
41	-11.0718
வரே	-11.0718
▁வாசித்த	-11.0719
▁நிறுவனங்களும்	-11.0721
▁தூக்கம்	-11.0722
க்கென	-11.0723
▁நட்டா	-11.0725
▁சத்து	-11.0732
▁பேனர்	-11.0733
▁திதி	-11.0735
▁கைப்பற்றியது	-11.0736
▁மரணத்திற்கு	-11.0737
▁சித்தராமையா	-11.0737
▁பரிசோதித்த	-11.0737
▁அதிகப்படியான	-11.0737
▁ஐஏஎஸ்	-11.0737
▁மேட்டூர்	-11.0737
▁வாபஸ்	-11.0737
▁மாத்திரம்	-11.0737
▁இணங்க	-11.0737
▁குல்தீப்	-11.0738
▁உறங்க	-11.0738
▁வடிவமைத்த	-11.0738
▁அமலுக்கு	-11.0738
▁தொடர்ச்சி	-11.0739
▁வாட்ஸ்அப்	-11.0739
▁பூசாரி	-11.074
ஸ்கி	-11.074
▁சாப்பாடு	-11.074
▁ஆரம்பிச்ச	-11.074
▁இன்னிங்ஸில்	-11.0741
▁ஹிந்தி	-11.0741
▁எழுகிறது	-11.0741
▁முகேஷ்	-11.0742
த்தனம்	-11.0742
▁நடக்கின்றன	-11.0743
▁எழுந்தருளினார்	-11.0744
▁ஃபண்ட்	-11.0745
▁விஜே	-11.0746
வனுக்கு	-11.0746
▁2001	-11.0748
ீஷ்	-11.0749
▁குவைத்	-11.0751
▁ரொக்க	-11.0751
▁பற்கள	-11.0753
ப்பட்டதால்	-11.0753
▁மேம்படுத்தும்	-11.0754
▁ஜெய்ஸ்வால்	-11.0756
▁53	-11.0756
▁போலீஸில	-11.0756
▁பேச்சாளர்	-11.0756
▁இயல்பான	-11.0758
▁மக்களால	-11.0762
▁நுகர்வோர்	-11.0763
இரு	-11.0765
▁சகோதரர்கள்	-11.0765
▁தீட்சிதர்கள்	-11.0766
▁விவாதித்த	-11.0768
▁தப்பிச்	-11.0768
▁வரப்பட்டது	-11.0773
▁அழகாக	-11.0774
புரா	-11.0775
▁மொஹ	-11.0775
▁போட்டிகளை	-11.0776
▁பரிகார	-11.0776
த்தனமாக	-11.0777
▁காவல்துறைக்கு	-11.0777
▁ஊழியர	-11.0779
▁கற	-11.078
▁பஞ்சாப	-11.078
பகுதி	-11.0781
கண்ண	-11.0785
▁என்றாலே	-11.0786
▁திட்டி	-11.0787
▁சுற்றில்	-11.0787
முதல்	-11.0793
▁உள்ளிட்டவற்றை	-11.0793
லோக	-11.0794
▁கலாசாரம்	-11.0796
க்குள்ளே	-11.0796
66	-11.0796
▁குடிமக்கள்	-11.08
▁இடம்பெற்றிருந்த	-11.0802
▁காரியம்	-11.0804
▁அடைந்தார்	-11.0805
▁வைக்கப்படும்	-11.0808
▁நிறம்	-11.081
த்தானே	-11.081
▁கட்சியிலிருந்து	-11.0812
▁மீதம	-11.0814
▁தொண்ட	-11.0814
▁சீக்கியர்கள	-11.0817
▁கட்டுப்பாட்டை	-11.082
▁மாநிலமான	-11.0823
▁வசித்த	-11.0824
▁நோட்டு	-11.0824
பேர்	-11.0825
▁தைரியம்	-11.0828
ற்றை	-11.0829
▁தந்திர	-11.0831
▁திரையரங்க	-11.0832
▁l	-11.0832
சூரிய	-11.0834
▁வென்றார்	-11.0835
▁விக்கிரமசிங்க	-11.0838
▁விதிமுறை	-11.0838
▁வசிப்பவர்	-11.0841
▁காணப்படுகின்றன	-11.0843
▁அரைசதம்	-11.0846
▁திருவனந்தபுரம்	-11.0846
▁தென்னரசு	-11.0846
▁மிளகாய்	-11.0846
▁ரத்நாயக்க	-11.0846
▁ஐசிசி	-11.0846
▁பயணிகளுக்கு	-11.0846
▁1996	-11.0848
▁உலோக	-11.0849
▁அரசியலமைப்புச்	-11.0849
குளம்	-11.0849
▁அரசாங்கத்தை	-11.0849
▁1999	-11.0849
▁நம்புகிறோம்	-11.0851
▁பவானி	-11.0851
▁நிமிடங்களுக்கு	-11.0853
▁தமிழுக்கு	-11.0853
▁பலனை	-11.0853
▁அடிக்கும்	-11.0856
▁எஞ்சிய	-11.0857
▁கணேசன்	-11.0857
▁மாதமாக	-11.0858
ருக்க	-11.0859
82	-11.0859
▁பைலட்	-11.086
▁முதற்கட்டமாக	-11.0861
னாள்	-11.0864
▁புத்தி	-11.0866
▁ஓபிஎஸ்ஸுக்கு	-11.0867
▁கழித்த	-11.0868
▁ஏவுகணைகள்	-11.087
▁வெங்காயம்	-11.0873
▁ஃபார்ம	-11.0874
▁ஏப்	-11.0874
▁செர்	-11.0874
▁சன	-11.0876
▁பிரேம்	-11.0879
▁சிராஜ்	-11.0881
▁எட்டிய	-11.0884
▁69	-11.0887
▁எம்பிக்கள்	-11.0888
▁ஆற்றின்	-11.0889
▁சாலையோர	-11.0891
▁கவச	-11.0895
▁ஆர்வமாக	-11.0895
▁உங்களால்	-11.0896
தாகவே	-11.0898
▁வேட	-11.0898
▁போராடும்	-11.09
▁உத்தரவின்	-11.0903
▁வழங்கப்படவில்லை	-11.0905
▁இயக்கத்தை	-11.0911
தங்க	-11.0912
▁பிளாக்	-11.0913
▁கடித	-11.0914
▁பதக்க	-11.0914
▁தேரர்	-11.0915
▁அவளுக்கு	-11.0916
▁மீட்கும்	-11.0919
▁சம்பவங்களை	-11.092
▁வெப்	-11.0921
▁அதனால	-11.0923
கேட்	-11.0924
▁இல	-11.0925
▁சதா	-11.0926
X	-11.0929
▁பலமாக	-11.093
▁66	-11.093
ாலேயே	-11.0933
▁பிரிவினை	-11.0936
▁தருவார்	-11.0936
▁சான்	-11.0937
▁85	-11.094
▁ஏற்பட்டுள்ளதாக	-11.094
▁ஸ்டே	-11.0941
▁போடி	-11.0942
▁நபராக	-11.0945
▁அடித்துக்	-11.0946
▁அரசில்	-11.0946
▁சீசன	-11.0947
மழை	-11.0948
▁செல்வதாக	-11.0949
▁வாழ்வாதார	-11.0949
▁ரெட்	-11.095
▁நுழை	-11.0952
▁சமாதான	-11.0955
பிரதேச	-11.0956
▁உண்ணாவிரத	-11.0956
▁மாநாட்டை	-11.0956
▁ஒத்துழைக்க	-11.0956
▁சட்டமூலம்	-11.0956
▁இப்போதைக்கு	-11.0956
▁காகித	-11.0956
க்கிட	-11.0957
▁விமானத்தை	-11.0958
▁விசுவாச	-11.0958
32	-11.0958
▁ஜாமீனில்	-11.0959
▁பூதேவி	-11.096
ாவிட்டாலும்	-11.096
▁காமராஜர்	-11.0961
▁தொண்டர்	-11.0961
▁அடைத்தனர்	-11.0962
▁கார்த்திகேயன்	-11.0963
▁காலமானார்	-11.0963
பொது	-11.0964
▁சம்ம	-11.0966
▁குவிந்து	-11.0969
▁மாஸ்க்	-11.0971
▁பெற்றால்	-11.0975
▁ஸ்டார்ட்	-11.0978
▁விமர்சகர்கள்	-11.098
▁ஒப்படைக்கப்பட்ட	-11.098
▁2016-	-11.098
மகா	-11.0981
▁எரிச்சல	-11.0985
▁ஜான்சன்	-11.0987
▁வகித்தார்	-11.0988
▁புள்ளிவிவரங்கள	-11.0989
கட்டி	-11.0989
▁ஆதரித்து	-11.099
வுக்குள்	-11.099
▁லக்	-11.1002
ran	-11.1003
▁அறியப்பட்ட	-11.1005
▁சீதா	-11.1005
▁ஒப்பந்தத்தில்	-11.1007
யப்பன்	-11.1011
400	-11.1011
▁ஒன்றின்	-11.1011
னிங்	-11.1012
▁திரும்பினார்	-11.1012
முடியாத	-11.1013
▁ஏவுகணைகளை	-11.1014
▁கட்டுரையில்	-11.1015
▁வைப்பு	-11.1015
சுர	-11.1015
▁நிறைவடைந்த	-11.1016
▁74	-11.1018
கிறோம்	-11.1019
▁வைத்தியர்	-11.1019
▁சேர்ந்தார்	-11.1023
▁புத்தகங்களை	-11.1023
▁அலுவலகத்தை	-11.1023
▁செயலாளரும்	-11.1024
▁68	-11.1025
▁பயணமாக	-11.1026
▁அனுபவித்து	-11.1027
▁அர்ச்சகர்	-11.1028
ஸ்டோ	-11.1033
க்கொடுத்த	-11.1036
▁கண்களில்	-11.1039
▁ஆதரவாளர்களை	-11.1041
▁ஆயிரத்திற்கு	-11.1042
▁விரைந்த	-11.1042
▁பகவானை	-11.1042
▁பதறி	-11.1043
ுமென	-11.1044
ப்பட்டதாகவும்	-11.1048
மென்	-11.1049
அவுட்	-11.105
▁ஆங்கிலம்	-11.1054
▁மிச்ச	-11.1055
▁பழம்	-11.1055
▁கொள்வதாக	-11.1056
▁செயல்படுத்தி	-11.1056
▁ராஜபக்ச	-11.1059
▁நாடகம்	-11.106
▁உடல்கள்	-11.1062
▁வாத	-11.1065
▁ஈடுபடுத்த	-11.1065
▁ஜார்கண்ட்	-11.1067
▁நிலவரப்படி	-11.1067
▁புகழேந்தி	-11.1067
▁செவிலியர்	-11.1067
▁மாண்புமிகு	-11.1067
▁கொலையாளி	-11.1067
▁கோமாளி	-11.1067
▁அப்புறப்படுத்த	-11.1067
▁கழுத்தை	-11.1067
▁காமாட்சி	-11.1068
▁செய்யுமாறு	-11.1068
▁விழாவையொட்டி	-11.1068
▁1991	-11.1069
▁கழிப்பறை	-11.1069
▁சாதிக்க	-11.1069
▁பணிகளுக்கு	-11.107
▁உதவித்தொகை	-11.107
▁பூஸ்டர்	-11.107
▁தூண்	-11.1072
▁டொ	-11.1072
▁கண்டறியப்பட்டது	-11.1073
▁ஆவணப்பட	-11.1074
▁கலந்துகொண்டார்	-11.1076
▁காஸ்	-11.1078
▁பார்வையில்	-11.1078
▁நீங்களும்	-11.1081
▁பிரிவுகளில்	-11.1081
▁அதுக்கு	-11.1082
சாக	-11.1082
▁வைரஸ	-11.1084
▁பங்கை	-11.1085
▁மாவு	-11.1085
▁துளி	-11.1087
▁வாதங்களை	-11.1088
▁தாய்ப்பால்	-11.1089
▁உணவுத்	-11.1089
▁உபகரணங்கள்	-11.1089
▁சுல்தான்	-11.109
▁மீள்	-11.1092
▁நிர்வாணமாக	-11.1094
வாஸ்	-11.1098
▁விளங்கும்	-11.1099
▁துரோகம்	-11.11
▁பங்கேற்கும்	-11.11
▁சொல்லிவிட்டு	-11.1104
▁வெட்டு	-11.1105
64	-11.1106
▁அங்கம்	-11.111
▁எதிர்பார்த்து	-11.1111
▁ஒழுங்க	-11.1114
மட	-11.1115
▁தலையிட்டு	-11.1119
▁அணிக்காக	-11.1119
▁நிரூபித்த	-11.1122
▁தாயை	-11.1124
▁யாரையும	-11.1124
▁அடுக்கு	-11.1129
ud	-11.1131
▁தலைமைக்கு	-11.1133
▁ஒத்த	-11.1134
▁பேராசிரியர	-11.1134
▁விரிவாக்க	-11.1134
▁புரிதல்	-11.1136
றும்	-11.1137
▁மரங்களை	-11.1138
▁புறம்	-11.1138
▁வழிகாட்டி	-11.1139
▁அறிவிக்கப்பட	-11.114
▁வீரர்களும்	-11.1142
▁சடங்கு	-11.1144
சுந்தர	-11.1146
▁தெரிவ	-11.1147
▁அலுவலகத்துக்கு	-11.1148
▁முன்னோடி	-11.1148
▁பணக்கார	-11.115
தொடர்பான	-11.1153
பிள்ளை	-11.1156
▁லோக	-11.1156
▁தியாகி	-11.1163
▁நிக	-11.1164
▁ஈர	-11.1166
▁தாய்லாந்து	-11.1166
tion	-11.1166
▁நிர்மாண	-11.1168
▁கொடு	-11.1168
▁இருந்தவர்கள்	-11.117
ive	-11.1171
▁உயிரிழந்துள்ளனர	-11.1171
வனை	-11.1172
பாரதி	-11.1172
▁குத்த	-11.1174
▁உட்படுத்த	-11.1176
▁மாஜி	-11.1176
▁நிரம்பி	-11.1179
▁அர்ஜென்டினா	-11.1179
▁ஒடிஷா	-11.1179
▁தினத்தன்று	-11.1179
▁தேஜஸ்வி	-11.1179
▁தொலைதூர	-11.1179
▁ஹார்மோன்	-11.1179
▁மசாலா	-11.1179
▁சொர்க்க	-11.1179
▁என்பார்கள்	-11.118
▁ஒழுக்க	-11.118
▁ஓபிசி	-11.118
▁இதைத்தொடர்ந்து	-11.118
▁முற்பட்ட	-11.118
▁வனிதா	-11.118
▁மீடியா	-11.118
▁மகேந்திர	-11.1181
▁மாநிலமாக	-11.1181
▁ஆயிர	-11.1181
▁வாதிட	-11.1181
▁மேம்பட்ட	-11.1182
▁சஷ்டி	-11.1182
குறி	-11.1182
▁வழங்குவதாக	-11.1183
▁உரையாற்றினார்	-11.1183
▁சிவன	-11.1184
▁2026	-11.1184
ச்சென்ற	-11.1184
▁பொருட்டு	-11.1185
▁தோற்று	-11.1186
▁பிரகடன	-11.1187
▁அறிவிப்புகள்	-11.1188
▁நிதியாண்டில்	-11.1188
ளாக	-11.119
▁சிறார்	-11.1192
▁திருச்ச	-11.1193
▁பதிவிட	-11.1196
▁பவ	-11.1196
▁செய்திருக்க	-11.1198
▁சிக்கலை	-11.12
▁யுக்ரேனில்	-11.12
▁இரானின்	-11.1201
▁விலக்கி	-11.1204
▁தரவில்லை	-11.1208
கிராம்	-11.1209
▁பகிரப்பட்டு	-11.1209
▁செய்தவர்	-11.1212
▁நிலங்களை	-11.1214
▁அலுவலர்கள்	-11.1216
ோமா	-11.122
▁இணக்க	-11.1222
▁ஆஸ்	-11.1223
▁தீவிரவாதிகள்	-11.1225
வைக்கப்பட்ட	-11.1227
▁பகிர்ந்துகொண்ட	-11.1227
76	-11.123
▁வெளிநாடுகளுக்கு	-11.123
▁கண்டுபிடிப்ப	-11.1231
▁பெருந்தொற்று	-11.1233
எங்கள்	-11.1234
▁ஆகிவிட்ட	-11.1236
▁73	-11.1237
▁சூழல	-11.124
▁வேலி	-11.1241
▁ஆலயம்	-11.1242
▁போக்கை	-11.1243
விருந்த	-11.1245
▁போராட்டத்தின்	-11.1246
▁மில்லி	-11.1246
ிந்தைய	-11.1248
▁ராசா	-11.1254
▁நினைக்கிற	-11.1254
▁பாக்கிய	-11.1254
▁அமலில	-11.1259
மில்லாமல்	-11.1263
ுவதைப்	-11.1264
▁முறி	-11.1264
பெயர்	-11.1268
▁ஊரை	-11.1269
▁விழாவுக்கு	-11.1269
நோய்	-11.1269
யீ	-11.1271
▁17-	-11.1278
ஃப்ள	-11.1279
▁விமர்சித்தார்	-11.128
▁காரின்	-11.1281
▁பள்ளிகளுக்கு	-11.1281
▁சேதப்படுத்த	-11.1285
▁ட்வீட்ட	-11.1286
▁பூட்டி	-11.1287
ுவதையும்	-11.1287
▁நிறுவப்பட்ட	-11.1289
▁மார்ப	-11.129
புறம	-11.1291
▁தந்தது	-11.1292
▁திஸாநாயக்க	-11.1293
▁பரிசீலிக்க	-11.1293
▁பாரபட்ச	-11.1293
▁முதியோர்	-11.1293
▁ஹிஸ்புல்லா	-11.1293
▁தலையீடு	-11.1293
▁பொதுவெளியில்	-11.1293
▁வடிவேலு	-11.1293
▁பணிப்புரை	-11.1293
▁பிரதமரை	-11.1293
▁அப்பாற்பட்ட	-11.1293
▁புரிந்துணர்வு	-11.1293
▁கொள்ளையடித்த	-11.1293
▁துண்டிக்கப்பட்ட	-11.1293
▁மிருக	-11.1293
▁தாலிபன்	-11.1294
▁உயிரியல்	-11.1294
▁பிரித்த	-11.1294
▁ஐயப்ப	-11.1295
▁குறுக்கே	-11.1296
▁ஒலிக்க	-11.1296
▁காத்திருந்து	-11.1297
▁சொல்கிறேன்	-11.1297
▁தம்	-11.1297
▁பிரகாச	-11.1297
▁செய்கிறோம்	-11.1297
▁தன்னுடன்	-11.1298
▁நந்தினி	-11.1299
▁முதலிடம்	-11.13
▁நிருபர்	-11.1303
▁அறைக்கு	-11.1304
▁சந்தனம்	-11.1306
▁துபாயில	-11.1307
▁பாடகர்	-11.1308
▁காதலை	-11.1309
▁மண்டை	-11.1309
▁மந்திரி	-11.131
▁இடைத்தேர்தல்	-11.131
ார்களா	-11.1311
▁ஆரோக்கியம்	-11.1312
▁வச்ச	-11.1313
▁குடும்பத்துக்கு	-11.1315
▁சுபாஷ்	-11.1316
▁கொண்டேன்	-11.1316
▁சொல்லுங்கள்	-11.1321
ாகிய	-11.1321
▁கூறும்போது	-11.1324
▁ராஜஸ்தான	-11.1325
▁மூவரும்	-11.1327
▁கொள்வதற்காக	-11.1328
▁வழங்கவில்லை	-11.1329
ாயிரம்	-11.1329
▁ஆடைகளை	-11.133
▁செய்பவர்கள்	-11.133
▁மீறல்	-11.133
▁சிலைகளை	-11.1331
▁சிலைக்கு	-11.1332
▁தியேட்டர்	-11.1333
▁ஒப்பிட்டு	-11.1333
▁மாவட்டங்களுக்கு	-11.1333
▁காயங்கள்	-11.1333
▁விடுதலைப்	-11.1336
▁கோபத்தை	-11.1336
▁அதிர்ஷ்ட	-11.1336
▁இடிக்க	-11.1338
வீதி	-11.1342
▁கோடிக்கு	-11.1346
▁முன்னேறிய	-11.1349
க்குள்ளான	-11.135
விலுள்ள	-11.1352
77	-11.1353
▁13-	-11.1355
மாவட்ட	-11.1356
▁உயரத்தில்	-11.1358
▁குடிமக்கள	-11.1361
▁சம்பத்	-11.1364
▁இந்துத்துவா	-11.1364
▁நூற்றாண்ட	-11.1367
▁ஆசியாவ	-11.1368
▁கோபால்	-11.1371
▁சசிகலாவை	-11.1376
▁கலவை	-11.1378
▁கொடுக்கப்படும்	-11.1379
▁ஏரியா	-11.1379
▁பொதுப்	-11.1379
வாடி	-11.1383
▁பெண்ணும்	-11.1386
▁புஷ்பா	-11.1386
ிருந்தோம்	-11.1388
▁வாசல்	-11.1388
▁கேள்விப்பட்ட	-11.1389
▁கண்ணில்	-11.1391
ஸாக	-11.1393
▁அதிகாரபூர்வ	-11.1395
▁மேற்கொண்டது	-11.1398
சண்முகம்	-11.1398
▁சுகாதாரம்	-11.14
▁பிரத்யேக	-11.14
வள்ளி	-11.14
களாலும்	-11.1403
காந்த்	-11.1403
▁விடுபட	-11.1405
▁குடும்பங்கள	-11.1408
▁மானாமதுரை	-11.1408
▁எதிரே	-11.1408
▁மெரினா	-11.1408
▁காலிஸ்தான்	-11.1408
▁கவிதா	-11.1408
▁விகாரை	-11.1408
▁செருப்பு	-11.1408
▁ஆதரிப்ப	-11.1408
▁ஆசிரம	-11.1409
▁போரிஸ்	-11.1409
▁நீச்சல்	-11.141
▁அனுமன்	-11.1411
▁ஆறுமுக	-11.1412
▁இக்கட்ட	-11.1412
▁தோன்றுகிறது	-11.1412
▁தீவிரமடைந்த	-11.1413
▁கார்பன்	-11.1414
▁நாடாளுமன்றம்	-11.1414
▁முரண்	-11.1417
▁பிரிட்டன	-11.1418
▁வெளிவர	-11.1418
▁சம்மன்	-11.1422
▁வீட்டிலும்	-11.1422
nd	-11.1424
▁சேனல	-11.1425
▁ஹூ	-11.1426
▁கொடுத்துள்ளது	-11.1426
▁சோகம்	-11.1427
▁மயில்	-11.1428
▁அழகிரி	-11.1431
▁அனுபவத்தை	-11.1431
▁வணங்கி	-11.1432
தீன்	-11.1432
▁தமிழ்நாட்டிற்கு	-11.1432
▁செல்லப்பட்டு	-11.1433
▁பரிச	-11.1433
அது	-11.1433
▁வர்ண	-11.1435
▁அடிப்படையாக	-11.1435
97	-11.1436
▁சாலையை	-11.1436
▁கோயிலின்	-11.1437
▁சுனக்	-11.1439
▁பகிரங்கமாக	-11.1442
▁இருப்பதற்கு	-11.1445
▁பயின்ற	-11.1446
▁சேர்த்தனர்	-11.1447
▁காக்கும்	-11.1447
▁சன்னதியில்	-11.1449
▁நினைத்தால்	-11.145
▁ஏறிய	-11.1451
▁வழங்குமாறு	-11.1452
▁வித்தியாசமாக	-11.1456
▁எகிப்து	-11.1459
ாபாத்	-11.1461
▁கோர்ட்டில	-11.1462
▁பான்	-11.1462
▁உரம்	-11.1463
▁குளத்தில்	-11.1464
▁ஆட்டத்தின்	-11.1467
▁வளாகம்	-11.1468
▁தேதிக்குள்	-11.1468
க்கலாம்	-11.1469
▁பாகிஸ்தானை	-11.1478
▁முதலிடத்தில	-11.1478
▁கோவில்பட்டி	-11.148
▁பாக்கியம்	-11.1482
▁சேர்க்கும்	-11.1483
▁வருடத்தில்	-11.1484
▁கடைக்கு	-11.1486
▁ஆதரித்த	-11.1488
▁செய்யவேண்டும்	-11.1491
▁நடந்துகொண்ட	-11.1495
▁விளையாட்டுப்	-11.1496
▁62	-11.1497
▁தியான	-11.1499
▁மோதல்கள்	-11.15
▁தொடங்கப்பட்டது	-11.1502
ித்தார்	-11.1503
▁குடை	-11.1504
▁சந்தோஷ்	-11.1504
▁பார்வையிட்ட	-11.1506
▁தாயார	-11.1509
மேலும்	-11.1516
▁நீராடி	-11.1517
▁வளை	-11.1518
ொன்றை	-11.1522
▁அமிர்த	-11.1523
▁நிர்வகிக்க	-11.1524
▁ஆட்டமிழக்க	-11.1524
▁உதாரணம்	-11.1524
▁ராதிகா	-11.1524
▁இதுதவிர	-11.1524
▁பகீர்	-11.1524
▁பறிகொடுத்த	-11.1524
▁காற்றழுத்த	-11.1524
▁மெஸ்ஸி	-11.1524
▁கொள்வனவு	-11.1524
▁பிரமாண	-11.1524
▁சம்பாதித்த	-11.1525
▁அஸ்வினி	-11.1525
▁அதைத்தொடர்ந்து	-11.1525
▁எடுத்துக்கொண்டு	-11.1526
▁பட்நாயக்	-11.1527
▁காரணங்கள	-11.1527
▁கொலைசெய்த	-11.1527
ரச	-11.1528
▁சாதனைகளை	-11.1528
▁நிதிஷ்குமார்	-11.1528
▁கால்வாய்	-11.1528
▁ராணா	-11.1528
▁தொடர்ச்சியான	-11.1529
▁சரிந்து	-11.153
ட்டிங்	-11.1533
க்கண	-11.1534
▁வருந்த	-11.1534
▁மாணவியை	-11.1534
▁திருமணமான	-11.1535
▁குபேர	-11.1536
▁சிறந்தது	-11.1538
▁கண்டுகொள்ள	-11.1538
▁காஞ்சி	-11.1538
▁குளிர்	-11.1538
▁தேர	-11.1539
▁டைம்	-11.1539
▁ராமச்சந்திரன்	-11.1539
▁நடனம்	-11.154
▁பிரிட்டனில்	-11.1541
நல்ல	-11.1542
▁நிதான	-11.1544
▁படகில்	-11.1545
▁பூத	-11.1546
▁வாட்ச்	-11.1547
▁டவுன்	-11.1547
▁செய்வதன்	-11.1547
▁மக்களே	-11.1549
▁நினைக்கிறார்கள்	-11.155
ற்கான	-11.155
ni	-11.155
▁செயற்படுத்த	-11.155
▁பனை	-11.1552
▁வளைய	-11.1554
▁சஜித்	-11.1555
▁கண்டிப்ப	-11.1556
▁தீர்த்தம்	-11.1561
▁பெறுவதற்கான	-11.1564
▁மனைவியும்	-11.1566
▁நெடுஞ்சாலையில்	-11.1566
▁கொண்டிருந்தபோது	-11.1566
சேன	-11.1567
▁மனிதன்	-11.1567
▁சிறுவனை	-11.1571
நல்லூர்	-11.1572
▁அறிவுறுத்தல்	-11.1572
வதில்	-11.1573
▁நார்	-11.1575
▁உரிமையாளர	-11.1576
▁உழவர்	-11.1577
▁வெங்கட்	-11.1578
▁கோட்	-11.158
▁பரிமாற	-11.1581
▁முடிந்ததும்	-11.1581
▁முன்வந்த	-11.1582
▁இடம்பெறும்	-11.1584
▁கபில்	-11.1585
▁விஜயன்	-11.1586
▁வந்தவர்கள்	-11.1588
▁உருவாக்குவது	-11.1589
பட்டியில்	-11.1589
▁சுற்றுலாத்	-11.159
ள்ளாக	-11.159
▁சாப	-11.1592
▁அனில்	-11.1592
▁விரு	-11.1593
வளை	-11.1595
▁இரண்டாக	-11.1595
▁இல்லம்	-11.1598
▁செல்வி	-11.1599
▁கப்	-11.16
▁இணைப்ப	-11.16
▁டெல்	-11.16
▁சமாதானம்	-11.16
▁வேகத்தை	-11.16
▁வீட்டிற்குள்	-11.1601
▁எடையை	-11.1602
▁நேராக	-11.1606
▁ராசிக்காரர்கள்	-11.1608
▁தேவார	-11.1608
▁செலுத்துவது	-11.1609
▁எடுத்துள்ளார்	-11.1612
பட்சத்தில்	-11.1615
லைட்	-11.1619
ங்கிற	-11.1621
▁சமூகத்தினர்	-11.1623
▁வந்திருந்தார்	-11.1625
▁ஃபார்	-11.1626
னாவின்	-11.1628
▁லிஸ்ட்	-11.1632
▁உருக	-11.1634
▁எதிர்க்கட்சியாக	-11.1635
மனித	-11.1637
▁ஆஞ்சநேயர்	-11.1642
▁கச்சத்தீவு	-11.1642
▁சட்டத்தரணி	-11.1642
▁சமீபகாலமாக	-11.1642
▁மூலிகை	-11.1642
▁சந்தீப்	-11.1642
▁வரையறை	-11.1642
▁இதனைத்தொடர்ந்து	-11.1642
▁முதலாம்	-11.1643
▁ஒழுங்குமுறை	-11.1644
▁உயிரோடு	-11.1644
▁தகவலின்படி	-11.1644
▁வாசலில்	-11.1645
▁ஆழ்த்திய	-11.1646
▁நிற்கிறது	-11.1647
▁தோசை	-11.1647
▁வேண்டுமென்றால்	-11.1648
▁அலகு	-11.1648
▁பொருளாதாரத்	-11.1649
▁யாப்பா	-11.1649
ஞான	-11.165
▁ரூபாயும்	-11.1651
▁2005	-11.1652
ஃ	-11.1653
▁உதவுகிறது	-11.1655
▁கோயம்புத்தூர்	-11.1655
▁பார்ட்டி	-11.1656
▁நடக்காது	-11.1656
பணம்	-11.1659
வண்ண	-11.1659
▁2024-	-11.166
▁வைத்தே	-11.166
▁எட	-11.1661
▁ஹசன்	-11.1665
▁விதிக்கப்படும்	-11.1666
▁குரோ	-11.1667
▁அமைச்சரின	-11.1667
ருவி	-11.1668
▁கிராமத்திற்கு	-11.167
▁பிறக்க	-11.167
▁வேர்	-11.1672
▁விடுத்துள்ளனர்	-11.1674
▁ஆட்சியைப்	-11.1674
▁அகதிகள்	-11.1674
விருக்கிறது	-11.1676
▁ஃபேஸ்புக்	-11.1677
52	-11.1679
▁எச்சரிக்க	-11.168
▁எதிர்த்துப்	-11.1681
▁வரைபட	-11.1681
▁95	-11.1681
க்கெட்	-11.1682
▁கருத்தரங்க	-11.1683
▁நிர்ணயம்	-11.1683
▁இருந்தபோதும்	-11.1686
▁வரவேண்டும்	-11.1686
▁ஷன்	-11.1689
▁விசாரித்தனர்	-11.1691
▁நெறி	-11.1692
▁கட்டுப்பாட்ட	-11.1698
▁போராட்டத்திற்கு	-11.1698
▁காணலாம்	-11.1699
▁தவித்து	-11.1702
▁லாக்	-11.1703
▁விரும்புவதாக	-11.1703
காலம்	-11.1704
▁சாத்தியமான	-11.1704
▁இருந்தோம்	-11.1708
▁ஆற்று	-11.1711
ழிவு	-11.1713
ஷீ	-11.1714
ச்சட்ட	-11.172
▁அமைச்சர	-11.1722
▁ராதா	-11.1724
▁பத்திரிக்கையாளர	-11.173
▁நம்புகிறார்	-11.1734
▁சேர்த்துக்	-11.1734
▁தப்பித்து	-11.1741
▁பார்க்காமல்	-11.1742
▁குமர	-11.1744
▁கட்டப்பட்டது	-11.1744
▁லட்சத்தை	-11.1746
▁யாகம்	-11.1746
தால	-11.1747
▁விண்ணப்பம்	-11.1747
▁ஆவேச	-11.1748
▁பிரசாத	-11.1748
▁கைப்பற்றப்பட்ட	-11.1749
யோட	-11.1751
▁ஆவணங்கள	-11.1753
சட்ட	-11.1759
▁ஜூலி	-11.1759
▁தன்னார்வ	-11.1761
▁அணிவகுப்பு	-11.1761
▁டெபாசிட்	-11.1761
▁பேஸ்புக்	-11.1761
▁சின்னத்திரை	-11.1761
▁சேலத்தில்	-11.1761
▁காரைக்குடி	-11.1762
▁மூலவருக்கு	-11.1763
▁சீண்ட	-11.1764
▁அநீதி	-11.1764
▁உட்கார்ந்த	-11.1766
▁தமக்கு	-11.1766
▁வாழ்த்துக்களை	-11.1771
▁மாதா	-11.1773
▁கொடை	-11.1773
▁லவ்	-11.1773
▁ஸ்டைல	-11.1774
▁வாசிக்க	-11.1774
▁மேட்டுப்பாளையம்	-11.1775
▁இன்னிங்ஸ்	-11.1778
▁மங்கல	-11.1778
▁ஆளுநரை	-11.1778
▁ஸ்கேன்	-11.1779
▁ஆபரேஷன்	-11.1779
▁50,000	-11.178
▁அறிமுகமான	-11.178
▁கிழக்கில	-11.1781
▁வணிகர்	-11.1782
▁கடலை	-11.1783
▁சடலத்தை	-11.1783
▁விழிப்புணர்வை	-11.1785
▁யார	-11.1786
ப்பெரு	-11.1787
▁ராஜேந்திரன்	-11.1788
▁மாமியார்	-11.1789
▁பொருட்களுக்கு	-11.1791
▁போட்டிகளிலும்	-11.1791
▁77	-11.1794
▁பதிப்ப	-11.1795
▁மார்பக	-11.1796
வல்ல	-11.1798
▁கூட்டத்தொடர்	-11.1801
போய்	-11.1803
▁கோப்பு	-11.1803
▁எழுதியவர்	-11.1804
▁பிரேக்	-11.1805
▁நெருக்கம்	-11.1808
ஜோ	-11.1809
▁வாரத்திற்கு	-11.181
ோல்	-11.1811
▁தோண்டி	-11.1811
▁பிரசாரத்தில்	-11.1813
▁கெஜ்ரிவால	-11.1815
வந்தது	-11.1817
▁கத்தார	-11.1817
▁திறக்கப்பட்டு	-11.1818
த்தூ	-11.1819
▁உழைத்து	-11.182
▁அம்பேத்கர	-11.182
மொ	-11.182
▁வெளியிடும்	-11.1822
▁இரானிய	-11.1823
▁தீவிரப்படுத்த	-11.1824
▁மோதல	-11.1826
▁பெண்களுக்கான	-11.1826
▁பொதுமக்களை	-11.1829
▁சொத்துக்களை	-11.1829
▁v	-11.1832
விடுவோம்	-11.1835
▁இந்தநிலையில்	-11.1837
▁டய	-11.1839
▁ரஷ்யாவிற்கு	-11.184
▁வைபவம்	-11.1841
▁தடுப்புச்	-11.1842
▁எனவேதான்	-11.1843
▁சென்றோம்	-11.1846
▁சென்றிருந்த	-11.1848
ென்றால்	-11.1851
▁அன்பை	-11.1852
▁இருந்திருக்கும்	-11.1853
▁லோக்	-11.1853
யிலான	-11.1855
▁நடவடிக்கையாக	-11.1855
▁தந்தையை	-11.1855
▁படகுகள்	-11.1856
▁விழும்	-11.1858
▁ஏற்பட்டதாக	-11.1861
ிருக்கிறதா	-11.1861
▁சென்றேன்	-11.1861
களிடமும்	-11.1864
▁பொருளை	-11.1865
▁சந்தி	-11.1866
▁ஜனநாயகம்	-11.1868
▁முன்னேற்றத்தை	-11.1868
▁இனம்	-11.1869
▁2015-	-11.1869
எச்	-11.187
▁பேசுவதை	-11.1872
▁கப்பல்கள்	-11.1873
▁வாசிப்ப	-11.1874
▁சுப்ரமணிய	-11.188
▁ஜவஹர்	-11.1881
▁கருக்கலைப்பு	-11.1881
▁பணியமர்த்த	-11.1881
▁பரிசீலனை	-11.1881
▁வனவிலங்கு	-11.1881
▁விமரிசையாக	-11.1881
▁குருபகவான்	-11.1881
▁குஷ்பு	-11.1881
▁தாம்பரம்	-11.1881
▁வயிறு	-11.1881
▁ஷெரீப்	-11.1882
▁திகழ்ந்த	-11.1882
▁பெயரிடப்பட்ட	-11.1882
▁வகிக்கிறது	-11.1883
▁கிடைச்ச	-11.1883
▁இத்திட்டம்	-11.1884
▁கிடைத்தன	-11.1884
▁சட்டமூலத்த	-11.1885
▁சரவண	-11.1888
▁வைணவ	-11.1888
படை	-11.189
▁சிந்து	-11.1891
▁சீனாவை	-11.1891
▁முழுவதிலும்	-11.1894
▁சிறப்புமிக்க	-11.1895
குள	-11.1898
▁தெரியவரும்	-11.1899
▁இளமை	-11.1899
▁பாதுகாவலர்	-11.19
▁விருதுகள்	-11.1901
▁தொன்	-11.1902
▁பத்திரங்கள்	-11.1904
▁அழகர்	-11.1906
▁மென்	-11.1907
பெரிய	-11.191
▁மௌன	-11.1911
▁சார்ந்து	-11.1915
▁நடைமுறைக்கு	-11.1916
▁வலைதளத்தில்	-11.1917
▁துறைமுகம்	-11.1919
ப்படுகிற	-11.1921
▁பையன்	-11.1921
▁திருடி	-11.1924
▁வலிமையான	-11.1926
▁மனுக்களை	-11.1927
▁ஒத்திவைக்க	-11.1927
வத்தை	-11.1929
▁மரணங்கள்	-11.1929
▁பந்துகளை	-11.193
▁புரிதல	-11.193
▁வருஷ	-11.1931
▁இருப்பத	-11.1931
▁கூடியது	-11.1933
▁பார்க்கிறார்கள்	-11.1935
▁எட்டி	-11.1936
▁பிரவேச	-11.1936
▁படைகளை	-11.1937
▁எரிந்து	-11.1938
▁எதிராகவும்	-11.1942
▁ஷே	-11.1944
▁சென்றாலும்	-11.1944
▁பதிவை	-11.1945
குறை	-11.1946
▁ஆணையத்தில்	-11.1946
▁பிரமுகர்கள்	-11.1948
▁உருவாக்கப்படும்	-11.1949
▁கோரும்	-11.1949
▁800	-11.195
▁மட்டத்தில்	-11.1953
▁திங்கள்கிழமை	-11.1954
▁நடப்பதாக	-11.1958
றையில்	-11.1959
▁பாணி	-11.1959
▁சமுத்திர	-11.1961
▁எழும்	-11.1964
▁எப்படியும்	-11.1966
▁பரவலை	-11.1971
▁மினி	-11.1971
நிறுத்த	-11.1973
விளை	-11.1974
▁தளமாக	-11.1975
▁ரன்னில	-11.1976
▁பந்துல	-11.1979
வருடன்	-11.1981
▁கிளப்ப	-11.1982
▁ரண	-11.1982
▁அடக்க	-11.1986
ரெஸ்	-11.1992
▁உருவாக்கினார்	-11.1993
▁பிறப்ப	-11.1994
▁பத்தி	-11.1999
▁03	-11.2
▁வகுப்புகள்	-11.2003
▁அதிர்வலைகளை	-11.2003
▁அரசியலமைப்பின்	-11.2003
▁சுப்ரீம்	-11.2003
▁திருச்செந்தூர்	-11.2003
▁பதிவேற்ற	-11.2003
▁பவர்ப்ளே	-11.2003
▁மகப்பேறு	-11.2003
▁மாயாவதி	-11.2003
▁ரஹ்மான்	-11.2003
▁கோடிக்கணக்கான	-11.2003
▁தற்பொழுது	-11.2003
▁தென்கிழக்கு	-11.2004
▁ரங்கசாமி	-11.2004
▁ராம்நாத்	-11.2005
▁இவ்வழக்க	-11.2005
▁காட்டுகின்றன	-11.2005
▁நடிச்ச	-11.2006
த்திற்கே	-11.2007
▁சாதித்த	-11.2007
கரம்	-11.2007
▁தாய்மார்கள	-11.2008
▁கலந்துரையாடலில்	-11.2008
▁போனை	-11.2008
▁முதன்மையான	-11.2012
▁அதுகுறித்து	-11.2013
▁மோர்	-11.2014
▁கனிம	-11.2014
▁குதித்த	-11.2016
▁பேசியதாவது	-11.2016
▁கடிதங்கள	-11.2016
▁டிரஸ்	-11.2017
▁மதத்தின்	-11.202
யில்லாமல்	-11.202
▁நண்பர்களுடன்	-11.2021
▁காங்கிரஸை	-11.2023
▁சோதனைகள்	-11.2023
▁செல்லலாம்	-11.2025
▁கௌதம்	-11.2027
▁சொல்வார்கள்	-11.2028
▁கவர	-11.203
▁துப்பாக்கியால	-11.2031
▁வேன்	-11.2034
ப்பிரிவு	-11.2034
▁இருந்தா	-11.2035
▁காமராஜ்	-11.2037
▁மைக்	-11.2038
▁ஒப்பந்தத்தின்	-11.2038
▁பிரச்னைகளுக்கு	-11.2039
▁மானியம்	-11.204
▁பிறந்தார்	-11.204
▁கற்களை	-11.2043
▁முதல்முறை	-11.2043
▁அமர்வ	-11.2044
▁அலுவலகத்தின்	-11.2047
▁தேர்வுகள்	-11.2048
▁விதிமுறைகள்	-11.2048
▁வாடிக்கையாளர	-11.2048
▁ஆகிறது	-11.2048
▁வயசு	-11.2048
ுவான்	-11.2051
▁மகளுக்கு	-11.2053
▁ஐந்த	-11.2053
க்கிட்ட	-11.2053
▁கேட்கிறார்	-11.2055
▁எழு	-11.2056
▁கட்டிடங்கள்	-11.2057
▁Ma	-11.2058
▁புரியும்	-11.2058
▁செய்பவர்	-11.2059
▁பிரேசில்	-11.2061
▁நாகராஜ	-11.2062
▁கண்டறியும்	-11.2064
▁சப்த	-11.2065
▁உழைத்த	-11.2067
தீவு	-11.2069
▁காட்சியை	-11.2072
▁பெருவிழா	-11.2073
யுமே	-11.2075
ஸும்	-11.2076
காந்த	-11.2076
▁நிகழ்வாக	-11.2077
ருத்தி	-11.2077
▁செலுத்தப்பட்டது	-11.2077
ப்பாதை	-11.2078
39	-11.2082
▁சூரியனை	-11.2083
▁சிரிப்ப	-11.2084
▁வித்தியாச	-11.2091
▁வேறுபாடுகள்	-11.2091
▁நிகழ்வுகளை	-11.2091
வந்த்	-11.2093
ver	-11.2095
▁பதவியேற்பு	-11.2095
மிங்	-11.2097
▁கவுன்சிலர்கள்	-11.2098
▁பூர்வீக	-11.2099
▁பயனாளி	-11.21
▁தேவையை	-11.2102
est	-11.2104
சூழ	-11.2104
▁t	-11.2104
த்துடனும்	-11.2105
மாநில	-11.2106
▁விஞ்ஞான	-11.2106
ிலி	-11.2108
▁உண்டாக்க	-11.211
▁சேகரித்த	-11.2115
▁கதாபாத்திரங்கள	-11.2117
▁தாக்கும்	-11.2118
▁மனிதர்களுக்கு	-11.2119
சந்திரன்	-11.2121
▁மின்சாரத்தை	-11.2122
▁கிடைக்குமா	-11.2122
▁தசாப்த	-11.2126
▁இழிவுபடுத்த	-11.2127
▁நடமாட்டம்	-11.2127
▁பினராயி	-11.2127
▁பீரங்கி	-11.2127
▁மின்னலுடன்	-11.2127
▁முற்றுப்புள்ளி	-11.2127
▁மேல்முறையீட்டு	-11.2127
▁மாத்திரமே	-11.2127
▁வயநாடு	-11.2127
▁உசேன்	-11.2127
▁சுற்றறிக்கை	-11.2127
▁வலதுசாரி	-11.2127
▁சமாஜ்வாடி	-11.2127
▁பண்டைய	-11.2127
▁சவுத்ரி	-11.2128
வற்றில்	-11.2128
▁குற்றப்பிரிவு	-11.2128
▁தடுமாற	-11.2131
▁ப்ளூ	-11.2131
▁சென்றடைந்த	-11.2132
▁ஸ்தல	-11.2132
▁தொழுகை	-11.2133
▁அறிவிக்கப்பட்டு	-11.2135
▁சமைக்க	-11.2135
▁அருள்மிகு	-11.2135
▁கைய	-11.2135
▁கவனித்துக்	-11.2136
ென்ட்	-11.2136
▁பந்துகள்	-11.2137
▁விரும்பினால்	-11.2137
▁அவுட்ட	-11.2137
▁விவரித்தார்	-11.2139
▁புற்றுநோய	-11.2141
▁செய்கின்றன	-11.2142
▁அமைந்திருக்கும்	-11.2143
கொண்டிருக்கின்றன	-11.2143
▁கவிஞர்	-11.2144
▁குல்	-11.2144
▁திறக்கப்பட்ட	-11.2146
▁லட்டு	-11.215
▁நாயகன்	-11.215
▁20,000	-11.2153
▁இறுக்க	-11.2153
▁முதலீட்டாளர்	-11.2154
▁X	-11.2157
▁ஆசியா	-11.2157
▁எல்லாரும்	-11.2158
▁போட்டியிடுகிறார	-11.2158
▁விதித்துள்ளது	-11.2162
▁லிஸ்	-11.2164
▁பார்த்தாலும்	-11.2164
▁திட்டங்களில்	-11.2167
▁ஊழியர்களை	-11.2167
ெர்	-11.2167
▁கமிஷன	-11.2168
தொழில்	-11.2169
▁குவித்து	-11.2169
▁நாகை	-11.217
▁இருந்தார்கள்	-11.2171
யொன்றை	-11.2171
▁அதிகப்படுத்த	-11.2172
▁இண்ட	-11.2176
வாட்	-11.2177
ீட்டு	-11.2179
▁முன்பாகவே	-11.2179
▁ஆகம	-11.218
▁பக்த	-11.218
▁ஆண்டாக	-11.2181
▁பயங்கரவாதிகள்	-11.2183
▁பெட்டியில்	-11.2184
▁கட்டாயப்படுத்த	-11.2186
▁தருகிறது	-11.2187
▁வியாபாரிகள்	-11.2187
▁விடவும்	-11.219
▁காணிக்கையாக	-11.2193
லூ	-11.2194
▁பக்தர்கள	-11.2195
▁கலைஞர்கள்	-11.2196
▁அத்துமீறி	-11.2202
▁புரத	-11.2206
▁விதித்தது	-11.2208
ine	-11.2208
▁செய்யக்கூடாது	-11.2209
▁ஆய்வின்	-11.2209
▁சிலரை	-11.221
▁பாக்ய	-11.2211
க்கொள்வது	-11.2212
▁is	-11.2212
▁பாக்ஸ்	-11.2218
▁கொள்வதற்கு	-11.2218
▁அரசர்	-11.2221
▁இப்படியாக	-11.2221
▁அமைப்புகளின்	-11.2222
வீரர்	-11.2223
▁வந்திருக்க	-11.2226
▁ஓரளவுக்கு	-11.2228
ஹெ	-11.2232
▁பெரியளவில	-11.2232
▁சீரழி	-11.2233
▁பேசுவார்	-11.2233
ிருப்போம்	-11.2233
har	-11.2236
▁அழிப்ப	-11.2238
▁காலத்துக்கு	-11.2241
▁வழிகள்	-11.2241
▁கடன்களை	-11.2251
▁எளிமையாக	-11.2252
▁சலசலப்பு	-11.2252
▁வர்த்தமானி	-11.2252
▁முருகப்பெருமான	-11.2252
▁முற்போக்கு	-11.2252
▁நிவர்த்தி	-11.2252
▁ஜஸ்டின்	-11.2252
▁யாழ்	-11.2252
▁தோற்கடிக்க	-11.2252
▁குடியேற்ற	-11.2252
▁நடைபயண	-11.2252
▁மலையக	-11.2252
▁ஸ்ரீலங்கா	-11.2252
▁நூற்றுக்கு	-11.2253
▁நேர்மையான	-11.2255
▁இந்தியாவிலேயே	-11.2255
▁இடைத்தேர்தலில்	-11.2256
ச்செல்ல	-11.2258
▁பாம்புகள்	-11.2258
▁மீட்ப	-11.2259
▁ரீதியிலான	-11.2259
▁செல்லாமல்	-11.2262
▁கழுவ	-11.2263
▁காற்றில்	-11.2263
▁புகார	-11.2264
▁பெரும்பான்மையான	-11.2265
▁மைதானம்	-11.2267
யையொட்டி	-11.227
▁நேஷனல	-11.2271
▁கோவில்கள்	-11.2273
ஷ்டி	-11.2274
▁பிசினஸ்	-11.2276
▁ப்ரீ	-11.2278
▁இணைக்கப்பட்ட	-11.2281
▁லாலு	-11.2282
மாறன்	-11.2283
▁கிடப்ப	-11.2283
▁கட்டை	-11.2284
▁மூழ்க	-11.2285
▁நிர்ணயித்த	-11.2286
▁பத்திரிகையாளர	-11.2287
▁விடயங்கள்	-11.2287
▁பிள்ளைகளுக்கு	-11.2287
▁61	-11.2288
▁பேரன்	-11.2288
வதா	-11.229
▁உத்தியோகத்தர்கள	-11.2291
பீட	-11.2292
▁ஆலயத்தில்	-11.2294
▁நிகழ்ச்சியின்	-11.2294
▁அதிகாரிகளுடன்	-11.2295
▁28-	-11.2295
▁பார்த்துவிட்டு	-11.2297
பிரியா	-11.2298
IN	-11.2304
▁ஒவ்வொருவரும்	-11.2304
▁நடந்திருக்கிறது	-11.2307
▁அன்னதான	-11.2308
▁கூறவில்லை	-11.2309
▁தோட்டத்தில்	-11.231
▁நிகழ்ச்சிகளை	-11.2312
▁உறுதிசெய்ய	-11.2314
▁அறிக்கைகள்	-11.2314
▁அணிந்திருந்த	-11.2319
▁நோன்பு	-11.232
வரான	-11.2323
க்கட்டி	-11.2327
▁ஷியா	-11.2327
ட்டன்	-11.2327
▁இந்தியாவுக்கும்	-11.2327
▁மையங்கள்	-11.2328
காட்டி	-11.2332
▁திரைப்படங்கள்	-11.2332
▁உதவியது	-11.2334
▁ஈட்டி	-11.2334
▁அடிபட்ட	-11.2339
▁மீன்கள்	-11.234
▁ஆட்சியர	-11.2342
▁முகாம	-11.2345
நல	-11.2348
▁முப்படை	-11.2349
▁ஒடுக்க	-11.2355
தர்ம	-11.2356
வுட்	-11.2358
▁அரசாங்கத்திற்கு	-11.2361
▁டியூ	-11.2362
▁76	-11.2363
வெள்ள	-11.2364
ாதே	-11.2364
ெங்கும்	-11.2369
▁விவர	-11.2369
இட	-11.2371
▁அந்	-11.2375
ा	-11.2378
▁கெய்க்வாட்	-11.2378
▁மின்வெட்டு	-11.2378
▁வாக்குவாதத்தில்	-11.2378
▁கள்ளக்காதல	-11.2378
▁பிரபஞ்ச	-11.2378
▁சிவாச்சாரியார்	-11.2378
▁பதவிக்காலம்	-11.2379
▁பண்பு	-11.2379
▁சீரமைக்க	-11.2379
▁இருக்குமா	-11.2379
▁இளநீர்	-11.2379
▁சக்திவாய்ந்த	-11.2379
▁ஜானகி	-11.238
▁பழுது	-11.238
எனது	-11.2381
▁சுக்	-11.2382
வருகிறார்கள்	-11.2383
▁தரையிறங்க	-11.2383
▁தேசியக்கொடி	-11.2383
▁நளினி	-11.2383
▁பெற்றோரிடம்	-11.2384
ப்பட்டதை	-11.2384
▁செயற்பட்ட	-11.2386
▁பொன்னியின்	-11.2386
ck	-11.2387
▁*	-11.2387
▁இழை	-11.2388
▁கைகளை	-11.239
▁பணியிடங்கள்	-11.239
▁பந்த்	-11.239
▁(1	-11.2391
▁நாகேந்திரன்	-11.2392
▁புகழ்ந்து	-11.2392
▁அலுவலகங்களில	-11.2393
▁அவசியத்தை	-11.2394
▁இயற்கையான	-11.2394
▁உடலுறவு	-11.2395
▁சந்தர்ப்ப	-11.2396
▁ரோந்து	-11.2396
ழுத்த	-11.24
▁பலரையும்	-11.2401
▁தப்பிய	-11.2401
▁மடி	-11.2401
▁கவனத்திற்கு	-11.2401
▁எதிர்பார்க்காத	-11.2402
▁பதிவிட்டுள்ள	-11.2402
▁சிறப்பாகச்	-11.2403
▁திறன	-11.2405
அதிக	-11.2405
▁திரைப்படங்களில்	-11.2405
க்கொடி	-11.2408
▁கடைகளை	-11.2408
▁பூரண	-11.2409
லெட்	-11.2412
▁சீக்கிய	-11.2413
▁வேலைக்காக	-11.2413
▁விவரித்த	-11.2415
▁உள	-11.2416
தேசிய	-11.2417
▁பயணித்து	-11.2419
யெ	-11.2419
▁காத்திருக்கும்	-11.2419
▁காட்டியது	-11.242
▁திட	-11.2422
▁சாப்பிடுவது	-11.2423
▁பொற	-11.2427
▁கதைகள்	-11.2427
▁நடைபெறுவது	-11.2427
ஷனில்	-11.2429
▁வெற்றியைப்	-11.2429
▁பெற்றதாக	-11.243
▁புண்	-11.243
னாய்	-11.2431
▁இருக்கின்றது	-11.2432
▁கள்ளச்சாராய	-11.2435
▁சக்தியை	-11.2435
▁இருக்கவில்லை	-11.2436
▁விளைவுகள்	-11.2439
▁ஸ்மித்	-11.2442
▁மீனவ	-11.2446
95	-11.2448
▁எகிப்த	-11.245
ச்சாமி	-11.2454
▁கனக	-11.2455
▁முன்னெடுத்து	-11.2455
▁கைதான	-11.2456
▁சுதந்திரப்	-11.246
சாரி	-11.2462
▁காட்டமாக	-11.2464
▁கும்பம்	-11.2465
ேஸ்வரன்	-11.2466
IC	-11.2467
▁அணிகளும்	-11.2475
▁நாத	-11.2476
▁உழைக்க	-11.2476
▁கடக	-11.2483
▁வல்லுநர்	-11.2487
ant	-11.2487
▁காதலர்	-11.2487
▁யோசனைக்கு	-11.2487
▁தரத்தை	-11.2487
▁கிளப்	-11.2492
ப்போதைய	-11.2493
▁மணிக்குள்	-11.2494
▁ராமகிருஷ்ண	-11.2494
▁ஸ்பெ	-11.2496
▁வசனங்கள	-11.2497
▁எங்களுக்குத்	-11.2498
பத்து	-11.25
ist	-11.2501
▁நிர்வாகத்தின்	-11.2501
▁உற்ஸவ	-11.2507
▁கடற்பரப்ப	-11.2507
▁திருப்புமுனை	-11.2507
▁மதச்சார்பற்ற	-11.2507
▁வரதட்சணை	-11.2507
▁ஸ்பெஷல்	-11.2507
▁மார்கழி	-11.2507
▁பதவியேற்க	-11.2507
▁அதுமட்டுமின்றி	-11.2507
▁புண்படுத்த	-11.2507
▁அப்டேட்	-11.2507
▁ஆதரவளிக்க	-11.2507
▁ஆறுமுகசாமி	-11.2508
▁கழுத்து	-11.2508
▁சொற்கள	-11.2508
சஸ்	-11.2508
▁மழைநீர்	-11.2512
▁கூற்று	-11.2512
▁India	-11.2513
▁கட்சியான	-11.2513
▁தொண்டர்களை	-11.2514
▁நிலா	-11.2514
▁முடித்துவிட்டு	-11.2517
78	-11.2517
▁ஆதரவான	-11.2518
ஸோ	-11.252
▁இக்கோயிலில்	-11.2521
▁ஃபிர	-11.2525
▁இணைந்தார்	-11.2525
▁கில்ல	-11.2525
▁ராஷ்டிர	-11.2526
▁குணம்	-11.2527
▁இணைக்கும்	-11.2528
▁இல்லாதது	-11.2529
▁செல்சியஸ்	-11.2529
▁ஜெய்ப்பூர்	-11.2534
▁ஏற்படாமல்	-11.2534
▁பேசினர்	-11.2536
▁கொண்டாடப்பட்டது	-11.2537
▁அக்கம்	-11.2538
சங்கர்	-11.2539
▁கரம்	-11.254
▁காளியம்மன்	-11.254
ac	-11.2541
▁மஞ்சு	-11.2543
▁பெரியவர்கள்	-11.2544
▁அதன்பின்னர்	-11.2547
▁நினைத்துக்	-11.2548
▁சாவர்க்கர்	-11.2549
▁காலத்திலும்	-11.2551
▁பார்வையாளர்	-11.2553
▁வருமா	-11.2553
▁தவிக்கும்	-11.2554
▁படிப்பில்	-11.2557
▁மற்றவர்கள	-11.2558
போதெல்லாம்	-11.2559
காரர்	-11.2561
▁இருப்பதும்	-11.2561
▁பார்த்தது	-11.2561
▁கட்சியுடன்	-11.2561
▁தூதரகம்	-11.2563
▁மதிப்பை	-11.2564
▁அச்சத்தில்	-11.257
▁சிறுபான்மையினர்	-11.257
▁பிரிக்கப்பட்ட	-11.2571
▁காத	-11.2573
க்கொடுக்க	-11.2578
▁மோகன	-11.2579
▁நடைபெறவில்லை	-11.2579
300	-11.2579
▁சார்ஜ	-11.2581
▁குலாம்	-11.2584
▁n	-11.2585
க்கொண்டனர்	-11.2587
▁தூது	-11.2589
▁மஞ்ச	-11.2589
பீர்	-11.259
▁விரும்பினார்	-11.2591
85	-11.26
பெரும	-11.2602
▁திருமணமாகி	-11.2603
போட	-11.2603
▁உயிரிழந்தவர்கள	-11.2607
▁உயிரிழப்புகள்	-11.2609
சிதம்பரம்	-11.261
▁சிறுமிக்கு	-11.261
▁அவரோட	-11.2611
ண்மை	-11.2611
வேலுமணி	-11.2611
▁யூத	-11.2612
▁அளித்துள்ளனர்	-11.2613
▁அண்ணாமலைக்கு	-11.2615
விஜய	-11.2615
▁கெள	-11.2617
▁இறக்கி	-11.2617
▁பார்வையாளர்கள	-11.2618
▁எழுதுகிறார்	-11.2618
▁நினைக்கும்	-11.2622
▁மேலான	-11.2624
▁ரன்ரேட்	-11.2632
▁ரூபாயாக	-11.2636
▁மனப்பான்மை	-11.2636
▁அகாடமி	-11.2636
▁அதனடிப்படையில்	-11.2636
▁அறிவாலய	-11.2636
▁உள்ளூராட்சி	-11.2636
▁கிரிமினல்	-11.2636
▁சித்ரவதை	-11.2636
▁பகுப்பாய்வு	-11.2636
▁மைக்கேல்	-11.2636
▁மேம்பாடு	-11.2637
▁சுமூக	-11.2637
▁தாமஸ்	-11.2637
▁ராஜயோக	-11.2637
▁பொண்ணு	-11.2637
▁இளங்கோவன்	-11.2638
▁மகிழ்ந்த	-11.2638
▁பலவீனமாக	-11.2638
▁கோஷ்டி	-11.2639
▁அலர்ட்	-11.2639
▁வாரங்களாக	-11.2639
▁பேனா	-11.264
▁மறுத்துவிட்டார்	-11.2641
▁வரவழைத்து	-11.2642
▁வில்ல	-11.2645
மாட்டார்கள்	-11.2648
▁அதிகரிக்கிறது	-11.2649
▁நிதியம்	-11.2652
விடுவேன்	-11.2652
▁The	-11.2652
▁நிஷா	-11.2652
▁பாவனை	-11.2653
▁பேய்	-11.2653
▁அதிகமானோர	-11.2655
▁சுகாதாரத்	-11.2656
▁நாடி	-11.2657
▁நிர	-11.2658
▁போராட்டங்கள	-11.2659
▁வேல	-11.2659
▁சாப்பிடும்	-11.266
▁ரஷ்யாவிடம்	-11.2661
▁கலாச்சாரம்	-11.2661
▁இலட்சத்து	-11.2662
▁சென்றுவிட்டார்	-11.2664
▁அவர்களைப்	-11.2664
▁குறிப்பிடும்	-11.2665
▁கொல்லப்பட்டார்	-11.2666
ஹு	-11.2666
▁ஜெய்சங்கர்	-11.2666
▁பழிவாங்கும்	-11.2667
▁உத்தரப்பிரதேசம்	-11.2668
od	-11.2672
▁பாத்திரத்த	-11.2673
▁கோள்	-11.2673
▁சுவாரஸ்யமான	-11.2674
▁கொண்டவர்கள்	-11.2676
சேர	-11.2678
▁சதவிகிதமாக	-11.2679
▁விசாக	-11.2681
▁ஆழமாக	-11.2681
புள்ளி	-11.2682
▁எல	-11.2685
பெருமாள்	-11.2687
▁தூண்டும்	-11.2688
▁செவி	-11.2691
▁தமிழர	-11.2694
▁புக்	-11.2695
▁கவுரவ	-11.2696
களினால்	-11.2699
▁போதையில்	-11.2701
▁அறிவிக்கப்படும்	-11.2702
▁மதிப்பெண்கள்	-11.2703
▁பாவம்	-11.2705
தொடர்ந்து	-11.2706
▁சிதறி	-11.2708
விபத்துக்குள்ளான	-11.2709
▁வெளிச்ச	-11.2711
▁ஓய்வ	-11.2714
▁முடங்கி	-11.2714
▁கருப்பை	-11.2714
▁திறமையை	-11.2715
▁விமானங்களை	-11.2717
▁சென்றுள்ளது	-11.2719
▁கற்ப	-11.2719
▁காணாத	-11.2721
▁கற்ற	-11.2723
▁சிக்கல்களை	-11.2725
▁தங்கும்	-11.2733
▁ராஜராஜ	-11.2734
▁தகவல	-11.2735
▁வயதாகும்	-11.2738
▁பழிவாங்க	-11.2738
▁கல்யாண்	-11.2739
▁சமூகவலைதள	-11.2739
ஊ	-11.2741
▁கொள்வத	-11.2744
▁ஃபோர்	-11.2746
88	-11.2748
▁வைப்பார்	-11.2749
▁பச்ச	-11.2752
▁திட்டத்துக்கு	-11.2758
▁Ra	-11.2758
போன்ற	-11.2759
▁தொழிற்சாலைகள்	-11.2763
▁பிறந்தநாளை	-11.2765
▁இளவரசி	-11.2768
▁சுவாரசிய	-11.2768
▁நிபுணத்துவ	-11.2768
▁ஆகையால்	-11.2768
▁கோட்பாடு	-11.2768
▁முரண்பாடு	-11.2768
▁ஒருபக்கம்	-11.2769
▁தரப்பிலும்	-11.2771
▁நாள்தோறும்	-11.2771
▁பிரதாப்	-11.2771
▁வயதுக்குட்பட்ட	-11.2772
▁எங்கிருந்து	-11.2772
▁ஆரத்தி	-11.2772
▁இல்லா	-11.2773
▁ஊக்குவிப்ப	-11.2774
▁சிறுவயத	-11.2775
▁ஏற்கவில்லை	-11.2777
▁வீழ்த்தினார்	-11.2779
▁அதேவேளையில்	-11.2779
▁ரஞ்சன்	-11.2779
▁வெச்சு	-11.2779
▁உள்நோக்க	-11.2782
▁சரிவு	-11.2783
▁கைவிடப்பட்ட	-11.2783
▁சுருக்க	-11.2785
▁தீர்வாக	-11.2785
▁பூமியை	-11.2786
பார்த்து	-11.2786
▁கற்றுக்கொண்ட	-11.2788
▁இருப்பேன்	-11.2789
▁அதிதி	-11.2789
▁இந்தியாவிலும்	-11.2789
▁மாகாணங்களில்	-11.279
▁23-	-11.2791
▁3,000	-11.2792
▁நெட்	-11.2794
▁பதற்றமான	-11.2794
▁செயற்பாட்டாளர்	-11.2795
▁ஜன்னல்	-11.2797
▁தொடங்குவதற்கு	-11.2797
▁சின்னத்தை	-11.2799
▁கிடைக்காமல்	-11.2799
கல்வி	-11.2801
▁நகரமான	-11.2801
▁உருவாக்கியது	-11.2802
▁அரேபியாவ	-11.2804
▁வைரலானது	-11.2804
கோடி	-11.2805
ெரி	-11.281
▁ஓட்டுநர	-11.2813
▁நடராஜ	-11.2816
▁பிராமணர்	-11.2819
சேவை	-11.2822
▁ஆகிவிட்டது	-11.2823
▁இதழ	-11.2823
கொல்ல	-11.2829
வில்லிபுத்தூர்	-11.2836
▁குளம்	-11.2837
▁அளிக்கவில்லை	-11.2844
▁அங்கமாக	-11.2845
▁தப்பு	-11.2846
▁தவித்த	-11.2847
▁அனுபவங்களை	-11.2848
▁துரத்தி	-11.2849
▁வழிகாட்டுதல்	-11.285
▁ராஜ்ய	-11.2854
▁அம்ச	-11.2854
ாளரான	-11.2856
▁கைவிட்டு	-11.2859
▁கூட்டுப்	-11.286
ah	-11.286
திட்ட	-11.2861
▁குழுக்களை	-11.2862
▁அதைவிட	-11.2865
▁முன்னறிவிப்பு	-11.2865
▁ஏந்தி	-11.287
▁படமாக	-11.287
ாட்ச	-11.2872
▁இயக்கி	-11.2873
▁அறிவுறுத்தி	-11.2874
▁தோற்றம்	-11.2874
▁யோகத்தை	-11.2876
▁மகரம்	-11.2876
▁பவார	-11.2881
▁பெற்றோருக்கு	-11.2881
96	-11.2884
▁குறிப்ப	-11.2884
▁செம	-11.2884
pa	-11.2885
▁கீப்பர	-11.2887
பார்த்த	-11.289
▁குதித்து	-11.289
▁ராயல்	-11.2893
▁இயலும	-11.2895
▁சம்பவத்துக்கு	-11.2895
▁மிட்	-11.2895
▁06	-11.2897
▁செய்திருந்த	-11.2899
ெழ	-11.2899
▁மாற்றமும்	-11.2901
▁செங்கோட்டை	-11.2901
▁சலசலப்பை	-11.2901
▁சூறாவளி	-11.2901
▁பார்ட்னர்ஷிப்	-11.2901
▁மின்னஞ்சல்	-11.2901
▁வறட்சி	-11.2901
▁ஸ்திரத்தன்மை	-11.2901
▁சுதர்சன	-11.2902
▁குங்கும	-11.2902
▁வலுசக்தி	-11.2902
▁வறண்ட	-11.2902
▁சேமித்து	-11.2902
▁சேஸிங்	-11.2902
NA	-11.2903
▁சரிபார்க்க	-11.2903
வைத்தார்	-11.2904
▁1989	-11.2904
▁முதுகலை	-11.2905
▁கனவை	-11.2906
▁செய்கிறேன்	-11.2907
▁நீராட	-11.2908
▁ரிக்டர	-11.2909
▁திரையரங்குகளில்	-11.291
▁வெளியிட்டிருந்த	-11.2911
ரியர்	-11.2912
▁கோஷம்	-11.2913
▁வரவேற்றனர்	-11.2914
ரீன்	-11.2916
▁பிகார்	-11.292
▁தூக்கிட்டு	-11.292
மகன்	-11.2921
▁பெருமாளுக்கு	-11.2922
▁வைத்துக்கொள்ள	-11.2923
▁பிரிவினர	-11.2924
னியர்	-11.2924
▁உற்பத்தியாளர்கள	-11.2926
ெக்ட	-11.2927
▁கியூ	-11.2928
▁சேலை	-11.293
▁பேரழிவு	-11.293
▁கூறியிருந்தது	-11.2931
▁இடிக்கப்பட்ட	-11.2932
▁நாட்களுக்குள்	-11.2932
▁ஏற்படாது	-11.2938
▁சுவாரஸ்ய	-11.2938
▁குளிர்கால	-11.2941
வந்து	-11.2941
▁இணையாக	-11.2942
ry	-11.2942
▁சந்தா	-11.2943
▁செயற்பாடுகளை	-11.2944
▁இருங்கள்	-11.2944
▁நாய்கள்	-11.2945
நாளில்	-11.2948
▁நடித்துள்ளார்	-11.2952
▁சிகிச்சையில்	-11.2953
இந்து	-11.2953
▁உயர்ந்தது	-11.2954
▁விடுவித்த	-11.2954
▁தேக்க	-11.2959
▁காலமாகவே	-11.296
▁வசனம்	-11.2961
▁மண்ணை	-11.2962
▁எச்சரிக்கையாக	-11.2965
▁சுற்றுப்பயண	-11.2965
▁காட்டில்	-11.2966
▁25-	-11.2966
▁குகை	-11.2967
ின்றோம்	-11.2967
▁பெயரும்	-11.2969
▁24-	-11.297
▁நேச	-11.297
▁அறிவிக்கும்	-11.2972
▁அனுப்பியது	-11.2974
▁டாக்டர	-11.2974
▁வந்தோம்	-11.2974
▁அமலாக்க	-11.298
பாலு	-11.2982
▁பேட்டர்	-11.2982
படும்	-11.2986
▁எழுந்துள்ளன	-11.2986
▁தொல்	-11.2987
ரீட்	-11.299
யிலோ	-11.299
▁நடந்தாலும்	-11.2991
▁விவாதிக்கப்பட்ட	-11.2993
▁தீவுகள்	-11.2994
▁எல்லைக்குள்	-11.2995
▁டாலர	-11.2995
ஃபை	-11.2996
▁மேற்கொள்வது	-11.2999
▁கேட்பது	-11.2999
▁மக்களையும்	-11.3002
▁பெற்றுக்கொண்ட	-11.3004
▁சொல்லப்பட்டது	-11.3005
▁ப்ரா	-11.3007
▁பரவச	-11.3008
▁தெற்க	-11.3011
▁உரையாற்ற	-11.3012
▁பங்குகளை	-11.3014
▁மறைந்து	-11.3014
▁02	-11.3014
▁வழிமுறை	-11.3015
றிந்த	-11.3017
▁திட்டங்கள	-11.3019
og	-11.302
ங்களிலேயே	-11.3021
▁வருடமாக	-11.3023
▁போர்டு	-11.3024
▁பெட்டிகள்	-11.3027
▁சிம்மம்	-11.3029
▁சுற்றுக்கு	-11.303
▁எறும்பு	-11.3037
▁எளிமையான	-11.3037
▁சடலம்	-11.3037
க்கல்லூரி	-11.3037
▁கூறுகின்றார்	-11.3037
▁வேக்சின்	-11.3037
▁ஆய்வறிக்கை	-11.3037
▁மோசமடைந்த	-11.3037
▁தகவலறிந்த	-11.3037
▁செந்தில்பாலாஜி	-11.3037
▁சேவா	-11.3038
ிங்கில்	-11.3038
▁நிறுவனத்திடம்	-11.3038
▁எரிமலை	-11.3038
▁அழித்து	-11.304
▁குடியரச	-11.304
▁டைட்டன்ஸ்	-11.3041
▁இட்டு	-11.3042
▁சோர்வ	-11.3042
▁ஜோன்ஸ்	-11.3043
▁ஊற	-11.3044
க்கப்பட்டது	-11.3045
▁அமலாக்கப்	-11.3045
▁அகற்றப்பட்ட	-11.3046
▁பெண்ணிடம்	-11.3046
▁அசுர	-11.3047
▁பணப்	-11.3049
▁கலர்	-11.305
▁சாகல	-11.3051
▁பூங்காவில்	-11.3051
▁குத்து	-11.3052
▁மதமாற்ற	-11.3054
▁அமைப்புகளை	-11.3054
▁முன்மொழி	-11.3054
▁உட்கொள்ள	-11.3055
▁ரோட்டில்	-11.3056
▁கல்லீரல்	-11.3058
▁மையங்களில்	-11.3062
▁பணியாற்றினார்	-11.3062
▁லதா	-11.3063
▁போதுமானதாக	-11.3064
▁92	-11.3064
▁வைக்கிறது	-11.3064
▁பிரிட்டனின்	-11.3066
▁கொள்வார்கள்	-11.3067
▁தெரி	-11.3071
றீங்க	-11.3072
ath	-11.3074
▁இஸ்	-11.3076
▁வீடியோவாக	-11.3076
ரசு	-11.3077
யொன்று	-11.3077
▁ஒப்ப	-11.3079
▁பிரபலம்	-11.3079
▁வடிவம்	-11.3082
▁வெளியிடப்படும்	-11.3082
▁தெரிவித்ததாக	-11.3084
▁நண்பன்	-11.3084
▁மற்றபடி	-11.3087
▁கூறலாம்	-11.3088
▁மகிழ்ச்சியான	-11.3089
▁முயற்சிகளில்	-11.3096
பிடிக்க	-11.3098
▁டாலருக்கு	-11.3101
▁தயக்க	-11.3102
▁எல்லைப்	-11.3104
▁ஆரம்பிப்ப	-11.3105
▁தீர்வை	-11.3105
▁நடத்துவதற்கு	-11.3106
▁விஸ்வ	-11.3109
நேரு	-11.3109
▁அம்சம்	-11.3111
▁தூக்கிய	-11.3113
▁நடந்துள்ளன	-11.3116
▁ஆக்கிரமித்த	-11.3117
▁காவல்துறையில்	-11.3117
மாட்டார்	-11.3118
▁ஏற்பட்டதால்	-11.3119
▁கொல்கத்தாவில	-11.3125
▁சந்திப்பின்	-11.3126
▁நிறைவேற	-11.3128
▁விதிப்ப	-11.3128
▁நடிகராக	-11.3134
▁சளி	-11.314
▁தியாகம்	-11.314
▁பிரதமருக்கு	-11.3142
▁பத்ர	-11.3143
▁உயிரின	-11.3145
▁தோட்டா	-11.3146
வரிசை	-11.3148
▁தலைமுறையினர	-11.3151
ாதவர்கள்	-11.3152
▁இடங்களையும்	-11.3154
▁ஆய்வாளர	-11.3156
▁கையில	-11.3158
▁பார்க்கிறார்	-11.3159
▁ஆஜராகி	-11.316
9%	-11.3162
இன்று	-11.3162
▁நினைத்தார்	-11.3167
▁அங்கீகரித்த	-11.3174
▁GMT	-11.3174
▁அப்பார்ட்மெண்ட்	-11.3174
▁உட்கட்டமைப்பு	-11.3174
▁ஒருவருக்கொருவர	-11.3174
▁சீர்காழி	-11.3174
▁பாரம்பர்ய	-11.3174
▁பிரெஞ்சு	-11.3174
▁பழங்கால	-11.3174
▁முய்சு	-11.3174
[...]
