{
  "version": "1.0",
  "truncation": null,
  "padding": null,
  "added_tokens": [
    {
      "id": 0,
      "content": "[UNK]",
      "single_word": false,
      "lstrip": false,
      "rstrip": false,
      "normalized": false,
      "special": true
    },
    {
      "id": 1,
      "content": "[CLS]",
      "single_word": false,
      "lstrip": false,
      "rstrip": false,
      "normalized": false,
      "special": true
    },
    {
      "id": 2,
      "content": "[SEP]",
      "single_word": false,
      "lstrip": false,
      "rstrip": false,
      "normalized": false,
      "special": true
    },
    {
      "id": 3,
      "content": "[PAD]",
      "single_word": false,
      "lstrip": false,
      "rstrip": false,
      "normalized": false,
      "special": true
    },
    {
      "id": 4,
      "content": "[MASK]",
      "single_word": false,
      "lstrip": false,
      "rstrip": false,
      "normalized": false,
      "special": true
    }
  ],
  "normalizer": {
    "type": "Sequence",
    "normalizers": [
      {
        "type": "NFKC"
      },
      {
        "type": "Lowercase"
      }
    ]
  },
  "pre_tokenizer": {
    "type": "Whitespace"
  },
  "post_processor": null,
  "decoder": {
    "type": "WordPiece",
    "prefix": "##",
    "cleanup": true
  },
  "model": {
    "type": "WordPiece",
    "unk_token": "[UNK]",
    "continuing_subword_prefix": "##",
    "max_input_chars_per_word": 100,
    "vocab": {
      "[UNK]": 0,
      "[CLS]": 1,
      "[SEP]": 2,
      "[PAD]": 3,
      "[MASK]": 4,
      "!": 5,
      "\"": 6,
      "#": 7,
      "$": 8,
      "%": 9,
      "&": 10,
      "'": 11,
      "(": 12,
      ")": 13,
      "*": 14,
      "+": 15,
      ",": 16,
      "-": 17,
      ".": 18,
      "/": 19,
      "0": 20,
      "1": 21,
      "2": 22,
      "3": 23,
      "4": 24,
      "5": 25,
      "6": 26,
      "7": 27,
      "8": 28,
      "9": 29,
      ":": 30,
      ";": 31,
      "<": 32,
      "=": 33,
      ">": 34,
      "?": 35,
      "@": 36,
      "[": 37,
      "\\": 38,
      "]": 39,
      "^": 40,
      "_": 41,
      "`": 42,
      "a": 43,
      "b": 44,
      "c": 45,
      "d": 46,
      "e": 47,
      "f": 48,
      "g": 49,
      "h": 50,
      "i": 51,
      "j": 52,
      "k": 53,
      "l": 54,
      "m": 55,
      "n": 56,
      "o": 57,
      "p": 58,
      "q": 59,
      "r": 60,
      "s": 61,
      "t": 62,
      "u": 63,
      "v": 64,
      "w": 65,
      "x": 66,
      "y": 67,
      "z": 68,
      "{": 69,
      "}": 70,
      "~": 71,
      "£": 72,
      "§": 73,
      "­": 74,
      "®": 75,
      "°": 76,
      "·": 77,
      "×": 78,
      "á": 79,
      "å": 80,
      "é": 81,
      "í": 82,
      "ñ": 83,
      "ô": 84,
      "õ": 85,
      "ö": 86,
      "÷": 87,
      "ł": 88,
      "ō": 89,
      "š": 90,
      "ʻ": 91,
      "̈": 92,
      "إ": 93,
      "ا": 94,
      "د": 95,
      "ر": 96,
      "س": 97,
      "ل": 98,
      "م": 99,
      "ه": 100,
      "و": 101,
      "ي": 102,
      "ं": 103,
      "अ": 104,
      "आ": 105,
      "इ": 106,
      "ई": 107,
      "उ": 108,
      "ए": 109,
      "औ": 110,
      "क": 111,
      "ख": 112,
      "ग": 113,
      "घ": 114,
      "च": 115,
      "छ": 116,
      "ज": 117,
      "ट": 118,
      "ड": 119,
      "ण": 120,
      "त": 121,
      "थ": 122,
      "द": 123,
      "ध": 124,
      "न": 125,
      "प": 126,
      "फ": 127,
      "ब": 128,
      "भ": 129,
      "म": 130,
      "य": 131,
      "र": 132,
      "ल": 133,
      "व": 134,
      "श": 135,
      "ष": 136,
      "स": 137,
      "ह": 138,
      "़": 139,
      "ा": 140,
      "ि": 141,
      "ी": 142,
      "ु": 143,
      "ू": 144,
      "े": 145,
      "ै": 146,
      "ो": 147,
      "ौ": 148,
      "्": 149,
      "।": 150,
      "અ": 151,
      "આ": 152,
      "ઉ": 153,
      "ઓ": 154,
      "ક": 155,
      "ખ": 156,
      "જ": 157,
      "ટ": 158,
      "ણ": 159,
      "ત": 160,
      "થ": 161,
      "દ": 162,
      "ન": 163,
      "પ": 164,
      "ફ": 165,
      "ભ": 166,
      "મ": 167,
      "ય": 168,
      "ર": 169,
      "લ": 170,
      "વ": 171,
      "સ": 172,
      "ા": 173,
      "િ": 174,
      "ી": 175,
      "ે": 176,
      "ો": 177,
      "્": 178,
      "ஃ": 179,
      "அ": 180,
      "ஆ": 181,
      "இ": 182,
      "ஈ": 183,
      "உ": 184,
      "ஊ": 185,
      "எ": 186,
      "ஏ": 187,
      "ஐ": 188,
      "ஒ": 189,
      "ஓ": 190,
      "ஔ": 191,
      "க": 192,
      "ங": 193,
      "ச": 194,
      "ஜ": 195,
      "ஞ": 196,
      "ட": 197,
      "ண": 198,
      "த": 199,
      "ந": 200,
      "ன": 201,
      "ப": 202,
      "ம": 203,
      "ய": 204,
      "ர": 205,
      "ற": 206,
      "ல": 207,
      "ள": 208,
      "ழ": 209,
      "வ": 210,
      "ஶ": 211,
      "ஷ": 212,
      "ஸ": 213,
      "ஹ": 214,
      "ா": 215,
      "ி": 216,
      "ீ": 217,
      "ு": 218,
      "ூ": 219,
      "ெ": 220,
      "ே": 221,
      "ை": 222,
      "ொ": 223,
      "ோ": 224,
      "ௌ": 225,
      "்": 226,
      "௦": 227,
      "௧": 228,
      "௨": 229,
      "௩": 230,
      "௫": 231,
      "௬": 232,
      "௭": 233,
      "௹": 234,
      "‌": 235,
      "‍": 236,
      "‎": 237,
      "‛": 238,
      "‟": 239,
      "•": 240,
      "′": 241,
      "⁄": 242,
      "⁠": 243,
      "€": 244,
      "₹": 245,
      "⏩": 246,
      "●": 247,
      "◾": 248,
      "★": 249,
      "❔": 250,
      "⦁": 251,
      "": 252,
      "": 253,
      "": 254,
      "": 255,
      "": 256,
      "": 257,
      "": 258,
      "�": 259,
      "👇": 260,
      "💥": 261,
      "😂": 262,
      "😊": 263,
      "😐": 264,
      "😲": 265,
      "🛩": 266,
      "##ா": 267,
      "##ழ": 268,
      "##்": 269,
      "##த": 270,
      "##ப": 271,
      "##ட": 272,
      "##ு": 273,
      "##க": 274,
      "##ொ": 275,
      "##ண": 276,
      "##ி": 277,
      "##ர": 278,
      "##ள": 279,
      "##வ": 280,
      "##ம": 281,
      "##ன": 282,
      "##ெ": 283,
      "##ய": 284,
      "##ந": 285,
      "##ூ": 286,
      "##ல": 287,
      "##ற": 288,
      "##s": 289,
      "##l": 290,
      "##a": 291,
      "##n": 292,
      "##d": 293,
      "##ை": 294,
      "##ே": 295,
      "##ங": 296,
      "##ோ": 297,
      "##ச": 298,
      "##ஸ": 299,
      "##ஜ": 300,
      "##ௌ": 301,
      "##ஷ": 302,
      "##ஞ": 303,
      "##j": 304,
      "##o": 305,
      "##u": 306,
      "##r": 307,
      "##e": 308,
      "##அ": 309,
      "##ீ": 310,
      "##7": 311,
      "##ஆ": 312,
      "##‌": 313,
      "##ஹ": 314,
      "##t": 315,
      "##i": 316,
      "##c": 317,
      "##p": 318,
      "##h": 319,
      "##k": 320,
      "##m": 321,
      "##v": 322,
      "##z": 323,
      "##b": 324,
      "##எ": 325,
      "##1": 326,
      "##0": 327,
      "##ஐ": 328,
      "##ஏ": 329,
      "##x": 330,
      "##5": 331,
      "##8": 332,
      "##9": 333,
      "##ஃ": 334,
      "##3": 335,
      "##4": 336,
      "##2": 337,
      "##உ": 338,
      "##.": 339,
      "##💥": 340,
      "##g": 341,
      "##y": 342,
      "##,": 343,
      "##w": 344,
      "##f": 345,
      "##இ": 346,
      "##ौ": 347,
      "##त": 348,
      "##ஓ": 349,
      "##?": 350,
      "##ु": 351,
      "##न": 352,
      "##ा": 353,
      "##व": 354,
      "##\"": 355,
      "##ஈ": 356,
      "##6": 357,
      "##!": 358,
      "##\\": 359,
      "##_": 360,
      "##ஊ": 361,
      "##ஒ": 362,
      "##q": 363,
      "##é": 364,
      "##ल": 365,
      "##ी": 366,
      "##௩": 367,
      "##)": 368,
      "##�": 369,
      "##‍": 370,
      "##ન": 371,
      "##ે": 372,
      "##ह": 373,
      "##ं": 374,
      "##च": 375,
      "##े": 376,
      "##>": 377,
      "##ि": 378,
      "##द": 379,
      "##ै": 380,
      "##स": 381,
      "##ग": 382,
      "##ू": 383,
      "##:": 384,
      "##‛": 385,
      "##'": 386,
      "##-": 387,
      "##❔": 388,
      "###": 389,
      "##/": 390,
      "##௫": 391,
      "##;": 392,
      "##श": 393,
      "##भ": 394,
      "##र": 395,
      "##ए": 396,
      "##्": 397,
      "##ō": 398,
      "##`": 399,
      "##+": 400,
      "##ા": 401,
      "##જ": 402,
      "##પ": 403,
      "##<": 404,
      "##ज": 405,
      "##प": 406,
      "##ड": 407,
      "##­": 408,
      "##ो": 409,
      "##य": 410,
      "##ट": 411,
      "##௦": 412,
      "##௭": 413,
      "##म": 414,
      "##ô": 415,
      "##छ": 416,
      "##ñ": 417,
      "##₹": 418,
      "##ष": 419,
      "##ख": 420,
      "##क": 421,
      "##*": 422,
      "##સ": 423,
      "##ध": 424,
      "##£": 425,
      "##[": 426,
      "##ʻ": 427,
      "##@": 428,
      "##ર": 429,
      "##્": 430,
      "##ય": 431,
      "##ક": 432,
      "##ત": 433,
      "##⁠": 434,
      "##ण": 435,
      "##š": 436,
      "##ई": 437,
      "##=": 438,
      "##÷": 439,
      "##×": 440,
      "##ل": 441,
      "##ا": 442,
      "##ر": 443,
      "##س": 444,
      "##و": 445,
      "##ه": 446,
      "##ي": 447,
      "##م": 448,
      "##د": 449,
      "##%": 450,
      "##]": 451,
      "##વ": 452,
      "##ણ": 453,
      "##ી": 454,
      "##ટ": 455,
      "##ફ": 456,
      "##થ": 457,
      "##ब": 458,
      "##$": 459,
      "##😐": 460,
      "##इ": 461,
      "##મ": 462,
      "##લ": 463,
      "##ஶ": 464,
      "##ો": 465,
      "##ö": 466,
      "##&": 467,
      "##ઓ": 468,
      "##😂": 469,
      "##(": 470,
      "##ł": 471,
      "##િ": 472,
      "##़": 473,
      "##′": 474,
      "##थ": 475,
      "##õ": 476,
      "##å": 477,
      "##í": 478,
      "##்க": 479,
      "##்த": 480,
      "##ம்": 481,
      "##ல்": 482,
      "##ன்": 483,
      "##க்க": 484,
      "##்ட": 485,
      "##ர்": 486,
      "##த்த": 487,
      "##ப்": 488,
      "##ிய": 489,
      "##ும்": 490,
      "##ள்": 491,
      "##ந்த": 492,
      "##ப்ப": 493,
      "##து": 494,
      "##ில்": 495,
      "##ரு": 496,
      "##ட்ட": 497,
      "##ங்க": 498,
      "##ைய": 499,
      "##ாக": 500,
      "##ற்": 501,
      "##தி": 502,
      "##ிற": 503,
      "##க்கு": 504,
      "##ின்": 505,
      "##டு": 506,
      "##்ச": 507,
      "##று": 508,
      "##ள்ள": 509,
      "##ண்ட": 510,
      "##ிர": 511,
      "##ார்": 512,
      "##ார": 513,
      "##த்து": 514,
      "மு": 515,
      "##ில": 516,
      "செ": 517,
      "##ான": 518,
      "##டி": 519,
      "##ற்ற": 520,
      "##ர்க": 521,
      "##ிக": 522,
      "என்": 523,
      "##லை": 524,
      "வி": 525,
      "##வி": 526,
      "##ட்டு": 527,
      "##ந்து": 528,
      "##ரி": 529,
      "கு": 530,
      "##ிரு": 531,
      "##வு": 532,
      "இரு": 533,
      "##ால்": 534,
      "##ளை": 535,
      "செய": 536,
      "இந்த": 537,
      "##ச்ச": 538,
      "மா": 539,
      "##றி": 540,
      "போ": 541,
      "##க்": 542,
      "கா": 543,
      "##த்": 544,
      "அவ": 545,
      "கொ": 546,
      "##ப்பு": 547,
      "##னர்": 548,
      "##த்தில்": 549,
      "##ையில்": 550,
      "##னை": 551,
      "##ளு": 552,
      "##ஸ்": 553,
      "தொ": 554,
      "##ான்": 555,
      "பெ": 556,
      "##ல்ல": 557,
      "##மை": 558,
      "நட": 559,
      "பா": 560,
      "வே": 561,
      "##ற்க": 562,
      "கூ": 563,
      "##க்கும்": 564,
      "##ர்கள்": 565,
      "##ுக": 566,
      "##ாவ": 567,
      "##ாய": 568,
      "##ுவ": 569,
      "##மி": 570,
      "தே": 571,
      "##ப்பட்ட": 572,
      "##ன்ற": 573,
      "##ம்ப": 574,
      "என": 575,
      "நா": 576,
      "##ட்ச": 577,
      "வெ": 578,
      "##ிறது": 579,
      "உள்ள": 580,
      "##ற்ப": 581,
      "##டிய": 582,
      "##ிட": 583,
      "##ளில்": 584,
      "அதி": 585,
      "பிர": 586,
      "அத": 587,
      "##ின": 588,
      "##ிக்க": 589,
      "##ண்": 590,
      "##ாள": 591,
      "தெ": 592,
      "##ங்கள்": 593,
      "##கள்": 594,
      "##ன்ன": 595,
      "பே": 596,
      "##ண்டு": 597,
      "ஒரு": 598,
      "##ரை": 599,
      "##ாத": 600,
      "##ச்": 601,
      "##மாக": 602,
      "##றை": 603,
      "##கு": 604,
      "##்கள்": 605,
      "##ளுக்கு": 606,
      "கோ": 607,
      "##ால": 608,
      "இத": 609,
      "தொட": 610,
      "மே": 611,
      "##ாம": 612,
      "##டுத்த": 613,
      "##திய": 614,
      "##வே": 615,
      "அர": 616,
      "##த்தை": 617,
      "என்று": 618,
      "##தாக": 619,
      "##ட்": 620,
      "##வில்": 621,
      "##மான": 622,
      "மற்ற": 623,
      "##்ய": 624,
      "வழ": 625,
      "##வர்": 626,
      "##ணி": 627,
      "வரு": 628,
      "##ரிய": 629,
      "##ரும்": 630,
      "பொ": 631,
      "செய்த": 632,
      "##ிட்ட": 633,
      "##ற்று": 634,
      "நில": 635,
      "கட": 636,
      "##ழு": 637,
      "அரச": 638,
      "..": 639,
      "மற்றும்": 640,
      "என்ற": 641,
      "பு": 642,
      "##ள்ளது": 643,
      "##ப்பட": 644,
      "##்த்த": 645,
      "##ோது": 646,
      "##ரா": 647,
      "##வும்": 648,
      "##வை": 649,
      "##ண்டும்": 650,
      "முத": 651,
      "##சி": 652,
      "##ன்று": 653,
      "##னால்": 654,
      "##லா": 655,
      "வீ": 656,
      "அமை": 657,
      "##ையும்": 658,
      "நீ": 659,
      "##டன்": 660,
      "##டுக": 661,
      "மீ": 662,
      "அதிக": 663,
      "##ப்பட்டு": 664,
      "குறி": 665,
      "##ளி": 666,
      "வா": 667,
      "சு": 668,
      "##ின்ற": 669,
      "##ழ்": 670,
      "##மா": 671,
      "தொடர்": 672,
      "##டை": 673,
      "நி": 674,
      "##ளின்": 675,
      "கே": 676,
      "இது": 677,
      "செய்ய": 678,
      "##பு": 679,
      "##னி": 680,
      "##ிறார்": 681,
      "தலை": 682,
      "##ிற்க": 683,
      "##ிருக்க": 684,
      "பல": 685,
      "தெரி": 686,
      "சே": 687,
      "##ியில்": 688,
      "##னு": 689,
      "தமி": 690,
      "மூ": 691,
      "##ண்ண": 692,
      "##வத": 693,
      "பி": 694,
      "இருந்த": 695,
      "##ிகள்": 696,
      "##பி": 697,
      "வை": 698,
      "எதி": 699,
      "அந்த": 700,
      "சி": 701,
      "என்ப": 702,
      "இந்திய": 703,
      "வருக": 704,
      "##நில": 705,
      "##ையை": 706,
      "##டுத்து": 707,
      "##நா": 708,
      "திரு": 709,
      "தெரிவி": 710,
      "##சிய": 711,
      "இட": 712,
      "நே": 713,
      "##களை": 714,
      "அவர்": 715,
      "வேண்டும்": 716,
      "ஏற்ப": 717,
      "##ிருந்த": 718,
      "##ும்ப": 719,
      "##வா": 720,
      "##வர": 721,
      "பய": 722,
      "##ாய்": 723,
      "##ாரண": 724,
      "இருக்க": 725,
      "சிற": 726,
      "20": 727,
      "##மு": 728,
      "##ார்கள்": 729,
      "து": 730,
      "##ற்கு": 731,
      "பார": 732,
      "சொ": 733,
      "நிற": 734,
      "##ய்": 735,
      "முதல்": 736,
      "##ியு": 737,
      "##த்தின்": 738,
      "ரா": 739,
      "அறி": 740,
      "##த்திய": 741,
      "##முக": 742,
      "##லி": 743,
      "##ங்கு": 744,
      "##ிற்கு": 745,
      "தீ": 746,
      "வெள": 747,
      "மக்க": 748,
      "ஆனால்": 749,
      "##ட்சி": 750,
      "##டிக்க": 751,
      "ஆக": 752,
      "##தை": 753,
      "##பெ": 754,
      "வந்த": 755,
      "##ங்களில்": 756,
      "கொண்ட": 757,
      "##ட்டி": 758,
      "##ள்ளார்": 759,
      "##ங்கள": 760,
      "சம": 761,
      "##ியை": 762,
      "##ஞ்ச": 763,
      "இர": 764,
      "சில": 765,
      "தி": 766,
      "##ர்த": 767,
      "##னா": 768,
      "##ப்பா": 769,
      "##ூர்": 770,
      "##பா": 771,
      "வெளிய": 772,
      "##வில்லை": 773,
      "##கா": 774,
      "##ோத": 775,
      "##வ்": 776,
      "##ிக்": 777,
      "##மைய": 778,
      "##ங்களை": 779,
      "##வாக": 780,
      "##ணை": 781,
      "##ருக்கு": 782,
      "##க்கிய": 783,
      "##லில்": 784,
      "##ோம்": 785,
      "##லும்": 786,
      "பண": 787,
      "##லு": 788,
      "உய": 789,
      "##ரே": 790,
      "##ன்ப": 791,
      "தா": 792,
      "##லம்": 793,
      "நடை": 794,
      "வர": 795,
      "##த்தி": 796,
      "முன்ன": 797,
      "##வது": 798,
      "##ழக": 799,
      "அமைச்ச": 800,
      "##லக": 801,
      "##ற்றி": 802,
      "தன": 803,
      "##ிலும்": 804,
      "##ழை": 805,
      "##வர்க": 806,
      "##ரிக்க": 807,
      "##ாம்": 808,
      "##்க்க": 809,
      "சந்த": 810,
      "##ருத்து": 811,
      "##மே": 812,
      "##மன்ற": 813,
      "##டுக்க": 814,
      "வழங்க": 815,
      "##வர்கள்": 816,
      "கடந்த": 817,
      "பிற": 818,
      "இருந்து": 819,
      "##ேன்": 820,
      "அரசு": 821,
      "நிலையில்": 822,
      "##டைய": 823,
      "##ப்பி": 824,
      "முடி": 825,
      "##ப்பட்டது": 826,
      "##ாது": 827,
      "முடிய": 828,
      "##ஷ்": 829,
      "அம": 830,
      "சட்ட": 831,
      "##ர்ந்த": 832,
      "##விட்ட": 833,
      "##ரோ": 834,
      "கூற": 835,
      "##ளும்": 836,
      "தேர்த": 837,
      "##ிடம்": 838,
      "போல": 839,
      "அப்ப": 840,
      "##ராக": 841,
      "##ியல்": 842,
      "சா": 843,
      "##ப்படும்": 844,
      "பிரத": 845,
      "##ின்றனர்": 846,
      "##ியின்": 847,
      "நடைபெ": 848,
      "பட": 849,
      "##வட்ட": 850,
      "##லாம்": 851,
      "செய்து": 852,
      "##ாமல்": 853,
      "சீ": 854,
      "##ப்படுக": 855,
      "##கவ": 856,
      "##ட்டில்": 857,
      "அனு": 858,
      "பகு": 859,
      "##்தான்": 860,
      "விச": 861,
      "மாநில": 862,
      "மாவட்ட": 863,
      "##ாளர்": 864,
      "பதி": 865,
      "##த்தார்": 866,
      "##னம்": 867,
      "##ிரி": 868,
      "கை": 869,
      "##ாவில்": 870,
      "##ரம்": 871,
      "பின்": 872,
      "##ங்கி": 873,
      "##ர்த்த": 874,
      "##ரில்": 875,
      "கிட": 876,
      "மோ": 877,
      "மேலும்": 878,
      "உட": 879,
      "##த்திற்கு": 880,
      "இல": 881,
      "ஆண்ட": 882,
      "என்ன": 883,
      "திட்ட": 884,
      "மிக": 885,
      "பாஜ": 886,
      "கூட்ட": 887,
      "##ெய": 888,
      "உள்ளது": 889,
      "##ழி": 890,
      "##ன்னை": 891,
      "##மர்": 892,
      "தொடர்ப": 893,
      "##ந்தது": 894,
      "##ல்லை": 895,
      "##ல்க": 896,
      "##வுக்கு": 897,
      "##போ": 898,
      "பொரு": 899,
      "பொது": 900,
      "தமிழ்": 901,
      "மக": 902,
      "பூ": 903,
      "மாத": 904,
      "##ாலும்": 905,
      "கட்ட": 906,
      "காரண": 907,
      "...": 908,
      "##ேச": 909,
      "இப்ப": 910,
      "##சா": 911,
      "இருப்ப": 912,
      "##தா": 913,
      "##ியாக": 914,
      "##களில்": 915,
      "ஆண்டு": 916,
      "ரூ": 917,
      "##00": 918,
      "அது": 919,
      "கால": 920,
      "குழ": 921,
      "அனை": 922,
      "குறித்து": 923,
      "அள": 924,
      "பர": 925,
      "##தால்": 926,
      "##ிருந்து": 927,
      "##ட்க": 928,
      "##ொரு": 929,
      "பத": 930,
      "எழு": 931,
      "ஆகிய": 932,
      "பாஜக": 933,
      "தான்": 934,
      "##தான்": 935,
      "##ட்டை": 936,
      "##்ச்ச": 937,
      "திர": 938,
      "##ஸ்ட": 939,
      "அதிகார": 940,
      "இருக்கும்": 941,
      "##ருக": 942,
      "##க்கி": 943,
      "##ின்றன": 944,
      "நிக": 945,
      "##ாவின்": 946,
      "##க்கம்": 947,
      "##தும்": 948,
      "சூ": 949,
      "##மும்": 950,
      "தற்ப": 951,
      "நெ": 952,
      "விவ": 953,
      "முன்": 954,
      "##ியா": 955,
      "##றைய": 956,
      "மருத்து": 957,
      "##க்கான": 958,
      "தொடர்ந்து": 959,
      "கண": 960,
      "கல": 961,
      "##வீ": 962,
      "நிறுவ": 963,
      "வரும்": 964,
      "கட்ச": 965,
      "##டும்": 966,
      "கிர": 967,
      "##ர்ச்ச": 968,
      "என்பது": 969,
      "##ப்பை": 970,
      "##ந்திர": 971,
      "##ிறார்கள்": 972,
      "##வம்": 973,
      "நீதி": 974,
      "##ள்ளனர்": 975,
      "உறு": 976,
      "##ங்களுக்கு": 977,
      "##ங்": 978,
      "##த்திர": 979,
      "சம்ப": 980,
      "##ப்பட்டுள்ளது": 981,
      "##ளாக": 982,
      "தனது": 983,
      "குறிப்ப": 984,
      "##ொண்ட": 985,
      "##றுக": 986,
      "மாண": 987,
      "கொண்டு": 988,
      "இய": 989,
      "கி": 990,
      "##திக்க": 991,
      "ராஜ": 992,
      "நான்": 993,
      "பேச": 994,
      "மக்கள்": 995,
      "பக": 996,
      "ஆத": 997,
      "தமிழக": 998,
      "மணி": 999,
      "தேதி": 1000,
      "தர": 1001,
      "அவர்க": 1002,
      "நக": 1003,
      "சென்னை": 1004,
      "##கம்": 1005,
      "##ியது": 1006,
      "##ையே": 1007,
      "வக": 1008,
      "கிடை": 1009,
      "போட்ட": 1010,
      "பழ": 1011,
      "##ாவது": 1012,
      "##ட்ப": 1013,
      "வருகிறது": 1014,
      "கரு": 1015,
      "அடி": 1016,
      "##ப்படுகிறது": 1017,
      "டி": 1018,
      "முக்கிய": 1019,
      "போலீ": 1020,
      "சேர்ந்த": 1021,
      "என்றும்": 1022,
      "விர": 1023,
      "குறை": 1024,
      "##ினார்": 1025,
      "உத": 1026,
      "இல்லை": 1027,
      "##ணம்": 1028,
      "காங்க": 1029,
      "இன்று": 1030,
      "##ப்படுத்த": 1031,
      "அவர": 1032,
      "##தியில்": 1033,
      "##ையா": 1034,
      "##ம்ம": 1035,
      "##ெல்ல": 1036,
      "##ந்தை": 1037,
      "நோ": 1038,
      "கூறி": 1039,
      "விள": 1040,
      "##டம்": 1041,
      "காங்கிர": 1042,
      "உண": 1043,
      "பாது": 1044,
      "##ாரம்": 1045,
      "எதிர்": 1046,
      "##விர": 1047,
      "தற்போது": 1048,
      "##ொள்ள": 1049,
      "##வடிக்க": 1050,
      "##தல்": 1051,
      "நடவடிக்க": 1052,
      "##ேய": 1053,
      "##சு": 1054,
      "அமைச்சர்": 1055,
      "பாதுகா": 1056,
      "எந்த": 1057,
      "202": 1058,
      "அல": 1059,
      "##த்துக்கு": 1060,
      "தெரிவித்து": 1061,
      "உலக": 1062,
      "தோ": 1063,
      "புக": 1064,
      "##பதி": 1065,
      "ஸ்ட": 1066,
      "வரை": 1067,
      "மட்டு": 1068,
      "தமிழ்நா": 1069,
      "##போது": 1070,
      "##ீர்": 1071,
      "##ழ்ச்ச": 1072,
      "அறிவி": 1073,
      "காவ": 1074,
      "பிறகு": 1075,
      "தகவ": 1076,
      "##தாகவும்": 1077,
      "மீது": 1078,
      "ஆர": 1079,
      "##ர்க்க": 1080,
      "பெற்ற": 1081,
      "குற்ற": 1082,
      "##மார்": 1083,
      "சொல்ல": 1084,
      "நேர": 1085,
      "தொழ": 1086,
      "மேற்க": 1087,
      "##ோர்": 1088,
      "இலங்க": 1089,
      "##ஸ்த": 1090,
      "##ாரி": 1091,
      "மூலம்": 1092,
      "பெய": 1093,
      "##ோக": 1094,
      "##ிகளை": 1095,
      "செல்ல": 1096,
      "வந்து": 1097,
      "அவர்கள்": 1098,
      "உரு": 1099,
      "எப்ப": 1100,
      "##ன்க": 1101,
      "##ர்வு": 1102,
      "போன்ற": 1103,
      "\",": 1104,
      "##ரவ": 1105,
      "தெரிய": 1106,
      "ஆண்டுக": 1107,
      "என்க": 1108,
      "##ல்ப": 1109,
      "அல்ல": 1110,
      "##ிருக்கிறது": 1111,
      "மத்திய": 1112,
      "##யில்": 1113,
      "##வரை": 1114,
      "தலைவர்": 1115,
      "வய": 1116,
      "இல்ல": 1117,
      "நிர்": 1118,
      "##வ்வ": 1119,
      "ஆர்": 1120,
      "உத்த": 1121,
      "ஸ்": 1122,
      "சென்ற": 1123,
      "காங்கிரஸ்": 1124,
      "##ரிச": 1125,
      "##வரும்": 1126,
      "சமூ": 1127,
      "தூ": 1128,
      "##ந்": 1129,
      "##றும்": 1130,
      "நடவடிக்கை": 1131,
      "உள்ளிட்ட": 1132,
      "வில": 1133,
      "அதை": 1134,
      "கூட": 1135,
      "##னார்": 1136,
      "##ையின்": 1137,
      "##பர்": 1138,
      "வேலை": 1139,
      "மருத்துவ": 1140,
      "அதிமுக": 1141,
      "##முறை": 1142,
      "அண": 1143,
      "குட": 1144,
      "நிறுவன": 1145,
      "விசாரண": 1146,
      "கூறுக": 1147,
      "பார்த்த": 1148,
      "வேண்ட": 1149,
      "##கர்": 1150,
      "##க்காக": 1151,
      "##ோடு": 1152,
      "எம்": 1153,
      "அதே": 1154,
      "##ள்க": 1155,
      "போரா": 1156,
      "இந்தியா": 1157,
      "கவ": 1158,
      "போது": 1159,
      "##க்கூ": 1160,
      "##ிலிருந்து": 1161,
      "##ைக்கு": 1162,
      "##ஆம்": 1163,
      "##ங்கே": 1164,
      "மொ": 1165,
      "##ற்காக": 1166,
      "##ப்பில்": 1167,
      "##ரின்": 1168,
      "அணி": 1169,
      "வெளி": 1170,
      "ஆம்": 1171,
      "வாய்": 1172,
      "நடத்த": 1173,
      "##ரீ": 1174,
      "##்து": 1175,
      "##ாகி": 1176,
      "##தம்": 1177,
      "##ாளர்க": 1178,
      "##ஜ்": 1179,
      "19": 1180,
      "##ாளர்கள்": 1181,
      "பிரதமர்": 1182,
      "10": 1183,
      "தேர்தல்": 1184,
      "முய": 1185,
      "அமெ": 1186,
      "##கள": 1187,
      "இரண்டு": 1188,
      "சமூக": 1189,
      "அமெரிக்க": 1190,
      "##ப்பத": 1191,
      "##ல்வே": 1192,
      "ஒன்ற": 1193,
      "திமுக": 1194,
      "##விட": 1195,
      "கண்ட": 1196,
      "வள": 1197,
      "##க்கப்பட்ட": 1198,
      "##ணைய": 1199,
      "பெரும்": 1200,
      "கட்சி": 1201,
      "குடும்ப": 1202,
      "விழ": 1203,
      "##வில": 1204,
      "பேசிய": 1205,
      "##டா": 1206,
      "ஏற்படுத்த": 1207,
      "அரசியல்": 1208,
      "புதிய": 1209,
      "எடுத்து": 1210,
      "முதல": 1211,
      "இதனால்": 1212,
      "அவரது": 1213,
      "##ப்பது": 1214,
      "தொடங்க": 1215,
      "பெரிய": 1216,
      "திரும": 1217,
      "##ிருக்கிறார்": 1218,
      "##ென": 1219,
      "##டுப": 1220,
      "சந்தி": 1221,
      "வைத்து": 1222,
      "மாற்ற": 1223,
      "ஆய": 1224,
      "வழக்க": 1225,
      "##யில": 1226,
      "##ாதார": 1227,
      "தின": 1228,
      "பயன்ப": 1229,
      "தய": 1230,
      "##ாள்": 1231,
      "##ல்வ": 1232,
      "##ற்கான": 1233,
      "அழை": 1234,
      "##ார்த்த": 1235,
      "இதில்": 1236,
      "இருக்கிறது": 1237,
      "நிலை": 1238,
      "குழந்தை": 1239,
      "##ுக்கு": 1240,
      "செய்": 1241,
      "##றிய": 1242,
      "##த்தது": 1243,
      "##ேயே": 1244,
      "##க்கள்": 1245,
      "இஸ்": 1246,
      "சார்": 1247,
      "நேற்று": 1248,
      "நினை": 1249,
      "##ல்வேறு": 1250,
      "பல்வேறு": 1251,
      "சென்று": 1252,
      "உத்தர": 1253,
      "##ாவை": 1254,
      "##ர்ந்து": 1255,
      "##தான": 1256,
      "நீதிமன்ற": 1257,
      "##ிகி": 1258,
      "நம்ப": 1259,
      "பக்த": 1260,
      "கொள்ள": 1261,
      "##ச்சி": 1262,
      "எல்ல": 1263,
      "##ியுள்ளது": 1264,
      "பெண": 1265,
      "மீண்டும்": 1266,
      "எண்ண": 1267,
      "நிலைய": 1268,
      "ஆய்": 1269,
      "##ாங்க": 1270,
      "##ப்பட்டுள்ள": 1271,
      "வழக்கு": 1272,
      "பள்ள": 1273,
      "அப்போது": 1274,
      "கீ": 1275,
      "பேர்": 1276,
      "அதன்": 1277,
      "கலந்து": 1278,
      "வாழ": 1279,
      "201": 1280,
      "பார்க்க": 1281,
      "##ட்டும்": 1282,
      "மன": 1283,
      "முதல்வர்": 1284,
      "நடி": 1285,
      "எஸ்": 1286,
      "கட்டு": 1287,
      "##ஜி": 1288,
      "##விட்டு": 1289,
      "இணை": 1290,
      "லட்ச": 1291,
      "காண": 1292,
      "பகுதி": 1293,
      "இன்ன": 1294,
      "அளி": 1295,
      "இற": 1296,
      "பிரி": 1297,
      "தொடர்பாக": 1298,
      "ரஷ": 1299,
      "##எஸ்": 1300,
      "வழி": 1301,
      "நடந்த": 1302,
      "##டக": 1303,
      "##ெட்": 1304,
      "அங்கு": 1305,
      "##ழுவ": 1306,
      "பெரு": 1307,
      "பட்ட": 1308,
      "##ைகள்": 1309,
      "நடைபெற்ற": 1310,
      "##ந்தி": 1311,
      "##ரான": 1312,
      "தேசிய": 1313,
      "போராட்ட": 1314,
      "அதிகரி": 1315,
      "பொறு": 1316,
      "##நாய": 1317,
      "வீர": 1318,
      "தீர்": 1319,
      "முறை": 1320,
      "##டுகள்": 1321,
      "தங்க": 1322,
      "எடுக்க": 1323,
      "நிர்வாக": 1324,
      "##ளுடன்": 1325,
      "ரஷ்ய": 1326,
      "பாதுகாப்பு": 1327,
      "பால": 1328,
      "மட்டுமே": 1329,
      "##ையாக": 1330,
      "செயல": 1331,
      "வெற்றி": 1332,
      "ஈடுப": 1333,
      "இந்": 1334,
      "##வின்": 1335,
      "##த்துறை": 1336,
      "கேள்": 1337,
      "அடுத்த": 1338,
      "பொருள": 1339,
      "##ிட்டு": 1340,
      "அனைத்து": 1341,
      "##ிறேன்": 1342,
      "தெரிவித்தார்": 1343,
      "##ற்ச": 1344,
      "##தில்": 1345,
      "எட": 1346,
      "##வதாக": 1347,
      "நிகழ்ச்ச": 1348,
      "சிறப்பு": 1349,
      "வாக்கு": 1350,
      "பெற்று": 1351,
      "அல்லது": 1352,
      "அதில்": 1353,
      "சர்": 1354,
      "நடந்தது": 1355,
      "##ல்கள்": 1356,
      "இதை": 1357,
      "##ிருந்தார்": 1358,
      "##யம்": 1359,
      "##பர": 1360,
      "அனும": 1361,
      "திற": 1362,
      "##டியாக": 1363,
      "என்பதை": 1364,
      "##ளுக்கும்": 1365,
      "காரணமாக": 1366,
      "பயன்படுத்த": 1367,
      "நிய": 1368,
      "##ிறோம்": 1369,
      "அக": 1370,
      "##ளுமன்ற": 1371,
      "ஸ்டால": 1372,
      "விடு": 1373,
      "##ஷ்ட": 1374,
      "##ிருக்கும்": 1375,
      "பாதி": 1376,
      "மறு": 1377,
      "வகையில்": 1378,
      "##நிலையில்": 1379,
      "சுவ": 1380,
      "##களுக்கு": 1381,
      "##ஸ்க": 1382,
      "இருந்தது": 1383,
      "ம்": 1384,
      "##த்தம்": 1385,
      "செயல்ப": 1386,
      "எடப்பா": 1387,
      "##ியும்": 1388,
      "##ொண்டு": 1389,
      "##ட்டின்": 1390,
      "கைது": 1391,
      "என்றார்": 1392,
      "படி": 1393,
      "வைத்த": 1394,
      "கூறினார்": 1395,
      "இப்போது": 1396,
      "##ச்சு": 1397,
      "##ல்வி": 1398,
      "ரூப": 1399,
      "கருத்து": 1400,
      "நிறை": 1401,
      "##வெ": 1402,
      "பின்னர்": 1403,
      "##சை": 1404,
      "ஏற்பட்ட": 1405,
      "முடிவு": 1406,
      "சக": 1407,
      "வருகின்றனர்": 1408,
      "அருக": 1409,
      "##்கு": 1410,
      "நல்ல": 1411,
      "குழு": 1412,
      "##வான": 1413,
      "##டைந்த": 1414,
      "வெளியே": 1415,
      "##ர்களுக்கு": 1416,
      "##சிக": 1417,
      "##த்துடன்": 1418,
      "வல": 1419,
      "##ோச": 1420,
      "மது": 1421,
      "##ாகு": 1422,
      "##ளா": 1423,
      "ஆட்ச": 1424,
      "கிராம": 1425,
      "தனி": 1426,
      "``": 1427,
      "##ருக்கும்": 1428,
      "##மையான": 1429,
      "சிறு": 1430,
      "மிகவும்": 1431,
      "##ினர்": 1432,
      "சிவ": 1433,
      "தொகு": 1434,
      "விஷ": 1435,
      "##யா": 1436,
      "எடப்பாடி": 1437,
      "செலு": 1438,
      "##சாய": 1439,
      "முழு": 1440,
      "##லாக": 1441,
      "##ியர்": 1442,
      "துறை": 1443,
      "தாக்கு": 1444,
      "இலங்கை": 1445,
      "முக": 1446,
      "##ஸ்ட்": 1447,
      "அறிக்க": 1448,
      "##ம்பி": 1449,
      "டெல்ல": 1450,
      "வச": 1451,
      "##டியோ": 1452,
      "##தியாக": 1453,
      "தெரிவித்த": 1454,
      "##ையடுத்து": 1455,
      "##்ட்": 1456,
      "மாதம்": 1457,
      "##மது": 1458,
      "##லிய": 1459,
      "##வதற்கு": 1460,
      "##ணுவ": 1461,
      "விரு": 1462,
      "##ப்படு": 1463,
      "##பார": 1464,
      "##ற்றை": 1465,
      "அலுவ": 1466,
      "விமான": 1467,
      "##ருக்க": 1468,
      "நாடுக": 1469,
      "எப்படி": 1470,
      "##மையாக": 1471,
      "முடியும்": 1472,
      "காவல": 1473,
      "##னாதி": 1474,
      "##லுக்கு": 1475,
      "கொரோ": 1476,
      "குறித்த": 1477,
      "உருவா": 1478,
      "நாம்": 1479,
      "##ளவு": 1480,
      "அதற்கு": 1481,
      "ஆளு": 1482,
      "##நி": 1483,
      "##ச்சை": 1484,
      "##தே": 1485,
      "ஜனாதி": 1486,
      "முன்னாள்": 1487,
      "##ளிடம்": 1488,
      "##றையில்": 1489,
      "தவ": 1490,
      "செல்": 1491,
      "##ராஜ": 1492,
      "##படி": 1493,
      "செய்யப்பட்ட": 1494,
      "தேவ": 1495,
      "தமிழ்நாடு": 1496,
      "##ிலேயே": 1497,
      "பிடி": 1498,
      "##ையான": 1499,
      "கார": 1500,
      "##ப்பின": 1501,
      "ஆல": 1502,
      "என்கிறார்": 1503,
      "விசாரணை": 1504,
      "ஜெய": 1505,
      "வாய்ப்பு": 1506,
      "சோ": 1507,
      "பார்": 1508,
      "ராம": 1509,
      "##னித": 1510,
      "##ர்களை": 1511,
      "மருத்துவம": 1512,
      "##ளம்": 1513,
      "நாங்கள்": 1514,
      "சாத": 1515,
      "விவசாய": 1516,
      "பெண்": 1517,
      "பணி": 1518,
      "##விய": 1519,
      "இதற்கு": 1520,
      "வாங்க": 1521,
      "கோடி": 1522,
      "வார": 1523,
      "டெ": 1524,
      "பதிவு": 1525,
      "##ப்பாக": 1526,
      "தலைமை": 1527,
      "நான": 1528,
      "##சிர": 1529,
      "பற்றி": 1530,
      "பழனி": 1531,
      "##ிகளில்": 1532,
      "மின்": 1533,
      "பொருளாதார": 1534,
      "தொழில்": 1535,
      "சிக்க": 1536,
      "உற": 1537,
      "##ற்சி": 1538,
      "முடியாது": 1539,
      "இஸ்ரே": 1540,
      "சத": 1541,
      "அங்க": 1542,
      "விவக": 1543,
      "இந்நிலையில்": 1544,
      "கடை": 1545,
      "மர": 1546,
      "##ேக": 1547,
      "##ிலான": 1548,
      "##நர்": 1549,
      "கோவில": 1550,
      "12": 1551,
      "வாக": 1552,
      "உயர்": 1553,
      "##ிருப்ப": 1554,
      "தகவல்": 1555,
      "##ாமி": 1556,
      "விமர்": 1557,
      "பூஜ": 1558,
      "ஸ்டாலின்": 1559,
      "உரி": 1560,
      "முழுவ": 1561,
      "நடந்து": 1562,
      "விட": 1563,
      "எதிராக": 1564,
      "ஒன்று": 1565,
      "பாதிக்க": 1566,
      "தாக்க": 1567,
      "ஒருவர்": 1568,
      "வங்க": 1569,
      "##ற்றிய": 1570,
      "உணவு": 1571,
      "30": 1572,
      "##களின்": 1573,
      "அடிப்பட": 1574,
      "ஒவ்வ": 1575,
      "##ிருந்தது": 1576,
      "தேர்தலில்": 1577,
      "##சாமி": 1578,
      "தீவிர": 1579,
      "கொடுத்த": 1580,
      "ஸ்ரீ": 1581,
      "##கிறது": 1582,
      "##ண்ட்": 1583,
      "##ைப்பட": 1584,
      "அரு": 1585,
      "முன்பு": 1586,
      "##ாட்டு": 1587,
      "15": 1588,
      "எனவே": 1589,
      "##வர்களுக்கு": 1590,
      "கொரோனா": 1591,
      "##ிகளுக்கு": 1592,
      "##ிக்கை": 1593,
      "குறிப்பிட": 1594,
      "##தியை": 1595,
      "மணிக்கு": 1596,
      "பக்தர்கள்": 1597,
      "##ப்பெ": 1598,
      "தெரிவிக்க": 1599,
      "##..": 1600,
      "பயண": 1601,
      "மூல": 1602,
      "விஜ": 1603,
      "அவரை": 1604,
      "கேட்ட": 1605,
      "மதி": 1606,
      "மெ": 1607,
      "வீடியோ": 1608,
      "##ர்ம": 1609,
      "நாட்க": 1610,
      "அண்ண": 1611,
      "பகுதியில்": 1612,
      "உடன": 1613,
      "கன": 1614,
      "##ப்ட": 1615,
      "காலை": 1616,
      "##கை": 1617,
      "##பிஎஸ்": 1618,
      "சிகி": 1619,
      "##னின்": 1620,
      "##ன்கள்": 1621,
      "எதிர்க": 1622,
      "நிறு": 1623,
      "ஜன": 1624,
      "##பை": 1625,
      "##ங்களின்": 1626,
      "பிரச்": 1627,
      "ஆதர": 1628,
      "ஏற்க": 1629,
      "மூன்று": 1630,
      "##மையில்": 1631,
      "##னுக்கு": 1632,
      "சார்ப": 1633,
      "வெள்ள": 1634,
      "தன்": 1635,
      "##ுடன்": 1636,
      "ராணுவ": 1637,
      "##ியுள்ளார்": 1638,
      "##ீடு": 1639,
      "ஆய்வு": 1640,
      "நடத்தி": 1641,
      "##ில்லை": 1642,
      "##ர்களின்": 1643,
      "ஒரே": 1644,
      "##ர்ச்சி": 1645,
      "நிகழ்": 1646,
      "அவருக்கு": 1647,
      "##நீ": 1648,
      "ட்": 1649,
      "நிதி": 1650,
      "யா": 1651,
      "அதிகாரிகள்": 1652,
      "பாட": 1653,
      "##த்தால்": 1654,
      "ஜூ": 1655,
      "பரி": 1656,
      "##த்துள்ளது": 1657,
      "இரண்ட": 1658,
      "##ஸ்தான்": 1659,
      "கோவில்": 1660,
      "சங்க": 1661,
      "##னில்": 1662,
      "காவல்து": 1663,
      "தொழில": 1664,
      "##ார்க": 1665,
      "எனக்கு": 1666,
      "காரணம்": 1667,
      "##சார்": 1668,
      "##ாரா": 1669,
      "வேறு": 1670,
      "##த்திற்க": 1671,
      "11": 1672,
      "உள்ளன": 1673,
      "##மீ": 1674,
      "##க்கோ": 1675,
      "ராகு": 1676,
      "உண்": 1677,
      "##வன்": 1678,
      "மட்டும்": 1679,
      "ஒவ்வொரு": 1680,
      "ஆயிர": 1681,
      "##நிலை": 1682,
      "கேள்வி": 1683,
      "குறிப்பிட்ட": 1684,
      "சொன்ன": 1685,
      "உச்ச": 1686,
      "புது": 1687,
      "தடை": 1688,
      "கூறிய": 1689,
      "ஜெ": 1690,
      "வைக்க": 1691,
      "மோடி": 1692,
      "கடி": 1693,
      "##ியுள்ள": 1694,
      "வேண்டிய": 1695,
      "சுற்று": 1696,
      "ஜனாதிபதி": 1697,
      "##ந்த்": 1698,
      "இதன்": 1699,
      "யார": 1700,
      "##ளையும்": 1701,
      "இன்னும்": 1702,
      "மனை": 1703,
      "விளையா": 1704,
      "நடக்க": 1705,
      "##ர்த்து": 1706,
      "அபி": 1707,
      "செல": 1708,
      "கொடுக்க": 1709,
      "கடு": 1710,
      "##ப்போ": 1711,
      "கல்ல": 1712,
      "சுமார்": 1713,
      "##னும்": 1714,
      "ஆட்சி": 1715,
      "ஊழ": 1716,
      "ஆட்ட": 1717,
      "தமிழ": 1718,
      "இந்தப்": 1719,
      "##ரிடம்": 1720,
      "##வதை": 1721,
      "##த்தா": 1722,
      "இந்து": 1723,
      "கொள்க": 1724,
      "##த்தான்": 1725,
      "சூழ": 1726,
      "வயது": 1727,
      "##த்தையும்": 1728,
      "சரிய": 1729,
      "போட்டிய": 1730,
      "கர்": 1731,
      "முழுவதும்": 1732,
      "குடிய": 1733,
      "##ாட்ட": 1734,
      "போலீஸ": 1735,
      "விட்டு": 1736,
      "##ப்புகள்": 1737,
      "உடல்": 1738,
      "##ம்மன்": 1739,
      "துணை": 1740,
      "சம்பவம்": 1741,
      "##லைக்க": 1742,
      "கோயில": 1743,
      "பெற": 1744,
      "##விழ": 1745,
      "இப்படி": 1746,
      "நிர": 1747,
      "##ெல்லாம்": 1748,
      "##ட்கள்": 1749,
      "இடங்களில்": 1750,
      "தவிர": 1751,
      "சம்பவ": 1752,
      "நு": 1753,
      "ஏன்": 1754,
      "நேரத்தில்": 1755,
      "விழா": 1756,
      "நாடா": 1757,
      "##சார": 1758,
      "மனித": 1759,
      "உயிரி": 1760,
      "##திகள்": 1761,
      "டெல்லி": 1762,
      "தெரிவித்துள்ளார்": 1763,
      "000": 1764,
      "நாடாளுமன்ற": 1765,
      "மோச": 1766,
      "இங்கு": 1767,
      "##ீர": 1768,
      "ரூபாய்": 1769,
      "அலுவலக": 1770,
      "##டுப்ப": 1771,
      "குரு": 1772,
      "கொலை": 1773,
      "தொடர்பான": 1774,
      "இவர்": 1775,
      "ஜி": 1776,
      "செய்யும்": 1777,
      "விரும்ப": 1778,
      "தன்ன": 1779,
      "தேர்வு": 1780,
      "பேர": 1781,
      "##ண்டி": 1782,
      "உறுதி": 1783,
      "இழ": 1784,
      "உயிரிழ": 1785,
      "பதவி": 1786,
      "பங்கே": 1787,
      "பாகி": 1788,
      "லட்சம்": 1789,
      "##லின்": 1790,
      "நாள்": 1791,
      "நம்": 1792,
      "மத": 1793,
      "##ப்பிர": 1794,
      "கீழ்": 1795,
      "##ந்துள்ளது": 1796,
      "இளை": 1797,
      "தங்கள்": 1798,
      "##ருந்து": 1799,
      "கோயில்": 1800,
      "##ேஷ்": 1801,
      "##வராக": 1802,
      "தேவை": 1803,
      "ரயில்": 1804,
      "##பத்தில்": 1805,
      "##த்தக்க": 1806,
      "##்தி": 1807,
      "##த்தக": 1808,
      "இறு": 1809,
      "##ுகள்": 1810,
      "பார்த்து": 1811,
      "இடையே": 1812,
      "இளைஞ": 1813,
      "ஆணைய": 1814,
      "##மைச்ச": 1815,
      "வீட்டில்": 1816,
      "இதையடுத்து": 1817,
      "##வார்": 1818,
      "அரசாங்க": 1819,
      "##ம்பர்": 1820,
      "##ோதனை": 1821,
      "##விட்டது": 1822,
      "##ரிக்கை": 1823,
      "வாகன": 1824,
      "மேற்ப": 1825,
      "##ளுக்கான": 1826,
      "##ஸ்வர": 1827,
      "##ினி": 1828,
      "##லைய": 1829,
      "போக": 1830,
      "##ினால்": 1831,
      "##க்கெ": 1832,
      "##ட்டுக்கு": 1833,
      "மி": 1834,
      "##ளால்": 1835,
      "##ினும்": 1836,
      "கேட்டு": 1837,
      "கல்வி": 1838,
      "அடை": 1839,
      "வருகிறார்": 1840,
      "பெண்க": 1841,
      "கள": 1842,
      "மேற்கொள்ள": 1843,
      "##க்குறி": 1844,
      "கூறப்படுகிறது": 1845,
      "காந்தி": 1846,
      "##ாச": 1847,
      "மாவட்டம்": 1848,
      "##களும்": 1849,
      "பிரதேச": 1850,
      "##ும்போது": 1851,
      "##க்கொண்ட": 1852,
      "அளிக்க": 1853,
      "உறுப்பின": 1854,
      "##த்திலும்": 1855,
      "இன்": 1856,
      "##ட்டிய": 1857,
      "வட": 1858,
      "##்கா": 1859,
      "கூட்டணி": 1860,
      "விரை": 1861,
      "பெண்கள்": 1862,
      "ஆலோச": 1863,
      "##ோதும்": 1864,
      "இணைய": 1865,
      "##பே": 1866,
      "##ேற்ற": 1867,
      "ஆன": 1868,
      "சிகிச்சை": 1869,
      "கும்ப": 1870,
      "எதிர்க்க": 1871,
      "##றுத்த": 1872,
      "அம்": 1873,
      "மைய": 1874,
      "மேல்": 1875,
      "டிர": 1876,
      "##்டர்": 1877,
      "எல்": 1878,
      "பெரும்ப": 1879,
      "கண்டு": 1880,
      "##ிழ": 1881,
      "சர்வத": 1882,
      "##த்தனர்": 1883,
      "நீங்கள்": 1884,
      "சர்வதேச": 1885,
      "பயி": 1886,
      "விஷய": 1887,
      "ஓபிஎஸ்": 1888,
      "##ப்பின்": 1889,
      "வேட்ப": 1890,
      "பந்து": 1891,
      "##ரல்": 1892,
      "இந்தியாவில்": 1893,
      "வாழ்": 1894,
      "நூ": 1895,
      "வாழ்க்க": 1896,
      "##னையில்": 1897,
      "துவ": 1898,
      "அரசிய": 1899,
      "சார்பில்": 1900,
      "##ஷ்ண": 1901,
      "திருப்ப": 1902,
      "##செ": 1903,
      "##ியார்": 1904,
      "கட்சியின்": 1905,
      "பிரச்னை": 1906,
      "200": 1907,
      "##செய": 1908,
      "##நாட்டு": 1909,
      "உட்ப": 1910,
      "முறைய": 1911,
      "மட்டும": 1912,
      "பஞ்ச": 1913,
      "##தற்கு": 1914,
      "கெ": 1915,
      "##ஸ்தான": 1916,
      "##மையை": 1917,
      "செய்தி": 1918,
      "##ங்கும்": 1919,
      "புற": 1920,
      "வந்தது": 1921,
      "இரவு": 1922,
      "சொந்த": 1923,
      "சரி": 1924,
      "##an": 1925,
      "நடைபெற்றது": 1926,
      "18": 1927,
      "அதன்ப": 1928,
      "அளவில்": 1929,
      "கொடுத்து": 1930,
      "##ல்களை": 1931,
      "போலீசார்": 1932,
      "##ங்களும்": 1933,
      "##ானது": 1934,
      "ஏற்பட்டு": 1935,
      "அதேபோ": 1936,
      "விட்ட": 1937,
      "##த்துவ": 1938,
      "பிபி": 1939,
      "பீ": 1940,
      "##ற்றில்": 1941,
      "##ம்பெ": 1942,
      "அரசின்": 1943,
      "கிடைக்க": 1944,
      "அடைய": 1945,
      "##மொ": 1946,
      "வரலா": 1947,
      "ஏற்று": 1948,
      "##நக": 1949,
      "விதி": 1950,
      "##ண்ப": 1951,
      "எது": 1952,
      "##மூ": 1953,
      "அற": 1954,
      "உக்": 1955,
      "சீன": 1956,
      "படை": 1957,
      "##க்கில்": 1958,
      "##ங்கிய": 1959,
      "கல்லூ": 1960,
      "##க்கத்தில்": 1961,
      "##ிடையே": 1962,
      "திரும்ப": 1963,
      "மண்ட": 1964,
      "##ுள்ள": 1965,
      "அழைத்து": 1966,
      "அருகே": 1967,
      "ஒது": 1968,
      "இதுவரை": 1969,
      "##வர்களை": 1970,
      "கூறுகிறார்": 1971,
      "பரபர": 1972,
      "மாலை": 1973,
      "நப": 1974,
      "ஆப": 1975,
      "##நிதி": 1976,
      "ஏற்பா": 1977,
      "##ாப்": 1978,
      "திட": 1979,
      "மை": 1980,
      "##ளே": 1981,
      "நாடு": 1982,
      "போர்": 1983,
      "செயல்": 1984,
      "இதனை": 1985,
      "விலை": 1986,
      "பணம்": 1987,
      "##ிகளின்": 1988,
      "##மெ": 1989,
      "##ரன்": 1990,
      "##ஷன்": 1991,
      "பல்க": 1992,
      "சிங்": 1993,
      "ரி": 1994,
      "##சம்": 1995,
      "காவல்": 1996,
      "வகு": 1997,
      "##பாடு": 1998,
      "தீர்மான": 1999,
      "##சன்": 2000,
      "சென்ன": 2001,
      "நெருக்க": 2002,
      "உக்ரை": 2003,
      "##புரம்": 2004,
      "உங்கள்": 2005,
      "##ணிய": 2006,
      "அனுமதி": 2007,
      "அனுப்ப": 2008,
      "காய": 2009,
      "##ஃப்": 2010,
      "அதிபர்": 2011,
      "கண்ண": 2012,
      "சுக": 2013,
      "எனவும்": 2014,
      "14": 2015,
      "பொதும": 2016,
      "##த்தும்": 2017,
      "பன்ன": 2018,
      "ஜோ": 2019,
      "பை": 2020,
      "##ுத": 2021,
      "சின்": 2022,
      "##நாத": 2023,
      "சமீ": 2024,
      "வேக": 2025,
      "50": 2026,
      "பரிச": 2027,
      "##த்துக்": 2028,
      "சுவாமி": 2029,
      "##வுடன்": 2030,
      "ரஷ்யா": 2031,
      "குடி": 2032,
      "பிரச்ச": 2033,
      "##ாக்": 2034,
      "யார்": 2035,
      "##தலை": 2036,
      "##வாறு": 2037,
      "கிள": 2038,
      "ரசிக": 2039,
      "##க்களை": 2040,
      "##வரின்": 2041,
      "மழை": 2042,
      "மகி": 2043,
      "அதனால்": 2044,
      "என்றால்": 2045,
      "செயலாளர்": 2046,
      "2022": 2047,
      "கிடைக்கும்": 2048,
      "##ள்ளன": 2049,
      "##வார்கள்": 2050,
      "முதலமைச்ச": 2051,
      "25": 2052,
      "நிறைவே": 2053,
      "புகார்": 2054,
      "நாட்டின்": 2055,
      "உள்ளனர்": 2056,
      "தொடங்கி": 2057,
      "எனக்": 2058,
      "அப்படி": 2059,
      "ஆளுநர்": 2060,
      "##வின": 2061,
      "குறிப்பி": 2062,
      "இல்லாத": 2063,
      "##ாரத்தில்": 2064,
      "நீதிபதி": 2065,
      "விமர்ச": 2066,
      "பேச்ச": 2067,
      "சந்திர": 2068,
      "நாய": 2069,
      "##க்கொள்ள": 2070,
      "##ப்பாளர்": 2071,
      "இந்தக்": 2072,
      "தயார": 2073,
      "##வர்களின்": 2074,
      "பள்ளி": 2075,
      "##ரம": 2076,
      "##ரிக": 2077,
      "ரீ": 2078,
      "##டர்": 2079,
      "##லர்": 2080,
      "##க்கொ": 2081,
      "போலீஸார்": 2082,
      "முன்ப": 2083,
      "குற்றம்": 2084,
      "##ூரில்": 2085,
      "##லே": 2086,
      "திருமண": 2087,
      "13": 2088,
      "செய்தனர்": 2089,
      "இயக்கு": 2090,
      "##er": 2091,
      "பாதிப்பு": 2092,
      "எடுத்த": 2093,
      "உதவி": 2094,
      "##தள": 2095,
      "##டுகளை": 2096,
      "தள": 2097,
      "##ள்ளி": 2098,
      "அமைப்பு": 2099,
      "வைர": 2100,
      "அச": 2101,
      "திட்டம்": 2102,
      "பத்திர": 2103,
      "##வருக்கு": 2104,
      "யு": 2105,
      "##ூட": 2106,
      "இள": 2107,
      "அதாவது": 2108,
      "உரிமை": 2109,
      "##க்கிர": 2110,
      "##த்தைச்": 2111,
      "சுத": 2112,
      "##கி": 2113,
      "##ேகம்": 2114,
      "##ம்பு": 2115,
      "##வதற்கான": 2116,
      "##ங்கா": 2117,
      "ஊடக": 2118,
      "##ரையா": 2119,
      "##ாலி": 2120,
      "மேற்பட்ட": 2121,
      "ஒப்ப": 2122,
      "இஸ்ரேல்": 2123,
      "உள்": 2124,
      "கைய": 2125,
      "யூ": 2126,
      "வருட": 2127,
      "தொடர்பு": 2128,
      "ஆகியோர்": 2129,
      "ஆசிர": 2130,
      "பதவ": 2131,
      "##ிருஷ்ண": 2132,
      "அட": 2133,
      "வெற்ற": 2134,
      "நீர்": 2135,
      "##வரு": 2136,
      "வலியு": 2137,
      "##ந்தார்": 2138,
      "விற்ப": 2139,
      "கலை": 2140,
      "##ியான": 2141,
      "##வுகள்": 2142,
      "குறிப்பிடத்தக்க": 2143,
      "இடை": 2144,
      "கேர": 2145,
      "நேரம்": 2146,
      "தற்க": 2147,
      "எதிர்பார": 2148,
      "##க்கூடிய": 2149,
      "விப": 2150,
      "##மாறு": 2151,
      "திருமணம்": 2152,
      "மாணவ": 2153,
      "நல": 2154,
      "நீண்ட": 2155,
      "இருக்கிறார்": 2156,
      "##ளிக்க": 2157,
      "##ணா": 2158,
      "மூத்த": 2159,
      "வருகின்றன": 2160,
      "##த்துள்ளார்": 2161,
      "விழு": 2162,
      "##சே": 2163,
      "##ட்டர்": 2164,
      "பிரப": 2165,
      "தரு": 2166,
      "##ிரே": 2167,
      "##ப்பே": 2168,
      "ராகுல்": 2169,
      "##நு": 2170,
      "16": 2171,
      "நகர": 2172,
      "##ிலோ": 2173,
      "வேண்டு": 2174,
      "கண்கா": 2175,
      "ஆதரவ": 2176,
      "##தாகக்": 2177,
      "ரோ": 2178,
      "ஈடுபட்ட": 2179,
      "அதிகமாக": 2180,
      "சேவை": 2181,
      "கொள்": 2182,
      "##ப்பினர்": 2183,
      "பல்கலைக்க": 2184,
      "##ில்தான்": 2185,
      "##ாளராக": 2186,
      "##ர்த்தி": 2187,
      "மனைவி": 2188,
      "இடத்தில்": 2189,
      "##வாத": 2190,
      "என்பதால்": 2191,
      "இந்தியாவின்": 2192,
      "##கொண்ட": 2193,
      "##த்தீ": 2194,
      "இந்தத்": 2195,
      "##க்கூட": 2196,
      "கேட்க": 2197,
      "பாரா": 2198,
      "வரவே": 2199,
      "பன்னீர்": 2200,
      "##ாப": 2201,
      "செய்க": 2202,
      "ஏற்படும்": 2203,
      "##க்குள்": 2204,
      "பூஜை": 2205,
      "இதே": 2206,
      "எதிர்ப்பு": 2207,
      "கவன": 2208,
      "நடைபெறும்": 2209,
      "குற்றச்ச": 2210,
      "பல்கலைக்கழக": 2211,
      "திட்டமி": 2212,
      "பாலியல்": 2213,
      "பழனிசாமி": 2214,
      "தமிழ்நாட்டில்": 2215,
      "அன்று": 2216,
      "அடிப்படையில்": 2217,
      "அதனை": 2218,
      "##த்தொ": 2219,
      "##ப்பான": 2220,
      "##நீதி": 2221,
      "தண்ட": 2222,
      "##தேச": 2223,
      "##மைப்பு": 2224,
      "100": 2225,
      "மறை": 2226,
      "கர்நா": 2227,
      "##ானி": 2228,
      "செலுத்த": 2229,
      "##த்தினர்": 2230,
      "##த்தியில்": 2231,
      "##at": 2232,
      "கொடு": 2233,
      "##மானது": 2234,
      "எதிரான": 2235,
      "உதவ": 2236,
      "##கோ": 2237,
      "##த்தைப்": 2238,
      "குறிப்பாக": 2239,
      "##்களை": 2240,
      "நடத்திய": 2241,
      "அந்தப்": 2242,
      "அவர்களின்": 2243,
      "காட்ட": 2244,
      "##ாமலை": 2245,
      "தனியார்": 2246,
      "வழக்கில்": 2247,
      "செய்திய": 2248,
      "திருவிழ": 2249,
      "ஆரம்ப": 2250,
      "போல்": 2251,
      "##களையும்": 2252,
      "##ங்கில": 2253,
      "வெளியிட்டு": 2254,
      "திரைப்பட": 2255,
      "செல்லும்": 2256,
      "மருத்துவமனை": 2257,
      "இன்ற": 2258,
      "##ராள": 2259,
      "நோய": 2260,
      "##த்திட்ட": 2261,
      "வேல": 2262,
      "##ில்லிய": 2263,
      "பெண்ண": 2264,
      "##ப்பட்டுள்ளன": 2265,
      "நிறுவனம்": 2266,
      "மதுரை": 2267,
      "##வோ": 2268,
      "##நாயக": 2269,
      "மனு": 2270,
      "17": 2271,
      "##ன்னி": 2272,
      "##ராட்சி": 2273,
      "இடம்": 2274,
      "ஆன்": 2275,
      "##க்குழு": 2276,
      "##லாம": 2277,
      "##த்தைக்": 2278,
      "##ட்டம்": 2279,
      "##தியின்": 2280,
      "##மோ": 2281,
      "சிலர்": 2282,
      "எச்ச": 2283,
      "என்னை": 2284,
      "மேம்ப": 2285,
      "மாற": 2286,
      "##ிருந்தனர்": 2287,
      "காலத்தில்": 2288,
      "பகுதிகளில்": 2289,
      "##மதி": 2290,
      "தொகுதி": 2291,
      "மாணவர்கள்": 2292,
      "அமெரிக்கா": 2293,
      "பணிய": 2294,
      "உற்ப": 2295,
      "கட்டுப்பா": 2296,
      "சர": 2297,
      "ஆரம்பி": 2298,
      "அதிகம்": 2299,
      "##வாள": 2300,
      "##விட்டார்": 2301,
      "##ாண": 2302,
      "##ப்பூர்": 2303,
      "பயணம்": 2304,
      "24": 2305,
      "##றித்து": 2306,
      "பிரதி": 2307,
      "சர்ச்ச": 2308,
      "##ந்தில்": 2309,
      "போட்டி": 2310,
      "எங்கள்": 2311,
      "கொண்டா": 2312,
      "##வதால்": 2313,
      "மார்": 2314,
      "##க்குப்": 2315,
      "##க்கண": 2316,
      "ரெ": 2317,
      "##த்தின": 2318,
      "##ாவும்": 2319,
      "பங்கு": 2320,
      "வெளியிட்ட": 2321,
      "##ொலை": 2322,
      "##வதற்காக": 2323,
      "பிறந்த": 2324,
      "##in": 2325,
      "தமிழகத்தில்": 2326,
      "##ுடைய": 2327,
      "பெயர்": 2328,
      "வித": 2329,
      "வெளியாக": 2330,
      "வன்": 2331,
      "ஒருங்கி": 2332,
      "##ியர்கள்": 2333,
      "இணைந்து": 2334,
      "நான்கு": 2335,
      "வருமான": 2336,
      "##ரங்க": 2337,
      "##வரி": 2338,
      "##மார": 2339,
      "அவர்களுக்கு": 2340,
      "##க்கப்பட்டு": 2341,
      "##ப்படவில்லை": 2342,
      "இருந்தாலும்": 2343,
      "ஒருங்கிணை": 2344,
      "அவசிய": 2345,
      "போக்கு": 2346,
      "ஆண்டுகளுக்கு": 2347,
      "நீதிமன்றம்": 2348,
      "##ங்களாக": 2349,
      "தாக்குதல்": 2350,
      "குறிப்பிடத்தக்கது": 2351,
      "##ரசு": 2352,
      "##ிகை": 2353,
      "இனி": 2354,
      "திருவ": 2355,
      "வலை": 2356,
      "ஹி": 2357,
      "பின்ன": 2358,
      "நடைபெற": 2359,
      "போலீஸ்": 2360,
      "அவ்": 2361,
      "டீ": 2362,
      "##ீர்கள்": 2363,
      "##ப்பட்டன": 2364,
      "##ன்றி": 2365,
      "நடைபெற்று": 2366,
      "கூடாது": 2367,
      "அளித்த": 2368,
      "முயற்சி": 2369,
      "கார்": 2370,
      "கிழ": 2371,
      "அடையாள": 2372,
      "##தோ": 2373,
      "பதில": 2374,
      "பங்க": 2375,
      "கோரிக்கை": 2376,
      "##நுட்ப": 2377,
      "இவ்": 2378,
      "நாளை": 2379,
      "கடும்": 2380,
      "செய்தார்": 2381,
      "##ாயம்": 2382,
      "தேர்": 2383,
      "சட்டமன்ற": 2384,
      "தயாரி": 2385,
      "வீடு": 2386,
      "எரி": 2387,
      "சுதந்திர": 2388,
      "##ளுக்காக": 2389,
      "கூடு": 2390,
      "##ந்திய": 2391,
      "##ளான": 2392,
      "##ப்படி": 2393,
      "இல்லாமல்": 2394,
      "செய்யப்பட்டு": 2395,
      "ஃப": 2396,
      "கோவிலில்": 2397,
      "தண்ண": 2398,
      "நாடுகள்": 2399,
      "சதவீ": 2400,
      "உட்பட": 2401,
      "##க்குறிப்பு": 2402,
      "##தன்": 2403,
      "விக்": 2404,
      "நாட்டில்": 2405,
      "##ராஜ்": 2406,
      "பலர்": 2407,
      "##னைய": 2408,
      "##வினர்": 2409,
      "அழு": 2410,
      "அறிக்கை": 2411,
      "மோத": 2412,
      "ஆறு": 2413,
      "வான": 2414,
      "போட்டு": 2415,
      "இடம்பெ": 2416,
      "விரி": 2417,
      "##ள்ளதாக": 2418,
      "அப": 2419,
      "விசாரி": 2420,
      "தரிச": 2421,
      "மச": 2422,
      "##னிய": 2423,
      "தொலை": 2424,
      "கூறுகையில்": 2425,
      "முயற்ச": 2426,
      "பணியா": 2427,
      "##க்கை": 2428,
      "இந்தச்": 2429,
      "தலைமைய": 2430,
      "மக்களுக்கு": 2431,
      "##ிகளும்": 2432,
      "##ங்களிலும்": 2433,
      "##ட்டிற்கு": 2434,
      "##நீதிமன்ற": 2435,
      "வசி": 2436,
      "##டியே": 2437,
      "படக்குறிப்பு": 2438,
      "##ாளர்களை": 2439,
      "மும்ப": 2440,
      "உள்ளார்": 2441,
      "மாட்ட": 2442,
      "ஆதரவு": 2443,
      "பிபிசி": 2444,
      "எனது": 2445,
      "எல்லாம்": 2446,
      "##வோம்": 2447,
      "அலங்க": 2448,
      "##on": 2449,
      "அனைவரும்": 2450,
      "மகிழ்ச்ச": 2451,
      "காட்ச": 2452,
      "முதலில்": 2453,
      "உடனடியாக": 2454,
      "ஏராள": 2455,
      "##ar": 2456,
      "##ன்மை": 2457,
      "சோதனை": 2458,
      "அவரு": 2459,
      "##ற்கும்": 2460,
      "கண்டுபி": 2461,
      "##ார்த்தை": 2462,
      "வடி": 2463,
      "பதில்": 2464,
      "கூட்டம்": 2465,
      "சை": 2466,
      "இருவரும்": 2467,
      "புதி": 2468,
      "##நாள்": 2469,
      "நடக்கும்": 2470,
      "##டியில்": 2471,
      "சட்டம்": 2472,
      "மண": 2473,
      "##ன்ச": 2474,
      "கடன்": 2475,
      "முடியாத": 2476,
      "சீனா": 2477,
      "##ழ்த்த": 2478,
      "##எல்": 2479,
      "##க்கார": 2480,
      "என்பத": 2481,
      "குழுவ": 2482,
      "##வ்வளவு": 2483,
      "போராட்டம்": 2484,
      "நிகழ்ச்சி": 2485,
      "எதிர்பார்க்க": 2486,
      "##வாய்": 2487,
      "##திக": 2488,
      "காவல்துறை": 2489,
      "நாக": 2490,
      "மாதி": 2491,
      "வெடி": 2492,
      "தவற": 2493,
      "இருந்தார்": 2494,
      "சந்தித்து": 2495,
      "விஜய": 2496,
      "சிர": 2497,
      "##மான்": 2498,
      "##ஹி": 2499,
      "தாக்கல்": 2500,
      "தொழில்நுட்ப": 2501,
      "சின்ன": 2502,
      "22": 2503,
      "குறைந்த": 2504,
      "ஆண்டுகளாக": 2505,
      "மேற்கு": 2506,
      "இருப்பினும்": 2507,
      "சுகாதார": 2508,
      "தாய்": 2509,
      "பலரும்": 2510,
      "23": 2511,
      "##ிகா": 2512,
      "##வால்": 2513,
      "புரி": 2514,
      "ஆலோசனை": 2515,
      "இருப்பதாக": 2516,
      "அம்ப": 2517,
      "##வற்றை": 2518,
      "இதன": 2519,
      "மீதான": 2520,
      "##நோ": 2521,
      "மேல": 2522,
      "அவரின்": 2523,
      "##ப்புற": 2524,
      "தலைமையில்": 2525,
      "பாதிக்கப்பட்ட": 2526,
      "##நே": 2527,
      "கூடிய": 2528,
      "##்த்து": 2529,
      "00": 2530,
      "##ரத்தில்": 2531,
      "மூன்ற": 2532,
      "##ையிலான": 2533,
      "##ப்படை": 2534,
      "பரவ": 2535,
      "##ணியில்": 2536,
      "தென்": 2537,
      "பெறு": 2538,
      "வரி": 2539,
      "எண்ணிக்கை": 2540,
      "உருவாக்க": 2541,
      "பிரிவு": 2542,
      "இறுதி": 2543,
      "##ஷேகம்": 2544,
      "ஒப்பந்த": 2545,
      "ஹெ": 2546,
      "##டாக": 2547,
      "பொருட்க": 2548,
      "அடிக்க": 2549,
      "திக": 2550,
      "கால்": 2551,
      "ஆவ": 2552,
      "கவு": 2553,
      "##க்கே": 2554,
      "தெரிவித்துள்ளது": 2555,
      "பார்வ": 2556,
      "தலைவர்கள்": 2557,
      "படம்": 2558,
      "நிறுத்த": 2559,
      "போன": 2560,
      "பாகிஸ்தான்": 2561,
      "இதுபோ": 2562,
      "##ஷி": 2563,
      "சொல்லி": 2564,
      "##குதி": 2565,
      "##ோதைய": 2566,
      "அதிகரித்து": 2567,
      "டாக": 2568,
      "ஆண்டில்": 2569,
      "ஒதுக்க": 2570,
      "40": 2571,
      "##ியுடன்": 2572,
      "அளவுக்கு": 2573,
      "குறிப்பிட்டு": 2574,
      "##ரக": 2575,
      "அவர்களை": 2576,
      "அறிவு": 2577,
      "அனுமதிக்க": 2578,
      "ஆயிரம்": 2579,
      "##ர்களும்": 2580,
      "##முறைய": 2581,
      "முதலமைச்சர்": 2582,
      "##க்கல்": 2583,
      "செல்வ": 2584,
      "வெளியிட": 2585,
      "21": 2586,
      "அக்க": 2587,
      "##விரு": 2588,
      "##ில்லியன்": 2589,
      "ஏராளமான": 2590,
      "நவ": 2591,
      "முன்னிட்டு": 2592,
      "முக்கியமான": 2593,
      "##ன்களை": 2594,
      "சென்னையில்": 2595,
      "பாராளுமன்ற": 2596,
      "வது": 2597,
      "நகர்": 2598,
      "##ிழமை": 2599,
      "கழி": 2600,
      "##டல்": 2601,
      "##ரேந்திர": 2602,
      "##ப்படுத்து": 2603,
      "அமைக்க": 2604,
      "வந்தார்": 2605,
      "##ப்போக": 2606,
      "##டியை": 2607,
      "புல": 2608,
      "எதிர்ப": 2609,
      "##னவே": 2610,
      "##ண்டிய": 2611,
      "குஜ": 2612,
      "##மாள்": 2613,
      "ஆதி": 2614,
      "நண்ப": 2615,
      "##ெடுக்க": 2616,
      "மத்தியில்": 2617,
      "கூறியுள்ளார்": 2618,
      "##ஞ்சி": 2619,
      "கிலோ": 2620,
      "##ஷா": 2621,
      "அனுப": 2622,
      "நியமி": 2623,
      "மக்களின்": 2624,
      "##றையை": 2625,
      "ஓய்": 2626,
      "கிரிக்க": 2627,
      "##குறித்து": 2628,
      "##ஞர்": 2629,
      "ப்": 2630,
      "##ட்டத்தில்": 2631,
      "சாலை": 2632,
      "தந்த": 2633,
      "குஜரா": 2634,
      "பிரதம": 2635,
      "##ளவில்": 2636,
      "மாவட்டத்தில்": 2637,
      "##ர்ப்ப": 2638,
      "##வித": 2639,
      "ஏற்பட்டது": 2640,
      "சிறுவ": 2641,
      "தகவல்கள்": 2642,
      "அறிமுக": 2643,
      "##ட்டா": 2644,
      "மாறி": 2645,
      "ஏற்கனவே": 2646,
      "கோவை": 2647,
      "கூட்டத்தில்": 2648,
      "கடுமையாக": 2649,
      "குற்றச்சாட்டு": 2650,
      "##நகர்": 2651,
      "பன்னீர்செ": 2652,
      "அவை": 2653,
      "ஆராய": 2654,
      "##தியான": 2655,
      "மொத்த": 2656,
      "வாக்க": 2657,
      "##நாயகர்": 2658,
      "மாநக": 2659,
      "தன்னுடைய": 2660,
      "கர": 2661,
      "கத": 2662,
      "##பட்ட": 2663,
      "##ன்பு": 2664,
      "##த்ய": 2665,
      "தொண்ட": 2666,
      "##ன்றால்": 2667,
      "##ெய்": 2668,
      "##ப்பும்": 2669,
      "##கன்": 2670,
      "##ன்ஸ்": 2671,
      "தரப்பு": 2672,
      "விற்பனை": 2673,
      "##en": 2674,
      "##ங்களையும்": 2675,
      "ஆண்டுகள்": 2676,
      "உற்ச": 2677,
      "##ிலுள்ள": 2678,
      "வண": 2679,
      "அறிவிக்க": 2680,
      "உக்ரைன்": 2681,
      "ஒப்பு": 2682,
      "பற": 2683,
      "##ியுள்ளனர்": 2684,
      "மருத்துவமனையில்": 2685,
      "பால்": 2686,
      "மக்கள": 2687,
      "மகன்": 2688,
      "),": 2689,
      "##ாட்சி": 2690,
      "##ிலை": 2691,
      "##ர்வ": 2692,
      "##ட்டிக்க": 2693,
      "மாற்று": 2694,
      "##ற்றம்": 2695,
      "##க்ஸ்": 2696,
      "நீதிமன்றத்தில்": 2697,
      "தேடி": 2698,
      "##வதில்": 2699,
      "சமய": 2700,
      "நரேந்திர": 2701,
      "பண்ண": 2702,
      "##ற்றா": 2703,
      "மாநிலம்": 2704,
      "மார": 2705,
      "##னே": 2706,
      "விளை": 2707,
      "##விடம்": 2708,
      "வன": 2709,
      "தடு": 2710,
      "##வுக": 2711,
      "தெளி": 2712,
      "##ாதாரம்": 2713,
      "##ப்த": 2714,
      "இருப்பது": 2715,
      "எதுவும்": 2716,
      "அண்ணாமலை": 2717,
      "##வால": 2718,
      "விருது": 2719,
      "திடீர": 2720,
      "##ாபி": 2721,
      "கவனம்": 2722,
      "முறையாக": 2723,
      "ல்": 2724,
      "##ும": 2725,
      "முறையில்": 2726,
      "எழுந்த": 2727,
      "கழக": 2728,
      "தாய": 2729,
      "தான": 2730,
      "##பட்ச": 2731,
      "சகோத": 2732,
      "##வருக்கும்": 2733,
      "##டைந்து": 2734,
      "##ப்பதற்கு": 2735,
      "முன்வை": 2736,
      "கோயிலில்": 2737,
      "சசிக": 2738,
      "##மடைந்த": 2739,
      "பட்டிய": 2740,
      "முஸ்": 2741,
      "சொல்": 2742,
      "தாக்குத": 2743,
      "மிர": 2744,
      "பேசி": 2745,
      "##ஸ்திரே": 2746,
      "கடைசி": 2747,
      "பகி": 2748,
      "##al": 2749,
      "முருக": 2750,
      "போக்குவர": 2751,
      "உங்களுக்கு": 2752,
      "கள்ள": 2753,
      "##பக": 2754,
      "ரன்கள்": 2755,
      "##ரான்": 2756,
      "மேற்கொண்ட": 2757,
      "நமது": 2758,
      "##விடும்": 2759,
      "##ிட்": 2760,
      "இருந்தால்": 2761,
      "தேவையான": 2762,
      "##சிங்க": 2763,
      "##நாத்": 2764,
      "நிதிய": 2765,
      ".,": 2766,
      "பற்றிய": 2767,
      "##or": 2768,
      "##க்கால": 2769,
      "##ண்டை": 2770,
      "இதுகுறித்து": 2771,
      "விவகாரம்": 2772,
      "##க்கூடாது": 2773,
      "தை": 2774,
      "##ிறு": 2775,
      "பகவ": 2776,
      "லி": 2777,
      "##ியம்": 2778,
      "##களைப்": 2779,
      "##வக": 2780,
      "காலம்": 2781,
      "ஆகியோ": 2782,
      "கண்காணி": 2783,
      "ஷா": 2784,
      "குழந்தைகள்": 2785,
      "சமீபத்தில்": 2786,
      "##வதாகவும்": 2787,
      "##ூர": 2788,
      "விரைவில்": 2789,
      "கைப்ப": 2790,
      "மிகப்பெ": 2791,
      "ஹோ": 2792,
      "வேண்டாம்": 2793,
      "ஐந்து": 2794,
      "அதிர்ச்ச": 2795,
      "அனுப்பி": 2796,
      "##னையை": 2797,
      "உயிர": 2798,
      "ஈடுபட்டு": 2799,
      "அய": 2800,
      "##த்தனை": 2801,
      "காட்டு": 2802,
      "மற்றொரு": 2803,
      "பிரபல": 2804,
      "முடியவில்லை": 2805,
      "##தார": 2806,
      "எதிர்க்கட்ச": 2807,
      "தந்தை": 2808,
      "##ாளி": 2809,
      "2024": 2810,
      "##றவு": 2811,
      "நாட்கள்": 2812,
      "பிரிட்ட": 2813,
      "மாநா": 2814,
      "சட்டச": 2815,
      "தன்னை": 2816,
      "பொதுமக்கள்": 2817,
      "##ச்சே": 2818,
      "சூரிய": 2819,
      "கர்நாடக": 2820,
      "மகா": 2821,
      "##லையில்": 2822,
      "##புண": 2823,
      "பக்க": 2824,
      "காத்த": 2825,
      "இரண்டாவது": 2826,
      "##த்தகைய": 2827,
      "##க்கணக்கான": 2828,
      "மலை": 2829,
      "திருக்க": 2830,
      "##த்தே": 2831,
      "டை": 2832,
      "##ங்கை": 2833,
      "ஆண": 2834,
      "##மணி": 2835,
      "சிறந்த": 2836,
      "கப்ப": 2837,
      "##னாக": 2838,
      "##சர்": 2839,
      "குறிப்பிட்டார்": 2840,
      "அம்மன்": 2841,
      "##தாவது": 2842,
      "கான்": 2843,
      "##ால்தான்": 2844,
      "சிறப்பாக": 2845,
      "போட்டியில்": 2846,
      "##யி": 2847,
      "வியா": 2848,
      "##வச": 2849,
      "அதிகாரி": 2850,
      "ஏற்பட": 2851,
      "எதிர்கால": 2852,
      "சேர்க்க": 2853,
      "##ாலை": 2854,
      "##த்தன": 2855,
      "##ுகிறது": 2856,
      "ஸ்க": 2857,
      "##ுமா": 2858,
      "புகைப்பட": 2859,
      "ஒன்றை": 2860,
      "ரண": 2861,
      "கேள்வ": 2862,
      "##பட": 2863,
      "மிகப்பெரிய": 2864,
      "மருந்து": 2865,
      "##சல்": 2866,
      "நடக்கிறது": 2867,
      "##ர்ட": 2868,
      "யாரும்": 2869,
      "##ட்பு": 2870,
      "2023": 2871,
      "பேரா": 2872,
      "அம்மா": 2873,
      "##ற்கை": 2874,
      "##றையினர்": 2875,
      "##ம்தான்": 2876,
      "##ானா": 2877,
      "கௌ": 2878,
      "மாக": 2879,
      "##ாதம்": 2880,
      "##ரியில்": 2881,
      "##ிரா": 2882,
      "கொல்ல": 2883,
      "சேர்ந்து": 2884,
      "##கே": 2885,
      "##டுகிறது": 2886,
      "தெரியவ": 2887,
      "விண்ண": 2888,
      "குடியரசு": 2889,
      "##ந்தர": 2890,
      "விமர்சி": 2891,
      "ட்விட்ட": 2892,
      "நிறைவேற்ற": 2893,
      "##ப்பிய": 2894,
      "கோப": 2895,
      "சொல்க": 2896,
      "##ங்களது": 2897,
      "நோக்கி": 2898,
      "அச்ச": 2899,
      "எங்களுக்கு": 2900,
      "எழுதிய": 2901,
      "உடன்": 2902,
      "மொத்தம்": 2903,
      "##விடு": 2904,
      "புர": 2905,
      "ஆயுத": 2906,
      "தாம": 2907,
      "##ற்றின்": 2908,
      "##வுகளை": 2909,
      "ஜூலை": 2910,
      "இன": 2911,
      "எங்க": 2912,
      "##த்திரை": 2913,
      "வீரர்கள்": 2914,
      "ரே": 2915,
      "##க்கொண்டு": 2916,
      "காத": 2917,
      "திடீரென": 2918,
      "மட்டுமல்ல": 2919,
      "கலா": 2920,
      "##ொள்": 2921,
      "பேச்சுவ": 2922,
      "பயிற்சி": 2923,
      "##ச்சினை": 2924,
      "சுற்றுலா": 2925,
      "கிருஷ்ண": 2926,
      "செய்யப்பட்டது": 2927,
      "சொத்து": 2928,
      "டாக்டர்": 2929,
      "அந்": 2930,
      "##ருமான": 2931,
      "ராச": 2932,
      "##மக்கு": 2933,
      "##த்தைத்": 2934,
      "பேசினார்": 2935,
      "##ப்பம்": 2936,
      "பாத": 2937,
      "மார்ச்": 2938,
      "ஆஸ்திரே": 2939,
      "##ீன்": 2940,
      "##ிருக்கிறார்கள்": 2941,
      "நிமி": 2942,
      "விடுதலை": 2943,
      "போய்": 2944,
      "விழாவில்": 2945,
      "##வியல்": 2946,
      "உடை": 2947,
      "##த்திலிருந்து": 2948,
      "##ிருப்பது": 2949,
      "##்களில்": 2950,
      "உயிரிழந்த": 2951,
      "செய்வது": 2952,
      "ஜெயல": 2953,
      "கல்வ": 2954,
      "ஸ்த": 2955,
      "நிபுண": 2956,
      "நடிகர்": 2957,
      "##நீர்": 2958,
      "மாநிலத்தில்": 2959,
      "##சாலை": 2960,
      "கடுமையான": 2961,
      "சப": 2962,
      "வழங்குவ": 2963,
      "முடிந்த": 2964,
      "##ின்றி": 2965,
      "அந்தக்": 2966,
      "##ப்பர்": 2967,
      "இயக்க": 2968,
      "##ானை": 2969,
      "##ுகளை": 2970,
      "மோதி": 2971,
      "பந்துவீ": 2972,
      "அடுத்து": 2973,
      "கணி": 2974,
      "##ர்ட்": 2975,
      "பணிகள்": 2976,
      "##ப்படுகின்றன": 2977,
      "##ழும்": 2978,
      "உதய": 2979,
      "வாய": 2980,
      "##ின்றது": 2981,
      "கண்டி": 2982,
      "விஜய்": 2983,
      "கேரள": 2984,
      "அக்": 2985,
      "செய்தது": 2986,
      "பட்": 2987,
      "##த்துவம்": 2988,
      "மாற்றம்": 2989,
      "எல்லா": 2990,
      "சுய": 2991,
      "சேர்த்து": 2992,
      "நியூ": 2993,
      "##த்திற்கும்": 2994,
      "விதிக்க": 2995,
      "பாலா": 2996,
      "ஜெயலலி": 2997,
      "இவர்கள்": 2998,
      "##ளித்த": 2999,
      "மகாரா": 3000,
      "என்கிற": 3001,
      "தொற்று": 3002,
      "நம்பிக்கை": 3003,
      "திருவிழா": 3004,
      "எளி": 3005,
      "சால": 3006,
      "பவு": 3007,
      "##பூர்": 3008,
      "அளவு": 3009,
      "சனி": 3010,
      "இஸ்லாம": 3011,
      "##es": 3012,
      "ஆகும்": 3013,
      "##னான": 3014,
      "##ில்ல": 3015,
      "பேராசிர": 3016,
      "இதற்க": 3017,
      "##வேண்டும்": 3018,
      "வாங்கி": 3019,
      "தற்கொலை": 3020,
      "தரிசனம்": 3021,
      "அடைந்த": 3022,
      "##னோ": 3023,
      "2021": 3024,
      "மேற்கொண்டு": 3025,
      "முஸ்லி": 3026,
      "விக்கெ": 3027,
      "கம": 3028,
      "##ருடன்": 3029,
      "##ல்யா": 3030,
      "குமார்": 3031,
      "இருக்கிற": 3032,
      "நிர்வாகிகள்": 3033,
      "ஜூன்": 3034,
      "அம்ம": 3035,
      "எனத்": 3036,
      "கீழ": 3037,
      "அதன்படி": 3038,
      "ஆராய்ச்ச": 3039,
      "நாட்டு": 3040,
      "பிரச": 3041,
      "##ளிலும்": 3042,
      "##்டோ": 3043,
      "##ந்துள்ள": 3044,
      "நடைமுறை": 3045,
      "பிரச்சினை": 3046,
      "##ிருக்கின்றனர்": 3047,
      "வழியாக": 3048,
      "இதுபோன்ற": 3049,
      "நுழை": 3050,
      "##ரவை": 3051,
      "##மம்": 3052,
      "##படுத்த": 3053,
      "சூழ்": 3054,
      "கிடைத்த": 3055,
      "வளர்ச்சி": 3056,
      "##ஆர்": 3057,
      "அதேபோல": 3058,
      "டே": 3059,
      "பக்கம்": 3060,
      "யோ": 3061,
      "##த்துள்ள": 3062,
      "நிறைய": 3063,
      "##ழிப்பு": 3064,
      "வலியுறு": 3065,
      "கிரிக்கெட்": 3066,
      "ரவி": 3067,
      "சிறிய": 3068,
      "சன": 3069,
      "##ஜா": 3070,
      "##ற்றும்": 3071,
      "மக்களை": 3072,
      "முன்னதாக": 3073,
      "அரி": 3074,
      "##வாய": 3075,
      "##ரியா": 3076,
      "##செய்ய": 3077,
      "போக்குவரத்து": 3078,
      "பறி": 3079,
      "##கிறார்": 3080,
      "##பிர": 3081,
      "வங்கி": 3082,
      "##ாமா": 3083,
      "அபிவிரு": 3084,
      "##ெழு": 3085,
      "##ிகு": 3086,
      "தினம்": 3087,
      "நடு": 3088,
      "##ரையில்": 3089,
      "##ப்பதாக": 3090,
      "கருத": 3091,
      "##புற": 3092,
      "##வதில்லை": 3093,
      "அறிக்கையில்": 3094,
      "உரிய": 3095,
      "##சர": 3096,
      "ஏப்": 3097,
      "##யூ": 3098,
      "##லோ": 3099,
      "பேருந்து": 3100,
      "வெளிநாட்டு": 3101,
      "##ாகும்": 3102,
      "வென்ற": 3103,
      "முதலீ": 3104,
      "வகுப்பு": 3105,
      "கதை": 3106,
      "ரத்த": 3107,
      "##த்தல்": 3108,
      "விவகாரத்தில்": 3109,
      "பணியில்": 3110,
      "பெற்றோ": 3111,
      "##வீன": 3112,
      "அருள்": 3113,
      "அறு": 3114,
      "கிடைய": 3115,
      "2019": 3116,
      "##ீக": 3117,
      "##ற்சிய": 3118,
      "##நிலைய": 3119,
      "உறுப்பினர்": 3120,
      "உற்பத்தி": 3121,
      "in": 3122,
      "##ருவ": 3123,
      "##ங்கல்": 3124,
      "வீட்டு": 3125,
      "மாகாண": 3126,
      "##திலும்": 3127,
      "அதிர": 3128,
      "##ேத": 3129,
      "##டித்து": 3130,
      "##ாலான": 3131,
      "##ல்வம்": 3132,
      "##த்தூர்": 3133,
      "கொஞ்ச": 3134,
      "நிச்ச": 3135,
      "நெரு": 3136,
      "பாகிஸ்தான": 3137,
      "##நிய": 3138,
      "நடத்து": 3139,
      "##ன்கொ": 3140,
      "துவங்க": 3141,
      "##ட்ஸ்": 3142,
      "##வருக": 3143,
      "199": 3144,
      "டா": 3145,
      "குறித்தும்": 3146,
      "தடுப்ப": 3147,
      "##ஷேக": 3148,
      "பொதுக்குழு": 3149,
      "விபத்து": 3150,
      "##ைப்": 3151,
      "விவர": 3152,
      "##வாதி": 3153,
      "ஆண்டுகளில்": 3154,
      "மரண": 3155,
      "அவ்வ": 3156,
      "ஏற்ற": 3157,
      "படைய": 3158,
      "வர்த்த": 3159,
      "இல்": 3160,
      "அருகில்": 3161,
      "ஜே": 3162,
      "க்க": 3163,
      "பண்ட": 3164,
      "##மித்": 3165,
      "ஆவண": 3166,
      "நாட்களுக்கு": 3167,
      "தலைவராக": 3168,
      "சூழலில்": 3169,
      "கல்லூரி": 3170,
      "மும்பை": 3171,
      "கிடையாது": 3172,
      "சம்பந்த": 3173,
      "தனக்கு": 3174,
      "சாதி": 3175,
      "நிறுவனங்கள்": 3176,
      "அதிகரிக்கும்": 3177,
      "27": 3178,
      "வழங்கப்படும்": 3179,
      "ஜனநாயக": 3180,
      "புரிந்து": 3181,
      "##விகி": 3182,
      "அழக": 3183,
      "லெ": 3184,
      "கிழக்கு": 3185,
      "குவி": 3186,
      "வகை": 3187,
      "தெரிவித்தனர்": 3188,
      "ஏற்படுத்தி": 3189,
      "குர": 3190,
      "##வர்களில்": 3191,
      "நிகழ்ச்சியில்": 3192,
      "ஒழு": 3193,
      "சினி": 3194,
      "திரா": 3195,
      "தொடங்கிய": 3196,
      "##திவு": 3197,
      "26": 3198,
      "அழ": 3199,
      "பிப்": 3200,
      "உண்மை": 3201,
      "##குதியில்": 3202,
      "சிங்க": 3203,
      "பன்னீர்செல்வம்": 3204,
      "தோல்வ": 3205,
      "வெளிநா": 3206,
      "வழக்கறி": 3207,
      "சரியான": 3208,
      "தடுக்க": 3209,
      "எனும்": 3210,
      "பேட்ட": 3211,
      "பின்ப": 3212,
      "பொறுத்த": 3213,
      "ரணில்": 3214,
      "##ஜெ": 3215,
      "##ந்தர்": 3216,
      "பெரும்பாலான": 3217,
      "பெங்கள": 3218,
      "கொண்டிருந்த": 3219,
      "பகுதியை": 3220,
      "நிலையத்தில்": 3221,
      "நபர்": 3222,
      "வட்ட": 3223,
      "##னல்": 3224,
      "##ஃப": 3225,
      "ஆளுந": 3226,
      "யோக": 3227,
      "##்டு": 3228,
      "சிறை": 3229,
      "அதிகமான": 3230,
      "துப்பா": 3231,
      "பொறுப்பு": 3232,
      "கொள்கை": 3233,
      "தண்ணீர்": 3234,
      "தலைமையிலான": 3235,
      "நிற்க": 3236,
      "##ாடு": 3237,
      "ரூபாய": 3238,
      "வலைதள": 3239,
      "##ட்ரோ": 3240,
      "ராசி": 3241,
      "விளக்க": 3242,
      "நம்பிக்க": 3243,
      "500": 3244,
      "ஏமா": 3245,
      "போட": 3246,
      "தரப்பில்": 3247,
      "அறிவிப்பு": 3248,
      "ஆட்சியில்": 3249,
      "கம்ப": 3250,
      "வந்தனர்": 3251,
      "கூடுதல்": 3252,
      "##ுங்கள்": 3253,
      "##வார": 3254,
      "வருகிறார்கள்": 3255,
      "ஏற்பட்டுள்ளது": 3256,
      "தற்போதைய": 3257,
      "மதிப்ப": 3258,
      "வலி": 3259,
      "வித்திய": 3260,
      "கும்பாபி": 3261,
      "ஹமா": 3262,
      "##டுவது": 3263,
      "இருக்கலாம்": 3264,
      "சதவிகி": 3265,
      "விளையாட்டு": 3266,
      "அவருடைய": 3267,
      "ரத்து": 3268,
      "வாழ்க்கை": 3269,
      "வளாக": 3270,
      "அரசுக்கு": 3271,
      "கட்சிய": 3272,
      "சரியாக": 3273,
      "தண்டனை": 3274,
      "ஆடி": 3275,
      "##ாந்து": 3276,
      "தொடங்கியது": 3277,
      "பரிந்து": 3278,
      "தெரிக": 3279,
      "பார்வைய": 3280,
      "கூட்டு": 3281,
      "பேசுக": 3282,
      "பயன்படுத்தி": 3283,
      "இலங்கையில்": 3284,
      "அவசியம்": 3285,
      "செயற்ப": 3286,
      "காஷ்": 3287,
      "##ங்களால்": 3288,
      "சசிகலா": 3289,
      "இம்": 3290,
      "குழந்த": 3291,
      "பெருமாள்": 3292,
      "பாக": 3293,
      "##ுவை": 3294,
      "புகார": 3295,
      "##ப்படுத்தி": 3296,
      "முயன்ற": 3297,
      "எவ்வளவு": 3298,
      "மகாராஷ்ட": 3299,
      "அப்பா": 3300,
      "##தற்காக": 3301,
      "##ாவிற்கு": 3302,
      "வெங்க": 3303,
      "##ொருள்": 3304,
      "##ையிலும்": 3305,
      "பிரச்சனை": 3306,
      "##ளுடைய": 3307,
      "சாப்ப": 3308,
      "எப்போதும்": 3309,
      "தவறு": 3310,
      "உண்டு": 3311,
      "தேர்ந்த": 3312,
      "##டியும்": 3313,
      "வெளியாகி": 3314,
      "சக்தி": 3315,
      "ரசிகர்கள்": 3316,
      "##ப்பட்டார்": 3317,
      "நாளில்": 3318,
      "##மாகக்": 3319,
      "##ரியாத": 3320,
      "##மலை": 3321,
      "##யர்": 3322,
      "உடனே": 3323,
      "எடு": 3324,
      "தட": 3325,
      "##க்ரே": 3326,
      "வீட்டுக்கு": 3327,
      "28": 3328,
      "கமி": 3329,
      "குண": 3330,
      "##ையோ": 3331,
      "மீன": 3332,
      "பிள்ள": 3333,
      "நினைக்க": 3334,
      "ஆய்வ": 3335,
      "அணியின்": 3336,
      "இதற்காக": 3337,
      "கேப்ட": 3338,
      "சந்தேக": 3339,
      "கன்ன": 3340,
      "டால": 3341,
      "இருக்கு": 3342,
      "தடுப்பூ": 3343,
      "ஏன": 3344,
      "##ஸின்": 3345,
      "நகை": 3346,
      "குற்றவாள": 3347,
      "##ழ்க": 3348,
      "மாவட்டங்களில்": 3349,
      "##ப்பிக்க": 3350,
      "இயக்குநர்": 3351,
      "##க்கள": 3352,
      "அதிகரிக்க": 3353,
      "தெரியும்": 3354,
      "தெரியவில்லை": 3355,
      "வித்தியாச": 3356,
      "ஒத்து": 3357,
      "##ன்னு": 3358,
      "புத்தக": 3359,
      "நிர்வாகம்": 3360,
      "சான்": 3361,
      "தள்ள": 3362,
      "உட்க": 3363,
      "நட்ச": 3364,
      "டிச": 3365,
      "பண்": 3366,
      "##it": 3367,
      "தொடர்பில்": 3368,
      "நட்சத்திர": 3369,
      "##லூர்": 3370,
      "##மாகும்": 3371,
      "கையில்": 3372,
      "##ீஸ்": 3373,
      "கொண்டுவ": 3374,
      "பரபரப்பை": 3375,
      "ஆந்திர": 3376,
      "மாநிலங்களில்": 3377,
      "அழைக்க": 3378,
      "கார்த்த": 3379,
      "திரி": 3380,
      "##ச்செய": 3381,
      "கடற்ப": 3382,
      "சுட்டிக்க": 3383,
      "ஐக்கிய": 3384,
      "##ியூ": 3385,
      "என்னு": 3386,
      "##களிலும்": 3387,
      "செய்யப்பட்டுள்ளது": 3388,
      "முன்னேற்ற": 3389,
      "பாஜகவ": 3390,
      "விக்ரம": 3391,
      "சகோதர": 3392,
      "உரையா": 3393,
      "கிட்ட": 3394,
      "##மிருந்து": 3395,
      "சதவீத": 3396,
      "ஹே": 3397,
      "##ic": 3398,
      "அதன": 3399,
      "எவ்": 3400,
      "ஹை": 3401,
      "ஆர்வ": 3402,
      "எல்லை": 3403,
      "யுக்ரே": 3404,
      "ரொ": 3405,
      "##விற்கு": 3406,
      "##ந்தா": 3407,
      "கொண்டனர்": 3408,
      "##ங்களைப்": 3409,
      "நிலைமை": 3410,
      "##டுகளில்": 3411,
      "விலக": 3412,
      "எம்எல்": 3413,
      "##மிற": 3414,
      "##றையும்": 3415,
      "குள": 3416,
      "சித": 3417,
      "இருக்கின்றன": 3418,
      "##ப்பாடு": 3419,
      "பங்கேற்ற": 3420,
      "##ஸ்வரர்": 3421,
      "நன்ற": 3422,
      "##ியே": 3423,
      "கடல்": 3424,
      "சிறையில்": 3425,
      "சிலை": 3426,
      "மொழ": 3427,
      "பழைய": 3428,
      "நாடுகளில்": 3429,
      "செலவு": 3430,
      "உருவாக": 3431,
      "சந்தித்த": 3432,
      "தெரிகிறது": 3433,
      "##ீப்": 3434,
      "அதற்கான": 3435,
      "தீப": 3436,
      "முழுமையாக": 3437,
      "60": 3438,
      "பக்கத்தில்": 3439,
      "பேட்டி": 3440,
      "நிறுவனத்தின்": 3441,
      "அதேபோல்": 3442,
      "ஓட்டு": 3443,
      "##am": 3444,
      "##ஸில்": 3445,
      "வருவதாக": 3446,
      "பயங்க": 3447,
      "##்துறை": 3448,
      "##ப்பதற்காக": 3449,
      "##ிகர": 3450,
      "சந்திக்க": 3451,
      "மோசமான": 3452,
      "##is": 3453,
      "செந்தில்": 3454,
      "##களைக்": 3455,
      "இன்னொரு": 3456,
      "வசதி": 3457,
      "##ஹா": 3458,
      "##ியம்மன்": 3459,
      "##ராட்ச": 3460,
      "எம்எல்ஏ": 3461,
      "##ஸை": 3462,
      "களமிற": 3463,
      "ஏற்பாடு": 3464,
      "தங்களது": 3465,
      "மருத்துவர்": 3466,
      "##ிர்": 3467,
      "##ரால்": 3468,
      "##இல்": 3469,
      "எதிர்த்து": 3470,
      "##விட்டால்": 3471,
      "சட்டசபை": 3472,
      "சுற்றி": 3473,
      "##ப்படுத்தும்": 3474,
      "விவகார": 3475,
      "நாள": 3476,
      "##ரவரி": 3477,
      "அபிவிருத்தி": 3478,
      "ஒலி": 3479,
      "செல்க": 3480,
      "பெட்ரோ": 3481,
      "கண்டறிய": 3482,
      "##லாக்க": 3483,
      "##ளிர்": 3484,
      "பேசுவ": 3485,
      "நேரடியாக": 3486,
      "ஆன்லை": 3487,
      "ஏப்ரல்": 3488,
      "பரிந்துரை": 3489,
      "##ிங்": 3490,
      "விவசாயிகள்": 3491,
      "குஜராத்": 3492,
      "அறிய": 3493,
      "கட்சிகள்": 3494,
      "தீர்ப்பு": 3495,
      "##ையொ": 3496,
      "##ிருக்கின்றன": 3497,
      "தம்ப": 3498,
      "ரக": 3499,
      "##றையின்": 3500,
      "பகிர்ந்து": 3501,
      "உள": 3502,
      "பெரி": 3503,
      "வழங்கும்": 3504,
      "அங்கீக": 3505,
      "இரண்டாம்": 3506,
      "நெருக்கடி": 3507,
      "வன்முறை": 3508,
      "ஆங்கில": 3509,
      "பேச்சு": 3510,
      "வழங்கி": 3511,
      "நோய்": 3512,
      "பல்ல": 3513,
      "பிடித்து": 3514,
      "ஓர்": 3515,
      "##த்திலேயே": 3516,
      "கலந்துரையா": 3517,
      "மதிப்பு": 3518,
      "கடிதம்": 3519,
      "இவை": 3520,
      "படுக": 3521,
      "##ணு": 3522,
      "உயர்த்த": 3523,
      "தினமும்": 3524,
      "##ாராய": 3525,
      "##ல்களில்": 3526,
      "வலு": 3527,
      "##ோட": 3528,
      "முன்னெ": 3529,
      "செவ்வ": 3530,
      "பரிசோதனை": 3531,
      "திராவிட": 3532,
      "##ுமி": 3533,
      "நீட்": 3534,
      "நாட்டை": 3535,
      "நேரில்": 3536,
      "பணத்தை": 3537,
      "குற்றம்சா": 3538,
      "ஆளும்": 3539,
      "##ம்க": 3540,
      "விநாயகர்": 3541,
      "மாணவி": 3542,
      "பெயரில்": 3543,
      "இவ்வாறு": 3544,
      "மய": 3545,
      "##ன்ட்": 3546,
      "தொடர்ச்ச": 3547,
      "செயல்பா": 3548,
      "வரிச": 3549,
      "அமித்": 3550,
      "தீர்வு": 3551,
      "##பாத்": 3552,
      "##வெளி": 3553,
      "அங்கே": 3554,
      "##வந்த": 3555,
      "வழக்கம்": 3556,
      "சித்த": 3557,
      "வழங்கிய": 3558,
      "##சில": 3559,
      "போதை": 3560,
      "உள்ளே": 3561,
      "அரசாங்கம்": 3562,
      "ஒளி": 3563,
      "##ணய": 3564,
      "##ற்பு": 3565,
      "##றுகிறது": 3566,
      "ஜா": 3567,
      "##விக்க": 3568,
      "மீன்": 3569,
      "பதவிய": 3570,
      "திகதி": 3571,
      "##ியைப்": 3572,
      "ஆகியவ": 3573,
      "உத்தரவு": 3574,
      "பஞ்சாப்": 3575,
      "அதோடு": 3576,
      "##ாளர்களுக்கு": 3577,
      "அக்டோ": 3578,
      "அன்ன": 3579,
      "##தையும்": 3580,
      "##ண்டர்": 3581,
      "வெளியான": 3582,
      "##க்கூடும்": 3583,
      "உறவின": 3584,
      "நாட்களில்": 3585,
      "உறுப்பினர்கள்": 3586,
      "திட்டத்தை": 3587,
      "இறந்த": 3588,
      "கட்டி": 3589,
      "##லத்தில்": 3590,
      "செப்ட": 3591,
      "நோக்க": 3592,
      "##ென்றால்": 3593,
      ".....": 3594,
      "##கொள்ள": 3595,
      "##வேன்": 3596,
      "##ிருந்தால்": 3597,
      "எப்போது": 3598,
      "35": 3599,
      "##விட்": 3600,
      "##ிக்கப்பட்ட": 3601,
      "மீட்க": 3602,
      "திருத்த": 3603,
      "வெறும்": 3604,
      "##ிக்கொண்ட": 3605,
      "ஆகியவை": 3606,
      "கிரக": 3607,
      "##ிருப்பதாக": 3608,
      "தஞ்ச": 3609,
      "நின்": 3610,
      "##ம்பர": 3611,
      "பொருட்கள்": 3612,
      "அதைத்": 3613,
      "ஒன்றாக": 3614,
      "##ெனவே": 3615,
      "இலவச": 3616,
      "##ந்திரன்": 3617,
      "##்குமார்": 3618,
      "ஏற்கெனவே": 3619,
      "உள்ளாட்சி": 3620,
      "தொகுதியில்": 3621,
      "##ர்களில்": 3622,
      "படத்தில்": 3623,
      "ஆகஸ்ட்": 3624,
      "சார்ந்த": 3625,
      "மோதல்": 3626,
      "இடம்பெற்ற": 3627,
      "மற": 3628,
      "##மாகப்": 3629,
      "சாத்திய": 3630,
      "##ங்களைக்": 3631,
      "வீழ்த்த": 3632,
      "வகி": 3633,
      "2020": 3634,
      "##த்திற்காக": 3635,
      "போட்டியிட": 3636,
      "கொண்டாட": 3637,
      "மான": 3638,
      "மில்லியன்": 3639,
      "##வையில்": 3640,
      "##புரி": 3641,
      "ஏற்படுத்தியுள்ளது": 3642,
      "ஊழிய": 3643,
      "அவசர": 3644,
      "நடவடிக்கைகள்": 3645,
      "அடிக்கடி": 3646,
      "##ும்பி": 3647,
      "##ஞ்சு": 3648,
      "கணவர்": 3649,
      "கட்சியில்": 3650,
      "அணுக": 3651,
      "பக்தர்களுக்கு": 3652,
      "##ுந்த": 3653,
      "அன்ப": 3654,
      "##னியா": 3655,
      "##ைக்": 3656,
      "##க்குச்": 3657,
      "உள்ளூர்": 3658,
      "தெரிந்து": 3659,
      "திருச்சி": 3660,
      "பேராசிரியர்": 3661,
      "##டே": 3662,
      "திருந": 3663,
      "புதுச்சே": 3664,
      "உங்க": 3665,
      "##20": 3666,
      "க்கும்": 3667,
      "ஒத்துழை": 3668,
      "மூலமாக": 3669,
      "உண்ட": 3670,
      "மட": 3671,
      "செல்போ": 3672,
      "##வர்களும்": 3673,
      "கவலை": 3674,
      "கலந்துகொண்ட": 3675,
      "பொருட்களை": 3676,
      "##ாடி": 3677,
      "##க்கர்": 3678,
      "தொக": 3679,
      "##ப்பட்டனர்": 3680,
      "ரீதியாக": 3681,
      "பிரா": 3682,
      "##ப்பதிவு": 3683,
      "என்பவர்": 3684,
      "##ையைப்": 3685,
      "விமர்சன": 3686,
      "29": 3687,
      "31": 3688,
      "இத்தகைய": 3689,
      "##க்கெட்": 3690,
      "##ாதனை": 3691,
      "வீச": 3692,
      "பயன்படுத்து": 3693,
      "##ராஜன்": 3694,
      "##ையுடன்": 3695,
      "கொண்டார்": 3696,
      "எழுப்ப": 3697,
      "செயல்பட்டு": 3698,
      "##களால்": 3699,
      "பிப்ரவரி": 3700,
      "##ங்கம்": 3701,
      "தமிழகம்": 3702,
      "மொழி": 3703,
      "சூழல்": 3704,
      "இங்கில": 3705,
      "##ஸ்டர்": 3706,
      "விவாத": 3707,
      "தொகை": 3708,
      "வலுவ": 3709,
      "நிமிட": 3710,
      "##ினம்": 3711,
      "அழைத்துச்": 3712,
      "##தர்": 3713,
      "##ம்ஸ்": 3714,
      "##த்துக்கும்": 3715,
      "முகமது": 3716,
      "அலுவலகத்தில்": 3717,
      "வணிக": 3718,
      "ஊர்வ": 3719,
      "##லால்": 3720,
      "##ீன": 3721,
      "வேத": 3722,
      "வாச": 3723,
      "##க்கிழ": 3724,
      "முழுக்க": 3725,
      "அடித்து": 3726,
      "வடிவ": 3727,
      "கௌரவ": 3728,
      "மன்ன": 3729,
      "##லமாக": 3730,
      "##ஹ்": 3731,
      "சவால": 3732,
      "##பூ": 3733,
      "##க்கட்ட": 3734,
      "காப்பா": 3735,
      "##்க்கு": 3736,
      "ஆதரவாக": 3737,
      "ஹமாஸ்": 3738,
      "##ிலிருந்த": 3739,
      "##ாயி": 3740,
      "முதலீடு": 3741,
      "நிகழ்வு": 3742,
      "##மொழி": 3743,
      "டோ": 3744,
      "##ிறி": 3745,
      "இருப்பதால்": 3746,
      "ஆதார": 3747,
      "விஷயம்": 3748,
      "இங்கே": 3749,
      "தக்க": 3750,
      "##ம்த": 3751,
      "மசோத": 3752,
      "ஜெயலலிதா": 3753,
      "அன்ற": 3754,
      "அமைச்சர்கள்": 3755,
      "நடத்தினர்": 3756,
      "ஓய்வு": 3757,
      "சபா": 3758,
      "##மில்லை": 3759,
      "உலகின்": 3760,
      "மாதிரி": 3761,
      "அக்டோபர்": 3762,
      "க்": 3763,
      "போய": 3764,
      "##ியன்": 3765,
      "வெளியு": 3766,
      "ஆணையம்": 3767,
      "இன்றைய": 3768,
      "கவுன்ச": 3769,
      "இஸ்லாமிய": 3770,
      "ஆரோ": 3771,
      "பராம": 3772,
      "பேச்சுவார்த்தை": 3773,
      "மரு": 3774,
      "தெலு": 3775,
      "திட்டத்தின்": 3776,
      "மரியாத": 3777,
      "##தில": 3778,
      "காட்சி": 3779,
      "சட": 3780,
      "மல": 3781,
      "##ீட்டு": 3782,
      "போட்டிகளில்": 3783,
      "கருணா": 3784,
      "முடிவுகள்": 3785,
      "அங்கிருந்து": 3786,
      "விக்ரமசிங்க": 3787,
      "##ம்பரம்": 3788,
      "டெல்லியில்": 3789,
      "வங்கதேச": 3790,
      "உச்சநீதிமன்ற": 3791,
      "நமக்கு": 3792,
      "அழி": 3793,
      "##த்துள்ளனர்": 3794,
      "##ிருக்கலாம்": 3795,
      "##வரையும்": 3796,
      "நினைவு": 3797,
      "வலியுறுத்த": 3798,
      "என்னுடைய": 3799,
      "##வேளை": 3800,
      "அத்துடன்": 3801,
      "தலைய": 3802,
      "##ஸ்வ": 3803,
      "எனப்": 3804,
      "உள்ளதாக": 3805,
      "வீட்ட": 3806,
      "சட்டத்தின்": 3807,
      "சேர்ந்தவர்": 3808,
      "விசாரணையில்": 3809,
      "ஒற்றை": 3810,
      "கூட்டண": 3811,
      "பழங்கு": 3812,
      "மூலாதாரம்": 3813,
      "அடையாளம்": 3814,
      "உழை": 3815,
      "செய்துக": 3816,
      "பயன்": 3817,
      "##ாய்வு": 3818,
      "##தில்லை": 3819,
      "பேருக்கு": 3820,
      "பிடிக்க": 3821,
      "##வரான": 3822,
      "##முத": 3823,
      "பதிவிட்டு": 3824,
      "ஏழு": 3825,
      "##கால": 3826,
      "##ப்பதற்கான": 3827,
      "ஏற்படுத்தும்": 3828,
      "முன்பாக": 3829,
      "பத்திரிக": 3830,
      "இழு": 3831,
      "##லாளர்": 3832,
      "##க்குழுவ": 3833,
      "##போல்": 3834,
      "கட்சியை": 3835,
      "எண்ணெய்": 3836,
      "படிக்க": 3837,
      "ஒட்டு": 3838,
      "யாக": 3839,
      "ரயில": 3840,
      "செயல்படுத்த": 3841,
      "கிராமத்தில்": 3842,
      "ஆஸ்திரேலிய": 3843,
      "வின்": 3844,
      "##ion": 3845,
      "##பெற்ற": 3846,
      "##ாளர்களின்": 3847,
      "போராட்டத்தில்": 3848,
      "தயாராக": 3849,
      "யாத": 3850,
      "##சரி": 3851,
      "##ப்புக்கு": 3852,
      "##வைத்": 3853,
      "##ையைக்": 3854,
      "கணக்கு": 3855,
      "நடிக": 3856,
      "ஐரோ": 3857,
      "தியாக": 3858,
      "##ேஷ": 3859,
      "மின்சார": 3860,
      "உறவு": 3861,
      "எதிர்பார்": 3862,
      "அல்": 3863,
      "பான": 3864,
      "விடுத்து": 3865,
      "அமலாக்க": 3866,
      "விளக்கம்": 3867,
      "ஜனவரி": 3868,
      "அரசியலில்": 3869,
      "அரசியல": 3870,
      "கட்டண": 3871,
      "உயர்நீதிமன்ற": 3872,
      "வேட்பாளர்": 3873,
      "தர்ம": 3874,
      "உலகம்": 3875,
      "\"\"": 3876,
      "45": 3877,
      "வாரம்": 3878,
      "ஒருங்கிணைப்பாளர்": 3879,
      "டிசம்பர்": 3880,
      "லாப": 3881,
      "##முதல்": 3882,
      "##போதும்": 3883,
      "ஒன்றில்": 3884,
      "தீவிரமாக": 3885,
      "வெளியுறவு": 3886,
      "##த்தான": 3887,
      "இருக்கிறார்கள்": 3888,
      "##சூ": 3889,
      "பொதுவாக": 3890,
      "அணை": 3891,
      "##ப்பன்": 3892,
      "##ையால்": 3893,
      "அறிவித்த": 3894,
      "பெண்களுக்கு": 3895,
      "ஷி": 3896,
      "##ரிமை": 3897,
      "எழுதி": 3898,
      "விநிய": 3899,
      "வைக்கப்பட்ட": 3900,
      "##ஜித்": 3901,
      "வழிபாடு": 3902,
      "சது": 3903,
      "##க்கா": 3904,
      "சாதக": 3905,
      "இவ": 3906,
      "சேர்த்த": 3907,
      "இதனிடையே": 3908,
      "##தொ": 3909,
      "##ியோ": 3910,
      "##ிக்கிழமை": 3911,
      "##ோதே": 3912,
      "குறைக்க": 3913,
      "தோல்வி": 3914,
      "198": 3915,
      "##as": 3916,
      "##ாளைய": 3917,
      "கோரிக்க": 3918,
      "ஆனாலும்": 3919,
      "வைரஸ்": 3920,
      "பெட்ரோல்": 3921,
      "மகள்": 3922,
      "##டனான": 3923,
      "வடக்கு": 3924,
      "சல": 3925,
      "##ண்டே": 3926,
      "பொதுச்செய": 3927,
      "அனைத்தும்": 3928,
      "விசாரணைக்கு": 3929,
      "சாதாரண": 3930,
      "பதவியை": 3931,
      "தொடர்ச்சியாக": 3932,
      "காந்த": 3933,
      "ராஜா": 3934,
      "கண்டுபிடிக்க": 3935,
      "இசை": 3936,
      "அணிக்கு": 3937,
      "அதிரு": 3938,
      "எழுந்தரு": 3939,
      "##ிகளுடன்": 3940,
      "##ச்சார": 3941,
      "போதும்": 3942,
      "##டியான": 3943,
      "ஆரோக்கிய": 3944,
      "எட்ட": 3945,
      "தமது": 3946,
      "##மல்ல": 3947,
      "விண்": 3948,
      "மால": 3949,
      "அவற்றை": 3950,
      "கொடிய": 3951,
      "தொழி": 3952,
      "வழங்கப்பட்டது": 3953,
      "இளைஞர்": 3954,
      "இளம்": 3955,
      "உப": 3956,
      "கடவு": 3957,
      "##ப்பிரம": 3958,
      "தல": 3959,
      "வெப்ப": 3960,
      "வீட்டிற்கு": 3961,
      "அனைவருக்கும்": 3962,
      "ஒன்றிய": 3963,
      "ஊழல்": 3964,
      "சிறி": 3965,
      "சிறும": 3966,
      "கோரி": 3967,
      "இதன்ப": 3968,
      "சென்றனர்": 3969,
      "அதிமுகவில்": 3970,
      "எண்ணிக்க": 3971,
      "##நாயக்க": 3972,
      "பிடித்த": 3973,
      "அலை": 3974,
      "தப்பி": 3975,
      "வல்ல": 3976,
      "##ன்த": 3977,
      "##டுகிறார்": 3978,
      "பணிகளை": 3979,
      "விரும்புக": 3980,
      "விக்கெட்டு": 3981,
      "##ழில்": 3982,
      "##மன்": 3983,
      "##ஞ்": 3984,
      "##க்குமார்": 3985,
      "கொட": 3986,
      "கோட்ட": 3987,
      "என்றாலும்": 3988,
      "சிந்த": 3989,
      "அதிப": 3990,
      "வர்த்தக": 3991,
      "நின்று": 3992,
      "தரும்": 3993,
      "வார்த்தை": 3994,
      "##னையும்": 3995,
      "கொடி": 3996,
      "இடையிலான": 3997,
      "நடவடிக்கைகளை": 3998,
      "அன்பு": 3999,
      "வீதி": 4000,
      "##விட்டனர்": 4001,
      "நகரில்": 4002,
      "வயதான": 4003,
      "இறந்து": 4004,
      "நிரூ": 4005,
      "பாஜகவின்": 4006,
      "எக்ஸ்": 4007,
      "##ண்டில்": 4008,
      "சிபி": 4009,
      "முக்கியத்துவம்": 4010,
      "வீரர்": 4011,
      "மோசடி": 4012,
      "##நல": 4013,
      "##ஷம்": 4014,
      "ஆட்சியை": 4015,
      "ரயில்வே": 4016,
      "திட்டமிட்டு": 4017,
      "##ணன்": 4018,
      "விடுத்த": 4019,
      "குறைவாக": 4020,
      "மனைவ": 4021,
      "மூன்றாவது": 4022,
      "ஓடி": 4023,
      "##ேக்": 4024,
      "மீட்பு": 4025,
      "முடிவுக்கு": 4026,
      "##ெனில்": 4027,
      "அபிஷேகம்": 4028,
      "எதிர்க்கட்சி": 4029,
      "நன்றாக": 4030,
      "சஞ்ச": 4031,
      "##ியிருக்கிறது": 4032,
      "முற்ற": 4033,
      "குண்ட": 4034,
      "அவரிடம்": 4035,
      "வருவது": 4036,
      "##ப்படாத": 4037,
      "கூறுகின்றனர்": 4038,
      "ஜனாதிப": 4039,
      "##ம்ப்": 4040,
      "##ச்செ": 4041,
      "##ிற்கும்": 4042,
      "முடியாமல்": 4043,
      "பாலாஜி": 4044,
      "##ையொட்டி": 4045,
      "செப்டம்பர்": 4046,
      "##துக": 4047,
      "##டித்த": 4048,
      "##ச்சூ": 4049,
      "அவர்கள": 4050,
      "தவிர்க்க": 4051,
      "##மூலம்": 4052,
      "மைதான": 4053,
      "##தோடு": 4054,
      "##பம்": 4055,
      "##ப்பதை": 4056,
      "பெறும்": 4057,
      "தகவல்களை": 4058,
      "கடித": 4059,
      "ட்விட்டர்": 4060,
      "ஆச்ச": 4061,
      "பெயரை": 4062,
      "பொறுத்தவரை": 4063,
      "##ந்தைய": 4064,
      "##ப்பூர்வ": 4065,
      "##ர்கள": 4066,
      "முதன்": 4067,
      "உயிர்": 4068,
      "போலவே": 4069,
      "மருத்துவமனைக்கு": 4070,
      "அரை": 4071,
      "காலி": 4072,
      "##ினோம்": 4073,
      "பயணி": 4074,
      "ஒப்படை": 4075,
      "##ிலி": 4076,
      "##வுக்கும்": 4077,
      "##ல்லா": 4078,
      "சேக": 4079,
      "பிரதான": 4080,
      "அர்": 4081,
      "அஞ்ச": 4082,
      "அமைச்சரவை": 4083,
      "உரிமைய": 4084,
      "நாட்களாக": 4085,
      "தெய்": 4086,
      "சென்றார்": 4087,
      "ஏற்படுத்தியது": 4088,
      "திறந்து": 4089,
      "##ங்கில்": 4090,
      "##தியம்": 4091,
      "th": 4092,
      "ஆத்": 4093,
      "##க்களின்": 4094,
      "##ண்மை": 4095,
      "உயர": 4096,
      "புதிதாக": 4097,
      "##லான": 4098,
      "##லிக்க": 4099,
      "பொருத்த": 4100,
      "பள்ளியில்": 4101,
      "கொஞ்சம்": 4102,
      "ஆசிய": 4103,
      "யானை": 4104,
      "லீ": 4105,
      "##டனும்": 4106,
      "நட்": 4107,
      "அடித்த": 4108,
      "##ழும்பு": 4109,
      "காதல்": 4110,
      "பகவான்": 4111,
      "75": 4112,
      "கூறு": 4113,
      "அதிர்ச்சி": 4114,
      "##களைத்": 4115,
      "வளர்ச்ச": 4116,
      "ஆட்சிக்கு": 4117,
      "நன்மை": 4118,
      "வில்": 4119,
      "##சன": 4120,
      "##ரித்து": 4121,
      "கிடைத்தது": 4122,
      "இலங்கையின்": 4123,
      "முர": 4124,
      "இருந்தனர்": 4125,
      "ராஜஸ்தான்": 4126,
      "எல்லோ": 4127,
      "பயணிகள்": 4128,
      "##நேரம்": 4129,
      "சிக்": 4130,
      "##மாகவே": 4131,
      "மாதத்தில்": 4132,
      "மாணவர்களுக்கு": 4133,
      "நியம": 4134,
      "மையம்": 4135,
      "##il": 4136,
      "சாதனை": 4137,
      "பூஜைகள்": 4138,
      "கடின": 4139,
      "தீர்த்த": 4140,
      "வழக்கை": 4141,
      "##ட்டல்": 4142,
      "திட்டங்கள்": 4143,
      "பெற்றது": 4144,
      "##ாளர்களிடம்": 4145,
      "சிகிச்ச": 4146,
      "வரலாற்று": 4147,
      "வேகமாக": 4148,
      "வருமானம்": 4149,
      "தக": 4150,
      "##ங்குவ": 4151,
      "மாற்றி": 4152,
      "கடந்து": 4153,
      "சுற்ற": 4154,
      "வருகை": 4155,
      "பதிலாக": 4156,
      "....": 4157,
      "கேப்டன்": 4158,
      "##பாக": 4159,
      "மாள": 4160,
      "தொடர": 4161,
      "இதுதான்": 4162,
      "பத்திரிகைய": 4163,
      "அஸ்": 4164,
      "ரன்களை": 4165,
      "##ாசி": 4166,
      "##மழை": 4167,
      "செய்யப்படும்": 4168,
      "கொண்டே": 4169,
      "முன்னர்": 4170,
      "எடுத்துக்": 4171,
      "கொடுக்கும்": 4172,
      "ஆன்லைன்": 4173,
      "##மற்ற": 4174,
      "##க்கர": 4175,
      "பதிவாக": 4176,
      "கதா": 4177,
      "கிறி": 4178,
      "லோக": 4179,
      "##மக": 4180,
      "##வுட்": 4181,
      "சீரிய": 4182,
      "நெடு": 4183,
      "##ப்பிரமணிய": 4184,
      "சவு": 4185,
      "சபை": 4186,
      "பசு": 4187,
      "##ணிக்க": 4188,
      "அண்ணா": 4189,
      "அறை": 4190,
      "இரா": 4191,
      "வன்கொ": 4192,
      "##ணும்": 4193,
      "##வேல்": 4194,
      "முன்னே": 4195,
      "தெரிவித்துள்ளனர்": 4196,
      "கவனி": 4197,
      "அழைப்பு": 4198,
      "மாநகராட்சி": 4199,
      "புனித": 4200,
      "அதிகாலை": 4201,
      "சேலம்": 4202,
      "வாக்குகள்": 4203,
      "சம்பந்தப்பட்ட": 4204,
      "வன்கொடு": 4205,
      "ஏவுக": 4206,
      "##ஸா": 4207,
      "##த்தோடு": 4208,
      "முட": 4209,
      "ராஜின": 4210,
      "##ப்பதில்": 4211,
      "ரஜ": 4212,
      "##ரிட": 4213,
      "தனியாக": 4214,
      "ஒழுங்கு": 4215,
      "ஆஜ": 4216,
      "##பால்": 4217,
      "##ப்போம்": 4218,
      "கொழும்பு": 4219,
      "##ிக்கார": 4220,
      "மிகுந்த": 4221,
      "தெரியவந்தது": 4222,
      "##ed": 4223,
      "##ிருக்கிறோம்": 4224,
      "##ியுள்ளன": 4225,
      "நவம்பர்": 4226,
      "##ுள்ளார்": 4227,
      "##ad": 4228,
      "காலக": 4229,
      "..!": 4230,
      "மீட்டர்": 4231,
      "புகழ்": 4232,
      "என்கிறார்கள்": 4233,
      "##வாரண": 4234,
      "##ாராம்": 4235,
      "பாலி": 4236,
      "##ம்பா": 4237,
      "##வதும்": 4238,
      "##மொத்த": 4239,
      "வலைதளங்களில்": 4240,
      "இறை": 4241,
      "##ெக": 4242,
      "மகளிர்": 4243,
      "குறிப்பிட்டுள்ளார்": 4244,
      "துப்பாக்கி": 4245,
      "க்கு": 4246,
      "##ிறகு": 4247,
      "##ழுது": 4248,
      "வீசிய": 4249,
      "நிவாரண": 4250,
      "வாழ்த்து": 4251,
      "ஊழியர்கள்": 4252,
      "துவங்கியது": 4253,
      "##க்குமா": 4254,
      "செங்க": 4255,
      "குறு": 4256,
      "விசார": 4257,
      "தூக்கி": 4258,
      "நிலையம்": 4259,
      "அச்சு": 4260,
      "##மாகி": 4261,
      "சும": 4262,
      "அடிப்படை": 4263,
      "##ப்பிரிக்க": 4264,
      "முருகன்": 4265,
      "##பால": 4266,
      "##ரையும்": 4267,
      "##த்தட்ட": 4268,
      "அணிய": 4269,
      "##ப்படுவது": 4270,
      "ஒட்டுமொத்த": 4271,
      "ஆப்க": 4272,
      "லக்": 4273,
      "##ரூ": 4274,
      "##ய்ய": 4275,
      "##த்துல": 4276,
      "ராஜப": 4277,
      "செயல்பட": 4278,
      "##சோ": 4279,
      "காட்டி": 4280,
      "மேலாக": 4281,
      "பிற்ப": 4282,
      "##போல": 4283,
      "மாணவர்": 4284,
      "விருப்ப": 4285,
      "சதவீதம்": 4286,
      "குடியரசுத்": 4287,
      "##க்தி": 4288,
      "##்சி": 4289,
      "இந்தியாவுக்கு": 4290,
      "நல்லது": 4291,
      "##செய்த": 4292,
      "படத்தின்": 4293,
      "ஆசிரியர்": 4294,
      "வழக்கறிஞர்": 4295,
      "ராஜினாமா": 4296,
      "ஆக்கிர": 4297,
      "கல்யா": 4298,
      "குதி": 4299,
      "##ன்னா": 4300,
      "என்றே": 4301,
      "இருந்தன": 4302,
      "அப்படியே": 4303,
      "##புறம்": 4304,
      "விக": 4305,
      "கொடுப்ப": 4306,
      "##ட்சிய": 4307,
      "பங்களி": 4308,
      "கீழே": 4309,
      "சினிமா": 4310,
      "கொல்க": 4311,
      "##ையைத்": 4312,
      "நடிகை": 4313,
      "தனிப்பட்ட": 4314,
      "ஒதுக்கீடு": 4315,
      "தடுப்பு": 4316,
      "சாப்பிட": 4317,
      "டொ": 4318,
      "##ஞான": 4319,
      "##ப்பான்": 4320,
      "##த்ரா": 4321,
      "##வரது": 4322,
      "##முள்ள": 4323,
      "2018": 4324,
      "சர்மா": 4325,
      "ஜெய்": 4326,
      "ஆசிரிய": 4327,
      "சௌ": 4328,
      "நன்றி": 4329,
      "பற்ற": 4330,
      "##ர்களிடம்": 4331,
      "எனினும்": 4332,
      "பங்கேற்க": 4333,
      "விதமாக": 4334,
      "வானிலை": 4335,
      "##ளிய": 4336,
      "##த்தொட": 4337,
      "எச்சரிக்கை": 4338,
      "ஆக்கிரமி": 4339,
      "கண்": 4340,
      "ரன்க": 4341,
      "கேம": 4342,
      "காரை": 4343,
      "அறநிலைய": 4344,
      "70": 4345,
      "சற்று": 4346,
      "பாஸ்": 4347,
      "##ம்பரிய": 4348,
      "கேது": 4349,
      "##ிருக்கிற": 4350,
      "நடித்த": 4351,
      "நூற்றா": 4352,
      "மயில": 4353,
      "##ராம": 4354,
      "ஆட்சிய": 4355,
      "##ர்களாக": 4356,
      "##குமார்": 4357,
      "திண்டு": 4358,
      "திரும்பி": 4359,
      "காவல்துறையினர்": 4360,
      "தடுப்பூசி": 4361,
      "வன்கொடுமை": 4362,
      "எத்தனை": 4363,
      "ஜென": 4364,
      "##ேட": 4365,
      "##க்கப்பட்டது": 4366,
      "முழ": 4367,
      "பாரம்பரிய": 4368,
      "பழனிச்ச": 4369,
      "விமர்சனம்": 4370,
      "கிட்டத்தட்ட": 4371,
      "##ஸி": 4372,
      "##ஜன்": 4373,
      "##்த்": 4374,
      "##ிக்காக": 4375,
      "தெரிந்த": 4376,
      "##க்கிழமை": 4377,
      "##தாம்": 4378,
      "##தற்கான": 4379,
      "##வூ": 4380,
      "முடிந்தது": 4381,
      "தெரிவிக்கப்பட்டுள்ளது": 4382,
      "எதிர்கொள்ள": 4383,
      "எதிர்பார்த்த": 4384,
      "ஸ்தான": 4385,
      "நவீன": 4386,
      "##ப்பட்டிருக்கிறது": 4387,
      "இதற்கான": 4388,
      "##புர": 4389,
      "தாண்டி": 4390,
      "மாதங்களுக்கு": 4391,
      "##த்திரம்": 4392,
      "##த்திற்கான": 4393,
      "விசாரிக்க": 4394,
      "சமா": 4395,
      "தங்களுக்கு": 4396,
      "##ீங்க": 4397,
      "நாள்க": 4398,
      "என்பதே": 4399,
      "கூறுகிறது": 4400,
      "ஆயு": 4401,
      "விசாரித்த": 4402,
      "தெளிவாக": 4403,
      "300": 4404,
      "தவி": 4405,
      "##டுப்பு": 4406,
      "சாப்பி": 4407,
      "அகில": 4408,
      "சிவசே": 4409,
      "வசூ": 4410,
      "இளைஞர்கள்": 4411,
      "திடீர்": 4412,
      "தீர்மானம்": 4413,
      "உதயநிதி": 4414,
      "ஆண்": 4415,
      "ஓவர": 4416,
      "நம்ம": 4417,
      "செய்துள்ளார்": 4418,
      "கட்டணம்": 4419,
      "நம்புக": 4420,
      "கள்ளக்குறி": 4421,
      "##க்களுக்கு": 4422,
      "##ந்தனர்": 4423,
      "##ாவ்": 4424,
      "##விரோத": 4425,
      "அங்குள்ள": 4426,
      "##ார்க்": 4427,
      "##ாட்": 4428,
      "##பான": 4429,
      "நாட்ட": 4430,
      "பொங்கல்": 4431,
      "கடற்க": 4432,
      "சாட்ட": 4433,
      "பார்க்கலாம்": 4434,
      "கைப்பற்ற": 4435,
      "நிச்சயம்": 4436,
      "இடி": 4437,
      "கற்ப": 4438,
      "நின்ற": 4439,
      "##சாம": 4440,
      "முதல்வராக": 4441,
      "நொ": 4442,
      "துறையில்": 4443,
      "மருத்துவர்கள்": 4444,
      "##களுடன்": 4445,
      "நான்க": 4446,
      "ஆஃப்": 4447,
      "##வகு": 4448,
      "வாய்ப்புகள்": 4449,
      "##வொரு": 4450,
      "##ரியான": 4451,
      "சமீப": 4452,
      "ரகசிய": 4453,
      "முத்து": 4454,
      "தேச": 4455,
      "பிரிய": 4456,
      "குடும்பத்தினர்": 4457,
      "தவறான": 4458,
      "ஏதாவது": 4459,
      "##ப்பட்டுள்ளதாக": 4460,
      "ஏற்பாடுகளை": 4461,
      "சாலையில்": 4462,
      "##தொடர்": 4463,
      "##சாரம்": 4464,
      "பேரும்": 4465,
      "வாக்குறு": 4466,
      "பந்துவீச்ச": 4467,
      "செயற்கை": 4468,
      "நாட": 4469,
      "##ரியும்": 4470,
      "வைத்தார்": 4471,
      "பெற்றோர்": 4472,
      "வாய்ந்த": 4473,
      "197": 4474,
      "வரலாறு": 4475,
      "80": 4476,
      "உர": 4477,
      "ஓட்ட": 4478,
      "##டிவி": 4479,
      "##ிகளையும்": 4480,
      "##ப்பட்டுள்ளனர்": 4481,
      "இலக்கு": 4482,
      "கட்டாய": 4483,
      "##க்குத்": 4484,
      "##த்துப்": 4485,
      "விஞ்": 4486,
      "அதற்காக": 4487,
      "பொதுச்": 4488,
      "கலவர": 4489,
      "டெஸ்ட்": 4490,
      "உள்பட": 4491,
      "##ேப": 4492,
      "நாணய": 4493,
      "தொடரில்": 4494,
      "செய்துள்ளனர்": 4495,
      "##பூர்வ": 4496,
      "##ட்டார்": 4497,
      "எம்பி": 4498,
      "##ையைச்": 4499,
      "உயர்வு": 4500,
      "முன்னில": 4501,
      "##ரும்பு": 4502,
      "சேத": 4503,
      "நேரு": 4504,
      "##ங்களிடம்": 4505,
      "உதாரண": 4506,
      "நாடுகளின்": 4507,
      "##ப்போகிறது": 4508,
      "அன": 4509,
      "எல": 4510,
      "சூர்": 4511,
      "##தர": 4512,
      "##ிடமிருந்து": 4513,
      "கோப்பை": 4514,
      "இதற்கிடையே": 4515,
      "an": 4516,
      "##வான்": 4517,
      "##மாகவும்": 4518,
      "முடிந்து": 4519,
      "உணர்வு": 4520,
      "தங்கம்": 4521,
      "சொந்தமான": 4522,
      "தொடர்புடைய": 4523,
      "ஃப்": 4524,
      "விகி": 4525,
      "##மடைந்து": 4526,
      "நாம": 4527,
      "தெற்கு": 4528,
      "தொடக்க": 4529,
      "நீங்க": 4530,
      "ஆகி": 4531,
      "##ன்கு": 4532,
      "பிபிசிய": 4533,
      "திருக்கோ": 4534,
      "அக்னி": 4535,
      "##ப்பட்டதாக": 4536,
      "##லுடன்": 4537,
      "##தியும்": 4538,
      "செய்துள்ளது": 4539,
      "##ப்பிரதேச": 4540,
      "நீதிபதிகள்": 4541,
      "எரிப": 4542,
      "பந்த": 4543,
      "##ண்க": 4544,
      "இருக்காது": 4545,
      "நடைபெறுகிறது": 4546,
      "சர்ச்சை": 4547,
      "சதவிகித": 4548,
      "இராஜ": 4549,
      "பத்து": 4550,
      "##ம்மு": 4551,
      "##ங்களுடன்": 4552,
      "சாமி": 4553,
      "வயதில்": 4554,
      "##ப்படுவதாக": 4555,
      "நகர்ப்புற": 4556,
      "அறுவை": 4557,
      "மஞ்ச": 4558,
      "வருகிறோம்": 4559,
      "எழுத": 4560,
      "கண்டறி": 4561,
      "மசூ": 4562,
      "வசிக்கும்": 4563,
      "##தீ": 4564,
      "கோலி": 4565,
      "சேவ": 4566,
      "அறிவியல்": 4567,
      "உலகக்": 4568,
      "பொறுப்ப": 4569,
      "அதிரடி": 4570,
      "சுட்டிக்காட்ட": 4571,
      "ஆற்ற": 4572,
      "##பின்": 4573,
      "##ளையில்": 4574,
      "குரல்": 4575,
      "##ச்சா": 4576,
      "வெல்ல": 4577,
      "##டியின்": 4578,
      "##ியைக்": 4579,
      "முகாம": 4580,
      "தயாரிக்க": 4581,
      "அறிவுறுத்த": 4582,
      "##எம்": 4583,
      "அமைப்பின்": 4584,
      "அதிகபட்ச": 4585,
      "சம்பவங்கள்": 4586,
      "##ல்ஸ்": 4587,
      "##ன்ம": 4588,
      "செயலக": 4589,
      "சுழ": 4590,
      "சுப்பிரமணிய": 4591,
      "உடலை": 4592,
      "தங்களின்": 4593,
      "நிறைவு": 4594,
      "போட்டியிட்ட": 4595,
      "ஆதரவாளர்கள்": 4596,
      "ஏவுகணை": 4597,
      "##ct": 4598,
      "பிரசார": 4599,
      "பிள": 4600,
      "##வாற": 4601,
      "##ங்களைச்": 4602,
      "பெய்ய": 4603,
      "தூத்துக்கு": 4604,
      "##லர்கள்": 4605,
      "காம": 4606,
      "பேரை": 4607,
      "##ாலே": 4608,
      "பயன": 4609,
      "அமைச்சராக": 4610,
      "இருப்பதை": 4611,
      "வேலைவாய்": 4612,
      "குடும்பத்தின": 4613,
      "சிறுமி": 4614,
      "முஸ்லிம்": 4615,
      "ஆப்": 4616,
      "வைத்திய": 4617,
      "முன்னோ": 4618,
      "கூட்டணியில்": 4619,
      "தயார்": 4620,
      "பார்வை": 4621,
      "வார்ட": 4622,
      "மண்டல": 4623,
      "மேம்படுத்த": 4624,
      "##ாளையம்": 4625,
      "பிக்": 4626,
      "ரு": 4627,
      "##ur": 4628,
      "##க்கணி": 4629,
      "##ந்தோ": 4630,
      "சிவா": 4631,
      "திண்டுக்கல்": 4632,
      "ஞான": 4633,
      "##கொண்டு": 4634,
      "##ணர்வு": 4635,
      "போன்று": 4636,
      "இருந்தும்": 4637,
      "சட்டவிரோத": 4638,
      "##ரோடு": 4639,
      "இறக்கு": 4640,
      "கவுன்சில": 4641,
      "யோச": 4642,
      "##ான்ஸ்": 4643,
      "இடையில்": 4644,
      "பரவி": 4645,
      "##விலான": 4646,
      "ரொம்ப": 4647,
      "##யல்": 4648,
      "##ட்டோ": 4649,
      "##மிக்க": 4650,
      "திணை": 4651,
      "உயர்ந்து": 4652,
      "திரைய": 4653,
      "உருவாக்கு": 4654,
      "மட்ட": 4655,
      "##லன்": 4656,
      "##டியா": 4657,
      "சூப்பர்": 4658,
      "நினைத்த": 4659,
      "சிக்கி": 4660,
      "ஆயிரக்கணக்கான": 4661,
      "பெரும்பான்": 4662,
      "புதுச்சேரி": 4663,
      "விண்வெளி": 4664,
      "கற்று": 4665,
      "##ிருப்பு": 4666,
      "மீட்ட": 4667,
      "இடைக்கால": 4668,
      "ரன்": 4669,
      "போன்": 4670,
      "##வர்த்த": 4671,
      "இருப்பதாகவும்": 4672,
      "பாஜகவுக்கு": 4673,
      "செல்வா": 4674,
      "நிறுத்தி": 4675,
      "கம்": 4676,
      "கழு": 4677,
      "முந்தைய": 4678,
      "முடிவெ": 4679,
      "பெரும்பாலும்": 4680,
      "##த்திடம்": 4681,
      "##றித": 4682,
      "##ரியை": 4683,
      "இரட்டை": 4684,
      "##ங்களைத்": 4685,
      "கட்டட": 4686,
      "கட்டுப்படுத்த": 4687,
      "தேர்ந்தெடுக்க": 4688,
      "2017": 4689,
      "##ஸ்க்": 4690,
      "பிரதேசத்தில்": 4691,
      "உள்துறை": 4692,
      "##டோ": 4693,
      "இந்தி": 4694,
      "வெறு": 4695,
      "பொருள்": 4696,
      "ஜனதா": 4697,
      "பீக": 4698,
      "##நாதன்": 4699,
      "உற்சாக": 4700,
      "ஜீ": 4701,
      "ஜாம": 4702,
      "பூர்": 4703,
      "##om": 4704,
      "விழிப்பு": 4705,
      "அமைந்த": 4706,
      "ஆகியவற்றை": 4707,
      "பிராந்திய": 4708,
      "##மீர்": 4709,
      "##வினை": 4710,
      "இதுதொடர்": 4711,
      "##ப்பிடி": 4712,
      "அணிந்து": 4713,
      "தகுதி": 4714,
      "##ர்களால்": 4715,
      "அணியில்": 4716,
      "வெளிப்படுத்த": 4717,
      "ராசிக்கார": 4718,
      "பேசுகையில்": 4719,
      "பருவ": 4720,
      "வர்": 4721,
      "வெளியில்": 4722,
      "##ழிவு": 4723,
      "இயற்கை": 4724,
      "உண்மையில்": 4725,
      "கவி": 4726,
      "வேளா": 4727,
      "சுரங்க": 4728,
      "கொண்டது": 4729,
      "உறுதியாக": 4730,
      "அமெரிக்காவின்": 4731,
      "சக்த": 4732,
      "அறிகு": 4733,
      "அழுத்தம்": 4734,
      "##ப்பால்": 4735,
      "##வைத்து": 4736,
      "அதிகாரம்": 4737,
      "தற்கால": 4738,
      "கிரி": 4739,
      "##த்தள": 4740,
      "பிரசா": 4741,
      "புற்று": 4742,
      "##ியைச்": 4743,
      "கூறியது": 4744,
      "ராஜ்": 4745,
      "நானும்": 4746,
      "அழுத்த": 4747,
      "அனுபவ": 4748,
      "ராசிக்கு": 4749,
      "மண்ண": 4750,
      "##ப்பிரி": 4751,
      "வேற": 4752,
      "##மிழ": 4753,
      "##வதன்": 4754,
      "ஏற்படுத்து": 4755,
      "##க்கியது": 4756,
      "அதுவும்": 4757,
      "கட்சிக்கு": 4758,
      "சார்பாக": 4759,
      "##மீது": 4760,
      "சொன்னார்": 4761,
      "##ing": 4762,
      "ஆத்மி": 4763,
      "##ிடு": 4764,
      "##ளோ": 4765,
      "##னிடம்": 4766,
      "##ol": 4767,
      "##ர்க்": 4768,
      "##ினார்கள்": 4769,
      "புள்ள": 4770,
      "தேர்தலை": 4771,
      "உறுதிய": 4772,
      "பகிர": 4773,
      "இச": 4774,
      "டிக்க": 4775,
      "##பன்": 4776,
      "##ையெல்லாம்": 4777,
      "##ஸ்பெ": 4778,
      "விசேட": 4779,
      "கட்டுமான": 4780,
      "விமானம்": 4781,
      "##க்கொள்": 4782,
      "அண்": 4783,
      "மணிய": 4784,
      "##லங்க": 4785,
      "##ஸுக்கு": 4786,
      "மாறு": 4787,
      "காப்ப": 4788,
      "தென்க": 4789,
      "நாடாளுமன்றத்தில்": 4790,
      "முன்பே": 4791,
      "##ர்களுடன்": 4792,
      "உள்ளட": 4793,
      "##னுடன்": 4794,
      "##முருக": 4795,
      "##ியைத்": 4796,
      "##விட்டதாக": 4797,
      "ராணுவம்": 4798,
      "எதிர்க்கட்சிகள்": 4799,
      "இவ்வளவு": 4800,
      "##ச்சல்": 4801,
      "வழியில்": 4802,
      "வீட்டை": 4803,
      "அறிந்து": 4804,
      "டிஜ": 4805,
      "இலங்கைக்கு": 4806,
      "கோவிலுக்கு": 4807,
      "ஒப்புதல்": 4808,
      "எட்டு": 4809,
      "##ங்குக": 4810,
      "விபத்தில்": 4811,
      "##ளித்தார்": 4812,
      "அந்தத்": 4813,
      "வளர்": 4814,
      "2014": 4815,
      "நியாய": 4816,
      "தேவையில்": 4817,
      "90": 4818,
      "##சீ": 4819,
      "பிரே": 4820,
      "தெரு": 4821,
      "அமைதி": 4822,
      "சந்திப்பு": 4823,
      "கும்பாபிஷேகம்": 4824,
      "இங்கிலாந்து": 4825,
      "சமாஜ்": 4826,
      "##ங்களுக்கும்": 4827,
      "##ரிப்பு": 4828,
      "இந்ந": 4829,
      "துறைமுக": 4830,
      "பிரதிநிதி": 4831,
      "வளாகத்தில்": 4832,
      "மழ": 4833,
      "ராய": 4834,
      "##டையில்": 4835,
      "##ப்பார்": 4836,
      "##ார்ட்": 4837,
      "வருகிற": 4838,
      "அலுவலகம்": 4839,
      "ஈடுபட்டனர்": 4840,
      "ஆராய்ச்சி": 4841,
      "மர்ம": 4842,
      "##பவர்கள்": 4843,
      "வழிக": 4844,
      "தீய": 4845,
      "வெளியிட்டுள்ள": 4846,
      "முன்னிலையில்": 4847,
      "கவர்": 4848,
      "##பான்": 4849,
      "##களுக்கும்": 4850,
      "##மின்": 4851,
      "##மட்டு": 4852,
      "வேலு": 4853,
      "முடிவை": 4854,
      "வந்துள்ளது": 4855,
      "ராமர்": 4856,
      "இணையதள": 4857,
      "கையெழு": 4858,
      "ஆப்கானி": 4859,
      "பேரில்": 4860,
      "அமைந்துள்ளது": 4861,
      "##மாண்ட": 4862,
      "தீபார": 4863,
      "சாம்ப": 4864,
      "ஸ்டாலின": 4865,
      "கொடியேற்ற": 4866,
      "ஊர்": 4867,
      "##பக்ச": 4868,
      "சாம": 4869,
      "லஞ்ச": 4870,
      "##ூப்": 4871,
      "##ர்களுக்கும்": 4872,
      "##வாச": 4873,
      "அறிந்த": 4874,
      "##பாச": 4875,
      "செலுத்தி": 4876,
      "களத்தில்": 4877,
      "##ணாம": 4878,
      "காஞ்சி": 4879,
      "துரை": 4880,
      "கொண்டுவர": 4881,
      "லை": 4882,
      "##கின்றன": 4883,
      "##ரண": 4884,
      "மூட": 4885,
      "##பிடி": 4886,
      "பூம": 4887,
      "அணு": 4888,
      "##ஸ்கர்": 4889,
      "36": 4890,
      "ஏழை": 4891,
      "##லியா": 4892,
      "வகையான": 4893,
      "நேரங்களில்": 4894,
      "வெளியேறி": 4895,
      "தமிழர்": 4896,
      "நபர்கள்": 4897,
      "கள்ளக்குறிச்சி": 4898,
      "பின": 4899,
      "##ay": 4900,
      "##ப்பார்கள்": 4901,
      "##க்குறை": 4902,
      "மேயர்": 4903,
      "ராஜபக்ச": 4904,
      "விய": 4905,
      "##தலாக": 4906,
      "##ேஸ்வர": 4907,
      "முகா": 4908,
      "##ப்புகளை": 4909,
      "தேனி": 4910,
      "பொறிய": 4911,
      "செய்யலாம்": 4912,
      "வெளிப்பட": 4913,
      "படித்து": 4914,
      "மரணம்": 4915,
      "##நாதர்": 4916,
      "எதிர்பார்க்கப்படுகிறது": 4917,
      "ஒலிம்ப": 4918,
      "விநியோக": 4919,
      "##ேந்திர": 4920,
      "##ளிக்கும்": 4921,
      "வாங்கிய": 4922,
      "மரியாதை": 4923,
      "கனி": 4924,
      "பில்லியன்": 4925,
      "நேற்ற": 4926,
      "பொதுக்குழுவ": 4927,
      "உத்தரப்பிரதேச": 4928,
      "ஒப்பந்தம்": 4929,
      "வலியுறுத்தி": 4930,
      "அட்ட": 4931,
      "##ரெ": 4932,
      "##ப்பூ": 4933,
      "##வுள்ளது": 4934,
      "##ாலய": 4935,
      "உதவிய": 4936,
      "தண்ணீ": 4937,
      "பெங்களூ": 4938,
      "ஜான்": 4939,
      "தகு": 4940,
      "விக்கெட்": 4941,
      "##ிட்டல்": 4942,
      "பகுதியாக": 4943,
      "குறைந்து": 4944,
      "##க்கப்பட்டார்": 4945,
      "குழந்தைகளுக்கு": 4946,
      "அதிகரித்துள்ளது": 4947,
      "திறக்க": 4948,
      "இழந்து": 4949,
      "வசித்து": 4950,
      "அதிர்ச்சியை": 4951,
      "##மிக்": 4952,
      "##யின்": 4953,
      "##்களுக்கு": 4954,
      "வென்று": 4955,
      "வந்தால்": 4956,
      "செலுத்து": 4957,
      "ஒற்று": 4958,
      "சிரி": 4959,
      "ஜம்மு": 4960,
      "நாராய": 4961,
      "##ாவள": 4962,
      "எனப்படும்": 4963,
      "தொடர்ந்த": 4964,
      "காலங்களில்": 4965,
      "சுவாம": 4966,
      "பரிசு": 4967,
      "##க்கொள்க": 4968,
      "சிரம": 4969,
      "பவுண்ட": 4970,
      "கமல்": 4971,
      "பாட்ட": 4972,
      "சட்டப்பே": 4973,
      "தோன்ற": 4974,
      "தெரியாது": 4975,
      "அபிஷேக": 4976,
      "##வடை": 4977,
      "##மைக்க": 4978,
      "##ட்சுமி": 4979,
      "தலைநகர்": 4980,
      "மிகப்": 4981,
      "வெள்ளி": 4982,
      "அடைந்து": 4983,
      "##மய": 4984,
      "##வதற்கும்": 4985,
      "இறுதியில்": 4986,
      "செய்தியாளர்களிடம்": 4987,
      "##ண்டா": 4988,
      "அமைத்து": 4989,
      "நீக்க": 4990,
      "முன்னணி": 4991,
      "பெருமை": 4992,
      "ஏற்றுமதி": 4993,
      "ஹிஜ": 4994,
      "##முறையாக": 4995,
      "பட்டியலில்": 4996,
      ").": 4997,
      "##ோக்": 4998,
      "##el": 4999,
      "அமைந்துள்ள": 5000,
      "மீறி": 5001,
      "பரபரப்பு": 5002,
      "உள்நாட்டு": 5003,
      "வேண்டுமெ": 5004,
      "கர்நாட": 5005,
      "பிள்ளை": 5006,
      "அப்": 5007,
      "ஒடி": 5008,
      "##ழல்": 5009,
      "##தூ": 5010,
      "##ேட்": 5011,
      "##சுவ": 5012,
      "விடுமுறை": 5013,
      "சான்றித": 5014,
      "ஆழ": 5015,
      "##கத்தில்": 5016,
      "##்க்": 5017,
      "வேலைத்திட்ட": 5018,
      "கண்டனம்": 5019,
      "நிராக": 5020,
      "ஆணையர்": 5021,
      "##வாதம்": 5022,
      "அலங்கார": 5023,
      "##ent": 5024,
      "பழனிச்சாமி": 5025,
      "ஆடை": 5026,
      "##ினை": 5027,
      "##ரத்": 5028,
      "##ரிகள்": 5029,
      "நிலம்": 5030,
      "காலமாக": 5031,
      "கோயிலுக்கு": 5032,
      "ஓவரில்": 5033,
      "தற்காலிக": 5034,
      "மெட்": 5035,
      "##களாக": 5036,
      "யோகி": 5037,
      "யாதவ்": 5038,
      "ஹிஜாப்": 5039,
      "vi": 5040,
      "மம்த": 5041,
      "##கின்றனர்": 5042,
      "##்ட்ட": 5043,
      "##ஞ்சா": 5044,
      "காலநிலை": 5045,
      "எந்தவொரு": 5046,
      "செய்யப்பட்டார்": 5047,
      "இளைய": 5048,
      "கருணாநிதி": 5049,
      "அமைய": 5050,
      "சண்ட": 5051,
      "மன்னி": 5052,
      "##ட்ச்": 5053,
      "ஒருமுறை": 5054,
      "செய்தால்": 5055,
      "இந்தியாவை": 5056,
      "##வர்கள": 5057,
      "அமர்ந்த": 5058,
      "தொண்டர்கள்": 5059,
      "##ாயிற்று": 5060,
      "அச்சுறுத்த": 5061,
      "##த்திரி": 5062,
      "##ினேன்": 5063,
      "##முறையை": 5064,
      "கேள்விக்கு": 5065,
      "மட்டுமின்றி": 5066,
      "இதனையடுத்து": 5067,
      "சாய்": 5068,
      "டிக": 5069,
      "##ென்ன": 5070,
      "திருப்பி": 5071,
      "##பாபு": 5072,
      "அமர்ந்து": 5073,
      "செய்தியாளர்களை": 5074,
      "உளவு": 5075,
      "நர": 5076,
      "##et": 5077,
      "##ிருக்கு": 5078,
      "##ுகோ": 5079,
      "படத்தை": 5080,
      "பேசும்": 5081,
      "கட்சித்": 5082,
      "எடுக்கப்படும்": 5083,
      "காஷ்மீர்": 5084,
      "கலந்துரையாட": 5085,
      "நெடுஞ்ச": 5086,
      "கம்யூ": 5087,
      "##ுரிமை": 5088,
      "அறிவித்துள்ளது": 5089,
      "பெற்றார்": 5090,
      "உத்தரவிட்டு": 5091,
      "பங்கேற்று": 5092,
      "இணையத்தில்": 5093,
      "##வுள்ள": 5094,
      "திட்டங்களை": 5095,
      "பயங்கர": 5096,
      "டிஜிட்டல்": 5097,
      "ஊக்கு": 5098,
      "மலைய": 5099,
      "வண்ண": 5100,
      "##ட்டியில்": 5101,
      "செய்திகள்": 5102,
      "பலன்": 5103,
      "வைக்கும்": 5104,
      "##ங்களே": 5105,
      "என்னிடம்": 5106,
      "ஆட்சியர்": 5107,
      "பிரிட்டன்": 5108,
      "##ப்தி": 5109,
      "##ரிக்": 5110,
      "##ைத்": 5111,
      "பாதை": 5112,
      "ஒருநாள்": 5113,
      "உடலில்": 5114,
      "எவ்வாறு": 5115,
      "37": 5116,
      "ஆசை": 5117,
      "ஐபி": 5118,
      "##ராம்": 5119,
      "##ிருக்கிறேன்": 5120,
      "கூறப்பட்டுள்ளது": 5121,
      "##த்திற்குப்": 5122,
      "என்பதுதான்": 5123,
      "அகற்ற": 5124,
      "திருப்பதி": 5125,
      "மன்ற": 5126,
      "முனை": 5127,
      "##ண்முக": 5128,
      "வாடிக்க": 5129,
      "பாராட்டு": 5130,
      "கூறும்": 5131,
      "நினைத்து": 5132,
      "சோழ": 5133,
      "சாவ": 5134,
      "##மென": 5135,
      "##யான": 5136,
      "அமல்ப": 5137,
      "யாரு": 5138,
      "உண்மையான": 5139,
      "தமிழிடம்": 5140,
      "இயக்குந": 5141,
      "##த்தீவு": 5142,
      "கொடூர": 5143,
      "தூத்துக்குடி": 5144,
      "##ோவில்": 5145,
      "##ாவால்": 5146,
      "நிலைக்கு": 5147,
      "##டுகளுக்கு": 5148,
      "##வர்த": 5149,
      "படங்கள்": 5150,
      "பதிலடி": 5151,
      "சபாநாயகர்": 5152,
      "கஷ்ட": 5153,
      "##ியடைந்த": 5154,
      "##ாரில்": 5155,
      "##க்ஷ": 5156,
      "அவன்": 5157,
      "##லாந்து": 5158,
      "இடத்திற்கு": 5159,
      "கொண்டிருக்கிறது": 5160,
      "தேர்தலுக்கு": 5161,
      "எழுந்துள்ளது": 5162,
      "கப்பல்": 5163,
      "அதனால்தான்": 5164,
      "புற்றுநோ": 5165,
      "பரு": 5166,
      "வலம்": 5167,
      "விளக்கு": 5168,
      "மாநாட்டில்": 5169,
      "32": 5170,
      "தள்ளி": 5171,
      "##ளியில்": 5172,
      "##ையிலிருந்து": 5173,
      "##ுகளில்": 5174,
      "##ுவது": 5175,
      "##ாததால்": 5176,
      "கிடைக்கவில்லை": 5177,
      "காய்ச்ச": 5178,
      "அவர்களது": 5179,
      "விஞ்ஞான": 5180,
      "ஆச": 5181,
      "வாரி": 5182,
      "##டிகள்": 5183,
      "குமார": 5184,
      "வெகு": 5185,
      "இடத்தை": 5186,
      "பாதுகாக்க": 5187,
      "குடும்பம்": 5188,
      "இழந்த": 5189,
      "வாழ்க்கையில்": 5190,
      "மகிழ்ச்சி": 5191,
      "மகாராஷ்டிரா": 5192,
      "ஏனெனில்": 5193,
      "பழங்குடிய": 5194,
      "பொதுச்செயலாளர்": 5195,
      "##டையும்": 5196,
      "##ப்போது": 5197,
      "##ானின்": 5198,
      "##ிகள": 5199,
      "உயர்ந்த": 5200,
      "சேர்ந்தவர்கள்": 5201,
      "யாருக்கு": 5202,
      "வாகனத்தில்": 5203,
      "ரோஹி": 5204,
      "கண்டுபிடி": 5205,
      "சுப்": 5206,
      "ராம்": 5207,
      "தொழிலாளர்கள்": 5208,
      "கூறியிருந்தார்": 5209,
      "வெளியாகியுள்ளது": 5210,
      "குற்றம்சாட்ட": 5211,
      "ஏதோ": 5212,
      "##த்ர": 5213,
      "சமர்": 5214,
      "குழப்ப": 5215,
      "டி20": 5216,
      "இறங்கி": 5217,
      "சிக்கல்": 5218,
      "விட்டது": 5219,
      "கேரளா": 5220,
      "மாணவிகள்": 5221,
      "சிறிது": 5222,
      "ஊடாக": 5223,
      "சண்முக": 5224,
      "பாண்டிய": 5225,
      "நீலக": 5226,
      "அமைச்சகம்": 5227,
      "நடத்தப்பட்ட": 5228,
      "பட்டியல்": 5229,
      "திறன்": 5230,
      "நிகழ்வில்": 5231,
      "##க்கோட்டை": 5232,
      "திருப்பூர்": 5233,
      "காட்சிகள்": 5234,
      "பிபிசியிடம்": 5235,
      "##ஸ்ப": 5236,
      "##ாளிகள்": 5237,
      "##னிதா": 5238,
      "##ரவையில்": 5239,
      "அத்திய": 5240,
      "வாத": 5241,
      "##க்குமாறு": 5242,
      "##ிக்கொள்ள": 5243,
      "##த்திற்குள்": 5244,
      "தரப்பின": 5245,
      "அமெரிக்காவில்": 5246,
      "சீனாவின்": 5247,
      "##வருமான": 5248,
      "ஒன்ப": 5249,
      "சர்க்க": 5250,
      "வடக": 5251,
      "##வன": 5252,
      "##சேக": 5253,
      "##ரித்த": 5254,
      "##வர்களிடம்": 5255,
      "முயற்சிய": 5256,
      "மனோ": 5257,
      "அடுத்தடுத்து": 5258,
      "பாடசாலை": 5259,
      "பகுதியைச்": 5260,
      "இவருக்கு": 5261,
      "எண்": 5262,
      "சார": 5263,
      "வார்த்த": 5264,
      "என்பதில்": 5265,
      "முடித்து": 5266,
      "##ேசன்": 5267,
      "நிறைந்த": 5268,
      "கர்நாடகா": 5269,
      "ஆட": 5270,
      "தலா": 5271,
      "##மின்றி": 5272,
      "##ியால்": 5273,
      "##ட்டுகள்": 5274,
      "இதய": 5275,
      "ஆகவே": 5276,
      "சந்தை": 5277,
      "மோகன்": 5278,
      "மாதங்களில்": 5279,
      "வழக்குகள்": 5280,
      "ஆட்டம்": 5281,
      "திரைப்படம்": 5282,
      "குழுவின்": 5283,
      "மகாராஷ்டிர": 5284,
      "மசோதா": 5285,
      "மஹி": 5286,
      "##துறை": 5287,
      "##வுகிறது": 5288,
      "அதிலும்": 5289,
      "ஒருவரை": 5290,
      "##ாலையில்": 5291,
      "நடத்தப்பட்டது": 5292,
      "வெற்றிகர": 5293,
      "மம்தா": 5294,
      "இக்கோ": 5295,
      "##பந்த": 5296,
      "##க்கால்": 5297,
      "##ப்பொரு": 5298,
      "##ாமல": 5299,
      "வருவதாகவும்": 5300,
      "இந்தியாவ": 5301,
      "ஆர்ப்பா": 5302,
      "அளித்து": 5303,
      "உறவினர்கள்": 5304,
      "சண்டை": 5305,
      "தனு": 5306,
      "குல": 5307,
      "##ிருந்தன": 5308,
      "மின்சாரம்": 5309,
      "வியாபார": 5310,
      "ராசியில்": 5311,
      "வல்லு": 5312,
      "இறக்குமதி": 5313,
      "ஒன்றி": 5314,
      "##ையையும்": 5315,
      "முதிய": 5316,
      "##ப்பட்டிருந்தது": 5317,
      "அதானி": 5318,
      "##ழ்வு": 5319,
      "நேர்": 5320,
      "பிரிவில்": 5321,
      "வழிபா": 5322,
      "நாடுகளுக்கு": 5323,
      "காஷ்மீ": 5324,
      "கம்யூனி": 5325,
      "ஞாயிற்று": 5326,
      "##தரா": 5327,
      "##ொள்க": 5328,
      "##த்ரி": 5329,
      "புத்த": 5330,
      "கட்டிய": 5331,
      "சென்றது": 5332,
      "##தானம்": 5333,
      "இதுதொடர்பாக": 5334,
      "இவரது": 5335,
      "##சில்": 5336,
      "மாய": 5337,
      "பொன்": 5338,
      "அமைச்சின்": 5339,
      "திட்டத்தில்": 5340,
      "பயிற்சிய": 5341,
      "the": 5342,
      "இராணுவ": 5343,
      "அண்மையில்": 5344,
      "##ண்டன்": 5345,
      "##களைச்": 5346,
      "பதற்ற": 5347,
      "2016": 5348,
      "ரஷ்யாவின்": 5349,
      "பெண்களின்": 5350,
      "அர்ச்ச": 5351,
      "விற்க": 5352,
      "##த்திற": 5353,
      "நெட்டி": 5354,
      "##றையின": 5355,
      "தாக்கரே": 5356,
      "போகும்": 5357,
      "விழுந்த": 5358,
      "வேண்டுமான": 5359,
      "55": 5360,
      "##கிறார்கள்": 5361,
      "ராணி": 5362,
      "##தைப்": 5363,
      "அதன்பின்": 5364,
      "வரவேற்பு": 5365,
      "திட்டமிட்ட": 5366,
      "திருவண்ண": 5367,
      "அறிமுகப்படுத்த": 5368,
      "அரிசி": 5369,
      "சிதம்பரம்": 5370,
      "##us": 5371,
      "முன்த": 5372,
      "##நாடு": 5373,
      "துணி": 5374,
      "சீர": 5375,
      "ஆண்டின்": 5376,
      "##ராஜா": 5377,
      "நிரந்தர": 5378,
      "##செய்து": 5379,
      "சட்டமன்றத்": 5380,
      "அப்து": 5381,
      "சிவசேனா": 5382,
      "பாரு": 5383,
      "அதற்க": 5384,
      "சந்தோ": 5385,
      "கட்டிட": 5386,
      "காணொ": 5387,
      "படித்த": 5388,
      "##ிருஷ்ணன்": 5389,
      "வெளியிட்டுள்ளது": 5390,
      "யுக்ரேன்": 5391,
      "செவ்வாய்": 5392,
      "வரிசையில்": 5393,
      "##விந்த்": 5394,
      "உலகில்": 5395,
      "ஆர்வம்": 5396,
      "தினக": 5397,
      "அளிக்கும்": 5398,
      "தாக்குதலை": 5399,
      "சுற்றுச்சூ": 5400,
      "டீசல்": 5401,
      "இராஜாங்க": 5402,
      "மணியளவில்": 5403,
      "##வழி": 5404,
      "##றது": 5405,
      "##ீல்": 5406,
      "##்கர்": 5407,
      "##ங்கோ": 5408,
      "மீதும்": 5409,
      "சுரே": 5410,
      "பார்க்கும்": 5411,
      "பெண்களை": 5412,
      "ஆபத்து": 5413,
      "அய்ய": 5414,
      "அவ்வப்போது": 5415,
      "அறிகுற": 5416,
      "##ேல்": 5417,
      "##ரைச்": 5418,
      "தொடரும்": 5419,
      "##ிருந்தாலும்": 5420,
      "வாழும்": 5421,
      "அம்ச": 5422,
      "கவனிக்க": 5423,
      "மயிலாடு": 5424,
      "ஊர": 5425,
      "##ிக்கொண்டு": 5426,
      "##ாளரும்": 5427,
      "##ாலோ": 5428,
      "##மாட்ட": 5429,
      "தமிழ்நாட்டின்": 5430,
      "வெள்ளை": 5431,
      "என்பதற்காக": 5432,
      "அவ்வளவு": 5433,
      "ஏனென்றால்": 5434,
      "பெரிதாக": 5435,
      "கிறிஸ்த": 5436,
      "##ொன்ற": 5437,
      "##னையாக": 5438,
      "##க்கிறது": 5439,
      "##ாயிர": 5440,
      "புத": 5441,
      "முறைகே": 5442,
      "ஏழ": 5443,
      "ஏதே": 5444,
      "##ுக்கும்": 5445,
      "##ப்பையும்": 5446,
      "##ப்பிற்கு": 5447,
      "பகுதிய": 5448,
      "காலையில்": 5449,
      "வைத்தனர்": 5450,
      "ட்வீ": 5451,
      "பதவியில்": 5452,
      "அரசியலமைப்பு": 5453,
      "பெங்களூரு": 5454,
      "ஜப்பான்": 5455,
      "அமைப்புகள்": 5456,
      "##டுகின்றனர்": 5457,
      "தீர்க்க": 5458,
      "போராடி": 5459,
      "##ார்களா": 5460,
      "கன்னியாக": 5461,
      "கொல்கத்தா": 5462,
      "ஜெனரல்": 5463,
      "48": 5464,
      "அட்": 5465,
      "உத்திய": 5466,
      "லேச": 5467,
      "##நடுக்க": 5468,
      "##ர்ஜி": 5469,
      "குறைவான": 5470,
      "காவிரி": 5471,
      "ஏற்படுத்திய": 5472,
      "மித": 5473,
      "விழுப்பு": 5474,
      "இன்றும்": 5475,
      "எச்சரிக்க": 5476,
      "எங்கே": 5477,
      "யான": 5478,
      "##பாய": 5479,
      "##ீவ்": 5480,
      "##ாரின்": 5481,
      "போத": 5482,
      "##வேறு": 5483,
      "செய்யவில்லை": 5484,
      "எந்தவித": 5485,
      "தூத": 5486,
      "அதேநேரம்": 5487,
      "குடும்பத்தில்": 5488,
      "சிறுத்தை": 5489,
      "ராமநாத": 5490,
      "கும்பல்": 5491,
      "400": 5492,
      "ஓர": 5493,
      "சரவ": 5494,
      "லே": 5495,
      "##கும்": 5496,
      "##ார்க்க": 5497,
      "நிலநடுக்க": 5498,
      "##ளித": 5499,
      "##ஸ்டி": 5500,
      "மருத்துவக்": 5501,
      "##ஜ்ரி": 5502,
      "கனடா": 5503,
      "நண்பர்கள்": 5504,
      "\".": 5505,
      "அலி": 5506,
      "நை": 5507,
      "##ஜு": 5508,
      "கனமழை": 5509,
      "உயிரிழந்து": 5510,
      "பட்டியல": 5511,
      "கன்னியாகும": 5512,
      "ஏறி": 5513,
      "ஷெ": 5514,
      "போலி": 5515,
      "பேரு": 5516,
      "அரேப": 5517,
      "மீட்டு": 5518,
      "இடது": 5519,
      "##வர்களாக": 5520,
      "தெரியுமா": 5521,
      "கொரோன": 5522,
      "கேட்டுக்": 5523,
      "ஜோதி": 5524,
      "சமயத்தில்": 5525,
      "தஞ்சாவ": 5526,
      "மதியம்": 5527,
      "##ew": 5528,
      "செஸ்": 5529,
      "தொலைக்க": 5530,
      "##ிக்கான": 5531,
      "அர்த்த": 5532,
      "சீனி": 5533,
      "யாருக்கும்": 5534,
      "பாடல்": 5535,
      "நாடாளுமன்றத்": 5536,
      "பிரச்னைகள்": 5537,
      "தரும": 5538,
      "அயோ": 5539,
      "ஒத்துழைப்பு": 5540,
      "கற்க": 5541,
      "புள்ளி": 5542,
      "##வாதிகள்": 5543,
      "வழங்கினார்": 5544,
      "கருவ": 5545,
      "எடுத்துச்": 5546,
      "பெற்றுள்ளது": 5547,
      "விடுவி": 5548,
      "விஷயங்கள்": 5549,
      "ஐரோப்பிய": 5550,
      "33": 5551,
      "##ொன்று": 5552,
      "##ின்றார்": 5553,
      "இருக்கின்றனர்": 5554,
      "விளம்பர": 5555,
      "உருவான": 5556,
      "பார்த்தால்": 5557,
      "காரில்": 5558,
      "ஆட்டத்தில்": 5559,
      "விக்கெட்டுகளை": 5560,
      "வளை": 5561,
      "##பட்டு": 5562,
      "##ளாவ": 5563,
      "##ிறீர்கள்": 5564,
      "##ிருத்த": 5565,
      "##ாளரான": 5566,
      "அரசை": 5567,
      "##ிற்கான": 5568,
      "பிளா": 5569,
      "##ர்தான்": 5570,
      "சட்டத்தை": 5571,
      "##தாஸ்": 5572,
      "நெல்லை": 5573,
      "நிபுணர்கள்": 5574,
      "எடுக்கும்": 5575,
      "நட்பு": 5576,
      "முன்தினம்": 5577,
      "ஒழிப்பு": 5578,
      "சாக": 5579,
      "ரெய": 5580,
      "##ாகப்": 5581,
      "ஒருவேளை": 5582,
      "பெரியார்": 5583,
      "செயல்பட்ட": 5584,
      "பந்துகளில்": 5585,
      "பணியாற்றி": 5586,
      "பின்பற்ற": 5587,
      "காப்பாற்ற": 5588,
      "மஞ்சள்": 5589,
      "##முருகன்": 5590,
      "பௌ": 5591,
      "##யமாக": 5592,
      "##iv": 5593,
      "##ாதா": 5594,
      "##ராச": 5595,
      "பாராட்ட": 5596,
      "##ள்ளோம்": 5597,
      "##ாவா": 5598,
      "கடத்த": 5599,
      "சுட்டு": 5600,
      "##பாஸ்": 5601,
      "உதவும்": 5602,
      "பெரும": 5603,
      "குறைந்தபட்ச": 5604,
      "படுகொலை": 5605,
      "##்கூட": 5606,
      "##ிறுவ": 5607,
      "வெளியேற": 5608,
      "சிக்கிய": 5609,
      "டிரம்ப்": 5610,
      "கிளம்ப": 5611,
      "ஊடகங்களில்": 5612,
      "அம்மனுக்கு": 5613,
      "முற்றிலும்": 5614,
      "ஆனா": 5615,
      "இண": 5616,
      "##த்தினால்": 5617,
      "மூழ்க": 5618,
      "இப்போ": 5619,
      "இயந்திர": 5620,
      "தூக்க": 5621,
      "வாகனம்": 5622,
      "##க்கொண்டார்": 5623,
      "அனுப்பிய": 5624,
      "##ிறதா": 5625,
      "##லைக்": 5626,
      "கும": 5627,
      "காள": 5628,
      "நிலையை": 5629,
      "முடியுமா": 5630,
      "நகராட்சி": 5631,
      "வாழ்த்த": 5632,
      "##ஸ்கே": 5633,
      "ஏற்றுக்கொள்ள": 5634,
      "ரெட்டி": 5635,
      "ஈரோடு": 5636,
      "##ஸ்கள்": 5637,
      "என்பதும்": 5638,
      "##ும்படி": 5639,
      "படக": 5640,
      "எழுந்து": 5641,
      "வழிபட்ட": 5642,
      "##மொழ": 5643,
      "மூன்றாம்": 5644,
      "வெளிப்படையாக": 5645,
      "எழ": 5646,
      "ஓரா": 5647,
      "சன்ன": 5648,
      "##களுக்கான": 5649,
      "##துக்க": 5650,
      "தெலங்க": 5651,
      "##முறையில்": 5652,
      "துரு": 5653,
      "##ங்களா": 5654,
      "அதுமட்டு": 5655,
      "உள்ளிட்டோர்": 5656,
      "பொருளாதாரம்": 5657,
      "வலுவான": 5658,
      "தெலுங்கு": 5659,
      "நடிக்க": 5660,
      "##ன்ட": 5661,
      "##ாலம்": 5662,
      "மக்களிடம்": 5663,
      "முடிவில்": 5664,
      "பேசு": 5665,
      "வேண்டியது": 5666,
      "இறங்க": 5667,
      "குழுவினர்": 5668,
      "விழுந்து": 5669,
      "செய்துகொண்ட": 5670,
      "தெய்வ": 5671,
      "லோக்ச": 5672,
      "காலகட்டத்தில்": 5673,
      "பாபு": 5674,
      "அரபு": 5675,
      "வருவதால்": 5676,
      "சந்தேகம்": 5677,
      "அனைத்தையும்": 5678,
      "தெரியாமல்": 5679,
      "திருக்கல்யா": 5680,
      "ஆண்கள்": 5681,
      "##ர்ட்ட": 5682,
      "எரிபொருள்": 5683,
      "நெட்டிச": 5684,
      "##ாதி": 5685,
      "##த்தர": 5686,
      "வின": 5687,
      "போதே": 5688,
      "நிலவும்": 5689,
      "மணிப்பூர்": 5690,
      "கொள்ளலாம்": 5691,
      "நம்மை": 5692,
      "வேட்பாளராக": 5693,
      "என்பதையும்": 5694,
      "சொல்வது": 5695,
      "##வர்தன": 5696,
      "சன்": 5697,
      "மண்": 5698,
      "##வாரி": 5699,
      "போரில்": 5700,
      "தேதிய": 5701,
      "அரிய": 5702,
      "##ிட்டி": 5703,
      "##பிள்": 5704,
      "##முடிய": 5705,
      "நிர்ம": 5706,
      "அதிமுகவின்": 5707,
      "போதுமான": 5708,
      "அதன்பிறகு": 5709,
      "மட்டுமல்லாமல்": 5710,
      "',": 5711,
      "##பகவ": 5712,
      "##த்தன்மை": 5713,
      "வாடக": 5714,
      "தலைவரும்": 5715,
      "சிவக": 5716,
      "வியாழ": 5717,
      "ஏதேனும்": 5718,
      "ஆப்பிரிக்க": 5719,
      "‛‛": 5720,
      "##ாவிட்டால்": 5721,
      "##ங்கர்": 5722,
      "முற்ப": 5723,
      "##ிகளிடம்": 5724,
      "விடுக்க": 5725,
      "பாய்": 5726,
      "இடங்கள்": 5727,
      "வரவில்லை": 5728,
      "##வீர்கள்": 5729,
      "நோட்ட": 5730,
      "திட்டமிட": 5731,
      "தொகுதிகளில்": 5732,
      "கடற்படை": 5733,
      "சிபிஐ": 5734,
      "அமல்படுத்த": 5735,
      "ஐய": 5736,
      "சமுத": 5737,
      "##டான": 5738,
      "##ிடும்": 5739,
      "பிரகா": 5740,
      "இருந்தே": 5741,
      "கொண்டிருக்கும்": 5742,
      "திரை": 5743,
      "##ரவாத": 5744,
      "மின்ன": 5745,
      "மாளிக": 5746,
      "கதாபா": 5747,
      "அபர": 5748,
      "##ஜெட்": 5749,
      "##re": 5750,
      "##ப்பய": 5751,
      "முடிக்க": 5752,
      "கோப்ப": 5753,
      "பலத்த": 5754,
      "தாங்கள்": 5755,
      "பிறப்பி": 5756,
      "கணக்கெ": 5757,
      "அவர்களிடம்": 5758,
      "நடத்தும்": 5759,
      "196": 5760,
      "நிலையில்தான்": 5761,
      "அங்கிருந்த": 5762,
      "கலைஞர்": 5763,
      "வட்டார": 5764,
      "பண்ணி": 5765,
      "மன்னிப்பு": 5766,
      "ஐபிஎல்": 5767,
      "உலா": 5768,
      "எதையும்": 5769,
      "##மிடம்": 5770,
      "##வேக": 5771,
      "##மாற": 5772,
      "சமயம்": 5773,
      "வழங்கப்பட்ட": 5774,
      "சொல்லப்படுகிறது": 5775,
      "போன்றவை": 5776,
      "மனதில்": 5777,
      "இதனைத்": 5778,
      "கூடுதலாக": 5779,
      "விழுப்புரம்": 5780,
      "தாவ": 5781,
      "தடுத்து": 5782,
      "##பட்டி": 5783,
      "##லையும்": 5784,
      "##ங்க்": 5785,
      "##க்குக்": 5786,
      "பாம்ப": 5787,
      "வெவ்": 5788,
      "##ாதது": 5789,
      "ஆட்டமிழ": 5790,
      "\"..": 5791,
      "எங்கு": 5792,
      "##ch": 5793,
      "பொலி": 5794,
      "சிஎ": 5795,
      "##மேஷ்": 5796,
      "அணியை": 5797,
      "பிரிட்டி": 5798,
      "இத்த": 5799,
      "சோத": 5800,
      "தட்டு": 5801,
      "##ாலா": 5802,
      "வருடம்": 5803,
      "செய்யப்பட": 5804,
      "சேர": 5805,
      "கணவன்": 5806,
      "இல்லைய": 5807,
      "நிலைப்பா": 5808,
      "2015": 5809,
      "ஜெயக்குமார்": 5810,
      "தொலைவில்": 5811,
      "கண்காணிப்பு": 5812,
      "மதம்": 5813,
      "##ப்பதால்": 5814,
      "பிரியா": 5815,
      "##ரைக்": 5816,
      "##சித்து": 5817,
      "வீடுகள்": 5818,
      "தாக்கி": 5819,
      "அமையும்": 5820,
      "வரலாற்றில்": 5821,
      "தளபதி": 5822,
      "##க்காரர்கள்": 5823,
      "ராஜபக்சே": 5824,
      "அசை": 5825,
      "ஆண்டும்": 5826,
      "##ப்பூரில்": 5827,
      "பிரம்ம": 5828,
      "சமைய": 5829,
      "கணக்கில்": 5830,
      "சப்": 5831,
      "##னையின்": 5832,
      "##வதே": 5833,
      "கூறியுள்ளது": 5834,
      "கருத்தில்": 5835,
      "நிறுவனத்தில்": 5836,
      "நடந்துள்ளது": 5837,
      "##மூர்த்தி": 5838,
      "பெண்ணின்": 5839,
      "திணைக்கள": 5840,
      "அட்டை": 5841,
      "எங்களை": 5842,
      "##ஸ்பு": 5843,
      "##வாங்க": 5844,
      "முடிவ": 5845,
      "வயி": 5846,
      "நடத்தப்படும்": 5847,
      "ஆலய": 5848,
      "புறக்கணி": 5849,
      "மாநாடு": 5850,
      "பறிமுதல்": 5851,
      "வாடிக்கைய": 5852,
      "##ீம்": 5853,
      "##த்துக்காக": 5854,
      "##ிகளுக்கும்": 5855,
      "தேரோ": 5856,
      "கட்டமை": 5857,
      "எழுத்த": 5858,
      "கருதி": 5859,
      "மேற்கொள்": 5860,
      "குடிநீர்": 5861,
      "எதிர்காலத்தில்": 5862,
      "இத்தனை": 5863,
      "##க்ட": 5864,
      "##ல்லி": 5865,
      "##வைக்": 5866,
      "இதுவே": 5867,
      "பாரதிய": 5868,
      "கண்டன": 5869,
      "வெளியேற்ற": 5870,
      "கொடுத்தார்": 5871,
      "பெண்ணை": 5872,
      "ட்விட்டரில்": 5873,
      "யோகம்": 5874,
      "41": 5875,
      "டு": 5876,
      "##டுக்கும்": 5877,
      "##ிடமும்": 5878,
      "##ளித்து": 5879,
      "இரான்": 5880,
      "அதைப்": 5881,
      "ஈடுபட": 5882,
      "வசதிகள்": 5883,
      "ஜெர்ம": 5884,
      "மாரியம்மன்": 5885,
      "ஆஸ்திரேலியா": 5886,
      "##வருகிறது": 5887,
      "ஒளிபர": 5888,
      "இந்நிக": 5889,
      "2வது": 5890,
      "க்கள்": 5891,
      "ஹரி": 5892,
      "##கல்": 5893,
      "##ot": 5894,
      "முதற்க": 5895,
      "பலி": 5896,
      "மாற்றங்கள்": 5897,
      "உற்பத்திய": 5898,
      "விசாரித்து": 5899,
      "கும்பாபிஷேக": 5900,
      "ராஜபக்ஷ": 5901,
      "ஹீ": 5902,
      "##ியிடம்": 5903,
      "மீனா": 5904,
      "முக்கியம்": 5905,
      "தங்கிய": 5906,
      "அறிக்கையை": 5907,
      "நூற்று": 5908,
      "மாறாக": 5909,
      "வாயில": 5910,
      "அஜித்": 5911,
      "தர்": 5912,
      "##பாய்": 5913,
      "##மதா": 5914,
      "##நட": 5915,
      "காற்று": 5916,
      "கூடும்": 5917,
      "சுப": 5918,
      "கேட்ப": 5919,
      "அமர": 5920,
      "தினசரி": 5921,
      "கொள்ளும்": 5922,
      "செயலாளராக": 5923,
      "மறுத்து": 5924,
      "சோனியா": 5925,
      "வைரல": 5926,
      "பல்கலைக்கழகத்தின்": 5927,
      "வலைத்தள": 5928,
      "முயற்சிகள்": 5929,
      "கழித்து": 5930,
      "தீபாராதனை": 5931,
      "லா": 5932,
      "##திர்": 5933,
      "##ட்சியின்": 5934,
      "##ாதே": 5935,
      "வருத்த": 5936,
      "##ரியின்": 5937,
      "வீரா": 5938,
      "முன்னெடுக்க": 5939,
      "சந்தித்தார்": 5940,
      "செல்வது": 5941,
      "காதலி": 5942,
      "கம்யூனிஸ்ட்": 5943,
      "திருவண்ணாமலை": 5944,
      "அற்ப": 5945,
      "எமது": 5946,
      "ஏற": 5947,
      "##ிகளாக": 5948,
      "பாமக": 5949,
      "சிறப்பான": 5950,
      "பாஜகவை": 5951,
      "வந்துள்ளார்": 5952,
      "உருவாக்கி": 5953,
      "இன்ஸ்ட": 5954,
      "கலைஞ": 5955,
      "ஆரம்பிக்க": 5956,
      "பட்ஜெட்": 5957,
      "இம்ரான்": 5958,
      "நேற்றைய": 5959,
      "வெவ்வேறு": 5960,
      "ஏக்கர்": 5961,
      "குறைய": 5962,
      "அளவிலான": 5963,
      "வைத்திருந்த": 5964,
      "கனவு": 5965,
      "வாகனங்கள்": 5966,
      "பிரதேசம்": 5967,
      "ஏற்பட்டுள்ள": 5968,
      "கல்லூரியில்": 5969,
      "அவருடன்": 5970,
      "மொத்தமாக": 5971,
      "சமர்ப்பி": 5972,
      "of": 5973,
      "இங்க": 5974,
      "##வழ": 5975,
      "##ளுக்க": 5976,
      "சேகர்": 5977,
      "சிவில்": 5978,
      "பாரத்": 5979,
      "அரசுப்": 5980,
      "மாதங்கள்": 5981,
      "##ள்களை": 5982,
      "இணைந்த": 5983,
      "தெரிவித்திருந்தார்": 5984,
      "காரிய": 5985,
      "பழனிசாம": 5986,
      "கூறியிருக்கிறார்": 5987,
      "துணைத்": 5988,
      "தாக்குதலில்": 5989,
      "சதவிகிதம்": 5990,
      "டாலர்": 5991,
      "ஹைதரா": 5992,
      "##ளாவிய": 5993,
      "ஆக்": 5994,
      "மார்க": 5995,
      "##பிக்க": 5996,
      "##மல": 5997,
      "##ாரை": 5998,
      "##மாக்க": 5999,
      "வெளியானது": 6000,
      "பட்டா": 6001,
      "பேரறி": 6002,
      "நியமிக்க": 6003,
      "வேளாண்": 6004,
      "நீலகிரி": 6005,
      "##ுல்": 6006,
      "##ுமாறு": 6007,
      "##ரச": 6008,
      "##ோகம்": 6009,
      "ரூபா": 6010,
      "நெல்": 6011,
      "நோக்கம்": 6012,
      "மொபை": 6013,
      "195": 6014,
      "காணாமல்": 6015,
      "அளித்தார்": 6016,
      "மறுப": 6017,
      "மாநகராட்ச": 6018,
      "ஷிண்டே": 6019,
      "to": 6020,
      "ராக": 6021,
      "##கிரி": 6022,
      "##ாவளி": 6023,
      "நடந்தன": 6024,
      "நியூசில": 6025,
      "மயிலாடுதுறை": 6026,
      "வான்": 6027,
      "##ரிக்கும்": 6028,
      "##முடைய": 6029,
      "தாக்கிய": 6030,
      "தூது": 6031,
      "விரைந்து": 6032,
      "மறைந்த": 6033,
      "வேலூர்": 6034,
      "ஆதித்ய": 6035,
      "கட்சியினர்": 6036,
      "தள்ளு": 6037,
      "திருநெ": 6038,
      "ஊட": 6039,
      "எடுப்ப": 6040,
      "##்தொ": 6041,
      "##த்தலை": 6042,
      "##புரத்தில்": 6043,
      "பயிர": 6044,
      "##விட்டன": 6045,
      "மாநிலத்தின்": 6046,
      "சம்பள": 6047,
      "படிப்ப": 6048,
      "பணியிட": 6049,
      "பிரதிநி": 6050,
      "பிரதமராக": 6051,
      "ரோஹித்": 6052,
      "மஹ": 6053,
      "##ாண்டு": 6054,
      "##ுடு": 6055,
      "##ணத்தில்": 6056,
      "##்களின்": 6057,
      "விவா": 6058,
      "வீசி": 6059,
      "வீட்டின்": 6060,
      "வீடுகளில்": 6061,
      "##சியை": 6062,
      "போட்டோ": 6063,
      "வளர்க்க": 6064,
      "பேச்சுவார்த்த": 6065,
      "வெங்கட": 6066,
      "பயன்பா": 6067,
      "திருநெல்வே": 6068,
      "நாளித": 6069,
      "##மாகத்": 6070,
      "##டுகிறார்கள்": 6071,
      "##லித்": 6072,
      "என்னவெ": 6073,
      "அதிகாரப்பூர்வ": 6074,
      "சம்பளம்": 6075,
      "and": 6076,
      "தேவையில்லை": 6077,
      "ஞாயிற்றுக்கிழமை": 6078,
      "உத்தியோக": 6079,
      "34": 6080,
      "ஆவது": 6081,
      "##le": 6082,
      "##ங்களுக்கான": 6083,
      "கோட்டை": 6084,
      "சிலருக்கு": 6085,
      "இதைத்": 6086,
      "தெரிவித்திருக்கிறார்": 6087,
      "உறுதிப்படுத்த": 6088,
      "இடையேயான": 6089,
      "அதிருப்த": 6090,
      "?\"": 6091,
      "எடை": 6092,
      "மனம்": 6093,
      "வட்டி": 6094,
      "##ராய": 6095,
      "##க்களில்": 6096,
      "##ர்களே": 6097,
      "விதை": 6098,
      "##ச்சின்": 6099,
      "சேமி": 6100,
      "அறிவித்தார்": 6101,
      "திருமாவள": 6102,
      "உணவுப்": 6103,
      "டிரை": 6104,
      "பைடன்": 6105,
      "வேலையில்": 6106,
      "##த்தேர்த": 6107,
      "செவ்வாய": 6108,
      "விவாதிக்க": 6109,
      "அவி": 6110,
      "##ிரவு": 6111,
      "மாம": 6112,
      "##ரியாக": 6113,
      "பொன்ன": 6114,
      "##வைப்": 6115,
      "தீர்ப்ப": 6116,
      "காயமடைந்த": 6117,
      "வெற்றியை": 6118,
      "ஆரம்பித்து": 6119,
      "திருவள்ள": 6120,
      "மாட்டார்கள்": 6121,
      "பங்கேற்றனர்": 6122,
      "ஆச்சரிய": 6123,
      "மஹிந்த": 6124,
      "கரை": 6125,
      "##ென்று": 6126,
      "##un": 6127,
      "##ut": 6128,
      "##க்களும்": 6129,
      "##ிராம்": 6130,
      "போதிலும்": 6131,
      "வேட்பு": 6132,
      "##ிடையில்": 6133,
      "புத்தா": 6134,
      "சுக்கிர": 6135,
      "இருந்தபோது": 6136,
      "அந்தச்": 6137,
      "இருக்கிறோம்": 6138,
      "பின்னால்": 6139,
      "##ஸ்டிக்": 6140,
      "காணப்படும்": 6141,
      "தவிர்த்து": 6142,
      "செய்தித்": 6143,
      "சாம்": 6144,
      "##கத்தின்": 6145,
      "##ஜர்": 6146,
      "##என்": 6147,
      "கடலில்": 6148,
      "##வர்களுக்கும்": 6149,
      "பின்பு": 6150,
      "ஆண்டுக்கு": 6151,
      "உணர்ந்த": 6152,
      "சொல்லும்": 6153,
      "விலகி": 6154,
      "தொடங்கினார்": 6155,
      "படிக்கும்": 6156,
      "வெள்ளிக்கிழமை": 6157,
      "பயிற்ச": 6158,
      "ஏற்பாடுகள்": 6159,
      "பணியாளர்கள்": 6160,
      "செல்போன்": 6161,
      "அற்புத": 6162,
      "ரவீ": 6163,
      "##டுக்கு": 6164,
      "##ர்களா": 6165,
      "##விருக்க": 6166,
      "##னுக்கும்": 6167,
      "தோட்ட": 6168,
      "பணிப்பாளர்": 6169,
      "டெல்": 6170,
      "அண்ணன்": 6171,
      "கெஜ்ரி": 6172,
      "அலங்காரத்தில்": 6173,
      "பிரசாரம்": 6174,
      "திரிணாம": 6175,
      "கலந்துகொண்டனர்": 6176,
      "சமுதாய": 6177,
      "அத்தகைய": 6178,
      "எஃப்": 6179,
      "கல்": 6180,
      "தந்து": 6181,
      "##வரிடம்": 6182,
      "##ழ்ந்த": 6183,
      "சமேத": 6184,
      "அமைச்சு": 6185,
      "மாணவர்களின்": 6186,
      "தமிழகத்தின்": 6187,
      "செய்வதற்கு": 6188,
      "ஆயிரத்து": 6189,
      "காஞ்சிபுரம்": 6190,
      "தஞ்சாவூர்": 6191,
      "பிரிட்டிஷ்": 6192,
      "உங்களை": 6193,
      "கழ": 6194,
      "##திகளை": 6195,
      "##மாற்றம்": 6196,
      "இருந்ததால்": 6197,
      "கொண்டாட்ட": 6198,
      "##லுக்கான": 6199,
      "##ப்படுகின்றது": 6200,
      "பாலஸ்த": 6201,
      "தாக்கத்தை": 6202,
      "மந்திர": 6203,
      "மெல்ல": 6204,
      "##வள": 6205,
      "##di": 6206,
      "##ிலே": 6207,
      "மாடல்": 6208,
      "##ுகை": 6209,
      "துன்பு": 6210,
      "##தைக்": 6211,
      "பாஜகவில்": 6212,
      "தரப்ப": 6213,
      "அறிவிக்கப்பட்ட": 6214,
      "ஆராதனை": 6215,
      "விழாவை": 6216,
      "சந்திப்பில்": 6217,
      "இழப்ப": 6218,
      "புதின்": 6219,
      "அம்பேத": 6220,
      "சினிம": 6221,
      "ஆய்வாளர்": 6222,
      "பானர்ஜி": 6223,
      "##த்தொடர்ந்து": 6224,
      "ஆணை": 6225,
      "உல": 6226,
      "##ஒதுக்க": 6227,
      "##ச்சல": 6228,
      "##ினாலும்": 6229,
      "சித்திரை": 6230,
      "இடங்களிலும்": 6231,
      "அனுப்பு": 6232,
      "அளவிற்கு": 6233,
      "கலந்த": 6234,
      "இயக்கம்": 6235,
      "தோற்ற": 6236,
      "##ation": 6237,
      "ஹெல": 6238,
      "லோக்சபா": 6239,
      "38": 6240,
      "ஆபாச": 6241,
      "ஏர்": 6242,
      "ஏற்றி": 6243,
      "ஜாத": 6244,
      "தம்பி": 6245,
      "நள்ள": 6246,
      "வுக்கு": 6247,
      "##ணர்": 6248,
      "##வுபடுத்த": 6249,
      "வெட்டி": 6250,
      "கோல்": 6251,
      "தொடக்கத்தில்": 6252,
      "பணியை": 6253,
      "தாக்கம்": 6254,
      "மாதங்களாக": 6255,
      "ராமேஸ்வர": 6256,
      "மண்டபத்தில்": 6257,
      "ரிஷ": 6258,
      "அடங்கிய": 6259,
      "பதிலளித்த": 6260,
      "பணியாற்ற": 6261,
      "கிலோமீ": 6262,
      "எளிதாக": 6263,
      "வழக்கறிஞ": 6264,
      "அமலாக்கத்துறை": 6265,
      "அறநிலையத்துறை": 6266,
      "##மிக்ரான்": 6267,
      "ஊக்குவி": 6268,
      "ஐந்த": 6269,
      "பர்": 6270,
      "##பாலி": 6271,
      "##ெடுத்த": 6272,
      "##யோக": 6273,
      "##த்தன்": 6274,
      "முகம்": 6275,
      "கொன்ற": 6276,
      "பூமி": 6277,
      "அலுவலர்": 6278,
      "பன்னீர்செல்வ": 6279,
      "44": 6280,
      "அண்டை": 6281,
      "சக்கர": 6282,
      "குண்டு": 6283,
      "இரவில்": 6284,
      "##ட்களை": 6285,
      "உத்தவ்": 6286,
      "எடுக்கப்பட்ட": 6287,
      "150": 6288,
      "ஜெக": 6289,
      "இன்றி": 6290,
      "சுதந்திரம்": 6291,
      "தாமத": 6292,
      "அன்றைய": 6293,
      "##ருக்கான": 6294,
      "வருவாய்": 6295,
      "முடித்த": 6296,
      "கணக்க": 6297,
      "கருத்தை": 6298,
      "எல்லையில்": 6299,
      "அரசாங்கத்தின்": 6300,
      "கன்னியாகுமரி": 6301,
      "ஏதும்": 6302,
      "தளம்": 6303,
      "பிரக": 6304,
      "##ாதன": 6305,
      "கைவிட": 6306,
      "என்னென்ன": 6307,
      "பரப்ப": 6308,
      "உரிமைகள்": 6309,
      "இதேபோல்": 6310,
      "ஹிந்து": 6311,
      "##தோறும்": 6312,
      "விருதுநகர்": 6313,
      "நியமனம்": 6314,
      "ன்": 6315,
      "லிட்ட": 6316,
      "##ai": 6317,
      "##ஆவது": 6318,
      "##ாதான": 6319,
      "கடமை": 6320,
      "இடைய": 6321,
      "அப்போதைய": 6322,
      "விளையாட": 6323,
      "விஷயத்தில்": 6324,
      "செய்கிறார்": 6325,
      "அலங்காரம்": 6326,
      "மாதிரியான": 6327,
      "அறிமுகம்": 6328,
      "சனிக்கிழமை": 6329,
      "மைதானத்தில்": 6330,
      "சிக்ஸ": 6331,
      "##டங்கு": 6332,
      "##ரைய": 6333,
      "##க்கத்தை": 6334,
      "மேலா": 6335,
      "கட்டாயம்": 6336,
      "குறைந்தது": 6337,
      "பாலத்தீ": 6338,
      "செல்வம்": 6339,
      "நுண்ண": 6340,
      "இளவர": 6341,
      "குற்றச்சாட்டுகள்": 6342,
      "பனி": 6343,
      "மெய": 6344,
      "##ங்குகள்": 6345,
      "மாறிய": 6346,
      "பாச": 6347,
      "##ம்பெய": 6348,
      "##ரைப்": 6349,
      "##ாதீர்கள்": 6350,
      "வந்தாலும்": 6351,
      "சீர்க": 6352,
      "கருத்த": 6353,
      "வழக்கமாக": 6354,
      "சிறுபான்": 6355,
      "சிவன்": 6356,
      "மட்டும்தான்": 6357,
      "வேண்டுமென": 6358,
      "சட்டசப": 6359,
      "பதவியே": 6360,
      "நெட்டிசன்கள்": 6361,
      "st": 6362,
      "##ர்ண": 6363,
      "காயம்": 6364,
      "வரைய": 6365,
      "சீச": 6366,
      "அனைவரையும்": 6367,
      "மறுக்க": 6368,
      "வேட்பாளர்கள்": 6369,
      "விதிமுறை": 6370,
      "ஆசிரியர்கள்": 6371,
      "மார்க்க": 6372,
      "பேட்டியில்": 6373,
      "ஏமாற்ற": 6374,
      "விழிப்புணர்வு": 6375,
      "?!": 6376,
      "pr": 6377,
      "##மில்": 6378,
      "##ீட்ச": 6379,
      "##க்குள்ள": 6380,
      "அவற்றின்": 6381,
      "##ுவில்": 6382,
      "##ாமன்": 6383,
      "எதிர்வரும்": 6384,
      "##ழ்ச்சி": 6385,
      "கொள்ளை": 6386,
      "##ப்பட்டுள்ளதாகவும்": 6387,
      "அதிகரித்த": 6388,
      "விளையாடி": 6389,
      "கட்டுப்பாட்டில்": 6390,
      "அறிவிக்கப்பட்டுள்ளது": 6391,
      "தைரிய": 6392,
      "சிஎஸ்கே": 6393,
      "##மாய்": 6394,
      "##்டி": 6395,
      "##ங்கலம்": 6396,
      "ஒருவருக்கு": 6397,
      "##ரிக்கப்பட்ட": 6398,
      "சீமான்": 6399,
      "நேரடி": 6400,
      "சுவார": 6401,
      "வாழ்ந்து": 6402,
      "டாஸ்": 6403,
      "ஆய்வாளர்கள்": 6404,
      "சஞ்சய்": 6405,
      "ஹா": 6406,
      "##மில்ல": 6407,
      "##யு": 6408,
      "##சியில்": 6409,
      "##ட்டிக்": 6410,
      "##வுன்": 6411,
      "##னைப்": 6412,
      "மேலே": 6413,
      "##ிற்காக": 6414,
      "சந்தையில்": 6415,
      "மிகக்": 6416,
      "குறித்துப்": 6417,
      "பதற்றம்": 6418,
      "தெரியாத": 6419,
      "ஒன்றும்": 6420,
      "திறந்த": 6421,
      "பணிபுரி": 6422,
      "குழுவில்": 6423,
      "கருதப்படுகிறது": 6424,
      "லாபம்": 6425,
      "இதன்போது": 6426,
      "வேலைவாய்ப்பு": 6427,
      "எம்ப": 6428,
      "பத்த": 6429,
      "##மையும்": 6430,
      "##மடை": 6431,
      "##ம்மை": 6432,
      "என்னால்": 6433,
      "##னைகள்": 6434,
      "பொய்ய": 6435,
      "##சியா": 6436,
      "இடஒதுக்க": 6437,
      "வழங்கப்பட": 6438,
      "முடிகிறது": 6439,
      "வழக்குப்பதிவு": 6440,
      "இதற்குப்": 6441,
      "தாயார்": 6442,
      "சூரியன்": 6443,
      "கமிஷ": 6444,
      "பஸ்": 6445,
      "##றல்": 6446,
      "##ுவதற்கு": 6447,
      "புதை": 6448,
      "##ட்டிங்": 6449,
      "தொடர்பாளர்": 6450,
      "கொண்டுள்ளது": 6451,
      "பாதுகாப்பாக": 6452,
      "தோனி": 6453,
      "ஸ்பெ": 6454,
      "##ாளர்களும்": 6455,
      "பாதிப்பை": 6456,
      "##ராஜர்": 6457,
      "இஸ்ரேலிய": 6458,
      "மோசமாக": 6459,
      "திரும்பிய": 6460,
      "பின்னணி": 6461,
      "தேர்வில்": 6462,
      "நடைமுறைப்படுத்த": 6463,
      "எதிர்க்கட்சித்": 6464,
      "கேமரா": 6465,
      "ஜாமீன்": 6466,
      "42": 6467,
      "கஞ்சா": 6468,
      "நன்கு": 6469,
      "படுக்க": 6470,
      "##்டன்": 6471,
      "##ண்டல்": 6472,
      "செயலாளர்கள்": 6473,
      "உட்பட்ட": 6474,
      "தானே": 6475,
      "கலாசார": 6476,
      "வித்தியாசத்தில்": 6477,
      "ஒன்றிணை": 6478,
      "ch": 6479,
      "##மல்": 6480,
      "##த்தில்தான்": 6481,
      "##ியையும்": 6482,
      "##த்யா": 6483,
      "சொல்லிய": 6484,
      "போன்றவ": 6485,
      "வளர்ந்து": 6486,
      "நிறைவ": 6487,
      "##பேசி": 6488,
      "ஆற்றில்": 6489,
      "கன்னி": 6490,
      "சம்ம": 6491,
      "பழக": 6492,
      "ஷேக்": 6493,
      "##பற்றி": 6494,
      "கோர": 6495,
      "நீடி": 6496,
      "நேப": 6497,
      "சந்தர்ப்ப": 6498,
      "வேண்டி": 6499,
      "பேசியது": 6500,
      "விரும்பவில்லை": 6501,
      "ஜெயலலித": 6502,
      "##வாறான": 6503,
      "தினகரன்": 6504,
      "தாலி": 6505,
      "நந்த": 6506,
      "ஷர்": 6507,
      "##க்டர்": 6508,
      "##நடை": 6509,
      "விடும்": 6510,
      "##ாவாக": 6511,
      "##வைக்க": 6512,
      "சிசி": 6513,
      "அமர்வு": 6514,
      "ஆண்டுதோறும்": 6515,
      "##வீன்": 6516,
      "இயற்க": 6517,
      "பழமையான": 6518,
      "விவசாயம்": 6519,
      "சங்கம்": 6520,
      "ஓய்வூ": 6521,
      "சிறுவன்": 6522,
      "உள்ளாட்சித்": 6523,
      "கோரிக்கையை": 6524,
      "எலி": 6525,
      "மல்ல": 6526,
      "ரம்": 6527,
      "##சீர": 6528,
      "முத்த": 6529,
      "முது": 6530,
      "##ப்புடன்": 6531,
      "அரவிந்த்": 6532,
      "வரவு": 6533,
      "சீதார": 6534,
      "கட்டுரை": 6535,
      "வழிவகு": 6536,
      "மேலதிக": 6537,
      "புலன": 6538,
      "நிதியமைச்ச": 6539,
      "கர்நாடகாவில்": 6540,
      "அந்நாட்டு": 6541,
      "பயங்கரவாத": 6542,
      "பதிவிட்டுள்ளார்": 6543,
      "செல்வாக்கு": 6544,
      "உண்ண": 6545,
      "பட்ச": 6546,
      "மிக்க": 6547,
      "நாளாக": 6548,
      "சுத்த": 6549,
      "இல்லையா": 6550,
      "வலது": 6551,
      "சம்பவத்தில்": 6552,
      "வேகத்தில்": 6553,
      "ஊடகங்கள்": 6554,
      "வரவேற்ப": 6555,
      "ஹோமம்": 6556,
      "சூழ்நிலையில்": 6557,
      "வடிவமை": 6558,
      "new": 6559,
      "ஒத்தி": 6560,
      "ஓவர்களில்": 6561,
      "பத்": 6562,
      "##மயம்": 6563,
      "##ர்களான": 6564,
      "##ச்சியில்": 6565,
      "போகிறது": 6566,
      "பாவ": 6567,
      "இந்தியர்கள்": 6568,
      "துறையின்": 6569,
      "செய்துள்ள": 6570,
      "பேசினோம்": 6571,
      "உணவக": 6572,
      "உலகக்கோ": 6573,
      "##ிகளைப்": 6574,
      "அணிந்த": 6575,
      "மறுசீர": 6576,
      "##வெளியில்": 6577,
      "##ிருப்பதாகவும்": 6578,
      "கனட": 6579,
      "எதிர்கொண்ட": 6580,
      "உக்ரைனில்": 6581,
      "ஆரம்பத்தில்": 6582,
      "மாறியது": 6583,
      "கேரளாவில்": 6584,
      "தம்பதி": 6585,
      "சாதகமாக": 6586,
      "தென்காசி": 6587,
      "ரை": 6588,
      "##த்துக்கான": 6589,
      "##விள": 6590,
      "##ுவின்": 6591,
      "ஏற்படு": 6592,
      "தெரிவிக்கின்றன": 6593,
      "ஆண்டுகளுக்குப்": 6594,
      "சைக்கி": 6595,
      "அணுகு": 6596,
      "தொழிற்": 6597,
      "05": 6598,
      "65": 6599,
      "ஃபே": 6600,
      "புவ": 6601,
      "##லாத": 6602,
      "##ஜை": 6603,
      "##ப்பகுதியில்": 6604,
      "பிரமுக": 6605,
      "கோவிட்": 6606,
      "புஷ்": 6607,
      "மீம்": 6608,
      "இடங்களை": 6609,
      "மோடியை": 6610,
      "என்னும்": 6611,
      "நிகழ்ச்சிகள்": 6612,
      "ஆனந்த்": 6613,
      "முதற்கட்ட": 6614,
      "ஏக": 6615,
      "சோக": 6616,
      "##சக்தி": 6617,
      "##ிகளிலும்": 6618,
      "புயல்": 6619,
      "எழுப்பிய": 6620,
      "போட்டிகள்": 6621,
      "விராட்": 6622,
      "விலக்கு": 6623,
      "வேலைக்கு": 6624,
      "கைதுசெய்ய": 6625,
      "அனுபவம்": 6626,
      "லெப": 6627,
      "அதிருப்தி": 6628,
      "மந்த": 6629,
      "ராவ": 6630,
      "ஹர்த": 6631,
      "##டத்தில்": 6632,
      "##os": 6633,
      "##ையன்": 6634,
      "##ச்சுவ": 6635,
      "நாடாக": 6636,
      "##ாத்க": 6637,
      "முதன்மை": 6638,
      "தெரிவித்தது": 6639,
      "2000": 6640,
      "கட்டத்தில்": 6641,
      "பரப்பு": 6642,
      "பரீட்ச": 6643,
      "எழுத்து": 6644,
      "அறக்கட்ட": 6645,
      "நாயுடு": 6646,
      "ப்ள": 6647,
      "புகைப்படம்": 6648,
      "ஆராய்ச்சிய": 6649,
      "படையினர்": 6650,
      "உதாரணமாக": 6651,
      "பலாத்க": 6652,
      "##முடி": 6653,
      "திசை": 6654,
      "கூறப்பட்டது": 6655,
      "மோடியின்": 6656,
      "தினேஷ்": 6657,
      "பள்ளிக்க": 6658,
      "வாழ்க்கையை": 6659,
      "ஜனாதிபதியின்": 6660,
      "ராமநாதபுரம்": 6661,
      "01": 6662,
      "தருக": 6663,
      "##லிலும்": 6664,
      "##ங்களுக்காக": 6665,
      "##ண்டுக": 6666,
      "##ானே": 6667,
      "அவள்": 6668,
      "##ப்பட்டால்": 6669,
      "ஒருபோதும்": 6670,
      "கோவையில்": 6671,
      "பலமுறை": 6672,
      "துர": 6673,
      "திண": 6674,
      "எழுந்தது": 6675,
      "வளர்ந்த": 6676,
      "நம்பி": 6677,
      "மதுரையில்": 6678,
      "மரப": 6679,
      "குடியிருப்பு": 6680,
      "காய்க": 6681,
      "வரவேற்க": 6682,
      "நிபுணர்": 6683,
      "அருள்பாலி": 6684,
      "##ஜென்": 6685,
      "டிகிரி": 6686,
      "வீராங்க": 6687,
      "நேபாள": 6688,
      "39": 6689,
      "சல்": 6690,
      "##கூட": 6691,
      "##ெடுத்து": 6692,
      "##ீனம்": 6693,
      "நாளுக்கு": 6694,
      "##ாலத்தில்": 6695,
      "என்றனர்": 6696,
      "வழங்கப்பட்டுள்ளது": 6697,
      "இயல்ப": 6698,
      "வாய்ப்பை": 6699,
      "##ப்பதில்லை": 6700,
      "பொறுப்பே": 6701,
      "செயல்படும்": 6702,
      "வாரிய": 6703,
      "ஆரம்பித்த": 6704,
      "##நேர": 6705,
      "மடங்கு": 6706,
      "பீகார்": 6707,
      "கதாபாத்திர": 6708,
      "ஆற": 6709,
      "இத்திட்ட": 6710,
      "உங்களின்": 6711,
      "டூ": 6712,
      "##மிகு": 6713,
      "காப்பு": 6714,
      "கோய": 6715,
      "##ாமே": 6716,
      "இடத்துக்கு": 6717,
      "நேர்த்த": 6718,
      "##தைத்": 6719,
      "அதிகாரிகளுக்கு": 6720,
      "குறைவு": 6721,
      "அறிவித்தது": 6722,
      "வைத்துக்": 6723,
      "குழந்தைகளை": 6724,
      "லட்சுமி": 6725,
      "முழுமையான": 6726,
      "யாழ்": 6727,
      "கொல்லப்பட்ட": 6728,
      "கல்யாண": 6729,
      "பட்டு": 6730,
      "##ொலி": 6731,
      "##ாகவே": 6732,
      "முற்று": 6733,
      "##ாவசிய": 6734,
      "அப்படிய": 6735,
      "கருதுக": 6736,
      "நிறுவனங்களின்": 6737,
      "##ஷ்டி": 6738,
      "நாடுகளும்": 6739,
      "கேட்டபோது": 6740,
      "கர்ப்ப": 6741,
      "பதவிக்கு": 6742,
      "பரிசீ": 6743,
      "குடிம": 6744,
      "வேலையை": 6745,
      "முதலீட்ட": 6746,
      "பேட்டிங்": 6747,
      "தூதரக": 6748,
      "திரிணாமுல்": 6749,
      "##ெட்டு": 6750,
      "##ra": 6751,
      "##id": 6752,
      "##ந்தின்": 6753,
      "##லைப்": 6754,
      "தேவி": 6755,
      "நிலவர": 6756,
      "நிம்ம": 6757,
      "சூடு": 6758,
      "##ப்படுத்திய": 6759,
      "வயதுக்கு": 6760,
      "நம்மிடம்": 6761,
      "தயாரிப்பு": 6762,
      "பிரியங்கா": 6763,
      "வழிகாட்டு": 6764,
      "##ப்பதாகவும்": 6765,
      "##ப்பொருள்": 6766,
      "முன்க": 6767,
      "விக்கிர": 6768,
      "பெர்": 6769,
      "##ல்லிக்க": 6770,
      "நடன": 6771,
      "நிலவி": 6772,
      "நீரா": 6773,
      "தலைவ": 6774,
      "எடுத்துக்கொள்ள": 6775,
      "கார்க": 6776,
      "மதிப்பெ": 6777,
      "கவனமாக": 6778,
      "இழுத்து": 6779,
      "பத்திரிகையாளர்": 6780,
      "47": 6781,
      "43": 6782,
      "ஒட்ட": 6783,
      "பாகு": 6784,
      "##ளைய": 6785,
      "காண்ப": 6786,
      "நீக்கம்": 6787,
      "எழுப்பி": 6788,
      "நிகழ்த்த": 6789,
      "உருவ": 6790,
      "வேண்டுகோ": 6791,
      "பகுதிகள்": 6792,
      "நாடுகளை": 6793,
      "விடய": 6794,
      "##....": 6795,
      "தொழிலாளர்": 6796,
      "பேரூ": 6797,
      "செய்கிறது": 6798,
      "மீனவர்கள்": 6799,
      "##ப்பிரிவு": 6800,
      "கொடியேற்றத்துடன்": 6801,
      "காய்ச்சல்": 6802,
      "நிர்மலா": 6803,
      "ஊராட்சி": 6804,
      "##போதே": 6805,
      "##மறை": 6806,
      "##ீஷ்": 6807,
      "##ற்றால்": 6808,
      "இந்திரா": 6809,
      "அவதூ": 6810,
      "##ஸ்வரி": 6811,
      "பிறகும்": 6812,
      "அறிவித்து": 6813,
      "விசாரணையை": 6814,
      "நடத்தப்பட்டு": 6815,
      "தொடங்கும்": 6816,
      "நடித்து": 6817,
      "இன்னிங்": 6818,
      "சிறுநீ": 6819,
      "துவங்கி": 6820,
      "நாயகம்": 6821,
      "மேற்பட்டோர்": 6822,
      "அனுபவி": 6823,
      "கணிச": 6824,
      "பிரச்சினைகள்": 6825,
      "மசூதி": 6826,
      "##ள்கள்": 6827,
      "##ியான்": 6828,
      "செய்திருந்தனர்": 6829,
      "சேன": 6830,
      "##மையா": 6831,
      "கிராம்": 6832,
      "பேசும்போது": 6833,
      "உணர": 6834,
      "##ஸ்கோ": 6835,
      "##ப்படுவார்கள்": 6836,
      "இங்குள்ள": 6837,
      "நம்முடைய": 6838,
      "மாணவியின்": 6839,
      "சேவைகள்": 6840,
      "மேம்பாட்டு": 6841,
      "ஹோட்ட": 6842,
      "அந்நா": 6843,
      "உண்டாகும்": 6844,
      "விகிதம்": 6845,
      "அர்ப்ப": 6846,
      "##டுத்தப்பட்ட": 6847,
      "பொய்": 6848,
      "##டுகின்றன": 6849,
      "மாணவர்களை": 6850,
      "கருப்பு": 6851,
      "உலகளாவிய": 6852,
      "பெற்றுக்": 6853,
      "ஆனது": 6854,
      "யூடிய": 6855,
      "பின்னணியில்": 6856,
      "விரிவான": 6857,
      "கரூர்": 6858,
      "மிரட்டல்": 6859,
      "சாப்பிட்ட": 6860,
      "அங்கீகாரம்": 6861,
      "குதிரை": 6862,
      "பற்றியும்": 6863,
      "சுற்றுச்சூழல்": 6864,
      "எத": 6865,
      "தரம்": 6866,
      "தங்கி": 6867,
      "வழங்கு": 6868,
      "அமைப்பை": 6869,
      "இருக்கிறேன்": 6870,
      "புகார்கள்": 6871,
      "பாதுகாப்புப்": 6872,
      "வீடியோவில்": 6873,
      "ரீதியில்": 6874,
      "அழகு": 6875,
      "பெங்களூர்": 6876,
      "சிரே": 6877,
      "பிக": 6878,
      "வறு": 6879,
      "##கர்கள்": 6880,
      "குறையும்": 6881,
      "கடலூர்": 6882,
      "சமர்ப்ப": 6883,
      "சமாதான": 6884,
      "பூர்த்தி": 6885,
      "ராஜீவ்": 6886,
      "கூறினர்": 6887,
      "திமுகவின்": 6888,
      "மறைமுக": 6889,
      "சர்ச்சைக்கு": 6890,
      "உற்சவ": 6891,
      "தெலுங்க": 6892,
      "காந்தியின்": 6893,
      "ஏனைய": 6894,
      "##ter": 6895,
      "##ந்தம்": 6896,
      "##ந்தும்": 6897,
      "விண்க": 6898,
      "##றிவு": 6899,
      "மேடையில்": 6900,
      "##முத்து": 6901,
      "##பாடுகள்": 6902,
      "##காசி": 6903,
      "வரையிலான": 6904,
      "பூச்ச": 6905,
      "போலீசார": 6906,
      "தூரம்": 6907,
      "பள்ளிகளில்": 6908,
      "##ையானது": 6909,
      "யாத்திரை": 6910,
      "விட்டார்": 6911,
      "கல்லூர": 6912,
      "கால்நடை": 6913,
      "அத்தியாவசிய": 6914,
      "திருநெல்வேலி": 6915,
      "பச்சை": 6916,
      "ரங்க": 6917,
      "ஸார்": 6918,
      "##லத்தை": 6919,
      "##ஐடி": 6920,
      "##க்கலை": 6921,
      "##ையு": 6922,
      "##ிலு": 6923,
      "##தாகத்": 6924,
      "பலவீன": 6925,
      "எதிர": 6926,
      "மாநிலங்கள": 6927,
      "பதிவிட்ட": 6928,
      "கேட்டார்": 6929,
      "ரிசர்": 6930,
      "சொல்கிறார்": 6931,
      "முன்னேற்றம்": 6932,
      "ரஜின": 6933,
      "ஆப்கானிஸ்தான்": 6934,
      "சுரேஷ்": 6935,
      "தொழிற்சாலை": 6936,
      "பழி": 6937,
      "பற்றா": 6938,
      "மலே": 6939,
      "ரமேஷ்": 6940,
      "##ண்கள்": 6941,
      "##நிறு": 6942,
      "##ce": 6943,
      "மாட": 6944,
      "##ப்பட்டிருந்த": 6945,
      "##ாலேயே": 6946,
      "##தாகும்": 6947,
      "##ராத்திரி": 6948,
      "##மாற்ற": 6949,
      "##மாநில": 6950,
      "நிபந்த": 6951,
      "##ல்களுக்கு": 6952,
      "எந்தப்": 6953,
      "பெயர்ச்சி": 6954,
      "உத்தரவ": 6955,
      "கொள்ளைய": 6956,
      "வெற்றிபெ": 6957,
      "பாதிக்கும்": 6958,
      "மறுநாள்": 6959,
      "நிகழ்வுகள்": 6960,
      "போட்டியி": 6961,
      "எதிர்பார்ப்பு": 6962,
      "எல்லோரும்": 6963,
      "ஒன்பது": 6964,
      "களம்": 6965,
      "நய": 6966,
      "வக்": 6967,
      "##படியே": 6968,
      "செள": 6969,
      "##ந்துவீ": 6970,
      "போடு": 6971,
      "கூடி": 6972,
      "நாளான": 6973,
      "அதிர்": 6974,
      "##ாளருமான": 6975,
      "நீங்கும்": 6976,
      "மீத": 6977,
      "##காந்த்": 6978,
      "இலட்ச": 6979,
      "##ல்களும்": 6980,
      "தோழ": 6981,
      "விரிவாக": 6982,
      "பட்ஜெ": 6983,
      "தொகையை": 6984,
      "நியூசிலாந்து": 6985,
      "தள்ளுபடி": 6986,
      "ஏக்": 6987,
      "கையா": 6988,
      "சாய": 6989,
      "##னியில்": 6990,
      "##ீஸ்வர": 6991,
      "முறையை": 6992,
      "படங்களில்": 6993,
      "படப்பிடி": 6994,
      "ஆட்டோ": 6995,
      "தீர்மானி": 6996,
      "நெருக்கமான": 6997,
      "தளத்தில்": 6998,
      "பரவல்": 6999,
      "வெற்றிகரமாக": 7000,
      "இவர்களுக்கு": 7001,
      "கந்த": 7002,
      "##யும்": 7003,
      "ஒருவரின்": 7004,
      "##வேண்டிய": 7005,
      "##வாசன்": 7006,
      "பாரதி": 7007,
      "##த்துக்குப்": 7008,
      "என்பதைப்": 7009,
      "உருவாக்கப்பட்ட": 7010,
      "இளம்பெ": 7011,
      "பணியாற்றிய": 7012,
      "மக்களவை": 7013,
      "கழகம்": 7014,
      "விண்ணப்ப": 7015,
      "சபையின்": 7016,
      "கண்டித்து": 7017,
      "எழுந்தருளி": 7018,
      "செங்கல்ப": 7019,
      "சமீபத்திய": 7020,
      "வாயிலாக": 7021,
      "கிலோமீட்டர்": 7022,
      "சிரேஷ்ட": 7023,
      "சதி": 7024,
      "##பலி": 7025,
      "##மண்ட": 7026,
      "##ோன்": 7027,
      "##kat": 7028,
      "செயலி": 7029,
      "கொந்த": 7030,
      "கோடை": 7031,
      "புதன்": 7032,
      "அமைக்கப்பட்ட": 7033,
      "திருப்பு": 7034,
      "கொண்டிருந்தார்": 7035,
      "வரலாம்": 7036,
      "##ோகன்": 7037,
      "பெருந்த": 7038,
      "பயணத்தை": 7039,
      "நிதிஷ்": 7040,
      "வருடங்களாக": 7041,
      "அபாய": 7042,
      "தொழில்நுட்பம்": 7043,
      "நோட்டீஸ்": 7044,
      "46": 7045,
      "அப்புற": 7046,
      "கில்": 7047,
      "மின": 7048,
      "##கட்ட": 7049,
      "##ov": 7050,
      "இருதர": 7051,
      "மாலையில்": 7052,
      "கிளை": 7053,
      "அவர்களில்": 7054,
      "பழநி": 7055,
      "டிவி": 7056,
      "தகவலை": 7057,
      "வழக்கமான": 7058,
      "பொருளாதாரத்தை": 7059,
      "வீடியோவை": 7060,
      "விஷயங்களை": 7061,
      "வாழ்ந்த": 7062,
      "##லாமா": 7063,
      "சூர்யா": 7064,
      "ஆடு": 7065,
      "ஐடி": 7066,
      "##ேந்திரன்": 7067,
      "##ந்தூர்": 7068,
      "##ட்டையில்": 7069,
      "காச": 7070,
      "வேளையில்": 7071,
      "##ாவதி": 7072,
      "கோட": 7073,
      "பழக்க": 7074,
      "##ிகளைக்": 7075,
      "194": 7076,
      "மேல்முறைய": 7077,
      "##ப்பேட்டை": 7078,
      "சரத்": 7079,
      "செயற்பா": 7080,
      "கடிதத்தில்": 7081,
      "நியமன": 7082,
      "ஓரி": 7083,
      "##களுக்காக": 7084,
      "##ிறை": 7085,
      "இருவர்": 7086,
      "தென்ன": 7087,
      "கட்சிகளும்": 7088,
      "நகரம்": 7089,
      "##யிலில்": 7090,
      "பணிபு": 7091,
      "தன்மை": 7092,
      "தமிழில்": 7093,
      "கொள்கிறேன்": 7094,
      "உடல்நிலை": 7095,
      "நடத்தியது": 7096,
      "மேம்படுத்து": 7097,
      "கொண்டாடி": 7098,
      "எரிவாய": 7099,
      "உற்சவம்": 7100,
      "சகோதரர்": 7101,
      "எக்ஸ்பிர": 7102,
      "சட்டப்பேரவை": 7103,
      "அவு": 7104,
      "ஆடிய": 7105,
      "ஓமிக்ரான்": 7106,
      "##ணியை": 7107,
      "##சல": 7108,
      "##ீத்": 7109,
      "##ீஸ்வரர்": 7110,
      "##ப்பாத": 7111,
      "காட்டிய": 7112,
      "பிரான்ஸ்": 7113,
      "##புர்": 7114,
      "மக்களும்": 7115,
      "வந்தன": 7116,
      "இருக்கும்போது": 7117,
      "முக்கியமானது": 7118,
      "ஸ்ட்": 7119,
      "ஆராய்": 7120,
      "போன்றவற்றை": 7121,
      "புறப்பட்டு": 7122,
      "யூனிய": 7123,
      "இதற்கிடையில்": 7124,
      "குழந்தையை": 7125,
      "குழந்தையின்": 7126,
      "மறக்க": 7127,
      "##திலிருந்து": 7128,
      "உச்சநீதிமன்றம்": 7129,
      "மட்டக்கள": 7130,
      "மொபைல்": 7131,
      "பிரதிநிதிகள்": 7132,
      "இச்ச": 7133,
      "ஜப்பான": 7134,
      "லார": 7135,
      "பெட்ட": 7136,
      "கூகு": 7137,
      "கூற்று": 7138,
      "பேட்": 7139,
      "##ப்படாமல்": 7140,
      "சுரு": 7141,
      "##சியாக": 7142,
      "கணபதி": 7143,
      "உத்தரவிட": 7144,
      "பார்க்கப்படுகிறது": 7145,
      "பிரிவின்": 7146,
      "பாலின": 7147,
      "பெற்றுக்கொள்ள": 7148,
      "செயல்படு": 7149,
      "முயற்சியில்": 7150,
      "வாக்களிக்க": 7151,
      "சுயே": 7152,
      "நிரூபி": 7153,
      "டிக்கெட்": 7154,
      "ஹீரோ": 7155,
      "பேரறிவாள": 7156,
      "புலனாய்வு": 7157,
      "49": 7158,
      "##கொள்": 7159,
      "##ணிகள்": 7160,
      "##க்கடை": 7161,
      "##ையிலேயே": 7162,
      "##ிகர்": 7163,
      "உள்ளதாகவும்": 7164,
      "முக்கியமாக": 7165,
      "கூறின": 7166,
      "செய்வதற்கான": 7167,
      "பயன்படுத்தும்": 7168,
      "சங்கத்தின்": 7169,
      "எதிர்பாராத": 7170,
      "அவ்வாறு": 7171,
      "தரிசன": 7172,
      "மக்களவைத்": 7173,
      "ஊருக்கு": 7174,
      "ஐஸ்": 7175,
      "டன்": 7176,
      "தங்களை": 7177,
      "##ென்": 7178,
      "##ர்களையும்": 7179,
      "##ச்சந்திரன்": 7180,
      "கடலோ": 7181,
      "கூறியுள்ளனர்": 7182,
      "மாற்றிய": 7183,
      "பட்டம்": 7184,
      "வாக்குப்பதிவு": 7185,
      "படிப்பு": 7186,
      "கருத்துக்களை": 7187,
      "குழும": 7188,
      "அதற்குப்": 7189,
      "தமிழர்கள்": 7190,
      "அசோக்": 7191,
      "பின்னடை": 7192,
      "தவறாக": 7193,
      "பாராளுமன்றத்தில்": 7194,
      "கைப்பற்றி": 7195,
      "சூழ்நிலை": 7196,
      "பசுமை": 7197,
      "சர்க்கரை": 7198,
      "திருமாவளவன்": 7199,
      "news": 7200,
      "இரும்பு": 7201,
      "##கிற": 7202,
      "##த்துறையினர்": 7203,
      "குறுக": 7204,
      "##ச்சார்": 7205,
      "தேங்க": 7206,
      "நாட்டிற்கு": 7207,
      "##ிக்கிறது": 7208,
      "தலைநக": 7209,
      "நேரி": 7210,
      "##தேவி": 7211,
      "நீண்டகால": 7212,
      "கேள்விகள்": 7213,
      "பாதையில்": 7214,
      "நெருங்கிய": 7215,
      "பாகிஸ்தானில்": 7216,
      "மறந்து": 7217,
      "நெடுஞ்சாலை": 7218,
      "பழங்குடியின": 7219,
      "உடைய": 7220,
      "சத்திய": 7221,
      "##தல்ல": 7222,
      "##டலில்": 7223,
      "##மிக": 7224,
      "எனச்": 7225,
      "விரோத": 7226,
      "பகுதிக்கு": 7227,
      "வீரர்களை": 7228,
      "மறுபுறம்": 7229,
      "இதன்மூலம்": 7230,
      "படைகள்": 7231,
      "கொடுமை": 7232,
      "##ிகாப்ட": 7233,
      "முஸ்லிம": 7234,
      "அறையில்": 7235,
      "சத்தம்": 7236,
      "##ல்தான்": 7237,
      "##bc": 7238,
      "முறையும்": 7239,
      "வாட்ஸ்": 7240,
      "ஏற்படுகிறது": 7241,
      "அதுதான்": 7242,
      "விவாதம்": 7243,
      "வரும்போது": 7244,
      "கிங்": 7245,
      "அணிகள்": 7246,
      "முயன்று": 7247,
      "தேசியக்": 7248,
      "பாதிப்புகள்": 7249,
      "கோவில்களில்": 7250,
      "##ிருப்பதால்": 7251,
      "குற்றச்சா": 7252,
      "ஸ்கூ": 7253,
      "விமர்சித்து": 7254,
      "கலாநிதி": 7255,
      "பிரசாத்": 7256,
      "ஹெலிகாப்ட": 7257,
      "ஆல்": 7258,
      "ஊக்க": 7259,
      "பவர்": 7260,
      "##ார்வ": 7261,
      "இருவருக்கும்": 7262,
      "##னைக்": 7263,
      "பாண்ட": 7264,
      "வாசி": 7265,
      "திச": 7266,
      "கிடைத்து": 7267,
      "செய்வதற்காக": 7268,
      "மனுவை": 7269,
      "சாதிய": 7270,
      "ஜெகன்": 7271,
      "மும்பையில்": 7272,
      "பிரபலமான": 7273,
      "அம்மாநில": 7274,
      "ஆந்திரா": 7275,
      "காரைக்கால்": 7276,
      "##katan": 7277,
      "சத்தீ": 7278,
      "யுவ": 7279,
      "##ணியின்": 7280,
      "##நேய": 7281,
      "அவரும்": 7282,
      "தொல்லை": 7283,
      "பிரம்": 7284,
      "பேட்ஸ்": 7285,
      "##சிபி": 7286,
      "இருந்தவர்": 7287,
      "வைத்தது": 7288,
      "##போர்": 7289,
      "வெளிச்ச": 7290,
      "தீர்ப்பை": 7291,
      "மறுத்த": 7292,
      "செலுத்திய": 7293,
      "1000": 7294,
      "உதவியுடன்": 7295,
      "வல்லுந": 7296,
      "வேண்டுமானாலும்": 7297,
      "##பகவான்": 7298,
      "வைரலாகி": 7299,
      "சிசிடிவி": 7300,
      "51": 7301,
      "ஈரான்": 7302,
      "##ளவுக்கு": 7303,
      "##வையும்": 7304,
      "##றேன்": 7305,
      "##ோல்": 7306,
      "##ோதி": 7307,
      "##ரிஸ்": 7308,
      "போரை": 7309,
      "##க்கும்போது": 7310,
      "தேடு": 7311,
      "கோல": 7312,
      "அரசும்": 7313,
      "பலம்": 7314,
      "##ணைப்பு": 7315,
      "மோதிய": 7316,
      "நெகி": 7317,
      "விமானத்தில்": 7318,
      "குறிப்பிடப்பட்டுள்ளது": 7319,
      "கண்ணீர்": 7320,
      "கொள்வது": 7321,
      "விளைவாக": 7322,
      "கண்காணிப்பாளர்": 7323,
      "சாம்பியன்": 7324,
      "சந்தோஷ": 7325,
      "!\"": 7326,
      "600": 7327,
      "தரை": 7328,
      "தலையில்": 7329,
      "##ூட்டிய": 7330,
      "##ir": 7331,
      "மாத்திர": 7332,
      "##வைகள்": 7333,
      "##டுகள": 7334,
      "இருப்பார்கள்": 7335,
      "ராஜஸ்தான": 7336,
      "பெய்த": 7337,
      "குழந்தைகளின்": 7338,
      "பிரிந்து": 7339,
      "குழுக்கள்": 7340,
      "ராமதாஸ்": 7341,
      "விவசாயிகளுக்கு": 7342,
      "வெள்ளம்": 7343,
      "ஆனந்த": 7344,
      "##ிழக்கு": 7345,
      "முறையான": 7346,
      "சொல்கிறார்கள்": 7347,
      "ஊர்வலம்": 7348,
      "பராமரிப்பு": 7349,
      "தெலங்கானா": 7350,
      "06": 7351,
      "அத்து": 7352,
      "பது": 7353,
      "ஹாரி": 7354,
      "வருவதற்கு": 7355,
      "ராஜ்ய": 7356,
      "ஆதீன": 7357,
      "தரப்பினர்": 7358,
      "போராட்டங்கள்": 7359,
      "ட்ர": 7360,
      "மீன்பிடி": 7361,
      "ராசிக்காரர்களுக்கு": 7362,
      "vikatan": 7363,
      "ஏக்நாத்": 7364,
      "பேட்ஸ்மே": 7365,
      "கப": 7366,
      "ஜடே": 7367,
      "##ul": 7368,
      "பொதுக்கூ": 7369,
      "மேற்கத்திய": 7370,
      "ஆர்எஸ்": 7371,
      "எல்லாவ": 7372,
      "பள்ளிகள்": 7373,
      "அப்போதுதான்": 7374,
      "மதுபான": 7375,
      "வாய்ப்புள்ளது": 7376,
      "செய்தியாளர்": 7377,
      "பண்டிகை": 7378,
      "அதுமட்டுமல்ல": 7379,
      "ரிசர்வ்": 7380,
      "ஒப்பி": 7381,
      "கான": 7382,
      "ஹர்": 7383,
      "##em": 7384,
      "##்தே": 7385,
      "##ிர்த": 7386,
      "உள்ளதால்": 7387,
      "##ினா": 7388,
      "##ிக்கப்பட்டது": 7389,
      "##மாதி": 7390,
      "இரான": 7391,
      "தாங்க": 7392,
      "வரவ": 7393,
      "அமர்": 7394,
      "சீட்": 7395,
      "##ல்கு": 7396,
      "நடத்தினார்": 7397,
      "உத்தரவை": 7398,
      "அளித்துள்ளார்": 7399,
      "கார்ட": 7400,
      "பணிக்கு": 7401,
      "இஸ்ரேலின்": 7402,
      "இல்லாததால்": 7403,
      "ரீதியான": 7404,
      "பல்கலைக்கழகத்தில்": 7405,
      "##நேரத்தில்": 7406,
      "லக்னோ": 7407,
      "அபராதம்": 7408,
      "நுக": 7409,
      "மல்": 7410,
      "அவற்றில்": 7411,
      "பேரி": 7412,
      "மேக": 7413,
      "புண்ண": 7414,
      "இலக்கிய": 7415,
      "உணர்": 7416,
      "பெய்து": 7417,
      "லட்சத்து": 7418,
      "பிடிக்கும்": 7419,
      "வாங்குவ": 7420,
      "புதுக்கோட்டை": 7421,
      "வைக்கப்பட்டது": 7422,
      "##மெண்ட்": 7423,
      "##ப்போகிறார்": 7424,
      "ஆஜராக": 7425,
      "சுட்டிக்காட்டினார்": 7426,
      "பாலத்தீன": 7427,
      "பச": 7428,
      "##லாமல்": 7429,
      "##ீர்களா": 7430,
      "##றுப்பு": 7431,
      "##ற்றையும்": 7432,
      "காணி": 7433,
      "கொல": 7434,
      "##ப்பட்டி": 7435,
      "நிலவுகிறது": 7436,
      "சுர": 7437,
      "தமிழி": 7438,
      "மூளை": 7439,
      "##வாகும்": 7440,
      "உயர்க": 7441,
      "உயிரு": 7442,
      "##போன": 7443,
      "கட்டப்பட்ட": 7444,
      "இணைப்பு": 7445,
      "உடல்நல": 7446,
      "##விழா": 7447,
      "உறுப்பினராக": 7448,
      "ஆபத்தான": 7449,
      "விதமான": 7450,
      "காட்டுகிறது": 7451,
      "கடினமான": 7452,
      "கடலோர": 7453,
      "ஆசி": 7454,
      "ரகு": 7455,
      "##தையடுத்து": 7456,
      "##பவர்": 7457,
      "##ெண்ண": 7458,
      "##ிகளால்": 7459,
      "மாறும்": 7460,
      "பெருக": 7461,
      "பிரேத": 7462,
      "நிலக்க": 7463,
      "##விட்டேன்": 7464,
      "நிறுவனமான": 7465,
      "கலந்துகொண்டு": 7466,
      "தெரிவிக்கின்றனர்": 7467,
      "மிஸ்": 7468,
      "கண்ணாடி": 7469,
      "சரண்": 7470,
      "மகாராஷ்டிராவில்": 7471,
      "பட்டியலின": 7472,
      "வரவழை": 7473,
      "52": 7474,
      "ஆளாக": 7475,
      "இவ்வ": 7476,
      "தார": 7477,
      "நம": 7478,
      "##ட்டுப்": 7479,
      "அரங்கே": 7480,
      "இதுபற்றி": 7481,
      "பணவீ": 7482,
      "வரத": 7483,
      "இருப்பார்": 7484,
      "##தாப": 7485,
      "நெரிச": 7486,
      "##ட்பட்ட": 7487,
      "டிடிவி": 7488,
      "பாதுகாப்பான": 7489,
      "என்கிறது": 7490,
      "சமூகவ": 7491,
      "##ாவைச்": 7492,
      "ஏற்றுக்": 7493,
      "இடம்பெற்று": 7494,
      "மாட்டோம்": 7495,
      "அறிவிக்கப்பட்டது": 7496,
      "விண்ணப்பி": 7497,
      "ஆவணங்கள்": 7498,
      "புகாரின்": 7499,
      "அமித்ஷா": 7500,
      "அன்னதானம்": 7501,
      "ஒற்றைத்": 7502,
      "சுக்கிரன்": 7503,
      "ராமேஸ்வரம்": 7504,
      "எங்களிடம்": 7505,
      "சில்": 7506,
      "நடுத்த": 7507,
      "##டன": 7508,
      "##ப்பகுதி": 7509,
      "##ங்காவ": 7510,
      "கட்சிகளின்": 7511,
      "##த்துக்குள்": 7512,
      "அதைச்": 7513,
      "செய்வதாக": 7514,
      "சென்றுள்ளார்": 7515,
      "போராட்டத்தை": 7516,
      "முடிவுகளை": 7517,
      "செலுத்தும்": 7518,
      "உருவாக்கிய": 7519,
      "விரைவாக": 7520,
      "பிரச்சார": 7521,
      "ரெண்டு": 7522,
      "ஃபார்": 7523,
      "அக்கட்சியின்": 7524,
      "கிரிக்கெ": 7525,
      "சூர்ய": 7526,
      "யோசனை": 7527,
      "ஓராண்டு": 7528,
      "நண்": 7529,
      "நன்கொ": 7530,
      "##படுத்து": 7531,
      "##ங்கால": 7532,
      "##ள்ளதாகவும்": 7533,
      "செந்த": 7534,
      "##விருக்கும்": 7535,
      "##மிட": 7536,
      "கோஷ": 7537,
      "தொடர்க": 7538,
      "பிழை": 7539,
      "அப்பகுதி": 7540,
      "காரணங்கள்": 7541,
      "கலெக": 7542,
      "விருப்பம்": 7543,
      "நோயாள": 7544,
      "கட்டுப்பாடுகள்": 7545,
      "முயற்சிகளை": 7546,
      "தகரா": 7547,
      "ஒற்றுமை": 7548,
      "இன்ஸ்டாக": 7549,
      "04": 7550,
      "டக்": 7551,
      "ராத": 7552,
      "##பய": 7553,
      "##ீட்டை": 7554,
      "விவாக": 7555,
      "பாக்கிய": 7556,
      "##மிர்": 7557,
      "##மாக்": 7558,
      "கோவ": 7559,
      "பொழுது": 7560,
      "##முனை": 7561,
      "##மேல்": 7562,
      "##ஸ்திர": 7563,
      "சிகிச்சைக்காக": 7564,
      "சசிகல": 7565,
      "நன்மைகள்": 7566,
      "ஸ்தானத்தில்": 7567,
      "அகிலேஷ்": 7568,
      "தேதியன்று": 7569,
      "என்னவென்றால்": 7570,
      "முன்கூட்டிய": 7571,
      "அர்ப்பணி": 7572,
      "இவரின்": 7573,
      "##வியில்": 7574,
      "##த்திலுள்ள": 7575,
      "##த்துறையின்": 7576,
      "போதிய": 7577,
      "சிம்ம": 7578,
      "சொல்வ": 7579,
      "மாவட்டச்": 7580,
      "##வீர": 7581,
      "கிளா": 7582,
      "தோற்க": 7583,
      "2011": 7584,
      "வழிநட": 7585,
      "வாங்கும்": 7586,
      "பழனிவேல்": 7587,
      "பிறந்தநாள்": 7588,
      "அதிரடியாக": 7589,
      "உட்கார்": 7590,
      "ஊர்வலமாக": 7591,
      "லீக்": 7592,
      "குறுகிய": 7593,
      "02": 7594,
      "இவரை": 7595,
      "ஒட்டி": 7596,
      "களை": 7597,
      "லூ": 7598,
      "##னான்": 7599,
      "##லட்சுமி": 7600,
      "##க்கப்படும்": 7601,
      "##த்தோ": 7602,
      "கொரிய": 7603,
      "நாட்டுக்கு": 7604,
      "அதேச": 7605,
      "கோட்": 7606,
      "##ப்படலாம்": 7607,
      "அமைந்தது": 7608,
      "தலைவரான": 7609,
      "சேர்": 7610,
      "##பாத்தில்": 7611,
      "கலச": 7612,
      "விரதம்": 7613,
      "முதலே": 7614,
      "உத்தரவிட்டார்": 7615,
      "நிர்வாகி": 7616,
      "திறப்பு": 7617,
      "கொடுத்தது": 7618,
      "தொழிலதி": 7619,
      "சீனாவில்": 7620,
      "செயல்பாடுகள்": 7621,
      "கடவுள்": 7622,
      "vs": 7623,
      "##ஃபி": 7624,
      "##த்தையே": 7625,
      "##க்குற": 7626,
      "##த்துறையில்": 7627,
      "செக்": 7628,
      "##சித்தி": 7629,
      "செய்யப்படுகிறது": 7630,
      "முன்னுரிமை": 7631,
      "அப்பகுதியில்": 7632,
      "கிஷ": 7633,
      "நோக்கில்": 7634,
      "புகு": 7635,
      "##வருடன்": 7636,
      "##ஷிப்": 7637,
      "பெற்றோர்கள்": 7638,
      "உயர்ந்துள்ளது": 7639,
      "சுவாமிகள்": 7640,
      "படிப்படியாக": 7641,
      "செங்கல்பட்டு": 7642,
      "do": 7643,
      "அஜ": 7644,
      "ராய்": 7645,
      "##பொரு": 7646,
      "##ப்பர": 7647,
      "##ரித": 7648,
      "இந்தியப்": 7649,
      "முன்னிலை": 7650,
      "கிண": 7651,
      "வழக்கின்": 7652,
      "வழக்குப்": 7653,
      "வழிப": 7654,
      "சிவப்பு": 7655,
      "மையத்தில்": 7656,
      "நிறைவேற்று": 7657,
      "வரவேற்ற": 7658,
      "செய்கிறார்கள்": 7659,
      "சுகாதாரத்துறை": 7660,
      "போனது": 7661,
      "ஆதிக்கம்": 7662,
      "கோபம்": 7663,
      "ஆங்கிலேய": 7664,
      "##ம்கூட": 7665,
      "புற்றுநோய்": 7666,
      "ஊரடங்கு": 7667,
      "தொலைக்காட்சி": 7668,
      "அதிர்ஷ்ட": 7669,
      "எக்ஸ்பிரஸ்": 7670,
      "3வது": 7671,
      "அன்": 7672,
      "##மட்ட": 7673,
      "##ாரும்": 7674,
      "##ற்றொ": 7675,
      "காசா": 7676,
      "அவமான": 7677,
      "பிரமாண்ட": 7678,
      "##ாளிக்க": 7679,
      "கோரிய": 7680,
      "##்யா": 7681,
      "கடத்தல்": 7682,
      "புரிய": 7683,
      "வாக்கெ": 7684,
      "##வர்தான்": 7685,
      "பொதுவான": 7686,
      "விலையில்": 7687,
      "விருந்த": 7688,
      "வங்கியின்": 7689,
      "##ியுள்ளதாக": 7690,
      "தொடங்கினர்": 7691,
      "கொள்முதல்": 7692,
      "##த்தொகை": 7693,
      "வனத்துறை": 7694,
      "பதவியேற்ற": 7695,
      "பெரும்பான்மை": 7696,
      "தேரோட்டம்": 7697,
      "ஜய": 7698,
      "மன்": 7699,
      "##த்திருக்கிறார்": 7700,
      "கொழு": 7701,
      "##லிங்க": 7702,
      "கிடைத்துள்ளது": 7703,
      "பழக்கம்": 7704,
      "கருது": 7705,
      "##சுக்கு": 7706,
      "##ஸ்து": 7707,
      "விலையை": 7708,
      "கெட்ட": 7709,
      "திருவார": 7710,
      "காட்சிய": 7711,
      "##திகார": 7712,
      "தாக்குதலுக்கு": 7713,
      "அழைக்கப்படும்": 7714,
      "எவ்வித": 7715,
      "நிலநடுக்கம்": 7716,
      "வழிபட்டனர்": 7717,
      "பிரகாஷ்": 7718,
      "சவால்": 7719,
      "சத்ய": 7720,
      "தில": 7721,
      "ராவ்": 7722,
      "##ap": 7723,
      "##ேர்": 7724,
      "##ம்ச": 7725,
      "முட்டை": 7726,
      "சென்": 7727,
      "காஸ": 7728,
      "தேர்ச்சி": 7729,
      "##ாளரை": 7730,
      "மேய": 7731,
      "செய்ததாக": 7732,
      "##வைச்": 7733,
      "சுந்த": 7734,
      "வந்தபோது": 7735,
      "##ரேட்": 7736,
      "நடைபெறு": 7737,
      "நடவடிக்கையை": 7738,
      "விழாவ": 7739,
      "2013": 7740,
      "துறைகளில்": 7741,
      "விமானங்கள்": 7742,
      "வங்கிக்": 7743,
      "எச்சரி": 7744,
      "சரண": 7745,
      "மாட்டேன்": 7746,
      "விளக்கம": 7747,
      "கடற்கரை": 7748,
      "ட்வீட்": 7749,
      "ஆள்": 7750,
      "##ாட்டி": 7751,
      "##ப்பெய": 7752,
      "##ல்லிய": 7753,
      "கோத்த": 7754,
      "செய்யவும்": 7755,
      "நேர்க": 7756,
      "கிடந்த": 7757,
      "விடுவிக்க": 7758,
      "சங்கர்": 7759,
      "சொன்னது": 7760,
      "பங்கேற்ப": 7761,
      "திரும்பப்": 7762,
      "கண்டிப்பாக": 7763,
      "தீபாவளி": 7764,
      "சுப்பிரமணியன்": 7765,
      "பிளாஸ்டிக்": 7766,
      "மட்டக்களப்பு": 7767,
      "ஜு": 7768,
      "##ழிக்க": 7769,
      "##பீ": 7770,
      "##ப்ரா": 7771,
      "பாடி": 7772,
      "சிற்ப": 7773,
      "சீர்த": 7774,
      "மாநிலத்": 7775,
      "இலக்கை": 7776,
      "இயக்கத்தில்": 7777,
      "வகையிலும்": 7778,
      "தமிழ்நாட்டை": 7779,
      "அதைக்": 7780,
      "கூறுகிறார்கள்": 7781,
      "உத்தரகா": 7782,
      "##ஸ்கி": 7783,
      "சின்னம்": 7784,
      "பங்குனி": 7785,
      "கமிட்டி": 7786,
      "வேலுமணி": 7787,
      "நிதியமைச்சர்": 7788,
      "அவுட்": 7789,
      "உத்திர": 7790,
      "தால": 7791,
      "மதிக்க": 7792,
      "##ித்": 7793,
      "##ீத": 7794,
      "##ig": 7795,
      "##க்கின்": 7796,
      "##ையமை": 7797,
      "பாம்பு": 7798,
      "##ம்பட்டி": 7799,
      "கடனை": 7800,
      "சுந்தர": 7801,
      "தலைவருமான": 7802,
      "சிலைகள்": 7803,
      "வழங்கியுள்ளது": 7804,
      "உறுப்பு": 7805,
      "சமூகம்": 7806,
      "தூங்க": 7807,
      "பிரபாக": 7808,
      "அறிவுறு": 7809,
      "உடைத்து": 7810,
      "கடற்படைய": 7811,
      "போட்டியிடும்": 7812,
      "சிவகங்கை": 7813,
      "ஊடகவ": 7814,
      "எரிவாயு": 7815,
      "03": 7816,
      "ஈபிஎஸ்": 7817,
      "ஒய்": 7818,
      "##லைத்": 7819,
      "குறிய": 7820,
      "மீள": 7821,
      "வழங்கியது": 7822,
      "##ப்படுகிறார்": 7823,
      "இதைப்": 7824,
      "பயன்படுத்திய": 7825,
      "நாடுகளுக்கும்": 7826,
      "ஊழியர்": 7827,
      "இன்ஸ்பெ": 7828,
      "##மென்ட்": 7829,
      "##சேகர்": 7830,
      "மகிழ்ச்சியாக": 7831,
      "அச்சம்": 7832,
      "ரஜினி": 7833,
      "கெஜ்ரிவால்": 7834,
      "ஷர்மா": 7835,
      "நண்பர்": 7836,
      "அதேசமயம்": 7837,
      "ஊடகவிய": 7838,
      "எச்": 7839,
      "ஓம்": 7840,
      "சிக": 7841,
      "ந்": 7842,
      "##பல்": 7843,
      "##குவ": 7844,
      "விஸ்வ": 7845,
      "##ாவே": 7846,
      "சமாளிக்க": 7847,
      "கட்டமாக": 7848,
      "நிறுவனங்களில்": 7849,
      "சமூகத்தில்": 7850,
      "உருவாக்கும்": 7851,
      "##ப்பெரு": 7852,
      "நிகழ்ந்த": 7853,
      "போட்டியிட்டு": 7854,
      "வருடங்களுக்கு": 7855,
      "குஜராத்தில்": 7856,
      "பகிர்ந்த": 7857,
      "மருந்துகள்": 7858,
      "வென்றது": 7859,
      "நிச்சயமாக": 7860,
      "இதன்படி": 7861,
      "கூறுவது": 7862,
      "நாமக்கல்": 7863,
      "பலாத்காரம்": 7864,
      "முன்கூட்டியே": 7865,
      "ஆடியோ": 7866,
      "##ெக்": 7867,
      "##ak": 7868,
      "பெர": 7869,
      "##ாமில்": 7870,
      "செய்யப்பட்டுள்ள": 7871,
      "நேட்டோ": 7872,
      "##ிக்ஸ்": 7873,
      "இலக்க": 7874,
      "##வுக்குப்": 7875,
      "இருப்பவர்கள்": 7876,
      "##ஸ்தி": 7877,
      "எப்படிய": 7878,
      "உத்தரவிட்டது": 7879,
      "செலவில்": 7880,
      "நுழ": 7881,
      "பார்த்துக்": 7882,
      "போதைப்பொருள்": 7883,
      "பிற்படுத்தப்பட்ட": 7884,
      "ஆதித்யநாத்": 7885,
      "bbc": 7886,
      "உப்பு": 7887,
      "ஜின்": 7888,
      "படுத்த": 7889,
      "ரோக": 7890,
      "##தத்தை": 7891,
      "போர்க்க": 7892,
      "காசி": 7893,
      "பிரார்த்த": 7894,
      "##ளிப்பு": 7895,
      "செய்யாமல்": 7896,
      "என்பதற்கு": 7897,
      "இடங்களுக்கு": 7898,
      "##வாண": 7899,
      "##மையின்": 7900,
      "##லுக்கும்": 7901,
      "##ப்படுகிறார்கள்": 7902,
      "##ியாகி": 7903,
      "முன்மொழி": 7904,
      "எந்தத்": 7905,
      "புகை": 7906,
      "108": 7907,
      "##மீக": 7908,
      "##வதைத்": 7909,
      "இப்படிப்பட்ட": 7910,
      "உயிரிழந்தார்": 7911,
      "குழுவை": 7912,
      "டைட்ட": 7913,
      "சிங்கப்பூர்": 7914,
      "உயர்நீதிமன்றம்": 7915,
      "சுற்றியுள்ள": 7916,
      "பொறுப்பேற்ற": 7917,
      "பாண்டியன்": 7918,
      "##ந்துவீச்ச": 7919,
      "ஈடு": 7920,
      "கங்க": 7921,
      "பந்தில்": 7922,
      "##மன": 7923,
      "##ூன்": 7924,
      "##துவாக": 7925,
      "##ிகோ": 7926,
      "சிலி": 7927,
      "பணிகளில்": 7928,
      "##ரேஷன்": 7929,
      "கைக": 7930,
      "அவரால்": 7931,
      "என்கின்றனர்": 7932,
      "எம்ஜி": 7933,
      "என்பதைக்": 7934,
      "ஆதரவை": 7935,
      "##ார்கள": 7936,
      "##க்கொண்டே": 7937,
      "பிரச்சின": 7938,
      "வெளியிட்டது": 7939,
      "நுழைந்த": 7940,
      "அழிக்க": 7941,
      "சண்முகம்": 7942,
      "சமூகவலை": 7943,
      "இலை": 7944,
      "##மாய": 7945,
      "##ாகவும்": 7946,
      "காக்க": 7947,
      "வெயில்": 7948,
      "##மாகச்": 7949,
      "வருகின்ற": 7950,
      "##த்தின்போது": 7951,
      "##லிங்கம்": 7952,
      "அமைச்சரவையில்": 7953,
      "கூறப்படும்": 7954,
      "தரவு": 7955,
      "நிர்ண": 7956,
      "லட்சக்கணக்கான": 7957,
      "தானம்": 7958,
      "நினைக்கிறேன்": 7959,
      "அன்புமணி": 7960,
      "விகடன்": 7961,
      "ஆயுள்": 7962,
      "##ாயிரம்": 7963,
      "சட்டசபையில்": 7964,
      "58": 7965,
      "56": 7966,
      "உபக": 7967,
      "ஊரில்": 7968,
      "##ொழுது": 7969,
      "##ரையை": 7970,
      "##வினால்": 7971,
      "அமைதியாக": 7972,
      "தலைவர்களும்": 7973,
      "இந்தியன்": 7974,
      "துரோ": 7975,
      "விசா": 7976,
      "பூச": 7977,
      "மருத்துவம்": 7978,
      "சென்றபோது": 7979,
      "கூடவே": 7980,
      "உத்தரவிட்ட": 7981,
      "கருத்துகள்": 7982,
      "விளையாடிய": 7983,
      "##மார்ட்": 7984,
      "பரவலாக": 7985,
      "பிரதமரின்": 7986,
      "தெரியவந்துள்ளது": 7987,
      "ஹேம": 7988,
      "ஒலிம்பியா": 7989,
      "சான்றிதழ்": 7990,
      "சீனிவாசன்": 7991,
      "திருக்கல்யாண": 7992,
      "சமையல்": 7993,
      "திருவள்ளூர்": 7994,
      "சீதாராமன்": 7995,
      "பட்சத்தில்": 7996,
      "ஓரிரு": 7997,
      "அஷ்ட": 7998,
      "உன்": 7999,
      "ரஞ்சி": 8000,
      "##ாஜ்": 8001,
      "##வந்து": 8002,
      "##யான்": 8003,
      "##ையற்ற": 8004,
      "##மிட்ட": 8005,
      "வாதி": 8006,
      "பலருக்கும்": 8007,
      "எழுது": 8008,
      "இயங்கி": 8009,
      "தரைய": 8010,
      "முதலாவது": 8011,
      "பொறுத்து": 8012,
      "##ிருப்பார்": 8013,
      "தெரிவிக்கப்பட்டது": 8014,
      "தொழிலில்": 8015,
      "அக்கட்சி": 8016,
      "உடன்ப": 8017,
      "வழங்குவது": 8018,
      "மதிப்பிலான": 8019,
      "குற்றவாளிகள்": 8020,
      "எம்எல்ஏக்கள்": 8021,
      "தீயணைப்பு": 8022,
      "பொதுக்குழுவில்": 8023,
      "லிட்டர்": 8024,
      "07": 8025,
      "ரத்": 8026,
      "##ழும்ப": 8027,
      "##னேஷ்": 8028,
      "##ர்கா": 8029,
      "##ச்சத்து": 8030,
      "நடமா": 8031,
      "கூலி": 8032,
      "தென்னி": 8033,
      "##த்தினை": 8034,
      "சட்டத்தில்": 8035,
      "மகேஷ்": 8036,
      "இடைத்தேர்த": 8037,
      "பாராட்டி": 8038,
      "உதவிகளை": 8039,
      "மாற்றுத்திற": 8040,
      "எழுதியுள்ளார்": 8041,
      "பவுண்டரி": 8042,
      "நூற்றுக்கணக்கான": 8043,
      "மேலாண்மை": 8044,
      "தமிழிசை": 8045,
      "விவாகர": 8046,
      "85": 8047,
      "re": 8048,
      "எளிய": 8049,
      "பசி": 8050,
      "##ூறு": 8051,
      "##ிலில்": 8052,
      "அதையடுத்து": 8053,
      "கடற்றொ": 8054,
      "சிதை": 8055,
      "தீட்சி": 8056,
      "##ல்களின்": 8057,
      "போட்டியை": 8058,
      "##ப்பதன்": 8059,
      "நீதிமன்றத்தின்": 8060,
      "வெற்றிக்கு": 8061,
      "ட்ரோ": 8062,
      "கண்காணிக்க": 8063,
      "வலியுறுத்திய": 8064,
      "பங்களிப்பு": 8065,
      "நடுத்தர": 8066,
      "பில்": 8067,
      "ரவு": 8068,
      "வார்": 8069,
      "##ிண": 8070,
      "##சிக்க": 8071,
      "##த்திட": 8072,
      "##றிந்த": 8073,
      "தேட": 8074,
      "கோவி": 8075,
      "கோவா": 8076,
      "இதர": 8077,
      "நீரி": 8078,
      "##சியின்": 8079,
      "துண்ட": 8080,
      "துல்லிய": 8081,
      "##ஞ்ச்": 8082,
      "##மையுடன்": 8083,
      "இஸ்ரேலுக்கு": 8084,
      "பஞ்சாய": 8085,
      "கையாள": 8086,
      "கட்டுப்பாட்டு": 8087,
      "மிரட்ட": 8088,
      "நியூய": 8089,
      "கார்த்திக்": 8090,
      "திரையரங்க": 8091,
      "##சுவாமி": 8092,
      "அறிகுறிகள்": 8093,
      "08": 8094,
      "பல்": 8095,
      "பவார்": 8096,
      "மஹா": 8097,
      "##ிகேய": 8098,
      "இருவரையும்": 8099,
      "தொல்ல": 8100,
      "அதில": 8101,
      "நீள": 8102,
      "வாழை": 8103,
      "செய்யப்பட்டுள்ளன": 8104,
      "சேரும்": 8105,
      "துறையினர்": 8106,
      "##ராக்": 8107,
      "பாஜகவினர்": 8108,
      "கிரா": 8109,
      "பாதுகாப்பை": 8110,
      "உள்ளிட்டவை": 8111,
      "உத்தரப்": 8112,
      "தேசியவாத": 8113,
      "அடிப்படையாக": 8114,
      "மனிதர்கள்": 8115,
      "ஆலோசக": 8116,
      "##ஷ்ணு": 8117,
      "தொலைபேசி": 8118,
      "வலியுறுத்தினார்": 8119,
      "பழங்குடி": 8120,
      "எழுந்தருள": 8121,
      "நாள்களுக்கு": 8122,
      "ஆற்றல்": 8123,
      "விஞ்ஞானிகள்": 8124,
      "அப்துல்": 8125,
      "புதன்க": 8126,
      "சரவணன்": 8127,
      "சுவாரஸ்": 8128,
      "ஆம்பு": 8129,
      "உன": 8130,
      "சச்சின்": 8131,
      "தலித்": 8132,
      "##ரமான": 8133,
      "மாசு": 8134,
      "வெற்றிய": 8135,
      "நிஜ": 8136,
      "தலைவர்களை": 8137,
      "##ெய்ய": 8138,
      "தமிழ்நாட்டு": 8139,
      "ஏற்படுத்தியிருக்கிறது": 8140,
      "குழந்தைக்கு": 8141,
      "ஆய்வில்": 8142,
      "சகல": 8143,
      "வேண்டியிருந்தது": 8144,
      "செய்யப்பட்டுள்ளார்": 8145,
      "விக்ரம்": 8146,
      "தாமரை": 8147,
      "இருக்கிறதா": 8148,
      "பாகிஸ்தானின்": 8149,
      "நாள்கள்": 8150,
      "வேண்டுமென்ற": 8151,
      "செய்தியாளர்களைச்": 8152,
      "இந்நிகழ்": 8153,
      "பாலஸ்தீன": 8154,
      "ஓய்வூதிய": 8155,
      "பாக்": 8156,
      "##விலும்": 8157,
      "##ஜின": 8158,
      "விநாயக": 8159,
      "குப்பை": 8160,
      "இருப": 8161,
      "##ுவையில்": 8162,
      "மேடை": 8163,
      "வருவதை": 8164,
      "செய்திருக்கிறார்": 8165,
      "..?": 8166,
      "வாஷி": 8167,
      "##னுக்காக": 8168,
      "##வானி": 8169,
      "கிராமத்தைச்": 8170,
      "எனக்குத்": 8171,
      "மண்டபம்": 8172,
      "இயக்குனர்": 8173,
      "வெப்பநிலை": 8174,
      "எண்ணிக்கையில்": 8175,
      "விரும்புகிறேன்": 8176,
      "புகழ்பெற்ற": 8177,
      "வெறுப்பு": 8178,
      "பொறியியல்": 8179,
      "காஷ்மீரில்": 8180,
      "மீனாட்சி": 8181,
      "ஹைதராபாத்": 8182,
      "இழப்பீடு": 8183,
      "அத்துமீ": 8184,
      "ஆத்திர": 8185,
      "நாய்": 8186,
      "நவீன்": 8187,
      "வத": 8188,
      "வியூ": 8189,
      "##க்ச": 8190,
      "##க்குரிய": 8191,
      "மாசி": 8192,
      "அவமதி": 8193,
      "தொட்ட": 8194,
      "##ம்பரில்": 8195,
      "##ற்பயி": 8196,
      "##ிக்கள்": 8197,
      "நிலத்தை": 8198,
      "கடைகள்": 8199,
      "##வைத்த": 8200,
      "வைப": 8201,
      "##வாசி": 8202,
      "சமாளி": 8203,
      "குறைத்து": 8204,
      "ஸ்மார்ட்": 8205,
      "##முறைகள்": 8206,
      "பிரிவின": 8207,
      "இழப்பு": 8208,
      "மேற்கொள்ளப்பட்டு": 8209,
      "இன்றைக்கு": 8210,
      "சர்ச்சையை": 8211,
      "அறிவுரை": 8212,
      "புலிகள்": 8213,
      "சாதகமான": 8214,
      "கவனித்து": 8215,
      "முழங்க": 8216,
      "நான்காவது": 8217,
      "ரவீந்திர": 8218,
      "ஃபை": 8219,
      "ஈர்க்க": 8220,
      "ஹவு": 8221,
      "##க்த": 8222,
      "##av": 8223,
      "போஸ்ட": 8224,
      "அவங்க": 8225,
      "அரைய": 8226,
      "பூங்கா": 8227,
      "நெறி": 8228,
      "ராஜேந்திர": 8229,
      "வந்துள்ளனர்": 8230,
      "தூய்": 8231,
      "அணிவகு": 8232,
      "ஒன்றரை": 8233,
      "பகுதிகளை": 8234,
      "நிறுத்து": 8235,
      "நகரங்களில்": 8236,
      "##த்தொடர்": 8237,
      "செய்தியாளர்கள்": 8238,
      "வெளியிட்டார்": 8239,
      "##ப்படுத்துவது": 8240,
      "உயிரின": 8241,
      "சனாதன": 8242,
      "வேதனை": 8243,
      "எதிர்கொள்ளும்": 8244,
      "அதிகபட்சமாக": 8245,
      "உள்ளடக்கிய": 8246,
      "தரையிற": 8247,
      "மாற்றுத்திறன": 8248,
      "இப்பட": 8249,
      "ஓட": 8250,
      "கச்ச": 8251,
      "##ாருக்கு": 8252,
      "##வோர்": 8253,
      "##im": 8254,
      "முதுக": 8255,
      "##ாவிலிருந்து": 8256,
      "நாளும்": 8257,
      "##தியு": 8258,
      "##ப்பட்டுள்ளார்": 8259,
      "திருச்செ": 8260,
      "##ிருந்தேன்": 8261,
      "துரித": 8262,
      "வழங்கப்பட்டு": 8263,
      "##ராகவும்": 8264,
      "பதிவில்": 8265,
      "இப்போதும்": 8266,
      "வாய்ப்ப": 8267,
      "இன்னமும்": 8268,
      "அடுத்தடுத்த": 8269,
      "மறுப்பு": 8270,
      "விரும்புவ": 8271,
      "##வருமே": 8272,
      "எளிதில்": 8273,
      "ரூபாய்க்கு": 8274,
      "பொதுச்செயல": 8275,
      "அம்பேத்கர்": 8276,
      "சமர்ப்பிக்க": 8277,
      "தெலுங்கானா": 8278,
      "ராதாக": 8279,
      "54": 8280,
      "64": 8281,
      "எம": 8282,
      "##ாட": 8283,
      "##ெடி": 8284,
      "வருவாய": 8285,
      "செய்திருந்தார்": 8286,
      "##ற்றுக்கு": 8287,
      "அரசால்": 8288,
      "செய்துவிட்டு": 8289,
      "தொடர்புக": 8290,
      "ஆதீனம்": 8291,
      "அறிவித்துள்ளார்": 8292,
      "பிறகுதான்": 8293,
      "பயன்படுத்தப்படும்": 8294,
      "கருத்துகளை": 8295,
      "கிராமப்புற": 8296,
      "தவறி": 8297,
      "வார்டு": 8298,
      "பயணிக்க": 8299,
      "அவரைப்": 8300,
      "சுற்றுப்பய": 8301,
      "கண்ணன்": 8302,
      "அந்நிய": 8303,
      "நுழைவு": 8304,
      "வெளியுறவுத்துறை": 8305,
      "ஆச்சர்": 8306,
      "மெட்ரோ": 8307,
      "துன்புறுத்த": 8308,
      "ஹர்திக்": 8309,
      "யூனியன்": 8310,
      "உபகரண": 8311,
      "மலர்": 8312,
      "முளை": 8313,
      "விடை": 8314,
      "##ம்பூர்": 8315,
      "வெட்ட": 8316,
      "பிரசித்தி": 8317,
      "##டுகளின்": 8318,
      "சுத்தம்": 8319,
      "திருத்தம்": 8320,
      "##லுக்காக": 8321,
      "சட்டப்படி": 8322,
      "பகல்": 8323,
      "வாழ்க": 8324,
      "திறமை": 8325,
      "##ிருப்பதை": 8326,
      "புதுப்பிக்க": 8327,
      "நாயக": 8328,
      "முன்வைக்க": 8329,
      "காதல": 8330,
      "சுற்றுலாப்": 8331,
      "கமலா": 8332,
      "மானிய": 8333,
      "தியாகராஜன்": 8334,
      "##ive": 8335,
      "நிலைப்பாட்டை": 8336,
      "63": 8337,
      "ஆலை": 8338,
      "உன்ன": 8339,
      "ஜார்க்க": 8340,
      "மஸ்க்": 8341,
      "##றா": 8342,
      "##்களும்": 8343,
      "##க்கப்": 8344,
      "##ியாவில்": 8345,
      "பிரபு": 8346,
      "கோலாக": 8347,
      "அமைந்து": 8348,
      "##டுகளும்": 8349,
      "பிளவு": 8350,
      "அந்தந்த": 8351,
      "சூதா": 8352,
      "நெய்": 8353,
      "போட்டியின்": 8354,
      "நிறுவனங்களுக்கு": 8355,
      "உறவுகளை": 8356,
      "முழுவது": 8357,
      "அளிக்கப்பட்டது": 8358,
      "குற்றச்சாட்டுகளை": 8359,
      "விண்ணப்பிக்க": 8360,
      "நிற்கும்": 8361,
      "பேசுவது": 8362,
      "விடுத்துள்ளார்": 8363,
      "சாப்பிட்டு": 8364,
      "மனோஜ்": 8365,
      "சிறுத்தைகள்": 8366,
      "##ாவாசை": 8367,
      "இடஒதுக்கீடு": 8368,
      "ஒலிம்பியாட்": 8369,
      "நஷ்ட": 8370,
      "பந்தை": 8371,
      "##பந்து": 8372,
      "##கிறேன்": 8373,
      "##வல்": 8374,
      "##od": 8375,
      "##op": 8376,
      "##ிடத்தில்": 8377,
      "பிரிக்க": 8378,
      "கடத்தி": 8379,
      "அரசிடம்": 8380,
      "நீர்ம": 8381,
      "இருந்ததாக": 8382,
      "##நிலையை": 8383,
      "வழங்கப்படுகிறது": 8384,
      "அதுவே": 8385,
      "உதவு": 8386,
      "##ாளர்களாக": 8387,
      "இணைக்க": 8388,
      "வாக்குவாதம்": 8389,
      "அகமது": 8390,
      "அலுவல்கள்": 8391,
      "வாரத்தில்": 8392,
      "வாரங்களுக்கு": 8393,
      "சிக்கல்கள்": 8394,
      "பிரச்னையை": 8395,
      "தயாராகி": 8396,
      "மேற்கொண்டார்": 8397,
      "விவரங்கள்": 8398,
      "இம்முறை": 8399,
      "வியாழக்கிழமை": 8400,
      "09": 8401,
      "அமு": 8402,
      "எங்களின்": 8403,
      "சத்த": 8404,
      "சதம்": 8405,
      "##பார்": 8406,
      "##ொல": 8407,
      "##னெ": 8408,
      "##நாள": 8409,
      "##ஷ்க": 8410,
      "##um": 8411,
      "##த்தவர்": 8412,
      "##ப்பேன்": 8413,
      "##ள்ளா": 8414,
      "காஸா": 8415,
      "##ம்பே": 8416,
      "நாங்க": 8417,
      "வெகுவ": 8418,
      "புட": 8419,
      "வருகிறேன்": 8420,
      "அமாவாசை": 8421,
      "##விட்டாலும்": 8422,
      "பதிவான": 8423,
      "கட்டமைப்பு": 8424,
      "அவர்களால்": 8425,
      "உணர்ந்து": 8426,
      "##ப்பதற்கும்": 8427,
      "##விலில்": 8428,
      "பார்க்கும்போது": 8429,
      "மனுவில்": 8430,
      "வழிபட": 8431,
      "தனித்து": 8432,
      "வெள்ளத்தில்": 8433,
      "உண்மைய": 8434,
      "யாராவது": 8435,
      "நூறு": 8436,
      "இவ்வாறான": 8437,
      "நிவாரணம்": 8438,
      "ரெய்டு": 8439,
      "மறுசீரமைப்பு": 8440,
      "##விளக்கு": 8441,
      "53": 8442,
      "ஓவிய": 8443,
      "சரிச": 8444,
      "வண்ட": 8445,
      "##ர்ஸ்": 8446,
      "##ர்களுக்கான": 8447,
      "குளி": 8448,
      "பாலு": 8449,
      "பாலம்": 8450,
      "தெற்க": 8451,
      "அரங்க": 8452,
      "வீச்ச": 8453,
      "அமைக்கும்": 8454,
      "வைகோ": 8455,
      "##பெரும்": 8456,
      "##காசம்": 8457,
      "மாநிலங்கள்": 8458,
      "##போர்ட்": 8459,
      "பூங்க": 8460,
      "ஜோடி": 8461,
      "பல்கலைக்கழகம்": 8462,
      "ஆலோசனைக்": 8463,
      "##பிரதேச": 8464,
      "விவரங்களை": 8465,
      "சமாஜ்வாதி": 8466,
      "கொரோனாவால்": 8467,
      "கமிஷனர்": 8468,
      "உயிருடன்": 8469,
      "அரையிறு": 8470,
      "59": 8471,
      "ஒன்": 8472,
      "பங்கள": 8473,
      "யில்": 8474,
      "ரத்தம்": 8475,
      "##ிகே": 8476,
      "மான்": 8477,
      "தாம்": 8478,
      "இயல்": 8479,
      "வாக்குகளை": 8480,
      "தேவஸ்தான": 8481,
      "வாகனங்களில்": 8482,
      "சைபர்": 8483,
      "பொருட்களின்": 8484,
      "##வகையில்": 8485,
      "ஆகியோரின்": 8486,
      "வலியுறுத்து": 8487,
      "ஜனநாயகக்": 8488,
      "வீழ்த்தி": 8489,
      "அஞ்சலி": 8490,
      "இளையராஜா": 8491,
      "##சேகர": 8492,
      "பிரம்மோ": 8493,
      "ஜடேஜா": 8494,
      "சீர்திருத்த": 8495,
      "ஏக்க": 8496,
      "டாப்": 8497,
      "##ாட்ச": 8498,
      "##பவர்களுக்கு": 8499,
      "##வரிச": 8500,
      "##ஸும்": 8501,
      "##ிரத": 8502,
      "விதிகள்": 8503,
      "அதிகளவில்": 8504,
      "##வர்களுடன்": 8505,
      "தேர்தலின்": 8506,
      "##த்திற்குச்": 8507,
      "வைத்திருக்க": 8508,
      "செய்யப்பட்டனர்": 8509,
      "உறவுகள்": 8510,
      "எதிர்கொண்டு": 8511,
      "ஆய்வுகள்": 8512,
      "கூறியதாவது": 8513,
      "மேற்கொள்ளப்பட்ட": 8514,
      "குறிப்பிடுகிறார்": 8515,
      "வருடங்கள்": 8516,
      "முன்வைத்து": 8517,
      "வியாப": 8518,
      "பின்பற்று": 8519,
      "இங்கிலா": 8520,
      "நேர்காண": 8521,
      "சமூகவலைதள": 8522,
      "ஓவர்கள்": 8523,
      "சோர்": 8524,
      "வால்": 8525,
      "##கார": 8526,
      "##ப்பொ": 8527,
      "##ட்டமைப்பு": 8528,
      "##ஸ்ரீ": 8529,
      "பிரான்": 8530,
      "தென்னா": 8531,
      "##ராது": 8532,
      "சீக்கிய": 8533,
      "நீதிப": 8534,
      "காங்கிரஸின்": 8535,
      "தூர": 8536,
      "##க்கப்பட்டன": 8537,
      "முறைப்படி": 8538,
      "தனிந": 8539,
      "விருந்து": 8540,
      "அருண": 8541,
      "ஆணையத்தின்": 8542,
      "அளிக்கிறது": 8543,
      "அரசியலுக்கு": 8544,
      "அறங்காவ": 8545,
      "அதனைத்": 8546,
      "டாக்ட": 8547,
      "கழிவு": 8548,
      "ஆகியோரை": 8549,
      "கேள்விகளை": 8550,
      "களமிறங்கிய": 8551,
      "பெரிதும்": 8552,
      "##ிலிருந்தும்": 8553,
      "முஸ்லிம்கள்": 8554,
      "ஊட்ட": 8555,
      "ஜார்": 8556,
      "தடைய": 8557,
      "ஷோ": 8558,
      "##மனு": 8559,
      "##ps": 8560,
      "தலைமறை": 8561,
      "ராசா": 8562,
      "அதிகாரிகளை": 8563,
      "தொடங்கியுள்ளது": 8564,
      "காணப்படுகிறது": 8565,
      "வெளியேறிய": 8566,
      "மோடிக்கு": 8567,
      "விரும்பும்": 8568,
      "அடைக்க": 8569,
      "நிரூபிக்க": 8570,
      "சல்மான்": 8571,
      "இருதரப்பு": 8572,
      "பேரிடர்": 8573,
      "99": 8574,
      "wh": 8575,
      "பன்": 8576,
      "லால்": 8577,
      "##யிர": 8578,
      "##துரை": 8579,
      "குத்த": 8580,
      "##ுகளின்": 8581,
      "உள்ளவர்கள்": 8582,
      "கோபுர": 8583,
      "##ண்ணு": 8584,
      "எதிர்த்த": 8585,
      "துறைய": 8586,
      "வழங்குக": 8587,
      "பிறப்பிக்க": 8588,
      "##விட்டார்கள்": 8589,
      "குழப்பம்": 8590,
      "ஆதார்": 8591,
      "அல்லாத": 8592,
      "இறப்பு": 8593,
      "ஈடுபடு": 8594,
      "##ப்படுவதை": 8595,
      "அருண்": 8596,
      "மதிப்பில்": 8597,
      "காவல்துறையின": 8598,
      "உயிரிழப்பு": 8599,
      "நலன்": 8600,
      "மாநகர": 8601,
      "உயிரிழந்தனர்": 8602,
      "முன்னெடுத்து": 8603,
      "உயர்கல்வி": 8604,
      "தென்னாப்பிரிக்க": 8605,
      "உரை": 8606,
      "படு": 8607,
      "ஷூ": 8608,
      "##சின்": 8609,
      "##த்தேன்": 8610,
      "##ியாவின்": 8611,
      "##ப்பவர்கள்": 8612,
      "##ாவதாக": 8613,
      "##ாவிலும்": 8614,
      "நிலுவையில்": 8615,
      "மூடி": 8616,
      "பரிக": 8617,
      "புகழ": 8618,
      "நிர்ணய": 8619,
      "##வதாகக்": 8620,
      "செலுத்தினர்": 8621,
      "பாதிக்கப்பட்டு": 8622,
      "அண்ணாமல": 8623,
      "நிரப்ப": 8624,
      "ஜிஎ": 8625,
      "மிள": 8626,
      "அரசியலை": 8627,
      "2009": 8628,
      "மண்டப": 8629,
      "தருண": 8630,
      "ஆறுமுக": 8631,
      "முஸ்லிம்க": 8632,
      "கூட்டுறவு": 8633,
      "ரயிலில்": 8634,
      "மாலத்தீவு": 8635,
      "தொழிற்ச": 8636,
      "வேண்டுகோள்": 8637,
      "சஸ்பெ": 8638,
      "தரி": 8639,
      "##கிறோம்": 8640,
      "##ஜியின்": 8641,
      "##ம்மா": 8642,
      "கொன்று": 8643,
      "##மைப்பின்": 8644,
      "பாறை": 8645,
      "கூட்டி": 8646,
      "##ண்ம": 8647,
      "##மானார்": 8648,
      "தெரிவு": 8649,
      "##ப்பிள்ள": 8650,
      "##சாத்": 8651,
      "எந்தக்": 8652,
      "அறிவிப்பை": 8653,
      "இஸ்ரோ": 8654,
      "##ாவைப்": 8655,
      "எண்ணம்": 8656,
      "இறக்க": 8657,
      "சாதன": 8658,
      "##களின்படி": 8659,
      "தேவைப்படும்": 8660,
      "மைக்": 8661,
      "வெளியிட்டுள்ளார்": 8662,
      "நோய்கள்": 8663,
      "சந்தித்துப்": 8664,
      "ஆகியோரும்": 8665,
      "நிமிடங்கள்": 8666,
      "அஸ்வின்": 8667,
      "கண்டறிந்து": 8668,
      "இசையமை": 8669,
      "வாரிசு": 8670,
      "மிதமான": 8671,
      "யானைகள்": 8672,
      "அர்த்தம்": 8673,
      "அறக்கட்டளை": 8674,
      "யாழ்ப்பா": 8675,
      "##ார்களாம்": 8676,
      "ஆக்க": 8677,
      "ஆங்கா": 8678,
      "இம்ம": 8679,
      "உச்சி": 8680,
      "எங்கும்": 8681,
      "கசி": 8682,
      "##லையே": 8683,
      "##ag": 8684,
      "முர்": 8685,
      "##றிந்து": 8686,
      "##க்ஸ": 8687,
      "##ுகளுக்கு": 8688,
      "நாடக": 8689,
      "பொம்மை": 8690,
      "##சிசி": 8691,
      "##மாண": 8692,
      "திருட": 8693,
      "ராஷ்ட": 8694,
      "##வர்களுக்கான": 8695,
      "##ப்படுகின்றனர்": 8696,
      "மிகச்": 8697,
      "##ல்கா": 8698,
      "பேசியுள்ளார்": 8699,
      "வைத்துள்ளது": 8700,
      "நுபுர்": 8701,
      "சந்திரபாபு": 8702,
      "எடுத்தார்": 8703,
      "நாராயண": 8704,
      "பொலிஸ்": 8705,
      "சர்ச்சைக்குரிய": 8706,
      "தென்னிந்திய": 8707,
      "தொல்லியல்": 8708,
      "எத்த": 8709,
      "கத்திய": 8710,
      "மார்க்": 8711,
      "ரில": 8712,
      "##மர": 8713,
      "##ந்தன்": 8714,
      "பாத்திர": 8715,
      "கோபி": 8716,
      "தொடக்கம்": 8717,
      "##வேந்திர": 8718,
      "##ிட்டார்": 8719,
      "அமைத்த": 8720,
      "இதுவும்": 8721,
      "தெரிவிக்கும்": 8722,
      "முதல்முறையாக": 8723,
      "##லிங்": 8724,
      "##ஞ்சல்": 8725,
      "##மையன்று": 8726,
      "வரையில்": 8727,
      "##்க்கும்": 8728,
      "குறைந்துள்ளது": 8729,
      "உருவெ": 8730,
      "விசாரணையின்": 8731,
      "விழாவின்": 8732,
      "தனித்துவ": 8733,
      "கடைசியாக": 8734,
      "ஆன்மிக": 8735,
      "மிரட்டி": 8736,
      "மேற்கொண்டனர்": 8737,
      "துரைமுருகன்": 8738,
      "உலகக்கோப்பை": 8739,
      "கூகுள்": 8740,
      "உறை": 8741,
      "எகி": 8742,
      "ஜல்லிக்க": 8743,
      "##தர்கள்": 8744,
      "##வனை": 8745,
      "##வசம்": 8746,
      "##ோரின்": 8747,
      "##ஹாச": 8748,
      "காலில்": 8749,
      "கொட்ட": 8750,
      "தேயில": 8751,
      "##்யூ": 8752,
      "வீடுகளை": 8753,
      "##டிக்கை": 8754,
      "##ல்களையும்": 8755,
      "பொதுக்": 8756,
      "ஆண்டுக்கான": 8757,
      "உணவை": 8758,
      "##ரீதியாக": 8759,
      "மாற்றத்தை": 8760,
      "வழக்குகளில்": 8761,
      "தங்களுடைய": 8762,
      "நிகழ்ச்சியை": 8763,
      "கிராமங்களில்": 8764,
      "வங்கிகள்": 8765,
      "கொள்கையை": 8766,
      "##and": 8767,
      "பைக்": 8768,
      "பள்ளிக்கு": 8769,
      "இளங்கோ": 8770,
      "##ப்போகும்": 8771,
      "நியமிக்கப்பட்ட": 8772,
      "விமர்சனங்கள்": 8773,
      "##ctor": 8774,
      "அயோத்தி": 8775,
      "குறைந்தபட்சம்": 8776,
      "தட்டுப்பாடு": 8777,
      "விக்கிரம": 8778,
      "ஆர்எஸ்எஸ்": 8779,
      "திருவாரூர்": 8780,
      "அத்தனை": 8781,
      "இபிஎஸ்": 8782,
      "இவற்றை": 8783,
      "##ஜீ": 8784,
      "##ப்பறை": 8785,
      "##ிகளுக்கான": 8786,
      "காமெ": 8787,
      "கொங்கு": 8788,
      "##ளுக்கே": 8789,
      "புய": 8790,
      "சுங்க": 8791,
      "##ப்பாக்கம்": 8792,
      "தாத்தா": 8793,
      "எழுப்பு": 8794,
      "##வீதி": 8795,
      "நிறுவனர்": 8796,
      "பெருங்க": 8797,
      "நல்லா": 8798,
      "விஷயத்தை": 8799,
      "கிடைக்கிறது": 8800,
      "அசாம்": 8801,
      "##த்தொழில்": 8802,
      "பறக்க": 8803,
      "எதிர்காலம்": 8804,
      "ஆப்கானிஸ்தான": 8805,
      "நள்ளிரவு": 8806,
      "மீதமுள்ள": 8807,
      "61": 8808,
      "இவர்களின்": 8809,
      "மில்": 8810,
      "##நல்ல": 8811,
      "##ிலா": 8812,
      "போடும்": 8813,
      "##வேச": 8814,
      "##ழுக்கு": 8815,
      "புல்": 8816,
      "மூச்சு": 8817,
      "திமுகவில்": 8818,
      "நிலையான": 8819,
      "அதிகரிப்பு": 8820,
      "முகத்தில்": 8821,
      "அடங்கும்": 8822,
      "குற்றவாளி": 8823,
      "சலசல": 8824,
      "அதிபராக": 8825,
      "சீரியல்": 8826,
      "சிறுபான்மைய": 8827,
      "பத்ம": 8828,
      "நேர்த்திக்க": 8829,
      "67": 8830,
      "72": 8831,
      "ஓபி": 8832,
      "பன": 8833,
      "##ோரை": 8834,
      "##ஷ்குமார்": 8835,
      "##க்கல்ல": 8836,
      "##றுகள்": 8837,
      "முகவ": 8838,
      "விடிய": 8839,
      "##றித்த": 8840,
      "பென்": 8841,
      "ஒருவரான": 8842,
      "தலைமுறை": 8843,
      "##வதையும்": 8844,
      "சித்தா": 8845,
      "##டையே": 8846,
      "சாந்தி": 8847,
      "சம்பா": 8848,
      "சென்னைக்கு": 8849,
      "கருப்ப": 8850,
      "நிலையங்களில்": 8851,
      "கலந்துகொள்ள": 8852,
      "பகுதிகளிலும்": 8853,
      "பொறுப்பை": 8854,
      "வெற்றிபெற்ற": 8855,
      "குடியே": 8856,
      "ஆலோசகர்": 8857,
      "250": 8858,
      "##ாபய": 8859,
      "கிருஷ்ணகிரி": 8860,
      "கட்சியின": 8861,
      "முன்னெச்ச": 8862,
      "உங்களுடைய": 8863,
      "கூட்டணிக்": 8864,
      "அவிநா": 8865,
      "விருந்தின": 8866,
      "57": 8867,
      "sh": 8868,
      "ஃபெ": 8869,
      "அபே": 8870,
      "கத்த": 8871,
      "கத்தார்": 8872,
      "சம்": 8873,
      "சாகு": 8874,
      "##காவ": 8875,
      "##றாங்க": 8876,
      "##st": 8877,
      "##ஜன": 8878,
      "##ஜின்": 8879,
      "##ீட்டில்": 8880,
      "தேசம்": 8881,
      "##சிங்": 8882,
      "##வாஸ்": 8883,
      "##ங்கள்தான்": 8884,
      "பரவும்": 8885,
      "கட்சியும்": 8886,
      "குறைபாடு": 8887,
      "கவின்": 8888,
      "வைத்துள்ளார்": 8889,
      "பிரித்து": 8890,
      "நிகழ்ச்சிகளில்": 8891,
      "உறவில்": 8892,
      "நிறுத்திய": 8893,
      "ஆட்டத்தை": 8894,
      "நெருக்கடியை": 8895,
      "புலம்பெய": 8896,
      "##amil": 8897,
      "சாத்தியம்": 8898,
      "மசோதாவை": 8899,
      "பராமரிக்க": 8900,
      "மரும": 8901,
      "கோட்டாபய": 8902,
      "பந்துவீச்சில்": 8903,
      "வளர்ப்பு": 8904,
      "மலையாள": 8905,
      "டெல்டா": 8906,
      "காய்கற": 8907,
      "ஜார்க்கண்ட்": 8908,
      "ஜிஎஸ்டி": 8909,
      "ஆங்காங்கே": 8910,
      "66": 8911,
      "ரத": 8912,
      "ரஹ்": 8913,
      "ஹரிய": 8914,
      "##ைச்": 8915,
      "##ச்சரி": 8916,
      "கொழும்ப": 8917,
      "பெறுக": 8918,
      "நடப்பது": 8919,
      "வேகம்": 8920,
      "##ுகா": 8921,
      "பிரேச": 8922,
      "##குண்ட": 8923,
      "குறிவைத்து": 8924,
      "##ழ்ந்து": 8925,
      "பலியான": 8926,
      "##வாடி": 8927,
      "##வாழ்வு": 8928,
      "பிறப்பு": 8929,
      "மாவட்டத்தின்": 8930,
      "மகால": 8931,
      "##க்கிங்": 8932,
      "மாணிக்க": 8933,
      "மணிப்பூரில்": 8934,
      "எதிர்ப்பை": 8935,
      "##ேயும்": 8936,
      "பேசியிருக்கிறார்": 8937,
      "அளித்துள்ளது": 8938,
      "எடுக்கவில்லை": 8939,
      "##வியத்": 8940,
      "சங்கர": 8941,
      "##ப்போன": 8942,
      "இந்துக்கள்": 8943,
      "மேற்கொள்ளும்": 8944,
      "டிரெ": 8945,
      "எதுவு": 8946,
      "கிளம்பி": 8947,
      "வேண்டுமா": 8948,
      "விஜயகாந்த்": 8949,
      "வாக்களி": 8950,
      "சொல்கிறது": 8951,
      "நடத்துவது": 8952,
      "டாடா": 8953,
      "சலுகை": 8954,
      "ரன்களுக்கு": 8955,
      "நூற்றாண்டு": 8956,
      "பாருங்கள்": 8957,
      "பணிபுரியும்": 8958,
      "இன்ஸ்பெக்டர்": 8959,
      "வாஷிங": 8960,
      "##ுங்க": 8961,
      "##கிர": 8962,
      "##நலம்": 8963,
      "முறிய": 8964,
      "##றிக்க": 8965,
      "வேல்": 8966,
      "##ிக்கொ": 8967,
      "##ாதான்": 8968,
      "என்றுதான்": 8969,
      "கடையில்": 8970,
      "நீக்கி": 8971,
      "நிற்ப": 8972,
      "##பிடிக்க": 8973,
      "பொருள்களை": 8974,
      "தெரிவித்துக்": 8975,
      "காவலர்கள்": 8976,
      "விடாமல்": 8977,
[...]
