<unk>	0
<s>	0
</s>	0
்க	-0
்த	-1
ம்	-2
ல்	-3
ன்	-4
▁ப	-5
▁க	-6
க்க	-7
்ட	-8
ர்	-9
▁ம	-10
த்த	-11
▁வ	-12
ப்	-13
▁அ	-14
▁த	-15
▁ச	-16
ிய	-17
ும்	-18
ள்	-19
ந்த	-20
▁இ	-21
ப்ப	-22
து	-23
ில்	-24
ரு	-25
ட்ட	-26
▁ந	-27
▁எ	-28
ங்க	-29
ைய	-30
ாக	-31
ற்	-32
தி	-33
ிற	-34
க்கு	-35
ின்	-36
டு	-37
▁உ	-38
்ச	-39
று	-40
ள்ள	-41
▁ஆ	-42
ண்ட	-43
ிர	-44
ார்	-45
ார	-46
த்து	-47
ில	-48
▁மு	-49
▁செ	-50
ான	-51
டி	-52
ற்ற	-53
ர்க	-54
வி	-55
லை	-56
▁என்	-57
▁வி	-58
ரி	-59
கள	-60
ட்டு	-61
ந்து	-62
▁கு	-63
ிரு	-64
க்	-65
வு	-66
▁இரு	-67
ால்	-68
▁செய	-69
▁ஒ	-70
ச்ச	-71
▁இந்த	-72
றி	-73
▁மா	-74
▁ர	-75
▁போ	-76
ஸ்	-77
▁கா	-78
த்	-79
▁அவ	-80
கள்	-81
▁கொ	-82
ப்பு	-83
னர்	-84
த்தில்	-85
ையில்	-86
னை	-87
ங்கள	-88
ான்	-89
▁தொ	-90
ல்ல	-91
மை	-92
▁பெ	-93
▁நட	-94
▁பா	-95
ுக்கு	-96
ாள	-97
ற்க	-98
▁வே	-99
க்கும்	-100
▁கூ	-101
மி	-102
ர்கள்	-103
ாவ	-104
ாய	-105
ண்டு	-106
▁ஏ	-107
ர்கள	-108
ப்பட்ட	-109
▁தே	-110
ணி	-111
ன்ற	-112
ம்ப	-113
ுவ	-114
ட்ச	-115
▁என	-116
ிறது	-117
▁வெ	-118
..	-119
▁உள்ள	-120
ற்ப	-121
டிய	-122
ிட	-123
சி	-124
கு	-125
▁அதி	-126
▁பிர	-127
ண்	-128
▁அத	-129
மு	-130
ங்கள்	-131
ன்ன	-132
▁தெ	-133
▁பே	-134
ாத	-135
ரை	-136
▁ஒரு	-137
▁நா	-138
ச்	-139
மாக	-140
ின	-141
றை	-142
ட்	-143
ால	-144
்கள்	-145
▁கோ	-146
▁இத	-147
▁பு	-148
▁தொட	-149
டுத்த	-150
▁மே	-151
வே	-152
திய	-153
த்தை	-154
தாக	-155
ாம	-156
▁அர	-157
▁என்று	-158
ிக	-159
வில்	-160
மான	-161
▁மற்ற	-162
வர்	-163
்ய	-164
▁1	-165
▁வழ	-166
▁2	-167
▁ஜ	-168
▁வரு	-169
ிக்க	-170
ரிய	-171
டை	-172
ரும்	-173
▁செய்த	-174
▁பொ	-175
ற்று	-176
ிட்ட	-177
▁நில	-178
ழு	-179
களை	-180
சிய	-181
▁மற்றும்	-182
▁என்ற	-183
ள்ளது	-184
ரா	-185
்த்த	-186
ோது	-187
வும்	-188
டும்	-189
லா	-190
வை	-191
டன்	-192
ண்டும்	-193
▁முத	-194
ன்று	-195
பி	-196
னால்	-197
▁சு	-198
கிறது	-199
▁அமை	-200
்கள	-201
ையும்	-202
▁வீ	-203
பு	-204
ப்பட்டு	-205
▁நீ	-206
▁குறி	-207
▁அதிக	-208
▁மீ	-209
▁வா	-210
ின்ற	-211
மா	-212
னி	-213
ழ்	-214
▁தொடர்	-215
ளி	-216
▁நி	-217
▁தெரி	-218
▁செய்ய	-219
ிறார்	-220
▁இது	-221
▁கட	-222
▁தலை	-223
ிற்க	-224
ிருக்க	-225
▁கே	-226
▁பல	-227
சு	-228
▁சே	-229
▁ட	-230
வத	-231
▁மூ	-232
ட்சி	-233
▁இருந்த	-234
▁தமி	-235
▁என்ப	-236
▁எதி	-237
நில	-238
நா	-239
▁அந்த	-240
▁வை	-241
ியில்	-242
ையை	-243
டுத்து	-244
▁இந்திய	-245
▁தெரிவி	-246
▁வேண்டும்	-247
ணை	-248
▁ஏற்ப	-249
▁இட	-250
▁அவர்	-251
▁திரு	-252
ிருந்த	-253
▁சி	-254
▁நே	-255
வர	-256
வா	-257
▁ய	-258
▁"	-259
ங்கு	-260
லி	-261
▁பய	-262
ட்டி	-263
ாய்	-264
னு	-265
▁இருக்க	-266
ார்கள்	-267
▁சிற	-268
ற்கு	-269
▁து	-270
▁நிற	-271
ய்	-272
▁சொ	-273
ியு	-274
த்தின்	-275
▁முதல்	-276
▁பார	-277
▁ஓ	-278
ண்ண	-279
▁அறி	-280
▁பி	-281
களில்	-282
▁ரா	-283
த்திய	-284
00	-285
முக	-286
டிக்க	-287
ஸ்ட	-288
பெ	-289
பா	-290
ிற்கு	-291
▁வெள	-292
▁தீ	-293
▁மக்க	-294
தை	-295
கா	-296
▁ஆனால்	-297
▁வந்த	-298
ங்களில்	-299
▁ஆண்டு	-300
ள்ளார்	-301
ப்பட	-302
▁ஆக	-303
ப்படு	-304
ியை	-305
ஞ்ச	-306
▁சம	-307
▁ல	-308
▁ஹ	-309
▁கொண்ட	-310
வது	-311
னா	-312
▁சில	-313
▁இர	-314
ர்த	-315
ப்பா	-316
ூர்	-317
▁வெளிய	-318
▁கார	-319
வில்லை	-320
கின்ற	-321
ோத	-322
த்தி	-323
வ்	-324
ற்றி	-325
லும்	-326
மைய	-327
வாக	-328
ங்களை	-329
ருக்கு	-330
க்கிய	-331
லில்	-332
ோம்	-333
ரே	-334
ன்ப	-335
▁20	-336
ாரி	-337
▁உய	-338
லம்	-339
▁தா	-340
▁நடை	-341
ணம்	-342
ழக	-343
மே	-344
▁முன்ன	-345
ளை	-346
▁அமைச்ச	-347
ிலும்	-348
ழை	-349
சா	-350
க்கப்பட்ட	-351
▁தன	-352
வர்கள	-353
▁வர	-354
்க்க	-355
ருத்து	-356
▁ஊ	-357
மன்ற	-358
ங்கி	-359
▁சந்த	-360
வர்கள்	-361
ாம்	-362
▁தி	-363
▁(	-364
ப்பி	-365
லக	-366
▁இருந்து	-367
▁பிற	-368
ேன்	-369
▁நிலையில்	-370
டைய	-371
▁கடந்த	-372
ரிக்க	-373
▁முடி	-374
ஷ்	-375
ாது	-376
▁முடிய	-377
ர்ந்த	-378
▁அரசு	-379
▁சட்ட	-380
ரோ	-381
விட்ட	-382
▁அம	-383
▁செய்து	-384
▁கூற	-385
ராக	-386
▁தேர்த	-387
▁போல	-388
ிடம்	-389
ப்படும்	-390
▁அப்ப	-391
▁வழங்க	-392
▁3	-393
கவ	-394
▁சா	-395
▁நடைபெ	-396
ியின்	-397
லாம்	-398
▁பிரத	-399
ஸ்த	-400
வட்ட	-401
டுக்க	-402
ாமல்	-403
▁பட	-404
களுக்கு	-405
ழி	-406
▁அனு	-407
ட்டில்	-408
ிரி	-409
▁பகு	-410
கி	-411
▁சீ	-412
ும்ப	-413
ாளர்	-414
▁மாவட்ட	-415
▁பதி	-416
த்தார்	-417
▁மாநில	-418
னம்	-419
சார	-420
ரம்	-421
ாவில்	-422
ர்த்த	-423
ரில்	-424
▁கை	-425
▁கிட	-426
▁பின்	-427
லு	-428
வுக்கு	-429
▁மோ	-430
த்திற்கு	-431
▁மேலும்	-432
போ	-433
▁உட	-434
▁திட்ட	-435
ெய	-436
▁உள்ளது	-437
▁இல	-438
ன்னை	-439
▁கூட்ட	-440
▁என்ன	-441
மர்	-442
ந்தது	-443
ல்லை	-444
▁பாஜ	-445
கை	-446
▁பொரு	-447
தா	-448
ாலும்	-449
தம்	-450
▁பொது	-451
▁பூ	-452
▁தொடர்ப	-453
▁கட்ட	-454
▁கால	-455
▁தமிழ்	-456
▁இருப்ப	-457
க்கி	-458
ியாக	-459
▁இப்ப	-460
▁எழு	-461
▁ரூ	-462
▁அள	-463
கிற	-464
▁குறித்து	-465
▁மிக	-466
ப்பட்டது	-467
ொரு	-468
▁கொண்டு	-469
தால்	-470
ேச	-471
தான்	-472
ிருந்து	-473
▁அது	-474
▁அனை	-475
▁குழ	-476
▁ஆகிய	-477
ட்டை	-478
்ச்ச	-479
▁பத	-480
▁ஈ	-481
ியா	-482
▁இருக்கும்	-483
▁பர	-484
...	-485
▁தான்	-486
க்கம்	-487
▁ஐ	-488
▁திர	-489
▁பாஜக	-490
வீ	-491
▁நிக	-492
ாவின்	-493
தும்	-494
▁5	-495
மும்	-496
க்கான	-497
▁முன்	-498
▁கல	-499
▁சூ	-500
▁விவ	-501
றைய	-502
▁தற்ப	-503
▁மருத்து	-504
▁நெ	-505
▁பண	-506
▁தொடர்ந்து	-507
கிறார்	-508
▁நிறுவ	-509
▁நாட	-510
▁வரும்	-511
ந்திர	-512
ச்சி	-513
▁4	-514
கர்	-515
ப்பை	-516
▁என்பது	-517
வம்	-518
ள்ளனர்	-519
ங்களுக்கு	-520
ங்	-521
த்திர	-522
▁கிர	-523
▁உறு	-524
▁நீதி	-525
ப்பட்டுள்ளது	-526
▁மணி	-527
க்கொ	-528
கம்	-529
▁தனது	-530
▁சம்ப	-531
▁குறிப்ப	-532
்களை	-533
கார	-534
▁இய	-535
ட்டிய	-536
க்த	-537
▁கட்சி	-538
▁தேதி	-539
▁கண	-540
▁ஆத	-541
▁கி	-542
▁தர	-543
▁மக்கள்	-544
ையே	-545
▁-	-546
▁கிடை	-547
ட்ப	-548
எஸ்	-549
ாவது	-550
▁வருகிறது	-551
▁சென்னை	-552
▁அவர்கள	-553
▁`	-554
▁மாண	-555
▁'	-556
ப்படுகிறது	-557
▁தமிழக	-558
▁அரசிய	-559
▁அடி	-560
▁கரு	-561
▁பழ	-562
ாதார	-563
▁முக்கிய	-564
▁சேர்ந்த	-565
▁ராஜ	-566
▁போலீ	-567
▁நாடு	-568
▁என்றும்	-569
ுடன்	-570
▁குறை	-571
்தான்	-572
டம்	-573
▁விர	-574
▁இல்லை	-575
ியது	-576
ப்படுத்த	-577
▁பாதி	-578
னார்	-579
ம்ம	-580
▁நான்	-581
தியில்	-582
ெல்ல	-583
▁அவர	-584
▁கூறி	-585
ந்தை	-586
ையா	-587
▁இன்று	-588
▁உத	-589
ங்கிர	-590
▁விள	-591
▁நோ	-592
விர	-593
தல்	-594
▁உண	-595
▁எதிர்	-596
▁பாது	-597
போது	-598
வடிக்க	-599
கையில்	-600
▁தற்போது	-601
▁நடவடிக்க	-602
ேய	-603
▁அரு	-604
▁காங்கிர	-605
▁அல	-606
ஆம்	-607
▁அமைச்சர்	-608
த்துக்கு	-609
▁பாதுகா	-610
▁தெரிவித்து	-611
பதி	-612
▁எந்த	-613
▁வரை	-614
▁தோ	-615
▁மட்டு	-616
ீர்	-617
கின்றனர்	-618
ழ்ச்ச	-619
களின்	-620
▁அறிவி	-621
▁பிறகு	-622
தாகவும்	-623
▁தகவ	-624
ற்கொ	-625
▁காவ	-626
▁டி	-627
▁மீது	-628
▁அணி	-629
ர்க்க	-630
மார்	-631
▁பெற்ற	-632
▁தமிழ்நா	-633
▁ஷ	-634
கொ	-635
▁குற்ற	-636
▁ஆர	-637
▁கூறு	-638
▁சொல்ல	-639
▁நேர	-640
ோர்	-641
▁விசார	-642
▁உரு	-643
▁மூலம்	-644
▁வந்து	-645
▁செல்ல	-646
▁வள	-647
யில்	-648
▁இலங்க	-649
▁அரச	-650
▁பெய	-651
▁தொழ	-652
▁அவர்கள்	-653
ரவ	-654
",	-655
▁போன்ற	-656
▁எப்ப	-657
▁உலக	-658
ந்	-659
ல்ப	-660
▁மக்கள	-661
▁பணி	-662
▁தெரிய	-663
ரிச	-664
வரை	-665
க்காக	-666
▁காரண	-667
ிருக்கிறது	-668
▁அல்ல	-669
ர்வு	-670
வரும்	-671
▁என்க	-672
▁தலைவர்	-673
வ்வ	-674
ள்ளி	-675
▁இல்ல	-676
▁நாள	-677
▁மத்திய	-678
▁நிர்	-679
றும்	-680
▁சென்ற	-681
▁வய	-682
ினார்	-683
▁சமூ	-684
▁உத்த	-685
▁நடவடிக்கை	-686
▁தூ	-687
▁உள்ளிட்ட	-688
▁காங்கிரஸ்	-689
▁ஸ்ட	-690
லிய	-691
பர்	-692
▁கூட	-693
ையின்	-694
விய	-695
▁202	-696
▁வில	-697
▁அதை	-698
முறை	-699
▁வேலை	-700
க்கை	-701
▁மருத்துவ	-702
▁ஸ்	-703
ாகி	-704
▁நிறுவன	-705
▁சர்	-706
ோடு	-707
▁பார்த்த	-708
▁கட்ச	-709
▁அதிமுக	-710
கே	-711
▁அதே	-712
மதி	-713
க்கூ	-714
ிலிருந்து	-715
ரின்	-716
▁போது	-717
▁அதிகாரி	-718
▁போரா	-719
ற்காக	-720
ங்கே	-721
▁6	-722
ப்பில்	-723
ஜி	-724
▁மொ	-725
ரீ	-726
▁வெளி	-727
▁வாய்	-728
்து	-729
டும்ப	-730
▁நடத்த	-731
▁நிலை	-732
ஜ்	-733
ாளர்கள்	-734
ாளர்கள	-735
▁வார	-736
▁முய	-737
க்கள்	-738
ெரிக்க	-739
ணைய	-740
▁தேர்தல்	-741
▁மாத	-742
▁மேற்கொ	-743
ப்பத	-744
வேறு	-745
▁கவ	-746
▁பிரதமர்	-747
▁இரண்டு	-748
வில	-749
விட	-750
▁சமூக	-751
▁இந்தியா	-752
▁ஒன்ற	-753
▁வேண்ட	-754
▁பேசிய	-755
▁பெரும்	-756
▁ஏற்படுத்த	-757
▁குடும்ப	-758
▁அமெரிக்க	-759
▁எடுத்து	-760
▁முதல	-761
▁திமுக	-762
▁புதிய	-763
▁அரசியல்	-764
ென	-765
▁பல்	-766
ப்பது	-767
▁இதனால்	-768
ிருக்கிறார்	-769
▁அவரது	-770
▁ஆள	-771
▁கண்ட	-772
▁சந்தி	-773
▁வைத்து	-774
▁விழ	-775
யில	-776
▁பெரிய	-777
றிய	-778
▁பயன்ப	-779
ற்கான	-780
ாள்	-781
▁ஆய	-782
▁தய	-783
▁7	-784
டுப	-785
▁அழை	-786
▁செல்	-787
▁இருக்கிறது	-788
▁19	-789
▁மாற்ற	-790
▁செய்	-791
களும்	-792
▁தின	-793
த்தது	-794
ேயே	-795
ற்சி	-796
வரு	-797
▁எம்	-798
▁தொடங்க	-799
▁இதில்	-800
▁திரும	-801
▁வழி	-802
▁குழந்தை	-803
க்கள	-804
ச்சை	-805
▁சென்று	-806
▁பல்வேறு	-807
தான	-808
▁நினை	-809
வின்	-810
ாவை	-811
வெ	-812
▁சார்	-813
▁10	-814
▁உத்தர	-815
▁நேற்று	-816
கின்றன	-817
▁பொருள	-818
ஸ்க	-819
▁இஸ்	-820
▁நீதிமன்ற	-821
▁பக்த	-822
ிறார்கள்	-823
▁கொள்ள	-824
ியுள்ளது	-825
▁நம்ப	-826
▁நக	-827
ர்ந்து	-828
▁பெரு	-829
▁ஆய்	-830
▁நிலைய	-831
ப்பட்டுள்ள	-832
▁மீண்டும்	-833
▁வழக்கு	-834
▁எல்ல	-835
▁அண	-836
▁பேர்	-837
ட்டும்	-838
▁கலந்து	-839
▁பெண	-840
▁அதன்	-841
▁அப்போது	-842
▁பார்க்க	-843
▁கீ	-844
ந்தி	-845
▁வாழ	-846
விட்டு	-847
▁நடி	-848
▁மன	-849
▁இணை	-850
▁முதல்வர்	-851
▁பிரி	-852
▁பகுதி	-853
▁வெற்றி	-854
▁லட்ச	-855
▁அளி	-856
▁செயல	-857
▁ஆர்	-858
▁கட்டு	-859
▁தொடர்பாக	-860
▁இன்ன	-861
▁இற	-862
பார	-863
ிகள்	-864
▁கல்	-865
ஷ்ய	-866
ெட்	-867
▁நடந்த	-868
ுக்கும்	-869
▁201	-870
▁அங்கு	-871
ழுவ	-872
▁விடு	-873
▁நடைபெற்ற	-874
ரான	-875
▁அதிகரி	-876
நாய	-877
கன்	-878
▁போராட்ட	-879
▁முறை	-880
வதாக	-881
▁தீர்	-882
▁பொறு	-883
▁வழக்க	-884
▁நிர்வாக	-885
▁தேசிய	-886
▁மட்டுமே	-887
தில்	-888
ையாக	-889
▁பாதுகாப்பு	-890
▁ஈடுப	-891
்கு	-892
த்துறை	-893
▁கேள்	-894
▁வீர	-895
▁ஆம்	-896
▁இந்	-897
▁ரஷ்ய	-898
▁தெரிவித்தார்	-899
சை	-900
ப்போ	-901
ச்சு	-902
▁காண	-903
▁விசாரணை	-904
▁அடுத்த	-905
ிட்டு	-906
▁அனைத்து	-907
▁நிகழ்ச்ச	-908
▁இலங்கை	-909
▁எட	-910
▁பெற்று	-911
பர	-912
▁வாக்கு	-913
▁சிறப்பு	-914
▁அல்லது	-915
▁நடந்தது	-916
ல்கள்	-917
▁அதில்	-918
ிருந்தார்	-919
யம்	-920
ாளு	-921
டியாக	-922
▁திற	-923
▁என்பதை	-924
▁காரணமாக	-925
▁பயன்படுத்த	-926
▁இதை	-927
லோ	-928
▁மறு	-929
ஷ்ட	-930
ிருக்கும்	-931
ாளுமன்ற	-932
▁வகையில்	-933
ள்க	-934
நிலையில்	-935
▁நிய	-936
▁இருந்தது	-937
ல்க	-938
த்தம்	-939
▁செயல்ப	-940
ட்டின்	-941
▁சுவ	-942
ம்பி	-943
▁கைது	-944
▁எடப்பா	-945
▁கூறினார்	-946
▁வைத்த	-947
▁பெண்	-948
வான	-949
▁படி	-950
▁ரூப	-951
▁நிறை	-952
▁கருத்து	-953
▁என்றார்	-954
▁ஆண்ட	-955
▁அக	-956
▁ஏற்பட்ட	-957
▁முடிவு	-958
▁வருகின்றனர்	-959
▁சிறு	-960
▁இப்போது	-961
டைந்த	-962
▁பின்னர்	-963
▁குழு	-964
தே	-965
ின்றனர்	-966
▁பேச	-967
▁8	-968
ராஜ	-969
ர்களுக்கு	-970
த்துடன்	-971
▁வெளியே	-972
▁நல்ல	-973
யா	-974
▁எடுக்க	-975
ாடு	-976
மையான	-977
மீ	-978
்களில்	-979
▁``	-980
▁தனி	-981
▁சோ	-982
மது	-983
▁தொகு	-984
▁கேள்வி	-985
▁கிராம	-986
லாக	-987
சாய	-988
▁விஷ	-989
▁செலு	-990
▁ஃ	-991
▁துறை	-992
▁மிகவும்	-993
▁மது	-994
ஸ்ட்	-995
▁எடப்பாடி	-996
▁பொருளாதார	-997
▁தாக்கு	-998
டியோ	-999
நி	-1000
▁முழு	-1001
்களுக்கு	-1002
ாகு	-1003
தியாக	-1004
▁பேசி	-1005
▁புக	-1006
▁தெரிவித்த	-1007
ாமி	-1008
ையடுத்து	-1009
்ட்	-1010
வதற்கு	-1011
▁மாதம்	-1012
ற்றை	-1013
ணுவ	-1014
ற்றிய	-1015
▁கடை	-1016
▁டெல்ல	-1017
ின்றன	-1018
▁சிவ	-1019
▁ஆட்ச	-1020
▁9	-1021
▁விரு	-1022
▁அலுவ	-1023
▁வல	-1024
மையாக	-1025
ங்களின்	-1026
▁விமான	-1027
▁முடியும்	-1028
▁விதி	-1029
▁எப்படி	-1030
னாதி	-1031
000	-1032
ியர்	-1033
▁குறித்த	-1034
▁உருவா	-1035
▁காவல	-1036
▁அனுமதி	-1037
ீடு	-1038
பாடு	-1039
▁அதற்கு	-1040
ினர்	-1041
படி	-1042
றையில்	-1043
▁கொரோ	-1044
▁ஜனாதி	-1045
▁நாம்	-1046
▁செய்யப்பட்ட	-1047
லுக்கு	-1048
▁ஆளு	-1049
▁முன்னாள்	-1050
ளவு	-1051
ப்பின	-1052
ிலேயே	-1053
▁தவ	-1054
ையான	-1055
▁வச	-1056
▁சிக	-1057
▁பிடி	-1058
▁பற்றி	-1059
▁வாய்ப்பு	-1060
னித	-1061
டக	-1062
ட்க	-1063
ர்களை	-1064
சிக	-1065
▁மருத்துவம	-1066
▁பார்	-1067
நீ	-1068
ாலின்	-1069
▁தேவ	-1070
▁தமிழ்நாடு	-1071
▁விவசாய	-1072
▁கோடி	-1073
▁என்கிறார்	-1074
▁தங்க	-1075
ப்பாக	-1076
▁பதிவு	-1077
எல்	-1078
சிர	-1079
▁இதற்கு	-1080
▁முக	-1081
▁தலைமை	-1082
▁மதி	-1083
▁ஜெய	-1084
ருக்க	-1085
▁முடியாது	-1086
பை	-1087
▁உற	-1088
▁டெ	-1089
▁மின்	-1090
▁சிக்க	-1091
▁விவகார	-1092
▁தொழில்	-1093
▁சத	-1094
ண்ணி	-1095
நர்	-1096
ிலான	-1097
▁அங்க	-1098
▁பழனி	-1099
▁இந்நிலையில்	-1100
சே	-1101
▁நான	-1102
▁போட்ட	-1103
▁மர	-1104
▁நாங்கள்	-1105
▁பரி	-1106
▁கோவில	-1107
▁போட்டி	-1108
▁உயர்	-1109
▁தகவல்	-1110
ிருப்ப	-1111
▁இஸ்ரே	-1112
▁விட	-1113
▁உரி	-1114
▁விமர்	-1115
▁முழுவ	-1116
▁நடந்து	-1117
கிறார்கள்	-1118
சாமி	-1119
▁பூஜ	-1120
ர்ச்ச	-1121
▁எதிராக	-1122
▁ராம	-1123
▁ஒன்று	-1124
▁ஒருவர்	-1125
ிருந்தது	-1126
▁மி	-1127
▁வாக	-1128
▁உணவு	-1129
▁தேர்தலில்	-1130
வன்	-1131
▁தாக்க	-1132
▁கொடுத்த	-1133
ண்ட்	-1134
ளம்	-1135
▁தீவிர	-1136
▁முன்பு	-1137
சன	-1138
வர்களுக்கு	-1139
ாட்டு	-1140
▁பதவி	-1141
▁ஒவ்வ	-1142
▁வாங்க	-1143
▁உடன	-1144
▁குறிப்பிட	-1145
தியை	-1146
▁மணிக்கு	-1147
ப்பெ	-1148
▁எனவே	-1149
▁பக்தர்கள்	-1150
▁கேட்ட	-1151
ர்ச்சி	-1152
▁வீடியோ	-1153
▁அவரை	-1154
▁கொரோனா	-1155
▁பகுதியில்	-1156
கோ	-1157
▁ஸ்ரீ	-1158
பிஎஸ்	-1159
நிலை	-1160
ப்ட	-1161
▁நடத்தி	-1162
▁காலை	-1163
▁சிகி	-1164
▁நிறு	-1165
▁பள்ளி	-1166
▁பிரச்	-1167
▁ஆதர	-1168
▁எதிர்க	-1169
▁கன	-1170
▁வீடு	-1171
மையில்	-1172
▁மெ	-1173
▁மூல	-1174
▁சார்ப	-1175
▁ஏற்க	-1176
▁அண்ண	-1177
ியுள்ளார்	-1178
ில்லை	-1179
▁ஆய்வு	-1180
▁விஜ	-1181
▁மூன்று	-1182
▁ராணுவ	-1183
▁தன்	-1184
ர்களின்	-1185
சார்	-1186
▁ஜன	-1187
க்கப்பட்டது	-1188
▁நிகழ்	-1189
▁பாட	-1190
களாக	-1191
▁அவருக்கு	-1192
▁நிதி	-1193
த்தால்	-1194
▁அதிகாரிகள்	-1195
த்துள்ளது	-1196
ஸ்தான்	-1197
▁நு	-1198
▁முயற்சி	-1199
ஸ்தான	-1200
▁அதிகார	-1201
க்கோ	-1202
▁இரண்ட	-1203
▁தொழில	-1204
▁காரணம்	-1205
▁ட்	-1206
ர்ம	-1207
ர்த்து	-1208
▁கோவில்	-1209
செ	-1210
த்திற்க	-1211
▁காவல்து	-1212
▁ஆட்சி	-1213
▁உள்ளன	-1214
▁வேறு	-1215
▁யா	-1216
▁மட்டும்	-1217
▁ஒரே	-1218
▁கூறிய	-1219
னின்	-1220
▁சங்க	-1221
னுக்கு	-1222
▁12	-1223
▁ஆயிர	-1224
▁குறிப்பிட்ட	-1225
▁சொன்ன	-1226
▁வேண்டிய	-1227
▁தெரிவிக்க	-1228
ைகள்	-1229
ஷே	-1230
▁செல	-1231
▁தமிழ	-1232
▁தடை	-1233
▁ஜூ	-1234
ியுள்ள	-1235
▁ஒவ்வொரு	-1236
ந்த்	-1237
▁உச்ச	-1238
▁கடி	-1239
▁யார	-1240
▁ஜனாதிபதி	-1241
▁நடக்க	-1242
▁சுற்று	-1243
பே	-1244
▁விளையா	-1245
▁உண்	-1246
▁கடு	-1247
▁மோடி	-1248
ணா	-1249
ட்டம்	-1250
▁இதன்	-1251
▁கொடு	-1252
▁இன்னும்	-1253
▁எனக்கு	-1254
▁அபி	-1255
ன்க	-1256
வதை	-1257
களையும்	-1258
▁போட்டிய	-1259
▁ராகு	-1260
▁மனை	-1261
ரிடம்	-1262
▁புது	-1263
▁கல்ல	-1264
▁வட	-1265
டா	-1266
த்தான்	-1267
▁கொள்க	-1268
விழ	-1269
த்தையும்	-1270
▁சூழ	-1271
ியும்	-1272
ண்டி	-1273
▁சுமார்	-1274
▁ஊழ	-1275
▁முழுவதும்	-1276
▁செய்தி	-1277
▁சரிய	-1278
த்தா	-1279
ாளி	-1280
▁ஜெ	-1281
ிறேன்	-1282
▁இந்தப்	-1283
▁விட்டு	-1284
ுடைய	-1285
▁போலீஸ	-1286
ப்புகள்	-1287
▁உடல்	-1288
க்கப்பட்டு	-1289
னில்	-1290
ம்மன்	-1291
ோக	-1292
▁ரன	-1293
▁குடிய	-1294
▁சாத	-1295
னும்	-1296
ளா	-1297
▁சம்பவம்	-1298
▁கோயில	-1299
▁பெற	-1300
▁அரசா	-1301
▁துணை	-1302
வார	-1303
▁15	-1304
ெல்லாம்	-1305
▁இடங்களில்	-1306
▁கர்	-1307
லைக்க	-1308
▁தவிர	-1309
▁நிர	-1310
வார்	-1311
▁இப்படி	-1312
▁வயது	-1313
▁இந்து	-1314
▁ஒப்ப	-1315
▁சம்பவ	-1316
▁நேரத்தில்	-1317
▁உதவி	-1318
க்கொண்ட	-1319
20	-1320
▁கல்வி	-1321
▁கள	-1322
▁சிகிச்சை	-1323
▁கூட்டணி	-1324
ீர	-1325
▁உயிரி	-1326
▁விழா	-1327
▁பால	-1328
▁அலுவலக	-1329
▁ரூபாய்	-1330
,000	-1331
ஆர்	-1332
▁ஏன்	-1333
▁தொடர்பான	-1334
▁குரு	-1335
▁செய்யும்	-1336
▁உறுதி	-1337
▁மோச	-1338
மைச்ச	-1339
▁நாடாளுமன்ற	-1340
▁டெல்லி	-1341
பால	-1342
▁தேர்வு	-1343
▁ஸ்டாலின்	-1344
▁மனித	-1345
▁இழ	-1346
▁கொலை	-1347
▁இவர்	-1348
▁தன்ன	-1349
▁இங்கு	-1350
▁உயிரிழ	-1351
▁பங்கே	-1352
ுக்கான	-1353
▁லட்சம்	-1354
லின்	-1355
▁நாள்	-1356
ப்பிர	-1357
ந்துள்ளது	-1358
▁கண்டு	-1359
▁ஆலோ	-1360
▁பேர	-1361
▁இறு	-1362
▁கீழ்	-1363
ரிக்கை	-1364
▁எதிர்பார	-1365
ருந்து	-1366
an	-1367
வராக	-1368
▁தங்கள்	-1369
▁நம்	-1370
பத்தில்	-1371
▁இளை	-1372
▁கோயில்	-1373
நிதி	-1374
▁11	-1375
▁மக	-1376
▁தேவை	-1377
▁பார்த்து	-1378
▁இடையே	-1379
▁ரயில்	-1380
▁மத	-1381
▁ஆணைய	-1382
த்தக்க	-1383
ம்பர்	-1384
▁வீட்டில்	-1385
▁இளைஞ	-1386
லைய	-1387
ோதனை	-1388
விட்டது	-1389
▁இதையடுத்து	-1390
▁மேற்ப	-1391
ருக்கும்	-1392
▁அடிப்பட	-1393
ஸ்வர	-1394
▁அரசாங்க	-1395
▁வாகன	-1396
▁பாகி	-1397
▁சுவாமி	-1398
ைக்கு	-1399
க்கெ	-1400
ம்பு	-1401
▁கேட்டு	-1402
செய	-1403
த்தக	-1404
▁கொடுக்க	-1405
ட்டுக்கு	-1406
▁அடை	-1407
▁வருகிறார்	-1408
▁தடு	-1409
ிக்	-1410
ப்பின்	-1411
ினும்	-1412
க்குறி	-1413
▁மேற்கொள்ள	-1414
▁கூறப்படுகிறது	-1415
மூ	-1416
கொண்ட	-1417
▁மாவட்டம்	-1418
▁பிரதேச	-1419
▁வங்க	-1420
▁காந்தி	-1421
▁அளிக்க	-1422
▁எண்ண	-1423
மோ	-1424
த்திலும்	-1425
▁உறுப்பின	-1426
்கா	-1427
ட்டா	-1428
▁வெள்ள	-1429
சன்	-1430
சம்	-1431
ோதும்	-1432
▁எண்ணி	-1433
ிறோம்	-1434
▁இணைய	-1435
▁விரை	-1436
▁விச	-1437
்டர்	-1438
▁மைய	-1439
ேற்ற	-1440
▁மேல்	-1441
த்தனர்	-1442
▁பெண்கள்	-1443
ரல்	-1444
வார்கள்	-1445
த்தின	-1446
வதேச	-1447
▁பொருட	-1448
▁எதிர்க்க	-1449
▁விஷய	-1450
தற்கு	-1451
▁வேட்ப	-1452
▁பயி	-1453
▁பந்து	-1454
▁ஆன	-1455
நாட்டு	-1456
▁துவ	-1457
▁டிர	-1458
▁ஓபிஎஸ்	-1459
▁சார்பில்	-1460
▁வாழ்க்க	-1461
▁சர்வதேச	-1462
▁அம்	-1463
▁வாழ்	-1464
▁நூ	-1465
▁பிரச்னை	-1466
ழமை	-1467
▁கட்சியின்	-1468
▁தொடர்பு	-1469
▁மட்டும	-1470
நக	-1471
ியார்	-1472
▁ஆட்ட	-1473
▁முறைய	-1474
மையை	-1475
மொ	-1476
▁உட்ப	-1477
ங்கும்	-1478
▁வைக்க	-1479
ம்பெ	-1480
▁புற	-1481
▁வந்தது	-1482
ஞ்சா	-1483
றுத்த	-1484
▁நடைபெற்றது	-1485
▁இந்தியாவில்	-1486
▁ஜோ	-1487
▁அளவில்	-1488
▁வேண்டு	-1489
ானது	-1490
▁சொந்த	-1491
▁கொடுத்து	-1492
ங்களும்	-1493
▁ஏற்பட்டு	-1494
▁போலீசார்	-1495
▁கெ	-1496
▁இரவு	-1497
▁அதன்ப	-1498
▁அதேபோ	-1499
▁யோ	-1500
ற்றில்	-1501
ங்கிய	-1502
▁கிடைக்க	-1503
ாக்	-1504
க்கில்	-1505
▁அரசின்	-1506
▁அழைத்து	-1507
▁அடைய	-1508
▁பிபி	-1509
▁ஏற்று	-1510
▁விட்ட	-1511
க்கத்தில்	-1512
▁சரி	-1513
னையில்	-1514
ினி	-1515
▁சக	-1516
▁படை	-1517
ப்பூர்	-1518
ிடையே	-1519
▁திரை	-1520
மெ	-1521
வர்களை	-1522
▁கல்லூ	-1523
▁நீங்கள்	-1524
▁எது	-1525
▁தரு	-1526
▁இன்	-1527
▁அருகே	-1528
க்கார	-1529
▁போர்	-1530
▁சீன	-1531
▁ஒது	-1532
▁கூறுகிறார்	-1533
தலை	-1534
▁வரலா	-1535
▁மண்ட	-1536
.1	-1537
ுள்ள	-1538
▁பரபர	-1539
▁இதுவரை	-1540
க்களை	-1541
▁மாலை	-1542
வியை	-1543
▁நம்பிக்க	-1544
வுடன்	-1545
ணிய	-1546
க்ரை	-1547
▁திட	-1548
▁செயல்	-1549
ண்ப	-1550
▁பயணி	-1551
▁பீ	-1552
ப்பூ	-1553
ும்போது	-1554
ரன்	-1555
▁விலை	-1556
in	-1557
புரம்	-1558
▁தீர்மான	-1559
ஃப்	-1560
▁இதனை	-1561
▁பல்க	-1562
▁வகு	-1563
ிக்கொ	-1564
▁காவல்	-1565
▁மகி	-1566
▁அனுப்ப	-1567
▁பணம்	-1568
▁நெருக்க	-1569
▁மை	-1570
▁திரும்ப	-1571
மார	-1572
▁எனவும்	-1573
சனை	-1574
▁அதிபர்	-1575
வின	-1576
த்தும்	-1577
நாத	-1578
▁ஆப	-1579
ராட்சி	-1580
▁காய	-1581
▁சென்ன	-1582
ுத	-1583
▁பொதும	-1584
த்துக்	-1585
குறி	-1586
▁சிங்	-1587
வாதி	-1588
▁வேக	-1589
வாறு	-1590
▁பிரச்ச	-1591
வரின்	-1592
▁சமீ	-1593
▁200	-1594
▁ரோ	-1595
லே	-1596
▁என்றால்	-1597
▁செயலாளர்	-1598
ற்ச	-1599
▁பை	-1600
▁குடி	-1601
▁நப	-1602
▁கிடைக்கும்	-1603
ள்ளன	-1604
▁சின்	-1605
▁அதனால்	-1606
▁உக்ரை	-1607
▁மழை	-1608
ஷ்ண	-1609
▁ஏற்பாடு	-1610
்த்து	-1611
▁உங்கள்	-1612
ல்களை	-1613
▁தயார	-1614
▁புகார்	-1615
▁உள்ளனர்	-1616
▁தொடங்கி	-1617
▁முதலமைச்ச	-1618
▁எனக்	-1619
▁யார்	-1620
ஷன்	-1621
▁குறிப்பி	-1622
க்கொள்ள	-1623
▁இல்லாத	-1624
▁நிறைவே	-1625
▁ரஷ்யா	-1626
▁நீதிபதி	-1627
டர்	-1628
▁கிள	-1629
▁பங்கு	-1630
வர்களின்	-1631
ந்திய	-1632
ட்டர்	-1633
▁நாட்டின்	-1634
ப்பாளர்	-1635
▁அப்படி	-1636
▁நிகழ்ச்சி	-1637
▁18	-1638
லர்	-1639
ங்கா	-1640
▁கண்ண	-1641
▁ஆளுநர்	-1642
தள	-1643
▁யு	-1644
ூட	-1645
▁போலீஸார்	-1646
▁விழு	-1647
▁மார	-1648
வருக்கு	-1649
▁செய்தனர்	-1650
▁எடு	-1651
▁பாதிப்பு	-1652
▁நாய	-1653
▁எடுத்த	-1654
▁பரிச	-1655
▁ரீ	-1656
்களின்	-1657
▁அமைப்பு	-1658
▁கைய	-1659
▁வைர	-1660
▁முன்ப	-1661
பிர	-1662
ர்த்தி	-1663
▁திட்டம்	-1664
ியல்	-1665
க்கிர	-1666
▁இயக்கு	-1667
க்ர	-1668
▁உரிமை	-1669
▁இந்தக்	-1670
▁அறிக்க	-1671
▁திருமண	-1672
▁குற்றம்	-1673
▁தள	-1674
த்தைச்	-1675
▁பத்திர	-1676
▁தோல்	-1677
வதற்கான	-1678
ப்த	-1679
▁அதாவது	-1680
ரையா	-1681
▁ஊடக	-1682
▁மேற்பட்ட	-1683
வுகள்	-1684
▁ஆகியோர்	-1685
▁வருட	-1686
க்தி	-1687
▁தொகுதி	-1688
▁வலியு	-1689
நே	-1690
மாறு	-1691
ப்பே	-1692
▁உள்	-1693
▁ஆசிர	-1694
▁விற்ப	-1695
▁சந்திர	-1696
ானி	-1697
ந்தார்	-1698
▁குறிப்பிடத்தக்க	-1699
▁ரி	-1700
▁நீர்	-1701
▁சுத	-1702
நு	-1703
▁கலை	-1704
க்கூடிய	-1705
▁இஸ்ரேல்	-1706
▁இடை	-1707
▁நேரம்	-1708
▁நல	-1709
▁அட	-1710
▁மனைவி	-1711
▁இருக்கிறார்	-1712
▁நகர	-1713
▁வருகின்றன	-1714
த்துள்ளார்	-1715
ிர்	-1716
▁ரசிக	-1717
ார்த்த	-1718
லியல்	-1719
▁மூத்த	-1720
er	-1721
ிலோ	-1722
ியான	-1723
▁கேர	-1724
▁விப	-1725
▁நீண்ட	-1726
▁திருமணம்	-1727
▁யூ	-1728
ன்னீர்	-1729
நீதி	-1730
▁ஏற்படும்	-1731
▁சர	-1732
களுடன்	-1733
▁கண்கா	-1734
▁இள	-1735
▁ஈடுபட்ட	-1736
களைப்	-1737
த்துவ	-1738
▁ஆதரவ	-1739
▁அதிகமாக	-1740
ாட்ட	-1741
▁கொள்	-1742
▁வங்கி	-1743
ப்பினர்	-1744
ிரே	-1745
ாளராக	-1746
ில்தான்	-1747
▁இடத்தில்	-1748
க்கூட	-1749
▁பேச்ச	-1750
▁என்பதால்	-1751
த்தீ	-1752
▁சுக	-1753
▁பெறு	-1754
லைக்கழக	-1755
தாகக்	-1756
த்தொ	-1757
▁சேவை	-1758
தேச	-1759
▁வரவே	-1760
▁செய்க	-1761
▁30	-1762
▁பிரப	-1763
▁14	-1764
▁நடைபெறும்	-1765
▁இதே	-1766
▁கவன	-1767
▁குற்றச்ச	-1768
▁பூஜை	-1769
▁திட்டமி	-1770
க்குப்	-1771
▁அடிப்படையில்	-1772
ப்பான	-1773
▁பட்டிய	-1774
▁எதிர்ப்பு	-1775
▁பல்கலைக்கழக	-1776
ேஷ்	-1777
▁கேட்க	-1778
மைப்பு	-1779
▁பழனிசாமி	-1780
ாங்க	-1781
▁,	-1782
▁அன்று	-1783
வோ	-1784
த்தினர்	-1785
ப்பாடு	-1786
ினால்	-1787
▁அதனை	-1788
த்தியில்	-1789
மானது	-1790
▁எதிரான	-1791
▁காட்சி	-1792
த்தைப்	-1793
ாலி	-1794
▁இந்தத்	-1795
▁நடத்திய	-1796
▁மறை	-1797
▁பாலியல்	-1798
ாமலை	-1799
▁குறிப்பாக	-1800
▁இந்தியாவின்	-1801
▁பட்ட	-1802
▁வழக்கில்	-1803
▁செய்திய	-1804
வினர்	-1805
க்குள்	-1806
வாத	-1807
ன்னி	-1808
▁ராகுல்	-1809
▁அவர்களின்	-1810
ங்கில	-1811
▁தண்ட	-1812
நாடு	-1813
▁வசி	-1814
▁போல்	-1815
▁திருவிழ	-1816
▁வெளியிட்டு	-1817
்டு	-1818
▁கர்நா	-1819
▁செல்லும்	-1820
த்திட்ட	-1821
ில்லிய	-1822
▁மருத்துவமனை	-1823
▁அந்தப்	-1824
▁தனியார்	-1825
ப்பட்டுள்ளன	-1826
▁எரி	-1827
▁நோய	-1828
▁திரைப்பட	-1829
க்கப்படும்	-1830
க்குழு	-1831
▁வரி	-1832
▁ஆரம்ப	-1833
▁நிறுவனம்	-1834
▁ஜி	-1835
▁அறிக்கை	-1836
at	-1837
ன்றி	-1838
▁போக	-1839
▁தமிழ்நாட்டில்	-1840
30	-1841
ரசு	-1842
▁மனு	-1843
கிறோம்	-1844
▁எஸ்	-1845
த்தைக்	-1846
▁ராசி	-1847
தியின்	-1848
லாம	-1849
▁இடம்	-1850
▁இன்ற	-1851
▁மேம்ப	-1852
▁எச்ச	-1853
▁சிலர்	-1854
ிருந்தனர்	-1855
▁காலத்தில்	-1856
▁பிரதி	-1857
▁பகுதிகளில்	-1858
ும்பு	-1859
▁ஆரம்பி	-1860
▁உற்ப	-1861
▁மாணவி	-1862
▁அதிகம்	-1863
விட்டார்	-1864
▁மாணவர்கள்	-1865
விடு	-1866
▁அருக	-1867
▁பயணம்	-1868
▁பணிய	-1869
லையில்	-1870
▁அழு	-1871
ந்தில்	-1872
தோ	-1873
▁மாற	-1874
▁மதுரை	-1875
வதால்	-1876
ப்படி	-1877
ுக்காக	-1878
▁அமெரிக்கா	-1879
ாவும்	-1880
▁பள்ள	-1881
வதற்காக	-1882
▁ஆன்	-1883
▁வெளியிட்ட	-1884
வோம்	-1885
ஜா	-1886
▁கோரிக்கை	-1887
▁பின்ன	-1888
▁பிறந்த	-1889
▁ஆதி	-1890
▁வித	-1891
வரி	-1892
க்ஸ்	-1893
ங்கிணை	-1894
▁வெளியாக	-1895
▁இணைந்து	-1896
ப்படவில்லை	-1897
▁கூடு	-1898
▁என்னை	-1899
ிருஷ்ண	-1900
▁இருந்தாலும்	-1901
▁வருமான	-1902
▁50	-1903
ியர்கள்	-1904
▁அவர்களுக்கு	-1905
▁விரும்ப	-1906
▁ஆண்டுகளுக்கு	-1907
ங்களாக	-1908
▁அவசிய	-1909
▁ஒருங்கிணை	-1910
▁போக்கு	-1911
▁ரெ	-1912
▁வன்	-1913
▁தாக்குதல்	-1914
▁நான்கு	-1915
▁செலுத்த	-1916
▁பயண	-1917
▁நீதிமன்றம்	-1918
▁13	-1919
▁பதில	-1920
▁நடைபெற	-1921
▁அச	-1922
▁வலை	-1923
ீர்கள்	-1924
▁நடைபெற்று	-1925
▁கூடாது	-1926
ராள	-1927
▁அளித்த	-1928
▁சுகாதார	-1929
▁எதிர்க்கட்சி	-1930
▁மார்	-1931
▁பற்றிய	-1932
▁போலீஸ்	-1933
▁அவ்	-1934
▁கடும்	-1935
▁தமிழகத்தில்	-1936
▁16	-1937
நுட்ப	-1938
தன்	-1939
ாயம்	-1940
▁அடையாள	-1941
▁செய்தார்	-1942
நாயக	-1943
ப்பதி	-1944
ாரம்	-1945
▁சொல்	-1946
▁25	-1947
▁சட்டமன்ற	-1948
▁விரி	-1949
▁தயாரி	-1950
▁தேர்	-1951
சில	-1952
on	-1953
வாய்	-1954
ிகை	-1955
....	-1956
களுக்கும்	-1957
▁பெயர்	-1958
ட்டிற்கு	-1959
▁இல்லாமல்	-1960
▁செய்யப்பட்டு	-1961
▁நாடுகள்	-1962
▁சதவீ	-1963
▁கோவிலில்	-1964
▁அற	-1965
ராஜ்	-1966
▁உட்பட	-1967
க்குறிப்பு	-1968
▁கார்	-1969
▁பலர்	-1970
நீதிமன்ற	-1971
குதி	-1972
▁தண்ண	-1973
னிய	-1974
களிலும்	-1975
▁சுதந்திர	-1976
▁எங்கள்	-1977
▁ஹி	-1978
▁ஆறு	-1979
▁கணி	-1980
ள்ளதாக	-1981
▁இடம்பெ	-1982
▁போட்டு	-1983
▁மோத	-1984
ாண	-1985
▁டீ	-1986
▁இனி	-1987
▁இவ்	-1988
ப்படை	-1989
▁நகர்	-1990
▁விசாரி	-1991
▁கூறுகையில்	-1992
நோ	-1993
கிறேன்	-1994
▁பணியா	-1995
▁நாட்டில்	-1996
க்கண	-1997
ளிக்க	-1998
▁தொலை	-1999
▁இறுதி	-2000
ங்களிலும்	-2001
க்கே	-2002
▁தலைமைய	-2003
டியே	-2004
ாளர்களை	-2005
▁மக்களுக்கு	-2006
▁படக்குறிப்பு	-2007
▁உள்ளார்	-2008
ஷி	-2009
▁கல்லூரி	-2010
ஹி	-2011
செல்	-2012
▁ஆதரவு	-2013
▁பிபிசி	-2014
▁கண்காணி	-2015
▁புரி	-2016
ன்மை	-2017
ருடன்	-2018
ற்கும்	-2019
சியில்	-2020
▁எல்லாம்	-2021
மான்	-2022
▁2022	-2023
▁ஏராள	-2024
டியில்	-2025
▁அலங்க	-2026
▁கண்டுபி	-2027
என்	-2028
▁17	-2029
▁அனைவரும்	-2030
▁உடனடியாக	-2031
▁மகிழ்ச்ச	-2032
▁சந்தித்து	-2033
டல்	-2034
நாள்	-2035
▁இதன	-2036
வ்வளவு	-2037
.5	-2038
சூ	-2039
▁சோதனை	-2040
▁பதில்	-2041
▁கூட்டம்	-2042
▁இருவரும்	-2043
▁நடக்கும்	-2044
▁காட்ட	-2045
▁வெற்ற	-2046
▁கடன்	-2047
▁என்பத	-2048
▁குழுவ	-2049
▁முடியாத	-2050
வால்	-2051
க்கல்	-2052
▁இந்தச்	-2053
▁எதிர்பார்க்க	-2054
க்கப்பட்டுள்ளது	-2055
▁வடி	-2056
களைக்	-2057
▁மும்ப	-2058
▁மாதி	-2059
▁கொண்டா	-2060
▁இருந்தார்	-2061
▁போராட்டம்	-2062
▁போன	-2063
▁வான	-2064
▁தாக்கல்	-2065
பம்	-2066
▁முதலில்	-2067
▁காவல்துறை	-2068
▁புதி	-2069
▁சட்டம்	-2070
வற்றை	-2071
▁பலரும்	-2072
▁வெடி	-2073
▁ஆண்டுகளாக	-2074
▁பேசு	-2075
ணியில்	-2076
▁புகை	-2077
▁ஆலோசனை	-2078
▁தொழில்நுட்ப	-2079
▁தவற	-2080
▁இருப்பதாக	-2081
▁இருப்பினும்	-2082
▁மீதான	-2083
▁சிர	-2084
▁எதிர்கொ	-2085
▁பாதிக்கப்பட்ட	-2086
ar	-2087
ப்புற	-2088
▁தலைமையில்	-2089
ெய்	-2090
▁கூடிய	-2091
▁எண்ணிக்கை	-2092
▁அவரின்	-2093
▁குறைந்த	-2094
▁சை	-2095
ழ்த்த	-2096
▁விசாரண	-2097
ையிலான	-2098
விரு	-2099
▁சின்ன	-2100
ரத்தில்	-2101
▁சீனா	-2102
▁தாய்	-2103
னைய	-2104
ஷேகம்	-2105
▁பரவ	-2106
▁மேற்கு	-2107
▁வசதி	-2108
▁ஒப்பந்த	-2109
▁விமர்சி	-2110
வைய	-2111
▁அதிகரித்து	-2112
▁தெரிவித்துள்ளது	-2113
▁திக	-2114
▁பிரிவு	-2115
நகர்	-2116
▁பயிற்சி	-2117
▁தலைவர்கள்	-2118
▁தென்	-2119
▁மாட்ட	-2120
▁மூன்ற	-2121
▁அடிக்க	-2122
▁கிழ	-2123
னவே	-2124
▁சொல்லி	-2125
ோதைய	-2126
ூரில்	-2127
▁படம்	-2128
▁ஆண்டில்	-2129
▁நாக	-2130
முறைய	-2131
ாட்சி	-2132
▁விஜய	-2133
ங்கை	-2134
▁குறிப்பிட்டு	-2135
ப்பட்டன	-2136
▁அளவுக்கு	-2137
▁எனது	-2138
▁தரிச	-2139
ியுடன்	-2140
▁அம்ப	-2141
ர்களும்	-2142
▁கால்	-2143
▁வெளியிட	-2144
ில்லியன்	-2145
ப்பும்	-2146
▁அறிவு	-2147
▁ஏராளமான	-2148
▁முன்னிட்டு	-2149
▁வக	-2150
▁ஆவ	-2151
▁இதுபோ	-2152
▁அவர்களை	-2153
▁முக்கியமான	-2154
▁முதலமைச்சர்	-2155
டியை	-2156
▁ஆயிரம்	-2157
ரேந்திர	-2158
ஞ்சி	-2159
வுன்	-2160
▁வந்தார்	-2161
ப்படுத்து	-2162
ஷா	-2163
▁கழி	-2164
மாள்	-2165
ிழமை	-2166
ண்டிய	-2167
▁அக்க	-2168
பக	-2169
▁கிலோ	-2170
▁கூறியுள்ளார்	-2171
▁பாராளுமன்ற	-2172
▁தங்கள	-2173
▁நியமி	-2174
பட்ட	-2175
றையை	-2176
▁நண்ப	-2177
ட்டத்தில்	-2178
▁டாக	-2179
பார்	-2180
ஞர்	-2181
▁மேல	-2182
குறித்து	-2183
ரங்க	-2184
▁மத்தியில்	-2185
ரக	-2186
ஜரா	-2187
▁24	-2188
▁கிரிக்க	-2189
▁மாறி	-2190
▁மக்களின்	-2191
▁சென்னையில்	-2192
▁நிறுத்த	-2193
வித	-2194
▁ஏற்பட்டது	-2195
▁அனுப	-2196
▁மாவட்டத்தில்	-2197
▁சாலை	-2198
▁தகவல்கள்	-2199
▁அறிமுக	-2200
▁ஹெ	-2201
▁கடுமையாக	-2202
ன்னீர்செல்	-2203
தியான	-2204
▁தந்த	-2205
▁பாகிஸ்தான்	-2206
▁கூட்டத்தில்	-2207
நாயகர்	-2208
▁குற்றச்சாட்டு	-2209
▁ஆராய	-2210
▁சந்தே	-2211
ாச	-2212
▁அணு	-2213
),	-2214
ன்ஸ்	-2215
ற்றம்	-2216
▁குஜரா	-2217
▁ஏற்கனவே	-2218
▁அவை	-2219
▁பிரதம	-2220
▁தன்னுடைய	-2221
ன்றால்	-2222
▁மொத்த	-2223
த்ய	-2224
▁ஓய்	-2225
னே	-2226
▁நவ	-2227
ண்டை	-2228
▁தரப்பு	-2229
▁விற்பனை	-2230
▁ஆண்டுகள்	-2231
மணி	-2232
ிறு	-2233
▁கர	-2234
▁மாநக	-2235
விடம்	-2236
ிலுள்ள	-2237
▁லா	-2238
▁சிறுவ	-2239
▁கத	-2240
ங்களையும்	-2241
▁உற்ச	-2242
ியுள்ளனர்	-2243
▁ஒப்பு	-2244
▁மருத்துவமனையில்	-2245
எம்	-2246
▁கோவை	-2247
வதில்	-2248
▁மகன்	-2249
en	-2250
▁ஷா	-2251
▁நாளை	-2252
ெடு	-2253
ர்ப்ப	-2254
▁தேடி	-2255
▁நீதிமன்றத்தில்	-2256
ன்பு	-2257
▁பறி	-2258
லூர்	-2259
▁சமய	-2260
ற்றா	-2261
▁ஞ	-2262
களால்	-2263
▁மாற்று	-2264
ிலை	-2265
▁மாநிலம்	-2266
▁விளை	-2267
▁ப்	-2268
▁ஊர்	-2269
▁பக	-2270
▁இருப்பது	-2271
▁எதுவும்	-2272
▁தெளி	-2273
▁நரேந்திர	-2274
வதாகவும்	-2275
பட்ச	-2276
▁கவனம்	-2277
▁முறையாக	-2278
▁எழுந்த	-2279
▁முறையில்	-2280
மடைந்த	-2281
▁திருவ	-2282
▁பால்	-2283
▁திடீர	-2284
வருக்கும்	-2285
or	-2286
சிங்க	-2287
டைந்து	-2288
ப்பதற்கு	-2289
க்கால	-2290
விடும்	-2291
▁முன்வை	-2292
▁கடைசி	-2293
ும	-2294
▁கோயிலில்	-2295
.,	-2296
▁உக்ரைன்	-2297
▁கும்ப	-2298
▁வன	-2299
▁தாய	-2300
ஸ்திரே	-2301
▁தான	-2302
▁விருது	-2303
▁தாக்குத	-2304
▁பகி	-2305
▁ஸ்க	-2306
▁சகோத	-2307
▁ரன்கள்	-2308
▁மிர	-2309
▁அண்ணாமலை	-2310
▁போக்குவர	-2311
▁S	-2312
ாரா	-2313
▁இருந்தால்	-2314
▁100	-2315
▁டா	-2316
நாத்	-2317
▁கழக	-2318
ன்கள்	-2319
▁நிதிய	-2320
▁தேவையான	-2321
▁அப	-2322
▁முரு	-2323
க்கூடாது	-2324
▁விவகாரம்	-2325
▁வாங்கி	-2326
▁ஆகியோ	-2327
▁இதுகுறித்து	-2328
வால	-2329
▁பகவ	-2330
▁தொண்ட	-2331
▁A	-2332
▁காலம்	-2333
al	-2334
▁மிகப்பெ	-2335
ியம்	-2336
▁அனுப்பி	-2337
▁புர	-2338
ரமாக	-2339
▁பஞ்சா	-2340
▁ஈடுபட்டு	-2341
▁கைப்ப	-2342
த்தனை	-2343
▁வேண்டாம்	-2344
வல	-2345
த்திரை	-2346
▁குழந்தைகள்	-2347
▁முடியவில்லை	-2348
வச	-2349
றவு	-2350
ிகா	-2351
▁ஹோ	-2352
▁ஐந்து	-2353
.2	-2354
▁உங்களுக்கு	-2355
்களும்	-2356
▁மற்றொரு	-2357
▁சமீபத்தில்	-2358
▁நமது	-2359
▁விரைவில்	-2360
▁லி	-2361
▁கள்ள	-2362
▁நாட்கள்	-2363
ிட்	-2364
▁காட்டு	-2365
▁அதிர்ச்ச	-2366
த்தே	-2367
▁பிரபல	-2368
ச்சே	-2369
வந்த	-2370
▁மகா	-2371
▁முஸ்	-2372
பட	-2373
புண	-2374
தாவது	-2375
▁சட்டச	-2376
த்தகைய	-2377
▁தந்தை	-2378
க்கணக்கான	-2379
▁தை	-2380
கொள்ள	-2381
க்கொண்டு	-2382
▁காத்த	-2383
▁பொதுமக்கள்	-2384
ப்பிய	-2385
▁சூரிய	-2386
சர்	-2387
▁வகை	-2388
▁பக்க	-2389
▁தன்னை	-2390
தார	-2391
▁திருக்க	-2392
▁பிரிட்ட	-2393
▁இரண்டாவது	-2394
▁மேற்கொண்ட	-2395
▁உயிர	-2396
▁பெரும்ப	-2397
ால்தான்	-2398
▁அம்மன்	-2399
▁குறிப்பிட்டார்	-2400
▁கான்	-2401
▁சிறப்பாக	-2402
▁போட்டியில்	-2403
▁கப்ப	-2404
னோ	-2405
யூ	-2406
ிரா	-2407
▁சசிக	-2408
▁கர்நாடக	-2409
▁சேர்க்க	-2410
த்தன	-2411
▁மலை	-2412
ாகும்	-2413
▁ஒன்றை	-2414
▁ஒதுக்க	-2415
▁சிறந்த	-2416
ானா	-2417
▁நடக்கிறது	-2418
சல்	-2419
▁மிகப்பெரிய	-2420
▁மின்சார	-2421
ஹா	-2422
ற்கை	-2423
ருடைய	-2424
ப்பதாக	-2425
▁நோக்கி	-2426
▁பற	-2427
ாதம்	-2428
றையினர்	-2429
▁புகைப்பட	-2430
▁ரண	-2431
ப்பம்	-2432
ரியில்	-2433
ுமா	-2434
▁நடு	-2435
▁கொல்ல	-2436
▁சேர்ந்து	-2437
▁யாரும்	-2438
னாக	-2439
▁எதிர்கால	-2440
▁மருந்து	-2441
▁ஆண	-2442
▁வியா	-2443
▁மோதி	-2444
ம்தான்	-2445
▁கௌ	-2446
▁பேரா	-2447
▁சொல்க	-2448
ட்பு	-2449
ய்ய	-2450
▁ரே	-2451
▁மாக	-2452
▁எழுதிய	-2453
ட்டிக்க	-2454
▁40	-2455
ற்றின்	-2456
▁ஏற்பட	-2457
▁மொத்தம்	-2458
▁உடன்	-2459
கால	-2460
இந்த	-2461
▁அச்ச	-2462
▁வீரர்கள்	-2463
ற்றும்	-2464
▁ட்விட்ட	-2465
▁மேற்கொண்டு	-2466
▁மட்டுமல்ல	-2467
இல்	-2468
▁ஆயுத	-2469
▁ஆய்வ	-2470
நீர்	-2471
ச்சினை	-2472
▁திடீரென	-2473
▁குடியரசு	-2474
▁கும்	-2475
▁செய்யப்பட்டது	-2476
மக்கு	-2477
த்தைத்	-2478
▁வார்த்த	-2479
ீன்	-2480
▁அந்	-2481
ருமான	-2482
▁பேச்சுவ	-2483
▁சுற்றுலா	-2484
▁பேசினார்	-2485
▁டை	-2486
▁விண்ண	-2487
▁சொத்து	-2488
ிருக்கிறார்கள்	-2489
▁21	-2490
▁இன	-2491
னையை	-2492
ப்பர்	-2493
▁போய்	-2494
▁பாத	-2495
ானை	-2496
சாலை	-2497
ர்ட்	-2498
▁நிமி	-2499
ிருப்பது	-2500
த்திலிருந்து	-2501
▁அம்மா	-2502
▁0	-2503
▁உடை	-2504
▁செய்வது	-2505
▁எங்களுக்கு	-2506
யர்	-2507
▁பேச்சுவார்த்த	-2508
▁விழாவில்	-2509
▁காத	-2510
ின்றி	-2511
▁நிபுண	-2512
▁வழங்குவ	-2513
▁மாநிலத்தில்	-2514
▁ஆஸ்திரே	-2515
▁விடுதலை	-2516
▁உயிரிழந்த	-2517
▁மொழி	-2518
▁முடிந்த	-2519
லலி	-2520
ந்தர	-2521
▁அளவு	-2522
▁சாதி	-2523
▁ஜூலை	-2524
▁பந்துவீ	-2525
▁எல்லா	-2526
▁நடிகர்	-2527
▁டாக்டர்	-2528
காரா	-2529
▁தற்கொ	-2530
ப்படுகின்றன	-2531
களைத்	-2532
▁பணிகள்	-2533
▁வலியுறு	-2534
பூர்	-2535
▁கடுமையான	-2536
்டோ	-2537
▁அந்தக்	-2538
▁முதலீடு	-2539
▁செய்தது	-2540
▁படு	-2541
▁பெண்ண	-2542
த்துவம்	-2543
▁சேர்த்து	-2544
த்திற்கும்	-2545
்க்	-2546
▁மண	-2547
▁கலா	-2548
▁தாம	-2549
▁வாய	-2550
▁கண்டி	-2551
▁என்கிற	-2552
▁மாற்றம்	-2553
டாக	-2554
▁பட்	-2555
▁அடுத்து	-2556
▁வளர்ச்சி	-2557
லையை	-2558
▁22	-2559
▁எளி	-2560
▁திருவிழா	-2561
▁ஆகும்	-2562
▁நம்பிக்கை	-2563
னான	-2564
▁நியூ	-2565
▁இவர்கள்	-2566
▁சனி	-2567
▁சால	-2568
▁புகார	-2569
வேண்டும்	-2570
▁தரிசனம்	-2571
▁அடைந்த	-2572
▁தொற்று	-2573
▁சுய	-2574
ட்சிய	-2575
ளித்த	-2576
▁விக்கெ	-2577
▁உற்பத்தி	-2578
வியல்	-2579
▁பாலா	-2580
▁அரி	-2581
▁நகை	-2582
▁கேரள	-2583
▁இருக்கிற	-2584
ிடு	-2585
கமாக	-2586
▁நிர்வாகிகள்	-2587
▁எனத்	-2588
▁இதற்க	-2589
▁நிறைவேற்ற	-2590
ந்துள்ள	-2591
▁மார்ச்	-2592
▁பேராசிர	-2593
மம்	-2594
▁கீழ	-2595
▁விஜய்	-2596
▁தற்கொலை	-2597
▁ஆராய்ச்ச	-2598
▁நடைமுறை	-2599
வாய	-2600
▁குமார்	-2601
▁பிரச்சினை	-2602
ிருக்கின்றனர்	-2603
ரவை	-2604
▁ஜெயலலி	-2605
▁வழியாக	-2606
▁உருவாக்க	-2607
ஞ்சம்	-2608
▁2024	-2609
▁அதன்படி	-2610
ில்ல	-2611
▁அம்ம	-2612
▁23	-2613
▁நுழை	-2614
▁கிடைத்த	-2615
▁சூழ்	-2616
படுத்த	-2617
ாமா	-2618
வீன	-2619
த்துள்ள	-2620
▁நாட்டு	-2621
நிய	-2622
▁அதேபோல	-2623
ரியா	-2624
▁பரு	-2625
ழிப்பு	-2626
▁பக்கம்	-2627
▁கம	-2628
செய்ய	-2629
▁நடத்து	-2630
▁கிரிக்கெட்	-2631
ெழு	-2632
▁மகாரா	-2633
▁நிறைய	-2634
▁இஸ்லாம	-2635
▁இதுபோன்ற	-2636
ரையில்	-2637
▁போக்குவரத்து	-2638
▁அபிவிரு	-2639
வுகளை	-2640
▁தினம்	-2641
▁மக்களை	-2642
▁கருத	-2643
es	-2644
▁சிறிய	-2645
வதில்லை	-2646
▁முஸ்லி	-2647
ஜெ	-2648
புற	-2649
ங்கல்	-2650
த்தல்	-2651
்களாக	-2652
▁உரிய	-2653
▁ஜூன்	-2654
▁அறிக்கையில்	-2655
▁வகுப்பு	-2656
▁விவகாரத்தில்	-2657
ன்னு	-2658
▁ரத்த	-2659
▁கதை	-2660
▁வென்ற	-2661
▁பேருந்து	-2662
▁முன்னதாக	-2663
▁டே	-2664
▁அறு	-2665
▁பணியில்	-2666
▁குர	-2667
▁மகள	-2668
நிலைய	-2669
டித்து	-2670
▁கிடைய	-2671
▁சக்தி	-2672
▁T	-2673
ற்சிய	-2674
▁உறுப்பினர்	-2675
▁B	-2676
ன்கொ	-2677
வாள	-2678
▁பெற்றோ	-2679
▁வெளிநாட்டு	-2680
த்தூர்	-2681
ேத	-2682
ட்ஸ்	-2683
▁அதிர	-2684
▁மாகாண	-2685
▁வீட்டு	-2686
குந்த	-2687
▁நெரு	-2688
▁இயக்க	-2689
▁C	-2690
▁மீன	-2691
▁பெரும்பால	-2692
▁குறித்தும்	-2693
ஷேக	-2694
▁அவ்வ	-2695
▁ஆண்டுகளில்	-2696
▁M	-2697
▁2021	-2698
▁படைய	-2699
▁விவர	-2700
ணு	-2701
பூ	-2702
▁நிச்ச	-2703
▁வழங்கி	-2704
மித்	-2705
▁குவி	-2706
▁எங்கள	-2707
▁பொதுக்குழு	-2708
▁2019	-2709
▁அருகில்	-2710
▁உதய	-2711
▁வர்த்த	-2712
▁விபத்து	-2713
▁நாட்களுக்கு	-2714
▁சூழலில்	-2715
▁தலைவராக	-2716
▁வழங்கப்படும்	-2717
:00	-2718
க்ரே	-2719
▁கிடையாது	-2720
▁.	-2721
▁சன	-2722
விகி	-2723
▁ஆவண	-2724
க்ஸ	-2725
▁அதிகரிக்கும்	-2726
▁புல	-2727
▁மரண	-2728
▁புரிந்து	-2729
▁நிறுவனங்கள்	-2730
▁பேச்சு	-2731
▁பாகிஸ்தான	-2732
▁பண்ட	-2733
வர்களில்	-2734
▁வாக்க	-2735
குதியில்	-2736
ஞ்சு	-2737
▁அருள்	-2738
▁கொள்கை	-2739
▁தெரிவித்தனர்	-2740
▁ஏற்படுத்தி	-2741
க்ரம	-2742
▁சிங்க	-2743
▁தனக்கு	-2744
▁தொடங்கிய	-2745
▁மும்பை	-2746
▁நிகழ்ச்சியில்	-2747
▁ஏப்	-2748
▁2023	-2749
▁ஏற்ற	-2750
ந்தர்	-2751
ன்னீர்செல்வம்	-2752
▁ஜனநாயக	-2753
▁எனும்	-2754
▁பின்ப	-2755
▁பொறுத்த	-2756
▁நிலையத்தில்	-2757
▁ரணில்	-2758
▁பகுதியை	-2759
▁கொண்டிருந்த	-2760
ணய	-2761
ட்ரோ	-2762
பாபி	-2763
▁நபர்	-2764
▁சரியான	-2765
▁வழக்கறி	-2766
▁சினி	-2767
▁தவறு	-2768
ளவில்	-2769
▁சம்பந்த	-2770
▁வாழ்க்கை	-2771
▁பெரும்பாலான	-2772
▁உண்மை	-2773
▁தலைமையிலான	-2774
மலை	-2775
▁லெ	-2776
ீட்டு	-2777
▁நிற்க	-2778
▁வலைதள	-2779
▁பெங்கள	-2780
▁ரூபாய	-2781
▁P	-2782
▁சிறை	-2783
▁அதிகமான	-2784
ுங்கள்	-2785
▁கிழக்கு	-2786
▁தரப்பில்	-2787
திலும்	-2788
▁மேற்க	-2789
▁தண்ணீர்	-2790
ுவை	-2791
▁உள	-2792
▁வந்தனர்	-2793
▁விவசாயி	-2794
▁அறிவிப்பு	-2795
▁ஆட்சியில்	-2796
▁சர்ச்சை	-2797
▁அரசுக்கு	-2798
▁வருகிறார்கள்	-2799
▁ஏற்பட்டுள்ளது	-2800
▁199	-2801
▁போட	-2802
▁திருப்ப	-2803
▁சப	-2804
▁வலி	-2805
▁வட்ட	-2806
▁பங்கள	-2807
▁துப்பா	-2808
▁பொறுப்பு	-2809
▁சதவிகி	-2810
▁கூடுதல்	-2811
ர்ட	-2812
▁வித்திய	-2813
▁இருக்கலாம்	-2814
202	-2815
▁ஏமா	-2816
▁ரத்து	-2817
▁வளாக	-2818
தற்காக	-2819
▁அமைக்க	-2820
▁கும்பாபி	-2821
▁தொடங்கியது	-2822
▁விளையாட்டு	-2823
ாந்து	-2824
▁ஆளுந	-2825
▁சரியாக	-2826
▁மதிப்ப	-2827
நாட்டில்	-2828
▁அவருடைய	-2829
▁கட்சிய	-2830
▁பயன்படுத்தி	-2831
வுக	-2832
▁தடுக்க	-2833
▁பரிந்து	-2834
▁பார்வைய	-2835
▁பிப்	-2836
▁தண்டனை	-2837
வெளி	-2838
▁குள	-2839
▁அவசியம்	-2840
ணமாக	-2841
▁செயற்ப	-2842
▁முயன்ற	-2843
▁கட்டுப்பா	-2844
னல்	-2845
▁விளக்க	-2846
ப்படுத்தி	-2847
பொரு	-2848
▁அக்	-2849
▁ஆடி	-2850
▁இம்	-2851
ாவிற்கு	-2852
▁முன்னெ	-2853
▁பவு	-2854
▁கூட்டு	-2855
▁தற்போதைய	-2856
▁வெளியாகி	-2857
▁ஒழு	-2858
ரியாத	-2859
▁திரா	-2860
விற்கு	-2861
▁பெருமாள்	-2862
டியும்	-2863
▁உண்டு	-2864
▁கிருஷ்ண	-2865
▁பிரச்சனை	-2866
▁பாக	-2867
▁குழந்த	-2868
▁மாதிரி	-2869
▁நடைபெறு	-2870
▁கட்டி	-2871
▁நாளில்	-2872
▁ரசிகர்கள்	-2873
▁இலங்கையில்	-2874
▁தட	-2875
கவின்	-2876
▁சாப்ப	-2877
▁தேர்ந்த	-2878
▁ஃப	-2879
டங்கு	-2880
▁உடனே	-2881
▁செலவு	-2882
▁பேட்டி	-2883
வையில்	-2884
▁கமி	-2885
▁பேட்ட	-2886
ங்கியது	-2887
▁தெரியவ	-2888
is	-2889
▁அப்பா	-2890
▁பிரசார	-2891
▁எப்போதும்	-2892
▁அணியின்	-2893
▁எவ்வளவு	-2894
▁நினைக்க	-2895
சர	-2896
▁மகாராஷ்ட	-2897
▁சட்டசபை	-2898
ப்பிக்க	-2899
▁சசிகலா	-2900
▁டால	-2901
▁பிள்ள	-2902
▁இருக்கு	-2903
▁மாவட்டங்களில்	-2904
ீஸ்	-2905
▁வீட்டுக்கு	-2906
தொ	-2907
ையோ	-2908
▁ஹமா	-2909
▁ஒத்து	-2910
▁தெரியவில்லை	-2911
▁ஏன	-2912
▁தெரியும்	-2913
ஸை	-2914
▁குறு	-2915
▁இதற்காக	-2916
ையிலும்	-2917
▁தொடர்பில்	-2918
▁உட்க	-2919
▁புத்தக	-2920
▁நிர்வாகம்	-2921
▁மச	-2922
▁தடுப்பூ	-2923
▁பரபரப்பை	-2924
வியில்	-2925
்குமார்	-2926
▁விக்ரம	-2927
▁இயக்குநர்	-2928
ச்செய	-2929
▁சுட்டிக்க	-2930
▁அபிவிருத்தி	-2931
▁கன்ன	-2932
▁மாநிலங்களில்	-2933
▁I	-2934
கும்	-2935
ஸின்	-2936
▁நட்ச	-2937
▁கையில்	-2938
▁நட்சத்திர	-2939
▁சான்	-2940
▁கடற்ப	-2941
▁முன்னேற்ற	-2942
சீ	-2943
▁உதவ	-2944
▁உரையா	-2945
▁சதவீத	-2946
▁சுற்றி	-2947
மிருந்து	-2948
▁பாதிக்க	-2949
▁கேப்ட	-2950
▁ஜே	-2951
▁திரி	-2952
ிங்	-2953
▁அழக	-2954
▁கடல்	-2955
▁கிட்ட	-2956
ங்களைப்	-2957
▁ஆந்திர	-2958
▁கொண்டனர்	-2959
வேன்	-2960
▁தள்ள	-2961
▁விரும்பு	-2962
மிற	-2963
மணிய	-2964
ொட்டி	-2965
றையும்	-2966
▁அதிகரிக்க	-2967
▁இருக்கின்றன	-2968
எல்ஏ	-2969
ண்டே	-2970
▁அதன	-2971
்துறை	-2972
▁காஷ்	-2973
ஸ்வரர்	-2974
▁எல்லை	-2975
▁நிலைமை	-2976
▁பங்கேற்ற	-2977
▁ஐக்கிய	-2978
▁நாடுகளில்	-2979
▁சிலை	-2980
▁உருவாக	-2981
▁சந்தித்த	-2982
▁தெரிகிறது	-2983
▁எவ்	-2984
▁கம்ப	-2985
▁பதவிய	-2986
▁சிறையில்	-2987
▁விமர்ச	-2988
▁பக்கத்தில்	-2989
ந்தா	-2990
▁வருவதாக	-2991
▁நிறுவனத்தின்	-2992
ப்பதற்காக	-2993
ழ்க	-2994
▁பண்ண	-2995
▁ஓட்டு	-2996
▁அதற்கான	-2997
▁கார்த்த	-2998
▁சந்திக்க	-2999
▁முழுமையாக	-3000
புரி	-3001
▁அதேபோல்	-3002
யோ	-3003
▁களமிற	-3004
▁எம்எல்ஏ	-3005
▁ஹை	-3006
▁ஒலி	-3007
க்குச்	-3008
விட்டால்	-3009
▁இன்னொரு	-3010
▁மருத்துவர்	-3011
▁குண	-3012
▁தங்களது	-3013
▁எதிர்த்து	-3014
ரவரி	-3015
ப்படுத்தும்	-3016
ரால்	-3017
மாகும்	-3018
▁சந்தேக	-3019
▁t	-3020
ின்று	-3021
▁ஹே	-3022
▁பிள	-3023
▁பேசுவ	-3024
▁கண்டறிய	-3025
▁நேரடியாக	-3026
▁உங்கள	-3027
▁(1	-3028
ார்கள	-3029
▁மோசமான	-3030
▁கட்சிகள்	-3031
▁யுக்ரே	-3032
▁பரிந்துரை	-3033
ிருக்கின்றன	-3034
▁போய	-3035
றையின்	-3036
▁அங்கீ	-3037
▁பகிர்ந்து	-3038
▁அறிய	-3039
▁தொகை	-3040
▁பழைய	-3041
▁பயங்க	-3042
▁வழங்கும்	-3043
▁விவசாயிகள்	-3044
it	-3045
▁அழ	-3046
லாக்க	-3047
▁பெரி	-3048
▁அலங்கார	-3049
▁தீர்ப்பு	-3050
▁பெட்ரோ	-3051
▁பிடித்து	-3052
ீப்	-3053
▁வலு	-3054
▁கொழ	-3055
▁டிச	-3056
▁நோய்	-3057
▁கடிதம்	-3058
த்திலேயே	-3059
▁செந்தில்	-3060
▁நெருக்கடி	-3061
▁கலந்துரையா	-3062
ாலை	-3063
லைன்	-3064
ரான்	-3065
ண்டர்	-3066
▁என்னு	-3067
ியம்மன்	-3068
▁தோல்வி	-3069
▁குஜராத்	-3070
▁மதிப்பு	-3071
ாராய	-3072
▁இரண்டாம்	-3073
▁வன்முறை	-3074
▁ரக	-3075
▁ரொ	-3076
ஸில்	-3077
▁வாழ்த்து	-3078
ுமி	-3079
▁ஓர்	-3080
▁நன்ற	-3081
ாதாரம்	-3082
▁நேரில்	-3083
▁உயர்த்த	-3084
▁பரிசோதனை	-3085
▁ஜா	-3086
ற்பு	-3087
▁இவை	-3088
களைச்	-3089
ங்கம்	-3090
▁பெயரில்	-3091
.4	-3092
மன்	-3093
பாத்	-3094
▁ஒளி	-3095
▁பல்ல	-3096
▁ஆளும்	-3097
▁பணத்தை	-3098
ெல்	-3099
▁தினமும்	-3100
முத	-3101
▁பிரா	-3102
▁வரிச	-3103
▁தீர்வு	-3104
▁வழங்கிய	-3105
▁குற்றம்சா	-3106
▁திகதி	-3107
▁ஆங்கில	-3108
▁தொடர்ச்ச	-3109
ோட	-3110
ியே	-3111
▁தம்ப	-3112
▁உள்ளே	-3113
▁நாட்டை	-3114
தையும்	-3115
▁ஏப்ரல்	-3116
▁வழக்கம்	-3117
▁ஆகியவ	-3118
▁உத்தரவு	-3119
▁அரசாங்கம்	-3120
ic	-3121
▁விநாயகர்	-3122
ாளர்களுக்கு	-3123
▁அங்கே	-3124
▁அதோடு	-3125
▁வெங்க	-3126
க்கூடும்	-3127
▁வெளியான	-3128
▁நாட்களில்	-3129
▁உறுப்பினர்கள்	-3130
விட்	-3131
▁செல்க	-3132
▁மூலமாக	-3133
▁திட்டத்தை	-3134
am	-3135
▁உறவின	-3136
▁27	-3137
முதல்	-3138
ென்றால்	-3139
ூர	-3140
மொழி	-3141
க்கட்ட	-3142
▁அமித்	-3143
▁செவ்வ	-3144
ிருந்தால்	-3145
▁பிரதிநிதி	-3146
ன்ட்	-3147
▁மீன்	-3148
்டோபர்	-3149
▁கவுன்	-3150
ந்திரன்	-3151
▁(2	-3152
▁போதை	-3153
▁திருந	-3154
▁வழிபாடு	-3155
ிருப்பதாக	-3156
ெனவே	-3157
டுவது	-3158
▁மீட்க	-3159
▁ஆகியவை	-3160
▁எப்போது	-3161
▁அதைத்	-3162
▁பஞ்சாப்	-3163
▁இறந்த	-3164
▁பொருட்கள்	-3165
▁தொகுதியில்	-3166
▁N	-3167
பால்	-3168
ும்பி	-3169
▁வெறும்	-3170
திகள்	-3171
▁நோக்க	-3172
▁ஒன்றாக	-3173
▁உள்ளாட்சி	-3174
சரி	-3175
▁கிரக	-3176
ர்களில்	-3177
▁சார்ந்த	-3178
▁இடம்பெற்ற	-3179
▁மோதல்	-3180
ங்களைக்	-3181
▁வகி	-3182
▁அன்ன	-3183
த்திற்காக	-3184
▁போட்டியிட	-3185
▁இவ்வாறு	-3186
▁வீழ்த்த	-3187
▁படத்தில்	-3188
▁மில்லியன்	-3189
டே	-3190
▁1,	-3191
▁இலவச	-3192
▁ஊழிய	-3193
▁ஏற்கெனவே	-3194
ஃப	-3195
னியா	-3196
ராஜன்	-3197
▁கொண்டாட	-3198
▁சாத்திய	-3199
▁ஆட்சியை	-3200
▁நடவடிக்கைகள்	-3201
▁பக்தர்களுக்கு	-3202
ம்பா	-3203
▁உறவு	-3204
▁திராவிட	-3205
▁அடிக்கடி	-3206
▁தெரிந்து	-3207
▁நீட்	-3208
▁கணவர்	-3209
▁புள்ளி	-3210
மாகக்	-3211
்க்கு	-3212
ப்போம்	-3213
▁ஒத்துழை	-3214
▁நிகழ்வு	-3215
▁26	-3216
▁ரவி	-3217
▁கட்சியில்	-3218
▁28	-3219
ண்டா	-3220
க்கர்	-3221
▁செல்போ	-3222
வர்களும்	-3223
▁அனுமதிக்க	-3224
▁பொருட்களை	-3225
▁கலந்துகொண்ட	-3226
கரி	-3227
லால்	-3228
க்கெட்	-3229
▁ரீதியாக	-3230
ாதனை	-3231
ப்பதிவு	-3232
களுக்கான	-3233
▁என்பவர்	-3234
▁பேராசிரியர்	-3235
ம்பர	-3236
▁அன்ப	-3237
▁பயன்படுத்து	-3238
▁சபை	-3239
ப்பதை	-3240
▁எழுப்ப	-3241
▁உள்ளூர்	-3242
▁விமர்சன	-3243
▁கொண்டார்	-3244
▁செயல்பட்டு	-3245
▁மான	-3246
தர்	-3247
▁கவலை	-3248
▁நிர்வாகி	-3249
▁D	-3250
பய	-3251
ராம	-3252
▁வேத	-3253
ஸ்டர்	-3254
▁சகோதர	-3255
▁நிமிட	-3256
ியூ	-3257
▁சூழல்	-3258
▁விவாத	-3259
கத்தில்	-3260
த்துக்கும்	-3261
▁அழைத்துச்	-3262
சோ	-3263
ினம்	-3264
ற்கால	-3265
ம்த	-3266
▁பஞ்ச	-3267
▁திருச்சி	-3268
ஹ்	-3269
ம்ஸ்	-3270
்கூட	-3271
▁மாணவ	-3272
ையுடன்	-3273
▁அலுவலகத்தில்	-3274
ப்பொரு	-3275
▁அடித்து	-3276
▁இத்தகைய	-3277
ாளைய	-3278
▁கௌரவ	-3279
▁இங்கில	-3280
▁முழுக்க	-3281
▁புதுச்சே	-3282
▁செப்ட	-3283
▁ஆதரவாக	-3284
டோ	-3285
▁வடிவ	-3286
▁மாற்றி	-3287
ிலிருந்த	-3288
▁வணி	-3289
மில்லை	-3290
▁செல்வ	-3291
▁ஆகஸ்ட்	-3292
▁காப்பா	-3293
▁வேகமாக	-3294
▁இருப்பதால்	-3295
ஸ்வ	-3296
▁பிப்ரவரி	-3297
▁60	-3298
▁ஆதார	-3299
▁சவால	-3300
லத்தில்	-3301
▁விஷயம்	-3302
▁நடத்தினர்	-3303
▁ஆல	-3304
டுகிறது	-3305
▁வித்தியாச	-3306
▁சித	-3307
▁பண்	-3308
▁நினைவு	-3309
▁அமைச்சர்கள்	-3310
▁2020	-3311
▁மன்ன	-3312
▁வலுவ	-3313
▁ஆணையம்	-3314
ியன்	-3315
▁பராம	-3316
▁மசோத	-3317
▁கட்சியை	-3318
▁தமிழகம்	-3319
போல்	-3320
▁மரு	-3321
பெற்ற	-3322
▁விலக	-3323
க்குழுவ	-3324
▁திட்டத்தின்	-3325
▁முகமது	-3326
▁வெளியு	-3327
▁செயல்பாடு	-3328
▁தக்க	-3329
▁தெலு	-3330
▁தீவிரமாக	-3331
த்துள்ளனர்	-3332
▁முடிவுகள்	-3333
▁போட்டிகளில்	-3334
▁விக்ரமசிங்க	-3335
▁பேச்சுவார்த்தை	-3336
ாயி	-3337
▁எங்க	-3338
ம்பரம்	-3339
▁அன்ற	-3340
▁இங்கே	-3341
ப்பட்டார்	-3342
▁ஆரோ	-3343
▁சித்த	-3344
வரையும்	-3345
ிருக்கலாம்	-3346
▁டோ	-3347
வேளை	-3348
▁நின்று	-3349
▁அங்கிருந்து	-3350
▁சபா	-3351
▁எனப்	-3352
▁எழுதி	-3353
▁மரியாத	-3354
▁உள்ளதாக	-3355
▁சேர்ந்தவர்	-3356
▁விசாரணையில்	-3357
▁உச்சநீதிமன்ற	-3358
ாய்வு	-3359
▁வீட்ட	-3360
க்களின்	-3361
▁அத்துடன்	-3362
▁தடுப்பூசி	-3363
▁மூலாதாரம்	-3364
▁டெல்லியில்	-3365
▁அழி	-3366
▁தலைய	-3367
தில்லை	-3368
▁ஜெயலலிதா	-3369
▁சட்டத்தின்	-3370
கிரி	-3371
வரான	-3372
வைத்	-3373
லாளர்	-3374
▁பயன்	-3375
▁பிடிக்க	-3376
▁பேருக்கு	-3377
▁பதிவிட்டு	-3378
ப்பதற்கான	-3379
▁அடையாளம்	-3380
▁ஏற்படுத்தும்	-3381
ல்லா	-3382
▁இன்றைய	-3383
▁முன்பாக	-3384
திக	-3385
▁உழை	-3386
▁மாநகராட்சி	-3387
க்கா	-3388
▁பதவியை	-3389
▁செயல்படுத்த	-3390
தீ	-3391
▁படிக்க	-3392
▁பழங்கு	-3393
ப்புக்கு	-3394
ாளர்களின்	-3395
▁பத்திரிக	-3396
சில்	-3397
ையைப்	-3398
▁ரயில	-3399
▁எண்ணெய்	-3400
தில	-3401
▁ஓய்வு	-3402
▁இஸ்லாமிய	-3403
▁போராட்டத்தில்	-3404
▁அல்	-3405
▁இழு	-3406
▁நமக்கு	-3407
வுக்கும்	-3408
▁விடுத்து	-3409
▁விளக்கம்	-3410
▁எதிர்பார்	-3411
▁யாத	-3412
கொண்டு	-3413
▁கணக்கு	-3414
▁ஆஸ்திரேலிய	-3415
போதும்	-3416
▁ஒட்டு	-3417
▁ஹமாஸ்	-3418
▁வங்கதேச	-3419
▁கிராமத்தில்	-3420
▁பான	-3421
▁உலகின்	-3422
▁வேட்பாளர்	-3423
ரூ	-3424
▁இல்	-3425
▁சிறுமி	-3426
▁ஏழு	-3427
▁விண்	-3428
▁திருத்த	-3429
▁உயர்நீதிமன்ற	-3430
▁இசை	-3431
▁ஒற்றை	-3432
▁வாரம்	-3433
ion	-3434
ழில்	-3435
ப்பன்	-3436
▁வருகை	-3437
கின்றது	-3438
▁தயாராக	-3439
▁ஒன்றில்	-3440
▁துப்பாக்கி	-3441
.3	-3442
த்தான	-3443
▁இருக்கிறார்கள்	-3444
ஷம்	-3445
▁மய	-3446
▁மற	-3447
▁ஷி	-3448
▁அமலாக்க	-3449
▁அறிவித்த	-3450
▁வெளியுறவு	-3451
ரிமை	-3452
▁அணை	-3453
ச்சார	-3454
விக்க	-3455
▁அரசியலில்	-3456
▁ஐரோ	-3457
▁தியாக	-3458
▁அக்டோபர்	-3459
க்கப்பட்டார்	-3460
ஜித்	-3461
▁ஜனவரி	-3462
▁குண்டு	-3463
ிறி	-3464
▁கருணா	-3465
▁விநிய	-3466
▁க்	-3467
லிக்க	-3468
ையைக்	-3469
ோதே	-3470
மல்ல	-3471
ிக்கிழமை	-3472
▁சேர்த்த	-3473
▁தயாரிக்க	-3474
ைப்	-3475
டனான	-3476
▁வைரஸ்	-3477
▁அரசியல	-3478
.30	-3479
▁ஆட	-3480
டியான	-3481
▁இதனிடையே	-3482
▁தஞ்ச	-3483
▁அனைத்தும்	-3484
▁பெண்களுக்கு	-3485
▁தொடர்ச்சியாக	-3486
பாக	-3487
வமாக	-3488
▁ஆனாலும்	-3489
▁கண்டுபிடிக்க	-3490
50	-3491
▁சது	-3492
க்கணி	-3493
▁மகள்	-3494
▁உலகம்	-3495
▁எழுந்தரு	-3496
▁பொதுச்செய	-3497
▁அணிக்கு	-3498
யி	-3499
▁மல	-3500
ாதாரண	-3501
ையால்	-3502
▁தமது	-3503
▁தொழி	-3504
▁அதிரு	-3505
▁இளைஞர்	-3506
▁போதும்	-3507
▁பெட்ரோல்	-3508
▁வழங்கப்பட்டது	-3509
▁கோரி	-3510
▁பொதுவாக	-3511
▁வலியுறுத்த	-3512
நல	-3513
பின்	-3514
▁தர்ம	-3515
▁பிரச	-3516
▁ஆரோக்கிய	-3517
▁என்னுடைய	-3518
▁தீப	-3519
▁கொடிய	-3520
க்கெடு	-3521
நாயக்க	-3522
▁தப்பி	-3523
▁பிடித்த	-3524
▁சென்றனர்	-3525
ஞ்	-3526
சிக்க	-3527
▁இதன்ப	-3528
▁உயிர்	-3529
▁வெப்ப	-3530
▁அவற்றை	-3531
▁விக்கெட்டு	-3532
க்குமார்	-3533
▁டிசம்பர்	-3534
▁என்றாலும்	-3535
▁வீட்டிற்கு	-3536
▁இளம்	-3537
▁சிறி	-3538
ீன	-3539
▁வல்ல	-3540
▁வீதி	-3541
குமார்	-3542
▁தரும்	-3543
▁வடக்கு	-3544
▁அதிருப்த	-3545
▁இடையிலான	-3546
ணன்	-3547
▁உல	-3548
▁198	-3549
ங்கில்	-3550
▁காந்த	-3551
விட்டனர்	-3552
▁R	-3553
▁அலை	-3554
டித்த	-3555
▁கொடி	-3556
▁நிரூ	-3557
ண்டில்	-3558
▁மோசடி	-3559
▁அடிப்படை	-3560
▁அனைவருக்கும்	-3561
ப்பார்	-3562
▁சிந்த	-3563
▁வீரர்	-3564
▁இறந்து	-3565
▁முக்கியத்துவம்	-3566
ன்த	-3567
மற்ற	-3568
▁குறைவாக	-3569
▁விடுத்த	-3570
▁திட்டமிட்டு	-3571
ண்மை	-3572
ெனில்	-3573
▁வழக்கை	-3574
▁அபிஷேகம்	-3575
▁அதிமுகவில்	-3576
.0	-3577
தோடு	-3578
ம்ப்	-3579
மூலம்	-3580
▁அதிப	-3581
▁ஊழல்	-3582
ப்படாத	-3583
▁வருவது	-3584
▁முடிவுக்கு	-3585
▁கூறுகின்றனர்	-3586
ச்சூ	-3587
ங்குவ	-3588
▁நின்ற	-3589
▁வயதான	-3590
ிற்கும்	-3591
ப்பட்டனர்	-3592
▁முடியாமல்	-3593
கர	-3594
▁நம்பு	-3595
▁மைதான	-3596
▁ஒன்றிய	-3597
▁அவரிடம்	-3598
▁எண்ணிக்க	-3599
▁ஓடி	-3600
ந்தைய	-3601
▁ஒப்படை	-3602
▁நன்றாக	-3603
▁பெறும்	-3604
▁ரயில்வே	-3605
▁தகவல்களை	-3606
▁தவிர்க்க	-3607
▁வைக்கப்பட்ட	-3608
ாடி	-3609
ியோ	-3610
யின்	-3611
▁கடவு	-3612
▁கடித	-3613
▁விசே	-3614
▁பெயரை	-3615
▁பாஜகவின்	-3616
▁வார்த்தை	-3617
▁பொறுத்தவரை	-3618
▁கட்டுப்பாடு	-3619
ிலி	-3620
▁சிபி	-3621
▁நடிகை	-3622
▁முற்ற	-3623
▁ஜனாதிப	-3624
ன்னா	-3625
▁சஞ்ச	-3626
மக	-3627
▁லீ	-3628
▁கொட	-3629
▁போலவே	-3630
▁முதன்	-3631
▁காட்டி	-3632
▁ஆச்ச	-3633
▁அர்	-3634
▁ஏற்படுத்திய	-3635
▁மருத்துவமனைக்கு	-3636
▁காலி	-3637
ையொட்டி	-3638
▁உரிமைய	-3639
▁பாலாஜி	-3640
▁திறந்து	-3641
▁சென்றார்	-3642
▁அதிர்ச்சி	-3643
▁மூன்றாவது	-3644
▁ஏற்படுத்தியது	-3645
மழை	-3646
தியம்	-3647
as	-3648
▁அரை	-3649
டனும்	-3650
லான	-3651
▁நடிக	-3652
க்குத்	-3653
▁பிரதான	-3654
▁நாட்களாக	-3655
▁அமைச்சரவை	-3656
▁ட்விட்டர்	-3657
▁நடவடிக்கைகளை	-3658
மன	-3659
▁‛	-3660
போல	-3661
▁வளர்	-3662
▁அடித்த	-3663
▁புதிதாக	-3664
▁செய்யப்படும்	-3665
▁?	-3666
▁ஆடு	-3667
▁ஆத்	-3668
நேரம்	-3669
▁நகரில்	-3670
▁வழங்கு	-3671
▁நட்	-3672
▁நெடு	-3673
னையும்	-3674
▁பகவான்	-3675
▁கிடைத்தது	-3676
▁கோப	-3677
▁இருந்தனர்	-3678
▁மாதத்தில்	-3679
க்ட	-3680
▁நன்மை	-3681
▁மையம்	-3682
▁கட்டண	-3683
▁சாதனை	-3684
▁தூக்கி	-3685
▁கோரிக்க	-3686
▁பள்ளியில்	-3687
க்கர	-3688
வேல்	-3689
▁கொஞ்சம்	-3690
▁பயணிகள்	-3691
▁பூஜைகள்	-3692
▁பெற்றது	-3693
▁பொருத்த	-3694
▁ஆட்சிக்கு	-3695
ட்டல்	-3696
▁வருமானம்	-3697
ாளர்களிடம்	-3698
▁திட்டங்கள்	-3699
பொ	-3700
▁கடந்து	-3701
▁பதிலாக	-3702
▁மீட்பு	-3703
வுட்	-3704
▁மாள	-3705
▁கடின	-3706
▁தொடர	-3707
▁யானை	-3708
▁எக்ஸ்	-3709
▁சர்ச்ச	-3710
▁ரன்களை	-3711
▁ராஜஸ்தான்	-3712
▁மாணவர்களுக்கு	-3713
▁தெய்	-3714
ல்களில்	-3715
▁கொண்டே	-3716
▁எடுத்துக்	-3717
▁இலங்கையின்	-3718
▁கொடுக்கும்	-3719
ங்கோ	-3720
▁காதல்	-3721
▁நன்றி	-3722
▁பதிவாக	-3723
வரது	-3724
ிறகு	-3725
▁முட	-3726
▁ஆசிய	-3727
▁தீர்த்த	-3728
க்களுக்கு	-3729
ப்பார்கள்	-3730
ப்பிரமணிய	-3731
▁பத்திரிகைய	-3732
▁கதா	-3733
▁நிவார	-3734
▁கேப்டன்	-3735
▁வர்த்தக	-3736
..!	-3737
▁யாக	-3738
செய்த	-3739
மொத்த	-3740
ன்கொடு	-3741
▁முன்னே	-3742
▁அழைப்பு	-3743
▁முன்னர்	-3744
▁உயர	-3745
▁விதமாக	-3746
▁வாக்குகள்	-3747
த்ரா	-3748
▁அறை	-3749
த்தோடு	-3750
ப்பதில்	-3751
வான்	-3752
▁ராஜின	-3753
▁ஆஜ	-3754
▁இரா	-3755
▁தெரு	-3756
ங்களால்	-3757
▁வரலாற்று	-3758
▁தெரியவந்தது	-3759
ைக்	-3760
ணும்	-3761
வதும்	-3762
▁கவனி	-3763
▁எல்லோ	-3764
க்கிறது	-3765
ியுள்ளன	-3766
▁தனியாக	-3767
ஸ்டாலின்	-3768
ிருக்கிறோம்	-3769
▁செப்டம்பர்	-3770
he	-3771
சுவ	-3772
▁31	-3773
▁காலக	-3774
▁சீரிய	-3775
ுள்ளார்	-3776
▁மிகுந்த	-3777
▁திரும்பி	-3778
▁ஒதுக்கீடு	-3779
ாசி	-3780
முரு	-3781
ழுது	-3782
ாலின	-3783
▁காணி	-3784
▁புகழ்	-3785
▁புனித	-3786
▁வன்கொடு	-3787
▁என்கிறார்கள்	-3788
▁வலைதளங்களில்	-3789
▁அன்பு	-3790
▁ஆன்லைன்	-3791
▁சம்பந்தப்பட்ட	-3792
ரிட	-3793
▁29	-3794
▁சவு	-3795
▁ஏவுக	-3796
▁வீசிய	-3797
▁அதிகாலை	-3798
▁துவங்கியது	-3799
▁எட்ட	-3800
▁குதி	-3801
▁நிலையம்	-3802
il	-3803
ாட்	-3804
▁தக	-3805
▁கழு	-3806
▁அச்சு	-3807
ப்பிரிக்க	-3808
▁ஊழியர்கள்	-3809
ாராம்	-3810
க்குமா	-3811
த்தட்ட	-3812
ப்படுவது	-3813
▁இதுதான்	-3814
▁விசாரணைக்கு	-3815
▁முர	-3816
த்துல	-3817
ன்களை	-3818
▁அணிய	-3819
▁கிறி	-3820
ரையும்	-3821
▁பங்களி	-3822
ப்பான்	-3823
்களையும்	-3824
புர	-3825
ளிய	-3826
்சி	-3827
▁அஸ்	-3828
▁பசு	-3829
▁மேலாக	-3830
▁சதவீதம்	-3831
▁வளர்ச்ச	-3832
▁சேலம்	-3833
▁நல்லது	-3834
▁மகளிர்	-3835
ஸா	-3836
▁V	-3837
▁s	-3838
க்டர்	-3839
▁அவசர	-3840
▁மாறு	-3841
▁காலமாக	-3842
▁இறை	-3843
புறம்	-3844
முள்ள	-3845
▁ராஜப	-3846
தற்கான	-3847
▁அண்ணா	-3848
▁இருந்தன	-3849
▁மீட்டர்	-3850
▁ராஜினாமா	-3851
▁ஒட்டுமொத்த	-3852
பன்னீர்செல்வம்	-3853
▁என்றே	-3854
▁பிற்ப	-3855
▁விசாரிக்க	-3856
▁வழக்கறிஞர்	-3857
▁பாலி	-3858
▁அப்படியே	-3859
▁இந்தியாவுக்கு	-3860
வூ	-3861
▁ரஜ	-3862
▁ஆக்கிர	-3863
▁சாப்பிட	-3864
▁ஆசிரியர்	-3865
▁படத்தின்	-3866
▁எச்சரிக்கை	-3867
ர்களிடம்	-3868
▁செயல்பட	-3869
▁தடுப்பு	-3870
▁பங்கேற்க	-3871
ஜன்	-3872
த்தொட	-3873
▁மாணவர்	-3874
▁எனினும்	-3875
▁விருப்ப	-3876
▁கண்	-3877
▁கீழே	-3878
▁சினிமா	-3879
▁சும	-3880
▁முழ	-3881
ம்பரிய	-3882
▁ஆசிரிய	-3883
▁நடித்த	-3884
ிருக்கிற	-3885
▁தனிப்பட்ட	-3886
▁குடியரசுத்	-3887
▁ஆயு	-3888
▁சர்மா	-3889
▁சற்று	-3890
▁ஸ்தான	-3891
▁ஆக்கிரமி	-3892
▁லக்	-3893
▁காரை	-3894
த்திரம்	-3895
▁தாண்டி	-3896
▁நூற்றா	-3897
லன்	-3898
தாம்	-3899
▁நவீன	-3900
▁சுற்ற	-3901
▁பண்ணி	-3902
▁மண்டல	-3903
▁கொழும்பு	-3904
▁காவல்துறையினர்	-3905
▁கேம	-3906
▁கொல்க	-3907
க்கிழமை	-3908
ஞ்ஞ	-3909
பான	-3910
▁வானிலை	-3911
▁தெரிந்த	-3912
▁விமர்சனம்	-3913
▁எதிர்கொள்ள	-3914
▁உண்ட	-3915
த்துப்	-3916
▁வட்டார	-3917
த்திற்கான	-3918
▁முடிந்தது	-3919
▁மாதங்களுக்கு	-3920
re	-3921
▁ஜென	-3922
▁என்பதே	-3923
▁கூறுகிறது	-3924
▁வன்கொடுமை	-3925
▁கிட்டத்தட்ட	-3926
ணியை	-3927
▁வசூ	-3928
▁ஆப்க	-3929
களிடம்	-3930
▁கல்யா	-3931
▁ஒழுங்கு	-3932
▁தெளிவாக	-3933
▁பழனிச்ச	-3934
▁தீர்மானம்	-3935
▁விசாரித்த	-3936
▁தல	-3937
ீங்க	-3938
விரோத	-3939
▁2018	-3940
▁அறநிலைய	-3941
▁நவம்பர்	-3942
▁இளைஞர்கள்	-3943
▁செய்துள்ளார்	-3944
ாவ்	-3945
▁சமா	-3946
▁தவி	-3947
▁கேது	-3948
▁பரிசு	-3949
▁ஆட்சிய	-3950
▁சாப்பி	-3951
▁கட்டணம்	-3952
▁தங்களுக்கு	-3953
யல்	-3954
▁ஓவர	-3955
ரியான	-3956
▁அழைக்க	-3957
▁பணிகளை	-3958
▁பாரம்பரிய	-3959
▁பார்க்கலாம்	-3960
்த்	-3961
டிவி	-3962
தொடர்	-3963
ர்களாக	-3964
▁எத்தனை	-3965
▁அங்குள்ள	-3966
▁முதல்வராக	-3967
வகு	-3968
▁நொ	-3969
ட்டோ	-3970
▁பிரே	-3971
▁திடீர்	-3972
▁திண்டு	-3973
▁கைப்பற்ற	-3974
▁துறையில்	-3975
தர	-3976
▁டொ	-3977
ராஜா	-3978
▁மயில	-3979
▁நிச்சயம்	-3980
ட்டார்	-3981
வொரு	-3982
காரம்	-3983
▁அஞ்ச	-3984
▁இதற்கான	-3985
▁பொங்கல்	-3986
▁வாய்ப்புகள்	-3987
▁சௌ	-3988
▁ஆண்	-3989
பிக்க	-3990
ரியும்	-3991
▁உதயநிதி	-3992
▁மருத்துவர்கள்	-3993
▁குடும்பத்தினர்	-3994
▁சாலையில்	-3995
ப்பட்டுள்ளதாக	-3996
▁கற்ப	-3997
▁பாஸ்	-3998
▁பேரும்	-3999
வன	-4000
▁இடி	-4001
▁அகில	-4002
▁சமீப	-4003
▁சிவசே	-4004
▁பிரிய	-4005
▁ஏதாவது	-4006
▁வாய்ந்த	-4007
▁நிறுத்தி	-4008
▁வெளிநாடு	-4009
▁வைத்தார்	-4010
▁பந்துவீச்ச	-4011
▁தொக	-4012
▁கட்டாய	-4013
ங்களுடன்	-4014
ிக்கொண்ட	-4015
ad	-4016
▁ஸ	-4017
சாம	-4018
▁ரு	-4019
ரும்பு	-4020
▁உள்பட	-4021
▁எம்பி	-4022
▁அறிவிக்க	-4023
▁வாக்குறு	-4024
ந்தனர்	-4025
▁நான்க	-4026
▁ரகசிய	-4027
▁விஞ்ஞ	-4028
▁இலக்கு	-4029
▁பொதுச்	-4030
▁தொடரில்	-4031
▁செய்துள்ளனர்	-4032
▁நாணய	-4033
ாளையம்	-4034
▁குரல்	-4035
▁நாட்ட	-4036
▁உர	-4037
மின்	-4038
▁கடற்க	-4039
▁உயர்வு	-4040
▁வரலாறு	-4041
▁செயற்கை	-4042
▁முன்னில	-4043
கட	-4044
▁வணிக	-4045
▁கருது	-4046
▁டெஸ்ட்	-4047
▁அதற்காக	-4048
ப்போகிறது	-4049
▁பெற்றோர்	-4050
▁நாடுகளின்	-4051
▁கள்ளக்குறி	-4052
▁தவறான	-4053
.6	-4054
▁சேத	-4055
▁கோப்பை	-4056
▁சொந்தமான	-4057
▁முடிந்து	-4058
▁தொடர்புடைய	-4059
▁ஆஃப்	-4060
▁கலவர	-4061
▁விகி	-4062
▁பெரும	-4063
மடைந்து	-4064
▁கண்டறி	-4065
-1	-4066
ச்சா	-4067
▁உணர்வு	-4068
▁இதற்கிடையே	-4069
லுடன்	-4070
▁தொடக்க	-4071
▁உதார	-4072
▁நம்ம	-4073
தியும்	-4074
▁சாட்ட	-4075
▁தங்கம்	-4076
ப்பிரதேச	-4077
▁பிபிசிய	-4078
▁திருக்கோ	-4079
ிடமிருந்து	-4080
▁செய்துள்ளது	-4081
▁பேசின	-4082
▁சதவிகித	-4083
▁இருக்காது	-4084
▁நடைபெறுகிறது	-4085
மிழ	-4086
▁சாமி	-4087
ப்படுவதாக	-4088
▁செலுத்தி	-4089
▁எழுத	-4090
▁வசிக்கும்	-4091
▁வருகிறோம்	-4092
▁தேச	-4093
▁தகுதி	-4094
▁வயதில்	-4095
▁குறைக்க	-4096
▁நீதிபதிகள்	-4097
ேப	-4098
ந்தோ	-4099
லங்க	-4100
▁வேளா	-4101
டியின்	-4102
▁உலகக்	-4103
▁ஃப்	-4104
ளையில்	-4105
▁அறுவை	-4106
▁அதிரடி	-4107
களுக்காக	-4108
▁அதிகபட்ச	-4109
▁அமைப்பின்	-4110
டியா	-4111
ரோடு	-4112
▁செயலக	-4113
▁தெற்கு	-4114
▁நிறைவு	-4115
▁ஆராய்ச்சி	-4116
▁சம்பவங்கள்	-4117
▁ஆதரவாளர்கள்	-4118
▁போட்டியிட்ட	-4119
▁E	-4120
வாற	-4121
டியூ	-4122
▁சுழ	-4123
▁பெய்ய	-4124
▁முகாம	-4125
▁வெல்ல	-4126
ங்களைச்	-4127
▁எரிபொரு	-4128
▁முருகன்	-4129
▁நகர்ப்புற	-4130
கேஷ்	-4131
வாளி	-4132
▁நாம	-4133
ையைத்	-4134
▁ஆற்ற	-4135
▁பரவி	-4136
▁இருப்பதை	-4137
▁கவுன்சில	-4138
▁குடும்பத்தின	-4139
கல்	-4140
ாலே	-4141
▁இவ	-4142
▁197	-4143
▁பயன	-4144
ணர்வு	-4145
▁உடலை	-4146
▁கோலி	-4147
▁பந்த	-4148
▁பேரை	-4149
ப்போது	-4150
▁தயார்	-4151
▁பத்து	-4152
▁தங்களின்	-4153
▁மேம்படுத்த	-4154
ரெ	-4155
▁ஜெய்	-4156
▁சாதாரண	-4157
▁பார்வை	-4158
▁முன்னோ	-4159
▁கூட்டணியில்	-4160
▁இராஜ	-4161
▁பருவ	-4162
▁ஹிஜா	-4163
வர்த்த	-4164
▁முருக	-4165
▁போன்று	-4166
▁வேலைவாய்	-4167
▁அமைச்சராக	-4168
▁இருந்தும்	-4169
யு	-4170
ம்மு	-4171
விலான	-4172
▁ராஜா	-4173
▁ஏவுகணை	-4174
▁இடையில்	-4175
ed	-4176
▁திணை	-4177
▁இறக்கு	-4178
▁உயர்ந்து	-4179
▁உருவாக்கு	-4180
பன்	-4181
மீது	-4182
▁ஆகி	-4183
▁கவு	-4184
▁முது	-4185
▁சிக்கி	-4186
▁பொறுப்ப	-4187
▁விண்வெளி	-4188
▁தூத்துக்கு	-4189
ou	-4190
and	-4191
ல்ஸ்	-4192
▁மசூ	-4193
▁உதவிய	-4194
ப்புகளை	-4195
▁விவாதி	-4196
▁வெற்றியை	-4197
▁ஆயிரக்கணக்கான	-4198
ான்ஸ்	-4199
்டில்	-4200
▁கற்று	-4201
▁திரைய	-4202
▁அறிவுறுத்த	-4203
▁இருப்பதாகவும்	-4204
மீர்	-4205
ஸ்க்	-4206
▁மட்ட	-4207
▁முத்து	-4208
▁நினைத்த	-4209
றித	-4210
ச்செ	-4211
ரியை	-4212
க்கொள்	-4213
ப்பால்	-4214
ங்களைத்	-4215
த்திடம்	-4216
பவர்கள்	-4217
▁முடிவெ	-4218
ட்சியின்	-4219
▁பெரும்பான்	-4220
▁பெரும்பாலும்	-4221
நாதன்	-4222
▁மஞ்ச	-4223
▁ரொம்ப	-4224
▁செல்வா	-4225
▁பராமரி	-4226
▁உள்துறை	-4227
▁பிரதேசத்தில்	-4228
▁கட்டுப்படுத்த	-4229
மாகி	-4230
ர்க்	-4231
ழிவு	-4232
▁சிவா	-4233
▁சூர்	-4234
▁போன்	-4235
▁கட்டட	-4236
▁பாஜகவுக்கு	-4237
▁திண்டுக்கல்	-4238
▁அமைந்த	-4239
▁உற்சாக	-4240
▁பொருள்	-4241
▁முந்தைய	-4242
▁இடைக்கால	-4243
▁விழிப்பு	-4244
▁ஆகியவற்றை	-4245
வினை	-4246
▁ரன்	-4247
▁இந்ந	-4248
ப்பிடி	-4249
▁அணிந்து	-4250
▁வசித்து	-4251
▁சட்டவிரோத	-4252
▁ஆப்	-4253
மாகப்	-4254
வைத்து	-4255
ர்களால்	-4256
▁அணியில்	-4257
▁திணைக்கள	-4258
▁திருப்பி	-4259
▁ராசிக்கார	-4260
▁பேசுகையில்	-4261
▁வெளிப்படுத்த	-4262
சக	-4263
▁ஜாம	-4264
▁மொழ	-4265
▁கொண்டது	-4266
▁ஏற்பாடுகளை	-4267
▁ஜனதா	-4268
றுப்பு	-4269
▁சுரங்க	-4270
▁உறுதியாக	-4271
▁வெளியில்	-4272
▁புதுச்சேரி	-4273
வக	-4274
▁வண	-4275
▁ஷே	-4276
த்தள	-4277
▁கம்	-4278
மிக்க	-4279
▁துணி	-4280
ப்பிரி	-4281
▁மீட்ட	-4282
க்கியது	-4283
▁கூறியது	-4284
▁இதுதொடர்	-4285
▁புறக்கணி	-4286
▁ராசிக்கு	-4287
மய	-4288
வதன்	-4289
▁கிரி	-4290
▁அக்னி	-4291
▁அமைதி	-4292
▁ஆத்மி	-4293
ட்சியில்	-4294
▁சார்பாக	-4295
▁அதிகாரம்	-4296
▁சொன்னார்	-4297
ங்களுக்கும்	-4298
▁ஏற்படுத்து	-4299
பான்	-4300
▁மனோ	-4301
▁மால	-4302
▁வீச	-4303
▁பூர்	-4304
▁அதுவும்	-4305
▁வைத்திய	-4306
,5	-4307
ct	-4308
▁ஜீ	-4309
▁வேற	-4310
▁பகிர	-4311
▁ராஜ்	-4312
▁இரட்டை	-4313
▁உறுதிய	-4314
▁தற்கால	-4315
▁தேர்தலை	-4316
▁அழுத்தம்	-4317
ப்பட்டிருக்கிறது	-4318
▁கவி	-4319
னுடன்	-4320
▁துரு	-4321
ஸுக்கு	-4322
▁புற்று	-4323
ப்பட்டதாக	-4324
▁கட்சிக்கு	-4325
▁வர்	-4326
▁முன்பே	-4327
ர்களுடன்	-4328
விட்டதாக	-4329
▁பிராந்திய	-4330
பிடி	-4331
▁ஞான	-4332
ச்சல்	-4333
ெடுக்க	-4334
▁அழுத்த	-4335
▁அறிந்து	-4336
▁வழியில்	-4337
▁விமானம்	-4338
▁முஸ்லிம்	-4339
▁வார்டு	-4340
▁ராணுவம்	-4341
▁ஒப்புதல்	-4342
▁கட்டுமான	-4343
▁விபத்தில்	-4344
▁70	-4345
லியா	-4346
▁காப்ப	-4347
▁அந்தத்	-4348
▁இயற்கை	-4349
▁அமெரிக்காவின்	-4350
தூ	-4351
வழி	-4352
கொலை	-4353
திரு	-4354
▁உள்ளட	-4355
ளித்தார்	-4356
▁துறைமுக	-4357
▁கோவிலுக்கு	-4358
▁வளாகத்தில்	-4359
▁கும்பாபிஷேகம்	-4360
▁எதிர்க்கட்சிகள்	-4361
ol	-4362
நான்	-4363
ார்ட்	-4364
▁டிக்க	-4365
▁நீங்க	-4366
▁பிரசா	-4367
▁வருகிற	-4368
▁ஈடுபட்டனர்	-4369
▁2017	-4370
▁சமாஜ்	-4371
▁வீட்டை	-4372
▁அலுவலகம்	-4373
▁தேவையில்	-4374
▁முன்னிலையில்	-4375
▁வெளியிட்டுள்ள	-4376
மட்டு	-4377
▁மணிய	-4378
▁சிறும	-4379
▁விசேட	-4380
ிருப்பு	-4381
▁சூப்பர்	-4382
▁படித்து	-4383
▁அறிவியல்	-4384
▁G	-4385
▁L	-4386
ழல்	-4387
▁மழ	-4388
▁எட்டு	-4389
▁உண்மையில்	-4390
▁வந்துள்ளது	-4391
▁வலியுறுத்தி	-4392
ing	-4393
▁எல்	-4394
▁டிஜ	-4395
ாட்டி	-4396
லையும்	-4397
▁இந்தி	-4398
▁நியாய	-4399
▁பேரில்	-4400
▁முடிவை	-4401
▁வெள்ளி	-4402
▁செலுத்து	-4403
▁இங்கிலாந்து	-4404
▁அமைந்துள்ளது	-4405
ஸி	-4406
களு	-4407
பக்ச	-4408
ம்மா	-4409
▁பிக்	-4410
▁இணையதள	-4411
▁கையெழு	-4412
▁கொடியேற்ற	-4413
▁35	-4414
ஸ்பெ	-4415
▁கவர்	-4416
▁புலி	-4417
▁சாம்ப	-4418
▁தீபார	-4419
▁தென்க	-4420
மாகவும்	-4421
▁அறிந்த	-4422
▁களத்தில்	-4423
▁கொண்டுவர	-4424
ர்களுக்கும்	-4425
▁அதிர்ச்சியை	-4426
▁75	-4427
ஸ்கர்	-4428
▁மர்ம	-4429
▁வாங்கிய	-4430
▁சந்திப்பு	-4431
.8	-4432
ொன்ற	-4433
▁அண்	-4434
▁ஆசை	-4435
▁கனி	-4436
▁ராய	-4437
▁குளி	-4438
வையும்	-4439
▁வகையான	-4440
▁இவ்வளவு	-4441
▁நபர்கள்	-4442
▁வெளியேறி	-4443
▁குற்றவாளி	-4444
▁நேரங்களில்	-4445
நாள	-4446
▁மூட	-4447
▁முகா	-4448
க்குறை	-4449
▁அனுபவ	-4450
▁பொறிய	-4451
▁மேயர்	-4452
க்கொள்க	-4453
▁ராஜபக்ச	-4454
om	-4455
தலாக	-4456
னிவா	-4457
நாதர்	-4458
டையில்	-4459
▁செய்யலாம்	-4460
ூரு	-4461
ேட்	-4462
▁தீய	-4463
▁ஸ்த	-4464
▁2014	-4465
ட்சுமி	-4466
▁மரணம்	-4467
இது	-4468
ரத்	-4469
▁பட்டா	-4470
▁ஆப்கானி	-4471
▁வெளிப்பட	-4472
▁ஒப்பந்தம்	-4473
▁பில்லியன்	-4474
ாகப்	-4475
வுள்ளது	-4476
▁தமிழர்	-4477
யான	-4478
வடை	-4479
ாலய	-4480
▁சட	-4481
▁பின	-4482
▁விய	-4483
ிட்டல்	-4484
▁இழந்து	-4485
▁மரியாதை	-4486
▁குறைந்து	-4487
▁பகுதியாக	-4488
▁அதிகரித்துள்ளது	-4489
த்தர	-4490
▁பொதுக்குழுவ	-4491
▁சிரம	-4492
▁ஜான்	-4493
▁ராமர்	-4494
▁காஞ்சி	-4495
▁வென்று	-4496
▁வந்தால்	-4497
▁எனப்படும்	-4498
▁காலங்களில்	-4499
▁உத்தரப்பிரதேச	-4500
).	-4501
ேஷ	-4502
▁துரை	-4503
▁விக்	-4504
▁தோன்ற	-4505
▁நானும்	-4506
வதற்கும்	-4507
▁ஏற்றுமதி	-4508
▁தெரியாது	-4509
▁தொடர்ந்த	-4510
▁c	-4511
வாதம்	-4512
▁மீறி	-4513
▁சந்தோ	-4514
▁தண்ணீ	-4515
▁அபிஷேக	-4516
▁அடைந்து	-4517
▁இலங்கைக்கு	-4518
.7	-4519
▁லே	-4520
ென்ன	-4521
▁அட்ட	-4522
▁சிரி	-4523
▁விலங்கு	-4524
▁வெற்றிக	-4525
▁சட்டப்பே	-4526
▁நகராட்சி	-4527
▁விக்கெட்	-4528
▁கள்ளக்குறிச்சி	-4529
▁குழந்தைகளுக்கு	-4530
▁அன	-4531
பாபு	-4532
ராம்	-4533
▁கமல்	-4534
▁மிகப்	-4535
▁அமைத்து	-4536
▁இறுதியில்	-4537
▁பட்டியலில்	-4538
கரன்	-4539
த்திரி	-4540
▁நேற்ற	-4541
▁தலைநகர்	-4542
▁முன்னணி	-4543
▁பரபரப்பு	-4544
▁அமைந்துள்ள	-4545
▁ஏழை	-4546
ையைச்	-4547
▁தேனி	-4548
▁வீசி	-4549
▁ஒற்று	-4550
வருகிறது	-4551
▁இச	-4552
காஷ்	-4553
▁சார	-4554
.....	-4555
▁நேரு	-4556
▁ஆணையர்	-4557
▁பெருமை	-4558
த்தினால்	-4559
▁கண்டனம்	-4560
▁சான்றித	-4561
▁முஸ்லிம	-4562
▁விடுமுறை	-4563
▁வேலைத்திட்ட	-4564
ிழ	-4565
ாதி	-4566
.202	-4567
▁உலகள	-4568
▁ஓவரில்	-4569
▁பிள்ளை	-4570
ent	-4571
மென	-4572
ாவள	-4573
▁மண்	-4574
▁நிராக	-4575
முருகன்	-4576
▁உள்நாட்டு	-4577
ay	-4578
▁லோ	-4579
வாரி	-4580
▁500	-4581
▁செய்யப்பட்டார்	-4582
ட்ச்	-4583
மாகவே	-4584
▁அமைய	-4585
▁ஜம்மு	-4586
▁நிலம்	-4587
▁யாதவ்	-4588
ாயிற்று	-4589
▁செய்தால்	-4590
▁தற்காலிக	-4591
ணியின்	-4592
முறையை	-4593
▁கர்நாட	-4594
▁அமர்ந்த	-4595
▁வேண்டுமெ	-4596
▁கோயிலுக்கு	-4597
▁பழனிச்சாமி	-4598
▁மட்டுமின்றி	-4599
▁எடுக்கப்படும்	-4600
பாச	-4601
ல்வி	-4602
▁ஆடை	-4603
▁ஒடி	-4604
▁பங்க	-4605
▁தள்ளி	-4606
முறையாக	-4607
▁காலநிலை	-4608
▁செயல்படு	-4609
▁இதனையடுத்து	-4610
▁செய்தியாளர்களை	-4611
▁உப	-4612
ம்தா	-4613
▁யோகி	-4614
▁நாராய	-4615
ிருக்கு	-4616
▁பேசும்	-4617
▁அமர்ந்து	-4618
▁அச்சுறுத்த	-4619
▁கேள்விக்கு	-4620
▁தொண்டர்கள்	-4621
▁கலந்துரையாட	-4622
▁p	-4623
▁ஆழ	-4624
▁பூம	-4625
ுரிமை	-4626
▁ஒருமுறை	-4627
▁பெற்றார்	-4628
▁பங்கேற்று	-4629
▁உத்தரவிட்டு	-4630
▁அறிவித்துள்ளது	-4631
▁காம	-4632
வுள்ள	-4633
ட்டியில்	-4634
▁கட்சித்	-4635
▁ஆண்டுக்கு	-4636
▁இணையத்தில்	-4637
▁திட்டங்களை	-4638
ஆவது	-4639
▁ப்ள	-4640
ங்களே	-4641
னிடம்	-4642
▁பலன்	-4643
▁ஊக்கு	-4644
▁வைக்கும்	-4645
▁செய்திகள்	-4646
கிய	-4647
▁80	-4648
வர்த	-4649
ீட்ட	-4650
▁உடலில்	-4651
▁ஆட்சியர்	-4652
▁எந்தவொரு	-4653
▁எதிர்பார்த்த	-4654
▁உளவு	-4655
▁சாய்	-4656
▁பாதை	-4657
▁படத்தை	-4658
ிக்கொள்ள	-4659
▁எவ்வாறு	-4660
த்திற்குப்	-4661
ிருக்கிறேன்	-4662
▁கூறப்பட்டுள்ளது	-4663
""	-4664
ண்முக	-4665
▁மெட்	-4666
▁வண்ண	-4667
▁வழிக	-4668
த்தீவு	-4669
▁மன்னி	-4670
▁கூறும்	-4671
▁நினைத்து	-4672
▁என்பதுதான்	-4673
பந்த	-4674
▁மன்ற	-4675
▁முனை	-4676
▁அமல்ப	-4677
▁ஒருநாள்	-4678
▁வாடிக்க	-4679
▁தமிழிடம்	-4680
▁பாராட்டு	-4681
▁லோக	-4682
ாவால்	-4683
▁சண்ட	-4684
▁அகற்ற	-4685
▁கம்யூ	-4686
க்குமாறு	-4687
ளிக்கும்	-4688
▁படங்கள்	-4689
▁கொண்டிருக்கிறது	-4690
▁எண்	-4691
▁மலைய	-4692
லாந்து	-4693
ளியில்	-4694
▁இறங்கி	-4695
▁எச்சரி	-4696
▁இயக்குந	-4697
▁திருப்பதி	-4698
▁பிரிட்டன்	-4699
▁இடத்திற்கு	-4700
▁எழுந்துள்ளது	-4701
-2	-4702
ன்கு	-4703
▁ஐபி	-4704
▁கஷ்ட	-4705
▁வலம்	-4706
▁வெகு	-4707
▁திறன்	-4708
▁கப்பல்	-4709
▁டிஜிட்டல்	-4710
▁மாநாட்டில்	-4711
்	-4712
▁	-4713
க	-4714
த	-4715
ி	-4716
ு	-4717
ர	-4718
ப	-4719
ட	-4720
ம	-4721
ா	-4722
வ	-4723
ல	-4724
ன	-4725
ை	-4726
ய	-4727
ற	-4728
ள	-4729
ச	-4730
ந	-4731
.	-4732
அ	-4733
ே	-4734
ண	-4735
இ	-4736
ெ	-4737
ோ	-4738
,	-4739
எ	-4740
ங	-4741
ொ	-4742
ழ	-4743
ீ	-4744
ூ	-4745
ஆ	-4746
உ	-4747
ஸ	-4748
ஜ	-4749
ஒ	-4750
0	-4751
2	-4752
1	-4753
ஏ	-4754
ஷ	-4755
"	-4756
-	-4757
5	-4758
3	-4759
ஹ	-4760
ஞ	-4761
:	-4762
4	-4763
?	-4764
ஓ	-4765
'	-4766
9	-4767
6	-4768
a	-4769
7	-4770
8	-4771
e	-4772
ஊ	-4773
)	-4774
(	-4775
!	-4776
ஐ	-4777
`	-4778
i	-4779
n	-4780
o	-4781
t	-4782
ஈ	-4783
ஃ	-4784
r	-4785
s	-4786
l	-4787
d	-4788
h	-4789
;	-4790
c	-4791
u	-4792
m	-4793
A	-4794
ௌ	-4795
S	-4796
p	-4797
C	-4798
I	-4799
T	-4800
g	-4801
P	-4802
y	-4803
M	-4804
B	-4805
%	-4806
N	-4807
D	-4808
R	-4809
v	-4810
k	-4811
E	-4812
w	-4813
f	-4814
b	-4815
O	-4816
/	-4817
G	-4818
L	-4819
‛	-4820
F	-4821
V	-4822
H	-4823
K	-4824
U	-4825
W	-4826
j	-4827
J	-4828
+	-4829
x	-4830
Y	-4831
&	-4832
z	-4833
X	-4834
#	-4835
*	-4836
Q	-4837
Z	-4838
ஶ	-4839
@	-4840
q	-4841
=	-4842
ा	-4843
_	-4844
₹	-4845
र	-4846
े	-4847
ஔ	-4848
[	-4849
]	-4850
क	-4851
न	-4852
	-4853
्	-4854
$	-4855
ी	-4856
म	-4857
ि	-4858
प	-4859
स	-4860
ं	-4861
ह	-4862
ो	-4863
­	-4864
	-4865
त	-4866
ल	-4867
व	-4868
द	-4869
>	-4870
ग	-4871
௦	-4872
य	-4873
ज	-4874
ब	-4875
£	-4876
श	-4877
ू	-4878
भ	-4879
•	-4880
ા	-4881
~	-4882
°	-4883
ए	-4884
ट	-4885
ध	-4886
	-4887
ु	-4888
ન	-4889
😂	-4890
\	-4891
§	-4892
अ	-4893
ख	-4894
च	-4895
ै	-4896
મ	-4897
‍	-4898
·	-4899
ل	-4900
इ	-4901
ड	-4902
ण	-4903
ष	-4904
જ	-4905
ે	-4906
௧	-4907
௫	-4908
★	-4909
×	-4910
é	-4911
ا	-4912
आ	-4913
ई	-4914
थ	-4915
ौ	-4916
ક	-4917
ત	-4918
ર	-4919
ી	-4920
્	-4921
⁠	-4922
❔	-4923
	-4924
	-4925
<	-4926
õ	-4927
÷	-4928
š	-4929
و	-4930
ي	-4931
औ	-4932
घ	-4933
छ	-4934
़	-4935
।	-4936
ટ	-4937
ય	-4938
વ	-4939
સ	-4940
௨	-4941
௩	-4942
′	-4943
⁄	-4944
●	-4945
◾	-4946
⦁	-4947
^	-4948
{	-4949
}	-4950
®	-4951
Á	-4952
å	-4953
í	-4954
ñ	-4955
ô	-4956
ö	-4957
ł	-4958
ō	-4959
ʻ	-4960
̈	-4961
إ	-4962
د	-4963
ر	-4964
س	-4965
م	-4966
ه	-4967
उ	-4968
फ	-4969
અ	-4970
આ	-4971
ઉ	-4972
ઓ	-4973
ખ	-4974
ણ	-4975
થ	-4976
દ	-4977
પ	-4978
ફ	-4979
ભ	-4980
લ	-4981
િ	-4982
ો	-4983
௬	-4984
௭	-4985
௹	-4986
‟	-4987
€	-4988
⏩	-4989
	-4990
	-4991
👇	-4992
💥	-4993
😊	-4994
😐	-4995
😲	-4996
