<unk>	0
<s>	0
</s>	0
▁.	-3.29105
▁ప	-4.06971
▁క	-4.27657
▁,	-4.32659
▁ు	-4.32821
ల	-4.36858
▁ారు	-4.38613
▁వ	-4.38978
▁మ	-4.47279
▁అ	-4.4908
▁స	-4.55605
▁ి	-4.59602
▁్	-4.66974
▁లో	-4.68004
▁ం	-4.69694
ర	-4.87302
▁ర	-4.90905
▁న	-4.91167
ి	-4.92961
▁త	-4.92975
▁ల	-5.0498
▁ించ	-5.06371
▁ున్న	-5.07955
▁బ	-5.08
క	-5.09631
▁ప్ర	-5.12231
▁కు	-5.18041
▁ఆ	-5.21163
▁ను	-5.22528
ా	-5.24817
త	-5.34173
▁ా	-5.37648
▁గా	-5.42766
▁ఈ	-5.43564
▁జ	-5.45852
ే	-5.48939
ట	-5.52301
▁ిన	-5.53818
న	-5.54757
▁ే	-5.59767
▁ని	-5.60911
▁ింది	-5.61805
ని	-5.62905
ప	-5.66524
▁గ	-5.68448
▁లు	-5.72546
▁భ	-5.77701
▁	-5.77824
వ	-5.79392
▁కి	-5.79842
▁తో	-5.80111
▁ఇ	-5.84611
▁చ	-5.87594
మ	-5.89474
▁స్	-5.92995
▁2	-5.9383
▁ద	-5.95346
▁0	-5.96679
▁ాయి	-5.96953
▁ీ	-5.97704
▁చేస	-5.98596
▁ఎ	-5.99064
▁ుల	-6.00272
▁పై	-6.03448
▁హ	-6.084
▁్ర	-6.09734
ు	-6.10043
▁"	-6.13441
▁ర్	-6.17201
▁1	-6.17985
▁ాల	-6.22162
▁ిస్త	-6.23549
న్న	-6.25512
▁ట	-6.25773
▁ంగా	-6.27703
▁ంలో	-6.27887
్	-6.28162
లో	-6.28542
▁ులు	-6.3006
▁ఫ	-6.30404
▁ఉన్న	-6.31595
▁ుంది	-6.34174
▁నుంచి	-6.34437
▁కూడా	-6.34914
▁చేశ	-6.35576
ం	-6.36328
▁డ	-6.37153
య	-6.37362
ుక	-6.38261
▁ుత	-6.39692
గ	-6.40817
ో	-6.42129
▁చేయ	-6.42204
ీ	-6.4248
▁ానికి	-6.48633
డ	-6.49176
▁చేస్త	-6.4923
▁వి	-6.50716
▁:	-6.51006
▁ాన్ని	-6.53048
▁న్	-6.543
▁తె	-6.54675
▁ో	-6.56393
స	-6.57996
▁ాలని	-6.58192
▁డం	-6.59018
▁ఏ	-6.59468
▁కా	-6.59878
▁ఉ	-6.61221
▁చెప్	-6.61525
▁ూ	-6.68821
▁ార్టీ	-6.69108
▁ుడు	-6.69355
ెడ్డ	-6.70049
ుత్వ	-6.70852
▁నే	-6.71417
గా	-6.72685
▁ాడు	-6.72693
▁శ	-6.72867
▁(	-6.73057
▁ధికా	-6.73843
▁ాలు	-6.74644
▁తన	-6.76611
కు	-6.79744
ీసుక	-6.80337
▁)	-6.81787
▁్త	-6.82216
▁ారని	-6.83094
▁ఆయన	-6.83816
ద	-6.85419
▁ందుకు	-6.85431
ను	-6.85524
▁రెస్	-6.8594
▁3	-6.86073
▁-	-6.86117
▁ోంది	-6.88781
ాల	-6.89032
▁వచ్చ	-6.89047
▁అన్న	-6.89252
▁ఒక	-6.89835
▁5	-6.90688
ద్ద	-6.91095
▁తెలి	-6.91941
▁ట్	-6.92348
▁నిర్	-6.92392
▁ింగ్	-6.92715
▁మంది	-6.93946
▁ీఆర్	-6.93985
▁4	-6.94797
▁న్న	-6.96073
▁రూ	-6.96112
▁్లో	-6.96763
▁ుంట	-6.9759
ెట్ట	-6.97658
ంగా	-6.9768
▁్య	-6.98026
▁ల్	-6.98043
▁సం	-7.00061
ిన	-7.00084
▁లోని	-7.00103
▁రోజు	-7.00674
▁ుక	-7.0153
▁ఓ	-7.01559
▁ఉంట	-7.01795
▁9	-7.02053
▁నా	-7.03226
▁చేసి	-7.03304
▁ారం	-7.03975
▁ంత్రి	-7.04338
▁రాష్	-7.04994
▁ఎన్న	-7.05027
▁రా	-7.05341
▁య	-7.06005
ాంగ్	-7.06258
▁మా	-7.07074
▁ిక	-7.07456
▁ఉండ	-7.07743
జ	-7.08368
▁ిల్లా	-7.08861
ె	-7.09113
▁మే	-7.09377
▁కోసం	-7.09639
▁ప్రజ	-7.09938
బ	-7.12108
హ	-7.12249
▁పె	-7.12799
▁టీ	-7.14126
▁లే	-7.1592
నే	-7.16101
ణ	-7.16443
▁ఇప్ప	-7.17559
▁పాటు	-7.17717
▁వ్య	-7.18341
▁ఆర్	-7.18787
▁?	-7.19237
▁ాబాద్	-7.19377
▁ష	-7.19986
ష్ట	-7.2031
▁కల	-7.20327
▁సమ	-7.20361
▁లంగాణ	-7.21361
్ర	-7.21394
▁డంతో	-7.21421
▁అయిత	-7.22501
▁లేదు	-7.2259
▁్యక్	-7.2269
▁రాజ	-7.23076
▁దేశ	-7.23138
▁కుండా	-7.23812
ార్య	-7.2578
▁వస్త	-7.26764
▁8	-7.26943
▁ై	-7.27165
▁య్య	-7.27239
▁ఇచ్చ	-7.27449
▁తమ	-7.27726
▁ఐ	-7.27851
▁చంద్ర	-7.29102
▁6	-7.30334
▁ేంద్ర	-7.30461
▁తర్వ	-7.31122
▁7	-7.31364
▁ామని	-7.32057
ంద	-7.33469
▁ాలి	-7.33557
▁ైన	-7.34231
▁ినిమా	-7.34454
▁చాల	-7.35133
▁ాలను	-7.36003
▁ీజేపీ	-7.36086
▁మైన	-7.36387
ోలీస	-7.3671
▁డీ	-7.37245
▁అంద	-7.37737
▁అనే	-7.38102
▁ట్లు	-7.38469
▁మరో	-7.39509
▁చె	-7.40267
మె	-7.40333
▁ఉంది	-7.40707
▁ఏర్ప	-7.40836
▁కొ	-7.40894
▁చెంద	-7.41101
▁శ్రీ	-7.41513
▁చేర	-7.4158
▁బాబు	-7.4176
▁ోవ	-7.44274
▁సీఎం	-7.44586
▁ార	-7.45035
ల్ల	-7.45369
▁ఎమ్మ	-7.46569
ించ	-7.47
▁ಿ	-7.47044
▁పడ	-7.47195
ధ	-7.47512
ిస్త	-7.48393
ళ్ల	-7.48963
▁ల్లో	-7.49353
▁లాంట	-7.49564
▁క్కువ	-7.49599
▁మధ్య	-7.51086
▁ాం	-7.51252
▁ణ	-7.51561
▁ఖ	-7.51983
▁కోట్ల	-7.52177
▁సమయం	-7.52852
▁ది	-7.53273
బంధ	-7.53654
▁రెండు	-7.54874
ఎ	-7.54999
▁ఎం	-7.5541
▁ిత	-7.55421
▁ాల్స	-7.55473
▁ించి	-7.55627
▁ె	-7.55633
▁కే	-7.5579
▁యూ	-7.56076
▁టు	-7.56387
▁ఎస్	-7.56723
▁టిక	-7.57035
తో	-7.57047
▁క్రమ	-7.57102
ొత్త	-7.57109
▁వెళ్	-7.57383
▁ుందని	-7.57452
▁చ్చ	-7.5794
▁సి	-7.59081
ాట్ల	-7.59344
▁దీంత	-7.59496
ప్ప	-7.59547
▁వరకు	-7.59925
ుత	-7.60023
▁నెల	-7.60328
▁ాల్	-7.60606
▁జరిగ	-7.61734
▁హైదర	-7.62808
▁ొన్న	-7.63365
▁మ్మ	-7.64595
▁కానీ	-7.64609
▁మీ	-7.65325
▁కుమార	-7.65579
▁ముందు	-7.66392
▁డాని	-7.66408
▁ెల్యే	-7.67156
నిప	-7.67458
▁ోర్టు	-7.67552
▁్థాన	-7.67555
వకాశ	-7.67563
▁దా	-7.68091
▁ప్ప	-7.68285
▁ధ	-7.68356
▁చి	-7.68639
▁క్ర	-7.68694
▁ేషన్	-7.69172
▁వారి	-7.69218
▁హించ	-7.69235
▁ుగా	-7.69445
▁భార	-7.69724
ది	-7.70118
▁స్ప	-7.70177
▁రించ	-7.70256
▁చూస	-7.70334
▁ాయని	-7.70592
్యా	-7.70942
▁సె	-7.71481
▁లా	-7.71903
▁ఎన్	-7.71978
▁మార	-7.7217
▁సు	-7.72763
▁ాడ	-7.72767
ెలిప	-7.72877
▁್	-7.72923
▁డి	-7.73174
▁వేల	-7.73537
్య	-7.73543
▁గుర	-7.7374
▁దీని	-7.74107
▁ండ్	-7.74398
వుత	-7.74583
▁లకు	-7.7522
▁పని	-7.75558
▁ిక్	-7.76425
▁ళ్ల	-7.76951
▁ఇది	-7.77643
▁ాన	-7.77709
▁రిక	-7.78024
వేశ	-7.78118
▁కో	-7.78485
▁సారి	-7.79223
పై	-7.79415
ంత	-7.79851
లు	-7.80182
▁ినట్	-7.80499
▁థ	-7.81213
▁జగన్	-7.81226
▁పట్ట	-7.81871
ల్లో	-7.82058
▁విషయ	-7.82602
▁వల్ల	-7.82796
▁లేదని	-7.83176
ష	-7.83592
▁స్ట	-7.83752
▁రామ	-7.84023
▁నూ	-7.84989
▁లక్ష	-7.85182
▁అభ్య	-7.85469
▁రీ	-7.8587
▁ఇవ్వ	-7.85932
ొ	-7.87425
▁నాయ	-7.87459
▁్వార	-7.87718
ధాన	-7.87917
▁బా	-7.88061
▁కేస	-7.88209
▁రైతు	-7.88429
▁సీ	-7.88512
▁రావు	-7.89
▁ఒ	-7.89063
్యాప	-7.89072
▁విద్య	-7.89089
▁వారు	-7.89244
▁ొన్ని	-7.89533
▁ీడియ	-7.90288
▁ద్యో	-7.90327
▁ು	-7.90333
▁విజయ	-7.90397
▁కావ	-7.90744
▁సభ	-7.90788
▁నీ	-7.91371
▁ల్ల	-7.91482
▁దు	-7.91862
▁ుటుం	-7.91909
్రకట	-7.91919
▁చెబ	-7.91949
▁ము	-7.9205
▁కోర	-7.92192
▁గంటల	-7.92722
▁ರ	-7.92732
▁ూర్తి	-7.92891
▁ూరు	-7.93072
▁శాఖ	-7.93503
ిక	-7.93915
▁పల్లి	-7.94401
చ	-7.94598
▁ఛ	-7.94677
▁లక్షల	-7.94943
▁్యాం	-7.95011
▁గ్రా	-7.95824
▁పరిస	-7.95835
▁ట్ర	-7.96246
ಾ	-7.96304
▁ఇక	-7.96451
ేర్క	-7.96477
▁ాజ	-7.96866
▁వీ	-7.97721
▁ఏపీ	-7.97725
▁పరి	-7.9906
పు	-7.99231
▁ొన	-7.99632
బ్బ	-7.99722
▁మహిళ	-7.99741
▁కర	-8.00086
▁తప్ప	-8.00221
▁పోటీ	-8.00593
▁మెంట్	-8.00651
▁గత	-8.00724
▁్రమా	-8.00766
ందని	-8.00907
▁ట్టు	-8.01301
▁'	-8.01387
ింద	-8.01624
▁ెలుగు	-8.02035
▁ొ	-8.02146
▁తగ్గ	-8.02233
▁ారంభ	-8.02455
▁అయ్య	-8.02626
ంచి	-8.02807
▁వె	-8.02888
▁పీ	-8.03178
▁ినా	-8.03299
▁ఇన్	-8.03355
▁ప్రస	-8.03468
▁్తుతం	-8.03477
▁ాయ	-8.03514
ాజీ	-8.03998
డుత	-8.04089
▁భారత	-8.04499
▁షా	-8.04527
▁భారత్	-8.04662
ాత్ర	-8.05113
▁జీ	-8.05476
▁ನ	-8.05616
రుగ	-8.05805
▁ుడి	-8.05985
▁కేట	-8.06163
▁ప్రత	-8.0621
▁సంస్థ	-8.06291
▁ాస్	-8.06377
▁ంట్	-8.06443
▁వై	-8.06655
▁ిపోయ	-8.07214
▁్లీ	-8.0722
▁ందులో	-8.07258
▁రణ	-8.07601
.	-8.07604
▁యత్న	-8.08105
▁ఢి	-8.08506
▁ింపు	-8.08521
▁బీ	-8.08622
ిర్ణ	-8.0901
▁ఎంపీ	-8.09046
▁కేసు	-8.09061
▁అస	-8.09205
▁పద	-8.0969
▁బ్యా	-8.09699
▁తీవ	-8.09868
▁ేవంత్	-8.09982
▁ట్ల	-8.10007
▁శాతం	-8.10026
▁ధర	-8.10438
▁వాడ	-8.10612
▁వేస	-8.10614
▁కల్లో	-8.10804
▁ధాని	-8.10884
▁ిన్	-8.11485
స్	-8.12336
▁రి	-8.12511
▁స్వ	-8.12525
▁వివ	-8.12572
ంటి	-8.12604
▁యా	-8.12852
▁ఘ	-8.12892
▁ఒక్క	-8.13025
▁్యాచ్	-8.13375
▁మూడు	-8.13922
▁మి	-8.14243
▁కాల	-8.14412
ెలుస	-8.14635
▁డీపీ	-8.15088
▁స్ట్	-8.1542
▁్క	-8.15805
▁ాత్రం	-8.15819
▁్యం	-8.16173
▁ఇస్త	-8.16191
▁ాలో	-8.16225
▁!	-8.16718
▁మరి	-8.16813
▁ర్ల	-8.16873
▁సా	-8.16916
తి	-8.1701
▁హై	-8.17387
▁గుర్	-8.17865
▁సూచ	-8.18082
▁పవన్	-8.18204
▁కలిసి	-8.18212
▁తే	-8.18339
▁త్యే	-8.18384
▁ర్థ	-8.18469
▁రె	-8.1855
సాగ	-8.18888
▁ఘటన	-8.1923
▁యం	-8.19272
▁ొత్త	-8.19404
▁దేశ్	-8.19529
▁తిర	-8.19532
▁్ప	-8.19556
▁ిడుదల	-8.19593
▁ఫ్	-8.19656
▁రిగి	-8.20268
▁సాధ	-8.20318
▁జన	-8.20332
▁వా	-8.20463
ోగ్య	-8.20749
ీలక	-8.20849
▁ದ	-8.20914
▁దే	-8.21078
ిస	-8.21253
ంట	-8.21419
▁సై	-8.21596
క్	-8.21674
▁దాని	-8.21977
ాటి	-8.21995
▁ీడియో	-8.22012
▁పంప	-8.22325
▁దేవ	-8.22361
▁ింద	-8.2254
▁మన	-8.22639
▁ఉందని	-8.22682
▁్వ	-8.2269
ాళ్ల	-8.22779
▁స్థ	-8.22946
▁్రశ్న	-8.22974
ాయ	-8.23197
▁ార్క	-8.23201
▁కారణం	-8.23295
ియోజ	-8.23403
▁క్క	-8.23508
▁రు	-8.23621
ళ	-8.23632
▁వైపు	-8.23856
▁ైసీపీ	-8.23965
▁త్త	-8.23967
▁ుడ	-8.24055
▁ళ	-8.24735
▁గ్	-8.24818
▁ంలోని	-8.24968
▁వార	-8.25016
▁పూర్	-8.25024
వర్గ	-8.25249
▁ుని	-8.2526
క్కడ	-8.25303
▁గురు	-8.25828
▁ైనా	-8.25904
▁ుఖ్య	-8.26197
▁ాలకు	-8.26431
▁క్ష	-8.26455
▁ామ	-8.2652
▁ేష్	-8.26572
్తుల	-8.26638
ూ	-8.26659
▁ున	-8.27154
▁క్యా	-8.27445
▁ార్	-8.27473
▁్యంలో	-8.27481
▁ిల్ల	-8.27536
▁చూప	-8.27546
▁కర్	-8.27555
ందర	-8.27649
▁గో	-8.27699
▁ವ	-8.27816
▁్రాం	-8.27837
▁త్వ	-8.27853
▁కారం	-8.28435
▁ోయ	-8.28475
▁ି	-8.28526
▁ార్థ	-8.28675
▁్యా	-8.28759
ేక	-8.28767
▁టి	-8.2892
▁కాదు	-8.29204
▁డించ	-8.29245
▁అభి	-8.29313
▁పు	-8.29339
▁రెండ	-8.29385
ెంబ	-8.29525
▁్భ	-8.29555
▁ముగ	-8.29951
▁డ్	-8.30035
▁కీ	-8.3025
న్	-8.30424
▁కృష్ణ	-8.30426
▁తీర	-8.30445
▁అను	-8.30487
▁దర్శ	-8.30666
▁ాహ	-8.30838
▁పోల	-8.30873
▁అవసర	-8.30938
▁్చ	-8.31003
▁ండ్ల	-8.31281
ాల్గ	-8.31292
కీయ	-8.31415
ీద	-8.3148
ొట్ట	-8.31498
ెరుగ	-8.32038
▁త్	-8.32658
▁అత	-8.32766
▁ాచారం	-8.32788
▁బాధ	-8.32989
,	-8.33346
▁నె	-8.33451
▁ంద	-8.33458
▁నిర	-8.33487
▁చ్చి	-8.33596
▁నుంది	-8.33762
▁వ్వ	-8.33776
▁పొ	-8.34161
▁నుండి	-8.34302
రిశ	-8.34769
్పటి	-8.34938
▁ుంద	-8.34971
▁ೆ	-8.3507
▁పేట	-8.35124
▁ారి	-8.35298
▁ండ	-8.35376
▁చిత్	-8.35442
▁్రంలో	-8.35524
▁ించే	-8.35587
▁ిమర్శ	-8.3561
ిమాన	-8.35714
▁ండి	-8.35944
▁ద్ద	-8.3603
▁మె	-8.36048
పంచ	-8.36107
▁ା	-8.36262
▁మ్	-8.36327
▁్థితి	-8.3641
▁బి	-8.36528
ے	-8.36565
▁ాంతా	-8.36588
▁నగర్	-8.36622
▁ేలా	-8.36768
▁ఇంటి	-8.36988
ార్ల	-8.37158
▁లుగు	-8.37167
▁ఎంత	-8.37169
▁శ్ర	-8.37341
▁వీర	-8.37654
▁ంపెనీ	-8.38013
పట్ట	-8.38026
▁మొదట	-8.38163
ంచ	-8.38345
▁ద్	-8.38547
▁ేస	-8.38644
▁ఆదేశ	-8.38698
▁లేదా	-8.39092
▁తొల	-8.3921
▁ుస్త	-8.39299
▁ాజా	-8.39333
▁ంది	-8.39445
▁ప్రా	-8.3954
▁క్రి	-8.39561
▁୍	-8.39981
ుఖ్య	-8.40008
▁రుగు	-8.40222
▁మస్య	-8.40358
▁ంత	-8.40569
▁ంజ	-8.40671
▁ౌ	-8.4089
▁ోదీ	-8.40932
▁అమ్మ	-8.41024
▁లోకి	-8.41101
▁ెంబర్	-8.41128
▁పుర	-8.4123
మ్మ	-8.41285
▁సోషల	-8.41387
▁చర్చ	-8.41599
▁పొంద	-8.41718
ెళ్ల	-8.41884
▁ద్ధి	-8.41957
▁తా	-8.42025
▁కపోవ	-8.42026
▁ತ	-8.42131
▁ారికి	-8.42134
▁ఎలా	-8.4239
▁ేశ్వర	-8.42574
▁అదే	-8.42679
▁దిగ	-8.42729
▁ికి	-8.4276
▁ీన్	-8.43661
▁అక్కడ	-8.43766
▁నిజ	-8.43869
ివాస	-8.44079
▁సహా	-8.44224
▁జీవి	-8.44259
▁తీస	-8.44304
▁అంటూ	-8.44308
దేశ	-8.44368
▁ిచారణ	-8.44622
▁జాతీయ	-8.4463
▁రే	-8.44882
▁అన	-8.45015
▁రాజ్	-8.45017
▁ఎవర	-8.45357
▁ంగ	-8.45366
▁ప్	-8.45393
▁టం	-8.45634
▁విషయం	-8.45651
ాగా	-8.4574
▁ెంట్	-8.45761
▁ಕ	-8.45845
▁నేత	-8.45932
ంలో	-8.45982
▁త్తు	-8.46416
ెల్ల	-8.4652
▁వ్యవ	-8.46529
లను	-8.46577
▁వుత	-8.46962
▁మెరి	-8.47062
ిర్వ	-8.47066
▁ర్యలు	-8.47334
▁ాణ	-8.47404
▁దగ్గర	-8.47407
▁నేతలు	-8.47477
▁హీరో	-8.47491
▁ఫోన్	-8.47523
్రతి	-8.47582
▁ాదా	-8.47994
▁ంతా	-8.48101
▁ుకోవ	-8.48308
▁ంటే	-8.48312
▁కె	-8.48484
ెంచ	-8.48541
▁భావ	-8.48687
▁ఏడాది	-8.48706
▁హత్య	-8.48715
▁ీర్	-8.48877
ాజ	-8.48919
▁దాడి	-8.495
▁నిల	-8.50065
▁10	-8.50389
▁ట్రా	-8.50442
▁ట్ట	-8.50497
▁ఆరోప	-8.50615
▁గాంధీ	-8.50826
▁ిందే	-8.51322
▁ఠ	-8.51374
▁పాల	-8.51464
▁లోనే	-8.51547
▁డిమ	-8.5172
▁మార్	-8.51885
▁రావ	-8.519
▁ఇదే	-8.51986
▁వర్	-8.52072
▁⁬	-8.52256
▁క్ల	-8.52641
ృష్ట	-8.52667
▁రుణ	-8.52679
▁పేరు	-8.52768
▁అంటే	-8.52898
ెరిగ	-8.52915
▁ీల	-8.53005
ట్ట	-8.53136
▁్యూ	-8.53206
▁ಯ	-8.53304
▁అంశ	-8.53307
లాగే	-8.53375
▁దారు	-8.53469
ంవత	-8.53545
▁ొచ్చ	-8.54241
▁అధ్య	-8.5432
▁మో	-8.54342
▁మాన	-8.54506
▁వెంక	-8.54614
▁ిట్	-8.54664
▁బయట	-8.54728
▁కాలం	-8.54894
▁ిల్	-8.55072
▁సిద్ధ	-8.55076
▁చూడ	-8.55223
▁అయిన	-8.55261
▁ಸ	-8.55474
▁ెన్	-8.55555
▁ఆడ	-8.55639
ండియ	-8.5571
▁ఏం	-8.56042
▁ప్పు	-8.56313
చార	-8.56648
▁సింగ్	-8.56658
▁నగర	-8.56736
▁ಗ	-8.56809
▁ఉప	-8.56958
ద్ధ	-8.57176
ుట్ట	-8.57255
▁ర్మ	-8.57378
▁క్షన్	-8.57396
▁రాశి	-8.57882
▁శివ	-8.57888
▁ఇలా	-8.57934
▁న్స్	-8.5799
▁ియా	-8.5811
ీటి	-8.58716
▁ెట్	-8.59027
▁ର	-8.59103
▁డ్డ	-8.59121
▁అమలు	-8.59135
▁మెంట	-8.59169
▁సాయం	-8.59288
▁స్తు	-8.59395
ాను	-8.5945
▁కూడ	-8.59474
▁ళ్	-8.59565
▁ార్డ	-8.59774
▁ంట	-8.59855
ెక్ట	-8.59874
▁ఉత్త	-8.59892
▁యు	-8.59996
▁ఇటీవ	-8.60393
▁ందోళన	-8.60436
▁ేసులో	-8.60444
ాధ	-8.60535
ాఖ	-8.60629
▁గెల	-8.60861
▁ేశ్	-8.61031
▁మహ	-8.61154
▁ున్నా	-8.61187
▁రీక్ష	-8.61427
▁ికల్	-8.61444
▁ాడుతూ	-8.61537
▁డబ్బు	-8.61765
▁వారం	-8.61785
▁భ్యు	-8.61838
▁తేదీ	-8.61854
▁ుప	-8.61891
▁జా	-8.62008
▁నంతరం	-8.62016
▁మండల	-8.62064
రువా	-8.62113
▁ిపో	-8.62136
▁తరల	-8.62257
▁దుర్	-8.62268
▁మూవీ	-8.62327
▁మోదు	-8.62928
ిత	-8.62973
▁లేద	-8.62994
▁ఉదయ	-8.63047
▁జట్టు	-8.63261
▁సహ	-8.63525
▁్తే	-8.63539
యోగ	-8.637
▁ందుకే	-8.6373
ేపథ	-8.63742
ెచ్చ	-8.63791
▁బడ	-8.64016
▁ారా	-8.64039
▁ముంద	-8.64219
▁ాలయ	-8.64339
ుభ	-8.64464
▁దక్	-8.64607
▁ోత	-8.64816
లకు	-8.65059
▁లీ	-8.65063
▁ైంది	-8.65265
▁ెత్త	-8.6542
▁ఫలి	-8.65642
ధార	-8.65721
▁నేను	-8.65819
▁ాదు	-8.6594
ಂ	-8.6616
▁భూ	-8.66189
ోస్ట	-8.66202
▁రక్ష	-8.66286
ంగ	-8.6644
▁అప్ప	-8.66585
▁్రి	-8.66652
▁ోర్ట	-8.66698
▁జారీ	-8.667
▁ఆల	-8.66834
▁ాను	-8.66964
▁చేత	-8.67301
వృ	-8.67339
త్య	-8.67369
▁్లా	-8.67628
▁గిరి	-8.67668
▁ుకు	-8.6767
▁చారం	-8.67691
▁మాట	-8.67935
▁మళ్ల	-8.68301
▁ుర	-8.68324
ూపాయ	-8.68344
▁ులను	-8.68671
▁మని	-8.69175
▁బోత	-8.69261
ాయి	-8.69385
▁ౌన్	-8.69435
▁కంటే	-8.69541
▁్యాణ్	-8.69681
▁్డారు	-8.69729
▁గ్ర	-8.69787
▁కలిగ	-8.70124
▁బె	-8.70366
యాణ	-8.70422
▁అంచనా	-8.70444
ైన	-8.70476
▁కొం	-8.70492
▁హెచ్	-8.70538
▁ొందరు	-8.70755
▁ఫొటో	-8.70878
▁ువ	-8.71012
▁పర్	-8.71099
▁ేయ	-8.71108
▁విశ్	-8.7119
▁తల్లి	-8.71381
▁అంత	-8.71406
ల్ప	-8.71649
▁వైద్య	-8.71752
▁డైర	-8.71798
▁ుర్త	-8.72084
▁ర్షా	-8.72104
▁లి	-8.72108
మాన	-8.72147
▁లె	-8.72284
▁ిగ	-8.72319
ంజ	-8.72381
▁ృ	-8.72422
▁్టేష	-8.72463
▁క్టర్	-8.7259
▁ేమ	-8.72953
▁డే	-8.73101
▁ఆంధ	-8.73176
▁హాజ	-8.73179
▁క్కడ	-8.73383
ంబ	-8.73434
▁పే	-8.73471
▁ఫిర్	-8.73593
▁అధ	-8.73634
▁నో	-8.73756
▁పక్ష	-8.73758
▁ఎక్స	-8.73852
▁అంట	-8.73861
ిపోయ	-8.73921
▁ాహుల్	-8.73967
▁వర్గ	-8.74066
▁నేతల	-8.74186
▁ెస్ట్	-8.74279
▁గానే	-8.74407
తే	-8.74413
▁దర్శన	-8.7452
▁డిస	-8.74592
▁వాద	-8.74703
▁న్యూ	-8.74716
▁ఊ	-8.74977
▁లైన్	-8.75001
ఫీస	-8.75154
▁ుండ	-8.75447
▁ార్పు	-8.75447
▁ಮ	-8.75472
▁ంచ	-8.7559
▁డాక్	-8.75609
▁జనసేన	-8.75878
్యాయ	-8.75881
▁డు	-8.75966
▁ివర	-8.76314
▁ైర్	-8.76342
▁మేరకు	-8.76372
▁సంఖ్య	-8.76385
▁వాత	-8.76509
▁గతం	-8.76613
▁అవ	-8.76619
▁పాక	-8.76626
▁సంఘ	-8.76766
▁్యు	-8.77088
్రామ	-8.7713
▁ీం	-8.77372
▁ాలుగు	-8.77466
▁వెల్	-8.77505
▁ర్ణ	-8.77765
▁ొంది	-8.77785
▁తామ	-8.77841
▁లం	-8.77967
సుక	-8.77973
▁టికె	-8.78094
ిలిచ	-8.78439
▁టంతో	-8.78533
▁ామ్	-8.78533
್	-8.78772
ావ	-8.78846
▁ిస్తే	-8.78973
▁ోర	-8.79008
▁ెంటన	-8.79157
▁సేవ	-8.79265
▁ఇత	-8.79299
▁ఆది	-8.79534
▁్మ	-8.79548
▁్టార్	-8.79665
▁ధి	-8.79721
▁క్ట	-8.79973
▁రోపణ	-8.80029
▁్థి	-8.80298
ఫ్	-8.80353
ిజ	-8.80361
▁చ్చు	-8.80365
కాల	-8.80396
▁ఇంక	-8.80619
▁ాట్	-8.8063
▁స్వా	-8.80632
ుల	-8.80993
▁మొ	-8.81017
▁ఆశ	-8.81057
▁పాలన	-8.81137
▁ాత్రి	-8.81193
▁కూల	-8.81238
▁ోత్స	-8.81421
▁కూ	-8.81616
▁ంటూ	-8.81805
▁్థు	-8.8186
▁రువు	-8.81881
▁భాగ	-8.81961
▁షన్	-8.82058
▁సీట్	-8.82123
▁మిషన్	-8.82201
▁యాత్ర	-8.82463
ధుల	-8.8266
ార్చ	-8.82706
▁ురా	-8.8272
▁ఎదుర	-8.83086
▁శుక్	-8.83129
▁ట్టి	-8.83146
▁్షుడు	-8.83414
▁ిఫ	-8.83491
▁వే	-8.83612
▁జూ	-8.83654
▁ఎల్	-8.83663
▁వైఎ	-8.83751
▁యించ	-8.83769
▁ిష	-8.83832
▁ఎఫ్	-8.84061
▁జ్	-8.84183
▁రోజ	-8.84252
▁ంలోకి	-8.8433
▁ాధ్యత	-8.8436
▁20	-8.84465
▁పాట	-8.84655
▁గు	-8.84823
▁ెగ	-8.84831
▁ಡ	-8.84956
▁ొద్ద	-8.85024
▁్సర	-8.85026
▁ాప	-8.85188
▁ఉపయో	-8.85227
▁వైరల్	-8.85237
▁్రకటన	-8.85404
▁ైట్	-8.85412
▁ుష	-8.85532
▁నంద	-8.85585
▁ఐదు	-8.85762
▁చివర	-8.8587
▁్థిత	-8.85874
తూ	-8.86051
▁ోష	-8.86065
రణ	-8.86374
▁న్ని	-8.86506
▁ోర్	-8.86642
▁ద్దతు	-8.86651
▁ంత్ర	-8.86852
▁్థ	-8.8691
▁భార్య	-8.87032
▁ెక్టు	-8.87102
రు	-8.87198
▁ఉంటే	-8.87229
▁/	-8.87261
▁డె	-8.87355
▁ంతో	-8.87532
▁ాక	-8.876
▁కౌం	-8.87699
▁సో	-8.87759
▁ాట	-8.87842
▁సౌ	-8.87952
▁ినీ	-8.88081
▁క్కు	-8.88087
▁ోడీ	-8.88169
▁్ణాటక	-8.88231
▁తయార	-8.88279
▁శా	-8.88382
▁విజయం	-8.88401
▁గల	-8.88409
▁పాత్ర	-8.88465
▁సీపీ	-8.88467
▁దర	-8.88487
▁సుప	-8.88803
▁రల్	-8.88877
ొనుగ	-8.88966
▁ర్ర	-8.8898
▁్డ	-8.89087
▁పండ	-8.8911
ండ	-8.89163
▁కట్ట	-8.8932
▁ిట్ట	-8.89457
▁బ్	-8.8949
▁ువుల	-8.90045
▁వస్థ	-8.90085
▁ధర్	-8.90155
▁శని	-8.90273
▁తీ	-8.90356
▁ాక్	-8.90369
చుక	-8.90371
▁బుల్	-8.90449
▁పూజ	-8.90487
▁మంగళ	-8.90557
▁సామ	-8.90661
▁్రా	-8.90755
▁ాటు	-8.90894
▁జ్ఞ	-8.90912
▁కమిటీ	-8.90913
▁దిల	-8.91028
▁ద్ధ	-8.91063
▁ాద	-8.9107
▁లై	-8.91075
▁ేర్	-8.91123
▁చైర్	-8.91179
▁జే	-8.91379
▁ిన్న	-8.91415
▁యువ	-8.9144
▁15	-8.91497
▁అంతర	-8.91593
▁వివా	-8.916
ాన్	-8.91748
్వామ	-8.9189
తర	-8.91934
▁ోలు	-8.91996
▁ీనియ	-8.92
▁ప్లా	-8.92005
▁విధ	-8.92126
▁ోలీస్	-8.92135
▁ెళ్లి	-8.92317
▁న్నీ	-8.92524
▁ీమ్	-8.92549
▁రవ	-8.92551
▁గణ	-8.92643
▁డిప	-8.92647
▁బ్ర	-8.9268
▁ెంట	-8.92699
▁ర్ష	-8.92987
▁ూత	-8.93158
▁్రం	-8.93169
▁ోడ్డు	-8.93296
▁రోడ్	-8.93544
▁ద్దరు	-8.93566
▁రిష్	-8.93582
▁నిప	-8.93772
▁భూమి	-8.939
శ	-8.93932
▁ోన్	-8.9399
▁చోటు	-8.94416
ెంగళ	-8.94432
▁ఆత్మ	-8.9445
్పుడ	-8.94619
▁పనులు	-8.94692
▁ాలంటే	-8.94767
▁్రమ	-8.95037
▁ర్న	-8.95273
పడ	-8.95735
▁తల	-8.95866
▁ుక్క	-8.96001
▁ెళ్ల	-8.96018
▁దని	-8.96052
▁రాజు	-8.96121
▁ర్స్	-8.96165
▁విర	-8.96168
▁ిని	-8.96258
▁కేవలం	-8.96424
▁ాయ్	-8.965
▁పరిధి	-8.96626
▁జర	-8.96797
▁కిలో	-8.96798
▁ోంద	-8.96812
్యూ	-8.96815
▁ధాన	-8.96863
▁నవ	-8.97227
▁త్వం	-8.97457
▁నడ	-8.97526
▁సమస్య	-8.9768
ెస్ట	-8.97903
▁ుల్	-8.97928
▁కూటమి	-8.9794
▁ఆరు	-8.98038
▁ిలో	-8.98269
▁బౌ	-8.98444
▁మొదల	-8.98562
▁్పు	-8.98563
▁నాడు	-8.98629
▁ుకుంట	-8.98678
▁దూరం	-8.98818
▁ైల్వే	-8.98886
▁జీవ	-8.98898
▁ర్చ	-8.98957
▁రంగ	-8.99029
▁ార్త	-8.99043
▁ుల్లో	-8.99186
▁ర్లు	-8.99246
▁ింట	-8.99247
▁యన	-8.99314
▁ేజీ	-8.99427
▁େ	-8.99734
▁ెడ్	-8.99742
▁ప్లే	-8.99754
▁పోర	-8.99774
▁ర్వ	-8.9987
▁ేజ్	-9.00029
▁ార్ట	-9.00267
▁ెయిల్	-9.0032
▁రిప	-9.00375
▁అమ	-9.00381
▁ీలో	-9.00459
▁ాగ	-9.00724
రగ	-9.00838
▁ఇండి	-9.00946
ఫ	-9.00948
▁మృతి	-9.00984
▁పా	-9.01029
▁ిధ	-9.01153
▁మహా	-9.01311
▁విన	-9.01379
▁ిటీ	-9.01431
క్ష	-9.01492
▁సూర్య	-9.01493
▁ిరుమ	-9.016
▁బస్సు	-9.01605
▁ెర	-9.01606
▁ానీ	-9.01628
ియ	-9.01698
▁ేక్ష	-9.01989
▁న్ను	-9.02017
▁సరి	-9.02061
▁సన్	-9.02076
ిప్ర	-9.02201
▁ోక	-9.02495
▁వరద	-9.02545
▁ిత్	-9.02583
▁టై	-9.02905
▁మీరు	-9.03072
ద్దర	-9.03128
▁సంత	-9.03272
▁సాగు	-9.03276
ిళ	-9.03336
▁వేశ	-9.03364
▁ఓడ	-9.03374
▁ారాయణ	-9.0346
▁ర్గా	-9.03526
▁ిలీజ్	-9.03527
▁ేది	-9.03661
▁నై	-9.03704
▁రక	-9.03793
▁యర్	-9.03916
▁30	-9.0394
▁బట్టి	-9.0405
▁ాస	-9.04099
రిగి	-9.04102
▁ఫీ	-9.04111
▁హో	-9.04252
▁తిని	-9.04315
▁ంద్ర	-9.04317
స్ట	-9.04503
▁జరు	-9.04549
▁అంతే	-9.0466
▁దొ	-9.04744
విధ	-9.04804
ిస్ట	-9.0502
▁ఆస	-9.05109
▁పక్క	-9.05198
▁ోదా	-9.05225
▁్తాన్	-9.05313
▁మరియ	-9.0532
▁విక్	-9.0543
▁ేష	-9.05549
▁12	-9.05714
▁టె	-9.05833
▁చ్	-9.05882
▁ప్రేమ	-9.05885
ుణ	-9.05913
▁కీయ	-9.05921
▁ైల	-9.0602
▁వు	-9.06293
▁ొక్క	-9.06516
▁బో	-9.06655
▁రిగ	-9.06746
▁వచ్చు	-9.06758
▁బుధ	-9.06779
▁ల్లు	-9.06952
▁వరకూ	-9.07002
▁లపై	-9.07027
ందుబ	-9.07037
▁క్వ	-9.07063
▁్యలు	-9.07084
▁ొని	-9.07114
▁ిబ	-9.07115
▁పోయ	-9.07132
▁ైవే	-9.07198
▁సొం	-9.07432
▁చర్య	-9.07455
▁భావం	-9.07511
▁రో	-9.0766
▁ీర	-9.07723
▁రిట	-9.0799
a	-9.08021
▁ర్ధ	-9.08054
▁భద్రత	-9.08169
▁గుడ	-9.08551
▁సర్వే	-9.08567
▁ుతూ	-9.08725
▁ఖర్చు	-9.08906
▁సీసీ	-9.0896
▁ొప్ప	-9.08968
▁వేదిక	-9.08973
▁ఢ	-9.09002
▁నింగ్	-9.09033
ముఖ	-9.09119
▁డియ	-9.09289
▁పాద	-9.09315
ేయ	-9.09326
▁హె	-9.0942
▁కప్	-9.09583
▁స్త	-9.09697
▁ంభ	-9.09792
▁ఓట్	-9.0993
▁స్టా	-9.1001
▁దండ	-9.10074
▁బహ	-9.10133
▁తొలగ	-9.10231
▁తర	-9.10492
▁శిక్ష	-9.10613
క్రమ	-9.10631
కూల	-9.10674
▁టో	-9.10675
ాగ	-9.10818
▁జైలు	-9.10824
▁హా	-9.10897
▁క్షిణ	-9.10898
▁హామీ	-9.11028
▁రాస	-9.11219
▁లేక	-9.11427
▁ఏద	-9.11485
▁ుండగా	-9.11487
▁ాది	-9.11792
▁డర్	-9.11835
▁కారు	-9.1187
▁తు	-9.11944
▁ెన్స్	-9.12122
▁ఉత్	-9.12172
▁సెప్	-9.12362
▁పురం	-9.12616
▁క్రియ	-9.12682
▁ావ	-9.12808
▁దీ	-9.12823
▁ుకున	-9.1285
ీస	-9.13007
▁వంత	-9.13298
▁లువు	-9.13317
▁డమే	-9.13337
ందుక	-9.13344
▁జర్	-9.13435
▁గడ	-9.13465
▁ిజర్	-9.13515
▁హర	-9.13542
ధారణ	-9.13583
▁త్తి	-9.13803
ండ్	-9.13883
▁యి	-9.1401
ివేద	-9.14023
▁ిద్యా	-9.14039
▁్రీ	-9.14182
▁వేళ	-9.14376
▁ర్కా	-9.14446
▁ఇజ్ర	-9.14481
▁ియల్	-9.14797
▁సభ్య	-9.14858
▁ಲ	-9.14915
▁ک	-9.15151
▁ఫ్ర	-9.15245
నేత	-9.15326
▁త్యం	-9.15503
▁్వామి	-9.15531
▁డా	-9.15622
▁ంగారం	-9.15665
▁ర్జున	-9.15684
▁న్స	-9.15687
▁డుగు	-9.15699
▁పథక	-9.15713
▁ీస్	-9.15747
▁క్టో	-9.15765
▁ీల్	-9.15774
▁ిల్లు	-9.15875
▁కం	-9.1591
▁వో	-9.16011
▁సర	-9.16159
▁ఉంద	-9.16568
ుస్త	-9.16625
▁అలా	-9.16717
▁యువత	-9.16748
▁దర్య	-9.16839
▁ొచ్చు	-9.16944
▁చిన్	-9.17056
▁సిటీ	-9.17074
▁నమోద	-9.17098
్ద	-9.17124
▁ాండ	-9.17149
▁టీసీ	-9.17252
▁్స్	-9.1727
▁దాడు	-9.1734
▁ేరుతో	-9.17476
▁ిశ	-9.17478
▁ిప్	-9.17502
▁్తు	-9.17617
▁మృత	-9.17635
▁ఏమ	-9.17652
▁ీవుడ్	-9.17661
▁చూ	-9.17751
▁ధిక	-9.17762
▁కవిత	-9.1777
▁తి	-9.17826
▁ఓవర్	-9.17827
▁ాప్తు	-9.17833
▁ిజన్	-9.17834
▁నేడు	-9.17911
▁కంప	-9.17934
▁్ని	-9.17956
▁ామా	-9.18242
▁ెస్	-9.18245
▁ంగ్	-9.18566
▁దెబ్బ	-9.18601
▁బు	-9.18621
▁ేశ	-9.18771
▁వాల్	-9.18791
▁తేదీన	-9.18813
▁ులో	-9.18818
▁లర్	-9.18855
▁ేసులు	-9.18909
▁యూని	-9.19056
▁డ్ర	-9.19086
▁జాగ్	-9.1911
▁టెక్	-9.19169
రీర	-9.19199
▁పాత	-9.19414
▁రద్దు	-9.19467
▁చీఫ్	-9.19615
ృత	-9.19694
▁ార్చి	-9.19704
▁ప్రియ	-9.19823
▁్ట్ర	-9.1983
▁మోహన్	-9.19853
▁ారిటీ	-9.19864
▁విలువ	-9.19872
▁ర్మి	-9.19901
▁సింగ	-9.19961
▁ులతో	-9.20102
▁నుగ	-9.20143
▁ిచ్చ	-9.20326
▁ెక్క	-9.20367
▁ఫె	-9.2039
▁ెల్సీ	-9.20404
▁రియా	-9.20634
▁ోడ్	-9.2074
▁దశ	-9.20741
▁జూన	-9.20743
ట్ల	-9.2077
▁ఓటు	-9.20775
▁ీమ	-9.21014
▁ిష్ట	-9.21041
▁ిటల్	-9.21053
▁రిత్ర	-9.21081
ی	-9.21086
▁సంజయ్	-9.21112
▁ాయెల్	-9.21201
ర్జ	-9.21336
▁దళ	-9.2141
▁‍	-9.21431
▁ుబడ	-9.21451
▁మనం	-9.2157
ెలిచ	-9.21586
▁ంక్ష	-9.21656
▁ాత్మ	-9.21664
▁వుల	-9.21833
▁ీష్	-9.21919
▁పనుల	-9.21969
▁యిన్	-9.21973
▁ఏక	-9.22063
▁పో	-9.22088
▁ప్షన్	-9.22161
▁సాగ	-9.22271
▁ిండ	-9.22287
▁భూమ	-9.22296
▁11	-9.2231
▁ందరూ	-9.22351
▁ేక్	-9.22362
▁ఎత్త	-9.22373
▁తిన	-9.22385
ంటర్	-9.2257
▁భర్త	-9.2257
▁నరే	-9.2259
▁మండలం	-9.22712
▁్రుల	-9.22895
▁నియా	-9.23187
్రభా	-9.23309
▁24	-9.23323
▁ిక్స్	-9.23518
▁రైలు	-9.23634
▁ూర	-9.23661
▁ెన్స	-9.23787
▁గడ్డ	-9.23798
▁్యూటీ	-9.23853
▁ಪ	-9.23861
▁టింగ్	-9.23872
▁విశాఖ	-9.23956
▁నీరు	-9.23981
▁ష్	-9.23984
▁రామ్	-9.23996
▁ైత	-9.23999
▁కిత్స	-9.24025
▁ీక్ష	-9.24164
▁రాయ	-9.2425
▁డ్రై	-9.24346
▁్యాన	-9.24458
ీసీ	-9.24692
▁ూస	-9.24796
▁విష	-9.24888
▁నోట	-9.24937
▁ఏడ	-9.25022
▁చెల్	-9.25194
▁సంతో	-9.25275
▁పదవి	-9.25283
▁్థాన్	-9.2531
▁ేద	-9.25354
ంక	-9.25386
▁ోస్టు	-9.25536
▁స్వీ	-9.25608
ల్	-9.25717
ోమవ	-9.26305
▁ిడ్	-9.26342
▁ఉద	-9.26354
▁ాడారు	-9.26371
▁ంతర	-9.26398
▁హార	-9.26485
యస	-9.26492
ుప	-9.26622
▁ిలి	-9.26624
▁్రాల	-9.26726
▁దారి	-9.26758
▁రేట్	-9.26911
ండ్ర	-9.26923
▁ుష్	-9.26938
▁న్నా	-9.26942
▁చైనా	-9.2703
▁వరి	-9.27063
▁ంప	-9.27131
▁అయినా	-9.27166
▁నుంచ	-9.27171
ంక్ష	-9.27188
▁రాశ	-9.27198
▁వన్	-9.27323
▁କ	-9.27345
▁లెక్క	-9.27379
▁ఆసుప	-9.2755
▁ఖాత	-9.27606
▁తది	-9.2762
▁ఎస్సీ	-9.27712
▁యోజ	-9.27848
స్త	-9.2795
▁ైల్	-9.28039
▁ివరకు	-9.28065
▁ీబీసీ	-9.28136
వర్న	-9.28197
▁లేకప	-9.28208
▁ూట	-9.28313
▁నిరసన	-9.28338
▁ఫర్	-9.28678
రి	-9.28679
▁ఎయిర	-9.28681
▁సార	-9.28802
▁నియ	-9.28813
▁14	-9.28814
▁సూపర్	-9.28848
▁శక్తి	-9.28937
తీయ	-9.28995
▁ుత్	-9.29066
▁ెస్ట	-9.29123
▁ేషనల్	-9.29253
▁కాపా	-9.29545
▁ధన	-9.29556
▁ూల	-9.2958
▁వేడుక	-9.29643
▁లస	-9.29667
▁ోరు	-9.2979
▁స్మ	-9.29837
▁ాన్	-9.30061
▁ైన్	-9.30124
▁గ్రహ	-9.3017
▁ుద	-9.30213
▁పార	-9.30268
▁ాగం	-9.30369
▁రంగల్	-9.30488
▁మెడ	-9.30489
▁నల్	-9.30526
▁్లాన్	-9.30537
▁రేషన్	-9.30617
▁క్యూ	-9.30671
▁ెంటర్	-9.30715
ున్స	-9.30764
▁ಲ್ಲ	-9.30822
▁ర్యటన	-9.30823
▁అయ	-9.30956
▁సీఐ	-9.30956
▁ియే	-9.31069
▁సార్	-9.31189
▁దర్శి	-9.31203
▁25	-9.31244
యాల	-9.31254
▁భావి	-9.31263
▁ండిప	-9.31298
▁ీటి	-9.31303
▁సర్	-9.31376
ీఆర్	-9.31379
▁తీరు	-9.31392
▁నం	-9.31395
▁జ్జ	-9.31407
భ	-9.31459
▁ಬ	-9.31568
▁స్టర్	-9.31695
▁ేస్	-9.31704
▁పూర	-9.31757
▁ాపూర్	-9.31798
రించ	-9.31844
▁ాసన	-9.31892
▁ారో	-9.31956
▁ెల	-9.32092
ప్రి	-9.32307
▁ుక్	-9.32347
▁జై	-9.32348
▁గొ	-9.32383
పె	-9.3243
▁ార్మ	-9.32523
▁నలు	-9.32592
▁ొత్తు	-9.326
▁ముఖ	-9.32623
▁50	-9.32624
▁కపోతే	-9.32736
▁ల్లి	-9.32799
▁రెంట	-9.32875
▁వాస	-9.32896
▁ోడ	-9.33066
▁దాఖ	-9.33231
రుస	-9.33249
▁ాటి	-9.33317
▁కూర	-9.33389
గ్రహ	-9.33442
ిటిష	-9.33455
▁ీయ	-9.3346
▁రల్డ్	-9.33497
▁ಟ	-9.33679
▁త్స	-9.33725
▁ర్మిల	-9.33755
▁ంచ్	-9.34005
▁ోమ	-9.34134
▁తొ	-9.34165
▁లభ	-9.34194
▁ేవారు	-9.34248
▁్నా	-9.34298
▁ించడ	-9.34468
▁ేసి	-9.34562
▁ନ	-9.34576
▁ఎస్పీ	-9.34597
▁ేందర్	-9.35228
▁ేస్త	-9.35532
▁శి	-9.35582
▁లీడర్	-9.35599
▁యాణ	-9.35672
▁ఆయ	-9.3576
ఖాస	-9.35791
▁ోవడ	-9.35905
▁మద్య	-9.35909
▁ేటి	-9.35916
▁సంచ	-9.35971
▁ీశ్	-9.35987
▁ైక్	-9.36077
▁ిగా	-9.36144
▁ిరీస్	-9.36242
▁మన్	-9.36281
▁ంప్	-9.36305
▁ాచ	-9.36371
▁యో	-9.36372
▁ఈసార	-9.36399
▁ీక	-9.36535
▁ాలలో	-9.36549
▁ବ	-9.36586
▁ఎంపిక	-9.36819
▁ఎన్ట	-9.36868
డ్జె	-9.36917
చిత	-9.36947
▁రణ్	-9.36958
▁నాథ్	-9.37085
▁కొండ	-9.37102
▁గౌడ	-9.37228
▁టే	-9.37245
ర్థ	-9.37348
▁ఇండ	-9.3742
▁వేగం	-9.37447
ದ	-9.37479
పించ	-9.37517
▁్వా	-9.37603
▁మయ్య	-9.37619
▁ఖమ్మం	-9.37643
▁రాం	-9.37662
▁మొదలు	-9.37704
▁ెట్ట	-9.37797
ర్స	-9.38008
▁గౌర	-9.38105
ెప్	-9.38107
▁మైంది	-9.38142
కూల్	-9.38211
▁کی	-9.38254
▁పోత	-9.38264
ంప	-9.38402
▁ారిన	-9.38477
▁న్మ	-9.38527
▁్కర్	-9.38531
చ్చ	-9.38537
▁ఎకరా	-9.38564
▁భవ	-9.38573
00	-9.386
▁్రూప్	-9.38685
▁ూనే	-9.38706
▁దుల	-9.38785
▁ంకు	-9.38827
▁18	-9.38886
▁ోజ	-9.38994
▁ార్ట్	-9.39067
میں	-9.39093
▁ేట్	-9.39099
▁ాక్స	-9.39102
ృ	-9.39212
▁బ్ల	-9.39292
▁బంధ	-9.39334
▁జాత	-9.39345
▁ందులు	-9.39492
▁శ్చ	-9.39563
▁చే	-9.39636
▁సేక	-9.39875
ప్రద	-9.3989
▁ంచుక	-9.39908
▁ెం	-9.39967
▁వినీ	-9.39993
▁ామీ	-9.40003
▁ఒకటి	-9.40032
▁్యూస్	-9.40127
▁నర్	-9.40147
▁ఈడీ	-9.40161
▁ఇంట	-9.4018
్పత	-9.40201
నాల	-9.40279
▁ఓటర్	-9.40354
▁ఉమ్మ	-9.40388
▁ాబ్	-9.40404
▁ీత	-9.406
▁కథ	-9.40736
▁ంశ	-9.40752
▁యోగ	-9.40787
యా	-9.4083
▁ସ	-9.40895
▁ేట	-9.40899
▁ారణా	-9.40921
ୁ	-9.41054
▁ఆహా	-9.41102
ిచార	-9.4114
▁బర్	-9.41174
▁ତ	-9.41442
▁ల్స్	-9.41458
▁సైతం	-9.41483
పోత	-9.41486
వాళ	-9.41491
▁ీచర్	-9.41581
ేద	-9.41584
▁ఆలోచన	-9.41754
▁ముంబై	-9.41777
▁గుంట	-9.41804
ा	-9.41849
్వీట	-9.4188
ంబర్	-9.4189
▁గమన	-9.41928
ಳ	-9.41932
▁ఇంగ్	-9.41977
▁దిన	-9.42041
▁్యాల	-9.42105
▁ీనామా	-9.42267
▁్లిక	-9.42271
▁ర్గ	-9.42301
ీపం	-9.42353
పొంద	-9.4236
▁గస్టు	-9.42366
▁లిప	-9.42562
▁బృ	-9.42564
▁ాన్స్	-9.42586
దుపు	-9.42698
ార్డ	-9.4281
▁లుపు	-9.42877
▁వర్షం	-9.4289
▁మల్	-9.42942
▁మిక	-9.43034
▁భద్ర	-9.4308
▁లహ	-9.43085
▁ల్డ్	-9.43101
▁క్ట్	-9.43126
▁ల్ప	-9.43143
▁ಹ	-9.43152
▁సబ్	-9.43211
▁కారణ	-9.43214
గ్ర	-9.43299
▁ుట్ట	-9.43343
▁ఉండగా	-9.43444
▁విడ	-9.4346
▁ిషన్	-9.43616
ీటర్	-9.43628
▁జనవ	-9.43671
▁ాబితా	-9.43673
ెండ	-9.43677
ేశ	-9.43797
▁ాకా	-9.43862
▁సక్తి	-9.4402
▁ొంగ	-9.44083
▁ప్త	-9.44107
▁ర్జ	-9.44131
▁ొండ	-9.44152
▁ాణి	-9.44218
రియ	-9.4426
▁ాప్	-9.44466
▁ాలేజీ	-9.4456
▁ిప	-9.44593
▁వెనుక	-9.44616
▁పర్య	-9.4462
▁ీట్	-9.44621
్భ	-9.44649
▁ఐపీ	-9.44679
▁ిరం	-9.44763
▁ోగ	-9.44826
▁కర్త	-9.44954
▁ెబ్	-9.44991
ాభ	-9.45091
▁్చి	-9.45098
▁ంబర్	-9.45116
▁ద్దు	-9.45154
▁య్	-9.45197
ర్ప	-9.45301
▁ానం	-9.45311
▁ెన్సీ	-9.4547
▁ౌండ్	-9.45573
▁రస	-9.45607
▁ఉద్య	-9.4562
టించ	-9.45649
▁చదువ	-9.45683
▁దాన	-9.45705
▁ధీ	-9.45711
▁అవి	-9.45813
▁జరి	-9.45952
▁మంత్ర	-9.46037
వంట	-9.46069
▁్వర	-9.46242
▁విభ	-9.46248
▁ంస	-9.4627
▁్రవ	-9.46407
▁ృత	-9.46477
▁ష్ణ	-9.46591
▁ెడ	-9.46691
ై	-9.46721
▁ిమి	-9.4686
▁ిరుప	-9.4704
▁కనీ	-9.47075
▁శాంత	-9.47102
▁పట్ల	-9.47221
ర్తల	-9.47455
▁లబ	-9.47476
ికె	-9.47553
ోల్ప	-9.47572
▁టాల	-9.47635
▁ేరు	-9.47829
▁ప్తి	-9.4786
▁ూర్త	-9.47894
▁గర్	-9.4828
▁లేఖ	-9.48426
▁ైమ్	-9.48431
▁పది	-9.48442
▁ఫ్ట్	-9.48445
▁రహ	-9.48447
▁ంటి	-9.48509
రోజు	-9.48739
▁ఖాన్	-9.48835
▁నీళ్	-9.48869
ేష	-9.48898
▁పతి	-9.49007
▁మై	-9.49109
▁వార్	-9.4911
ున	-9.49116
ిగిల	-9.49177
▁ీతా	-9.49219
▁ొం	-9.49245
▁ిలీ	-9.4926
▁బండి	-9.4934
▁డుత	-9.49382
▁ణ్	-9.4944
▁ీన	-9.49531
▁అర్	-9.49693
▁చా	-9.49706
▁మెజ	-9.49744
▁క్కడే	-9.49876
▁ాంగ్	-9.49965
▁్గురు	-9.50036
▁ల్లా	-9.50062
▁వేత్త	-9.5007
▁విష్	-9.50075
ాణ	-9.5008
▁అభివ	-9.50133
▁కోట	-9.50149
▁చోట్ల	-9.5027
▁స్య	-9.50291
▁ఠా	-9.50387
▁ాక్ష	-9.50442
▁స్క	-9.50482
▁్యాయం	-9.50492
▁ఖీ	-9.50584
▁ఆధ్వ	-9.50587
▁యాదవ్	-9.50604
▁ేలియా	-9.50615
సాయ	-9.50811
▁పూ	-9.50869
▁గ్రహం	-9.50906
▁ೋ	-9.5091
▁సీబీఐ	-9.50911
▁ోటో	-9.50947
▁ోన	-9.51063
▁ళి	-9.51096
▁డిగ	-9.51137
▁త్ర	-9.51141
▁గుండె	-9.51171
▁13	-9.51215
▁ముందే	-9.51569
▁లోక	-9.51633
▁ంతు	-9.51781
▁ెడ్డి	-9.51935
ేజ	-9.51944
▁ేప	-9.52082
▁ాయా	-9.5211
▁ైడ్	-9.52122
▁ందుల	-9.52314
▁క్	-9.52368
మిష	-9.52424
▁దిర	-9.52507
▁హౌ	-9.52537
హారా	-9.52551
▁ెన	-9.52608
▁విశ	-9.52617
యింద	-9.52697
▁ీడ	-9.52714
▁మోస	-9.52731
డెంట	-9.52755
▁మాజ	-9.52811
▁ఒత్త	-9.5289
▁ాండ్	-9.52957
▁ీమా	-9.53082
▁ందిర	-9.53086
▁అమిత్	-9.53116
▁ాఫ్	-9.53141
▁హిళలు	-9.53195
▁ిణీ	-9.53209
▁ాఠశాల	-9.53301
▁ోహిత్	-9.53305
▁ధ్వ	-9.53347
▁స్సు	-9.53387
▁ొడవ	-9.53452
▁22	-9.53479
▁ెస	-9.53483
▁తప్పు	-9.535
▁ర్థం	-9.5364
▁ఎవరు	-9.53654
▁ిపల్	-9.53662
▁ందర	-9.53709
▁ాఫీ	-9.53784
▁వాహన	-9.54026
▁ారంభం	-9.54081
▁కుల	-9.54128
▁సూ	-9.54148
▁ష్ట్ర	-9.54149
ాయుడ	-9.5429
▁సంఘటన	-9.54422
▁మిషన	-9.54465
▁ాలంట	-9.54481
▁త్రి	-9.54547
మోద	-9.5455
▁ిద్ర	-9.54627
▁శేఖ	-9.54631
▁బంగా	-9.5467
▁మూడ	-9.54696
▁న్య	-9.54739
▁ఉన్నా	-9.54756
▁అధి	-9.54831
▁16	-9.54846
▁లగ	-9.54886
▁ోర్డు	-9.54893
▁దీప్	-9.54921
▁యిత	-9.54967
ుర	-9.54972
ూడో	-9.55
▁భాష	-9.55087
▁నెలక	-9.5509
▁న్నై	-9.55093
▁సాద్	-9.55096
▁బ్బ	-9.55385
▁ట్రో	-9.55484
▁ావతి	-9.55585
▁ర్త	-9.5559
▁ువు	-9.55698
▁గూడ	-9.55864
సలు	-9.55952
▁న్షన్	-9.55988
▁ంగార	-9.56047
▁సీజన్	-9.5622
▁గద	-9.56232
▁్రీన్	-9.56263
▁రాత్	-9.56292
▁టిల్	-9.56349
▁ారాల	-9.56369
ోటీస	-9.5638
▁గురి	-9.5644
▁గ్ల	-9.56458
▁పడ్డ	-9.56825
▁శాస్	-9.56951
▁హిం	-9.57017
▁కూర్	-9.57121
▁ుడ్	-9.57144
▁ానన	-9.57144
▁ుతాయి	-9.57319
▁అందర	-9.57448
ೇ	-9.57463
రూ	-9.57463
▁లవ	-9.57507
థాయి	-9.57662
▁మణి	-9.57684
▁సంప	-9.57723
▁ైస్	-9.57768
▁రూప	-9.5786
▁ాశ	-9.57863
▁ంధ	-9.57886
▁17	-9.57909
▁్టేట్	-9.57922
▁గ్రే	-9.58044
హ్నం	-9.58049
నంద	-9.58052
▁రియ	-9.58178
ింహ	-9.58208
▁ఆవ	-9.58209
టు	-9.58254
▁డ్జ	-9.58265
భాగ	-9.58273
▁జి	-9.58311
ిద్ద	-9.58321
▁్త్	-9.5835
▁లింగ	-9.58482
▁ష్ట	-9.5857
▁వస	-9.58595
▁్మీ	-9.58625
▁శంకర్	-9.58648
▁ొక	-9.58672
▁సుల	-9.58704
మైన	-9.58715
▁న్ల	-9.58764
▁ర్ట	-9.58771
▁ింప	-9.58944
▁ాదన	-9.58949
▁శాంతి	-9.5897
▁చేప	-9.58985
▁నస	-9.59107
▁ెల్ల	-9.59151
▁యాక్	-9.59212
▁ార్డు	-9.59243
▁అప్	-9.59261
▁లియన్	-9.59317
మారు	-9.59329
▁వార్త	-9.59511
▁ిస	-9.59626
ఫిక	-9.59666
▁రింగ్	-9.59676
పోయ	-9.59724
▁్రో	-9.59824
▁టెడ్	-9.599
▁ొడుకు	-9.59901
▁ోర్స్	-9.59952
▁ెయ్	-9.60183
▁ుకొ	-9.60192
▁్తా	-9.60192
▁మరిక	-9.60227
▁ేల్	-9.60309
▁ెల్	-9.60456
▁షేర్	-9.60627
▁ిస్ట్	-9.60632
▁టరీ	-9.60641
▁గ్గ	-9.60674
▁ించడం	-9.60777
▁ఇం	-9.60795
▁ళా	-9.60874
▁ఘన	-9.61091
▁ెయిన్	-9.61132
టూ	-9.61143
▁లిగ	-9.61147
▁రచ	-9.61186
▁ౌర	-9.61214
▁ష్యా	-9.61243
▁ఫిక్	-9.61337
▁ాకు	-9.61498
▁్ధ	-9.61598
▁ీలు	-9.61626
▁ాళీ	-9.61688
▁ల్క	-9.61719
▁సెల్	-9.61814
▁నెట్	-9.61843
▁ొట్ట	-9.61844
▁ుంటూ	-9.62048
▁టర్	-9.62115
▁ీక్	-9.62119
▁కాద	-9.62362
ావడం	-9.62367
ాలుగ	-9.62387
▁అద	-9.62406
▁ఫర	-9.62442
▁ేటీ	-9.62447
▁రిలో	-9.62508
▁ాద్	-9.62534
e	-9.62538
▁ుణ	-9.62545
▁రేట	-9.62704
▁ర్యా	-9.62719
▁దన	-9.62765
▁ప్ల	-9.62788
▁ాటిన	-9.62947
▁ఆహ	-9.62979
▁ోలీస	-9.63009
▁ఊర	-9.63197
▁లిక	-9.63463
▁ుగు	-9.63544
▁ూలు	-9.63549
▁మున	-9.6356
▁ాగా	-9.63685
▁మౌ	-9.63751
▁కృష	-9.64109
▁దీప	-9.64145
▁ମ	-9.64245
▁డాల	-9.6439
▁గె	-9.644
▁ఫై	-9.6446
▁్సరం	-9.64481
▁డాక	-9.64483
▁యంత్	-9.64487
▁నిత	-9.64498
▁రవి	-9.64584
▁బై	-9.64632
▁ాయం	-9.64786
▁్వాన	-9.64841
▁ెంగ	-9.65003
▁ుగ	-9.65059
▁ైర	-9.6514
ెంట	-9.65163
ుద్ర	-9.65225
డిగ	-9.65359
▁ందర్	-9.65497
▁కలిస	-9.65524
▁వెన	-9.65541
▁కింగ్	-9.65585
▁ంగ్లా	-9.65641
▁బ్రా	-9.65732
▁్టే	-9.65746
▁న్నిక	-9.65844
▁కార	-9.65937
▁19	-9.65964
▁ుమ	-9.65988
▁ిష్	-9.6599
▁చీ	-9.66049
▁..	-9.6636
▁మిట	-9.66383
▁ెర్	-9.6639
▁దేవి	-9.665
▁ుట్	-9.66546
▁ీపీ	-9.66605
▁హన	-9.66631
▁ంట్స్	-9.66731
రా	-9.66761
▁ుకో	-9.66801
▁నక	-9.66911
▁ఆక	-9.66933
▁ేమ్	-9.66983
▁కోస	-9.67017
▁రన్	-9.67165
▁వృ	-9.67195
▁ఫైనల్	-9.6726
ాంత	-9.67311
బీసీ	-9.67319
▁ేబ	-9.67366
▁ఎగ	-9.67521
▁షో	-9.67541
▁ీటు	-9.67597
▁ఖర	-9.67762
▁డ్రా	-9.67863
▁టాని	-9.67899
▁మర్	-9.6794
▁ియో	-9.67967
▁ాము	-9.68009
▁ంక	-9.68074
డి	-9.68082
▁ాటా	-9.68117
▁ః	-9.68233
▁ంగుల	-9.6834
▁ందా	-9.68469
▁్మి	-9.68498
▁ిపి	-9.68675
▁ియన్	-9.68775
▁ఈవ	-9.6882
▁జు	-9.69186
▁ాస్త	-9.69205
లన	-9.69394
▁ପ	-9.69431
▁లిక్	-9.69453
▁డ్డు	-9.6947
▁నుమ	-9.69508
▁ేత	-9.6957
▁సొ	-9.6958
▁కులు	-9.69737
▁దుర	-9.69752
▁వంట	-9.69963
▁యన్	-9.69983
▁ిగ్	-9.70086
▁ేని	-9.70088
▁తోనే	-9.70321
▁్రీవ	-9.70331
▁ండా	-9.70347
▁ిజి	-9.70369
▁శ్వ	-9.70428
▁బాద్	-9.70519
▁్తవ	-9.7059
▁మెర	-9.70606
▁ేర	-9.70617
▁వర్ష	-9.70681
▁ిడ	-9.70855
▁టమి	-9.71078
▁నాల	-9.7108
▁దాయం	-9.71129
▁ాని	-9.71224
▁టమ	-9.71234
▁్రెస్	-9.71284
▁హరి	-9.71393
▁ివ్	-9.71445
▁రమ	-9.71459
▁ీకరణ	-9.71544
▁లాగ	-9.71594
▁హబ	-9.71598
▁ెస్టు	-9.71715
▁్రహ	-9.71887
▁రంగం	-9.7197
ا	-9.72043
▁40	-9.72186
▁క్ష్	-9.72193
▁్రిక్	-9.72341
ూర	-9.724
▁ోటి	-9.72432
▁నీట	-9.72493
ృద్ధ	-9.72503
▁గంట	-9.72504
▁మాస్	-9.72555
▁ోవడం	-9.72688
▁ోద	-9.72736
▁ోట	-9.72787
▁100	-9.72831
▁డింది	-9.72875
▁యాద	-9.73053
▁ద్దీ	-9.7306
▁ార్థి	-9.73183
▁సేన	-9.73494
▁ింత	-9.73778
▁ండియా	-9.73927
రే	-9.74004
▁ట్వ	-9.74013
▁్లోకి	-9.74049
▁వ్	-9.74139
▁దివ	-9.7414
▁ాత	-9.7415
▁పంట	-9.74163
▁సంద	-9.74305
▁ర్క్	-9.74306
▁ఘా	-9.74376
▁్యార	-9.74562
▁ోచ	-9.74649
▁జో	-9.74662
▁థన	-9.74665
▁ండర్	-9.74714
▁ోయి	-9.74716
▁వెన్	-9.74788
▁సీబీ	-9.74915
▁ూరి	-9.75008
▁ేటు	-9.75112
▁తీయ	-9.75405
▁ేవా	-9.755
▁ీటర్	-9.75547
▁క్షే	-9.75577
▁రగ	-9.75585
డా	-9.75678
▁టా	-9.75759
▁ారీ	-9.75871
▁ార్ల	-9.7589
▁టూ	-9.76104
▁ణు	-9.7615
▁కాలు	-9.76169
నుమత	-9.76229
▁నుమతి	-9.76256
▁21	-9.76294
▁ేల	-9.7631
▁సమయ	-9.76396
▁ుడే	-9.76432
▁రజ	-9.76515
ోర్ట	-9.7663
▁ంబ	-9.76655
రై	-9.76711
ిచ	-9.76744
▁దృష్	-9.76746
▁ిడి	-9.76842
▁ాల్ప	-9.76948
▁్రె	-9.77078
వార	-9.77099
▁ఆలోచ	-9.77218
▁ిరి	-9.77234
ామిన	-9.77264
▁్రికి	-9.7731
▁రళ	-9.77312
▁దుక	-9.77366
▁్సు	-9.77368
▁పాల్	-9.77375
ోద	-9.77426
▁ద్ర	-9.77493
▁తిక	-9.77641
▁ూర్	-9.77657
▁ెప	-9.77669
▁షల్	-9.77763
▁ోనా	-9.77779
▁ర్ప	-9.77849
▁రుత	-9.77912
▁కోల్	-9.77968
్థాన	-9.77995
▁ందు	-9.78005
▁మారు	-9.78025
▁టీడీ	-9.78036
▁టన్	-9.78093
▁ీకే	-9.7819
▁షనల్	-9.78308
▁ీవీ	-9.7838
▁ోల	-9.78412
▁వేత	-9.78428
▁ఇవి	-9.78546
రంగ	-9.78573
▁ాలిక	-9.78733
▁ుబ	-9.78742
▁ఎక్క	-9.78909
▁ియ	-9.78964
▁నాట	-9.78978
▁మండ	-9.7903
▁ుప్ప	-9.79131
▁హణ	-9.79285
▁ాణాల	-9.79287
▁సోమ	-9.79403
▁యాప్	-9.79451
▁యిన	-9.79465
▁వెళ	-9.79511
▁ెప్ప	-9.7959
▁త్రా	-9.79594
▁ేగ	-9.79658
▁ితి	-9.79748
▁దేశా	-9.79798
▁రణం	-9.7982
▁ధ్య	-9.79948
▁ూబ	-9.80015
▁దో	-9.80142
▁మ్మి	-9.80212
▁ర్ట్	-9.80289
▁పడి	-9.803
▁కల్	-9.80371
▁జె	-9.80405
▁ాఖ	-9.80652
▁లమ	-9.80714
▁యాం	-9.80912
▁ఎడ	-9.81073
▁డ్ల	-9.81231
▁اس	-9.81253
▁ాగ్	-9.813
▁ంటలు	-9.81386
▁ఐట	-9.81442
▁ాధ్య	-9.81463
▁యూట్	-9.81473
▁ాంక	-9.81588
▁ెక్ట్	-9.81636
▁నిమ	-9.81648
▁ేజ	-9.81749
▁ల్వ	-9.82036
ೀ	-9.82198
్సిట	-9.82372
▁ూడెం	-9.82498
ೊ	-9.82631
▁కాయ	-9.82783
▁ోల్	-9.82804
▁యంత	-9.82939
▁ଲ	-9.82945
▁ేదన	-9.82953
▁చల్	-9.82977
▁స్టీ	-9.82987
▁ాగు	-9.83037
▁్లై	-9.83114
▁లవు	-9.83157
▁ల్డ	-9.83171
▁సిక	-9.83186
▁ుందా	-9.83237
▁వల్	-9.83424
▁సత్	-9.83428
▁దృ	-9.83493
▁సత్య	-9.83511
▁నొ	-9.83549
▁ూట్	-9.83585
▁ాసం	-9.83632
▁అడుగు	-9.83638
▁చర	-9.83779
▁ాజి	-9.8378
▁రగత	-9.8397
▁కంట	-9.83973
▁చర్	-9.84009
▁మీర్	-9.8405
▁పెడ	-9.8411
▁్రెస	-9.843
▁ార్ప	-9.84488
▁సెక	-9.84603
▁ాగర్	-9.84604
▁గల్	-9.84665
▁28	-9.84809
▁ాళ	-9.84918
▁ిమానా	-9.85206
▁అడ్డ	-9.85254
▁చెక్	-9.85361
▁్యాక్	-9.85395
▁దేశం	-9.85449
▁పీఎస్	-9.85661
▁్లిం	-9.85704
టార్	-9.85761
ఖ	-9.85767
▁కార్	-9.86025
▁ంటీ	-9.86029
▁పుల్	-9.86083
▁కాదన	-9.86104
టీ	-9.86252
▁పిల్	-9.86338
▁డల్	-9.86592
▁క్స	-9.86631
▁ఆఫ	-9.86647
త్త	-9.86776
▁మూ	-9.86819
▁వెంట	-9.86955
▁ల్గ	-9.87067
▁ేటా	-9.8707
▁నగ	-9.87101
▁లక్	-9.8729
▁ఆప	-9.87513
▁ప్పి	-9.87621
▁کو	-9.87788
▁వాట	-9.87908
▁ెలి	-9.87927
▁ిద్ద	-9.88027
▁గుల	-9.88385
ధిక	-9.88403
▁ుద్ర	-9.88403
▁ాశ్	-9.88412
▁గూ	-9.88598
▁ాజ్	-9.88726
▁డెంట్	-9.88752
s	-9.88808
▁స్పీ	-9.88856
▁వరం	-9.88974
▁ికులు	-9.88975
▁ిద్ధం	-9.89204
▁టిక్	-9.89222
▁్సెస్	-9.89233
▁జనం	-9.89243
▁ాఖ్య	-9.89414
▁సభల	-9.89485
▁ుణ్	-9.89649
ర్యట	-9.89685
▁ీరు	-9.89729
▁నారా	-9.89765
▁ెండ్	-9.89821
▁ూన్	-9.89978
▁ాథ	-9.89997
▁ీవో	-9.90119
▁తరు	-9.90147
▁నిమి	-9.90246
▁లుప	-9.90326
▁ోసం	-9.90416
▁ెండ	-9.90458
▁్పుల	-9.90461
▁చోట	-9.9065
▁్యాయ	-9.9088
▁ాలా	-9.91051
కెట్	-9.91074
▁్థాయ	-9.9111
▁ణి	-9.91144
▁ియం	-9.91303
▁ుదల	-9.91325
▁తారు	-9.91354
▁యాన్	-9.91373
▁ಜ	-9.91751
▁ామన్	-9.91784
▁స్క్	-9.91787
▁మించ	-9.91788
▁ెట్రో	-9.91923
▁ిక్స	-9.91977
▁య్యి	-9.92037
▁్యాన్	-9.92043
▁۔	-9.92077
చేస	-9.92412
▁پر	-9.92488
▁సామా	-9.92596
▁పోట	-9.92628
▁ిరిగ	-9.92698
హార	-9.92786
▁ంజ్	-9.92826
▁ంటార	-9.92881
▁రికా	-9.92997
నీ	-9.93101
రాల	-9.93102
▁ికుల	-9.93328
▁గ్గు	-9.93378
▁27	-9.93388
▁మామ	-9.9344
▁ెక్స	-9.93453
▁యక్	-9.93539
▁ిస్ట	-9.93864
క్త	-9.93871
▁బిల్	-9.93963
▁లుగ	-9.94009
థ	-9.94167
▁మంత	-9.94407
▁ండ్ర	-9.94413
i	-9.94499
▁నార్	-9.94518
చాయ	-9.94692
▁ుతారు	-9.94779
▁ହ	-9.94816
▁కాస	-9.94816
▁ఔ	-9.94832
▁వసర	-9.94891
▁ఉండటం	-9.94895
▁ీజ	-9.94935
▁బాగ	-9.95159
▁ట్టా	-9.95223
▁క్కి	-9.95225
▁సర్వ	-9.95364
▁ణం	-9.95408
▁ఫార	-9.95523
▁గ్స్	-9.95708
▁26	-9.95831
▁కడ	-9.95926
▁ికా	-9.95999
▁యాలు	-9.96126
ోహ	-9.96237
▁హ్	-9.96399
▁र	-9.96432
▁ర్యాల	-9.96472
▁రస్	-9.96485
ಚ	-9.96553
▁మ్యా	-9.96766
▁అందు	-9.9681
▁నిక	-9.96922
▁యే	-9.9701
▁ాభా	-9.97038
▁్యాప్	-9.97135
▁ిమ	-9.97246
▁త్తా	-9.97297
▁క్త	-9.97331
▁రిటీ	-9.97336
▁ుస	-9.97344
▁త్రిక	-9.97383
▁ైట	-9.97429
▁ాంగ	-9.97491
▁పంచ	-9.97517
▁మిన	-9.97523
▁ంగు	-9.978
▁్రూ	-9.97886
టిస్	-9.97912
▁తుల	-9.98058
▁23	-9.98074
▁మేర	-9.98103
▁ైడ	-9.98106
▁్ష	-9.98238
▁మ్స్	-9.98257
యమ	-9.98259
▁నెట	-9.98279
▁రహా	-9.98547
▁పెన్	-9.9857
▁ఆగ	-9.98688
▁ోబ	-9.98693
▁ాటర్	-9.98782
▁బడి	-9.98811
▁డెన్	-9.98863
▁ేడ	-9.99206
▁పిల	-9.993
▁ూల్	-9.9933
▁హక్క	-9.99359
▁డై	-9.99484
▁ాయప	-9.99558
▁⁭	-9.99829
▁ୟ	-9.99841
▁హి	-9.99901
▁ేరే	-10.0027
▁విత	-10.0034
▁ఎలక	-10.0043
▁జయ	-10.0064
▁రాన్	-10.0077
▁వేర	-10.0083
▁రిస	-10.0092
▁డత	-10.0093
దిల	-10.01
▁రం	-10.0102
▁ిల్స్	-10.0103
▁సాయ	-10.0114
▁ీజ్	-10.0115
▁ెండి	-10.0135
▁ికల	-10.0141
▁ిస్టు	-10.0151
ాజా	-10.0152
▁కాల్	-10.0152
▁తెర	-10.0155
▁ుధ	-10.0178
▁ట్లే	-10.018
▁ీశ	-10.0181
▁పాక్	-10.0188
▁ోడు	-10.0211
▁ొమ్మ	-10.0213
▁ాజీ	-10.0224
▁ిమ్	-10.0246
▁کا	-10.0249
▁రీస	-10.0258
▁రఫ	-10.027
▁నాని	-10.027
▁పేర	-10.027
▁ోప	-10.029
▁టాక్	-10.0293
▁గాలి	-10.0309
▁దూర	-10.0322
▁ళ్లు	-10.0327
▁కొన	-10.0331
▁ట్రీ	-10.0347
▁బంధు	-10.0348
ୋ	-10.0373
▁సిడ	-10.0378
▁ైస	-10.0401
▁ింద్	-10.0447
▁విజ	-10.0451
▁ండగ	-10.0459
▁క్స్	-10.048
▁తలు	-10.0486
▁తార	-10.0486
▁రెడ్	-10.0497
▁ువా	-10.0505
▁ర్తీ	-10.0516
రభావ	-10.0522
▁ాత్ర	-10.0562
▁ెటర్	-10.0564
▁యల్	-10.0566
▁ర్జీ	-10.0567
▁ైళ్	-10.0571
శించ	-10.0583
▁ిల్లీ	-10.0585
▁తాయి	-10.0591
▁ాణాలు	-10.0591
▁దార	-10.0597
▁్తీ	-10.0613
▁వ్యా	-10.0625
▁న్నది	-10.0638
లతో	-10.0639
▁్లె	-10.0657
▁లువ	-10.0697
▁భయ	-10.0704
▁్యుల	-10.0713
▁వేగ	-10.0717
▁అడ్	-10.0722
▁ొంద	-10.0724
▁లూ	-10.073
▁ీనా	-10.0744
ర్	-10.0753
▁ేవు	-10.0783
▁ీవ్	-10.0787
▁గుండ	-10.0788
▁ిట	-10.0811
▁29	-10.0814
▁జస	-10.0822
ిఫ	-10.0822
▁గీత	-10.0825
▁31	-10.083
▁ర్భ	-10.0833
▁ట్టడ	-10.0849
▁మీర	-10.085
▁ంటల	-10.0852
▁ిజ	-10.0866
▁స్కూ	-10.0868
▁రాబ	-10.088
▁60	-10.0883
▁గిల	-10.0889
▁జిల	-10.089
▁क	-10.09
ొడ	-10.0902
శీల	-10.0918
▁نے	-10.0925
▁నది	-10.094
▁నిస	-10.0946
▁అప	-10.0976
▁నట	-10.0985
▁ుర్	-10.0992
▁ద్వ	-10.0993
▁ులా	-10.1003
▁జమ	-10.1004
▁ాన్య	-10.1007
▁శు	-10.1019
▁స్తా	-10.1021
▁ధు	-10.1028
▁ీష	-10.1039
▁ఆద	-10.1098
▁ల్లే	-10.1105
▁ేవార	-10.1112
▁రోసా	-10.1122
సక్త	-10.1153
▁షి	-10.1154
▁ట్నం	-10.1157
▁అల్	-10.1157
▁చార	-10.1158
▁నాథ	-10.1164
▁ఛా	-10.119
▁వేద	-10.1196
▁ేడ్	-10.1223
▁ుబాటు	-10.1258
▁ఏసీ	-10.1276
ర్ణ	-10.1303
▁దూ	-10.1306
ر	-10.1308
వన	-10.1337
▁్ధి	-10.1342
▁ీఏ	-10.1351
▁ాకర్	-10.1354
▁ోస్	-10.1371
▁ఆర్ట	-10.1375
▁కౌ	-10.1382
▁్లోనే	-10.1383
▁ଦ	-10.1393
▁లాల్	-10.1404
▁ఫీసర్	-10.1413
▁గిత	-10.1414
▁ానిక	-10.1439
లై	-10.1444
▁తడి	-10.1446
▁రిస్	-10.145
▁ఇద	-10.1451
▁ంబర	-10.1456
5	-10.1462
▁సంస్	-10.1463
▁స్టే	-10.1472
కొ	-10.1473
▁కాక	-10.148
ೂ	-10.149
▁టివ్	-10.1495
▁ిగారు	-10.1499
وں	-10.1499
▁ోయారు	-10.1502
▁రాక	-10.1511
▁ధార	-10.1526
▁ేరి	-10.1532
▁తద	-10.1546
▁టెం	-10.1554
▁కన్	-10.1559
▁క్షం	-10.1568
డింగ	-10.1601
▁ಶ	-10.1617
▁ాష	-10.1622
▁ియర్	-10.1624
▁త్తం	-10.1628
▁سے	-10.164
▁సూర	-10.1648
హించ	-10.166
▁రారు	-10.1667
▁ితీ	-10.1668
▁శ్	-10.1668
u	-10.1673
▁ావు	-10.1691
▁మంద	-10.1694
▁ాష్	-10.1722
▁గజ	-10.1727
y	-10.1733
▁ేణ	-10.1735
▁ిచ్	-10.1736
▁ଇ	-10.1748
▁యట	-10.175
▁వంతం	-10.1751
▁దరి	-10.1753
▁ర్తి	-10.1767
▁#	-10.1783
▁न	-10.1784
▁ଟ	-10.1786
▁ెయి	-10.1796
▁ఇస	-10.18
▁ోక్	-10.1802
▁ಅ	-10.1803
▁డింగ్	-10.1806
▁డిపి	-10.1808
▁ోర్స	-10.1827
▁ాడి	-10.1835
▁డో	-10.1842
▁కట్	-10.1856
▁ాలె	-10.1868
▁ీతం	-10.1868
▁అనంత	-10.1897
▁ీఎం	-10.1898
▁స్థా	-10.1917
▁ాకర	-10.1933
్ట	-10.1933
▁నటి	-10.1937
▁ితం	-10.1952
▁్రేక్	-10.1959
▁హారం	-10.1975
▁శాల	-10.1985
▁కెట్	-10.1988
గత	-10.2003
▁ర్డ్	-10.2011
▁కరం	-10.203
▁స్త్	-10.2032
▁ిత్ర	-10.2038
▁మాన్	-10.2051
▁ెన్న	-10.2063
▁వెల	-10.2092
▁యిల్	-10.2096
▁ాన్స	-10.2098
▁ార్క్	-10.2112
▁ిచ	-10.2114
▁ాలయం	-10.2125
▁ివి	-10.2134
▁గ్రీ	-10.2135
h	-10.2154
▁యోగం	-10.2164
ہ	-10.2175
▁ాపు	-10.2203
▁ాయు	-10.2206
▁ర్స	-10.2215
▁ిస్	-10.2224
ೈ	-10.2234
▁పౌ	-10.2239
▁పం	-10.2248
పక్ష	-10.2251
▁అమల	-10.2254
▁ోగ్	-10.2273
గొ	-10.2278
▁్యూట	-10.228
▁నియర్	-10.228
▁యింది	-10.2285
▁ాడ్	-10.2286
▁ితుల	-10.2287
▁తుక	-10.2287
▁ావా	-10.229
▁ెక్	-10.2306
▁ైకి	-10.233
▁లియా	-10.2346
▁్వి	-10.2349
▁నిల్	-10.2368
▁ిక్ష	-10.2377
▁ంచు	-10.2387
▁ైద	-10.2389
▁షు	-10.2407
▁చు	-10.2409
्	-10.2411
▁మెట	-10.2424
▁ానా	-10.2425
▁ూన	-10.2455
ଣ	-10.2456
▁ಆ	-10.2456
▁లెట్	-10.2467
▁అడి	-10.2506
▁న్యం	-10.2518
▁వాడు	-10.252
▁్వే	-10.2533
▁ంతక	-10.2536
▁నాలు	-10.2539
▁ಷ	-10.2569
▁ొడ	-10.2585
▁ాంత	-10.2596
▁ట్స్	-10.2611
▁ిరా	-10.2617
▁స్స	-10.2628
▁రిత	-10.263
▁ీప్	-10.2637
▁ైంద	-10.266
▁ంక్	-10.269
▁బయటక	-10.2737
▁ొమ	-10.274
▁న్నం	-10.2746
▁సద	-10.2792
▁ہے	-10.28
▁ైవ	-10.2816
▁ైం	-10.2828
ిశ	-10.2844
▁జడ	-10.2864
▁పట్	-10.2868
▁ెట్టి	-10.2868
▁ంత్	-10.287
▁ముల	-10.2936
▁పట్టు	-10.2937
సిన	-10.2964
▁లంగా	-10.2967
పొ	-10.2978
▁।	-10.2988
▁ాభ	-10.3011
▁్రే	-10.3013
▁کہ	-10.3024
▁చివ	-10.3026
ాలంట	-10.3044
،	-10.3057
▁జార్	-10.3079
▁నాన్	-10.3098
▁ాబ	-10.3103
ాం	-10.3107
ర్క	-10.3148
▁్తి	-10.3157
్రెస	-10.3189
▁ార్డ్	-10.319
▁ଥ	-10.3226
▁س	-10.3236
▁గంగ	-10.3244
▁ಎ	-10.3248
▁ీసీసీ	-10.3275
▁ెలిచి	-10.3275
▁్బ	-10.3278
▁నెల్	-10.3281
▁వ్యూ	-10.3307
▁లింగ్	-10.3315
▁ులుగ	-10.3318
▁ైక	-10.332
▁ీవ	-10.3321
▁ెళ్	-10.3329
ఎస్	-10.3332
O	-10.3334
▁పోవ	-10.3353
▁స్మా	-10.336
▁ుమతి	-10.3362
▁తృ	-10.337
ಣ	-10.3372
▁ఎల	-10.338
▁న్యా	-10.3391
▁ృతి	-10.3414
▁اور	-10.3423
▁ిండి	-10.3424
▁రిల	-10.3439
▁ీకర	-10.344
▁ంటర	-10.3445
▁లాండ్	-10.3446
పెన	-10.3477
▁ేణు	-10.3481
ేస	-10.3488
▁మరీ	-10.3489
▁సిం	-10.3496
▁దుప	-10.3503
ున్న	-10.3507
్రూప	-10.3516
▁శారు	-10.3517
▁భాస	-10.3528
ుపు	-10.3537
▁గన్	-10.3549
▁దుబ	-10.3557
▁ోళ	-10.3565
▁ందం	-10.358
▁్లి	-10.358
▁A	-10.3585
▁రాహ	-10.3603
▁ారే	-10.3605
దాయ	-10.3608
▁े	-10.3612
▁ేవి	-10.3613
▁నామ	-10.3618
▁లాల	-10.3646
▁ాదం	-10.3648
▁డార	-10.3652
▁ెల్లి	-10.3655
▁ిర్	-10.3656
▁లాగే	-10.3661
د	-10.3664
▁ూప	-10.3666
▁వాహ	-10.3667
▁ہے۔	-10.3672
▁కాశ	-10.3683
▁ేన	-10.3685
▁హర్	-10.3693
ಧ	-10.3697
▁కలక	-10.3703
▁పాడ	-10.3703
▁ఉపా	-10.3708
▁ଛ	-10.3723
▁ఎందు	-10.3724
▁ోగు	-10.3726
▁ోలే	-10.3728
▁రై	-10.3751
ర్మ	-10.3753
▁కప్ప	-10.3754
▁ఫ్ట	-10.3778
ాఠ	-10.3793
▁ఆధ	-10.3803
గ్గ	-10.3818
▁అబ	-10.3836
ుంద	-10.3848
▁ింగ	-10.3878
▁క్కా	-10.3889
n	-10.3889
▁విల	-10.3893
▁ଭ	-10.3905
▁ోపి	-10.3916
▁کیا	-10.3931
▁శాత	-10.3931
▁وی	-10.3936
▁గౌ	-10.3943
▁్టీ	-10.396
▁చంద	-10.3964
▁లుసు	-10.3972
▁ావి	-10.3975
▁ఓట	-10.3976
▁ణాలు	-10.3978
▁వాన	-10.3981
▁షీ	-10.3984
విష	-10.4001
▁ిచి	-10.4004
▁ౌడ	-10.4013
దీ	-10.4017
▁్ద	-10.4024
▁మాండ్	-10.4026
▁ణన	-10.4028
▁నేప	-10.4037
▁ద్వా	-10.4047
▁ోహ	-10.4053
▁ంతి	-10.4071
▁ెలుసు	-10.408
▁వాన్	-10.4082
మాండ	-10.4094
▁పాలు	-10.4099
▁ఫి	-10.4102
▁థా	-10.411
▁చేయడ	-10.4113
▁70	-10.4117
ింప	-10.4122
▁ోస	-10.4131
▁ోని	-10.4134
▁ోం	-10.4134
ि	-10.4138
ర్చ	-10.4141
▁ాలక	-10.4148
▁డ్డా	-10.4151
▁నివా	-10.4155
▁ూడి	-10.4156
▁ఫా	-10.4156
▁మావ	-10.4158
▁రుద	-10.4167
▁సంక	-10.4167
▁సిస్	-10.4176
▁కుంటే	-10.4201
▁త్రం	-10.4213
▁మంచ	-10.4213
▁మూర	-10.4214
ిరిగ	-10.4239
▁ا	-10.4241
▁షన్స్	-10.4288
▁ండీ	-10.429
▁జార	-10.4291
▁ట్టే	-10.4296
▁ଡ	-10.4321
▁ెట్టు	-10.4322
▁ుబడి	-10.4329
▁ణాల	-10.435
▁డగ	-10.4358
▁క్య	-10.4362
▁నుంద	-10.4363
▁ఆట	-10.4365
▁ంట్ల	-10.4374
▁రత్	-10.4374
▁ేఖ	-10.4376
▁ర్క	-10.4382
▁దర్	-10.4411
▁మన్న	-10.4411
ానిక	-10.4425
▁బీఐ	-10.4444
▁్తంగ	-10.4451
▁ండు	-10.4451
▁మార్క	-10.4456
▁ప్రచ	-10.4462
ل	-10.4476
▁ర్శ	-10.4477
▁ుభ	-10.4479
▁కుం	-10.4493
▁రుమ	-10.4506
▁ాచార	-10.4511
▁్ట్	-10.4526
▁డియో	-10.4529
▁ీచ	-10.4541
▁్వు	-10.4551
▁దె	-10.4565
▁;	-10.4574
▁ీఎస్	-10.4576
▁ౌండ	-10.4581
ార్ట	-10.4605
▁ెక్స్	-10.461
▁T	-10.4618
గుత	-10.4647
▁ేపట	-10.4657
▁డిక	-10.4657
▁ాళ్ల	-10.4673
▁నుక	-10.4674
సాద	-10.469
▁దన్న	-10.4693
్మ	-10.47
▁మాద	-10.4701
▁దన్	-10.4703
▁ీళ్ల	-10.4721
▁వాళ	-10.474
▁టిస్	-10.4742
▁దార్	-10.4755
▁ష్టం	-10.4756
▁యోగా	-10.4775
▁హోం	-10.4816
▁ెంబర	-10.4819
▁ایک	-10.4822
▁వీడ	-10.4824
▁రువ	-10.4825
ేణ	-10.4826
▁కాం	-10.484
▁బంధం	-10.485
▁80	-10.4851
▁యాల	-10.4851
▁సిర	-10.4855
▁బాద	-10.486
▁ంపు	-10.4892
▁్లూ	-10.4894
త్ర	-10.4902
▁టీటీ	-10.4902
▁దిరి	-10.4903
▁పార్	-10.4924
▁ికారు	-10.4943
▁నమ	-10.4961
▁ీరా	-10.4972
ిక్	-10.499
▁ఇంటర	-10.5018
▁ଜ	-10.5029
▁డమ	-10.5037
▁శ్వర	-10.506
మెంట	-10.5065
▁శీ	-10.5069
▁రాయి	-10.5082
▁ేలు	-10.5086
▁ిలా	-10.5093
▁ిలియ	-10.5093
▁్మా	-10.5095
▁యింట	-10.5112
▁పుత	-10.5129
▁అతన	-10.5136
కపో	-10.5137
▁ోగా	-10.5146
▁ంజా	-10.5157
▁రప	-10.5189
వా	-10.5218
▁రిపో	-10.5219
ాచార	-10.5219
▁ాశాల	-10.5224
▁గతంల	-10.5229
▁ఈసీ	-10.5249
▁ిష్క	-10.5271
▁్జా	-10.5272
▁ూడ	-10.5281
▁na	-10.5285
:	-10.5289
▁లిట	-10.5289
▁రోల్	-10.53
▁ముంబ	-10.5314
డుల	-10.5352
▁ెచ్చ	-10.5352
▁నిన	-10.5353
▁500	-10.5353
▁ైప	-10.5366
▁ెలుస	-10.538
దే	-10.5387
▁45	-10.5389
▁మాయ	-10.5397
▁తాన	-10.5401
▁డుప	-10.5414
జీ	-10.5447
▁ఉమ	-10.5447
▁చర్ల	-10.5453
▁ికార	-10.5456
▁ిటి	-10.5485
▁గతి	-10.5489
▁ఎద	-10.5489
▁గిర	-10.5501
▁శ్వా	-10.5503
▁స్సా	-10.5505
▁ిశ్ర	-10.5507
▁టాన్	-10.5518
▁మాస	-10.5527
▁్బం	-10.5548
▁రార	-10.5557
▁ారీగా	-10.5561
నూ	-10.5561
▁కోవ	-10.5582
▁ిరు	-10.5606
▁డల	-10.5607
▁రణి	-10.5608
▁థి	-10.5629
▁ామం	-10.5653
▁లిత	-10.5671
▁జన్	-10.5673
▁మంట	-10.5681
▁్యాలు	-10.5682
▁రుస	-10.5707
▁కటి	-10.5707
▁త్న	-10.5708
ిష్	-10.5708
▁న్ష	-10.5714
ं	-10.5718
▁వది	-10.5738
కార	-10.5741
ామ	-10.5753
▁ోట్ల	-10.5757
▁RE	-10.5783
ت	-10.5795
్త	-10.5801
▁କର	-10.5812
▁ిమా	-10.5813
▁లెక్	-10.5814
▁ులి	-10.5823
▁ాత్	-10.5849
▁మైంద	-10.5854
▁90	-10.5859
▁ంగి	-10.5866
▁B	-10.5866
పాల	-10.5867
▁యె	-10.5872
▁ెట	-10.5873
▁అక్క	-10.588
▁అడుగ	-10.5915
▁ికలు	-10.5915
ష్కర	-10.5923
▁కప్పు	-10.5925
AD	-10.5968
▁కాప	-10.5973
▁రాణ	-10.5975
▁ಲ್	-10.5977
ڈیو	-10.5979
▁ALS	-10.6002
▁ైమ	-10.6003
▁నరు	-10.6018
▁ంకర్	-10.6019
t	-10.603
▁్లే	-10.6035
▁ిజం	-10.6037
▁ఏట	-10.6043
▁ోవా	-10.6053
▁ଯ	-10.6099
▁యింద	-10.6112
▁అయి	-10.6132
▁అన్	-10.6146
▁టైం	-10.615
▁ావర	-10.6153
▁ౌక	-10.6163
▁گیا	-10.6165
▁ఎన	-10.6203
▁నీర	-10.6204
▁ଉ	-10.6229
▁బండ	-10.6229
▁తక్క	-10.6234
▁లయ	-10.624
ందు	-10.6241
▁విస	-10.625
▁రిమ	-10.6266
▁్స	-10.6268
▁యిస్	-10.6269
▁35	-10.6274
▁ల్యా	-10.6276
▁ी	-10.6298
▁పత్తి	-10.6298
▁ిలిచ	-10.6299
▁""	-10.6336
▁వడం	-10.6346
▁ان	-10.6347
ెన్స	-10.6355
▁త్రు	-10.6371
షణ	-10.6377
డాది	-10.6387
20	-10.6389
▁ందరి	-10.6406
▁మస్	-10.6411
▁ుమత	-10.6422
▁ఖం	-10.6425
▁त	-10.6427
▁یہ	-10.6432
▁ుతో	-10.6446
▁భక్త	-10.646
▁జైల	-10.647
యారు	-10.6471
▁स	-10.6489
▁ీప	-10.6495
యత్	-10.6501
▁ీద	-10.6511
▁వత్	-10.6525
▁మణ	-10.6528
▁కుడు	-10.653
▁పోస	-10.6539
▁ర్వా	-10.6541
▁నుండ	-10.6549
▁నాన్న	-10.6585
న్నీ	-10.6593
▁జిల్	-10.6608
م	-10.6625
▁ాబా	-10.6626
▁హు	-10.6633
▁ుంచ	-10.6644
▁మాల్	-10.6652
▁పిం	-10.6656
ఈ	-10.6679
▁యిర	-10.6686
▁ిసి	-10.6697
▁దయ	-10.6702
▁ଏ	-10.6748
▁ట్టం	-10.6751
▁ాళ్లు	-10.6764
▁ంద్	-10.6768
▁మర్శ	-10.677
▁పత్ర	-10.6776
▁ీఫ్	-10.6779
▁ర్టీ	-10.6779
▁ఎమ	-10.6793
▁ాల్గ	-10.6796
గిప	-10.6803
▁సీస	-10.6803
▁కరు	-10.6819
▁ెడు	-10.6842
▁మాం	-10.6858
▁ಭ	-10.6871
ార	-10.6874
బట్ట	-10.6875
▁లిస	-10.6901
▁प	-10.6905
▁ଗ	-10.691
▁ఖాన	-10.691
▁ీదు	-10.6933
▁గమ	-10.6938
▁మిస్	-10.6945
▁్గుర	-10.6954
▁పబ	-10.6964
▁ుతాయ	-10.6975
ప్ర	-10.6989
▁శో	-10.6995
▁in	-10.7009
▁ल	-10.7013
▁లాస	-10.7015
▁ికే	-10.7022
▁డ్య	-10.7038
▁అడ	-10.7059
▁రుడు	-10.7069
▁తూ	-10.7072
▁य	-10.7084
▁బాట	-10.7098
▁బ్బు	-10.7117
ోర్డ	-10.7119
▁్ది	-10.7133
)	-10.7133
▁ేం	-10.7149
▁ہیں	-10.7155
▁ಇ	-10.7156
▁వితం	-10.7161
▁హస	-10.7164
▁వేర్	-10.7164
▁ర్మన	-10.7171
▁ఝ	-10.7173
▁రాధ	-10.721
▁ుస్	-10.7211
▁sh	-10.7212
▁్జ	-10.7216
▁న్లు	-10.7224
ఘ	-10.7227
▁కొడ	-10.7235
▁రష్	-10.7236
▁ిపోయి	-10.7237
▁an	-10.7255
▁స్కా	-10.726
▁ంటిక	-10.7275
▁ాక్స్	-10.7282
س	-10.7292
▁వేట	-10.7294
▁ులే	-10.7296
▁ఆటో	-10.7301
▁త్య	-10.732
▁ిగి	-10.7376
▁జల్	-10.7387
ుడ	-10.739
▁హ్య	-10.7414
▁م	-10.7442
▁ోటు	-10.745
పుత	-10.7466
▁ୀ	-10.7483
▁ౌల	-10.7511
▁లప	-10.7513
ନ	-10.7559
▁म	-10.756
▁ی	-10.7608
నె	-10.7615
▁శం	-10.7618
▁శనం	-10.7636
▁కై	-10.7652
కో	-10.7654
▁ష్క	-10.7661
▁దగ్గ	-10.767
▁ిసా	-10.7673
▁ుమార	-10.7686
یا	-10.769
▁ఆరా	-10.7691
▁అలీ	-10.7739
▁అప్పు	-10.7763
▁*	-10.7784
▁ుఖ్యం	-10.7845
లపై	-10.7858
▁ియోజ	-10.7867
▁టిల	-10.7871
p	-10.7876
ొచ్చ	-10.7896
▁్టా	-10.7907
ాలని	-10.7908
▁జయ్	-10.791
▁విన్	-10.7916
▁ివర్	-10.7921
్తం	-10.7932
▁ह	-10.7941
▁మాని	-10.7945
▁మ్య	-10.7949
వీ	-10.7956
▁బెల	-10.7956
▁ాంట	-10.7967
▁జగ	-10.7971
▁బస్	-10.7995
▁పశ	-10.8003
▁ాయకు	-10.801
▁ଖ	-10.8017
▁వ్వా	-10.8032
▁ృద	-10.8043
▁s	-10.806
▁ోవాలి	-10.8069
▁అగ్	-10.8084
▁కీల	-10.8089
▁పాడు	-10.8093
▁ాయుడు	-10.8095
▁యంగ	-10.8108
▁దరిక	-10.8124
▁పైగా	-10.8129
▁ుర్తి	-10.8131
▁వైర	-10.8136
▁C	-10.8143
▁్రామా	-10.8176
▁పుడు	-10.818
▁క్షి	-10.8188
▁్యాక	-10.8197
▁ోషి	-10.8209
దో	-10.8215
▁ేశాడు	-10.8218
▁గే	-10.8229
▁శలు	-10.8234
▁బలం	-10.824
ଳ	-10.8252
▁ితులు	-10.8258
▁ఫోర	-10.8265
▁ుండటం	-10.8282
▁ాలే	-10.8286
నిపో	-10.8291
▁పాలి	-10.8292
వుల	-10.8313
▁ఘో	-10.834
▁75	-10.8361
▁ంద్రా	-10.8407
▁బంద	-10.841
ो	-10.8414
▁బస	-10.8416
▁రోగ	-10.8428
▁ాదాలు	-10.8438
▁రాని	-10.8445
▁కలు	-10.8447
▁మీప	-10.8447
▁ేశారు	-10.8458
▁షణ	-10.8466
▁కాశం	-10.8485
▁ారాలు	-10.8499
▁లయ్య	-10.8507
▁తిరు	-10.8508
▁ురు	-10.8518
ిల్ల	-10.8521
▁ేటర్	-10.8525
ట్టు	-10.8529
▁రుడ	-10.8538
▁48	-10.8543
▁ଆ	-10.8574
▁డ్స్	-10.8578
▁మోద	-10.8579
▁లన్	-10.8588
▁వేడ	-10.8612
▁ోస్ట్	-10.8628
▁మ్మె	-10.8659
▁మాండ	-10.8661
▁ుడిగ	-10.8688
▁ధవ	-10.8694
r	-10.8697
▁వైసీ	-10.8715
▁ిజ్	-10.8719
▁బోర్	-10.8721
▁రుగ	-10.8739
▁శాం	-10.8767
▁ంజి	-10.878
▁మీట	-10.879
▁బల్	-10.8807
▁భో	-10.8809
▁ఎకర	-10.881
▁ాయన	-10.8822
▁్వాన్	-10.8846
▁బట్ట	-10.887
▁ందన	-10.8882
▁ెట్లు	-10.8891
▁ీఫ	-10.8897
▁పుల	-10.8904
వాహ	-10.8914
▁ఔట్	-10.8916
▁సెల	-10.8918
▁ప్రభ	-10.8922
▁చెం	-10.8922
▁హం	-10.8926
▁ీజే	-10.8939
▁ଅ	-10.8959
▁న్నద	-10.8973
▁సగం	-10.8976
▁టీం	-10.8982
▁ోసి	-10.8998
బ్	-10.8999
▁ణల	-10.9007
▁పవన	-10.9012
ن	-10.9012
▁వాయ	-10.9015
వాద	-10.9042
▁అక్	-10.9059
▁కుంట	-10.9064
▁రుకు	-10.9068
▁ీఎ	-10.909
▁ଧ	-10.9137
▁ీట	-10.9139
▁తులు	-10.917
▁రాధా	-10.9194
▁150	-10.9196
▁సెస్	-10.9217
▁ଙ	-10.9221
▁ండర	-10.9226
▁ింహ	-10.9234
▁్రాన్	-10.9236
▁X	-10.9237
▁ేవ	-10.9241
▁ుఖ్	-10.9242
▁మూర్	-10.9256
ికి	-10.9264
▁లాన్	-10.9265
▁తమ్	-10.9279
▁్నాయ	-10.9286
▁a	-10.9305
▁్కీ	-10.9353
▁ొట	-10.9394
▁द	-10.9401
ాశాల	-10.9402
▁రద	-10.9425
▁ంకర	-10.9429
▁్రస్	-10.9443
▁చేశా	-10.9448
▁చొ	-10.9451
▁ఫీస	-10.9454
▁ేస్తా	-10.9476
▁ోగి	-10.9478
▁i	-10.9488
▁కాన	-10.9497
▁క్కర్	-10.9501
▁కవర్	-10.9517
▁్తారు	-10.9558
▁ృష	-10.9565
▁రుక	-10.9568
▁I	-10.9569
▁లాక్	-10.9571
▁ట్లా	-10.959
▁ంధ్	-10.9596
▁ెరిగ	-10.9601
▁%	-10.9609
▁రోహ	-10.961
▁మోహ	-10.9622
▁పాయి	-10.9623
▁రేష	-10.9633
▁్రాఫ	-10.9637
్యాచ	-10.9653
▁తరం	-10.9656
▁ీసీ	-10.9688
ష్య	-10.9692
▁్యర్	-10.9701
50	-10.9724
▁శిక్	-10.975
▁కట్టు	-10.9786
▁ుఖ	-10.9796
▁పీడ	-10.98
▁ీనం	-10.9804
▁లాట	-10.9818
▁ہ	-10.9841
▁ଚ	-10.9859
▁ీఎల్	-10.986
▁భయం	-10.9869
▁్రత	-10.9875
▁ెరి	-10.9882
డంతో	-10.9886
▁లెట	-10.9903
▁ెబ	-10.9908
▁హాస	-10.9912
▁నియో	-10.9919
▁ra	-10.992
▁ల్చ	-10.9927
▁ాఫ	-10.9933
▁ేడు	-10.9944
▁ఒకట	-10.996
▁రకా	-10.9964
▁ీటర	-10.9966
କ	-10.9966
▁ెవ	-10.9971
▁ండ్లు	-10.9978
▁ాడన	-10.9986
▁గం	-10.9998
▁్రయ	-11.0003
er	-11.0008
▁Cha	-11.0011
▁డిపో	-11.0015
▁ేరా	-11.0015
▁పటి	-11.0026
▁ిభ	-11.0032
ଷ	-11.0049
ಖ	-11.0049
▁సుమ	-11.0058
▁తడ	-11.0062
▁షర్	-11.0103
ఏ	-11.0147
▁ాధ	-11.015
▁నగరం	-11.0151
▁్గా	-11.0208
▁వాదం	-11.0215
▁ందన్	-11.0223
▁యశ	-11.0245
▁్యత	-11.0252
▁తీర్	-11.0275
▁రప్	-11.0321
▁్పా	-11.0324
▁com	-11.0357
▁ర్డ	-11.0359
ాలేజ	-11.037
▁రబ	-11.0423
▁ీబ	-11.0423
▁లిటీ	-11.0426
▁చం	-11.0437
▁AI	-11.0438
▁రిష	-11.0455
▁ియాల	-11.046
▁్లు	-11.0486
ಫ	-11.049
▁హీ	-11.0491
▁ాచ్	-11.0491
ిలీజ	-11.0494
▁రౌ	-11.0499
▁లీడ	-11.0536
▁ఐద	-11.054
▁ళ్లకు	-11.0559
▁అసల	-11.0565
4	-11.0607
sh	-11.0611
▁జం	-11.0618
▁అజ	-11.0619
▁ర్సి	-11.0629
▁32	-11.0646
సా	-11.065
▁ంచా	-11.0651
▁తాల	-11.0663
▁్మల	-11.068
▁థ్య	-11.069
▁وائرل	-11.0692
▁దడ	-11.0705
సిటీ	-11.0731
c	-11.0733
▁ంచం	-11.0767
▁ిచే	-11.0769
ిల్	-11.0772
▁వరక	-11.0776
▁N	-11.0776
▁vs	-11.0795
▁ర్చి	-11.0814
▁ంగల్	-11.082
6	-11.0821
▁సిప	-11.0825
▁ణిక	-11.0827
▁్కార్	-11.0854
చ్	-11.0866
▁రోప	-11.0869
▁ణలు	-11.0875
▁్లర	-11.0882
▁కేషన్	-11.0906
▁గుం	-11.0909
ంటే	-11.0928
▁ుల్ల	-11.0932
▁ళం	-11.0934
వ్వ	-11.095
▁ాబు	-11.0956
▁మాల	-11.0963
▁ేళ	-11.0968
▁ిధి	-11.0993
ౖ	-11.1004
▁శీల	-11.1025
▁ొచ్చి	-11.1038
▁ోలి	-11.1045
▁కుండ	-11.105
పీ	-11.1055
▁ଶ	-11.1059
▁దవ	-11.107
▁ోత్	-11.1075
▁డద	-11.1088
▁చై	-11.1095
▁ూమ	-11.1108
▁...	-11.112
▁లలు	-11.1121
I	-11.114
▁ాన్న	-11.1166
▁స్టు	-11.1168
▁ఘనత	-11.1169
▁లేన	-11.1177
▁ామిన	-11.1178
ీం	-11.118
▁హద	-11.1198
▁ాహ్న	-11.1215
▁అండ	-11.1216
▁ోపా	-11.1219
▁36	-11.123
▁్తాన	-11.1231
▁ాడా	-11.1264
▁व	-11.1272
▁ఇష్	-11.1272
▁ప్పం	-11.1273
▁ోటీ	-11.1293
%	-11.1306
▁సంవ	-11.1308
▁33	-11.1313
▁ధుల	-11.132
▁al	-11.133
▁గళ	-11.1334
▁ఆరో	-11.1337
ି	-11.1359
▁ఫైనల	-11.1389
▁ఫిక	-11.1396
▁యోగి	-11.1409
కాశా	-11.143
▁دعو	-11.1437
▁ग	-11.144
▁ఏఐ	-11.1441
▁యాన	-11.1443
े	-11.1455
▁్యాప	-11.1457
▁34	-11.146
▁ెంబ	-11.1462
▁S	-11.1473
▁ఈటల	-11.1474
▁D	-11.1481
▁దగ	-11.1486
▁ామర	-11.15
▁డాన్	-11.1505
▁చారి	-11.1538
▁ోటీసు	-11.1547
▁చిత	-11.1548
▁కిల్	-11.1568
▁చంద్	-11.157
▁400	-11.1603
▁ఫిర	-11.1605
▁ోతు	-11.1608
ిలువ	-11.163
▁జనా	-11.1638
▁ెలు	-11.1674
▁ుండగ	-11.1687
▁ాదాల	-11.1707
▁నప్ప	-11.1722
▁ش	-11.1763
▁ब	-11.1771
▁కాలి	-11.178
▁ెత	-11.1807
▁ాటిక	-11.1865
▁బయ	-11.1873
ొందర	-11.192
▁కదా	-11.1924
▁یا	-11.1932
▁د	-11.1936
▁ज	-11.1946
▁42	-11.1946
▁ేయాలి	-11.195
▁రక్	-11.1953
A	-11.1968
▁లీల	-11.1999
▁నామా	-11.2018
▁సంబ	-11.2036
▁లాడ	-11.2037
چ	-11.2057
▁యాస	-11.2063
▁చేయలే	-11.2064
▁ہوئ	-11.2079
▁కోల	-11.2079
ము	-11.208
▁ఇస్	-11.2109
▁సంజ	-11.2115
▁ాడుత	-11.2122
▁نہیں	-11.2122
▁దుపు	-11.2125
▁సిల	-11.2132
డర్	-11.2134
▁ఖ్	-11.2134
▁యిల	-11.2138
▁హైద	-11.2151
ారు	-11.2163
▁భ్య	-11.2166
▁పెర	-11.2189
గస్ట	-11.2193
▁ేగం	-11.2199
▁్వం	-11.2208
▁ిసె	-11.2226
▁ಈ	-11.2238
▁nth	-11.2239
▁ాణం	-11.2244
▁్యూస	-11.225
ెట్	-11.226
60	-11.2271
▁ల్లీ	-11.2277
▁రంభ	-11.2286
ب	-11.2306
▁రెట్	-11.2318
▁హాన్	-11.232
ికల్	-11.2342
▁ر	-11.2347
▁కమ్	-11.2354
▁ఎయి	-11.2358
▁ిం	-11.2361
ٹ	-11.2362
ౌండ	-11.2379
▁్రై	-11.238
▁ాఠ	-11.2381
▁ాస్తు	-11.241
▁తర్	-11.2414
▁టెంట్	-11.2419
▁దాయ	-11.2422
▁ంఘ	-11.2452
▁ిపడ	-11.2452
▁ెట్ల	-11.2464
▁ీకా	-11.2474
▁లాం	-11.2478
▁ాలీ	-11.2479
▁ిఫి	-11.249
▁ార్చ	-11.2495
▁త్మ	-11.2499
▁కంగ	-11.2503
▁బూ	-11.2505
▁ిపార	-11.2511
▁పాన	-11.2518
టర్	-11.2532
▁సూపర	-11.2532
▁పోయి	-11.2543
▁ాంత్	-11.2544
▁అమిత	-11.2547
▁జుల	-11.2548
▁ోలీ	-11.2555
▁థ్	-11.2574
▁ేకం	-11.2634
▁్యమ	-11.2637
▁లాండ	-11.2654
▁ీస	-11.2664
▁గవ	-11.2682
▁మధ	-11.27
▁నంత	-11.2703
▁తాయ	-11.272
▁ెన్ష	-11.2723
▁పరిష	-11.2729
▁+	-11.273
▁ొల	-11.2738
▁లార	-11.2747
▁ీబీ	-11.2749
▁ంస్	-11.2814
40	-11.2816
▁G	-11.2843
▁ت	-11.2887
ీకర	-11.2892
▁ెయిన	-11.2894
▁ndr	-11.2907
▁్ము	-11.2912
▁ెప్	-11.2918
▁ష్యం	-11.2919
▁ଁ	-11.2919
▁్నర్	-11.292
l	-11.2921
▁وال	-11.2953
▁పాయ	-11.2971
▁భంగ	-11.2972
▁ెరుగు	-11.2983
▁ప్పట	-11.2989
▁ొందర	-11.3003
اتھ	-11.3014
జేపీ	-11.3057
▁గిం	-11.3077
▁టెన	-11.3077
▁کر	-11.3091
▁విధా	-11.3139
▁ద్య	-11.3139
▁్జు	-11.3167
▁శంకర	-11.3171
▁جس	-11.3177
▁L	-11.3177
▁మృ	-11.3183
▁ివే	-11.3211
▁ుగో	-11.3229
▁్ణ	-11.3255
ాడ	-11.3338
▁శ్వర్	-11.3357
బా	-11.336
▁డబ్బ	-11.3362
ٰ	-11.3375
▁gu	-11.338
▁గీ	-11.3389
75	-11.3431
▁సహజ	-11.3512
▁ొర	-11.3516
▁టేషన్	-11.3521
▁విమ	-11.3526
నాడు	-11.3527
▁హే	-11.356
▁వాసం	-11.3573
▁జెన్	-11.3614
▁38	-11.3616
o	-11.362
▁ద్ది	-11.3633
▁ہم	-11.3651
▁బెట	-11.3654
▁ేశం	-11.3664
▁ారన	-11.3666
▁65	-11.3668
▁er	-11.3716
▁K	-11.3737
▁రేవ	-11.3741
సే	-11.3745
▁ఇబ	-11.3746
▁స్టో	-11.3757
▁మాదం	-11.3759
▁లియ	-11.3771
▁ుగ్	-11.3775
▁ుగుల	-11.3792
▁్వర్	-11.3798
یر	-11.382
▁تھا	-11.3822
▁మోడ	-11.3844
▁nga	-11.3869
▁E	-11.387
▁ఢీ	-11.3877
ु	-11.3925
▁@	-11.3925
ాల్	-11.3926
30	-11.397
▁ఇష	-11.3989
▁జ్ర	-11.3997
▁55	-11.3999
▁ాలం	-11.4033
▁గడ్	-11.4059
▁కస్	-11.4065
▁پی	-11.4076
▁కామ	-11.4088
▁ోర్డ	-11.409
▁ఊరట	-11.4091
▁కృ	-11.4093
▁ెళ	-11.4099
▁సీన	-11.4102
▁యత్	-11.4103
▁య్యా	-11.4107
▁ఓం	-11.4112
▁ంపి	-11.4128
▁్పాట్	-11.414
▁بھی	-11.4147
T	-11.4148
▁నాన	-11.4189
▁యాని	-11.4198
▁ుచు	-11.4207
▁41	-11.4207
▁ామి	-11.4211
▁ଫ	-11.4212
▁మంత్	-11.423
▁యాక	-11.4249
ర్యా	-11.4262
10	-11.4263
▁ఎమ్	-11.4263
▁బీజ	-11.4276
▁ాలేద	-11.4276
و	-11.428
▁అభ	-11.4281
▁ంట్లు	-11.4284
▁video	-11.4285
▁ోట్	-11.4286
▁&	-11.4286
▁ఖ్య	-11.431
ان	-11.4325
▁ీడీ	-11.4326
▁w	-11.4334
▁ధా	-11.4337
▁రాత	-11.4346
▁ీలన	-11.4348
▁షన్లు	-11.4358
▁tion	-11.4358
▁ారన్	-11.4367
▁వతి	-11.4369
▁డుల	-11.4378
SC	-11.44
▁ివా	-11.4401
▁44	-11.4403
▁విద	-11.4406
▁ిప్ర	-11.4408
▁నాడ	-11.441
▁ಎಂ	-11.4438
▁ర్చు	-11.4446
▁వీట	-11.4462
▁2.	-11.4467
ಬ	-11.4473
▁کرت	-11.4486
▁డుక	-11.453
▁సరే	-11.4548
▁అవక	-11.4562
▁ియర	-11.4562
▁ఖా	-11.4564
▁పణలు	-11.4588
▁ధారణ	-11.4589
▁రాస్	-11.4596
▁ام	-11.4612
▁వైస	-11.4612
▁ధ్	-11.4613
▁యత్నం	-11.4634
▁టార	-11.4657
▁సిట	-11.4661
▁ర్య	-11.468
▁గించ	-11.4691
▁37	-11.4711
▁జాగ	-11.4716
▁విని	-11.4721
ld	-11.4723
▁్చర్	-11.4752
▁ాగ్ర	-11.4753
▁రంభం	-11.4756
▁ిపా	-11.4799
▁రమ్	-11.4809
▁ఓటర	-11.4811
ಥ	-11.4811
▁ాహు	-11.483
▁2,	-11.4835
▁ినో	-11.4843
▁ంటా	-11.4846
తుండ	-11.4849
7	-11.486
▁52	-11.4862
▁తారా	-11.4903
▁గారు	-11.4941
▁ఆదా	-11.495
کھا	-11.4963
▁సెం	-11.4978
▁రాక్	-11.4982
1	-11.4994
▁సీఎ	-11.4999
దుల	-11.5006
▁39	-11.5023
▁ెయిల	-11.5035
▁మంగ	-11.5035
▁రిశ	-11.5075
▁్జ్	-11.5106
▁అలాగ	-11.5111
▁51	-11.5119
▁పీల	-11.5157
▁Al	-11.5167
ର	-11.5168
▁Tel	-11.5188
▁46	-11.5193
▁చించ	-11.5195
▁میڈ	-11.5205
▁tel	-11.5207
ద్దత	-11.5208
▁ఫో	-11.5215
र	-11.5251
▁పేర్	-11.5279
▁ీడి	-11.528
▁ాయలు	-11.5292
▁మాత	-11.5324
▁రద్	-11.533
▁250	-11.5332
▁ుమ్	-11.5343
▁బాబ	-11.5358
▁ین	-11.5372
▁పత్	-11.5376
▁లిస్	-11.5386
d	-11.541
g	-11.5414
R	-11.5429
▁ఖర్చ	-11.5445
▁ాధార	-11.5446
"	-11.5448
▁ల్స	-11.5448
▁tter	-11.5449
▁ేసీ	-11.545
▁49	-11.545
▁Pla	-11.5453
▁رہ	-11.546
▁బోర	-11.5475
▁పడా	-11.5476
ں	-11.548
▁లాస్	-11.5481
▁mal	-11.5482
▁మధు	-11.5495
▁ଓ	-11.5503
▁ఇవే	-11.5529
ଂ	-11.5532
వీక	-11.5548
▁కపోత	-11.5553
▁ఈరోజ	-11.5565
1)	-11.558
▁ష్కర	-11.5599
▁ఇవ	-11.5613
▁کرن	-11.5614
▁్పన	-11.5623
▁సిస	-11.5625
▁ాబాద	-11.5627
ీఏ	-11.5664
డీపీ	-11.5679
▁్సెస	-11.568
▁క్తు	-11.5683
-	-11.5706
▁ూజ	-11.5755
▁హీర	-11.5756
▁ేయడ	-11.5761
▁ారిక	-11.5779
▁جان	-11.5795
▁تصو	-11.5804
▁గాన్	-11.5804
▁తండ	-11.5806
▁R	-11.5825
th	-11.5861
▁ిటిష	-11.5866
m	-11.5874
▁మతం	-11.5884
▁వులు	-11.5886
▁ర్భం	-11.5889
ng	-11.5892
▁నన్	-11.5941
▁ుబాట	-11.5948
▁ాసా	-11.5967
▁ూపు	-11.5984
▁ుతుం	-11.5989
▁వర్గం	-11.5997
▁చనిప	-11.6005
▁ిహ	-11.6016
so	-11.6021
▁ింట్	-11.6053
ز	-11.6059
▁اپن	-11.6082
▁వాలి	-11.6093
▁శాన	-11.6101
▁ారణ	-11.6118
▁ోచన	-11.6121
▁ూసు	-11.6122
▁వెం	-11.6137
▁ిద్	-11.6154
▁ఓకే	-11.6155
▁ంపా	-11.6157
జ్	-11.6161
▁nt	-11.6201
▁O	-11.6201
▁ందుక	-11.6204
▁ti	-11.625
▁ుగ్గ	-11.6251
▁ఫే	-11.6259
▁ya	-11.6261
▁బీజే	-11.627
▁43	-11.6291
▁ర్షం	-11.63
▁రాలే	-11.6309
▁ూచ	-11.6389
▁ات	-11.639
▁ూస్	-11.6407
▁భాగం	-11.6417
▁ేశి	-11.6438
▁విచ	-11.6453
▁దై	-11.6457
▁లంట	-11.6486
▁ఉద్	-11.6489
▁రాణా	-11.649
▁la	-11.6492
▁్ష్	-11.6506
▁న్సీ	-11.6518
▁టీవ	-11.6524
▁ర్జా	-11.6529
▁రిం	-11.6533
▁దాడ	-11.6554
▁pic	-11.6581
▁మనీ	-11.6607
▁47	-11.6623
▁నిధ	-11.6627
▁ణుల	-11.6637
▁1,	-11.6638
▁تو	-11.6663
▁babu	-11.6673
▁ెక	-11.6681
▁ెచ్	-11.6683
▁మొదలై	-11.6687
▁1.	-11.67
▁72	-11.6718
▁tw	-11.6736
▁శార	-11.6744
ce	-11.6766
▁ఉంటా	-11.6768
▁నంగా	-11.6781
▁ముద్	-11.6806
▁్ధం	-11.6819
G	-11.682
▁త్నం	-11.6821
▁రుల	-11.683
ణం	-11.6857
▁56	-11.6858
▁సెస	-11.6859
▁మహి	-11.6886
▁Y	-11.6891
▁పోర్	-11.6906
▁లైన	-11.6911
▁ni	-11.6913
▁ోరి	-11.6914
▁పాప	-11.6921
▁ంకా	-11.6929
▁54	-11.6933
వంబర	-11.6981
▁ئی	-11.6989
ئے	-11.6994
దా	-11.7019
▁క్షు	-11.7045
▁ూటీ	-11.7046
▁హక్	-11.7048
70	-11.7049
ೃ	-11.7052
▁చర్చి	-11.7053
▁ిస్థ	-11.7055
▁్యంగ	-11.7067
డు	-11.7094
▁ద్దత	-11.7098
▁తగ్గి	-11.7112
▁తాం	-11.7132
▁Ra	-11.7138
▁PM	-11.7142
▁‭	-11.7149
▁M	-11.7186
▁e	-11.7201
▁vi	-11.7214
▁యింట్	-11.7215
ح	-11.7235
▁్శ	-11.7239
▁k	-11.7242
▁ఇక్క	-11.7263
▁యమ	-11.727
▁చద	-11.7303
▁ర్మా	-11.7309
2	-11.733
▁టన	-11.7332
ీడియ	-11.7334
▁ిదా	-11.734
▁ాయల	-11.7347
ాయని	-11.7355
▁రెన	-11.7384
▁చో	-11.7392
టంతో	-11.7393
▁కూల్	-11.7408
ఢ	-11.7413
▁మాను	-11.7417
▁58	-11.7422
▁భం	-11.7434
ెల్	-11.7443
▁థలు	-11.7468
▁నేన	-11.7482
▁థుల	-11.7488
24	-11.7515
ال	-11.7523
▁వచ్చా	-11.753
▁am	-11.755
▁t	-11.755
▁ٹی	-11.7568
▁ానాలు	-11.7575
▁ంగ్స్	-11.7587
▁AP	-11.7589
3	-11.7594
▁ar	-11.7613
▁ండే	-11.7639
▁కలి	-11.7659
పుల	-11.7681
▁్రహం	-11.7685
▁ర్తల	-11.7688
▁శవ	-11.7705
▁ాయక	-11.7718
80	-11.7738
▁టీన	-11.7747
▁్రదర్	-11.7753
▁gov	-11.7753
▁h	-11.777
▁ంధు	-11.7772
P	-11.7781
సీ	-11.7796
▁గిప	-11.7798
▁సిబ్	-11.781
▁دی	-11.7811
ଲ	-11.7821
▁వరు	-11.783
▁పిస	-11.7837
▁నిస్	-11.7837
▁కొంద	-11.7847
▁ర్టు	-11.7852
▁ురం	-11.7852
▁మాణం	-11.7871
▁ియల	-11.7892
ిడె	-11.7909
▁ూడో	-11.792
▁డియా	-11.7922
▁జెన	-11.7932
▁ద్రి	-11.7937
▁యడం	-11.7943
ئی	-11.7948
iru	-11.7949
▁ఆరోపణ	-11.7957
▁ट	-11.7959
▁च	-11.7962
رف	-11.7972
▁سی	-11.7973
▁te	-11.7985
▁ఊరు	-11.7986
▁ఘట	-11.8
▁3.	-11.8002
▁నిరస	-11.8011
.1	-11.8043
08	-11.805
▁ీఆర	-11.8052
▁`	-11.8069
▁ాప్త	-11.807
▁రైల్	-11.8078
▁ار	-11.8079
▁ర్చా	-11.8093
▁ోసారి	-11.8093
▁తాజ	-11.8103
▁ున్	-11.8114
▁ఆనం	-11.8123
▁యవ	-11.8144
▁రెస	-11.8145
▁శర	-11.8155
▁st	-11.8162
▁ಉ	-11.8176
▁News	-11.8176
▁144	-11.8185
▁بی	-11.82
▁చెన్	-11.8202
▁రాను	-11.8209
TC	-11.8212
▁జయం	-11.822
▁ఏవీ	-11.8227
▁టున	-11.8233
▁ଏହ	-11.8257
▁రమా	-11.8262
▁انہ	-11.8291
rea	-11.8297
▁ుపు	-11.8302
డ్	-11.8327
▁్మన	-11.8328
రె	-11.8329
▁85	-11.8339
▁ష్మ	-11.8351
▁రకం	-11.8353
▁ుమా	-11.8363
▁తంగ	-11.8367
ిపో	-11.8389
▁में	-11.8395
▁4,	-11.8405
▁షేర	-11.8408
▁వుడ	-11.8423
▁ిదే	-11.8437
▁్లాడ	-11.8446
▁ోల్ప	-11.8465
▁కేసీ	-11.8476
▁ఇంద	-11.8505
▁ెత్	-11.851
▁టులు	-11.8517
▁57	-11.8526
▁ాంక్	-11.8539
▁పొగ	-11.8546
▁تھ	-11.856
ش	-11.8569
▁ta	-11.8582
ଇ	-11.8584
▁్టె	-11.8599
▁హాన	-11.8608
▁హబ్	-11.8622
▁మయం	-11.8642
ులు	-11.8683
▁ుంటా	-11.8701
15	-11.8719
▁Reddy	-11.8732
▁ड	-11.8732
1,	-11.8737
▁Pri	-11.8741
▁నౌక	-11.8761
▁్షు	-11.8767
▁ప్తు	-11.8772
وش	-11.8819
▁ౌన	-11.882
▁తువు	-11.8827
▁ెంద	-11.8841
▁ోజు	-11.8846
▁Jaga	-11.8847
▁TSP	-11.8847
▁్వీట్	-11.8847
వాల	-11.8849
▁హ్న	-11.8876
▁US	-11.891
▁్నం	-11.8939
ుతు	-11.8941
▁పడం	-11.8959
▁پوسٹ	-11.8963
▁ہمیں	-11.8965
▁టాక	-11.8965
ిప	-11.8969
▁ేయి	-11.8974
▁6,	-11.8994
▁64	-11.8998
▁డటం	-11.9006
▁3,	-11.9012
▁్లాం	-11.9053
▁ీళ్లు	-11.9065
▁59	-11.9066
▁ب	-11.9068
▁డెంట	-11.9091
▁अ	-11.9097
ముద	-11.9106
▁నామి	-11.9128
▁ేసు	-11.9133
▁گئ	-11.9148
▁ోస్ట	-11.9161
12	-11.9166
రాణా	-11.9168
▁lt	-11.9181
▁V	-11.9183
▁ن	-11.9186
▁ీజన	-11.9187
▁ూప్	-11.9197
نے	-11.9205
యో	-11.9217
▁మద్	-11.9219
▁చలి	-11.9223
▁వుడ్	-11.9224
0)	-11.9233
▁u	-11.9235
▁ితా	-11.9258
థ్	-11.9269
C	-11.9275
▁క్షన	-11.9278
సారి	-11.9297
▁మున్	-11.93
▁طر	-11.9317
ू	-11.932
▁جب	-11.9324
▁श	-11.9325
▁P	-11.9325
▁యాదవ	-11.9336
▁పత్రి	-11.9339
భయ	-11.9342
▁53	-11.9353
▁ాధ్	-11.9361
▁సవా	-11.9373
▁కాగ	-11.9374
ేషన్	-11.9394
▁మ్మడ	-11.9404
ad	-11.9423
▁్బు	-11.9424
na	-11.9438
▁୨	-11.9442
▁news	-11.9442
4)	-11.9448
ف	-11.9454
▁ర్నర్	-11.9458
▁రైత	-11.9553
▁➦	-11.9565
▁tions	-11.9566
▁సక్త	-11.9573
▁re	-11.9575
▁ేరుత	-11.9576
▁ck	-11.9588
▁ాహా	-11.9592
.8	-11.96
▁్రీన	-11.9602
వై	-11.9603
▁جو	-11.9604
▁ایس	-11.961
▁c	-11.9625
య్య	-11.9649
▁మాత్	-11.9657
▁63	-11.9657
▁ేతల	-11.9681
▁పెద	-11.9685
▁లకే	-11.9688
▁لئے	-11.9691
▁്	-11.9691
▁ri	-11.9694
▁دیش	-11.9695
▁ز	-11.9707
▁ری	-11.971
ww	-11.971
▁ెక్ట	-11.9751
ج	-11.9758
వాస	-11.9766
▁సీని	-11.9812
▁post	-11.9817
▁Read	-11.9818
▁ణీ	-11.9825
▁షమీ	-11.9828
▁్థం	-11.986
శ్వ	-11.9862
▁యడ	-11.9887
రేక	-11.9894
▁షన్ల	-11.9917
▁ాంతం	-11.9929
ୂ	-11.9945
▁है	-11.9945
ఆ	-11.9978
▁దివా	-12.0007
▁సమా	-12.0016
▁tha	-12.002
▁్రాలు	-12.003
▁66	-12.0046
▁62	-12.0054
़	-12.0075
▁்	-12.0075
▁ہند	-12.0075
یئر	-12.0081
▁ాట్లు	-12.0082
▁్క్	-12.0104
▁ండ్రు	-12.011
▁నుమా	-12.012
▁یو	-12.0126
▁ttp	-12.0128
▁హిళ	-12.0151
▁్రేక	-12.0163
▁నాక	-12.018
▁ل	-12.0197
▁_	-12.0207
▁్థానం	-12.0215
ra	-12.0223
▁పులు	-12.0234
▁نگ	-12.0235
▁va	-12.0281
▁4.	-12.0332
లోకి	-12.0334
▁అనుమ	-12.0339
☛	-12.034
▁కరీ	-12.0346
▁ృష్టి	-12.035
▁119	-12.0354
▁ఓవర	-12.0356
ch	-12.037
▁Rev	-12.0374
▁డ్జె	-12.0404
▁ج	-12.042
▁95	-12.0426
ంస్థ	-12.046
ెలుగ	-12.0461
▁ిటల	-12.0465
▁ామె	-12.048
▁H	-12.0491
▁సాద	-12.051
▁سر	-12.0512
▁మయ్	-12.0523
▁కోర్	-12.0528
▁Vi	-12.0538
▁ిలే	-12.0545
ఓ	-12.0551
▁ంగ్ల	-12.0562
▁లిచ	-12.0568
▁99	-12.0585
ائ	-12.0587
▁Pra	-12.0592
▁తుల్	-12.0601
▁ిరే	-12.0648
టి	-12.0653
▁بار	-12.0653
02	-12.0659
ka	-12.067
▁69	-12.069
▁or	-12.0701
▁F	-12.0723
▁J	-12.0736
▁Ele	-12.0751
▁طو	-12.0782
▁పీఎ	-12.0797
D	-12.0816
▁హారా	-12.0819
18	-12.0833
▁ఈజీ	-12.0836
େ	-12.0866
ع	-12.0867
▁W	-12.0867
▁ీసు	-12.0872
▁దాన్	-12.0887
ै	-12.0892
▁BRS	-12.0892
▁یں	-12.0911
▁125	-12.0914
ేష్	-12.0929
▁دور	-12.0962
▁్నాలు	-12.0964
▁పిట	-12.0975
▁ృద్ధ	-12.1037
▁యుడు	-12.1042
଼	-12.1046
▁ాటర	-12.105
▁7,	-12.1059
▁دیکھ	-12.106
▁5,	-12.1064
f	-12.1068
▁విస్	-12.1069
▁ీగ	-12.1088
▁ెంచ	-12.1096
▁ములు	-12.1109
▁ంప్ర	-12.111
హర	-12.1119
.7	-12.1125
▁ంగం	-12.1129
▁67	-12.1151
▁రోస	-12.1165
▁ాపూ	-12.1178
▁جارہ	-12.118
▁ఓయూ	-12.1182
▁షనర	-12.1188
▁ru	-12.1188
▁ରେ	-12.1189
▁Pawa	-12.119
▁71	-12.1198
▁ిచా	-12.1202
▁పరుగు	-12.1202
▁Prad	-12.1226
▁టింగ	-12.1247
▁And	-12.1249
▁se	-12.1257
▁దిక	-12.1262
▁డబ	-12.1293
▁గిస	-12.13
2)	-12.1301
▁దువ	-12.1346
il	-12.1361
▁లభిం	-12.1377
▁హవా	-12.1388
99	-12.1389
▁ారంగ	-12.1398
.3	-12.1398
▁తల్	-12.1407
90	-12.1417
▁Go	-12.1417
▁84	-12.1423
▁ట్స	-12.1428
▁వంత్	-12.1443
▁పక్	-12.1461
▁క్షా	-12.1461
▁جا	-12.1464
▁లయం	-12.1466
▁ద్దే	-12.1472
ୱ	-12.1476
▁ుప్	-12.1479
▁x	-12.1505
▁OT	-12.1517
▁పుట్	-12.1518
▁وہ	-12.1521
V	-12.1527
▁68	-12.1528
▁GB	-12.1554
▁بع	-12.1561
▁UP	-12.1564
▁టలు	-12.1564
▁తెలు	-12.1574
▁టాలు	-12.1578
్టేష	-12.1604
B	-12.1607
▁ేకప	-12.1609
▁ద్ధం	-12.1618
▁బిత	-12.1625
▁India	-12.1628
▁ଏବ	-12.1628
▁BBC	-12.1628
▁की	-12.1628
TR	-12.1631
▁యస	-12.1639
▁ଘ	-12.1644
▁్యక	-12.1655
డీ	-12.1656
ک	-12.1658
▁యార	-12.1659
▁్కా	-12.1667
ఐ	-12.1699
▁గట్	-12.1718
چھ	-12.1721
ప్	-12.1731
▁ڈی	-12.1743
28	-12.1761
శ్	-12.1763
▁Fac	-12.1766
▁న్సి	-12.1777
ୌ	-12.1781
▁Kaly	-12.1787
2,	-12.1792
▁ారె	-12.1794
▁res	-12.1812
JP	-12.1841
▁ిపారు	-12.1848
ps	-12.1869
▁లర్లు	-12.1869
▁ిహా	-12.1895
▁Ram	-12.1911
▁77	-12.1926
▁भ	-12.1937
▁బాటు	-12.1946
▁Goo	-12.196
▁ూవ	-12.1987
da	-12.1989
▁th	-12.1994
3,	-12.2002
▁కత్	-12.2003
▁యన్స	-12.2013
L	-12.2027
భా	-12.2034
▁ne	-12.2041
▁the	-12.2058
▁గారం	-12.2058
▁sha	-12.2064
▁తేజ	-12.2067
▁76	-12.2086
▁చింద	-12.2092
▁ध	-12.2098
▁ాదవ్	-12.2098
▁का	-12.2103
▁సీజన	-12.2116
8)	-12.216
ma	-12.2166
13	-12.2166
▁కవి	-12.2181
▁పథ	-12.2185
17	-12.2188
▁కేం	-12.2207
▁భివ	-12.2212
▁ిషన	-12.2229
▁Sha	-12.2234
35	-12.2265
14	-12.2267
త్	-12.2281
▁ంగల	-12.2296
▁اب	-12.2306
up	-12.2311
▁لی	-12.2311
▁కోత	-12.2352
▁బిల	-12.2353
6,	-12.2373
▁షక	-12.2385
▁Che	-12.2424
▁78	-12.2432
▁82	-12.2457
▁రాన	-12.2461
▁డిన	-12.2485
▁ిగాయి	-12.2488
▁రుప	-12.2493
45	-12.2501
▁جن	-12.2508
.2	-12.2509
ید	-12.2511
▁వ్వడ	-12.2525
▁తమి	-12.2533
▁్కార	-12.2546
▁మిష	-12.2554
▁కాలే	-12.2554
▁ʼ	-12.2589
▁आ	-12.2589
▁با	-12.2605
▁యెల్	-12.2609
X	-12.2678
38	-12.2723
▁73	-12.2727
▁gl	-12.2731
ಒ	-12.2758
▁of	-12.2758
▁ए	-12.2775
▁్చా	-12.2797
▁రీన్	-12.281
k	-12.2817
▁انی	-12.2824
34	-12.2837
51	-12.2843
▁ిరుద	-12.2843
▁్వీ	-12.2854
వడం	-12.2868
▁ہون	-12.2881
6)	-12.2891
▁Wor	-12.2891
▁ంచన	-12.2893
نٹ	-12.2894
▁61	-12.2903
▁రాము	-12.2912
ض	-12.2919
va	-12.2925
▁రవే	-12.2925
▁త్నా	-12.2927
▁్షం	-12.2944
▁టర్ల	-12.2974
▁بھار	-12.298
ైవ	-12.2988
జన	-12.2993
▁ొద	-12.3007
▁్టి	-12.3016
▁టర్లు	-12.3017
▁సింది	-12.3024
▁ాధిక	-12.3033
▁el	-12.3078
▁ైసీ	-12.3101
x	-12.3109
▁ख	-12.3109
▁ملا	-12.3113
▁సృ	-12.3138
యం	-12.3144
27	-12.315
▁n	-12.3157
▁pa	-12.3157
▁آن	-12.3183
▁Z	-12.3187
▁డింద	-12.3192
▁ంతం	-12.3197
▁ీట్లు	-12.3215
▁پا	-12.3227
▁ుగులు	-12.3231
▁చట్	-12.3249
▁ట్య	-12.3284
5)	-12.3289
▁మొద	-12.3291
▁ng	-12.3294
▁్టిస	-12.3313
▁కోట్	-12.3315
▁కపో	-12.3318
ణు	-12.3327
▁సోష	-12.3338
▁న్నో	-12.334
du	-12.3345
▁అక్ర	-12.3357
'	-12.339
▁ట్న	-12.3394
▁ంశం	-12.3444
▁్డే	-12.3446
▁బలి	-12.3465
▁IPL	-12.3466
▁को	-12.3468
▁گئے	-12.347
▁శాస	-12.3478
▁111	-12.3487
▁ెల్స	-12.3489
ీబీ	-12.3507
▁ون	-12.3523
▁ంటాయ	-12.3528
▁نام	-12.3531
▁bha	-12.3532
▁b	-12.3537
▁آئ	-12.3566
▁పడ్డా	-12.3578
▁నమ్	-12.3614
▁రింగ	-12.3628
Y	-12.3632
▁ہو	-12.3636
▁>	-12.3651
▁త్వా	-12.3667
▁వైద	-12.3702
▁ఆర్థ	-12.3705
▁మత్	-12.3715
me	-12.3719
▁రజా	-12.3749
▁ing	-12.3749
▁ాతీ	-12.3759
▁మీటర	-12.3778
▁7.	-12.3785
▁మమత	-12.3817
▁కమిట	-12.3832
▁ఇదీ	-12.3834
▁फ	-12.3841
▁పెన	-12.3863
21	-12.3886
▁Nar	-12.3911
▁గణన	-12.3973
▁92	-12.3976
وم	-12.3996
▁తుంద	-12.4022
లాంట	-12.4043
▁Su	-12.405
▁دو	-12.4055
▁హుల	-12.4079
▁صا	-12.408
▁81	-12.4083
▁రూపా	-12.409
le	-12.4103
▁دن	-12.4104
▁తేద	-12.4112
▁హత్	-12.4121
▁ాధి	-12.4125
▁U	-12.413
▁74	-12.4136
▁ఎక్	-12.415
▁li	-12.4181
01	-12.4206
▁در	-12.4213
▁ేలియ	-12.4218
65	-12.4222
୦	-12.4228
▁్థా	-12.4242
▁చడం	-12.4248
▁సీజ	-12.4254
ା	-12.4282
▁nd	-12.4304
▁شر	-12.4316
▁ృం	-12.4328
▁తమై	-12.4342
▁و	-12.4364
▁నీత	-12.4365
57	-12.439
ya	-12.4394
ెయిల	-12.4405
▁II	-12.4405
▁آ	-12.4414
دی	-12.4423
▁ఉమా	-12.4425
▁ہیکہ	-12.4428
▁=	-12.4429
▁104	-12.4437
▁ీసర	-12.4456
22	-12.4468
▁ఉన్	-12.4476
ہر	-12.4477
ండటం	-12.4486
▁లంగ	-12.4495
ర్భ	-12.4507
اد	-12.451
▁ఇక్	-12.4511
33	-12.4535
▁ఏఈ	-12.4539
پ	-12.4546
▁89	-12.4559
▁on	-12.4571
▁Bha	-12.459
▁ికిత	-12.4591
3)	-12.4596
ರ	-12.4596
▁రోవ	-12.4604
ٹی	-12.4617
▁ేశా	-12.4618
▁2)	-12.463
▁Th	-12.4635
▁ధమ	-12.4664
మాణ	-12.4675
▁బెంగ	-12.4694
▁కిస్	-12.4695
▁83	-12.47
▁దిత	-12.4707
▁گ	-12.4717
▁శక్త	-12.4721
K	-12.4753
47	-12.4757
▁ావిస	-12.4763
▁స్టర	-12.4764
11	-12.4768
▁ND	-12.4772
66	-12.4772
▁టించ	-12.4781
▁87	-12.4787
▁లయ్	-12.4792
▁Man	-12.4797
23	-12.4808
▁మాచా	-12.4818
▁సూర్	-12.483
▁औ	-12.4841
16	-12.4873
▁దీన	-12.4876
19	-12.4884
43	-12.4886
▁Lok	-12.4889
▁మోడీ	-12.4894
▁ినియ	-12.4909
▁Va	-12.4936
▁మెల	-12.4939
సీఆర	-12.4955
▁86	-12.4963
63	-12.4996
▁హేమ	-12.4997
పాటు	-12.5005
▁ہی	-12.5015
▁MP	-12.5025
కర్త	-12.5028
ri	-12.503
▁Hyd	-12.5053
▁ایم	-12.5054
▁ంజయ	-12.5071
▁ce	-12.5087
▁Bab	-12.5106
25	-12.5123
▁్రప	-12.5133
▁గోల	-12.5139
▁నిబ	-12.5143
4,	-12.5162
▁ూము	-12.5194
▁پار	-12.5198
▁ఏడాద	-12.5201
>>	-12.5231
گر	-12.524
▁గిపో	-12.5248
42	-12.5254
▁Chi	-12.5294
▁ుద్	-12.5321
39	-12.5342
▁ెయ	-12.536
▁فر	-12.5365
▁تص	-12.5367
▁కావడం	-12.5368
▁88	-12.5371
▁నటన	-12.5396
▁ాలన	-12.5412
▁ీపం	-12.5417
▁టాన	-12.5432
ీఐ	-12.544
▁ca	-12.5455
▁ిర్య	-12.548
ക	-12.5493
▁RRR	-12.5493
▁ోసా	-12.5499
▁پہل	-12.5506
▁ଠ	-12.5507
▁l	-12.5524
▁పాత్	-12.554
▁ాదే	-12.5543
TD	-12.5545
▁లాక	-12.5557
▁to	-12.5584
▁v	-12.559
oda	-12.5615
لف	-12.5641
la	-12.5646
اب	-12.5647
▁6.	-12.5658
▁తనక	-12.5683
▁تی	-12.5684
پورٹ	-12.5685
ପ	-12.5685
ja	-12.5697
▁ہوا	-12.5705
▁ెద్	-12.5711
▁آر	-12.5716
▁تعم	-12.572
▁لوگ	-12.5728
▁ంధి	-12.574
لق	-12.5746
మీ	-12.5764
ిడుద	-12.5773
▁జ్రా	-12.5776
▁96	-12.5782
▁భట్	-12.579
▁ెటర	-12.5832
06	-12.5877
64	-12.5882
▁పుడ	-12.5894
▁ఖాస్	-12.5899
▁98	-12.5918
▁le	-12.593
▁ప్షన	-12.5945
▁Cla	-12.5953
▁واقع	-12.5954
▁से	-12.5954
▁తిష	-12.5968
▁ma	-12.5981
▁Kar	-12.5981
49	-12.5983
▁హ్నం	-12.5988
▁ాయెల	-12.6001
jay	-12.6013
ke	-12.6022
لی	-12.6028
▁తిల	-12.6029
▁గళం	-12.6033
▁రోడ	-12.6036
▁ap	-12.6045
W	-12.6056
▁్షి	-12.6082
▁Jan	-12.6083
im	-12.609
▁రోల	-12.6093
▁اک	-12.6094
st	-12.6095
S	-12.613
▁ఈవీ	-12.6139
58	-12.6145
▁TS	-12.6146
▁్లమ	-12.615
▁ab	-12.6152
ବର	-12.6154
ଟ	-12.6156
▁ిడె	-12.6167
ୃ	-12.6191
▁Modi	-12.6191
▁حال	-12.6191
▁ای	-12.62
▁ెంక	-12.6201
.9	-12.6211
▁ఏవో	-12.6212
▁شن	-12.622
▁en	-12.6222
gh	-12.6248
▁ాణా	-12.6252
▁ka	-12.6255
5,	-12.6264
5%	-12.6277
ing	-12.6297
▁وج	-12.6303
8	-12.631
▁ుబా	-12.6314
▁8.	-12.6347
▁ోహి	-12.6352
▁سب	-12.6363
▁CM	-12.6366
umar	-12.6371
▁All	-12.6381
▁యూన	-12.6421
▁رو	-12.6433
ٓ	-12.6435
▁Co	-12.6435
▁୧	-12.6437
▁ملک	-12.6448
▁ఖర్	-12.6452
▁بنگل	-12.6483
▁చరిత	-12.6493
▁da	-12.6499
E	-12.652
▁్చన	-12.6522
▁ڈ	-12.6525
▁ఝా	-12.6553
▁ف	-12.6587
59	-12.6611
▁مو	-12.6614
▁ారిట	-12.6618
▁me	-12.6626
▁డెం	-12.6663
▁రసం	-12.6664
غ	-12.6676
లిసి	-12.6679
ଞ	-12.6685
▁KCR	-12.6685
▁ி	-12.6685
▁TDP	-12.6685
▁ସହ	-12.6685
▁IMD	-12.6685
ات	-12.6728
▁پولی	-12.6733
▁170	-12.674
▁యిం	-12.6753
ڈ	-12.6757
▁97	-12.676
ొడుక	-12.6781
al	-12.6782
▁ముద	-12.6787
▁ినిమ	-12.681
▁4)	-12.6827
85	-12.6857
▁it	-12.6858
ide	-12.6862
▁డింగ	-12.6865
▁cha	-12.6881
▁్తం	-12.6896
▁93	-12.6908
▁کم	-12.6915
▁రెం	-12.6935
91	-12.6964
▁App	-12.6987
▁ఆగం	-12.6995
▁లిం	-12.6996
ha	-12.7015
▁420	-12.7017
▁is	-12.7023
▁You	-12.7029
▁79	-12.7047
▁ేంద	-12.705
▁మోదీ	-12.7071
▁5.	-12.7073
▁متع	-12.7089
88	-12.7098
ట్లు	-12.7105
یہ	-12.7117
▁he	-12.7123
▁అవు	-12.7126
▁ఖాస	-12.7134
▁గులు	-12.7141
▁డిం	-12.7146
▁లీజ	-12.715
on	-12.7154
▁నిన్	-12.7161
ମ	-12.717
7,	-12.7178
▁నమో	-12.7198
▁నేషన	-12.7203
▁ി	-12.7205
یں	-12.721
ور	-12.7221
▁29)	-12.7226
▁ోవాల	-12.7233
▁ష్మీ	-12.7247
డం	-12.7251
62	-12.7259
U	-12.7264
▁Hea	-12.7268
▁او	-12.7269
▁ال	-12.7272
▁کرد	-12.7292
32	-12.7308
▁and	-12.731
▁240	-12.7318
48	-12.7321
▁Sam	-12.7332
▁్రిల	-12.734
▁es	-12.7365
BI	-12.7381
کہ	-12.741
▁రమణ	-12.7416
29	-12.7418
▁AC	-12.7424
▁پ	-12.7434
▁Ma	-12.7441
▁ریس	-12.7455
▁مد	-12.7471
▁నమః	-12.7475
▁IND	-12.7475
▁మూవ	-12.7489
▁్ట్స్	-12.7505
▁لگ	-12.7544
▁వేశా	-12.7556
▁ీట్ల	-12.7565
▁ki	-12.763
بر	-12.7634
▁بنا	-12.7644
de	-12.7645
53	-12.765
▁ఊపు	-12.7686
▁ాడార	-12.7702
్న	-12.7716
▁స్తో	-12.7722
F	-12.7727
لگو	-12.7729
w	-12.7732
▁ಇದ	-12.7734
ون	-12.7744
36	-12.7746
ष	-12.7752
▁گوگ	-12.7752
▁ଅପ	-12.7753
72	-12.7761
rjun	-12.7781
▁ివేది	-12.7782
37	-12.7803
▁war	-12.7805
▁ిజన	-12.7828
ھرا	-12.7857
▁₹	-12.7858
ar	-12.7872
▁مط	-12.7875
▁3)	-12.7885
سی	-12.7886
▁Pu	-12.7891
▁హిస్	-12.7898
MC	-12.7914
نا	-12.7919
▁je	-12.7951
▁ور	-12.7963
▁اد	-12.7977
▁این	-12.7978
re	-12.7987
▁మోహన	-12.7989
▁BS	-12.802
▁کن	-12.8032
▁مل	-12.8034
▁•	-12.8038
▁غلط	-12.8038
▁بیان	-12.8038
▁ଯେ	-12.8039
▁Pro	-12.8062
▁سال	-12.8063
lu	-12.8085
▁ائ	-12.8091
▁نہ	-12.8094
▁ts	-12.8119
26	-12.8121
09	-12.8135
82	-12.816
▁ఫైన	-12.8208
▁r	-12.823
▁را	-12.823
▁్తార	-12.8244
▁مخت	-12.8257
ోవడం	-12.8272
▁hi	-12.8292
78	-12.8301
▁AD	-12.8322
▁خبر	-12.8332
▁جاری	-12.8332
▁کررہ	-12.8333
▁టీఆ	-12.8338
▁بتا	-12.8341
▁kon	-12.8342
▁నిపో	-12.8352
▁్రసా	-12.8376
▁రెట	-12.8397
▁ోయా	-12.8401
▁پت	-12.8402
41	-12.8403
▁ఈఈ	-12.8438
▁ఒప	-12.845
▁wi	-12.8494
▁ic	-12.8513
▁ెంటర	-12.8519
RI	-12.8523
▁mm	-12.8526
ابق	-12.8529
te	-12.8539
▁AM	-12.8544
44	-12.8549
▁బహి	-12.8564
▁پش	-12.8566
▁టెన్	-12.8566
73	-12.8573
GB	-12.8586
7)	-12.8605
▁94	-12.8611
த	-12.8635
▁CEO	-12.8635
-0	-12.8636
▁rtha	-12.8636
▁پور	-12.8648
یل	-12.866
▁جات	-12.8663
9	-12.867
▁30)	-12.8673
▁kar	-12.8674
▁ేశ్వ	-12.8689
b	-12.8698
ار	-12.8706
▁ఔష	-12.8707
కె	-12.8725
▁یک	-12.8726
▁-2	-12.8729
▁ాఖ్	-12.8735
▁రగడ	-12.8749
▁లిచి	-12.877
▁ur	-12.878
وجو	-12.8782
▁il	-12.8785
▁నింగ	-12.8787
▁్లర్	-12.8788
یج	-12.8788
▁ML	-12.8791
56	-12.8792
یوٹ	-12.8807
ق	-12.8816
▁ంధం	-12.8835
పాట	-12.8863
▁ఆఫీ	-12.887
▁-3	-12.8871
▁్కర	-12.8902
▁Re	-12.8912
क	-12.8912
ी	-12.8918
▁ందిస	-12.8923
سٹ	-12.8925
▁وا	-12.8932
▁Q	-12.8934
­	-12.8948
خص	-12.8948
ఙ	-12.8948
⁪	-12.8948
▁[	-12.8948
▁ಏ	-12.8948
▁مض	-12.8948
▁1)	-12.8952
▁YSRC	-12.8953
یت	-12.8987
▁Kal	-12.9003
▁09	-12.9009
▁ver	-12.9029
▁ిబ్	-12.9049
▁o	-12.9077
▁చిన	-12.9082
▁యశ్	-12.9096
▁شام	-12.9098
مل	-12.9103
▁ఉష	-12.9104
▁son	-12.9127
▁బీబ	-12.914
▁YS	-12.9146
یق	-12.9163
▁سو	-12.9204
حقیق	-12.9235
ह	-12.9235
▁నౌ	-12.924
ಘ	-12.927
▁جھوٹ	-12.927
▁Ravi	-12.927
▁پیش	-12.9271
▁رام	-12.9271
▁pap	-12.9272
▁भी	-12.9278
▁రఘు	-12.9281
▁چین	-12.929
▁نظ	-12.9291
▁109	-12.9295
li	-12.9307
▁Rah	-12.9312
▁co	-12.9324
▁ఎంపి	-12.9331
▁رہی	-12.9356
ند	-12.9363
▁گی	-12.9374
ాద	-12.938
▁ٹر	-12.9406
▁శించ	-12.9408
54	-12.9408
▁క్షక	-12.9459
ET	-12.9462
0	-12.9478
▁ీలి	-12.9486
89	-12.9493
شن	-12.9501
69	-12.9508
▁అమ్	-12.9519
▁ھی	-12.954
▁ాగర	-12.9543
▁شئی	-12.9549
ری	-12.956
ए	-12.9569
-3	-12.9569
86	-12.9574
▁بڑ	-12.9597
ss	-12.9601
▁పోవడ	-12.9603
ೌ	-12.9604
‪	-12.9604
▁گرد	-12.9604
▁ఊప	-12.9611
▁RAM	-12.9621
▁భర్	-12.9624
▁रह	-12.9639
▁kha	-12.9645
▁nna	-12.965
▁చాడ	-12.9688
CB	-12.9699
▁rm	-12.9701
▁మూత	-12.9714
▁Nag	-12.9714
▁ଓଡ	-12.972
▁مار	-12.9727
▁Fa	-12.9739
▁్టుల	-12.9745
لنگ	-12.9749
▁Big	-12.9763
▁پڑ	-12.9763
یو	-12.9791
▁ion	-12.9812
▁Gand	-12.9819
▁go	-12.9819
▁ul	-12.9834
▁ువాత	-12.9848
▁وائ	-12.9853
▁صد	-12.9859
ତ	-12.9872
!	-12.9911
।	-12.9914
▁91	-12.9946
▁ఇంగ	-12.9946
▁इ	-12.9949
▁க	-12.9949
▁tty	-12.9949
▁]	-12.9952
▁ah	-12.9953
▁103	-12.9956
▁Rain	-12.9956
▁چلا	-12.9957
▁మోత	-12.9961
▁్షుడ	-12.9979
یب	-12.9979
▁لہ	-12.9979
▁سکت	-12.9981
▁Vis	-12.9982
▁وزی	-13.0014
68	-13.0016
mi	-13.0019
▁తోంది	-13.0024
▁بر	-13.0029
▁చదు	-13.003
ڑ	-13.0033
▁حک	-13.0038
▁nda	-13.0051
▁7)	-13.0055
▁ికెట	-13.0057
▁ఆలం	-13.0057
▁వాలు	-13.0059
▁di	-13.0071
▁du	-13.0084
▁ాబి	-13.0092
▁لیک	-13.0097
▁Sri	-13.0099
▁9.	-13.0112
PS	-13.0133
▁Na	-13.0149
▁పెట్	-13.0159
خ	-13.0161
▁పెరి	-13.0174
▁Dev	-13.0205
▁kin	-13.0219
▁We	-13.0226
▁اعل	-13.0269
ଧ	-13.0271
ು	-13.0271
▁ఋ	-13.0277
▁రావడ	-13.0297
ण	-13.0306
ப	-13.0306
ന	-13.0306
▁ترجم	-13.0306
▁reddy	-13.0306
▁nya	-13.0306
▁ele	-13.0307
▁دہ	-13.031
عام	-13.0318
یشن	-13.0319
▁ریور	-13.0331
▁19)	-13.0333
▁bi	-13.0337
NL	-13.0375
▁Har	-13.0416
▁Sur	-13.0418
94	-13.0433
▁రెక్	-13.0437
▁Ro	-13.0442
▁یت	-13.0442
▁ریل	-13.0455
77	-13.0466
▁pu	-13.048
▁జిస్	-13.048
▁مسل	-13.0481
▁Wi	-13.0487
▁فار	-13.0491
NG	-13.0493
▁TV	-13.0498
79	-13.0513
▁గరం	-13.0513
▁تیار	-13.0574
▁g	-13.0575
▁Ko	-13.0591
52	-13.0599
▁mil	-13.06
ne	-13.0603
▁dev	-13.0605
▁Fi	-13.0606
dh	-13.0609
▁ss	-13.061
اری	-13.0638
ଜ	-13.0641
▁్దు	-13.066
▁یڈ	-13.0664
°	-13.0676
▁تما	-13.0676
▁ଆମ	-13.0676
▁Vs	-13.0678
▁तो	-13.0678
▁مقام	-13.0681
▁ంపల	-13.0681
▁గాంధ	-13.0681
▁ine	-13.0692
▁آپ	-13.0704
▁27)	-13.0713
▁وار	-13.0714
▁Me	-13.0715
▁ik	-13.0726
▁ిశీ	-13.0733
▁ଆସ	-13.0735
▁rat	-13.0744
▁lo	-13.0748
▁Mah	-13.075
▁22)	-13.0752
ay	-13.076
▁్శి	-13.0764
TS	-13.0788
▁సమస	-13.0809
▁3:	-13.0825
ve	-13.0825
92	-13.0837
ిపల్	-13.0858
▁్జె	-13.0858
N	-13.086
▁ిల్స	-13.0864
▁oo	-13.0889
31	-13.0897
म	-13.0923
▁su	-13.094
▁నంతర	-13.0946
థం	-13.0946
اوی	-13.096
74	-13.0975
76	-13.0977
▁ఇవా	-13.0996
▁می	-13.0997
▁ిగ్ర	-13.1008
نگ	-13.1022
ବ	-13.1026
ವ	-13.1026
ఒక	-13.103
▁ంబ్	-13.1036
راہ	-13.1047
مون	-13.1054
▁యాలి	-13.1055
▁WHO	-13.1061
▁ಐ	-13.1061
▁پاکس	-13.1061
▁Po	-13.1061
▁उ	-13.1063
▁ِ	-13.1063
▁Tube	-13.1068
95	-13.1078
▁ریاس	-13.1085
run	-13.1085
تا	-13.1099
زار	-13.1101
▁HD	-13.1112
▁wal	-13.1148
▁گان	-13.115
▁280	-13.1162
▁్పత్	-13.1162
9)	-13.1163
نتخ	-13.1166
ول	-13.1174
v	-13.1176
▁لکھ	-13.1179
ro	-13.118
▁గస్	-13.1188
▁పొం	-13.1193
▁ఓజీ	-13.1194
▁Bu	-13.1199
or	-13.1225
ష్	-13.124
▁5)	-13.1251
▁بل	-13.1254
▁వచ్	-13.1266
96	-13.1288
BC	-13.1297
di	-13.1301
▁be	-13.1308
▁సంఘట	-13.1332
▁غ	-13.1335
▁Var	-13.1361
-1	-13.1398
ଭ	-13.1426
ళూరు	-13.143
▁بک	-13.1451
us	-13.1457
া	-13.1461
യ	-13.1461
▁Kumar	-13.1461
▁ple	-13.1461
▁Raja	-13.1464
▁ాళ్	-13.1464
▁لڑک	-13.1468
▁یان	-13.147
AS	-13.1479
▁Sing	-13.148
▁శంక	-13.1481
▁Pol	-13.1483
▁జమా	-13.1505
▁ఎంప	-13.1511
وع	-13.1517
▁నప్	-13.1527
لہ	-13.1527
▁ائی	-13.1541
▁ct	-13.1543
▁సెగ	-13.1544
..	-13.1545
SS	-13.1558
▁Poll	-13.1566
▁డుగ	-13.1567
SR	-13.157
▁ح	-13.1579
▁شد	-13.1585
▁నబీ	-13.1586
▁ఆస్	-13.1594
▁Di	-13.1598
▁thi	-13.1604
▁خلا	-13.1606
▁In	-13.1619
▁ేనన	-13.1621
▁ہوت	-13.1623
▁6)	-13.1624
▁ریڈی	-13.1662
▁ص	-13.1705
▁్రాక	-13.1707
▁معا	-13.172
▁దత్	-13.1722
▁-1	-13.1756
▁as	-13.1768
▁కమై	-13.1828
ద్	-13.1834
▁بچ	-13.1836
98	-13.1836
ತ	-13.1837
▁Ani	-13.1837
رین	-13.1839
▁Ke	-13.1841
ग	-13.1843
▁من	-13.1851
▁ست	-13.1875
▁ಸಹ	-13.1876
▁ذریع	-13.1877
▁دوسر	-13.1877
▁Raji	-13.1878
▁ٹیم	-13.1878
▁روپ	-13.1879
▁షర్మ	-13.1882
▁چند	-13.1896
▁GP	-13.1902
وب	-13.1907
▁aba	-13.191
▁జాబ	-13.1911
▁لیڈ	-13.1912
nd	-13.1922
▁Ap	-13.1929
▁జేప	-13.1929
▁ram	-13.1935
نی	-13.1935
▁فیس	-13.1936
▁23)	-13.1939
یکل	-13.1941
▁RC	-13.195
▁ad	-13.1951
▁عن	-13.197
▁Kav	-13.1974
ام	-13.1977
▁دس	-13.1984
ki	-13.1985
▁سائ	-13.1991
▁ఏఏ	-13.1995
▁టివ	-13.2045
▁رکھ	-13.2051
▁మధ్	-13.2066
▁پہن	-13.2071
▁si	-13.2081
టెన్	-13.2082
▁వెను	-13.2097
▁ఐస	-13.2113
▁బంగ	-13.2118
▁Tej	-13.218
▁EV	-13.2202
▁mi	-13.2204
▁ED	-13.2206
▁Raj	-13.224
▁సీట	-13.225
SP	-13.2256
ಿ	-13.2274
బీ	-13.2275
▁Li	-13.228
▁రైల	-13.2289
▁2:	-13.2297
షా	-13.2311
छ	-13.2312
ಠ	-13.2312
ു	-13.2312
▁ம	-13.2312
▁بہت	-13.2312
▁ଓଟ	-13.2312
▁ଅଭ	-13.2312
▁age	-13.2313
▁Bala	-13.2314
▁ووٹ	-13.2314
▁ారిం	-13.2314
▁pro	-13.2315
▁୪	-13.2318
▁GH	-13.2337
▁us	-13.2354
▁ch	-13.2364
▁ter	-13.2365
CL	-13.238
▁تان	-13.238
▁యాల్	-13.2398
ood	-13.2409
▁کس	-13.2411
▁ry	-13.2423
▁جگ	-13.2423
▁ూడె	-13.2428
نت	-13.2435
M	-13.2443
▁ٹری	-13.2444
FC	-13.2447
▁Del	-13.2452
▁జగన	-13.2459
گم	-13.2464
71	-13.2469
▁mo	-13.2479
▁گا	-13.2486
▁انک	-13.2493
▁Ar	-13.2507
MA	-13.251
▁tra	-13.2512
▁అవకా	-13.2545
▁man	-13.256
مب	-13.2571
ta	-13.2592
▁ిశ్	-13.2607
ందోళ	-13.2614
▁رائ	-13.2618
▁SA	-13.2632
IM	-13.2634
67	-13.2658
ودی	-13.2662
▁Mar	-13.2674
H	-13.2681
55	-13.2687
జా	-13.2695
▁Ge	-13.2721
▁ac	-13.2729
Pho	-13.2731
ଗ	-13.2732
NR	-13.2743
اک	-13.2757
ட	-13.2767
പ	-13.2767
▁ओ	-13.2767
▁زبان	-13.2767
▁NIA	-13.2767
▁رنگ	-13.2767
▁2.0	-13.2767
▁سابق	-13.2767
▁embl	-13.2767
▁Ass	-13.2767
▁خات	-13.2767
▁ு	-13.2768
▁kri	-13.2768
▁Pay	-13.2768
▁Day	-13.278
97	-13.2787
▁ేశాడ	-13.2792
▁ran	-13.2804
▁ీవు	-13.2819
▁శకం	-13.2841
▁25)	-13.2848
▁de	-13.286
▁లీవ	-13.2869
▁جائ	-13.2916
ideo	-13.2918
▁2"	-13.292
▁జాం	-13.2968
▁nce	-13.2968
TM	-13.2975
▁امی	-13.3
▁ఏజీ	-13.3009
MS	-13.301
▁నీడ	-13.302
▁వైరల	-13.3024
ظ	-13.3031
▁ిరీ	-13.304
▁Rea	-13.3042
▁SR	-13.3051
▁ai	-13.3057
▁تب	-13.3071
▁Nan	-13.309
▁Res	-13.3104
▁بھر	-13.3119
▁He	-13.3129
▁مند	-13.3134
▁مت	-13.3142
▁ామన	-13.3175
▁ొచ్చా	-13.3196
?	-13.3199
ಲ	-13.3206
ଥ	-13.3208
▁do	-13.3211
▁پلی	-13.3222
▁యిస	-13.3234
▁یٹ	-13.3242
ি	-13.3243
ാ	-13.3243
▁$	-13.3243
▁عوام	-13.3243
▁علاق	-13.3243
▁nkar	-13.3243
▁Ex	-13.3243
▁EPF	-13.3243
▁लि	-13.3247
▁Air	-13.3262
▁Nai	-13.3268
▁انگ	-13.3277
▁05	-13.3301
▁Tha	-13.3309
▁IPC	-13.331
/	-13.331
▁d	-13.3314
▁وق	-13.3329
▁IN	-13.3338
▁బెట్	-13.3343
▁لا	-13.3347
▁No	-13.3351
▁at	-13.3356
ళా	-13.3362
ీనియ	-13.3363
▁van	-13.337
▁AN	-13.3372
3%	-13.3379
▁కేష	-13.3383
▁انڈی	-13.3384
اس	-13.3385
▁UI	-13.3433
▁Ran	-13.3436
▁MA	-13.3438
▁تقری	-13.3439
▁చిస	-13.3442
▁نیو	-13.3444
▁کت	-13.3454
05	-13.3459
బితా	-13.3472
▁ెట్ర	-13.348
▁جی	-13.3483
▁مس	-13.3497
▁پان	-13.3512
▁فرو	-13.3517
fe	-13.3541
▁ాపూర	-13.3554
▁ఇళ	-13.3593
గురు	-13.3593
▁et	-13.3595
▁రున	-13.3608
▁از	-13.3614
▁کل	-13.3621
▁Is	-13.3664
رت	-13.3675
ava	-13.3687
▁خوا	-13.3691
▁ملی	-13.3692
-6	-13.3705
▁raj	-13.3705
یٹ	-13.3706
ल	-13.3708
ୟ	-13.3709
ఱ	-13.3743
౦	-13.3743
▁What	-13.3743
▁sa	-13.3743
▁Sai	-13.3743
▁تح	-13.3743
▁تک	-13.3743
▁mA	-13.3746
▁پھیل	-13.3747
▁ANI	-13.3748
▁کام	-13.3754
▁ro	-13.3756
▁ఐబీ	-13.3758
▁थ	-13.3763
▁شش	-13.3769
▁ई	-13.3773
▁ఏడీ	-13.3777
▁ిమర్	-13.3779
ds	-13.3782
▁ఆజం	-13.3796
▁03	-13.3797
▁16)	-13.3816
▁wat	-13.3826
▁rol	-13.3828
▁ٹوئٹ	-13.3829
ED	-13.3831
▁shi	-13.3849
ST	-13.385
AP	-13.3859
▁ాయె	-13.3897
▁ve	-13.3897
▁She	-13.3908
▁ిషనర	-13.3931
▁لائ	-13.3938
US	-13.3948
▁ed	-13.3973
▁ath	-13.3978
▁NE	-13.3996
AN	-13.401
▁ers	-13.4012
▁ెచ	-13.4016
▁షూ	-13.4024
▁فیک	-13.4041
▁డాన	-13.4042
لک	-13.4043
▁Do	-13.4061
▁Kha	-13.4071
▁Vij	-13.4078
▁for	-13.4078
▁ویڈ	-13.4093
▁కొద	-13.4124
▁Shiv	-13.4127
▁Ama	-13.4143
▁Pal	-13.416
▁్రత్	-13.4177
▁ెనీ	-13.4194
▁سیل	-13.4196
▁m	-13.4202
▁Jai	-13.4207
خت	-13.4212
▁వైప	-13.4217
▁్తున	-13.4218
▁కూటమ	-13.422
▁Ve	-13.4222
୍	-13.4235
▁SS	-13.424
శాడు	-13.4248
▁MS	-13.4256
اڑ	-13.4265
▁Ba	-13.4266
▁سنگھ	-13.4269
▁ಓ	-13.4269
▁جھنڈ	-13.4269
▁IST	-13.4269
▁متن	-13.4269
▁UK	-13.427
▁ठ	-13.427
▁दे	-13.4271
▁مر	-13.4274
▁جہ	-13.4276
▁181	-13.4276
▁ందిత	-13.4279
▁رڈ	-13.4283
▁حمل	-13.4283
▁عمل	-13.4284
▁em	-13.4285
61	-13.4291
▁AL	-13.4292
▁gy	-13.4298
▁167	-13.4299
▁ళ్య	-13.4309
▁Ac	-13.4323
▁ంపె	-13.4331
▁Moha	-13.4341
▁SU	-13.4348
▁Te	-13.4364
▁సూప	-13.4379
▁ుకుం	-13.4379
▁Ope	-13.438
▁Sabh	-13.4397
▁سامن	-13.4422
▁De	-13.4425
▁ut	-13.4431
ly	-13.4436
▁Ben	-13.4441
▁پورٹ	-13.4453
an	-13.4469
▁Anu	-13.4488
▁ریلی	-13.4501
▁لیا	-13.4533
▁فی	-13.4549
▁Shi	-13.456
▁no	-13.4564
83	-13.457
ارک	-13.4578
▁مطا	-13.4579
▁zo	-13.4591
▁شا	-13.4597
▁che	-13.461
▁ty	-13.4652
▁IP	-13.4664
▁SP	-13.4691
▁SD	-13.4691
▁ోదు	-13.4734
▁تع	-13.4749
▁ہر	-13.4756
▁bu	-13.4773
وان	-13.4779
ଠ	-13.479
ଏ	-13.479
▁ణక	-13.4792
▁اخ	-13.4815
జై	-13.4823
ଵ	-13.4825
ട	-13.4825
▁Movi	-13.4825
▁آباد	-13.4825
▁ہورہ	-13.4825
▁افر	-13.4825
▁Cour	-13.4825
▁kunt	-13.4825
▁dge	-13.4826
▁پھر	-13.4827
▁ICC	-13.4828
▁rth	-13.4831
▁برا	-13.4877
▁Sre	-13.4883
▁pol	-13.4895
▁مز	-13.4904
▁పిటి	-13.4933
▁MC	-13.4951
▁fic	-13.4967
▁lm	-13.497
TA	-13.4997
VM	-13.4997
▁فری	-13.5013
ఫా	-13.5038
▁Ji	-13.5038
▁سرک	-13.5069
▁Ho	-13.5093
har	-13.5112
▁Be	-13.5116
وری	-13.5134
▁FB	-13.5135
▁p	-13.5145
اث	-13.515
vi	-13.515
▁trai	-13.516
▁రేం	-13.5174
▁nic	-13.5179
▁kal	-13.5181
▁مح	-13.5206
▁Am	-13.5231
اہم	-13.5247
▁کتا	-13.5249
▁LG	-13.5256
▁انت	-13.5262
ాబాద	-13.5264
▁ిధిల	-13.529
ఈఈ	-13.5293
▁తారన	-13.5301
رض	-13.5336
▁Ru	-13.5338
▁ID	-13.534
CP	-13.5341
ow	-13.5348
▁اپ	-13.5349
▁SC	-13.5357
▁ోతున	-13.5367
اصل	-13.537
్ఞ	-13.5371
ga	-13.5376
ई	-13.5378
ನ	-13.5378
ଦ	-13.5378
لب	-13.5408
▁book	-13.5413
▁घ	-13.5414
▁nka	-13.5414
▁y	-13.5418
▁ଜଣ	-13.5421
▁పదవ	-13.5421
▁ex	-13.5422
▁कि	-13.5423
▁ہوں	-13.5423
▁تلا	-13.5425
2:	-13.543
▁شہر	-13.5435
یوز	-13.5442
93	-13.5444
▁یش	-13.5451
▁ایپ	-13.5453
▁nam	-13.546
▁Han	-13.546
▁BCC	-13.5472
▁اح	-13.5475
▁An	-13.5476
ll	-13.548
▁حما	-13.5483
CC	-13.5489
▁پو	-13.5497
یف	-13.5505
▁మండి	-13.5508
ong	-13.551
▁Band	-13.554
▁gra	-13.5553
▁nc	-13.5554
▁vira	-13.5569
▁Vira	-13.5572
▁lu	-13.5582
شت	-13.559
▁بن	-13.5595
ck	-13.5605
87	-13.5605
لیک	-13.5607
▁RA	-13.5609
▁pe	-13.5614
گ	-13.5614
▁XI	-13.5616
یم	-13.5641
▁ISR	-13.5645
▁IT	-13.565
▁My	-13.5657
▁కావడ	-13.5658
▁To	-13.5659
▁ame	-13.5669
▁8)	-13.5672
▁Dr	-13.5692
▁بھ	-13.5692
▁08	-13.5693
ورڈ	-13.5699
our	-13.5709
▁قب	-13.571
▁Tri	-13.5719
▁రచన	-13.5719
▁So	-13.5723
ہم	-13.5728
▁بائ	-13.5732
▁San	-13.5733
تان	-13.5744
▁ోహన	-13.5744
in	-13.5753
▁nik	-13.5776
▁వహా	-13.5789
وی	-13.5795
▁Pl	-13.5797
زہ	-13.5808
اح	-13.5811
DI	-13.5823
▁مص	-13.5824
▁ٹ	-13.583
▁ط	-13.583
▁ق	-13.584
▁qu	-13.5865
▁rs	-13.5871
نظ	-13.5889
▁کار	-13.5891
نچ	-13.5916
▁Mr	-13.5924
▁ٹا	-13.5942
ही	-13.5955
در	-13.5963
نڈ	-13.5972
84	-13.5982
▁NC	-13.5988
▁ేలి	-13.5999
ೆ	-13.6001
ಗ	-13.6002
न	-13.6002
జె	-13.6003
Z	-13.6003
ଡ	-13.6004
ज	-13.6004
य	-13.6004
ائی	-13.6013
ین	-13.6024
▁نکال	-13.6037
▁قر	-13.6037
্	-13.6038
ത	-13.6038
▁ہینڈ	-13.6038
▁فوج	-13.6038
OS	-13.6038
▁One	-13.6039
▁der	-13.604
▁Cy	-13.6044
▁DA	-13.6045
▁star	-13.6053
▁ానాల	-13.6059
▁سیاس	-13.6061
▁mu	-13.6075
▁IRC	-13.6077
▁మఠ	-13.6089
▁విగ్	-13.6094
▁NG	-13.6101
gg	-13.6103
▁Leo	-13.6103
▁جیس	-13.6115
▁బోతు	-13.6142
▁clai	-13.615
▁Par	-13.615
▁مال	-13.6161
▁235	-13.6161
▁اق	-13.6199
▁ోహిత	-13.6206
▁خو	-13.6227
▁ఆందో	-13.6238
▁ٹک	-13.6242
▁Meg	-13.6246
▁Maha	-13.6249
▁ముఖ్	-13.6252
▁ీఎస	-13.6253
بق	-13.6264
▁Ni	-13.6295
▁Lak	-13.6304
▁TGS	-13.6306
▁్రిక	-13.6306
▁کری	-13.6315
▁01	-13.6327
▁ia	-13.6338
▁బులు	-13.6346
▁Ja	-13.6371
▁వేడు	-13.6379
▁pat	-13.6387
RF	-13.6406
▁tt	-13.642
▁Vas	-13.6429
▁Sand	-13.6448
▁دھ	-13.6453
▁MM	-13.6454
▁డ్స	-13.6481
▁--	-13.6534
▁PA	-13.6541
مول	-13.6542
▁ایش	-13.6555
PL	-13.656
ed	-13.6562
▁Kri	-13.6567
TV	-13.6571
▁Bi	-13.6582
द	-13.6624
▁دین	-13.6633
واز	-13.6637
▁j	-13.6637
▁gan	-13.6645
▁కుమా	-13.6659
ଆ	-13.667
▁IC	-13.6682
▁St	-13.6692
▁Hi	-13.6695
▁نا	-13.6702
ক	-13.6705
ୈ	-13.6705
ர	-13.6705
ல	-13.6705
வ	-13.6705
▁حص	-13.6705
▁Dee	-13.6705
▁CMO	-13.6706
▁ଦେ	-13.6707
▁kram	-13.6708
▁র	-13.6708
▁آف	-13.6713
▁FI	-13.6726
▁ذا	-13.6728
▁171	-13.6744
▁Sidd	-13.6747
▁way	-13.6747
▁بند	-13.6753
▁گھر	-13.6755
▁کلی	-13.6759
▁path	-13.6767
▁Jo	-13.6775
▁bra	-13.6777
▁کرکٹ	-13.6777
بل	-13.6781
▁bo	-13.6809
▁07	-13.6849
▁Sun	-13.6862
ରେ	-13.6865
▁SL	-13.687
▁bos	-13.6896
سم	-13.6906
▁TC	-13.6935
▁5%	-13.694
▁Vo	-13.6963
▁tir	-13.6967
▁red	-13.6978
▁04	-13.7023
IT	-13.7045
▁چی	-13.7054
بت	-13.7073
ہلک	-13.7087
▁ేషన	-13.7125
▁06	-13.7126
tu	-13.7149
▁رین	-13.7149
▁Bo	-13.7197
jp	-13.7226
▁انٹ	-13.7267
▁ort	-13.729
وڈ	-13.7296
QI	-13.7304
ృష్ణ	-13.7352
▁خط	-13.736
▁f	-13.7365
جد	-13.7365
▁Pras	-13.7383
-2	-13.7387
▁Du	-13.74
▁mot	-13.7419
ற	-13.7419
▁ضلع	-13.7419
▁ಊ	-13.7419
ڑک	-13.7419
▁نوٹ	-13.7419
▁ଆପ	-13.742
▁kap	-13.742
▁تف	-13.742
▁Up	-13.742
▁آیا	-13.742
▁گروپ	-13.742
▁୫	-13.742
▁‐	-13.742
▁تیاب	-13.7421
▁Venk	-13.7422
▁Gop	-13.7426
▁ket	-13.7427
▁जा	-13.743
▁YSR	-13.743
یری	-13.7436
AI	-13.7441
▁جھ	-13.7441
▁مب	-13.7446
▁(7)	-13.7448
BS	-13.745
▁146	-13.7452
▁لینڈ	-13.7453
▁Sala	-13.7453
▁پس	-13.7454
یاد	-13.7456
▁چیک	-13.7457
▁واٹ	-13.7462
▁ly	-13.7469
▁NA	-13.7476
▁188	-13.7482
▁ళూరు	-13.7484
▁all	-13.7487
▁dia	-13.749
▁MI	-13.7508
▁band	-13.7524
▁mik	-13.7532
▁گھ	-13.7536
ul	-13.7543
కెళ	-13.7544
▁Comm	-13.7545
▁tec	-13.7554
ala	-13.7558
▁ిద్య	-13.7565
▁Stat	-13.7586
کر	-13.7591
▁Pho	-13.7605
▁باب	-13.7606
VF	-13.761
▁بس	-13.7613
اؤ	-13.7617
▁Da	-13.7628
▁MB	-13.764
PG	-13.7642
▁Inte	-13.7657
عظ	-13.7658
▁ఎప్	-13.7661
▁tu	-13.7691
▁జెం	-13.7698
▁మాచ	-13.771
▁ll	-13.7716
▁Ay	-13.7724
z	-13.773
▁دیت	-13.773
کا	-13.7736
J	-13.7755
▁Mu	-13.7757
▁ند	-13.7762
it	-13.7771
▁سیک	-13.7775
CM	-13.778
▁CI	-13.7789
▁OR	-13.7789
▁ృద్	-13.7807
ص	-13.781
وٹ	-13.7819
▁Se	-13.7821
VI	-13.7844
ni	-13.785
jr	-13.7853
▁రయ్	-13.7865
▁NR	-13.7878
▁راہ	-13.7905
▁Ka	-13.7906
▁HMD	-13.7912
▁con	-13.7924
بی	-13.793
نہیں	-13.7937
▁وف	-13.7949
asa	-13.7954
ٹر	-13.798
MR	-13.8014
علی	-13.8024
▁ip	-13.8025
▁dar	-13.8034
ౌ	-13.8039
▁ిజర	-13.8042
▁var	-13.8097
SK	-13.8133
▁NH	-13.8162
-4	-13.8162
دھ	-13.8172
DA	-13.8182
झ	-13.8188
୬	-13.8188
ள	-13.8188
ா	-13.8188
ല	-13.8188
വ	-13.8188
െ	-13.8188
▁INDIA	-13.8188
▁لنک	-13.8188
▁ଆଉ	-13.8188
▁افس	-13.8188
▁line	-13.8188
▁مظا	-13.8188
▁کی۔	-13.8188
ظا	-13.8189
▁ଏପ	-13.8189
▁Mo	-13.8189
▁شرم	-13.8189
▁ریٹ	-13.819
▁ನಟ	-13.8191
▁ice	-13.8191
▁Ana	-13.8192
▁कर	-13.8192
▁୩	-13.8192
▁GS	-13.8193
▁تباہ	-13.8195
▁!!	-13.8195
نوع	-13.8199
▁Ash	-13.8199
▁کلپ	-13.8205
▁Gen	-13.8211
▁سم	-13.8214
▁సిబ	-13.8219
▁جل	-13.8222
▁MIM	-13.8227
▁ుపత్	-13.8228
▁197	-13.8232
CS	-13.8248
▁ams	-13.8266
▁pur	-13.8274
▁Gam	-13.8287
▁(7	-13.8289
▁مش	-13.8289
▁శిం	-13.8293
نعق	-13.8317
▁fa	-13.8326
ber	-13.8336
▁امب	-13.8347
▁ع	-13.8366
▁تین	-13.8367
لاق	-13.8368
▁Ga	-13.8372
▁ఇవీ	-13.8373
ru	-13.8385
▁6:	-13.8396
▁مع	-13.8412
▁JN	-13.8416
ائٹ	-13.8456
▁ge	-13.8479
▁Dha	-13.8492
▁rg	-13.8492
زر	-13.851
▁tta	-13.8527
ండిప	-13.8535
▁Ri	-13.8555
DF	-13.8569
▁Gal	-13.8592
▁02	-13.8596
▁aj	-13.8597
▁dh	-13.8602
▁vas	-13.8618
▁un	-13.8643
▁డబ్	-13.8645
▁Mall	-13.8655
▁IS	-13.8672
▁ON	-13.8684
▁Ki	-13.8698
▁ాలన్	-13.87
RO	-13.8712
ast	-13.8736
▁EC	-13.8745
▁ha	-13.8754
▁ٹو	-13.878
ndia	-13.8816
AA	-13.8824
▁لو	-13.8839
46	-13.8843
raj	-13.8864
▁منی	-13.8874
ey	-13.8884
ji	-13.8889
▁En	-13.8891
▁کرک	-13.8931
▁ns	-13.8932
▁sta	-13.894
▁చనా	-13.8944
MB	-13.8947
▁ریو	-13.8966
q	-13.898
متح	-13.8983
थ	-13.8985
Q	-13.8985
श	-13.8987
▁لوگو	-13.8994
AL	-13.9007
est	-13.901
▁Ne	-13.9016
▁علا	-13.9021
▁ଝ	-13.9021
ಞ	-13.9021
ണ	-13.9021
▁Paytm	-13.9021
▁داخل	-13.9021
▁نتیج	-13.9021
▁ব	-13.9021
●	-13.9021
▁ساحل	-13.9021
▁UAE	-13.9021
▁سمجھ	-13.9022
▁अब	-13.9022
▁Hz	-13.9022
▁app	-13.9022
▁فلم	-13.9022
▁تاری	-13.9022
▁ker	-13.9023
▁इस	-13.9023
یش	-13.9027
▁گے	-13.9033
▁NPC	-13.9036
EE	-13.9041
RS	-13.9047
▁Madh	-13.9057
▁183	-13.9063
▁War	-13.9069
وگر	-13.9071
el	-13.9072
▁Ju	-13.9072
▁131	-13.9079
▁రిశ్	-13.9083
▁UN	-13.9083
▁ెలం	-13.9085
▁SI	-13.9085
از	-13.9089
ith	-13.9092
▁LI	-13.9099
WS	-13.91
▁حقیق	-13.9117
IS	-13.9131
▁On	-13.9149
▁Vand	-13.9178
▁net	-13.9181
▁tor	-13.9192
▁پیج	-13.9196
▁950	-13.9197
صی	-13.9199
▁At	-13.9202
hus	-13.9229
id	-13.9256
1:	-13.9257
▁راج	-13.9272
▁وام	-13.9281
NA	-13.929
en	-13.9299
ts	-13.9306
▁Amb	-13.9312
▁رٹ	-13.9321
▁TRA	-13.9324
ash	-13.9342
▁5:	-13.935
یس	-13.9372
▁ہوگ	-13.9377
am	-13.9399
PF	-13.94
ائل	-13.9423
od	-13.9439
▁RT	-13.9457
▁واد	-13.948
▁اٹھ	-13.9504
▁چھ	-13.9506
▁MV	-13.9509
యంలో	-13.953
▁ew	-13.9533
اکھ	-13.9543
▁ఇచ్	-13.9548
-8	-13.9565
▁ہوگئ	-13.9566
▁GO	-13.9572
యూ	-13.9586
▁فو	-13.9586
MU	-13.9621
▁Ami	-13.9649
ur	-13.9651
▁్టీల	-13.9657
▁Ad	-13.9667
▁Gan	-13.9672
DC	-13.9674
▁دل	-13.9674
یڈو	-13.9675
▁یون	-13.9675
IB	-13.9682
▁CIS	-13.9689
▁1:	-13.9716
▁KA	-13.9743
▁(2	-13.9748
▁Pre	-13.9761
▁DR	-13.9773
ti	-13.9773
▁min	-13.9773
adh	-13.9799
FI	-13.98
وہ	-13.9804
PT	-13.9804
▁Sho	-13.9849
▁బీఆ	-13.9851
▁بغ	-13.9853
+	-13.9866
▁(8	-13.9872
▁రిత్	-13.9872
▁La	-13.988
KR	-13.989
ଶ	-13.9896
end	-13.9898
▁آگ	-13.9927
GF	-13.9929
َ	-13.9931
ম	-13.9931
୭	-13.9931
ഷ	-13.9931
▁ച	-13.9931
▁⁠	-13.9931
▁بنیاد	-13.9931
▁مبین	-13.9931
▁CID	-13.9931
▁Net	-13.9931
▁جیت	-13.9931
▁san	-13.9932
▁if	-13.9932
▁ଯା	-13.9932
▁تش	-13.9932
▁مہر	-13.9932
▁ster	-13.9932
▁ٹائ	-13.9933
▁SSC	-13.9933
▁نشان	-13.9934
▁Rs	-13.9937
▁Naya	-13.9937
▁Saj	-13.9938
▁Medi	-13.9938
▁୮	-13.9939
▁ٹھی	-13.9939
▁ٹویٹ	-13.994
▁منت	-13.9943
▁نوم	-13.9944
▁تہ	-13.9946
▁CBI	-13.9954
▁सा	-13.9955
▁FD	-13.9955
▁ea	-13.9971
▁kur	-13.9972
▁ಅದ	-13.9981
▁బ్బం	-13.999
▁org	-13.9995
کس	-13.9999
بلی	-14.0008
▁SE	-14.0009
▁op	-14.0011
▁PR	-14.0024
▁ji	-14.0025
▁چار	-14.0026
▁tti	-14.0037
▁కొత్	-14.0039
▁Len	-14.004
▁Red	-14.0042
▁Kap	-14.0052
▁PI	-14.006
▁تا	-14.0061
▁que	-14.0072
▁حید	-14.009
▁pam	-14.0099
▁محم	-14.0126
▁fe	-14.0126
tta	-14.0143
dp	-14.0149
▁خان	-14.0155
▁باز	-14.0166
▁SB	-14.0168
▁Trai	-14.0178
ہا	-14.0187
▁Con	-14.0192
▁్టేట	-14.0198
▁لام	-14.0199
▁IA	-14.02
▁پن	-14.02
mo	-14.0202
▁زی	-14.0215
▁ారాయ	-14.0222
▁TG	-14.0223
LV	-14.0225
▁tal	-14.0241
ائن	-14.0242
▁آٹ	-14.0243
▁mai	-14.0243
▁పుట	-14.0299
▁Kan	-14.0323
▁NCR	-14.0332
▁indi	-14.0335
▁گول	-14.0363
ES	-14.038
ఘా	-14.0387
▁ేశార	-14.039
▁can	-14.0396
▁CB	-14.04
▁ES	-14.0401
وس	-14.0403
تی	-14.0406
rt	-14.0441
▁pha	-14.0468
▁ంతంగ	-14.0508
▁OM	-14.0509
جر	-14.0513
▁mar	-14.0525
ach	-14.0561
▁Nav	-14.0568
PC	-14.0572
▁SK	-14.0577
▁Mee	-14.0591
▁Si	-14.0602
TP	-14.0621
▁Xi	-14.0642
▁ate	-14.0651
▁రేలి	-14.0653
▁Shr	-14.0658
پر	-14.066
▁ec	-14.0707
▁Tem	-14.0715
రిధి	-14.0726
▁WF	-14.0744
▁coun	-14.075
ut	-14.076
▁وس	-14.0761
▁mou	-14.0766
▁OS	-14.0767
▁par	-14.0778
bh	-14.0786
▁eg	-14.0799
▁ST	-14.0811
▁وڈ	-14.0813
MP	-14.0844
▁lon	-14.0878
▁جم	-14.0889
ಟ	-14.0893
hi	-14.0893
ذا	-14.0895
;	-14.0896
ଯ	-14.0896
ಡ	-14.0896
ౌక	-14.0897
▁انس	-14.09
بہ	-14.0901
▁ుండట	-14.0901
▁ఈవ్	-14.0911
▁Mon	-14.0915
▁یم	-14.0923
▁New	-14.093
ॉ	-14.0931
ে	-14.0931
ଢ	-14.0931
ോ	-14.0931
▁girl	-14.0931
▁حوال	-14.0931
▁مذہب	-14.0931
▁گے۔	-14.0931
▁tics	-14.0931
▁PAK	-14.0931
MEI	-14.0931
▁Twi	-14.0931
▁شاٹ	-14.0931
▁Bye	-14.0931
▁کھڑ	-14.0931
▁چہ	-14.0931
▁آد	-14.0932
▁نعر	-14.0933
▁ন	-14.0933
▁୯	-14.0933
▁हु	-14.0934
▁cri	-14.0934
▁ढ	-14.0936
▁تن	-14.0939
▁omi	-14.0939
▁लो	-14.0942
▁گو	-14.0946
▁ارہ	-14.0947
▁Mich	-14.095
▁କି	-14.095
▁کھان	-14.095
▁غیر	-14.0953
▁ଦି	-14.0963
▁جوڑ	-14.0969
▁soc	-14.0977
▁ایڈ	-14.0979
▁Cen	-14.0983
▁Yog	-14.0986
▁ही	-14.0991
▁Spa	-14.0995
▁فوٹ	-14.1002
▁win	-14.1014
▁نت	-14.1019
▁gar	-14.1025
▁poll	-14.103
▁ేందు	-14.1034
▁Salm	-14.1034
▁درج	-14.1036
ME	-14.1046
یک	-14.1052
▁Jawa	-14.1063
▁pm	-14.1069
▁ama	-14.107
زائ	-14.108
▁منا	-14.1082
▁ప్ష	-14.1084
▁ir	-14.1092
AF	-14.1106
▁jay	-14.1111
▁لک	-14.112
▁یلی	-14.112
▁217	-14.112
he	-14.1125
قص	-14.1137
▁Min	-14.1155
▁سا	-14.1158
▁اؤ	-14.116
▁Ins	-14.1171
▁چ	-14.1174
امی	-14.1198
▁Ab	-14.1199
▁AS	-14.1211
▁Vai	-14.1213
▁ما	-14.1228
▁ny	-14.1246
▁PV	-14.125
wi	-14.1252
▁ోసార	-14.1274
▁مہا	-14.1277
▁wa	-14.1277
▁یور	-14.1299
bi	-14.1301
▁قاب	-14.132
▁CR	-14.1341
oj	-14.1361
▁mur	-14.1379
▁Cu	-14.1382
▁Ren	-14.1387
▁HM	-14.1388
▁گوش	-14.1426
ونی	-14.1431
▁بین	-14.1434
▁Sh	-14.1459
▁RB	-14.1467
▁కాంగ	-14.1469
▁مہ	-14.1488
aj	-14.1496
▁ME	-14.1509
▁car	-14.151
3:	-14.1527
▁DC	-14.1528
▁Ch	-14.1533
▁Pan	-14.154
ave	-14.1541
▁سس	-14.1559
▁کردی	-14.1571
we	-14.1575
▁Lo	-14.1594
▁ایو	-14.1606
ol	-14.1609
▁JA	-14.1616
▁sc	-14.1619
▁ملت	-14.1622
▁میر	-14.1635
▁Nit	-14.1635
▁نس	-14.1648
MI	-14.1656
▁ేసుల	-14.166
▁Cho	-14.1661
ric	-14.1675
▁پل	-14.1676
▁q	-14.1715
▁خی	-14.1718
▁Bos	-14.1727
vo	-14.1729
▁Son	-14.1737
▁Sab	-14.174
▁Ye	-14.178
▁لین	-14.1804
sk	-14.1805
▁Mi	-14.1808
-7	-14.1823
▁HA	-14.1848
▁طا	-14.1851
▁LA	-14.1871
▁اؤن	-14.1874
▁شی	-14.1885
▁BB	-14.1889
SA	-14.1891
▁ాధా	-14.1895
CMR	-14.1906
▁پید	-14.1909
abi	-14.1915
▁چاہ	-14.1917
▁ریز	-14.1931
▁جرم	-14.1942
ଡ଼	-14.1947
▁Ha	-14.1948
▁Sen	-14.1948
AR	-14.1951
▁بیو	-14.1953
قت	-14.1956
▁VI	-14.1966
ate	-14.1993
باد	-14.1994
ट	-14.2007
ଛ	-14.2007
مند	-14.2024
▁رس	-14.2024
▁ాజె	-14.2029
▁fo	-14.2036
▁Au	-14.2038
▁ثا	-14.2042
9%	-14.2042
ল	-14.2042
ু	-14.2042
ச	-14.2042
ய	-14.2042
അ	-14.2042
റ	-14.2042
▁اضاف	-14.2042
▁ऐस	-14.2042
▁सच	-14.2042
►	-14.2042
▁تبصر	-14.2042
▁تجاج	-14.2042
▁حلال	-14.2042
▁modi	-14.2042
▁dri	-14.2042
▁your	-14.2042
▁عہد	-14.2042
▁Sec	-14.2042
▁زند	-14.2042
▁ٹائم	-14.2042
▁Uni	-14.2042
ذکر	-14.2042
▁نائ	-14.2042
▁Apr	-14.2042
▁ಜನ	-14.2043
▁Raju	-14.2043
▁پٹن	-14.2043
▁Opp	-14.2043
▁ضم	-14.2044
TF	-14.2045
▁ؤ	-14.2045
▁kg	-14.2045
▁था	-14.2046
▁Hu	-14.2047
▁اتر	-14.2048
▁dis	-14.2054
ge	-14.2055
یز	-14.2057
▁طیار	-14.206
▁kart	-14.2067
▁ys	-14.2069
▁شک	-14.2069
▁os	-14.2072
▁Kama	-14.2073
▁396	-14.2076
▁Loc	-14.2079
6%	-14.2079
▁Ast	-14.2083
▁ڈال	-14.2087
yo	-14.2094
▁رہنم	-14.2096
▁شہ	-14.2096
▁قص	-14.2097
گست	-14.2103
▁దీం	-14.2107
▁ورڈ	-14.2111
▁ేయాల	-14.2114
▁4.2	-14.2114
▁جمع	-14.2114
▁awad	-14.2115
▁wam	-14.2119
ీఆర	-14.2121
اخت	-14.2122
▁روک	-14.2133
علو	-14.2134
▁274	-14.2137
▁چل	-14.2138
▁294	-14.2141
▁یٹل	-14.2141
▁Kang	-14.215
▁VV	-14.215
▁Dai	-14.2157
▁(4	-14.2157
CF	-14.2162
الز	-14.2163
▁ిపక్	-14.2163
ఓం	-14.2164
عمار	-14.2169
▁Nand	-14.2178
▁Don	-14.2179
ERT	-14.2184
▁దోస	-14.2194
▁nu	-14.22
▁فیصل	-14.2205
AC	-14.2207
BB	-14.2219
▁gh	-14.222
▁vo	-14.2221
▁దృష	-14.2229
لیت	-14.225
LC	-14.2277
ue	-14.2286
DO	-14.231
▁سن	-14.2316
▁اون	-14.2325
gi	-14.2327
▁fir	-14.233
▁Aa	-14.2336
▁AR	-14.234
▁یاب	-14.234
▁fin	-14.2342
▁Para	-14.2366
▁قا	-14.2368
▁ric	-14.2387
▁Sa	-14.2389
▁bat	-14.2391
▁Mand	-14.2392
لم	-14.2394
▁آرہ	-14.2397
శం	-14.2418
▁Vir	-14.243
ist	-14.2432
راف	-14.244
GI	-14.2471
ls	-14.2478
gar	-14.2485
ث	-14.25
▁cas	-14.2514
kh	-14.2515
▁nde	-14.2537
▁نش	-14.2538
▁USD	-14.2576
▁بال	-14.2578
ord	-14.2584
to	-14.2593
▁خا	-14.2616
وار	-14.2616
لائ	-14.2621
▁యమై	-14.2642
AT	-14.2645
▁Des	-14.2648
▁Triv	-14.2652
▁ph	-14.2654
▁మెం	-14.2662
▁(5	-14.2663
▁-5	-14.2664
▁دیوا	-14.2669
▁sur	-14.2674
▁po	-14.2714
TE	-14.2736
▁Le	-14.2738
یچ	-14.2739
▁PS	-14.2742
▁CW	-14.2744
bs	-14.2748
▁Srin	-14.2749
▁Ku	-14.2749
▁سک	-14.2761
▁پیٹ	-14.2766
-9	-14.2784
ہیں	-14.2785
▁CS	-14.2795
▁pra	-14.2802
تعد	-14.2803
▁Met	-14.2806
وڑ	-14.2855
▁Mis	-14.2862
ksh	-14.2868
MW	-14.2918
▁انڈ	-14.2919
▁IL	-14.292
▁Nam	-14.2927
▁ke	-14.2939
▁ویو	-14.2943
sta	-14.2972
▁AA	-14.298
za	-14.3002
RH	-14.3004
▁కూట	-14.3008
▁III	-14.3019
▁APP	-14.3026
رہ	-14.3027
▁nte	-14.3033
▁ay	-14.3055
unt	-14.3058
▁GPS	-14.3062
▁ٹوئ	-14.3073
▁Ali	-14.3096
▁Ya	-14.3122
▁Tim	-14.3128
▁NCER	-14.3137
ag	-14.3148
▁سام	-14.3165
▁ందో	-14.3171
ସ	-14.3182
▁چم	-14.3184
▁Bh	-14.3187
ry	-14.3213
▁ొడుక	-14.3244
VS	-14.3253
ख	-14.3256
स	-14.3257
▁ga	-14.3261
DP	-14.3262
▁Ai	-14.3271
▁تعل	-14.3278
▁CN	-14.329
ە	-14.3292
ृ	-14.3292
ौ	-14.3292
ত	-14.3292
ৰ	-14.3292
ந	-14.3292
ை	-14.3292
മ	-14.3292
ര	-14.3292
സ	-14.3292
‒	-14.3292
▁sidd	-14.3292
▁RGV	-14.3292
▁Moto	-14.3292
▁1/2	-14.3292
▁تق	-14.3292
▁Hind	-14.3292
▁ذر	-14.3292
▁فرق	-14.3292
▁خوب	-14.3292
▁For	-14.3292
▁NZ	-14.3292
▁media	-14.3292
▁fli	-14.3292
▁Kash	-14.3292
حاد	-14.3292
▁eS	-14.3292
▁Fli	-14.3292
▁Vang	-14.3292
▁ہوگا	-14.3293
▁میس	-14.3293
▁Toma	-14.3293
▁نیشن	-14.3294
▁دب	-14.3295
▁cm	-14.3296
▁jab	-14.3296
▁ترنگ	-14.3301
▁تار	-14.3302
▁you	-14.3305
▁Tig	-14.3308
▁ದಿ	-14.3308
▁one	-14.3309
▁آئے	-14.331
ود	-14.3311
▁ins	-14.3312
▁ٹس	-14.3312
▁گھوٹ	-14.3313
▁nai	-14.3314
▁عد	-14.3316
▁coll	-14.3321
▁ంవత్	-14.3323
▁جنگ	-14.3326
▁ابھی	-14.3328
▁نیٹ	-14.3337
▁Tip	-14.3345
▁Trum	-14.3348
▁Cri	-14.3351
▁Ta	-14.3356
▁रा	-14.336
▁سین	-14.3361
▁ie	-14.3366
▁abha	-14.3367
▁2/	-14.3368
▁11:	-14.3372
▁پوج	-14.3383
▁یج	-14.339
▁5.7	-14.3391
▁MO	-14.3398
▁Sea	-14.3399
▁Vy	-14.3405
▁ow	-14.3411
▁خت	-14.3412
▁ఓజా	-14.3419
8%	-14.3421
▁Wat	-14.3435
▁تیز	-14.3436
▁نگر	-14.344
▁నివే	-14.3449
▁Cr	-14.346
▁Sat	-14.3462
▁PSL	-14.3463
▁kmp	-14.3472
چھل	-14.3485
▁MD	-14.3491
మై	-14.3492
రెడ్	-14.3501
▁gg	-14.3502
▁CPR	-14.3504
ترد	-14.3519
▁ేటర	-14.354
▁vin	-14.3543
▁چر	-14.3551
ారం	-14.3555
▁Pres	-14.3556
▁యుడ	-14.3558
▁్డార	-14.3564
▁Pe	-14.3565
▁ود	-14.3571
▁ٹور	-14.3591
▁ٹرائ	-14.3595
▁Ruk	-14.36
▁CBS	-14.3604
شٹ	-14.3649
▁مرت	-14.3651
▁por	-14.3658
▁CG	-14.3672
SH	-14.3679
oo	-14.3682
PA	-14.3701
vid	-14.3719
▁ban	-14.3721
▁CO	-14.3724
▁لائب	-14.3725
▁کرلی	-14.3747
▁Pak	-14.375
▁Gu	-14.3751
▁GT	-14.376
لج	-14.3762
▁DE	-14.3764
▁bal	-14.3765
▁Tra	-14.3767
▁Ris	-14.3781
▁DM	-14.3809
▁prad	-14.381
▁Mus	-14.3825
▁تر	-14.3841
▁ٹن	-14.3862
▁టేష	-14.3888
ions	-14.3889
وک	-14.3914
▁UG	-14.3916
RC	-14.3917
je	-14.3928
BK	-14.3942
▁Tham	-14.3955
ازی	-14.3958
▁سل	-14.3958
زا	-14.3962
es	-14.3969
▁پہ	-14.3972
نیا	-14.3973
▁Jay	-14.3983
▁ాహ్	-14.4001
▁CL	-14.4027
▁Muk	-14.4043
PI	-14.4045
se	-14.4046
لاک	-14.405
AK	-14.4074
HS	-14.408
کو	-14.4088
▁తున్	-14.4099
▁Gun	-14.4106
j	-14.4107
▁కమి	-14.411
اؤن	-14.411
▁نی	-14.4115
▁లీడర	-14.4131
▁ja	-14.4151
▁FT	-14.4151
CA	-14.4153
▁UA	-14.4164
▁لائی	-14.4164
rd	-14.4166
BP	-14.4191
▁چو	-14.4194
IP	-14.4205
▁IG	-14.4207
▁HC	-14.4208
▁Fo	-14.4209
تو	-14.4221
▁SH	-14.4234
▁ہٹ	-14.4251
6:	-14.4276
▁శిక	-14.4281
ుటుం	-14.4281
▁Ind	-14.4288
▁مان	-14.4296
▁ంచగ	-14.4303
▁RR	-14.4306
▁TO	-14.4316
ci	-14.4326
مار	-14.4333
▁gin	-14.4355
ఠ	-14.4389
ٹا	-14.44
▁Nel	-14.4411
▁Pa	-14.4416
یلا	-14.442
ata	-14.444
▁LE	-14.444
ine	-14.4459
▁lad	-14.447
TL	-14.4484
▁ٹوڈ	-14.4494
▁گز	-14.45
RR	-14.4509
▁ేయిం	-14.4513
EL	-14.452
▁chi	-14.4522
▁im	-14.4524
رڈ	-14.4524
EC	-14.4525
▁BR	-14.4529
▁Sou	-14.4548
oss	-14.4577
اف	-14.4594
نک	-14.4614
lla	-14.4627
▁BH	-14.4629
▁Wa	-14.4635
▁ریا	-14.4639
▁gat	-14.4643
ola	-14.4646
▁qua	-14.4654
▁ml	-14.4658
▁tej	-14.4662
▁چن	-14.4665
PN	-14.4671
▁om	-14.4678
rb	-14.468
شیر	-14.4684
ଦି	-14.4685
भी	-14.4685
आ	-14.4686
ब	-14.4686
ଁ	-14.4686
Hi	-14.4687
سب	-14.4692
YC	-14.4711
▁మళ్	-14.4717
▁صح	-14.472
ء	-14.472
প	-14.472
ো	-14.472
ெ	-14.472
ങ	-14.472
ഡ	-14.472
′	-14.472
▁پڑھ	-14.472
▁ൽ	-14.472
◉	-14.472
♦	-14.472
🇮	-14.472
▁علم	-14.472
وصل	-14.472
▁Toll	-14.472
▁طلب	-14.472
▁Yada	-14.472
▁थी	-14.472
▁ଅଫ	-14.472
▁pre	-14.472
▁Kira	-14.472
▁ଆହ	-14.472
▁LIV	-14.472
▁Odi	-14.4721
▁سوال	-14.4721
▁ASI	-14.4721
▁Pw	-14.4721
▁kW	-14.4721
▁ملز	-14.4721
قل	-14.4721
▁ٹکر	-14.4721
▁Ear	-14.4722
▁سرب	-14.4722
▁زور	-14.4722
▁پنی	-14.4722
▁مشا	-14.4722
▁Spe	-14.4723
▁Ur	-14.4723
▁ایئر	-14.4724
▁میل	-14.4724
▁Bra	-14.4725
▁سکتی	-14.4725
eddy	-14.4725
▁kn	-14.4725
▁cu	-14.4726
▁ble	-14.4727
▁یع	-14.4728
▁صور	-14.4729
▁؟	-14.4729
▁ସେ	-14.473
ڈول	-14.473
▁ନା	-14.473
▁دف	-14.4731
ఇక	-14.4732
▁Disn	-14.4734
▁ଦଳ	-14.4737
▁OG	-14.474
ns	-14.4741
▁बा	-14.4744
▁Star	-14.4746
▁مقدم	-14.4748
▁عرب	-14.4748
ail	-14.4748
▁سالا	-14.4748
▁قوم	-14.475
▁تاج	-14.4768
▁واہ	-14.4771
▁Way	-14.4775
▁mb	-14.4784
▁Card	-14.4801
yu	-14.4804
▁معذو	-14.4805
▁بیٹھ	-14.4807
ٹل	-14.4808
▁fec	-14.4815
▁گرم	-14.4815
▁Thal	-14.4816
▁Ze	-14.4827
ଥା	-14.4828
▁fi	-14.4847
▁دگ	-14.485
▁fs	-14.4866
▁Gad	-14.4868
▁Kes	-14.4874
▁sto	-14.4876
▁زد	-14.4877
▁రుస్	-14.489
▁Cam	-14.4907
▁ٹول	-14.4911
▁حکم	-14.4913
▁Mala	-14.4913
لو	-14.4916
▁tam	-14.4926
లేద	-14.494
رجن	-14.4951
▁Poo	-14.4958
▁నేష	-14.4959
CD	-14.496
▁Per	-14.496
▁Un	-14.4963
▁مم	-14.4963
▁2'	-14.4963
▁ద్యు	-14.4964
▁uk	-14.4966
▁بیٹ	-14.4974
▁ବର	-14.4979
انس	-14.499
▁Grou	-14.4993
▁فائ	-14.4994
▁رائی	-14.4994
▁چور	-14.4999
▁پال	-14.5012
▁ರೂ	-14.5018
▁پیک	-14.5024
▁మవు	-14.5037
IN	-14.5045
▁her	-14.5046
▁RS	-14.505
ذ	-14.5056
▁WE	-14.5059
▁gadd	-14.5064
GP	-14.5064
▁ڈائ	-14.5075
▁کان	-14.5083
eo	-14.51
▁واس	-14.5109
▁mir	-14.5115
▁హతం	-14.5117
▁ہل	-14.5134
▁PE	-14.5153
is	-14.5153
▁مین	-14.5175
▁Pul	-14.5189
▁Ser	-14.5193
▁నిచ్	-14.52
lli	-14.5215
▁تصا	-14.5223
▁nes	-14.5241
tra	-14.526
▁Plan	-14.5271
▁ఇజ్	-14.5274
▁Fin	-14.5278
▁్ణా	-14.5298
▁Dan	-14.5319
ارٹ	-14.533
▁اڈ	-14.5344
NC	-14.535
FT	-14.5369
▁Lad	-14.539
یوک	-14.5395
ط	-14.5398
▁کہت	-14.5402
▁روب	-14.5426
▁art	-14.5456
▁XLR	-14.5491
بھی	-14.5492
as	-14.5525
▁بڑھ	-14.5546
▁اع	-14.5591
▁سون	-14.5593
▁IB	-14.5609
▁فران	-14.5615
▁گر	-14.5628
وتھ	-14.5637
hu	-14.5643
DR	-14.5658
▁ET	-14.5664
▁کیس	-14.5666
▁we	-14.5672
▁رول	-14.5682
▁Gar	-14.5698
▁پائ	-14.5704
▁Yu	-14.5715
▁سبھ	-14.5745
▁cc	-14.5759
▁فور	-14.576
tr	-14.5766
లేదు	-14.577
▁کتن	-14.577
▁Bus	-14.5778
▁ral	-14.5785
PM	-14.5817
▁بہ	-14.5843
▁JU	-14.5844
bra	-14.5861
RA	-14.5864
▁ntr	-14.5864
ver	-14.589
▁ఊహ	-14.5901
▁یاد	-14.5919
▁Sol	-14.593
▁z	-14.5931
▁EM	-14.5949
▁Dis	-14.5964
lon	-14.5967
ys	-14.6007
▁یر	-14.6013
▁ib	-14.6024
MRC	-14.6029
CU	-14.6033
▁دار	-14.6034
ous	-14.6053
▁بنائ	-14.6061
▁IV	-14.6063
▁بچا	-14.6073
تر	-14.6078
▁ci	-14.6088
دا	-14.6092
▁BM	-14.6102
▁ww	-14.6106
▁AE	-14.6108
▁یل	-14.6118
▁cr	-14.6122
کی	-14.615
IE	-14.6158
ହି	-14.6191
▁کرائ	-14.6193
ہد	-14.6193
HAI	-14.6207
▁Sp	-14.6211
sc	-14.6211
▁بج	-14.6214
▁گاڑ	-14.6216
▁gi	-14.6221
▁چا	-14.6226
▁Cor	-14.6236
مت	-14.6253
▁io	-14.6276
▁abh	-14.6289
▁fl	-14.6295
عہ	-14.6297
▁tri	-14.6298
▁GA	-14.6309
کمل	-14.6333
▁Car	-14.6343
اڈو	-14.6346
irc	-14.6348
ହ	-14.6349
اعت	-14.6349
ଖ	-14.6353
*	-14.6353
ಶ	-14.6353
ಮ	-14.6353
ಸ	-14.6353
بال	-14.6353
వహిం	-14.6354
▁لڑ	-14.6354
▁میٹ	-14.6357
ER	-14.6358
OT	-14.6361
ఫీ	-14.6363
▁عی	-14.6372
ఏఐ	-14.6382
AM	-14.6387
স	-14.6387
ಛ	-14.6387
ಢ	-14.6387
ള	-14.6387
ർ	-14.6387
▁حادث	-14.6387
▁پھٹ	-14.6387
▁জ	-14.6387
▁ജ	-14.6387
▁❌	-14.6387
★	-14.6387
🇳	-14.6387
▁CCTV	-14.6387
▁ہفت	-14.6387
▁Swam	-14.6387
▁Party	-14.6387
▁IMF	-14.6387
▁pH	-14.6387
▁out	-14.6387
▁فلس	-14.6387
▁رکن	-14.6387
▁گنت	-14.6387
▁Sudh	-14.6387
▁Vive	-14.6387
▁چکر	-14.6387
▁pri	-14.6387
▁NCD	-14.6387
▁ڈیپ	-14.6387
▁ଆଜ	-14.6388
▁RX	-14.6388
ظہ	-14.6388
▁حس	-14.6388
▁ٹرم	-14.6388
▁stra	-14.6388
▁وات	-14.6389
▁Sar	-14.6389
▁sri	-14.6389
▁ଶେ	-14.6389
▁dee	-14.639
▁Book	-14.639
▁برس	-14.639
▁ଏଲ	-14.6391
▁IMA	-14.6392
▁thu	-14.6392
▁خدم	-14.6393
▁वो	-14.6394
▁Jee	-14.6394
▁ବା	-14.6395
▁ei	-14.6397
▁Mudr	-14.6397
▁॥	-14.6397
▁ன	-14.6397
▁کپ	-14.6398
▁Team	-14.6398
▁fact	-14.6398
▁Bank	-14.6398
▁ڈرائ	-14.6401
▁Bho	-14.6402
▁ଆଣ	-14.6404
▁توڑ	-14.6404
▁HE	-14.6404
▁wak	-14.6407
▁Tea	-14.6408
▁cy	-14.6412
▁ite	-14.6412
افت	-14.6415
▁बन	-14.642
▁گلی	-14.642
▁pla	-14.6422
▁ତଳ	-14.6427
▁Jamm	-14.6428
▁TH	-14.6429
▁کھ	-14.6434
▁نار	-14.6436
▁BP	-14.6438
▁KP	-14.6439
▁Aha	-14.6443
باس	-14.6443
▁CP	-14.645
▁Sath	-14.6454
▁web	-14.6461
▁جر	-14.6461
▁Sch	-14.6461
▁IMS	-14.6468
▁ft	-14.6468
▁تیر	-14.6472
▁علی	-14.6473
▁187	-14.6475
▁ణంగ	-14.6479
▁జనసే	-14.6485
▁Pic	-14.6487
▁ಹೊ	-14.6495
غیر	-14.6498
▁301	-14.6505
▁ివాస్	-14.6508
LY	-14.6521
▁Ste	-14.6523
▁Pen	-14.6525
▁tro	-14.6527
▁اظہ	-14.6528
▁dd	-14.6529
▁خطر	-14.6536
▁نمائ	-14.6548
▁IR	-14.6552
▁ndi	-14.6556
▁1.9	-14.6558
کت	-14.6558
▁Ant	-14.656
▁cat	-14.657
▁چاہت	-14.6581
▁Boll	-14.6592
▁COP	-14.6599
PP	-14.6617
▁ku	-14.6618
▁law	-14.6622
▁Rau	-14.6622
▁چھی	-14.6624
▁نیل	-14.663
▁ఊటీ	-14.6654
▁حی	-14.6661
▁موس	-14.6665
سا	-14.6683
▁وڈک	-14.6686
فر	-14.669
▁Dho	-14.67
نب	-14.6707
▁Mal	-14.6709
▁gad	-14.6714
▁CAR	-14.6735
▁اف	-14.6738
▁ol	-14.6739
▁May	-14.6762
یپ	-14.6788
تھ	-14.6804
بار	-14.6808
▁Kur	-14.6809
▁gn	-14.6853
▁Kaja	-14.6858
▁مقا	-14.6864
▁eP	-14.6875
▁NI	-14.6888
bu	-14.689
▁لوک	-14.6903
▁سٹ	-14.6905
گا	-14.6909
▁نم	-14.6917
▁اند	-14.6917
▁3%	-14.6923
▁Poc	-14.6926
VT	-14.6939
▁Tar	-14.6966
ea	-14.6993
▁Cas	-14.7015
▁RI	-14.7026
▁్యాచ	-14.7032
▁tar	-14.7038
▁سرٹ	-14.7038
▁end	-14.704
▁ବହ	-14.7052
گو	-14.7054
▁nj	-14.7065
▁Tam	-14.707
نف	-14.7071
▁Mad	-14.708
ହୁ	-14.7084
یجن	-14.7094
لال	-14.7096
▁شکا	-14.7129
▁Ban	-14.7159
▁HI	-14.7166
MM	-14.7179
ترم	-14.7183
▁బస్స	-14.7186
وج	-14.719
BL	-14.7209
ایت	-14.7223
▁Fl	-14.7228
▁so	-14.7243
▁مما	-14.7246
cam	-14.7247
▁FA	-14.7253
▁ind	-14.7254
▁stat	-14.7257
▁EO	-14.7258
▁SSD	-14.7267
▁ami	-14.7268
▁اہل	-14.727
▁مذ	-14.7289
▁BA	-14.7291
▁LS	-14.7297
▁GD	-14.7298
▁up	-14.73
▁KM	-14.7314
لت	-14.7339
▁Nu	-14.7364
mil	-14.7387
▁kum	-14.7388
ant	-14.7414
▁ارک	-14.7418
▁KY	-14.7423
RDA	-14.743
mma	-14.7433
▁సీబ	-14.7447
▁ps	-14.745
mp	-14.745
▁IM	-14.7451
5:	-14.7464
▁ho	-14.7509
نق	-14.7513
▁عب	-14.7536
لس	-14.7537
▁NAS	-14.754
▁بو	-14.7559
OC	-14.7563
▁Sc	-14.7564
▁TE	-14.7566
▁سری	-14.76
GM	-14.7619
RB	-14.7642
▁పరిధ	-14.7655
tt	-14.7658
uh	-14.7659
▁jo	-14.766
▁ارا	-14.7664
وض	-14.7675
TH	-14.7688
▁RD	-14.769
▁han	-14.7712
ڑت	-14.7714
▁Cro	-14.7717
▁AT	-14.7719
اہ	-14.7723
▁ef	-14.7731
mir	-14.7734
▁NO	-14.7737
▁Jos	-14.774
lee	-14.7767
టీఆ	-14.7771
▁aka	-14.7776
▁رگ	-14.7778
▁LP	-14.7778
▁Hir	-14.7787
▁Parl	-14.779
▁um	-14.7811
▁CH	-14.7816
▁PF	-14.7824
▁comm	-14.7827
▁gav	-14.783
▁Ph	-14.7831
▁nit	-14.7848
▁Fil	-14.7866
▁Arju	-14.7872
▁Pur	-14.7875
▁قیا	-14.7893
▁جنا	-14.79
CI	-14.79
کن	-14.7909
رمی	-14.7916
JD	-14.7916
▁رق	-14.7917
▁لس	-14.7921
▁Pr	-14.7942
▁hu	-14.7956
▁جنس	-14.7974
▁MG	-14.7978
ny	-14.8008
SU	-14.8037
TU	-14.8046
پی	-14.8052
▁bh	-14.8053
TY	-14.8067
▁hor	-14.807
▁Dea	-14.8071
شوک	-14.8109
▁وش	-14.8139
▁ot	-14.8154
▁nk	-14.8164
oma	-14.8169
▁Bas	-14.8193
UR	-14.8241
▁اظ	-14.8256
▁ମା	-14.8284
go	-14.8284
ఇ	-14.8287
OR	-14.8301
فو	-14.8308
▁SG	-14.8314
TT	-14.8315
▁Com	-14.8316
ದೇ	-14.8317
ي	-14.8342
▁منس	-14.835
عم	-14.835
ಹ	-14.8351
ః	-14.8352
فل	-14.8352
ଘ	-14.8352
&	-14.8353
▁(9	-14.8353
ୀ	-14.8353
YS	-14.8353
ೋ	-14.8353
रह	-14.8353
Om	-14.8355
FA	-14.8357
pm	-14.8357
Be	-14.8362
▁نظا	-14.8368
LR	-14.8368
▁WI	-14.8373
▁طی	-14.8373
قع	-14.8386
ோ	-14.8387
ീ	-14.8387
▁سچائی	-14.8387
▁مغرب	-14.8387
▁ବରଫ	-14.8387
▁எ	-14.8387
▁ಎಐ	-14.8387
▁🚩	-14.8387
▁پجار	-14.8387
▁گا۔	-14.8387
▁AFP	-14.8387
▁Free	-14.8387
▁آخر	-14.8387
▁نکل	-14.8387
▁دکان	-14.8387
▁ضرور	-14.8387
▁دوست	-14.8387
▁mula	-14.8387
▁nhai	-14.8387
▁Scam	-14.8387
▁Coll	-14.8387
▁حلق	-14.8387
▁ذہ	-14.8387
▁SOC	-14.8387
▁ہیڈ	-14.8387
▁روشن	-14.8387
▁चल	-14.8387
▁سرخ	-14.8387
▁wom	-14.8387
▁تحری	-14.8387
▁bhu	-14.8387
ICI	-14.8387
▁CDC	-14.8387
▁ESA	-14.8387
▁دیوی	-14.8388
▁TRS	-14.8388
▁ترب	-14.8388
▁Cit	-14.8388
▁गए	-14.8388
▁RK	-14.8388
▁CAS	-14.8388
▁سخت	-14.8388
زاد	-14.8388
▁ges	-14.8388
▁KU	-14.8389
▁برق	-14.8389
▁ଅଟ	-14.8389
▁Arun	-14.8389
▁ଇଭ	-14.8389
▁آس	-14.8389
▁Vig	-14.8389
▁IOC	-14.839
▁قرار	-14.839
▁رتن	-14.839
▁لہر	-14.839
▁مطل	-14.8391
▁Agai	-14.8392
▁کھول	-14.8392
▁join	-14.8394
▁انف	-14.8394
جرم	-14.8395
▁Grea	-14.8395
▁Wome	-14.8395
▁MT	-14.8398
▁Ham	-14.8398
▁Hell	-14.8399
▁اگل	-14.8399
▁EF	-14.8399
▁भा	-14.84
▁ھو	-14.84
▁403	-14.8402
▁खा	-14.8403
▁اعت	-14.8405
▁وز	-14.8408
▁AJ	-14.8409
▁ଇନ	-14.8412
▁وکر	-14.8412
▁nee	-14.8413
pa	-14.8414
▁iva	-14.8416
▁Rus	-14.8418
▁جمہو	-14.842
▁आप	-14.842
▁రోవై	-14.8423
▁میٹر	-14.8425
▁Gang	-14.843
▁per	-14.8432
▁اض	-14.8434
▁ସି	-14.8438
عائ	-14.844
▁بھا	-14.8447
ia	-14.8449
▁Qu	-14.8451
▁tch	-14.8453
▁ث	-14.8455
▁(3	-14.8456
▁Can	-14.8457
▁377	-14.8459
▁Holi	-14.8469
▁sim	-14.8469
▁udh	-14.8473
▁پھو	-14.8474
▁خ	-14.8477
▁آم	-14.8489
▁Ira	-14.8496
▁شیر	-14.8508
تد	-14.851
▁sp	-14.8511
nt	-14.8518
▁ఖతం	-14.8526
▁ٹیک	-14.853
▁اہم	-14.8531
SII	-14.8536
▁بڑھت	-14.8536
▁cop	-14.8539
▁Crea	-14.8545
ంశ	-14.8546
▁2-1	-14.8548
صر	-14.8548
▁مجس	-14.8554
PO	-14.8555
▁ئن	-14.856
▁یس	-14.8566
▁پبل	-14.8575
جاز	-14.8584
▁نوب	-14.8592
▁(1	-14.8599
کڑ	-14.86
▁ER	-14.8606
▁HP	-14.8607
▁TR	-14.8608
▁Has	-14.861
▁Dim	-14.8627
mba	-14.8628
▁لنگ	-14.8634
▁Bar	-14.8635
▁wan	-14.8637
▁چک	-14.8641
▁has	-14.8645
انت	-14.8656
▁gam	-14.8664
▁315	-14.8667
رگ	-14.8673
▁NF	-14.87
UM	-14.8709
▁پٹ	-14.8724
▁قائ	-14.8731
نج	-14.877
▁6%	-14.8771
▁پیر	-14.8774
▁conn	-14.8784
اٹ	-14.881
▁Baj	-14.8816
ang	-14.8816
▁راس	-14.8819
▁اول	-14.8836
▁(6	-14.8839
▁Krit	-14.8843
رز	-14.8868
▁MH	-14.8879
ell	-14.889
ek	-14.8909
▁BJ	-14.891
▁sen	-14.893
▁ard	-14.8931
▁tab	-14.8932
▁کتی	-14.8963
▁Lov	-14.8964
لڈ	-14.8972
▁Tu	-14.8991
▁DS	-14.8999
▁Ver	-14.8999
ink	-14.9014
▁ITI	-14.9022
اظ	-14.9025
▁Pad	-14.904
SER	-14.9058
▁విమా	-14.906
▁RO	-14.9062
▁فل	-14.9065
▁wor	-14.9072
▁Age	-14.9076
▁కోవా	-14.9092
HEL	-14.91
ba	-14.9106
▁اچ	-14.9109
اط	-14.9118
▁تیا	-14.9126
ابط	-14.9152
▁خال	-14.9178
▁لیٹ	-14.9185
ست	-14.919
▁Live	-14.9197
▁AQ	-14.92
▁bb	-14.9217
▁Art	-14.9229
▁ساز	-14.9232
▁Kis	-14.9233
▁NT	-14.925
ca	-14.9265
▁اتا	-14.9289
co	-14.9303
▁Jun	-14.9306
کٹ	-14.9312
▁جلت	-14.9332
▁రోగ్	-14.9341
et	-14.9381
adi	-14.9381
▁mis	-14.9383
eel	-14.9399
اض	-14.9402
▁Reg	-14.9403
▁کاش	-14.9416
▁ٹب	-14.9416
▁شو	-14.9428
▁بڑھا	-14.9432
▁Sub	-14.9435
▁NCS	-14.945
▁ary	-14.9468
ks	-14.9481
▁Fir	-14.9484
▁Aw	-14.9488
▁صل	-14.95
▁Andr	-14.951
▁پرس	-14.9547
ky	-14.9551
▁Lif	-14.9553
▁خر	-14.9567
▁Crim	-14.9567
HIM	-14.9579
▁Jon	-14.9584
▁ہرا	-14.9602
▁au	-14.9609
avi	-14.9619
▁مذا	-14.9621
▁ہیر	-14.9646
han	-14.9662
▁شان	-14.9665
▁GM	-14.9669
▁Anj	-14.9678
▁Hon	-14.9684
▁LB	-14.9687
TB	-14.9698
▁روس	-14.971
ab	-14.9715
امن	-14.9735
IL	-14.974
▁الا	-14.9746
▁اش	-14.9764
kra	-14.9766
▁OP	-14.9774
▁ెలుగ	-14.9797
شر	-14.98
▁Sal	-14.9805
▁nm	-14.9818
ard	-14.9825
AFE	-14.9834
▁Rai	-14.9849
▁ئ	-14.9852
▁EG	-14.9853
▁موہ	-14.9863
▁شم	-14.9866
nce	-14.9876
▁Rel	-14.9898
rmy	-14.9911
▁SAR	-14.9923
▁vee	-14.9928
▁خل	-14.9929
جلا	-14.9929
▁AV	-14.9932
اق	-14.997
▁kav	-14.9971
▁SF	-14.9977
▁ول	-14.9998
▁Vid	-15.0016
JI	-15.0026
▁tre	-15.0041
▁DK	-15.0058
رد	-15.0059
▁ڈا	-15.0065
ఘు	-15.0077
▁ak	-15.0081
్చ	-15.0086
▁DI	-15.0091
▁rai	-15.0113
med	-15.0124
▁Dh	-15.0131
▁سان	-15.0147
▁کئ	-15.0152
▁پول	-15.0176
nst	-15.0179
si	-15.0188
▁NS	-15.0203
مہ	-15.0207
kar	-15.0208
▁TQ	-15.0209
▁Mys	-15.023
ex	-15.0255
▁BC	-15.0259
sa	-15.0272
SE	-15.0279
▁Dec	-15.0285
wan	-15.0299
مع	-15.0299
فی	-15.0332
▁MAA	-15.0335
▁DB	-15.0338
▁بنگ	-15.0346
▁HO	-15.0368
NS	-15.0378
▁DO	-15.0381
ett	-15.0395
▁tes	-15.0409
▁Us	-15.0431
▁عا	-15.0434
▁not	-15.0435
▁ఉమ్	-15.0438
کیش	-15.0441
mar	-15.0456
▁ڈیلی	-15.0464
DL	-15.0474
▁Lu	-15.0479
▁CMR	-15.0485
▁Bor	-15.049
▁فیص	-15.0503
▁بد	-15.0503
ty	-15.0509
SI	-15.051
▁ళ్యా	-15.0528
▁Fe	-15.0538
▁Mat	-15.054
▁BAP	-15.0552
▁rju	-15.0555
رسٹ	-15.056
▁NCA	-15.0567
▁Str	-15.0568
▁FM	-15.0571
▁بری	-15.0574
▁سگ	-15.0603
DS	-15.0608
پس	-15.061
▁رم	-15.0624
▁av	-15.064
▁گار	-15.0642
OU	-15.0644
یکس	-15.0646
▁حا	-15.065
dy	-15.0665
▁Yo	-15.0719
vy	-15.072
▁କଲ	-15.0732
▁cou	-15.0736
▁FC	-15.0788
wa	-15.0816
ہن	-15.0823
▁مقد	-15.0836
گڑ	-15.0842
ہور	-15.0847
IV	-15.0851
प	-15.0851
اخ	-15.0851
۔	-15.0851
▁IF	-15.0851
୪	-15.0852
خر	-15.0852
ଉ	-15.0853
त	-15.0853
ଙ	-15.0853
▁कह	-15.0853
▁Pin	-15.0854
Fi	-15.0858
▁سرو	-15.0859
شا	-15.086
lin	-15.0861
CO	-15.0871
▁چڑ	-15.0874
▁hy	-15.0875
▁HYD	-15.0887
\	-15.0887
ه	-15.0887
ّ	-15.0887
ञ	-15.0887
ও	-15.0887
ধ	-15.0887
ங	-15.0887
ொ	-15.0887
ം	-15.0887
എ	-15.0887
ൂ	-15.0887
ൗ	-15.0887
▁Luck	-15.0887
▁ghmc	-15.0887
▁iPad	-15.0887
▁سطح	-15.0887
▁مرکز	-15.0887
▁এ	-15.0887
▁அ	-15.0887
▁ധ	-15.0887
▁đ	-15.0887
▁رحم	-15.0887
▁Venu	-15.0887
▁mukh	-15.0887
▁دھرن	-15.0887
▁Paul	-15.0887
▁گی۔	-15.0887
▁آزاد	-15.0887
▁ڈھا	-15.0887
▁طبی	-15.0887
▁پکڑ	-15.0887
▁HRD	-15.0887
▁UFO	-15.0887
▁عط	-15.0887
▁ఐఓఏ	-15.0887
▁dance	-15.0887
▁مساف	-15.0887
▁CON	-15.0887
▁شاپ	-15.0887
▁Akhi	-15.0887
▁FAC	-15.0887
▁QF	-15.0887
▁Bill	-15.0887
▁فورس	-15.0887
▁سروس	-15.0887
▁قلع	-15.0887
▁Gate	-15.0887
▁ہنس	-15.0887
▁شبہ	-15.0887
▁فض	-15.0887
▁وعد	-15.0888
▁زاوی	-15.0888
▁ٹکٹ	-15.0888
▁دھو	-15.0888
▁थे	-15.0888
▁GRA	-15.0888
▁pd	-15.0888
▁dio	-15.0888
▁چیت	-15.0888
▁ABS	-15.0888
▁clu	-15.0888
▁لیف	-15.0889
▁Avi	-15.0889
▁Get	-15.0889
▁ANA	-15.0889
▁سنچ	-15.0889
▁EX	-15.0889
▁glo	-15.0889
▁Oni	-15.0889
▁بح	-15.089
▁منہ	-15.089
▁رکا	-15.089
▁آتش	-15.089
▁تعا	-15.089
▁gha	-15.089
▁sec	-15.089
▁رسا	-15.0892
لڈو	-15.0892
▁ಆರ	-15.0893
▁Asi	-15.0893
kkin	-15.0893
▁سوم	-15.0895
▁ಮಗ	-15.0895
▁ike	-15.0895
▁ହେ	-15.0898
▁1/	-15.0899
Aa	-15.0899
▁Wh	-15.0899
/4	-15.09
▁چڑھ	-15.0906
▁rts	-15.0909
▁ney	-15.091
▁میا	-15.091
▁spe	-15.0915
▁bs	-15.0915
▁सि	-15.0916
خصوص	-15.0917
▁Jr	-15.0919
اجی	-15.0921
▁any	-15.0921
حرک	-15.0922
▁Sta	-15.0924
▁Mach	-15.0928
▁روڈ	-15.0931
▁plan	-15.0932
▁کھیل	-15.0932
▁بالک	-15.0933
▁مشک	-15.0933
بح	-15.0937
▁pho	-15.0938
▁రభస	-15.0938
▁2+	-15.0941
▁TY	-15.0944
▁irc	-15.0949
nde	-15.0949
▁عہ	-15.095
▁Suma	-15.095
▁بیرو	-15.095
▁پوز	-15.0951
▁اوگر	-15.0951
▁اشار	-15.0955
▁हा	-15.0955
▁Soni	-15.0958
حکم	-15.096
▁الع	-15.0967
▁पा	-15.0969
▁قدر	-15.0975
▁Das	-15.0978
▁fro	-15.0985
▁بدل	-15.0987
▁دان	-15.1007
▁lic	-15.1008
▁lb	-15.1008
▁Ter	-15.1014
ign	-15.1016
▁Em	-15.1019
▁ना	-15.1019
▁Jas	-15.1029
▁lle	-15.1031
/5	-15.1035
ive	-15.1037
▁ڈاکٹ	-15.104
▁کران	-15.1042
▁Sel	-15.1045
▁యాత్	-15.1045
▁یجن	-15.1046
▁Ski	-15.1047
▁283	-15.1058
▁وم	-15.1059
bba	-15.106
گن	-15.1064
▁5.2	-15.1084
▁مڈ	-15.1091
▁چھت	-15.1091
▁Sy	-15.1093
▁سند	-15.1097
CK	-15.1105
▁ڈر	-15.1127
▁ber	-15.1133
▁LL	-15.1135
▁agai	-15.1141
▁Cons	-15.1141
وق	-15.1146
▁UL	-15.1153
SG	-15.1167
▁nad	-15.1167
ill	-15.1172
سان	-15.1183
▁nar	-15.1197
ND	-15.1201
▁Dun	-15.122
AAR	-15.1222
جز	-15.1223
▁تھر	-15.1227
▁Add	-15.1236
▁rtc	-15.1252
బై	-15.1253
▁far	-15.128
▁نیت	-15.1281
ڈی	-15.1284
mu	-15.1288
▁Act	-15.129
▁مزد	-15.1301
▁nr	-15.1304
▁sin	-15.1318
▁Lun	-15.1333
LA	-15.1335
اوت	-15.1342
▁سپل	-15.136
جام	-15.137
▁Kond	-15.1379
مین	-15.1386
▁بجا	-15.1396
▁8%	-15.14
▁حد	-15.1404
క్టో	-15.141
▁>>	-15.1416
▁محب	-15.142
▁ko	-15.1422
▁త్తగ	-15.1426
رٹ	-15.1431
uma	-15.1433
ھیر	-15.1439
جو	-15.1439
تھا	-15.1445
ھا	-15.1474
▁Boy	-15.1497
▁مخ	-15.1507
زی	-15.1517
▁rt	-15.1517
▁ٹیکس	-15.1524
▁jan	-15.1527
ir	-15.1537
▁fil	-15.1545
ئم	-15.1557
▁Im	-15.156
▁sat	-15.157
ارہ	-15.1585
OG	-15.159
رنج	-15.1591
▁Kn	-15.1596
▁RV	-15.1599
▁متح	-15.1607
▁cho	-15.161
▁RAN	-15.1612
▁pet	-15.1613
▁Tama	-15.1617
▁رکھت	-15.1634
▁-4	-15.1635
▁مختص	-15.1636
▁ొడు	-15.1639
▁rjun	-15.1641
BA	-15.165
▁وو	-15.1671
▁ایڈی	-15.1686
▁چلت	-15.1691
▁Gou	-15.1692
▁پالی	-15.17
▁Qua	-15.1706
▁ేషనల	-15.1711
▁گیر	-15.1712
no	-15.1713
tro	-15.1715
FS	-15.1724
▁JS	-15.1731
▁fu	-15.1751
rth	-15.1767
OP	-15.1769
بن	-15.1794
ter	-15.1806
rh	-15.1835
▁PET	-15.1835
وز	-15.1865
حد	-15.1875
▁Nor	-15.1877
om	-15.1891
▁NCP	-15.1896
▁Haa	-15.1898
▁UR	-15.192
▁کرا	-15.1926
▁مری	-15.1927
RM	-15.195
▁Dia	-15.1961
▁-20	-15.1966
▁سوار	-15.1978
SDP	-15.1991
orts	-15.1992
▁PC	-15.1999
▁STE	-15.2018
▁Thi	-15.2025
▁گلو	-15.2053
▁సంజయ	-15.2064
▁اوپ	-15.2072
▁Bl	-15.2098
زن	-15.2101
▁ndo	-15.2126
▁vid	-15.2127
▁دری	-15.2131
ime	-15.2144
WD	-15.2161
▁SDM	-15.2174
▁Nir	-15.2181
▁کرس	-15.2194
▁Pat	-15.2207
▁Bad	-15.221
▁form	-15.2229
ئن	-15.2242
رن	-15.2251
▁رک	-15.2255
▁Ce	-15.2284
▁پلان	-15.2291
▁وان	-15.2293
▁اہ	-15.2296
▁Oo	-15.2317
▁ag	-15.2318
▁شئ	-15.2341
▁INS	-15.2377
جا	-15.2398
▁DD	-15.2399
▁Or	-15.2401
▁Dam	-15.2408
ونگ	-15.2415
▁الر	-15.2444
▁خری	-15.2452
భావం	-15.2453
وا	-15.2467
▁XL	-15.2477
▁Za	-15.2494
iva	-15.2494
▁add	-15.2496
bha	-15.25
▁షనల	-15.2515
▁Mara	-15.2517
sp	-15.2578
▁Ust	-15.2621
▁DJ	-15.2627
▁Pun	-15.2642
RT	-15.2656
ott	-15.2661
▁adh	-15.2671
▁PT	-15.2686
▁Bhi	-15.2699
ھار	-15.2705
▁sti	-15.271
ژن	-15.2729
▁NIC	-15.2801
▁WA	-15.2812
▁گھو	-15.2815
VK	-15.2817
OI	-15.2821
▁Sac	-15.2822
be	-15.2825
▁cal	-15.2828
HE	-15.2845
یرا	-15.2874
▁nge	-15.2875
1/	-15.2882
▁PAC	-15.2899
wha	-15.2901
▁HT	-15.2906
▁RG	-15.2926
DH	-15.2937
▁IFS	-15.2939
ارو	-15.294
HU	-15.2953
جمع	-15.2969
▁Bea	-15.2986
▁JD	-15.3
وسی	-15.3004
ئل	-15.3009
▁PO	-15.3018
▁Ok	-15.3019
لا	-15.3033
▁ارب	-15.3052
▁پارل	-15.3057
▁AG	-15.3081
▁AU	-15.3085
▁Mil	-15.3087
▁Mur	-15.3091
تہ	-15.3112
▁ادا	-15.3113
▁ویل	-15.3129
▁Lal	-15.3136
▁kan	-15.3154
▁Som	-15.3161
▁ڈب	-15.3163
پارٹ	-15.3173
▁cel	-15.3186
▁Pha	-15.3203
▁بم	-15.3215
▁NSD	-15.3215
nna	-15.3219
▁EL	-15.3221
IR	-15.3228
جہ	-15.3244
▁VR	-15.3252
▁Div	-15.3283
nu	-15.3295
wn	-15.3301
at	-15.3303
cy	-15.335
یکر	-15.3362
ాబా	-15.3375
▁sy	-15.3386
لٹ	-15.3418
▁Ca	-15.3468
▁KH	-15.3473
▁ہوس	-15.3484
▁ig	-15.3526
ank	-15.3528
▁Gha	-15.3532
pe	-15.3533
▁ପର	-15.3542
qua	-15.356
▁NET	-15.3568
FF	-15.3569
▁tte	-15.3578
జెక్	-15.3586
▁Gov	-15.3596
▁وک	-15.3596
kha	-15.3602
▁nn	-15.3613
▁رون	-15.3625
und	-15.3665
▁gm	-15.3672
▁دھا	-15.3673
▁Saf	-15.368
tc	-15.3693
جس	-15.3701
ంబై	-15.3703
▁tan	-15.3719
gs	-15.3728
رج	-15.3729
aji	-15.3733
▁VS	-15.376
▁نو	-15.3769
رکر	-15.3774
▁Sit	-15.3777
NP	-15.3783
ap	-15.379
▁CA	-15.3822
▁گذ	-15.3823
▁nv	-15.3827
▁id	-15.3833
▁ngs	-15.3855
▁EU	-15.3856
ite	-15.3866
بس	-15.3866
▁PD	-15.3878
▁br	-15.388
▁عبا	-15.3881
con	-15.3882
▁CT	-15.3895
▁Fr	-15.3898
طل	-15.3905
fi	-15.3918
▁محت	-15.3923
lk	-15.3939
اغ	-15.3968
رم	-15.3972
قیم	-15.3986
▁వహిం	-15.4015
PR	-15.4025
▁فا	-15.4027
sit	-15.4029
▁గ్రె	-15.4031
▁ھا	-15.4044
احت	-15.4047
▁ھر	-15.4057
▁ros	-15.4062
▁TM	-15.4067
ٹھی	-15.4073
▁Win	-15.4085
▁sca	-15.4088
▁دع	-15.4107
ہو	-15.4108
یسر	-15.4132
▁وب	-15.4138
▁DP	-15.4158
pan	-15.4161
ku	-15.4174
▁رع	-15.4175
zz	-15.4175
▁عم	-15.4176
SJ	-15.4177
ze	-15.4178
ಕೆ	-15.418
صوب	-15.418
تھر	-15.4182
Jr	-15.4183
og	-15.4183
୮	-15.4185
]	-15.4186
୧	-15.4186
ఝా	-15.4186
ध	-15.4186
ଫ	-15.4186
ଅ	-15.4186
ಭ	-15.4186
ఛ	-15.4186
ANI	-15.4187
No	-15.4187
tti	-15.4187
NDP	-15.419
GT	-15.4191
رق	-15.4193
Me	-15.4194
▁ھن	-15.4209
cl	-15.4218
▁CC	-15.4219
়	-15.422
▁medi	-15.422
~	-15.422
·	-15.422
×	-15.422
ư	-15.422
ُ	-15.422
ँ	-15.422
०	-15.422
ট	-15.422
ড	-15.422
দ	-15.422
ফ	-15.422
হ	-15.422
ଃ	-15.422
ଈ	-15.422
ண	-15.422
ீ	-15.422
ಃ	-15.422
⃣	-15.422
▁GRP	-15.422
▁Getty	-15.422
▁kcr	-15.422
▁پگھل	-15.422
▁پھنس	-15.422
▁ऊ	-15.422
▁ऑ	-15.422
▁ಝ	-15.422
⦁	-15.422
️	-15.422
💪	-15.422
🔥	-15.422
🙏	-15.422
▁୧୫	-15.422
▁MEIL	-15.422
▁tube	-15.422
▁who	-15.422
▁فاکس	-15.422
▁ترقی	-15.422
▁Tita	-15.422
▁hone	-15.422
▁jaga	-15.422
▁ABV	-15.422
▁UTI	-15.422
▁یگی	-15.422
▁KHAN	-15.422
▁fall	-15.422
▁بلڈو	-15.422
▁BAB	-15.422
▁COM	-15.422
▁دی۔	-15.422
▁ين	-15.422
▁کھات	-15.422
▁Dogs	-15.422
▁food	-15.422
▁آلو	-15.422
▁فیمل	-15.422
▁ILL	-15.4221
▁Colo	-15.4221
▁Govt	-15.4221
▁Force	-15.4221
▁محض	-15.4221
▁Pith	-15.4221
▁EPA	-15.4221
▁نص	-15.4221
▁نواز	-15.4221
▁NoV	-15.4221
▁نجی	-15.4221
▁مگل	-15.4221
▁Tab	-15.4221
▁تحف	-15.4221
▁ماض	-15.4221
▁Vams	-15.4221
▁5.0	-15.4221
▁SCR	-15.4221
▁نمون	-15.4221
▁گہر	-15.4221
▁سنس	-15.4221
▁جاپ	-15.4221
▁آرک	-15.4222
▁Ev	-15.4222
▁Fath	-15.4222
▁cw	-15.4222
▁طن	-15.4222
▁୨୦	-15.4222
▁کشی	-15.4222
▁تجا	-15.4222
▁آت	-15.4222
▁کرشن	-15.4222
IBO	-15.4222
▁cars	-15.4222
▁Vina	-15.4222
▁Dhar	-15.4223
▁GW	-15.4223
▁INDI	-15.4223
▁Inde	-15.4223
▁دست	-15.4223
▁Cli	-15.4223
▁nav	-15.4223
▁TAS	-15.4223
▁عز	-15.4224
▁کھو	-15.4224
▁Dal	-15.4224
▁ورس	-15.4224
▁گیم	-15.4224
▁DY	-15.4224
▁چاہی	-15.4224
▁قدم	-15.4224
▁Ec	-15.4225
▁Bro	-15.4226
▁ARI	-15.4226
▁TW	-15.4226
▁men	-15.4226
▁BY	-15.4227
▁ماد	-15.4227
▁दू	-15.4227
▁Men	-15.4228
dna	-15.4228
▁sna	-15.4228
▁مدر	-15.4229
▁روہ	-15.4229
▁دوم	-15.4229
▁౩	-15.4229
▁ൾ	-15.4229
dc	-15.423
▁جلس	-15.423
چا	-15.423
▁ارس	-15.423
▁लग	-15.4232
▁3-5	-15.4233
▁الد	-15.4233
▁سنگ	-15.4233
▁Cru	-15.4234
دان	-15.4234
▁GV	-15.4235
▁MAR	-15.4238
▁OH	-15.4241
▁କା	-15.4242
▁ಪರ	-15.4243
▁واڑ	-15.4244
▁য	-15.4245
▁जि	-15.4245
▁ery	-15.4246
-5	-15.4247
▁hyd	-15.4253
▁gic	-15.4255
▁Phil	-15.4256
▁ms	-15.4258
▁سلسل	-15.426
▁99%	-15.4261
▁tv	-15.4261
▁صوب	-15.4261
▁ali	-15.4264
▁KI	-15.4264
▁ରା	-15.4264
▁Pink	-15.4267
▁cro	-15.427
+1	-15.4271
▁HB	-15.4272
▁بحر	-15.4273
جن	-15.4274
▁سماج	-15.4275
▁ಕೆ	-15.4277
▁mp	-15.4278
▁پھیر	-15.4284
▁چھپ	-15.4285
▁Tup	-15.4286
▁موسل	-15.4288
అల	-15.4292
▁Saw	-15.4292
▁TB	-15.4293
DAV	-15.4293
▁BLO	-15.4295
لیٹ	-15.4295
BNP	-15.4296
▁Om	-15.4299
▁Sidh	-15.4305
▁Deb	-15.4307
▁work	-15.4307
▁پلا	-15.4309
▁LY	-15.4312
▁pi	-15.4312
▁Curr	-15.4315
▁Ud	-15.4315
ors	-15.4324
▁بھگ	-15.4326
ct	-15.4327
وط	-15.4329
▁ھان	-15.4347
iy	-15.4349
▁374	-15.4356
IPE	-15.437
▁ٹڈ	-15.4376
▁Spi	-15.4379
▁See	-15.4381
tv	-15.4385
گھو	-15.4397
▁ذ	-15.441
▁KR	-15.4416
خم	-15.4423
▁tric	-15.4426
▁ఐఐ	-15.4426
AJ	-15.4429
OV	-15.443
टी	-15.4439
▁اگ	-15.4445
▁بھگو	-15.4446
▁پلو	-15.4452
▁بول	-15.4454
▁ksh	-15.4466
▁lp	-15.4475
II	-15.4487
▁گھس	-15.4489
कद	-15.449
طلا	-15.4492
edd	-15.4492
سلسل	-15.4495
▁MOH	-15.4495
می	-15.4497
▁Farm	-15.4509
▁نکا	-15.4514
▁nki	-15.4518
ATI	-15.4519
▁ఋణ	-15.4536
ای	-15.4544
▁Sla	-15.456
▁Fro	-15.456
▁Fan	-15.4561
▁Sim	-15.4568
▁LH	-15.4579
نڈر	-15.458
▁ఖడ్	-15.4589
GE	-15.46
▁ریزر	-15.4606
ڑھ	-15.4612
ردی	-15.4622
▁yo	-15.4623
▁gr	-15.4647
ivi	-15.4648
▁oon	-15.4649
▁Bol	-15.4658
▁SVC	-15.466
▁اصل	-15.4661
▁ڈاک	-15.4675
▁نسل	-15.4678
▁SHE	-15.468
▁ریسل	-15.4685
▁khi	-15.4691
▁kp	-15.4692
ରତ	-15.4694
▁aga	-15.471
▁Pil	-15.4717
▁کھین	-15.4731
PH	-15.475
▁chir	-15.4754
▁جوا	-15.4762
▁Sk	-15.4763
IC	-15.4774
▁Padm	-15.4787
▁AB	-15.4787
پم	-15.4789
▁مہاج	-15.4802
▁Kara	-15.4803
tic	-15.4806
▁act	-15.4811
▁فیان	-15.4819
▁لاپ	-15.4826
▁sl	-15.4846
▁ٹوٹ	-15.4849
▁ہا	-15.4885
▁Hal	-15.4886
▁note	-15.4888
ot	-15.4891
▁CSI	-15.4899
ost	-15.4904
▁BI	-15.4911
▁-10	-15.4916
▁رش	-15.4927
▁kth	-15.4937
fri	-15.4948
LI	-15.4967
▁گلا	-15.4981
▁لف	-15.4993
▁Mang	-15.5012
▁tc	-15.5016
BN	-15.5037
▁اڈو	-15.5041
▁مول	-15.5045
▁fla	-15.5054
ుతాయ	-15.5062
▁hol	-15.5078
▁ئش	-15.5079
لز	-15.5116
▁بور	-15.5117
▁akh	-15.5121
▁Manj	-15.5121
▁UAP	-15.5134
▁DOP	-15.5139
SW	-15.5143
▁ریجن	-15.5147
IA	-15.5151
▁CAT	-15.5159
▁del	-15.5168
▁Sm	-15.5168
ASH	-15.5218
▁my	-15.5223
pp	-15.5224
▁لات	-15.5253
دو	-15.5253
▁sf	-15.5265
▁Maa	-15.5267
▁لٹ	-15.5283
FIC	-15.5287
mh	-15.5287
▁hom	-15.5288
▁چرن	-15.5301
ame	-15.5347
▁لگو	-15.5356
▁پکا	-15.5357
چن	-15.537
▁ٹین	-15.5375
MN	-15.538
▁Gir	-15.5389
▁Cre	-15.5395
▁Cau	-15.54
▁ove	-15.5408
▁ہوائ	-15.5446
aba	-15.5466
KS	-15.5482
▁ev	-15.5487
یٹر	-15.5494
▁وفائ	-15.5496
un	-15.5505
▁Ut	-15.5517
▁Sak	-15.5519
SF	-15.5523
HB	-15.5525
do	-15.5534
▁برل	-15.5536
▁Tak	-15.5546
LF	-15.5554
GC	-15.5577
ud	-15.5613
جلی	-15.5619
▁ECI	-15.563
ہاؤ	-15.5648
▁NAT	-15.5659
▁adm	-15.5662
ktr	-15.5695
▁ee	-15.5698
▁SW	-15.5701
▁tg	-15.5715
▁-6	-15.5727
▁مجم	-15.5734
▁Tas	-15.5766
▁RAD	-15.5778
▁ెల్య	-15.5788
▁med	-15.5815
ప్షన	-15.5822
ଲା	-15.5831
GS	-15.5834
KM	-15.5845
نل	-15.5869
FG	-15.5888
▁Bur	-15.5912
▁BN	-15.5922
▁Haj	-15.5925
▁Trad	-15.5928
▁Mart	-15.5949
▁gal	-15.5952
▁کھل	-15.5953
غر	-15.5956
▁Kon	-15.5977
▁NU	-15.5985
▁Bio	-15.6009
▁ond	-15.6015
▁کمی	-15.6017
WE	-15.6055
ఏం	-15.6068
▁విద్	-15.608
▁مکھ	-15.6097
▁Quo	-15.612
▁ood	-15.6138
کھ	-15.6146
▁وشی	-15.6158
▁ris	-15.6177
▁JE	-15.6184
BW	-15.6194
▁rou	-15.6216
▁سرح	-15.6229
▁ok	-15.6232
▁bil	-15.6251
▁bee	-15.6253
ic	-15.6257
▁شاہ	-15.6257
WF	-15.627
الم	-15.6281
▁قی	-15.6288
▁Val	-15.6296
▁yak	-15.6304
▁rea	-15.6305
▁بنڈ	-15.6312
▁PRA	-15.6319
تار	-15.6321
▁NB	-15.6323
▁ndy	-15.6324
▁Kad	-15.6328
نکی	-15.6354
eja	-15.6359
▁rj	-15.6371
▁MIC	-15.6394
▁جیک	-15.6398
▁కొన్	-15.6407
▁Ee	-15.6454
lo	-15.646
thi	-15.6465
▁OB	-15.6494
ہوں	-15.6495
▁rc	-15.6503
▁OL	-15.6517
BM	-15.653
▁వాలం	-15.6534
▁VE	-15.6548
▁kud	-15.6549
▁Med	-15.6557
▁As	-15.6567
OD	-15.6567
▁منسو	-15.659
▁tom	-15.6591
ీబీఐ	-15.6613
▁mus	-15.6617
▁tho	-15.6618
▁Ach	-15.6637
اع	-15.6696
AIR	-15.6706
▁HR	-15.6743
▁UD	-15.6746
▁zi	-15.6788
▁فارو	-15.68
رپ	-15.6804
▁FE	-15.6818
▁انج	-15.6899
پٹ	-15.6915
▁تقر	-15.6935
▁ati	-15.6945
EM	-15.696
▁vis	-15.701
▁rec	-15.7013
رو	-15.7054
▁Jin	-15.7057
▁₹2	-15.7057
ତେ	-15.7079
▁Ms	-15.708
▁Ag	-15.7087
శా	-15.7088
aw	-15.7091
udh	-15.7113
▁rate	-15.7119
dm	-15.7128
▁GE	-15.7132
▁روی	-15.7142
کول	-15.7147
▁آوا	-15.7152
eve	-15.7154
arty	-15.7177
▁ud	-15.7189
▁IE	-15.7207
▁Cov	-15.7219
▁pal	-15.7223
▁مق	-15.7227
▁lim	-15.7247
ہین	-15.7293
▁کرل	-15.7296
بط	-15.7319
ai	-15.7329
کام	-15.7335
▁Sham	-15.7351
▁تل	-15.7354
gu	-15.7369
zr	-15.7372
چل	-15.7386
▁Alo	-15.7386
▁set	-15.7424
▁اکی	-15.7434
▁Jn	-15.7446
PE	-15.7446
▁یز	-15.7462
▁CD	-15.7474
▁ویژ	-15.7487
▁Apa	-15.7509
▁It	-15.7511
▁దగ్	-15.7515
▁ada	-15.7517
▁UM	-15.755
▁సృష్	-15.7551
▁ube	-15.7588
ربی	-15.7601
▁گاہ	-15.7626
▁ILS	-15.7627
ou	-15.7637
▁Mir	-15.7641
لر	-15.7646
▁Lea	-15.7656
MT	-15.7667
▁Liv	-15.767
▁MPD	-15.7699
▁SJ	-15.7713
▁Cop	-15.7714
▁دوب	-15.7754
▁Kol	-15.7756
▁AMA	-15.776
▁uni	-15.7761
IK	-15.7764
ذی	-15.7768
ok	-15.7772
HD	-15.779
▁ara	-15.7854
▁TL	-15.7867
▁Joh	-15.787
▁ریج	-15.7874
▁sho	-15.7902
▁TF	-15.7939
▁ESH	-15.7947
▁tsa	-15.795
▁Oc	-15.7962
▁PH	-15.7966
▁XM	-15.7972
PV	-15.7977
▁کوٹ	-15.798
▁Op	-15.7989
bb	-15.8009
▁sit	-15.8022
▁مج	-15.8038
شی	-15.8043
▁پک	-15.8062
NT	-15.8063
عتب	-15.8072
▁was	-15.8073
▁ీనామ	-15.8074
▁سپ	-15.8095
▁ven	-15.8098
▁God	-15.8133
▁KC	-15.8145
▁సిద్	-15.8154
▁Raz	-15.8177
os	-15.8183
او	-15.8192
دود	-15.8212
▁Af	-15.8212
▁DT	-15.8215
ସି	-15.8223
▁OF	-15.8234
tar	-15.8249
▁جانو	-15.8251
▁UC	-15.8266
▁awa	-15.8277
▁eb	-15.8278
▁پڑی	-15.8295
شمی	-15.8298
▁fac	-15.8353
ree	-15.8379
HAR	-15.8385
▁MSP	-15.8404
▁KE	-15.8408
ارا	-15.8408
▁DG	-15.8412
▁TP	-15.8414
▁THA	-15.8418
▁کھی	-15.8431
ich	-15.8433
▁BE	-15.8436
ms	-15.8443
▁تخ	-15.8456
▁پارس	-15.8468
oy	-15.8492
▁Pi	-15.8492
▁Ros	-15.8519
▁nay	-15.8566
▁حل	-15.8574
▁گپ	-15.8587
گوا	-15.8599
▁KL	-15.8605
شم	-15.8614
رتی	-15.8659
رل	-15.8661
td	-15.8663
▁Sl	-15.8701
▁lok	-15.8707
قد	-15.8708
▁int	-15.8728
▁VC	-15.8737
LS	-15.8741
ومی	-15.8752
eam	-15.8753
قاب	-15.8758
ddi	-15.8761
▁سد	-15.8773
▁Prot	-15.8774
tm	-15.8777
EN	-15.8778
بول	-15.8796
▁ڈیل	-15.882
▁انو	-15.8838
▁ao	-15.8847
ھو	-15.8849
ائم	-15.8862
▁معذ	-15.8873
▁وہی	-15.8892
ML	-15.891
▁kt	-15.8927
▁پیل	-15.8927
▁ریڈ	-15.8931
▁ba	-15.8948
اہی	-15.8951
▁Tru	-15.8953
aud	-15.8953
▁درگ	-15.8953
PMC	-15.8984
وف	-15.8996
nl	-15.8997
rts	-15.9
▁چھو	-15.902
AX	-15.9021
అ	-15.9038
▁Mas	-15.9041
ARP	-15.9042
▁SM	-15.9047
▁کش	-15.906
▁بان	-15.9062
cn	-15.9066
▁رد	-15.907
▁زر	-15.9077
use	-15.9084
ضر	-15.9086
odi	-15.9087
op	-15.9095
▁JO	-15.9103
جھ	-15.9103
ige	-15.9103
EB	-15.9109
شما	-15.9116
▁Sto	-15.9119
▁floo	-15.912
ఒ	-15.9125
NM	-15.9141
▁Aj	-15.9144
▁aks	-15.9145
▁Ah	-15.9151
▁یار	-15.9152
صوص	-15.9153
▁TA	-15.9155
بوت	-15.916
ریئ	-15.9164
آ	-15.9164
WB	-15.9167
য	-15.918
▁برت	-15.9182
لاگ	-15.9183
بھ	-15.9183
॥	-15.9183
ன	-15.9183
؟	-15.9184
HP	-15.9184
ମା	-15.9184
JU	-15.9184
ٹال	-15.9184
ढ	-15.9185
دک	-15.9185
୩	-15.9185
پیٹ	-15.9185
DK	-15.9185
র	-15.9185
ِ	-15.9186
उ	-15.9186
=	-15.9186
फ	-15.9186
്	-15.9186
`	-15.9186
व	-15.9186
ଚ	-15.9186
#	-15.9186
طی	-15.9187
pol	-15.9187
دعو	-15.9187
लो	-15.9188
LE	-15.9189
BR	-15.9189
گیا	-15.919
PET	-15.9191
ڈال	-15.9192
XI	-15.9193
یٹل	-15.9195
KP	-15.9199
ದಿ	-15.92
NV	-15.9201
Si	-15.9203
NF	-15.9205
آم	-15.9205
vic	-15.9208
Xi	-15.9208
دم	-15.9209
▁ks	-15.9209
wai	-15.9213
ಲ್	-15.9213
hd	-15.9214
▁لئ	-15.9218
▁أ	-15.922
â	-15.922
ơ	-15.922
ً	-15.922
ڕ	-15.922
ः	-15.922
२	-15.922
অ	-15.922
গ	-15.922
শ	-15.922
ী	-15.922
ৱ	-15.922
ஏ	-15.922
ஜ	-15.922
ூ	-15.922
ఁ	-15.922
౹	-15.922
ಔ	-15.922
ഈ	-15.922
ഭ	-15.922
ശ	-15.922
ൃ	-15.922
േ	-15.922
ൊ	-15.922
ൻ	-15.922
ố	-15.922
⁫	-15.922
⁯	-15.922
▁FIDE	-15.922
▁Glob	-15.922
▁OCCRP	-15.922
▁clos	-15.922
▁تراش	-15.922
▁شعب	-15.922
▁बच	-15.922
▁চ	-15.922
▁ভ	-15.922
▁౧	-15.922
▁ರಫಿ	-15.922
▁😂😂	-15.922
◆	-15.922
👉	-15.922
👌	-15.922
💚	-15.922
😡	-15.922
▁BOOK	-15.922
▁House	-15.922
▁WHAT	-15.922
▁شوبھ	-15.922
▁طبع	-15.922
▁???	-15.922
▁OOK	-15.922
▁TSLP	-15.922
▁VEEP	-15.922
▁KVP	-15.922
▁Tik	-15.922
▁قوا	-15.922
▁ریپب	-15.922
▁گڑھ	-15.922
▁GRE	-15.922
▁LMD	-15.922
▁आध	-15.922
▁SON	-15.922
▁उस	-15.922
▁gj	-15.922
▁pdf	-15.922
▁مسکر	-15.922
▁SOH	-15.922
▁CAG	-15.922
▁TID	-15.922
▁اکث	-15.922
▁fans	-15.9221
▁Swa	-15.9221
▁دیوت	-15.9221
▁Fall	-15.9221
▁تیسر	-15.9221
▁Pear	-15.9221
▁Sign	-15.9221
▁jun	-15.9221
▁Clo	-15.9221
▁JMI	-15.9221
▁uj	-15.9221
▁فاصل	-15.9221
▁ଦାସ	-15.9221
▁FOR	-15.9221
▁مترا	-15.9221
▁nz	-15.9221
▁گہم	-15.9221
▁Bagh	-15.9221
▁نیپ	-15.9221
▁وورڈ	-15.9221
য়	-15.9221
▁صیہ	-15.9221
▁Ugr	-15.9221
▁good	-15.9221
▁HER	-15.9221
▁پوڈ	-15.9221
▁LIN	-15.9221
▁OIS	-15.9221
▁BIL	-15.9221
▁oks	-15.9221
▁hija	-15.9221
▁Swe	-15.9221
▁YRF	-15.9221
▁TBA	-15.9221
▁Out	-15.9221
▁pli	-15.9221
▁کپور	-15.9221
▁vE	-15.9221
▁PAL	-15.9222
▁Keda	-15.9222
▁VSP	-15.9222
▁سونگ	-15.9222
▁vaid	-15.9222
▁GAL	-15.9222
▁Ido	-15.9222
▁blu	-15.9222
▁NQ	-15.9222
▁HUB	-15.9222
▁آسٹ	-15.9222
▁بخ	-15.9222
▁cli	-15.9222
▁PAR	-15.9222
▁iQ	-15.9222
وفی	-15.9222
▁Our	-15.9222
▁cur	-15.9222
▁ums	-15.9222
▁Mb	-15.9222
▁صحر	-15.9222
▁ATE	-15.9223
▁las	-15.9223
▁اعد	-15.9223
Jb	-15.9223
▁JK	-15.9223
▁پیوٹ	-15.9223
▁Trop	-15.9223
▁Kab	-15.9223
▁nha	-15.9223
▁sath	-15.9223
▁page	-15.9223
▁ESS	-15.9223
▁JY	-15.9223
▁ayo	-15.9223
▁نقل	-15.9223
▁kw	-15.9223
▁RU	-15.9223
▁show	-15.9223
▁Sr	-15.9223
▁رخ	-15.9223
▁Tend	-15.9224
▁Fri	-15.9224
▁mam	-15.9224
▁منڈ	-15.9224
▁बह	-15.9224
▁Cry	-15.9224
▁LV	-15.9224
▁Veg	-15.9224
▁Pai	-15.9224
▁گزر	-15.9224
▁Zar	-15.9224
▁Tur	-15.9224
▁WC	-15.9224
▁مرم	-15.9224
▁Est	-15.9225
▁Bose	-15.9225
▁وکھ	-15.9225
▁بھرت	-15.9225
▁سوڈ	-15.9225
▁ଏଜ	-15.9225
▁blo	-15.9225
▁भर	-15.9226
▁لیج	-15.9226
▁Ul	-15.9226
▁Fg	-15.9226
▁पी	-15.9226
▁cor	-15.9227
▁कल	-15.9227
▁Pea	-15.9227
▁Ug	-15.9227
▁km	-15.9228
▁سیمن	-15.9228
▁وکا	-15.9228
▁BU	-15.9228
▁ଗୃ	-15.9228
▁بنات	-15.9228
▁Cal	-15.9228
▁مقرر	-15.923
▁rn	-15.923
▁tara	-15.923
▁ଗା	-15.923
▁کرئی	-15.923
▁Bri	-15.9231
▁tol	-15.9232
▁نکالی	-15.9233
▁Jami	-15.9234
▁ler	-15.9234
▁vio	-15.9235
▁381	-15.9235
▁avu	-15.9235
▁GNI	-15.9236
▁Ava	-15.9236
وشن	-15.9236
▁حق	-15.9236
▁1⁄	-15.9237
▁HAD	-15.9237
▁CEA	-15.9237
▁plo	-15.9237
jq	-15.9238
▁BD	-15.9239
ھنڈ	-15.9239
KI	-15.924
▁ସତ	-15.924
ھ	-16.5095
ؤ	-16.5516
ئ	-16.744
ಜ	-16.8985
ژ	-16.9166
౩	-16.9182
ൾ	-16.9182
ন	-16.9187
୯	-16.9187
୫	-16.9187
‐	-16.9187
घ	-16.9188
ठ	-16.9188
ு	-16.9188
ി	-16.9188
ʼ	-16.9188
भ	-16.9188
୨	-16.9188
ड	-16.9188
ಈ	-16.9188
ಕ	-16.9189
ಪ	-16.9189
ả	-16.922
<	-16.922
£	-16.922
©	-16.922
æ	-16.922
́	-16.922
α	-16.922
β	-16.922
؛	-16.922
إ	-16.922
ى	-16.922
ڵ	-16.922
ۆ	-16.922
ێ	-16.922
४	-16.922
ঃ	-16.922
আ	-16.922
ৈ	-16.922
ஆ	-16.922
இ	-16.922
உ	-16.922
ஊ	-16.922
ஸ	-16.922
ே	-16.922
ఽ	-16.922
ౄ	-16.922
౪	-16.922
౬	-16.922
ആ	-16.922
ഇ	-16.922
ഗ	-16.922
ദ	-16.922
ബ	-16.922
ഴ	-16.922
ൈ	-16.922
ầ	-16.922
ậ	-16.922
ệ	-16.922
ớ	-16.922
ở	-16.922
ợ	-16.922
ứ	-16.922
‫	-16.922
‬	-16.922
€	-16.922
∙	-16.922
≠	-16.922
▪	-16.922
♥	-16.922
✳	-16.922
➡	-16.922
🇪	-16.922
🇬	-16.922
🌹	-16.922
🏼	-16.922
👇	-16.922
👊	-16.922
👋	-16.922
💐	-16.922
💥	-16.922
🔴	-16.922
🔸	-16.922
🔹	-16.922
😂	-16.922
😉	-16.922
😊	-16.922
😜	-16.922
😞	-16.922
😠	-16.922
😥	-16.922
🙂	-16.922
🤜	-16.922
Á	-16.922
ഒ	-16.922
ờ	-16.922
౧	-18.2873
ভ	-18.2874
চ	-18.2875
أ	-18.2876
⁄	-18.2877
ಝ	-18.2878
ऑ	-18.2879
ऊ	-18.288
ധ	-18.2881
அ	-18.2882
এ	-18.2883
đ	-18.2884
🚩	-18.2885
எ	-18.2886
❌	-18.2887
ജ	-18.2888
জ	-18.2889
ൽ	-18.289
ऐ	-18.2891
⁠	-18.2892
ച	-18.2893
ଝ	-18.2894
ব	-18.2895
ಊ	-18.2896
ಓ	-18.2897
$	-18.2898
ओ	-18.2899
ம	-18.29
க	-18.2901
ಐ	-18.2902
ఋ	-18.2903
ಏ	-18.2904
[	-18.2905
•	-18.2906
₹	-18.2907
ி	-18.2908
इ	-18.2909
औ	-18.291
_	-18.2911
்	-18.2912
➦	-18.2913
ಉ	-18.2914
अ	-18.2915
‭	-18.2916
च	-18.2917
@	-18.2918
>	-18.2919
ଓ	-18.292
ಇ	-18.2921
ఝ	-18.2922
ಷ	-18.2923
ಆ	-18.2924
ಅ	-18.2925
ಎ	-18.2926
⁭	-18.2927
ఔ	-18.2928
‍	-18.2929
ఞ	-18.293
ಯ	-18.2931
⁬	-18.2932
ఊ	-18.2933
(	-18.2934
ఉ	-18.2935
