<unk>	0
<s>	0
</s>	0
.	-2.91242
,	-3.96953
▁	-4.22642
ం	-4.66565
లు	-4.69502
లో	-4.71467
ల	-4.90942
కు	-5.00297
ు	-5.06638
ని	-5.07915
▁ఈ	-5.11187
ర్	-5.13711
న	-5.1983
ను	-5.20829
స్	-5.23828
గా	-5.3109
ి	-5.38339
ర	-5.38588
వ	-5.39112
ల్	-5.43914
ా	-5.49337
▁లో	-5.4941
న్	-5.49727
కి	-5.51549
▁ఆ	-5.53018
ే	-5.54851
క	-5.56601
ారు	-5.62422
త	-5.63145
తో	-5.65611
మ	-5.693
▁అ	-5.86041
క్	-5.8608
ట్	-5.87579
పై	-5.89344
ప	-5.9375
▁కూడా	-5.97265
▁నుంచి	-5.97709
▁కు	-5.99561
రి	-6.0146
గ	-6.02523
▁క	-6.06027
య	-6.06264
ంగా	-6.06713
రు	-6.07499
నే	-6.08278
ద	-6.0999
:	-6.10507
రా	-6.18948
ిన	-6.20778
▁మ	-6.22549
లను	-6.23779
డ	-6.2578
ింది	-6.28566
ాయి	-6.29932
▁చేశారు	-6.31223
లి	-6.31871
ట	-6.32406
డ్	-6.33412
ది	-6.33798
▁(	-6.34518
ూ	-6.35226
స	-6.36377
ాన్ని	-6.37168
▁ను	-6.37762
ానికి	-6.41161
యా	-6.44832
ాడు	-6.46734
▁ఉన్న	-6.46817
లకు	-6.48094
▁అని	-6.48623
కా	-6.49055
డి	-6.49302
)	-6.49506
▁స	-6.50203
▁వి	-6.50487
▁న	-6.53888
▁ఆయన	-6.54645
్	-6.55862
▁ప	-6.56027
ాలు	-6.56369
లా	-6.5673
▁ఏ	-6.56818
వా	-6.57586
▁గా	-6.59435
త్	-6.59488
▁కా	-6.61091
టి	-6.61482
చ	-6.61524
▁రూ	-6.63556
న్న	-6.64779
నా	-6.64932
డం	-6.65266
వి	-6.66096
ల్లో	-6.68644
▁బ	-6.68841
▁పార్టీ	-6.68893
▁తన	-6.68965
▁కాంగ్రెస్	-6.70679
ో	-6.7173
ప్	-6.72211
▁రెడ్డి	-6.72242
▁ని	-6.72595
తి	-6.73424
ారని	-6.74622
▁రా	-6.75817
▁ఒక	-6.77381
▁చేసిన	-6.78822
▁కోసం	-6.79822
-	-6.80237
▁ఓ	-6.80408
జ	-6.82402
జ్	-6.82707
▁చేయ	-6.83861
సి	-6.84007
▁మంది	-6.84671
▁ప్రభుత్వం	-6.84906
▁మా	-6.85047
▁గ	-6.85531
▁తో	-6.86045
▁అయితే	-6.86307
"	-6.86596
సీ	-6.86806
▁చెప్పారు	-6.87212
మా	-6.88704
రీ	-6.90445
ాలని	-6.90587
▁తెలిపారు	-6.90927
?	-6.9146
▁వ	-6.93167
▁తర్వాత	-6.93402
▁జ	-6.93615
▁ఎ	-6.94849
ధ	-6.96416
హ	-6.96628
ై	-6.9672
మ్	-6.96953
ణ	-6.97466
డు	-6.99625
▁ర	-6.99787
ంలో	-6.99838
▁ప్ర	-7.0019
▁పై	-7.00415
▁నా	-7.01225
ించ	-7.01924
టీ	-7.0257
▁ఉంది	-7.02785
ట్లు	-7.0441
గ్	-7.04593
శ	-7.04925
▁అన్నారు	-7.05022
2	-7.0705
ద్	-7.07346
ంద	-7.07794
▁పా	-7.07885
▁పాటు	-7.08235
కే	-7.08261
మి	-7.08355
▁బీజేపీ	-7.0853
▁తెలంగాణ	-7.08685
▁సీఎం	-7.08748
▁సినిమా	-7.08835
▁త	-7.09121
▁స్	-7.10154
ాల	-7.10328
లతో	-7.1125
▁మంత్రి	-7.11352
ీ	-7.12468
▁చాలా	-7.12703
బ	-7.13013
మైన	-7.13477
పా	-7.13535
▁చెప్ప	-7.16179
పు	-7.16504
▁కో	-7.16605
యం	-7.16999
▁"	-7.17621
▁రెండు	-7.17825
▁వా	-7.18451
▁జిల్లా	-7.19166
ె	-7.20107
ేందుకు	-7.20464
లోని	-7.2083
▁ఆమె	-7.21627
▁బా	-7.21848
▁తమ	-7.22493
జీ	-7.22508
▁చ	-7.22623
▁ఇ	-7.22628
▁దీంతో	-7.22676
భ	-7.23264
▁ద	-7.2327
ష్	-7.23421
ులు	-7.23593
▁హ	-7.23976
నీ	-7.25066
పీ	-7.25201
▁రాష్ట్ర	-7.25651
▁ము	-7.25816
ౌ	-7.27914
▁హైదరాబాద్	-7.28568
▁చంద్రబాబు	-7.28569
▁వే	-7.2889
▁చెందిన	-7.29161
ంట	-7.29465
▁భ	-7.29488
▁వరకు	-7.29539
దా	-7.29768
▁కానీ	-7.29826
3	-7.29857
▁ఉ	-7.30262
తా	-7.30413
▁చేసి	-7.30567
లేదు	-7.30676
కో	-7.30824
▁పోలీసులు	-7.30828
మ్మ	-7.31389
వు	-7.31475
ష	-7.31559
ండ	-7.32908
దు	-7.32955
లే	-7.33185
▁ఎన్నికల	-7.3336
▁చేసింది	-7.33402
ఎస్	-7.33456
డానికి	-7.3361
▁ల	-7.34057
▁ఇది	-7.3503
6	-7.3537
ళ్ల	-7.35799
ాలి	-7.3599
▁చేర	-7.36031
▁అధికారులు	-7.36299
▁మధ్య	-7.36877
▁3	-7.37975
ొ	-7.3823
డీ	-7.38305
పో	-7.38794
లీ	-7.39089
రే	-7.39162
గు	-7.39276
7	-7.39284
1	-7.39355
▁వారి	-7.3977
▁సమయంలో	-7.407
8	-7.40927
ామని	-7.41528
ాం	-7.41588
ట్ట	-7.41741
చి	-7.41962
▁కొ	-7.41982
ంత	-7.42202
ی	-7.42981
▁సం	-7.4374
▁ఎమ్మెల్యే	-7.4406
ا	-7.44298
▁జగన్	-7.44675
కుండా	-7.44825
్లో	-7.45218
మే	-7.45383
▁కేంద్ర	-7.45822
సా	-7.46911
జా	-7.47233
బ్	-7.47379
రో	-7.48226
▁సి	-7.48381
▁పెద్ద	-7.48626
క్ష	-7.48679
ాలను	-7.49235
▁మరో	-7.49656
ండ్	-7.4971
▁ప్రతి	-7.49759
ండి	-7.50491
రం	-7.50687
పి	-7.51243
ము	-7.51402
4	-7.5143
జి	-7.51994
▁కొత్త	-7.52063
▁మి	-7.5221
▁ఇప్పుడు	-7.52457
▁మె	-7.52932
నం	-7.52953
▁కేసీఆర్	-7.52954
ఫ్	-7.5355
▁పో	-7.53616
▁బీఆర్ఎస్	-7.53861
▁,	-7.54048
టా	-7.54085
▁మే	-7.54523
తీ	-7.54625
టర్	-7.5506
ుడు	-7.55332
▁పెట్ట	-7.55751
మీ	-7.56011
సు	-7.56022
▁వచ్చిన	-7.561
▁వల్ల	-7.56397
▁ద్వారా	-7.56529
5	-7.56897
ించారు	-7.57146
▁ప్రభుత్వ	-7.57337
చ్చ	-7.57372
కీ	-7.57378
▁ఇక	-7.57652
ద్ద	-7.57917
▁ఏర్పాటు	-7.58263
a	-7.58394
య్య	-7.58481
ాయని	-7.58619
▁ఉండ	-7.58661
డంతో	-7.59124
స్ట్	-7.59409
▁ఆర్	-7.59575
▁అనే	-7.5976
▁కొన్ని	-7.59871
ట్టు	-7.59974
వే	-7.6028
▁సా	-7.60386
ుతున్న	-7.60512
▁చేస్తున్న	-7.60575
▁వీ	-7.60753
9	-7.61161
ప్ప	-7.61161
▁రి	-7.61579
▁4	-7.62048
▁వె	-7.62145
▁ఉంటుంది	-7.6244
▁అవకాశం	-7.62723
▁శ	-7.62798
యి	-7.62973
▁జరిగిన	-7.6389
▁గు	-7.64117
▁మీ	-7.64136
గి	-7.64173
e	-7.64211
▁కోట్ల	-7.64547
▁పోటీ	-7.6461
ంగ	-7.64682
▁సీ	-7.64792
▁20	-7.65483
క్క	-7.65517
▁కి	-7.65547
▁మాజీ	-7.65704
▁-	-7.65747
పడ	-7.66144
▁ఐ	-7.6629
▁5	-7.66381
▁వచ్చే	-7.66408
▁భారీ	-7.66543
▁పడ	-7.67027
▁వెలుగు	-7.67451
▁అంద	-7.677
▁ముందు	-7.67915
వర్	-7.6832
▁సె	-7.68396
▁ప్రస్తుతం	-7.68857
టు	-7.69522
▁పని	-7.69557
▁క్	-7.69639
ಿ	-7.69678
వీ	-7.69723
▁కలిసి	-7.69864
▁కేసు	-7.70087
▁సు	-7.70172
లపై	-7.70227
▁శాఖ	-7.70241
ైన	-7.70368
ఆర్	-7.70586
తు	-7.71263
▁సంస్థ	-7.72321
▁రేవంత్	-7.72622
▁చేస్తున్నారు	-7.72788
▁ఎంపీ	-7.7288
▁వద్ద	-7.73271
▁ఎన్నికల్లో	-7.73272
▁లేదు	-7.73513
వ్	-7.73574
▁భారత్	-7.73848
▁2	-7.73996
ంచ	-7.74327
▁కే	-7.74741
▁లోని	-7.74838
▁పె	-7.75199
▁జా	-7.75215
i	-7.75439
యో	-7.76436
ుకున్న	-7.77027
▁అన్ని	-7.77509
ించిన	-7.77648
▁మూడు	-7.77656
▁గత	-7.77767
▁రోజు	-7.78038
లలో	-7.78123
▁వేల	-7.78203
ుల	-7.78271
▁యా	-7.78459
▁లా	-7.7861
ఐ	-7.78676
▁టీడీపీ	-7.78776
▁10	-7.78845
స్త	-7.79293
▁కీలక	-7.79509
▁నెల	-7.79595
ళ	-7.79947
▁లు	-7.80008
▁గురించి	-7.80505
కొ	-7.80552
ుతుంది	-7.80582
▁వారు	-7.80979
▁చేసే	-7.8101
బీ	-7.81504
▁పవన్	-7.8166
▁విడుదల	-7.81827
▁ఫ	-7.8193
و	-7.82117
ల్ల	-7.82152
్య	-7.82193
▁పీ	-7.82693
▁మ్యాచ్	-7.82942
▁బీ	-7.83157
▁ఘటన	-7.83257
▁శాతం	-7.83898
▁""	-7.84344
లోకి	-7.84435
▁మన	-7.84486
శ్	-7.84571
▁మాత్రం	-7.84614
▁వీడియో	-7.84825
▁ఉందని	-7.84835
▁ఇన్	-7.84862
▁లక్షల	-7.84882
▁1	-7.85781
▁మొత్తం	-7.86208
త్ర	-7.86543
ించి	-7.86568
▁7	-7.8657
▁సభ	-7.86594
▁వైసీపీ	-7.87363
▁చె	-7.87443
▁6	-7.87673
▁పు	-7.87868
▁మార	-7.88031
▁విచారణ	-7.88255
▁విషయం	-7.88274
▁ఉన్నారు	-7.88344
▁వెళ్ల	-7.88525
▁ఉన్నాయి	-7.88601
▁వ్యక్తం	-7.88626
s	-7.88697
▁19	-7.88883
కర	-7.8891
బా	-7.8899
పల్లి	-7.89207
▁పి	-7.89276
▁డీ	-7.89345
ాల్లో	-7.89598
▁మాత్రమే	-7.90031
ంటే	-7.90339
00	-7.90345
ఎం	-7.90921
▁టీ	-7.91224
ధి	-7.91261
▁కుమార్	-7.91421
▁రాజకీయ	-7.91504
▁తి	-7.91535
▁ధర	-7.91562
▁ఇవ్వ	-7.92371
▁సమాచారం	-7.92382
▁డి	-7.92606
రె	-7.92722
▁ఎలా	-7.92988
▁ఒక్క	-7.93605
▁పూర్తి	-7.93645
▁చా	-7.93773
▁అసెంబ్లీ	-7.93973
క్స్	-7.93981
మని	-7.94114
▁పలు	-7.94114
ితే	-7.94277
ఖ	-7.94457
ఏ	-7.94523
ంటి	-7.9453
త్త	-7.94583
▁శ్రీ	-7.94585
ల్స్	-7.94716
▁పే	-7.94932
▁ఎక్కువ	-7.94979
మో	-7.95288
▁ముఖ్యమంత్రి	-7.95426
థ	-7.95607
▁మంచి	-7.95685
అ	-7.95857
▁చి	-7.95999
▁షా	-7.96078
▁వంటి	-7.96245
డా	-7.9627
▁చేయడం	-7.97003
▁చేయాలని	-7.97015
ున్న	-7.97293
▁వై	-7.97413
▁ప్రధాన	-7.97716
▁ఎస్	-7.97723
చే	-7.97757
ిక	-7.9783
ినట్లు	-7.98088
▁ఇప్పటికే	-7.98183
▁ప్రధాని	-7.98548
▁గో	-7.98878
ر	-7.995
ಾ	-7.99548
▁ప్రజలు	-7.99624
▁రాజ	-7.99642
▁మీద	-7.99676
▁భారత	-7.99688
▁హా	-7.99779
▁8	-7.9987
▁నుండి	-7.99891
▁తీవ్ర	-8.00184
ాయ	-8.00231
▁పొ	-8.00232
కర్	-8.0025
▁కంపెనీ	-8.00317
▁కోర్టు	-8.00457
▁ప్రత్యేక	-8.00675
▁ఖ	-8.00742
ిస్తున్న	-8.00855
▁కింద	-8.00998
""	-8.01274
వ్వ	-8.01392
▁సందర్భంగా	-8.01482
▁దేశ	-8.01531
▁రాష్ట్రంలో	-8.0185
▁కోర	-8.02079
▁ఎలాంటి	-8.02506
▁కుటుంబ	-8.02508
▁అదే	-8.02879
▁జో	-8.02941
▁దిగ	-8.03003
దీ	-8.03174
▁తా	-8.0325
లె	-8.03347
షన్	-8.03449
▁ప్రకారం	-8.03544
▁లే	-8.03694
▁ఇం	-8.03884
▁తాను	-8.03917
ప్ర	-8.03959
▁మాట్లాడ	-8.04195
▁లేదా	-8.0426
▁చర్చ	-8.04409
▁మోదీ	-8.04431
షి	-8.04663
ంతో	-8.0468
▁ఇండియా	-8.04734
ృ	-8.04804
ట్ల	-8.05015
నూ	-8.05019
▁పొంద	-8.05103
▁సోషల్	-8.05208
ానని	-8.0528
లేదని	-8.05348
న్నారు	-8.0536
▁ఇతర	-8.05441
దే	-8.05552
న్స్	-8.05626
0	-8.0568
య్	-8.0591
ుకుని	-8.0591
ంబ	-8.0659
▁పెంచ	-8.06629
▁వారికి	-8.06824
టో	-8.07149
ుతున్నారు	-8.07242
ంగ్	-8.07336
▁అంత	-8.0738
▁గంటల	-8.07458
టం	-8.07882
▁అంటూ	-8.0805
▁తప్ప	-8.08208
20	-8.08729
్యూ	-8.08737
లోనే	-8.09529
▁చర్యలు	-8.09746
ణి	-8.09795
▁నేతలు	-8.10169
▁చేస్త	-8.10208
ು	-8.10231
▁ఏపీ	-8.10249
▁క్యా	-8.1042
ుకున్నారు	-8.10443
▁లేదని	-8.10518
▁దగ్గర	-8.10557
యు	-8.10648
▁కాదు	-8.10656
▁అన్న	-8.10739
▁ఆర్థిక	-8.11007
▁తగ్గ	-8.11048
▁ప్రచారం	-8.11193
▁ఏడాది	-8.11395
ళ్లు	-8.11557
ంపు	-8.11748
▁బి	-8.12007
ି	-8.12135
▁పేరు	-8.12254
▁వ్యక్తి	-8.12371
▁అభివృద్ధి	-8.12569
▁అంటే	-8.12678
ింగ్	-8.12704
▁ఇదే	-8.12947
▁పట్ట	-8.13012
▁జీ	-8.1334
o	-8.13492
ن	-8.1405
⁬	-8.14317
▁దు	-8.14341
▁ఇలా	-8.1444
ರ	-8.14583
▁ఇచ్చిన	-8.14736
▁చిన్న	-8.14811
ఈ	-8.14959
▁ది	-8.14983
▁పరి	-8.15089
▁అలాగే	-8.15284
▁రో	-8.15297
▁కనిపించ	-8.15446
▁రోజుల	-8.1565
ంది	-8.15775
▁అది	-8.15996
ప్పు	-8.16154
▁మెంట్	-8.16178
ధా	-8.16218
▁దాడి	-8.16255
▁దా	-8.16336
▁పేర్కొన్నారు	-8.16486
సం	-8.16577
▁ఫోన్	-8.16587
▁అన	-8.16619
▁9	-8.16951
ాల్సి	-8.17134
హా	-8.1727
▁కూ	-8.17358
▁ధ	-8.17583
▁ట్ర	-8.17677
ವ	-8.17949
▁బ్యా	-8.18016
▁డిమాండ్	-8.18073
▁సో	-8.18109
▁అందించ	-8.18553
న్నా	-8.18601
▁కోట్లు	-8.18624
సె	-8.18653
ప్పుడు	-8.18996
లం	-8.19075
పూర్	-8.19116
నున్నారు	-8.19194
▁ఎం	-8.1946
▁తెలిపింది	-8.19573
▁15	-8.19626
▁చెబుతున్నారు	-8.1971
▁పరిస్థితి	-8.19752
▁కల	-8.19785
▁నేత	-8.1979
▁ఏం	-8.19814
ోంది	-8.19828
ద్ధ	-8.20239
▁రే	-8.20246
▁బె	-8.20555
▁తాజాగా	-8.2074
▁ఫా	-8.20855
ుంది	-8.20859
▁రావు	-8.21019
▁దీని	-8.2121
▁సంబంధించిన	-8.21287
ిందని	-8.21303
వె	-8.2131
బి	-8.21364
▁ఢిల్లీ	-8.21521
డే	-8.21601
ాలకు	-8.21726
రణ	-8.21766
▁అమలు	-8.21941
▁దాదాపు	-8.2202
ారా	-8.22207
▁ఉండే	-8.22251
▁గాంధీ	-8.22453
ہ	-8.22711
▁నిర్	-8.22989
▁12	-8.2301
▁య	-8.23018
▁ఊ	-8.23129
▁రామ	-8.23192
▁ఆఫ్	-8.23508
▁గతంలో	-8.23571
ା	-8.23727
▁మాట్లాడుతూ	-8.23792
ل	-8.24076
▁అక్కడ	-8.24305
▁నిర్ణయం	-8.24424
▁భాగంగా	-8.24518
▁అనేక	-8.24573
▁ఇటీవల	-8.2474
▁హామీ	-8.24853
▁మూవీ	-8.25048
ైనా	-8.25355
▁తేదీ	-8.25368
▁స్టార్	-8.25654
l	-8.26082
వో	-8.26264
▁జట్టు	-8.2628
▁అమెరికా	-8.26354
▁నమోదు	-8.26579
▁కారణంగా	-8.26579
ష్ట	-8.26617
▁జరిగింది	-8.2668
▁అనంతరం	-8.26897
▁లి	-8.27004
▁వెంటనే	-8.27148
ుతోంది	-8.2719
▁ప్రజల	-8.27405
▁తొలి	-8.27628
సే	-8.27684
▁నిర్వహించ	-8.2776
▁తరువాత	-8.28224
▁సమ	-8.28508
కల్	-8.28557
▁వెళ్లి	-8.28707
),	-8.2873
చ్	-8.2881
▁అవ	-8.28815
▁జారీ	-8.29141
t	-8.29396
▁సాగ	-8.29449
h	-8.29518
▁ఇందులో	-8.29524
గానే	-8.29615
ేషన్	-8.29682
▁యూ	-8.29687
శా	-8.29771
▁కార్	-8.29784
▁అమ్మ	-8.29881
▁బో	-8.30046
'	-8.3018
▁నీ	-8.30414
▁విజయ	-8.30522
▁వచ్చింది	-8.30656
▁పరీక్ష	-8.3079
▁నేపథ్యంలో	-8.30837
▁ఏళ్ల	-8.30854
▁ఆందోళన	-8.30884
▁ఎన్	-8.31038
కం	-8.31054
▁విషయంలో	-8.31214
యూ	-8.31343
▁తెలుగు	-8.31684
▁స్వ	-8.31902
▁గుర్తు	-8.3222
ుందని	-8.32248
▁ఎక్కువగా	-8.32286
▁'	-8.3231
▁ప్రా	-8.32313
▁పాత్ర	-8.32358
▁కేసులో	-8.32573
▁లేకుండా	-8.32586
▁అయిన	-8.32677
▁అంచనా	-8.32843
▁మో	-8.32888
u	-8.32939
శి	-8.33084
▁ఫిర్యాదు	-8.3318
ఫ	-8.3323
▁11	-8.33252
୍	-8.33274
పేట	-8.33322
ున్నారు	-8.33508
గం	-8.33674
▁తీస	-8.3378
▁తెలియ	-8.33951
▁ఇచ్చారు	-8.34075
మె	-8.34094
▁మీడియా	-8.34115
▁ఫొటో	-8.34251
ت	-8.34315
ాల్సిన	-8.34341
▁పంప	-8.34697
I	-8.34938
▁ఉదయం	-8.34993
యర్	-8.3506
ದ	-8.35062
టే	-8.35353
▁నేను	-8.35457
▁కట్ట	-8.36124
▁సింగ్	-8.36372
▁ఇంటి	-8.36372
▁దేశంలో	-8.36421
▁సేవ	-8.3659
▁మార్	-8.36779
డో	-8.36811
▁అధికారంలో	-8.36944
▁మూ	-8.36971
సారి	-8.36988
▁ఒ	-8.37094
▁రాహుల్	-8.37179
▁స్టేషన్	-8.37221
▁ఎంత	-8.37408
▁మొదటి	-8.37451
లుగా	-8.37464
దని	-8.37564
రూ	-8.37749
▁జిల్లాలో	-8.37802
నుంది	-8.3799
▁అభ్యర్థి	-8.38092
▁ఆడ	-8.38148
వచ్చు	-8.38233
d	-8.3835
యన్	-8.38914
ంటూ	-8.38951
▁సై	-8.39097
▁నాలుగు	-8.39423
▁అతని	-8.39449
ంతా	-8.3974
ుగా	-8.39791
▁ఆరోగ్య	-8.39964
▁మరింత	-8.40089
▁జరగ	-8.40131
తం	-8.40176
▁కాగా	-8.40319
టింగ్	-8.40462
▁మీడియాలో	-8.40616
▁డాక్టర్	-8.40664
▁ష	-8.40694
▁వచ్చి	-8.40734
▁తెలంగాణలో	-8.40771
ೆ	-8.40861
▁ప్రమాదం	-8.40866
▁రెండో	-8.40974
▁లోక్	-8.41018
▁దేవ	-8.41088
▁టికెట్	-8.41135
ించే	-8.41497
▁పాల్గొన్నారు	-8.41642
▁క్రమంలో	-8.41644
▁ఇస్త	-8.41727
▁తెలుస్తోంది	-8.41818
ందు	-8.41873
చు	-8.42063
స్తు	-8.42066
ుడి	-8.42137
▁స్పష్టం	-8.42347
▁చేస్తూ	-8.42542
▁ఉంటే	-8.42598
లై	-8.42703
▁నిజ	-8.42889
▁దాని	-8.42941
ుకునే	-8.4296
S	-8.42973
ک	-8.43011
▁జనసేన	-8.43467
▁అందుకే	-8.43575
▁రాత్రి	-8.43734
▁శివ	-8.43735
ుకుంట	-8.43931
▁30	-8.43987
ూరు	-8.44046
కూ	-8.44158
▁హీరో	-8.44382
▁వాటి	-8.44463
పెట్ట	-8.4459
▁తిరిగి	-8.44591
▁మళ్లీ	-8.446
▁ఎందుకు	-8.44787
▁బ్ర	-8.44828
▁హై	-8.44847
▁మేరకు	-8.44933
್	-8.44972
ఫీ	-8.45158
▁సమస్య	-8.45224
స్తున్న	-8.45453
▁బు	-8.45472
▁హైకోర్టు	-8.45526
▁ఆరోపించారు	-8.4574
జే	-8.45764
▁ఇలాంటి	-8.45796
/	-8.4602
ుతూ	-8.46065
▁రె	-8.46135
ఇ	-8.46331
▁కేటీఆర్	-8.46516
▁చూడ	-8.46518
పోయింది	-8.4659
▁కోల్	-8.46619
కింగ్	-8.46678
▁ఏర్పడ	-8.47025
▁కలెక్టర్	-8.47293
్యం	-8.47429
కె	-8.47432
▁అరెస్ట్	-8.47579
రెడ్డి	-8.47851
▁తెలిసిందే	-8.47855
ేశారు	-8.47896
▁చేసుకున్న	-8.47982
▁ప్రపంచ	-8.48067
▁వైరల్	-8.4808
▁విజయం	-8.48287
▁ఇక్కడ	-8.48303
▁ప్రకటన	-8.48358
▁సిబ్బంది	-8.48414
▁నాయకులు	-8.48443
▁అధ్యక్షుడు	-8.48619
స్తా	-8.48697
ించింది	-8.48727
▁జాతీయ	-8.48923
▁కష్ట	-8.49003
బ్బ	-8.49018
▁తక్కువ	-8.49036
ಲ	-8.4908
▁మార్చ	-8.49203
పోయిన	-8.49224
ప్పటికీ	-8.49282
▁మద్దతు	-8.4932
▁తీసుకున్న	-8.49331
▁ప్రాజెక్టు	-8.4949
ణా	-8.49551
▁పైన	-8.49736
ے	-8.49742
లోనూ	-8.49824
▁లైన్	-8.49967
▁సాధించ	-8.50008
ంజ	-8.50154
▁ఫి	-8.50156
▁మొ	-8.50348
మూ	-8.505
ేలా	-8.50654
బో	-8.51171
▁ఉంచ	-8.51188
▁వెల్లడించారు	-8.51259
ాడని	-8.51303
▁వాడ	-8.51551
ిస్తున్నారు	-8.51575
▁14	-8.51702
an	-8.51953
▁బస్సు	-8.52089
▁కంటే	-8.5226
▁చూప	-8.52289
▁కొందరు	-8.52381
ారెడ్డి	-8.52716
د	-8.52797
▁దృష్టి	-8.52968
▁హత్య	-8.53079
▁తె	-8.53189
▁కేంద్రం	-8.53209
▁అందులో	-8.53277
▁భార్య	-8.53386
ున్నాయి	-8.53406
▁నీటి	-8.53441
▁కమిటీ	-8.53501
ుకొని	-8.53858
ెంట్	-8.54065
▁పోలీస్	-8.54215
క్ట్	-8.54348
ుతుందని	-8.54658
▁కొనసాగ	-8.54809
జు	-8.54894
!	-8.55006
నె	-8.55049
▁వ్యాపార	-8.55065
▁కృష్ణ	-8.55455
▁కొట్ట	-8.55522
▁కాకుండా	-8.55532
▁పెళ్లి	-8.55538
వై	-8.55984
▁ఇద్దరు	-8.56084
▁వైఎస్	-8.56202
▁స్థానిక	-8.56251
▁రోడ్డు	-8.56355
పె	-8.56427
▁మై	-8.56449
▁అడ్డ	-8.56471
▁తనకు	-8.565
రోజు	-8.56883
▁ఇంకా	-8.56898
▁కోరారు	-8.56899
▁మాట	-8.57007
▁పనులు	-8.57201
▁మార్కెట్	-8.57257
▁ఏపీలో	-8.5732
▁ప్రజా	-8.57343
▁పైగా	-8.5737
▁పద	-8.57474
నో	-8.57493
R	-8.57529
కాలం	-8.57548
▁ఎక్కడ	-8.57551
క్ర	-8.57613
▁రీ	-8.57989
▁ప్రశ్న	-8.5809
గో	-8.5817
జన	-8.58358
▁ఆంధ్రప్రదేశ్	-8.58485
c	-8.58547
ట్టి	-8.58635
▁మారింది	-8.5882
ుకోవడం	-8.58863
రాజ్	-8.58867
ిస్తూ	-8.58868
తోపాటు	-8.59117
కార	-8.59134
ల్లా	-8.59237
▁18	-8.59261
▁అయ్య	-8.5929
▁కేవలం	-8.5955
ఠ	-8.59673
▁చెంద	-8.59784
▁జీవ	-8.59818
▁ఇంట్లో	-8.59884
▁2024	-8.59885
▁సీనియర్	-8.60055
▁అడుగు	-8.60218
▁మహిళ	-8.60232
C	-8.60251
▁రాశి	-8.60341
▁ప్రాంతాల్లో	-8.60463
ెన్స్	-8.60491
▁సూచించారు	-8.60583
▁జరుగుతున్న	-8.60625
▁బెంగళూరు	-8.60627
▁మోడీ	-8.60648
▁వీరి	-8.60746
▁ఉప	-8.60965
▁ప్రారంభ	-8.61011
▁రోడ్	-8.61078
జర్	-8.61172
▁వస్త	-8.61201
س	-8.6122
▁అమ	-8.61315
▁వాళ్ల	-8.61476
ందా	-8.6158
షా	-8.61626
ఆ	-8.6163
హి	-8.619
▁కూటమి	-8.61908
▁రైల్వే	-8.61973
డుతున్న	-8.61977
▁200	-8.62085
యోగ	-8.62383
▁మృతి	-8.62494
చార	-8.62649
▁డ	-8.62746
▁కొంత	-8.62789
▁ఆశ	-8.62848
▁..	-8.63
ందన్నారు	-8.63193
న్నీ	-8.63248
▁25	-8.63264
▁అవసరం	-8.63272
▁సమయం	-8.63317
బడ	-8.6339
A	-8.63522
▁ఎవరి	-8.63548
50	-8.6355
▁టె	-8.63747
▁చూస	-8.6376
▁నె	-8.63843
▁వర్షాలు	-8.63987
▁అక్కడి	-8.64134
▁ఎక్స్	-8.64197
▁చేశాడు	-8.64249
▁వారిని	-8.64267
▁భూమి	-8.64271
▁గ్రామ	-8.64346
▁నగర్	-8.64417
▁నే	-8.64515
▁వైద్య	-8.64516
▁వస్తున్న	-8.64529
▁చేపట్ట	-8.64601
▁వర్	-8.64627
▁డె	-8.64632
▁మరోసారి	-8.64662
▁వార	-8.64689
▁కొనుగోలు	-8.64853
ాలంటే	-8.64926
పే	-8.65217
వర	-8.65282
p	-8.65319
రియా	-8.65348
ుతున్నాయి	-8.65391
▁ఇచ్చ	-8.65396
▁కథ	-8.65407
▁తాము	-8.65497
ణం	-8.65574
▁రిలీజ్	-8.65587
▁24	-8.65644
▁ఉంటాయి	-8.65747
▁ఎంతో	-8.65771
▁సొంత	-8.65788
ధ్య	-8.65805
ళ్ళ	-8.65832
▁ప్రజలకు	-8.65841
▁వరద	-8.65846
▁దక్క	-8.6589
స్థ	-8.65914
భా	-8.66018
▁తిరుమల	-8.66191
▁జై	-8.6621
తుల	-8.66419
ుండగా	-8.66449
▁నాగ	-8.66471
బర్	-8.66673
▁మహా	-8.66674
▁ప్రాంత	-8.6689
▁నేతల	-8.6694
ాను	-8.6694
▁మండల	-8.67069
▁చివరి	-8.67208
▁పిల్లల	-8.67285
P	-8.67318
▁చే	-8.67392
▁కారు	-8.67492
ର	-8.67575
మెంట్	-8.67678
▁ప్రకటించారు	-8.67689
▁ట	-8.677
▁వివిధ	-8.68163
▁జీవిత	-8.68283
గ్రహ	-8.68283
▁ఐదు	-8.6849
పర్	-8.68516
▁వేయ	-8.68556
▁సిద్ధ	-8.68559
ಕ	-8.68622
డర్	-8.68874
▁వంద	-8.68945
▁అక్రమ	-8.68967
తులు	-8.69081
▁మరియు	-8.69091
y	-8.69197
▁మరి	-8.69271
▁నిర్ణయించ	-8.69445
▁ప్రారంభించ	-8.69464
గల	-8.69508
▁పరుగులు	-8.69641
▁అలా	-8.69784
▁మండలం	-8.69872
డమే	-8.69874
▁బాగా	-8.69881
▁మీరు	-8.69922
▁సరి	-8.69928
▁పోలింగ్	-8.69936
ట్స్	-8.69955
▁2023	-8.69982
▁ప్రేమ	-8.70169
▁ఇంత	-8.70255
▁వ్యాఖ్యలు	-8.70268
▁17	-8.70308
▁కల్పించ	-8.70385
ఫా	-8.70573
▁కార్యాలయ	-8.70735
జన్	-8.70748
▁తల	-8.71046
ామన్నారు	-8.7108
m	-8.71101
▁ఖర్చు	-8.71159
జె	-8.71293
▁సర్వే	-8.71303
▁కావ	-8.71356
▁డైరెక్టర్	-8.71442
ందుకు	-8.71526
తన	-8.71587
చ్చి	-8.71665
▁అధికార	-8.71735
రుగు	-8.71828
▁పాల	-8.71838
▁తెచ్చ	-8.71878
▁13	-8.71926
▁కలిగి	-8.71973
▁ఆలయ	-8.72158
▁ప్రముఖ	-8.7226
▁ముందుకు	-8.72288
వారు	-8.72411
▁నిర్వహించారు	-8.72432
▁సూ	-8.72463
▁గంటలకు	-8.72476
ిస్తారు	-8.72492
▁సంబంధించి	-8.72653
▁పార్	-8.72689
▁ప్రాంతాల	-8.72838
▁జూన్	-8.73329
▁ప్రభావం	-8.7338
▁వైపు	-8.73441
▁అప్పటి	-8.735
▁శి	-8.73501
▁వేస	-8.73656
▁ఫ్ల	-8.73667
▁శుక్రవారం	-8.7374
▁భూ	-8.73761
▁అనేది	-8.73795
ٹ	-8.73811
▁ఎల్	-8.73865
▁చైర్మన్	-8.73957
ఘ	-8.73992
▁క్రికెట్	-8.74109
▁జైలు	-8.74158
ందని	-8.74214
▁పూ	-8.74381
▁పాలన	-8.7448
▁జన	-8.74485
▁వివరించారు	-8.74524
10	-8.74547
▁తు	-8.74574
ತ	-8.74687
▁తెలుస	-8.74852
ించడం	-8.7537
▁సోమవారం	-8.75423
▁కప్	-8.75469
ొచ్చు	-8.75474
▁ప్రాంతంలో	-8.75634
▁దీనిపై	-8.75751
▁జరిగే	-8.75868
▁మరోవైపు	-8.75965
▁16	-8.75992
▁వాటిని	-8.76357
▁అధినేత	-8.76463
హ్	-8.76511
▁50	-8.76722
▁ఉంటుందని	-8.76845
▁దీనికి	-8.76867
▁శ్రీనివాస్	-8.7721
م	-8.7749
▁రైతు	-8.77724
▁ఎన్నికలు	-8.77885
▁బయటకు	-8.77924
କ	-8.77965
▁బంగారం	-8.77966
రావు	-8.7807
▁చోటు	-8.78139
▁ముఖ్య	-8.78146
స్తుంది	-8.78203
రై	-8.78218
▁విద్యా	-8.7831
▁సర్	-8.78396
▁ప్రశ్నించారు	-8.78445
దో	-8.78531
▁రోజుల్లో	-8.78537
పోయారు	-8.78554
▁చేస్తే	-8.78592
ొచ్చ	-8.78816
తే	-8.78876
D	-8.78878
ినా	-8.7888
▁ఆఫీసర్	-8.79107
▁అంశాల	-8.79112
నర్	-8.7913
▁చేసేందుకు	-8.79142
▁అవుత	-8.7945
▁పడి	-8.79452
గ్రా	-8.7946
దర	-8.79471
▁వస్తే	-8.79563
▁అండ్	-8.79793
▁జి	-8.80007
▁ర్	-8.80337
▁బాల	-8.80448
▁నమ్మ	-8.80478
ాబాద్	-8.80506
▁గ్ర	-8.80534
.5	-8.80742
▁م	-8.80751
▁కవిత	-8.80838
g	-8.80885
▁అప్పు	-8.80904
▁పేరుతో	-8.81115
▁పేర్కొంది	-8.81119
▁దర్యాప్తు	-8.81197
ోందని	-8.81275
▁పంట	-8.81314
త్తు	-8.81439
▁డ్ర	-8.81559
ନ	-8.81668
▁పోస్టు	-8.81716
ర్థ	-8.81723
▁రద్దు	-8.818
N	-8.81904
▁ఆదివారం	-8.81904
▁నగర	-8.81929
▁చీఫ్	-8.81943
▁వ్య	-8.81982
▁సాయంత్రం	-8.82062
▁రంగ	-8.82144
▁కె	-8.82228
▁మహ	-8.82256
▁కేసులు	-8.82291
▁శా	-8.82443
▁నేడు	-8.82514
▁సంఖ్య	-8.82549
▁చేయడానికి	-8.82617
▁తేదీన	-8.82718
ధాన	-8.82731
▁అధికారుల	-8.82855
ివే	-8.82965
▁కేటాయించ	-8.83013
▁ఇప్పటి	-8.83072
▁ఎమ్మెల్సీ	-8.83092
▁వ్యవస్థ	-8.83096
త్తి	-8.83142
▁హో	-8.83203
ఎన్	-8.83207
▁సహా	-8.8341
▁నో	-8.83471
‍	-8.83492
ుకుంటున్న	-8.83504
▁మార్చి	-8.83546
▁ఓటు	-8.83688
▁ఫై	-8.83725
▁వీటి	-8.83732
▁మంగళవారం	-8.83812
▁చిత్ర	-8.8396
ుకుంది	-8.83991
▁రైతులు	-8.83994
▁ఫ్ర	-8.8405
▁దేశాల	-8.84118
సన్	-8.84122
▁సంజయ్	-8.84134
చర్	-8.84136
▁శనివారం	-8.84214
▁అయ్యారు	-8.84309
▁అతి	-8.84549
▁ఆరు	-8.8461
బోతున్న	-8.84728
▁అప్	-8.84776
▁ఉన్నా	-8.84882
▁బీసీ	-8.84992
▁పార్టీలో	-8.85119
ేశ	-8.85121
▁వారం	-8.85205
▁చేశారని	-8.85223
▁డబ్బు	-8.85244
▁చెల్లించ	-8.8531
నున్న	-8.8536
▁పంచ	-8.85365
▁భర్త	-8.85607
30	-8.85661
▁పోస్ట్	-8.85711
▁లీ	-8.85766
▁తీసుకో	-8.85857
▁క్ర	-8.85966
▁భాగ	-8.86265
େ	-8.86275
▁పాట	-8.86341
▁22	-8.86452
కారం	-8.86457
▁ఇజ్రాయెల్	-8.86497
▁హి	-8.86671
T	-8.86697
ిస్తే	-8.86714
ీయ	-8.86739
▁రాజ్	-8.86743
n	-8.86791
ేష్	-8.86901
▁పనుల	-8.86952
▁తాగ	-8.87065
చె	-8.8727
▁చేశ	-8.87353
▁కార్యక్రమంలో	-8.87401
మైంది	-8.87446
▁ఆరోపణలు	-8.87499
▁వాతావరణ	-8.87515
▁పెరిగ	-8.87533
స్తున్నారు	-8.87552
ನ	-8.87557
▁రైలు	-8.87588
ఎల్	-8.87665
▁రాష్ట్రాల	-8.8767
మై	-8.87786
ب	-8.87793
నాథ్	-8.87885
▁లాంటి	-8.87947
ేశ్	-8.87997
▁తయారు	-8.88001
▁పదవి	-8.88005
కపోతే	-8.88087
▁అధ్యక్ష	-8.881
▁బాబు	-8.88389
ిత	-8.88427
▁ఒకే	-8.88512
ుకునేందుకు	-8.88583
▁అత్యంత	-8.88665
▁నివేదిక	-8.88749
▁విమర్శించారు	-8.88779
▁సభ్యులు	-8.88922
▁మార్పు	-8.89
మాన్	-8.89072
▁స్థాయి	-8.89082
▁పార్టీకి	-8.89191
ుకోవాలి	-8.89221
▁లేక	-8.89267
▁ఉంట	-8.89387
▁వరకూ	-8.8944
▁చేస	-8.89763
▁కనిపిస్త	-8.89804
▁కర్ణాటక	-8.89814
▁స్థల	-8.89914
▁లెక్క	-8.89941
▁గురువారం	-8.89941
▁వ్యా	-8.89944
▁A	-8.89952
▁సూర్య	-8.90042
ుంటే	-8.9009
k	-8.90108
▁భారీగా	-8.90151
▁అయినా	-8.90185
▁యువ	-8.90299
▁కం	-8.90329
వారి	-8.90442
▁మాట్లాడారు	-8.90449
▁బ్యాంకు	-8.90464
ండా	-8.90537
▁సంవత్సరం	-8.90553
▁పార్లమెంట్	-8.90564
భావ	-8.90564
▁తల్లి	-8.9063
ఓ	-8.90631
▁స్వామి	-8.90645
▁నిరసన	-8.90709
లూ	-8.9079
▁వచ్చా	-8.90805
▁బిల్లు	-8.90893
▁ب	-8.90915
▁అధిక	-8.90929
▁విధంగా	-8.9097
▁అభ్యర్థుల	-8.91003
▁మహిళా	-8.91011
▁అంట	-8.91015
▁టై	-8.9109
ा	-8.9114
▁లె	-8.91165
ఘా	-8.91234
▁సిటీ	-8.91267
ైంది	-8.91277
ధ్	-8.91383
▁సూపర్	-8.91509
▁చికిత్స	-8.91573
▁అరెస్టు	-8.91573
▁రాయ	-8.91724
▁సహ	-8.91785
▁జే	-8.9185
షీ	-8.9198
▁రూపాయల	-8.92063
య్యాయి	-8.9213
ొక్క	-8.92257
▁చెప్పిన	-8.92268
▁సమస్యలు	-8.92322
నింగ్	-8.92331
▁లను	-8.92346
ళా	-8.92402
▁తీసుకుంట	-8.92407
ش	-8.92444
▁చేస్తామని	-8.9252
▁బీబీసీ	-8.92532
▁లేని	-8.92562
▁సౌ	-8.92709
ان	-8.92716
గిరి	-8.92731
▁నిలిచ	-8.92903
ణ్	-8.93027
▁ప్లాన్	-8.93161
▁భా	-8.9317
ెత్త	-8.93183
▁మ్యా	-8.93233
▁సంవత్సరాల	-8.93272
▁రావ	-8.93309
▁చేసుకోవ	-8.93325
▁కావడంతో	-8.93454
ాలన్నారు	-8.93478
▁కాపాడ	-8.9349
▁పర్యటన	-8.935
▁సెంటర్	-8.93503
▁ప్రకటించ	-8.93561
▁భూముల	-8.93653
▁తే	-8.93723
▁చైనా	-8.93738
▁దశ	-8.93764
▁అవి	-8.9386
గొ	-8.939
క్షన్	-8.93915
▁భక్తులు	-8.93926
బు	-8.9401
టిక్	-8.9407
▁పేద	-8.94219
M	-8.94272
▁నరేంద్ర	-8.943
▁అస	-8.94397
▁ఉపయోగించ	-8.94479
▁کے	-8.94567
▁వేడుక	-8.94613
▁ప్రకటించింది	-8.94666
▁బాధ్యత	-8.94723
▁ఎయిర్	-8.94748
▁గెలిచ	-8.94877
ಗ	-8.94884
▁అడిగ	-8.94975
ేంద్ర	-8.95071
స్టు	-8.95096
▁బుధవారం	-8.95105
▁చేసినట్లు	-8.95125
ృత	-8.95277
▁వరంగల్	-8.95285
▁కన్	-8.95552
▁బయట	-8.95673
▁పది	-8.95678
▁షర్మిల	-8.95827
ాలనే	-8.95949
▁స్థాయిలో	-8.9595
▁తమకు	-8.96055
▁బల	-8.96162
▁స్పందించ	-8.96283
ఫి	-8.96378
▁స్టా	-8.96494
ఎ	-8.96555
▁అయి	-8.96556
▁విద్యుత్	-8.96566
▁సభ్యుల	-8.96579
▁పిటిషన్	-8.96645
ఎఫ్	-8.96705
▁ఇవ్వాలని	-8.96749
▁చంద్ర	-8.96871
▁తండ్రి	-8.9692
▁వ్యతిరేక	-8.97048
▁అవుతున్న	-8.9706
▁ఉద్యోగుల	-8.97108
▁థ	-8.97157
లింగ్	-8.97165
▁ఈసారి	-8.97201
ేందర్	-8.97274
సర్	-8.97359
వాద	-8.9736
▁ప్రమాద	-8.97412
▁కారణం	-8.97479
దర్శన	-8.97493
ుకోవాలని	-8.97554
ಡ	-8.97654
▁కళ్యాణ్	-8.97654
▁పూర్	-8.97742
▁ముఖ్యంగా	-8.97757
▁విద్యార్థుల	-8.97764
▁వీర	-8.9782
▁పొత్తు	-8.97885
ందో	-8.97952
▁స్ట	-8.98019
▁మండిపడ్డారు	-8.98024
▁చేశా	-8.98028
▁బెయిల్	-8.98049
▁అంటున్నారు	-8.98108
▁వరల్డ్	-8.98123
▁సంక్షేమ	-8.98209
▁లీడర్	-8.98324
▁సుప్రీంకోర్టు	-8.98394
శాఖ	-8.98409
▁హక్కు	-8.98507
▁యాత్ర	-8.98538
ఖ్	-8.98613
▁జాగ్రత్త	-8.98673
▁అర్	-8.98747
▁రికార్డు	-8.98767
▁జిల్లాల్లో	-8.98799
ବ	-8.9886
▁సిరీస్	-8.98862
▁తీర్పు	-8.98953
▁ఎంపిక	-8.98954
▁లక్ష	-8.99056
▁గుర్తించ	-8.991
▁బొ	-8.99101
▁రోజులు	-8.99102
▁అసలు	-8.99118
▁మందికి	-8.99234
ତ	-8.99328
▁బాధ	-8.99364
ಂ	-8.99492
▁భక్తుల	-8.99534
▁రై	-8.99579
▁విమర్శలు	-8.99601
▁దరఖాస్తు	-8.99609
ఖా	-8.99799
▁షేర్	-8.99896
▁సమావేశం	-8.99906
▁21	-8.99984
▁ఇష్ట	-9.00053
ిస్తా	-9.00074
▁చేయాలి	-9.00173
టరీ	-9.00226
సై	-9.00263
ుకోవడానికి	-9.00279
▁అలాంటి	-9.00321
▁గ్రూప్	-9.00365
▁ప్రయత్నం	-9.00554
▁బడ్జెట్	-9.00554
▁విషయాన్ని	-9.00562
▁రైతుల	-9.00611
▁کی	-9.00687
ar	-9.00752
▁ఉండగా	-9.00764
▁జె	-9.00921
▁ఇబ్బందులు	-9.00974
▁కుటుంబం	-9.01047
▁ఉన్నట్లు	-9.01139
▁విషయాల	-9.01158
్యు	-9.01169
▁అల్	-9.01217
▁సాయం	-9.01308
లేక	-9.01344
▁నాకు	-9.01431
▁ఏప్రిల్	-9.01508
▁పార్టీల	-9.01509
▁స్థానాల	-9.01601
▁పూర్తిగా	-9.01649
▁میں	-9.017
▁నిర్మించ	-9.01734
▁ఖమ్మం	-9.01799
▁పోలీసుల	-9.01918
▁నష్ట	-9.01943
▁అర	-9.0203
v	-9.02084
▁ఇంటికి	-9.02196
స్థాన	-9.02223
డె	-9.02235
▁అభిప్రాయ	-9.02277
దీప్	-9.02459
▁డా	-9.02517
▁హె	-9.02732
ారన్నారు	-9.02946
యే	-9.02989
పురం	-9.03065
ಬ	-9.03248
▁పూజ	-9.03366
▁డబ్బులు	-9.03375
▁ఎకరాల	-9.03526
▁ధరలు	-9.03548
▁ఆలోచన	-9.03738
▁ఒకటి	-9.03763
▁సైతం	-9.03787
▁నెలల	-9.03875
▁వచ్చాయి	-9.03892
▁చూపించ	-9.03905
▁చేసారు	-9.03957
▁మూడో	-9.03979
▁నిర్మాణ	-9.04076
▁తీసుకెళ్ల	-9.04129
▁క్రి	-9.04136
▁వార్త	-9.04176
▁ఈరోజు	-9.04311
స్తూ	-9.04334
▁తిన	-9.04442
▁అధికారి	-9.04485
▁రాజీనామా	-9.04524
మంది	-9.04686
▁ج	-9.04704
▁చిత్రం	-9.04779
15	-9.04803
లెట్	-9.04844
▁జరిప	-9.04966
గొట్ట	-9.05003
▁2019	-9.05155
▁కాల్	-9.05175
త్య	-9.05205
ుతాయి	-9.05222
▁తప్పు	-9.05391
ారనే	-9.05408
▁చరిత్ర	-9.05417
పాటు	-9.05466
▁ఇవాళ	-9.05519
G	-9.05616
▁ఉమ్మడి	-9.05617
ాడ	-9.0566
కంగా	-9.05725
▁చూస్త	-9.05786
70	-9.05824
▁కార్మికుల	-9.05904
▁ఆసక్తి	-9.05908
▁దీన్ని	-9.05916
▁క్ష	-9.05922
▁స్థానంలో	-9.05927
ిస్తుంది	-9.05969
ୁ	-9.06016
▁తొ	-9.06065
▁ముంబై	-9.06117
▁మల్ల	-9.06128
యిల్	-9.06243
లైన	-9.06281
▁జాబితా	-9.06318
పోయి	-9.06358
▁ನ	-9.06388
▁చేసుకున్నారు	-9.06398
▁ట్వీట్	-9.06519
▁ఘన	-9.06531
▁పలువురు	-9.0662
▁ఐటీ	-9.06655
▁బే	-9.0679
▁కల్యాణ్	-9.06859
పోతున్న	-9.06952
▁కాలేజీ	-9.07024
▁పథకాల	-9.07024
▁కాబట్టి	-9.07125
వార్	-9.07185
▁కార్యదర్శి	-9.07226
▁సమీపంలో	-9.07269
▁ఆన్	-9.074
ుతారు	-9.07474
▁వర్షం	-9.07579
ళి	-9.07607
▁సాధ	-9.07607
▁శక్తి	-9.07737
▁రామ్	-9.07745
▁40	-9.07789
స్వామి	-9.07808
▁అవినీతి	-9.07837
▁సమావేశ	-9.0785
▁విజయవాడ	-9.07858
▁గణ	-9.07859
▁పరుగుల	-9.07924
▁సమావేశంలో	-9.07936
▁తీర	-9.0804
▁కొండ	-9.08207
▁ఉచిత	-9.08249
▁పెరుగుత	-9.0825
▁తీసుకొచ్చ	-9.08349
▁దక్షిణ	-9.08452
▁చదువ	-9.0847
▁టా	-9.08488
పడ్డ	-9.08535
స్టర్	-9.08824
▁س	-9.08914
▁ప్లే	-9.0892
మార్	-9.08956
▁ఇబ్బంది	-9.08967
▁సబ్	-9.08992
▁ప్రొ	-9.08997
▁స్కూల్	-9.09073
▁వెనుక	-9.09322
▁పోలీసు	-9.09452
▁ఆసుపత్రి	-9.09484
▁ఉద్యమ	-9.09484
▁జనవరి	-9.09486
టె	-9.0953
▁తీసుకున్నారు	-9.09612
▁ఇళ్ల	-9.09656
నగర్	-9.09855
త్వం	-9.09997
▁సీపీ	-9.10006
▁భావించ	-9.10012
▁విన	-9.10194
▁నేర	-9.10213
▁కాలం	-9.10278
▁ఇచ్చింది	-9.10365
w	-9.10423
▁తెలిప	-9.10533
▁పాకిస్తాన్	-9.10632
▁నిర్ణయ	-9.10655
▁నీరు	-9.107
ಯ	-9.10723
▁పోలీసులకు	-9.10794
▁బీఆర్	-9.10837
▁చంప	-9.11027
▁నమోద	-9.11153
▁కార్డు	-9.11175
▁వాహన	-9.11211
▁చెబుత	-9.11545
థి	-9.11591
▁పెట్టి	-9.11627
..?	-9.11687
▁వ్యవసాయ	-9.11688
పరి	-9.11743
▁అధికారిక	-9.11884
al	-9.11902
▁బండి	-9.12127
ారో	-9.12133
▁చేస్తారు	-9.12138
▁ఆయనకు	-9.12161
▁వ్యాప్తంగా	-9.12259
▁ఎన్టీఆర్	-9.12327
▁ఎన్నో	-9.12587
▁సీట్లు	-9.12589
▁అక్టోబర్	-9.1266
నీయ	-9.12705
ేనని	-9.12768
▁రూపాయలు	-9.12794
▁డిసెంబర్	-9.12863
ుంటారు	-9.12879
సింగ్	-9.13001
ిపోత	-9.13078
త్వ	-9.13137
సార్లు	-9.13159
نے	-9.13333
▁చీ	-9.13354
పాల	-9.13449
మయ్య	-9.13474
▁క్యాప్షన్	-9.13508
▁సంచలన	-9.13508
▁చెక్	-9.13532
▁సభలో	-9.13547
▁అవకాశాలు	-9.13612
▁వాళ్లు	-9.13627
▁ఆగ్రహం	-9.1363
▁శ్ర	-9.13712
▁ప్రేక్షకుల	-9.13724
▁అందుబాటులో	-9.13753
▁ఓటర్ల	-9.13797
▁కెప్టెన్	-9.13833
▁కమిషన్	-9.13942
రాజు	-9.13986
▁వస్తుంది	-9.1399
▁షో	-9.14095
హార	-9.14254
▁యాదవ్	-9.14268
▁వివాహ	-9.14409
▁కాలంలో	-9.14463
▁సెప్టెంబర్	-9.14492
▁28	-9.14497
▁కాదని	-9.14692
▁సీబీఐ	-9.14704
▁నిర్వహించిన	-9.14706
▁ఖాతా	-9.14707
ಲ್	-9.14736
▁సహాయ	-9.14745
ాత్మక	-9.14822
▁విధించ	-9.14846
▁చట్ట	-9.14861
▁తీవ్రంగా	-9.14903
80	-9.15012
▁100	-9.15123
▁తెలిసింది	-9.15162
▁వెంకట	-9.15182
▁లేఖ	-9.15182
▁మనం	-9.15243
▁ఆధ్వర్యంలో	-9.15252
▁ఉద్యోగ	-9.15338
▁కారణాల	-9.15506
థ్	-9.15511
▁దో	-9.15555
▁మహిళల	-9.15558
▁ప్రయాణ	-9.15562
▁రకాల	-9.15732
యాన్ని	-9.15965
▁పర్	-9.15973
▁ముగ్గురు	-9.16024
▁గవర్నర్	-9.16025
▁పాఠశాల	-9.16025
▁అనుమాన	-9.16026
▁అమిత్	-9.16029
▁ఎవరు	-9.16057
▁ఆగస్టు	-9.16137
▁సీట్ల	-9.16149
▁తగ్గించ	-9.16204
బుల్	-9.16274
▁ప్రీ	-9.16308
▁సంఘటన	-9.16474
▁ఆత్మహత్య	-9.1658
▁కొద్ది	-9.16582
▁ఎదురు	-9.1667
ع	-9.16803
▁బ్యాంక్	-9.16811
▁ప్రతిపక్ష	-9.16851
▁తీరు	-9.169
▁ఆస్ట్రేలియా	-9.16915
▁లభించ	-9.16953
▁పాల్గొన	-9.17025
▁కారణమ	-9.17031
ైతే	-9.17049
▁చేస్తున్నారని	-9.17055
▁డే	-9.17102
B	-9.17142
▁గంట	-9.17241
ମ	-9.17475
▁ఈడీ	-9.17505
▁ఫైనల్	-9.17512
▁ప్రెస్	-9.17591
▁మరణించ	-9.17604
▁ఉత్తర	-9.17616
▁ఉండాలని	-9.17745
డుగు	-9.1776
▁మరణ	-9.17831
▁బోర్డు	-9.1787
ెస్ట్	-9.17919
▁నియోజకవర్గంలో	-9.18021
▁గుర్తించారు	-9.18023
ಪ	-9.18039
ార్థ	-9.18107
▁తిరుపతి	-9.18152
▁మద్యం	-9.18268
▁ప్రభుత్వానికి	-9.18294
చా	-9.18316
▁తొలగించ	-9.18386
శీ	-9.18391
ించాలని	-9.18417
▁پ	-9.18423
▁దూరం	-9.18455
▁ت	-9.18457
L	-9.18606
in	-9.18719
▁మధ్యాహ్నం	-9.1872
డంలో	-9.1874
వేల	-9.18753
▁వివరాలు	-9.18766
▁దాఖలు	-9.18835
▁నిన్న	-9.1886
▁సీజన్	-9.18916
ೇ	-9.18948
▁అంశం	-9.18949
▁అనుమతి	-9.19012
▁అత్యధిక	-9.19062
▁చేరుకున్న	-9.19134
▁బాధితుల	-9.19166
▁రైతులకు	-9.192
▁నిందితుల	-9.19203
▁మహిళలు	-9.19211
ుకుంటారు	-9.19243
▁ఏడు	-9.19244
▁తీసుకోవాలని	-9.19436
▁ప్రారంభం	-9.19539
▁చేస్తోంది	-9.19618
▁దెబ్బ	-9.19634
▁పూర్త	-9.19686
▁పరిధిలో	-9.19701
వరం	-9.19726
▁ప్రక్రియ	-9.1975
▁చూసి	-9.19807
▁ఉన్నాయని	-9.19844
▁అందరి	-9.19914
▁అంతర్జాతీయ	-9.1998
▁ఉద్దేశ	-9.19981
▁హెచ్	-9.19992
▁ఖాన్	-9.19993
▁సంఘం	-9.20006
▁ఇండియన్	-9.20095
▁ఇండ్ల	-9.20181
▁జరుప	-9.20246
ాపూర్	-9.20291
▁అభి	-9.20416
▁ప్రయాణికుల	-9.20447
▁ఇచ్చే	-9.20533
▁న్యాయ	-9.20676
▁రాష్ట్రాల్లో	-9.2068
▁సుమారు	-9.20681
▁సాగు	-9.20691
▁తనను	-9.20695
ల్డ్	-9.20719
▁ఎండ	-9.20821
▁ఉంద	-9.2086
▁వెల్లడించింది	-9.20897
▁నవంబర్	-9.20906
▁పార్టీలు	-9.20932
▁సినిమాలో	-9.20934
▁రోహిత్	-9.21023
ుకుంటే	-9.21066
25	-9.21117
▁బహిరంగ	-9.21139
▁అందరూ	-9.21142
▁పక్క	-9.21154
▁రక్త	-9.21167
▁ఇరు	-9.21315
▁నెట్	-9.2132
▁మహారాష్ట్ర	-9.21379
▁23	-9.21413
▁భారతీయ	-9.2142
కొండ	-9.21484
▁ఓడి	-9.21516
▁భద్రత	-9.21624
▁వెళ్త	-9.21669
▁చెన్నై	-9.21725
లేని	-9.2185
ేవారు	-9.21855
▁నిద్ర	-9.2198
▁వికెట్	-9.21992
▁వర్గాల	-9.22017
▁27	-9.2208
నాయ	-9.22171
▁కొడుకు	-9.22318
▁తెర	-9.22395
▁ಮ	-9.22413
▁దేశం	-9.22476
కపోవడంతో	-9.22512
▁పడుతున్న	-9.22541
▁ఆస్పత్రి	-9.22549
▁నిర్మాణం	-9.22613
▁చేస్తుంది	-9.22654
▁హాజరు	-9.22668
▁ఇచ్చి	-9.22726
▁అతను	-9.22727
b	-9.22785
సింహ	-9.228
▁ఓవర్	-9.22801
E	-9.22904
▁వెబ్	-9.22954
▁ఢిల్లీలో	-9.23087
▁న్యూస్	-9.232
K	-9.2338
▁తేల్చ	-9.23436
▁రావడం	-9.23503
▁అందుకు	-9.23553
▁గ్రామంలో	-9.23607
▁ఆధారంగా	-9.23619
య్యారు	-9.23805
▁ఆట	-9.23863
మ్స్	-9.2389
ار	-9.23943
▁పెరిగి	-9.24004
▁ఫోటో	-9.24098
▁పండ	-9.24099
▁26	-9.24112
▁గుడ్	-9.24286
దేశ	-9.24322
▁భేటీ	-9.24341
▁ప్రచార	-9.24414
పతి	-9.24431
▁వాదన	-9.24486
▁శర్మ	-9.245
▁ఆదేశించారు	-9.2467
▁వెల్	-9.2469
హెచ్	-9.24697
▁ప్రయత్నించ	-9.247
▁పట్టు	-9.2485
▁వేసి	-9.24977
ః	-9.25064
▁పాల్పడ	-9.25066
గూడ	-9.25106
▁సమస్యల	-9.25159
▁ఫె	-9.2516
▁ప్రస్తుత	-9.25219
ేసింది	-9.25221
▁గె	-9.25307
▁జరుగుత	-9.25325
r	-9.25473
V	-9.2555
▁ప్యా	-9.25919
▁వేదికగా	-9.25928
లిగ	-9.25969
▁పంపిణీ	-9.26039
▁పథకం	-9.26161
▁లోకేష్	-9.26166
ಮ	-9.26179
ప్పటి	-9.26194
ండే	-9.26344
▁గుర్తింపు	-9.26407
▁ఒత్తిడి	-9.26407
▁గౌరవ	-9.26407
12	-9.2654
▁నేషనల్	-9.2666
▁నాయకుల	-9.26726
▁కిలో	-9.26738
▁చట్టం	-9.26766
▁ప్రమాణ	-9.26782
▁పేపర్	-9.26847
ధుల	-9.26941
▁ఏర్పాట్లు	-9.26944
▁జిల్లాలోని	-9.2696
▁మారి	-9.27113
▁సిద్ద	-9.27202
▁పట్ల	-9.27265
▁అవార్డు	-9.27271
▁విశాఖ	-9.27346
▁చర్చించ	-9.27449
▁ట్రాఫిక్	-9.27519
▁పరిశ్రమ	-9.27519
▁ఖాళీ	-9.27644
▁రష్యా	-9.27645
▁S	-9.27672
▁షాక్	-9.27747
▁సెల్	-9.27776
▁సరైన	-9.27901
▁క్రితం	-9.27927
ుకుంటున్నారు	-9.27978
▁విద్యార్థులు	-9.28119
▁ధర్మ	-9.28124
▁కృషి	-9.28143
▁ఫ్యాన్స్	-9.28168
▁ఆర్టీసీ	-9.28182
▁సామాజిక	-9.28392
▁ప్రతీ	-9.28414
▁చెప్త	-9.28524
▁తరలి	-9.286
స్తే	-9.28631
▁ఇస్తున్న	-9.28708
▁ఆదాయం	-9.28818
▁చేస్తా	-9.28841
▁ఎన్నిక	-9.2889
▁సర్కార్	-9.2915
▁విజయ్	-9.29155
వాడ	-9.29156
ిస్తోంది	-9.29181
▁దాట	-9.29392
▁సినీ	-9.29478
స్తోంది	-9.29549
▁రాజు	-9.29556
ండు	-9.29675
▁ఫలితాల	-9.29768
▁సంగతి	-9.29785
▁P	-9.29826
▁అయింది	-9.2997
▁ముందుగా	-9.30036
నున్నట్లు	-9.30037
▁ఫుడ్	-9.30042
▁కూడిన	-9.30168
▁కేంద్రంలో	-9.30229
ఢ	-9.30291
▁వాయిదా	-9.30294
▁మంత్రులు	-9.3037
వారికి	-9.30437
▁పాత	-9.30474
▁ఐపీఎల్	-9.30548
▁ఛ	-9.30592
▁మార్పులు	-9.30638
▁తీసుకు	-9.30652
▁చనిపో	-9.30677
▁ఉండాలి	-9.30783
▁బై	-9.30802
▁కమిషనర్	-9.30805
▁పండుగ	-9.30915
▁శరీర	-9.30943
ేశ్వర	-9.30961
▁టీమ్	-9.30984
45	-9.31009
90	-9.31045
क	-9.31062
▁చెప్పింది	-9.31112
▁చేసుకుంట	-9.3112
య్యే	-9.31135
▁గురి	-9.31142
▁వాహనాల	-9.3115
▁అభ్య	-9.31187
▁పెట్టారు	-9.31231
▁చేప	-9.31255
▁C	-9.31308
▁కిలోమీటర్ల	-9.3132
▁వయసు	-9.31321
र	-9.31449
▁కరీంనగర్	-9.31449
▁ప్రారంభించారు	-9.31451
▁రెండ	-9.31571
▁శుభ	-9.3159
▁ఎవరూ	-9.31603
▁వచ్చారు	-9.31671
▁సమర్పించ	-9.31708
▁2022	-9.31708
▁కౌ	-9.31719
▁కనీసం	-9.31773
▁విశ్వ	-9.3187
▁సంతోష	-9.31911
▁అయ్యింది	-9.31966
▁నియోజకవర్గం	-9.31994
▁నారాయణ	-9.3231
▁రంగంలో	-9.3236
▁చెబుతున్న	-9.32446
▁రవి	-9.32496
19	-9.32501
▁వెళ్లిన	-9.32551
▁రాష్ట్రం	-9.32553
ీకరణ	-9.32625
ف	-9.3275
▁యూనివర్సిటీ	-9.3275
▁గురు	-9.32836
▁ఓటమి	-9.32883
డింగ్	-9.32929
▁సముద్ర	-9.33012
▁అవుతుంది	-9.3305
ుతుంద	-9.33083
O	-9.33144
▁అర్థం	-9.33149
▁కావడం	-9.33192
▁ఒక్కో	-9.33237
▁ఎమ్మెల్యేలు	-9.33245
▁పక్కన	-9.33247
▁నుంచే	-9.33285
▁వ్యతిరేకంగా	-9.33485
▁సీటు	-9.33536
▁సృష్టించ	-9.33671
త్రి	-9.33787
▁వర్గ	-9.33802
▁మున్సిపల్	-9.33803
▁తమిళనాడు	-9.33804
17	-9.33895
▁చేయించ	-9.33985
▁యువత	-9.33993
▁సమాజ	-9.3402
▁సారి	-9.34031
▁రాజధాని	-9.34206
▁వేశారు	-9.3432
▁రూపొందించ	-9.34433
▁రేపు	-9.34488
▁కామెంట్స్	-9.34542
దేవి	-9.34664
ంగి	-9.3467
ళ్	-9.3471
▁కోహ్లీ	-9.34734
▁దొంగ	-9.34736
▁నిమిషాల	-9.34868
▁వ్యూహ	-9.34876
▁రుణ	-9.34925
▁చాలామంది	-9.34978
▁సాయి	-9.35001
▁విద్యార్థి	-9.35002
▁ఇవి	-9.3502
▁కలిపి	-9.35043
▁తరలించారు	-9.35221
బె	-9.35262
▁ఆహార	-9.35353
▁పిల్లలు	-9.35417
▁హ్యా	-9.35554
▁మొక్క	-9.35617
▁నష్టం	-9.35664
ుడిని	-9.35806
▁ఫిబ్రవరి	-9.35809
▁హీరోయిన్	-9.3581
16	-9.35895
ాలంటూ	-9.35934
▁పరిమిత	-9.35967
▁గౌడ్	-9.36082
▁రైళ్ల	-9.36183
▁నీళ్లు	-9.36239
▁ఎదుర	-9.3642
▁అంతా	-9.36663
▁సంబంధ	-9.3671
▁శాంతి	-9.36759
కృష్ణ	-9.36901
▁T	-9.36976
ెయిన్	-9.36988
▁నంబర్	-9.3704
▁ఓట్ల	-9.3712
▁మొదట	-9.37138
▁ఉంటున్న	-9.37202
▁ప్రయోగ	-9.37237
ున్నారని	-9.37243
పోయే	-9.37369
▁తరలించ	-9.37434
▁అనుభవ	-9.37443
▁వేళ	-9.37499
▁తనిఖీ	-9.3758
,000	-9.37585
▁కార్యకర్తలు	-9.37619
▁నాయుడు	-9.37858
▁శిక్ష	-9.37907
▁తమిళ	-9.37908
▁చెయ్య	-9.37964
ేండ్ల	-9.38095
▁ప్రయత్నాలు	-9.38147
▁బ్యాటింగ్	-9.38206
▁ఆత్మ	-9.3828
▁నిధులు	-9.38345
మంత	-9.38348
▁రంగు	-9.3848
▁త్రి	-9.38495
టానికి	-9.38529
లక్ష్మి	-9.38551
▁ప్రజలను	-9.38553
▁ఓట్లు	-9.3863
ଲ	-9.38686
▁చేతుల	-9.38752
▁చూస్తున్న	-9.38763
▁నియమించ	-9.38825
▁వస్తువు	-9.38826
▁తేడా	-9.38906
▁డిప్యూటీ	-9.38964
▁వెళ్లే	-9.39035
లేకపోయ	-9.39047
▁ఆరోగ్యం	-9.39168
▁తీసుకుని	-9.39177
▁కిషన్	-9.39179
▁ముందే	-9.39312
▁నిర్వహిస్త	-9.39324
ిరెడ్డి	-9.39395
వచ్చని	-9.39398
▁చేపట్టారు	-9.39447
▁ఆదేశాలు	-9.39456
▁షెడ్యూల్	-9.39523
▁పడ్డ	-9.39562
▁డై	-9.39626
H	-9.39663
సూ	-9.39698
పోయాయి	-9.39719
▁విష	-9.39782
▁నిపుణులు	-9.39843
▁చోట్ల	-9.3985
ియల్	-9.39884
టంతో	-9.39905
యింది	-9.39913
▁త్వరలో	-9.39996
ారావు	-9.40003
ుకుంటూ	-9.40022
▁ట్రై	-9.40061
▁బ్లాక్	-9.40087
▁దాడులు	-9.40148
కపోవడం	-9.40166
▁స్వాధీనం	-9.40226
▁ఫస్ట్	-9.40341
శ్వాస	-9.40363
▁31	-9.40484
▁నిర్వహణ	-9.40509
▁చేసుకుంది	-9.40533
▁శ్రీవారి	-9.40599
▁లక్షలు	-9.4065
ری	-9.40714
కెట్	-9.40718
స్థాయి	-9.40721
▁అమరావతి	-9.40793
▁ప్రైవేట్	-9.40793
▁పాయింట్	-9.40794
▁డిగ్రీ	-9.40935
▁బంధ	-9.40954
▁ఉంటారు	-9.40978
▁రిజర్వేషన్	-9.41077
ురాలు	-9.41187
▁జరిగి	-9.41229
▁చేపట్టిన	-9.41303
▁మేం	-9.41346
▁చెరువు	-9.41363
▁సాధారణ	-9.41433
ପ	-9.41505
▁చేర్చ	-9.41528
▁ముఖ	-9.41535
▁అభ్యర్థులు	-9.41587
▁గుజరాత్	-9.41648
▁తగ్గి	-9.41708
▁29	-9.41724
▁టార్గెట్	-9.41791
▁హాస్పిటల్	-9.41791
లేరు	-9.41805
న్నె	-9.41875
▁టీమిండియా	-9.41935
▁పశ్చిమ	-9.41935
పత్ర	-9.41987
▁త్వరలోనే	-9.42026
పక్ష	-9.42072
▁నామినేషన్	-9.42078
▁స్పెషల్	-9.42078
40	-9.42099
ెళ్ల	-9.42181
▁చిక్క	-9.42231
▁ఒకరు	-9.42347
▁ఎన్ని	-9.4237
▁ప్రసంగ	-9.42393
▁టెస్టు	-9.42396
▁నటి	-9.42481
యిన	-9.42653
▁కొత్తగా	-9.42664
▁పున	-9.42702
▁విలువ	-9.42736
▁యాప్	-9.42739
▁పరిష్కార	-9.42802
▁హోం	-9.42828
▁న్యూఢిల్లీ	-9.42945
▁అదుపులోకి	-9.42965
▁అంతే	-9.43001
▁అభిమానులు	-9.43028
▁వ్యాఖ్యల	-9.43039
▁వెళ	-9.43145
స్తాయి	-9.43163
గడ్డ	-9.43333
▁ఇప్పటివరకు	-9.43397
▁ఎందుకంటే	-9.43541
▁బాధ్యతలు	-9.43566
▁అల్లు	-9.43616
▁ప్ల	-9.43639
▁సంఖ్యలో	-9.43649
చీ	-9.43658
ుండటంతో	-9.43672
ోత్సవ	-9.43673
▁ఆయా	-9.43693
▁తగిన	-9.43728
▁2014	-9.43849
▁సార్లు	-9.44073
ق	-9.44112
▁ప్రపంచంలో	-9.44265
వల్ల	-9.44286
▁ఎవర	-9.44361
▁జన్మ	-9.44397
▁దారుణ	-9.44425
▁ఘ	-9.44504
ాలన్న	-9.44524
..!	-9.44565
▁నోటీసులు	-9.44606
▁కాస్త	-9.44609
▁విమర్శ	-9.44662
ହ	-9.447
▁మరొక	-9.44911
▁దారి	-9.45113
▁ఏదైనా	-9.45145
▁నిర్వహిస్తున్న	-9.45207
▁اس	-9.45295
▁సెలవు	-9.45298
F	-9.45441
▁పనిచేస్తున్న	-9.45465
▁పుట్ట	-9.45515
▁ఎన్నికలకు	-9.45757
▁అమ్మాయి	-9.45884
ద్దు	-9.45928
▁భాష	-9.45941
గీ	-9.45946
▁లక్ష్మీ	-9.45972
▁పరిశీలించ	-9.45975
▁అనుకున్న	-9.46002
▁నియోజకవర్గ	-9.46086
▁స్ట్ర	-9.46139
ra	-9.46149
▁డ్రైవర్	-9.46188
త్రా	-9.46218
▁గాలి	-9.46293
▁మెడికల్	-9.46338
యె	-9.46367
దేశం	-9.46509
▁ఆహారం	-9.46512
▁టీచర్	-9.46562
▁ఇవ్వడం	-9.46575
▁వర	-9.46587
▁అప్పగించ	-9.46638
▁తదితరులు	-9.467
▁స్పందించారు	-9.46785
ోన్న	-9.46825
ుకున్నాడు	-9.46833
▁కుమార	-9.46883
బాబు	-9.4706
▁మృతదేహ	-9.4709
▁విధానం	-9.47103
▁ఛా	-9.47206
▁కేజ్రీవాల్	-9.47242
▁పవర్	-9.47259
▁దాన్ని	-9.47271
▁నగరంలో	-9.47372
▁చిరంజీవి	-9.47393
▁బౌలర్	-9.47393
▁ఆఫీసు	-9.47394
▁తెలుగుదేశం	-9.47418
▁నేరుగా	-9.47436
th	-9.4744
▁దానికి	-9.47443
▁ఉన్నారని	-9.47502
జ్జ	-9.47517
▁సేకరించ	-9.47545
ినట్టు	-9.47571
▁నల్ల	-9.47641
▁రానున్న	-9.4777
▁రాజ్యాంగ	-9.4785
▁పెరిగింది	-9.47923
దారుల	-9.47933
▁రావడంతో	-9.48036
▁60	-9.48129
▁చూసిన	-9.48208
▁నిధుల	-9.48238
నున్నాయి	-9.48328
▁దేశవ్యాప్తంగా	-9.48329
రంగ	-9.48355
ಟ	-9.48357
▁మత	-9.48471
▁దాంతో	-9.48479
▁సంబంధం	-9.48502
▁ఆరోపణల	-9.48602
▁వ్యవహరించ	-9.48614
▁హిందూ	-9.48614
▁న్యూ	-9.48707
▁పౌర	-9.48738
▁చెల్ల	-9.48808
▁నర్స	-9.48877
11	-9.48897
▁రక్షణ	-9.48922
▁ఫలితం	-9.48922
▁గొప్ప	-9.48923
▁సూచన	-9.48923
▁టాప్	-9.48963
డెన్	-9.49077
▁దూరంగా	-9.4919
▁నటించ	-9.49226
▁వెంట	-9.49246
▁ఫలితాలు	-9.49248
్యాల	-9.49326
▁వర్క్	-9.49327
▁నాటికి	-9.49443
▁ప్రయోజనాల	-9.49539
▁క్యూ	-9.49583
▁టెస్ట్	-9.4969
▁తాజా	-9.49758
బెట్ట	-9.49802
▁పరిగణ	-9.49851
▁کو	-9.49858
▁లక్ష్యంగా	-9.49862
▁నడుస్త	-9.49864
▁మిగిలిన	-9.50139
▁వ్యవహారం	-9.50161
▁మంజూరు	-9.50161
▁సెంచరీ	-9.50161
▁బరువు	-9.50169
▁పోరాడ	-9.5023
24	-9.50273
▁ఉండి	-9.50277
▁సమావేశాల	-9.50278
▁సూచించ	-9.50292
े	-9.50316
▁నెలలో	-9.50378
▁గొడవ	-9.50473
▁జనరల్	-9.50478
▁మధు	-9.50498
ನ್ನು	-9.50521
▁బదిలీ	-9.50631
▁పట్టణ	-9.50658
▁అనారోగ్య	-9.50786
▁కెమెరా	-9.50786
హీ	-9.50797
!!	-9.50842
۔	-9.50938
ೀ	-9.50943
▁ఎక్క	-9.5097
▁వాతావరణం	-9.51057
మోహన్	-9.51064
▁కఠిన	-9.51101
▁ప్రి	-9.51151
టెడ్	-9.51227
ుడిగా	-9.5129
▁పిల్ల	-9.51292
▁ద్ర	-9.51314
▁అవగాహన	-9.51415
▁మిగతా	-9.51417
▁బీజేపీకి	-9.51431
ినప్పుడు	-9.51452
▁మోహన్	-9.51455
▁ಸ	-9.51464
▁సౌకర్య	-9.51577
ಕ್	-9.51607
ರ್	-9.51671
▁వేసిన	-9.51672
▁ముస్లిం	-9.51732
▁జరుగుతోంది	-9.51767
▁ఆటో	-9.51841
▁వికెట్లు	-9.51863
▁గాయాల	-9.51869
▁స్టూడెంట్	-9.5189
▁కేరళ	-9.51891
▁ఉండటంతో	-9.51892
▁వేస్త	-9.51927
▁టూ	-9.52041
▁0	-9.52108
▁వెళ్లారు	-9.52157
▁ప్రాజెక్ట్	-9.52208
▁అర్జున్	-9.52208
సో	-9.52351
▁అధికారులకు	-9.52449
▁కార్యక్రమాల	-9.52542
▁మందు	-9.52549
on	-9.52583
▁అప్పుడు	-9.52682
▁కనిపిస్తోంది	-9.52738
▁మానవ	-9.52774
▁జయ	-9.52877
▁పారి	-9.52954
▁ప్రాధాన్యత	-9.53007
▁గుండె	-9.53008
▁ప్రెసిడెంట్	-9.53328
▁తెరకెక్క	-9.53345
▁అధికారం	-9.53444
చేసి	-9.53482
▁B	-9.53485
▁దొర	-9.53487
▁మొదలుపెట్ట	-9.53669
▁ఇంటర్	-9.53738
▁మోసం	-9.53741
ేసిన	-9.53754
▁సిద్ధం	-9.53779
▁ప్రాణ	-9.53791
ఫర్	-9.5381
▁వన్డే	-9.53813
▁కార్యక్రమం	-9.53827
చోట	-9.53836
▁కొంతమంది	-9.53841
▁అటు	-9.53888
ందే	-9.53923
▁యుద్ధం	-9.53942
▁వర్షాల	-9.53942
▁స్టేట్	-9.53955
▁గోదావరి	-9.53973
▁జులై	-9.53977
▁సైట్	-9.54025
▁జరుగుతుంది	-9.54091
▁కౌంటర్	-9.54137
వరకు	-9.54263
▁న్యాయం	-9.5429
ారంటూ	-9.54303
▁చేయాల్సి	-9.54359
▁సెక్షన్	-9.54385
▁తేల	-9.54469
▁ఒప్ప	-9.54486
▁ఉంటుంద	-9.54537
▁డేటా	-9.54544
▁పెట్టిన	-9.54653
▁సంఘాల	-9.54676
▁అధికారులను	-9.54761
▁అధ్యయన	-9.54787
▁ఫర్	-9.54852
er	-9.54897
▁ఉండటం	-9.54915
▁చేసుకో	-9.54936
▁వేగంగా	-9.54957
▁డబుల్	-9.54981
▁తీసుకోవడం	-9.55022
▁తొలిసారి	-9.55033
▁మేము	-9.55066
▁టీటీడీ	-9.55114
▁ప్రకటించిన	-9.55135
▁జనం	-9.55174
▁పరిస్థితులు	-9.55224
▁ఒక్కసారి	-9.55231
▁సరఫరా	-9.55278
▁ర్యా	-9.55314
▁ఉద్యోగం	-9.55372
▁లాభ	-9.55383
దేశాల	-9.55396
▁మీటింగ్	-9.55433
▁హిట్	-9.55452
▁చేయనున్నారు	-9.55537
▁మార్గం	-9.5558
▁లక్ష్య	-9.55631
ಾಗ	-9.55632
▁నారా	-9.55685
▁గెలుపు	-9.55772
▁హోదా	-9.56084
▁ప్రభుత్వాన్ని	-9.56192
▁వేసింది	-9.56218
స్తున్నాయి	-9.56257
▁ఎత్త	-9.56264
چ	-9.56267
▁విద్య	-9.56338
లాండ్	-9.56341
▁బుక్	-9.56355
▁పనిచేస్త	-9.56451
▁టెక్	-9.56549
చంద్ర	-9.56592
▁టైం	-9.56597
రింగ్	-9.56599
▁ఏకంగా	-9.56689
▁ఎప్పుడూ	-9.56859
▁భావిస్త	-9.56872
▁పాప	-9.56992
▁ప్రత్యేకంగా	-9.57059
▁వివేక్	-9.57103
మంత్రి	-9.57104
▁పంపించ	-9.5719
▁స్థానికులు	-9.57312
ానిక	-9.57313
▁ప్రియ	-9.5732
▁వెళ్తున్న	-9.57351
▁پر	-9.57382
▁నిజామాబాద్	-9.57434
▁హౌస్	-9.57437
▁ఎత్తున	-9.57513
▁దీప	-9.57555
▁బిజెపి	-9.57601
▁తయారీ	-9.57603
రూప	-9.5776
ష్ఠ	-9.57768
▁అవసరమైన	-9.57818
▁కుక్క	-9.57933
▁హెచ్చరించారు	-9.57964
▁చేస్తున్నట్లు	-9.58086
▁విశేష	-9.58107
▁మీటర్ల	-9.58256
▁పట్టించుకో	-9.58281
▁పలిక	-9.58336
▁బ్ల	-9.58355
▁జీవితంలో	-9.58386
▁కావాల	-9.58409
▁کا	-9.58479
ڈ	-9.58614
▁హరీశ్	-9.58614
▁కొనసాగుతున్న	-9.58622
▁మెగా	-9.58632
▁క్లా	-9.5865
▁పరిధిలోని	-9.58689
▁వ్యాఖ్యానించారు	-9.58784
▁దర్శకుడు	-9.58807
▁చేసుకుని	-9.58847
▁వీటిని	-9.58925
▁నియమ	-9.58945
▁ఉష్ణోగ్రత	-9.58954
▁స్పీకర్	-9.58954
▁వస్తుందని	-9.58974
కూడదు	-9.58989
▁అవకాశమ	-9.59124
▁సమీక్ష	-9.59125
▁ఆస్తుల	-9.59135
▁కావాలని	-9.59152
▁నిబంధనల	-9.59182
వైపు	-9.59208
▁భయం	-9.59214
▁సికింద్రాబాద్	-9.59295
▁అయోధ్య	-9.59295
▁గిరిజన	-9.59296
▁ఎస్సీ	-9.59329
▁M	-9.59347
▁కుట్ర	-9.59373
▁రోజులుగా	-9.59455
▁లిక్కర్	-9.59467
ిస్తామని	-9.59499
▁ఫోర్	-9.59623
ز	-9.59637
▁ఆలస్య	-9.59646
క్షేత్ర	-9.59659
▁ఫ్యా	-9.59795
لی	-9.59798
▁జస్టిస్	-9.59809
▁రాష్ట్రంలోని	-9.59872
దారులు	-9.59879
▁ఇక్కడి	-9.59984
▁పడింది	-9.59986
▁రోజున	-9.59993
▁ఫుల్	-9.6
▁నోట్	-9.60082
ಳ	-9.60102
▁పార్లమెంటు	-9.60152
▁మెట్రో	-9.60154
▁వాస్తవ	-9.60158
టివ్	-9.60193
▁తెగ	-9.60303
▁బిడ్డ	-9.60334
▁ఊహించ	-9.60347
▁బయటపడ	-9.60363
పరమైన	-9.60395
▁భావిస్తున్నారు	-9.60434
▁పక్ష	-9.60446
▁కార్యకర్తల	-9.60452
▁ఉత్పత్తి	-9.60498
▁చొప్పున	-9.60498
▁విలువైన	-9.60552
ుడికి	-9.60563
▁వరుసగా	-9.60604
టీసీ	-9.60639
ారన్న	-9.60665
▁అయ్యాయి	-9.60707
▁నాటి	-9.60755
▁అందరికీ	-9.60766
▁అంగ	-9.60852
▁బాల్	-9.60874
▁విమానం	-9.60976
▁ఎటువంటి	-9.61018
▁ప్రో	-9.61114
▁సర్వ	-9.61125
▁సర్కారు	-9.61196
మన్నారు	-9.61244
▁సత్య	-9.61259
▁డ్రగ్స్	-9.61367
▁మేకర్స్	-9.61367
▁చేతిలో	-9.61382
కుమార్	-9.61427
▁తీసుకుంది	-9.6146
▁స్థానాల్లో	-9.61483
▁బంగ్లాదేశ్	-9.6154
▁సమాధానం	-9.61641
▁ఒకరి	-9.61666
ಸ್	-9.61696
ంటున్నారు	-9.61707
▁రాశుల	-9.61728
▁మోస	-9.61749
13	-9.61774
▁రాజకీయాల్లో	-9.61807
▁బాలిక	-9.61819
▁గెలిచిన	-9.61831
⁭	-9.6189
▁నెలకొంది	-9.6189
▁ఎస్పీ	-9.61923
▁చేయడంతో	-9.62031
▁పరిణామాల	-9.62066
▁2018	-9.62102
▁ప్రయాణం	-9.62106
▁వ్యక్తుల	-9.62193
▁వేదిక	-9.62239
▁డీకే	-9.62384
▁తెలుసుకున్న	-9.62393
▁సలహా	-9.62423
భద్ర	-9.62529
కరమైన	-9.62556
▁నల్గొండ	-9.62594
▁క్రమ	-9.62621
▁తెలిసి	-9.62733
మృత	-9.62907
▁పరిష్కరించ	-9.62947
▁మొబైల్	-9.62947
99	-9.62988
ರು	-9.63081
▁విభాగం	-9.63125
ಂದ	-9.63169
▁షూటింగ్	-9.63302
▁ఇద్దరి	-9.63304
వాళ్లు	-9.63359
▁మీడియాతో	-9.63432
▁చేత	-9.6348
▁డెవలప్	-9.6348
▁సంపాదించ	-9.6348
▁వెండి	-9.63503
▁స్థానం	-9.63512
▁సీసీ	-9.63554
ରେ	-9.63605
▁ఇప్పటికీ	-9.63647
▁పన్ను	-9.63657
▁టిక్కెట్	-9.63659
▁కామారెడ్డి	-9.6366
▁హింస	-9.63675
▁ఎఫ్	-9.63717
▁ఉత్తమ	-9.63944
▁అభిమానుల	-9.63956
j	-9.64016
▁జనాభా	-9.64017
▁ప్రసాద్	-9.64043
ుంటాయి	-9.64094
▁షిప్	-9.64103
▁చుట్టూ	-9.64149
▁పరిస్థితుల	-9.64186
▁టెక్నాలజీ	-9.64195
▁నోటిఫికేషన్	-9.64195
▁కరోనా	-9.64198
▁వివాదం	-9.64207
▁ఎత్తు	-9.64287
ح	-9.64375
▁తరహా	-9.64377
▁బహు	-9.64387
پ	-9.64541
ଦ	-9.64555
▁ఆవేదన	-9.64555
U	-9.64735
▁నలుగురు	-9.64735
▁బయలుదేర	-9.64735
▁ఇన్నింగ్స్	-9.64735
▁రవాణా	-9.64735
▁ప్రవేశపెట్ట	-9.64756
▁అతడి	-9.64759
▁జూ	-9.6477
▁వ్యక్తులు	-9.64785
▁స్వీ	-9.64831
▁ସ	-9.64874
లన్నీ	-9.64878
▁ఇండస్ట్రీ	-9.64915
▁నిషేధ	-9.64915
▁మానసిక	-9.64915
▁వ్యక్తిగత	-9.64921
▁ఇటు	-9.65083
▁సంబంధిత	-9.65117
▁పద్మ	-9.65252
▁సమస్యలను	-9.65314
మయ్యారు	-9.65406
23	-9.65425
▁బౌలింగ్	-9.65459
▁వార్తలు	-9.65627
▁ఫైర్	-9.65707
▁వివరాల	-9.65779
▁దిశగా	-9.65825
▁ఆదేశాల	-9.65835
▁ప్రవేశ	-9.65878
▁ఉద్యోగులు	-9.65895
ೊ	-9.66005
▁సక్సెస్	-9.66005
▁ముఖ్యమైన	-9.66015
▁కల్పిస్త	-9.66022
▁వర్గాలు	-9.66106
▁భారతదేశ	-9.66151
ଟ	-9.66188
▁అకౌంట్	-9.66188
▁ప్రొఫెసర్	-9.66188
▁మొదలు	-9.66197
▁మహిళలకు	-9.66302
బడిన	-9.66313
▁నాయకుడు	-9.66371
▁కాలనీ	-9.66386
▁రెడీ	-9.66401
▁అగ్ర	-9.66503
▁థియేటర్	-9.66555
▁రాజస్థాన్	-9.66555
▁కొట్టి	-9.66556
▁భవన్	-9.66575
▁బాలీవుడ్	-9.66738
▁టౌన్	-9.66739
ాయన్నారు	-9.66865
▁ప్రణాళిక	-9.66923
▁ట్రంప్	-9.66928
▁బైక్	-9.66991
▁లేదన్నారు	-9.67046
ತ್ತ	-9.6705
▁మొదలై	-9.67086
▁టాలీవుడ్	-9.67107
▁నగదు	-9.67111
▁జరుగుతుంద	-9.67145
▁బాధిత	-9.67172
▁మిషన్	-9.67216
▁వాటర్	-9.6722
▁నిలిప	-9.67274
చ్చింది	-9.67298
▁సాధించిన	-9.67332
▁کر	-9.67333
▁టాక్	-9.67445
▁కర్ణాటకలో	-9.6756
▁వినియోగించ	-9.67616
ام	-9.67662
▁2021	-9.67663
▁విక్రయ	-9.67668
ج	-9.67695
వాళ్ల	-9.67706
ుకోవాల	-9.67734
▁పూజలు	-9.67743
▁అందుబాటులోకి	-9.678
ంటున్న	-9.67917
▁జరగనున్న	-9.67924
ha	-9.67994
▁ఉందన్నారు	-9.68093
▁కానుంది	-9.68176
ೋ	-9.68221
▁ఫ్యామిలీ	-9.68221
▁యూనిట్	-9.68283
▁అందిస్త	-9.68368
కోసం	-9.68382
▁గెలిపించ	-9.68408
▁వివరాలను	-9.68413
ସ	-9.68451
್ಯ	-9.68583
▁క్రికెటర్	-9.68596
▁పరిశోధన	-9.68596
▁స్టేడియం	-9.68596
▁టీఎస్	-9.6862
ఫై	-9.68623
▁ప్రభాకర్	-9.68783
ال	-9.68789
▁సెంట్రల్	-9.68971
▁గ్రామాల	-9.69111
▁కెరీర్	-9.69161
▁అనుకూలంగా	-9.69175
▁అయ్యే	-9.69256
▁హయాంలో	-9.6935
పోయాడు	-9.6944
▁కార్పొరేషన్	-9.69537
▁పోరాటం	-9.69578
▁బిగ్	-9.69596
ఛార్జ	-9.69638
▁తదితర	-9.69648
▁ప్రాణాలు	-9.69715
▁భర్తీ	-9.69729
ినేని	-9.69756
▁ಹ	-9.69759
▁వరుస	-9.69808
ాల్సిందే	-9.69841
am	-9.69882
▁రాజకీయాల	-9.6993
లేదన్నారు	-9.6994
▁బ్యాటర్	-9.69972
పోతున్నారు	-9.70011
▁ట్విట్టర్	-9.70106
▁పంజాబ్	-9.70106
▁చూశా	-9.70114
▁తీసుకుంటున్న	-9.70177
▁తప్పించ	-9.70234
▁మెదక్	-9.70302
నుంచి	-9.70305
▁శంకర్	-9.70349
60	-9.70569
%	-9.70679
▁పోర్టు	-9.70696
▁టైమ్	-9.70705
▁బోర్	-9.70719
▁భవిష్యత్తు	-9.70907
▁దాడుల	-9.70942
▁రద్దీ	-9.71064
▁ప్లాట్	-9.71071
▁దళిత	-9.71077
▁అందిస్తున్న	-9.71129
▁అవసరమ	-9.712
▁సందర్భ	-9.71211
▁గెలవ	-9.71246
▁ఆఫీస్	-9.71262
మణి	-9.71307
▁షాపు	-9.71368
▁పంచాయతీ	-9.71447
▁ప్రజల్లో	-9.71535
ముఖ	-9.71623
▁నిలిచింది	-9.71857
▁యువతి	-9.71871
▁అవుతోంది	-9.72017
▁ఎప్పుడు	-9.72163
▁వేడి	-9.7224
▁పోర్ట్	-9.7225
▁రూమ్	-9.72268
ేశ్వర్	-9.72441
▁స్టే	-9.72546
▁డాలర్ల	-9.72618
▁తెలుసు	-9.72688
▁విమాన	-9.72763
▁అక్కడే	-9.72769
▁శ్రీలంక	-9.72808
▁నిర్మాత	-9.72811
▁పాకిస్థాన్	-9.73002
▁వినియోగ	-9.73012
▁చూస్తే	-9.73179
▁అంగీకరించ	-9.73198
▁నియోజకవర్గాల్లో	-9.73301
▁బృందం	-9.73303
▁ట్రాన్స్	-9.73396
▁ఓపెన్	-9.73396
▁మొదలైంది	-9.73428
▁హెచ్చరిక	-9.73592
▁ఒకవేళ	-9.73592
▁ఉపాధి	-9.73592
▁సవాల్	-9.73608
▁ఏండ్ల	-9.73635
▁సహాయం	-9.7364
▁گ	-9.7372
▁పెండింగ్	-9.7379
▁ఎంట్రీ	-9.7379
▁హోటల్	-9.73799
▁గ్రాముల	-9.73819
▁ఎవరైనా	-9.73824
▁రచయిత	-9.73987
▁వైద్యులు	-9.74022
▁చర్యల	-9.74041
وں	-9.7427
न	-9.74383
▁ఆడియన్స్	-9.74383
▁రాజ్యసభ	-9.74383
یا	-9.74395
▁ఇస్తామని	-9.74412
▁నిత్య	-9.74417
పోతుంది	-9.74447
▁గ్రామానికి	-9.7448
జ్ఞాన	-9.74582
▁ఆపరేషన్	-9.74582
▁ఏదో	-9.74759
▁అదానీ	-9.74783
▁కాల్పుల	-9.74805
▁వెంకట్	-9.74842
▁కుమారుడు	-9.74851
▁యూపీ	-9.74891
▁గట్టి	-9.75102
▁సాధారణంగా	-9.75117
▁ప్రతినిధుల	-9.75182
▁యుద్ధ	-9.75223
▁నివాసం	-9.75263
▁అందుకున్న	-9.75336
▁జంట	-9.75352
ೂ	-9.75582
▁తరఫున	-9.75582
▁ఆకర్ష	-9.75621
▁ఆసక్తికర	-9.75799
పరంగా	-9.75892
టెక్	-9.75957
▁చెప్పుకొచ్చారు	-9.75985
▁గ్రీన్	-9.75986
▁బాగు	-9.76102
స్తుందని	-9.76106
▁పాదయాత్ర	-9.76187
▁పెట్టుబడుల	-9.76187
▁క్లారిటీ	-9.76187
▁పొడి	-9.76247
▁మీదుగా	-9.76348
▁నెటిజన్	-9.76389
▁దానిపై	-9.76439
▁కరెంట్	-9.76597
▁సైబర్	-9.76664
▁వెల్లడించ	-9.76681
▁ఫామ్	-9.76776
ಜ	-9.76795
▁సెక్రటరీ	-9.76795
▁పుస్తక	-9.76802
▁వంట	-9.76821
వారం	-9.76836
▁వివరించ	-9.76874
دی	-9.7698
శాస్త్ర	-9.76989
▁త్వరగా	-9.76999
▁గమనించ	-9.77003
టెన్	-9.77046
▁పర్యటించ	-9.77099
▁సరిహద్దు	-9.77203
▁విదేశీ	-9.77204
▁వినిపించ	-9.77211
▁అండగా	-9.7722
▁ఏరియా	-9.77235
డుతూ	-9.7732
ଏ	-9.77407
▁పనిచేయ	-9.77421
▁పరిశీలించారు	-9.77494
▁కొనసాగుతోంది	-9.77516
▁సిద్ధంగా	-9.77585
▁ఫ్రీ	-9.77629
▁ఉద్యోగాలు	-9.77668
▁లక్ష్యం	-9.77671
▁నమ్మకం	-9.77676
▁బరిలోకి	-9.77687
▁ఓడించ	-9.77794
దానం	-9.77836
▁జరిగిందని	-9.77842
▁విచారించ	-9.77862
▁పరిస్థితుల్లో	-9.77896
▁ర్యాలీ	-9.77896
▁రుణమాఫీ	-9.78023
▁భట్టి	-9.78053
ేయాలని	-9.7808
పోవడం	-9.78092
▁గ్రౌండ్	-9.7823
▁ప్రియాంక	-9.7824
▁నేటి	-9.78279
▁బలంగా	-9.7841
▁దంపతుల	-9.78437
▁سے	-9.78685
▁గేమ్	-9.78704
▁భయపడ	-9.78734
at	-9.78786
▁పాటించ	-9.78816
▁స్థితి	-9.78851
▁ట్రాక్	-9.78874
హిత	-9.78931
▁పెరుగుతున్న	-9.79008
▁వహించ	-9.79012
▁మేనిఫెస్టో	-9.79059
▁ప్రశంస	-9.79059
▁అంతేకాదు	-9.79059
▁చూడాలి	-9.79095
▁తలెత్త	-9.79101
▁గ్ల	-9.79166
#	-9.79267
▁శరీరంలో	-9.79276
▁వర్మ	-9.79363
▁కామెంట్	-9.79365
▁చేశామని	-9.79504
▁హాట్	-9.79679
ी	-9.79685
▁తీర్మాన	-9.79685
▁సందర్శించ	-9.79685
▁అదనపు	-9.79685
▁తరగతి	-9.79685
▁ఇందుకు	-9.79697
▁ಅ	-9.79711
▁బెడ్	-9.7973
▁తొలగి	-9.79978
▁నిర్ణయాలు	-9.7998
▁నెంబర్	-9.80106
▁దర్శనం	-9.80145
▁నియామక	-9.80526
ుకోవచ్చు	-9.8053
▁ప్లేయర్	-9.80578
ఛ	-9.80739
▁వర్గం	-9.80808
▁వసూలు	-9.80951
▁రఘు	-9.80951
▁వంశీ	-9.80951
▁స్వీకరించ	-9.80955
▁వర్ష	-9.80982
ఉ	-9.80983
▁పుట్టిన	-9.81009
▁స్నేహ	-9.8105
▁ఉండదు	-9.81146
▁విజ్ఞప్తి	-9.81162
▁నూతన	-9.81166
▁ఫోర్స్	-9.81185
ور	-9.81262
▁ముందస్తు	-9.81375
ొద్దని	-9.81386
▁సహజ	-9.81439
ଣ	-9.81588
▁విడత	-9.81612
▁జరగనుంది	-9.81684
▁కోచ్	-9.81738
▁వస్తున్నాయి	-9.81743
▁గంగ	-9.8184
▁గుర్తించి	-9.81924
▁లోపల	-9.81958
▁ఆశ్చర్య	-9.82016
ಿಸ	-9.82016
▁ప్రశాంత్	-9.82101
▁పదవుల	-9.82142
▁ఉద్యోగాల	-9.8221
▁పాల్గొంట	-9.8223
▁పుష్ప	-9.82237
▁కలిగించ	-9.82268
▁ఉన్నప్పుడు	-9.82598
▁దూర	-9.82613
▁బ్రేక్	-9.82667
ୋ	-9.82877
▁తుది	-9.8301
▁చేసుకుంటున్న	-9.83053
▁కార్యక్రమాలు	-9.83072
▁కేబినెట్	-9.83093
▁వ్యవహరిస్త	-9.83093
▁కూతురు	-9.83094
▁టైటిల్	-9.83096
▁ఆలోచించ	-9.83097
▁తప్పుడు	-9.83193
▁గర్భ	-9.83235
▁పదేళ్ల	-9.83331
▁విరాట్	-9.83365
▁శిక్షణ	-9.83405
▁నేతృత్వంలో	-9.83527
ಚ	-9.83528
▁ప్రభాస్	-9.83529
گ	-9.83555
55	-9.83579
▁పాల్గొన్న	-9.83605
▁ఖరారు	-9.83759
▁వచ్చిందని	-9.83817
en	-9.83832
▁తీసుకునే	-9.83955
▁బట్టి	-9.84006
▁భారతదేశంలో	-9.84129
▁పెద్దపల్లి	-9.84139
▁షె	-9.84175
▁పెట్టుబడి	-9.84183
▁జెండా	-9.84221
▁నాయకత్వం	-9.84375
▁అనుకూల	-9.84384
J	-9.84402
▁అప్పట్లో	-9.84402
▁అనిపించ	-9.84454
▁తల్లిదండ్రులు	-9.84509
▁ఆఫర్	-9.84512
▁రికార్డ్	-9.84622
▁రెవెన్యూ	-9.84622
▁ధీమా	-9.84622
▁మంచిది	-9.84698
▁నెలల్లో	-9.8474
▁అద్భుత	-9.84762
।	-9.84842
▁జగిత్యాల	-9.84842
▁డేట్	-9.84845
▁సమాచార	-9.84855
▁ఉంటా	-9.8505
▁ఆశ్రయించ	-9.85063
▁దర్శకత్వం	-9.85069
▁చేసుకునే	-9.85107
▁తీసుకురావ	-9.85172
పోవడంతో	-9.85207
▁ప్రభావిత	-9.85284
▁అటవీ	-9.85288
▁పోస్టర్	-9.85404
▁కుటుంబానికి	-9.8542
▁టిడిపి	-9.85506
▁ఆమోదం	-9.85506
▁గుంటూరు	-9.85506
▁చల్ల	-9.85637
▁మెరుగు	-9.85676
▁జరిగాయి	-9.85728
▁లేవు	-9.85728
▁ప్లాంట్	-9.85729
▁నన్ను	-9.85817
▁పత్రాల	-9.85835
▁హెడ్	-9.85916
▁విష్ణు	-9.8595
▁సిద్దిపేట	-9.85951
వద్దని	-9.8596
▁టీవీ	-9.86061
శ్రీ	-9.86129
▁ప్రదర్శన	-9.86173
ह	-9.86174
▁తేలింది	-9.86211
▁యాక్షన్	-9.86288
▁రాజకీయాలు	-9.86373
▁సింగరేణి	-9.86397
▁క్యాన్సర్	-9.86398
▁ముక్క	-9.86562
▁ప్రదేశ్	-9.86623
▁రోజూ	-9.86623
▁గ్యాస్	-9.86675
ఫె	-9.86837
▁జూనియర్	-9.86847
▁గృహ	-9.8685
▁తిప్ప	-9.86993
▁రాశారు	-9.8708
▁నిర్మించిన	-9.87133
▁భద్రతా	-9.87274
▁కుమార్తె	-9.87299
▁మూస	-9.87362
▁హాజరయ్యారు	-9.87524
▁శ్రేణుల	-9.8775
▁సంప్రదాయ	-9.8775
▁పండ్ల	-9.87813
▁సాధించింది	-9.87855
▁ప్రతిపాదన	-9.87978
▁దీక్ష	-9.87984
▁ఆటగాళ్ల	-9.87999
▁ఉండేది	-9.88008
▁నివాస	-9.8802
▁అన్నీ	-9.88103
ri	-9.88204
▁చెలరేగ	-9.88205
▁టోర్నీ	-9.88205
▁సహకరించ	-9.88213
▁ఎర్ర	-9.88259
ಗಳ	-9.88272
వ్యాప్తంగా	-9.88285
خ	-9.88434
▁మిలియన్	-9.88434
▁సంగీత	-9.88439
▁నాయక్	-9.88457
కూడదని	-9.88477
శాతం	-9.88515
▁రెడ్	-9.88583
▁తూర్పు	-9.88663
▁పురుషుల	-9.88663
▁విఫల	-9.88671
▁ఈవెంట్	-9.88673
▁చేసిందని	-9.88731
ାର	-9.88864
▁సభ్య	-9.88887
▁ఉదయ	-9.8889
▁కలుగ	-9.88892
▁అర్హత	-9.88893
▁ధర్నా	-9.88898
▁ఇరాన్	-9.88904
పోర్ట	-9.88913
చ్ఛ	-9.88919
▁రక్షించ	-9.88933
మవుతున్న	-9.88992
▁ఆర్డర్	-9.89083
▁గ్రామాల్లో	-9.89101
▁ప్రవీణ్	-9.89122
▁పసుపు	-9.89124
▁స్థిర	-9.89141
ప్రపంచవ్యాప్తంగా	-9.89153
▁ఆదిలాబాద్	-9.89352
▁బంధువుల	-9.89353
▁విశ్లేష	-9.89583
▁పోషించ	-9.89648
▁సాంగ్	-9.89684
▁రాబోయే	-9.89689
▁సర్వీస్	-9.89816
▁ఇల్లు	-9.89882
▁సంఘ	-9.9002
18	-9.90032
▁వెనక	-9.90036
▁కంట్రోల్	-9.90047
▁పబ్లిక్	-9.90047
▁ہو	-9.90055
▁శివకుమార్	-9.90076
▁ఖాయమ	-9.90102
▁ఉత్తర్వులు	-9.90118
▁పేర్కొన్న	-9.9015
▁ఆదాయ	-9.90315
▁పాలసీ	-9.90415
▁తీయ	-9.90444
టేషన్	-9.90482
▁గురయ్యా	-9.90495
▁నటించిన	-9.9057
▁వెనక్కి	-9.90747
▁హెల్త్	-9.90747
▁నాలుగో	-9.9075
▁చుట్ట	-9.9091
▁సాంకేతిక	-9.9098
▁వడ్డీ	-9.91217
▁హమాస్	-9.91223
▁ఉపయోగపడ	-9.91245
▁వస్తోంది	-9.91275
▁ఎదుర్కొంటున్న	-9.9128
▁తరపున	-9.9145
▁సెక్యూరిటీ	-9.9145
▁ఇంటర్వ్యూ	-9.9145
వంతు	-9.91662
W	-9.91686
ాధికార	-9.91692
▁వేరే	-9.91733
▁పెరగ	-9.91795
ad	-9.91896
▁అనుగుణంగా	-9.91922
▁కార్యకలాపాల	-9.91922
▁కోసమే	-9.91925
▁వ్యాధి	-9.92
65	-9.92011
సేపు	-9.92046
ि	-9.92159
ଇ	-9.92159
14	-9.92172
▁శ్రీరామ	-9.92175
▁కనిపిస్తుంది	-9.92236
▁చేస్తుంద	-9.92517
،	-9.92635
▁ప్రస్తావించ	-9.92635
▁అగ్ని	-9.92667
ంచుకో	-9.927
▁అప్రమత్తం	-9.92874
▁చనిపోయిన	-9.92933
▁సీఐడీ	-9.92935
▁నియోజకవర్గాల	-9.9314
▁కార్యక్రమానికి	-9.93353
▁విమానాశ్రయ	-9.93353
▁ఉత్సవాల	-9.93353
▁లక్షణాల	-9.93446
▁వైఎస్సార్	-9.93594
కపోయినా	-9.93656
▁మనసు	-9.93804
▁తెలుసుకుందాం	-9.93834
▁దినోత్సవ	-9.93835
▁ఎంటర్	-9.93924
▁కస్టడీ	-9.94076
▁ఇస్రో	-9.9408
▁ہے۔	-9.94083
▁ఎస్టీ	-9.94254
▁పోలిస్తే	-9.94319
▁వ్యాధుల	-9.94358
▁చేస్తానని	-9.94525
▁నిర్లక్ష్యం	-9.94561
▁గంజాయి	-9.94561
▁విషాద	-9.94564
▁ప్రశ్నించ	-9.94594
▁రంగారెడ్డి	-9.94623
▁బలమైన	-9.94791
▁ہے	-9.94798
▁కిరణ్	-9.94805
▁హరీష్	-9.94805
▁వినియోగదారుల	-9.94857
▁సురక్షిత	-9.95048
▁ఇసుక	-9.95057
▁కడప	-9.95075
▁భావిస్తున్న	-9.95137
▁తెల్ల	-9.95164
▁వస్తాయి	-9.95196
▁మండలంలోని	-9.95332
▁పెట్టుకున్న	-9.95357
▁గేట్	-9.95382
▁వినిపిస్త	-9.95475
ేటప్పుడు	-9.95479
డబ్ల్యూ	-9.95537
▁ఆసియా	-9.95552
స్తోన్న	-9.95597
▁సీఐ	-9.95662
▁పొంగులేటి	-9.95783
▁శాస్త్రవేత్త	-9.95783
▁అలర్ట్	-9.95784
▁పాల్పడ్డ	-9.95785
▁గతేడాది	-9.96029
▁ఫోకస్	-9.96029
▁రెగ్యుల	-9.96029
▁ఐదేళ్ల	-9.96032
▁నూనె	-9.96032
▁వదిలి	-9.96089
▁లేకపోవడంతో	-9.96145
ాపురం	-9.96146
▁లాభాల	-9.96162
▁నిరాశ	-9.9624
▁కచ్చితంగా	-9.96276
▁సుప్రీం	-9.96276
▁భూకంప	-9.96277
▁వెంకటస్వామి	-9.96302
▁ఆదేశించింది	-9.96372
▁స్కిల్	-9.96382
▁పట్టా	-9.9641
▁నిర్మిస్తున్న	-9.96514
▁ముగిసిన	-9.96524
▁మంచిర్యాల	-9.96524
▁పెన్షన్	-9.96525
▁జూలై	-9.96556
▁ఓవర్లలో	-9.96657
▁రాష్ట్రపతి	-9.96674
▁విటమిన్	-9.96772
▁ఒప్పందం	-9.97023
▁నటుడు	-9.97025
బడ్డ	-9.97071
▁2020	-9.97088
▁మరిన్ని	-9.97177
▁ప్రవేశించ	-9.97191
▁ల్యాండ్	-9.9727
▁స్వయంగా	-9.97275
▁పదార్థాల	-9.97276
▁ప్రయత్నిస్తున్న	-9.97515
स	-9.9752
▁కాళేశ్వరం	-9.9752
▁బంతుల్లో	-9.9752
▁వేధింపుల	-9.9752
▁భరోసా	-9.9752
▁చూపిస్త	-9.97526
▁మాస్టర్	-9.9754
▁రేట్	-9.97547
ఒ	-9.97569
ನ್	-9.9765
వంతంగా	-9.97767
న్నింటి	-9.97873
▁చర్మ	-9.9796
▁సంతోషంగా	-9.9798
పెడతా	-9.9802
▁ఫ్రెండ్	-9.98022
▁اور	-9.98023
ଜ	-9.98274
▁అతిపెద్ద	-9.98274
▁ఉద్రిక్త	-9.98274
ಷ	-9.98274
▁కెనడా	-9.98274
▁کہ	-9.98276
▁గడువు	-9.98277
▁రూపంలో	-9.98284
▁నిరుద్యోగుల	-9.98413
రత్న	-9.98475
▁కోమటిరెడ్డి	-9.98526
ుకోవాల్సి	-9.98622
▁ఆహ్వాన	-9.98657
▁అసోసియేషన్	-9.98779
▁ప్రత్యక్ష	-9.9878
▁ఒడిశా	-9.99033
▁రావాలని	-9.99082
▁స్పందిస్త	-9.99289
▁ములుగు	-9.99299
▁పెరుగుతుంది	-9.99356
▁తీస్త	-9.9949
▁అసిస్టెంట్	-9.99543
▁ఏజెన్సీ	-9.99543
▁500	-9.99635
▁అద్భుతమైన	-9.99636
▁లైంగిక	-9.99799
▁అనుచరుల	-9.99799
▁అర్హుల	-9.99804
▁రామకృష్ణ	-9.99849
ుతోందని	-9.99942
▁పిలుపునిచ్చారు	-10.0006
▁రిపోర్టు	-10.0006
▁సోనియా	-10.0006
▁స్నేహితుల	-10.0006
▁కూల్చ	-10.001
పూడి	-10.002
▁ఎనిమిది	-10.0031
f	-10.0031
▁లేటెస్ట్	-10.0031
▁తీర్చ	-10.0032
▁ఆహ్వానించ	-10.0044
▁తల్లిదండ్రుల	-10.0044
st	-10.0049
ಶ	-10.0057
ందరికీ	-10.0081
▁వలస	-10.0083
▁కస్టమర్	-10.0083
▁ఫ్యాక్టరీ	-10.0083
▁బంగారు	-10.0085
▁మహబూబ్	-10.0109
▁ఘోర	-10.011
▁దీనివల్ల	-10.0114
▁పీసీసీ	-10.0135
▁کیا	-10.0151
▁వెళ్ళ	-10.0154
▁గీత	-10.0159
▁ప్రతిపక్షాల	-10.016
సాగర్	-10.0169
47	-10.0175
▁దర్శించ	-10.0187
▁ఈనెల	-10.019
మూర్తి	-10.0193
బోయే	-10.0208
▁సచివాలయ	-10.0213
▁కురిసే	-10.0213
▁లేదంటే	-10.0214
▁ఆర్మీ	-10.0224
▁మధ్యప్రదేశ్	-10.0239
▁చరణ్	-10.0239
▁దిల్లీ	-10.0239
▁పట్టణంలో	-10.024
▁తీసుకొని	-10.025
▁నిలబడ	-10.0258
▁చేరుకుంది	-10.026
▁మెజార్టీ	-10.0266
▁సంభవించ	-10.0266
▁ఫీజు	-10.0266
▁ట్రైలర్	-10.0266
▁వ్యవహారాల	-10.0292
▁స్పందన	-10.0292
▁పనిచేసే	-10.0292
▁చంద్రయాన్	-10.0292
▁యాంటీ	-10.0293
▁రాసిన	-10.0311
▁అరవింద్	-10.0318
▁విధానాల	-10.0325
▁అనుమతించ	-10.033
▁అంబేద్కర్	-10.0345
▁హైకమాండ్	-10.0345
▁ఉత్కంఠ	-10.0345
▁డివిజన్	-10.0345
▁బెంగాల్	-10.0346
▁కొనసాగుత	-10.035
ందరూ	-10.0358
▁నింప	-10.0361
Y	-10.0372
▁ప్రమోషన్	-10.0372
▁హిందీ	-10.0372
▁స్కూళ్ల	-10.0372
▁చంద్రుడి	-10.0383
▁బలహీన	-10.0398
▁కలకలం	-10.0398
▁పరిహారం	-10.0398
ص	-10.0425
▁తప్పనిసరి	-10.0425
▁పిటీషన్	-10.0425
వంతమైన	-10.0426
85	-10.0434
▁గ్రూపు	-10.0452
ొద్దు	-10.0462
▁ఆలయంలో	-10.047
▁నిందితుడు	-10.0479
ಿಕ	-10.0482
▁బృంద	-10.0492
;	-10.0506
▁ప్రజాస్వామ్య	-10.0506
44	-10.0517
▁తీసుకుంటామని	-10.0524
49	-10.053
▁అంతకుముందు	-10.0533
▁బాంబు	-10.0534
▁సంపద	-10.0534
▁విపరీత	-10.056
▁ఇంగ్లాండ్	-10.0587
▁ఉన్నతాధికారుల	-10.0587
▁గ్రామీణ	-10.0587
▁ఆంధ్ర	-10.0587
▁కన్నడ	-10.059
▁రేటు	-10.0591
▁దోచ	-10.06
▁ఉంటాయని	-10.0603
ಸ	-10.0609
▁ప్రాథమిక	-10.0614
▁గూగుల్	-10.0614
▁రిపోర్ట్	-10.0614
▁స్మార్ట్	-10.0614
▁నోటీసు	-10.0632
▁కార్తీక	-10.0639
ط	-10.0641
▁సంప్రదించ	-10.0641
▁క్యారెట్ల	-10.0642
▁ప్రతినిధి	-10.0642
▁ఫేక్	-10.0643
▁కలెక్టరేట్	-10.0669
▁మరికొన్ని	-10.0669
୍ୟ	-10.067
పోయిందని	-10.0673
▁చర్య	-10.0691
▁మార్గాల	-10.0696
▁యాదాద్రి	-10.0696
▁స్క్రీన్	-10.0696
or	-10.0705
పట్నం	-10.0708
▁చింత	-10.0715
ారట	-10.0719
▁గ్యారంటీ	-10.0724
▁అవసరాల	-10.0724
▁ఆదిత్య	-10.0724
▁వెలువడ	-10.0725
▁మనిషి	-10.0725
▁విజయవంతం	-10.0728
▁లీగ్	-10.0728
▁బదులు	-10.0731
▁సమర్థ	-10.0733
శంకర్	-10.0745
▁భవిష్యత్	-10.0746
▁మహేశ్	-10.075
▁డిజిటల్	-10.0752
▁గాయపడ్డ	-10.0752
▁సోర్స్	-10.0754
ಣ	-10.0779
▁జడ్పీ	-10.078
▁టన్నుల	-10.0781
▁నమోదైంది	-10.0783
▁మహేష్	-10.0784
▁వైరస్	-10.0809
▁నిల్వ	-10.0813
39	-10.082
▁రిమాండ్	-10.0835
▁శ్రీధర్	-10.0835
▁హైడ్రా	-10.0837
ుంటుంది	-10.0859
▁బిజినెస్	-10.0863
▁మున్సిపాలిటీ	-10.0863
▁సీతారామ	-10.0863
ଆ	-10.0891
▁ఛైర్మన్	-10.0891
▁ఆధార్	-10.0892
▁వెంకటేశ్వర	-10.0897
ಹ	-10.0914
▁కౌన్సిలర్	-10.0919
▁న్యాయవాది	-10.0919
▁అవమాన	-10.0921
▁ప్రధానమంత్రి	-10.0925
▁చేసుకోవచ్చు	-10.0925
▁వస్తుంద	-10.0929
▁భీమ	-10.0937
ಧ	-10.0947
▁నటిస్తున్న	-10.0952
▁యూజర్	-10.0959
▁స్త్రీ	-10.0976
▁పటేల్	-10.0976
▁రిజిస్ట్రేషన్	-10.1004
ముందు	-10.1004
▁కొనసాగించ	-10.1013
▁మంత్రిత్వ	-10.1027
▁దేశాల్లో	-10.1028
▁సిరిసిల్ల	-10.1032
▁సమక్షంలో	-10.1032
▁సిట్టింగ్	-10.1032
▁ఏసీబీ	-10.1032
▁సామాన్య	-10.1032
▁చిన్నారి	-10.1033
▁బియ్యం	-10.1033
▁ప్రయాణించ	-10.106
▁పర్యాటక	-10.1061
▁ఇద్దరూ	-10.1061
▁వివరణ	-10.1061
▁భవనాల	-10.1062
▁వడ్ల	-10.107
▁రియల్	-10.1082
▁కర్నాటక	-10.1089
▁సత్యనారాయణ	-10.109
▁మోడల్	-10.1091
ంద్ర	-10.1094
▁లభిస్త	-10.1099
ں	-10.1105
ल	-10.1118
▁అదృష్ట	-10.1118
▁సీరియస్	-10.1118
▁మంత్రుల	-10.1129
ಟ್	-10.1137
▁ایک	-10.1146
▁తొమ్మిది	-10.1146
▁వ్యవధి	-10.1147
▁షేక్	-10.1147
▁పిలుస్త	-10.1149
38	-10.115
▁పేర్లు	-10.1181
▁గోల్డ్	-10.1185
▁సమాన	-10.1201
▁సానుకూల	-10.1204
X	-10.1204
ो	-10.1204
▁రెండేళ్ల	-10.1205
▁దేవాలయ	-10.1206
▁పర్యావరణ	-10.1233
▁నిలుస్త	-10.1247
▁అత్యాచార	-10.1262
▁ఉగ్రవాద	-10.1262
▁స్పష్టత	-10.1262
▁విశాఖపట్నం	-10.1263
▁కథనం	-10.1265
▁గెలుస్త	-10.129
▁ఎదుర్కో	-10.1291
▁రమేశ్	-10.1292
▁రమేష్	-10.1292
▁ప్రయత్నిస్త	-10.1292
▁స్వీకారం	-10.1294
▁గడ్డం	-10.1297
▁అందజేశారు	-10.1321
▁కసరత్తు	-10.135
▁ఓటీటీ	-10.135
▁జపాన్	-10.1352
▁కొత్తగూడెం	-10.1355
▁ఎదుట	-10.1359
▁మిగిల	-10.136
ధారణ	-10.1366
▁పరిశీలిస్త	-10.1379
బోతోంది	-10.138
▁సులభ	-10.138
,500	-10.1381
▁ఆస్తి	-10.1395
▁పెరగడం	-10.1403
▁శాసనసభ	-10.1409
▁బ్రాండ్	-10.1409
▁బాలకృష్ణ	-10.1412
▁సైనికుల	-10.1437
▁ప్రైవేటు	-10.1438
▁విషయానిక	-10.1452
▁ఎద్దేవా	-10.1468
▁లిమిటెడ్	-10.1468
శెట్టి	-10.1469
గూడెం	-10.1493
▁కేటాయింపు	-10.1498
▁న్యూజిలాండ్	-10.1498
▁వాలంటీర్ల	-10.1498
▁నిందితుడి	-10.1498
▁నేర్చ	-10.15
▁బరిలో	-10.1525
▁నియంత్రణ	-10.1528
ుండడంతో	-10.1539
▁నిబంధన	-10.1547
▁ఉత్తరప్రదేశ్	-10.1558
▁పేరిట	-10.1558
▁అయినప్పటికీ	-10.1571
▁విక్రమార్క	-10.1588
▁క్రియేట్	-10.1588
▁లడ్డూ	-10.1588
▁బిల్డింగ్	-10.1588
▁వినాయక	-10.1596
त	-10.1618
▁పవిత్ర	-10.1618
▁హర్ష	-10.162
▁అభిమాన	-10.1631
▁టాటా	-10.1635
▁ప్రసాద	-10.1635
▁అడిషనల్	-10.1648
▁పిలుపు	-10.1649
▁అఖిల	-10.1649
▁అవకాశాల	-10.1649
▁ఆధారపడ	-10.165
▁విస్తరించ	-10.1678
▁పద్ధతి	-10.1679
▁డౌన్	-10.1679
▁ఎలక్షన్	-10.1679
▁లైఫ్	-10.1679
▁ఇంద్ర	-10.169
ir	-10.1704
▁సర్వీసు	-10.1709
▁నకిలీ	-10.171
▁అవుట్	-10.1714
▁విసిర	-10.1736
▁చేసుకోవాలి	-10.1736
▁అనుబంధ	-10.1739
▁అశోక్	-10.1739
▁ఒలింపిక్	-10.1739
▁కళాశాల	-10.1739
▁ఫీచర్	-10.1739
▁సంగారెడ్డి	-10.174
▁ప్రగతి	-10.174
▁మెజారిటీ	-10.177
▁మెరుగైన	-10.177
▁తదుపరి	-10.177
▁యూనియన్	-10.177
▁స్కీమ్	-10.177
▁స్వల్ప	-10.1771
▁బారిన	-10.1776
▁ఉపాధ్యాయ	-10.1801
▁ఘర్షణ	-10.1801
▁టాపిక్	-10.1801
▁జరిగితే	-10.1804
▁ఎప్పుడ	-10.1807
▁ఇబ్బందుల	-10.1819
ଡ	-10.1831
▁సూర్యాపేట	-10.1831
▁హాజరై	-10.1831
▁పరిసర	-10.1833
▁మంచు	-10.1834
▁మ్యూజిక్	-10.1862
▁యూట్యూబ్	-10.1862
▁అభిప్రాయపడ్డారు	-10.1862
▁సరిగ్గా	-10.1862
▁కడుపు	-10.1863
▁ఇతరుల	-10.1886
▁నెల్లూరు	-10.1893
ଉ	-10.1893
▁డిజైన్	-10.1893
▁ధాన్యం	-10.1893
గౌడ	-10.1923
ఝ	-10.1924
▁మరికొందరు	-10.1924
▁ప్రాణాల	-10.1926
ప్రసాద్	-10.1934
▁చోటుచేసుకుంది	-10.1955
▁చెబుతోంది	-10.1963
▁హెచ్చరించ	-10.1982
▁అదుపు	-10.1983
▁జ్యోతి	-10.1986
▁పెట్రోల్	-10.1987
▁శుభాకాంక్షలు	-10.1987
▁రిజర్వ్	-10.1987
▁బ్రహ్మ	-10.1987
▁లేకపోవడం	-10.1992
▁నిరుద్యోగ	-10.2001
▁ویڈیو	-10.2018
▁వాట్సాప్	-10.2018
▁ఖర్గే	-10.2018
▁చైర్	-10.2019
▁రావాల్సి	-10.203
▁ఎప్పటికప్పుడ	-10.2049
▁సదస్సు	-10.2049
▁విస్తృత	-10.2049
ಿದೆ	-10.2049
▁ప్రకటిస్త	-10.205
▁తీసుకువచ్చ	-10.2053
నారాయణ	-10.2061
▁మహబూబాబాద్	-10.2081
▁కలెక్షన్	-10.2081
▁గ్రేటర్	-10.2081
▁ఢీ	-10.2081
▁సగటు	-10.2081
▁నాగార్జున	-10.2113
▁వయస్సు	-10.2113
▁మణిపూర్	-10.2113
ಇ	-10.2144
ं	-10.2144
▁బ్రిటన్	-10.2144
▁మనుషుల	-10.2144
▁నువ్వు	-10.2147
▁సభ్యుడు	-10.2152
▁విషయమ	-10.2152
▁డిపార్ట్	-10.2176
▁సైన్యం	-10.2176
▁లింక్	-10.2182
▁చివరకు	-10.2183
▁కార్యక్రమాన్ని	-10.2208
▁గ్లోబల్	-10.2208
ଗ	-10.2208
▁రాకపోకల	-10.2208
▁జుట్టు	-10.2209
▁తగిలి	-10.2221
▁వలన	-10.2224
ందంటూ	-10.2229
▁నవీన్	-10.2241
▁ఛాన్స్	-10.2247
▁దొరికి	-10.227
▁అలవాటు	-10.2272
▁ఐదుగురు	-10.2272
ೆಯ	-10.2279
▁విగ్రహం	-10.2306
ిచ్చారు	-10.2307
▁చిత్రాల	-10.2325
▁ఇప్పుడ	-10.2336
▁కూరగాయల	-10.2337
▁నొప్పి	-10.2337
▁జమ్మూ	-10.2337
మవుతోంది	-10.2346
▁పోరాట	-10.2367
▁ALSO	-10.2369
▁అత్యవసర	-10.2369
▁యువకుడు	-10.237
సంవత్సర	-10.2382
▁అసంతృప్తి	-10.2402
▁కెసిఆర్	-10.2402
▁బాధపడుతున్న	-10.2402
▁گیا	-10.2403
▁సివిల్	-10.2405
వలసి	-10.2419
స్తుంటారు	-10.2431
▁శుక్ర	-10.2434
▁కానిస్టేబుల్	-10.2435
▁రాజమండ్రి	-10.2435
▁చెల్లింపు	-10.2435
▁తెలుస్తుంది	-10.2435
▁స్టోరీ	-10.2435
▁సునీల్	-10.2435
వృద్ధ	-10.2459
▁డెలివరీ	-10.2467
▁స్వాగతం	-10.2467
▁గఢ్	-10.2467
ుద్దీన్	-10.2468
▁సమగ్ర	-10.2475
▁ప్రమాదకర	-10.2494
▁లైట్	-10.2499
▁నిర్మాణాల	-10.25
▁ఉదాహరణ	-10.25
▁సస్పెండ్	-10.25
▁విభజన	-10.25
▁నెయ్యి	-10.25
▁సింగిల్	-10.2501
▁క్వార్టర్	-10.2533
▁కాలుష్య	-10.2534
▁రూరల్	-10.2541
▁సైనిక	-10.2552
प	-10.2566
▁READ	-10.2566
▁మామిడి	-10.2567
▁సునీత	-10.257
▁నెలకొన్న	-10.26
▁రాజీవ్	-10.26
▁దసరా	-10.26
▁అమ్మవారి	-10.261
▁సన్నిహిత	-10.2633
▁చంద్రశేఖర్	-10.2633
▁భద్రాద్రి	-10.2633
▁హిందువుల	-10.2666
▁ఎన్డీఏ	-10.2666
▁భాస్కర్	-10.2667
▁ఇందిరా	-10.2667
▁అనిపిస్త	-10.267
▁లబ్ధిదారుల	-10.2682
లేదంట	-10.2695
▁అశ్వ	-10.2699
▁ఇంటెలిజెన్స్	-10.27
▁అంతరిక్ష	-10.27
▁రిటై	-10.27
▁స్కోరు	-10.27
▁మంత్రివర్గ	-10.2702
▁లభిస్తుంది	-10.2703
य	-10.2734
▁ఇంటర్నేషనల్	-10.2734
▁ప్రదర్శించ	-10.2734
▁అతన్ని	-10.2734
▁నేపాల్	-10.2734
▁కోర్సు	-10.2735
▁జంతువుల	-10.2767
▁కబ్జా	-10.2768
▁జీర్ణ	-10.2778
ుండటం	-10.2778
▁అహ్మద్	-10.2801
▁భాగస్వామ్య	-10.2801
▁దక్షిణాఫ్రికా	-10.2835
▁అభిషేక	-10.2835
▁సురేష్	-10.2836
▁సమయానికి	-10.2836
▁పనితీరు	-10.287
▁తెలుప	-10.2883
▁అదనంగా	-10.2904
▁బిఆర్ఎస్	-10.2938
▁న్యాయస్థానం	-10.2938
▁రివ్యూ	-10.2938
▁ఉపయోగిస్త	-10.2941
▁దశాబ్దాల	-10.2955
రాష్ట్ర	-10.2963
म	-10.2973
ಭ	-10.2973
▁గుండెపోటు	-10.2973
▁అవినాష్	-10.2973
▁వార్డు	-10.2974
▁పర్సన్	-10.2978
▁సాధ్యమ	-10.2992
▁అప్లికేషన్	-10.3007
▁గమనార్హం	-10.3007
▁స్కోర్	-10.3008
▁బైడెన్	-10.3009
▁అండర్	-10.3012
మవుతుంది	-10.3031
▁బ్రిడ్జి	-10.3042
▁ఓపెనర్	-10.3042
▁బెదిరించ	-10.3042
▁ముంబయి	-10.3042
▁నిరంతర	-10.3042
▁కొందరి	-10.3042
▁జాతర	-10.305
▁సమన్వయ	-10.3077
▁బయటికి	-10.3078
▁అధ్యక్షుడిగా	-10.308
▁కులాల	-10.3096
▁ఇంగ్లండ్	-10.3112
▁కౌన్సిల్	-10.3112
▁చౌదరి	-10.3112
▁సర్టిఫికెట్	-10.3112
▁చిత్తూరు	-10.3112
▁సెకండ్	-10.3112
▁జనగామ	-10.3113
▁సర్పంచ్	-10.3147
▁ప్రచురించ	-10.3147
▁బిలియన్	-10.3147
▁డీజీపీ	-10.3147
▁మేనేజ్	-10.3147
▁నౌక	-10.3168
▁భువనగిరి	-10.3182
▁సుదీర్ఘ	-10.3182
▁సూచిస్తున్నారు	-10.3182
▁సోదాలు	-10.3183
▁పోషిస్త	-10.3214
▁అన్యాయం	-10.3217
▁ఉత్పత్తుల	-10.3217
▁డిపాజిట్	-10.3217
▁పిఠాపురం	-10.3217
▁రవీంద్ర	-10.3217
▁అంతేకాకుండా	-10.3217
▁గ్యా	-10.3224
▁బలగాల	-10.323
ଥ	-10.3253
▁అనుసరించ	-10.3253
▁గొంతు	-10.3253
▁చైతన్య	-10.3253
▁ఇందుకోసం	-10.3253
▁సాఫ్ట్	-10.3253
▁శంకుస్థాపన	-10.3288
▁అబ్దుల్	-10.3288
▁یہ	-10.3289
▁గ్యాంగ్	-10.3292
▁బంతి	-10.3294
▁నిలిచిపోయ	-10.3302
▁హర్యానా	-10.3324
▁ఏజెంట్	-10.3324
▁సీతక్క	-10.3324
▁ఆసీస్	-10.3331
نگ	-10.3331
▁ہیں	-10.336
▁యజమాని	-10.336
▁చక్కెర	-10.336
▁స్పేస్	-10.336
▁జరప	-10.3367
▁చేకూర	-10.3377
▁గెలుపొంద	-10.3396
▁హాస్టల్	-10.3396
▁ఏమిటి	-10.3396
ారంటే	-10.3401
▁కార్మిక	-10.3404
ದಲ್ಲಿ	-10.3413
ుడైన	-10.3417
▁భద్రాచలం	-10.3432
▁టెన్షన్	-10.3432
▁ముగియ	-10.3432
▁సందేహ	-10.3432
▁వృద్ధి	-10.3433
▁వేలాది	-10.3434
▁ప్రశాంత	-10.3454
▁చట్టాల	-10.3464
▁సెగ్మెంట్	-10.3468
▁కౌంటింగ్	-10.3468
▁తక్షణ	-10.3469
▁మినహా	-10.3469
▁శాసన	-10.3469
▁ఏనుగు	-10.347
ୀ	-10.3505
▁సిస్టమ్	-10.3541
▁టీఎంసీ	-10.3541
▁మేనేజర్	-10.3541
▁నెరవేర్చ	-10.3541
▁చార్జి	-10.3542
▁పొలిటికల్	-10.3578
▁స్ఫూర్తి	-10.3578
ଭ	-10.3578
▁ఈవీఎం	-10.3578
▁రేంజ్	-10.3579
▁విమానాల	-10.3604
ur	-10.3614
▁రహదారి	-10.3615
▁వెహికల్	-10.3615
▁లేవని	-10.3618
▁ఏమైనా	-10.3637
▁మార్కుల	-10.3639
▁సమీప	-10.3643
▁ವಿಡಿಯೋ	-10.3651
▁ప్రోత్సహించ	-10.3651
▁వృత్తి	-10.3651
▁ఐఏఎస్	-10.3651
▁పనిచేసిన	-10.3652
▁విజేత	-10.3652
▁రాజశేఖర్	-10.3688
▁కలిశారు	-10.3688
▁మూడేళ్ల	-10.3689
▁భారతీయుల	-10.3689
▁ఆకాశ	-10.3691
దగ్గ	-10.3714
▁సుందర	-10.3721
భారత	-10.3753
*	-10.3763
▁బతుకమ్మ	-10.3763
▁రైజర్స్	-10.3763
▁చోరీ	-10.3763
▁శోభ	-10.3766
▁విపక్షాల	-10.3768
మాత్రం	-10.3773
▁రాయలసీమ	-10.38
▁గాయపడిన	-10.38
▁బ్యారేజీ	-10.38
▁నిలబెట్ట	-10.3801
▁వారీగా	-10.3802
▁ఎందుక	-10.3838
▁దీపావళి	-10.3838
▁బెదిరింపు	-10.3838
▁ఢీకొట్ట	-10.3838
▁స్వతంత్ర	-10.3838
▁బీసీసీఐ	-10.3838
▁టేబుల్	-10.3838
▁జడ్జి	-10.3838
▁న్యాయమూర్తి	-10.3839
▁తుమ్మల	-10.384
▁లెవల్	-10.3849
▁ఎదురుచూస్తున్న	-10.3876
▁ధర్మాసనం	-10.3876
▁సమితి	-10.3877
▁పొన్నం	-10.3878
▁అతడు	-10.3879
▁గ్రహాల	-10.3884
▁హేమ	-10.3896
ుకోండి	-10.3909
▁బ్యూటీ	-10.3914
▁గద్వాల	-10.3914
▁పల్లె	-10.3914
▁నెరవేర	-10.3951
▁నియోజక	-10.3952
ڑ	-10.3952
द	-10.3952
ଳ	-10.3952
▁సొసైటీ	-10.3952
▁స్పోర్ట్స్	-10.3952
▁జయంతి	-10.3952
ଛି	-10.3953
▁పత్రిక	-10.3954
▁కురుస్తున్న	-10.3983
ଖ	-10.399
▁ఎగ్జామ్	-10.399
▁జేడీఎస్	-10.399
▁టమాటా	-10.399
▁మెసేజ్	-10.399
▁బీహార్	-10.399
▁వెయ్యి	-10.399
▁గురవుత	-10.3993
▁ఉత్సాహ	-10.4028
▁మల్లికార్జున	-10.4028
▁విడాకుల	-10.4029
▁వెల్లడి	-10.4035
▁దర్శక	-10.406
వర్ధన్	-10.4064
▁ಪ್ರ	-10.4067
▁క్రిమినల్	-10.4067
▁రెస్టారెంట్	-10.4067
▁కాకినాడ	-10.4067
▁లక్నో	-10.4067
షనల్	-10.4069
▁తాత్కాలిక	-10.4105
▁అరుదైన	-10.4105
▁తెల్లవారుజామున	-10.4105
▁సార్వత్రిక	-10.4105
▁దోపిడీ	-10.4105
▁వైఖరి	-10.4105
▁వినోద్	-10.4105
▁టెండర్	-10.4106
▁అడగ	-10.4107
▁రూపొంద	-10.4115
▁తీసుకోవాల్సి	-10.412
▁మృతుల	-10.4153
వినిపిస్తున్నాయి	-10.4158
▁కల్యాణ	-10.4169
▁సదుపాయాల	-10.4183
▁క్షమాపణ	-10.4183
▁కంటెంట్	-10.4183
▁లోకేశ్	-10.4189
▁వివాదాల	-10.4194
▁కమలా	-10.421
▁సిలిండర్	-10.4222
▁వనరుల	-10.4225
▁పెరుగుదల	-10.4261
కశ్మీర్	-10.4261
▁ఫేస్	-10.4264
▁జర్నలిస్టు	-10.43
▁బలోపేతం	-10.43
▁మహ్మద్	-10.43
▁వాణిజ్య	-10.43
▁లీకేజీ	-10.4301
▁కేటాయిస్త	-10.434
▁పట్టించుకోవడం	-10.434
▁ప్రతికూల	-10.434
▁చనిపోయారు	-10.4341
▁రాఘవ	-10.4343
▁తిరిగ	-10.436
▁తరచూ	-10.438
▁సంస్కృతి	-10.438
▁కాంట్రాక్టర్	-10.438
▁మోస్తరు	-10.438
▁నైట్	-10.4381
▁ఆరోపించ	-10.4384
▁అనుకో	-10.4405
▁కర్నూలు	-10.442
▁నరసింహ	-10.442
▁విభాగాల	-10.442
▁తెలియజేస్త	-10.4426
▁మైదాన	-10.4456
▁అర్బన్	-10.446
▁అర్ధరాత్రి	-10.45
▁హనుమాన్	-10.45
▁మెరుపు	-10.45
▁చిన్నారుల	-10.4502
ائی	-10.454
▁క్రెడిట్	-10.454
▁జీహెచ్ఎంసీ	-10.454
▁ఎన్డీయే	-10.454
▁హనుమకొండ	-10.454
▁అజయ్	-10.454
▁పేలుడు	-10.4542
▁ప్రతిపాది	-10.4568
▁ఖచ్చితంగా	-10.4581
▁వేర్వేరు	-10.4581
▁సపోర్ట్	-10.4581
▁అద్దె	-10.4581
▁మలయాళ	-10.4621
▁సొమ్ము	-10.4621
▁సోదరుడు	-10.4621
▁రహస్య	-10.4621
▁మనోజ్	-10.4621
▁విక్రమ్	-10.4662
▁లండన్	-10.4663
▁బంద్	-10.4666
▁ఎలక్ట్రిక్	-10.4703
▁ప్రజాప్రతినిధుల	-10.4703
▁బుమ్రా	-10.4703
▁మెదడు	-10.4703
▁ముగిసింది	-10.4744
▁మొత్తాన్ని	-10.4744
▁కండువా	-10.4744
▁డ్రోన్	-10.4744
▁ఫిల్మ్	-10.4745
▁పరామర్శించ	-10.4785
▁పండితులు	-10.4786
▁కొబ్బరి	-10.4786
▁క్రైమ్	-10.4786
▁పరిపాలన	-10.4787
▁స్టీల్	-10.4787
▁నాణ్యత	-10.4827
▁నినాదాలు	-10.4827
▁సిద్ధరామయ్య	-10.4827
▁వైయస్	-10.4828
▁వాసుల	-10.4844
▁లక్ష్మణ్	-10.4869
▁సరికొత్త	-10.4869
▁విస్తరణ	-10.4869
▁సమాధాన	-10.4886
ಎ	-10.491
▁సిగ్నల్	-10.491
▁ఎస్టేట్	-10.4911
▁కొరత	-10.4914
▁విగ్రహాల	-10.4921
▁పోల్చ	-10.493
▁ద్వార	-10.4939
▁కురుస్తాయని	-10.4952
▁నాలుగేళ్ల	-10.4952
▁మేడ్చల్	-10.4952
▁ట్రోఫీ	-10.4952
▁దెబ్బతిన్న	-10.4953
▁మౌలిక	-10.4995
▁రకరకాల	-10.4995
▁నాశనం	-10.4995
▁జ్యోతిష్య	-10.4995
▁మధ్యంతర	-10.4995
▁ముఠా	-10.4996
ైజేషన్	-10.4997
▁భూపాలపల్లి	-10.5037
▁యుక్రెయిన్	-10.5037
▁ఆకాంక్ష	-10.5037
▁ఆప్షన్	-10.5038
▁ఐక్య	-10.5043
హైడ్ర	-10.5057
▁కార్యకర్త	-10.5079
▁కార్పొరేటర్	-10.508
▁ప్రత్యర్థి	-10.508
▁స్థాపించ	-10.508
▁వికారాబాద్	-10.508
▁ఛార్జీ	-10.508
▁త్యాగ	-10.5081
▁నిలదీశారు	-10.5122
▁ವೈರಲ್	-10.5122
▁సిద్దరామయ్య	-10.5122
▁సచిన్	-10.5124
▁దింప	-10.5156
▁ఛత్తీస్	-10.5165
▁జరిమానా	-10.5165
▁ప్రయోజనం	-10.5165
▁ಮಾಡ	-10.5165
▁పోలవరం	-10.5165
▁రాబట్ట	-10.5169
ాలనుకుంటున్న	-10.5192
▁అమెరికన్	-10.5208
▁కొంచెం	-10.5208
▁నిరాకరించ	-10.5208
▁శుభ్రం	-10.5208
▁అప్డేట్	-10.5208
▁దేవస్థానం	-10.5209
▁ఆదర్శ	-10.5217
▁Re	-10.5217
▁గడిప	-10.5234
▁ఎదుర్కొంట	-10.524
▁ఏకాదశి	-10.5252
▁రీసెర్చ్	-10.5252
▁షుగర్	-10.5252
▁డైలాగ్	-10.5252
▁ఆయుధాల	-10.5252
▁ఆరంభ	-10.5252
పూరిత	-10.5257
▁ఎదుర్కొన	-10.5295
▁హెలికాప్టర్	-10.5295
▁ట్రెండ్	-10.5295
▁ہم	-10.5295
▁ఆరుగురు	-10.5296
▁అక్షర	-10.5329
▁కంప్యూటర్	-10.5339
▁కనుగొన్న	-10.5339
▁జడేజా	-10.5339
▁ఐసీసీ	-10.5339
▁పర్వత	-10.5344
▁ముగించ	-10.5369
చోట్ల	-10.5372
▁అనూహ్య	-10.5383
▁కర్నూల్	-10.5383
▁నాంపల్లి	-10.5384
▁సజ్జల	-10.5385
▁కోరుకుంటున్నా	-10.542
▁దుస్తుల	-10.5426
▁ఎగ్జిట్	-10.5427
▁సామర్థ్యం	-10.5427
▁విపత్తు	-10.5427
▁బెంచ్	-10.5427
▁చేరుకో	-10.5435
ୟ	-10.5469
▁నిర్ధారించ	-10.5471
▁విభేదాల	-10.5471
▁బిజీగా	-10.5471
▁Ra	-10.548
▁ఛాంపియన్	-10.5515
▁వివాదాస్పద	-10.5515
▁సురేఖ	-10.5515
▁అశ్విన్	-10.5516
▁కీర్తి	-10.5517
▁విడిచి	-10.5517
▁ఆసిఫాబాద్	-10.556
▁ఎక్సైజ్	-10.556
▁వర్షపాతం	-10.556
▁ఎదుర్కొన్న	-10.556
▁సమ్మె	-10.556
▁క్లబ్	-10.5565
▁ఇంటర్నెట్	-10.5605
▁తీసుకొస్త	-10.5605
▁వరుణ్	-10.5605
▁ట్రీట్	-10.5605
▁వార్నింగ్	-10.5605
▁కనీస	-10.5629
▁తెరిచ	-10.563
ೈ	-10.565
▁ఇంజినీరింగ్	-10.565
▁మావోయిస్టు	-10.565
▁ఎనర్జీ	-10.565
▁సెర్చ్	-10.565
▁ఏర్పాట్ల	-10.5652
▁నాగేశ్వరరావు	-10.5695
▁హృదయ	-10.5695
▁మొగ్గు	-10.5696
▁నిర్వహించనున్న	-10.5704
▁విదేశాంగ	-10.5741
▁దుకాణాల	-10.5741
▁శ్రీహరి	-10.5741
▁యువకుడి	-10.5743
▁గందరగోళ	-10.5786
▁కన్వీనర్	-10.5786
▁నైపుణ్య	-10.5786
▁రిజర్వాయర్	-10.5786
▁సవరణ	-10.5787
▁వేణు	-10.5788
▁వస్త్ర	-10.5798
▁కుప్పకూల	-10.5832
లేదన్న	-10.5863
ಯಲ್ಲಿ	-10.5878
▁అంబానీ	-10.5878
▁టీపీసీసీ	-10.5878
▁శారీరక	-10.5878
▁శాశ్వత	-10.5878
▁సంక్షోభ	-10.5878
▁స్వేచ్ఛ	-10.5878
▁సిక్సర్	-10.5878
▁అందువల్ల	-10.5878
▁శాతానికి	-10.5879
▁వివేకా	-10.5879
▁కాలేజ్	-10.5879
▁సందడి	-10.588
▁పరికరాల	-10.5886
▁కమ్యూనిటీ	-10.5925
▁శతాబ్ద	-10.5925
▁అభ్యంతరం	-10.5925
▁బొగ్గు	-10.5925
▁ధోనీ	-10.5925
▁అగ్రనేత	-10.5925
▁అంశాన్న	-10.5928
▁వైభవ	-10.5931
▁దశాబ్ద	-10.5949
ग	-10.5971
ଚ	-10.5971
▁క్యారెక్టర్	-10.5971
▁ప్రకృతి	-10.5971
▁మళ్ళీ	-10.5971
▁శైలి	-10.5971
▁ఉప్పల్	-10.5972
▁କରି	-10.6018
▁ఇరిగేషన్	-10.6018
▁ధన్యవాదాలు	-10.6018
▁ముగ్గురి	-10.6018
▁సీఈవో	-10.6018
▁ఆధిక్య	-10.6018
▁ధ్రువ	-10.6018
▁బాగుంటుంద	-10.6022
▁కలిసే	-10.6026
▁గౌతమ్	-10.6065
▁తిరస్కరించ	-10.6065
▁దిగ్గజ	-10.6065
▁ప్రత్యామ్నాయ	-10.6065
▁కౌశిక్	-10.6065
▁శుభవార్త	-10.6065
▁ఛానెల్	-10.6065
▁కొద్దీ	-10.6065
ब	-10.6112
▁ఆరోపిస్తున్నారు	-10.6112
▁ఎఫెక్ట్	-10.6112
▁ఏఐసీసీ	-10.6112
▁విధ్వంస	-10.6112
▁స్టాగ్రామ్	-10.6112
▁గెలిస్తే	-10.6112
▁విలీనం	-10.6112
▁విశ్వాసం	-10.6114
▁ఏర్పాట	-10.6124
▁రాణించ	-10.6139
▁ప్లాస్టిక్	-10.6159
▁వనపర్తి	-10.6159
▁స్వాతంత్ర్య	-10.6159
▁తిరుగుతున్న	-10.6159
▁లాంచ్	-10.616
▁వృద్ధుల	-10.6173
▁తరుణంలో	-10.6207
com	-10.6207
పోతోంది	-10.6245
ଷ	-10.6255
▁అమెజాన్	-10.6255
▁కార్యాచరణ	-10.6255
▁కుటుంబసభ్యుల	-10.6255
▁నిర్వాహకులు	-10.6255
▁శంషాబాద్	-10.6255
▁సేఫ్టీ	-10.6255
▁వ్రత	-10.626
▁ఆలోచిస్త	-10.6264
▁ట్యాపింగ్	-10.6303
▁రవీందర్	-10.6303
▁వృషభ	-10.6303
▁స్పూన్	-10.6303
▁డ్యూటీ	-10.6303
▁నివసించ	-10.6303
▁మోటార్	-10.6303
▁దొరుకుత	-10.6304
▁ఉత్తర్వుల	-10.6336
▁పురోగతి	-10.6351
▁తుపాను	-10.6351
▁న్యాయవాదుల	-10.6352
▁పుణ్య	-10.6352
▁ఆదేశించ	-10.6354
▁చదివి	-10.6398
ज	-10.64
ଶ	-10.64
ాభివృద్ధి	-10.64
▁తహసీల్దార్	-10.64
▁పథకాన్ని	-10.64
▁ప్రాతినిధ్యం	-10.64
▁మెగాస్టార్	-10.64
▁పర్మిషన్	-10.64
▁వసూళ్ల	-10.6401
▁కాశ్మీర్	-10.6448
▁కొనుగోళ్ల	-10.6448
▁నిరూపించ	-10.645
▁సంక్రాంతి	-10.6497
▁ఎంఐఎం	-10.6497
▁ఎంజాయ్	-10.6497
▁వార్షిక	-10.6497
▁గడిచిన	-10.6498
▁చెన్నూరు	-10.6498
▁కట్టుబడి	-10.6498
▁సంకేతాల	-10.6498
▁జోక్యం	-10.6498
▁అధిష్టానం	-10.6547
▁నిమిత్తం	-10.6547
▁నెహ్రూ	-10.6547
▁వెస్టిండీస్	-10.6547
▁శ్రావణ	-10.6547
▁విదేశాల్లో	-10.6547
▁ఇదంతా	-10.6547
▁పటిష్ట	-10.6547
▁బంగ్లా	-10.6547
▁కొవ్వు	-10.6548
▁అంకిత	-10.6553
▁పారిశ్రామిక	-10.6596
▁జార్ఖండ్	-10.6596
▁డాక్యుమెంట్	-10.6596
ಫ	-10.6596
▁సల్మాన్	-10.6597
▁కార్పొరేట్	-10.6646
▁తీసుకెళ్త	-10.6646
▁సహాయపడుతుంది	-10.6646
▁రేపటి	-10.6646
▁ఉపాధ్యక్ష	-10.6696
▁ఉపశమనం	-10.6696
▁లావాదేవీల	-10.6696
▁దేవరకొండ	-10.6696
▁నిపుణుల	-10.6732
▁కల్వకుంట్ల	-10.6746
▁స్పెక్టర్	-10.6746
ಿಗೆ	-10.6746
▁కలిగే	-10.6751
▁సందర్బంగా	-10.6797
▁నియంత్రించ	-10.6797
▁కిడ్నీ	-10.6797
▁మసీదు	-10.6797
ಿದ್ದ	-10.6824
▁కిడ్నాప్	-10.6848
▁ప్రకాశం	-10.6848
▁మేడిగడ్డ	-10.6848
▁డేవిడ్	-10.6848
▁డీసీపీ	-10.6848
మూర్తుల	-10.6867
▁లబ్ధి	-10.6875
▁ఆవిష్కరించ	-10.6899
▁وائرل	-10.6899
▁దృశ్యాల	-10.6899
▁రుతుపవనాల	-10.6899
▁డీఎస్పీ	-10.6899
▁వ్యాప్తి	-10.6899
▁ఆగిపోయ	-10.6915
▁ఎమోషనల్	-10.695
▁డైరెక్ట్	-10.695
▁తేలికపాటి	-10.695
▁న్యూయార్క్	-10.695
▁శ్రీశైలం	-10.695
▁డ్యాన్స్	-10.695
▁రిపేర్	-10.695
▁స్టాలిన్	-10.695
▁కాంప్లెక్స్	-10.7001
▁దుబాయ్	-10.7001
▁నడ్డా	-10.7002
व	-10.7053
▁ఆధ్యాత్మిక	-10.7053
▁కమర్షియల్	-10.7053
▁తద్వారా	-10.7053
▁పర్యవేక్షణ	-10.7053
▁మనోహర్	-10.7053
▁సంయుక్త	-10.7053
ఇంగ్లీష్	-10.7053
▁వర్సిటీ	-10.7053
▁విత్తనాల	-10.7054
▁కూల్చివేత	-10.7054
ଙ୍କ	-10.7105
▁అథారిటీ	-10.7105
▁ఎలక్ట్రానిక్	-10.7105
▁బ్రాహ్మణ	-10.7105
▁ప్రోగ్రామ్	-10.7105
▁కామెడీ	-10.7105
▁నివారించ	-10.7105
▁స్నానం	-10.7106
▁నెగ్గ	-10.7109
▁ఆసుపత్రుల	-10.7158
▁రెస్పాన్స్	-10.7158
▁సంరక్షణ	-10.7158
▁సుధాకర్	-10.7158
▁హుండీ	-10.7158
▁ఆభరణాల	-10.7158
▁గుప్తా	-10.7158
▁vs	-10.7158
కూడద	-10.7187
▁గవర్నమెంట్	-10.721
▁తీర్చిదిద్ద	-10.721
▁ల్యాండర్	-10.721
▁గులాబీ	-10.721
భూషణ్	-10.7211
▁తీర్థ	-10.7211
▁దక్కించుకున్న	-10.7213
▁వందేభారత్	-10.7263
▁ఉక్రెయిన్	-10.7263
▁అందజేస్త	-10.7272
▁నిర్మిస్త	-10.7285
▁ఆధునిక	-10.7316
▁కృతజ్ఞతలు	-10.7316
▁మైనారిటీ	-10.7316
+	-10.7864
ض	-10.815
ಈ	-10.8385
x	-10.8564
ଁ	-10.8686
>	-10.9317
ଫ	-10.9382
ु	-10.9448
ै	-10.9648
&	-11.0131
@	-11.0131
غ	-11.0202
ଛ	-11.0342
ظ	-11.0638
ଂ	-11.1738
ذ	-11.199
च	-11.2604
भ	-11.2695
ट	-11.2973
ೃ	-11.3258
‭	-11.3355
अ	-11.3856
`	-11.4063
श	-11.4168
ए	-11.4274
ಉ	-11.4382
Z	-11.4382
ड	-11.4824
Q	-11.4824
z	-11.4938
ू	-11.5169
୨	-11.5169
്	-11.5648
଼	-11.6023
ୂ	-11.6151
்	-11.6281
_	-11.6413
☛	-11.6546
आ	-11.6681
ଓ	-11.6681
q	-11.6681
ଘ	-11.6957
ख	-11.7098
ध	-11.7533
ୱ	-11.7682
ୌ	-11.7987
ଠ	-11.8302
ʼ	-11.8628
ಒ	-11.8964
फ	-11.9672
୦	-11.9857
ؤ	-12.0046
थ	-12.0046
=	-12.0238
ث	-12.0634
୧	-12.1259
ക	-12.1699
ୃ	-12.1926
ఊ	-12.2251
इ	-12.2397
ി	-12.3147
ई	-12.3681
ष	-12.3959
•	-12.4244
த	-12.4841
ఙ	-12.5154
[	-12.5154
ಏ	-12.5154
]	-12.5154
­	-12.5154
⁪	-12.5154
ಐ	-12.5476
ఋ	-12.5476
ಘ	-12.5476
‪	-12.581
उ	-12.581
ೌ	-12.581
க	-12.6155
ण	-12.6512
ِ	-12.6512
ப	-12.6512
ന	-12.6512
ٰ	-12.6882
୪	-12.6882
°	-12.6882
യ	-12.7667
া	-12.7667
ம	-12.8518
ு	-12.8518
छ	-12.8518
ു	-12.8518
ಠ	-12.8518
ட	-12.8973
ओ	-12.8973
ি	-12.9449
ാ	-12.9449
ठ	-12.9949
ఱ	-12.9949
౦	-12.9949
ട	-13.1031
ଵ	-13.1031
র	-13.1619
্	-13.2244
ୈ	-13.2911
ক	-13.2911
ர	-13.2911
ல	-13.2911
வ	-13.2911
‐	-13.2911
୩	-13.2911
ற	-13.3625
୮	-13.3625
ள	-13.4394
ா	-13.4394
െ	-13.4394
୬	-13.4394
ല	-13.4394
വ	-13.4394
ଝ	-13.5227
ണ	-13.5228
ব	-13.5228
୯	-13.6137
ഷ	-13.6137
َ	-13.6137
ম	-13.6137
୭	-13.6137
ন	-13.6137
ে	-13.7137
ോ	-13.7137
ॉ	-13.7137
ي	-13.7137
ಅ	-13.8101
റ	-13.8248
ச	-13.8248
؟	-13.8248
ু	-13.8248
ত	-13.9498
ৰ	-13.9498
ژ	-13.9498
ृ	-13.9498
ە	-13.9498
॥	-13.9498
ன	-13.9498
‒	-13.9498
ை	-13.9498
ौ	-13.9498
ந	-13.9498
സ	-13.9498
ര	-13.9498
മ	-13.9498
ো	-14.0926
য	-14.0926
ெ	-14.0926
ൽ	-14.0926
′	-14.0926
◉	-14.0926
♦	-14.0926
ഡ	-14.0926
★	-14.2593
স	-14.2593
ಢ	-14.2593
ർ	-14.2593
🚩	-14.4593
়	-14.4593
😂	-14.4593
\	-14.7093
ও	-14.7093
ধ	-14.7093
ه	-14.7093
ّ	-14.7093
এ	-14.7093
౩	-14.7093
ം	-14.7093
ൂ	-14.7093
ൾ	-14.7093
ൗ	-14.7093
ொ	-14.7093
💪	-15.0426
ऊ	-15.0426
ଈ	-15.0426
🔥	-15.0426
×	-15.0426
ُ	-15.0426
०	-15.0426
ট	-15.0426
ড	-15.0426
দ	-15.0426
ফ	-15.0426
হ	-15.0426
ଃ	-15.0426
ಃ	-15.0426
ಝ	-15.0426
⃣	-15.0426
⦁	-15.0426
️	-15.0426
~	-15.0426
ư	-15.0426
ீ	-15.0426
🙏	-15.0426
ூ	-15.5426
२	-15.5426
౹	-15.5426
â	-15.5426
ơ	-15.5426
أ	-15.5426
ً	-15.5426
ڕ	-15.5426
ः	-15.5426
শ	-15.5426
ী	-15.5426
ஜ	-15.5426
ഈ	-15.5426
ഭ	-15.5426
ശ	-15.5426
േ	-15.5426
ൊ	-15.5426
ൻ	-15.5426
ố	-15.5426
⁫	-15.5426
⁯	-15.5426
👌	-15.5426
💚	-15.5426
😡	-15.5426
চ	-15.5426
ಔ	-15.5426
ভ	-15.5426
ৱ	-15.5426
👉	-16.5357
◆	-16.5358
ൃ	-16.5359
౧	-16.536
ఁ	-16.5361
ஏ	-16.5362
গ	-16.5363
অ	-16.5364
⁄	-16.5365
ண	-16.5366
ऑ	-16.5367
ँ	-16.5368
·	-16.5369
ധ	-16.537
എ	-16.5371
ங	-16.5372
அ	-16.5373
ञ	-16.5374
đ	-16.5375
ീ	-16.5376
ோ	-16.5377
எ	-16.5378
🇳	-16.5379
❌	-16.538
ള	-16.5381
ജ	-16.5382
ಛ	-16.5383
জ	-16.5384
🇮	-16.5385
ങ	-16.5386
প	-16.5387
ء	-16.5388
►	-16.5389
അ	-16.539
ய	-16.5391
ল	-16.5392
ଢ	-16.5393
ऐ	-16.5394
⁠	-16.5395
ച	-16.5396
●	-16.5397
ಞ	-16.5398
ढ	-16.5399
झ	-16.54
ಊ	-16.5401
ത	-16.5402
୫	-16.5403
घ	-16.5404
ಓ	-16.5405
$	-16.5406
പ	-16.5407
₹	-16.5408
ி	-16.5409
ଞ	-16.541
औ	-16.5411
़	-16.5412
➦	-16.5413
ಥ	-16.5414
ಖ	-16.5415
ଙ	-16.5416
ଧ	-16.5417
ଅ	-16.5418
ଯ	-16.5419
آ	-16.542
्	-16.5421
ಆ	-16.5422
ఔ	-16.5423
ھ	-16.5424
ئ	-16.5425
ఞ	-16.5426
ே	-16.5426
ദ	-16.5426
ഴ	-16.5426
🤭	-16.5426
Á	-16.5426
🔸	-16.5426
<	-16.5426
£	-16.5426
©	-16.5426
æ	-16.5426
α	-16.5426
β	-16.5426
؛	-16.5426
إ	-16.5426
ى	-16.5426
ڵ	-16.5426
ۆ	-16.5426
ێ	-16.5426
४	-16.5426
ঃ	-16.5426
আ	-16.5426
ৈ	-16.5426
இ	-16.5426
உ	-16.5426
ஸ	-16.5426
ఽ	-16.5426
ౄ	-16.5426
ౖ	-16.5426
౪	-16.5426
౬	-16.5426
ആ	-16.5426
ഗ	-16.5426
ബ	-16.5426
ൈ	-16.5426
ả	-16.5426
ầ	-16.5426
ậ	-16.5426
ệ	-16.5426
ớ	-16.5426
ở	-16.5426
ợ	-16.5426
ứ	-16.5426
‫	-16.5426
‬	-16.5426
€	-16.5426
∙	-16.5426
≠	-16.5426
▪	-16.5426
♥	-16.5426
✳	-16.5426
➡	-16.5426
🇪	-16.5426
🇬	-16.5426
🌹	-16.5426
🏼	-16.5426
👇	-16.5426
👋	-16.5426
💐	-16.5426
💥	-16.5426
🔴	-16.5426
🔹	-16.5426
😉	-16.5426
😊	-16.5426
😜	-16.5426
😞	-16.5426
😠	-16.5426
😥	-16.5426
🙂	-16.5426
🤜	-16.5426
ഇ	-16.5426
ഒ	-16.5426
👊	-16.5426
́	-16.5426
ஊ	-16.5426
ờ	-16.5426
(	-16.5427
ஆ	-16.5427
