{
  "version": "1.0",
  "truncation": null,
  "padding": null,
  "added_tokens": [
    {
      "id": 0,
      "content": "[UNK]",
      "single_word": false,
      "lstrip": false,
      "rstrip": false,
      "normalized": false,
      "special": true
    },
    {
      "id": 1,
      "content": "[CLS]",
      "single_word": false,
      "lstrip": false,
      "rstrip": false,
      "normalized": false,
      "special": true
    },
    {
      "id": 2,
      "content": "[SEP]",
      "single_word": false,
      "lstrip": false,
      "rstrip": false,
      "normalized": false,
      "special": true
    },
    {
      "id": 3,
      "content": "[PAD]",
      "single_word": false,
      "lstrip": false,
      "rstrip": false,
      "normalized": false,
      "special": true
    },
    {
      "id": 4,
      "content": "[MASK]",
      "single_word": false,
      "lstrip": false,
      "rstrip": false,
      "normalized": false,
      "special": true
    }
  ],
  "normalizer": {
    "type": "Sequence",
    "normalizers": [
      {
        "type": "NFKC"
      },
      {
        "type": "Lowercase"
      }
    ]
  },
  "pre_tokenizer": {
    "type": "Whitespace"
  },
  "post_processor": null,
  "decoder": {
    "type": "WordPiece",
    "prefix": "##",
    "cleanup": true
  },
  "model": {
    "type": "WordPiece",
    "unk_token": "[UNK]",
    "continuing_subword_prefix": "##",
    "max_input_chars_per_word": 100,
    "vocab": {
      "[UNK]": 0,
      "[CLS]": 1,
      "[SEP]": 2,
      "[PAD]": 3,
      "[MASK]": 4,
      "!": 5,
      "\"": 6,
      "#": 7,
      "$": 8,
      "%": 9,
      "&": 10,
      "'": 11,
      "(": 12,
      ")": 13,
      "*": 14,
      "+": 15,
      ",": 16,
      "-": 17,
      ".": 18,
      "/": 19,
      "0": 20,
      "1": 21,
      "2": 22,
      "3": 23,
      "4": 24,
      "5": 25,
      "6": 26,
      "7": 27,
      "8": 28,
      "9": 29,
      ":": 30,
      ";": 31,
      "<": 32,
      "=": 33,
      ">": 34,
      "?": 35,
      "@": 36,
      "[": 37,
      "\\": 38,
      "]": 39,
      "_": 40,
      "`": 41,
      "a": 42,
      "b": 43,
      "c": 44,
      "d": 45,
      "e": 46,
      "f": 47,
      "g": 48,
      "h": 49,
      "i": 50,
      "j": 51,
      "k": 52,
      "l": 53,
      "m": 54,
      "n": 55,
      "o": 56,
      "p": 57,
      "q": 58,
      "r": 59,
      "s": 60,
      "t": 61,
      "u": 62,
      "v": 63,
      "w": 64,
      "x": 65,
      "y": 66,
      "z": 67,
      "~": 68,
      "£": 69,
      "©": 70,
      "­": 71,
      "°": 72,
      "·": 73,
      "×": 74,
      "á": 75,
      "â": 76,
      "æ": 77,
      "đ": 78,
      "ơ": 79,
      "ư": 80,
      "ʼ": 81,
      "́": 82,
      "α": 83,
      "β": 84,
      "،": 85,
      "؛": 86,
      "؟": 87,
      "ء": 88,
      "آ": 89,
      "أ": 90,
      "ؤ": 91,
      "إ": 92,
      "ئ": 93,
      "ا": 94,
      "ب": 95,
      "ت": 96,
      "ث": 97,
      "ج": 98,
      "ح": 99,
      "خ": 100,
      "د": 101,
      "ذ": 102,
      "ر": 103,
      "ز": 104,
      "س": 105,
      "ش": 106,
      "ص": 107,
      "ض": 108,
      "ط": 109,
      "ظ": 110,
      "ع": 111,
      "غ": 112,
      "ف": 113,
      "ق": 114,
      "ل": 115,
      "م": 116,
      "ن": 117,
      "ه": 118,
      "و": 119,
      "ى": 120,
      "ي": 121,
      "ً": 122,
      "َ": 123,
      "ُ": 124,
      "ِ": 125,
      "ّ": 126,
      "ٰ": 127,
      "ٹ": 128,
      "پ": 129,
      "چ": 130,
      "ڈ": 131,
      "ڑ": 132,
      "ڕ": 133,
      "ژ": 134,
      "ک": 135,
      "گ": 136,
      "ڵ": 137,
      "ں": 138,
      "ھ": 139,
      "ہ": 140,
      "ۆ": 141,
      "ی": 142,
      "ێ": 143,
      "ے": 144,
      "۔": 145,
      "ە": 146,
      "ँ": 147,
      "ं": 148,
      "ः": 149,
      "अ": 150,
      "आ": 151,
      "इ": 152,
      "ई": 153,
      "उ": 154,
      "ऊ": 155,
      "ए": 156,
      "ऐ": 157,
      "ऑ": 158,
      "ओ": 159,
      "औ": 160,
      "क": 161,
      "ख": 162,
      "ग": 163,
      "घ": 164,
      "च": 165,
      "छ": 166,
      "ज": 167,
      "झ": 168,
      "ञ": 169,
      "ट": 170,
      "ठ": 171,
      "ड": 172,
      "ढ": 173,
      "ण": 174,
      "त": 175,
      "थ": 176,
      "द": 177,
      "ध": 178,
      "न": 179,
      "प": 180,
      "फ": 181,
      "ब": 182,
      "भ": 183,
      "म": 184,
      "य": 185,
      "र": 186,
      "ल": 187,
      "व": 188,
      "श": 189,
      "ष": 190,
      "स": 191,
      "ह": 192,
      "़": 193,
      "ा": 194,
      "ि": 195,
      "ी": 196,
      "ु": 197,
      "ू": 198,
      "ृ": 199,
      "े": 200,
      "ै": 201,
      "ॉ": 202,
      "ो": 203,
      "ौ": 204,
      "्": 205,
      "।": 206,
      "॥": 207,
      "०": 208,
      "२": 209,
      "४": 210,
      "ঃ": 211,
      "অ": 212,
      "আ": 213,
      "এ": 214,
      "ও": 215,
      "ক": 216,
      "গ": 217,
      "চ": 218,
      "জ": 219,
      "ট": 220,
      "ড": 221,
      "ত": 222,
      "দ": 223,
      "ধ": 224,
      "ন": 225,
      "প": 226,
      "ফ": 227,
      "ব": 228,
      "ভ": 229,
      "ম": 230,
      "য": 231,
      "র": 232,
      "ল": 233,
      "শ": 234,
      "স": 235,
      "হ": 236,
      "়": 237,
      "া": 238,
      "ি": 239,
      "ী": 240,
      "ু": 241,
      "ে": 242,
      "ৈ": 243,
      "ো": 244,
      "্": 245,
      "ৰ": 246,
      "ৱ": 247,
      "ଁ": 248,
      "ଂ": 249,
      "ଃ": 250,
      "ଅ": 251,
      "ଆ": 252,
      "ଇ": 253,
      "ଈ": 254,
      "ଉ": 255,
      "ଏ": 256,
      "ଓ": 257,
      "କ": 258,
      "ଖ": 259,
      "ଗ": 260,
      "ଘ": 261,
      "ଙ": 262,
      "ଚ": 263,
      "ଛ": 264,
      "ଜ": 265,
      "ଝ": 266,
      "ଞ": 267,
      "ଟ": 268,
      "ଠ": 269,
      "ଡ": 270,
      "ଢ": 271,
      "ଣ": 272,
      "ତ": 273,
      "ଥ": 274,
      "ଦ": 275,
      "ଧ": 276,
      "ନ": 277,
      "ପ": 278,
      "ଫ": 279,
      "ବ": 280,
      "ଭ": 281,
      "ମ": 282,
      "ଯ": 283,
      "ର": 284,
      "ଲ": 285,
      "ଳ": 286,
      "ଵ": 287,
      "ଶ": 288,
      "ଷ": 289,
      "ସ": 290,
      "ହ": 291,
      "଼": 292,
      "ା": 293,
      "ି": 294,
      "ୀ": 295,
      "ୁ": 296,
      "ୂ": 297,
      "ୃ": 298,
      "େ": 299,
      "ୈ": 300,
      "ୋ": 301,
      "ୌ": 302,
      "୍": 303,
      "ୟ": 304,
      "୦": 305,
      "୧": 306,
      "୨": 307,
      "୩": 308,
      "୪": 309,
      "୫": 310,
      "୬": 311,
      "୭": 312,
      "୮": 313,
      "୯": 314,
      "ୱ": 315,
      "அ": 316,
      "ஆ": 317,
      "இ": 318,
      "உ": 319,
      "ஊ": 320,
      "எ": 321,
      "ஏ": 322,
      "க": 323,
      "ங": 324,
      "ச": 325,
      "ஜ": 326,
      "ட": 327,
      "ண": 328,
      "த": 329,
      "ந": 330,
      "ன": 331,
      "ப": 332,
      "ம": 333,
      "ய": 334,
      "ர": 335,
      "ற": 336,
      "ல": 337,
      "ள": 338,
      "வ": 339,
      "ஸ": 340,
      "ா": 341,
      "ி": 342,
      "ீ": 343,
      "ு": 344,
      "ூ": 345,
      "ெ": 346,
      "ே": 347,
      "ை": 348,
      "ொ": 349,
      "ோ": 350,
      "்": 351,
      "ఁ": 352,
      "ం": 353,
      "ః": 354,
      "అ": 355,
      "ఆ": 356,
      "ఇ": 357,
      "ఈ": 358,
      "ఉ": 359,
      "ఊ": 360,
      "ఋ": 361,
      "ఎ": 362,
      "ఏ": 363,
      "ఐ": 364,
      "ఒ": 365,
      "ఓ": 366,
      "ఔ": 367,
      "క": 368,
      "ఖ": 369,
      "గ": 370,
      "ఘ": 371,
      "ఙ": 372,
      "చ": 373,
      "ఛ": 374,
      "జ": 375,
      "ఝ": 376,
      "ఞ": 377,
      "ట": 378,
      "ఠ": 379,
      "డ": 380,
      "ఢ": 381,
      "ణ": 382,
      "త": 383,
      "థ": 384,
      "ద": 385,
      "ధ": 386,
      "న": 387,
      "ప": 388,
      "ఫ": 389,
      "బ": 390,
      "భ": 391,
      "మ": 392,
      "య": 393,
      "ర": 394,
      "ఱ": 395,
      "ల": 396,
      "ళ": 397,
      "వ": 398,
      "శ": 399,
      "ష": 400,
      "స": 401,
      "హ": 402,
      "ఽ": 403,
      "ా": 404,
      "ి": 405,
      "ీ": 406,
      "ు": 407,
      "ూ": 408,
      "ృ": 409,
      "ౄ": 410,
      "ె": 411,
      "ే": 412,
      "ై": 413,
      "ొ": 414,
      "ో": 415,
      "ౌ": 416,
      "్": 417,
      "ౖ": 418,
      "౦": 419,
      "౧": 420,
      "౩": 421,
      "౪": 422,
      "౬": 423,
      "౹": 424,
      "ಂ": 425,
      "ಃ": 426,
      "ಅ": 427,
      "ಆ": 428,
      "ಇ": 429,
      "ಈ": 430,
      "ಉ": 431,
      "ಊ": 432,
      "ಎ": 433,
      "ಏ": 434,
      "ಐ": 435,
      "ಒ": 436,
      "ಓ": 437,
      "ಔ": 438,
      "ಕ": 439,
      "ಖ": 440,
      "ಗ": 441,
      "ಘ": 442,
      "ಚ": 443,
      "ಛ": 444,
      "ಜ": 445,
      "ಝ": 446,
      "ಞ": 447,
      "ಟ": 448,
      "ಠ": 449,
      "ಡ": 450,
      "ಢ": 451,
      "ಣ": 452,
      "ತ": 453,
      "ಥ": 454,
      "ದ": 455,
      "ಧ": 456,
      "ನ": 457,
      "ಪ": 458,
      "ಫ": 459,
      "ಬ": 460,
      "ಭ": 461,
      "ಮ": 462,
      "ಯ": 463,
      "ರ": 464,
      "ಲ": 465,
      "ಳ": 466,
      "ವ": 467,
      "ಶ": 468,
      "ಷ": 469,
      "ಸ": 470,
      "ಹ": 471,
      "ಾ": 472,
      "ಿ": 473,
      "ೀ": 474,
      "ು": 475,
      "ೂ": 476,
      "ೃ": 477,
      "ೆ": 478,
      "ೇ": 479,
      "ೈ": 480,
      "ೊ": 481,
      "ೋ": 482,
      "ೌ": 483,
      "್": 484,
      "ം": 485,
      "അ": 486,
      "ആ": 487,
      "ഇ": 488,
      "ഈ": 489,
      "എ": 490,
      "ഒ": 491,
      "ക": 492,
      "ഗ": 493,
      "ങ": 494,
      "ച": 495,
      "ജ": 496,
      "ട": 497,
      "ഡ": 498,
      "ണ": 499,
      "ത": 500,
      "ദ": 501,
      "ധ": 502,
      "ന": 503,
      "പ": 504,
      "ബ": 505,
      "ഭ": 506,
      "മ": 507,
      "യ": 508,
      "ര": 509,
      "റ": 510,
      "ല": 511,
      "ള": 512,
      "ഴ": 513,
      "വ": 514,
      "ശ": 515,
      "ഷ": 516,
      "സ": 517,
      "ാ": 518,
      "ി": 519,
      "ീ": 520,
      "ു": 521,
      "ൂ": 522,
      "ൃ": 523,
      "െ": 524,
      "േ": 525,
      "ൈ": 526,
      "ൊ": 527,
      "ോ": 528,
      "്": 529,
      "ൗ": 530,
      "ൻ": 531,
      "ർ": 532,
      "ൽ": 533,
      "ൾ": 534,
      "ả": 535,
      "ầ": 536,
      "ậ": 537,
      "ệ": 538,
      "ố": 539,
      "ớ": 540,
      "ờ": 541,
      "ở": 542,
      "ợ": 543,
      "ứ": 544,
      "‌": 545,
      "‍": 546,
      "‎": 547,
      "‏": 548,
      "‐": 549,
      "‒": 550,
      "•": 551,
      "‪": 552,
      "‫": 553,
      "‬": 554,
      "‭": 555,
      "′": 556,
      "⁄": 557,
      "⁠": 558,
      "⁪": 559,
      "⁫": 560,
      "⁬": 561,
      "⁭": 562,
      "⁯": 563,
      "€": 564,
      "₹": 565,
      "⃣": 566,
      "∙": 567,
      "≠": 568,
      "▪": 569,
      "►": 570,
      "◆": 571,
      "◉": 572,
      "●": 573,
      "★": 574,
      "☛": 575,
      "♥": 576,
      "♦": 577,
      "✳": 578,
      "❌": 579,
      "➡": 580,
      "➦": 581,
      "⦁": 582,
      "️": 583,
      "🇪": 584,
      "🇬": 585,
      "🇮": 586,
      "🇳": 587,
      "🌹": 588,
      "🏼": 589,
      "👇": 590,
      "👉": 591,
      "👊": 592,
      "👋": 593,
      "👌": 594,
      "💐": 595,
      "💚": 596,
      "💥": 597,
      "💪": 598,
      "🔥": 599,
      "🔴": 600,
      "🔸": 601,
      "🔹": 602,
      "😂": 603,
      "😉": 604,
      "😊": 605,
      "😜": 606,
      "😞": 607,
      "😠": 608,
      "😡": 609,
      "😥": 610,
      "🙂": 611,
      "🙏": 612,
      "🚩": 613,
      "🤜": 614,
      "🤭": 615,
      "##ొ": 616,
      "##ల": 617,
      "##ర": 618,
      "##ా": 619,
      "##డ": 620,
      "##ో": 621,
      "##త": 622,
      "##్": 623,
      "##స": 624,
      "##వ": 625,
      "##ు": 626,
      "##ر": 627,
      "##ే": 628,
      "##య": 629,
      "##బ": 630,
      "##ి": 631,
      "##ం": 632,
      "##ద": 633,
      "##న": 634,
      "##ౌ": 635,
      "##ೋ": 636,
      "##ಗ": 637,
      "##ು": 638,
      "##ತ": 639,
      "##್": 640,
      "##ಿ": 641,
      "##ట": 642,
      "##ప": 643,
      "##జ": 644,
      "##ై": 645,
      "##ష": 646,
      "##మ": 647,
      "##క": 648,
      "##ె": 649,
      "##‌": 650,
      "##ళ": 651,
      "##ణ": 652,
      "##భ": 653,
      "##గ": 654,
      "##ఫ": 655,
      "##ీ": 656,
      "##ూ": 657,
      "##హ": 658,
      "##చ": 659,
      "##ृ": 660,
      "##त": 661,
      "##्": 662,
      "##व": 663,
      "##a": 664,
      "##m": 665,
      "##p": 666,
      "##థ": 667,
      "##ధ": 668,
      "##o": 669,
      "##c": 670,
      "##l": 671,
      "##శ": 672,
      "##ی": 673,
      "##2": 674,
      "##k": 675,
      "##ఖ": 676,
      "##ృ": 677,
      "##ل": 678,
      "##ق": 679,
      "##ہ": 680,
      "##ఠ": 681,
      "##ఛ": 682,
      "##h": 683,
      "##i": 684,
      "##t": 685,
      "##ಟ": 686,
      "##n": 687,
      "##e": 688,
      "##ଟ": 689,
      "##େ": 690,
      "##‍": 691,
      "##z": 692,
      "##ପ": 693,
      "##୍": 694,
      "##ତ": 695,
      "##ఎ": 696,
      "##అ": 697,
      "##d": 698,
      "##ذ": 699,
      "##1": 700,
      "##9": 701,
      "##ର": 702,
      "##ମ": 703,
      "##s": 704,
      "##ା": 705,
      "##u": 706,
      "##w": 707,
      "##r": 708,
      "##چ": 709,
      "##ଂ": 710,
      "##ଖ": 711,
      "##ୟ": 712,
      "##ఘ": 713,
      "##ସ": 714,
      "##ନ": 715,
      "##ن": 716,
      "##ا": 717,
      "##خ": 718,
      "##ت": 719,
      "##y": 720,
      "##g": 721,
      "##ದ": 722,
      "##ಾ": 723,
      "##ವ": 724,
      "##ರ": 725,
      "##۔": 726,
      "##ೇ": 727,
      "##ಂ": 728,
      "##ఱ": 729,
      "##ఏ": 730,
      "##7": 731,
      "##ଭ": 732,
      "##ି": 733,
      "##କ": 734,
      "##ଲ": 735,
      "##ః": 736,
      "##ఈ": 737,
      "##ा": 738,
      "##ह": 739,
      "##ु": 740,
      "##ल": 741,
      "##f": 742,
      "##ڑ": 743,
      "##4": 744,
      "##x": 745,
      "##ئ": 746,
      "##ز": 747,
      "##ർ": 748,
      "##ക": 749,
      "##്": 750,
      "##ു": 751,
      "##ം": 752,
      "##ب": 753,
      "##د": 754,
      "##5": 755,
      "##و": 756,
      "##୨": 757,
      "##୯": 758,
      "##ನ": 759,
      "##0": 760,
      "##ೆ": 761,
      "##ٹ": 762,
      "##3": 763,
      "##ಮ": 764,
      "##ೀ": 765,
      "##ଏ": 766,
      "##ଆ": 767,
      "##ଇ": 768,
      "##ʼ": 769,
      "##🇮": 770,
      "##🇳": 771,
      "##ಉ": 772,
      "##غ": 773,
      "##ୱ": 774,
      "##.": 775,
      "##_": 776,
      "##b": 777,
      "##گ": 778,
      "##ఆ": 779,
      "##ಶ": 780,
      "##ବ": 781,
      "##6": 782,
      "##\"": 783,
      "##क": 784,
      "##ू": 785,
      "##ಯ": 786,
      "##8": 787,
      "##ک": 788,
      "##ଜ": 789,
      "##ଦ": 790,
      "##ग": 791,
      "##ख": 792,
      "##ि": 793,
      "##े": 794,
      "##श": 795,
      "##ض": 796,
      "##ಲ": 797,
      "##ఢ": 798,
      "##ش": 799,
      "##ो": 800,
      "##ୁ": 801,
      "##ಸ": 802,
      "##ಪ": 803,
      "##ಕ": 804,
      "##ज": 805,
      "##य": 806,
      "##ص": 807,
      "##ಳ": 808,
      "##ಚ": 809,
      "##ೈ": 810,
      "##ಜ": 811,
      "##ಡ": 812,
      "##ఋ": 813,
      "##ୀ": 814,
      "##ೂ": 815,
      "##ఞ": 816,
      "##ے": 817,
      "##ଷ": 818,
      "##ع": 819,
      "##ଡ": 820,
      "##v": 821,
      "##ఐ": 822,
      "##ج": 823,
      "##q": 824,
      "##ح": 825,
      "##र": 826,
      "##ظ": 827,
      "##ी": 828,
      "##ब": 829,
      "##س": 830,
      "##स": 831,
      "##ಹ": 832,
      "##प": 833,
      "##ई": 834,
      "##ڈ": 835,
      "##ଚ": 836,
      "##ھ": 837,
      "##ହ": 838,
      "##ଶ": 839,
      "##م": 840,
      "##ୂ": 841,
      "##ଳ": 842,
      "##ୃ": 843,
      "##न": 844,
      "##پ": 845,
      "##ఓ": 846,
      "##फ": 847,
      "##:": 848,
      "##ಣ": 849,
      "##j": 850,
      "##ಬ": 851,
      "##,": 852,
      "##ఙ": 853,
      "##म": 854,
      "##ଗ": 855,
      "##ं": 856,
      "##ں": 857,
      "##ف": 858,
      "##ി": 859,
      "##ങ": 860,
      "##ള": 861,
      "##ട": 862,
      "##െ": 863,
      "##ಷ": 864,
      "##ଧ": 865,
      "##ष": 866,
      "##ट": 867,
      "##ೊ": 868,
      "##౦": 869,
      "##ଞ": 870,
      "##ط": 871,
      "##ற": 872,
      "##்": 873,
      "##ப": 874,
      "##ட": 875,
      "##ଣ": 876,
      "##ி": 877,
      "##க": 878,
      "##த": 879,
      "##ங": 880,
      "##ள": 881,
      "##ல": 882,
      "##வ": 883,
      "##ா": 884,
      "##ர": 885,
      "##ம": 886,
      "##ड": 887,
      "##इ": 888,
      "##آ": 889,
      "##़": 890,
      "##ಠ": 891,
      "##ٰ": 892,
      "##ര": 893,
      "##ശ": 894,
      "##ോ": 895,
      "##ധ": 896,
      "##ന": 897,
      "##०": 898,
      "##२": 899,
      "##४": 900,
      "##ध": 901,
      "##ଓ": 902,
      "##ث": 903,
      "##ଙ": 904,
      "##?": 905,
      "##ả": 906,
      "##ଁ": 907,
      "##ژ": 908,
      "##ো": 909,
      "##ধ": 910,
      "##ী": 911,
      "##ৰ": 912,
      "##ಭ": 913,
      "##ण": 914,
      "##ক": 915,
      "##ট": 916,
      "##ি": 917,
      "##ও": 918,
      "##भ": 919,
      "##ञ": 920,
      "##ॉ": 921,
      "##ಧ": 922,
      "##ୋ": 923,
      "##द": 924,
      "##-": 925,
      "##ố": 926,
      "##ै": 927,
      "##ౄ": 928,
      "##଼": 929,
      "##ଥ": 930,
      "##ு": 931,
      "##ೌ": 932,
      "##थ": 933,
      "##ല": 934,
      "##ാ": 935,
      "##ೃ": 936,
      "##ಖ": 937,
      "##ఒ": 938,
      "##ఉ": 939,
      "##आ": 940,
      "##୫": 941,
      "##ୌ": 942,
      "##୦": 943,
      "##ஜ": 944,
      "##ଫ": 945,
      "##ଉ": 946,
      "##ଅ": 947,
      "##ِ": 948,
      "##ठ": 949,
      "##ؤ": 950,
      "##୪": 951,
      "##ಥ": 952,
      "##ഷ": 953,
      "##ത": 954,
      "##ଛ": 955,
      "##َ": 956,
      "##च": 957,
      "##ெ": 958,
      "##ண": 959,
      "##ன": 960,
      "##ಫ": 961,
      "##ಐ": 962,
      "##ಆ": 963,
      "##ौ": 964,
      "##ढ": 965,
      "##ଯ": 966,
      "##ಛ": 967,
      "##)": 968,
      "##ঃ": 969,
      "##ي": 970,
      "##ۆ": 971,
      "##ە": 972,
      "##@": 973,
      "##ম": 974,
      "##া": 975,
      "##ত": 976,
      "##্": 977,
      "##র": 978,
      "##ओ": 979,
      "##গ": 980,
      "##ু": 981,
      "##ন": 982,
      "##ଠ": 983,
      "##ோ": 984,
      "##ந": 985,
      "##ఇ": 986,
      "##য": 987,
      "##়": 988,
      "##দ": 989,
      "##!": 990,
      "##छ": 991,
      "##ഴ": 992,
      "##യ": 993,
      "##ണ": 994,
      "##പ": 995,
      "##ಎ": 996,
      "##ீ": 997,
      "##ய": 998,
      "##স": 999,
      "##ை": 1000,
      "##ଃ": 1001,
      "##उ": 1002,
      "##`": 1003,
      "##୭": 1004,
      "##മ": 1005,
      "##ച": 1006,
      "##ఝ": 1007,
      "##>": 1008,
      "##ச": 1009,
      "##ଘ": 1010,
      "##ầ": 1011,
      "##/": 1012,
      "##ଵ": 1013,
      "##🇬": 1014,
      "##🌹": 1015,
      "##ভ": 1016,
      "##প": 1017,
      "##୬": 1018,
      "##ൾ": 1019,
      "##ୈ": 1020,
      "##ജ": 1021,
      "##ൂ": 1022,
      "##ൽ": 1023,
      "##;": 1024,
      "##ఔ": 1025,
      "##झ": 1026,
      "##ொ": 1027,
      "##শ": 1028,
      "##ে": 1029,
      "##ಇ": 1030,
      "##ए": 1031,
      "##റ": 1032,
      "##ৱ": 1033,
      "##চ": 1034,
      "##ീ": 1035,
      "##ഡ": 1036,
      "##ư": 1037,
      "##ờ": 1038,
      "##अ": 1039,
      "##â": 1040,
      "##'": 1041,
      "##ఁ": 1042,
      "##ল": 1043,
      "##ൗ": 1044,
      "##୩": 1045,
      "##ಒ": 1046,
      "##ଢ": 1047,
      "##ಘ": 1048,
      "##👌": 1049,
      "##🏼": 1050,
      "##💚": 1051,
      "##ः": 1052,
      "##ಢ": 1053,
      "##⃣": 1054,
      "##ڵ": 1055,
      "##ூ": 1056,
      "##ơ": 1057,
      "##ଝ": 1058,
      "##ே": 1059,
      "##ড": 1060,
      "##ء": 1061,
      "##୮": 1062,
      "##౩": 1063,
      "##ಅ": 1064,
      "##ব": 1065,
      "##ൻ": 1066,
      "##ّ": 1067,
      "##୧": 1068,
      "##ଈ": 1069,
      "##জ": 1070,
      "##ৈ": 1071,
      "###": 1072,
      "##ಃ": 1073,
      "##ಞ": 1074,
      "##സ": 1075,
      "##ى": 1076,
      "##ه": 1077,
      "##ُ": 1078,
      "##হ": 1079,
      "##౬": 1080,
      "##💪": 1081,
      "##🔥": 1082,
      "##ứ": 1083,
      "##ڕ": 1084,
      "##ً": 1085,
      "##ൊ": 1086,
      "##ợ": 1087,
      "##+": 1088,
      "##😂": 1089,
      "##ൃ": 1090,
      "##­": 1091,
      "##വ": 1092,
      "##౹": 1093,
      "##⁬": 1094,
      "##′": 1095,
      "##ফ": 1096,
      "##ൈ": 1097,
      "##घ": 1098,
      "##േ": 1099,
      "##$": 1100,
      "##ệ": 1101,
      "##ớ": 1102,
      "##⁠": 1103,
      "##❌": 1104,
      "##*": 1105,
      "##🙂": 1106,
      "##😊": 1107,
      "##ఽ": 1108,
      "##‌‌": 1109,
      "##ార": 1110,
      "##్ర": 1111,
      "##న్": 1112,
      "##ర్": 1113,
      "##ని": 1114,
      "##లు": 1115,
      "##స్": 1116,
      "##ంద": 1117,
      "##లో": 1118,
      "##ల్": 1119,
      "##‌‌‌‌": 1120,
      "##ారు": 1121,
      "##్య": 1122,
      "##కు": 1123,
      "##న్న": 1124,
      "##ట్": 1125,
      "##ంచ": 1126,
      "##క్": 1127,
      "ప్ర": 1128,
      "##ంది": 1129,
      "##గా": 1130,
      "##తు": 1131,
      "చే": 1132,
      "##ాల": 1133,
      "##రి": 1134,
      "##ను": 1135,
      "##ంట": 1136,
      "##ండ": 1137,
      "##ిన": 1138,
      "##ించ": 1139,
      "##త్": 1140,
      "##ప్": 1141,
      "##డు": 1142,
      "##ాయ": 1143,
      "##రు": 1144,
      "##ిక": 1145,
      "##ంత": 1146,
      "వి": 1147,
      "##లి": 1148,
      "##ార్": 1149,
      "ని": 1150,
      "##డి": 1151,
      "##టు": 1152,
      "##‌‌‌‌‌‌‌‌": 1153,
      "స్": 1154,
      "##ంగ": 1155,
      "##కి": 1156,
      "##సు": 1157,
      "##ంగా": 1158,
      "రా": 1159,
      "##ంలో": 1160,
      "##ద్": 1161,
      "##ప్ప": 1162,
      "##న్నారు": 1163,
      "##డ్": 1164,
      "##లా": 1165,
      "##చ్": 1166,
      "##మా": 1167,
      "##తి": 1168,
      "##స్తు": 1169,
      "లో": 1170,
      "కా": 1171,
      "##టి": 1172,
      "..": 1173,
      "##ష్": 1174,
      "##వా": 1175,
      "##టీ": 1176,
      "##స్త": 1177,
      "ను": 1178,
      "##న్ని": 1179,
      "##్యా": 1180,
      "##సి": 1181,
      "##చ్చ": 1182,
      "##యా": 1183,
      "##గు": 1184,
      "తె": 1185,
      "కు": 1186,
      "చె": 1187,
      "##దు": 1188,
      "##నే": 1189,
      "##‌‌‌": 1190,
      "##డా": 1191,
      "##ది": 1192,
      "##ాయి": 1193,
      "కో": 1194,
      "##మ్": 1195,
      "##ళ్": 1196,
      "##ందు": 1197,
      "##క్ష": 1198,
      "##తో": 1199,
      "##పు": 1200,
      "##ాలు": 1201,
      "##ేశ": 1202,
      "##ంచి": 1203,
      "పో": 1204,
      "##పీ": 1205,
      "##‌‌‌‌‌‌‌": 1206,
      "వె": 1207,
      "కొ": 1208,
      "కే": 1209,
      "##ారం": 1210,
      "పె": 1211,
      "మా": 1212,
      "##రా": 1213,
      "##ల్లో": 1214,
      "##ిత": 1215,
      "##వు": 1216,
      "కూ": 1217,
      "ము": 1218,
      "##నికి": 1219,
      "##లీ": 1220,
      "##సీ": 1221,
      "‌‌‌‌‌‌‌‌‌": 1222,
      "##ిల్": 1223,
      "##మి": 1224,
      "‌‌‌‌‌‌‌‌‌‌‌‌‌‌‌‌": 1225,
      "##ింది": 1226,
      "సి": 1227,
      "పా": 1228,
      "##ైన": 1229,
      "##లకు": 1230,
      "##్రి": 1231,
      "సం": 1232,
      "లే": 1233,
      "##క్క": 1234,
      "##మె": 1235,
      "తీ": 1236,
      "##ట్ట": 1237,
      "##్వ": 1238,
      "రె": 1239,
      "##ంగ్": 1240,
      "##ష్ట": 1241,
      "##ంతో": 1242,
      "##రో": 1243,
      "##లను": 1244,
      "##ారి": 1245,
      "##ామ": 1246,
      "వే": 1247,
      "##బ్": 1248,
      "##పై": 1249,
      "##ెస్": 1250,
      "##ద్ద": 1251,
      "నుంచి": 1252,
      "నే": 1253,
      "##బా": 1254,
      "##డం": 1255,
      "కూడా": 1256,
      "##ించారు": 1257,
      "వా": 1258,
      "చేశ": 1259,
      "సీ": 1260,
      "అధ": 1261,
      "##కో": 1262,
      "##కా": 1263,
      "ఉన్న": 1264,
      "##త్త": 1265,
      "గు": 1266,
      "##పో": 1267,
      "##ట్లు": 1268,
      "తో": 1269,
      "నిర్": 1270,
      "అయ": 1271,
      "బీ": 1272,
      "##ాన": 1273,
      "##ంద్ర": 1274,
      "చేయ": 1275,
      "##వి": 1276,
      "##షన్": 1277,
      "##స్తున్న": 1278,
      "##గ్": 1279,
      "##పా": 1280,
      "##యం": 1281,
      "సమ": 1282,
      "##వం": 1283,
      "గా": 1284,
      "పార్": 1285,
      "ప్రభ": 1286,
      "##సిన": 1287,
      "##ికి": 1288,
      "##ప్పు": 1289,
      "##బు": 1290,
      "##సుకు": 1291,
      "##ల్ల": 1292,
      "తెలి": 1293,
      "##నీ": 1294,
      "##జు": 1295,
      "##త్ర": 1296,
      "##టర్": 1297,
      "రో": 1298,
      "##ంట్": 1299,
      "##ాలని": 1300,
      "##ఆర్": 1301,
      "కి": 1302,
      "వచ్చ": 1303,
      "##ండి": 1304,
      "##తున్న": 1305,
      "వ్య": 1306,
      "చెప్ప": 1307,
      "##ందని": 1308,
      "##్రా": 1309,
      "##ుత్": 1310,
      "##గి": 1311,
      "##్రీ": 1312,
      "భార": 1313,
      "##ంటి": 1314,
      "పరి": 1315,
      "##ంటు": 1316,
      "##వే": 1317,
      "రూ": 1318,
      "##జ్": 1319,
      "##డ్డి": 1320,
      "##రీ": 1321,
      "##లే": 1322,
      "చేశారు": 1323,
      "##నా": 1324,
      "పై": 1325,
      "మీ": 1326,
      "##పి": 1327,
      "##ండ్": 1328,
      "##జీ": 1329,
      "##తం": 1330,
      "వై": 1331,
      "##యో": 1332,
      "పార్టీ": 1333,
      "అధిక": 1334,
      "##ూర్": 1335,
      "దీ": 1336,
      "ప్రభుత్": 1337,
      "దా": 1338,
      "##సం": 1339,
      "సా": 1340,
      "పే": 1341,
      "##ెట్": 1342,
      "అవ": 1343,
      "బా": 1344,
      "##ందుకు": 1345,
      "కార": 1346,
      "##కొ": 1347,
      "##ంటే": 1348,
      "ఆయ": 1349,
      "అని": 1350,
      "##ళ్ల": 1351,
      "##ంధ": 1352,
      "20": 1353,
      "నా": 1354,
      "##డీ": 1355,
      "##ద్య": 1356,
      "ఒక": 1357,
      "##ఎస్": 1358,
      "##స్థ": 1359,
      "##మ్మ": 1360,
      "##నం": 1361,
      "##ట్టు": 1362,
      "తన": 1363,
      "ప్రా": 1364,
      "##రం": 1365,
      "ఆయన": 1366,
      "ఎన్ని": 1367,
      "##ించిన": 1368,
      "##వర్": 1369,
      "రాష్ట": 1370,
      "వీ": 1371,
      "##దా": 1372,
      "##ారా": 1373,
      "##జా": 1374,
      "##ులు": 1375,
      "మొ": 1376,
      "##ారని": 1377,
      "##త్య": 1378,
      "##ాలి": 1379,
      "##ంబ": 1380,
      "ఎన్నిక": 1381,
      "అభ": 1382,
      "##ెక్": 1383,
      "##రే": 1384,
      "##సే": 1385,
      "చేసి": 1386,
      "శా": 1387,
      "టీ": 1388,
      "##ంప": 1389,
      "##ధి": 1390,
      "చూ": 1391,
      "వర": 1392,
      "##యి": 1393,
      "తెలిప": 1394,
      "##ంత్రి": 1395,
      "ఉండ": 1396,
      "##రుగు": 1397,
      "##ితే": 1398,
      "##్రెస్": 1399,
      "##వీ": 1400,
      "##జే": 1401,
      "##్యూ": 1402,
      "సె": 1403,
      "మె": 1404,
      "స్థ": 1405,
      "రాష్ట్ర": 1406,
      "చేసిన": 1407,
      "##హి": 1408,
      "జరి": 1409,
      "##ుల": 1410,
      "మే": 1411,
      "##దే": 1412,
      "రి": 1413,
      "##ధ్య": 1414,
      "##వాత": 1415,
      "స్ట": 1416,
      "నె": 1417,
      "డి": 1418,
      "కాంగ": 1419,
      "##క్కు": 1420,
      "##ండా": 1421,
      "##లంగా": 1422,
      "##ఖ్య": 1423,
      "మంది": 1424,
      "కాంగ్రెస్": 1425,
      "ప్రక": 1426,
      "హై": 1427,
      "##ాడు": 1428,
      "##ాలను": 1429,
      "రెడ్డి": 1430,
      "పోలీ": 1431,
      "జిల్": 1432,
      "##దేశ": 1433,
      "రాజ": 1434,
      "##రణ": 1435,
      "##ఫ్": 1436,
      "రోజు": 1437,
      "##ర్శ": 1438,
      "##యంలో": 1439,
      "##య్య": 1440,
      "మార్": 1441,
      "##బాద్": 1442,
      "##మైన": 1443,
      "##యే": 1444,
      "##ఎం": 1445,
      "##స్తున్నారు": 1446,
      "చి": 1447,
      "##సా": 1448,
      "##తా": 1449,
      "##క్ర": 1450,
      "##చి": 1451,
      "తా": 1452,
      "కోసం": 1453,
      "##మే": 1454,
      "##కే": 1455,
      "##‌లో": 1456,
      "మూ": 1457,
      "వర్": 1458,
      "##దీ": 1459,
      "జిల్లా": 1460,
      "##న్స్": 1461,
      "##ప్పుడు": 1462,
      "##ర్థ": 1463,
      "మో": 1464,
      "రై": 1465,
      "రెండ": 1466,
      "చేస్త": 1467,
      "సమా": 1468,
      "సు": 1469,
      "##తీ": 1470,
      "విష": 1471,
      "తెలంగా": 1472,
      "తెలంగాణ": 1473,
      "##కోవ": 1474,
      "##వారం": 1475,
      "##రించ": 1476,
      "##సులు": 1477,
      "అయితే": 1478,
      "రే": 1479,
      "##దని": 1480,
      "##ించి": 1481,
      "##లుగు": 1482,
      "చెప్పారు": 1483,
      "ది": 1484,
      "పు": 1485,
      "##ల్లి": 1486,
      "##ట్ల": 1487,
      "తి": 1488,
      "అను": 1489,
      "##కీ": 1490,
      "భా": 1491,
      "##కర్": 1492,
      "కార్య": 1493,
      "ప్రభుత్వం": 1494,
      "ఇచ్చ": 1495,
      "##శ్": 1496,
      "పొ": 1497,
      "తెలిపారు": 1498,
      "##ర్చ": 1499,
      "##డంతో": 1500,
      "తర్": 1501,
      "##ప్ర": 1502,
      "##ాలా": 1503,
      "లు": 1504,
      "తర్వాత": 1505,
      "##కుండా": 1506,
      "దేశ": 1507,
      "చంద్ర": 1508,
      "ప్రజ": 1509,
      "తీసుకు": 1510,
      "##ట్టి": 1511,
      "సిని": 1512,
      "##ంటూ": 1513,
      "బీజే": 1514,
      "##ించింది": 1515,
      "యా": 1516,
      "అనే": 1517,
      "జరిగ": 1518,
      "##వహ": 1519,
      "సో": 1520,
      "అధికారు": 1521,
      "బీజేపీ": 1522,
      "##మో": 1523,
      "##టిక": 1524,
      "తే": 1525,
      "వ్యక్": 1526,
      "ప్రతి": 1527,
      "కలి": 1528,
      "##తున్నారు": 1529,
      "లా": 1530,
      "##ము": 1531,
      "మరో": 1532,
      "పాటు": 1533,
      "##ామని": 1534,
      "మంత్రి": 1535,
      "ఉంది": 1536,
      "వ్యా": 1537,
      "ఏర్": 1538,
      "##ర్య": 1539,
      "##ుకు": 1540,
      "గ్ర": 1541,
      "##స్ట": 1542,
      "సినిమా": 1543,
      "కేంద్ర": 1544,
      "##వ్": 1545,
      "##జి": 1546,
      "అన్నారు": 1547,
      "లక్ష": 1548,
      "##బంధ": 1549,
      "ఆరో": 1550,
      "తమ": 1551,
      "##మ్మె": 1552,
      "##డే": 1553,
      "##ద్ధ": 1554,
      "##తులు": 1555,
      "శ్రీ": 1556,
      "వారి": 1557,
      "##డానికి": 1558,
      "##ాన్": 1559,
      "జీ": 1560,
      "##తుంది": 1561,
      "##టన": 1562,
      "ఎమ్మె": 1563,
      "మి": 1564,
      "ఎమ్మెల్": 1565,
      "##డ్డ": 1566,
      "క్ర": 1567,
      "నేత": 1568,
      "ఉంటు": 1569,
      "స్ప": 1570,
      "చాలా": 1571,
      "బె": 1572,
      "సీఎం": 1573,
      "##ాని": 1574,
      "##లం": 1575,
      "##ట్లా": 1576,
      "##ర్టు": 1577,
      "##కాశ": 1578,
      "జా": 1579,
      "##క్కువ": 1580,
      "##ోంది": 1581,
      "##బ్బ": 1582,
      "అంత": 1583,
      "##వర": 1584,
      "మాత్ర": 1585,
      "##ళ్లు": 1586,
      "ప్": 1587,
      "##న్‌": 1588,
      "రెండు": 1589,
      "##ించే": 1590,
      "##ందిన": 1591,
      "విజ": 1592,
      "##టో": 1593,
      "పి": 1594,
      "##ణా": 1595,
      "##రాబాద్": 1596,
      "పని": 1597,
      "అభి": 1598,
      "##పాటు": 1599,
      "##కులు": 1600,
      "తీసు": 1601,
      "##బాబు": 1602,
      "అస": 1603,
      "##దల": 1604,
      "##కూ": 1605,
      "సర్": 1606,
      "##పోయ": 1607,
      "సభ": 1608,
      "ఆర్": 1609,
      "##త్స": 1610,
      "మాట్లా": 1611,
      "ఎం": 1612,
      "ఆమె": 1613,
      "నెల": 1614,
      "##గ్ర": 1615,
      "##లోని": 1616,
      "హైద": 1617,
      "దీంతో": 1618,
      "గత": 1619,
      "ప్రధ": 1620,
      "##వరి": 1621,
      "##గొ": 1622,
      "జగ": 1623,
      "##ెన్": 1624,
      "చేసుకు": 1625,
      "వెళ్": 1626,
      "అందు": 1627,
      "అవకాశ": 1628,
      "##ాలకు": 1629,
      "పూర్": 1630,
      "##హా": 1631,
      "##ీల": 1632,
      "##వ్వ": 1633,
      "ముఖ్య": 1634,
      "\"\"": 1635,
      "##గే": 1636,
      "##మార్": 1637,
      "బి": 1638,
      "మధ్య": 1639,
      "ఇప్ప": 1640,
      "వరకు": 1641,
      "మరి": 1642,
      "##లతో": 1643,
      "నీ": 1644,
      "హైదరాబాద్": 1645,
      "కానీ": 1646,
      "##మీ": 1647,
      "చంద్రబాబు": 1648,
      "ఎలా": 1649,
      "చేస్తున్న": 1650,
      "##గ్గ": 1651,
      "సూ": 1652,
      "##తూ": 1653,
      "తొ": 1654,
      "చెందిన": 1655,
      "వార": 1656,
      "కేసు": 1657,
      "ప్రాంత": 1658,
      "10": 1659,
      "ఎమ్మెల్యే": 1660,
      "‌‌‌‌": 1661,
      "##వేశ": 1662,
      "##క్కడ": 1663,
      "పోలీసులు": 1664,
      "నాయ": 1665,
      "చేసింది": 1666,
      "##ర్లు": 1667,
      "##తోంది": 1668,
      "##సారి": 1669,
      "కొత్త": 1670,
      "##శా": 1671,
      "##చారం": 1672,
      "ఇది": 1673,
      "సంబంధ": 1674,
      "##ెం": 1675,
      "గుర్": 1676,
      "##మెంట్": 1677,
      "బీఆర్": 1678,
      "##ర్కొ": 1679,
      "తెలు": 1680,
      "##స్తుంది": 1681,
      "బ్యా": 1682,
      "కార్": 1683,
      "##స్ట్": 1684,
      "##చార": 1685,
      "యూ": 1686,
      "జన": 1687,
      "##ందర్": 1688,
      "అధికారులు": 1689,
      "##గం": 1690,
      "నిర్వహ": 1691,
      "తర": 1692,
      "202": 1693,
      "పాల్": 1694,
      "క్": 1695,
      "##స్య": 1696,
      "##స్తే": 1697,
      "గె": 1698,
      "నిర్ణ": 1699,
      "ఎన్నికల": 1700,
      "ద్వ": 1701,
      "##ంపు": 1702,
      "##స్తోంది": 1703,
      "##బీ": 1704,
      "మహి": 1705,
      "##ెంట్": 1706,
      "సమయంలో": 1707,
      "##రించి": 1708,
      "##ేషన్": 1709,
      "యు": 1710,
      "కల": 1711,
      "భారీ": 1712,
      "కాల": 1713,
      "##ాయని": 1714,
      "##ినా": 1715,
      "##ెడ్డి": 1716,
      "పెద్ద": 1717,
      "##ూరు": 1718,
      "...": 1719,
      "లేదు": 1720,
      "##త్తు": 1721,
      "గంట": 1722,
      "కారణ": 1723,
      "##గర్": 1724,
      "మహిళ": 1725,
      "ఉద్య": 1726,
      "చేసే": 1727,
      "అమ": 1728,
      "అన": 1729,
      "అలా": 1730,
      "ఎక్కువ": 1731,
      "##ందించ": 1732,
      "భూ": 1733,
      "##ారంభ": 1734,
      "##ణి": 1735,
      "‌‌": 1736,
      "హా": 1737,
      "ప్రారంభ": 1738,
      "##డియా": 1739,
      "పెట్ట": 1740,
      "కని": 1741,
      "శి": 1742,
      "##ర్యా": 1743,
      "అభ్య": 1744,
      "##ానికి": 1745,
      "##ుడు": 1746,
      "##చే": 1747,
      "##హ్": 1748,
      "##షి": 1749,
      "ఫో": 1750,
      "##ైనా": 1751,
      "ముందు": 1752,
      "ప్రస్తు": 1753,
      "‌‌‌‌‌‌‌‌": 1754,
      "##క్స్": 1755,
      "##ందే": 1756,
      "సై": 1757,
      "##ేక": 1758,
      "##తే": 1759,
      "కేసీ": 1760,
      "ఇప్పుడు": 1761,
      "రాజకీ": 1762,
      "##ృష్": 1763,
      "డీ": 1764,
      "అత": 1765,
      "వల్ల": 1766,
      "మ్యా": 1767,
      "బో": 1768,
      "విద్య": 1769,
      "అవు": 1770,
      "##పించ": 1771,
      "కేసీఆర్": 1772,
      "##యోజ": 1773,
      "హె": 1774,
      "బీఆర్ఎస్": 1775,
      "##ాయం": 1776,
      "ఇవ్వ": 1777,
      "ఎస్": 1778,
      "ఇక": 1779,
      "##డిన": 1780,
      "##ంక": 1781,
      "కల్": 1782,
      "కుటు": 1783,
      "ఫి": 1784,
      "వారు": 1785,
      "అంద": 1786,
      "అర": 1787,
      "మీడియా": 1788,
      "జగన్": 1789,
      "ప్రభుత్వ": 1790,
      "కె": 1791,
      "##వన్": 1792,
      "##ఫీ": 1793,
      "ద్వారా": 1794,
      "ఒక్క": 1795,
      "విధ": 1796,
      "##ద్ర": 1797,
      "##ిల్లీ": 1798,
      "##ంలోని": 1799,
      "సాధ": 1800,
      "లోని": 1801,
      "పేర్కొ": 1802,
      "##ారీ": 1803,
      "చెబు": 1804,
      "ఇలా": 1805,
      "మన": 1806,
      "##00": 1807,
      "ఏర్పాటు": 1808,
      "##ర్మ": 1809,
      "కొన్ని": 1810,
      "ఏపీ": 1811,
      "##కాల": 1812,
      "##టా": 1813,
      "ప్రత్య": 1814,
      "కావ": 1815,
      "##తంగా": 1816,
      "##విత": 1817,
      "ప్రకట": 1818,
      "సమస్య": 1819,
      "##పే": 1820,
      "ప్రమా": 1821,
      "##స్థి": 1822,
      "##మని": 1823,
      "##ణ్": 1824,
      "అయ్య": 1825,
      "##తుల": 1826,
      "అధికార": 1827,
      "వచ్చిన": 1828,
      "##చ్చు": 1829,
      "జరుగు": 1830,
      "##క్రమ": 1831,
      "ఉంటుంది": 1832,
      "పలు": 1833,
      "అవకాశం": 1834,
      "##ంత్ర": 1835,
      "##ికెట్": 1836,
      "##ల్సి": 1837,
      "మహ": 1838,
      "తు": 1839,
      "బు": 1840,
      "పీ": 1841,
      "##శి": 1842,
      "పూర్తి": 1843,
      "ఉద్యో": 1844,
      "గో": 1845,
      "దే": 1846,
      "వెలుగు": 1847,
      "పోటీ": 1848,
      "##సీపీ": 1849,
      "రూప": 1850,
      "దీని": 1851,
      "లి": 1852,
      "బయ": 1853,
      "మాజీ": 1854,
      "శాఖ": 1855,
      "##రుకు": 1856,
      "##యర్": 1857,
      "##తీయ": 1858,
      "ప్రస్తుతం": 1859,
      "జరిగిన": 1860,
      "##ంజ": 1861,
      "వచ్చే": 1862,
      "షా": 1863,
      "##త్రి": 1864,
      "##లోకి": 1865,
      "పరిస్థి": 1866,
      "ఇండి": 1867,
      "##ందో": 1868,
      "##ెస్ట్": 1869,
      "వద్ద": 1870,
      "దు": 1871,
      "మొద": 1872,
      "##ార్థ": 1873,
      "##రగ": 1874,
      "19": 1875,
      "##దం": 1876,
      "పాల": 1877,
      "##ల్స్": 1878,
      "##టం": 1879,
      "ఆరోప": 1880,
      "ఉంట": 1881,
      "అధ్య": 1882,
      "అభ్యర్థ": 1883,
      "##వంత్": 1884,
      "సహ": 1885,
      "##ాల్లో": 1886,
      "చేస్తున్నారు": 1887,
      "##ాన్ని": 1888,
      "##కం": 1889,
      "కుటుంబ": 1890,
      "వర్ష": 1891,
      "##ాం": 1892,
      "##కపో": 1893,
      "ట్": 1894,
      "కొన": 1895,
      "సంస్థ": 1896,
      "##మంత్రి": 1897,
      "భారత్": 1898,
      "నో": 1899,
      "ఆధ": 1900,
      "ఎంపీ": 1901,
      "ఎదు": 1902,
      "##తర": 1903,
      "##వ్ర": 1904,
      "మొత్త": 1905,
      "మంచి": 1906,
      "మార": 1907,
      "మండ": 1908,
      "రేవంత్": 1909,
      "తీవ్ర": 1910,
      "##స్టు": 1911,
      "ట్ర": 1912,
      "హి": 1913,
      "##యత్": 1914,
      "విచార": 1915,
      "ఎన్నికల్లో": 1916,
      "విజయ": 1917,
      "##నించ": 1918,
      "పేరు": 1919,
      "##్యం": 1920,
      "##నర్": 1921,
      "ఉప": 1922,
      "##స్తూ": 1923,
      "##ెక్టర్": 1924,
      "చేప": 1925,
      "##ంబర్": 1926,
      "పాల్గొ": 1927,
      "భారత": 1928,
      "##టింగ్": 1929,
      "##డీపీ": 1930,
      "అన్ని": 1931,
      "##ంటర్": 1932,
      "201": 1933,
      "##డియో": 1934,
      "##గో": 1935,
      "క్యా": 1936,
      "##నాలు": 1937,
      "ఇప్పటిక": 1938,
      "##ల్‌": 1939,
      "స్థాన": 1940,
      "సమావేశ": 1941,
      "మూడు": 1942,
      "కమి": 1943,
      "పట్ట": 1944,
      "కుమార్": 1945,
      "##నున్న": 1946,
      "సందర్": 1947,
      "గ్రామ": 1948,
      "శు": 1949,
      "టీడీపీ": 1950,
      "నియోజ": 1951,
      "వెల్ల": 1952,
      "##ంటున్న": 1953,
      "ార": 1954,
      "ప్రయత్": 1955,
      "అం": 1956,
      "##యన్": 1957,
      "##తలు": 1958,
      "##బర్": 1959,
      "కలిసి": 1960,
      "కీల": 1961,
      "శాతం": 1962,
      "సే": 1963,
      "##నూ": 1964,
      "నమో": 1965,
      "తేదీ": 1966,
      "##ట్టుకు": 1967,
      "##లపై": 1968,
      "విడు": 1969,
      "##ణం": 1970,
      "నియోజక": 1971,
      "చర్య": 1972,
      "కోట్ల": 1973,
      "##త్తి": 1974,
      "##జర్": 1975,
      "##ిల్ల": 1976,
      "##దేశ్": 1977,
      "కొనసా": 1978,
      "ప్రత్యేక": 1979,
      "పరిశ": 1980,
      "గురించి": 1981,
      "##పంచ": 1982,
      "లేదని": 1983,
      "##షల్": 1984,
      "మ్యాచ్": 1985,
      "భాగ": 1986,
      "ధర": 1987,
      "చర్చ": 1988,
      "చో": 1989,
      "##భా": 1990,
      "వీడియో": 1991,
      "సందర్భ": 1992,
      "##హం": 1993,
      "మాత్రం": 1994,
      "##ద్ధి": 1995,
      "‌ను": 1996,
      "వేల": 1997,
      "ఉందని": 1998,
      "##రూ": 1999,
      "కర్": 2000,
      "విడుదల": 2001,
      "##ంగళ": 2002,
      "రాజకీయ": 2003,
      "వెళ్ల": 2004,
      "కీలక": 2005,
      "ప్రశ్": 2006,
      "కంప": 2007,
      "తప్ప": 2008,
      "##లేదు": 2009,
      "పవన్": 2010,
      "##బ్లీ": 2011,
      "##తున్నాయి": 2012,
      "##ైన్": 2013,
      "వైసీపీ": 2014,
      "##పూర్": 2015,
      "##లలో": 2016,
      "ఉన్నారు": 2017,
      "లను": 2018,
      "రు": 2019,
      "##కర": 2020,
      "ప్రధాన": 2021,
      "15": 2022,
      "అధ్యక్ష": 2023,
      "నియోజకవర్": 2024,
      "విచారణ": 2025,
      "ఉన్నాయి": 2026,
      "##డ్డు": 2027,
      "హో": 2028,
      "##మాండ్": 2029,
      "##పర్": 2030,
      "##వడం": 2031,
      "వెల్లడ": 2032,
      "##మర్శ": 2033,
      "##్రో": 2034,
      "న్": 2035,
      "ప్రభా": 2036,
      "పూ": 2037,
      "##హు": 2038,
      "లీ": 2039,
      "ఢిల్లీ": 2040,
      "దూ": 2041,
      "##పె": 2042,
      "##యోగ": 2043,
      "అన్న": 2044,
      "మాత్రమే": 2045,
      "##ష్టం": 2046,
      "##సింది": 2047,
      "జూ": 2048,
      "వ్యక్తం": 2049,
      "విషయం": 2050,
      "పద": 2051,
      "##దన": 2052,
      "##దర్శ": 2053,
      "బయట": 2054,
      "ఎన్": 2055,
      "ఘటన": 2056,
      "##రించారు": 2057,
      "##ైంది": 2058,
      "అర్": 2059,
      "జో": 2060,
      "##్వర": 2061,
      "అవస": 2062,
      "అసెం": 2063,
      "అప్ప": 2064,
      "ఉద": 2065,
      "##ినీ": 2066,
      "అసెంబ్లీ": 2067,
      "##వృ": 2068,
      "వారికి": 2069,
      "##కె": 2070,
      "##వై": 2071,
      "##కుల": 2072,
      "##ంటారు": 2073,
      "##ద్దు": 2074,
      "ఉండే": 2075,
      "##ాక్": 2076,
      "సభ్య": 2077,
      "తాజా": 2078,
      "లక్షల": 2079,
      "##ానం": 2080,
      "చేయాలని": 2081,
      "##స్తారు": 2082,
      "అమ్మ": 2083,
      "వంటి": 2084,
      "##క్షన్": 2085,
      "సమాచారం": 2086,
      "12": 2087,
      "ఉత్త": 2088,
      "ముఖ్యమంత్రి": 2089,
      "##వల": 2090,
      "##లింగ్": 2091,
      "సూచ": 2092,
      "దర్శ": 2093,
      "##వరణ": 2094,
      "ఇప్పటికే": 2095,
      "నుండి": 2096,
      "##బో": 2097,
      "చేసు": 2098,
      "యువ": 2099,
      "పోలీసు": 2100,
      "##గిన": 2101,
      "పడు": 2102,
      "##్రే": 2103,
      "ప్రపంచ": 2104,
      "##రల్": 2105,
      "##రారు": 2106,
      "##ారెడ్డి": 2107,
      "విమర్శ": 2108,
      "వాటి": 2109,
      "మాట్లాడు": 2110,
      "ప్రజలు": 2111,
      "##కోర్టు": 2112,
      "డై": 2113,
      "హీ": 2114,
      "##ెనీ": 2115,
      "మీద": 2116,
      "మృ": 2117,
      "##దిక": 2118,
      "##రిగి": 2119,
      "ప్రధాని": 2120,
      "తిరు": 2121,
      "వ్యక్తి": 2122,
      "వార్": 2123,
      "అదే": 2124,
      "పను": 2125,
      "కోర్టు": 2126,
      "నాలు": 2127,
      "##సర్": 2128,
      "కంపెనీ": 2129,
      "రాష్ట్రంలో": 2130,
      "ఇండియా": 2131,
      "##నున్నారు": 2132,
      "లేదా": 2133,
      "సంఘ": 2134,
      "సందర్భంగా": 2135,
      "తాను": 2136,
      "ఆదేశ": 2137,
      "వెంట": 2138,
      "‌కు": 2139,
      "చిన్న": 2140,
      "తెలుగు": 2141,
      "##గ్గు": 2142,
      "##టే": 2143,
      "##డాది": 2144,
      "రంగ": 2145,
      "తరు": 2146,
      "##టీఆర్": 2147,
      "ఎలాంటి": 2148,
      "వ్యవ": 2149,
      "##ంటున్నారు": 2150,
      "కింద": 2151,
      "స్వా": 2152,
      "##టె": 2153,
      "చిత": 2154,
      "##వో": 2155,
      "##నల్": 2156,
      "మోదీ": 2157,
      "మొత్తం": 2158,
      "అత్య": 2159,
      "తొలి": 2160,
      "ప్రకారం": 2161,
      "జై": 2162,
      "ప్రయా": 2163,
      "ఆది": 2164,
      "న్యూ": 2165,
      "విని": 2166,
      "##బ్బంది": 2167,
      "చేయడం": 2168,
      "నగ": 2169,
      "అమె": 2170,
      "ఆల": 2171,
      "##యు": 2172,
      "##తుందని": 2173,
      "నిర్మా": 2174,
      "##త్మ": 2175,
      "పిల్ల": 2176,
      "##పడ్డ": 2177,
      "అంటూ": 2178,
      "##ెల్": 2179,
      "##ంతరం": 2180,
      "##ినే": 2181,
      "సిద్ధ": 2182,
      "##కంగా": 2183,
      "30": 2184,
      "ఇతర": 2185,
      "ప్లా": 2186,
      "ఇం": 2187,
      "అభివృ": 2188,
      "సోషల్": 2189,
      "న్య": 2190,
      "కాదు": 2191,
      "సరి": 2192,
      "ప్రే": 2193,
      "ఇద్ద": 2194,
      "##జన్": 2195,
      "ఆరోగ": 2196,
      "నేతలు": 2197,
      "##నుంది": 2198,
      "ఆర్థ": 2199,
      "టై": 2200,
      "విద్యార్థ": 2201,
      "దగ్గ": 2202,
      "రామ": 2203,
      "##టక": 2204,
      "చర్యలు": 2205,
      "##ృష్ణ": 2206,
      "11": 2207,
      "రైతు": 2208,
      "##క్‌": 2209,
      "##ానని": 2210,
      "హీరో": 2211,
      "రావు": 2212,
      "##వత్స": 2213,
      "అక్కడ": 2214,
      "డబ్": 2215,
      "##య్": 2216,
      "ారు": 2217,
      "గెలి": 2218,
      "##శ్వ": 2219,
      "ఆర్థిక": 2220,
      "ంచ": 2221,
      "సంవత్స": 2222,
      "##క్తి": 2223,
      "##జెక్": 2224,
      "##ించుకు": 2225,
      "##స్‌": 2226,
      "అంటే": 2227,
      "చేపట్ట": 2228,
      "ఇందు": 2229,
      "ఇదే": 2230,
      "##ట్‌": 2231,
      "జరగ": 2232,
      "##ల్సిన": 2233,
      "##ించు": 2234,
      "అది": 2235,
      "విక": 2236,
      "కోట్లు": 2237,
      "##ంధీ": 2238,
      "##తారు": 2239,
      "ఆఫీ": 2240,
      "ల్": 2241,
      "##ించడం": 2242,
      "##తాయి": 2243,
      "దాని": 2244,
      "##టమి": 2245,
      "అలాగే": 2246,
      "పర్య": 2247,
      "అమెరి": 2248,
      "##వులు": 2249,
      "##ళన": 2250,
      "##స్సు": 2251,
      "##వడంతో": 2252,
      "##ేశారు": 2253,
      "##పల్లి": 2254,
      "##డుగు": 2255,
      "క్రమ": 2256,
      "గుర్త": 2257,
      "పరుగు": 2258,
      "నిలి": 2259,
      "ఇన్": 2260,
      "కౌ": 2261,
      "##ప్తంగా": 2262,
      "##సె": 2263,
      "రోజుల": 2264,
      "##కున్న": 2265,
      "పేర్కొన్నారు": 2266,
      "##ించాలని": 2267,
      "##ాము": 2268,
      "##్యంలో": 2269,
      "##ంలోకి": 2270,
      "##ల్డ్": 2271,
      "అందించ": 2272,
      "##ప్రదేశ్": 2273,
      "వెంక": 2274,
      "ఇచ్చిన": 2275,
      "వెళ్లి": 2276,
      "##లుగా": 2277,
      "అయిన": 2278,
      "గొ": 2279,
      "##యాన్ని": 2280,
      "డిమాండ్": 2281,
      "##కోవడం": 2282,
      "బాల": 2283,
      "తాజాగా": 2284,
      "ప్రాజెక్": 2285,
      "తెలియ": 2286,
      "##చు": 2287,
      "స్వ": 2288,
      "##నించారు": 2289,
      "తెలిపింది": 2290,
      "చెబుతున్నారు": 2291,
      "దాదా": 2292,
      "సొ": 2293,
      "ఏడాది": 2294,
      "##టికీ": 2295,
      "##స్వా": 2296,
      "నేప": 2297,
      "వచ్చి": 2298,
      "##లర్": 2299,
      "ఫ్యా": 2300,
      "##న్సి": 2301,
      "మేర": 2302,
      "అమలు": 2303,
      "దాదాపు": 2304,
      "డె": 2305,
      "సంబంధించిన": 2306,
      "ట్రా": 2307,
      "కార్యక్రమ": 2308,
      "##ష్క": 2309,
      "భక్": 2310,
      "పడ": 2311,
      "గతంలో": 2312,
      "పెంచ": 2313,
      "పం": 2314,
      "పరిస్థితి": 2315,
      "తగ్గ": 2316,
      "ంద": 2317,
      "లె": 2318,
      "పడి": 2319,
      "##యాలు": 2320,
      "##లై": 2321,
      "చేరుకు": 2322,
      "ఇటీ": 2323,
      "గాంధీ": 2324,
      "గౌ": 2325,
      "‌లో": 2326,
      "##ూడ": 2327,
      "##ంతి": 2328,
      "##సభ": 2329,
      "లకు": 2330,
      "టి": 2331,
      "##ల్లు": 2332,
      "##ందోళన": 2333,
      "##రీక్ష": 2334,
      "బ్యాం": 2335,
      "డబ్బు": 2336,
      "అక్క": 2337,
      "గంటల": 2338,
      "మాట్లాడుతూ": 2339,
      "##పడు": 2340,
      "స్థాని": 2341,
      "హామ": 2342,
      "అమెరికా": 2343,
      "భాగంగా": 2344,
      "స్టార్": 2345,
      "వ్యవహ": 2346,
      "పెరుగు": 2347,
      "మూవీ": 2348,
      "##దారు": 2349,
      "##ంతా": 2350,
      "##ేశ్": 2351,
      "అనేక": 2352,
      "ఫలి": 2353,
      "##స్ప": 2354,
      "నేపథ": 2355,
      "కారణంగా": 2356,
      "కనిపి": 2357,
      "అభివృద్ధి": 2358,
      "వైఎస్": 2359,
      "నమోదు": 2360,
      "రీ": 2361,
      "ఆఫ్": 2362,
      "అనంతరం": 2363,
      "##కుడు": 2364,
      "25": 2365,
      "##లిక": 2366,
      "##డర్": 2367,
      "ప్రజా": 2368,
      "వెంటనే": 2369,
      "జరిగింది": 2370,
      "##క్ష్": 2371,
      "##కోవాలని": 2372,
      "మళ్": 2373,
      "##పక్ష": 2374,
      "కొంత": 2375,
      "పథ": 2376,
      "##రంగా": 2377,
      "##సన": 2378,
      "విషయంలో": 2379,
      "నిర్ణయం": 2380,
      "##తిక": 2381,
      "నిర్మ": 2382,
      "దగ్గర": 2383,
      "చీ": 2384,
      "సమీ": 2385,
      "నేను": 2386,
      "వ్యాఖ్య": 2387,
      "లేకుండా": 2388,
      "డే": 2389,
      "##ార్డు": 2390,
      "స్థాయి": 2391,
      "మాట్లాడ": 2392,
      "అంచ": 2393,
      "##ద్ది": 2394,
      "లేద": 2395,
      "టా": 2396,
      "ఫోన్": 2397,
      "14": 2398,
      "##యూ": 2399,
      "##వాల": 2400,
      "జారీ": 2401,
      "##ంధ్ర": 2402,
      "చై": 2403,
      "పరీక్ష": 2404,
      "అంశ": 2405,
      "ఇందులో": 2406,
      "సర": 2407,
      "దాడి": 2408,
      "##డని": 2409,
      "##్యాల": 2410,
      "తరువాత": 2411,
      "##రోజు": 2412,
      "##లోనే": 2413,
      "వచ్చింది": 2414,
      "##రెడ్డి": 2415,
      "రూపాయ": 2416,
      "##న్నా": 2417,
      "వస్తు": 2418,
      "పాత్ర": 2419,
      "కేసులో": 2420,
      "##లుపు": 2421,
      "పనిచే": 2422,
      "నేపథ్యంలో": 2423,
      "సింగ్": 2424,
      "##క్షణ": 2425,
      "కొంద": 2426,
      "డ్ర": 2427,
      "ఆందోళన": 2428,
      "రాహు": 2429,
      "##స్తామని": 2430,
      "##గాలు": 2431,
      "వివా": 2432,
      "కేట": 2433,
      "ఆశ": 2434,
      "ఎక్కువగా": 2435,
      "ఫొ": 2436,
      "చూడ": 2437,
      "##ాలతో": 2438,
      "##స్క": 2439,
      "మై": 2440,
      "##ర్యాదు": 2441,
      "కళ": 2442,
      "##ెన్స్": 2443,
      "దొ": 2444,
      "జీవిత": 2445,
      "##నని": 2446,
      "ప్రి": 2447,
      "##క్షి": 2448,
      "##లువ": 2449,
      "##సేన": 2450,
      "కాగా": 2451,
      "ఫిర్యాదు": 2452,
      "ప్రచారం": 2453,
      "రిక": 2454,
      "తెలిసి": 2455,
      "ఫొటో": 2456,
      "యూని": 2457,
      "ఇచ్చారు": 2458,
      "##కొని": 2459,
      "నియ": 2460,
      "##ళ్లి": 2461,
      "ఉదయం": 2462,
      "##ర్చు": 2463,
      "చిత్ర": 2464,
      "గుర్తు": 2465,
      "తయ": 2466,
      "చట్ట": 2467,
      "##టర్లు": 2468,
      "పెరి": 2469,
      "##ాయ్": 2470,
      "డైర": 2471,
      "జిల్లాలో": 2472,
      "హామీ": 2473,
      "పైన": 2474,
      "##బాటు": 2475,
      "##ులకు": 2476,
      "##‌కు": 2477,
      "మొదటి": 2478,
      "##పతి": 2479,
      "##ండు": 2480,
      "18": 2481,
      "ఎంత": 2482,
      "డాక్": 2483,
      "సౌ": 2484,
      "స్టేషన్": 2485,
      "50": 2486,
      "మార్పు": 2487,
      "##శాఖ": 2488,
      "గ్రా": 2489,
      "మద్ద": 2490,
      "##నాల": 2491,
      "బాధ్య": 2492,
      "కథ": 2493,
      "ఇంట": 2494,
      "బంగ": 2495,
      "##పడి": 2496,
      "##డో": 2497,
      "హాజ": 2498,
      "##రాలు": 2499,
      "##కెట్": 2500,
      "##నియర్": 2501,
      "వైద్య": 2502,
      "వివ": 2503,
      "##న్నీ": 2504,
      "##చర్": 2505,
      "##య్యారు": 2506,
      "నాలుగు": 2507,
      "త్వర": 2508,
      "తల": 2509,
      "అంది": 2510,
      "బల": 2511,
      "##రికి": 2512,
      "ఖా": 2513,
      "##టర్ల": 2514,
      "నిర్ణయ": 2515,
      "క్రమంలో": 2516,
      "శ్రీని": 2517,
      "##పడ్డారు": 2518,
      "న్యాయ": 2519,
      "సాయ": 2520,
      "ఆరోపణ": 2521,
      "వివర": 2522,
      "సంఖ్య": 2523,
      "పార్ల": 2524,
      "మీడియాలో": 2525,
      "పోయ": 2526,
      "తల్లి": 2527,
      "మరింత": 2528,
      "శివ": 2529,
      "రాహుల్": 2530,
      "రెండో": 2531,
      "జట్టు": 2532,
      "పంప": 2533,
      "కాలే": 2534,
      "శ్రీనివా": 2535,
      "చేస్తూ": 2536,
      "##రువు": 2537,
      "ఇంటి": 2538,
      "##ెస్టు": 2539,
      "ట్వ": 2540,
      "లై": 2541,
      "వ్యాప": 2542,
      "పాల్గొన్నారు": 2543,
      "అందుకే": 2544,
      "##తిరే": 2545,
      "ఆంధ్ర": 2546,
      "##నుగో": 2547,
      "తెలుస్తోంది": 2548,
      "##ధిక": 2549,
      "##నలు": 2550,
      "##ీర్": 2551,
      "ఇప్పటి": 2552,
      "ఉంటే": 2553,
      "##పేట": 2554,
      "24": 2555,
      "##యల్": 2556,
      "##కొచ్చ": 2557,
      "వాతా": 2558,
      "##గాల": 2559,
      "##ండగా": 2560,
      "వ్యతిరే": 2561,
      "గి": 2562,
      "కొనసాగు": 2563,
      "17": 2564,
      "జనసేన": 2565,
      "##న్ను": 2566,
      "ప్రభుత్వా": 2567,
      "మేరకు": 2568,
      "##స్తా": 2569,
      "మళ్లీ": 2570,
      "కంటే": 2571,
      "ాల": 2572,
      "తెలంగాణలో": 2573,
      "ఇలాంటి": 2574,
      "ఎందుకు": 2575,
      "##మాన్": 2576,
      "వాతావరణ": 2577,
      "##కాలు": 2578,
      "ప్రజల": 2579,
      "ఏం": 2580,
      "##భి": 2581,
      "వస్తున్న": 2582,
      "##an": 2583,
      "##పోయిన": 2584,
      "అభ్యర్థి": 2585,
      "హైకోర్టు": 2586,
      "##రంలో": 2587,
      "##ేందుకు": 2588,
      "వాహ": 2589,
      "కేటీఆర్": 2590,
      "ఆరోపించారు": 2591,
      "మరణ": 2592,
      "##టికి": 2593,
      "తీర్": 2594,
      "పైగా": 2595,
      "కలెక్టర్": 2596,
      "13": 2597,
      "##షనల్": 2598,
      "చు": 2599,
      "##మారు": 2600,
      "##రిక": 2601,
      "న్న": 2602,
      "ంది": 2603,
      "నాయకులు": 2604,
      "రిలీ": 2605,
      "తిరిగి": 2606,
      "##టంతో": 2607,
      "##ఫి": 2608,
      "విమా": 2609,
      "##సై": 2610,
      "##వాడ": 2611,
      "బిల్": 2612,
      "అరెస్ట్": 2613,
      "##మల": 2614,
      "సిబ్బంది": 2615,
      "ఐదు": 2616,
      "ప్రకటన": 2617,
      "భర్": 2618,
      "తెలిసిందే": 2619,
      "##ోర్": 2620,
      "జాతీయ": 2621,
      "అధ్యక్షుడు": 2622,
      "16": 2623,
      "రాత్రి": 2624,
      "##వైపు": 2625,
      "##ణాలు": 2626,
      "చా": 2627,
      "మద్దతు": 2628,
      "##గానే": 2629,
      "##విధ": 2630,
      "2024": 2631,
      "##ారణ": 2632,
      "ప్రాజెక్టు": 2633,
      "ఇటీవల": 2634,
      "విన": 2635,
      "200": 2636,
      "సోమ": 2637,
      "ప్రొ": 2638,
      "శని": 2639,
      "##ట్స్": 2640,
      "సంగ": 2641,
      "##రాల": 2642,
      "ఆధార": 2643,
      "##వ్యా": 2644,
      "కర్ణా": 2645,
      "పంచ": 2646,
      "ఫై": 2647,
      "##ార్లు": 2648,
      "కర్ణాటక": 2649,
      "వారిని": 2650,
      "చేసుకున్న": 2651,
      "##ళి": 2652,
      "ఆలో": 2653,
      "##ందన్నారు": 2654,
      "ఫ్": 2655,
      "##త్వ": 2656,
      "వెల్లడించారు": 2657,
      "నూ": 2658,
      "##బడి": 2659,
      "కొనుగో": 2660,
      "ఫు": 2661,
      "##బి": 2662,
      "ఇక్కడ": 2663,
      "కొందరు": 2664,
      "శుక్ర": 2665,
      "స్టే": 2666,
      "వృ": 2667,
      "##టరీ": 2668,
      "నిల": 2669,
      "నింది": 2670,
      "నీటి": 2671,
      "విజయం": 2672,
      "##్యార": 2673,
      "కాకుండా": 2674,
      "##ముఖ": 2675,
      "క్ష": 2676,
      "##టల్": 2677,
      "##ధు": 2678,
      "కమిటీ": 2679,
      "దో": 2680,
      "##స్టర్": 2681,
      "వీటి": 2682,
      "##యిల్": 2683,
      "##ంతు": 2684,
      "##ంప్": 2685,
      "##یں": 2686,
      "కారు": 2687,
      "##ర్ర": 2688,
      "తక్కువ": 2689,
      "గురు": 2690,
      "మంగళ": 2691,
      "ఆస": 2692,
      "##చిన": 2693,
      "##ర్మన్": 2694,
      "గాయ": 2695,
      "##ండర్": 2696,
      "##ారో": 2697,
      "వస్త": 2698,
      "##యిన్": 2699,
      "హత్య": 2700,
      "##గంలో": 2701,
      "##శారు": 2702,
      "##ఎల్": 2703,
      "##బుల్": 2704,
      "తనకు": 2705,
      "భార్య": 2706,
      "నమ్మ": 2707,
      "కిలో": 2708,
      "రోడ్డు": 2709,
      "##ండ్ల": 2710,
      "తీసుకున్న": 2711,
      "##వన": 2712,
      "ల్లో": 2713,
      "ఇంకా": 2714,
      "ఇద్దరు": 2715,
      "ాయి": 2716,
      "మాట": 2717,
      "ఆగ": 2718,
      "రైల్": 2719,
      "ఎవర": 2720,
      "ఏళ్ల": 2721,
      "ఉద్యోగు": 2722,
      "అందుకు": 2723,
      "##వారు": 2724,
      "##ృష్ట": 2725,
      "##క్కి": 2726,
      "),": 2727,
      "ఉత్": 2728,
      "ఎక్స్": 2729,
      "చోటు": 2730,
      "పనులు": 2731,
      "ించ": 2732,
      "కోరారు": 2733,
      "పక్క": 2734,
      "చని": 2735,
      "వేయ": 2736,
      "##సీసీ": 2737,
      "ఆంధ్రప్రదేశ్": 2738,
      "నిర": 2739,
      "వెంకట": 2740,
      "పర్": 2741,
      "##స్టి": 2742,
      "ందు": 2743,
      "వైరల్": 2744,
      "బౌ": 2745,
      "ఉపయోగ": 2746,
      "కేవ": 2747,
      "షే": 2748,
      "##పడ": 2749,
      "బెంగళ": 2750,
      "##ంద్": 2751,
      "జి": 2752,
      "##ారాయ": 2753,
      "##రమైన": 2754,
      "బై": 2755,
      "##రేషన్": 2756,
      "అతని": 2757,
      "ఆద": 2758,
      "పాకి": 2759,
      "నగర్": 2760,
      "##ట్టిన": 2761,
      "జే": 2762,
      "టికెట్": 2763,
      "భావి": 2764,
      "##దాలు": 2765,
      "సాగు": 2766,
      "పోలీస్": 2767,
      "సుప": 2768,
      "మారింది": 2769,
      "బెంగళూరు": 2770,
      "కేవలం": 2771,
      "రాశి": 2772,
      "ఇంట్": 2773,
      "##ందా": 2774,
      "పరిధి": 2775,
      "##పోయింది": 2776,
      "స్కూ": 2777,
      "రాష్ట్రా": 2778,
      "హెచ్చ": 2779,
      "అభిమా": 2780,
      "అల": 2781,
      "అడుగు": 2782,
      "మోడీ": 2783,
      "##్యు": 2784,
      "అందులో": 2785,
      "ఆరోగ్య": 2786,
      "ాడు": 2787,
      "ప్రాంతాల్లో": 2788,
      "దేశంలో": 2789,
      "ఇంటర్": 2790,
      "22": 2791,
      "##ృష్టి": 2792,
      "అతి": 2793,
      "సూచించారు": 2794,
      "మొదల": 2795,
      "సర్క": 2796,
      "##మై": 2797,
      "చేశాడు": 2798,
      "##ించేందుకు": 2799,
      "ఎవరి": 2800,
      "##మవు": 2801,
      "##డిగా": 2802,
      "ఏపీలో": 2803,
      "మార్కెట్": 2804,
      "##ఖా": 2805,
      "##చుకు": 2806,
      "##ంటీ": 2807,
      "కోల్": 2808,
      "పెట్టి": 2809,
      "క్రి": 2810,
      "##థ్": 2811,
      "ముగి": 2812,
      "##పోయారు": 2813,
      "నిర్వ": 2814,
      "##వీక": 2815,
      "కార్యకర్": 2816,
      "అధికారంలోకి": 2817,
      "లేక": 2818,
      "సూర్": 2819,
      "మారు": 2820,
      "##చ్చి": 2821,
      "కేంద్రం": 2822,
      "2023": 2823,
      "##జయ్": 2824,
      "##చిత": 2825,
      "ప్రై": 2826,
      "##వాల్": 2827,
      "లేని": 2828,
      "ఫా": 2829,
      "వర్షాలు": 2830,
      "సంచ": 2831,
      "అవసరం": 2832,
      "రైల్వే": 2833,
      "భద్ర": 2834,
      "కష్ట": 2835,
      "తమి": 2836,
      "రోడ్": 2837,
      "వైపు": 2838,
      "చెప్పు": 2839,
      "అనుమ": 2840,
      "మరోసారి": 2841,
      "తాము": 2842,
      "ప్రజలకు": 2843,
      "పెట్టు": 2844,
      "మీరు": 2845,
      "##యానికి": 2846,
      "ఎంతో": 2847,
      "లక్ష్": 2848,
      "##్రీం": 2849,
      "స్పష్టం": 2850,
      "ఉంచ": 2851,
      "ప్రవేశ": 2852,
      "సీనియర్": 2853,
      "రిలీజ్": 2854,
      "కొనుగోలు": 2855,
      "సంద": 2856,
      "##ణు": 2857,
      "##జ్ర": 2858,
      "ఆలోచ": 2859,
      "పోరా": 2860,
      "మండి": 2861,
      "స్పందించ": 2862,
      "బాధ": 2863,
      "##క్రమా": 2864,
      "ఉంటాయి": 2865,
      "##ంత్": 2866,
      "బ్": 2867,
      "రావ": 2868,
      "చివరి": 2869,
      "ట్లు": 2870,
      "వరు": 2871,
      "##లేదని": 2872,
      "పెళ్లి": 2873,
      "##గింది": 2874,
      "అంతే": 2875,
      "##వ్యాప్తంగా": 2876,
      "తెర": 2877,
      "చెల్ల": 2878,
      "##‌ర్": 2879,
      "అందుబాటు": 2880,
      "యో": 2881,
      "సమయం": 2882,
      "తరల": 2883,
      "##నగర్": 2884,
      "సేవ": 2885,
      "సొంత": 2886,
      "##స్తాన్": 2887,
      "کی": 2888,
      "ారని": 2889,
      "మృతి": 2890,
      "టె": 2891,
      "##తిని": 2892,
      "డాక్టర్": 2893,
      "రాజీ": 2894,
      "తొల": 2895,
      "##రియా": 2896,
      "ప్రకటించారు": 2897,
      "అక్": 2898,
      "##ధులు": 2899,
      "పాట": 2900,
      "##ేమ": 2901,
      "ప్రమాదం": 2902,
      "##డులు": 2903,
      "వివిధ": 2904,
      "లతో": 2905,
      "##‌ను": 2906,
      "గుర": 2907,
      "సుప్రీం": 2908,
      "గంటలకు": 2909,
      "##ಲ್": 2910,
      "ప్లే": 2911,
      "##ష్య": 2912,
      "వ్యవస్థ": 2913,
      "గ్రూ": 2914,
      "##ేశ్వ": 2915,
      "కార్యాల": 2916,
      "కాల్": 2917,
      "మరియు": 2918,
      "పరుగులు": 2919,
      "పోలింగ్": 2920,
      "నాగ": 2921,
      "ఆహ": 2922,
      "##శాల": 2923,
      "వ్యాఖ్యలు": 2924,
      "డైరెక్టర్": 2925,
      "అడి": 2926,
      "బస్సు": 2927,
      "తెలుసుకు": 2928,
      "ఇంత": 2929,
      "లేకపో": 2930,
      "నరే": 2931,
      "జూన్": 2932,
      "ముందుకు": 2933,
      "##ికల్": 2934,
      "ఆత్మ": 2935,
      "##శే": 2936,
      "##నేందుకు": 2937,
      "##కోవాలి": 2938,
      "##ాలపై": 2939,
      "సర్వే": 2940,
      "##క్త": 2941,
      "వీరి": 2942,
      "ఫీ": 2943,
      "ఆట": 2944,
      "భూమి": 2945,
      "##ల్లా": 2946,
      "##జన": 2947,
      "##ద్యా": 2948,
      "##నె": 2949,
      "నిర్వహి": 2950,
      "మంత్ర": 2951,
      "శుక్రవారం": 2952,
      "##ండ్రి": 2953,
      "##ప్తు": 2954,
      "##వరకు": 2955,
      "వేదిక": 2956,
      "ఇబ్బ": 2957,
      "లాంటి": 2958,
      "ప్రముఖ": 2959,
      "##వుల": 2960,
      "రోజుల్లో": 2961,
      "మండల": 2962,
      "##బ్ర": 2963,
      "నిజ": 2964,
      "##మయ్య": 2965,
      "##ప్పటికీ": 2966,
      "నిర్వహించారు": 2967,
      "పోస్టు": 2968,
      "కూటమి": 2969,
      "అప్": 2970,
      "##వారి": 2971,
      "##డుకు": 2972,
      "##మ్స్": 2973,
      "బుధ": 2974,
      "##వంత": 2975,
      "ఫలిత": 2976,
      "##ర్స్": 2977,
      "ఎవ": 2978,
      "కట్ట": 2979,
      "పూజ": 2980,
      "జైలు": 2981,
      "వాటిని": 2982,
      "సోమవారం": 2983,
      "21": 2984,
      "##ర్ట్": 2985,
      "సంబంధించి": 2986,
      "ప్రమాద": 2987,
      "అనేది": 2988,
      "##కింగ్": 2989,
      "రాయ": 2990,
      "##సెస్": 2991,
      "కృ": 2992,
      "‌తో": 2993,
      "##ాక": 2994,
      "బొ": 2995,
      "క్రికెట్": 2996,
      "జె": 2997,
      "ఎన్నికలు": 2998,
      "##ర్‌": 2999,
      "##బీసీ": 3000,
      "ఇబ్బందు": 3001,
      "##ండీ": 3002,
      "పరిష్క": 3003,
      "బోర్": 3004,
      "##రులు": 3005,
      "స్త": 3006,
      "##తిలో": 3007,
      "వివరించారు": 3008,
      "##తన": 3009,
      "##గిరి": 3010,
      "చేస్తే": 3011,
      "మెంట్": 3012,
      "మరోవైపు": 3013,
      "పరిశీల": 3014,
      "చేస్తు": 3015,
      "##ారాయణ": 3016,
      "దీనికి": 3017,
      "కార్యక్రమా": 3018,
      "అభిప్ర": 3019,
      "##పొ": 3020,
      "బాధి": 3021,
      "##డిని": 3022,
      "##దో": 3023,
      "##రావు": 3024,
      "యాద": 3025,
      "మైన": 3026,
      "ముంబ": 3027,
      "నివే": 3028,
      "##వుడ్": 3029,
      "దీనిపై": 3030,
      "అందరి": 3031,
      "మాన": 3032,
      "చేసేందుకు": 3033,
      "ఇజ్ర": 3034,
      "##ారిటీ": 3035,
      "40": 3036,
      "కర": 3037,
      "ఎన్న": 3038,
      "##ితా": 3039,
      "##ానీ": 3040,
      "##్రియ": 3041,
      "అధినే": 3042,
      "జరిగే": 3043,
      "ఉంటుందని": 3044,
      "కనిపించ": 3045,
      "ప్రో": 3046,
      "##ప్టె": 3047,
      "బాగా": 3048,
      "రిజర్": 3049,
      "బయటకు": 3050,
      "##నింగ్": 3051,
      "ఎయి": 3052,
      "##న్య": 3053,
      "##నుక": 3054,
      "##లాండ్": 3055,
      "##పాల్": 3056,
      "సెల": 3057,
      "##ంత్రం": 3058,
      "దృష్టి": 3059,
      "అండ్": 3060,
      "కేసులు": 3061,
      "సంక్ష": 3062,
      "ప్రశ్నించారు": 3063,
      "ఆరు": 3064,
      "వస్తే": 3065,
      "##వచ్చు": 3066,
      "అప్పు": 3067,
      "పాలన": 3068,
      "లోకి": 3069,
      "బ్ర": 3070,
      "##ణీ": 3071,
      "ఆదివారం": 3072,
      "దక్షి": 3073,
      "పంట": 3074,
      "కృష్ణ": 3075,
      "దర్యా": 3076,
      "##ప్షన్": 3077,
      "##గ్రహం": 3078,
      "##టీసీ": 3079,
      "##ెట్లు": 3080,
      "##మూ": 3081,
      "పేరుతో": 3082,
      "##వాళ": 3083,
      "కమ": 3084,
      "చేయడానికి": 3085,
      "మార్చి": 3086,
      "నమోద": 3087,
      "ాయ": 3088,
      "శ్రీనివాస్": 3089,
      "##డికి": 3090,
      "నేడు": 3091,
      "తమిళ": 3092,
      "అర్థ": 3093,
      "ప్రతిపక్ష": 3094,
      "బంగారం": 3095,
      "చైర్మన్": 3096,
      "ఇజ్రాయ": 3097,
      "గే": 3098,
      "ప్రస": 3099,
      "##పాల": 3100,
      "తీసుకె": 3101,
      "బీసీ": 3102,
      "##ెబ్బ": 3103,
      "##స్తున్నాయి": 3104,
      "ఒకే": 3105,
      "చేరి": 3106,
      "##పురం": 3107,
      "##లియా": 3108,
      "అక్టో": 3109,
      "అద": 3110,
      "##తల": 3111,
      "##ళ్ళ": 3112,
      "మంగళవారం": 3113,
      "చెన్న": 3114,
      "కవిత": 3115,
      "దర్యాప్తు": 3116,
      "వయ": 3117,
      "విస్త": 3118,
      "పేర్కొంది": 3119,
      "శరీ": 3120,
      "##న్సిప": 3121,
      "సాయంత్రం": 3122,
      "తప్పు": 3123,
      "రద్దు": 3124,
      "చీఫ్": 3125,
      "ఆప": 3126,
      "##ండ్ర": 3127,
      "రైతులు": 3128,
      "చేస": 3129,
      "శనివారం": 3130,
      "వరద": 3131,
      "ఆరోపణలు": 3132,
      "అక్రమ": 3133,
      "##హ్మ": 3134,
      "చేశారని": 3135,
      "##ంగల్": 3136,
      "##దుపు": 3137,
      "తేదీన": 3138,
      "కల్యా": 3139,
      "విలువ": 3140,
      "ఎమ్మెల్సీ": 3141,
      "ఓటు": 3142,
      "##పించారు": 3143,
      "ఓవర్": 3144,
      "##డుతున్న": 3145,
      "##ంస": 3146,
      "##ళీ": 3147,
      "##రుపు": 3148,
      "##్రమ": 3149,
      "సంజయ్": 3150,
      "సహాయ": 3151,
      "అంచనా": 3152,
      "బ్రి": 3153,
      "ఏర్పా": 3154,
      "ఇంట్లో": 3155,
      "అభిమాను": 3156,
      "బాబు": 3157,
      "కేటాయ": 3158,
      "వరకూ": 3159,
      "అయ్యారు": 3160,
      "మండలం": 3161,
      "##హన్": 3162,
      "మర": 3163,
      "అధినేత": 3164,
      "##జ్ఞ": 3165,
      "డిసె": 3166,
      "మని": 3167,
      "పోస్ట్": 3168,
      "##రించిన": 3169,
      "పిటి": 3170,
      "##ీవుడ్": 3171,
      "ప్రయాణి": 3172,
      "తది": 3173,
      "దక్క": 3174,
      "సహా": 3175,
      "##ెట్టి": 3176,
      "జరుగుతున్న": 3177,
      "స్వామి": 3178,
      "పార్టీకి": 3179,
      "వంద": 3180,
      "హు": 3181,
      "వాళ్లు": 3182,
      "సెప్టె": 3183,
      "##ర్ల": 3184,
      "నడు": 3185,
      "##సూ": 3186,
      "ముగ్గు": 3187,
      "చెప్పిన": 3188,
      "##జె": 3189,
      "రైలు": 3190,
      "##న్నాయి": 3191,
      "విశాఖ": 3192,
      "##్యూటీ": 3193,
      "##తికి": 3194,
      "##ంకర్": 3195,
      "##వాల్సి": 3196,
      "##త్వం": 3197,
      "100": 3198,
      "##బీఐ": 3199,
      "##ికిత్స": 3200,
      "స్థానిక": 3201,
      "డ్రై": 3202,
      "శుభ": 3203,
      "##వె": 3204,
      "##మ్మి": 3205,
      "కార్యక్రమంలో": 3206,
      "23": 3207,
      "సభ్యులు": 3208,
      "కంట": 3209,
      "##రుగా": 3210,
      "తగ్": 3211,
      "##సిటీ": 3212,
      "సిటీ": 3213,
      "##ారాన్ని": 3214,
      "##సుప": 3215,
      "గురువారం": 3216,
      "##స్థాన్": 3217,
      "##ీక": 3218,
      "##ితం": 3219,
      "కళ్యా": 3220,
      "విద్యా": 3221,
      "పంపి": 3222,
      "##జిక": 3223,
      "అక్కడి": 3224,
      "తయారు": 3225,
      "అత్యంత": 3226,
      "టెక్": 3227,
      "ఎత్తు": 3228,
      "అయినా": 3229,
      "విధంగా": 3230,
      "భర్త": 3231,
      "విదేశ": 3232,
      "పెట్టుకు": 3233,
      "##పడిన": 3234,
      "నిజా": 3235,
      "##దర్శి": 3236,
      "##పుణ": 3237,
      "సమస్యలు": 3238,
      "##స్వామి": 3239,
      "సంతో": 3240,
      "##పం": 3241,
      "##ణంలో": 3242,
      "నివేదిక": 3243,
      "##మంది": 3244,
      "లోనూ": 3245,
      "చేస్తామని": 3246,
      "విమర్శించారు": 3247,
      "బంధ": 3248,
      "రోజులు": 3249,
      "మహిళా": 3250,
      "జరిగి": 3251,
      "మందికి": 3252,
      "నట": 3253,
      "స్థాయిలో": 3254,
      "నిమి": 3255,
      "అంగ": 3256,
      "పార్లమెంట్": 3257,
      "ఆసుప": 3258,
      "##చారు": 3259,
      "ప్రాంతంలో": 3260,
      "మాట్లాడారు": 3261,
      "##డ్జ": 3262,
      "ఐపీ": 3263,
      "బీబీసీ": 3264,
      "##ర్మి": 3265,
      "నిరసన": 3266,
      "గవర్": 3267,
      "##మిక": 3268,
      "సూపర్": 3269,
      "భారీగా": 3270,
      "మొదలు": 3271,
      "చైనా": 3272,
      "##్యంగా": 3273,
      "##ంచింది": 3274,
      "సహక": 3275,
      "సింగ": 3276,
      "చికిత్స": 3277,
      "##మైంది": 3278,
      "బిల్లు": 3279,
      "##దేశం": 3280,
      "##తులకు": 3281,
      "విక్ర": 3282,
      "పార్టీలో": 3283,
      "యుద్ధ": 3284,
      "కావడంతో": 3285,
      "దశ": 3286,
      "28": 3287,
      "##ాలంటే": 3288,
      "ఎక్కడ": 3289,
      "నామ": 3290,
      "అరెస్టు": 3291,
      "##సర": 3292,
      "##ందం": 3293,
      "ప్రేమ": 3294,
      "##లన": 3295,
      "గెలు": 3296,
      "చేరు": 3297,
      "భారతీయ": 3298,
      "ల్యా": 3299,
      "ప్రైవే": 3300,
      "కప్": 3301,
      "అంతర్": 3302,
      "నాకు": 3303,
      "భక్తులు": 3304,
      "పది": 3305,
      "##ప్తి": 3306,
      "చేసినట్లు": 3307,
      "తీసుకో": 3308,
      "సాధారణ": 3309,
      "బుధవారం": 3310,
      "##ట్రో": 3311,
      "##ారులు": 3312,
      "##గాయి": 3313,
      "ఎదుర్కొ": 3314,
      "##నియా": 3315,
      "షర్మి": 3316,
      "##డమే": 3317,
      "##బె": 3318,
      "అడ్డు": 3319,
      "ట్యా": 3320,
      "నెలకొ": 3321,
      "గ్రామా": 3322,
      "##రంగ": 3323,
      "కాపా": 3324,
      "పర్యటన": 3325,
      "ఖర్చు": 3326,
      "##ాబాద్": 3327,
      "పాఠ": 3328,
      "##ులను": 3329,
      "మున్సిప": 3330,
      "తమకు": 3331,
      "నై": 3332,
      "##రాజ్": 3333,
      "ప్రభావం": 3334,
      "వాళ్ల": 3335,
      "##డ్జెట్": 3336,
      "##తులను": 3337,
      "సమీప": 3338,
      "ందుకు": 3339,
      "దెబ్బ": 3340,
      "లైన్": 3341,
      "నరేంద్ర": 3342,
      "ఈసారి": 3343,
      "کے": 3344,
      "ఏప్ర": 3345,
      "కీ": 3346,
      "##‌ల": 3347,
      "ప్రకటించింది": 3348,
      "ఏప్రిల్": 3349,
      "రాజ్": 3350,
      "వరుస": 3351,
      "ఎల": 3352,
      "స్తు": 3353,
      "యాక్": 3354,
      "##ఖాస్తు": 3355,
      "నవం": 3356,
      "##బట్టి": 3357,
      "దాఖ": 3358,
      "విద్యుత్": 3359,
      "ఉపా": 3360,
      "##టెన్": 3361,
      "##గ్రత్త": 3362,
      "##ప్పి": 3363,
      "చేయాలి": 3364,
      "వరల్డ్": 3365,
      "హక్కు": 3366,
      "##లిం": 3367,
      "భావ": 3368,
      "అడ్": 3369,
      "##ండె": 3370,
      "స్వీక": 3371,
      "##ికా": 3372,
      "ముఖ్యంగా": 3373,
      "##20": 3374,
      "##స్ట్రే": 3375,
      "##కోవడానికి": 3376,
      "ఆక": 3377,
      "వేడు": 3378,
      "అయి": 3379,
      "అసలు": 3380,
      "##పెట్ట": 3381,
      "##ీట్": 3382,
      "##డవ": 3383,
      "##వాస": 3384,
      "డిప": 3385,
      "##ప్పుడ": 3386,
      "మెడ": 3387,
      "క్వ": 3388,
      "ఇవ్వాలని": 3389,
      "వినియోగ": 3390,
      "##రావ": 3391,
      "పిటిషన్": 3392,
      "##ొక": 3393,
      "కార్మి": 3394,
      "పలువు": 3395,
      "నటి": 3396,
      "##నామా": 3397,
      "చరి": 3398,
      "దర": 3399,
      "కొట్ట": 3400,
      "పదే": 3401,
      "బహి": 3402,
      "##ాలే": 3403,
      "##దులు": 3404,
      "కళ్యాణ్": 3405,
      "##ితంగా": 3406,
      "పౌ": 3407,
      "కామెంట్": 3408,
      "##ామన్నారు": 3409,
      "##ద్దీ": 3410,
      "ఎంప": 3411,
      "జిల్లాల్లో": 3412,
      "బెయిల్": 3413,
      "సుప్రీంకోర్టు": 3414,
      "హాజర": 3415,
      "తీర్పు": 3416,
      "వేగ": 3417,
      "అంటున్నారు": 3418,
      "##చూ": 3419,
      "జాగ్రత్త": 3420,
      "రికార్డు": 3421,
      "మండిపడ్డారు": 3422,
      "అవి": 3423,
      "బే": 3424,
      "అక్టోబర్": 3425,
      "##యాల్లో": 3426,
      "##రణ్": 3427,
      "నోటీ": 3428,
      "విమర్శలు": 3429,
      "నష్ట": 3430,
      "తెచ్చ": 3431,
      "##హె": 3432,
      "మహా": 3433,
      "##టై": 3434,
      "##కులకు": 3435,
      "అలాంటి": 3436,
      "ఆడ": 3437,
      "ఖమ్మ": 3438,
      "వరంగల్": 3439,
      "వెళ్లే": 3440,
      "హింద": 3441,
      "##సన్": 3442,
      "లోనే": 3443,
      "ఎంపిక": 3444,
      "సిరీ": 3445,
      "ఇండ": 3446,
      "డిసెంబర్": 3447,
      "లోక్": 3448,
      "##సిడ": 3449,
      "వు": 3450,
      "సామా": 3451,
      "గ్రూప్": 3452,
      "దరఖాస్తు": 3453,
      "ఆన": 3454,
      "బడ్జెట్": 3455,
      "27": 3456,
      "షె": 3457,
      "##ధ్యా": 3458,
      "##పుడు": 3459,
      "పూర్తిగా": 3460,
      "##ళ్లకు": 3461,
      "మల్ల": 3462,
      "##ంక్": 3463,
      "##పరి": 3464,
      "క్ల": 3465,
      "ఎదురు": 3466,
      "ధరలు": 3467,
      "ఉన్నట్లు": 3468,
      "ప్లాన్": 3469,
      "ఎల్": 3470,
      "ఫైన": 3471,
      "##బితా": 3472,
      "సెప్టెంబర్": 3473,
      "##మిత్": 3474,
      "విషయాన్ని": 3475,
      "##లేక": 3476,
      "స్థానంలో": 3477,
      "సమావేశం": 3478,
      "తండ్రి": 3479,
      "ఇబ్బందులు": 3480,
      "##ొచ్చు": 3481,
      "##రియ": 3482,
      "పల్లి": 3483,
      "తోపాటు": 3484,
      "##ండ్లు": 3485,
      "కోరు": 3486,
      "ఇంటికి": 3487,
      "میں": 3488,
      "బాధ్యత": 3489,
      "వేడుక": 3490,
      "##డత": 3491,
      "##గాల్లో": 3492,
      "కొద్ది": 3493,
      "##గూడ": 3494,
      "మహారా": 3495,
      "2019": 3496,
      "26": 3497,
      "గ్": 3498,
      "##నాడు": 3499,
      "డబ్బులు": 3500,
      "ఈరోజు": 3501,
      "##టిఫ": 3502,
      "##ar": 3503,
      "##మ్మడి": 3504,
      "హరీ": 3505,
      "ప్రాధ": 3506,
      "సెంటర్": 3507,
      "పట్టు": 3508,
      "##చింది": 3509,
      "అవకాశాలు": 3510,
      "భయ": 3511,
      "విజయవాడ": 3512,
      "చేసారు": 3513,
      "ప్యా": 3514,
      "ఫే": 3515,
      "దిగ": 3516,
      "స్పె": 3517,
      "ఇజ్రాయెల్": 3518,
      "ాం": 3519,
      "‌లు": 3520,
      "రాజు": 3521,
      "మూడో": 3522,
      "##లాల": 3523,
      "##పోయి": 3524,
      "పత్ర": 3525,
      "ఇంగ్": 3526,
      "##ముల": 3527,
      "వచ్చాయి": 3528,
      "కురి": 3529,
      "సైతం": 3530,
      "##ంగి": 3531,
      "యాత్ర": 3532,
      "లాభ": 3533,
      "అనుమా": 3534,
      "కనీ": 3535,
      "నుంచ": 3536,
      "ఒకటి": 3537,
      "చరిత్ర": 3538,
      "ముంబై": 3539,
      "తెలుసు": 3540,
      "##ౌన్": 3541,
      "సెక": 3542,
      "వివే": 3543,
      "ఉండగా": 3544,
      "చేసుకున్నారు": 3545,
      "నవంబర్": 3546,
      "##య్యాయి": 3547,
      "బృ": 3548,
      "ఆయనకు": 3549,
      "అదుపు": 3550,
      "ప్రయోజ": 3551,
      "నిర్వహించ": 3552,
      "##‌లోని": 3553,
      "చదు": 3554,
      "లభ": 3555,
      "##ధుల": 3556,
      "ట్టు": 3557,
      "దీన్ని": 3558,
      "##టివ్": 3559,
      "##నంగా": 3560,
      "పొత్తు": 3561,
      "##ಲ್ಲ": 3562,
      "శక్తి": 3563,
      "సమర్": 3564,
      "దారు": 3565,
      "జనవరి": 3566,
      "ప్రేక్ష": 3567,
      "##ట్లను": 3568,
      "రాజీనామా": 3569,
      "##నిక": 3570,
      "రూపొ": 3571,
      "కన్": 3572,
      "గణ": 3573,
      "చొ": 3574,
      "తిరుమల": 3575,
      "పాకిస్తాన్": 3576,
      "##ాప": 3577,
      "పొంద": 3578,
      "##ధ్యాహ్": 3579,
      "చేస్తారు": 3580,
      "సమావేశంలో": 3581,
      "##یا": 3582,
      "కాబట్టి": 3583,
      "వన్": 3584,
      "##ంగ్స్": 3585,
      "పలువురు": 3586,
      "ఆస్ప": 3587,
      "పార్టీల": 3588,
      "వాయి": 3589,
      "##యన్స్": 3590,
      "##తున్నారని": 3591,
      "అవినీ": 3592,
      "సంక్షేమ": 3593,
      "కల్యాణ్": 3594,
      "ఎందు": 3595,
      "కాలేజీ": 3596,
      "ఆగస్టు": 3597,
      "ఐటీ": 3598,
      "కార్పొ": 3599,
      "ఆసక్తి": 3600,
      "ఉచిత": 3601,
      "గల": 3602,
      "సబ్": 3603,
      "ప్రచార": 3604,
      "విశ్వ": 3605,
      "సిద్ద": 3606,
      "నిరు": 3607,
      "##ష్ట్ర": 3608,
      "అనుకూ": 3609,
      "సంప్ర": 3610,
      "ఉత్తర": 3611,
      "ప్రసా": 3612,
      "##చ్చని": 3613,
      "కార్యదర్శి": 3614,
      "ఇవాళ": 3615,
      "##ాను": 3616,
      "రోహి": 3617,
      "నీరు": 3618,
      "నడి": 3619,
      "ఫ్ర": 3620,
      "మద్య": 3621,
      "##కృష్ణ": 3622,
      "##ళ్లను": 3623,
      "ాన్ని": 3624,
      "##వంటి": 3625,
      "చేర": 3626,
      "##లియన్": 3627,
      "##దిరి": 3628,
      "పార్టీలు": 3629,
      "సంత": 3630,
      "##ళ్లలో": 3631,
      "ఆస్ట్రే": 3632,
      "మధ్యాహ్": 3633,
      "వ్యాప్తంగా": 3634,
      "సామాజిక": 3635,
      "కాలంలో": 3636,
      "##ల్ని": 3637,
      "లెక్క": 3638,
      "ఉమ్మడి": 3639,
      "ఎన్టీఆర్": 3640,
      "సేక": 3641,
      "అధికారి": 3642,
      "విధాన": 3643,
      "500": 3644,
      "మనం": 3645,
      "జాబితా": 3646,
      "పారి": 3647,
      "లలో": 3648,
      "##రేట్": 3649,
      "కనిప": 3650,
      "ఇబ్బంది": 3651,
      "##ఖీ": 3652,
      "తీసుకున్నారు": 3653,
      "అప్పటి": 3654,
      "నిమిష": 3655,
      "షర్మిల": 3656,
      "ప్రాధాన్": 3657,
      "నిపుణ": 3658,
      "అభిప్రాయ": 3659,
      "ప‌": 3660,
      "లోక్‌": 3661,
      "##స్త్ర": 3662,
      "పండు": 3663,
      "స్పష్ట": 3664,
      "##ప్టెన్": 3665,
      "పోలీసులకు": 3666,
      "##స్తాయి": 3667,
      "##డ్యూ": 3668,
      "##గతి": 3669,
      "ఈడీ": 3670,
      "తీరు": 3671,
      "ఇచ్చింది": 3672,
      "అద్": 3673,
      "పర": 3674,
      "బండి": 3675,
      "రామ్": 3676,
      "ఎగ్": 3677,
      "కెప్టెన్": 3678,
      "వ్యవస": 3679,
      "సీట్లు": 3680,
      "##భవ": 3681,
      "కాదని": 3682,
      "వర్షం": 3683,
      "ప్రయత్నం": 3684,
      "##హెచ్": 3685,
      "చేయా": 3686,
      "##ష్ణ": 3687,
      "గుర్తి": 3688,
      "కారణం": 3689,
      "సము": 3690,
      "తీసుకొచ్చ": 3691,
      "##షనర్": 3692,
      "కామ": 3693,
      "వికెట్": 3694,
      "##లిన": 3695,
      "##ర్యంలో": 3696,
      "సీపీ": 3697,
      "రష": 3698,
      "చూప": 3699,
      "##టువంటి": 3700,
      "ఎన్నో": 3701,
      "భవి": 3702,
      "##ండింగ్": 3703,
      "##ుకున్న": 3704,
      "మిగి": 3705,
      "అధికారిక": 3706,
      "చాల": 3707,
      "వస్తుంది": 3708,
      "కలిగి": 3709,
      "యూనివర్": 3710,
      "##కంటే": 3711,
      "ఖమ్మం": 3712,
      "##ఫె": 3713,
      "వ్యూ": 3714,
      "గ్యా": 3715,
      "##ార్డ్": 3716,
      "నిబంధ": 3717,
      "##్యాన్ని": 3718,
      "నెలల": 3719,
      "సూర్య": 3720,
      "వది": 3721,
      "షో": 3722,
      "పేద": 3723,
      "ప్ప": 3724,
      "యాదవ్": 3725,
      "రహ": 3726,
      "లేఖ": 3727,
      "##కేష్": 3728,
      "సిరీస్": 3729,
      "##ంక్ష": 3730,
      "##ద్దేశ": 3731,
      "తనను": 3732,
      "నిర్వహించిన": 3733,
      "##్వర్యంలో": 3734,
      "కస్ట": 3735,
      "భే": 3736,
      "విభా": 3737,
      "సీబీఐ": 3738,
      "గుండె": 3739,
      "రేపు": 3740,
      "31": 3741,
      "కొండ": 3742,
      "భవిష్య": 3743,
      "##లవ": 3744,
      "##ల్ప": 3745,
      "ఆస్ట్రేలియా": 3746,
      "పడ్డ": 3747,
      "క్యాప్షన్": 3748,
      "కమిషన్": 3749,
      "ఉత్ప": 3750,
      "##ఎఫ్": 3751,
      "సర్వీ": 3752,
      "ప్ర‌": 3753,
      "గర్": 3754,
      "##ాలలో": 3755,
      "అందుబాటులో": 3756,
      "##ళం": 3757,
      "పదవి": 3758,
      "ఎవరు": 3759,
      "ధర్": 3760,
      "##వార": 3761,
      "##ఖ్యా": 3762,
      "అరు": 3763,
      "##ట్ర": 3764,
      "తీవ్రంగా": 3765,
      "ముగ్గురు": 3766,
      "చేస్తున్నారని": 3767,
      "##భు": 3768,
      "వెనుక": 3769,
      "ఇచ్చి": 3770,
      "మరికొ": 3771,
      "లోక్‌సభ": 3772,
      "గిరి": 3773,
      "##‌న": 3774,
      "##ినేషన్": 3775,
      "మహిళలు": 3776,
      "సంతోష": 3777,
      "షి": 3778,
      "##తుల్లో": 3779,
      "హెచ్": 3780,
      "29": 3781,
      "##జూ": 3782,
      "##శ్ర": 3783,
      "తెలిసింది": 3784,
      "ఆధ్వర్యంలో": 3785,
      "అమిత్": 3786,
      "స్పీ": 3787,
      "##సిక": 3788,
      "ట్వి": 3789,
      "నియమ": 3790,
      "గవర్నర్": 3791,
      "సత్య": 3792,
      "ఎక్క": 3793,
      "కన": 3794,
      "##కొండ": 3795,
      "సినిమాలో": 3796,
      "##ంశ": 3797,
      "సుమారు": 3798,
      "జయ": 3799,
      "నర్": 3800,
      "##ించాడు": 3801,
      "##గ్రా": 3802,
      "##హత్య": 3803,
      "ఆత్మహత్య": 3804,
      "ఆడి": 3805,
      "ఎఫ్": 3806,
      "ఖాన్": 3807,
      "బ్రా": 3808,
      "##బూ": 3809,
      "##నాథ్": 3810,
      "##జాతీయ": 3811,
      "వేసి": 3812,
      "తొలగ": 3813,
      "తిన": 3814,
      "స్కా": 3815,
      "ఒత్తి": 3816,
      "సామ": 3817,
      "ానికి": 3818,
      "##వల్ల": 3819,
      "స్నే": 3820,
      "చేస్తోంది": 3821,
      "పొందు": 3822,
      "##ంబా": 3823,
      "##ఫర్": 3824,
      "చేస్తుంది": 3825,
      "##రానికి": 3826,
      "##టెడ్": 3827,
      "ప్రభుత్వానికి": 3828,
      "##ోత్స": 3829,
      "ఉండాలని": 3830,
      "రైతులకు": 3831,
      "##ించుకో": 3832,
      "బ్లా": 3833,
      "చేయాల": 3834,
      "వెన": 3835,
      "గుర్తించారు": 3836,
      "ట్వీట్": 3837,
      "ఆమో": 3838,
      "##ట్లో": 3839,
      "మద్యం": 3840,
      "మధ్యాహ్నం": 3841,
      "##పూ": 3842,
      "##కుమార్": 3843,
      "##ెన్సీ": 3844,
      "అడ": 3845,
      "##ద్రా": 3846,
      "##ములు": 3847,
      "##ూర్తి": 3848,
      "సంఘం": 3849,
      "చదువు": 3850,
      "##ణంగా": 3851,
      "వివరాలు": 3852,
      "##ఫిక్": 3853,
      "##న్లు": 3854,
      "చెన్నై": 3855,
      "##ధాని": 3856,
      "దుర్": 3857,
      "##ನ್": 3858,
      "##ల్చి": 3859,
      "##సింగ్": 3860,
      "తిరుపతి": 3861,
      "అంతర్జాతీయ": 3862,
      "##డంలో": 3863,
      "‌గా": 3864,
      "##ాయింట్": 3865,
      "వ్యాపార": 3866,
      "##చ్చారు": 3867,
      "దాఖలు": 3868,
      "##ంపల్లి": 3869,
      "క్రీ": 3870,
      "##ేశ్వర": 3871,
      "విషయ": 3872,
      "##ించడానికి": 3873,
      "ఉన్నాయని": 3874,
      "ప్రక్రియ": 3875,
      "రోహిత్": 3876,
      "స్థి": 3877,
      "రాష్ట్రాల్లో": 3878,
      "ఆగ్రహం": 3879,
      "అందరూ": 3880,
      "మహారాష్ట్ర": 3881,
      "##ور": 3882,
      "ప్రతిని": 3883,
      "తీసుకోవాలని": 3884,
      "జన్": 3885,
      "విరా": 3886,
      "##తోందని": 3887,
      "వాడ": 3888,
      "సీఐ": 3889,
      "ఉద్దేశ": 3890,
      "ఇచ్చే": 3891,
      "##షణ": 3892,
      "ఇన్‌": 3893,
      "పట్ల": 3894,
      "బరి": 3895,
      "##యంగా": 3896,
      "##‌ని": 3897,
      "##్యో": 3898,
      "##రింగ్": 3899,
      "మారి": 3900,
      "##గ్య": 3901,
      "రిపో": 3902,
      "పెట్టారు": 3903,
      "అత్యధిక": 3904,
      "60": 3905,
      "##సార్లు": 3906,
      "##వాసం": 3907,
      "సీత": 3908,
      "క్యూ": 3909,
      "##ాల్సి": 3910,
      "కురు": 3911,
      "వెల్లడించింది": 3912,
      "అనుమతి": 3913,
      "##దండ్ర": 3914,
      "##ತ್": 3915,
      "##యోగం": 3916,
      "షేర్": 3917,
      "అంబ": 3918,
      "ఉన్నా": 3919,
      "బ్యాంక్": 3920,
      "బహిరంగ": 3921,
      "ఇంజ": 3922,
      "##తను": 3923,
      "ప్రీ": 3924,
      "నిరా": 3925,
      "##హీ": 3926,
      "##మ్ము": 3927,
      "##షే": 3928,
      "##‌ర": 3929,
      "##గల": 3930,
      "##రాల్లో": 3931,
      "##వేత్త": 3932,
      "సభలో": 3933,
      "ప్రయత్ని": 3934,
      "గౌర": 3935,
      "తగ్గి": 3936,
      "కరీ": 3937,
      "##రగా": 3938,
      "##ంటుంది": 3939,
      "పూర్త": 3940,
      "తల్లిదండ్ర": 3941,
      "అద్భు": 3942,
      "శర్మ": 3943,
      "వెబ్": 3944,
      "అతను": 3945,
      "##ంహ": 3946,
      "రావడం": 3947,
      "రుణ": 3948,
      "జరుపు": 3949,
      "మెగా": 3950,
      "ఎప్పుడ": 3951,
      "వారం": 3952,
      "దిశ": 3953,
      "అర్హ": 3954,
      "##ఖర్": 3955,
      "హాజరు": 3956,
      "##కౌ": 3957,
      "మెద": 3958,
      "##ౌండ్": 3959,
      "సీజన్": 3960,
      "35": 3961,
      "##కునే": 3962,
      "వెళ్లిన": 3963,
      "##శు": 3964,
      "##al": 3965,
      "కోహ్": 3966,
      "దేవ": 3967,
      "ప్రె": 3968,
      "##పాద": 3969,
      "అంతేకా": 3970,
      "చార్": 3971,
      "కిలోమీ": 3972,
      "నిన్న": 3973,
      "ప్పుడు": 3974,
      "ట్రై": 3975,
      "పాఠశాల": 3976,
      "##ంభ": 3977,
      "##గానికి": 3978,
      "ఆధారంగా": 3979,
      "జిల్లాలోని": 3980,
      "వాదన": 3981,
      "ఫోటో": 3982,
      "ఆహ్": 3983,
      "##గొండ": 3984,
      "ہے": 3985,
      "భో": 3986,
      "చూసి": 3987,
      "వడ్": 3988,
      "##త్రికి": 3989,
      "##నాన్ని": 3990,
      "రష్యా": 3991,
      "భేటీ": 3992,
      "షూ": 3993,
      "మేం": 3994,
      "రూపాయలు": 3995,
      "##ున": 3996,
      "రైతుల": 3997,
      "ఎయిర్": 3998,
      "ఏడు": 3999,
      "ఆదేశించారు": 4000,
      "ఆలోచన": 4001,
      "##సిడెంట్": 4002,
      "##ించినట్లు": 4003,
      "##నో": 4004,
      "హౌ": 4005,
      "లోకేష్": 4006,
      "##టిల్": 4007,
      "##వాల్సిన": 4008,
      "విజయ్": 4009,
      "##ించుకున్న": 4010,
      "కాన్": 4011,
      "##సార్": 4012,
      "##జం": 4013,
      "వ్యతిరేక": 4014,
      "పంపిణీ": 4015,
      "##ణ్య": 4016,
      "##గ్రీ": 4017,
      "ప్రతీ": 4018,
      "నిద్ర": 4019,
      "దిగు": 4020,
      "గౌడ్": 4021,
      "##రుల": 4022,
      "##రుగ": 4023,
      "వేదికగా": 4024,
      "సంప్రద": 4025,
      "భు": 4026,
      "విద్యార్థులు": 4027,
      "లేదన్నారు": 4028,
      "లక్షలు": 4029,
      "##గత": 4030,
      "##ంగు": 4031,
      "గుర్తింపు": 4032,
      "హ్యా": 4033,
      "##ار": 4034,
      "సమాధ": 4035,
      "సరైన": 4036,
      "45": 4037,
      "##ఎస్‌": 4038,
      "ఏర్పాట్లు": 4039,
      "##కరణ": 4040,
      "##డప": 4041,
      "##షా": 4042,
      "##షియల్": 4043,
      "టార్": 4044,
      "సంవత్సరం": 4045,
      "కరీం": 4046,
      "చౌ": 4047,
      "ఫ్యాన్స్": 4048,
      "వేశారు": 4049,
      "పోష": 4050,
      "క్రితం": 4051,
      "అవార్డు": 4052,
      "హాస్": 4053,
      "కల్పించ": 4054,
      "##వేషన్": 4055,
      "నుంచే": 4056,
      "##ోధ": 4057,
      "##టన్": 4058,
      "##ెక్ట్": 4059,
      "రాష్ట్రం": 4060,
      "ఆఫీసర్": 4061,
      "##లింది": 4062,
      "రూపాయల": 4063,
      "##ంగ్లా": 4064,
      "##ఫ్ట్": 4065,
      "2022": 4066,
      "నిందితు": 4067,
      "సాయి": 4068,
      "దేశం": 4069,
      "##ృతి": 4070,
      "నేషనల్": 4071,
      "సినీ": 4072,
      "తరలి": 4073,
      "మార్పులు": 4074,
      "బంగ్లా": 4075,
      "మంత్రులు": 4076,
      "మంట": 4077,
      "శ్రే": 4078,
      "##್‌": 4079,
      "##స్తో": 4080,
      "స్టా": 4081,
      "..!": 4082,
      "##ంపే": 4083,
      "ఓడి": 4084,
      "##ేష్": 4085,
      "##ద్రి": 4086,
      "చెప్పింది": 4087,
      "సర్కార్": 4088,
      "##నాలను": 4089,
      "కుమారు": 4090,
      "ఫుడ్": 4091,
      "##మర్": 4092,
      "##ట్నం": 4093,
      "ప్రశ్న": 4094,
      "ంట": 4095,
      "##కులను": 4096,
      "తిరుగు": 4097,
      "వచ్చారు": 4098,
      "రవి": 4099,
      "##ప్‌": 4100,
      "ఫిబ్ర": 4101,
      "కృషి": 4102,
      "re": 4103,
      "ఫె": 4104,
      "##వల్": 4105,
      "పిల్లలు": 4106,
      "హను": 4107,
      "##ెక్ట": 4108,
      "అయింది": 4109,
      "ఎమ్మెల్యేలు": 4110,
      "తీసుకుంట": 4111,
      "కరీంనగర్": 4112,
      "కూడిన": 4113,
      "ప్రారంభించారు": 4114,
      "బోర్డు": 4115,
      "##ైల్": 4116,
      "న్యూస్": 4117,
      "దక్షిణ": 4118,
      "000": 4119,
      "##ad": 4120,
      "##ంచు": 4121,
      "##స్తుందని": 4122,
      "అవినీతి": 4123,
      "ఆహ్వా": 4124,
      "ందని": 4125,
      "అగ్ర": 4126,
      "##ద్యో": 4127,
      "వీర": 4128,
      "వయసు": 4129,
      "కనీసం": 4130,
      "అప్ర": 4131,
      "##తరులు": 4132,
      "##్రీన్": 4133,
      "ఉండాలి": 4134,
      "##శ్చి": 4135,
      "అంశం": 4136,
      "##పులు": 4137,
      "వ్యాఖ్యా": 4138,
      "సారి": 4139,
      "##ంచ్": 4140,
      "కొడుకు": 4141,
      "సంఘటన": 4142,
      "అదన": 4143,
      "##తాయని": 4144,
      "ఆర్టీసీ": 4145,
      "ఎవరూ": 4146,
      "సృష్ట": 4147,
      "గూ": 4148,
      "ఉద్యమ": 4149,
      "##క్ట్": 4150,
      "ప్రదర్శ": 4151,
      "##డింగ్": 4152,
      "గుజ": 4153,
      "ఇక్క": 4154,
      "##‌గా": 4155,
      "బ్యాంకు": 4156,
      "సంగతి": 4157,
      "ఇవి": 4158,
      "మంజ": 4159,
      "స్కూల్": 4160,
      "ఫిబ్రవరి": 4161,
      "##ండియా": 4162,
      "##సారిగా": 4163,
      "కావడం": 4164,
      "అయ్యింది": 4165,
      "ఐపీఎల్": 4166,
      "సముద్ర": 4167,
      "ఆన్": 4168,
      "##ుడి": 4169,
      "పాత": 4170,
      "జడ్": 4171,
      "##ొక్క": 4172,
      "కూతు": 4173,
      "దానికి": 4174,
      "నాయుడు": 4175,
      "ఒక్కో": 4176,
      "సీటు": 4177,
      "షాక్": 4178,
      "##స్తులు": 4179,
      "##గులు": 4180,
      "##కోవచ్చు": 4181,
      "భారతదేశ": 4182,
      "సల": 4183,
      "##ికేషన్": 4184,
      "నీళ్లు": 4185,
      "కాలం": 4186,
      "యూనివర్సిటీ": 4187,
      "విశ్": 4188,
      "అవుతుంది": 4189,
      "##నున్నాయి": 4190,
      "ఖాళీ": 4191,
      "##ಲ್ಲಿ": 4192,
      "##హాలు": 4193,
      "##ధీ": 4194,
      "ముందే": 4195,
      "వ్యతిరేకంగా": 4196,
      "##వాన్ని": 4197,
      "నియోజకవర్గం": 4198,
      "తని": 4199,
      "సాయం": 4200,
      "అంతా": 4201,
      "అర్థం": 4202,
      "ఒప్ప": 4203,
      "దాన్ని": 4204,
      "##పడింది": 4205,
      "##హన": 4206,
      "చెంద": 4207,
      "##మ్‌": 4208,
      "##ారానికి": 4209,
      "ఇరు": 4210,
      "మౌ": 4211,
      "చాలామ": 4212,
      "##హించ": 4213,
      "బాగు": 4214,
      "ప్రారంభం": 4215,
      "శిక్ష": 4216,
      "కొనసాగ": 4217,
      "##బోయే": 4218,
      "య్య": 4219,
      "కుల": 4220,
      "ఆదాయం": 4221,
      "వాయిదా": 4222,
      "##లిక్": 4223,
      "కోహ్లీ": 4224,
      "నలుగు": 4225,
      "##ట్లకు": 4226,
      "అనుకు": 4227,
      "పరిశోధ": 4228,
      "పరిధిలో": 4229,
      "కాంట": 4230,
      "నియోజకవర్గంలో": 4231,
      "వేళ": 4232,
      "బంధు": 4233,
      "కామెంట్స్": 4234,
      "ఇష్ట": 4235,
      "ామని": 4236,
      "ప్రశా": 4237,
      "పేపర్": 4238,
      "చూసిన": 4239,
      "కార్డు": 4240,
      "చాలామంది": 4241,
      "##ان": 4242,
      "స్క": 4243,
      "##ట్టింది": 4244,
      "దళ": 4245,
      "గుజరా": 4246,
      "ారా": 4247,
      "##ంగం": 4248,
      "గురి": 4249,
      "ట్రాఫిక్": 4250,
      "తరలించారు": 4251,
      "సార్లు": 4252,
      "##వాలు": 4253,
      "చెప్": 4254,
      "మిగ": 4255,
      "##యాల": 4256,
      "##నంలో": 4257,
      "##థి": 4258,
      "##ందనే": 4259,
      "లోప": 4260,
      "##ద్దని": 4261,
      "ప్రాణ": 4262,
      "రాజధాని": 4263,
      "కుటుంబం": 4264,
      "కమిషనర్": 4265,
      "##ఫ్ర": 4266,
      "టో": 4267,
      "##ನು": 4268,
      "సెక్ర": 4269,
      "నష్టం": 4270,
      "పట్టుకు": 4271,
      "##ల్లం": 4272,
      "##ారావు": 4273,
      "ఆయా": 4274,
      "కాని": 4275,
      "హాస్పి": 4276,
      "ఓట్లు": 4277,
      "చూపి": 4278,
      "ప్రజలను": 4279,
      "కార్యకర్తలు": 4280,
      "ఫార్": 4281,
      "భవ": 4282,
      "రాలే": 4283,
      "పార్లమె": 4284,
      "ఇన్ని": 4285,
      "నారాయణ": 4286,
      "##డ్డా": 4287,
      "##స్తున్నట్లు": 4288,
      "##వ్వు": 4289,
      "త్వరలో": 4290,
      "పండుగ": 4291,
      "##దైనా": 4292,
      "కిషన్": 4293,
      "త్రి": 4294,
      "##ಡಿ": 4295,
      "లబ్": 4296,
      "ప్రయత్నాలు": 4297,
      "##వెన్": 4298,
      "నిధులు": 4299,
      "రాశ": 4300,
      "ముస్": 4301,
      "దాడులు": 4302,
      "##లంక": 4303,
      "హెల్": 4304,
      "ఖాతా": 4305,
      "##వ్యూ": 4306,
      "##దావరి": 4307,
      "వేసిన": 4308,
      "చోట్ల": 4309,
      "నిర్మాణ": 4310,
      "ఆహార": 4311,
      "షెడ్యూ": 4312,
      "నిపుణులు": 4313,
      "డిప్యూటీ": 4314,
      "##శ్చ": 4315,
      "ఉత్తర్": 4316,
      "##ండే": 4317,
      "విభ": 4318,
      "##ులై": 4319,
      "##సరి": 4320,
      "##ಂದ": 4321,
      "మహబూ": 4322,
      "##త్యా": 4323,
      "..?": 4324,
      "వేలు": 4325,
      "పెట్టిన": 4326,
      "నిరుద్యో": 4327,
      "వ్యవసాయ": 4328,
      "ఎకర": 4329,
      "పడే": 4330,
      "బ్యాటింగ్": 4331,
      "మున్సిపల్": 4332,
      "##ట్రి": 4333,
      "##గీ": 4334,
      "మనో": 4335,
      "చుట్ట": 4336,
      "##ట్యూ": 4337,
      "##ర్చి": 4338,
      "అమరావ": 4339,
      "జు": 4340,
      "ఫస్ట్": 4341,
      "రకాల": 4342,
      "##పడే": 4343,
      "పెరిగి": 4344,
      "తీసుకుని": 4345,
      "పథకం": 4346,
      "అల్లు": 4347,
      "అధి": 4348,
      "రిజి": 4349,
      "రాజ్యా": 4350,
      "అవసర": 4351,
      "తనిఖీ": 4352,
      "అగ్": 4353,
      "##స్తున్నారని": 4354,
      "ఒకరు": 4355,
      "పిలుపు": 4356,
      "కొత్తగా": 4357,
      "చేపట్టారు": 4358,
      "లక్ష్మీ": 4359,
      "వారిలో": 4360,
      "ఆదేశాలు": 4361,
      "స్వాధీ": 4362,
      "##పోయా": 4363,
      "చిత్రం": 4364,
      "పరిగ": 4365,
      "ఎన్నికలకు": 4366,
      "చేసుకుంది": 4367,
      "గుజరాత్": 4368,
      "##ఢిల్లీ": 4369,
      "శాంతి": 4370,
      "పున": 4371,
      "న్యూఢిల్లీ": 4372,
      "##ించారని": 4373,
      "మెజ": 4374,
      "నిర్వహణ": 4375,
      "అభ్యర్థులు": 4376,
      "పశ్చి": 4377,
      "వల": 4378,
      "వసూ": 4379,
      "తేడా": 4380,
      "ఉంటారు": 4381,
      "చేపట్టిన": 4382,
      "త్వరలోనే": 4383,
      "కన్న": 4384,
      "##తమైన": 4385,
      "ముఖ": 4386,
      "పరుగుల": 4387,
      "ఏమి": 4388,
      "పెరగ": 4389,
      "డిగ్రీ": 4390,
      "చేసుకో": 4391,
      "ఎందుకంటే": 4392,
      "ఇస్త": 4393,
      "పర్యా": 4394,
      "స్కో": 4395,
      "ముంద": 4396,
      "##క్కర్": 4397,
      "ప్రమాణ": 4398,
      "టార్గ": 4399,
      "స్వాధీనం": 4400,
      "‌పై": 4401,
      "చెయ్య": 4402,
      "##జున్": 4403,
      "ఆసి": 4404,
      "సోద": 4405,
      "##రించింది": 4406,
      "జర్": 4407,
      "కూడ": 4408,
      "సుర": 4409,
      "##హాన్ని": 4410,
      "రిజర్వేషన్": 4411,
      "##er": 4412,
      "వాడు": 4413,
      "టీమి": 4414,
      "నేతల": 4415,
      "##దారులు": 4416,
      "జులై": 4417,
      "##ార్ట్": 4418,
      "##డ్‌": 4419,
      "##ట్టర్": 4420,
      "ప్రస్తుత": 4421,
      "డ్రగ్": 4422,
      "టీమిండియా": 4423,
      "##సర్లు": 4424,
      "నిర్మాణం": 4425,
      "శాస్త్ర": 4426,
      "కౌన్సి": 4427,
      "టార్గెట్": 4428,
      "اس": 4429,
      "థి": 4430,
      "##ాలిటీ": 4431,
      "సెల్": 4432,
      "##య్యే": 4433,
      "విద్యార్థి": 4434,
      "పెంచు": 4435,
      "పడింది": 4436,
      "అభిమానులు": 4437,
      "##య్యా": 4438,
      "రాష్ట్రాల": 4439,
      "నామినేషన్": 4440,
      "##ాల్సిన": 4441,
      "సాం": 4442,
      "బాధ్యతలు": 4443,
      "ఓటమి": 4444,
      "సద": 4445,
      "నాటికి": 4446,
      "సంఖ్యలో": 4447,
      "ప్రాధాన్య": 4448,
      "టెస్టు": 4449,
      "ామ": 4450,
      "##గ్గా": 4451,
      "ఏక": 4452,
      "వెళ": 4453,
      "కేజ": 4454,
      "కుటుంబా": 4455,
      "##త్రం": 4456,
      "టీ20": 4457,
      "ఇండియన్": 4458,
      "ఇప్పటివరకు": 4459,
      "తమిళనాడు": 4460,
      "డ్రైవర్": 4461,
      "టే": 4462,
      "##యిన": 4463,
      "2014": 4464,
      "మృత": 4465,
      "సంచలన": 4466,
      "##యాత్ర": 4467,
      "అయో": 4468,
      "##స్వామ": 4469,
      "ప్రైవేట్": 4470,
      "ఉండి": 4471,
      "ఏజ": 4472,
      "డా": 4473,
      "తగిన": 4474,
      "ుకు": 4475,
      "రాజే": 4476,
      "గ్రామంలో": 4477,
      "##త్మక": 4478,
      "అదుపులోకి": 4479,
      "అల్": 4480,
      "గడు": 4481,
      "వన": 4482,
      "దొంగ": 4483,
      "##ిల్స్": 4484,
      "స్పంది": 4485,
      "స్పెషల్": 4486,
      "విగ్ర": 4487,
      "శ్రీవారి": 4488,
      "ఏదైనా": 4489,
      "జనా": 4490,
      "నర": 4491,
      "##ఎంసీ": 4492,
      "భద్రత": 4493,
      "కాక": 4494,
      "సెంట": 4495,
      "రచ": 4496,
      "##ాలీవుడ్": 4497,
      "కుంట": 4498,
      "##స్ట్రీ": 4499,
      "నోటీసులు": 4500,
      "స్తున్న": 4501,
      "పాద": 4502,
      "పురు": 4503,
      "గ్రే": 4504,
      "ఫలితాలు": 4505,
      "##ష్ణో": 4506,
      "ఎక": 4507,
      "##ెక్స్": 4508,
      "ఆటగా": 4509,
      "ప్రస్తా": 4510,
      "##త్తా": 4511,
      "70": 4512,
      "రావడంతో": 4513,
      "క్యార": 4514,
      "నంబర్": 4515,
      "పవర్": 4516,
      "రక్త": 4517,
      "##రంజీ": 4518,
      "కేజ్రీ": 4519,
      "కోరుకు": 4520,
      "చిరంజీ": 4521,
      "పశ్చిమ": 4522,
      "రఘ": 4523,
      "ఉన్నారని": 4524,
      "పంజా": 4525,
      "##పడుతుంది": 4526,
      "ఎలక్": 4527,
      "హిందూ": 4528,
      "80": 4529,
      "##ెండ్": 4530,
      "మరొక": 4531,
      "హోం": 4532,
      "##నిఫ": 4533,
      "తగ్గు": 4534,
      "##ఠా": 4535,
      "అధికారుల": 4536,
      "చట్టం": 4537,
      "ఓడ": 4538,
      "##న్నాడు": 4539,
      "బీజేపీకి": 4540,
      "వినిపి": 4541,
      "చెప్పుకొచ్చ": 4542,
      "అప": 4543,
      "గాలి": 4544,
      "దిన": 4545,
      "##వార్": 4546,
      "డెవల": 4547,
      "స్పందించారు": 4548,
      "##స్ట్ర": 4549,
      "కల్ప": 4550,
      "##శేష": 4551,
      "తదితరులు": 4552,
      "రక్షణ": 4553,
      "వార్త": 4554,
      "మందు": 4555,
      "##వాహ": 4556,
      "##పున": 4557,
      "నేరుగా": 4558,
      "ందన్నారు": 4559,
      "మృతదే": 4560,
      "కఠ": 4561,
      "టీమ్": 4562,
      "##‌లు": 4563,
      "##డ్స్": 4564,
      "తెలుగుదేశం": 4565,
      "టెస్ట్": 4566,
      "##یک": 4567,
      "##ಾರ": 4568,
      "##మాబాద్": 4569,
      "వేసింది": 4570,
      "##య్యి": 4571,
      "పోలీసుల": 4572,
      "##వని": 4573,
      "##జ్జ": 4574,
      "##త్రిలో": 4575,
      "##రవే": 4576,
      "##ూరి": 4577,
      "##ధా": 4578,
      "##ంచరీ": 4579,
      "దూరంగా": 4580,
      "పెరిగింది": 4581,
      "##కూడ": 4582,
      "సంబంధం": 4583,
      "అప్పగ": 4584,
      "##హార్": 4585,
      "##న్నే": 4586,
      "సీట్ల": 4587,
      "ాను": 4588,
      "##చ్చితంగా": 4589,
      "కేర": 4590,
      "దాంతో": 4591,
      "అంగీక": 4592,
      "ఒత్తిడి": 4593,
      "ఆటో": 4594,
      "బది": 4595,
      "రంగా": 4596,
      "అవగా": 4597,
      "##యేషన్": 4598,
      "దేశవ్యాప్తంగా": 4599,
      "పరిశ్రమ": 4600,
      "గొప్ప": 4601,
      "సందర్శ": 4602,
      "ముస్లిం": 4603,
      "గమని": 4604,
      "నల్ల": 4605,
      "నివ": 4606,
      "టీటీ": 4607,
      "199": 4608,
      "విడి": 4609,
      "చెప్పి": 4610,
      "ఎస్సీ": 4611,
      "అట": 4612,
      "పెడు": 4613,
      "##ట్టే": 4614,
      "అమ్మాయి": 4615,
      "##కర్స్": 4616,
      "నిబంధన": 4617,
      "ప్పటికీ": 4618,
      "లభి": 4619,
      "కెమె": 4620,
      "ధర్మ": 4621,
      "సురే": 4622,
      "మహిళల": 4623,
      "సభ్యుల": 4624,
      "రూపొందించ": 4625,
      "లక్ష్యంగా": 4626,
      "మెడికల్": 4627,
      "బ్లాక్": 4628,
      "کو": 4629,
      "ఏసీ": 4630,
      "##డితే": 4631,
      "##ల్లోకి": 4632,
      "ఉండటంతో": 4633,
      "పర్యట": 4634,
      "మిగిలిన": 4635,
      "అగ్ని": 4636,
      "అప్పుడు": 4637,
      "దారి": 4638,
      "బూ": 4639,
      "##కిల్": 4640,
      "చేయడంతో": 4641,
      "సంవత్సరాల": 4642,
      "తోనే": 4643,
      "వెళ్లారు": 4644,
      "తీసుకెళ్ల": 4645,
      "బరువు": 4646,
      "సికి": 4647,
      "##ళిక": 4648,
      "##పోయాయి": 4649,
      "కేరళ": 4650,
      "కరో": 4651,
      "సార": 4652,
      "##డెన్": 4653,
      "##ائ": 4654,
      "అనారో": 4655,
      "సౌకర్": 4656,
      "##చ్ఛ": 4657,
      "సెంచరీ": 4658,
      "నెలలో": 4659,
      "మంజూరు": 4660,
      "అటు": 4661,
      "కపో": 4662,
      "##ాయు": 4663,
      "విప": 4664,
      "స్తుంది": 4665,
      "పొడి": 4666,
      "వికెట్లు": 4667,
      "మిగతా": 4668,
      "తెల్ల": 4669,
      "నాడు": 4670,
      "మేనే": 4671,
      "అధికారులకు": 4672,
      "భి": 4673,
      "బదిలీ": 4674,
      "ఆల్": 4675,
      "నారా": 4676,
      "మధు": 4677,
      "##లాది": 4678,
      "కఠిన": 4679,
      "##ారనే": 4680,
      "సిద్ధం": 4681,
      "పురుష": 4682,
      "నెట్": 4683,
      "సచి": 4684,
      "##రాజు": 4685,
      "మేము": 4686,
      "ఢిల్లీలో": 4687,
      "న్యాయం": 4688,
      "##దైన": 4689,
      "యాప్": 4690,
      "అంతకు": 4691,
      "నాయక": 4692,
      "గోదావరి": 4693,
      "ఎదుర": 4694,
      "ఎన్‌": 4695,
      "చక్క": 4696,
      "##ంకు": 4697,
      "స్టూడ": 4698,
      "జస్టి": 4699,
      "##కపోతే": 4700,
      "కను": 4701,
      "గుడ్": 4702,
      "మోసం": 4703,
      "జరుగుతోంది": 4704,
      "సంస్థలు": 4705,
      "ఎన్డీ": 4706,
      "కొంతమంది": 4707,
      "చూపు": 4708,
      "మార్చ": 4709,
      "ధ్వ": 4710,
      "మల్": 4711,
      "##మత్త": 4712,
      "##ెయిన్": 4713,
      "నగర": 4714,
      "స‌": 4715,
      "నటు": 4716,
      "కాస్త": 4717,
      "ప్రెసిడెంట్": 4718,
      "ఎండ": 4719,
      "##కలు": 4720,
      "రాజ్య": 4721,
      "కలిపి": 4722,
      "టాప్": 4723,
      "డానికి": 4724,
      "కోవ": 4725,
      "చేయనున్నారు": 4726,
      "##స్టే": 4727,
      "సాధ్య": 4728,
      "కనిపిస్తోంది": 4729,
      "నల్": 4730,
      "##తె": 4731,
      "##ించాలి": 4732,
      "చెక్": 4733,
      "డేటా": 4734,
      "అప్రమత్త": 4735,
      "డాల": 4736,
      "చెరువు": 4737,
      "వేగంగా": 4738,
      "##ాలన్నారు": 4739,
      "పరిస్థితులు": 4740,
      "ఆలయ": 4741,
      "వన్డే": 4742,
      "సికింద్ర": 4743,
      "##ాలనే": 4744,
      "##చ్చిన": 4745,
      "క‌": 4746,
      "జ్యో": 4747,
      "ఫర్": 4748,
      "##రిని": 4749,
      "రిటై": 4750,
      "అధికారులను": 4751,
      "ముందుగా": 4752,
      "జరుగుతుంది": 4753,
      "##ఫ్రికా": 4754,
      "అవగాహన": 4755,
      "ధీ": 4756,
      "##ికె": 4757,
      "సునీ": 4758,
      "ఆరోగ్యం": 4759,
      "గడి": 4760,
      "చెల్లి": 4761,
      "##వింద్": 4762,
      "ఆమెను": 4763,
      "పక్కన": 4764,
      "టీటీడీ": 4765,
      "in": 4766,
      "భద్రా": 4767,
      "రోజులుగా": 4768,
      "గొడవ": 4769,
      "కార్యక్రమం": 4770,
      "వ్యవహార": 4771,
      "ప్రసాద్": 4772,
      "చిరంజీవి": 4773,
      "సికింద్రాబాద్": 4774,
      "##న్సర్": 4775,
      "నాటి": 4776,
      "రోజున": 4777,
      "అధ్యయ": 4778,
      "సరఫ": 4779,
      "ప్రభుత్వాన్ని": 4780,
      "75": 4781,
      "చిరు": 4782,
      "జనరల్": 4783,
      "##దారుల": 4784,
      "##ధర్": 4785,
      "##కాలం": 4786,
      "پر": 4787,
      "ఆవి": 4788,
      "ఏఐ": 4789,
      "పండ": 4790,
      "##ాడని": 4791,
      "గెలుపు": 4792,
      "ప్రొఫె": 4793,
      "##್ರ": 4794,
      "మీటింగ్": 4795,
      "పుష్": 4796,
      "హోదా": 4797,
      "రమ": 4798,
      "##లక్ష": 4799,
      "స్నేహి": 4800,
      "##టికల్": 4801,
      "కేంద్రంలో": 4802,
      "##నున్నట్లు": 4803,
      "కిలోమీటర్ల": 4804,
      "ఏకంగా": 4805,
      "‌ల": 4806,
      "వివేక్": 4807,
      "థియే": 4808,
      "మ‌": 4809,
      "‌లోని": 4810,
      "##ra": 4811,
      "##ఘా": 4812,
      "విజ్ఞ": 4813,
      "జరిప": 4814,
      "ప్రకటించిన": 4815,
      "యువత": 4816,
      "##స్క్": 4817,
      "##ందన్న": 4818,
      "##ల్యూ": 4819,
      "మీకు": 4820,
      "##ళ్లుగా": 4821,
      "బిజె": 4822,
      "ప్రత్యేకంగా": 4823,
      "హీరోయిన్": 4824,
      "కాంట్రా": 4825,
      "స్థలా": 4826,
      "రాష్ట్రంలోని": 4827,
      "చేస్తున్నట్లు": 4828,
      "కేటాయి": 4829,
      "##ెట్ల": 4830,
      "ఎస్పీ": 4831,
      "వస్తుందని": 4832,
      "నిజామాబాద్": 4833,
      "al": 4834,
      "ఎంట": 4835,
      "ఎప్ప": 4836,
      "##కల": 4837,
      "కోరి": 4838,
      "లీడర్": 4839,
      "ాయని": 4840,
      "చేసుకుని": 4841,
      "చేసినా": 4842,
      "పబ్": 4843,
      "సక్": 4844,
      "##ఎన్": 4845,
      "వాస్త": 4846,
      "వైర": 4847,
      "మోహన్": 4848,
      "పిల్లల": 4849,
      "ఎప్పుడూ": 4850,
      "ఎర్ర": 4851,
      "##టానికి": 4852,
      "లోక": 4853,
      "పుర": 4854,
      "ఉష్ణో": 4855,
      "దని": 4856,
      "ఉండటం": 4857,
      "స్థానికులు": 4858,
      "అయోధ్య": 4859,
      "ఉష్ణోగ్ర": 4860,
      "వాల": 4861,
      "##జ్‌": 4862,
      "కావాలని": 4863,
      "తయారీ": 4864,
      "వీటిని": 4865,
      "##ంక్షలు": 4866,
      "అకౌ": 4867,
      "దేశాల": 4868,
      "బిడ్డ": 4869,
      "హరీశ్": 4870,
      "##ార్టీ": 4871,
      "##మీర్": 4872,
      "ఎత్తున": 4873,
      "ఒడి": 4874,
      "##మిలీ": 4875,
      "అధికారం": 4876,
      "దర్శకుడు": 4877,
      "పరిధిలోని": 4878,
      "హెచ్చరించారు": 4879,
      "##ఫా": 4880,
      "నిర్మి": 4881,
      "తరఫ": 4882,
      "అవసరమైన": 4883,
      "కార్యకర్త": 4884,
      "##టిఫికేషన్": 4885,
      "బంగ్లాదేశ్": 4886,
      "జ్": 4887,
      "పద్": 4888,
      "2018": 4889,
      "ఢీ": 4890,
      "##వ్య": 4891,
      "విశేష": 4892,
      "##ర్యాల": 4893,
      "##హారం": 4894,
      "##ాయతీ": 4895,
      "##ెక్కి": 4896,
      "##రించే": 4897,
      "క్లా": 4898,
      "అర్జున్": 4899,
      "##ండటంతో": 4900,
      "పరిచ": 4901,
      "భాష": 4902,
      "తొమ్మి": 4903,
      "బాలిక": 4904,
      "స్పీకర్": 4905,
      "డ్రా": 4906,
      "##ధం": 4907,
      "కుట్ర": 4908,
      "చేయగా": 4909,
      "రంగు": 4910,
      "##ించుకున్నారు": 4911,
      "ఆశ్ర": 4912,
      "##శేఖర్": 4913,
      "వ్యాఖ్యానించారు": 4914,
      "ఇరా": 4915,
      "##రికీ": 4916,
      "‌‌‌‌‌‌‌‌‌‌‌‌‌‌‌‌లో": 4917,
      "వరుసగా": 4918,
      "సరఫరా": 4919,
      "సీసీ": 4920,
      "##నానికి": 4921,
      "మెట్రో": 4922,
      "సినిమ": 4923,
      "అయ్యాయి": 4924,
      "##రత్": 4925,
      "రానున్న": 4926,
      "##వేళ": 4927,
      "##వేదన": 4928,
      "రాజకీయాల్లో": 4929,
      "అందరికీ": 4930,
      "భీ": 4931,
      "లపై": 4932,
      "సెక్షన్": 4933,
      "అనుభ": 4934,
      "##ంపులు": 4935,
      "పార్లమెంటు": 4936,
      "గ్యార": 4937,
      "స్థానాల్లో": 4938,
      "సమీక్ష": 4939,
      "نے": 4940,
      "کر": 4941,
      "##ప్పున": 4942,
      "మెరుగు": 4943,
      "తిరుమ": 4944,
      "విలువైన": 4945,
      "చొప్పున": 4946,
      "ఘన": 4947,
      "బ్రే": 4948,
      "రక్ష": 4949,
      "కుక్క": 4950,
      "భావిస్తున్నారు": 4951,
      "టెక్నాల": 4952,
      "ఎటువంటి": 4953,
      "##డర్లు": 4954,
      "##మన్": 4955,
      "##రాశి": 4956,
      "మొబ": 4957,
      "##సేందుకు": 4958,
      "పక్ష": 4959,
      "##ంట్లు": 4960,
      "నిషే": 4961,
      "తీసుకుంది": 4962,
      "##ನ್ನು": 4963,
      "ర్యా": 4964,
      "##సో": 4965,
      "##యిత": 4966,
      "స్కీ": 4967,
      "##కాంత్": 4968,
      "డీకే": 4969,
      "అయ్యే": 4970,
      "##కపోవడంతో": 4971,
      "సర్కారు": 4972,
      "ఓట్ల": 4973,
      "డు": 4974,
      "రవా": 4975,
      "##యాన్": 4976,
      "##ెస్టో": 4977,
      "శాసన": 4978,
      "లిక్కర్": 4979,
      "ఉత్స": 4980,
      "న్యాయవా": 4981,
      "నొ": 4982,
      "##ణానికి": 4983,
      "మీడియాతో": 4984,
      "ప్రయాణ": 4985,
      "అస్": 4986,
      "శంకర్": 4987,
      "సంప": 4988,
      "ఆమెకు": 4989,
      "మేకర్స్": 4990,
      "##వంతంగా": 4991,
      "నెలకొంది": 4992,
      "షెడ్యూల్": 4993,
      "నల్గొండ": 4994,
      "సంపాద": 4995,
      "##డ్డికి": 4996,
      "ఎక్స్‌": 4997,
      "హాస్పిటల్": 4998,
      "మత": 4999,
      "##యింది": 5000,
      "##జేశారు": 5001,
      "ఇప్పటికీ": 5002,
      "చుట్టూ": 5003,
      "బిజెపి": 5004,
      "##‌‌‌‌‌‌‌‌‌‌‌‌‌‌‌‌": 5005,
      "నాని": 5006,
      "##స్టా": 5007,
      "కోర్టులో": 5008,
      "ట్విట్టర్": 5009,
      "షూటింగ్": 5010,
      "కరోనా": 5011,
      "##ించాయి": 5012,
      "పార్టీని": 5013,
      "బయలు": 5014,
      "టెక్నాలజీ": 5015,
      "సన్": 5016,
      "##ెత్త": 5017,
      "##నిమి": 5018,
      "మాకు": 5019,
      "##ిత్ర": 5020,
      "టిక్క": 5021,
      "##నిఫెస్టో": 5022,
      "జల": 5023,
      "డబుల్": 5024,
      "##ెల": 5025,
      "పరిమ": 5026,
      "##ముందు": 5027,
      "క్లి": 5028,
      "సమస్యలను": 5029,
      "విచారణకు": 5030,
      "వార్తలు": 5031,
      "జనాభా": 5032,
      "రవాణా": 5033,
      "ఏంట": 5034,
      "ఛార్": 5035,
      "మ్యూ": 5036,
      "##దర": 5037,
      "##ంటాయి": 5038,
      "##ఆర్‌": 5039,
      "వర్గాలు": 5040,
      "అనుకున్న": 5041,
      "మహిళలకు": 5042,
      "చర్చలు": 5043,
      "టోర్": 5044,
      "బహు": 5045,
      "వ‌": 5046,
      "##మితి": 5047,
      "స్టో": 5048,
      "నాయకుడు": 5049,
      "2021": 5050,
      "కాలనీ": 5051,
      "మానసిక": 5052,
      "##హ్మద్": 5053,
      "ఇండస్ట్రీ": 5054,
      "పరా": 5055,
      "##స్థానం": 5056,
      "నలుగురు": 5057,
      "కేజ్రీవాల్": 5058,
      "##on": 5059,
      "##్వే": 5060,
      "వ్యక్తులు": 5061,
      "సంబంధిత": 5062,
      "తరహా": 5063,
      "దేవు": 5064,
      "స్టేడి": 5065,
      "డ్యా": 5066,
      "నార్": 5067,
      "అభిన": 5068,
      "##దీప్": 5069,
      "కల్పి": 5070,
      "నోటిఫికేషన్": 5071,
      "##ತ್ತ": 5072,
      "దృష్ట": 5073,
      "మను": 5074,
      "చేర్చ": 5075,
      "కుండా": 5076,
      "వేధి": 5077,
      "పట్టించుకో": 5078,
      "అధ్యక్షు": 5079,
      "నియోజకవర్గ": 5080,
      "##త్వంలో": 5081,
      "90": 5082,
      "##బద్ధ": 5083,
      "నియా": 5084,
      "##ానా": 5085,
      "ముఖ్యమైన": 5086,
      "ఆవేదన": 5087,
      "క్రికె": 5088,
      "బయలుదే": 5089,
      "##ంసం": 5090,
      "##స్తీ": 5091,
      "జీవ": 5092,
      "బాలీవుడ్": 5093,
      "జీవితంలో": 5094,
      "సమీపంలో": 5095,
      "ఫైనల్": 5096,
      "జన్మ": 5097,
      "దిశగా": 5098,
      "ానని": 5099,
      "##ెర": 5100,
      "##یڈ": 5101,
      "కానుంది": 5102,
      "##రాత్రి": 5103,
      "సక్సెస్": 5104,
      "##లైన్": 5105,
      "##బిన": 5106,
      "##ంజ్": 5107,
      "ప్రణా": 5108,
      "##జున": 5109,
      "పరిణ": 5110,
      "మిషన్": 5111,
      "జనం": 5112,
      "##ీయ": 5113,
      "విరు": 5114,
      "##దుగా": 5115,
      "వాటర్": 5116,
      "రాజస్థాన్": 5117,
      "పూజలు": 5118,
      "##మన": 5119,
      "ప్రెస్": 5120,
      "దాడు": 5121,
      "పోయింది": 5122,
      "బౌలింగ్": 5123,
      "సెంట్ర": 5124,
      "పలిక": 5125,
      "రెడీ": 5126,
      "ఉద్యోగం": 5127,
      "ట్రంప్": 5128,
      "జ్యోతి": 5129,
      "##బినెట్": 5130,
      "ాడని": 5131,
      "పోయి": 5132,
      "సాను": 5133,
      "స్థానం": 5134,
      "##బోతున్న": 5135,
      "ప్రాజెక్ట్": 5136,
      "ఫ్యామిలీ": 5137,
      "పల్ల": 5138,
      "##కపోవడం": 5139,
      "పట్టణ": 5140,
      "టాలీవుడ్": 5141,
      "ర్": 5142,
      "మొదట": 5143,
      "కామారెడ్డి": 5144,
      "##వులను": 5145,
      "నెటి": 5146,
      "హయా": 5147,
      "##th": 5148,
      "##sh": 5149,
      "సినిమాలు": 5150,
      "సూచి": 5151,
      "పెద్దగా": 5152,
      "కెరీ": 5153,
      "దూరం": 5154,
      "దర్శక": 5155,
      "ప్రియా": 5156,
      "నియంత్ర": 5157,
      "##లిస్తే": 5158,
      "##కాన్ని": 5159,
      "సాధించిన": 5160,
      "ప్రపంచంలో": 5161,
      "నగదు": 5162,
      "ఉద్యోగులు": 5163,
      "کا": 5164,
      "కోస": 5165,
      "ప్రభాకర్": 5166,
      "ఇటీవ": 5167,
      "పరీక్షలు": 5168,
      "అందుబాటులోకి": 5169,
      "రజ": 5170,
      "##నలి": 5171,
      "##కస్": 5172,
      "##ందన": 5173,
      "##మాలు": 5174,
      "హైడ": 5175,
      "నాయకు": 5176,
      "ఓప": 5177,
      "మణి": 5178,
      "##గడ్డ": 5179,
      "చేతిలో": 5180,
      "పడుతున్న": 5181,
      "వివరాలను": 5182,
      "##రమ": 5183,
      "##in": 5184,
      "##క్తిక": 5185,
      "##కోసం": 5186,
      "ఫైర్": 5187,
      "కార్పొరేషన్": 5188,
      "సమాధానం": 5189,
      "ఎగు": 5190,
      "తీసుకోవడం": 5191,
      "##కరమైన": 5192,
      "ఆపరేషన్": 5193,
      "అమరావతి": 5194,
      "ఉందన్నారు": 5195,
      "##ర్ఘ": 5196,
      "నెరవే": 5197,
      "ఆఫీసు": 5198,
      "ఖాయ": 5199,
      "దశా": 5200,
      "సంస్క": 5201,
      "మొక్క": 5202,
      "##్యూని": 5203,
      "ప్రయత్నించ": 5204,
      "ఉత్పత్తి": 5205,
      "పంజాబ్": 5206,
      "చంప": 5207,
      "రెడ్డికి": 5208,
      "కాంగ్రెస్‌": 5209,
      "అవుతున్న": 5210,
      "కొనసాగి": 5211,
      "ఫుల్": 5212,
      "స్మ": 5213,
      "ప్రాణాలు": 5214,
      "ాలను": 5215,
      "##దర్": 5216,
      "##నారాయణ": 5217,
      "పుస్త": 5218,
      "పాకిస్థాన్": 5219,
      "ఈసీ": 5220,
      "క్రా": 5221,
      "##జిన": 5222,
      "వెళ్లా": 5223,
      "ఇవ్వడం": 5224,
      "అనుకూలంగా": 5225,
      "భవిష్యత్తు": 5226,
      "డ్రగ్స్": 5227,
      "ఛా": 5228,
      "ఫ్రా": 5229,
      "##ష్ణు": 5230,
      "##విడ్": 5231,
      "ఒకవేళ": 5232,
      "పాయింట్": 5233,
      "వంశ": 5234,
      "##ోసి": 5235,
      "##ಾಗ": 5236,
      "##కున్నారు": 5237,
      "వెండి": 5238,
      "శ్రీలంక": 5239,
      "హయాంలో": 5240,
      "భర్తీ": 5241,
      "##ేశ్వరం": 5242,
      "ఎనిమి": 5243,
      "##టిక్": 5244,
      "కొట్టి": 5245,
      "##చేసుకు": 5246,
      "అభ్యర్థుల": 5247,
      "దానిపై": 5248,
      "ఉపాధ్య": 5249,
      "##ట్రిక్": 5250,
      "ఐదే": 5251,
      "్లో": 5252,
      "##పింగ్": 5253,
      "స్టూడెంట్": 5254,
      "కెరీర్": 5255,
      "ండ": 5256,
      "ఎప్పుడు": 5257,
      "మిన": 5258,
      "స్తోంది": 5259,
      "ట్రాన్స్": 5260,
      "పిలుపుని": 5261,
      "దశాబ్": 5262,
      "ధో": 5263,
      "చెల": 5264,
      "ప్రాధాన్యత": 5265,
      "##రై": 5266,
      "##బల్": 5267,
      "##పాదన": 5268,
      "అక్కడే": 5269,
      "##ెక్టరేట్": 5270,
      "కలుగు": 5271,
      "టౌన్": 5272,
      "తెలియజే": 5273,
      "పంచాయతీ": 5274,
      "##ార్జున": 5275,
      "గ్రహ": 5276,
      "##గ్రామ్": 5277,
      "అలీ": 5278,
      "రద్దీ": 5279,
      "##కాలను": 5280,
      "##ర్ణ": 5281,
      "చేయాల్సి": 5282,
      "ఇన్నింగ్స్": 5283,
      "##దన్నారు": 5284,
      "పెన్": 5285,
      "పాక్": 5286,
      "గెలిచిన": 5287,
      "ra": 5288,
      "మల": 5289,
      "చూస్తే": 5290,
      "యూపీ": 5291,
      "ఉద్యోగ": 5292,
      "వాతావరణం": 5293,
      "##్రు": 5294,
      "చేరారు": 5295,
      "ారన్నారు": 5296,
      "నిలిచింది": 5297,
      "##పట్నం": 5298,
      "##కాలంలో": 5299,
      "ఆహారం": 5300,
      "గుడి": 5301,
      "అవుతోంది": 5302,
      "ఆఫీస్": 5303,
      "\".": 5304,
      "గట్టి": 5305,
      "ఘో": 5306,
      "##వతి": 5307,
      "##ీత": 5308,
      "##ంతర": 5309,
      "వర్గాల": 5310,
      "##జిట్": 5311,
      "ఎవరైనా": 5312,
      "నంద": 5313,
      "వంట": 5314,
      "సన్ని": 5315,
      "##వాద": 5316,
      "##ఎస్పీ": 5317,
      "స్టేట్": 5318,
      "‌‌లో": 5319,
      "##ళా": 5320,
      "##ల్చ": 5321,
      "##స్థాయి": 5322,
      "నియోజకవర్గాల్లో": 5323,
      "ప్రయాణం": 5324,
      "అదానీ": 5325,
      "సాధారణంగా": 5326,
      "హౌస్": 5327,
      "ప్రణాళిక": 5328,
      "రవీ": 5329,
      "##పోయే": 5330,
      "టీచర్": 5331,
      "సాధించ": 5332,
      "ఆసక్తిక": 5333,
      "పెట్టుబ": 5334,
      "అకౌంట్": 5335,
      "ఏదో": 5336,
      "##లూ": 5337,
      "##್ಯ": 5338,
      "##ినట్లు": 5339,
      "కుంభ": 5340,
      "ముని": 5341,
      "##పాడు": 5342,
      "ఆయు": 5343,
      "పదార్థ": 5344,
      "గ్రామానికి": 5345,
      "ఉపాధి": 5346,
      "కుమారుడు": 5347,
      "పరిణామ": 5348,
      "ఇంది": 5349,
      "##ేత్ర": 5350,
      "కుప్ప": 5351,
      "పెండింగ్": 5352,
      "నిర్లక్ష": 5353,
      "వైద్యులు": 5354,
      "బౌలర్": 5355,
      "ఆడియన్స్": 5356,
      "జర": 5357,
      "##یو": 5358,
      "చూపించ": 5359,
      "తాగ": 5360,
      "చేరిన": 5361,
      "అశ్వ": 5362,
      "వందే": 5363,
      "##తాలు": 5364,
      "##ఎస్సీ": 5365,
      "రచయిత": 5366,
      "రాజ్యసభ": 5367,
      "మొబైల్": 5368,
      "మన్": 5369,
      "##್ದ": 5370,
      "ఆఫీసర్లు": 5371,
      "హెచ్చరిక": 5372,
      "మొదలైంది": 5373,
      "ప్రొఫెసర్": 5374,
      "ంగా": 5375,
      "జంట": 5376,
      "రౌ": 5377,
      "##రక": 5378,
      "##యాలని": 5379,
      "##చారాన్ని": 5380,
      "##ప్ల": 5381,
      "రెండే": 5382,
      "రేప": 5383,
      "నాయక్": 5384,
      "##ినేని": 5385,
      "ఎంట్రీ": 5386,
      "ఇస్తామని": 5387,
      "ఫ్రీ": 5388,
      "బస్": 5389,
      "ాల్సి": 5390,
      "##ంఛ": 5391,
      "కాలు": 5392,
      "##ఆర్ఎస్": 5393,
      "రాజమ": 5394,
      "చిక్కు": 5395,
      "సైబర్": 5396,
      "సిద్ధంగా": 5397,
      "ధాన్": 5398,
      "పాలు": 5399,
      "##గుల": 5400,
      "గానే": 5401,
      "సైన్": 5402,
      "##్యాలీ": 5403,
      "ప్రమాదంలో": 5404,
      "జస్టిస్": 5405,
      "33": 5406,
      "##వరం": 5407,
      "వేసుకు": 5408,
      "వర్మ": 5409,
      "ఆకట్టుకు": 5410,
      "##వారికి": 5411,
      "పుష్ప": 5412,
      "సెంట్రల్": 5413,
      "##తారని": 5414,
      "##గాన్ని": 5415,
      "అంచనాలు": 5416,
      "థియేటర్": 5417,
      "దంప": 5418,
      "ాలి": 5419,
      "వల్లే": 5420,
      "##పడుతున్న": 5421,
      "బట్టి": 5422,
      "##నాయ": 5423,
      "ప్రమో": 5424,
      "##సింహ": 5425,
      "ప్రకటించ": 5426,
      "ఆకర్": 5427,
      "పడిన": 5428,
      "బర్": 5429,
      "హరి": 5430,
      "##వానికి": 5431,
      "చెప్పే": 5432,
      "రెడ్డిని": 5433,
      "నియామ": 5434,
      "చ్": 5435,
      "హర్": 5436,
      "##దార్": 5437,
      "##షీ": 5438,
      "##కుంటే": 5439,
      "ప్రశ": 5440,
      "దక్షిణా": 5441,
      "##పాటి": 5442,
      "నేతృ": 5443,
      "హీరోగా": 5444,
      "క్లారిటీ": 5445,
      "తరఫున": 5446,
      "టాక్": 5447,
      "భవన్": 5448,
      "##హద్దు": 5449,
      "##లాలు": 5450,
      "##యేట్": 5451,
      "పరిస్థితుల్లో": 5452,
      "సరిహద్దు": 5453,
      "కరెంట్": 5454,
      "మెదక్": 5455,
      "లబ్ధి": 5456,
      "పాదయాత్ర": 5457,
      "##వేల": 5458,
      "వారిపై": 5459,
      "ఉద్యోగాలు": 5460,
      "రుణమా": 5461,
      "చెప్పుకొచ్చారు": 5462,
      "##దుల": 5463,
      "లేవు": 5464,
      "చేశామని": 5465,
      "##త్యం": 5466,
      "అవకాశము": 5467,
      "అధికారంలో": 5468,
      "హిట్": 5469,
      "##నిక్": 5470,
      "కలిగ": 5471,
      "బ్యాక్": 5472,
      "ద్ర": 5473,
      "##్రూ": 5474,
      "##కుంటున్న": 5475,
      "మీదుగా": 5476,
      "చిత్రా": 5477,
      "సెక్రటరీ": 5478,
      "పేట": 5479,
      "దానిని": 5480,
      "నిలిచి": 5481,
      "దిగారు": 5482,
      "سے": 5483,
      "అండగా": 5484,
      "బలంగా": 5485,
      "##ోన్న": 5486,
      "##పాయ": 5487,
      "##ال": 5488,
      "##లేని": 5489,
      "టీవీ": 5490,
      "‌‌‌‌‌‌‌‌లో": 5491,
      "పరిశీలించారు": 5492,
      "హనుమ": 5493,
      "ఆరా": 5494,
      "చెందు": 5495,
      "శ్రీరా": 5496,
      "విషయంపై": 5497,
      "కళా": 5498,
      "జీవితం": 5499,
      "బరిలోకి": 5500,
      "##పోయాడు": 5501,
      "అబ్": 5502,
      "భట్టి": 5503,
      "సెట్": 5504,
      "మందిని": 5505,
      "కంపెనీలు": 5506,
      "చూడాలి": 5507,
      "కొనసాగుతోంది": 5508,
      "మానవ": 5509,
      "అంతేకాదు": 5510,
      "రుణమాఫీ": 5511,
      "ర్యాలీ": 5512,
      "##ఖ్": 5513,
      "##నేది": 5514,
      "##రించాలని": 5515,
      "చేరుకున్న": 5516,
      "కమ్యూని": 5517,
      "ప్రచారంలో": 5518,
      "కట్టు": 5519,
      "##యని": 5520,
      "##వాన్": 5521,
      "జరిగిందని": 5522,
      "యుద్ధం": 5523,
      "వచ్చు": 5524,
      "##టికే": 5525,
      "ఘటనలో": 5526,
      "దర్శనం": 5527,
      "అదనపు": 5528,
      "300": 5529,
      "##పణ": 5530,
      "##ృహ": 5531,
      "##ంటా": 5532,
      "మేనిఫెస్టో": 5533,
      "లక్ష్య": 5534,
      "వస్తున్నాయి": 5535,
      "తదితర": 5536,
      "నినా": 5537,
      "##మయ్యారు": 5538,
      "##ారన్నారు": 5539,
      "సాధి": 5540,
      "జరుగుతు": 5541,
      "పరిగణ": 5542,
      "ఇందుకు": 5543,
      "నది": 5544,
      "వస": 5545,
      "కోట్లకు": 5546,
      "బాల్": 5547,
      "లీడర్లు": 5548,
      "పడుతున్నారు": 5549,
      "##ರು": 5550,
      "##ర్చ్": 5551,
      "##మానం": 5552,
      "గుంటూ": 5553,
      "వివాదం": 5554,
      "గుంటూరు": 5555,
      "రాక": 5556,
      "కుమ": 5557,
      "అయ్యా": 5558,
      "##పిక్": 5559,
      "పోరాటం": 5560,
      "ఓపెన్": 5561,
      "లూ": 5562,
      "హార్": 5563,
      "సిద్ది": 5564,
      "బిగ్": 5565,
      "నిర్ణయాలు": 5566,
      "త్వరగా": 5567,
      "బాధితు": 5568,
      "ముందస్తు": 5569,
      "##రామయ్య": 5570,
      "‌‌‌‌లో": 5571,
      "దీనిని": 5572,
      "నీటిని": 5573,
      "36": 5574,
      "##లైన": 5575,
      "##స్తుల": 5576,
      "55": 5577,
      "##మోహన్": 5578,
      "తొలగి": 5579,
      "కోచ్": 5580,
      "జిల్లాల": 5581,
      "విధానం": 5582,
      "##రని": 5583,
      "##స్మ": 5584,
      "##ందాం": 5585,
      "సిరి": 5586,
      "కార్యక్రమాలు": 5587,
      "ప్రేక్షకుల": 5588,
      "కడు": 5589,
      "పద్ధ": 5590,
      "విపక్ష": 5591,
      "##లాబాద్": 5592,
      "##నీయ": 5593,
      "ఉండదు": 5594,
      "##జిక్": 5595,
      "తప్పని": 5596,
      "ప్రశాంత్": 5597,
      "రఘు": 5598,
      "గూడ": 5599,
      "దృ": 5600,
      "##డిపి": 5601,
      "అనుచ": 5602,
      "వసూలు": 5603,
      "తప్పుడు": 5604,
      "ాలు": 5605,
      "##‌న్": 5606,
      "##ాయా": 5607,
      "వద్దకు": 5608,
      "ఆదాయ": 5609,
      "పన్ను": 5610,
      "దేశంలోని": 5611,
      "నెలల్లో": 5612,
      "ఎస్టీ": 5613,
      "జరగనుంది": 5614,
      "అంబే": 5615,
      "అలర్": 5616,
      "గడ్": 5617,
      "నన్ను": 5618,
      "బాలు": 5619,
      "##రాన్ని": 5620,
      "‌‌‌‌‌‌‌‌‌‌‌‌‌‌‌‌‌": 5621,
      "వేర్": 5622,
      "పుట్టిన": 5623,
      "##శ్మీర్": 5624,
      "కెన": 5625,
      "నూతన": 5626,
      "అలవా": 5627,
      "గ్రీన్": 5628,
      "##లికి": 5629,
      "##లర్లు": 5630,
      "##రిటీ": 5631,
      "తాగు": 5632,
      "కౌంటర్": 5633,
      "భక్తుల": 5634,
      "నిలు": 5635,
      "##్యానికి": 5636,
      "##ిత్యాల": 5637,
      "ఉన్నప్పుడు": 5638,
      "పెద్దపల్లి": 5639,
      "తుది": 5640,
      "ఇస్తున్న": 5641,
      "ఊహించ": 5642,
      "కదా": 5643,
      "##న్నె": 5644,
      "##క్టరీ": 5645,
      "##గుణంగా": 5646,
      "నిర్ధ": 5647,
      "##రించడం": 5648,
      "హాట్": 5649,
      "బృందం": 5650,
      "నని": 5651,
      "##భం": 5652,
      "జగిత్యాల": 5653,
      "ఒక్కసారిగా": 5654,
      "వ్యక్తిగత": 5655,
      "వైస్": 5656,
      "##జింగ్": 5657,
      "తల్లిదండ్రులు": 5658,
      "అద్ద": 5659,
      "సవాల్": 5660,
      "##శో": 5661,
      "కేబినెట్": 5662,
      "రెవెన్": 5663,
      "##పోటు": 5664,
      "గ్రౌండ్": 5665,
      "అసోసి": 5666,
      "జగన్‌": 5667,
      "వెళ్తున్న": 5668,
      "ప్రాంతాల": 5669,
      "అభ్యర్": 5670,
      "వచ్చిందని": 5671,
      "రెవెన్యూ": 5672,
      "ఎడ": 5673,
      "##క్టర్": 5674,
      "వీరు": 5675,
      "పిలి": 5676,
      "వృద్ధ": 5677,
      "##ేశ్వర్": 5678,
      "ఇక్కడి": 5679,
      "##ఖండ్": 5680,
      "##స్తాయని": 5681,
      "చేసిందని": 5682,
      "మంచిది": 5683,
      "వ్యవహరి": 5684,
      "విరాట్": 5685,
      "యజ": 5686,
      "##బడిన": 5687,
      "##మటి": 5688,
      "##చేశారు": 5689,
      "##లేటి": 5690,
      "మోస": 5691,
      "భూక": 5692,
      "విద్యార్థులకు": 5693,
      "చోటుచేసుకు": 5694,
      "రాశుల": 5695,
      "కుటుంబానికి": 5696,
      "సార్": 5697,
      "##మ్రా": 5698,
      "సాగ": 5699,
      "సినిమాకు": 5700,
      "రిజిస్ట్ర": 5701,
      "రిటైర్": 5702,
      "ఖరారు": 5703,
      "##ష్ఠ": 5704,
      "మాట్లాడిన": 5705,
      "సురక్ష": 5706,
      "37": 5707,
      "ఉగ్ర": 5708,
      "తూర్": 5709,
      "హైదరాబాద్‌": 5710,
      "అందజే": 5711,
      "పెట్టుబడి": 5712,
      "##కేషన్": 5713,
      "##ుకున్నారు": 5714,
      "రాజకీయాలు": 5715,
      "క్యాన్సర్": 5716,
      "వందల": 5717,
      "##గూడెం": 5718,
      "అటవీ": 5719,
      "సిద్దిపేట": 5720,
      "పెట్రో": 5721,
      "డివి": 5722,
      "##తానికి": 5723,
      "ఆరోపి": 5724,
      "రికార్డ్": 5725,
      "బైక్": 5726,
      "జర్నలి": 5727,
      "పసు": 5728,
      "‌లను": 5729,
      "##పుల": 5730,
      "విద్యార్థుల": 5731,
      "ధీమా": 5732,
      "హమా": 5733,
      "##ృత": 5734,
      "ప్రవీ": 5735,
      "##ించనున్నారు": 5736,
      "పోర్టు": 5737,
      "రోజూ": 5738,
      "##్యూరిటీ": 5739,
      "##ెంట్లు": 5740,
      "ప్రభావిత": 5741,
      "జూనియర్": 5742,
      "##రాలి": 5743,
      "పులి": 5744,
      "గ్రాముల": 5745,
      "తొలిసారి": 5746,
      "గెలిచి": 5747,
      "దశలో": 5748,
      "అసి": 5749,
      "కృష్": 5750,
      "డ్": 5751,
      "భగ": 5752,
      "పైనే": 5753,
      "ఆయనను": 5754,
      "విమానా": 5755,
      "లక్ష్మ": 5756,
      "కూతురు": 5757,
      "ఇస": 5758,
      "##ri": 5759,
      "కాళ": 5760,
      "గాజా": 5761,
      "జరిగాయి": 5762,
      "ఖై": 5763,
      "##ఢ్": 5764,
      "రాశారు": 5765,
      "##చ్చే": 5766,
      "##ాయితీ": 5767,
      "తేలింది": 5768,
      "కర్నూ": 5769,
      "అన్నీ": 5770,
      "జూలై": 5771,
      "48": 5772,
      "##ంబు": 5773,
      "##ట్రా": 5774,
      "పోవ": 5775,
      "పాల్గొన": 5776,
      "ప్రభాస్": 5777,
      "రాష్ట్రానికి": 5778,
      "సింగరే": 5779,
      "జ్ఞ": 5780,
      "ఏరియా": 5781,
      "బంతు": 5782,
      "##వెంట్": 5783,
      "నిల్": 5784,
      "అభ్యర్థిగా": 5785,
      "భద్రతా": 5786,
      "విజ్ఞప్తి": 5787,
      "కోసమే": 5788,
      "##బే": 5789,
      "లోపు": 5790,
      "కిడ్": 5791,
      "డిజ": 5792,
      "198": 5793,
      "##క్ష్మి": 5794,
      "కార్యాలయంలో": 5795,
      "కంట్రో": 5796,
      "డం": 5797,
      "విష్ణు": 5798,
      "చెప్పాడు": 5799,
      "##కేజీ": 5800,
      "భూము": 5801,
      "ఉండేది": 5802,
      "ప్రవీణ్": 5803,
      "కలు": 5804,
      "ವಿ": 5805,
      "తీసి": 5806,
      "సీఈ": 5807,
      "రూమ్": 5808,
      "వీడియోను": 5809,
      "సేవలు": 5810,
      "రాలేదు": 5811,
      "##వరీ": 5812,
      "##కలా": 5813,
      "##ికే": 5814,
      "రాబోయే": 5815,
      "##పోర్ట్": 5816,
      "యాజ": 5817,
      "సాధించింది": 5818,
      "బుక్": 5819,
      "కుమార్తె": 5820,
      "పర్యవే": 5821,
      "తక్కువగా": 5822,
      "కొర": 5823,
      "సాగర్": 5824,
      "తీసుకునే": 5825,
      "ప్రతిష్ట": 5826,
      "సమస్యల": 5827,
      "ట్రో": 5828,
      "ఆదిలాబాద్": 5829,
      "విదేశీ": 5830,
      "చెలరే": 5831,
      "యజమా": 5832,
      "వస్తోంది": 5833,
      "కామె": 5834,
      "ప్రపంచవ్యాప్తంగా": 5835,
      "వాహన": 5836,
      "హాజరయ్యారు": 5837,
      "బతు": 5838,
      "నెంబర్": 5839,
      "తరగతి": 5840,
      "రంగారెడ్డి": 5841,
      "నిర్మించిన": 5842,
      "టోర్నీ": 5843,
      "ప్రదేశ": 5844,
      "##రిత": 5845,
      "విఫ": 5846,
      "చేయకుండా": 5847,
      "మార్గ": 5848,
      "ప్రతిపాదన": 5849,
      "##పోయినా": 5850,
      "టిడిపి": 5851,
      "చెల్లించ": 5852,
      "పసుపు": 5853,
      "##త్‌": 5854,
      "పేర్": 5855,
      "రోజుకు": 5856,
      "మిలియన్": 5857,
      "కలక": 5858,
      "టైమ్": 5859,
      "పనిచేస్తున్న": 5860,
      "కార్యాలయం": 5861,
      "ప్రస్తావ": 5862,
      "ప్రియాంక": 5863,
      "మనీ": 5864,
      "##లెట్": 5865,
      "##గారు": 5866,
      "##గాలను": 5867,
      "ఘటనపై": 5868,
      "గుర్తించ": 5869,
      "ఇస్రో": 5870,
      "ఇల్లు": 5871,
      "##జ్య": 5872,
      "##so": 5873,
      "ప్రవర్": 5874,
      "అత్యా": 5875,
      "చెబుతున్న": 5876,
      "అప్పట్లో": 5877,
      "వ్యవహారం": 5878,
      "##ళ్ళు": 5879,
      "ప్రశంస": 5880,
      "అన్": 5881,
      "##ರ್": 5882,
      "కోమటి": 5883,
      "వేడి": 5884,
      "వాట్": 5885,
      "చిత్త": 5886,
      "ఉత్తర్వులు": 5887,
      "!!": 5888,
      "ఓపె": 5889,
      "మరీ": 5890,
      "##డల్": 5891,
      "##మిన": 5892,
      "##మూర్తి": 5893,
      "##‌పై": 5894,
      "##ులర్": 5895,
      "సెక్యూరిటీ": 5896,
      "విశ్లే": 5897,
      "సాంకే": 5898,
      "గంగ": 5899,
      "##రెన్స్": 5900,
      "##స్కర్": 5901,
      "కూర్చు": 5902,
      "##యోగి": 5903,
      "సైని": 5904,
      "పాలసీ": 5905,
      "లేకపోవడంతో": 5906,
      "ఆమోదం": 5907,
      "సీఐడీ": 5908,
      "వెళు": 5909,
      "సాంకేతిక": 5910,
      "32": 5911,
      "శ్ర": 5912,
      "##సుక": 5913,
      "కిరణ్": 5914,
      "జాత": 5915,
      "ఎమ్మెల్యేగా": 5916,
      "ప్లేయర్": 5917,
      "##ంపేట": 5918,
      "34": 5919,
      "అర్ధ": 5920,
      "ప్లాంట్": 5921,
      "వడ్డీ": 5922,
      "డో": 5923,
      "##ವು": 5924,
      "వేరే": 5925,
      "మీటర్ల": 5926,
      "##రణి": 5927,
      "శిక్షణ": 5928,
      "శివకుమార్": 5929,
      "నటించిన": 5930,
      "బీబీసీతో": 5931,
      "ఆశ్రయ": 5932,
      "ఇటు": 5933,
      "##ైర్": 5934,
      "##‌తో": 5935,
      "##స్యం": 5936,
      "సినిమాను": 5937,
      "బెంగా": 5938,
      "హిందు": 5939,
      "నాలుగో": 5940,
      "వెనక్కి": 5941,
      "పద్మ": 5942,
      "##వెల్": 5943,
      "##మతి": 5944,
      "కోర్": 5945,
      "##దేవి": 5946,
      "డిజి": 5947,
      "దినోత్స": 5948,
      "బ్రేక్": 5949,
      "##పెద్ద": 5950,
      "నగరంలో": 5951,
      "అందించారు": 5952,
      "ఈవెంట్": 5953,
      "షు": 5954,
      "##ారుల": 5955,
      "డెవలప్": 5956,
      "##పరమైన": 5957,
      "##న్ల": 5958,
      "పొందిన": 5959,
      "##ుకుని": 5960,
      "##స్టల్": 5961,
      "దేవర": 5962,
      "ఇంటర్వ్యూ": 5963,
      "సింగరేణి": 5964,
      "ఘా": 5965,
      "##చల్": 5966,
      "##at": 5967,
      "విషా": 5968,
      "చంద్రబాబుకు": 5969,
      "తరపున": 5970,
      "కనిపిస్తుంది": 5971,
      "##క్య": 5972,
      "##న్నర": 5973,
      "##రుడు": 5974,
      "ఒకరి": 5975,
      "చేస్తానని": 5976,
      "అనుగుణంగా": 5977,
      "కార్యకలా": 5978,
      "కార్తీ": 5979,
      "సహజ": 5980,
      "నిలిపి": 5981,
      "భక్తులకు": 5982,
      "తూర్పు": 5983,
      "టన్న": 5984,
      "ట్రి": 5985,
      "అనిల్": 5986,
      "నాణ్య": 5987,
      "దిగిన": 5988,
      "పరిశీ": 5989,
      "వైఎస్సార్": 5990,
      "శ్రీనివాస": 5991,
      "వస్తాయి": 5992,
      "గ్రామాల్లో": 5993,
      "ఇళ్ల": 5994,
      "ప్రదేశ్": 5995,
      "##లిజ": 5996,
      "##మేష్": 5997,
      "పొంగు": 5998,
      "గతే": 5999,
      "ప్రాంతం": 6000,
      "నూనె": 6001,
      "పెట్టింది": 6002,
      "విమానాశ్ర": 6003,
      "అఖ": 6004,
      "##పెట్టి": 6005,
      "##ీణ": 6006,
      "##୍ତ": 6007,
      "##స్తి": 6008,
      "##కుని": 6009,
      "##గాలకు": 6010,
      "పురా": 6011,
      "పాల్గొన్న": 6012,
      "ఇన్వ": 6013,
      "ామన్నారు": 6014,
      "also": 6015,
      "##ోందని": 6016,
      "##రోసా": 6017,
      "అవినా": 6018,
      "యాజమాన్": 6019,
      "ఎంటర్": 6020,
      "ఏమీ": 6021,
      "##చంద్ర": 6022,
      "##୍ର": 6023,
      "##సుల": 6024,
      "రాజా": 6025,
      "కేజీ": 6026,
      "వర్క్": 6027,
      "పిలు": 6028,
      "బలమైన": 6029,
      "న్నాయి": 6030,
      "జేడీ": 6031,
      "కస్టడీ": 6032,
      "ch": 6033,
      "ہو": 6034,
      "బార": 6035,
      "వో": 6036,
      "##ାର": 6037,
      "రెడ్": 6038,
      "యువతి": 6039,
      "సమీపంలోని": 6040,
      "కడప": 6041,
      "ఛే": 6042,
      "యాక్షన్": 6043,
      "కార్యక్రమానికి": 6044,
      "read": 6045,
      "సస్": 6046,
      "చేయలేదు": 6047,
      "##మైనా": 6048,
      "2020": 6049,
      "తెలుసుకుందాం": 6050,
      "హరీష్": 6051,
      "గిల్": 6052,
      "##el": 6053,
      "చేసుకునే": 6054,
      "##పడుతున్నారు": 6055,
      "నిలదీ": 6056,
      "సలహా": 6057,
      "కంట్రోల్": 6058,
      "ఓటర్లు": 6059,
      "గంజ": 6060,
      "కోడ్": 6061,
      "రేషన్": 6062,
      "న్నారు": 6063,
      "శాస్త్రవేత్త": 6064,
      "నటుడు": 6065,
      "ان": 6066,
      "##ಿದ": 6067,
      "##స్తారని": 6068,
      "పోలిస్తే": 6069,
      "రూపంలో": 6070,
      "చనిపోయిన": 6071,
      "ఆసియా": 6072,
      "కెనడా": 6073,
      "నకి": 6074,
      "##వికి": 6075,
      "పాన్": 6076,
      "లేట": 6077,
      "కోట్లతో": 6078,
      "ప్రశ్ని": 6079,
      "మండలంలోని": 6080,
      "గమనించ": 6081,
      "##ద్కర్": 6082,
      "##దురు": 6083,
      "ముద్ర": 6084,
      "దేశాలు": 6085,
      "##డ్డూ": 6086,
      "ఉంటున్న": 6087,
      "ఆర్‌": 6088,
      "ప్రభుత్వంలో": 6089,
      "జాగ్రత్తగా": 6090,
      "##మికి": 6091,
      "స్టీ": 6092,
      "రాం": 6093,
      "పనులను": 6094,
      "కర్ణాటకలో": 6095,
      "నిలబ": 6096,
      "వెంకటస్వామి": 6097,
      "ఉంచు": 6098,
      "నిజం": 6099,
      "పాలనలో": 6100,
      "ల్యాండ్": 6101,
      "ఆమోద": 6102,
      "అనారోగ్య": 6103,
      "అసిస్ట": 6104,
      "పొంగులేటి": 6105,
      "గతేడాది": 6106,
      "کہ": 6107,
      "##బన్": 6108,
      "విన్న": 6109,
      "విటమి": 6110,
      "వెలువ": 6111,
      "మాస్టర్": 6112,
      "సామాన్": 6113,
      "బియ్య": 6114,
      "అమెరికాలో": 6115,
      "##నెల": 6116,
      "జాబితాలో": 6117,
      "భోజ": 6118,
      "అల్ల": 6119,
      "జార్": 6120,
      "##తనం": 6121,
      "విడత": 6122,
      "పోయా": 6123,
      "##షన్స్": 6124,
      "వీడియోలు": 6125,
      "రావాలని": 6126,
      "ప్రోత్స": 6127,
      "కనిపించింది": 6128,
      "భిన్న": 6129,
      "ఇసుక": 6130,
      "జంతు": 6131,
      "##హార": 6132,
      "దీక్ష": 6133,
      "హైక": 6134,
      "మధ్యలో": 6135,
      "లేదంటే": 6136,
      "పడ్డారు": 6137,
      "ఒడిశా": 6138,
      "పెన్షన్": 6139,
      "కాళేశ్వరం": 6140,
      "اور": 6141,
      "ఎక్": 6142,
      "ఓటీ": 6143,
      "ాడ": 6144,
      "##సీమ": 6145,
      "ఉత్తరా": 6146,
      "ఆనంద": 6147,
      "హెల్త్": 6148,
      "కచ్చితంగా": 6149,
      "##‌‌‌‌‌": 6150,
      "##ెన్షన్": 6151,
      "##జర్స్": 6152,
      "ఆదేశించింది": 6153,
      "గెలిపించ": 6154,
      "సామర్థ": 6155,
      "##‌ర‌": 6156,
      "సస్పె": 6157,
      "ఖర్చ": 6158,
      "##పోతున్న": 6159,
      "మూడే": 6160,
      "యూట్యూ": 6161,
      "తుపా": 6162,
      "ఎంపీగా": 6163,
      "మంచిర్యాల": 6164,
      "వివాహం": 6165,
      "ముగిసిన": 6166,
      "ఓవర్లలో": 6167,
      "మంటలు": 6168,
      "41": 6169,
      "an": 6170,
      "అంటారు": 6171,
      "##ుల్లో": 6172,
      "##ేజీ": 6173,
      "##గడ": 6174,
      "##క్షంలో": 6175,
      "##ంటింగ్": 6176,
      "##మ్మల": 6177,
      "##ంబరు": 6178,
      "రంగంలో": 6179,
      "స్వయంగా": 6180,
      "గ్యాస్": 6181,
      "ధర్మా": 6182,
      "అసోసియేషన్": 6183,
      "భూకంప": 6184,
      "ఇద": 6185,
      "##ంతృ": 6186,
      "కూల్చి": 6187,
      "పిల్లలకు": 6188,
      "ఇటీవలే": 6189,
      "##దాల": 6190,
      "మాల్": 6191,
      "తీయ": 6192,
      "మరిన్ని": 6193,
      "టైటిల్": 6194,
      "ఫామ్": 6195,
      "పబ్లిక్": 6196,
      "బంతుల్లో": 6197,
      "పరంగా": 6198,
      "భరోసా": 6199,
      "వేశ": 6200,
      "శ్": 6201,
      "శే": 6202,
      "స్తూ": 6203,
      "##ంగిక": 6204,
      "ములుగు": 6205,
      "కాలేదు": 6206,
      "సంతోషంగా": 6207,
      "డాక్టర్లు": 6208,
      "గడువు": 6209,
      "కృష్ణా": 6210,
      "ద్": 6211,
      "ుడు": 6212,
      "##ಿಕ": 6213,
      "##ెక్షన్": 6214,
      "స్తున్నారు": 6215,
      "అవ్వ": 6216,
      "సెమీ": 6217,
      "వ్యాధి": 6218,
      "క్రై": 6219,
      "తీసుకోవ": 6220,
      "వంటివి": 6221,
      "చేరుకున్నారు": 6222,
      "బంగారు": 6223,
      "లైంగిక": 6224,
      "ఐదుగు": 6225,
      "ఉద్యోగుల": 6226,
      "అతిపెద్ద": 6227,
      "మరికొంద": 6228,
      "42": 6229,
      "చరణ్": 6230,
      "దిల్లీ": 6231,
      "రొ": 6232,
      "##ئی": 6233,
      "సీరియ": 6234,
      "##్రాంతి": 6235,
      "##తాధిక": 6236,
      "పొన్న": 6237,
      "ఏర్పడిన": 6238,
      "ఫోకస్": 6239,
      "ప్రత్యక్ష": 6240,
      "పీసీసీ": 6241,
      "##కంఠ": 6242,
      "ఉద్రి": 6243,
      "పరిష్కారం": 6244,
      "బృంద": 6245,
      "వదిలే": 6246,
      "వలస": 6247,
      "ఏజెన్సీ": 6248,
      "ఇరాన్": 6249,
      "కోమటిరెడ్డి": 6250,
      "ఒంట": 6251,
      "పండి": 6252,
      "మవు": 6253,
      "##రక్షణ": 6254,
      "##త్రీ": 6255,
      "తీసుకుంటున్న": 6256,
      "మారాయి": 6257,
      "నిర్ణయించారు": 6258,
      "హిందీ": 6259,
      "గంజాయి": 6260,
      "##రిగే": 6261,
      "##టీషన్": 6262,
      "ఉన్నత": 6263,
      "##దానికి": 6264,
      "విషయాలు": 6265,
      "సోనియా": 6266,
      "ఏర్పడింది": 6267,
      "సర్పంచ": 6268,
      "##నర్జీ": 6269,
      "నమ్మకం": 6270,
      "దళిత": 6271,
      "మహబూబ్": 6272,
      "గానీ": 6273,
      "నవ": 6274,
      "##ంసా": 6275,
      "##್ಟ": 6276,
      "##కుడి": 6277,
      "##కాలిక": 6278,
      "ప్రదర్శన": 6279,
      "లేటెస్ట్": 6280,
      "కప్పు": 6281,
      "##ام": 6282,
      "మాస్": 6283,
      "సర్వ": 6284,
      "చేస్తున్నాయి": 6285,
      "పెరుగుతున్న": 6286,
      "పెరుగుతుంది": 6287,
      "##స్పద": 6288,
      "ఎవరికి": 6289,
      "గౌరవ": 6290,
      "అద్భుతమైన": 6291,
      "సతీ": 6292,
      "విసి": 6293,
      "##రాం": 6294,
      "మెరుగ": 6295,
      "ఆర్డర్": 6296,
      "పెట్టే": 6297,
      "స్థానాలు": 6298,
      "ప్రధానంగా": 6299,
      "జెండా": 6300,
      "అభిప్రాయం": 6301,
      "కార్మికులు": 6302,
      "సర్వీస్": 6303,
      "అర్హత": 6304,
      "ఎనిమిది": 6305,
      "##యస్": 6306,
      "నేటి": 6307,
      "చేశాయి": 6308,
      "ఆర్మీ": 6309,
      "మధ్యప్రదేశ్": 6310,
      "డీజీ": 6311,
      "రాజకీయంగా": 6312,
      "ప్రశ్నించ": 6313,
      "జోన్": 6314,
      "ఫ్యాక్టరీ": 6315,
      "##పెట్టారు": 6316,
      "వివేకా": 6317,
      "సచివాల": 6318,
      "ప్రకా": 6319,
      "వివరి": 6320,
      "తెగ": 6321,
      "ఉన్నతాధిక": 6322,
      "ప్రత్యర్థ": 6323,
      "సెలవు": 6324,
      "రిపోర్టు": 6325,
      "ట్రైలర్": 6326,
      "పిలుపునిచ్చారు": 6327,
      "ఓటర్": 6328,
      "##భూ": 6329,
      "##ీగా": 6330,
      "##en": 6331,
      "##ట్టారు": 6332,
      "##ద్దే": 6333,
      "చోట": 6334,
      "తుల": 6335,
      "##ay": 6336,
      "కలిగిన": 6337,
      "క్షేత్ర": 6338,
      "‌‌‌‌‌‌‌‌‌‌‌‌‌‌‌‌‌‌‌‌‌‌": 6339,
      "టు": 6340,
      "##హరణ": 6341,
      "కొడ": 6342,
      "##రోధ": 6343,
      "##క్రెయిన్": 6344,
      "వర్గం": 6345,
      "రంగంలోకి": 6346,
      "##లైట్": 6347,
      "గ్లో": 6348,
      "##ಡಿಯ": 6349,
      "పరిచయం": 6350,
      "టిక్కెట్": 6351,
      "అశో": 6352,
      "గజ": 6353,
      "##ట్టింగ్": 6354,
      "అరవింద్": 6355,
      "దుకా": 6356,
      "కొనసాగుతున్న": 6357,
      "کیا": 6358,
      "దృష్టికి": 6359,
      "ఆశి": 6360,
      "ఈనెల": 6361,
      "జ‌": 6362,
      "ఫిల్": 6363,
      "##దారి": 6364,
      "##టనా": 6365,
      "##చ్చింది": 6366,
      "##డాన్ని": 6367,
      "దీప": 6368,
      "యాంటీ": 6369,
      "దీనివల్ల": 6370,
      "సంస్థల": 6371,
      "ప్రభావ": 6372,
      "వదిలి": 6373,
      "రాజ్యాంగ": 6374,
      "మెజార్టీ": 6375,
      "తేడాతో": 6376,
      "అంబేద్కర్": 6377,
      "అక్ష": 6378,
      "సంభవ": 6379,
      "వాల్": 6380,
      "##ల్లూరు": 6381,
      "పాటుగా": 6382,
      "సాధించారు": 6383,
      "ఎదుర్": 6384,
      "ఆసుపత్రికి": 6385,
      "హమాస్": 6386,
      "ఇత": 6387,
      "విధి": 6388,
      "పోస్టర్": 6389,
      "తీసుకొని": 6390,
      "సహాయం": 6391,
      "##కెక్క": 6392,
      "పడుతు": 6393,
      "మద్దతుగా": 6394,
      "ప్రొడ": 6395,
      "ఫీజు": 6396,
      "కాపాడు": 6397,
      "కురిసే": 6398,
      "ఏంటి": 6399,
      "కై": 6400,
      "సదు": 6401,
      "సమ్మ": 6402,
      "##గుల్": 6403,
      "నేర": 6404,
      "బాక్": 6405,
      "టీఎస్": 6406,
      "హింస": 6407,
      "పేరును": 6408,
      "హోటల్": 6409,
      "అమ్ము": 6410,
      "బలహీ": 6411,
      "ఉద్యోగులకు": 6412,
      "చేరింది": 6413,
      "నిందితుడు": 6414,
      "ఆగి": 6415,
      "రాష్ట్రపతి": 6416,
      "సర్టిఫ": 6417,
      "గంటల్లో": 6418,
      "న్ని": 6419,
      "చేరుకుంది": 6420,
      "వినో": 6421,
      "వీరిద్ద": 6422,
      "జాగ్రత్తలు": 6423,
      "ఫ్రెండ్": 6424,
      "గృహ": 6425,
      "తూ": 6426,
      "##నై": 6427,
      "నున్న": 6428,
      "వెల్": 6429,
      "పాప": 6430,
      "రేటు": 6431,
      "నిర్ణయించింది": 6432,
      "అలర్ట్": 6433,
      "ఆప్": 6434,
      "వాయు": 6435,
      "##రవ": 6436,
      "నిధుల": 6437,
      "రాసిన": 6438,
      "పాస్": 6439,
      "లేరు": 6440,
      "చూసుకు": 6441,
      "చేసుకోవ": 6442,
      "##ించుకోవడం": 6443,
      "గుర్తించి": 6444,
      "ప్రజాస్వామ": 6445,
      "ఉత్కంఠ": 6446,
      "అన్య": 6447,
      "##ోన్": 6448,
      "##సిల్ల": 6449,
      "సంక": 6450,
      "బాంబు": 6451,
      "లిమి": 6452,
      "బ్రిడ్": 6453,
      "అంశంపై": 6454,
      "నెటిజన్": 6455,
      "హైకమాండ్": 6456,
      "ఆశ్చ": 6457,
      "##ికొ": 6458,
      "సంబ": 6459,
      "దీపా": 6460,
      "##తాన్ని": 6461,
      "వారితో": 6462,
      "కర్నా": 6463,
      "వివాహ": 6464,
      "ప్రయాణికులు": 6465,
      "వాదనలు": 6466,
      "400": 6467,
      "##బరు": 6468,
      "##నగ": 6469,
      "చెప్పాలని": 6470,
      "రాష్ట్రవ్యాప్తంగా": 6471,
      "##త్తుల": 6472,
      "టైం": 6473,
      "క్రమంలోనే": 6474,
      "అనుకూల": 6475,
      "కలకలం": 6476,
      "అసిస్టెంట్": 6477,
      "కన్నా": 6478,
      "పార": 6479,
      "బార్": 6480,
      "##ర్షణ": 6481,
      "##ికెట్లు": 6482,
      "స్మార్": 6483,
      "కోట": 6484,
      "ప్రాథ": 6485,
      "ఆలయంలో": 6486,
      "అంశాలపై": 6487,
      "ప్రియ": 6488,
      "తప్పనిసరి": 6489,
      "ఆదు": 6490,
      "ఆన్‌": 6491,
      "##ಗೆ": 6492,
      "##మొ": 6493,
      "##స్తానని": 6494,
      "దేశాల్లో": 6495,
      "పిటీషన్": 6496,
      "సమావేశాలు": 6497,
      "తెరక": 6498,
      "2019లో": 6499,
      "పరిశోధన": 6500,
      "అంతకుముందు": 6501,
      "ఏటా": 6502,
      "ఛాన": 6503,
      "##గతం": 6504,
      "కోటి": 6505,
      "అధికారులతో": 6506,
      "##ుకుంది": 6507,
      "మనసు": 6508,
      "ఇద్దరి": 6509,
      "##ట్‌మెంట్": 6510,
      "పెరిగిన": 6511,
      "ప్రతినిధి": 6512,
      "సంపద": 6513,
      "ఇండ్లు": 6514,
      "ఖర్": 6515,
      "ఛై": 6516,
      "##ండం": 6517,
      "రాకపో": 6518,
      "##దాద్రి": 6519,
      "మంత్రిగా": 6520,
      "లీగ్": 6521,
      "విమానం": 6522,
      "మాటలు": 6523,
      "ఇంగ్లాండ్": 6524,
      "అధికారికంగా": 6525,
      "తీసుకుంటామని": 6526,
      "ఘనంగా": 6527,
      "##ధన్": 6528,
      "##ాలంటూ": 6529,
      "భూములు": 6530,
      "##ాంపి": 6531,
      "పోయిన": 6532,
      "పోస్టులు": 6533,
      "పునరు": 6534,
      "విపరీ": 6535,
      "తెల్లవారు": 6536,
      "అంట": 6537,
      "ఇస్తే": 6538,
      "నౌ": 6539,
      "##వసర": 6540,
      "##గమ": 6541,
      "##ూన్": 6542,
      "రాకుండా": 6543,
      "##వేత": 6544,
      "తెలంగాణకు": 6545,
      "అనంత": 6546,
      "మహేష్": 6547,
      "నిర్మాత": 6548,
      "వెంకట్": 6549,
      "విఫల": 6550,
      "డిజిటల్": 6551,
      "ఏళ్లు": 6552,
      "మట్టి": 6553,
      "##ారామ": 6554,
      "##నేత": 6555,
      "పొలి": 6556,
      "యాదాద్రి": 6557,
      "వీడియోలో": 6558,
      "రామకృష్ణ": 6559,
      "ఒప్పందం": 6560,
      "విశేషం": 6561,
      "ప్రాథమిక": 6562,
      "##ల్ట్": 6563,
      "##ాయక": 6564,
      "చేయండి": 6565,
      "ప్రాంతాలకు": 6566,
      "ఉంటాయని": 6567,
      "ట్రే": 6568,
      "##పెట్టిన": 6569,
      "అందుకున్న": 6570,
      "ధర్నా": 6571,
      "65": 6572,
      "త‌": 6573,
      "మిత్ర": 6574,
      "వడ": 6575,
      "##టిన": 6576,
      "చేయి": 6577,
      "సంవత్సరాలు": 6578,
      "సమర్పించ": 6579,
      "ఇంజినీ": 6580,
      "##య్యాడు": 6581,
      "క్యారెట్ల": 6582,
      "38": 6583,
      "ంటే": 6584,
      "పటే": 6585,
      "##ెడ్": 6586,
      "పోర్": 6587,
      "సమర్థ": 6588,
      "మేలు": 6589,
      "స్పందన": 6590,
      "కలెక్టరేట్": 6591,
      "తీసుకెళ్": 6592,
      "మరికొన్ని": 6593,
      "vi": 6594,
      "బ్యార": 6595,
      "భయం": 6596,
      "ప్రచు": 6597,
      "##ాయికి": 6598,
      "##పిరి": 6599,
      "చూస్తున్న": 6600,
      "బిజిన": 6601,
      "చేసుకోవచ్చు": 6602,
      "సూర్యా": 6603,
      "క్రికెటర్": 6604,
      "గద్ద": 6605,
      "లక్": 6606,
      "బెదిరి": 6607,
      "ఆధార్": 6608,
      "విచారణలో": 6609,
      "పడుతుంది": 6610,
      "అనుమత": 6611,
      "లేకపోవడం": 6612,
      "ఉద్రిక్త": 6613,
      "39": 6614,
      "ఏకా": 6615,
      "చల్ల": 6616,
      "న‌": 6617,
      "స్తారు": 6618,
      "పేలు": 6619,
      "ప్రధానమంత్రి": 6620,
      "ముఖ్యమంత్రిగా": 6621,
      "ఈవీ": 6622,
      "కంటి": 6623,
      "నవీ": 6624,
      "##దాన": 6625,
      "##లాల్లో": 6626,
      "రియల్": 6627,
      "హెడ్": 6628,
      "అభివృద్ధ": 6629,
      "మొదలైన": 6630,
      "##పాలన": 6631,
      "జడ్పీ": 6632,
      "డివిజన్": 6633,
      "బిజినెస్": 6634,
      "వ్వ": 6635,
      "##తామని": 6636,
      "##డేట్": 6637,
      "ఆదిత్య": 6638,
      "చుట్టు": 6639,
      "ఎకరాల": 6640,
      "ంటు": 6641,
      "ಮಾ": 6642,
      "##ూల": 6643,
      "##చో": 6644,
      "##am": 6645,
      "స్తా": 6646,
      "##కాంక్షలు": 6647,
      "ఉన్నాడు": 6648,
      "రిమాండ్": 6649,
      "జిల్లాకు": 6650,
      "తేల్చి": 6651,
      "మంత్రిత్వ": 6652,
      "జీవో": 6653,
      "మిస్": 6654,
      "మ్యాచ్‌లో": 6655,
      "సంవత్సరంలో": 6656,
      "మున్సిపాలిటీ": 6657,
      "##ల్లంఘ": 6658,
      "శై": 6659,
      "##ొద్దని": 6660,
      "##ీస్": 6661,
      "##ین": 6662,
      "విజయాన్ని": 6663,
      "అవుతున్నాయి": 6664,
      "గూగుల్": 6665,
      "ండి": 6666,
      "రాము": 6667,
      "పరిహారం": 6668,
      "##జీగా": 6669,
      "శ్రీధర్": 6670,
      "జరుగుతున్నాయి": 6671,
      "సూచన": 6672,
      "పథకాలు": 6673,
      "దృష్టిలో": 6674,
      "నమోదైంది": 6675,
      "భవిష్యత్": 6676,
      "ఉల్లంఘ": 6677,
      "జపా": 6678,
      "ాన": 6679,
      "##ేజ్": 6680,
      "##మిషన్": 6681,
      "సాంగ్": 6682,
      "సత్యనారాయణ": 6683,
      "రిజిస్ట్రేషన్": 6684,
      "కర్నాటక": 6685,
      "ఉదా": 6686,
      "తగి": 6687,
      "బట్ట": 6688,
      "సిట్టింగ్": 6689,
      "దేశానికి": 6690,
      "రమేశ్": 6691,
      "న్యాయవాది": 6692,
      "ందా": 6693,
      "##దన్": 6694,
      "##తిప": 6695,
      "##రామ": 6696,
      "సోర్స్": 6697,
      "##వంతమైన": 6698,
      "ఎదురుచూ": 6699,
      "ఏసీబీ": 6700,
      "ఆవిష్క": 6701,
      "వరి": 6702,
      "సీఎ": 6703,
      "స్ట్రీ": 6704,
      "చంద్రుడి": 6705,
      "జీహెచ్": 6706,
      "న్యూజి": 6707,
      "శ్రేణ": 6708,
      "నిల్వ": 6709,
      "ధన": 6710,
      "##టైన": 6711,
      "##జరీ": 6712,
      "##୍ୟ": 6713,
      "##పుల్": 6714,
      "వాళ్లకు": 6715,
      "తనపై": 6716,
      "##వర్ణ": 6717,
      "చూసు": 6718,
      "మనకు": 6719,
      "గోల్డ్": 6720,
      "అసెంబ్లీలో": 6721,
      "తెలుసుకున్న": 6722,
      "సంప్రదాయ": 6723,
      "తొమ్మిది": 6724,
      "ایک": 6725,
      "ఎత్తి": 6726,
      "రమేష్": 6727,
      "##ప్రెస్": 6728,
      "##త్న": 6729,
      "##ంతం": 6730,
      "##మాన": 6731,
      "కోలు": 6732,
      "వాణి": 6733,
      "సమక్షంలో": 6734,
      "టీం": 6735,
      "ప్రకటి": 6736,
      "ఇద్దరూ": 6737,
      "పనిచేసే": 6738,
      "పెరిగే": 6739,
      "అక్రమంగా": 6740,
      "సిరిసిల్ల": 6741,
      "న్యూజిలాండ్": 6742,
      "చది": 6743,
      "ఫార": 6744,
      "మ్": 6745,
      "శో": 6746,
      "##ాయో": 6747,
      "వివరణ": 6748,
      "నివాసం": 6749,
      "ఉన్నప్పటికీ": 6750,
      "అధికంగా": 6751,
      "అసంతృ": 6752,
      "దేవాల": 6753,
      "మారిన": 6754,
      "హైకోర్టులో": 6755,
      "స్పష్టత": 6756,
      "##కూడదు": 6757,
      "ఢీకొ": 6758,
      "హైడ్రా": 6759,
      "సుల": 6760,
      "##లక": 6761,
      "##ات": 6762,
      "##తుండగా": 6763,
      "##ండటం": 6764,
      "సింహ": 6765,
      "చంద్రబాబును": 6766,
      "లింగ": 6767,
      "విమాన": 6768,
      "##ాపన": 6769,
      "పర్యావరణ": 6770,
      "ఎక్స్‌ప్రెస్": 6771,
      "పేర్లు": 6772,
      "చంద్రయాన్": 6773,
      "నిర్వహించే": 6774,
      "ఫోర్": 6775,
      "##స్టులు": 6776,
      "వ్యవధి": 6777,
      "బెంగాల్": 6778,
      "ఓటీటీ": 6779,
      "ఓట": 6780,
      "వారా": 6781,
      "##రిట": 6782,
      "పోరు": 6783,
      "మామి": 6784,
      "వేణు": 6785,
      "##తూనే": 6786,
      "చనిపో": 6787,
      "దెబ్బతి": 6788,
      "ఫేక్": 6789,
      "భారతదేశంలో": 6790,
      "కనుగొ": 6791,
      "సానుకూ": 6792,
      "##ౌట్": 6793,
      "##st": 6794,
      "వీరికి": 6795,
      "##టికప్పుడు": 6796,
      "బ్యాటర్": 6797,
      "197": 6798,
      "ప్రశ్నలు": 6799,
      "తెరకెక్క": 6800,
      "మంద": 6801,
      "వహ": 6802,
      "##ంటరీ": 6803,
      "##మింగ్": 6804,
      "వేస్తున్నారు": 6805,
      "వ్యక్త": 6806,
      "దేవి": 6807,
      "కథనం": 6808,
      "వెబ్‌": 6809,
      "కానిస్టే": 6810,
      "##లిజెన్స్": 6811,
      "co": 6812,
      "కంప్": 6813,
      "కసర": 6814,
      "టర్": 6815,
      "##గితే": 6816,
      "రోజా": 6817,
      "##ణాన్ని": 6818,
      "తీసుకోవాలి": 6819,
      "కోర్టుకు": 6820,
      "ఫ్ల": 6821,
      "కన్నడ": 6822,
      "అధ్యయనం": 6823,
      "అభ్యర్థులను": 6824,
      "ఫ్లో": 6825,
      "గురైన": 6826,
      "స్వీకారం": 6827,
      "సీతారామ": 6828,
      "49": 6829,
      "ఎద్దే": 6830,
      "##ూహ": 6831,
      "##ئے": 6832,
      "నిర్వాహ": 6833,
      "##జిత్": 6834,
      "ఉత్తరప్రదేశ్": 6835,
      "స్పష్టంగా": 6836,
      "##ేశ్వరరావు": 6837,
      "అత్యధికంగా": 6838,
      "గడ్డం": 6839,
      "ఇస్": 6840,
      "ఎమో": 6841,
      "గలి": 6842,
      "ಗಳ": 6843,
      "##తులతో": 6844,
      "తీసిన": 6845,
      "బాడీ": 6846,
      "బీజేపీలో": 6847,
      "##మార్క": 6848,
      "కారణాలు": 6849,
      "అందజేశారు": 6850,
      "##విత్ర": 6851,
      "వైఎస్ఆర్": 6852,
      "ప్రైవేటు": 6853,
      "గిరిజన": 6854,
      "ఎండీ": 6855,
      "కాలి": 6856,
      "ారో": 6857,
      "్ని": 6858,
      "##ంక్షన్": 6859,
      "##న్నది": 6860,
      "##మ్మల్ని": 6861,
      "చింత": 6862,
      "రుతు": 6863,
      "150": 6864,
      "##సైడ్": 6865,
      "వీటిలో": 6866,
      "ఒలిం": 6867,
      "మించి": 6868,
      "సగ": 6869,
      "##లుత": 6870,
      "వాటా": 6871,
      "ప్రారంభించ": 6872,
      "తీవ్రత": 6873,
      "దూరంలో": 6874,
      "ఆలస్య": 6875,
      "##త్మకంగా": 6876,
      "వాహనాలు": 6877,
      "##వంతం": 6878,
      "##నకు": 6879,
      "దాడికి": 6880,
      "వర్గ": 6881,
      "శుభా": 6882,
      "బాలకృష్ణ": 6883,
      "షేక్": 6884,
      "లేకపోతే": 6885,
      "విక్రమార్క": 6886,
      "నియంత్రణ": 6887,
      "స్కిల్": 6888,
      "##ామిక": 6889,
      "తేల్": 6890,
      "తీసుకొ": 6891,
      "అతనికి": 6892,
      "చేసుకోవాలని": 6893,
      "ఫలితం": 6894,
      "టాటా": 6895,
      "తిరుమలలో": 6896,
      "బయలుదేరి": 6897,
      "కార్యకలాప": 6898,
      "ఖు": 6899,
      "##సనం": 6900,
      "##డాల్సి": 6901,
      "తొలుత": 6902,
      "ఎద్దేవా": 6903,
      "ఘర్షణ": 6904,
      "స్వీ": 6905,
      "##సిన్": 6906,
      "ముర": 6907,
      "సిస్ట": 6908,
      "పార్క్": 6909,
      "పైకి": 6910,
      "పేరిట": 6911,
      "గంటలు": 6912,
      "అయినప్పటికీ": 6913,
      "##దారులకు": 6914,
      "సంగారెడ్డి": 6915,
      "అభివృద్ధికి": 6916,
      "జాన్": 6917,
      "రాయ్": 6918,
      "లడ్డూ": 6919,
      "##ెత్తు": 6920,
      "ఉండడంతో": 6921,
      "చేస్తున్నామని": 6922,
      "##శ్వర్": 6923,
      "అడిషనల్": 6924,
      "ఆసుపత్రిలో": 6925,
      "ఎదుర్కొంటున్న": 6926,
      "నకిలీ": 6927,
      "##ాయర్": 6928,
      "గెలవ": 6929,
      "చేసుకోవాలి": 6930,
      "సహాయక": 6931,
      "బరిలో": 6932,
      "ఫార్మా": 6933,
      "బారిన": 6934,
      "ఆక్రమ": 6935,
      "గల్": 6936,
      "తదు": 6937,
      "##వకు": 6938,
      "##ంపుల": 6939,
      "ఎస్‌": 6940,
      "ఫ్లా": 6941,
      "నిమిషాల": 6942,
      "47": 6943,
      "ఓటింగ్": 6944,
      "నివాస": 6945,
      "స్వి": 6946,
      "##వుగా": 6947,
      "వచ్చినా": 6948,
      "చెప్పాలి": 6949,
      "##వర్గ": 6950,
      "నెల్లూరు": 6951,
      "షాపు": 6952,
      "##ామున": 6953,
      "చేరుకుని": 6954,
      "వివరాల": 6955,
      "భూమిని": 6956,
      "రిపోర్ట్": 6957,
      "మెరుగైన": 6958,
      "తదుపరి": 6959,
      "బంగా": 6960,
      "##విల్": 6961,
      "##కాయ": 6962,
      "##హిత": 6963,
      "##గామ": 6964,
      "##బాబాద్": 6965,
      "##త్రిక": 6966,
      "ఒకసారి": 6967,
      "చేస్తారని": 6968,
      "ఇదిలా": 6969,
      "లిస్ట్": 6970,
      "అక్కడికి": 6971,
      "లైఫ్": 6972,
      "శరీరంలో": 6973,
      "మనుష": 6974,
      "లిమిటెడ్": 6975,
      "46": 6976,
      "##కారం": 6977,
      "##ದ್ದ": 6978,
      "తీశారు": 6979,
      "లక్ష్యం": 6980,
      "అప్పటికే": 6981,
      "ఆలయం": 6982,
      "జరగనున్న": 6983,
      "తెలియదు": 6984,
      "కాపాడ": 6985,
      "ఉప్ప": 6986,
      "గీ": 6987,
      "ఫండ్": 6988,
      "మిల్": 6989,
      "మంచు": 6990,
      "ఉండడం": 6991,
      "సమాజ": 6992,
      "భూముల": 6993,
      "నాలుగే": 6994,
      "స్వల్ప": 6995,
      "పాత్రలో": 6996,
      "మరణించారు": 6997,
      "కారులో": 6998,
      "##చుకున్న": 6999,
      "##రగాయ": 7000,
      "కెమెరా": 7001,
      "జపాన్": 7002,
      "ఇంద్ర": 7003,
      "మం": 7004,
      "అవత": 7005,
      "అనుబంధ": 7006,
      "మాట్లాడే": 7007,
      "జట్టులో": 7008,
      "పర్వ": 7009,
      "నోటీసు": 7010,
      "మెజారిటీ": 7011,
      "ఉష్ణోగ్రతలు": 7012,
      "బియ్యం": 7013,
      "యూట్యూబ్": 7014,
      "సూర్యాపేట": 7015,
      "44": 7016,
      "బెస్ట్": 7017,
      "స్వాత": 7018,
      "రాగానే": 7019,
      "చెప్పడం": 7020,
      "సాక్ష": 7021,
      "తేలిక": 7022,
      "కేసును": 7023,
      "సంబంధాలు": 7024,
      "అవుతుందని": 7025,
      "సరిగ్గా": 7026,
      "మరికొందరు": 7027,
      "కత్తి": 7028,
      "##రన్": 7029,
      "జరిగితే": 7030,
      "అవుతున్నారు": 7031,
      "గోడ": 7032,
      "ారనే": 7033,
      "నిలిచ": 7034,
      "విభాగం": 7035,
      "ధాన్యం": 7036,
      "ప్రయోగ": 7037,
      "##ాలన్న": 7038,
      "##త్తులు": 7039,
      "నివా": 7040,
      "ఉన్నట్టు": 7041,
      "##విని": 7042,
      "భాగం": 7043,
      "కీలకంగా": 7044,
      "నిర్మాణానికి": 7045,
      "వాట్సా": 7046,
      "వహి": 7047,
      "##వారా": 7048,
      "##పించిన": 7049,
      "##హరి": 7050,
      "##ంటీర్": 7051,
      "స్న": 7052,
      "##వుతున్న": 7053,
      "కూరగాయ": 7054,
      "వాగ్": 7055,
      "ఉండేలా": 7056,
      "గాయాల": 7057,
      "జైలులో": 7058,
      "రిజర్వ్": 7059,
      "మనిషి": 7060,
      "మహబూబాబాద్": 7061,
      "పరిమిత": 7062,
      "##یڈیو": 7063,
      "పలికారు": 7064,
      "పెట్రోల్": 7065,
      "డాక": 7066,
      "బ్యాల": 7067,
      "శం": 7068,
      "##రె": 7069,
      "##పించి": 7070,
      "నిఘా": 7071,
      "స్త్రీ": 7072,
      "నాన్": 7073,
      "చూస్తు": 7074,
      "చేసుకుంటున్న": 7075,
      "క్రియేట్": 7076,
      "మణిపూర్": 7077,
      "ఖర్గే": 7078,
      "99": 7079,
      "జమ్మ": 7080,
      "బలో": 7081,
      "##లంలో": 7082,
      "##క్కల": 7083,
      "రెగ్య": 7084,
      "##ులతో": 7085,
      "##ఫ్టీ": 7086,
      "అవుతు": 7087,
      "చెబుతోంది": 7088,
      "పరిష్కరించ": 7089,
      "పెట్టుబడులు": 7090,
      "ఊహించని": 7091,
      "ంత": 7092,
      "ఆఫర్": 7093,
      "ఉల్లి": 7094,
      "చక్ర": 7095,
      "##దరి": 7096,
      "కొడు": 7097,
      "మాదిరి": 7098,
      "చేయలే": 7099,
      "వెలుగులోకి": 7100,
      "గ్రామీణ": 7101,
      "##కరంగా": 7102,
      "డెలి": 7103,
      "అభిప్రాయపడ్డారు": 7104,
      "స్కామ్": 7105,
      "చోటుచేసుకుంది": 7106,
      "ویڈیو": 7107,
      "##సీస్": 7108,
      "చివరకు": 7109,
      "లుగా": 7110,
      "ప్రాంతానికి": 7111,
      "నిర్వహించి": 7112,
      "భారత్‌లో": 7113,
      "ఉత్తమ": 7114,
      "సంఘాల": 7115,
      "అడుగులు": 7116,
      "నాగార్జున": 7117,
      "బాధితులు": 7118,
      "వయస్సు": 7119,
      "ఆస్పత్రికి": 7120,
      "క్రీడా": 7121,
      "ఇంజనీ": 7122,
      "ఎప్పటికప్పుడు": 7123,
      "ఒంటరి": 7124,
      "శుభాకాంక్షలు": 7125,
      "కండ": 7126,
      "బలం": 7127,
      "##సరా": 7128,
      "కోరిక": 7129,
      "వెహ": 7130,
      "##తీరు": 7131,
      "వైసీపీకి": 7132,
      "తెలియని": 7133,
      "##ధులను": 7134,
      "##స్తోందని": 7135,
      "విటమిన్": 7136,
      "ఆన్‌లైన్": 7137,
      "సగటు": 7138,
      "పవిత్ర": 7139,
      "##వ‌": 7140,
      "##మూర్": 7141,
      "##జీలు": 7142,
      "నాయకుల": 7143,
      "వ్యక్తిని": 7144,
      "##స్టిక్": 7145,
      "గ్రేటర్": 7146,
      "కళాశాల": 7147,
      "##చె": 7148,
      "##నుల": 7149,
      "##ార్క్": 7150,
      "##తోన్న": 7151,
      "##పాతం": 7152,
      "##సాని": 7153,
      "తమను": 7154,
      "ఆర్థికంగా": 7155,
      "ఫలితంగా": 7156,
      "అశ్వి": 7157,
      "యాజమాన్యం": 7158,
      "54": 7159,
      "డయా": 7160,
      "దసరా": 7161,
      "భవన": 7162,
      "##తంత్ర": 7163,
      "##శై": 7164,
      "##నేయ": 7165,
      "కొండా": 7166,
      "వేచి": 7167,
      "మార్గం": 7168,
      "ప్రజల్లో": 7169,
      "క్రె": 7170,
      "సభకు": 7171,
      "ారంటూ": 7172,
      "సభ్యుడు": 7173,
      "బిల్డింగ్": 7174,
      "ఎకరాల్లో": 7175,
      "یہ": 7176,
      "ఆశా": 7177,
      "ఔట్": 7178,
      "##వళి": 7179,
      "##చలం": 7180,
      "##శంకర్": 7181,
      "వీలు": 7182,
      "మూసి": 7183,
      "రాజకీయం": 7184,
      "జైలుకు": 7185,
      "షిప్": 7186,
      "మ్యూజిక్": 7187,
      "ఛాన్స్": 7188,
      "ఉదాహరణ": 7189,
      "జమ్మూ": 7190,
      "କର": 7191,
      "జమ": 7192,
      "సప్": 7193,
      "##దికి": 7194,
      "##tt": 7195,
      "##ించగా": 7196,
      "నున్నారు": 7197,
      "##్యాలు": 7198,
      "దాటి": 7199,
      "దాకా": 7200,
      "అయ్యి": 7201,
      "కుటుంబాలకు": 7202,
      "అంశా": 7203,
      "పిల్లలను": 7204,
      "అంశాలు": 7205,
      "నిర్వహిస్తున్న": 7206,
      "వైరస్": 7207,
      "##లక్ష్మి": 7208,
      "##రాయి": 7209,
      "##తిన్": 7210,
      "సిక్": 7211,
      "సంకే": 7212,
      "రియా": 7213,
      "నేతలతో": 7214,
      "నెలలు": 7215,
      "##గ్రహ": 7216,
      "కెసి": 7217,
      "తీర్మానం": 7218,
      "కార్యక్రమాన్ని": 7219,
      "ఐదుగురు": 7220,
      "ఇష్టం": 7221,
      "ఐక్య": 7222,
      "జట్టుకు": 7223,
      "టికెట్లు": 7224,
      "##ھا": 7225,
      "విగ్రహం": 7226,
      "##పోర్": 7227,
      "టీజర్": 7228,
      "పుట్ట": 7229,
      "జగదీ": 7230,
      "అతడి": 7231,
      "వాటిలో": 7232,
      "ఇంటె": 7233,
      "##త్వంలోని": 7234,
      "ఆనంద్": 7235,
      "రాజమండ్రి": 7236,
      "భోజనం": 7237,
      "డాక్యు": 7238,
      "ఉంద": 7239,
      "ఉప్పు": 7240,
      "ధా": 7241,
      "పిల్": 7242,
      "##ری": 7243,
      "##క్షన్స్": 7244,
      "కూలీ": 7245,
      "ముప్పు": 7246,
      "వాటికి": 7247,
      "పథకాల": 7248,
      "ఇంటర్నే": 7249,
      "బ్రహ్": 7250,
      "లభించింది": 7251,
      "ఉపాధ్యాయ": 7252,
      "అలవాటు": 7253,
      "అశోక్": 7254,
      "گیا": 7255,
      "##లండ్": 7256,
      "##తన్య": 7257,
      "సమన్": 7258,
      "##ంట్ల": 7259,
      "అనిపి": 7260,
      "తీవ్రమైన": 7261,
      "యువకుడు": 7262,
      "రంగం": 7263,
      "యూనియన్": 7264,
      "కిలోల": 7265,
      "పారిశ్ర": 7266,
      "నిరాశ": 7267,
      "నాయకత్వం": 7268,
      "పారిశ్రామిక": 7269,
      "ఎల్ల": 7270,
      "ఐఏ": 7271,
      "చర్మ": 7272,
      "##re": 7273,
      "##ారిత": 7274,
      "స్తే": 7275,
      "##ంటుందని": 7276,
      "చిన్నారి": 7277,
      "అందిస్తున్న": 7278,
      "వస్తాయని": 7279,
      "శుభ్ర": 7280,
      "కోరుతూ": 7281,
      "విభజన": 7282,
      "శాసనసభ": 7283,
      "స్టోరీ": 7284,
      "గ్లోబల్": 7285,
      "##ಡಿಯೋ": 7286,
      "వాట్సాప్": 7287,
      "బలోపే": 7288,
      "సవా": 7289,
      "##డక": 7290,
      "##కార": 7291,
      "##ండెంట్": 7292,
      "##ప్పుడే": 7293,
      "అన్నది": 7294,
      "రోడ్లు": 7295,
      "శరీర": 7296,
      "హుస్": 7297,
      "##డ్డాడు": 7298,
      "సీరియస్": 7299,
      "ఇళ్లు": 7300,
      "##ab": 7301,
      "##وی": 7302,
      "##ారన్న": 7303,
      "##యాంశ": 7304,
      "కోటా": 7305,
      "##మిక్": 7306,
      "బీమా": 7307,
      "##నీయాంశ": 7308,
      "కింగ్": 7309,
      "##మ్మద్": 7310,
      "##ధ్యం": 7311,
      "మార్గంలో": 7312,
      "పొర": 7313,
      "సౌత్": 7314,
      "పౌర": 7315,
      "ధ్వంసం": 7316,
      "డెలివరీ": 7317,
      "టమా": 7318,
      "##గఢ్": 7319,
      "##‌‌లో": 7320,
      "సుదీ": 7321,
      "తెలుస్తుంది": 7322,
      "జనతా": 7323,
      "పెట్టడం": 7324,
      "వచ్చినట్లు": 7325,
      "స్వాగతం": 7326,
      "సరిపో": 7327,
      "నిర్మించ": 7328,
      "రాజీవ్": 7329,
      "వీరిలో": 7330,
      "నవీన్": 7331,
      "కబ్": 7332,
      "లొ": 7333,
      "##ొచ్చని": 7334,
      "##లెన్స్": 7335,
      "##షిక": 7336,
      "##హర్": 7337,
      "##ందింది": 7338,
      "మార్క్": 7339,
      "భాస్కర్": 7340,
      "నేతలకు": 7341,
      "తేదీల్లో": 7342,
      "కార్మికుల": 7343,
      "తినడం": 7344,
      "తనిఖీలు": 7345,
      "దక్షిణాఫ్రికా": 7346,
      "కసరత్తు": 7347,
      "##లె": 7348,
      "##పర": 7349,
      "డిపా": 7350,
      "వాహనం": 7351,
      "క్వార్": 7352,
      "ఆయుధ": 7353,
      "సస్పెండ్": 7354,
      "వెబ్‌సై": 7355,
      "కేశ": 7356,
      "థ్ర": 7357,
      "##మంతా": 7358,
      "అంతరి": 7359,
      "కొత్తగూడెం": 7360,
      "చర్చనీయాంశ": 7361,
      "పెరిగాయి": 7362,
      "ఫలితాలను": 7363,
      "అప్పుడే": 7364,
      "ఎన్డీఏ": 7365,
      "ఇందిరా": 7366,
      "ఇంటర్నేషనల్": 7367,
      "ఉంటూ": 7368,
      "టూ": 7369,
      "బల్": 7370,
      "##డైన": 7371,
      "చేతులు": 7372,
      "##నులు": 7373,
      "నితీ": 7374,
      "స్ఫ": 7375,
      "పోయే": 7376,
      "పెళ్ల": 7377,
      "చూసే": 7378,
      "నెయ్యి": 7379,
      "##బంధు": 7380,
      "వెళ్ళ": 7381,
      "ఆధారాలు": 7382,
      "అడుగుల": 7383,
      "ఫాలో": 7384,
      "సొంతం": 7385,
      "ప్లేస్": 7386,
      "విశాఖపట్నం": 7387,
      "సీపీఐ": 7388,
      "డీజీపీ": 7389,
      "మామిడి": 7390,
      "ఆక్": 7391,
      "ఉందా": 7392,
      "రం": 7393,
      "వలన": 7394,
      "##సలు": 7395,
      "నిత్యం": 7396,
      "##ప్పటి": 7397,
      "పోతున్న": 7398,
      "##సేజ్": 7399,
      "బెడ్": 7400,
      "కాలంగా": 7401,
      "ఎంపీలు": 7402,
      "2016": 7403,
      "నిందితులు": 7404,
      "పెట్టుకున్న": 7405,
      "ఇంగ్లండ్": 7406,
      "##క్రియ": 7407,
      "##డియం": 7408,
      "పోల్": 7409,
      "##మెన్": 7410,
      "ప్రారంభించిన": 7411,
      "తున్న": 7412,
      "హామీలు": 7413,
      "ఎయిర్‌": 7414,
      "స్కోరు": 7415,
      "ఛైర్మన్": 7416,
      "ఇంటెలిజెన్స్": 7417,
      "59": 7418,
      "అహ్మద్": 7419,
      "##తన్": 7420,
      "##శీ": 7421,
      "స్పి": 7422,
      "పోర్ట్": 7423,
      "సిం": 7424,
      "సమగ్ర": 7425,
      "##కూరు": 7426,
      "వారీగా": 7427,
      "అతన్ని": 7428,
      "ట్రాక్": 7429,
      "కోరుతున్నారు": 7430,
      "వేడుకలు": 7431,
      "ఎక్కడా": 7432,
      "##ಂದು": 7433,
      "స్థలానికి": 7434,
      "పల్లె": 7435,
      "సార్వ": 7436,
      "ఎగ": 7437,
      "తహ": 7438,
      "##జిల్": 7439,
      "కొట్టుకు": 7440,
      "మేయర్": 7441,
      "వారే": 7442,
      "క్షమా": 7443,
      "లభిస్తుంది": 7444,
      "సురేష్": 7445,
      "డిజైన్": 7446,
      "ఆశ్చర్య": 7447,
      "పటేల్": 7448,
      "శంకు": 7449,
      "##నమెంట్": 7450,
      "##కల్": 7451,
      "##ెన": 7452,
      "సిట్": 7453,
      "తీర్చ": 7454,
      "వేముల": 7455,
      "రూరల్": 7456,
      "##యింగ్": 7457,
      "తిర": 7458,
      "##కాశం": 7459,
      "కీలకమైన": 7460,
      "సూచించింది": 7461,
      "నిర్మల్": 7462,
      "##మవుతుంది": 7463,
      "పెట్టుకుని": 7464,
      "కడుపు": 7465,
      "ରେ": 7466,
      "గది": 7467,
      "పాలి": 7468,
      "##మణి": 7469,
      "##ps": 7470,
      "##టిక్స్": 7471,
      "లేవని": 7472,
      "సమయానికి": 7473,
      "##సాద్": 7474,
      "కారణమని": 7475,
      "దోపి": 7476,
      "అప్లిక": 7477,
      "ఆరుగు": 7478,
      "డమే": 7479,
      "##ic": 7480,
      "##ھی": 7481,
      "చేశా": 7482,
      "వచ్చాక": 7483,
      "##సేపు": 7484,
      "రివ్యూ": 7485,
      "##ించేలా": 7486,
      "మండలి": 7487,
      "భాగస్వామ": 7488,
      "సూచనలు": 7489,
      "వృత్తి": 7490,
      "##ద్దీన్": 7491,
      "నొప్పి": 7492,
      "ఆకా": 7493,
      "ఖండ": 7494,
      "నంది": 7495,
      "పత": 7496,
      "##ార్హం": 7497,
      "పాటి": 7498,
      "తెలిసిన": 7499,
      "##ెట్టు": 7500,
      "నాట": 7501,
      "##స్ట్రి": 7502,
      "బిఆర్ఎస్": 7503,
      "##ర్యానా": 7504,
      "ఫోర్స్": 7505,
      "పీఎస్": 7506,
      "ంచారు": 7507,
      "సంచారం": 7508,
      "సహకార": 7509,
      "సిద్దం": 7510,
      "గుండెపోటు": 7511,
      "బలహీన": 7512,
      "అఫ్": 7513,
      "ధరణి": 7514,
      "పట్టి": 7515,
      "పైనా": 7516,
      "పోషి": 7517,
      "##జాన్": 7518,
      "మోడల్": 7519,
      "సినిమాల్లో": 7520,
      "పిఠా": 7521,
      "అవుట్": 7522,
      "చెబుతున్నాయి": 7523,
      "మొత్తంలో": 7524,
      "##లికా": 7525,
      "ాలని": 7526,
      "అనుమానం": 7527,
      "అదనంగా": 7528,
      "అండర్": 7529,
      "కక్ష": 7530,
      "గమన": 7531,
      "##సాయి": 7532,
      "##ట్‌లో": 7533,
      "హాల్": 7534,
      "చేసుకోవడం": 7535,
      "టాపిక్": 7536,
      "హత్యకు": 7537,
      "ఆస్పత్రిలో": 7538,
      "బ్రాండ్": 7539,
      "సునీల్": 7540,
      "అబ్దు": 7541,
      "చిత్తూరు": 7542,
      "అవినాష్": 7543,
      "బ్రిడ్జి": 7544,
      "క్వార్టర్": 7545,
      "go": 7546,
      "రస": 7547,
      "సత్తా": 7548,
      "##ణాల": 7549,
      "##హో": 7550,
      "##ak": 7551,
      "##لی": 7552,
      "##ప్ట్": 7553,
      "పార్టీలకు": 7554,
      "మార్చు": 7555,
      "జాతర": 7556,
      "ఉపయోగి": 7557,
      "సంగీ": 7558,
      "రాయల": 7559,
      "అప్పులు": 7560,
      "అంతేకాకుండా": 7561,
      "ఏను": 7562,
      "##ద్వే": 7563,
      "వేస": 7564,
      "##త్తం": 7565,
      "బెది": 7566,
      "జాబ్": 7567,
      "సమయంలోనే": 7568,
      "అంబా": 7569,
      "##పూడి": 7570,
      "భువన": 7571,
      "స్కీమ్": 7572,
      "బదు": 7573,
      "##హనం": 7574,
      "కోల్‌": 7575,
      "కూర్చ": 7576,
      "నాశ": 7577,
      "తీసుకువ": 7578,
      "సినిమాతో": 7579,
      "బిలియన్": 7580,
      "పేర్కొన్న": 7581,
      "తప్పకుండా": 7582,
      "ఘటనలు": 7583,
      "ల్ని": 7584,
      "స్పందించిన": 7585,
      "ఉచితంగా": 7586,
      "అప్లికేషన్": 7587,
      "గమనార్హం": 7588,
      "జట్లు": 7589,
      "##యన": 7590,
      "##గల్": 7591,
      "##le": 7592,
      "##ర్తి": 7593,
      "ప్రగతి": 7594,
      "##పోవడంతో": 7595,
      "తోంది": 7596,
      "##దాన్ని": 7597,
      "మొన్న": 7598,
      "హైవే": 7599,
      "##ించిందని": 7600,
      "అనుస": 7601,
      "##స్టార": 7602,
      "ప్రారంభి": 7603,
      "బయటికి": 7604,
      "ఇందుకోసం": 7605,
      "అందించే": 7606,
      "దొరక": 7607,
      "నిజంగా": 7608,
      "నెటిజన్లు": 7609,
      "సులభ": 7610,
      "సమన్వ": 7611,
      "600": 7612,
      "డౌన్": 7613,
      "తార": 7614,
      "మన్నారు": 7615,
      "##డె": 7616,
      "##హాలను": 7617,
      "##ారంటూ": 7618,
      "పెడుతున్న": 7619,
      "మావో": 7620,
      "నేపాల్": 7621,
      "##డీవో": 7622,
      "##సేప": 7623,
      "తెలిపిన": 7624,
      "స్ట్రా": 7625,
      "జనగామ": 7626,
      "##ంజర్": 7627,
      "పాలస్తీ": 7628,
      "అత్యు": 7629,
      "కౌంటింగ్": 7630,
      "విక్రయ": 7631,
      "లాభాలు": 7632,
      "పేదలకు": 7633,
      "చౌదరి": 7634,
      "గ్యారంటీ": 7635,
      "అధ్యక్షుడిగా": 7636,
      "రవీంద్ర": 7637,
      "సామాన్య": 7638,
      "సర్పంచ్": 7639,
      "సన్న": 7640,
      "##గ్రి": 7641,
      "స్తుందని": 7642,
      "కొరియా": 7643,
      "ముక్క": 7644,
      "##వర్స్": 7645,
      "టీఎంసీ": 7646,
      "సెన్": 7647,
      "సెగ్": 7648,
      "తీసుకురావ": 7649,
      "స్పే": 7650,
      "పనితీరు": 7651,
      "కలసి": 7652,
      "‌‌కు": 7653,
      "ముందుగానే": 7654,
      "ఢిల్లీకి": 7655,
      "##and": 7656,
      "ఎగ్జా": 7657,
      "స్టేడియంలో": 7658,
      "తెల్లవారుజ": 7659,
      "బంగాళా": 7660,
      "భువనగిరి": 7661,
      "గార్": 7662,
      "హర్యానా": 7663,
      "##చరణ": 7664,
      "##ೆಯ": 7665,
      "##ంత్రా": 7666,
      "నిరూ": 7667,
      "నువ్వు": 7668,
      "కూలి": 7669,
      "టీపీ": 7670,
      "సోదాలు": 7671,
      "##గొట్ట": 7672,
      "పనులకు": 7673,
      "గొంతు": 7674,
      "నిర్వహిస్తున్నారు": 7675,
      "సీతక్క": 7676,
      "నేతృత్వంలోని": 7677,
      "సుదీర్ఘ": 7678,
      "శంకుస్థ": 7679,
      "ہیں": 7680,
      "అచ్చ": 7681,
      "ఇష": 7682,
      "కరు": 7683,
      "##ఖరి": 7684,
      "చేరే": 7685,
      "స్పా": 7686,
      "##టిస్": 7687,
      "కొల": 7688,
      "సీజ్": 7689,
      "తోడు": 7690,
      "కనిపిస్తున్నాయి": 7691,
      "వైద్యం": 7692,
      "సాగుతోంది": 7693,
      "పోరాట": 7694,
      "కేటాయించ": 7695,
      "సూచిస్తున్నారు": 7696,
      "##స్థాయిలో": 7697,
      "బతుక": 7698,
      "ఏండ్ల": 7699,
      "కట్": 7700,
      "సందే": 7701,
      "##ାଇ": 7702,
      "##ಡು": 7703,
      "విజే": 7704,
      "పెంపు": 7705,
      "##సాహ": 7706,
      "ప్రభుత్వంపై": 7707,
      "కలిసిన": 7708,
      "పదవికి": 7709,
      "శరీరం": 7710,
      "స్క్రీన్": 7711,
      "పరామర్శ": 7712,
      "దృశ": 7713,
      "ఈవీఎం": 7714,
      "కలుపు": 7715,
      "యొక్క": 7716,
      "##టల్స్": 7717,
      "##హే": 7718,
      "##ందరికీ": 7719,
      "##డిట్": 7720,
      "తెరి": 7721,
      "సిగ్": 7722,
      "##రేటర్": 7723,
      "చంద్రశేఖర్": 7724,
      "డీఎం": 7725,
      "రామచంద్ర": 7726,
      "ఆశీర్": 7727,
      "ప్రకటనలో": 7728,
      "##మయ్యాయి": 7729,
      "పండగ": 7730,
      "సదుపాయ": 7731,
      "సీఎంగా": 7732,
      "th": 7733,
      "ఆడు": 7734,
      "##హిల్స్": 7735,
      "##ాలీ": 7736,
      "చేసినట్టు": 7737,
      "##స్టుల": 7738,
      "##గోపాల్": 7739,
      "స్థానాలకు": 7740,
      "లీక్": 7741,
      "దూసు": 7742,
      "నమ్ము": 7743,
      "##ಲ್‌": 7744,
      "చేస్తుందని": 7745,
      "గేమ్": 7746,
      "మల్లిక": 7747,
      "సెకండ్": 7748,
      "లెక్కలు": 7749,
      "అర్హుల": 7750,
      "జుట్టు": 7751,
      "స్మార్ట్": 7752,
      "కోల్‌క": 7753,
      "ఆస్తి": 7754,
      "ట్రీ": 7755,
      "##వనే": 7756,
      "##‌క": 7757,
      "రాఘ": 7758,
      "వర్కింగ్": 7759,
      "##హానికి": 7760,
      "వార్డు": 7761,
      "కాల్పులు": 7762,
      "ప్రభావితం": 7763,
      "పొలిటికల్": 7764,
      "ఏడా": 7765,
      "దానం": 7766,
      "‌కి": 7767,
      "##టెక్": 7768,
      "##జో": 7769,
      "లేన": 7770,
      "వేసే": 7771,
      "వేలాది": 7772,
      "సమాచారాన్ని": 7773,
      "##పూర్వ": 7774,
      "డైలా": 7775,
      "సరిగా": 7776,
      "డేట్": 7777,
      "వ్యాపారం": 7778,
      "ఎవరికీ": 7779,
      "లక్ష్మి": 7780,
      "సిటీలో": 7781,
      "క్వి": 7782,
      "వెనక": 7783,
      "ప్రతినిధులు": 7784,
      "కోరింది": 7785,
      "వాలంటీర్": 7786,
      "ఏమైనా": 7787,
      "చాలు": 7788,
      "##పాలి": 7789,
      "##పించింది": 7790,
      "##وں": 7791,
      "విలీ": 7792,
      "కుంటున్న": 7793,
      "వెల్లు": 7794,
      "##వుల్లో": 7795,
      "బాట": 7796,
      "##పర్తి": 7797,
      "ఢిల్లీలోని": 7798,
      "జైల్లో": 7799,
      "చైర్": 7800,
      "గ్రూపు": 7801,
      "ఏమిటి": 7802,
      "43": 7803,
      "అంజ": 7804,
      "##న్నర్": 7805,
      "##సిపి": 7806,
      "సిలి": 7807,
      "బీసీసీ": 7808,
      "వ్యక్తుల": 7809,
      "ఎన్నికలలో": 7810,
      "కుటుంబంలో": 7811,
      "పనుల": 7812,
      "టాస్": 7813,
      "##ేశ్వరి": 7814,
      "కనిపించడం": 7815,
      "ప్రయోజనాలు": 7816,
      "ఒప్పంద": 7817,
      "అప్రమత్తంగా": 7818,
      "బీసీసీఐ": 7819,
      "ఇండ్ల": 7820,
      "ఫౌ": 7821,
      "లారీ": 7822,
      "లన్నీ": 7823,
      "ైన": 7824,
      "##డూ": 7825,
      "##7లో": 7826,
      "##టీస్": 7827,
      "నుంది": 7828,
      "##ందున": 7829,
      "వెలు": 7830,
      "పాల్పడిన": 7831,
      "జరుగుతుందని": 7832,
      "ప్రభుత్వాలు": 7833,
      "ప్రముఖులు": 7834,
      "ఎలక్షన్": 7835,
      "తిరస్క": 7836,
      "ఒప్పు": 7837,
      "కం": 7838,
      "త్": 7839,
      "##ైతే": 7840,
      "##ఫోర్": 7841,
      "గాను": 7842,
      "##పిక్స్": 7843,
      "క్లీ": 7844,
      "గోల్": 7845,
      "నగరం": 7846,
      "ఫీచర్": 7847,
      "చక్కెర": 7848,
      "ఆసీస్": 7849,
      "గంగా": 7850,
      "గడ్డ": 7851,
      "ಪ್ರ": 7852,
      "##భద్ర": 7853,
      "విరమ": 7854,
      "చెత్త": 7855,
      "వెయ్యి": 7856,
      "పాండ": 7857,
      "నాగర్": 7858,
      "ఏర్పడి": 7859,
      "లక్షణాలు": 7860,
      "హైదరాబాద్‌లో": 7861,
      "##ినాడ": 7862,
      "196": 7863,
      "గురయ్యారు": 7864,
      "బ్రిటన్": 7865,
      "చరిత్రలో": 7866,
      "గ్యాంగ్": 7867,
      "కాకినాడ": 7868,
      "51": 7869,
      "56": 7870,
      "sh": 7871,
      "గరి": 7872,
      "ఘటనా": 7873,
      "యే": 7874,
      "సల్": 7875,
      "##రద": 7876,
      "##వణ్": 7877,
      "##ai": 7878,
      "##ಂಬ": 7879,
      "##ాయన్నారు": 7880,
      "వేసు": 7881,
      "##జీవ": 7882,
      "స్థాయికి": 7883,
      "నెలకు": 7884,
      "టైంలో": 7885,
      "కోల్పోయిన": 7886,
      "ముగియ": 7887,
      "సమాధాన": 7888,
      "##రోధక": 7889,
      "బతుకమ్మ": 7890,
      "ఇయర్": 7891,
      "ులు": 7892,
      "##వత్": 7893,
      "##వస్థ": 7894,
      "##వారీ": 7895,
      "##దశి": 7896,
      "##షన": 7897,
      "##కంలో": 7898,
      "##ధ్": 7899,
      "##వాదం": 7900,
      "సివిల్": 7901,
      "వేలకు": 7902,
      "##పోవడం": 7903,
      "మేష": 7904,
      "మేడ్": 7905,
      "రింగ్": 7906,
      "##ణాల్లో": 7907,
      "....": 7908,
      "##షియా": 7909,
      "ఎదుట": 7910,
      "సందీ": 7911,
      "వెళ్లేందుకు": 7912,
      "గ్లా": 7913,
      "దారుణంగా": 7914,
      "నిరాక": 7915,
      "విభే": 7916,
      "డిగ్రీల": 7917,
      "ఘోర": 7918,
      "ವಿಡಿಯೋ": 7919,
      "58": 7920,
      "అంటున్న": 7921,
      "కీర్": 7922,
      "టెన్షన్": 7923,
      "డొ": 7924,
      "పల్": 7925,
      "బ్యూటీ": 7926,
      "##తంలో": 7927,
      "##నికే": 7928,
      "మాస": 7929,
      "రేంజ్": 7930,
      "కలిశారు": 7931,
      "పింఛ": 7932,
      "రీసె": 7933,
      "ప్రజాప్ర": 7934,
      "చేసుకున్నాడు": 7935,
      "గాయపడిన": 7936,
      "చేయాల్సిన": 7937,
      "లక్నో": 7938,
      "రాయలసీమ": 7939,
      "గద్": 7940,
      "ళ్": 7941,
      "##భార": 7942,
      "##ట్టం": 7943,
      "పరిణా": 7944,
      "నాథ్": 7945,
      "##్యూటర్": 7946,
      "రాజశేఖర్": 7947,
      "చోరీ": 7948,
      "పక్కా": 7949,
      "##మవుతోంది": 7950,
      "క్రిమిన": 7951,
      "గెలుపొ": 7952,
      "రాజేంద్ర": 7953,
      "భద్రాచలం": 7954,
      "జేడీఎస్": 7955,
      "బస": 7956,
      "సజ్జ": 7957,
      "##తుడు": 7958,
      "విల": 7959,
      "పెడితే": 7960,
      "##కానికి": 7961,
      "సమాచార": 7962,
      "##ుకునే": 7963,
      "కేంద్రానికి": 7964,
      "ఆర్టి": 7965,
      "అతడు": 7966,
      "లింక్": 7967,
      "##సైటీ": 7968,
      "ముంబయి": 7969,
      "జయంతి": 7970,
      "విషయాలను": 7971,
      "సాధ్యం": 7972,
      "భూకంపం": 7973,
      "కన్నీ": 7974,
      "బడు": 7975,
      "##తగా": 7976,
      "##ବା": 7977,
      "##రిస్తున్న": 7978,
      "వెలి": 7979,
      "##కోవాల్సి": 7980,
      "##నీటి": 7981,
      "##స్థాన": 7982,
      "కేంద్రంలోని": 7983,
      "కృత": 7984,
      "నిబంధనలు": 7985,
      "మృతదేహాన్ని": 7986,
      "బ్యారేజీ": 7987,
      "అవా": 7988,
      "ద‌": 7989,
      "##్ర్": 7990,
      "##పుతున్న": 7991,
      "##పైకి": 7992,
      "##ెస్ట": 7993,
      "సీఎస్": 7994,
      "##క్కులు": 7995,
      "తిప్ప": 7996,
      "తేలి": 7997,
      "ముఖ్యం": 7998,
      "##రగో": 7999,
      "గ్రామాల": 8000,
      "సొసైటీ": 8001,
      "ఆందోళనకు": 8002,
      "న్యాయమూర్తి": 8003,
      "జడ్జి": 8004,
      "అఖి": 8005,
      "పొన్నం": 8006,
      "వినోద్": 8007,
      "దోపిడీ": 8008,
      "ఇవ్": 8009,
      "ఎంచ": 8010,
      "##ఛార్": 8011,
      "##نے": 8012,
      "##స్పా": 8013,
      "స్తాయి": 8014,
      "##ద్దాం": 8015,
      "##యింట్": 8016,
      "ఏర్పడ": 8017,
      "మాట్లాడి": 8018,
      "తుఫ": 8019,
      "సమావేశానికి": 8020,
      "##భావం": 8021,
      "సంఘాలు": 8022,
      "చూడాలని": 8023,
      "##లవరం": 8024,
      "కౌన్సిల్": 8025,
      "నివసి": 8026,
      "కాంట్రాక్": 8027,
      "అనుభవం": 8028,
      "నిర్లక్ష్యం": 8029,
      "ఆకర్ష": 8030,
      "సెగ్మెంట్": 8031,
      "52": 8032,
      "ఆడిన": 8033,
      "జాన": 8034,
      "వస్తున్నారు": 8035,
      "##మ‌": 8036,
      "##కారులు": 8037,
      "##ెల్‌": 8038,
      "##ct": 8039,
      "##di": 8040,
      "విడా": 8041,
      "బీహార్": 8042,
      "##ారాబాద్": 8043,
      "స్థలం": 8044,
      "తాత్": 8045,
      "తీసుకుంటే": 8046,
      "పెద్దలు": 8047,
      "##షింగ్": 8048,
      "బొమ్మ": 8049,
      "ప్రాధాన్యం": 8050,
      "##కూడదని": 8051,
      "ధర్మాసనం": 8052,
      "కానిస్టేబుల్": 8053,
      "57": 8054,
      "బాలా": 8055,
      "సత్": 8056,
      "##తాల": 8057,
      "రానుంది": 8058,
      "గులా": 8059,
      "##పోతున్నారు": 8060,
      "జిల్ల": 8061,
      "రైళ్లు": 8062,
      "దిగి": 8063,
      "లాల్": 8064,
      "##ండీస్": 8065,
      "గిరిజ": 8066,
      "భువనే": 8067,
      "2014లో": 8068,
      "\".\"": 8069,
      "బస్సులు": 8070,
      "ప్రజాప్రతిని": 8071,
      "తను": 8072,
      "బడి": 8073,
      "##యడం": 8074,
      "##ికీ": 8075,
      "రెస్టార": 8076,
      "ప్రాతిని": 8077,
      "రాష్ట్రాలకు": 8078,
      "చేస్తాయి": 8079,
      "బీఆర్‌": 8080,
      "కల్తీ": 8081,
      "ఒక్కొక్క": 8082,
      "అంశాలను": 8083,
      "భావిస్తున్న": 8084,
      "వ్యవస్థను": 8085,
      "అడిగి": 8086,
      "కమలా": 8087,
      "తరహాలో": 8088,
      "పరిశీలి": 8089,
      "టూరి": 8090,
      "##మనం": 8091,
      "##చారి": 8092,
      "##నిస్తాన్": 8093,
      "చేయలేదని": 8094,
      "మెసేజ్": 8095,
      "మేడి": 8096,
      "వర్తి": 8097,
      "195": 8098,
      "భారతదేశం": 8099,
      "వెల్లడి": 8100,
      "నిందితుల": 8101,
      "గాయాలు": 8102,
      "ప్రసంగ": 8103,
      "అరుదైన": 8104,
      "లోకేశ్": 8105,
      "దర్శకత్వంలో": 8106,
      "హర్ష": 8107,
      "టన్నుల": 8108,
      "66": 8109,
      "85": 8110,
      "తినే": 8111,
      "ధృ": 8112,
      "పటి": 8113,
      "ాల్సిన": 8114,
      "ವೈ": 8115,
      "##ఫార్": 8116,
      "##or": 8117,
      "##కుంట": 8118,
      "కాంబ": 8119,
      "కొని": 8120,
      "##క్రో": 8121,
      "విషయానికి": 8122,
      "వారంతా": 8123,
      "కేసుల్లో": 8124,
      "‌‌‌‌కు": 8125,
      "గౌత": 8126,
      "వ్యాపారులు": 8127,
      "కంటెంట్": 8128,
      "అన్యాయం": 8129,
      "ఊపిరి": 8130,
      "కష్టం": 8131,
      "మహ్మద్": 8132,
      "రన్": 8133,
      "##ಿಯ": 8134,
      "##కారు": 8135,
      "వేటు": 8136,
      "ఆయిల్": 8137,
      "ఆయన్ను": 8138,
      "స్టాక్": 8139,
      "కల్వకు": 8140,
      "సమస్యను": 8141,
      "చేసుకొని": 8142,
      "నిలిచారు": 8143,
      "అందించిన": 8144,
      "స్వతంత్ర": 8145,
      "పరిస్థితిని": 8146,
      "మారుతోంది": 8147,
      "##స్తోన్న": 8148,
      "చెందారు": 8149,
      "మలయా": 8150,
      "సార్వత్రిక": 8151,
      "తాత్కాలిక": 8152,
      "కన్ను": 8153,
      "పాయి": 8154,
      "మగ": 8155,
      "##కన్": 8156,
      "##మానా": 8157,
      "తీర": 8158,
      "చిన్నారు": 8159,
      "పొగ": 8160,
      "కేంద్రంగా": 8161,
      "నిర్వహించాలని": 8162,
      "హెలికా": 8163,
      "ఉద్యోగాల": 8164,
      "వృద్ధి": 8165,
      "ఒకేసారి": 8166,
      "రహదారి": 8167,
      "ప్రశాంత": 8168,
      "వినిపిస్తున్నాయి": 8169,
      "మేనేజర్": 8170,
      "జరిపిన": 8171,
      "వంశీ": 8172,
      "విశ్లేష": 8173,
      "tel": 8174,
      "ఎలి": 8175,
      "దౌ": 8176,
      "బయో": 8177,
      "మరు": 8178,
      "##మన్నారు": 8179,
      "సమంత": 8180,
      "నాన్న": 8181,
      "కలగ": 8182,
      "ఆరోగ్యానికి": 8183,
      "##ించుకుని": 8184,
      "నిజానికి": 8185,
      "యజమాని": 8186,
      "అంతరిక్ష": 8187,
      "క్షమాపణ": 8188,
      "సందీప్": 8189,
      "ఇవే": 8190,
      "ఇస్తున్నారు": 8191,
      "##ప్రా": 8192,
      "##as": 8193,
      "##థా": 8194,
      "##స్తరు": 8195,
      "చూస్తున్నారు": 8196,
      "వర్గానికి": 8197,
      "చేస్తున్నాడు": 8198,
      "శిశు": 8199,
      "మహే": 8200,
      "దూర": 8201,
      "కిందట": 8202,
      "తగ్గింది": 8203,
      "తలెత్త": 8204,
      "పోయారు": 8205,
      "బెంగళూరులో": 8206,
      "##బెట్ట": 8207,
      "భవనం": 8208,
      "అధిష్ట": 8209,
      "మునిగి": 8210,
      "లండ": 8211,
      "రాణి": 8212,
      "##దిగా": 8213,
      "చేస్తాం": 8214,
      "అనుభవ": 8215,
      "పొందే": 8216,
      "జీవన్": 8217,
      "నేతలను": 8218,
      "దుబ": 8219,
      "వర్షాల": 8220,
      "మొత్తంగా": 8221,
      "వేయాలని": 8222,
      "బైడెన్": 8223,
      "సదరు": 8224,
      "మల్కా": 8225,
      "నిషేధ": 8226,
      "స్టేడియం": 8227,
      "77": 8228,
      "ఎత్త": 8229,
      "బక": 8230,
      "సమితి": 8231,
      "ప్రతిక": 8232,
      "##తుంటారు": 8233,
      "శ్రీకా": 8234,
      "జీవన": 8235,
      "పెట్టాలని": 8236,
      "విధించింది": 8237,
      "సాధించి": 8238,
      "ఏపీకి": 8239,
      "పరిస్థితుల": 8240,
      "ట్ల": 8241,
      "లీకేజీ": 8242,
      "##సభ్య": 8243,
      "యోగం": 8244,
      "కొట్టే": 8245,
      "సంక్షేమం": 8246,
      "ప్రీమి": 8247,
      "##స్టేట్": 8248,
      "కబ్జా": 8249,
      "బంగాళాఖా": 8250,
      "ne": 8251,
      "##لا": 8252,
      "##ట్లే": 8253,
      "##ండడంతో": 8254,
      "స్వే": 8255,
      "కోర": 8256,
      "##సీబీ": 8257,
      "బాస్": 8258,
      "తానే": 8259,
      "సందర్బ": 8260,
      "ప్రభావంతో": 8261,
      "జీహెచ్ఎంసీ": 8262,
      "అసంతృప్తి": 8263,
      "ఐఏఎస్": 8264,
      "బలోపేతం": 8265,
      "టూర్": 8266,
      "బంద్": 8267,
      "హే": 8268,
      "##వచ్చని": 8269,
      "##జార్": 8270,
      "##కత": 8271,
      "##లింగ": 8272,
      "మోస్తరు": 8273,
      "ఇచ్చాడు": 8274,
      "ట్లే": 8275,
      "పట్టించుకోవడం": 8276,
      "చర్చించారు": 8277,
      "అర్బన్": 8278,
      "తెలుగులో": 8279,
      "పనిచేసిన": 8280,
      "యూనిట్": 8281,
      "చనిపోయారు": 8282,
      "హనుమాన్": 8283,
      "చెప్తున్నారు": 8284,
      "సైన్యం": 8285,
      "లక్ష్మణ్": 8286,
      "దక్కి": 8287,
      "మాల": 8288,
      "##మాల": 8289,
      "##చారానికి": 8290,
      "రెజ్": 8291,
      "##బ్బు": 8292,
      "##విటీ": 8293,
      "జీర్ణ": 8294,
      "తరచూ": 8295,
      "విడుదలైన": 8296,
      "వైఎస్‌": 8297,
      "కష్టాలు": 8298,
      "అంబటి": 8299,
      "ఖాతాలో": 8300,
      "ఎన్డీయే": 8301,
      "ప్రపంచంలోనే": 8302,
      "అర్ధరాత్రి": 8303,
      "శాస్త్రవేత్తలు": 8304,
      "కెసిఆర్": 8305,
      "కోల్‌కతా": 8306,
      "హృ": 8307,
      "##ప్టర్": 8308,
      "##ేశం": 8309,
      "మెరుపు": 8310,
      "##తాబ్": 8311,
      "##జిన్": 8312,
      "పనిలో": 8313,
      "అధ్యక్షులు": 8314,
      "హామీలను": 8315,
      "న్యాయస్థానం": 8316,
      "2009": 8317,
      "జియో": 8318,
      "లోపల": 8319,
      "నిషేధం": 8320,
      "##పోర్ట్స్": 8321,
      "పరిణామాలు": 8322,
      "అబ్బ": 8323,
      "ఖచ్చితంగా": 8324,
      "డ్రో": 8325,
      "దళి": 8326,
      "పసి": 8327,
      "##గాయని": 8328,
      "తీసే": 8329,
      "బీజేపీతో": 8330,
      "కేసుల": 8331,
      "భూపాల": 8332,
      "నియమి": 8333,
      "లాభం": 8334,
      "చిరుత": 8335,
      "విరుద్ధ": 8336,
      "ఆసక్తికర": 8337,
      "హనుమకొండ": 8338,
      "ఉగ్రవా": 8339,
      "అజయ్": 8340,
      "ఆస్తులు": 8341,
      "ఏది": 8342,
      "యి": 8343,
      "##తక": 8344,
      "##ఫాబాద్": 8345,
      "##సిస్": 8346,
      "మానే": 8347,
      "చేయడంలో": 8348,
      "##వింగ్": 8349,
      "##తున్నట్లు": 8350,
      "దీర్ఘ": 8351,
      "మోట": 8352,
      "లుక్": 8353,
      "పనిచేశారు": 8354,
      "వద్దని": 8355,
      "యువకులు": 8356,
      "పోలీసులను": 8357,
      "సహకారం": 8358,
      "హెచ్‌": 8359,
      "వ్యతిరేకత": 8360,
      "నరసింహ": 8361,
      "వేర్వే": 8362,
      "అద్దె": 8363,
      "మావోయి": 8364,
      "ఐసీసీ": 8365,
      "వంతు": 8366,
      "##నెట్": 8367,
      "##మాన్ని": 8368,
      "కొంచ": 8369,
      "అనుకో": 8370,
      "సినిమాపై": 8371,
      "నిలిచిన": 8372,
      "స్టార్ట్": 8373,
      "వస్తువులు": 8374,
      "వివాదా": 8375,
      "ఆసుపత్రి": 8376,
      "తవ్వ": 8377,
      "నెక్": 8378,
      "##వస": 8379,
      "##వాలని": 8380,
      "##ంటో": 8381,
      "##మానికి": 8382,
      "##గుట్ట": 8383,
      "నేల": 8384,
      "##వేర్": 8385,
      "##నాల్": 8386,
      "హాస్టల్": 8387,
      "చేపట్టాలని": 8388,
      "దాడిలో": 8389,
      "స్టూడెంట్స్": 8390,
      "కుమార": 8391,
      "ఊర": 8392,
      "దయా": 8393,
      "మిల్ల": 8394,
      "శ్రమ": 8395,
      "సగం": 8396,
      "##ాంగ": 8397,
      "##టప్పుడు": 8398,
      "##పిల్": 8399,
      "##‌ల్": 8400,
      "##గౌ": 8401,
      "##ir": 8402,
      "స్పోర్ట్స్": 8403,
      "మాన్": 8404,
      "‌‌‌‌‌‌‌‌‌‌‌‌‌‌‌‌ను": 8405,
      "తప్పి": 8406,
      "సొమ్ము": 8407,
      "అదృ": 8408,
      "సోదరుడు": 8409,
      "నగరంలోని": 8410,
      "కర్నూలు": 8411,
      "ఇస్లా": 8412,
      "స్పేస్": 8413,
      "జట్ల": 8414,
      "##సార": 8415,
      "##సల్": 8416,
      "##ేలా": 8417,
      "##దె": 8418,
      "##ధన": 8419,
      "##ఐఆర్": 8420,
      "##ందరూ": 8421,
      "రాసి": 8422,
      "చెరు": 8423,
      "ఇచ్చేందుకు": 8424,
      "##కాలంగా": 8425,
      "తుమ్మల": 8426,
      "బుమ్రా": 8427,
      "డబ్ల్యూ": 8428,
      "వికారాబాద్": 8429,
      "చైతన్య": 8430,
      "##మైతే": 8431,
      "##ట్యూట్": 8432,
      "రాజేందర్": 8433,
      "నెరవేర్చ": 8434,
      "పండితులు": 8435,
      "తెల్లవారుజామున": 8436,
      "ందే": 8437,
      "ఇండ్": 8438,
      "ఐదో": 8439,
      "కండు": 8440,
      "ధన్య": 8441,
      "బండ": 8442,
      "మంచ": 8443,
      "ొచ్చు": 8444,
      "##లనం": 8445,
      "##ుని": 8446,
      "##చర్లు": 8447,
      "##ార్ట్‌మెంట్": 8448,
      "##టుగా": 8449,
      "తెచ్చి": 8450,
      "‌‌‌‌‌‌‌‌‌‌‌‌‌‌‌‌కు": 8451,
      "వచ్చని": 8452,
      "మిలి": 8453,
      "ప్రాంతాలు": 8454,
      "సైట్": 8455,
      "మొత్తాన్ని": 8456,
      "సిద్ధరామయ్య": 8457,
      "స్వచ్ఛ": 8458,
      "వ్యాఖ్యలపై": 8459,
      "పోయాయి": 8460,
      "రాష్ట్రాన్ని": 8461,
      "టేబుల్": 8462,
      "ఇన్వెస్": 8463,
      "ఎఫ": 8464,
      "బాయ్": 8465,
      "##డారు": 8466,
      "##యితే": 8467,
      "##నంద": 8468,
      "కొబ్బ": 8469,
      "పురో": 8470,
      "తేజ": 8471,
      "##షిప్": 8472,
      "ఫిక్స్": 8473,
      "మహేశ్": 8474,
      "దగ్గరకు": 8475,
      "ఫోన్లు": 8476,
      "ాలన్నారు": 8477,
      "పర్సన్": 8478,
      "ముగిసింది": 8479,
      "తెలుసుకున్నారు": 8480,
      "విస్తరణ": 8481,
      "ఉద్యమం": 8482,
      "సదస్సు": 8483,
      "అంగీకరించ": 8484,
      "పురస్క": 8485,
      "క్లాస్": 8486,
      "భవిష్యత్తులో": 8487,
      "63": 8488,
      "అబద్ధ": 8489,
      "వంత": 8490,
      "శ్రా": 8491,
      "##దిన": 8492,
      "##ಕ್": 8493,
      "##కాడ": 8494,
      "డిఫ": 8495,
      "మిశ": 8496,
      "సైన్స్": 8497,
      "ఎవరో": 8498,
      "నిరుద్యోగ": 8499,
      "చిత్రాన్ని": 8500,
      "నినాదాలు": 8501,
      "భూములను": 8502,
      "శంకుస్థాపన": 8503,
      "ہم": 8504,
      "మళ్ల": 8505,
      "హస్త": 8506,
      "##ష్యం": 8507,
      "##మం": 8508,
      "కావాల్సిన": 8509,
      "##దిద్ద": 8510,
      "##ళ్లే": 8511,
      "మాధ": 8512,
      "ఇచ్చారని": 8513,
      "ప్ల": 8514,
      "అనర్": 8515,
      "ఇకపై": 8516,
      "కావాలి": 8517,
      "ారన్న": 8518,
      "అమ్మవారి": 8519,
      "వార్తా": 8520,
      "##భివృ": 8521,
      "రాశిలో": 8522,
      "పర్యటనలో": 8523,
      "మౌలిక": 8524,
      "మనోజ్": 8525,
      "సంగీతం": 8526,
      "ఆప్షన్": 8527,
      "కట్టి": 8528,
      "త్యా": 8529,
      "రకర": 8530,
      "సపోర్ట్": 8531,
      "##డిక": 8532,
      "##టల": 8533,
      "##ఐఎం": 8534,
      "##ల్దార్": 8535,
      "రాణ": 8536,
      "##స్తాం": 8537,
      "వాన": 8538,
      "సీన్": 8539,
      "దాస్": 8540,
      "##కొత్త": 8541,
      "వారంలో": 8542,
      "ఎమ్మెల్యేల": 8543,
      "‌‌‌‌ను": 8544,
      "తుంది": 8545,
      "సరికొత్త": 8546,
      "నిర్మించారు": 8547,
      "##బియా": 8548,
      "నిందితులను": 8549,
      "విభాగంలో": 8550,
      "జరప": 8551,
      "##ైర్యం": 8552,
      "07": 8553,
      "ఆంక్షలు": 8554,
      "ఈవో": 8555,
      "ఊరు": 8556,
      "చంపే": 8557,
      "##డవు": 8558,
      "##సెంట్": 8559,
      "##ରେ": 8560,
      "ప్రార్థ": 8561,
      "స్తం": 8562,
      "పోలవరం": 8563,
      "కొద్దీ": 8564,
      "పైల": 8565,
      "పార్టీలోకి": 8566,
      "రిజ": 8567,
      "చేస్తామన్నారు": 8568,
      "మధ్యంతర": 8569,
      "యూత్": 8570,
      "యూఎస్": 8571,
      "ప్రారంభించింది": 8572,
      "చెబుతారు": 8573,
      "సమస్యలపై": 8574,
      "ఉపయోగించి": 8575,
      "##మూరి": 8576,
      "ాయన్నారు": 8577,
      "హక్కుల": 8578,
      "పదేళ్ల": 8579,
      "పత్రాలు": 8580,
      "దారుణ": 8581,
      "రూపొంది": 8582,
      "అవకాశముందని": 8583,
      "ట్రోఫీ": 8584,
      "ప్రత్యర్థి": 8585,
      "దీపావళి": 8586,
      "భూపాలపల్లి": 8587,
      "ఛత్త": 8588,
      "##um": 8589,
      "##ంగో": 8590,
      "##లానికి": 8591,
      "##ంబి": 8592,
      "రిటర్": 8593,
      "మూసీ": 8594,
      "తెలుసా": 8595,
      "డీసీ": 8596,
      "పట్టా": 8597,
      "చివరికి": 8598,
      "సేవలను": 8599,
      "కురుస్తాయని": 8600,
      "మినహ": 8601,
      "కొంచెం": 8602,
      "ఆదర్శ": 8603,
      "పనికి": 8604,
      "##టేషన్": 8605,
      "వెయి": 8606,
      "వేరు": 8607,
      "శాతానికి": 8608,
      "సుధా": 8609,
      "మిని": 8610,
      "ఎంజ": 8611,
      "నీర": 8612,
      "విచారణను": 8613,
      "ఆదేశాల": 8614,
      "అత్యవసర": 8615,
      "ందుకే": 8616,
      "సంతోష్": 8617,
      "లభించ": 8618,
      "పొందుతారు": 8619,
      "స్కోర్": 8620,
      "పెడుతున్నారు": 8621,
      "నాశనం": 8622,
      "ವೈರ": 8623,
      "78": 8624,
      "దామ": 8625,
      "ಿಸ": 8626,
      "##ంపి": 8627,
      "##ag": 8628,
      "పోతు": 8629,
      "##మెన్స్": 8630,
      "##వర్తి": 8631,
      "స్థా": 8632,
      "##స్టార్": 8633,
      "రోడ్డుపై": 8634,
      "ఉపయోగించ": 8635,
      "గెలుచుకు": 8636,
      "పత్రిక": 8637,
      "ఆస్పత్రి": 8638,
      "ప్రమోషన్": 8639,
      "షుగర్": 8640,
      "డైలాగ్": 8641,
      "మమ": 8642,
      "##కప్": 8643,
      "##ూల్": 8644,
      "##ର୍": 8645,
      "చెట్టు": 8646,
      "పోతుంది": 8647,
      "నాంపల్లి": 8648,
      "లావా": 8649,
      "అందించాలని": 8650,
      "ఆరోగ్యంగా": 8651,
      "రోడ్లపై": 8652,
      "పంటలు": 8653,
      "సింగిల్": 8654,
      "భావించారు": 8655,
      "సిద్దరామయ్య": 8656,
      "ఫోటోలు": 8657,
      "కుంభకో": 8658,
      "అయ్యాడు": 8659,
      "పేలుడు": 8660,
      "రీసెర్చ్": 8661,
      "ంచి": 8662,
      "ఆరం": 8663,
      "సరే": 8664,
      "విత్త": 8665,
      "##వాదాలు": 8666,
      "##నేని": 8667,
      "ముహ": 8668,
      "చేశాం": 8669,
      "##ప్పులు": 8670,
      "##శ్వాస": 8671,
      "##న్‌గా": 8672,
      "ప్రారంభోత్స": 8673,
      "ఫోర్లు": 8674,
      "ఇవ్వలేదు": 8675,
      "క్యాంప": 8676,
      "సేవా": 8677,
      "ఆలస్యం": 8678,
      "రైతులను": 8679,
      "జీవితాన్ని": 8680,
      "వాహనాల": 8681,
      "యాక్ట్": 8682,
      "అనారోగ": 8683,
      "నిలదీశారు": 8684,
      "పవార్": 8685,
      "శతాబ్": 8686,
      "##దండ": 8687,
      "##మల్": 8688,
      "##కడ": 8689,
      "##చన": 8690,
      "##5లో": 8691,
      "##త్నం": 8692,
      "##ప్స్": 8693,
      "##గ్‌": 8694,
      "ప్రాక్": 8695,
      "డిస్": 8696,
      "తెలంగాణలోని": 8697,
      "##డేజా": 8698,
      "బిజీగా": 8699,
      "##కెళ్ల": 8700,
      "ఫిర్యాదులు": 8701,
      "గ్రాండ్": 8702,
      "ప్రయోజనం": 8703,
      "అరుణ్": 8704,
      "ఉద్దేశించి": 8705,
      "కల్పించాలని": 8706,
      "బంధువులు": 8707,
      "లబ్ది": 8708,
      "53": 8709,
      "అథ": 8710,
      "ఓటే": 8711,
      "జడేజా": 8712,
      "ధను": 8713,
      "##యాలను": 8714,
      "##పించే": 8715,
      "##జాల": 8716,
      "వరదల": 8717,
      "ప్రవేశపెట్ట": 8718,
      "విక్రమ్": 8719,
      "స్పందిస్తూ": 8720,
      "ఎలక్ట్రిక్": 8721,
      "కోరిన": 8722,
      "దంపతులు": 8723,
      "శ్రద్ధ": 8724,
      "ఒలింపిక్స్": 8725,
      "క్రెడిట్": 8726,
      "ఆరుగురు": 8727,
      "కంగ": 8728,
      "గై": 8729,
      "ఛాంపి": 8730,
      "ఫల": 8731,
      "శ్యా": 8732,
      "శారీ": 8733,
      "##ేయ": 8734,
      "ప్రయో": 8735,
      "##ద్వారా": 8736,
      "కూల్": 8737,
      "##ల్లె": 8738,
      "##వర్గం": 8739,
      "నెలా": 8740,
      "ఏర్పాటుకు": 8741,
      "రూపాయి": 8742,
      "ట్రెండ్": 8743,
      "ఉత్తమ్": 8744,
      "చిత్రంలో": 8745,
      "తయార": 8746,
      "ఫలితాల": 8747,
      "నమోదైన": 8748,
      "సునీత": 8749,
      "2018లో": 8750,
      "కిడ్నా": 8751,
      "హృద": 8752,
      "ఈశ": 8753,
      "##మూరు": 8754,
      "##శాయి": 8755,
      "##వులకు": 8756,
      "##సేన్": 8757,
      "##చింగ్": 8758,
      "ఉంటున్నారు": 8759,
      "అంతర": 8760,
      "ప్రత్యేకమైన": 8761,
      "ఇండియాలో": 8762,
      "##యుడి": 8763,
      "ప్లాట్": 8764,
      "జరగనున్నాయి": 8765,
      "హామీల": 8766,
      "ఫాస్ట్": 8767,
      "అడిగిన": 8768,
      "కన్వీ": 8769,
      "వ్యవసాయం": 8770,
      "కూడదు": 8771,
      "నెట్‌": 8772,
      "సినిమాల": 8773,
      "నిలిపివే": 8774,
      "భిన్నంగా": 8775,
      "విపరీతంగా": 8776,
      "రెగ్యులర్": 8777,
      "ఏడాదికి": 8778,
      "ప్రతికూల": 8779,
      "ఆర": 8780,
      "ఎస్టేట్": 8781,
      "బ‌": 8782,
      "మత్తు": 8783,
      "##లార్": 8784,
      "##లూరు": 8785,
      "పెడ": 8786,
      "చేస్తోందని": 8787,
      "దేశాలకు": 8788,
      "శ్రీకాంత్": 8789,
      "అనూహ": 8790,
      "సరికా": 8791,
      "##సైజ్": 8792,
      "ఆలోచి": 8793,
      "పక్కనే": 8794,
      "టెలి": 8795,
      "బిల్లులు": 8796,
      "రాజ్‌": 8797,
      "ఆసిఫాబాద్": 8798,
      "కొరత": 8799,
      "విషాదం": 8800,
      "సమాజంలో": 8801,
      "స్వాతంత్ర": 8802,
      "వేసవి": 8803,
      "--": 8804,
      "ఓటర్ల": 8805,
      "సవరణ": 8806,
      "‌లలో": 8807,
      "##పారు": 8808,
      "##ఫోన్": 8809,
      "##ూర": 8810,
      "##un": 8811,
      "##రియల్": 8812,
      "##లాడు": 8813,
      "రెండి": 8814,
      "##ానూ": 8815,
      "రాష్ట్రాలు": 8816,
      "ఉపశ": 8817,
      "వెళ్లడం": 8818,
      "దూకుడు": 8819,
      "##గాలని": 8820,
      "నిర్వహిస్తారు": 8821,
      "అనుకుంటున్న": 8822,
      "సురేఖ": 8823,
      "ای": 8824,
      "గంద": 8825,
      "తక్షణ": 8826,
      "మస్క్": 8827,
      "రౌండ్": 8828,
      "వ్ర": 8829,
      "##వన్నీ": 8830,
      "##భై": 8831,
      "##చీ": 8832,
      "నిమ": 8833,
      "రాని": 8834,
      "##లీట్": 8835,
      "రూల్స్": 8836,
      "సాగి": 8837,
      "చిక్క": 8838,
      "బీజేపీని": 8839,
      "బెంచ్": 8840,
      "ప్రారంభమైన": 8841,
      "పదవీ": 8842,
      "క్రమంగా": 8843,
      "ఆశలు": 8844,
      "తీరుపై": 8845,
      "ఎఫ్‌": 8846,
      "కార్తీక": 8847,
      "పునరుద్ధ": 8848,
      "vs": 8849,
      "తృ": 8850,
      "##దాయ": 8851,
      "నిధులను": 8852,
      "కాంప్": 8853,
      "రెస్పా": 8854,
      "చూశా": 8855,
      "వర్గాల్లో": 8856,
      "##ెంజ్": 8857,
      "నిర్ణయాన్ని": 8858,
      "ఎస్సై": 8859,
      "194": 8860,
      "వర్షపాతం": 8861,
      "పాల్గొని": 8862,
      "##పూర్ణ": 8863,
      "పెరుగుతోంది": 8864,
      "శివారు": 8865,
      "మండలంలో": 8866,
      "యాదగిరి": 8867,
      "భద్రాద్రి": 8868,
      "క్రైమ్": 8869,
      "800": 8870,
      "ఎనర్జీ": 8871,
      "భారం": 8872,
      "రకాలు": 8873,
      "సమ్మె": 8874,
      "##వంగా": 8875,
      "##కోలేక": 8876,
      "రోల్": 8877,
      "అవమా": 8878,
      "సుధ": 8879,
      "యూజర్": 8880,
      "వచ్చినప్పుడు": 8881,
      "జట్టును": 8882,
      "ఇంటర్నెట్": 8883,
      "పరిశీలించి": 8884,
      "గౌరవం": 8885,
      "వ్యవహారాల": 8886,
      "సర్టిఫికెట్": 8887,
      "ఇంజినీరింగ్": 8888,
      "తహసీ": 8889,
      "కృతజ్ఞ": 8890,
      "64": 8891,
      "ఖరీ": 8892,
      "చర్చి": 8893,
      "హాని": 8894,
      "##కూర్": 8895,
      "##ଛି": 8896,
      "రావాల్సి": 8897,
      "లోన్": 8898,
      "లోతు": 8899,
      "##ాలుగా": 8900,
      "చేయడమే": 8901,
      "తెలిపాడు": 8902,
      "ఆయనపై": 8903,
      "సెర్చ్": 8904,
      "శాఖల": 8905,
      "కంపెనీల": 8906,
      "ించారు": 8907,
      "పాటించ": 8908,
      "నాగేశ్వరరావు": 8909,
      "ఇంగ్లీ": 8910,
      "విధానాన్ని": 8911,
      "2022లో": 8912,
      "రంగాల్లో": 8913,
      "తీసుకెళ్లారు": 8914,
      "కేటాయింపు": 8915,
      "నిర్ధార": 8916,
      "68": 8917,
      "72": 8918,
      "అలియా": 8919,
      "దారిత": 8920,
      "లవ్": 8921,
      "వని": 8922,
      "శెట్టి": 8923,
      "సృష్టి": 8924,
      "##విక": 8925,
      "##ణిక": 8926,
      "##త్వాన్ని": 8927,
      "నిండి": 8928,
      "గుప్": 8929,
      "##నీరు": 8930,
      "##త్రా": 8931,
      "నెహ": 8932,
      "‌‌‌‌‌‌‌‌ను": 8933,
      "ఉంటారని": 8934,
      "అభ్యర్థులకు": 8935,
      "వార్నింగ్": 8936,
      "వ్యవహరించ": 8937,
      "వరుణ్": 8938,
      "నటిస్తున్న": 8939,
      "తీర్పును": 8940,
      "కనీస": 8941,
      "వ్యూహ": 8942,
      "చేయాలన్నారు": 8943,
      "పునరా": 8944,
      "విడిచి": 8945,
      "స్వేచ్ఛ": 8946,
      "وائ": 8947,
      "పండ్లు": 8948,
      "##క్వా": 8949,
      "##స్తుండగా": 8950,
      "##వాణి": 8951,
      "##మ్మా": 8952,
      "వైయస్": 8953,
      "కార్యా": 8954,
      "ఒకప్పుడు": 8955,
      "శాశ్వ": 8956,
      "##ప్రసాద్": 8957,
      "ఆర్ఎస్": 8958,
      "ఒక్కరూ": 8959,
      "ఆధిక": 8960,
      "గెలిచారు": 8961,
      "అమెరికన్": 8962,
      "##చర్ల": 8963,
      "రిజర్వ": 8964,
      "చెప్పినట్లు": 8965,
      "డిపార్ట్": 8966,
      "ఎగ్జిట్": 8967,
      "వికెట్ల": 8968,
      "రెండేళ్ల": 8969,
      "ఎడ్యు": 8970,
      "69": 8971,
      "కదల": 8972,
      "గాలు": 8973,
      "టం": 8974,
      "పశు": 8975,
      "##కరం": 8976,
      "##ಸ್": 8977,
      "##కుతున్న": 8978,
      "##గాంధీ": 8979,
      "##రులను": 8980,
      "మొగ్గు": 8981,
      "రాజన్న": 8982,
      "బెల్ల": 8983,
      "పిండి": 8984,
      "అందువల్ల": 8985,
      "కలవ": 8986,
      "పోటీలో": 8987,
      "గ్రామస్తులు": 8988,
      "డెడ్": 8989,
      "వేయడం": 8990,
      "2023లో": 8991,
      "విదేశాంగ": 8992,
      "కీపర్": 8993,
      "విరుచుకు": 8994,
      "హెచ్చరికలు": 8995,
      "శోభ": 8996,
      "సిలిండర్": 8997,
      "క్రిమినల్": 8998,
      "లండన్": 8999,
      "67": 9000,
      "ఇస్తారు": 9001,
      "దర్": 9002,
      "నెట్టి": 9003,
      "వదులు": 9004,
      "##రెంట్": 9005,
      "##ఫై": 9006,
      "##eo": 9007,
      "##ల్తా": 9008,
      "ప్రత్యా": 9009,
      "##గాడు": 9010,
      "చేరిక": 9011,
      "##వీర్": 9012,
      "దేశాన్ని": 9013,
      "మండలాల్లో": 9014,
      "15న": 9015,
      "పడుతుందని": 9016,
      "ాలంటే": 9017,
      "విమానంలో": 9018,
      "బాధపడుతున్న": 9019,
      "సంక్షో": 9020,
      "నైపుణ": 9021,
      "అడ్డం": 9022,
      "ప్రశంసలు": 9023,
      "దినోత్సవం": 9024,
      "ఇంటర్వ్యూలో": 9025,
      "తెరకెక్కి": 9026,
      "డయాబె": 9027,
      "సజ్జల": 9028,
      "గందరగో": 9029,
      "ఉస్": 9030,
      "ధ్రు": 9031,
      "ుల": 9032,
      "##ెన్న": 9033,
      "##శ్రీ": 9034,
      "సిక్స్": 9035,
      "వ్యక్తికి": 9036,
      "ఎలాగ": 9037,
      "జరిగినట్లు": 9038,
      "మ్యాచ్‌": 9039,
      "పదవులు": 9040,
      "##ించుకునే": 9041,
      "వెళ్లింది": 9042,
      "పరీక్షల": 9043,
      "బాధిత": 9044,
      "నైట్": 9045,
      "ఏజెంట్": 9046,
      "సభ్యులతో": 9047,
      "సచిన్": 9048,
      "సీఈవో": 9049,
      "ఏకాదశి": 9050,
      "శ్రేణులు": 9051,
      "టీపీసీసీ": 9052,
      "రెస్టారెంట్": 9053,
      "నిక": 9054,
      "##డార్": 9055,
      "##పిన": 9056,
      "##భ్య": 9057,
      "##ంటినీ": 9058,
      "పోల్స్": 9059,
      "కొట్టిన": 9060,
      "ముడి": 9061,
      "##లేషన్": 9062,
      "జరిమానా": 9063,
      "##సానికి": 9064,
      "ప్రారంభమైంది": 9065,
      "సైనిక": 9066,
      "విధ్వ": 9067,
      "లిస్టు": 9068,
      "##ంజనేయ": 9069,
      "జూబ్లీ": 9070,
      "పడుతోంది": 9071,
      "భాగంగానే": 9072,
      "అనుమానాలు": 9073,
      "నిర్వహించనున్నారు": 9074,
      "చేయాలనే": 9075,
      "రిజర్వేషన్లు": 9076,
      "ధోనీ": 9077,
      "కమ్యూనిటీ": 9078,
      "అంబానీ": 9079,
      "గౌతమ్": 9080,
      "ఏళ్లుగా": 9081,
      "నైనా": 9082,
      "యంగ్": 9083,
      "##పరు": 9084,
      "##క్యం": 9085,
      "##రులకు": 9086,
      "తీర్థ": 9087,
      "##ామం": 9088,
      "పరికర": 9089,
      "పేదల": 9090,
      "అభిషే": 9091,
      "కారణాల": 9092,
      "అభ్యంతరం": 9093,
      "సేవల": 9094,
      "కౌశి": 9095,
      "మళ్ళీ": 9096,
      "బొగ్గు": 9097,
      "ప్రతిపక్షాలు": 9098,
      "స్థితిలో": 9099,
      "క్యారెక్టర్": 9100,
      "అభినంద": 9101,
      "స్ఫూర్తి": 9102,
      "కీర్తి": 9103,
      "ప్రత్యామ్": 9104,
      "ఇరిగే": 9105,
      "కాలా": 9106,
      "టప్పుడు": 9107,
      "##డ్యు": 9108,
      "##దవ": 9109,
      "నింప": 9110,
      "కాపు": 9111,
      "వెస్ట్": 9112,
      "వీసా": 9113,
      "చూసేందుకు": 9114,
      "దిగ్గ": 9115,
      "పూర్వ": 9116,
      "బ్యానర్": 9117,
      "##చేందుకు": 9118,
      "వర్షా": 9119,
      "చేపట్టింది": 9120,
      "మైక్రో": 9121,
      "ఫొటోలు": 9122,
      "దరఖాస్తులు": 9123,
      "మల్లన్న": 9124,
      "మల్లారెడ్డి": 9125,
      "..!!": 9126,
      "గట్టిగా": 9127,
      "స్టీల్": 9128,
      "శైలి": 9129,
      "com": 9130,
      "ఇరిగేషన్": 9131,
      "1న": 9132,
      "అణ": 9133,
      "అల్ప": 9134,
      "##ند": 9135,
      "నిమ్మ": 9136,
      "##క్కీ": 9137,
      "వాద": 9138,
      "తోట": 9139,
      "కింగ్స్": 9140,
      "లాంచ్": 9141,
      "చేస్తున్నా": 9142,
      "చేసేలా": 9143,
      "విజయవంతంగా": 9144,
      "మీదకు": 9145,
      "జేపీ": 9146,
      "సంచలనం": 9147,
      "శుభవార్": 9148,
      "విద్యాశాఖ": 9149,
      "కనిపించే": 9150,
      "క్రీడ": 9151,
      "ఎప్పటి": 9152,
      "కుప్పకూ": 9153,
      "పేర్లను": 9154,
      "କରି": 9155,
      "ఆస్క": 9156,
      "పచ్చ": 9157,
      "భయా": 9158,
      "రక్": 9159,
      "##బొ": 9160,
      "##ందీ": 9161,
      "కాబో": 9162,
      "పార్ట్": 9163,
      "దాట": 9164,
      "జీఎస్": 9165,
      "టీడీపీకి": 9166,
      "##వైసీ": 9167,
      "సభ్యులకు": 9168,
      "వృష": 9169,
      "తీసుకున్నట్లు": 9170,
      "అప్పుల": 9171,
      "ఇజ్రాయెల్‌": 9172,
      "క్లబ్": 9173,
      "అనుమాని": 9174,
      "కోరుకుంటున్న": 9175,
      "డాలర్లు": 9176,
      "ఖాయమని": 9177,
      "మేడ్చల్": 9178,
      "గద్వాల": 9179,
      "ధన్యవాదాలు": 9180,
      "ఈదురు": 9181,
      "ఎమర్": 9182,
      "ఏడుగు": 9183,
      "కళ్ల": 9184,
      "##బడు": 9185,
      "##మంత": 9186,
      "##‌త": 9187,
      "##కులతో": 9188,
      "కాశ్మీర్": 9189,
      "పాము": 9190,
      "గుట్ట": 9191,
      "తింటే": 9192,
      "##షియం": 9193,
      "##శ్వరి": 9194,
      "జరగకుండా": 9195,
      "ందో": 9196,
      "సమీకరణ": 9197,
      "ఏఐసీసీ": 9198,
      "ఆఫీసులో": 9199,
      "విలీనం": 9200,
      "దారితీ": 9201,
      "ధైర్యం": 9202,
      "లెక్కి": 9203,
      "##లెక్స్": 9204,
      "##టాల": 9205,
      "##షాబాద్": 9206,
      "##ెయి": 9207,
      "##థో": 9208,
      "##ದು": 9209,
      "##సులో": 9210,
      "లోపం": 9211,
      "##గులకు": 9212,
      "నాటు": 9213,
      "చూపించారు": 9214,
      "శ్రీశై": 9215,
      "##పోయారని": 9216,
      "గెల": 9217,
      "చెబుతూ": 9218,
      "సేఫ్టీ": 9219,
      "గెలిస్తే": 9220,
      "మొదటిసారి": 9221,
      "సాయంతో": 9222,
      "##మవుతున్న": 9223,
      "శరీరానికి": 9224,
      "ఆరోపిస్తున్నారు": 9225,
      "పిలుస్తారు": 9226,
      "##వినియోగం": 9227,
      "శంషాబాద్": 9228,
      "అంశాన్ని": 9229,
      "చర్మం": 9230,
      "62": 9231,
      "پی": 9232,
      "బ్యూ": 9233,
      "##ంఠ": 9234,
      "##భరణ": 9235,
      "##ఫార": 9236,
      "##ion": 9237,
      "చేత": 9238,
      "కుర": 9239,
      "పోవడం": 9240,
      "చేయాలను": 9241,
      "చెప్పడంతో": 9242,
      "##దాబాద్": 9243,
      "##దేవీ": 9244,
      "ఎంఐఎం": 9245,
      "‌‌ను": 9246,
      "దర్శన": 9247,
      "##త్మిక": 9248,
      "లేదో": 9249,
      "తీర్చి": 9250,
      "బెంగళూరులోని": 9251,
      "ప్రయాణికుల": 9252,
      "విగ్రహాన్ని": 9253,
      "బూత్": 9254,
      "రవీందర్": 9255,
      "ఓపెనర్": 9256,
      "ప్రోత్సహ": 9257,
      "తుపాను": 9258,
      "అనంతపురం": 9259,
      "రకరకాల": 9260,
      "లావాదేవీ": 9261,
      "61": 9262,
      "نہ": 9263,
      "ఆత్": 9264,
      "డ్యూటీ": 9265,
      "తట్టు": 9266,
      "పవ": 9267,
      "మసీ": 9268,
      "రష్": 9269,
      "##ఫరెన్స్": 9270,
      "##1లో": 9271,
      "ప్రచారాన్ని": 9272,
      "నిదర్శ": 9273,
      "రాకెట్": 9274,
      "##టీన్": 9275,
      "##జేషన్": 9276,
      "కేంద్రమంత్రి": 9277,
      "##ంపులకు": 9278,
      "‌‌‌‌‌‌‌‌కు": 9279,
      "నియోజకవర్గాల": 9280,
      "తరుణంలో": 9281,
      "ఆందోళనలు": 9282,
      "దొరుకు": 9283,
      "స్టేషన్‌లో": 9284,
      "వ్యతిరేకి": 9285,
      "ఆలోచించ": 9286,
      "బాధితుల": 9287,
      "అందరినీ": 9288,
      "చెన్నూరు": 9289,
      "కేటాయించారు": 9290,
      "భయంతో": 9291,
      "జాబితాను": 9292,
      "మెగాస్టార్": 9293,
      "వయసులో": 9294,
      "సురక్షితంగా": 9295,
      "మార్గదర్శ": 9296,
      "జార్ఖండ్": 9297,
      "ప్రకాశ్": 9298,
      "రుతుప": 9299,
      "జిల్లాలకు": 9300,
      "కార్యాచరణ": 9301,
      "00": 9302,
      "##తకు": 9303,
      "పరిపాలన": 9304,
      "మెయి": 9305,
      "తిరి": 9306,
      "తీసుకురా": 9307,
      "శ్రీహరి": 9308,
      "కార్డులు": 9309,
      "ఇవ్వాలి": 9310,
      "ారట": 9311,
      "వినిపించ": 9312,
      "కాలేజ్": 9313,
      "తీసుకెళ్లి": 9314,
      "నిరసనలు": 9315,
      "నామినే": 9316,
      "దేవస్థానం": 9317,
      "ఎక్సైజ్": 9318,
      "ఇదంతా": 9319,
      "నిర్వాహకులు": 9320,
      "అశ్విన్": 9321,
      "700": 9322,
      "దిల్": 9323,
      "మైంది": 9324,
      "‌ని": 9325,
      "##షేక": 9326,
      "##కమైన": 9327,
      "##3లో": 9328,
      "చేతుల": 9329,
      "మామూ": 9330,
      "వాడే": 9331,
      "మార్కె": 9332,
      "ప్రజల్లోకి": 9333,
      "కేంద్రాల్లో": 9334,
      "##మెంట్స్": 9335,
      "##త్తుగా": 9336,
      "విధించారు": 9337,
      "120": 9338,
      "కార్యకర్తల": 9339,
      "సెలవులు": 9340,
      "ట్యాపింగ్": 9341,
      "కస్టమర్": 9342,
      "అడవి": 9343,
      "ఉద్దేశంతో": 9344,
      "నివస": 9345,
      "నిబంధనల": 9346,
      "ఆలస్యంగా": 9347,
      "వివాదాస్పద": 9348,
      "కన్వీనర్": 9349,
      "నెహ్రూ": 9350,
      "ap": 9351,
      "ంతా": 9352,
      "ఎడి": 9353,
      "తామ": 9354,
      "తండా": 9355,
      "నచ్చ": 9356,
      "రాయి": 9357,
      "##వితే": 9358,
      "##رل": 9359,
      "##దలకు": 9360,
      "##దానం": 9361,
      "##పబ్": 9362,
      "##ାନ": 9363,
      "##ఏసీ": 9364,
      "##vi": 9365,
      "##క్ల": 9366,
      "##రినీ": 9367,
      "##ించడంతో": 9368,
      "కానుక": 9369,
      "వెస్టి": 9370,
      "పాజి": 9371,
      "##జీల": 9372,
      "మొహ": 9373,
      "స్టడీ": 9374,
      "సుఖ": 9375,
      "తేజ్": 9376,
      "లక్షలకు": 9377,
      "భారత్‌కు": 9378,
      "చర్చకు": 9379,
      "పథకాన్ని": 9380,
      "మైస": 9381,
      "వేగంతో": 9382,
      "పడ్డాయి": 9383,
      "ఉష్ణోగ్రత": 9384,
      "వాణిజ్య": 9385,
      "సల్మాన్": 9386,
      "అఖిల": 9387,
      "ప్రాతినిధ్యం": 9388,
      "బకాయి": 9389,
      "##భివృద్ధి": 9390,
      "ai": 9391,
      "ఏమా": 9392,
      "గానూ": 9393,
      "త‌న": 9394,
      "పచ్చి": 9395,
      "మర్": 9396,
      "##షు": 9397,
      "##୍କ": 9398,
      "##ాలూ": 9399,
      "చెప్పారని": 9400,
      "రిపబ్": 9401,
      "సమాన": 9402,
      "తెలంగాణా": 9403,
      "పునర్": 9404,
      "చేసుకుంటున్నారు": 9405,
      "తెలుపు": 9406,
      "పరిస్థితులను": 9407,
      "క్యాడర్": 9408,
      "అంకి": 9409,
      "వార్షిక": 9410,
      "పర్మిషన్": 9411,
      "##మయ్యే": 9412,
      "విదేశాల్లో": 9413,
      "రహస్య": 9414,
      "మెదడు": 9415,
      "పట్టుకుని": 9416,
      "కౌన్సిలర్లు": 9417,
      "ఎలక్ట్రా": 9418,
      "తప్పనిసరిగా": 9419,
      "ఏమాత్రం": 9420,
      "వ్": 9421,
      "##టాన్": 9422,
      "##లాట": 9423,
      "కాల్స్": 9424,
      "కుదు": 9425,
      "రిపే": 9426,
      "రెండవ": 9427,
      "ప్రాంతీయ": 9428,
      "పోటీకి": 9429,
      "క్యాంప్": 9430,
      "స్థానాలను": 9431,
      "బయటపడ": 9432,
      "నమోదయ్యాయి": 9433,
      "నిమిత్తం": 9434,
      "కార్పొరేట్": 9435,
      "స్థిర": 9436,
      "ఇన్‌స్టా": 9437,
[...]
