{
  "version": "1.0",
  "truncation": null,
  "padding": null,
  "added_tokens": [
    {
      "id": 0,
      "content": "[UNK]",
      "single_word": false,
      "lstrip": false,
      "rstrip": false,
      "normalized": false,
      "special": true
    },
    {
      "id": 1,
      "content": "[CLS]",
      "single_word": false,
      "lstrip": false,
      "rstrip": false,
      "normalized": false,
      "special": true
    },
    {
      "id": 2,
      "content": "[SEP]",
      "single_word": false,
      "lstrip": false,
      "rstrip": false,
      "normalized": false,
      "special": true
    },
    {
      "id": 3,
      "content": "[PAD]",
      "single_word": false,
      "lstrip": false,
      "rstrip": false,
      "normalized": false,
      "special": true
    },
    {
      "id": 4,
      "content": "[MASK]",
      "single_word": false,
      "lstrip": false,
      "rstrip": false,
      "normalized": false,
      "special": true
    }
  ],
  "normalizer": {
    "type": "Sequence",
    "normalizers": [
      {
        "type": "NFKC"
      },
      {
        "type": "Lowercase"
      }
    ]
  },
  "pre_tokenizer": {
    "type": "Whitespace"
  },
  "post_processor": null,
  "decoder": {
    "type": "WordPiece",
    "prefix": "##",
    "cleanup": true
  },
  "model": {
    "type": "WordPiece",
    "unk_token": "[UNK]",
    "continuing_subword_prefix": "##",
    "max_input_chars_per_word": 100,
    "vocab": {
      "[UNK]": 0,
      "[CLS]": 1,
      "[SEP]": 2,
      "[PAD]": 3,
      "[MASK]": 4,
      "!": 5,
      "\"": 6,
      "#": 7,
      "$": 8,
      "%": 9,
      "&": 10,
      "'": 11,
      "(": 12,
      ")": 13,
      "*": 14,
      "+": 15,
      ",": 16,
      "-": 17,
      ".": 18,
      "/": 19,
      "0": 20,
      "1": 21,
      "2": 22,
      "3": 23,
      "4": 24,
      "5": 25,
      "6": 26,
      "7": 27,
      "8": 28,
      "9": 29,
      ":": 30,
      ";": 31,
      "<": 32,
      "=": 33,
      ">": 34,
      "?": 35,
      "@": 36,
      "[": 37,
      "\\": 38,
      "]": 39,
      "_": 40,
      "`": 41,
      "a": 42,
      "b": 43,
      "c": 44,
      "d": 45,
      "e": 46,
      "f": 47,
      "g": 48,
      "h": 49,
      "i": 50,
      "j": 51,
      "k": 52,
      "l": 53,
      "m": 54,
      "n": 55,
      "o": 56,
      "p": 57,
      "q": 58,
      "r": 59,
      "s": 60,
      "t": 61,
      "u": 62,
      "v": 63,
      "w": 64,
      "x": 65,
      "y": 66,
      "z": 67,
      "~": 68,
      "£": 69,
      "©": 70,
      "­": 71,
      "°": 72,
      "·": 73,
      "×": 74,
      "á": 75,
      "â": 76,
      "æ": 77,
      "đ": 78,
      "ơ": 79,
      "ư": 80,
      "ʼ": 81,
      "́": 82,
      "α": 83,
      "β": 84,
      "،": 85,
      "؛": 86,
      "؟": 87,
      "ء": 88,
      "آ": 89,
      "أ": 90,
      "ؤ": 91,
      "إ": 92,
      "ئ": 93,
      "ا": 94,
      "ب": 95,
      "ت": 96,
      "ث": 97,
      "ج": 98,
      "ح": 99,
      "خ": 100,
      "د": 101,
      "ذ": 102,
      "ر": 103,
      "ز": 104,
      "س": 105,
      "ش": 106,
      "ص": 107,
      "ض": 108,
      "ط": 109,
      "ظ": 110,
      "ع": 111,
      "غ": 112,
      "ف": 113,
      "ق": 114,
      "ل": 115,
      "م": 116,
      "ن": 117,
      "ه": 118,
      "و": 119,
      "ى": 120,
      "ي": 121,
      "ً": 122,
      "َ": 123,
      "ُ": 124,
      "ِ": 125,
      "ّ": 126,
      "ٓ": 127,
      "ٰ": 128,
      "ٹ": 129,
      "پ": 130,
      "چ": 131,
      "ڈ": 132,
      "ڑ": 133,
      "ڕ": 134,
      "ژ": 135,
      "ک": 136,
      "گ": 137,
      "ڵ": 138,
      "ں": 139,
      "ھ": 140,
      "ہ": 141,
      "ۆ": 142,
      "ی": 143,
      "ێ": 144,
      "ے": 145,
      "۔": 146,
      "ە": 147,
      "ँ": 148,
      "ं": 149,
      "ः": 150,
      "अ": 151,
      "आ": 152,
      "इ": 153,
      "ई": 154,
      "उ": 155,
      "ऊ": 156,
      "ए": 157,
      "ऐ": 158,
      "ऑ": 159,
      "ओ": 160,
      "औ": 161,
      "क": 162,
      "ख": 163,
      "ग": 164,
      "घ": 165,
      "च": 166,
      "छ": 167,
      "ज": 168,
      "झ": 169,
      "ञ": 170,
      "ट": 171,
      "ठ": 172,
      "ड": 173,
      "ढ": 174,
      "ण": 175,
      "त": 176,
      "थ": 177,
      "द": 178,
      "ध": 179,
      "न": 180,
      "प": 181,
      "फ": 182,
      "ब": 183,
      "भ": 184,
      "म": 185,
      "य": 186,
      "र": 187,
      "ल": 188,
      "व": 189,
      "श": 190,
      "ष": 191,
      "स": 192,
      "ह": 193,
      "़": 194,
      "ा": 195,
      "ि": 196,
      "ी": 197,
      "ु": 198,
      "ू": 199,
      "ृ": 200,
      "े": 201,
      "ै": 202,
      "ॉ": 203,
      "ो": 204,
      "ौ": 205,
      "्": 206,
      "।": 207,
      "॥": 208,
      "०": 209,
      "२": 210,
      "४": 211,
      "ঃ": 212,
      "অ": 213,
      "আ": 214,
      "এ": 215,
      "ও": 216,
      "ক": 217,
      "গ": 218,
      "চ": 219,
      "জ": 220,
      "ট": 221,
      "ড": 222,
      "ত": 223,
      "দ": 224,
      "ধ": 225,
      "ন": 226,
      "প": 227,
      "ফ": 228,
      "ব": 229,
      "ভ": 230,
      "ম": 231,
      "য": 232,
      "র": 233,
      "ল": 234,
      "শ": 235,
      "স": 236,
      "হ": 237,
      "়": 238,
      "া": 239,
      "ি": 240,
      "ী": 241,
      "ু": 242,
      "ে": 243,
      "ৈ": 244,
      "ো": 245,
      "্": 246,
      "ৰ": 247,
      "ৱ": 248,
      "ଁ": 249,
      "ଂ": 250,
      "ଃ": 251,
      "ଅ": 252,
      "ଆ": 253,
      "ଇ": 254,
      "ଈ": 255,
      "ଉ": 256,
      "ଏ": 257,
      "ଓ": 258,
      "କ": 259,
      "ଖ": 260,
      "ଗ": 261,
      "ଘ": 262,
      "ଙ": 263,
      "ଚ": 264,
      "ଛ": 265,
      "ଜ": 266,
      "ଝ": 267,
      "ଞ": 268,
      "ଟ": 269,
      "ଠ": 270,
      "ଡ": 271,
      "ଢ": 272,
      "ଣ": 273,
      "ତ": 274,
      "ଥ": 275,
      "ଦ": 276,
      "ଧ": 277,
      "ନ": 278,
      "ପ": 279,
      "ଫ": 280,
      "ବ": 281,
      "ଭ": 282,
      "ମ": 283,
      "ଯ": 284,
      "ର": 285,
      "ଲ": 286,
      "ଳ": 287,
      "ଵ": 288,
      "ଶ": 289,
      "ଷ": 290,
      "ସ": 291,
      "ହ": 292,
      "଼": 293,
      "ା": 294,
      "ି": 295,
      "ୀ": 296,
      "ୁ": 297,
      "ୂ": 298,
      "ୃ": 299,
      "େ": 300,
      "ୈ": 301,
      "ୋ": 302,
      "ୌ": 303,
      "୍": 304,
      "ୟ": 305,
      "୦": 306,
      "୧": 307,
      "୨": 308,
      "୩": 309,
      "୪": 310,
      "୫": 311,
      "୬": 312,
      "୭": 313,
      "୮": 314,
      "୯": 315,
      "ୱ": 316,
      "அ": 317,
      "ஆ": 318,
      "இ": 319,
      "உ": 320,
      "ஊ": 321,
      "எ": 322,
      "ஏ": 323,
      "க": 324,
      "ங": 325,
      "ச": 326,
      "ஜ": 327,
      "ட": 328,
      "ண": 329,
      "த": 330,
      "ந": 331,
      "ன": 332,
      "ப": 333,
      "ம": 334,
      "ய": 335,
      "ர": 336,
      "ற": 337,
      "ல": 338,
      "ள": 339,
      "வ": 340,
      "ஸ": 341,
      "ா": 342,
      "ி": 343,
      "ீ": 344,
      "ு": 345,
      "ூ": 346,
      "ெ": 347,
      "ே": 348,
      "ை": 349,
      "ொ": 350,
      "ோ": 351,
      "்": 352,
      "ఁ": 353,
      "ం": 354,
      "ః": 355,
      "అ": 356,
      "ఆ": 357,
      "ఇ": 358,
      "ఈ": 359,
      "ఉ": 360,
      "ఊ": 361,
      "ఋ": 362,
      "ఎ": 363,
      "ఏ": 364,
      "ఐ": 365,
      "ఒ": 366,
      "ఓ": 367,
      "ఔ": 368,
      "క": 369,
      "ఖ": 370,
      "గ": 371,
      "ఘ": 372,
      "ఙ": 373,
      "చ": 374,
      "ఛ": 375,
      "జ": 376,
      "ఝ": 377,
      "ఞ": 378,
      "ట": 379,
      "ఠ": 380,
      "డ": 381,
      "ఢ": 382,
      "ణ": 383,
      "త": 384,
      "థ": 385,
      "ద": 386,
      "ధ": 387,
      "న": 388,
      "ప": 389,
      "ఫ": 390,
      "బ": 391,
      "భ": 392,
      "మ": 393,
      "య": 394,
      "ర": 395,
      "ఱ": 396,
      "ల": 397,
      "ళ": 398,
      "వ": 399,
      "శ": 400,
      "ష": 401,
      "స": 402,
      "హ": 403,
      "ఽ": 404,
      "ా": 405,
      "ి": 406,
      "ీ": 407,
      "ు": 408,
      "ూ": 409,
      "ృ": 410,
      "ౄ": 411,
      "ె": 412,
      "ే": 413,
      "ై": 414,
      "ొ": 415,
      "ో": 416,
      "ౌ": 417,
      "్": 418,
      "ౖ": 419,
      "౦": 420,
      "౧": 421,
      "౩": 422,
      "౪": 423,
      "౬": 424,
      "౹": 425,
      "ಂ": 426,
      "ಃ": 427,
      "ಅ": 428,
      "ಆ": 429,
      "ಇ": 430,
      "ಈ": 431,
      "ಉ": 432,
      "ಊ": 433,
      "ಎ": 434,
      "ಏ": 435,
      "ಐ": 436,
      "ಒ": 437,
      "ಓ": 438,
      "ಔ": 439,
      "ಕ": 440,
      "ಖ": 441,
      "ಗ": 442,
      "ಘ": 443,
      "ಚ": 444,
      "ಛ": 445,
      "ಜ": 446,
      "ಝ": 447,
      "ಞ": 448,
      "ಟ": 449,
      "ಠ": 450,
      "ಡ": 451,
      "ಢ": 452,
      "ಣ": 453,
      "ತ": 454,
      "ಥ": 455,
      "ದ": 456,
      "ಧ": 457,
      "ನ": 458,
      "ಪ": 459,
      "ಫ": 460,
      "ಬ": 461,
      "ಭ": 462,
      "ಮ": 463,
      "ಯ": 464,
      "ರ": 465,
      "ಲ": 466,
      "ಳ": 467,
      "ವ": 468,
      "ಶ": 469,
      "ಷ": 470,
      "ಸ": 471,
      "ಹ": 472,
      "ಾ": 473,
      "ಿ": 474,
      "ೀ": 475,
      "ು": 476,
      "ೂ": 477,
      "ೃ": 478,
      "ೆ": 479,
      "ೇ": 480,
      "ೈ": 481,
      "ೊ": 482,
      "ೋ": 483,
      "ೌ": 484,
      "್": 485,
      "ം": 486,
      "അ": 487,
      "ആ": 488,
      "ഇ": 489,
      "ഈ": 490,
      "എ": 491,
      "ഒ": 492,
      "ക": 493,
      "ഗ": 494,
      "ങ": 495,
      "ച": 496,
      "ജ": 497,
      "ട": 498,
      "ഡ": 499,
      "ണ": 500,
      "ത": 501,
      "ദ": 502,
      "ധ": 503,
      "ന": 504,
      "പ": 505,
      "ബ": 506,
      "ഭ": 507,
      "മ": 508,
      "യ": 509,
      "ര": 510,
      "റ": 511,
      "ല": 512,
      "ള": 513,
      "ഴ": 514,
      "വ": 515,
      "ശ": 516,
      "ഷ": 517,
      "സ": 518,
      "ാ": 519,
      "ി": 520,
      "ീ": 521,
      "ു": 522,
      "ൂ": 523,
      "ൃ": 524,
      "െ": 525,
      "േ": 526,
      "ൈ": 527,
      "ൊ": 528,
      "ോ": 529,
      "്": 530,
      "ൗ": 531,
      "ൻ": 532,
      "ർ": 533,
      "ൽ": 534,
      "ൾ": 535,
      "ả": 536,
      "ầ": 537,
      "ậ": 538,
      "ệ": 539,
      "ố": 540,
      "ớ": 541,
      "ờ": 542,
      "ở": 543,
      "ợ": 544,
      "ứ": 545,
      "‌": 546,
      "‍": 547,
      "‎": 548,
      "‏": 549,
      "‐": 550,
      "‒": 551,
      "•": 552,
      "‪": 553,
      "‫": 554,
      "‬": 555,
      "‭": 556,
      "′": 557,
      "⁄": 558,
      "⁠": 559,
      "⁪": 560,
      "⁫": 561,
      "⁬": 562,
      "⁭": 563,
      "⁯": 564,
      "€": 565,
      "₹": 566,
      "⃣": 567,
      "∙": 568,
      "≠": 569,
      "▪": 570,
      "►": 571,
      "◆": 572,
      "◉": 573,
      "●": 574,
      "★": 575,
      "☛": 576,
      "♥": 577,
      "♦": 578,
      "✳": 579,
      "❌": 580,
      "➡": 581,
      "➦": 582,
      "⦁": 583,
      "️": 584,
      "🇪": 585,
      "🇬": 586,
      "🇮": 587,
      "🇳": 588,
      "🌹": 589,
      "🏼": 590,
      "👇": 591,
      "👉": 592,
      "👊": 593,
      "👋": 594,
      "👌": 595,
      "💐": 596,
      "💚": 597,
      "💥": 598,
      "💪": 599,
      "🔥": 600,
      "🔴": 601,
      "🔸": 602,
      "🔹": 603,
      "😂": 604,
      "😉": 605,
      "😊": 606,
      "😜": 607,
      "😞": 608,
      "😠": 609,
      "😡": 610,
      "😥": 611,
      "🙂": 612,
      "🙏": 613,
      "🚩": 614,
      "🤜": 615,
      "🤭": 616,
      "##ی": 617,
      "##و": 618,
      "##ن": 619,
      "##ٹ": 620,
      "##س": 621,
      "##ె": 622,
      "##య": 623,
      "##a": 624,
      "##s": 625,
      "##c": 626,
      "##e": 627,
      "##r": 628,
      "##0": 629,
      "##ధ": 630,
      "##్": 631,
      "##త": 632,
      "##డ": 633,
      "##వ": 634,
      "##ద": 635,
      "##ం": 636,
      "##ల": 637,
      "##ో": 638,
      "##t": 639,
      "##l": 640,
      "##ڈ": 641,
      "##ے": 642,
      "##న": 643,
      "##ీ": 644,
      "##5": 645,
      "##ు": 646,
      "##p": 647,
      "##ر": 648,
      "##ا": 649,
      "##ص": 650,
      "##ل": 651,
      "##ڑ": 652,
      "##ہ": 653,
      "##స": 654,
      "##క": 655,
      "##o": 656,
      "##د": 657,
      "##1": 658,
      "##ా": 659,
      "##ర": 660,
      "##پ": 661,
      "##మ": 662,
      "##n": 663,
      "##u": 664,
      "##7": 665,
      "##9": 666,
      "##శ": 667,
      "##b": 668,
      "##i": 669,
      "##w": 670,
      "##ئ": 671,
      "##h": 672,
      "##‌": 673,
      "##6": 674,
      "##q": 675,
      "##ں": 676,
      "##g": 677,
      "##d": 678,
      "##ి": 679,
      "##م": 680,
      "##ట": 681,
      "##ష": 682,
      "##ప": 683,
      "##థ": 684,
      "##3": 685,
      "##र": 686,
      "##ा": 687,
      "##ే": 688,
      "##ب": 689,
      "##ت": 690,
      "##భ": 691,
      "##k": 692,
      "##బ": 693,
      "##ఈ": 694,
      "##ొ": 695,
      "##ک": 696,
      "##y": 697,
      "##చ": 698,
      "##m": 699,
      "##ళ": 700,
      "##ସ": 701,
      "##ି": 702,
      "##x": 703,
      "##ౌ": 704,
      "##j": 705,
      "##f": 706,
      "##ै": 707,
      "##ं": 708,
      "##4": 709,
      "##2": 710,
      "##چ": 711,
      "##ھ": 712,
      "##ఖ": 713,
      "##8": 714,
      "##ط": 715,
      "##ش": 716,
      "##v": 717,
      "##హ": 718,
      "##ತ": 719,
      "##ణ": 720,
      "##ై": 721,
      "##خ": 722,
      "##ح": 723,
      "##گ": 724,
      "##జ": 725,
      "##ఫ": 726,
      "##గ": 727,
      "##े": 728,
      "##ज": 729,
      "##ी": 730,
      "##क": 731,
      "##ూ": 732,
      "##ذ": 733,
      "##ू": 734,
      "##ଂ": 735,
      "##ق": 736,
      "##ف": 737,
      "##ದ": 738,
      "##ೇ": 739,
      "##ए": 740,
      "##غ": 741,
      "##ଳ": 742,
      "##ز": 743,
      "##ఏ": 744,
      "##ع": 745,
      "##ظ": 746,
      "##୪": 747,
      "##ଉ": 748,
      "##ఇ": 749,
      "##ಾ": 750,
      "##ଡ": 751,
      "##଼": 752,
      "##ఓ": 753,
      "##ؤ": 754,
      "##ପ": 755,
      "##z": 756,
      "##ఎ": 757,
      "##ଟ": 758,
      "##ற": 759,
      "##प": 760,
      "##ೊ": 761,
      "##ಸ": 762,
      "##ଁ": 763,
      "##ର": 764,
      "##ण": 765,
      "##ା": 766,
      "##ମ": 767,
      "##.": 768,
      "##म": 769,
      "##>": 770,
      "##ಿ": 771,
      "##ଭ": 772,
      "##ଜ": 773,
      "##ứ": 774,
      "##ग": 775,
      "##ِ": 776,
      "##ଫ": 777,
      "##ಡ": 778,
      "##ೆ": 779,
      "##ଶ": 780,
      "##,": 781,
      "##ج": 782,
      "##ଣ": 783,
      "##ನ": 784,
      "##ರ": 785,
      "##ఐ": 786,
      "##ଇ": 787,
      "##स": 788,
      "##ಲ": 789,
      "##ନ": 790,
      "##୍": 791,
      "##न": 792,
      "##ो": 793,
      "##ट": 794,
      "##ಳ": 795,
      "##ು": 796,
      "##:": 797,
      "##ృ": 798,
      "##ल": 799,
      "##್": 800,
      "##ୋ": 801,
      "##ೀ": 802,
      "##ୃ": 803,
      "##ହ": 804,
      "##ଏ": 805,
      "##ଦ": 806,
      "##ଥ": 807,
      "##ಹ": 808,
      "##ବ": 809,
      "##\"": 810,
      "##ఠ": 811,
      "##ଲ": 812,
      "##ि": 813,
      "##ಗ": 814,
      "##ൻ": 815,
      "##౩": 816,
      "##ଛ": 817,
      "##ೈ": 818,
      "##ಜ": 819,
      "##ତ": 820,
      "##ೂ": 821,
      "##ث": 822,
      "##୮": 823,
      "##उ": 824,
      "##୦": 825,
      "##ଞ": 826,
      "##କ": 827,
      "##େ": 828,
      "##ض": 829,
      "##ఘ": 830,
      "##ఢ": 831,
      "##ە": 832,
      "##ୟ": 833,
      "##ठ": 834,
      "##ୁ": 835,
      "##୫": 836,
      "##ന": 837,
      "##്": 838,
      "##ಮ": 839,
      "##़": 840,
      "##फ": 841,
      "##?": 842,
      "##ُ": 843,
      "##ढ": 844,
      "##ଠ": 845,
      "##ர": 846,
      "##ई": 847,
      "##ః": 848,
      "##ह": 849,
      "##ي": 850,
      "##য": 851,
      "##়": 852,
      "##ಐ": 853,
      "##=": 854,
      "##ख": 855,
      "##౬": 856,
      "##آ": 857,
      "##୭": 858,
      "##'": 859,
      "##ೋ": 860,
      "##आ": 861,
      "##⃣": 862,
      "##!": 863,
      "##ु": 864,
      "##ఛ": 865,
      "##౦": 866,
      "##ೌ": 867,
      "##േ": 868,
      "##ൾ": 869,
      "##व": 870,
      "##ఆ": 871,
      "##୯": 872,
      "##୧": 873,
      "##ୂ": 874,
      "##ଆ": 875,
      "##श": 876,
      "##ಶ": 877,
      "##ଷ": 878,
      "##ಫ": 879,
      "##ध": 880,
      "##ờ": 881,
      "##ఱ": 882,
      "##ଗ": 883,
      "##ୀ": 884,
      "##ژ": 885,
      "##भ": 886,
      "##ब": 887,
      "##ೃ": 888,
      "##ଚ": 889,
      "##ଅ": 890,
      "##ಂ": 891,
      "##-": 892,
      "##ఝ": 893,
      "##ப": 894,
      "##୨": 895,
      "##ன": 896,
      "##ে": 897,
      "##त": 898,
      "##ো": 899,
      "##ট": 900,
      "##ఒ": 901,
      "##ண": 902,
      "##ৱ": 903,
      "##হ": 904,
      "##â": 905,
      "##*": 906,
      "##)": 907,
      "##ম": 908,
      "##ি": 909,
      "##୬": 910,
      "##ৰ": 911,
      "##ಟ": 912,
      "##द": 913,
      "##ư": 914,
      "##ớ": 915,
      "##୩": 916,
      "##ố": 917,
      "##ಣ": 918,
      "##थ": 919,
      "##′": 920,
      "##ய": 921,
      "##த": 922,
      "##ு": 923,
      "##ಕ": 924,
      "##ത": 925,
      "##ಭ": 926,
      "##य": 927,
      "##ವ": 928,
      "##র": 929,
      "##छ": 930,
      "##ୱ": 931,
      "##ୌ": 932,
      "##झ": 933,
      "##ଈ": 934,
      "##ौ": 935,
      "##च": 936,
      "##ন": 937,
      "##ఞ": 938,
      "##ந": 939,
      "##ര": 940,
      "##ു": 941,
      "##ঃ": 942,
      "##ங": 943,
      "##।": 944,
      "##ଖ": 945,
      "##ଯ": 946,
      "##ه": 947,
      "###": 948,
      "##ಒ": 949,
      "##ಬ": 950,
      "##ಪ": 951,
      "##ി": 952,
      "##ല": 953,
      "##ơ": 954,
      "##ଘ": 955,
      "##ଙ": 956,
      "##ଧ": 957,
      "##ক": 958,
      "##ু": 959,
      "##ड": 960,
      "##ء": 961,
      "##ী": 962,
      "##ಚ": 963,
      "##ầ": 964,
      "##ả": 965,
      "##+": 966,
      "##ୈ": 967,
      "##😂": 968,
      "##😡": 969,
      "##घ": 970,
      "##ى": 971,
      "##🇬": 972,
      "##🌹": 973,
      "##ڕ": 974,
      "##ಥ": 975,
      "##ॉ": 976,
      "##ʼ": 977,
      "##న్": 978,
      "##ర్": 979,
      "##్ర": 980,
      "##ని": 981,
      "##రు": 982,
      "##ంద": 983,
      "##స్": 984,
      "##్ల": 985,
      "##ంచ": 986,
      "ారు": 987,
      "##న్న": 988,
      "##్య": 989,
      "లో": 990,
      "చే": 991,
      "##ార": 992,
      "##్ట": 993,
      "ాల": 994,
      "##ంది": 995,
      "ప్ర": 996,
      "ను": 997,
      "ని": 998,
      "##ంట": 999,
      "##క్": 1000,
      "ించ": 1001,
      "కు": 1002,
      "##లో": 1003,
      "ున్న": 1004,
      "##ాల": 1005,
      "##గా": 1006,
      "##స్త": 1007,
      "##్ప": 1008,
      "##ండ": 1009,
      "వి": 1010,
      "##లు": 1011,
      "##కు": 1012,
      "్ర": 1013,
      "##త్": 1014,
      "##డు": 1015,
      "రా": 1016,
      "ర్": 1017,
      "కా": 1018,
      "##రి": 1019,
      "ిన": 1020,
      "గా": 1021,
      "##యి": 1022,
      "్య": 1023,
      "##ంత": 1024,
      "స్": 1025,
      "##ల్": 1026,
      "##ంగ": 1027,
      "##ిక": 1028,
      "##ుక": 1029,
      "లు": 1030,
      "##ల్ల": 1031,
      "ార": 1032,
      "కి": 1033,
      "ింది": 1034,
      "న్": 1035,
      "##దు": 1036,
      "##్చ": 1037,
      "రె": 1038,
      "##ప్ప": 1039,
      "##డ్": 1040,
      "చేస": 1041,
      "##ుల": 1042,
      "ార్": 1043,
      "మా": 1044,
      "##లి": 1045,
      "తె": 1046,
      "##ను": 1047,
      "##ట్ట": 1048,
      "##న్ని": 1049,
      "చె": 1050,
      "ుల": 1051,
      "తో": 1052,
      "##ీస": 1053,
      "##ద్": 1054,
      "##కి": 1055,
      "##టీ": 1056,
      "లే": 1057,
      "క్": 1058,
      "##త్ర": 1059,
      "##చ్చ": 1060,
      "ాయి": 1061,
      "కో": 1062,
      "కూ": 1063,
      "##ంగ్": 1064,
      "##టు": 1065,
      "రి": 1066,
      "##తి": 1067,
      "వా": 1068,
      "పై": 1069,
      "##ిన": 1070,
      "##డా": 1071,
      "పె": 1072,
      "##డి": 1073,
      "##వా": 1074,
      "నే": 1075,
      "##ది": 1076,
      "##మా": 1077,
      "ంలో": 1078,
      "##పీ": 1079,
      "్త": 1080,
      "##ట్ల": 1081,
      "##నే": 1082,
      "##్యా": 1083,
      "##ేశ": 1084,
      "##క్ష": 1085,
      "##ంచి": 1086,
      "సం": 1087,
      "పా": 1088,
      "ిస్త": 1089,
      "నా": 1090,
      "##ళ్ల": 1091,
      "##ట్": 1092,
      "ము": 1093,
      "ుత": 1094,
      "పో": 1095,
      "వె": 1096,
      "##ష్ట": 1097,
      "##టి": 1098,
      "##ంగా": 1099,
      "##్మ": 1100,
      "##్వ": 1101,
      "ఉన్న": 1102,
      "ులు": 1103,
      "ంగా": 1104,
      "రో": 1105,
      "కే": 1106,
      "వే": 1107,
      "##ుత": 1108,
      "ుంది": 1109,
      "నుంచి": 1110,
      "చేశ": 1111,
      "కూడా": 1112,
      "##క్క": 1113,
      "కొ": 1114,
      "##ంతో": 1115,
      "ాని": 1116,
      "డి": 1117,
      "చేయ": 1118,
      "సి": 1119,
      "సీ": 1120,
      "ందు": 1121,
      "సా": 1122,
      "గు": 1123,
      "దా": 1124,
      "ానికి": 1125,
      "చేస్త": 1126,
      "##త్త": 1127,
      "్యా": 1128,
      "్థ": 1129,
      "నిర్": 1130,
      "##ర్య": 1131,
      "సమ": 1132,
      "##పు": 1133,
      "##యం": 1134,
      "ాన్ని": 1135,
      "##డ్డ": 1136,
      "చెప్ప": 1137,
      "ామ": 1138,
      "తెలి": 1139,
      "ాడు": 1140,
      "బా": 1141,
      "ాలని": 1142,
      "డం": 1143,
      "లా": 1144,
      "##ంద్ర": 1145,
      "న్న": 1146,
      "ిక": 1147,
      "ాలు": 1148,
      "మె": 1149,
      "క్ర": 1150,
      "తీస": 1151,
      "ుక": 1152,
      "##ద్ద": 1153,
      "ద్": 1154,
      "అవ": 1155,
      "ధిక": 1156,
      "##లా": 1157,
      "ాయ": 1158,
      "ల్ల": 1159,
      "##పో": 1160,
      "##ంబ": 1161,
      "##ందని": 1162,
      "ిల్ల": 1163,
      "ార్టీ": 1164,
      "ుడు": 1165,
      "##గు": 1166,
      "రెడ్డ": 1167,
      "##త్వ": 1168,
      "భు": 1169,
      "భుత్వ": 1170,
      "##తే": 1171,
      "ారం": 1172,
      "ఆయ": 1173,
      "దీ": 1174,
      "ల్": 1175,
      "ధికార": 1176,
      "##మ్మ": 1177,
      "##షన్": 1178,
      "##మి": 1179,
      "తీసుక": 1180,
      "ంద": 1181,
      "##రో": 1182,
      "ది": 1183,
      "పే": 1184,
      "వచ్చ": 1185,
      "##ంటి": 1186,
      "##ాన": 1187,
      "##ారి": 1188,
      "తన": 1189,
      "##ష్": 1190,
      "మే": 1191,
      "అయి": 1192,
      "ఒక": 1193,
      "కల": 1194,
      "శా": 1195,
      "దేశ": 1196,
      "రు": 1197,
      "##ించ": 1198,
      "ప్ప": 1199,
      "రెస్": 1200,
      "భార": 1201,
      "వై": 1202,
      "మీ": 1203,
      "ారని": 1204,
      "రాజ": 1205,
      "పరి": 1206,
      "ఆయన": 1207,
      "త్": 1208,
      "ట్ల": 1209,
      "##నా": 1210,
      "##ఆర్": 1211,
      "్లో": 1212,
      "##ంధ": 1213,
      "ందుకు": 1214,
      "రోజ": 1215,
      "ఉంట": 1216,
      "##వి": 1217,
      "రాష్ట": 1218,
      "రూ": 1219,
      "##త్రి": 1220,
      "అని": 1221,
      "స్ట": 1222,
      "ాబ": 1223,
      "ుంట": 1224,
      "ోంది": 1225,
      "చి": 1226,
      "##వు": 1227,
      "చూ": 1228,
      "##ారం": 1229,
      "ింగ్": 1230,
      "గ్ర": 1231,
      "##నీ": 1232,
      "##యో": 1233,
      "ఉండ": 1234,
      "మంది": 1235,
      "##్గ": 1236,
      "ీఆర్": 1237,
      "ఎన్ని": 1238,
      "ోర్": 1239,
      "నె": 1240,
      "##సి": 1241,
      "##ధ్య": 1242,
      "వర": 1243,
      "##ర్త": 1244,
      "తెలిప": 1245,
      "##సం": 1246,
      "లోని": 1247,
      "##సు": 1248,
      "యా": 1249,
      "ట్": 1250,
      "##ైన": 1251,
      "టీ": 1252,
      "ంట": 1253,
      "డీ": 1254,
      "##ప్": 1255,
      "అంద": 1256,
      "్వ": 1257,
      "##రిగ": 1258,
      "చ్చ": 1259,
      "##పా": 1260,
      "##ంక": 1261,
      "##యా": 1262,
      "పు": 1263,
      "ంత్రి": 1264,
      "పోల": 1265,
      "##ంలో": 1266,
      "##బ్": 1267,
      "పెట్ట": 1268,
      "తీ": 1269,
      "##ంప": 1270,
      "డా": 1271,
      "కాంగ్": 1272,
      "##్యే": 1273,
      "##తో": 1274,
      "ిని": 1275,
      "భా": 1276,
      "ిల్లా": 1277,
      "లి": 1278,
      "శ్ర": 1279,
      "ప్రజ": 1280,
      "కోసం": 1281,
      "ట్ట": 1282,
      "తా": 1283,
      "వ్య": 1284,
      "##బు": 1285,
      "లేద": 1286,
      "మి": 1287,
      "ఆర్": 1288,
      "సె": 1289,
      "ాబా": 1290,
      "హై": 1291,
      "రెండ": 1292,
      "లంగా": 1293,
      "##వర": 1294,
      "ాల్": 1295,
      "##ీయ": 1296,
      "ఇప్ప": 1297,
      "చేసుక": 1298,
      "ీజ": 1299,
      "పాటు": 1300,
      "అన్న": 1301,
      "ోవ": 1302,
      "##ర్శ": 1303,
      "ాబాద్": 1304,
      "ండ": 1305,
      "##తు": 1306,
      "##క్త": 1307,
      "విష": 1308,
      "లక్ష": 1309,
      "ఎం": 1310,
      "వీ": 1311,
      "డంతో": 1312,
      "లంగాణ": 1313,
      "చేసిన": 1314,
      "కుండ": 1315,
      "మహ": 1316,
      "లను": 1317,
      "ాజ": 1318,
      "ట్ర": 1319,
      "లేదు": 1320,
      "అభ": 1321,
      "అయితే": 1322,
      "##ండి": 1323,
      "##స్ట": 1324,
      "మూ": 1325,
      "పాల": 1326,
      "ముంద": 1327,
      "ంగ": 1328,
      "కుండా": 1329,
      "##ఖ్య": 1330,
      "దు": 1331,
      "##తా": 1332,
      "##ద్య": 1333,
      "్ట": 1334,
      "వస్త": 1335,
      "ఎస్": 1336,
      "క్కు": 1337,
      "##లీ": 1338,
      "ఇచ్చ": 1339,
      "##కా": 1340,
      "##సీ": 1341,
      "##క్ట": 1342,
      "కార్య": 1343,
      "తర్": 1344,
      "చంద్ర": 1345,
      "యూ": 1346,
      "##ారణ": 1347,
      "ారి": 1348,
      "ేంద్ర": 1349,
      "టిక": 1350,
      "మొ": 1351,
      "##రం": 1352,
      "##శ్": 1353,
      "తర్వా": 1354,
      "జీ": 1355,
      "##ాయ": 1356,
      "ంప": 1357,
      "ామని": 1358,
      "ాలి": 1359,
      "కాల": 1360,
      "##తుల": 1361,
      "ీజే": 1362,
      "ీడి": 1363,
      "తి": 1364,
      "సు": 1365,
      "ినిమా": 1366,
      "చాల": 1367,
      "ైన": 1368,
      "నీ": 1369,
      "టి": 1370,
      "య్య": 1371,
      "అనే": 1372,
      "ద్ద": 1373,
      "ీజేపీ": 1374,
      "పోలీస": 1375,
      "ప్రజల": 1376,
      "మో": 1377,
      "సూ": 1378,
      "తమ": 1379,
      "్యక్త": 1380,
      "##ఎం": 1381,
      "ట్లు": 1382,
      "##ంట్": 1383,
      "నిర్వ": 1384,
      "మైన": 1385,
      "మరో": 1386,
      "దే": 1387,
      "##గ్గ": 1388,
      "డ్": 1389,
      "##చ్": 1390,
      "చాలా": 1391,
      "##రుగ": 1392,
      "##ిత": 1393,
      "##మె": 1394,
      "జా": 1395,
      "ఉంది": 1396,
      "ఏర్": 1397,
      "శ్రీ": 1398,
      "తే": 1399,
      "వెళ్ల": 1400,
      "చెంద": 1401,
      "##జీ": 1402,
      "బాబు": 1403,
      "##తం": 1404,
      "##ర్చ": 1405,
      "రీ": 1406,
      "ిపో": 1407,
      "జన": 1408,
      "రే": 1409,
      "నున్న": 1410,
      "వ్యా": 1411,
      "##ర్క": 1412,
      "సో": 1413,
      "పడ": 1414,
      "##నిక": 1415,
      "నేత": 1416,
      "##టన": 1417,
      "సీఎం": 1418,
      "##వే": 1419,
      "అంట": 1420,
      "లాంటి": 1421,
      "ఎమ్మ": 1422,
      "నెల": 1423,
      "##ర్గ": 1424,
      "క్ష": 1425,
      "ాలను": 1426,
      "పూ": 1427,
      "##ామ": 1428,
      "ెల": 1429,
      "ల్లో": 1430,
      "ాన": 1431,
      "ాల్ల": 1432,
      "ాల్లో": 1433,
      "క్కువ": 1434,
      "విజ": 1435,
      "##ల్లి": 1436,
      "మ్మ": 1437,
      "##ర్ల": 1438,
      "##దీ": 1439,
      "మధ్య": 1440,
      "##ోగ": 1441,
      "కోట్ల": 1442,
      "కీ": 1443,
      "సమయం": 1444,
      "స్ప": 1445,
      "##బంధ": 1446,
      "రెండు": 1447,
      "##ఫ్": 1448,
      "టు": 1449,
      "సభ": 1450,
      "్క": 1451,
      "కలి": 1452,
      "ుందని": 1453,
      "##ారా": 1454,
      "రై": 1455,
      "క్క": 1456,
      "క్రమ": 1457,
      "ాహ": 1458,
      "పొ": 1459,
      "మాట్ల": 1460,
      "ఆమె": 1461,
      "్రా": 1462,
      "ప్రతి": 1463,
      "లె": 1464,
      "ిత": 1465,
      "##ీసీ": 1466,
      "నగ": 1467,
      "దీంతో": 1468,
      "క్ట": 1469,
      "హైద": 1470,
      "##మార": 1471,
      "వరకు": 1472,
      "##ద్ధ": 1473,
      "##య్య": 1474,
      "గత": 1475,
      "దర్శ": 1476,
      "##క్కడ": 1477,
      "జరిగ": 1478,
      "##దే": 1479,
      "ెన్": 1480,
      "ించి": 1481,
      "పని": 1482,
      "రోజుల": 1483,
      "ళ్ల": 1484,
      "హైదర": 1485,
      "ాద": 1486,
      "రణ": 1487,
      "పి": 1488,
      "##మ్": 1489,
      "##నిప": 1490,
      "ొన్న": 1491,
      "డానిక": 1492,
      "##కాశ": 1493,
      "కానీ": 1494,
      "ప్": 1495,
      "కుమార": 1496,
      "ుగా": 1497,
      "మరి": 1498,
      "##ధి": 1499,
      "ముందు": 1500,
      "్థాన": 1501,
      "ాం": 1502,
      "##స్థ": 1503,
      "ెల్యే": 1504,
      "ోర్టు": 1505,
      "రిక": 1506,
      "##దల": 1507,
      "ప్రా": 1508,
      "పెద్ద": 1509,
      "ర్ల": 1510,
      "ినట్ల": 1511,
      "అవకాశ": 1512,
      "##బ్బ": 1513,
      "వారి": 1514,
      "ాడ": 1515,
      "హించ": 1516,
      "ేషన్": 1517,
      "కర": 1518,
      "ిప": 1519,
      "సంబంధ": 1520,
      "##రా": 1521,
      "చేసి": 1522,
      "##ాన్": 1523,
      "బీ": 1524,
      "నాయ": 1525,
      "ాయని": 1526,
      "యి": 1527,
      "కొత్త": 1528,
      "##కర": 1529,
      "##ల్లో": 1530,
      "ఏర్పా": 1531,
      "బి": 1532,
      "రించ": 1533,
      "##సా": 1534,
      "హి": 1535,
      "పీ": 1536,
      "పట్ట": 1537,
      "కేస": 1538,
      "వేల": 1539,
      "##సర": 1540,
      "లకు": 1541,
      "ుకు": 1542,
      "##ివ": 1543,
      "గ్రామ": 1544,
      "ింద": 1545,
      "జగ": 1546,
      "దీని": 1547,
      "తొ": 1548,
      "గుర": 1549,
      "్యూ": 1550,
      "బె": 1551,
      "##్వర": 1552,
      "ండి": 1553,
      "కృ": 1554,
      "ండ్": 1555,
      "గంట": 1556,
      "##వం": 1557,
      "అంత": 1558,
      "ఇది": 1559,
      "భారీ": 1560,
      "##వేశ": 1561,
      "రోజు": 1562,
      "ూర్": 1563,
      "ిక్": 1564,
      "్ప": 1565,
      "సహ": 1566,
      "సారి": 1567,
      "అత": 1568,
      "యు": 1569,
      "నియో": 1570,
      "తప్ప": 1571,
      "్చ": 1572,
      "ియ": 1573,
      "మన": 1574,
      "ద్య": 1575,
      "ాణ": 1576,
      "అస": 1577,
      "వల్ల": 1578,
      "##రే": 1579,
      "ఇవ": 1580,
      "జగన్": 1581,
      "భూ": 1582,
      "మార": 1583,
      "##మాన": 1584,
      "నిర్మ": 1585,
      "ంచ": 1586,
      "ెలు": 1587,
      "స్వ": 1588,
      "##వల": 1589,
      "ారంభ": 1590,
      "ెంట": 1591,
      "విషయ": 1592,
      "ంత": 1593,
      "లేదని": 1594,
      "ేశ": 1595,
      "##యల": 1596,
      "నూ": 1597,
      "ప్రక": 1598,
      "ద్యోగ": 1599,
      "హె": 1600,
      "##ద్ర": 1601,
      "##దేశ": 1602,
      "##ధాన": 1603,
      "అభ్య": 1604,
      "ిగ": 1605,
      "ువ": 1606,
      "్థి": 1607,
      "కనిప": 1608,
      "ఇవ్వ": 1609,
      "కావ": 1610,
      "వ్యాప": 1611,
      "గ్": 1612,
      "పద": 1613,
      "##్యూ": 1614,
      "చేసే": 1615,
      "ొన్ని": 1616,
      "రావు": 1617,
      "్వారా": 1618,
      "అమ": 1619,
      "రామ": 1620,
      "విద్య": 1621,
      "వారు": 1622,
      "##ండ్": 1623,
      "ిజ": 1624,
      "ప్రకట": 1625,
      "ీఆర్ఎ": 1626,
      "కపో": 1627,
      "చూస": 1628,
      "విజయ": 1629,
      "జ్": 1630,
      "ొత్త": 1631,
      "రిగ": 1632,
      "బు": 1633,
      "ర్య": 1634,
      "ీడియ": 1635,
      "##పడ": 1636,
      "ఇక": 1637,
      "చెబ": 1638,
      "ుటు": 1639,
      "ుటుంబ": 1640,
      "డు": 1641,
      "కోర": 1642,
      "గంటల": 1643,
      "టె": 1644,
      "స్థ": 1645,
      "నాయక": 1646,
      "##ాని": 1647,
      "ూర్తి": 1648,
      "ూరు": 1649,
      "నిర్ణ": 1650,
      "శాఖ": 1651,
      "ాచ": 1652,
      "లక్షల": 1653,
      "సే": 1654,
      "కె": 1655,
      "పల్లి": 1656,
      "పేర్క": 1657,
      "చేర": 1658,
      "అన": 1659,
      "ర్థ": 1660,
      "చెబుత": 1661,
      "అభ్యర": 1662,
      "గె": 1663,
      "జరుగ": 1664,
      "పరిస": 1665,
      "మహి": 1666,
      "కారణ": 1667,
      "ుర": 1668,
      "ినా": 1669,
      "బో": 1670,
      "ిందని": 1671,
      "##డుత": 1672,
      "ఏపీ": 1673,
      "ాగ": 1674,
      "##రుల": 1675,
      "##ాలు": 1676,
      "నో": 1677,
      "్రమా": 1678,
      "తర": 1679,
      "##ప్ర": 1680,
      "ుడి": 1681,
      "ేప": 1682,
      "ుడ": 1683,
      "తగ్గ": 1684,
      "మహిళ": 1685,
      "మండ": 1686,
      "ొన": 1687,
      "మెంట్": 1688,
      "పోటీ": 1689,
      "##ందర": 1690,
      "ప్రస": 1691,
      "##ంటే": 1692,
      "సై": 1693,
      "యత్": 1694,
      "హా": 1695,
      "ాత్ర": 1696,
      "ంజ": 1697,
      "వద్ద": 1698,
      "ెలుగు": 1699,
      "ఎన్": 1700,
      "ప్ల": 1701,
      "అవుత": 1702,
      "మాజీ": 1703,
      "్తుత": 1704,
      "్తుతం": 1705,
      "ెస్": 1706,
      "ఇన్": 1707,
      "##తర": 1708,
      "భారత": 1709,
      "ిచ": 1710,
      "భారత్": 1711,
      "అయ్య": 1712,
      "నిర": 1713,
      "బ్": 1714,
      "షా": 1715,
      "ఇండి": 1716,
      "మొద": 1717,
      "గి": 1718,
      "ంది": 1719,
      "ొచ్చ": 1720,
      "భి": 1721,
      "సంస్థ": 1722,
      "అలా": 1723,
      "##లిచ": 1724,
      "కేట": 1725,
      "##ిల్ల": 1726,
      "యత్న": 1727,
      "మంచి": 1728,
      "##వత": 1729,
      "ఢిల్ల": 1730,
      "్లీ": 1731,
      "ందులో": 1732,
      "##డీ": 1733,
      "ార్థ": 1734,
      "ిపోయ": 1735,
      "ిమ": 1736,
      "మ్": 1737,
      "త్ర": 1738,
      "ుని": 1739,
      "##ము": 1740,
      "##పై": 1741,
      "ిన్": 1742,
      "ుంద": 1743,
      "ర్మ": 1744,
      "బ్యా": 1745,
      "కల్లో": 1746,
      "##తీయ": 1747,
      "ఎంపీ": 1748,
      "లీ": 1749,
      "ర్ష": 1750,
      "ేస": 1751,
      "తీవ": 1752,
      "విశ": 1753,
      "శాతం": 1754,
      "ేవం": 1755,
      "ేవంత్": 1756,
      "##ంబర్": 1757,
      "తీవ్ర": 1758,
      "ఇండియ": 1759,
      "ధర": 1760,
      "ధాని": 1761,
      "వాడ": 1762,
      "పవ": 1763,
      "ాలో": 1764,
      "తెలు": 1765,
      "్టే": 1766,
      "##గుల": 1767,
      "రిగిన": 1768,
      "మావేశ": 1769,
      "ఒక్క": 1770,
      "చ్చిన": 1771,
      "##వీ": 1772,
      "ులకు": 1773,
      "్యాచ్": 1774,
      "లై": 1775,
      "ుండ": 1776,
      "##రీ": 1777,
      "మీద": 1778,
      "కీల": 1779,
      "మూడు": 1780,
      "సందర": 1781,
      "రోగ": 1782,
      "తెలుస": 1783,
      "ించిన": 1784,
      "ేసు": 1785,
      "్రాంత": 1786,
      "డీపీ": 1787,
      "10": 1788,
      "ాత్రం": 1789,
      "్ల": 1790,
      "ఇస్త": 1791,
      "స్వా": 1792,
      "వెల్ల": 1793,
      "ఉప": 1794,
      "ాట": 1795,
      "ఫి": 1796,
      "తేదీ": 1797,
      "కీలక": 1798,
      "ాల్స": 1799,
      "అన్ని": 1800,
      "రాశ": 1801,
      "వాళ్ల": 1802,
      "ాంత": 1803,
      "ునే": 1804,
      "గుర్త": 1805,
      "త్యే": 1806,
      "ఆధ": 1807,
      "కలిసి": 1808,
      "త్యేక": 1809,
      "సూచ": 1810,
      "వర్": 1811,
      "ుఖ్య": 1812,
      "పవన్": 1813,
      "మండల": 1814,
      "కవ": 1815,
      "దేశ్": 1816,
      "##సాగ": 1817,
      "ొనసాగ": 1818,
      "ఘటన": 1819,
      "సాధ": 1820,
      "త్వ": 1821,
      "ిడు": 1822,
      "ిడుదల": 1823,
      "ఉద": 1824,
      "క్యా": 1825,
      "##భా": 1826,
      "రంగ": 1827,
      "్లా": 1828,
      "ుకో": 1829,
      "రోగ్య": 1830,
      "లతో": 1831,
      "రావ": 1832,
      "ట్టు": 1833,
      "మాత్ర": 1834,
      "##విత": 1835,
      "పంప": 1836,
      "ీడియో": 1837,
      "##చార": 1838,
      "ైసీ": 1839,
      "ార్క": 1840,
      "ఉందని": 1841,
      "ంలోని": 1842,
      "జర": 1843,
      "చో": 1844,
      "ండ్ల": 1845,
      "##ియ": 1846,
      "##కూ": 1847,
      "దేవ": 1848,
      "నియోజ": 1849,
      "్రశ్": 1850,
      "్రశ్న": 1851,
      "టికే": 1852,
      "##ంగళ": 1853,
      "ాజా": 1854,
      "ానని": 1855,
      "్మ": 1856,
      "రైతుల": 1857,
      "కారణం": 1858,
      "వచ్చే": 1859,
      "డ్ర": 1860,
      "##ృష్ట": 1861,
      "##డం": 1862,
      "##జ్": 1863,
      "వైపు": 1864,
      "##త్య": 1865,
      "్రమాద": 1866,
      "##టో": 1867,
      "గో": 1868,
      "ైసీపీ": 1869,
      "్రధాన": 1870,
      "తెలిస": 1871,
      "లలో": 1872,
      "ెళ్ల": 1873,
      "్రి": 1874,
      "ైనా": 1875,
      "రక": 1876,
      "##డారు": 1877,
      "కవర్గ": 1878,
      "దాని": 1879,
      "కర్": 1880,
      "్యం": 1881,
      "ించే": 1882,
      "ాలకు": 1883,
      "గురు": 1884,
      "వార": 1885,
      "ుఖ్యమ": 1886,
      "##ఎస్": 1887,
      "ేష్": 1888,
      "##ట్టు": 1889,
      "్యంలో": 1890,
      "ించుక": 1891,
      "ున": 1892,
      "చూప": 1893,
      "పడుత": 1894,
      "##గి": 1895,
      "ాస్": 1896,
      "ాప": 1897,
      "##ుడ": 1898,
      "కారం": 1899,
      "ాన్": 1900,
      "అధ": 1901,
      "ిం": 1902,
      "మస్": 1903,
      "బయ": 1904,
      "ివర": 1905,
      "ెయి": 1906,
      "్భ": 1907,
      "్వా": 1908,
      "డించ": 1909,
      "కాదు": 1910,
      "రెస్ట": 1911,
      "పాల్గ": 1912,
      "్రీ": 1913,
      "డె": 1914,
      "ుబ": 1915,
      "ప్పటి": 1916,
      "##ష్ణ": 1917,
      "##వాస": 1918,
      "చిన్న": 1919,
      "త్త": 1920,
      "##పత": 1921,
      "##ెంబ": 1922,
      "కృష్ణ": 1923,
      "నిల": 1924,
      "తీర": 1925,
      "కింద": 1926,
      "జూ": 1927,
      "##త్స": 1928,
      "అసెంబ": 1929,
      "అవసర": 1930,
      "వ్వ": 1931,
      "చై": 1932,
      "కేసు": 1933,
      "##కీయ": 1934,
      "ాజకీయ": 1935,
      "యం": 1936,
      "్రప": 1937,
      "ాల్సి": 1938,
      "ఫో": 1939,
      "ాచారం": 1940,
      "ొత్తం": 1941,
      "మృ": 1942,
      "నుంది": 1943,
      "ిల్": 1944,
      "పరిశ": 1945,
      "నుండి": 1946,
      "వంటి": 1947,
      "హీ": 1948,
      "##రుక": 1949,
      "పేట": 1950,
      "##రిక": 1951,
      "్ష": 1952,
      "##ర్మ": 1953,
      "ోయ": 1954,
      "్రంలో": 1955,
      "ిమర్శ": 1956,
      "##వ్": 1957,
      "్రపంచ": 1958,
      "జరగ": 1959,
      "ుప": 1960,
      "్థితి": 1961,
      "్భంగా": 1962,
      "ేపట్ట": 1963,
      "చేరుక": 1964,
      "##గే": 1965,
      "నగర్": 1966,
      "సర్": 1967,
      "ేలా": 1968,
      "ఇంటి": 1969,
      "ోడ్": 1970,
      "వేస": 1971,
      "##వరి": 1972,
      "ంపె": 1973,
      "లుగు": 1974,
      "##ివృ": 1975,
      "ాంతాల": 1976,
      "ిరు": 1977,
      "చిత్ర": 1978,
      "దగ్గ": 1979,
      "##త్మ": 1980,
      "చర్చ": 1981,
      "సంఘ": 1982,
      "ికి": 1983,
      "ంపెనీ": 1984,
      "ఆదేశ": 1985,
      "బాధ": 1986,
      "నివాస": 1987,
      "బయట": 1988,
      "ఆల": 1989,
      "ుస్త": 1990,
      "లేదా": 1991,
      "ముఖ్య": 1992,
      "ిఫ": 1993,
      "రల్": 1994,
      "పలు": 1995,
      "సోష": 1996,
      "జై": 1997,
      "శి": 1998,
      "అమ్మ": 1999,
      "ఆరో": 2000,
      "తాను": 2001,
      "మస్యల": 2002,
      "లోకి": 2003,
      "పుర": 2004,
      "ోదీ": 2005,
      "ెంబర్": 2006,
      "ాక": 2007,
      "##గ్ర": 2008,
      "ద్ధి": 2009,
      "##స్టు": 2010,
      "##క్ర": 2011,
      "తొలి": 2012,
      "నిజ": 2013,
      "కపోవ": 2014,
      "ారికి": 2015,
      "ఎలా": 2016,
      "సోషల్": 2017,
      "అదే": 2018,
      "అక్కడ": 2019,
      "ేశ్వర": 2020,
      "##ాల్": 2021,
      "బాల": 2022,
      "ైల్": 2023,
      "వుత": 2024,
      "##వర్": 2025,
      "##ణ్": 2026,
      "తల": 2027,
      "పెంచ": 2028,
      "##ార్": 2029,
      "పొంద": 2030,
      "టికీ": 2031,
      "టం": 2032,
      "ితే": 2033,
      "అంటూ": 2034,
      "ింపు": 2035,
      "జాతీయ": 2036,
      "ిచారణ": 2037,
      "ున్నా": 2038,
      "ఇతర": 2039,
      "##ాయి": 2040,
      "విషయం": 2041,
      "వ్యవ": 2042,
      "ేష": 2043,
      "అభివృ": 2044,
      "మని": 2045,
      "అను": 2046,
      "లేక": 2047,
      "డై": 2048,
      "ఏడా": 2049,
      "ఆరోప": 2050,
      "దూ": 2051,
      "మేర": 2052,
      "నేతలు": 2053,
      "ర్యలు": 2054,
      "దగ్గర": 2055,
      "ఫోన్": 2056,
      "హీరో": 2057,
      "మై": 2058,
      "ంటే": 2059,
      "లోనే": 2060,
      "సంవత": 2061,
      "స్పంద": 2062,
      "ర్థిక": 2063,
      "ొంద": 2064,
      "##జు": 2065,
      "ుకోవ": 2066,
      "హత్య": 2067,
      "ఏడాది": 2068,
      "ీర్": 2069,
      "ష్": 2070,
      "స్ట్ర": 2071,
      "ాదా": 2072,
      "మాన": 2073,
      "దాడి": 2074,
      "నేప": 2075,
      "ంతా": 2076,
      "గాంధ": 2077,
      "తెలియ": 2078,
      "జార": 2079,
      "##న్స": 2080,
      "బ్ర": 2081,
      "ాడుత": 2082,
      "ెక్ట": 2083,
      "ిందే": 2084,
      "గాంధీ": 2085,
      "మెరిక": 2086,
      "అలాగే": 2087,
      "##శాల": 2088,
      "గౌ": 2089,
      "ఇదే": 2090,
      "క్ల": 2091,
      "ుంటే": 2092,
      "అం": 2093,
      "అప్ప": 2094,
      "ాధ్య": 2095,
      "రుణ": 2096,
      "నంత": 2097,
      "్తంగా": 2098,
      "్పష్ట": 2099,
      "అంటే": 2100,
      "పేరు": 2101,
      "ిల్లల": 2102,
      "దిగ": 2103,
      "పెరిగ": 2104,
      "ంపై": 2105,
      "ెడ్": 2106,
      "##ప్ట": 2107,
      "తు": 2108,
      "అది": 2109,
      "భ్య": 2110,
      "ోధ": 2111,
      "రుగుల": 2112,
      "అధ్య": 2113,
      "ిలీ": 2114,
      "వివర": 2115,
      "##టిని": 2116,
      "షన్": 2117,
      "వెంక": 2118,
      "ఆడ": 2119,
      "న్యా": 2120,
      "కాలం": 2121,
      "భద్ర": 2122,
      "ెంట్": 2123,
      "యో": 2124,
      "ిట్": 2125,
      "సిద్ధ": 2126,
      "చూడ": 2127,
      "తరు": 2128,
      "డిమా": 2129,
      "అయిన": 2130,
      "ాజాగా": 2131,
      "క్తుల": 2132,
      "ప్రాజ": 2133,
      "ాప్": 2134,
      "సింగ్": 2135,
      "జే": 2136,
      "##సే": 2137,
      "నగర": 2138,
      "దృష్ట": 2139,
      "ంబ": 2140,
      "##సన": 2141,
      "క్షన్": 2142,
      "న్స్": 2143,
      "రాశి": 2144,
      "శివ": 2145,
      "ఇలా": 2146,
      "ర్గ": 2147,
      "ఇబ్బ": 2148,
      "ందుక": 2149,
      "వ్యాఖ": 2150,
      "##ట్టి": 2151,
      "ట్రా": 2152,
      "ఆహ": 2153,
      "##పోయ": 2154,
      "ఉత్త": 2155,
      "ఇంట": 2156,
      "ియా": 2157,
      "ాదాపు": 2158,
      "మెంట": 2159,
      "అమలు": 2160,
      "ిట": 2161,
      "ాక్": 2162,
      "##ోళ": 2163,
      "త్తు": 2164,
      "గతంలో": 2165,
      "క్రమం": 2166,
      "20": 2167,
      "ార్డ": 2168,
      "కూడ": 2169,
      "ేరు": 2170,
      "్తే": 2171,
      "ఏళ్ల": 2172,
      "పూర్": 2173,
      "ఇటీ": 2174,
      "ందోళ": 2175,
      "ప్రజా": 2176,
      "ేసులో": 2177,
      "ందోళన": 2178,
      "ాగంగా": 2179,
      "ేశ్": 2180,
      "##మో": 2181,
      "డబ్": 2182,
      "అనేక": 2183,
      "ికల్": 2184,
      "##నం": 2185,
      "రీక్ష": 2186,
      "వారం": 2187,
      "ెట్": 2188,
      "ాడుతూ": 2189,
      "ఇటీవల": 2190,
      "లెక్ట": 2191,
      "డబ్బు": 2192,
      "ావ": 2193,
      "నంతరం": 2194,
      "గల": 2195,
      "వ్యవహ": 2196,
      "హైక": 2197,
      "ఆఫ్": 2198,
      "##నివ": 2199,
      "సొ": 2200,
      "కౌ": 2201,
      "మూవీ": 2202,
      "కొట్ట": 2203,
      "ఎవర": 2204,
      "్యాంక": 2205,
      "తేల": 2206,
      "బడ": 2207,
      "జట్టు": 2208,
      "మోదు": 2209,
      "ోల": 2210,
      "ేయ": 2211,
      "ోద": 2212,
      "ఆఫ": 2213,
      "వెంకట": 2214,
      "ాలయ": 2215,
      "జి": 2216,
      "ారా": 2217,
      "ాను": 2218,
      "ెంటనే": 2219,
      "భ్యుల": 2220,
      "ందుకే": 2221,
      "శు": 2222,
      "జె": 2223,
      "వైఎస్": 2224,
      "మళ్ల": 2225,
      "ులను": 2226,
      "వాద": 2227,
      "##మోద": 2228,
      "ైంది": 2229,
      "ఫలి": 2230,
      "తరువా": 2231,
      "ఫలిత": 2232,
      "నేను": 2233,
      "కొంత": 2234,
      "ిష": 2235,
      "ీల": 2236,
      "ెత్త": 2237,
      "స్వామ": 2238,
      "రక్ష": 2239,
      "ాదు": 2240,
      "ముగ": 2241,
      "ర్షాల": 2242,
      "నియ": 2243,
      "పోస్ట": 2244,
      "మాట": 2245,
      "స్త": 2246,
      "్రె": 2247,
      "దారుల": 2248,
      "ళ్": 2249,
      "ఆధార": 2250,
      "జారీ": 2251,
      "##క్తి": 2252,
      "వివా": 2253,
      "ష్ట": 2254,
      "వెళ": 2255,
      "ాహు": 2256,
      "##ారు": 2257,
      "నేర": 2258,
      "ెల్": 2259,
      "కల్ప": 2260,
      "##డుక": 2261,
      "##ంజ": 2262,
      "##ేట": 2263,
      "డిప": 2264,
      "గిరి": 2265,
      "చారం": 2266,
      "ంట్ల": 2267,
      "వర్గ": 2268,
      "ినప్ప": 2269,
      "చీ": 2270,
      "##ణా": 2271,
      "నేపథ": 2272,
      "పెరుగ": 2273,
      "అంచ": 2274,
      "భావ": 2275,
      "రాజ్": 2276,
      "బోత": 2277,
      "కంటే": 2278,
      "మొదటి": 2279,
      "ఉత్తర": 2280,
      "##యోగ": 2281,
      "ఎక్": 2282,
      "వు": 2283,
      "వైర": 2284,
      "్యాణ్": 2285,
      "గొ": 2286,
      "్డారు": 2287,
      "నోట": 2288,
      "15": 2289,
      "ేట": 2290,
      "న్యాయ": 2291,
      "జీవిత": 2292,
      "ళ్ళ": 2293,
      "ిర": 2294,
      "ిస్తూ": 2295,
      "రోప": 2296,
      "ోత": 2297,
      "గ్రహ": 2298,
      "##ుడు": 2299,
      "ప్రత": 2300,
      "్తూ": 2301,
      "పర్": 2302,
      "లోక్": 2303,
      "ూపా": 2304,
      "అంచనా": 2305,
      "ూపాయల": 2306,
      "్యక్ష": 2307,
      "డైర": 2308,
      "ొందరు": 2309,
      "ఫొ": 2310,
      "ఫొటో": 2311,
      "ఫిర్య": 2312,
      "పైన": 2313,
      "తల్లి": 2314,
      "ాలన్న": 2315,
      "వైద్య": 2316,
      "క్టర్": 2317,
      "ర్ట": 2318,
      "వస": 2319,
      "ుగ": 2320,
      "పక్ష": 2321,
      "గానే": 2322,
      "ఉదయం": 2323,
      "ిధ": 2324,
      "్టేష": 2325,
      "ింప": 2326,
      "ాది": 2327,
      "ోష": 2328,
      "ుర్త": 2329,
      "##రిగి": 2330,
      "నేతల": 2331,
      "ఆఫీస": 2332,
      "హాజ": 2333,
      "ిపోత": 2334,
      "చెల్ల": 2335,
      "ఆంధ": 2336,
      "ఫ్": 2337,
      "ుర్తు": 2338,
      "ాహుల్": 2339,
      "ఉపయోగ": 2340,
      "ఆంధ్ర": 2341,
      "ిస్తే": 2342,
      "దర్శన": 2343,
      "ెస్ట్": 2344,
      "కుల": 2345,
      "ర్చ": 2346,
      "సర": 2347,
      "న్యూ": 2348,
      "ఎంత": 2349,
      "##పొ": 2350,
      "నెలల": 2351,
      "ర్ర": 2352,
      "డైరె": 2353,
      "లైన్": 2354,
      "హాజర": 2355,
      "చేత": 2356,
      "కాగా": 2357,
      "ార్పు": 2358,
      "##బీ": 2359,
      "డాక్ట": 2360,
      "ివరాల": 2361,
      "డ్డ": 2362,
      "జనసే": 2363,
      "భాగ": 2364,
      "జనసేన": 2365,
      "బంధ": 2366,
      "##రేక": 2367,
      "సంఖ్య": 2368,
      "హిస్త": 2369,
      "మేరకు": 2370,
      "సాగ": 2371,
      "పార్ల": 2372,
      "ర్క": 2373,
      "అతని": 2374,
      "మార్చ": 2375,
      "ిన్న": 2376,
      "ాలుగు": 2377,
      "నిలిచ": 2378,
      "వేద": 2379,
      "ొంది": 2380,
      "ర్ణ": 2381,
      "తరల": 2382,
      "ఆది": 2383,
      "టికె": 2384,
      "మరింత": 2385,
      "్రక": 2386,
      "ామ్": 2387,
      "రెండో": 2388,
      "నల": 2389,
      "టంతో": 2390,
      "వాటి": 2391,
      "క్రిక": 2392,
      "నష్ట": 2393,
      "్డ": 2394,
      "##నుక": 2395,
      "న్ని": 2396,
      "సంగ": 2397,
      "ిక్క": 2398,
      "్టార్": 2399,
      "ిడ": 2400,
      "ార్జ": 2401,
      "ఉండే": 2402,
      "ంక": 2403,
      "వంత": 2404,
      "ోర": 2405,
      "ందర": 2406,
      "తిరేక": 2407,
      "అందు": 2408,
      "సోమ": 2409,
      "కూల": 2410,
      "రోపణ": 2411,
      "ఇంక": 2412,
      "హో": 2413,
      "్థుల": 2414,
      "ాధ": 2415,
      "వాతా": 2416,
      "పాలన": 2417,
      "వాతావ": 2418,
      "ిలో": 2419,
      "12": 2420,
      "సీట్ల": 2421,
      "ాత్రి": 2422,
      "యోగ": 2423,
      "ోత్స": 2424,
      "నంద": 2425,
      "ుమ": 2426,
      "ఏర్పడ": 2427,
      "##నల్": 2428,
      "ంటూ": 2429,
      "##్త": 2430,
      "##సుక": 2431,
      "##ంత్ర": 2432,
      "వార్": 2433,
      "హెచ్": 2434,
      "మళ్లీ": 2435,
      "కేటాయ": 2436,
      "ప్పుడ": 2437,
      "రువు": 2438,
      "మిషన్": 2439,
      "రోపణల": 2440,
      "ుష": 2441,
      "యాత్ర": 2442,
      "ేద": 2443,
      "ోలీ": 2444,
      "ోర్ట": 2445,
      "్స": 2446,
      "ీని": 2447,
      "ఎదు": 2448,
      "మర": 2449,
      "ఎల్": 2450,
      "్లి": 2451,
      "ినీ": 2452,
      "శాంత": 2453,
      "్షుడు": 2454,
      "ేవా": 2455,
      "ఏం": 2456,
      "యించ": 2457,
      "ఎఫ్": 2458,
      "ాట్": 2459,
      "30": 2460,
      "టై": 2461,
      "ాధ్యత": 2462,
      "నర్": 2463,
      "ిల": 2464,
      "ంతో": 2465,
      "ంలోకి": 2466,
      "ంట్": 2467,
      "ుజ": 2468,
      "బస్": 2469,
      "పాత్ర": 2470,
      "ఉంటే": 2471,
      "కష్ట": 2472,
      "అధ్యక": 2473,
      "దర": 2474,
      "సిబ్బ": 2475,
      "లేని": 2476,
      "ిరిగి": 2477,
      "్సర": 2478,
      "అనుక": 2479,
      "కౌంట": 2480,
      "వైరల్": 2481,
      "ైట్": 2482,
      "భార్య": 2483,
      "్రకటన": 2484,
      "ఆలయ": 2485,
      "ఐదు": 2486,
      "##టర్": 2487,
      "మూడ": 2488,
      "ిగా": 2489,
      "ట్వ": 2490,
      "ంత్ర": 2491,
      "్థిత": 2492,
      "బీసీ": 2493,
      "ార్త": 2494,
      "వర్ష": 2495,
      "ార్కె": 2496,
      "కర్త": 2497,
      "ద్దతు": 2498,
      "ీన్": 2499,
      "కమి": 2500,
      "యాద": 2501,
      "##ద్దర": 2502,
      "పన": 2503,
      "పండ": 2504,
      "ఇక్కడ": 2505,
      "ెక్టు": 2506,
      "##ణాట": 2507,
      "ద్ధ": 2508,
      "కట్ట": 2509,
      "గణ": 2510,
      "ిట్ట": 2511,
      "అత్య": 2512,
      "డిస": 2513,
      "ామన్న": 2514,
      "తను": 2515,
      "్యు": 2516,
      "సౌ": 2517,
      "సాయ": 2518,
      "డమ": 2519,
      "విజయం": 2520,
      "ఉంచ": 2521,
      "ోడీ": 2522,
      "్ణాట": 2523,
      "్ణాటక": 2524,
      "కీయ": 2525,
      "సీపీ": 2526,
      "దని": 2527,
      "##జన": 2528,
      "ంట్లో": 2529,
      "ఆలో": 2530,
      "ఆలోచ": 2531,
      "ంద్ర": 2532,
      "##నుగ": 2533,
      "వేయ": 2534,
      "నియోగ": 2535,
      "్రయా": 2536,
      "్రయాణ": 2537,
      "్ని": 2538,
      "ఏపీలో": 2539,
      "ిద": 2540,
      "ువుల": 2541,
      "శుక": 2542,
      "శుక్ర": 2543,
      "ిశ": 2544,
      "క్కడి": 2545,
      "వస్థ": 2546,
      "ాటు": 2547,
      "##య్": 2548,
      "మార్గ": 2549,
      "బుల్": 2550,
      "పూజ": 2551,
      "ాడని": 2552,
      "మంగళ": 2553,
      "ర్న": 2554,
      "ట్టి": 2555,
      "కమిటీ": 2556,
      "విన": 2557,
      "జ్ఞ": 2558,
      "పాట": 2559,
      "్రం": 2560,
      "##ీల": 2561,
      "న్నీ": 2562,
      "ఎక్కడ": 2563,
      "ోలు": 2564,
      "సహాయ": 2565,
      "యువ": 2566,
      "పను": 2567,
      "ైగా": 2568,
      "ిందిత": 2569,
      "ెళ్లి": 2570,
      "ోలీస్": 2571,
      "ీనియ": 2572,
      "మొదల": 2573,
      "దె": 2574,
      "దక్క": 2575,
      "నుమ": 2576,
      "ఎక్స్": 2577,
      "ీమ్": 2578,
      "కిలో": 2579,
      "విశ్వ": 2580,
      "భిమాన": 2581,
      "కీయాల": 2582,
      "ప్లా": 2583,
      "తనకు": 2584,
      "క్షి": 2585,
      "సీబీ": 2586,
      "చట్ట": 2587,
      "##یں": 2588,
      "నాగ": 2589,
      "11": 2590,
      "్రమ": 2591,
      "దర్శక": 2592,
      "ోడ్డు": 2593,
      "భూమి": 2594,
      "మహిళల": 2595,
      "రిష్": 2596,
      "బ్యాట": 2597,
      "ద్దరు": 2598,
      "్రూ": 2599,
      "్పు": 2600,
      "ులో": 2601,
      "ుల్": 2602,
      "హెచ్చ": 2603,
      "నడ": 2604,
      "చోటు": 2605,
      "ఆత్మ": 2606,
      "సార్ల": 2607,
      "##ేమ": 2608,
      "ాలంటే": 2609,
      "పనులు": 2610,
      "ుల్లో": 2611,
      "##డుల": 2612,
      "రాజు": 2613,
      "ఇంకా": 2614,
      "పర్య": 2615,
      "ర్త": 2616,
      "బెంగళ": 2617,
      "##విస": 2618,
      "ైర్": 2619,
      "త్య": 2620,
      "ుక్క": 2621,
      "ర్స్": 2622,
      "కూట": 2623,
      "ారన్న": 2624,
      "ాయ్": 2625,
      "##కిస": 2626,
      "పాకిస": 2627,
      "రహ": 2628,
      "సంత": 2629,
      "ీలో": 2630,
      "కేవల": 2631,
      "కేవలం": 2632,
      "విస్త": 2633,
      "కలిగ": 2634,
      "వేగ": 2635,
      "పరిధి": 2636,
      "చు": 2637,
      "ేమ": 2638,
      "నవ": 2639,
      "రగ": 2640,
      "శుభ": 2641,
      "త్వం": 2642,
      "భావిస": 2643,
      "ీనియర": 2644,
      "ఆరు": 2645,
      "ోక": 2646,
      "తిర": 2647,
      "##స్య": 2648,
      "సమస్య": 2649,
      "వీర": 2650,
      "కూటమి": 2651,
      "వో": 2652,
      "ర్లు": 2653,
      "రవ": 2654,
      "నాథ": 2655,
      "బౌ": 2656,
      "నాడు": 2657,
      "ుకుంట": 2658,
      "ైజ": 2659,
      "దూరం": 2660,
      "వృ": 2661,
      "ైల్వే": 2662,
      "వేశ": 2663,
      "ేధ": 2664,
      "ఆదివ": 2665,
      "వచ్చి": 2666,
      "బాధిత": 2667,
      "కన": 2668,
      "న్ను": 2669,
      "ేజీ": 2670,
      "హింద": 2671,
      "ప్లే": 2672,
      "ోందని": 2673,
      "ర్వ": 2674,
      "తమి": 2675,
      "ార్ట": 2676,
      "రిప": 2677,
      "ారిని": 2678,
      "ీనా": 2679,
      "ేజ్": 2680,
      "సరి": 2681,
      "రోడ్": 2682,
      "ిబ": 2683,
      "ెయిల్": 2684,
      "ిలి": 2685,
      "నిమి": 2686,
      "మృతి": 2687,
      "కం": 2688,
      "ాళ": 2689,
      "ఖర్చ": 2690,
      "##టర్ల": 2691,
      "సిద్ద": 2692,
      "సుప్ర": 2693,
      "గూ": 2694,
      "ానీ": 2695,
      "ిటీ": 2696,
      "సన్": 2697,
      "్రవేశ": 2698,
      "ాయిలో": 2699,
      "పోరా": 2700,
      "##మల": 2701,
      "ధరల": 2702,
      "మోహ": 2703,
      "మహా": 2704,
      "అంశ": 2705,
      "సూర్య": 2706,
      "##యారు": 2707,
      "దుర్క": 2708,
      "ేక్ష": 2709,
      "ఫీ": 2710,
      "ఫ్యా": 2711,
      "నిధ": 2712,
      "బస్సు": 2713,
      "ేది": 2714,
      "రిస్త": 2715,
      "జీవ": 2716,
      "రమ": 2717,
      "తమిళ": 2718,
      "చ్": 2719,
      "14": 2720,
      "నటి": 2721,
      "విధాన": 2722,
      "ారాయ": 2723,
      "కొనుగ": 2724,
      "భిప్ర": 2725,
      "ఎంతో": 2726,
      "ధాన్": 2727,
      "నని": 2728,
      "ధాన్య": 2729,
      "చ్చు": 2730,
      "హర": 2731,
      "తాము": 2732,
      "ైల": 2733,
      "వరద": 2734,
      "్థాయి": 2735,
      "##ికి": 2736,
      "సొంత": 2737,
      "జూన్": 2738,
      "మీరు": 2739,
      "కాద": 2740,
      "దేశాల": 2741,
      "నై": 2742,
      "తిని": 2743,
      "ిరుమల": 2744,
      "ారాయణ": 2745,
      "బాగా": 2746,
      "##ఖల": 2747,
      "బహ": 2748,
      "చివరి": 2749,
      "ిలీజ్": 2750,
      "విధ": 2751,
      "##లువ": 2752,
      "టా": 2753,
      "దొ": 2754,
      "యర్": 2755,
      "50": 2756,
      "్న": 2757,
      "బట్టి": 2758,
      "తొల": 2759,
      "ొని": 2760,
      "##ర్వ": 2761,
      "అంతే": 2762,
      "ాలే": 2763,
      "మరియ": 2764,
      "అర్": 2765,
      "ఓట్ల": 2766,
      "##విధ": 2767,
      "లపై": 2768,
      "గ్యా": 2769,
      "వచ్చు": 2770,
      "ోదా": 2771,
      "##ినే": 2772,
      "్తాన్": 2773,
      "నాటి": 2774,
      "పక్క": 2775,
      "ాటులో": 2776,
      "అందుబ": 2777,
      "ఓడ": 2778,
      "్రచార": 2779,
      "کی": 2780,
      "ఒకర": 2781,
      "ప్రేమ": 2782,
      "వివిధ": 2783,
      "సంజ": 2784,
      "వెళ్త": 2785,
      "ోన్": 2786,
      "పథ": 2787,
      "మవ": 2788,
      "గుండ": 2789,
      "ಲ್": 2790,
      "##కూల": 2791,
      "ొక్క": 2792,
      "ుతూ": 2793,
      "దిల": 2794,
      "బుధ": 2795,
      "రిట": 2796,
      "్యలు": 2797,
      "కోల": 2798,
      "ైవే": 2799,
      "డియ": 2800,
      "మరియు": 2801,
      "అక్ర": 2802,
      "ార్చ": 2803,
      "విర": 2804,
      "ర్ధ": 2805,
      "వరకూ": 2806,
      "నీటి": 2807,
      "భావం": 2808,
      "యన": 2809,
      "చర్య": 2810,
      "ుచ": 2811,
      "టో": 2812,
      "భద్రత": 2813,
      "##వార": 2814,
      "ఖా": 2815,
      "ఆశ": 2816,
      "సీసీ": 2817,
      "ేనే": 2818,
      "సర్వే": 2819,
      "ర్కార": 2820,
      "ఆహార": 2821,
      "ెర": 2822,
      "మవుత": 2823,
      "ొప్ప": 2824,
      "ంభ": 2825,
      "వేదిక": 2826,
      "నింగ్": 2827,
      "ఖర్చు": 2828,
      "లం": 2829,
      "##ూర": 2830,
      "ంట్ర": 2831,
      "పాద": 2832,
      "ుకుని": 2833,
      "గమ": 2834,
      "్రము": 2835,
      "చైర్మ": 2836,
      "్రముఖ": 2837,
      "కప్": 2838,
      "##జా": 2839,
      "దండ": 2840,
      "సోమవ": 2841,
      "అక్రమ": 2842,
      "ీబ": 2843,
      "రద్": 2844,
      "కర్తల": 2845,
      "భవ": 2846,
      "అయ": 2847,
      "ీచ": 2848,
      "బౌల": 2849,
      "ఫ్ల": 2850,
      "నిధుల": 2851,
      "శిక్ష": 2852,
      "జైలు": 2853,
      "రైతు": 2854,
      "క్షిణ": 2855,
      "ోహ": 2856,
      "హామ": 2857,
      "ేళ్ల": 2858,
      "అనేది": 2859,
      "రిష్క": 2860,
      "హామీ": 2861,
      "25": 2862,
      "24": 2863,
      "్తు": 2864,
      "తొలగ": 2865,
      "నుగ": 2866,
      "ుండగా": 2867,
      "ఫ్ర": 2868,
      "విమాన": 2869,
      "సెప్ట": 2870,
      "ిధంగా": 2871,
      "ర్గాల": 2872,
      "ెన్స్": 2873,
      "తినిధ": 2874,
      "త్తి": 2875,
      "్యాండ": 2876,
      "లోక": 2877,
      "ధినే": 2878,
      "న్య": 2879,
      "క్రియ": 2880,
      "వీరి": 2881,
      "బిజ": 2882,
      "ధినేత": 2883,
      "న్ల": 2884,
      "ాటిని": 2885,
      "పురం": 2886,
      "ాధారణ": 2887,
      "వయ": 2888,
      "ింట": 2889,
      "ఫ్ట": 2890,
      "లువు": 2891,
      "అతి": 2892,
      "ప్రభా": 2893,
      "అండ్": 2894,
      "స్ట్": 2895,
      "మల్ల": 2896,
      "డమే": 2897,
      "ొడ": 2898,
      "నివే": 2899,
      "ముంబ": 2900,
      "ిష్ట": 2901,
      "ిష్": 2902,
      "ీక": 2903,
      "రకాల": 2904,
      "ంగ్": 2905,
      "ెక్": 2906,
      "సూప": 2907,
      "సాయంత": 2908,
      "నివేద": 2909,
      "నుకూల": 2910,
      "ిద్యా": 2911,
      "ఎల": 2912,
      "వేళ": 2913,
      "ూల": 2914,
      "ెగ": 2915,
      "ిజర్వ": 2916,
      "ఇజ": 2917,
      "్స్": 2918,
      "ఇజ్ర": 2919,
      "ండిపడ": 2920,
      "సంక్ష": 2921,
      "సభ్య": 2922,
      "డే": 2923,
      "న్స": 2924,
      "ియల్": 2925,
      "ీస్": 2926,
      "సామ": 2927,
      "ిమా": 2928,
      "బయటకు": 2929,
      "విచార": 2930,
      "ఎన్న": 2931,
      "ిస": 2932,
      "ిల్లు": 2933,
      "ఎయి": 2934,
      "లర్": 2935,
      "ేస్త": 2936,
      "్వామి": 2937,
      "ఏక": 2938,
      "ీమ": 2939,
      "ంగారం": 2940,
      "క్టో": 2941,
      "ర్జు": 2942,
      "ర్జున": 2943,
      "వల": 2944,
      "ాండ": 2945,
      "ీర": 2946,
      "ీల్": 2947,
      "ీవు": 2948,
      "పథక": 2949,
      "గడ": 2950,
      "పోయ": 2951,
      "కంప": 2952,
      "తండ": 2953,
      "టే": 2954,
      "ాయె": 2955,
      "వీటి": 2956,
      "యువత": 2957,
      "లుసుక": 2958,
      "ిస్": 2959,
      "నియమ": 2960,
      "##ాలి": 2961,
      "దర్య": 2962,
      "య్యే": 2963,
      "విక్ర": 2964,
      "ొచ్చు": 2965,
      "నమోద": 2966,
      "మంగళవ": 2967,
      "ఉంద": 2968,
      "నక": 2969,
      "శనివ": 2970,
      "త్వర": 2971,
      "స్తుల": 2972,
      "సిటీ": 2973,
      "టీసీ": 2974,
      "ూత": 2975,
      "వాహ": 2976,
      "మృత": 2977,
      "ేరుతో": 2978,
      "ీవుడ్": 2979,
      "వ్": 2980,
      "కృత": 2981,
      "కవిత": 2982,
      "ిజన్": 2983,
      "ఓవర్": 2984,
      "ులతో": 2985,
      "ర్మిక": 2986,
      "ాప్తు": 2987,
      "నేడు": 2988,
      "లీడ": 2989,
      "వుల": 2990,
      "క్కడ": 2991,
      "గురువ": 2992,
      "తేదీన": 2993,
      "##ెంట": 2994,
      "ఒకే": 2995,
      "దెబ్బ": 2996,
      "వాల్": 2997,
      "గెలిచ": 2998,
      "ాలనే": 2999,
      "పాత": 3000,
      "దాడుల": 3001,
      "ఫె": 3002,
      "క్టోబ": 3003,
      "ేసులు": 3004,
      "ప్రియ": 3005,
      "మారు": 3006,
      "టెక్": 3007,
      "నాలు": 3008,
      "శరీ": 3009,
      "శరీర": 3010,
      "ంధ": 3011,
      "నం": 3012,
      "ిచ్చ": 3013,
      "సిం": 3014,
      "మణ": 3015,
      "ోత్సవ": 3016,
      "రద్దు": 3017,
      "్ట్ర": 3018,
      "చీఫ్": 3019,
      "ార్చి": 3020,
      "ఏద": 3021,
      "విలువ": 3022,
      "ారిటీ": 3023,
      "మోహన్": 3024,
      "సింగ": 3025,
      "ంక్ష": 3026,
      "రియా": 3027,
      "గెల": 3028,
      "నిపోయ": 3029,
      "దశ": 3030,
      "లస": 3031,
      "ెల్సీ": 3032,
      "స్వీ": 3033,
      "ిగత": 3034,
      "ఇంత": 3035,
      "ఓటు": 3036,
      "జర్": 3037,
      "దళ": 3038,
      "ేల": 3039,
      "ాల్ప": 3040,
      "వస్తే": 3041,
      "రిత్ర": 3042,
      "ఎకర": 3043,
      "మనం": 3044,
      "ిటల్": 3045,
      "సంజయ్": 3046,
      "ేక్": 3047,
      "ఇంటర్": 3048,
      "ాయెల్": 3049,
      "అడి": 3050,
      "బల": 3051,
      "ిండ": 3052,
      "రాయ": 3053,
      "ికు": 3054,
      "ాత్మ": 3055,
      "ీష్": 3056,
      "యిన్": 3057,
      "నరే": 3058,
      "అభి": 3059,
      "పనుల": 3060,
      "ుబడ": 3061,
      "18": 3062,
      "నియా": 3063,
      "ప్షన్": 3064,
      "ఎత్త": 3065,
      "స్మ": 3066,
      "బ్ద": 3067,
      "ందరూ": 3068,
      "ుద": 3069,
      "భూమ": 3070,
      "మండలం": 3071,
      "ెక్క": 3072,
      "భర్త": 3073,
      "ిప్": 3074,
      "ప్రొ": 3075,
      "ూర": 3076,
      "##సారి": 3077,
      "ాస": 3078,
      "ాల్పడ": 3079,
      "##ర్ప": 3080,
      "ర్మి": 3081,
      "సహా": 3082,
      "ిక్స్": 3083,
      "పుట్ట": 3084,
      "్రుల": 3085,
      "రామ్": 3086,
      "వరు": 3087,
      "్గు": 3088,
      "##టిష": 3089,
      "తది": 3090,
      "టింగ్": 3091,
      "రైలు": 3092,
      "్యాన": 3093,
      "విశా": 3094,
      "్యూటీ": 3095,
      "గడ్డ": 3096,
      "ీక్ష": 3097,
      "ెన్స": 3098,
      "వన్": 3099,
      "నీరు": 3100,
      "విశాఖ": 3101,
      "అంబ": 3102,
      "కిత్స": 3103,
      "ుత్": 3104,
      "డ్రై": 3105,
      "ించడ": 3106,
      "కూడద": 3107,
      "ప్పు": 3108,
      "్థాన్": 3109,
      "నామ": 3110,
      "ురాల": 3111,
      "్యామ": 3112,
      "వివాద": 3113,
      "సంతో": 3114,
      "కోల్ప": 3115,
      "అందుక": 3116,
      "రాస": 3117,
      "##ర్ట": 3118,
      "ిర్": 3119,
      "ొంట": 3120,
      "నెలక": 3121,
      "పదవి": 3122,
      "త్యంత": 3123,
      "తండ్ర": 3124,
      "ోస్టు": 3125,
      "విదేశ": 3126,
      "##త్తి": 3127,
      "అంతర్": 3128,
      "ీయ": 3129,
      "ోన్న": 3130,
      "తదితర": 3131,
      "ిడ్": 3132,
      "ాపూ": 3133,
      "ఆక": 3134,
      "అయినా": 3135,
      "జరిగే": 3136,
      "సంతోష": 3137,
      "ఏమ": 3138,
      "దారి": 3139,
      "ాడారు": 3140,
      "ుష్": 3141,
      "డర్": 3142,
      "ల్లు": 3143,
      "ేంద": 3144,
      "ోప": 3145,
      "నుంచ": 3146,
      "షాక": 3147,
      "మహిళా": 3148,
      "ీలి": 3149,
      "రేట్": 3150,
      "ంకు": 3151,
      "##రించ": 3152,
      "చైనా": 3153,
      "ంత్రు": 3154,
      "చుట్ట": 3155,
      "లెక్క": 3156,
      "యుద్ధ": 3157,
      "లభ": 3158,
      "న్నత": 3159,
      "13": 3160,
      "ఆసు": 3161,
      "సార": 3162,
      "##జె": 3163,
      "ఎస్సీ": 3164,
      "స్వీక": 3165,
      "ీకర": 3166,
      "్థల": 3167,
      "ింపుల": 3168,
      "వయస": 3169,
      "ివరకు": 3170,
      "ీబీసీ": 3171,
      "నీళ్ల": 3172,
      "ఫర్": 3173,
      "నిరసన": 3174,
      "గవర్": 3175,
      "గవర్న": 3176,
      "..": 3177,
      "సహక": 3178,
      "ైన్": 3179,
      "బుధవ": 3180,
      "ెస్ట": 3181,
      "సూపర్": 3182,
      "కన్న": 3183,
      "క్యూ": 3184,
      "వినిప": 3185,
      "ఆసుపత": 3186,
      "శక్తి": 3187,
      "ోరు": 3188,
      "మారుత": 3189,
      "నలు": 3190,
      "కాపా": 3191,
      "17": 3192,
      "ాయాల": 3193,
      "దర్శి": 3194,
      "ేషనల్": 3195,
      "నమ్మ": 3196,
      "ఎంప": 3197,
      "ుద్ధ": 3198,
      "ధర్మ": 3199,
      "ారతీయ": 3200,
      "వేడుక": 3201,
      "యోజన": 3202,
      "ైవేట": 3203,
      "మున్స": 3204,
      "ోమ": 3205,
      "ల్లి": 3206,
      "16": 3207,
      "్సరాల": 3208,
      "అధిక": 3209,
      "భూముల": 3210,
      "ీలించ": 3211,
      "రాజ్య": 3212,
      "రేషన్": 3213,
      "పూర": 3214,
      "్లాన్": 3215,
      "రంగల్": 3216,
      "ెంటర్": 3217,
      "ధన": 3218,
      "ాస్ట": 3219,
      "తీరు": 3220,
      "ర్యటన": 3221,
      "ారో": 3222,
      "సీఐ": 3223,
      "ಲ್ಲ": 3224,
      "ంస": 3225,
      "్రాల": 3226,
      "కాపాడ": 3227,
      "ోడ": 3228,
      "తమకు": 3229,
      "జాగ్ర": 3230,
      "నాకు": 3231,
      "జ్జ": 3232,
      "ాసన": 3233,
      "ేస్": 3234,
      "కూర": 3235,
      "స్టర్": 3236,
      "کے": 3237,
      "ఎయిర్": 3238,
      "నరేంద": 3239,
      "ాపూర్": 3240,
      "ఈసారి": 3241,
      "ొత్తు": 3242,
      "ఏప్ర": 3243,
      "ఏప్రి": 3244,
      "్నా": 3245,
      "ాఫ": 3246,
      "ీం": 3247,
      "ాలలో": 3248,
      "వరుస": 3249,
      "ట్రై": 3250,
      "ఎదురు": 3251,
      "ర్మిల": 3252,
      "22": 3253,
      "మన్": 3254,
      "సంచ": 3255,
      "కపోతే": 3256,
      "ాంబ": 3257,
      "ఆన్": 3258,
      "తిన": 3259,
      "్వత": 3260,
      "పేద": 3261,
      "రల్డ్": 3262,
      "ోగ": 3263,
      "త్స": 3264,
      "కామె": 3265,
      "ంప్ర": 3266,
      "దేళ్ల": 3267,
      "లువుర": 3268,
      "ంచ్": 3269,
      "న్మ": 3270,
      "లాభ": 3271,
      "సుర": 3272,
      "పిటిష": 3273,
      "ిరీ": 3274,
      "ూట": 3275,
      "ఆద": 3276,
      "అసలు": 3277,
      "ెట్ట": 3278,
      "వాస": 3279,
      "ేవారు": 3280,
      "ీంక": 3281,
      "సాయి": 3282,
      "దాఖల": 3283,
      "పరిచ": 3284,
      "ఎస్పీ": 3285,
      "ఆస": 3286,
      "యాణ": 3287,
      "అమర": 3288,
      "ోవడ": 3289,
      "ురా": 3290,
      "ేటి": 3291,
      "ముఖ": 3292,
      "లేకప": 3293,
      "మిక": 3294,
      "ేందర్": 3295,
      "మెడ": 3296,
      "ూడ": 3297,
      "రాం": 3298,
      "ాలంలో": 3299,
      "లీడర్": 3300,
      "ీశ్": 3301,
      "ైక్": 3302,
      "మద్య": 3303,
      "##ఖా": 3304,
      "్రే": 3305,
      "బడ్": 3306,
      "విక": 3307,
      "్యాల": 3308,
      "రణ్": 3309,
      "ిరీస్": 3310,
      "పది": 3311,
      "ాఠ": 3312,
      "##ఖాస": 3313,
      "అమి": 3314,
      "ఎంపిక": 3315,
      "ంప్": 3316,
      "ాయింట": 3317,
      "కొండ": 3318,
      "ేర": 3319,
      "లహ": 3320,
      "ితో": 3321,
      "ీటిని": 3322,
      "మెరుగ": 3323,
      "సేకర": 3324,
      "దరఖాస": 3325,
      "నాథ్": 3326,
      "ఈరో": 3327,
      "బ్ల": 3328,
      "హిత": 3329,
      "ౌన్": 3330,
      "గౌడ": 3331,
      "బడ్జె": 3332,
      "ఐటీ": 3333,
      "వేగం": 3334,
      "దిన": 3335,
      "మయ్య": 3336,
      "ూనే": 3337,
      "ియేట": 3338,
      "మొదలు": 3339,
      "ిణ": 3340,
      "ారీ": 3341,
      "ాహ్": 3342,
      "రక్షణ": 3343,
      "##పం": 3344,
      "నిరు": 3345,
      "ఖమ్మ": 3346,
      "ుణ": 3347,
      "ఖమ్మం": 3348,
      "##ూల్": 3349,
      "ంగార": 3350,
      "్కూల్": 3351,
      "గ్జ": 3352,
      "ేర్ల": 3353,
      "ంచుక": 3354,
      "గౌర": 3355,
      "క్వ": 3356,
      "మైంది": 3357,
      "చ్చని": 3358,
      "కెప్ట": 3359,
      "శ్రయ": 3360,
      "నటించ": 3361,
      "ఈరోజు": 3362,
      "జాత": 3363,
      "్కర్": 3364,
      "పట్టణ": 3365,
      "ల్ప": 3366,
      "స్య": 3367,
      "ియో": 3368,
      "ుక్": 3369,
      "ఉపా": 3370,
      "ిత్త": 3371,
      "నిత": 3372,
      "ార్ట్": 3373,
      "్రూప్": 3374,
      "కాదని": 3375,
      "ఇంగ": 3376,
      "ీరి": 3377,
      "ేట్": 3378,
      "ీరియ": 3379,
      "ఎవ": 3380,
      "ీన": 3381,
      "ారుల": 3382,
      "ాక్స": 3383,
      "میں": 3384,
      "ఇవా": 3385,
      "ార్మ": 3386,
      "ందులు": 3387,
      "వరి": 3388,
      "శంక": 3389,
      "బ్బ": 3390,
      "ఉపాధ": 3391,
      "శ్చ": 3392,
      "వినీ": 3393,
      "ఇళ్ల": 3394,
      "కథ": 3395,
      "ఒకటి": 3396,
      "ంశ": 3397,
      "ఉమ్మ": 3398,
      "తయారు": 3399,
      "్యూస్": 3400,
      "ఎకరాల": 3401,
      "ంప్రద": 3402,
      "ఈడీ": 3403,
      "రెంట": 3404,
      "ఒప్ప": 3405,
      "ాబ్": 3406,
      "ిఫిక": 3407,
      "జ్య": 3408,
      "షె": 3409,
      "ుద్ద": 3410,
      "ౌన్స": 3411,
      "బర్": 3412,
      "విడ": 3413,
      "గాయ": 3414,
      "ాబి": 3415,
      "సేవల": 3416,
      "చా": 3417,
      "##షన": 3418,
      "##ీసు": 3419,
      "దేహ": 3420,
      "ిగ్ర": 3421,
      "లగ": 3422,
      "సియ": 3423,
      "నర": 3424,
      "ారణ": 3425,
      "మూడో": 3426,
      "వివే": 3427,
      "ల్స్": 3428,
      "వివేక": 3429,
      "లుపు": 3430,
      "వినీత": 3431,
      "మల": 3432,
      "##ీట": 3433,
      "నుమాన": 3434,
      "సైతం": 3435,
      "ీవ": 3436,
      "గుంట": 3437,
      "సమీ": 3438,
      "ల్లం": 3439,
      "్పె": 3440,
      "ఆలోచన": 3441,
      "ందర్": 3442,
      "ీచర్": 3443,
      "ఇవాళ": 3444,
      "బృ": 3445,
      "లిప": 3446,
      "ఎంద": 3447,
      "పతి": 3448,
      "గమన": 3449,
      "ముంబై": 3450,
      "ారనే": 3451,
      "మీటర్": 3452,
      "ర్జ": 3453,
      "ఉండగా": 3454,
      "వార్డ": 3455,
      "ఉమ్మడ": 3456,
      "నిపు": 3457,
      "లియ": 3458,
      "హెల": 3459,
      "ాన్స్": 3460,
      "నిపుణ": 3461,
      "గస్టు": 3462,
      "ఫైన": 3463,
      "వంబర్": 3464,
      "ీనామా": 3465,
      "ఉన్నా": 3466,
      "ఆయనకు": 3467,
      "అల": 3468,
      "డుత": 3469,
      "క్ట్": 3470,
      "ఇంగ్ల": 3471,
      "ేలి": 3472,
      "ూపొ": 3473,
      "ాత్మక": 3474,
      "ూపొంద": 3475,
      "అదు": 3476,
      "చదు": 3477,
      "జరి": 3478,
      "వాల": 3479,
      "ాకా": 3480,
      "ేషన్ల": 3481,
      "వర్షం": 3482,
      "అదుపు": 3483,
      "జరిప": 3484,
      "సాయం": 3485,
      "ల్డ్": 3486,
      "ప్త": 3487,
      "ట్వీట": 3488,
      "సబ్": 3489,
      "ఇండ": 3490,
      "పట్ల": 3491,
      "ీన్ని": 3492,
      "య్": 3493,
      "##లన": 3494,
      "కనీస": 3495,
      "ుచుక": 3496,
      "్ధ": 3497,
      "సభలో": 3498,
      "##లుప": 3499,
      "గెలుప": 3500,
      "ిషన్": 3501,
      "పెడుత": 3502,
      "్వర": 3503,
      "తాగ": 3504,
      "జనవరి": 3505,
      "అప": 3506,
      "ఘన": 3507,
      "ొండ": 3508,
      "డ్రైవ": 3509,
      "ాబితా": 3510,
      "నల్": 3511,
      "ఫర": 3512,
      "ుమా": 3513,
      "్యంగా": 3514,
      "బెట్ట": 3515,
      "తయ": 3516,
      "ొంగ": 3517,
      "సక్తి": 3518,
      "నుభ": 3519,
      "సమీపం": 3520,
      "టాల": 3521,
      "ితంగా": 3522,
      "నీయ": 3523,
      "సామా": 3524,
      "తయార": 3525,
      "ానం": 3526,
      "ంబర్": 3527,
      "ార్పొ": 3528,
      "ఆవ": 3529,
      "వెనుక": 3530,
      "ద్దు": 3531,
      "ాలేజీ": 3532,
      "ఐపీ": 3533,
      "ింటి": 3534,
      "దాన": 3535,
      "ఆస్": 3536,
      "ఉచ": 3537,
      "ధీ": 3538,
      "సమా": 3539,
      "యాణిక": 3540,
      "ిగ్రహ": 3541,
      "ఉచిత": 3542,
      "హిళ": 3543,
      "ఎందుక": 3544,
      "అడు": 3545,
      "ీత": 3546,
      "ోట": 3547,
      "##వంట": 3548,
      "టువంట": 3549,
      "ెన్సీ": 3550,
      "ఉద్య": 3551,
      "నస": 3552,
      "ౌండ్": 3553,
      "ంటి": 3554,
      "ఇద్దర": 3555,
      "ిమి": 3556,
      "సామాజ": 3557,
      "ాలపై": 3558,
      "ఆస్పత": 3559,
      "ీట్": 3560,
      "ನ್": 3561,
      "ఉత": 3562,
      "మంత్ర": 3563,
      "ీడ": 3564,
      "19": 3565,
      "ఉత్ప": 3566,
      "ఎన్ట": 3567,
      "ార్తల": 3568,
      "##టం": 3569,
      "పూర్త": 3570,
      "##నాల": 3571,
      "40": 3572,
      "ోయి": 3573,
      "రణించ": 3574,
      "ాంగ్": 3575,
      "నిమిష": 3576,
      "ేక్షక": 3577,
      "ిరుపత": 3578,
      "ఉద్యమ": 3579,
      "షే": 3580,
      "ెబ్": 3581,
      "గ్న": 3582,
      "ప్తి": 3583,
      "ాస్త": 3584,
      "ూహ": 3585,
      "ోహి": 3586,
      "దిర": 3587,
      "గర్": 3588,
      "్చి": 3589,
      "ోన": 3590,
      "మంజ": 3591,
      "రస": 3592,
      "ెడ": 3593,
      "బీఆర్": 3594,
      "భవన": 3595,
      "వది": 3596,
      "కోట": 3597,
      "ైమ్": 3598,
      "్బ": 3599,
      "ుడిగా": 3600,
      "వసాయ": 3601,
      "యువక": 3602,
      "ఫ్ట్": 3603,
      "ూర్త": 3604,
      "ెట": 3605,
      "లేఖ": 3606,
      "ఖాన్": 3607,
      "ళి": 3608,
      "ీతా": 3609,
      "ుమ్మ": 3610,
      "ైళ్ల": 3611,
      "ముర": 3612,
      "అవసరమ": 3613,
      "యూనివ": 3614,
      "నిట": 3615,
      "వెస్ట": 3616,
      "అయింద": 3617,
      "్రమాణ": 3618,
      "ఠా": 3619,
      "క్కడే": 3620,
      "బండి": 3621,
      "ేత": 3622,
      "న్డ": 3623,
      "లంక": 3624,
      "సృష్ట": 3625,
      "ముగి": 3626,
      "ేసుక": 3627,
      "ముగిస": 3628,
      "ఖీ": 3629,
      "రం": 3630,
      "##ha": 3631,
      "ాటక": 3632,
      "సుల": 3633,
      "ాక్ష": 3634,
      "ేగ": 3635,
      "ష్ణ": 3636,
      "వివాహ": 3637,
      "ిత్": 3638,
      "ఎన్నో": 3639,
      "వికె": 3640,
      "ేని": 3641,
      "వేత్త": 3642,
      "అంశాల": 3643,
      "ర్వీస": 3644,
      "్గురు": 3645,
      "ఈవ": 3646,
      "ేసి": 3647,
      "మరిక": 3648,
      "నాలుగ": 3649,
      "ాహ్నం": 3650,
      "సీజ": 3651,
      "క్రిత": 3652,
      "్యాయం": 3653,
      "చోట్ల": 3654,
      "గౌరవ": 3655,
      "ప్పుల": 3656,
      "ద్దేశ": 3657,
      "కస్ట": 3658,
      "ముందే": 3659,
      "ేలియా": 3660,
      "##భాగ": 3661,
      "యాదవ్": 3662,
      "ందిర": 3663,
      "గ్రహం": 3664,
      "వదిల": 3665,
      "దన": 3666,
      "ోటో": 3667,
      "తనను": 3668,
      "బొ": 3669,
      "మహారా": 3670,
      "ంతర": 3671,
      "సీబీఐ": 3672,
      "ఓటర్ల": 3673,
      "విభాగ": 3674,
      "తుర": 3675,
      "గుండె": 3676,
      "సంచలన": 3677,
      "ారంట": 3678,
      "స్టా": 3679,
      "డ్యూ": 3680,
      "ల్లా": 3681,
      "కారణమ": 3682,
      "పరే": 3683,
      "##రుప": 3684,
      "సమర్ప": 3685,
      "ఆధ్వర": 3686,
      "స్తు": 3687,
      "ందుల": 3688,
      "ఆన": 3689,
      "గ్ల": 3690,
      "ాండ్": 3691,
      "కారు": 3692,
      "ైడ్": 3693,
      "గురి": 3694,
      "ెడ్డి": 3695,
      "నర్స": 3696,
      "చర": 3697,
      "ిప్ప": 3698,
      "ేణ": 3699,
      "ాలనుక": 3700,
      "ారాల": 3701,
      "దాట": 3702,
      "ోహిత్": 3703,
      "ాఫ్": 3704,
      "ీమా": 3705,
      "ಿದ": 3706,
      "మోస": 3707,
      "ిడెంట": 3708,
      "ఖాతా": 3709,
      "ఏంట": 3710,
      "హౌ": 3711,
      "ఇచ్చే": 3712,
      "తప్పు": 3713,
      "ఆనంద": 3714,
      "ుట": 3715,
      "ತ್": 3716,
      "ిపల్": 3717,
      "ఊర": 3718,
      "గద": 3719,
      "ముద్ర": 3720,
      "ద్భ": 3721,
      "సెంట": 3722,
      "మ్మక": 3723,
      "నాయుడ": 3724,
      "్చుక": 3725,
      "ఎవరు": 3726,
      "శే": 3727,
      "తెచ్చ": 3728,
      "సంప": 3729,
      "ర్థం": 3730,
      "మిషన": 3731,
      "డ్డుక": 3732,
      "ాఠశాల": 3733,
      "అమిత్": 3734,
      "మిషనర": 3735,
      "ైతే": 3736,
      "ొద్": 3737,
      "ారంభం": 3738,
      "ిణీ": 3739,
      "ారణాల": 3740,
      "హిళలు": 3741,
      "శ్వ": 3742,
      "ాకు": 3743,
      "##కాల": 3744,
      "##ఖర": 3745,
      "ొడవ": 3746,
      "ల్క": 3747,
      "మిగి": 3748,
      "ొద్ది": 3749,
      "మిగిల": 3750,
      "ాగా": 3751,
      "విభ": 3752,
      "సమాధ": 3753,
      "శాస్త": 3754,
      "సోద": 3755,
      "గొట్ట": 3756,
      "ాలంట": 3757,
      "వాహన": 3758,
      "ాఫీ": 3759,
      "లమ": 3760,
      "బృంద": 3761,
      "ుమారు": 3762,
      "నాల": 3763,
      "##یا": 3764,
      "ష్ట్ర": 3765,
      "దీప్": 3766,
      "ాహనాల": 3767,
      "వని": 3768,
      "్రో": 3769,
      "స్క": 3770,
      "్తా": 3771,
      "త్రి": 3772,
      "నోటీస": 3773,
      "వాయి": 3774,
      "పోత": 3775,
      "సంఘటన": 3776,
      "అగ్ర": 3777,
      "ిద్ర": 3778,
      "ట్రో": 3779,
      "పక్కన": 3780,
      "ఒత్తి": 3781,
      "ట్టుక": 3782,
      "21": 3783,
      "పల": 3784,
      "ువు": 3785,
      "ొద్ద": 3786,
      "్త్": 3787,
      "స్నే": 3788,
      "ోర్డు": 3789,
      "లభించ": 3790,
      "జు": 3791,
      "సాద్": 3792,
      "న్నై": 3793,
      "భాష": 3794,
      "సింహ": 3795,
      "ఏడు": 3796,
      "ంగ్ల": 3797,
      "రచ": 3798,
      "కోహ": 3799,
      "డిజ": 3800,
      "ఆమోద": 3801,
      "ధ్వ": 3802,
      "రికీ": 3803,
      "అర్హ": 3804,
      "సక": 3805,
      "స్థాన": 3806,
      "ావతి": 3807,
      "మాటల": 3808,
      "చంప": 3809,
      "రూప": 3810,
      "గూడ": 3811,
      "మద్యం": 3812,
      "దుల": 3813,
      "ొక": 3814,
      "కాన్": 3815,
      "ుడ్": 3816,
      "షాప": 3817,
      "యంత్ర": 3818,
      "న్షన్": 3819,
      "్రీన్": 3820,
      "వరూ": 3821,
      "నుక": 3822,
      "టిల్": 3823,
      "ిరంగ": 3824,
      "సీజన్": 3825,
      "శేఖర": 3826,
      "టర్": 3827,
      "పున": 3828,
      "జేస": 3829,
      "ఇంజ": 3830,
      "ెయ్య": 3831,
      "లబ": 3832,
      "ల్ట": 3833,
      "ర్సి": 3834,
      "ెన": 3835,
      "ుతాయి": 3836,
      "నిఫ": 3837,
      "్రహ": 3838,
      "సేవ": 3839,
      "ాయపడ": 3840,
      "ెగా": 3841,
      "ెల్ల": 3842,
      "గ్రే": 3843,
      "గిన": 3844,
      "ాశ": 3845,
      "ర్బ": 3846,
      "్యాంగ": 3847,
      "పడ్డ": 3848,
      "సిస్ట": 3849,
      "ైస్": 3850,
      "మణి": 3851,
      "రిణ": 3852,
      "ామీల": 3853,
      "మ్యా": 3854,
      "రుత": 3855,
      "మేక": 3856,
      "్యాధ": 3857,
      "ైర": 3858,
      "నిప": 3859,
      "్టేట్": 3860,
      "జరుప": 3861,
      "డ్జ": 3862,
      "్మీ": 3863,
      "ద్ర": 3864,
      "ాంప": 3865,
      "శాంతి": 3866,
      "ర్యా": 3867,
      "డుస్త": 3868,
      "ద్వ": 3869,
      "గ్రా": 3870,
      "re": 3871,
      "ౌర": 3872,
      "చేప": 3873,
      "లింగ": 3874,
      "అడిగ": 3875,
      "శంకర్": 3876,
      "ార్డు": 3877,
      "క్రీ": 3878,
      "క్కుల": 3879,
      "ళా": 3880,
      "ుకొ": 3881,
      "కడ": 3882,
      "ేల్": 3883,
      "వార్త": 3884,
      "ుట్ట": 3885,
      "పర్యట": 3886,
      "అప్": 3887,
      "ీలు": 3888,
      "పట": 3889,
      "ొడు": 3890,
      "ోచ": 3891,
      "కర్న": 3892,
      "లియన్": 3893,
      "స్తుత": 3894,
      "రింగ్": 3895,
      "ోర్స్": 3896,
      "టెడ్": 3897,
      "ోలీసు": 3898,
      "ొడుకు": 3899,
      "ునర": 3900,
      "హన": 3901,
      "మున": 3902,
      "ంతకు": 3903,
      "ిస్ట్": 3904,
      "మల్": 3905,
      "ించడం": 3906,
      "ఆగ": 3907,
      "టరీ": 3908,
      "రియ": 3909,
      "ధీన": 3910,
      "షేర్": 3911,
      "ష్యా": 3912,
      "ేటీ": 3913,
      "మేం": 3914,
      "ఎగ": 3915,
      "ీక్": 3916,
      "నిన్న": 3917,
      "నామిన": 3918,
      "ాణి": 3919,
      "న్నా": 3920,
      "ఫిక్": 3921,
      "ెయిన్": 3922,
      "రిలో": 3923,
      "ిపించ": 3924,
      "ాదించ": 3925,
      "నెట్": 3926,
      "మాజ": 3927,
      "సెల్": 3928,
      "రేట": 3929,
      "ాళీ": 3930,
      "రావడం": 3931,
      "ుంటూ": 3932,
      "శ్చి": 3933,
      "ప్యా": 3934,
      "విప": 3935,
      "ఖర": 3936,
      "ాదన": 3937,
      "ినె": 3938,
      "ల్లె": 3939,
      "ూలు": 3940,
      "వేసి": 3941,
      "నన్న": 3942,
      "ఖండ": 3943,
      "రైన": 3944,
      "కూర్చ": 3945,
      "రవి": 3946,
      "సాగు": 3947,
      "గుడ": 3948,
      "ہے": 3949,
      "ర్ప": 3950,
      "##మత": 3951,
      "##ణయ": 3952,
      "మ్ము": 3953,
      "ిర్ణయ": 3954,
      "##ور": 3955,
      "ంచర": 3956,
      "జో": 3957,
      "బై": 3958,
      "మౌ": 3959,
      "ిరం": 3960,
      "దేవి": 3961,
      "టమ": 3962,
      "దీప": 3963,
      "ాయం": 3964,
      "న్నిక": 3965,
      "ిపోవ": 3966,
      "కృష": 3967,
      "రీం": 3968,
      "వెన": 3969,
      "మొత్త": 3970,
      "్సరం": 3971,
      "ఫై": 3972,
      "యాక్ట": 3973,
      "రన్": 3974,
      "బ్రా": 3975,
      "ణకు": 3976,
      "పార": 3977,
      "ెంగ": 3978,
      "కేత": 3979,
      "డాక": 3980,
      "ణ్": 3981,
      "లిగ": 3982,
      "్వాన": 3983,
      "మత": 3984,
      "ెలి": 3985,
      "్తవ": 3986,
      "ంతు": 3987,
      "నిబంధ": 3988,
      "్యార": 3989,
      "దాన్న": 3990,
      "కులు": 3991,
      "షో": 3992,
      "ెర్": 3993,
      "నిచ్చ": 3994,
      "స్త్ర": 3995,
      "కప్ప": 3996,
      "కింగ్": 3997,
      "చూసి": 3998,
      "సున": 3999,
      "ఐపీఎ": 4000,
      "ంగ్లా": 4001,
      "నిక": 4002,
      "కేసుల": 4003,
      "పంట": 4004,
      "కలిస": 4005,
      "ోంద": 4006,
      "వ్వు": 4007,
      "##an": 4008,
      "ేమ్": 4009,
      "కోస": 4010,
      "ముస": 4011,
      "మిట": 4012,
      "తని": 4013,
      "మర్": 4014,
      "రాత్ర": 4015,
      "ీపీ": 4016,
      "్మి": 4017,
      "తోనే": 4018,
      "త్క": 4019,
      "ర్సిట": 4020,
      "రజ": 4021,
      "ంట్స్": 4022,
      "ింత": 4023,
      "డ్రా": 4024,
      "ాటా": 4025,
      "ుకొని": 4026,
      "ుట్": 4027,
      "డ్ల": 4028,
      "ీటు": 4029,
      "ఫైనల్": 4030,
      "ంగుల": 4031,
      "ుడిని": 4032,
      "థకాల": 4033,
      "ితి": 4034,
      "ుప్ప": 4035,
      "ాద్ర": 4036,
      "దుక": 4037,
      "ుస": 4038,
      "ొస": 4039,
      "ప్పగ": 4040,
      "ుకునే": 4041,
      "మరణ": 4042,
      "ాస్ప": 4043,
      "కాని": 4044,
      "పాన్": 4045,
      "డేట": 4046,
      "పం": 4047,
      "శ్": 4048,
      "ియన్": 4049,
      "ిద్దర": 4050,
      "లిక్": 4051,
      "లుక": 4052,
      "హబ": 4053,
      "దిశ": 4054,
      "ట్లో": 4055,
      "సెట": 4056,
      "క్కో": 4057,
      "లుప": 4058,
      "ిపి": 4059,
      "ామా": 4060,
      "్లాక": 4061,
      "యన్": 4062,
      "28": 4063,
      "్రవర": 4064,
      "ర్చల": 4065,
      "హరి": 4066,
      "లాగ": 4067,
      "త్తున": 4068,
      "ిజి": 4069,
      "నట": 4070,
      "మొదట": 4071,
      "్ఫ": 4072,
      "్రీవ": 4073,
      "కార": 4074,
      "డుగుల": 4075,
      "ార్థి": 4076,
      "ఒక్కర": 4077,
      "అనుమత": 4078,
      "టమి": 4079,
      "బాద్": 4080,
      "వీల": 4081,
      "ాలిక": 4082,
      "ట్టాల": 4083,
      "వృద్ధ": 4084,
      "ండ్ర": 4085,
      "ివ్": 4086,
      "ార్ల": 4087,
      "దాయం": 4088,
      "్రెస్": 4089,
      "వణ": 4090,
      "ుర్": 4091,
      "్టూ": 4092,
      "దో": 4093,
      "ెస్టు": 4094,
      "ీకరణ": 4095,
      "23": 4096,
      "కేజ": 4097,
      "్సె": 4098,
      "ోటి": 4099,
      "రంగం": 4100,
      "ఘా": 4101,
      "ాలా": 4102,
      "నిష": 4103,
      "దివ": 4104,
      "చ్చుక": 4105,
      "టగా": 4106,
      "కాయ": 4107,
      "మాస్": 4108,
      "దుర్": 4109,
      "థన": 4110,
      "్రిక్": 4111,
      "పరిమ": 4112,
      "ోవడం": 4113,
      "ద్దీ": 4114,
      "100": 4115,
      "్లిక్": 4116,
      "సాగుత": 4117,
      "డింది": 4118,
      "ాత": 4119,
      "##ad": 4120,
      "సేన": 4121,
      "్వరలో": 4122,
      "ర్క్": 4123,
      "ూరి": 4124,
      "గీ": 4125,
      "ోస్": 4126,
      "ండియా": 4127,
      "రళ": 4128,
      "్లోకి": 4129,
      "కాలు": 4130,
      "ేటు": 4131,
      "్యర్": 4132,
      "మ్మి": 4133,
      "హిం": 4134,
      "27": 4135,
      "ణు": 4136,
      "సమయ": 4137,
      "మెర": 4138,
      "ండర్": 4139,
      "రాత్": 4140,
      "వెన్": 4141,
      "తీయ": 4142,
      "ుడే": 4143,
      "ఎప్ప": 4144,
      "టాని": 4145,
      "పదే": 4146,
      "ాక్ట": 4147,
      "ిడి": 4148,
      "ిరి": 4149,
      "ర్ద": 4150,
      "ెప": 4151,
      "క్ష్మ": 4152,
      "టార్": 4153,
      "ఫీస": 4154,
      "##ar": 4155,
      "ాంక": 4156,
      "ేజ": 4157,
      "్రణ": 4158,
      "అవి": 4159,
      "ీకు": 4160,
      "మెజ": 4161,
      "గోప": 4162,
      "al": 4163,
      "సిక": 4164,
      "ఎడ": 4165,
      "ేడి": 4166,
      "ఆప": 4167,
      "హణ": 4168,
      "నల్ల": 4169,
      "నుమతి": 4170,
      "కంట": 4171,
      "్రిట": 4172,
      "26": 4173,
      "సైన": 4174,
      "వేత": 4175,
      "ఇచ్చి": 4176,
      "ల్వ": 4177,
      "తేడా": 4178,
      "జెండ": 4179,
      "టన్": 4180,
      "ోనా": 4181,
      "ాల్గ": 4182,
      "్రికి": 4183,
      "ులై": 4184,
      "యిన": 4185,
      "ీకే": 4186,
      "షల్": 4187,
      "ాలతో": 4188,
      "కాంత": 4189,
      "ఎదుర": 4190,
      "ఆయా": 4191,
      "ీవీ": 4192,
      "టీడీ": 4193,
      "ప్ట": 4194,
      "షనల్": 4195,
      "అద": 4196,
      "ేబ": 4197,
      "ఇవి": 4198,
      "ుందో": 4199,
      "నొ": 4200,
      "ెప్ప": 4201,
      "ేసిన": 4202,
      "ఇప్పట": 4203,
      "రణం": 4204,
      "ాణాల": 4205,
      "ఎండ": 4206,
      "ృత": 4207,
      "ెహ": 4208,
      "ంచాయ": 4209,
      "ూడె": 4210,
      "యాప్": 4211,
      "ికల": 4212,
      "సత్య": 4213,
      "సెక": 4214,
      "స్పె": 4215,
      "తెర": 4216,
      "ర్ట్": 4217,
      "అడ్": 4218,
      "ూస": 4219,
      "్టి": 4220,
      "ra": 4221,
      "ప్రవ": 4222,
      "వించ": 4223,
      "ాళ్ల": 4224,
      "ికర": 4225,
      "జేశ": 4226,
      "##ار": 4227,
      "ల్డ": 4228,
      "జల": 4229,
      "اس": 4230,
      "వహ": 4231,
      "విత": 4232,
      "ుందా": 4233,
      "ంటలు": 4234,
      "స్సు": 4235,
      "ులా": 4236,
      "స్టీ": 4237,
      "యూట్": 4238,
      "ెక్ట్": 4239,
      "పర": 4240,
      "్సు": 4241,
      "అందరి": 4242,
      "ంగీ": 4243,
      "ాగ్": 4244,
      "్యారె": 4245,
      "వల్": 4246,
      "ప్పి": 4247,
      "ఎలక్": 4248,
      "బంగ": 4249,
      "చల్": 4250,
      "సన్న": 4251,
      "ును": 4252,
      "ికె": 4253,
      "య్యి": 4254,
      "అల్ల": 4255,
      "ాగు": 4256,
      "్లై": 4257,
      "ూడెం": 4258,
      "తిక": 4259,
      "ాతో": 4260,
      "ూక": 4261,
      "ోల్": 4262,
      "నిమ": 4263,
      "లవు": 4264,
      "ల్గ": 4265,
      "ుగుత": 4266,
      "దేశం": 4267,
      "పొడ": 4268,
      "గల్": 4269,
      "సత్": 4270,
      "ాసం": 4271,
      "ూట్": 4272,
      "ింక": 4273,
      "రేపు": 4274,
      "అడుగు": 4275,
      "ాజి": 4276,
      "డాల": 4277,
      "లక్": 4278,
      "మీర్": 4279,
      "ణి": 4280,
      "పడి": 4281,
      "లోప": 4282,
      "లర": 4283,
      "్రెస": 4284,
      "ంటీ": 4285,
      "డవ": 4286,
      "ారిలో": 4287,
      "జీవి": 4288,
      "ుబా": 4289,
      "షియ": 4290,
      "హక్": 4291,
      "ాగర్": 4292,
      "్లాస": 4293,
      "చర్": 4294,
      "చెక్": 4295,
      "రిశ": 4296,
      "్యాక్": 4297,
      "మంత": 4298,
      "వగా": 4299,
      "స్స": 4300,
      "వెంట": 4301,
      "ిమానా": 4302,
      "60": 4303,
      "కండ": 4304,
      "ధర్": 4305,
      "ేటా": 4306,
      "దాం": 4307,
      "టిస్త": 4308,
      "రేణ": 4309,
      "పీఎస్": 4310,
      "భిస్త": 4311,
      "గుల": 4312,
      "పుల్": 4313,
      "తాజా": 4314,
      "ారంభమ": 4315,
      "్లిం": 4316,
      "లిపి": 4317,
      "ిద్ధ": 4318,
      "ువన": 4319,
      "ెట్ర": 4320,
      "జమ": 4321,
      "డల్": 4322,
      "ాథ": 4323,
      "ుధ": 4324,
      "సిడ": 4325,
      "మిన": 4326,
      "సమ్మ": 4327,
      "కరించ": 4328,
      "జయ": 4329,
      "ీకి": 4330,
      "క్స": 4331,
      "ందల": 4332,
      "کو": 4333,
      "వడ": 4334,
      "ర్భ": 4335,
      "లివ": 4336,
      "టిక్": 4337,
      "తుల": 4338,
      "సత": 4339,
      "లువ": 4340,
      "ای": 4341,
      "పోర్ట": 4342,
      "్వుల": 4343,
      "ఇరు": 4344,
      "పంచ": 4345,
      "స్పీ": 4346,
      "లిక": 4347,
      "హార్": 4348,
      "ికెట్": 4349,
      "ుద్ర": 4350,
      "మామ": 4351,
      "ికా": 4352,
      "బంగార": 4353,
      "ాశ్": 4354,
      "ామాల": 4355,
      "రప": 4356,
      "లవ": 4357,
      "ెక్ష": 4358,
      "మ్యూ": 4359,
      "ొబ": 4360,
      "లుగ": 4361,
      "ిగ్": 4362,
      "ండా": 4363,
      "జనం": 4364,
      "ీరు": 4365,
      "యాం": 4366,
      "ఎంస": 4367,
      "పాల్": 4368,
      "్యాయ": 4369,
      "రికా": 4370,
      "31": 4371,
      "ుదల": 4372,
      "వరం": 4373,
      "డెంట్": 4374,
      "ికులు": 4375,
      "డివ": 4376,
      "్వే": 4377,
      "టోర": 4378,
      "్సెస్": 4379,
      "మన్న": 4380,
      "ేము": 4381,
      "ాజ్": 4382,
      "క్షే": 4383,
      "ూన్": 4384,
      "##la": 4385,
      "ిద్ధం": 4386,
      "ాఖ్య": 4387,
      "ుణ్": 4388,
      "ప్రమ": 4389,
      "29": 4390,
      "ెండ్": 4391,
      "ధ్య": 4392,
      "కార్": 4393,
      "ెండ": 4394,
      "స్క్": 4395,
      "ీవో": 4396,
      "ఆట": 4397,
      "విల": 4398,
      "కొన్న": 4399,
      "ట్యా": 4400,
      "నకు": 4401,
      "ోసం": 4402,
      "ఇష్ట": 4403,
      "ిస్ట": 4404,
      "ాల్గొ": 4405,
      "చర్యల": 4406,
      "స్ల": 4407,
      "తారు": 4408,
      "చోట": 4409,
      "ان": 4410,
      "టూర": 4411,
      "నమ": 4412,
      "ియం": 4413,
      "ిక్స": 4414,
      "ర్హ": 4415,
      "క్కి": 4416,
      "్యాన్": 4417,
      "దుర": 4418,
      "##ేస": 4419,
      "నారా": 4420,
      "్శ": 4421,
      "ంటారు": 4422,
      "ంజ్": 4423,
      "پر": 4424,
      "రస్": 4425,
      "ైట": 4426,
      "##ائ": 4427,
      "పోట": 4428,
      "నెలకొ": 4429,
      "ెట్రో": 4430,
      "ులుగా": 4431,
      "సార్": 4432,
      "ాంగ": 4433,
      "ించగా": 4434,
      "ోగ్ర": 4435,
      "ప్రాణ": 4436,
      "ికుల": 4437,
      "గ్గు": 4438,
      "యక్": 4439,
      "్తి": 4440,
      "ిగి": 4441,
      "ీటర్ల": 4442,
      "నిస": 4443,
      "ెక్స": 4444,
      "in": 4445,
      "ోజ": 4446,
      "కాశ": 4447,
      "ాము": 4448,
      "ంటల": 4449,
      "క్షణ": 4450,
      "డత": 4451,
      "ేదన": 4452,
      "సల": 4453,
      "లిస్ట": 4454,
      "ర్యాల": 4455,
      "నార్": 4456,
      "ందా": 4457,
      "త్తా": 4458,
      "్పుల": 4459,
      "ెంప": 4460,
      "డిగ": 4461,
      "గుడ్": 4462,
      "ట్రోల": 4463,
      "ుతారు": 4464,
      "హక్కు": 4465,
      "ుగు": 4466,
      "ఉండటం": 4467,
      "యాన్": 4468,
      "బడి": 4469,
      "యిత": 4470,
      "ెస": 4471,
      "##er": 4472,
      "సర్వ": 4473,
      "బిల్": 4474,
      "ీస": 4475,
      "త్తుల": 4476,
      "ుకుప": 4477,
      "భయ": 4478,
      "ేచ": 4479,
      "గ్స్": 4480,
      "్టిస్": 4481,
      "యాలు": 4482,
      "నిన": 4483,
      "కాస": 4484,
      "రిస": 4485,
      "ఫార": 4486,
      "ైడ": 4487,
      "త్రిక": 4488,
      "గ్గ": 4489,
      "తుక": 4490,
      "ోబ": 4491,
      "పిల": 4492,
      "నెట": 4493,
      "کا": 4494,
      "ాభా": 4495,
      "ుది": 4496,
      "ికీ": 4497,
      "నప": 4498,
      "్నీ": 4499,
      "కాక": 4500,
      "రిటీ": 4501,
      "నాని": 4502,
      "జస": 4503,
      "్యాప్": 4504,
      "త్తమ": 4505,
      "చంద": 4506,
      "తలు": 4507,
      "ూప": 4508,
      "పెడ": 4509,
      "ల్యా": 4510,
      "ాటి": 4511,
      "డల": 4512,
      "తార": 4513,
      "బే": 4514,
      "రంగా": 4515,
      "వేర": 4516,
      "ంగు": 4517,
      "లక": 4518,
      "ప్రో": 4519,
      "పెన్": 4520,
      "ాజీ": 4521,
      "మ్స్": 4522,
      "రహా": 4523,
      "کر": 4524,
      "విష్": 4525,
      "రగతి": 4526,
      "రాన్": 4527,
      "శ్రా": 4528,
      "సద": 4529,
      "జాన": 4530,
      "ూల్": 4531,
      "##ra": 4532,
      "రిచ": 4533,
      "ాటర్": 4534,
      "తద": 4535,
      "ేరే": 4536,
      "వాణ": 4537,
      "డెన్": 4538,
      "యలు": 4539,
      "ట్లే": 4540,
      "హార": 4541,
      "మాచార": 4542,
      "పేర": 4543,
      "పాటి": 4544,
      "కాల్": 4545,
      "రక్త": 4546,
      "వసర": 4547,
      "మంద": 4548,
      "పడిన": 4549,
      "ిష్కర": 4550,
      "దార": 4551,
      "మీర": 4552,
      "సభల": 4553,
      "రఫ": 4554,
      "ెండి": 4555,
      "చ్చి": 4556,
      "ిల్స్": 4557,
      "వర్త": 4558,
      "##on": 4559,
      "ీజ్": 4560,
      "ళ్లు": 4561,
      "ీశ": 4562,
      "పాక్": 4563,
      "కపోయ": 4564,
      "ిస్టు": 4565,
      "విష్య": 4566,
      "ిత్య": 4567,
      "ోడు": 4568,
      "దృ": 4569,
      "నది": 4570,
      "వంద": 4571,
      "ిద్ద": 4572,
      "ైస": 4573,
      "ొమ్మ": 4574,
      "రాక": 4575,
      "మాకు": 4576,
      "్తీ": 4577,
      "ఫెస": 4578,
      "గాలి": 4579,
      "వర్క": 4580,
      "ిమ్": 4581,
      "ులి": 4582,
      "ట్రీ": 4583,
      "ఓట": 4584,
      "డితే": 4585,
      "డుగు": 4586,
      "దూర": 4587,
      "చదువు": 4588,
      "లాల": 4589,
      "త్సవ": 4590,
      "తాయి": 4591,
      "టాక్": 4592,
      "టల్": 4593,
      "బియ": 4594,
      "బంధు": 4595,
      "డియన్": 4596,
      "కాళ": 4597,
      "లుల": 4598,
      "ింద్": 4599,
      "ఇద": 4600,
      "రాబ": 4601,
      "అంతర": 4602,
      "బోయ": 4603,
      "ధి": 4604,
      "ీణ": 4605,
      "##ان": 4606,
      "త్రాల": 4607,
      "ెళ": 4608,
      "ెంబ": 4609,
      "రాట": 4610,
      "క్స్": 4611,
      "కమ": 4612,
      "పుణ": 4613,
      "్యూజ": 4614,
      "ర్తీ": 4615,
      "ాఖ్యల": 4616,
      "పరా": 4617,
      "ర్జీ": 4618,
      "ిల్లీ": 4619,
      "ైత": 4620,
      "న్నది": 4621,
      "ండింగ": 4622,
      "##భావ": 4623,
      "రవీ": 4624,
      "ెటర్": 4625,
      "్రభావ": 4626,
      "యల్": 4627,
      "హ్మ": 4628,
      "ువా": 4629,
      "వెల్": 4630,
      "కొన": 4631,
      "ాణాలు": 4632,
      "దక్": 4633,
      "ాతి": 4634,
      "ులపై": 4635,
      "ుకుంద": 4636,
      "జిల": 4637,
      "్యుల": 4638,
      "్లె": 4639,
      "ధు": 4640,
      "దల": 4641,
      "an": 4642,
      "ేర్": 4643,
      "రేజ": 4644,
      "పక": 4645,
      "ెలవ": 4646,
      "రీస": 4647,
      "న్వ": 4648,
      "ఆర్ఎ": 4649,
      "అర్థ": 4650,
      "ివ": 4651,
      "డిపోయ": 4652,
      "ల్లే": 4653,
      "ఇస": 4654,
      "కల్": 4655,
      "రంట": 4656,
      "ఛా": 4657,
      "ేవు": 4658,
      "ాలక": 4659,
      "్రదేశ": 4660,
      "రాధ": 4661,
      "కన్": 4662,
      "తక": 4663,
      "ీవ్": 4664,
      "్యర్థ": 4665,
      "కోల్": 4666,
      "గీత": 4667,
      "రిశీల": 4668,
      "సుక": 4669,
      "ీష": 4670,
      "మార్": 4671,
      "చక్": 4672,
      "ఫా": 4673,
      "ఎత్తు": 4674,
      "రివ": 4675,
      "డీఎ": 4676,
      "రిజ": 4677,
      "ందర్భ": 4678,
      "ఆసక్త": 4679,
      "نے": 4680,
      "బోర్": 4681,
      "ిషి": 4682,
      "లేష": 4683,
      "ాన్య": 4684,
      "ూసుక": 4685,
      "ేవార": 4686,
      "దున": 4687,
      "గజ": 4688,
      "ాడి": 4689,
      "##یڈ": 4690,
      "కెన": 4691,
      "బంత": 4692,
      "వెల": 4693,
      "ుకా": 4694,
      "ిపాల": 4695,
      "ిథ": 4696,
      "ీట": 4697,
      "ెం": 4698,
      "మాద": 4699,
      "స్టార": 4700,
      "ిపై": 4701,
      "లప": 4702,
      "ముల": 4703,
      "ోయే": 4704,
      "డో": 4705,
      "##యాల": 4706,
      "రోసా": 4707,
      "ిషయాల": 4708,
      "త్యా": 4709,
      "ట్నం": 4710,
      "ేడ్": 4711,
      "ాష": 4712,
      "్ధి": 4713,
      "రులో": 4714,
      "్లోనే": 4715,
      "జడ": 4716,
      "రని": 4717,
      "శ్య": 4718,
      "ేన": 4719,
      "మాన్": 4720,
      "కొల": 4721,
      "##లిచి": 4722,
      "ూన": 4723,
      "రిహ": 4724,
      "ఆర్ట": 4725,
      "గిత": 4726,
      "ణం": 4727,
      "ట్టడ": 4728,
      "ుబాటు": 4729,
      "ఏసీ": 4730,
      "తడి": 4731,
      "యపడ": 4732,
      "ేరి": 4733,
      "మక": 4734,
      "ీఏ": 4735,
      "డంలో": 4736,
      "ందే": 4737,
      "ానిక": 4738,
      "అడ్డ": 4739,
      "డప": 4740,
      "లాల్": 4741,
      "లుగా": 4742,
      "నేది": 4743,
      "సూర": 4744,
      "ాకర్": 4745,
      "ti": 4746,
      "ఆశ్": 4747,
      "ధార": 4748,
      "ప్రశ": 4749,
      "రిగా": 4750,
      "ంబర": 4751,
      "రమైన": 4752,
      "అటు": 4753,
      "బర": 4754,
      "ోజన": 4755,
      "##ال": 4756,
      "ఫీసర్": 4757,
      "ర్స": 4758,
      "సంస్": 4759,
      "ాత్రల": 4760,
      "కబ": 4761,
      "ాలె": 4762,
      "న్నర": 4763,
      "ితీ": 4764,
      "దరి": 4765,
      "నివార": 4766,
      "ర్తి": 4767,
      "స్తా": 4768,
      "ండగా": 4769,
      "క్షం": 4770,
      "ఏదో": 4771,
      "అడ": 4772,
      "త్తం": 4773,
      "ాపు": 4774,
      "ిగ్గ": 4775,
      "ోయారు": 4776,
      "టివ్": 4777,
      "ిగారు": 4778,
      "అబ": 4779,
      "టెం": 4780,
      "na": 4781,
      "అశ": 4782,
      "రొ": 4783,
      "ావర": 4784,
      "ిత్ర": 4785,
      "గ్గా": 4786,
      "డిపి": 4787,
      "వహించ": 4788,
      "ప్రీ": 4789,
      "రారు": 4790,
      "ెన్న": 4791,
      "ావు": 4792,
      "ాకర": 4793,
      "ియర్": 4794,
      "سے": 4795,
      "మాల": 4796,
      "లవా": 4797,
      "ోక్": 4798,
      "కలిగి": 4799,
      "ిచ్": 4800,
      "స్టే": 4801,
      "ౌత": 4802,
      "కుం": 4803,
      "వంతం": 4804,
      "్శించ": 4805,
      "ాష్": 4806,
      "్ద": 4807,
      "ారంలో": 4808,
      "ంటర్": 4809,
      "టవ": 4810,
      "యజ": 4811,
      "్వి": 4812,
      "vi": 4813,
      "ీగా": 4814,
      "్మాన": 4815,
      "ికంగా": 4816,
      "ోర్స": 4817,
      "అమల": 4818,
      "యే": 4819,
      "రాల": 4820,
      "అల్": 4821,
      "ఎక్క": 4822,
      "పత": 4823,
      "ుతు": 4824,
      "డింగ్": 4825,
      "కరం": 4826,
      "ీఎ": 4827,
      "ీతం": 4828,
      "కట్": 4829,
      "నాట": 4830,
      "ిపక్ష": 4831,
      "ైక": 4832,
      "అనంత": 4833,
      "ఆదాయ": 4834,
      "ఇం": 4835,
      "చార": 4836,
      "యంత": 4837,
      "ీఎం": 4838,
      "70": 4839,
      "పుత": 4840,
      "హారం": 4841,
      "ానా": 4842,
      "ిక్ష": 4843,
      "్యవ": 4844,
      "ంక్": 4845,
      "ార్క్": 4846,
      "్రేక్": 4847,
      "ోలో": 4848,
      "ర్డ్": 4849,
      "ల్ని": 4850,
      "డాది": 4851,
      "అంగ": 4852,
      "రత": 4853,
      "వంట": 4854,
      "ాయు": 4855,
      "ాడ్": 4856,
      "ొట్ట": 4857,
      "ాలయం": 4858,
      "కారుల": 4859,
      "్యూట": 4860,
      "గ్రీ": 4861,
      "అధి": 4862,
      "వన": 4863,
      "ివి": 4864,
      "నిల్": 4865,
      "యిల్": 4866,
      "ాన్స": 4867,
      "కలక": 4868,
      "యన్న": 4869,
      "##th": 4870,
      "పోవ": 4871,
      "ఆర్డ": 4872,
      "యోగం": 4873,
      "నగా": 4874,
      "తూర": 4875,
      "ీళ్ల": 4876,
      "సంక": 4877,
      "యాల": 4878,
      "యటి": 4879,
      "పార్ట": 4880,
      "్ను": 4881,
      "స్కూ": 4882,
      "సాం": 4883,
      "పిల్ల": 4884,
      "పౌ": 4885,
      "షు": 4886,
      "డిచ": 4887,
      "యింది": 4888,
      "ైవ": 4889,
      "ైకి": 4890,
      "్పీ": 4891,
      "లియా": 4892,
      "ిధుల": 4893,
      "పబ": 4894,
      "ితుల": 4895,
      "వాట": 4896,
      "న్నం": 4897,
      "నియర్": 4898,
      "te": 4899,
      "ిరా": 4900,
      "##یو": 4901,
      "రిల": 4902,
      "వాడు": 4903,
      "శని": 4904,
      "80": 4905,
      "ావా": 4906,
      "ూత్": 4907,
      "లేట": 4908,
      "ంచు": 4909,
      "క్య": 4910,
      "ముక": 4911,
      "ోని": 4912,
      "తామ": 4913,
      "నీల": 4914,
      "ుఖ": 4915,
      "ండల": 4916,
      "లెట్": 4917,
      "సుప": 4918,
      "పడే": 4919,
      "న్యం": 4920,
      "ైం": 4921,
      "ొమ": 4922,
      "మించ": 4923,
      "ిహ": 4924,
      "ట్స్": 4925,
      "ణ్య": 4926,
      "లుత": 4927,
      "పట్టు": 4928,
      "ీప్": 4929,
      "ైంద": 4930,
      "గిల": 4931,
      "##యక": 4932,
      "ంతి": 4933,
      "విశ్": 4934,
      "గే": 4935,
      "రట": 4936,
      "ూబ్": 4937,
      "ార్యక": 4938,
      "ాయమ": 4939,
      "35": 4940,
      "ెమ": 4941,
      "ెట్టి": 4942,
      "సగ": 4943,
      "ుపుత": 4944,
      "ెల్లడ": 4945,
      "తృ": 4946,
      "తరుల": 4947,
      "ారే": 4948,
      "జామ": 4949,
      "్రస్త": 4950,
      "నాన్": 4951,
      "వ్యూ": 4952,
      "కాలన": 4953,
      "کہ": 4954,
      "##so": 4955,
      "చివ": 4956,
      "ోలే": 4957,
      "ాభ": 4958,
      "ుపా": 4959,
      "ెట్ల": 4960,
      "ఎన": 4961,
      "పన్న": 4962,
      "లూ": 4963,
      "ైద": 4964,
      "రిత": 4965,
      "ొత్తగ": 4966,
      "మెట": 4967,
      "జమాన": 4968,
      "ావించ": 4969,
      "రెడ్": 4970,
      "రీత": 4971,
      "ేపు": 4972,
      "లాప": 4973,
      "వాలంట": 4974,
      "పట్": 4975,
      "సవ": 4976,
      "నెల్": 4977,
      "చదువ": 4978,
      "త్తల": 4979,
      "్యాట": 4980,
      "త్తగా": 4981,
      "ీప": 4982,
      "ాయిల": 4983,
      "also": 4984,
      "దన్న": 4985,
      "దుప": 4986,
      "జార్": 4987,
      "ప్రె": 4988,
      "ార్డ్": 4989,
      "క్త": 4990,
      "అవిన": 4991,
      "మూల": 4992,
      "సరా": 4993,
      "ినే": 4994,
      "బాగ": 4995,
      "ారిన": 4996,
      "read": 4997,
      "ంత్": 4998,
      "గతం": 4999
    }
  }
}