<unk>	0
<s>	0
</s>	0
.	-2.75668
,	-3.8171
▁	-4.76368
లో	-4.81569
▁ఈ	-4.96885
లు	-5.03295
కు	-5.13705
ను	-5.20678
ం	-5.26371
ని	-5.28705
ల	-5.30588
▁లో	-5.37185
ు	-5.38798
గా	-5.39497
స్	-5.45018
తో	-5.54038
న	-5.56478
ి	-5.58478
కి	-5.63795
ే	-5.742
▁ఆ	-5.78453
▁కూడా	-5.80753
▁నుంచి	-5.81188
వ	-5.86599
ా	-5.89245
ారు	-5.91187
పై	-5.91395
ర్	-5.91762
▁కు	-5.92066
:	-5.94391
ర	-6.08878
క	-6.11845
న్	-6.14435
▁చేశారు	-6.14688
ల్	-6.14766
నే	-6.16248
త	-6.16451
▁(	-6.18006
▁ను	-6.18354
క్	-6.302
▁అని	-6.35008
)	-6.35501
లను	-6.35735
మ	-6.37887
▁ఆయన	-6.39509
్	-6.40173
ట్	-6.43483
▁ఉన్న	-6.43651
▁గా	-6.51143
▁కాంగ్రెస్	-6.54159
య	-6.54595
▁రూ	-6.5598
ాయి	-6.56165
ాన్ని	-6.56284
▁తన	-6.56871
రి	-6.57537
ిన	-6.5857
▁పార్టీ	-6.60241
ప	-6.61803
▁అ	-6.62853
▁కోసం	-6.63249
ింది	-6.63641
▁రెడ్డి	-6.6488
ంగా	-6.64932
▁ఒక	-6.66744
ానికి	-6.67782
ాడు	-6.69615
▁అయితే	-6.69807
▁చేసిన	-6.69938
▁చెప్పారు	-6.70525
రా	-6.71509
లకు	-6.71758
▁ప్రభుత్వం	-6.71907
▁మంది	-6.72701
▁తెలిపారు	-6.74381
▁ఓ	-6.74438
▁తో	-6.75042
▁క	-6.75669
▁తర్వాత	-6.76889
"	-6.76905
రు	-6.7711
లా	-6.77358
గ	-6.80402
-	-6.81141
ది	-6.8224
డ్	-6.82304
?	-6.82761
▁మ	-6.84796
డం	-6.85354
▁పై	-6.85948
▁ఉంది	-6.86228
ారని	-6.86652
ట	-6.87286
నా	-6.87977
▁అన్నారు	-6.88385
ల్లో	-6.89577
స	-6.90151
వి	-6.91464
▁ఏ	-6.91595
▁బీజేపీ	-6.92083
▁సీఎం	-6.92224
ాలు	-6.93348
డ	-6.93837
ూ	-6.95901
▁చాలా	-6.9615
▁పాటు	-6.96435
లి	-6.96439
▁తెలంగాణ	-6.96868
▁ని	-6.98289
▁వి	-6.98886
▁మంత్రి	-6.99732
▁"	-7.00175
▁ప	-7.01107
యా	-7.02656
▁స	-7.03735
▁రెండు	-7.04283
▁తమ	-7.05725
ప్	-7.05844
▁దీంతో	-7.06165
ద	-7.07317
▁న	-7.07597
వా	-7.08213
ాలని	-7.08648
డి	-7.10073
▁హైదరాబాద్	-7.12068
కా	-7.1232
▁చెందిన	-7.12598
▁వరకు	-7.12912
▁కానీ	-7.13245
టి	-7.13335
▁పోలీసులు	-7.14237
మ్	-7.14387
మా	-7.15029
▁చేసి	-7.15609
▁జిల్లా	-7.16488
▁చేసింది	-7.16885
▁ఎన్నికల	-7.16886
▁,	-7.17321
న్న	-7.18555
లోని	-7.18738
▁అధికారులు	-7.19701
▁కా	-7.21414
రీ	-7.21527
▁బ	-7.21997
▁వ	-7.22884
కే	-7.23251
ో	-7.23434
▁రాష్ట్ర	-7.24468
▁ఆమె	-7.24672
▁చంద్రబాబు	-7.24823
మి	-7.25024
డానికి	-7.25238
ేందుకు	-7.25414
▁మా	-7.25631
జ్	-7.26404
▁ఇది	-7.26823
▁త	-7.27621
టీ	-7.28522
▁సమయంలో	-7.29379
▁ఎ	-7.29535
▁ర	-7.29552
▁సినిమా	-7.29599
▁నా	-7.29885
ట్లు	-7.30994
చ	-7.31261
▁మధ్య	-7.31327
▁జగన్	-7.32486
సీ	-7.32666
సి	-7.32946
తి	-7.33179
లతో	-7.33779
డు	-7.34121
▁మరో	-7.34593
▁ఇప్పుడు	-7.35942
▁కేసీఆర్	-7.36441
▁ఎమ్మెల్యే	-7.36568
▁కొత్త	-7.36783
మైన	-7.37143
▁బీఆర్ఎస్	-7.37342
ాలి	-7.39757
▁ద్వారా	-7.39995
్లో	-7.40065
త్	-7.40123
▁ఇక	-7.40664
▁రా	-7.40675
▁ఏర్పాటు	-7.41741
▁అనే	-7.42501
జ	-7.42543
లే	-7.44286
ామని	-7.44859
జీ	-7.4568
▁ఉంటుంది	-7.45884
▁అవకాశం	-7.4621
▁కొన్ని	-7.4741
నీ	-7.47554
హ	-7.47737
▁పోటీ	-7.48029
▁ప్ర	-7.48253
▁ల	-7.48282
ాల	-7.4839
▁మాజీ	-7.49098
▁పెద్ద	-7.49313
లేదు	-7.4961
▁లు	-7.50024
▁భారీ	-7.50104
ీ	-7.50451
పు	-7.50866
▁చేయ	-7.51729
▁వల్ల	-7.52024
▁ప్రస్తుతం	-7.52274
ంలో	-7.52643
▁జరిగిన	-7.52673
▁వచ్చే	-7.52721
బ	-7.52891
కో	-7.52909
▁కి	-7.52937
▁ప్రభుత్వ	-7.52965
▁కలిసి	-7.53349
▁శాఖ	-7.53493
దా	-7.53631
▁-	-7.53766
ణ	-7.54158
▁జ	-7.55454
▁ముందు	-7.55614
▁లోని	-7.5563
▁లేదు	-7.55661
▁చేస్తున్నారు	-7.56065
▁రేవంత్	-7.56109
▁ఎన్నికల్లో	-7.56777
▁భారత్	-7.57355
ాం	-7.57526
▁వారి	-7.57839
▁ప్రతి	-7.57869
మ్మ	-7.58465
▁కేంద్ర	-7.58859
▁వచ్చిన	-7.59104
▁వెలుగు	-7.59305
▁గత	-7.6021
మే	-7.61116
▁హ	-7.61118
▁మూడు	-7.61136
ష	-7.61473
▁2	-7.61565
▁పని	-7.61722
ై	-7.61835
▁గ	-7.61859
▁టీడీపీ	-7.62263
▁వేల	-7.62367
▁ఇ	-7.62447
ండి	-7.62533
ె	-7.62538
▁10	-7.62688
▁వారు	-7.63065
▁అన్ని	-7.63131
ష్	-7.63258
వు	-7.63924
▁గురించి	-7.63994
శ	-7.6433
య్య	-7.64839
▁పవన్	-7.65153
దు	-7.65702
▁మ్యాచ్	-7.66423
ంత	-7.67108
▁3	-7.673
▁శాతం	-7.67314
▁""	-7.67323
రో	-7.67351
▁ము	-7.67611
కుండా	-7.67776
ద్	-7.68009
▁మాత్రం	-7.68056
బ్	-7.68167
▁ఉందని	-7.68199
ళ్ల	-7.68559
లీ	-7.68678
▁మీ	-7.69426
▁వద్ద	-7.6952
ధ	-7.69646
▁మొత్తం	-7.69694
గ్	-7.70779
▁19	-7.71093
▁ఉన్నారు	-7.71237
▁5	-7.71795
▁ఉన్నాయి	-7.71839
▁వ్యక్తం	-7.7214
▁కో	-7.72205
▁ద	-7.72445
▁లక్షల	-7.72726
ులు	-7.72763
▁విడుదల	-7.7292
▁మాత్రమే	-7.73518
▁కోట్ల	-7.74218
▁చెప్ప	-7.74245
▁కుమార్	-7.7472
▁చేసే	-7.74834
డీ	-7.75225
▁సమాచారం	-7.75715
▁ఆర్	-7.75981
డంతో	-7.76853
▁పూర్తి	-7.77083
▁అంద	-7.771
▁వా	-7.77494
ఫ్	-7.77514
▁కే	-7.78364
రే	-7.78531
▁ఎక్కువ	-7.78556
పా	-7.78929
▁రోజు	-7.79207
▁చేయడం	-7.8009
వే	-7.80271
▁కేసు	-7.80274
▁చేయాలని	-7.80292
▁చేర	-7.80377
ించ	-7.80586
▁సభ	-7.80598
▁వైసీపీ	-7.80664
ాయని	-7.81107
ాలను	-7.81661
▁ఇప్పటికే	-7.81662
పీ	-7.81674
▁ఎలా	-7.81705
▁ప్రధాని	-7.81935
▁మీద	-7.82411
ంద	-7.82654
▁ప్రజలు	-7.82977
▁నుండి	-7.83337
▁భారత	-7.83449
ంది	-7.83552
పో	-7.836
▁4	-7.84295
▁కీలక	-7.84873
వీ	-7.84926
▁సందర్భంగా	-7.84934
ఆర్	-7.85157
యి	-7.85224
▁రాష్ట్రంలో	-7.85288
▁మంచి	-7.85361
""	-7.85403
జి	-7.85475
▁ఇన్	-7.85586
లలో	-7.85665
▁చేస్తున్న	-7.85815
▁ఎలాంటి	-7.8598
▁నెల	-7.86111
▁1	-7.86178
▁ఎంపీ	-7.86433
సా	-7.86795
▁ప్రకారం	-7.86999
▁తాను	-7.87146
జా	-7.87469
పి	-7.87707
▁లేదా	-7.87725
▁కొ	-7.87825
ఎస్	-7.87866
▁మోదీ	-7.87911
▁ఇండియా	-7.88258
ుడు	-7.8835
▁మన	-7.88381
▁మే	-7.88542
▁విషయం	-7.88595
▁సోషల్	-7.88695
▁ఇతర	-7.88713
▁20	-7.89063
▁అదే	-7.89194
▁అసెంబ్లీ	-7.89277
మని	-7.8955
▁సీ	-7.89726
▁వారికి	-7.8979
▁పలు	-7.89879
▁మె	-7.90234
▁స్	-7.90404
యం	-7.90576
వ్	-7.90639
▁ముఖ్యమంత్రి	-7.91121
▁అంటూ	-7.91344
▁సంస్థ	-7.91477
రం	-7.91711
▁ఎస్	-7.92257
▁పెట్ట	-7.92845
తా	-7.92969
▁ఉ	-7.93067
▁నేతలు	-7.93125
సు	-7.93146
▁లేదని	-7.93167
▁చర్యలు	-7.9317
▁వంటి	-7.93639
▁కాదు	-7.93987
▁దగ్గర	-7.94031
కొ	-7.94566
▁ఏడాది	-7.94882
మీ	-7.94885
▁ప్రధాన	-7.95311
ంచ	-7.95512
▁రి	-7.95607
▁అంటే	-7.95792
లపై	-7.95798
▁చ	-7.9599
ంట	-7.9648
▁ఇదే	-7.96516
▁కింద	-7.97034
▁ఇచ్చిన	-7.97424
⁬	-7.97804
▁ఉండ	-7.97805
▁చిన్న	-7.98187
నూ	-7.9837
▁అలాగే	-7.98789
▁మెంట్	-7.99034
▁ధర	-7.99117
▁భ	-7.99327
▁బా	-7.99573
ము	-7.99707
▁దాడి	-7.99707
▁పేర్కొన్నారు	-7.99957
▁ప్రత్యేక	-8.0002
▁ఐ	-8.00027
▁ఫోన్	-8.0011
బీ	-8.00245
▁6	-8.00703
కీ	-8.00984
టర్	-8.01357
▁రాజకీయ	-8.0145
▁కోట్లు	-8.01477
▁డిమాండ్	-8.0156
▁7	-8.01608
▁8	-8.0164
▁సు	-8.01695
ట్టు	-8.01695
ی	-8.01815
ుకున్న	-8.01872
▁అది	-8.02458
ినట్లు	-8.02766
ండ	-8.02919
▁తెలిపింది	-8.02998
▁చెబుతున్నారు	-8.03131
▁విచారణ	-8.03887
▁రావు	-8.03896
▁ఏపీ	-8.04125
▁తాజాగా	-8.04216
▁తప్ప	-8.04255
▁సి	-8.04507
▁సంబంధించిన	-8.04661
▁డీ	-8.04813
▁అమలు	-8.04977
▁ఇలా	-8.05267
▁రోజుల	-8.05338
▁దాదాపు	-8.05507
గు	-8.05609
తు	-8.05632
చి	-8.05947
అ	-8.06027
టా	-8.06351
ద్ద	-8.06456
▁గతంలో	-8.06966
و	-8.07096
▁మాట్లాడుతూ	-8.07267
▁నిర్ణయం	-8.0742
▁ఆర్థిక	-8.07431
▁అనేక	-8.07718
ఏ	-8.08005
టు	-8.08075
వర్	-8.08257
7	-8.08363
▁గంటల	-8.08399
▁గాంధీ	-8.08405
▁మూవీ	-8.08508
▁వ్యక్తి	-8.08573
▁టీ	-8.08712
ౌ	-8.09076
ఈ	-8.09099
▁పడ	-8.09367
▁అభివృద్ధి	-8.09845
▁నమోదు	-8.0985
ట్ట	-8.09941
▁కారణంగా	-8.09963
ైన	-8.10004
ానని	-8.10078
▁మి	-8.10163
▁జరిగింది	-8.10169
▁అనంతరం	-8.10389
▁15	-8.10431
▁బీ	-8.10495
▁వెంటనే	-8.10622
▁తొలి	-8.11039
గి	-8.11083
▁శ	-8.11115
▁ప్రజల	-8.1116
▁సా	-8.11244
▁పెంచ	-8.1156
▁పేరు	-8.11627
▁తరువాత	-8.11711
ر	-8.11858
▁వీడియో	-8.11881
▁12	-8.11893
లోకి	-8.12002
దే	-8.12036
ప్ప	-8.12238
▁జారీ	-8.12518
మో	-8.12836
భ	-8.12883
▁ఇందులో	-8.1301
పల్లి	-8.13057
▁ఆఫ్	-8.13447
▁విషయంలో	-8.13785
▁వచ్చింది	-8.14139
'	-8.14299
▁నేపథ్యంలో	-8.14324
▁పరిస్థితి	-8.14384
▁ఇవ్వ	-8.14442
చ్చ	-8.15009
▁ప్రచారం	-8.15092
▁తీవ్ర	-8.15152
▁'	-8.15156
▁అక్కడ	-8.15195
▁తెలుగు	-8.15204
▁నేత	-8.15347
▁కేసులో	-8.15431
),	-8.15484
▁ఎక్కువగా	-8.15643
లేదని	-8.15696
ిందని	-8.15848
20	-8.15983
▁లేకుండా	-8.16027
▁షా	-8.16032
0	-8.16185
▁ఒక్క	-8.16258
టం	-8.163
▁వె	-8.16445
▁ఫిర్యాదు	-8.16667
▁లా	-8.1677
▁ఇచ్చారు	-8.17387
▁మీడియా	-8.17737
▁ఫొటో	-8.17738
న్నారు	-8.178
▁ఢిల్లీ	-8.17819
▁భాగంగా	-8.17943
▁గు	-8.17952
▁11	-8.17978
ొ	-8.18232
▁ఆందోళన	-8.18321
▁ఉదయం	-8.18331
▁పట్ట	-8.1845
▁ఉండే	-8.1857
▁కంపెనీ	-8.1859
▁నేను	-8.18785
▁ఏం	-8.18921
▁సింగ్	-8.19255
తీ	-8.19393
బా	-8.19442
నం	-8.19528
▁9	-8.1987
▁అధికారంలో	-8.20055
దీ	-8.20094
▁వెళ్ల	-8.20353
▁జిల్లాలో	-8.20597
▁సం	-8.20613
▁రాహుల్	-8.20666
▁స్టేషన్	-8.20681
▁ఎంత	-8.20759
▁పంప	-8.20775
▁కోర్టు	-8.20835
ఐ	-8.21092
స్ట్	-8.21224
▁కాగా	-8.21331
2	-8.21532
o	-8.21609
▁ఘటన	-8.21701
▁పో	-8.21915
్య	-8.21994
స్త	-8.22064
క్ష	-8.22115
▁శ్రీ	-8.22286
▁లోక్	-8.22363
క్క	-8.22588
▁డి	-8.22854
▁నాలుగు	-8.22907
▁మార	-8.23083
▁జా	-8.23113
యో	-8.23177
ఎం	-8.23556
▁వెళ్లి	-8.23557
▁మరింత	-8.23558
▁తేదీ	-8.23648
▁కుటుంబ	-8.23666
▁మీడియాలో	-8.23922
▁తెలంగాణలో	-8.2398
▁ఇంటి	-8.24127
ారా	-8.24193
e	-8.2424
ున్న	-8.24306
ంగ్	-8.24716
▁చర్చ	-8.24726
▁అయిన	-8.25037
నున్నారు	-8.25101
▁పాల్గొన్నారు	-8.25107
▁తెలుస్తోంది	-8.25306
కర	-8.25414
▁బి	-8.25592
▁దేశ	-8.25666
▁దాని	-8.25805
▁చేస్తూ	-8.25839
▁ఉంటే	-8.25873
▁వచ్చి	-8.26285
▁ఫ	-8.26408
▁స్టార్	-8.26764
▁అంత	-8.26772
▁దీని	-8.26989
▁అందుకే	-8.27087
▁అన్న	-8.27198
00	-8.27215
▁ఇటీవల	-8.27279
▁తిరిగి	-8.27697
▁పి	-8.27859
▁చె	-8.28071
▁మళ్లీ	-8.28086
▁ఎందుకు	-8.28244
బి	-8.28456
ంగ	-8.28548
6	-8.28581
▁మేరకు	-8.28626
▁ఎన్	-8.28889
▁ఆరోపించారు	-8.29195
▁ఇలాంటి	-8.29265
3	-8.29848
▁పె	-8.29975
▁కేటీఆర్	-8.30003
త్త	-8.30462
▁విజయం	-8.30523
▁మో	-8.30666
▁కలెక్టర్	-8.30795
a	-8.30922
▁మాట్లాడ	-8.31026
▁30	-8.3103
▁అరెస్ట్	-8.31061
▁ఇక్కడ	-8.31309
▁తెలిసిందే	-8.3134
ప్పుడు	-8.31411
▁వైరల్	-8.31564
▁పీ	-8.31579
▁అమ్మ	-8.31634
▁నాయకులు	-8.31872
▁పాత్ర	-8.31899
▁సిబ్బంది	-8.31901
డా	-8.31944
ು	-8.32041
▁వీ	-8.32054
▁అధ్యక్షుడు	-8.32081
▁రాత్రి	-8.3211
▁పైన	-8.32205
యూ	-8.32255
▁పా	-8.32379
▁జాతీయ	-8.32442
1	-8.32764
▁జనసేన	-8.32832
▁మార్చ	-8.32867
ుతుంది	-8.32875
ించారు	-8.32956
▁ప్రాజెక్టు	-8.32978
ا	-8.33295
ళ	-8.33639
▁లైన్	-8.33665
▁రెండో	-8.34066
▁వెల్లడించారు	-8.3472
హా	-8.35239
▁హామీ	-8.3541
▁అమెరికా	-8.35445
▁కంటే	-8.35557
▁ఎం	-8.35636
▁కొందరు	-8.35867
లోనే	-8.3644
▁14	-8.36699
▁మొదటి	-8.367
▁అందులో	-8.36722
▁భార్య	-8.3687
▁కమిటీ	-8.36988
▁జీ	-8.37385
▁పోలీస్	-8.37702
ంటే	-8.37813
/	-8.3824
s	-8.38307
ళ్లు	-8.38449
▁కాకుండా	-8.38748
వో	-8.3877
ాల్సి	-8.38842
▁..	-8.3902
▁పెళ్లి	-8.39078
ుంది	-8.39196
▁తనకు	-8.39241
▁ఏళ్ల	-8.39321
య్	-8.39323
▁గుర్తు	-8.3941
▁తా	-8.39524
▁ఇద్దరు	-8.3957
▁కోరారు	-8.39987
▁పొంద	-8.40177
▁ఇంకా	-8.40205
▁పనులు	-8.40215
▁పైగా	-8.40389
▁ఏపీలో	-8.40419
▁మార్కెట్	-8.40736
▁కేంద్రం	-8.40782
▁ప్రపంచ	-8.40846
▁హత్య	-8.41127
▁వై	-8.41166
▁ది	-8.41215
ుకునే	-8.41308
కర్	-8.41316
▁సె	-8.41357
▁అతని	-8.41558
▁చి	-8.41762
▁టికెట్	-8.41815
▁ఆంధ్రప్రదేశ్	-8.41989
▁మారింది	-8.4208
ہ	-8.42465
▁రామ	-8.42538
▁ఉంచ	-8.42767
▁వాడ	-8.43009
▁కేవలం	-8.43037
▁తగ్గ	-8.43165
▁అంచనా	-8.43237
▁ఆడ	-8.43315
▁ఇంట్లో	-8.43367
ప్ర	-8.43412
దని	-8.43431
▁2024	-8.43455
▁సీనియర్	-8.43542
ି	-8.43546
▁18	-8.43591
▁నీ	-8.43711
▁య	-8.43714
▁ప్రాంతాల్లో	-8.439
▁సూచించారు	-8.43982
▁మోడీ	-8.44099
▁దేశంలో	-8.44264
▁స్పష్టం	-8.45144
▁తీసుకున్న	-8.4536
▁కూటమి	-8.45395
▁మహిళ	-8.45536
ుల	-8.45547
ుకుని	-8.45602
t	-8.45739
త్ర	-8.45742
ితే	-8.45819
రె	-8.45879
▁జట్టు	-8.46087
▁పు	-8.46151
4	-8.46224
▁లే	-8.46321
ేలా	-8.46481
ించిన	-8.46581
▁కట్ట	-8.46643
▁డాక్టర్	-8.46691
క్స్	-8.46741
▁అవసరం	-8.46759
▁క్రమంలో	-8.4687
▁అభ్యర్థి	-8.46888
▁వారిని	-8.4695
వచ్చు	-8.47024
నుంది	-8.47119
▁వర్షాలు	-8.47324
▁నగర్	-8.47345
▁సమయం	-8.47609
▁చేశాడు	-8.47619
▁ఎక్స్	-8.47651
ోంది	-8.4767
▁ర్	-8.47714
షన్	-8.47959
థ	-8.47985
▁మరోసారి	-8.48107
▁ప్రకటన	-8.48319
▁కొనుగోలు	-8.4834
▁చా	-8.48405
S	-8.48481
▁విజయ	-8.48536
A	-8.48776
ాడని	-8.48796
▁యా	-8.48807
▁తాము	-8.48926
▁ఎంతో	-8.48946
సే	-8.49027
▁రిలీజ్	-8.49074
ుకున్నారు	-8.49121
▁ఉంటాయి	-8.49178
▁బాగా	-8.49179
▁ఖ	-8.49191
▁ప్రజలకు	-8.49198
▁హైకోర్టు	-8.49276
8	-8.4941
ందుకు	-8.49415
▁సమస్య	-8.49445
ల్లా	-8.49733
▁24	-8.49743
ాల్లో	-8.5001
▁గో	-8.50313
▁స్వ	-8.50349
▁శివ	-8.50441
u	-8.50622
పూర్	-8.50852
▁రైల్వే	-8.50965
▁ప్రకటించారు	-8.51106
▁ప్రమాదం	-8.51294
ఖ	-8.51297
▁వివిధ	-8.51649
▁మండలం	-8.51692
▁చూప	-8.51705
లం	-8.51766
▁25	-8.51772
▁అక్రమ	-8.52429
ے	-8.52432
▁మరియు	-8.52562
పడ	-8.5269
ాను	-8.52692
▁మీరు	-8.52888
▁పరుగులు	-8.52941
▁వైఎస్	-8.52966
ల్స్	-8.53298
▁పోలింగ్	-8.53396
ంటూ	-8.53437
▁వ్యాఖ్యలు	-8.53648
▁లి	-8.53806
▁జో	-8.53878
▁మృతి	-8.54435
▁సర్వే	-8.5447
i	-8.54667
▁ఖర్చు	-8.54854
9	-8.54922
▁డైరెక్టర్	-8.54929
5	-8.54973
▁రీ	-8.54992
ింగ్	-8.55073
▁కార్	-8.5523
లె	-8.55278
▁రే	-8.55305
▁అవ	-8.55326
▁ముందుకు	-8.55436
▁నిర్వహించారు	-8.55559
▁గంటలకు	-8.55571
▁కోర	-8.55818
▁అధికార	-8.55923
▁సంబంధించి	-8.5608
ంతా	-8.56114
▁రోడ్డు	-8.56122
ుకోవడం	-8.56396
▁వైపు	-8.56555
▁జూన్	-8.56781
▁మద్దతు	-8.56933
▁అలా	-8.57085
▁అనేది	-8.57121
ಿ	-8.57166
▁శుక్రవారం	-8.57227
▁13	-8.57393
▁చైర్మన్	-8.57446
▁క్రికెట్	-8.57591
▁ఐదు	-8.576
ల్ల	-8.57716
నో	-8.57727
వ్వ	-8.57898
▁వివరించారు	-8.57942
▁చేసుకున్న	-8.5798
ాల్సిన	-8.58565
▁హీరో	-8.58643
▁సోమవారం	-8.58912
I	-8.58965
▁2023	-8.58996
▁వే	-8.5903
▁దీనిపై	-8.59135
ిస్తున్న	-8.5914
ాయ	-8.59208
▁జరిగే	-8.59354
▁వాటిని	-8.59451
▁మరోవైపు	-8.59456
ఇ	-8.59726
బో	-8.59743
▁అధినేత	-8.60014
▁అప్పటి	-8.60073
ل	-8.60074
▁50	-8.60091
▁దీనికి	-8.60147
▁ఉంటుందని	-8.60149
గానే	-8.60176
▁సో	-8.60214
▁ప్రాంతంలో	-8.60227
▁ఎన్నికలు	-8.60274
తోపాటు	-8.60338
୍	-8.60615
రెడ్డి	-8.60642
▁శ్రీనివాస్	-8.60734
ంటి	-8.61124
▁కొట్ట	-8.6115
▁బయటకు	-8.61207
▁బో	-8.61324
▁బంగారం	-8.61452
▁చేస్తే	-8.61568
▁దు	-8.61661
▁పే	-8.61838
▁ప్రశ్నించారు	-8.61868
▁బె	-8.61906
▁రోజుల్లో	-8.61989
కం	-8.62211
▁16	-8.62229
▁వస్తున్న	-8.62254
▁అండ్	-8.62341
▁చేసేందుకు	-8.62595
▁ప్రజా	-8.62639
▁రాశి	-8.62667
▁వస్తే	-8.62858
▁తక్కువ	-8.63072
▁లను	-8.63303
శి	-8.63317
ించి	-8.63321
▁నమ్మ	-8.63546
▁ఆరు	-8.63562
▁క్	-8.63564
ుగా	-8.63684
సం	-8.63717
లుగా	-8.63775
ష్ట	-8.63838
చ్	-8.63919
▁కవిత	-8.64073
ದ	-8.64425
▁చూడ	-8.64435
▁కథ	-8.64493
▁పేర్కొంది	-8.64606
▁పేరుతో	-8.6464
▁కేసులు	-8.64669
▁దర్యాప్తు	-8.64684
▁బస్సు	-8.64708
ణి	-8.64956
గో	-8.65228
▁రద్దు	-8.65261
ుతున్న	-8.6527
యు	-8.65343
▁ఆదివారం	-8.65393
▁చీఫ్	-8.65408
ుతూ	-8.65427
▁సాయంత్రం	-8.65551
ుతోంది	-8.65567
▁తేదీన	-8.65659
▁17	-8.6573
▁చేయడానికి	-8.65847
▁డ	-8.6589
▁నేడు	-8.65929
▁పార్టీలో	-8.65999
▁కొంత	-8.6605
▁సంఖ్య	-8.6616
▁మార్చి	-8.66341
▁సహా	-8.66358
▁ఎమ్మెల్సీ	-8.66579
▁సమ	-8.66661
▁వాటి	-8.66839
రణ	-8.66873
▁రైతులు	-8.66939
‍	-8.66979
▁ఆరోపణలు	-8.66987
▁ఓటు	-8.67032
▁మరి	-8.67033
!	-8.67093
▁స్థానిక	-8.67122
గల	-8.67189
ూరు	-8.67242
▁మంగళవారం	-8.673
▁చివరి	-8.67325
▁వస్త	-8.67343
▁అయ్యారు	-8.67391
▁వరద	-8.67595
▁సంజయ్	-8.67621
▁శనివారం	-8.67704
▁పొ	-8.67714
▁దా	-8.67734
న్స్	-8.67812
▁రైతు	-8.67889
C	-8.67902
▁మహా	-8.68001
చే	-8.68032
50	-8.68271
▁వాళ్ల	-8.6848
p	-8.68511
▁చేశారని	-8.68639
ిస్తున్నారు	-8.68864
▁డబ్బు	-8.69003
▁పోస్ట్	-8.69045
▁భర్త	-8.69189
ک	-8.6934
▁ప్రేమ	-8.69436
▁చోటు	-8.69559
▁కొనసాగ	-8.69621
ರ	-8.69663
▁ఇజ్రాయెల్	-8.70006
శా	-8.70173
▁నాగ	-8.70363
▁సై	-8.70414
ା	-8.70425
ున్నారు	-8.70464
▁ఎల్	-8.70473
ఆ	-8.7056
▁కారు	-8.70599
ిత	-8.7063
▁రైలు	-8.70662
▁ఆరోగ్య	-8.70804
▁కార్యక్రమంలో	-8.70837
▁రె	-8.70837
ట్ల	-8.70852
ంబ	-8.70921
ిస్తూ	-8.7124
▁బాబు	-8.71354
▁తయారు	-8.71482
▁లాంటి	-8.71601
కూ	-8.71648
▁కల్పించ	-8.71653
▁అక్కడి	-8.71668
▁భూమి	-8.71801
▁సభ్యులు	-8.71811
▁పార్టీకి	-8.71998
వై	-8.72019
R	-8.72087
▁వాతావరణ	-8.72115
▁అత్యంత	-8.72152
▁బ్ర	-8.7218
▁నివేదిక	-8.72236
▁విమర్శించారు	-8.72275
లోనూ	-8.72457
▁బెంగళూరు	-8.72618
▁భూ	-8.72661
▁శా	-8.72695
▁కర్ణాటక	-8.72748
ిక	-8.72893
టో	-8.72897
▁వరకూ	-8.72921
▁కనిపించ	-8.72948
▁22	-8.73135
▁భారీగా	-8.73323
▁అయినా	-8.73351
పే	-8.73381
తం	-8.73401
▁గురువారం	-8.73427
▁మాట్లాడారు	-8.73495
రోజు	-8.73702
పోయింది	-8.73833
▁పార్లమెంట్	-8.74056
▁తల్లి	-8.74145
▁మహిళా	-8.74322
▁విధంగా	-8.74519
▁లేని	-8.74685
▁సమస్యలు	-8.74728
ాలకు	-8.74933
▁సూపర్	-8.74982
▁అరెస్టు	-8.7506
▁చికిత్స	-8.7506
ుకుంట	-8.75084
▁ష	-8.75101
రూ	-8.75403
ాలంటే	-8.75601
▁రూపాయల	-8.75784
తే	-8.75874
టింగ్	-8.75877
▁తెలియ	-8.75903
▁చేస్తామని	-8.75914
▁పాల	-8.75973
▁బీబీసీ	-8.76019
▁హై	-8.76159
వారు	-8.76286
▁ప్రకటించ	-8.76489
▁పరీక్ష	-8.76565
న్నీ	-8.76583
▁ఇప్పటి	-8.76591
س	-8.76595
▁ప్రభావం	-8.7667
▁రో	-8.76688
▁ప్లాన్	-8.76704
షా	-8.76874
▁కప్	-8.76945
▁సెంటర్	-8.76988
▁కావడంతో	-8.76993
▁భక్తులు	-8.77072
డే	-8.77081
▁కాపాడ	-8.77083
▁చైనా	-8.77105
ుకొని	-8.77214
ుతుందని	-8.77613
▁తిరుమల	-8.77634
▁నరేంద్ర	-8.77786
T	-8.77851
▁کے	-8.78061
▁ప్రకటించింది	-8.78096
▁జి	-8.78218
▁ఎయిర్	-8.78234
m	-8.7837
▁ఇంత	-8.78498
▁బుధవారం	-8.78593
▁సొంత	-8.7861
▁చేసినట్లు	-8.78742
▁పాట	-8.78745
▁సాగ	-8.78766
▁వరంగల్	-8.78772
▁స్థాయిలో	-8.78993
ప్పటికీ	-8.79013
ండ్	-8.79032
▁తమకు	-8.79042
ంతో	-8.79084
ٹ	-8.79124
▁నీటి	-8.79196
▁షర్మిల	-8.79314
م	-8.79316
ఎల్	-8.7988
గం	-8.79907
ుడి	-8.79944
▁ప్రశ్న	-8.8001
▁విద్యుత్	-8.80048
▁ఈసారి	-8.80053
P	-8.80055
▁ఇవ్వాలని	-8.80112
▁పిటిషన్	-8.80132
నని	-8.80242
మె	-8.80246
▁తి	-8.80263
▁ఉన్నా	-8.80287
▁చెంద	-8.803
▁తండ్రి	-8.80406
▁A	-8.80448
▁ఊ	-8.80457
జే	-8.80509
▁జరుగుతున్న	-8.80691
టే	-8.80802
ఎన్	-8.80811
న్నా	-8.8084
▁కృష్ణ	-8.80862
an	-8.80872
▁దక్క	-8.80905
▁నే	-8.80934
▁నిరసన	-8.80951
▁రోజులు	-8.81051
▁ఇస్త	-8.81079
▁కళ్యాణ్	-8.81156
▁కారణం	-8.81169
▁ముఖ్యంగా	-8.81186
▁పొత్తు	-8.81338
▁మండిపడ్డారు	-8.81511
▁బెయిల్	-8.81515
▁అంటున్నారు	-8.81561
▁వరల్డ్	-8.81607
▁ఉప	-8.8172
ామన్నారు	-8.81747
▁సుప్రీంకోర్టు	-8.81881
▁అసలు	-8.81921
▁ఆన్	-8.81958
ందన్నారు	-8.81986
▁ఉండగా	-8.82087
▁డా	-8.82094
▁కల	-8.82142
▁నిర్వహించ	-8.82163
▁మందికి	-8.82183
▁మొ	-8.82332
▁సిరీస్	-8.82348
▁బీసీ	-8.8236
ఫ	-8.82425
▁ఎంపిక	-8.82441
డమే	-8.82515
▁రికార్డు	-8.8252
▁చేస్త	-8.82615
▁నాకు	-8.82639
ವ	-8.82675
▁విమర్శలు	-8.82682
▁సమావేశం	-8.82746
లర్	-8.82995
▁పంట	-8.83261
▁అన	-8.83291
▁చేయాలి	-8.83327
▁షేర్	-8.8338
ృ	-8.83386
▁జిల్లాల్లో	-8.83469
▁తీసుకో	-8.83512
ର	-8.83754
▁అలాంటి	-8.83826
▁పోలీసుల	-8.83848
▁గ్రూప్	-8.83851
▁క్యా	-8.83925
▁హా	-8.83985
▁ప్రయత్నం	-8.84041
▁బడ్జెట్	-8.84041
▁విషయాన్ని	-8.84044
▁జరగ	-8.84298
▁ఇబ్బందులు	-8.84312
▁రావ	-8.8439
ంపు	-8.84717
▁పది	-8.84822
▁ఉన్నట్లు	-8.8491
ంజ	-8.84965
▁పూర్తిగా	-8.85009
▁ఏప్రిల్	-8.85057
▁میں	-8.85189
▁కూ	-8.85258
▁అందించ	-8.85264
పోయిన	-8.85273
▁ఖమ్మం	-8.85284
▁చేపట్ట	-8.85289
▁21	-8.85433
▁ఇంటికి	-8.85559
▁ధరలు	-8.85774
ಾ	-8.85828
కాలం	-8.85985
జన్	-8.86073
ందు	-8.8612
▁వైద్య	-8.86177
శ్	-8.86371
▁పడి	-8.86428
▁హి	-8.86443
େ	-8.86464
▁డబ్బులు	-8.86538
▁ఒకటి	-8.86682
షి	-8.86694
స్తున్న	-8.86796
జె	-8.86835
రావు	-8.86976
▁చేసారు	-8.87146
▁ఆలోచన	-8.87225
▁సైతం	-8.87244
▁వచ్చాయి	-8.87339
▁م	-8.8748
▁ఈరోజు	-8.87606
ن	-8.87683
▁రాజ్	-8.87809
▁రాజీనామా	-8.88011
▁کی	-8.88079
ట్టి	-8.88091
▁యూ	-8.88189
జర్	-8.88258
▁సాధించ	-8.8844
▁వ్యవస్థ	-8.88566
ోందని	-8.8858
▁2019	-8.88627
తుల	-8.88683
▁ఆసక్తి	-8.8876
ాన	-8.88822
ారెడ్డి	-8.88875
▁ఇవాళ	-8.89004
నర్	-8.89025
▁ఉమ్మడి	-8.89103
ందని	-8.8912
▁అధికారి	-8.89162
▁స్థానంలో	-8.89307
▁దీన్ని	-8.89407
▁పరి	-8.89499
▁చేసుకున్నారు	-8.89583
ంట్	-8.89634
▁ప్రముఖ	-8.89733
▁మాట	-8.89736
▁ఐటీ	-8.89764
▁యాత్ర	-8.89795
M	-8.89964
▁ట్వీట్	-8.90006
▁పార్టీల	-8.90082
▁ఎక్కడ	-8.90091
▁తల	-8.90096
▁పలువురు	-8.90107
▁ముఖ్య	-8.9024
▁కావ	-8.90285
కల్	-8.90312
▁అవకాశాలు	-8.90314
▁కల్యాణ్	-8.90353
▁కాలేజీ	-8.90511
ుకుంది	-8.90516
▁కాబట్టి	-8.90612
.5	-8.90638
▁కార్యదర్శి	-8.90714
▁వర్షం	-8.90725
కె	-8.90785
పర్	-8.90834
ుకోవడానికి	-8.90835
▁గ్రామ	-8.91137
▁సమావేశంలో	-8.91141
▁అతి	-8.91251
▁అవినీతి	-8.91324
▁దిగ	-8.91328
▁విజయవాడ	-8.91333
▁శక్తి	-8.91385
▁విద్యా	-8.91544
▁లేక	-8.91776
▁పంచ	-8.92011
మెంట్	-8.92013
పె	-8.92238
ించే	-8.92448
▁ఇబ్బంది	-8.92454
ేషన్	-8.92462
▁స్కూల్	-8.92558
▁జై	-8.92602
ద్ధ	-8.92603
ిస్తే	-8.92719
▁పాలన	-8.92744
▁తీసుకున్నారు	-8.92805
▁దృష్టి	-8.92809
ెంట్	-8.9292
▁బ్యాంకు	-8.92958
▁జనవరి	-8.92972
▁గుర్తించ	-8.93038
▁ఇచ్చింది	-8.93638
▁తగ్గించ	-8.93663
రై	-8.93753
ుకోవాలని	-8.93832
▁పాకిస్తాన్	-8.94119
▁నీరు	-8.94129
▁పోలీసులకు	-8.9416
▁బీఆర్	-8.94277
హి	-8.94283
▁ఆయనకు	-8.94396
y	-8.94434
▁చెక్	-8.94457
▁స్వామి	-8.94483
▁ఫా	-8.94568
▁అయి	-8.94683
▁కం	-8.94758
▁చేస్తారు	-8.94799
▁నెలల	-8.94816
▁ఫి	-8.94866
యర్	-8.94892
నె	-8.95061
▁వేయ	-8.95068
▁పెట్టి	-8.95187
▁పోలీసు	-8.95242
▁స్థాయి	-8.95263
ిస్తారు	-8.9528
▁తప్పు	-8.9528
▁బండి	-8.95339
▁చెప్పిన	-8.95364
▁ఒకే	-8.95377
▁వ్యాప్తంగా	-8.95457
ा	-8.95491
▁సీట్లు	-8.95635
బ్బ	-8.95685
ంచి	-8.95743
▁బిల్లు	-8.95748
▁ఒ	-8.95795
▁ఎన్టీఆర్	-8.95814
▁40	-8.95957
..?	-8.95961
▁రూపాయలు	-8.95994
ూర్	-8.96016
g	-8.96018
ందా	-8.96048
▁అక్టోబర్	-8.96049
▁ఎన్నో	-8.96066
▁సభలో	-8.96113
▁వాళ్లు	-8.96174
▁డిసెంబర్	-8.96257
సె	-8.96263
▁200	-8.96279
రాజ్	-8.96847
యే	-8.96857
ుందని	-8.9686
ب	-8.96885
చు	-8.96927
▁మహిళల	-8.96971
▁క్యాప్షన్	-8.96999
▁ఆగ్రహం	-8.97105
▁ప్రేక్షకుల	-8.97211
▁కాలంలో	-8.97284
▁అందుబాటులో	-8.97288
▁వస్తుంది	-8.97343
ధి	-8.97365
▁మనం	-8.97387
▁కమిషన్	-8.97428
▁కెప్టెన్	-8.97436
▁వీటి	-8.97456
ఎఫ్	-8.97598
c	-8.97694
▁చెల్లించ	-8.97729
▁నిర్వహించిన	-8.97763
▁యాదవ్	-8.9777
▁డే	-8.9778
▁సెప్టెంబర్	-8.97881
▁పదవి	-8.97908
▁తీవ్రంగా	-8.97944
▁చేయించ	-8.98067
వె	-8.981
▁కాదని	-8.98154
▁సీబీఐ	-8.98191
D	-8.98348
▁బాధ్యత	-8.9835
ట్స్	-8.984
▁ఆలయ	-8.98428
▁లేఖ	-8.98566
▁తెలిసింది	-8.98642
▁100	-8.98648
బు	-8.98671
▁ఆధ్వర్యంలో	-8.98739
వేల	-8.9888
ారో	-8.99024
▁మార్పు	-8.99042
రాజు	-8.99052
▁ఎవరు	-8.99232
▁రైతుల	-8.99283
ినా	-8.99371
ైనా	-8.99427
▁గవర్నర్	-8.99512
▁ముగ్గురు	-8.99512
▁అమిత్	-8.99512
▁పాఠశాల	-8.99513
▁సీట్ల	-8.99638
▁ఆగస్టు	-8.99714
ారన్నారు	-8.99736
▁ఈడీ	-8.9979
స్టు	-8.99937
▁సంఘటన	-8.99966
▁ఆత్మహత్య	-9.00067
▁ప్రారంభం	-9.00122
మంది	-9.00169
▁పార్టీలు	-9.0017
ణం	-9.00204
▁ప్రారంభించ	-9.00217
▁పర్యటన	-9.00225
▁ఇం	-9.00232
▁చేస్తున్నారని	-9.00296
▁బ్యాంక్	-9.00298
▁ఆస్ట్రేలియా	-9.00402
ుతున్నాయి	-9.00806
್	-9.0081
▁ఉండాలని	-9.00972
▁ఫైనల్	-9.00976
▁ఉత్తర	-9.00981
▁28	-9.01029
▁నిన్న	-9.01049
▁సినిమాలో	-9.01051
▁ప్రెస్	-9.01076
జు	-9.01157
ొచ్చు	-9.01287
▁బోర్డు	-9.01318
స్తూ	-9.01361
▁రాజ	-9.01362
▁గుర్తించారు	-9.01365
▁అధికారుల	-9.01427
్యూ	-9.01491
▁ప్రభుత్వానికి	-9.01517
▁తిరుపతి	-9.01644
▁నియోజకవర్గంలో	-9.01698
▁షో	-9.01847
▁తొలగించ	-9.01856
▁మద్యం	-9.01893
▁మహిళలు	-9.02008
▁లోకి	-9.02018
▁రాష్ట్రాల	-9.02091
▁వివరాలు	-9.02147
▁రామ్	-9.02155
▁మధ్యాహ్నం	-9.02259
h	-9.02264
▁ఎవరి	-9.0227
▁దాఖలు	-9.02321
▁కె	-9.02349
▁సీజన్	-9.02366
▁రైతులకు	-9.02419
▁అనుమతి	-9.02465
▁తు	-9.02515
▁లక్ష	-9.02516
▁దేశం	-9.02711
ఓ	-9.0275
ేశారు	-9.02886
ాలన్నారు	-9.03008
▁తీసుకోవాలని	-9.03017
▁ఫై	-9.0303
▁చేస్తోంది	-9.03037
▁ఉన్నాయని	-9.03103
▁సంఘం	-9.03108
▁కలిగి	-9.03185
▁ప్రక్రియ	-9.03237
▁నేతల	-9.03255
▁చూపించ	-9.03284
▁చంప	-9.03403
▁ప్రాంతాల	-9.03405
▁ఉపయోగించ	-9.03428
▁అంతర్జాతీయ	-9.03467
▁ఖాన్	-9.03555
▁ఇండియన్	-9.03584
▁తె	-9.03639
▁పరిధిలో	-9.03662
▁తనను	-9.03826
▁చూసి	-9.03861
▁నిర్మాణం	-9.03886
▁రాష్ట్రాల్లో	-9.0401
▁డె	-9.04059
స్థ	-9.04103
▁అయ్య	-9.0412
▁సుమారు	-9.04163
▁అందుకు	-9.04211
▁అప్	-9.04257
ణా	-9.04291
భా	-9.04303
▁వెల్లడించింది	-9.04351
ت	-9.04462
▁అందరూ	-9.04501
▁రోహిత్	-9.0451
▁నవంబర్	-9.04549
▁న్యాయ	-9.04696
శాఖ	-9.04791
▁తీర్పు	-9.04894
▁టై	-9.05005
▁మార్	-9.05013
▁దరఖాస్తు	-9.05029
ుతున్నారు	-9.05037
▁భారతీయ	-9.05093
క్ర	-9.05124
▁చెన్నై	-9.05211
▁భద్రత	-9.0534
▁నిద్ర	-9.05451
▁వెనుక	-9.05462
ుకునేందుకు	-9.05488
▁తాగ	-9.05501
▁కొడుకు	-9.05801
▁చేస్తుంది	-9.05928
తులు	-9.06022
▁ఓవర్	-9.06075
▁అతను	-9.06239
▁వెబ్	-9.06267
▁సాయం	-9.06278
▁మూడో	-9.06289
ించింది	-9.06382
మై	-9.06427
▁ఢిల్లీలో	-9.06463
▁కుటుంబం	-9.06485
▁జన	-9.06508
▁న్యూస్	-9.06571
▁పూ	-9.066
▁సేవ	-9.0663
▁ఏర్పడ	-9.0689
▁రావడం	-9.06895
పేట	-9.0695
▁గ్రామంలో	-9.06952
▁ఆధారంగా	-9.07106
▁గుడ్	-9.07134
▁వేసి	-9.07146
▁నష్ట	-9.0729
▁జె	-9.07291
▁నో	-9.0737
పాటు	-9.07404
▁మై	-9.07425
▁వారం	-9.07639
▁రేపు	-9.07677
▁ఇచ్చే	-9.07748
▁ఏడు	-9.07771
▁కేటాయించ	-9.07813
▁23	-9.07818
▁భేటీ	-9.07826
పెట్ట	-9.07836
దర్	-9.07915
▁శర్మ	-9.07961
▁అవి	-9.08047
▁ఆదేశించారు	-9.08134
ేశ్	-9.08148
▁దక్షిణ	-9.0816
ాలనే	-9.08168
▁తెచ్చ	-9.08549
▁చట్టం	-9.08573
్యం	-9.08753
▁ప్రతిపక్ష	-9.08798
▁చిత్రం	-9.08879
▁సంక్షేమ	-9.08887
▁27	-9.08911
ఘ	-9.09091
డంలో	-9.09097
▁ప్రస్తుత	-9.09138
▁రాజు	-9.09182
▁అల్	-9.09207
▁హెచ్	-9.0925
.1	-9.09342
▁తీర	-9.09357
▁వేదికగా	-9.09379
ారనే	-9.09417
▁పంపిణీ	-9.09526
▁పథకం	-9.09648
▁లోకేష్	-9.09651
ేంద్ర	-9.09892
▁గుర్తింపు	-9.09894
▁ఒత్తిడి	-9.09894
ున్నాయి	-9.09947
▁జిల్లాలోని	-9.10086
▁సంవత్సరం	-9.1009
▁కోల్	-9.10128
ధా	-9.10143
▁నేషనల్	-9.10144
▁ఇచ్చి	-9.10231
▁పిల్లల	-9.10253
▁పేపర్	-9.10286
▁ఏర్పాట్లు	-9.10295
▁పట్ల	-9.10295
▁స్పందించ	-9.10302
లేని	-9.10374
▁నాయకుల	-9.1042
▁షాక్	-9.10627
▁ఎండ	-9.10639
▁అధిక	-9.1068
▁విశాఖ	-9.10727
▁అవార్డు	-9.10758
జన	-9.1079
ఎ	-9.10811
▁బయట	-9.10909
▁ట్రాఫిక్	-9.11006
▁అందరి	-9.11015
▁విద్యార్థులు	-9.11032
▁రష్యా	-9.11131
▁ఖాళీ	-9.11133
స్తుంది	-9.11138
▁రాష్ట్రం	-9.11174
▁నిర్మించ	-9.11203
▁వీర	-9.11216
▁క్రితం	-9.11392
▁సరైన	-9.11403
మైంది	-9.1143
▁సామాజిక	-9.11497
▁సిటీ	-9.11498
▁ప్రతీ	-9.11524
▁కృషి	-9.1163
▁దేవ	-9.11635
▁ఆర్టీసీ	-9.11649
▁ఫ్యాన్స్	-9.11743
▁ముంబై	-9.11759
▁ఆదాయం	-9.11899
▁26	-9.12213
ೆ	-9.12339
వం	-9.12366
▁విజయ్	-9.12579
▁దేశాల	-9.12586
▁S	-9.12618
▁సర్కార్	-9.12642
▁వెళ్లిన	-9.12654
▁సినీ	-9.12681
సర్	-9.12718
▁క్ష	-9.12963
▁సంగతి	-9.13269
▁సంవత్సరాల	-9.13274
▁అయింది	-9.13308
▁రై	-9.13378
▁టి	-9.13408
హ్	-9.1348
▁ఫుడ్	-9.13527
▁పెట్టారు	-9.13529
▁చెప్పింది	-9.13564
ಗ	-9.13599
▁పాత	-9.13669
▁కూడిన	-9.13704
▁మార్పులు	-9.13713
▁పరుగుల	-9.13764
▁మంత్రులు	-9.13769
▁సూ	-9.13773
▁వాయిదా	-9.1378
▁వీరి	-9.13977
▁కేంద్రంలో	-9.13983
▁మూ	-9.13984
్యు	-9.14026
▁ఐపీఎల్	-9.14035
పాల	-9.14069
▁టీమ్	-9.14075
▁ఉండాలి	-9.14105
▁కమిషనర్	-9.14292
15	-9.14329
▁పండుగ	-9.14348
▁ఎమ్మెల్యేలు	-9.14383
▁నియోజకవర్గం	-9.14396
▁ప్రారంభించారు	-9.14499
▁కిలోమీటర్ల	-9.14807
▁వచ్చారు	-9.14871
▁వార	-9.1489
र	-9.14936
▁కరీంనగర్	-9.14936
▁ఎవరూ	-9.14985
▁కనీసం	-9.15115
▁రకాల	-9.15133
▁సమర్పించ	-9.15195
▁యువత	-9.15205
▁రవి	-9.15214
▁అయ్యింది	-9.15219
.2	-9.15479
▁పర్	-9.15695
▁ب	-9.16019
▁ఇరు	-9.16043
ుకుంటున్న	-9.16151
▁యూనివర్సిటీ	-9.16237
▁ఓటమి	-9.16369
మన్	-9.16403
▁ఒక్కో	-9.16434
▁అవుతుంది	-9.16557
▁కావడం	-9.16583
▁మండల	-9.16595
▁ఫ్ల	-9.16656
▁వ్యతిరేకంగా	-9.16739
▁నుంచే	-9.16766
▁అర్థం	-9.1685
▁సీటు	-9.16875
రియా	-9.17028
▁తెర	-9.17177
నున్న	-9.17234
▁ఎదురు	-9.17236
▁మున్సిపల్	-9.1729
త్వం	-9.17295
ఫా	-9.17333
▁పిల్లలు	-9.17393
వర	-9.17494
▁రాజధాని	-9.17689
▁కొద్ది	-9.17699
▁వేశారు	-9.17743
నగర్	-9.17832
▁ఇవి	-9.17897
▁కామెంట్స్	-9.17965
వాద	-9.17971
▁నష్టం	-9.1816
థి	-9.18166
▁సబ్	-9.18193
ేవారు	-9.18197
ుత	-9.1821
▁కోహ్లీ	-9.18221
▁నిమిషాల	-9.18355
▁చాలామంది	-9.1847
▁ప్రమాద	-9.18488
▁విద్యార్థి	-9.18489
▁విన	-9.18601
▁కార్డు	-9.18613
▁తరలించారు	-9.18619
త్య	-9.18774
స్తు	-9.18785
d	-9.18906
▁చనిపో	-9.18968
▁సర్	-9.18984
▁అంతా	-9.1899
▁బ్యా	-9.19018
▁నె	-9.19082
▁హీరోయిన్	-9.19296
▁ఫిబ్రవరి	-9.19333
▁జరుగుత	-9.19393
లై	-9.19395
▁మహ	-9.19416
ండు	-9.19456
▁చంద్ర	-9.19475
ar	-9.19583
▁గౌడ్	-9.19613
▁రోడ్	-9.19617
▁అల	-9.19713
▁వేళ	-9.19819
▁రంగు	-9.19925
▁ప్రారంభ	-9.19929
సారి	-9.20088
▁నీళ్లు	-9.20104
టానికి	-9.20168
▁ఇళ్ల	-9.20217
▁పూర్	-9.2031
▁అర	-9.2033
ೇ	-9.20382
ಯ	-9.20444
▁నంబర్	-9.2056
పతి	-9.20707
▁మేం	-9.20719
▁కార్యకర్తలు	-9.20866
,000	-9.21073
▁తీసుకుంట	-9.21113
▁ఓట్ల	-9.21122
▁తరలించ	-9.21211
ైతే	-9.21234
▁శిక్ష	-9.214
ుకోవాలి	-9.21445
▁అడ్డ	-9.21536
▁నాయుడు	-9.21558
▁ఓట్లు	-9.21572
▁ప్రయత్నాలు	-9.21591
▁నిధులు	-9.21602
▁బ్యాటింగ్	-9.21634
▁హక్కు	-9.21858
కపోతే	-9.21859
వారి	-9.21961
▁ప్రజలను	-9.21976
▁వర్గాల	-9.22047
▁తీసుకుని	-9.22178
▁ప్రా	-9.22204
తారు	-9.22228
ନ	-9.22296
w	-9.22312
ైంది	-9.22375
▁ఆయా	-9.22397
▁డిప్యూటీ	-9.22451
మూ	-9.22469
▁లక్షలు	-9.22534
▁చేపట్టారు	-9.22564
▁కిషన్	-9.22574
ాక	-9.22594
▁కలిపి	-9.22613
▁కాస్త	-9.22714
▁ముందే	-9.22771
▁ఆదేశాలు	-9.22805
▁జైలు	-9.22816
▁షెడ్యూల్	-9.2301
k	-9.23049
▁చోట్ల	-9.23137
▁నిపుణులు	-9.23281
▁బు	-9.23332
▁ఉంట	-9.23375
ెన్	-9.23396
▁సూర్య	-9.23481
▁దాడులు	-9.23494
▁ఉద్యోగుల	-9.23496
▁త్వరలో	-9.23501
▁బ్లాక్	-9.23573
▁ఫస్ట్	-9.23648
▁స్వాధీనం	-9.23713
ికి	-9.23766
ుకుంటున్నారు	-9.23874
▁లలో	-9.23886
కంగా	-9.23934
తోనే	-9.23992
▁నిర్వహణ	-9.23996
▁ఉంటారు	-9.24036
▁చేసుకుంది	-9.2406
▁ఒకరు	-9.24093
▁వ్యవసాయ	-9.24136
▁చేపట్టిన	-9.24137
▁సాయి	-9.2415
▁సిద్ధ	-9.2417
▁వెళ్లే	-9.24184
▁31	-9.24204
10	-9.24207
▁అభ్యర్థులు	-9.24228
▁అమరావతి	-9.2428
▁ప్రైవేట్	-9.2428
ବ	-9.24388
▁శ్రీవారి	-9.24397
B	-9.2462
▁సాగు	-9.24675
▁ఆప	-9.24783
▁అమ	-9.24817
▁చెరువు	-9.24865
▁సాధారణ	-9.25013
▁గుజరాత్	-9.25135
▁చేర్చ	-9.25143
దో	-9.25236
▁టార్గెట్	-9.25278
▁హాస్పిటల్	-9.25278
▁2022	-9.25298
మర్	-9.25315
▁ఎన్ని	-9.25368
▁టీమిండియా	-9.25422
▁త్వరలోనే	-9.25495
▁అల్లు	-9.25503
▁వ్యాపార	-9.25541
▁నామినేషన్	-9.25565
▁స్పెషల్	-9.25565
▁కాలం	-9.25593
▁శి	-9.256
▁కన్	-9.25631
▁సారి	-9.25716
▁అంతే	-9.25743
ుండగా	-9.25769
▁యాప్	-9.25772
▁ట	-9.25793
▁కొత్తగా	-9.25833
▁టెస్టు	-9.25863
▁ఇవ్వడం	-9.25891
▁అనుకున్న	-9.25916
పోయి	-9.25922
د	-9.2593
▁బై	-9.26134
కులు	-9.26138
▁విలువ	-9.26148
▁సార్లు	-9.26256
▁అభిమానులు	-9.26314
▁C	-9.26324
▁రానున్న	-9.26406
▁వేడుక	-9.26418
▁బాధ్యతలు	-9.26422
▁అదుపులోకి	-9.26445
▁బహిరంగ	-9.26578
▁ప్రమాణ	-9.2659
రిక	-9.26699
▁ఉచిత	-9.26736
▁పద	-9.26751
▁చరిత్ర	-9.26789
▁తెలుస	-9.26837
▁ఇప్పటివరకు	-9.26841
▁సంఖ్యలో	-9.26917
▁తగ్గి	-9.26927
యింది	-9.26989
▁ఎందుకంటే	-9.27022
ందో	-9.27033
N	-9.27062
▁నిర్	-9.27064
▁గాలి	-9.27108
పోయారు	-9.27137
ః	-9.27152
▁తగిన	-9.27171
ాడ	-9.27184
యన్	-9.27231
▁2014	-9.27328
ించడం	-9.27408
▁తిన	-9.27444
▁ఇచ్చ	-9.27458
▁ఆహారం	-9.27478
▁ప్రపంచంలో	-9.27532
▁T	-9.27786
▁నిర్వహిస్తున్న	-9.27795
▁అవుత	-9.27936
▁నోటీసులు	-9.27947
న్నాయి	-9.28189
▁కాల	-9.28304
ری	-9.2842
▁ఎన్నికలకు	-9.28425
▁పనిచేస్తున్న	-9.28496
▁ఏదైనా	-9.28631
ుకుంటూ	-9.28689
బడ	-9.28782
బుల్	-9.29017
మాన్	-9.29066
▁దశ	-9.29089
ళ్ళ	-9.29134
▁అమ్మాయి	-9.29154
▁ధర్మ	-9.29161
▁చూసిన	-9.29304
స్తా	-9.29321
▁29	-9.29351
▁సభ్యుల	-9.29437
య్యారు	-9.29437
ఫి	-9.29482
కపోవడంతో	-9.2952
▁జే	-9.29552
▁اس	-9.29561
ేష్	-9.29563
▁డ్రైవర్	-9.2968
▁రాయ	-9.29695
▁దాన్ని	-9.29788
▁దానికి	-9.29806
▁మెడికల్	-9.29825
▁సమస్యల	-9.29946
▁స్పందించారు	-9.30002
▁దారి	-9.30048
▁ఉండి	-9.30131
▁పవర్	-9.30144
▁తదితరులు	-9.30163
▁ఉన్నారని	-9.30466
..!	-9.30626
▁ప్లే	-9.30692
▁కేజ్రీవాల్	-9.30729
▁భా	-9.30776
▁చర్చించ	-9.30801
▁చిరంజీవి	-9.3088
▁నేరుగా	-9.30895
▁తెలుగుదేశం	-9.30901
▁సేకరించ	-9.31032
▁సంబంధం	-9.31057
గిరి	-9.31079
▁గురి	-9.31094
▁పెరిగింది	-9.31123
▁వర్క్	-9.31151
కార	-9.31283
▁నెలలో	-9.31293
▁చేశా	-9.313
పోయాయి	-9.31308
▁విధానం	-9.31312
ఠ	-9.3135
▁ప్రయత్నించ	-9.3137
l	-9.3148
ుకుంటారు	-9.31566
▁కీ	-9.31616
చె	-9.31647
▁దాంతో	-9.31733
▁రావడంతో	-9.31739
in	-9.31769
▁లకు	-9.31793
▁దేశవ్యాప్తంగా	-9.31812
డర్	-9.31921
డో	-9.31926
▁పూజ	-9.31947
▁నారాయణ	-9.32046
▁ఫలితాలు	-9.32057
▁న్	-9.32064
▁పశ్చిమ	-9.32101
▁వ్యవహరించ	-9.32101
▁హిందూ	-9.32101
▁డై	-9.32113
▁దూరంగా	-9.32212
ಂ	-9.32212
చ్చి	-9.32236
క్షన్	-9.32295
▁టాప్	-9.32318
r	-9.32371
▁రక్షణ	-9.32408
▁క్యూ	-9.32424
▁గొప్ప	-9.3243
▁వాతావరణం	-9.32476
▁తీరు	-9.32566
▁కౌ	-9.32602
▁వేసిన	-9.32672
▁ఎకరాల	-9.32685
▁?	-9.32685
▁దెబ్బ	-9.32692
▁బాల్	-9.32703
గే	-9.32822
▁నాటికి	-9.32884
▁కొండ	-9.33022
▁లక్ష్యంగా	-9.33022
▁టెస్ట్	-9.33057
25	-9.33081
▁చేప	-9.33095
▁తాజా	-9.33127
▁వెళ్త	-9.33151
▁చిత్ర	-9.33326
స్తున్నారు	-9.33396
▁సంచలన	-9.33459
▁کو	-9.3351
40	-9.33535
▁మిగిలిన	-9.33576
▁మంజూరు	-9.33648
▁సెంచరీ	-9.33648
▁బరువు	-9.3365
▁ప్రయాణ	-9.33732
▁రు	-9.33733
తాయి	-9.33745
▁మోహన్	-9.33757
▁భక్తుల	-9.33846
▁ఆశ	-9.33937
▁పట్టణ	-9.33938
▁జనరల్	-9.33961
▁గొడవ	-9.33961
ంక	-9.3407
▁బదిలీ	-9.34117
▁ఆటో	-9.34126
▁వ్యవహారం	-9.34131
టిక్	-9.34148
▁కెమెరా	-9.34273
చర్	-9.34277
▁లోనే	-9.34353
▁బీజేపీకి	-9.34364
▁ಸ	-9.3455
ొచ్చ	-9.34578
▁కఠిన	-9.34587
▁వెళ్లారు	-9.34645
పురం	-9.34721
న్ని	-9.34759
ేది	-9.34809
▁పెట్టిన	-9.34834
▁శాంతి	-9.34857
▁వికెట్లు	-9.34885
▁అవగాహన	-9.34902
▁మిగతా	-9.34902
కపోవడం	-9.35033
▁పక్కన	-9.35179
▁జరుగుతోంది	-9.35249
▁బాల	-9.35269
▁అప్పుడు	-9.35334
▁వ్యతిరేక	-9.35355
▁గంట	-9.3538
▁అంట	-9.35384
బోతున్న	-9.35388
ాలతో	-9.35417
▁ఉండటంతో	-9.35427
▁అధికారులకు	-9.35428
▁సిద్ధం	-9.35613
హెచ్	-9.35642
▁అర్జున్	-9.35695
▁ప్రాజెక్ట్	-9.35695
▁60	-9.35744
▁ఫర్	-9.35748
▁జనం	-9.35903
▁అటు	-9.36007
▁యువ	-9.3606
30	-9.36103
సన్	-9.36142
▁ధ	-9.36179
▁కనిపిస్తోంది	-9.36189
▁సెల్	-9.36198
▁కార్మికుల	-9.36222
▁ఆరోగ్యం	-9.36261
లింగ్	-9.36273
▁చూస్త	-9.36274
ల్డ్	-9.36292
▁యుద్ధం	-9.36295
▁డ్	-9.36342
ెన్స్	-9.36404
12	-9.36415
▁సైట్	-9.36425
E	-9.36466
▁గుండె	-9.36494
స్తే	-9.36532
▁ప్రాధాన్యత	-9.36572
▁సరి	-9.36581
▁వేస	-9.36603
▁మోసం	-9.36626
ನ	-9.36666
▁విద్యార్థుల	-9.36675
▁చేసుకో	-9.36702
వారికి	-9.36767
▁ప్రెసిడెంట్	-9.36815
▁అధికారం	-9.36867
▁ఉద్యోగం	-9.36877
లూ	-9.36938
▁న్యాయం	-9.37035
టె	-9.37038
ిస్తుంది	-9.37042
▁నారా	-9.3706
ర్లు	-9.37136
▁స్టేట్	-9.37248
ధ్య	-9.37249
▁జరుగుతుంది	-9.37261
బె	-9.37269
▁బాధ	-9.37289
▁వన్డే	-9.37309
▁కొంతమంది	-9.37324
ఫీ	-9.37382
▁విశ్వ	-9.37383
▁కార్యక్రమం	-9.37415
▁ఇస్తున్న	-9.37448
▁జులై	-9.37467
▁చేరుకున్న	-9.37535
▁మానవ	-9.37563
చా	-9.37566
▁కౌంటర్	-9.37623
▁అభి	-9.37625
▁అధికారులను	-9.37747
యోగ	-9.37799
▁సెక్షన్	-9.37809
▁బుక్	-9.37889
▁డేటా	-9.37997
▁విద్య	-9.3807
▁ఆగ	-9.38144
▁పరిస్థితులు	-9.38146
వచ్చని	-9.38183
▁ఉండటం	-9.38212
▁హిట్	-9.38225
▁మేము	-9.38272
▁తమిళ	-9.38303
▁డబుల్	-9.38458
▁తొలిసారి	-9.38473
▁తీసుకోవడం	-9.38581
ార్థ	-9.38587
▁నగర	-9.38599
▁టీటీడీ	-9.38601
మార్	-9.38632
▁ఒక్కసారి	-9.38635
▁వేగంగా	-9.38642
ారంటూ	-9.38645
టంతో	-9.38647
▁ఆట	-9.38669
▁సరఫరా	-9.38765
▁వారిలో	-9.38811
▁అర్	-9.38832
▁చేయనున్నారు	-9.38847
▁మీటింగ్	-9.38851
▁బొ	-9.38981
▁సంస్థలు	-9.39153
▁పుట్ట	-9.3925
▁గెలుపు	-9.39258
షీ	-9.39285
▁ప్రభుత్వాన్ని	-9.39342
▁వేసింది	-9.3935
ତ	-9.39401
▁హోదా	-9.39471
▁ت	-9.39499
త్తు	-9.39716
▁ముందుగా	-9.39747
▁ఫోటో	-9.39774
▁ఎక్క	-9.39836
▁పెరిగి	-9.39888
▁ప్రకటించిన	-9.39937
▁ప్రత్యేకంగా	-9.39951
▁లీ	-9.40082
▁1,	-9.40131
▁ఏకంగా	-9.40159
ار	-9.40188
▁కారణమ	-9.40222
19	-9.40277
▁చే	-9.40284
▁ఎప్పుడూ	-9.40285
▁చెయ్య	-9.40293
ిస్తా	-9.40298
ళి	-9.40309
రుగు	-9.40331
▁వెళ్తున్న	-9.40353
▁తెగ	-9.40427
కాయ	-9.40455
▁వివేక్	-9.40587
▁వేలు	-9.40608
▁సృష్టించ	-9.40623
▁ఉద్యోగ	-9.40844
▁స్థానికులు	-9.40847
▁پر	-9.40878
▁నిజామాబాద్	-9.40921
▁హౌస్	-9.40921
▁ఎత్తున	-9.40971
ಲ	-9.41027
▁నెట్	-9.41035
ివే	-9.41042
▁బిజెపి	-9.41088
▁తయారీ	-9.41089
డుగు	-9.41136
▁చట్ట	-9.41245
▁అవసరమైన	-9.4128
▁హెచ్చరించారు	-9.41312
కొండ	-9.41396
▁చేస్తున్నట్లు	-9.41442
ందే	-9.41491
రాలు	-9.41494
▁అభ్యర్థుల	-9.41527
▁నిర్మాణ	-9.41588
▁హె	-9.4162
▁తీసుకెళ్ల	-9.41774
▁పట్టించుకో	-9.41795
▁వీటిని	-9.41873
▁రూపొందించ	-9.42015
▁పరిధిలోని	-9.42016
▁రోజున	-9.42087
య్యే	-9.42098
▁హరీశ్	-9.42101
▁వంద	-9.42106
▁కావాలని	-9.42154
ండా	-9.42165
తన	-9.42234
▁చేసుకుని	-9.42287
▁దర్శకుడు	-9.42287
▁వస్తుందని	-9.42295
▁వ్యాఖ్యానించారు	-9.42312
▁స్పీకర్	-9.42441
▁కాం	-9.42526
▁సర్వ	-9.42564
రాల	-9.4257
▁ఎస్సీ	-9.42572
ీకరణ	-9.42746
▁అయోధ్య	-9.42782
▁సికింద్రాబాద్	-9.42782
▁రాష్ట్రంలోని	-9.42783
▁రోజులుగా	-9.4279
▁కుట్ర	-9.42807
▁కార్యకర్తల	-9.42829
▁మీటర్ల	-9.42838
డె	-9.42908
నున్నట్లు	-9.42951
▁లిక్కర్	-9.42953
▁లభించ	-9.43002
▁ప్యా	-9.43029
▁పడింది	-9.43045
▁జరిగి	-9.43086
ز	-9.43124
▁అధికారిక	-9.43178
వైపు	-9.43202
సో	-9.43229
▁జస్టిస్	-9.43295
▁చెల్ల	-9.43328
▁ఆమెను	-9.43382
▁జీవితంలో	-9.43406
er	-9.43409
▁అయ్యాయి	-9.43444
▁ప్రయాణం	-9.43511
▁న్యూ	-9.43547
▁పార్లమెంటు	-9.43591
▁ఫుల్	-9.4362
▁మెట్రో	-9.4364
ిస్తోంది	-9.4365
▁ఒకరి	-9.43673
్ని	-9.43765
▁భావిస్తున్నారు	-9.43844
▁చొప్పున	-9.43985
▁ఉత్పత్తి	-9.43986
▁బిడ్డ	-9.43995
▁విలువైన	-9.4402
▁వరుసగా	-9.44053
▁ప్రాణ	-9.44054
▁నియమించ	-9.44063
ಸ್	-9.44063
▁మీకు	-9.44107
▁అందరికీ	-9.44119
▁کا	-9.44161
క్ట్	-9.44165
కింగ్	-9.44168
టన్	-9.4418
స్వామి	-9.44182
రాం	-9.44249
▁చేయగా	-9.44275
▁హాజరు	-9.44382
▁నాటి	-9.44409
▁సమాధానం	-9.44457
▁సత్య	-9.4447
▁ఎటువంటి	-9.44513
ుకుంటే	-9.4452
al	-9.44555
ల్ని	-9.44584
▁సర్కారు	-9.44686
.30	-9.44751
ణ్	-9.44802
▁న్యూఢిల్లీ	-9.44844
▁మేకర్స్	-9.44854
▁స్థానాల్లో	-9.44877
▁తీసుకుంది	-9.4489
వల్ల	-9.44936
▁డ్రగ్స్	-9.4494
▁ఇక్కడి	-9.44963
ప్పటి	-9.45026
▁బంగ్లాదేశ్	-9.45027
▁P	-9.45042
ంటున్నారు	-9.4507
▁ఆహార	-9.4509
లేరు	-9.45115
ୁ	-9.4513
▁రాజకీయాల్లో	-9.45158
▁ఆఫీసర్	-9.45174
ش	-9.4518
▁బాలిక	-9.45233
▁కుల	-9.45288
▁ఎఫ్	-9.45318
ుంటారు	-9.45345
⁭	-9.45377
▁నెలకొంది	-9.45377
▁సమీపంలో	-9.45426
▁గి	-9.45507
▁చేతిలో	-9.45533
▁నటి	-9.45558
▁చేయడంతో	-9.45559
▁2018	-9.45579
▁పన్ను	-9.45596
▁ఎస్పీ	-9.45633
▁డీకే	-9.45681
▁వేదిక	-9.45774
▁దో	-9.45789
పోతున్న	-9.45814
▁వ్యక్తుల	-9.46053
▁నల్గొండ	-9.46081
▁బయటపడ	-9.46104
▁లె	-9.46128
▁వెంట	-9.4625
ଲ	-9.46257
▁హోం	-9.4629
ಕ	-9.46293
▁ఇంటర్	-9.4643
▁పరిష్కరించ	-9.46434
▁మొబైల్	-9.46434
ార	-9.46613
▁వెండి	-9.46653
▁గెలిచిన	-9.46763
ారన్న	-9.46763
▁షూటింగ్	-9.46789
▁ఇద్దరి	-9.4679
వాళ్లు	-9.4685
కాల	-9.46921
▁ఇప్పటికీ	-9.46954
▁సంపాదించ	-9.46967
▁డెవలప్	-9.46983
▁కష్ట	-9.46987
▁చెప్పి	-9.47008
ರ್	-9.47014
▁మీడియాతో	-9.47073
▁గ్రామాల	-9.4712
▁టిక్కెట్	-9.47146
▁కామారెడ్డి	-9.47146
▁స్థానం	-9.47146
▁ఆల్	-9.4716
▁ప్రసాద్	-9.47176
▁పడుతున్న	-9.47186
▁లెక్క	-9.47262
▁కాల్	-9.47381
▁జనాభా	-9.47503
▁జరుప	-9.4753
బర్	-9.47554
▁చుట్టూ	-9.4756
▁షిప్	-9.47615
▁టెక్నాలజీ	-9.47682
▁నోటిఫికేషన్	-9.47682
▁కరోనా	-9.47683
▁పూర్త	-9.47683
▁వివాదం	-9.47685
బెట్ట	-9.47764
▁మహారాష్ట్ర	-9.47813
▁చేసినా	-9.47875
లేక	-9.47948
▁అభిమానుల	-9.47997
▁వార్తలు	-9.48009
▁ఆవేదన	-9.48042
▁అవుతున్న	-9.48081
▁వ్యక్తులు	-9.48087
▁గౌరవ	-9.48191
U	-9.48222
▁రవాణా	-9.48222
▁ఇన్నింగ్స్	-9.48222
▁నలుగురు	-9.48222
▁అతడి	-9.48231
▁ప్రవేశపెట్ట	-9.48271
▁ఫైర్	-9.48278
నాథ్	-9.48303
ରେ	-9.48363
▁వేస్త	-9.48374
▁ఇండస్ట్రీ	-9.48402
▁మానసిక	-9.48404
▁వ్యక్తిగత	-9.48408
▁సంస్థల	-9.48433
ుతారు	-9.48434
▁సమస్యలను	-9.48445
▁ఉద్యోగులు	-9.48454
డాన్ని	-9.48544
▁టె	-9.48573
▁కోర్టులో	-9.48578
ాలంటూ	-9.48587
▁సంబంధిత	-9.48589
▁నాడు	-9.48609
▁M	-9.48622
నున్నాయి	-9.4865
▁ల్	-9.48684
▁ఉంటున్న	-9.4875
కూడదు	-9.48768
▁ప్రియ	-9.48812
▁భావించ	-9.48816
▁పరిశ్రమ	-9.48867
డెన్	-9.48891
▁ఓడి	-9.48936
▁బౌలింగ్	-9.48951
▁వర్గాలు	-9.49
▁మధు	-9.49014
పోయే	-9.49063
▁విష	-9.4909
సార్లు	-9.4912
▁ج	-9.49225
▁ఆదేశాల	-9.49265
సింగ్	-9.49275
గ్ర	-9.49298
▁దిశగా	-9.4931
▁చూస	-9.49323
ంక్	-9.49361
ేసింది	-9.4937
▁సహాయ	-9.49393
▁వివరాల	-9.49409
▁ముఖ్యమైన	-9.49424
▁విచారణకు	-9.49451
▁సక్సెస్	-9.49492
యత్	-9.49498
▁మహిళలకు	-9.49552
▁చర్చలు	-9.49568
n	-9.49607
▁జరగనున్న	-9.49621
▁నర్స	-9.49623
ుంటాయి	-9.49639
▁టాక్	-9.49668
▁దూరం	-9.49669
▁ప్రొఫెసర్	-9.49675
▁అకౌంట్	-9.49722
▁రెడీ	-9.4977
దం	-9.49859
▁తప్పించ	-9.4986
▁నాయకుడు	-9.49861
స్థాన	-9.49873
▁స్ట	-9.49894
▁లేదన్నారు	-9.49933
▁కాలనీ	-9.4994
▁తమిళనాడు	-9.50016
▁థియేటర్	-9.50042
▁రాజస్థాన్	-9.50042
▁బైక్	-9.50165
▁మొదట	-9.50168
▁భవన్	-9.50196
▁అయ్యే	-9.50206
▁బాలీవుడ్	-9.50225
▁టౌన్	-9.50226
▁వాటర్	-9.50232
▁పూజలు	-9.50272
మయ్య	-9.50383
▁ప్రణాళిక	-9.5041
▁ట్రంప్	-9.5041
▁మిషన్	-9.50498
▁ఆమెకు	-9.50517
▁పాల్గొన	-9.50555
▁తేల	-9.50566
▁భూముల	-9.50588
▁టాలీవుడ్	-9.50594
▁నగదు	-9.50595
త్రి	-9.50644
▁గోదావరి	-9.50779
▁థ	-9.50821
▁మొదలు	-9.50868
▁ఏక	-9.51
▁సాధించిన	-9.51051
వాళ్ల	-9.51116
▁2021	-9.51176
▁అందుబాటులోకి	-9.51205
ధ్	-9.5121
▁శుభ	-9.51353
▁కానుంది	-9.51358
▁వర్	-9.51389
▁ఉందన్నారు	-9.51427
వరం	-9.515
▁చీ	-9.51689
▁ఫ్యామిలీ	-9.51708
▁యూనిట్	-9.51733
ల్లి	-9.51761
▁రాక	-9.51774
▁కల్	-9.51785
▁వివరాలను	-9.51898
▁పాప	-9.51938
▁పోరాడ	-9.52013
▁క్రికెటర్	-9.52083
▁పరిశోధన	-9.52083
▁అన్	-9.52093
▁బల	-9.5213
▁అత్యధిక	-9.52139
ేశ	-9.52193
▁హో	-9.52193
b	-9.52229
▁కర్ణాటకలో	-9.52262
▁ప్రభాకర్	-9.5227
▁సహాయం	-9.52273
త్రా	-9.52427
▁మారి	-9.52449
▁సెంట్రల్	-9.52458
▁పోరాటం	-9.52499
▁చిక్క	-9.52506
▁అనుకూలంగా	-9.52571
▁కెరీర్	-9.52647
▁బే	-9.52659
మ్స్	-9.52788
▁బిగ్	-9.52812
▁హయాంలో	-9.52835
గ్రహ	-9.52838
▁కార్పొరేషన్	-9.53024
▁ప్రాణాలు	-9.53035
▁భర్తీ	-9.53148
▁తదితర	-9.53166
ాలన్న	-9.53169
▁పాస్	-9.53182
▁శంకర్	-9.53209
వడం	-9.53232
▁వికెట్	-9.53246
▁మెగా	-9.53253
▁వరుస	-9.5333
L	-9.53333
ହ	-9.53403
వని	-9.53449
▁బ్యాటర్	-9.53503
▁ట్విట్టర్	-9.53593
▁పంజాబ్	-9.53593
▁పాక్	-9.53647
ರು	-9.5365
▁పరీక్షలు	-9.53761
▁మెదక్	-9.53785
▁దాడుల	-9.53807
▁టైమ్	-9.53858
నేది	-9.54035
ారావు	-9.5411
%	-9.54166
▁పోర్టు	-9.54169
▁వేడి	-9.54257
▁పెద్దగా	-9.54266
▁రద్దీ	-9.5455
▁షాపు	-9.54595
▁స్టా	-9.54596
▁గెలవ	-9.54656
హం	-9.54672
▁వివాహ	-9.54734
▁ఆఫీస్	-9.54743
య్యాయి	-9.5483
O	-9.54873
▁రూమ్	-9.54911
▁పంచాయతీ	-9.54934
▁మల్ల	-9.54986
ినట్టు	-9.54997
▁నిలిచింది	-9.55017
▁ఛ	-9.55073
▁ఎప్పుడు	-9.55192
ద్దు	-9.55255
ాయన్నారు	-9.55258
లేదన్నారు	-9.55259
▁ప్లాట్	-9.55268
▁యువతి	-9.55278
▁దాట	-9.55303
▁నాని	-9.55386
▁అవుతోంది	-9.55397
▁హరి	-9.55433
ేసి	-9.55475
ఫర్	-9.55529
▁చర్యల	-9.55633
దర్శన	-9.55651
▁క్రి	-9.55668
▁బృందం	-9.5568
▁వ్య	-9.55685
▁పోర్ట్	-9.55713
ాల్సిందే	-9.55717
▁జీవిత	-9.55718
ూరి	-9.55724
▁వయసు	-9.55733
▁అస	-9.55777
▁ఓటర్ల	-9.55853
▁అక్కడే	-9.55857
▁పోస్టు	-9.5596
▁కిలో	-9.55965
v	-9.55993
జ్జ	-9.56041
వరకు	-9.56069
▁గ్రాముల	-9.56107
వార్	-9.56137
▁సన్	-9.56226
▁చేరారు	-9.56293
▁చూస్తే	-9.56294
▁శ్రీలంక	-9.56294
▁నిర్మాత	-9.56295
.10	-9.56374
▁మాకు	-9.56377
ాపూర్	-9.56402
▁అందుకున్న	-9.56446
▁మొక్క	-9.56447
స్థాయి	-9.56465
▁పాకిస్థాన్	-9.56489
▁జయ	-9.56552
▁ప్రొ	-9.56581
G	-9.56634
ళ్	-9.56647
ొక్క	-9.56657
▁పార్టీని	-9.56663
▁నివాసం	-9.56665
.3	-9.56682
ڈ	-9.56685
▁అంగీకరించ	-9.56685
▁నియోజకవర్గాల్లో	-9.56762
▁రంగ	-9.56798
▁ఓపెన్	-9.56883
▁ట్రాన్స్	-9.56896
▁మొదలైంది	-9.56897
▁దీప	-9.56929
▁నల్ల	-9.56987
▁తీసుకునే	-9.57002
▁ఎన్నిక	-9.57079
▁ఉపాధి	-9.57079
▁ఒకవేళ	-9.57079
▁పట్టు	-9.5708
▁సవాల్	-9.57165
పూ	-9.57183
▁ఇండ్ల	-9.57196
▁సినిమాలు	-9.5723
▁పెండింగ్	-9.57276
▁ఎంట్రీ	-9.57276
▁హోటల్	-9.57278
▁చెబుతున్న	-9.57284
▁ఎవరైనా	-9.57286
పడ్డ	-9.57354
నాయ	-9.57402
▁జిల్లాల	-9.5747
▁రచయిత	-9.57474
▁దొంగ	-9.57513
▁వైద్యులు	-9.57545
▁పక్ష	-9.57548
▁నిర్ణయించ	-9.57625
क	-9.57671
▁పక్క	-9.57687
▁గ్రామానికి	-9.57716
60	-9.57793
▁ఇస్తామని	-9.57828
మం	-9.57864
▁ఆడియన్స్	-9.5787
▁రాజ్యసభ	-9.57872
▁జంట	-9.57933
ిరెడ్డి	-9.57947
▁ఏదో	-9.58009
ق	-9.58069
▁ఆపరేషన్	-9.58077
وں	-9.5819
▁గె	-9.58245
▁అదానీ	-9.58269
▁కుమారుడు	-9.5829
th	-9.58296
పోతుంది	-9.583
స్తోంది	-9.58443
▁సాధారణంగా	-9.58453
▁నది	-9.5847
▁పాటించ	-9.58557
▁ఆఫీసర్లు	-9.58635
ع	-9.58641
ర్డ్	-9.58645
▁అమెరికాలో	-9.58798
70	-9.58842
▁అంగ	-9.5912
కల	-9.59123
▁ఉద్యమ	-9.59228
▁తరఫున	-9.5923
▁ప్రచారంలో	-9.59289
ుండటంతో	-9.59348
▁ఉద్యోగాల	-9.59424
▁మరొక	-9.59441
ినప్పుడు	-9.59444
۔	-9.59464
▁చెప్పుకొచ్చారు	-9.59472
▁గ్రీన్	-9.59472
ుతాయి	-9.59536
యిన	-9.59591
▁అంశం	-9.59605
▁ఫామ్	-9.59629
▁పేద	-9.59641
త్వ	-9.59643
▁పాదయాత్ర	-9.59674
▁క్లారిటీ	-9.59674
ేశ్వర	-9.59718
ీయ	-9.59729
▁యు	-9.59754
▁మీదుగా	-9.598
ులకు	-9.59807
▁పెరుగుతున్న	-9.59811
▁చూస్తున్న	-9.59863
▁దానిపై	-9.59902
▁ప్రయాణికుల	-9.60022
▁తే	-9.60025
▁కరెంట్	-9.60092
▁సైబర్	-9.60098
▁యుద్ధ	-9.60142
▁యూపీ	-9.60147
▁చేరిన	-9.60192
▁సముద్ర	-9.60229
▁సెక్రటరీ	-9.60282
▁ఈసీ	-9.60287
▁వెల్లడించ	-9.60334
▁నిజ	-9.60357
▁భాష	-9.60361
మన	-9.60398
▁ఏరియా	-9.60437
▁త్వరగా	-9.60486
▁సిద్ధంగా	-9.60502
▁పిల్ల	-9.60511
రంగ	-9.60547
త్తి	-9.60621
ుకున్నాడు	-9.60655
శాస్త్ర	-9.60684
▁పరిశీలించారు	-9.60687
▁సరిహద్దు	-9.6069
▁విదేశీ	-9.6069
▁వినిపించ	-9.60692
▁అండగా	-9.60693
▁వర్గం	-9.60789
▁హీరోగా	-9.60841
▁అంచనాలు	-9.60859
▁వర్ష	-9.60863
▁అడుగు	-9.60865
▁ఉద్యోగాలు	-9.60866
▁ఫ్రీ	-9.60933
▁పనిచేయ	-9.60946
▁కొనసాగుతోంది	-9.60947
▁దిగారు	-9.61031
కార్	-9.61059
▁ధన	-9.61075
▁నమ్మకం	-9.61105
▁బరిలోకి	-9.6114
99	-9.61162
▁భాగ	-9.61169
ారం	-9.61214
▁అప్పగించ	-9.61242
▁సోమ	-9.61258
వారం	-9.61281
▁విచారించ	-9.61309
▁జరిగిందని	-9.61322
▁ర్యాలీ	-9.61338
▁పరిస్థితుల్లో	-9.61356
▁70	-9.61367
▁భట్టి	-9.61378
▁ప్రమాదంలో	-9.61411
దారుల	-9.61418
▁నేటి	-9.61431
ج	-9.61497
▁రుణమాఫీ	-9.6151
తంగా	-9.61523
బాబు	-9.6155
▁ఆద	-9.61587
▁పారి	-9.6164
▁ట్ర	-9.61658
▁హాట్	-9.61668
▁నవ	-9.61677
న్నర	-9.61705
▁ఫలితాల	-9.61714
▁గ్రౌండ్	-9.61719
▁ప్రియాంక	-9.61722
▁ఓడించ	-9.61821
▁వర్మ	-9.61835
స్తారు	-9.61936
▁బలంగా	-9.61974
▁అధ్యక్ష	-9.61998
▁జోన్	-9.62064
▁سے	-9.62149
▁నియోజకవర్గ	-9.62153
▁పడే	-9.62214
▁నిర్వహిస్త	-9.62214
▁విషయంపై	-9.62216
▁ఆత్మ	-9.62238
ామ	-9.62239
డ్స్	-9.62246
దేశం	-9.62324
▁వహించ	-9.62379
▁ఎత్తు	-9.62405
ف	-9.62421
ోన్న	-9.6245
▁మేర	-9.62481
▁జీవితం	-9.62495
▁చూడాలి	-9.62505
▁మేనిఫెస్టో	-9.62546
▁అంతేకాదు	-9.62546
▁తలెత్త	-9.62558
▁సమీక్ష	-9.62561
▁అగ్ర	-9.62587
శ్వాస	-9.62663
▁కామెంట్	-9.62676
▁టెక్	-9.627
ెం	-9.62713
ేసిన	-9.62743
▁نے	-9.62796
am	-9.62843
▁చేశామని	-9.6286
▁రెడ్డికి	-9.62894
▁అనారోగ్య	-9.62945
సర	-9.63031
శం	-9.63057
▁ఇందుకు	-9.63119
▁తరగతి	-9.63172
▁అదనపు	-9.63172
లన్నీ	-9.63211
▁వినియోగించ	-9.63241
థ్	-9.63491
لی	-9.63515
▁నిర్ణయాలు	-9.63523
▁లీడర్లు	-9.63566
ెల్	-9.63592
▁దర్శనం	-9.63598
▁నెంబర్	-9.63599
ుడిగా	-9.63666
▁పంపించ	-9.63707
ಮ	-9.63747
▁గ్ర	-9.63754
▁మత	-9.63755
▁پ	-9.638
ಾಗ	-9.63822
▁ప్లేయర్	-9.64033
▁కనిపిస్త	-9.64117
నింగ్	-9.64139
వాల్	-9.64142
▁కంపెనీలు	-9.64172
▁ఫీ	-9.64186
▁ప్రవేశ	-9.64216
▁ఉండదు	-9.64266
▁నటించ	-9.64272
▁ఫోర్స్	-9.64333
▁సెట్	-9.64358
▁వసూలు	-9.64437
▁స్వీకరించ	-9.64438
▁పాల్	-9.64456
▁పల్లి	-9.64463
ులను	-9.64543
▁విజ్ఞప్తి	-9.64649
▁నూతన	-9.64649
▁గల	-9.64769
▁గొ	-9.64786
▁సెలవు	-9.64816
లైన	-9.64816
▁B	-9.64823
▁నడి	-9.64841
▁ముందస్తు	-9.64862
▁వస్తున్నాయి	-9.64914
▁కోచ్	-9.64983
▁కొన	-9.65002
ొద్దని	-9.65045
▁విడత	-9.65079
ఉ	-9.65098
▁జరగనుంది	-9.65122
▁ఘటనలో	-9.6526
ప్పు	-9.65261
▁పార్	-9.65334
యాల	-9.65373
▁కార్యక్రమాల	-9.65417
▁తేల్చ	-9.65423
▁ఆశ్చర్య	-9.65503
మన్నారు	-9.65522
▁ప్రశాంత్	-9.65544
ున్నారని	-9.65599
▁శరీరంలో	-9.65609
సిస్	-9.65621
▁నీటిని	-9.6563
▁ముస్లిం	-9.65675
▁వర	-9.65682
▁పుష్ప	-9.65726
▁స్ప	-9.65745
గూడ	-9.65798
ళా	-9.65841
గుల	-9.65857
▁జీవ	-9.65891
▁ఉన్నప్పుడు	-9.65906
బే	-9.65929
▁శని	-9.6597
▁చల్ల	-9.65996
▁80	-9.66013
కుమార్	-9.66051
▁తక్కువగా	-9.66101
▁మిస్	-9.66129
▁బ్రేక్	-9.6615
▁తుది	-9.66152
▁కార్యక్రమాలు	-9.66168
ుడిని	-9.66283
▁వెంకట్	-9.66295
▁తప్పుడు	-9.66313
▁ఆరా	-9.66368
నియా	-9.66385
ుంటే	-9.66476
▁కేబినెట్	-9.6658
▁కూతురు	-9.6658
▁ఆలోచించ	-9.66581
▁టైటిల్	-9.66581
రూప	-9.66583
▁దశలో	-9.66702
▁శిక్షణ	-9.6675
▁జల	-9.66774
▁ఫె	-9.66781
▁విరాట్	-9.66812
▁వల్లే	-9.66904
కారం	-9.6695
▁నేతృత్వంలో	-9.67015
▁ప్రభాస్	-9.67015
▁దీనిని	-9.67113
▁బట్టి	-9.67181
▁పాల్గొన్న	-9.67187
▁ఖరారు	-9.67235
▁వాదన	-9.67236
▁0	-9.67272
▁వచ్చిందని	-9.67292
ంగి	-9.67323
▁త్రి	-9.67383
▁పదేళ్ల	-9.67388
▁సిద్ద	-9.67414
▁నాయకత్వం	-9.67415
▁ସ	-9.67426
▁ఖాతా	-9.67437
▁నిబంధనల	-9.67437
తను	-9.67452
▁పెద్దపల్లి	-9.67493
▁ప్రాంతం	-9.675
టివ్	-9.67579
ాపురం	-9.67587
యంలో	-9.67655
▁పెట్టుబడి	-9.6767
▁సీపీ	-9.67675
టరీ	-9.67686
▁జెండా	-9.67687
▁మంచిది	-9.67692
on	-9.67757
▁ఆఫర్	-9.678
▁నెలల్లో	-9.67811
▁దేశంలోని	-9.67815
▁విద్యార్థులకు	-9.67816
▁తల్లిదండ్రులు	-9.67844
▁అప్పట్లో	-9.67891
▁అనుకూల	-9.67978
నుంచి	-9.67987
▁రక్త	-9.68002
▁గెలిచి	-9.68021
▁డేట్	-9.68043
గర్	-9.68086
▁రెవెన్యూ	-9.68109
▁ధీమా	-9.68109
▁వ్యా	-9.68113
▁టా	-9.68113
ాత్మక	-9.68121
▁రికార్డ్	-9.68163
▁జగిత్యాల	-9.68329
▁కుటుంబానికి	-9.6842
సై	-9.68483
▁పడ్డ	-9.68546
یا	-9.68591
▁విన్న	-9.68616
▁టీచర్	-9.68734
▁ముక్క	-9.68752
▁అటవీ	-9.68772
▁పోస్టర్	-9.68799
▁ఎదుర	-9.68831
వద్దని	-9.68895
▁లేవు	-9.68943
▁అలీ	-9.68943
▁గుంటూరు	-9.68993
▁టిడిపి	-9.68993
▁మాట్లాడిన	-9.69026
▁రాజకీయాలు	-9.69035
▁మోస	-9.6914
▁లింగ	-9.69151
ట్టే	-9.69164
▁ప్లాంట్	-9.69225
▁హెడ్	-9.69232
▁నన్ను	-9.69236
▁ఆమోదం	-9.69251
▁అను	-9.69314
▁కదా	-9.69319
▁N	-9.69363
▁జరిగాయి	-9.69368
▁టీవీ	-9.69415
▁సిద్దిపేట	-9.69438
▁విష్ణు	-9.69438
▁తీస	-9.69499
▁ప్రదర్శన	-9.69503
▁వద్దకు	-9.69554
▁నేర	-9.69583
▁కోట్లకు	-9.69586
▁తేలింది	-9.69599
చేయ	-9.69618
▁పొడి	-9.69667
▁యాక్షన్	-9.69692
▁పర	-9.69694
ున్నా	-9.69797
▁ప్రశ్నించ	-9.69833
▁మౌ	-9.69855
▁కేరళ	-9.69871
▁గ్యాస్	-9.69872
ತ	-9.69878
ೀ	-9.69884
▁చేశ	-9.69884
▁సింగరేణి	-9.69884
▁క్యాన్సర్	-9.69885
V	-9.69952
▁స్ట్ర	-9.69999
▁పున	-9.70103
▁సౌ	-9.70104
▁ప్రదేశ్	-9.70109
▁వారిపై	-9.70138
▁తీసి	-9.70158
▁రోజూ	-9.70173
▁నిర్మించిన	-9.7018
80	-9.70201
▁ఆఫీసు	-9.70208
చ్చిన	-9.70281
▁జూనియర్	-9.70333
▁గృహ	-9.70334
▁భారతదేశంలో	-9.7043
▁వీరు	-9.70439
▁వందల	-9.70516
▁భద్రతా	-9.70548
దారు	-9.70554
▁రాశారు	-9.7056
▁ಅ	-9.70575
▁అన్నీ	-9.70737
ان	-9.70753
▁దూర	-9.70773
▁కుమార్తె	-9.70785
▁సాధించింది	-9.70886
▁ಹ	-9.7095
▁కార్యాలయం	-9.70986
▁ప్రచార	-9.71008
▁హాజరయ్యారు	-9.7102
▁కొనసాగుతున్న	-9.71059
▁చేస	-9.71098
▁ఉండేది	-9.71114
వ్యాప్తంగా	-9.71149
▁కార్యాలయంలో	-9.7124
▁కర	-9.71241
▁అభ్యర్థిగా	-9.71275
▁అడిగ	-9.71303
పద	-9.7141
▁చేసుకుంట	-9.71452
ଣ	-9.71465
▁ప్రతిపాదన	-9.71465
▁దీక్ష	-9.7149
▁45	-9.71587
▁రెడ్డిని	-9.7164
▁సీసీ	-9.71648
దల	-9.71687
▁35	-9.71688
▁చెలరేగ	-9.71692
▁సహకరించ	-9.71694
▁పెట్టుకున్న	-9.71697
▁కృష్ణా	-9.71706
23	-9.7173
▁రెడ్	-9.71743
▁వెనక	-9.71892
▁చెప్పాడు	-9.71895
ೂ	-9.71921
▁మిలియన్	-9.71937
▁చేయాల్సి	-9.71944
▁షె	-9.71995
▁నాయక్	-9.72048
▁చెబుత	-9.72051
ందనే	-9.72056
▁కోడ్	-9.72095
మొ	-9.72098
▁చేసిందని	-9.72138
▁ఈవెంట్	-9.72154
▁కొట్టి	-9.7224
11	-9.72294
యాన్	-9.72307
పోవడం	-9.72365
▁అర్హత	-9.72379
▁ధర్నా	-9.72381
▁రక్షించ	-9.72387
▁ఇరాన్	-9.72426
▁ఆర్డర్	-9.72448
▁తీసుకొచ్చ	-9.7245
▁గ్రామాల్లో	-9.72514
ಡ	-9.72572
▁س	-9.72591
▁ప్రవీణ్	-9.72609
▁పసుపు	-9.72609
▁స్థిర	-9.72635
శాతం	-9.72675
▁సేవలు	-9.72695
▁జన్మ	-9.72702
▁పథకాల	-9.72733
▁ఆదిలాబాద్	-9.72839
ెత్త	-9.72891
▁రాలేదు	-9.7295
▁రాష్ట్రానికి	-9.72964
▁సాంగ్	-9.72975
▁వర్షాల	-9.73
పించ	-9.73006
▁ప్రి	-9.73061
▁పోషించ	-9.73084
▁రాబోయే	-9.73108
▁మాస్	-9.73151
▁#	-9.7316
▁ఛా	-9.73241
▁వీడియోను	-9.7328
▁నిధుల	-9.73301
▁సర్వీస్	-9.73302
▁ఇల్లు	-9.73315
▁సినిమాకు	-9.73496
▁ఉత్తర్వులు	-9.7352
▁కంట్రోల్	-9.73534
▁పబ్లిక్	-9.73534
▁శివకుమార్	-9.73556
▁రాజ్యాంగ	-9.73578
!!	-9.7361
▁అధ్యయనం	-9.73618
▁తీయ	-9.7366
▁పాలసీ	-9.7371
▁పేర్కొన్న	-9.73728
▁పురుషుల	-9.73771
▁మొదలుపెట్ట	-9.73823
స్టర్	-9.73881
సూ	-9.73895
ప్రపంచవ్యాప్తంగా	-9.7391
▁మరీ	-9.73979
▁నటించిన	-9.74065
▁ట్రా	-9.74066
▁ఘటనపై	-9.74073
రామ	-9.74129
▁ش	-9.74193
▁హెల్త్	-9.74233
▁వెనక్కి	-9.74234
▁నాలుగో	-9.74235
అని	-9.74236
శీ	-9.74283
▁کر	-9.74335
▁వేరే	-9.74377
▁సాంకేతిక	-9.74467
▁ఆదాయ	-9.745
▁తనిఖీ	-9.7452
-2	-9.74521
ున్నట్లు	-9.74537
వన్	-9.74569
▁నియోజకవర్గాల	-9.74601
సులు	-9.74604
▁వస్తోంది	-9.74615
▁ఎదుర్కొంటున్న	-9.74698
▁హమాస్	-9.74705
▁వడ్డీ	-9.74723
.4	-9.74758
▁వచ్చా	-9.74761
లెట్	-9.74771
17	-9.74793
▁మందు	-9.74806
▁వాస్తవ	-9.74814
▁ద్ర	-9.74878
ించాలని	-9.74886
ేందర్	-9.74937
▁సెక్యూరిటీ	-9.74937
▁అందించారు	-9.75064
▁తరపున	-9.7508
రని	-9.75096
▁క్ర	-9.75198
▁వ్యాధి	-9.75259
బడి	-9.75343
ెయిన్	-9.75374
▁కార్యకలాపాల	-9.75409
ೋ	-9.7541
▁అనుగుణంగా	-9.7541
▁కోసమే	-9.75413
ంటున్న	-9.75464
పోతున్నారు	-9.75614
ि	-9.75646
▁కనిపిస్తుంది	-9.75672
హార	-9.75751
▁రాశుల	-9.75811
▁ఘ	-9.75839
▁తెలుసు	-9.75888
ుండ	-9.75922
దేశాల	-9.7597
▁భక్తులకు	-9.76068
▁ا	-9.76099
▁చోట	-9.7612
،	-9.76122
F	-9.76247
దేశ	-9.76355
▁చనిపోయిన	-9.76401
▁సీఐడీ	-9.76403
▁లీడర్	-9.76406
దారులు	-9.76492
▁పాన్	-9.7657
ad	-9.766
ام	-9.76627
▁పనిచేస్త	-9.76645
▁చేస్తా	-9.76664
▁నగరంలో	-9.76724
▁చేయకుండా	-9.76796
కూడదని	-9.76804
ಳ	-9.76829
े	-9.76835
▁కార్యక్రమానికి	-9.7684
లాండ్	-9.7686
▁పెరుగుత	-9.76894
▁భాగం	-9.76897
▁నియమ	-9.76923
▁ఎమ్మెల్యేగా	-9.77016
▁ఏమీ	-9.77024
▁వైఎస్సార్	-9.77081
మంత	-9.77109
▁ప్రవేశించ	-9.77208
▁భయ	-9.77262
▁సమీపంలోని	-9.77295
యాన్ని	-9.77304
▁కేంద్రాల	-9.7731
▁తెలుసుకుందాం	-9.77322
▁మనసు	-9.77323
వాడ	-9.77389
▁మ్యా	-9.77454
▁జరిప	-9.77462
కోసం	-9.77469
▁ఎస్టీ	-9.77526
▁కస్టడీ	-9.77563
▁ఇస్రో	-9.77564
▁ہے۔	-9.77569
చారం	-9.77587
పోవడంతో	-9.77633
K	-9.777
▁మాన	-9.77742
▁పోలిస్తే	-9.77809
▁వ్యాధుల	-9.77811
▁నిత్య	-9.77874
▁చేస్తానని	-9.77901
పరి	-9.77956
▁ఆప్	-9.77988
▁స్టే	-9.78005
కరమైన	-9.78016
▁గంజాయి	-9.78048
▁రోజుకు	-9.78048
▁ఓటర్లు	-9.78049
ట్లే	-9.7806
▁రంగారెడ్డి	-9.78065
▁బలమైన	-9.78137
▁దారుణ	-9.78187
▁ಮ	-9.78207
▁ہے	-9.78285
▁హరీష్	-9.78291
▁కిరణ్	-9.78291
▁వస్తాయి	-9.78299
▁చదువు	-9.78505
▁దిగిన	-9.78515
▁కడప	-9.78538
▁ఇసుక	-9.78538
ra	-9.7862
▁గేట్	-9.78692
▁హింస	-9.78785
▁మండలంలోని	-9.7882
▁బ్ల	-9.78852
▁బహు	-9.78856
▁డిస్	-9.78888
▁సీఐ	-9.78919
డింగ్	-9.78946
డబ్ల్యూ	-9.79024
చన	-9.79037
▁స్థల	-9.79066
▁మందిని	-9.79074
ంజ్	-9.79091
▁అక్క	-9.79111
▁K	-9.7913
▁ఆసియా	-9.79217
▁జూ	-9.7924
▁పొంగులేటి	-9.7927
▁అలర్ట్	-9.79272
▁ఉన్నత	-9.79362
▁వార్త	-9.79418
▁ఆడి	-9.79429
డుతూ	-9.79444
▁గతేడాది	-9.79516
▁ఫోకస్	-9.79517
▁నూనె	-9.79517
▁ఐదేళ్ల	-9.79518
▁ک	-9.79536
ండే	-9.79558
▁జాగ్రత్తగా	-9.79594
▁జాబితాలో	-9.79613
పత్ర	-9.79618
▁పాల్పడ్డ	-9.79634
డియా	-9.79664
▁భావిస్తున్న	-9.79697
▁కారణాల	-9.79708
▁లేకపోవడంతో	-9.79708
▁కచ్చితంగా	-9.79763
▁సుప్రీం	-9.79763
▁వెంకటస్వామి	-9.79771
▁నిర్లక్ష్యం	-9.79789
▁స్కిల్	-9.79789
▁పనులను	-9.79825
▁ఆదేశించింది	-9.7983
▁లక్ష్మీ	-9.79867
రేషన్	-9.79872
▁అభిప్రాయం	-9.79882
▁నిర్మిస్తున్న	-9.7992
▁కోట	-9.79957
▁పెన్షన్	-9.80011
▁మంచిర్యాల	-9.80011
▁జూలై	-9.80021
భి	-9.80024
▁అవ్వ	-9.80036
ట్టుగా	-9.80037
ధాన	-9.80088
గల్	-9.8009
▁ఓవర్లలో	-9.80119
హు	-9.80127
▁పాలనలో	-9.80135
▁కనిపించింది	-9.80136
▁రాష్ట్రపతి	-9.80141
ండో	-9.802
▁తిరు	-9.80229
▁విటమిన్	-9.80259
▁!	-9.80274
▁ఇటు	-9.80285
▁ಕ	-9.80348
▁గురు	-9.80357
▁డ్రా	-9.80434
▁మూల	-9.80439
18	-9.80454
▁2020	-9.80456
▁ముగిసిన	-9.80493
▁ఒప్పందం	-9.80508
▁నటుడు	-9.80509
▁మంటలు	-9.80577
▁చాట	-9.80588
▁నాథ్	-9.80741
▁ల్యాండ్	-9.80757
▁మరిన్ని	-9.80778
▁నిర్ణయించారు	-9.80868
▁మాస్టర్	-9.80882
▁ప్రయత్నిస్తున్న	-9.80919
▁అంటారు	-9.80941
▁స్వయంగా	-9.80941
▁కేజీ	-9.80956
▁కొన్న	-9.80975
▁సినిమాను	-9.80987
▁వెంకట	-9.81002
▁కాళేశ్వరం	-9.81007
▁వేధింపుల	-9.81007
▁భరోసా	-9.81007
▁బంతుల్లో	-9.81025
▁రుణ	-9.81037
▁విశేషం	-9.81077
▁د	-9.81102
ధర్	-9.81133
▁సహ	-9.81206
▁అనిల్	-9.81231
ుతోందని	-9.81333
శ్రీ	-9.81372
▁హు	-9.81389
▁పొందిన	-9.81402
▁సంతోషంగా	-9.81411
▁ఫ్రెండ్	-9.81509
▁اور	-9.81514
▁ఎవర	-9.81519
పాటి	-9.81546
▁వివాహం	-9.81552
▁କ	-9.81552
▁పెరగ	-9.81581
గడ్డ	-9.81711
▁స్కా	-9.81722
▁పడుతున్నారు	-9.81758
▁అతిపెద్ద	-9.81761
▁కెనడా	-9.81761
▁గడువు	-9.81761
▁I	-9.81774
▁کہ	-9.81784
▁తిప్ప	-9.81803
ئی	-9.81808
▁రూపంలో	-9.81814
▁నిరుద్యోగుల	-9.81836
వల్	-9.81837
▁పనుల	-9.81892
پ	-9.81942
▁2,	-9.81971
▁కోమటిరెడ్డి	-9.82013
▁చేసుకునే	-9.82017
▁కలవ	-9.82037
▁మరణించ	-9.82067
▁ఏమ	-9.82176
▁గిల్	-9.82176
▁90	-9.82179
▁ఉత్సవాల	-9.82232
▁నిజం	-9.82237
▁ప్రత్యక్ష	-9.82266
▁అసోసియేషన్	-9.82267
▁కొనసాగించ	-9.82338
▁చేరుకున్నారు	-9.82339
▁చేయలేదు	-9.82341
▁చెప్పే	-9.82357
▁విషయాల	-9.82371
▁సంఘాల	-9.82381
▁ఘన	-9.82388
-1	-9.82439
▁పరిష్కారం	-9.82473
▁టీఎస్	-9.82487
▁రావాలని	-9.82495
▁ఒడిశా	-9.82528
▁500	-9.82529
▁ఎర్ర	-9.82602
ిస్తామని	-9.82603
▁బాగు	-9.82647
సభ	-9.82648
▁మన్	-9.82648
▁పోస్టుల	-9.82742
▁ములుగు	-9.82777
▁ఏర్పడింది	-9.82795
▁పెరుగుతుంది	-9.82799
▁సలహా	-9.82883
▁మారాయి	-9.82963
చ్చింది	-9.82989
దేవి	-9.82994
ద్ది	-9.83001
▁వ్యాఖ్యల	-9.83011
▁అసిస్టెంట్	-9.8303
▁ఏజెన్సీ	-9.8303
▁వీడియోలు	-9.83049
▁అద్భుతమైన	-9.83071
▁ನ	-9.83186
▁వంటివి	-9.83188
కరంగా	-9.83189
వతి	-9.83267
▁లైంగిక	-9.83286
▁సాగర్	-9.83352
14	-9.83359
▁)	-9.83377
▁స్థలం	-9.83448
▁బ్యాక్	-9.83459
H	-9.83482
▁ఇటీవలే	-9.83527
హీ	-9.83539
▁పిలుపునిచ్చారు	-9.83542
▁రిపోర్టు	-9.83542
ెడ్	-9.83585
▁گ	-9.83603
ుతుంద	-9.83724
లక్ష్మి	-9.83728
▁బెంగళూరులో	-9.8374
ిపోత	-9.8374
▁ఎంపీగా	-9.83743
J	-9.83799
f	-9.83799
▁ఎనిమిది	-9.83799
▁లేటెస్ట్	-9.83799
▁వైస్	-9.838
ాబాద్	-9.83833
రాన్	-9.83908
▁స్నేహ	-9.83934
▁కలిగిన	-9.83986
▁మధ్యలో	-9.84025
▁మించి	-9.84064
మంతా	-9.8407
జం	-9.84105
▁తల్లిదండ్రుల	-9.84109
▁భయపడ	-9.84126
యె	-9.84142
▁ప్రయోజనాల	-9.84199
▁వలస	-9.8423
▁గుడి	-9.84264
▁కుక్క	-9.84271
గీ	-9.84302
▁విషయాలు	-9.84313
▁తీర్చ	-9.84315
▁కస్టమర్	-9.84315
▁ఫ్యాక్టరీ	-9.84315
▁బంగారు	-9.84318
▁డాక్టర్లు	-9.84336
ెస్ట్	-9.84356
లిగ	-9.84371
▁స్టూడెంట్	-9.84402
▁బెడ్	-9.84436
▁టైం	-9.84484
ందరికీ	-9.84515
▁మహబూబ్	-9.84574
▁ఘోర	-9.84576
▁దీనివల్ల	-9.84613
▁ప్రధానంగా	-9.84664
▁మరణ	-9.84669
▁చంద్రబాబుకు	-9.84694
▁చేస్తున్నా	-9.84722
▁నింప	-9.84798
▁ఉంద	-9.84805
▁పరిచయం	-9.8481
ी	-9.84834
▁పీసీసీ	-9.84835
▁వెళ్ళ	-9.84885
▁గీత	-9.84903
టెక్	-9.84933
▁వీలు	-9.84933
▁కార్మికులు	-9.84936
▁کیا	-9.84964
▁దర్శించ	-9.84975
▁మర	-9.84995
▁వన్	-9.85037
45	-9.85048
▁సహకారం	-9.8505
▁రంగంలో	-9.85059
▁దేశాలు	-9.85082
▁పాల్పడ	-9.85185
▁భయం	-9.85287
మూర్తి	-9.85362
▁ఈనెల	-9.85375
▁నిలబడ	-9.85385
▁ఆర్మీ	-9.85389
▁ఎవరికి	-9.85406
తున్న	-9.85445
▁ಬ	-9.85447
▁పిల్లలకు	-9.85464
కుంటే	-9.85467
▁జాబితా	-9.85488
కృష్ణ	-9.85514
ొద్దు	-9.85538
▁సాధించారు	-9.85567
▁ఆసుపత్రికి	-9.8559
16	-9.85601
▁సచివాలయ	-9.85617
▁కురిసే	-9.85619
▁లేదంటే	-9.8563
▁వాటా	-9.85632
▁బాధితుల	-9.8564
త్తా	-9.85646
రింగ్	-9.85655
న్నె	-9.85677
ha	-9.8569
▁అంశంపై	-9.85707
ంపేట	-9.85788
▁మధ్యప్రదేశ్	-9.8588
▁తూర్పు	-9.8588
▁చరణ్	-9.8588
▁దిల్లీ	-9.85904
చేసి	-9.8593
▁గుర్తించి	-9.85984
▁చేరుకుంది	-9.85984
▁దృష్టికి	-9.85997
▁తేడాతో	-9.86008
ుకోవచ్చు	-9.86038
▁రాజకీయంగా	-9.86047
▁తీసుకొని	-9.86049
ال	-9.86121
▁వంట	-9.86143
▁మెజార్టీ	-9.86143
ాలపై	-9.86144
▁సంభవించ	-9.86149
▁ట్రైలర్	-9.86157
▁ఫీజు	-9.8616
▁బార్	-9.86171
▁నిర్ణయించింది	-9.86326
▁అవసరమ	-9.86364
▁సొంతం	-9.86384
▁చంద్రయాన్	-9.86419
▁పనిచేసే	-9.86427
▁స్పందన	-9.86432
▁ఆరోపణల	-9.86501
▁ఏర్పడిన	-9.86503
నైనా	-9.8655
21	-9.8657
స్తాయి	-9.8658
▁లోనూ	-9.86595
▁జట్టులో	-9.86613
▁జాగ్రత్తలు	-9.86641
ందర్	-9.86661
▁అరవింద్	-9.86671
ృత	-9.86733
▁చేస్తున్నాయి	-9.8675
▁ఒప్ప	-9.86768
▁కర్	-9.86804
దర	-9.86815
▁ఆది	-9.86815
▁చిత్రాల	-9.86837
▁అనుమతించ	-9.86867
▁ఉంటా	-9.86874
▁తీసుకు	-9.86926
▁అగ్ని	-9.86932
▁అంబేద్కర్	-9.86937
▁ఉత్కంఠ	-9.86937
▁హైకమాండ్	-9.86937
▁డివిజన్	-9.86937
▁సీన్	-9.86937
▁బెంగాల్	-9.86939
▁ప్రయాణించ	-9.86964
ధార	-9.86973
▁పద్మ	-9.86979
نے	-9.87009
ఖ్	-9.87012
▁రంగంలోకి	-9.87061
▁టీం	-9.87107
▁వాహన	-9.87121
▁చేరింది	-9.87158
▁బంధ	-9.872
▁ప్రమోషన్	-9.87203
▁హిందీ	-9.87203
▁స్కూళ్ల	-9.87204
▁డిగ్రీ	-9.87226
90	-9.873
బడ్డ	-9.87341
▁గ్రే	-9.87368
▁ఏంటి	-9.87459
▁సంత	-9.87469
▁బలహీన	-9.87469
▁కలకలం	-9.87469
▁పరిహారం	-9.8747
▁హార్	-9.87476
▁ఉద్యోగులకు	-9.87523
ಟ	-9.87548
▁మద్దతుగా	-9.87617
కుడు	-9.87636
▁వాల్	-9.87643
▁పెట్టింది	-9.87676
▁ల్లో	-9.87683
▁అంశాలపై	-9.87733
వంతమైన	-9.87735
▁పిటీషన్	-9.87737
▁తప్పనిసరి	-9.87737
▁కోట్లతో	-9.878
ుకోవాల	-9.8796
▁కాలేదు	-9.87981
▁గ్రూపు	-9.88005
న్నది	-9.88142
▁చెప్పాలని	-9.88179
▁పండ	-9.88245
▁నిందితుడు	-9.88274
▁సమావేశాలు	-9.88275
జై	-9.88288
పోయాడు	-9.88385
▁చెప్త	-9.88388
;	-9.88543
▁ప్రజాస్వామ్య	-9.88543
▁వాదనలు	-9.88555
ାର	-9.88583
▁క్రమంలోనే	-9.8861
▁ప్రయాణికులు	-9.88621
▁తీసుకుంటామని	-9.88655
గ్రా	-9.88661
▁తీవ్రత	-9.88671
▁ఘనంగా	-9.88684
▁సింహ	-9.88741
▁అధికారికంగా	-9.88778
▁కంపెనీల	-9.88783
▁వ్యవహారాల	-9.88802
▁అంతకుముందు	-9.88816
▁బాంబు	-9.88816
▁తీసుకుంటున్న	-9.88833
▁సంపద	-9.88847
లేకపోయ	-9.88912
ందన్న	-9.8893
▁త్	-9.88948
▁విఫల	-9.89086
▁జు	-9.89091
22	-9.89153
రాజ	-9.89154
▁ل	-9.89165
▁రేషన్	-9.89174
రన్	-9.89199
▁రేటు	-9.89206
▁రాసిన	-9.89344
▁పేరును	-9.89347
▁చింత	-9.89347
▁ఇంగ్లాండ్	-9.89356
▁ఆంధ్ర	-9.89357
▁అధి	-9.8938
▁విమాన	-9.89403
▁విమానం	-9.89428
▁పాలు	-9.89473
మృత	-9.89499
▁ఉంటాయని	-9.89596
▁పెరిగిన	-9.89596
न	-9.89623
▁గూగుల్	-9.89629
▁ప్రాథమిక	-9.89629
▁రిపోర్ట్	-9.89629
▁స్మార్ట్	-9.89629
▁ఏటా	-9.89702
▁వ్యాపారం	-9.89713
▁ప్రసంగ	-9.89787
▁దీ	-9.89807
▁సంప్రదించ	-9.89902
▁క్యారెట్ల	-9.89902
▁ఫేక్	-9.89905
▁పోస్టులు	-9.89926
▁ప్రతినిధి	-9.89946
▁స్థానాలు	-9.89998
▁రాజకీయాల	-9.90051
▁నోటీసు	-9.90075
లాంటి	-9.90076
▁ఇస్తే	-9.90113
డంపై	-9.90157
▁చదువ	-9.90172
▁కలెక్టరేట్	-9.90177
▁మరికొన్ని	-9.90177
▁గిరిజన	-9.90215
▁రం	-9.90219
▁ఆలయంలో	-9.90242
తారని	-9.90247
▁అందిస్తున్న	-9.90263
▁నిర్ణయ	-9.90277
ొక	-9.90293
▁పరిమిత	-9.90306
▁చూశా	-9.90336
ట్లుగా	-9.90348
చ్చే	-9.90351
▁ఇండ్లు	-9.90382
▁తెలుసుకున్న	-9.90398
▁చేశాయి	-9.90417
▁యాదాద్రి	-9.9045
▁స్క్రీన్	-9.9045
పట్నం	-9.90473
▁అంశాల	-9.90482
▁గంటల్లో	-9.90504
▁లీగ్	-9.9053
en	-9.90564
ళ్ళు	-9.90601
▁అంజ	-9.90639
ారట	-9.90663
స్టా	-9.90668
ాధికార	-9.90716
▁గ్యారంటీ	-9.90726
▁మనిషి	-9.90729
▁అవసరాల	-9.90729
▁సమర్థ	-9.90744
▁మట్టి	-9.90755
▁అధికారులతో	-9.90771
మయ్యాయి	-9.90816
85	-9.90834
▁పరిశీలించ	-9.90857
సిన	-9.90865
ందుకే	-9.90871
▁కన్నడ	-9.90894
టీసీ	-9.90903
▁మార్క్	-9.90911
▁వాన	-9.90947
▁తిరుమలలో	-9.90949
▁భవిష్యత్	-9.9096
చారు	-9.90977
35	-9.90999
ପ	-9.91002
▁డిజిటల్	-9.91002
▁సోర్స్	-9.91006
▁కతా	-9.91009
వడంతో	-9.91018
▁గణ	-9.91032
▁వాహనాల	-9.91034
ంటా	-9.91074
▁శ్రీరామ	-9.91084
పడి	-9.9109
▁మారిన	-9.91158
47	-9.91184
▁జరుగుతున్నాయి	-9.91184
▁తరలి	-9.91189
▁నచ్చ	-9.91197
▁టన్నుల	-9.91286
▁నమోదైంది	-9.91286
▁మహేష్	-9.91298
▁మొదలైన	-9.91372
కాలు	-9.91409
▁వైరస్	-9.91561
▁నిల్వ	-9.91569
▁జమ	-9.9157
▁వీడియోలో	-9.91647
▁రిమాండ్	-9.91836
▁హైడ్రా	-9.91848
▁విధానాల	-9.91849
▁రాకుండా	-9.91855
▁ప్రాంతాలకు	-9.91863
▁శ్రీధర్	-9.91866
లియా	-9.91875
▁పోరు	-9.91917
▁భవనం	-9.91921
మణి	-9.91966
▁సిటీలో	-9.92028
▁బిజినెస్	-9.92115
▁మున్సిపాలిటీ	-9.92115
ಕ್	-9.92119
چ	-9.92124
▁అవుతున్నాయి	-9.92127
▁నటిస్తున్న	-9.92186
▁భీమ	-9.9229
దార్	-9.92311
▁వడ్ల	-9.92326
▁గ్రా	-9.92361
▁అడ్డు	-9.92379
▁ఛైర్మన్	-9.92395
▁ఆధార్	-9.92397
▁మాటలు	-9.924
▁అప్పు	-9.92401
▁ن	-9.92478
ండ్ల	-9.92585
▁సూచన	-9.92594
▁ఏఐ	-9.92666
▁ఆస్తుల	-9.92669
▁న్యాయవాది	-9.92676
▁నిరాశ	-9.92683
▁ప్రధానమంత్రి	-9.92698
▁చేసుకోవచ్చు	-9.92724
▁ఉద్యమం	-9.92731
▁ప్రభుత్వంలో	-9.92767
▁వస్తుంద	-9.92933
▁వార్	-9.92968
▁ఖా	-9.9298
▁విజయాన్ని	-9.92989
▁యూజర్	-9.93
▁వాహనం	-9.93137
బడిన	-9.93164
▁చక్క	-9.93164
హిత	-9.93176
▁స్త్రీ	-9.93241
▁పటేల్	-9.93241
▁ఇష్టం	-9.9326
▁పథకాలు	-9.9326
▁నీళ్ల	-9.93285
▁వెళ	-9.93312
▁హక్కుల	-9.93335
▁జైలులో	-9.9338
24	-9.93456
చిన	-9.93462
▁చర్య	-9.93472
▁దేశాల్లో	-9.93506
▁రిజిస్ట్రేషన్	-9.93523
▁పార్క్	-9.93539
▁చేసుకోవ	-9.93568
▁సంవత్సరంలో	-9.93642
▁మంత్రిత్వ	-9.93658
▁కిందట	-9.93688
ఫై	-9.93693
▁సిరిసిల్ల	-9.93807
▁సమక్షంలో	-9.93808
▁చిన్నారి	-9.93811
▁బియ్యం	-9.93811
▁సిట్టింగ్	-9.93822
▁ఏసీబీ	-9.93835
ಪ	-9.93839
▁హాల్	-9.93894
పరు	-9.93917
▁ర్యా	-9.93963
at	-9.94016
▁కూలి	-9.94035
▁ఫోర్	-9.94041
▁అభ్య	-9.94053
పూడి	-9.9407
▁అనుమానం	-9.94074
W	-9.94092
Y	-9.94092
▁ఇద్దరూ	-9.94092
▁వివరణ	-9.94093
డని	-9.94111
కెట్	-9.94141
ురాలు	-9.94159
▁భూములు	-9.942
13	-9.94245
శాల	-9.94259
▁పరిస్థితుల	-9.94266
▁ప్రీ	-9.94317
▁కర్నాటక	-9.94378
▁మోడల్	-9.94382
▁సత్యనారాయణ	-9.94383
▁ఉన్నాడు	-9.94407
▁అధికంగా	-9.94408
▁లభిస్త	-9.94419
▁దృష్టిలో	-9.94426
▁అడ్	-9.94443
పాల్	-9.94479
▁మంట	-9.94484
▁దూరంలో	-9.94502
▁రియల్	-9.94504
▁ఎంటర్	-9.94547
▁ఉన్నప్పటికీ	-9.94607
సార	-9.94621
ल	-9.94665
▁సీరియస్	-9.94665
పీసీ	-9.94766
କ	-9.94792
▁R	-9.94806
▁చెప్పడం	-9.94827
▁సిద్దం	-9.94928
▁తొమ్మిది	-9.94952
▁షేక్	-9.94955
▁గురైన	-9.94955
▁ایک	-9.94964
ంబర్	-9.95011
▁పాటుగా	-9.95025
▁కష్టం	-9.95028
▁సమాన	-9.9505
▁సంవత్సరాలు	-9.95239
ଜ	-9.9524
ಶ	-9.9524
▁విమర్శ	-9.95256
గొట్ట	-9.95259
▁స్వీ	-9.95277
▁పాడ	-9.95298
▁మంత్రుల	-9.95308
▁గోల్డ్	-9.95364
▁ముఖ్యమంత్రిగా	-9.95386
▁జీవో	-9.9545
▁।	-9.95498
ేశాడు	-9.95502
▁చేయండి	-9.95507
ो	-9.95529
▁రెండేళ్ల	-9.9553
▁ఏమి	-9.95538
నాథ	-9.9555
-3	-9.95683
▁D	-9.95692
▁మండ	-9.9571
▁పేర్లు	-9.95731
▁సంఘ	-9.95751
▁పర్యావరణ	-9.95819
▁ఏళ్లు	-9.95864
పక్ష	-9.95911
▁సందర్శించ	-9.96047
ಣ	-9.9611
▁స్పష్టత	-9.9611
▁విశాఖపట్నం	-9.96121
▁కథనం	-9.96156
జో	-9.96209
▁సహాయక	-9.96247
▁తీసుకోవాలి	-9.96346
▁సూచించ	-9.96398
▁రమేశ్	-9.96402
▁రమేష్	-9.96402
▁గర్భ	-9.96425
రిగి	-9.96458
▁లై	-9.96475
▁ప్రయత్నిస్త	-9.96504
చార	-9.96523
▁బూ	-9.96526
▁స్వీకారం	-9.96583
▁అత్యధికంగా	-9.96605
▁విచారణలో	-9.96678
▁నిందితుల	-9.96684
▁అందజేశారు	-9.96694
టెడ్	-9.96802
▁చుట్ట	-9.96816
▁మనకు	-9.96825
▁బౌలర్ల	-9.96881
దురు	-9.96903
▁డో	-9.96951
▁గడ్డం	-9.96972
▁కసరత్తు	-9.96987
▁ఓటీటీ	-9.96988
▁జపాన్	-9.9699
ಟ್	-9.96997
మల్	-9.97005
▁ఎదుట	-9.97015
▁అసెంబ్లీలో	-9.97026
▁అభ్యర్థులను	-9.97063
49	-9.97177
▁చేసుకోవడం	-9.97197
▁చంద	-9.97234
▁కొత్తగూడెం	-9.97237
▁ఎగ	-9.97266
ಚ	-9.97281
,500	-9.97293
▁లతో	-9.97326
▁ఆస్తి	-9.97338
▁మంత్రిగా	-9.97346
▁మేలు	-9.9736
టూ	-9.97401
▁కాన్	-9.97467
▁అభిమాన	-9.97548
▁శాసనసభ	-9.9758
▁బాలకృష్ణ	-9.97586
▁బాడీ	-9.9759
▁బాస్	-9.97629
▁బ్రాండ్	-9.97633
▁తరహాలో	-9.97692
▁వెల్	-9.9776
▁తనపై	-9.97784
▁తేడా	-9.97797
రత్న	-9.97817
▁పుస్తక	-9.97818
టేషన్	-9.97832
▁వీరికి	-9.9784
▁స్వా	-9.97862
▁ప్రైవేటు	-9.97872
▁గమనించ	-9.97965
▁ఏండ్ల	-9.97979
▁కూల్చ	-9.97983
▁సన్న	-9.97997
ర్థ	-9.9808
ందరూ	-9.98148
▁ఎద్దేవా	-9.98169
▁లిమిటెడ్	-9.98169
శెట్టి	-9.98171
రెస్	-9.98235
▁తొలు	-9.98245
▁కారులో	-9.98307
▁నిర్వహించే	-9.98368
ంద్ర	-9.98382
▁గెలిపించ	-9.98382
▁కేటాయింపు	-9.98466
▁న్యూజిలాండ్	-9.98466
▁నిందితుడి	-9.98466
▁వేర్	-9.98493
▁ప్రశ్నలు	-9.98498
▁ఫలితం	-9.98561
▁వాహనాలు	-9.98591
▁G	-9.98608
ಸ	-9.98626
▁కట్	-9.98672
▁బరిలో	-9.98726
▁హైకోర్టులో	-9.98758
▁నియంత్రణ	-9.98765
▁ఔట్	-9.98873
▁అనుభవ	-9.98874
▁దేశానికి	-9.98879
▁అనుమాన	-9.98908
▁ట్రాక్	-9.98935
▁కేసుల	-9.98958
▁పరీక్షల	-9.99054
▁ఉత్తరప్రదేశ్	-9.99064
▁పేరిట	-9.99065
కట్ట	-9.99109
పడుతున్న	-9.99129
▁రోజా	-9.99147
▁తొ	-9.99152
▁అయినప్పటికీ	-9.99153
▁ముఖ	-9.99208
▁అడుగుల	-9.99225
▁రాస	-9.99293
▁క్రియేట్	-9.99364
▁విక్రమార్క	-9.99364
▁లడ్డూ	-9.99364
▁బిల్డింగ్	-9.99368
స్తాన్	-9.99463
▁ఆనందం	-9.9953
st	-9.99542
39	-9.99642
▁ట్రై	-9.99645
त	-9.99666
▁పవిత్ర	-9.99667
▁టాటా	-9.99712
ముఖ	-9.99736
▁సభకు	-9.99812
▁చేరుకుని	-9.99855
▁75	-9.99857
చీ	-9.99862
▁కోర్టుకు	-9.99869
పోయిందని	-9.99891
▁స్పష్టంగా	-9.99939
▁అడిషనల్	-9.99968
▁అఖిల	-9.99968
▁పిలుపు	-9.9997
▁జట్ల	-9.99983
▁చేసుకోవాలని	-10.0007
▁ఆసుపత్రిలో	-10.0012
▁సంతోష	-10.0015
▁పెరిగే	-10.0018
▁అతనికి	-10.002
▁పార	-10.0024
▁చెప్పాలి	-10.0026
▁విస్తరించ	-10.0027
▁పద్ధతి	-10.0027
▁డౌన్	-10.0027
▁ఎలక్షన్	-10.0027
పరమైన	-10.0028
▁కాని	-10.0028
▁లక్ష్యం	-10.0031
▁లైఫ్	-10.0032
ಹ	-10.0035
చ్చు	-10.0035
▁రాం	-10.0038
▁ఉండడంతో	-10.0038
చర్ల	-10.0041
▁హర్ష	-10.0051
ేశ్వర్	-10.0053
▁ఉండడం	-10.0054
▁సర్వీసు	-10.0058
▁నకిలీ	-10.0058
▁సీఎస్	-10.0059
▁అవుట్	-10.0059
▁వరి	-10.0061
స్తున్నాయి	-10.0062
▁చేసుకోవాలి	-10.0065
▁డిగ్రీల	-10.0085
100	-10.0087
▁బంధు	-10.0087
▁అనుబంధ	-10.0088
▁అశోక్	-10.0088
▁ప్రగతి	-10.0088
▁సంగారెడ్డి	-10.0088
▁కళాశాల	-10.0088
ుండడంతో	-10.0092
▁మరణించారు	-10.0093
▁ఫీచర్	-10.0094
▁ఆలయం	-10.0096
▁మార్గాల	-10.0096
▁ఓటింగ్	-10.0099
▁సమాజ	-10.0101
▁తెలియదు	-10.0105
▁బారిన	-10.0105
▁అవుతున్నారు	-10.0112
కారు	-10.0115
▁అభివృద్ధికి	-10.0116
▁తదుపరి	-10.0119
▁మెజారిటీ	-10.0119
▁మెరుగైన	-10.0119
▁యూనియన్	-10.0119
▁స్కీమ్	-10.0119
▁స్వల్ప	-10.0119
▁పడిన	-10.0128
▁అక్కడికి	-10.0134
ri	-10.0135
▁వీటిలో	-10.0136
▁కోటి	-10.0141
హో	-10.0144
▁గోడ	-10.0148
ೊ	-10.0149
▁ఘర్షణ	-10.0149
▁టాపిక్	-10.0149
▁జరిగితే	-10.0152
▁గ్రామీణ	-10.0152
▁పాయింట్	-10.0156
యింగ్	-10.0157
▁విభాగం	-10.0162
▁కారణాలు	-10.0168
భ్	-10.0173
▁ఆసక్తికర	-10.0178
▁సూర్యాపేట	-10.018
▁మంచు	-10.0181
▁జిల్లాకు	-10.0181
▁పరిసర	-10.0183
▁అవుతుందని	-10.0187
▁తెలంగాణకు	-10.0187
▁ఉష్ణోగ్రతలు	-10.0202
▁నోట్	-10.0204
▁రాగానే	-10.0206
▁ఒకసారి	-10.0209
▁మ్యూజిక్	-10.0211
▁యూట్యూబ్	-10.0211
▁సరిగ్గా	-10.0211
▁కడుపు	-10.0211
▁అభిప్రాయపడ్డారు	-10.0211
▁భూమిని	-10.0212
▁తీసిన	-10.0214
▁ఇబ్బందుల	-10.0216
▁కనిపించడం	-10.0219
75	-10.0222
▁భోజనం	-10.0226
▁ప్రయోగ	-10.0228
▁ప్రాణాల	-10.023
వాన్	-10.0237
▁పరిణామాల	-10.0239
▁ధాన్యం	-10.0242
▁నెల్లూరు	-10.0242
▁డిజైన్	-10.0242
▁భవనాల	-10.0244
▁H	-10.0249
ఖా	-10.0249
▁స్కామ్	-10.0255
▁అభిప్రాయ	-10.0256
▁అప్ప	-10.0262
▁పలికారు	-10.0265
▁సాధ	-10.0269
▁మరికొందరు	-10.0273
▁సంప్రదాయ	-10.0278
▁చేస్తారని	-10.0278
▁నిఘా	-10.0282
ుంటుంది	-10.0288
▁V	-10.0295
▁కీలకంగా	-10.0295
▁నిర్మాణానికి	-10.0296
▁మనీ	-10.0301
▁చోటుచేసుకుంది	-10.0304
చ్ఛ	-10.0305
▁చెబుతోంది	-10.0307
శ్చ	-10.0308
▁వికెట్ల	-10.0312
▁ఉత్తమ	-10.0318
▁లూ	-10.032
▁ఇదిలా	-10.0322
▁కత్తి	-10.0322
್ಯ	-10.0323
▁లేకపోవడం	-10.0323
▁ఉండేలా	-10.0331
▁పెట్రోల్	-10.0335
▁రిజర్వ్	-10.0335
▁శుభాకాంక్షలు	-10.0335
▁వెలువడ	-10.0335
య్యాడు	-10.0341
▁ఊహించని	-10.0345
ప్రసాద్	-10.0346
▁బ్రహ్మ	-10.0347
▁సౌత్	-10.0348
▁చంద్రబాబును	-10.0349
▁గడ్డ	-10.0353
▁జ్యోతి	-10.0356
▁నిరుద్యోగ	-10.0357
▁ఆస్పత్రికి	-10.036
▁వేస్తున్నారు	-10.0361
▁చైర్	-10.0366
▁ویڈیو	-10.0367
▁వాట్సాప్	-10.0367
▁ఖర్గే	-10.0367
▁సర	-10.0368
▁వచ్చినా	-10.037
▁వారితో	-10.0371
▁వెలుగులోకి	-10.0373
▁రూప	-10.0374
▁ఎత్త	-10.0379
▁బౌలర్	-10.038
▁పుట్టిన	-10.0382
▁చూపిస్త	-10.039
▁గంటలు	-10.0393
▁పెట్టుబడులు	-10.0398
▁విస్తృత	-10.0398
▁సదస్సు	-10.0398
▁ప్రకటిస్త	-10.0398
▁ఎప్పటికప్పుడ	-10.0399
▁తీసుకువచ్చ	-10.04
గడ	-10.0402
▁తీశారు	-10.0404
▁ప్రభావ	-10.0408
▁ఇతరుల	-10.0415
▁ప్రతిష్ట	-10.042
▁లోపల	-10.0422
▁మార్గం	-10.0428
▁ఢీ	-10.0429
▁మహబూబాబాద్	-10.043
▁సగటు	-10.043
▁మాదిరి	-10.043
▁ఉంటుంద	-10.043
▁గ్రేటర్	-10.0434
▁కన్న	-10.0439
ସ	-10.0442
▁చరిత్రలో	-10.0447
▁రన్	-10.045
▁ఉద్దేశ	-10.0451
▁నవ్వ	-10.0456
▁దళిత	-10.0459
▁నాగార్జున	-10.0461
▁వయస్సు	-10.0461
▁ପ	-10.0461
▁మణిపూర్	-10.0461
▁ఒక్కరి	-10.0464
▁సిట్	-10.0465
▁బాధితులు	-10.0465
▁ప్రాంతానికి	-10.0473
▁యం	-10.0474
▁వేచి	-10.0477
▁కోరిక	-10.0479
▁క్రీ	-10.0482
గౌడ	-10.0483
▁థా	-10.0484
▁యాజమాన్యం	-10.0486
▁బ్రిటన్	-10.0493
▁మనుషుల	-10.0493
▁నువ్వు	-10.0494
ମ	-10.0495
▁సభ్యుడు	-10.0495
ధన	-10.0499
కంటే	-10.05
▁జాన్	-10.0502
▁నిర్మల్	-10.0505
▁పండగ	-10.0508
మీద	-10.0513
▁ఫలితంగా	-10.0515
▁రోజ	-10.0516
కైనా	-10.0519
▁హ్యా	-10.052
▁అనిపించ	-10.0522
▁ఫో	-10.0523
▁వారాల	-10.0524
▁డిపార్ట్	-10.0525
▁వలన	-10.0527
▁లింక్	-10.053
▁పొగ	-10.0534
▁ఫ్ర	-10.0537
▁లిస్ట్	-10.0538
▁అడుగులు	-10.0538
స్తోన్న	-10.0539
▁రాజకీయం	-10.054
నిధి	-10.0543
▁బెస్ట్	-10.0545
స్తామని	-10.0552
▁ఆర్థికంగా	-10.0556
▁చివరకు	-10.0556
▁ప్రో	-10.0556
ଗ	-10.0557
▁కార్యక్రమాన్ని	-10.0557
▁గ్లోబల్	-10.0557
▁జుట్టు	-10.0561
▁పాత్రలో	-10.0563
▁ఎండీ	-10.0563
▁బలం	-10.0564
▁రాళ్ల	-10.0566
▁ప్రజల్లో	-10.0566
▁సైన్యం	-10.0575
▁చేస్తున్నామని	-10.0582
దీప్	-10.0584
▁చట్టాల	-10.0585
▁నవీన్	-10.0589
▁ఛాన్స్	-10.0591
▁దొరికి	-10.0596
▁తీర్మానం	-10.06
ుతున్నారని	-10.0605
▁ఎకరాల్లో	-10.0608
▁తెలియని	-10.0613
▁దొరక	-10.0614
گ	-10.0617
ह	-10.0621
▁అలవాటు	-10.0621
▁ఐదుగురు	-10.0622
పుడు	-10.0626
▁జైలుకు	-10.0629
▁గానీ	-10.0633
▁కుటుంబాలకు	-10.0644
▁లభించింది	-10.0645
▁ప్లేస్	-10.0649
▁గుర్	-10.0649
▁ఉన్నట్టు	-10.0655
▁వచ్చాక	-10.0661
గ్న	-10.0673
▁సంబంధాలు	-10.0675
ୋ	-10.0686
▁కూరగాయల	-10.0686
▁నొప్పి	-10.0686
28	-10.0692
▁కోరుతూ	-10.0694
▁నాన్	-10.0697
▁వో	-10.0701
▁పాము	-10.0702
▁ప్రసాద	-10.0704
▁చిరుత	-10.0707
▁విగ్రహం	-10.0708
▁నేల	-10.0708
▁తెలిపిన	-10.0711
చేశారు	-10.0713
▁ALSO	-10.0718
▁అత్యవసర	-10.0718
▁యువకుడు	-10.0719
▁కార్య	-10.0719
▁విధించ	-10.0719
▁సోనియా	-10.0721
▁అందిస్త	-10.0725
కృ	-10.0725
▁తీవ్రమైన	-10.0729
▁చు	-10.0732
▁వస్తాయని	-10.0734
▁భారతదేశ	-10.074
▁ఉప్పు	-10.0741
▁వివరించ	-10.0744
▁అంశాలు	-10.0748
▁కెసిఆర్	-10.0751
▁నిర్వహించి	-10.0751
▁సివిల్	-10.0751
▁گیا	-10.0751
▁అసంతృప్తి	-10.0758
లింగ	-10.0759
▁కల్పిస్త	-10.0761
భావ	-10.0761
▁సూచి	-10.0771
ెళ్ల	-10.0773
థా	-10.0774
జింగ్	-10.0777
▁కానిస్టేబుల్	-10.0783
▁రాజమండ్రి	-10.0783
▁చెల్లింపు	-10.0783
▁స్టోరీ	-10.0783
▁సునీల్	-10.0783
▁తెలుస్తుంది	-10.0785
▁తీసుకురావ	-10.0788
▁ముప్పు	-10.0791
▁విధి	-10.0794
▁సత్తా	-10.08
▁పరిశీలించి	-10.0801
▁వైసీపీకి	-10.0802
▁కిలోల	-10.0803
▁ధ్వంసం	-10.0804
▁బౌ	-10.0806
▁పోరాట	-10.0811
▁పేట	-10.0811
▁డెలివరీ	-10.0816
▁స్వాగతం	-10.0816
▁సమగ్ర	-10.0821
▁పౌర	-10.0824
ములు	-10.0824
ప్పుడే	-10.0828
77	-10.0834
▁గఢ్	-10.0836
▁ఉదాహరణ	-10.0849
▁సస్పెండ్	-10.0849
▁విభజన	-10.0849
▁నెయ్యి	-10.0849
▁యాంటీ	-10.0849
▁సింగిల్	-10.0849
▁బాధపడుతున్న	-10.0855
▁నిలుస్త	-10.0855
▁రైళ్ల	-10.0856
▁ఖు	-10.0859
▁టీజర్	-10.086
▁కంటి	-10.0861
▁డాలర్ల	-10.0863
▁పర్యటించ	-10.0863
▁కూలీ	-10.0865
▁పులి	-10.0869
చంద్ర	-10.0871
▁కళ్ల	-10.0873
▁అప	-10.0876
▁సినిమాల్లో	-10.0879
ాము	-10.088
▁చిట్	-10.0881
▁క్వార్టర్	-10.0882
▁రూరల్	-10.0884
రేట్	-10.089
న్నాయని	-10.0892
▁వ్యక్తిని	-10.0892
▁కేసును	-10.0893
▁బొమ్మ	-10.0893
▁మార్గ	-10.0894
▁పెరిగాయి	-10.0894
▁అన్నది	-10.0899
▁ఆస్పత్రిలో	-10.0901
▁READ	-10.0915
▁మామిడి	-10.0915
▁సునీత	-10.0917
ంటో	-10.0918
54	-10.0925
▁జనతా	-10.0925
▁ఆనంద్	-10.0931
▁టికెట్లు	-10.0934
▁వేగ	-10.0939
▁ప్రమాదకర	-10.0941
▁తనిఖీలు	-10.0941
▁ఇళ్లు	-10.0944
▁తినడం	-10.0948
▁రాజీవ్	-10.0948
▁దసరా	-10.0949
▁నెలకొన్న	-10.0949
▁ఉంటూ	-10.0953
▁రోడ్లు	-10.0953
▁రాజా	-10.0954
▁నేతలతో	-10.0955
డుతున్న	-10.0955
୍ୟ	-10.0956
లక్షల	-10.0958
▁తేదీల్లో	-10.0962
▁కోటా	-10.0963
▁కన్నా	-10.0967
▁సార	-10.097
▁ఉపయోగపడ	-10.0972
▁బీమా	-10.0974
డితే	-10.0976
▁భద్రాద్రి	-10.0982
▁చంద్రశేఖర్	-10.0982
మెన్	-10.0985
▁తెల్ల	-10.0993
95	-10.0999
బోతోంది	-10.1003
లక్ష	-10.1007
ుడికి	-10.1009
▁సహజ	-10.1009
▁నాయ	-10.101
▁రావాల్సి	-10.1013
▁ఎన్డీఏ	-10.1015
▁హిందువుల	-10.1015
▁భాస్కర్	-10.1015
▁ఇందిరా	-10.1015
▁ప్రారంభించిన	-10.1016
▁మాటల	-10.1018
ور	-10.1024
56	-10.1025
▁మహారాష్ట్రలో	-10.1026
▁L	-10.1027
▁అమ్మవారి	-10.1031
▁పడుతుంది	-10.1033
▁కోరుతున్నారు	-10.1034
▁లబ్ధిదారుల	-10.1034
ರಿ	-10.1035
▁వాటిలో	-10.1037
▁కావాల	-10.1038
▁తేల్చి	-10.1039
▁కీలకమైన	-10.1042
ائ	-10.1043
▁ఇంటెలిజెన్స్	-10.1049
▁అంతరిక్ష	-10.1049
▁స్కోరు	-10.1049
▁జట్టుకు	-10.1049
▁లభిస్తుంది	-10.1051
▁చిరు	-10.1059
▁వీరిలో	-10.1061
▁48	-10.1061
ించాడు	-10.1062
▁వాటికి	-10.1064
▁మంత్రివర్గ	-10.1064
or	-10.1066
▁ఫలితాలను	-10.1071
66	-10.1073
▁గేమ్	-10.1073
ిందన్నారు	-10.1078
▁ఇంటర్నేషనల్	-10.1082
▁ప్రదర్శించ	-10.1082
▁అతన్ని	-10.1082
▁కోర్సు	-10.1083
▁నేపాల్	-10.1084
▁దే	-10.1085
▁ఆధారాలు	-10.1096
ుతాయని	-10.1097
▁సూచించింది	-10.1097
▁బాధిత	-10.1098
మయ్యారు	-10.1102
▁స్కాం	-10.1109
43	-10.1112
డికి	-10.1114
▁కబ్జా	-10.1116
▁జంతువుల	-10.1119
▁ಪ	-10.1124
▁లైట్	-10.1131
▁ఉందా	-10.1132
71	-10.1134
▁ఫాలో	-10.1138
▁ఎక్కడా	-10.1145
▁అహ్మద్	-10.115
58	-10.1154
సేపు	-10.1154
▁రాయ్	-10.1156
▁గెలిచ	-10.1157
▁పరంగా	-10.1162
▁నిందితులు	-10.1162
▁మేయర్	-10.1163
▁వేడుకలు	-10.1167
గన్	-10.1171
▁శరీర	-10.1173
▁విమానాల	-10.1173
▁300	-10.1175
▁సదర	-10.1176
▁దక్షిణాఫ్రికా	-10.1184
▁సురేష్	-10.1184
▁సమయానికి	-10.1184
▁సంచారం	-10.1188
▁లేకపోతే	-10.119
▁దిన	-10.1192
▁రిటై	-10.1195
▁సూచనలు	-10.1196
▁ఎక్కడి	-10.1198
పొ	-10.1207
▁రంగం	-10.121
▁చేతులు	-10.1212
▁పట్టా	-10.1213
▁పిల్లలను	-10.1215
ص	-10.1218
▁పనితీరు	-10.1218
▁కుమార	-10.1218
ఛార్జ	-10.1232
ుండటం	-10.1235
▁ہو	-10.1244
▁నివాస	-10.1245
▁వందే	-10.125
▁అదనంగా	-10.1253
▁కారణమని	-10.1254
▁సీపీఐ	-10.1257
▁2016	-10.1258
▁కుటుంబంలో	-10.1259
▁33	-10.126
▁స్థ	-10.126
▁పదే	-10.1265
▁అప్పుడే	-10.1268
▁వచ్చినట్లు	-10.1276
▁నేతలకు	-10.1278
▁చెబుతున్నాయి	-10.1279
▁సీజ్	-10.1284
لا	-10.1285
▁వాలంటీర్ల	-10.1287
ं	-10.1287
▁బిఆర్ఎస్	-10.1287
▁న్యాయస్థానం	-10.1287
▁రివ్యూ	-10.1287
▁విక్రయ	-10.1291
▁ఇంద్ర	-10.1299
▁గౌ	-10.1299
దన్నారు	-10.1302
▁చేత	-10.1303
▁లీక్	-10.1309
▁ప్రాంత	-10.131
▁మూస	-10.1311
▁కాద	-10.1313
▁జాగ్రత్త	-10.1314
▁కప్పు	-10.1316
▁చేతుల	-10.1316
బడింది	-10.1321
म	-10.1321
▁గుండెపోటు	-10.1321
▁అవినాష్	-10.1321
▁పర్సన్	-10.1324
▁మొదటిసారి	-10.1327
▁మండలి	-10.1327
▁తెలిసి	-10.1329
▁వార్డు	-10.133
▁కనిపిస్తున్నాయి	-10.1335
▁శరీరం	-10.1338
▁ఇష్టపడ	-10.134
▁క్షేత్ర	-10.1344
می	-10.1345
▁చేసుకుంటున్న	-10.1353
▁అప్లికేషన్	-10.1356
▁గమనార్హం	-10.1356
▁స్కోర్	-10.1356
▁అండర్	-10.1356
▁బైడెన్	-10.1358
▁హెచ్చరిక	-10.1358
▁హైవే	-10.1358
▁సైనిక	-10.1364
▁బయలుదేరి	-10.1374
రాష్ట్ర	-10.1375
ానన్నారు	-10.1377
ిస్తున్నారని	-10.1377
▁ఇప్పుడ	-10.1379
▁ఉచితంగా	-10.1388
▁పరా	-10.1389
▁బ్రిడ్జి	-10.1391
▁ఓపెనర్	-10.1391
▁బెదిరించ	-10.1391
▁ముంబయి	-10.1391
▁జాతర	-10.1392
ినేని	-10.1393
ుతుండగా	-10.1398
▁చెట్ల	-10.1402
▁కొందరి	-10.1404
▁లాల్	-10.1405
▁స్పందించిన	-10.1408
▁నార్	-10.1412
మైనా	-10.1418
▁జాబ్	-10.1422
▁బయటికి	-10.1429
క్టర్	-10.1433
ir	-10.1434
▁నెటిజన్లు	-10.1437
▁పోత	-10.1445
▁లారీ	-10.1446
▁అధ్యక్షుడిగా	-10.1446
ఘా	-10.1454
▁నిర్ణయాల	-10.1456
▁ఇంగ్లండ్	-10.146
▁కౌన్సిల్	-10.146
▁చిత్తూరు	-10.146
▁సర్టిఫికెట్	-10.146
▁చౌదరి	-10.146
▁సెకండ్	-10.146
▁జనగామ	-10.1461
▁వర్కింగ్	-10.1462
▁తప్పకుండా	-10.1463
▁మార్గంలో	-10.1464
▁హామీలు	-10.1466
▁బలగాల	-10.1469
ేటప్పుడు	-10.1475
▁ధరణి	-10.1476
ాయో	-10.1477
▁అర్ధ	-10.1477
▁ఏసీ	-10.1479
▁ఎంపీలు	-10.1484
▁శ్రమ	-10.1485
▁వ్యతిరేకత	-10.1485
▁నౌక	-10.1489
ందంటే	-10.1489
▁నడుస్త	-10.1493
ఫె	-10.1495
▁ప్రచురించ	-10.1496
▁సర్పంచ్	-10.1496
▁డీజీపీ	-10.1496
▁బిలియన్	-10.1498
ానంద	-10.1499
▁మేనేజ్	-10.15
▁కలసి	-10.1501
ప్రా	-10.1506
▁కలుప	-10.1509
78	-10.151
26	-10.1513
ళం	-10.1514
▁రక్తం	-10.1514
▁పోషిస్త	-10.1515
▁పాలక	-10.1517
▁భవిష్యత్తు	-10.1519
▁అర్థ	-10.1519
▁భువనగిరి	-10.1531
▁సుదీర్ఘ	-10.1531
▁సోదాలు	-10.1531
▁సూచిస్తున్నారు	-10.1532
▁కొండా	-10.1532
▁ఆరో	-10.1536
▁సాగుతోంది	-10.1538
▁జరిపిన	-10.154
▁వాళ్లకు	-10.1541
▁రేట్	-10.1542
▁మంద	-10.1544
త్రం	-10.1566
▁డిపాజిట్	-10.1566
▁పిఠాపురం	-10.1566
▁అంతేకాకుండా	-10.1566
▁రవీంద్ర	-10.1566
▁అన్యాయం	-10.1566
▁ఉత్పత్తుల	-10.1566
ినప్పటికీ	-10.1567
▁పేదలకు	-10.1568
▁చెత్త	-10.1573
▁సంచలనం	-10.1573
▁కోల్పోయిన	-10.1577
98	-10.1584
▁పెట్టుకుని	-10.1586
▁వినియోగ	-10.1589
▁శ్రీనివాస	-10.1596
▁ఇందుకోసం	-10.1602
▁చైతన్య	-10.1602
▁సాఫ్ట్	-10.1602
▁అనుసరించ	-10.1602
▁గొంతు	-10.1602
▁ముందుగానే	-10.1602
తారా	-10.1602
వెన్	-10.1606
▁లుక్	-10.1607
▁నగరం	-10.1616
▁రోల్	-10.1619
▁తెరకెక్క	-10.1619
▁దేవి	-10.1622
స్టిక్	-10.1627
▁పెరిగ	-10.1628
▁రిజర్వేషన్	-10.1632
▁శంకుస్థాపన	-10.1637
▁یہ	-10.1637
▁అబ్దుల్	-10.1637
పార్	-10.1639
▁బంతి	-10.1639
▁గ్యాంగ్	-10.1639
డూ	-10.1643
▁కాలంగా	-10.1644
▁పనులకు	-10.1651
నీయ	-10.1654
▁కలిగించ	-10.1662
▁ముద్ర	-10.1667
సరి	-10.1671
ଡ	-10.1673
▁హర్యానా	-10.1673
▁ఏజెంట్	-10.1673
▁సీతక్క	-10.1673
గొ	-10.1673
▁ఆసీస్	-10.1675
▁సమావేశాల	-10.1677
శ్య	-10.1681
▁కలగ	-10.1682
▁నెలలు	-10.1695
▁అనుభవం	-10.1695
ಲ್	-10.1696
▁లాభ	-10.1696
▁అప్పులు	-10.1699
▁సుఖ	-10.1703
▁ధైర్యం	-10.1707
▁యజమాని	-10.1709
▁స్పేస్	-10.1709
▁కాల్పులు	-10.1709
వుతున్న	-10.171
▁జరప	-10.171
▁చక్కెర	-10.171
ారంటే	-10.1713
▁సమాచారాన్ని	-10.1717
▁గ్ల	-10.1719
▁పదవికి	-10.1719
▁కొరియా	-10.1719
▁కక్ష	-10.1719
▁ఆమోదించ	-10.1721
▁బాట	-10.1723
74	-10.1728
▁ఉద్	-10.1729
భూ	-10.1729
▁స్టాక్	-10.174
▁ప్రభావితం	-10.174
▁అడిగి	-10.1742
▁టూ	-10.1742
▁హాస్టల్	-10.1745
ుడైన	-10.1745
▁స్టేడియంలో	-10.1747
▁పెట్టడం	-10.1749
▁కొంతకాలం	-10.1752
▁ప్రతినిధులు	-10.1753
▁ఏమిటి	-10.1755
▁ఢిల్లీకి	-10.1755
▁అడుగుపెట్ట	-10.1757
▁పెంపు	-10.176
▁మాల్	-10.1764
▁గజ	-10.1765
నాటి	-10.1766
ానికే	-10.1767
▁కోరింది	-10.1775
▁సమయంలోనే	-10.1777
▁లక్ష్య	-10.1778
▁భద్రాచలం	-10.1781
▁టెన్షన్	-10.1781
▁ముగియ	-10.1781
▁వృద్ధి	-10.1781
▁సందేహ	-10.1781
▁వేలాది	-10.1781
▁జట్లు	-10.1784
▁లాక్	-10.1793
నంత	-10.1795
ನ್	-10.1802
▁తెలిసిన	-10.1803
▁అప్రమత్తంగా	-10.1804
▁కోత	-10.1815
ین	-10.1816
▁బెల్	-10.1816
▁సెగ్మెంట్	-10.1817
▁కౌంటింగ్	-10.1817
▁మినహా	-10.1817
▁ఏనుగు	-10.1821
ದಲ್ಲಿ	-10.183
▁క్లా	-10.1833
▁టెలి	-10.1836
▁ఉద్దేశించి	-10.1838
▁32	-10.1842
▁పీఎస్	-10.1843
జ్ఞాన	-10.1843
▁ఘటనలు	-10.1849
▁గంగా	-10.1851
ఢ	-10.1853
యాత్ర	-10.1854
▁జైల్లో	-10.1855
▁ಇ	-10.1857
రామ్	-10.1861
▁భావ	-10.1863
▁ఎవరికీ	-10.1864
▁వేశ	-10.1865
టర్లు	-10.1866
▁ఫ్యా	-10.1867
▁పరిగణ	-10.1869
▁అందించిన	-10.1875
▁జరుగుతుందని	-10.1884
▁తాక	-10.1885
ిచ్చారు	-10.1886
▁సిస్టమ్	-10.189
▁నెరవేర్చ	-10.189
▁మిగిల	-10.1891
▁టీఎంసీ	-10.1892
▁చార్జి	-10.1892
▁గురయ్యారు	-10.1896
▁చేస్తుందని	-10.1897
▁మార్పుల	-10.1899
▁మేనేజర్	-10.19
▁లెక్కలు	-10.1901
▁గోల్	-10.1909
59	-10.1916
నై	-10.1923
▁పొలిటికల్	-10.1926
▁స్ఫూర్తి	-10.1926
▁జమ్మూ	-10.1927
▁ఈవీఎం	-10.1927
▁రేంజ్	-10.193
▁ప్రముఖులు	-10.193
▁స్థానాలకు	-10.1935
▁మారుతున్న	-10.1938
▁సరిగా	-10.1945
▁నోట్ల	-10.1949
▁వేరు	-10.195
64	-10.1952
ిస్తున్నట్లు	-10.1954
వుతాయి	-10.1957
▁రాశిలో	-10.1957
▁ప్రభుత్వాలు	-10.1959
▁రహదారి	-10.1963
▁వెహికల్	-10.1963
▁రామచంద్ర	-10.1966
▁లేవని	-10.1968
▁భారతీయుల	-10.1971
▁ఆకాశ	-10.1976
▁యూఎస్	-10.1978
▁నిజంగా	-10.1988
▁ఏమైనా	-10.1995
▁సమీప	-10.1995
▁వీడ	-10.2
▁ప్రోత్సహించ	-10.2
▁వృత్తి	-10.2
▁ఐఏఎస్	-10.2
▁విజేత	-10.2
▁పార్టీలకు	-10.2001
▁పనిచేసిన	-10.2004
▁ఊరు	-10.2007
లైన్	-10.2012
▁బండ్	-10.2022
▁లక్షణాలు	-10.2029
▁ఆయిల్	-10.203
▁నిర్వహించనున్న	-10.2036
▁మూడేళ్ల	-10.2037
▁రాజశేఖర్	-10.204
▁కలిశారు	-10.2042
▁పలిక	-10.2042
▁చూసే	-10.2043
న్నింటి	-10.2043
▁ఖాయం	-10.2045
▁ప్రకటనలో	-10.2049
▁నమోద	-10.2052
▁వదిలి	-10.2062
62	-10.2063
ಜ	-10.2066
▁వీసా	-10.2066
▁కులాల	-10.207
▁అదుపు	-10.2071
▁అనుకుంటున్న	-10.2072
▁వంశీ	-10.2074
భారత	-10.2078
▁పడ్డారు	-10.2082
ات	-10.2085
పీఎస్	-10.2092
▁దారుణంగా	-10.2094
▁నిలవ	-10.2095
ఫో	-10.2096
▁వాళ్ళ	-10.2098
▁బతుకమ్మ	-10.2112
▁రైజర్స్	-10.2112
▁చోరీ	-10.2112
▁శోభ	-10.2113
▁బీర్	-10.2113
▁బాద	-10.2115
▁42	-10.2115
▁వైద్యం	-10.2127
▁ఘటనా	-10.2131
▁మృతదేహ	-10.2131
సెస్	-10.2135
▁150	-10.2137
▁36	-10.2148
▁రాయలసీమ	-10.2149
▁నిలబెట్ట	-10.2149
▁వారీగా	-10.215
▁బ్యారేజీ	-10.215
▁విషయాలను	-10.2155
55	-10.2156
نگ	-10.2162
▁కార్మిక	-10.2163
▁పక్కా	-10.2165
▁గ్రహాల	-10.2165
▁బయలుదేర	-10.2167
▁చెట్టు	-10.2177
▁అవకాశాల	-10.2184
▁దీపావళి	-10.2187
▁బెదిరింపు	-10.2187
▁స్వతంత్ర	-10.2187
▁బీసీసీఐ	-10.2187
▁టేబుల్	-10.2187
▁జడ్జి	-10.2187
▁ఢీకొట్ట	-10.2187
▁తుమ్మల	-10.2187
▁సాధ్యం	-10.2188
▁న్యాయమూర్తి	-10.2188
▁సందీప్	-10.219
మాత్రం	-10.219
▁లెవల్	-10.2191
▁గిరి	-10.2197
▁ఆడిన	-10.2198
కపోయినా	-10.22
▁మృతదేహాన్ని	-10.2201
▁మేక	-10.2203
▁భారం	-10.2206
"."	-10.221
27	-10.2223
బోతున్నారు	-10.2224
▁ధర్మాసనం	-10.2224
▁పొన్నం	-10.2225
▁సమితి	-10.2225
▁అతడు	-10.2225
▁యాక్ట్	-10.2229
▁భూకంపం	-10.2232
ముందు	-10.2235
▁ఎందుక	-10.2235
69	-10.2238
▁ఆనంద	-10.2245
▁క్రమ	-10.2248
దానం	-10.2249
▁నిలిచిపోయ	-10.2252
ತ್ತ	-10.2256
▁ای	-10.2258
▁సినిమాతో	-10.2259
▁భవన	-10.2262
▁అందించే	-10.2262
▁బ్యూటీ	-10.2262
▁పల్లె	-10.2262
సాగర్	-10.2263
▁గద్వాల	-10.2263
63	-10.2263
▁సమావేశానికి	-10.2273
▁ఉష్ణోగ్రత	-10.2273
పెట్టి	-10.2275
▁ఇయర్	-10.2281
▁గాయపడిన	-10.2292
▁పొందుతున్న	-10.2297
▁ఎదురుచూస్తున్న	-10.2297
ڑ	-10.23
द	-10.23
ଳ	-10.23
▁సొసైటీ	-10.23
▁స్పోర్ట్స్	-10.23
▁జయంతి	-10.23
▁పత్రిక	-10.2301
బోయే	-10.2303
▁కల్తీ	-10.2307
▁భారతదేశం	-10.231
▁విషయానిక	-10.231
▁కురుస్తున్న	-10.2312
▁అడగ	-10.2313
▁చేసినట్టు	-10.2314
▁నియోజక	-10.2315
▁నిబంధనలు	-10.2315
▁ఎత్తి	-10.2319
es	-10.2321
▁సామ	-10.2321
పాడు	-10.2323
▁మగ	-10.2327
▁నంది	-10.2329
▁టైంలో	-10.2332
▁ముఖ్యం	-10.2333
▁జేడీఎస్	-10.2338
▁ఎగ్జామ్	-10.2339
▁టమాటా	-10.2339
▁మెసేజ్	-10.2339
▁వెయ్యి	-10.2339
▁తోపాటు	-10.234
షియా	-10.2342
▁బీహార్	-10.2342
▁నిలిచ	-10.2342
▁గురవుత	-10.2344
▁2017	-10.2345
▁రూట్	-10.2347
▁కాలి	-10.2353
▁తీసుకుంటే	-10.2353
▁అన్నా	-10.2355
పడింది	-10.2356
▁మెయిన్	-10.2356
▁దానం	-10.2361
▁రఘు	-10.2364
▁మెడ	-10.2365
▁దర్శకత్వంలో	-10.2376
▁అంశాలను	-10.2377
▁ఉత్సాహ	-10.2377
▁మల్లికార్జున	-10.2377
ద్య	-10.2389
▁యోగా	-10.2393
▁వెల్లడి	-10.24
▁కేంద్రానికి	-10.2402
▁ప్రాధాన్యం	-10.2402
▁రైళ్లు	-10.2402
▁ఊహించ	-10.2406
▁స్థితి	-10.2406
▁ధ్య	-10.2407
▁దర్శక	-10.241
▁వయసులో	-10.2411
▁రానుంది	-10.2413
▁క్రిమినల్	-10.2415
▁కాకినాడ	-10.2415
▁రెస్టారెంట్	-10.2415
▁లక్నో	-10.2415
▁ಪ್ರ	-10.2416
▁సాహ	-10.2417
▁చూడాలని	-10.2418
▁అప్పుల	-10.2424
▁ఆశ్రయించ	-10.2427
▁మారుతోంది	-10.2428
▁వెళ్లేందుకు	-10.2436
▁నిలిచారు	-10.2443
▁చేసుకున్నాడు	-10.2443
▁పౌరుల	-10.2449
▁బాధపడ	-10.2452
▁అరుదైన	-10.2454
▁తాత్కాలిక	-10.2454
▁తెల్లవారుజామున	-10.2454
▁దోపిడీ	-10.2454
▁సార్వత్రిక	-10.2454
▁వైఖరి	-10.2454
▁టెండర్	-10.2454
▁ఎప్పటి	-10.2454
▁టాస్	-10.2454
▁ఒక్కొక్క	-10.246
▁వినోద్	-10.246
▁అనుకో	-10.2461
▁గౌరవం	-10.2461
▁చాలు	-10.2464
▁ప్రయోజనాలు	-10.2473
▁తోడు	-10.2476
▁టో	-10.2478
▁ఖాతాలో	-10.2483
▁నిర్వహించాలని	-10.2488
▁తిరుగు	-10.2491
▁హీ	-10.2494
▁వీళ్ల	-10.2495
▁మృతుల	-10.2495
▁క్లాస్	-10.25
▁రౌండ్	-10.2505
▁కల్యాణ	-10.2515
▁ఇప్ప	-10.2516
▁నీర	-10.2522
▁చేరుకో	-10.253
ಧ	-10.2532
▁క్షమాపణ	-10.2532
▁సదుపాయాల	-10.2532
▁కంటెంట్	-10.2532
▁లోకేశ్	-10.2534
▁వివాదాల	-10.2535
▁కమలా	-10.2536
▁వేద	-10.2537
▁ఇస్తున్నారు	-10.2539
▁సంక్షేమం	-10.2541
▁వస్తున్నారు	-10.2541
na	-10.2544
▁తీసుకోవాల్సి	-10.2545
▁నెలకు	-10.2551
▁ఆరోగ్యానికి	-10.2552
▁నాగర్	-10.2552
▁లాభం	-10.2556
▁దంపతుల	-10.2561
▁స్టేడియం	-10.2568
▁చెందారు	-10.257
▁సిలిండర్	-10.2571
▁వనరుల	-10.2571
▁రాష్ట్రాలకు	-10.2573
్యాల	-10.2575
▁గూడ	-10.258
▁మహేశ్	-10.2582
లాగే	-10.2588
▁అద్భుత	-10.259
▁దిగి	-10.2598
▁దోచ	-10.2604
ల్లోనూ	-10.2606
కశ్మీర్	-10.261
▁పెరుగుదల	-10.2611
▁ఫేస్	-10.2611
▁ଦ	-10.2612
▁ఒకేసారి	-10.2614
▁వ్యాఖ్యలపై	-10.2614
▁సంఘాలు	-10.2622
▁తగ్గింది	-10.2623
▁గాజా	-10.2624
94	-10.2632
▁మిత్ర	-10.2641
▁అంటున్న	-10.2643
▁జర్నలిస్టు	-10.2649
▁బలోపేతం	-10.2649
▁మహ్మద్	-10.2649
▁వాణిజ్య	-10.2649
▁లీకేజీ	-10.2649
▁ఆయన్ను	-10.2656
గె	-10.2658
▁వేటు	-10.266
▁పనిచేశారు	-10.2661
▁నిలిచిన	-10.2665
▁విధించింది	-10.2665
▁రాయల్	-10.2665
▁పరిశ్రమల	-10.2666
▁బస్సులు	-10.2667
▁ఇవే	-10.2669
▁చేయాల్సిన	-10.267
▁సాధించి	-10.2684
▁లోపు	-10.2688
▁కేటాయిస్త	-10.2689
▁ప్రతికూల	-10.2689
▁చనిపోయారు	-10.2689
▁రాఘవ	-10.2689
▁పట్టించుకోవడం	-10.2691
▁చాట్	-10.2691
▁విడుదలైన	-10.2691
▁34	-10.2694
ొచ్చని	-10.2694
▁వ్యాపారులు	-10.2696
▁చర్చించారు	-10.2698
▁అడ్డం	-10.2698
▁అనంత	-10.27
▁జియో	-10.2701
▁ఊరి	-10.2704
▁కాపు	-10.2705
ವಿ	-10.2705
▁గట్టిగా	-10.2706
▁జీవన్	-10.2708
▁ان	-10.2709
▁చెప్తున్నారు	-10.271
గూడెం	-10.2714
▁పదవుల	-10.2715
▁గురై	-10.2722
▁ఇచ్చాడు	-10.2722
▁నిర్వ	-10.2728
▁ఇంట	-10.2728
▁కాంట్రాక్టర్	-10.2728
▁తరచూ	-10.2728
▁మోస్తరు	-10.2728
▁చేసుకొని	-10.2731
▁దండ	-10.2735
నుందని	-10.2735
▁సమంత	-10.2736
▁లాభాలు	-10.2737
▁వర్గానికి	-10.2741
మవుతున్న	-10.2745
▁నైట్	-10.2745
▁సంస్కృతి	-10.2746
▁నిజాం	-10.275
▁ఆసుపత్రి	-10.2752
▁గాయాలు	-10.2757
83	-10.2763
▁చిన్నారుల	-10.2765
▁సమస్యను	-10.2766
▁పెట్టే	-10.2768
▁నరసింహ	-10.2768
▁కర్నూలు	-10.2768
▁మెన్	-10.2771
▁అంబటి	-10.2777
▁ఫాస్ట్	-10.2779
ಿದೆ	-10.2796
▁ఆటగాళ్ల	-10.2801
▁అర్బన్	-10.2808
▁చలి	-10.2816
▁అధ్యక్షులు	-10.2818
▁కూడ	-10.282
▁కష్టాలు	-10.2821
▁గంగ	-10.2822
▁రోగుల	-10.2822
▁అమర్	-10.2834
▁గట్టి	-10.2834
▁పరిస్థితిని	-10.2837
▁తీస్త	-10.2841
68	-10.2842
▁ప్లా	-10.2848
▁అర్ధరాత్రి	-10.2848
ଭ	-10.2848
▁మెరుపు	-10.2848
▁హనుమాన్	-10.2848
▁అంబ	-10.285
▁పాల్పడిన	-10.2854
▁వరదల	-10.286
89	-10.2862
▁సిద్ధమ	-10.2863
▁సమాజంలో	-10.2865
05	-10.2865
▁పార్ట్	-10.2865
▁వినియోగదారుల	-10.2865
▁వ్యవస్థను	-10.2871
▁చేస్తాయి	-10.2878
▁విపరీత	-10.2882
▁అక్షర	-10.2883
▁విక్రయించ	-10.2884
ಿಸ	-10.2885
ావత్	-10.2888
▁ఎన్డీయే	-10.2889
▁క్రెడిట్	-10.2889
▁జీహెచ్ఎంసీ	-10.2889
▁హనుమకొండ	-10.2889
▁అజయ్	-10.2889
▁పేలుడు	-10.2889
▁హామీలను	-10.289
▁శాస్త్రవేత్తలు	-10.289
hi	-10.2891
▁చేయలేదని	-10.2896
▁వర్గ	-10.2897
ାଇ	-10.2899
ందున	-10.2899
▁లాయర్	-10.2901
▁నాన్న	-10.2902
▁తెచ్చి	-10.2904
ుతామని	-10.2904
▁సౌకర్య	-10.2911
▁తానే	-10.2911
▁దుర్గ	-10.2911
▁దాకా	-10.2914
▁చేస్తున్నాడు	-10.2919
▁రోడ్డుపై	-10.292
▁యువకులు	-10.2921
67	-10.2926
73	-10.2927
▁ఖచ్చితంగా	-10.2929
▁వేర్వేరు	-10.2929
▁సపోర్ట్	-10.2929
▁అద్దె	-10.2929
▁టూర్	-10.293
▁పరిణామాలు	-10.2932
సియా	-10.2935
▁నిషేధం	-10.2939
▁జరుగ	-10.2941
▁ప్రభావంతో	-10.2945
▁కేసుల్లో	-10.2946
▁చూస్తున్నారు	-10.2947
▁నేతలను	-10.295
▁మండి	-10.2954
▁చేపట్టాలని	-10.2965
స్తుందని	-10.2965
▁కలుగ	-10.2967
ଦ	-10.2968
▁چ	-10.2968
▁అంతకు	-10.2969
▁సోదరుడు	-10.297
▁మలయాళ	-10.297
▁రహస్య	-10.297
▁సొమ్ము	-10.297
▁తెలుసుకున్నారు	-10.2975
ోత్సవ	-10.2975
▁మనోజ్	-10.2976
▁ఉపయోగించి	-10.2978
▁కేంద్రంగా	-10.2979
ବା	-10.2979
▁ప్రదేశాల	-10.2981
▁సుందర	-10.2983
▁ఉద్రిక్తత	-10.2983
▁రుచి	-10.2983
▁తిరిగ	-10.2983
▁పేదల	-10.2985
96	-10.2985
76	-10.2991
▁ఒంటరిగా	-10.2998
▁దీప్	-10.3002
ಂದ	-10.3008
▁విక్రమ్	-10.3011
▁లండన్	-10.3011
▁బంద్	-10.3011
▁రూపొంద	-10.3012
▁రాజేందర్	-10.3013
లేకపోతున్న	-10.3015
▁వెళ్లడం	-10.3017
▁వస్తువులు	-10.3027
▁పెడుతున్న	-10.3027
▁నిజానికి	-10.3036
▁పూజా	-10.3037
▁ఇచ్చేందుకు	-10.3037
▁స్టూడెంట్స్	-10.3038
ేనని	-10.3039
ఛ	-10.305
ಭ	-10.3052
▁ఎలక్ట్రిక్	-10.3052
▁ప్రజాప్రతినిధుల	-10.3052
▁బుమ్రా	-10.3052
▁మెదడు	-10.3052
▁ప్రతిపక్షాల	-10.306
▁రోడ్ల	-10.3067
▁ఏపీకి	-10.3067
▁వేసవి	-10.3077
84	-10.3081
▁విపక్షాల	-10.3083
▁ఆశిస్తున్న	-10.3086
వంతంగా	-10.3087
▁తెలిప	-10.3088
▁స్టార్ట్	-10.3092
▁మొత్తాన్ని	-10.3093
▁డ్రోన్	-10.3093
▁కండువా	-10.3093
▁ఫిల్మ్	-10.3093
▁ముగిసింది	-10.3094
▁యోగం	-10.3095
▁ఐదో	-10.3103
▁దాస్	-10.3103
▁రెగ్యులర్	-10.3111
▁విమానాశ్రయం	-10.3113
▁ఫ్రా	-10.3124
▁పండ్ల	-10.3127
▁చేయలే	-10.3128
▁టోర్నీ	-10.3129
▁తూ	-10.3131
ಬ	-10.3132
as	-10.3132
ధుల	-10.3134
ح	-10.3134
▁పరామర్శించ	-10.3134
▁కొబ్బరి	-10.3134
▁క్రైమ్	-10.3134
▁పండితులు	-10.3134
▁స్టీల్	-10.3134
▁పరిపాలన	-10.3135
▁సగం	-10.3137
ಾರ	-10.3144
▁O	-10.3147
▁తేజ	-10.3151
ಕಾ	-10.3162
త్స	-10.3166
▁వెంకటేశ్వర	-10.3167
▁ఖండించ	-10.317
▁చిత్రాన్ని	-10.3172
▁నాణ్యత	-10.3176
▁సిద్ధరామయ్య	-10.3176
యిల్	-10.3176
▁నినాదాలు	-10.3186
▁స్థాయికి	-10.3192
వారిని	-10.3196
▁ఇచ్చారని	-10.3205
▁సరికొత్త	-10.3217
▁విస్తరణ	-10.3217
ರಾ	-10.322
▁పెడతా	-10.3222
▁లక్ష్మణ్	-10.3222
వినిపిస్తున్నాయి	-10.3225
re	-10.3226
▁నగరంలోని	-10.3232
ଟ	-10.3236
ండ్ర	-10.3238
▁ఉత్తమ్	-10.324
▁లోపం	-10.3241
▁నెస్	-10.3251
▁భావిస్త	-10.3255
▁ఎస్టేట్	-10.3259
▁సిగ్నల్	-10.3259
▁కొరత	-10.326
▁అవకాశముందని	-10.326
▁ఫిక్స్	-10.3268
it	-10.327
▁సినిమాపై	-10.327
▁ఎవరో	-10.3271
▁దింప	-10.3272
▁బ్రా	-10.3272
▁కొట్టుకు	-10.3274
టమే	-10.3275
▁ఆస్తులు	-10.3282
▁మరణించిన	-10.3286
▁నిందితులను	-10.3287
ధారణ	-10.3295
▁కురుస్తాయని	-10.3301
▁ట్రోఫీ	-10.3301
▁నాలుగేళ్ల	-10.3301
▁మేడ్చల్	-10.3301
▁దెబ్బతిన్న	-10.3302
▁ఆంక్షలు	-10.3307
ుతుంటారు	-10.3307
▁వ్యవహరిస్తున్న	-10.3309
▁పెడ	-10.3309
▁కోపం	-10.331
ab	-10.331
▁వార్తా	-10.3313
▁చెబుతూ	-10.3318
▁భవిష్యత్తులో	-10.3322
▁విభాగంలో	-10.3325
ಿಕ	-10.3333
▁సేవా	-10.3341
▁భూములను	-10.3343
ୀ	-10.3343
▁రకరకాల	-10.3343
▁నాశనం	-10.3343
▁మౌలిక	-10.3343
▁జ్యోతిష్య	-10.3344
▁మధ్యంతర	-10.3344
ଛି	-10.3344
▁వ్యవసాయం	-10.3344
▁ముఠా	-10.3348
▁పొందుతారు	-10.3349
▁నిర్మించారు	-10.3351
▁కనిపిస్తున్న	-10.3354
▁ద్వార	-10.3356
పడ్డారు	-10.3362
▁ఘనత	-10.3367
▁దేవాలయ	-10.3369
స్తుంటారు	-10.3373
▁తెలుసా	-10.3377
▁సంబంధాల	-10.3381
▁జీవితాల	-10.3383
▁ఆకాంక్ష	-10.3386
▁భూపాలపల్లి	-10.3386
▁యుక్రెయిన్	-10.3386
▁మస్క్	-10.3388
▁ఆప్షన్	-10.339
▁పెడితే	-10.3391
▁చెబుతారు	-10.3393
డుతున్నారు	-10.3395
▁కావాల్సిన	-10.3396
▁పదవీ	-10.3397
▁సమాధాన	-10.3397
▁సమస్యలపై	-10.3399
▁ప్రాంతాలు	-10.3399
▁బర్	-10.34
▁సెషన్	-10.34
▁సాధ్యమ	-10.3407
▁గాయాల	-10.3407
▁భద్ర	-10.3408
▁పదార్థాల	-10.3409
▁సంగీతం	-10.341
▁పోల్చ	-10.341
బూ	-10.341
ಯಾ	-10.3411
▁కోల్పో	-10.3411
▁మొద	-10.3421
▁ఏది	-10.3425
▁స్థాపించ	-10.3428
▁కార్పొరేటర్	-10.3428
▁ప్రత్యర్థి	-10.3428
▁వికారాబాద్	-10.3428
▁ఛార్జీ	-10.3428
▁విషాదం	-10.3429
▁త్యాగ	-10.3429
▁చిత్రంలో	-10.3439
▁కానున్న	-10.344
▁చేయాలనే	-10.3449
▁లాగ	-10.345
▁పర్యటనలో	-10.3453
▁కావాలి	-10.3459
-20	-10.3464
▁శ్ర	-10.3465
▁నిలదీశారు	-10.3471
▁సిద్దరామయ్య	-10.3471
▁ವೈರಲ್	-10.3471
▁సచిన్	-10.3471
ందంటూ	-10.3472
▁కింగ్స్	-10.3472
▁రాసి	-10.3472
▁చెందుతున్న	-10.3472
▁అందించాలని	-10.3473
▁బ్యానర్	-10.3476
▁2009	-10.3482
▁రాష్ట్రాన్ని	-10.3485
▁ఆఫీసర్ల	-10.3485
▁విభాగాల	-10.3489
▁అయ్యాడు	-10.3491
▁ఆలస్యం	-10.3492
▁భావించారు	-10.3494
▁మూసీ	-10.35
▁జీవించ	-10.3504
▁వేయడం	-10.3512
▁అబ్	-10.3513
ଥ	-10.3514
▁ఛత్తీస్	-10.3514
▁జరిమానా	-10.3514
▁పోలవరం	-10.3514
▁ప్రయోజనం	-10.3514
▁రాబట్ట	-10.3515
▁ಮಾಡ	-10.3516
▁ఇవ్వలేదు	-10.3521
▁ప్రారంభించింది	-10.3525
▁పత్రాల	-10.3526
▁బోర్	-10.3528
▁పవార్	-10.3535
▁జరగడం	-10.3544
▁జీవితాన్ని	-10.3545
▁గడిప	-10.3548
▁మెరుగు	-10.3549
▁వ్యూహాల	-10.3551
▁బంధువులు	-10.3555
▁దినోత్సవం	-10.3556
▁అమెరికన్	-10.3557
▁నిరాకరించ	-10.3557
▁కొంచెం	-10.3557
▁దేవస్థానం	-10.3557
▁అప్డేట్	-10.3557
▁కల్పించాలని	-10.3557
▁పిచ్	-10.3558
▁శుభ్రం	-10.3562
▁ఆదర్శ	-10.3563
▁ప్రారంభోత్సవ	-10.3569
▁సముద్రంలో	-10.3573
▁సేవలను	-10.358
▁సంతోష్	-10.3582
▁చేస్తాం	-10.3582
▁తోట	-10.3584
ాలనుకుంటున్న	-10.3586
29	-10.3588
▁ఫిట్	-10.3599
▁ఏకాదశి	-10.36
▁రీసెర్చ్	-10.36
▁డైలాగ్	-10.36
▁షుగర్	-10.36
▁ఆరంభ	-10.36
▁ఎదుర్కొంట	-10.3601
▁ముఖం	-10.3608
▁నమోదైన	-10.361
▁కార్డ్	-10.3613
పూరిత	-10.3619
▁బండ	-10.3619
▁రూపాయి	-10.3621
▁అడిగిన	-10.3642
▁ఎదుర్కొన	-10.3642
▁హెలికాప్టర్	-10.3644
▁ట్రెండ్	-10.3645
▁శ్రద్ధ	-10.3645
▁ఆరుగురు	-10.3646
▁హర్	-10.3647
▁స్పందిస్తూ	-10.3649
61	-10.3652
▁బిల్	-10.3654
▁ఆరోగ్యంగా	-10.3656
▁విరిగి	-10.3659
▁41	-10.3662
▁ఒలింపిక్స్	-10.3662
పోతాయి	-10.3665
ur	-10.3674
▁చౌ	-10.3679
ందరి	-10.368
▁లాభాల	-10.3683
▁ఫోటోలు	-10.3684
▁రోడ్లపై	-10.3684
▁విమానంలో	-10.3687
▁జీవన	-10.3687
▁కంప్యూటర్	-10.3687
▁జడేజా	-10.3687
▁ఐసీసీ	-10.3688
▁పర్వత	-10.3689
▁ప్రయోగించ	-10.3693
▁ముగించ	-10.3693
▁సైన్స్	-10.3697
▁రాకెట్	-10.3697
▁గర్వ	-10.37
▁ఫోర్లు	-10.3703
ార్ధ	-10.3707
▁కింగ్	-10.3709
▁ప్రత్యేకమైన	-10.3711
▁ತ	-10.3714
మైందని	-10.3715
▁కొనసాగుత	-10.3716
ట్యూ	-10.3721
మండ	-10.3724
▁మరణం	-10.3727
మంత్రి	-10.3728
▁అనూహ్య	-10.3731
▁కర్నూల్	-10.3731
▁నాంపల్లి	-10.3732
▁సజ్జల	-10.3733
▁అవిశ్వాస	-10.3734
▁దూకుడు	-10.3734
▁మల్లారెడ్డి	-10.3735
ుతుంటే	-10.3736
▁భిన్నంగా	-10.3741
▁దంపతులు	-10.3742
▁దుస్తుల	-10.3743
▁జ్ఞాన	-10.3743
▁జాతి	-10.3745
▁కుటుంబాల	-10.3747
▁డ్రామా	-10.3755
▁బీఐ	-10.3758
▁యూత్	-10.3759
▁ଏ	-10.3761
▁ఉంటున్నారు	-10.3768
▁వేయాలని	-10.3773
▁సమావేశ	-10.3774
▁సామర్థ్యం	-10.3775
▁ఎగ్జిట్	-10.3775
▁విపత్తు	-10.3775
▁బెంచ్	-10.3775
చోట్ల	-10.3782
▁గెలుస్త	-10.3782
▁కార్యకర్త	-10.3784
▁ఆహ్వానించ	-10.3784
▁లక్ష్మి	-10.3785
▁నిర్వహిస్తారు	-10.3788
కొచ్చి	-10.3793
▁అరుణ్	-10.3794
ుకుంటున్నారని	-10.3802
తుందో	-10.3803
▁వేసే	-10.3804
▁తీరుపై	-10.381
▁రాజ్యాంగం	-10.3811
మవుతుంది	-10.3814
▁నిర్ధారించ	-10.382
▁బిజీగా	-10.382
65	-10.382
ma	-10.3822
▁శ్రీకాంత్	-10.3822
▁గ్రాండ్	-10.3822
▁పెరుగుతోంది	-10.3823
▁ఖండ	-10.3828
▁స్నేహితుల	-10.3833
▁నిర్ణయాన్ని	-10.3842
▁ప్రారంభమైన	-10.3849
▁రైతులను	-10.3856
▁పూర్వ	-10.3857
ائی	-10.3863
▁ఛాంపియన్	-10.3864
▁వివాదాస్పద	-10.3864
▁సురేఖ	-10.3864
▁అశ్విన్	-10.3864
▁కీర్తి	-10.3867
▁కుంభ	-10.3871
▁ఎస్సై	-10.3872
▁చేస్తామన్నారు	-10.3872
▁మనో	-10.3878
మేనని	-10.3881
లియన్	-10.3882
▁వారంతా	-10.3884
▁చివరికి	-10.3885
▁ఆస్పత్రి	-10.3892
▁కార్తీక	-10.3892
▁55	-10.3896
▁వ్యవహరిస్త	-10.3901
▁వారంలో	-10.3901
▁ఆసిఫాబాద్	-10.3909
▁ఎక్సైజ్	-10.3909
▁వర్షపాతం	-10.3909
▁సమ్మె	-10.3909
▁ح	-10.3909
▁క్లబ్	-10.3909
▁ఎదుర్కొన్న	-10.391
▁పాల్గొని	-10.391
▁రామకృష్ణ	-10.3911
▁పంటలు	-10.3914
▁వాసుల	-10.3918
▁కాల్పుల	-10.392
▁తెలిపాడు	-10.3922
▁ధరించ	-10.3925
▁స్వామివారి	-10.3934
ష్ఠ	-10.3941
తానని	-10.3943
▁పచ్చ	-10.395
ిస్తాయి	-10.3951
▁Re	-10.3952
▁శ్రేణుల	-10.3953
▁ఇంటర్నెట్	-10.3954
▁ట్రీట్	-10.3954
▁వరుణ్	-10.3954
▁అడవి	-10.3954
▁వార్నింగ్	-10.3955
▁రూల్స్	-10.3957
▁పక్కనే	-10.3958
▁అవమాన	-10.3958
▁ఊప	-10.396
▁క్యాంపు	-10.396
ప్పుడ	-10.396
▁తెరిచ	-10.3963
▁విధానాన్ని	-10.3966
▁క్రమంగా	-10.3969
▁విపక్ష	-10.3978
▁తీసుకెళ్లారు	-10.3981
▁ఒక్కరూ	-10.3982
▁ఉంటారని	-10.3986
▁ప్రతినిధుల	-10.3988
▁వచ్చినప్పుడు	-10.3995
ఖ్య	-10.3997
ೈ	-10.3999
▁ఇంజినీరింగ్	-10.3999
▁మావోయిస్టు	-10.3999
▁ఎనర్జీ	-10.3999
▁సెర్చ్	-10.3999
▁మ్యాచు	-10.4001
▁బిల్లులు	-10.4008
▁స్థితిలో	-10.401
▁డ్ర	-10.4014
▁నిధులను	-10.4016
92	-10.4017
▁పైలట్	-10.4022
▁విగ్రహాల	-10.4022
లూరు	-10.4022
▁బాయ్	-10.4024
▁కనీస	-10.4027
▁గెలిచారు	-10.4034
vi	-10.4034
ಡಿ	-10.4036
▁పదో	-10.4036
▁అద	-10.4038
▁గిరిజనుల	-10.4039
▁నాగేశ్వరరావు	-10.4044
▁హృదయ	-10.4044
▁మొగ్గు	-10.4044
▁ఆశలు	-10.4044
▁కీపర్	-10.4048
..!!	-10.4056
▁నేర్చ	-10.4056
▁ఏర్పాట్ల	-10.4057
▁వెళుతున్న	-10.4061
▁ప్రస్తావించ	-10.4062
▁నేరాల	-10.4062
ేవాడు	-10.4076
తనం	-10.4079
▁వినాయక	-10.4082
ేశారని	-10.4088
▁దుకాణాల	-10.4089
▁విదేశాంగ	-10.4089
▁శ్రీహరి	-10.4089
▁డెడ్	-10.409
▁నిర్మాణాల	-10.409
▁యువకుడి	-10.409
టెన్	-10.4093
▁రాధా	-10.4098
▁పెట్టాలని	-10.4098
▁బూత్	-10.4099
▁మండలాల్లో	-10.4102
▁పత్రాలు	-10.4105
▁అభ్యర్థులకు	-10.4112
▁చేశాం	-10.4114
▁సరిపో	-10.4119
వలసి	-10.412
▁చెప్పినట్లు	-10.4126
▁నిర్ణయించుకున్న	-10.4129
▁హెచ్చరికలు	-10.4132
▁కన్వీనర్	-10.4135
▁గందరగోళ	-10.4135
▁నైపుణ్య	-10.4135
▁రిజర్వాయర్	-10.4135
▁సవరణ	-10.4135
▁వేణు	-10.4135
▁దేశాలకు	-10.4136
▁చేస్తోందని	-10.4142
మవుతోంది	-10.4143
▁E	-10.4143
▁వారే	-10.4143
32	-10.4144
▁ఆయుధాల	-10.4146
▁ఇంటర్వ్యూలో	-10.4148
▁పత్తి	-10.4157
▁గ్రామస్తులు	-10.4157
▁తరహా	-10.4163
33	-10.4179
పోతున్నాయి	-10.418
▁ఎదుర్కో	-10.4181
▁శ్రేణులు	-10.4182
نا	-10.4185
లేకపోయారు	-10.4193
▁సింగ	-10.4193
చేసిన	-10.4193
శంకర్	-10.4195
గురు	-10.4201
▁వినియోగం	-10.4203
ెల్లి	-10.4206
▁చేరిక	-10.4207
లేరని	-10.4208
▁చేయడమే	-10.4209
▁చంద్రుడి	-10.421
▁అనుమానాలు	-10.421
and	-10.4212
88	-10.4214
▁వ్యూహం	-10.4216
▁37	-10.4216
▁లోతు	-10.422
ಗಳ	-10.4226
▁టీపీసీసీ	-10.4227
▁శారీరక	-10.4227
▁శాశ్వత	-10.4227
▁సిక్సర్	-10.4227
▁స్వేచ్ఛ	-10.4227
▁అంబానీ	-10.4227
▁అందువల్ల	-10.4227
▁వివేకా	-10.4227
▁శాతానికి	-10.4227
▁కాలేజ్	-10.4227
▁సందడి	-10.4227
▁ప్రారంభిస్త	-10.4227
▁పరికరాల	-10.423
▁ప్రశంసలు	-10.423
▁ప్రారంభమైంది	-10.4231
▁ఇస్తారు	-10.4235
▁పోల్స్	-10.4241
గుణ	-10.4245
▁హోల్	-10.4248
▁సొ	-10.4253
▁చేతి	-10.4253
▁సామాన్య	-10.4254
▁అభిప్రాయాల	-10.4259
କୁ	-10.4268
▁అయ్యి	-10.4268
ನ್ನು	-10.4271
▁చూసుకుంట	-10.4271
▁అభ్యంతరం	-10.4273
▁బొగ్గు	-10.4273
▁కమ్యూనిటీ	-10.4273
▁ధోనీ	-10.4273
▁శతాబ్ద	-10.4273
▁అగ్రనేత	-10.4273
▁అంశాన్న	-10.4274
▁కథనాల	-10.4277
▁పర్యాటక	-10.4279
▁రంగాల్లో	-10.4286
▁పాఠ	-10.4292
▁చూసేందుకు	-10.4294
ంచీ	-10.4296
ాలనుకున్న	-10.4303
▁వేస్తున్న	-10.4304
▁రాజన్న	-10.4305
ೆಯ	-10.4306
▁తీర్పును	-10.4306
▁ట్రైన్	-10.4307
▁తీసే	-10.4314
▁బృంద	-10.4317
ون	-10.4318
ग	-10.432
▁క్యారెక్టర్	-10.432
▁ప్రకృతి	-10.432
▁మళ్ళీ	-10.432
▁శైలి	-10.432
▁ఉప్పల్	-10.432
▁పదవులు	-10.4321
గ్రామ్	-10.4323
▁X	-10.4324
91	-10.433
▁కేటాయించారు	-10.433
▁ఉపయోగ	-10.4333
▁జరిగినట్లు	-10.4333
▁దాటి	-10.4334
ఒ	-10.4334
▁రిజర్వేషన్లు	-10.4334
▁చేపట్టింది	-10.4336
▁సిక్స్	-10.4344
▁ఆఫీసులో	-10.4346
▁మత్తు	-10.4351
▁నోటి	-10.4352
▁400	-10.4354
ol	-10.4357
▁పేర్లను	-10.4358
కర్త	-10.436
▁వెస్ట్	-10.436
▁సరే	-10.4362
▁రాష్ట్రాలు	-10.4364
▁చీర	-10.4364
▁ఇరిగేషన్	-10.4366
▁ధన్యవాదాలు	-10.4366
▁କରି	-10.4366
▁సీఈవో	-10.4366
▁ముగ్గురి	-10.4366
▁ఆధిక్య	-10.4367
▁కలిసే	-10.4367
▁బాగుంటుంద	-10.4368
▁ఆదిత్య	-10.4368
▁పరిమితం	-10.4369
▁బతిక	-10.4371
▁పరిశీలిస్త	-10.4375
▁స్థానికుల	-10.4377
▁ఒకప్పుడు	-10.438
▁ప్రసంగం	-10.4384
▁మల్లన్న	-10.4385
▁భాగంగానే	-10.4386
il	-10.4387
▁టీచర్ల	-10.4389
▁మాన్	-10.439
▁پی	-10.4392
▁మంగళ	-10.4394
▁తేజ్	-10.4402
▁విజయవంతంగా	-10.4403
వాడి	-10.4407
▁దశాబ్ద	-10.4408
▁ప్రతిపక్షాలు	-10.441
▁తిరస్కరించ	-10.4413
▁దిగ్గజ	-10.4413
▁ప్రత్యామ్నాయ	-10.4413
▁శుభవార్త	-10.4413
▁కౌశిక్	-10.4413
▁గౌతమ్	-10.4413
▁ఛానెల్	-10.4413
▁కొద్దీ	-10.4413
రియన్	-10.4414
▁శాసన	-10.4414
▁జల్	-10.4415
▁అభిషేక్	-10.442
▁వెల్ల	-10.442
▁వెళ్లింది	-10.4432
చోట	-10.4432
▁హాజరుకా	-10.4433
▁కనిపించే	-10.4433
▁మూడ	-10.4435
▁జరగకుండా	-10.4436
ఠా	-10.4439
▁ఔట	-10.4444
సెట్	-10.445
ब	-10.4461
▁ఎఫెక్ట్	-10.4461
▁తీసుకున్నట్లు	-10.4461
▁ఏఐసీసీ	-10.4461
▁విధ్వంస	-10.4461
▁గెలిస్తే	-10.4461
▁విలీనం	-10.4461
▁విశ్వాసం	-10.4461
▁స్టాగ్రామ్	-10.4461
31	-10.4461
వర్ధన్	-10.4464
▁ఖాయమని	-10.4464
▁బాండ్	-10.4465
▁జగన్మోహన్	-10.4466
▁విద్యాశాఖ	-10.4466
▁ఆరోపిస్తున్నారు	-10.4468
▁ఖాయమ	-10.4469
▁సంతోషం	-10.4472
▁కుక్కల	-10.4477
▁ఈటల	-10.4477
▁పిలుస్తారు	-10.4478
▁ఏర్పాట	-10.4484
▁రాణించ	-10.4486
▁మాధవ	-10.4488
▁సభ్యులతో	-10.449
▁44	-10.4492
మరణ	-10.4494
تا	-10.45
▁నిలిప	-10.4503
పడిన	-10.4505
▁వనపర్తి	-10.4508
▁స్వాతంత్ర్య	-10.4508
▁లాంచ్	-10.4508
▁ప్లాస్టిక్	-10.4508
▁వృద్ధుల	-10.4512
▁తమిళనాడులో	-10.4515
86	-10.4519
▁విగ్రహాన్ని	-10.4521
క్యూ	-10.4522
▁రఘురామ	-10.4525
▁అనుచరుల	-10.4526
▁తిరుగుతున్న	-10.4531
▁యంగ్	-10.4536
శీల	-10.4539
పోతుందని	-10.454
▁తలపడ	-10.4543
▁కేటాయించిన	-10.455
ాయనే	-10.4553
▁తరుణంలో	-10.4556
com	-10.4556
టికల్	-10.4556
▁పదేండ్ల	-10.4558
▁కేంద్రమంత్రి	-10.4561
▁హాని	-10.4562
▁ఉల్లి	-10.4565
▁తార	-10.4567
▁పొట్ట	-10.4569
▁వ్యాపారాల	-10.4574
▁బాలుడి	-10.4575
ంచుకో	-10.4579
ನಿ	-10.4579
▁చర్మం	-10.4582
▁దరఖాస్తులు	-10.4582
కోట	-10.4584
▁డాలర్లు	-10.4584
▁దించ	-10.459
▁ఎప్పుడ	-10.4593
▁సభ్యులకు	-10.46
▁ఐఆర్	-10.4601
▁అమెజాన్	-10.4603
▁కార్యాచరణ	-10.4603
▁కుటుంబసభ్యుల	-10.4603
▁శంషాబాద్	-10.4603
▁సేఫ్టీ	-10.4603
ya	-10.4604
▁వ్రత	-10.4604
▁ఆలోచిస్త	-10.4606
▁నిర్వాహకులు	-10.4606
▁సాధన	-10.4608
ತಿ	-10.4616
పరంగా	-10.4619
▁సీతారామ	-10.463
▁చేయబోతున్న	-10.4632
▁ప్రచారాన్ని	-10.4633
▁పోల్	-10.4638
▁చూపించారు	-10.4638
రాబాద్	-10.4642
▁వైట్	-10.4644
▁రింగ్	-10.4645
▁స్థానాల	-10.4646
ఝ	-10.4652
▁ట్యాపింగ్	-10.4652
▁డ్యూటీ	-10.4652
▁రవీందర్	-10.4652
▁వృషభ	-10.4652
▁స్పూన్	-10.4652
▁మోటార్	-10.4652
▁ఉద్దేశంతో	-10.4655
▁గోపాల్	-10.4655
▁పావు	-10.4655
నారాయణ	-10.4664
▁సురక్షితంగా	-10.4664
▁ఇవ్వాలి	-10.4667
82	-10.4669
▁శరీరానికి	-10.4669
▁రాణి	-10.4671
▁అందిస్తున్నారు	-10.4678
▁వర్గాల్లో	-10.4678
ದು	-10.468
ామన్న	-10.4682
▁నెటిజన్	-10.4683
ోత్సవం	-10.4686
▁సానుకూల	-10.4687
▁బేస్	-10.4688
▁వాగు	-10.4689
▁కొనసాగుతున్నాయి	-10.469
▁విధించారు	-10.4692
▁రిజర్వేషన్ల	-10.4692
▁ఇష్ట	-10.4696
▁ఏళ్లుగా	-10.4696
▁పురోగతి	-10.47
▁తుపాను	-10.47
▁పుణ్య	-10.47
▁కేంద్రాల్లో	-10.4701
▁ఉత్తర్వుల	-10.4703
▁జాబితాను	-10.4705
▁చదివి	-10.4706
▁ఆర్ఎస్	-10.471
▁ఆదేశించ	-10.4711
▁స్టడీ	-10.4711
షనల్	-10.4712
▁ప్ల	-10.4713
పోతోంది	-10.4719
▁ఆలస్యంగా	-10.472
ామంటూ	-10.4728
دی	-10.4729
▁स	-10.4729
▁దేశాన్ని	-10.4732
▁ఇంటర్వ్యూ	-10.4735
▁ମ	-10.4735
▁తొలగి	-10.4739
ala	-10.4741
▁చేయాలన్నారు	-10.4743
ज	-10.4748
ଶ	-10.4748
▁తహసీల్దార్	-10.4748
▁పథకాన్ని	-10.4748
▁ప్రాతినిధ్యం	-10.4748
▁మెగాస్టార్	-10.4748
▁పర్మిషన్	-10.4748
▁వసూళ్ల	-10.4749
▁కానుక	-10.4753
▁క్యాడర్	-10.4753
▁ప్రజల్లోకి	-10.4754
▁తీసుకోవాల	-10.4757
▁ప్రదేశం	-10.4762
▁భావన	-10.4765
▁జీతం	-10.477
▁ఉద్యోగి	-10.4774
▁వైఎస్ఆర్	-10.4776
ౌండ్	-10.4785
▁ఆహ్వాన	-10.4786
▁దయ	-10.4788
▁సాయంతో	-10.4789
▁కౌన్సిలర్లు	-10.4796
▁కాశ్మీర్	-10.4797
▁కొనుగోళ్ల	-10.4797
▁నిరూపించ	-10.4798
▁నమోదయ్యాయి	-10.4798
▁ప్రాంతీయ	-10.4798
▁దళితుల	-10.48
▁నై	-10.4801
▁తీసుకొస్త	-10.4803
▁చేస్తుంద	-10.4804
et	-10.4805
గంటల	-10.4806
j	-10.4811
تی	-10.4816
▁خ	-10.4818
▁బయో	-10.4821
▁వ్యవధిలో	-10.4822
▁చక్ర	-10.4822
▁ఇంక	-10.4824
▁తిన్న	-10.4826
48	-10.4828
▁కళా	-10.4828
▁పండ్లు	-10.4834
మెంట	-10.4835
▁చెరు	-10.4836
▁తింటే	-10.4841
▁చేసుకుంటున్నారు	-10.4841
▁పరిస్థితులను	-10.4843
▁నిర్మల	-10.4843
▁అర్హుల	-10.4845
▁జడ్పీ	-10.4846
▁ఎంఐఎం	-10.4846
▁ఎంజాయ్	-10.4846
▁గడిచిన	-10.4846
▁చెన్నూరు	-10.4846
▁సంక్రాంతి	-10.4846
▁సంకేతాల	-10.4846
▁వార్షిక	-10.4846
▁జోక్యం	-10.4846
▁కట్టుబడి	-10.4847
▁ఉపవాస	-10.4847
▁అనంతపురం	-10.4847
▁మారుస్త	-10.4848
▁మెహ	-10.4856
▁సెలవులు	-10.4857
కోట్ల	-10.4858
▁గాయం	-10.4862
▁గుట్ట	-10.4865
▁రెండవ	-10.4867
వ్వడం	-10.4883
▁ఉదయ	-10.4894
▁మీట్	-10.4895
▁శ్రావణ	-10.4895
▁అధిష్టానం	-10.4895
▁నిమిత్తం	-10.4895
▁నెహ్రూ	-10.4895
▁వెస్టిండీస్	-10.4895
▁విదేశాల్లో	-10.4895
▁ఇదంతా	-10.4895
▁పటిష్ట	-10.4895
▁బంగ్లా	-10.4896
▁క్యాంప్	-10.4896
▁కొవ్వు	-10.4896
▁అంకిత	-10.4896
▁వంశీకృష్ణ	-10.4896
▁కార్డులు	-10.4896
▁మ్యాన్	-10.4897
▁బాబా	-10.4899
▁ఒంటి	-10.4904
▁65	-10.4907
▁మునిగి	-10.4911
▁తీసుకెళ్లి	-10.4912
▁కొనసాగుతుంది	-10.4912
▁సంగీత	-10.4917
▁నొక్క	-10.4918
▁F	-10.4919
▁వదులు	-10.4922
ియల్	-10.4927
▁సురక్షిత	-10.4932
▁నెరవేర	-10.4938
▁షి	-10.4941
▁చెప్పడంతో	-10.4942
▁పారిశ్రామిక	-10.4945
▁డాక్యుమెంట్	-10.4945
▁జార్ఖండ్	-10.4945
▁సల్మాన్	-10.4945
▁కుమారస్వామి	-10.4946
▁పంత్	-10.4946
▁గుర్తుచేశారు	-10.4948
▁బంధువుల	-10.4949
▁బ్యాంకుల	-10.4953
un	-10.4955
ార్థం	-10.4956
▁ಜ	-10.4956
▁చెప్పారని	-10.4959
▁తరలిస్తున్న	-10.4961
▁దక్కింది	-10.4965
▁ఇస్తూ	-10.4968
▁ఇస్తుంది	-10.4977
▁లవ్	-10.4982
▁పోసి	-10.4983
ుకోండి	-10.4988
▁మరణాల	-10.4991
la	-10.4993
▁ఇవ్వకుండా	-10.4994
ేయడం	-10.4994
▁కార్పొరేట్	-10.4995
▁సహాయపడుతుంది	-10.4995
▁రేపటి	-10.4995
▁విగ్రహ	-10.4995
▁తిరగ	-10.4995
▁తీసుకెళ్త	-10.4995
▁ట్రి	-10.4996
▁సంతకం	-10.4999
▁ع	-10.5001
▁వీధి	-10.5007
▁పట్టుకుని	-10.5017
▁బంగాళాఖాతంలో	-10.5021
08	-10.5022
▁నిబంధన	-10.5029
ాయన్న	-10.5041
▁పురుష	-10.5045
▁ఉపశమనం	-10.5045
▁లావాదేవీల	-10.5045
▁దేవరకొండ	-10.5045
▁వేగంతో	-10.5047
34	-10.5051
▁మాట్లాడుతున్న	-10.5058
▁పథకాలను	-10.5064
సరికి	-10.5066
▁కాల్స్	-10.5068
79	-10.5069
▁రెండుసార్లు	-10.5069
▁పాయింట్ల	-10.5072
▁ప్రస్తావించారు	-10.5075
▁బాధ్యతలను	-10.5076
పింగ్	-10.5077
▁ఫ్యాన్	-10.5081
▁హైద	-10.5083
▁మందులు	-10.509
▁కల్వకుంట్ల	-10.5095
▁స్పెక్టర్	-10.5095
▁క్లిక్	-10.5095
▁కలిగే	-10.5096
▁నిపుణుల	-10.5099
▁నటన	-10.5101
▁కనపడ	-10.5101
▁చదువుతున్న	-10.5102
44	-10.5106
▁ఎంపీపీ	-10.5109
▁గెలిపించాలని	-10.5109
▁అద్భుతంగా	-10.5112
క్షేత్ర	-10.5114
▁గాయపడ్డారు	-10.5117
▁ఖాతాల్లో	-10.512
▁చేసేలా	-10.5122
▁38	-10.5127
▁ఇంకో	-10.5128
లేకపోయింది	-10.5131
▁ముంబైలో	-10.5144
▁నడుస్తున్న	-10.5144
▁నియంత్రించ	-10.5145
▁సందర్బంగా	-10.5145
▁మసీదు	-10.5146
▁కిడ్నీ	-10.5146
▁కోరుకుంటున్నా	-10.5146
▁చేకూర	-10.5146
▁తలుపు	-10.5147
▁మంత్ర	-10.5149
▁హెచ్చరించింది	-10.5153
▁స్థలాల	-10.5157
▁బాధితులకు	-10.5159
▁2015	-10.516
▁చేసుకోవడానికి	-10.5161
▁సహకార	-10.5161
▁ప్రతిభ	-10.5166
▁స్థానాలను	-10.5169
ಮಾ	-10.5173
▁*	-10.5175
జెన్	-10.5181
▁తినే	-10.5184
▁చేతికి	-10.5186
▁ఫార్మా	-10.5195
▁కిడ్నాప్	-10.5196
▁ప్రకాశం	-10.5196
▁మేడిగడ్డ	-10.5196
▁డీసీపీ	-10.5196
▁డేవిడ్	-10.5196
వుతుంది	-10.5197
▁బెల్లంపల్లి	-10.5198
ిస్తున్నాయి	-10.5201
▁టోర్నీలో	-10.5203
మూర్తుల	-10.5204
▁2025	-10.5209
▁అత్యాచారం	-10.5211
▁దిల్	-10.5214
▁భయంతో	-10.5216
▁లబ్ధి	-10.5219
▁మారుతుంది	-10.522
పోయారని	-10.5221
06	-10.5225
▁మాట్లాడే	-10.5234
▁ఆగిపోయ	-10.5236
▁పార్కు	-10.5238
▁కై	-10.5243
▁ఆవిష్కరించ	-10.5247
▁وائرل	-10.5247
▁దృశ్యాల	-10.5247
▁రుతుపవనాల	-10.5247
▁డీఎస్పీ	-10.5247
▁వ్యాప్తి	-10.5247
▁గద్దర్	-10.5247
▁బట్టలు	-10.5248
▁గణేష్	-10.5249
▁సీపీఎం	-10.5254
▁ఒక్కటే	-10.5267
ಯಲ್ಲಿ	-10.5271
▁తొక్క	-10.5277
▁క్రూ	-10.528
▁ఆరోగ్యాన్ని	-10.5283
▁టోల్	-10.5287
▁శుక్ర	-10.5294
దళ	-10.5295
▁సంబ	-10.5295
▁ఎమోషనల్	-10.5299
▁డైరెక్ట్	-10.5299
▁న్యూయార్క్	-10.5299
▁శ్రీశైలం	-10.5299
▁డ్యాన్స్	-10.5299
▁స్టాలిన్	-10.5299
▁అమల్లోకి	-10.5299
▁రిపేర్	-10.5299
▁తేలికపాటి	-10.5299
▁క్రీడా	-10.5302
▁తింట	-10.5309
పోర్ట	-10.531
ేయాలని	-10.5317
▁రైస్	-10.5318
▁సౌకర్యాలు	-10.5323
▁పెడుతున్నారు	-10.5337
▁పంపించారు	-10.5339
▁రుణాలు	-10.5341
▁46	-10.5346
▁కాంప్లెక్స్	-10.535
▁దుబాయ్	-10.535
▁నడ్డా	-10.535
▁పుతిన్	-10.535
▁షార్ట్	-10.5351
▁నెలలుగా	-10.5353
ేతర	-10.5362
▁కనుక	-10.5363
పోతే	-10.5367
▁విధాన	-10.5369
स	-10.5371
▁నిలిచి	-10.5372
▁పరుగులకే	-10.538
ుకోవాల్సి	-10.5384
▁ఆశ్రయించారు	-10.5387
▁విశేష	-10.5387
व	-10.5402
ఇంగ్లీష్	-10.5402
▁ఆధ్యాత్మిక	-10.5402
▁కమర్షియల్	-10.5402
▁పర్యవేక్షణ	-10.5402
▁వర్సిటీ	-10.5402
▁మనోహర్	-10.5402
▁విత్తనాల	-10.5402
▁కూల్చివేత	-10.5402
▁కప్ప	-10.5402
▁సంయుక్త	-10.5404
▁గడప	-10.5404
▁భావిస్తోంది	-10.5406
▁చదవ	-10.5406
▁టెర్ర	-10.5406
▁తద్వారా	-10.5406
ಲ್ಲಿ	-10.5409
▁ఫైల్	-10.5411
▁కార్యాలయాల	-10.5418
36	-10.542
▁పట్టణంలో	-10.5423
▁తీరం	-10.5426
▁విమర్శల	-10.5428
▁వాయు	-10.5432
52	-10.5433
లేదన్న	-10.5443
▁ఎలక్ట్రానిక్	-10.5454
ଙ୍କ	-10.5454
▁అథారిటీ	-10.5454
▁బ్రాహ్మణ	-10.5454
▁కామెడీ	-10.5454
▁నివారించ	-10.5454
▁ప్రోగ్రామ్	-10.5454
▁నెగ్గ	-10.5455
▁నెట్ట	-10.5455
▁కానున్నారు	-10.5456
▁దర్శకత్వం	-10.5456
కొట్ట	-10.546
▁దాచ	-10.5463
▁నార్త్	-10.5464
اد	-10.5468
▁డోర్	-10.5469
▁రౌ	-10.547
▁గుర్తించిన	-10.5475
శక్తి	-10.5476
▁దేవర	-10.5477
▁స్నానం	-10.5479
నగర	-10.548
81	-10.5481
▁రాజకీయాలకు	-10.5484
▁కవర్	-10.5488
▁రైళ్లను	-10.5489
▁టచ్	-10.549
▁పీవీ	-10.5491
పరిచి	-10.5493
▁రేట్లు	-10.55
▁రంగాల	-10.5505
▁సౌకర్యం	-10.5505
▁ఆసుపత్రుల	-10.5506
▁రెస్పాన్స్	-10.5506
▁సంరక్షణ	-10.5506
▁సుధాకర్	-10.5506
▁ఆభరణాల	-10.5506
▁గుప్తా	-10.5506
▁vs	-10.5506
▁హుండీ	-10.5506
▁స్టోర్	-10.5506
01	-10.5507
▁జోరుగా	-10.5507
▁భాగస్వామి	-10.5508
▁చేయటం	-10.5509
▁నగరాల	-10.551
▁శిల్ప	-10.5511
కైక	-10.5511
ిస్తారని	-10.5514
▁మేఘా	-10.5515
▁మద్య	-10.5515
▁అందించడం	-10.5516
▁జేపీ	-10.5517
ic	-10.5523
▁బ్లూ	-10.5527
▁కళ	-10.5528
▁పట్టుకున్నారు	-10.5528
ప్రతి	-10.5534
▁చూస్తూ	-10.5537
▁ఆహ్వానించారు	-10.5541
▁పాల్పడుతున్న	-10.5544
ୟ	-10.5546
▁నియామకాల	-10.5548
ారనేది	-10.5549
اہ	-10.5552
▁తీర్చిదిద్ద	-10.5559
▁గవర్నమెంట్	-10.5559
▁ల్యాండర్	-10.5559
▁గులాబీ	-10.5559
▁అబ్బాయి	-10.5559
▁తీర్థ	-10.5559
▁ఊరట	-10.5559
భూషణ్	-10.5559
▁దక్కించుకున్న	-10.556
▁నడప	-10.5561
▁ఉపాధ్యక్ష	-10.5561
▁మొదలుపెట్టారు	-10.5568
▁ఆటగాళ్లు	-10.5569
▁మాఫీ	-10.5582
▁హాఫ్	-10.5583
▁నిప్పు	-10.5588
▁చర్మ	-10.5588
▁రాకపోకలు	-10.5589
▁నిర్మిస్త	-10.5592
▁వెళ్లాలని	-10.5594
కానీ	-10.5594
పాలెం	-10.5595
ేండ్ల	-10.5604
▁కుటుంబాలు	-10.5604
▁పెరగడం	-10.5609
▁పట్టణంలోని	-10.5611
▁ఉక్రెయిన్	-10.5612
▁వందేభారత్	-10.5612
▁మిల్లర్	-10.5612
▁ఫైబర్	-10.5615
▁ఆరోపణలపై	-10.5616
▁అందజేస్త	-10.5616
▁క్రా	-10.5621
▁తీసుకుంటున్నారు	-10.5623
▁వంతు	-10.5624
▁అంతస్తు	-10.5625
▁విడిపో	-10.563
▁తెచ్చుకున్న	-10.5634
ాలనుకునే	-10.5636
▁ఉన్నందున	-10.5636
▁ఉందో	-10.5639
41	-10.5644
▁వాదించ	-10.5645
కాంత్	-10.5648
▁పట్టాలు	-10.5662
▁పెంచుత	-10.5663
ଚ	-10.5665
▁ఆధునిక	-10.5665
▁కృతజ్ఞతలు	-10.5665
▁మైనారిటీ	-10.5665
▁సానుభూతి	-10.5665
▁ఉపరితల	-10.5665
▁సంవత్సరానికి	-10.5665
▁క్లీన్	-10.5665
▁రేపింది	-10.5665
▁భరత్	-10.5665
▁నక్షత్ర	-10.5665
▁అడవుల	-10.5665
మయ్యే	-10.5668
▁సాగుతున్న	-10.5677
87	-10.5679
▁నగరాల్లో	-10.5679
اب	-10.5684
▁ఆశించిన	-10.5684
▁బుధ	-10.5687
▁రిష	-10.5687
▁కారం	-10.5695
▁ప్రత్యేకత	-10.5697
sh	-10.5698
▁ఫండ్స్	-10.5698
▁అత్త	-10.5704
▁ఎకరా	-10.5708
▁పర్యటించారు	-10.5709
▁క్రాస్	-10.5709
▁పిండి	-10.5715
▁కాన్ఫరెన్స్	-10.5719
▁కేటగిరీ	-10.5719
▁గ్యారెంటీ	-10.5719
▁తెలియజేశారు	-10.5719
▁పింఛన్	-10.5719
▁ప్రొడక్షన్	-10.5719
▁స్ట్రీమింగ్	-10.5719
▁ఖైదీ	-10.5719
▁గల్ఫ్	-10.5719
▁నాయకుడి	-10.5719
▁లేద	-10.5721
▁సిద్ధమవుతున్న	-10.5721
▁కలుగుతుంది	-10.5722
▁అర్హులైన	-10.5722
▁అమ్మకాలు	-10.5724
▁చేస్తుండగా	-10.5724
▁మళ్లించ	-10.5725
▁చేశాడని	-10.5725
▁ఉన్నతాధికారుల	-10.5727
▁కుప్పం	-10.5727
▁తీసుకొచ్చారు	-10.5728
▁ఉండేందుకు	-10.5728
▁పడుతుందని	-10.5737
తున్నారు	-10.5741
▁బోర్డ్	-10.5744
▁ఉండదని	-10.5748
▁అరటి	-10.5752
▁యోగి	-10.5752
▁సారించ	-10.5765
▁సేవల	-10.5765
ಿದ್ದ	-10.5768
▁కర్కాటక	-10.5772
▁విశ్వవిద్యాలయ	-10.5772
▁దర్శనానికి	-10.5773
▁అవకాశముంది	-10.5774
▁బ్యాటరీ	-10.5775
▁సైనికుల	-10.5777
▁కలిగించే	-10.5778
▁పడగొట్ట	-10.5778
▁నడవ	-10.5779
▁వెళ్లిపోయారు	-10.5782
ch	-10.5785
▁వచ్చాడు	-10.5788
▁గేమ్స్	-10.5788
▁ప్రభుత్వమే	-10.579
▁ఉరి	-10.5791
▁పాల్గొంటారు	-10.5795
▁టాస్క్	-10.5798
▁ఉగ్రవాదుల	-10.58
▁కలెక్షన్స్	-10.5803
▁షాట్	-10.5808
▁సన్నిహిత	-10.5809
▁వార్తల	-10.5812
▁గోవా	-10.5815
రకాల	-10.582
▁ఎడ్యుకేషన్	-10.5826
▁పరిశీలన	-10.5826
▁పాలమూరు	-10.5826
▁స్పీడ్	-10.5826
▁జంక్షన్	-10.5826
▁కోవిడ్	-10.5827
▁రిటైర్డ్	-10.5828
▁ఐడీ	-10.5829
▁గురుకుల	-10.583
▁జరిగాయ	-10.5843
▁నిలిచాడు	-10.5844
▁కొట్టిన	-10.5847
97	-10.5848
▁పలక	-10.5852
▁నేరం	-10.5855
భద్ర	-10.5856
ందరినీ	-10.5857
▁వర్షాలకు	-10.5859
▁బదులుగా	-10.5875
▁సభ్య	-10.5875
▁ట్రె	-10.5879
▁అక్టోబరు	-10.5881
▁ఎమర్జెన్సీ	-10.5881
▁కూర్చో	-10.5881
▁సాంస్కృతిక	-10.5881
▁ପ୍ର	-10.5881
▁సురేశ్	-10.5881
▁ఇవన్నీ	-10.5881
▁కేరళలో	-10.5884
▁ఎదిగ	-10.5884
▁అటువంటి	-10.5886
▁ఆర్టికల్	-10.5886
▁2011	-10.589
▁దొర	-10.5891
38	-10.5899
▁లక్ష్యాన్ని	-10.5901
▁వివరించింది	-10.5902
▁బాలయ్య	-10.5903
▁కార్యాలయ	-10.5912
▁బయటపడ్డ	-10.5912
షియల్	-10.5912
▁ఇవ్వలేదని	-10.5914
▁నివసిస్తున్న	-10.5916
▁శుభ్	-10.5925
▁చేయనుంది	-10.5926
▁లీడర్ల	-10.5935
▁అసహనం	-10.5935
▁దూసుకు	-10.5935
▁బిర్యానీ	-10.5935
▁కూర్చున్న	-10.5935
▁నంద్యాల	-10.5935
▁బందోబస్తు	-10.5935
▁వారాహి	-10.5935
▁దిగువ	-10.5936
▁కట్టిన	-10.5937
▁దినోత్సవ	-10.5938
▁కాపీ	-10.5942
▁కనిపించారు	-10.5943
▁వివరిస్త	-10.5949
▁తాగడం	-10.5949
▁ఉండొచ్చు	-10.5952
▁మొదట్లో	-10.5955
ఒక	-10.5958
▁సాగింది	-10.5959
▁పీఎం	-10.5962
శాంతి	-10.5966
▁కష్టపడి	-10.597
▁అధ్యయన	-10.597
చూప	-10.5975
▁పేజీ	-10.5978
▁పనిచేస్తుంద	-10.5983
▁కాంట్రాక్ట్	-10.599
▁ట్యాంక్	-10.599
▁రైతుబంధు	-10.599
▁ప్రకాశ్	-10.599
▁చికెన్	-10.599
▁ముగిసే	-10.599
▁ఘాట్	-10.5991
▁పొడిగించ	-10.5992
సెన్స	-10.5995
▁భుజ	-10.6004
▁దేవుడి	-10.6005
▁మతం	-10.6012
▁దందా	-10.6017
▁మొదలవ	-10.6018
▁సందర్భ	-10.6024
ుతుండటంతో	-10.6024
ವಾ	-10.6024
▁మొదలై	-10.6027
▁నిరంతరం	-10.6028
▁మద్దత	-10.6029
▁వార్తల్లో	-10.6031
▁ఉన్నతాధికారులు	-10.6037
▁నెలకొల్ప	-10.6046
▁ముహూర్త	-10.6046
▁హుస్సేన్	-10.6046
▁కోల్పోయి	-10.6047
▁మలుపు	-10.6047
▁ఫ్లాట్	-10.6048
▁దశాబ్దాల	-10.6049
▁కాలువ	-10.6053
▁వాహనాలను	-10.6054
▁తీసుకొచ్చిన	-10.6055
▁రన్స్	-10.606
▁లేదో	-10.6062
డానికే	-10.6062
▁సిరాజ్	-10.6062
▁ఇలాగే	-10.6064
▁రోజురోజుక	-10.6065
▁ఉల్లంఘించ	-10.6067
▁చెడు	-10.6078
ారాయన	-10.608
▁అవుతుంద	-10.608
▁బలపడ	-10.6083
▁యూకే	-10.6088
ಬ್	-10.609
▁చేయవచ్చు	-10.6092
▁జగదీశ్	-10.6101
▁ఆదివాసీ	-10.6101
▁తరబడి	-10.6101
▁కడియం	-10.6101
▁లక్ష్యంతో	-10.6104
▁తగిలింది	-10.6104
▁అనుచరులు	-10.6106
▁వేట	-10.6111
▁ವಿಡಿಯೋ	-10.6113
▁పాయింట్లు	-10.6114
▁చేపడుతున్న	-10.6114
▁సమాజం	-10.6125
▁తండా	-10.6127
▁చెప్పినా	-10.6132
▁నిషేధ	-10.6134
▁స్థానికంగా	-10.6137
▁బ్యాట్	-10.614
▁ప్రయోగం	-10.614
పార్టీ	-10.6141
▁సంబంధ	-10.6143
▁భాషల్లో	-10.6144
▁అంత్యక్రియల	-10.6157
▁డయాబెటిస్	-10.6157
▁మరుసటి	-10.6157
▁ప్రవర్తించ	-10.6157
▁మత్స్య	-10.6157
▁రేవణ్ణ	-10.6157
▁స్తంభ	-10.6157
▁కురిసిన	-10.6157
▁డీజిల్	-10.6157
▁కొడాలి	-10.6157
▁స్పిన్నర్	-10.6158
▁మల్టీ	-10.6158
▁प	-10.6158
▁మర్చిపో	-10.6158
ాడట	-10.6159
త్వాన్ని	-10.6159
▁సృష్టిస్త	-10.6159
▁పరిగణనలో	-10.6162
▁చేస్తుంటారు	-10.6163
▁బదులు	-10.6164
▁చేసుకునేందుకు	-10.6164
▁అయినట్లు	-10.6165
▁బస్సుల్లో	-10.6171
▁చాన్స్	-10.6171
SC	-10.6171
క్కడ	-10.6172
2024	-10.6176
ిస్తానని	-10.618
▁వ్యయం	-10.618
▁కుర్ర	-10.618
▁కమల్	-10.6181
▁కాఫీ	-10.6182
▁అదృష్ట	-10.6186
▁మరొకరు	-10.6189
▁ఆకర్షించ	-10.6199
▁బీఎస్	-10.62
▁నాగ్	-10.6205
▁కుంభకోణం	-10.6213
+	-10.6213
▁భావోద్వేగ	-10.6213
▁పర్యటిస్త	-10.6213
▁అలియాస్	-10.6213
కముందే	-10.6213
▁చూసింది	-10.6217
▁గదిలో	-10.622
▁సౌదీ	-10.622
▁పురుగు	-10.6221
▁వస్తువులను	-10.6222
▁పేసర్	-10.6222
▁జవాన్	-10.6223
▁ఆడుతున్న	-10.6225
▁చేతుల్లో	-10.6225
ణీ	-10.623
▁అప్పగించారు	-10.6231
ರೆ	-10.6237
ుకోవాల్సిన	-10.6237
ತ್	-10.6247
▁డొ	-10.6248
▁మంచిదని	-10.6249
▁కారణాలతో	-10.6249
▁విధులు	-10.6251
▁కొనసాగిస్తున్న	-10.6251
▁అకాల	-10.6256
▁అందించేందుకు	-10.6258
▁పేర	-10.6265
▁విషాద	-10.6269
▁చుట్టుపక్కల	-10.627
▁ఫౌండేషన్	-10.627
▁ల్యాబ్	-10.627
▁పెట్టుబడుల	-10.627
▁సర్కిల్	-10.6272
▁నడిపించ	-10.6273
▁కోల్పోయారు	-10.6274
▁ఐపీఎస్	-10.6275
▁వర్కర్	-10.6277
ాడో	-10.628
▁ప్రయత్నాల	-10.6281
▁ఐక్య	-10.6283
దేనని	-10.6294
▁తగ్గడం	-10.63
▁ర్శ	-10.6308
▁కనక	-10.6311
వర్గాల	-10.6312
▁పెరగడంతో	-10.6316
ుతుందన్నారు	-10.6322
▁కరెంటు	-10.6326
▁పాలస్తీనా	-10.6326
▁ఫారెస్ట్	-10.6326
▁బ్రహ్మోత్సవాల	-10.6327
▁రహదారుల	-10.6327
గమన	-10.6328
▁మాసంలో	-10.6328
▁సింగపూర్	-10.6329
▁హాసన్	-10.6332
▁రెండోసారి	-10.6337
▁వీసీ	-10.6337
▁సులభంగా	-10.6339
▁తెలుప	-10.6343
42	-10.6345
▁ఎంసీ	-10.6353
▁ముంపు	-10.6355
▁గాజు	-10.6355
వద్దు	-10.6355
లక్ష్మీ	-10.6358
▁సలహాదారు	-10.636
▁పెరుగుతాయి	-10.6361
▁డీఏ	-10.6368
▁రావడానికి	-10.637
నాయుడు	-10.637
▁ఎగ్	-10.6373
▁కాస్ట్	-10.6374
▁51	-10.6376
▁నందమూరి	-10.6384
▁పరిరక్షణ	-10.6384
▁ప్రాక్టీస్	-10.6384
▁యాక్టివ్	-10.6384
▁ముమ్మరం	-10.6384
▁పాటిల్	-10.6385
▁మూడోసారి	-10.6389
▁గ్యా	-10.6392
▁ఏండ్లు	-10.6392
▁పోషకాలు	-10.6397
ವನ್ನು	-10.6398
ವು	-10.6398
▁జేసీ	-10.641
▁120	-10.6411
▁రూపొందించిన	-10.6411
▁చేయొచ్చు	-10.6411
▁విమానాశ్రయ	-10.6413
▁ಎ	-10.6414
వెల్	-10.6417
▁క్రీడల	-10.6418
ଇ	-10.6427
▁పెంచింది	-10.643
▁ଆ	-10.643
▁భిన్న	-10.643
▁ఉద	-10.6431
▁ఉన్నవారు	-10.6439
▁ఉత్తరాఖండ్	-10.6441
▁ట్యాక్స్	-10.6441
▁ల్యాండింగ్	-10.6441
▁మొన్నటి	-10.6441
▁అపార్ట్	-10.6441
బోతుంది	-10.6441
▁సెమీస్	-10.6441
▁వసతి	-10.6441
▁వదల	-10.6442
▁ప్రవాహ	-10.6443
▁ఫ్రాన్స్	-10.6443
▁ఇంధన	-10.6444
▁బీఎస్పీ	-10.6445
▁హ్యాండ్	-10.6446
▁భరించ	-10.6446
▁ఆకట్టుకుంట	-10.6447
▁ప్రభావిత	-10.6452
▁సమావేశాల్లో	-10.6455
▁నటించారు	-10.6458
▁వారిద్దర	-10.6459
▁తెలిపాయి	-10.6461
కేశవ	-10.6468
▁కళ్లు	-10.6468
▁అయిదు	-10.6468
▁బోధన	-10.6468
వంతు	-10.6475
▁వ్యతిరేకించ	-10.6476
▁తెలుసుకో	-10.6477
▁కనిపిస్తాయి	-10.648
▁జరుపుతున్న	-10.6491
▁కుప్పకూల	-10.6496
వృద్ధ	-10.6498
ض	-10.6499
▁జర్నలిస్ట్	-10.6499
▁వివేకానంద	-10.6499
▁యాపిల్	-10.6499
▁పరువు	-10.6499
▁టేక	-10.65
▁దివ్య	-10.6501
▁ఫీల్డ్	-10.6501
▁వహిస్తున్న	-10.6504
▁మమ్మల్న	-10.6504
▁చేయనున్న	-10.6505
▁దేవత	-10.6507
▁ఆలయానికి	-10.6507
పోవడానికి	-10.6513
▁చెప్తున్న	-10.6517
▁పొలాల	-10.6521
ಗೆ	-10.6524
▁వరస	-10.6527
▁దారితీస	-10.6528
خ	-10.6532
▁ఆధారపడి	-10.6532
▁స్థలాన్ని	-10.6533
శ్వర	-10.6538
▁ఠాకూర్	-10.6557
▁లైసెన్స్	-10.6557
▁వీరిద్దరూ	-10.6557
▁సేకరణ	-10.6557
▁ఫైనాన్స్	-10.6557
▁ప్యాకేజీ	-10.6557
▁నివారణ	-10.6557
▁చార్జ్	-10.6557
▁ఛార్జ్	-10.6557
▁బ్యాలెట్	-10.656
హైడ్ర	-10.6564
▁చుక్క	-10.6564
పరిచే	-10.6564
ಲಿ	-10.6575
el	-10.6577
గలుగు	-10.6583
▁వెళ్లాడు	-10.6583
▁అరుణ	-10.6592
ಪ್	-10.6593
▁బాత్	-10.6596
▁మొహ	-10.6602
▁ప్రయత్నించారు	-10.6603
▁52	-10.6607
ుకుంటుంది	-10.6608
▁గాజాలో	-10.6609
▁మెరుగుపడ	-10.6613
य	-10.6614
▁అల్పపీడనం	-10.6615
▁జూబ్లీహిల్స్	-10.6615
▁మైనార్టీ	-10.6615
▁విస్తీర్ణం	-10.6615
▁శ్రీకాకుళం	-10.6615
▁ప్రవర్తన	-10.6615
▁జెండర్	-10.6616
▁ధరించి	-10.6616
▁ఫుట్	-10.6616
▁రాంబాబు	-10.6617
▁పేట్	-10.6621
▁సందర్భంలో	-10.6623
▁2004	-10.6627
▁లెక్కల	-10.6628
▁అందిస్తుంది	-10.6635
id	-10.6641
▁ఏళ్ళ	-10.6641
మోహన్	-10.6642
▁అదృష్టం	-10.6644
▁తీసుకొచ్చింది	-10.6649
▁నియోజకవర్గానికి	-10.6651
▁సమాచార	-10.6652
ెయిర్	-10.6654
▁రాజ్య	-10.6655
సింహ	-10.6666
▁సమన్వయం	-10.6667
గ్రామ	-10.6673
▁نہیں	-10.6674
▁రఘునందన్	-10.6674
▁ముగింపు	-10.6674
▁ఇమేజ్	-10.6674
▁ప్రకాష్	-10.6674
▁కురిపించ	-10.6675
▁అధ్యక్షురాలు	-10.6676
▁జీర్ణ	-10.6677
▁వసతుల	-10.6679
▁ఆకర్షణ	-10.6682
▁పిడుగు	-10.6684
▁ఉపయోగిస్త	-10.669
▁కొన్నిసార్లు	-10.6693
▁పెరుగు	-10.6697
ిస్తుందని	-10.6699
▁విసిరారు	-10.67
▁అనుమతులు	-10.6703
ରା	-10.6708
▁దొ	-10.671
▁పోలి	-10.672
▁కష్టాల	-10.6728
▁బహిరంగంగా	-10.6733
ಿದ್ದಾರೆ	-10.6733
▁అంతర్గత	-10.6733
▁బాక్సాఫీస్	-10.6733
▁ప్రసిద్ధ	-10.6733
▁కూతురి	-10.6734
▁రీతిలో	-10.6734
93	-10.6734
▁కార్యవర్గ	-10.6734
▁మెయిల్	-10.6735
▁ଉ	-10.6737
ఇది	-10.6737
▁షీట్	-10.6738
▁ఉపాధ్యాయుల	-10.6739
▁మాట్లాడటం	-10.6749
▁వేసుకున్న	-10.6751
▁నాటు	-10.6754
▁వ్యూహ	-10.6756
▁అడ్డుకున్నారు	-10.6764
▁నిర్మాణాలు	-10.6772
▁నియమించారు	-10.6772
▁కుమారుడి	-10.6778
▁షాప్	-10.6782
▁కిషోర్	-10.6793
▁దుర్వినియోగ	-10.6793
▁లెక్కింపు	-10.6793
▁జాయింట్	-10.6793
▁పోర్టల్	-10.6793
▁మంగళగిరి	-10.6794
▁వర్సెస్	-10.6794
▁గుడివాడ	-10.6794
▁లంక	-10.6795
▁అధ్యక్షతన	-10.6796
ద్దాం	-10.6798
▁జన్మించిన	-10.6799
ند	-10.68
▁దూక	-10.68
▁బర్త్	-10.6803
▁ఉంటుందో	-10.6807
▁కనిపించిన	-10.6809
▁వస్తువుల	-10.6811
▁బస్టర్	-10.6812
▁విషయమై	-10.6813
▁తెస్త	-10.682
51	-10.6836
ti	-10.6841
▁చిత్రానికి	-10.6841
▁చేయగల	-10.6842
▁బయల్దేర	-10.6853
▁అభినందనలు	-10.6853
▁డైరెక్షన్	-10.6853
▁తాగునీటి	-10.6853
▁బ్రిటిష్	-10.6853
▁వదిలేసి	-10.6853
▁స్ట్రాంగ్	-10.6853
▁ఇన్వెస్ట్	-10.6853
▁ఓబీసీ	-10.6853
▁ఆస్కార్	-10.6853
▁వేములవాడ	-10.6853
▁ట్రైనింగ్	-10.6854
▁రామకృష్ణారెడ్డి	-10.6855
▁వేధించ	-10.6855
షియన్	-10.6855
▁సందర్భాల్లో	-10.6855
▁పీజీ	-10.6856
▁జరిపారు	-10.6858
▁అభినందించారు	-10.6861
▁అడిగితే	-10.6861
▁తొలగిస్త	-10.6869
▁సైనికులు	-10.687
▁కుదర	-10.6875
▁భావించిన	-10.688
▁అమర్చ	-10.6891
▁తీర్మాన	-10.6892
nd	-10.6892
▁ఎంఎస్	-10.6893
▁దేవ్	-10.691
x	-10.6913
▁నాణ్యమైన	-10.6913
▁పాజిటివ్	-10.6913
▁వైఫల్య	-10.6913
▁రీసెంట్	-10.6913
▁విజయనగరం	-10.6913
▁మొత్తానికి	-10.6913
▁అంతరాయం	-10.6913
▁క్రేజ్	-10.6913
▁వచ్చాయని	-10.6913
▁ఫ్లోర్	-10.6913
▁థ్రిల్లర్	-10.6914
▁సంబరాలు	-10.6914
▁ಈ	-10.6914
▁నడిచే	-10.6915
▁మైనింగ్	-10.6917
▁నేర్ప	-10.6919
▁ఆగస్ట్	-10.6924
▁ముస్లింల	-10.6925
▁సిరియా	-10.6928
▁పూల	-10.693
ee	-10.6933
▁తగ్గుతుంది	-10.6938
▁హోమ్	-10.6938
▁పదార్థాలు	-10.6941
▁పాండ్యా	-10.6942
▁ఆసక్తికరంగా	-10.6943
బోమని	-10.6944
ಲ್ಲ	-10.6951
ుకుంటోంది	-10.6958
▁విభేదాలు	-10.6963
ష్ణ	-10.6963
▁ప్రశంస	-10.6967
▁హేమ	-10.6971
▁మిశ్రమ	-10.6974
▁పేషెంట్	-10.6974
▁రెండింటి	-10.6974
▁ఇరవై	-10.6974
▁డిసైడ	-10.6978
▁పాడి	-10.698
▁2013	-10.6982
▁తెలుసుకోవాల	-10.6987
▁కాలుష్యం	-10.699
▁సెక్స్	-10.6995
▁విడాకులు	-10.7
▁చేసుకుంటే	-10.7001
దర్శించుకున్నారు	-10.7002
టైన్	-10.7005
▁కాకపోతే	-10.7006
▁తెలుస్త	-10.7007
le	-10.7009
▁వినియోగదారులు	-10.7011
▁స్నేహితులు	-10.7017
మధ్య	-10.7017
har	-10.7019
▁సులభ	-10.7022
ొద్ద	-10.7028
▁అధిగమించ	-10.7035
▁జర్మనీ	-10.7035
▁ఎర్రబెల్లి	-10.7035
▁ఖైరతాబాద్	-10.7035
▁వంతెన	-10.7035
▁సెటైర్	-10.7035
▁ಎಂದು	-10.7035
▁అనకాపల్లి	-10.7035
▁రాయితీ	-10.7035
▁స్థానానికి	-10.7035
▁లక్షలాది	-10.7035
▁బొత్స	-10.7036
▁లోపలికి	-10.7037
▁రమణ	-10.7038
▁నడుస్తోంది	-10.7038
ాభివృద్ధి	-10.7041
▁జోడించ	-10.7041
ండ్రు	-10.7047
▁ప్రీతి	-10.7049
▁దాటిన	-10.7052
▁చేయాలంటూ	-10.7053
▁జీతాలు	-10.7057
▁చేసుకుంటూ	-10.7063
▁ఫార్మ	-10.7063
مل	-10.7067
▁మార్గదర్శకాల	-10.7068
▁గాయపడ్డ	-10.7069
▁రెగ్యుల	-10.7069
▁పెంచాలని	-10.7085
దుర్గ	-10.7087
▁హాజరైన	-10.7094
▁ఇంజనీర్	-10.7096
▁ఇన్ఫెక్షన్	-10.7096
▁ఎఫ్ఐఆర్	-10.7096
▁దృష్ట్యా	-10.7096
▁రిజిస్టర్	-10.7096
▁స్పష్టమైన	-10.7096
▁ఆక్రమించ	-10.7096
▁బెనర్జీ	-10.7096
▁మొదలయ్యాయి	-10.7096
▁ఎలాగైనా	-10.7096
▁అజిత్	-10.7096
▁శరత్	-10.7096
▁సాక్షి	-10.7096
▁వైయస్	-10.7097
▁సిద్ధాంత	-10.7097
▁బాటిల్	-10.7099
▁సామాజికవర్గ	-10.71
▁చేస్తోన్న	-10.7103
▁మెంబర్	-10.7104
ak	-10.7106
▁టవర్	-10.7111
▁సంక్షోభం	-10.7112
▁బాలుడు	-10.7112
▁వాస్తు	-10.7116
కూడద	-10.712
▁పొలం	-10.7122
▁చెల్లించాల్సి	-10.7125
▁వండ	-10.7127
▁వ్యక్త	-10.7139
va	-10.7143
▁అవకాశమ	-10.7154
▁అనౌన్స్	-10.7158
▁ఆంజనేయ	-10.7158
▁కాంట్రాక్టు	-10.7158
▁అస్సాం	-10.7158
▁వీరిద్దరి	-10.7158
▁వైజాగ్	-10.7158
▁కమీషన్	-10.7158
▁పెండ్లి	-10.7158
▁ప్రపంచకప్	-10.7158
▁నితిన్	-10.7158
▁హాజరై	-10.716
▁చూస్తుంటే	-10.716
▁ప్రతిరోజూ	-10.7164
▁సంజీవ	-10.7166
▁ప్రశాంతంగా	-10.7167
▁ఇప్పటివరక	-10.7176
▁హసన్	-10.7178
▁బీసీలకు	-10.7178
▁ఆహ్వానం	-10.7179
▁చేసుకున్నట్లు	-10.7182
▁చిక్కుకున్న	-10.7182
▁చూశారు	-10.7184
▁ప్రమాదాలు	-10.7184
▁దళాల	-10.7187
▁ఎగుర	-10.7189
▁పరిమితి	-10.7189
▁నడుపుతున్న	-10.7194
▁పెట్టాలి	-10.7197
▁ఏంటో	-10.7198
▁మండలాల	-10.7198
▁క్యాప్	-10.7213
▁అకాడమీ	-10.722
▁ఆధిపత్య	-10.722
▁ఆశీర్వాద	-10.722
▁క్వాలిటీ	-10.722
▁జ్ఞాపక	-10.722
▁పరోక్షంగా	-10.722
▁ప్రస్తావన	-10.722
▁ఫ్లెక్సీ	-10.722
▁హిమాచల్	-10.722
▁మురళీ	-10.722
▁రిటైర్మెంట్	-10.722
▁రెజ్లర్	-10.722
▁సరిపడా	-10.722
▁ప్రాంగణ	-10.722
▁జ్వరం	-10.722
▁డ్రైవ్	-10.7223
▁బోగీ	-10.7224
▁రౌడీ	-10.7225
▁دی	-10.7226
▁ట్రస్ట్	-10.7229
▁కార్యాలయానికి	-10.7234
▁స్టాండ	-10.7234
▁రోజులపాటు	-10.7237
▁విజయవంతం	-10.7237
▁గురువు	-10.7238
▁ఈయన	-10.7238
▁పోడు	-10.7238
▁మైనర్	-10.7239
▁తీస్తున్న	-10.7242
ప్రియ	-10.7249
▁పూజించ	-10.7271
is	-10.7273
ଥିବା	-10.7282
▁అంబులెన్స్	-10.7282
▁క్యూసెక్కుల	-10.7282
▁విరమణ	-10.7282
▁విరుద్ధంగా	-10.7282
▁వ్యాపారవేత్త	-10.7282
▁సిఫార్సు	-10.7282
▁మిమ్మల్ని	-10.7282
▁తనదైన	-10.7283
▁దామోదర	-10.7283
▁ఏడుగురు	-10.7284
ైజేషన్	-10.7284
▁ఉక్కు	-10.7284
▁వ్యాపించ	-10.7285
▁వ్యాఖ్య	-10.7292
▁అనిపిస్త	-10.7295
▁కావాలంటే	-10.7297
▁టీజీ	-10.7303
09	-10.7305
37	-10.7305
ست	-10.731
▁ప్రచారానికి	-10.7317
▁లెటర్	-10.732
▁మార్కులు	-10.7327
▁ఎస్ఐ	-10.7328
▁విసిర	-10.7342
▁శాస్త్రవేత్త	-10.7343
▁యజమానుల	-10.7345
▁అబద్ధాల	-10.7345
▁ఎగ్జిక్యూటివ్	-10.7345
▁డైరెక్టరేట్	-10.7345
▁భయాందోళన	-10.7345
▁ಆದ	-10.7345
▁అసభ్య	-10.7345
▁బ్యూరో	-10.7345
▁సంపూర్ణ	-10.7345
▁గరిష్ట	-10.7345
▁ಮತ್ತ	-10.7346
▁పొడవు	-10.7346
▁లక్ష్మీదేవి	-10.7347
▁స్వర్ణ	-10.7347
▁దాల్చ	-10.7348
▁అనారోగ్యంతో	-10.7351
▁ఆదరణ	-10.7351
▁బర్గ్	-10.7353
▁జానీ	-10.7353
▁పీఎస్సీ	-10.7357
▁సుమన్	-10.7362
▁రాలేదని	-10.7363
▁బ్యాగ్	-10.7365
▁Ra	-10.7366
ಿಸಿ	-10.7367
▁ఇంతకీ	-10.7369
▁తరపు	-10.7371
▁ఉగ్రవాద	-10.7376
ka	-10.738
▁చంద్రుడిపై	-10.7383
నవంబర్	-10.7389
ానిక	-10.739
▁సృష్టించింది	-10.7394
ఎంసీ	-10.7399
ఎక్స్	-10.74
▁ప్లస్	-10.7402
▁పార్లమెంట	-10.7403
▁తిరుగుబాటు	-10.7409
▁పరిణామం	-10.7409
▁భువనేశ్వరి	-10.7409
▁విశ్రాంతి	-10.7409
▁కదలిక	-10.7409
▁నలుగురి	-10.7409
▁రవితేజ	-10.7409
▁సమ్మేళన	-10.7409
▁ఇంజిన్	-10.7409
▁లిఫ్ట్	-10.7409
▁ఏంటంటే	-10.7409
▁ట్రేడ్	-10.7409
▁ప్రాసెస్	-10.741
▁వైద్యుల	-10.7411
పెడుతున్న	-10.7413
▁రాజేంద్ర	-10.7414
▁అయ్యప్ప	-10.7425
▁కార్యక్రమాల్లో	-10.7428
▁పత్రం	-10.7432
▁బుద్ధి	-10.7441
▁చేసేవారు	-10.7445
వెలుగు	-10.7453
నున్నట్టు	-10.7459
▁చెల్లించాలని	-10.746
▁ఆహారాన్ని	-10.746
▁ఉపాధ్యాయ	-10.7466
▁తీశా	-10.7469
▁ఇందిరమ్మ	-10.7472
▁కంప్లీట్	-10.7472
▁చూద్దాం	-10.7472
▁స్టిట్యూట్	-10.7472
▁ఘాటు	-10.7472
▁జడ్పీటీసీ	-10.7473
▁గాయాలయ్యాయి	-10.7473
▁ఆత్మీయ	-10.7474
▁జూపల్లి	-10.748
▁చర్చనీయాంశంగా	-10.7484
▁ఏలూరు	-10.7487
▁తీసుకురా	-10.75
▁ఆమోద	-10.7506
ଟି	-10.7508
▁కాల్చి	-10.7517
han	-10.7519
▁నియామకం	-10.7521
▁అత్యున్నత	-10.7536
▁తాడేపల్లి	-10.7536
▁నిరోధక	-10.7536
▁ఇమ్రాన్	-10.7536
▁జీఎస్టీ	-10.7536
▁బిహార్	-10.7536
▁చనిపోయాడు	-10.7537
▁భగవంత	-10.7537
▁నల్లగొండ	-10.7537
▁వినిపిస్తోంది	-10.7538
▁మహేందర్	-10.7539
▁టైగర్	-10.754
▁పూర్తయిన	-10.7541
▁బాగ్	-10.7544
▁గురయ్యా	-10.7545
ెయింట్	-10.7546
రియల్	-10.7551
▁మొక్కులు	-10.7552
▁అవుతాయి	-10.756
▁చేయనున్నట్లు	-10.7567
▁వాస్తవానికి	-10.7571
బాట	-10.7578
▁తవ్వ	-10.7589
▁భాగస్వామ్యం	-10.7589
▁సమావేశమై	-10.7596
▁ఆక్రమణ	-10.7601
▁ఉత్తీర్ణ	-10.7601
▁జగనన్న	-10.7601
▁బంగారాన్ని	-10.7601
▁బస్టాండ్	-10.7601
▁వైకుంఠ	-10.7601
▁సుధీర్	-10.7601
▁సిగ్గు	-10.7601
▁వ్యవస్థాపక	-10.7601
▁వెయిట్	-10.7601
▁వికాస్	-10.7602
▁లేకపోయినా	-10.7605
▁శ్రీకారం	-10.7609
▁పాల్గొంట	-10.762
▁షమీ	-10.7628
▁సహజంగా	-10.7628
▁తగ్గుత	-10.763
▁స్వయం	-10.7655
▁ఆధారపడ	-10.7659
▁వెంకటేశ్	-10.766
>	-10.7666
▁పౌర్ణమి	-10.7666
▁రాజమౌళి	-10.7666
▁వాషింగ్టన్	-10.7666
▁నరేందర్	-10.7666
▁రుద్ర	-10.7667
▁మామూలు	-10.7667
▁హోంమంత్రి	-10.7667
▁శ్రీనివాసరావు	-10.7668
▁మిల్లు	-10.7669
▁అక్కడక్కడ	-10.767
▁పుస్తకాల	-10.7678
▁జలాల	-10.7707
▁గమనించిన	-10.7715
ط	-10.7722
▁విజయాలు	-10.7728
▁అరేబియా	-10.7731
▁అర్వింద్	-10.7731
▁కారిడార్	-10.7731
▁నైరుతి	-10.7731
▁వాగ్వాద	-10.7731
▁ఇష్యూ	-10.7731
▁బెట్టింగ్	-10.7731
▁وال	-10.7731
▁వందలాది	-10.7731
▁అరికట్ట	-10.7731
▁ఫారమ్	-10.7731
▁ప్రసారం	-10.7731
▁పడకుండా	-10.7734
▁పుట్టినరోజు	-10.7734
▁షాపింగ్	-10.7735
▁బానిస	-10.7738
▁అతిథి	-10.7738
▁పడిపోయింది	-10.7742
▁సాధించడం	-10.7745
▁నమోదవుత	-10.7753
▁లీడ్	-10.7757
-19	-10.7758
▁గెలిచింది	-10.7768
▁కప్పి	-10.7786
▁సభ్యత్వ	-10.7795
ु	-10.7797
▁సౌతాఫ్రికా	-10.7797
▁ఇబ్రహీం	-10.7797
▁ఎపిసోడ్	-10.7797
▁నిమజ్జన	-10.7797
▁పరిశోధకులు	-10.7797
▁ఎన్నడూ	-10.7797
▁ఇంట్ర	-10.7797
▁సప్లై	-10.7797
▁హార్దిక్	-10.7797
▁ఫంక్షన్	-10.7797
▁శివాజీ	-10.7797
▁వివక్ష	-10.7797
▁స్కీం	-10.7798
▁హింసాత్మక	-10.7799
▁ఇటువంటి	-10.7799
▁పార్కింగ్	-10.78
▁తెచ్చిన	-10.78
▁ఆకలి	-10.78
▁ఒప్పందాల	-10.7801
▁తొందర	-10.7802
▁వసంత	-10.7803
▁రాజ్యం	-10.7805
▁చేస్తున్నట్టు	-10.7806
▁పచ్చి	-10.7809
▁పొందుతూ	-10.7816
400	-10.7822
▁మెడల్	-10.7823
▁అన్నట్లు	-10.7825
▁జనాలు	-10.7829
▁మూత్ర	-10.7831
▁పీఏ	-10.7834
▁హెల్ప	-10.7836
▁యువకుల	-10.7837
▁ఉద్రిక్త	-10.7842
▁చూడటం	-10.7851
▁చేయాలన్న	-10.7857
▁కులగణన	-10.7863
▁రిజల్ట్	-10.7863
▁ఈశాన్య	-10.7863
▁మహమ్మద్	-10.7863
▁రాఖీ	-10.7863
▁నినాదం	-10.7863
▁అమృత్	-10.7863
▁నెట్టింట	-10.7863
▁ఆఫ్రికా	-10.7863
▁వారసత్వ	-10.7864
▁కౌన్సిలర్	-10.7864
▁ఆకట్టుకున్న	-10.7865
▁جس	-10.7869
li	-10.7872
లేనని	-10.7872
▁పేమెంట్	-10.7875
▁బోనాల	-10.7876
▁అల్లం	-10.7878
▁బృందాలు	-10.7878
▁గనుల	-10.7881
▁శివారులో	-10.7884
▁రాశులవారి	-10.7885
▁భోజన	-10.7897
.500	-10.7901
▁భావిస్తారు	-10.7909
ుంటాడు	-10.7926
▁అహ్మదాబాద్	-10.793
▁కరెన్సీ	-10.793
▁కొనియాడారు	-10.793
▁పర్సనల్	-10.793
▁లేకుంటే	-10.794
▁క్యాచ్	-10.7942
گر	-10.7945
▁ఆకర్ష	-10.7947
▁పలుమార్	-10.7948
▁بی	-10.7952
▁ప్రాంతాన్ని	-10.7958
▁సీతారామన్	-10.796
▁వ్యాయామం	-10.796
చేసింది	-10.798
బీజేపీ	-10.7981
▁నివసించే	-10.7985
▁రెట్లు	-10.7987
▁అవుతూ	-10.7988
▁రాత్ర	-10.7996
▁ఆకస్మిక	-10.7997
▁గజ్వేల్	-10.7997
▁మండిపడుతున్నారు	-10.7997
▁సర్వీసెస్	-10.7997
▁నితీశ్	-10.7997
▁విప్లవ	-10.7997
▁ಎಂಬ	-10.7997
▁శబ్ద	-10.7998
▁ఆదిత్యనాథ్	-10.7998
▁నిలువ	-10.8002
▁సిపి	-10.8003
▁మారిపోయింది	-10.8003
▁అప్లై	-10.8003
▁చివర్లో	-10.8003
▁దిగజార	-10.8007
▁షాకింగ్	-10.8008
▁రెండ	-10.8015
▁సూర్యుడు	-10.8015
▁కట్టడి	-10.8023
▁న్యాయవాదులు	-10.8027
▁నిర్వహించింది	-10.803
ରୁ	-10.8033
▁600	-10.8034
▁దోమల	-10.8047
▁రుణాల	-10.8054
▁మునుగోడు	-10.8065
▁సెప్టెంబరు	-10.8065
▁కొద్దిసేపటి	-10.8065
▁భగీరథ	-10.8065
▁బహుమతి	-10.8065
ల్యూషన్	-10.8065
▁సమీకరణాల	-10.8065
▁సలార్	-10.8066
▁అనిపిస్తుంది	-10.8067
▁అశ్వ	-10.8071
▁ప్రయాణిస్తున్న	-10.8072
గొండ	-10.8073
▁ఉత్సవ	-10.8074
▁అల్లర్ల	-10.8075
▁బతుకు	-10.8075
▁సూర్యుడి	-10.8095
▁ప్రమాదాల	-10.8097
▁వేడుకల్లో	-10.8111
▁అత్యాచార	-10.8112
esh	-10.8117
▁విషయమ	-10.8118
▁175	-10.8131
▁ఉస్మానియా	-10.8133
▁బ్యాక్టీరియా	-10.8133
▁రష్మిక	-10.8133
▁వేరియంట్	-10.8133
▁గుప్పించారు	-10.8133
▁నితీష్	-10.8133
▁గణాంకాల	-10.8133
▁కోణంలో	-10.8134
▁పేర్ల	-10.8136
▁పూట	-10.8136
▁ఉండొచ్చని	-10.8139
ାନ	-10.814
▁కావచ్చు	-10.8143
▁కర్ర	-10.8145
ానంటూ	-10.8148
▁పెద్దిరెడ్డి	-10.8152
▁లక్షణాల	-10.8155
▁డిపో	-10.8162
▁కదిల	-10.8177
లేదంట	-10.818
▁జోష్	-10.818
▁నోరు	-10.8189
▁రికార్డ	-10.8195
▁అనుసంధాన	-10.8201
▁అక్కడికక్కడ	-10.8201
▁ఖరీదైన	-10.8201
▁డిసెంబరు	-10.8201
▁పల్నాడు	-10.8201
▁మేషరాశి	-10.8201
▁యంత్రాంగం	-10.8201
▁రాథోడ్	-10.8201
▁సెక్టార్	-10.8201
▁సబ్సిడీ	-10.8201
▁తుఫాను	-10.8201
▁మార్పిడి	-10.8201
▁ఊపిరి	-10.8201
▁కుర్చీ	-10.8201
▁చార్జీల	-10.8201
▁ధోని	-10.8201
▁గ్రంథ	-10.8202
▁ನಲ್ಲಿ	-10.8202
▁250	-10.8204
ing	-10.8207
▁పొరుగు	-10.8208
▁చేశానని	-10.8218
▁ఎన్నికైన	-10.8225
▁పనుల్లో	-10.8225
▁రేణుక	-10.8225
▁విధించిన	-10.8225
▁వాడకం	-10.8225
కార్య	-10.8229
ನೆ	-10.8229
▁చేరుకొని	-10.8233
▁విధుల	-10.8236
▁చెప్పాల్సిన	-10.8242
▁లేడీ	-10.8248
స్తుంద	-10.8251
SP	-10.8254
అక్టోబర్	-10.8256
చేస్తున్న	-10.8264
▁పడితే	-10.8265
▁ఫేమస్	-10.827
▁మినహాయింపు	-10.827
▁వీలైనంత	-10.827
▁చేవెళ్ల	-10.827
▁ప్రాముఖ్యత	-10.827
▁డీఎస్సీ	-10.827
▁ధ్రువ	-10.827
▁రసాయన	-10.827
▁దక్షిణాది	-10.827
▁ఎముకల	-10.827
▁కూకట్	-10.827
▁ట్రయల్	-10.8271
▁లెవెల్	-10.8271
▁కల్పన	-10.8271
▁ప్రార్థన	-10.8272
▁కొద్దిరోజుల	-10.8275
▁కలిగిస్తుంది	-10.8277
▁పరిగణించ	-10.8279
▁ప్రీత్	-10.8285
ుకుందని	-10.8287
▁గెస్ట్	-10.8293
▁చివర	-10.8306
▁ముగుస్త	-10.8313
▁ఎడమ	-10.8315
▁వినిపిస్త	-10.8319
▁ఫండ్	-10.8326
తెలంగాణ	-10.8326
▁పట్టుబడ	-10.8332
▁దుర్గా	-10.8335
▁ఔషధ	-10.8339
▁గెలిపిస్త	-10.8339
▁తరుపున	-10.8339
▁పుష్కలం	-10.8339
▁ప్రిన్సిపల్	-10.8339
▁గద్దె	-10.834
▁చమురు	-10.834
▁గార్డెన్	-10.834
▁యోగీ	-10.834
▁ఆద్మీ	-10.834
▁సోలార్	-10.834
▁ہم	-10.8341
▁బెల్లం	-10.8342
▁ఒడి	-10.8343
▁ఆలస్య	-10.8345
▁పరిచయ	-10.8346
▁రెండూ	-10.8349
▁కలిప	-10.8351
▁పంచుకున్నారు	-10.8353
▁పెళ్ల	-10.8355
▁జరిపించ	-10.8359
▁అందిస్తోంది	-10.8361
▁ట్రాక్టర్	-10.8366
▁పెట్టుకొని	-10.8368
▁వాడుతున్న	-10.8374
▁వ్యవధి	-10.8375
▁జరగలేదు	-10.838
▁రకమై	-10.8397
▁జనార్దన్	-10.8409
▁పిలిపించ	-10.8409
▁అనవసర	-10.8409
▁ఆర్డీవో	-10.8409
▁రోజువారీ	-10.841
▁వెళ్లాల్సి	-10.841
▁రేసులో	-10.841
▁అన్నింటి	-10.841
▁హస్తం	-10.841
شن	-10.843
▁అప్రమత్తం	-10.8434
▁కార్తీక్	-10.8436
▁అనిపించింది	-10.8438
▁రాకపోవడంతో	-10.8442
ಂತ	-10.845
దనం	-10.8466
▁పరిధి	-10.8475
కపోవచ్చు	-10.8479
@	-10.848
&	-10.848
▁ఇంజనీరింగ్	-10.848
▁ఎట్టకేలకు	-10.848
▁టూరిజం	-10.848
▁పులివెందుల	-10.848
▁ప్రత్యర్థుల	-10.848
▁రజనీకాంత్	-10.848
▁సిసోడియా	-10.848
▁అభ్యర్దుల	-10.848
▁గిఫ్ట్	-10.848
▁ఫ్లైట్	-10.848
▁పరిషత్	-10.848
▁ప్రశ్నిస్తున్న	-10.848
▁సకాలంలో	-10.848
▁కొలువు	-10.8481
▁పిలిచి	-10.8481
▁ఫెయిల్	-10.8481
▁సైకిల్	-10.8481
▁అణు	-10.8481
▁బుకింగ్	-10.8484
▁సమయాన్ని	-10.8485
▁జరుగుతుంద	-10.8487
▁విలన్	-10.8487
▁వేసుకుని	-10.8489
▁లైవ్	-10.8489
▁2008	-10.8499
▁దేవుడు	-10.8501
▁గెలుపొందారు	-10.8506
▁ఇవ్వాల్సి	-10.8511
▁వాయిస్	-10.8514
ನಾ	-10.8514
బోయిన	-10.8522
సెప్టెంబర్	-10.8539
▁కనుగొన్న	-10.855
▁అడ్మిషన్	-10.8551
▁అవకతవకల	-10.8551
▁అవకాశాన్ని	-10.8551
▁ఎగుమతి	-10.8551
▁రాజగోపాల్	-10.8551
▁రెస్క్యూ	-10.8551
▁విభిన్న	-10.8551
▁గొర్రెల	-10.8551
▁కళాకారుల	-10.8551
▁ہیں۔	-10.8551
▁జయశంకర్	-10.8552
▁ప్యాకెట్	-10.8553
▁అవసరమైతే	-10.8553
▁శిశువు	-10.8555
▁గ్రహణ	-10.8555
▁తక్షణమే	-10.8556
ara	-10.8561
▁గ్రహించ	-10.8571
▁వజ్ర	-10.8578
లేదనే	-10.8579
ాల్సిందిగా	-10.8585
▁క్రిస్ట	-10.8585
ସି	-10.8603
▁భూకంప	-10.8609
▁చూపిస్తున్న	-10.8609
▁స్టె	-10.8609
అయితే	-10.8611
వ్యవస్థ	-10.8611
▁కోరుతున్న	-10.8616
పెడతా	-10.8619
ಷ	-10.8622
▁تھا	-10.8622
▁కూర్చుని	-10.8622
▁వైఎస్ఆర్సీపీ	-10.8622
▁సంతృప్తి	-10.8622
▁గన్నవరం	-10.8622
▁దయాకర్	-10.8622
▁ఆర్మూర్	-10.8622
▁తలసాని	-10.8623
▁స్టైల్	-10.8623
▁సమావేశమయ్యారు	-10.8623
▁మన్మోహన్	-10.8623
▁గోవింద	-10.8623
▁జబ్బు	-10.8624
▁శ్రీకృష్ణ	-10.863
▁హ్యాపీ	-10.8631
▁భాగస్వామ్య	-10.8635
▁సంధ్య	-10.8635
▁కోల్పోయింది	-10.8639
یں	-10.8648
▁ఉండాలంటే	-10.865
▁పప్పు	-10.8656
▁నడిచ	-10.8686
భాగం	-10.8692
ed	-10.8693
▁అభివర్ణించ	-10.8694
▁بھی	-10.8694
▁జవహర్	-10.8694
▁ట్యాగ్	-10.8694
▁మెడిసిన్	-10.8694
▁ఇంజినీర్	-10.8694
▁పురందేశ్వరి	-10.8694
▁ప్రజ్వల్	-10.8694
▁స్పాట్	-10.8695
▁షరతు	-10.8695
▁సానుకూలంగా	-10.8714
▁నివాసానికి	-10.8721
ିକ	-10.873
▁బాగుండ	-10.873
▁కాలుష్య	-10.8747
اک	-10.875
డిసెంబర్	-10.8756
▁ہیں	-10.8766
▁ساتھ	-10.8767
▁ہوئے	-10.8767
▁దవాఖాన	-10.8767
▁ధ్వజమెత్తారు	-10.8767
▁ప్రొడక్ట్	-10.8767
▁సూపరింటెండెంట్	-10.8767
యునైటెడ్	-10.8767
▁అపాయింట్	-10.8767
▁కనెక్ట్	-10.8767
▁ద్వీప	-10.8767
▁గల్లంత	-10.8767
▁భక్తి	-10.8767
▁మమతా	-10.8767
▁సహకరిస్త	-10.8768
▁ఆరోగ్యకరమైన	-10.8772
▁కాల్చ	-10.8774
▁ఏసీపీ	-10.8775
ఇప్పుడు	-10.8781
▁స్టాఫ్	-10.8783
▁అసలే	-10.879
▁రోవర్	-10.8794
ిస్తుండగా	-10.8801
▁శరణ	-10.8801
▁కలుగుతాయ	-10.8811
ಿಂದ	-10.8829
▁చాంపియన్	-10.884
▁గెలుచుకున్న	-10.884
▁నిర్ణీత	-10.884
▁వ్యాక్సిన్	-10.884
▁రౌండర్	-10.884
▁టీఆర్ఎస్	-10.884
▁వైసిపి	-10.884
▁హనుమంతు	-10.884
డియన్	-10.884
▁దాఖలై	-10.884
▁సంభ	-10.884
▁చదరప	-10.8841
▁మహేశ్వర	-10.8847
▁ప్రదీప్	-10.8853
▁ప్రేమించ	-10.8858
బడుతుంది	-10.8866
▁కావాల్సి	-10.8868
▁వదిలిపెట్ట	-10.8869
▁చెప్పాలంటే	-10.8876
షియ	-10.8881
▁గెలుపొంద	-10.8886
▁పిలుస్త	-10.8888
▁డిఫెన్స్	-10.8913
▁రాష్ర్ట	-10.8913
▁సతీమణి	-10.8913
▁సుభాష్	-10.8913
▁షారుఖ్	-10.8913
▁సర్జరీ	-10.8913
▁కోచింగ్	-10.8913
▁తెప్పించ	-10.8914
▁అందజేయ	-10.8915
▁డ్రెస్	-10.8916
▁ఇదొక	-10.892
▁పాలేరు	-10.8924
▁బేబీ	-10.8927
▁వ్యాపారుల	-10.8935
▁మ్యాప్	-10.8939
▁ఉదయ్	-10.8942
▁సామాన్యుల	-10.8944
▁జరుగుతున్నాయని	-10.8946
▁బాక్స్	-10.8953
▁పర్యాటకుల	-10.8978
▁తక్షణ	-10.8983
ظ	-10.8987
▁ఈదురుగాలుల	-10.8987
▁చొరవ	-10.8987
▁నాటౌట్	-10.8987
▁మైక్రో	-10.8987
▁ఫార్ములా	-10.8987
▁సోదరి	-10.8987
▁సేకరిస్త	-10.8987
▁తెలియజేస	-10.8988
▁షిండే	-10.8988
▁సంకల్ప	-10.8988
▁ర్యాంక్	-10.899
▁ఫ్రంట్	-10.8991
▁సిద్ధమైంది	-10.8995
▁కృష్ణారావు	-10.8998
▁ఐరన్	-10.8998
▁పరిష్కారానికి	-10.8999
▁కల్పిస్తామని	-10.9
▁తీసుకురావాలని	-10.9006
▁రాజేశ్	-10.9008
▁అందిస్తామని	-10.9013
▁నిజమైన	-10.9014
▁పడుతోంది	-10.9016
▁గుండా	-10.9017
▁విమర్శించ	-10.9018
▁అందుకో	-10.9032
▁ఆధారాల	-10.9034
▁سو	-10.9039
▁చూపుతున్న	-10.9047
▁టీస్పూన్	-10.9062
▁డిస్కౌంట్	-10.9062
▁భాగస్వాముల	-10.9062
▁ఆవరణలో	-10.9062
▁బుల్లెట్	-10.9062
▁తిరుగుతూ	-10.9062
▁ప్రమేయం	-10.9062
▁డీసీసీ	-10.9062
▁యూరప్	-10.9062
▁పద్ధతుల	-10.9062
▁తెలియజేయ	-10.9062
▁జరుపుకుంటారు	-10.9066
▁నాయకత్వ	-10.9074
▁సందర్శించి	-10.9078
▁కోరుకున్న	-10.9079
▁గదుల	-10.908
▁తిట్ట	-10.9082
▁سی	-10.9084
▁వెతిక	-10.9087
▁మోహ	-10.9108
▁రాజయ్య	-10.9116
▁అవమానించ	-10.9132
ురాలిగా	-10.9132
▁ఇన్సూరెన్స్	-10.9137
▁తలనొప్పి	-10.9137
▁పోస్టుమార్టం	-10.9137
▁ప్రీమియర్	-10.9137
▁సంతరించుకుంద	-10.9137
▁కలపాలి	-10.9137
▁దోహద	-10.9137
▁స్థానాన్ని	-10.9137
▁తెరపైకి	-10.9138
▁శివసేన	-10.9138
▁తెలియజేస్త	-10.914
▁యోజన	-10.914
▁లేదంటూ	-10.914
▁సాధిస్తారు	-10.914
▁వెంకటరెడ్డి	-10.9143
▁తగిలి	-10.9144
▁చేశామన్నారు	-10.9145
▁బలవంతంగా	-10.9145
▁నడుమ	-10.9146
▁పండించ	-10.9146
▁తేలిక	-10.9147
▁హోలీ	-10.9156
▁ఉంచుకుని	-10.9163
▁అమ్ముతున్న	-10.919
▁అడ్డుకున్న	-10.9191
ుకోవడ	-10.9202
▁తీసుకువెళ్ల	-10.9213
▁ఆవిర్భావ	-10.9213
▁డిక్లరేషన్	-10.9213
▁విద్యాసంస్థల	-10.9213
▁క్లియర్	-10.9213
▁సింహరాశి	-10.9213
▁టెంపుల్	-10.9213
ట్లయితే	-10.9213
▁తెలప	-10.9214
▁బాధాకర	-10.9214
▁లంచం	-10.9214
▁వర్తిస్తుంద	-10.9214
చేసే	-10.9217
▁జరుగుతుందో	-10.9221
▁నష్టపోయిన	-10.9222
▁కలెక్షన్	-10.9246
▁ఆకుల	-10.926
ಿಗೆ	-10.9276
X	-10.9283
▁భాగ్య	-10.9289
▁ఫార్మాట్	-10.9289
▁అప్రమత్తమై	-10.9289
▁అస్వస్థత	-10.9289
▁దుండగులు	-10.9289
▁హ్యాట్రిక్	-10.9289
▁డ్రైవింగ్	-10.9289
▁హాజరవుత	-10.9289
▁దిగుబడి	-10.9289
▁వెల్లుల్లి	-10.9289
▁ఎంప్లాయ	-10.9289
▁రివర్స్	-10.9289
▁ఏర్పడ్డ	-10.929
▁అదేవిధంగా	-10.9292
▁చేయాలో	-10.9296
▁విధుల్లో	-10.9296
▁సవాలు	-10.9298
▁ఇప్పించ	-10.9299
▁రకాలుగా	-10.9301
▁కణాల	-10.9304
▁కష్టపడ	-10.9332
పిల్లల	-10.9335
▁రాబోతున్న	-10.935
▁ప్రముఖుల	-10.935
కెప్టెన్	-10.936
▁దూసుకెళ్ల	-10.9366
▁రిలయన్స్	-10.9366
▁ప్రమాణస్వీకార	-10.9366
▁చెబితే	-10.9366
▁జాతకులు	-10.9366
▁హసీనా	-10.9366
▁కిసాన్	-10.9366
▁సోదరుల	-10.9366
▁వ్యూహాత్మక	-10.9367
▁పరిష్కార	-10.9367
▁రాజాసింగ్	-10.9368
▁ఎంచుకున్న	-10.9373
گو	-10.9389
▁جا	-10.9407
▁బుద్ధ	-10.9412
▁అనర్హత	-10.9444
▁కాకతీయ	-10.9444
▁దుబ్బాక	-10.9444
▁ఆస్పత్రుల	-10.9444
▁ఉరుములు	-10.9444
▁కుదుర్చుకు	-10.9444
▁సీఈఓ	-10.9444
▁ఐఫోన్	-10.9444
▁ధర్మపురి	-10.9444
▁పురాణాల	-10.9444
▁బాపట్ల	-10.9444
▁ప్రోటీన్	-10.9444
▁సాయుధ	-10.9444
▁కలయిక	-10.9444
▁యాసిడ్	-10.9444
▁అవార్డ్	-10.9444
▁ఓటరు	-10.9444
▁పోస్టల	-10.9444
▁వెంకటేష్	-10.9446
▁ఓడిపోయారు	-10.9448
▁బాధితురాలి	-10.9448
▁మృతదేహాలను	-10.9452
▁ప్రతిష్ఠ	-10.9452
ିତ	-10.9454
▁చేరువ	-10.9455
▁ఆరోపించింది	-10.9456
▁వీరంతా	-10.9456
▁వస్తువు	-10.9456
▁జైపూర్	-10.9459
▁కాసేపు	-10.946
పోవటం	-10.9462
▁పిలవ	-10.9467
▁మెరుగుపరచ	-10.9479
▁ఆశించ	-10.9479
▁ఆరోపణ	-10.948
▁బయటపెట్ట	-10.9487
ମ୍	-10.951
ଉ	-10.9517
▁ముద్రగడ	-10.9522
▁నిలిపివేయ	-10.9522
▁గ్రాడ్యుయేట్	-10.9522
▁పిన్నెల్లి	-10.9522
▁విశ్వసనీయ	-10.9522
▁ఎగుమతుల	-10.9522
▁టోకెన్	-10.9522
▁డ్యామ్	-10.9522
▁సన్మాన	-10.9522
▁బందీ	-10.9522
▁బాధ్యుల	-10.9525
▁అస్సల	-10.9526
▁అంతకంటే	-10.9528
▁రాజేష్	-10.9528
ನ್ನ	-10.9531
▁దేశీయ	-10.9533
▁పాల్గొననున్నారు	-10.9533
పీఎఫ్	-10.9534
▁నిషేధించ	-10.9535
▁లబ్దిదారుల	-10.954
▁దమ్ము	-10.9541
▁నియామక	-10.9556
▁కష్టమే	-10.958
▁జనాల	-10.9588
▁విభాగ	-10.9591
▁లక్ష్యాల	-10.9593
ప్రయోజన	-10.9598
ಫ	-10.96
▁అగ్రికల్చర్	-10.96
▁అమితాబ్	-10.96
▁చారిత్రక	-10.96
▁తరచుగా	-10.96
▁మిర్యాలగూడ	-10.96
▁రామగుండం	-10.96
▁రిక్రూట్	-10.96
▁శాటిలైట్	-10.96
▁దౌత్య	-10.96
▁పోటెత్త	-10.96
▁మిర్చి	-10.9601
▁యాంకర్	-10.9601
▁ముర్ము	-10.9601
ుద్దీన్	-10.9601
▁బాలినేని	-10.9602
▁సెల్ఫీ	-10.9605
▁మైదానంలో	-10.9607
▁ఉంటుందన్నారు	-10.9608
▁మైండ్	-10.9612
▁అడుగ	-10.9612
▁నరస	-10.9624
▁పరిశీలిస్తున్న	-10.9665
▁తీసుకుంటుంద	-10.9666
కాంగ్రెస్	-10.9677
బిడ్డ	-10.9677
▁దివ్యాంగుల	-10.968
▁పునరుద్ధరించ	-10.968
▁ప్రోత్సాహ	-10.968
▁ఫెడరేషన్	-10.968
▁బల్దియా	-10.968
▁సన్నివేశాల	-10.968
▁సస్పెన్షన్	-10.968
▁పురాతన	-10.968
▁మిచెల్	-10.968
▁విరమించ	-10.968
▁రిలేషన్	-10.968
ں	-10.9681
▁రిటర్న్	-10.9681
या	-10.9682
▁పీల్చ	-10.9683
▁గణపతి	-10.9683
▁నడక	-10.9684
▁అలరించ	-10.9688
▁వినిపిస్తున్న	-10.9688
▁వేగవంతం	-10.9696
▁పాల్గొంటున్న	-10.9702
▁విమెన్	-10.9717
▁విధాల	-10.9726
ಿಲ್ಲ	-10.9733
▁سر	-10.9733
▁చెయ్యడం	-10.9737
▁వేయించ	-10.9747
▁వేముల	-10.976
▁video	-10.976
▁అగ్నిమాపక	-10.976
▁నైవేద్య	-10.976
▁పెవిలియన్	-10.976
▁మార్కెటింగ్	-10.976
▁మృతిచెంద	-10.976
▁రెచ్చగొట్ట	-10.976
▁విముక్తి	-10.976
▁ఇన్వెస్టర్	-10.976
▁కనెక్షన్	-10.976
▁తరగతుల	-10.976
▁సీక్వెల్	-10.976
▁సీసీటీవీ	-10.976
▁మిశ్రా	-10.976
▁క్రితమే	-10.976
▁దీర్ఘ	-10.976
▁నెక్స్ట్	-10.976
▁షురూ	-10.976
▁చేనేత	-10.976
▁వెంకటేశ్వర్లు	-10.976
▁ఎదుర్కోవాల్సి	-10.976
▁ఆర్ధిక	-10.976
▁బజార్	-10.976
▁జర్నీ	-10.9761
మేరకు	-10.9761
▁కండరాల	-10.9762
▁సిక్కు	-10.9764
▁ఇదివరక	-10.9764
▁విశ్లేషణ	-10.9766
▁జగ్గ	-10.9767
▁వైభవంగా	-10.9769
▁వినయ్	-10.9774
▁తెరకెక్కించిన	-10.9815
▁విడిచి	-10.9818
▁మైదాన	-10.984
ଷ	-10.984
▁ఉత్తరాంధ్ర	-10.984
▁ఐక్యరాజ్యసమితి	-10.984
▁మ్యూజియం	-10.984
▁వేణుగోపాల్	-10.984
▁అడ్వాన్స్	-10.984
▁శిథిలాల	-10.984
▁విరాళం	-10.984
▁నర్సింహ	-10.984
▁దివంగ	-10.9841
▁మసాలా	-10.9841
▁ఆఖరి	-10.9841
▁చంద్రుని	-10.9842
▁శత్రువు	-10.9844
▁చేశారన్నారు	-10.9845
▁పశువుల	-10.9846
▁మార్కుల	-10.9854
▁2012	-10.986
▁రాకపోకల	-10.9876
▁వస్త్ర	-10.9893
▁రాముడి	-10.9894
▁మోసాల	-10.9907
ద్వారా	-10.9915
ish	-10.9916
प	-10.992
▁పర్యవేక్షించ	-10.9922
▁دعویٰ	-10.9922
▁ఊరేగింపు	-10.9922
▁కమ్యూనికేషన్	-10.9922
▁కార్యదర్శుల	-10.9922
▁ఆర్టిఫిష	-10.9922
▁మాఫియా	-10.9922
▁వ్యక్తమవుతున్న	-10.9922
▁నిదర్శనం	-10.9925
▁అలవాట్ల	-10.9925
▁ఎన్నికయ్యారు	-10.9926
▁యాక్టర్	-10.9927
▁శిఖర	-10.9928
▁ఖర్చ	-10.9929
▁డ్రై	-10.9933
▁అడుగుతున్న	-10.9965
▁ఆరోపించ	-10.9967
▁అధ్యక్షుడి	-10.9968
▁పలుకుత	-10.9981
▁ప్రమాణాల	-10.9998
▁పరీక్షించ	-10.9998
▁గచ్చిబౌలి	-11.0004
▁జాతకులకు	-11.0004
▁ట్విటర్	-11.0004
▁పురస్కార	-11.0004
▁మాదాపూర్	-11.0004
▁క్రేజీ	-11.0004
▁స్టార్టప్	-11.0004
▁పరారీలో	-11.0004
▁ఫేమ్	-11.0004
▁పరిమాణ	-11.0004
▁క్రీడాకారుల	-11.0004
▁మతపరమైన	-11.0006
▁చట్టపరమైన	-11.0006
▁లీగల్	-11.0007
▁పోషక	-11.0008
▁జరగాల్సి	-11.0009
▁వెళ్తుండగా	-11.0009
▁రాజేశ్వర్	-11.001
ేసేందుకు	-11.0012
▁కాదన్నారు	-11.0028
▁హెచ్చరించ	-11.0046
గొడ	-11.0052
ଂ	-11.0086
▁అత్యుత్తమ	-11.0086
▁ఆఫ్ఘనిస్తాన్	-11.0086
▁జగదీష్	-11.0086
▁ట్యాంకర్	-11.0086
▁ప్యాసింజర్	-11.0086
▁మాల్దీవుల	-11.0086
▁సంస్కరణల	-11.0086
▁అవినాశ్	-11.0086
▁తట్టుకోలేక	-11.0086
▁మాంసం	-11.0087
▁ఎదురైన	-11.0087
▁సొరంగ	-11.0088
▁సుంక	-11.0092
▁బాధితుడు	-11.0096
▁రేఖ	-11.0096
▁కరుణ	-11.0099
ud	-11.0099
▁విపరీతమైన	-11.0099
▁పీహెచ్	-11.0099
▁బాబర్	-11.0102
IM	-11.0103
▁నిలిపివేస	-11.0104
▁కేడర్	-11.011
పర్యటించనున్నారు	-11.0148
సముద్రం	-11.0168
▁ధృవీకరించ	-11.017
▁ఉపసంహరించ	-11.017
▁దీర్ఘకాలిక	-11.017
▁నిఖిల్	-11.017
▁పర్యవేక్షిస్త	-11.017
▁మచిలీపట్నం	-11.017
▁లావణ్య	-11.017
▁వెల్ఫేర్	-11.017
▁యాదగిరి	-11.017
▁ఆధారిత	-11.017
బిలిటీ	-11.017
▁పల్లవి	-11.017
▁ప్రతాప్	-11.017
▁ఆర్గనైజ	-11.017
▁ర్యాంకు	-11.0171
▁బోనస్	-11.0172
▁ఛానల్	-11.0172
▁గంభీర	-11.0173
▁ముట్టడి	-11.0174
▁ఎక్స	-11.0178
▁పటాన్	-11.0178
▁ఇచ్చిందని	-11.0196
▁ఇప్పటికైన	-11.0225
▁సంప్రదాయాల	-11.0241
▁నిర్వాహక	-11.0249
సంవత్సర	-11.025
କ୍ତ	-11.0254
▁పురస్కరించ	-11.0254
▁میڈی	-11.0254
▁అగర్వాల్	-11.0254
▁గోధుమ	-11.0254
▁ట్విస్ట్	-11.0254
▁తొమ్మిదేళ్ల	-11.0254
▁కైవసం	-11.0254
▁డీఎంకే	-11.0254
▁మురళి	-11.0254
▁చీకటి	-11.0254
▁నమూనా	-11.0254
▁సతీష్	-11.0254
▁మిథున	-11.0254
▁నరేష్	-11.0254
ప్రతిష్టాత్మకంగా	-11.0254
ಕ್ಷ	-11.0254
▁రుజువ	-11.0254
▁ట్రక్కు	-11.0255
▁ట్రావెల్	-11.0255
ఇండియా	-11.0255
ీహార్	-11.0256
▁ఏంటని	-11.0256
జూన్	-11.0256
▁నిర్దేశించ	-11.0257
▁జరగబోయే	-11.0257
▁వేతనం	-11.0258
▁పెరుగుతుందని	-11.0258
▁ఉపయోగపడుతుంది	-11.026
▁తెలుసుకునేందుకు	-11.026
▁గింజల	-11.0261
▁ఏర్ప	-11.0262
▁పాండే	-11.0263
▁ఇష్టమైన	-11.0267
▁తాగితే	-11.0269
aj	-11.0278
▁ప్రారంభమవుతుంద	-11.028
انہ	-11.0283
ಟಿ	-11.031
▁స్వీకార	-11.0318
ಲು	-11.0333
ذ	-11.0338
▁تصویر	-11.0338
▁దురదృష్ట	-11.0338
▁మల్కాజ్	-11.0338
▁సూసైడ్	-11.0338
▁సెంటిమెంట్	-11.0338
▁హెచ్చరిస్తున్న	-11.0338
▁రక్తపోటు	-11.0338
▁తుఫాన్	-11.0338
▁పరస్పర	-11.0339
ನಾವು	-11.0339
▁ధృవ	-11.0339
▁పెట్టుకో	-11.034
▁తెలియజేస్తున్న	-11.034
▁మోహరించ	-11.034
▁బచ్చన్	-11.0342
▁వార్నర్	-11.0343
▁ప్రతిపాది	-11.0344
▁నారాయణపేట	-11.0345
انی	-11.0352
▁గంగుల	-11.0368
▁గుర్తుచేస	-11.0379
▁తెలుపుతున్న	-11.0415
▁Play	-11.0424
▁అనుమానాస్పద	-11.0424
▁అఫిడవిట్	-11.0424
▁క్యాంపస్	-11.0424
▁బంజారాహిల్స్	-11.0424
▁యశస్వి	-11.0424
▁వినూత్న	-11.0424
▁చాక్లెట్	-11.0424
▁సారథ్యంలో	-11.0424
▁అరాచక	-11.0424
▁అభ్యర్ధి	-11.0424
▁వచ్చేసింది	-11.0424
▁ధాటి	-11.0425
▁వెంచర్	-11.0425
▁విశ్లేషకులు	-11.0425
▁అనుసరిస్త	-11.0426
▁శ్రీలీల	-11.0426
▁అందుకోసం	-11.0426
▁రాయబార	-11.0426
▁బుధుడు	-11.043
▁వెళితే	-11.043
తృత్వ	-11.0431
▁సరుకు	-11.0432
రీత్యా	-11.0432
▁ఆకట్టుకునే	-11.0433
▁గెలుస్తుంద	-11.0433
▁జోడో	-11.0435
▁సమన్వయ	-11.0435
▁గ్యాప్	-11.0437
▁గుర్తిస్త	-11.0438
▁ఏర్పడుతుంది	-11.0441
▁తగ్గిస్తుంది	-11.0442
▁గుంపు	-11.045
చంద్	-11.0451
▁స్పందిస్త	-11.0473
▁డ్రగ్	-11.0476
lso	-11.0479
▁సాగించ	-11.0493
▁جان	-11.0503
▁బతక	-11.0504
▁అగ్నిప్రమాదం	-11.051
▁భౌతిక	-11.051
▁ఆవిష్కరణ	-11.051
▁గణనీయంగా	-11.051
▁పిటిషనర్	-11.051
▁ప్రక్షాళన	-11.051
▁హాలీవుడ్	-11.051
▁సిటిజన్	-11.051
▁ట్రిపుల్	-11.051
▁బ్యాంకింగ్	-11.051
▁క్రీజులో	-11.051
▁దుమ్ము	-11.051
▁మాణిక్	-11.051
▁చేసేటప్పుడు	-11.0512
▁రాక్షస	-11.0513
▁న్యూఢిల్లీః	-11.0515
▁జరిగిందో	-11.0515
▁పనిచేశా	-11.0518
▁అవతార	-11.0526
▁వడ్డ	-11.0534
ಡ್	-11.0535
▁శరద	-11.0535
యుక్త	-11.0557
ଖ	-11.0597
▁కుంభరాశి	-11.0597
▁స్వచ్ఛంద	-11.0597
▁అర్థరాత్రి	-11.0597
▁ఆశీస్సుల	-11.0597
▁కొలెస్ట్రాల్	-11.0597
▁ప్రిన్సిపాల్	-11.0597
▁విరుచుకుపడ్డారు	-11.0597
▁వీధుల్లో	-11.0597
▁స్టూడియో	-11.0597
▁టాయిలెట్	-11.0597
ಷ್ಟ	-11.0597
▁ఇటలీ	-11.0597
▁వ్యర్థాల	-11.0597
▁అనుభవించ	-11.0597
▁హారిస్	-11.0598
▁ఉగాది	-11.0598
▁కొన్నాళ్ల	-11.0599
▁వాహనదారులు	-11.0599
▁అద్దం	-11.06
▁థర్డ్	-11.0601
▁వెనుకబడిన	-11.0601
▁ఎదురైంది	-11.0601
▁తేనె	-11.0603
▁చేరుకుంటుంది	-11.0603
▁చేస్తుంటే	-11.0603
▁వంటకాల	-11.0603
▁తీసుకొ	-11.0606
▁తవ్వకాల	-11.0606
▁చూడొచ్చు	-11.0611
▁నేర్చుకున్న	-11.0614
▁కొనసాగుతుందని	-11.0616
▁తెరకెక్కించ	-11.0618
▁కర్మ	-11.0621
▁సన్నిహితుల	-11.0625
▁ఘట్ట	-11.063
▁పుట్టుక	-11.0672
▁ముఖ్యమంత్రుల	-11.0685
▁అకస్మాత్తుగా	-11.0685
▁నిలకడగా	-11.0685
▁పునరావాస	-11.0685
▁మహీంద్రా	-11.0685
▁జేఏసీ	-11.0685
▁డెంగ్యూ	-11.0685
▁పీపుల్స్	-11.0685
witter	-11.0685
▁జైస్వాల్	-11.0685
▁రాజయోగం	-11.0685
▁దగ్గు	-11.0685
▁తులసి	-11.0687
▁ఎప్పుడైనా	-11.0687
▁మాట్లాడుతున్నార	-11.0689
▁పదేపద	-11.069
▁పైసలు	-11.069
▁తాళం	-11.0691
▁ప్రసంగించారు	-11.0692
▁చిత్తు	-11.0698
ವೆ	-11.0701
▁నడుప	-11.0723
ja	-11.0723
▁చేయగలిగ	-11.0725
▁మునిగిపోయ	-11.075
▁వ్యవహార	-11.0769
▁है	-11.0773
▁అచ్చెన్నాయుడు	-11.0773
▁కాన్సెప్ట్	-11.0773
▁గెలుచుకుంది	-11.0773
▁చౌరస్తా	-11.0773
▁నిమిషంలో	-11.0773
▁వృథా	-11.0773
▁వృశ్చిక	-11.0773
▁డ్రైనేజీ	-11.0773
▁తమిళిసై	-11.0773
▁శ్వేత	-11.0773
▁ప్రీమియం	-11.0773
▁బ్రాంచ్	-11.0773
▁దుమారం	-11.0773
▁ఫిలిప్	-11.0773
▁పిలిచే	-11.0773
▁ప్రవహిస్త	-11.0773
▁గ్రామస్థుల	-11.0774
▁సమయాల్లో	-11.0774
ने	-11.0775
▁పేర్ని	-11.0776
▁పులుల	-11.0779
▁దెబ్బతిన	-11.0786
▁ఉందంటూ	-11.0787
▁వినాయకుడి	-11.0799
▁బంతుల	-11.0808
ెక్కడ	-11.0816
▁ప్రశాంత	-11.0828
▁కలిశా	-11.0854
▁کرتے	-11.0863
▁కాంబినేషన్	-11.0863
▁దళితబంధు	-11.0863
▁యాక్సిడెంట్	-11.0863
▁ఎంక్వైరీ	-11.0863
▁కాన్వాయ్	-11.0863
▁చౌహాన్	-11.0863
▁రికవరీ	-11.0863
▁ఐశ్వర్య	-11.0863
▁విలేకరుల	-11.0863
▁అల్లూరి	-11.0863
▁తమ్ముడు	-11.0863
▁ఉల్లిపాయ	-11.0863
▁ఆటగాడు	-11.0863
▁విశాల్	-11.0863
▁اپن	-11.0863
▁కరువు	-11.0863
▁కోట్లాది	-11.0863
▁కదులుత	-11.0864
▁గణేశ్	-11.0866
▁దశాబ్దాలుగా	-11.0866
▁నర్సాపూర్	-11.0866
▁అర్పించ	-11.0872
▁అనుకుంటే	-11.0873
రావుపేట	-11.0875
▁మార్గదర్శ	-11.0905
▁పాదాల	-11.0911
च	-11.0953
▁కురిసింది	-11.0953
▁చెప్పుకొచ్చాడు	-11.0953
▁కేశినేని	-11.0953
▁के	-11.0953
▁ఆరెంజ్	-11.0953
▁మరికొంత	-11.0953
▁పంచాయితీ	-11.0953
▁సరదాగా	-11.0953
▁బసవరాజ	-11.0953
▁వెర్షన్	-11.0953
▁ప్రైజ్	-11.0953
▁ఉభయ	-11.0953
▁ప్రజాపాలన	-11.0953
▁కోరుట్ల	-11.0953
▁సెలెక్ట	-11.0954
▁రామమందిర	-11.0954
▁ఉద్యమకారుల	-11.0954
ృష్టి	-11.0954
▁తడిసి	-11.0955
▁తెల్లవారు	-11.0957
▁శుక్రుడు	-11.0959
▁అయ్యాక	-11.0963
మెయిల్	-11.0964
ాన్నే	-11.1036
▁ఒంగోలు	-11.1044
▁రిపబ్లిక్	-11.1044
भ	-11.1044
▁సరికాదని	-11.1044
▁పొదుపు	-11.1044
▁చిక్కుకుపోయ	-11.1044
▁కిటికీ	-11.1044
▁ఏటీఎం	-11.1044
▁పువ్వు	-11.1045
▁శ్రేయస్సు	-11.1045
▁ఫ్యాక్ట్	-11.1046
▁లోతట్టు	-11.1046
▁రంగనాథ్	-11.1047
▁వణికి	-11.1052
▁పెరిగిందని	-11.1059
▁ఉంటాయ	-11.1074
▁దేవాలయాల	-11.1081
▁చేయకపోవడం	-11.1094
▁యూనివర్శిటీ	-11.1135
ଁ	-11.1135
ాభిషేకం	-11.1135
▁కన్వెన్షన్	-11.1135
▁క్యాలెండర్	-11.1135
▁దిగుమతి	-11.1135
▁పేరెంట్స్	-11.1135
▁రజినీకాంత్	-11.1135
▁పరిష్కరిస్త	-11.1135
▁బకాయిలు	-11.1135
▁ఆర్బీఐ	-11.1135
▁బ్యాలెన్స్	-11.1135
▁మిధున	-11.1135
▁నిరంజన్	-11.1135
▁పాపులర్	-11.1135
▁ప్రకారమే	-11.1135
▁బురద	-11.1136
▁శుక్ల	-11.1136
▁వీక్షించ	-11.1137
▁బోర్డర్	-11.1137
▁వైమానిక	-11.1138
▁ముఖేష్	-11.1138
▁నటిస్తోంది	-11.1139
▁నేరగాళ్ల	-11.1141
▁పిల్లల్ని	-11.1146
▁వేస్తోంది	-11.1154
▁ప్రోత్సహిస్త	-11.1166
ମା	-11.1169
▁పోరాడుతున్న	-11.1187
ుతోన్న	-11.1189
▁నదుల	-11.1189
▁ఆయుధ	-11.1205
▁కృత్రిమ	-11.1228
▁دکھا	-11.1228
▁నెదర్లాండ్స్	-11.1228
▁భూగర్భ	-11.1228
▁సక్రమంగా	-11.1228
▁సర్పంచుల	-11.1228
▁సెలబ్రిటీ	-11.1228
▁నిర్దిష్ట	-11.1228
▁ఎంపీడీవో	-11.1228
▁సుదర్శన్	-11.1228
▁సెన్సార్	-11.1228
▁హార్మోన్	-11.1228
▁ఫ్లిక్స్	-11.1228
▁సమకూర్చ	-11.1228
▁కోదాడ	-11.1228
▁ఫేజ్	-11.1228
▁ఆటగాడి	-11.1228
▁దిక్కు	-11.123
ಗಳು	-11.1233
▁పతాక	-11.1234
▁ఓడిపోయిన	-11.1236
।	-11.1238
▁అక్షయ	-11.1242
▁గాయపడ	-11.1266
పోయాయని	-11.1296
▁లగ్జరీ	-11.1321
▁హుస్నాబాద్	-11.1321
غ	-11.1321
ट	-11.1321
▁కొడంగల్	-11.1321
▁ప్రజావాణి	-11.1321
▁నైతిక	-11.1322
▁షూట్	-11.1322
▁చైన్	-11.1322
▁వెలికి	-11.1322
▁లక్ష్మీనారాయణ	-11.1322
▁వేధిస్తున్న	-11.1323
▁సజీవ	-11.1323
▁మంజు	-11.1324
▁అమాయక	-11.1325
▁శ్రీనివాసరెడ్డి	-11.1326
▁ఇన్నాళ్ల	-11.1329
▁కంచె	-11.133
జనసేన	-11.1332
▁فر	-11.1341
▁డెవల	-11.1348
▁నిరంతర	-11.1352
▁కల్పిస్తున్న	-11.1382
▁వాసన	-11.1385
▁లలిత	-11.1396
దగ్గ	-11.1407
▁సమీక్షించ	-11.1409
▁వెంటాడ	-11.1412
▁పుంగనూరు	-11.1416
▁నిర్వాసితుల	-11.1416
▁మిలిటెంట్	-11.1416
▁హాజరయ్యే	-11.1416
▁హోరాహోరీ	-11.1416
▁పేదరికం	-11.1416
▁ఎల్లారెడ్డి	-11.1416
▁వెలిగించ	-11.1416
▁రాజేంద్రనగర్	-11.1417
▁రామ్మోహన్	-11.1418
▁దైవ	-11.1418
▁సవరించ	-11.142
▁సీరియల్	-11.1421
▁సెలక్ట	-11.1441
▁జనసేనాని	-11.1458
▁ఇరుక్కు	-11.1471
▁లీటర్ల	-11.1484
▁దక్కించుకో	-11.1494
▁ఫెస్టివల్	-11.1511
▁ఫైనాన్షియల్	-11.1511
▁ఫ్రెంచ్	-11.1511
▁మొహమ్మద్	-11.1511
▁యువగళం	-11.1511
▁విభజించ	-11.1511
▁నొప్పుల	-11.1511
▁డీసీఎం	-11.1511
▁జాప్యం	-11.1511
▁సెకన్ల	-11.1511
▁దత్తత	-11.1511
▁అడ్రస్	-11.1511
▁హోటళ్ల	-11.1512
▁సాధిస్తుంద	-11.1513
▁వర్గీకరణ	-11.1513
▁వెచ్చించ	-11.1513
▁మరిచిపో	-11.1515
▁సూర్యకుమార్	-11.1515
▁ఉనికి	-11.1516
▁మహాలక్ష్మి	-11.1517
▁పూర్తయ్యే	-11.152
▁గరుడ	-11.1522
వేగంగా	-11.1524
ఫుల్	-11.1527
▁నాటక	-11.1529
▁కట్టడాల	-11.1544
▁గ్రామస్తుల	-11.1563
▁దొరుకుత	-11.1573
▁దోచుకున్న	-11.1574
▁విశ్లేషించ	-11.1577
▁టర్న	-11.1588
ଛନ୍ତି	-11.1607
▁గైక్వాడ్	-11.1607
▁మొట్టమొదటి	-11.1607
▁లెబనాన్	-11.1607
▁వెనుదిరిగ	-11.1607
▁దిగ్భ్రాంతి	-11.1607
▁మహమ్మారి	-11.1607
▁యూఏఈ	-11.1607
▁అదిరిపోయే	-11.1607
▁డెయిరీ	-11.1607
▁సూరత్	-11.1607
▁స్టేటస్	-11.1607
పారిశ్రామికవేత్త	-11.1607
▁బాలాజీ	-11.1607
▁భీం	-11.1608
▁బద్దలు	-11.1608
▁బాధితురాలు	-11.1608
▁తొలగింపు	-11.161
▁ఉత్ప	-11.1622
▁దొరుకుతుంద	-11.1641
▁చిత్రీకరించ	-11.1704
▁బెంగుళూరు	-11.1704
telugu	-11.1704
‭	-11.1704
▁డొనాల్డ్	-11.1704
▁ద్రౌపది	-11.1704
▁మనీలాండరింగ్	-11.1704
▁pic	-11.1704
▁హౌజ్	-11.1704
▁ప్రైమ్	-11.1704
▁కృతి	-11.1705
▁అభ్యర్ది	-11.1705
▁ప్రసన్న	-11.1706
▁సంతకాలు	-11.1706
▁ఇంఛార్జ	-11.1707
▁చెమట	-11.1718
▁లబ్ది	-11.178
GB	-11.1781
▁ఆడపిల్ల	-11.1795
▁జంతు	-11.1796
▁శిశు	-11.1797
ిఫికేషన్	-11.1802
▁క్యాంటీన్	-11.1802
▁నివేదించ	-11.1802
▁నెలాఖరు	-11.1802
▁భూసేకరణ	-11.1802
▁మల్కాజిగిరి	-11.1802
▁యాదగిరిగుట్ట	-11.1802
▁వేతనాలు	-11.1802
▁అసాధారణ	-11.1802
▁క్లిష్ట	-11.1802
▁తరుణ్	-11.1802
▁ఆచరించ	-11.1802
▁విమానయాన	-11.1802
▁క్లోజ్	-11.1803
▁తరలింపు	-11.1807
ాలజిస్ట్	-11.1807
▁ٹی	-11.1812
▁పతకాల	-11.1814
ప్రభుత్వ	-11.1818
కామర్స్	-11.1821
▁యాజమాన్య	-11.1824
రెక్ట	-11.1855
▁అమరుల	-11.186
▁బ్రిజ	-11.187
▁శంకర	-11.1886
▁కనుగొన	-11.1901
▁లేవనెత్త	-11.1901
▁ఇన్వెస్టిగేషన్	-11.1901
▁ఒరిజినల్	-11.1901
▁కంటోన్మెంట్	-11.1901
▁క్రిస్మస్	-11.1901
▁బేగంపేట	-11.1901
▁అంపైర్	-11.1901
▁ప్రొటీన్	-11.1901
▁రామోజీ	-11.1901
▁వాలంటీర్	-11.1902
▁మూడేండ్ల	-11.1902
▁త్రిపుర	-11.1902
▁ଏକ	-11.1902
▁విడిచిపెట్ట	-11.1931
తెరకెక్కిస్తున్న	-11.1953
▁ఉపయోగిస్తున్న	-11.1992
▁ଭିଡିଓ	-11.2001
▁కన్నుమూశారు	-11.2001
▁తొక్కిసలాట	-11.2001
▁నవంబరు	-11.2001
▁యూరోపియన్	-11.2001
▁రోగనిరోధక	-11.2001
▁విజువల్	-11.2001
▁వెలువరించ	-11.2001
▁సైబరాబాద్	-11.2001
▁యాక్సెస్	-11.2001
▁రిటర్నింగ్	-11.2001
▁వారణాసి	-11.2001
▁యాభై	-11.2001
▁హేమంత్	-11.2001
▁మహాత్మా	-11.2001
▁సనాతన	-11.2001
▁దేశాయ్	-11.2001
▁పలువురి	-11.2001
▁కార్బన్	-11.2001
▁క్వింటాళ్ల	-11.2002
▁ఎరువుల	-11.2002
▁అమీర్	-11.2002
▁అటెండ	-11.2005
▁రామాలయ	-11.2007
ిస్థాన్	-11.2007
▁ముగ్గ	-11.203
▁ఒప్పుకో	-11.2046
గలిగారు	-11.2049
▁బడుల	-11.2094
gov	-11.2102
▁కోనసీమ	-11.2102
▁నెమ్మదిగా	-11.2102
▁రిజిస్ట్రార్	-11.2102
▁వైష్ణవ్	-11.2102
▁ఒవైసీ	-11.2102
▁ఓపెనింగ్	-11.2102
▁కెమికల్	-11.2102
▁చట్టబద్ధ	-11.2102
▁దక్కించుకుంది	-11.2102
▁ఛేదించ	-11.2102
▁మ్యాజిక్	-11.2102
▁శాంసన్	-11.2102
▁విస్తరిస్త	-11.2102
▁రామాయణ	-11.2103
▁పాట్నా	-11.2103
▁కోదండరాం	-11.2103
▁చతుర్	-11.2103
▁క్లిప్	-11.2103
▁చొరబడ	-11.2103
▁రతన్	-11.2105
▁వచ్చారని	-11.2106
ెవరూ	-11.2106
▁ప్రశంసించారు	-11.2106
▁తెరకెక్కుతున్న	-11.2107
ప్రస్తుతం	-11.2121
▁ఓడిపోత	-11.2137
▁మిత్రుల	-11.2151
▁ఒలింపిక్	-11.2161
▁ఎంచుకోవ	-11.2189
రిశోధ	-11.2204
अ	-11.2204
▁में	-11.2204
▁అభివృద్ది	-11.2204
▁అలెర్ట్	-11.2204
▁కంటెస్టెంట్	-11.2204
▁మెరుగ్గా	-11.2204
▁వినతిపత్రం	-11.2204
▁సిగరెట్	-11.2204
▁ಸುದ್ದಿ	-11.2204
▁ఆతిథ్య	-11.2204
▁చోప్రా	-11.2204
▁మర్యాద	-11.2204
▁నిజాయితీ	-11.2204
▁రషీద్	-11.2204
ామినేటెడ్	-11.2204
▁సైలెంట్	-11.2204
▁కంగనా	-11.2205
▁సెటిల్	-11.2205
▁పసిడి	-11.2205
▁తిలక్	-11.2205
▁సభ్యుడిగా	-11.2206
▁ఆటంకం	-11.2206
▁అసలైన	-11.2208
▁పేల్చ	-11.2217
ಯನ್ನು	-11.2223
▁తరఫు	-11.2225
ఆయన	-11.2287
▁కళ్యాణ	-11.229
ಂಬ	-11.2296
▁అరెస్టయి	-11.2307
▁ఆదిపురుష్	-11.2307
▁ఇండెక్స్	-11.2307
▁కంప్లైంట్	-11.2307
▁తాగునీరు	-11.2307
▁వాయుగుండం	-11.2307
▁వేడెక్క	-11.2307
▁కంపార్ట్	-11.2307
▁నిరుపేద	-11.2307
▁సరస్వతి	-11.2307
▁ఐదేండ్ల	-11.2307
▁సతీశ్	-11.2307
▁ప్రస్తావిస్త	-11.2307
▁ఆపరేటర్	-11.2307
▁స్మృతి	-11.2307
▁సయ్యద్	-11.2308
▁జోస్యం	-11.2308
▁ఏవైనా	-11.2308
▁జాయిన్	-11.2309
ముద్ర	-11.2323
ଆ	-11.2328
కెళ్లి	-11.2336
▁అభయ	-11.234
▁విడాకుల	-11.2366
▁శాంతిభద్రతల	-11.2412
`	-11.2412
▁అలంకరించ	-11.2412
▁కమిషనరేట్	-11.2412
▁చత్తీస్	-11.2412
▁బీభత్సం	-11.2412
▁బృహస్పతి	-11.2412
▁భువనేశ్వర్	-11.2412
▁మెట్రిక్	-11.2412
▁వెల్లడైంది	-11.2412
▁ಆಗ	-11.2412
▁ప్రదర్శిస్త	-11.2412
▁ప్రావిన్స్	-11.2412
▁యాసంగి	-11.2412
▁ఐఎండీ	-11.2412
▁క్షేత్రస్థాయిలో	-11.2412
▁ఐఐటీ	-11.2412
▁మనుగడ	-11.2412
▁హితవు	-11.2412
ಗಳನ್ನು	-11.2412
▁అతిథుల	-11.2412
▁ప్రతిష్ఠాత్మక	-11.2412
▁ఎగువ	-11.2412
▁సమ్మర్	-11.2413
▁ఫిలిం	-11.2414
▁వెంబడి	-11.2421
▁దిగుతున్న	-11.2431
క్రమంలో	-11.2433
▁గర్ల్	-11.2443
▁ధ్వంస	-11.245
▁వస్త్రాల	-11.2474
▁కలుసుకు	-11.2491
▁పేర్కొన	-11.2517
श	-11.2517
▁అమరవీరుల	-11.2517
▁ఆక్సిజన్	-11.2517
▁టోర్నమెంట్	-11.2517
▁త్రిపాఠి	-11.2517
▁బైఠాయించ	-11.2517
▁బ్రిటీష్	-11.2517
▁మందమర్రి	-11.2517
▁సీక్రెట్	-11.2517
▁ఆచూకీ	-11.2517
▁కొండగట్టు	-11.2517
▁సీఎల్పీ	-11.2517
▁సామగ్రి	-11.2517
▁లొంగిపో	-11.2517
▁మినిస్టర్	-11.2517
▁తెలివి	-11.2517
▁భగత్	-11.2517
▁రిపీట్	-11.2517
▁పరమేశ్వర	-11.2517
▁సహచర	-11.2518
▁కనిపెట్ట	-11.2521
▁ఇనుప	-11.2529
హైదరాబాద్	-11.254
చూసి	-11.2544
ివ్వాలని	-11.2558
,200	-11.2563
▁ముచ్చట	-11.2585
▁వినోద	-11.2609
ए	-11.2623
▁పకడ్బందీ	-11.2623
▁సంభాషణ	-11.2623
▁అదరగొట్ట	-11.2623
▁అర్చకులు	-11.2623
▁ఊహాగానాల	-11.2623
▁కొండచరియలు	-11.2623
▁ధోరణి	-11.2623
▁నిత్యావసర	-11.2623
▁లక్ష్మారెడ్డి	-11.2623
▁శ్యామ్	-11.2623
▁సెక్రటేరియట్	-11.2623
▁హుజూరాబాద్	-11.2623
▁విండీస్	-11.2623
▁అభ్యర్థన	-11.2623
▁మోర్చా	-11.2623
▁మెషీన్	-11.2623
▁తీవ్రస్థాయిలో	-11.2623
▁మరమ్మతు	-11.2623
▁ఉదయాన్నే	-11.2624
▁రెండేండ్ల	-11.2624
▁వ్యూస్	-11.2624
▁ప్లానింగ్	-11.2625
▁స్వీకరిస్త	-11.2625
▁మర్రి	-11.2627
దక్షిణ	-11.2647
▁తీసుకువస్త	-11.265
▁ప్రారంభించనున్న	-11.2654
▁అనుకుంటా	-11.2717
▁భూభాగ	-11.2728
▁చెప్పుకో	-11.2729
▁ಸಾಮಾಜ	-11.2731
Z	-11.2731
ಉ	-11.2731
▁అమావాస్య	-11.2731
▁ఇండిపెండెంట్	-11.2731
▁జింబాబ్వే	-11.2731
▁ఫుటేజీ	-11.2731
▁ముంచెత్త	-11.2731
▁వర్చువల్	-11.2731
▁సస్పెన్స్	-11.2731
▁సుబ్బారెడ్డి	-11.2731
▁ఆలౌట్	-11.2731
▁కరుణాకర్	-11.2731
ೊಂಡ	-11.2731
▁యానిమల్	-11.2731
▁క్వాష్	-11.2731
▁బెడ్రూం	-11.2731
▁ప్యానెల్	-11.2731
▁సమాధి	-11.2731
▁ఇషాన్	-11.2731
▁బెదిరిస్త	-11.2731
▁గూడ్స్	-11.2731
▁జలుబు	-11.2731
▁మండపం	-11.2732
▁ఆసరా	-11.2734
▁ధైర్య	-11.2735
▁అప్పగిస్త	-11.274
▁రియాక్ట	-11.2768
▁అభిప్రాయపడుత	-11.277
▁చేసుకుంద	-11.2829
▁పశు	-11.2834
▁బహిష్కరించ	-11.2839
▁ఉల్లంఘన	-11.2839
▁చక్రవర్తి	-11.2839
▁నిర్బంధ	-11.2839
▁పెంపొందించ	-11.2839
▁పెద్దయెత్తున	-11.2839
▁ఫ్రాంచైజీ	-11.2839
▁సమ్మిట్	-11.2839
▁సామర్థ్యాన్ని	-11.2839
▁సూక్ష్మ	-11.2839
▁ఆరోపిస్తూ	-11.2839
▁రంజిత్	-11.2839
▁ఐర్లాండ్	-11.2839
▁का	-11.2839
▁ఆర్ఆర్ఆర్	-11.2839
▁తలనీలాల	-11.2839
▁అప్పీల్	-11.284
▁ధనుష్	-11.284
▁అశ్విని	-11.284
▁ట్రోల్	-11.284
▁గెజిట	-11.2858
▁బుర్ర	-11.2875
▁అద్దాల	-11.2887
▁శేష	-11.289
▁ప్రతిరోజ	-11.2896
▁స్నాన	-11.2901
▁వ్యాఖ్యానించ	-11.2926
▁వైభవ	-11.2943
▁కోలుకో	-11.2949
▁తోసిపుచ్చ	-11.2949
▁అఫ్గానిస్తాన్	-11.2949
▁కిశోర్	-11.2949
▁క్షతగాత్రుల	-11.2949
▁జ్యుడీషియల్	-11.2949
▁దుర్మార్గ	-11.2949
▁దువ్వాడ	-11.2949
▁దేవాదాయ	-11.2949
▁వయనాడ్	-11.2949
▁సంకీర్ణ	-11.2949
▁స్వాతంత్య్ర	-11.2949
▁హుటాహుటిన	-11.2949
▁శీతాకాల	-11.2949
▁మైనంపల్లి	-11.2949
▁ప్రోగ్రాం	-11.2949
▁సురేందర్	-11.2949
▁అనుష్క	-11.2949
▁నరేశ్	-11.295
▁సంపన్న	-11.295
▁బిర్లా	-11.295
▁కొట్లాడ	-11.295
▁దొంగతనం	-11.2951
▁ఒడ్డు	-11.2952
▁చంపేస్త	-11.2975
ఆగస్టు	-11.2977
విధంగా	-11.2977
اف	-11.2992
▁నిర్లక్ష్య	-11.3049
▁విరుచుకుపడ	-11.306
▁ఆశాభావం	-11.306
▁చురుగ్గా	-11.306
▁ఛాలెంజర్స్	-11.306
▁డాక్యుమెంటరీ	-11.306
▁పాలిటిక్స్	-11.306
▁మధుసూదన్	-11.306
▁రిపబ్లికన్	-11.306
▁రెసిడెన్షియల్	-11.306
▁ହୋଇ	-11.306
▁అనుభూతి	-11.306
▁తాలూకా	-11.306
▁ప్రాపర్టీ	-11.306
ఆర్డినేటర్	-11.306
▁విశిష్ట	-11.306
▁ఆర్సీబీ	-11.306
▁గ్లాసు	-11.3061
▁స్మిత్	-11.3061
▁స్ట్రోక్	-11.3061
▁లక్కీ	-11.3061
▁మదన్	-11.3062
▁ఆరేళ్ల	-11.3066
▁మెప్పించ	-11.3067
▁మిరియాల	-11.3074
ాళీ	-11.31
▁నియోజ	-11.3129
▁وی	-11.3131
Q	-11.3173
ड	-11.3173
▁ఎల్బీనగర్	-11.3173
▁నామినేట్	-11.3173
▁నిరోధించ	-11.3173
▁సామూహిక	-11.3173
▁ఫీల్డింగ్	-11.3173
▁ఎన్నారై	-11.3173
▁ఉడికించ	-11.3173
▁బోల్తా	-11.3173
▁అవస్థలు	-11.3173
▁విషమంగా	-11.3173
▁గైడ్	-11.3173
▁మిడిల్	-11.3173
▁క్వింట	-11.3174
▁సంపర్క	-11.3182
▁ప్రపోజ	-11.3187
▁పుంజుకు	-11.3197
ుంటాం	-11.3197
ుకోవచ్చని	-11.3222
▁మధ్యాహ్న	-11.3235
▁ప్రభు	-11.3285
z	-11.3286
▁ఎదురుదెబ్బ	-11.3286
▁కస్టమ్స్	-11.3286
▁క్లెయిమ్	-11.3286
▁గ్లింప్స్	-11.3286
▁ద్రవ్యోల్బణం	-11.3286
▁ధనుస్సు	-11.3286
▁లెక్చరర్	-11.3286
▁స్క్వాడ్	-11.3286
▁అదృశ్య	-11.3286
▁డిజాస్టర్	-11.3286
▁పద్మావతి	-11.3286
▁పృథ్వీ	-11.3286
▁హౌసింగ్	-11.3286
▁ఎన్ఐఏ	-11.3286
▁తుపాకీ	-11.3286
▁పద్మనాభ	-11.3286
▁రాత్రిపూట	-11.3286
▁ఎమోషన్	-11.3286
▁కాజీపేట	-11.3286
▁స్ట్రీట్	-11.3286
▁పోస్టింగ్	-11.3287
▁కుల్దీప్	-11.3287
▁శుద్ధి	-11.3287
▁పౌరసత్వ	-11.3287
▁భంగం	-11.3287
▁రెచ్చిపోయ	-11.3287
▁కనుగొన్నాము	-11.3287
▁సాక్షుల	-11.329
ాచార్య	-11.3291
▁رو	-11.3297
▁జామున	-11.3318
▁రజత	-11.3345
పోతుంద	-11.3379
▁సప్లయ్	-11.3401
ଫ	-11.3401
ಕ್ಕೆ	-11.3401
▁ఆల్కహాల్	-11.3401
▁ఇండస్ట్రియల్	-11.3401
▁ఛేంజర్	-11.3401
▁దృఢ	-11.3401
▁నిరసిస్తూ	-11.3401
▁మధ్యతరగతి	-11.3401
▁మూసివేయ	-11.3401
▁మ్యానిఫేస్టో	-11.3401
▁విజిలెన్స్	-11.3401
▁వీకెండ్	-11.3401
▁వెసులుబాటు	-11.3401
▁సజ్జనార్	-11.3401
▁హడావుడి	-11.3401
▁అరుణాచల	-11.3401
▁కావలసిన	-11.3402
▁అహంకార	-11.3402
▁స్కూలు	-11.3402
▁రిస్క్	-11.3404
▁ముగిసి	-11.3404
▁దొరికే	-11.3408
▁విశ్లేష	-11.3427
▁పక్షుల	-11.3443
▁గురిచేస్త	-11.3491
୨	-11.3518
ू	-11.3518
▁ఇంటిగ్రేటెడ్	-11.3518
▁ఇస్లామిక	-11.3518
▁ఠాక్రే	-11.3518
▁నలభై	-11.3518
▁పీరియడ్	-11.3518
▁ప్రకంపనలు	-11.3518
▁సముదాయ	-11.3518
▁స్లీపర్	-11.3518
▁ఇంతకుముందు	-11.3518
▁టెక్నికల్	-11.3518
▁సఫారీ	-11.3518
▁రిలీఫ్	-11.3518
▁క్రాంతి	-11.3518
▁అనుచిత	-11.3518
▁ہمیں	-11.3518
ନ୍ତ	-11.3518
▁కివీస్	-11.3518
▁ఇంతవరక	-11.3519
▁నమోదయింద	-11.3616
▁వారందర	-11.3625
▁News	-11.3635
▁Reddy	-11.3635
▁Telangana	-11.3635
▁پوسٹ	-11.3635
▁ఇంగ్లిష్	-11.3635
▁కమ్యూనిస్టు	-11.3635
▁క్యాండిడేట్	-11.3635
▁జహీరాబాద్	-11.3635
▁టీఎస్పీఎస్సీ	-11.3635
▁వైవాహిక	-11.3635
▁షబ్బీర్	-11.3635
▁సర్దుబాటు	-11.3635
▁స్నేహితుడు	-11.3635
▁హైస్కూల్	-11.3635
ଷ୍ଟ	-11.3635
▁ప్రణీత్	-11.3635
▁మిలిటరీ	-11.3635
▁కోహ్లి	-11.3635
▁రైడర్స్	-11.3635
▁సాగునీటి	-11.3635
▁అవతరించ	-11.3635
▁కమాండ్	-11.3635
▁సమర్పిస్త	-11.3635
▁బియ్యాన్ని	-11.3635
▁సిల్వర్	-11.3635
▁విరామం	-11.3636
▁ఫ్రూట్	-11.3636
▁ప్రవాస	-11.3639
ದ್ದ	-11.3646
▁ఒంటరి	-11.3673
▁విస్తార	-11.3674
పాక్షిక	-11.3676
▁కోదండ	-11.3754
▁సబ్జెక్టు	-11.3754
یئر	-11.3754
▁అసౌకర్య	-11.3754
▁ఆత్మగౌరవ	-11.3754
▁క్యాబినెట్	-11.3754
▁క్రమశిక్షణ	-11.3754
▁చంద్రచూడ్	-11.3754
▁జీవనశైలి	-11.3754
▁నాదెండ్ల	-11.3754
▁నియమితులయ్యారు	-11.3754
▁ఫ్లైఓవర్	-11.3754
▁భార్యాభర్తల	-11.3754
▁ముందంజలో	-11.3754
▁సద్వినియోగం	-11.3754
▁సాంప్రదాయ	-11.3754
▁ట్రేడింగ్	-11.3754
▁రెజ్లింగ్	-11.3754
▁వెంకటరమణ	-11.3754
▁మోతాదు	-11.3754
▁వామపక్ష	-11.3754
▁సమాఖ్య	-11.3754
▁దోషిగా	-11.3754
▁బషీర్	-11.3754
▁పట్టుబట్ట	-11.3754
▁జానారెడ్డి	-11.3755
▁ఉండవల్లి	-11.3755
▁సాహిత్య	-11.3755
▁కిచెన్	-11.3755
▁సంబందించి	-11.3755
▁లేకపోలేద	-11.3759
▁పూడ్చ	-11.3759
▁బాటిళ్ల	-11.3762
▁ధ్వ	-11.3762
▁అందజేసి	-11.377
భిమాన	-11.3783
ଏ	-11.3791
కొత్తగూడెం	-11.3791
కథనం	-11.3792
▁నిరుడ	-11.3811
▁వెళ్తుంద	-11.3823
▁యాదవ	-11.3859
▁చూసుకో	-11.3868
▁కెపాసిటీ	-11.3875
▁దిశానిర్దేశం	-11.3875
▁ద్వేష	-11.3875
▁ధాన్యాన్ని	-11.3875
▁నయనతార	-11.3875
▁పదిహేను	-11.3875
▁కాచిగూడ	-11.3875
▁గరిష్ఠ	-11.3875
▁అతీతంగా	-11.3875
▁ఆకట్టుకుంది	-11.3875
▁ఆశ్రమ	-11.3875
▁కలుషిత	-11.3875
▁ఖానాపూర్	-11.3875
▁దూబే	-11.3875
▁రైల్వేస్టేషన్	-11.3875
▁పఠాన్	-11.3875
▁ఎన్సీపీ	-11.3875
▁వానాకాలం	-11.3875
▁జమిలి	-11.3875
▁భిక్ష	-11.3875
▁పతకం	-11.3876
▁వర్తించ	-11.3876
▁యాత్రికుల	-11.3882
▁నిదర్శనమ	-11.3885
▁అంతిమ	-11.3886
▁ఓటేయ	-11.3895
▁ధీర	-11.3907
తెలుగు	-11.3913
▁నివసిస్త	-11.3919
▁విచారిస్త	-11.3926
▁ఊపిరితిత్తుల	-11.3997
▁నటీనటుల	-11.3997
ೃ	-11.3997
▁అడ్వకేట్	-11.3997
▁అవాంఛనీయ	-11.3997
▁ఎకానమీ	-11.3997
▁కన్యారాశి	-11.3997
▁క్రియాశీల	-11.3997
▁నిలిపివేశారు	-11.3997
▁నివాళులు	-11.3997
▁పునరుద్ధరణ	-11.3997
▁బళ్లారి	-11.3997
▁మృణాల్	-11.3997
▁మెక్సికో	-11.3997
▁సన్నాహాలు	-11.3997
▁సింధు	-11.3997
▁సిఫారసు	-11.3997
▁సోనియాగాంధీ	-11.3997
▁ಯಾವುದ	-11.3997
▁ట్రూడో	-11.3997
▁మైసూరు	-11.3997
▁రష్యన్	-11.3997
▁వీఐపీ	-11.3997
്	-11.3997
▁కన్నీళ్లు	-11.3997
▁ఫ్రిజ్	-11.3997
▁సంచరిస్త	-11.3997
▁దొంగతనాల	-11.3998
▁ఆందోళనకారుల	-11.401
▁ఎత్తుకెళ్ల	-11.4012
▁వ్యాపిస్త	-11.403
▁అనుచర	-11.4065
▁మేనేజ	-11.4103
▁అభిషేక	-11.4103
▁ఉండకూడద	-11.4113
▁Chandrababu	-11.412
▁ఎగ్జిబిషన్	-11.412
▁కౌన్సెలింగ్	-11.412
▁చారిత్రాత్మక	-11.412
▁డిప్రెషన్	-11.412
▁తగ్గుముఖం	-11.412
▁పువ్వాడ	-11.412
▁శబరిమల	-11.412
▁హడావిడి	-11.412
▁కొల్లాపూర్	-11.412
▁అవెన్యూ	-11.412
▁చిహ్నం	-11.412
▁పౌడర్	-11.412
▁వెంకన్న	-11.412
▁వదిలేయ	-11.412
▁ప్రయివేట	-11.412
▁రిపోర్టర్	-11.412
▁ముసుగు	-11.412
▁తెలిస్తే	-11.412
▁ఐదుగురి	-11.412
▁క్రాఫ్ట్	-11.412
▁భృతి	-11.412
▁పడతాయని	-11.412
▁గోయల్	-11.4121
▁పరేడ్	-11.4121
▁గేటు	-11.4121
▁చేకూర్చ	-11.4121
▁కుజుడు	-11.4121
▁ఎదగ	-11.4121
అప్పుడప్పుడు	-11.4123
▁సంపత్	-11.4124
▁తల్లుల	-11.4134
▁కుంగిపో	-11.4142
పోవాల్సి	-11.4143
పెడుతోంది	-11.4167
▁సైన్య	-11.4192
▁పితృ	-11.4207
▁వారసుల	-11.4212
▁అసదుద్దీన్	-11.4245
▁చుట్టుముట్ట	-11.4245
▁వృద్ధాప్య	-11.4245
▁సర్క్యూట్	-11.4245
▁పర్వదిన	-11.4245
▁ప్రఖ్యాత	-11.4245
▁బౌండరీ	-11.4245
▁మ్యానిఫెస్టో	-11.4245
▁సంపాదన	-11.4245
▁ముగిశాయ	-11.4245
▁సోదరుడి	-11.4245
▁మేడారం	-11.4245
▁వెలుపల	-11.4245
▁మిలటరీ	-11.4245
▁ڈی	-11.4245
▁నృత్య	-11.4246
▁కొవిడ్	-11.4246
▁జార్జ్	-11.4246
▁ప్రయాణీకుల	-11.4246
▁కెనాల్	-11.4246
▁ఐకాన్	-11.4246
▁కాషాయ	-11.4247
జ్యోతి	-11.4289
ాచారి	-11.4306
వర్గీయ	-11.435
▁ఆంక్షల	-11.4355
ప్రజల	-11.4356
▁జీతాల	-11.4364
▁థ్రిల్	-11.437
▁ఆశీర్వదించ	-11.4372
଼	-11.4372
▁Breaking	-11.4372
▁కాలిఫోర్నియా	-11.4372
▁డిఫరెంట్	-11.4372
▁పథకానికి	-11.4372
▁ఫ్యూచర్	-11.4372
▁సత్కరించ	-11.4372
▁ಪೋಸ್ಟ	-11.4372
▁ముషీరాబాద్	-11.4372
▁సామ్రాజ్య	-11.4372
▁స్మారక	-11.4372
▁తరలివచ్చార	-11.4372
▁అనుగ్రహం	-11.4372
▁సంపాదిస్త	-11.4372
▁సింపుల్	-11.4372
▁విషెస్	-11.4372
▁స్పిన్	-11.4373
▁కురిపిస్త	-11.4375
▁రచించ	-11.4408
ఏప్రిల్	-11.4417
▁మూసివేస	-11.4444
▁ప్రాధాన్య	-11.4482
ୂ	-11.45
▁ఆక్సిడెంట్	-11.45
▁ఆర్డినెన్స్	-11.45
▁ఎక్కడికక్కడ	-11.45
▁ఏమిటంటే	-11.45
▁కంటైనర్	-11.45
▁కూర్చొని	-11.45
▁గడ్కరీ	-11.45
▁ఛేదనలో	-11.45
▁తాడిపత్రి	-11.45
▁మొక్కజొన్న	-11.45
▁విజయసాయిరెడ్డి	-11.45
▁వెంకయ్య	-11.45
▁సులువుగా	-11.45
▁సైన్సెస్	-11.45
▁జడ్చర్ల	-11.45
▁వైయస్సార్	-11.45
▁డివైజ్	-11.45
▁సుమలత	-11.45
▁సోర్సింగ్	-11.45
▁పుణె	-11.45
▁సాగునీరు	-11.45
▁సునామీ	-11.45
▁ప్రవర్తిస్త	-11.45
▁పోగొట్టుకున్న	-11.45
▁స్కెచ్	-11.45
▁పూర్వీకుల	-11.45
▁ఈశ్వర్	-11.4501
▁పగటి	-11.4501
▁టర్కీ	-11.4501
▁రెబల్	-11.4501
▁లంచ్	-11.4501
▁జన్మదిన	-11.4501
▁పుష్కర	-11.4504
అవన్నీ	-11.4544
గలిగే	-11.456
்	-11.463
సేపట్లో	-11.463
▁అసైన్డ్	-11.463
▁ఉధృతం	-11.463
▁గణనీయమైన	-11.463
▁చర్చనీయాంశమైంది	-11.463
▁శృంగార	-11.463
▁హుజూర్	-11.463
▁2023-24	-11.463
▁అజెండా	-11.463
▁అథ్లెట్	-11.463
▁కాల్షియం	-11.463
▁ఘోష్	-11.463
▁రేడియో	-11.463
▁గోదావరిఖని	-11.463
▁శృతి	-11.463
▁ఎడిషన్	-11.463
ation	-11.463
▁కాగజ్	-11.463
▁ఎకరానికి	-11.4631
▁గెలుచుకో	-11.4634
▁ఎల్లప్పుడ	-11.4636
చూడ	-11.4692
ిల్లింగ్	-11.4703
▁దేనిక	-11.4705
_	-11.4761
▁చిత్తశుద్ధి	-11.4761
▁నాలుగైదు	-11.4761
▁పాలస్తీనియన్	-11.4761
▁హత్యాయత్నం	-11.4761
▁వెరిఫికేషన్	-11.4761
▁ప్రతిపాదించారు	-11.4761
▁వెడ్డింగ్	-11.4761
▁నిరాహార	-11.4762
▁చంద్రబోస్	-11.4762
లాజికల్	-11.4762
://	-11.4762
▁చవితి	-11.4762
▁నిరసనకారుల	-11.4769
▁వర్తింప	-11.4793
▁విషయానికొస్తే	-11.4895
▁విస్మరించ	-11.4895
▁دیکھ	-11.4895
▁కీరవాణి	-11.4895
▁గవాస్కర్	-11.4895
▁నెతన్యాహు	-11.4895
▁పంజాగుట్ట	-11.4895
▁పాతబస్తీ	-11.4895
▁ప్రైవేటీకరణ	-11.4895
▁భోపాల్	-11.4895
▁మణిపుర్	-11.4895
▁యూట్యూబర్	-11.4895
▁రాజనర్సింహ	-11.4895
▁లాంగ్వేజ్	-11.4895
▁సర్ఫరాజ్	-11.4895
▁స్క్రీనింగ్	-11.4895
▁స్మగ్లింగ్	-11.4895
☛	-11.4895
▁ఎజెండా	-11.4895
▁తైవాన్	-11.4895
▁ఆస్వాదించ	-11.4895
▁కీలకపాత్ర	-11.4895
▁గ్రోత్	-11.4895
▁కెటిఆర్	-11.4895
▁హిస్టరీ	-11.4895
▁జవాబు	-11.4895
▁పట్టుదలతో	-11.4895
▁మాగుంట	-11.4895
▁వదిలేస్త	-11.4895
▁వాయువ్య	-11.4895
▁ఎత్తిపోతల	-11.4895
▁ఆగ్నేయ	-11.4895
▁విలేజ్	-11.4895
▁ర్వాత	-11.4895
▁సేవలందించ	-11.4895
▁ఎరుపు	-11.4897
▁శిరీష	-11.49
ుకోవటం	-11.4913
▁స్లిప్	-11.4915
▁దీవుల	-11.4918
గఢ్	-11.4947
మంగళ	-11.4948
▁మాతృ	-11.5021
आ	-11.503
▁కిటకిటలాడ	-11.503
▁క్రైస్తవ	-11.503
▁క్షిపణుల	-11.503
q	-11.503
▁2022-23	-11.503
▁అంగన్వాడీ	-11.503
▁అత్యాధునిక	-11.503
▁ఆధీనంలో	-11.503
▁ఈజిప్ట్	-11.503
▁క్షిపణి	-11.503
▁తీన్మార్	-11.503
▁త్రివిక్రమ్	-11.503
▁పింఛను	-11.503
▁పోషకాహార	-11.503
▁మెటీరియల్	-11.503
▁మైక్రోసాఫ్ట్	-11.503
▁వైస్సార్సీపీ	-11.503
▁స్మగ్లర్	-11.503
▁హాస్టళ్ల	-11.503
ଓ	-11.503
▁అలాంటప్పుడు	-11.503
▁ఎయిమ్స్	-11.503
▁థీమ్	-11.503
▁దెబ్బతీసే	-11.503
▁మేధావుల	-11.503
▁విక్టరీ	-11.503
▁యోచన	-11.503
▁సరసన	-11.503
▁మరోపక్క	-11.503
▁జ్యూస్	-11.503
▁యార్డు	-11.503
▁పొన్నాల	-11.5032
▁చదివే	-11.5044
▁Jagan	-11.5167
▁అంబేడ్కర్	-11.5167
▁ఇంట్రెస్టింగ్	-11.5167
▁చార్మినార్	-11.5167
▁చైనీస్	-11.5167
▁ఛాలెంజ్	-11.5167
▁తేల్చిచెప్ప	-11.5167
▁దుష్ప్రచార	-11.5167
▁పట్నాయక్	-11.5167
▁రూపకల్పన	-11.5167
▁విరాళాలు	-11.5167
▁సుల్తాన్	-11.5167
▁హెల్మెట్	-11.5167
▁ట్యాబ్	-11.5167
▁పగ్గాలు	-11.5167
▁మంథని	-11.5167
▁హోరెత్త	-11.5167
▁కాబట్టే	-11.5167
▁బూడిద	-11.5167
▁ఆచార్య	-11.5167
▁ముదిరాజ్	-11.5167
▁అనిరుధ్	-11.5167
▁టెన్త్	-11.5167
▁మధిర	-11.5167
▁సంస్ధ	-11.5167
▁స్టోన్	-11.5168
▁సంకేతం	-11.5168
▁మెగావాట్ల	-11.5168
▁రాధిక	-11.5173
▁ప్రేమికుల	-11.5177
ುತ್ತಿರುವ	-11.5185
▁طو	-11.5187
▁మాత్రాన	-11.5191
ఎత్తున	-11.5223
▁కలెక్ట	-11.5282
▁ప్రమోట	-11.5286
▁తీసుకెళ	-11.5305
ଘ	-11.5306
▁అభ్యర్ధుల	-11.5306
▁ఆయకట్టు	-11.5306
▁ఏకపక్షంగా	-11.5306
▁దగ్గుబాటి	-11.5306
▁నేచురల్	-11.5306
▁న్యూజీలాండ్	-11.5306
▁భౌగోళిక	-11.5306
▁సెంటీమీటర్ల	-11.5306
▁సెల్సియస్	-11.5306
▁తాలిబాన్	-11.5306
▁నిబద్ధత	-11.5306
ಮ್ಮ	-11.5306
▁అచ్చంపేట	-11.5306
▁వెల్లువెత్తుతు	-11.5306
▁పరాజయం	-11.5306
▁తప్పుదోవ	-11.5306
▁రాచకొండ	-11.5306
▁రిజర్వు	-11.5306
▁చేర్పించ	-11.5306
▁పూలమాల	-11.5306
▁రింకూ	-11.5306
▁ఫ్రేమ్	-11.5306
▁స్కై	-11.5306
▁దళారుల	-11.5306
▁సుజాత	-11.5307
శ్రేణి	-11.5307
▁క్షమించ	-11.5308
▁చేద్దామ	-11.5309
ख	-11.5447
*	-11.5506
ध	-11.5881
ୱ	-11.6031
ୌ	-11.6336
ಎ	-11.6409
ଠ	-11.6651
ʼ	-11.6976
ಒ	-11.7312
फ	-11.8021
୦	-11.8206
ؤ	-11.8395
थ	-11.8395
=	-11.8587
ث	-11.8983
#	-11.9525
୧	-11.9608
ക	-12.0048
ୃ	-12.0275
ఊ	-12.0661
इ	-12.0746
ി	-12.1496
ई	-12.2029
ष	-12.2307
ै	-12.2307
ଛ	-12.2591
•	-12.2593
த	-12.319
ఙ	-12.3503
­	-12.3503
]	-12.3503
ಏ	-12.3503
⁪	-12.3503
[	-12.3503
ఋ	-12.3825
ಐ	-12.3825
ಘ	-12.3825
उ	-12.4158
ೌ	-12.4158
‪	-12.4158
க	-12.4503
ப	-12.486
ण	-12.486
ِ	-12.486
ന	-12.486
°	-12.5231
ٰ	-12.5231
୪	-12.5231
া	-12.6015
യ	-12.6015
छ	-12.6867
ு	-12.6867
ಠ	-12.6867
ம	-12.6867
ു	-12.6867
ட	-12.7321
ओ	-12.7321
ি	-12.7798
ാ	-12.7798
ఱ	-12.8298
ठ	-12.8298
౦	-12.8298
ଵ	-12.9379
ട	-12.938
র	-12.9968
্	-13.0593
୩	-13.1259
வ	-13.1259
ர	-13.1259
‐	-13.1259
ୈ	-13.1259
ல	-13.1259
ক	-13.1259
ற	-13.1974
୮	-13.1974
ಇ	-13.2659
ள	-13.2743
ല	-13.2743
୬	-13.2743
ா	-13.2743
വ	-13.2743
െ	-13.2743
ଝ	-13.3576
ব	-13.3576
ണ	-13.3576
ম	-13.4485
ন	-13.4485
୭	-13.4485
َ	-13.4485
୯	-13.4485
ഷ	-13.4485
ي	-13.5485
ে	-13.5485
ॉ	-13.5485
ോ	-13.5485
ಅ	-13.6513
റ	-13.6596
ச	-13.6596
؟	-13.6596
ু	-13.6596
ந	-13.7846
ە	-13.7846
ژ	-13.7846
ை	-13.7846
‒	-13.7846
ौ	-13.7846
॥	-13.7846
ত	-13.7846
ৰ	-13.7846
ன	-13.7846
ृ	-13.7846
ര	-13.7846
സ	-13.7846
മ	-13.7847
ெ	-13.9275
য	-13.9275
ো	-13.9275
ൽ	-13.9275
′	-13.9275
◉	-13.9275
♦	-13.9275
ഡ	-13.9275
স	-14.0942
ಢ	-14.0942
★	-14.0942
ർ	-14.0942
🚩	-14.2942
়	-14.2942
😂	-14.2942
ൗ	-14.5442
এ	-14.5442
ൂ	-14.5442
ه	-14.5442
ّ	-14.5442
\	-14.5442
ও	-14.5442
ধ	-14.5442
ം	-14.5442
ൾ	-14.5442
ொ	-14.5442
౩	-14.5442
ಈ	-14.8692
ீ	-14.8775
💪	-14.8775
ư	-14.8775
ଃ	-14.8775
ಝ	-14.8775
ऊ	-14.8775
~	-14.8775
×	-14.8775
ُ	-14.8775
०	-14.8775
ট	-14.8775
ড	-14.8775
দ	-14.8775
ফ	-14.8775
হ	-14.8775
ଈ	-14.8775
ಃ	-14.8775
⃣	-14.8775
⦁	-14.8775
️	-14.8775
🔥	-14.8775
🙏	-14.8775
േ	-15.3775
ভ	-15.3775
౹	-15.3775
ಔ	-15.3775
â	-15.3775
ơ	-15.3775
أ	-15.3775
ً	-15.3775
ڕ	-15.3775
२	-15.3775
চ	-15.3775
ী	-15.3775
ৱ	-15.3775
ஜ	-15.3775
ூ	-15.3775
ഈ	-15.3775
ഭ	-15.3775
ൻ	-15.3775
ố	-15.3775
⁫	-15.3775
⁯	-15.3775
👌	-15.3775
💚	-15.3775
😡	-15.3775
ः	-15.3775
শ	-15.3775
ശ	-15.3775
ൊ	-15.3775
👉	-16.3705
◆	-16.3706
ൃ	-16.3707
౧	-16.3708
ఁ	-16.3709
ஏ	-16.371
গ	-16.3711
অ	-16.3712
⁄	-16.3713
ண	-16.3714
ऑ	-16.3715
ँ	-16.3716
·	-16.3717
ധ	-16.3718
എ	-16.3719
ங	-16.372
அ	-16.3721
ञ	-16.3722
đ	-16.3723
ീ	-16.3724
ோ	-16.3725
எ	-16.3726
🇳	-16.3727
❌	-16.3728
ള	-16.3729
ജ	-16.373
ಛ	-16.3731
জ	-16.3732
🇮	-16.3733
ങ	-16.3734
প	-16.3735
ء	-16.3736
►	-16.3737
അ	-16.3738
ய	-16.3739
ল	-16.374
ଢ	-16.3741
ऐ	-16.3742
⁠	-16.3743
ച	-16.3744
●	-16.3745
ಞ	-16.3746
ढ	-16.3747
झ	-16.3748
ಊ	-16.3749
ത	-16.375
୫	-16.3751
घ	-16.3752
ಓ	-16.3753
$	-16.3754
പ	-16.3755
₹	-16.3756
ி	-16.3757
ଞ	-16.3758
औ	-16.3759
़	-16.376
➦	-16.3761
ಥ	-16.3762
ಖ	-16.3763
ଙ	-16.3764
ଧ	-16.3765
ଅ	-16.3766
ଯ	-16.3767
آ	-16.3768
्	-16.3769
ಆ	-16.377
ఔ	-16.3771
ھ	-16.3772
ئ	-16.3773
ఞ	-16.3774
ഇ	-16.3775
ഒ	-16.3775
ả	-16.3775
👊	-16.3775
<	-16.3775
£	-16.3775
©	-16.3775
æ	-16.3775
α	-16.3775
β	-16.3775
؛	-16.3775
إ	-16.3775
ى	-16.3775
ڵ	-16.3775
ۆ	-16.3775
ێ	-16.3775
४	-16.3775
ঃ	-16.3775
আ	-16.3775
ৈ	-16.3775
ஆ	-16.3775
ஊ	-16.3775
ஸ	-16.3775
ே	-16.3775
ౖ	-16.3775
౪	-16.3775
౬	-16.3775
ആ	-16.3775
ൈ	-16.3775
ầ	-16.3775
ậ	-16.3775
ệ	-16.3775
ớ	-16.3775
ờ	-16.3775
ở	-16.3775
ợ	-16.3775
ứ	-16.3775
‫	-16.3775
‬	-16.3775
€	-16.3775
∙	-16.3775
≠	-16.3775
▪	-16.3775
♥	-16.3775
✳	-16.3775
➡	-16.3775
🇬	-16.3775
🌹	-16.3775
🏼	-16.3775
👇	-16.3775
👋	-16.3775
💐	-16.3775
💥	-16.3775
🔴	-16.3775
🔸	-16.3775
🔹	-16.3775
😉	-16.3775
😊	-16.3775
😜	-16.3775
😞	-16.3775
😠	-16.3775
😥	-16.3775
🙂	-16.3775
🤜	-16.3775
Á	-16.3775
ఽ	-16.3775
ౄ	-16.3775
ഗ	-16.3775
🇪	-16.3775
́	-16.3775
இ	-16.3775
🤭	-16.3775
ദ	-16.3775
ബ	-16.3775
ഴ	-16.3775
(	-16.3775
உ	-16.3775
