<unk>	0
<s>	0
</s>	0
▁ప	-0
ార	-1
▁క	-2
ని	-3
న్	-4
్ర	-5
▁వ	-6
ర్	-7
స్	-8
▁మ	-9
లు	-10
▁అ	-11
ంద	-12
లో	-13
▁చ	-14
▁స	-15
▁త	-16
ల్	-17
ారు	-18
▁ర	-19
్య	-20
కు	-21
ట్	-22
న్న	-23
ంచ	-24
▁న	-25
గా	-26
క్	-27
▁ప్ర	-28
ంది	-29
తు	-30
▁ఆ	-31
▁చే	-32
ాల	-33
▁బ	-34
ించ	-35
▁ఇ	-36
ను	-37
డి	-38
▁ద	-39
ంట	-40
▁జ	-41
▁ఉ	-42
డు	-43
▁ఎ	-44
రి	-45
ంత	-46
ిన	-47
ాయ	-48
▁గ	-49
ప్	-50
లి	-51
త్	-52
▁వి	-53
రు	-54
▁,	-55
కి	-56
▁ల	-57
ార్	-58
డ్	-59
▁ని	-60
టి	-61
▁లో	-62
▁స్	-63
టు	-64
ంగ	-65
ంగా	-66
సు	-67
టీ	-68
▁రా	-69
▁ఈ	-70
ంలో	-71
ద్	-72
న్నారు	-73
ప్ప	-74
తి	-75
లా	-76
డా	-77
..	-78
యా	-79
చ్	-80
మా	-81
▁ను	-82
▁హ	-83
స్తు	-84
▁కా	-85
▁భ	-86
▁కు	-87
ష్	-88
వా	-89
స్త	-90
సి	-91
న్ని	-92
చ్చ	-93
్యా	-94
▁శ	-95
గు	-96
▁తె	-97
ిక	-98
▁చె	-99
ండ	-100
నే	-101
ాయి	-102
▁ఏ	-103
దు	-104
▁కో	-105
మ్	-106
ందు	-107
ళ్	-108
▁ఫ	-109
ది	-110
ెం	-111
క్ష	-112
పు	-113
ేశ	-114
▁పో	-115
ాలు	-116
పీ	-117
▁కొ	-118
తో	-119
ల్లో	-120
▁కే	-121
ారం	-122
▁మా	-123
▁..	-124
వు	-125
ిత	-126
ింది	-127
▁కూ	-128
▁వె	-129
▁పె	-130
▁1	-131
రా	-132
▁ము	-133
నికి	-134
్రి	-135
లీ	-136
▁2	-137
మి	-138
సీ	-139
▁సి	-140
ైన	-141
ంచి	-142
▁పా	-143
▁ట	-144
ారి	-145
లకు	-146
ిల్	-147
▁లే	-148
▁సం	-149
క్క	-150
ట్ట	-151
▁తీ	-152
▁డ	-153
ంగ్	-154
ించారు	-155
ామ	-156
ంతో	-157
ష్ట	-158
▁గా	-159
రో	-160
్వ	-161
ెస్	-162
▁ఒ	-163
లను	-164
▁వే	-165
▁తో	-166
బ్	-167
ద్ద	-168
▁నుంచి	-169
▁నే	-170
కా	-171
ట్లు	-172
డం	-173
▁కూడా	-174
బా	-175
▁వా	-176
▁సీ	-177
కో	-178
▁చేశ	-179
▁అధ	-180
▁ఉన్న	-181
మ్మ	-182
పై	-183
వి	-184
▁గు	-185
త్త	-186
ాన	-187
▁నిర్	-188
▁బీ	-189
▁అయ	-190
పో	-191
ంద్ర	-192
▁చేయ	-193
ెడ్	-194
షన్	-195
యం	-196
స్తున్న	-197
పా	-198
▁సమ	-199
గ్	-200
▁.	-201
▁య	-202
▁పార్	-203
▁ప్రభ	-204
సిన	-205
సుకు	-206
ప్పు	-207
బు	-208
నీ	-209
▁ఓ	-210
▁తెలి	-211
జు	-212
ల్ల	-213
▁రో	-214
టర్	-215
ాలని	-216
ంటి	-217
▁కి	-218
ందని	-219
▁పై	-220
ఆర్	-221
▁వచ్చ	-222
్రా	-223
తున్న	-224
▁వ్య	-225
్రీ	-226
▁చెప్ప	-227
ుత్	-228
ంటు	-229
గి	-230
▁"	-231
ెడ్డి	-232
▁భార	-233
▁పరి	-234
త్ర	-235
▁రూ	-236
ండి	-237
నా	-238
జ్	-239
వే	-240
▁చేశారు	-241
లే	-242
రీ	-243
ందుకు	-244
పి	-245
తం	-246
జీ	-247
▁వై	-248
▁మీ	-249
▁దీ	-250
▁పార్టీ	-251
ూర్	-252
కే	-253
▁అధిక	-254
▁ప్రభుత్	-255
యో	-256
ెట్	-257
▁(	-258
▁దా	-259
సం	-260
▁సా	-261
▁బా	-262
▁పే	-263
ంటే	-264
వం	-265
▁అవ	-266
కొ	-267
▁కార	-268
▁ఆయ	-269
ంధ	-270
ించిన	-271
ట్టు	-272
ళ్ల	-273
▁అని	-274
ండ్	-275
▁నా	-276
ారని	-277
ద్య	-278
డీ	-279
స్థ	-280
ించి	-281
▁ష	-282
ఎస్	-283
▁20	-284
ారా	-285
▁తన	-286
నం	-287
▁ప్రా	-288
ెల్	-289
▁ఆయన	-290
▁ఎన్ని	-291
రం	-292
ులు	-293
▁రాష్ట	-294
వర్	-295
▁వీ	-296
జా	-297
▁ఒక	-298
▁మొ	-299
వీ	-300
ెంట్	-301
త్య	-302
ాడు	-303
ధి	-304
మె	-305
దా	-306
▁ఎన్నిక	-307
ెక్	-308
▁అభ	-309
ాలి	-310
▁చేసి	-311
సే	-312
వర	-313
▁టీ	-314
▁శా	-315
రే	-316
▁చూ	-317
▁వర	-318
కీ	-319
ంత్రి	-320
ంప	-321
▁తెలిప	-322
▁రి	-323
▁ధ	-324
ితే	-325
రుగు	-326
జే	-327
ుల	-328
▁చి	-329
▁స్థ	-330
▁ఉండ	-331
క్ర	-332
▁రాష్ట్ర	-333
▁స్ట	-334
▁చేసిన	-335
▁రెడ్డి	-336
▁జరి	-337
హి	-338
్రెస్	-339
ాలను	-340
▁మే	-341
వాత	-342
▁డి	-343
దే	-344
ధ్య	-345
▁కాంగ	-346
లంగా	-347
ఖ్య	-348
క్కు	-349
▁మంది	-350
▁కాంగ్రెస్	-351
▁ప్రక	-352
▁హై	-353
▁ఖ	-354
ండా	-355
▁లు	-356
▁పోలీ	-357
▁వారి	-358
▁జిల్	-359
▁రాజ	-360
దేశ	-361
▁రోజు	-362
ర్శ	-363
ఎం	-364
య్య	-365
బాద్	-366
▁మార్	-367
ఫ్	-368
యంలో	-369
యే	-370
▁సె	-371
స్తున్నారు	-372
▁3	-373
మైన	-374
సా	-375
▁నె	-376
యి	-377
కర	-378
మే	-379
▁వర్	-380
▁తా	-381
▁కోసం	-382
చి	-383
తా	-384
▁మూ	-385
▁ా	-386
▁రై	-387
న్స్	-388
▁మో	-389
దీ	-390
▁జిల్లా	-391
ట్ల	-392
ర్థ	-393
ప్పుడు	-394
▁మె	-395
▁చేస్త	-396
▁సమా	-397
▁సు	-398
ప్పటి	-399
▁ఐ	-400
తీ	-401
▁విష	-402
▁తెలంగా	-403
▁తెలంగాణ	-404
కోవ	-405
న్య	-406
▁రే	-407
సులు	-408
ించింది	-409
▁అయితే	-410
వారం	-411
▁-	-412
▁పు	-413
▁తి	-414
▁చెప్పారు	-415
లుగు	-416
ంబ	-417
▁ది	-418
ల్లి	-419
▁అను	-420
▁భా	-421
కర్	-422
▁కార్య	-423
▁ప్రభుత్వం	-424
▁ఇచ్చ	-425
▁పొ	-426
▁తెలిపారు	-427
ుకు	-428
శ్	-429
ర్చ	-430
▁తర్	-431
్యూ	-432
డంతో	-433
ామని	-434
ాలా	-435
▁యా	-436
▁దేశ	-437
▁తర్వాత	-438
కుండా	-439
▁ప్రజ	-440
▁చంద్ర	-441
▁తీసుకు	-442
దని	-443
ట్టి	-444
ంటూ	-445
▁సిని	-446
ర్య	-447
▁అనే	-448
▁బీజే	-449
▁జరిగ	-450
▁ప్రతి	-451
వహ	-452
▁అధికారు	-453
▁సో	-454
డానికి	-455
▁బీజేపీ	-456
▁లా	-457
▁తే	-458
▁వ్యక్	-459
మో	-460
▁కలి	-461
తున్నారు	-462
▁మంత్రి	-463
▁మరో	-464
▁4	-465
▁పాటు	-466
▁గ్ర	-467
▁వ్యా	-468
▁ఉంది	-469
▁ఏర్	-470
▁:	-471
ించే	-472
▁సినిమా	-473
▁కేంద్ర	-474
జి	-475
ము	-476
▁అన్నారు	-477
వ్	-478
▁5	-479
బంధ	-480
▁ఆరో	-481
▁తమ	-482
▁సభ	-483
▁శ్రీ	-484
తులు	-485
▁లక్ష	-486
▁జీ	-487
తుంది	-488
▁ఎమ్మ	-489
టన	-490
▁మి	-491
▁జా	-492
ప్ర	-493
▁క్ర	-494
▁ఎమ్మెల్	-495
డే	-496
▁స్ప	-497
▁నేత	-498
▁ఉంటు	-499
ద్ధ	-500
▁చాలా	-501
00	-502
▁సీఎం	-503
ణా	-504
▁ప్	-505
స్ట	-506
▁రెం	-507
ట్లా	-508
ర్టు	-509
లం	-510
ళ్లు	-511
ోంది	-512
బ్బ	-513
క్కువ	-514
▁అంత	-515
కాశ	-516
▁మాత్ర	-517
ాని	-518
కూ	-519
▁రెండు	-520
ందిన	-521
▁విజ	-522
▁పి	-523
▁ఆర్	-524
▁పని	-525
▁అభి	-526
డ్డ	-527
▁పూర్	-528
పాటు	-529
టో	-530
▁తీసు	-531
కులు	-532
▁ఎం	-533
రాబాద్	-534
బాబు	-535
▁అస	-536
▁సర్	-537
పోయ	-538
▁మాట్లా	-539
▁ఆమె	-540
త్స	-541
మీ	-542
▁నెల	-543
బర్	-544
▁ఘ	-545
▁దీంతో	-546
▁గత	-547
▁హైద	-548
దల	-549
▁రె	-550
ాలకు	-551
▁ప్రధ	-552
హా	-553
గ్ర	-554
గొ	-555
▁వెళ్	-556
▁చేసుకు	-557
▁జగ	-558
▁అందు	-559
▁అవకాశ	-560
▁బె	-561
మార్	-562
▁ముఖ్య	-563
▁నీ	-564
వ్వ	-565
గే	-566
▁లోని	-567
▁మధ్య	-568
▁మరి	-569
▁వరకు	-570
ెన్	-571
▁బి	-572
▁కానీ	-573
▁హైదరాబాద్	-574
▁క్	-575
ీల	-576
▁చంద్రబాబు	-577
వరి	-578
▁చేస్తున్న	-579
▁ఎలా	-580
▁సూ	-581
తూ	-582
▁తొ	-583
గ్గ	-584
ంత్	-585
▁చెందిన	-586
శా	-587
▁కేసు	-588
▁ప్రాంత	-589
▁ఎమ్మెల్యే	-590
వేశ	-591
ాయని	-592
▁పోలీసులు	-593
▁చేసింది	-594
▁నాయ	-595
తోంది	-596
సారి	-597
▁కొత్త	-598
ర్లు	-599
లతో	-600
చారం	-601
▁సంబంధ	-602
▁ఇప్పటి	-603
ణి	-604
▁గుర్	-605
ాన్	-606
▁ఇది	-607
లోని	-608
▁బీఆర్	-609
ర్కొ	-610
ర్యా	-611
▁తెలు	-612
▁బ్యా	-613
▁కార్	-614
స్తుంది	-615
ందర్	-616
▁పాల్	-617
▁న్య	-618
▁తర	-619
▁అధికారులు	-620
▁నిర్వహ	-621
ణం	-622
చార	-623
▁యూ	-624
▁6	-625
గం	-626
స్ట్	-627
▁జన	-628
స్తే	-629
ణ్	-630
▁ک	-631
ందించ	-632
ుడు	-633
స్య	-634
▁నిర్ణ	-635
▁ఎన్నికల	-636
▁ద్వ	-637
స్తోంది	-638
బీ	-639
▁గె	-640
▁మహి	-641
▁202	-642
▁సమయంలో	-643
▁ఇం	-644
ూరు	-645
▁భారీ	-646
▁గుర	-647
▁యు	-648
▁కల	-649
▁కాల	-650
▁ఫో	-651
▁పెద్ద	-652
▁సై	-653
▁లేదు	-654
▁గంట	-655
త్తు	-656
గర్	-657
▁మహిళ	-658
▁అన	-659
▁ఎస్	-660
ృష్	-661
▁ఉద్య	-662
▁చేసే	-663
ందే	-664
ైనా	-665
▁అమ	-666
▁హా	-667
▁అలా	-668
ంపు	-669
▁ఎక్కువ	-670
▁భూ	-671
▁7	-672
ారంభ	-673
▁జగన్	-674
▁పెట్ట	-675
డియా	-676
▁ప్రారంభ	-677
▁కని	-678
▁శి	-679
క్కడ	-680
▁అభ్య	-681
ేషన్	-682
▁""	-683
హ్	-684
▁ముందు	-685
▁ప్రస్తు	-686
క్స్	-687
▁డీ	-688
త్రి	-689
▁కేసీ	-690
టా	-691
వన్	-692
చే	-693
తే	-694
▁ఇప్పుడు	-695
షి	-696
ారీ	-697
▁)	-698
▁రాజకీ	-699
▁బో	-700
▁మ్యా	-701
▁వల్ల	-702
▁విద్య	-703
పించ	-704
▁కేసీఆర్	-705
యోజ	-706
▁అవు	-707
▁బీఆర్ఎస్	-708
▁ఇవ్వ	-709
▁ఇక	-710
▁అత	-711
▁సే	-712
▁కుటు	-713
▁వచ్చిన	-714
▁కల్	-715
▁వారు	-716
▁8	-717
▁టి	-718
▁అర	-719
▁అంద	-720
▁మీడియా	-721
▁ఫి	-722
ర్మ	-723
▁ప్రభుత్వ	-724
▁ఒక్క	-725
కెట్	-726
▁ద్వారా	-727
▁విధ	-728
▁ు	-729
ంలోని	-730
ఫీ	-731
కాల	-732
ద్ర	-733
ిల్లీ	-734
▁సాధ	-735
నించ	-736
ాయం	-737
▁పేర్కొ	-738
డిన	-739
▁చెబు	-740
▁ఇలా	-741
▁...	-742
▁ఏర్పాటు	-743
▁కొన్ని	-744
▁మన	-745
స్థి	-746
▁ఏపీ	-747
▁కె	-748
▁ప్రత్య	-749
తంగా	-750
▁కావ	-751
విత	-752
▁ప్రకట	-753
▁పీ	-754
▁సమస్య	-755
▁ప్రమా	-756
క్రమ	-757
▁అయ్య	-758
తుల	-759
▁లి	-760
▁బు	-761
ినా	-762
మెంట్	-763
కె	-764
▁జరుగు	-765
ందో	-766
కం	-767
▁ఉంటుంది	-768
పే	-769
▁పలు	-770
▁కారణ	-771
▁అధికార	-772
▁అవకాశం	-773
చ్చు	-774
శి	-775
▁ధర	-776
▁తు	-777
▁వివర	-778
▁దే	-779
▁పూర్తి	-780
▁మహ	-781
▁ఉద్యో	-782
▁గో	-783
▁పోటీ	-784
▁వెలుగు	-785
ల్సి	-786
▁రూప	-787
▁దీని	-788
▁మాజీ	-789
▁బయ	-790
టం	-791
రుకు	-792
▁శాఖ	-793
తర	-794
యర్	-795
▁షా	-796
ెస్ట్	-797
▁రేవ	-798
సీపీ	-799
తీయ	-800
▁పరిస్థి	-801
ంత్ర	-802
▁దు	-803
▁ప్రస్తుతం	-804
ార్థ	-805
▁జరిగిన	-806
▁వచ్చే	-807
▁వద్ద	-808
▁మొద	-809
దం	-810
▁పాల	-811
గో	-812
▁ఆరోప	-813
▁ఉంట	-814
▁ఇండి	-815
▁అధ్య	-816
▁అభ్యర్థ	-817
▁అం	-818
ఢిల్లీ	-819
▁సహ	-820
▁లను	-821
▁10	-822
▁హి	-823
లోకి	-824
▁చేస్తున్నారు	-825
▁9	-826
▁కుటుంబ	-827
కపో	-828
▁వర్ష	-829
ాల్లో	-830
▁కొన	-831
▁సంస్థ	-832
మంత్రి	-833
యన్	-834
కంగా	-835
▁ఎంపీ	-836
▁ఆధ	-837
▁ఎదు	-838
వ్ర	-839
▁మార	-840
▁మొత్త	-841
▁నో	-842
ల్స్	-843
▁భారత్	-844
▁రేవంత్	-845
▁మంచి	-846
▁తీవ్ర	-847
జర్	-848
▁ట్ర	-849
▁విచార	-850
▁ఎన్నికల్లో	-851
ాం	-852
యత్	-853
స్టు	-854
్యం	-855
నూ	-856
▁ఉప	-857
స్తూ	-858
▁మండ	-859
▁పేరు	-860
▁చేప	-861
▁పాల్గొ	-862
డీపీ	-863
▁భారత	-864
టింగ్	-865
ద్ధి	-866
ెక్టర్	-867
▁విజయ	-868
నర్	-869
▁అన్ని	-870
ంటర్	-871
డియో	-872
▁క్యా	-873
▁19	-874
▁201	-875
▁కుమార్	-876
నాలు	-877
▁స్థాన	-878
ంటున్న	-879
▁సమావేశ	-880
▁మూడు	-881
▁కమి	-882
▁సందర్	-883
▁గ్రామ	-884
▁నియోజ	-885
▁లై	-886
▁వెల్ల	-887
రగ	-888
▁కలిసి	-889
▁టీడీపీ	-890
▁ప్రయత్	-891
▁శు	-892
▁ఎన్	-893
త్తి	-894
నున్న	-895
తలు	-896
▁కీల	-897
▁శాతం	-898
▁పట్ట	-899
▁రు	-900
▁నమో	-901
▁తేదీ	-902
▁డా	-903
షల్	-904
ట్టుకు	-905
▁విడు	-906
ానికి	-907
▁నియోజక	-908
▁ఛ	-909
▁పవన్	-910
▁చర్య	-911
▁కోట్ల	-912
హం	-913
▁ప్రత్యే	-914
రణ	-915
▁కొనసా	-916
▁పరిశ	-917
ాన్ని	-918
▁గురించి	-919
▁లేదని	-920
దేశ్	-921
▁'	-922
▁మ్యాచ్	-923
పంచ	-924
లపై	-925
▁భాగ	-926
▁చర్చ	-927
▁కర్	-928
▁చో	-929
▁సందర్భ	-930
▁మాత్రం	-931
▁వీడియో	-932
▁ఉందని	-933
▁హె	-934
భా	-935
▁విడుదల	-936
ంగళ	-937
▁వేల	-938
▁రాజకీయ	-939
▁వెళ్ల	-940
▁కంప	-941
▁ప్రశ్	-942
▁తప్ప	-943
లేదు	-944
▁ఇన్	-945
తున్నాయి	-946
బ్లీ	-947
▁ا	-948
▁వైసీపీ	-949
సర	-950
▁ఉన్నారు	-951
ిల్ల	-952
▁వాటి	-953
రూ	-954
▁ప్రధాన	-955
▁నియోజకవర్	-956
▁అధ్యక్ష	-957
▁హో	-958
▁విచారణ	-959
▁ఉన్నాయి	-960
మాండ్	-961
వడం	-962
▁వెల్లడ	-963
మర్శ	-964
డ్డు	-965
్రో	-966
ైంది	-967
▁ప్రభా	-968
▁పూ	-969
▁లీ	-970
పర్	-971
▁ఢిల్లీ	-972
హు	-973
▁దూ	-974
యోగ	-975
▁అన్న	-976
▁మాత్రమే	-977
ష్టం	-978
ంటారు	-979
సింది	-980
ానని	-981
▁వెం	-982
▁వ్యక్తం	-983
▁విషయం	-984
రల్	-985
▁పద	-986
దర్శ	-987
▁పం	-988
▁ఘటన	-989
ృద్ధి	-990
▁వ్యక్తి	-991
▁ఊ	-992
మని	-993
ించడం	-994
్వర	-995
▁అర్	-996
▁జో	-997
క్తి	-998
▁అసెం	-999
వై	-1000
క్షన్	-1001
దన	-1002
ినీ	-1003
▁ఉద	-1004
▁అసెంబ్లీ	-1005
▁వారికి	-1006
▁ఉండే	-1007
▁సభ్య	-1008
▁తాజా	-1009
▁లక్షల	-1010
డాది	-1011
కుల	-1012
ద్దు	-1013
▁ముఖ్యమంత్రి	-1014
▁చేయాలని	-1015
▁కీలక	-1016
స్తారు	-1017
▁జూ	-1018
▁అమ్మ	-1019
▁వంటి	-1020
ానం	-1021
▁సమాచారం	-1022
వల	-1023
▁ఉత్త	-1024
▁సూచ	-1025
▁దర్శ	-1026
ారెడ్డి	-1027
ించాలని	-1028
▁నుండి	-1029
▁ఇప్పటికే	-1030
పూర్	-1031
▁చేసు	-1032
లింగ్	-1033
▁ఇంటి	-1034
▁యువ	-1035
▁పోలీసు	-1036
్రే	-1037
▁పడు	-1038
▁ప్రపంచ	-1039
ించుకు	-1040
▁విమర్శ	-1041
గిన	-1042
రారు	-1043
బో	-1044
▁మాట్లాడు	-1045
▁ప్రజలు	-1046
కోర్టు	-1047
ంట్	-1048
▁హీ	-1049
ంటున్నారు	-1050
ెనీ	-1051
▁రెండ	-1052
▁మృ	-1053
▁డై	-1054
▁ప్రధాని	-1055
దిక	-1056
▁నాలు	-1057
▁అదే	-1058
▁పను	-1059
▁కోర్టు	-1060
లలో	-1061
రిగి	-1062
▁తిరు	-1063
జన్	-1064
▁వార్	-1065
▁కంపెనీ	-1066
▁జై	-1067
▁రాష్ట్రంలో	-1068
▁లేదా	-1069
సర్	-1070
▁సందర్భంగా	-1071
▁సంఘ	-1072
నల్	-1073
▁మీద	-1074
▁బయట	-1075
▁తాను	-1076
పె	-1077
▁ఆదేశ	-1078
▁వెంట	-1079
▁చిన్న	-1080
గ్గు	-1081
నున్నారు	-1082
▁తరు	-1083
▁ప్రత్యేక	-1084
▁ఇండియా	-1085
▁ఎలాంటి	-1086
టీఆర్	-1087
▁కింద	-1088
▁వ్యవ	-1089
▁తెలుగు	-1090
▁స్వా	-1091
▁ంచ	-1092
▁టై	-1093
ించు	-1094
ెంబర్	-1095
▁రంగ	-1096
▁15	-1097
▁మొత్తం	-1098
▁అత్య	-1099
▁మోదీ	-1100
▁చిత	-1101
▁ప్రకారం	-1102
▁తొలి	-1103
▁న్యూ	-1104
▁ప్రయా	-1105
వృద్ధి	-1106
▁విని	-1107
▁సోషల్	-1108
బ్బంది	-1109
▁అక్క	-1110
▁చేయడం	-1111
టమి	-1112
▁నగ	-1113
▁ఆల	-1114
వో	-1115
తుందని	-1116
▁ఆది	-1117
▁నిర్మా	-1118
త్మ	-1119
▁రావు	-1120
▁పిల్ల	-1121
▁12	-1122
▁టా	-1123
▁అమె	-1124
క్టర్	-1125
పడ్డ	-1126
ినే	-1127
▁అంటూ	-1128
ంతరం	-1129
▁సిద్ధ	-1130
▁ఇతర	-1131
▁ప్లా	-1132
▁కాదు	-1133
▁సరి	-1134
వాల్	-1135
▁ఇద్ద	-1136
▁ప్రే	-1137
▁ఆరోగ	-1138
▁నేతలు	-1139
▁ఆర్థ	-1140
నుంది	-1141
▁విద్యార్థ	-1142
▁దగ్గ	-1143
▁రామ	-1144
టక	-1145
▁చర్యలు	-1146
ృష్ణ	-1147
▁రైతు	-1148
▁م	-1149
▁హీరో	-1150
వత్స	-1151
ాము	-1152
▁ారు	-1153
▁గెలి	-1154
▁ఆర్థిక	-1155
▁డబ్	-1156
న్నా	-1157
జెక్	-1158
▁ఏడాది	-1159
▁సంవత్స	-1160
▁మెంట్	-1161
▁అంటే	-1162
▁కౌ	-1163
య్	-1164
▁ార	-1165
▁చేపట్ట	-1166
▁ఇందు	-1167
యాలు	-1168
▁ఇదే	-1169
▁అభివృద్ధి	-1170
▁జరగ	-1171
▁ంద	-1172
▁అది	-1173
▁ట్	-1174
ంధీ	-1175
▁అందించ	-1176
▁కోట్లు	-1177
తారు	-1178
తాయి	-1179
▁ఆఫీ	-1180
▁దాని	-1181
ేశారు	-1182
శ్వ	-1183
▁ి	-1184
▁అలాగే	-1185
▁పర్య	-1186
ళన	-1187
▁పెంచ	-1188
వులు	-1189
వడంతో	-1190
డుగు	-1191
▁11	-1192
▁అమెరి	-1193
▁గుర్త	-1194
▁క్రమ	-1195
▁పరుగు	-1196
▁దాడి	-1197
▁నిలి	-1198
స్సు	-1199
ప్తంగా	-1200
▁లకు	-1201
లై	-1202
▁రోజుల	-1203
▁వార	-1204
ంతా	-1205
▁స్థాయి	-1206
పల్లి	-1207
ంతి	-1208
▁ఫోన్	-1209
▁పేర్కొన్నారు	-1210
్యంలో	-1211
ంలోకి	-1212
ల్డ్	-1213
స్ప	-1214
నించారు	-1215
▁వెళ్లి	-1216
యు	-1217
▁వెంక	-1218
▁అయిన	-1219
చు	-1220
▁ఇచ్చిన	-1221
▁గొ	-1222
▁డిమాండ్	-1223
కోవడం	-1224
▁తాజాగా	-1225
▁బాల	-1226
▁ప్రాజెక్	-1227
▁తెలియ	-1228
యాన్ని	-1229
▁డే	-1230
ెన్స్	-1231
ప్రదేశ్	-1232
ంజ	-1233
▁తెలిపింది	-1234
▁చెబుతున్నారు	-1235
▁రీ	-1236
▁పరిస్థితి	-1237
▁స్వ	-1238
▁దాదా	-1239
▁సొ	-1240
ల్లు	-1241
▁పడి	-1242
▁నేప	-1243
▁వచ్చి	-1244
న్సి	-1245
లర్	-1246
▁ఫ్యా	-1247
▁ట్రా	-1248
ప్ట	-1249
▁మేర	-1250
▁దాదాపు	-1251
ళ్లి	-1252
▁అమలు	-1253
▁సంబంధించిన	-1254
▁కార్యక్రమ	-1255
▁?	-1256
▁భక్	-1257
ూడ	-1258
ట్లో	-1259
▁గతంలో	-1260
▁గాంధీ	-1261
▁తగ్గ	-1262
▁చేరుకు	-1263
▁ఇటీ	-1264
కల్	-1265
▁గౌ	-1266
.1	-1267
▁బ్యాం	-1268
▁స్టార్	-1269
ందోళన	-1270
▁పడ	-1271
ేశ్	-1272
▁డబ్బు	-1273
▁మాట్లాడుతూ	-1274
▁గంటల	-1275
పడు	-1276
▁స్థాని	-1277
▁లె	-1278
▁థ	-1279
▁చై	-1280
▁భాగంగా	-1281
టే	-1282
▁మూవీ	-1283
▁వ్యవహ	-1284
▁పెరుగు	-1285
▁హామ	-1286
▁అమెరికా	-1287
దారు	-1288
▁ల్	-1289
▁అనేక	-1290
▁ఫలి	-1291
స్వా	-1292
▁కారణంగా	-1293
▁నేపథ	-1294
▁కనిపి	-1295
రీక్ష	-1296
లుగా	-1297
▁వైఎస్	-1298
▁చీ	-1299
▁నమోదు	-1300
▁ఆఫ్	-1301
▁అనంతరం	-1302
ాలతో	-1303
▁ప్రజా	-1304
▁వెంటనే	-1305
▁జరిగింది	-1306
కోవాలని	-1307
▁పథ	-1308
పక్ష	-1309
▁కొంత	-1310
▁విషయంలో	-1311
▁నిర్ణయం	-1312
సన	-1313
డర్	-1314
▁నిర్మ	-1315
▁ہ	-1316
▁సమీ	-1317
▁దగ్గర	-1318
▁వ్యాఖ్య	-1319
▁లేకుండా	-1320
ార్డు	-1321
క్ష్	-1322
▁లేద	-1323
▁ే	-1324
ద్ది	-1325
▁అంచ	-1326
ంధ్ర	-1327
కుడు	-1328
▁జారీ	-1329
▁పరీక్ష	-1330
న్నీ	-1331
▁అంశ	-1332
▁ఇందులో	-1333
▁తరువాత	-1334
వాల	-1335
రోజు	-1336
▁సర	-1337
▁వచ్చింది	-1338
▁రూపాయ	-1339
▁మాట్లాడ	-1340
▁వస్తు	-1341
▁మై	-1342
▁సింగ్	-1343
▁పాత్ర	-1344
▁కేసులో	-1345
▁పనిచే	-1346
▁అక్కడ	-1347
▁నేపథ్యంలో	-1348
▁కొంద	-1349
▁ం	-1350
▁ఆందోళన	-1351
క్షణ	-1352
లుపు	-1353
▁రాహు	-1354
గాలు	-1355
▁వివా	-1356
స్తామని	-1357
▁కేట	-1358
▁ఆశ	-1359
▁మళ్	-1360
▁ఎక్కువగా	-1361
▁ఫొ	-1362
▁ర్	-1363
ర్యాదు	-1364
పతి	-1365
▁దొ	-1366
▁కళ	-1367
▁జీవిత	-1368
▁రిక	-1369
▁ప్రి	-1370
ులకు	-1371
▁డె	-1372
▁్	-1373
▁డ్ర	-1374
▁కాగా	-1375
▁ఫిర్యాదు	-1376
క్షి	-1377
సేన	-1378
▁ప్రచారం	-1379
డని	-1380
▁తెలిసి	-1381
▁ఫొటో	-1382
▁యూని	-1383
▁ఇచ్చారు	-1384
▁జిల్లాలో	-1385
కొని	-1386
▁తల్లి	-1387
ాయ్	-1388
▁నేను	-1389
▁ఉదయం	-1390
▁నియ	-1391
▁చిత్ర	-1392
▁గుర్తు	-1393
▁లోక్	-1394
▁తయ	-1395
▁పెరి	-1396
▁చట్ట	-1397
▁హామీ	-1398
లువ	-1399
▁పైన	-1400
▁14	-1401
ర్చు	-1402
బాటు	-1403
▁డైర	-1404
an	-1405
▁రాహుల్	-1406
▁మొదటి	-1407
▁స్టేషన్	-1408
▁చూడ	-1409
▁ఎంత	-1410
కున్న	-1411
▁⁬	-1412
కాలు	-1413
▁ఖా	-1414
▁మార్పు	-1415
▁సౌ	-1416
శాఖ	-1417
▁మద్ద	-1418
పడి	-1419
టికి	-1420
ండగా	-1421
▁గ్రా	-1422
▁బాధ్య	-1423
▁కథ	-1424
▁బంగ	-1425
▁హాజ	-1426
నియర్	-1427
నాల	-1428
▁వైద్య	-1429
చర్	-1430
▁నాలుగు	-1431
▁త్వర	-1432
▁30	-1433
య్యారు	-1434
డో	-1435
▁తల	-1436
▁నిర్ణయ	-1437
కొచ్చ	-1438
▁న్యాయ	-1439
పడ్డారు	-1440
▁శ్రీని	-1441
▁క్రమంలో	-1442
▁ఆరోపణ	-1443
▁ల్లో	-1444
▁బల	-1445
▁పార్ల	-1446
▁సంఖ్య	-1447
▁మీడియాలో	-1448
రికి	-1449
▁సాయ	-1450
▁పోయ	-1451
▁క్రిక	-1452
▁మరింత	-1453
▁డాక్టర్	-1454
▁గి	-1455
▁కాలే	-1456
▁రెండో	-1457
▁శివ	-1458
యల్	-1459
▁జట్టు	-1460
వరణ	-1461
▁పంప	-1462
▁శ్రీనివా	-1463
▁చేస్తూ	-1464
ెస్టు	-1465
▁అభ్యర్థి	-1466
ంటీ	-1467
▁వ్యాప	-1468
రంగా	-1469
రువు	-1470
▁పాల్గొన్నారు	-1471
▁అందుకే	-1472
▁తెలంగాణలో	-1473
▁తెలుస్తోంది	-1474
నుగో	-1475
▁ఆంధ్ర	-1476
▁రాత్రి	-1477
నలు	-1478
▁ఉంటే	-1479
తిరే	-1480
▁చా	-1481
ధిక	-1482
▁వాతా	-1483
రెడ్డి	-1484
▁ఫ్	-1485
వారి	-1486
.5	-1487
గాల	-1488
▁18	-1489
▁వ్యతిరే	-1490
స్తా	-1491
▁కొనసాగు	-1492
న్ను	-1493
▁ప్రభుత్వా	-1494
▁మేరకు	-1495
ణాలు	-1496
▁మళ్లీ	-1497
▁కంటే	-1498
ఫి	-1499
▁ఇలాంటి	-1500
పేట	-1501
ట్స్	-1502
లోనే	-1503
▁ఎందుకు	-1504
▁ప్రజల	-1505
▁ఏం	-1506
▁క్ష	-1507
షనల్	-1508
▁కోల్	-1509
▁ఫై	-1510
ర్మన్	-1511
▁వస్తున్న	-1512
▁25	-1513
యిన్	-1514
పోయిన	-1515
▁హైకోర్టు	-1516
▁A	-1517
భి	-1518
▁అంది	-1519
▁ట్లు	-1520
▁వాహ	-1521
▁!	-1522
ళి	-1523
రాలు	-1524
▁కేటీఆర్	-1525
▁ఆరోపించారు	-1526
రంలో	-1527
▁తీర్	-1528
▁పైగా	-1529
20	-1530
▁చు	-1531
మారు	-1532
▁ంది	-1533
▁నాయకులు	-1534
న్నాయి	-1535
▁జనసేన	-1536
▁తిరిగి	-1537
టంతో	-1538
▁విమా	-1539
▁కలెక్టర్	-1540
మల	-1541
▁రిలీ	-1542
ించేందుకు	-1543
▁అరెస్ట్	-1544
▁బిల్	-1545
బి	-1546
టర్ల	-1547
▁వైరల్	-1548
బడి	-1549
కారు	-1550
▁నగర్	-1551
టల్	-1552
▁భర్	-1553
▁ఐదు	-1554
▁సిబ్బంది	-1555
వాడ	-1556
▁ప్రకటన	-1557
▁తెలిసిందే	-1558
▁జాతీయ	-1559
▁పంచ	-1560
▁అధ్యక్షుడు	-1561
రిక	-1562
వైపు	-1563
▁ఫు	-1564
విధ	-1565
▁మద్దతు	-1566
▁ఇటీవల	-1567
▁ప్రాజెక్టు	-1568
ారణ	-1569
▁స్త	-1570
▁సంగ	-1571
గానే	-1572
▁విన	-1573
ర్స్	-1574
▁ఆధార	-1575
ఎల్	-1576
స్టర్	-1577
ార్లు	-1578
▁కర్ణా	-1579
▁ప్రొ	-1580
▁వారిని	-1581
▁కర్ణాటక	-1582
త్వ	-1583
▁ఆలో	-1584
వ్యా	-1585
ందన్నారు	-1586
▁శని	-1587
▁వెల్లడించారు	-1588
ల్సిన	-1589
▁సోమ	-1590
▁నూ	-1591
▁కొనుగో	-1592
చిన	-1593
▁దృష్	-1594
▁కొందరు	-1595
یں	-1596
బుల్	-1597
▁స్టే	-1598
▁దో	-1599
టరీ	-1600
▁నిల	-1601
▁నింది	-1602
▁నీటి	-1603
▁విజయం	-1604
్యార	-1605
▁కాకుండా	-1606
▁13	-1607
▁కమిటీ	-1608
▁వీటి	-1609
ధు	-1610
ంతు	-1611
యిల్	-1612
▁శుక్ర	-1613
▁س	-1614
▁అక్కడి	-1615
▁తక్కువ	-1616
▁కారు	-1617
▁ఆస	-1618
▁ాల	-1619
▁పెళ్లి	-1620
▁పోలీస్	-1621
ారో	-1622
▁2024	-1623
▁ఎవర	-1624
▁అతి	-1625
▁వస్త	-1626
గంలో	-1627
▁తనకు	-1628
▁హత్య	-1629
ంప్	-1630
ముఖ	-1631
▁17	-1632
ధా	-1633
▁నమ్మ	-1634
▁భార్య	-1635
▁కిలో	-1636
▁రైల్	-1637
▁రోడ్డు	-1638
▁24	-1639
▁పర్	-1640
వన	-1641
▁గురు	-1642
▁అప్ప	-1643
▁బై	-1644
▁మంగళ	-1645
శారు	-1646
▁లైన్	-1647
▁ఇంకా	-1648
▁ఇద్దరు	-1649
కారం	-1650
▁ాయి	-1651
ಲ್	-1652
్యాల	-1653
▁మాట	-1654
▁ఏళ్ల	-1655
▁ఉద్యోగు	-1656
▁చేసుకున్న	-1657
▁అందుకు	-1658
వారు	-1659
ండర్	-1660
▁ఉత్	-1661
▁చోటు	-1662
▁పనులు	-1663
▁కోరారు	-1664
▁పక్క	-1665
▁16	-1666
▁చని	-1667
▁ఫా	-1668
▁ఆంధ్రప్రదేశ్	-1669
▁నిర	-1670
▁వెంకట	-1671
▁తీసుకున్న	-1672
▁షే	-1673
సీసీ	-1674
▁రాశి	-1675
▁200	-1676
▁ఉపయోగ	-1677
▁కేవ	-1678
▁బౌ	-1679
▁బెంగళ	-1680
క్కి	-1681
ంద్	-1682
▁జి	-1683
▁వేయ	-1684
▁అతని	-1685
▁ఆద	-1686
రేషన్	-1687
ారాయ	-1688
▁స్పందించ	-1689
ట్టిన	-1690
▁టికెట్	-1691
పడ	-1692
▁భావి	-1693
▁మర	-1694
▁కర	-1695
సరం	-1696
దాలు	-1697
▁సుప	-1698
▁మారింది	-1699
▁సాగు	-1700
▁కేవలం	-1701
▁బెంగళూరు	-1702
ందా	-1703
▁పరిధి	-1704
పోయింది	-1705
▁రాష్ట్రా	-1706
మై	-1707
▁హెచ్చ	-1708
▁జే	-1709
▁అభిమా	-1710
్యు	-1711
▁లతో	-1712
▁స్కూ	-1713
▁పాకి	-1714
▁మోడీ	-1715
▁దేశంలో	-1716
▁అడుగు	-1717
▁ఎక్స్	-1718
▁అందులో	-1719
▁ఆరోగ్య	-1720
▁ఉంచ	-1721
▁ాడు	-1722
▁ప్రాంతాల్లో	-1723
డిగా	-1724
కరణ	-1725
ండ్ల	-1726
ేందుకు	-1727
▁ఇంటర్	-1728
▁సూచించారు	-1729
ీర్	-1730
▁మొదల	-1731
▁پ	-1732
▁క్రి	-1733
▁ఎవరి	-1734
▁కూటమి	-1735
▁చేశాడు	-1736
మవు	-1737
▁లేక	-1738
▁ఏపీలో	-1739
▁మార్కెట్	-1740
ోర్	-1741
చుకు	-1742
▁పెట్టి	-1743
▁బ్	-1744
పోయారు	-1745
▁ఇక్కడ	-1746
▁నిర్వ	-1747
▁ప్రై	-1748
▁ముగి	-1749
▁అధికారంలోకి	-1750
థ్	-1751
▁కార్యకర్	-1752
▁మారు	-1753
▁సూర్	-1754
▁ఆగ	-1755
▁మృతి	-1756
▁అల	-1757
▁కేంద్రం	-1758
▁و	-1759
జయ్	-1760
చిత	-1761
ాలీ	-1762
.3	-1763
డింగ్	-1764
▁లేని	-1765
▁సంచ	-1766
▁వర్షాలు	-1767
జన	-1768
▁అవసరం	-1769
▁భద్ర	-1770
▁రైల్వే	-1771
నని	-1772
▁భూమి	-1773
▁కష్ట	-1774
ేశ్వ	-1775
▁రోడ్	-1776
▁వైపు	-1777
▁చెప్పు	-1778
▁అనుమ	-1779
▁మరోసారి	-1780
▁తాము	-1781
▁ప్రజలకు	-1782
▁పెట్టు	-1783
▁50	-1784
ఖా	-1785
్రీం	-1786
▁ఎంతో	-1787
యానికి	-1788
రాల	-1789
▁స్పష్టం	-1790
▁తమి	-1791
▁సీనియర్	-1792
▁ప్రవేశ	-1793
చ్చి	-1794
యూ	-1795
వె	-1796
క్రమా	-1797
▁లక్ష్	-1798
▁రిలీజ్	-1799
▁సంద	-1800
ామన్నారు	-1801
▁కొనుగోలు	-1802
ణు	-1803
▁ఆలోచ	-1804
▁పోరా	-1805
▁ఆసక్తి	-1806
జ్ర	-1807
▁యో	-1808
ెండ్	-1809
▁మండి	-1810
▁ఉంటాయి	-1811
▁చివరి	-1812
▁అవసర	-1813
▁వరు	-1814
లేదని	-1815
▁అంతే	-1816
▁తెర	-1817
గింది	-1818
కార్	-1819
▁చెల్ల	-1820
▁సేవ	-1821
▁అందుబాటు	-1822
సై	-1823
▁ప్లే	-1824
▁సమయం	-1825
یا	-1826
▁రావ	-1827
▁కాల్	-1828
▁2023	-1829
స్టి	-1830
▁తరల	-1831
ండ్రి	-1832
▁సామా	-1833
▁సొంత	-1834
▁ವ	-1835
▁ారని	-1836
▁మీరు	-1837
స్తాన్	-1838
వ్యాప్తంగా	-1839
డులు	-1840
▁తొల	-1841
తిని	-1842
రియా	-1843
▁రాజీ	-1844
▁ప్రకటించారు	-1845
పొ	-1846
ధులు	-1847
▁పాట	-1848
▁ప్రమాదం	-1849
ష్య	-1850
ర్ట్	-1851
▁వివిధ	-1852
▁సుప్రీం	-1853
ేమ	-1854
▁గంటలకు	-1855
▁ನ	-1856
▁స్వీ	-1857
▁వ్యవస్థ	-1858
▁గ్రూ	-1859
మ్స్	-1860
▁మరణ	-1861
▁కార్యాల	-1862
▁మరియు	-1863
▁పరుగులు	-1864
▁మైన	-1865
▁పోలింగ్	-1866
▁ఆహ	-1867
డుకు	-1868
▁వ్యాఖ్యలు	-1869
▁ఫీ	-1870
▁నాగ	-1871
▁బస్సు	-1872
▁తెలుసుకు	-1873
▁ఇంత	-1874
▁అడి	-1875
ప్పటికీ	-1876
▁లేకపో	-1877
▁లోకి	-1878
▁నరే	-1879
టర్లు	-1880
ర్ల	-1881
▁డైరెక్టర్	-1882
▁ముందుకు	-1883
ాలపై	-1884
నేందుకు	-1885
కోవాలి	-1886
▁గాయ	-1887
▁ఆత్మ	-1888
శే	-1889
▁వృ	-1890
▁వీరి	-1891
▁సర్వే	-1892
.2	-1893
▁పోస్టు	-1894
ద్యా	-1895
▁నిర్వహి	-1896
క్త	-1897
ప్తు	-1898
వరకు	-1899
▁ఇబ్బ	-1900
▁లాంటి	-1901
▁వేదిక	-1902
▁నిజ	-1903
▁ప్రముఖ	-1904
▁రోజుల్లో	-1905
వుల	-1906
కింగ్	-1907
▁జూన్	-1908
మయ్య	-1909
▁నిర్వహించారు	-1910
ర్ర	-1911
శాల	-1912
▁అప్పటి	-1913
ోత్స	-1914
బ్ర	-1915
▁అప్	-1916
▁ఇంట్లో	-1917
జిక	-1918
క్టో	-1919
▁ఫలిత	-1920
▁మండల	-1921
▁పూజ	-1922
▁కట్ట	-1923
▁జైలు	-1924
▁వాటిని	-1925
ల్లా	-1926
▁ప్రమాద	-1927
▁సంబంధించి	-1928
▁అనేది	-1929
▁శుక్రవారం	-1930
ండీ	-1931
బీసీ	-1932
▁ن	-1933
▁కృ	-1934
సెస్	-1935
డిని	-1936
▁పరిష్	-1937
▁క్రికెట్	-1938
▁రాయ	-1939
తన	-1940
వంత	-1941
▁బొ	-1942
▁చైర్మన్	-1943
▁ఎన్నికలు	-1944
▁ఇబ్బందు	-1945
▁బోర్	-1946
తిలో	-1947
▁వివరించారు	-1948
▁చేస్తే	-1949
▁బాధ	-1950
నె	-1951
▁R	-1952
ెట్టి	-1953
▁మరోవైపు	-1954
▁సోమవారం	-1955
▁శ్రీనివాస్	-1956
▁చేస్తు	-1957
▁పరిశీల	-1958
▁అభిప్ర	-1959
▁దీనికి	-1960
▁కార్యక్రమా	-1961
ళ్ళ	-1962
రులు	-1963
▁బాధి	-1964
ంగల్	-1965
ారాయణ	-1966
▁ఎవ	-1967
▁మాన	-1968
ంత్రం	-1969
▁దీనిపై	-1970
▁యాద	-1971
▁నివే	-1972
▁అందరి	-1973
▁చేసేందుకు	-1974
దో	-1975
▁బుధ	-1976
ారిటీ	-1977
▁ఇజ్ర	-1978
▁ముంబ	-1979
▁ఎన్న	-1980
ితా	-1981
▁శం	-1982
▁అధినే	-1983
▁జరిగే	-1984
▁ఉంటుందని	-1985
▁కనిపించ	-1986
పాల్	-1987
▁బాగా	-1988
సభ	-1989
్రియ	-1990
▁బయటకు	-1991
▁రిజర్	-1992
నింగ్	-1993
వుడ్	-1994
▁ఎయి	-1995
▁దృష్టి	-1996
గిరి	-1997
మాన్	-1998
హన్	-1999
▁టె	-2000
▁సెల	-2001
డుతున్న	-2002
▁కేసులు	-2003
ణీ	-2004
▁అండ్	-2005
▁ప్రశ్నించారు	-2006
▁ఆరు	-2007
వచ్చు	-2008
▁వస్తే	-2009
▁పాలన	-2010
▁సంక్ష	-2011
▁అప్పు	-2012
▁22	-2013
▁న్	-2014
▁పంట	-2015
ప్షన్	-2016
▁దర్యా	-2017
గ్రహం	-2018
▁దక్షి	-2019
మూ	-2020
▁పేరుతో	-2021
▁నమోద	-2022
▁చేయడానికి	-2023
▁మంత్ర	-2024
▁కృష్ణ	-2025
▁గే	-2026
▁లలో	-2027
ొచ్చు	-2028
▁అర్థ	-2029
▁ప్రతిపక్ష	-2030
ళీ	-2031
▁ఇజ్రాయ	-2032
▁బంగారం	-2033
▁బ్ర	-2034
నుక	-2035
టీసీ	-2036
▁ب	-2037
పాల	-2038
▁కమ	-2039
▁నేడు	-2040
▁తీసుకె	-2041
▁స్వామి	-2042
ెబ్బ	-2043
▁తమిళ	-2044
▁బాబు	-2045
పటి	-2046
పురం	-2047
▁చేరి	-2048
తల	-2049
▁అద	-2050
▁ఆదివారం	-2051
లియా	-2052
▁కవిత	-2053
▁ప్రస	-2054
▁చెన్న	-2055
▁దర్యాప్తు	-2056
▁వయ	-2057
▁బీసీ	-2058
▁విస్త	-2059
▁పేర్కొంది	-2060
▁ఒకే	-2061
▁శరీ	-2062
పం	-2063
నగర్	-2064
▁స్టా	-2065
▁సాయంత్రం	-2066
స్తున్నాయి	-2067
▁చేస	-2068
▁తప్పు	-2069
▁రద్దు	-2070
▁చీఫ్	-2071
▁రైతులు	-2072
న్సిప	-2073
▁వరద	-2074
▁ఆరోపణలు	-2075
▁అక్రమ	-2076
▁చేశారని	-2077
ండ్ర	-2078
▁తేదీన	-2079
దుపు	-2080
▁కల్యా	-2081
▁విలువ	-2082
▁ఎమ్మెల్సీ	-2083
▁ಸ	-2084
▁ఓటు	-2085
▁ఆట	-2086
▁ఓవర్	-2087
పించారు	-2088
▁వాతావరణ	-2089
▁మంగళవారం	-2090
కృష్ణ	-2091
▁బ్రి	-2092
ంస	-2093
▁సహాయ	-2094
▁సంజయ్	-2095
▁అభిమాను	-2096
▁ఏర్పా	-2097
రుపు	-2098
▁కేటాయ	-2099
వాళ	-2100
▁వరకూ	-2101
▁శనివారం	-2102
హ్మ	-2103
ట్టే	-2104
▁మండలం	-2105
▁అంచనా	-2106
▁అయ్యారు	-2107
లాండ్	-2108
▁అధినేత	-2109
ృష్ట	-2110
▁ఎల్	-2111
▁ఇజ్రాయెల్	-2112
▁మార్చి	-2113
జ్ఞ	-2114
▁మని	-2115
▁పోస్ట్	-2116
రావు	-2117
కరించ	-2118
▁పిటి	-2119
▁హు	-2120
▁ప్రయాణి	-2121
▁ఆప	-2122
▁ت	-2123
▁తది	-2124
▁పార్టీకి	-2125
▁జరుగుతున్న	-2126
▁దక్క	-2127
మిక	-2128
▁21	-2129
▁సహా	-2130
""	-2131
▁వస	-2132
▁వంద	-2133
▁వాళ్లు	-2134
▁ముగ్గు	-2135
▁చెప్పిన	-2136
▁నడు	-2137
▁డ్రై	-2138
▁రైలు	-2139
ప్పి	-2140
్యూటీ	-2141
వాల్సి	-2142
కిత్స	-2143
▁స్థానిక	-2144
▁శుభ	-2145
ారాన్ని	-2146
▁కార్యక్రమంలో	-2147
మ్మి	-2148
▁విశాఖ	-2149
▁సభ్యులు	-2150
రుగా	-2151
సిటీ	-2152
▁సిటీ	-2153
డికి	-2154
ంక	-2155
సుప	-2156
్రమ	-2157
త్వం	-2158
▁తగ్	-2159
దర్శి	-2160
▁లోనూ	-2161
▁పదవి	-2162
ితం	-2163
▁కళ్యా	-2164
▁పంపి	-2165
▁తయారు	-2166
▁టెక్	-2167
▁విద్యా	-2168
ప్తి	-2169
స్థాన్	-2170
▁అత్యంత	-2171
▁అయినా	-2172
▁ఎత్తు	-2173
▁విధంగా	-2174
్రిల్	-2175
▁భర్త	-2176
▁విదేశ	-2177
పడిన	-2178
▁పెట్టుకు	-2179
పుణ	-2180
▁నిజా	-2181
▁సమస్యలు	-2182
▁ಮ	-2183
ణంలో	-2184
రీస్	-2185
▁నివేదిక	-2186
▁చేస్తామని	-2187
▁సంతో	-2188
▁విమర్శించారు	-2189
చారు	-2190
▁బంధ	-2191
▁లోనే	-2192
▁రోజులు	-2193
స్వామి	-2194
పుడు	-2195
▁మహిళా	-2196
▁గురువారం	-2197
▁జరిగి	-2198
▁పల్లి	-2199
▁మందికి	-2200
▁నట	-2201
▁స్థాయిలో	-2202
మంది	-2203
▁నిమి	-2204
▁పార్లమెంట్	-2205
్యంగా	-2206
▁ఆసుప	-2207
▁ప్రాంతంలో	-2208
▁మాట్లాడారు	-2209
డ్జ	-2210
▁స్తు	-2211
▁విక్ర	-2212
▁ల్యా	-2213
సె	-2214
ర్మి	-2215
▁కప్	-2216
▁గవర్	-2217
▁మొదలు	-2218
▁భారీగా	-2219
▁నిరసన	-2220
▁సూపర్	-2221
▁చికిత్స	-2222
▁అంగ	-2223
▁సింగ	-2224
▁బిల్లు	-2225
▁పది	-2226
తులకు	-2227
మైంది	-2228
దేశం	-2229
▁కంట	-2230
▁యుద్ధ	-2231
▁కావడంతో	-2232
▁పార్టీలో	-2233
రంగ	-2234
రావ	-2235
▁ఐపీ	-2236
▁దశ	-2237
▁నామ	-2238
▁చైనా	-2239
▁కీ	-2240
ాలంటే	-2241
▁బీబీసీ	-2242
ందం	-2243
▁అరెస్టు	-2244
లన	-2245
▁ప్రేమ	-2246
▁గెలు	-2247
▁చేరు	-2248
▁భారతీయ	-2249
కార	-2250
▁అంతర్	-2251
▁అక్టో	-2252
▁ప్రైవే	-2253
▁భక్తులు	-2254
▁ట్యా	-2255
▁షి	-2256
▁చేసినట్లు	-2257
▁తీసుకో	-2258
▁దారు	-2259
▁సాధారణ	-2260
ట్రో	-2261
నియా	-2262
▁100	-2263
▁ఎదుర్కొ	-2264
గాయి	-2265
▁రాజ్	-2266
▁షర్మి	-2267
డమే	-2268
▁అడ్డు	-2269
▁నెలకొ	-2270
▁గ్రామా	-2271
▁ఆన్	-2272
▁కాపా	-2273
▁పర్యటన	-2274
ಲ್ಲ	-2275
ాబాద్	-2276
▁వరంగల్	-2277
▁నై	-2278
ులను	-2279
▁తమకు	-2280
▁పాఠ	-2281
▁ప్రభావం	-2282
▁0	-2283
▁వాళ్ల	-2284
డ్జెట్	-2285
ంక్	-2286
▁సమీప	-2287
▁డిస	-2288
తులను	-2289
▁ందుకు	-2290
▁ఎయిర్	-2291
ar	-2292
▁నరేంద్ర	-2293
▁ఎక్క	-2294
▁ఈసారి	-2295
▁దెబ్బ	-2296
▁మున్సిప	-2297
▁کے	-2298
▁د	-2299
ప్రిల్	-2300
▁ప్రకటించింది	-2301
▁వరుస	-2302
బట్టి	-2303
▁ఖర్చు	-2304
▁బుధవారం	-2305
▁వు	-2306
▁దాఖ	-2307
సన్	-2308
▁విద్యుత్	-2309
గ్రత్త	-2310
▁సెప్ట	-2311
ాలే	-2312
▁గ్	-2313
▁ఉపా	-2314
ొక	-2315
గతి	-2316
కెట్లు	-2317
▁ప్లాన్	-2318
▁చేయాలి	-2319
ఫిక	-2320
▁భావ	-2321
▁వరల్డ్	-2322
రాజ్	-2323
▁అడ్	-2324
▁నాకు	-2325
▁హక్కు	-2326
▁డిప	-2327
▁ಕ	-2328
▁తండ్రి	-2329
▁ముఖ్యంగా	-2330
లిం	-2331
▁క్వ	-2332
కోవడానికి	-2333
▁బే	-2334
టై	-2335
▁అసలు	-2336
స్ట్రే	-2337
▁ఎల	-2338
▁అయి	-2339
బీఐ	-2340
▁న్న	-2341
ప్పుడ	-2342
వాస	-2343
▁పర	-2344
▁ج	-2345
▁వినియోగ	-2346
▁ఇవ్వాలని	-2347
ద్దీ	-2348
▁వేడు	-2349
▁పిటిషన్	-2350
▁C	-2351
▁దర	-2352
▁పలువు	-2353
నామా	-2354
▁నటి	-2355
▁కార్మి	-2356
క్ట్	-2357
▁చరి	-2358
▁పదే	-2359
▁40	-2360
▁బహి	-2361
▁కళ్యాణ్	-2362
▁کی	-2363
దులు	-2364
▁ట్టు	-2365
▁వేగ	-2366
▁బెయిల్	-2367
▁కామెంట్	-2368
డవ	-2369
▁పౌ	-2370
ితంగా	-2371
▁జిల్లాల్లో	-2372
▁సుప్రీంకోర్టు	-2373
▁ఎంప	-2374
▁హాజర	-2375
▁తీర్పు	-2376
▁అంటున్నారు	-2377
▁జాగ్రత్త	-2378
▁మండిపడ్డారు	-2379
▁క్ల	-2380
▁తోపాటు	-2381
▁సిరీస్	-2382
▁రికార్డు	-2383
▁అవి	-2384
▁నోటీ	-2385
▁విమర్శలు	-2386
▁నష్ట	-2387
ఖాస్తు	-2388
▁తెచ్చ	-2389
ెడ	-2390
చూ	-2391
జూ	-2392
కులకు	-2393
యాల్లో	-2394
▁అలాంటి	-2395
పరి	-2396
▁వెళ్లే	-2397
▁ఎంపిక	-2398
సిడ	-2399
ళ్లకు	-2400
లిక	-2401
▁గ్రూప్	-2402
▁దరఖాస్తు	-2403
▁ఫే	-2404
ెన్సీ	-2405
▁ఆన	-2406
మ్మడి	-2407
ించాడు	-2408
ించడానికి	-2409
▁కామ	-2410
▁పూర్తిగా	-2411
▁S	-2412
▁మహా	-2413
చింది	-2414
▁ఖమ్మ	-2415
▁శక్తి	-2416
▁ధరలు	-2417
▁ఎదురు	-2418
▁బడ్జెట్	-2419
ౌన్	-2420
▁ఉన్నట్లు	-2421
ఠా	-2422
▁28	-2423
▁హింద	-2424
షే	-2425
హె	-2426
బితా	-2427
మిత్	-2428
▁విషయాన్ని	-2429
▁సమావేశం	-2430
▁ఏప్రిల్	-2431
▁స్థానంలో	-2432
▁ఇబ్బందులు	-2433
రస్	-2434
▁ఆడ	-2435
ంగి	-2436
ండ్లు	-2437
▁కోరు	-2438
▁ఫైన	-2439
▁ఇంటికి	-2440
▁میں	-2441
▁వేడుక	-2442
ధ్యా	-2443
▁ఇండ	-2444
▁పెం	-2445
▁బాధ్యత	-2446
గాల్లో	-2447
▁కొద్ది	-2448
లేక	-2449
▁2019	-2450
▁డబ్బులు	-2451
▁మహారా	-2452
గూడ	-2453
▁పట్టు	-2454
▁ప్యా	-2455
▁సెంటర్	-2456
▁గుండ	-2457
▁రాజు	-2458
▁ఈరోజు	-2459
▁అవకాశాలు	-2460
▁భయ	-2461
ృతి	-2462
▁చేసారు	-2463
రియ	-2464
▁ట్రై	-2465
ుకున్న	-2466
▁దిగ	-2467
▁ాం	-2468
▁P	-2469
ముల	-2470
లాల	-2471
పోయి	-2472
▁యాత్ర	-2473
▁మూడో	-2474
డత	-2475
ికా	-2476
▁వచ్చాయి	-2477
▁కురి	-2478
▁అధికారి	-2479
▁ఆక	-2480
▁విజయవాడ	-2481
కరి	-2482
▁లాభ	-2483
▁హరీ	-2484
▁సైతం	-2485
▁సెక	-2486
▁అనుమా	-2487
000	-2488
▁కనీ	-2489
▁ఒకటి	-2490
▁నుంచ	-2491
లియన్	-2492
▁తెలుసు	-2493
వంబర్	-2494
▁వివే	-2495
▁ఉండగా	-2496
▁చేసుకున్నారు	-2497
ంగ్స్	-2498
▁ఆయనకు	-2499
▁బృ	-2500
▁అదుపు	-2501
▁ముంబై	-2502
▁ప్రయోజ	-2503
▁23	-2504
▁లభ	-2505
▁చదు	-2506
య్యాయి	-2507
జె	-2508
▁వన్	-2509
ట్లను	-2510
▁స్పె	-2511
▁కన్	-2512
▁దీన్ని	-2513
టివ్	-2514
ధుల	-2515
▁పొత్తు	-2516
▁సమర్	-2517
▁సీపీ	-2518
▁ప్రేక్ష	-2519
ళ్లను	-2520
▁వాయి	-2521
▁రాజీనామా	-2522
▁కార్యదర్శి	-2523
▁T	-2524
▁ఫ్ర	-2525
▁రూపొ	-2526
▁ట్వీ	-2527
▁తిరుమల	-2528
▁పొంద	-2529
▁గణ	-2530
▁చేస్తారు	-2531
▁సమావేశంలో	-2532
▁కాబట్టి	-2533
▁చొ	-2534
నాడు	-2535
పెట్ట	-2536
ార్ట్	-2537
▁పలువురు	-2538
▁ఆస్ప	-2539
▁పార్టీల	-2540
యన్స్	-2541
▁అవినీ	-2542
తున్నారని	-2543
నంగా	-2544
▁ఎందు	-2545
▁కల్యాణ్	-2546
ష్ట్ర	-2547
▁కాలేజీ	-2548
▁గల	-2549
▁చరిత్ర	-2550
▁వ్యాప్తంగా	-2551
▁సిద్ద	-2552
▁ప్రచార	-2553
▁అనుకూ	-2554
▁సబ్	-2555
▁సంప్ర	-2556
▁పాకిస్తాన్	-2557
టువ	-2558
చ్చని	-2559
▁ఉచిత	-2560
▁నిరు	-2561
▁సంక్షేమ	-2562
హ్నం	-2563
▁నడి	-2564
▁ప్రసా	-2565
▁ఇవాళ	-2566
▁కార్పొ	-2567
▁ఐటీ	-2568
▁నీరు	-2569
▁ఉత్తర	-2570
కొండ	-2571
▁చేర	-2572
▁మద్య	-2573
టువంటి	-2574
దిరి	-2575
▁రోహి	-2576
▁ాన్ని	-2577
▁పార్టీలు	-2578
▁సంత	-2579
ళ్లలో	-2580
▁సామాజిక	-2581
▁27	-2582
▁మధ్యా	-2583
▁కాలంలో	-2584
▁లెక్క	-2585
▁ఉమ్మడి	-2586
▁విధాన	-2587
▁జాబితా	-2588
▁కనిప	-2589
▁నిమిష	-2590
▁షర్మిల	-2591
▁ఇబ్బంది	-2592
▁తీసుకున్నారు	-2593
ఖీ	-2594
ల్ని	-2595
టిఫిక	-2596
▁పారి	-2597
▁జనవరి	-2598
▁నిపుణ	-2599
▁అభిప్రాయ	-2600
▁ఇంగ్	-2601
▁సభలో	-2602
▁ఆస్ట్రే	-2603
▁రామ్	-2604
▁ఆసుపత్రి	-2605
▁స్పష్ట	-2606
▁పోలీసులకు	-2607
స్త్ర	-2608
▁ఎన్టీఆర్	-2609
▁గిరి	-2610
▁పండు	-2611
▁తీరు	-2612
▁ఇచ్చింది	-2613
▁/	-2614
▁26	-2615
▁బండి	-2616
▁విశ్వ	-2617
▁అద్	-2618
హెచ్	-2619
▁స్థి	-2620
.4	-2621
▁ఎగ్	-2622
స్తాయి	-2623
▁మనం	-2624
▁సీట్లు	-2625
ష్ణ	-2626
▁కొండ	-2627
▁కాదని	-2628
▁వర్షం	-2629
▁వ్యవస	-2630
ాప	-2631
▁ప్రయత్నం	-2632
▁చేయా	-2633
▁కారణం	-2634
▁గుర్తి	-2635
ానీ	-2636
▁సము	-2637
▁తీసుకొచ్చ	-2638
▁డిసెంబర్	-2639
లవ	-2640
▁1,	-2641
కంటే	-2642
లిన	-2643
ఫిక్	-2644
్వర్	-2645
▁అంబ	-2646
భవ	-2647
▁చూప	-2648
▁అక్టోబర్	-2649
▁ఎన్నో	-2650
▁భవి	-2651
▁మిగి	-2652
ంటుంది	-2653
▁అధికారిక	-2654
▁కలిగి	-2655
▁కెప్ట	-2656
▁వస్తుంది	-2657
▁యూనివర్	-2658
కేష్	-2659
▁గర్	-2660
ించినట్లు	-2661
▁ాయ	-2662
▁ఈడీ	-2663
▁సెప్టెంబర్	-2664
షనర్	-2665
▁నెలల	-2666
▁ఎక్కడ	-2667
▁నిబంధ	-2668
్యాన్ని	-2669
▁వది	-2670
▁గ్యా	-2671
▁పేద	-2672
▁లేఖ	-2673
ార్డ్	-2674
▁యాదవ్	-2675
in	-2676
ళం	-2677
ತ್	-2678
రణ్	-2679
▁రష	-2680
▁రహ	-2681
▁షో	-2682
ద్దేశ	-2683
▁తనను	-2684
▁సూర్య	-2685
▁పత్ర	-2686
్వర్యంలో	-2687
▁గుండె	-2688
▁విభా	-2689
▁ఖమ్మం	-2690
▁ట్వీట్	-2691
▁భవిష్య	-2692
▁నిర్వహించ	-2693
▁భే	-2694
▁సామ	-2695
▁రేపు	-2696
▁ఇచ్చి	-2697
ేశ్వర	-2698
▁పడ్డ	-2699
▁కమిషన్	-2700
▁తిరుపతి	-2701
▁క్యాప్షన్	-2702
రేట్	-2703
▁నర్	-2704
▁ఉత్ప	-2705
▁కస్ట	-2706
▁ప్రీ	-2707
▁వ్యూ	-2708
న్లు	-2709
ాలలో	-2710
▁సీబీఐ	-2711
▁అందుబాటులో	-2712
▁ఎవరు	-2713
ఖ్యా	-2714
ఫ్ట్	-2715
▁ధర్	-2716
▁ప్రో	-2717
▁జయ	-2718
▁అనుకు	-2719
▁తీవ్రంగా	-2720
▁ముగ్గురు	-2721
ఎఫ్	-2722
▁ఆడి	-2723
▁సర్వీ	-2724
▁చేస్తున్నారని	-2725
భు	-2726
ట్ర	-2727
▁అరు	-2728
▁మరికొ	-2729
▁ఆస్ట్రేలియా	-2730
al	-2731
టిల్	-2732
▁అల్	-2733
▁చాల	-2734
ినేషన్	-2735
▁ఉన్నా	-2736
▁సంతోష	-2737
రించారు	-2738
▁అవినీతి	-2739
▁నిర్వహించిన	-2740
ూరి	-2741
తుల్లో	-2742
ూర్తి	-2743
▁ఇక్క	-2744
ంశ	-2745
శ్ర	-2746
▁తెలిసింది	-2747
▁ఆధ్వర్యంలో	-2748
▁అమిత్	-2749
▁మహిళలు	-2750
▁ఆగస్టు	-2751
బె	-2752
▁కన	-2753
గ్రా	-2754
▁ఇంట	-2755
రవ	-2756
ంక్ష	-2757
▁నియమ	-2758
ించుకో	-2759
▁గవర్నర్	-2760
▁బ్యాంక్	-2761
▁స్పీ	-2762
▁హెచ్	-2763
▁సినిమాలో	-2764
▁ఎఫ్	-2765
▁సత్య	-2766
హత్య	-2767
▁‍	-2768
జాతీయ	-2769
▁ఆత్మహత్య	-2770
▁گ	-2771
▁తొలగ	-2772
▁వేసి	-2773
▁స్కా	-2774
నో	-2775
బూ	-2776
▁అడ	-2777
▁ఖాన్	-2778
▁తిన	-2779
▁బ్రా	-2780
▁వారం	-2781
▁ರ	-2782
▁ఒత్తి	-2783
▁ానికి	-2784
▁ప్రెస్	-2785
▁ر	-2786
▁పొందు	-2787
▁స్నే	-2788
▁చేస్తోంది	-2789
ంబా	-2790
రానికి	-2791
▁చేస్తుంది	-2792
▁ప్రభుత్వానికి	-2793
▁ఉండాలని	-2794
▁రైతులకు	-2795
▁క్రీ	-2796
▁మెడి	-2797
▁చేయాల	-2798
▁గుర్తించారు	-2799
▁షేర్	-2800
▁మద్యం	-2801
▁మధ్యాహ్నం	-2802
▁ఆమో	-2803
▁వెన	-2804
ములు	-2805
▁బ్లా	-2806
▁సంఘం	-2807
కుమార్	-2808
▁చదువు	-2809
ఖర్	-2810
▁వివరాలు	-2811
కౌ	-2812
ణంగా	-2813
▁చెన్నై	-2814
▁దుర్	-2815
ನ್	-2816
ల్చి	-2817
ంపల్లి	-2818
▁వెనుక	-2819
▁ప్పుడు	-2820
▁అంతర్జాతీయ	-2821
ఫర్	-2822
డంలో	-2823
ద్రా	-2824
▁సీజన్	-2825
▁హౌ	-2826
▁వ్యాపార	-2827
టెడ్	-2828
వల్ల	-2829
▁చార్	-2830
▁దాఖలు	-2831
▁విషయ	-2832
▁ఉన్నాయని	-2833
▁రాష్ట్రాల్లో	-2834
సింగ్	-2835
▁అందరూ	-2836
▁ఆగ్రహం	-2837
▁ప్రక్రియ	-2838
▁మహారాష్ట్ర	-2839
ور	-2840
▁రోహిత్	-2841
▁తీసుకోవాలని	-2842
▁ప్రతిని	-2843
తోందని	-2844
▁నవంబర్	-2845
చ్చారు	-2846
▁ఇచ్చే	-2847
▁ఉద్దేశ	-2848
శు	-2849
్రీన్	-2850
్యో	-2851
▁పట్ల	-2852
షణ	-2853
గ్య	-2854
▁బరి	-2855
▁మారి	-2856
▁రిపో	-2857
▁విరా	-2858
▁పెట్టారు	-2859
రింగ్	-2860
▁ట్వి	-2861
▁అత్యధిక	-2862
టన్	-2863
▁సుమారు	-2864
▁నివ	-2865
▁వాడ	-2866
సార్లు	-2867
వాసం	-2868
▁31	-2869
▁కురు	-2870
▁అనుమతి	-2871
▁జె	-2872
దండ్ర	-2873
▁వెల్లడించింది	-2874
▁సీఐ	-2875
▁ప్రె	-2876
▁బహిరంగ	-2877
తను	-2878
ించుకున్న	-2879
▁నిరా	-2880
యోగం	-2881
▁సీత	-2882
▁న్యూస్	-2883
గల	-2884
రాల్లో	-2885
రగా	-2886
▁అద్భు	-2887
▁తగ్గి	-2888
▁పూర్త	-2889
▁తల్లిదండ్ర	-2890
▁రుణ	-2891
▁అతను	-2892
▁క్యూ	-2893
ంహ	-2894
మ్ము	-2895
▁శర్మ	-2896
▁రావడం	-2897
▁వెబ్	-2898
హీ	-2899
▁జరుపు	-2900
ంగు	-2901
▁కరీ	-2902
▁వడ్	-2903
▁అర్హ	-2904
▁మెగా	-2905
▁ఎప్పుడ	-2906
▁వికెట్	-2907
▁దిశ	-2908
▁హాజరు	-2909
ించారని	-2910
▁ఆస్పత్రి	-2911
ంబర్	-2912
▁మెద	-2913
వేత్త	-2914
▁వెళ్లిన	-2915
ra	-2916
▁సెల్	-2917
ఫె	-2918
▁ఔ	-2919
ౌండ్	-2920
▁29	-2921
▁కోహ్	-2922
▁గమ	-2923
▁అంతేకా	-2924
▁I	-2925
పాద	-2926
ಲ್ಲಿ	-2927
▁కిలోమీ	-2928
ఎన్	-2929
▁కాన్	-2930
▁నిన్న	-2931
▁నేషనల్	-2932
గీ	-2933
▁B	-2934
ాను	-2935
గానికి	-2936
▁కొట్ట	-2937
▁పాఠశాల	-2938
▁ఆధారంగా	-2939
▁జిల్లాలోని	-2940
▁),	-2941
▁ఫోటో	-2942
▁వాదన	-2943
ణ్య	-2944
యంగా	-2945
▁ఆహ్	-2946
▁ہے	-2947
గొండ	-2948
▁చూసి	-2949
▁భేటీ	-2950
నాన్ని	-2951
▁రూపాయలు	-2952
▁భో	-2953
▁ఓడి	-2954
▁ఏడు	-2955
▁ఆలోచన	-2956
▁రైతుల	-2957
సిడెంట్	-2958
▁ఆదేశించారు	-2959
ంభ	-2960
ండే	-2961
ైల్	-2962
▁షూ	-2963
ధాని	-2964
▁లోకేష్	-2965
నిక	-2966
వాల్సిన	-2967
మర్	-2968
▁విజయ్	-2969
▁పంపిణీ	-2970
▁వ్యతిరేక	-2971
),	-2972
జం	-2973
▁గౌడ్	-2974
▁దిగు	-2975
▁నిద్ర	-2976
▁ప్రతీ	-2977
▁సంప్రద	-2978
▁వేదికగా	-2979
▁రష్యా	-2980
ున	-2981
▁భు	-2982
▁లేదన్నారు	-2983
▁విద్యార్థులు	-2984
▁లక్షలు	-2985
గత	-2986
▁ದ	-2987
గ్రీ	-2988
▁షాక్	-2989
▁గుర్తింపు	-2990
▁దేవ	-2991
▁సమాధ	-2992
▁କ	-2993
▁ಗ	-2994
ంపే	-2995
రుల	-2996
ండియా	-2997
▁సరైన	-2998
▁ఏర్పాట్లు	-2999
ار	-3000
▁సాయి	-3001
▁య్య	-3002
షియల్	-3003
▁హ్యా	-3004
లిక్	-3005
▁ఆర్టీసీ	-3006
వల్	-3007
▁చౌ	-3008
▁పోష	-3009
ంనగర్	-3010
▁ఫ్యాన్స్	-3011
▁సంవత్సరం	-3012
డప	-3013
▁రవి	-3014
▁క్రితం	-3015
▁వేశారు	-3016
వేషన్	-3017
▁టార్	-3018
▁హాస్	-3019
▁కల్పించ	-3020
▁కెప్టెన్	-3021
▁ట్రాఫిక్	-3022
రుగ	-3023
ెక్ట్	-3024
▁నుంచే	-3025
▁అవార్డు	-3026
▁ుకు	-3027
▁రాష్ట్రం	-3028
▁కృషి	-3029
▁రూపాయల	-3030
▁స్కూల్	-3031
ంగ్లా	-3032
▁దేశం	-3033
▁ఆఫీసర్	-3034
▁నిందితు	-3035
ోధ	-3036
ಡಿ	-3037
▁సినీ	-3038
▁మార్పులు	-3039
తిక	-3040
▁తరలి	-3041
▁బంగ్లా	-3042
▁మంత్రులు	-3043
స్తో	-3044
▁మంట	-3045
▁శ్రే	-3046
ద్రి	-3047
▁జన్	-3048
▁సర్కార్	-3049
▁చెప్పింది	-3050
లింది	-3051
▁2022	-3052
▁సారి	-3053
▁కుమారు	-3054
ెక్ట	-3055
▁పాయి	-3056
▁ప్రశ్న	-3057
▁ప్రయత్ని	-3058
ేష్	-3059
కులను	-3060
▁ఫుడ్	-3061
▁తిరుగు	-3062
పర	-3063
▁ఐపీఎల్	-3064
▁వచ్చారు	-3065
ుడి	-3066
నాలను	-3067
▁పిల్లలు	-3068
ట్నం	-3069
▁అయింది	-3070
▁ఎమ్మెల్యేలు	-3071
షా	-3072
ించాలి	-3073
పులు	-3074
▁కూడిన	-3075
▁బోర్డు	-3076
▁తీసుకుంట	-3077
▁M	-3078
ించా	-3079
ంచు	-3080
▁ఆహ్వా	-3081
స్తుందని	-3082
▁ందని	-3083
▁వయసు	-3084
▁కనీసం	-3085
▁కరీంనగర్	-3086
▁ప్రారంభించారు	-3087
సార్	-3088
తరులు	-3089
▁అంశం	-3090
▁అప్ర	-3091
▁ఉండాలి	-3092
▁దక్షిణ	-3093
ద్యో	-3094
▁అగ్ర	-3095
▁ప్పటి	-3096
▁వ్యాఖ్యా	-3097
ంచ్	-3098
▁సంఘటన	-3099
▁కొడుకు	-3100
▁కుల	-3101
తాయని	-3102
▁ఎవరూ	-3103
▁ಪ	-3104
▁హను	-3105
▁ఉద్యమ	-3106
▁అదన	-3107
▁గూ	-3108
ొక్క	-3109
▁గుజ	-3110
▁ప్రదర్శ	-3111
▁బ్యాంకు	-3112
▁ఇవి	-3113
▁వీర	-3114
▁రాలే	-3115
బ్రవరి	-3116
▁సంగతి	-3117
▁స్క	-3118
▁కావడం	-3119
▁సముద్ర	-3120
▁అయ్యింది	-3121
ండు	-3122
గులు	-3123
శ్చి	-3124
▁మంజ	-3125
▁జడ్	-3126
కేషన్	-3127
▁ఒక్కో	-3128
▁దానికి	-3129
▁నాయుడు	-3130
▁కూతు	-3131
▁సీటు	-3132
▁మల్ల	-3133
స్తులు	-3134
కోవచ్చు	-3135
▁భారతదేశ	-3136
ధీ	-3137
▁కాలం	-3138
సారిగా	-3139
▁నీళ్లు	-3140
▁యూనివర్సిటీ	-3141
▁అట	-3142
▁ఓటమి	-3143
▁విశ్	-3144
నున్నాయి	-3145
హాలు	-3146
▁ఖాళీ	-3147
▁అవుతుంది	-3148
▁వ్యతిరేకంగా	-3149
▁మౌ	-3150
▁ముందే	-3151
▁నియోజకవర్గం	-3152
▁తని	-3153
▁వేళ	-3154
▁అంతా	-3155
▁పుష్	-3156
▁ఫార్	-3157
▁సాయం	-3158
వాన్ని	-3159
▁అర్థం	-3160
▁పాత	-3161
▁ఒప్ప	-3162
▁సృష్ట	-3163
▁దాన్ని	-3164
కరించారు	-3165
హన	-3166
▁చెంద	-3167
పడింది	-3168
ారానికి	-3169
▁ఇరు	-3170
▁చాలామ	-3171
బోయే	-3172
▁శిక్ష	-3173
▁సల	-3174
▁బాగు	-3175
▁ఆదాయం	-3176
▁ఉత్తర్	-3177
▁వాయిదా	-3178
▁ప్రారంభం	-3179
▁మున్సిపల్	-3180
▁పేపర్	-3181
▁కొనసాగ	-3182
▁ంట	-3183
జున్	-3184
▁మేం	-3185
ట్లకు	-3186
▁కోహ్లీ	-3187
▁పరిధిలో	-3188
ెడ్యూ	-3189
▁నలుగు	-3190
▁పరిశోధ	-3191
▁నియోజకవర్గంలో	-3192
▁బంధు	-3193
ట్టింది	-3194
▁కామెంట్స్	-3195
ان	-3196
▁ఇష్ట	-3197
▁కాంట	-3198
▁ామని	-3199
▁చూసిన	-3200
▁ప్రశా	-3201
▁కార్డు	-3202
▁గురి	-3203
▁త్రి	-3204
▁చాలామంది	-3205
ంగం	-3206
▁గుజరా	-3207
▁తరలించారు	-3208
ಂದ	-3209
▁60	-3210
▁టో	-3211
▁మిగ	-3212
▁చెప్	-3213
▁సార్లు	-3214
▁ఫిబ్రవరి	-3215
.7	-3216
ందనే	-3217
నంలో	-3218
▁లోప	-3219
ద్దని	-3220
▁కుటుంబం	-3221
▁రాజధాని	-3222
వ్యూ	-3223
ನು	-3224
▁దళ	-3225
ల్లం	-3226
▁ముఖ	-3227
ారావు	-3228
▁నష్టం	-3229
▁ప్రాణ	-3230
▁సెక్ర	-3231
▁పట్టుకు	-3232
▁కాని	-3233
▁హాస్పి	-3234
▁ఆయా	-3235
▁చూపి	-3236
▁ఓట్లు	-3237
▁ప్రజలను	-3238
గ్స్	-3239
▁యాక్	-3240
▁పార్లమె	-3241
▁కార్యకర్తలు	-3242
ర్చి	-3243
▁హెల్	-3244
▁విద్యార్థి	-3245
.6	-3246
వాలు	-3247
▁పండుగ	-3248
▁త్వరలో	-3249
స్తున్నట్లు	-3250
దైనా	-3251
▁గాలి	-3252
ెంట్లు	-3253
▁ఇన్ని	-3254
▁కిషన్	-3255
కిల్	-3256
▁శాంతి	-3257
▁ప్రయత్నాలు	-3258
థి	-3259
▁ఖాతా	-3260
▁దాడులు	-3261
▁లబ్	-3262
ణానికి	-3263
▁నిధులు	-3264
▁పెట్టిన	-3265
▁చ్	-3266
క్కర్	-3267
▁ఆహార	-3268
▁చోట్ల	-3269
▁వేసిన	-3270
▁షెడ్యూ	-3271
▁కమిషనర్	-3272
▁నిర్మాణ	-3273
▁నిపుణులు	-3274
వ్వు	-3275
దావరి	-3276
శ్చ	-3277
▁డిప్యూటీ	-3278
▁విభ	-3279
సరి	-3280
త్యా	-3281
▁మహబూ	-3282
య్యి	-3283
▁వేలు	-3284
ెట్ల	-3285
▁ఇంజ	-3286
▁ఎకర	-3287
▁పడే	-3288
▁టీమ్	-3289
▁బ్యాటింగ్	-3290
ఫ్ర	-3291
▁బ్లాక్	-3292
▁నిరుద్యో	-3293
ట్రి	-3294
▁మనో	-3295
▁ముస్	-3296
▁అమరావ	-3297
పడే	-3298
బరు	-3299
ట్యూ	-3300
▁పథకం	-3301
▁రకాల	-3302
▁ఫస్ట్	-3303
▁పెరిగి	-3304
▁వ్యవసాయ	-3305
▁తీసుకుని	-3306
▁అల్లు	-3307
▁తనిఖీ	-3308
▁నారాయణ	-3309
▁రాజ్యా	-3310
▁ର	-3311
▁జు	-3312
▁అధి	-3313
▁పున	-3314
▁ఒకరు	-3315
▁పిలుపు	-3316
▁చేపట్టారు	-3317
స్తున్నారని	-3318
▁..!	-3319
▁అగ్	-3320
ధాన్య	-3321
▁గ్రే	-3322
▁రిజి	-3323
▁కొత్తగా	-3324
▁వారిలో	-3325
▁స్వాధీ	-3326
▁ఆదేశాలు	-3327
పోయా	-3328
▁చిత్రం	-3329
▁పరిగ	-3330
▁గుజరాత్	-3331
▁ఎన్నికలకు	-3332
▁చేసుకుంది	-3333
లక్ష	-3334
▁రూపొందించ	-3335
▁మెజ	-3336
▁లక్ష్మీ	-3337
▁ఢ	-3338
ైన్	-3339
▁నిర్వహణ	-3340
▁అభ్యర్థులు	-3341
▁వసూ	-3342
▁తేడా	-3343
▁త్వరలోనే	-3344
▁ప్రైవేట్	-3345
th	-3346
▁వల	-3347
తమైన	-3348
▁పశ్చి	-3349
▁ఉంటారు	-3350
▁స్పెషల్	-3351
▁చేపట్టిన	-3352
▁ఏమి	-3353
▁పెరగ	-3354
▁చేసుకో	-3355
▁డిగ్రీ	-3356
▁పరుగుల	-3357
▁ఎందుకంటే	-3358
▁శ్రీవారి	-3359
▁భవ	-3360
▁ముంద	-3361
▁పర్యా	-3362
▁స్వాధీనం	-3363
ెక్స్	-3364
▁ఇస్త	-3365
▁గుడ్	-3366
▁టార్గ	-3367
▁ప్రమాణ	-3368
▁టే	-3369
తికి	-3370
ెయిన్	-3371
▁స్కో	-3372
డ్డా	-3373
▁ఆసి	-3374
▁కూడ	-3375
▁రాశ	-3376
▁సోద	-3377
▁యాప్	-3378
▁జర్	-3379
హాన్ని	-3380
▁థి	-3381
న్యూ	-3382
▁నేతల	-3383
దారులు	-3384
▁రిజర్వేషన్	-3385
ట్టర్	-3386
▁వాడు	-3387
▁ఇండియన్	-3388
▁ప్రస్తుత	-3389
సర్లు	-3390
▁కన్న	-3391
▁టీమి	-3392
▁సన్	-3393
▁కౌన్సి	-3394
▁శాస్త్ర	-3395
▁టీమిండియా	-3396
▁اس	-3397
▁ారా	-3398
ాలిటీ	-3399
▁పెంచు	-3400
▁పడింది	-3401
▁టార్గెట్	-3402
▁నిర్మాణం	-3403
▁అభిమానులు	-3404
▁నామినేషన్	-3405
▁ی	-3406
▁ಿ	-3407
▁రాష్ట్రాల	-3408
▁సుర	-3409
▁నాటికి	-3410
▁ప్రాధాన్య	-3411
▁సద	-3412
గ్గా	-3413
▁టెస్టు	-3414
▁సంఖ్యలో	-3415
▁కేజ	-3416
▁వెళ	-3417
▁కుటుంబా	-3418
▁బాధ్యతలు	-3419
▁న్యూఢిల్లీ	-3420
య్యా	-3421
ెత్త	-3422
▁సాం	-3423
▁తమిళనాడు	-3424
▁ఇప్పటివరకు	-3425
▁మృత	-3426
▁సంచలన	-3427
▁డ్రైవర్	-3428
య్యే	-3429
స్వామ	-3430
▁2014	-3431
తె	-3432
▁ఉండి	-3433
▁తగిన	-3434
▁ొ	-3435
త్మక	-3436
▁అయో	-3437
▁అదుపులోకి	-3438
▁ಹ	-3439
స్క	-3440
▁2,	-3441
▁ఏజ	-3442
జీవి	-3443
▁గడు	-3444
▁రాజే	-3445
▁స్తున్న	-3446
▁గ్రామంలో	-3447
▁వన	-3448
▁దొంగ	-3449
పూ	-3450
ಾರ	-3451
యిన	-3452
త్రం	-3453
డెన్	-3454
ెస్ట	-3455
▁కళా	-3456
యాత్ర	-3457
▁విగ్ర	-3458
▁N	-3459
▁జనా	-3460
▁ఏదైనా	-3461
▁చుట్ట	-3462
▁డం	-3463
▁రచ	-3464
త్తా	-3465
▁ఆల్	-3466
▁ఫర్	-3467
▁భద్రత	-3468
ాలీవుడ్	-3469
▁నర	-3470
ారులు	-3471
▁కుంట	-3472
▁నోటీసులు	-3473
ష్ణో	-3474
▁కాక	-3475
▁పాద	-3476
▁ఫలితాలు	-3477
▁ఎక	-3478
▁ఏక	-3479
నాథ్	-3480
▁ఆటగా	-3481
▁సెంట	-3482
▁అమ్మాయి	-3483
▁ప్రస్తా	-3484
▁టాప్	-3485
▁రావడంతో	-3486
స్ట్రీ	-3487
▁క్యార	-3488
▁కేజ్రీ	-3489
▁35	-3490
▁చిరం	-3491
▁పురు	-3492
▁రక్త	-3493
▁కోరుకు	-3494
▁పశ్చిమ	-3495
పడుతుంది	-3496
▁ఉన్నారని	-3497
▁ل	-3498
▁పంజా	-3499
▁మరొక	-3500
పున	-3501
▁రఘ	-3502
▁హోం	-3503
▁పవర్	-3504
▁హిందూ	-3505
నిఫ	-3506
▁అంగీ	-3507
er	-3508
▁తగ్గు	-3509
▁మెడికల్	-3510
▁అధికారుల	-3511
▁కేజ్రీవాల్	-3512
▁చెక్	-3513
▁వినిపి	-3514
▁బీజేపీకి	-3515
▁చెప్పుకొచ్చ	-3516
న్నాడు	-3517
▁చట్టం	-3518
▁డానికి	-3519
▁రంగా	-3520
▁మోహన్	-3521
▁స్పందించారు	-3522
వని	-3523
శేష	-3524
వార్	-3525
▁ఆలయ	-3526
▁దిన	-3527
▁చెయ్య	-3528
▁తదితరులు	-3529
ిల్స్	-3530
▁కల్ప	-3531
▁డెవల	-3532
▁చిరంజీవి	-3533
▁మందు	-3534
▁మృతదే	-3535
▁నేరుగా	-3536
▁ందన్నారు	-3537
వాహ	-3538
▁రక్షణ	-3539
▁హీరోయిన్	-3540
కూడ	-3541
▁కఠ	-3542
ులతో	-3543
కర్స్	-3544
▁తెలుగుదేశం	-3545
on	-3546
یک	-3547
▁(1	-3548
మాబాద్	-3549
▁టెస్ట్	-3550
▁పోలీసుల	-3551
▁వేసింది	-3552
▁వార్త	-3553
రవే	-3554
ంచరీ	-3555
న్నే	-3556
▁దారి	-3557
▁పెరిగింది	-3558
▁అప్పగ	-3559
▁దూరంగా	-3560
▁సంబంధం	-3561
జ్జ	-3562
హార్	-3563
హించ	-3564
▁ఛార్	-3565
▁సీట్ల	-3566
▁ాను	-3567
▁దాంతో	-3568
▁ఒత్తిడి	-3569
ులై	-3570
▁బది	-3571
యేషన్	-3572
▁అవగా	-3573
▁గొప్ప	-3574
▁సందర్శ	-3575
▁దేశవ్యాప్తంగా	-3576
▁పరిశ్రమ	-3577
▁స్తుంది	-3578
▁ఆటో	-3579
చ్చితంగా	-3580
▁ಯ	-3581
మీర్	-3582
▁కేర	-3583
▁విడి	-3584
▁నల్ల	-3585
▁నాటి	-3586
▁పెడు	-3587
▁చెప్పి	-3588
▁నగర	-3589
▁ప్పటికీ	-3590
▁భి	-3591
ంకర్	-3592
▁మన్	-3593
కరమైన	-3594
▁కెమె	-3595
▁రిటై	-3596
▁నిబంధన	-3597
▁లపై	-3598
▁లభి	-3599
▁సురే	-3600
▁మహిళల	-3601
▁ସ	-3602
▁అప	-3603
▁నాడు	-3604
▁లక్ష్యంగా	-3605
▁کو	-3606
▁బూ	-3607
▁ధర్మ	-3608
ల్లోకి	-3609
▁అగ్ని	-3610
▁పర్యట	-3611
▁ఉండటంతో	-3612
▁మిగిలిన	-3613
రించ	-3614
▁నెట్	-3615
▁అప్పుడు	-3616
▁చేయడంతో	-3617
▁ముస్లిం	-3618
▁సంవత్సరాల	-3619
స్క్	-3620
▁199	-3621
▁టీటీ	-3622
▁తోనే	-3623
▁వెళ్లారు	-3624
▁తీసుకెళ్ల	-3625
ఎంసీ	-3626
ారనే	-3627
▁ఏసీ	-3628
పోయాయి	-3629
▁బరువు	-3630
ائ	-3631
డితే	-3632
▁కేరళ	-3633
▁సౌకర్	-3634
ళిక	-3635
▁మధు	-3636
▁సికి	-3637
▁అనారో	-3638
▁నెలలో	-3639
▁మంజూరు	-3640
▁సెంచరీ	-3641
కునే	-3642
▁కపో	-3643
▁పొడి	-3644
▁మిగతా	-3645
▁వికెట్లు	-3646
▁కరో	-3647
▁విప	-3648
▁జనరల్	-3649
▁తెల్ల	-3650
▁అధికారులకు	-3651
ాయు	-3652
▁మేనే	-3653
▁బదిలీ	-3654
▁డు	-3655
లాది	-3656
▁నారా	-3657
ండటంతో	-3658
▁షెడ్యూల్	-3659
▁ఓడ	-3660
▁అటు	-3661
▁కఠిన	-3662
▁సిద్ధం	-3663
▁s	-3664
చ్ఛ	-3665
▁అర్జున్	-3666
▁ఢిల్లీలో	-3667
లికి	-3668
▁సచి	-3669
▁అంతకు	-3670
▁నంబర్	-3671
▁న్యాయం	-3672
స్ట్ర	-3673
▁చక్క	-3674
▁నాయక	-3675
▁స్టూడ	-3676
▁45	-3677
కపోతే	-3678
▁జస్టి	-3679
▁గోదావరి	-3680
దైన	-3681
ధర్	-3682
▁పురుష	-3683
▁సంస్థలు	-3684
▁కొంతమంది	-3685
▁జరుగుతోంది	-3686
▁కను	-3687
▁సార	-3688
▁చూపు	-3689
▁మార్చ	-3690
▁ో	-3691
మత్త	-3692
▁ధ్వ	-3693
▁మల్	-3694
▁మోసం	-3695
▁ఎన్డీ	-3696
కాలం	-3697
స్టే	-3698
న్సర్	-3699
▁కాస్త	-3700
ాలన్నారు	-3701
▁ప్రెసిడెంట్	-3702
కలు	-3703
రాజు	-3704
▁నటు	-3705
శేఖర్	-3706
▁రాజ్య	-3707
▁కోవ	-3708
▁గడి	-3709
▁కలిపి	-3710
▁వేగంగా	-3711
▁చేయనున్నారు	-3712
▁సాధ్య	-3713
▁కనిపిస్తోంది	-3714
▁ఎదుర	-3715
▁అప్రమత్త	-3716
▁నల్	-3717
▁డేటా	-3718
▁చెరువు	-3719
▁జులై	-3720
▁పరిస్థితులు	-3721
డ్స్	-3722
▁డ్రా	-3723
▁వన్డే	-3724
ఫ్రికా	-3725
▁అవగాహన	-3726
▁ముందుగా	-3727
▁సికింద్ర	-3728
▁అధికారులను	-3729
▁జరుగుతుంది	-3730
▁ధీ	-3731
ాలనే	-3732
▁డాల	-3733
▁ఎస్సీ	-3734
▁ఆరోగ్యం	-3735
▁ఆమెను	-3736
▁పక్కన	-3737
సో	-3738
రిని	-3739
▁గొడవ	-3740
▁సునీ	-3741
▁చెల్లి	-3742
▁రోజులుగా	-3743
▁కార్యక్రమం	-3744
▁సరఫ	-3745
▁జ్యో	-3746
▁అధ్యయ	-3747
▁రోజున	-3748
▁వ్యవహార	-3749
▁ప్రభుత్వాన్ని	-3750
▁చిరు	-3751
▁మేము	-3752
▁ప్రసాద్	-3753
▁సికింద్రాబాద్	-3754
కల	-3755
ెండా	-3756
▁ಬ	-3757
▁پر	-3758
▁ఆవి	-3759
▁స్టో	-3760
▁గెలుపు	-3761
▁ప్రొఫె	-3762
ించుకున్నారు	-3763
▁మీటింగ్	-3764
▁రమ	-3765
జెపి	-3766
▁హోదా	-3767
▁భద్రా	-3768
▁స్నేహి	-3769
▁G	-3770
నున్నట్లు	-3771
▁కేంద్రంలో	-3772
▁కిలోమీటర్ల	-3773
▁ఏకంగా	-3774
▁టీటీడీ	-3775
▁వివేక్	-3776
వింద్	-3777
▁థియే	-3778
▁యువత	-3779
▁విజ్ఞ	-3780
▁సెక్షన్	-3781
▁ప్రకటించిన	-3782
▁జ్	-3783
ందన్న	-3784
దారుల	-3785
▁జరిప	-3786
▁మీకు	-3787
▁ర్యా	-3788
ళ్లుగా	-3789
▁కాంట్రా	-3790
▁ప్రత్యేకంగా	-3791
▁స్థలా	-3792
▁కేటాయి	-3793
▁రాష్ట్రంలోని	-3794
▁చేస్తున్నట్లు	-3795
್ರ	-3796
▁ఎంట	-3797
▁సమ్మ	-3798
▁ఫైనల్	-3799
▁వస్తుందని	-3800
▁నిజామాబాద్	-3801
ల్యూ	-3802
ర్యాల	-3803
▁కోరి	-3804
▁ాయని	-3805
▁లీడర్	-3806
యాల	-3807
▁బ్రే	-3808
ెన్షన్	-3809
▁వర్క్	-3810
▁చేసుకుని	-3811
▁ప్రాజెక్ట్	-3812
▁ఎండ	-3813
▁చేసినా	-3814
ತ್ತ	-3815
▁ఎలక్	-3816
▁ఎప్పుడూ	-3817
ఘా	-3818
యాన్	-3819
ార్టీ	-3820
▁హౌస్	-3821
టానికి	-3822
▁వాస్త	-3823
▁పిల్లల	-3824
▁బిజెపి	-3825
▁దని	-3826
▁పబ్	-3827
▁సక్	-3828
▁ఎర్ర	-3829
▁స్కీ	-3830
▁ఉండటం	-3831
▁ఉష్ణో	-3832
▁అయోధ్య	-3833
▁ఉష్ణోగ్ర	-3834
▁స్థానికులు	-3835
▁ఏఐ	-3836
ెక్కి	-3837
ంక్షలు	-3838
▁తయారీ	-3839
▁వీటిని	-3840
▁కావాలని	-3841
ಾಗ	-3842
మిలీ	-3843
▁దేశాల	-3844
▁బిడ్డ	-3845
▁హరీశ్	-3846
▁ప్రయత్నించ	-3847
.8	-3848
టికల్	-3849
ాన్యం	-3850
▁ఎస్పీ	-3851
▁ఎత్తున	-3852
▁వేర్	-3853
▁దర్శకుడు	-3854
▁పరిధిలోని	-3855
▁హెచ్చరించారు	-3856
సిక	-3857
▁తరఫ	-3858
▁వాతావర	-3859
▁అధికారం	-3860
▁అవసరమైన	-3861
,000	-3862
▁నిర్మి	-3863
టిఫికేషన్	-3864
▁కార్యకర్త	-3865
▁బంగ్లాదేశ్	-3866
▁సీసీ	-3867
▁పద్	-3868
▁విశేష	-3869
హారం	-3870
▁అకౌ	-3871
▁ఒడి	-3872
▁లిక్కర్	-3873
▁ఢీ	-3874
ాయతీ	-3875
▁స్పీకర్	-3876
▁బర్	-3877
▁భాష	-3878
▁ఆశ్ర	-3879
▁క్లా	-3880
▁రంగు	-3881
▁కుట్ర	-3882
▁చేయగా	-3883
▁తొమ్మి	-3884
▁వ్యాఖ్యానించారు	-3885
ధం	-3886
వ్య	-3887
▁ఫె	-3888
▁భీ	-3889
రాన్	-3890
▁పరిచ	-3891
▁బాలిక	-3892
▁హాస్పిటల్	-3893
రత్	-3894
▁సరఫరా	-3895
▁జస్టిస్	-3896
▁2018	-3897
నానికి	-3898
▁సినిమ	-3899
▁వరుసగా	-3900
▁అయ్యాయి	-3901
వేదన	-3902
▁మెట్రో	-3903
▁అందరికీ	-3904
▁డ్రగ్స్	-3905
▁రానున్న	-3906
▁రాజకీయాల్లో	-3907
▁70	-3908
▁అనుభ	-3909
▁ఫ్రా	-3910
▁మేకర్స్	-3911
▁పార్లమెంటు	-3912
ంపులు	-3913
కాంత్	-3914
▁గ్యార	-3915
▁సమీక్ష	-3916
▁ఉత్పత్తి	-3917
▁స్థానాల్లో	-3918
▁نے	-3919
▁کر	-3920
▁సైట్	-3921
▁తిరుమ	-3922
▁విలువైన	-3923
▁ఘన	-3924
రాశి	-3925
ప్పున	-3926
▁మెరుగు	-3927
▁చొప్పున	-3928
▁టెక్నాల	-3929
▁భావిస్తున్నారు	-3930
ంజ్	-3931
ిత్ర	-3932
డర్లు	-3933
సేందుకు	-3934
▁ఎటువంటి	-3935
▁(2	-3936
ನ್ನು	-3937
▁మొబ	-3938
▁పక్ష	-3939
▁రక్ష	-3940
▁డీకే	-3941
▁ఫుల్	-3942
▁అయ్యే	-3943
కపోవడంతో	-3944
▁సర్కారు	-3945
▁తీసుకుంది	-3946
▁రవా	-3947
ెస్టో	-3948
▁ఓట్ల	-3949
▁నిషే	-3950
▁శాసన	-3951
రికీ	-3952
▁న్యాయవా	-3953
షీ	-3954
▁क	-3955
వేళ	-3956
▁ఓప	-3957
▁నొ	-3958
విడ్	-3959
ాడని	-3960
▁బాల్	-3961
▁స్టేట్	-3962
▁ప్రయాణ	-3963
▁మీడియాతో	-3964
యిత	-3965
▁ఉత్స	-3966
ించాయి	-3967
▁ఆమెకు	-3968
▁కుక్క	-3969
▁డబుల్	-3970
▁సంప	-3971
వంతంగా	-3972
▁నెలకొంది	-3973
▁ପ	-3974
టిక్	-3975
▁టీఎస్	-3976
▁శంకర్	-3977
▁సంపాద	-3978
▁స్పంది	-3979
▁నల్గొండ	-3980
▁వాల	-3981
యింది	-3982
ినట్లు	-3983
▁చుట్టూ	-3984
▁ఇప్పటికీ	-3985
▁80	-3986
▁షిప్	-3987
▁ఎప్పటి	-3988
▁షూటింగ్	-3989
▁కోర్టులో	-3990
లంక	-3991
▁ద్	-3992
జిట్	-3993
▁బయలు	-3994
▁బుక్	-3995
కాలంలో	-3996
▁పార్టీని	-3997
▁టెక్నాలజీ	-3998
ీయ	-3999
▁మత	-4000
▁కరోనా	-4001
▁టిక్క	-4002
నిఫెస్టో	-4003
ించనున్నారు	-4004
కస్	-4005
డల్	-4006
నిమి	-4007
▁భవన్	-4008
▁కుండా	-4009
▁కామారెడ్డి	-4010
▁అస్	-4011
ముందు	-4012
▁జనాభా	-4013
▁రవాణా	-4014
▁విచారణకు	-4015
▁సమస్యలను	-4016
▁ఏంట	-4017
▁నార్	-4018
▁వార్తలు	-4019
దర	-4020
▁జల	-4021
▁డ్	-4022
▁గడ్	-4023
▁ఫైర్	-4024
▁మ్యూ	-4025
▁చర్చలు	-4026
▁డెవలప్	-4027
▁మహిళలకు	-4028
▁వర్గాలు	-4029
ంటాయి	-4030
▁నాని	-4031
▁కాలనీ	-4032
▁ఇండస్ట్రీ	-4033
-2	-4034
మితి	-4035
▁పరా	-4036
▁బహు	-4037
్రాంతి	-4038
▁నలుగురు	-4039
ల్లె	-4040
▁ర్య	-4041
▁టోర్	-4042
▁తరహా	-4043
▁బాలీ	-4044
▁స్టేడి	-4045
▁నాయకుడు	-4046
▁సంబంధిత	-4047
▁వ్యక్తులు	-4048
.30	-4049
▁పండ	-4050
▁2021	-4051
▁టౌన్	-4052
▁కల్పి	-4053
▁నోటిఫికేషన్	-4054
ెల్లి	-4055
▁అభిన	-4056
▁డ్యా	-4057
▁దేవు	-4058
▁వేధి	-4059
జేశారు	-4060
▁చేర్చ	-4061
▁మిషన్	-4062
▁అధ్యక్షు	-4063
▁నియోజకవర్గ	-4064
▁పట్టించుకో	-4065
ంట్ల	-4066
బద్ధ	-4067
▁మను	-4068
▁వాటర్	-4069
▁కౌంటర్	-4070
▁స్థానం	-4071
▁ముఖ్యమైన	-4072
త్వంలో	-4073
▁ఆవేదన	-4074
▁బయలుదే	-4075
▁బ్యాక్	-4076
▁ఇన్నింగ్స్	-4077
ంసం	-4078
▁జన్మ	-4079
▁దిశగా	-4080
▁క్రికె	-4081
▁సమీపంలో	-4082
▁జీవితంలో	-4083
یڈ	-4084
బల్	-4085
▁నియా	-4086
▁ానని	-4087
స్థానం	-4088
▁కానుంది	-4089
బిన	-4090
▁పరిణ	-4091
▁సక్సెస్	-4092
▁బాలీవుడ్	-4093
▁K	-4094
జున	-4095
దుగా	-4096
స్తీ	-4097
▁జనం	-4098
హ్మద్	-4099
▁విరు	-4100
▁పూజలు	-4101
▁రాజస్థాన్	-4102
ెర	-4103
▁దాడు	-4104
▁మాకు	-4105
▁పోయింది	-4106
▁బౌలింగ్	-4107
▁ఆస్	-4108
బినెట్	-4109
▁ప్రణా	-4110
▁వెండి	-4111
▁జ్యోతి	-4112
▁సెంట్ర	-4113
▁ఉద్యోగం	-4114
▁పోయి	-4115
▁రెడీ	-4116
▁సాను	-4117
▁ాడని	-4118
బోతున్న	-4119
▁ట్రంప్	-4120
▁ఫ్యామిలీ	-4121
రమ	-4122
▁పరిమ	-4123
కపోవడం	-4124
ానా	-4125
▁మణి	-4126
▁క్లి	-4127
▁మొదట	-4128
▁టాలీవుడ్	-4129
▁నెటి	-4130
ట్రిక్	-4131
▁పట్టణ	-4132
రీర్	-4133
▁హయా	-4134
వులను	-4135
▁దూరం	-4136
▁సూచి	-4137
నారాయణ	-4138
రాత్రి	-4139
▁దర్శక	-4140
▁ప్రియా	-4141
▁పెద్దగా	-4142
▁సినిమాలు	-4143
es	-4144
▁నగదు	-4145
లిస్తే	-4146
▁ఉద్యోగులు	-4147
▁ప్రపంచంలో	-4148
దర్	-4149
▁కోస	-4150
▁ఇటీవ	-4151
▁నియంత్ర	-4152
▁పరీక్షలు	-4153
▁ప్రభాకర్	-4154
▁సాధించిన	-4155
▁అందుబాటులోకి	-4156
್ದ	-4157
ందన	-4158
నలి	-4159
▁کا	-4160
ఎస్సీ	-4161
▁ె	-4162
▁రజ	-4163
గడ్డ	-4164
▁పాక్	-4165
▁నాయకు	-4166
▁చేతిలో	-4167
▁పోర్టు	-4168
▁పడుతున్న	-4169
▁వివరాలను	-4170
కోసం	-4171
గ్రామ్	-4172
▁సమాధానం	-4173
▁సెంట్రల్	-4174
▁ఎగు	-4175
▁అమరావతి	-4176
▁తీసుకోవడం	-4177
స్థాయి	-4178
▁ఆఫీసు	-4179
▁నెరవే	-4180
▁ఉందన్నారు	-4181
ర్ఘ	-4182
వసర	-4183
▁రౌ	-4184
▁ఖాయ	-4185
▁దశా	-4186
▁మొక్క	-4187
▁కెరీర్	-4188
▁పంజాబ్	-4189
ీస్	-4190
మాలు	-4191
▁చంప	-4192
▁బస్	-4193
▁వంశ	-4194
▁స్మ	-4195
▁మొబైల్	-4196
▁అవుతున్న	-4197
▁రెడ్డికి	-4198
▁జీవ	-4199
▁కొనసాగి	-4200
▁ప్రాణాలు	-4201
▁హైడ	-4202
్యూని	-4203
▁బైక్	-4204
▁ాలను	-4205
కాన్ని	-4206
▁ట్విట్టర్	-4207
జిన	-4208
▁నది	-4209
▁పుస్త	-4210
▁ఇవ్వడం	-4211
▁వెళ్లా	-4212
▁అనుకూలంగా	-4213
▁భవిష్యత్తు	-4214
▁ఛా	-4215
▁కార్పొరేషన్	-4216
ోసి	-4217
▁గ్రహ	-4218
▁మెదక్	-4219
▁హయాంలో	-4220
కున్నారు	-4221
▁శ్రీలంక	-4222
కలా	-4223
ష్ణు	-4224
ేశ్వరం	-4225
▁భర్తీ	-4226
▁హర్	-4227
చేసుకు	-4228
▁ఉపాధ్య	-4229
▁కొట్టి	-4230
▁దానిపై	-4231
▁్లో	-4232
కాలను	-4233
▁ఎనిమి	-4234
▁స్టూడెంట్	-4235
▁దశాబ్	-4236
▁ఎప్పుడు	-4237
▁స్తోంది	-4238
▁పిలుపుని	-4239
▁పెన్	-4240
▁ఆఫీస్	-4241
▁ప్రాధాన్యత	-4242
పాదన	-4243
▁ఐదే	-4244
▁మిన	-4245
▁హిట్	-4246
▁అక్కడే	-4247
ెక్టరేట్	-4248
ల్ప	-4249
▁చెల	-4250
ినేని	-4251
▁కలుగు	-4252
▁తెలియజే	-4253
▁ట్రాన్స్	-4254
▁ధో	-4255
▁ఈసీ	-4256
▁పేట	-4257
▁పంచాయతీ	-4258
ళా	-4259
▁రద్దీ	-4260
▁చేయాల్సి	-4261
నిక్	-4262
▁అలీ	-4263
▁నాయక్	-4264
దన్నారు	-4265
▁చూస్తే	-4266
▁గెలిచిన	-4267
▁వాతావరణం	-4268
▁పాకిస్థాన్	-4269
గుల	-4270
జమా	-4271
ర్ణ	-4272
▁గుడి	-4273
▁చేరారు	-4274
▁ారన్నారు	-4275
▁నిలిచింది	-4276
ల్చ	-4277
▁అన్	-4278
▁ద్ర	-4279
పట్నం	-4280
▁ఆహారం	-4281
ంతర	-4282
▁ంగా	-4283
▁అవుతోంది	-4284
▁ఓపెన్	-4285
▁గట్టి	-4286
▁ఎవరైనా	-4287
▁వర్గాల	-4288
▁ఒకవేళ	-4289
▁సన్ని	-4290
▁ಎ	-4291
▁పాస్	-4292
▁యూపీ	-4293
ేశ్వర్	-4294
▁అదానీ	-4295
▁ఆపరేషన్	-4296
▁ప్రయాణం	-4297
▁సాధారణంగా	-4298
▁నియోజకవర్గాల్లో	-4299
▁ఘో	-4300
▁మల	-4301
▁నంద	-4302
▁రవీ	-4303
▁వంట	-4304
ఆర్ఎస్	-4305
▁టీచర్	-4306
▁పెట్టుబ	-4307
ెల	-4308
್ಯ	-4309
తాలు	-4310
పాడు	-4311
పోయే	-4312
▁ఏదో	-4313
▁టాక్	-4314
▁ముని	-4315
▁పదార్థ	-4316
▁పరిణామ	-4317
▁కుమారుడు	-4318
▁ప్రణాళిక	-4319
▁గ్రామానికి	-4320
▁కుంభ	-4321
▁ఉపాధి	-4322
▁కుప్ప	-4323
▁ఆడియన్స్	-4324
▁నిర్లక్ష	-4325
▁పెండింగ్	-4326
▁వైద్యులు	-4327
یو	-4328
రామ	-4329
▁జర	-4330
వాన్	-4331
▁తాగ	-4332
▁ఇంది	-4333
▁సైన్	-4334
▁చేరిన	-4335
▁బౌలర్	-4336
▁చూపించ	-4337
చ్చిన	-4338
▁కాలు	-4339
▁గానే	-4340
▁రచయిత	-4341
▁సవాల్	-4342
▁రాజ్యసభ	-4343
వాద	-4344
యేట్	-4345
▁ఆయు	-4346
▁అశ్వ	-4347
▁వందే	-4348
▁ఉద్యోగ	-4349
▁ఎంట్రీ	-4350
▁గ్రీన్	-4351
▁ఆఫీసర్లు	-4352
▁మొదలైంది	-4353
▁హెచ్చరిక	-4354
▁ప్రొఫెసర్	-4355
ప్ల	-4356
▁జంట	-4357
కరంగా	-4358
యాలని	-4359
చారాన్ని	-4360
ంఛ	-4361
▁సైబర్	-4362
▁	-4363
్	-4364
ి	-4365
ా	-4366
ు	-4367
ర	-4368
న	-4369
ల	-4370
ం	-4371
క	-4372
ప	-4373
త	-4374
స	-4375
వ	-4376
ద	-4377
ట	-4378
ో	-4379
మ	-4380
ే	-4381
య	-4382
చ	-4383
డ	-4384
ీ	-4385
గ	-4386
.	-4387
ె	-4388
అ	-4389
జ	-4390
బ	-4391
ూ	-4392
,	-4393
శ	-4394
ష	-4395
ై	-4396
ఆ	-4397
హ	-4398
ధ	-4399
ఎ	-4400
భ	-4401
ొ	-4402
ఇ	-4403
ఉ	-4404
ణ	-4405
ళ	-4406
ఫ	-4407
ఈ	-4408
థ	-4409
0	-4410
2	-4411
1	-4412
ఏ	-4413
ఖ	-4414
"	-4415
ఒ	-4416
ృ	-4417
5	-4418
3	-4419
4	-4420
:	-4421
ౌ	-4422
ఓ	-4423
)	-4424
ఐ	-4425
(	-4426
9	-4427
-	-4428
6	-4429
8	-4430
7	-4431
ఘ	-4432
ی	-4433
ا	-4434
a	-4435
?	-4436
್	-4437
ಿ	-4438
ک	-4439
و	-4440
ر	-4441
e	-4442
i	-4443
ఢ	-4444
n	-4445
ے	-4446
ن	-4447
ఛ	-4448
ఠ	-4449
ہ	-4450
r	-4451
ು	-4452
ರ	-4453
ದ	-4454
م	-4455
ಾ	-4456
'	-4457
t	-4458
ನ	-4459
o	-4460
ಲ	-4461
s	-4462
س	-4463
!	-4464
ل	-4465
h	-4466
l	-4467
ି	-4468
A	-4469
ವ	-4470
ఊ	-4471
ت	-4472
ା	-4473
S	-4474
ೆ	-4475
ର	-4476
୍	-4477
d	-4478
ತ	-4479
ಕ	-4480
u	-4481
⁬	-4482
ಯ	-4483
R	-4484
ಸ	-4485
C	-4486
د	-4487
ಗ	-4488
ب	-4489
ں	-4490
P	-4491
ಂ	-4492
m	-4493
پ	-4494
I	-4495
T	-4496
ಮ	-4497
c	-4498
/	-4499
ಡ	-4500
େ	-4501
କ	-4502
ఞ	-4503
M	-4504
g	-4505
ئ	-4506
D	-4507
B	-4508
p	-4509
گ	-4510
ج	-4511
ھ	-4512
y	-4513
ନ	-4514
ٹ	-4515
v	-4516
N	-4517
ಬ	-4518
‍	-4519
k	-4520
ବ	-4521
ಪ	-4522
E	-4523
L	-4524
ा	-4525
ش	-4526
ಟ	-4527
ସ	-4528
O	-4529
w	-4530
ତ	-4531
G	-4532
۔	-4533
ಹ	-4534
ୁ	-4535
ڈ	-4536
ಳ	-4537
ع	-4538
b	-4539
ೋ	-4540
ମ	-4541
ପ	-4542
ೇ	-4543
ఔ	-4544
K	-4545
ః	-4546
V	-4547
ଲ	-4548
क	-4549
र	-4550
ହ	-4551
ف	-4552
े	-4553
H	-4554
ೊ	-4555
ق	-4556
ೀ	-4557
F	-4558
ಜ	-4559
چ	-4560
ୟ	-4561
ಚ	-4562
ز	-4563
ଇ	-4564
⁭	-4565
j	-4566
ح	-4567
ଦ	-4568
U	-4569
ୋ	-4570
ಎ	-4571
ଟ	-4572
J	-4573
%	-4574
न	-4575
ೂ	-4576
ص	-4577
ಶ	-4578
ଏ	-4579
ಅ	-4580
#	-4581
ी	-4582
ଣ	-4583
ೈ	-4584
।	-4585
ಆ	-4586
ह	-4587
्	-4588
ଥ	-4589
ಷ	-4590
ଭ	-4591
خ	-4592
ଡ	-4593
W	-4594
ि	-4595
،	-4596
آ	-4597
ं	-4598
ಣ	-4599
ଛ	-4600
स	-4601
ଜ	-4602
ಧ	-4603
f	-4604
म	-4605
Y	-4606
;	-4607
ط	-4608
ଯ	-4609
ଆ	-4610
ल	-4611
X	-4612
ो	-4613
त	-4614
ଉ	-4615
ఝ	-4616
ಇ	-4617
ଗ	-4618
ଅ	-4619
प	-4620
य	-4621
ಭ	-4622
ୀ	-4623
*	-4624
ڑ	-4625
द	-4626
ଳ	-4627
ଖ	-4628
ଧ	-4629
ଙ	-4630
ग	-4631
ଚ	-4632
ब	-4633
ଷ	-4634
ಖ	-4635
ज	-4636
ଶ	-4637
ಫ	-4638
व	-4639
+	-4640
ଓ	-4641
ض	-4642
ಈ	-4643
x	-4644
ଁ	-4645
>	-4646
ଫ	-4647
ु	-4648
ٰ	-4649
ै	-4650
&	-4651
@	-4652
غ	-4653
ظ	-4654
ಥ	-4655
ଂ	-4656
ذ	-4657
च	-4658
भ	-4659
ट	-4660
ೃ	-4661
‭	-4662
अ	-4663
`	-4664
श	-4665
ए	-4666
Z	-4667
ಉ	-4668
Q	-4669
ड	-4670
z	-4671
ू	-4672
୨	-4673
്	-4674
➦	-4675
଼	-4676
ୂ	-4677
़	-4678
்	-4679
_	-4680
☛	-4681
q	-4682
आ	-4683
ଘ	-4684
ख	-4685
ध	-4686
ୱ	-4687
ୌ	-4688
ଠ	-4689
ʼ	-4690
ಒ	-4691
फ	-4692
୦	-4693
ؤ	-4694
थ	-4695
=	-4696
ث	-4697
औ	-4698
୧	-4699
ക	-4700
ୃ	-4701
इ	-4702
ଞ	-4703
ி	-4704
ി	-4705
₹	-4706
ई	-4707
ष	-4708
•	-4709
த	-4710
[	-4711
]	-4712
­	-4713
ఙ	-4714
ಏ	-4715
⁪	-4716
ఋ	-4717
ಐ	-4718
ಘ	-4719
उ	-4720
ೌ	-4721
‪	-4722
க	-4723
ِ	-4724
ण	-4725
ப	-4726
ന	-4727
°	-4728
୪	-4729
া	-4730
യ	-4731
छ	-4732
ம	-4733
ு	-4734
ಠ	-4735
ു	-4736
ओ	-4737
ட	-4738
പ	-4739
$	-4740
ি	-4741
ാ	-4742
ठ	-4743
ఱ	-4744
౦	-4745
ಓ	-4746
घ	-4747
ଵ	-4748
୫	-4749
ട	-4750
র	-4751
্	-4752
ത	-4753
ক	-4754
ୈ	-4755
୩	-4756
ர	-4757
ல	-4758
வ	-4759
‐	-4760
୮	-4761
ற	-4762
ಊ	-4763
झ	-4764
୬	-4765
ள	-4766
ா	-4767
ല	-4768
വ	-4769
െ	-4770
ढ	-4771
ব	-4772
ଝ	-4773
ಞ	-4774
ണ	-4775
●	-4776
َ	-4777
ন	-4778
ম	-4779
୭	-4780
୯	-4781
ച	-4782
ഷ	-4783
⁠	-4784
ي	-4785
ऐ	-4786
ॉ	-4787
ে	-4788
ଢ	-4789
ോ	-4790
؟	-4791
ল	-4792
ু	-4793
ச	-4794
ய	-4795
അ	-4796
റ	-4797
►	-4798
ژ	-4799
ە	-4800
ृ	-4801
ौ	-4802
॥	-4803
ত	-4804
ৰ	-4805
ந	-4806
ன	-4807
ை	-4808
മ	-4809
ര	-4810
സ	-4811
‒	-4812
ء	-4813
প	-4814
য	-4815
ো	-4816
ெ	-4817
ങ	-4818
ഡ	-4819
ൽ	-4820
′	-4821
◉	-4822
♦	-4823
🇮	-4824
জ	-4825
স	-4826
ಛ	-4827
ಢ	-4828
ജ	-4829
ള	-4830
ർ	-4831
★	-4832
❌	-4833
🇳	-4834
়	-4835
எ	-4836
ோ	-4837
ീ	-4838
😂	-4839
🚩	-4840
\	-4841
đ	-4842
ه	-4843
ّ	-4844
ञ	-4845
এ	-4846
ও	-4847
ধ	-4848
அ	-4849
ங	-4850
ொ	-4851
౩	-4852
ം	-4853
എ	-4854
ധ	-4855
ൂ	-4856
ൗ	-4857
ൾ	-4858
~	-4859
·	-4860
×	-4861
ư	-4862
ُ	-4863
ँ	-4864
ऊ	-4865
ऑ	-4866
०	-4867
ট	-4868
ড	-4869
দ	-4870
ফ	-4871
হ	-4872
ଃ	-4873
ଈ	-4874
ண	-4875
ீ	-4876
ౖ	-4877
ಃ	-4878
ಝ	-4879
⁄	-4880
⃣	-4881
⦁	-4882
️	-4883
💪	-4884
🔥	-4885
🙏	-4886
â	-4887
ơ	-4888
أ	-4889
ً	-4890
ڕ	-4891
ः	-4892
२	-4893
অ	-4894
গ	-4895
চ	-4896
ভ	-4897
শ	-4898
ী	-4899
ৱ	-4900
ஏ	-4901
ஜ	-4902
ூ	-4903
ఁ	-4904
౧	-4905
౹	-4906
ಔ	-4907
ഈ	-4908
ഭ	-4909
ശ	-4910
ൃ	-4911
േ	-4912
ൊ	-4913
ൻ	-4914
ố	-4915
⁫	-4916
⁯	-4917
◆	-4918
👉	-4919
👌	-4920
💚	-4921
😡	-4922
<	-4923
£	-4924
©	-4925
Á	-4926
æ	-4927
́	-4928
α	-4929
β	-4930
؛	-4931
إ	-4932
ى	-4933
ڵ	-4934
ۆ	-4935
ێ	-4936
४	-4937
ঃ	-4938
আ	-4939
ৈ	-4940
ஆ	-4941
இ	-4942
உ	-4943
ஊ	-4944
ஸ	-4945
ே	-4946
ఽ	-4947
ౄ	-4948
౪	-4949
౬	-4950
ആ	-4951
ഇ	-4952
ഒ	-4953
ഗ	-4954
ദ	-4955
ബ	-4956
ഴ	-4957
ൈ	-4958
ả	-4959
ầ	-4960
ậ	-4961
ệ	-4962
ớ	-4963
ờ	-4964
ở	-4965
ợ	-4966
ứ	-4967
‫	-4968
‬	-4969
€	-4970
∙	-4971
≠	-4972
▪	-4973
♥	-4974
✳	-4975
➡	-4976
🇪	-4977
🇬	-4978
🌹	-4979
🏼	-4980
👇	-4981
👊	-4982
👋	-4983
💐	-4984
💥	-4985
🔴	-4986
🔸	-4987
🔹	-4988
😉	-4989
😊	-4990
😜	-4991
😞	-4992
😠	-4993
😥	-4994
🙂	-4995
🤜	-4996
