<unk>	0
<s>	0
</s>	0
▁ప	-0
ార	-1
▁క	-2
ని	-3
న్	-4
్ర	-5
▁వ	-6
ర్	-7
స్	-8
▁మ	-9
లు	-10
▁అ	-11
ంద	-12
లో	-13
▁చ	-14
▁స	-15
▁త	-16
ల్	-17
ారు	-18
▁ర	-19
్య	-20
కు	-21
ట్	-22
న్న	-23
ంచ	-24
▁న	-25
గా	-26
క్	-27
▁ప్ర	-28
ంది	-29
తు	-30
▁ఆ	-31
▁చే	-32
ాల	-33
▁బ	-34
ించ	-35
▁ఇ	-36
ను	-37
డి	-38
▁ద	-39
ంట	-40
▁జ	-41
▁ఉ	-42
డు	-43
▁ఎ	-44
రి	-45
ంత	-46
ిన	-47
ాయ	-48
▁గ	-49
ప్	-50
లి	-51
త్	-52
▁వి	-53
రు	-54
▁,	-55
కి	-56
▁ల	-57
ార్	-58
డ్	-59
▁ని	-60
టి	-61
▁లో	-62
▁స్	-63
టు	-64
ంగ	-65
ంగా	-66
సు	-67
టీ	-68
▁రా	-69
▁ఈ	-70
ంలో	-71
ద్	-72
న్నారు	-73
ప్ప	-74
తి	-75
లా	-76
డా	-77
..	-78
యా	-79
చ్	-80
మా	-81
▁ను	-82
▁హ	-83
స్తు	-84
▁కా	-85
▁భ	-86
▁కు	-87
ష్	-88
వా	-89
స్త	-90
సి	-91
న్ని	-92
చ్చ	-93
్యా	-94
▁శ	-95
గు	-96
▁తె	-97
ిక	-98
▁చె	-99
ండ	-100
నే	-101
ాయి	-102
▁ఏ	-103
దు	-104
▁కో	-105
మ్	-106
ందు	-107
ళ్	-108
▁ఫ	-109
ది	-110
ెం	-111
క్ష	-112
పు	-113
ేశ	-114
▁పో	-115
ాలు	-116
పీ	-117
▁కొ	-118
తో	-119
ల్లో	-120
▁కే	-121
ారం	-122
▁మా	-123
▁..	-124
వు	-125
ిత	-126
ింది	-127
▁కూ	-128
▁వె	-129
▁పె	-130
▁1	-131
రా	-132
▁ము	-133
నికి	-134
్రి	-135
లీ	-136
▁2	-137
మి	-138
సీ	-139
▁సి	-140
ైన	-141
ంచి	-142
▁పా	-143
▁ట	-144
ారి	-145
లకు	-146
ిల్	-147
▁లే	-148
▁సం	-149
క్క	-150
ట్ట	-151
▁తీ	-152
▁డ	-153
ంగ్	-154
ించారు	-155
ామ	-156
ంతో	-157
ష్ట	-158
▁గా	-159
రో	-160
్వ	-161
ెస్	-162
▁ఒ	-163
లను	-164
▁వే	-165
▁తో	-166
బ్	-167
ద్ద	-168
▁నుంచి	-169
▁నే	-170
కా	-171
ట్లు	-172
డం	-173
▁కూడా	-174
బా	-175
▁వా	-176
▁సీ	-177
కో	-178
▁చేశ	-179
▁అధ	-180
▁ఉన్న	-181
మ్మ	-182
పై	-183
వి	-184
▁గు	-185
త్త	-186
ాన	-187
▁నిర్	-188
▁బీ	-189
▁అయ	-190
పో	-191
ంద్ర	-192
▁చేయ	-193
ెడ్	-194
షన్	-195
యం	-196
స్తున్న	-197
పా	-198
▁సమ	-199
గ్	-200
▁.	-201
▁య	-202
▁పార్	-203
▁ప్రభ	-204
సిన	-205
సుకు	-206
ప్పు	-207
బు	-208
నీ	-209
▁ఓ	-210
▁తెలి	-211
జు	-212
ల్ల	-213
▁రో	-214
టర్	-215
ాలని	-216
ంటి	-217
▁కి	-218
ందని	-219
▁పై	-220
ఆర్	-221
▁వచ్చ	-222
్రా	-223
తున్న	-224
▁వ్య	-225
్రీ	-226
▁చెప్ప	-227
ుత్	-228
ంటు	-229
గి	-230
▁"	-231
ెడ్డి	-232
▁భార	-233
▁పరి	-234
త్ర	-235
▁రూ	-236
ండి	-237
నా	-238
జ్	-239
వే	-240
▁చేశారు	-241
లే	-242
రీ	-243
ందుకు	-244
పి	-245
తం	-246
జీ	-247
▁వై	-248
▁మీ	-249
▁దీ	-250
▁పార్టీ	-251
ూర్	-252
కే	-253
▁అధిక	-254
▁ప్రభుత్	-255
యో	-256
ెట్	-257
▁(	-258
▁దా	-259
సం	-260
▁సా	-261
▁బా	-262
▁పే	-263
ంటే	-264
వం	-265
▁అవ	-266
కొ	-267
▁కార	-268
▁ఆయ	-269
ంధ	-270
ించిన	-271
ట్టు	-272
ళ్ల	-273
▁అని	-274
ండ్	-275
▁నా	-276
ారని	-277
ద్య	-278
డీ	-279
స్థ	-280
ించి	-281
▁ష	-282
ఎస్	-283
▁20	-284
ారా	-285
▁తన	-286
నం	-287
▁ప్రా	-288
ెల్	-289
▁ఆయన	-290
▁ఎన్ని	-291
రం	-292
ులు	-293
▁రాష్ట	-294
వర్	-295
▁వీ	-296
జా	-297
▁ఒక	-298
▁మొ	-299
వీ	-300
ెంట్	-301
త్య	-302
ాడు	-303
ధి	-304
మె	-305
దా	-306
▁ఎన్నిక	-307
ెక్	-308
▁అభ	-309
ాలి	-310
▁చేసి	-311
సే	-312
వర	-313
▁టీ	-314
▁శా	-315
రే	-316
▁చూ	-317
▁వర	-318
కీ	-319
ంత్రి	-320
ంప	-321
▁తెలిప	-322
▁రి	-323
▁ధ	-324
ితే	-325
రుగు	-326
జే	-327
ుల	-328
▁చి	-329
▁స్థ	-330
▁ఉండ	-331
క్ర	-332
▁రాష్ట్ర	-333
▁స్ట	-334
▁చేసిన	-335
▁రెడ్డి	-336
▁జరి	-337
హి	-338
్రెస్	-339
ాలను	-340
▁మే	-341
వాత	-342
▁డి	-343
దే	-344
ధ్య	-345
▁కాంగ	-346
లంగా	-347
ఖ్య	-348
క్కు	-349
▁మంది	-350
▁కాంగ్రెస్	-351
▁ప్రక	-352
▁హై	-353
▁ఖ	-354
ండా	-355
▁లు	-356
▁పోలీ	-357
▁వారి	-358
▁జిల్	-359
▁రాజ	-360
దేశ	-361
▁రోజు	-362
ర్శ	-363
ఎం	-364
య్య	-365
బాద్	-366
▁మార్	-367
ఫ్	-368
యంలో	-369
యే	-370
▁సె	-371
స్తున్నారు	-372
▁3	-373
మైన	-374
సా	-375
▁నె	-376
యి	-377
కర	-378
మే	-379
▁వర్	-380
▁తా	-381
▁కోసం	-382
చి	-383
తా	-384
▁మూ	-385
▁ా	-386
▁రై	-387
న్స్	-388
▁మో	-389
దీ	-390
▁జిల్లా	-391
ట్ల	-392
ర్థ	-393
ప్పుడు	-394
▁మె	-395
▁చేస్త	-396
▁సమా	-397
▁సు	-398
ప్పటి	-399
▁ఐ	-400
తీ	-401
▁విష	-402
▁తెలంగా	-403
▁తెలంగాణ	-404
కోవ	-405
న్య	-406
▁రే	-407
సులు	-408
ించింది	-409
▁అయితే	-410
వారం	-411
▁-	-412
▁పు	-413
▁తి	-414
▁చెప్పారు	-415
లుగు	-416
ంబ	-417
▁ది	-418
ల్లి	-419
▁అను	-420
▁భా	-421
కర్	-422
▁కార్య	-423
▁ప్రభుత్వం	-424
▁ఇచ్చ	-425
▁పొ	-426
▁తెలిపారు	-427
ుకు	-428
శ్	-429
ర్చ	-430
▁తర్	-431
్యూ	-432
డంతో	-433
ామని	-434
ాలా	-435
▁యా	-436
▁దేశ	-437
▁తర్వాత	-438
కుండా	-439
▁ప్రజ	-440
▁చంద్ర	-441
▁తీసుకు	-442
దని	-443
ట్టి	-444
ంటూ	-445
▁సిని	-446
ర్య	-447
▁అనే	-448
▁బీజే	-449
▁జరిగ	-450
▁ప్రతి	-451
వహ	-452
▁అధికారు	-453
▁సో	-454
డానికి	-455
▁బీజేపీ	-456
▁లా	-457
▁తే	-458
▁వ్యక్	-459
మో	-460
▁కలి	-461
తున్నారు	-462
▁మంత్రి	-463
▁మరో	-464
▁4	-465
▁పాటు	-466
▁గ్ర	-467
▁వ్యా	-468
▁ఉంది	-469
▁ఏర్	-470
▁:	-471
ించే	-472
▁సినిమా	-473
▁కేంద్ర	-474
జి	-475
ము	-476
▁అన్నారు	-477
వ్	-478
▁5	-479
బంధ	-480
▁ఆరో	-481
▁తమ	-482
▁సభ	-483
▁శ్రీ	-484
తులు	-485
▁లక్ష	-486
▁జీ	-487
తుంది	-488
▁ఎమ్మ	-489
టన	-490
▁మి	-491
▁జా	-492
ప్ర	-493
▁క్ర	-494
▁ఎమ్మెల్	-495
డే	-496
▁స్ప	-497
▁నేత	-498
▁ఉంటు	-499
ద్ధ	-500
▁చాలా	-501
00	-502
▁సీఎం	-503
ణా	-504
▁ప్	-505
స్ట	-506
▁రెం	-507
ట్లా	-508
ర్టు	-509
లం	-510
ళ్లు	-511
ోంది	-512
బ్బ	-513
క్కువ	-514
▁అంత	-515
కాశ	-516
▁మాత్ర	-517
ాని	-518
కూ	-519
▁రెండు	-520
ందిన	-521
▁విజ	-522
▁పి	-523
▁ఆర్	-524
▁పని	-525
▁అభి	-526
డ్డ	-527
▁పూర్	-528
పాటు	-529
టో	-530
▁తీసు	-531
కులు	-532
▁ఎం	-533
రాబాద్	-534
బాబు	-535
▁అస	-536
▁సర్	-537
పోయ	-538
▁మాట్లా	-539
▁ఆమె	-540
త్స	-541
మీ	-542
▁నెల	-543
బర్	-544
▁ఘ	-545
▁దీంతో	-546
▁గత	-547
▁హైద	-548
దల	-549
▁రె	-550
ాలకు	-551
▁ప్రధ	-552
హా	-553
గ్ర	-554
గొ	-555
▁వెళ్	-556
▁చేసుకు	-557
▁జగ	-558
▁అందు	-559
▁అవకాశ	-560
▁బె	-561
మార్	-562
▁ముఖ్య	-563
▁నీ	-564
వ్వ	-565
గే	-566
▁లోని	-567
▁మధ్య	-568
▁మరి	-569
▁వరకు	-570
ెన్	-571
▁బి	-572
▁కానీ	-573
▁హైదరాబాద్	-574
▁క్	-575
ీల	-576
▁చంద్రబాబు	-577
వరి	-578
▁చేస్తున్న	-579
▁ఎలా	-580
▁సూ	-581
తూ	-582
▁తొ	-583
గ్గ	-584
ంత్	-585
▁చెందిన	-586
శా	-587
▁కేసు	-588
▁ప్రాంత	-589
▁ఎమ్మెల్యే	-590
వేశ	-591
ాయని	-592
▁పోలీసులు	-593
▁చేసింది	-594
▁నాయ	-595
తోంది	-596
సారి	-597
▁కొత్త	-598
ర్లు	-599
లతో	-600
చారం	-601
▁సంబంధ	-602
▁ఇప్పటి	-603
ణి	-604
▁గుర్	-605
ాన్	-606
▁ఇది	-607
లోని	-608
▁బీఆర్	-609
ర్కొ	-610
ర్యా	-611
▁తెలు	-612
▁బ్యా	-613
▁కార్	-614
స్తుంది	-615
ందర్	-616
▁పాల్	-617
▁న్య	-618
▁తర	-619
▁అధికారులు	-620
▁నిర్వహ	-621
ణం	-622
చార	-623
▁యూ	-624
▁6	-625
గం	-626
స్ట్	-627
▁జన	-628
స్తే	-629
ణ్	-630
▁ک	-631
ందించ	-632
ుడు	-633
స్య	-634
▁నిర్ణ	-635
▁ఎన్నికల	-636
▁ద్వ	-637
స్తోంది	-638
బీ	-639
▁గె	-640
▁మహి	-641
▁202	-642
▁సమయంలో	-643
▁ఇం	-644
ూరు	-645
▁భారీ	-646
▁గుర	-647
▁యు	-648
▁కల	-649
▁కాల	-650
▁ఫో	-651
▁పెద్ద	-652
▁సై	-653
▁లేదు	-654
▁గంట	-655
త్తు	-656
గర్	-657
▁మహిళ	-658
▁అన	-659
▁ఎస్	-660
ృష్	-661
▁ఉద్య	-662
▁చేసే	-663
ందే	-664
ైనా	-665
▁అమ	-666
▁హా	-667
▁అలా	-668
ంపు	-669
▁ఎక్కువ	-670
▁భూ	-671
▁7	-672
ారంభ	-673
▁జగన్	-674
▁పెట్ట	-675
డియా	-676
▁ప్రారంభ	-677
▁కని	-678
▁శి	-679
క్కడ	-680
▁అభ్య	-681
ేషన్	-682
▁""	-683
హ్	-684
▁ముందు	-685
▁ప్రస్తు	-686
క్స్	-687
▁డీ	-688
త్రి	-689
▁కేసీ	-690
టా	-691
వన్	-692
చే	-693
తే	-694
▁ఇప్పుడు	-695
షి	-696
ారీ	-697
▁)	-698
▁రాజకీ	-699
▁బో	-700
▁మ్యా	-701
▁వల్ల	-702
▁విద్య	-703
పించ	-704
▁కేసీఆర్	-705
యోజ	-706
▁అవు	-707
▁బీఆర్ఎస్	-708
▁ఇవ్వ	-709
▁ఇక	-710
▁అత	-711
▁సే	-712
▁కుటు	-713
▁వచ్చిన	-714
▁కల్	-715
▁వారు	-716
▁8	-717
▁టి	-718
▁అర	-719
▁అంద	-720
▁మీడియా	-721
▁ఫి	-722
ర్మ	-723
▁ప్రభుత్వ	-724
▁ఒక్క	-725
కెట్	-726
▁ద్వారా	-727
▁విధ	-728
▁ు	-729
ంలోని	-730
ఫీ	-731
కాల	-732
ద్ర	-733
ిల్లీ	-734
▁సాధ	-735
నించ	-736
ాయం	-737
▁పేర్కొ	-738
డిన	-739
▁చెబు	-740
▁ఇలా	-741
▁...	-742
▁ఏర్పాటు	-743
▁కొన్ని	-744
▁మన	-745
స్థి	-746
▁ఏపీ	-747
▁కె	-748
▁ప్రత్య	-749
తంగా	-750
▁కావ	-751
విత	-752
▁ప్రకట	-753
▁పీ	-754
▁సమస్య	-755
▁ప్రమా	-756
క్రమ	-757
▁అయ్య	-758
తుల	-759
▁లి	-760
▁బు	-761
ినా	-762
మెంట్	-763
కె	-764
▁జరుగు	-765
ందో	-766
కం	-767
▁ఉంటుంది	-768
పే	-769
▁పలు	-770
▁కారణ	-771
▁అధికార	-772
▁అవకాశం	-773
చ్చు	-774
శి	-775
▁ధర	-776
▁తు	-777
▁వివర	-778
▁దే	-779
▁పూర్తి	-780
▁మహ	-781
▁ఉద్యో	-782
▁గో	-783
▁పోటీ	-784
▁వెలుగు	-785
ల్సి	-786
▁రూప	-787
▁దీని	-788
▁మాజీ	-789
▁బయ	-790
టం	-791
రుకు	-792
▁శాఖ	-793
తర	-794
యర్	-795
▁షా	-796
ెస్ట్	-797
▁రేవ	-798
సీపీ	-799
తీయ	-800
▁పరిస్థి	-801
ంత్ర	-802
▁దు	-803
▁ప్రస్తుతం	-804
ార్థ	-805
▁జరిగిన	-806
▁వచ్చే	-807
▁వద్ద	-808
▁మొద	-809
దం	-810
▁పాల	-811
గో	-812
▁ఆరోప	-813
▁ఉంట	-814
▁ఇండి	-815
▁అధ్య	-816
▁అభ్యర్థ	-817
▁అం	-818
ఢిల్లీ	-819
▁సహ	-820
▁లను	-821
▁10	-822
▁హి	-823
లోకి	-824
▁చేస్తున్నారు	-825
▁9	-826
▁కుటుంబ	-827
కపో	-828
▁వర్ష	-829
ాల్లో	-830
▁కొన	-831
▁సంస్థ	-832
మంత్రి	-833
యన్	-834
కంగా	-835
▁ఎంపీ	-836
▁ఆధ	-837
▁ఎదు	-838
వ్ర	-839
▁మార	-840
▁మొత్త	-841
▁నో	-842
ల్స్	-843
▁భారత్	-844
▁రేవంత్	-845
▁మంచి	-846
▁తీవ్ర	-847
జర్	-848
▁ట్ర	-849
▁విచార	-850
▁ఎన్నికల్లో	-851
ాం	-852
యత్	-853
స్టు	-854
్యం	-855
నూ	-856
▁ఉప	-857
స్తూ	-858
▁మండ	-859
▁పేరు	-860
▁చేప	-861
▁పాల్గొ	-862
డీపీ	-863
▁భారత	-864
టింగ్	-865
ద్ధి	-866
ెక్టర్	-867
▁విజయ	-868
నర్	-869
▁అన్ని	-870
ంటర్	-871
డియో	-872
▁క్యా	-873
▁19	-874
▁201	-875
▁కుమార్	-876
నాలు	-877
▁స్థాన	-878
ంటున్న	-879
▁సమావేశ	-880
▁మూడు	-881
▁కమి	-882
▁సందర్	-883
▁గ్రామ	-884
▁నియోజ	-885
▁లై	-886
▁వెల్ల	-887
రగ	-888
▁కలిసి	-889
▁టీడీపీ	-890
▁ప్రయత్	-891
▁శు	-892
▁ఎన్	-893
త్తి	-894
నున్న	-895
తలు	-896
▁కీల	-897
▁శాతం	-898
▁పట్ట	-899
▁రు	-900
▁నమో	-901
▁తేదీ	-902
▁డా	-903
షల్	-904
ట్టుకు	-905
▁విడు	-906
ానికి	-907
▁నియోజక	-908
▁ఛ	-909
▁పవన్	-910
▁చర్య	-911
▁కోట్ల	-912
హం	-913
▁ప్రత్యే	-914
రణ	-915
▁కొనసా	-916
▁పరిశ	-917
ాన్ని	-918
▁గురించి	-919
▁లేదని	-920
దేశ్	-921
▁'	-922
▁మ్యాచ్	-923
పంచ	-924
లపై	-925
▁భాగ	-926
▁చర్చ	-927
▁కర్	-928
▁చో	-929
▁సందర్భ	-930
▁మాత్రం	-931
▁వీడియో	-932
▁ఉందని	-933
▁హె	-934
భా	-935
▁విడుదల	-936
ంగళ	-937
▁వేల	-938
▁రాజకీయ	-939
▁వెళ్ల	-940
▁కంప	-941
▁ప్రశ్	-942
▁తప్ప	-943
లేదు	-944
▁ఇన్	-945
తున్నాయి	-946
బ్లీ	-947
▁ا	-948
▁వైసీపీ	-949
సర	-950
▁ఉన్నారు	-951
ిల్ల	-952
▁వాటి	-953
రూ	-954
▁ప్రధాన	-955
▁నియోజకవర్	-956
▁అధ్యక్ష	-957
▁హో	-958
▁విచారణ	-959
▁ఉన్నాయి	-960
మాండ్	-961
వడం	-962
▁వెల్లడ	-963
మర్శ	-964
డ్డు	-965
్రో	-966
ైంది	-967
▁ప్రభా	-968
▁పూ	-969
▁లీ	-970
పర్	-971
▁ఢిల్లీ	-972
హు	-973
▁దూ	-974
యోగ	-975
▁అన్న	-976
▁మాత్రమే	-977
ష్టం	-978
ంటారు	-979
సింది	-980
ానని	-981
▁వెం	-982
▁వ్యక్తం	-983
▁విషయం	-984
రల్	-985
▁పద	-986
దర్శ	-987
▁పం	-988
▁ఘటన	-989
ృద్ధి	-990
▁వ్యక్తి	-991
▁ఊ	-992
మని	-993
ించడం	-994
్వర	-995
▁అర్	-996
▁జో	-997
క్తి	-998
▁అసెం	-999
వై	-1000
క్షన్	-1001
దన	-1002
ినీ	-1003
▁ఉద	-1004
▁అసెంబ్లీ	-1005
▁వారికి	-1006
▁ఉండే	-1007
▁సభ్య	-1008
▁తాజా	-1009
▁లక్షల	-1010
డాది	-1011
కుల	-1012
ద్దు	-1013
▁ముఖ్యమంత్రి	-1014
▁చేయాలని	-1015
▁కీలక	-1016
స్తారు	-1017
▁జూ	-1018
▁అమ్మ	-1019
▁వంటి	-1020
ానం	-1021
▁సమాచారం	-1022
వల	-1023
▁ఉత్త	-1024
▁సూచ	-1025
▁దర్శ	-1026
ారెడ్డి	-1027
ించాలని	-1028
▁నుండి	-1029
▁ఇప్పటికే	-1030
పూర్	-1031
▁చేసు	-1032
లింగ్	-1033
▁ఇంటి	-1034
▁యువ	-1035
▁పోలీసు	-1036
్రే	-1037
▁పడు	-1038
▁ప్రపంచ	-1039
ించుకు	-1040
▁విమర్శ	-1041
గిన	-1042
రారు	-1043
బో	-1044
▁మాట్లాడు	-1045
▁ప్రజలు	-1046
కోర్టు	-1047
ంట్	-1048
▁హీ	-1049
ంటున్నారు	-1050
ెనీ	-1051
▁రెండ	-1052
▁మృ	-1053
▁డై	-1054
▁ప్రధాని	-1055
దిక	-1056
▁నాలు	-1057
▁అదే	-1058
▁పను	-1059
▁కోర్టు	-1060
లలో	-1061
రిగి	-1062
▁తిరు	-1063
జన్	-1064
▁వార్	-1065
▁కంపెనీ	-1066
▁జై	-1067
▁రాష్ట్రంలో	-1068
▁లేదా	-1069
సర్	-1070
▁సందర్భంగా	-1071
▁సంఘ	-1072
నల్	-1073
▁మీద	-1074
▁బయట	-1075
▁తాను	-1076
పె	-1077
▁ఆదేశ	-1078
▁వెంట	-1079
▁చిన్న	-1080
గ్గు	-1081
నున్నారు	-1082
▁తరు	-1083
▁ప్రత్యేక	-1084
▁ఇండియా	-1085
▁ఎలాంటి	-1086
టీఆర్	-1087
▁కింద	-1088
▁వ్యవ	-1089
▁తెలుగు	-1090
▁స్వా	-1091
▁ంచ	-1092
▁టై	-1093
ించు	-1094
ెంబర్	-1095
▁రంగ	-1096
▁15	-1097
▁మొత్తం	-1098
▁అత్య	-1099
▁మోదీ	-1100
▁చిత	-1101
▁ప్రకారం	-1102
▁తొలి	-1103
▁న్యూ	-1104
▁ప్రయా	-1105
వృద్ధి	-1106
▁విని	-1107
▁సోషల్	-1108
బ్బంది	-1109
▁అక్క	-1110
▁చేయడం	-1111
టమి	-1112
▁నగ	-1113
▁ఆల	-1114
వో	-1115
తుందని	-1116
▁ఆది	-1117
▁నిర్మా	-1118
త్మ	-1119
▁రావు	-1120
▁పిల్ల	-1121
▁12	-1122
▁టా	-1123
▁అమె	-1124
క్టర్	-1125
పడ్డ	-1126
ినే	-1127
▁అంటూ	-1128
ంతరం	-1129
▁సిద్ధ	-1130
▁ఇతర	-1131
▁ప్లా	-1132
▁కాదు	-1133
▁సరి	-1134
వాల్	-1135
▁ఇద్ద	-1136
▁ప్రే	-1137
▁ఆరోగ	-1138
▁నేతలు	-1139
▁ఆర్థ	-1140
నుంది	-1141
▁విద్యార్థ	-1142
▁దగ్గ	-1143
▁రామ	-1144
టక	-1145
▁చర్యలు	-1146
ృష్ణ	-1147
▁రైతు	-1148
▁م	-1149
▁హీరో	-1150
వత్స	-1151
ాము	-1152
▁ారు	-1153
▁గెలి	-1154
▁ఆర్థిక	-1155
▁డబ్	-1156
న్నా	-1157
జెక్	-1158
▁ఏడాది	-1159
▁సంవత్స	-1160
▁మెంట్	-1161
▁అంటే	-1162
▁కౌ	-1163
య్	-1164
▁ార	-1165
▁చేపట్ట	-1166
▁ఇందు	-1167
యాలు	-1168
▁ఇదే	-1169
▁అభివృద్ధి	-1170
▁జరగ	-1171
▁ంద	-1172
▁అది	-1173
▁ట్	-1174
ంధీ	-1175
▁అందించ	-1176
▁కోట్లు	-1177
తారు	-1178
తాయి	-1179
▁ఆఫీ	-1180
▁దాని	-1181
ేశారు	-1182
శ్వ	-1183
▁ి	-1184
▁అలాగే	-1185
▁పర్య	-1186
ళన	-1187
▁పెంచ	-1188
వులు	-1189
వడంతో	-1190
డుగు	-1191
▁11	-1192
▁అమెరి	-1193
▁గుర్త	-1194
▁క్రమ	-1195
▁పరుగు	-1196
▁దాడి	-1197
▁నిలి	-1198
స్సు	-1199
ప్తంగా	-1200
▁లకు	-1201
లై	-1202
▁రోజుల	-1203
▁వార	-1204
ంతా	-1205
▁స్థాయి	-1206
పల్లి	-1207
ంతి	-1208
▁ఫోన్	-1209
▁పేర్కొన్నారు	-1210
్యంలో	-1211
ంలోకి	-1212
ల్డ్	-1213
స్ప	-1214
నించారు	-1215
▁వెళ్లి	-1216
యు	-1217
▁వెంక	-1218
▁అయిన	-1219
చు	-1220
▁ఇచ్చిన	-1221
▁గొ	-1222
▁డిమాండ్	-1223
కోవడం	-1224
▁తాజాగా	-1225
▁బాల	-1226
▁ప్రాజెక్	-1227
▁తెలియ	-1228
యాన్ని	-1229
▁డే	-1230
ెన్స్	-1231
ప్రదేశ్	-1232
ంజ	-1233
▁తెలిపింది	-1234
▁చెబుతున్నారు	-1235
▁రీ	-1236
▁పరిస్థితి	-1237
▁స్వ	-1238
▁దాదా	-1239
▁సొ	-1240
ల్లు	-1241
▁పడి	-1242
▁నేప	-1243
▁వచ్చి	-1244
న్సి	-1245
లర్	-1246
▁ఫ్యా	-1247
▁ట్రా	-1248
ప్ట	-1249
▁మేర	-1250
▁దాదాపు	-1251
ళ్లి	-1252
▁అమలు	-1253
▁సంబంధించిన	-1254
▁కార్యక్రమ	-1255
▁?	-1256
▁భక్	-1257
ూడ	-1258
ట్లో	-1259
▁గతంలో	-1260
▁గాంధీ	-1261
▁తగ్గ	-1262
▁చేరుకు	-1263
▁ఇటీ	-1264
కల్	-1265
▁గౌ	-1266
.1	-1267
▁బ్యాం	-1268
▁స్టార్	-1269
ందోళన	-1270
▁పడ	-1271
ేశ్	-1272
▁డబ్బు	-1273
▁మాట్లాడుతూ	-1274
▁గంటల	-1275
పడు	-1276
▁స్థాని	-1277
▁లె	-1278
▁థ	-1279
▁చై	-1280
▁భాగంగా	-1281
టే	-1282
▁మూవీ	-1283
▁వ్యవహ	-1284
▁పెరుగు	-1285
▁హామ	-1286
▁అమెరికా	-1287
దారు	-1288
▁ల్	-1289
▁అనేక	-1290
▁ఫలి	-1291
స్వా	-1292
▁కారణంగా	-1293
▁నేపథ	-1294
▁కనిపి	-1295
రీక్ష	-1296
లుగా	-1297
▁వైఎస్	-1298
▁చీ	-1299
▁నమోదు	-1300
▁ఆఫ్	-1301
▁అనంతరం	-1302
ాలతో	-1303
▁ప్రజా	-1304
▁వెంటనే	-1305
▁జరిగింది	-1306
కోవాలని	-1307
▁పథ	-1308
పక్ష	-1309
▁కొంత	-1310
▁విషయంలో	-1311
▁నిర్ణయం	-1312
సన	-1313
డర్	-1314
▁నిర్మ	-1315
▁ہ	-1316
▁సమీ	-1317
▁దగ్గర	-1318
▁వ్యాఖ్య	-1319
▁లేకుండా	-1320
ార్డు	-1321
క్ష్	-1322
▁లేద	-1323
▁ే	-1324
ద్ది	-1325
▁అంచ	-1326
ంధ్ర	-1327
కుడు	-1328
▁జారీ	-1329
▁పరీక్ష	-1330
న్నీ	-1331
▁అంశ	-1332
▁ఇందులో	-1333
▁తరువాత	-1334
వాల	-1335
రోజు	-1336
▁సర	-1337
▁వచ్చింది	-1338
▁రూపాయ	-1339
▁మాట్లాడ	-1340
▁వస్తు	-1341
▁మై	-1342
▁సింగ్	-1343
▁పాత్ర	-1344
▁కేసులో	-1345
▁పనిచే	-1346
▁అక్కడ	-1347
▁నేపథ్యంలో	-1348
▁కొంద	-1349
▁ం	-1350
▁ఆందోళన	-1351
క్షణ	-1352
లుపు	-1353
▁రాహు	-1354
గాలు	-1355
▁వివా	-1356
స్తామని	-1357
▁కేట	-1358
▁ఆశ	-1359
▁మళ్	-1360
▁ఎక్కువగా	-1361
▁ఫొ	-1362
▁ర్	-1363
ర్యాదు	-1364
పతి	-1365
▁దొ	-1366
▁కళ	-1367
▁జీవిత	-1368
▁రిక	-1369
▁ప్రి	-1370
ులకు	-1371
▁డె	-1372
▁్	-1373
▁డ్ర	-1374
▁కాగా	-1375
▁ఫిర్యాదు	-1376
క్షి	-1377
సేన	-1378
▁ప్రచారం	-1379
డని	-1380
▁తెలిసి	-1381
▁ఫొటో	-1382
▁యూని	-1383
▁ఇచ్చారు	-1384
▁జిల్లాలో	-1385
కొని	-1386
▁తల్లి	-1387
ాయ్	-1388
▁నేను	-1389
▁ఉదయం	-1390
▁నియ	-1391
▁చిత్ర	-1392
▁గుర్తు	-1393
▁లోక్	-1394
▁తయ	-1395
▁పెరి	-1396
▁చట్ట	-1397
▁హామీ	-1398
లువ	-1399
▁పైన	-1400
▁14	-1401
ర్చు	-1402
బాటు	-1403
▁డైర	-1404
an	-1405
▁రాహుల్	-1406
▁మొదటి	-1407
▁స్టేషన్	-1408
▁చూడ	-1409
▁ఎంత	-1410
కున్న	-1411
▁⁬	-1412
కాలు	-1413
▁ఖా	-1414
▁మార్పు	-1415
▁సౌ	-1416
శాఖ	-1417
▁మద్ద	-1418
పడి	-1419
టికి	-1420
ండగా	-1421
▁గ్రా	-1422
▁బాధ్య	-1423
▁కథ	-1424
▁బంగ	-1425
▁హాజ	-1426
నియర్	-1427
నాల	-1428
▁వైద్య	-1429
చర్	-1430
▁నాలుగు	-1431
▁త్వర	-1432
▁30	-1433
య్యారు	-1434
డో	-1435
▁తల	-1436
▁నిర్ణయ	-1437
కొచ్చ	-1438
▁న్యాయ	-1439
పడ్డారు	-1440
▁శ్రీని	-1441
▁క్రమంలో	-1442
▁ఆరోపణ	-1443
▁ల్లో	-1444
▁బల	-1445
▁పార్ల	-1446
▁సంఖ్య	-1447
▁మీడియాలో	-1448
రికి	-1449
▁సాయ	-1450
▁పోయ	-1451
▁క్రిక	-1452
▁మరింత	-1453
▁డాక్టర్	-1454
▁గి	-1455
▁కాలే	-1456
▁రెండో	-1457
▁శివ	-1458
యల్	-1459
▁జట్టు	-1460
వరణ	-1461
▁పంప	-1462
▁శ్రీనివా	-1463
▁చేస్తూ	-1464
ెస్టు	-1465
▁అభ్యర్థి	-1466
ంటీ	-1467
▁వ్యాప	-1468
రంగా	-1469
రువు	-1470
▁పాల్గొన్నారు	-1471
▁అందుకే	-1472
▁తెలంగాణలో	-1473
▁తెలుస్తోంది	-1474
నుగో	-1475
▁ఆంధ్ర	-1476
▁రాత్రి	-1477
నలు	-1478
▁ఉంటే	-1479
తిరే	-1480
▁చా	-1481
ధిక	-1482
▁వాతా	-1483
రెడ్డి	-1484
▁ఫ్	-1485
వారి	-1486
.5	-1487
గాల	-1488
▁18	-1489
▁వ్యతిరే	-1490
స్తా	-1491
▁కొనసాగు	-1492
న్ను	-1493
▁ప్రభుత్వా	-1494
▁మేరకు	-1495
ణాలు	-1496
▁మళ్లీ	-1497
▁కంటే	-1498
ఫి	-1499
▁ఇలాంటి	-1500
పేట	-1501
ట్స్	-1502
లోనే	-1503
▁ఎందుకు	-1504
▁ప్రజల	-1505
▁ఏం	-1506
▁క్ష	-1507
షనల్	-1508
▁కోల్	-1509
▁ఫై	-1510
ర్మన్	-1511
▁వస్తున్న	-1512
▁25	-1513
యిన్	-1514
పోయిన	-1515
▁హైకోర్టు	-1516
▁A	-1517
భి	-1518
▁అంది	-1519
▁ట్లు	-1520
▁వాహ	-1521
▁!	-1522
ళి	-1523
రాలు	-1524
▁కేటీఆర్	-1525
▁ఆరోపించారు	-1526
రంలో	-1527
▁తీర్	-1528
▁పైగా	-1529
20	-1530
▁చు	-1531
మారు	-1532
▁ంది	-1533
▁నాయకులు	-1534
న్నాయి	-1535
▁జనసేన	-1536
▁తిరిగి	-1537
టంతో	-1538
▁విమా	-1539
▁కలెక్టర్	-1540
మల	-1541
▁రిలీ	-1542
ించేందుకు	-1543
▁అరెస్ట్	-1544
▁బిల్	-1545
బి	-1546
టర్ల	-1547
▁వైరల్	-1548
బడి	-1549
కారు	-1550
▁నగర్	-1551
టల్	-1552
▁భర్	-1553
▁ఐదు	-1554
▁సిబ్బంది	-1555
వాడ	-1556
▁ప్రకటన	-1557
▁తెలిసిందే	-1558
▁జాతీయ	-1559
▁పంచ	-1560
▁అధ్యక్షుడు	-1561
రిక	-1562
వైపు	-1563
▁ఫు	-1564
విధ	-1565
▁మద్దతు	-1566
▁ఇటీవల	-1567
▁ప్రాజెక్టు	-1568
ారణ	-1569
▁స్త	-1570
▁సంగ	-1571
గానే	-1572
▁విన	-1573
ర్స్	-1574
▁ఆధార	-1575
ఎల్	-1576
స్టర్	-1577
ార్లు	-1578
▁కర్ణా	-1579
▁ప్రొ	-1580
▁వారిని	-1581
▁కర్ణాటక	-1582
త్వ	-1583
▁ఆలో	-1584
వ్యా	-1585
ందన్నారు	-1586
▁శని	-1587
▁వెల్లడించారు	-1588
ల్సిన	-1589
▁సోమ	-1590
▁నూ	-1591
▁కొనుగో	-1592
చిన	-1593
▁దృష్	-1594
▁కొందరు	-1595
یں	-1596
బుల్	-1597
▁స్టే	-1598
▁దో	-1599
టరీ	-1600
▁నిల	-1601
▁నింది	-1602
▁నీటి	-1603
▁విజయం	-1604
్యార	-1605
▁కాకుండా	-1606
▁13	-1607
▁కమిటీ	-1608
▁వీటి	-1609
ధు	-1610
ంతు	-1611
యిల్	-1612
▁శుక్ర	-1613
▁س	-1614
▁అక్కడి	-1615
▁తక్కువ	-1616
▁కారు	-1617
▁ఆస	-1618
▁ాల	-1619
▁పెళ్లి	-1620
▁పోలీస్	-1621
ారో	-1622
▁2024	-1623
▁ఎవర	-1624
▁అతి	-1625
▁వస్త	-1626
గంలో	-1627
▁తనకు	-1628
▁హత్య	-1629
ంప్	-1630
ముఖ	-1631
▁17	-1632
ధా	-1633
▁నమ్మ	-1634
▁భార్య	-1635
▁కిలో	-1636
▁రైల్	-1637
▁రోడ్డు	-1638
▁24	-1639
▁పర్	-1640
వన	-1641
▁గురు	-1642
▁అప్ప	-1643
▁బై	-1644
▁మంగళ	-1645
శారు	-1646
▁లైన్	-1647
▁ఇంకా	-1648
▁ఇద్దరు	-1649
కారం	-1650
▁ాయి	-1651
ಲ್	-1652
్యాల	-1653
▁మాట	-1654
▁ఏళ్ల	-1655
▁ఉద్యోగు	-1656
▁చేసుకున్న	-1657
▁అందుకు	-1658
వారు	-1659
ండర్	-1660
▁ఉత్	-1661
▁చోటు	-1662
▁పనులు	-1663
▁కోరారు	-1664
▁పక్క	-1665
▁16	-1666
▁చని	-1667
▁ఫా	-1668
▁ఆంధ్రప్రదేశ్	-1669
▁నిర	-1670
▁వెంకట	-1671
▁తీసుకున్న	-1672
▁షే	-1673
సీసీ	-1674
▁రాశి	-1675
▁200	-1676
▁ఉపయోగ	-1677
▁కేవ	-1678
▁బౌ	-1679
▁బెంగళ	-1680
క్కి	-1681
ంద్	-1682
▁జి	-1683
▁వేయ	-1684
▁అతని	-1685
▁ఆద	-1686
రేషన్	-1687
ారాయ	-1688
▁స్పందించ	-1689
ట్టిన	-1690
▁టికెట్	-1691
పడ	-1692
▁భావి	-1693
▁మర	-1694
▁కర	-1695
సరం	-1696
దాలు	-1697
▁సుప	-1698
▁మారింది	-1699
▁సాగు	-1700
▁కేవలం	-1701
▁బెంగళూరు	-1702
ందా	-1703
▁పరిధి	-1704
పోయింది	-1705
▁రాష్ట్రా	-1706
మై	-1707
▁హెచ్చ	-1708
▁జే	-1709
▁అభిమా	-1710
్యు	-1711
▁లతో	-1712
▁స్కూ	-1713
▁పాకి	-1714
▁మోడీ	-1715
▁దేశంలో	-1716
▁అడుగు	-1717
▁ఎక్స్	-1718
▁అందులో	-1719
▁ఆరోగ్య	-1720
▁ఉంచ	-1721
▁ాడు	-1722
▁ప్రాంతాల్లో	-1723
డిగా	-1724
కరణ	-1725
ండ్ల	-1726
ేందుకు	-1727
▁ఇంటర్	-1728
▁సూచించారు	-1729
ీర్	-1730
▁మొదల	-1731
▁پ	-1732
▁క్రి	-1733
▁ఎవరి	-1734
▁కూటమి	-1735
▁చేశాడు	-1736
మవు	-1737
▁లేక	-1738
▁ఏపీలో	-1739
▁మార్కెట్	-1740
ోర్	-1741
చుకు	-1742
▁పెట్టి	-1743
▁బ్	-1744
పోయారు	-1745
▁ఇక్కడ	-1746
▁నిర్వ	-1747
▁ప్రై	-1748
▁ముగి	-1749
▁అధికారంలోకి	-1750
థ్	-1751
▁కార్యకర్	-1752
▁మారు	-1753
▁సూర్	-1754
▁ఆగ	-1755
▁మృతి	-1756
▁అల	-1757
▁కేంద్రం	-1758
▁و	-1759
జయ్	-1760
చిత	-1761
ాలీ	-1762
.3	-1763
డింగ్	-1764
▁లేని	-1765
▁సంచ	-1766
▁వర్షాలు	-1767
జన	-1768
▁అవసరం	-1769
▁భద్ర	-1770
▁రైల్వే	-1771
నని	-1772
▁భూమి	-1773
▁కష్ట	-1774
ేశ్వ	-1775
▁రోడ్	-1776
▁వైపు	-1777
▁చెప్పు	-1778
▁అనుమ	-1779
▁మరోసారి	-1780
▁తాము	-1781
▁ప్రజలకు	-1782
▁పెట్టు	-1783
▁50	-1784
ఖా	-1785
్రీం	-1786
▁ఎంతో	-1787
యానికి	-1788
రాల	-1789
▁స్పష్టం	-1790
▁తమి	-1791
▁సీనియర్	-1792
▁ప్రవేశ	-1793
చ్చి	-1794
యూ	-1795
వె	-1796
క్రమా	-1797
▁లక్ష్	-1798
▁రిలీజ్	-1799
▁సంద	-1800
ామన్నారు	-1801
▁కొనుగోలు	-1802
ణు	-1803
▁ఆలోచ	-1804
▁పోరా	-1805
▁ఆసక్తి	-1806
జ్ర	-1807
▁యో	-1808
ెండ్	-1809
▁మండి	-1810
▁ఉంటాయి	-1811
▁చివరి	-1812
▁అవసర	-1813
▁వరు	-1814
లేదని	-1815
▁అంతే	-1816
▁తెర	-1817
గింది	-1818
కార్	-1819
▁చెల్ల	-1820
▁సేవ	-1821
▁అందుబాటు	-1822
సై	-1823
▁ప్లే	-1824
▁సమయం	-1825
یا	-1826
▁రావ	-1827
▁కాల్	-1828
▁2023	-1829
స్టి	-1830
▁తరల	-1831
ండ్రి	-1832
▁సామా	-1833
▁సొంత	-1834
▁ವ	-1835
▁ారని	-1836
▁మీరు	-1837
స్తాన్	-1838
వ్యాప్తంగా	-1839
డులు	-1840
▁తొల	-1841
తిని	-1842
రియా	-1843
▁రాజీ	-1844
▁ప్రకటించారు	-1845
పొ	-1846
ధులు	-1847
▁పాట	-1848
▁ప్రమాదం	-1849
ష్య	-1850
ర్ట్	-1851
▁వివిధ	-1852
▁సుప్రీం	-1853
ేమ	-1854
▁గంటలకు	-1855
▁ನ	-1856
▁స్వీ	-1857
▁వ్యవస్థ	-1858
▁గ్రూ	-1859
మ్స్	-1860
▁మరణ	-1861
▁కార్యాల	-1862
▁మరియు	-1863
▁పరుగులు	-1864
▁మైన	-1865
▁పోలింగ్	-1866
▁ఆహ	-1867
డుకు	-1868
▁వ్యాఖ్యలు	-1869
▁ఫీ	-1870
▁నాగ	-1871
▁బస్సు	-1872
▁తెలుసుకు	-1873
▁ఇంత	-1874
▁అడి	-1875
ప్పటికీ	-1876
▁లేకపో	-1877
▁లోకి	-1878
▁నరే	-1879
టర్లు	-1880
ర్ల	-1881
▁డైరెక్టర్	-1882
▁ముందుకు	-1883
ాలపై	-1884
నేందుకు	-1885
కోవాలి	-1886
▁గాయ	-1887
▁ఆత్మ	-1888
శే	-1889
▁వృ	-1890
▁వీరి	-1891
▁సర్వే	-1892
.2	-1893
▁పోస్టు	-1894
ద్యా	-1895
▁నిర్వహి	-1896
క్త	-1897
ప్తు	-1898
వరకు	-1899
▁ఇబ్బ	-1900
▁లాంటి	-1901
▁వేదిక	-1902
▁నిజ	-1903
▁ప్రముఖ	-1904
▁రోజుల్లో	-1905
వుల	-1906
కింగ్	-1907
▁జూన్	-1908
మయ్య	-1909
▁నిర్వహించారు	-1910
ర్ర	-1911
శాల	-1912
▁అప్పటి	-1913
ోత్స	-1914
బ్ర	-1915
▁అప్	-1916
▁ఇంట్లో	-1917
జిక	-1918
క్టో	-1919
▁ఫలిత	-1920
▁మండల	-1921
▁పూజ	-1922
▁కట్ట	-1923
▁జైలు	-1924
▁వాటిని	-1925
ల్లా	-1926
▁ప్రమాద	-1927
▁సంబంధించి	-1928
▁అనేది	-1929
▁శుక్రవారం	-1930
ండీ	-1931
బీసీ	-1932
▁ن	-1933
▁కృ	-1934
సెస్	-1935
డిని	-1936
▁పరిష్	-1937
▁క్రికెట్	-1938
▁రాయ	-1939
తన	-1940
వంత	-1941
▁బొ	-1942
▁చైర్మన్	-1943
▁ఎన్నికలు	-1944
▁ఇబ్బందు	-1945
▁బోర్	-1946
తిలో	-1947
▁వివరించారు	-1948
▁చేస్తే	-1949
▁బాధ	-1950
నె	-1951
▁R	-1952
ెట్టి	-1953
▁మరోవైపు	-1954
▁సోమవారం	-1955
▁శ్రీనివాస్	-1956
▁చేస్తు	-1957
▁పరిశీల	-1958
▁అభిప్ర	-1959
▁దీనికి	-1960
▁కార్యక్రమా	-1961
ళ్ళ	-1962
రులు	-1963
▁బాధి	-1964
ంగల్	-1965
ారాయణ	-1966
▁ఎవ	-1967
▁మాన	-1968
ంత్రం	-1969
▁దీనిపై	-1970
▁యాద	-1971
▁నివే	-1972
▁అందరి	-1973
▁చేసేందుకు	-1974
దో	-1975
▁బుధ	-1976
ారిటీ	-1977
▁ఇజ్ర	-1978
▁ముంబ	-1979
▁ఎన్న	-1980
ితా	-1981
▁శం	-1982
▁అధినే	-1983
▁జరిగే	-1984
▁ఉంటుందని	-1985
▁కనిపించ	-1986
పాల్	-1987
▁బాగా	-1988
సభ	-1989
్రియ	-1990
▁బయటకు	-1991
▁రిజర్	-1992
నింగ్	-1993
వుడ్	-1994
▁ఎయి	-1995
▁దృష్టి	-1996
గిరి	-1997
మాన్	-1998
హన్	-1999
▁టె	-2000
▁సెల	-2001
డుతున్న	-2002
▁కేసులు	-2003
ణీ	-2004
▁అండ్	-2005
▁ప్రశ్నించారు	-2006
▁ఆరు	-2007
వచ్చు	-2008
▁వస్తే	-2009
▁పాలన	-2010
▁సంక్ష	-2011
▁అప్పు	-2012
▁22	-2013
▁న్	-2014
▁పంట	-2015
ప్షన్	-2016
▁దర్యా	-2017
గ్రహం	-2018
▁దక్షి	-2019
మూ	-2020
▁పేరుతో	-2021
▁నమోద	-2022
▁చేయడానికి	-2023
▁మంత్ర	-2024
▁కృష్ణ	-2025
▁గే	-2026
▁లలో	-2027
ొచ్చు	-2028
▁అర్థ	-2029
▁ప్రతిపక్ష	-2030
ళీ	-2031
▁ఇజ్రాయ	-2032
▁బంగారం	-2033
▁బ్ర	-2034
నుక	-2035
టీసీ	-2036
▁ب	-2037
పాల	-2038
▁కమ	-2039
▁నేడు	-2040
▁తీసుకె	-2041
▁స్వామి	-2042
ెబ్బ	-2043
▁తమిళ	-2044
▁బాబు	-2045
పటి	-2046
పురం	-2047
▁చేరి	-2048
తల	-2049
▁అద	-2050
▁ఆదివారం	-2051
లియా	-2052
▁కవిత	-2053
▁ప్రస	-2054
▁చెన్న	-2055
▁దర్యాప్తు	-2056
▁వయ	-2057
▁బీసీ	-2058
▁విస్త	-2059
▁పేర్కొంది	-2060
▁ఒకే	-2061
▁శరీ	-2062
పం	-2063
నగర్	-2064
▁స్టా	-2065
▁సాయంత్రం	-2066
స్తున్నాయి	-2067
▁చేస	-2068
▁తప్పు	-2069
▁రద్దు	-2070
▁చీఫ్	-2071
▁రైతులు	-2072
న్సిప	-2073
▁వరద	-2074
▁ఆరోపణలు	-2075
▁అక్రమ	-2076
▁చేశారని	-2077
ండ్ర	-2078
▁తేదీన	-2079
దుపు	-2080
▁కల్యా	-2081
▁విలువ	-2082
▁ఎమ్మెల్సీ	-2083
▁ಸ	-2084
▁ఓటు	-2085
▁ఆట	-2086
▁ఓవర్	-2087
పించారు	-2088
▁వాతావరణ	-2089
▁మంగళవారం	-2090
కృష్ణ	-2091
▁బ్రి	-2092
ంస	-2093
▁సహాయ	-2094
▁సంజయ్	-2095
▁అభిమాను	-2096
▁ఏర్పా	-2097
రుపు	-2098
▁కేటాయ	-2099
వాళ	-2100
▁వరకూ	-2101
▁శనివారం	-2102
హ్మ	-2103
ట్టే	-2104
▁మండలం	-2105
▁అంచనా	-2106
▁అయ్యారు	-2107
లాండ్	-2108
▁అధినేత	-2109
ృష్ట	-2110
▁ఎల్	-2111
▁ఇజ్రాయెల్	-2112
▁మార్చి	-2113
జ్ఞ	-2114
▁మని	-2115
▁పోస్ట్	-2116
రావు	-2117
కరించ	-2118
▁పిటి	-2119
▁హు	-2120
▁ప్రయాణి	-2121
▁ఆప	-2122
▁ت	-2123
▁తది	-2124
▁పార్టీకి	-2125
▁జరుగుతున్న	-2126
▁దక్క	-2127
మిక	-2128
▁21	-2129
▁సహా	-2130
""	-2131
▁వస	-2132
▁వంద	-2133
▁వాళ్లు	-2134
▁ముగ్గు	-2135
▁చెప్పిన	-2136
▁నడు	-2137
▁డ్రై	-2138
▁రైలు	-2139
ప్పి	-2140
్యూటీ	-2141
వాల్సి	-2142
కిత్స	-2143
▁స్థానిక	-2144
▁శుభ	-2145
ారాన్ని	-2146
▁కార్యక్రమంలో	-2147
మ్మి	-2148
▁విశాఖ	-2149
▁సభ్యులు	-2150
రుగా	-2151
సిటీ	-2152
▁సిటీ	-2153
డికి	-2154
ంక	-2155
సుప	-2156
్రమ	-2157
త్వం	-2158
▁తగ్	-2159
దర్శి	-2160
▁లోనూ	-2161
▁పదవి	-2162
ితం	-2163
▁కళ్యా	-2164
▁పంపి	-2165
▁తయారు	-2166
▁టెక్	-2167
▁విద్యా	-2168
ప్తి	-2169
స్థాన్	-2170
▁అత్యంత	-2171
▁అయినా	-2172
▁ఎత్తు	-2173
▁విధంగా	-2174
్రిల్	-2175
▁భర్త	-2176
▁విదేశ	-2177
పడిన	-2178
▁పెట్టుకు	-2179
పుణ	-2180
▁నిజా	-2181
▁సమస్యలు	-2182
▁ಮ	-2183
ణంలో	-2184
రీస్	-2185
▁నివేదిక	-2186
▁చేస్తామని	-2187
▁సంతో	-2188
▁విమర్శించారు	-2189
చారు	-2190
▁బంధ	-2191
▁లోనే	-2192
▁రోజులు	-2193
స్వామి	-2194
పుడు	-2195
▁మహిళా	-2196
▁గురువారం	-2197
▁జరిగి	-2198
▁పల్లి	-2199
▁మందికి	-2200
▁నట	-2201
▁స్థాయిలో	-2202
మంది	-2203
▁నిమి	-2204
▁పార్లమెంట్	-2205
్యంగా	-2206
▁ఆసుప	-2207
▁ప్రాంతంలో	-2208
▁మాట్లాడారు	-2209
డ్జ	-2210
▁స్తు	-2211
▁విక్ర	-2212
▁ల్యా	-2213
సె	-2214
ర్మి	-2215
▁కప్	-2216
▁గవర్	-2217
▁మొదలు	-2218
▁భారీగా	-2219
▁నిరసన	-2220
▁సూపర్	-2221
▁చికిత్స	-2222
▁అంగ	-2223
▁సింగ	-2224
▁బిల్లు	-2225
▁పది	-2226
తులకు	-2227
మైంది	-2228
దేశం	-2229
▁కంట	-2230
▁యుద్ధ	-2231
▁కావడంతో	-2232
▁పార్టీలో	-2233
రంగ	-2234
రావ	-2235
▁ఐపీ	-2236
▁దశ	-2237
▁నామ	-2238
▁చైనా	-2239
▁కీ	-2240
ాలంటే	-2241
▁బీబీసీ	-2242
ందం	-2243
▁అరెస్టు	-2244
లన	-2245
▁ప్రేమ	-2246
▁గెలు	-2247
▁చేరు	-2248
▁భారతీయ	-2249
కార	-2250
▁అంతర్	-2251
▁అక్టో	-2252
▁ప్రైవే	-2253
▁భక్తులు	-2254
▁ట్యా	-2255
▁షి	-2256
▁చేసినట్లు	-2257
▁తీసుకో	-2258
▁దారు	-2259
▁సాధారణ	-2260
ట్రో	-2261
నియా	-2262
▁100	-2263
▁ఎదుర్కొ	-2264
గాయి	-2265
▁రాజ్	-2266
▁షర్మి	-2267
డమే	-2268
▁అడ్డు	-2269
▁నెలకొ	-2270
▁గ్రామా	-2271
▁ఆన్	-2272
▁కాపా	-2273
▁పర్యటన	-2274
ಲ್ಲ	-2275
ాబాద్	-2276
▁వరంగల్	-2277
▁నై	-2278
ులను	-2279
▁తమకు	-2280
▁పాఠ	-2281
▁ప్రభావం	-2282
▁0	-2283
▁వాళ్ల	-2284
డ్జెట్	-2285
ంక్	-2286
▁సమీప	-2287
▁డిస	-2288
తులను	-2289
▁ందుకు	-2290
▁ఎయిర్	-2291
ar	-2292
▁నరేంద్ర	-2293
▁ఎక్క	-2294
▁ఈసారి	-2295
▁దెబ్బ	-2296
▁మున్సిప	-2297
▁کے	-2298
▁د	-2299
ప్రిల్	-2300
▁ప్రకటించింది	-2301
▁వరుస	-2302
బట్టి	-2303
▁ఖర్చు	-2304
▁బుధవారం	-2305
▁వు	-2306
▁దాఖ	-2307
సన్	-2308
▁విద్యుత్	-2309
గ్రత్త	-2310
▁సెప్ట	-2311
ాలే	-2312
▁గ్	-2313
▁ఉపా	-2314
ొక	-2315
గతి	-2316
కెట్లు	-2317
▁ప్లాన్	-2318
▁చేయాలి	-2319
ఫిక	-2320
▁భావ	-2321
▁వరల్డ్	-2322
రాజ్	-2323
▁అడ్	-2324
▁నాకు	-2325
▁హక్కు	-2326
▁డిప	-2327
▁ಕ	-2328
▁తండ్రి	-2329
▁ముఖ్యంగా	-2330
లిం	-2331
▁క్వ	-2332
కోవడానికి	-2333
▁బే	-2334
టై	-2335
▁అసలు	-2336
స్ట్రే	-2337
▁ఎల	-2338
▁అయి	-2339
బీఐ	-2340
▁న్న	-2341
ప్పుడ	-2342
వాస	-2343
▁పర	-2344
▁ج	-2345
▁వినియోగ	-2346
▁ఇవ్వాలని	-2347
ద్దీ	-2348
▁వేడు	-2349
▁పిటిషన్	-2350
▁C	-2351
▁దర	-2352
▁పలువు	-2353
నామా	-2354
▁నటి	-2355
▁కార్మి	-2356
క్ట్	-2357
▁చరి	-2358
▁పదే	-2359
▁40	-2360
▁బహి	-2361
▁కళ్యాణ్	-2362
▁کی	-2363
దులు	-2364
▁ట్టు	-2365
▁వేగ	-2366
▁బెయిల్	-2367
▁కామెంట్	-2368
డవ	-2369
▁పౌ	-2370
ితంగా	-2371
▁జిల్లాల్లో	-2372
▁సుప్రీంకోర్టు	-2373
▁ఎంప	-2374
▁హాజర	-2375
▁తీర్పు	-2376
▁అంటున్నారు	-2377
▁జాగ్రత్త	-2378
▁మండిపడ్డారు	-2379
▁క్ల	-2380
▁తోపాటు	-2381
▁సిరీస్	-2382
▁రికార్డు	-2383
▁అవి	-2384
▁నోటీ	-2385
▁విమర్శలు	-2386
▁నష్ట	-2387
ఖాస్తు	-2388
▁తెచ్చ	-2389
ెడ	-2390
చూ	-2391
జూ	-2392
కులకు	-2393
యాల్లో	-2394
▁అలాంటి	-2395
పరి	-2396
▁వెళ్లే	-2397
▁ఎంపిక	-2398
సిడ	-2399
ళ్లకు	-2400
లిక	-2401
▁గ్రూప్	-2402
▁దరఖాస్తు	-2403
▁ఫే	-2404
ెన్సీ	-2405
▁ఆన	-2406
మ్మడి	-2407
ించాడు	-2408
ించడానికి	-2409
▁కామ	-2410
▁పూర్తిగా	-2411
▁S	-2412
▁మహా	-2413
చింది	-2414
▁ఖమ్మ	-2415
▁శక్తి	-2416
▁ధరలు	-2417
▁ఎదురు	-2418
▁బడ్జెట్	-2419
ౌన్	-2420
▁ఉన్నట్లు	-2421
ఠా	-2422
▁28	-2423
▁హింద	-2424
షే	-2425
హె	-2426
బితా	-2427
మిత్	-2428
▁విషయాన్ని	-2429
▁సమావేశం	-2430
▁ఏప్రిల్	-2431
▁స్థానంలో	-2432
▁ఇబ్బందులు	-2433
రస్	-2434
▁ఆడ	-2435
ంగి	-2436
ండ్లు	-2437
▁కోరు	-2438
▁ఫైన	-2439
▁ఇంటికి	-2440
▁میں	-2441
▁వేడుక	-2442
ధ్యా	-2443
▁ఇండ	-2444
▁పెం	-2445
▁బాధ్యత	-2446
గాల్లో	-2447
▁కొద్ది	-2448
లేక	-2449
▁2019	-2450
▁డబ్బులు	-2451
▁మహారా	-2452
గూడ	-2453
▁పట్టు	-2454
▁ప్యా	-2455
▁సెంటర్	-2456
▁గుండ	-2457
▁రాజు	-2458
▁ఈరోజు	-2459
▁అవకాశాలు	-2460
▁భయ	-2461
ృతి	-2462
▁చేసారు	-2463
రియ	-2464
▁ట్రై	-2465
ుకున్న	-2466
▁దిగ	-2467
▁ాం	-2468
▁P	-2469
ముల	-2470
లాల	-2471
పోయి	-2472
▁యాత్ర	-2473
▁మూడో	-2474
డత	-2475
ికా	-2476
▁వచ్చాయి	-2477
▁కురి	-2478
▁అధికారి	-2479
▁ఆక	-2480
▁విజయవాడ	-2481
కరి	-2482
▁లాభ	-2483
▁హరీ	-2484
▁సైతం	-2485
▁సెక	-2486
▁అనుమా	-2487
000	-2488
▁కనీ	-2489
▁ఒకటి	-2490
▁నుంచ	-2491
లియన్	-2492
▁తెలుసు	-2493
వంబర్	-2494
▁వివే	-2495
▁ఉండగా	-2496
▁చేసుకున్నారు	-2497
ంగ్స్	-2498
▁ఆయనకు	-2499
▁బృ	-2500
▁అదుపు	-2501
▁ముంబై	-2502
▁ప్రయోజ	-2503
▁23	-2504
▁లభ	-2505
▁చదు	-2506
య్యాయి	-2507
జె	-2508
▁వన్	-2509
ట్లను	-2510
▁స్పె	-2511
▁కన్	-2512
▁దీన్ని	-2513
టివ్	-2514
ధుల	-2515
▁పొత్తు	-2516
▁సమర్	-2517
▁సీపీ	-2518
▁ప్రేక్ష	-2519
ళ్లను	-2520
▁వాయి	-2521
▁రాజీనామా	-2522
▁కార్యదర్శి	-2523
▁T	-2524
▁ఫ్ర	-2525
▁రూపొ	-2526
▁ట్వీ	-2527
▁తిరుమల	-2528
▁పొంద	-2529
▁గణ	-2530
▁చేస్తారు	-2531
▁సమావేశంలో	-2532
▁కాబట్టి	-2533
▁చొ	-2534
నాడు	-2535
పెట్ట	-2536
ార్ట్	-2537
▁పలువురు	-2538
▁ఆస్ప	-2539
▁పార్టీల	-2540
యన్స్	-2541
▁అవినీ	-2542
తున్నారని	-2543
నంగా	-2544
▁ఎందు	-2545
▁కల్యాణ్	-2546
ష్ట్ర	-2547
▁కాలేజీ	-2548
▁గల	-2549
▁చరిత్ర	-2550
▁వ్యాప్తంగా	-2551
▁సిద్ద	-2552
▁ప్రచార	-2553
▁అనుకూ	-2554
▁సబ్	-2555
▁సంప్ర	-2556
▁పాకిస్తాన్	-2557
టువ	-2558
చ్చని	-2559
▁ఉచిత	-2560
▁నిరు	-2561
▁సంక్షేమ	-2562
హ్నం	-2563
▁నడి	-2564
▁ప్రసా	-2565
▁ఇవాళ	-2566
▁కార్పొ	-2567
▁ఐటీ	-2568
▁నీరు	-2569
▁ఉత్తర	-2570
కొండ	-2571
▁చేర	-2572
▁మద్య	-2573
టువంటి	-2574
దిరి	-2575
▁రోహి	-2576
▁ాన్ని	-2577
▁పార్టీలు	-2578
▁సంత	-2579
ళ్లలో	-2580
▁సామాజిక	-2581
▁27	-2582
▁మధ్యా	-2583
▁కాలంలో	-2584
▁లెక్క	-2585
▁ఉమ్మడి	-2586
▁విధాన	-2587
▁జాబితా	-2588
▁కనిప	-2589
▁నిమిష	-2590
▁షర్మిల	-2591
▁ఇబ్బంది	-2592
▁తీసుకున్నారు	-2593
ఖీ	-2594
ల్ని	-2595
టిఫిక	-2596
▁పారి	-2597
▁జనవరి	-2598
▁నిపుణ	-2599
▁అభిప్రాయ	-2600
▁ఇంగ్	-2601
▁సభలో	-2602
▁ఆస్ట్రే	-2603
▁రామ్	-2604
▁ఆసుపత్రి	-2605
▁స్పష్ట	-2606
▁పోలీసులకు	-2607
స్త్ర	-2608
▁ఎన్టీఆర్	-2609
▁గిరి	-2610
▁పండు	-2611
▁తీరు	-2612
▁ఇచ్చింది	-2613
▁/	-2614
▁26	-2615
▁బండి	-2616
▁విశ్వ	-2617
▁అద్	-2618
హెచ్	-2619
▁స్థి	-2620
.4	-2621
▁ఎగ్	-2622
స్తాయి	-2623
▁మనం	-2624
▁సీట్లు	-2625
ష్ణ	-2626
▁కొండ	-2627
▁కాదని	-2628
▁వర్షం	-2629
▁వ్యవస	-2630
ాప	-2631
▁ప్రయత్నం	-2632
▁చేయా	-2633
▁కారణం	-2634
▁గుర్తి	-2635
ానీ	-2636
▁సము	-2637
▁తీసుకొచ్చ	-2638
▁డిసెంబర్	-2639
లవ	-2640
▁1,	-2641
కంటే	-2642
లిన	-2643
ఫిక్	-2644
్వర్	-2645
▁అంబ	-2646
భవ	-2647
▁చూప	-2648
▁అక్టోబర్	-2649
▁ఎన్నో	-2650
▁భవి	-2651
▁మిగి	-2652
ంటుంది	-2653
▁అధికారిక	-2654
▁కలిగి	-2655
▁కెప్ట	-2656
▁వస్తుంది	-2657
▁యూనివర్	-2658
కేష్	-2659
▁గర్	-2660
ించినట్లు	-2661
▁ాయ	-2662
▁ఈడీ	-2663
▁సెప్టెంబర్	-2664
షనర్	-2665
▁నెలల	-2666
▁ఎక్కడ	-2667
▁నిబంధ	-2668
్యాన్ని	-2669
▁వది	-2670
▁గ్యా	-2671
▁పేద	-2672
▁లేఖ	-2673
ార్డ్	-2674
▁యాదవ్	-2675
in	-2676
ళం	-2677
ತ್	-2678
రణ్	-2679
▁రష	-2680
▁రహ	-2681
▁షో	-2682
ద్దేశ	-2683
▁తనను	-2684
▁సూర్య	-2685
▁పత్ర	-2686
్వర్యంలో	-2687
▁గుండె	-2688
▁విభా	-2689
▁ఖమ్మం	-2690
▁ట్వీట్	-2691
▁భవిష్య	-2692
▁నిర్వహించ	-2693
▁భే	-2694
▁సామ	-2695
▁రేపు	-2696
▁ఇచ్చి	-2697
ేశ్వర	-2698
▁పడ్డ	-2699
▁కమిషన్	-2700
▁తిరుపతి	-2701
▁క్యాప్షన్	-2702
రేట్	-2703
▁నర్	-2704
▁ఉత్ప	-2705
▁కస్ట	-2706
▁ప్రీ	-2707
▁వ్యూ	-2708
న్లు	-2709
ాలలో	-2710
▁సీబీఐ	-2711
▁అందుబాటులో	-2712
▁ఎవరు	-2713
ఖ్యా	-2714
ఫ్ట్	-2715
▁ధర్	-2716
▁ప్రో	-2717
▁జయ	-2718
▁అనుకు	-2719
▁తీవ్రంగా	-2720
▁ముగ్గురు	-2721
ఎఫ్	-2722
▁ఆడి	-2723
▁సర్వీ	-2724
▁చేస్తున్నారని	-2725
భు	-2726
ట్ర	-2727
▁అరు	-2728
▁మరికొ	-2729
▁ఆస్ట్రేలియా	-2730
al	-2731
టిల్	-2732
▁అల్	-2733
▁చాల	-2734
ినేషన్	-2735
▁ఉన్నా	-2736
▁సంతోష	-2737
రించారు	-2738
▁అవినీతి	-2739
▁నిర్వహించిన	-2740
ూరి	-2741
తుల్లో	-2742
ూర్తి	-2743
▁ఇక్క	-2744
ంశ	-2745
శ్ర	-2746
▁తెలిసింది	-2747
▁ఆధ్వర్యంలో	-2748
▁అమిత్	-2749
▁మహిళలు	-2750
▁ఆగస్టు	-2751
బె	-2752
▁కన	-2753
గ్రా	-2754
▁ఇంట	-2755
రవ	-2756
ంక్ష	-2757
▁నియమ	-2758
ించుకో	-2759
▁గవర్నర్	-2760
▁బ్యాంక్	-2761
▁స్పీ	-2762
▁హెచ్	-2763
▁సినిమాలో	-2764
▁ఎఫ్	-2765
▁సత్య	-2766
హత్య	-2767
▁‍	-2768
జాతీయ	-2769
▁ఆత్మహత్య	-2770
▁گ	-2771
▁తొలగ	-2772
▁వేసి	-2773
▁స్కా	-2774
నో	-2775
బూ	-2776
▁అడ	-2777
▁ఖాన్	-2778
▁తిన	-2779
▁బ్రా	-2780
▁వారం	-2781
▁ರ	-2782
▁ఒత్తి	-2783
▁ానికి	-2784
▁ప్రెస్	-2785
▁ر	-2786
▁పొందు	-2787
▁స్నే	-2788
▁చేస్తోంది	-2789
ంబా	-2790
రానికి	-2791
▁చేస్తుంది	-2792
▁ప్రభుత్వానికి	-2793
▁ఉండాలని	-2794
▁రైతులకు	-2795
▁క్రీ	-2796
▁మెడి	-2797
▁చేయాల	-2798
▁గుర్తించారు	-2799
▁షేర్	-2800
▁మద్యం	-2801
▁మధ్యాహ్నం	-2802
▁ఆమో	-2803
▁వెన	-2804
ములు	-2805
▁బ్లా	-2806
▁సంఘం	-2807
కుమార్	-2808
▁చదువు	-2809
ఖర్	-2810
▁వివరాలు	-2811
కౌ	-2812
ణంగా	-2813
▁చెన్నై	-2814
▁దుర్	-2815
ನ್	-2816
ల్చి	-2817
ంపల్లి	-2818
▁వెనుక	-2819
▁ప్పుడు	-2820
▁అంతర్జాతీయ	-2821
ఫర్	-2822
డంలో	-2823
ద్రా	-2824
▁సీజన్	-2825
▁హౌ	-2826
▁వ్యాపార	-2827
టెడ్	-2828
వల్ల	-2829
▁చార్	-2830
▁దాఖలు	-2831
▁విషయ	-2832
▁ఉన్నాయని	-2833
▁రాష్ట్రాల్లో	-2834
సింగ్	-2835
▁అందరూ	-2836
▁ఆగ్రహం	-2837
▁ప్రక్రియ	-2838
▁మహారాష్ట్ర	-2839
ور	-2840
▁రోహిత్	-2841
▁తీసుకోవాలని	-2842
▁ప్రతిని	-2843
తోందని	-2844
▁నవంబర్	-2845
చ్చారు	-2846
▁ఇచ్చే	-2847
▁ఉద్దేశ	-2848
శు	-2849
్రీన్	-2850
్యో	-2851
▁పట్ల	-2852
షణ	-2853
గ్య	-2854
▁బరి	-2855
▁మారి	-2856
▁రిపో	-2857
▁విరా	-2858
▁పెట్టారు	-2859
రింగ్	-2860
▁ట్వి	-2861
▁అత్యధిక	-2862
టన్	-2863
▁సుమారు	-2864
▁నివ	-2865
▁వాడ	-2866
సార్లు	-2867
వాసం	-2868
▁31	-2869
▁కురు	-2870
▁అనుమతి	-2871
▁జె	-2872
దండ్ర	-2873
▁వెల్లడించింది	-2874
▁సీఐ	-2875
▁ప్రె	-2876
▁బహిరంగ	-2877
తను	-2878
ించుకున్న	-2879
▁నిరా	-2880
యోగం	-2881
▁సీత	-2882
▁న్యూస్	-2883
గల	-2884
రాల్లో	-2885
రగా	-2886
▁అద్భు	-2887
▁తగ్గి	-2888
▁పూర్త	-2889
▁తల్లిదండ్ర	-2890
▁రుణ	-2891
▁అతను	-2892
▁క్యూ	-2893
ంహ	-2894
మ్ము	-2895
▁శర్మ	-2896
▁రావడం	-2897
▁వెబ్	-2898
హీ	-2899
▁జరుపు	-2900
ంగు	-2901
▁కరీ	-2902
▁వడ్	-2903
▁అర్హ	-2904
▁మెగా	-2905
▁ఎప్పుడ	-2906
▁వికెట్	-2907
▁దిశ	-2908
▁హాజరు	-2909
ించారని	-2910
▁ఆస్పత్రి	-2911
ంబర్	-2912
▁మెద	-2913
వేత్త	-2914
▁వెళ్లిన	-2915
ra	-2916
▁సెల్	-2917
ఫె	-2918
▁ఔ	-2919
ౌండ్	-2920
▁29	-2921
▁కోహ్	-2922
▁గమ	-2923
▁అంతేకా	-2924
▁I	-2925
పాద	-2926
ಲ್ಲಿ	-2927
▁కిలోమీ	-2928
ఎన్	-2929
▁కాన్	-2930
▁నిన్న	-2931
▁నేషనల్	-2932
గీ	-2933
▁B	-2934
ాను	-2935
గానికి	-2936
▁కొట్ట	-2937
▁పాఠశాల	-2938
▁ఆధారంగా	-2939
▁జిల్లాలోని	-2940
▁),	-2941
▁ఫోటో	-2942
▁వాదన	-2943
ణ్య	-2944
యంగా	-2945
▁ఆహ్	-2946
▁ہے	-2947
గొండ	-2948
▁చూసి	-2949
▁భేటీ	-2950
నాన్ని	-2951
▁రూపాయలు	-2952
▁భో	-2953
▁ఓడి	-2954
▁ఏడు	-2955
▁ఆలోచన	-2956
▁రైతుల	-2957
సిడెంట్	-2958
▁ఆదేశించారు	-2959
ంభ	-2960
ండే	-2961
ైల్	-2962
▁షూ	-2963
ధాని	-2964
▁లోకేష్	-2965
నిక	-2966
వాల్సిన	-2967
మర్	-2968
▁విజయ్	-2969
▁పంపిణీ	-2970
▁వ్యతిరేక	-2971
),	-2972
జం	-2973
▁గౌడ్	-2974
▁దిగు	-2975
▁నిద్ర	-2976
▁ప్రతీ	-2977
▁సంప్రద	-2978
▁వేదికగా	-2979
▁రష్యా	-2980
ున	-2981
▁భు	-2982
▁లేదన్నారు	-2983
▁విద్యార్థులు	-2984
▁లక్షలు	-2985
గత	-2986
▁ದ	-2987
గ్రీ	-2988
▁షాక్	-2989
▁గుర్తింపు	-2990
▁దేవ	-2991
▁సమాధ	-2992
▁କ	-2993
▁ಗ	-2994
ంపే	-2995
రుల	-2996
ండియా	-2997
▁సరైన	-2998
▁ఏర్పాట్లు	-2999
ار	-3000
▁సాయి	-3001
▁య్య	-3002
షియల్	-3003
▁హ్యా	-3004
లిక్	-3005
▁ఆర్టీసీ	-3006
వల్	-3007
▁చౌ	-3008
▁పోష	-3009
ంనగర్	-3010
▁ఫ్యాన్స్	-3011
▁సంవత్సరం	-3012
డప	-3013
▁రవి	-3014
▁క్రితం	-3015
▁వేశారు	-3016
వేషన్	-3017
▁టార్	-3018
▁హాస్	-3019
▁కల్పించ	-3020
▁కెప్టెన్	-3021
▁ట్రాఫిక్	-3022
రుగ	-3023
ెక్ట్	-3024
▁నుంచే	-3025
▁అవార్డు	-3026
▁ుకు	-3027
▁రాష్ట్రం	-3028
▁కృషి	-3029
▁రూపాయల	-3030
▁స్కూల్	-3031
ంగ్లా	-3032
▁దేశం	-3033
▁ఆఫీసర్	-3034
▁నిందితు	-3035
ోధ	-3036
ಡಿ	-3037
▁సినీ	-3038
▁మార్పులు	-3039
తిక	-3040
▁తరలి	-3041
▁బంగ్లా	-3042
▁మంత్రులు	-3043
స్తో	-3044
▁మంట	-3045
▁శ్రే	-3046
ద్రి	-3047
▁జన్	-3048
▁సర్కార్	-3049
▁చెప్పింది	-3050
లింది	-3051
▁2022	-3052
▁సారి	-3053
▁కుమారు	-3054
ెక్ట	-3055
▁పాయి	-3056
▁ప్రశ్న	-3057
▁ప్రయత్ని	-3058
ేష్	-3059
కులను	-3060
▁ఫుడ్	-3061
▁తిరుగు	-3062
పర	-3063
▁ఐపీఎల్	-3064
▁వచ్చారు	-3065
ుడి	-3066
నాలను	-3067
▁పిల్లలు	-3068
ట్నం	-3069
▁అయింది	-3070
▁ఎమ్మెల్యేలు	-3071
షా	-3072
ించాలి	-3073
పులు	-3074
▁కూడిన	-3075
▁బోర్డు	-3076
▁తీసుకుంట	-3077
▁M	-3078
ించా	-3079
ంచు	-3080
▁ఆహ్వా	-3081
స్తుందని	-3082
▁ందని	-3083
▁వయసు	-3084
▁కనీసం	-3085
▁కరీంనగర్	-3086
▁ప్రారంభించారు	-3087
సార్	-3088
తరులు	-3089
▁అంశం	-3090
▁అప్ర	-3091
▁ఉండాలి	-3092
▁దక్షిణ	-3093
ద్యో	-3094
▁అగ్ర	-3095
▁ప్పటి	-3096
▁వ్యాఖ్యా	-3097
ంచ్	-3098
▁సంఘటన	-3099
▁కొడుకు	-3100
▁కుల	-3101
తాయని	-3102
▁ఎవరూ	-3103
▁ಪ	-3104
▁హను	-3105
▁ఉద్యమ	-3106
▁అదన	-3107
▁గూ	-3108
ొక్క	-3109
▁గుజ	-3110
▁ప్రదర్శ	-3111
▁బ్యాంకు	-3112
▁ఇవి	-3113
▁వీర	-3114
▁రాలే	-3115
బ్రవరి	-3116
▁సంగతి	-3117
▁స్క	-3118
▁కావడం	-3119
▁సముద్ర	-3120
▁అయ్యింది	-3121
ండు	-3122
గులు	-3123
శ్చి	-3124
▁మంజ	-3125
▁జడ్	-3126
కేషన్	-3127
▁ఒక్కో	-3128
▁దానికి	-3129
▁నాయుడు	-3130
▁కూతు	-3131
▁సీటు	-3132
▁మల్ల	-3133
స్తులు	-3134
కోవచ్చు	-3135
▁భారతదేశ	-3136
ధీ	-3137
▁కాలం	-3138
సారిగా	-3139
▁నీళ్లు	-3140
▁యూనివర్సిటీ	-3141
▁అట	-3142
▁ఓటమి	-3143
▁విశ్	-3144
నున్నాయి	-3145
హాలు	-3146
▁ఖాళీ	-3147
▁అవుతుంది	-3148
▁వ్యతిరేకంగా	-3149
▁మౌ	-3150
▁ముందే	-3151
▁నియోజకవర్గం	-3152
▁తని	-3153
▁వేళ	-3154
▁అంతా	-3155
▁పుష్	-3156
▁ఫార్	-3157
▁సాయం	-3158
వాన్ని	-3159
▁అర్థం	-3160
▁పాత	-3161
▁ఒప్ప	-3162
▁సృష్ట	-3163
▁దాన్ని	-3164
కరించారు	-3165
హన	-3166
▁చెంద	-3167
పడింది	-3168
ారానికి	-3169
▁ఇరు	-3170
▁చాలామ	-3171
బోయే	-3172
▁శిక్ష	-3173
▁సల	-3174
▁బాగు	-3175
▁ఆదాయం	-3176
▁ఉత్తర్	-3177
▁వాయిదా	-3178
▁ప్రారంభం	-3179
▁మున్సిపల్	-3180
▁పేపర్	-3181
▁కొనసాగ	-3182
▁ంట	-3183
జున్	-3184
▁మేం	-3185
ట్లకు	-3186
▁కోహ్లీ	-3187
▁పరిధిలో	-3188
ెడ్యూ	-3189
▁నలుగు	-3190
▁పరిశోధ	-3191
▁నియోజకవర్గంలో	-3192
▁బంధు	-3193
ట్టింది	-3194
▁కామెంట్స్	-3195
ان	-3196
▁ఇష్ట	-3197
▁కాంట	-3198
▁ామని	-3199
▁చూసిన	-3200
▁ప్రశా	-3201
▁కార్డు	-3202
▁గురి	-3203
▁త్రి	-3204
▁చాలామంది	-3205
ంగం	-3206
▁గుజరా	-3207
▁తరలించారు	-3208
ಂದ	-3209
▁60	-3210
▁టో	-3211
▁మిగ	-3212
▁చెప్	-3213
▁సార్లు	-3214
▁ఫిబ్రవరి	-3215
.7	-3216
ందనే	-3217
నంలో	-3218
▁లోప	-3219
ద్దని	-3220
▁కుటుంబం	-3221
▁రాజధాని	-3222
వ్యూ	-3223
ನು	-3224
▁దళ	-3225
ల్లం	-3226
▁ముఖ	-3227
ారావు	-3228
▁నష్టం	-3229
▁ప్రాణ	-3230
▁సెక్ర	-3231
▁పట్టుకు	-3232
▁కాని	-3233
▁హాస్పి	-3234
▁ఆయా	-3235
▁చూపి	-3236
▁ఓట్లు	-3237
▁ప్రజలను	-3238
గ్స్	-3239
▁యాక్	-3240
▁పార్లమె	-3241
▁కార్యకర్తలు	-3242
ర్చి	-3243
▁హెల్	-3244
▁విద్యార్థి	-3245
.6	-3246
వాలు	-3247
▁పండుగ	-3248
▁త్వరలో	-3249
స్తున్నట్లు	-3250
దైనా	-3251
▁గాలి	-3252
ెంట్లు	-3253
▁ఇన్ని	-3254
▁కిషన్	-3255
కిల్	-3256
▁శాంతి	-3257
▁ప్రయత్నాలు	-3258
థి	-3259
▁ఖాతా	-3260
▁దాడులు	-3261
▁లబ్	-3262
ణానికి	-3263
▁నిధులు	-3264
▁పెట్టిన	-3265
▁చ్	-3266
క్కర్	-3267
▁ఆహార	-3268
▁చోట్ల	-3269
▁వేసిన	-3270
▁షెడ్యూ	-3271
▁కమిషనర్	-3272
▁నిర్మాణ	-3273
▁నిపుణులు	-3274
వ్వు	-3275
దావరి	-3276
శ్చ	-3277
▁డిప్యూటీ	-3278
▁విభ	-3279
సరి	-3280
త్యా	-3281
▁మహబూ	-3282
య్యి	-3283
▁వేలు	-3284
ెట్ల	-3285
▁ఇంజ	-3286
▁ఎకర	-3287
▁పడే	-3288
▁టీమ్	-3289
▁బ్యాటింగ్	-3290
ఫ్ర	-3291
▁బ్లాక్	-3292
▁నిరుద్యో	-3293
ట్రి	-3294
▁మనో	-3295
▁ముస్	-3296
▁అమరావ	-3297
పడే	-3298
బరు	-3299
ట్యూ	-3300
▁పథకం	-3301
▁రకాల	-3302
▁ఫస్ట్	-3303
▁పెరిగి	-3304
▁వ్యవసాయ	-3305
▁తీసుకుని	-3306
▁అల్లు	-3307
▁తనిఖీ	-3308
▁నారాయణ	-3309
▁రాజ్యా	-3310
▁ର	-3311
▁జు	-3312
▁అధి	-3313
▁పున	-3314
▁ఒకరు	-3315
▁పిలుపు	-3316
▁చేపట్టారు	-3317
స్తున్నారని	-3318
▁..!	-3319
▁అగ్	-3320
ధాన్య	-3321
▁గ్రే	-3322
▁రిజి	-3323
▁కొత్తగా	-3324
▁వారిలో	-3325
▁స్వాధీ	-3326
▁ఆదేశాలు	-3327
పోయా	-3328
▁చిత్రం	-3329
▁పరిగ	-3330
▁గుజరాత్	-3331
▁ఎన్నికలకు	-3332
▁చేసుకుంది	-3333
లక్ష	-3334
▁రూపొందించ	-3335
▁మెజ	-3336
▁లక్ష్మీ	-3337
▁ఢ	-3338
ైన్	-3339
▁నిర్వహణ	-3340
▁అభ్యర్థులు	-3341
▁వసూ	-3342
▁తేడా	-3343
▁త్వరలోనే	-3344
▁ప్రైవేట్	-3345
th	-3346
▁వల	-3347
తమైన	-3348
▁పశ్చి	-3349
▁ఉంటారు	-3350
▁స్పెషల్	-3351
▁చేపట్టిన	-3352
▁ఏమి	-3353
▁పెరగ	-3354
▁చేసుకో	-3355
▁డిగ్రీ	-3356
▁పరుగుల	-3357
▁ఎందుకంటే	-3358
▁శ్రీవారి	-3359
▁భవ	-3360
▁ముంద	-3361
▁పర్యా	-3362
▁స్వాధీనం	-3363
ెక్స్	-3364
▁ఇస్త	-3365
▁గుడ్	-3366
▁టార్గ	-3367
▁ప్రమాణ	-3368
▁టే	-3369
తికి	-3370
ెయిన్	-3371
▁స్కో	-3372
డ్డా	-3373
▁ఆసి	-3374
▁కూడ	-3375
▁రాశ	-3376
▁సోద	-3377
▁యాప్	-3378
▁జర్	-3379
హాన్ని	-3380
▁థి	-3381
న్యూ	-3382
▁నేతల	-3383
దారులు	-3384
▁రిజర్వేషన్	-3385
ట్టర్	-3386
▁వాడు	-3387
▁ఇండియన్	-3388
▁ప్రస్తుత	-3389
సర్లు	-3390
▁కన్న	-3391
▁టీమి	-3392
▁సన్	-3393
▁కౌన్సి	-3394
▁శాస్త్ర	-3395
▁టీమిండియా	-3396
▁اس	-3397
▁ారా	-3398
ాలిటీ	-3399
▁పెంచు	-3400
▁పడింది	-3401
▁టార్గెట్	-3402
▁నిర్మాణం	-3403
▁అభిమానులు	-3404
▁నామినేషన్	-3405
▁ی	-3406
▁ಿ	-3407
▁రాష్ట్రాల	-3408
▁సుర	-3409
▁నాటికి	-3410
▁ప్రాధాన్య	-3411
▁సద	-3412
గ్గా	-3413
▁టెస్టు	-3414
▁సంఖ్యలో	-3415
▁కేజ	-3416
▁వెళ	-3417
▁కుటుంబా	-3418
▁బాధ్యతలు	-3419
▁న్యూఢిల్లీ	-3420
య్యా	-3421
ెత్త	-3422
▁సాం	-3423
▁తమిళనాడు	-3424
▁ఇప్పటివరకు	-3425
▁మృత	-3426
▁సంచలన	-3427
▁డ్రైవర్	-3428
య్యే	-3429
స్వామ	-3430
▁2014	-3431
తె	-3432
▁ఉండి	-3433
▁తగిన	-3434
▁ొ	-3435
త్మక	-3436
▁అయో	-3437
▁అదుపులోకి	-3438
▁ಹ	-3439
స్క	-3440
▁2,	-3441
▁ఏజ	-3442
జీవి	-3443
▁గడు	-3444
▁రాజే	-3445
▁స్తున్న	-3446
▁గ్రామంలో	-3447
▁వన	-3448
▁దొంగ	-3449
పూ	-3450
ಾರ	-3451
యిన	-3452
త్రం	-3453
డెన్	-3454
ెస్ట	-3455
▁కళా	-3456
యాత్ర	-3457
▁విగ్ర	-3458
▁N	-3459
▁జనా	-3460
▁ఏదైనా	-3461
▁చుట్ట	-3462
▁డం	-3463
▁రచ	-3464
త్తా	-3465
▁ఆల్	-3466
▁ఫర్	-3467
▁భద్రత	-3468
ాలీవుడ్	-3469
▁నర	-3470
ారులు	-3471
▁కుంట	-3472
▁నోటీసులు	-3473
ష్ణో	-3474
▁కాక	-3475
▁పాద	-3476
▁ఫలితాలు	-3477
▁ఎక	-3478
▁ఏక	-3479
నాథ్	-3480
▁ఆటగా	-3481
▁సెంట	-3482
▁అమ్మాయి	-3483
▁ప్రస్తా	-3484
▁టాప్	-3485
▁రావడంతో	-3486
స్ట్రీ	-3487
▁క్యార	-3488
▁కేజ్రీ	-3489
▁35	-3490
▁చిరం	-3491
▁పురు	-3492
▁రక్త	-3493
▁కోరుకు	-3494
▁పశ్చిమ	-3495
పడుతుంది	-3496
▁ఉన్నారని	-3497
▁ل	-3498
▁పంజా	-3499
▁మరొక	-3500
పున	-3501
▁రఘ	-3502
▁హోం	-3503
▁పవర్	-3504
▁హిందూ	-3505
నిఫ	-3506
▁అంగీ	-3507
er	-3508
▁తగ్గు	-3509
▁మెడికల్	-3510
▁అధికారుల	-3511
▁కేజ్రీవాల్	-3512
▁చెక్	-3513
▁వినిపి	-3514
▁బీజేపీకి	-3515
▁చెప్పుకొచ్చ	-3516
న్నాడు	-3517
▁చట్టం	-3518
▁డానికి	-3519
▁రంగా	-3520
▁మోహన్	-3521
▁స్పందించారు	-3522
వని	-3523
శేష	-3524
వార్	-3525
▁ఆలయ	-3526
▁దిన	-3527
▁చెయ్య	-3528
▁తదితరులు	-3529
ిల్స్	-3530
▁కల్ప	-3531
▁డెవల	-3532
▁చిరంజీవి	-3533
▁మందు	-3534
▁మృతదే	-3535
▁నేరుగా	-3536
▁ందన్నారు	-3537
వాహ	-3538
▁రక్షణ	-3539
▁హీరోయిన్	-3540
కూడ	-3541
▁కఠ	-3542
ులతో	-3543
కర్స్	-3544
▁తెలుగుదేశం	-3545
on	-3546
یک	-3547
▁(1	-3548
మాబాద్	-3549
▁టెస్ట్	-3550
▁పోలీసుల	-3551
▁వేసింది	-3552
▁వార్త	-3553
రవే	-3554
ంచరీ	-3555
న్నే	-3556
▁దారి	-3557
▁పెరిగింది	-3558
▁అప్పగ	-3559
▁దూరంగా	-3560
▁సంబంధం	-3561
జ్జ	-3562
హార్	-3563
హించ	-3564
▁ఛార్	-3565
▁సీట్ల	-3566
▁ాను	-3567
▁దాంతో	-3568
▁ఒత్తిడి	-3569
ులై	-3570
▁బది	-3571
యేషన్	-3572
▁అవగా	-3573
▁గొప్ప	-3574
▁సందర్శ	-3575
▁దేశవ్యాప్తంగా	-3576
▁పరిశ్రమ	-3577
▁స్తుంది	-3578
▁ఆటో	-3579
చ్చితంగా	-3580
▁ಯ	-3581
మీర్	-3582
▁కేర	-3583
▁విడి	-3584
▁నల్ల	-3585
▁నాటి	-3586
▁పెడు	-3587
▁చెప్పి	-3588
▁నగర	-3589
▁ప్పటికీ	-3590
▁భి	-3591
ంకర్	-3592
▁మన్	-3593
కరమైన	-3594
▁కెమె	-3595
▁రిటై	-3596
▁నిబంధన	-3597
▁లపై	-3598
▁లభి	-3599
▁సురే	-3600
▁మహిళల	-3601
▁ସ	-3602
▁అప	-3603
▁నాడు	-3604
▁లక్ష్యంగా	-3605
▁کو	-3606
▁బూ	-3607
▁ధర్మ	-3608
ల్లోకి	-3609
▁అగ్ని	-3610
▁పర్యట	-3611
▁ఉండటంతో	-3612
▁మిగిలిన	-3613
రించ	-3614
▁నెట్	-3615
▁అప్పుడు	-3616
▁చేయడంతో	-3617
▁ముస్లిం	-3618
▁సంవత్సరాల	-3619
స్క్	-3620
▁199	-3621
▁టీటీ	-3622
▁తోనే	-3623
▁వెళ్లారు	-3624
▁తీసుకెళ్ల	-3625
ఎంసీ	-3626
ారనే	-3627
▁ఏసీ	-3628
పోయాయి	-3629
▁బరువు	-3630
ائ	-3631
డితే	-3632
▁కేరళ	-3633
▁సౌకర్	-3634
ళిక	-3635
▁మధు	-3636
▁సికి	-3637
▁అనారో	-3638
▁నెలలో	-3639
▁మంజూరు	-3640
▁సెంచరీ	-3641
కునే	-3642
▁కపో	-3643
▁పొడి	-3644
▁మిగతా	-3645
▁వికెట్లు	-3646
▁కరో	-3647
▁విప	-3648
▁జనరల్	-3649
▁తెల్ల	-3650
▁అధికారులకు	-3651
ాయు	-3652
▁మేనే	-3653
▁బదిలీ	-3654
▁డు	-3655
లాది	-3656
▁నారా	-3657
ండటంతో	-3658
▁షెడ్యూల్	-3659
▁ఓడ	-3660
▁అటు	-3661
▁కఠిన	-3662
▁సిద్ధం	-3663
▁s	-3664
చ్ఛ	-3665
▁అర్జున్	-3666
▁ఢిల్లీలో	-3667
లికి	-3668
▁సచి	-3669
▁అంతకు	-3670
▁నంబర్	-3671
▁న్యాయం	-3672
స్ట్ర	-3673
▁చక్క	-3674
▁నాయక	-3675
▁స్టూడ	-3676
▁45	-3677
కపోతే	-3678
▁జస్టి	-3679
▁గోదావరి	-3680
దైన	-3681
ధర్	-3682
▁పురుష	-3683
▁సంస్థలు	-3684
▁కొంతమంది	-3685
▁జరుగుతోంది	-3686
▁కను	-3687
▁సార	-3688
▁చూపు	-3689
▁మార్చ	-3690
▁ో	-3691
మత్త	-3692
▁ధ్వ	-3693
▁మల్	-3694
▁మోసం	-3695
▁ఎన్డీ	-3696
కాలం	-3697
స్టే	-3698
న్సర్	-3699
▁కాస్త	-3700
ాలన్నారు	-3701
▁ప్రెసిడెంట్	-3702
కలు	-3703
రాజు	-3704
▁నటు	-3705
శేఖర్	-3706
▁రాజ్య	-3707
▁కోవ	-3708
▁గడి	-3709
▁కలిపి	-3710
▁వేగంగా	-3711
▁చేయనున్నారు	-3712
▁సాధ్య	-3713
▁కనిపిస్తోంది	-3714
▁ఎదుర	-3715
▁అప్రమత్త	-3716
▁నల్	-3717
▁డేటా	-3718
▁చెరువు	-3719
▁జులై	-3720
▁పరిస్థితులు	-3721
డ్స్	-3722
▁డ్రా	-3723
▁వన్డే	-3724
ఫ్రికా	-3725
▁అవగాహన	-3726
▁ముందుగా	-3727
▁సికింద్ర	-3728
▁అధికారులను	-3729
▁జరుగుతుంది	-3730
▁ధీ	-3731
ాలనే	-3732
▁డాల	-3733
▁ఎస్సీ	-3734
▁ఆరోగ్యం	-3735
▁ఆమెను	-3736
▁పక్కన	-3737
సో	-3738
రిని	-3739
▁గొడవ	-3740
▁సునీ	-3741
▁చెల్లి	-3742
▁రోజులుగా	-3743
▁కార్యక్రమం	-3744
▁సరఫ	-3745
▁జ్యో	-3746
▁అధ్యయ	-3747
▁రోజున	-3748
▁వ్యవహార	-3749
▁ప్రభుత్వాన్ని	-3750
▁చిరు	-3751
▁మేము	-3752
▁ప్రసాద్	-3753
▁సికింద్రాబాద్	-3754
కల	-3755
ెండా	-3756
▁ಬ	-3757
▁پر	-3758
▁ఆవి	-3759
▁స్టో	-3760
▁గెలుపు	-3761
▁ప్రొఫె	-3762
ించుకున్నారు	-3763
▁మీటింగ్	-3764
▁రమ	-3765
జెపి	-3766
▁హోదా	-3767
▁భద్రా	-3768
▁స్నేహి	-3769
▁G	-3770
నున్నట్లు	-3771
▁కేంద్రంలో	-3772
▁కిలోమీటర్ల	-3773
▁ఏకంగా	-3774
▁టీటీడీ	-3775
▁వివేక్	-3776
వింద్	-3777
▁థియే	-3778
▁యువత	-3779
▁విజ్ఞ	-3780
▁సెక్షన్	-3781
▁ప్రకటించిన	-3782
▁జ్	-3783
ందన్న	-3784
దారుల	-3785
▁జరిప	-3786
▁మీకు	-3787
▁ర్యా	-3788
ళ్లుగా	-3789
▁కాంట్రా	-3790
▁ప్రత్యేకంగా	-3791
▁స్థలా	-3792
▁కేటాయి	-3793
▁రాష్ట్రంలోని	-3794
▁చేస్తున్నట్లు	-3795
್ರ	-3796
▁ఎంట	-3797
▁సమ్మ	-3798
▁ఫైనల్	-3799
▁వస్తుందని	-3800
▁నిజామాబాద్	-3801
ల్యూ	-3802
ర్యాల	-3803
▁కోరి	-3804
▁ాయని	-3805
▁లీడర్	-3806
యాల	-3807
▁బ్రే	-3808
ెన్షన్	-3809
▁వర్క్	-3810
▁చేసుకుని	-3811
▁ప్రాజెక్ట్	-3812
▁ఎండ	-3813
▁చేసినా	-3814
ತ್ತ	-3815
▁ఎలక్	-3816
▁ఎప్పుడూ	-3817
ఘా	-3818
యాన్	-3819
ార్టీ	-3820
▁హౌస్	-3821
టానికి	-3822
▁వాస్త	-3823
▁పిల్లల	-3824
▁బిజెపి	-3825
▁దని	-3826
▁పబ్	-3827
▁సక్	-3828
▁ఎర్ర	-3829
▁స్కీ	-3830
▁ఉండటం	-3831
▁ఉష్ణో	-3832
▁అయోధ్య	-3833
▁ఉష్ణోగ్ర	-3834
▁స్థానికులు	-3835
▁ఏఐ	-3836
ెక్కి	-3837
ంక్షలు	-3838
▁తయారీ	-3839
▁వీటిని	-3840
▁కావాలని	-3841
ಾಗ	-3842
మిలీ	-3843
▁దేశాల	-3844
▁బిడ్డ	-3845
▁హరీశ్	-3846
▁ప్రయత్నించ	-3847
.8	-3848
టికల్	-3849
ాన్యం	-3850
▁ఎస్పీ	-3851
▁ఎత్తున	-3852
▁వేర్	-3853
▁దర్శకుడు	-3854
▁పరిధిలోని	-3855
▁హెచ్చరించారు	-3856
సిక	-3857
▁తరఫ	-3858
▁వాతావర	-3859
▁అధికారం	-3860
▁అవసరమైన	-3861
,000	-3862
▁నిర్మి	-3863
టిఫికేషన్	-3864
▁కార్యకర్త	-3865
▁బంగ్లాదేశ్	-3866
▁సీసీ	-3867
▁పద్	-3868
▁విశేష	-3869
హారం	-3870
▁అకౌ	-3871
▁ఒడి	-3872
▁లిక్కర్	-3873
▁ఢీ	-3874
ాయతీ	-3875
▁స్పీకర్	-3876
▁బర్	-3877
▁భాష	-3878
▁ఆశ్ర	-3879
▁క్లా	-3880
▁రంగు	-3881
▁కుట్ర	-3882
▁చేయగా	-3883
▁తొమ్మి	-3884
▁వ్యాఖ్యానించారు	-3885
ధం	-3886
వ్య	-3887
▁ఫె	-3888
▁భీ	-3889
రాన్	-3890
▁పరిచ	-3891
▁బాలిక	-3892
▁హాస్పిటల్	-3893
రత్	-3894
▁సరఫరా	-3895
▁జస్టిస్	-3896
▁2018	-3897
నానికి	-3898
▁సినిమ	-3899
▁వరుసగా	-3900
▁అయ్యాయి	-3901
వేదన	-3902
▁మెట్రో	-3903
▁అందరికీ	-3904
▁డ్రగ్స్	-3905
▁రానున్న	-3906
▁రాజకీయాల్లో	-3907
▁70	-3908
▁అనుభ	-3909
▁ఫ్రా	-3910
▁మేకర్స్	-3911
▁పార్లమెంటు	-3912
ంపులు	-3913
కాంత్	-3914
▁గ్యార	-3915
▁సమీక్ష	-3916
▁ఉత్పత్తి	-3917
▁స్థానాల్లో	-3918
▁نے	-3919
▁کر	-3920
▁సైట్	-3921
▁తిరుమ	-3922
▁విలువైన	-3923
▁ఘన	-3924
రాశి	-3925
ప్పున	-3926
▁మెరుగు	-3927
▁చొప్పున	-3928
▁టెక్నాల	-3929
▁భావిస్తున్నారు	-3930
ంజ్	-3931
ిత్ర	-3932
డర్లు	-3933
సేందుకు	-3934
▁ఎటువంటి	-3935
▁(2	-3936
ನ್ನು	-3937
▁మొబ	-3938
▁పక్ష	-3939
▁రక్ష	-3940
▁డీకే	-3941
▁ఫుల్	-3942
▁అయ్యే	-3943
కపోవడంతో	-3944
▁సర్కారు	-3945
▁తీసుకుంది	-3946
▁రవా	-3947
ెస్టో	-3948
▁ఓట్ల	-3949
▁నిషే	-3950
▁శాసన	-3951
రికీ	-3952
▁న్యాయవా	-3953
షీ	-3954
▁क	-3955
వేళ	-3956
▁ఓప	-3957
▁నొ	-3958
విడ్	-3959
ాడని	-3960
▁బాల్	-3961
▁స్టేట్	-3962
▁ప్రయాణ	-3963
▁మీడియాతో	-3964
యిత	-3965
▁ఉత్స	-3966
ించాయి	-3967
▁ఆమెకు	-3968
▁కుక్క	-3969
▁డబుల్	-3970
▁సంప	-3971
వంతంగా	-3972
▁నెలకొంది	-3973
▁ପ	-3974
టిక్	-3975
▁టీఎస్	-3976
▁శంకర్	-3977
▁సంపాద	-3978
▁స్పంది	-3979
▁నల్గొండ	-3980
▁వాల	-3981
యింది	-3982
ినట్లు	-3983
▁చుట్టూ	-3984
▁ఇప్పటికీ	-3985
▁80	-3986
▁షిప్	-3987
▁ఎప్పటి	-3988
▁షూటింగ్	-3989
▁కోర్టులో	-3990
లంక	-3991
▁ద్	-3992
జిట్	-3993
▁బయలు	-3994
▁బుక్	-3995
కాలంలో	-3996
▁పార్టీని	-3997
▁టెక్నాలజీ	-3998
ీయ	-3999
▁మత	-4000
▁కరోనా	-4001
▁టిక్క	-4002
నిఫెస్టో	-4003
ించనున్నారు	-4004
కస్	-4005
డల్	-4006
నిమి	-4007
▁భవన్	-4008
▁కుండా	-4009
▁కామారెడ్డి	-4010
▁అస్	-4011
ముందు	-4012
▁జనాభా	-4013
▁రవాణా	-4014
▁విచారణకు	-4015
▁సమస్యలను	-4016
▁ఏంట	-4017
▁నార్	-4018
▁వార్తలు	-4019
దర	-4020
▁జల	-4021
▁డ్	-4022
▁గడ్	-4023
▁ఫైర్	-4024
▁మ్యూ	-4025
▁చర్చలు	-4026
▁డెవలప్	-4027
▁మహిళలకు	-4028
▁వర్గాలు	-4029
ంటాయి	-4030
▁నాని	-4031
▁కాలనీ	-4032
▁ఇండస్ట్రీ	-4033
-2	-4034
మితి	-4035
▁పరా	-4036
▁బహు	-4037
్రాంతి	-4038
▁నలుగురు	-4039
ల్లె	-4040
▁ర్య	-4041
▁టోర్	-4042
▁తరహా	-4043
▁బాలీ	-4044
▁స్టేడి	-4045
▁నాయకుడు	-4046
▁సంబంధిత	-4047
▁వ్యక్తులు	-4048
.30	-4049
▁పండ	-4050
▁2021	-4051
▁టౌన్	-4052
▁కల్పి	-4053
▁నోటిఫికేషన్	-4054
ెల్లి	-4055
▁అభిన	-4056
▁డ్యా	-4057
▁దేవు	-4058
▁వేధి	-4059
జేశారు	-4060
▁చేర్చ	-4061
▁మిషన్	-4062
▁అధ్యక్షు	-4063
▁నియోజకవర్గ	-4064
▁పట్టించుకో	-4065
ంట్ల	-4066
బద్ధ	-4067
▁మను	-4068
▁వాటర్	-4069
▁కౌంటర్	-4070
▁స్థానం	-4071
▁ముఖ్యమైన	-4072
త్వంలో	-4073
▁ఆవేదన	-4074
▁బయలుదే	-4075
▁బ్యాక్	-4076
▁ఇన్నింగ్స్	-4077
ంసం	-4078
▁జన్మ	-4079
▁దిశగా	-4080
▁క్రికె	-4081
▁సమీపంలో	-4082
▁జీవితంలో	-4083
یڈ	-4084
బల్	-4085
▁నియా	-4086
▁ానని	-4087
స్థానం	-4088
▁కానుంది	-4089
బిన	-4090
▁పరిణ	-4091
▁సక్సెస్	-4092
▁బాలీవుడ్	-4093
▁K	-4094
జున	-4095
దుగా	-4096
స్తీ	-4097
▁జనం	-4098
హ్మద్	-4099
▁విరు	-4100
▁పూజలు	-4101
▁రాజస్థాన్	-4102
ెర	-4103
▁దాడు	-4104
▁మాకు	-4105
▁పోయింది	-4106
▁బౌలింగ్	-4107
▁ఆస్	-4108
బినెట్	-4109
▁ప్రణా	-4110
▁వెండి	-4111
▁జ్యోతి	-4112
▁సెంట్ర	-4113
▁ఉద్యోగం	-4114
▁పోయి	-4115
▁రెడీ	-4116
▁సాను	-4117
▁ాడని	-4118
బోతున్న	-4119
▁ట్రంప్	-4120
▁ఫ్యామిలీ	-4121
రమ	-4122
▁పరిమ	-4123
కపోవడం	-4124
ానా	-4125
▁మణి	-4126
▁క్లి	-4127
▁మొదట	-4128
▁టాలీవుడ్	-4129
▁నెటి	-4130
ట్రిక్	-4131
▁పట్టణ	-4132
రీర్	-4133
▁హయా	-4134
వులను	-4135
▁దూరం	-4136
▁సూచి	-4137
నారాయణ	-4138
రాత్రి	-4139
▁దర్శక	-4140
▁ప్రియా	-4141
▁పెద్దగా	-4142
▁సినిమాలు	-4143
es	-4144
▁నగదు	-4145
లిస్తే	-4146
▁ఉద్యోగులు	-4147
▁ప్రపంచంలో	-4148
దర్	-4149
▁కోస	-4150
▁ఇటీవ	-4151
▁నియంత్ర	-4152
▁పరీక్షలు	-4153
▁ప్రభాకర్	-4154
▁సాధించిన	-4155
▁అందుబాటులోకి	-4156
್ದ	-4157
ందన	-4158
నలి	-4159
▁کا	-4160
ఎస్సీ	-4161
▁ె	-4162
▁రజ	-4163
గడ్డ	-4164
▁పాక్	-4165
▁నాయకు	-4166
▁చేతిలో	-4167
▁పోర్టు	-4168
▁పడుతున్న	-4169
▁వివరాలను	-4170
కోసం	-4171
గ్రామ్	-4172
▁సమాధానం	-4173
▁సెంట్రల్	-4174
▁ఎగు	-4175
▁అమరావతి	-4176
▁తీసుకోవడం	-4177
స్థాయి	-4178
▁ఆఫీసు	-4179
▁నెరవే	-4180
▁ఉందన్నారు	-4181
ర్ఘ	-4182
వసర	-4183
▁రౌ	-4184
▁ఖాయ	-4185
▁దశా	-4186
▁మొక్క	-4187
▁కెరీర్	-4188
▁పంజాబ్	-4189
ీస్	-4190
మాలు	-4191
▁చంప	-4192
▁బస్	-4193
▁వంశ	-4194
▁స్మ	-4195
▁మొబైల్	-4196
▁అవుతున్న	-4197
▁రెడ్డికి	-4198
▁జీవ	-4199
▁కొనసాగి	-4200
▁ప్రాణాలు	-4201
▁హైడ	-4202
్యూని	-4203
▁బైక్	-4204
▁ాలను	-4205
కాన్ని	-4206
▁ట్విట్టర్	-4207
జిన	-4208
▁నది	-4209
▁పుస్త	-4210
▁ఇవ్వడం	-4211
▁వెళ్లా	-4212
▁అనుకూలంగా	-4213
▁భవిష్యత్తు	-4214
▁ఛా	-4215
▁కార్పొరేషన్	-4216
ోసి	-4217
▁గ్రహ	-4218
▁మెదక్	-4219
▁హయాంలో	-4220
కున్నారు	-4221
▁శ్రీలంక	-4222
కలా	-4223
ష్ణు	-4224
ేశ్వరం	-4225
▁భర్తీ	-4226
▁హర్	-4227
చేసుకు	-4228
▁ఉపాధ్య	-4229
▁కొట్టి	-4230
▁దానిపై	-4231
▁్లో	-4232
కాలను	-4233
▁ఎనిమి	-4234
▁స్టూడెంట్	-4235
▁దశాబ్	-4236
▁ఎప్పుడు	-4237
▁స్తోంది	-4238
▁పిలుపుని	-4239
▁పెన్	-4240
▁ఆఫీస్	-4241
▁ప్రాధాన్యత	-4242
పాదన	-4243
▁ఐదే	-4244
▁మిన	-4245
▁హిట్	-4246
▁అక్కడే	-4247
ెక్టరేట్	-4248
ల్ప	-4249
▁చెల	-4250
ినేని	-4251
▁కలుగు	-4252
▁తెలియజే	-4253
▁ట్రాన్స్	-4254
▁ధో	-4255
▁ఈసీ	-4256
▁పేట	-4257
▁పంచాయతీ	-4258
ళా	-4259
▁రద్దీ	-4260
▁చేయాల్సి	-4261
నిక్	-4262
▁అలీ	-4263
▁నాయక్	-4264
దన్నారు	-4265
▁చూస్తే	-4266
▁గెలిచిన	-4267
▁వాతావరణం	-4268
▁పాకిస్థాన్	-4269
గుల	-4270
జమా	-4271
ర్ణ	-4272
▁గుడి	-4273
▁చేరారు	-4274
▁ారన్నారు	-4275
▁నిలిచింది	-4276
ల్చ	-4277
▁అన్	-4278
▁ద్ర	-4279
పట్నం	-4280
▁ఆహారం	-4281
ంతర	-4282
▁ంగా	-4283
▁అవుతోంది	-4284
▁ఓపెన్	-4285
▁గట్టి	-4286
▁ఎవరైనా	-4287
▁వర్గాల	-4288
▁ఒకవేళ	-4289
▁సన్ని	-4290
▁ಎ	-4291
▁పాస్	-4292
▁యూపీ	-4293
ేశ్వర్	-4294
▁అదానీ	-4295
▁ఆపరేషన్	-4296
▁ప్రయాణం	-4297
▁సాధారణంగా	-4298
▁నియోజకవర్గాల్లో	-4299
▁ఘో	-4300
▁మల	-4301
▁నంద	-4302
▁రవీ	-4303
▁వంట	-4304
ఆర్ఎస్	-4305
▁టీచర్	-4306
▁పెట్టుబ	-4307
ెల	-4308
್ಯ	-4309
తాలు	-4310
పాడు	-4311
పోయే	-4312
▁ఏదో	-4313
▁టాక్	-4314
▁ముని	-4315
▁పదార్థ	-4316
▁పరిణామ	-4317
▁కుమారుడు	-4318
▁ప్రణాళిక	-4319
▁గ్రామానికి	-4320
▁కుంభ	-4321
▁ఉపాధి	-4322
▁కుప్ప	-4323
▁ఆడియన్స్	-4324
▁నిర్లక్ష	-4325
▁పెండింగ్	-4326
▁వైద్యులు	-4327
یو	-4328
రామ	-4329
▁జర	-4330
వాన్	-4331
▁తాగ	-4332
▁ఇంది	-4333
▁సైన్	-4334
▁చేరిన	-4335
▁బౌలర్	-4336
▁చూపించ	-4337
చ్చిన	-4338
▁కాలు	-4339
▁గానే	-4340
▁రచయిత	-4341
▁సవాల్	-4342
▁రాజ్యసభ	-4343
వాద	-4344
యేట్	-4345
▁ఆయు	-4346
▁అశ్వ	-4347
▁వందే	-4348
▁ఉద్యోగ	-4349
▁ఎంట్రీ	-4350
▁గ్రీన్	-4351
▁ఆఫీసర్లు	-4352
▁మొదలైంది	-4353
▁హెచ్చరిక	-4354
▁ప్రొఫెసర్	-4355
ప్ల	-4356
▁జంట	-4357
కరంగా	-4358
యాలని	-4359
చారాన్ని	-4360
ంఛ	-4361
▁సైబర్	-4362
▁ాల్సి	-4363
▁చిక్కు	-4364
...	-4365
తారని	-4366
▁పాలు	-4367
▁రాజమ	-4368
శ్మీర్	-4369
▁రెండే	-4370
▁ఇస్తామని	-4371
▁సిద్ధంగా	-4372
▁ప్రమాదంలో	-4373
▁వర్మ	-4374
▁వేసుకు	-4375
▁ఆకట్టుకు	-4376
రక	-4377
ాక	-4378
నాయ	-4379
▁ించ	-4380
▁హాట్	-4381
గాన్ని	-4382
▁అంచనాలు	-4383
am	-4384
పిక్	-4385
▁ందు	-4386
▁దంప	-4387
▁ాలి	-4388
▁వల్లే	-4389
పడుతున్న	-4390
▁థియేటర్	-4391
▁ବ	-4392
▁ప్రమో	-4393
▁బట్టి	-4394
▁పోర్ట్	-4395
▁గ్రౌండ్	-4396
జిక్	-4397
▁పడిన	-4398
వానికి	-4399
▁చెప్పే	-4400
▁రెడ్డిని	-4401
లూ	-4402
పాటి	-4403
సింహ	-4404
కుంటే	-4405
▁ఆకర్	-4406
▁ప్రశ	-4407
▁సెట్	-4408
▁సాధించ	-4409
▁ش	-4410
ోన్న	-4411
▁నేతృ	-4412
▁ఫ్రీ	-4413
▁తరఫున	-4414
▁కరెంట్	-4415
▁హీరోగా	-4416
▁క్లారిటీ	-4417
▁హరి	-4418
హద్దు	-4419
▁రూమ్	-4420
▁నియామ	-4421
▁దక్షిణా	-4422
▁పాదయాత్ర	-4423
▁సరిహద్దు	-4424
▁పరిస్థితుల్లో	-4425
దుల	-4426
దార్	-4427
దీప్	-4428
▁రుణమా	-4429
▁లబ్ధి	-4430
▁వారిపై	-4431
▁అభ్యర్థుల	-4432
▁ఉద్యోగాలు	-4433
▁చెప్పుకొచ్చారు	-4434
వరం	-4435
▁గీ	-4436
▁లేవు	-4437
▁అవకాశము	-4438
▁చేశామని	-4439
▁అధికారంలో	-4440
త్యం	-4441
▁కలిగ	-4442
▁చిత్రా	-4443
▁మీదుగా	-4444
కుంటున్న	-4445
▁సెక్రటరీ	-4446
వేల	-4447
ేజ్	-4448
్రూ	-4449
▁ప్రొడ	-4450
▁దానిని	-4451
▁దిగారు	-4452
▁నిలిచి	-4453
ال	-4454
ఫా	-4455
▁سے	-4456
▁అండగా	-4457
▁బలంగా	-4458
▁పరిశీలించారు	-4459
పాయ	-4460
పోయాడు	-4461
▁చెందు	-4462
▁జీవితం	-4463
▁విషయంపై	-4464
▁75	-4465
▁ఆరా	-4466
▁టీవీ	-4467
▁నాథ్	-4468
▁మానవ	-4469
▁హనుమ	-4470
▁భట్టి	-4471
▁చూడాలి	-4472
▁బరిలోకి	-4473
▁రుణమాఫీ	-4474
▁అంతేకాదు	-4475
▁కంపెనీలు	-4476
▁కొనసాగుతోంది	-4477
సూ	-4478
చల్	-4479
యని	-4480
డిపి	-4481
▁మందిని	-4482
▁ర్యాలీ	-4483
▁చేరుకున్న	-4484
▁ప్రచారంలో	-4485
ంటా	-4486
వతి	-4487
▁కట్టు	-4488
కరించిన	-4489
▁యుద్ధం	-4490
▁జరిగిందని	-4491
మన్	-4492
ైతే	-4493
లాలు	-4494
▁ాలు	-4495
▁ఘటనలో	-4496
▁వచ్చు	-4497
▁దర్శనం	-4498
▁కమ్యూని	-4499
▁ప్రశ్నించ	-4500
పణ	-4501
ృహ	-4502
▁ಅ	-4503
▁తదితర	-4504
▁లక్ష్య	-4505
▁అనుకున్న	-4506
▁మేనిఫెస్టో	-4507
ఖ్	-4508
క్య	-4509
లేని	-4510
▁నినా	-4511
▁సాధి	-4512
▁పరిగణ	-4513
మయ్యారు	-4514
ారన్నారు	-4515
▁జరుగుతు	-4516
▁వస్తున్నాయి	-4517
నేది	-4518
ర్చ్	-4519
▁అబ్	-4520
మోహన్	-4521
▁అదనపు	-4522
▁కర్నూ	-4523
▁ఇందుకు	-4524
▁కోట్లకు	-4525
▁లీడర్లు	-4526
▁పడుతున్నారు	-4527
ರು	-4528
▁ఫోర్స్	-4529
▁వివాదం	-4530
ృత	-4531
ರ್	-4532
▁లూ	-4533
మానం	-4534
▁కుమ	-4535
▁రాక	-4536
పింగ్	-4537
▁నిలు	-4538
▁నేటి	-4539
▁ఫామ్	-4540
▁అయ్యా	-4541
▁పోరాటం	-4542
▁సిద్ది	-4543
ంటూరు	-4544
▁పుష్ప	-4545
▁త్వరగా	-4546
▁నెంబర్	-4547
▁బాధితు	-4548
▁గుంటూరు	-4549
▁ముందస్తు	-4550
▁నిర్ణయాలు	-4551
▁D	-4552
రాలి	-4553
వెల్	-4554
రామయ్య	-4555
వారికి	-4556
▁దీనిని	-4557
▁నీటిని	-4558
▁శ్ర	-4559
ేత్ర	-4560
▁క్రా	-4561
▁తొలగి	-4562
▁విధానం	-4563
▁జిల్లాల	-4564
ళ్ళు	-4565
▁గూడ	-4566
స్తుల	-4567
▁కోచ్	-4568
▁సిరి	-4569
వెన్యూ	-4570
▁న్నారు	-4571
▁ప్రేక్షకుల	-4572
▁కార్యక్రమాలు	-4573
ందాం	-4574
▁కడు	-4575
▁పద్ధ	-4576
లాబాద్	-4577
▁ఉండదు	-4578
▁తప్పని	-4579
▁ప్రశాంత్	-4580
బే	-4581
నీయ	-4582
రని	-4583
▁త్	-4584
▁అనుచ	-4585
▁రెడ్	-4586
▁వసూలు	-4587
▁విపక్ష	-4588
ాయా	-4589
▁రఘు	-4590
▁ఆదాయ	-4591
▁వద్దకు	-4592
▁తప్పుడు	-4593
▁ప్రభాస్	-4594
▁దృ	-4595
▁పన్ను	-4596
▁నెలల్లో	-4597
▁జరగనుంది	-4598
▁దేశంలోని	-4599
కూల	-4600
▁కెన	-4601
▁అంబే	-4602
▁అలర్	-4603
▁అలవా	-4604
▁నూతన	-4605
▁బాలు	-4606
▁బిగ్	-4607
▁హార్	-4608
రాన్ని	-4609
▁విరాట్	-4610
▁పుట్టిన	-4611
లర్లు	-4612
▁తాగు	-4613
▁భక్తుల	-4614
▁జగిత	-4615
▁తుది	-4616
్యానికి	-4617
▁ఉన్నప్పుడు	-4618
▁పెద్దపల్లి	-4619
▁వో	-4620
మాస్	-4621
▁కదా	-4622
క్టరీ	-4623
▁వంశీ	-4624
▁ఊహించ	-4625
▁నిర్ధ	-4626
▁బృందం	-4627
▁ఇస్తున్న	-4628
భం	-4629
▁90	-4630
▁నని	-4631
గుణంగా	-4632
▁బ్రేక్	-4633
▁అప్పట్లో	-4634
▁జగిత్యాల	-4635
▁వ్యక్తిగత	-4636
▁ఒక్కసారిగా	-4637
శో	-4638
▁మ్	-4639
▁పోవ	-4640
▁తల్లిదండ్రులు	-4641
పోటు	-4642
రిటీ	-4643
జింగ్	-4644
▁అద్ద	-4645
▁అసోసి	-4646
▁అభ్యర్	-4647
▁కేబినెట్	-4648
▁ప్రాంతాల	-4649
▁రెవెన్యూ	-4650
▁వచ్చిందని	-4651
▁వెళ్తున్న	-4652
▁పిలి	-4653
▁వీరు	-4654
▁వైస్	-4655
▁ఇక్కడి	-4656
క్రెయిన్	-4657
▁v	-4658
▁నన్ను	-4659
స్తాయని	-4660
▁మంచిది	-4661
▁ప్రదేశ్	-4662
▁వ్యవహరి	-4663
▁చేసిందని	-4664
▁#	-4665
మటి	-4666
మతి	-4667
లేటి	-4668
చేశారు	-4669
▁రాశుల	-4670
▁చోటుచేసుకు	-4671
▁కుటుంబానికి	-4672
▁విద్యార్థులకు	-4673
బడిన	-4674
మ్రా	-4675
▁500	-4676
▁మోస	-4677
▁సాగ	-4678
విజన్	-4679
▁సార్	-4680
▁హెడ్	-4681
▁సినిమాకు	-4682
▁ఖరారు	-4683
▁సురక్ష	-4684
▁మాట్లాడిన	-4685
పుల	-4686
ణాన్ని	-4687
▁అందజే	-4688
▁పెట్టుబడి	-4689
▁రిజిస్ట్ర	-4690
గూడెం	-4691
▁వందల	-4692
▁రాజకీయాలు	-4693
▁సిద్దిపేట	-4694
్వే	-4695
దేవి	-4696
▁అటవీ	-4697
▁ఉగ్ర	-4698
▁తూర్	-4699
▁ఆరోపి	-4700
▁జర్నలి	-4701
▁పెట్రో	-4702
▁మిలియన్	-4703
▁రికార్డ్	-4704
▁క్యాన్సర్	-4705
▁ఎడ	-4706
▁పసు	-4707
రించి	-4708
▁జోన్	-4709
▁ధీమా	-4710
తానికి	-4711
▁టిడిపి	-4712
▁రోజూ	-4713
▁వెల్	-4714
్యూరిటీ	-4715
▁ప్రభావిత	-4716
▁రం	-4717
ఖండ్	-4718
▁కాళ	-4719
▁కృష్	-4720
▁దశలో	-4721
▁గెలిచి	-4722
▁గ్రాముల	-4723
▁తొలిసారి	-4724
el	-4725
ష్ఠ	-4726
▁ఈవ	-4727
▁జ్ఞ	-4728
స్టల్	-4729
▁పులి	-4730
▁పైనే	-4731
▁ఆయనను	-4732
▁తరగతి	-4733
▁విమానా	-4734
▁జూనియర్	-4735
▁పోస్టర్	-4736
▁యాక్షన్	-4737
ಸ್	-4738
యస్	-4739
▁భగ	-4740
▁ఫార	-4741
▁గాజా	-4742
▁కూతురు	-4743
▁జరిగాయి	-4744
ంపేట	-4745
రేణి	-4746
ోత్సవం	-4747
▁అన్నీ	-4748
▁రాశారు	-4749
▁తేలింది	-4750
▁⁭	-4751
ులర్	-4752
▁భూక	-4753
▁యజమా	-4754
▁సంగీ	-4755
▁ప్రవీ	-4756
▁పాల్గొన	-4757
▁సింగరేణి	-4758
▁రాష్ట్రానికి	-4759
ాయితీ	-4760
▁కోడ్	-4761
▁నిల్	-4762
▁బంతు	-4763
▁ఏరియా	-4764
▁కోసమే	-4765
▁భద్రతా	-4766
▁విజ్ఞప్తి	-4767
▁అభ్యర్థిగా	-4768
▁డిజ	-4769
▁మనీ	-4770
▁కిడ్	-4771
▁లోపు	-4772
▁కంట్రో	-4773
▁కార్యాలయంలో	-4774
▁సీఈ	-4775
▁భూము	-4776
▁సాగర్	-4777
▁ఉండేది	-4778
▁చెప్పాడు	-4779
ఢ్	-4780
▁డో	-4781
▁198	-4782
▁కలు	-4783
▁టన్న	-4784
▁తీసి	-4785
▁పండి	-4786
▁ఇరాన్	-4787
▁సేవలు	-4788
▁రాలేదు	-4789
▁వీడియోను	-4790
.9	-4791
ంబు	-4792
▁ವಿ	-4793
కేజీ	-4794
▁గౌర	-4795
▁పురా	-4796
▁అకౌంట్	-4797
▁పర్యవే	-4798
▁రాబోయే	-4799
▁విష్ణు	-4800
▁కుమార్తె	-4801
▁తక్కువగా	-4802
▁సాధించింది	-4803
▁విదేశీ	-4804
▁సమస్యల	-4805
▁తీసుకునే	-4806
▁ప్రతిష్ట	-4807
▁ಆ	-4808
▁అసి	-4809
▁టైమ్	-4810
▁ట్రో	-4811
▁వస్తోంది	-4812
▁హాజరయ్యారు	-4813
at	-4814
ାର	-4815
▁ମ	-4816
స్రో	-4817
▁చెలరే	-4818
▁ప్రవీణ్	-4819
▁నిర్మించిన	-4820
▁ఖై	-4821
▁బతు	-4822
▁విఫ	-4823
▁పాన్	-4824
▁వాహన	-4825
పోయినా	-4826
▁జెండా	-4827
▁పసుపు	-4828
▁గ్యాస్	-4829
▁టోర్నీ	-4830
▁ప్రదేశ	-4831
▁చేయకుండా	-4832
▁ప్రతిపాదన	-4833
లైన	-4834
▁శ్	-4835
▁కలక	-4836
▁పేర్	-4837
ెక్షన్	-4838
▁ఎస్టీ	-4839
▁నున్న	-4840
▁మార్గ	-4841
▁రోజుకు	-4842
▁ప్రస్తావ	-4843
▁ప్రియాంక	-4844
▁కార్యాలయం	-4845
మిన	-4846
వరీ	-4847
ైర్	-4848
గారు	-4849
▁మరీ	-4850
గాలను	-4851
▁ఘటనపై	-4852
▁పబ్లిక్	-4853
▁ఆదిలాబాద్	-4854
▁పనిచేస్తున్న	-4855
జ్య	-4856
▁ండ	-4857
ఎస్పీ	-4858
▁ఇల్లు	-4859
▁హమాస్	-4860
▁ప్రవర్	-4861
▁ప్రశంస	-4862
▁లక్ష్మ	-4863
▁వ్యవహారం	-4864
▁చెబుతున్న	-4865
ేజీ	-4866
▁వేడి	-4867
▁సస్ప	-4868
▁అనిల్	-4869
▁కోమటి	-4870
▁పత	-4871
యోగి	-4872
ికల్	-4873
▁వాట్	-4874
మూర్తి	-4875
▁వృద్ధ	-4876
▁సాంకే	-4877
▁విశ్లే	-4878
▁ఉత్తర్వులు	-4879
▁సెక్యూరిటీ	-4880
రాం	-4881
పియన్	-4882
స్కర్	-4883
▁వెళు	-4884
▁సైని	-4885
▁అత్యా	-4886
▁చిత్త	-4887
▁పాలసీ	-4888
▁టైటిల్	-4889
▁లేకపోవడంతో	-4890
.10	-4891
సుక	-4892
▁ఘా	-4893
▁జాత	-4894
ంగాల్	-4895
రెన్స్	-4896
▁ఆమోదం	-4897
▁కిరణ్	-4898
▁కూర్చు	-4899
▁సర్వీస్	-4900
▁కంట్రోల్	-4901
▁గుర్తించ	-4902
▁ఎమ్మెల్యేగా	-4903
▁అర్ధ	-4904
క్ష్మి	-4905
▁హెల్త్	-4906
en	-4907
ವು	-4908
పెద్ద	-4909
షన్స్	-4910
▁వేరే	-4911
▁ఆశ్రయ	-4912
▁వడ్డీ	-4913
▁మీటర్ల	-4914
▁శిక్షణ	-4915
▁సభ్యుల	-4916
▁నటించిన	-4917
ుకున్నారు	-4918
▁బీబీసీతో	-4919
▁శివకుమార్	-4920
▁ఇటు	-4921
▁సీఐడీ	-4922
▁నాలుగో	-4923
▁వెనక్కి	-4924
▁సినిమాను	-4925
▁పద్మ	-4926
▁మానసిక	-4927
గురు	-4928
లెట్	-4929
▁డేట్	-4930
▁హిందు	-4931
▁నగరంలో	-4932
▁అందించారు	-4933
..?	-4934
▁ఈవెంట్	-4935
ందర	-4936
▁షు	-4937
పరమైన	-4938
▁పొందిన	-4939
▁వ్యాధి	-4940
▁ఇంటర్వ్యూ	-4941
୍ତ	-4942
▁కొర	-4943
ృప్తి	-4944
▁విషా	-4945
▁తరపున	-4946
▁రంగారెడ్డి	-4947
▁చంద్రబాబుకు	-4948
▁కనిపిస్తుంది	-4949
మైనా	-4950
▁గంగ	-4951
▁సహజ	-4952
▁ఒకరి	-4953
▁కార్తీ	-4954
▁కార్యకలా	-4955
▁భక్తులకు	-4956
▁చేస్తానని	-4957
ئی	-4958
న్నర	-4959
▁ట్రి	-4960
▁నిలబ	-4961
▁పరిశీ	-4962
▁నిలిపి	-4963
▁వస్తాయి	-4964
▁అనుగుణంగా	-4965
▁వైఎస్సార్	-4966
▁గ్రామాల్లో	-4967
▁V	-4968
▁గతే	-4969
▁నూనె	-4970
పెట్టి	-4971
▁దిగిన	-4972
▁పొంగు	-4973
▁తూర్పు	-4974
▁ప్రాంతం	-4975
▁పెట్టింది	-4976
▁విమానాశ్ర	-4977
୍ର	-4978
ీణ	-4979
▁E	-4980
▁వేశ	-4981
గాలకు	-4982
▁ఇన్వ	-4983
▁కోర్	-4984
రించిన	-4985
▁ామన్నారు	-4986
▁పాల్గొన్న	-4987
లిజ	-4988
కుని	-4989
చంద్ర	-4990
ోందని	-4991
▁ఇళ్ల	-4992
▁కేజీ	-4993
▁ఖర్చ	-4994
▁అవినా	-4995
▁ఇస్రో	-4996
సుల	-4997
రుడు	-4998
ారామ	-4999
▁ఏమీ	-5000
▁డిజి	-5001
▁పిలు	-5002
▁బలమైన	-5003
▁న్నాయి	-5004
ించాల్సి	-5005
ri	-5006
▁L	-5007
▁ہو	-5008
జర్స్	-5009
▁ఎంటర్	-5010
▁యువతి	-5011
▁ల్యాండ్	-5012
▁సమీపంలోని	-5013
బన్	-5014
▁అఖ	-5015
▁రెస్	-5016
▁వాల్	-5017
▁స్టీ	-5018
మార్ట్	-5019
▁నాణ్య	-5020
▁ప్లేయర్	-5021
▁ప్రకటించ	-5022
▁కార్యక్రమానికి	-5023
▁33	-5024
▁37	-5025
రోసా	-5026
▁ہے۔	-5027
▁గిల్	-5028
▁హరీష్	-5029
▁హోటల్	-5030
▁చేయలేదు	-5031
▁తెలుసుకుందాం	-5032
▁కడప	-5033
▁2020	-5034
▁సలహా	-5035
▁నిలదీ	-5036
▁ముద్ర	-5037
▁ఓటర్లు	-5038
▁కస్టడీ	-5039
▁చేసుకునే	-5040
పడుతున్నారు	-5041
▁శాస్త్రవేత్త	-5042
ಿದ	-5043
స్మ	-5044
మేష్	-5045
స్యం	-5046
▁గంజ	-5047
▁న్ని	-5048
▁రాజా	-5049
▁కెనడా	-5050
▁నటుడు	-5051
▁రేషన్	-5052
స్తారని	-5053
▁గంజాయి	-5054
▁రూపంలో	-5055
▁మాస్టర్	-5056
▁చనిపోయిన	-5057
▁పోలిస్తే	-5058
▁3,	-5059
దురు	-5060
▁నకి	-5061
▁లేట	-5062
▁గౌరవ	-5063
▁నిజం	-5064
▁ఆసియా	-5065
▁కోట్లతో	-5066
▁మండలంలోని	-5067
ಕ್	-5068
▁।	-5069
▁ان	-5070
ద్కర్	-5071
▁దేశాలు	-5072
▁ఉంటున్న	-5073
▁ప్లాంట్	-5074
▁జాగ్రత్తగా	-5075
▁ప్రభుత్వంలో	-5076
.50	-5077
నెల	-5078
్రు	-5079
కుడి	-5080
డ్డూ	-5081
▁ఆమోద	-5082
▁ఉంచు	-5083
▁కంటి	-5084
▁పనులను	-5085
▁పాలనలో	-5086
▁గతేడాది	-5087
▁కర్ణాటకలో	-5088
▁పొంగులేటి	-5089
▁کہ	-5090
▁తీయ	-5091
▁పలి	-5092
▁బార	-5093
▁భోజ	-5094
▁జూలై	-5095
▁మాల్	-5096
▁సర్వ	-5097
▁బియ్య	-5098
▁విటమి	-5099
▁విన్న	-5100
▁అనారోగ్య	-5101
▁జాబితాలో	-5102
▁అమెరికాలో	-5103
▁వెంకటస్వామి	-5104
ad	-5105
▁36	-5106
▁జార్	-5107
▁పోయా	-5108
▁విడత	-5109
▁ప్రోత్స	-5110
▁రావాలని	-5111
▁వీడియోలు	-5112
▁కనిపించింది	-5113
50	-5114
▁నవ	-5115
▁హైక	-5116
▁ఇసుక	-5117
▁జంతు	-5118
▁దేవర	-5119
▁దీక్ష	-5120
▁భిన్న	-5121
▁లేదంటే	-5122
▁పడ్డారు	-5123
▁పెన్షన్	-5124
▁కాళేశ్వరం	-5125
న్ల	-5126
▁ాడ	-5127
కూర్	-5128
▁اور	-5129
▁ఓటీ	-5130
▁ఆనంద	-5131
▁డిస్	-5132
▁ఫోకస్	-5133
▁ఉత్తరా	-5134
▁సాంకేతిక	-5135
▁రాష్ట్రపతి	-5136
▁జేడీ	-5137
▁గెలిపించ	-5138
▁కచ్చితంగా	-5139
▁ఆదేశించింది	-5140
▁మూడే	-5141
ంటింగ్	-5142
▁మంటలు	-5143
పోతున్న	-5144
▁ఎంపీగా	-5145
▁మధ్యలో	-5146
▁యూట్యూ	-5147
▁వివాహం	-5148
▁సామర్థ	-5149
▁ఓవర్లలో	-5150
▁ముగిసిన	-5151
ించుకోవడం	-5152
▁మంచిర్యాల	-5153
గడ	-5154
▁శే	-5155
మ్మల	-5156
▁ఆప్	-5157
ుల్లో	-5158
▁తుపా	-5159
▁ఒడిశా	-5160
▁ధర్మా	-5161
▁భూకంప	-5162
▁అంటారు	-5163
▁స్వయంగా	-5164
▁అసోసియేషన్	-5165
హార	-5166
▁!!	-5167
▁వహ	-5168
▁ఎక్	-5169
▁చరణ్	-5170
▁స్తూ	-5171
▁పొన్న	-5172
▁ఇటీవలే	-5173
▁కూల్చి	-5174
▁రంగంలో	-5175
▁పిల్లలకు	-5176
▁ଏ	-5177
దాల	-5178
సీమ	-5179
ంగిక	-5180
▁మాస్	-5181
▁అలర్ట్	-5182
▁ఫ్రెండ్	-5183
▁బంతుల్లో	-5184
▁H	-5185
▁పరంగా	-5186
▁భరోసా	-5187
▁అసిస్ట	-5188
▁కాలేదు	-5189
▁ములుగు	-5190
▁మరిన్ని	-5191
▁సంతోషంగా	-5192
▁آ	-5193
కంఠ	-5194
దారి	-5195
సిన్	-5196
▁రాం	-5197
▁గడువు	-5198
▁వాలంటీ	-5199
▁డాక్టర్లు	-5200
ay	-5201
▁ఓపె	-5202
▁ుడు	-5203
▁అవ్వ	-5204
▁క్రై	-5205
▁కృష్ణా	-5206
▁బంగారు	-5207
▁లైంగిక	-5208
▁వంటివి	-5209
▁తీసుకోవ	-5210
▁అతిపెద్ద	-5211
▁ఉద్యోగుల	-5212
▁స్తున్నారు	-5213
▁చేరుకున్నారు	-5214
గమ	-5215
▁i	-5216
గుల్	-5217
▁తుల	-5218
తాధిక	-5219
▁బృంద	-5220
▁సెమీ	-5221
క్షంలో	-5222
▁ఉద్రి	-5223
▁వదిలే	-5224
▁దిల్లీ	-5225
▁పీసీసీ	-5226
▁ఏజెన్సీ	-5227
▁ఏర్పడిన	-5228
▁పరిష్కారం	-5229
▁ప్రత్యక్ష	-5230
▁కోమటిరెడ్డి	-5231
చ్చే	-5232
▁మవు	-5233
▁వలస	-5234
రక్షణ	-5235
▁అల్ల	-5236
కరించి	-5237
▁మారాయి	-5238
▁తీసుకుంటున్న	-5239
▁నిర్ణయించారు	-5240
▁ఇద	-5241
టీషన్	-5242
దానికి	-5243
▁ఉన్నత	-5244
▁నమ్మకం	-5245
▁మహబూబ్	-5246
▁సర్పంచ	-5247
▁సోనియా	-5248
▁విషయాలు	-5249
ام	-5250
▁రొ	-5251
కాలిక	-5252
▁గానీ	-5253
▁ప్లాట్	-5254
▁లేటెస్ట్	-5255
▁ఏర్పడింది	-5256
▁ٹ	-5257
ందరు	-5258
స్పద	-5259
▁టైం	-5260
▁లోక	-5261
నర్జీ	-5262
▁దళిత	-5263
▁కప్పు	-5264
▁ఎవరికి	-5265
▁ప్రదర్శన	-5266
▁అద్భుతమైన	-5267
▁పెరుగుతుంది	-5268
▁పెరుగుతున్న	-5269
▁చేస్తున్నాయి	-5270
నగ	-5271
▁విసి	-5272
▁అర్హత	-5273
▁మెరుగ	-5274
▁పెట్టే	-5275
▁ఎనిమిది	-5276
▁స్థానాలు	-5277
▁అభిప్రాయం	-5278
▁ప్రధానంగా	-5279
రై	-5280
లికా	-5281
లైట్	-5282
▁ఆర్మీ	-5283
▁చేశాయి	-5284
▁వివేకా	-5285
▁సచివాల	-5286
పెట్టారు	-5287
▁ఫ్యాక్టరీ	-5288
▁రాజకీయంగా	-5289
కాయ	-5290
▁తెగ	-5291
▁సతీ	-5292
▁సెలవు	-5293
▁ట్రైలర్	-5294
▁రిపోర్టు	-5295
▁ఉన్నతాధిక	-5296
▁ప్రత్యర్థ	-5297
▁కార్మికులు	-5298
▁పిలుపునిచ్చారు	-5299
ద్దే	-5300
▁చోట	-5301
▁ఓటర్	-5302
ట్టారు	-5303
▁మల్లి	-5304
▁విద్యార్థుల	-5305
▁ప్రకా	-5306
▁సీరియ	-5307
▁కలిగిన	-5308
ಡಿಯ	-5309
▁34	-5310
▁వర్గం	-5311
▁టిక్కెట్	-5312
▁రంగంలోకి	-5313
▁చంద్రయాన్	-5314
▁మధ్యప్రదేశ్	-5315
లె	-5316
రోధ	-5317
హరణ	-5318
▁గజ	-5319
▁کیا	-5320
▁అశో	-5321
▁గ్లో	-5322
▁దుకా	-5323
ట్టింగ్	-5324
▁ఆర్డర్	-5325
▁పరిచయం	-5326
▁అరవింద్	-5327
▁దృష్టికి	-5328
▁కొనసాగుతున్న	-5329
టనా	-5330
▁కొడ	-5331
▁ఈనెల	-5332
▁డీజీ	-5333
డాన్ని	-5334
▁యాంటీ	-5335
▁వదిలి	-5336
▁తేడాతో	-5337
▁ప్రభావ	-5338
▁సంస్థల	-5339
▁దీనివల్ల	-5340
▁మెజార్టీ	-5341
▁రాజ్యాంగ	-5342
▁అంబేద్కర్	-5343
▁48	-5344
▁ఆశి	-5345
▁దీప	-5346
▁సంభవ	-5347
▁ఎదుర్	-5348
▁పాటుగా	-5349
▁బెంగాల్	-5350
▁సాధించారు	-5351
▁ఆసుపత్రికి	-5352
▁ఛే	-5353
▁అక్ష	-5354
▁ఫిల్	-5355
▁లిమి	-5356
▁విధి	-5357
ల్లూరు	-5358
▁పడుతు	-5359
▁సహాయం	-5360
▁హిందీ	-5361
▁కాపాడు	-5362
▁కురిసే	-5363
▁తీసుకొని	-5364
▁మద్దతుగా	-5365
▁ఇత	-5366
▁ఒంట	-5367
▁నేర	-5368
▁సదు	-5369
▁ఏంటి	-5370
▁ఫీజు	-5371
▁బలహీ	-5372
▁హింస	-5373
▁రియల్	-5374
▁పేరును	-5375
▁చేరింది	-5376
▁నిందితుడు	-5377
▁ఉద్యోగులకు	-5378
▁ఆగి	-5379
▁బాక్	-5380
▁అమ్ము	-5381
▁వెంకట్	-5382
▁గంటల్లో	-5383
▁వీరిద్ద	-5384
▁చేరుకుంది	-5385
▁జాగ్రత్తలు	-5386
▁తూ	-5387
▁ఖర్	-5388
▁పాప	-5389
▁నిర్ణయించింది	-5390
భూ	-5391
▁గృహ	-5392
▁రేటు	-5393
▁లేరు	-5394
▁వాయు	-5395
▁వినో	-5396
▁నిధుల	-5397
▁రాసిన	-5398
▁ఉత్కంఠ	-5399
▁చూసుకు	-5400
▁చేసుకోవ	-5401
▁గుర్తించి	-5402
▁ప్రజాస్వామ	-5403
నై	-5404
మొ	-5405
▁t	-5406
తిన్	-5407
▁ఘర్	-5408
సిల్ల	-5409
▁అన్య	-5410
▁బాంబు	-5411
▁అంశంపై	-5412
▁బ్రిడ్	-5413
▁డివిజన్	-5414
▁నెటిజన్	-5415
▁హైకమాండ్	-5416
ౌట్	-5417
▁సంబ	-5418
▁ఆశ్చ	-5419
▁దీపా	-5420
తాన్ని	-5421
▁వివాహ	-5422
▁వాదనలు	-5423
▁వారితో	-5424
▁ప్రయాణికులు	-5425
జమాన్	-5426
స్కృతి	-5427
▁కలకలం	-5428
▁మట్టి	-5429
▁అనుకూల	-5430
▁చెప్పాలని	-5431
▁ନ	-5432
ంసా	-5433
▁కోట	-5434
▁ఫేక్	-5435
▁కన్నా	-5436
▁ప్రాథ	-5437
▁ఆలయంలో	-5438
▁అంశాలపై	-5439
▁స్మార్ట్	-5440
▁తప్పనిసరి	-5441
ಗೆ	-5442
ధన్	-5443
రిగే	-5444
▁ఆదు	-5445
▁పార	-5446
త్తుల	-5447
▁తెరక	-5448
స్తానని	-5449
▁పిటీషన్	-5450
▁దేశాల్లో	-5451
▁క్రమంలోనే	-5452
▁సమావేశాలు	-5453
▁అంతకుముందు	-5454
గతం	-5455
▁ఏటా	-5456
▁మనసు	-5457
▁సంపద	-5458
▁కర్నా	-5459
▁పట్టి	-5460
▁ఇద్దరి	-5461
▁గూగుల్	-5462
▁పరిశోధన	-5463
▁పెరిగిన	-5464
▁అధికారులతో	-5465
ئے	-5466
▁ف	-5467
▁కాలి	-5468
▁దేవి	-5469
▁బార్	-5470
దాద్రి	-5471
▁ప్రియ	-5472
▁మాటలు	-5473
▁రాకపో	-5474
▁వైరస్	-5475
▁విమానం	-5476
▁మంత్రిగా	-5477
▁ఇంగ్లాండ్	-5478
▁ప్రతినిధి	-5479
▁అధికారికంగా	-5480
ర్డ్	-5481
▁ఛాన	-5482
▁లీగ్	-5483
▁ఘనంగా	-5484
▁పునరు	-5485
▁పోయిన	-5486
▁విపరీ	-5487
▁ఇండ్లు	-5488
▁భూములు	-5489
▁భవిష్యత్	-5490
▁తెల్లవారు	-5491
▁తీసుకుంటామని	-5492
తనం	-5493
వేత	-5494
ూన్	-5495
▁టు	-5496
▁నౌ	-5497
▁మం	-5498
▁విక	-5499
▁వ్వ	-5500
కెక్క	-5501
ాలంటూ	-5502
▁అనంత	-5503
▁విఫల	-5504
▁డిజిటల్	-5505
▁నిర్మాత	-5506
▁రాకుండా	-5507
▁పోస్టులు	-5508
▁తెలంగాణకు	-5509
నేత	-5510
▁ాన	-5511
▁అంట	-5512
▁నవీ	-5513
్రీట్	-5514
▁పొలి	-5515
ాల్సిన	-5516
▁ఇస్తే	-5517
▁గమనించ	-5518
▁విశేషం	-5519
▁ఒప్పందం	-5520
▁ప్రాథమిక	-5521
▁రామకృష్ణ	-5522
▁వీడియోలో	-5523
500	-5524
▁32	-5525
▁ట్రే	-5526
▁ఏళ్లు	-5527
▁ధర్నా	-5528
▁మనిషి	-5529
▁చేయండి	-5530
▁ఉంటాయని	-5531
▁శ్రీధర్	-5532
▁అందుకున్న	-5533
▁అసిస్టెంట్	-5534
▁ప్రాంతాలకు	-5535
దన్	-5536
ాయక	-5537
▁కం	-5538
▁ధా	-5539
▁వడ	-5540
▁చేయి	-5541
య్యాడు	-5542
▁మిత్ర	-5543
▁యాజమాన్	-5544
▁యాదాద్రి	-5545
▁సమర్పించ	-5546
▁క్యారెట్ల	-5547
▁సంవత్సరాలు	-5548
క్యు	-5549
▁ంటే	-5550
▁మేలు	-5551
▁స్తా	-5552
▁వెలువ	-5553
▁ఇంజినీ	-5554
▁మరికొన్ని	-5555
▁కలెక్టరేట్	-5556
పిరి	-5557
▁కతా	-5558
▁పటే	-5559
ంక్షన్	-5560
▁ప్రచు	-5561
▁బ్యార	-5562
▁మహేష్	-5563
▁సమర్థ	-5564
▁తీసుకెళ్	-5565
▁క్రికెటర్	-5566
▁చూస్తున్న	-5567
▁చేసుకోవచ్చు	-5568
చో	-5569
ಿಕ	-5570
▁టీం	-5571
▁భయం	-5572
▁గద్ద	-5573
▁రాము	-5574
▁షేక్	-5575
▁బిజిన	-5576
▁బెదిరి	-5577
▁స్కిల్	-5578
▁స్త్రీ	-5579
▁ఉద్రిక్త	-5580
▁పడుతుంది	-5581
▁లేకపోవడం	-5582
▁విచారణలో	-5583
▁n	-5584
▁ತ	-5585
▁పేలు	-5586
▁అనుమత	-5587
▁సూర్యా	-5588
▁స్తారు	-5589
▁స్పందన	-5590
▁ప్రధానమంత్రి	-5591
▁ముఖ్యమంత్రిగా	-5592
▁F	-5593
దాన	-5594
పాన్	-5595
పాలన	-5596
▁ఏకా	-5597
▁లక్	-5598
▁చల్ల	-5599
లాల్లో	-5600
▁జడ్పీ	-5601
పెట్టిన	-5602
▁మొదలైన	-5603
▁సోర్స్	-5604
▁సామాన్య	-5605
ంతం	-5606
▁4,	-5607
▁శై	-5608
తామని	-5609
▁ఆధార్	-5610
▁ఎకరాల	-5611
▁ఆదిత్య	-5612
▁బిజినెస్	-5613
▁సర్టిఫిక	-5614
ین	-5615
్రం	-5616
▁ಮಾ	-5617
జిత్	-5618
ల్లంఘ	-5619
▁జీవో	-5620
▁బెడ్	-5621
▁తేల్చి	-5622
కాంక్షలు	-5623
▁ఉన్నాడు	-5624
▁రిమాండ్	-5625
▁జిల్లాకు	-5626
▁మంత్రిత్వ	-5627
▁సంవత్సరంలో	-5628
▁మున్సిపాలిటీ	-5629
టిన	-5630
నికే	-5631
ొద్దని	-5632
▁చుట్టు	-5633
▁పార్క్	-5634
▁విజయాన్ని	-5635
▁అవుతున్నాయి	-5636
as	-5637
▁ఛై	-5638
జీగా	-5639
▁ండి	-5640
▁వాణి	-5641
▁సూచన	-5642
▁పథకాలు	-5643
▁పరిహారం	-5644
▁దృష్టిలో	-5645
▁జరుగుతున్నాయి	-5646
▁ఆవిష్	-5647
▁పటేల్	-5648
చ్చింది	-5649
▁ఉల్లంఘ	-5650
▁ఛైర్మన్	-5651
▁నమోదైంది	-5652
▁సత్యనారాయణ	-5653
୍ୟ	-5654
వళి	-5655
మిడి	-5656
▁తగి	-5657
▁ఫ్ల	-5658
▁బట్ట	-5659
▁లాల్	-5660
▁రమేశ్	-5661
▁సాంగ్	-5662
▁దేశానికి	-5663
▁న్యాయవాది	-5664
▁సిట్టింగ్	-5665
▁రిజిస్ట్రేషన్	-5666
నుల	-5667
▁ఉదా	-5668
▁మిస్	-5669
వంతమైన	-5670
▁ఏసీబీ	-5671
▁ఎదురుచూ	-5672
▁క్షేత్ర	-5673
ಟ್	-5674
రిట	-5675
షిక	-5676
ాయో	-5677
▁కై	-5678
▁ಗಳ	-5679
▁పుర	-5680
▁వరి	-5681
▁ఫ్లో	-5682
▁శ్రేణ	-5683
▁చంద్రుడి	-5684
జరీ	-5685
▁ధన	-5686
▁చూసు	-5687
▁తనపై	-5688
▁మనకు	-5689
▁నిల్వ	-5690
▁కర్నాటక	-5691
▁వాళ్లకు	-5692
▁సంప్రదాయ	-5693
▁అసెంబ్లీలో	-5694
▁తెలుసుకున్న	-5695
పుల్	-5696
వర్ణ	-5697
▁300	-5698
▁ایک	-5699
▁అసంత	-5700
▁కోలు	-5701
▁లుగా	-5702
▁సభకు	-5703
▁సింహ	-5704
ార్జున	-5705
▁ఎత్తి	-5706
▁రమేష్	-5707
▁ఇద్దరూ	-5708
▁గోల్డ్	-5709
▁పెరిగే	-5710
▁ప్రకటి	-5711
▁పనిచేసే	-5712
▁అక్రమంగా	-5713
▁చిన్నారి	-5714
▁తొమ్మిది	-5715
▁సమక్షంలో	-5716
▁సిరిసిల్ల	-5717
▁చది	-5718
కూడదు	-5719
▁ఢీకొ	-5720
▁పోర్	-5721
▁జపాన్	-5722
▁దేవాల	-5723
▁మారిన	-5724
జిలాండ్	-5725
▁నివాసం	-5726
▁అధికంగా	-5727
▁స్పష్టత	-5728
▁హైకోర్టులో	-5729
▁ఉన్నప్పటికీ	-5730
తిప	-5731
▁శో	-5732
ండటం	-5733
▁సుల	-5734
మిషన్	-5735
▁నాన్	-5736
▁లింగ	-5737
తుండగా	-5738
కప్పుడు	-5739
▁జీహెచ్	-5740
▁చంద్రబాబును	-5741
▁ଦ	-5742
▁ఈవీ	-5743
సిఆర్	-5744
ుకుని	-5745
▁పైకి	-5746
స్టులు	-5747
▁ఓటీటీ	-5748
▁విమాన	-5749
▁పేర్లు	-5750
▁వ్యవధి	-5751
▁సీరియస్	-5752
▁నిర్వహించే	-5753
▁".	-5754
▁42	-5755
తూనే	-5756
▁పోరు	-5757
▁వారా	-5758
▁కనుగొ	-5759
▁చనిపో	-5760
▁దెబ్బతి	-5761
▁భారతదేశంలో	-5762
▁(3	-5763
స్టా	-5764
ెంబరు	-5765
▁బాడీ	-5766
▁వీరికి	-5767
▁హైడ్రా	-5768
▁బ్యాటర్	-5769
▁తెరకెక్క	-5770
▁నున్నారు	-5771
▁ప్రశ్నలు	-5772
▁వైఎస్ఆర్	-5773
▁న్యూజిలాండ్	-5774
▁ః	-5775
మాన	-5776
ంటరీ	-5777
▁టర్	-5778
మింగ్	-5779
▁కథనం	-5780
▁బాస్	-5781
▁వేణు	-5782
▁హాల్	-5783
▁వ్యక్త	-5784
లిజెన్స్	-5785
▁కానిస్టే	-5786
▁రిపోర్ట్	-5787
▁వేస్తున్నారు	-5788
గితే	-5789
▁కసర	-5790
ెత్తు	-5791
▁రోజా	-5792
▁అధ్యయనం	-5793
▁కోర్టుకు	-5794
▁తీసుకోవాలి	-5795
ات	-5796
▁41	-5797
▁గురైన	-5798
▁సీఎస్	-5799
▁సీతారామ	-5800
▁స్క్రీన్	-5801
▁స్వీకారం	-5802
▁అభ్యర్థులను	-5803
ూహ	-5804
ాయర్	-5805
▁197	-5806
▁ందా	-5807
▁మంద	-5808
ార్క్	-5809
▁కంప్	-5810
▁ఎద్దే	-5811
▁గడ్డం	-5812
▁నిర్వాహ	-5813
ేశ్వరరావు	-5814
▁స్పష్టంగా	-5815
▁అత్యధికంగా	-5816
▁ఎమో	-5817
▁గలి	-5818
▁సీఎ	-5819
తులతో	-5820
▁అవుట్	-5821
▁తీసిన	-5822
▁మించి	-5823
▁గిరిజన	-5824
▁కారణాలు	-5825
▁ప్రైవేటు	-5826
▁బీజేపీలో	-5827
▁అందజేశారు	-5828
▁ీ	-5829
▁ారో	-5830
▁్ని	-5831
న్నది	-5832
▁రుతు	-5833
మ్మల్ని	-5834
▁వీటిలో	-5835
లుత	-5836
▁ఐఏ	-5837
▁సగ	-5838
▁ఎండీ	-5839
▁డౌన్	-5840
▁వాటా	-5841
▁అశోక్	-5842
▁ఆలస్య	-5843
▁కన్నడ	-5844
త్మకంగా	-5845
▁తీవ్రత	-5846
▁దూరంలో	-5847
▁వాహనాలు	-5848
▁ప్రారంభించ	-5849
ండం	-5850
మార్క	-5851
▁ఒలిం	-5852
▁కోటి	-5853
▁చింత	-5854
▁శుభా	-5855
▁ప్రాధ	-5856
▁వివరణ	-5857
▁దాడికి	-5858
▁మార్క్	-5859
▁లేకపోతే	-5860
▁విక్రమార్క	-5861
▁ఉత్తరప్రదేశ్	-5862
రన్	-5863
▁AL	-5864
▁ఇస్	-5865
ారీగా	-5866
▁టాటా	-5867
▁తేల్	-5868
▁లైఫ్	-5869
▁ఫలితం	-5870
▁అతనికి	-5871
▁తీసుకొ	-5872
▁తిరుమలలో	-5873
▁బయలుదేరి	-5874
▁బాలకృష్ణ	-5875
▁కార్యకలాప	-5876
▁చేసుకోవాలని	-5877
-1	-5878
and	-5879
సనం	-5880
▁ఫండ్	-5881
డాల్సి	-5882
▁తొలుత	-5883
▁ఎద్దేవా	-5884
▁నియంత్రణ	-5885
▁లిమిటెడ్	-5886
or	-5887
త్న	-5888
హర్	-5889
త్రా	-5890
సైడ్	-5891
ామిక	-5892
▁ఔట్	-5893
▁ముర	-5894
▁ఒంటరి	-5895
▁గంటలు	-5896
▁పేరిట	-5897
▁సిస్ట	-5898
దారులకు	-5899
▁అభివృద్ధికి	-5900
▁అయినప్పటికీ	-5901
నకు	-5902
▁గల్	-5903
▁జాన్	-5904
▁పవిత	-5905
త్తీస్	-5906
▁నకిలీ	-5907
▁లడ్డూ	-5908
▁ఉండడంతో	-5909
▁ఆసుపత్రిలో	-5910
▁ఎదుర్కొంటున్న	-5911
▁చేస్తున్నామని	-5912
నార్	-5913
ప్ట్	-5914
▁గెలవ	-5915
▁ఫ్లా	-5916
▁రాయ్	-5917
▁సౌత్	-5918
▁ఘర్షణ	-5919
▁బరిలో	-5920
▁బారిన	-5921
▁యూనియన్	-5922
▁క్రియేట్	-5923
▁బిల్డింగ్	-5924
▁చేసుకోవాలి	-5925
▁సంగారెడ్డి	-5926
ంపుల	-5927
▁తదు	-5928
▁ఆక్రమ	-5929
▁సహాయక	-5930
▁ట్రాక్	-5931
▁అడిషనల్	-5932
▁నిమిషాల	-5933
వకు	-5934
వర్గ	-5935
వుగా	-5936
ామున	-5937
త్రిక	-5938
▁నివా	-5939
▁షాపు	-5940
▁నివాస	-5941
▁ఓటింగ్	-5942
▁తదుపరి	-5943
▁ఫార్మా	-5944
▁భూమిని	-5945
▁వివరాల	-5946
▁మెరుగైన	-5947
▁వచ్చినా	-5948
▁విటమిన్	-5949
▁చెప్పాలి	-5950
▁చేరుకుని	-5951
▁U	-5952
గామ	-5953
▁మనుష	-5954
▁మిల్	-5955
బాబాద్	-5956
▁ఇదిలా	-5957
▁ఒకసారి	-5958
రించింది	-5959
▁శరీరంలో	-5960
▁అక్కడికి	-5961
▁నెల్లూరు	-5962
▁చేస్తారని	-5963
ದ್ದ	-5964
ాల్సి	-5965
▁స్వి	-5966
ంటుందని	-5967
▁తీశారు	-5968
▁లిస్ట్	-5969
▁స్కామ్	-5970
▁తెలియదు	-5971
▁లక్ష్యం	-5972
▁అప్పటికే	-5973
▁జరగనున్న	-5974
హిత	-5975
▁ఠా	-5976
వంతం	-5977
సీస్	-5978
▁ఆలయం	-5979
▁మంచు	-5980
▁సమాజ	-5981
ాయింట్	-5982
▁ఉండడం	-5983
▁భూముల	-5984
చుకున్న	-5985
▁కారులో	-5986
▁కెమెరా	-5987
▁నాలుగే	-5988
▁స్వల్ప	-5989
▁పాత్రలో	-5990
▁మ్యూజిక్	-5991
▁మరణించారు	-5992
రగాయ	-5993
రాయి	-5994
▁ఆఫర్	-5995
▁పర్వ	-5996
▁అనుబంధ	-5997
▁నోటీసు	-5998
▁బియ్యం	-5999
ించుకుని	-6000
▁జట్టులో	-6001
▁మెజారిటీ	-6002
▁యూట్యూబ్	-6003
▁ఉష్ణోగ్రతలు	-6004
▁ఉప్ప	-6005
▁ఇంద్ర	-6006
▁తేలిక	-6007
▁నిండి	-6008
▁సాక్ష	-6009
▁స్వాత	-6010
▁కేసును	-6011
▁రాగానే	-6012
▁చెప్పడం	-6013
▁సరిగ్గా	-6014
ించుకుంది	-6015
▁మాట్లాడే	-6016
▁అవుతుందని	-6017
▁మరికొందరు	-6018
హరి	-6019
▁గఢ్	-6020
▁గోడ	-6021
▁బంగా	-6022
▁ారనే	-6023
కారులు	-6024
▁కత్తి	-6025
▁నిలిచ	-6026
▁ధాన్యం	-6027
▁విభాగం	-6028
▁జరిగితే	-6029
▁సంబంధాలు	-6030
▁సూర్యాపేట	-6031
▁అవుతున్నారు	-6032
▁O	-6033
▁ామ	-6034
సాప్	-6035
▁భాగం	-6036
త్తులు	-6037
▁ఉల్లి	-6038
▁ప్రయోగ	-6039
▁బెస్ట్	-6040
▁కీలకంగా	-6041
▁ఉన్నట్టు	-6042
▁వాట్సాప్	-6043
▁నిర్మాణానికి	-6044
یڈیو	-6045
విల్	-6046
▁వహి	-6047
▁వాగ్	-6048
▁స్టి	-6049
పించిన	-6050
▁గాయాల	-6051
వుతున్న	-6052
▁ఉండేలా	-6053
▁జైలులో	-6054
▁పలికారు	-6055
▁పాయింట్	-6056
▁రిజర్వ్	-6057
▁పెట్రోల్	-6058
▁మహబూబాబాద్	-6059
▁షీ	-6060
▁దూర	-6061
▁స్న	-6062
పించి	-6063
▁నిఘా	-6064
▁ఖర్గే	-6065
▁కూరగాయ	-6066
▁చూస్తు	-6067
▁మణిపూర్	-6068
▁చేసుకుంటున్న	-6069
క్కల	-6070
ఫ్టీ	-6071
లంలో	-6072
వారా	-6073
విని	-6074
▁బలో	-6075
▁రేప	-6076
▁జమ్మ	-6077
▁బ్యాల	-6078
▁రెగ్య	-6079
▁ఊహించని	-6080
▁గ్లోబల్	-6081
▁బ్రిటన్	-6082
▁చెబుతోంది	-6083
▁పెట్టుబడులు	-6084
ھا	-6085
దరి	-6086
సరా	-6087
▁ంత	-6088
ాలన్న	-6089
▁కొడు	-6090
▁డెలి	-6091
ించేలా	-6092
▁కాపాడ	-6093
▁చేయలే	-6094
▁నవీన్	-6095
▁మాదిరి	-6096
▁గ్రామీణ	-6097
▁వెలుగులోకి	-6098
▁చోటుచేసుకుంది	-6099
▁అభిప్రాయపడ్డారు	-6100
రె	-6101
▁గది	-6102
▁సపో	-6103
▁వీలు	-6104
▁ویڈیو	-6105
▁అవుతు	-6106
▁ఇంజనీ	-6107
▁ఉత్తమ	-6108
▁క్రీడా	-6109
▁చివరకు	-6110
▁మామిడి	-6111
▁వయస్సు	-6112
▁అడుగులు	-6113
▁బాధితులు	-6114
▁ఆస్పత్రికి	-6115
▁నిర్వహించి	-6116
▁ప్రాంతానికి	-6117
▁శుభాకాంక్షలు	-6118
జాన్	-6119
జీలు	-6120
తీరు	-6121
▁కండ	-6122
▁బలం	-6123
ధులను	-6124
▁చక్ర	-6125
▁పోల్	-6126
▁వెలు	-6127
▁సగటు	-6128
▁కోరిక	-6129
▁పీఎస్	-6130
స్తోందని	-6131
▁తెలియని	-6132
▁డిపార్ట్	-6133
▁వైసీపీకి	-6134
▁నాగార్జున	-6135
▁ఎప్పటికప్పుడు	-6136
▁55	-6137
మూర్	-6138
ండీస్	-6139
గోపాల్	-6140
▁సంఘాల	-6141
▁కళాశాల	-6142
▁నాయకుల	-6143
▁గ్రేటర్	-6144
▁వ్యక్తిని	-6145
▁ఖు	-6146
పాతం	-6147
సాని	-6148
తోన్న	-6149
▁తమను	-6150
▁స్తే	-6151
▁అశ్వి	-6152
▁పవిత్ర	-6153
▁నిర్మల్	-6154
▁ప్రశ్ని	-6155
▁ఫలితంగా	-6156
▁ఆర్థికంగా	-6157
▁యాజమాన్యం	-6158
విక	-6159
▁RE	-6160
▁భవన	-6161
▁వివ	-6162
▁ులు	-6163
తంత్ర	-6164
శంకర్	-6165
▁వేచి	-6166
▁కొండా	-6167
▁ారంటూ	-6168
▁నొప్పి	-6169
▁మార్గం	-6170
▁సభ్యుడు	-6171
▁ఎకరాల్లో	-6172
▁ప్రజల్లో	-6173
▁p	-6174
చలం	-6175
జల్	-6176
▁39	-6177
▁یہ	-6178
▁ఆశా	-6179
▁మూసి	-6180
ండింగ్	-6181
▁జమ్మూ	-6182
▁ఉదాహరణ	-6183
▁ఛాన్స్	-6184
▁రాజకీయం	-6185
▁శ్రీనివాస	-6186
ଥି	-6187
శై	-6188
▁;	-6189
▁କର	-6190
ట్రా	-6191
▁డయా	-6192
▁సప్	-6193
ించగా	-6194
్యాలు	-6195
▁అంశా	-6196
▁దాకా	-6197
▁దాటి	-6198
▁అయ్యి	-6199
▁పల్లె	-6200
▁అంశాలు	-6201
▁జైలుకు	-6202
▁పిల్లలను	-6203
▁కుటుంబాలకు	-6204
▁నిర్వహిస్తున్న	-6205
ాపన	-6206
▁సంకే	-6207
▁నెలలు	-6208
లక్ష్మి	-6209
▁టాపిక్	-6210
▁నేతలతో	-6211
▁ప్రగతి	-6212
▁ఐదుగురు	-6213
▁తీర్మానం	-6214
▁కార్యక్రమాన్ని	-6215
ಂದು	-6216
▁జమ	-6217
గ్రహ	-6218
ారన్న	-6219
▁అతడి	-6220
▁ఇంటె	-6221
▁ఐక్య	-6222
▁రియా	-6223
▁సిక్	-6224
▁ఆనంద్	-6225
▁ఇష్టం	-6226
▁టీజర్	-6227
▁పుట్ట	-6228
▁భోజనం	-6229
▁డాక్యు	-6230
▁వాటిలో	-6231
త్వంలోని	-6232
▁విగ్రహం	-6233
▁టికెట్లు	-6234
SO	-6235
ری	-6236
నేయ	-6237
ోన్	-6238
▁46	-6239
▁ఉంద	-6240
▁రన్	-6241
▁ఉప్పు	-6242
▁పథకాల	-6243
క్షన్స్	-6244
▁అలవాటు	-6245
▁క్వార్	-6246
▁నెయ్యి	-6247
▁ముప్పు	-6248
▁వాటికి	-6249
▁ఇంటర్నే	-6250
▁జట్టుకు	-6251
▁ఉపాధ్యాయ	-6252
▁రాజమండ్రి	-6253
▁లభించింది	-6254
▁చంద్రశేఖర్	-6255
AD	-6256
▁ಇ	-6257
తన్య	-6258
లండ్	-6259
▁گیا	-6260
▁చైర్	-6261
▁అనిపి	-6262
▁కిలోల	-6263
▁బ్రహ్	-6264
▁యువకుడు	-6265
ేస్	-6266
నులు	-6267
ారిత	-6268
ులైన	-6269
ಡಿಯೋ	-6270
▁READ	-6271
▁ఎల్ల	-6272
▁కూలీ	-6273
▁చర్మ	-6274
▁పిల్	-6275
▁సమన్	-6276
▁నిరాశ	-6277
▁బలోపే	-6278
▁విభజన	-6279
శ్రామిక	-6280
▁కోరుతూ	-6281
▁ప్లేస్	-6282
▁శాసనసభ	-6283
▁కెసిఆర్	-6284
▁నాయకత్వం	-6285
▁వస్తాయని	-6286
▁అందిస్తున్న	-6287
▁పారిశ్రామిక	-6288
డక	-6289
▁ALSO	-6290
▁క్రె	-6291
▁దసరా	-6292
▁రంగం	-6293
▁శరీర	-6294
ండెంట్	-6295
డ్డాడు	-6296
ప్పుడే	-6297
స్టిక్	-6298
▁రూరల్	-6299
▁అన్నది	-6300
▁రోడ్లు	-6301
▁తీవ్రమైన	-6302
وی	-6303
ధ్యం	-6304
యాంశ	-6305
▁పొర	-6306
మ్మద్	-6307
▁కోటా	-6308
▁జగదీ	-6309
▁ఫోర్	-6310
▁బీమా	-6311
▁స్పో	-6312
▁హుస్	-6313
▁ఇళ్లు	-6314
▁చర్చనీ	-6315
▁ధ్వంసం	-6316
▁సునీల్	-6317
▁స్కీమ్	-6318
▁డెలివరీ	-6319
▁మార్గంలో	-6320
ାଇ	-6321
ందీ	-6322
ంజర్	-6323
▁టమా	-6324
▁బల్	-6325
నేశ్వ	-6326
▁జనతా	-6327
▁ఫాలో	-6328
▁సరిపో	-6329
▁పరిమిత	-6330
▁రాజీవ్	-6331
▁వీరిలో	-6332
▁పెట్టడం	-6333
▁స్వాగతం	-6334
▁వచ్చినట్లు	-6335
▁తెలుస్తుంది	-6336
▁ଭ	-6337
▁ಜ	-6338
▁ఓట	-6339
మిక్	-6340
ందింది	-6341
లెన్స్	-6342
ొచ్చని	-6343
▁తినడం	-6344
▁నేతలకు	-6345
▁కసరత్తు	-6346
▁తనిఖీలు	-6347
▁భాస్కర్	-6348
▁తేదీల్లో	-6349
▁కార్మికుల	-6350
ంకు	-6351
కప్	-6352
▁యం	-6353
▁లొ	-6354
▁కబ్	-6355
▁సిం	-6356
▁వాహనం	-6357
▁సస్పెండ్	-6358
30	-6359
▁J	-6360
తన్	-6361
▁-1	-6362
▁38	-6363
▁Re	-6364
కైనా	-6365
▁ఆయుధ	-6366
▁గేమ్	-6367
▁డిపా	-6368
▁పోయే	-6369
▁మోడల్	-6370
▁లింక్	-6371
▁ఇందిరా	-6372
▁ఎన్డీఏ	-6373
▁అప్పుడే	-6374
▁పెరిగాయి	-6375
▁ఫలితాలను	-6376
▁కొత్తగూడెం	-6377
▁చర్చనీయాంశ	-6378
▁ఇంటర్నేషనల్	-6379
▁దక్షిణాఫ్రికా	-6380
డైన	-6381
బంధు	-6382
▁కట్	-6383
▁స్ఫ	-6384
▁ఉంటూ	-6385
▁చూసే	-6386
▁నితీ	-6387
▁లోడ్	-6388
▁సిట్	-6389
▁అంతరి	-6390
▁సీపీఐ	-6391
▁సొంతం	-6392
▁అడుగుల	-6393
▁చేతులు	-6394
▁నేపాల్	-6395
▁ఆధారాలు	-6396
కరించింది	-6397
▁విశాఖపట్నం	-6398
సలు	-6399
సేజ్	-6400
▁150	-6401
▁వలన	-6402
▁ఉందా	-6403
▁కామె	-6404
▁ఎంపీలు	-6405
▁కాలంగా	-6406
▁నిత్యం	-6407
▁శ్రీరా	-6408
▁పోతున్న	-6409
▁నిందితులు	-6410
▁పెట్టుకున్న	-6411
ెన	-6412
▁టూ	-6413
డిట్	-6414
▁..?	-6415
హిల్స్	-6416
▁తున్న	-6417
▁డిజైన్	-6418
▁హామీలు	-6419
▁ఇంటెలిజెన్స్	-6420
ak	-6421
▁ణ	-6422
కూరు	-6423
▁బెల్	-6424
▁సీజ్	-6425
▁సమగ్ర	-6426
▁సార్వ	-6427
▁అతన్ని	-6428
▁ఎక్కడా	-6429
▁వారీగా	-6430
▁స్కోరు	-6431
▁పరిష్కర	-6432
▁వేడుకలు	-6433
▁క్వార్టర్	-6434
▁స్థలానికి	-6435
▁కోరుతున్నారు	-6436
▁ప్రారంభించిన	-6437
de	-6438
om	-6439
▁ఎగ	-6440
▁తహ	-6441
జిల్	-6442
▁వారే	-6443
▁మేయర్	-6444
▁ముంబయి	-6445
▁సురేష్	-6446
▁ఆశ్చర్య	-6447
▁కొట్టుకు	-6448
▁లభిస్తుంది	-6449
▁h	-6450
డియం	-6451
▁ఘోర	-6452
▁ట్ల	-6453
యింగ్	-6454
▁2016	-6455
▁పాలి	-6456
▁పిఠా	-6457
▁శంకు	-6458
ేశ్వరి	-6459
▁అభిషే	-6460
▁కడుపు	-6461
▁క్షమా	-6462
▁తీర్చ	-6463
▁వేముల	-6464
▁అహ్మద్	-6465
మవుతుంది	-6466
▁కీలకమైన	-6467
▁పెట్టుకుని	-6468
▁సూచించింది	-6469
శీ	-6470
గల్	-6471
మణి	-6472
▁ରେ	-6473
▁డమే	-6474
న్నర్	-6475
▁దోపి	-6476
▁స్పి	-6477
నమెంట్	-6478
▁లేవని	-6479
ాంపియన్	-6480
▁డీజీపీ	-6481
▁స్ట్రా	-6482
▁కారణమని	-6483
▁సమయానికి	-6484
re	-6485
ھی	-6486
▁ఝ	-6487
సేపు	-6488
▁చేశా	-6489
ద్దీన్	-6490
▁ఆరుగు	-6491
▁మండలి	-6492
▁వెళ్ళ	-6493
▁యూనిట్	-6494
▁రివ్యూ	-6495
▁వచ్చాక	-6496
▁వృత్తి	-6497
▁సూచనలు	-6498
▁భాగస్వామ	-6499
▁మాట్లాడి	-6500
▁కానిస్టేబుల్	-6501
చె	-6502
ಡು	-6503
▁ଅ	-6504
.15	-6505
ెట్టు	-6506
స్ట్రి	-6507
▁అప్లి	-6508
▁బలహీన	-6509
▁బైడెన్	-6510
▁సంచారం	-6511
▁సిద్దం	-6512
▁తెలిసిన	-6513
▁బిఆర్ఎస్	-6514
▁గుండెపోటు	-6515
ೆಯ	-6516
▁l	-6517
సాద్	-6518
ైనర్	-6519
▁ఆకా	-6520
▁కేశ	-6521
▁నంది	-6522
▁పైనా	-6523
▁పోషి	-6524
▁ాలని	-6525
▁ంచారు	-6526
▁సహకార	-6527
▁అదనంగా	-6528
ించిందని	-6529
▁అనుమానం	-6530
▁మొత్తంలో	-6531
▁సినిమాల్లో	-6532
▁చెబుతున్నాయి	-6533
▁c	-6534
▁Ch	-6535
సాయి	-6536
ారంటూ	-6537
▁కక్ష	-6538
▁ల్ని	-6539
▁సుదీ	-6540
▁సెన్	-6541
▁అండర్	-6542
▁హత్యకు	-6543
▁అవినాష్	-6544
▁బ్రాండ్	-6545
▁లక్ష్మి	-6546
▁బ్రిడ్జి	-6547
▁చేసుకోవడం	-6548
▁ఆస్పత్రిలో	-6549
لی	-6550
మంతా	-6551
▁అఫ్	-6552
▁పౌర	-6553
క్రియ	-6554
▁జాతర	-6555
▁రాయల	-6556
▁సంస్	-6557
ణాల్లో	-6558
ర్ట్స్	-6559
▁అబ్దు	-6560
▁సత్తా	-6561
▁ఉపయోగి	-6562
▁పార్టీలకు	-6563
▁అంతేకాకుండా	-6564
ణాల	-6565
▁రస	-6566
ద్వే	-6567
▁ఏను	-6568
▁డిఫ	-6569
▁నాశ	-6570
▁వేస	-6571
▁ఇప్ప	-6572
▁జాబ్	-6573
▁బెది	-6574
▁భువన	-6575
▁లీక్	-6576
▁మార్చు	-6577
▁అప్పులు	-6578
▁చిత్తూరు	-6579
▁సమయంలోనే	-6580
▁W	-6581
కరం	-6582
హనం	-6583
క్యూ	-6584
త్తం	-6585
▁బదు	-6586
▁అంబా	-6587
▁పాటి	-6588
నార్హం	-6589
▁ఆర్టి	-6590
▁కూర్చ	-6591
▁ఘటనలు	-6592
▁ఉచితంగా	-6593
▁తీసుకువ	-6594
▁బిలియన్	-6595
▁గమనార్హం	-6596
▁సినిమాతో	-6597
▁తప్పకుండా	-6598
▁పేర్కొన్న	-6599
▁అప్లికేషన్	-6600
▁స్పందించిన	-6601
▁ହ	-6602
ేలా	-6603
పూడి	-6604
▁ఖండ	-6605
▁కూలి	-6606
▁దొరక	-6607
▁ధరణి	-6608
▁సులభ	-6609
▁హైవే	-6610
దాన్ని	-6611
▁జట్లు	-6612
▁తోంది	-6613
▁మొన్న	-6614
పోవడంతో	-6615
▁నిజంగా	-6616
▁బయటికి	-6617
▁ఇందుకోసం	-6618
▁కౌన్సిల్	-6619
▁ప్రారంభి	-6620
▁వర్కింగ్	-6621
▁నెటిజన్లు	-6622
యన	-6623
దశి	-6624
▁47	-6625
డీవో	-6626
ర్తి	-6627
▁నాట	-6628
హాలను	-6629
▁అత్యు	-6630
▁చౌదరి	-6631
▁జనగామ	-6632
▁ముక్క	-6633
▁సమన్వ	-6634
▁పేదలకు	-6635
▁లాభాలు	-6636
▁విక్రయ	-6637
▁తెలిపిన	-6638
▁పాలస్తీ	-6639
▁మన్నారు	-6640
▁రవీంద్ర	-6641
▁సర్పంచ్	-6642
▁ఇంగ్లండ్	-6643
▁కౌంటింగ్	-6644
▁గ్యారంటీ	-6645
▁పెడుతున్న	-6646
▁అధ్యక్షుడిగా	-6647
భార	-6648
గ్రి	-6649
▁తార	-6650
వర్స్	-6651
▁కలసి	-6652
▁సన్న	-6653
▁సెగ్	-6654
▁ఎగ్జా	-6655
▁కొరియా	-6656
▁బంగాళా	-6657
▁మేనేజ్	-6658
▁సాఫ్ట్	-6659
▁పనితీరు	-6660
▁ఢిల్లీకి	-6661
▁భువనగిరి	-6662
▁స్తుందని	-6663
▁తీసుకురావ	-6664
▁ముందుగానే	-6665
▁తెల్లవారుజ	-6666
▁స్టేడియంలో	-6667
.0	-6668
హో	-6669
▁44	-6670
ంట్లు	-6671
ంత్రా	-6672
గొట్ట	-6673
▁టీపీ	-6674
▁నిరూ	-6675
▁మావో	-6676
ర్యానా	-6677
▁గొంతు	-6678
▁పనులకు	-6679
▁సోదాలు	-6680
▁స్పేస్	-6681
▁అత్యవసర	-6682
▁టెన్షన్	-6683
▁శంకుస్థ	-6684
▁సుదీర్ఘ	-6685
▁హర్యానా	-6686
▁నేతృత్వంలోని	-6687
జో	-6688
▁49	-6689
▁ہیں	-6690
▁కరు	-6691
▁అచ్చ	-6692
▁గార్	-6693
▁చేరే	-6694
▁తోడు	-6695
▁బతుక	-6696
▁పోరాట	-6697
▁వృద్ధి	-6698
▁స్టోరీ	-6699
స్థాయిలో	-6700
▁రామచంద్ర	-6701
▁సాగుతోంది	-6702
▁సూచిస్తున్నారు	-6703
▁కనిపిస్తున్నాయి	-6704
ఖరి	-6705
సాహ	-6706
▁దృశ	-6707
▁ప్ల	-6708
▁బాట	-6709
▁గోల్	-6710
▁ఆసీస్	-6711
▁ఏండ్ల	-6712
▁కింగ్	-6713
▁శరీరం	-6714
▁కలిసిన	-6715
▁పదవికి	-6716
▁పరామర్శ	-6717
▁ప్రభుత్వంపై	-6718
రిత	-6719
టల్స్	-6720
రేటర్	-6721
▁తెరి	-6722
▁పండగ	-6723
▁సందే	-6724
▁సిగ్	-6725
▁స్పా	-6726
ందరికీ	-6727
▁అనుసర	-6728
▁ఆశీర్	-6729
▁కలుపు	-6730
▁నుంది	-6731
▁యొక్క	-6732
మయ్యాయి	-6733
▁ఎక్కడి	-6734
▁వైద్యం	-6735
▁సదుపాయ	-6736
▁సీఎంగా	-6737
▁నిర్మించ	-6738
హే	-6739
వత్	-6740
▁ఆక్	-6741
▁దూసు	-6742
▁విజే	-6743
వాళ్లు	-6744
▁నమ్ము	-6745
▁యూఎస్	-6746
▁జుట్టు	-6747
▁సీతక్క	-6748
▁సెకండ్	-6749
▁లెక్కలు	-6750
▁ప్రకటనలో	-6751
▁చేసినట్టు	-6752
▁స్థానాలకు	-6753
▁చేస్తుందని	-6754
న్యు	-6755
▁ఆడు	-6756
▁రాఘ	-6757
హానికి	-6758
▁ఆస్తి	-6759
▁టీఎంసీ	-6760
▁కాల్పులు	-6761
▁పొలిటికల్	-6762
▁ప్రభావితం	-6763
డూ	-6764
▁ಲ	-6765
టిస్	-6766
పాలి	-6767
▁కొల	-6768
▁లేన	-6769
పూర్వ	-6770
▁క్వి	-6771
▁డైలా	-6772
▁దానం	-6773
▁వేసే	-6774
టిక్స్	-6775
▁రేంజ్	-6776
▁సరిగా	-6777
▁ఎవరికీ	-6778
▁వేలాది	-6779
▁సిటీలో	-6780
▁కోరింది	-6781
▁రాజశేఖర్	-6782
▁వ్యాపారం	-6783
▁ప్రతినిధులు	-6784
▁సమాచారాన్ని	-6785
وں	-6786
ಂಬ	-6787
ీప్	-6788
▁పసి	-6789
▁మెడ	-6790
పర్తి	-6791
▁చాలు	-6792
▁విలీ	-6793
వుల్లో	-6794
▁ఏమిటి	-6795
▁ఏమైనా	-6796
▁తిరస్	-6797
▁గ్రూపు	-6798
▁జైల్లో	-6799
▁వెల్లు	-6800
పించింది	-6801
▁కుంటున్న	-6802
▁ఢిల్లీలోని	-6803
ికే	-6804
▁యే	-6805
ండన్	-6806
టీస్	-6807
సీసీఐ	-6808
▁పనుల	-6809
▁సిలి	-6810
▁ఒప్పంద	-6811
▁పర్సన్	-6812
▁వ్యక్తుల	-6813
▁ఎన్నికలలో	-6814
▁కనిపించడం	-6815
▁కుటుంబంలో	-6816
▁ప్రయోజనాలు	-6817
▁అప్రమత్తంగా	-6818
sh	-6819
కన్	-6820
▁(4	-6821
▁ైన	-6822
ందున	-6823
▁లారీ	-6824
▁వెనక	-6825
▁ఈవీఎం	-6826
▁లన్నీ	-6827
▁వార్డు	-6828
▁పాల్పడిన	-6829
▁ప్రముఖులు	-6830
▁జరుగుతుందని	-6831
▁ప్రభుత్వాలు	-6832
▁چ	-6833
▁డొ	-6834
▁గాను	-6835
▁డీఎం	-6836
▁నగరం	-6837
▁ఇండ్ల	-6838
▁ఒప్పు	-6839
▁ఫీచర్	-6840
▁చక్కెర	-6841
▁ఎలక్షన్	-6842
▁మల్లికార్	-6843
ఫై	-6844
▁ఫౌ	-6845
టెక్	-6846
▁వెహ	-6847
ృష్టి	-6848
▁గంగా	-6849
▁గడ్డ	-6850
▁విరమ	-6851
పిక్స్	-6852
▁చెత్త	-6853
▁నాగర్	-6854
▁ఏర్పడి	-6855
▁స్తాయి	-6856
▁చరిత్రలో	-6857
▁లక్షణాలు	-6858
▁గురయ్యారు	-6859
it	-6860
రోధక	-6861
▁క్లీ	-6862
▁ఘటనా	-6863
▁టాస్	-6864
▁వేసు	-6865
▁టైంలో	-6866
▁నెలకు	-6867
▁నువ్వు	-6868
▁రహదారి	-6869
▁సమాధాన	-6870
ాయన్నారు	-6871
▁దీపావళి	-6872
▁బతుకమ్మ	-6873
▁స్థాయికి	-6874
▁కోల్పోయిన	-6875
ir	-6876
కంలో	-6877
భద్ర	-6878
వాదం	-6879
వారీ	-6880
షియా	-6881
ినాడ	-6882
▁మేష	-6883
▁ಪ್ರ	-6884
పోవడం	-6885
▁ఇయర్	-6886
▁ఎదుట	-6887
▁విభే	-6888
▁ఐఏఎస్	-6889
▁ముగియ	-6890
▁రింగ్	-6891
▁వేలకు	-6892
▁సందీప్	-6893
▁ವಿಡಿಯೋ	-6894
▁కాకినాడ	-6895
▁గ్యాంగ్	-6896
▁డిగ్రీల	-6897
▁దారుణంగా	-6898
▁అసంతృప్తి	-6899
▁వెళ్లేందుకు	-6900
ధ్	-6901
▁ಚ	-6902
జీవ	-6903
▁గద్	-6904
▁భువ	-6905
▁మాస	-6906
▁సల్	-6907
▁పింఛ	-6908
▁మాన్	-6909
▁బ్యూటీ	-6910
▁అంటున్న	-6911
▁కలిశారు	-6912
▁గాయపడిన	-6913
▁రాయలసీమ	-6914
▁చేయాల్సిన	-6915
▁చేసుకున్నాడు	-6916
ab	-6917
▁5,	-6918
▁54	-6919
ట్టం	-6920
▁పల్	-6921
▁విల	-6922
▁గ్లా	-6923
▁రీసె	-6924
్యూటర్	-6925
▁జీవన్	-6926
▁పక్కా	-6927
▁పరిణా	-6928
▁బొమ్మ	-6929
▁లక్నో	-6930
▁వెయ్యి	-6931
మవుతోంది	-6932
▁క్రిమిన	-6933
▁బీసీసీఐ	-6934
▁రైజర్స్	-6935
▁కేటాయించ	-6936
▁ప్రజాప్ర	-6937
చరణ	-6938
▁in	-6939
వస్థ	-6940
సైటీ	-6941
▁అతడు	-6942
▁కీర్	-6943
▁చోరీ	-6944
▁దాస్	-6945
▁పాండ	-6946
▁సజ్జ	-6947
▁జయంతి	-6948
▁గెలుపొ	-6949
▁పెడితే	-6950
▁భూకంపం	-6951
▁సమాచార	-6952
▁సాధ్యం	-6953
▁జేడీఎస్	-6954
▁రాజేంద్ర	-6955
▁విషయాలను	-6956
▁కేంద్రానికి	-6957
ic	-6958
ବା	-6959
తగా	-6960
▁బస	-6961
నీటి	-6962
▁196	-6963
▁కృత	-6964
▁గరి	-6965
▁బడు	-6966
స్థాన	-6967
▁మేడ్	-6968
▁వెలి	-6969
▁కన్నీ	-6970
▁క్లాస్	-6971
▁స్ట్రీ	-6972
కోవాల్సి	-6973
▁నిబంధనలు	-6974
▁బ్యారేజీ	-6975
▁స్పోర్ట్స్	-6976
▁కేంద్రంలోని	-6977
▁మృతదేహాన్ని	-6978
్ర్	-6979
తుడు	-6980
పైకి	-6981
ప్రా	-6982
▁400	-6983
▁టెం	-6984
స్టుల	-6985
▁2017	-6986
▁తేలి	-6987
▁జడ్జి	-6988
▁తిప్ప	-6989
▁నడుపు	-6990
▁దోపిడీ	-6991
▁పొన్నం	-6992
▁ముఖ్యం	-6993
▁వినోద్	-6994
▁సివిల్	-6995
▁సొసైటీ	-6996
▁గ్రామాల	-6997
▁ఆందోళనకు	-6998
▁న్యాయమూర్తి	-6999
نے	-7000
లవరం	-7001
▁అఖి	-7002
▁అవా	-7003
▁ఇవ్	-7004
▁ఎంచ	-7005
▁తుఫ	-7006
ద్దాం	-7007
క్కులు	-7008
స్టేట్	-7009
▁ఆకర్ష	-7010
▁ఏర్పడ	-7011
▁నివసి	-7012
▁అనుభవం	-7013
▁సంఘాలు	-7014
▁చూడాలని	-7015
▁సెగ్మెంట్	-7016
▁నిర్లక్ష్యం	-7017
▁సమావేశానికి	-7018
మ్మా	-7019
▁జాన	-7020
యింట్	-7021
షింగ్	-7022
▁ఆడిన	-7023
▁తాత్	-7024
▁పన్న	-7025
▁విడా	-7026
కూడదని	-7027
▁రెస్ట	-7028
▁స్థలం	-7029
ారాబాద్	-7030
▁బీహార్	-7031
▁పెద్దలు	-7032
▁ధర్మాసనం	-7033
▁భద్రాచలం	-7034
▁వస్తున్నారు	-7035
▁పటి	-7036
▁సత్	-7037
▁గులా	-7038
▁దిగి	-7039
▁ఫేస్	-7040
▁హర్ష	-7041
▁గిరిజ	-7042
▁జిల్ల	-7043
▁తెలుపు	-7044
▁రైళ్లు	-7045
▁బస్సులు	-7046
▁రానుంది	-7047
▁తీసుకుంటే	-7048
▁ప్రాధాన్యం	-7049
▁ప్రజాప్రతిని	-7050
ol	-7051
ଛି	-7052
.20	-7053
యడం	-7054
▁తను	-7055
▁బడి	-7056
▁నెస్	-7057
▁బాలా	-7058
▁రాణి	-7059
కానికి	-7060
▁అడిగి	-7061
▁కల్తీ	-7062
▁తరహాలో	-7063
▁అంశాలను	-7064
▁పరిశీలి	-7065
▁రెస్టార	-7066
▁చేస్తాయి	-7067
▁ప్రాతిని	-7068
▁వ్యవస్థను	-7069
▁భావిస్తున్న	-7070
▁రాష్ట్రాలకు	-7071
▁Y	-7072
తాల	-7073
▁ఇష	-7074
క్రో	-7075
డేట్	-7076
▁కమలా	-7077
▁టూరి	-7078
▁మేడి	-7079
▁లుక్	-7080
▁వర్తి	-7081
▁అరుదైన	-7082
▁గాయాలు	-7083
▁టన్నుల	-7084
▁ప్రసంగ	-7085
▁మెసేజ్	-7086
▁లోకేశ్	-7087
▁స్కోర్	-7088
▁స్టాక్	-7089
▁వెల్లడి	-7090
▁ఒక్కొక్క	-7091
▁చేయలేదని	-7092
▁నిందితుల	-7093
▁భారతదేశం	-7094
▁భువనేశ్వ	-7095
▁దర్శకత్వంలో	-7096
ag	-7097
▁65	-7098
▁ವೈ	-7099
చారి	-7100
▁గౌత	-7101
▁మాల	-7102
▁తినే	-7103
▁వారంతా	-7104
▁ాల్సిన	-7105
నిస్తాన్	-7106
▁అన్యాయం	-7107
▁కంటెంట్	-7108
తున్నట్లు	-7109
▁కేసుల్లో	-7110
▁విషయానికి	-7111
▁వ్యాపారులు	-7112
ಿಯ	-7113
▁ధృ	-7114
▁కాంబ	-7115
▁కొని	-7116
▁చెరు	-7117
▁వేటు	-7118
▁ఆయిల్	-7119
▁ఊపిరి	-7120
▁కష్టం	-7121
స్తోన్న	-7122
▁ఆయన్ను	-7123
▁కల్వకు	-7124
▁చెందారు	-7125
▁సమస్యను	-7126
▁అందించిన	-7127
▁చెల్లించ	-7128
▁చేసుకొని	-7129
▁నిలిచారు	-7130
▁స్వతంత్ర	-7131
▁తాత్కాలిక	-7132
▁మారుతోంది	-7133
▁సార్వత్రిక	-7134
▁పరిస్థితిని	-7135
రద	-7136
▁ು	-7137
కాశం	-7138
▁తీర	-7139
▁పొగ	-7140
▁యోగం	-7141
▁కన్ను	-7142
▁హెలికా	-7143
▁అందించే	-7144
▁ఒకేసారి	-7145
▁ప్రశాంత	-7146
▁మేనేజర్	-7147
▁విశ్లేష	-7148
▁ఉద్యోగాల	-7149
▁చిన్నారు	-7150
▁కేంద్రంగా	-7151
▁నిర్వహించాలని	-7152
▁k	-7153
▁దౌ	-7154
▁యి	-7155
▁ఎలి	-7156
▁కలగ	-7157
▁మరు	-7158
▁....	-7159
▁నాన్న	-7160
మన్నారు	-7161
▁జరిపిన	-7162
▁యజమాని	-7163
▁క్షమాపణ	-7164
▁నిజానికి	-7165
▁ఆరోగ్యానికి	-7166
ec	-7167
▁*	-7168
ణిక	-7169
సార	-7170
భావం	-7171
ెంజ్	-7172
▁ఇవే	-7173
▁మహే	-7174
బెట్ట	-7175
స్తరు	-7176
▁భవనం	-7177
▁మలయా	-7178
▁కిందట	-7179
▁అధిష్ట	-7180
▁తలెత్త	-7181
▁పోయారు	-7182
▁మునిగి	-7183
▁విక్రమ్	-7184
▁హాస్టల్	-7185
▁అంతరిక్ష	-7186
▁తగ్గింది	-7187
పోతున్నారు	-7188
▁వర్గానికి	-7189
▁బెంగళూరులో	-7190
▁ఇస్తున్నారు	-7191
▁చూస్తున్నారు	-7192
▁చేస్తున్నాడు	-7193
▁బక	-7194
కుంట	-7195
దిగా	-7196
సభ్య	-7197
▁బయో	-7198
▁శిశు	-7199
▁సదరు	-7200
▁అనుభవ	-7201
▁నేతలను	-7202
▁వర్షాల	-7203
▁చేస్తాం	-7204
▁వేయాలని	-7205
▁హనుమాన్	-7206
▁స్టేడియం	-7207
థా	-7208
మనం	-7209
తంలో	-7210
ుకునే	-7211
▁ఎత్త	-7212
▁జీవన	-7213
▁పోతు	-7214
▁బంతి	-7215
▁సమంత	-7216
▁సీన్	-7217
▁ఏపీకి	-7218
▁కబ్జా	-7219
▁నిషేధ	-7220
▁పొందే	-7221
▁మల్కా	-7222
▁సమితి	-7223
▁కొట్టే	-7224
▁ప్రీమి	-7225
▁మహ్మద్	-7226
▁యాక్ట్	-7227
▁కర్నూలు	-7228
▁సాధించి	-7229
▁బంగాళాఖా	-7230
▁మొత్తంగా	-7231
▁సంక్షేమం	-7232
▁పెట్టాలని	-7233
▁పరిస్థితుల	-7234
لا	-7235
కాడ	-7236
▁-2	-7237
ట్లే	-7238
▁కోర	-7239
▁మంచ	-7240
▁తానే	-7241
ండడంతో	-7242
▁లీకేజీ	-7243
▁శ్రీకా	-7244
▁సందర్బ	-7245
▁బలోపేతం	-7246
▁ప్రభావంతో	-7247
▁జీహెచ్ఎంసీ	-7248
▁విధించింది	-7249
▁కాంట్రాక్టర్	-7250
▁m	-7251
సల్	-7252
▁మగ	-7253
జార్	-7254
జిన్	-7255
నాల్	-7256
లింగ	-7257
ారుల	-7258
▁దుబ	-7259
▁టూర్	-7260
▁ట్లే	-7261
▁బంద్	-7262
▁మానే	-7263
వచ్చని	-7264
▁ఫాస్ట్	-7265
▁సైన్యం	-7266
▁ఇచ్చాడు	-7267
▁మోస్తరు	-7268
▁తెలుగులో	-7269
▁పనిచేసిన	-7270
▁చనిపోయారు	-7271
▁చర్చించారు	-7272
▁చెప్తున్నారు	-7273
▁పట్టించుకోవడం	-7274
కత	-7275
తక	-7276
▁హే	-7277
వాణి	-7278
విటీ	-7279
▁మోట	-7280
ోత్సవ	-7281
▁తరచూ	-7282
▁రెజ్	-7283
▁స్వే	-7284
▁అంబటి	-7285
▁జీర్ణ	-7286
▁దక్కి	-7287
▁అర్బన్	-7288
▁ఖాతాలో	-7289
చారానికి	-7290
▁ఎన్డీయే	-7291
▁కష్టాలు	-7292
▁లక్ష్మణ్	-7293
▁విడుదలైన	-7294
▁అర్ధరాత్రి	-7295
▁ప్రపంచంలోనే	-7296
▁శాస్త్రవేత్తలు	-7297
చీ	-7298
ేశం	-7299
▁దామ	-7300
▁సిఫ	-7301
ప్టర్	-7302
▁2009	-7303
▁జియో	-7304
▁లోపల	-7305
▁పనిలో	-7306
▁మనోజ్	-7307
▁లండన్	-7308
▁మెరుపు	-7309
▁హామీలను	-7310
▁పరిణామాలు	-7311
▁న్యాయస్థానం	-7312
గౌ	-7313
▁59	-7314
▁హృ	-7315
తాబ్	-7316
నెట్	-7317
సిస్	-7318
▁దళి	-7319
▁మాధ	-7320
గాయని	-7321
వింగ్	-7322
▁అబ్బ	-7323
▁చాట్	-7324
▁టెలి	-7325
▁డ్రో	-7326
▁తీసే	-7327
▁లాభం	-7328
▁వంతు	-7329
▁కేసుల	-7330
▁చిరుత	-7331
▁నియమి	-7332
▁భూపాల	-7333
▁స్థిర	-7334
▁ఉగ్రవా	-7335
▁టేబుల్	-7336
▁నిషేధం	-7337
▁విరుద్ధ	-7338
▁ఆసక్తికర	-7339
▁క్రెడిట్	-7340
▁బీజేపీతో	-7341
▁ఖచ్చితంగా	-7342
▁అధ్యక్షులు	-7343
ంటో	-7344
పిల్	-7345
▁ఏది	-7346
▁అజయ్	-7347
▁అమర్	-7348
ఫాబాద్	-7349
▁అద్దె	-7350
▁దీర్ఘ	-7351
▁నరసింహ	-7352
▁వద్దని	-7353
▁వేర్వే	-7354
▁ఆస్తులు	-7355
▁చేయడంలో	-7356
▁యువకులు	-7357
▁సపోర్ట్	-7358
▁పనిచేశారు	-7359
▁వ్యతిరేకత	-7360
▁ఎలక్ట్రిక్	-7361
▁X	-7362
ంగో	-7363
▁కొంచ	-7364
▁అనుకో	-7365
▁చార్జి	-7366
▁వివాదా	-7367
▁సహకారం	-7368
▁నిలిచిన	-7369
▁పర్యావరణ	-7370
▁సినిమాపై	-7371
▁స్టార్ట్	-7372
▁హనుమకొండ	-7373
▁పోలీసులను	-7374
▁వస్తువులు	-7375
▁టం	-7376
▁వ్	-7377
▁నేల	-7378
వాలని	-7379
ార్జ్	-7380
▁ఇండ్	-7381
▁ఉండా	-7382
▁తవ్వ	-7383
ుకుంది	-7384
▁కుమార	-7385
▁దాడిలో	-7386
▁మావోయి	-7387
▁చేపట్టాలని	-7388
▁స్టూడెంట్స్	-7389
▁ह	-7390
▁ూ	-7391
ాంగ	-7392
ుని	-7393
▁ఊర	-7394
▁అదృ	-7395
▁సగం	-7396
గుట్ట	-7397
▁నెక్	-7398
▁తప్పి	-7399
▁మిల్ల	-7400
టప్పుడు	-7401
▁ఉత్తమ్	-7402
▁సొమ్ము	-7403
▁సోదరుడు	-7404
▁నగరంలోని	-7405
di	-7406
ధన	-7407
ందరూ	-7408
▁దయా	-7409
▁వంత	-7410
▁జట్ల	-7411
▁రాసి	-7412
▁శ్రమ	-7413
కాలంగా	-7414
▁స్టీల్	-7415
▁నెరవేర్చ	-7416
▁పండితులు	-7417
▁రాజేందర్	-7418
▁ఇచ్చేందుకు	-7419
▁తెల్లవారుజామున	-7420
డె	-7421
ఐఎం	-7422
లనం	-7423
▁ఎఫ	-7424
టుగా	-7425
మైతే	-7426
▁ందే	-7427
▁ఐదో	-7428
▁బండ	-7429
▁సంక	-7430
చర్లు	-7431
రియల్	-7432
▁కండు	-7433
▁ధన్య	-7434
ట్యూట్	-7435
▁ొచ్చు	-7436
▁చైతన్య	-7437
▁తుమ్మల	-7438
▁తెచ్చి	-7439
▁పోయాయి	-7440
▁బుమ్రా	-7441
▁వచ్చని	-7442
▁స్వచ్ఛ	-7443
▁ఇన్వెస్	-7444
▁ప్రాంతాలు	-7445
▁రెగ్యులర్	-7446
▁మొత్తాన్ని	-7447
▁వికారాబాద్	-7448
▁వ్యాఖ్యలపై	-7449
▁సిద్ధరామయ్య	-7450
▁రాష్ట్రాన్ని	-7451
▁ح	-7452
నంద	-7453
మాల	-7454
▁పల	-7455
డారు	-7456
మెన్	-7457
యితే	-7458
▁గమని	-7459
▁పురో	-7460
▁బాయ్	-7461
మాన్ని	-7462
▁కొబ్బ	-7463
▁పురస్	-7464
▁మహేశ్	-7465
▁ఉద్యమం	-7466
▁ఫోన్లు	-7467
▁సదస్సు	-7468
▁దగ్గరకు	-7469
▁ాలన్నారు	-7470
▁అంగీకరించ	-7471
▁ముగిసింది	-7472
▁యుక్రెయిన్	-7473
▁భవిష్యత్తులో	-7474
▁తెలుసుకున్నారు	-7475
ూర	-7476
దిన	-7477
▁51	-7478
▁మిశ	-7479
▁ఎవరో	-7480
మానికి	-7481
▁అబద్ధ	-7482
▁ఇస్లా	-7483
▁పార్ట్	-7484
▁ఫిక్స్	-7485
▁సైన్స్	-7486
▁భూములను	-7487
▁విస్తరణ	-7488
▁నినాదాలు	-7489
▁చిత్రాన్ని	-7490
▁శంకుస్థాపన	-7491
▁43	-7492
▁ہم	-7493
ళ్లే	-7494
▁తోట	-7495
కొత్త	-7496
దిద్ద	-7497
▁అనర్	-7498
▁ఇకపై	-7499
▁డీసీ	-7500
▁మళ్ల	-7501
▁శ్రా	-7502
▁సాగి	-7503
▁సుధా	-7504
▁వైయస్	-7505
▁సచిన్	-7506
▁ారన్న	-7507
▁కావాలి	-7508
▁రాశిలో	-7509
▁వార్తా	-7510
▁సంగీతం	-7511
▁అమ్మవారి	-7512
▁ఇచ్చారని	-7513
▁పర్యటనలో	-7514
బియా	-7515
▁జరప	-7516
▁రకర	-7517
స్తాం	-7518
ైర్యం	-7519
▁కూల్	-7520
ల్దార్	-7521
▁కట్టి	-7522
▁తుంది	-7523
▁మౌలిక	-7524
▁ఆప్షన్	-7525
▁వారంలో	-7526
▁సృష్టి	-7527
▁ఎస్టేట్	-7528
▁విభాగంలో	-7529
▁సరికొత్త	-7530
▁కావాల్సిన	-7531
▁ఎమ్మెల్యేల	-7532
▁నిందితులను	-7533
▁నిర్మించారు	-7534
చన	-7535
డవు	-7536
ూల్	-7537
▁56	-7538
సేన్	-7539
▁ఈవో	-7540
▁ఊరు	-7541
సెంట్	-7542
▁చంపే	-7543
▁త్యా	-7544
▁వేరు	-7545
▁స్తం	-7546
▁హస్త	-7547
▁చర్చి	-7548
▁దారుణ	-7549
▁మస్క్	-7550
▁కొద్దీ	-7551
▁ట్రోఫీ	-7552
▁పదేళ్ల	-7553
▁పోలవరం	-7554
▁ఆంక్షలు	-7555
▁పత్రాలు	-7556
▁ప్రార్థ	-7557
▁మధ్యంతర	-7558
▁చెబుతారు	-7559
▁సమస్యలపై	-7560
▁ాయన్నారు	-7561
▁ఉపయోగించి	-7562
▁పార్టీలోకి	-7563
▁ప్రత్యర్థి	-7564
▁భూపాలపల్లి	-7565
▁అవకాశముందని	-7566
▁చేస్తామన్నారు	-7567
▁a	-7568
ರಲ್	-7569
లార్	-7570
▁వాన	-7571
▁మినహ	-7572
▁మూసీ	-7573
▁యూత్	-7574
▁రూట్	-7575
లానికి	-7576
▁కొంచెం	-7577
▁తెలుసా	-7578
▁సేవలను	-7579
▁హక్కుల	-7580
▁కింగ్స్	-7581
▁చివరికి	-7582
▁మేడ్చల్	-7583
▁కురుస్తాయని	-7584
▁ప్రారంభించింది	-7585
కడ	-7586
▁ఎంజ	-7587
▁తేజ	-7588
▁నీర	-7589
టేషన్	-7590
పించే	-7591
▁డెడ్	-7592
▁మెన్	-7593
▁ందుకే	-7594
▁నాశనం	-7595
▁పట్టా	-7596
▁పనికి	-7597
▁లభించ	-7598
▁ವೈರಲ್	-7599
▁ఆదేశాల	-7600
▁క్రైమ్	-7601
▁విచారణను	-7602
▁పొందుతారు	-7603
▁పెడుతున్నారు	-7604
um	-7605
▁e	-7606
ంపి	-7607
అని	-7608
మల్	-7609
▁ಿಸ	-7610
మూరి	-7611
వర్తి	-7612
▁పదవీ	-7613
▁వెయి	-7614
▁ఐసీసీ	-7615
▁రిటర్	-7616
తుంటారు	-7617
▁గెలుచుకు	-7618
▁ప్రమోషన్	-7619
▁రోడ్డుపై	-7620
▁శాతానికి	-7621
▁మమ	-7622
▁నైట్	-7623
▁లావా	-7624
▁స్థా	-7625
▁పంటలు	-7626
▁షుగర్	-7627
▁చెట్టు	-7628
▁పేలుడు	-7629
▁ఫోటోలు	-7630
▁అయ్యాడు	-7631
▁ఛత్తీస్	-7632
▁పోతుంది	-7633
▁రోడ్లపై	-7634
▁సింగిల్	-7635
▁నాంపల్లి	-7636
▁ఆరోగ్యంగా	-7637
▁భావించారు	-7638
▁అందించాలని	-7639
▁సిద్దరామయ్య	-7640
ంబి	-7641
▁య్	-7642
ప్స్	-7643
సైజ్	-7644
▁ంచి	-7645
▁ఆరం	-7646
▁ముహ	-7647
శ్వాస	-7648
▁చేతి	-7649
▁మిని	-7650
▁ఆదర్శ	-7651
▁చేశాం	-7652
▁పరిసర	-7653
▁విత్త	-7654
▁అనారోగ	-7655
▁ఆలస్యం	-7656
▁కుంభకో	-7657
▁క్యాంప	-7658
▁ఫోర్లు	-7659
▁వాహనాల	-7660
▁సంతోష్	-7661
▁రైతులను	-7662
▁ఇవ్వలేదు	-7663
▁రీసెర్చ్	-7664
▁నిరుద్యోగ	-7665
▁నిలదీశారు	-7666
▁జీవితాన్ని	-7667
un	-7668
ର୍	-7669
జాల	-7670
ికీ	-7671
కెళ్ల	-7672
▁సేవా	-7673
ప్పులు	-7674
▁జరిమా	-7675
▁పవార్	-7676
▁లబ్ది	-7677
▁శతాబ్	-7678
▁ఏకాదశి	-7679
▁పత్రిక	-7680
▁ప్రాక్	-7681
▁బిజీగా	-7682
▁గ్రాండ్	-7683
▁ప్రయోజనం	-7684
▁బంధువులు	-7685
▁స్ఫూర్తి	-7686
▁క్రిమినల్	-7687
▁ఉద్దేశించి	-7688
▁ఫిర్యాదులు	-7689
▁కల్పించాలని	-7690
▁తెలంగాణలోని	-7691
మం	-7692
▁स	-7693
▁అథ	-7694
▁ఓటే	-7695
▁రాణ	-7696
▁సరే	-7697
▁వరదల	-7698
వాదాలు	-7699
▁అరుణ్	-7700
▁కోరిన	-7701
▁ఆరుగురు	-7702
▁ఎగ్జిట్	-7703
▁దంపతులు	-7704
▁పరిష్కరించ	-7705
▁స్పందిస్తూ	-7706
▁మల్లారెడ్డి	-7707
ଙ୍	-7708
షన	-7709
దండ	-7710
▁గై	-7711
▁శీ	-7712
డేజా	-7713
ాయత్	-7714
▁అంజ	-7715
▁నిమ	-7716
▁హృద	-7717
వర్గం	-7718
▁తయార	-7719
▁నెలా	-7720
▁వెను	-7721
ద్వారా	-7722
▁జడేజా	-7723
▁ప్రయో	-7724
▁కిడ్నా	-7725
▁నమోదైన	-7726
▁ఫలితాల	-7727
▁రూపాయి	-7728
▁శ్రద్ధ	-7729
▁ట్రెండ్	-7730
▁చిత్రంలో	-7731
▁ఏర్పాటుకు	-7732
▁ఒలింపిక్స్	-7733
▁ఫల	-7734
▁ుల	-7735
క్వా	-7736
శాయి	-7737
▁కంగ	-7738
▁ధను	-7739
▁బీఐ	-7740
వులకు	-7741
▁గుప్	-7742
▁శారీ	-7743
▁శ్యా	-7744
▁కన్వీ	-7745
▁కూడదు	-7746
▁సునీత	-7747
▁హామీల	-7748
▁అడిగిన	-7749
▁ఏడాదికి	-7750
▁డబ్ల్యూ	-7751
▁సినిమాల	-7752
▁ఇండియాలో	-7753
▁నిలిపివే	-7754
▁ప్రతికూల	-7755
▁వ్యవసాయం	-7756
▁విపరీతంగా	-7757
▁ఉంటున్నారు	-7758
▁జరగనున్నాయి	-7759
▁ప్రత్యేకమైన	-7760
▁షె	-7761
▁పెడ	-7762
చింగ్	-7763
▁అంతర	-7764
▁అనూహ	-7765
▁కొరత	-7766
▁మిలి	-7767
▁మీట్	-7768
▁రోల్	-7769
▁ఆలోచి	-7770
▁క్లబ్	-7771
▁మత్తు	-7772
▁రౌండ్	-7773
▁వేసవి	-7774
▁సరికా	-7775
▁పక్కనే	-7776
▁విషాదం	-7777
▁దేశాలకు	-7778
▁సమాజంలో	-7779
▁బిల్లులు	-7780
▁భిన్నంగా	-7781
▁ఆసిఫాబాద్	-7782
▁శ్రీకాంత్	-7783
▁స్వాతంత్ర	-7784
▁చేస్తోందని	-7785
పారు	-7786
లాడు	-7787
లూరు	-7788
▁ఉపశ	-7789
గాలని	-7790
▁ఓటర్ల	-7791
▁జీఎస్	-7792
▁సురేఖ	-7793
▁స్ట్ర	-7794
▁దూకుడు	-7795
ించుకునే	-7796
▁కర్నూల్	-7797
▁వెళ్లడం	-7798
▁రాష్ట్రాలు	-7799
▁అనుకుంటున్న	-7800
▁నిర్వహిస్తారు	-7801
హర	-7802
▁ع	-7803
▁म	-7804
▁ای	-7805
మూరు	-7806
▁చలి	-7807
▁వ్ర	-7808
వన్నీ	-7809
▁ఆశలు	-7810
▁బెంచ్	-7811
▁రెండి	-7812
▁తీరుపై	-7813
▁రూల్స్	-7814
▁కార్తీక	-7815
▁క్రమంగా	-7816
▁పునరుద్ధ	-7817
▁బీజేపీని	-7818
▁ప్రారంభమైన	-7819
ରେ	-7820
వార	-7821
▁ఈట	-7822
▁పైల	-7823
▁చూశా	-7824
▁రాని	-7825
▁ఎస్సై	-7826
▁కాంప్	-7827
▁తక్షణ	-7828
▁ట్రీట్	-7829
▁ప్రియు	-7830
▁రెస్పా	-7831
▁శివారు	-7832
▁నిధులను	-7833
▁మండలంలో	-7834
▁యాదగిరి	-7835
▁సిస్టమ్	-7836
▁పాల్గొని	-7837
▁వర్షపాతం	-7838
▁భద్రాద్రి	-7839
▁వర్గాల్లో	-7840
▁నిర్ణయాన్ని	-7841
▁పెరుగుతోంది	-7842
ାନ	-7843
ಾಗಿ	-7844
▁57	-7845
▁7,	-7846
▁77	-7847
▁ఆర	-7848
లీట్	-7849
ష్యం	-7850
▁194	-7851
కోలేక	-7852
పూర్ణ	-7853
▁అవమా	-7854
▁తహసీ	-7855
▁భారం	-7856
లెక్స్	-7857
▁కీపర్	-7858
▁గౌరవం	-7859
▁యూజర్	-7860
▁రకాలు	-7861
▁సమ్మె	-7862
▁ఆర్ఎస్	-7863
▁కృతజ్ఞ	-7864
▁వ్యవహర	-7865
కారానికి	-7866
▁అశ్విన్	-7867
▁కస్టమర్	-7868
▁ఇంటర్నెట్	-7869
▁వ్యవహారాల	-7870
▁పరిశీలించి	-7871
▁ఇంజినీరింగ్	-7872
▁వచ్చినప్పుడు	-7873
దాయ	-7874
▁58	-7875
▁లోతు	-7876
▁లోన్	-7877
▁శాఖల	-7878
▁హాని	-7879
▁ఆయనపై	-7880
▁చేయడమే	-7881
▁ఫిల్మ్	-7882
▁ించారు	-7883
▁ఎక్సైజ్	-7884
▁కంపెనీల	-7885
▁జట్టును	-7886
▁నిర్ధార	-7887
▁తెలిపాడు	-7888
▁రావాల్సి	-7889
▁కేటాయింపు	-7890
▁విధానాన్ని	-7891
▁తీసుకెళ్లారు	-7892
▁52	-7893
నీరు	-7894
▁ఖరీ	-7895
▁దర్	-7896
▁నెహ	-7897
▁వని	-7898
▁కనీస	-7899
▁దారిత	-7900
▁వరుణ్	-7901
ప్రసాద్	-7902
▁ఎనర్జీ	-7903
▁విడిచి	-7904
▁శెట్టి	-7905
▁సెర్చ్	-7906
▁ఉంటారని	-7907
▁తీర్పును	-7908
▁ప్రోత్సహ	-7909
▁వార్నింగ్	-7910
▁నటిస్తున్న	-7911
▁అభ్యర్థులకు	-7912
▁చేయాలన్నారు	-7913
▁నాగేశ్వరరావు	-7914
భై	-7915
చర్ల	-7916
▁وائ	-7917
▁వాద	-7918
▁ఆధిక	-7919
▁సవరణ	-7920
▁శాశ్వ	-7921
▁ఒక్కరూ	-7922
▁కార్యా	-7923
▁పండ్లు	-7924
▁రిజర్వ	-7925
▁లిస్టు	-7926
త్వాన్ని	-7927
స్తుండగా	-7928
▁వికెట్ల	-7929
▁స్వేచ్ఛ	-7930
ించాల్సిన	-7931
▁అమెరికన్	-7932
▁ఒకప్పుడు	-7933
▁గెలిచారు	-7934
▁రంగాల్లో	-7935
▁రెండేళ్ల	-7936
▁చెప్పినట్లు	-7937
క్ల	-7938
న్నె	-7939
▁కలవ	-7940
రులను	-7941
రెంట్	-7942
▁గాలు	-7943
▁తేజ్	-7944
▁న్నీ	-7945
▁బూత్	-7946
▁ఎడ్యు	-7947
▁చిక్క	-7948
▁పత్తి	-7949
▁పిండి	-7950
▁బెల్ల	-7951
▁వేయడం	-7952
కుతున్న	-7953
▁కార్డ్	-7954
▁పోటీలో	-7955
▁మొగ్గు	-7956
▁రాజన్న	-7957
▁అందువల్ల	-7958
▁విదేశాంగ	-7959
▁విరుచుకు	-7960
▁సిలిండర్	-7961
▁హెచ్చరికలు	-7962
▁గ్రామస్తులు	-7963
▁न	-7964
గాడు	-7965
డార్	-7966
ల్తా	-7967
▁ఆమ్	-7968
▁పశు	-7969
▁శోభ	-7970
▁సుధ	-7971
ందరగో	-7972
▁గారి	-7973
▁అలియా	-7974
▁చేరిక	-7975
▁నైపుణ	-7976
▁వదులు	-7977
▁సజ్జల	-7978
▁ాలంటే	-7979
▁గందరగో	-7980
▁నెట్టి	-7981
▁సంక్షో	-7982
▁ఇస్తారు	-7983
▁ప్రత్యా	-7984
▁ఉపయోగించ	-7985
▁దేశాన్ని	-7986
▁ప్రశంసలు	-7987
▁విమానంలో	-7988
▁తెరకెక్కి	-7989
▁దినోత్సవం	-7990
▁పడుతుందని	-7991
▁మండలాల్లో	-7992
▁ఇంటర్వ్యూలో	-7993
▁బాధపడుతున్న	-7994
ai	-7995
పరు	-7996
▁99	-7997
మేజ్	-7998
▁ఉస్	-7999
▁అడవి	-8000
▁ఎలాగ	-8001
▁ధ్రు	-8002
▁అడ్డం	-8003
▁బాధిత	-8004
▁లాంగ్	-8005
▁కాలేజ్	-8006
▁పదవులు	-8007
▁సిక్స్	-8008
▁పరీక్షల	-8009
▁టీపీసీసీ	-8010
▁శ్రేణులు	-8011
▁సభ్యులతో	-8012
▁వెళ్లింది	-8013
▁వ్యక్తికి	-8014
▁జరిగినట్లు	-8015
▁రెస్టారెంట్	-8016
ur	-8017
పిన	-8018
వంగా	-8019
సీబీ	-8020
ంజనేయ	-8021
ంటినీ	-8022
యాలను	-8023
లేషన్	-8024
▁ధోనీ	-8025
▁ఫిట్	-8026
▁ముడి	-8027
▁రాధా	-8028
సానికి	-8029
▁గౌతమ్	-8030
▁డయాబె	-8031
▁సైనిక	-8032
▁ఉప్పల్	-8033
▁జూబ్లీ	-8034
▁పోల్స్	-8035
▁కొట్టిన	-8036
▁చేయాలనే	-8037
▁జరిమానా	-8038
▁పడుతోంది	-8039
▁భాగంగానే	-8040
▁అనుమానాలు	-8041
▁కమ్యూనిటీ	-8042
▁ప్రారంభమైంది	-8043
▁రిజర్వేషన్లు	-8044
దవ	-8045
బొ	-8046
▁خ	-8047
ామం	-8048
▁భర	-8049
క్యం	-8050
నేని	-8051
ల్లే	-8052
వీర్	-8053
▁లైస	-8054
రులకు	-8055
▁నైనా	-8056
▁పేదల	-8057
▁వైట్	-8058
▁తీర్థ	-8059
▁పరికర	-8060
▁మళ్ళీ	-8061
▁విధ్వ	-8062
▁సీఈవో	-8063
▁అంబానీ	-8064
▁అభినంద	-8065
▁ఏజెంట్	-8066
▁కారణాల	-8067
▁ఏళ్లుగా	-8068
▁అభ్యంతరం	-8069
▁స్థితిలో	-8070
▁ప్రత్యామ్	-8071
▁ప్లాస్టిక్	-8072
▁క్యారెక్టర్	-8073
▁ప్రతిపక్షాలు	-8074
బడ	-8075
శిక్	-8076
ష్టి	-8077
ెన్న	-8078
▁లవ్	-8079
▁కాలా	-8080
▁నింప	-8081
▁వీసా	-8082
▁శైలి	-8083
▁సేవల	-8084
▁ఇరిగే	-8085
▁దిగ్గ	-8086
▁పూర్వ	-8087
▁వర్షా	-8088
చేందుకు	-8089
▁కీర్తి	-8090
▁కౌశిక్	-8091
▁గోపాల్	-8092
▁బొగ్గు	-8093
▁మైక్రో	-8094
▁వెస్ట్	-8095
▁అభిషేక్	-8096
▁గట్టిగా	-8097
▁టప్పుడు	-8098
▁బ్యానర్	-8099
▁మల్లన్న	-8100
▁ఇరిగేషన్	-8101
▁చూసేందుకు	-8102
▁చేపట్టింది	-8103
▁దరఖాస్తులు	-8104
ند	-8105
ଡି	-8106
తకు	-8107
▁କରି	-8108
▁యంగ్	-8109
▁క్రీడ	-8110
▁నిమ్మ	-8111
▁మీదకు	-8112
▁లాంచ్	-8113
▁ఫొటోలు	-8114
▁సంచలనం	-8115
భివృద్ధి	-8116
▁పేర్లను	-8117
▁శుభవార్	-8118
▁కనిపించే	-8119
▁విద్యాశాఖ	-8120
▁చేస్తున్నా	-8121
▁విజయవంతంగా	-8122
▁స్టాగ్రామ్	-8123
▁అణ	-8124
వైసీ	-8125
▁దాట	-8126
▁భయా	-8127
▁వృష	-8128
భారత్	-8129
ెట్లు	-8130
▁కాబో	-8131
▁బేస్	-8132
▁అప్పుల	-8133
▁ఖాయమని	-8134
▁గద్వాల	-8135
▁చేసేలా	-8136
▁అనుమాని	-8137
▁డాలర్లు	-8138
▁టీడీపీకి	-8139
▁సభ్యులకు	-8140
▁ఆహ్వానించ	-8141
▁ధన్యవాదాలు	-8142
▁కోరుకుంటున్న	-8143
▁తీసుకున్నట్లు	-8144
బడు	-8145
క్కీ	-8146
నూరు	-8147
షియం	-8148
▁ందో	-8149
కులతో	-8150
గాంధీ	-8151
▁2025	-8152
▁అల్ప	-8153
▁పాము	-8154
▁పేట్	-8155
▁ఈదురు	-8156
▁ఏడుగు	-8157
▁గుట్ట	-8158
▁తింటే	-8159
▁ఏఐసీసీ	-8160
▁ఛానెల్	-8161
▁దారితీ	-8162
▁విలీనం	-8163
▁అమెజాన్	-8164
▁ఆఫీసులో	-8165
▁కాశ్మీర్	-8166
▁జరగకుండా	-8167
▁పాయింట్ల	-8168
థో	-8169
▁ଯ	-8170
క్టు	-8171
సులో	-8172
▁గెల	-8173
▁తామ	-8174
▁రష్	-8175
▁శంష	-8176
గులకు	-8177
ాలుగా	-8178
▁ఎమర్	-8179
▁జేపీ	-8180
▁పచ్చ	-8181
▁రాయి	-8182
▁లోపం	-8183
▁వర్గ	-8184
▁చర్మం	-8185
పోయారని	-8186
▁చెబుతూ	-8187
▁ధైర్యం	-8188
▁మ్యాన్	-8189
▁లెక్కి	-8190
▁శ్రీశై	-8191
▁సేఫ్టీ	-8192
మవుతున్న	-8193
వినియోగం	-8194
▁అంశాన్ని	-8195
▁గెలిస్తే	-8196
▁శంషాబాద్	-8197
▁చూపించారు	-8198
▁జగన్మోహన్	-8199
▁మొదటిసారి	-8200
▁శరీరానికి	-8201
▁పిలుస్తారు	-8202
▁ఆరోపిస్తున్నారు	-8203
ion	-8204
టాల	-8205
▁پی	-8206
ందన్	-8207
దేవీ	-8208
బ్బు	-8209
▁అలం	-8210
▁మ్మ	-8211
▁రక్	-8212
▁రిప	-8213
త్మిక	-8214
▁కళ్ల	-8215
▁కాపు	-8216
▁జీపీ	-8217
▁థ్రి	-8218
▁నచ్చ	-8219
▁పంత్	-8220
▁ప్పు	-8221
▁బ్యూ	-8222
▁లేదో	-8223
▁ఎంఐఎం	-8224
▁దర్శన	-8225
▁పోవడం	-8226
▁మైంది	-8227
▁తీర్చి	-8228
▁తుపాను	-8229
▁రకరకాల	-8230
▁సాయంతో	-8231
▁చేయాలను	-8232
▁రవీందర్	-8233
▁అనంతపురం	-8234
▁లావాదేవీ	-8235
▁చెప్పడంతో	-8236
▁ప్రయాణికుల	-8237
▁విగ్రహాన్ని	-8238
▁బెంగళూరులోని	-8239
ంఠ	-8240
▁ڈ	-8241
ఏసీ	-8242
▁6,	-8243
▁63	-8244
▁78	-8245
▁نہ	-8246
▁కుర	-8247
▁మసీ	-8248
జేషన్	-8249
ెత్తి	-8250
ేశాడు	-8251
▁ఐఆర్	-8252
ంపులకు	-8253
దాబాద్	-8254
స్టార్	-8255
▁కాన్ఫ	-8256
▁తట్టు	-8257
▁రుతుప	-8258
▁డ్యూటీ	-8259
▁దొరుకు	-8260
▁నిదర్శ	-8261
▁రాకెట్	-8262
▁వయసులో	-8263
▁అందరినీ	-8264
▁తరుణంలో	-8265
▁బాధితుల	-8266
▁ఆందోళనలు	-8267
▁చెన్నూరు	-8268
▁జాబితాను	-8269
▁జార్ఖండ్	-8270
▁కార్యాచరణ	-8271
▁జిల్లాలకు	-8272
▁వ్యతిరేకి	-8273
▁మెగాస్టార్	-8274
▁కేటాయించారు	-8275
▁ప్రచారాన్ని	-8276
▁సురక్షితంగా	-8277
▁కేంద్రమంత్రి	-8278
▁నియోజకవర్గాల	-8279
ew	-8280
మర	-8281
▁ط	-8282
ండో	-8283
డ్యు	-8284
▁ఆత్	-8285
▁ఫాం	-8286
▁ారట	-8287
▁ఒంటి	-8288
▁కారం	-8289
▁తండా	-8290
▁తిరి	-8291
▁వీధి	-8292
▁ఇదంతా	-8293
▁భయంతో	-8294
▁ఓపెనర్	-8295
▁ట్రైన్	-8296
▁నామినే	-8297
▁ఇవ్వాలి	-8298
▁ఉద్యోగి	-8299
▁నిరసనలు	-8300
▁పరిపాలన	-8301
▁శ్రీహరి	-8302
▁కార్డులు	-8303
▁తీసుకురా	-8304
▁వినిపించ	-8305
▁దేవస్థానం	-8306
▁మార్గదర్శ	-8307
▁సంక్రాంతి	-8308
▁తీసుకెళ్లి	-8309
▁నిర్వాహకులు	-8310
పన	-8311
▁ಶ	-8312
టైన	-8313
కమైన	-8314
రినీ	-8315
లీష్	-8316
▁195	-8317
▁చేత	-8318
▁దిల్	-8319
▁నివస	-8320
▁మామూ	-8321
▁వాడే	-8322
త్తుగా	-8323
▁చేతుల	-8324
▁శ్రావ	-8325
▁నెహ్రూ	-8326
▁నిబంధనల	-8327
▁ప్రకాశ్	-8328
▁సెలవులు	-8329
▁ఆలస్యంగా	-8330
▁కన్వీనర్	-8331
▁ఉద్దేశంతో	-8332
▁ట్యాపింగ్	-8333
▁విధించారు	-8334
▁కార్యకర్తల	-8335
▁ప్రజల్లోకి	-8336
▁వివాదాస్పద	-8337
▁కేంద్రాల్లో	-8338
رل	-8339
జీల	-8340
దలకు	-8341
దానం	-8342
లిన్	-8343
శ్రీ	-8344
▁ంతా	-8345
▁ఎడి	-8346
▁మొహ	-8347
▁సుఖ	-8348
▁అఖిల	-8349
▁కానుక	-8350
▁బకాయి	-8351
▁వ్యూహ	-8352
▁స్టడీ	-8353
ించడంతో	-8354
▁చర్చకు	-8355
▁వేగంతో	-8356
▁పడ్డాయి	-8357
▁వాణిజ్య	-8358
▁పథకాన్ని	-8359
▁ఉష్ణోగ్రత	-8360
▁ప్రాతినిధ్యం	-8361
షు	-8362
▁،	-8363
ాలూ	-8364
వితే	-8365
▁ఏమా	-8366
▁చిక	-8367
మయ్యే	-8368
▁గానూ	-8369
▁పాజి	-8370
▁సమాన	-8371
▁పచ్చి	-8372
▁పునర్	-8373
▁మెదడు	-8374
▁రిపబ్	-8375
▁వర్గీ	-8376
▁వెస్టి	-8377
▁ఏమాత్రం	-8378
▁క్యాడర్	-8379
▁లక్షలకు	-8380
▁వార్షిక	-8381
▁సల్మాన్	-8382
▁తెలంగాణా	-8383
▁పర్మిషన్	-8384
▁చెప్పారని	-8385
▁పట్టుకుని	-8386
▁కౌన్సిలర్లు	-8387
▁తప్పనిసరిగా	-8388
▁వెస్టిండీస్	-8389
▁పరిస్థితులను	-8390
▁చేసుకుంటున్నారు	-8391
చా	-8392
వృ	-8393
పీడ	-8394
లాట	-8395
▁66	-8396
▁మర్	-8397
▁కుదు	-8398
▁ముఖం	-8399
▁రజనీ	-8400
▁బయటపడ	-8401
▁రహస్య	-8402
▁రెండవ	-8403
▁శ్వాస	-8404
▁కాల్స్	-8405
▁పోటీకి	-8406
▁మందులు	-8407
▁ఒంటరిగా	-8408
▁క్యాంప్	-8409
▁పరిమితం	-8410
▁ఎలక్ట్రా	-8411
▁ప్రాంతీయ	-8412
▁స్థానాలను	-8413
▁కార్పొరేట్	-8414
▁నమోదయ్యాయి	-8415
▁విదేశాల్లో	-8416
▁కాంప్లెక్స్	-8417
▁w	-8418
ధిప	-8419
పడా	-8420
▁64	-8421
▁కమీ	-8422
▁కరి	-8423
▁హేమ	-8424
▁అంకి	-8425
▁రిపే	-8426
▁వాసు	-8427
మ్రాన్	-8428
▁ఆదివా	-8429
▁ఇందిర	-8430
▁ఎంజాయ్	-8431
▁పుట్టి	-8432
▁బాగానే	-8433
▁మెయిన్	-8434
▁సానుకూల	-8435
▁కట్టుబడి	-8436
▁దక్కింది	-8437
▁నిమిత్తం	-8438
▁అధిష్టానం	-8439
▁సుప్రీంకోర్టులో	-8440
టప్	-8441
మంత	-8442
▁(5	-8443
▁69	-8444
టాన్	-8445
టీన్	-8446
▁తడి	-8447
▁రాగా	-8448
▁రుచి	-8449
▁రైస్	-8450
▁శిబి	-8451
▁ఇస్తూ	-8452
▁దక్కు	-8453
▁సంతకం	-8454
▁చేతికి	-8455
▁లేదంటూ	-8456
▁నెలలుగా	-8457
▁పథకాలను	-8458
▁ప్రకాశం	-8459
▁బ్రహ్మో	-8460
▁మీడియాకు	-8461
▁బాధితులకు	-8462
▁వంశీకృష్ణ	-8463
▁కొనసాగుతుంది	-8464
▁బంగాళాఖాతంలో	-8465
వరూ	-8466
▁కాద	-8467
▁మైస	-8468
ృతంగా	-8469
▁టోల్	-8470
▁బ్లూ	-8471
▁భావన	-8472
▁మరణం	-8473
▁రేణు	-8474
▁ాలనే	-8475
▁తలుపు	-8476
▁నివాళ	-8477
మెంట్స్	-8478
▁క్లిక్	-8479
▁గద్దర్	-8480
▁బ్రహ్మ	-8481
▁రేట్లు	-8482
▁ఎమోషనల్	-8483
▁ప్రకృతి	-8484
▁ఇస్తుంది	-8485
▁కిడ్నాప్	-8486
▁డైరెక్ట్	-8487
▁ఇవ్వకుండా	-8488
▁ఉపాధ్యక్ష	-8489
▁ప్రతిష్టా	-8490
▁కేటాయించిన	-8491
▁ప్రభుత్వమే	-8492
▁కుమారస్వామి	-8493
▁రెండుసార్లు	-8494
▁అందిస్తున్నారు	-8495
చర	-8496
esh	-8497
కోట	-8498
గలి	-8499
ಾವು	-8500
▁ఆభ	-8501
గిరీ	-8502
▁ఈటల	-8503
▁ఘనత	-8504
▁పరో	-8505
▁మూల	-8506
ద్యాల	-8507
▁2015	-8508
▁ఇంట్	-8509
▁పోతే	-8510
▁ముఠా	-8511
కున్నా	-8512
మెన్స్	-8513
▁కలిగే	-8514
▁కొన్న	-8515
▁ఉపశమనం	-8516
▁ఎంపీపీ	-8517
▁కామెడీ	-8518
▁స్నానం	-8519
▁అల్పపీడ	-8520
▁పాత్రలు	-8521
▁దేవరకొండ	-8522
▁బాధ్యతలను	-8523
ించుకోవాలని	-8524
▁ప్రమాదానికి	-8525
▁కనిపిస్తున్న	-8526
▁సహాయపడుతుంది	-8527
మన	-8528
▁600	-8529
▁అరి	-8530
▁ప్ప	-8531
▁విడ	-8532
గింపు	-8533
జికల్	-8534
ాలిన్	-8535
▁ట్టే	-8536
▁మారే	-8537
▁వృషభ	-8538
▁శత్ర	-8539
జెన్సీ	-8540
బడింది	-8541
▁గణేష్	-8542
▁రాళ్ల	-8543
▁లోకల్	-8544
▁కండువా	-8545
▁కట్టిన	-8546
▁డీసీపీ	-8547
▁విరిగి	-8548
▁సీపీఎం	-8549
▁డీఎస్పీ	-8550
▁బ్రాహ్మ	-8551
▁వనపర్తి	-8552
▁అద్భుతంగా	-8553
▁కల్వకుంట్ల	-8554
▁బెల్లంపల్లి	-8555
▁గుర్తుచేశారు	-8556
▁మహారాష్ట్రలో	-8557
▁చేసుకోవడానికి	-8558
-3	-8559
కూర	-8560
▁భౌ	-8561
▁నటన	-8562
సేపటి	-8563
▁కమర్	-8564
▁కోడి	-8565
▁జ్యు	-8566
▁రేట్	-8567
▁న్యూయ	-8568
▁వారాల	-8569
▁ఇంటిని	-8570
▁కిడ్నీ	-8571
▁రుతుపవ	-8572
▁విగ్రహ	-8573
్యాత్మిక	-8574
▁తగ్గించ	-8575
▁సందర్బంగా	-8576
▁కానున్నారు	-8577
▁చేస్తుండగా	-8578
▁గెలిపించాలని	-8579
▁ప్రస్తావించారు	-8580
▁ಟ	-8581
▁وں	-8582
బ్రి	-8583
▁ఆధు	-8584
▁కోడ	-8585
▁బెడ	-8586
▁విశ	-8587
▁ైనా	-8588
▁ఎంసీ	-8589
▁ఘాట్	-8590
▁దీప్	-8591
▁నక్ష	-8592
▁బుల్	-8593
▁శివా	-8594
పాన్ని	-8595
▁ఇంతకు	-8596
▁గురవు	-8597
▁రోడ్ల	-8598
▁పుతిన్	-8599
▁బట్టలు	-8600
▁మనోహర్	-8601
▁కార్మిక	-8602
▁ఖర్చులు	-8603
▁సంరక్షణ	-8604
▁సీట్లలో	-8605
▁చేసుకుంట	-8606
▁టోర్నీలో	-8607
▁డ్యాన్స్	-8608
▁మేడిగడ్డ	-8609
▁స్టాలిన్	-8610
▁అత్యాచారం	-8611
▁సౌకర్యాలు	-8612
▁ఆరోగ్యాన్ని	-8613
▁హెచ్చరించింది	-8614
▁67	-8615
▁ఇర	-8616
రికే	-8617
▁నౌక	-8618
▁పదో	-8619
రాజ్య	-8620
ల్లర్	-8621
▁కొలు	-8622
▁చిట్	-8623
▁తాయి	-8624
▁దేవ్	-8625
▁పీవీ	-8626
▁కింది	-8627
▁సభ్యు	-8628
▁దుబాయ్	-8629
▁బాక్సా	-8630
▁రుణాలు	-8631
▁చేశాడని	-8632
▁పోస్టుల	-8633
▁ప్రతిరోజు	-8634
▁బ్యాంకులు	-8635
▁మారుతుంది	-8636
▁వందేభారత్	-8637
▁గవర్నమెంట్	-8638
▁న్యూయార్క్	-8639
▁స్ట్రీమింగ్	-8640
▁హెలికాప్టర్	-8641
దొ	-8642
com	-8643
▁తృ	-8644
▁ఆడే	-8645
▁కాయ	-8646
▁టోక	-8647
▁ముగ	-8648
▁శబ్	-8649
▁పంపు	-8650
వాలంటే	-8651
▁కుంటే	-8652
▁గల్ఫ్	-8653
▁ఒక్కటే	-8654
▁కొన్నే	-8655
▁గులాబీ	-8656
▁సంతోషం	-8657
▁సూర్యు	-8658
▁ప్రపంచం	-8659
▁శక్తిని	-8660
▁సిగ్నల్	-8661
▁సుధాకర్	-8662
▁చేయనున్న	-8663
▁దేశంలోనే	-8664
▁నగరాల్లో	-8665
▁మరణించిన	-8666
▁ఉక్రెయిన్	-8667
▁కుటుంబాలు	-8668
▁పంపించారు	-8669
▁ఆధ్యాత్మిక	-8670
▁తహసీల్దార్	-8671
▁రాజకీయాలకు	-8672
▁కొనసాగుతున్నాయి	-8673
vi	-8674
▁प	-8675
ణ్ణ	-8676
లైన్	-8677
▁కిష	-8678
▁పర్స	-8679
▁భరత్	-8680
▁వేలం	-8681
▁శిల్	-8682
▁అడ్మి	-8683
▁నివార	-8684
▁పెంపు	-8685
▁ముమ్మ	-8686
▁లేఖలో	-8687
▁సుబ్బ	-8688
▁సెషన్	-8689
ండ్లుగా	-8690
పోతుంది	-8691
▁అదృష్ట	-8692
▁డాలర్ల	-8693
▁మిగిలి	-8694
▁ముహూర్	-8695
▁అప్డేట్	-8696
▁స్తామని	-8697
▁అమల్లోకి	-8698
▁ల్యాండర్	-8699
▁వినియోగం	-8700
▁కనిపించిన	-8701
▁తేలికపాటి	-8702
▁సముద్రంలో	-8703
▁గాయపడ్డారు	-8704
▁పోతున్నారు	-8705
లీల	-8706
▁ఓం	-8707
▁కద	-8708
▁ನ್	-8709
వరకూ	-8710
▁ఫెడ	-8711
▁అంబు	-8712
▁కేర్	-8713
▁పంచు	-8714
▁మెయి	-8715
▁وائرل	-8716
▁నడ్డా	-8717
▁రైళ్ల	-8718
ంగాన్ని	-8719
▁గుప్తా	-8720
▁నార్త్	-8721
▁వీటితో	-8722
▁ఆలోచించ	-8723
▁తద్వారా	-8724
▁తర్వాతే	-8725
▁పట్టాలు	-8726
▁రైళ్లను	-8727
▁వర్సిటీ	-8728
▁విశ్వవి	-8729
▁పరుగులకే	-8730
▁కమర్షియల్	-8731
▁స్తుంటారు	-8732
▁ఆశ్రయించారు	-8733
▁కాన్ఫరెన్స్	-8734
గణ	-8735
.25	-8736
క్వ	-8737
పుర	-8738
▁జొ	-8739
పూరి	-8740
▁చీర	-8741
▁టచ్	-8742
ందంటూ	-8743
▁ఆభరణ	-8744
▁బందో	-8745
▁సంయు	-8746
వేశారు	-8747
▁మసీదు	-8748
▁ఇక్కడే	-8749
▁కపోవడం	-8750
▁కోవిడ్	-8751
▁క్లీన్	-8752
▁బిర్యా	-8753
పోయిందని	-8754
▁అథారిటీ	-8755
▁ఆసుపత్ర	-8756
▁కొబ్బరి	-8757
▁పర్యాటక	-8758
▁వచ్చాడు	-8759
▁సర్వీసు	-8760
▁హాజరుకా	-8761
▁ఆటగాళ్లు	-8762
▁పట్టణంలో	-8763
▁భాగస్వామి	-8764
▁సామర్థ్యం	-8765
▁స్పెక్టర్	-8766
▁పర్యవేక్షణ	-8767
▁ప్రవేశపెట్ట	-8768
▁భావిస్తోంది	-8769
పరచ	-8770
ెలు	-8771
▁vs	-8772
చుకో	-8773
సియా	-8774
▁అసా	-8775
▁గడప	-8776
▁మత్	-8777
▁హార	-8778
ితమైన	-8779
▁ప్రవ	-8780
▁ఫీల్	-8781
▁మాఫీ	-8782
▁వికా	-8783
▁శివు	-8784
▁సింధ	-8785
▁నట్లు	-8786
▁పైలట్	-8787
▁ఇవన్నీ	-8788
▁క్రాస్	-8789
▁నాణ్యత	-8790
▁కుప్పకూ	-8791
▁కంప్యూటర్	-8792
▁దర్శకత్వం	-8793
▁సాంస్కృతి	-8794
▁కుటుంబసభ్య	-8795
▁దర్శనానికి	-8796
▁పట్టణంలోని	-8797
▁రెస్పాన్స్	-8798
▁సిబ్బందికి	-8799
▁చేస్తుంటారు	-8800
st	-8801
ష్క	-8802
▁ಸ್	-8803
▁ఎంబ	-8804
▁ఎది	-8805
▁..!!	-8806
▁కమ్మ	-8807
▁గోవా	-8808
▁జాతి	-8809
▁తారు	-8810
▁నాగ్	-8811
▁మెక్	-8812
▁యోగా	-8813
▁హాఫ్	-8814
▁అంగన్	-8815
▁ఆవిర్	-8816
▁ఎల్బీ	-8817
▁గుప్ప	-8818
▁జనార్	-8819
▁దగ్గు	-8820
▁పలుకు	-8821
▁ఫైబర్	-8822
▁బందోబ	-8823
▁గ్రామం	-8824
▁చూస్తూ	-8825
▁జోక్యం	-8826
▁జోరుగా	-8827
▁టానికి	-8828
▁డేవిడ్	-8829
▁పురుగు	-8830
▁వ్యూహం	-8831
▁అబ్బాయి	-8832
▁ఆశించిన	-8833
▁పాలస్తీనా	-8834
▁వెళ్లాలని	-8835
▁బ్రహ్మోత్స	-8836
▁స్తున్నాయి	-8837
▁ఆహ్వానించారు	-8838
▁సంవత్సరానికి	-8839
▁నిర్మిస్తున్న	-8840
▁పట్టుకున్నారు	-8841
▁మొదలుపెట్టారు	-8842
را	-8843
▁ଆ	-8844
ana	-8845
ଙ୍କ	-8846
కట్	-8847
జుల	-8848
షణ్	-8849
ఎండీ	-8850
ఐఆర్	-8851
జ్యం	-8852
ತ್ತು	-8853
▁ఉరి	-8854
▁ఊరట	-8855
▁కరె	-8856
▁కలె	-8857
▁ట్ట	-8858
▁పరు	-8859
▁అడ్డ	-8860
▁ఆకాశ	-8861
▁ఉపసం	-8862
▁కాపీ	-8863
▁గేట్	-8864
▁జీతం	-8865
▁నాటు	-8866
▁చేయబో	-8867
▁జరిపి	-8868
▁పడితే	-8869
▁మర్చి	-8870
▁లేరని	-8871
▁సందడి	-8872
▁చేరుకో	-8873
▁యంత్రా	-8874
▁రఘురామ	-8875
▁సానుభూ	-8876
▁పాలమూరు	-8877
▁వాషింగ్	-8878
కునేందుకు	-8879
▁ఆరోపణలపై	-8880
▁చేయనుంది	-8881
▁పెరుగుదల	-8882
▁రాకపోకలు	-8883
▁ఎడ్యుకేషన్	-8884
▁ఎమర్జెన్సీ	-8885
▁సాంస్కృతిక	-8886
▁ప్రాంతంలోని	-8887
మండ	-8888
ికొ	-8889
▁72	-8890
కుళం	-8891
తికే	-8892
లేరు	-8893
▁అడగ	-8894
▁అమా	-8895
▁అవత	-8896
▁ఆపే	-8897
▁ఊరే	-8898
▁చవి	-8899
ెక్సీ	-8900
▁అరటి	-8901
▁ఉందో	-8902
▁కవర్	-8903
▁కారి	-8904
▁ఖైదీ	-8905
▁కీలకం	-8906
▁ప్రసి	-8907
▁స్కాం	-8908
స్టింగ్	-8909
▁ఐదేళ్ల	-8910
▁గురుకు	-8911
▁దొరికి	-8912
▁పరోక్ష	-8913
▁పాటించ	-8914
▁బాలయ్య	-8915
▁వ్యాక్	-8916
▁సురేశ్	-8917
▁ఆకాంక్ష	-8918
▁కేటగిరీ	-8919
▁అక్టోబరు	-8920
▁ఉన్నందున	-8921
▁పర్యటనకు	-8922
▁పాల్పడ్డ	-8923
▁అభినందించ	-8924
▁ఉండేందుకు	-8925
▁కృతజ్ఞతలు	-8926
ದು	-8927
భావ	-8928
ౌళి	-8929
▁68	-8930
నన్న	-8931
ఫోన్	-8932
▁"."	-8933
▁120	-8934
▁త్వ	-8935
▁యత్	-8936
▁లంచ	-8937
తానని	-8938
రులతో	-8939
▁ఫ్లై	-8940
▁లాక్	-8941
▁లైట్	-8942
ట్టుగా	-8943
రుగ్గా	-8944
విధంగా	-8945
▁కర్కా	-8946
▁గేమ్స్	-8947
▁గ్యారె	-8948
▁చికెన్	-8949
▁ఫండ్స్	-8950
▁స్పీడ్	-8951
▁జరుపుకు	-8952
▁హెచ్చరి	-8953
▁అర్హులైన	-8954
▁చేయవచ్చు	-8955
▁మైనారిటీ	-8956
▁రిటైర్డ్	-8957
▁వర్షాలకు	-8958
▁కలెక్షన్స్	-8959
▁కర్ణాటకలోని	-8960
▁కార్మికులకు	-8961
▁తీసుకొచ్చారు	-8962
ైక	-8963
ರಿ	-8964
ఫీస్	-8965
▁ପ୍ର	-8966
ందారు	-8967
వెళ్ల	-8968
▁ఫౌండ	-8969
▁బద్ద	-8970
▁వీసీ	-8971
క్వాడ్	-8972
▁అంత్య	-8973
▁తాగడం	-8974
▁పెండ్	-8975
▁వివాద	-8976
▁ఉండదని	-8977
▁టాస్క్	-8978
▁క్యాంపు	-8979
▁పడకుండా	-8980
▁బ్యాటరీ	-8981
▁రేపింది	-8982
▁అమ్మకాలు	-8983
▁రైతుబంధు	-8984
▁డయాబెటిస్	-8985
▁పెట్టారని	-8986
▁ఉద్యోగులను	-8987
▁కలుగుతుంది	-8988
▁సిబ్బందిని	-8989
▁స్థానికంగా	-8990
▁తెలియజేశారు	-8991
▁విశ్వవిద్యాల	-8992
▁వెళ్లిపోయారు	-8993
రథ	-8994
▁b	-8995
ఫల్	-8996
ಿದೆ	-8997
▁دع	-8998
▁అజ	-8999
▁నం	-9000
యిర్	-9001
▁ఎము	-9002
▁నిఖ	-9003
▁మాయ	-9004
▁డంతో	-9005
▁డ్రి	-9006
▁తమ్మ	-9007
▁యోగి	-9008
బెల్లి	-9009
▁అనర్హ	-9010
▁కోదండ	-9011
▁హుండీ	-9012
▁వారాహి	-9013
▁అబ్దుల్	-9014
▁కష్టపడి	-9015
▁జంక్షన్	-9016
▁టికెట్ల	-9017
▁బదులుగా	-9018
▁మొదట్లో	-9019
▁సాగింది	-9020
▁పెరగడంతో	-9021
▁ఉద్రిక్తత	-9022
▁నిమిషాలకు	-9023
▁వ్యవహారంలో	-9024
et	-9025
ೊಂ	-9026
ಾರೆ	-9027
టికీ	-9028
ధారణ	-9029
▁ఐడీ	-9030
▁ఐస్	-9031
▁డీఏ	-9032
▁పేష	-9033
సాగర్	-9034
▁2011	-9035
▁కాఫీ	-9036
▁చెడు	-9037
▁జరగా	-9038
▁పీఎం	-9039
▁బీర్	-9040
▁బెట్	-9041
▁లోటు	-9042
▁వెతు	-9043
▁షారు	-9044
▁సంతా	-9045
▁స్టె	-9046
▁టమాటా	-9047
▁టెర్ర	-9048
▁మల్టీ	-9049
▁రన్స్	-9050
▁రేపటి	-9051
▁వివరి	-9052
▁సమాజం	-9053
▁హాసన్	-9054
▁కూర్చో	-9055
▁గొడవలు	-9056
▁బోర్డ్	-9057
▁బ్రిటి	-9058
▁సమన్వయ	-9059
▁అటువంటి	-9060
▁ఆదివాసీ	-9061
▁ట్యాంక్	-9062
▁నంద్యాల	-9063
▁మినహాయి	-9064
▁సన్నిహి	-9065
▁కేంద్రాల	-9066
▁డిపాజిట్	-9067
▁నిలిచాడు	-9068
▁హుస్సేన్	-9069
▁ఇండియన్స్	-9070
▁ఐక్యరాజ్య	-9071
▁బస్సుల్లో	-9072
▁మారుతున్న	-9073
▁కనిపించారు	-9074
▁కొంతకాలంగా	-9075
▁లక్ష్యాన్ని	-9076
▁ତ	-9077
రోజూ	-9078
సాన్	-9079
▁అరే	-9080
▁ర్శ	-9081
ర్మనీ	-9082
▁కమల్	-9083
▁పాడు	-9084
ష్టంగా	-9085
▁ఈస్ట్	-9086
▁ప్రవా	-9087
▁వద్దు	-9088
పడ్డాడు	-9089
ెక్టార్	-9090
▁ఐపీఎస్	-9091
▁షార్ట్	-9092
▁ఉండొచ్చు	-9093
▁చేతుల్లో	-9094
▁బిర్యానీ	-9095
▁వాహనాలను	-9096
▁ఇవ్వలేదని	-9097
▁పాయింట్లు	-9098
▁బందోబస్తు	-9099
▁గుర్తించిన	-9100
▁స్వామివారి	-9101
▁పర్యటించారు	-9102
▁వివరించింది	-9103
ಾನ	-9104
▁ଜ	-9105
క్షా	-9106
తాడు	-9107
మిలి	-9108
వాతి	-9109
▁అమృ	-9110
▁బంజ	-9111
ొప్పి	-9112
▁అకాడ	-9113
▁అహ్మ	-9114
▁కుడి	-9115
▁పురం	-9116
▁పెడత	-9117
▁మాటల	-9118
▁యూకే	-9119
ండ్లలో	-9120
నుందని	-9121
▁నేర్చ	-9122
▁మినహా	-9123
▁వినాయ	-9124
▁వ్యాయ	-9125
▁ఉన్నది	-9126
▁డీజిల్	-9127
▁దూసుకు	-9128
▁సిరాజ్	-9129
▁చూసింది	-9130
▁నిరంతరం	-9131
▁భాషల్లో	-9132
▁చెప్పినా	-9133
▁దాదాపుగా	-9134
▁రెడ్డితో	-9135
▁శ్రీశైలం	-9136
▁సంస్కృతి	-9137
▁సింగపూర్	-9138
▁జ్యోతిష్య	-9139
▁ప్రయోజనాల	-9140
▁లక్ష్యంతో	-9141
▁రోజుల్లోనే	-9142
▁కాంట్రాక్ట్	-9143
▁పాల్గొంటారు	-9144
▁తీసుకుంటున్నారు	-9145
ter	-9146
ంగే	-9147
వైన	-9148
శ్య	-9149
▁అవే	-9150
▁గన్	-9151
▁దుండ	-9152
▁నోటి	-9153
▁బెర్	-9154
▁అన్నా	-9155
▁ఇలాగే	-9156
▁కడియం	-9157
▁తరబడి	-9158
▁మలుపు	-9159
డేపల్లి	-9160
▁నీటిలో	-9161
▁పరిగణన	-9162
▁పాటిల్	-9163
▁ఫ్యాన్	-9164
▁ముగిసే	-9165
▁రేవణ్ణ	-9166
పెట్టింది	-9167
▁అయినట్లు	-9168
▁విస్తీర్	-9169
▁స్తోందని	-9170
▁చేసుకునేందుకు	-9171
▁ఉన్నతాధికారులు	-9172
ହି	-9173
▁.?	-9174
పురి	-9175
▁ఆపై	-9176
▁దోష	-9177
▁ాని	-9178
గుండం	-9179
▁తిరగ	-9180
▁నేరం	-9181
▁మరుస	-9182
▁సౌదీ	-9183
▁గెలిచ	-9184
▁పొడిగ	-9185
▁మైదాన	-9186
▁ఆస్తుల	-9187
▁కొడాలి	-9188
▁డాన్ని	-9189
▁డ్రామా	-9190
▁పెరగడం	-9191
▁విజయనగ	-9192
▁బస్సులో	-9193
▁అనుచరులు	-9194
▁ఇవ్వడంతో	-9195
▁గ్రాడ్యు	-9196
▁తగిలింది	-9197
▁పెట్టాలి	-9198
▁ఫ్రాన్స్	-9199
▁మార్చుకు	-9200
▁వెళ్లాడు	-9201
▁నున్నట్లు	-9202
▁అవకాశముంది	-9203
ନ୍ତ	-9204
టమే	-9205
▁ఇట	-9206
రియం	-9207
▁ఉరు	-9208
▁నడప	-9209
▁గాయం	-9210
▁సహకర	-9211
▁సిల్	-9212
▁హిమా	-9213
▁హోల్	-9214
▁ఎంఎస్	-9215
▁నిజాం	-9216
▁బస్టా	-9217
ైనాన్స్	-9218
▁క్యాపి	-9219
▁పర్యటి	-9220
▁మత్స్య	-9221
▁మరుసటి	-9222
▁మరొకరు	-9223
▁రీతిలో	-9224
▁నిర్దేశ	-9225
▁ప్రకాష్	-9226
▁వారిద్ద	-9227
▁సౌకర్యం	-9228
▁కారణాలతో	-9229
▁టీడీపీలో	-9230
▁యాక్టివ్	-9231
▁పదార్థాలు	-9232
▁పెట్టుబడు	-9233
▁స్థలాన్ని	-9234
▁కొన్నిసార్లు	-9235
اب	-9236
ala	-9237
▁53	-9238
▁74	-9239
▁8,	-9240
▁నమ	-9241
కట్ట	-9242
▁ంచు	-9243
▁తాక	-9244
▁మీన	-9245
కోండి	-9246
▁ధ్వజ	-9247
▁పాలక	-9248
▁భావో	-9249
వర్ధన్	-9250
▁కళ్లు	-9251
▁వాళ్ళ	-9252
స్తులను	-9253
▁కొనియా	-9254
▁కోర్సు	-9255
▁చాన్స్	-9256
▁ల్యాబ్	-9257
▁అలియాస్	-9258
▁కురిసిన	-9259
▁బీఎస్పీ	-9260
▁వాళ్లను	-9261
▁సంఘటనలు	-9262
▁స్తారని	-9263
▁ఆడుతున్న	-9264
▁కాలేజీలో	-9265
▁భావోద్వే	-9266
▁నివేదికను	-9267
▁అంత్యక్రియ	-9268
▁వస్తువులను	-9269
▁స్థానానికి	-9270
▁అప్పగించారు	-9271
నియ	-9272
▁9,	-9273
కెళ్	-9274
న్నత	-9275
బడ్డ	-9276
▁ఇంధ	-9277
▁చార	-9278
▁ఛాల	-9279
క్కడే	-9280
▁గర్భ	-9281
▁పెను	-9282
▁బాగ్	-9283
▁రఘున	-9284
▁డాలర్	-9285
▁పుణ్య	-9286
▁బదులు	-9287
▁విరాళ	-9288
▁ఎకరాలు	-9289
▁ఎగ్జిక	-9290
▁మోటార్	-9291
▁వస్త్ర	-9292
▁విధులు	-9293
▁స్టోర్	-9294
▁కన్నుమూ	-9295
▁తొలగించ	-9296
▁నందమూరి	-9297
▁మంచిదని	-9298
▁చేయొచ్చు	-9299
▁నెలకొన్న	-9300
▁పెంచింది	-9301
▁ప్రతిపాద	-9302
▁ఫారెస్ట్	-9303
▁ఫౌండేషన్	-9304
▁మమ్మల్ని	-9305
▁రెడ్డిపై	-9306
▁రోజురోజు	-9307
▁విశ్వాసం	-9308
▁వ్యాప్తి	-9309
▁రెండోసారి	-9310
▁ఉత్తరాఖండ్	-9311
▁పెరుగుతాయి	-9312
▁అందించేందుకు	-9313
نگ	-9314
وس	-9315
ವಿ	-9316
గ్న	-9317
కేట్	-9318
హాన్	-9319
▁దివ	-9320
▁పూల	-9321
▁సాహ	-9322
ందంటే	-9323
పక్కల	-9324
▁కుండ	-9325
▁క్షి	-9326
▁డివై	-9327
▁పూజా	-9328
▁ఆనందం	-9329
▁నీళ్ల	-9330
▁పెంచి	-9331
▁కరెంటు	-9332
▁ఛార్జ్	-9333
▁నిర్వా	-9334
▁పెద్ది	-9335
▁ఎఫెక్ట్	-9336
▁పోషకాలు	-9337
▁సులభంగా	-9338
▁క్వాలిటీ	-9339
▁విధానంలో	-9340
▁రావడానికి	-9341
▁రోజులపాటు	-9342
▁కోల్పోయారు	-9343
▁చుట్టుపక్కల	-9344
.40	-9345
▁85	-9346
డాడు	-9347
రెన్	-9348
▁వేద	-9349
వ్వాడ	-9350
▁అకాల	-9351
▁ఫ్లి	-9352
▁లాగే	-9353
▁విప్	-9354
▁శిథి	-9355
▁సంతర	-9356
ఆర్ఆర్	-9357
లకుండా	-9358
▁క్యాల	-9359
▁ముంపు	-9360
▁కాపాడే	-9361
▁కిషోర్	-9362
▁ఫీల్డ్	-9363
▁వాళ్ళు	-9364
▁నన్నారు	-9365
▁రీసెంట్	-9366
స్తుంటారు	-9367
▁అనుమతించ	-9368
▁ఉన్నవారు	-9369
▁పరిరక్షణ	-9370
▁పిఠాపురం	-9371
▁ఫైనాన్స్	-9372
▁చదువుతున్న	-9373
▁శ్రీకాకుళం	-9374
▁మాట్లాడుతున్న	-9375
▁ప్రయత్నిస్తున్న	-9376
▁ଉ	-9377
▁ଲ	-9378
ang	-9379
ews	-9380
కటి	-9381
ందుల	-9382
బ్బా	-9383
▁ఎపి	-9384
▁కోన	-9385
▁లోత	-9386
▁సవా	-9387
ారిస్	-9388
▁ఇంకో	-9389
▁కాకా	-9390
▁క్లో	-9391
▁డోర్	-9392
▁న్నా	-9393
▁అయిదు	-9394
▁గొర్ర	-9395
▁జరగడం	-9396
▁దృష్ట	-9397
▁పంపిన	-9398
▁వైఖరి	-9399
▁శత్రు	-9400
▁ప్రతిభ	-9401
▁మూవీలో	-9402
▁సెక్స్	-9403
▁పరిశీలన	-9404
▁ట్యాక్స్	-9405
▁నటించారు	-9406
▁మూడోసారి	-9407
▁సన్నివేశ	-9408
▁నేతృత్వంలో	-9409
▁పరిగణనలోకి	-9410
▁ప్రాక్టీస్	-9411
▁ల్యాండింగ్	-9412
▁సమావేశాల్లో	-9413
▁జూబ్లీహిల్స్	-9414
ha	-9415
నాథ	-9416
పోత	-9417
ారక	-9418
నాతన	-9419
రాడు	-9420
▁కంచ	-9421
▁మతం	-9422
▁ాము	-9423
▁ఎస్ఐ	-9424
▁ఏకైక	-9425
▁పీజీ	-9426
▁ఫ్రె	-9427
▁మెరి	-9428
▁శ్వే	-9429
తిపదిక	-9430
నాల్డ్	-9431
▁అఫ్గా	-9432
▁గడుపు	-9433
▁చేయని	-9434
▁పరువు	-9435
▁హింసా	-9436
కాపల్లి	-9437
▁ఉంచారు	-9438
▁కల్యాణ	-9439
▁కవితను	-9440
▁చార్జ్	-9441
▁నివారణ	-9442
▁మెయిల్	-9443
▁వాస్తవ	-9444
▁సెమీస్	-9445
▁అపార్ట్	-9446
▁దగ్గరగా	-9447
▁ఆలయానికి	-9448
▁బిల్లును	-9449
▁భావించిన	-9450
▁జర్నలిస్ట్	-9451
▁ప్రాంతాలలో	-9452
ంటె	-9453
భ్య	-9454
▁ధై	-9455
రిలో	-9456
▁దొర	-9457
కారుల	-9458
నికల్	-9459
▁نہیں	-9460
▁జీవి	-9461
▁దామో	-9462
▁ద్రో	-9463
▁పాట్	-9464
▁పిచ్	-9465
▁రాసు	-9466
▁సెటై	-9467
గొట్టి	-9468
యాల్సి	-9469
▁ఇమేజ్	-9470
▁ఘటనకు	-9471
▁బహిష్	-9472
▁మొదలై	-9473
▁వీలైన	-9474
▁కూడదని	-9475
▁కొవ్వు	-9476
▁టెండర్	-9477
▁ఠాకూర్	-9478
▁పిడుగు	-9479
▁ఎగ్జామ్	-9480
▁కశ్మీర్	-9481
▁ప్రవర్త	-9482
▁రాంబాబు	-9483
▁రూపొంది	-9484
▁లోపలికి	-9485
▁లైసెన్స్	-9486
▁చేసుకుంటూ	-9487
▁వివేకానంద	-9488
▁విద్యార్థిని	-9489
ణే	-9490
పక	-9491
▁r	-9492
రిన	-9493
ేరు	-9494
▁th	-9495
▁رہ	-9496
▁మస	-9497
▁అలె	-9498
▁ఐసీ	-9499
▁నంబ	-9500
▁హడా	-9501
ంటికి	-9502
ముందే	-9503
▁2004	-9504
▁అర్చ	-9505
▁జరుగ	-9506
▁టెండ	-9507
▁లాగా	-9508
▁ఆయనతో	-9509
▁జ్ఞాప	-9510
▁ప్రతా	-9511
▁సేకరణ	-9512
▁చిత్రీ	-9513
▁చూశారు	-9514
▁డ్రోన్	-9515
▁పంపారు	-9516
▁జాయింట్	-9517
▁సెక్రటే	-9518
▁ఆర్టికల్	-9519
▁ఆసక్తిగా	-9520
▁కోల్పోయి	-9521
▁నిమిషాలు	-9522
▁పాజిటివ్	-9523
▁పోయిందని	-9524
▁ప్యాకేజీ	-9525
▁బీబీసీకి	-9526
▁ఎగ్జిక్యూ	-9527
▁లేకుండానే	-9528
▁వీరిద్దరూ	-9529
▁ప్రక్రియను	-9530
▁అమెరికాలోని	-9531
▁ఇండస్ట్రీలో	-9532
▁ప్రయత్నించారు	-9533
▁నియోజకవర్గానికి	-9534
ಡೆ	-9535
▁g	-9536
▁y	-9537
గని	-9538
▁ఆఫ	-9539
▁శర	-9540
టీఎం	-9541
▁ఏము	-9542
▁చంద	-9543
▁మేఘ	-9544
▁రూం	-9545
▁వేధ	-9546
ంటికీ	-9547
▁అరుణ	-9548
▁ఆఫ్ఘ	-9549
▁ఆవరణ	-9550
▁ఏమిట	-9551
▁దత్త	-9552
▁పులు	-9553
▁ఫుట్	-9554
▁వైజా	-9555
బ్ల్యూ	-9556
▁ఉత్సవ	-9557
▁ఓబీసీ	-9558
▁కాలువ	-9559
▁దొరిక	-9560
▁లాయర్	-9561
▁కార్లు	-9562
▁దివ్యా	-9563
▁బుద్ధి	-9564
▁మద్దతి	-9565
▁మోదీకి	-9566
▁వేస్తే	-9567
▁కాకపోతే	-9568
▁స్థలంలో	-9569
▁అభిమానుల	-9570
▁ఛాంపియన్	-9571
▁తెలిపాయి	-9572
▁ప్రకటనలు	-9573
▁మంగళగిరి	-9574
▁మైనార్టీ	-9575
▁కారణంగానే	-9576
▁లేకపోయినా	-9577
▁సందర్భంలో	-9578
▁నియమించారు	-9579
▁శ్రీవారిని	-9580
▁అందిస్తుంది	-9581
▁తీసుకొచ్చిన	-9582
▁ప్రయోజనాలను	-9583
▁తీసుకొచ్చింది	-9584
le	-9585
▁ఊహ	-9586
▁పగ	-9587
▁ರು	-9588
▁జ్వ	-9589
▁తిల	-9590
▁అంటు	-9591
▁అరిక	-9592
▁శరత్	-9593
▁గంటకు	-9594
▁నడిచే	-9595
▁పునరా	-9596
▁మలయాళ	-9597
▁వరదలు	-9598
▁ాలంటూ	-9599
▁ನಲ್ಲಿ	-9600
▁సిరియా	-9601
▁ఆస్కార్	-9602
▁గుడివాడ	-9603
▁పురోగతి	-9604
▁బెనర్జీ	-9605
▁ముగింపు	-9606
▁మైనింగ్	-9607
▁అనుమతులు	-9608
▁కంపెనీలో	-9609
▁రఘునందన్	-9610
▁విజయనగరం	-9611
▁విసిరారు	-9612
▁శుభవార్త	-9613
▁సైనికులు	-9614
▁అనకాపల్లి	-9615
▁కోవడానికి	-9616
▁ప్రమాదాలు	-9617
▁బహిరంగంగా	-9618
▁మాట్లాడటం	-9619
▁నిర్మాణాలు	-9620
▁బాక్సాఫీస్	-9621
▁మార్కెట్లో	-9622
▁సర్టిఫికెట్	-9623
▁అధ్యక్షురాలు	-9624
▁మల్లికార్జున	-9625
▁కార్యక్రమాలను	-9626
دی	-9627
సొ	-9628
▁ಈ	-9629
202	-9630
rab	-9631
ంకా	-9632
ంజు	-9633
నస్	-9634
▁62	-9635
▁AI	-9636
▁تص	-9637
▁రాబ	-9638
▁వరస	-9639
సంస్థ	-9640
▁నర్స	-9641
▁బయటి	-9642
మైందని	-9643
▁బర్త్	-9644
▁వైష్ణ	-9645
▁చేస్తా	-9646
▁బస్టర్	-9647
▁మెంబర్	-9648
▁యువతకు	-9649
▁వైజాగ్	-9650
మిరెడ్డి	-9651
▁చర్యలకు	-9652
▁చేయాలంటూ	-9653
▁తొమ్మిదే	-9654
▁నివాసంలో	-9655
▁బ్యాక్టీ	-9656
▁బ్రిటిష్	-9657
▁వచ్చాయని	-9658
▁వేములవాడ	-9659
▁వేర్వేరు	-9660
▁సమస్యలతో	-9661
▁ాల్సిందే	-9662
▁ఇన్వెస్ట్	-9663
▁చేసుకుంటే	-9664
▁డైరెక్షన్	-9665
▁వార్తల్లో	-9666
▁కానున్నాయి	-9667
▁కుటుంబాన్ని	-9668
▁పడుతున్నాయి	-9669
▁అడ్డుకున్నారు	-9670
5)	-9671
up	-9672
تے	-9673
ేయ	-9674
లేం	-9675
▁76	-9676
▁ధూ	-9677
▁ಸು	-9678
ల్దే	-9679
స్వీ	-9680
▁వంగ	-9681
▁కండి	-9682
▁ఖాయం	-9683
▁నేర్	-9684
▁నోట్	-9685
▁పోడు	-9686
▁రాదు	-9687
▁అంశాల	-9688
▁అజిత్	-9689
▁ఎంతగా	-9690
▁టైగర్	-9691
▁మురళీ	-9692
▁రాయల్	-9693
▁వైఫల్	-9694
▁క్యాప్	-9695
▁ఫ్లోర్	-9696
▁బయల్దే	-9697
▁విషయమై	-9698
▁స్థితి	-9699
ించుకొని	-9700
▁ఉంటుందో	-9701
▁పోర్టల్	-9702
▁బీసీలకు	-9703
▁మహిళలను	-9704
▁వర్సెస్	-9705
▁విడాకులు	-9706
▁అధ్యక్షతన	-9707
▁జన్మించిన	-9708
▁ట్రైనింగ్	-9709
▁థ్రిల్లర్	-9710
▁లెక్కింపు	-9711
▁స్ట్రాంగ్	-9712
▁స్పష్టమైన	-9713
▁చిత్రానికి	-9714
▁మొత్తానికి	-9715
▁స్నేహితులు	-9716
▁కనిపిస్తాయి	-9717
▁రూపొందించిన	-9718
▁చేసుకున్నట్లు	-9719
▁రాజకీయాల్లోకి	-9720
▁రామకృష్ణారెడ్డి	-9721
▁Ra	-9722
▁ఏమ	-9723
▁దయ	-9724
నైనా	-9725
సాలు	-9726
▁250	-9727
▁అరా	-9728
▁రోజ	-9729
నాలకు	-9730
▁ద్రవ	-9731
▁రోజే	-9732
▁వసతి	-9733
▁వాగు	-9734
▁కపోతే	-9735
▁శేఖర్	-9736
పడ్డాయి	-9737
▁ఆగస్ట్	-9738
▁కారును	-9739
▁కుమారి	-9740
▁క్రేజ్	-9741
▁ప్రాము	-9742
▁సాక్షి	-9743
▁అడిగితే	-9744
▁పాండ్యా	-9745
▁ప్రయోగం	-9746
▁సర్వేలో	-9747
▁సహకరించ	-9748
▁ఖాతాల్లో	-9749
▁నిరూపించ	-9750
▁అభినందనలు	-9751
▁చెల్లింపు	-9752
▁రిజిస్టర్	-9753
▁సెక్రటేరియ	-9754
▁సందర్భాల్లో	-9755
▁ప్రయాణికులకు	-9756
▁ంచే	-9757
▁ఖైర	-9758
▁పూట	-9759
మతులు	-9760
▁2013	-9761
▁కుల్	-9762
▁డీపీ	-9763
▁దింప	-9764
▁బచ్చ	-9765
▁హసన్	-9766
ంటోంది	-9767
పిస్తే	-9768
▁అస్సా	-9769
▁కస్టమ	-9770
▁నెటిజ	-9771
వుతుంది	-9772
▁జర్మనీ	-9773
▁జీతాలు	-9774
▁ప్రాంగ	-9775
▁వినాయక	-9776
▁అంతరాయం	-9777
▁ఎఫ్ఐఆర్	-9778
▁ఎలాగైనా	-9779
▁జరిపారు	-9780
▁వ్యాధుల	-9781
▁సంబరాలు	-9782
పిస్తున్న	-9783
▁నాణ్యమైన	-9784
▁విభేదాలు	-9785
కరిస్తున్న	-9786
▁తగ్గుతుంది	-9787
▁ఆసక్తికరంగా	-9788
▁వినియోగదారులు	-9789
గణన	-9790
పాఠ	-9791
▁ಕ್	-9792
▁ಸಾ	-9793
చేసి	-9794
తుడి	-9795
దిక్	-9796
ర్చీ	-9797
▁కాగ	-9798
▁ధరల	-9799
▁మూత	-9800
లాలను	-9801
▁ఆధిప	-9802
▁ఇరవై	-9803
▁చాటు	-9804
▁వెర్	-9805
▁అసహనం	-9806
▁ఇన్ఫె	-9807
▁బీఎస్	-9808
▁ఆధునిక	-9809
▁కాస్ట్	-9810
▁యాపిల్	-9811
▁రాయితీ	-9812
▁వాస్తు	-9813
▁హాజరైన	-9814
▁ఆధారపడి	-9815
▁కూటమికి	-9816
▁డబ్బును	-9817
▁దాడులకు	-9818
▁మొన్నటి	-9819
▁సంస్థకు	-9820
▁పెంచాలని	-9821
▁లక్షలాది	-9822
▁వైసీపీలో	-9823
▁ప్రతిరోజూ	-9824
▁ప్రపంచకప్	-9825
▁తీసుకొచ్చి	-9826
▁ప్రాంతాలను	-9827
▁తెచ్చుకున్న	-9828
▁లక్ష్మీదేవి	-9829
ించుకునేందుకు	-9830
ଟି	-9831
▁o	-9832
▁ز	-9833
ing	-9834
కుంఠ	-9835
పాది	-9836
సిక్	-9837
సెక్	-9838
ర్ణమి	-9839
▁ందున	-9840
▁తనతో	-9841
▁పాడి	-9842
▁ಎಂದು	-9843
కూలంగా	-9844
తాబాద్	-9845
▁తనదైన	-9846
▁నోట్ల	-9847
▁విరమణ	-9848
▁అతడిని	-9849
▁బాలుడు	-9850
▁మాసంలో	-9851
▁రాళ్లు	-9852
▁పీఎస్సీ	-9853
▁పౌర్ణమి	-9854
▁హ్యాండ్	-9855
▁చేసేవారు	-9856
▁ఖైరతాబాద్	-9857
▁ఎర్రబెల్లి	-9858
▁తొలిసారిగా	-9859
▁పడిపోయింది	-9860
▁ప్రత్యామ్నాయ	-9861
▁ఎగ్జిక్యూటివ్	-9862
ದೇ	-9863
ాయన	-9864
ాలయ	-9865
ಿಗೆ	-9866
బార్	-9867
సిపి	-9868
▁అనౌ	-9869
▁తెల	-9870
చోట్ల	-9871
ొద్దు	-9872
▁కుదర	-9873
▁ధృవీ	-9874
▁రద్ద	-9875
▁రౌడీ	-9876
▁ంటాయి	-9877
▁అమృత్	-9878
▁ఇంతకీ	-9879
▁తిన్న	-9880
▁ముట్ట	-9881
▁రిలీజ	-9882
▁సుమన్	-9883
▁కమీషన్	-9884
▁చూసినా	-9885
▁సరిపడా	-9886
▁సిద్ధా	-9887
▁సిఫార్	-9888
▁అనౌన్స్	-9889
▁ఆహ్వానం	-9890
▁భావించి	-9891
▁రిటైర్మ	-9892
▁అయోధ్యలో	-9893
▁క్యూసెక్	-9894
▁దృష్ట్యా	-9895
▁చూస్తుంటే	-9896
▁పరోక్షంగా	-9897
▁మిమ్మల్ని	-9898
▁స్పందించి	-9899
▁వాతావరణంలో	-9900
▁పెట్టేందుకు	-9901
▁ప్రచారానికి	-9902
▁అభినందించారు	-9903
▁నిర్ణయించుకున్న	-9904
ಾಂ	-9905
గంట	-9906
ఫిడ	-9907
బరి	-9908
▁61	-9909
▁88	-9910
లిష్	-9911
▁175	-9912
▁అండ	-9913
▁అమర	-9914
▁దండ	-9915
▁బలి	-9916
▁భీమ	-9917
టర్స్	-9918
రకంగా	-9919
వితేజ	-9920
▁ఏంటో	-9921
▁చేర్	-9922
▁జానీ	-9923
▁నిధి	-9924
▁హోరా	-9925
▁అధిగమ	-9926
▁నర్సా	-9927
▁బర్గ్	-9928
▁అరెస్ట	-9929
▁కోల్పో	-9930
▁నితిన్	-9931
▁రవితేజ	-9932
▁అనిపించ	-9933
▁ఏడుగురు	-9934
▁కర్కాటక	-9935
▁క్వింటా	-9936
▁మహేందర్	-9937
▁మూడేళ్ల	-9938
▁రాలేదని	-9939
▁లాంటివి	-9940
▁హిమాచల్	-9941
▁వ్యాధులు	-9942
▁ప్రాముఖ్య	-9943
▁వేస్తున్న	-9944
▁అహ్మదాబాద్	-9945
▁తిరుగుబాటు	-9946
▁ప్రశాంతంగా	-9947
▁ప్రాతిపదిక	-9948
▁కాంట్రాక్టు	-9949
▁కుంటున్నారు	-9950
▁రిటైర్మెంట్	-9951
▁ప్రాజెక్టును	-9952
▁ప్రాజెక్టులు	-9953
▁71	-9954
▁?,	-9955
దెబ్బ	-9956
▁ఇబ్ర	-9957
▁ఫ్యూ	-9958
▁షాప్	-9959
క్కిరి	-9960
▁ప్లస్	-9961
▁ఫారమ్	-9962
▁రకమైన	-9963
▁సీఆర్	-9964
▁అకాడమీ	-9965
▁గడిచిన	-9966
▁డ్రైవ్	-9967
▁బిహార్	-9968
▁మార్పి	-9969
▁లేదన్న	-9970
▁వైకుంఠ	-9971
▁ట్రస్ట్	-9972
▁ప్రమాణం	-9973
▁అన్నట్లు	-9974
▁కలిగించే	-9975
▁కావాలంటే	-9976
▁ఫ్లెక్సీ	-9977
▁బ్యాలెట్	-9978
▁రూపాయలకు	-9979
▁విజయవంతం	-9980
▁విద్యార్	-9981
▁వ్యవస్థాప	-9982
▁అసెంబ్లీకి	-9983
▁ఇచ్చినట్లు	-9984
▁అధికారాన్ని	-9985
▁కార్యాలయానికి	-9986
ృతం	-9987
లోగా	-9988
శాల్	-9989
్రమల	-9990
▁కది	-9991
▁పట్	-9992
▁హన్	-9993
ంద్రా	-9994
▁గారు	-9995
▁టిక్	-9996
▁నన్న	-9997
▁నిష్	-9998
▁బంధం	-9999
▁రాబో	-10000
▁లోపే	-10001
నొప్పి	-10002
▁ఉక్కు	-10003
▁ఏలూరు	-10004
▁రెచ్చ	-10005
▁సమ్మే	-10006
▁దేవుడు	-10007
▁పరిగణి	-10008
▁బంజారా	-10009
▁బ్యూరో	-10010
▁మూర్తి	-10011
▁రెట్లు	-10012
▁విశ్వస	-10013
▁సహజంగా	-10014
▁సిగ్గు	-10015
▁జీఎస్టీ	-10016
▁జూపల్లి	-10017
▁సముద్రం	-10018
▁కంప్లీట్	-10019
▁కపోవడంతో	-10020
▁పరిశ్రమల	-10021
▁భయాందోళన	-10022
▁మార్కులు	-10023
▁వర్షాలతో	-10024
▁సభ్యులను	-10025
▁అంబులెన్స్	-10026
▁నడుస్తోంది	-10027
▁పొందుతున్న	-10028
▁రిజర్వాయర్	-10029
▁వాషింగ్టన్	-10030
▁విరుద్ధంగా	-10031
▁వ్యాపారవేత్త	-10032
▁చేస్తున్నట్టు	-10033
dd	-10034
ون	-10035
deo	-10036
పురు	-10037
రామ్	-10038
▁800	-10039
▁ఆకు	-10040
▁ఆటం	-10041
▁కాం	-10042
▁త్ర	-10043
ారాశి	-10044
▁ందనే	-10045
▁ఆదరణ	-10046
▁ఎంచు	-10047
▁కన్య	-10048
▁కొనే	-10049
▁పోసి	-10050
మార్లు	-10051
▁కదలిక	-10052
▁చేయగల	-10053
▁మల్లు	-10054
▁మృతుల	-10055
▁సంగీత	-10056
▁ంచింది	-10057
▁దీనిలో	-10058
▁పార్కు	-10059
▁వివక్ష	-10060
▁సుధీర్	-10061
స్తున్నా	-10062
▁అయ్యప్ప	-10063
▁చూద్దాం	-10064
▁ఇందిరమ్మ	-10065
▁కావాల్సి	-10066
▁నాయకులకు	-10067
▁ప్రాసెస్	-10068
▁యుద్ధంలో	-10069
▁ఎన్నికలను	-10070
▁అనారోగ్యంతో	-10071
▁కురుస్తున్న	-10072
▁గాయాలయ్యాయి	-10073
▁డైరెక్టరేట్	-10074
▁చేయనున్నట్లు	-10075
▁సృష్టించింది	-10076
ತಿ	-10077
▁84	-10078
పైగా	-10079
ీర్ణ	-10080
పిల్ల	-10081
▁ఆకస్	-10082
▁గన్న	-10083
▁డెంగ	-10084
▁తరపు	-10085
▁పావు	-10086
వద్దని	-10087
స్తూనే	-10088
▁ఆత్మీ	-10089
▁తరలివ	-10090
▁పత్రం	-10091
▁రాత్ర	-10092
▁విషాద	-10093
▁సన్నా	-10094
▁సైంటి	-10095
▁స్తంభ	-10096
స్తులకు	-10097
▁ఏంటంటే	-10098
▁గురువు	-10099
▁పర్యాట	-10100
▁పారిస్	-10101
▁లిఫ్ట్	-10102
▁వికాస్	-10103
▁అంతర్గత	-10104
▁అదృష్టం	-10105
▁ఇటువంటి	-10106
▁టీచర్లు	-10107
▁నరేందర్	-10108
▁నియామకం	-10109
▁మీటర్లు	-10110
▁రాజమౌళి	-10111
▁ిస్తారు	-10112
▁ఉత్తీర్ణ	-10113
▁ఉదాహరణకు	-10114
▁బస్టాండ్	-10115
▁మొక్కులు	-10116
▁వర్గాలకు	-10117
▁ఆహారాన్ని	-10118
▁తాడేపల్లి	-10119
▁బ్యాటర్లు	-10120
▁విశ్రాంతి	-10121
▁ఇప్పటివరకూ	-10122
▁పెట్టుకొని	-10123
▁ప్రతినిధుల	-10124
▁భువనేశ్వరి	-10125
▁మొదలయ్యాయి	-10126
▁స్టిట్యూట్	-10127
▁చేసినప్పుడు	-10128
▁వాస్తవానికి	-10129
▁చెల్లించాలని	-10130
▁కార్యక్రమాల్లో	-10131
టలు	-10132
▁కడ	-10133
భాష్	-10134
శాడు	-10135
▁కనక	-10136
▁గణా	-10137
▁స్ధ	-10138
జినల్	-10139
శాంతి	-10140
▁నైరు	-10141
▁పల్ల	-10142
▁రాఖీ	-10143
▁సౌతా	-10144
▁మధుమే	-10145
▁అయ్యర్	-10146
▁ఇబ్రహీ	-10147
▁గ్రహాల	-10148
▁జగనన్న	-10149
▁డేటాను	-10150
▁మిల్లు	-10151
▁వెయిట్	-10152
▁శుభ్రం	-10153
▁అవుతాయి	-10154
▁ఆహారంలో	-10155
▁ఇమ్రాన్	-10156
▁దన్నారు	-10157
▁పొందుతూ	-10158
▁మొక్కలు	-10159
▁హక్కును	-10160
▁చిక్కుకు	-10161
▁చెందింది	-10162
▁తిరుమలకు	-10163
▁నల్లగొండ	-10164
▁ప్రశ్నకు	-10165
▁రాజకీయాల	-10166
▁అత్యున్నత	-10167
▁జడ్పీటీసీ	-10168
▁విజయవాడలో	-10169
▁నిర్మాణంలో	-10170
▁ప్రోగ్రామ్	-10171
▁మెజార్టీతో	-10172
▁చర్చనీయాంశంగా	-10173
▁శ్రీనివాసరావు	-10174
ug	-10175
▁ಫ	-10176
మూల	-10177
ేర్	-10178
చుగా	-10179
ఫియా	-10180
▁وال	-10181
▁డీఈ	-10182
▁తరగ	-10183
▁తరి	-10184
నియన్	-10185
▁ఆకలి	-10186
▁ఆరంభ	-10187
▁టీజీ	-10188
▁బాబా	-10189
▁మాని	-10190
▁అతిథి	-10191
▁ఎక్కు	-10192
▁పెంచే	-10193
▁స్పెష	-10194
▁నిరోధక	-10195
▁పంపించ	-10196
▁మ్యాచు	-10197
▁శివాజీ	-10198
▁ఏపీలోని	-10199
▁కానున్న	-10200
▁తెచ్చిన	-10201
▁విజయాలు	-10202
▁సర్కిల్	-10203
▁నివసించే	-10204
▁వెంకటేశ్	-10205
▁సలహాదారు	-10206
▁చనిపోయాడు	-10207
▁చేయించారు	-10208
▁విదేశాలకు	-10209
▁ఆత్మహత్యకు	-10210
▁ఇవ్వడానికి	-10211
▁బంగారాన్ని	-10212
▁ప్రపంచంలోని	-10213
▁నియోజకవర్గంలోని	-10214
టూ	-10215
శం	-10216
▁ಭ	-10217
▁98	-10218
▁శత	-10219
▁ಆದ	-10220
లిటీ	-10221
▁ఆతి	-10222
▁ఈశా	-10223
▁పరమ	-10224
▁లేవ	-10225
▁వేత	-10226
▁షమీ	-10227
▁హబ్	-10228
మంత్ర	-10229
్యంతో	-10230
▁అత్త	-10231
▁ఉంచి	-10232
▁తాగి	-10233
▁దందా	-10234
▁సిపి	-10235
▁హోమ్	-10236
▁కపూర్	-10237
▁కున్న	-10238
▁సలార్	-10239
▁ఆంజనేయ	-10240
▁ఆక్రమణ	-10241
▁కిందకు	-10242
▁అరేబియా	-10243
▁కరెన్సీ	-10244
▁జనవరిలో	-10245
▁మహమ్మద్	-10246
▁లేకుంటే	-10247
▁వస్తువు	-10248
▁శ్రీకారం	-10249
▁కల్పించారు	-10250
▁సెప్టెంబరు	-10251
99	-10252
PS	-10253
ంథ	-10254
▁ఉధ	-10255
▁ఐఐ	-10256
సాహం	-10257
▁గీత	-10258
▁జవా	-10259
▁దాన	-10260
▁భగీ	-10261
▁మిచ	-10262
ంట్లో	-10263
▁ఇంకొ	-10264
▁ఇండో	-10265
▁క్వా	-10266
▁దిగ్	-10267
▁దేవే	-10268
▁నోరు	-10269
▁మినీ	-10270
▁సులు	-10271
▁స్తో	-10272
▁స్పై	-10273
త్తారు	-10274
పడతాయి	-10275
మానియా	-10276
▁అందిన	-10277
▁అడ్వా	-10278
▁ఇష్యూ	-10279
▁చుక్క	-10280
▁చెక్క	-10281
▁జనాలు	-10282
▁డీఆర్	-10283
▁వారని	-10284
▁సూపరి	-10285
▁స్మగ్	-10286
▁ట్రేడ్	-10287
▁ప్రజ్వ	-10288
▁ఆఫ్రికా	-10289
▁చర్యలను	-10290
▁తెరకెక్	-10291
▁ప్రసారం	-10292
▁ఫైనల్లో	-10293
▁బోతున్న	-10294
▁మంత్రుల	-10295
▁వందలాది	-10296
▁షాపింగ్	-10297
▁ఇండియాకు	-10298
▁ఒక్కసారి	-10299
▁కారిడార్	-10300
▁కాలుష్యం	-10301
▁తాగునీటి	-10302
▁ప్రస్తావన	-10303
▁ప్రణాళికలు	-10304
▁పార్లమెంటరీ	-10305
▁పుట్టినరోజు	-10306
▁ప్రతిపక్షాల	-10307
▁వినిపిస్తోంది	-10308
اتھ	-10309
శీల	-10310
ರುವ	-10311
▁جس	-10312
▁ఔష	-10313
.100	-10314
anth	-10315
ారాం	-10316
▁ఫేమ	-10317
్వేల్	-10318
▁ఏళ్ళ	-10319
▁బాని	-10320
▁మన్న	-10321
▁వారస	-10322
▁వింత	-10323
▁స్కి	-10324
రాశిలో	-10325
▁ఎపిసో	-10326
▁చేయటం	-10327
▁తెప్ప	-10328
▁పాలకు	-10329
▁పిన్న	-10330
▁లెవల్	-10331
▁సప్లై	-10332
▁స్వయం	-10333
▁చెట్లు	-10334
▁నేర్చు	-10335
▁నైరుతి	-10336
▁సభల్లో	-10337
▁అన్నాడు	-10338
▁ఆనందంగా	-10339
▁ప్రసంగం	-10340
▁రకాలుగా	-10341
▁సహాయంతో	-10342
▁అర్వింద్	-10343
▁కనుగొన్న	-10344
▁గమనించిన	-10345
▁దివ్యాంగ	-10346
▁గెలిచింది	-10347
▁పార్కింగ్	-10348
▁బెట్టింగ్	-10349
▁రాజ్యాంగం	-10350
▁సీతారామన్	-10351
▁హోంమంత్రి	-10352
▁ప్రారంభంలో	-10353
▁ప్రొడక్షన్	-10354
▁సౌతాఫ్రికా	-10355
▁తల్లిదండ్రుల	-10356
▁ఎదురుచూస్తున్న	-10357
గన్	-10358
మురు	-10359
▁చ్చ	-10360
▁జోడ	-10361
▁పాడ	-10362
▁ಎಂಬ	-10363
ాయిల్	-10364
▁అడ్వ	-10365
▁ఎట్ట	-10366
▁పరిష	-10367
▁రాథో	-10368
▁సభలు	-10369
వుతాయి	-10370
▁అల్లం	-10371
▁ఎక్కి	-10372
▁కప్పి	-10373
▁గదిలో	-10374
▁గర్భి	-10375
▁పీఆర్	-10376
▁పొడవు	-10377
▁భారతి	-10378
▁రిజల్	-10379
▁శాఖకు	-10380
▁శుభ్ర	-10381
▁ఉత్సాహ	-10382
▁ఎన్నడూ	-10383
▁కోణంలో	-10384
▁ఖాళీగా	-10385
▁వాసులు	-10386
▁చేస్తూనే	-10387
▁హార్దిక్	-10388
▁ఫ్రెండ్స్	-10389
▁ఇన్ఫెక్షన్	-10390
▁పరిశోధకులు	-10391
▁మొదలుపెట్ట	-10392
▁ప్రాంతాన్ని	-10393
▁ప్రజాస్వామ్య	-10394
ap	-10395
మత	-10396
డిక	-10397
రార	-10398
ంప్ర	-10399
జ్జు	-10400
ష్ర్	-10401
సిడీ	-10402
▁అపో	-10403
▁ధ్య	-10404
▁పోత	-10405
కాలకు	-10406
ప్పుల	-10407
మండలి	-10408
▁ంచడం	-10409
▁కొరి	-10410
▁జామ్	-10411
▁సిసో	-10412
▁ంచాడు	-10413
▁పాటలు	-10414
▁మర్యా	-10415
▁శాస్త	-10416
▁ఆత్మీయ	-10417
▁క్యాచ్	-10418
▁డిసైడ్	-10419
▁ముక్కు	-10420
▁వెళ్తే	-10421
▁వేరియం	-10422
▁అగ్రనేత	-10423
▁గజ్వేల్	-10424
▁పర్సనల్	-10425
▁బౌలర్లు	-10426
▁షాకింగ్	-10427
▁సొంతంగా	-10428
▁ఎప్పటికీ	-10429
▁కొట్టారు	-10430
▁ప్రవర్తన	-10431
▁కొట్టింది	-10432
▁కౌన్సిలర్	-10433
▁నివేదికలు	-10434
▁నివేదికలో	-10435
స్తామన్నారు	-10436
▁భావిస్తారు	-10437
▁అనుకున్నారు	-10438
▁కిలోమీటర్లు	-10439
▁పంచుకున్నారు	-10440
ెవ	-10441
లియ	-10442
ానో	-10443
ತ್ರ	-10444
▁(0	-10445
▁(6	-10446
▁పఠ	-10447
▁రథ	-10448
డినే	-10449
▁రని	-10450
▁హల్	-10451
చార్య	-10452
పత్తి	-10453
భిన్న	-10454
షియన్	-10455
▁2000	-10456
▁ఆయనే	-10457
▁కోపం	-10458
▁గింజ	-10459
నుగోడు	-10460
▁కులాల	-10461
▁కూకట్	-10462
▁రక్తం	-10463
▁సందేశ	-10464
▁సూత్ర	-10465
▁కుక్కల	-10466
▁కుర్చీ	-10467
▁కోస్తా	-10468
▁నితీశ్	-10469
▁ప్రీతి	-10470
▁రష్మిక	-10471
▁రాములు	-10472
▁వర్కర్	-10473
▁స్వదేశ	-10474
▁కట్టుకు	-10475
▁పరిణామం	-10476
▁పెండ్లి	-10477
▁డిస్ట్రి	-10478
▁మునుగోడు	-10479
▁వ్యాయామం	-10480
▁సూర్యుడు	-10481
▁సర్వీసెస్	-10482
▁న్యాయవాదులు	-10483
▁మారిపోయింది	-10484
ಕೆ	-10485
ಾಣ	-10486
కుమ	-10487
్వీ	-10488
▁73	-10489
▁89	-10490
ండరీ	-10491
టీయూ	-10492
డాన్	-10493
నేను	-10494
▁10,	-10495
▁ఈయన	-10496
క్చర్	-10497
చువల్	-10498
జర్లు	-10499
వర్లో	-10500
స్టరీ	-10501
▁కులం	-10502
▁గ్రీ	-10503
మెంటరీ	-10504
లాన్ని	-10505
▁అప్లై	-10506
▁జబ్బు	-10507
▁అద్భుత	-10508
▁చేయించ	-10509
▁తీర్మా	-10510
▁నితీష్	-10511
▁పొరుగు	-10512
▁ప్రీత్	-10513
▁మందితో	-10514
▁మహిళను	-10515
▁రాథోడ్	-10516
▁వాటిపై	-10517
▁శారీరక	-10518
▁ఆకస్మిక	-10519
▁కోట్లను	-10520
▁చివర్లో	-10521
▁చేశానని	-10522
▁విమర్శి	-10523
▁ఇంగ్లీష్	-10524
▁గుర్తుకు	-10525
▁పద్ధతిలో	-10526
▁వేధింపుల	-10527
▁ఉస్మానియా	-10528
▁గ్యారెంటీ	-10529
▁పలుమార్లు	-10530
▁వేడుకల్లో	-10531
▁ఆదిత్యనాథ్	-10532
▁దెబ్బతిన్న	-10533
▁తీసుకుంటారు	-10534
▁బ్యాక్టీరియా	-10535
ନ୍	-10536
ویر	-10537
రప్	-10538
▁vi	-10539
▁దై	-10540
పట్ల	-10541
ళూరు	-10542
క్షిక	-10543
▁2008	-10544
▁అగర్	-10545
▁గండి	-10546
▁గురై	-10547
▁జోష్	-10548
▁మీనా	-10549
▁యూరో	-10550
▁యోగీ	-10551
▁వాడి	-10552
▁సాధన	-10553
▁కమిషన	-10554
▁నవ్వు	-10555
▁పదిహే	-10556
▁పుష్క	-10557
▁ఫేమస్	-10558
▁భక్తి	-10559
▁వాడకం	-10560
▁సంస్క	-10561
▁స్తాం	-10562
▁హాజరై	-10563
▁క్వాలి	-10564
▁గెస్ట్	-10565
▁వాళ్లే	-10566
▁చేపట్టి	-10567
▁పల్నాడు	-10568
▁సబ్సిడీ	-10569
▁ఇంట్రెస్	-10570
▁డిసెంబరు	-10571
▁దశాబ్దాల	-10572
▁పరిష్కార	-10573
▁పెట్టాడు	-10574
▁ఉపయోగించే	-10575
▁అనిపిస్తుంది	-10576
hi	-10577
ారట	-10578
కొనే	-10579
▁అతీ	-10580
▁మాత	-10581
▁శరణ	-10582
ారంటే	-10583
ెండర్	-10584
▁కలర్	-10585
▁ముగు	-10586
▁లేడీ	-10587
▁లైవ్	-10588
క్తంగా	-10589
టివిటీ	-10590
▁అదిరి	-10591
▁అనుసం	-10592
▁ఏనుగు	-10593
▁కేజీల	-10594
▁తేల్చ	-10595
▁నేతగా	-10596
▁హస్తం	-10597
న్సిపల్	-10598
ల్సిందే	-10599
▁ఇంజిన్	-10600
▁ఖరీదైన	-10601
▁జగదీశ్	-10602
▁తుఫాను	-10603
▁ధ్వజమె	-10604
▁వాయిస్	-10605
▁విచారి	-10606
▁వీటికి	-10607
▁సోలార్	-10608
▁హ్యాపీ	-10609
▁కావచ్చు	-10610
పూర్వకంగా	-10611
▁ఆరోపణలను	-10612
▁ఉత్సవాలు	-10613
▁ఎన్నికైన	-10614
▁కంపెనీకి	-10615
▁వాలంటీర్	-10616
▁అనారోగ్యం	-10617
▁ఉండొచ్చని	-10618
▁యంత్రాంగం	-10619
▁లేకపోయారు	-10620
▁వెళుతున్న	-10621
▁ఎదుర్కొన్న	-10622
▁కొనియాడారు	-10623
▁నడుస్తున్న	-10624
▁గుండెపోటుతో	-10625
▁గుప్పించారు	-10626
▁చెప్పాల్సిన	-10627
▁కలిగిస్తుంది	-10628
▁పెద్దిరెడ్డి	-10629
▁ప్రేక్షకులను	-10630
▁మేనిఫెస్టోలో	-10631
▁మండిపడుతున్నారు	-10632
har	-10633
ିଡି	-10634
ాలె	-10635
▁سو	-10636
త్తమ	-10637
దియా	-10638
వానీ	-10639
వాలో	-10640
▁ఆద్	-10641
▁ఎడమ	-10642
▁లంక	-10643
▁హోట	-10644
ణాలను	-10645
▁డిపో	-10646
▁దుష్	-10647
▁ಮಾಡಿ	-10648
నవంబర్	-10649
ష్టమైన	-10650
▁కాంబో	-10651
▁గూడెం	-10652
▁చమురు	-10653
▁తమిళి	-10654
▁పల్లా	-10655
▁పేసర్	-10656
▁రజినీ	-10657
▁లాండ్	-10658
▁శ్వేత	-10659
▁కాల్చి	-10660
▁డైలాగ్	-10661
▁ఫ్లాట్	-10662
▁రికార్	-10663
▁రెచ్చి	-10664
▁డీఎస్సీ	-10665
▁పనుల్లో	-10666
▁పెంచారు	-10667
▁మిర్యాల	-10668
▁వీలైనంత	-10669
▁చేరుకొని	-10670
▁టెస్టులో	-10671
▁నగరానికి	-10672
▁వ్యాపారి	-10673
▁సెక్టార్	-10674
▁ట్రాక్టర్	-10675
▁రాకపోవడంతో	-10676
▁సమర్పించారు	-10677
▁పెట్టుకున్నారు	-10678
▁ص	-10679
తాం	-10680
మేర	-10681
▁-3	-10682
▁సఫ	-10683
ందరి	-10684
ల్ట్	-10685
▁بھی	-10686
▁ండు	-10687
కేలకు	-10688
▁కనుక	-10689
▁చివర	-10690
▁నీట్	-10691
▁ముంచ	-10692
▁రుణం	-10693
▁లీడ్	-10694
కక్కడే	-10695
బుల్లా	-10696
▁గద్దె	-10697
▁ప్రమే	-10698
▁రెండూ	-10699
▁రోవర్	-10700
▁ఒక్కరు	-10701
▁పేరుకు	-10702
▁వ్యూహా	-10703
▁అరికట్ట	-10704
▁ఆర్డీవో	-10705
▁ఓటర్లను	-10706
▁కాలనీలో	-10707
▁జరగలేదు	-10708
▁విభిన్న	-10709
▁వెళ్లను	-10710
▁ఆలయాన్ని	-10711
▁కార్తీక్	-10712
▁కార్పొరే	-10713
▁జనార్దన్	-10714
▁వేసుకుని	-10715
▁ఎట్టకేలకు	-10716
▁ప్రాజెక్టుల	-10717
▁ప్రిన్సిపల్	-10718
▁అక్కడికక్కడే	-10719
▁కార్యకలాపాలు	-10720
▁తీసుకోవాల్సి	-10721
▁నిర్వహించింది	-10722
ಾದ	-10723
హల్	-10724
▁షర	-10725
ట్టా	-10726
▁అణు	-10727
▁ఉగా	-10728
▁జవహ	-10729
▁బ్ల	-10730
భిప్ర	-10731
▁కౌర్	-10732
▁నాగే	-10733
▁నిరం	-10734
▁రచ్చ	-10735
▁సరదా	-10736
ికల్స్	-10737
▁ందన్న	-10738
▁ఆద్మీ	-10739
▁పురంద	-10740
▁ఈశాన్య	-10741
▁ఉండేవి	-10742
▁జెండర్	-10743
▁తగ్గడం	-10744
▁తరుపున	-10745
▁ఫెయిల్	-10746
▁రౌండర్	-10747
▁శాశ్వత	-10748
▁సీన్స్	-10749
▁దెబ్బతీ	-10750
▁నియమించ	-10751
▁పొందారు	-10752
▁శ్రీరామ	-10753
▁ఇంట్లోనే	-10754
▁కార్యవర్గ	-10755
▁ఇంజనీరింగ్	-10756
▁టిక్కెట్లు	-10757
▁సృష్టించిన	-10758
▁స్థానాన్ని	-10759
▁అందిస్తోంది	-10760
oo	-10761
ସି	-10762
▁ق	-10763
టస్	-10764
లాస	-10765
ామీ	-10766
▁--	-10767
▁ری	-10768
▁ఇను	-10769
▁దుమ	-10770
▁మిథ	-10771
▁హసీ	-10772
ంతులు	-10773
నర్లు	-10774
ార్థం	-10775
▁కాదా	-10776
▁గాజు	-10777
▁దురద	-10778
▁పెర్	-10779
▁బేబీ	-10780
▁ముర్	-10781
▁వైడ్	-10782
▁సారథ	-10783
▁ఉండవు	-10784
▁నినాద	-10785
▁పద్మా	-10786
▁పరమైన	-10787
▁పోరాడ	-10788
▁భగీరథ	-10789
▁ఎగుమతి	-10790
▁కులగణన	-10791
▁గెలిచే	-10792
▁టూరిజం	-10793
▁పులివె	-10794
▁ఫ్లైట్	-10795
▁వెన్ను	-10796
▁సున్ని	-10797
▁సైకిల్	-10798
ల్లాపూర్	-10799
▁అడిగారు	-10800
▁జయశంకర్	-10801
▁పురుషుల	-10802
▁ఫంక్షన్	-10803
▁సకాలంలో	-10804
▁దుస్తులు	-10805
▁రోజువారీ	-10806
▁సిసోడియా	-10807
▁అప్రమత్తం	-10808
▁కూర్చున్న	-10809
▁గ్రామాలకు	-10810
▁చేస్తోన్న	-10811
▁రజనీకాంత్	-10812
▁అభ్యర్థిని	-10813
▁అనిపించింది	-10814
▁తిరుగుతున్న	-10815
7)	-10816
8)	-10817
▁ଗ	-10818
.12	-10819
:30	-10820
▁تھا	-10821
▁ఇరా	-10822
▁ద్ద	-10823
▁వేట	-10824
చిత్ర	-10825
▁ہیں۔	-10826
▁కర్ర	-10827
▁ఖండి	-10828
▁ధోని	-10829
▁నిలవ	-10830
▁మాసం	-10831
▁విజి	-10832
ండ్లను	-10833
దర్శన్	-10834
నైటెడ్	-10835
▁నమ్మక	-10836
▁స్కీం	-10837
▁ాల్లో	-10838
ండరింగ్	-10839
▁దయాకర్	-10840
▁దోచుకు	-10841
▁ఫార్ము	-10842
▁బెల్లం	-10843
▁మర్యాద	-10844
▁లైన్స్	-10845
▁అవసరమని	-10846
▁తక్షణమే	-10847
▁బుకింగ్	-10848
▁భావించే	-10849
▁సంపూర్ణ	-10850
▁అచ్చెన్న	-10851
▁కోర్టును	-10852
▁పిల్లలతో	-10853
▁పూర్తయిన	-10854
▁సమయాన్ని	-10855
▁అల్పపీడనం	-10856
▁న్యాయమూర్	-10857
▁వెహికల్స్	-10858
▁ఆశిస్తున్న	-10859
▁తమిళనాడులో	-10860
▁పోస్టుమార్	-10861
▁ఫిబ్రవరిలో	-10862
▁రికార్డులు	-10863
▁వ్యాఖ్యలను	-10864
▁చెప్పడానికి	-10865
▁ఎమ్మెల్యేలను	-10866
ಿಸ	-10867
abu	-10868
కతవ	-10869
సిం	-10870
ెయి	-10871
సేనా	-10872
స్తి	-10873
▁అదర	-10874
ంటాడు	-10875
ందిగా	-10876
డున్న	-10877
▁ساتھ	-10878
▁గల్ల	-10879
క్వెల్	-10880
సాన్ని	-10881
▁అవకతవ	-10882
▁చూడటం	-10883
▁తగ్గే	-10884
▁దాడుల	-10885
▁నెగ్గ	-10886
▁నెమ్మ	-10887
▁వాంగ్	-10888
ఫిషియల్	-10889
▁తలసాని	-10890
▁దొంగలు	-10891
▁స్టాఫ్	-10892
▁ఆర్మూర్	-10893
▁ముంబైలో	-10894
▁అవసరమైతే	-10895
▁ఇంట్లోకి	-10896
▁ఉండాలంటే	-10897
▁కూల్చివే	-10898
▁తొలగించి	-10899
▁రెస్క్యూ	-10900
▁వేరియంట్	-10901
▁సంకేతాలు	-10902
▁జరుగుతాయి	-10903
▁నిబంధనలను	-10904
▁ప్రత్యేకత	-10905
▁రాజగోపాల్	-10906
▁అవకాశాన్ని	-10907
▁ప్రమోషన్స్	-10908
▁గెలుపొందారు	-10909
▁జరుగుతోందని	-10910
▁పురందేశ్వరి	-10911
▁ప్రేక్షకులు	-10912
▁సందర్శించారు	-10913
ಷ್	-10914
ಾಜ	-10915
ect	-10916
గళం	-10917
▁Al	-10918
.500	-10919
టేష్	-10920
▁ఉమా	-10921
▁చదర	-10922
▁మలే	-10923
▁మహీ	-10924
▁ఉదయ్	-10925
▁కొము	-10926
▁ఖరార	-10927
▁ఫుటే	-10928
▁బాటి	-10929
▁యాసి	-10930
▁షాట్	-10931
▁జవహర్	-10932
▁పట్నం	-10933
▁వంతెన	-10934
▁వడ్లు	-10935
▁సీఎల్	-10936
▁కిందటే	-10937
▁దుర్గా	-10938
▁పరిషత్	-10939
▁పోయాడు	-10940
▁ప్రసాద	-10941
▁బలగాలు	-10942
▁బ్యాడ్	-10943
▁ముద్దు	-10944
▁మ్యూజి	-10945
▁సర్జరీ	-10946
▁భార్యను	-10947
▁సంస్కరణ	-10948
▁అపాయింట్	-10949
▁కూర్చుని	-10950
▁పురుషులు	-10951
▁పెళ్లికి	-10952
▁ప్రజ్వల్	-10953
▁మన్మోహన్	-10954
▁విధించిన	-10955
▁సహకారంతో	-10956
▁పరిశ్రమలు	-10957
▁రావాల్సిన	-10958
▁కనిపించాయి	-10959
▁కోల్పోయింది	-10960
▁చిక్కుకున్న	-10961
▁వైఎస్ఆర్సీపీ	-10962
▁చెందుతున్నారు	-10963
▁ప్రవేశపెట్టిన	-10964
▁పనిచేస్తున్నారు	-10965
2)	-10966
ఖాన	-10967
ంతర్	-10968
క్రే	-10969
▁ఆరే	-10970
▁ఓకే	-10971
▁గౌడ	-10972
▁చెబ	-10973
▁నడవ	-10974
తుంటే	-10975
▁ఎండి	-10976
▁ద్వీ	-10977
▁మంటూ	-10978
▁మమతా	-10979
▁ింది	-10980
ప్పుడూ	-10981
▁ఏసీపీ	-10982
▁కరుణా	-10983
▁జ్వరం	-10984
▁సమాజా	-10985
వెన్షన్	-10986
▁కథనాలు	-10987
▁చేయాలో	-10988
▁ట్యాగ్	-10989
▁తీరును	-10990
▁శ్రావణ	-10991
▁సిద్ధి	-10992
▁ఎకరాలకు	-10993
▁పారదర్శ	-10994
▁ప్రదీప్	-10995
ంటెండెంట్	-10996
▁అవిశ్వాస	-10997
▁ఉత్పత్తు	-10998
▁టీఆర్ఎస్	-10999
▁నాయకులను	-11000
▁మార్పిడి	-11001
▁కామెంట్లు	-11002
▁పుష్కలంగా	-11003
▁వ్యవహరించ	-11004
▁శ్రీకృష్ణ	-11005
▁నివాసానికి	-11006
▁సానుకూలంగా	-11007
▁సమావేశమయ్యారు	-11008
▁సూపరింటెండెంట్	-11009
ీత	-11010
నిజ	-11011
ారే	-11012
▁95	-11013
టిగా	-11014
టీవీ	-11015
వాయ్	-11016
వీస్	-11017
సెట్	-11018
▁దవా	-11019
▁రిల	-11020
▁సౌర	-11021
ాయన్న	-11022
ాయిన్	-11023
▁ہوئے	-11024
▁క్రూ	-11025
▁టెస్	-11026
▁పడటం	-11027
▁పోగొ	-11028
▁బ్రో	-11029
▁వేగం	-11030
▁సభను	-11031
▁సిటి	-11032
▁సేకర	-11033
ట్టమైన	-11034
▁ఓడిపో	-11035
▁టీస్ప	-11036
▁దాటిన	-11037
▁విలన్	-11038
▁షిండే	-11039
కెటింగ్	-11040
▁ఏర్పడే	-11041
▁జైపూర్	-11042
▁డీసీసీ	-11043
▁తొక్కి	-11044
▁నిజమైన	-11045
▁పడటంతో	-11046
▁పాలేరు	-11047
▁రాజయ్య	-11048
▁రిక్రూ	-11049
▁వాడుకు	-11050
▁వైసిపి	-11051
▁వ్యర్థ	-11052
▁షారుఖ్	-11053
▁సుభాష్	-11054
▁ుకున్న	-11055
▁కనెక్ట్	-11056
▁జంతువుల	-11057
▁నిర్ణీత	-11058
▁విస్తృత	-11059
▁హనుమంతు	-11060
▁ఇక్కడికి	-11061
▁మార్చారు	-11062
▁విమానాలు	-11063
▁సినిమాకి	-11064
▁ప్రశ్నలకు	-11065
▁స్పిన్నర్	-11066
▁చెప్పాలంటే	-11067
▁విస్తృతంగా	-11068
▁వ్యాక్సిన్	-11069
▁ఆరోగ్యకరమైన	-11070
▁కొద్దిసేపటి	-11071
▁నిర్ణయానికి	-11072
▁ధ్వజమెత్తారు	-11073
▁రూపొందించారు	-11074
▁మహారాష్ట్రలోని	-11075
ul	-11076
شن	-11077
▁र	-11078
మలు	-11079
▁Pl	-11080
▁జత	-11081
▁యశ	-11082
జనల్	-11083
ారమే	-11084
▁ఉద్	-11085
▁మెహ	-11086
▁మేడ	-11087
▁మోహ	-11088
గించి	-11089
ులుగా	-11090
▁ఐరన్	-11091
▁బాత్	-11092
▁మహాల	-11093
▁అమితా	-11094
▁ఇన్సూ	-11095
▁జవాన్	-11096
▁నిలబడ	-11097
▁పొట్ట	-11098
▁బజార్	-11099
▁మైనర్	-11100
డబ్ల్యూ	-11101
▁అందంగా	-11102
▁గాలులు	-11103
▁డిస్కౌ	-11104
▁డ్రెస్	-11105
▁పోతాయి	-11106
▁బాక్స్	-11107
▁మాల్దీ	-11108
▁రాష్ర్	-11109
▁సందేహం	-11110
▁స్క్రి	-11111
▁ఆలోచనలు	-11112
▁పల్లిలో	-11113
▁భాగస్వా	-11114
▁పాఠశాలలో	-11115
▁పరిశ్రమలో	-11116
▁పోవడానికి	-11117
▁కలెక్టర్లు	-11118
▁కృష్ణారావు	-11119
▁కార్యకర్తలకు	-11120
ac	-11121
హద	-11122
యిక	-11123
శివ	-11124
▁ଦେ	-11125
ଥିବା	-11126
ండడం	-11127
కాన్	-11128
గుంట	-11129
లాల్	-11130
స్వి	-11131
▁మచి	-11132
▁రమణ	-11133
▁రాచ	-11134
అక్టో	-11135
శ్వర్	-11136
▁అవతర	-11137
▁ధ్యా	-11138
▁సారా	-11139
▁సేల్	-11140
దాపూర్	-11141
▁చదరపు	-11142
▁తెలుస	-11143
▁దమ్ము	-11144
▁పీరియ	-11145
▁బొత్స	-11146
▁భూషణ్	-11147
▁అక్రమా	-11148
▁అనుసంధ	-11149
▁ప్రేమి	-11150
▁బాల్స్	-11151
▁రైలును	-11152
▁సతీమణి	-11153
▁ుకోవడం	-11154
అక్టోబర్	-11155
▁అస్వస్థ	-11156
▁ఎపిసోడ్	-11157
▁కఠినంగా	-11158
▁కష్టంగా	-11159
▁కోచింగ్	-11160
▁చారిత్ర	-11161
▁చేవెళ్ల	-11162
▁టెర్రరి	-11163
▁తప్పులు	-11164
▁తర్వాతి	-11165
▁విక్రయి	-11166
పడుతుందని	-11167
▁చేయాలంటే	-11168
▁డిఫెన్స్	-11169
▁ఫార్ములా	-11170
▁సమస్యలకు	-11171
▁సెంచరీలు	-11172
▁ఖండించారు	-11173
▁అడ్డుకున్న	-11174
▁చేశామన్నారు	-11175
ించుకోవడానికి	-11176
▁కల్పిస్తామని	-11177
▁జరుగుతున్నాయని	-11178
▁ప్రయాణిస్తున్న	-11179
ps	-11180
టె	-11181
ائی	-11182
ొని	-11183
▁79	-11184
▁86	-11185
కౌట్	-11186
స్టో	-11187
▁ంలో	-11188
▁ఒరి	-11189
▁సీఏ	-11190
▁ఇదొక	-11191
▁చొరవ	-11192
▁పారా	-11193
▁వాడీ	-11194
▁ఉండబో	-11195
▁మచిలీ	-11196
▁మానసి	-11197
▁రుద్ర	-11198
▁సరికి	-11199
మవుతాయి	-11200
▁కష్టమే	-11201
▁కొన్నా	-11202
▁నాటౌట్	-11203
▁నిత్యా	-11204
▁ఫ్రంట్	-11205
▁భాగంలో	-11206
▁పొరపాటు	-11207
▁ర్యాంక్	-11208
▁తిరుగుతూ	-11209
▁బ్రాహ్మణ	-11210
▁వ్యవధిలో	-11211
▁సెక్షన్ల	-11212
స్తున్నాడు	-11213
▁ఈదురుగాలు	-11214
▁కంపెనీలకు	-11215
▁నాలుగేళ్ల	-11216
▁భారతీయులు	-11217
▁ఇప్పటికైనా	-11218
▁చేయబోతున్న	-11219
▁రికార్డును	-11220
▁లేకపోయింది	-11221
▁వెల్లుల్లి	-11222
▁సిద్ధమైంది	-11223
▁అందిస్తామని	-11224
▁ఇన్సూరెన్స్	-11225
▁తీర్చిదిద్ద	-11226
▁స్వీకరించారు	-11227
▁తీసుకురావాలని	-11228
▁పరిష్కారానికి	-11229
وٹ	-11230
▁&	-11231
▁d	-11232
▁ై	-11233
.45	-11234
్రె	-11235
▁అక్	-11236
▁చొర	-11237
▁తాత	-11238
▁పోట	-11239
▁లెవ	-11240
గేషన్	-11241
సమితి	-11242
ాయిడ్	-11243
▁భయపడ	-11244
▁విము	-11245
▁వెరి	-11246
▁హోలీ	-11247
ంటారని	-11248
వ్వులు	-11249
స్తాడు	-11250
▁అమర్చ	-11251
▁డిక్ల	-11252
▁దివ్య	-11253
▁దుర్గ	-11254
▁నిలకడ	-11255
▁పరిస్	-11256
▁బానిస	-11257
▁బుద్ధ	-11258
▁యూరప్	-11259
▁వెచ్చ	-11260
▁ాలన్న	-11261
▁కుప్పం	-11262
▁దారులు	-11263
▁స్పూన్	-11264
▁కూరగాయల	-11265
▁తలెత్తు	-11266
▁పంపింది	-11267
▁ప్రమేయం	-11268
▁సీట్లను	-11269
▁సేకరించ	-11270
▁అందించడం	-11271
▁కలెక్షన్	-11272
▁చర్చించి	-11273
▁నెట్టింట	-11274
▁వెంకట్రా	-11275
▁సంస్థలకు	-11276
▁అదేవిధంగా	-11277
▁రేపుతోంది	-11278
మవుతున్నాయి	-11279
▁కేంద్రాలను	-11280
▁కొద్దిరోజు	-11281
▁జరుగుతుందో	-11282
▁పర్యవేక్షి	-11283
▁వ్యాపారాలు	-11284
▁చేశారన్నారు	-11285
▁కేటాయించింది	-11286
▁పోస్టుమార్టం	-11287
▁విద్యార్థులను	-11288
تا	-11289
▁ज	-11290
▁బడ	-11291
దుర్	-11292
నాడ్	-11293
భిషే	-11294
రాకు	-11295
▁ఈజి	-11296
▁బసవ	-11297
ంటిని	-11298
ంపుల్	-11299
ంపూర్	-11300
ವನ್ನು	-11301
▁ఎవ్వ	-11302
▁గర్వ	-11303
▁జ్యూ	-11304
▁ఫిలి	-11305
▁బీపీ	-11306
▁లంచం	-11307
▁వదిల	-11308
▁వాది	-11309
▁వీడి	-11310
▁శాటి	-11311
▁సంభా	-11312
▁సేన్	-11313
పుల్స్	-11314
▁పుంజు	-11315
▁భాగ్య	-11316
▁రామాయ	-11317
▁సెంటి	-11318
▁కలపాలి	-11319
▁కిసాన్	-11320
▁చెబితే	-11321
▁భవనాలు	-11322
▁య్యాయి	-11323
▁అంతస్తు	-11324
▁క్లియర్	-11325
▁తెరపైకి	-11326
▁ఉంచుకుని	-11327
▁తలనొప్పి	-11328
▁బలవంతంగా	-11329
▁విజయసాయి	-11330
▁నష్టపోయిన	-11331
▁ప్రీమియర్	-11332
▁మానసికంగా	-11333
▁వీరిద్దరి	-11334
▁చంద్రుడిపై	-11335
▁సాధిస్తారు	-11336
▁హైకోర్టును	-11337
▁చేరుకుంటారు	-11338
▁చేస్తున్నాం	-11339
▁వెంకటరెడ్డి	-11340
బౌ	-11341
ಬ್	-11342
▁دی	-11343
డండి	-11344
దేవ్	-11345
▁కోత	-11346
▁రిష	-11347
మేషన్	-11348
▁గణాం	-11349
▁పరాజ	-11350
▁బాధా	-11351
▁మహాన	-11352
▁ొచ్చ	-11353
శ్వాసం	-11354
▁ఎంప్ల	-11355
▁గ్రంథ	-11356
▁మరిచి	-11357
▁రామ్మ	-11358
▁సంకల్	-11359
▁ಮತ್ತು	-11360
▁కట్టడి	-11361
▁కాకతీయ	-11362
▁చేయలేక	-11363
▁నిలబడి	-11364
▁ఫైనాన్	-11365
▁వీరంతా	-11366
▁వేయాలి	-11367
▁ఆస్పత్ర	-11368
▁ఇచ్చినా	-11369
▁కాలేదని	-11370
▁టెంపుల్	-11371
▁దిగుబడి	-11372
▁ముద్రగడ	-11373
▁కూరగాయలు	-11374
▁జరిగాయని	-11375
▁పెట్టుకో	-11376
▁మారిందని	-11377
▁రిలయన్స్	-11378
▁వెంకటేష్	-11379
▁అవార్డులు	-11380
▁క్షమాపణలు	-11381
▁డ్రైవింగ్	-11382
▁ప్రోత్సహి	-11383
▁రాజాసింగ్	-11384
▁వాలంటీర్ల	-11385
▁సినిమాలకు	-11386
మవుతున్నారు	-11387
▁డిక్లరేషన్	-11388
▁పాఠశాలల్లో	-11389
▁బాధితురాలి	-11390
▁నిందితుడిని	-11391
▁పరిస్థితిలో	-11392
▁కేటాయించాలని	-11393
▁సంతరించుకుంది	-11394
▁నిర్వహించేందుకు	-11395
దనే	-11396
పాక	-11397
ేదు	-11398
▁اپ	-11399
ంటల్	-11400
వాడు	-11401
ాయనే	-11402
▁700	-11403
▁తేల	-11404
▁ుడి	-11405
▁ದ್ದ	-11406
ట్లలో	-11407
తాలను	-11408
పూరిత	-11409
బీఎస్	-11410
ాలిక్	-11411
ದಲ್ಲಿ	-11412
▁ఎంబీ	-11413
▁జేసీ	-11414
▁తాడు	-11415
▁బోగీ	-11416
▁యోజన	-11417
▁అంతగా	-11418
▁కోవాల	-11419
▁క్రిత	-11420
▁చెట్ల	-11421
▁నమ్మి	-11422
▁మూత్ర	-11423
▁వారసు	-11424
▁విజేత	-11425
▁హసీనా	-11426
క్రమంగా	-11427
ికల్చర్	-11428
▁ఆకర్షి	-11429
▁కాళ్లు	-11430
▁కేరళలో	-11431
▁పద్ధతి	-11432
▁పుట్టు	-11433
▁భావించ	-11434
▁మూసివే	-11435
▁యాంకర్	-11436
▁య్యారు	-11437
▁రేసులో	-11438
▁లెక్కల	-11439
▁వీలుగా	-11440
▁పేషెంట్	-11441
▁పోతోంది	-11442
▁రివర్స్	-11443
▁వెహికల్	-11444
▁దుండగులు	-11445
▁ప్రోగ్రా	-11446
▁బస్సులను	-11447
▁సంపాదించ	-11448
▁సానుభూతి	-11449
▁అవినీతికి	-11450
▁నిలబెట్టు	-11451
▁చేపడుతున్న	-11452
▁హ్యాట్రిక్	-11453
▁అగ్రికల్చర్	-11454
▁కేంద్రాన్ని	-11455
▁ప్రాతిపదికన	-11456
▁యూనివర్సిటీలో	-11457
il	-11458
ov	-11459
ణె	-11460
ూల	-11461
.1,	-11462
దాని	-11463
నిర్	-11464
భవన్	-11465
▁కనె	-11466
▁కూర	-11467
▁పెద	-11468
▁వాట	-11469
డర్స్	-11470
బ్బాక	-11471
▁ంచిన	-11472
▁కావు	-11473
▁కేకే	-11474
▁టవర్	-11475
▁టీసీ	-11476
▁తాగే	-11477
▁తీరం	-11478
▁తోటి	-11479
▁పద్ద	-11480
▁మీర్	-11481
▁మూర్	-11482
▁యాని	-11483
▁వైభవ	-11484
▁శారు	-11485
▁సాయు	-11486
▁సీఈఓ	-11487
▁సేపు	-11488
క్ష్మీ	-11489
ధుల్లో	-11490
▁అనవసర	-11491
▁కలయిక	-11492
▁పరారీ	-11493
▁మైండ్	-11494
▁సర్దు	-11495
▁ದಲ್ಲಿ	-11496
గుతున్న	-11497
▁అనర్హత	-11498
▁అమలులో	-11499
▁కాసేపు	-11500
▁గిఫ్ట్	-11501
▁డ్యామ్	-11502
▁ధరించి	-11503
▁బాపట్ల	-11504
▁సమీకరణ	-11505
▁అవార్డ్	-11506
▁కుంటారు	-11507
▁గాయపడ్డ	-11508
▁చర్చించ	-11509
▁చేయడంపై	-11510
▁జాతకులు	-11511
▁దుబ్బాక	-11512
▁వచ్చేలా	-11513
▁ఉద్యమంలో	-11514
▁ఉన్నామని	-11515
▁చారిత్రక	-11516
▁ధర్మపురి	-11517
▁బాలినేని	-11518
▁యునైటెడ్	-11519
▁కూల్చివేత	-11520
▁విశ్వసనీయ	-11521
▁వీడియోలను	-11522
▁వెల్లడించ	-11523
▁కెప్టెన్సీ	-11524
▁మృతదేహాలను	-11525
▁వెంకటేశ్వర	-11526
▁ప్రస్తుతానికి	-11527
ें	-11528
పట్	-11529
భవి	-11530
భ్ర	-11531
▁ra	-11532
మాటో	-11533
▁అడు	-11534
▁అథ్	-11535
▁మరే	-11536
▁సద్	-11537
రాలకు	-11538
ాయుడు	-11539
▁دعوی	-11540
▁కౌలు	-11541
▁తామే	-11542
▁నానా	-11543
▁నేనే	-11544
▁నైవే	-11545
▁పెవి	-11546
▁రాను	-11547
▁విన్	-11548
▁షీట్	-11549
టాన్స్	-11550
▁అప్పీ	-11551
▁ఉపరిత	-11552
▁ఎండలు	-11553
▁కామన్	-11554
▁జ్ఞాన	-11555
▁లేదనే	-11556
▁ారంటే	-11557
▁ఆధారిత	-11558
▁ఉపవాసం	-11559
▁చేయగలి	-11560
▁టోకెన్	-11561
▁పెద్దల	-11562
▁ప్రావి	-11563
▁బ్యాగ్	-11564
▁మంటలను	-11565
▁మాఫియా	-11566
▁మిర్చి	-11567
▁రాజేష్	-11568
▁సలహాలు	-11569
▁స్వర్ణ	-11570
▁అంతకంటే	-11571
▁ఉరుములు	-11572
▁కత్తితో	-11573
▁పేరెంట్	-11574
▁వైభవంగా	-11575
▁సంప్రది	-11576
▁చేస్తారా	-11577
▁నియమితుల	-11578
▁నెక్స్ట్	-11579
▁మాదిరిగా	-11580
▁సిఫార్సు	-11581
▁తెలంగాణను	-11582
▁సదుపాయాలు	-11583
▁అభిమానులను	-11584
▁గ్రామంలోని	-11585
▁బాగుంటుంది	-11586
▁మంత్రివర్గ	-11587
▁అభిప్రాయాలు	-11588
▁ప్రతిపాదనలు	-11589
▁విద్యాసంస్థ	-11590
▁విమానాశ్రయం	-11591
▁ఎలక్ట్రానిక్	-11592
▁జరుపుకుంటారు	-11593
▁నిరుద్యోగులు	-11594
▁పనిచేస్తుంది	-11595
▁పార్లమెంటులో	-11596
▁వెళ్తున్నారు	-11597
డిప	-11598
భర్	-11599
లరీ	-11600
▁తై	-11601
elug	-11602
ంతలు	-11603
గాలి	-11604
జ్జన	-11605
దన్న	-11606
మంగా	-11607
యిరీ	-11608
ెండు	-11609
▁2.5	-11610
▁ఏడో	-11611
▁గుణ	-11612
▁యాస	-11613
్రాల్	-11614
▁ధాన్	-11615
▁నీతి	-11616
▁మియా	-11617
▁మును	-11618
▁రాయబ	-11619
▁విత్	-11620
టాన్ని	-11621
సెంబర్	-11622
ాయత్నం	-11623
▁అభివృ	-11624
▁అమ్మే	-11625
▁ముద్ద	-11626
▁వాడిన	-11627
▁సుబ్ర	-11628
▁కుదిరి	-11629
▁తరచుగా	-11630
ానన్నారు	-11631
ేశ్వర్లు	-11632
▁అభిమాని	-11633
▁అమితాబ్	-11634
▁ఇప్పుడే	-11635
▁ఎంతగానో	-11636
▁ఎత్తులో	-11637
▁కారణంతో	-11638
▁కావాలనే	-11639
▁నెరవేరు	-11640
▁పోస్టల్	-11641
▁బల్దియా	-11642
▁భార్యకు	-11643
▁స్తానని	-11644
▁ంచడానికి	-11645
▁గ్రామాలు	-11646
▁టైటాన్స్	-11647
▁శాటిలైట్	-11648
▁అడ్వాన్స్	-11649
▁నిర్మాతలు	-11650
▁ప్రాణాలతో	-11651
▁అధికారులపై	-11652
▁అభిమానులకు	-11653
▁పిన్నెల్లి	-11654
▁ప్రమాణస్వీ	-11655
▁నేపథ్యంలోనే	-11656
▁మార్కెటింగ్	-11657
▁ఆర్టిఫిషియల్	-11658
▁వెంకటేశ్వర్లు	-11659
4)	-11660
ro	-11661
భయ	-11662
ీద్	-11663
▁):	-11664
జియా	-11665
లాన్	-11666
వణ్య	-11667
▁అటా	-11668
▁పరచ	-11669
▁రిఫ	-11670
గ్రఫీ	-11671
పాత్ర	-11672
ప్రమా	-11673
▁తోనూ	-11674
▁సైడ్	-11675
సుకుని	-11676
▁గణపతి	-11677
▁చేనేత	-11678
▁మురళి	-11679
▁లెటర్	-11680
▁వెన్న	-11681
▁అప్పగి	-11682
▁ఒకరోజు	-11683
▁కవితకు	-11684
▁తుందని	-11685
▁బాలుడి	-11686
▁మిచెల్	-11687
▁వేస్తూ	-11688
స్థానంలో	-11689
▁ఇంజనీర్	-11690
▁కమిటీని	-11691
▁జరిగినా	-11692
▁నిపుణుల	-11693
▁మార్పుల	-11694
▁పరిణామాల	-11695
▁పాల్గొనే	-11696
▁ప్రిన్సి	-11697
▁ఫెడరేషన్	-11698
▁మార్చిలో	-11699
▁రహదారిపై	-11700
▁రిక్రూట్	-11701
▁విముక్తి	-11702
▁విశ్లేషణ	-11703
▁సీసీటీవీ	-11704
▁కాదన్నారు	-11705
▁దక్షిణాది	-11706
▁వేయడానికి	-11707
▁వేసేందుకు	-11708
▁ఏర్పాట్లను	-11709
▁బోతున్నారు	-11710
▁మిర్యాలగూడ	-11711
▁ఆరోపించింది	-11712
▁భాగస్వామ్యం	-11713
▁దుర్వినియోగం	-11714
గర	-11715
▁ब	-11716
ంగత	-11717
కాన	-11718
డియ	-11719
దేవ	-11720
పూట	-11721
▁07	-11722
▁TS	-11723
▁ام	-11724
▁سی	-11725
టిన్	-11726
మాపక	-11727
▁ఈమె	-11728
▁వదల	-11729
▁మెట్	-11730
▁మైనా	-11731
▁వర్ధ	-11732
▁విల్	-11733
▁సంజీ	-11734
ఛార్జ్	-11735
▁video	-11736
▁ఆడాడు	-11737
▁ఆర్టీ	-11738
▁జర్నీ	-11739
▁పరిమా	-11740
▁బండ్ల	-11741
▁ముచ్చ	-11742
▁మొట్ట	-11743
▁లింగా	-11744
▁వచ్చా	-11745
▁వినయ్	-11746
▁ఆత్మవి	-11747
▁ఆర్ధిక	-11748
▁ఇళ్లను	-11749
▁చెక్కు	-11750
▁డ్రైనే	-11751
▁పీహెచ్	-11752
▁పురాతన	-11753
▁ప్రోత్	-11754
▁బెడ్రూ	-11755
▁మిశ్రా	-11756
▁లెవెల్	-11757
▁వినతిప	-11758
▁సేల్స్	-11759
▁స్పాట్	-11760
▁బృందాలు	-11761
▁యువకుడి	-11762
▁వేదికపై	-11763
▁సిక్సర్	-11764
▁అమరావతిః	-11765
▁తెచ్చారు	-11766
▁దినోత్సవ	-11767
▁దృశ్యాలు	-11768
▁నిర్వాసి	-11769
▁సంక్షోభం	-11770
▁సిటీలోని	-11771
వుతున్నాయి	-11772
▁అగ్నిమాపక	-11773
▁ఇవ్వాల్సి	-11774
▁ఓడిపోయారు	-11775
▁డిస్కౌంట్	-11776
▁రాజేశ్వర్	-11777
▁విపక్షాలు	-11778
▁సిద్ధార్థ	-11779
▁అగ్నిప్రమా	-11780
▁కాలేజీల్లో	-11781
▁మినహాయింపు	-11782
▁వెళ్తుండగా	-11783
▁సస్పెన్షన్	-11784
▁పరిశీలించిన	-11785
▁స్వాతంత్ర్య	-11786
▁తెరకెక్కించిన	-11787
▁నిరుద్యోగులకు	-11788
▁ఐక్యరాజ్యసమితి	-11789
".	-11790
3)	-11791
so	-11792
्र	-11793
వశా	-11794
సస్	-11795
క్కా	-11796
విట్	-11797
▁11,	-11798
▁جان	-11799
▁ఆంధ	-11800
▁ఉపే	-11801
▁నమూ	-11802
▁బేగ	-11803
▁యోగ	-11804
▁ైతే	-11805
ంటెడ్	-11806
య్యాక	-11807
▁ట్యూ	-11808
▁పీడీ	-11809
▁వజ్ర	-11810
▁షురూ	-11811
▁ాధిక	-11812
angana	-11813
దాలుగా	-11814
నీయంగా	-11815
▁అవుతూ	-11816
▁కేడర్	-11817
▁గచ్చి	-11818
▁డీఎస్	-11819
▁బెదిర	-11820
▁మాంసం	-11821
▁లీగల్	-11822
▁వీక్ష	-11823
▁శ్రేయ	-11824
▁సతీష్	-11825
▁కక్ష్య	-11826
▁గేట్లు	-11827
▁ద్వారం	-11828
▁మూవీస్	-11829
▁స్తాడు	-11830
▁హార్ట్	-11831
▁అందింది	-11832
▁ఏడాదిలో	-11833
▁క్రితమే	-11834
▁యాక్టర్	-11835
▁వదిలేసి	-11836
▁వసూళ్లు	-11837
▁సబ్జెక్	-11838
▁అడ్మిషన్	-11839
▁కనెక్షన్	-11840
▁కస్టడీకి	-11841
▁గందరగోళం	-11842
▁చాంపియన్	-11843
▁చిత్రాలు	-11844
▁సీక్వెల్	-11845
▁కార్యదర్శ	-11846
▁పాత్రల్లో	-11847
▁పెవిలియన్	-11848
▁రూపాయలుగా	-11849
▁హింసాత్మక	-11850
▁ఉత్తరాంధ్ర	-11851
▁వేణుగోపాల్	-11852
▁ఆఫ్ఘనిస్తాన్	-11853
▁ఎదుర్కోవాల్సి	-11854
या	-11855
హై	-11856
▁द	-11857
ందట	-11858
యాన	-11859
ీమ్	-11860
▁రణ	-11861
కాల్	-11862
నాన్	-11863
్రీయ	-11864
▁1.5	-11865
▁13,	-11866
▁14,	-11867
▁కలప	-11868
▁నీట	-11869
▁సేన	-11870
డియన్	-11871
సెప్ట	-11872
ామంటూ	-11873
▁ఆర్గ	-11874
▁జోరు	-11875
▁డైట్	-11876
▁ఫైల్	-11877
▁శాంస	-11878
ారులకు	-11879
్యాలను	-11880
▁అభియో	-11881
▁కలిసొ	-11882
▁దౌత్య	-11883
▁బీసీల	-11884
బట్టారు	-11885
▁అస్సలు	-11886
▁ఆవరణలో	-11887
▁ఏళ్లలో	-11888
▁క్యాష్	-11889
▁ధ్రువీ	-11890
▁నిఖిల్	-11891
▁బహుమతి	-11892
▁లావణ్య	-11893
▁బోతోంది	-11894
▁మతపరమైన	-11895
▁వచ్చేది	-11896
▁అప్పగించ	-11897
▁టీస్పూన్	-11898
▁పత్రాలను	-11899
▁పోతుందని	-11900
▁వివాదాలు	-11901
▁నిర్వహణకు	-11902
▁ప్రకటించే	-11903
▁రుతుపవనాలు	-11904
▁వ్యక్తులను	-11905
▁వ్యవహరించిన	-11906
▁కమ్యూనికేషన్	-11907
▁వెల్లడించాయి	-11908
▁పాల్గొననున్నారు	-11909
ିକ	-11910
ddy	-11911
ಿಂದ	-11912
▁81	-11913
▁83	-11914
▁سر	-11915
▁థా	-11916
బౌలి	-11917
▁108	-11918
▁میڈ	-11919
▁ଙ୍କ	-11920
▁అమల	-11921
▁ఏవీ	-11922
▁ధన్	-11923
▁పడవ	-11924
▁మకర	-11925
కుంది	-11926
వల్లి	-11927
▁2012	-11928
▁ఒకటే	-11929
▁కావే	-11930
▁తారా	-11931
▁ఫేమ్	-11932
▁మిడి	-11933
▁రొమా	-11934
▁వాచ్	-11935
▁సాగే	-11936
నాల్లో	-11937
సింజర్	-11938
▁دعویٰ	-11939
▁ందంటే	-11940
▁అనురా	-11941
▁అలానే	-11942
▁ఎందుక	-11943
▁ఎల్లో	-11944
▁కేఎల్	-11945
▁చర్యల	-11946
▁దీపక్	-11947
▁ధైర్య	-11948
▁బాబర్	-11949
▁సోదరి	-11950
▁ంచాలని	-11951
▁కుర్రా	-11952
▁కొలువు	-11953
▁క్రేజీ	-11954
▁టీచర్ల	-11955
▁తగ్గిన	-11956
▁వల్లనే	-11957
▁శాతంగా	-11958
▁శ్రీను	-11959
▁షేర్లు	-11960
మాత్తుగా	-11961
▁అవినాశ్	-11962
▁అవుతారు	-11963
▁చట్టాలు	-11964
▁ట్విటర్	-11965
▁ప్రతాప్	-11966
▁రక్తంలో	-11967
▁విశాఖలో	-11968
▁ఊరేగింపు	-11969
▁కుటుంబాల	-11970
▁కెమెరాలు	-11971
▁పట్టింది	-11972
▁పార్టీతో	-11973
▁మిలియన్ల	-11974
సెప్టెంబర్	-11975
▁కోరుకున్న	-11976
▁చట్టపరమైన	-11977
▁చట్టాన్ని	-11978
▁ముఖ్యమంత్ర	-11979
▁ప్రపంచానికి	-11980
▁ప్రారంభించి	-11981
▁స్తున్నారని	-11982
▁ఉంటుందన్నారు	-11983
▁పరిష్కరించాలని	-11984
ಮ್	-11985
ధార	-11986
▁ఖే	-11987
గర్భ	-11988
చంద్	-11989
▁ఆవు	-11990
▁నవా	-11991
▁రకం	-11992
▁షన్	-11993
▁సుం	-11994
▁కోట్	-11995
▁దాటే	-11996
▁పాపు	-11997
▁మాను	-11998
▁లాగి	-11999
▁ಿದ್ದ	-12000
నాయుడు	-12001
పురంలో	-12002
ప్టెన్	-12003
స్వాల్	-12004
▁అన్వే	-12005
▁ఐఫోన్	-12006
▁ధర్మం	-12007
▁నరేష్	-12008
▁పరిమి	-12009
▁పాండే	-12010
క్షేత్ర	-12011
▁డీఎంకే	-12012
▁దివంగత	-12013
▁మార్చ్	-12014
డిసెంబర్	-12015
▁అభివర్ణ	-12016
▁ఉద్దేశం	-12017
▁కాల్పుల	-12018
▁చెందాడు	-12019
▁పరారీలో	-12020
▁ప్రసంగా	-12021
▁జాతకులకు	-12022
▁ట్యాంకర్	-12023
▁ట్రావెల్	-12024
▁బౌలర్లలో	-12025
▁మాదాపూర్	-12026
▁వ్యాఖ్యల	-12027
▁అత్యుత్తమ	-12028
▁అమెరికాకు	-12029
▁కేంద్రాలు	-12030
▁గచ్చిబౌలి	-12031
▁చేస్తుంటే	-12032
▁పోషించారు	-12033
▁విపరీతమైన	-12034
▁వేస్తోంది	-12035
▁సేకరించిన	-12036
▁తట్టుకోలేక	-12037
▁దీర్ఘకాలిక	-12038
▁క్రికెటర్లు	-12039
▁నిర్వహించడం	-12040
▁నెలకొన్నాయి	-12041
▁తీసుకున్నారని	-12042
▁తల్లిదండ్రులకు	-12043
نا	-12044
▁+	-12045
▁@	-12046
▁(7	-12047
జిబి	-12048
దించ	-12049
లెన్	-12050
హ్లా	-12051
▁12,	-12052
▁15,	-12053
▁చాన	-12054
▁లగ్	-12055
▁లోయ	-12056
శిక్ష	-12057
▁అకస్	-12058
▁అరాచ	-12059
▁ఓటరు	-12060
▁గుంట	-12061
▁జగ్గ	-12062
▁జోడీ	-12063
▁టాయి	-12064
▁టెన్	-12065
▁దిగజ	-12066
▁ద్రౌ	-12067
▁ద్వి	-12068
▁నవ్వ	-12069
▁బండ్	-12070
▁సిఎం	-12071
ంతరాలు	-12072
న్నిస్	-12073
రాలిగా	-12074
▁ందంటూ	-12075
▁చేపలు	-12076
▁థర్డ్	-12077
▁భవనాల	-12078
▁మధుసూ	-12079
▁రాక్ష	-12080
▁వానలు	-12081
▁సమాజ్	-12082
▁సాయుధ	-12083
▁అస్సాం	-12084
▁ఆర్గనై	-12085
▁కొట్టు	-12086
▁జగదీష్	-12087
▁తరలించ	-12088
▁తాగితే	-12089
▁దేవుడి	-12090
▁మందిలో	-12091
▁మోదీని	-12092
▁శివసేన	-12093
▁షాపులు	-12094
▁సంతాపం	-12095
▁హామీని	-12096
▁అనుమానా	-12097
▁జనసేనకు	-12098
▁నోట్లను	-12099
▁పోవడంతో	-12100
▁ఫైనల్స్	-12101
▁మృతదేహం	-12102
▁సంఖ్యను	-12103
కోవాల్సిన	-12104
▁కొద్దిగా	-12105
▁దృష్టిని	-12106
▁పీపుల్స్	-12107
▁బాధితుడు	-12108
▁బ్యాంకుల	-12109
▁వారానికి	-12110
▁వ్యూహాలు	-12111
▁సంతృప్తి	-12112
▁సెటైర్లు	-12113
▁హాలీవుడ్	-12114
▁పరీక్షలకు	-12115
▁పొందవచ్చు	-12116
▁ముస్లింలు	-12117
▁వేసుకున్న	-12118
▁జర్నలిస్టు	-12119
▁బ్యాంకింగ్	-12120
▁స్తామన్నారు	-12121
▁అంత్యక్రియలు	-12122
▁కార్యకర్తలను	-12123
▁వినియోగదారుల	-12124
▁కార్యక్రమాలకు	-12125
▁పరామర్శించారు	-12126
▁f	-12127
▁त	-12128
▁ಂ	-12129
మనే	-12130
▁In	-12131
▁ٹی	-12132
▁నల	-12133
గంగా	-12134
ఫేర్	-12135
▁140	-12136
▁కైవ	-12137
▁గంభ	-12138
▁చతు	-12139
▁చర్	-12140
▁నడక	-12141
▁మామ	-12142
చర్యం	-12143
టెంట్	-12144
▁ందరూ	-12145
▁అఫిడ	-12146
▁అవుత	-12147
▁చెవి	-12148
▁జైన్	-12149
▁తిని	-12150
▁బడ్డ	-12151
▁మచ్చ	-12152
▁వెంచ	-12153
▁శరద్	-12154
▁సప్ల	-12155
▁స్టూ	-12156
▁అన్నం	-12157
▁కరంగా	-12158
▁కలిసే	-12159
▁కుంది	-12160
▁చీకటి	-12161
▁పలికి	-12162
▁బోనస్	-12163
▁మహమ్మ	-12164
▁హైదరా	-12165
▁ుకుని	-12166
కోవడంతో	-12167
ఫికేషన్	-12168
▁అనూహ్య	-12169
▁క్రీజు	-12170
▁గాజాలో	-12171
▁గ్రేడ్	-12172
▁తగినంత	-12173
▁దంపతుల	-12174
▁దవాఖాన	-12175
▁దారుణం	-12176
▁పల్లవి	-12177
▁రెట్టి	-12178
▁రైలులో	-12179
▁సెల్ఫీ	-12180
▁హారిస్	-12181
▁ఆహ్వాని	-12182
▁ప్రక్షా	-12183
▁భూములకు	-12184
▁మర్చిపో	-12185
▁మల్కాజ్	-12186
▁వాస్తవం	-12187
▁శ్రీలీల	-12188
▁సర్వేలు	-12189
ుకుంటున్న	-12190
▁అగర్వాల్	-12191
▁అవమానించ	-12192
▁అవసరాలకు	-12193
▁ఉండవచ్చు	-12194
▁గ్రామస్థ	-12195
▁చూడాల్సి	-12196
▁జరగలేదని	-12197
▁వెల్ఫేర్	-12198
▁సురక్షిత	-12199
▁సేకరించి	-12200
▁అవకాశాలను	-12201
▁ఇచ్చిందని	-12202
▁పుస్తకాలు	-12203
▁శరీరంలోని	-12204
▁స్కూళ్లలో	-12205
పడుతున్నాయి	-12206
▁అందించింది	-12207
▁నామినేషన్ల	-12208
▁వ్యవహారంపై	-12209
▁చెయ్యడానికి	-12210
▁నియమించింది	-12211
▁ఎన్నికయ్యారు	-12212
▁పడుతున్నారని	-12213
▁సంవత్సరాలుగా	-12214
▁విమానాశ్రయంలో	-12215
వూ	-12216
କ୍ତ	-12217
▁के	-12218
ధిగా	-12219
లసిన	-12220
▁ఎర్	-12221
▁ఏక్	-12222
▁కమా	-12223
▁పిత	-12224
▁యూఏ	-12225
ుత్వం	-12226
▁గోధు	-12227
▁జితే	-12228
▁టైన్	-12229
▁డబ్బ	-12230
▁తేనె	-12231
▁బిర్	-12232
▁రుజు	-12233
▁రూపు	-12234
▁సిమ్	-12235
▁స్నా	-12236
▁స్లీ	-12237
▁ఏంటని	-12238
▁ఓడించ	-12239
▁కార్ల	-12240
▁కైవసం	-12241
▁డ్రగ్	-12242
▁పటాన్	-12243
▁పరస్ప	-12244
▁ర్యాం	-12245
▁విలేక	-12246
పేందుకు	-12247
▁ఆంధ్రా	-12248
▁కాన్సె	-12249
▁తుఫాన్	-12250
▁పదవిని	-12251
▁ప్రాణం	-12252
▁భార్యా	-12253
▁మారారు	-12254
▁మార్చే	-12255
▁వీరిని	-12256
▁సూసైడ్	-12257
▁హెల్ప్	-12258
▁అల్లూరి	-12259
▁ఇష్టమైన	-12260
▁ఎదురుగా	-12261
▁కుదుర్చ	-12262
▁చూపించి	-12263
▁జరగబోయే	-12264
▁దొరికిన	-12265
▁పట్టుదల	-12266
▁ఫోటోలను	-12267
▁ముమ్మరం	-12268
▁వార్నర్	-12269
▁హక్కులు	-12270
▁ఇస్తానని	-12271
▁ఉన్నానని	-12272
▁క్యాంపస్	-12273
▁చంద్రుని	-12274
▁చెరువులు	-12275
▁చేర్చారు	-12276
▁ట్విస్ట్	-12277
▁రక్తపోటు	-12278
▁రూపాయలను	-12279
▁లిస్టులో	-12280
ుకునేందుకు	-12281
▁నెటిజన్స్	-12282
▁పరిశోధనలు	-12283
▁కొనసాగింది	-12284
▁పెరుగుతుందని	-12285
▁ప్రాజెక్టులో	-12286
▁బంజారాహిల్స్	-12287
▁ఉపయోగపడుతుంది	-12288
▁తెలుసుకునేందుకు	-12289
చోట	-12290
టిక	-12291
▁an	-12292
▁ବି	-12293
కుల్	-12294
గ్రే	-12295
ప్రద	-12296
వంత్	-12297
ోహన్	-12298
▁నాద	-12299
▁సభా	-12300
గట్టు	-12301
▁Play	-12302
▁కిమ్	-12303
▁జోగు	-12304
▁తాలి	-12305
▁దేశ్	-12306
▁పానీ	-12307
▁ఫైన్	-12308
▁మిజో	-12309
▁రూల్	-12310
▁ల్లా	-12311
▁సరస్	-12312
▁ನಾವು	-12313
▁تصویر	-12314
▁కన్యా	-12315
▁కల్పన	-12316
▁గంగుల	-12317
▁చేరువ	-12318
▁జేఏసీ	-12319
▁ధరలను	-12320
▁బాల్క	-12321
▁బుల్ల	-12322
▁శాఖలో	-12323
▁స్థాప	-12324
న్నాయని	-12325
▁ఆశీర్వ	-12326
▁గ్యాప్	-12327
▁ట్లుగా	-12328
▁పక్కకు	-12329
▁విశాల్	-12330
▁నిర్మలా	-12331
▁ప్రజలతో	-12332
▁ఫొటోలను	-12333
▁అందుకోసం	-12334
▁ఆవిష్కరణ	-12335
▁కార్యాలయ	-12336
▁ట్రిపుల్	-12337
▁దంపతులకు	-12338
▁పరిగణించ	-12339
▁పోర్టులో	-12340
▁ముహూర్తం	-12341
▁రామారావు	-12342
▁సమయాల్లో	-12343
▁ఇన్వెస్టి	-12344
▁చెప్తున్న	-12345
▁నర్సాపూర్	-12346
▁పోస్టులను	-12347
▁శరీరాన్ని	-12348
▁సాధించాడు	-12349
▁పట్టుకున్న	-12350
▁వేధింపులకు	-12351
▁సెంటిమెంట్	-12352
▁అనుమానాస్పద	-12353
▁చేసేటప్పుడు	-12354
▁రాశులవారికి	-12355
▁సంభవించింది	-12356
▁గుర్తించింది	-12357
ಲಿ	-12358
▁ल	-12359
డిద	-12360
ప్త	-12361
ೊಂದ	-12362
గ్గి	-12363
ష్ఠా	-12364
సెన్	-12365
▁అవయ	-12366
▁ఔషధ	-12367
▁చాట	-12368
▁పీఠ	-12369
▁మేక	-12370
▁షకీ	-12371
గతంగా	-12372
త్యాల	-12373
▁ఇటలీ	-12374
▁ఎండ్	-12375
▁జోడో	-12376
▁తాళం	-12377
▁నోటు	-12378
▁మాది	-12379
▁వినూ	-12380
న్నపేట	-12381
బ్రిటీ	-12382
▁ఉగాది	-12383
▁గలుగు	-12384
▁జంటగా	-12385
▁ద్రౌప	-12386
▁నివ్వ	-12387
▁పనిని	-12388
▁పైసలు	-12389
▁రిషబ్	-12390
▁వారణా	-12391
▁విషయా	-12392
▁ించడం	-12393
లాండ్స్	-12394
▁అనుసరి	-12395
▁ఇటీవలి	-12396
▁ఉపసంహర	-12397
▁కేసుకు	-12398
▁డిపాజి	-12399
▁దగ్గర్	-12400
▁దుమ్ము	-12401
▁పిచ్చి	-12402
▁బుధుడు	-12403
▁ముర్ము	-12404
▁వెళితే	-12405
▁హార్మో	-12406
elangana	-12407
▁గాంధీకి	-12408
▁పురస్కర	-12409
▁ప్రసాదం	-12410
▁జరిగిందో	-12411
▁విధుల్లో	-12412
▁వినియోగి	-12413
▁స్వచ్ఛంద	-12414
▁హిందువుల	-12415
▁చేరేందుకు	-12416
▁తీసుకుంటూ	-12417
▁పర్యవేక్ష	-12418
▁పోలీసులతో	-12419
▁ప్రక్షాళన	-12420
▁వాడుతున్న	-12421
▁హిందువులు	-12422
▁కొనుగోళ్లు	-12423
▁ఫిర్యాదులో	-12424
▁వచ్చేసింది	-12425
▁విద్యుత్తు	-12426
▁ఏర్పడుతుంది	-12427
▁క్యూసెక్కుల	-12428
▁డాక్యుమెంట్	-12429
▁ప్రభావాన్ని	-12430
▁విశ్లేషకులు	-12431
▁గ్రాడ్యుయేట్	-12432
▁తగ్గిస్తుంది	-12433
▁నివసిస్తున్న	-12434
▁అచ్చెన్నాయుడు	-12435
▁నటిస్తున్నారు	-12436
ఐపీ	-12437
కరీ	-12438
ఖరు	-12439
గఢ్	-12440
మొద	-12441
▁تو	-12442
▁ఔట	-12443
▁దె	-12444
▁పృ	-12445
▁రన	-12446
ంటీల	-12447
గిలి	-12448
రక్ష	-12449
▁చల్	-12450
▁డీల	-12451
▁నదీ	-12452
▁పోచ	-12453
శిష్ట	-12454
ామన్న	-12455
ినేష్	-12456
▁అడ్ర	-12457
▁డీప్	-12458
▁తెలప	-12459
▁విభజ	-12460
▁సాంబ	-12461
▁స్టై	-12462
కుమారి	-12463
బుల్స్	-12464
▁ఆక్సి	-12465
▁గణేశ్	-12466
▁చెంది	-12467
▁తులసి	-12468
▁తొక్క	-12469
▁నదిలో	-12470
▁బ్లడ్	-12471
▁మెడల్	-12472
▁విస్మ	-12473
▁ుకునే	-12474
పీఎస్సీ	-12475
య్యాయని	-12476
వడానికి	-12477
▁అంచనాల	-12478
▁ఇష్టపడ	-12479
▁చేకూరు	-12480
▁చేస్తో	-12481
▁తిప్పు	-12482
▁తిరిగే	-12483
▁తీహార్	-12484
▁దుమారం	-12485
▁ప్యాక్	-12486
▁బాటిల్	-12487
▁యాసిడ్	-12488
▁విస్తర	-12489
▁హోరాహో	-12490
▁ఏరియాలో	-12491
▁నర్సింహ	-12492
▁యాత్రలో	-12493
▁గణనీయంగా	-12494
▁ప్రతిష్ఠ	-12495
▁మెడిసిన్	-12496
▁విధ్వంసం	-12497
▁నారాయణపేట	-12498
▁పురుషులకు	-12499
▁ప్రతిష్ఠా	-12500
▁రాజ్యసభలో	-12501
▁వాహనాన్ని	-12502
▁వెనుకబడిన	-12503
▁సాగుతున్న	-12504
▁వాలంటీర్లు	-12505
▁వాహనదారులు	-12506
▁వెళ్లకుండా	-12507
▁తరలిస్తున్న	-12508
▁న్యూఢిల్లీః	-12509
▁అందుకున్నారు	-12510
▁అగ్నిప్రమాదం	-12511
▁స్పందించింది	-12512
▁చెల్లించాల్సి	-12513
ఠీ	-12514
▁u	-12515
▁್	-12516
ల్బ	-12517
ేట్	-12518
▁91	-12519
▁କୁ	-12520
రిక్	-12521
హాల్	-12522
▁ఉభయ	-12523
▁కమ్	-12524
▁తేమ	-12525
▁పరే	-12526
▁శక్	-12527
▁ఆర్య	-12528
▁క్రో	-12529
▁చదివ	-12530
▁పర్చ	-12531
▁బీచ్	-12532
▁మీరే	-12533
▁శుభ్	-12534
▁సిన్	-12535
▁అగ్రి	-12536
▁తమ్ము	-12537
▁నెదర్	-12538
▁నేరగా	-12539
▁మరమ్మ	-12540
▁మసాలా	-12541
▁యువకు	-12542
▁సాగిన	-12543
▁సింహా	-12544
▁సీనియ	-12545
▁స్నేహ	-12546
▁ఆరెంజ్	-12547
▁ఓవర్లో	-12548
▁కొట్లా	-12549
▁పేర్ని	-12550
▁పోరాడు	-12551
▁భేటీలో	-12552
▁మహిళకు	-12553
▁మించిన	-12554
▁సుందర్	-12555
▁ఆలోచనలో	-12556
▁కట్టుది	-12557
▁కొలెస్ట	-12558
▁గురుకుల	-12559
▁డెంగ్యూ	-12560
▁నిరంజన్	-12561
▁రోజులకు	-12562
▁వహించిన	-12563
▁హైదరాబా	-12564
▁కొందరికి	-12565
▁చూడొచ్చు	-12566
▁జైస్వాల్	-12567
▁టీడీపీతో	-12568
▁నెలకొల్ప	-12569
▁పంచాయితీ	-12570
▁మహీంద్రా	-12571
▁మైదానంలో	-12572
▁మొట్టమొద	-12573
▁ర్యాలీలో	-12574
▁వెల్లువె	-12575
▁సంచలనంగా	-12576
▁స్టూడియో	-12577
▁అక్కడున్న	-12578
▁థియేటర్స్	-12579
▁అర్థరాత్రి	-12580
▁నిరుద్యోగుల	-12581
▁ప్రస్తావించ	-12582
▁కొలెస్ట్రాల్	-12583
▁భారతదేశంలోని	-12584
▁వ్యవహరించారు	-12585
▁కొనసాగుతుందని	-12586
▁తీసుకోవాల్సిన	-12587
▁విరుచుకుపడ్డారు	-12588
ମ୍	-12589
▁ಖ	-12590
wit	-12591
కృత	-12592
క్స	-12593
తార	-12594
దాడ	-12595
▁بی	-12596
▁ాక	-12597
క్వై	-12598
తుల్	-12599
లేట్	-12600
▁కోప	-12601
▁చైన	-12602
▁జాప	-12603
▁నాల	-12604
▁బీభ	-12605
▁మంగ	-12606
▁వామ	-12607
▁శిఖ	-12608
▁హిత	-12609
▁ాడా	-12610
గాలలో	-12611
లెంట్	-12612
శ్చిక	-12613
▁చ్చే	-12614
▁తమపై	-12615
▁దాల్	-12616
▁ఫేజ్	-12617
▁ముది	-12618
▁విలే	-12619
▁వృథా	-12620
▁సీడ్	-12621
▁స్లా	-12622
నాబాద్	-12623
శెట్టి	-12624
▁అసభ్య	-12625
▁కోదాడ	-12626
▁ప్రొట	-12627
▁సగటున	-12628
▁ించిన	-12629
ట్రికల్	-12630
▁ఉందన్న	-12631
▁తోందని	-12632
▁నిమజ్జ	-12633
▁బ్రిటీ	-12634
▁మిశ్రమ	-12635
▁మ్యాప్	-12636
▁రాజ్యం	-12637
కెప్టెన్	-12638
▁గన్నవరం	-12639
▁బ్రాంచ్	-12640
▁మేషరాశి	-12641
▁రాజయోగం	-12642
▁వృశ్చిక	-12643
▁వేగవంతం	-12644
▁అవుతారని	-12645
▁ఉల్లిపాయ	-12646
▁చేయాలన్న	-12647
▁నిమిషంలో	-12648
▁పెరుగుతు	-12649
▁సమావేశాల	-12650
▁ఎప్పుడైనా	-12651
▁న్నింటినీ	-12652
▁పిల్లల్ని	-12653
▁ప్రధానిగా	-12654
▁రిపబ్లిక్	-12655
▁విషయాల్లో	-12656
▁కాన్సెప్ట్	-12657
▁తెలియకుండా	-12658
▁కనిపించలేదు	-12659
▁రిజర్వేషన్ల	-12660
▁అకస్మాత్తుగా	-12661
▁ప్రసంగించారు	-12662
▁వ్యాఖ్యానించ	-12663
9)	-12664
ee	-12665
▁۔	-12666
పదే	-12667
మీద	-12668
ಷ್ಟ	-12669
▁دک	-12670
▁है	-12671
పక్క	-12672
షిగా	-12673
▁చౌర	-12674
▁బృహ	-12675
▁లెబ	-12676
ంగోలు	-12677
ంప్స్	-12678
నాయక్	-12679
▁ఎంజీ	-12680
▁తాలూ	-12681
▁ఫ్రి	-12682
▁సంకీ	-12683
▁సీతా	-12684
witter	-12685
క్వైరీ	-12686
ట్లాది	-12687
▁ఎట్టి	-12688
▁నిజమే	-12689
▁నుంచీ	-12690
▁బెంగు	-12691
▁లక్షా	-12692
▁సమ్మి	-12693
▁అందమైన	-12694
▁ఉందంటూ	-12695
▁ఒంగోలు	-12696
▁ఒకరికి	-12697
▁చైనాలో	-12698
▁పదేపదే	-12699
▁పిలిచే	-12700
▁ప్రైజ్	-12701
▁ఉంటానని	-12702
▁కాలుష్య	-12703
▁ఘర్షణలు	-12704
▁చౌరస్తా	-12705
▁తమిళిసై	-12706
▁తమ్ముడు	-12707
▁న్నాయని	-12708
▁పాల్పడి	-12709
▁భర్తీకి	-12710
▁రామమంది	-12711
▁అంచనాలను	-12712
▁అబద్ధాలు	-12713
▁ఎంక్వైరీ	-12714
▁ఎంపీటీసీ	-12715
▁ఎదురైంది	-12716
▁కాన్వాయ్	-12717
▁కోట్లాది	-12718
▁దళితబంధు	-12719
▁ప్రవర్తి	-12720
▁ప్రీమియం	-12721
▁విషయాలపై	-12722
▁సుదర్శన్	-12723
▁కొనసాగించ	-12724
▁నివాళులర్	-12725
▁ప్రజాపాలన	-12726
▁యూనివర్శి	-12727
▁విజయానికి	-12728
▁స్టార్టప్	-12729
▁మహాలక్ష్మి	-12730
▁గెలుచుకుంది	-12731
▁దశాబ్దాలుగా	-12732
▁నామినేషన్లు	-12733
▁సహకరించాలని	-12734
▁చేరుకుంటుంది	-12735
▁పెరుగుతున్నాయి	-12736
నక	-12737
తిన	-12738
బలి	-12739
రణి	-12740
ంపజే	-12741
నాటి	-12742
రప్ప	-12743
▁అలి	-12744
▁ఈజీ	-12745
▁జాగ	-12746
▁మలి	-12747
▁మాడ	-12748
ండ్రీ	-12749
కుంటూ	-12750
ధులకు	-12751
ర్మిన	-12752
▁کرتے	-12753
▁జెట్	-12754
▁దశకు	-12755
▁ధరకు	-12756
▁నిశ్	-12757
▁పుంగ	-12758
▁పునా	-12759
▁ఫెస్	-12760
▁బీరు	-12761
▁యంలో	-12762
▁లోగో	-12763
▁విజు	-12764
▁షాకి	-12765
▁میڈیا	-12766
▁ఇన్నా	-12767
▁కట్టే	-12768
▁కదులు	-12769
▁కరువు	-12770
▁కెమిక	-12771
▁క్రమం	-12772
▁చేపడు	-12773
▁తరుగు	-12774
▁నియంత	-12775
▁పెళ్ల	-12776
▁వ్యయం	-12777
్రాన్ని	-12778
▁ఆటగాడు	-12779
▁ఇతరులు	-12780
▁ఎవరిని	-12781
▁చౌహాన్	-12782
▁దేశంగా	-12783
▁నచ్చిన	-12784
▁బడింది	-12785
▁బెల్ట్	-12786
▁మూవీని	-12787
▁రికవరీ	-12788
▁సరదాగా	-12789
▁అందించి	-12790
▁తరలించి	-12791
▁తీసింది	-12792
▁ద్రవ్యో	-12793
▁పాత్రను	-12794
▁ప్రసంగి	-12795
▁భద్రతను	-12796
▁మరికొంత	-12797
▁వెర్షన్	-12798
▁అనుకుంటే	-12799
▁ఆదేశాలతో	-12800
▁కేశినేని	-12801
▁వీధుల్లో	-12802
▁శుక్రుడు	-12803
▁హోరాహోరీ	-12804
▁నష్టానికి	-12805
▁వ్యవస్థలో	-12806
▁శ్రేయస్సు	-12807
▁సమాచారంతో	-12808
▁కాంబినేషన్	-12809
▁స్వీకరించిన	-12810
▁నెదర్లాండ్స్	-12811
▁ప్రాజెక్టుకు	-12812
▁పొందుతున్నారు	-12813
ఫు	-12814
್ಯಾ	-12815
▁96	-12816
▁యె	-12817
ନ୍ତି	-12818
క్షే	-12819
జెస్	-12820
నెల్	-12821
యమైన	-12822
లెస్	-12823
వాహక	-12824
సుగు	-12825
▁చదవ	-12826
▁చూశ	-12827
▁సస్	-12828
మర్రి	-12829
ముద్ర	-12830
▁ఆల్క	-12831
▁గాని	-12832
▁పూరి	-12833
▁పోలి	-12834
▁వడ్ల	-12835
▁వైన్	-12836
▁హైస్	-12837
▁ించి	-12838
▁ేనని	-12839
పురుష్	-12840
ల్లులు	-12841
సిడెన్	-12842
▁అంతటా	-12843
▁ఉందనే	-12844
▁నడిపి	-12845
▁నారాయ	-12846
▁భౌతిక	-12847
▁మనీలా	-12848
▁రకంగా	-12849
▁సాహిత	-12850
▁స్టర్	-12851
ెండింగ్	-12852
▁అవసరాల	-12853
▁కిటికీ	-12854
▁చేర్చు	-12855
▁మనుషుల	-12856
▁వెళ్ళి	-12857
▁స్టైల్	-12858
▁హైడ్రో	-12859
▁కూటమిలో	-12860
▁తల్లికి	-12861
▁ఫ్రెంచ్	-12862
▁మత్తులో	-12863
▁రేటింగ్	-12864
▁లోతట్టు	-12865
▁అక్రమాలు	-12866
▁ఎక్కడైనా	-12867
▁పాఠశాలలు	-12868
▁పొందింది	-12869
▁పొత్తులో	-12870
▁ఫ్యాక్ట్	-12871
▁రామగుండం	-12872
▁ిస్తున్న	-12873
▁ఉపయోగించు	-12874
▁కన్వెన్షన్	-12875
▁నాయకత్వంలో	-12876
▁బ్యాలెన్స్	-12877
▁మచిలీపట్నం	-12878
▁రజినీకాంత్	-12879
▁యూనివర్శిటీ	-12880
▁వెళ్లడానికి	-12881
▁హాస్పిటల్స్	-12882
▁కనిపించకుండా	-12883
▁చెప్పుకొచ్చాడు	-12884
اہ	-12885
ಡ್	-12886
ಪ್	-12887
దాం	-12888
▁ఆచ	-12889
బద్ద	-12890
వాయి	-12891
▁160	-12892
▁అమీ	-12893
▁అలస	-12894
▁ఊరి	-12895
▁ఓయూ	-12896
▁పగల	-12897
▁పతా	-12898
ంటిలో	-12899
మానిక	-12900
▁ఖానా	-12901
▁గీతా	-12902
▁బురద	-12903
▁సీజే	-12904
డానికే	-12905
▁అవస్థ	-12906
▁ఆమెపై	-12907
▁ద్వార	-12908
▁భరించ	-12909
▁రావాల	-12910
▁అప్పుడ	-12911
▁ఆర్బీఐ	-12912
▁నిర్ది	-12913
▁నేతలపై	-12914
▁పొదుపు	-12915
▁ప్రిలి	-12916
▁మరొకటి	-12917
▁ముఖేష్	-12918
▁రిటైల్	-12919
▁అతిథిగా	-12920
▁కొడంగల్	-12921
▁తల్లిని	-12922
▁దిగుమతి	-12923
▁నక్షత్ర	-12924
▁నాగరాజు	-12925
▁ప్రసన్న	-12926
▁బోర్డర్	-12927
▁రంగనాథ్	-12928
▁వైమానిక	-12929
▁ించింది	-12930
▁ఆస్తులను	-12931
▁ఎక్కడికి	-12932
▁కుంభకోణం	-12933
▁తగ్గించి	-12934
▁ప్యాకెట్	-12935
▁ప్రకారమే	-12936
▁ప్రొడ్యూ	-12937
▁విధానాలు	-12938
▁సరికాదని	-12939
▁సిద్ధాంత	-12940
▁సెన్సార్	-12941
▁అందుకుంది	-12942
▁కావడానికి	-12943
▁పేరెంట్స్	-12944
▁బయటపడింది	-12945
▁రాబోతున్న	-12946
▁తీసుకెళ్లే	-12947
▁ద్రవ్యోల్బ	-12948
▁నడుపుతున్న	-12949
▁పెరిగిందని	-12950
▁సిబ్బందితో	-12951
▁మారుతున్నాయి	-12952
▁దక్కించుకున్న	-12953
ేష	-12954
-23	-12955
.75	-12956
గార	-12957
డీఏ	-12958
▁87	-12959
▁بھ	-12960
▁వం	-12961
▁ಕೆ	-12962
బిన్	-12963
హాగా	-12964
▁ఆషా	-12965
▁నలు	-12966
▁పదు	-12967
▁సున	-12968
▁ాలో	-12969
నుంచి	-12970
▁2010	-12971
▁ఉంటా	-12972
▁ఓనర్	-12973
▁తుర్	-12974
▁నాతో	-12975
▁నీకు	-12976
▁మిధు	-12977
▁షోలో	-12978
కాల్లో	-12979
▁చ్చిన	-12980
▁ವನ್ನು	-12981
▁కృత్రి	-12982
▁గుడ్డు	-12983
▁తెచ్చు	-12984
▁తెరిచి	-12985
▁తెలియక	-12986
▁దిక్కు	-12987
▁నోట్లు	-12988
▁పోటీలు	-12989
▁ప్రకంప	-12990
▁ప్రవహి	-12991
▁బాలాజీ	-12992
▁భూగర్భ	-12993
▁మూవీకి	-12994
▁యువగళం	-12995
త్వానికి	-12996
▁అసాధారణ	-12997
▁కన్నీరు	-12998
▁కారణమైన	-12999
▁కుక్కలు	-13000
▁కేసులను	-13001
▁దుష్ప్ర	-13002
▁నిర్ణయి	-13003
▁పాపులర్	-13004
▁బకాయిలు	-13005
▁స్థానాల	-13006
▁దక్కలేదు	-13007
▁దీనికోసం	-13008
▁ద్వారానే	-13009
▁ఫ్లిక్స్	-13010
▁అనూహ్యంగా	-13011
▁కురిసింది	-13012
▁తెచ్చింది	-13013
▁నిబంధనలకు	-13014
▁ప్రజావాణి	-13015
▁బెదిరింపు	-13016
▁రామ్మోహన్	-13017
▁క్యాలెండర్	-13018
▁ఎల్లారెడ్డి	-13019
▁దర్యాప్తులో	-13020
▁స్తున్నట్లు	-13021
▁తీసుకున్నాడు	-13022
▁లబ్ధిదారులకు	-13023
▁కుటుంబసభ్యులు	-13024
▁నిర్లక్ష్యంగా	-13025
ನಾ	-13026
.35	-13027
PSC	-13028
వతీ	-13029
▁ନି	-13030
▁ಗೆ	-13031
▁ఏయే	-13032
▁గరు	-13033
▁చెమ	-13034
▁రాల	-13035
▁శాత	-13036
స్మస్	-13037
ాయంగా	-13038
▁1000	-13039
▁2006	-13040
▁ఐఐటీ	-13041
▁గోవి	-13042
▁దాచి	-13043
▁నాలా	-13044
▁బందీ	-13045
▁హుటా	-13046
తాల్లో	-13047
బెట్టి	-13048
లిస్ట్	-13049
▁2024:	-13050
▁ంటారు	-13051
▁ఆరోజు	-13052
▁ఇస్తు	-13053
▁గుంపు	-13054
▁దిగ్భ	-13055
▁పండ్ల	-13056
▁పర్వత	-13057
▁సంధ్య	-13058
▁సింది	-13059
సరెడ్డి	-13060
▁ఇండిపె	-13061
▁ఉంటాడు	-13062
▁ఓట్లను	-13063
▁చేశారో	-13064
▁దీనితో	-13065
▁నగదును	-13066
▁పట్టిన	-13067
▁ముందంజ	-13068
▁లగ్జరీ	-13069
▁విధించ	-13070
▁సమకూర్	-13071
▁స్నేహం	-13072
▁హీరోయి	-13073
▁హోదాలో	-13074
▁అందరికి	-13075
▁అదుపులో	-13076
▁అనుబంధం	-13077
▁ఆర్ట్స్	-13078
▁కానుకగా	-13079
▁కుట్రలు	-13080
▁దర్శనమి	-13081
▁దిగ్గజం	-13082
▁రాష్ర్ట	-13083
▁రెజ్లర్	-13084
▁అఫిడవిట్	-13085
▁ఎంపీడీవో	-13086
▁నాయకులతో	-13087
▁పుంగనూరు	-13088
▁మార్గాలు	-13089
▁రాత్రికి	-13090
▁వర్గీకరణ	-13091
▁వస్తారని	-13092
▁వృద్ధులు	-13093
▁శ్రీరాము	-13094
▁సక్రమంగా	-13095
▁సూర్యుడి	-13096
▁స్కూల్స్	-13097
▁స్తుండగా	-13098
▁అనుకూలమైన	-13099
▁ఉండాల్సిన	-13100
▁సంప్రదించ	-13101
▁సంస్థల్లో	-13102
▁పరీక్షల్లో	-13103
▁పిఠాపురంలో	-13104
▁రికార్డ్స్	-13105
▁హుస్నాబాద్	-13106
▁అభిప్రాయాలను	-13107
▁పాల్పడుతున్న	-13108
▁ప్రేక్షకులకు	-13109
▁స్పందించలేదు	-13110
▁రాజ్యాంగాన్ని	-13111
▁లక్ష్మీనారాయణ	-13112
▁శ్రీనివాసరెడ్డి	-13113
ఆగ	-13114
పల	-13115
▁व	-13116
జాత	-13117
ొండ	-13118
▁ನಿ	-13119
ంగుల	-13120
పత్ర	-13121
మిన్	-13122
వాసన	-13123
ెక్క	-13124
▁370	-13125
▁జలా	-13126
▁రాత	-13127
▁లలి	-13128
▁సైబ	-13129
▁ాయో	-13130
ంక్స్	-13131
టివల్	-13132
శక్తి	-13133
్యారీ	-13134
▁కృతి	-13135
▁టెట్	-13136
▁ఫైట్	-13137
▁రామా	-13138
▁లాంఛ	-13139
▁షూట్	-13140
▁షెల్	-13141
గ్రహణం	-13142
జిగిరి	-13143
మీటర్ల	-13144
శ్వర్య	-13145
▁పుచ్చ	-13146
▁పొంది	-13147
▁సనాతన	-13148
▁ొద్దు	-13149
డాల్సిన	-13150
▁అంతేగా	-13151
▁అడ్రస్	-13152
▁డీసీఎం	-13153
▁పెంచడం	-13154
▁బచ్చన్	-13155
▁భూమికి	-13156
▁మిల్లీ	-13157
▁రిపోర్	-13158
▁రోజంతా	-13159
▁ల్యాప్	-13160
▁వెలికి	-13161
▁వేలంలో	-13162
వుతుందని	-13163
▁ఆయుధాలు	-13164
▁ఖమ్మంలో	-13165
▁చేయించి	-13166
▁దశాబ్ది	-13167
▁పడగొట్ట	-13168
▁అలాంటిది	-13169
▁ఉండేవారు	-13170
▁ఒరిజినల్	-13171
▁చంద్రుడు	-13172
▁పరుగులతో	-13173
▁ానన్నారు	-13174
▁కుటుంబంతో	-13175
▁ప్రదేశంలో	-13176
▁యూరోపియన్	-13177
▁లభిస్తాయి	-13178
▁ప్యాసింజర్	-13179
▁మాట్లాడితే	-13180
▁మాదిరిగానే	-13181
▁మార్గాల్లో	-13182
▁వెళ్లాల్సి	-13183
▁చంద్రబాబుతో	-13184
▁పెట్టుకుంది	-13185
▁ఫైనాన్షియల్	-13186
▁స్టూడెంట్లు	-13187
ించుకుంటున్నారు	-13188
ାଲ	-13189
గౌడ	-13190
నటు	-13191
నరీ	-13192
షర్	-13193
▁ar	-13194
▁on	-13195
▁का	-13196
బెల్	-13197
వెన్	-13198
▁అలు	-13199
▁తగల	-13200
▁బతక	-13201
▁ల్ల	-13202
▁వైభ	-13203
▁ఆపరే	-13204
▁కుడు	-13205
▁కౌన్	-13206
▁క్లై	-13207
▁చాక్	-13208
▁జిమ్	-13209
▁తెరు	-13210
▁నంటూ	-13211
▁పీల్	-13212
▁బ్రె	-13213
▁మెకా	-13214
▁లెస్	-13215
▁వాసన	-13216
▁ైంది	-13217
పెట్టే	-13218
▁అద్దం	-13219
▁ఆస్వా	-13220
▁కావ్య	-13221
▁గుండా	-13222
▁పాలిత	-13223
▁పోల్చ	-13224
▁బన్నీ	-13225
▁మర్రి	-13226
▁విప్ల	-13227
▁సూరత్	-13228
లక్ష్మీ	-13229
▁అయ్యాక	-13230
▁ఆరోపణల	-13231
▁ఒకవైపు	-13232
▁కాల్పు	-13233
▁గిన్నె	-13234
▁చేశాను	-13235
▁ఛార్జి	-13236
▁టైమ్స్	-13237
▁తుండగా	-13238
▁పాట్నా	-13239
▁రాజేశ్	-13240
▁సిక్కు	-13241
▁హత్యలు	-13242
▁ుకుంటూ	-13243
▁ొద్దని	-13244
▁ఆటగాళ్ల	-13245
▁ఇరుక్కు	-13246
▁ట్లయితే	-13247
▁రాయల్స్	-13248
▁లెబనాన్	-13249
▁విస్తరి	-13250
▁ఆగస్టులో	-13251
▁కున్నారు	-13252
▁ఛార్జీలు	-13253
▁టెస్టులు	-13254
▁దురదృష్ట	-13255
▁ఫార్మాట్	-13256
▁వస్తువుల	-13257
▁అదిరిపోయే	-13258
▁అమ్మాయిలు	-13259
▁కోరుతున్న	-13260
▁చూడటానికి	-13261
▁ఫెస్టివల్	-13262
▁బాధితులను	-13263
▁బెంగుళూరు	-13264
▁విత్తనాలు	-13265
▁విషయంలోనూ	-13266
▁స్వీకరించ	-13267
▁చిన్నారులు	-13268
▁నటిస్తోంది	-13269
▁పదార్థాలను	-13270
▁ప్రయత్నంలో	-13271
▁రానున్నారు	-13272
▁వ్యాపారంలో	-13273
▁మల్కాజిగిరి	-13274
▁రాజేంద్రనగర్	-13275
▁ప్రాంతాల్లోని	-13276
▁కురుస్తున్నాయి	-13277
▁వ్యవహరిస్తున్న	-13278
aw	-13279
یر	-13280
ଷ୍	-13281
ಂಚ	-13282
నాం	-13283
రాజ	-13284
లాడ	-13285
ಾರ್	-13286
▁92	-13287
▁ఏవ	-13288
▁హత	-13289
క్సీ	-13290
చరియ	-13291
టాని	-13292
ತ್ತಿ	-13293
▁144	-13294
▁18,	-13295
▁25,	-13296
▁ఆచూ	-13297
▁త్య	-13298
▁మనే	-13299
▁ండగా	-13300
▁ఆఖరి	-13301
▁కైనా	-13302
▁తుంగ	-13303
▁దాటు	-13304
▁పేజీ	-13305
▁యాడ్	-13306
▁యూఏఈ	-13307
▁రిపీ	-13308
▁లియో	-13309
▁లెక్	-13310
▁వర్త	-13311
▁స్కే	-13312
▁హృదయ	-13313
▁ನ್ನು	-13314
సేనాని	-13315
ెత్తున	-13316
▁2024,	-13317
▁ఇప్పు	-13318
▁ఈజీగా	-13319
▁ఉనికి	-13320
▁నాలుగ	-13321
▁పప్పు	-13322
▁అవన్నీ	-13323
▁ఏండ్లు	-13324
▁ఏర్పాట	-13325
▁కన్సల్	-13326
▁జాప్యం	-13327
▁తప్పదు	-13328
▁నిరంతర	-13329
▁ప్రైమ్	-13330
▁బద్దలు	-13331
▁రామయ్య	-13332
▁రిటైర్	-13333
▁శైలిలో	-13334
▁సంఘటనా	-13335
▁హాజరవు	-13336
▁అయిందని	-13337
▁కార్బన్	-13338
▁దేవాలయం	-13339
▁ద్రౌపది	-13340
▁నప్పుడు	-13341
▁నెలాఖరు	-13342
▁నైవేద్య	-13343
▁పుస్తకం	-13344
▁మారడంతో	-13345
▁విద్యను	-13346
▁కొండచరియ	-13347
▁జనసేనాని	-13348
▁పరిష్కరి	-13349
▁బుల్లెట్	-13350
▁మొహమ్మద్	-13351
▁స్టార్స్	-13352
▁స్థిరంగా	-13353
▁అందించాడు	-13354
▁ఉత్తీర్ణత	-13355
▁పరిశీలించ	-13356
▁పవిత్రమైన	-13357
▁పూర్తయ్యే	-13358
▁పోస్టులకు	-13359
▁సభ్యుడిగా	-13360
సిడెన్షియల్	-13361
▁ఉగ్రవాదులు	-13362
▁తీసుకున్నా	-13363
▁బాధితురాలు	-13364
▁మెజారిటీతో	-13365
▁మొట్టమొదటి	-13366
▁చేసుకుంటారు	-13367
▁సూర్యకుమార్	-13368
▁చేసినప్పటికీ	-13369
▁తమిళనాడులోని	-13370
▁కోరుకుంటున్నారు	-13371
ఖని	-13372
థన్	-13373
▁82	-13374
▁94	-13375
▁లం	-13376
క్రా	-13377
మోజీ	-13378
▁125	-13379
▁pic	-13380
▁జల్	-13381
▁తరం	-13382
▁నాన	-13383
▁పెర	-13384
▁భీం	-13385
▁సవర	-13386
ଛନ୍ତି	-13387
పరంగా	-13388
సరికి	-13389
ారాయన	-13390
▁అంపై	-13391
▁కొలి	-13392
▁గ్రో	-13393
▁చైన్	-13394
▁జెడ్	-13395
▁జెన్	-13396
▁జోగి	-13397
▁జోషి	-13398
▁దహనం	-13399
▁పంటల	-13400
▁పూరీ	-13401
▁బావి	-13402
▁బెన్	-13403
▁బ్రూ	-13404
▁మేధా	-13405
▁య్యా	-13406
▁య్యే	-13407
▁వాన్	-13408
భిషేకం	-13409
వాల్లో	-13410
▁క్షిప	-13411
▁ఛాలెం	-13412
▁తరుణ్	-13413
▁దత్తత	-13414
▁నగరాల	-13415
▁మహాత్	-13416
▁మొండి	-13417
▁మోర్చ	-13418
▁వేతనం	-13419
▁సహకరి	-13420
కరించడం	-13421
య్యింది	-13422
సుకున్న	-13423
▁క్లోజ్	-13424
▁గార్డ్	-13425
▁డాన్స్	-13426
▁డెయిరీ	-13427
▁నిండిన	-13428
▁బంధువు	-13429
▁బ్యాట్	-13430
▁రావాలి	-13431
▁ల్లోనూ	-13432
▁వాటితో	-13433
▁హుటాహు	-13434
▁ుతుంది	-13435
▁ఉపరితలం	-13436
▁త్రిపాఠ	-13437
▁నారాయణ్	-13438
▁నిలకడగా	-13439
▁ఫోన్లను	-13440
▁వుతున్న	-13441
▁స్టేటస్	-13442
▁స్థలాలు	-13443
▁ఐదేళ్లలో	-13444
▁కొంతకాలం	-13445
▁గైక్వాడ్	-13446
▁తొలగింపు	-13447
▁ప్రమాదకర	-13448
▁మవుతుంది	-13449
▁మహమ్మారి	-13450
▁అందుతున్న	-13451
▁కలుగుతాయి	-13452
▁పాలయ్యారు	-13453
▁పుస్తకంలో	-13454
▁చెందుతున్న	-13455
▁తెలియాల్సి	-13456
▁పొందేందుకు	-13457
▁భువనేశ్వర్	-13458
▁చంద్రబాబుపై	-13459
▁తాత్కాలికంగా	-13460
▁నిలిచిపోయాయి	-13461
▁మనీలాండరింగ్	-13462
▁కల్పించేందుకు	-13463
وگ	-13464
ہا	-13465
ರೆ	-13466
dia	-13467
గలు	-13468
మలత	-13469
మేం	-13470
స్స	-13471
ేల్	-13472
▁).	-13473
▁AP	-13474
▁ଏକ	-13475
▁ସେ	-13476
▁తం	-13477
▁ుడ	-13478
▁ಸಿ	-13479
శోర్	-13480
▁20,	-13481
▁21,	-13482
▁جار	-13483
▁గోప	-13484
▁నవం	-13485
▁మజ్	-13486
▁రత్	-13487
▁వీట	-13488
▁సోక	-13489
▁ుతూ	-13490
దులను	-13491
▁-202	-13492
▁ఒకటో	-13493
▁కాశీ	-13494
▁తాకి	-13495
▁దిగే	-13496
▁పీటీ	-13497
▁బిజీ	-13498
▁రసాయ	-13499
▁సజీవ	-13500
▁సేఫ్	-13501
▁హౌజ్	-13502
గొట్టే	-13503
సిస్తూ	-13504
▁ఆమెతో	-13505
▁కల్కి	-13506
▁నటించ	-13507
▁పాలనా	-13508
▁పేదలు	-13509
▁లొంగి	-13510
▁హర్షం	-13511
▁ుడిని	-13512
twitter	-13513
వర్గంలో	-13514
▁ఉంటేనే	-13515
▁ఓడించి	-13516
▁కంటోన్	-13517
▁చక్కగా	-13518
▁ట్రయల్	-13519
▁ధాటికి	-13520
▁మెన్స్	-13521
▁లీడర్ల	-13522
▁లోన్లు	-13523
▁విడతలో	-13524
▁సంక్షే	-13525
▁ుతున్న	-13526
▁ఆడపిల్ల	-13527
▁ఐశ్వర్య	-13528
▁కడుపులో	-13529
▁క్యాంటీ	-13530
▁పథకాలకు	-13531
▁పరిమితి	-13532
▁పోయాయని	-13533
▁మహిళలపై	-13534
▁వస్తారు	-13535
▁వారణాసి	-13536
▁శివరాజ్	-13537
▁సంతకాలు	-13538
▁సమానంగా	-13539
లేదన్నారు	-13540
ుకున్నాడు	-13541
▁ఆదేశాలను	-13542
▁డొనాల్డ్	-13543
▁తగ్గింపు	-13544
▁పిటిషనర్	-13545
▁యాక్సెస్	-13546
▁వాపోయారు	-13547
▁విజయాలను	-13548
▁ఆదాయాన్ని	-13549
▁ఆదిపురుష్	-13550
▁క్రిస్మస్	-13551
▁నిర్ణయించ	-13552
▁ప్రాణాలను	-13553
▁వాదించారు	-13554
▁తెరకెక్కిన	-13555
▁థియేటర్లలో	-13556
▁సమర్పించిన	-13557
▁సేకరించారు	-13558
పడుతున్నారని	-13559
▁పాల్పడ్డారు	-13560
▁వినిపించారు	-13561
▁కార్యదర్శిగా	-13562
▁వస్తున్నాయని	-13563
▁మల్లికార్జున్	-13564
▁ఇన్వెస్టిగేషన్	-13565
tt	-13566
ିତ	-13567
ంతల	-13568
ನ್ನ	-13569
▁مو	-13570
▁ହେ	-13571
ంటన్	-13572
నీర్	-13573
షీర్	-13574
సురు	-13575
ొన్న	-13576
▁ంటి	-13577
▁ంటు	-13578
▁ఊర్	-13579
▁ఎడ్	-13580
▁మోడ	-13581
▁విర	-13582
ధికార	-13583
సేకరణ	-13584
▁کرنے	-13585
▁అష్ట	-13586
▁ఉదయా	-13587
▁కొను	-13588
▁జీఎం	-13589
▁తలపడ	-13590
▁పుడు	-13591
▁ఫ్రూ	-13592
▁మోర్	-13593
▁రాగి	-13594
▁లాస్	-13595
▁లేవన	-13596
▁వైరా	-13597
▁సయ్య	-13598
▁ాలతో	-13599
ంటేషన్	-13600
▁అడిగా	-13601
▁అమీర్	-13602
▁అల్లా	-13603
▁ఎదుగు	-13604
▁ఓల్డ్	-13605
▁కాళ్ల	-13606
▁దేశీయ	-13607
▁బదులి	-13608
▁బీభత్	-13609
▁బోయిన	-13610
▁మిధున	-13611
▁రాదని	-13612
▁వీఆర్	-13613
▁సతీశ్	-13614
భిప్రాయ	-13615
▁కోనసీమ	-13616
▁ఖాయంగా	-13617
▁గ్రేట్	-13618
▁చేసేది	-13619
▁నవంబరు	-13620
▁ప్రేమ్	-13621
▁రామోజీ	-13622
▁విషయాల	-13623
▁శ్యామ్	-13624
▁సెటిల్	-13625
▁అమ్ముడు	-13626
▁అలెర్ట్	-13627
▁తరలింపు	-13628
▁త్రిపుర	-13629
▁పర్యావర	-13630
▁భూసేకరణ	-13631
▁ముక్కలు	-13632
▁రిలీజైన	-13633
▁విపత్తు	-13634
▁వేతనాలు	-13635
▁వైద్యుల	-13636
▁సమన్వయం	-13637
▁స్తోన్న	-13638
▁ఇచ్చామని	-13639
▁ఇప్పటికి	-13640
▁కల్పించే	-13641
▁కాపాడుకు	-13642
▁చేయకపోతే	-13643
▁నిజాయితీ	-13644
▁పదేళ్లలో	-13645
▁మ్యాజిక్	-13646
▁శ్రీరామ్	-13647
▁సినిమాని	-13648
▁సెంటర్లు	-13649
▁హక్కులను	-13650
▁ఒక్కోసారి	-13651
▁కోరినట్లు	-13652
▁పట్టుకొని	-13653
▁లబ్ధిదారుల	-13654
▁కార్పొరేటర్	-13655
▁ఢీకొట్టింది	-13656
▁యాదగిరిగుట్ట	-13657
▁శ్రీనివాసులు	-13658
▁సంప్రదింపులు	-13659
ya	-13660
జయ	-13661
▁ଫ	-13662
ళాల	-13663
▁PM	-13664
ିଡିଓ	-13665
కర్త	-13666
నిఫే	-13667
బీవీ	-13668
లేష్	-13669
▁119	-13670
▁में	-13671
▁అహం	-13672
▁పృథ	-13673
▁బాద	-13674
▁వెల	-13675
రాలను	-13676
స్పతి	-13677
▁అతిథ	-13678
▁కలలు	-13679
▁కాచి	-13680
▁కిరా	-13681
▁కేక్	-13682
▁గోపీ	-13683
▁పెయి	-13684
▁యాభై	-13685
▁ిద్ద	-13686
పానికి	-13687
▁Chand	-13688
▁ଭିଡିଓ	-13689
▁ఎలాన్	-13690
▁జరగబో	-13691
▁తిలక్	-13692
▁త్రిష	-13693
▁రషీద్	-13694
▁వ్రతం	-13695
▁సెంటీ	-13696
▁హాస్ట	-13697
ందించిన	-13698
స్టేషన్	-13699
▁తినాలి	-13700
▁దేశాయ్	-13701
▁పౌరులు	-13702
▁మధ్యతర	-13703
▁రాకపోక	-13704
▁రీల్స్	-13705
▁శాంసన్	-13706
▁హేమంత్	-13707
▁అడ్మిని	-13708
▁ఇతరులకు	-13709
▁జరిగేలా	-13710
▁ట్రక్కు	-13711
▁ప్రవేశం	-13712
▁బసవరాజ్	-13713
▁రిలేషన్	-13714
▁లాభాలను	-13715
▁సీట్లకు	-13716
▁ఆక్సిజన్	-13717
▁కాలేజీలు	-13718
▁పదార్థాల	-13719
▁నెమ్మదిగా	-13720
▁వేధింపులు	-13721
▁వ్యక్తిగా	-13722
▁సైబరాబాద్	-13723
▁తెలుసుకుని	-13724
▁పోగొట్టుకు	-13725
▁సమావేశాలకు	-13726
▁కంటోన్మెంట్	-13727
▁ప్రచురించిన	-13728
▁యాక్సిడెంట్	-13729
▁వినియోగించు	-13730
▁ఎమ్మెల్యేలకు	-13731
▁ఆవిష్కరించారు	-13732
▁తీసుకోవడానికి	-13733
نی	-13734
କୁ	-13735
కడ్	-13736
పరే	-13737
స్ర	-13738
ణికి	-13739
ణ్యం	-13740
పాయం	-13741
పుర్	-13742
సలాట	-13743
▁16,	-13744
▁ఈక్	-13745
▁కరా	-13746
▁తృణ	-13747
▁పీఏ	-13748
▁మరా	-13749
▁వయో	-13750
క్ష్మ	-13751
పరిచే	-13752
విక్ర	-13753
▁1999	-13754
▁కమలం	-13755
▁కేపీ	-13756
▁గరుడ	-13757
▁జీరో	-13758
▁నాసా	-13759
▁నీల్	-13760
▁రతన్	-13761
▁రానా	-13762
▁రోబో	-13763
▁వసంత	-13764
▁వానా	-13765
▁వీవీ	-13766
▁వెజ్	-13767
▁శబరి	-13768
▁సీబీ	-13769
▁హీట్	-13770
▁ించే	-13771
విడిగా	-13772
▁కుమ్మ	-13773
▁క్షీణ	-13774
▁చేరడం	-13775
▁ఛానల్	-13776
▁ధోరణి	-13777
▁నొక్క	-13778
▁భయపడి	-13779
▁మద్యా	-13780
▁మద్రా	-13781
▁మీటర్	-13782
▁రోగని	-13783
▁వీళ్ల	-13784
▁సస్పె	-13785
▁స్నాన	-13786
న్నింగ్	-13787
▁కోవాలి	-13788
▁దాఖలైన	-13789
▁దాడిని	-13790
▁పిల్లి	-13791
▁బాధపడే	-13792
▁మంచినీ	-13793
▁మెయింట	-13794
▁యశస్వి	-13795
▁యాప్స్	-13796
▁సీఎంకు	-13797
▁స్మృతి	-13798
నిఫేస్టో	-13799
▁ఉత్సవాల	-13800
▁ఎగ్జిబి	-13801
▁కార్డుల	-13802
▁గాంధీని	-13803
▁చత్తీస్	-13804
▁ధరించిన	-13805
▁పడతాయని	-13806
▁మహాత్మా	-13807
▁ఒలింపిక్	-13808
▁ఓపెనింగ్	-13809
▁కలగకుండా	-13810
▁కోదండరాం	-13811
▁చెప్పులు	-13812
▁చేస్తాడు	-13813
▁తున్నారు	-13814
▁నాగేందర్	-13815
▁నున్నాయి	-13816
▁రోడ్డులో	-13817
▁వచ్చారని	-13818
▁విడుదలకు	-13819
▁ఫలితాల్లో	-13820
▁రోగనిరోధక	-13821
▁సెలబ్రిటీ	-13822
▁అస్వస్థతకు	-13823
▁చాలాసార్లు	-13824
▁చేసినందుకు	-13825
▁తొక్కిసలాట	-13826
▁తొలగించారు	-13827
▁మూడుసార్లు	-13828
▁రిటర్నింగ్	-13829
▁సచివాలయంలో	-13830
▁స్టేషన్లలో	-13831
▁ఎమ్మెల్సీలు	-13832
▁తొలగించాలని	-13833
▁వినియోగదారు	-13834
▁ప్రశంసించారు	-13835
▁ప్రిన్సిపాల్	-13836
▁రిజిస్ట్రార్	-13837
▁కార్పొరేటర్లు	-13838
▁నిర్వహిస్తామని	-13839
).	-13840
TC	-13841
జర	-13842
▁‭	-13843
హాల	-13844
హ్న	-13845
▁مل	-13846
▁وا	-13847
▁ଅନ	-13848
లోడ్	-13849
వేర్	-13850
వోలు	-13851
స్కో	-13852
ాలయం	-13853
▁ఏవి	-13854
▁హవా	-13855
ంటిక్	-13856
జీపేట	-13857
మర్స్	-13858
్రేట్	-13859
▁అరబ్	-13860
▁ఏంటీ	-13861
▁కుజు	-13862
▁ఫ్లూ	-13863
▁భాను	-13864
▁వ్యయ	-13865
పోతాయి	-13866
ప్తిని	-13867
స్థితి	-13868
▁అనిరు	-13869
▁అసలైన	-13870
▁ఆడియో	-13871
▁ఏటీఎం	-13872
▁ఒవైసీ	-13873
▁కంగనా	-13874
▁కుంగి	-13875
▁పీఎఫ్	-13876
▁సీక్ర	-13877
▁స్వరూ	-13878
బెట్టిన	-13879
▁అందుకో	-13880
▁అక్షర్	-13881
▁ఉన్నాం	-13882
▁కాస్తా	-13883
▁కిశోర్	-13884
▁జోస్యం	-13885
▁నిప్పు	-13886
▁పదోన్న	-13887
▁పాలనను	-13888
▁ప్రేరే	-13889
▁బ్రిజ్	-13890
▁లభించే	-13891
▁సమ్మర్	-13892
▁సయ్యద్	-13893
▁సుల్తా	-13894
▁యూజర్లు	-13895
▁వైష్ణవ్	-13896
▁సామగ్రి	-13897
▁సైలెంట్	-13898
▁ుకోవాలి	-13899
▁చట్టబద్ధ	-13900
▁చట్టాలను	-13901
▁పనిచేయడం	-13902
▁పార్టీగా	-13903
▁కర్నాటకలో	-13904
▁నమ్ముతారు	-13905
▁పరిగణలోకి	-13906
▁మిత్రపక్ష	-13907
▁ముంబైలోని	-13908
▁రామచంద్రా	-13909
▁విధానాలను	-13910
▁ుతున్నారు	-13911
▁కుటుంబాలను	-13912
▁ప్రాముఖ్యత	-13913
▁విచారించిన	-13914
▁సంయుక్తంగా	-13915
▁కన్నుమూశారు	-13916
▁పెట్టడానికి	-13917
▁పోరాడుతున్న	-13918
▁అప్లికేషన్లు	-13919
▁సుబ్బారెడ్డి	-13920
▁అభిప్రాయాన్ని	-13921
▁చూస్తున్నారని	-13922
▁అవకాశాలున్నాయి	-13923
▁తెరకెక్కుతున్న	-13924
ार	-13925
ದೆ	-13926
ంచై	-13927
ఠాయ	-13928
్యత	-13929
▁97	-13930
▁یا	-13931
▁ବା	-13932
▁టొ	-13933
▁ిన	-13934
irum	-13935
జూన్	-13936
పంలో	-13937
బ్యూ	-13938
రాని	-13939
రుడి	-13940
శ్వర	-13941
సారు	-13942
▁ండే	-13943
▁గణన	-13944
▁రేఖ	-13945
▁వైఖ	-13946
మేరకు	-13947
లైంట్	-13948
వాస్య	-13949
▁ఆతిథ	-13950
▁చావు	-13951
▁చెరి	-13952
▁చేపల	-13953
▁చేయక	-13954
▁డాన్	-13955
▁తాటి	-13956
▁ఫెర్	-13957
▁ఫ్రే	-13958
▁మణిక	-13959
▁మీదే	-13960
▁సామ్	-13961
▁హాలి	-13962
మినార్	-13963
వికెట్	-13964
▁అనుభూ	-13965
▁ఎంపీల	-13966
▁ఏవైనా	-13967
▁ఐఎండీ	-13968
▁క్షేమ	-13969
▁చేపడత	-13970
▁జైలర్	-13971
▁ధ్వంస	-13972
▁నేతలే	-13973
▁పెంపొ	-13974
▁బస్తీ	-13975
▁బెటర్	-13976
▁వనరుల	-13977
▁సమాధి	-13978
▁ಸುದ್ದ	-13979
▁ందరికీ	-13980
▁ఆర్డిన	-13981
▁చోప్రా	-13982
▁పెంచిన	-13983
▁బాలికల	-13984
▁వారికే	-13985
▁వీటిపై	-13986
▁వెలువర	-13987
▁శుద్ధి	-13988
▁స్క్రీ	-13989
షీరాబాద్	-13990
ెస్టెంట్	-13991
▁కృత్రిమ	-13992
▁తగ్గాయి	-13993
▁నడిపించ	-13994
▁పెడతారు	-13995
▁యూనిట్ల	-13996
▁రక్షించ	-13997
▁వాంగ్మూ	-13998
▁అయ్యారని	-13999
▁ఆసక్తిని	-14000
▁చూపిస్తూ	-14001
▁చెన్నైలో	-14002
▁దగ్గరికి	-14003
▁దానివల్ల	-14004
▁నిమజ్జనం	-14005
▁బాధ్యతను	-14006
▁బృహస్పతి	-14007
▁మెరుగ్గా	-14008
▁వస్తోన్న	-14009
▁విపత్తుల	-14010
▁విమానయాన	-14011
▁శాస్త్రం	-14012
▁సీక్రెట్	-14013
▁ంటున్నారు	-14014
▁అభివృద్ది	-14015
▁చేయొద్దని	-14016
▁మార్చాలని	-14017
▁మెరుపులతో	-14018
▁రవికుమార్	-14019
▁రెట్టింపు	-14020
▁అభ్యంతరాలు	-14021
▁ఇబ్బందులను	-14022
▁గెలిపిస్తే	-14023
▁పెంచేందుకు	-14024
▁వినతిపత్రం	-14025
▁సందర్శించి	-14026
▁అభివృద్ధిని	-14027
▁కంటెస్టెంట్	-14028
▁దిగ్భ్రాంతి	-14029
▁పరిశీలిస్తే	-14030
▁ప్రమాదకరమైన	-14031
▁ఉపాధ్యక్షుడు	-14032
▁తీసుకునేందుకు	-14033
ଣ୍	-14034
ఐఏ	-14035
▁ళ	-14036
ಡುಕ	-14037
ಮಾಜ	-14038
▁لی	-14039
▁ధి	-14040
▁సన	-14041
▁హర	-14042
ండల్	-14043
బందీ	-14044
లియం	-14045
శైలి	-14046
ార్ల	-14047
ెవరు	-14048
▁ఆపి	-14049
▁ఉదయ	-14050
▁చిల	-14051
▁నటీ	-14052
▁పదం	-14053
▁భుజ	-14054
▁రెగ	-14055
▁లేం	-14056
ండ్రు	-14057
ట్లర్	-14058
నులకు	-14059
▁Also	-14060
▁అనిత	-14061
▁ఇంధన	-14062
▁కథలు	-14063
▁కప్ప	-14064
▁జీవీ	-14065
▁టమాట	-14066
▁తరఫు	-14067
▁బటన్	-14068
▁భగత్	-14069
▁రాంచ	-14070
▁సిర్	-14071
▁ిస్త	-14072
ection	-14073
ేశారని	-14074
▁ఇపుడు	-14075
▁జింబా	-14076
▁పేదరి	-14077
▁ఫిలిం	-14078
▁బోనాల	-14079
▁రాఘవే	-14080
▁వరసగా	-14081
▁వహించ	-14082
గోదావరి	-14083
డీషియల్	-14084
డ్డింగ్	-14085
ర్లాండ్	-14086
▁ఇళ్లలో	-14087
▁ఓవర్లు	-14088
▁జాయిన్	-14089
▁తేదీకి	-14090
▁దర్శన్	-14091
▁నిరుపే	-14092
▁భూమిలో	-14093
▁లీటర్ల	-14094
▁వ్యూస్	-14095
▁సంస్కృ	-14096
▁సౌకర్య	-14097
▁అద్దెకు	-14098
▁అయ్యేలా	-14099
▁ఉంటోంది	-14100
▁ఎత్తిపో	-14101
▁క్యాండి	-14102
▁గతంలోనే	-14103
▁చేరడంతో	-14104
▁నడుచుకు	-14105
▁నాగబాబు	-14106
▁నిర్బంధ	-14107
▁ఫ్యాషన్	-14108
▁బీభత్సం	-14109
▁రాబట్టి	-14110
▁సరస్వతి	-14111
▁ఇండెక్స్	-14112
▁ఉన్నాడని	-14113
▁కంపార్ట్	-14114
▁చూపించిన	-14115
▁తాగునీరు	-14116
▁బ్రిటీష్	-14117
▁మందమర్రి	-14118
▁సమావేశమై	-14119
▁సింహరాశి	-14120
▁స్కూళ్లు	-14121
▁స్వామిని	-14122
▁Telangana	-14123
▁అక్కడక్కడ	-14124
▁కంప్లైంట్	-14125
▁చేయడాన్ని	-14126
▁నిందితుడి	-14127
▁ప్రవేశించ	-14128
▁మెరుగుపరు	-14129
▁శాంతిభద్ర	-14130
▁సర్వీసులు	-14131
స్తున్నామని	-14132
▁కేంద్రాలకు	-14133
▁గుర్తించడం	-14134
▁నామినేటెడ్	-14135
▁భాగస్వామ్య	-14136
▁వచ్చేందుకు	-14137
▁ిస్తున్నారు	-14138
▁లక్ష్మారెడ్డి	-14139
▁నియోజకవర్గాలకు	-14140
▁క్షేత్రస్థాయిలో	-14141
0)	-14142
1)	-14143
>>	-14144
ست	-14145
ول	-14146
దశ	-14147
ಹು	-14148
-24	-14149
.60	-14150
సాల	-14151
హైడ	-14152
ారై	-14153
ూచి	-14154
▁Vi	-14155
▁ష్	-14156
తార్	-14157
ಸ್ಟ್	-14158
▁ఆరి	-14159
▁ఆశ్	-14160
▁కీర	-14161
▁జలు	-14162
▁జహీ	-14163
▁లార	-14164
▁సిన	-14165
▁ఇనుప	-14166
▁పకడ్	-14167
▁రత్న	-14168
▁రమ్మ	-14169
▁వర్ణ	-14170
▁వీర్	-14171
▁హుజూ	-14172
తగాత్ర	-14173
▁అమరవీ	-14174
▁ఇతరుల	-14175
▁ఇన్స్	-14176
▁కాల్వ	-14177
▁తక్కు	-14178
▁తప్పే	-14179
▁పట్టే	-14180
▁బాండ్	-14181
▁మనీష్	-14182
▁వినతి	-14183
▁హితవు	-14184
irumala	-14185
వ్యవస్థ	-14186
▁అనుష్క	-14187
▁కోటాలో	-14188
▁క్లెయి	-14189
▁చూడండి	-14190
▁ట్టుగా	-14191
▁పిలిచి	-14192
▁భర్తను	-14193
▁యాసంగి	-14194
▁రంజిత్	-14195
▁రావుకు	-14196
▁హోంశాఖ	-14197
▁కోరుట్ల	-14198
▁పాలకులు	-14199
▁పోటెత్త	-14200
▁ప్రతిబి	-14201
▁ప్రేమను	-14202
▁బిడ్డకు	-14203
▁మరింతగా	-14204
▁సంస్థలో	-14205
▁సీఎల్పీ	-14206
▁అన్నమయ్య	-14207
▁అర్చకులు	-14208
▁ఆవిర్భావ	-14209
▁ఆశ్చర్యం	-14210
▁ఎవరికైనా	-14211
▁తెలియదని	-14212
▁తెలుసుకో	-14213
▁దాడుల్లో	-14214
▁దూకుడుగా	-14215
▁మధుసూదన్	-14216
▁లేకున్నా	-14217
▁వాగ్వాదం	-14218
▁వెళ్లినా	-14219
పోతున్నాయి	-14220
▁ఆర్ఆర్ఆర్	-14221
▁ఒత్తిడిని	-14222
▁క్షతగాత్ర	-14223
▁నియామకాలు	-14224
▁ప్రకటించి	-14225
▁ప్రసిద్ధి	-14226
▁రాసుకొచ్చ	-14227
▁ఆకట్టుకునే	-14228
▁టోర్నమెంట్	-14229
▁ప్రయాణించే	-14230
▁ప్రావిన్స్	-14231
▁హుజూరాబాద్	-14232
▁ప్రారంభోత్స	-14233
▁ప్రత్యక్షంగా	-14234
▁ప్రయత్నించిన	-14235
▁సెక్రటేరియట్	-14236
▁అభివర్ణించారు	-14237
▁దక్కించుకుంది	-14238
▁ప్రమాణస్వీకారం	-14239
▁భావిస్తున్నట్లు	-14240
పద	-14241
ಲು	-14242
han	-14243
డన్	-14244
▁08	-14245
▁IP	-14246
▁ఎద	-14247
▁ಆಗ	-14248
ద్దా	-14249
పండు	-14250
విస్	-14251
ార్ధ	-14252
ొచ్చ	-14253
▁10.	-14254
▁350	-14255
▁నయన	-14256
▁హిమ	-14257
▁ాయా	-14258
ంగులు	-14259
జొన్న	-14260
పర్లు	-14261
ప్రియ	-14262
▁ఉద్ధ	-14263
▁కచ్చ	-14264
▁డీల్	-14265
▁పిలవ	-14266
▁పూజి	-14267
▁బీబీ	-14268
▁మూడవ	-14269
▁మెమో	-14270
▁మెర్	-14271
▁మెషీ	-14272
▁విషం	-14273
▁సెస్	-14274
▁స్ట్	-14275
▁ుడైన	-14276
డెన్స్	-14277
నిక్స్	-14278
బిలిటీ	-14279
▁అంకిత	-14280
▁ఆచూకీ	-14281
▁దిశలో	-14282
▁నింపు	-14283
▁పాటకు	-14284
▁బైఠాయ	-14285
▁యూపీఐ	-14286
▁లేఖను	-14287
▁సాధార	-14288
ారాల్లో	-14289
▁ఆకర్షణ	-14290
▁కూరుకు	-14291
▁తెలిసే	-14292
▁పొందడం	-14293
▁పొద్దు	-14294
▁ప్రజలే	-14295
▁బ్యాచ్	-14296
▁మృతిచె	-14297
▁మోస్ట్	-14298
▁రిపీట్	-14299
▁రైతుకు	-14300
▁వాడిని	-14301
▁విషయమే	-14302
▁వీరయ్య	-14303
▁ఎంతమంది	-14304
▁ఒప్పుకో	-14305
▁ఓటీటీలో	-14306
▁కట్టారు	-14307
▁గందరగోళ	-14308
▁దెబ్బకు	-14309
▁పనిలేదు	-14310
▁పరిస్ధి	-14311
▁ప్రవాహం	-14312
▁ఫ్రాంచై	-14313
▁బదిలీలు	-14314
▁మహానాడు	-14315
▁రిజల్ట్	-14316
▁లాంగ్వే	-14317
▁సిమెంట్	-14318
▁స్కాంలో	-14319
▁ఇస్తోంది	-14320
▁చక్కర్లు	-14321
▁చూస్తారు	-14322
▁తప్పింది	-14323
▁త్రిపాఠి	-14324
▁మెట్రిక్	-14325
▁రంగానికి	-14326
▁వర్చువల్	-14327
▁వేడుకలకు	-14328
▁అనుసరించి	-14329
▁గుర్తుంచు	-14330
▁చక్రవర్తి	-14331
▁చెలరేగాయి	-14332
▁నిత్యావసర	-14333
▁నిర్దిష్ట	-14334
▁ప్లానింగ్	-14335
▁మినిస్టర్	-14336
▁సంబంధాలను	-14337
▁స్థానికుల	-14338
▁కలిసేందుకు	-14339
▁పనిచేయాలని	-14340
▁ప్రవేశించిన	-14341
▁ఇండిపెండెంట్	-14342
▁కార్యదర్శులు	-14343
▁అఫ్గానిస్తాన్	-14344
▁చేస్తున్నాయని	-14345
▁ప్రశ్నించింది	-14346
▁మంత్రివర్గంలో	-14347
na	-14348
شل	-14349
ఫో	-14350
▁अ	-14351
ric	-14352
yan	-14353
▁.!	-14354
▁Mo	-14355
▁గం	-14356
▁డూ	-14357
పర్చ	-14358
బ్వే	-14359
స్తవ	-14360
▁110	-14361
▁3.5	-14362
▁ఎమ్	-14363
▁కిట	-14364
▁క్క	-14365
పడ్డా	-14366
▁2007	-14367
▁ఆసరా	-14368
▁గ్లి	-14369
▁చారి	-14370
▁టైర్	-14371
▁దిగా	-14372
▁పంప్	-14373
▁పరిస	-14374
▁భాషా	-14375
▁మదన్	-14376
▁యాన్	-14377
▁లియా	-14378
▁వీరే	-14379
▁స్పూ	-14380
ంటామని	-14381
లెట్లు	-14382
▁ఇషాన్	-14383
▁ఊహాగా	-14384
▁దారుల	-14385
▁నైతిక	-14386
▁ప్రణీ	-14387
▁బహుశా	-14388
▁బుజ్జ	-14389
▁మంజూర	-14390
▁రాబడి	-14391
▁విజన్	-14392
▁వేత్త	-14393
▁సవాలు	-14394
▁సేకరి	-14395
ంచేశారు	-14396
ఆర్టీసీ	-14397
▁ఇండోనే	-14398
▁గల్లంత	-14399
▁గూడ్స్	-14400
▁చట్టాల	-14401
▁జన్మని	-14402
▁ప్లేట్	-14403
▁ఫుటేజీ	-14404
▁ఫోటోను	-14405
▁మాలిక్	-14406
▁మిడిల్	-14407
▁మురుగు	-14408
▁రిస్క్	-14409
▁సంభాషణ	-14410
▁సెలబ్ర	-14411
▁స్టాల్	-14412
▁స్మిత్	-14413
▁చూపించే	-14414
▁టీఎంసీల	-14415
▁తలుపులు	-14416
▁నిన్నటి	-14417
▁పండ్లను	-14418
▁మధుమేహం	-14419
▁రికార్డ	-14420
▁విండీస్	-14421
▁సంక్షోభ	-14422
▁సిటిజన్	-14423
▁అభ్యర్థన	-14424
▁అమావాస్య	-14425
▁ఆలోచించి	-14426
▁ఇస్తారని	-14427
▁ఉదయాన్నే	-14428
▁ఐర్లాండ్	-14429
▁డ్రైనేజీ	-14430
▁నిదర్శనం	-14431
▁పకడ్బందీ	-14432
▁పరికరాలు	-14433
▁ప్యానెల్	-14434
▁ఎగ్జామ్స్	-14435
▁కనిపిస్తే	-14436
▁చెయ్యాలని	-14437
▁జింబాబ్వే	-14438
▁సమాధానాలు	-14439
▁సాగుతుంది	-14440
▁ఉన్నవారికి	-14441
▁కొండచరియలు	-14442
▁ప్రక్రియలో	-14443
▁వెల్లడైంది	-14444
▁కాపాడేందుకు	-14445
▁వ్యక్తిగతంగా	-14446
▁తీవ్రస్థాయిలో	-14447
▁వినిపిస్తున్న	-14448
▁సుప్రీంకోర్టును	-14449
ంబ్	-14450
ಕ್ಷ	-14451
▁01	-14452
▁US	-14453
▁భై	-14454
ంత్య	-14455
క్షం	-14456
టేజ్	-14457
ప్రె	-14458
వడమే	-14459
వేట్	-14460
▁అనా	-14461
▁ఇంప	-14462
▁ఘన్	-14463
▁బడా	-14464
▁మంత	-14465
▁యము	-14466
▁సుమ	-14467
▁ాడో	-14468
ానికే	-14469
ుడిని	-14470
▁చంపి	-14471
▁చెరో	-14472
▁డిజా	-14473
▁తాండ	-14474
▁తోసి	-14475
▁దీపం	-14476
▁నికర	-14477
▁ఫిదా	-14478
▁భగవం	-14479
▁రాఘవ	-14480
▁రేప్	-14481
▁రేస్	-14482
▁వాజ్	-14483
▁విస్	-14484
▁హన్మ	-14485
స్తానీ	-14486
▁అర్ధం	-14487
▁ఆలౌట్	-14488
▁ఏమిటో	-14489
▁ఐపీసీ	-14490
▁జలుబు	-14491
▁జేఎన్	-14492
▁బౌద్ధ	-14493
▁మళ్లి	-14494
▁మెప్ప	-14495
▁లక్కీ	-14496
▁సత్యం	-14497
నుకున్న	-14498
▁అర్హుల	-14499
▁ఏకపక్ష	-14500
▁కూతురి	-14501
▁క్వాష్	-14502
▁పట్టాల	-14503
▁పథకంలో	-14504
▁పనిచేయ	-14505
▁ప్పుడే	-14506
▁ముస్తా	-14507
▁మోర్చా	-14508
▁వయనాడ్	-14509
▁వసతులు	-14510
▁శిశువు	-14511
▁సామ్రా	-14512
▁స్కూలు	-14513
▁స్టోరే	-14514
బడుతుంది	-14515
ాలనుకునే	-14516
▁ఆఫీసర్ల	-14517
▁కఠినమైన	-14518
▁గాలింపు	-14519
▁దువ్వాడ	-14520
▁ప్రేమలో	-14521
▁బెడ్రూం	-14522
▁యాత్రను	-14523
▁యానిమల్	-14524
▁సచివాలయ	-14525
▁సమ్మిట్	-14526
▁సూక్ష్మ	-14527
▁సైనికుల	-14528
ంటున్నాయి	-14529
▁కరుణాకర్	-14530
▁కొట్టివే	-14531
▁చుట్టుము	-14532
▁నిర్ధారణ	-14533
▁పార్టీపై	-14534
▁సుకుమార్	-14535
▁ఆరోగ్యంపై	-14536
▁ఇండస్ట్రి	-14537
▁దోచుకున్న	-14538
▁మెరుగుపరచ	-14539
▁సస్పెన్స్	-14540
▁సిక్సర్లు	-14541
▁స్వల్పంగా	-14542
▁ఉపయోగించడం	-14543
▁చేసుకున్నా	-14544
▁పరిసరాల్లో	-14545
▁పోతున్నాయి	-14546
▁కార్మికులను	-14547
▁చెల్లింపులు	-14548
▁ఉన్నాయన్నారు	-14549
▁సిద్ధమయ్యారు	-14550
▁తగ్గించేందుకు	-14551
▁ప్రజాస్వామ్యం	-14552
▁పూర్తిస్థాయిలో	-14553
▁వినియోగదారులకు	-14554
6)	-14555
dh	-14556
ٹی	-14557
దె	-14558
ଥିଲ	-14559
ఈడీ	-14560
కగా	-14561
ౌడ్	-14562
▁ହୋ	-14563
▁శృ	-14564
▁ಪೋ	-14565
ఫిన్	-14566
ఫైల్	-14567
భూమి	-14568
ష్టు	-14569
స్టీ	-14570
▁ఎలు	-14571
▁చెర	-14572
▁పలక	-14573
▁మిల	-14574
▁సమయ	-14575
▁ಹಂಚ	-14576
దర్స్	-14577
ಮಾಜಿಕ	-14578
▁1990	-14579
▁ఆగ్ర	-14580
▁కర్మ	-14581
▁కెపా	-14582
▁క్షు	-14583
▁గలరు	-14584
▁డెమో	-14585
▁తలనీ	-14586
▁త్రీ	-14587
▁ద్రా	-14588
▁నాగా	-14589
▁నీలం	-14590
▁పొలం	-14591
▁భంగం	-14592
▁రాలు	-14593
▁శీతా	-14594
▁హ్యూ	-14595
▁ాలకు	-14596
ుకుంటూ	-14597
▁అడిగే	-14598
▁అరుణా	-14599
▁ఆలేరు	-14600
▁జన్యు	-14601
▁నరేశ్	-14602
▁ప్రభు	-14603
▁మనుగడ	-14604
▁లేనని	-14605
▁వణికి	-14606
▁సంపర్	-14607
▁సన్మా	-14608
▁ిస్తే	-14609
యెత్తున	-14610
▁గడ్డపై	-14611
▁గ్రాస్	-14612
▁ఛార్జీ	-14613
▁ఫైల్స్	-14614
▁మౌనంగా	-14615
▁సందేశం	-14616
▁సంపన్న	-14617
▁సమ్మేళ	-14618
▁అప్పీల్	-14619
▁అశ్విని	-14620
▁ఆభరణాలు	-14621
▁ఆర్సీబీ	-14622
▁కాచిగూడ	-14623
▁చిత్తశు	-14624
▁చేపట్టే	-14625
▁దొంగతనం	-14626
▁ధనుస్సు	-14627
▁బంధువుల	-14628
▁బిడ్డను	-14629
▁మనుషులు	-14630
▁రహదారుల	-14631
▁విమానాల	-14632
▁శరణార్థ	-14633
▁సర్క్యూ	-14634
▁ಸಾಮಾಜಿಕ	-14635
▁పద్మావతి	-14636
▁ఆరోపిస్తూ	-14637
▁ఉత్సాహంగా	-14638
▁ఎల్బీనగర్	-14639
▁కస్టమర్లు	-14640
▁చెల్లించి	-14641
▁డ్రైవర్లు	-14642
▁నిర్మించి	-14643
▁లక్ష్యమని	-14644
▁విజయవాడకు	-14645
▁సంప్రదాయం	-14646
▁నిర్ణయాలను	-14647
▁పాటించాలని	-14648
▁పాల్పడ్డారని	-14649
▁పెద్దయెత్తున	-14650
▁భారతదేశానికి	-14651
▁వెళ్లినప్పుడు	-14652
▁సామర్థ్యాన్ని	-14653
عد	-14654
ହା	-14655
ಂಧ	-14656
ತೆ	-14657
రమణ	-14658
ూడో	-14659
▁re	-14660
▁رو	-14661
▁وی	-14662
▁ఊప	-14663
▁నృ	-14664
క్లి	-14665
ఫోర్	-14666
ాయలు	-14667
▁ହୋଇ	-14668
▁ందట	-14669
▁బాబ	-14670
▁ాడట	-14671
▁ుని	-14672
టీకరణ	-14673
వాదాయ	-14674
ಾಗಿದೆ	-14675
▁అసలే	-14676
▁కంచె	-14677
▁కంది	-14678
▁కించ	-14679
▁చారు	-14680
▁జిన్	-14681
▁త్వం	-14682
▁నడుమ	-14683
▁ఫాల్	-14684
▁బాద్	-14685
▁మనవి	-14686
▁రావి	-14687
▁రోగి	-14688
▁వైపే	-14689
▁స్లి	-14690
టేశ్వర	-14691
ళ్లారి	-14692
▁ఆగ్రహ	-14693
▁ఆయుష్	-14694
▁ఇప్పి	-14695
▁ఒడ్డు	-14696
▁చదివి	-14697
▁దేనని	-14698
▁ధనుష్	-14699
▁పడ్డా	-14700
▁పాటను	-14701
▁మిట్ట	-14702
▁అమలుకు	-14703
▁ఉన్నంత	-14704
▁కౌన్సె	-14705
▁గుత్తా	-14706
▁తోసిపు	-14707
▁నీటితో	-14708
▁నొక్కి	-14709
▁పద్మనా	-14710
▁బిర్లా	-14711
▁యాత్రి	-14712
▁రాముడి	-14713
▁వెసులు	-14714
▁సీటును	-14715
▁స్వాతి	-14716
▁అక్కడకు	-14717
▁జనాభాలో	-14718
▁దేవాదాయ	-14719
▁పండుగను	-14720
▁మహేంద్ర	-14721
▁యాత్రకు	-14722
▁విచిత్ర	-14723
▁సంకీర్ణ	-14724
▁ఆల్కహాల్	-14725
▁కృష్ణయ్య	-14726
▁దుర్మార్	-14727
▁ప్రోటీన్	-14728
▁విపక్షాల	-14729
▁సచివాలయం	-14730
▁సాధించడం	-14731
▁సురేందర్	-14732
▁స్టేషన్ల	-14733
▁స్ట్రీట్	-14734
▁అవార్డును	-14735
▁ఉండటానికి	-14736
▁టెక్నికల్	-14737
▁మైనంపల్లి	-14738
▁సినిమాలతో	-14739
▁స్వాతంత్య	-14740
▁చూసుకోవాలి	-14741
▁పాయింట్లతో	-14742
▁పూర్తయింది	-14743
▁ముగియనుంది	-14744
▁కల్పించింది	-14745
▁కార్యక్రమాల	-14746
▁జ్యుడీషియల్	-14747
▁అంగీకరించారు	-14748
▁పూర్తిస్థాయి	-14749
▁రెసిడెన్షియల్	-14750
▁నిర్ణయించినట్లు	-14751
▁ಉ	-14752
.16	-14753
కిట	-14754
మయం	-14755
రైన	-14756
వంచ	-14757
వరా	-14758
సేవ	-14759
▁ଟି	-14760
▁చద	-14761
▁తడ	-14762
agan	-14763
నాలి	-14764
బ్యు	-14765
రూపం	-14766
వుడి	-14767
సెఫ్	-14768
▁17,	-14769
▁Pra	-14770
▁గతం	-14771
▁బావ	-14772
▁బియ	-14773
▁భరి	-14774
▁వీడ	-14775
జెండా	-14776
పత్రం	-14777
▁سوشل	-14778
▁అంతి	-14779
▁ఎకాన	-14780
▁కథను	-14781
▁కాను	-14782
▁బస్త	-14783
▁మిడ్	-14784
▁మూడి	-14785
▁మెస్	-14786
▁రష్య	-14787
▁వాక్	-14788
▁వీక్	-14789
▁షాద్	-14790
▁సోర్	-14791
జిస్ట్	-14792
▁2024)	-14793
▁ంచాలి	-14794
▁అమరుల	-14795
▁ఆటంకం	-14796
▁ఉంచిన	-14797
▁ఎన్టీ	-14798
▁చంపిన	-14799
▁పదవుల	-14800
▁బోధన్	-14801
▁మేజర్	-14802
కారులను	-14803
డినేటర్	-14804
▁ఏకగ్రీ	-14805
▁గంభీర్	-14806
▁గరిష్ట	-14807
▁జాన్వీ	-14808
▁తాలూకా	-14809
▁తుపాకీ	-14810
▁దిగ్గజ	-14811
▁నిర్మల	-14812
▁నేటికీ	-14813
▁బోల్తా	-14814
▁మరణాలు	-14815
▁మోడీకి	-14816
▁రిపేర్	-14817
▁శ్రేణు	-14818
▁స్ట్రో	-14819
▁అవస్థలు	-14820
▁ఆశాభావం	-14821
▁ఎన్నారై	-14822
▁జరపాలని	-14823
▁తప్పదని	-14824
▁తలెత్తి	-14825
▁నిల్వలు	-14826
▁ప్రాపర్	-14827
▁మార్చడం	-14828
▁మార్చిన	-14829
▁విజయంతో	-14830
▁స్తుంటే	-14831
▁కస్టమ్స్	-14832
▁కాలానికి	-14833
▁చురుగ్గా	-14834
▁డైలాగ్స్	-14835
▁తేల్చారు	-14836
▁నామినేట్	-14837
▁రిపబ్లిక	-14838
▁అధ్యయనంలో	-14839
▁అభియోగాలు	-14840
▁అమరావతిలో	-14841
▁ఆధిక్యంలో	-14842
▁కనిపిస్తు	-14843
▁కష్టాల్లో	-14844
▁నిర్వహణలో	-14845
▁పరిధిలోకి	-14846
▁మధ్యతరగతి	-14847
▁రాత్రిపూట	-14848
▁వస్తోందని	-14849
▁చెప్పవచ్చు	-14850
▁ఛాలెంజర్స్	-14851
▁పాలిటిక్స్	-14852
▁మార్గాన్ని	-14853
▁లావాదేవీలు	-14854
▁లింగంపల్లి	-14855
▁వ్యక్తులకు	-14856
▁ఆసక్తికరమైన	-14857
▁విజయలక్ష్మి	-14858
▁డాక్యుమెంటరీ	-14859
▁ప్రాధాన్యతను	-14860
▁ఆస్ట్రేలియాతో	-14861
ma	-14862
وم	-14863
ଣା	-14864
ಳ್	-14865
కలో	-14866
తరం	-14867
▁.0	-14868
▁ఉమ	-14869
[...]
