{
  "version": "1.0",
  "truncation": null,
  "padding": null,
  "added_tokens": [
    {
      "id": 0,
      "content": "[UNK]",
      "single_word": false,
      "lstrip": false,
      "rstrip": false,
      "normalized": false,
      "special": true
    },
    {
      "id": 1,
      "content": "[CLS]",
      "single_word": false,
      "lstrip": false,
      "rstrip": false,
      "normalized": false,
      "special": true
    },
    {
      "id": 2,
      "content": "[SEP]",
      "single_word": false,
      "lstrip": false,
      "rstrip": false,
      "normalized": false,
      "special": true
    },
    {
      "id": 3,
      "content": "[PAD]",
      "single_word": false,
      "lstrip": false,
      "rstrip": false,
      "normalized": false,
      "special": true
    },
    {
      "id": 4,
      "content": "[MASK]",
      "single_word": false,
      "lstrip": false,
      "rstrip": false,
      "normalized": false,
      "special": true
    }
  ],
  "normalizer": {
    "type": "Sequence",
    "normalizers": [
      {
        "type": "NFKC"
      },
      {
        "type": "Lowercase"
      }
    ]
  },
  "pre_tokenizer": {
    "type": "Whitespace"
  },
  "post_processor": null,
  "decoder": {
    "type": "WordPiece",
    "prefix": "##",
    "cleanup": true
  },
  "model": {
    "type": "WordPiece",
    "unk_token": "[UNK]",
    "continuing_subword_prefix": "##",
    "max_input_chars_per_word": 100,
    "vocab": {
      "[UNK]": 0,
      "[CLS]": 1,
      "[SEP]": 2,
      "[PAD]": 3,
      "[MASK]": 4,
      "!": 5,
      "\"": 6,
      "#": 7,
      "$": 8,
      "%": 9,
      "&": 10,
      "'": 11,
      "(": 12,
      ")": 13,
      "*": 14,
      "+": 15,
      ",": 16,
      "-": 17,
      ".": 18,
      "/": 19,
      "0": 20,
      "1": 21,
      "2": 22,
      "3": 23,
      "4": 24,
      "5": 25,
      "6": 26,
      "7": 27,
      "8": 28,
      "9": 29,
      ":": 30,
      ";": 31,
      "<": 32,
      "=": 33,
      ">": 34,
      "?": 35,
      "@": 36,
      "[": 37,
      "\\": 38,
      "]": 39,
      "_": 40,
      "`": 41,
      "a": 42,
      "b": 43,
      "c": 44,
      "d": 45,
      "e": 46,
      "f": 47,
      "g": 48,
      "h": 49,
      "i": 50,
      "j": 51,
      "k": 52,
      "l": 53,
      "m": 54,
      "n": 55,
      "o": 56,
      "p": 57,
      "q": 58,
      "r": 59,
      "s": 60,
      "t": 61,
      "u": 62,
      "v": 63,
      "w": 64,
      "x": 65,
      "y": 66,
      "z": 67,
      "~": 68,
      "£": 69,
      "©": 70,
      "­": 71,
      "°": 72,
      "·": 73,
      "×": 74,
      "á": 75,
      "â": 76,
      "æ": 77,
      "đ": 78,
      "ơ": 79,
      "ư": 80,
      "ʼ": 81,
      "́": 82,
      "α": 83,
      "β": 84,
      "،": 85,
      "؛": 86,
      "؟": 87,
      "ء": 88,
      "آ": 89,
      "أ": 90,
      "ؤ": 91,
      "إ": 92,
      "ئ": 93,
      "ا": 94,
      "ب": 95,
      "ت": 96,
      "ث": 97,
      "ج": 98,
      "ح": 99,
      "خ": 100,
      "د": 101,
      "ذ": 102,
      "ر": 103,
      "ز": 104,
      "س": 105,
      "ش": 106,
      "ص": 107,
      "ض": 108,
      "ط": 109,
      "ظ": 110,
      "ع": 111,
      "غ": 112,
      "ف": 113,
      "ق": 114,
      "ل": 115,
      "م": 116,
      "ن": 117,
      "ه": 118,
      "و": 119,
      "ى": 120,
      "ي": 121,
      "ً": 122,
      "َ": 123,
      "ُ": 124,
      "ِ": 125,
      "ّ": 126,
      "ٓ": 127,
      "ٰ": 128,
      "ٹ": 129,
      "پ": 130,
      "چ": 131,
      "ڈ": 132,
      "ڑ": 133,
      "ڕ": 134,
      "ژ": 135,
      "ک": 136,
      "گ": 137,
      "ڵ": 138,
      "ں": 139,
      "ھ": 140,
      "ہ": 141,
      "ۆ": 142,
      "ی": 143,
      "ێ": 144,
      "ے": 145,
      "۔": 146,
      "ە": 147,
      "ँ": 148,
      "ं": 149,
      "ः": 150,
      "अ": 151,
      "आ": 152,
      "इ": 153,
      "ई": 154,
      "उ": 155,
      "ऊ": 156,
      "ए": 157,
      "ऐ": 158,
      "ऑ": 159,
      "ओ": 160,
      "औ": 161,
      "क": 162,
      "ख": 163,
      "ग": 164,
      "घ": 165,
      "च": 166,
      "छ": 167,
      "ज": 168,
      "झ": 169,
      "ञ": 170,
      "ट": 171,
      "ठ": 172,
      "ड": 173,
      "ढ": 174,
      "ण": 175,
      "त": 176,
      "थ": 177,
      "द": 178,
      "ध": 179,
      "न": 180,
      "प": 181,
      "फ": 182,
      "ब": 183,
      "भ": 184,
      "म": 185,
      "य": 186,
      "र": 187,
      "ल": 188,
      "व": 189,
      "श": 190,
      "ष": 191,
      "स": 192,
      "ह": 193,
      "़": 194,
      "ा": 195,
      "ि": 196,
      "ी": 197,
      "ु": 198,
      "ू": 199,
      "ृ": 200,
      "े": 201,
      "ै": 202,
      "ॉ": 203,
      "ो": 204,
      "ौ": 205,
      "्": 206,
      "।": 207,
      "॥": 208,
      "०": 209,
      "२": 210,
      "४": 211,
      "ঃ": 212,
      "অ": 213,
      "আ": 214,
      "এ": 215,
      "ও": 216,
      "ক": 217,
      "গ": 218,
      "চ": 219,
      "জ": 220,
      "ট": 221,
      "ড": 222,
      "ত": 223,
      "দ": 224,
      "ধ": 225,
      "ন": 226,
      "প": 227,
      "ফ": 228,
      "ব": 229,
      "ভ": 230,
      "ম": 231,
      "য": 232,
      "র": 233,
      "ল": 234,
      "শ": 235,
      "স": 236,
      "হ": 237,
      "়": 238,
      "া": 239,
      "ি": 240,
      "ী": 241,
      "ু": 242,
      "ে": 243,
      "ৈ": 244,
      "ো": 245,
      "্": 246,
      "ৰ": 247,
      "ৱ": 248,
      "ଁ": 249,
      "ଂ": 250,
      "ଃ": 251,
      "ଅ": 252,
      "ଆ": 253,
      "ଇ": 254,
      "ଈ": 255,
      "ଉ": 256,
      "ଏ": 257,
      "ଓ": 258,
      "କ": 259,
      "ଖ": 260,
      "ଗ": 261,
      "ଘ": 262,
      "ଙ": 263,
      "ଚ": 264,
      "ଛ": 265,
      "ଜ": 266,
      "ଝ": 267,
      "ଞ": 268,
      "ଟ": 269,
      "ଠ": 270,
      "ଡ": 271,
      "ଢ": 272,
      "ଣ": 273,
      "ତ": 274,
      "ଥ": 275,
      "ଦ": 276,
      "ଧ": 277,
      "ନ": 278,
      "ପ": 279,
      "ଫ": 280,
      "ବ": 281,
      "ଭ": 282,
      "ମ": 283,
      "ଯ": 284,
      "ର": 285,
      "ଲ": 286,
      "ଳ": 287,
      "ଵ": 288,
      "ଶ": 289,
      "ଷ": 290,
      "ସ": 291,
      "ହ": 292,
      "଼": 293,
      "ା": 294,
      "ି": 295,
      "ୀ": 296,
      "ୁ": 297,
      "ୂ": 298,
      "ୃ": 299,
      "େ": 300,
      "ୈ": 301,
      "ୋ": 302,
      "ୌ": 303,
      "୍": 304,
      "ୟ": 305,
      "୦": 306,
      "୧": 307,
      "୨": 308,
      "୩": 309,
      "୪": 310,
      "୫": 311,
      "୬": 312,
      "୭": 313,
      "୮": 314,
      "୯": 315,
      "ୱ": 316,
      "அ": 317,
      "ஆ": 318,
      "இ": 319,
      "உ": 320,
      "ஊ": 321,
      "எ": 322,
      "ஏ": 323,
      "க": 324,
      "ங": 325,
      "ச": 326,
      "ஜ": 327,
      "ட": 328,
      "ண": 329,
      "த": 330,
      "ந": 331,
      "ன": 332,
      "ப": 333,
      "ம": 334,
      "ய": 335,
      "ர": 336,
      "ற": 337,
      "ல": 338,
      "ள": 339,
      "வ": 340,
      "ஸ": 341,
      "ா": 342,
      "ி": 343,
      "ீ": 344,
      "ு": 345,
      "ூ": 346,
      "ெ": 347,
      "ே": 348,
      "ை": 349,
      "ொ": 350,
      "ோ": 351,
      "்": 352,
      "ఁ": 353,
      "ం": 354,
      "ః": 355,
      "అ": 356,
      "ఆ": 357,
      "ఇ": 358,
      "ఈ": 359,
      "ఉ": 360,
      "ఊ": 361,
      "ఋ": 362,
      "ఎ": 363,
      "ఏ": 364,
      "ఐ": 365,
      "ఒ": 366,
      "ఓ": 367,
      "ఔ": 368,
      "క": 369,
      "ఖ": 370,
      "గ": 371,
      "ఘ": 372,
      "ఙ": 373,
      "చ": 374,
      "ఛ": 375,
      "జ": 376,
      "ఝ": 377,
      "ఞ": 378,
      "ట": 379,
      "ఠ": 380,
      "డ": 381,
      "ఢ": 382,
      "ణ": 383,
      "త": 384,
      "థ": 385,
      "ద": 386,
      "ధ": 387,
      "న": 388,
      "ప": 389,
      "ఫ": 390,
      "బ": 391,
      "భ": 392,
      "మ": 393,
      "య": 394,
      "ర": 395,
      "ఱ": 396,
      "ల": 397,
      "ళ": 398,
      "వ": 399,
      "శ": 400,
      "ష": 401,
      "స": 402,
      "హ": 403,
      "ఽ": 404,
      "ా": 405,
      "ి": 406,
      "ీ": 407,
      "ు": 408,
      "ూ": 409,
      "ృ": 410,
      "ౄ": 411,
      "ె": 412,
      "ే": 413,
      "ై": 414,
      "ొ": 415,
      "ో": 416,
      "ౌ": 417,
      "్": 418,
      "ౖ": 419,
      "౦": 420,
      "౧": 421,
      "౩": 422,
      "౪": 423,
      "౬": 424,
      "౹": 425,
      "ಂ": 426,
      "ಃ": 427,
      "ಅ": 428,
      "ಆ": 429,
      "ಇ": 430,
      "ಈ": 431,
      "ಉ": 432,
      "ಊ": 433,
      "ಎ": 434,
      "ಏ": 435,
      "ಐ": 436,
      "ಒ": 437,
      "ಓ": 438,
      "ಔ": 439,
      "ಕ": 440,
      "ಖ": 441,
      "ಗ": 442,
      "ಘ": 443,
      "ಚ": 444,
      "ಛ": 445,
      "ಜ": 446,
      "ಝ": 447,
      "ಞ": 448,
      "ಟ": 449,
      "ಠ": 450,
      "ಡ": 451,
      "ಢ": 452,
      "ಣ": 453,
      "ತ": 454,
      "ಥ": 455,
      "ದ": 456,
      "ಧ": 457,
      "ನ": 458,
      "ಪ": 459,
      "ಫ": 460,
      "ಬ": 461,
      "ಭ": 462,
      "ಮ": 463,
      "ಯ": 464,
      "ರ": 465,
      "ಲ": 466,
      "ಳ": 467,
      "ವ": 468,
      "ಶ": 469,
      "ಷ": 470,
      "ಸ": 471,
      "ಹ": 472,
      "ಾ": 473,
      "ಿ": 474,
      "ೀ": 475,
      "ು": 476,
      "ೂ": 477,
      "ೃ": 478,
      "ೆ": 479,
      "ೇ": 480,
      "ೈ": 481,
      "ೊ": 482,
      "ೋ": 483,
      "ೌ": 484,
      "್": 485,
      "ം": 486,
      "അ": 487,
      "ആ": 488,
      "ഇ": 489,
      "ഈ": 490,
      "എ": 491,
      "ഒ": 492,
      "ക": 493,
      "ഗ": 494,
      "ങ": 495,
      "ച": 496,
      "ജ": 497,
      "ട": 498,
      "ഡ": 499,
      "ണ": 500,
      "ത": 501,
      "ദ": 502,
      "ധ": 503,
      "ന": 504,
      "പ": 505,
      "ബ": 506,
      "ഭ": 507,
      "മ": 508,
      "യ": 509,
      "ര": 510,
      "റ": 511,
      "ല": 512,
      "ള": 513,
      "ഴ": 514,
      "വ": 515,
      "ശ": 516,
      "ഷ": 517,
      "സ": 518,
      "ാ": 519,
      "ി": 520,
      "ീ": 521,
      "ു": 522,
      "ൂ": 523,
      "ൃ": 524,
      "െ": 525,
      "േ": 526,
      "ൈ": 527,
      "ൊ": 528,
      "ോ": 529,
      "്": 530,
      "ൗ": 531,
      "ൻ": 532,
      "ർ": 533,
      "ൽ": 534,
      "ൾ": 535,
      "ả": 536,
      "ầ": 537,
      "ậ": 538,
      "ệ": 539,
      "ố": 540,
      "ớ": 541,
      "ờ": 542,
      "ở": 543,
      "ợ": 544,
      "ứ": 545,
      "‌": 546,
      "‍": 547,
      "‎": 548,
      "‏": 549,
      "‐": 550,
      "‒": 551,
      "•": 552,
      "‪": 553,
      "‫": 554,
      "‬": 555,
      "‭": 556,
      "′": 557,
      "⁄": 558,
      "⁠": 559,
      "⁪": 560,
      "⁫": 561,
      "⁬": 562,
      "⁭": 563,
      "⁯": 564,
      "€": 565,
      "₹": 566,
      "⃣": 567,
      "∙": 568,
      "≠": 569,
      "▪": 570,
      "►": 571,
      "◆": 572,
      "◉": 573,
      "●": 574,
      "★": 575,
      "☛": 576,
      "♥": 577,
      "♦": 578,
      "✳": 579,
      "❌": 580,
      "➡": 581,
      "➦": 582,
      "⦁": 583,
      "️": 584,
      "🇪": 585,
      "🇬": 586,
      "🇮": 587,
      "🇳": 588,
      "🌹": 589,
      "🏼": 590,
      "👇": 591,
      "👉": 592,
      "👊": 593,
      "👋": 594,
      "👌": 595,
      "💐": 596,
      "💚": 597,
      "💥": 598,
      "💪": 599,
      "🔥": 600,
      "🔴": 601,
      "🔸": 602,
      "🔹": 603,
      "😂": 604,
      "😉": 605,
      "😊": 606,
      "😜": 607,
      "😞": 608,
      "😠": 609,
      "😡": 610,
      "😥": 611,
      "🙂": 612,
      "🙏": 613,
      "🚩": 614,
      "🤜": 615,
      "🤭": 616,
      "##ె": 617,
      "##చ": 618,
      "##్": 619,
      "##1": 620,
      "##6": 621,
      "##ہ": 622,
      "##ت": 623,
      "##ے": 624,
      "##న": 625,
      "##ో": 626,
      "##r": 627,
      "##u": 628,
      "##s": 629,
      "##h": 630,
      "##త": 631,
      "##వ": 632,
      "##ర": 633,
      "##ం": 634,
      "##ల": 635,
      "##ే": 636,
      "##ಾ": 637,
      "##e": 638,
      "##a": 639,
      "##ఏ": 640,
      "##b": 641,
      "##9": 642,
      "##ک": 643,
      "##ر": 644,
      "##ఖ": 645,
      "##య": 646,
      "##ل": 647,
      "##ా": 648,
      "##ూ": 649,
      "##ు": 650,
      "##స": 651,
      "##డ": 652,
      "##ట": 653,
      "##p": 654,
      "##g": 655,
      "##j": 656,
      "##ణ": 657,
      "##ద": 658,
      "##ి": 659,
      "##ప": 660,
      "##ీ": 661,
      "##క": 662,
      "##k": 663,
      "##i": 664,
      "##5": 665,
      "##2": 666,
      "##ಭ": 667,
      "##ی": 668,
      "##س": 669,
      "##ا": 670,
      "##ف": 671,
      "##ٹ": 672,
      "##و": 673,
      "##t": 674,
      "##ب": 675,
      "##l": 676,
      "##మ": 677,
      "##శ": 678,
      "##ಣ": 679,
      "##c": 680,
      "##y": 681,
      "##پ": 682,
      "##ಮ": 683,
      "##ବ": 684,
      "##d": 685,
      "##ౌ": 686,
      "##o": 687,
      "##ش": 688,
      "##గ": 689,
      "##ن": 690,
      "##ئ": 691,
      "##8": 692,
      "##7": 693,
      "##د": 694,
      "##ق": 695,
      "##భ": 696,
      "##జ": 697,
      "##w": 698,
      "##ھ": 699,
      "##m": 700,
      "##ய": 701,
      "##ो": 702,
      "##ट": 703,
      "##v": 704,
      "##ై": 705,
      "##‌": 706,
      "##ي": 707,
      "##ఆ": 708,
      "##گ": 709,
      "##ొ": 710,
      "##ع": 711,
      "##4": 712,
      "##f": 713,
      "##ز": 714,
      "##م": 715,
      "##n": 716,
      "##బ": 717,
      "##ج": 718,
      "##x": 719,
      "##థ": 720,
      "##ళ": 721,
      "##ी": 722,
      "##न": 723,
      "##ృ": 724,
      "##ధ": 725,
      "##q": 726,
      "##غ": 727,
      "##ಲ": 728,
      "##3": 729,
      "##ص": 730,
      "##ಟ": 731,
      "##ದ": 732,
      "##ض": 733,
      "##र": 734,
      "##0": 735,
      "##౦": 736,
      "##ಗ": 737,
      "##ứ": 738,
      "##୍": 739,
      "##କ": 740,
      "##ح": 741,
      "##ڑ": 742,
      "##त": 743,
      "##-": 744,
      "##ନ": 745,
      "##ଇ": 746,
      "##ں": 747,
      "##ा": 748,
      "##म": 749,
      "##େ": 750,
      "##ଶ": 751,
      "##హ": 752,
      "##ఎ": 753,
      "##ఐ": 754,
      "##خ": 755,
      "##ط": 756,
      "##ఢ": 757,
      "##ह": 758,
      "##ಶ": 759,
      "##ಿ": 760,
      "##ೂ": 761,
      "##ତ": 762,
      "##द": 763,
      "##ା": 764,
      "##ڈ": 765,
      "##چ": 766,
      "##ଡ": 767,
      "##଼": 768,
      "##ష": 769,
      "##౬": 770,
      "##ୁ": 771,
      "##ଲ": 772,
      "##ହ": 773,
      "##ଟ": 774,
      "##ذ": 775,
      "##ಫ": 776,
      "##್": 777,
      "##स": 778,
      "##ೀ": 779,
      "##ವ": 780,
      "##z": 781,
      "##ఘ": 782,
      "##ఫ": 783,
      "##ପ": 784,
      "##ظ": 785,
      "##ఒ": 786,
      "##ୱ": 787,
      "##ର": 788,
      "##ఝ": 789,
      "##ಳ": 790,
      "##ه": 791,
      "##ଦ": 792,
      "##ି": 793,
      "##ು": 794,
      "##?": 795,
      "##′": 796,
      "##ै": 797,
      "##ं": 798,
      "##ೈ": 799,
      "##े": 800,
      "##़": 801,
      "##ِ": 802,
      "##ମ": 803,
      "##ؤ": 804,
      "##ರ": 805,
      "##ଣ": 806,
      "##ଛ": 807,
      "##.": 808,
      "##ୀ": 809,
      "##ನ": 810,
      "##ண": 811,
      "##)": 812,
      "##ଭ": 813,
      "##ୟ": 814,
      "##ब": 815,
      "##ू": 816,
      "##ఓ": 817,
      "##ತ": 818,
      "##\"": 819,
      "##ु": 820,
      "##छ": 821,
      "##ସ": 822,
      "##ఠ": 823,
      "##୪": 824,
      "##ल": 825,
      "##ث": 826,
      "##ୋ": 827,
      "##ଁ": 828,
      "##ఈ": 829,
      "##ಒ": 830,
      "##ಬ": 831,
      "##ि": 832,
      "##ಥ": 833,
      "##ଗ": 834,
      "##ژ": 835,
      "##ೇ": 836,
      "##ಕ": 837,
      "##ೆ": 838,
      "##ః": 839,
      "##୮": 840,
      "##ả": 841,
      "##प": 842,
      "##ʼ": 843,
      "##ଜ": 844,
      "##ଉ": 845,
      "##य": 846,
      "##୩": 847,
      "##ग": 848,
      "##ଆ": 849,
      "##ো": 850,
      "##ট": 851,
      "##ଏ": 852,
      "##ಚ": 853,
      "##ಂ": 854,
      "##ଯ": 855,
      "##ೋ": 856,
      "##,": 857,
      "##क": 858,
      "##ന": 859,
      "##്": 860,
      "##ध": 861,
      "##â": 862,
      "##ଧ": 863,
      "##⃣": 864,
      "##ى": 865,
      "##ए": 866,
      "##୨": 867,
      "##ಐ": 868,
      "##ە": 869,
      "##ী": 870,
      "##র": 871,
      "##േ": 872,
      "##ൾ": 873,
      "##थ": 874,
      "##च": 875,
      "##ఇ": 876,
      "##ங": 877,
      "##୭": 878,
      "##୦": 879,
      "##फ": 880,
      "##भ": 881,
      "##ज": 882,
      "##ण": 883,
      "##ଅ": 884,
      "##ଘ": 885,
      "##:": 886,
      "##ୈ": 887,
      "##ଠ": 888,
      "##آ": 889,
      "##ಹ": 890,
      "##ఛ": 891,
      "##ে": 892,
      "##த": 893,
      "##ு": 894,
      "##😂": 895,
      "##*": 896,
      "##!": 897,
      "##ಡ": 898,
      "##ư": 899,
      "##ớ": 900,
      "##ಜ": 901,
      "##व": 902,
      "##ଫ": 903,
      "##ầ": 904,
      "##ई": 905,
      "##=": 906,
      "##୬": 907,
      "##ଥ": 908,
      "##ଳ": 909,
      "##ौ": 910,
      "##ख": 911,
      "##ଷ": 912,
      "##ர": 913,
      "##ఞ": 914,
      "##ơ": 915,
      "##ड": 916,
      "##ୌ": 917,
      "##ố": 918,
      "##ୂ": 919,
      "##ଖ": 920,
      "##ೌ": 921,
      "##ୃ": 922,
      "##ء": 923,
      "##୫": 924,
      "##়": 925,
      "##ఱ": 926,
      "##ಸ": 927,
      "##ன": 928,
      "##आ": 929,
      "##ଂ": 930,
      "##ற": 931,
      "##ി": 932,
      "##ല": 933,
      "##'": 934,
      "##श": 935,
      "##ढ": 936,
      "##ॉ": 937,
      "##য": 938,
      "##😡": 939,
      "##ठ": 940,
      "##ُ": 941,
      "##ক": 942,
      "##ু": 943,
      "##ଈ": 944,
      "##+": 945,
      "##ത": 946,
      "##ೊ": 947,
      "##ঃ": 948,
      "##ৱ": 949,
      "##হ": 950,
      "##ൻ": 951,
      "##घ": 952,
      "##ڕ": 953,
      "##झ": 954,
      "##ম": 955,
      "##ি": 956,
      "##उ": 957,
      "##ଞ": 958,
      "##౩": 959,
      "###": 960,
      "##୧": 961,
      "##୯": 962,
      "##।": 963,
      "##ೃ": 964,
      "##🇬": 965,
      "##🌹": 966,
      "##ப": 967,
      "##ந": 968,
      "##ৰ": 969,
      "##ര": 970,
      "##ു": 971,
      "##>": 972,
      "##ờ": 973,
      "##ন": 974,
      "##ଙ": 975,
      "##ಪ": 976,
      "##ଚ": 977,
      "##న్": 978,
      "##ర్": 979,
      "##్ర": 980,
      "##ని": 981,
      "##రు": 982,
      "##ంద": 983,
      "##స్": 984,
      "##్ల": 985,
      "##ంచ": 986,
      "ారు": 987,
      "##న్న": 988,
      "##్య": 989,
      "లో": 990,
      "చే": 991,
      "##ార": 992,
      "##్ట": 993,
      "ాల": 994,
      "##ంది": 995,
      "ప్ర": 996,
      "ను": 997,
      "ని": 998,
      "##ంట": 999,
      "##క్": 1000,
      "ించ": 1001,
      "కు": 1002,
      "##లో": 1003,
      "ున్న": 1004,
      "##ాల": 1005,
      "##గా": 1006,
      "##స్త": 1007,
      "##్ప": 1008,
      "##ండ": 1009,
      "వి": 1010,
      "##లు": 1011,
      "##కు": 1012,
      "్ర": 1013,
      "##త్": 1014,
      "##డు": 1015,
      "రా": 1016,
      "ర్": 1017,
      "కా": 1018,
      "##రి": 1019,
      "ిన": 1020,
      "గా": 1021,
      "##యి": 1022,
      "్య": 1023,
      "##ంత": 1024,
      "స్": 1025,
      "##ల్": 1026,
      "##ంగ": 1027,
      "##ిక": 1028,
      "##ుక": 1029,
      "లు": 1030,
      "##ల్ల": 1031,
      "ార": 1032,
      "కి": 1033,
      "ింది": 1034,
      "న్": 1035,
      "##దు": 1036,
      "##్చ": 1037,
      "రె": 1038,
      "##ప్ప": 1039,
      "##డ్": 1040,
      "చేస": 1041,
      "##ుల": 1042,
      "ార్": 1043,
      "మా": 1044,
      "##లి": 1045,
      "తె": 1046,
      "##ను": 1047,
      "##ట్ట": 1048,
      "##న్ని": 1049,
      "చె": 1050,
      "ుల": 1051,
      "తో": 1052,
      "##ీస": 1053,
      "##ద్": 1054,
      "##కి": 1055,
      "##టీ": 1056,
      "లే": 1057,
      "క్": 1058,
      "##త్ర": 1059,
      "##చ్చ": 1060,
      "ాయి": 1061,
      "కో": 1062,
      "కూ": 1063,
      "##ంగ్": 1064,
      "##టు": 1065,
      "రి": 1066,
      "##తి": 1067,
      "వా": 1068,
      "పై": 1069,
      "##ిన": 1070,
      "##డా": 1071,
      "పె": 1072,
      "##డి": 1073,
      "##వా": 1074,
      "నే": 1075,
      "##ది": 1076,
      "##మా": 1077,
      "ంలో": 1078,
      "##పీ": 1079,
      "్త": 1080,
      "##ట్ల": 1081,
      "##నే": 1082,
      "##్యా": 1083,
      "##ేశ": 1084,
      "##క్ష": 1085,
      "##ంచి": 1086,
      "సం": 1087,
      "పా": 1088,
      "ిస్త": 1089,
      "నా": 1090,
      "##ళ్ల": 1091,
      "##ట్": 1092,
      "ము": 1093,
      "ుత": 1094,
      "పో": 1095,
      "వె": 1096,
      "##ష్ట": 1097,
      "##టి": 1098,
      "##ంగా": 1099,
      "##్మ": 1100,
      "##్వ": 1101,
      "ఉన్న": 1102,
      "ులు": 1103,
      "ంగా": 1104,
      "రో": 1105,
      "కే": 1106,
      "వే": 1107,
      "##ుత": 1108,
      "ుంది": 1109,
      "నుంచి": 1110,
      "చేశ": 1111,
      "కూడా": 1112,
      "##క్క": 1113,
      "కొ": 1114,
      "##ంతో": 1115,
      "ాని": 1116,
      "డి": 1117,
      "చేయ": 1118,
      "సి": 1119,
      "సీ": 1120,
      "ందు": 1121,
      "సా": 1122,
      "గు": 1123,
      "దా": 1124,
      "ానికి": 1125,
      "చేస్త": 1126,
      "##త్త": 1127,
      "్యా": 1128,
      "్థ": 1129,
      "నిర్": 1130,
      "##ర్య": 1131,
      "సమ": 1132,
      "##పు": 1133,
      "##యం": 1134,
      "ాన్ని": 1135,
      "##డ్డ": 1136,
      "చెప్ప": 1137,
      "ామ": 1138,
      "తెలి": 1139,
      "ాడు": 1140,
      "బా": 1141,
      "ాలని": 1142,
      "డం": 1143,
      "లా": 1144,
      "##ంద్ర": 1145,
      "న్న": 1146,
      "ిక": 1147,
      "ాలు": 1148,
      "మె": 1149,
      "క్ర": 1150,
      "తీస": 1151,
      "ుక": 1152,
      "##ద్ద": 1153,
      "ద్": 1154,
      "అవ": 1155,
      "ధిక": 1156,
      "##లా": 1157,
      "ాయ": 1158,
      "ల్ల": 1159,
      "##పో": 1160,
      "##ంబ": 1161,
      "##ందని": 1162,
      "ిల్ల": 1163,
      "ార్టీ": 1164,
      "ుడు": 1165,
      "##గు": 1166,
      "రెడ్డ": 1167,
      "##త్వ": 1168,
      "భు": 1169,
      "భుత్వ": 1170,
      "##తే": 1171,
      "ారం": 1172,
      "ఆయ": 1173,
      "దీ": 1174,
      "ల్": 1175,
      "ధికార": 1176,
      "##మ్మ": 1177,
      "##షన్": 1178,
      "##మి": 1179,
      "తీసుక": 1180,
      "ంద": 1181,
      "##రో": 1182,
      "ది": 1183,
      "పే": 1184,
      "వచ్చ": 1185,
      "##ంటి": 1186,
      "##ాన": 1187,
      "##ారి": 1188,
      "తన": 1189,
      "##ష్": 1190,
      "మే": 1191,
      "అయి": 1192,
      "ఒక": 1193,
      "కల": 1194,
      "శా": 1195,
      "దేశ": 1196,
      "రు": 1197,
      "##ించ": 1198,
      "ప్ప": 1199,
      "రెస్": 1200,
      "భార": 1201,
      "వై": 1202,
      "మీ": 1203,
      "ారని": 1204,
      "రాజ": 1205,
      "పరి": 1206,
      "ఆయన": 1207,
      "త్": 1208,
      "ట్ల": 1209,
      "##నా": 1210,
      "##ఆర్": 1211,
      "్లో": 1212,
      "##ంధ": 1213,
      "ందుకు": 1214,
      "రోజ": 1215,
      "ఉంట": 1216,
      "##వి": 1217,
      "రాష్ట": 1218,
      "రూ": 1219,
      "##త్రి": 1220,
      "అని": 1221,
      "స్ట": 1222,
      "ాబ": 1223,
      "ుంట": 1224,
      "ోంది": 1225,
      "చి": 1226,
      "##వు": 1227,
      "చూ": 1228,
      "##ారం": 1229,
      "ింగ్": 1230,
      "గ్ర": 1231,
      "##నీ": 1232,
      "##యో": 1233,
      "ఉండ": 1234,
      "మంది": 1235,
      "##్గ": 1236,
      "ీఆర్": 1237,
      "ఎన్ని": 1238,
      "ోర్": 1239,
      "నె": 1240,
      "##సి": 1241,
      "##ధ్య": 1242,
      "వర": 1243,
      "##ర్త": 1244,
      "తెలిప": 1245,
      "##సం": 1246,
      "లోని": 1247,
      "##సు": 1248,
      "యా": 1249,
      "ట్": 1250,
      "##ైన": 1251,
      "టీ": 1252,
      "ంట": 1253,
      "డీ": 1254,
      "##ప్": 1255,
      "అంద": 1256,
      "్వ": 1257,
      "##రిగ": 1258,
      "చ్చ": 1259,
      "##పా": 1260,
      "##ంక": 1261,
      "##యా": 1262,
      "పు": 1263,
      "ంత్రి": 1264,
      "పోల": 1265,
      "##ంలో": 1266,
      "##బ్": 1267,
      "పెట్ట": 1268,
      "తీ": 1269,
      "##ంప": 1270,
      "డా": 1271,
      "కాంగ్": 1272,
      "##్యే": 1273,
      "##తో": 1274,
      "ిని": 1275,
      "భా": 1276,
      "ిల్లా": 1277,
      "లి": 1278,
      "శ్ర": 1279,
      "ప్రజ": 1280,
      "కోసం": 1281,
      "ట్ట": 1282,
      "తా": 1283,
      "వ్య": 1284,
      "##బు": 1285,
      "లేద": 1286,
      "మి": 1287,
      "ఆర్": 1288,
      "సె": 1289,
      "ాబా": 1290,
      "హై": 1291,
      "రెండ": 1292,
      "లంగా": 1293,
      "##వర": 1294,
      "ాల్": 1295,
      "##ీయ": 1296,
      "ఇప్ప": 1297,
      "చేసుక": 1298,
      "ీజ": 1299,
      "పాటు": 1300,
      "అన్న": 1301,
      "ోవ": 1302,
      "##ర్శ": 1303,
      "ాబాద్": 1304,
      "ండ": 1305,
      "##తు": 1306,
      "##క్త": 1307,
      "విష": 1308,
      "లక్ష": 1309,
      "ఎం": 1310,
      "వీ": 1311,
      "డంతో": 1312,
      "లంగాణ": 1313,
      "చేసిన": 1314,
      "కుండ": 1315,
      "మహ": 1316,
      "లను": 1317,
      "ాజ": 1318,
      "ట్ర": 1319,
      "లేదు": 1320,
      "అభ": 1321,
      "అయితే": 1322,
      "##ండి": 1323,
      "##స్ట": 1324,
      "మూ": 1325,
      "పాల": 1326,
      "ముంద": 1327,
      "ంగ": 1328,
      "కుండా": 1329,
      "##ఖ్య": 1330,
      "దు": 1331,
      "##తా": 1332,
      "##ద్య": 1333,
      "్ట": 1334,
      "వస్త": 1335,
      "ఎస్": 1336,
      "క్కు": 1337,
      "##లీ": 1338,
      "ఇచ్చ": 1339,
      "##కా": 1340,
      "##సీ": 1341,
      "##క్ట": 1342,
      "కార్య": 1343,
      "తర్": 1344,
      "చంద్ర": 1345,
      "యూ": 1346,
      "##ారణ": 1347,
      "ారి": 1348,
      "ేంద్ర": 1349,
      "టిక": 1350,
      "మొ": 1351,
      "##రం": 1352,
      "##శ్": 1353,
      "తర్వా": 1354,
      "జీ": 1355,
      "##ాయ": 1356,
      "ంప": 1357,
      "ామని": 1358,
      "ాలి": 1359,
      "కాల": 1360,
      "##తుల": 1361,
      "ీజే": 1362,
      "ీడి": 1363,
      "తి": 1364,
      "సు": 1365,
      "ినిమా": 1366,
      "చాల": 1367,
      "ైన": 1368,
      "నీ": 1369,
      "టి": 1370,
      "య్య": 1371,
      "అనే": 1372,
      "ద్ద": 1373,
      "ీజేపీ": 1374,
      "పోలీస": 1375,
      "ప్రజల": 1376,
      "మో": 1377,
      "సూ": 1378,
      "తమ": 1379,
      "్యక్త": 1380,
      "##ఎం": 1381,
      "ట్లు": 1382,
      "##ంట్": 1383,
      "నిర్వ": 1384,
      "మైన": 1385,
      "మరో": 1386,
      "దే": 1387,
      "##గ్గ": 1388,
      "డ్": 1389,
      "##చ్": 1390,
      "చాలా": 1391,
      "##రుగ": 1392,
      "##ిత": 1393,
      "##మె": 1394,
      "జా": 1395,
      "ఉంది": 1396,
      "ఏర్": 1397,
      "శ్రీ": 1398,
      "తే": 1399,
      "వెళ్ల": 1400,
      "చెంద": 1401,
      "##జీ": 1402,
      "బాబు": 1403,
      "##తం": 1404,
      "##ర్చ": 1405,
      "రీ": 1406,
      "ిపో": 1407,
      "జన": 1408,
      "రే": 1409,
      "నున్న": 1410,
      "వ్యా": 1411,
      "##ర్క": 1412,
      "సో": 1413,
      "పడ": 1414,
      "##నిక": 1415,
      "నేత": 1416,
      "##టన": 1417,
      "సీఎం": 1418,
      "##వే": 1419,
      "అంట": 1420,
      "లాంటి": 1421,
      "ఎమ్మ": 1422,
      "నెల": 1423,
      "##ర్గ": 1424,
      "క్ష": 1425,
      "ాలను": 1426,
      "పూ": 1427,
      "##ామ": 1428,
      "ెల": 1429,
      "ల్లో": 1430,
      "ాన": 1431,
      "ాల్ల": 1432,
      "ాల్లో": 1433,
      "క్కువ": 1434,
      "విజ": 1435,
      "##ల్లి": 1436,
      "మ్మ": 1437,
      "##ర్ల": 1438,
      "##దీ": 1439,
      "మధ్య": 1440,
      "##ోగ": 1441,
      "కోట్ల": 1442,
      "కీ": 1443,
      "సమయం": 1444,
      "స్ప": 1445,
      "##బంధ": 1446,
      "రెండు": 1447,
      "##ఫ్": 1448,
      "టు": 1449,
      "సభ": 1450,
      "్క": 1451,
      "కలి": 1452,
      "ుందని": 1453,
      "##ారా": 1454,
      "రై": 1455,
      "క్క": 1456,
      "క్రమ": 1457,
      "ాహ": 1458,
      "పొ": 1459,
      "మాట్ల": 1460,
      "ఆమె": 1461,
      "్రా": 1462,
      "ప్రతి": 1463,
      "లె": 1464,
      "ిత": 1465,
      "##ీసీ": 1466,
      "నగ": 1467,
      "దీంతో": 1468,
      "క్ట": 1469,
      "హైద": 1470,
      "##మార": 1471,
      "వరకు": 1472,
      "##ద్ధ": 1473,
      "##య్య": 1474,
      "గత": 1475,
      "దర్శ": 1476,
      "##క్కడ": 1477,
      "జరిగ": 1478,
      "##దే": 1479,
      "ెన్": 1480,
      "ించి": 1481,
      "పని": 1482,
      "రోజుల": 1483,
      "ళ్ల": 1484,
      "హైదర": 1485,
      "ాద": 1486,
      "రణ": 1487,
      "పి": 1488,
      "##మ్": 1489,
      "##నిప": 1490,
      "ొన్న": 1491,
      "డానిక": 1492,
      "##కాశ": 1493,
      "కానీ": 1494,
      "ప్": 1495,
      "కుమార": 1496,
      "ుగా": 1497,
      "మరి": 1498,
      "##ధి": 1499,
      "ముందు": 1500,
      "్థాన": 1501,
      "ాం": 1502,
      "##స్థ": 1503,
      "ెల్యే": 1504,
      "ోర్టు": 1505,
      "రిక": 1506,
      "##దల": 1507,
      "ప్రా": 1508,
      "పెద్ద": 1509,
      "ర్ల": 1510,
      "ినట్ల": 1511,
      "అవకాశ": 1512,
      "##బ్బ": 1513,
      "వారి": 1514,
      "ాడ": 1515,
      "హించ": 1516,
      "ేషన్": 1517,
      "కర": 1518,
      "ిప": 1519,
      "సంబంధ": 1520,
      "##రా": 1521,
      "చేసి": 1522,
      "##ాన్": 1523,
      "బీ": 1524,
      "నాయ": 1525,
      "ాయని": 1526,
      "యి": 1527,
      "కొత్త": 1528,
      "##కర": 1529,
      "##ల్లో": 1530,
      "ఏర్పా": 1531,
      "బి": 1532,
      "రించ": 1533,
      "##సా": 1534,
      "హి": 1535,
      "పీ": 1536,
      "పట్ట": 1537,
      "కేస": 1538,
      "వేల": 1539,
      "##సర": 1540,
      "లకు": 1541,
      "ుకు": 1542,
      "##ివ": 1543,
      "గ్రామ": 1544,
      "ింద": 1545,
      "జగ": 1546,
      "దీని": 1547,
      "తొ": 1548,
      "గుర": 1549,
      "్యూ": 1550,
      "బె": 1551,
      "##్వర": 1552,
      "ండి": 1553,
      "కృ": 1554,
      "ండ్": 1555,
      "గంట": 1556,
      "##వం": 1557,
      "అంత": 1558,
      "ఇది": 1559,
      "భారీ": 1560,
      "##వేశ": 1561,
      "రోజు": 1562,
      "ూర్": 1563,
      "ిక్": 1564,
      "్ప": 1565,
      "సహ": 1566,
      "సారి": 1567,
      "అత": 1568,
      "యు": 1569,
      "నియో": 1570,
      "తప్ప": 1571,
      "్చ": 1572,
      "ియ": 1573,
      "మన": 1574,
      "ద్య": 1575,
      "ాణ": 1576,
      "అస": 1577,
      "వల్ల": 1578,
      "##రే": 1579,
      "ఇవ": 1580,
      "జగన్": 1581,
      "భూ": 1582,
      "మార": 1583,
      "##మాన": 1584,
      "నిర్మ": 1585,
      "ంచ": 1586,
      "ెలు": 1587,
      "స్వ": 1588,
      "##వల": 1589,
      "ారంభ": 1590,
      "ెంట": 1591,
      "విషయ": 1592,
      "ంత": 1593,
      "లేదని": 1594,
      "ేశ": 1595,
      "##యల": 1596,
      "నూ": 1597,
      "ప్రక": 1598,
      "ద్యోగ": 1599,
      "హె": 1600,
      "##ద్ర": 1601,
      "##దేశ": 1602,
      "##ధాన": 1603,
      "అభ్య": 1604,
      "ిగ": 1605,
      "ువ": 1606,
      "్థి": 1607,
      "కనిప": 1608,
      "ఇవ్వ": 1609,
      "కావ": 1610,
      "వ్యాప": 1611,
      "గ్": 1612,
      "పద": 1613,
      "##్యూ": 1614,
      "చేసే": 1615,
      "ొన్ని": 1616,
      "రావు": 1617,
      "్వారా": 1618,
      "అమ": 1619,
      "రామ": 1620,
      "విద్య": 1621,
      "వారు": 1622,
      "##ండ్": 1623,
      "ిజ": 1624,
      "ప్రకట": 1625,
      "ీఆర్ఎ": 1626,
      "కపో": 1627,
      "చూస": 1628,
      "విజయ": 1629,
      "జ్": 1630,
      "ొత్త": 1631,
      "రిగ": 1632,
      "బు": 1633,
      "ర్య": 1634,
      "ీడియ": 1635,
      "##పడ": 1636,
      "ఇక": 1637,
      "చెబ": 1638,
      "ుటు": 1639,
      "ుటుంబ": 1640,
      "డు": 1641,
      "కోర": 1642,
      "గంటల": 1643,
      "టె": 1644,
      "స్థ": 1645,
      "నాయక": 1646,
      "##ాని": 1647,
      "ూర్తి": 1648,
      "ూరు": 1649,
      "నిర్ణ": 1650,
      "శాఖ": 1651,
      "ాచ": 1652,
      "లక్షల": 1653,
      "సే": 1654,
      "కె": 1655,
      "పల్లి": 1656,
      "పేర్క": 1657,
      "చేర": 1658,
      "అన": 1659,
      "ర్థ": 1660,
      "చెబుత": 1661,
      "అభ్యర": 1662,
      "గె": 1663,
      "జరుగ": 1664,
      "పరిస": 1665,
      "మహి": 1666,
      "కారణ": 1667,
      "ుర": 1668,
      "ినా": 1669,
      "బో": 1670,
      "ిందని": 1671,
      "##డుత": 1672,
      "ఏపీ": 1673,
      "ాగ": 1674,
      "##రుల": 1675,
      "##ాలు": 1676,
      "నో": 1677,
      "్రమా": 1678,
      "తర": 1679,
      "##ప్ర": 1680,
      "ుడి": 1681,
      "ేప": 1682,
      "ుడ": 1683,
      "తగ్గ": 1684,
      "మహిళ": 1685,
      "మండ": 1686,
      "ొన": 1687,
      "మెంట్": 1688,
      "పోటీ": 1689,
      "##ందర": 1690,
      "ప్రస": 1691,
      "##ంటే": 1692,
      "సై": 1693,
      "యత్": 1694,
      "హా": 1695,
      "ాత్ర": 1696,
      "ంజ": 1697,
      "వద్ద": 1698,
      "ెలుగు": 1699,
      "ఎన్": 1700,
      "ప్ల": 1701,
      "అవుత": 1702,
      "మాజీ": 1703,
      "్తుత": 1704,
      "్తుతం": 1705,
      "ెస్": 1706,
      "ఇన్": 1707,
      "##తర": 1708,
      "భారత": 1709,
      "ిచ": 1710,
      "భారత్": 1711,
      "అయ్య": 1712,
      "నిర": 1713,
      "బ్": 1714,
      "షా": 1715,
      "ఇండి": 1716,
      "మొద": 1717,
      "గి": 1718,
      "ంది": 1719,
      "ొచ్చ": 1720,
      "భి": 1721,
      "సంస్థ": 1722,
      "అలా": 1723,
      "##లిచ": 1724,
      "కేట": 1725,
      "##ిల్ల": 1726,
      "యత్న": 1727,
      "మంచి": 1728,
      "##వత": 1729,
      "ఢిల్ల": 1730,
      "్లీ": 1731,
      "ందులో": 1732,
      "##డీ": 1733,
      "ార్థ": 1734,
      "ిపోయ": 1735,
      "ిమ": 1736,
      "మ్": 1737,
      "త్ర": 1738,
      "ుని": 1739,
      "##ము": 1740,
      "##పై": 1741,
      "ిన్": 1742,
      "ుంద": 1743,
      "ర్మ": 1744,
      "బ్యా": 1745,
      "కల్లో": 1746,
      "##తీయ": 1747,
      "ఎంపీ": 1748,
      "లీ": 1749,
      "ర్ష": 1750,
      "ేస": 1751,
      "తీవ": 1752,
      "విశ": 1753,
      "శాతం": 1754,
      "ేవం": 1755,
      "ేవంత్": 1756,
      "##ంబర్": 1757,
      "తీవ్ర": 1758,
      "ఇండియ": 1759,
      "ధర": 1760,
      "ధాని": 1761,
      "వాడ": 1762,
      "పవ": 1763,
      "ాలో": 1764,
      "తెలు": 1765,
      "్టే": 1766,
      "##గుల": 1767,
      "రిగిన": 1768,
      "మావేశ": 1769,
      "ఒక్క": 1770,
      "చ్చిన": 1771,
      "##వీ": 1772,
      "ులకు": 1773,
      "్యాచ్": 1774,
      "లై": 1775,
      "ుండ": 1776,
      "##రీ": 1777,
      "మీద": 1778,
      "కీల": 1779,
      "మూడు": 1780,
      "సందర": 1781,
      "రోగ": 1782,
      "తెలుస": 1783,
      "ించిన": 1784,
      "ేసు": 1785,
      "్రాంత": 1786,
      "డీపీ": 1787,
      "10": 1788,
      "ాత్రం": 1789,
      "్ల": 1790,
      "ఇస్త": 1791,
      "స్వా": 1792,
      "వెల్ల": 1793,
      "ఉప": 1794,
      "ాట": 1795,
      "ఫి": 1796,
      "తేదీ": 1797,
      "కీలక": 1798,
      "ాల్స": 1799,
      "అన్ని": 1800,
      "రాశ": 1801,
      "వాళ్ల": 1802,
      "ాంత": 1803,
      "ునే": 1804,
      "గుర్త": 1805,
      "త్యే": 1806,
      "ఆధ": 1807,
      "కలిసి": 1808,
      "త్యేక": 1809,
      "సూచ": 1810,
      "వర్": 1811,
      "ుఖ్య": 1812,
      "పవన్": 1813,
      "మండల": 1814,
      "కవ": 1815,
      "దేశ్": 1816,
      "##సాగ": 1817,
      "ొనసాగ": 1818,
      "ఘటన": 1819,
      "సాధ": 1820,
      "త్వ": 1821,
      "ిడు": 1822,
      "ిడుదల": 1823,
      "ఉద": 1824,
      "క్యా": 1825,
      "##భా": 1826,
      "రంగ": 1827,
      "్లా": 1828,
      "ుకో": 1829,
      "రోగ్య": 1830,
      "లతో": 1831,
      "రావ": 1832,
      "ట్టు": 1833,
      "మాత్ర": 1834,
      "##విత": 1835,
      "పంప": 1836,
      "ీడియో": 1837,
      "##చార": 1838,
      "ైసీ": 1839,
      "ార్క": 1840,
      "ఉందని": 1841,
      "ంలోని": 1842,
      "జర": 1843,
      "చో": 1844,
      "ండ్ల": 1845,
      "##ియ": 1846,
      "##కూ": 1847,
      "దేవ": 1848,
      "నియోజ": 1849,
      "్రశ్": 1850,
      "్రశ్న": 1851,
      "టికే": 1852,
      "##ంగళ": 1853,
      "ాజా": 1854,
      "ానని": 1855,
      "్మ": 1856,
      "రైతుల": 1857,
      "కారణం": 1858,
      "వచ్చే": 1859,
      "డ్ర": 1860,
      "##ృష్ట": 1861,
      "##డం": 1862,
      "##జ్": 1863,
      "వైపు": 1864,
      "##త్య": 1865,
      "్రమాద": 1866,
      "##టో": 1867,
      "గో": 1868,
      "ైసీపీ": 1869,
      "్రధాన": 1870,
      "తెలిస": 1871,
      "లలో": 1872,
      "ెళ్ల": 1873,
      "్రి": 1874,
      "ైనా": 1875,
      "రక": 1876,
      "##డారు": 1877,
      "కవర్గ": 1878,
      "దాని": 1879,
      "కర్": 1880,
      "్యం": 1881,
      "ించే": 1882,
      "ాలకు": 1883,
      "గురు": 1884,
      "వార": 1885,
      "ుఖ్యమ": 1886,
      "##ఎస్": 1887,
      "ేష్": 1888,
      "##ట్టు": 1889,
      "్యంలో": 1890,
      "ించుక": 1891,
      "ున": 1892,
      "చూప": 1893,
      "పడుత": 1894,
      "##గి": 1895,
      "ాస్": 1896,
      "ాప": 1897,
      "##ుడ": 1898,
      "కారం": 1899,
      "ాన్": 1900,
      "అధ": 1901,
      "ిం": 1902,
      "మస్": 1903,
      "బయ": 1904,
      "ివర": 1905,
      "ెయి": 1906,
      "్భ": 1907,
      "్వా": 1908,
      "డించ": 1909,
      "కాదు": 1910,
      "రెస్ట": 1911,
      "పాల్గ": 1912,
      "్రీ": 1913,
      "డె": 1914,
      "ుబ": 1915,
      "ప్పటి": 1916,
      "##ష్ణ": 1917,
      "##వాస": 1918,
      "చిన్న": 1919,
      "త్త": 1920,
      "##పత": 1921,
      "##ెంబ": 1922,
      "కృష్ణ": 1923,
      "నిల": 1924,
      "తీర": 1925,
      "కింద": 1926,
      "జూ": 1927,
      "##త్స": 1928,
      "అసెంబ": 1929,
      "అవసర": 1930,
      "వ్వ": 1931,
      "చై": 1932,
      "కేసు": 1933,
      "##కీయ": 1934,
      "ాజకీయ": 1935,
      "యం": 1936,
      "్రప": 1937,
      "ాల్సి": 1938,
      "ఫో": 1939,
      "ాచారం": 1940,
      "ొత్తం": 1941,
      "మృ": 1942,
      "నుంది": 1943,
      "ిల్": 1944,
      "పరిశ": 1945,
      "నుండి": 1946,
      "వంటి": 1947,
      "హీ": 1948,
      "##రుక": 1949,
      "పేట": 1950,
      "##రిక": 1951,
      "్ష": 1952,
      "##ర్మ": 1953,
      "ోయ": 1954,
      "్రంలో": 1955,
      "ిమర్శ": 1956,
      "##వ్": 1957,
      "్రపంచ": 1958,
      "జరగ": 1959,
      "ుప": 1960,
      "్థితి": 1961,
      "్భంగా": 1962,
      "ేపట్ట": 1963,
      "చేరుక": 1964,
      "##గే": 1965,
      "నగర్": 1966,
      "సర్": 1967,
      "ేలా": 1968,
      "ఇంటి": 1969,
      "ోడ్": 1970,
      "వేస": 1971,
      "##వరి": 1972,
      "ంపె": 1973,
      "లుగు": 1974,
      "##ివృ": 1975,
      "ాంతాల": 1976,
      "ిరు": 1977,
      "చిత్ర": 1978,
      "దగ్గ": 1979,
      "##త్మ": 1980,
      "చర్చ": 1981,
      "సంఘ": 1982,
      "ికి": 1983,
      "ంపెనీ": 1984,
      "ఆదేశ": 1985,
      "బాధ": 1986,
      "నివాస": 1987,
      "బయట": 1988,
      "ఆల": 1989,
      "ుస్త": 1990,
      "లేదా": 1991,
      "ముఖ్య": 1992,
      "ిఫ": 1993,
      "రల్": 1994,
      "పలు": 1995,
      "సోష": 1996,
      "జై": 1997,
      "శి": 1998,
      "అమ్మ": 1999,
      "ఆరో": 2000,
      "తాను": 2001,
      "మస్యల": 2002,
      "లోకి": 2003,
      "పుర": 2004,
      "ోదీ": 2005,
      "ెంబర్": 2006,
      "ాక": 2007,
      "##గ్ర": 2008,
      "ద్ధి": 2009,
      "##స్టు": 2010,
      "##క్ర": 2011,
      "తొలి": 2012,
      "నిజ": 2013,
      "కపోవ": 2014,
      "ారికి": 2015,
      "ఎలా": 2016,
      "సోషల్": 2017,
      "అదే": 2018,
      "అక్కడ": 2019,
      "ేశ్వర": 2020,
      "##ాల్": 2021,
      "బాల": 2022,
      "ైల్": 2023,
      "వుత": 2024,
      "##వర్": 2025,
      "##ణ్": 2026,
      "తల": 2027,
      "పెంచ": 2028,
      "##ార్": 2029,
      "పొంద": 2030,
      "టికీ": 2031,
      "టం": 2032,
      "ితే": 2033,
      "అంటూ": 2034,
      "ింపు": 2035,
      "జాతీయ": 2036,
      "ిచారణ": 2037,
      "ున్నా": 2038,
      "ఇతర": 2039,
      "##ాయి": 2040,
      "విషయం": 2041,
      "వ్యవ": 2042,
      "ేష": 2043,
      "అభివృ": 2044,
      "మని": 2045,
      "అను": 2046,
      "లేక": 2047,
      "డై": 2048,
      "ఏడా": 2049,
      "ఆరోప": 2050,
      "దూ": 2051,
      "మేర": 2052,
      "నేతలు": 2053,
      "ర్యలు": 2054,
      "దగ్గర": 2055,
      "ఫోన్": 2056,
      "హీరో": 2057,
      "మై": 2058,
      "ంటే": 2059,
      "లోనే": 2060,
      "సంవత": 2061,
      "స్పంద": 2062,
      "ర్థిక": 2063,
      "ొంద": 2064,
      "##జు": 2065,
      "ుకోవ": 2066,
      "హత్య": 2067,
      "ఏడాది": 2068,
      "ీర్": 2069,
      "ష్": 2070,
      "స్ట్ర": 2071,
      "ాదా": 2072,
      "మాన": 2073,
      "దాడి": 2074,
      "నేప": 2075,
      "ంతా": 2076,
      "గాంధ": 2077,
      "తెలియ": 2078,
      "జార": 2079,
      "##న్స": 2080,
      "బ్ర": 2081,
      "ాడుత": 2082,
      "ెక్ట": 2083,
      "ిందే": 2084,
      "గాంధీ": 2085,
      "మెరిక": 2086,
      "అలాగే": 2087,
      "##శాల": 2088,
      "గౌ": 2089,
      "ఇదే": 2090,
      "క్ల": 2091,
      "ుంటే": 2092,
      "అం": 2093,
      "అప్ప": 2094,
      "ాధ్య": 2095,
      "రుణ": 2096,
      "నంత": 2097,
      "్తంగా": 2098,
      "్పష్ట": 2099,
      "అంటే": 2100,
      "పేరు": 2101,
      "ిల్లల": 2102,
      "దిగ": 2103,
      "పెరిగ": 2104,
      "ంపై": 2105,
      "ెడ్": 2106,
      "##ప్ట": 2107,
      "తు": 2108,
      "అది": 2109,
      "భ్య": 2110,
      "ోధ": 2111,
      "రుగుల": 2112,
      "అధ్య": 2113,
      "ిలీ": 2114,
      "వివర": 2115,
      "##టిని": 2116,
      "షన్": 2117,
      "వెంక": 2118,
      "ఆడ": 2119,
      "న్యా": 2120,
      "కాలం": 2121,
      "భద్ర": 2122,
      "ెంట్": 2123,
      "యో": 2124,
      "ిట్": 2125,
      "సిద్ధ": 2126,
      "చూడ": 2127,
      "తరు": 2128,
      "డిమా": 2129,
      "అయిన": 2130,
      "ాజాగా": 2131,
      "క్తుల": 2132,
      "ప్రాజ": 2133,
      "ాప్": 2134,
      "సింగ్": 2135,
      "జే": 2136,
      "##సే": 2137,
      "నగర": 2138,
      "దృష్ట": 2139,
      "ంబ": 2140,
      "##సన": 2141,
      "క్షన్": 2142,
      "న్స్": 2143,
      "రాశి": 2144,
      "శివ": 2145,
      "ఇలా": 2146,
      "ర్గ": 2147,
      "ఇబ్బ": 2148,
      "ందుక": 2149,
      "వ్యాఖ": 2150,
      "##ట్టి": 2151,
      "ట్రా": 2152,
      "ఆహ": 2153,
      "##పోయ": 2154,
      "ఉత్త": 2155,
      "ఇంట": 2156,
      "ియా": 2157,
      "ాదాపు": 2158,
      "మెంట": 2159,
      "అమలు": 2160,
      "ిట": 2161,
      "ాక్": 2162,
      "##ోళ": 2163,
      "త్తు": 2164,
      "గతంలో": 2165,
      "క్రమం": 2166,
      "20": 2167,
      "ార్డ": 2168,
      "కూడ": 2169,
      "ేరు": 2170,
      "్తే": 2171,
      "ఏళ్ల": 2172,
      "పూర్": 2173,
      "ఇటీ": 2174,
      "ందోళ": 2175,
      "ప్రజా": 2176,
      "ేసులో": 2177,
      "ందోళన": 2178,
      "ాగంగా": 2179,
      "ేశ్": 2180,
      "##మో": 2181,
      "డబ్": 2182,
      "అనేక": 2183,
      "ికల్": 2184,
      "##నం": 2185,
      "రీక్ష": 2186,
      "వారం": 2187,
      "ెట్": 2188,
      "ాడుతూ": 2189,
      "ఇటీవల": 2190,
      "లెక్ట": 2191,
      "డబ్బు": 2192,
      "ావ": 2193,
      "నంతరం": 2194,
      "గల": 2195,
      "వ్యవహ": 2196,
      "హైక": 2197,
      "ఆఫ్": 2198,
      "##నివ": 2199,
      "సొ": 2200,
      "కౌ": 2201,
      "మూవీ": 2202,
      "కొట్ట": 2203,
      "ఎవర": 2204,
      "్యాంక": 2205,
      "తేల": 2206,
      "బడ": 2207,
      "జట్టు": 2208,
      "మోదు": 2209,
      "ోల": 2210,
      "ేయ": 2211,
      "ోద": 2212,
      "ఆఫ": 2213,
      "వెంకట": 2214,
      "ాలయ": 2215,
      "జి": 2216,
      "ారా": 2217,
      "ాను": 2218,
      "ెంటనే": 2219,
      "భ్యుల": 2220,
      "ందుకే": 2221,
      "శు": 2222,
      "జె": 2223,
      "వైఎస్": 2224,
      "మళ్ల": 2225,
      "ులను": 2226,
      "వాద": 2227,
      "##మోద": 2228,
      "ైంది": 2229,
      "ఫలి": 2230,
      "తరువా": 2231,
      "ఫలిత": 2232,
      "నేను": 2233,
      "కొంత": 2234,
      "ిష": 2235,
      "ీల": 2236,
      "ెత్త": 2237,
      "స్వామ": 2238,
      "రక్ష": 2239,
      "ాదు": 2240,
      "ముగ": 2241,
      "ర్షాల": 2242,
      "నియ": 2243,
      "పోస్ట": 2244,
      "మాట": 2245,
      "స్త": 2246,
      "్రె": 2247,
      "దారుల": 2248,
      "ళ్": 2249,
      "ఆధార": 2250,
      "జారీ": 2251,
      "##క్తి": 2252,
      "వివా": 2253,
      "ష్ట": 2254,
      "వెళ": 2255,
      "ాహు": 2256,
      "##ారు": 2257,
      "నేర": 2258,
      "ెల్": 2259,
      "కల్ప": 2260,
      "##డుక": 2261,
      "##ంజ": 2262,
      "##ేట": 2263,
      "డిప": 2264,
      "గిరి": 2265,
      "చారం": 2266,
      "ంట్ల": 2267,
      "వర్గ": 2268,
      "ినప్ప": 2269,
      "చీ": 2270,
      "##ణా": 2271,
      "నేపథ": 2272,
      "పెరుగ": 2273,
      "అంచ": 2274,
      "భావ": 2275,
      "రాజ్": 2276,
      "బోత": 2277,
      "కంటే": 2278,
      "మొదటి": 2279,
      "ఉత్తర": 2280,
      "##యోగ": 2281,
      "ఎక్": 2282,
      "వు": 2283,
      "వైర": 2284,
      "్యాణ్": 2285,
      "గొ": 2286,
      "్డారు": 2287,
      "నోట": 2288,
      "15": 2289,
      "ేట": 2290,
      "న్యాయ": 2291,
      "జీవిత": 2292,
      "ళ్ళ": 2293,
      "ిర": 2294,
      "ిస్తూ": 2295,
      "రోప": 2296,
      "ోత": 2297,
      "గ్రహ": 2298,
      "##ుడు": 2299,
      "ప్రత": 2300,
      "్తూ": 2301,
      "పర్": 2302,
      "లోక్": 2303,
      "ూపా": 2304,
      "అంచనా": 2305,
      "ూపాయల": 2306,
      "్యక్ష": 2307,
      "డైర": 2308,
      "ొందరు": 2309,
      "ఫొ": 2310,
      "ఫొటో": 2311,
      "ఫిర్య": 2312,
      "పైన": 2313,
      "తల్లి": 2314,
      "ాలన్న": 2315,
      "వైద్య": 2316,
      "క్టర్": 2317,
      "ర్ట": 2318,
      "వస": 2319,
      "ుగ": 2320,
      "పక్ష": 2321,
      "గానే": 2322,
      "ఉదయం": 2323,
      "ిధ": 2324,
      "్టేష": 2325,
      "ింప": 2326,
      "ాది": 2327,
      "ోష": 2328,
      "ుర్త": 2329,
      "##రిగి": 2330,
      "నేతల": 2331,
      "ఆఫీస": 2332,
      "హాజ": 2333,
      "ిపోత": 2334,
      "చెల్ల": 2335,
      "ఆంధ": 2336,
      "ఫ్": 2337,
      "ుర్తు": 2338,
      "ాహుల్": 2339,
      "ఉపయోగ": 2340,
      "ఆంధ్ర": 2341,
      "ిస్తే": 2342,
      "దర్శన": 2343,
      "ెస్ట్": 2344,
      "కుల": 2345,
      "ర్చ": 2346,
      "సర": 2347,
      "న్యూ": 2348,
      "ఎంత": 2349,
      "##పొ": 2350,
      "నెలల": 2351,
      "ర్ర": 2352,
      "డైరె": 2353,
      "లైన్": 2354,
      "హాజర": 2355,
      "చేత": 2356,
      "కాగా": 2357,
      "ార్పు": 2358,
      "##బీ": 2359,
      "డాక్ట": 2360,
      "ివరాల": 2361,
      "డ్డ": 2362,
      "జనసే": 2363,
      "భాగ": 2364,
      "జనసేన": 2365,
      "బంధ": 2366,
      "##రేక": 2367,
      "సంఖ్య": 2368,
      "హిస్త": 2369,
      "మేరకు": 2370,
      "సాగ": 2371,
      "పార్ల": 2372,
      "ర్క": 2373,
      "అతని": 2374,
      "మార్చ": 2375,
      "ిన్న": 2376,
      "ాలుగు": 2377,
      "నిలిచ": 2378,
      "వేద": 2379,
      "ొంది": 2380,
      "ర్ణ": 2381,
      "తరల": 2382,
      "ఆది": 2383,
      "టికె": 2384,
      "మరింత": 2385,
      "్రక": 2386,
      "ామ్": 2387,
      "రెండో": 2388,
      "నల": 2389,
      "టంతో": 2390,
      "వాటి": 2391,
      "క్రిక": 2392,
      "నష్ట": 2393,
      "్డ": 2394,
      "##నుక": 2395,
      "న్ని": 2396,
      "సంగ": 2397,
      "ిక్క": 2398,
      "్టార్": 2399,
      "ిడ": 2400,
      "ార్జ": 2401,
      "ఉండే": 2402,
      "ంక": 2403,
      "వంత": 2404,
      "ోర": 2405,
      "ందర": 2406,
      "తిరేక": 2407,
      "అందు": 2408,
      "సోమ": 2409,
      "కూల": 2410,
      "రోపణ": 2411,
      "ఇంక": 2412,
      "హో": 2413,
      "్థుల": 2414,
      "ాధ": 2415,
      "వాతా": 2416,
      "పాలన": 2417,
      "వాతావ": 2418,
      "ిలో": 2419,
      "12": 2420,
      "సీట్ల": 2421,
      "ాత్రి": 2422,
      "యోగ": 2423,
      "ోత్స": 2424,
      "నంద": 2425,
      "ుమ": 2426,
      "ఏర్పడ": 2427,
      "##నల్": 2428,
      "ంటూ": 2429,
      "##్త": 2430,
      "##సుక": 2431,
      "##ంత్ర": 2432,
      "వార్": 2433,
      "హెచ్": 2434,
      "మళ్లీ": 2435,
      "కేటాయ": 2436,
      "ప్పుడ": 2437,
      "రువు": 2438,
      "మిషన్": 2439,
      "రోపణల": 2440,
      "ుష": 2441,
      "యాత్ర": 2442,
      "ేద": 2443,
      "ోలీ": 2444,
      "ోర్ట": 2445,
      "్స": 2446,
      "ీని": 2447,
      "ఎదు": 2448,
      "మర": 2449,
      "ఎల్": 2450,
      "్లి": 2451,
      "ినీ": 2452,
      "శాంత": 2453,
      "్షుడు": 2454,
      "ేవా": 2455,
      "ఏం": 2456,
      "యించ": 2457,
      "ఎఫ్": 2458,
      "ాట్": 2459,
      "30": 2460,
      "టై": 2461,
      "ాధ్యత": 2462,
      "నర్": 2463,
      "ిల": 2464,
      "ంతో": 2465,
      "ంలోకి": 2466,
      "ంట్": 2467,
      "ుజ": 2468,
      "బస్": 2469,
      "పాత్ర": 2470,
      "ఉంటే": 2471,
      "కష్ట": 2472,
      "అధ్యక": 2473,
      "దర": 2474,
      "సిబ్బ": 2475,
      "లేని": 2476,
      "ిరిగి": 2477,
      "్సర": 2478,
      "అనుక": 2479,
      "కౌంట": 2480,
      "వైరల్": 2481,
      "ైట్": 2482,
      "భార్య": 2483,
      "్రకటన": 2484,
      "ఆలయ": 2485,
      "ఐదు": 2486,
      "##టర్": 2487,
      "మూడ": 2488,
      "ిగా": 2489,
      "ట్వ": 2490,
      "ంత్ర": 2491,
      "్థిత": 2492,
      "బీసీ": 2493,
      "ార్త": 2494,
      "వర్ష": 2495,
      "ార్కె": 2496,
      "కర్త": 2497,
      "ద్దతు": 2498,
      "ీన్": 2499,
      "కమి": 2500,
      "యాద": 2501,
      "##ద్దర": 2502,
      "పన": 2503,
      "పండ": 2504,
      "ఇక్కడ": 2505,
      "ెక్టు": 2506,
      "##ణాట": 2507,
      "ద్ధ": 2508,
      "కట్ట": 2509,
      "గణ": 2510,
      "ిట్ట": 2511,
      "అత్య": 2512,
      "డిస": 2513,
      "ామన్న": 2514,
      "తను": 2515,
      "్యు": 2516,
      "సౌ": 2517,
      "సాయ": 2518,
      "డమ": 2519,
      "విజయం": 2520,
      "ఉంచ": 2521,
      "ోడీ": 2522,
      "్ణాట": 2523,
      "్ణాటక": 2524,
      "కీయ": 2525,
      "సీపీ": 2526,
      "దని": 2527,
      "##జన": 2528,
      "ంట్లో": 2529,
      "ఆలో": 2530,
      "ఆలోచ": 2531,
      "ంద్ర": 2532,
      "##నుగ": 2533,
      "వేయ": 2534,
      "నియోగ": 2535,
      "్రయా": 2536,
      "్రయాణ": 2537,
      "్ని": 2538,
      "ఏపీలో": 2539,
      "ిద": 2540,
      "ువుల": 2541,
      "శుక": 2542,
      "శుక్ర": 2543,
      "ిశ": 2544,
      "క్కడి": 2545,
      "వస్థ": 2546,
      "ాటు": 2547,
      "##య్": 2548,
      "మార్గ": 2549,
      "బుల్": 2550,
      "పూజ": 2551,
      "ాడని": 2552,
      "మంగళ": 2553,
      "ర్న": 2554,
      "ట్టి": 2555,
      "కమిటీ": 2556,
      "విన": 2557,
      "జ్ఞ": 2558,
      "పాట": 2559,
      "్రం": 2560,
      "##ీల": 2561,
      "న్నీ": 2562,
      "ఎక్కడ": 2563,
      "ోలు": 2564,
      "సహాయ": 2565,
      "యువ": 2566,
      "పను": 2567,
      "ైగా": 2568,
      "ిందిత": 2569,
      "ెళ్లి": 2570,
      "ోలీస్": 2571,
      "ీనియ": 2572,
      "మొదల": 2573,
      "దె": 2574,
      "దక్క": 2575,
      "నుమ": 2576,
      "ఎక్స్": 2577,
      "ీమ్": 2578,
      "కిలో": 2579,
      "విశ్వ": 2580,
      "భిమాన": 2581,
      "కీయాల": 2582,
      "ప్లా": 2583,
      "తనకు": 2584,
      "క్షి": 2585,
      "సీబీ": 2586,
      "చట్ట": 2587,
      "##یں": 2588,
      "నాగ": 2589,
      "11": 2590,
      "్రమ": 2591,
      "దర్శక": 2592,
      "ోడ్డు": 2593,
      "భూమి": 2594,
      "మహిళల": 2595,
      "రిష్": 2596,
      "బ్యాట": 2597,
      "ద్దరు": 2598,
      "్రూ": 2599,
      "్పు": 2600,
      "ులో": 2601,
      "ుల్": 2602,
      "హెచ్చ": 2603,
      "నడ": 2604,
      "చోటు": 2605,
      "ఆత్మ": 2606,
      "సార్ల": 2607,
      "##ేమ": 2608,
      "ాలంటే": 2609,
      "పనులు": 2610,
      "ుల్లో": 2611,
      "##డుల": 2612,
      "రాజు": 2613,
      "ఇంకా": 2614,
      "పర్య": 2615,
      "ర్త": 2616,
      "బెంగళ": 2617,
      "##విస": 2618,
      "ైర్": 2619,
      "త్య": 2620,
      "ుక్క": 2621,
      "ర్స్": 2622,
      "కూట": 2623,
      "ారన్న": 2624,
      "ాయ్": 2625,
      "##కిస": 2626,
      "పాకిస": 2627,
      "రహ": 2628,
      "సంత": 2629,
      "ీలో": 2630,
      "కేవల": 2631,
      "కేవలం": 2632,
      "విస్త": 2633,
      "కలిగ": 2634,
      "వేగ": 2635,
      "పరిధి": 2636,
      "చు": 2637,
      "ేమ": 2638,
      "నవ": 2639,
      "రగ": 2640,
      "శుభ": 2641,
      "త్వం": 2642,
      "భావిస": 2643,
      "ీనియర": 2644,
      "ఆరు": 2645,
      "ోక": 2646,
      "తిర": 2647,
      "##స్య": 2648,
      "సమస్య": 2649,
      "వీర": 2650,
      "కూటమి": 2651,
      "వో": 2652,
      "ర్లు": 2653,
      "రవ": 2654,
      "నాథ": 2655,
      "బౌ": 2656,
      "నాడు": 2657,
      "ుకుంట": 2658,
      "ైజ": 2659,
      "దూరం": 2660,
      "వృ": 2661,
      "ైల్వే": 2662,
      "వేశ": 2663,
      "ేధ": 2664,
      "ఆదివ": 2665,
      "వచ్చి": 2666,
      "బాధిత": 2667,
      "కన": 2668,
      "న్ను": 2669,
      "ేజీ": 2670,
      "హింద": 2671,
      "ప్లే": 2672,
      "ోందని": 2673,
      "ర్వ": 2674,
      "తమి": 2675,
      "ార్ట": 2676,
      "రిప": 2677,
      "ారిని": 2678,
      "ీనా": 2679,
      "ేజ్": 2680,
      "సరి": 2681,
      "రోడ్": 2682,
      "ిబ": 2683,
      "ెయిల్": 2684,
      "ిలి": 2685,
      "నిమి": 2686,
      "మృతి": 2687,
      "కం": 2688,
      "ాళ": 2689,
      "ఖర్చ": 2690,
      "##టర్ల": 2691,
      "సిద్ద": 2692,
      "సుప్ర": 2693,
      "గూ": 2694,
      "ానీ": 2695,
      "ిటీ": 2696,
      "సన్": 2697,
      "్రవేశ": 2698,
      "ాయిలో": 2699,
      "పోరా": 2700,
      "##మల": 2701,
      "ధరల": 2702,
      "మోహ": 2703,
      "మహా": 2704,
      "అంశ": 2705,
      "సూర్య": 2706,
      "##యారు": 2707,
      "దుర్క": 2708,
      "ేక్ష": 2709,
      "ఫీ": 2710,
      "ఫ్యా": 2711,
      "నిధ": 2712,
      "బస్సు": 2713,
      "ేది": 2714,
      "రిస్త": 2715,
      "జీవ": 2716,
      "రమ": 2717,
      "తమిళ": 2718,
      "చ్": 2719,
      "14": 2720,
      "నటి": 2721,
      "విధాన": 2722,
      "ారాయ": 2723,
      "కొనుగ": 2724,
      "భిప్ర": 2725,
      "ఎంతో": 2726,
      "ధాన్": 2727,
      "నని": 2728,
      "ధాన్య": 2729,
      "చ్చు": 2730,
      "హర": 2731,
      "తాము": 2732,
      "ైల": 2733,
      "వరద": 2734,
      "్థాయి": 2735,
      "##ికి": 2736,
      "సొంత": 2737,
      "జూన్": 2738,
      "మీరు": 2739,
      "కాద": 2740,
      "దేశాల": 2741,
      "నై": 2742,
      "తిని": 2743,
      "ిరుమల": 2744,
      "ారాయణ": 2745,
      "బాగా": 2746,
      "##ఖల": 2747,
      "బహ": 2748,
      "చివరి": 2749,
      "ిలీజ్": 2750,
      "విధ": 2751,
      "##లువ": 2752,
      "టా": 2753,
      "దొ": 2754,
      "యర్": 2755,
      "50": 2756,
      "్న": 2757,
      "బట్టి": 2758,
      "తొల": 2759,
      "ొని": 2760,
      "##ర్వ": 2761,
      "అంతే": 2762,
      "ాలే": 2763,
      "మరియ": 2764,
      "అర్": 2765,
      "ఓట్ల": 2766,
      "##విధ": 2767,
      "లపై": 2768,
      "గ్యా": 2769,
      "వచ్చు": 2770,
      "ోదా": 2771,
      "##ినే": 2772,
      "్తాన్": 2773,
      "నాటి": 2774,
      "పక్క": 2775,
      "ాటులో": 2776,
      "అందుబ": 2777,
      "ఓడ": 2778,
      "్రచార": 2779,
      "کی": 2780,
      "ఒకర": 2781,
      "ప్రేమ": 2782,
      "వివిధ": 2783,
      "సంజ": 2784,
      "వెళ్త": 2785,
      "ోన్": 2786,
      "పథ": 2787,
      "మవ": 2788,
      "గుండ": 2789,
      "ಲ್": 2790,
      "##కూల": 2791,
      "ొక్క": 2792,
      "ుతూ": 2793,
      "దిల": 2794,
      "బుధ": 2795,
      "రిట": 2796,
      "్యలు": 2797,
      "కోల": 2798,
      "ైవే": 2799,
      "డియ": 2800,
      "మరియు": 2801,
      "అక్ర": 2802,
      "ార్చ": 2803,
      "విర": 2804,
      "ర్ధ": 2805,
      "వరకూ": 2806,
      "నీటి": 2807,
      "భావం": 2808,
      "యన": 2809,
      "చర్య": 2810,
      "ుచ": 2811,
      "టో": 2812,
      "భద్రత": 2813,
      "##వార": 2814,
      "ఖా": 2815,
      "ఆశ": 2816,
      "సీసీ": 2817,
      "ేనే": 2818,
      "సర్వే": 2819,
      "ర్కార": 2820,
      "ఆహార": 2821,
      "ెర": 2822,
      "మవుత": 2823,
      "ొప్ప": 2824,
      "ంభ": 2825,
      "వేదిక": 2826,
      "నింగ్": 2827,
      "ఖర్చు": 2828,
      "లం": 2829,
      "##ూర": 2830,
      "ంట్ర": 2831,
      "పాద": 2832,
      "ుకుని": 2833,
      "గమ": 2834,
      "్రము": 2835,
      "చైర్మ": 2836,
      "్రముఖ": 2837,
      "కప్": 2838,
      "##జా": 2839,
      "దండ": 2840,
      "సోమవ": 2841,
      "అక్రమ": 2842,
      "ీబ": 2843,
      "రద్": 2844,
      "కర్తల": 2845,
      "భవ": 2846,
      "అయ": 2847,
      "ీచ": 2848,
      "బౌల": 2849,
      "ఫ్ల": 2850,
      "నిధుల": 2851,
      "శిక్ష": 2852,
      "జైలు": 2853,
      "రైతు": 2854,
      "క్షిణ": 2855,
      "ోహ": 2856,
      "హామ": 2857,
      "ేళ్ల": 2858,
      "అనేది": 2859,
      "రిష్క": 2860,
      "హామీ": 2861,
      "25": 2862,
      "24": 2863,
      "్తు": 2864,
      "తొలగ": 2865,
      "నుగ": 2866,
      "ుండగా": 2867,
      "ఫ్ర": 2868,
      "విమాన": 2869,
      "సెప్ట": 2870,
      "ిధంగా": 2871,
      "ర్గాల": 2872,
      "ెన్స్": 2873,
      "తినిధ": 2874,
      "త్తి": 2875,
      "్యాండ": 2876,
      "లోక": 2877,
      "ధినే": 2878,
      "న్య": 2879,
      "క్రియ": 2880,
      "వీరి": 2881,
      "బిజ": 2882,
      "ధినేత": 2883,
      "న్ల": 2884,
      "ాటిని": 2885,
      "పురం": 2886,
      "ాధారణ": 2887,
      "వయ": 2888,
      "ింట": 2889,
      "ఫ్ట": 2890,
      "లువు": 2891,
      "అతి": 2892,
      "ప్రభా": 2893,
      "అండ్": 2894,
      "స్ట్": 2895,
      "మల్ల": 2896,
      "డమే": 2897,
      "ొడ": 2898,
      "నివే": 2899,
      "ముంబ": 2900,
      "ిష్ట": 2901,
      "ిష్": 2902,
      "ీక": 2903,
      "రకాల": 2904,
      "ంగ్": 2905,
      "ెక్": 2906,
      "సూప": 2907,
      "సాయంత": 2908,
      "నివేద": 2909,
      "నుకూల": 2910,
      "ిద్యా": 2911,
      "ఎల": 2912,
      "వేళ": 2913,
      "ూల": 2914,
      "ెగ": 2915,
      "ిజర్వ": 2916,
      "ఇజ": 2917,
      "్స్": 2918,
      "ఇజ్ర": 2919,
      "ండిపడ": 2920,
      "సంక్ష": 2921,
      "సభ్య": 2922,
      "డే": 2923,
      "న్స": 2924,
      "ియల్": 2925,
      "ీస్": 2926,
      "సామ": 2927,
      "ిమా": 2928,
      "బయటకు": 2929,
      "విచార": 2930,
      "ఎన్న": 2931,
      "ిస": 2932,
      "ిల్లు": 2933,
      "ఎయి": 2934,
      "లర్": 2935,
      "ేస్త": 2936,
      "్వామి": 2937,
      "ఏక": 2938,
      "ీమ": 2939,
      "ంగారం": 2940,
      "క్టో": 2941,
      "ర్జు": 2942,
      "ర్జున": 2943,
      "వల": 2944,
      "ాండ": 2945,
      "ీర": 2946,
      "ీల్": 2947,
      "ీవు": 2948,
      "పథక": 2949,
      "గడ": 2950,
      "పోయ": 2951,
      "కంప": 2952,
      "తండ": 2953,
      "టే": 2954,
      "ాయె": 2955,
      "వీటి": 2956,
      "యువత": 2957,
      "లుసుక": 2958,
      "ిస్": 2959,
      "నియమ": 2960,
      "##ాలి": 2961,
      "దర్య": 2962,
      "య్యే": 2963,
      "విక్ర": 2964,
      "ొచ్చు": 2965,
      "నమోద": 2966,
      "మంగళవ": 2967,
      "ఉంద": 2968,
      "నక": 2969,
      "శనివ": 2970,
      "త్వర": 2971,
      "స్తుల": 2972,
      "సిటీ": 2973,
      "టీసీ": 2974,
      "ూత": 2975,
      "వాహ": 2976,
      "మృత": 2977,
      "ేరుతో": 2978,
      "ీవుడ్": 2979,
      "వ్": 2980,
      "కృత": 2981,
      "కవిత": 2982,
      "ిజన్": 2983,
      "ఓవర్": 2984,
      "ులతో": 2985,
      "ర్మిక": 2986,
      "ాప్తు": 2987,
      "నేడు": 2988,
      "లీడ": 2989,
      "వుల": 2990,
      "క్కడ": 2991,
      "గురువ": 2992,
      "తేదీన": 2993,
      "##ెంట": 2994,
      "ఒకే": 2995,
      "దెబ్బ": 2996,
      "వాల్": 2997,
      "గెలిచ": 2998,
      "ాలనే": 2999,
      "పాత": 3000,
      "దాడుల": 3001,
      "ఫె": 3002,
      "క్టోబ": 3003,
      "ేసులు": 3004,
      "ప్రియ": 3005,
      "మారు": 3006,
      "టెక్": 3007,
      "నాలు": 3008,
      "శరీ": 3009,
      "శరీర": 3010,
      "ంధ": 3011,
      "నం": 3012,
      "ిచ్చ": 3013,
      "సిం": 3014,
      "మణ": 3015,
      "ోత్సవ": 3016,
      "రద్దు": 3017,
      "్ట్ర": 3018,
      "చీఫ్": 3019,
      "ార్చి": 3020,
      "ఏద": 3021,
      "విలువ": 3022,
      "ారిటీ": 3023,
      "మోహన్": 3024,
      "సింగ": 3025,
      "ంక్ష": 3026,
      "రియా": 3027,
      "గెల": 3028,
      "నిపోయ": 3029,
      "దశ": 3030,
      "లస": 3031,
      "ెల్సీ": 3032,
      "స్వీ": 3033,
      "ిగత": 3034,
      "ఇంత": 3035,
      "ఓటు": 3036,
      "జర్": 3037,
      "దళ": 3038,
      "ేల": 3039,
      "ాల్ప": 3040,
      "వస్తే": 3041,
      "రిత్ర": 3042,
      "ఎకర": 3043,
      "మనం": 3044,
      "ిటల్": 3045,
      "సంజయ్": 3046,
      "ేక్": 3047,
      "ఇంటర్": 3048,
      "ాయెల్": 3049,
      "అడి": 3050,
      "బల": 3051,
      "ిండ": 3052,
      "రాయ": 3053,
      "ికు": 3054,
      "ాత్మ": 3055,
      "ీష్": 3056,
      "యిన్": 3057,
      "నరే": 3058,
      "అభి": 3059,
      "పనుల": 3060,
      "ుబడ": 3061,
      "18": 3062,
      "నియా": 3063,
      "ప్షన్": 3064,
      "ఎత్త": 3065,
      "స్మ": 3066,
      "బ్ద": 3067,
      "ందరూ": 3068,
      "ుద": 3069,
      "భూమ": 3070,
      "మండలం": 3071,
      "ెక్క": 3072,
      "భర్త": 3073,
      "ిప్": 3074,
      "ప్రొ": 3075,
      "ూర": 3076,
      "##సారి": 3077,
      "ాస": 3078,
      "ాల్పడ": 3079,
      "##ర్ప": 3080,
      "ర్మి": 3081,
      "సహా": 3082,
      "ిక్స్": 3083,
      "పుట్ట": 3084,
      "్రుల": 3085,
      "రామ్": 3086,
      "వరు": 3087,
      "్గు": 3088,
      "##టిష": 3089,
      "తది": 3090,
      "టింగ్": 3091,
      "రైలు": 3092,
      "్యాన": 3093,
      "విశా": 3094,
      "్యూటీ": 3095,
      "గడ్డ": 3096,
      "ీక్ష": 3097,
      "ెన్స": 3098,
      "వన్": 3099,
      "నీరు": 3100,
      "విశాఖ": 3101,
      "అంబ": 3102,
      "కిత్స": 3103,
      "ుత్": 3104,
      "డ్రై": 3105,
      "ించడ": 3106,
      "కూడద": 3107,
      "ప్పు": 3108,
      "్థాన్": 3109,
      "నామ": 3110,
      "ురాల": 3111,
      "్యామ": 3112,
      "వివాద": 3113,
      "సంతో": 3114,
      "కోల్ప": 3115,
      "అందుక": 3116,
      "రాస": 3117,
      "##ర్ట": 3118,
      "ిర్": 3119,
      "ొంట": 3120,
      "నెలక": 3121,
      "పదవి": 3122,
      "త్యంత": 3123,
      "తండ్ర": 3124,
      "ోస్టు": 3125,
      "విదేశ": 3126,
      "##త్తి": 3127,
      "అంతర్": 3128,
      "ీయ": 3129,
      "ోన్న": 3130,
      "తదితర": 3131,
      "ిడ్": 3132,
      "ాపూ": 3133,
      "ఆక": 3134,
      "అయినా": 3135,
      "జరిగే": 3136,
      "సంతోష": 3137,
      "ఏమ": 3138,
      "దారి": 3139,
      "ాడారు": 3140,
      "ుష్": 3141,
      "డర్": 3142,
      "ల్లు": 3143,
      "ేంద": 3144,
      "ోప": 3145,
      "నుంచ": 3146,
      "షాక": 3147,
      "మహిళా": 3148,
      "ీలి": 3149,
      "రేట్": 3150,
      "ంకు": 3151,
      "##రించ": 3152,
      "చైనా": 3153,
      "ంత్రు": 3154,
      "చుట్ట": 3155,
      "లెక్క": 3156,
      "యుద్ధ": 3157,
      "లభ": 3158,
      "న్నత": 3159,
      "13": 3160,
      "ఆసు": 3161,
      "సార": 3162,
      "##జె": 3163,
      "ఎస్సీ": 3164,
      "స్వీక": 3165,
      "ీకర": 3166,
      "్థల": 3167,
      "ింపుల": 3168,
      "వయస": 3169,
      "ివరకు": 3170,
      "ీబీసీ": 3171,
      "నీళ్ల": 3172,
      "ఫర్": 3173,
      "నిరసన": 3174,
      "గవర్": 3175,
      "గవర్న": 3176,
      "..": 3177,
      "సహక": 3178,
      "ైన్": 3179,
      "బుధవ": 3180,
      "ెస్ట": 3181,
      "సూపర్": 3182,
      "కన్న": 3183,
      "క్యూ": 3184,
      "వినిప": 3185,
      "ఆసుపత": 3186,
      "శక్తి": 3187,
      "ోరు": 3188,
      "మారుత": 3189,
      "నలు": 3190,
      "కాపా": 3191,
      "17": 3192,
      "ాయాల": 3193,
      "దర్శి": 3194,
      "ేషనల్": 3195,
      "నమ్మ": 3196,
      "ఎంప": 3197,
      "ుద్ధ": 3198,
      "ధర్మ": 3199,
      "ారతీయ": 3200,
      "వేడుక": 3201,
      "యోజన": 3202,
      "ైవేట": 3203,
      "మున్స": 3204,
      "ోమ": 3205,
      "ల్లి": 3206,
      "16": 3207,
      "్సరాల": 3208,
      "అధిక": 3209,
      "భూముల": 3210,
      "ీలించ": 3211,
      "రాజ్య": 3212,
      "రేషన్": 3213,
      "పూర": 3214,
      "్లాన్": 3215,
      "రంగల్": 3216,
      "ెంటర్": 3217,
      "ధన": 3218,
      "ాస్ట": 3219,
      "తీరు": 3220,
      "ర్యటన": 3221,
      "ారో": 3222,
      "సీఐ": 3223,
      "ಲ್ಲ": 3224,
      "ంస": 3225,
      "్రాల": 3226,
      "కాపాడ": 3227,
      "ోడ": 3228,
      "తమకు": 3229,
      "జాగ్ర": 3230,
      "నాకు": 3231,
      "జ్జ": 3232,
      "ాసన": 3233,
      "ేస్": 3234,
      "కూర": 3235,
      "స్టర్": 3236,
      "کے": 3237,
      "ఎయిర్": 3238,
      "నరేంద": 3239,
      "ాపూర్": 3240,
      "ఈసారి": 3241,
      "ొత్తు": 3242,
      "ఏప్ర": 3243,
      "ఏప్రి": 3244,
      "్నా": 3245,
      "ాఫ": 3246,
      "ీం": 3247,
      "ాలలో": 3248,
      "వరుస": 3249,
      "ట్రై": 3250,
      "ఎదురు": 3251,
      "ర్మిల": 3252,
      "22": 3253,
      "మన్": 3254,
      "సంచ": 3255,
      "కపోతే": 3256,
      "ాంబ": 3257,
      "ఆన్": 3258,
      "తిన": 3259,
      "్వత": 3260,
      "పేద": 3261,
      "రల్డ్": 3262,
      "ోగ": 3263,
      "త్స": 3264,
      "కామె": 3265,
      "ంప్ర": 3266,
      "దేళ్ల": 3267,
      "లువుర": 3268,
      "ంచ్": 3269,
      "న్మ": 3270,
      "లాభ": 3271,
      "సుర": 3272,
      "పిటిష": 3273,
      "ిరీ": 3274,
      "ూట": 3275,
      "ఆద": 3276,
      "అసలు": 3277,
      "ెట్ట": 3278,
      "వాస": 3279,
      "ేవారు": 3280,
      "ీంక": 3281,
      "సాయి": 3282,
      "దాఖల": 3283,
      "పరిచ": 3284,
      "ఎస్పీ": 3285,
      "ఆస": 3286,
      "యాణ": 3287,
      "అమర": 3288,
      "ోవడ": 3289,
      "ురా": 3290,
      "ేటి": 3291,
      "ముఖ": 3292,
      "లేకప": 3293,
      "మిక": 3294,
      "ేందర్": 3295,
      "మెడ": 3296,
      "ూడ": 3297,
      "రాం": 3298,
      "ాలంలో": 3299,
      "లీడర్": 3300,
      "ీశ్": 3301,
      "ైక్": 3302,
      "మద్య": 3303,
      "##ఖా": 3304,
      "్రే": 3305,
      "బడ్": 3306,
      "విక": 3307,
      "్యాల": 3308,
      "రణ్": 3309,
      "ిరీస్": 3310,
      "పది": 3311,
      "ాఠ": 3312,
      "##ఖాస": 3313,
      "అమి": 3314,
      "ఎంపిక": 3315,
      "ంప్": 3316,
      "ాయింట": 3317,
      "కొండ": 3318,
      "ేర": 3319,
      "లహ": 3320,
      "ితో": 3321,
      "ీటిని": 3322,
      "మెరుగ": 3323,
      "సేకర": 3324,
      "దరఖాస": 3325,
      "నాథ్": 3326,
      "ఈరో": 3327,
      "బ్ల": 3328,
      "హిత": 3329,
      "ౌన్": 3330,
      "గౌడ": 3331,
      "బడ్జె": 3332,
      "ఐటీ": 3333,
      "వేగం": 3334,
      "దిన": 3335,
      "మయ్య": 3336,
      "ూనే": 3337,
      "ియేట": 3338,
      "మొదలు": 3339,
      "ిణ": 3340,
      "ారీ": 3341,
      "ాహ్": 3342,
      "రక్షణ": 3343,
      "##పం": 3344,
      "నిరు": 3345,
      "ఖమ్మ": 3346,
      "ుణ": 3347,
      "ఖమ్మం": 3348,
      "##ూల్": 3349,
      "ంగార": 3350,
      "్కూల్": 3351,
      "గ్జ": 3352,
      "ేర్ల": 3353,
      "ంచుక": 3354,
      "గౌర": 3355,
      "క్వ": 3356,
      "మైంది": 3357,
      "చ్చని": 3358,
      "కెప్ట": 3359,
      "శ్రయ": 3360,
      "నటించ": 3361,
      "ఈరోజు": 3362,
      "జాత": 3363,
      "్కర్": 3364,
      "పట్టణ": 3365,
      "ల్ప": 3366,
      "స్య": 3367,
      "ియో": 3368,
      "ుక్": 3369,
      "ఉపా": 3370,
      "ిత్త": 3371,
      "నిత": 3372,
      "ార్ట్": 3373,
      "్రూప్": 3374,
      "కాదని": 3375,
      "ఇంగ": 3376,
      "ీరి": 3377,
      "ేట్": 3378,
      "ీరియ": 3379,
      "ఎవ": 3380,
      "ీన": 3381,
      "ారుల": 3382,
      "ాక్స": 3383,
      "میں": 3384,
      "ఇవా": 3385,
      "ార్మ": 3386,
      "ందులు": 3387,
      "వరి": 3388,
      "శంక": 3389,
      "బ్బ": 3390,
      "ఉపాధ": 3391,
      "శ్చ": 3392,
      "వినీ": 3393,
      "ఇళ్ల": 3394,
      "కథ": 3395,
      "ఒకటి": 3396,
      "ంశ": 3397,
      "ఉమ్మ": 3398,
      "తయారు": 3399,
      "్యూస్": 3400,
      "ఎకరాల": 3401,
      "ంప్రద": 3402,
      "ఈడీ": 3403,
      "రెంట": 3404,
      "ఒప్ప": 3405,
      "ాబ్": 3406,
      "ిఫిక": 3407,
      "జ్య": 3408,
      "షె": 3409,
      "ుద్ద": 3410,
      "ౌన్స": 3411,
      "బర్": 3412,
      "విడ": 3413,
      "గాయ": 3414,
      "ాబి": 3415,
      "సేవల": 3416,
      "చా": 3417,
      "##షన": 3418,
      "##ీసు": 3419,
      "దేహ": 3420,
      "ిగ్ర": 3421,
      "లగ": 3422,
      "సియ": 3423,
      "నర": 3424,
      "ారణ": 3425,
      "మూడో": 3426,
      "వివే": 3427,
      "ల్స్": 3428,
      "వివేక": 3429,
      "లుపు": 3430,
      "వినీత": 3431,
      "మల": 3432,
      "##ీట": 3433,
      "నుమాన": 3434,
      "సైతం": 3435,
      "ీవ": 3436,
      "గుంట": 3437,
      "సమీ": 3438,
      "ల్లం": 3439,
      "్పె": 3440,
      "ఆలోచన": 3441,
      "ందర్": 3442,
      "ీచర్": 3443,
      "ఇవాళ": 3444,
      "బృ": 3445,
      "లిప": 3446,
      "ఎంద": 3447,
      "పతి": 3448,
      "గమన": 3449,
      "ముంబై": 3450,
      "ారనే": 3451,
      "మీటర్": 3452,
      "ర్జ": 3453,
      "ఉండగా": 3454,
      "వార్డ": 3455,
      "ఉమ్మడ": 3456,
      "నిపు": 3457,
      "లియ": 3458,
      "హెల": 3459,
      "ాన్స్": 3460,
      "నిపుణ": 3461,
      "గస్టు": 3462,
      "ఫైన": 3463,
      "వంబర్": 3464,
      "ీనామా": 3465,
      "ఉన్నా": 3466,
      "ఆయనకు": 3467,
      "అల": 3468,
      "డుత": 3469,
      "క్ట్": 3470,
      "ఇంగ్ల": 3471,
      "ేలి": 3472,
      "ూపొ": 3473,
      "ాత్మక": 3474,
      "ూపొంద": 3475,
      "అదు": 3476,
      "చదు": 3477,
      "జరి": 3478,
      "వాల": 3479,
      "ాకా": 3480,
      "ేషన్ల": 3481,
      "వర్షం": 3482,
      "అదుపు": 3483,
      "జరిప": 3484,
      "సాయం": 3485,
      "ల్డ్": 3486,
      "ప్త": 3487,
      "ట్వీట": 3488,
      "సబ్": 3489,
      "ఇండ": 3490,
      "పట్ల": 3491,
      "ీన్ని": 3492,
      "య్": 3493,
      "##లన": 3494,
      "కనీస": 3495,
      "ుచుక": 3496,
      "్ధ": 3497,
      "సభలో": 3498,
      "##లుప": 3499,
      "గెలుప": 3500,
      "ిషన్": 3501,
      "పెడుత": 3502,
      "్వర": 3503,
      "తాగ": 3504,
      "జనవరి": 3505,
      "అప": 3506,
      "ఘన": 3507,
      "ొండ": 3508,
      "డ్రైవ": 3509,
      "ాబితా": 3510,
      "నల్": 3511,
      "ఫర": 3512,
      "ుమా": 3513,
      "్యంగా": 3514,
      "బెట్ట": 3515,
      "తయ": 3516,
      "ొంగ": 3517,
      "సక్తి": 3518,
      "నుభ": 3519,
      "సమీపం": 3520,
      "టాల": 3521,
      "ితంగా": 3522,
      "నీయ": 3523,
      "సామా": 3524,
      "తయార": 3525,
      "ానం": 3526,
      "ంబర్": 3527,
      "ార్పొ": 3528,
      "ఆవ": 3529,
      "వెనుక": 3530,
      "ద్దు": 3531,
      "ాలేజీ": 3532,
      "ఐపీ": 3533,
      "ింటి": 3534,
      "దాన": 3535,
      "ఆస్": 3536,
      "ఉచ": 3537,
      "ధీ": 3538,
      "సమా": 3539,
      "యాణిక": 3540,
      "ిగ్రహ": 3541,
      "ఉచిత": 3542,
      "హిళ": 3543,
      "ఎందుక": 3544,
      "అడు": 3545,
      "ీత": 3546,
      "ోట": 3547,
      "##వంట": 3548,
      "టువంట": 3549,
      "ెన్సీ": 3550,
      "ఉద్య": 3551,
      "నస": 3552,
      "ౌండ్": 3553,
      "ంటి": 3554,
      "ఇద్దర": 3555,
      "ిమి": 3556,
      "సామాజ": 3557,
      "ాలపై": 3558,
      "ఆస్పత": 3559,
      "ీట్": 3560,
      "ನ್": 3561,
      "ఉత": 3562,
      "మంత్ర": 3563,
      "ీడ": 3564,
      "19": 3565,
      "ఉత్ప": 3566,
      "ఎన్ట": 3567,
      "ార్తల": 3568,
      "##టం": 3569,
      "పూర్త": 3570,
      "##నాల": 3571,
      "40": 3572,
      "ోయి": 3573,
      "రణించ": 3574,
      "ాంగ్": 3575,
      "నిమిష": 3576,
      "ేక్షక": 3577,
      "ిరుపత": 3578,
      "ఉద్యమ": 3579,
      "షే": 3580,
      "ెబ్": 3581,
      "గ్న": 3582,
      "ప్తి": 3583,
      "ాస్త": 3584,
      "ూహ": 3585,
      "ోహి": 3586,
      "దిర": 3587,
      "గర్": 3588,
      "్చి": 3589,
      "ోన": 3590,
      "మంజ": 3591,
      "రస": 3592,
      "ెడ": 3593,
      "బీఆర్": 3594,
      "భవన": 3595,
      "వది": 3596,
      "కోట": 3597,
      "ైమ్": 3598,
      "్బ": 3599,
      "ుడిగా": 3600,
      "వసాయ": 3601,
      "యువక": 3602,
      "ఫ్ట్": 3603,
      "ూర్త": 3604,
      "ెట": 3605,
      "లేఖ": 3606,
      "ఖాన్": 3607,
      "ళి": 3608,
      "ీతా": 3609,
      "ుమ్మ": 3610,
      "ైళ్ల": 3611,
      "ముర": 3612,
      "అవసరమ": 3613,
      "యూనివ": 3614,
      "నిట": 3615,
      "వెస్ట": 3616,
      "అయింద": 3617,
      "్రమాణ": 3618,
      "ఠా": 3619,
      "క్కడే": 3620,
      "బండి": 3621,
      "ేత": 3622,
      "న్డ": 3623,
      "లంక": 3624,
      "సృష్ట": 3625,
      "ముగి": 3626,
      "ేసుక": 3627,
      "ముగిస": 3628,
      "ఖీ": 3629,
      "రం": 3630,
      "##ha": 3631,
      "ాటక": 3632,
      "సుల": 3633,
      "ాక్ష": 3634,
      "ేగ": 3635,
      "ష్ణ": 3636,
      "వివాహ": 3637,
      "ిత్": 3638,
      "ఎన్నో": 3639,
      "వికె": 3640,
      "ేని": 3641,
      "వేత్త": 3642,
      "అంశాల": 3643,
      "ర్వీస": 3644,
      "్గురు": 3645,
      "ఈవ": 3646,
      "ేసి": 3647,
      "మరిక": 3648,
      "నాలుగ": 3649,
      "ాహ్నం": 3650,
      "సీజ": 3651,
      "క్రిత": 3652,
      "్యాయం": 3653,
      "చోట్ల": 3654,
      "గౌరవ": 3655,
      "ప్పుల": 3656,
      "ద్దేశ": 3657,
      "కస్ట": 3658,
      "ముందే": 3659,
      "ేలియా": 3660,
      "##భాగ": 3661,
      "యాదవ్": 3662,
      "ందిర": 3663,
      "గ్రహం": 3664,
      "వదిల": 3665,
      "దన": 3666,
      "ోటో": 3667,
      "తనను": 3668,
      "బొ": 3669,
      "మహారా": 3670,
      "ంతర": 3671,
      "సీబీఐ": 3672,
      "ఓటర్ల": 3673,
      "విభాగ": 3674,
      "తుర": 3675,
      "గుండె": 3676,
      "సంచలన": 3677,
      "ారంట": 3678,
      "స్టా": 3679,
      "డ్యూ": 3680,
      "ల్లా": 3681,
      "కారణమ": 3682,
      "పరే": 3683,
      "##రుప": 3684,
      "సమర్ప": 3685,
      "ఆధ్వర": 3686,
      "స్తు": 3687,
      "ందుల": 3688,
      "ఆన": 3689,
      "గ్ల": 3690,
      "ాండ్": 3691,
      "కారు": 3692,
      "ైడ్": 3693,
      "గురి": 3694,
      "ెడ్డి": 3695,
      "నర్స": 3696,
      "చర": 3697,
      "ిప్ప": 3698,
      "ేణ": 3699,
      "ాలనుక": 3700,
      "ారాల": 3701,
      "దాట": 3702,
      "ోహిత్": 3703,
      "ాఫ్": 3704,
      "ీమా": 3705,
      "ಿದ": 3706,
      "మోస": 3707,
      "ిడెంట": 3708,
      "ఖాతా": 3709,
      "ఏంట": 3710,
      "హౌ": 3711,
      "ఇచ్చే": 3712,
      "తప్పు": 3713,
      "ఆనంద": 3714,
      "ుట": 3715,
      "ತ್": 3716,
      "ిపల్": 3717,
      "ఊర": 3718,
      "గద": 3719,
      "ముద్ర": 3720,
      "ద్భ": 3721,
      "సెంట": 3722,
      "మ్మక": 3723,
      "నాయుడ": 3724,
      "్చుక": 3725,
      "ఎవరు": 3726,
      "శే": 3727,
      "తెచ్చ": 3728,
      "సంప": 3729,
      "ర్థం": 3730,
      "మిషన": 3731,
      "డ్డుక": 3732,
      "ాఠశాల": 3733,
      "అమిత్": 3734,
      "మిషనర": 3735,
      "ైతే": 3736,
      "ొద్": 3737,
      "ారంభం": 3738,
      "ిణీ": 3739,
      "ారణాల": 3740,
      "హిళలు": 3741,
      "శ్వ": 3742,
      "ాకు": 3743,
      "##ఖర": 3744,
      "##కాల": 3745,
      "ొడవ": 3746,
      "ల్క": 3747,
      "మిగి": 3748,
      "ొద్ది": 3749,
      "మిగిల": 3750,
      "ాగా": 3751,
      "విభ": 3752,
      "సమాధ": 3753,
      "శాస్త": 3754,
      "సోద": 3755,
      "గొట్ట": 3756,
      "ాలంట": 3757,
      "వాహన": 3758,
      "ాఫీ": 3759,
      "లమ": 3760,
      "బృంద": 3761,
      "ుమారు": 3762,
      "నాల": 3763,
      "##یا": 3764,
      "ష్ట్ర": 3765,
      "దీప్": 3766,
      "ాహనాల": 3767,
      "వని": 3768,
      "్రో": 3769,
      "స్క": 3770,
      "్తా": 3771,
      "త్రి": 3772,
      "నోటీస": 3773,
      "వాయి": 3774,
      "పోత": 3775,
      "సంఘటన": 3776,
      "అగ్ర": 3777,
      "ిద్ర": 3778,
      "ట్రో": 3779,
      "పక్కన": 3780,
      "ఒత్తి": 3781,
      "ట్టుక": 3782,
      "21": 3783,
      "పల": 3784,
      "ువు": 3785,
      "ొద్ద": 3786,
      "్త్": 3787,
      "స్నే": 3788,
      "ోర్డు": 3789,
      "లభించ": 3790,
      "జు": 3791,
      "సాద్": 3792,
      "న్నై": 3793,
      "భాష": 3794,
      "సింహ": 3795,
      "ఏడు": 3796,
      "ంగ్ల": 3797,
      "రచ": 3798,
      "కోహ": 3799,
      "డిజ": 3800,
      "ఆమోద": 3801,
      "ధ్వ": 3802,
      "రికీ": 3803,
      "అర్హ": 3804,
      "సక": 3805,
      "స్థాన": 3806,
      "ావతి": 3807,
      "మాటల": 3808,
      "చంప": 3809,
      "రూప": 3810,
      "గూడ": 3811,
      "మద్యం": 3812,
      "దుల": 3813,
      "ొక": 3814,
      "కాన్": 3815,
      "ుడ్": 3816,
      "షాప": 3817,
      "యంత్ర": 3818,
      "న్షన్": 3819,
      "్రీన్": 3820,
      "వరూ": 3821,
      "నుక": 3822,
      "టిల్": 3823,
      "ిరంగ": 3824,
      "సీజన్": 3825,
      "శేఖర": 3826,
      "టర్": 3827,
      "పున": 3828,
      "జేస": 3829,
      "ఇంజ": 3830,
      "ెయ్య": 3831,
      "లబ": 3832,
      "ల్ట": 3833,
      "ర్సి": 3834,
      "ెన": 3835,
      "ుతాయి": 3836,
      "నిఫ": 3837,
      "్రహ": 3838,
      "సేవ": 3839,
      "ాయపడ": 3840,
      "ెగా": 3841,
      "ెల్ల": 3842,
      "గ్రే": 3843,
      "గిన": 3844,
      "ాశ": 3845,
      "ర్బ": 3846,
      "్యాంగ": 3847,
      "పడ్డ": 3848,
      "సిస్ట": 3849,
      "ైస్": 3850,
      "మణి": 3851,
      "రిణ": 3852,
      "ామీల": 3853,
      "మ్యా": 3854,
      "రుత": 3855,
      "మేక": 3856,
      "్యాధ": 3857,
      "ైర": 3858,
      "నిప": 3859,
      "్టేట్": 3860,
      "జరుప": 3861,
      "డ్జ": 3862,
      "్మీ": 3863,
      "ద్ర": 3864,
      "ాంప": 3865,
      "శాంతి": 3866,
      "ర్యా": 3867,
      "డుస్త": 3868,
      "ద్వ": 3869,
      "గ్రా": 3870,
      "re": 3871,
      "ౌర": 3872,
      "చేప": 3873,
      "లింగ": 3874,
      "అడిగ": 3875,
      "శంకర్": 3876,
      "ార్డు": 3877,
      "క్రీ": 3878,
      "క్కుల": 3879,
      "ళా": 3880,
      "ుకొ": 3881,
      "కడ": 3882,
      "ేల్": 3883,
      "వార్త": 3884,
      "ుట్ట": 3885,
      "పర్యట": 3886,
      "అప్": 3887,
      "ీలు": 3888,
      "పట": 3889,
      "ొడు": 3890,
      "ోచ": 3891,
      "కర్న": 3892,
      "లియన్": 3893,
      "స్తుత": 3894,
      "రింగ్": 3895,
      "ోర్స్": 3896,
      "టెడ్": 3897,
      "ోలీసు": 3898,
      "ొడుకు": 3899,
      "ునర": 3900,
      "హన": 3901,
      "మున": 3902,
      "ంతకు": 3903,
      "ిస్ట్": 3904,
      "మల్": 3905,
      "ించడం": 3906,
      "ఆగ": 3907,
      "టరీ": 3908,
      "రియ": 3909,
      "ధీన": 3910,
      "షేర్": 3911,
      "ష్యా": 3912,
      "ేటీ": 3913,
      "మేం": 3914,
      "ఎగ": 3915,
      "ీక్": 3916,
      "నిన్న": 3917,
      "నామిన": 3918,
      "ాణి": 3919,
      "న్నా": 3920,
      "ఫిక్": 3921,
      "ెయిన్": 3922,
      "రిలో": 3923,
      "ిపించ": 3924,
      "ాదించ": 3925,
      "నెట్": 3926,
      "మాజ": 3927,
      "సెల్": 3928,
      "రేట": 3929,
      "ాళీ": 3930,
      "రావడం": 3931,
      "ుంటూ": 3932,
      "శ్చి": 3933,
      "ప్యా": 3934,
      "విప": 3935,
      "ఖర": 3936,
      "ాదన": 3937,
      "ినె": 3938,
      "ల్లె": 3939,
      "ూలు": 3940,
      "వేసి": 3941,
      "నన్న": 3942,
      "ఖండ": 3943,
      "రైన": 3944,
      "కూర్చ": 3945,
      "రవి": 3946,
      "సాగు": 3947,
      "గుడ": 3948,
      "ہے": 3949,
      "ర్ప": 3950,
      "##ణయ": 3951,
      "##మత": 3952,
      "మ్ము": 3953,
      "ిర్ణయ": 3954,
      "##ور": 3955,
      "ంచర": 3956,
      "జో": 3957,
      "బై": 3958,
      "మౌ": 3959,
      "ిరం": 3960,
      "దేవి": 3961,
      "టమ": 3962,
      "దీప": 3963,
      "ాయం": 3964,
      "న్నిక": 3965,
      "ిపోవ": 3966,
      "కృష": 3967,
      "రీం": 3968,
      "వెన": 3969,
      "మొత్త": 3970,
      "్సరం": 3971,
      "ఫై": 3972,
      "యాక్ట": 3973,
      "రన్": 3974,
      "బ్రా": 3975,
      "ణకు": 3976,
      "పార": 3977,
      "ెంగ": 3978,
      "కేత": 3979,
      "డాక": 3980,
      "ణ్": 3981,
      "లిగ": 3982,
      "్వాన": 3983,
      "మత": 3984,
      "ెలి": 3985,
      "్తవ": 3986,
      "ంతు": 3987,
      "నిబంధ": 3988,
      "్యార": 3989,
      "దాన్న": 3990,
      "కులు": 3991,
      "షో": 3992,
      "ెర్": 3993,
      "నిచ్చ": 3994,
      "స్త్ర": 3995,
      "కప్ప": 3996,
      "కింగ్": 3997,
      "చూసి": 3998,
      "సున": 3999,
      "ఐపీఎ": 4000,
      "ంగ్లా": 4001,
      "నిక": 4002,
      "కేసుల": 4003,
      "పంట": 4004,
      "కలిస": 4005,
      "ోంద": 4006,
      "వ్వు": 4007,
      "##an": 4008,
      "ేమ్": 4009,
      "కోస": 4010,
      "ముస": 4011,
      "మిట": 4012,
      "తని": 4013,
      "మర్": 4014,
      "రాత్ర": 4015,
      "ీపీ": 4016,
      "్మి": 4017,
      "తోనే": 4018,
      "త్క": 4019,
      "ర్సిట": 4020,
      "రజ": 4021,
      "ంట్స్": 4022,
      "ింత": 4023,
      "డ్రా": 4024,
      "ాటా": 4025,
      "ుకొని": 4026,
      "ుట్": 4027,
      "డ్ల": 4028,
      "ీటు": 4029,
      "ఫైనల్": 4030,
      "ంగుల": 4031,
      "ుడిని": 4032,
      "థకాల": 4033,
      "ితి": 4034,
      "ుప్ప": 4035,
      "ాద్ర": 4036,
      "దుక": 4037,
      "ుస": 4038,
      "ొస": 4039,
      "ప్పగ": 4040,
      "ుకునే": 4041,
      "మరణ": 4042,
      "ాస్ప": 4043,
      "కాని": 4044,
      "పాన్": 4045,
      "డేట": 4046,
      "పం": 4047,
      "శ్": 4048,
      "ియన్": 4049,
      "ిద్దర": 4050,
      "లిక్": 4051,
      "లుక": 4052,
      "హబ": 4053,
      "దిశ": 4054,
      "ట్లో": 4055,
      "సెట": 4056,
      "క్కో": 4057,
      "లుప": 4058,
      "ిపి": 4059,
      "ామా": 4060,
      "్లాక": 4061,
      "యన్": 4062,
      "28": 4063,
      "్రవర": 4064,
      "ర్చల": 4065,
      "హరి": 4066,
      "లాగ": 4067,
      "త్తున": 4068,
      "ిజి": 4069,
      "నట": 4070,
      "మొదట": 4071,
      "్ఫ": 4072,
      "్రీవ": 4073,
      "కార": 4074,
      "డుగుల": 4075,
      "ార్థి": 4076,
      "ఒక్కర": 4077,
      "అనుమత": 4078,
      "టమి": 4079,
      "బాద్": 4080,
      "వీల": 4081,
      "ాలిక": 4082,
      "ట్టాల": 4083,
      "వృద్ధ": 4084,
      "ండ్ర": 4085,
      "ివ్": 4086,
      "ార్ల": 4087,
      "దాయం": 4088,
      "్రెస్": 4089,
      "వణ": 4090,
      "ుర్": 4091,
      "్టూ": 4092,
      "దో": 4093,
      "ెస్టు": 4094,
      "ీకరణ": 4095,
      "23": 4096,
      "కేజ": 4097,
      "్సె": 4098,
      "ోటి": 4099,
      "రంగం": 4100,
      "ఘా": 4101,
      "ాలా": 4102,
      "నిష": 4103,
      "దివ": 4104,
      "చ్చుక": 4105,
      "టగా": 4106,
      "కాయ": 4107,
      "మాస్": 4108,
      "దుర్": 4109,
      "థన": 4110,
      "్రిక్": 4111,
      "పరిమ": 4112,
      "ోవడం": 4113,
      "ద్దీ": 4114,
      "100": 4115,
      "్లిక్": 4116,
      "సాగుత": 4117,
      "డింది": 4118,
      "ాత": 4119,
      "##ad": 4120,
      "సేన": 4121,
      "్వరలో": 4122,
      "ర్క్": 4123,
      "ూరి": 4124,
      "గీ": 4125,
      "ోస్": 4126,
      "ండియా": 4127,
      "రళ": 4128,
      "్లోకి": 4129,
      "కాలు": 4130,
      "ేటు": 4131,
      "్యర్": 4132,
      "మ్మి": 4133,
      "హిం": 4134,
      "27": 4135,
      "ణు": 4136,
      "సమయ": 4137,
      "మెర": 4138,
      "ండర్": 4139,
      "రాత్": 4140,
      "వెన్": 4141,
      "తీయ": 4142,
      "ుడే": 4143,
      "ఎప్ప": 4144,
      "టాని": 4145,
      "పదే": 4146,
      "ాక్ట": 4147,
      "ిడి": 4148,
      "ిరి": 4149,
      "ర్ద": 4150,
      "ెప": 4151,
      "క్ష్మ": 4152,
      "టార్": 4153,
      "ఫీస": 4154,
      "##ar": 4155,
      "ాంక": 4156,
      "ేజ": 4157,
      "్రణ": 4158,
      "అవి": 4159,
      "ీకు": 4160,
      "మెజ": 4161,
      "గోప": 4162,
      "al": 4163,
      "సిక": 4164,
      "ఎడ": 4165,
      "ేడి": 4166,
      "ఆప": 4167,
      "హణ": 4168,
      "నల్ల": 4169,
      "నుమతి": 4170,
      "కంట": 4171,
      "్రిట": 4172,
      "26": 4173,
      "సైన": 4174,
      "వేత": 4175,
      "ఇచ్చి": 4176,
      "ల్వ": 4177,
      "తేడా": 4178,
      "జెండ": 4179,
      "టన్": 4180,
      "ోనా": 4181,
      "ాల్గ": 4182,
      "్రికి": 4183,
      "ులై": 4184,
      "యిన": 4185,
      "ీకే": 4186,
      "షల్": 4187,
      "ాలతో": 4188,
      "కాంత": 4189,
      "ఎదుర": 4190,
      "ఆయా": 4191,
      "ీవీ": 4192,
      "టీడీ": 4193,
      "ప్ట": 4194,
      "షనల్": 4195,
      "అద": 4196,
      "ేబ": 4197,
      "ఇవి": 4198,
      "ుందో": 4199,
      "నొ": 4200,
      "ెప్ప": 4201,
      "ేసిన": 4202,
      "ఇప్పట": 4203,
      "రణం": 4204,
      "ాణాల": 4205,
      "ఎండ": 4206,
      "ృత": 4207,
      "ెహ": 4208,
      "ంచాయ": 4209,
      "ూడె": 4210,
      "యాప్": 4211,
      "ికల": 4212,
      "సత్య": 4213,
      "సెక": 4214,
      "స్పె": 4215,
      "తెర": 4216,
      "ర్ట్": 4217,
      "అడ్": 4218,
      "ూస": 4219,
      "్టి": 4220,
      "ra": 4221,
      "ప్రవ": 4222,
      "వించ": 4223,
      "ాళ్ల": 4224,
      "ికర": 4225,
      "జేశ": 4226,
      "##ار": 4227,
      "ల్డ": 4228,
      "జల": 4229,
      "اس": 4230,
      "వహ": 4231,
      "విత": 4232,
      "ుందా": 4233,
      "ంటలు": 4234,
      "స్సు": 4235,
      "ులా": 4236,
      "స్టీ": 4237,
      "యూట్": 4238,
      "ెక్ట్": 4239,
      "పర": 4240,
      "్సు": 4241,
      "అందరి": 4242,
      "ంగీ": 4243,
      "ాగ్": 4244,
      "్యారె": 4245,
      "వల్": 4246,
      "ప్పి": 4247,
      "ఎలక్": 4248,
      "బంగ": 4249,
      "చల్": 4250,
      "సన్న": 4251,
      "ును": 4252,
      "ికె": 4253,
      "య్యి": 4254,
      "అల్ల": 4255,
      "ాగు": 4256,
      "్లై": 4257,
      "ూడెం": 4258,
      "తిక": 4259,
      "ాతో": 4260,
      "ూక": 4261,
      "ోల్": 4262,
      "నిమ": 4263,
      "లవు": 4264,
      "ల్గ": 4265,
      "ుగుత": 4266,
      "దేశం": 4267,
      "పొడ": 4268,
      "గల్": 4269,
      "సత్": 4270,
      "ాసం": 4271,
      "ూట్": 4272,
      "ింక": 4273,
      "రేపు": 4274,
      "అడుగు": 4275,
      "ాజి": 4276,
      "డాల": 4277,
      "లక్": 4278,
      "మీర్": 4279,
      "ణి": 4280,
      "పడి": 4281,
      "లోప": 4282,
      "లర": 4283,
      "్రెస": 4284,
      "ంటీ": 4285,
      "డవ": 4286,
      "ారిలో": 4287,
      "జీవి": 4288,
      "ుబా": 4289,
      "షియ": 4290,
      "హక్": 4291,
      "ాగర్": 4292,
      "్లాస": 4293,
      "చర్": 4294,
      "చెక్": 4295,
      "రిశ": 4296,
      "్యాక్": 4297,
      "మంత": 4298,
      "వగా": 4299,
      "స్స": 4300,
      "వెంట": 4301,
      "ిమానా": 4302,
      "60": 4303,
      "కండ": 4304,
      "ధర్": 4305,
      "ేటా": 4306,
      "దాం": 4307,
      "టిస్త": 4308,
      "రేణ": 4309,
      "పీఎస్": 4310,
      "భిస్త": 4311,
      "గుల": 4312,
      "పుల్": 4313,
      "తాజా": 4314,
      "ారంభమ": 4315,
      "్లిం": 4316,
      "లిపి": 4317,
      "ిద్ధ": 4318,
      "ువన": 4319,
      "ెట్ర": 4320,
      "జమ": 4321,
      "డల్": 4322,
      "ాథ": 4323,
      "ుధ": 4324,
      "సిడ": 4325,
      "మిన": 4326,
      "సమ్మ": 4327,
      "కరించ": 4328,
      "జయ": 4329,
      "ీకి": 4330,
      "క్స": 4331,
      "ందల": 4332,
      "کو": 4333,
      "వడ": 4334,
      "ర్భ": 4335,
      "లివ": 4336,
      "టిక్": 4337,
      "తుల": 4338,
      "సత": 4339,
      "లువ": 4340,
      "ای": 4341,
      "పోర్ట": 4342,
      "్వుల": 4343,
      "ఇరు": 4344,
      "పంచ": 4345,
      "స్పీ": 4346,
      "లిక": 4347,
      "హార్": 4348,
      "ికెట్": 4349,
      "ుద్ర": 4350,
      "మామ": 4351,
      "ికా": 4352,
      "బంగార": 4353,
      "ాశ్": 4354,
      "ామాల": 4355,
      "రప": 4356,
      "లవ": 4357,
      "ెక్ష": 4358,
      "మ్యూ": 4359,
      "ొబ": 4360,
      "లుగ": 4361,
      "ిగ్": 4362,
      "ండా": 4363,
      "జనం": 4364,
      "ీరు": 4365,
      "యాం": 4366,
      "ఎంస": 4367,
      "పాల్": 4368,
      "్యాయ": 4369,
      "రికా": 4370,
      "31": 4371,
      "ుదల": 4372,
      "వరం": 4373,
      "డెంట్": 4374,
      "ికులు": 4375,
      "డివ": 4376,
      "్వే": 4377,
      "టోర": 4378,
      "్సెస్": 4379,
      "మన్న": 4380,
      "ేము": 4381,
      "ాజ్": 4382,
      "క్షే": 4383,
      "ూన్": 4384,
      "##la": 4385,
      "ిద్ధం": 4386,
      "ాఖ్య": 4387,
      "ుణ్": 4388,
      "ప్రమ": 4389,
      "29": 4390,
      "ెండ్": 4391,
      "ధ్య": 4392,
      "కార్": 4393,
      "ెండ": 4394,
      "స్క్": 4395,
      "ీవో": 4396,
      "ఆట": 4397,
      "విల": 4398,
      "కొన్న": 4399,
      "ట్యా": 4400,
      "నకు": 4401,
      "ోసం": 4402,
      "ఇష్ట": 4403,
      "ిస్ట": 4404,
      "ాల్గొ": 4405,
      "చర్యల": 4406,
      "స్ల": 4407,
      "తారు": 4408,
      "చోట": 4409,
      "ان": 4410,
      "టూర": 4411,
      "నమ": 4412,
      "ియం": 4413,
      "ిక్స": 4414,
      "ర్హ": 4415,
      "క్కి": 4416,
      "్యాన్": 4417,
      "దుర": 4418,
      "##ేస": 4419,
      "నారా": 4420,
      "్శ": 4421,
      "ంటారు": 4422,
      "ంజ్": 4423,
      "پر": 4424,
      "రస్": 4425,
      "ైట": 4426,
      "##ائ": 4427,
      "పోట": 4428,
      "నెలకొ": 4429,
      "ెట్రో": 4430,
      "ులుగా": 4431,
      "సార్": 4432,
      "ాంగ": 4433,
      "ించగా": 4434,
      "ోగ్ర": 4435,
      "ప్రాణ": 4436,
      "ికుల": 4437,
      "గ్గు": 4438,
      "యక్": 4439,
      "్తి": 4440,
      "ిగి": 4441,
      "ీటర్ల": 4442,
      "నిస": 4443,
      "ెక్స": 4444,
      "in": 4445,
      "ోజ": 4446,
      "కాశ": 4447,
      "ాము": 4448,
      "ంటల": 4449,
      "క్షణ": 4450,
      "డత": 4451,
      "ేదన": 4452,
      "సల": 4453,
      "లిస్ట": 4454,
      "ర్యాల": 4455,
      "నార్": 4456,
      "ందా": 4457,
      "త్తా": 4458,
      "్పుల": 4459,
      "ెంప": 4460,
      "డిగ": 4461,
      "గుడ్": 4462,
      "ట్రోల": 4463,
      "ుతారు": 4464,
      "హక్కు": 4465,
      "ుగు": 4466,
      "ఉండటం": 4467,
      "యాన్": 4468,
      "బడి": 4469,
      "యిత": 4470,
      "ెస": 4471,
      "##er": 4472,
      "సర్వ": 4473,
      "బిల్": 4474,
      "ీస": 4475,
      "త్తుల": 4476,
      "ుకుప": 4477,
      "భయ": 4478,
      "ేచ": 4479,
      "గ్స్": 4480,
      "్టిస్": 4481,
      "యాలు": 4482,
      "నిన": 4483,
      "కాస": 4484,
      "రిస": 4485,
      "ఫార": 4486,
      "ైడ": 4487,
      "త్రిక": 4488,
      "గ్గ": 4489,
      "తుక": 4490,
      "ోబ": 4491,
      "పిల": 4492,
      "నెట": 4493,
      "کا": 4494,
      "ాభా": 4495,
      "ుది": 4496,
      "ికీ": 4497,
      "నప": 4498,
      "్నీ": 4499,
      "కాక": 4500,
      "రిటీ": 4501,
      "నాని": 4502,
      "జస": 4503,
      "్యాప్": 4504,
      "త్తమ": 4505,
      "చంద": 4506,
      "తలు": 4507,
      "ూప": 4508,
      "పెడ": 4509,
      "ల్యా": 4510,
      "ాటి": 4511,
      "డల": 4512,
      "తార": 4513,
      "బే": 4514,
      "రంగా": 4515,
      "వేర": 4516,
      "ంగు": 4517,
      "లక": 4518,
      "ప్రో": 4519,
      "పెన్": 4520,
      "ాజీ": 4521,
      "మ్స్": 4522,
      "రహా": 4523,
      "کر": 4524,
      "విష్": 4525,
      "రగతి": 4526,
      "రాన్": 4527,
      "శ్రా": 4528,
      "సద": 4529,
      "జాన": 4530,
      "ూల్": 4531,
      "##ra": 4532,
      "రిచ": 4533,
      "ాటర్": 4534,
      "తద": 4535,
      "ేరే": 4536,
      "వాణ": 4537,
      "డెన్": 4538,
      "యలు": 4539,
      "ట్లే": 4540,
      "హార": 4541,
      "మాచార": 4542,
      "పేర": 4543,
      "పాటి": 4544,
      "కాల్": 4545,
      "రక్త": 4546,
      "వసర": 4547,
      "మంద": 4548,
      "పడిన": 4549,
      "ిష్కర": 4550,
      "దార": 4551,
      "మీర": 4552,
      "సభల": 4553,
      "రఫ": 4554,
      "ెండి": 4555,
      "చ్చి": 4556,
      "ిల్స్": 4557,
      "వర్త": 4558,
      "##on": 4559,
      "ీజ్": 4560,
      "ళ్లు": 4561,
      "ీశ": 4562,
      "పాక్": 4563,
      "కపోయ": 4564,
      "ిస్టు": 4565,
      "విష్య": 4566,
      "ిత్య": 4567,
      "ోడు": 4568,
      "దృ": 4569,
      "నది": 4570,
      "వంద": 4571,
      "ిద్ద": 4572,
      "ైస": 4573,
      "ొమ్మ": 4574,
      "రాక": 4575,
      "మాకు": 4576,
      "్తీ": 4577,
      "ఫెస": 4578,
      "గాలి": 4579,
      "వర్క": 4580,
      "ిమ్": 4581,
      "ులి": 4582,
      "ట్రీ": 4583,
      "ఓట": 4584,
      "డితే": 4585,
      "డుగు": 4586,
      "దూర": 4587,
      "చదువు": 4588,
      "లాల": 4589,
      "త్సవ": 4590,
      "తాయి": 4591,
      "టాక్": 4592,
      "టల్": 4593,
      "బియ": 4594,
      "బంధు": 4595,
      "డియన్": 4596,
      "కాళ": 4597,
      "లుల": 4598,
      "ింద్": 4599,
      "ఇద": 4600,
      "రాబ": 4601,
      "అంతర": 4602,
      "బోయ": 4603,
      "ధి": 4604,
      "ీణ": 4605,
      "##ان": 4606,
      "త్రాల": 4607,
      "ెళ": 4608,
      "ెంబ": 4609,
      "రాట": 4610,
      "క్స్": 4611,
      "కమ": 4612,
      "పుణ": 4613,
      "్యూజ": 4614,
      "ర్తీ": 4615,
      "ాఖ్యల": 4616,
      "పరా": 4617,
      "ర్జీ": 4618,
      "ిల్లీ": 4619,
      "ైత": 4620,
      "న్నది": 4621,
      "ండింగ": 4622,
      "##భావ": 4623,
      "రవీ": 4624,
      "ెటర్": 4625,
      "్రభావ": 4626,
      "యల్": 4627,
      "హ్మ": 4628,
      "ువా": 4629,
      "వెల్": 4630,
      "కొన": 4631,
      "ాణాలు": 4632,
      "దక్": 4633,
      "ాతి": 4634,
      "ులపై": 4635,
      "ుకుంద": 4636,
      "జిల": 4637,
      "్యుల": 4638,
      "్లె": 4639,
      "ధు": 4640,
      "దల": 4641,
      "an": 4642,
      "ేర్": 4643,
      "రేజ": 4644,
      "పక": 4645,
      "ెలవ": 4646,
      "రీస": 4647,
      "న్వ": 4648,
      "ఆర్ఎ": 4649,
      "అర్థ": 4650,
      "ివ": 4651,
      "డిపోయ": 4652,
      "ల్లే": 4653,
      "ఇస": 4654,
      "కల్": 4655,
      "రంట": 4656,
      "ఛా": 4657,
      "ేవు": 4658,
      "ాలక": 4659,
      "్రదేశ": 4660,
      "రాధ": 4661,
      "కన్": 4662,
      "తక": 4663,
      "ీవ్": 4664,
      "్యర్థ": 4665,
      "కోల్": 4666,
      "గీత": 4667,
      "రిశీల": 4668,
      "సుక": 4669,
      "ీష": 4670,
      "మార్": 4671,
      "చక్": 4672,
      "ఫా": 4673,
      "ఎత్తు": 4674,
      "రివ": 4675,
      "డీఎ": 4676,
      "రిజ": 4677,
      "ందర్భ": 4678,
      "ఆసక్త": 4679,
      "نے": 4680,
      "బోర్": 4681,
      "ిషి": 4682,
      "లేష": 4683,
      "ాన్య": 4684,
      "ూసుక": 4685,
      "ేవార": 4686,
      "దున": 4687,
      "గజ": 4688,
      "ాడి": 4689,
      "##یڈ": 4690,
      "కెన": 4691,
      "బంత": 4692,
      "వెల": 4693,
      "ుకా": 4694,
      "ిపాల": 4695,
      "ిథ": 4696,
      "ీట": 4697,
      "ెం": 4698,
      "మాద": 4699,
      "స్టార": 4700,
      "ిపై": 4701,
      "లప": 4702,
      "ముల": 4703,
      "ోయే": 4704,
      "డో": 4705,
      "##యాల": 4706,
      "రోసా": 4707,
      "ిషయాల": 4708,
      "త్యా": 4709,
      "ట్నం": 4710,
      "ేడ్": 4711,
      "ాష": 4712,
      "్ధి": 4713,
      "రులో": 4714,
      "్లోనే": 4715,
      "జడ": 4716,
      "రని": 4717,
      "శ్య": 4718,
      "ేన": 4719,
      "మాన్": 4720,
      "కొల": 4721,
      "##లిచి": 4722,
      "ూన": 4723,
      "రిహ": 4724,
      "ఆర్ట": 4725,
      "గిత": 4726,
      "ణం": 4727,
      "ట్టడ": 4728,
      "ుబాటు": 4729,
      "ఏసీ": 4730,
      "తడి": 4731,
      "యపడ": 4732,
      "ేరి": 4733,
      "మక": 4734,
      "ీఏ": 4735,
      "డంలో": 4736,
      "ందే": 4737,
      "ానిక": 4738,
      "అడ్డ": 4739,
      "డప": 4740,
      "లాల్": 4741,
      "లుగా": 4742,
      "నేది": 4743,
      "సూర": 4744,
      "ాకర్": 4745,
      "ti": 4746,
      "ఆశ్": 4747,
      "ధార": 4748,
      "ప్రశ": 4749,
      "రిగా": 4750,
      "ంబర": 4751,
      "రమైన": 4752,
      "అటు": 4753,
      "బర": 4754,
      "ోజన": 4755,
      "##ال": 4756,
      "ఫీసర్": 4757,
      "ర్స": 4758,
      "సంస్": 4759,
      "ాత్రల": 4760,
      "కబ": 4761,
      "ాలె": 4762,
      "న్నర": 4763,
      "ితీ": 4764,
      "దరి": 4765,
      "నివార": 4766,
      "ర్తి": 4767,
      "స్తా": 4768,
      "ండగా": 4769,
      "క్షం": 4770,
      "ఏదో": 4771,
      "అడ": 4772,
      "త్తం": 4773,
      "ాపు": 4774,
      "ిగ్గ": 4775,
      "ోయారు": 4776,
      "టివ్": 4777,
      "ిగారు": 4778,
      "అబ": 4779,
      "టెం": 4780,
      "na": 4781,
      "అశ": 4782,
      "రొ": 4783,
      "ావర": 4784,
      "ిత్ర": 4785,
      "గ్గా": 4786,
      "డిపి": 4787,
      "వహించ": 4788,
      "ప్రీ": 4789,
      "రారు": 4790,
      "ెన్న": 4791,
      "ావు": 4792,
      "ాకర": 4793,
      "ియర్": 4794,
      "سے": 4795,
      "మాల": 4796,
      "లవా": 4797,
      "ోక్": 4798,
      "కలిగి": 4799,
      "ిచ్": 4800,
      "స్టే": 4801,
      "ౌత": 4802,
      "కుం": 4803,
      "వంతం": 4804,
      "్శించ": 4805,
      "ాష్": 4806,
      "్ద": 4807,
      "ారంలో": 4808,
      "ంటర్": 4809,
      "టవ": 4810,
      "యజ": 4811,
      "్వి": 4812,
      "vi": 4813,
      "ీగా": 4814,
      "్మాన": 4815,
      "ికంగా": 4816,
      "ోర్స": 4817,
      "అమల": 4818,
      "యే": 4819,
      "రాల": 4820,
      "అల్": 4821,
      "ఎక్క": 4822,
      "పత": 4823,
      "ుతు": 4824,
      "డింగ్": 4825,
      "కరం": 4826,
      "ీఎ": 4827,
      "ీతం": 4828,
      "కట్": 4829,
      "నాట": 4830,
      "ిపక్ష": 4831,
      "ైక": 4832,
      "అనంత": 4833,
      "ఆదాయ": 4834,
      "ఇం": 4835,
      "చార": 4836,
      "యంత": 4837,
      "ీఎం": 4838,
      "70": 4839,
      "పుత": 4840,
      "హారం": 4841,
      "ానా": 4842,
      "ిక్ష": 4843,
      "్యవ": 4844,
      "ంక్": 4845,
      "ార్క్": 4846,
      "్రేక్": 4847,
      "ోలో": 4848,
      "ర్డ్": 4849,
      "ల్ని": 4850,
      "డాది": 4851,
      "అంగ": 4852,
      "రత": 4853,
      "వంట": 4854,
      "ాయు": 4855,
      "ాడ్": 4856,
      "ొట్ట": 4857,
      "ాలయం": 4858,
      "కారుల": 4859,
      "్యూట": 4860,
      "గ్రీ": 4861,
      "అధి": 4862,
      "వన": 4863,
      "ివి": 4864,
      "నిల్": 4865,
      "యిల్": 4866,
      "ాన్స": 4867,
      "కలక": 4868,
      "యన్న": 4869,
      "##th": 4870,
      "పోవ": 4871,
      "ఆర్డ": 4872,
      "యోగం": 4873,
      "నగా": 4874,
      "తూర": 4875,
      "ీళ్ల": 4876,
      "సంక": 4877,
      "యాల": 4878,
      "యటి": 4879,
      "పార్ట": 4880,
      "్ను": 4881,
      "స్కూ": 4882,
      "సాం": 4883,
      "పిల్ల": 4884,
      "పౌ": 4885,
      "షు": 4886,
      "డిచ": 4887,
      "యింది": 4888,
      "ైవ": 4889,
      "ైకి": 4890,
      "్పీ": 4891,
      "లియా": 4892,
      "ిధుల": 4893,
      "పబ": 4894,
      "ితుల": 4895,
      "వాట": 4896,
      "న్నం": 4897,
      "నియర్": 4898,
      "te": 4899,
      "ిరా": 4900,
      "##یو": 4901,
      "రిల": 4902,
      "వాడు": 4903,
      "శని": 4904,
      "80": 4905,
      "ావా": 4906,
      "ూత్": 4907,
      "లేట": 4908,
      "ంచు": 4909,
      "క్య": 4910,
      "ముక": 4911,
      "ోని": 4912,
      "తామ": 4913,
      "నీల": 4914,
      "ుఖ": 4915,
      "ండల": 4916,
      "లెట్": 4917,
      "సుప": 4918,
      "పడే": 4919,
      "న్యం": 4920,
      "ైం": 4921,
      "ొమ": 4922,
      "మించ": 4923,
      "ిహ": 4924,
      "ట్స్": 4925,
      "ణ్య": 4926,
      "లుత": 4927,
      "పట్టు": 4928,
      "ీప్": 4929,
      "ైంద": 4930,
      "గిల": 4931,
      "##యక": 4932,
      "ంతి": 4933,
      "విశ్": 4934,
      "గే": 4935,
      "రట": 4936,
      "ూబ్": 4937,
      "ార్యక": 4938,
      "ాయమ": 4939,
      "35": 4940,
      "ెమ": 4941,
      "ెట్టి": 4942,
      "సగ": 4943,
      "ుపుత": 4944,
      "ెల్లడ": 4945,
      "తృ": 4946,
      "తరుల": 4947,
      "ారే": 4948,
      "జామ": 4949,
      "్రస్త": 4950,
      "నాన్": 4951,
      "వ్యూ": 4952,
      "కాలన": 4953,
      "کہ": 4954,
      "##so": 4955,
      "చివ": 4956,
      "ోలే": 4957,
      "ాభ": 4958,
      "ుపా": 4959,
      "ెట్ల": 4960,
      "ఎన": 4961,
      "పన్న": 4962,
      "లూ": 4963,
      "ైద": 4964,
      "రిత": 4965,
      "ొత్తగ": 4966,
      "మెట": 4967,
      "జమాన": 4968,
      "ావించ": 4969,
      "రెడ్": 4970,
      "రీత": 4971,
      "ేపు": 4972,
      "లాప": 4973,
      "వాలంట": 4974,
      "పట్": 4975,
      "సవ": 4976,
      "నెల్": 4977,
      "చదువ": 4978,
      "త్తల": 4979,
      "్యాట": 4980,
      "త్తగా": 4981,
      "ీప": 4982,
      "ాయిల": 4983,
      "also": 4984,
      "దన్న": 4985,
      "దుప": 4986,
      "జార్": 4987,
      "ప్రె": 4988,
      "ార్డ్": 4989,
      "క్త": 4990,
      "అవిన": 4991,
      "మూల": 4992,
      "సరా": 4993,
      "ినే": 4994,
      "బాగ": 4995,
      "ారిన": 4996,
      "read": 4997,
      "ంత్": 4998,
      "గతం": 4999,
      "లోన": 5000,
      "బ్రి": 5001,
      "200": 5002,
      "ఎవరి": 5003,
      "భర": 5004,
      "ిండి": 5005,
      "స్మా": 5006,
      "రుపు": 5007,
      "ఓప": 5008,
      "ృతి": 5009,
      "##ెన": 5010,
      "##ri": 5011,
      "నుంద": 5012,
      "్వాల": 5013,
      "ఓపెన": 5014,
      "గన్": 5015,
      "ెలిచి": 5016,
      "ులే": 5017,
      "లింగ్": 5018,
      "ీసీసీ": 5019,
      "45": 5020,
      "గంగ": 5021,
      "పణ": 5022,
      "రిస్": 5023,
      "ుతో": 5024,
      "ుమతి": 5025,
      "ఏమీ": 5026,
      "యంగా": 5027,
      "ింగ": 5028,
      "రుస్త": 5029,
      "ہو": 5030,
      "ణన": 5031,
      "చెన్న": 5032,
      "లాగే": 5033,
      "ట్టల": 5034,
      "ోం": 5035,
      "##ూప": 5036,
      "రాహ": 5037,
      "ోస": 5038,
      "మావ": 5039,
      "లాండ్": 5040,
      "పిల్": 5041,
      "ేణు": 5042,
      "ెళ్త": 5043,
      "اور": 5044,
      "సన": 5045,
      "ోళ": 5046,
      "సిర": 5047,
      "ీలోని": 5048,
      "మరీ": 5049,
      "్టీ": 5050,
      "క్కా": 5051,
      "ందం": 5052,
      "్వల": 5053,
      "దుబ": 5054,
      "దులు": 5055,
      "రుచ": 5056,
      "sh": 5057,
      "దర్": 5058,
      "ెల్లి": 5059,
      "ులుగ": 5060,
      "చేయడ": 5061,
      "శారు": 5062,
      "గ్రూప": 5063,
      "వరణ": 5064,
      "ంజన": 5065,
      "భాస": 5066,
      "పంలో": 5067,
      "షీ": 5068,
      "ితం": 5069,
      "ేవి": 5070,
      "పాడ": 5071,
      "సాహ": 5072,
      "నీట": 5073,
      "హర్": 5074,
      "ాఖల": 5075,
      "ాదం": 5076,
      "లన్న": 5077,
      "శాల": 5078,
      "్ట్": 5079,
      "్వక": 5080,
      "ాస్క": 5081,
      "ిగిప": 5082,
      "ఏడ": 5083,
      "్పా": 5084,
      "డగ": 5085,
      "శాత": 5086,
      "పట్న": 5087,
      "ుభ": 5088,
      "ప్రచ": 5089,
      "క్రె": 5090,
      "రుక": 5091,
      "క్వా": 5092,
      "కెట్": 5093,
      "్రీల": 5094,
      "రద": 5095,
      "రార": 5096,
      "వత": 5097,
      "సాల": 5098,
      "మాయ": 5099,
      "వాన": 5100,
      "వాన్": 5101,
      "ిసే": 5102,
      "్రసా": 5103,
      "ోపి": 5104,
      "పాఠ": 5105,
      "థా": 5106,
      "మధ": 5107,
      "ీతి": 5108,
      "మూర": 5109,
      "ఇంద": 5110,
      "భవి": 5111,
      "యె": 5112,
      "కిన": 5113,
      "ండీ": 5114,
      "పాలు": 5115,
      "్రసాద": 5116,
      "کیا": 5117,
      "90": 5118,
      "ణాలు": 5119,
      "తీసి": 5120,
      "హ్": 5121,
      "్యత్": 5122,
      "మాండ్": 5123,
      "ికే": 5124,
      "కోడ": 5125,
      "ట్టే": 5126,
      "ిమాండ": 5127,
      "భవిష": 5128,
      "డార": 5129,
      "ొట్టి": 5130,
      "మార్క": 5131,
      "ంగానే": 5132,
      "ూడి": 5133,
      "ెలుసు": 5134,
      "ప్రెస": 5135,
      "ఆస్త": 5136,
      "ేసే": 5137,
      "ుబడి": 5138,
      "తిరిగ": 5139,
      "ుపర": 5140,
      "కుంటే": 5141,
      "ంగంలో": 5142,
      "ఏట": 5143,
      "ణాల": 5144,
      "ట్రే": 5145,
      "త్రం": 5146,
      "co": 5147,
      "ఎమ": 5148,
      "లయ": 5149,
      "సర్క": 5150,
      "నికి": 5151,
      "ాచార": 5152,
      "ట్రాక": 5153,
      "ండు": 5154,
      "ఉమ": 5155,
      "గతి": 5156,
      "వం": 5157,
      "ావి": 5158,
      "విస": 5159,
      "ిసిన": 5160,
      "ఎద": 5161,
      "ెట్టు": 5162,
      "కాప": 5163,
      "షన్స్": 5164,
      "రత్": 5165,
      "ైర్మ": 5166,
      "్జ": 5167,
      "##ھا": 5168,
      "ప్పల": 5169,
      "నపై": 5170,
      "ివార": 5171,
      "ామెంట": 5172,
      "తత": 5173,
      "ానే": 5174,
      "్యాస": 5175,
      "ిన్స": 5176,
      "శీ": 5177,
      "హాల": 5178,
      "రాయి": 5179,
      "ర్శ": 5180,
      "డిస్": 5181,
      "్సా": 5182,
      "లింప": 5183,
      "ఏటా": 5184,
      "ఉత్": 5185,
      "రౌ": 5186,
      "ేలు": 5187,
      "బీఐ": 5188,
      "్లీలో": 5189,
      "దన్": 5190,
      "మంట": 5191,
      "డియో": 5192,
      "ోయిన": 5193,
      "ఇందు": 5194,
      "మస": 5195,
      "విరా": 5196,
      "లేర": 5197,
      "పాక": 5198,
      "లీక": 5199,
      "ిలిం": 5200,
      "మగ": 5201,
      "ీఎస్": 5202,
      "ౌండ": 5203,
      "##in": 5204,
      "రుమ": 5205,
      "ిచి": 5206,
      "థి": 5207,
      "ేవ": 5208,
      "ంటర": 5209,
      "ెక్స్": 5210,
      "పారి": 5211,
      "ేం": 5212,
      "వాళ": 5213,
      "వీడ": 5214,
      "ీరా": 5215,
      "కోవ": 5216,
      "ంచార": 5217,
      "హు": 5218,
      "దించ": 5219,
      "దిరి": 5220,
      "ేపట": 5221,
      "యంతో": 5222,
      "##గ్": 5223,
      "కొందర": 5224,
      "దార్": 5225,
      "బాద": 5226,
      "ంజా": 5227,
      "ష్టం": 5228,
      "##al": 5229,
      "జెన్స": 5230,
      "హోం": 5231,
      "కత": 5232,
      "బస": 5233,
      "యూని": 5234,
      "అందర": 5235,
      "ఘటనల": 5236,
      "బంధం": 5237,
      "్నాన": 5238,
      "ایک": 5239,
      "ెంబర": 5240,
      "ిలా": 5241,
      "రుద": 5242,
      "్లూ": 5243,
      "శ్వర": 5244,
      "##లే": 5245,
      "టీటీ": 5246,
      "లిత": 5247,
      "తరలి": 5248,
      "ావరణ": 5249,
      "ేక": 5250,
      "ోగుల": 5251,
      "ికారు": 5252,
      "చని": 5253,
      "్రత": 5254,
      "యస్": 5255,
      "ారిప": 5256,
      "పొర": 5257,
      "హాయ": 5258,
      "లిట": 5259,
      "వర్స": 5260,
      "ఎక్స": 5261,
      "జన్": 5262,
      "తడ": 5263,
      "ూబ": 5264,
      "ేఖ": 5265,
      "ోవా": 5266,
      "##ئے": 5267,
      "ర్డుల": 5268,
      "రువ": 5269,
      "ెలుస": 5270,
      "ిలియ": 5271,
      "కలు": 5272,
      "మాస": 5273,
      "ద్వార": 5274,
      "ుట్టు": 5275,
      "నీర": 5276,
      "యింట": 5277,
      "ీద": 5278,
      "ెచ్చ": 5279,
      "##ام": 5280,
      "చిల": 5281,
      "డుపు": 5282,
      "బోర్డ": 5283,
      "ైప": 5284,
      "శిల": 5285,
      "ెగ్": 5286,
      "ాశాల": 5287,
      "ండగ": 5288,
      "ితమ": 5289,
      "కరమ": 5290,
      "చర్ల": 5291,
      "ిటి": 5292,
      "్జా": 5293,
      "ంగి": 5294,
      "్షణ": 5295,
      "ne": 5296,
      "ఈసీ": 5297,
      "చిక": 5298,
      "మించి": 5299,
      "ాగి": 5300,
      "న్నార": 5301,
      "ాఖ": 5302,
      "ైమ": 5303,
      "్ది": 5304,
      "రోల్": 5305,
      "రుతు": 5306,
      "ుం": 5307,
      "ాడుక": 5308,
      "500": 5309,
      "కటి": 5310,
      "టాన్": 5311,
      "రిపో": 5312,
      "ాయా": 5313,
      "జనాల": 5314,
      "్వాత": 5315,
      "లన్నీ": 5316,
      "ఇటు": 5317,
      "దిలా": 5318,
      "##نے": 5319,
      "స్సా": 5320,
      "డిక": 5321,
      "ుంచ": 5322,
      "రాణ": 5323,
      "ామం": 5324,
      "రుస": 5325,
      "ిశ్ర": 5326,
      "ూసి": 5327,
      "న్ష": 5328,
      "క్తం": 5329,
      "కొని": 5330,
      "కలె": 5331,
      "గిర": 5332,
      "ాకపో": 5333,
      "గాల": 5334,
      "ుస్": 5335,
      "్యాలు": 5336,
      "చూస్త": 5337,
      "మిని": 5338,
      "ేశా": 5339,
      "ారీగా": 5340,
      "నరు": 5341,
      "నలో": 5342,
      "ోట్ల": 5343,
      "తిష్": 5344,
      "కరు": 5345,
      "కాం": 5346,
      "ోర్ట్": 5347,
      "మ్య": 5348,
      "ౌక": 5349,
      "చేశా": 5350,
      "శ్రమ": 5351,
      "యితే": 5352,
      "ుకోవడ": 5353,
      "చనిపో": 5354,
      "బంగా": 5355,
      "##لی": 5356,
      "ాలుగా": 5357,
      "##یڈیو": 5358,
      "లత": 5359,
      "nd": 5360,
      "ికలు": 5361,
      "త్న": 5362,
      "్లిక": 5363,
      "అజ": 5364,
      "ఆర": 5365,
      "ితు": 5366,
      "ౌడ": 5367,
      "రామా": 5368,
      "ముడ": 5369,
      "రుగ": 5370,
      "ాజమ": 5371,
      "ویڈیو": 5372,
      "##وی": 5373,
      "్లే": 5374,
      "କର": 5375,
      "పుల": 5376,
      "హస": 5377,
      "పెండ": 5378,
      "నాన్న": 5379,
      "మెద": 5380,
      "ిగించ": 5381,
      "అక్క": 5382,
      "ేసింద": 5383,
      "tt": 5384,
      "ాత్": 5385,
      "ందుత": 5386,
      "రణి": 5387,
      "కప్పు": 5388,
      "ెసి": 5389,
      "##ئی": 5390,
      "మైంద": 5391,
      "ణల": 5392,
      "బండ": 5393,
      "యింద": 5394,
      "అడుగ": 5395,
      "ండ్రి": 5396,
      "ుళ": 5397,
      "ొగ": 5398,
      "వాలని": 5399,
      "ma": 5400,
      "##ات": 5401,
      "ల్ద": 5402,
      "ిజం": 5403,
      "ంకర్": 5404,
      "నాల్": 5405,
      "మాం": 5406,
      "దారు": 5407,
      "జైల": 5408,
      "గార": 5409,
      "తప": 5410,
      "కిష": 5411,
      "టైం": 5412,
      "వంగ": 5413,
      "సీస": 5414,
      "శో": 5415,
      "యూజ": 5416,
      "گیا": 5417,
      "ుల్ల": 5418,
      "ంపు": 5419,
      "కొచ్చ": 5420,
      "ీలను": 5421,
      "తక్క": 5422,
      "రంజ": 5423,
      "ర్వా": 5424,
      "సిస్": 5425,
      "ాబట్ట": 5426,
      "లోనూ": 5427,
      "75": 5428,
      "టల": 5429,
      "ిపోయి": 5430,
      "\"\"": 5431,
      "یہ": 5432,
      "గట్ట": 5433,
      "పత్తి": 5434,
      "బంద": 5435,
      "##్యం": 5436,
      "నుండ": 5437,
      "రుగు": 5438,
      "సెల": 5439,
      "ిష్య": 5440,
      "ుమత": 5441,
      "అన్": 5442,
      "రపు": 5443,
      "కొం": 5444,
      "కడప": 5445,
      "మీట": 5446,
      "ళ్లలో": 5447,
      "ేయర": 5448,
      "وں": 5449,
      "రికల": 5450,
      "go": 5451,
      "బాట": 5452,
      "చిన్": 5453,
      "కాలే": 5454,
      "ాన్న": 5455,
      "డీల": 5456,
      "టిల": 5457,
      "పత్ర": 5458,
      "భక్త": 5459,
      "మాల్": 5460,
      "##sh": 5461,
      "కుడు": 5462,
      "పోస": 5463,
      "చివర": 5464,
      "రంభ": 5465,
      "##ps": 5466,
      "ందరి": 5467,
      "వత్": 5468,
      "ౌల": 5469,
      "ట్టం": 5470,
      "ంద్": 5471,
      "భో": 5472,
      "వడం": 5473,
      "ీఫ్": 5474,
      "క్రా": 5475,
      "క్రి": 5476,
      "పిం": 5477,
      "్రిల్": 5478,
      "pa": 5479,
      "ష్క": 5480,
      "లాస": 5481,
      "తాయ": 5482,
      "ద్దని": 5483,
      "స్థా": 5484,
      "కెర": 5485,
      "ాళ్లు": 5486,
      "మర్శ": 5487,
      "శం": 5488,
      "పైగా": 5489,
      "ేర్చ": 5490,
      "##ری": 5491,
      "మాని": 5492,
      "ుతాయ": 5493,
      "ట్రి": 5494,
      "్టాల": 5495,
      "న్లు": 5496,
      "36": 5497,
      "ఖాన": 5498,
      "గవ": 5499,
      "డట": 5500,
      "ీదు": 5501,
      "ురించ": 5502,
      "టిస్": 5503,
      "పశ": 5504,
      "ెజ": 5505,
      "ోగా": 5506,
      "వేట": 5507,
      "డిగి": 5508,
      "కరాల": 5509,
      "చైర్": 5510,
      "జిల్": 5511,
      "వలన": 5512,
      "్దేశ": 5513,
      "వేర్": 5514,
      "ల్లుల": 5515,
      "మిస్": 5516,
      "డ్డు": 5517,
      "ాహి": 5518,
      "్గుర": 5519,
      "్వేష": 5520,
      "హం": 5521,
      "స్కా": 5522,
      "రిమ": 5523,
      "ానిస": 5524,
      "కై": 5525,
      "షి": 5526,
      "్కా": 5527,
      "నాం": 5528,
      "రుడు": 5529,
      "మిల": 5530,
      "##ھی": 5531,
      "రాని": 5532,
      "ేజీల": 5533,
      "జల్": 5534,
      "లూర": 5535,
      "ృత్": 5536,
      "##le": 5537,
      "వితం": 5538,
      "ہیں": 5539,
      "రబ": 5540,
      "లికి": 5541,
      "ాంట": 5542,
      "్రవ": 5543,
      "ర్లలో": 5544,
      "ఐద": 5545,
      "ాక్స్": 5546,
      "ఆటో": 5547,
      "రష్": 5548,
      "##لا": 5549,
      "నుల": 5550,
      "స్కర": 5551,
      "కొద్ద": 5552,
      "ట్లను": 5553,
      "్బం": 5554,
      "ల్యాణ": 5555,
      "గట": 5556,
      "జం": 5557,
      "ురు": 5558,
      "##st": 5559,
      "కొర": 5560,
      "రికి": 5561,
      "ోటు": 5562,
      "##జక": 5563,
      "ంచి": 5564,
      "ంధ్ర": 5565,
      "గం": 5566,
      "ివర్": 5567,
      "ఆరా": 5568,
      "డ్య": 5569,
      "టిఫ": 5570,
      "ర్లను": 5571,
      "సైట": 5572,
      "ిలిప": 5573,
      "##చేస": 5574,
      "నిచేస": 5575,
      "పోయి": 5576,
      "్యాక": 5577,
      "ుకల": 5578,
      "ూమ": 5579,
      "పాలి": 5580,
      "మిర": 5581,
      "మైనా": 5582,
      "అప్పు": 5583,
      "ుర్తి": 5584,
      "అక్": 5585,
      "ఫల": 5586,
      "్గా": 5587,
      "విన్": 5588,
      "మీప": 5589,
      "డ్డా": 5590,
      "ంతక": 5591,
      "ాలోని": 5592,
      "ాటల": 5593,
      "్నల": 5594,
      "48": 5595,
      "అలీ": 5596,
      "లయా": 5597,
      "శనం": 5598,
      "ుఖ్యం": 5599,
      "33": 5600,
      "ియోజక": 5601,
      "ఇన్న": 5602,
      "మద్ద": 5603,
      "హే": 5604,
      "##de": 5605,
      "టుగా": 5606,
      "ోషి": 5607,
      "300": 5608,
      "గళ": 5609,
      "డక": 5610,
      "దయ": 5611,
      "ేయి": 5612,
      "ాయకు": 5613,
      "ai": 5614,
      "టక": 5615,
      "బిన": 5616,
      "ికార": 5617,
      "ోన్ల": 5618,
      "హ్యా": 5619,
      "ెడు": 5620,
      "ందాల": 5621,
      "ాడే": 5622,
      "్మర": 5623,
      "32": 5624,
      "జయ్": 5625,
      "లన్": 5626,
      "కొడ": 5627,
      "క్కల": 5628,
      "యిస్": 5629,
      "తాల": 5630,
      "హ్య": 5631,
      "##re": 5632,
      "వివ": 5633,
      "ుక్ర": 5634,
      "ఒకట": 5635,
      "ంజి": 5636,
      "ంలోనే": 5637,
      "ఖాత": 5638,
      "దరు": 5639,
      "దరిక": 5640,
      "ధవ": 5641,
      "శలు": 5642,
      "ీడీ": 5643,
      "ృద": 5644,
      "##یک": 5645,
      "కాశాల": 5646,
      "పాయి": 5647,
      "వ్వా": 5648,
      "పస": 5649,
      "పాడు": 5650,
      "ోవాలి": 5651,
      "మోద": 5652,
      "నూర": 5653,
      "ఘో": 5654,
      "సిల": 5655,
      "ాయుడు": 5656,
      "ంద్రా": 5657,
      "ంహ": 5658,
      "దవ": 5659,
      "షణ": 5660,
      "##ma": 5661,
      "ట్లా": 5662,
      "పుడు": 5663,
      "బీజ": 5664,
      "ఘోర": 5665,
      "టూ": 5666,
      "్లు": 5667,
      "కుంట": 5668,
      "్రామా": 5669,
      "బలం": 5670,
      "cha": 5671,
      "లబ్": 5672,
      "ాయన": 5673,
      "ేశాడు": 5674,
      "ితులు": 5675,
      "బట్ట": 5676,
      "్గ": 5677,
      "టీం": 5678,
      "ండర": 5679,
      "ుండటం": 5680,
      "బయటప": 5681,
      "శ్వాస": 5682,
      "42": 5683,
      "దైన": 5684,
      "దురు": 5685,
      "ెంట్ల": 5686,
      "ఫోర": 5687,
      "ేనని": 5688,
      "ుతుంద": 5689,
      "కాన": 5690,
      "ారాలు": 5691,
      "చెం": 5692,
      "డిని": 5693,
      "సిప": 5694,
      "మ్మె": 5695,
      "ాదాలు": 5696,
      "్నె": 5697,
      "దడ": 5698,
      "బల్": 5699,
      "##di": 5700,
      "పెర": 5701,
      "చిద": 5702,
      "ర్మన": 5703,
      "ba": 5704,
      "కద": 5705,
      "ధ్ర": 5706,
      "ేశారు": 5707,
      "ంకే": 5708,
      "కాశం": 5709,
      "పగ": 5710,
      "భివృ": 5711,
      "మం": 5712,
      "లయ్య": 5713,
      "వేడ": 5714,
      "న్నద": 5715,
      "తిన్": 5716,
      "ేటర్": 5717,
      "గన": 5718,
      "డొ": 5719,
      "మయ": 5720,
      "వకాశ": 5721,
      "మాండ": 5722,
      "తమ్": 5723,
      "డ్స్": 5724,
      "యోగాల": 5725,
      "్రాస": 5726,
      "పవన": 5727,
      "ోస్ట్": 5728,
      "్ఘ": 5729,
      "లున్న": 5730,
      "ియాల": 5731,
      "ిజ్": 5732,
      "ap": 5733,
      "శాం": 5734,
      "ీజీ": 5735,
      "టుకు": 5736,
      "జ్ర": 5737,
      "్ణ": 5738,
      "వైసీ": 5739,
      "యిస్త": 5740,
      "34": 5741,
      "ీఫ": 5742,
      "్యమ": 5743,
      "లాట": 5744,
      "లాన్": 5745,
      "ందన": 5746,
      "్వాన్": 5747,
      "ోపాల": 5748,
      "మ్యాచ": 5749,
      "37": 5750,
      "దగ": 5751,
      "ెరిగి": 5752,
      "రుకు": 5753,
      "ెట్లు": 5754,
      "చొ": 5755,
      "ోసి": 5756,
      "్డ్": 5757,
      "##ic": 5758,
      "ంకో": 5759,
      "ہم": 5760,
      "ఆల్": 5761,
      "ఔట్": 5762,
      "టలో": 5763,
      "ిసి": 5764,
      "##ga": 5765,
      "ری": 5766,
      "ంకర": 5767,
      "ప్రి": 5768,
      "గుప": 5769,
      "ంటో": 5770,
      "సగం": 5771,
      "్యో": 5772,
      "రణాల": 5773,
      "ుపై": 5774,
      "ర్గా": 5775,
      "్కీ": 5776,
      "్రాన్": 5777,
      "ర్లకు": 5778,
      "తులు": 5779,
      "ేస్తే": 5780,
      "బ్లీ": 5781,
      "com": 5782,
      "وائ": 5783,
      "బం": 5784,
      "ెవ": 5785,
      "##or": 5786,
      "లిసి": 5787,
      "సెస్": 5788,
      "ింహ": 5789,
      "ిర్య": 5790,
      "రాధా": 5791,
      "th": 5792,
      "యంగ": 5793,
      "రిక్": 5794,
      "150": 5795,
      "కాలేజ": 5796,
      "vs": 5797,
      "నవర": 5798,
      "మూర్": 5799,
      "రీల": 5800,
      "త్రా": 5801,
      "ిన్నా": 5802,
      "పండు": 5803,
      "ేస్తా": 5804,
      "ణంలో": 5805,
      "వీస": 5806,
      "గిపోయ": 5807,
      "దయా": 5808,
      "నప్ప": 5809,
      "ిభ": 5810,
      "##రుగు": 5811,
      "ారించ": 5812,
      "రేష": 5813,
      "ోగి": 5814,
      "రోహ": 5815,
      "సుమ": 5816,
      "్మల": 5817,
      "ెను": 5818,
      "స్సుల": 5819,
      "ుఖ్": 5820,
      "st": 5821,
      "కట్టు": 5822,
      "చల": 5823,
      "లలు": 5824,
      "ిలువ": 5825,
      "ెరి": 5826,
      "ెడ్డ": 5827,
      "am": 5828,
      "ఏది": 5829,
      "తరం": 5830,
      "ీసీ": 5831,
      "వింద": 5832,
      "లాక్": 5833,
      "తాడ": 5834,
      "క్కర్": 5835,
      "పీడ": 5836,
      "కెళ్ల": 5837,
      "గర": 5838,
      "ిధి": 5839,
      "ృష": 5840,
      "రాద": 5841,
      "్తారు": 5842,
      "్వీ": 5843,
      "లెట": 5844,
      "ండ్లు": 5845,
      "ుణం": 5846,
      "పటి": 5847,
      "పీసీ": 5848,
      "ేరా": 5849,
      "వాయ": 5850,
      "ట్రాన": 5851,
      "బెల": 5852,
      "హద": 5853,
      "మెజా": 5854,
      "్రాఫ": 5855,
      "తున్న": 5856,
      "్నాయ": 5857,
      "ిలిచ": 5858,
      "ుమార": 5859,
      "ెబ": 5860,
      "##ند": 5861,
      "ప్రద": 5862,
      "శిక్": 5863,
      "tion": 5864,
      "ఎక": 5865,
      "చుక": 5866,
      "రకు": 5867,
      "ల్చ": 5868,
      "ాడా": 5869,
      "ాట్ల": 5870,
      "ీనం": 5871,
      "ేడ": 5872,
      "ొనుగ": 5873,
      "ర్డ": 5874,
      "మరికొ": 5875,
      "ాయకుడ": 5876,
      "ొనుగో": 5877,
      "గంగా": 5878,
      "ినో": 5879,
      "్యలో": 5880,
      "డుప": 5881,
      "కట": 5882,
      "భయం": 5883,
      "ీటీ": 5884,
      "ొట": 5885,
      "పాస": 5886,
      "ధిలో": 5887,
      "జంట": 5888,
      "ీటర": 5889,
      "ీఎల్": 5890,
      "ేడు": 5891,
      "##lu": 5892,
      "##va": 5893,
      "ప్రకా": 5894,
      "యిద": 5895,
      "ర్టీ": 5896,
      "వర్షా": 5897,
      "సభ్యు": 5898,
      "ాపుర": 5899,
      "్టడ": 5900,
      "నగరం": 5901,
      "ాదాల": 5902,
      "త్రు": 5903,
      "రల": 5904,
      "షర్": 5905,
      "ోతు": 5906,
      "తిరు": 5907,
      "జరిగి": 5908,
      "్యల": 5909,
      "మార్ప": 5910,
      "్యాప": 5911,
      "మానం": 5912,
      "వాదం": 5913,
      "ఐదో": 5914,
      "po": 5915,
      "మద": 5916,
      "నివ": 5917,
      "ుపుల": 5918,
      "sa": 5919,
      "ఫే": 5920,
      "లార": 5921,
      "ాసు": 5922,
      "ెత": 5923,
      "తెగ": 5924,
      "రిపోయ": 5925,
      "పాయ": 5926,
      "దిగి": 5927,
      "యాడ": 5928,
      "ొచ్చి": 5929,
      "نہ": 5930,
      "డూ": 5931,
      "యశ": 5932,
      "ేకర": 5933,
      "విధి": 5934,
      "ాయించ": 5935,
      "ందన్": 5936,
      "పిక్": 5937,
      "డేవ": 5938,
      "ూపించ": 5939,
      "ిర్యా": 5940,
      "ఇన": 5941,
      "##رل": 5942,
      "ాలీ": 5943,
      "కాలి": 5944,
      "ళ్లకు": 5945,
      "ర్చి": 5946,
      "1న": 5947,
      "ఆప్": 5948,
      "తకు": 5949,
      "బార": 5950,
      "చేరి": 5951,
      "ట్టిన": 5952,
      "ఉదయ": 5953,
      "చక": 5954,
      "ప్య": 5955,
      "ాచ్": 5956,
      "ెష": 5957,
      "ేళ": 5958,
      "రణకు": 5959,
      "్లర": 5960,
      "తామని": 5961,
      "پی": 5962,
      "చేయి": 5963,
      "రిష": 5964,
      "సంబ": 5965,
      "లిటీ": 5966,
      "మిస్త": 5967,
      "15న": 5968,
      "##టల": 5969,
      "విమ": 5970,
      "వరక": 5971,
      "లీల": 5972,
      "్మద": 5973,
      "ణిక": 5974,
      "రన్న": 5975,
      "్మా": 5976,
      "##تے": 5977,
      "రిలీ": 5978,
      "ండాల": 5979,
      "్యూర": 5980,
      "ాణిక": 5981,
      "రిలీజ": 5982,
      "38": 5983,
      "తిప": 5984,
      "దంట": 5985,
      "ళం": 5986,
      "లేవ": 5987,
      "ంచం": 5988,
      "ఈవో": 5989,
      "ణలు": 5990,
      "ఫిక": 5991,
      "ీసు": 5992,
      "్సి": 5993,
      "ాముల": 5994,
      "ar": 5995,
      "కంగ": 5996,
      "టన": 5997,
      "యాన": 5998,
      "లిన": 5999,
      "ోలి": 6000,
      "ందీ": 6001,
      "చిత": 6002,
      "ేశవ": 6003,
      "ందించ": 6004,
      "وائرل": 6005,
      "డద": 6006,
      "ిరిగ": 6007,
      "్దీ": 6008,
      "##en": 6009,
      "##وں": 6010,
      "ప్పం": 6011,
      "క్యాప": 6012,
      "్సిటీ": 6013,
      "ja": 6014,
      "ంస్": 6015,
      "డని": 6016,
      "##ws": 6017,
      "కేషన్": 6018,
      "గుం": 6019,
      "ంగల్": 6020,
      "ిపే": 6021,
      "4న": 6022,
      "ోత్": 6023,
      "తీర్": 6024,
      "కవర్": 6025,
      "ోలేద": 6026,
      "్కార్": 6027,
      "55": 6028,
      "నంగా": 6029,
      "నిఖ": 6030,
      "ాబు": 6031,
      "22న": 6032,
      "ts": 6033,
      "అక": 6034,
      "తూ": 6035,
      "శీల": 6036,
      "ాద్": 6037,
      "ున్నద": 6038,
      "రాసి": 6039,
      "ువ్వ": 6040,
      "ఘనత": 6041,
      "వడంతో": 6042,
      "డర్ల": 6043,
      "ివే": 6044,
      "యోగి": 6045,
      "్ట్రా": 6046,
      "వకాశా": 6047,
      "ch": 6048,
      "ni": 6049,
      "తాలు": 6050,
      "శర": 6051,
      "కిల్": 6052,
      "్తాన": 6053,
      "ప్రాం": 6054,
      "ిచే": 6055,
      "...": 6056,
      "41": 6057,
      "తం": 6058,
      "రప్": 6059,
      "వతి": 6060,
      "ిసా": 6061,
      "##da": 6062,
      "రాత": 6063,
      "న్నట": 6064,
      "యిర్": 6065,
      "65": 6066,
      "ام": 6067,
      "ఏఐ": 6068,
      "సంద": 6069,
      "ోటీ": 6070,
      "కుడి": 6071,
      "సిక్": 6072,
      "్కో": 6073,
      "ంతరం": 6074,
      "دع": 6075,
      "అవా": 6076,
      "చారి": 6077,
      "జస్": 6078,
      "ధుల": 6079,
      "్కి": 6080,
      "దాయ": 6081,
      "ుందుక": 6082,
      "తాయని": 6083,
      "ఈటల": 6084,
      "డాలి": 6085,
      "పించ": 6086,
      "భంగా": 6087,
      "##un": 6088,
      "డాన్": 6089,
      "్లవ": 6090,
      "ఆగస్ట": 6091,
      "మద్దత": 6092,
      "ఖ్": 6093,
      "త‌": 6094,
      "తాన": 6095,
      "ళీ": 6096,
      "కాకు": 6097,
      "కూర్": 6098,
      "ఫైనల": 6099,
      "یا": 6100,
      "ోను": 6101,
      "##ss": 6102,
      "నాన": 6103,
      "ంటికి": 6104,
      "అన్నా": 6105,
      "ంబా": 6106,
      "ిశా": 6107,
      "ఇస్": 6108,
      "మేమ": 6109,
      "అభివ": 6110,
      "జాగ్": 6111,
      "ిపడ": 6112,
      "ఆపై": 6113,
      "చుల": 6114,
      "జాల": 6115,
      "త్మ": 6116,
      "య్యా": 6117,
      "##ین": 6118,
      "కామ": 6119,
      "లాడ": 6120,
      "యిల": 6121,
      "ుండగ": 6122,
      "ోటీసు": 6123,
      "400": 6124,
      "నికల్": 6125,
      "చంద్": 6126,
      "39": 6127,
      "44": 6128,
      "9న": 6129,
      "బూ": 6130,
      "హత": 6131,
      "ొర": 6132,
      "్యత": 6133,
      "ామర్": 6134,
      "14న": 6135,
      "ీసుకు": 6136,
      "చన": 6137,
      "విక్": 6138,
      "లుస్త": 6139,
      "news": 6140,
      "తెల": 6141,
      "దుపు": 6142,
      "ళ్లను": 6143,
      "ిచేస": 6144,
      "మానుల": 6145,
      "ంధన": 6146,
      "er": 6147,
      "ఖ్యా": 6148,
      "యమ": 6149,
      "లాం": 6150,
      "పీల": 6151,
      "పదో": 6152,
      "్రమే": 6153,
      "్బా": 6154,
      "ిహార": 6155,
      "కదా": 6156,
      "ేసీ": 6157,
      "##ce": 6158,
      "్వం": 6159,
      "జేపీ": 6160,
      "జిట": 6161,
      "జిస్ట": 6162,
      "nt": 6163,
      "ఇబ": 6164,
      "జుల": 6165,
      "పిక": 6166,
      "్రై": 6167,
      "నామా": 6168,
      "వీకర": 6169,
      "కంగా": 6170,
      "కారి": 6171,
      "పడా": 6172,
      "లామ": 6173,
      "తమైన": 6174,
      "ాణం": 6175,
      "అసల": 6176,
      "ేయాలి": 6177,
      "కులకు": 6178,
      "ుచేస": 6179,
      "7న": 6180,
      "mo": 6181,
      "థ్": 6182,
      "్రు": 6183,
      "చేయలే": 6184,
      "ామీ": 6185,
      "ాయణ": 6186,
      "స్టుల": 6187,
      "ుగ్": 6188,
      "12వ": 6189,
      "de": 6190,
      "నను": 6191,
      "హాన్": 6192,
      "##را": 6193,
      "చేతి": 6194,
      "బాధ్య": 6195,
      "్యూస": 6196,
      "హాస": 6197,
      "యన్స్": 6198,
      "8న": 6199,
      "تص": 6200,
      "ంఘ": 6201,
      "ఇష్": 6202,
      "రుల": 6203,
      "వరిక": 6204,
      "ునా": 6205,
      "##ja": 6206,
      "ముత": 6207,
      "ేగం": 6208,
      "రౌండ": 6209,
      "نہیں": 6210,
      "అండ": 6211,
      "కాస్": 6212,
      "ద్ది": 6213,
      "nth": 6214,
      "پو": 6215,
      "ఓం": 6216,
      "కమ్": 6217,
      "##نگ": 6218,
      "కున్న": 6219,
      "రెట్": 6220,
      "మాత": 6221,
      "ాస్తు": 6222,
      "కని": 6223,
      "డలో": 6224,
      "నవా": 6225,
      "్తమ": 6226,
      "డిపో": 6227,
      "రును": 6228,
      "ిసె": 6229,
      "17న": 6230,
      "డుక": 6231,
      "భం": 6232,
      "ంగత": 6233,
      "యోగా": 6234,
      "రదా": 6235,
      "46": 6236,
      "دی": 6237,
      "కుత": 6238,
      "పాన": 6239,
      "వచ్చా": 6240,
      "తిలో": 6241,
      "టెంట్": 6242,
      "కమైన": 6243,
      "ిశ్రమ": 6244,
      "కస్": 6245,
      "జుక": 6246,
      "రద్ద": 6247,
      "్ము": 6248,
      "నిస్త": 6249,
      "సిస": 6250,
      "్రావ": 6251,
      "ాంత్": 6252,
      "ిపార": 6253,
      "10న": 6254,
      "15వ": 6255,
      "్తులు": 6256,
      "13న": 6257,
      "رہ": 6258,
      "ఆత": 6259,
      "డగా": 6260,
      "నయ": 6261,
      "యుత": 6262,
      "ీబీ": 6263,
      "కిర": 6264,
      "సూపర": 6265,
      "అమిత": 6266,
      "28న": 6267,
      "అడ్డు": 6268,
      "స్ర": 6269,
      "ిఖ": 6270,
      "లాండ": 6271,
      "12న": 6272,
      "ేకం": 6273,
      "la": 6274,
      "మట": 6275,
      "ొందర": 6276,
      "్దు": 6277,
      "##me": 6278,
      "ారంగా": 6279,
      "రించి": 6280,
      "52": 6281,
      "డుల": 6282,
      "ేహ": 6283,
      "నేన": 6284,
      "సిట": 6285,
      "రుడ": 6286,
      "ువార": 6287,
      "టెన": 6288,
      "ద్రా": 6289,
      "భంగ": 6290,
      "్యుత": 6291,
      "యాక": 6292,
      "ాలిట": 6293,
      "ెయిన": 6294,
      "ష్టమ": 6295,
      "vide": 6296,
      "bab": 6297,
      "video": 6298,
      "51": 6299,
      "pr": 6300,
      "చేవ": 6301,
      "కరణ": 6302,
      "్డర్": 6303,
      "ndra": 6304,
      "ేయించ": 6305,
      "gu": 6306,
      "su": 6307,
      "وال": 6308,
      "డబ్బ": 6309,
      "ష్యం": 6310,
      "ేపీ": 6311,
      "##ka": 6312,
      "మాధ": 6313,
      "ిప్ర": 6314,
      "బెల్": 6315,
      "్నర్": 6316,
      "స్కో": 6317,
      "ఇష": 6318,
      "ెరుగు": 6319,
      "##il": 6320,
      "ప్రభ": 6321,
      "ించా": 6322,
      "సీన": 6323,
      "వలస": 6324,
      "తారని": 6325,
      "్దుల": 6326,
      "నార": 6327,
      "యుల": 6328,
      "యేట": 6329,
      "ికన": 6330,
      "గిం": 6331,
      "20న": 6332,
      "54": 6333,
      "ుగుల": 6334,
      "్జు": 6335,
      "##اب": 6336,
      "నాడ": 6337,
      "మెరి": 6338,
      "ాయల": 6339,
      "రేవ": 6340,
      "పిస": 6341,
      "బెట": 6342,
      "బ్బు": 6343,
      "ుగో": 6344,
      "25న": 6345,
      "جس": 6346,
      "విద": 6347,
      "రెన్": 6348,
      "కొంట": 6349,
      "పరిష": 6350,
      "స్టో": 6351,
      "ంకుల": 6352,
      "శంకర": 6353,
      "19న": 6354,
      "ర్యాద": 6355,
      "ెలిప": 6356,
      "2న": 6357,
      "3న": 6358,
      "ka": 6359,
      "ys": 6360,
      "తవ": 6361,
      "ఫు": 6362,
      "మంగ": 6363,
      "##dh": 6364,
      "##ఆర": 6365,
      "49": 6366,
      "సరే": 6367,
      "ర్గం": 6368,
      "30న": 6369,
      "శ్వర్": 6370,
      "్విట": 6371,
      "లించ": 6372,
      "గాడ": 6373,
      "ార్గ": 6374,
      "ల్లీ": 6375,
      "ండో": 6376,
      "ట్రల": 6377,
      "ంపి": 6378,
      "సహజ": 6379,
      "్లాద": 6380,
      "జెక్ట": 6381,
      "దొర": 6382,
      "్నాడు": 6383,
      "##اتھ": 6384,
      "రాష్": 6385,
      "వాసం": 6386,
      "ామన్": 6387,
      "యాస": 6388,
      "ంటె": 6389,
      "10వ": 6390,
      "నిజా": 6391,
      "త్యం": 6392,
      "డ్లు": 6393,
      "27న": 6394,
      "47": 6395,
      "యనా": 6396,
      "శాల్": 6397,
      "ెక": 6398,
      "ిస్తా": 6399,
      "ామి": 6400,
      "మెన": 6401,
      "ల్స": 6402,
      "ేశం": 6403,
      "అయ్యి": 6404,
      "టేషన్": 6405,
      "18వ": 6406,
      "సవాల": 6407,
      "పోయిన": 6408,
      "5న": 6409,
      "6న": 6410,
      "ధా": 6411,
      "##تا": 6412,
      "్రయి": 6413,
      "అవక": 6414,
      "ఉంటా": 6415,
      "మోడ": 6416,
      "8వ": 6417,
      "##ru": 6418,
      "కించ": 6419,
      "లేన": 6420,
      "్వర్": 6421,
      "43": 6422,
      "?,": 6423,
      "ఢీ": 6424,
      "లంత": 6425,
      "లవ్": 6426,
      "ున్": 6427,
      "##کھا": 6428,
      "పట్టా": 6429,
      "్పించ": 6430,
      "గొడ": 6431,
      "ేదని": 6432,
      "19వ": 6433,
      "మాదం": 6434,
      "్యలను": 6435,
      "ta": 6436,
      "పెళ్ల": 6437,
      "18న": 6438,
      "16న": 6439,
      "ినేష": 6440,
      "va": 6441,
      "గడ్": 6442,
      "ుండి": 6443,
      "##نا": 6444,
      "##vi": 6445,
      "ోర్డ": 6446,
      "యాని": 6447,
      "శ్రీన": 6448,
      "యిర": 6449,
      "్లడ": 6450,
      "ఊరట": 6451,
      "యినా": 6452,
      "వహర": 6453,
      "babu": 6454,
      "سو": 6455,
      "చద": 6456,
      "చించ": 6457,
      "వద": 6458,
      "ేకు": 6459,
      "##وٹ": 6460,
      "కుడ": 6461,
      "్యుడ": 6462,
      "రాజీ": 6463,
      "ాగ్ర": 6464,
      "ఎన్టీ": 6465,
      "ీలన": 6466,
      "11వ": 6467,
      "red": 6468,
      "nga": 6469,
      "టచ్": 6470,
      "ీరం": 6471,
      "పోతే": 6472,
      "ిక్ర": 6473,
      "ంటాయి": 6474,
      "్రకార": 6475,
      "ఫ్రి": 6476,
      "23న": 6477,
      "ర్శి": 6478,
      "تھا": 6479,
      "##ea": 6480,
      "ుంటా": 6481,
      "రించే": 6482,
      "ియర": 6483,
      "ంట్లు": 6484,
      "ంచుకో": 6485,
      "ాటిల": 6486,
      "ుతుండ": 6487,
      "بھی": 6488,
      "ساتھ": 6489,
      "రాస్": 6490,
      "గాన్": 6491,
      "వామ": 6492,
      "త్తర": 6493,
      "టీవ": 6494,
      "యత్నం": 6495,
      "120": 6496,
      "ిమిత": 6497,
      "సిడె": 6498,
      "్పాట్": 6499,
      "sha": 6500,
      "ఆమ్": 6501,
      "ధారణ": 6502,
      "నన్": 6503,
      "ొల": 6504,
      "ోరా": 6505,
      "గారు": 6506,
      "సము": 6507,
      "వైస": 6508,
      "ారిక": 6509,
      "ూరులో": 6510,
      "డ్రి": 6511,
      "వేశాల": 6512,
      "ہوئے": 6513,
      "మంత్": 6514,
      "56": 6515,
      "72": 6516,
      "ip": 6517,
      "ఎమ్": 6518,
      "ిది": 6519,
      "ుము": 6520,
      "గాని": 6521,
      "్యే": 6522,
      "మానిక": 6523,
      "రూపా": 6524,
      "షన్లు": 6525,
      "ోట్": 6526,
      "##سٹ": 6527,
      "చెల్": 6528,
      "ికొ": 6529,
      "ర్చు": 6530,
      "26న": 6531,
      "to": 6532,
      "తగ": 6533,
      "థ్యం": 6534,
      "యల": 6535,
      "ెరా": 6536,
      "ಆದ": 6537,
      "ಎಂ": 6538,
      "##دی": 6539,
      "్రంగా": 6540,
      "టీన": 6541,
      "క్షాల": 6542,
      "రణల": 6543,
      "్పన": 6544,
      "కపోత": 6545,
      "ాలేద": 6546,
      "ివర్స": 6547,
      "9వ": 6548,
      "తంత": 6549,
      "దానిక": 6550,
      "స్టేట": 6551,
      "ంటా": 6552,
      "వున": 6553,
      "బ్బుల": 6554,
      "1వ": 6555,
      "అగ్": 6556,
      "ష్మ": 6557,
      "##ృహ": 6558,
      "బోర": 6559,
      "తగ్గి": 6560,
      "ెయిల": 6561,
      "ఓటర": 6562,
      "పణలు": 6563,
      "ಎಂಬ": 6564,
      "5వ": 6565,
      "اپ": 6566,
      "కగా": 6567,
      "తారా": 6568,
      "రమ్": 6569,
      "ూజ": 6570,
      "నిమా": 6571,
      "రాక్": 6572,
      "్రాజ": 6573,
      "గృహ": 6574,
      "థం": 6575,
      "ెప్": 6576,
      "##dy": 6577,
      "్రాల్": 6578,
      "డిగా": 6579,
      "సీఎ": 6580,
      "రేక": 6581,
      "్చర్": 6582,
      "పౌర": 6583,
      "రంభం": 6584,
      "4వ": 6585,
      "me": 6586,
      "ంతుల": 6587,
      "అర": 6588,
      "కల్ల": 6589,
      "ిబంధ": 6590,
      "##కే": 6591,
      "##ون": 6592,
      "##ld": 6593,
      "ారణా": 6594,
      "కోన": 6595,
      "టికి": 6596,
      "క్ష్య": 6597,
      "ిబంధన": 6598,
      "fa": 6599,
      "pla": 6600,
      "ఈయ": 6601,
      "టుల": 6602,
      "دعوی": 6603,
      "మంచ": 6604,
      "యడ": 6605,
      "లంట": 6606,
      "్జ్": 6607,
      "చేయగ": 6608,
      "ప్పుక": 6609,
      "మ్మా": 6610,
      "ర్షి": 6611,
      "జిం": 6612,
      "telu": 6613,
      "త‌న": 6614,
      "తన్": 6615,
      "సలు": 6616,
      "హమ": 6617,
      "్మార": 6618,
      "##اہ": 6619,
      "##li": 6620,
      "బాబ": 6621,
      "నీతి": 6622,
      "17వ": 6623,
      "175": 6624,
      "600": 6625,
      "##ing": 6626,
      "ఇర": 6627,
      "ఏమి": 6628,
      "నడి": 6629,
      "పత్": 6630,
      "యవ": 6631,
      "##wi": 6632,
      "ాయలు": 6633,
      "జాగ": 6634,
      "డ్డార": 6635,
      "రగత": 6636,
      "ెప్పు": 6637,
      "85": 6638,
      "میڈ": 6639,
      "లైన": 6640,
      "ాసా": 6641,
      "ూటి": 6642,
      "విచ": 6643,
      "స్న": 6644,
      "ారమ": 6645,
      "సీత": 6646,
      "మ్మల": 6647,
      "ెన్ష": 6648,
      "24న": 6649,
      "us": 6650,
      "ات": 6651,
      "పక్": 6652,
      "విట": 6653,
      "లాస్": 6654,
      "్చిత": 6655,
      "ంతర్": 6656,
      "ఫిర": 6657,
      "చర్చి": 6658,
      "250": 6659,
      "جان": 6660,
      "سر": 6661,
      "ین": 6662,
      "తుడ": 6663,
      "ీటర్": 6664,
      "ాలం": 6665,
      "కిల": 6666,
      "నేట": 6667,
      "వేష": 6668,
      "శుక్": 6669,
      "్నిస్": 6670,
      "3వ": 6671,
      "ంపా": 6672,
      "ఆగ్ర": 6673,
      "ఇవే": 6674,
      "బరి": 6675,
      "మనీ": 6676,
      "శార": 6677,
      "ూపు": 6678,
      "ోరి": 6679,
      "సీని": 6680,
      "వులు": 6681,
      "13వ": 6682,
      "ాగాన": 6683,
      "స్టేష": 6684,
      "tela": 6685,
      "మధు": 6686,
      "tter": 6687,
      "డటంతో": 6688,
      "ఈయన": 6689,
      "da": 6690,
      "ఐస్": 6691,
      "టాయి": 6692,
      "ివా": 6693,
      "ిటిష": 6694,
      "ాయక": 6695,
      "ందని": 6696,
      "53": 6697,
      "తకాల": 6698,
      "భ్": 6699,
      "మతం": 6700,
      "షమ": 6701,
      "##نی": 6702,
      "వెం": 6703,
      "చిస్త": 6704,
      "ాబాద": 6705,
      "దుగ": 6706,
      "హీర": 6707,
      "్సెస": 6708,
      "ీడీపీ": 6709,
      "ار": 6710,
      "గించ": 6711,
      "జనా": 6712,
      "నౌ": 6713,
      "యంలో": 6714,
      "ీగ": 6715,
      "ేబు": 6716,
      "##ya": 6717,
      "##na": 6718,
      "రాను": 6719,
      "ర్మా": 6720,
      "్యక": 6721,
      "సీఆర్": 6722,
      "దావ": 6723,
      "లిపోయ": 6724,
      "ాజు": 6725,
      "వస్తా": 6726,
      "టున": 6727,
      "ేశి": 6728,
      "వర్గం": 6729,
      "11న": 6730,
      "తులకు": 6731,
      "play": 6732,
      "ిటిషన": 6733,
      "64": 6734,
      "ya": 6735,
      "ింట్": 6736,
      "ీకా": 6737,
      "్క్": 6738,
      "##ur": 6739,
      "నిని": 6740,
      "నింద": 6741,
      "్రస్": 6742,
      "ినవ": 6743,
      "ానించ": 6744,
      "ద్దత": 6745,
      "రించడ": 6746,
      "ుండా": 6747,
      "16వ": 6748,
      "టర్న": 6749,
      "##ویر": 6750,
      "تصویر": 6751,
      "ab": 6752,
      "tha": 6753,
      "ంఖ": 6754,
      "షక": 6755,
      "ుమ్": 6756,
      "ూచ": 6757,
      "##ts": 6758,
      "ందరు": 6759,
      "యాస్": 6760,
      "బ్లా": 6761,
      "ోచన": 6762,
      "ర్భం": 6763,
      "reddy": 6764,
      "ఆగ్రహ": 6765,
      "57": 6766,
      "pm": 6767,
      "pic": 6768,
      "twi": 6769,
      "ధ్యా": 6770,
      "వాలి": 6771,
      "ైబ": 6772,
      "ోతే": 6773,
      "దాడ": 6774,
      "చిత్": 6775,
      "్రాం": 6776,
      "లెక్": 6777,
      "పీలో": 6778,
      "21న": 6779,
      "ుబాట": 6780,
      "59": 6781,
      "7వ": 6782,
      "mi": 6783,
      "تو": 6784,
      "ఏయ": 6785,
      "జత": 6786,
      "ణుల": 6787,
      "ితా": 6788,
      "ొల్": 6789,
      "##یر": 6790,
      "##tc": 6791,
      "నిద": 6792,
      "ర్జా": 6793,
      "చెరు": 6794,
      "పాప": 6795,
      "క్రవ": 6796,
      "దిగా": 6797,
      "సెస": 6798,
      "ర్షం": 6799,
      "ఏడో": 6800,
      "ఓకే": 6801,
      "ుర్క": 6802,
      "ూస్": 6803,
      "ారుడ": 6804,
      "సమర": 6805,
      "ష్టి": 6806,
      "భాగం": 6807,
      "30వ": 6808,
      "mala": 6809,
      "وا": 6810,
      "ంకా": 6811,
      "తట": 6812,
      "ిద్": 6813,
      "ీట్ల": 6814,
      "ౌంట": 6815,
      "్ష్": 6816,
      "రూం": 6817,
      "్టె": 6818,
      "్లిన": 6819,
      "ర్తల": 6820,
      "29న": 6821,
      "రాలే": 6822,
      "దరికీ": 6823,
      "బీజే": 6824,
      "58": 6825,
      "ca": 6826,
      "kal": 6827,
      "si": 6828,
      "ٹی": 6829,
      "దిక": 6830,
      "లని": 6831,
      "విని": 6832,
      "రాణా": 6833,
      "న్సీ": 6834,
      "యాట": 6835,
      "తాం": 6836,
      "20వ": 6837,
      "ాహ్న": 6838,
      "کرتے": 6839,
      "##psc": 6840,
      "میڈیا": 6841,
      "మంగా": 6842,
      "ళ్యా": 6843,
      "్రద": 6844,
      "్రక్": 6845,
      "ినట్ట": 6846,
      "చిర": 6847,
      "లిచ": 6848,
      "ండే": 6849,
      "క్షు": 6850,
      "పూట": 6851,
      "పిస్త": 6852,
      "ుస్తు": 6853,
      "ష్టా": 6854,
      "ాధార": 6855,
      "ఉద్": 6856,
      "తగా": 6857,
      "లల్లో": 6858,
      "్మె": 6859,
      "నిస్": 6860,
      "డిమ": 6861,
      "లిస": 6862,
      "ఏర్ప": 6863,
      "ానమ": 6864,
      "క్లి": 6865,
      "انہ": 6866,
      "66": 6867,
      "63": 6868,
      "di": 6869,
      "మతి": 6870,
      "రక్": 6871,
      "ేతు": 6872,
      "క్తి": 6873,
      "ంచాల": 6874,
      "్ధం": 6875,
      "ెప్పా": 6876,
      "##dia": 6877,
      "62": 6878,
      "bha": 6879,
      "دکھا": 6880,
      "తికి": 6881,
      "ెచ్": 6882,
      "ేను": 6883,
      "్రల": 6884,
      "కూల్": 6885,
      "నాక": 6886,
      "ామె": 6887,
      "ంపుల": 6888,
      "స్థల": 6889,
      "మొదలై": 6890,
      "gov": 6891,
      "ఏయే": 6892,
      "or": 6893,
      "on": 6894,
      "ఖ్య": 6895,
      "తంగ": 6896,
      "పిన": 6897,
      "శవ": 6898,
      "శాన": 6899,
      "ూటీ": 6900,
      "ాలల": 6901,
      "్యాం": 6902,
      "త్నం": 6903,
      "ియల": 6904,
      "lo": 6905,
      "se": 6906,
      "بی": 6907,
      "ଅନ": 6908,
      "ఓటర్": 6909,
      "నతో": 6910,
      "వరించ": 6911,
      "ాసి": 6912,
      "ీరో": 6913,
      "ుంచి": 6914,
      "##te": 6915,
      "లోచ": 6916,
      "రాన": 6917,
      "కాగ": 6918,
      "కాబ": 6919,
      "ంటిక": 6920,
      "క్షేమ": 6921,
      "స్పత": 6922,
      "కర్ణ": 6923,
      "14వ": 6924,
      "ram": 6925,
      "ళ్యాణ": 6926,
      "2వ": 6927,
      "ac": 6928,
      "ri": 6929,
      "جار": 6930,
      "رو": 6931,
      "مو": 6932,
      "के": 6933,
      "ଏକ": 6934,
      "నీస": 6935,
      "షన": 6936,
      "ూవ": 6937,
      "##شن": 6938,
      "రోడ్డ": 6939,
      "ామిన": 6940,
      "##ంబర": 6941,
      "ీలకు": 6942,
      "నవంబర": 6943,
      "ئی": 6944,
      "بھ": 6945,
      "سی": 6946,
      "ଛନ": 6947,
      "ిస్థ": 6948,
      "##థ్య": 6949,
      "స్కూల": 6950,
      "రిం": 6951,
      "ట్న": 6952,
      "సులో": 6953,
      "బిల": 6954,
      "ేపథ్య": 6955,
      "ాటికి": 6956,
      "కార్డ": 6957,
      "ంటలకు": 6958,
      "tiru": 6959,
      "bo": 6960,
      "ku": 6961,
      "దనే": 6962,
      "మయం": 6963,
      "రమా": 6964,
      "##ir": 6965,
      "్యస": 6966,
      "ామినే": 6967,
      "యింట్": 6968,
      "ిదా": 6969,
      "ుచు": 6970,
      "ోగాల": 6971,
      "28వ": 6972,
      "ఎడమ": 6973,
      "ధ్యత": 6974,
      "##rea": 6975,
      "li": 6976,
      "జర్వ": 6977,
      "థలు": 6978,
      "లద": 6979,
      "ురం": 6980,
      "ైలు": 6981,
      "ోనే": 6982,
      "రుడి": 6983,
      "ఉంటాయ": 6984,
      "రీమ": 6985,
      "డుకు": 6986,
      "ష్కర": 6987,
      "ర్చా": 6988,
      "ీకార": 6989,
      "کرنے": 6990,
      "ru": 6991,
      "చరించ": 6992,
      "దై": 6993,
      "వమ": 6994,
      "ైపు": 6995,
      "ర్నా": 6996,
      "##డియ": 6997,
      "వైన": 6998,
      "షన్ల": 6999,
      "ద్రి": 7000,
      "ట్లాడ": 7001,
      "99": 7002,
      "ele": 7003,
      "ఖల": 7004,
      "ేకా": 7005,
      "రెక్ట": 7006,
      "కోర్ట": 7007,
      "మీడియ": 7008,
      "చిపో": 7009,
      "రీస్": 7010,
      "పడం": 7011,
      "్బంద": 7012,
      "రాహు": 7013,
      "తిరుమ": 7014,
      "థుల": 7015,
      "బన": 7016,
      "రన": 7017,
      "వాత": 7018,
      "ామర": 7019,
      "మెట్": 7020,
      "దిప": 7021,
      "యాన్న": 7022,
      "ానాలు": 7023,
      "నిరస": 7024,
      "గిప": 7025,
      "ోల్ప": 7026,
      "ంగ్స్": 7027,
      "ంధు": 7028,
      "ూడో": 7029,
      "్రహం": 7030,
      "కగ": 7031,
      "హక": 7032,
      "ౌన": 7033,
      "##ణం": 7034,
      "##ch": 7035,
      "##شل": 7036,
      "కుమ": 7037,
      "కేసీ": 7038,
      "త్రుల": 7039,
      "పొందు": 7040,
      "ఆడే": 7041,
      "ాప్త": 7042,
      "జెన": 7043,
      "ాథ్": 7044,
      "ర్వాత": 7045,
      "ోల్పో": 7046,
      "ఆడి": 7047,
      "ఊరు": 7048,
      "థల": 7049,
      "రసా": 7050,
      "వుడ": 7051,
      "##ee": 7052,
      "##وگ": 7053,
      "న్నప": 7054,
      "లిమ": 7055,
      "వీట": 7056,
      "ంగల": 7057,
      "ాహా": 7058,
      "ఆరోపణ": 7059,
      "ేయడం": 7060,
      "పడింద": 7061,
      "్రదర్": 7062,
      "6వ": 7063,
      "67": 7064,
      "95": 7065,
      "مل": 7066,
      "ଏହ": 7067,
      "జలు": 7068,
      "డిన": 7069,
      "ధ్": 7070,
      "ాకి": 7071,
      "ోస్ట": 7072,
      "లుసు": 7073,
      "మాణం": 7074,
      "పెన": 7075,
      "డిల": 7076,
      "మేష": 7077,
      "యావ": 7078,
      "జీల": 7079,
      "క్షన": 7080,
      "ొన్నా": 7081,
      "్మన": 7082,
      "ుస్తా": 7083,
      "the": 7084,
      "pra": 7085,
      "pri": 7086,
      "wa": 7087,
      "ఏర": 7088,
      "హాన": 7089,
      "ిదే": 7090,
      "ీవా": 7091,
      "ూరం": 7092,
      "##rs": 7093,
      "##وم": 7094,
      "వరాల": 7095,
      "పొగ": 7096,
      "రకం": 7097,
      "లేకపో": 7098,
      "elec": 7099,
      "జయం": 7100,
      "దాల": 7101,
      "యలో": 7102,
      "ాతా": 7103,
      "ిలిచి": 7104,
      "ీఆర": 7105,
      "ోసారి": 7106,
      "##ro": 7107,
      "తోప": 7108,
      "లిస్": 7109,
      "యూర": 7110,
      "రైల్": 7111,
      "ాడన": 7112,
      "ువై": 7113,
      "ెండు": 7114,
      "84": 7115,
      "ఏవీ": 7116,
      "గడం": 7117,
      "మను": 7118,
      "మకర": 7119,
      "ిపా": 7120,
      "గానిక": 7121,
      "టులు": 7122,
      "ాంక్": 7123,
      "జెన్": 7124,
      "144": 7125,
      "21వ": 7126,
      "61": 7127,
      "मे": 7128,
      "ధాన": 7129,
      "ుగ్గ": 7130,
      "ెంద": 7131,
      "ప్రయా": 7132,
      "సెం": 7133,
      "ాంతి": 7134,
      "్లాం": 7135,
      "800": 7136,
      "71": 7137,
      "ce": 7138,
      "is": 7139,
      "ro": 7140,
      "ww": 7141,
      "హ్ల": 7142,
      "హబ్": 7143,
      "##bc": 7144,
      "##عد": 7145,
      "్యకు": 7146,
      "నేషన్": 7147,
      "ళ్లార": 7148,
      "హాస్": 7149,
      "డెంట": 7150,
      "ాదుల": 7151,
      "టాక": 7152,
      "ోగ్": 7153,
      "షేర": 7154,
      "ప్రభు": 7155,
      "में": 7156,
      "king": 7157,
      "ంల": 7158,
      "ణీ": 7159,
      "ెత్": 7160,
      "ెటి": 7161,
      "ోకు": 7162,
      "##ہا": 7163,
      "##بر": 7164,
      "##ll": 7165,
      "ప్తు": 7166,
      "్షు": 7167,
      "తానని": 7168,
      "سوشل": 7169,
      "69": 7170,
      "kar": 7171,
      "man": 7172,
      "గస": 7173,
      "యట": 7174,
      "యడం": 7175,
      "సక్త": 7176,
      "##لہ": 7177,
      "సీల": 7178,
      "దిత": 7179,
      "ర్మన్": 7180,
      "్మక": 7181,
      "ిషన": 7182,
      "ేతల": 7183,
      "##ade": 7184,
      "హ్న": 7185,
      "ic": 7186,
      "ువల": 7187,
      "ోతా": 7188,
      "్సీ": 7189,
      "##سی": 7190,
      "ించగ": 7191,
      "ారంగ": 7192,
      "కోత": 7193,
      "రిద": 7194,
      "రువా": 7195,
      "యాంగ": 7196,
      "వస్తు": 7197,
      "తుగా": 7198,
      "్రేక": 7199,
      "31న": 7200,
      "india": 7201,
      "్గాల": 7202,
      "రోహి": 7203,
      "నౌక": 7204,
      "76": 7205,
      "77": 7206,
      "یو": 7207,
      "చలి": 7208,
      "్నం": 7209,
      "రాగ": 7210,
      "పోర్": 7211,
      "్యాడ": 7212,
      "స్టర": 7213,
      "మ్మడి": 7214,
      "ిటల": 7215,
      "ిష్క": 7216,
      "్వీక": 7217,
      "్వీట్": 7218,
      "సముద": 7219,
      "78": 7220,
      "డబ": 7221,
      "ిగు": 7222,
      "##ئر": 7223,
      "##mi": 7224,
      "నిబ": 7225,
      "ార్మి": 7226,
      "పెద": 7227,
      "్రాణా": 7228,
      "్థానం": 7229,
      "బితా": 7230,
      "కెట్ల": 7231,
      "్రీన": 7232,
      "ేరుత": 7233,
      "ీలక": 7234,
      "ులోని": 7235,
      "ిసార": 7236,
      "శ్వా": 7237,
      "ీళ్లు": 7238,
      "ہمیں": 7239,
      "jag": 7240,
      "tspsc": 7241,
      "پوسٹ": 7242,
      "www": 7243,
      "82": 7244,
      "نگ": 7245,
      "وی": 7246,
      "گئی": 7247,
      "నట్ల": 7248,
      "పత్రి": 7249,
      "షర": 7250,
      "ిబ్బ": 7251,
      "ూప్": 7252,
      "ెడుత": 7253,
      "##jp": 7254,
      "ారత": 7255,
      "రెన": 7256,
      "రెంట్": 7257,
      "చెన్": 7258,
      "ట్స": 7259,
      "రామం": 7260,
      "యాదవ": 7261,
      "ఆదా": 7262,
      "brea": 7263,
      "جو": 7264,
      "మద్": 7265,
      "రలు": 7266,
      "రను": 7267,
      "వట": 7268,
      "శల": 7269,
      "శక": 7270,
      "##sa": 7271,
      "##ho": 7272,
      "##ke": 7273,
      "##tt": 7274,
      "కరీ": 7275,
      "ంచల": 7276,
      "ాటర": 7277,
      "వుడ్": 7278,
      "140": 7279,
      "ిగిలి": 7280,
      "వసరమ": 7281,
      "ad": 7282,
      "le": 7283,
      "جب": 7284,
      "لی": 7285,
      "ఈడ": 7286,
      "బద": 7287,
      "##bi": 7288,
      "##ge": 7289,
      "##ve": 7290,
      "న్నాయ": 7291,
      "ానన": 7292,
      "ేశించ": 7293,
      "అలాంట": 7294,
      "కులను": 7295,
      "ంకట": 7296,
      "ాధ్": 7297,
      "25వ": 7298,
      "ువుర": 7299,
      "فر": 7300,
      "ଆର": 7301,
      "ంటు": 7302,
      "చిన": 7303,
      "జిన": 7304,
      "డికి": 7305,
      "తల్": 7306,
      "నక్": 7307,
      "ృష్ట": 7308,
      "ర్ని": 7309,
      "ారన్": 7310,
      "రెస": 7311,
      "్థం": 7312,
      "స్టు": 7313,
      "రైత": 7314,
      "ెలుప": 7315,
      "ర్నర్": 7316,
      "22వ": 7317,
      "ేల్చ": 7318,
      "లకే": 7319,
      "jagan": 7320,
      "شی": 7321,
      "طر": 7322,
      "من": 7323,
      "پا": 7324,
      "ఘట": 7325,
      "బడా": 7326,
      "యబ": 7327,
      "హారా": 7328,
      "ెంచ": 7329,
      "ారులు": 7330,
      "్రాలు": 7331,
      "లాక": 7332,
      "మెల": 7333,
      "శాని": 7334,
      "ీజన": 7335,
      "రిగి": 7336,
      "ాటిక": 7337,
      "700": 7338,
      "tions": 7339,
      "రూపాయ": 7340,
      "ck": 7341,
      "دو": 7342,
      "لئے": 7343,
      "ఏదీ": 7344,
      "చామ": 7345,
      "పరుగ": 7346,
      "##టూ": 7347,
      "##wan": 7348,
      "ించార": 7349,
      "ారె": 7350,
      "కోర్": 7351,
      "డియా": 7352,
      "సాద": 7353,
      "్వార": 7354,
      "చ్చే": 7355,
      "పులు": 7356,
      "వ్యత": 7357,
      "యూస": 7358,
      "గిస": 7359,
      "గిలి": 7360,
      "ుకోలే": 7361,
      "గోల": 7362,
      "ర్టీల": 7363,
      "ిలే": 7364,
      "ంద్రబ": 7365,
      "26వ": 7366,
      "post": 7367,
      "دیش": 7368,
      "నన": 7369,
      "యస": 7370,
      "ిపు": 7371,
      "ుత్వ": 7372,
      "##up": 7373,
      "తోట": 7374,
      "పాధ": 7375,
      "వేస్త": 7376,
      "డ్జె": 7377,
      "ంచా": 7378,
      "ాంతం": 7379,
      "160": 7380,
      "ండ్రు": 7381,
      "షమీ": 7382,
      "68": 7383,
      "ng": 7384,
      "up": 7385,
      "دیک": 7386,
      "है": 7387,
      "కళ": 7388,
      "##ct": 7389,
      "ల్త": 7390,
      "మేన": 7391,
      "సభా": 7392,
      "అయ్యా": 7393,
      "ాట్లు": 7394,
      "73": 7395,
      "bjp": 7396,
      "cm": 7397,
      "ہند": 7398,
      "కను": 7399,
      "చలన": 7400,
      "టలు": 7401,
      "శన": 7402,
      "షల": 7403,
      "ీతో": 7404,
      "ురే": 7405,
      "ూడు": 7406,
      "##mar": 7407,
      "##عل": 7408,
      "్రయ": 7409,
      "పార్": 7410,
      "కేష్": 7411,
      "యాగ": 7412,
      "టెస్ట": 7413,
      "డేం": 7414,
      "29వ": 7415,
      "en": 7416,
      "ంస్థ": 7417,
      "అణ": 7418,
      "##رم": 7419,
      "##ول": 7420,
      "##ఢ్": 7421,
      "రాడ": 7422,
      "కార్ప": 7423,
      "్యంగ": 7424,
      "న్నో": 7425,
      "కలకు": 7426,
      "రుష": 7427,
      "రేంద": 7428,
      "పదం": 7429,
      "జెట్": 7430,
      "ిలోకి": 7431,
      "23వ": 7432,
      "27వ": 7433,
      "prade": 7434,
      "kaly": 7435,
      "ంస్థల": 7436,
      "అణు": 7437,
      "88": 7438,
      "hi": 7439,
      "ఓవర": 7440,
      "షాల": 7441,
      "ిరో": 7442,
      "న్సి": 7443,
      "నేల": 7444,
      "మున్": 7445,
      "కేం": 7446,
      "కొడుక": 7447,
      "తనక": 7448,
      "108": 7449,
      "్రిగ": 7450,
      "119": 7451,
      "వలం": 7452,
      "ృష్టి": 7453,
      "it": 7454,
      "of": 7455,
      "yo": 7456,
      "اب": 7457,
      "بار": 7458,
      "అదీ": 7459,
      "ఆనం": 7460,
      "గఢ్": 7461,
      "భీ": 7462,
      "మయ్": 7463,
      "రసన": 7464,
      "వర్ల": 7465,
      "ుంబ": 7466,
      "ృద్ధ": 7467,
      "##تی": 7468,
      "##یس": 7469,
      "##اد": 7470,
      "##چھ": 7471,
      "ార్ప": 7472,
      "చెల": 7473,
      "రిన్": 7474,
      "ములు": 7475,
      "దివా": 7476,
      "తేజ": 7477,
      "ళ్లి": 7478,
      "పీఎ": 7479,
      "ియే": 7480,
      "పంపి": 7481,
      "నడక": 7482,
      "##ara": 7483,
      "raj": 7484,
      "che": 7485,
      "ూచి": 7486,
      "74": 7487,
      "bi": 7488,
      "brs": 7489,
      "ga": 7490,
      "so": 7491,
      "مت": 7492,
      "پہ": 7493,
      "ఆవు": 7494,
      "ఈజీ": 7495,
      "ఉభ": 7496,
      "ణమ": 7497,
      "ణంగా": 7498,
      "లంలో": 7499,
      "ీటి": 7500,
      "ుప్": 7501,
      "ేగా": 7502,
      "నేహ": 7503,
      "యత్నా": 7504,
      "ంభించ": 7505,
      "ایس": 7506,
      "ధ్యం": 7507,
      "ైకో": 7508,
      "ృద్ధి": 7509,
      "ఉభయ": 7510,
      "nc": 7511,
      "pu": 7512,
      "ఉరి": 7513,
      "ఓట్": 7514,
      "టుక": 7515,
      "దజ": 7516,
      "ెబ్బ": 7517,
      "ేదు": 7518,
      "##us": 7519,
      "ాలజ": 7520,
      "నిగ": 7521,
      "ించలే": 7522,
      "త్వా": 7523,
      "యార్": 7524,
      "ంధించ": 7525,
      "350": 7526,
      "pawan": 7527,
      "kumar": 7528,
      "شیئر": 7529,
      "81": 7530,
      "دور": 7531,
      "یں": 7532,
      "ఐడీ": 7533,
      "పంద": 7534,
      "సృ": 7535,
      "ిరేక": 7536,
      "కున": 7537,
      "రోస": 7538,
      "రీని": 7539,
      "పూల": 7540,
      "ిచా": 7541,
      "125": 7542,
      "్నాలు": 7543,
      "##ارت": 7544,
      "్శక": 7545,
      "్తింప": 7546,
      "andh": 7547,
      "ుభవ": 7548,
      "చేశాడ": 7549,
      "ఇక్క": 7550,
      "ఎంట": 7551,
      "లయం": 7552,
      "హవా": 7553,
      "##dp": 7554,
      "##خت": 7555,
      "విస్": 7556,
      "్రలో": 7557,
      "ర్వే": 7558,
      "్యప": 7559,
      "కేర": 7560,
      "పొంది": 7561,
      "యిలో": 7562,
      "యుడు": 7563,
      "రాము": 7564,
      "24వ": 7565,
      "వంత్": 7566,
      "im": 7567,
      "wor": 7568,
      "وہ": 7569,
      "ରେ": 7570,
      "ఓయ": 7571,
      "టాలు": 7572,
      "దక": 7573,
      "ధాల": 7574,
      "పరుగు": 7575,
      "యార": 7576,
      "ెరిగ": 7577,
      "##rc": 7578,
      "పేస": 7579,
      "ుంటాయ": 7580,
      "తాత": 7581,
      "మిస": 7582,
      "టింగ": 7583,
      "్చా": 7584,
      "్చారు": 7585,
      "ియు": 7586,
      "అలాగ": 7587,
      "ిలోని": 7588,
      "ద్ధం": 7589,
      "goo": 7590,
      "##ابق": 7591,
      "ఓయూ": 7592,
      "89": 7593,
      "bbc": 7594,
      "con": 7595,
      "gb": 7596,
      "ss": 7597,
      "ڈی": 7598,
      "ఇక్": 7599,
      "కస": 7600,
      "టర": 7601,
      "టర్ల": 7602,
      "ల్య": 7603,
      "రాఫ": 7604,
      "ద్దే": 7605,
      "రిపి": 7606,
      "##امی": 7607,
      "రుగుత": 7608,
      "ttps": 7609,
      "భీం": 7610,
      "at": 7611,
      "ఏఈ": 7612,
      "కలో": 7613,
      "లల": 7614,
      "లంగ": 7615,
      "ిరే": 7616,
      "ౌడ్": 7617,
      "##20": 7618,
      "##قی": 7619,
      "సంవ": 7620,
      "డింద": 7621,
      "దీన్న": 7622,
      "ురై": 7623,
      "్పులు": 7624,
      "ుతుంట": 7625,
      "ేకప": 7626,
      "ిలియన": 7627,
      "ban": 7628,
      "tra": 7629,
      "wi": 7630,
      "جن": 7631,
      "की": 7632,
      "ଏବ": 7633,
      "ఉద్ద": 7634,
      "కవి": 7635,
      "గది": 7636,
      "గంలో": 7637,
      "ట్య": 7638,
      "డీస": 7639,
      "నయం": 7640,
      "రవే": 7641,
      "ాలన": 7642,
      "చింద": 7643,
      "లిస్త": 7644,
      "యూన": 7645,
      "పీక": 7646,
      "ంతమ": 7647,
      "గోడ": 7648,
      "వ్వడం": 7649,
      "ఇంటర": 7650,
      "ర్టు": 7651,
      "పథ్": 7652,
      "reva": 7653,
      "##ائی": 7654,
      "83": 7655,
      "ci": 7656,
      "بعد": 7657,
      "ంశాల": 7658,
      "చం": 7659,
      "టించ": 7660,
      "లడ": 7661,
      "హల్": 7662,
      "్రామ": 7663,
      "వాన్న": 7664,
      "బాటు": 7665,
      "ట్లలో": 7666,
      "మిష": 7667,
      "టిప": 7668,
      "్కార": 7669,
      "ాదని": 7670,
      "ప్రాధ": 7671,
      "ాంతా": 7672,
      "తుల్": 7673,
      "టానిక": 7674,
      "లర్లు": 7675,
      "##ورٹ": 7676,
      "మన్నా": 7677,
      "ిపారు": 7678,
      "ii": 7679,
      "یک": 7680,
      "గారం": 7681,
      "డటం": 7682,
      "తంగా": 7683,
      "థ్య": 7684,
      "ురి": 7685,
      "కుప": 7686,
      "అవే": 7687,
      "్కర": 7688,
      "బీబీ": 7689,
      "ద్యం": 7690,
      "ంచన": 7691,
      "ికిత": 7692,
      "ఫాం": 7693,
      "کہا": 7694,
      "86": 7695,
      "92": 7696,
      "el": 7697,
      "gan": 7698,
      "gle": 7699,
      "un": 7700,
      "का": 7701,
      "ఊరి": 7702,
      "డతా": 7703,
      "ధమ": 7704,
      "నదీ": 7705,
      "పుక": 7706,
      "ియోగ": 7707,
      "##رہ": 7708,
      "##im": 7709,
      "ారుత": 7710,
      "ులక": 7711,
      "సీజన": 7712,
      "ట్లకు": 7713,
      "లిలో": 7714,
      "తిల": 7715,
      "తేద": 7716,
      "ాదవ్": 7717,
      "అప్పట": 7718,
      "్డే": 7719,
      "ద్ధమ": 7720,
      "31వ": 7721,
      "pro": 7722,
      "طرح": 7723,
      "hea": 7724,
      "no": 7725,
      "ంతం": 7726,
      "కత్": 7727,
      "టార": 7728,
      "బలి": 7729,
      "మరే": 7730,
      "రాలు": 7731,
      "రప్ర": 7732,
      "ళల": 7733,
      "##ci": 7734,
      "గాం": 7735,
      "రోల": 7736,
      "చేశార": 7737,
      "మెడి": 7738,
      "రుప": 7739,
      "నెం": 7740,
      "పుట్": 7741,
      "క్కిం": 7742,
      "ితుడ": 7743,
      "లోచన": 7744,
      "ha": 7745,
      "جا": 7746,
      "جھ": 7747,
      "తంలో": 7748,
      "లన": 7749,
      "హుల": 7750,
      "##لے": 7751,
      "ారన": 7752,
      "కిస్": 7753,
      "్తల": 7754,
      "కేఏ": 7755,
      "్థా": 7756,
      "ాయత": 7757,
      "రికొ": 7758,
      "్యూల": 7759,
      "తప్పి": 7760,
      "ంతాల": 7761,
      "్లలో": 7762,
      "తువు": 7763,
      "ాధిక": 7764,
      "ిగాయి": 7765,
      "డియాల": 7766,
      "180": 7767,
      "పంచా": 7768,
      "ికేష": 7769,
      "ంటుంద": 7770,
      "cla": 7771,
      "بن": 7772,
      "طور": 7773,
      "گر": 7774,
      "ଉକ": 7775,
      "ఇత": 7776,
      "దట": 7777,
      "పడ్": 7778,
      "భాల": 7779,
      "ోజు": 7780,
      "##گر": 7781,
      "ించాల": 7782,
      "ికగా": 7783,
      "ద్వా": 7784,
      "దేశా": 7785,
      "ఆర్థ": 7786,
      "రీన్": 7787,
      "ిఫి": 7788,
      "్మిం": 7789,
      "యెల్": 7790,
      "##jay": 7791,
      "والے": 7792,
      "price": 7793,
      "ہندو": 7794,
      "world": 7795,
      "ଏବଂ": 7796,
      "97": 7797,
      "تح": 7798,
      "مط": 7799,
      "ملا": 7800,
      "کچھ": 7801,
      "ఎటు": 7802,
      "ఖం": 7803,
      "యక": 7804,
      "ోగు": 7805,
      "##ٹر": 7806,
      "రోవ": 7807,
      "చేయాల": 7808,
      "న్నవ": 7809,
      "పేర్": 7810,
      "్వె": 7811,
      "పిట": 7812,
      "ువకు": 7813,
      "్లాడి": 7814,
      "్షం": 7815,
      "గణన": 7816,
      "110": 7817,
      "130": 7818,
      "్బుల": 7819,
      "సకల": 7820,
      "shi": 7821,
      "370": 7822,
      "والی": 7823,
      "fact": 7824,
      "శారని": 7825,
      "دوران": 7826,
      "పడ్డా": 7827,
      "87": 7828,
      "ep": 7829,
      "hy": 7830,
      "mu": 7831,
      "ال": 7832,
      "రలో": 7833,
      "రజా": 7834,
      "##ٹی": 7835,
      "##وے": 7836,
      "##ود": 7837,
      "##در": 7838,
      "స్త్": 7839,
      "స్సీ": 7840,
      "నాయి": 7841,
      "సింది": 7842,
      "ాయప": 7843,
      "శాన్": 7844,
      "వైద": 7845,
      "వరస": 7846,
      "తిరుప": 7847,
      "య్యార": 7848,
      "తేమ": 7849,
      "రేల": 7850,
      "రికె": 7851,
      "తలను": 7852,
      "ఏకం": 7853,
      "ీయాల": 7854,
      "ంశం": 7855,
      "టర్లు": 7856,
      "gold": 7857,
      "سرچ": 7858,
      "79": 7859,
      "96": 7860,
      "lth": 7861,
      "مس": 7862,
      "గట్": 7863,
      "పంది": 7864,
      "ిళ": 7865,
      "ొంత": 7866,
      "##et": 7867,
      "ప్రాయ": 7868,
      "కోట్": 7869,
      "దాన్": 7870,
      "శాస": 7871,
      "మీన": 7872,
      "ట్టా": 7873,
      "కావడం": 7874,
      "ిజె": 7875,
      "టెల": 7876,
      "انی": 7877,
      "ుగులు": 7878,
      "యాలని": 7879,
      "ాట్లా": 7880,
      "ీట్లు": 7881,
      "98": 7882,
      "cup": 7883,
      "mp": 7884,
      "rt": 7885,
      "تر": 7886,
      "تیا": 7887,
      "لوگ": 7888,
      "می": 7889,
      "చనిప": 7890,
      "యర": 7891,
      "లల్ల": 7892,
      "##لم": 7893,
      "##పి": 7894,
      "##cr": 7895,
      "్యర": 7896,
      "సాన": 7897,
      "మెక": 7898,
      "ినియ": 7899,
      "జాగా": 7900,
      "్చల": 7901,
      "ెల్స": 7902,
      "ీక్షల": 7903,
      "##ana": 7904,
      "ఇదో": 7905,
      "vijay": 7906,
      "ipl": 7907,
      "kha": 7908,
      "rr": 7909,
      "sp": 7910,
      "گئے": 7911,
      "को": 7912,
      "ఇదీ": 7913,
      "మత్": 7914,
      "మమత": 7915,
      "షించ": 7916,
      "‌‌": 7917,
      "##్వా": 7918,
      "##عم": 7919,
      "##బా": 7920,
      "రింగ": 7921,
      "పాట్ల": 7922,
      "న్నామ": 7923,
      "ల్లాల": 7924,
      "ండటం": 7925,
      "తిడ": 7926,
      "ద్దా": 7927,
      "క్షా": 7928,
      "ాణా": 7929,
      "ఇవ్వా": 7930,
      "్లార": 7931,
      "వుర": 7932,
      "111": 7933,
      "ోగించ": 7934,
      "నాలను": 7935,
      "ాతీ": 7936,
      "##ارف": 7937,
      "గ్గి": 7938,
      "رہے": 7939,
      "رہا": 7940,
      "اپنے": 7941,
      "es": 7942,
      "اں": 7943,
      "ఉన్": 7944,
      "ాదే": 7945,
      "ృం": 7946,
      "##لک": 7947,
      "గాన": 7948,
      "్యంత": 7949,
      "స్తో": 7950,
      "్తో": 7951,
      "సమం": 7952,
      "పుడ": 7953,
      "్పత్త": 7954,
      "చూపి": 7955,
      "ing": 7956,
      "tips": 7957,
      "ہونے": 7958,
      "କରି": 7959,
      "بھارت": 7960,
      "hyd": 7961,
      "91": 7962,
      "آئی": 7963,
      "پار": 7964,
      "ంజీ": 7965,
      "ఆగి": 7966,
      "బుల": 7967,
      "ీహ": 7968,
      "ీల్లో": 7969,
      "ూసు": 7970,
      "##یت": 7971,
      "##اک": 7972,
      "పోలి": 7973,
      "దీన": 7974,
      "చ్చా": 7975,
      "దులో": 7976,
      "ారిట": 7977,
      "పడవ": 7978,
      "్చన": 7979,
      "ిగే": 7980,
      "శించి": 7981,
      "కమిట": 7982,
      "ిహా": 7983,
      "ావిస్": 7984,
      "త‌మ": 7985,
      "modi": 7986,
      "93": 7987,
      "ed": 7988,
      "دن": 7989,
      "ون": 7990,
      "ఈమె": 7991,
      "ఉమా": 7992,
      "చార్": 7993,
      "టారు": 7994,
      "హత్": 7995,
      "ాంటి": 7996,
      "ిమాన": 7997,
      "ేరుక": 7998,
      "ోయా": 7999,
      "్హ": 8000,
      "్కు": 8001,
      "##قع": 8002,
      "ాలర": 8003,
      "డంప": 8004,
      "తిగా": 8005,
      "డ్డి": 8006,
      "హిర": 8007,
      "ఆహా": 8008,
      "సౌర": 8009,
      "ఇజ్రా": 8010,
      "##ائع": 8011,
      "##یکہ": 8012,
      "do": 8013,
      "آر": 8014,
      "ائ": 8015,
      "تھی": 8016,
      "صارف": 8017,
      "ంధి": 8018,
      "ఘన్": 8019,
      "చడం": 8020,
      "టప": 8021,
      "బయో": 8022,
      "రడ": 8023,
      "ాధి": 8024,
      "##نڈ": 8025,
      "##گو": 8026,
      "##زی": 8027,
      "##ظر": 8028,
      "నుకు": 8029,
      "నుమా": 8030,
      "్తం": 8031,
      "యామ": 8032,
      "డీఏ": 8033,
      "ఆర్టీ": 8034,
      "ండిప": 8035,
      "్రీం": 8036,
      "ేలియ": 8037,
      "ఎగ్": 8038,
      "##ائے": 8039,
      "ind": 8040,
      "900": 8041,
      "app": 8042,
      "امی": 8043,
      "5జీ": 8044,
      ">>": 8045,
      "fi": 8046,
      "tu": 8047,
      "را": 8048,
      "سب": 8049,
      "ہیکہ": 8050,
      "ఒప": 8051,
      "ఓడి": 8052,
      "తగు": 8053,
      "లంటే": 8054,
      "##ست": 8055,
      "నిన్": 8056,
      "కుక": 8057,
      "##యిల": 8058,
      "కిం": 8059,
      "తోష": 8060,
      "వాని": 8061,
      "టీఆర్": 8062,
      "ోవచ్చ": 8063,
      "క్షక": 8064,
      "క్టు": 8065,
      "బెయిల": 8066,
      "్పే": 8067,
      "్పొ": 8068,
      "104": 8069,
      "115": 8070,
      "డుతూ": 8071,
      "యాంక్": 8072,
      "్దా": 8073,
      "యాలను": 8074,
      "as": 8075,
      "qu": 8076,
      "son": 8077,
      "tdp": 8078,
      "اک": 8079,
      "کم": 8080,
      "గప": 8081,
      "నటన": 8082,
      "లయ్": 8083,
      "శక్త": 8084,
      "ెంక": 8085,
      "్యయ": 8086,
      "గులో": 8087,
      "్వడం": 8088,
      "సూర్": 8089,
      "ఆశా": 8090,
      "దళ్": 8091,
      "దళం": 8092,
      "ఆపి": 8093,
      "్పాటు": 8094,
      "##امل": 8095,
      "చుకో": 8096,
      "جارہا": 8097,
      "upi": 8098,
      "مق": 8099,
      "ہی": 8100,
      "ఆస్ట": 8101,
      "ఏక్": 8102,
      "టాన": 8103,
      "హేమ": 8104,
      "ేతి": 8105,
      "##ta": 8106,
      "##ైవ": 8107,
      "##షా": 8108,
      "రెట": 8109,
      "కొంద": 8110,
      "డిం": 8111,
      "గుర్": 8112,
      "ంపే": 8113,
      "మోడీ": 8114,
      "కపోవడ": 8115,
      "వేశం": 8116,
      "ధ్యక": 8117,
      "کرد": 8118,
      "ేసీఆర": 8119,
      "##علق": 8120,
      "claim": 8121,
      "op": 8122,
      "ott": 8123,
      "تھ": 8124,
      "دیا": 8125,
      "ٹو": 8126,
      "ଆଲ": 8127,
      "ఆం": 8128,
      "నమ్": 8129,
      "ుద్": 8130,
      "ోసా": 8131,
      "##se": 8132,
      "పాత్": 8133,
      "రోన": 8134,
      "ోవాల": 8135,
      "దువ": 8136,
      "దుకు": 8137,
      "ంపల": 8138,
      "తమై": 8139,
      "పీఏ": 8140,
      "బెంగ": 8141,
      "్రిప": 8142,
      "్షి": 8143,
      "బంధన": 8144,
      "్ట్రీ": 8145,
      "ress": 8146,
      "ایم": 8147,
      "ుతోంద": 8148,
      "mah": 8149,
      "ాయకుల": 8150,
      "اپنی": 8151,
      "షనర్": 8152,
      "యకర్త": 8153,
      "94": 8154,
      "du": 8155,
      "sc": 8156,
      "ve": 8157,
      "var": 8158,
      "بر": 8159,
      "بڑ": 8160,
      "سک": 8161,
      "ంన": 8162,
      "ంతే": 8163,
      "ఆకు": 8164,
      "కప": 8165,
      "ాధాన": 8166,
      "##su": 8167,
      "##ba": 8168,
      "కుంద": 8169,
      "రిన": 8170,
      "రింత": 8171,
      "మీక": 8172,
      "స్టి": 8173,
      "యాక్": 8174,
      "టీలో": 8175,
      "ినిప": 8176,
      "ినిమ": 8177,
      "ఎమ్మె": 8178,
      "ెంటర": 8179,
      "్లీల": 8180,
      "్లమ": 8181,
      "్మో": 8182,
      "ఏడాద": 8183,
      "ిషా": 8184,
      "ెటర": 8185,
      "450": 8186,
      "she": 8187,
      "హ్నం": 8188,
      "جانب": 8189,
      "مطابق": 8190,
      ">>>": 8191,
      "ben": 8192,
      "ho": 8193,
      "sri": 8194,
      "بنگ": 8195,
      "تب": 8196,
      "ఈవీ": 8197,
      "చవి": 8198,
      "దాలు": 8199,
      "మత్త": 8200,
      "ీవి": 8201,
      "ీసి": 8202,
      "ుట్టి": 8203,
      "##یل": 8204,
      "##lo": 8205,
      "##ms": 8206,
      "##లుగ": 8207,
      "రెం": 8208,
      "పోర": 8209,
      "వెలుగ": 8210,
      "రోడ": 8211,
      "ంటనే": 8212,
      "మిద": 8213,
      "ద్దర": 8214,
      "స్థి": 8215,
      "135": 8216,
      "ttd": 8217,
      "abad": 8218,
      "you": 8219,
      "rrr": 8220,
      "bu": 8221,
      "تل": 8222,
      "تعم": 8223,
      "رک": 8224,
      "گھ": 8225,
      "और": 8226,
      "డర": 8227,
      "దం": 8228,
      "భట్": 8229,
      "ిర్వ": 8230,
      "ెద్": 8231,
      "##jun": 8232,
      "##پورٹ": 8233,
      "##du": 8234,
      "##mc": 8235,
      "విడు": 8236,
      "్రయో": 8237,
      "రిని": 8238,
      "కేటీ": 8239,
      "లాన": 8240,
      "డారు": 8241,
      "్టల": 8242,
      "గిపో": 8243,
      "ుపె": 8244,
      "భ్యు": 8245,
      "బహి": 8246,
      "ఖాస్త": 8247,
      "్జి": 8248,
      "##day": 8249,
      "دعوے": 8250,
      "hyder": 8251,
      "ిర్వహ": 8252,
      "విడుద": 8253,
      "ex": 8254,
      "kon": 8255,
      "kri": 8256,
      "kcr": 8257,
      "war": 8258,
      "جے": 8259,
      "رپورٹ": 8260,
      "شائع": 8261,
      "مہ": 8262,
      "مع": 8263,
      "से": 8264,
      "అంది": 8265,
      "ఖర్": 8266,
      "చాన": 8267,
      "డను": 8268,
      "దప": 8269,
      "బిత": 8270,
      "మమ": 8271,
      "వక": 8272,
      "##be": 8273,
      "##مہ": 8274,
      "కల్య": 8275,
      "ట్లతో": 8276,
      "గ్రె": 8277,
      "ంగ్ర": 8278,
      "మోత": 8279,
      "ప్షన": 8280,
      "ిగిన": 8281,
      "ఇస్తా": 8282,
      "ట్టుబ": 8283,
      "డెం": 8284,
      "వుతా": 8285,
      "తుకు": 8286,
      "151": 8287,
      "ుమల": 8288,
      "ాయెల": 8289,
      "ోయింద": 8290,
      "انت": 8291,
      "and": 8292,
      "ہوا": 8293,
      "మీటర": 8294,
      "ఐదవ": 8295,
      "గళం": 8296,
      "واقع": 8297,
      "బహిర": 8298,
      "ev": 8299,
      "il": 8300,
      "ke": 8301,
      "san": 8302,
      "van": 8303,
      "حال": 8304,
      "سال": 8305,
      "مد": 8306,
      "مح": 8307,
      "وج": 8308,
      "ଖବ": 8309,
      "ఏవ": 8310,
      "ఏమో": 8311,
      "గ‌": 8312,
      "ఝా": 8313,
      "ధం": 8314,
      "నట్టు": 8315,
      "పబ్": 8316,
      "రనే": 8317,
      "రసం": 8318,
      "వ్ర": 8319,
      "ుసు": 8320,
      "##gh": 8321,
      "##بی": 8322,
      "##ly": 8323,
      "##mp": 8324,
      "్తార": 8325,
      "్తాయ": 8326,
      "ముద": 8327,
      "డింగ": 8328,
      "సీట": 8329,
      "టీని": 8330,
      "ాజిక": 8331,
      "్టర్": 8332,
      "ఇచ్చా": 8333,
      "జాడ": 8334,
      "యిం": 8335,
      "ాగర": 8336,
      "102": 8337,
      "గోలు": 8338,
      "్షా": 8339,
      "ిడె": 8340,
      "టాడ": 8341,
      "్నవ": 8342,
      "ఖాస": 8343,
      "allu": 8344,
      "్టిస": 8345,
      "స్తాయ": 8346,
      "ూముల": 8347,
      "today": 8348,
      "ଏହି": 8349,
      "నట్లు": 8350,
      "ଖବର": 8351,
      "ఏవో": 8352,
      "5g": 8353,
      "jo": 8354,
      "ko": 8355,
      "mar": 8356,
      "در": 8357,
      "ور": 8358,
      "అరు": 8359,
      "కతా": 8360,
      "చరి": 8361,
      "నమో": 8362,
      "యని": 8363,
      "లీస": 8364,
      "్నే": 8365,
      "్జీ": 8366,
      "##gg": 8367,
      "##از": 8368,
      "##ضی": 8369,
      "నింగ": 8370,
      "చెంది": 8371,
      "సీట్": 8372,
      "గులు": 8373,
      "సమస": 8374,
      "బావ": 8375,
      "మెల్": 8376,
      "మీల": 8377,
      "పులో": 8378,
      "గించి": 8379,
      "తెలుగ": 8380,
      "101": 8381,
      "చీర": 8382,
      "రుతో": 8383,
      "ani": 8384,
      "రాలకు": 8385,
      "డియోల": 8386,
      "ایکس": 8387,
      "్గొ": 8388,
      "ملک": 8389,
      "لیے": 8390,
      "پارٹی": 8391,
      "bs": 8392,
      "ia": 8393,
      "اع": 8394,
      "ست": 8395,
      "ସହ": 8396,
      "ఎటూ": 8397,
      "గుత": 8398,
      "ణా": 8399,
      "ధన్": 8400,
      "భిన": 8401,
      "లంద": 8402,
      "లనే": 8403,
      "##لف": 8404,
      "##ia": 8405,
      "##ti": 8406,
      "్రిక": 8407,
      "రియల": 8408,
      "లాడుత": 8409,
      "త్నా": 8410,
      "మ్మడ": 8411,
      "ేశ్వ": 8412,
      "పక్షా": 8413,
      "118": 8414,
      "170": 8415,
      "##یان": 8416,
      "ఆగం": 8417,
      "ివృ": 8418,
      "nda": 8419,
      "్యమైన": 8420,
      "ریس": 8421,
      "arjun": 8422,
      "ntr": 8423,
      "پولی": 8424,
      "imd": 8425,
      "he": 8426,
      "jee": 8427,
      "mm": 8428,
      "اف": 8429,
      "پڑ": 8430,
      "پشن": 8431,
      "کسی": 8432,
      "रह": 8433,
      "ଉପ": 8434,
      "ఐప": 8435,
      "గస్": 8436,
      "ణలో": 8437,
      "##am": 8438,
      "##رے": 8439,
      "##ూరు": 8440,
      "##ki": 8441,
      "##ڑک": 8442,
      "్రియ": 8443,
      "ర్కా": 8444,
      "దిని": 8445,
      "ప్పా": 8446,
      "చిస": 8447,
      "మూవ": 8448,
      "నీత": 8449,
      "మోదీ": 8450,
      "ిజన": 8451,
      "ిరుద": 8452,
      "తులో": 8453,
      "ర్టుల": 8454,
      "ిశ్వ": 8455,
      "ఎయిర": 8456,
      "ఏకే": 8457,
      "230": 8458,
      "pay": 8459,
      "420": 8460,
      "##unt": 8461,
      "చనల": 8462,
      "యమైన": 8463,
      "##اہر": 8464,
      "సీనియ": 8465,
      "beng": 8466,
      "تعمال": 8467,
      "پولیس": 8468,
      "bh": 8469,
      "par": 8470,
      "ran": 8471,
      "t20": 8472,
      "ur": 8473,
      "اد": 8474,
      "مخت": 8475,
      "کھ": 8476,
      "पर": 8477,
      "ଉଲ": 8478,
      "ఆంద": 8479,
      "ఐజీ": 8480,
      "జక": 8481,
      "పన్": 8482,
      "మడ": 8483,
      "వచ": 8484,
      "ాంధ": 8485,
      "##وع": 8486,
      "##ds": 8487,
      "చెర": 8488,
      "నేడ": 8489,
      "ందుబా": 8490,
      "క్కర": 8491,
      "ాడార": 8492,
      "ుడిగ": 8493,
      "ర్కె": 8494,
      "రమణ": 8495,
      "240": 8496,
      "224": 8497,
      "##راہ": 8498,
      "ష్మీ": 8499,
      "دیکھ": 8500,
      "గ్రెస": 8501,
      "em": 8502,
      "ver": 8503,
      "حم": 8504,
      "سم": 8505,
      "شر": 8506,
      "غل": 8507,
      "لگ": 8508,
      "مار": 8509,
      "نیو": 8510,
      "ఊపు": 8511,
      "చనాల": 8512,
      "యధ": 8513,
      "హరించ": 8514,
      "ిబ్": 8515,
      "ీపం": 8516,
      "ొద": 8517,
      "ಇದ": 8518,
      "చేం": 8519,
      "ప్రైవ": 8520,
      "దాద": 8521,
      "ాజ్య": 8522,
      "ందిస": 8523,
      "్లపై": 8524,
      "క్లా": 8525,
      "నమః": 8526,
      "vira": 8527,
      "్ట్స్": 8528,
      "ఎకరా": 8529,
      "09": 8530,
      "ion": 8531,
      "rc": 8532,
      "sr": 8533,
      "اے": 8534,
      "حک": 8535,
      "ٹر": 8536,
      "گوگ": 8537,
      "ଅପ": 8538,
      "ఏజ్": 8539,
      "టామ": 8540,
      "తజ": 8541,
      "మండి": 8542,
      "రయ్య": 8543,
      "శవం": 8544,
      "##gi": 8545,
      "##اوی": 8546,
      "##وب": 8547,
      "##ter": 8548,
      "##ఘు": 8549,
      "్రస": 8550,
      "రితం": 8551,
      "పోతు": 8552,
      "అయిత": 8553,
      "పరిస్": 8554,
      "త్నాల": 8555,
      "లిగి": 8556,
      "ంగాల": 8557,
      "ెన్షన": 8558,
      "డుద": 8559,
      "ాపి": 8560,
      "వసరం": 8561,
      "128": 8562,
      "మోహన": 8563,
      "కాదన": 8564,
      "్ధమ": 8565,
      "##یاد": 8566,
      "alu": 8567,
      "జ్రా": 8568,
      "ివేది": 8569,
      "కళా": 8570,
      "cong": 8571,
      "امیج": 8572,
      "05": 8573,
      "for": 8574,
      "gh": 8575,
      "mal": 8576,
      "tv": 8577,
      "شن": 8578,
      "مب": 8579,
      "کن": 8580,
      "گی": 8581,
      "ଯେ": 8582,
      "ఈత": 8583,
      "ఈఈ": 8584,
      "ఊపి": 8585,
      "ఠి": 8586,
      "తరా": 8587,
      "నయా": 8588,
      "రకా": 8589,
      "హనీ": 8590,
      "ేయల": 8591,
      "##gb": 8592,
      "##kh": 8593,
      "##od": 8594,
      "##fe": 8595,
      "మాక": 8596,
      "రున": 8597,
      "డీఈ": 8598,
      "సెగ": 8599,
      "దువు": 8600,
      "సుకు": 8601,
      "టిలో": 8602,
      "రీక": 8603,
      "ంజయ": 8604,
      "నందు": 8605,
      "్యులు": 8606,
      "టోన": 8607,
      "ూలం": 8608,
      "220": 8609,
      "ోనూ": 8610,
      "ర్పి": 8611,
      "ోజుల": 8612,
      "##ئیر": 8613,
      "##ریب": 8614,
      "poll": 8615,
      "య్యాయ": 8616,
      "ాగ్రత": 8617,
      "ొలగ": 8618,
      "త్వాన": 8619,
      "krish": 8620,
      "غلط": 8621,
      "گوگل": 8622,
      "ేయలే": 8623,
      "gp": 8624,
      "har": 8625,
      "tg": 8626,
      "tri": 8627,
      "we": 8628,
      "بیان": 8629,
      "جات": 8630,
      "خبر": 8631,
      "لہ": 8632,
      "لکھا": 8633,
      "وز": 8634,
      "پت": 8635,
      "అమ్": 8636,
      "ఎట్": 8637,
      "త్ప": 8638,
      "తాల్": 8639,
      "యశ్": 8640,
      "ీపై": 8641,
      "ెద": 8642,
      "ెయ్": 8643,
      "్టు": 8644,
      "##یہ": 8645,
      "##خص": 8646,
      "నిపో": 8647,
      "ించు": 8648,
      "గార్": 8649,
      "కోరి": 8650,
      "రిమి": 8651,
      "రితో": 8652,
      "ామన": 8653,
      "ికం": 8654,
      "గ్రత": 8655,
      "టీఆ": 8656,
      "ితాల": 8657,
      "ద్యమ": 8658,
      "టెన్": 8659,
      "ందిత": 8660,
      "ొచ్చా": 8661,
      "ిమాల": 8662,
      "్లకు": 8663,
      "ఆలం": 8664,
      "అనుమ": 8665,
      "రగడ": 8666,
      "వలే": 8667,
      "ంధం": 8668,
      "ియోల": 8669,
      "ౌరవ": 8670,
      "మాజి": 8671,
      "దర్భ": 8672,
      "ాఖ్": 8673,
      "poli": 8674,
      "ysrc": 8675,
      "ల్సిన": 8676,
      "انہوں": 8677,
      "ଏହା": 8678,
      "ceo": 8679,
      "ెంచు": 8680,
      "پہلے": 8681,
      "##قیق": 8682,
      "مختلف": 8683,
      "త్పత": 8684,
      "ay": 8685,
      "nan": 8686,
      "rs": 8687,
      "تم": 8688,
      "ریا": 8689,
      "سائ": 8690,
      "علا": 8691,
      "پھ": 8692,
      "پور": 8693,
      "ھرا": 8694,
      "یڈ": 8695,
      "ఔష": 8696,
      "కరి": 8697,
      "థాన్": 8698,
      "భర్": 8699,
      "రర": 8700,
      "ునీ": 8701,
      "##େଇ": 8702,
      "నులు": 8703,
      "ర్తు": 8704,
      "ులం": 8705,
      "తోపా": 8706,
      "వైప": 8707,
      "చ్చాయ": 8708,
      "మూత": 8709,
      "ీడియా": 8710,
      "్రాక": 8711,
      "స్థాయ": 8712,
      "్లర్": 8713,
      "సంఘట": 8714,
      "గడప": 8715,
      "##ورس": 8716,
      "##ada": 8717,
      "##are": 8718,
      "ravi": 8719,
      "తులను": 8720,
      "లకొ": 8721,
      "ిత్రా": 8722,
      "pap": 8723,
      "deva": 8724,
      "vaa": 8725,
      "యడంతో": 8726,
      "جاری": 8727,
      "فرضی": 8728,
      "rtha": 8729,
      "لوگوں": 8730,
      "khan": 8731,
      "نیوز": 8732,
      "తోపాట": 8733,
      "cri": 8734,
      "ji": 8735,
      "nara": 8736,
      "ph": 8737,
      "او": 8738,
      "بچ": 8739,
      "شخص": 8740,
      "فی": 8741,
      "مض": 8742,
      "کل": 8743,
      "గని": 8744,
      "ణప": 8745,
      "తలో": 8746,
      "రథ": 8747,
      "రారం": 8748,
      "సక్": 8749,
      "సవా": 8750,
      "హన్": 8751,
      "హనా": 8752,
      "ీఐ": 8753,
      "ోపా": 8754,
      "##bs": 8755,
      "##سم": 8756,
      "##وج": 8757,
      "##cl": 8758,
      "##ok": 8759,
      "##نٹ": 8760,
      "ినప": 8761,
      "లారు": 8762,
      "్లోక": 8763,
      "ానాల": 8764,
      "105": 8765,
      "వ్యవస": 8766,
      "స్తాన": 8767,
      "చాడ": 8768,
      "గ్లా": 8769,
      "్రోల": 8770,
      "శ్న": 8771,
      "##انی": 8772,
      "ువాత": 8773,
      "360": 8774,
      "thi": 8775,
      "##ینڈ": 8776,
      "యమన": 8777,
      "دیکھا": 8778,
      "بارے": 8779,
      "ysrcp": 8780,
      "03": 8781,
      "ah": 8782,
      "hd": 8783,
      "kt": 8784,
      "mr": 8785,
      "ul": 8786,
      "تق": 8787,
      "رام": 8788,
      "شامل": 8789,
      "چین": 8790,
      "یوٹ": 8791,
      "ने": 8792,
      "भी": 8793,
      "ఈడి": 8794,
      "ఓలా": 8795,
      "ణక": 8796,
      "రయ": 8797,
      "రవా": 8798,
      "రఘు": 8799,
      "వాలు": 8800,
      "హరీ": 8801,
      "ాతం": 8802,
      "ీసర": 8803,
      "ైద్": 8804,
      "ాలత": 8805,
      "మాచ": 8806,
      "నేం": 8807,
      "కేష": 8808,
      "దాడు": 8809,
      "ఉండట": 8810,
      "తానిక": 8811,
      "తిష": 8812,
      "పొం": 8813,
      "నగల": 8814,
      "ాంల": 8815,
      "కావాల": 8816,
      "ిచిన": 8817,
      "109": 8818,
      "107": 8819,
      "ఎక్కు": 8820,
      "్సుల": 8821,
      "త్యక": 8822,
      "145": 8823,
      "ఎంపి": 8824,
      "##adh": 8825,
      "లికా": 8826,
      "ిగింద": 8827,
      "ہوگ": 8828,
      "ہوئی": 8829,
      "750": 8830,
      "sta": 8831,
      "్రాఫి": 8832,
      "یوب": 8833,
      "جھوٹ": 8834,
      "تحقیق": 8835,
      "గ‌త": 8836,
      "ass": 8837,
      "ot": 8838,
      "oor": 8839,
      "uk": 8840,
      "بتا": 8841,
      "شئیر": 8842,
      "فار": 8843,
      "لیک": 8844,
      "نی": 8845,
      "یٹ": 8846,
      "ଓଡ": 8847,
      "କୁ": 8848,
      "ఇళ": 8849,
      "ఈజ్": 8850,
      "జిక": 8851,
      "టకు": 8852,
      "డన": 8853,
      "పద్": 8854,
      "యత": 8855,
      "యగ": 8856,
      "ేడా": 8857,
      "##کس": 8858,
      "##اف": 8859,
      "కుని": 8860,
      "వినా": 8861,
      "ార్లు": 8862,
      "ులత": 8863,
      "శాయ": 8864,
      "రాజే": 8865,
      "పురు": 8866,
      "మిళ": 8867,
      "రేఖ": 8868,
      "లీజ": 8869,
      "వ్వాల": 8870,
      "ిల్స": 8871,
      "తువ": 8872,
      "ంధ్": 8873,
      "ాకుం": 8874,
      "resu": 8875,
      "ల్వే": 8876,
      "rah": 8877,
      "rain": 8878,
      "اسی": 8879,
      "انے": 8880,
      "ుగురు": 8881,
      "##ert": 8882,
      "##ram": 8883,
      "##انے": 8884,
      "##اند": 8885,
      "రంభమ": 8886,
      "پیش": 8887,
      "chi": 8888,
      "تصاوی": 8889,
      "رہی": 8890,
      "پایا": 8891,
      "push": 8892,
      "گرد": 8893,
      "بنگلہ": 8894,
      "ఔషధ": 8895,
      "ms": 8896,
      "nya": 8897,
      "pe": 8898,
      "rma": 8899,
      "who": 8900,
      "ئے": 8901,
      "بہ": 8902,
      "لائ": 8903,
      "نک": 8904,
      "چلا": 8905,
      "ଟି": 8906,
      "ఎస్ట": 8907,
      "క‌": 8908,
      "టేశ": 8909,
      "బూర": 8910,
      "మళ": 8911,
      "యాలి": 8912,
      "రంప": 8913,
      "శప": 8914,
      "ీసుక": 8915,
      "ెయ": 8916,
      "్వు": 8917,
      "్బు": 8918,
      "##ہی": 8919,
      "##کر": 8920,
      "##اس": 8921,
      "తోంది": 8922,
      "వాగ": 8923,
      "వాస్": 8924,
      "పారు": 8925,
      "వెను": 8926,
      "ికారం": 8927,
      "ధికా": 8928,
      "నీడ": 8929,
      "క్కన": 8930,
      "ళ్లా": 8931,
      "ళ్లీ": 8932,
      "పదవ": 8933,
      "103": 8934,
      "్షుడ": 8935,
      "ష్ణా": 8936,
      "తుంద": 8937,
      "ేయడ": 8938,
      "ేదన్న": 8939,
      "ిశీ": 8940,
      "ెక్కి": 8941,
      "ోమవార": 8942,
      "اسے": 8943,
      "این": 8944,
      "انڈ": 8945,
      "పోవడ": 8946,
      "##ine": 8947,
      "లితాల": 8948,
      "tty": 8949,
      "air": 8950,
      "సిపల్": 8951,
      "##ندر": 8952,
      "గించే": 8953,
      "مودی": 8954,
      "boss": 8955,
      "وجہ": 8956,
      "చరిత": 8957,
      "بتایا": 8958,
      "ama": 8959,
      "age": 8960,
      "id": 8961,
      "jana": 8962,
      "nk": 8963,
      "sing": 8964,
      "ter": 8965,
      "آپ": 8966,
      "آند": 8967,
      "عم": 8968,
      "مش": 8969,
      "نامی": 8970,
      "یوں": 8971,
      "ఏవి": 8972,
      "ఐస": 8973,
      "గరం": 8974,
      "జాయ": 8975,
      "పరు": 8976,
      "వయో": 8977,
      "వచ్": 8978,
      "సరం": 8979,
      "ెప్ట": 8980,
      "్గి": 8981,
      "##لو": 8982,
      "##اح": 8983,
      "##قت": 8984,
      "##مون": 8985,
      "##ne": 8986,
      "లోమ": 8987,
      "రెక్": 8988,
      "తోక": 8989,
      "పెరి": 8990,
      "నేషన": 8991,
      "ుతా": 8992,
      "వేప": 8993,
      "కొద": 8994,
      "ికప": 8995,
      "శాడు": 8996,
      "రుద్": 8997,
      "ండె": 8998,
      "్టుల": 8999,
      "ారిం": 9000,
      "జాం": 9001,
      "రైల": 9002,
      "ంచక": 9003,
      "డుగ": 9004,
      "నంతర": 9005,
      "121": 9006,
      "ిదం": 9007,
      "్నారు": 9008,
      "ీడర్": 9009,
      "317": 9010,
      "##یڈی": 9011,
      "nai": 9012,
      "లిచి": 9013,
      "bhas": 9014,
      "రువాత": 9015,
      "متعلق": 9016,
      "gandh": 9017,
      "مسلم": 9018,
      "ترج": 9019,
      "تھے": 9020,
      "مدد": 9021,
      "viral": 9022,
      "క‌థ": 9023,
      "01": 9024,
      "be": 9025,
      "ge": 9026,
      "nna": 9027,
      "om": 9028,
      "wo": 9029,
      "بے": 9030,
      "دہ": 9031,
      "سام": 9032,
      "شا": 9033,
      "نام": 9034,
      "نظر": 9035,
      "وار": 9036,
      "گا": 9037,
      "یت": 9038,
      "तो": 9039,
      "ଆମ": 9040,
      "ଆସ": 9041,
      "ఘట్": 9042,
      "రయి": 9043,
      "లపా": 9044,
      "శత": 9045,
      "ాపా": 9046,
      "్జె": 9047,
      "##rtc": 9048,
      "##نت": 9049,
      "##نچ": 9050,
      "##fi": 9051,
      "##جن": 9052,
      "కుట": 9053,
      "్రత్య": 9054,
      "కిత": 9055,
      "సారు": 9056,
      "ందిక": 9057,
      "ంటార": 9058,
      "యూటీ": 9059,
      "సుఖ": 9060,
      "టివ": 9061,
      "ండియ": 9062,
      "రిగే": 9063,
      "్లాడ": 9064,
      "సోషల": 9065,
      "తుంది": 9066,
      "114": 9067,
      "147": 9068,
      "ిచ్చా": 9069,
      "164": 9070,
      "న్నాడ": 9071,
      "rao": 9072,
      "raja": 9073,
      "##اری": 9074,
      "్శి": 9075,
      "ine": 9076,
      "کرک": 9077,
      "کررہ": 9078,
      "్దం": 9079,
      "vish": 9080,
      "తపన": 9081,
      "bala": 9082,
      "ریورس": 9083,
      "day": 9084,
      "ویب": 9085,
      "tube": 9086,
      "انتخ": 9087,
      "gpt": 9088,
      "وزیر": 9089,
      "لیکن": 9090,
      "తువుల": 9091,
      "02": 9092,
      "2లో": 9093,
      "aa": 9094,
      "bc": 9095,
      "cs": 9096,
      "et": 9097,
      "ist": 9098,
      "ika": 9099,
      "nri": 9100,
      "ple": 9101,
      "pre": 9102,
      "tc": 9103,
      "wal": 9104,
      "بک": 9105,
      "صدر": 9106,
      "ٹری": 9107,
      "کئی": 9108,
      "एक": 9109,
      "ଅଧ": 9110,
      "ନେଇ": 9111,
      "ଫଟ": 9112,
      "ఉషా": 9113,
      "ఓజీ": 9114,
      "దవి": 9115,
      "నప్": 9116,
      "పల్": 9117,
      "బత": 9118,
      "బుత": 9119,
      "భివ": 9120,
      "రధ": 9121,
      "ావిస": 9122,
      "ేఖర": 9123,
      "ౌస": 9124,
      "##اج": 9125,
      "##ty": 9126,
      "##dc": 9127,
      "##fc": 9128,
      "##nl": 9129,
      "తోన్న": 9130,
      "కేవ": 9131,
      "ికారి": 9132,
      "క్రమా": 9133,
      "జాబ": 9134,
      "పూత": 9135,
      "బీబ": 9136,
      "యిస": 9137,
      "ిచార": 9138,
      "లీవ": 9139,
      "106": 9140,
      "ాళ్": 9141,
      "దశల": 9142,
      "బ్బంద": 9143,
      "ర్జి": 9144,
      "రజత": 9145,
      "దుకో": 9146,
      "280": 9147,
      "ఆటా": 9148,
      "ూపర్": 9149,
      "ీపంలో": 9150,
      "365": 9151,
      "ురువ": 9152,
      "chat": 9153,
      "chir": 9154,
      "movi": 9155,
      "ుగ్గు": 9156,
      "##راد": 9157,
      "ించాడ": 9158,
      "kap": 9159,
      "shar": 9160,
      "جانے": 9161,
      "جانچ": 9162,
      "్టెన్": 9163,
      "انہیں": 9164,
      "bigg": 9165,
      "konda": 9166,
      "واقعہ": 9167,
      "تمام": 9168,
      "ktr": 9169,
      "ترجمہ": 9170,
      "ଫଟୋ": 9171,
      "07": 9172,
      "cr": 9173,
      "ct": 9174,
      "fe": 9175,
      "vo": 9176,
      "wha": 9177,
      "اری": 9178,
      "با": 9179,
      "خو": 9180,
      "دھ": 9181,
      "لڑک": 9182,
      "گو": 9183,
      "ہور": 9184,
      "یان": 9185,
      "ఈస": 9186,
      "ఏ1": 9187,
      "ఏఏ": 9188,
      "కష": 9189,
      "కచ్": 9190,
      "థాయి": 9191,
      "దత్": 9192,
      "నద": 9193,
      "నట్ట": 9194,
      "నబీ": 9195,
      "యష్": 9196,
      "లర్ల": 9197,
      "ాష్ట": 9198,
      "ొదల": 9199,
      "ొటో": 9200,
      "ಸಹ": 9201,
      "##si": 9202,
      "##pa": 9203,
      "##ji": 9204,
      "##ٹا": 9205,
      "##بل": 9206,
      "##شت": 9207,
      "##mu": 9208,
      "##ng": 9209,
      "##جود": 9210,
      "##ఫా": 9211,
      "్రాయ": 9212,
      "రానిక": 9213,
      "ికార్": 9214,
      "ల్లీల": 9215,
      "ట్టడం": 9216,
      "చాలని": 9217,
      "ితర": 9218,
      "ఇవ్వడ": 9219,
      "ుపత్ర": 9220,
      "జిస్": 9221,
      "వైరల": 9222,
      "టోల": 9223,
      "అయన": 9224,
      "ోహ్": 9225,
      "ోహన్": 9226,
      "్తున": 9227,
      "190": 9228,
      "کریں": 9229,
      "naga": 9230,
      "net": 9231,
      "##لیٹ": 9232,
      "పశు": 9233,
      "##لاف": 9234,
      "గళూరు": 9235,
      "ریل": 9236,
      "ఎకో": 9237,
      "త్మక": 9238,
      "బీజేప": 9239,
      "cau": 9240,
      "sid": 9241,
      "lok": 9242,
      "loke": 9243,
      "موجود": 9244,
      "book": 9245,
      "karna": 9246,
      "دوس": 9247,
      "raji": 9248,
      "with": 9249,
      "تیار": 9250,
      "تلنگ": 9251,
      "حالیہ": 9252,
      "bsnl": 9253,
      "దాదా": 9254,
      "پتہ": 9255,
      "مضمون": 9256,
      "థాయిల": 9257,
      "04": 9258,
      "ak": 9259,
      "dha": 9260,
      "ea": 9261,
      "han": 9262,
      "ir": 9263,
      "lu": 9264,
      "lts": 9265,
      "ml": 9266,
      "nare": 9267,
      "pi": 9268,
      "sbi": 9269,
      "ven": 9270,
      "اہ": 9271,
      "اگر": 9272,
      "بات": 9273,
      "ذری": 9274,
      "ریڈی": 9275,
      "سیا": 9276,
      "لیڈ": 9277,
      "مر": 9278,
      "پھی": 9279,
      "یشن": 9280,
      "ఈఓ": 9281,
      "గై": 9282,
      "ఘడ్": 9283,
      "బజ్": 9284,
      "యాల్": 9285,
      "ళ్య": 9286,
      "వారా": 9287,
      "షర్మ": 9288,
      "##ہر": 9289,
      "##el": 9290,
      "్రొ": 9291,
      "్రిత": 9292,
      "పుట": 9293,
      "డాని": 9294,
      "జగన": 9295,
      "్పం": 9296,
      "కావడ": 9297,
      "ిరుమ": 9298,
      "ేషన": 9299,
      "ఇటీవ": 9300,
      "157": 9301,
      "124": 9302,
      "ేదా": 9303,
      "116": 9304,
      "దర్యా": 9305,
      "191": 9306,
      "rat": 9307,
      "మధ్": 9308,
      "وائی": 9309,
      "پیغ": 9310,
      "550": 9311,
      "kavi": 9312,
      "taka": 9313,
      "ipc": 9314,
      "ٹیم": 9315,
      "్మెంట": 9316,
      "one": 9317,
      "روپ": 9318,
      "##ومت": 9319,
      "یکل": 9320,
      "shiva": 9321,
      "کردہ": 9322,
      "mahe": 9323,
      "very": 9324,
      "حکومت": 9325,
      "polls": 9326,
      "రథం": 9327,
      "singh": 9328,
      "ذریع": 9329,
      "08": 9330,
      "00": 9331,
      "car": 9332,
      "fo": 9333,
      "my": 9334,
      "pal": 9335,
      "ry": 9336,
      "sd": 9337,
      "sea": 9338,
      "ua": 9339,
      "تے": 9340,
      "تی": 9341,
      "جگ": 9342,
      "خلاف": 9343,
      "فیس": 9344,
      "مج": 9345,
      "نا": 9346,
      "ووٹ": 9347,
      "ٹک": 9348,
      "کت": 9349,
      "گم": 9350,
      "ଅଭ": 9351,
      "ଓଟ": 9352,
      "ନି": 9353,
      "ఓవ": 9354,
      "ఓపీ": 9355,
      "ఛలో": 9356,
      "జమా": 9357,
      "డాన": 9358,
      "దహ": 9359,
      "దికి": 9360,
      "మ‌": 9361,
      "ల్యే": 9362,
      "సర్ల": 9363,
      "హక్క": 9364,
      "హజ్": 9365,
      "ిశ్": 9366,
      "##sc": 9367,
      "##hi": 9368,
      "##bha": 9369,
      "##وک": 9370,
      "##قہ": 9371,
      "##fo": 9372,
      "##صل": 9373,
      "కువ": 9374,
      "చేయను": 9375,
      "ుకె": 9376,
      "అవకా": 9377,
      "ల్న": 9378,
      "్రాక్": 9379,
      "కరె": 9380,
      "కరా": 9381,
      "డులు": 9382,
      "గిస్త": 9383,
      "్లక": 9384,
      "గ్రహా": 9385,
      "113": 9386,
      "్నాం": 9387,
      "కథా": 9388,
      "ంటివ": 9389,
      "288": 9390,
      "##adu": 9391,
      "ికెట": 9392,
      "انک": 9393,
      "ీసర్": 9394,
      "రాబా": 9395,
      "కమై": 9396,
      "దుబా": 9397,
      "star": 9398,
      "ోతుంద": 9399,
      "del": 9400,
      "షనర": 9401,
      "మయంలో": 9402,
      "پاکس": 9403,
      "డ్జెట": 9404,
      "train": 9405,
      "دنوں": 9406,
      "ستان": 9407,
      "ఆందోళ": 9408,
      "ghmc": 9409,
      "فارم": 9410,
      "کررہے": 9411,
      "whats": 9412,
      "لیڈر": 9413,
      "گمراہ": 9414,
      "ନିଜ": 9415,
      "1లో": 9416,
      "ath": 9417,
      "bra": 9418,
      "cp": 9419,
      "cy": 9420,
      "kg": 9421,
      "nic": 9422,
      "nce": 9423,
      "rbi": 9424,
      "ui": 9425,
      "ائی": 9426,
      "بلک": 9427,
      "خات": 9428,
      "رنگ": 9429,
      "زب": 9430,
      "سنگ": 9431,
      "سابق": 9432,
      "عام": 9433,
      "پلیٹ": 9434,
      "گے": 9435,
      "ھی": 9436,
      "ఏజీ": 9437,
      "ఏడీ": 9438,
      "ఐటి": 9439,
      "చడ": 9440,
      "డకు": 9441,
      "తక్": 9442,
      "పయోగ": 9443,
      "శించ": 9444,
      "షూ": 9445,
      "ూవీ": 9446,
      "ెచ": 9447,
      "##ایت": 9448,
      "##ٹس": 9449,
      "##ca": 9450,
      "##می": 9451,
      "##ڈو": 9452,
      "్రజ": 9453,
      "పెట్": 9454,
      "సీఏ": 9455,
      "అవు": 9456,
      "చిప": 9457,
      "లిద": 9458,
      "రేం": 9459,
      "పడక": 9460,
      "టును": 9461,
      "్కొ": 9462,
      "రావడ": 9463,
      "ట్టిం": 9464,
      "149": 9465,
      "ుత్వా": 9466,
      "132": 9467,
      "225": 9468,
      "ఎందు": 9469,
      "హిళా": 9470,
      "ాశి": 9471,
      "న్నాం": 9472,
      "##ائد": 9473,
      "అనంతర": 9474,
      "ఎదో": 9475,
      "ేశాడ": 9476,
      "శోభ": 9477,
      "75వ": 9478,
      "ష్కరి": 9479,
      "రబా": 9480,
      "ther": 9481,
      "ిధిలో": 9482,
      "tsrtc": 9483,
      "nia": 9484,
      "ipho": 9485,
      "్టెం": 9486,
      "శకం": 9487,
      "ung": 9488,
      "emb": 9489,
      "شروع": 9490,
      "بہت": 9491,
      "بلکہ": 9492,
      "06": 9493,
      "aq": 9494,
      "g20": 9495,
      "mb": 9496,
      "min": 9497,
      "odi": 9498,
      "sk": 9499,
      "آنے": 9500,
      "عو": 9501,
      "عن": 9502,
      "ملی": 9503,
      "مندر": 9504,
      "लि": 9505,
      "ଏନ": 9506,
      "కనీ": 9507,
      "కమల": 9508,
      "దఫా": 9509,
      "పీస": 9510,
      "భజన": 9511,
      "మడి": 9512,
      "రశ్": 9513,
      "సిన": 9514,
      "ెనీ": 9515,
      "ొలి": 9516,
      "##ep": 9517,
      "##رف": 9518,
      "##జం": 9519,
      "లోయ": 9520,
      "ించక": 9521,
      "స్తర": 9522,
      "మాడ": 9523,
      "రిస్థ": 9524,
      "ప్పడ": 9525,
      "తీర్ప": 9526,
      "భామ": 9527,
      "లిం": 9528,
      "తాలో": 9529,
      "మిటీ": 9530,
      "ాజర": 9531,
      "రీన": 9532,
      "క్షల": 9533,
      "బెట్": 9534,
      "ువగా": 9535,
      "బోతు": 9536,
      "్లాడు": 9537,
      "ాపూర": 9538,
      "యోల": 9539,
      "159": 9540,
      "ర్టి": 9541,
      "ర్చుక": 9542,
      "112": 9543,
      "ోకే": 9544,
      "ిసెంబ": 9545,
      "134": 9546,
      "ెట్టా": 9547,
      "rea": 9548,
      "ఆపే": 9549,
      "انگ": 9550,
      "ధులు": 9551,
      "tem": 9552,
      "teja": 9553,
      "్టీలు": 9554,
      "sho": 9555,
      "రుకున": 9556,
      "sai": 9557,
      "nika": 9558,
      "##دید": 9559,
      "ివాద": 9560,
      "water": 9561,
      "టించా": 9562,
      "nkar": 9563,
      "దహన": 9564,
      "زبان": 9565,
      "embly": 9566,
      "a1": 9567,
      "ec": 9568,
      "fic": 9569,
      "if": 9570,
      "irc": 9571,
      "jan": 9572,
      "ki": 9573,
      "lme": 9574,
      "ty": 9575,
      "xi": 9576,
      "xలో": 9577,
      "آب": 9578,
      "از": 9579,
      "تک": 9580,
      "تعلق": 9581,
      "جی": 9582,
      "خط": 9583,
      "زیاد": 9584,
      "شش": 9585,
      "فیک": 9586,
      "مم": 9587,
      "مذ": 9588,
      "نش": 9589,
      "ଆକ": 9590,
      "అటూ": 9591,
      "ఆలీ": 9592,
      "ఆజం": 9593,
      "ఇటూ": 9594,
      "ఐబీ": 9595,
      "దక్ష": 9596,
      "పత్త": 9597,
      "యప్": 9598,
      "శిక": 9599,
      "హను": 9600,
      "ివిధ": 9601,
      "ోదు": 9602,
      "్డా": 9603,
      "ಅವ": 9604,
      "##ut": 9605,
      "##sp": 9606,
      "##لس": 9607,
      "##وپ": 9608,
      "##tm": 9609,
      "##cc": 9610,
      "##mr": 9611,
      "##زار": 9612,
      "##nd": 9613,
      "ాలయా": 9614,
      "్రత్": 9615,
      "్రేమ": 9616,
      "సిల్": 9617,
      "సీమ": 9618,
      "దాఖ": 9619,
      "కలల": 9620,
      "ఉండాల": 9621,
      "యాచ": 9622,
      "యాత": 9623,
      "తాన్": 9624,
      "ఎంఏ": 9625,
      "వీ6": 9626,
      "డ్స": 9627,
      "బీఏ": 9628,
      "్పాల": 9629,
      "ిమర్": 9630,
      "్లతో": 9631,
      "యంత్": 9632,
      "ిరుద్": 9633,
      "జేప": 9634,
      "ోగ్య": 9635,
      "రచన": 9636,
      "ెలియ": 9637,
      "దోమ": 9638,
      "270": 9639,
      "کام": 9640,
      "کرنا": 9641,
      "nam": 9642,
      "పోవడం": 9643,
      "ted": 9644,
      "తృత": 9645,
      "cour": 9646,
      "ఆరవ": 9647,
      "sama": 9648,
      "650": 9649,
      "ers": 9650,
      "تصدی": 9651,
      "sur": 9652,
      "والا": 9653,
      "ష్మి": 9654,
      "mila": 9655,
      "dis": 9656,
      "దైవ": 9657,
      "way": 9658,
      "karth": 9659,
      "فرو": 9660,
      "ایسا": 9661,
      "کردیا": 9662,
      "ٹوئ": 9663,
      "varma": 9664,
      "ಇದೇ": 9665,
      "మండిప": 9666,
      "چینل": 9667,
      "گردش": 9668,
      "ఈసార": 9669,
      "000": 9670,
      "ಅವರ": 9671,
      "تصدیق": 9672,
      "3లో": 9673,
      "aj": 9674,
      "ash": 9675,
      "dr": 9676,
      "gy": 9677,
      "hm": 9678,
      "ide": 9679,
      "kan": 9680,
      "ly": 9681,
      "sre": 9682,
      "wea": 9683,
      "اش": 9684,
      "اؤ": 9685,
      "جم": 9686,
      "دے": 9687,
      "دس": 9688,
      "رڈ": 9689,
      "فری": 9690,
      "لے": 9691,
      "لیا": 9692,
      "وقت": 9693,
      "ٹائ": 9694,
      "پورٹ": 9695,
      "چھ": 9696,
      "چند": 9697,
      "کئے": 9698,
      "ہر": 9699,
      "दे": 9700,
      "ଏଭ": 9701,
      "ଏଥ": 9702,
      "ఊసే": 9703,
      "ఏబీ": 9704,
      "ఐతే": 9705,
      "ఒడి": 9706,
      "చలో": 9707,
      "జైన": 9708,
      "ధ్వర": 9709,
      "నత": 9710,
      "బద్": 9711,
      "సప": 9712,
      "ావేశ": 9713,
      "్పో": 9714,
      "‌లో": 9715,
      "##تال": 9716,
      "##ul": 9717,
      "##وان": 9718,
      "##ck": 9719,
      "##nr": 9720,
      "##ضح": 9721,
      "##ثر": 9722,
      "విం": 9723,
      "లేత": 9724,
      "కోక": 9725,
      "నేష": 9726,
      "సిబ": 9727,
      "దాత": 9728,
      "రులు": 9729,
      "్వయ": 9730,
      "ంగళ": 9731,
      "జీ5": 9732,
      "రీవా": 9733,
      "రీరా": 9734,
      "ల్లోక": 9735,
      "లెం": 9736,
      "క్టర": 9737,
      "ాంకు": 9738,
      "ియాలో": 9739,
      "్టేషన": 9740,
      "126": 9741,
      "127": 9742,
      "123": 9743,
      "ంద్రం": 9744,
      "కూటమ": 9745,
      "181": 9746,
      "ేందుక": 9747,
      "138": 9748,
      "162": 9749,
      "167": 9750,
      "డుతో": 9751,
      "199": 9752,
      "ద్రం": 9753,
      "##وری": 9754,
      "దలై": 9755,
      "anu": 9756,
      "మాన్య": 9757,
      "ర్శన": 9758,
      "chai": 9759,
      "ریلی": 9760,
      "moha": 9761,
      "ఇషా": 9762,
      "shah": 9763,
      "واضح": 9764,
      "cap": 9765,
      "بیچ": 9766,
      "جھنڈ": 9767,
      "్కుల": 9768,
      "سکتے": 9769,
      "تلگو": 9770,
      "رکھ": 9771,
      "لگا": 9772,
      "otp": 9773,
      "ీసుకె": 9774,
      "naidu": 9775,
      "لڑکی": 9776,
      "سنگھ": 9777,
      "court": 9778,
      "ag": 9779,
      "aw": 9780,
      "ast": 9781,
      "by": 9782,
      "dge": 9783,
      "gst": 9784,
      "ju": 9785,
      "ps": 9786,
      "rth": 9787,
      "sl": 9788,
      "sth": 9789,
      "zon": 9790,
      "اخ": 9791,
      "اون": 9792,
      "بنا": 9793,
      "تیل": 9794,
      "چاہ": 9795,
      "ہزار": 9796,
      "यह": 9797,
      "అట": 9798,
      "అఫ్": 9799,
      "ఈగ": 9800,
      "ఉల్": 9801,
      "గంప": 9802,
      "గరా": 9803,
      "జిల్ల": 9804,
      "నవీ": 9805,
      "పల్ల": 9806,
      "పరం": 9807,
      "మలి": 9808,
      "యద": 9809,
      "వయా": 9810,
      "షుల": 9811,
      "ాంట్": 9812,
      "ోతో": 9813,
      "##لع": 9814,
      "##زر": 9815,
      "##مبر": 9816,
      "నుం": 9817,
      "్రతి": 9818,
      "లేజ": 9819,
      "నానిక": 9820,
      "పోయా": 9821,
      "వేలు": 9822,
      "దిస": 9823,
      "జీ7": 9824,
      "ైనల్": 9825,
      "క్షకు": 9826,
      "రైవ": 9827,
      "పిటి": 9828,
      "పీట": 9829,
      "ిజర": 9830,
      "ంజయ్": 9831,
      "భారతీ": 9832,
      "ుండట": 9833,
      "ాపార": 9834,
      "తుల్ల": 9835,
      "122": 9836,
      "142": 9837,
      "210": 9838,
      "انٹر": 9839,
      "##الے": 9840,
      "##لیک": 9841,
      "హంస": 9842,
      "##sta": 9843,
      "ిధిల": 9844,
      "ోతున": 9845,
      "امری": 9846,
      "రులను": 9847,
      "##دیل": 9848,
      "media": 9849,
      "ارے": 9850,
      "priya": 9851,
      "icc": 9852,
      "ఏఈఈ": 9853,
      "تبدیل": 9854,
      "ంగ్రె": 9855,
      "ریاست": 9856,
      "پھر": 9857,
      "انڈیا": 9858,
      "جگہ": 9859,
      "మ‌న": 9860,
      "రాబాద": 9861,
      "عنوان": 9862,
      "فروخت": 9863,
      "4జీ": 9864,
      "der": 9865,
      "fb": 9866,
      "gar": 9867,
      "gen": 9868,
      "hu": 9869,
      "io": 9870,
      "l1": 9871,
      "lg": 9872,
      "mla": 9873,
      "ns": 9874,
      "nka": 9875,
      "pan": 9876,
      "sal": 9877,
      "sen": 9878,
      "sun": 9879,
      "ut": 9880,
      "اح": 9881,
      "دیو": 9882,
      "درم": 9883,
      "صرف": 9884,
      "مص": 9885,
      "مزی": 9886,
      "وف": 9887,
      "گاند": 9888,
      "कि": 9889,
      "ଜଣ": 9890,
      "ରୁ": 9891,
      "ఆమ": 9892,
      "ఈద్": 9893,
      "ఉష": 9894,
      "ఒత్త": 9895,
      "ఓసీ": 9896,
      "ఔరా": 9897,
      "కక": 9898,
      "కవల": 9899,
      "ఘం": 9900,
      "డదు": 9901,
      "డచ్": 9902,
      "దగా": 9903,
      "దలు": 9904,
      "దరా": 9905,
      "నట్": 9906,
      "భలే": 9907,
      "వకు": 9908,
      "శశ": 9909,
      "సనా": 9910,
      "ామాన": 9911,
      "ెంగళ": 9912,
      "ేర్క": 9913,
      "్ఞ": 9914,
      "##es": 9915,
      "##ls": 9916,
      "##نک": 9917,
      "##vo": 9918,
      "##ni": 9919,
      "కాను": 9920,
      "మాను": 9921,
      "రిల్": 9922,
      "్తిక": 9923,
      "వేం": 9924,
      "ల్సి": 9925,
      "రూప్": 9926,
      "ాబో": 9927,
      "తర్జ": 9928,
      "నీచ": 9929,
      "పిటల": 9930,
      "బులు": 9931,
      "ర్షా": 9932,
      "్మన్": 9933,
      "ంబ్ల": 9934,
      "ావాల": 9935,
      "ేటర": 9936,
      "ిరస": 9937,
      "క్షిం": 9938,
      "117": 9939,
      "తొలగి": 9940,
      "ంభం": 9941,
      "ల్పి": 9942,
      "అపర": 9943,
      "233": 9944,
      "260": 9945,
      "వహా": 9946,
      "ایپ": 9947,
      "انا": 9948,
      "##one": 9949,
      "ana": 9950,
      "ہوں": 9951,
      "ہوتا": 9952,
      "కోవడం": 9953,
      "nder": 9954,
      "maha": 9955,
      "్లుగ": 9956,
      "ame": 9957,
      "ami": 9958,
      "sabha": 9959,
      "tam": 9960,
      "హమీ": 9961,
      "usa": 9962,
      "dia": 9963,
      "جارہی": 9964,
      "ملے": 9965,
      "##lly": 9966,
      "طرف": 9967,
      "منظر": 9968,
      "cide": 9969,
      "معامل": 9970,
      "ias": 9971,
      "پڑتال": 9972,
      "tgs": 9973,
      "ayo": 9974,
      "سائٹ": 9975,
      "خوات": 9976,
      "लिए": 9977,
      "irctc": 9978,
      "فریم": 9979,
      "تیلگو": 9980,
      "مزید": 9981,
      "ేర్కొ": 9982,
      "--": 9983,
      "af": 9984,
      "ft": 9985,
      "fli": 9986,
      "fir": 9987,
      "her": 9988,
      "kunt": 9989,
      "mic": 9990,
      "nu": 9991,
      "ore": 9992,
      "الیک": 9993,
      "جہ": 9994,
      "فوج": 9995,
      "قریب": 9996,
      "مال": 9997,
      "وڈ": 9998,
      "کار": 9999
    }
  }
}