[UNK]	0
[CLS]	1
[SEP]	2
[PAD]	3
[MASK]	4
!	5
"	6
#	7
$	8
%	9
&	10
'	11
(	12
)	13
*	14
+	15
,	16
-	17
.	18
/	19
0	20
1	21
2	22
3	23
4	24
5	25
6	26
7	27
8	28
9	29
:	30
;	31
<	32
=	33
>	34
?	35
@	36
[	37
\	38
]	39
_	40
`	41
a	42
b	43
c	44
d	45
e	46
f	47
g	48
h	49
i	50
j	51
k	52
l	53
m	54
n	55
o	56
p	57
q	58
r	59
s	60
t	61
u	62
v	63
w	64
x	65
y	66
z	67
~	68
£	69
©	70
­	71
°	72
·	73
×	74
á	75
â	76
æ	77
đ	78
ơ	79
ư	80
ʼ	81
́	82
α	83
β	84
،	85
؛	86
؟	87
ء	88
آ	89
أ	90
ؤ	91
إ	92
ئ	93
ا	94
ب	95
ت	96
ث	97
ج	98
ح	99
خ	100
د	101
ذ	102
ر	103
ز	104
س	105
ش	106
ص	107
ض	108
ط	109
ظ	110
ع	111
غ	112
ف	113
ق	114
ل	115
م	116
ن	117
ه	118
و	119
ى	120
ي	121
ً	122
َ	123
ُ	124
ِ	125
ّ	126
ٓ	127
ٰ	128
ٹ	129
پ	130
چ	131
ڈ	132
ڑ	133
ڕ	134
ژ	135
ک	136
گ	137
ڵ	138
ں	139
ھ	140
ہ	141
ۆ	142
ی	143
ێ	144
ے	145
۔	146
ە	147
ँ	148
ं	149
ः	150
अ	151
आ	152
इ	153
ई	154
उ	155
ऊ	156
ए	157
ऐ	158
ऑ	159
ओ	160
औ	161
क	162
ख	163
ग	164
घ	165
च	166
छ	167
ज	168
झ	169
ञ	170
ट	171
ठ	172
ड	173
ढ	174
ण	175
त	176
थ	177
द	178
ध	179
न	180
प	181
फ	182
ब	183
भ	184
म	185
य	186
र	187
ल	188
व	189
श	190
ष	191
स	192
ह	193
़	194
ा	195
ि	196
ी	197
ु	198
ू	199
ृ	200
े	201
ै	202
ॉ	203
ो	204
ौ	205
्	206
।	207
॥	208
०	209
२	210
४	211
ঃ	212
অ	213
আ	214
এ	215
ও	216
ক	217
গ	218
চ	219
জ	220
ট	221
ড	222
ত	223
দ	224
ধ	225
ন	226
প	227
ফ	228
ব	229
ভ	230
ম	231
য	232
র	233
ল	234
শ	235
স	236
হ	237
়	238
া	239
ি	240
ী	241
ু	242
ে	243
ৈ	244
ো	245
্	246
ৰ	247
ৱ	248
ଁ	249
ଂ	250
ଃ	251
ଅ	252
ଆ	253
ଇ	254
ଈ	255
ଉ	256
ଏ	257
ଓ	258
କ	259
ଖ	260
ଗ	261
ଘ	262
ଙ	263
ଚ	264
ଛ	265
ଜ	266
ଝ	267
ଞ	268
ଟ	269
ଠ	270
ଡ	271
ଢ	272
ଣ	273
ତ	274
ଥ	275
ଦ	276
ଧ	277
ନ	278
ପ	279
ଫ	280
ବ	281
ଭ	282
ମ	283
ଯ	284
ର	285
ଲ	286
ଳ	287
ଵ	288
ଶ	289
ଷ	290
ସ	291
ହ	292
଼	293
ା	294
ି	295
ୀ	296
ୁ	297
ୂ	298
ୃ	299
େ	300
ୈ	301
ୋ	302
ୌ	303
୍	304
ୟ	305
୦	306
୧	307
୨	308
୩	309
୪	310
୫	311
୬	312
୭	313
୮	314
୯	315
ୱ	316
அ	317
ஆ	318
இ	319
உ	320
ஊ	321
எ	322
ஏ	323
க	324
ங	325
ச	326
ஜ	327
ட	328
ண	329
த	330
ந	331
ன	332
ப	333
ம	334
ய	335
ர	336
ற	337
ல	338
ள	339
வ	340
ஸ	341
ா	342
ி	343
ீ	344
ு	345
ூ	346
ெ	347
ே	348
ை	349
ொ	350
ோ	351
்	352
ఁ	353
ం	354
ః	355
అ	356
ఆ	357
ఇ	358
ఈ	359
ఉ	360
ఊ	361
ఋ	362
ఎ	363
ఏ	364
ఐ	365
ఒ	366
ఓ	367
ఔ	368
క	369
ఖ	370
గ	371
ఘ	372
ఙ	373
చ	374
ఛ	375
జ	376
ఝ	377
ఞ	378
ట	379
ఠ	380
డ	381
ఢ	382
ణ	383
త	384
థ	385
ద	386
ధ	387
న	388
ప	389
ఫ	390
బ	391
భ	392
మ	393
య	394
ర	395
ఱ	396
ల	397
ళ	398
వ	399
శ	400
ష	401
స	402
హ	403
ఽ	404
ా	405
ి	406
ీ	407
ు	408
ూ	409
ృ	410
ౄ	411
ె	412
ే	413
ై	414
ొ	415
ో	416
ౌ	417
్	418
ౖ	419
౦	420
౧	421
౩	422
౪	423
౬	424
౹	425
ಂ	426
ಃ	427
ಅ	428
ಆ	429
ಇ	430
ಈ	431
ಉ	432
ಊ	433
ಎ	434
ಏ	435
ಐ	436
ಒ	437
ಓ	438
ಔ	439
ಕ	440
ಖ	441
ಗ	442
ಘ	443
ಚ	444
ಛ	445
ಜ	446
ಝ	447
ಞ	448
ಟ	449
ಠ	450
ಡ	451
ಢ	452
ಣ	453
ತ	454
ಥ	455
ದ	456
ಧ	457
ನ	458
ಪ	459
ಫ	460
ಬ	461
ಭ	462
ಮ	463
ಯ	464
ರ	465
ಲ	466
ಳ	467
ವ	468
ಶ	469
ಷ	470
ಸ	471
ಹ	472
ಾ	473
ಿ	474
ೀ	475
ು	476
ೂ	477
ೃ	478
ೆ	479
ೇ	480
ೈ	481
ೊ	482
ೋ	483
ೌ	484
್	485
ം	486
അ	487
ആ	488
ഇ	489
ഈ	490
എ	491
ഒ	492
ക	493
ഗ	494
ങ	495
ച	496
ജ	497
ട	498
ഡ	499
ണ	500
ത	501
ദ	502
ധ	503
ന	504
പ	505
ബ	506
ഭ	507
മ	508
യ	509
ര	510
റ	511
ല	512
ള	513
ഴ	514
വ	515
ശ	516
ഷ	517
സ	518
ാ	519
ി	520
ീ	521
ു	522
ൂ	523
ൃ	524
െ	525
േ	526
ൈ	527
ൊ	528
ോ	529
്	530
ൗ	531
ൻ	532
ർ	533
ൽ	534
ൾ	535
ả	536
ầ	537
ậ	538
ệ	539
ố	540
ớ	541
ờ	542
ở	543
ợ	544
ứ	545
‌	546
‍	547
‎	548
‏	549
‐	550
‒	551
•	552
‪	553
‫	554
‬	555
‭	556
′	557
⁄	558
⁠	559
⁪	560
⁫	561
⁬	562
⁭	563
⁯	564
€	565
₹	566
⃣	567
∙	568
≠	569
▪	570
►	571
◆	572
◉	573
●	574
★	575
☛	576
♥	577
♦	578
✳	579
❌	580
➡	581
➦	582
⦁	583
️	584
🇪	585
🇬	586
🇮	587
🇳	588
🌹	589
🏼	590
👇	591
👉	592
👊	593
👋	594
👌	595
💐	596
💚	597
💥	598
💪	599
🔥	600
🔴	601
🔸	602
🔹	603
😂	604
😉	605
😊	606
😜	607
😞	608
😠	609
😡	610
😥	611
🙂	612
🙏	613
🚩	614
🤜	615
🤭	616
##ر	617
##ో	618
##క	619
##d	620
##ా	621
##ల	622
##5	623
##ح	624
##ق	625
##ی	626
##ھ	627
##و	628
##ٹ	629
##ರ	630
##ل	631
##ک	632
##n	633
##a	634
##ధ	635
##-	636
##)	637
##్	638
##ర	639
##ళ	640
##z	641
##స	642
##ద	643
##న	644
##س	645
##r	646
##o	647
##ం	648
##ి	649
##u	650
##ب	651
##i	652
##e	653
##م	654
##د	655
##ا	656
##ڑ	657
##ے	658
##ు	659
##l	660
##s	661
##ూ	662
##గ	663
##ే	664
##య	665
##پ	666
##g	667
##y	668
##h	669
##v	670
##b	671
##c	672
##వ	673
##x	674
##ج	675
##ز	676
##ن	677
##ت	678
##ظ	679
##మ	680
##త	681
##0	682
##2	683
##ౌ	684
##డ	685
##9	686
##ୟ	687
##బ	688
##p	689
##ట	690
##ప	691
##8	692
##ہ	693
##1	694
##ష	695
##t	696
##k	697
##m	698
##ై	699
##హ	700
##చ	701
##3	702
##र	703
##6	704
##ର	705
##ମ	706
##ع	707
##ొ	708
##କ	709
##چ	710
##ె	711
##ئ	712
##7	713
##ీ	714
##ತ	715
##್	716
##ي	717
##భ	718
##ಗ	719
##ಿ	720
##ృ	721
##ణ	722
##ఓ	723
##శ	724
##ఖ	725
##ड	726
##ा	727
##w	728
##f	729
##జ	730
##ف	731
##خ	732
##ص	733
##प	734
##j	735
##ط	736
##ض	737
##ତ	738
##ؤ	739
##ڈ	740
##گ	741
##ୋ	742
##ଷ	743
##4	744
##ه	745
##ो	746
##ए	747
##ش	748
##ں	749
##థ	750
##ଟ	751
##ह	752
##౦	753
##ು	754
##ವ	755
##।	756
##ट	757
##न	758
##q	759
##େ	760
##ଗ	761
##غ	762
##ந	763
##ಚ	764
##़	765
##ब	766
##ఇ	767
##ఏ	768
##ఐ	769
##ବ	770
##ୁ	771
##′	772
##ఠ	773
##୫	774
##୮	775
##😡	776
##‌	777
##ೆ	778
##ఘ	779
##ु	780
##आ	781
##୪	782
##ଞ	783
##ಜ	784
##ಹ	785
##ା	786
##ଲ	787
##ಂ	788
##ದ	789
##ఎ	790
##ी	791
##.	792
##ಕ	793
##ఫ	794
##फ	795
##>	796
##ற	797
##ପ	798
##ଣ	799
##ଦ	800
##ज	801
##ಳ	802
##ನ	803
##ି	804
##ଛ	805
##୦	806
##ذ	807
##ৱ	808
##হ	809
##ಶ	810
##ಟ	811
##म	812
##ଏ	813
##ೊ	814
##ନ	815
##ى	816
##ग	817
##ೌ	818
##च	819
##ಐ	820
##द	821
##ಾ	822
##ଜ	823
##୍	824
##ସ	825
##ଭ	826
##ध	827
##ଫ	828
##ங	829
##ಡ	830
##ứ	831
##ە	832
##ै	833
##ं	834
##ल	835
##स	836
##ଇ	837
##ହ	838
##ả	839
##ಲ	840
##ଡ	841
##ಫ	842
##ث	843
##ू	844
##୭	845
##े	846
##ଁ	847
##ര	848
##ു	849
##ఒ	850
##ఞ	851
##୧	852
##়	853
##ଂ	854
##?	855
##ई	856
##ఈ	857
##ೂ	858
##ୀ	859
##ଳ	860
##"	861
##,	862
##ौ	863
##!	864
##⃣	865
##😂	866
##ژ	867
##آ	868
##ఛ	869
##ଠ	870
##୨	871
##ଥ	872
##ୃ	873
##ః	874
##ത	875
##്	876
##଼	877
##୬	878
##ଅ	879
##ि	880
##क	881
##୩	882
##घ	883
##*	884
##ಣ	885
##=	886
##ఢ	887
##ர	888
##ಭ	889
##ଶ	890
##ଖ	891
##ण	892
##ఝ	893
##ख	894
##त	895
##ढ	896
##౬	897
##ঃ	898
##ে	899
##ư	900
##ớ	901
##ಮ	902
##ଉ	903
##+	904
##ೇ	905
##േ	906
##ൾ	907
##ठ	908
##थ	909
##ী	910
##র	911
##ೀ	912
###	913
##த	914
##ఆ	915
##ক	916
##ু	917
##ُ	918
##ಥ	919
##भ	920
##୯	921
##उ	922
##য	923
##ೋ	924
##౩	925
##श	926
##ண	927
##ன	928
##ୈ	929
##ʼ	930
##ॉ	931
##ೈ	932
##:	933
##ầ	934
##ୱ	935
##ப	936
##ờ	937
##ِ	938
##ଙ	939
##ơ	940
##व	941
##ೃ	942
##ố	943
##ء	944
##ଘ	945
##â	946
##🇬	947
##🌹	948
##ৰ	949
##ୂ	950
##ு	951
##ଈ	952
##ಸ	953
##ി	954
##ല	955
##ന	956
##य	957
##ଯ	958
##ଧ	959
##ଚ	960
##ଆ	961
##ಪ	962
##ڕ	963
##छ	964
##ಒ	965
##ಬ	966
##ম	967
##ি	968
##'	969
##ো	970
##ট	971
##ൻ	972
##ய	973
##ন	974
##ୌ	975
##ఱ	976
##झ	977
##న్	978
##ర్	979
##్ర	980
##ని	981
##రు	982
##ంద	983
##స్	984
##్ల	985
##ంచ	986
ారు	987
##న్న	988
##్య	989
లో	990
చే	991
##ార	992
##్ట	993
ాల	994
##ంది	995
ప్ర	996
ను	997
ని	998
##ంట	999
##క్	1000
ించ	1001
కు	1002
##లో	1003
ున్న	1004
##ాల	1005
##గా	1006
##స్త	1007
##్ప	1008
##ండ	1009
వి	1010
##లు	1011
##కు	1012
్ర	1013
##త్	1014
##డు	1015
రా	1016
ర్	1017
కా	1018
##రి	1019
ిన	1020
గా	1021
##యి	1022
్య	1023
##ంత	1024
స్	1025
##ల్	1026
##ంగ	1027
##ిక	1028
##ుక	1029
లు	1030
##ల్ల	1031
ార	1032
కి	1033
ింది	1034
న్	1035
##దు	1036
##్చ	1037
రె	1038
##ప్ప	1039
##డ్	1040
చేస	1041
##ుల	1042
ార్	1043
మా	1044
##లి	1045
తె	1046
##ను	1047
##ట్ట	1048
##న్ని	1049
చె	1050
ుల	1051
తో	1052
##ీస	1053
##ద్	1054
##కి	1055
##టీ	1056
లే	1057
క్	1058
##త్ర	1059
##చ్చ	1060
ాయి	1061
కో	1062
కూ	1063
##ంగ్	1064
##టు	1065
రి	1066
##తి	1067
వా	1068
పై	1069
##ిన	1070
##డా	1071
పె	1072
##డి	1073
##వా	1074
నే	1075
##ది	1076
##మా	1077
ంలో	1078
##పీ	1079
్త	1080
##ట్ల	1081
##నే	1082
##్యా	1083
##ేశ	1084
##క్ష	1085
##ంచి	1086
సం	1087
పా	1088
ిస్త	1089
నా	1090
##ళ్ల	1091
##ట్	1092
ము	1093
ుత	1094
పో	1095
వె	1096
##ష్ట	1097
##టి	1098
##ంగా	1099
##్మ	1100
##్వ	1101
ఉన్న	1102
ులు	1103
ంగా	1104
రో	1105
కే	1106
వే	1107
##ుత	1108
ుంది	1109
నుంచి	1110
చేశ	1111
కూడా	1112
##క్క	1113
కొ	1114
##ంతో	1115
ాని	1116
డి	1117
చేయ	1118
సి	1119
సీ	1120
ందు	1121
సా	1122
గు	1123
దా	1124
ానికి	1125
చేస్త	1126
##త్త	1127
్యా	1128
్థ	1129
నిర్	1130
##ర్య	1131
సమ	1132
##పు	1133
##యం	1134
ాన్ని	1135
##డ్డ	1136
చెప్ప	1137
ామ	1138
తెలి	1139
ాడు	1140
బా	1141
ాలని	1142
డం	1143
లా	1144
##ంద్ర	1145
న్న	1146
ిక	1147
ాలు	1148
మె	1149
క్ర	1150
తీస	1151
ుక	1152
##ద్ద	1153
ద్	1154
అవ	1155
ధిక	1156
##లా	1157
ాయ	1158
ల్ల	1159
##పో	1160
##ంబ	1161
##ందని	1162
ిల్ల	1163
ార్టీ	1164
ుడు	1165
##గు	1166
రెడ్డ	1167
##త్వ	1168
భు	1169
భుత్వ	1170
##తే	1171
ారం	1172
ఆయ	1173
దీ	1174
ల్	1175
ధికార	1176
##మ్మ	1177
##షన్	1178
##మి	1179
తీసుక	1180
ంద	1181
##రో	1182
ది	1183
పే	1184
వచ్చ	1185
##ంటి	1186
##ాన	1187
##ారి	1188
తన	1189
##ష్	1190
మే	1191
అయి	1192
ఒక	1193
కల	1194
శా	1195
దేశ	1196
రు	1197
##ించ	1198
ప్ప	1199
రెస్	1200
భార	1201
వై	1202
మీ	1203
ారని	1204
రాజ	1205
పరి	1206
ఆయన	1207
త్	1208
ట్ల	1209
##నా	1210
##ఆర్	1211
్లో	1212
##ంధ	1213
ందుకు	1214
రోజ	1215
ఉంట	1216
##వి	1217
రాష్ట	1218
రూ	1219
##త్రి	1220
అని	1221
స్ట	1222
ాబ	1223
ుంట	1224
ోంది	1225
చి	1226
##వు	1227
చూ	1228
##ారం	1229
ింగ్	1230
గ్ర	1231
##నీ	1232
##యో	1233
ఉండ	1234
మంది	1235
##్గ	1236
ీఆర్	1237
ఎన్ని	1238
ోర్	1239
నె	1240
##సి	1241
##ధ్య	1242
వర	1243
##ర్త	1244
తెలిప	1245
##సం	1246
లోని	1247
##సు	1248
యా	1249
ట్	1250
##ైన	1251
టీ	1252
ంట	1253
డీ	1254
##ప్	1255
అంద	1256
్వ	1257
##రిగ	1258
చ్చ	1259
##పా	1260
##ంక	1261
##యా	1262
పు	1263
ంత్రి	1264
పోల	1265
##ంలో	1266
##బ్	1267
పెట్ట	1268
తీ	1269
##ంప	1270
డా	1271
కాంగ్	1272
##్యే	1273
##తో	1274
ిని	1275
భా	1276
ిల్లా	1277
లి	1278
శ్ర	1279
ప్రజ	1280
కోసం	1281
ట్ట	1282
తా	1283
వ్య	1284
##బు	1285
లేద	1286
మి	1287
ఆర్	1288
సె	1289
ాబా	1290
హై	1291
రెండ	1292
లంగా	1293
##వర	1294
ాల్	1295
##ీయ	1296
ఇప్ప	1297
చేసుక	1298
ీజ	1299
పాటు	1300
అన్న	1301
ోవ	1302
##ర్శ	1303
ాబాద్	1304
ండ	1305
##తు	1306
##క్త	1307
విష	1308
లక్ష	1309
ఎం	1310
వీ	1311
డంతో	1312
లంగాణ	1313
చేసిన	1314
కుండ	1315
మహ	1316
లను	1317
ాజ	1318
ట్ర	1319
లేదు	1320
అభ	1321
అయితే	1322
##ండి	1323
##స్ట	1324
మూ	1325
పాల	1326
ముంద	1327
ంగ	1328
కుండా	1329
##ఖ్య	1330
దు	1331
##తా	1332
##ద్య	1333
్ట	1334
వస్త	1335
ఎస్	1336
క్కు	1337
##లీ	1338
ఇచ్చ	1339
##కా	1340
##సీ	1341
##క్ట	1342
కార్య	1343
తర్	1344
చంద్ర	1345
యూ	1346
##ారణ	1347
ారి	1348
ేంద్ర	1349
టిక	1350
మొ	1351
##రం	1352
##శ్	1353
తర్వా	1354
జీ	1355
##ాయ	1356
ంప	1357
ామని	1358
ాలి	1359
కాల	1360
##తుల	1361
ీజే	1362
ీడి	1363
తి	1364
సు	1365
ినిమా	1366
చాల	1367
ైన	1368
నీ	1369
టి	1370
య్య	1371
అనే	1372
ద్ద	1373
ీజేపీ	1374
పోలీస	1375
ప్రజల	1376
మో	1377
సూ	1378
తమ	1379
్యక్త	1380
##ఎం	1381
ట్లు	1382
##ంట్	1383
నిర్వ	1384
మైన	1385
మరో	1386
దే	1387
##గ్గ	1388
డ్	1389
##చ్	1390
చాలా	1391
##రుగ	1392
##ిత	1393
##మె	1394
జా	1395
ఉంది	1396
ఏర్	1397
శ్రీ	1398
తే	1399
వెళ్ల	1400
చెంద	1401
##జీ	1402
బాబు	1403
##తం	1404
##ర్చ	1405
రీ	1406
ిపో	1407
జన	1408
రే	1409
నున్న	1410
వ్యా	1411
##ర్క	1412
సో	1413
పడ	1414
##నిక	1415
నేత	1416
##టన	1417
సీఎం	1418
##వే	1419
అంట	1420
లాంటి	1421
ఎమ్మ	1422
నెల	1423
##ర్గ	1424
క్ష	1425
ాలను	1426
పూ	1427
##ామ	1428
ెల	1429
ల్లో	1430
ాన	1431
ాల్ల	1432
ాల్లో	1433
క్కువ	1434
విజ	1435
##ల్లి	1436
మ్మ	1437
##ర్ల	1438
##దీ	1439
మధ్య	1440
##ోగ	1441
కోట్ల	1442
కీ	1443
సమయం	1444
స్ప	1445
##బంధ	1446
రెండు	1447
##ఫ్	1448
టు	1449
సభ	1450
్క	1451
కలి	1452
ుందని	1453
##ారా	1454
రై	1455
క్క	1456
క్రమ	1457
ాహ	1458
పొ	1459
మాట్ల	1460
ఆమె	1461
్రా	1462
ప్రతి	1463
లె	1464
ిత	1465
##ీసీ	1466
నగ	1467
దీంతో	1468
క్ట	1469
హైద	1470
##మార	1471
వరకు	1472
##ద్ధ	1473
##య్య	1474
గత	1475
దర్శ	1476
##క్కడ	1477
జరిగ	1478
##దే	1479
ెన్	1480
ించి	1481
పని	1482
రోజుల	1483
ళ్ల	1484
హైదర	1485
ాద	1486
రణ	1487
పి	1488
##మ్	1489
##నిప	1490
ొన్న	1491
డానిక	1492
##కాశ	1493
కానీ	1494
ప్	1495
కుమార	1496
ుగా	1497
మరి	1498
##ధి	1499
ముందు	1500
్థాన	1501
ాం	1502
##స్థ	1503
ెల్యే	1504
ోర్టు	1505
రిక	1506
##దల	1507
ప్రా	1508
పెద్ద	1509
ర్ల	1510
ినట్ల	1511
అవకాశ	1512
##బ్బ	1513
వారి	1514
ాడ	1515
హించ	1516
ేషన్	1517
కర	1518
ిప	1519
సంబంధ	1520
##రా	1521
చేసి	1522
##ాన్	1523
బీ	1524
నాయ	1525
ాయని	1526
యి	1527
కొత్త	1528
##కర	1529
##ల్లో	1530
ఏర్పా	1531
బి	1532
రించ	1533
##సా	1534
హి	1535
పీ	1536
పట్ట	1537
కేస	1538
వేల	1539
##సర	1540
లకు	1541
ుకు	1542
##ివ	1543
గ్రామ	1544
ింద	1545
జగ	1546
దీని	1547
తొ	1548
గుర	1549
్యూ	1550
బె	1551
##్వర	1552
ండి	1553
కృ	1554
ండ్	1555
గంట	1556
##వం	1557
అంత	1558
ఇది	1559
భారీ	1560
##వేశ	1561
రోజు	1562
ూర్	1563
ిక్	1564
్ప	1565
సహ	1566
సారి	1567
అత	1568
యు	1569
నియో	1570
తప్ప	1571
్చ	1572
ియ	1573
మన	1574
ద్య	1575
ాణ	1576
అస	1577
వల్ల	1578
##రే	1579
ఇవ	1580
జగన్	1581
భూ	1582
మార	1583
##మాన	1584
నిర్మ	1585
ంచ	1586
ెలు	1587
స్వ	1588
##వల	1589
ారంభ	1590
ెంట	1591
విషయ	1592
ంత	1593
లేదని	1594
ేశ	1595
##యల	1596
నూ	1597
ప్రక	1598
ద్యోగ	1599
హె	1600
##ద్ర	1601
##దేశ	1602
##ధాన	1603
అభ్య	1604
ిగ	1605
ువ	1606
్థి	1607
కనిప	1608
ఇవ్వ	1609
కావ	1610
వ్యాప	1611
గ్	1612
పద	1613
##్యూ	1614
చేసే	1615
ొన్ని	1616
రావు	1617
్వారా	1618
అమ	1619
రామ	1620
విద్య	1621
వారు	1622
##ండ్	1623
ిజ	1624
ప్రకట	1625
ీఆర్ఎ	1626
కపో	1627
చూస	1628
విజయ	1629
జ్	1630
ొత్త	1631
రిగ	1632
బు	1633
ర్య	1634
ీడియ	1635
##పడ	1636
ఇక	1637
చెబ	1638
ుటు	1639
ుటుంబ	1640
డు	1641
కోర	1642
గంటల	1643
టె	1644
స్థ	1645
నాయక	1646
##ాని	1647
ూర్తి	1648
ూరు	1649
నిర్ణ	1650
శాఖ	1651
ాచ	1652
లక్షల	1653
సే	1654
కె	1655
పల్లి	1656
పేర్క	1657
చేర	1658
అన	1659
ర్థ	1660
చెబుత	1661
అభ్యర	1662
గె	1663
జరుగ	1664
పరిస	1665
మహి	1666
కారణ	1667
ుర	1668
ినా	1669
బో	1670
ిందని	1671
##డుత	1672
ఏపీ	1673
ాగ	1674
##రుల	1675
##ాలు	1676
నో	1677
్రమా	1678
తర	1679
##ప్ర	1680
ుడి	1681
ేప	1682
ుడ	1683
తగ్గ	1684
మహిళ	1685
మండ	1686
ొన	1687
మెంట్	1688
పోటీ	1689
##ందర	1690
ప్రస	1691
##ంటే	1692
సై	1693
యత్	1694
హా	1695
ాత్ర	1696
ంజ	1697
వద్ద	1698
ెలుగు	1699
ఎన్	1700
ప్ల	1701
అవుత	1702
మాజీ	1703
్తుత	1704
్తుతం	1705
ెస్	1706
ఇన్	1707
##తర	1708
భారత	1709
ిచ	1710
భారత్	1711
అయ్య	1712
నిర	1713
బ్	1714
షా	1715
ఇండి	1716
మొద	1717
గి	1718
ంది	1719
ొచ్చ	1720
భి	1721
సంస్థ	1722
అలా	1723
##లిచ	1724
కేట	1725
##ిల్ల	1726
యత్న	1727
మంచి	1728
##వత	1729
ఢిల్ల	1730
్లీ	1731
ందులో	1732
##డీ	1733
ార్థ	1734
ిపోయ	1735
ిమ	1736
మ్	1737
త్ర	1738
ుని	1739
##ము	1740
##పై	1741
ిన్	1742
ుంద	1743
ర్మ	1744
బ్యా	1745
కల్లో	1746
##తీయ	1747
ఎంపీ	1748
లీ	1749
ర్ష	1750
ేస	1751
తీవ	1752
విశ	1753
శాతం	1754
ేవం	1755
ేవంత్	1756
##ంబర్	1757
తీవ్ర	1758
ఇండియ	1759
ధర	1760
ధాని	1761
వాడ	1762
పవ	1763
ాలో	1764
తెలు	1765
్టే	1766
##గుల	1767
రిగిన	1768
మావేశ	1769
ఒక్క	1770
చ్చిన	1771
##వీ	1772
ులకు	1773
్యాచ్	1774
లై	1775
ుండ	1776
##రీ	1777
మీద	1778
కీల	1779
మూడు	1780
సందర	1781
రోగ	1782
తెలుస	1783
ించిన	1784
ేసు	1785
్రాంత	1786
డీపీ	1787
10	1788
ాత్రం	1789
్ల	1790
ఇస్త	1791
స్వా	1792
వెల్ల	1793
ఉప	1794
ాట	1795
ఫి	1796
తేదీ	1797
కీలక	1798
ాల్స	1799
అన్ని	1800
రాశ	1801
వాళ్ల	1802
ాంత	1803
ునే	1804
గుర్త	1805
త్యే	1806
ఆధ	1807
కలిసి	1808
త్యేక	1809
సూచ	1810
వర్	1811
ుఖ్య	1812
పవన్	1813
మండల	1814
కవ	1815
దేశ్	1816
##సాగ	1817
ొనసాగ	1818
ఘటన	1819
సాధ	1820
త్వ	1821
ిడు	1822
ిడుదల	1823
ఉద	1824
క్యా	1825
##భా	1826
రంగ	1827
్లా	1828
ుకో	1829
రోగ్య	1830
లతో	1831
రావ	1832
ట్టు	1833
మాత్ర	1834
##విత	1835
పంప	1836
ీడియో	1837
##చార	1838
ైసీ	1839
ార్క	1840
ఉందని	1841
ంలోని	1842
జర	1843
చో	1844
ండ్ల	1845
##ియ	1846
##కూ	1847
దేవ	1848
నియోజ	1849
్రశ్	1850
్రశ్న	1851
టికే	1852
##ంగళ	1853
ాజా	1854
ానని	1855
్మ	1856
రైతుల	1857
కారణం	1858
వచ్చే	1859
డ్ర	1860
##ృష్ట	1861
##డం	1862
##జ్	1863
వైపు	1864
##త్య	1865
్రమాద	1866
##టో	1867
గో	1868
ైసీపీ	1869
్రధాన	1870
తెలిస	1871
లలో	1872
ెళ్ల	1873
్రి	1874
ైనా	1875
రక	1876
##డారు	1877
కవర్గ	1878
దాని	1879
కర్	1880
్యం	1881
ించే	1882
ాలకు	1883
గురు	1884
వార	1885
ుఖ్యమ	1886
##ఎస్	1887
ేష్	1888
##ట్టు	1889
్యంలో	1890
ించుక	1891
ున	1892
చూప	1893
పడుత	1894
##గి	1895
ాస్	1896
ాప	1897
##ుడ	1898
కారం	1899
ాన్	1900
అధ	1901
ిం	1902
మస్	1903
బయ	1904
ివర	1905
ెయి	1906
్భ	1907
్వా	1908
డించ	1909
కాదు	1910
రెస్ట	1911
పాల్గ	1912
్రీ	1913
డె	1914
ుబ	1915
ప్పటి	1916
##ష్ణ	1917
##వాస	1918
చిన్న	1919
త్త	1920
##పత	1921
##ెంబ	1922
కృష్ణ	1923
నిల	1924
తీర	1925
కింద	1926
జూ	1927
##త్స	1928
అసెంబ	1929
అవసర	1930
వ్వ	1931
చై	1932
కేసు	1933
##కీయ	1934
ాజకీయ	1935
యం	1936
్రప	1937
ాల్సి	1938
ఫో	1939
ాచారం	1940
ొత్తం	1941
మృ	1942
నుంది	1943
ిల్	1944
పరిశ	1945
నుండి	1946
వంటి	1947
హీ	1948
##రుక	1949
పేట	1950
##రిక	1951
్ష	1952
##ర్మ	1953
ోయ	1954
్రంలో	1955
ిమర్శ	1956
##వ్	1957
్రపంచ	1958
జరగ	1959
ుప	1960
్థితి	1961
్భంగా	1962
ేపట్ట	1963
చేరుక	1964
##గే	1965
నగర్	1966
సర్	1967
ేలా	1968
ఇంటి	1969
ోడ్	1970
వేస	1971
##వరి	1972
ంపె	1973
లుగు	1974
##ివృ	1975
ాంతాల	1976
ిరు	1977
చిత్ర	1978
దగ్గ	1979
##త్మ	1980
చర్చ	1981
సంఘ	1982
ికి	1983
ంపెనీ	1984
ఆదేశ	1985
బాధ	1986
నివాస	1987
బయట	1988
ఆల	1989
ుస్త	1990
లేదా	1991
ముఖ్య	1992
ిఫ	1993
రల్	1994
పలు	1995
సోష	1996
జై	1997
శి	1998
అమ్మ	1999
ఆరో	2000
తాను	2001
మస్యల	2002
లోకి	2003
పుర	2004
ోదీ	2005
ెంబర్	2006
ాక	2007
##గ్ర	2008
ద్ధి	2009
##స్టు	2010
##క్ర	2011
తొలి	2012
నిజ	2013
కపోవ	2014
ారికి	2015
ఎలా	2016
సోషల్	2017
అదే	2018
అక్కడ	2019
ేశ్వర	2020
##ాల్	2021
బాల	2022
ైల్	2023
వుత	2024
##వర్	2025
##ణ్	2026
తల	2027
పెంచ	2028
##ార్	2029
పొంద	2030
టికీ	2031
టం	2032
ితే	2033
అంటూ	2034
ింపు	2035
జాతీయ	2036
ిచారణ	2037
ున్నా	2038
ఇతర	2039
##ాయి	2040
విషయం	2041
వ్యవ	2042
ేష	2043
అభివృ	2044
మని	2045
అను	2046
లేక	2047
డై	2048
ఏడా	2049
ఆరోప	2050
దూ	2051
మేర	2052
నేతలు	2053
ర్యలు	2054
దగ్గర	2055
ఫోన్	2056
హీరో	2057
మై	2058
ంటే	2059
లోనే	2060
సంవత	2061
స్పంద	2062
ర్థిక	2063
ొంద	2064
##జు	2065
ుకోవ	2066
హత్య	2067
ఏడాది	2068
ీర్	2069
ష్	2070
స్ట్ర	2071
ాదా	2072
మాన	2073
దాడి	2074
నేప	2075
ంతా	2076
గాంధ	2077
తెలియ	2078
జార	2079
##న్స	2080
బ్ర	2081
ాడుత	2082
ెక్ట	2083
ిందే	2084
గాంధీ	2085
మెరిక	2086
అలాగే	2087
##శాల	2088
గౌ	2089
ఇదే	2090
క్ల	2091
ుంటే	2092
అం	2093
అప్ప	2094
ాధ్య	2095
రుణ	2096
నంత	2097
్తంగా	2098
్పష్ట	2099
అంటే	2100
పేరు	2101
ిల్లల	2102
దిగ	2103
పెరిగ	2104
ంపై	2105
ెడ్	2106
##ప్ట	2107
తు	2108
అది	2109
భ్య	2110
ోధ	2111
రుగుల	2112
అధ్య	2113
ిలీ	2114
వివర	2115
##టిని	2116
షన్	2117
వెంక	2118
ఆడ	2119
న్యా	2120
కాలం	2121
భద్ర	2122
ెంట్	2123
యో	2124
ిట్	2125
సిద్ధ	2126
చూడ	2127
తరు	2128
డిమా	2129
అయిన	2130
ాజాగా	2131
క్తుల	2132
ప్రాజ	2133
ాప్	2134
సింగ్	2135
జే	2136
##సే	2137
నగర	2138
దృష్ట	2139
ంబ	2140
##సన	2141
క్షన్	2142
న్స్	2143
రాశి	2144
శివ	2145
ఇలా	2146
ర్గ	2147
ఇబ్బ	2148
ందుక	2149
వ్యాఖ	2150
##ట్టి	2151
ట్రా	2152
ఆహ	2153
##పోయ	2154
ఉత్త	2155
ఇంట	2156
ియా	2157
ాదాపు	2158
మెంట	2159
అమలు	2160
ిట	2161
ాక్	2162
##ోళ	2163
త్తు	2164
గతంలో	2165
క్రమం	2166
20	2167
ార్డ	2168
కూడ	2169
ేరు	2170
్తే	2171
ఏళ్ల	2172
పూర్	2173
ఇటీ	2174
ందోళ	2175
ప్రజా	2176
ేసులో	2177
ందోళన	2178
ాగంగా	2179
ేశ్	2180
##మో	2181
డబ్	2182
అనేక	2183
ికల్	2184
##నం	2185
రీక్ష	2186
వారం	2187
ెట్	2188
ాడుతూ	2189
ఇటీవల	2190
లెక్ట	2191
డబ్బు	2192
ావ	2193
నంతరం	2194
గల	2195
వ్యవహ	2196
హైక	2197
ఆఫ్	2198
##నివ	2199
సొ	2200
కౌ	2201
మూవీ	2202
కొట్ట	2203
ఎవర	2204
్యాంక	2205
తేల	2206
బడ	2207
జట్టు	2208
మోదు	2209
ోల	2210
ేయ	2211
ోద	2212
ఆఫ	2213
వెంకట	2214
ాలయ	2215
జి	2216
ారా	2217
ాను	2218
ెంటనే	2219
భ్యుల	2220
ందుకే	2221
శు	2222
జె	2223
వైఎస్	2224
మళ్ల	2225
ులను	2226
వాద	2227
##మోద	2228
ైంది	2229
ఫలి	2230
తరువా	2231
ఫలిత	2232
నేను	2233
కొంత	2234
ిష	2235
ీల	2236
ెత్త	2237
స్వామ	2238
రక్ష	2239
ాదు	2240
ముగ	2241
ర్షాల	2242
నియ	2243
పోస్ట	2244
మాట	2245
స్త	2246
్రె	2247
దారుల	2248
ళ్	2249
ఆధార	2250
జారీ	2251
##క్తి	2252
వివా	2253
ష్ట	2254
వెళ	2255
ాహు	2256
##ారు	2257
నేర	2258
ెల్	2259
కల్ప	2260
##డుక	2261
##ంజ	2262
##ేట	2263
డిప	2264
గిరి	2265
చారం	2266
ంట్ల	2267
వర్గ	2268
ినప్ప	2269
చీ	2270
##ణా	2271
నేపథ	2272
పెరుగ	2273
అంచ	2274
భావ	2275
రాజ్	2276
బోత	2277
కంటే	2278
మొదటి	2279
ఉత్తర	2280
##యోగ	2281
ఎక్	2282
వు	2283
వైర	2284
్యాణ్	2285
గొ	2286
్డారు	2287
నోట	2288
15	2289
ేట	2290
న్యాయ	2291
జీవిత	2292
ళ్ళ	2293
ిర	2294
ిస్తూ	2295
రోప	2296
ోత	2297
గ్రహ	2298
##ుడు	2299
ప్రత	2300
్తూ	2301
పర్	2302
లోక్	2303
ూపా	2304
అంచనా	2305
ూపాయల	2306
్యక్ష	2307
డైర	2308
ొందరు	2309
ఫొ	2310
ఫొటో	2311
ఫిర్య	2312
పైన	2313
తల్లి	2314
ాలన్న	2315
వైద్య	2316
క్టర్	2317
ర్ట	2318
వస	2319
ుగ	2320
పక్ష	2321
గానే	2322
ఉదయం	2323
ిధ	2324
్టేష	2325
ింప	2326
ాది	2327
ోష	2328
ుర్త	2329
##రిగి	2330
నేతల	2331
ఆఫీస	2332
హాజ	2333
ిపోత	2334
చెల్ల	2335
ఆంధ	2336
ఫ్	2337
ుర్తు	2338
ాహుల్	2339
ఉపయోగ	2340
ఆంధ్ర	2341
ిస్తే	2342
దర్శన	2343
ెస్ట్	2344
కుల	2345
ర్చ	2346
సర	2347
న్యూ	2348
ఎంత	2349
##పొ	2350
నెలల	2351
ర్ర	2352
డైరె	2353
లైన్	2354
హాజర	2355
చేత	2356
కాగా	2357
ార్పు	2358
##బీ	2359
డాక్ట	2360
ివరాల	2361
డ్డ	2362
జనసే	2363
భాగ	2364
జనసేన	2365
బంధ	2366
##రేక	2367
సంఖ్య	2368
హిస్త	2369
మేరకు	2370
సాగ	2371
పార్ల	2372
ర్క	2373
అతని	2374
మార్చ	2375
ిన్న	2376
ాలుగు	2377
నిలిచ	2378
వేద	2379
ొంది	2380
ర్ణ	2381
తరల	2382
ఆది	2383
టికె	2384
మరింత	2385
్రక	2386
ామ్	2387
రెండో	2388
నల	2389
టంతో	2390
వాటి	2391
క్రిక	2392
నష్ట	2393
్డ	2394
##నుక	2395
న్ని	2396
సంగ	2397
ిక్క	2398
్టార్	2399
ిడ	2400
ార్జ	2401
ఉండే	2402
ంక	2403
వంత	2404
ోర	2405
ందర	2406
తిరేక	2407
అందు	2408
సోమ	2409
కూల	2410
రోపణ	2411
ఇంక	2412
హో	2413
్థుల	2414
ాధ	2415
వాతా	2416
పాలన	2417
వాతావ	2418
ిలో	2419
12	2420
సీట్ల	2421
ాత్రి	2422
యోగ	2423
ోత్స	2424
నంద	2425
ుమ	2426
ఏర్పడ	2427
##నల్	2428
ంటూ	2429
##్త	2430
##సుక	2431
##ంత్ర	2432
వార్	2433
హెచ్	2434
మళ్లీ	2435
కేటాయ	2436
ప్పుడ	2437
రువు	2438
మిషన్	2439
రోపణల	2440
ుష	2441
యాత్ర	2442
ేద	2443
ోలీ	2444
ోర్ట	2445
్స	2446
ీని	2447
ఎదు	2448
మర	2449
ఎల్	2450
్లి	2451
ినీ	2452
శాంత	2453
్షుడు	2454
ేవా	2455
ఏం	2456
యించ	2457
ఎఫ్	2458
ాట్	2459
30	2460
టై	2461
ాధ్యత	2462
నర్	2463
ిల	2464
ంతో	2465
ంలోకి	2466
ంట్	2467
ుజ	2468
బస్	2469
పాత్ర	2470
ఉంటే	2471
కష్ట	2472
అధ్యక	2473
దర	2474
సిబ్బ	2475
లేని	2476
ిరిగి	2477
్సర	2478
అనుక	2479
కౌంట	2480
వైరల్	2481
ైట్	2482
భార్య	2483
్రకటన	2484
ఆలయ	2485
ఐదు	2486
##టర్	2487
మూడ	2488
ిగా	2489
ట్వ	2490
ంత్ర	2491
్థిత	2492
బీసీ	2493
ార్త	2494
వర్ష	2495
ార్కె	2496
కర్త	2497
ద్దతు	2498
ీన్	2499
కమి	2500
యాద	2501
##ద్దర	2502
పన	2503
పండ	2504
ఇక్కడ	2505
ెక్టు	2506
##ణాట	2507
ద్ధ	2508
కట్ట	2509
గణ	2510
ిట్ట	2511
అత్య	2512
డిస	2513
ామన్న	2514
తను	2515
్యు	2516
సౌ	2517
సాయ	2518
డమ	2519
విజయం	2520
ఉంచ	2521
ోడీ	2522
్ణాట	2523
్ణాటక	2524
కీయ	2525
సీపీ	2526
దని	2527
##జన	2528
ంట్లో	2529
ఆలో	2530
ఆలోచ	2531
ంద్ర	2532
##నుగ	2533
వేయ	2534
నియోగ	2535
్రయా	2536
్రయాణ	2537
్ని	2538
ఏపీలో	2539
ిద	2540
ువుల	2541
శుక	2542
శుక్ర	2543
ిశ	2544
క్కడి	2545
వస్థ	2546
ాటు	2547
##య్	2548
మార్గ	2549
బుల్	2550
పూజ	2551
ాడని	2552
మంగళ	2553
ర్న	2554
ట్టి	2555
కమిటీ	2556
విన	2557
జ్ఞ	2558
పాట	2559
్రం	2560
##ీల	2561
న్నీ	2562
ఎక్కడ	2563
ోలు	2564
సహాయ	2565
యువ	2566
పను	2567
ైగా	2568
ిందిత	2569
ెళ్లి	2570
ోలీస్	2571
ీనియ	2572
మొదల	2573
దె	2574
దక్క	2575
నుమ	2576
ఎక్స్	2577
ీమ్	2578
కిలో	2579
విశ్వ	2580
భిమాన	2581
కీయాల	2582
ప్లా	2583
తనకు	2584
క్షి	2585
సీబీ	2586
చట్ట	2587
##یں	2588
నాగ	2589
11	2590
్రమ	2591
దర్శక	2592
ోడ్డు	2593
భూమి	2594
మహిళల	2595
రిష్	2596
బ్యాట	2597
ద్దరు	2598
్రూ	2599
్పు	2600
ులో	2601
ుల్	2602
హెచ్చ	2603
నడ	2604
చోటు	2605
ఆత్మ	2606
సార్ల	2607
##ేమ	2608
ాలంటే	2609
పనులు	2610
ుల్లో	2611
##డుల	2612
రాజు	2613
ఇంకా	2614
పర్య	2615
ర్త	2616
బెంగళ	2617
##విస	2618
ైర్	2619
త్య	2620
ుక్క	2621
ర్స్	2622
కూట	2623
ారన్న	2624
ాయ్	2625
##కిస	2626
పాకిస	2627
రహ	2628
సంత	2629
ీలో	2630
కేవల	2631
కేవలం	2632
విస్త	2633
కలిగ	2634
వేగ	2635
పరిధి	2636
చు	2637
ేమ	2638
నవ	2639
రగ	2640
శుభ	2641
త్వం	2642
భావిస	2643
ీనియర	2644
ఆరు	2645
ోక	2646
తిర	2647
##స్య	2648
సమస్య	2649
వీర	2650
కూటమి	2651
వో	2652
ర్లు	2653
రవ	2654
నాథ	2655
బౌ	2656
నాడు	2657
ుకుంట	2658
ైజ	2659
దూరం	2660
వృ	2661
ైల్వే	2662
వేశ	2663
ేధ	2664
ఆదివ	2665
వచ్చి	2666
బాధిత	2667
కన	2668
న్ను	2669
ేజీ	2670
హింద	2671
ప్లే	2672
ోందని	2673
ర్వ	2674
తమి	2675
ార్ట	2676
రిప	2677
ారిని	2678
ీనా	2679
ేజ్	2680
సరి	2681
రోడ్	2682
ిబ	2683
ెయిల్	2684
ిలి	2685
నిమి	2686
మృతి	2687
కం	2688
ాళ	2689
ఖర్చ	2690
##టర్ల	2691
సిద్ద	2692
సుప్ర	2693
గూ	2694
ానీ	2695
ిటీ	2696
సన్	2697
్రవేశ	2698
ాయిలో	2699
పోరా	2700
##మల	2701
ధరల	2702
మోహ	2703
మహా	2704
అంశ	2705
సూర్య	2706
##యారు	2707
దుర్క	2708
ేక్ష	2709
ఫీ	2710
ఫ్యా	2711
నిధ	2712
బస్సు	2713
ేది	2714
రిస్త	2715
జీవ	2716
రమ	2717
తమిళ	2718
చ్	2719
14	2720
నటి	2721
విధాన	2722
ారాయ	2723
కొనుగ	2724
భిప్ర	2725
ఎంతో	2726
ధాన్	2727
నని	2728
ధాన్య	2729
చ్చు	2730
హర	2731
తాము	2732
ైల	2733
వరద	2734
్థాయి	2735
##ికి	2736
సొంత	2737
జూన్	2738
మీరు	2739
కాద	2740
దేశాల	2741
నై	2742
తిని	2743
ిరుమల	2744
ారాయణ	2745
బాగా	2746
##ఖల	2747
బహ	2748
చివరి	2749
ిలీజ్	2750
విధ	2751
##లువ	2752
టా	2753
దొ	2754
యర్	2755
50	2756
్న	2757
బట్టి	2758
తొల	2759
ొని	2760
##ర్వ	2761
అంతే	2762
ాలే	2763
మరియ	2764
అర్	2765
ఓట్ల	2766
##విధ	2767
లపై	2768
గ్యా	2769
వచ్చు	2770
ోదా	2771
##ినే	2772
్తాన్	2773
నాటి	2774
పక్క	2775
ాటులో	2776
అందుబ	2777
ఓడ	2778
్రచార	2779
کی	2780
ఒకర	2781
ప్రేమ	2782
వివిధ	2783
సంజ	2784
వెళ్త	2785
ోన్	2786
పథ	2787
మవ	2788
గుండ	2789
ಲ್	2790
##కూల	2791
ొక్క	2792
ుతూ	2793
దిల	2794
బుధ	2795
రిట	2796
్యలు	2797
కోల	2798
ైవే	2799
డియ	2800
మరియు	2801
అక్ర	2802
ార్చ	2803
విర	2804
ర్ధ	2805
వరకూ	2806
నీటి	2807
భావం	2808
యన	2809
చర్య	2810
ుచ	2811
టో	2812
భద్రత	2813
##వార	2814
ఖా	2815
ఆశ	2816
సీసీ	2817
ేనే	2818
సర్వే	2819
ర్కార	2820
ఆహార	2821
ెర	2822
మవుత	2823
ొప్ప	2824
ంభ	2825
వేదిక	2826
నింగ్	2827
ఖర్చు	2828
లం	2829
##ూర	2830
ంట్ర	2831
పాద	2832
ుకుని	2833
గమ	2834
్రము	2835
చైర్మ	2836
్రముఖ	2837
కప్	2838
##జా	2839
దండ	2840
సోమవ	2841
అక్రమ	2842
ీబ	2843
రద్	2844
కర్తల	2845
భవ	2846
అయ	2847
ీచ	2848
బౌల	2849
ఫ్ల	2850
నిధుల	2851
శిక్ష	2852
జైలు	2853
రైతు	2854
క్షిణ	2855
ోహ	2856
హామ	2857
ేళ్ల	2858
అనేది	2859
రిష్క	2860
హామీ	2861
25	2862
24	2863
్తు	2864
తొలగ	2865
నుగ	2866
ుండగా	2867
ఫ్ర	2868
విమాన	2869
సెప్ట	2870
ిధంగా	2871
ర్గాల	2872
ెన్స్	2873
తినిధ	2874
త్తి	2875
్యాండ	2876
లోక	2877
ధినే	2878
న్య	2879
క్రియ	2880
వీరి	2881
బిజ	2882
ధినేత	2883
న్ల	2884
ాటిని	2885
పురం	2886
ాధారణ	2887
వయ	2888
ింట	2889
ఫ్ట	2890
లువు	2891
అతి	2892
ప్రభా	2893
అండ్	2894
స్ట్	2895
మల్ల	2896
డమే	2897
ొడ	2898
నివే	2899
ముంబ	2900
ిష్ట	2901
ిష్	2902
ీక	2903
రకాల	2904
ంగ్	2905
ెక్	2906
సూప	2907
సాయంత	2908
నివేద	2909
నుకూల	2910
ిద్యా	2911
ఎల	2912
వేళ	2913
ూల	2914
ెగ	2915
ిజర్వ	2916
ఇజ	2917
్స్	2918
ఇజ్ర	2919
ండిపడ	2920
సంక్ష	2921
సభ్య	2922
డే	2923
న్స	2924
ియల్	2925
ీస్	2926
సామ	2927
ిమా	2928
బయటకు	2929
విచార	2930
ఎన్న	2931
ిస	2932
ిల్లు	2933
ఎయి	2934
లర్	2935
ేస్త	2936
్వామి	2937
ఏక	2938
ీమ	2939
ంగారం	2940
క్టో	2941
ర్జు	2942
ర్జున	2943
వల	2944
ాండ	2945
ీర	2946
ీల్	2947
ీవు	2948
పథక	2949
గడ	2950
పోయ	2951
కంప	2952
తండ	2953
టే	2954
ాయె	2955
వీటి	2956
యువత	2957
లుసుక	2958
ిస్	2959
నియమ	2960
##ాలి	2961
దర్య	2962
య్యే	2963
విక్ర	2964
ొచ్చు	2965
నమోద	2966
మంగళవ	2967
ఉంద	2968
నక	2969
శనివ	2970
త్వర	2971
స్తుల	2972
సిటీ	2973
టీసీ	2974
ూత	2975
వాహ	2976
మృత	2977
ేరుతో	2978
ీవుడ్	2979
వ్	2980
కృత	2981
కవిత	2982
ిజన్	2983
ఓవర్	2984
ులతో	2985
ర్మిక	2986
ాప్తు	2987
నేడు	2988
లీడ	2989
వుల	2990
క్కడ	2991
గురువ	2992
తేదీన	2993
##ెంట	2994
ఒకే	2995
దెబ్బ	2996
వాల్	2997
గెలిచ	2998
ాలనే	2999
పాత	3000
దాడుల	3001
ఫె	3002
క్టోబ	3003
ేసులు	3004
ప్రియ	3005
మారు	3006
టెక్	3007
నాలు	3008
శరీ	3009
శరీర	3010
ంధ	3011
నం	3012
ిచ్చ	3013
సిం	3014
మణ	3015
ోత్సవ	3016
రద్దు	3017
్ట్ర	3018
చీఫ్	3019
ార్చి	3020
ఏద	3021
విలువ	3022
ారిటీ	3023
మోహన్	3024
సింగ	3025
ంక్ష	3026
రియా	3027
గెల	3028
నిపోయ	3029
దశ	3030
లస	3031
ెల్సీ	3032
స్వీ	3033
ిగత	3034
ఇంత	3035
ఓటు	3036
జర్	3037
దళ	3038
ేల	3039
ాల్ప	3040
వస్తే	3041
రిత్ర	3042
ఎకర	3043
మనం	3044
ిటల్	3045
సంజయ్	3046
ేక్	3047
ఇంటర్	3048
ాయెల్	3049
అడి	3050
బల	3051
ిండ	3052
రాయ	3053
ికు	3054
ాత్మ	3055
ీష్	3056
యిన్	3057
నరే	3058
అభి	3059
పనుల	3060
ుబడ	3061
18	3062
నియా	3063
ప్షన్	3064
ఎత్త	3065
స్మ	3066
బ్ద	3067
ందరూ	3068
ుద	3069
భూమ	3070
మండలం	3071
ెక్క	3072
భర్త	3073
ిప్	3074
ప్రొ	3075
ూర	3076
##సారి	3077
ాస	3078
ాల్పడ	3079
##ర్ప	3080
ర్మి	3081
సహా	3082
ిక్స్	3083
పుట్ట	3084
్రుల	3085
రామ్	3086
వరు	3087
్గు	3088
##టిష	3089
తది	3090
టింగ్	3091
రైలు	3092
్యాన	3093
విశా	3094
్యూటీ	3095
గడ్డ	3096
ీక్ష	3097
ెన్స	3098
వన్	3099
నీరు	3100
విశాఖ	3101
అంబ	3102
కిత్స	3103
ుత్	3104
డ్రై	3105
ించడ	3106
కూడద	3107
ప్పు	3108
్థాన్	3109
నామ	3110
ురాల	3111
్యామ	3112
వివాద	3113
సంతో	3114
కోల్ప	3115
అందుక	3116
రాస	3117
##ర్ట	3118
ిర్	3119
ొంట	3120
నెలక	3121
పదవి	3122
త్యంత	3123
తండ్ర	3124
ోస్టు	3125
విదేశ	3126
##త్తి	3127
అంతర్	3128
ీయ	3129
ోన్న	3130
తదితర	3131
ిడ్	3132
ాపూ	3133
ఆక	3134
అయినా	3135
జరిగే	3136
సంతోష	3137
ఏమ	3138
దారి	3139
ాడారు	3140
ుష్	3141
డర్	3142
ల్లు	3143
ేంద	3144
ోప	3145
నుంచ	3146
షాక	3147
మహిళా	3148
ీలి	3149
రేట్	3150
ంకు	3151
##రించ	3152
చైనా	3153
ంత్రు	3154
చుట్ట	3155
లెక్క	3156
యుద్ధ	3157
లభ	3158
న్నత	3159
13	3160
ఆసు	3161
సార	3162
##జె	3163
ఎస్సీ	3164
స్వీక	3165
ీకర	3166
్థల	3167
ింపుల	3168
వయస	3169
ివరకు	3170
ీబీసీ	3171
నీళ్ల	3172
ఫర్	3173
నిరసన	3174
గవర్	3175
గవర్న	3176
..	3177
సహక	3178
ైన్	3179
బుధవ	3180
ెస్ట	3181
సూపర్	3182
కన్న	3183
క్యూ	3184
వినిప	3185
ఆసుపత	3186
శక్తి	3187
ోరు	3188
మారుత	3189
నలు	3190
కాపా	3191
17	3192
ాయాల	3193
దర్శి	3194
ేషనల్	3195
నమ్మ	3196
ఎంప	3197
ుద్ధ	3198
ధర్మ	3199
ారతీయ	3200
వేడుక	3201
యోజన	3202
ైవేట	3203
మున్స	3204
ోమ	3205
ల్లి	3206
16	3207
్సరాల	3208
అధిక	3209
భూముల	3210
ీలించ	3211
రాజ్య	3212
రేషన్	3213
పూర	3214
్లాన్	3215
రంగల్	3216
ెంటర్	3217
ధన	3218
ాస్ట	3219
తీరు	3220
ర్యటన	3221
ారో	3222
సీఐ	3223
ಲ್ಲ	3224
ంస	3225
్రాల	3226
కాపాడ	3227
ోడ	3228
తమకు	3229
జాగ్ర	3230
నాకు	3231
జ్జ	3232
ాసన	3233
ేస్	3234
కూర	3235
స్టర్	3236
کے	3237
ఎయిర్	3238
నరేంద	3239
ాపూర్	3240
ఈసారి	3241
ొత్తు	3242
ఏప్ర	3243
ఏప్రి	3244
్నా	3245
ాఫ	3246
ీం	3247
ాలలో	3248
వరుస	3249
ట్రై	3250
ఎదురు	3251
ర్మిల	3252
22	3253
మన్	3254
సంచ	3255
కపోతే	3256
ాంబ	3257
ఆన్	3258
తిన	3259
్వత	3260
పేద	3261
రల్డ్	3262
ోగ	3263
త్స	3264
కామె	3265
ంప్ర	3266
దేళ్ల	3267
లువుర	3268
ంచ్	3269
న్మ	3270
లాభ	3271
సుర	3272
పిటిష	3273
ిరీ	3274
ూట	3275
ఆద	3276
అసలు	3277
ెట్ట	3278
వాస	3279
ేవారు	3280
ీంక	3281
సాయి	3282
దాఖల	3283
పరిచ	3284
ఎస్పీ	3285
ఆస	3286
యాణ	3287
అమర	3288
ోవడ	3289
ురా	3290
ేటి	3291
ముఖ	3292
లేకప	3293
మిక	3294
ేందర్	3295
మెడ	3296
ూడ	3297
రాం	3298
ాలంలో	3299
లీడర్	3300
ీశ్	3301
ైక్	3302
మద్య	3303
##ఖా	3304
్రే	3305
బడ్	3306
విక	3307
్యాల	3308
రణ్	3309
ిరీస్	3310
పది	3311
ాఠ	3312
##ఖాస	3313
అమి	3314
ఎంపిక	3315
ంప్	3316
ాయింట	3317
కొండ	3318
ేర	3319
లహ	3320
ితో	3321
ీటిని	3322
మెరుగ	3323
సేకర	3324
దరఖాస	3325
నాథ్	3326
ఈరో	3327
బ్ల	3328
హిత	3329
ౌన్	3330
గౌడ	3331
బడ్జె	3332
ఐటీ	3333
వేగం	3334
దిన	3335
మయ్య	3336
ూనే	3337
ియేట	3338
మొదలు	3339
ిణ	3340
ారీ	3341
ాహ్	3342
రక్షణ	3343
##పం	3344
నిరు	3345
ఖమ్మ	3346
ుణ	3347
ఖమ్మం	3348
##ూల్	3349
ంగార	3350
్కూల్	3351
గ్జ	3352
ేర్ల	3353
ంచుక	3354
గౌర	3355
క్వ	3356
మైంది	3357
చ్చని	3358
కెప్ట	3359
శ్రయ	3360
నటించ	3361
ఈరోజు	3362
జాత	3363
్కర్	3364
పట్టణ	3365
ల్ప	3366
స్య	3367
ియో	3368
ుక్	3369
ఉపా	3370
ిత్త	3371
నిత	3372
ార్ట్	3373
్రూప్	3374
కాదని	3375
ఇంగ	3376
ీరి	3377
ేట్	3378
ీరియ	3379
ఎవ	3380
ీన	3381
ారుల	3382
ాక్స	3383
میں	3384
ఇవా	3385
ార్మ	3386
ందులు	3387
వరి	3388
శంక	3389
బ్బ	3390
ఉపాధ	3391
శ్చ	3392
వినీ	3393
ఇళ్ల	3394
కథ	3395
ఒకటి	3396
ంశ	3397
ఉమ్మ	3398
తయారు	3399
్యూస్	3400
ఎకరాల	3401
ంప్రద	3402
ఈడీ	3403
రెంట	3404
ఒప్ప	3405
ాబ్	3406
ిఫిక	3407
జ్య	3408
షె	3409
ుద్ద	3410
ౌన్స	3411
బర్	3412
విడ	3413
గాయ	3414
ాబి	3415
సేవల	3416
చా	3417
##షన	3418
##ీసు	3419
దేహ	3420
ిగ్ర	3421
లగ	3422
సియ	3423
నర	3424
ారణ	3425
మూడో	3426
వివే	3427
ల్స్	3428
వివేక	3429
లుపు	3430
వినీత	3431
మల	3432
##ీట	3433
నుమాన	3434
సైతం	3435
ీవ	3436
గుంట	3437
సమీ	3438
ల్లం	3439
్పె	3440
ఆలోచన	3441
ందర్	3442
ీచర్	3443
ఇవాళ	3444
బృ	3445
లిప	3446
ఎంద	3447
పతి	3448
గమన	3449
ముంబై	3450
ారనే	3451
మీటర్	3452
ర్జ	3453
ఉండగా	3454
వార్డ	3455
ఉమ్మడ	3456
నిపు	3457
లియ	3458
హెల	3459
ాన్స్	3460
నిపుణ	3461
గస్టు	3462
ఫైన	3463
వంబర్	3464
ీనామా	3465
ఉన్నా	3466
ఆయనకు	3467
అల	3468
డుత	3469
క్ట్	3470
ఇంగ్ల	3471
ేలి	3472
ూపొ	3473
ాత్మక	3474
ూపొంద	3475
అదు	3476
చదు	3477
జరి	3478
వాల	3479
ాకా	3480
ేషన్ల	3481
వర్షం	3482
అదుపు	3483
జరిప	3484
సాయం	3485
ల్డ్	3486
ప్త	3487
ట్వీట	3488
సబ్	3489
ఇండ	3490
పట్ల	3491
ీన్ని	3492
య్	3493
##లన	3494
కనీస	3495
ుచుక	3496
్ధ	3497
సభలో	3498
##లుప	3499
గెలుప	3500
ిషన్	3501
పెడుత	3502
్వర	3503
తాగ	3504
జనవరి	3505
అప	3506
ఘన	3507
ొండ	3508
డ్రైవ	3509
ాబితా	3510
నల్	3511
ఫర	3512
ుమా	3513
్యంగా	3514
బెట్ట	3515
తయ	3516
ొంగ	3517
సక్తి	3518
నుభ	3519
సమీపం	3520
టాల	3521
ితంగా	3522
నీయ	3523
సామా	3524
తయార	3525
ానం	3526
ంబర్	3527
ార్పొ	3528
ఆవ	3529
వెనుక	3530
ద్దు	3531
ాలేజీ	3532
ఐపీ	3533
ింటి	3534
దాన	3535
ఆస్	3536
ఉచ	3537
ధీ	3538
సమా	3539
యాణిక	3540
ిగ్రహ	3541
ఉచిత	3542
హిళ	3543
ఎందుక	3544
అడు	3545
ీత	3546
ోట	3547
##వంట	3548
టువంట	3549
ెన్సీ	3550
ఉద్య	3551
నస	3552
ౌండ్	3553
ంటి	3554
ఇద్దర	3555
ిమి	3556
సామాజ	3557
ాలపై	3558
ఆస్పత	3559
ీట్	3560
ನ್	3561
ఉత	3562
మంత్ర	3563
ీడ	3564
19	3565
ఉత్ప	3566
ఎన్ట	3567
ార్తల	3568
##టం	3569
పూర్త	3570
##నాల	3571
40	3572
ోయి	3573
రణించ	3574
ాంగ్	3575
నిమిష	3576
ేక్షక	3577
ిరుపత	3578
ఉద్యమ	3579
షే	3580
ెబ్	3581
గ్న	3582
ప్తి	3583
ాస్త	3584
ూహ	3585
ోహి	3586
దిర	3587
గర్	3588
్చి	3589
ోన	3590
మంజ	3591
రస	3592
ెడ	3593
బీఆర్	3594
భవన	3595
వది	3596
కోట	3597
ైమ్	3598
్బ	3599
ుడిగా	3600
వసాయ	3601
యువక	3602
ఫ్ట్	3603
ూర్త	3604
ెట	3605
లేఖ	3606
ఖాన్	3607
ళి	3608
ీతా	3609
ుమ్మ	3610
ైళ్ల	3611
ముర	3612
అవసరమ	3613
యూనివ	3614
నిట	3615
వెస్ట	3616
అయింద	3617
్రమాణ	3618
ఠా	3619
క్కడే	3620
బండి	3621
ేత	3622
న్డ	3623
లంక	3624
సృష్ట	3625
ముగి	3626
ేసుక	3627
ముగిస	3628
ఖీ	3629
రం	3630
##ha	3631
ాటక	3632
సుల	3633
ాక్ష	3634
ేగ	3635
ష్ణ	3636
వివాహ	3637
ిత్	3638
ఎన్నో	3639
వికె	3640
ేని	3641
వేత్త	3642
అంశాల	3643
ర్వీస	3644
్గురు	3645
ఈవ	3646
ేసి	3647
మరిక	3648
నాలుగ	3649
ాహ్నం	3650
సీజ	3651
క్రిత	3652
్యాయం	3653
చోట్ల	3654
గౌరవ	3655
ప్పుల	3656
ద్దేశ	3657
కస్ట	3658
ముందే	3659
ేలియా	3660
##భాగ	3661
యాదవ్	3662
ందిర	3663
గ్రహం	3664
వదిల	3665
దన	3666
ోటో	3667
తనను	3668
బొ	3669
మహారా	3670
ంతర	3671
సీబీఐ	3672
ఓటర్ల	3673
విభాగ	3674
తుర	3675
గుండె	3676
సంచలన	3677
ారంట	3678
స్టా	3679
డ్యూ	3680
ల్లా	3681
కారణమ	3682
పరే	3683
##రుప	3684
సమర్ప	3685
ఆధ్వర	3686
స్తు	3687
ందుల	3688
ఆన	3689
గ్ల	3690
ాండ్	3691
కారు	3692
ైడ్	3693
గురి	3694
ెడ్డి	3695
నర్స	3696
చర	3697
ిప్ప	3698
ేణ	3699
ాలనుక	3700
ారాల	3701
దాట	3702
ోహిత్	3703
ాఫ్	3704
ీమా	3705
ಿದ	3706
మోస	3707
ిడెంట	3708
ఖాతా	3709
ఏంట	3710
హౌ	3711
ఇచ్చే	3712
తప్పు	3713
ఆనంద	3714
ుట	3715
ತ್	3716
ిపల్	3717
ఊర	3718
గద	3719
ముద్ర	3720
ద్భ	3721
సెంట	3722
మ్మక	3723
నాయుడ	3724
్చుక	3725
ఎవరు	3726
శే	3727
తెచ్చ	3728
సంప	3729
ర్థం	3730
మిషన	3731
డ్డుక	3732
ాఠశాల	3733
అమిత్	3734
మిషనర	3735
ైతే	3736
ొద్	3737
ారంభం	3738
ిణీ	3739
ారణాల	3740
హిళలు	3741
శ్వ	3742
ాకు	3743
##కాల	3744
##ఖర	3745
ొడవ	3746
ల్క	3747
మిగి	3748
ొద్ది	3749
మిగిల	3750
ాగా	3751
విభ	3752
సమాధ	3753
శాస్త	3754
సోద	3755
గొట్ట	3756
ాలంట	3757
వాహన	3758
ాఫీ	3759
లమ	3760
బృంద	3761
ుమారు	3762
నాల	3763
##یا	3764
ష్ట్ర	3765
దీప్	3766
ాహనాల	3767
వని	3768
్రో	3769
స్క	3770
్తా	3771
త్రి	3772
నోటీస	3773
వాయి	3774
పోత	3775
సంఘటన	3776
అగ్ర	3777
ిద్ర	3778
ట్రో	3779
పక్కన	3780
ఒత్తి	3781
ట్టుక	3782
21	3783
పల	3784
ువు	3785
ొద్ద	3786
్త్	3787
స్నే	3788
ోర్డు	3789
లభించ	3790
జు	3791
సాద్	3792
న్నై	3793
భాష	3794
సింహ	3795
ఏడు	3796
ంగ్ల	3797
రచ	3798
కోహ	3799
డిజ	3800
ఆమోద	3801
ధ్వ	3802
రికీ	3803
అర్హ	3804
సక	3805
స్థాన	3806
ావతి	3807
మాటల	3808
చంప	3809
రూప	3810
గూడ	3811
మద్యం	3812
దుల	3813
ొక	3814
కాన్	3815
ుడ్	3816
షాప	3817
యంత్ర	3818
న్షన్	3819
్రీన్	3820
వరూ	3821
నుక	3822
టిల్	3823
ిరంగ	3824
సీజన్	3825
శేఖర	3826
టర్	3827
పున	3828
జేస	3829
ఇంజ	3830
ెయ్య	3831
లబ	3832
ల్ట	3833
ర్సి	3834
ెన	3835
ుతాయి	3836
నిఫ	3837
్రహ	3838
సేవ	3839
ాయపడ	3840
ెగా	3841
ెల్ల	3842
గ్రే	3843
గిన	3844
ాశ	3845
ర్బ	3846
్యాంగ	3847
పడ్డ	3848
సిస్ట	3849
ైస్	3850
మణి	3851
రిణ	3852
ామీల	3853
మ్యా	3854
రుత	3855
మేక	3856
్యాధ	3857
ైర	3858
నిప	3859
్టేట్	3860
జరుప	3861
డ్జ	3862
్మీ	3863
ద్ర	3864
ాంప	3865
శాంతి	3866
ర్యా	3867
డుస్త	3868
ద్వ	3869
గ్రా	3870
re	3871
ౌర	3872
చేప	3873
లింగ	3874
అడిగ	3875
శంకర్	3876
ార్డు	3877
క్రీ	3878
క్కుల	3879
ళా	3880
ుకొ	3881
కడ	3882
ేల్	3883
వార్త	3884
ుట్ట	3885
పర్యట	3886
అప్	3887
ీలు	3888
పట	3889
ొడు	3890
ోచ	3891
కర్న	3892
లియన్	3893
స్తుత	3894
రింగ్	3895
ోర్స్	3896
టెడ్	3897
ోలీసు	3898
ొడుకు	3899
ునర	3900
హన	3901
మున	3902
ంతకు	3903
ిస్ట్	3904
మల్	3905
ించడం	3906
ఆగ	3907
టరీ	3908
రియ	3909
ధీన	3910
షేర్	3911
ష్యా	3912
ేటీ	3913
మేం	3914
ఎగ	3915
ీక్	3916
నిన్న	3917
నామిన	3918
ాణి	3919
న్నా	3920
ఫిక్	3921
ెయిన్	3922
రిలో	3923
ిపించ	3924
ాదించ	3925
నెట్	3926
మాజ	3927
సెల్	3928
రేట	3929
ాళీ	3930
రావడం	3931
ుంటూ	3932
శ్చి	3933
ప్యా	3934
విప	3935
ఖర	3936
ాదన	3937
ినె	3938
ల్లె	3939
ూలు	3940
వేసి	3941
నన్న	3942
ఖండ	3943
రైన	3944
కూర్చ	3945
రవి	3946
సాగు	3947
గుడ	3948
ہے	3949
ర్ప	3950
##మత	3951
##ణయ	3952
మ్ము	3953
ిర్ణయ	3954
##ور	3955
ంచర	3956
జో	3957
బై	3958
మౌ	3959
ిరం	3960
దేవి	3961
టమ	3962
దీప	3963
ాయం	3964
న్నిక	3965
ిపోవ	3966
కృష	3967
రీం	3968
వెన	3969
మొత్త	3970
్సరం	3971
ఫై	3972
యాక్ట	3973
రన్	3974
బ్రా	3975
ణకు	3976
పార	3977
ెంగ	3978
కేత	3979
డాక	3980
ణ్	3981
లిగ	3982
్వాన	3983
మత	3984
ెలి	3985
్తవ	3986
ంతు	3987
నిబంధ	3988
్యార	3989
దాన్న	3990
కులు	3991
షో	3992
ెర్	3993
నిచ్చ	3994
స్త్ర	3995
కప్ప	3996
కింగ్	3997
చూసి	3998
సున	3999
ఐపీఎ	4000
ంగ్లా	4001
నిక	4002
కేసుల	4003
పంట	4004
కలిస	4005
ోంద	4006
వ్వు	4007
##an	4008
ేమ్	4009
కోస	4010
ముస	4011
మిట	4012
తని	4013
మర్	4014
రాత్ర	4015
ీపీ	4016
్మి	4017
తోనే	4018
త్క	4019
ర్సిట	4020
రజ	4021
ంట్స్	4022
ింత	4023
డ్రా	4024
ాటా	4025
ుకొని	4026
ుట్	4027
డ్ల	4028
ీటు	4029
ఫైనల్	4030
ంగుల	4031
ుడిని	4032
థకాల	4033
ితి	4034
ుప్ప	4035
ాద్ర	4036
దుక	4037
ుస	4038
ొస	4039
ప్పగ	4040
ుకునే	4041
మరణ	4042
ాస్ప	4043
కాని	4044
పాన్	4045
డేట	4046
పం	4047
శ్	4048
ియన్	4049
ిద్దర	4050
లిక్	4051
లుక	4052
హబ	4053
దిశ	4054
ట్లో	4055
సెట	4056
క్కో	4057
లుప	4058
ిపి	4059
ామా	4060
్లాక	4061
యన్	4062
28	4063
్రవర	4064
ర్చల	4065
హరి	4066
లాగ	4067
త్తున	4068
ిజి	4069
నట	4070
మొదట	4071
్ఫ	4072
్రీవ	4073
కార	4074
డుగుల	4075
ార్థి	4076
ఒక్కర	4077
అనుమత	4078
టమి	4079
బాద్	4080
వీల	4081
ాలిక	4082
ట్టాల	4083
వృద్ధ	4084
ండ్ర	4085
ివ్	4086
ార్ల	4087
దాయం	4088
్రెస్	4089
వణ	4090
ుర్	4091
్టూ	4092
దో	4093
ెస్టు	4094
ీకరణ	4095
23	4096
కేజ	4097
్సె	4098
ోటి	4099
రంగం	4100
ఘా	4101
ాలా	4102
నిష	4103
దివ	4104
చ్చుక	4105
టగా	4106
కాయ	4107
మాస్	4108
దుర్	4109
థన	4110
్రిక్	4111
పరిమ	4112
ోవడం	4113
ద్దీ	4114
100	4115
్లిక్	4116
సాగుత	4117
డింది	4118
ాత	4119
##ad	4120
సేన	4121
్వరలో	4122
ర్క్	4123
ూరి	4124
గీ	4125
ోస్	4126
ండియా	4127
రళ	4128
్లోకి	4129
కాలు	4130
ేటు	4131
్యర్	4132
మ్మి	4133
హిం	4134
27	4135
ణు	4136
సమయ	4137
మెర	4138
ండర్	4139
రాత్	4140
వెన్	4141
తీయ	4142
ుడే	4143
ఎప్ప	4144
టాని	4145
పదే	4146
ాక్ట	4147
ిడి	4148
ిరి	4149
ర్ద	4150
ెప	4151
క్ష్మ	4152
టార్	4153
ఫీస	4154
##ar	4155
ాంక	4156
ేజ	4157
్రణ	4158
అవి	4159
ీకు	4160
మెజ	4161
గోప	4162
al	4163
సిక	4164
ఎడ	4165
ేడి	4166
ఆప	4167
హణ	4168
నల్ల	4169
నుమతి	4170
కంట	4171
్రిట	4172
26	4173
సైన	4174
వేత	4175
ఇచ్చి	4176
ల్వ	4177
తేడా	4178
జెండ	4179
టన్	4180
ోనా	4181
ాల్గ	4182
్రికి	4183
ులై	4184
యిన	4185
ీకే	4186
షల్	4187
ాలతో	4188
కాంత	4189
ఎదుర	4190
ఆయా	4191
ీవీ	4192
టీడీ	4193
ప్ట	4194
షనల్	4195
అద	4196
ేబ	4197
ఇవి	4198
ుందో	4199
నొ	4200
ెప్ప	4201
ేసిన	4202
ఇప్పట	4203
రణం	4204
ాణాల	4205
ఎండ	4206
ృత	4207
ెహ	4208
ంచాయ	4209
ూడె	4210
యాప్	4211
ికల	4212
సత్య	4213
సెక	4214
స్పె	4215
తెర	4216
ర్ట్	4217
అడ్	4218
ూస	4219
్టి	4220
ra	4221
ప్రవ	4222
వించ	4223
ాళ్ల	4224
ికర	4225
జేశ	4226
##ار	4227
ల్డ	4228
జల	4229
اس	4230
వహ	4231
విత	4232
ుందా	4233
ంటలు	4234
స్సు	4235
ులా	4236
స్టీ	4237
యూట్	4238
ెక్ట్	4239
పర	4240
్సు	4241
అందరి	4242
ంగీ	4243
ాగ్	4244
్యారె	4245
వల్	4246
ప్పి	4247
ఎలక్	4248
బంగ	4249
చల్	4250
సన్న	4251
ును	4252
ికె	4253
య్యి	4254
అల్ల	4255
ాగు	4256
్లై	4257
ూడెం	4258
తిక	4259
ాతో	4260
ూక	4261
ోల్	4262
నిమ	4263
లవు	4264
ల్గ	4265
ుగుత	4266
దేశం	4267
పొడ	4268
గల్	4269
సత్	4270
ాసం	4271
ూట్	4272
ింక	4273
రేపు	4274
అడుగు	4275
ాజి	4276
డాల	4277
లక్	4278
మీర్	4279
ణి	4280
పడి	4281
లోప	4282
లర	4283
్రెస	4284
ంటీ	4285
డవ	4286
ారిలో	4287
జీవి	4288
ుబా	4289
షియ	4290
హక్	4291
ాగర్	4292
్లాస	4293
చర్	4294
చెక్	4295
రిశ	4296
్యాక్	4297
మంత	4298
వగా	4299
స్స	4300
వెంట	4301
ిమానా	4302
60	4303
కండ	4304
ధర్	4305
ేటా	4306
దాం	4307
టిస్త	4308
రేణ	4309
పీఎస్	4310
భిస్త	4311
గుల	4312
పుల్	4313
తాజా	4314
ారంభమ	4315
్లిం	4316
లిపి	4317
ిద్ధ	4318
ువన	4319
ెట్ర	4320
జమ	4321
డల్	4322
ాథ	4323
ుధ	4324
సిడ	4325
మిన	4326
సమ్మ	4327
కరించ	4328
జయ	4329
ీకి	4330
క్స	4331
ందల	4332
کو	4333
వడ	4334
ర్భ	4335
లివ	4336
టిక్	4337
తుల	4338
సత	4339
లువ	4340
ای	4341
పోర్ట	4342
్వుల	4343
ఇరు	4344
పంచ	4345
స్పీ	4346
లిక	4347
హార్	4348
ికెట్	4349
ుద్ర	4350
మామ	4351
ికా	4352
బంగార	4353
ాశ్	4354
ామాల	4355
రప	4356
లవ	4357
ెక్ష	4358
మ్యూ	4359
ొబ	4360
లుగ	4361
ిగ్	4362
ండా	4363
జనం	4364
ీరు	4365
యాం	4366
ఎంస	4367
పాల్	4368
్యాయ	4369
రికా	4370
31	4371
ుదల	4372
వరం	4373
డెంట్	4374
ికులు	4375
డివ	4376
్వే	4377
టోర	4378
్సెస్	4379
మన్న	4380
ేము	4381
ాజ్	4382
క్షే	4383
ూన్	4384
##la	4385
ిద్ధం	4386
ాఖ్య	4387
ుణ్	4388
ప్రమ	4389
29	4390
ెండ్	4391
ధ్య	4392
కార్	4393
ెండ	4394
స్క్	4395
ీవో	4396
ఆట	4397
విల	4398
కొన్న	4399
ట్యా	4400
నకు	4401
ోసం	4402
ఇష్ట	4403
ిస్ట	4404
ాల్గొ	4405
చర్యల	4406
స్ల	4407
తారు	4408
చోట	4409
ان	4410
టూర	4411
నమ	4412
ియం	4413
ిక్స	4414
ర్హ	4415
క్కి	4416
్యాన్	4417
దుర	4418
##ేస	4419
నారా	4420
్శ	4421
ంటారు	4422
ంజ్	4423
پر	4424
రస్	4425
ైట	4426
##ائ	4427
పోట	4428
నెలకొ	4429
ెట్రో	4430
ులుగా	4431
సార్	4432
ాంగ	4433
ించగా	4434
ోగ్ర	4435
ప్రాణ	4436
ికుల	4437
గ్గు	4438
యక్	4439
్తి	4440
ిగి	4441
ీటర్ల	4442
నిస	4443
ెక్స	4444
in	4445
ోజ	4446
కాశ	4447
ాము	4448
ంటల	4449
క్షణ	4450
డత	4451
ేదన	4452
సల	4453
లిస్ట	4454
ర్యాల	4455
నార్	4456
ందా	4457
త్తా	4458
్పుల	4459
ెంప	4460
డిగ	4461
గుడ్	4462
ట్రోల	4463
ుతారు	4464
హక్కు	4465
ుగు	4466
ఉండటం	4467
యాన్	4468
బడి	4469
యిత	4470
ెస	4471
##er	4472
సర్వ	4473
బిల్	4474
ీస	4475
త్తుల	4476
ుకుప	4477
భయ	4478
ేచ	4479
గ్స్	4480
్టిస్	4481
యాలు	4482
నిన	4483
కాస	4484
రిస	4485
ఫార	4486
ైడ	4487
త్రిక	4488
గ్గ	4489
తుక	4490
ోబ	4491
పిల	4492
నెట	4493
کا	4494
ాభా	4495
ుది	4496
ికీ	4497
నప	4498
్నీ	4499
కాక	4500
రిటీ	4501
నాని	4502
జస	4503
్యాప్	4504
త్తమ	4505
చంద	4506
తలు	4507
ూప	4508
పెడ	4509
ల్యా	4510
ాటి	4511
డల	4512
తార	4513
బే	4514
రంగా	4515
వేర	4516
ంగు	4517
లక	4518
ప్రో	4519
పెన్	4520
ాజీ	4521
మ్స్	4522
రహా	4523
کر	4524
విష్	4525
రగతి	4526
రాన్	4527
శ్రా	4528
సద	4529
జాన	4530
ూల్	4531
##ra	4532
రిచ	4533
ాటర్	4534
తద	4535
ేరే	4536
వాణ	4537
డెన్	4538
యలు	4539
ట్లే	4540
హార	4541
మాచార	4542
పేర	4543
పాటి	4544
కాల్	4545
రక్త	4546
వసర	4547
మంద	4548
పడిన	4549
ిష్కర	4550
దార	4551
మీర	4552
సభల	4553
రఫ	4554
ెండి	4555
చ్చి	4556
ిల్స్	4557
వర్త	4558
##on	4559
ీజ్	4560
ళ్లు	4561
ీశ	4562
పాక్	4563
కపోయ	4564
ిస్టు	4565
విష్య	4566
ిత్య	4567
ోడు	4568
దృ	4569
నది	4570
వంద	4571
ిద్ద	4572
ైస	4573
ొమ్మ	4574
రాక	4575
మాకు	4576
్తీ	4577
ఫెస	4578
గాలి	4579
వర్క	4580
ిమ్	4581
ులి	4582
ట్రీ	4583
ఓట	4584
డితే	4585
డుగు	4586
దూర	4587
చదువు	4588
లాల	4589
త్సవ	4590
తాయి	4591
టాక్	4592
టల్	4593
బియ	4594
బంధు	4595
డియన్	4596
కాళ	4597
లుల	4598
ింద్	4599
ఇద	4600
రాబ	4601
అంతర	4602
బోయ	4603
ధి	4604
ీణ	4605
##ان	4606
త్రాల	4607
ెళ	4608
ెంబ	4609
రాట	4610
క్స్	4611
కమ	4612
పుణ	4613
్యూజ	4614
ర్తీ	4615
ాఖ్యల	4616
పరా	4617
ర్జీ	4618
ిల్లీ	4619
ైత	4620
న్నది	4621
ండింగ	4622
##భావ	4623
రవీ	4624
ెటర్	4625
్రభావ	4626
యల్	4627
హ్మ	4628
ువా	4629
వెల్	4630
కొన	4631
ాణాలు	4632
దక్	4633
ాతి	4634
ులపై	4635
ుకుంద	4636
జిల	4637
్యుల	4638
్లె	4639
ధు	4640
దల	4641
an	4642
ేర్	4643
రేజ	4644
పక	4645
ెలవ	4646
రీస	4647
న్వ	4648
ఆర్ఎ	4649
అర్థ	4650
ివ	4651
డిపోయ	4652
ల్లే	4653
ఇస	4654
కల్	4655
రంట	4656
ఛా	4657
ేవు	4658
ాలక	4659
్రదేశ	4660
రాధ	4661
కన్	4662
తక	4663
ీవ్	4664
్యర్థ	4665
కోల్	4666
గీత	4667
రిశీల	4668
సుక	4669
ీష	4670
మార్	4671
చక్	4672
ఫా	4673
ఎత్తు	4674
రివ	4675
డీఎ	4676
రిజ	4677
ందర్భ	4678
ఆసక్త	4679
نے	4680
బోర్	4681
ిషి	4682
లేష	4683
ాన్య	4684
ూసుక	4685
ేవార	4686
దున	4687
గజ	4688
ాడి	4689
##یڈ	4690
కెన	4691
బంత	4692
వెల	4693
ుకా	4694
ిపాల	4695
ిథ	4696
ీట	4697
ెం	4698
మాద	4699
స్టార	4700
ిపై	4701
లప	4702
ముల	4703
ోయే	4704
డో	4705
##యాల	4706
రోసా	4707
ిషయాల	4708
త్యా	4709
ట్నం	4710
ేడ్	4711
ాష	4712
్ధి	4713
రులో	4714
్లోనే	4715
జడ	4716
రని	4717
శ్య	4718
ేన	4719
మాన్	4720
కొల	4721
##లిచి	4722
ూన	4723
రిహ	4724
ఆర్ట	4725
గిత	4726
ణం	4727
ట్టడ	4728
ుబాటు	4729
ఏసీ	4730
తడి	4731
యపడ	4732
ేరి	4733
మక	4734
ీఏ	4735
డంలో	4736
ందే	4737
ానిక	4738
అడ్డ	4739
డప	4740
లాల్	4741
లుగా	4742
నేది	4743
సూర	4744
ాకర్	4745
ti	4746
ఆశ్	4747
ధార	4748
ప్రశ	4749
రిగా	4750
ంబర	4751
రమైన	4752
అటు	4753
బర	4754
ోజన	4755
##ال	4756
ఫీసర్	4757
ర్స	4758
సంస్	4759
ాత్రల	4760
కబ	4761
ాలె	4762
న్నర	4763
ితీ	4764
దరి	4765
నివార	4766
ర్తి	4767
స్తా	4768
ండగా	4769
క్షం	4770
ఏదో	4771
అడ	4772
త్తం	4773
ాపు	4774
ిగ్గ	4775
ోయారు	4776
టివ్	4777
ిగారు	4778
అబ	4779
టెం	4780
na	4781
అశ	4782
రొ	4783
ావర	4784
ిత్ర	4785
గ్గా	4786
డిపి	4787
వహించ	4788
ప్రీ	4789
రారు	4790
ెన్న	4791
ావు	4792
ాకర	4793
ియర్	4794
سے	4795
మాల	4796
లవా	4797
ోక్	4798
కలిగి	4799
ిచ్	4800
స్టే	4801
ౌత	4802
కుం	4803
వంతం	4804
్శించ	4805
ాష్	4806
్ద	4807
ారంలో	4808
ంటర్	4809
టవ	4810
యజ	4811
్వి	4812
vi	4813
ీగా	4814
్మాన	4815
ికంగా	4816
ోర్స	4817
అమల	4818
యే	4819
రాల	4820
అల్	4821
ఎక్క	4822
పత	4823
ుతు	4824
డింగ్	4825
కరం	4826
ీఎ	4827
ీతం	4828
కట్	4829
నాట	4830
ిపక్ష	4831
ైక	4832
అనంత	4833
ఆదాయ	4834
ఇం	4835
చార	4836
యంత	4837
ీఎం	4838
70	4839
పుత	4840
హారం	4841
ానా	4842
ిక్ష	4843
్యవ	4844
ంక్	4845
ార్క్	4846
్రేక్	4847
ోలో	4848
ర్డ్	4849
ల్ని	4850
డాది	4851
అంగ	4852
రత	4853
వంట	4854
ాయు	4855
ాడ్	4856
ొట్ట	4857
ాలయం	4858
కారుల	4859
్యూట	4860
గ్రీ	4861
అధి	4862
వన	4863
ివి	4864
నిల్	4865
యిల్	4866
ాన్స	4867
కలక	4868
యన్న	4869
##th	4870
పోవ	4871
ఆర్డ	4872
యోగం	4873
నగా	4874
తూర	4875
ీళ్ల	4876
సంక	4877
యాల	4878
యటి	4879
పార్ట	4880
్ను	4881
స్కూ	4882
సాం	4883
పిల్ల	4884
పౌ	4885
షు	4886
డిచ	4887
యింది	4888
ైవ	4889
ైకి	4890
్పీ	4891
లియా	4892
ిధుల	4893
పబ	4894
ితుల	4895
వాట	4896
న్నం	4897
నియర్	4898
te	4899
ిరా	4900
##یو	4901
రిల	4902
వాడు	4903
శని	4904
80	4905
ావా	4906
ూత్	4907
లేట	4908
ంచు	4909
క్య	4910
ముక	4911
ోని	4912
తామ	4913
నీల	4914
ుఖ	4915
ండల	4916
లెట్	4917
సుప	4918
పడే	4919
న్యం	4920
ైం	4921
ొమ	4922
మించ	4923
ిహ	4924
ట్స్	4925
ణ్య	4926
లుత	4927
పట్టు	4928
ీప్	4929
ైంద	4930
గిల	4931
##యక	4932
ంతి	4933
విశ్	4934
గే	4935
రట	4936
ూబ్	4937
ార్యక	4938
ాయమ	4939
35	4940
ెమ	4941
ెట్టి	4942
సగ	4943
ుపుత	4944
ెల్లడ	4945
తృ	4946
తరుల	4947
ారే	4948
జామ	4949
్రస్త	4950
నాన్	4951
వ్యూ	4952
కాలన	4953
کہ	4954
##so	4955
చివ	4956
ోలే	4957
ాభ	4958
ుపా	4959
ెట్ల	4960
ఎన	4961
పన్న	4962
లూ	4963
ైద	4964
రిత	4965
ొత్తగ	4966
మెట	4967
జమాన	4968
ావించ	4969
రెడ్	4970
రీత	4971
ేపు	4972
లాప	4973
వాలంట	4974
పట్	4975
సవ	4976
నెల్	4977
చదువ	4978
త్తల	4979
్యాట	4980
త్తగా	4981
ీప	4982
ాయిల	4983
also	4984
దన్న	4985
దుప	4986
జార్	4987
ప్రె	4988
ార్డ్	4989
క్త	4990
అవిన	4991
మూల	4992
సరా	4993
ినే	4994
బాగ	4995
ారిన	4996
read	4997
ంత్	4998
గతం	4999
లోన	5000
బ్రి	5001
200	5002
ఎవరి	5003
భర	5004
ిండి	5005
స్మా	5006
రుపు	5007
ఓప	5008
ృతి	5009
##ri	5010
##ెన	5011
నుంద	5012
్వాల	5013
ఓపెన	5014
గన్	5015
ెలిచి	5016
ులే	5017
లింగ్	5018
ీసీసీ	5019
45	5020
గంగ	5021
పణ	5022
రిస్	5023
ుతో	5024
ుమతి	5025
ఏమీ	5026
యంగా	5027
ింగ	5028
రుస్త	5029
ہو	5030
ణన	5031
చెన్న	5032
లాగే	5033
ట్టల	5034
ోం	5035
##ూప	5036
రాహ	5037
ోస	5038
మావ	5039
లాండ్	5040
పిల్	5041
ేణు	5042
ెళ్త	5043
اور	5044
సన	5045
ోళ	5046
సిర	5047
ీలోని	5048
మరీ	5049
్టీ	5050
క్కా	5051
ందం	5052
్వల	5053
దుబ	5054
దులు	5055
రుచ	5056
sh	5057
దర్	5058
ెల్లి	5059
ులుగ	5060
చేయడ	5061
శారు	5062
గ్రూప	5063
వరణ	5064
ంజన	5065
భాస	5066
పంలో	5067
షీ	5068
ితం	5069
ేవి	5070
పాడ	5071
సాహ	5072
నీట	5073
హర్	5074
ాఖల	5075
ాదం	5076
లన్న	5077
శాల	5078
్ట్	5079
్వక	5080
ాస్క	5081
ిగిప	5082
ఏడ	5083
్పా	5084
డగ	5085
శాత	5086
పట్న	5087
ుభ	5088
ప్రచ	5089
క్రె	5090
రుక	5091
క్వా	5092
కెట్	5093
్రీల	5094
రద	5095
రార	5096
వత	5097
సాల	5098
మాయ	5099
వాన	5100
వాన్	5101
ిసే	5102
్రసా	5103
ోపి	5104
పాఠ	5105
థా	5106
మధ	5107
ీతి	5108
మూర	5109
ఇంద	5110
భవి	5111
యె	5112
కిన	5113
ండీ	5114
పాలు	5115
్రసాద	5116
کیا	5117
90	5118
ణాలు	5119
తీసి	5120
హ్	5121
్యత్	5122
మాండ్	5123
ికే	5124
కోడ	5125
ట్టే	5126
ిమాండ	5127
భవిష	5128
డార	5129
ొట్టి	5130
మార్క	5131
ంగానే	5132
ూడి	5133
ెలుసు	5134
ప్రెస	5135
ఆస్త	5136
ేసే	5137
ుబడి	5138
తిరిగ	5139
ుపర	5140
కుంటే	5141
ంగంలో	5142
ఏట	5143
ణాల	5144
ట్రే	5145
త్రం	5146
co	5147
ఎమ	5148
లయ	5149
సర్క	5150
నికి	5151
ాచార	5152
ట్రాక	5153
ండు	5154
ఉమ	5155
గతి	5156
వం	5157
ావి	5158
విస	5159
ిసిన	5160
ఎద	5161
ెట్టు	5162
కాప	5163
షన్స్	5164
రత్	5165
ైర్మ	5166
్జ	5167
##ھا	5168
ప్పల	5169
నపై	5170
ివార	5171
ామెంట	5172
తత	5173
ానే	5174
్యాస	5175
ిన్స	5176
శీ	5177
హాల	5178
రాయి	5179
ర్శ	5180
డిస్	5181
్సా	5182
లింప	5183
ఏటా	5184
ఉత్	5185
రౌ	5186
ేలు	5187
బీఐ	5188
్లీలో	5189
దన్	5190
మంట	5191
డియో	5192
ోయిన	5193
ఇందు	5194
మస	5195
విరా	5196
లేర	5197
పాక	5198
లీక	5199
ిలిం	5200
మగ	5201
ీఎస్	5202
ౌండ	5203
##in	5204
రుమ	5205
ిచి	5206
థి	5207
ేవ	5208
ంటర	5209
ెక్స్	5210
పారి	5211
ేం	5212
వాళ	5213
వీడ	5214
ీరా	5215
కోవ	5216
ంచార	5217
హు	5218
దించ	5219
దిరి	5220
ేపట	5221
యంతో	5222
##గ్	5223
కొందర	5224
దార్	5225
బాద	5226
ంజా	5227
ష్టం	5228
##al	5229
జెన్స	5230
హోం	5231
కత	5232
బస	5233
యూని	5234
అందర	5235
ఘటనల	5236
బంధం	5237
్నాన	5238
ایک	5239
ెంబర	5240
ిలా	5241
రుద	5242
్లూ	5243
శ్వర	5244
##లే	5245
టీటీ	5246
లిత	5247
తరలి	5248
ావరణ	5249
ేక	5250
ోగుల	5251
ికారు	5252
చని	5253
్రత	5254
యస్	5255
ారిప	5256
పొర	5257
హాయ	5258
లిట	5259
వర్స	5260
ఎక్స	5261
జన్	5262
తడ	5263
ూబ	5264
ేఖ	5265
ోవా	5266
##ئے	5267
ర్డుల	5268
రువ	5269
ెలుస	5270
ిలియ	5271
కలు	5272
మాస	5273
ద్వార	5274
ుట్టు	5275
నీర	5276
యింట	5277
ీద	5278
ెచ్చ	5279
##ام	5280
చిల	5281
డుపు	5282
బోర్డ	5283
ైప	5284
శిల	5285
ెగ్	5286
ాశాల	5287
ండగ	5288
ితమ	5289
కరమ	5290
చర్ల	5291
ిటి	5292
్జా	5293
ంగి	5294
్షణ	5295
ne	5296
ఈసీ	5297
చిక	5298
మించి	5299
ాగి	5300
న్నార	5301
ాఖ	5302
ైమ	5303
్ది	5304
రోల్	5305
రుతు	5306
ుం	5307
ాడుక	5308
500	5309
కటి	5310
టాన్	5311
రిపో	5312
ాయా	5313
జనాల	5314
్వాత	5315
లన్నీ	5316
ఇటు	5317
దిలా	5318
##نے	5319
స్సా	5320
డిక	5321
ుంచ	5322
రాణ	5323
ామం	5324
రుస	5325
ిశ్ర	5326
ూసి	5327
న్ష	5328
క్తం	5329
కొని	5330
కలె	5331
గిర	5332
ాకపో	5333
గాల	5334
ుస్	5335
్యాలు	5336
చూస్త	5337
మిని	5338
ేశా	5339
ారీగా	5340
నరు	5341
నలో	5342
ోట్ల	5343
తిష్	5344
కరు	5345
కాం	5346
ోర్ట్	5347
మ్య	5348
ౌక	5349
చేశా	5350
శ్రమ	5351
యితే	5352
ుకోవడ	5353
చనిపో	5354
బంగా	5355
##لی	5356
ాలుగా	5357
##یڈیو	5358
లత	5359
nd	5360
ికలు	5361
త్న	5362
్లిక	5363
అజ	5364
ఆర	5365
ితు	5366
ౌడ	5367
రామా	5368
ముడ	5369
రుగ	5370
ాజమ	5371
ویڈیو	5372
##وی	5373
్లే	5374
କର	5375
పుల	5376
హస	5377
పెండ	5378
నాన్న	5379
మెద	5380
ిగించ	5381
అక్క	5382
ేసింద	5383
tt	5384
ాత్	5385
ందుత	5386
రణి	5387
కప్పు	5388
ెసి	5389
##ئی	5390
మైంద	5391
ణల	5392
బండ	5393
యింద	5394
అడుగ	5395
ండ్రి	5396
ుళ	5397
ొగ	5398
వాలని	5399
ma	5400
##ات	5401
ల్ద	5402
ిజం	5403
ంకర్	5404
నాల్	5405
మాం	5406
దారు	5407
జైల	5408
గార	5409
తప	5410
కిష	5411
టైం	5412
వంగ	5413
సీస	5414
శో	5415
యూజ	5416
گیا	5417
ుల్ల	5418
ంపు	5419
కొచ్చ	5420
ీలను	5421
తక్క	5422
రంజ	5423
ర్వా	5424
సిస్	5425
ాబట్ట	5426
లోనూ	5427
75	5428
టల	5429
ిపోయి	5430
""	5431
یہ	5432
గట్ట	5433
పత్తి	5434
బంద	5435
##్యం	5436
నుండ	5437
రుగు	5438
సెల	5439
ిష్య	5440
ుమత	5441
అన్	5442
రపు	5443
కొం	5444
కడప	5445
మీట	5446
ళ్లలో	5447
ేయర	5448
وں	5449
రికల	5450
go	5451
బాట	5452
చిన్	5453
కాలే	5454
ాన్న	5455
డీల	5456
టిల	5457
పత్ర	5458
భక్త	5459
మాల్	5460
##sh	5461
కుడు	5462
పోస	5463
చివర	5464
రంభ	5465
##ps	5466
ందరి	5467
వత్	5468
ౌల	5469
ట్టం	5470
ంద్	5471
భో	5472
వడం	5473
ీఫ్	5474
క్రా	5475
క్రి	5476
పిం	5477
్రిల్	5478
pa	5479
ష్క	5480
లాస	5481
తాయ	5482
ద్దని	5483
స్థా	5484
కెర	5485
ాళ్లు	5486
మర్శ	5487
శం	5488
పైగా	5489
ేర్చ	5490
##ری	5491
మాని	5492
ుతాయ	5493
ట్రి	5494
్టాల	5495
న్లు	5496
36	5497
ఖాన	5498
గవ	5499
డట	5500
ీదు	5501
ురించ	5502
టిస్	5503
పశ	5504
ెజ	5505
ోగా	5506
వేట	5507
డిగి	5508
కరాల	5509
చైర్	5510
జిల్	5511
వలన	5512
్దేశ	5513
వేర్	5514
ల్లుల	5515
మిస్	5516
డ్డు	5517
ాహి	5518
్గుర	5519
్వేష	5520
హం	5521
స్కా	5522
రిమ	5523
ానిస	5524
కై	5525
షి	5526
్కా	5527
నాం	5528
రుడు	5529
మిల	5530
##ھی	5531
రాని	5532
ేజీల	5533
జల్	5534
లూర	5535
ృత్	5536
##le	5537
వితం	5538
ہیں	5539
రబ	5540
లికి	5541
ాంట	5542
్రవ	5543
ర్లలో	5544
ఐద	5545
ాక్స్	5546
ఆటో	5547
రష్	5548
##لا	5549
నుల	5550
స్కర	5551
కొద్ద	5552
ట్లను	5553
్బం	5554
ల్యాణ	5555
గట	5556
జం	5557
ురు	5558
##st	5559
కొర	5560
రికి	5561
ోటు	5562
##జక	5563
ంచి	5564
ంధ్ర	5565
గం	5566
ివర్	5567
ఆరా	5568
డ్య	5569
టిఫ	5570
ర్లను	5571
సైట	5572
ిలిప	5573
##చేస	5574
నిచేస	5575
పోయి	5576
్యాక	5577
ుకల	5578
ూమ	5579
పాలి	5580
మిర	5581
మైనా	5582
అప్పు	5583
ుర్తి	5584
అక్	5585
ఫల	5586
్గా	5587
విన్	5588
మీప	5589
డ్డా	5590
ంతక	5591
ాలోని	5592
ాటల	5593
్నల	5594
48	5595
అలీ	5596
లయా	5597
శనం	5598
ుఖ్యం	5599
33	5600
ియోజక	5601
ఇన్న	5602
మద్ద	5603
హే	5604
##de	5605
టుగా	5606
ోషి	5607
300	5608
గళ	5609
డక	5610
దయ	5611
ేయి	5612
ాయకు	5613
ai	5614
టక	5615
బిన	5616
ికార	5617
ోన్ల	5618
హ్యా	5619
ెడు	5620
ందాల	5621
ాడే	5622
్మర	5623
32	5624
జయ్	5625
లన్	5626
కొడ	5627
క్కల	5628
యిస్	5629
తాల	5630
హ్య	5631
##re	5632
వివ	5633
ుక్ర	5634
ఒకట	5635
ంజి	5636
ంలోనే	5637
ఖాత	5638
దరు	5639
దరిక	5640
ధవ	5641
శలు	5642
ీడీ	5643
ృద	5644
##یک	5645
కాశాల	5646
పాయి	5647
వ్వా	5648
పస	5649
పాడు	5650
ోవాలి	5651
మోద	5652
నూర	5653
ఘో	5654
సిల	5655
ాయుడు	5656
ంద్రా	5657
ంహ	5658
దవ	5659
షణ	5660
##ma	5661
ట్లా	5662
పుడు	5663
బీజ	5664
ఘోర	5665
టూ	5666
్లు	5667
కుంట	5668
్రామా	5669
బలం	5670
cha	5671
లబ్	5672
ాయన	5673
ేశాడు	5674
ితులు	5675
బట్ట	5676
్గ	5677
టీం	5678
ండర	5679
ుండటం	5680
బయటప	5681
శ్వాస	5682
42	5683
దైన	5684
దురు	5685
ెంట్ల	5686
ఫోర	5687
ేనని	5688
ుతుంద	5689
కాన	5690
ారాలు	5691
చెం	5692
డిని	5693
సిప	5694
మ్మె	5695
ాదాలు	5696
్నె	5697
దడ	5698
బల్	5699
##di	5700
పెర	5701
చిద	5702
ర్మన	5703
ba	5704
కద	5705
ధ్ర	5706
ేశారు	5707
ంకే	5708
కాశం	5709
పగ	5710
భివృ	5711
మం	5712
లయ్య	5713
వేడ	5714
న్నద	5715
తిన్	5716
ేటర్	5717
గన	5718
డొ	5719
మయ	5720
వకాశ	5721
మాండ	5722
తమ్	5723
డ్స్	5724
యోగాల	5725
్రాస	5726
పవన	5727
ోస్ట్	5728
్ఘ	5729
లున్న	5730
ియాల	5731
ిజ్	5732
ap	5733
శాం	5734
ీజీ	5735
టుకు	5736
జ్ర	5737
్ణ	5738
వైసీ	5739
యిస్త	5740
34	5741
ీఫ	5742
్యమ	5743
లాట	5744
లాన్	5745
ందన	5746
్వాన్	5747
ోపాల	5748
మ్యాచ	5749
37	5750
దగ	5751
ెరిగి	5752
రుకు	5753
ెట్లు	5754
చొ	5755
ోసి	5756
్డ్	5757
##ic	5758
ంకో	5759
ہم	5760
ఆల్	5761
ఔట్	5762
టలో	5763
ిసి	5764
##ga	5765
ری	5766
ంకర	5767
ప్రి	5768
గుప	5769
ంటో	5770
సగం	5771
్యో	5772
రణాల	5773
ుపై	5774
ర్గా	5775
్కీ	5776
్రాన్	5777
ర్లకు	5778
తులు	5779
ేస్తే	5780
బ్లీ	5781
com	5782
وائ	5783
బం	5784
ెవ	5785
##or	5786
లిసి	5787
సెస్	5788
ింహ	5789
ిర్య	5790
రాధా	5791
th	5792
యంగ	5793
రిక్	5794
150	5795
కాలేజ	5796
vs	5797
నవర	5798
మూర్	5799
రీల	5800
త్రా	5801
ిన్నా	5802
పండు	5803
ేస్తా	5804
ణంలో	5805
వీస	5806
గిపోయ	5807
దయా	5808
నప్ప	5809
ిభ	5810
##రుగు	5811
ారించ	5812
రేష	5813
ోగి	5814
రోహ	5815
సుమ	5816
్మల	5817
ెను	5818
స్సుల	5819
ుఖ్	5820
st	5821
కట్టు	5822
చల	5823
లలు	5824
ిలువ	5825
ెరి	5826
ెడ్డ	5827
am	5828
ఏది	5829
తరం	5830
ీసీ	5831
వింద	5832
లాక్	5833
తాడ	5834
క్కర్	5835
పీడ	5836
కెళ్ల	5837
గర	5838
ిధి	5839
ృష	5840
రాద	5841
్తారు	5842
్వీ	5843
లెట	5844
ండ్లు	5845
ుణం	5846
పటి	5847
పీసీ	5848
ేరా	5849
వాయ	5850
ట్రాన	5851
బెల	5852
హద	5853
మెజా	5854
్రాఫ	5855
తున్న	5856
్నాయ	5857
ిలిచ	5858
ుమార	5859
ెబ	5860
##ند	5861
ప్రద	5862
శిక్	5863
tion	5864
ఎక	5865
చుక	5866
రకు	5867
ల్చ	5868
ాడా	5869
ాట్ల	5870
ీనం	5871
ేడ	5872
ొనుగ	5873
ర్డ	5874
మరికొ	5875
ాయకుడ	5876
ొనుగో	5877
గంగా	5878
ినో	5879
్యలో	5880
డుప	5881
కట	5882
భయం	5883
ీటీ	5884
ొట	5885
పాస	5886
ధిలో	5887
జంట	5888
ీటర	5889
ీఎల్	5890
ేడు	5891
##lu	5892
##va	5893
ప్రకా	5894
యిద	5895
ర్టీ	5896
వర్షా	5897
సభ్యు	5898
ాపుర	5899
్టడ	5900
నగరం	5901
ాదాల	5902
త్రు	5903
రల	5904
షర్	5905
ోతు	5906
తిరు	5907
జరిగి	5908
్యల	5909
మార్ప	5910
్యాప	5911
మానం	5912
వాదం	5913
ఐదో	5914
po	5915
మద	5916
నివ	5917
ుపుల	5918
sa	5919
ఫే	5920
లార	5921
ాసు	5922
ెత	5923
తెగ	5924
రిపోయ	5925
పాయ	5926
దిగి	5927
యాడ	5928
ొచ్చి	5929
نہ	5930
డూ	5931
యశ	5932
ేకర	5933
విధి	5934
ాయించ	5935
ందన్	5936
పిక్	5937
డేవ	5938
ూపించ	5939
ిర్యా	5940
ఇన	5941
##رل	5942
ాలీ	5943
కాలి	5944
ళ్లకు	5945
ర్చి	5946
1న	5947
ఆప్	5948
తకు	5949
బార	5950
చేరి	5951
ట్టిన	5952
ఉదయ	5953
చక	5954
ప్య	5955
ాచ్	5956
ెష	5957
ేళ	5958
రణకు	5959
్లర	5960
తామని	5961
پی	5962
చేయి	5963
రిష	5964
సంబ	5965
లిటీ	5966
మిస్త	5967
15న	5968
##టల	5969
విమ	5970
వరక	5971
లీల	5972
్మద	5973
ణిక	5974
రన్న	5975
్మా	5976
##تے	5977
రిలీ	5978
ండాల	5979
్యూర	5980
ాణిక	5981
రిలీజ	5982
38	5983
తిప	5984
దంట	5985
ళం	5986
లేవ	5987
ంచం	5988
ఈవో	5989
ణలు	5990
ఫిక	5991
ీసు	5992
్సి	5993
ాముల	5994
ar	5995
కంగ	5996
టన	5997
యాన	5998
లిన	5999
ోలి	6000
ందీ	6001
చిత	6002
ేశవ	6003
ందించ	6004
وائرل	6005
డద	6006
ిరిగ	6007
్దీ	6008
##وں	6009
##en	6010
ప్పం	6011
క్యాప	6012
్సిటీ	6013
ja	6014
ంస్	6015
డని	6016
##ws	6017
కేషన్	6018
గుం	6019
ంగల్	6020
ిపే	6021
4న	6022
ోత్	6023
తీర్	6024
కవర్	6025
ోలేద	6026
్కార్	6027
55	6028
నంగా	6029
నిఖ	6030
ాబు	6031
22న	6032
ts	6033
అక	6034
తూ	6035
శీల	6036
ాద్	6037
ున్నద	6038
రాసి	6039
ువ్వ	6040
ఘనత	6041
వడంతో	6042
డర్ల	6043
ివే	6044
యోగి	6045
్ట్రా	6046
వకాశా	6047
ch	6048
ni	6049
తాలు	6050
శర	6051
కిల్	6052
్తాన	6053
ప్రాం	6054
ిచే	6055
...	6056
41	6057
తం	6058
రప్	6059
వతి	6060
ిసా	6061
##da	6062
రాత	6063
న్నట	6064
యిర్	6065
65	6066
ام	6067
ఏఐ	6068
సంద	6069
ోటీ	6070
కుడి	6071
సిక్	6072
్కో	6073
ంతరం	6074
دع	6075
అవా	6076
చారి	6077
జస్	6078
ధుల	6079
్కి	6080
దాయ	6081
ుందుక	6082
తాయని	6083
ఈటల	6084
డాలి	6085
పించ	6086
భంగా	6087
##un	6088
డాన్	6089
్లవ	6090
ఆగస్ట	6091
మద్దత	6092
ఖ్	6093
త‌	6094
తాన	6095
ళీ	6096
కాకు	6097
కూర్	6098
ఫైనల	6099
یا	6100
ోను	6101
##ss	6102
నాన	6103
ంటికి	6104
అన్నా	6105
ంబా	6106
ిశా	6107
ఇస్	6108
మేమ	6109
అభివ	6110
జాగ్	6111
ిపడ	6112
ఆపై	6113
చుల	6114
జాల	6115
త్మ	6116
య్యా	6117
##ین	6118
కామ	6119
లాడ	6120
యిల	6121
ుండగ	6122
ోటీసు	6123
400	6124
నికల్	6125
చంద్	6126
39	6127
44	6128
9న	6129
బూ	6130
హత	6131
ొర	6132
్యత	6133
ామర్	6134
14న	6135
ీసుకు	6136
చన	6137
విక్	6138
లుస్త	6139
news	6140
తెల	6141
దుపు	6142
ళ్లను	6143
ిచేస	6144
మానుల	6145
ంధన	6146
er	6147
ఖ్యా	6148
యమ	6149
లాం	6150
పీల	6151
పదో	6152
్రమే	6153
్బా	6154
ిహార	6155
కదా	6156
ేసీ	6157
##ce	6158
్వం	6159
జేపీ	6160
జిట	6161
జిస్ట	6162
nt	6163
ఇబ	6164
జుల	6165
పిక	6166
్రై	6167
నామా	6168
వీకర	6169
కంగా	6170
కారి	6171
పడా	6172
లామ	6173
తమైన	6174
ాణం	6175
అసల	6176
ేయాలి	6177
కులకు	6178
ుచేస	6179
7న	6180
mo	6181
థ్	6182
్రు	6183
చేయలే	6184
ామీ	6185
ాయణ	6186
స్టుల	6187
ుగ్	6188
12వ	6189
de	6190
నను	6191
హాన్	6192
##را	6193
చేతి	6194
బాధ్య	6195
్యూస	6196
హాస	6197
యన్స్	6198
8న	6199
تص	6200
ంఘ	6201
ఇష్	6202
రుల	6203
వరిక	6204
ునా	6205
##ja	6206
ముత	6207
ేగం	6208
రౌండ	6209
نہیں	6210
అండ	6211
కాస్	6212
ద్ది	6213
nth	6214
پو	6215
ఓం	6216
కమ్	6217
##نگ	6218
కున్న	6219
రెట్	6220
మాత	6221
ాస్తు	6222
కని	6223
డలో	6224
నవా	6225
్తమ	6226
డిపో	6227
రును	6228
ిసె	6229
17న	6230
డుక	6231
భం	6232
ంగత	6233
యోగా	6234
రదా	6235
46	6236
دی	6237
కుత	6238
పాన	6239
వచ్చా	6240
తిలో	6241
టెంట్	6242
కమైన	6243
ిశ్రమ	6244
కస్	6245
జుక	6246
రద్ద	6247
్ము	6248
నిస్త	6249
సిస	6250
్రావ	6251
ాంత్	6252
ిపార	6253
10న	6254
15వ	6255
్తులు	6256
13న	6257
رہ	6258
ఆత	6259
డగా	6260
నయ	6261
యుత	6262
ీబీ	6263
కిర	6264
సూపర	6265
అమిత	6266
28న	6267
అడ్డు	6268
స్ర	6269
ిఖ	6270
లాండ	6271
12న	6272
ేకం	6273
la	6274
మట	6275
ొందర	6276
్దు	6277
##me	6278
ారంగా	6279
రించి	6280
52	6281
డుల	6282
ేహ	6283
నేన	6284
సిట	6285
రుడ	6286
ువార	6287
టెన	6288
ద్రా	6289
భంగ	6290
్యుత	6291
యాక	6292
ాలిట	6293
ెయిన	6294
ష్టమ	6295
vide	6296
bab	6297
video	6298
51	6299
pr	6300
చేవ	6301
కరణ	6302
్డర్	6303
ndra	6304
ేయించ	6305
gu	6306
su	6307
وال	6308
డబ్బ	6309
ష్యం	6310
ేపీ	6311
##ka	6312
మాధ	6313
ిప్ర	6314
బెల్	6315
్నర్	6316
స్కో	6317
ఇష	6318
ెరుగు	6319
##il	6320
ప్రభ	6321
ించా	6322
సీన	6323
వలస	6324
తారని	6325
్దుల	6326
నార	6327
యుల	6328
యేట	6329
ికన	6330
గిం	6331
20న	6332
54	6333
ుగుల	6334
్జు	6335
##اب	6336
నాడ	6337
మెరి	6338
ాయల	6339
రేవ	6340
పిస	6341
బెట	6342
బ్బు	6343
ుగో	6344
25న	6345
جس	6346
విద	6347
రెన్	6348
కొంట	6349
పరిష	6350
స్టో	6351
ంకుల	6352
శంకర	6353
19న	6354
ర్యాద	6355
ెలిప	6356
2న	6357
3న	6358
ka	6359
ys	6360
తవ	6361
ఫు	6362
మంగ	6363
##dh	6364
##ఆర	6365
49	6366
సరే	6367
ర్గం	6368
30న	6369
శ్వర్	6370
్విట	6371
లించ	6372
గాడ	6373
ార్గ	6374
ల్లీ	6375
ండో	6376
ట్రల	6377
ంపి	6378
సహజ	6379
్లాద	6380
జెక్ట	6381
దొర	6382
్నాడు	6383
##اتھ	6384
రాష్	6385
వాసం	6386
ామన్	6387
యాస	6388
ంటె	6389
10వ	6390
నిజా	6391
త్యం	6392
డ్లు	6393
27న	6394
47	6395
యనా	6396
శాల్	6397
ెక	6398
ిస్తా	6399
ామి	6400
మెన	6401
ల్స	6402
ేశం	6403
అయ్యి	6404
టేషన్	6405
18వ	6406
సవాల	6407
పోయిన	6408
5న	6409
6న	6410
ధా	6411
##تا	6412
్రయి	6413
అవక	6414
ఉంటా	6415
మోడ	6416
8వ	6417
##ru	6418
కించ	6419
లేన	6420
్వర్	6421
43	6422
?,	6423
ఢీ	6424
లంత	6425
లవ్	6426
ున్	6427
##کھا	6428
పట్టా	6429
్పించ	6430
గొడ	6431
ేదని	6432
19వ	6433
మాదం	6434
్యలను	6435
ta	6436
పెళ్ల	6437
18న	6438
16న	6439
ినేష	6440
va	6441
గడ్	6442
ుండి	6443
##vi	6444
##نا	6445
ోర్డ	6446
యాని	6447
శ్రీన	6448
యిర	6449
్లడ	6450
ఊరట	6451
యినా	6452
వహర	6453
babu	6454
سو	6455
చద	6456
చించ	6457
వద	6458
ేకు	6459
##وٹ	6460
కుడ	6461
్యుడ	6462
రాజీ	6463
ాగ్ర	6464
ఎన్టీ	6465
ీలన	6466
11వ	6467
red	6468
nga	6469
టచ్	6470
ీరం	6471
పోతే	6472
ిక్ర	6473
ంటాయి	6474
్రకార	6475
ఫ్రి	6476
23న	6477
ర్శి	6478
تھا	6479
##ea	6480
ుంటా	6481
రించే	6482
ియర	6483
ంట్లు	6484
ంచుకో	6485
ాటిల	6486
ుతుండ	6487
بھی	6488
ساتھ	6489
రాస్	6490
గాన్	6491
వామ	6492
త్తర	6493
టీవ	6494
యత్నం	6495
120	6496
ిమిత	6497
సిడె	6498
్పాట్	6499
sha	6500
ఆమ్	6501
ధారణ	6502
నన్	6503
ొల	6504
ోరా	6505
గారు	6506
సము	6507
వైస	6508
ారిక	6509
ూరులో	6510
డ్రి	6511
వేశాల	6512
ہوئے	6513
మంత్	6514
56	6515
72	6516
ip	6517
ఎమ్	6518
ిది	6519
ుము	6520
గాని	6521
్యే	6522
మానిక	6523
రూపా	6524
షన్లు	6525
ోట్	6526
##سٹ	6527
చెల్	6528
ికొ	6529
ర్చు	6530
26న	6531
to	6532
తగ	6533
థ్యం	6534
యల	6535
ెరా	6536
ಆದ	6537
ಎಂ	6538
##دی	6539
్రంగా	6540
టీన	6541
క్షాల	6542
రణల	6543
్పన	6544
కపోత	6545
ాలేద	6546
ివర్స	6547
9వ	6548
తంత	6549
దానిక	6550
స్టేట	6551
ంటా	6552
వున	6553
బ్బుల	6554
1వ	6555
అగ్	6556
ష్మ	6557
##ృహ	6558
బోర	6559
తగ్గి	6560
ెయిల	6561
ఓటర	6562
పణలు	6563
ಎಂಬ	6564
5వ	6565
اپ	6566
కగా	6567
తారా	6568
రమ్	6569
ూజ	6570
నిమా	6571
రాక్	6572
్రాజ	6573
గృహ	6574
థం	6575
ెప్	6576
##dy	6577
్రాల్	6578
డిగా	6579
సీఎ	6580
రేక	6581
్చర్	6582
పౌర	6583
రంభం	6584
4వ	6585
me	6586
ంతుల	6587
అర	6588
కల్ల	6589
ిబంధ	6590
##కే	6591
##ون	6592
##ld	6593
ారణా	6594
కోన	6595
టికి	6596
క్ష్య	6597
ిబంధన	6598
fa	6599
pla	6600
ఈయ	6601
టుల	6602
دعوی	6603
మంచ	6604
యడ	6605
లంట	6606
్జ్	6607
చేయగ	6608
ప్పుక	6609
మ్మా	6610
ర్షి	6611
జిం	6612
telu	6613
త‌న	6614
తన్	6615
సలు	6616
హమ	6617
్మార	6618
##اہ	6619
##li	6620
బాబ	6621
నీతి	6622
175	6623
17వ	6624
600	6625
##ing	6626
ఇర	6627
ఏమి	6628
నడి	6629
పత్	6630
యవ	6631
##wi	6632
ాయలు	6633
జాగ	6634
డ్డార	6635
రగత	6636
ెప్పు	6637
85	6638
میڈ	6639
లైన	6640
ాసా	6641
ూటి	6642
విచ	6643
స్న	6644
ారమ	6645
సీత	6646
మ్మల	6647
ెన్ష	6648
24న	6649
us	6650
ات	6651
పక్	6652
విట	6653
లాస్	6654
్చిత	6655
ంతర్	6656
ఫిర	6657
చర్చి	6658
250	6659
جان	6660
سر	6661
ین	6662
తుడ	6663
ీటర్	6664
ాలం	6665
కిల	6666
నేట	6667
వేష	6668
శుక్	6669
్నిస్	6670
3వ	6671
ంపా	6672
ఆగ్ర	6673
ఇవే	6674
బరి	6675
మనీ	6676
శార	6677
ూపు	6678
ోరి	6679
సీని	6680
వులు	6681
13వ	6682
ాగాన	6683
స్టేష	6684
tela	6685
మధు	6686
tter	6687
డటంతో	6688
ఈయన	6689
da	6690
ఐస్	6691
టాయి	6692
ివా	6693
ిటిష	6694
ాయక	6695
ందని	6696
53	6697
తకాల	6698
భ్	6699
మతం	6700
షమ	6701
##نی	6702
వెం	6703
చిస్త	6704
ాబాద	6705
దుగ	6706
హీర	6707
్సెస	6708
ీడీపీ	6709
ار	6710
గించ	6711
జనా	6712
నౌ	6713
యంలో	6714
ీగ	6715
ేబు	6716
##na	6717
##ya	6718
రాను	6719
ర్మా	6720
్యక	6721
సీఆర్	6722
దావ	6723
లిపోయ	6724
ాజు	6725
వస్తా	6726
టున	6727
ేశి	6728
వర్గం	6729
11న	6730
తులకు	6731
play	6732
ిటిషన	6733
64	6734
ya	6735
ింట్	6736
ీకా	6737
్క్	6738
##ur	6739
నిని	6740
నింద	6741
్రస్	6742
ినవ	6743
ానించ	6744
ద్దత	6745
రించడ	6746
ుండా	6747
16వ	6748
టర్న	6749
##ویر	6750
تصویر	6751
ab	6752
tha	6753
ంఖ	6754
షక	6755
ుమ్	6756
ూచ	6757
##ts	6758
ందరు	6759
యాస్	6760
బ్లా	6761
ోచన	6762
ర్భం	6763
reddy	6764
ఆగ్రహ	6765
57	6766
pm	6767
pic	6768
twi	6769
ధ్యా	6770
వాలి	6771
ైబ	6772
ోతే	6773
దాడ	6774
చిత్	6775
్రాం	6776
లెక్	6777
పీలో	6778
21న	6779
ుబాట	6780
59	6781
7వ	6782
mi	6783
تو	6784
ఏయ	6785
జత	6786
ణుల	6787
ితా	6788
ొల్	6789
##یر	6790
##tc	6791
నిద	6792
ర్జా	6793
చెరు	6794
పాప	6795
క్రవ	6796
దిగా	6797
సెస	6798
ర్షం	6799
ఏడో	6800
ఓకే	6801
ుర్క	6802
ూస్	6803
ారుడ	6804
సమర	6805
ష్టి	6806
భాగం	6807
30వ	6808
mala	6809
وا	6810
ంకా	6811
తట	6812
ిద్	6813
ీట్ల	6814
ౌంట	6815
్ష్	6816
రూం	6817
్టె	6818
్లిన	6819
ర్తల	6820
29న	6821
రాలే	6822
దరికీ	6823
బీజే	6824
58	6825
ca	6826
kal	6827
si	6828
ٹی	6829
దిక	6830
లని	6831
విని	6832
రాణా	6833
న్సీ	6834
యాట	6835
తాం	6836
20వ	6837
ాహ్న	6838
کرتے	6839
##psc	6840
میڈیا	6841
మంగా	6842
ళ్యా	6843
్రద	6844
్రక్	6845
ినట్ట	6846
చిర	6847
లిచ	6848
ండే	6849
క్షు	6850
పూట	6851
పిస్త	6852
ుస్తు	6853
ష్టా	6854
ాధార	6855
ఉద్	6856
తగా	6857
లల్లో	6858
్మె	6859
నిస్	6860
డిమ	6861
లిస	6862
ఏర్ప	6863
ానమ	6864
క్లి	6865
انہ	6866
63	6867
66	6868
di	6869
మతి	6870
రక్	6871
ేతు	6872
క్తి	6873
ంచాల	6874
్ధం	6875
ెప్పా	6876
##dia	6877
62	6878
bha	6879
دکھا	6880
తికి	6881
ెచ్	6882
ేను	6883
్రల	6884
కూల్	6885
నాక	6886
ామె	6887
ంపుల	6888
స్థల	6889
మొదలై	6890
gov	6891
ఏయే	6892
on	6893
or	6894
ఖ్య	6895
తంగ	6896
పిన	6897
శవ	6898
శాన	6899
ూటీ	6900
ాలల	6901
్యాం	6902
త్నం	6903
ియల	6904
lo	6905
se	6906
بی	6907
ଅନ	6908
ఓటర్	6909
నతో	6910
వరించ	6911
ాసి	6912
ీరో	6913
ుంచి	6914
##te	6915
లోచ	6916
రాన	6917
కాగ	6918
కాబ	6919
ంటిక	6920
క్షేమ	6921
స్పత	6922
కర్ణ	6923
14వ	6924
ram	6925
ళ్యాణ	6926
2వ	6927
ac	6928
ri	6929
جار	6930
رو	6931
مو	6932
के	6933
ଏକ	6934
నీస	6935
షన	6936
ూవ	6937
##شن	6938
రోడ్డ	6939
ామిన	6940
##ంబర	6941
ీలకు	6942
నవంబర	6943
ئی	6944
بھ	6945
سی	6946
ଛନ	6947
ిస్థ	6948
##థ్య	6949
స్కూల	6950
రిం	6951
ట్న	6952
సులో	6953
బిల	6954
ేపథ్య	6955
ాటికి	6956
కార్డ	6957
ంటలకు	6958
tiru	6959
bo	6960
ku	6961
దనే	6962
మయం	6963
రమా	6964
##ir	6965
్యస	6966
ామినే	6967
యింట్	6968
ిదా	6969
ుచు	6970
ోగాల	6971
28వ	6972
ఎడమ	6973
ధ్యత	6974
##rea	6975
li	6976
జర్వ	6977
థలు	6978
లద	6979
ురం	6980
ైలు	6981
ోనే	6982
రుడి	6983
ఉంటాయ	6984
రీమ	6985
డుకు	6986
ష్కర	6987
ర్చా	6988
ీకార	6989
کرنے	6990
ru	6991
చరించ	6992
దై	6993
వమ	6994
ైపు	6995
ర్నా	6996
##డియ	6997
వైన	6998
షన్ల	6999
ద్రి	7000
ట్లాడ	7001
99	7002
ele	7003
ఖల	7004
ేకా	7005
రెక్ట	7006
కోర్ట	7007
మీడియ	7008
చిపో	7009
రీస్	7010
పడం	7011
్బంద	7012
రాహు	7013
తిరుమ	7014
థుల	7015
బన	7016
రన	7017
వాత	7018
ామర	7019
మెట్	7020
దిప	7021
యాన్న	7022
ానాలు	7023
నిరస	7024
గిప	7025
ోల్ప	7026
ంగ్స్	7027
ంధు	7028
ూడో	7029
్రహం	7030
కగ	7031
హక	7032
ౌన	7033
##ch	7034
##ణం	7035
##شل	7036
కుమ	7037
కేసీ	7038
త్రుల	7039
పొందు	7040
ఆడే	7041
ాప్త	7042
జెన	7043
ాథ్	7044
ర్వాత	7045
ోల్పో	7046
ఆడి	7047
ఊరు	7048
థల	7049
రసా	7050
వుడ	7051
##وگ	7052
##ee	7053
న్నప	7054
లిమ	7055
వీట	7056
ంగల	7057
ాహా	7058
ఆరోపణ	7059
ేయడం	7060
పడింద	7061
్రదర్	7062
6వ	7063
67	7064
95	7065
مل	7066
ଏହ	7067
జలు	7068
డిన	7069
ధ్	7070
ాకి	7071
ోస్ట	7072
లుసు	7073
మాణం	7074
పెన	7075
డిల	7076
మేష	7077
యావ	7078
జీల	7079
క్షన	7080
ొన్నా	7081
్మన	7082
ుస్తా	7083
the	7084
pra	7085
pri	7086
wa	7087
ఏర	7088
హాన	7089
ిదే	7090
ీవా	7091
ూరం	7092
##وم	7093
##rs	7094
వరాల	7095
పొగ	7096
రకం	7097
లేకపో	7098
elec	7099
జయం	7100
దాల	7101
యలో	7102
ాతా	7103
ిలిచి	7104
ీఆర	7105
ోసారి	7106
##ro	7107
తోప	7108
లిస్	7109
యూర	7110
రైల్	7111
ాడన	7112
ువై	7113
ెండు	7114
84	7115
ఏవీ	7116
గడం	7117
మను	7118
మకర	7119
ిపా	7120
గానిక	7121
టులు	7122
ాంక్	7123
జెన్	7124
144	7125
21వ	7126
61	7127
मे	7128
ధాన	7129
ుగ్గ	7130
ెంద	7131
ప్రయా	7132
సెం	7133
ాంతి	7134
్లాం	7135
800	7136
71	7137
ce	7138
is	7139
ro	7140
ww	7141
హ్ల	7142
హబ్	7143
##bc	7144
##عد	7145
్యకు	7146
నేషన్	7147
ళ్లార	7148
హాస్	7149
డెంట	7150
ాదుల	7151
టాక	7152
ోగ్	7153
షేర	7154
ప్రభు	7155
में	7156
king	7157
ంల	7158
ణీ	7159
ెత్	7160
ెటి	7161
ోకు	7162
##بر	7163
##ll	7164
##ہا	7165
ప్తు	7166
్షు	7167
తానని	7168
سوشل	7169
69	7170
kar	7171
man	7172
గస	7173
యట	7174
యడం	7175
సక్త	7176
##لہ	7177
సీల	7178
దిత	7179
ర్మన్	7180
్మక	7181
ిషన	7182
ేతల	7183
##ade	7184
హ్న	7185
ic	7186
ువల	7187
ోతా	7188
్సీ	7189
##سی	7190
ించగ	7191
ారంగ	7192
కోత	7193
రిద	7194
రువా	7195
యాంగ	7196
వస్తు	7197
తుగా	7198
్రేక	7199
31న	7200
india	7201
్గాల	7202
రోహి	7203
నౌక	7204
76	7205
77	7206
یو	7207
చలి	7208
్నం	7209
రాగ	7210
పోర్	7211
్యాడ	7212
స్టర	7213
మ్మడి	7214
ిటల	7215
ిష్క	7216
్వీక	7217
్వీట్	7218
సముద	7219
78	7220
డబ	7221
ిగు	7222
##mi	7223
##ئر	7224
నిబ	7225
ార్మి	7226
పెద	7227
్రాణా	7228
్థానం	7229
బితా	7230
కెట్ల	7231
్రీన	7232
ేరుత	7233
ీలక	7234
ులోని	7235
ిసార	7236
శ్వా	7237
ీళ్లు	7238
ہمیں	7239
jag	7240
tspsc	7241
پوسٹ	7242
www	7243
82	7244
نگ	7245
وی	7246
گئی	7247
నట్ల	7248
పత్రి	7249
షర	7250
ిబ్బ	7251
ూప్	7252
ెడుత	7253
##jp	7254
ారత	7255
రెన	7256
రెంట్	7257
చెన్	7258
ట్స	7259
రామం	7260
యాదవ	7261
ఆదా	7262
brea	7263
جو	7264
మద్	7265
రలు	7266
రను	7267
వట	7268
శక	7269
శల	7270
##sa	7271
##ho	7272
##tt	7273
##ke	7274
కరీ	7275
ంచల	7276
ాటర	7277
వుడ్	7278
140	7279
ిగిలి	7280
వసరమ	7281
ad	7282
le	7283
جب	7284
لی	7285
ఈడ	7286
బద	7287
##ge	7288
##ve	7289
##bi	7290
న్నాయ	7291
ానన	7292
ేశించ	7293
అలాంట	7294
కులను	7295
ంకట	7296
ాధ్	7297
25వ	7298
ువుర	7299
فر	7300
ଆର	7301
ంటు	7302
చిన	7303
జిన	7304
డికి	7305
తల్	7306
నక్	7307
ృష్ట	7308
ర్ని	7309
ారన్	7310
రెస	7311
్థం	7312
స్టు	7313
రైత	7314
ెలుప	7315
ర్నర్	7316
22వ	7317
ేల్చ	7318
లకే	7319
jagan	7320
شی	7321
طر	7322
من	7323
پا	7324
ఘట	7325
బడా	7326
యబ	7327
హారా	7328
ెంచ	7329
ారులు	7330
్రాలు	7331
లాక	7332
మెల	7333
శాని	7334
ీజన	7335
రిగి	7336
ాటిక	7337
700	7338
tions	7339
రూపాయ	7340
ck	7341
دو	7342
لئے	7343
ఏదీ	7344
చామ	7345
పరుగ	7346
##టూ	7347
##wan	7348
ించార	7349
ారె	7350
కోర్	7351
డియా	7352
సాద	7353
్వార	7354
చ్చే	7355
పులు	7356
వ్యత	7357
యూస	7358
గిస	7359
గిలి	7360
ుకోలే	7361
గోల	7362
ర్టీల	7363
ిలే	7364
ంద్రబ	7365
26వ	7366
post	7367
دیش	7368
నన	7369
యస	7370
ిపు	7371
ుత్వ	7372
##up	7373
తోట	7374
పాధ	7375
వేస్త	7376
డ్జె	7377
ంచా	7378
ాంతం	7379
160	7380
ండ్రు	7381
షమీ	7382
68	7383
ng	7384
up	7385
دیک	7386
है	7387
కళ	7388
##ct	7389
ల్త	7390
మేన	7391
సభా	7392
అయ్యా	7393
ాట్లు	7394
73	7395
bjp	7396
cm	7397
ہند	7398
కను	7399
చలన	7400
టలు	7401
శన	7402
షల	7403
ీతో	7404
ురే	7405
ూడు	7406
##mar	7407
##عل	7408
్రయ	7409
పార్	7410
కేష్	7411
యాగ	7412
టెస్ట	7413
డేం	7414
29వ	7415
en	7416
ంస్థ	7417
అణ	7418
##رم	7419
##ول	7420
##ఢ్	7421
రాడ	7422
కార్ప	7423
్యంగ	7424
న్నో	7425
కలకు	7426
రుష	7427
రేంద	7428
పదం	7429
జెట్	7430
ిలోకి	7431
23వ	7432
27వ	7433
prade	7434
kaly	7435
ంస్థల	7436
అణు	7437
88	7438
hi	7439
ఓవర	7440
షాల	7441
ిరో	7442
న్సి	7443
నేల	7444
మున్	7445
కేం	7446
కొడుక	7447
తనక	7448
108	7449
్రిగ	7450
119	7451
వలం	7452
ృష్టి	7453
it	7454
of	7455
yo	7456
اب	7457
بار	7458
అదీ	7459
ఆనం	7460
గఢ్	7461
భీ	7462
మయ్	7463
రసన	7464
వర్ల	7465
ుంబ	7466
ృద్ధ	7467
##یس	7468
##اد	7469
##تی	7470
##چھ	7471
ార్ప	7472
చెల	7473
రిన్	7474
ములు	7475
దివా	7476
తేజ	7477
ళ్లి	7478
పీఎ	7479
ియే	7480
పంపి	7481
నడక	7482
##ara	7483
raj	7484
che	7485
ూచి	7486
74	7487
bi	7488
brs	7489
ga	7490
so	7491
مت	7492
پہ	7493
ఆవు	7494
ఈజీ	7495
ఉభ	7496
ణమ	7497
ణంగా	7498
లంలో	7499
ీటి	7500
ుప్	7501
ేగా	7502
నేహ	7503
యత్నా	7504
ంభించ	7505
ایس	7506
ధ్యం	7507
ైకో	7508
ృద్ధి	7509
ఉభయ	7510
nc	7511
pu	7512
ఉరి	7513
ఓట్	7514
టుక	7515
దజ	7516
ెబ్బ	7517
ేదు	7518
##us	7519
ాలజ	7520
నిగ	7521
ించలే	7522
త్వా	7523
యార్	7524
ంధించ	7525
350	7526
pawan	7527
kumar	7528
شیئر	7529
81	7530
دور	7531
یں	7532
ఐడీ	7533
పంద	7534
సృ	7535
ిరేక	7536
కున	7537
రోస	7538
రీని	7539
పూల	7540
ిచా	7541
125	7542
్నాలు	7543
##ارت	7544
్శక	7545
్తింప	7546
andh	7547
ుభవ	7548
చేశాడ	7549
ఇక్క	7550
ఎంట	7551
లయం	7552
హవా	7553
##dp	7554
##خت	7555
విస్	7556
్రలో	7557
ర్వే	7558
్యప	7559
కేర	7560
పొంది	7561
యిలో	7562
యుడు	7563
రాము	7564
24వ	7565
వంత్	7566
im	7567
wor	7568
وہ	7569
ରେ	7570
ఓయ	7571
టాలు	7572
దక	7573
ధాల	7574
పరుగు	7575
యార	7576
ెరిగ	7577
##rc	7578
పేస	7579
ుంటాయ	7580
తాత	7581
మిస	7582
టింగ	7583
్చా	7584
్చారు	7585
ియు	7586
అలాగ	7587
ిలోని	7588
ద్ధం	7589
goo	7590
##ابق	7591
ఓయూ	7592
89	7593
bbc	7594
con	7595
gb	7596
ss	7597
ڈی	7598
ఇక్	7599
కస	7600
టర	7601
టర్ల	7602
ల్య	7603
రాఫ	7604
ద్దే	7605
రిపి	7606
##امی	7607
రుగుత	7608
ttps	7609
భీం	7610
at	7611
ఏఈ	7612
కలో	7613
లల	7614
లంగ	7615
ిరే	7616
ౌడ్	7617
##قی	7618
##20	7619
సంవ	7620
డింద	7621
దీన్న	7622
ురై	7623
్పులు	7624
ుతుంట	7625
ేకప	7626
ిలియన	7627
ban	7628
tra	7629
wi	7630
جن	7631
की	7632
ଏବ	7633
ఉద్ద	7634
కవి	7635
గది	7636
గంలో	7637
ట్య	7638
డీస	7639
నయం	7640
రవే	7641
ాలన	7642
చింద	7643
లిస్త	7644
యూన	7645
పీక	7646
ంతమ	7647
గోడ	7648
వ్వడం	7649
ఇంటర	7650
ర్టు	7651
పథ్	7652
reva	7653
##ائی	7654
83	7655
ci	7656
بعد	7657
ంశాల	7658
చం	7659
టించ	7660
లడ	7661
హల్	7662
్రామ	7663
వాన్న	7664
బాటు	7665
ట్లలో	7666
మిష	7667
టిప	7668
్కార	7669
ాదని	7670
ప్రాధ	7671
ాంతా	7672
తుల్	7673
టానిక	7674
లర్లు	7675
##ورٹ	7676
మన్నా	7677
ిపారు	7678
ii	7679
یک	7680
గారం	7681
డటం	7682
తంగా	7683
థ్య	7684
ురి	7685
కుప	7686
అవే	7687
్కర	7688
బీబీ	7689
ద్యం	7690
ంచన	7691
ికిత	7692
ఫాం	7693
کہا	7694
86	7695
92	7696
el	7697
gan	7698
gle	7699
un	7700
का	7701
ఊరి	7702
డతా	7703
ధమ	7704
నదీ	7705
పుక	7706
ియోగ	7707
##رہ	7708
##im	7709
ారుత	7710
ులక	7711
సీజన	7712
ట్లకు	7713
లిలో	7714
తిల	7715
తేద	7716
ాదవ్	7717
అప్పట	7718
్డే	7719
ద్ధమ	7720
31వ	7721
pro	7722
طرح	7723
hea	7724
no	7725
ంతం	7726
కత్	7727
టార	7728
బలి	7729
మరే	7730
రాలు	7731
రప్ర	7732
ళల	7733
##ci	7734
గాం	7735
రోల	7736
చేశార	7737
మెడి	7738
రుప	7739
నెం	7740
పుట్	7741
క్కిం	7742
ితుడ	7743
లోచన	7744
ha	7745
جھ	7746
جا	7747
తంలో	7748
లన	7749
హుల	7750
##لے	7751
ారన	7752
కిస్	7753
్తల	7754
కేఏ	7755
్థా	7756
ాయత	7757
రికొ	7758
్యూల	7759
తప్పి	7760
ంతాల	7761
్లలో	7762
తువు	7763
ాధిక	7764
ిగాయి	7765
డియాల	7766
180	7767
పంచా	7768
ికేష	7769
ంటుంద	7770
cla	7771
بن	7772
طور	7773
گر	7774
ଉକ	7775
ఇత	7776
దట	7777
పడ్	7778
భాల	7779
ోజు	7780
##گر	7781
ించాల	7782
ికగా	7783
ద్వా	7784
దేశా	7785
ఆర్థ	7786
రీన్	7787
ిఫి	7788
్మిం	7789
యెల్	7790
##jay	7791
والے	7792
price	7793
ہندو	7794
world	7795
ଏବଂ	7796
97	7797
تح	7798
مط	7799
ملا	7800
کچھ	7801
ఎటు	7802
ఖం	7803
యక	7804
ోగు	7805
##ٹر	7806
రోవ	7807
చేయాల	7808
న్నవ	7809
పేర్	7810
్వె	7811
పిట	7812
ువకు	7813
్లాడి	7814
్షం	7815
గణన	7816
110	7817
130	7818
్బుల	7819
సకల	7820
shi	7821
370	7822
والی	7823
fact	7824
శారని	7825
دوران	7826
పడ్డా	7827
87	7828
ep	7829
hy	7830
mu	7831
ال	7832
రలో	7833
రజా	7834
##ود	7835
##وے	7836
##ٹی	7837
##در	7838
స్త్	7839
స్సీ	7840
నాయి	7841
సింది	7842
ాయప	7843
శాన్	7844
వైద	7845
వరస	7846
తిరుప	7847
య్యార	7848
తేమ	7849
రేల	7850
రికె	7851
తలను	7852
ఏకం	7853
ీయాల	7854
ంశం	7855
టర్లు	7856
gold	7857
سرچ	7858
79	7859
96	7860
lth	7861
مس	7862
గట్	7863
పంది	7864
ిళ	7865
ొంత	7866
##et	7867
ప్రాయ	7868
కోట్	7869
దాన్	7870
శాస	7871
మీన	7872
ట్టా	7873
కావడం	7874
ిజె	7875
టెల	7876
انی	7877
ుగులు	7878
యాలని	7879
ాట్లా	7880
ీట్లు	7881
98	7882
cup	7883
mp	7884
rt	7885
تر	7886
تیا	7887
لوگ	7888
می	7889
చనిప	7890
యర	7891
లల్ల	7892
##لم	7893
##cr	7894
##పి	7895
్యర	7896
సాన	7897
మెక	7898
ినియ	7899
జాగా	7900
్చల	7901
ెల్స	7902
ీక్షల	7903
##ana	7904
ఇదో	7905
vijay	7906
ipl	7907
kha	7908
rr	7909
sp	7910
گئے	7911
को	7912
ఇదీ	7913
మత్	7914
మమత	7915
షించ	7916
‌‌	7917
##్వా	7918
##బా	7919
##عم	7920
రింగ	7921
పాట్ల	7922
న్నామ	7923
ల్లాల	7924
ండటం	7925
తిడ	7926
ద్దా	7927
క్షా	7928
ాణా	7929
ఇవ్వా	7930
్లార	7931
వుర	7932
111	7933
ోగించ	7934
నాలను	7935
ాతీ	7936
##ارف	7937
గ్గి	7938
رہا	7939
رہے	7940
اپنے	7941
es	7942
اں	7943
ఉన్	7944
ాదే	7945
ృం	7946
##لک	7947
గాన	7948
్యంత	7949
స్తో	7950
్తో	7951
సమం	7952
పుడ	7953
్పత్త	7954
చూపి	7955
ing	7956
tips	7957
ہونے	7958
କରି	7959
بھارت	7960
hyd	7961
91	7962
آئی	7963
پار	7964
ంజీ	7965
ఆగి	7966
బుల	7967
ీహ	7968
ీల్లో	7969
ూసు	7970
##یت	7971
##اک	7972
పోలి	7973
దీన	7974
చ్చా	7975
దులో	7976
ారిట	7977
పడవ	7978
్చన	7979
ిగే	7980
శించి	7981
కమిట	7982
ిహా	7983
ావిస్	7984
త‌మ	7985
modi	7986
93	7987
ed	7988
دن	7989
ون	7990
ఈమె	7991
ఉమా	7992
చార్	7993
టారు	7994
హత్	7995
ాంటి	7996
ిమాన	7997
ేరుక	7998
ోయా	7999
్హ	8000
్కు	8001
##قع	8002
ాలర	8003
డంప	8004
తిగా	8005
డ్డి	8006
హిర	8007
ఆహా	8008
సౌర	8009
ఇజ్రా	8010
##ائع	8011
##یکہ	8012
do	8013
آر	8014
ائ	8015
تھی	8016
صارف	8017
ంధి	8018
ఘన్	8019
చడం	8020
టప	8021
బయో	8022
రడ	8023
ాధి	8024
##زی	8025
##نڈ	8026
##ظر	8027
##گو	8028
నుకు	8029
నుమా	8030
్తం	8031
యామ	8032
డీఏ	8033
ఆర్టీ	8034
ండిప	8035
్రీం	8036
ేలియ	8037
ఎగ్	8038
##ائے	8039
ind	8040
900	8041
app	8042
امی	8043
5జీ	8044
>>	8045
fi	8046
tu	8047
را	8048
سب	8049
ہیکہ	8050
ఒప	8051
ఓడి	8052
తగు	8053
లంటే	8054
##ست	8055
నిన్	8056
కుక	8057
##యిల	8058
కిం	8059
తోష	8060
వాని	8061
టీఆర్	8062
ోవచ్చ	8063
క్షక	8064
క్టు	8065
బెయిల	8066
్పే	8067
్పొ	8068
104	8069
115	8070
డుతూ	8071
యాంక్	8072
్దా	8073
యాలను	8074
as	8075
qu	8076
son	8077
tdp	8078
اک	8079
کم	8080
గప	8081
నటన	8082
లయ్	8083
శక్త	8084
ెంక	8085
్యయ	8086
గులో	8087
్వడం	8088
సూర్	8089
ఆశా	8090
దళ్	8091
దళం	8092
ఆపి	8093
్పాటు	8094
##امل	8095
చుకో	8096
جارہا	8097
upi	8098
مق	8099
ہی	8100
ఆస్ట	8101
ఏక్	8102
టాన	8103
హేమ	8104
ేతి	8105
##షా	8106
##ta	8107
##ైవ	8108
రెట	8109
కొంద	8110
డిం	8111
గుర్	8112
ంపే	8113
మోడీ	8114
కపోవడ	8115
వేశం	8116
ధ్యక	8117
کرد	8118
ేసీఆర	8119
##علق	8120
claim	8121
op	8122
ott	8123
تھ	8124
دیا	8125
ٹو	8126
ଆଲ	8127
ఆం	8128
నమ్	8129
ుద్	8130
ోసా	8131
##se	8132
పాత్	8133
రోన	8134
ోవాల	8135
దువ	8136
దుకు	8137
ంపల	8138
తమై	8139
పీఏ	8140
బెంగ	8141
్రిప	8142
్షి	8143
బంధన	8144
్ట్రీ	8145
ress	8146
ایم	8147
ుతోంద	8148
mah	8149
ాయకుల	8150
اپنی	8151
షనర్	8152
యకర్త	8153
94	8154
du	8155
sc	8156
ve	8157
var	8158
بر	8159
بڑ	8160
سک	8161
ంన	8162
ంతే	8163
ఆకు	8164
కప	8165
ాధాన	8166
##su	8167
##ba	8168
కుంద	8169
రిన	8170
రింత	8171
మీక	8172
స్టి	8173
యాక్	8174
టీలో	8175
ినిమ	8176
ినిప	8177
ఎమ్మె	8178
ెంటర	8179
్లీల	8180
్లమ	8181
్మో	8182
ఏడాద	8183
ిషా	8184
ెటర	8185
450	8186
she	8187
హ్నం	8188
جانب	8189
مطابق	8190
>>>	8191
ben	8192
ho	8193
sri	8194
بنگ	8195
تب	8196
ఈవీ	8197
చవి	8198
దాలు	8199
మత్త	8200
ీవి	8201
ీసి	8202
ుట్టి	8203
##یل	8204
##lo	8205
##ms	8206
##లుగ	8207
రెం	8208
పోర	8209
వెలుగ	8210
రోడ	8211
ంటనే	8212
మిద	8213
ద్దర	8214
స్థి	8215
135	8216
ttd	8217
abad	8218
you	8219
rrr	8220
bu	8221
تل	8222
تعم	8223
رک	8224
گھ	8225
और	8226
డర	8227
దం	8228
భట్	8229
ిర్వ	8230
ెద్	8231
##du	8232
##پورٹ	8233
##mc	8234
##jun	8235
విడు	8236
్రయో	8237
రిని	8238
కేటీ	8239
లాన	8240
డారు	8241
్టల	8242
గిపో	8243
ుపె	8244
భ్యు	8245
బహి	8246
ఖాస్త	8247
్జి	8248
##day	8249
دعوے	8250
hyder	8251
ిర్వహ	8252
విడుద	8253
ex	8254
kon	8255
kri	8256
kcr	8257
war	8258
جے	8259
رپورٹ	8260
شائع	8261
مہ	8262
مع	8263
से	8264
అంది	8265
ఖర్	8266
చాన	8267
డను	8268
దప	8269
బిత	8270
మమ	8271
వక	8272
##مہ	8273
##be	8274
కల్య	8275
ట్లతో	8276
గ్రె	8277
ంగ్ర	8278
మోత	8279
ప్షన	8280
ిగిన	8281
ఇస్తా	8282
ట్టుబ	8283
డెం	8284
వుతా	8285
తుకు	8286
151	8287
ుమల	8288
ాయెల	8289
ోయింద	8290
انت	8291
and	8292
ہوا	8293
మీటర	8294
ఐదవ	8295
గళం	8296
واقع	8297
బహిర	8298
ev	8299
il	8300
ke	8301
san	8302
van	8303
حال	8304
سال	8305
مح	8306
مد	8307
وج	8308
ଖବ	8309
ఏవ	8310
ఏమో	8311
గ‌	8312
ఝా	8313
ధం	8314
నట్టు	8315
పబ్	8316
రనే	8317
రసం	8318
వ్ర	8319
ుసు	8320
##بی	8321
##ly	8322
##gh	8323
##mp	8324
్తార	8325
్తాయ	8326
ముద	8327
డింగ	8328
సీట	8329
టీని	8330
ాజిక	8331
్టర్	8332
ఇచ్చా	8333
జాడ	8334
యిం	8335
ాగర	8336
102	8337
గోలు	8338
్షా	8339
ిడె	8340
టాడ	8341
్నవ	8342
ఖాస	8343
allu	8344
్టిస	8345
స్తాయ	8346
ూముల	8347
today	8348
ଏହି	8349
నట్లు	8350
ଖବର	8351
ఏవో	8352
5g	8353
jo	8354
ko	8355
mar	8356
در	8357
ور	8358
అరు	8359
కతా	8360
చరి	8361
నమో	8362
యని	8363
లీస	8364
్నే	8365
్జీ	8366
##از	8367
##gg	8368
##ضی	8369
నింగ	8370
చెంది	8371
సీట్	8372
గులు	8373
సమస	8374
బావ	8375
మెల్	8376
మీల	8377
పులో	8378
గించి	8379
తెలుగ	8380
101	8381
చీర	8382
రుతో	8383
ani	8384
రాలకు	8385
డియోల	8386
ایکس	8387
్గొ	8388
ملک	8389
لیے	8390
پارٹی	8391
bs	8392
ia	8393
اع	8394
ست	8395
ସହ	8396
ఎటూ	8397
గుత	8398
ణా	8399
ధన్	8400
భిన	8401
లంద	8402
లనే	8403
##لف	8404
##ia	8405
##ti	8406
్రిక	8407
రియల	8408
లాడుత	8409
త్నా	8410
మ్మడ	8411
ేశ్వ	8412
పక్షా	8413
118	8414
170	8415
##یان	8416
ఆగం	8417
ివృ	8418
nda	8419
్యమైన	8420
ریس	8421
arjun	8422
ntr	8423
پولی	8424
imd	8425
he	8426
jee	8427
mm	8428
اف	8429
پڑ	8430
پشن	8431
کسی	8432
रह	8433
ଉପ	8434
ఐప	8435
గస్	8436
ణలో	8437
##رے	8438
##am	8439
##ڑک	8440
##ూరు	8441
##ki	8442
్రియ	8443
ర్కా	8444
దిని	8445
ప్పా	8446
చిస	8447
మూవ	8448
నీత	8449
మోదీ	8450
ిజన	8451
ిరుద	8452
తులో	8453
ర్టుల	8454
ిశ్వ	8455
ఎయిర	8456
ఏకే	8457
230	8458
pay	8459
420	8460
##unt	8461
చనల	8462
యమైన	8463
##اہر	8464
సీనియ	8465
beng	8466
تعمال	8467
پولیس	8468
bh	8469
par	8470
ran	8471
t20	8472
ur	8473
اد	8474
مخت	8475
کھ	8476
पर	8477
ଉଲ	8478
ఆంద	8479
ఐజీ	8480
జక	8481
పన్	8482
మడ	8483
వచ	8484
ాంధ	8485
##ds	8486
##وع	8487
చెర	8488
నేడ	8489
ందుబా	8490
క్కర	8491
ాడార	8492
ుడిగ	8493
ర్కె	8494
రమణ	8495
240	8496
224	8497
##راہ	8498
ష్మీ	8499
دیکھ	8500
గ్రెస	8501
em	8502
ver	8503
حم	8504
سم	8505
شر	8506
غل	8507
لگ	8508
مار	8509
نیو	8510
ఊపు	8511
చనాల	8512
యధ	8513
హరించ	8514
ిబ్	8515
ీపం	8516
ొద	8517
ಇದ	8518
చేం	8519
ప్రైవ	8520
దాద	8521
ాజ్య	8522
ందిస	8523
్లపై	8524
క్లా	8525
నమః	8526
vira	8527
్ట్స్	8528
ఎకరా	8529
09	8530
ion	8531
rc	8532
sr	8533
اے	8534
حک	8535
ٹر	8536
گوگ	8537
ଅପ	8538
ఏజ్	8539
టామ	8540
తజ	8541
మండి	8542
రయ్య	8543
శవం	8544
##وب	8545
##اوی	8546
##gi	8547
##ter	8548
##ఘు	8549
్రస	8550
రితం	8551
పోతు	8552
అయిత	8553
పరిస్	8554
త్నాల	8555
లిగి	8556
ంగాల	8557
ెన్షన	8558
డుద	8559
ాపి	8560
వసరం	8561
128	8562
మోహన	8563
కాదన	8564
్ధమ	8565
##یاد	8566
alu	8567
జ్రా	8568
ివేది	8569
కళా	8570
cong	8571
امیج	8572
05	8573
for	8574
gh	8575
mal	8576
tv	8577
شن	8578
مب	8579
کن	8580
گی	8581
ଯେ	8582
ఈత	8583
ఈఈ	8584
ఊపి	8585
ఠి	8586
తరా	8587
నయా	8588
రకా	8589
హనీ	8590
ేయల	8591
##od	8592
##gb	8593
##kh	8594
##fe	8595
మాక	8596
రున	8597
డీఈ	8598
సెగ	8599
దువు	8600
సుకు	8601
టిలో	8602
రీక	8603
ంజయ	8604
నందు	8605
్యులు	8606
టోన	8607
ూలం	8608
220	8609
ోనూ	8610
ర్పి	8611
ోజుల	8612
##ئیر	8613
##ریب	8614
poll	8615
య్యాయ	8616
ాగ్రత	8617
ొలగ	8618
త్వాన	8619
krish	8620
غلط	8621
گوگل	8622
ేయలే	8623
gp	8624
har	8625
tg	8626
tri	8627
we	8628
بیان	8629
جات	8630
خبر	8631
لہ	8632
لکھا	8633
وز	8634
پت	8635
అమ్	8636
ఎట్	8637
త్ప	8638
తాల్	8639
యశ్	8640
ీపై	8641
ెద	8642
ెయ్	8643
్టు	8644
##یہ	8645
##خص	8646
నిపో	8647
ించు	8648
గార్	8649
కోరి	8650
రిమి	8651
రితో	8652
ామన	8653
ికం	8654
గ్రత	8655
టీఆ	8656
ితాల	8657
ద్యమ	8658
టెన్	8659
ందిత	8660
ొచ్చా	8661
ిమాల	8662
్లకు	8663
ఆలం	8664
అనుమ	8665
రగడ	8666
వలే	8667
ంధం	8668
ియోల	8669
ౌరవ	8670
మాజి	8671
దర్భ	8672
ాఖ్	8673
poli	8674
ysrc	8675
ల్సిన	8676
انہوں	8677
ଏହା	8678
ceo	8679
ెంచు	8680
پہلے	8681
##قیق	8682
مختلف	8683
త్పత	8684
ay	8685
nan	8686
rs	8687
تم	8688
ریا	8689
سائ	8690
علا	8691
پھ	8692
پور	8693
ھرا	8694
یڈ	8695
ఔష	8696
కరి	8697
థాన్	8698
భర్	8699
రర	8700
ునీ	8701
##େଇ	8702
నులు	8703
ర్తు	8704
ులం	8705
తోపా	8706
వైప	8707
చ్చాయ	8708
మూత	8709
ీడియా	8710
్రాక	8711
స్థాయ	8712
్లర్	8713
సంఘట	8714
గడప	8715
##ورس	8716
##ada	8717
##are	8718
ravi	8719
తులను	8720
లకొ	8721
ిత్రా	8722
pap	8723
deva	8724
vaa	8725
యడంతో	8726
جاری	8727
فرضی	8728
rtha	8729
لوگوں	8730
khan	8731
نیوز	8732
తోపాట	8733
cri	8734
ji	8735
nara	8736
ph	8737
او	8738
بچ	8739
شخص	8740
فی	8741
مض	8742
کل	8743
గని	8744
ణప	8745
తలో	8746
రథ	8747
రారం	8748
సక్	8749
సవా	8750
హన్	8751
హనా	8752
ీఐ	8753
ోపా	8754
##وج	8755
##سم	8756
##ok	8757
##bs	8758
##cl	8759
##نٹ	8760
ినప	8761
లారు	8762
్లోక	8763
ానాల	8764
105	8765
వ్యవస	8766
స్తాన	8767
చాడ	8768
గ్లా	8769
్రోల	8770
శ్న	8771
##انی	8772
ువాత	8773
360	8774
thi	8775
##ینڈ	8776
యమన	8777
دیکھا	8778
بارے	8779
ysrcp	8780
03	8781
ah	8782
hd	8783
kt	8784
mr	8785
ul	8786
تق	8787
رام	8788
شامل	8789
چین	8790
یوٹ	8791
ने	8792
भी	8793
ఈడి	8794
ఓలా	8795
ణక	8796
రయ	8797
రవా	8798
రఘు	8799
వాలు	8800
హరీ	8801
ాతం	8802
ీసర	8803
ైద్	8804
ాలత	8805
మాచ	8806
నేం	8807
కేష	8808
దాడు	8809
ఉండట	8810
తానిక	8811
తిష	8812
పొం	8813
నగల	8814
ాంల	8815
కావాల	8816
ిచిన	8817
109	8818
107	8819
ఎక్కు	8820
్సుల	8821
త్యక	8822
145	8823
ఎంపి	8824
##adh	8825
లికా	8826
ిగింద	8827
ہوگ	8828
ہوئی	8829
750	8830
sta	8831
్రాఫి	8832
یوب	8833
جھوٹ	8834
تحقیق	8835
గ‌త	8836
ass	8837
ot	8838
oor	8839
uk	8840
بتا	8841
شئیر	8842
فار	8843
لیک	8844
نی	8845
یٹ	8846
ଓଡ	8847
କୁ	8848
ఇళ	8849
ఈజ్	8850
జిక	8851
టకు	8852
డన	8853
పద్	8854
యగ	8855
యత	8856
ేడా	8857
##کس	8858
##اف	8859
కుని	8860
వినా	8861
ార్లు	8862
ులత	8863
శాయ	8864
రాజే	8865
పురు	8866
మిళ	8867
రేఖ	8868
లీజ	8869
వ్వాల	8870
ిల్స	8871
తువ	8872
ంధ్	8873
ాకుం	8874
resu	8875
ల్వే	8876
rah	8877
rain	8878
اسی	8879
انے	8880
ుగురు	8881
##ert	8882
##ram	8883
##اند	8884
##انے	8885
రంభమ	8886
پیش	8887
chi	8888
تصاوی	8889
رہی	8890
پایا	8891
push	8892
گرد	8893
بنگلہ	8894
ఔషధ	8895
ms	8896
nya	8897
pe	8898
rma	8899
who	8900
ئے	8901
بہ	8902
لائ	8903
نک	8904
چلا	8905
ଟି	8906
ఎస్ట	8907
క‌	8908
టేశ	8909
బూర	8910
మళ	8911
యాలి	8912
రంప	8913
శప	8914
ీసుక	8915
ెయ	8916
్వు	8917
్బు	8918
##کر	8919
##اس	8920
##ہی	8921
తోంది	8922
వాగ	8923
వాస్	8924
పారు	8925
వెను	8926
ికారం	8927
ధికా	8928
నీడ	8929
క్కన	8930
ళ్లా	8931
ళ్లీ	8932
పదవ	8933
103	8934
్షుడ	8935
ష్ణా	8936
తుంద	8937
ేయడ	8938
ేదన్న	8939
ిశీ	8940
ెక్కి	8941
ోమవార	8942
اسے	8943
این	8944
انڈ	8945
పోవడ	8946
##ine	8947
లితాల	8948
tty	8949
air	8950
సిపల్	8951
##ندر	8952
గించే	8953
مودی	8954
boss	8955
وجہ	8956
చరిత	8957
بتایا	8958
ama	8959
age	8960
id	8961
jana	8962
nk	8963
sing	8964
ter	8965
آپ	8966
آند	8967
عم	8968
مش	8969
نامی	8970
یوں	8971
ఏవి	8972
ఐస	8973
గరం	8974
జాయ	8975
పరు	8976
వయో	8977
వచ్	8978
సరం	8979
ెప్ట	8980
్గి	8981
##قت	8982
##لو	8983
##ne	8984
##مون	8985
##اح	8986
లోమ	8987
రెక్	8988
తోక	8989
పెరి	8990
నేషన	8991
ుతా	8992
వేప	8993
కొద	8994
ికప	8995
శాడు	8996
రుద్	8997
ండె	8998
్టుల	8999
ారిం	9000
జాం	9001
రైల	9002
ంచక	9003
డుగ	9004
నంతర	9005
121	9006
ిదం	9007
్నారు	9008
ీడర్	9009
317	9010
##یڈی	9011
nai	9012
లిచి	9013
bhas	9014
రువాత	9015
متعلق	9016
gandh	9017
مسلم	9018
ترج	9019
تھے	9020
مدد	9021
viral	9022
క‌థ	9023
01	9024
be	9025
ge	9026
nna	9027
om	9028
wo	9029
بے	9030
دہ	9031
سام	9032
شا	9033
نام	9034
نظر	9035
وار	9036
گا	9037
یت	9038
तो	9039
ଆମ	9040
ଆସ	9041
ఘట్	9042
రయి	9043
లపా	9044
శత	9045
ాపా	9046
్జె	9047
##rtc	9048
##جن	9049
##نت	9050
##نچ	9051
##fi	9052
కుట	9053
్రత్య	9054
కిత	9055
సారు	9056
ందిక	9057
ంటార	9058
యూటీ	9059
సుఖ	9060
టివ	9061
ండియ	9062
రిగే	9063
్లాడ	9064
సోషల	9065
తుంది	9066
114	9067
147	9068
ిచ్చా	9069
164	9070
న్నాడ	9071
rao	9072
raja	9073
##اری	9074
్శి	9075
ine	9076
کرک	9077
کررہ	9078
్దం	9079
vish	9080
తపన	9081
bala	9082
ریورس	9083
day	9084
ویب	9085
tube	9086
انتخ	9087
gpt	9088
وزیر	9089
لیکن	9090
తువుల	9091
02	9092
2లో	9093
aa	9094
bc	9095
cs	9096
et	9097
ist	9098
ika	9099
nri	9100
ple	9101
pre	9102
tc	9103
wal	9104
بک	9105
صدر	9106
ٹری	9107
کئی	9108
एक	9109
ଅଧ	9110
ନେଇ	9111
ଫଟ	9112
ఉషా	9113
ఓజీ	9114
దవి	9115
నప్	9116
పల్	9117
బత	9118
బుత	9119
భివ	9120
రధ	9121
ావిస	9122
ేఖర	9123
ౌస	9124
##dc	9125
##nl	9126
##اج	9127
##ty	9128
##fc	9129
తోన్న	9130
కేవ	9131
ికారి	9132
క్రమా	9133
జాబ	9134
పూత	9135
బీబ	9136
యిస	9137
ిచార	9138
లీవ	9139
106	9140
ాళ్	9141
దశల	9142
బ్బంద	9143
ర్జి	9144
రజత	9145
దుకో	9146
280	9147
ఆటా	9148
ూపర్	9149
ీపంలో	9150
365	9151
ురువ	9152
chat	9153
chir	9154
movi	9155
ుగ్గు	9156
##راد	9157
ించాడ	9158
kap	9159
shar	9160
جانے	9161
جانچ	9162
్టెన్	9163
انہیں	9164
bigg	9165
konda	9166
واقعہ	9167
تمام	9168
ktr	9169
ترجمہ	9170
ଫଟୋ	9171
07	9172
cr	9173
ct	9174
fe	9175
vo	9176
wha	9177
اری	9178
با	9179
خو	9180
دھ	9181
لڑک	9182
گو	9183
ہور	9184
یان	9185
ఈస	9186
ఏ1	9187
ఏఏ	9188
కష	9189
కచ్	9190
థాయి	9191
దత్	9192
నద	9193
నట్ట	9194
నబీ	9195
యష్	9196
లర్ల	9197
ాష్ట	9198
ొదల	9199
ొటో	9200
ಸಹ	9201
##ٹا	9202
##ng	9203
##بل	9204
##si	9205
##جود	9206
##pa	9207
##mu	9208
##ji	9209
##شت	9210
##ఫా	9211
్రాయ	9212
రానిక	9213
ికార్	9214
ల్లీల	9215
ట్టడం	9216
చాలని	9217
ితర	9218
ఇవ్వడ	9219
ుపత్ర	9220
జిస్	9221
వైరల	9222
టోల	9223
అయన	9224
ోహ్	9225
ోహన్	9226
్తున	9227
190	9228
کریں	9229
naga	9230
net	9231
##لیٹ	9232
పశు	9233
##لاف	9234
గళూరు	9235
ریل	9236
ఎకో	9237
త్మక	9238
బీజేప	9239
cau	9240
sid	9241
lok	9242
loke	9243
موجود	9244
book	9245
karna	9246
دوس	9247
raji	9248
with	9249
تیار	9250
تلنگ	9251
حالیہ	9252
bsnl	9253
దాదా	9254
پتہ	9255
مضمون	9256
థాయిల	9257
04	9258
ak	9259
dha	9260
ea	9261
han	9262
ir	9263
lu	9264
lts	9265
ml	9266
nare	9267
pi	9268
sbi	9269
ven	9270
اہ	9271
اگر	9272
بات	9273
ذری	9274
ریڈی	9275
سیا	9276
لیڈ	9277
مر	9278
پھی	9279
یشن	9280
ఈఓ	9281
గై	9282
ఘడ్	9283
బజ్	9284
యాల్	9285
ళ్య	9286
వారా	9287
షర్మ	9288
##el	9289
##ہر	9290
్రొ	9291
్రిత	9292
పుట	9293
డాని	9294
జగన	9295
్పం	9296
కావడ	9297
ిరుమ	9298
ేషన	9299
ఇటీవ	9300
157	9301
124	9302
ేదా	9303
116	9304
దర్యా	9305
191	9306
rat	9307
మధ్	9308
وائی	9309
پیغ	9310
550	9311
kavi	9312
taka	9313
ipc	9314
ٹیم	9315
్మెంట	9316
one	9317
روپ	9318
##ومت	9319
یکل	9320
shiva	9321
کردہ	9322
mahe	9323
very	9324
حکومت	9325
polls	9326
రథం	9327
singh	9328
ذریع	9329
00	9330
08	9331
car	9332
fo	9333
my	9334
pal	9335
ry	9336
sd	9337
sea	9338
ua	9339
تی	9340
تے	9341
جگ	9342
خلاف	9343
فیس	9344
مج	9345
نا	9346
ووٹ	9347
ٹک	9348
کت	9349
گم	9350
ଅଭ	9351
ଓଟ	9352
ନି	9353
ఓవ	9354
ఓపీ	9355
ఛలో	9356
జమా	9357
డాన	9358
దహ	9359
దికి	9360
మ‌	9361
ల్యే	9362
సర్ల	9363
హక్క	9364
హజ్	9365
ిశ్	9366
##قہ	9367
##وک	9368
##sc	9369
##hi	9370
##bha	9371
##fo	9372
##صل	9373
కువ	9374
చేయను	9375
ుకె	9376
అవకా	9377
ల్న	9378
్రాక్	9379
కరా	9380
కరె	9381
డులు	9382
గిస్త	9383
్లక	9384
గ్రహా	9385
113	9386
్నాం	9387
కథా	9388
ంటివ	9389
288	9390
##adu	9391
ికెట	9392
انک	9393
ీసర్	9394
రాబా	9395
కమై	9396
దుబా	9397
star	9398
ోతుంద	9399
del	9400
షనర	9401
మయంలో	9402
پاکس	9403
డ్జెట	9404
train	9405
دنوں	9406
ستان	9407
ఆందోళ	9408
ghmc	9409
فارم	9410
کررہے	9411
whats	9412
لیڈر	9413
گمراہ	9414
ନିଜ	9415
1లో	9416
ath	9417
bra	9418
cy	9419
cp	9420
kg	9421
nic	9422
nce	9423
rbi	9424
ui	9425
ائی	9426
بلک	9427
خات	9428
رنگ	9429
زب	9430
سنگ	9431
سابق	9432
عام	9433
پلیٹ	9434
گے	9435
ھی	9436
ఏజీ	9437
ఏడీ	9438
ఐటి	9439
చడ	9440
డకు	9441
తక్	9442
పయోగ	9443
శించ	9444
షూ	9445
ూవీ	9446
ెచ	9447
##ٹس	9448
##می	9449
##ایت	9450
##ca	9451
##ڈو	9452
్రజ	9453
పెట్	9454
సీఏ	9455
అవు	9456
చిప	9457
లిద	9458
రేం	9459
పడక	9460
టును	9461
్కొ	9462
రావడ	9463
ట్టిం	9464
149	9465
ుత్వా	9466
132	9467
225	9468
ఎందు	9469
హిళా	9470
ాశి	9471
న్నాం	9472
##ائد	9473
అనంతర	9474
ఎదో	9475
ేశాడ	9476
శోభ	9477
75వ	9478
ష్కరి	9479
రబా	9480
ther	9481
ిధిలో	9482
tsrtc	9483
nia	9484
ipho	9485
్టెం	9486
శకం	9487
ung	9488
emb	9489
شروع	9490
بہت	9491
بلکہ	9492
06	9493
aq	9494
g20	9495
mb	9496
min	9497
odi	9498
sk	9499
آنے	9500
عو	9501
عن	9502
ملی	9503
مندر	9504
लि	9505
ଏନ	9506
కనీ	9507
కమల	9508
దఫా	9509
పీస	9510
భజన	9511
మడి	9512
రశ్	9513
సిన	9514
ెనీ	9515
ొలి	9516
##رف	9517
##ep	9518
##జం	9519
లోయ	9520
ించక	9521
స్తర	9522
మాడ	9523
రిస్థ	9524
ప్పడ	9525
తీర్ప	9526
భామ	9527
లిం	9528
తాలో	9529
మిటీ	9530
ాజర	9531
రీన	9532
క్షల	9533
బెట్	9534
ువగా	9535
బోతు	9536
్లాడు	9537
ాపూర	9538
యోల	9539
159	9540
ర్టి	9541
ర్చుక	9542
112	9543
ోకే	9544
ిసెంబ	9545
134	9546
ెట్టా	9547
rea	9548
ఆపే	9549
انگ	9550
ధులు	9551
tem	9552
teja	9553
్టీలు	9554
sho	9555
రుకున	9556
sai	9557
nika	9558
##دید	9559
ివాద	9560
water	9561
టించా	9562
nkar	9563
దహన	9564
زبان	9565
embly	9566
a1	9567
ec	9568
fic	9569
if	9570
irc	9571
jan	9572
ki	9573
lme	9574
ty	9575
xi	9576
xలో	9577
آب	9578
از	9579
تک	9580
تعلق	9581
جی	9582
خط	9583
زیاد	9584
شش	9585
فیک	9586
مم	9587
مذ	9588
نش	9589
ଆକ	9590
అటూ	9591
ఆలీ	9592
ఆజం	9593
ఇటూ	9594
ఐబీ	9595
దక్ష	9596
పత్త	9597
యప్	9598
శిక	9599
హను	9600
ివిధ	9601
ోదు	9602
్డా	9603
ಅವ	9604
##وپ	9605
##لس	9606
##nd	9607
##ut	9608
##sp	9609
##cc	9610
##زار	9611
##tm	9612
##mr	9613
ాలయా	9614
్రత్	9615
్రేమ	9616
సిల్	9617
సీమ	9618
దాఖ	9619
కలల	9620
ఉండాల	9621
యాత	9622
యాచ	9623
తాన్	9624
ఎంఏ	9625
వీ6	9626
డ్స	9627
బీఏ	9628
్పాల	9629
ిమర్	9630
్లతో	9631
యంత్	9632
ిరుద్	9633
జేప	9634
ోగ్య	9635
రచన	9636
ెలియ	9637
దోమ	9638
270	9639
کام	9640
کرنا	9641
nam	9642
పోవడం	9643
ted	9644
తృత	9645
cour	9646
ఆరవ	9647
sama	9648
650	9649
ers	9650
تصدی	9651
sur	9652
والا	9653
ష్మి	9654
mila	9655
dis	9656
దైవ	9657
way	9658
karth	9659
فرو	9660
ایسا	9661
کردیا	9662
ٹوئ	9663
varma	9664
ಇದೇ	9665
మండిప	9666
چینل	9667
گردش	9668
ఈసార	9669
000	9670
ಅವರ	9671
تصدیق	9672
3లో	9673
aj	9674
ash	9675
dr	9676
gy	9677
hm	9678
ide	9679
kan	9680
ly	9681
sre	9682
wea	9683
اؤ	9684
اش	9685
جم	9686
دس	9687
دے	9688
رڈ	9689
فری	9690
لے	9691
لیا	9692
وقت	9693
ٹائ	9694
پورٹ	9695
چھ	9696
چند	9697
کئے	9698
ہر	9699
दे	9700
ଏଭ	9701
ଏଥ	9702
ఊసే	9703
ఏబీ	9704
ఐతే	9705
ఒడి	9706
చలో	9707
జైన	9708
ధ్వర	9709
నత	9710
బద్	9711
సప	9712
ావేశ	9713
్పో	9714
‌లో	9715
##وان	9716
##nr	9717
##ul	9718
##ck	9719
##تال	9720
##ضح	9721
##ثر	9722
విం	9723
లేత	9724
కోక	9725
నేష	9726
సిబ	9727
దాత	9728
రులు	9729
్వయ	9730
ంగళ	9731
జీ5	9732
రీవా	9733
రీరా	9734
ల్లోక	9735
లెం	9736
క్టర	9737
ాంకు	9738
ియాలో	9739
్టేషన	9740
123	9741
126	9742
127	9743
ంద్రం	9744
కూటమ	9745
181	9746
ేందుక	9747
138	9748
162	9749
167	9750
డుతో	9751
199	9752
ద్రం	9753
##وری	9754
దలై	9755
anu	9756
మాన్య	9757
ర్శన	9758
chai	9759
ریلی	9760
moha	9761
ఇషా	9762
shah	9763
واضح	9764
cap	9765
بیچ	9766
جھنڈ	9767
్కుల	9768
سکتے	9769
تلگو	9770
رکھ	9771
لگا	9772
otp	9773
ీసుకె	9774
naidu	9775
لڑکی	9776
سنگھ	9777
court	9778
ag	9779
aw	9780
ast	9781
by	9782
dge	9783
gst	9784
ju	9785
ps	9786
rth	9787
sl	9788
sth	9789
zon	9790
اخ	9791
اون	9792
بنا	9793
تیل	9794
چاہ	9795
ہزار	9796
यह	9797
అట	9798
అఫ్	9799
ఈగ	9800
ఉల్	9801
గంప	9802
గరా	9803
జిల్ల	9804
నవీ	9805
పల్ల	9806
పరం	9807
మలి	9808
యద	9809
వయా	9810
షుల	9811
ాంట్	9812
ోతో	9813
##لع	9814
##مبر	9815
##زر	9816
నుం	9817
్రతి	9818
లేజ	9819
నానిక	9820
పోయా	9821
వేలు	9822
దిస	9823
జీ7	9824
ైనల్	9825
క్షకు	9826
రైవ	9827
పిటి	9828
పీట	9829
ిజర	9830
ంజయ్	9831
భారతీ	9832
ుండట	9833
ాపార	9834
తుల్ల	9835
122	9836
142	9837
210	9838
انٹر	9839
##الے	9840
##لیک	9841
హంస	9842
##sta	9843
ిధిల	9844
ోతున	9845
امری	9846
రులను	9847
##دیل	9848
media	9849
ارے	9850
priya	9851
icc	9852
ఏఈఈ	9853
تبدیل	9854
ంగ్రె	9855
ریاست	9856
پھر	9857
انڈیا	9858
جگہ	9859
మ‌న	9860
రాబాద	9861
عنوان	9862
فروخت	9863
4జీ	9864
der	9865
fb	9866
gar	9867
gen	9868
hu	9869
io	9870
lg	9871
l1	9872
mla	9873
ns	9874
nka	9875
pan	9876
sal	9877
sen	9878
sun	9879
ut	9880
اح	9881
دیو	9882
درم	9883
صرف	9884
مص	9885
مزی	9886
وف	9887
گاند	9888
कि	9889
ଜଣ	9890
ରୁ	9891
ఆమ	9892
ఈద్	9893
ఉష	9894
ఒత్త	9895
ఓసీ	9896
ఔరా	9897
కక	9898
కవల	9899
ఘం	9900
డదు	9901
డచ్	9902
దగా	9903
దలు	9904
దరా	9905
నట్	9906
భలే	9907
వకు	9908
శశ	9909
సనా	9910
ామాన	9911
ెంగళ	9912
ేర్క	9913
్ఞ	9914
##ni	9915
##es	9916
##ls	9917
##vo	9918
##نک	9919
కాను	9920
మాను	9921
రిల్	9922
్తిక	9923
వేం	9924
ల్సి	9925
రూప్	9926
ాబో	9927
తర్జ	9928
నీచ	9929
పిటల	9930
బులు	9931
ర్షా	9932
్మన్	9933
ంబ్ల	9934
ావాల	9935
ేటర	9936
ిరస	9937
క్షిం	9938
117	9939
తొలగి	9940
ంభం	9941
ల్పి	9942
అపర	9943
233	9944
260	9945
వహా	9946
ایپ	9947
انا	9948
##one	9949
ana	9950
ہوں	9951
ہوتا	9952
కోవడం	9953
nder	9954
maha	9955
్లుగ	9956
ami	9957
ame	9958
sabha	9959
tam	9960
హమీ	9961
usa	9962
dia	9963
جارہی	9964
ملے	9965
##lly	9966
طرف	9967
منظر	9968
cide	9969
معامل	9970
ias	9971
پڑتال	9972
tgs	9973
ayo	9974
سائٹ	9975
خوات	9976
लिए	9977
irctc	9978
فریم	9979
تیلگو	9980
مزید	9981
ేర్కొ	9982
--	9983
af	9984
ft	9985
fli	9986
fir	9987
her	9988
kunt	9989
mic	9990
nu	9991
ore	9992
الیک	9993
جہ	9994
فوج	9995
قریب	9996
مال	9997
وڈ	9998
کار	9999
ہینڈ	10000
ఇట	10001
ఏస	10002
చట్	10003
తలా	10004
ధృ	10005
మఠ	10006
మలు	10007
వనం	10008
హగ్	10009
ావే	10010
ుపో	10011
ేయా	10012
ేదీ	10013
##وت	10014
##rf	10015
##مد	10016
##اخ	10017
##تر	10018
##tv	10019
ాలన్	10020
కుమా	10021
ర్ణాట	10022
కిస	10023
రెసి	10024
సంప్ర	10025
నాశ	10026
వేస్	10027
వేడు	10028
గుహ	10029
ందో	10030
ందిన	10031
కలత	10032
కలప	10033
ప్పట	10034
యానిక	10035
తాజ	10036
ాజె	10037
ంగం	10038
ారిత	10039
జీఓ	10040
జనన	10041
్పక	10042
్పి	10043
్చిన	10044
సేద	10045
బోడ	10046
్లను	10047
గోస	10048
యోజ	10049
204	10050
ేయాల	10051
302	10052
148	10053
50వ	10054
کیے	10055
ోహిత	10056
ంధా	10057
186	10058
136	10059
172	10060
171	10061
17ఏ	10062
163	10063
166	10064
219	10065
ాశం	10066
rep	10067
235	10068
299	10069
ీఎస	10070
may	10071
gop	10072
path	10073
##لاب	10074
గనక	10075
##lus	10076
nts	10077
deep	10078
vam	10079
720	10080
face	10081
జతల	10082
kalva	10083
sim	10084
orr	10085
isro	10086
ica	10087
ابات	10088
بارش	10089
raju	10090
atm	10091
wife	10092
جاس	10093
evm	10094
rcb	10095
cric	10096
دہلی	10097
bcci	10098
brah	10099
آباد	10100
ٹوئٹر	10101
ayodh	10102
ధృవ	10103
au	10104
av	10105
aus	10106
cb	10107
dan	10108
gad	10109
ib	10110
ice	10111
ker	10112
line	10113
mer	10114
np	10115
os	10116
pl	10117
pha	10118
win	10119
آف	10120
اگ	10121
اعل	10122
بائ	10123
تج	10124
تلا	10125
حل	10126
حص	10127
سیک	10128
شک	10129
شد	10130
وری	10131
کلی	10132
کتا	10133
जी	10134
ଆଇ	10135
ଓର	10136
అద్	10137
ఆలా	10138
ఏపి	10139
కసి	10140
చను	10141
తనే	10142
దమ	10143
పనీ	10144
ఫన్	10145
యణ	10146
ూస్త	10147
##do	10148
##سر	10149
##بئی	10150
##من	10151
##دا	10152
##to	10153
##my	10154
##ରେ	10155
##wa	10156
నికు	10157
కుజ	10158
విగ	10159
విగ్ర	10160
విగ్	10161
స్తే	10162
మాఘ	10163
రిధి	10164
ఉన్నప	10165
కొట	10166
ప్పిన	10167
ఉంటార	10168
్వీట	10169
సెప	10170
అభయ	10171
జీనా	10172
చాలన	10173
ుకుం	10174
్పత్ర	10175
్పిన	10176
ిజా	10177
ాగం	10178
ప్లాన	10179
ుందు	10180
్వామ	10181
ుపతి	10182
శిం	10183
బడే	10184
్సర్	10185
256	10186
182	10187
ఆసుప	10188
174	10189
165	10190
ముఖ్	10191
ెలిసి	10192
ెప్పి	10193
rash	10194
పరమ	10195
ایش	10196
రఫా	10197
శాలల	10198
ఏడవ	10199
pat	10200
##رین	10201
జ్రాయ	10202
sala	10203
టనలో	10204
##ens	10205
cho	10206
పించే	10207
ంఘం	10208
دیگر	10209
543	10210
##ابل	10211
ూజి	10212
mega	10213
dai	10214
ort	10215
سیلاب	10216
led	10217
leo	10218
cmo	10219
متن	10220
epfo	10221
open	10222
بڑے	10223
گھر	10224
اعلی	10225
रहा	10226
ఆందో	10227
تقریب	10228
عمل	10229
జాబి	10230
hanu	10231
پھیلا	10232
ذریعے	10233
عوام	10234
بنایا	10235
اعلان	10236
تلاش	10237
నికుల	10238
4g	10239
adi	10240
bb	10241
dar	10242
fin	10243
gee	10244
gram	10245
ig	10246
ial	10247
ish	10248
jn	10249
kram	10250
ll	10251
lp	10252
mon	10253
nh	10254
pur	10255
plus	10256
rtc	10257
sms	10258
tr	10259
xy	10260
آیا	10261
اج	10262
اض	10263
باب	10264
تف	10265
جل	10266
جون	10267
جیس	10268
حا	10269
ذا	10270
راہ	10271
سین	10272
شہر	10273
ضلع	10274
لینڈ	10275
نوٹ	10276
نتی	10277
پانی	10278
چی	10279
چیک	10280
یش	10281
जा	10282
ଆପ	10283
ఓయో	10284
ఔర్	10285
కసారి	10286
ఘర్	10287
జపం	10288
టిన	10289
డణ	10290
డడం	10291
థు	10292
మకా	10293
యంప	10294
రబీ	10295
ళూరు	10296
ిద్య	10297
ూడా	10298
ృద్	10299
ృష్ణ	10300
##رب	10301
##قد	10302
##وف	10303
##is	10304
##ڑے	10305
##lv	10306
##پر	10307
##ber	10308
##cs	10309
##pe	10310
##علی	10311
##we	10312
##జి	10313
కున్	10314
##తిర	10315
నామి	10316
ముగ్గ	10317
మెం	10318
ల్లడి	10319
దీనిక	10320
ందన్న	10321
దిస్త	10322
మేత	10323
యారు	10324
్టా	10325
అంటు	10326
ెలం	10327
బిల్ల	10328
ఇవీ	10329
ువ్	10330
ుందే	10331
్టేట	10332
సాధార	10333
్రిల	10334
ఇలాంట	10335
205	10336
153	10337
చుకు	10338
143	10339
146	10340
విధా	10341
245	10342
వాల్స	10343
185	10344
188	10345
ోమీ	10346
కథే	10347
195	10348
194	10349
శేఖ	10350
215	10351
234	10352
ఆపద	10353
అదో	10354
##الی	10355
బందుల	10356
320	10357
340	10358
jay	10359
sup	10360
sure	10361
##ily	10362
kash	10363
سرک	10364
mika	10365
بھر	10366
prasa	10367
isra	10368
హారాష	10369
ہندی	10370
eng	10371
high	10372
soci	10373
ssc	10374
trai	10375
گروپ	10376
مقام	10377
مہم	10378
ستمبر	10379
గుతు	10380
افراد	10381
रहे	10382
جاتا	10383
nani	10384
rains	10385
ଆମେ	10386
دوسرے	10387
سیاسی	10388
ుకెళ	10389
tamil	10390
!!	10391
),	10392
can	10393
dri	10394
dil	10395
ey	10396
gir	10397
hz	10398
iv	10399
ima	10400
je	10401
ky	10402
ket	10403
per	10404
rg	10405
ric	10406
sar	10407
ug	10408
آگ	10409
اٹ	10410
بس	10411
بغ	10412
بند	10413
تاہ	10414
جائے	10415
حو	10416
روں	10417
سڑک	10418
شرم	10419
ظاہر	10420
عہ	10421
فون	10422
لک	10423
لنک	10424
مک	10425
مظ	10426
مئی	10427
متا	10428
منی	10429
پس	10430
یری	10431
یون	10432
इस	10433
कर	10434
हो	10435
ଆଉ	10436
ଏପ	10437
ంబ్	10438
ఈషా	10439
ఎర	10440
ఏ2	10441
జయా	10442
ఢి	10443
పనే	10444
భించ	10445
రభ	10446
రగా	10447
రయ్	10448
ుమాన	10449
ూర్చ	10450
ಅದ	10451
ನಟ	10452
ಮೂ	10453
##وس	10454
##وڈ	10455
##لب	10456
##دم	10457
##lf	10458
##ger	10459
##bh	10460
##bb	10461
##cu	10462
##cp	10463
##جے	10464
##زہ	10465
##نس	10466
##ظم	10467
##ks	10468
##ksh	10469
##mo	10470
##صیل	10471
నివా	10472
కునే	10473
చెప	10474
ందికి	10475
దివార	10476
మేధ	10477
వైఎ	10478
మీపం	10479
చింది	10480
చించి	10481
టీమ	10482
మహత	10483
జీఐ	10484
మనో	10485
లీజ్	10486
బయటక	10487
ంబై	10488
201	10489
ాధించ	10490
్నించ	10491
కనక	10492
178	10493
168	10494
228	10495
ూడాల	10496
కథల	10497
్ధా	10498
197	10499
జులు	10500
ర్పు	10501
##ورڈ	10502
దోష	10503
దోశ	10504
all	10505
alert	10506
انسٹ	10507
time	10508
visa	10509
tej	10510
354	10511
col	10512
count	10513
ోట్లు	10514
ఫలం	10515
330	10516
్గర	10517
رین	10518
amer	10519
jai	10520
nta	10521
des	10522
دینے	10523
late	10524
నారాయ	10525
جسے	10526
ysr	10527
اپنا	10528
واٹس	10529
loc	10530
ిషనర	10531
منٹ	10532
ుంబా	10533
پہنچ	10534
band	10535
تیاب	10536
دنیا	10537
quor	10538
مقامی	10539
بڑھ	10540
تباہ	10541
اعظم	10542
حمایت	10543
مبلی	10544
jio	10545
کلپ	10546
మాచా	10547
wood	10548
movie	10549
mlc	10550
aqi	10551
فیکٹ	10552
hmda	10553
ہینڈل	10554
మఠం	10555
plan	10556
تفصیل	10557
تاہم	10558
متاثر	10559
ಮೂಲ	10560
ate	10561
bm	10562
bus	10563
cw	10564
dm	10565
ew	10566
ef	10567
get	10568
ie	10569
kk	10570
kur	10571
lt	10572
lic	10573
mus	10574
nha	10575
pv	10576
pho	10577
para	10578
ser	10579
tor	10580
val	10581
الا	10582
اوم	10583
بین	10584
باہر	10585
تن	10586
تان	10587
تین	10588
تاری	10589
جعلی	10590
داخ	10591
رس	10592
رائ	10593
ریو	10594
ساح	10595
غزہ	10596
فلم	10597
منا	10598
معل	10599
نس	10600
ند	10601
وگر	10602
अब	10603
ये	10604
लो	10605
ଅଞ	10606
ବର	10607
అబు	10608
ఆచ	10609
ఇచ్	10610
ఈవ్	10611
ఎప్	10612
ధనం	10613
రశ	10614
రతి	10615
వడా	10616
ెరు	10617
##وہ	10618
##بہ	10619
##مل	10620
##اؤ	10621
##sf	10622
##جر	10623
##نم	10624
##تح	10625
##pl	10626
##mb	10627
##fx	10628
##ఘా	10629
##ାଇ	10630
##ିଏ	10631
్యక్ర	10632
మాలో	10633
ులప	10634
క్ష్	10635
కూన	10636
రింద	10637
రింది	10638
రిత్	10639
నేంద	10640
డిప్	10641
లాంట	10642
ందరిక	10643
మిగ	10644
మిత	10645
ాజే	10646
మూక	10647
్టో	10648
యూఐ	10649
తిత	10650
మ్మం	10651
ళ్లక	10652
యుడ	10653
ిజర్	10654
్లప	10655
చోళ	10656
ఆలూ	10657
వుతో	10658
202	10659
209	10660
స్తార	10661
152	10662
158	10663
154	10664
ిరె	10665
303	10666
141	10667
ోహన	10668
242	10669
241	10670
్తుం	10671
వలె	10672
183	10673
131	10674
137	10675
173	10676
177	10677
బ్బం	10678
మలం	10679
214	10680
ర్పా	10681
275	10682
272	10683
గులక	10684
ایڈ	10685
ins	10686
insta	10687
کرتا	10688
##الک	10689
naya	10690
పతక	10691
ుతున	10692
tec	10693
గేయ	10694
్టీల	10695
goe	10696
amba	10697
pol	10698
sams	10699
امتح	10700
دیتے	10701
suv	10702
##ill	10703
vast	10704
mim	10705
kalki	10706
org	10707
acb	10708
rukh	10709
950	10710
##عدد	10711
77వ	10712
یوزر	10713
##tta	10714
ుత్వం	10715
68వ	10716
ابی	10717
متعدد	10718
uni	10719
بنانے	10720
تحت	10721
##اکھ	10722
ائز	10723
apple	10724
امید	10725
చరిత్	10726
افسر	10727
paytm	10728
حملہ	10729
سمج	10730
ಇದು	10731
علاق	10732
فیص	10733
state	10734
جھوٹا	10735
سامنے	10736
شادی	10737
csk	10738
sidda	10739
روپئے	10740
uae	10741
اؤنٹ	10742
اونٹ	10743
ଜଣେ	10744
حاصل	10745
مظاہر	10746
معلوم	10747
ఆచి	10748
2తో	10749
3డీ	10750
8కి	10751
aga	10752
cn	10753
cl	10754
crea	10755
dk	10756
don	10757
eo	10758
gi	10759
ime	10760
kh	10761
nz	10762
nadu	10763
pin	10764
qr	10765
rj	10766
rana	10767
ud	10768
vv	10769
vfx	10770
wtc	10771
ycp	10772
اق	10773
اظ	10774
بیو	10775
تہ	10776
تش	10777
تانی	10778
جرم	10779
جیت	10780
حی	10781
رق	10782
شم	10783
قبل	10784
نٹ	10785
نم	10786
نع	10787
نوم	10788
ٹوی	10789
ٹھی	10790
پٹ	10791
چر	10792
چار	10793
یات	10794
सा	10795
ଏଆ	10796
ପରେ	10797
ବହ	10798
ହୋ	10799
చవ	10800
చనా	10801
డమ్	10802
థాన	10803
దంత	10804
దమ్	10805
వశ	10806
శైవ	10807
షకు	10808
ొన్	10809
‌ను	10810
##یٹ	10811
##یم	10812
##nu	10813
##za	10814
##ol	10815
##co	10816
##pf	10817
##tu	10818
##عقد	10819
##فر	10820
##jri	10821
రాన్న	10822
్యతిర	10823
పెష	10824
్తర	10825
పాయల	10826
డించి	10827
సీఈ	10828
సమ్	10829
రుమల	10830
చ్చర	10831
మిం	10832
ీజన్	10833
పాల్ప	10834
ిపోర	10835
రేలి	10836
్కడ	10837
పొత్త	10838
రణా	10839
ప్ష	10840
చేసిం	10841
బీఆ	10842
ంచగ	10843
ంతంగ	10844
ేశార	10845
గంటలక	10846
మ్స	10847
ుందన్	10848
ేసుల	10849
్రీక	10850
సొన	10851
జెం	10852
చీమ	10853
156	10854
వేశా	10855
బహు	10856
259	10857
ేందు	10858
169	10859
221	10860
227	10861
ోగ్యం	10862
ఈరోజ	10863
అలల	10864
196	10865
212	10866
ువులు	10867
##ard	10868
262	10869
266	10870
267	10871
rath	10872
312	10873
انس	10874
inter	10875
کرین	10876
کرتی	10877
##الب	10878
nal	10879
vind	10880
new	10881
ndia	10882
ndtv	10883
tti	10884
maa	10885
mai	10886
ریٹ	10887
ster	10888
ams	10889
saj	10890
ఫేం	10891
پیم	10892
پیج	10893
380	10894
امب	10895
399	10896
్యతల	10897
mots	10898
baby	10899
tala	10900
vai	10901
##tch	10902
sec	10903
بیٹ	10904
روز	10905
cet	10906
rolo	10907
mani	10908
manch	10909
منت	10910
منعقد	10911
پاس	10912
your	10913
gala	10914
game	10915
ncr	10916
bang	10917
bandh	10918
cid	10919
cisf	10920
بنیاد	10921
میچ	10922
آرٹ	10923
opp	10924
scam	10925
varun	10926
بنگلو	10927
kejri	10928
sande	10929
bhu	10930
مارک	10931
srh	10932
مبین	10933
جاتے	10934
نکالے	10935
pib	10936
cyc	10937
kgf	10938
janh	10939
نشان	10940
देश	10941
mohan	10942
جھنڈے	10943
رکھنے	10944
శశి	10945
tgsr	10946
్పింద	10947
npci	10948
ریونت	10949
ଏଆଇ	10950
ହୋଇ	10951
వశం	10952
4లో	10953
7లో	10954
ae	10955
ara	10956
ava	10957
bir	10958
bro	10959
cbi	10960
cng	10961
dd	10962
dh	10963
dsc	10964
ema	10965
emi	10966
eci	10967
gs	10968
gha	10969
hin	10970
hca	10971
jr	10972
kw	10973
ls	10974
lb	10975
lad	10976
lone	10977
madh	10978
ny	10979
nm	10980
nor	10981
ori	10982
pw	10983
tru	10984
tro	10985
ush	10986
upsc	10987
vy	10988
xl	10989
xia	10990
آد	10991
آج	10992
آغ	10993
بورڈ	10994
جائ	10995
رٹ	10996
زائد	10997
سل	10998
سس	10999
شدید	11000
طوف	11001
غیر	11002
فوٹ	11003
قسم	11004
لاکھ	11005
وک	11006
ونی	11007
پل	11008
چم	11009
چہ	11010
ڈر	11011
کس	11012
ہاتھ	11013
یم	11014
یف	11015
हु	11016
ही	11017
ଆଯ	11018
ଙ୍	11019
ଦି	11020
ఉర్	11021
ఊతం	11022
ఏస్	11023
చౌ	11024
డడ	11025
నవల	11026
మజా	11027
లజ	11028
లతా	11029
వంబ	11030
హమ్	11031
ావత	11032
ిలు	11033
ెద్ద	11034
ైని	11035
ోకి	11036
##ోల	11037
##وڑ	11038
##واز	11039
##oo	11040
##ిం	11041
##ec	11042
##ys	11043
##جد	11044
##جا	11045
##زا	11046
##نوع	11047
##pc	11048
##షు	11049
##ky	11050
##ఖి	11051
##فت	11052
##شم	11053
##ذا	11054
నున	11055
నించ	11056
్రగ	11057
్రబ	11058
రెక	11059
తోన్	11060
లేజీ	11061
సిఐ	11062
సీబ	11063
గున	11064
గుణ	11065
ామక	11066
బాయ	11067
న్నాన	11068
పేడ	11069
పరిష్	11070
త్ని	11071
ట్లన	11072
యాప	11073
భావి	11074
వీణ	11075
జనవ	11076
స్పి	11077
క్కె	11078
ాడిన	11079
్పార	11080
్చార	11081
అమీ	11082
ూరుల	11083
ాచా	11084
సూచి	11085
వ్వడ	11086
ంబం	11087
ాధా	11088
506	11089
్నో	11090
255	11091
253	11092
244	11093
నుగోల	11094
టేష	11095
ఏమై	11096
133	11097
176	11098
్నాయి	11099
192	11100
198	11101
193	11102
ేతలు	11103
217	11104
ేటీఆర	11105
ెలిస	11106
దోస	11107
239	11108
rai	11109
##ارک	11110
##ارہ	11111
జయవ	11112
తారన	11113
బేల	11114
##raj	11115
గజం	11116
tics	11117
nave	11118
్దన	11119
్దత	11120
భరత	11121
45వ	11122
ోసార	11123
covi	11124
ిచిం	11125
ndar	11126
ttp	11127
గారె	11128
یہی	11129
pak	11130
##ریر	11131
329	11132
42వ	11133
stu	11134
ల్చి	11135
385	11136
##end	11137
##ent	11138
పించడ	11139
440	11140
moul	11141
్రులు	11142
kam	11143
fake	11144
ارہ	11145
640	11146
లిచా	11147
bhar	11148
riend	11149
షనక	11150
ిస్థి	11151
999	11152
road	11153
mano	11154
manda	11155
icmr	11156
لینے	11157
iii	11158
gane	11159
now	11160
مسجد	11161
لوگو	11162
asi	11163
qua	11164
سکتا	11165
కపట	11166
keer	11167
vande	11168
محمد	11169
mmts	11170
रही	11171
سمند	11172
trip	11173
لہذا	11174
mrun	11175
کرکٹ	11176
کرکے	11177
دھم	11178
ریلوے	11179
اہلک	11180
mini	11181
مذہ	11182
bye	11183
شدہ	11184
کلیدی	11185
نتیجے	11186
اٹھا	11187
kkr	11188
nhai	11189
داخل	11190
imei	11191
حیدر	11192
نومبر	11193
ବହୁ	11194
مبینہ	11195
ଙ୍କ	11196
చౌక	11197
2కు	11198
4తో	11199
8gb	11200
ari	11201
ada	11202
aadh	11203
cu	11204
cc	11205
cro	11206
dc	11207
eg	11208
eb	11209
est	11210
fss	11211
flo	11212
gro	11213
gunt	11214
hor	11215
hus	11216
ik	11217
kp	11218
kmp	11219
lens	11220
mg	11221
mc	11222
nb	11223
og	11224
omi	11225
pun	11226
pet	11227
rk	11228
rge	11229
swi	11230
tar	11231
um	11232
اڈ	11233
الہ	11234
بد	11235
باد	11236
ثاب	11237
حقی	11238
دون	11239
ریک	11240
رائی	11241
رائے	11242
زند	11243
شہ	11244
شری	11245
صح	11246
طیا	11247
قص	11248
قابل	11249
لا	11250
لڑ	11251
ما	11252
مچھ	11253
نظ	11254
نائ	11255
وس	11256
ویو	11257
پک	11258
چل	11259
کپ	11260
کھی	11261
یلی	11262
ऐस	11263
था	11264
सच	11265
ଅବ	11266
ଆନ	11267
ଇମ	11268
ଇଣ	11269
ଉଦ	11270
ଏଡ	11271
ంపీ	11272
అనా	11273
ఎస	11274
ఏ3	11275
ఏరో	11276
టాయ	11277
డక్	11278
తించ	11279
దవే	11280
నంలో	11281
నవ్	11282
పసి	11283
ఫార్	11284
భల	11285
రము	11286
రఖాస	11287
వస్	11288
వంలో	11289
సబా	11290
సఖి	11291
హలో	11292
ిర్మ	11293
ీమి	11294
ెరుగ	11295
ొడుక	11296
ౌలి	11297
ಜನ	11298
##حد	11299
##کت	11300
##کہ	11301
##no	11302
##at	11303
##دھ	11304
##hs	11305
##زام	11306
##نج	11307
##تم	11308
##ाम	11309
##je	11310
##گی	11311
##گا	11312
##شی	11313
##या	11314
లుస	11315
రిశ్	11316
్తగా	11317
పాట్	11318
ుతార	11319
కొంది	11320
ందుగ	11321
్యాణ	11322
దీంత	11323
శాస్	11324
డీఐ	11325
డాక్	11326
తాని	11327
ఎంఈ	11328
మూట	11329
తర్వ	11330
టించి	11331
్కన	11332
ళ్లల	11333
ిపక్	11334
తొడ	11335
ువక	11336
ర్థుల	11337
గిల్	11338
యోజక	11339
208	11340
206	11341
ముగ్	11342
155	11343
సరళ	11344
304	11345
్నూ	11346
గడల	11347
లీడర	11348
161	11349
చాప	11350
213	11351
రచా	11352
revi	11353
285	11354
238	11355
231	11356
274	11357
ణులు	11358
ald	11359
ali	11360
alli	11361
rama	11362
ایل	11363
294	11364
اندر	11365
پریس	11366
ాంగ్ర	11367
రఫీ	11368
దృష	11369
35వ	11370
neet	11371
neel	11372
##ئیٹ	11373
338	11374
323	11375
##یکس	11376
మ్మెల	11377
bach	11378
కదం	11379
376	11380
ریز	11381
comp	11382
comm	11383
ాలీవ	11384
jail	11385
jaya	11386
396	11387
پول	11388
رہنم	11389
lakh	11390
kaar	11391
vas	11392
toma	11393
met	11394
850	11395
usb	11396
mir	11397
caa	11398
case	11399
660	11400
ory	11401
روک	11402
live	11403
دودھ	11404
upda	11405
yogi	11406
پہلی	11407
pudi	11408
ڈیج	11409
bank	11410
گرف	11411
الزام	11412
spa	11413
ائل	11414
fire	11415
راج	11416
que	11417
vey	11418
veer	11419
بڑی	11420
تبص	11421
exp	11422
معذ	11423
గ‌ల	11424
kora	11425
ورڈ	11426
మడత	11427
malli	11428
جاتی	11429
علاقہ	11430
terr	11431
گوشت	11432
ہورہا	11433
ذریعہ	11434
ممبئی	11435
جمع	11436
ٹائم	11437
مصنوع	11438
ftl	11439
کارر	11440
تجاج	11441
حلال	11442
fina	11443
lpg	11444
اضاف	11445
بابو	11446
جیسے	11447
యంపై	11448
girlf	11449
jewe	11450
ಅದೇ	11451
تاریخ	11452
ٹویٹ	11453
sajja	11454
ଦିନ	11455
manoj	11456
quake	11457
ثابت	11458
حقیقی	11459
ریکا	11460
مچھلی	11461
%,	11462
):	11463
3d	11464
ao	11465
atta	11466
bn	11467
bho	11468
cent	11469
fd	11470
fy	11471
far	11472
fal	11473
fro	11474
gal	11475
gps	11476
itc	11477
jun	11478
ks	11479
km	11480
lc	11481
lx	11482
lal	11483
lade	11484
ok	11485
ow	11486
ola	11487
obc	11488
por	11489
sw	11490
sad	11491
tara	11492
vd	11493
vp	11494
xu	11495
yu	11496
yada	11497
zee	11498
آئے	11499
براہ	11500
تع	11501
تار	11502
جنگ	11503
خود	11504
خوب	11505
دل	11506
دسم	11507
ذر	11508
سچ	11509
ضمن	11510
عب	11511
قان	11512
لوڈ	11513
مین	11514
نق	11515
نت	11516
نوج	11517
نرین	11518
ٹار	11519
پان	11520
پیک	11521
چک	11522
چڑ	11523
ڈال	11524
ھیا	11525
ہلی	11526
ہلا	11527
یے	11528
یج	11529
गया	11530
ଅର	11531
ଅମ	11532
ଅଗ	11533
ଉତ	11534
ଏମ	11535
ଦେ	11536
ଯାଇ	11537
ంవ	11538
ఊహ	11539
ఓన్	11540
ఓలీ	11541
ఓజా	11542
గను	11543
గమ్	11544
చగా	11545
టఫ్	11546
ణంగ	11547
ద్యా	11548
ధంగా	11549
నసా	11550
బోగ	11551
యతి	11552
యక్ష	11553
రవేశ	11554
ూము	11555
ెడి	11556
ేత్త	11557
ైతు	11558
ొం	11559
్దే	11560
్ణా	11561
ಊಟ	11562
ದಿ	11563
##رہا	11564
##ربی	11565
##dra	11566
##حاد	11567
##دد	11568
##gu	11569
##gle	11570
##hli	11571
##ver	11572
##bo	11573
##تھ	11574
##tp	11575
##చే	11576
##fa	11577
##ft	11578
##ڈیو	11579
##ୋଟ	11580
##ఫీ	11581
లోహ	11582
ప్రస్	11583
కుటు	11584
్రారం	11585
గాధ	11586
్యకర	11587
ులన	11588
కోయ	11589
ిస్తు	11590
ముం	11591
ంగాణ	11592
డిపడ	11593
చేయడం	11594
దాక	11595
్యాహ	11596
్యాచ	11597
తనయ	11598
పరిధ	11599
తీగ	11600
టిగ	11601
పనిచే	11602
పింద	11603
పింది	11604
బీద	11605
ంతంగా	11606
ిగార	11607
ుండె	11608
్లం	11609
ఆధ్వ	11610
తలల	11611
203	11612
207	11613
ానున	11614
్డార	11615
్డిన	11616
మరల	11617
సౌధ	11618
503	11619
252	11620
258	11621
243	11622
లోకే	11623
189	11624
..!	11625
179	11626
229	11627
223	11628
409	11629
శేష	11630
211	11631
ఆగమ	11632
282	11633
265	11634
263	11635
అదా	11636
rate	11637
ragh	11638
ల్గొ	11639
ుధవార	11640
اینڈ	11641
310	11642
311	11643
295	11644
296	11645
ఆటల	11646
انج	11647
##ائل	11648
్తిని	11649
inr	11650
##ong	11651
ీశా	11652
##انس	11653
##انا	11654
ant	11655
tiger	11656
nag	11657
tea	11658
358	11659
##ril	11660
ہوتی	11661
shri	11662
cop	11663
వంశ	11664
nel	11665
pati	11666
##ریق	11667
##لاد	11668
333	11669
336	11670
324	11671
427	11672
april	11673
371	11674
commi	11675
ste	11676
sat	11677
sath	11678
پیدا	11679
38వ	11680
389	11681
jawan	11682
nith	11683
414	11684
41ఏ	11685
nte	11686
##راب	11687
lava	11688
540	11689
430	11690
560	11691
usd	11692
اتحاد	11693
535	11694
abha	11695
590	11696
miss	11697
cabi	11698
ٹیشن	11699
లిచిన	11700
act	11701
rish	11702
రమాణ	11703
840	11704
rol	11705
roy	11706
##عداد	11707
kart	11708
ిషనర్	11709
جبکہ	11710
دوب	11711
ారెడ్	11712
ngo	11713
కళల	11714
ity	11715
raje	11716
740	11717
soc	11718
ncy	11719
ncert	11720
good	11721
cont	11722
ssmb	11723
##قید	11724
city	11725
ترنگ	11726
تیان	11727
कोई	11728
dog	11729
مقد	11730
ٹوئیٹ	11731
dul	11732
گھوٹ	11733
مہار	11734
مہرب	11735
kohli	11736
درج	11737
trivi	11738
nanda	11739
ریاس	11740
hdfc	11741
ہوگا	11742
stat	11743
جھوٹے	11744
نیشن	11745
یٹل	11746
لائن	11747
لائبر	11748
idf	11749
aap	11750
pres	11751
ٹرین	11752
گولی	11753
venka	11754
palla	11755
athi	11756
agar	11757
pslv	11758
چاہئے	11759
ఆమే	11760
micha	11761
pathy	11762
اگست	11763
dary	11764
سینا	11765
rgv	11766
colle	11767
bmw	11768
cwc	11769
تنقید	11770
लोग	11771
تشدد	11772
پٹن	11773
साथ	11774
kamal	11775
kmph	11776
رائیل	11777
دسمبر	11778
ذرائع	11779
نوجو	11780
ہلاک	11781
కుటుం	11782
1ను	11783
br	11784
bp	11785
b1	11786
bar	11787
ber	11788
ble	11789
blo	11790
cct	11791
cgg	11792
cgi	11793
cert	11794
dy	11795
dra	11796
dna	11797
ei	11798
ear	11799
eme	11800
fan	11801
ips	11802
kir	11803
kana	11804
kia	11805
ld	11806
lea	11807
lee	11808
md	11809
mv	11810
mad	11811
mea	11812
mur	11813
mily	11814
nar	11815
non	11816
oo	11817
ou	11818
oce	11819
pad	11820
rch	11821
sj	11822
tq	11823
tal	11824
uv	11825
v6	11826
wan	11827
wer	11828
yes	11829
آن	11830
آش	11831
آٹا	11832
آواز	11833
ؤں	11834
اڑ	11835
بح	11836
بج	11837
بال	11838
باز	11839
براد	11840
تیر	11841
تاج	11842
تعداد	11843
خان	11844
ختم	11845
دک	11846
دف	11847
درا	11848
رے	11849
زد	11850
زور	11851
سزا	11852
شنا	11853
صور	11854
طلب	11855
عد	11856
علم	11857
غور	11858
قوم	11859
لج	11860
لائی	11861
لوک	11862
نیا	11863
ود	11864
واہ	11865
وامی	11866
پال	11867
پنی	11868
چن	11869
ڈاک	11870
کتے	11871
گز	11872
گرم	11873
گائے	11874
گجر	11875
ہٹا	11876
یل	11877
یع	11878
یور	11879
یلا	11880
आज	11881
थी	11882
बा	11883
या	11884
सभ	11885
हर	11886
ଅଫ	11887
ଆହ	11888
ଇତ	11889
ଉଠ	11890
କିଏ	11891
ଦଳ	11892
ଦେଇ	11893
ନା	11894
ମା	11895
ଯଦ	11896
ସେ	11897
అహ	11898
అనీ	11899
అరా	11900
ఇంగ్	11901
ఇజ్	11902
ఎడ్	11903
ఏరి	11904
ఓక	11905
ఓజి	11906
గయ	11907
గస్ట	11908
డంత	11909
తభ	11910
తఘ	11911
దుత	11912
నంగ	11913
నభా	11914
ఫతా	11915
భోగ	11916
మారి	11917
మవు	11918
మరా	11919
శమ	11920
శరం	11921
సబ	11922
స‌	11923
హతం	11924
ీయం	11925
ుపు	11926
ుప్ర	11927
ున్స	11928
ಈಗ	11929
ಮೇ	11930
ರೂ	11931
##కె	11932
##قل	11933
##ھے	11934
##وظ	11935
##ٹل	11936
##ugh	11937
##بت	11938
##ed	11939
##اق	11940
##اع	11941
##اں	11942
##sk	11943
##gy	11944
##تو	11945
##pm	11946
##షి	11947
##صر	11948
##ही	11949
##गर	11950
##िर	11951
నిచ్	11952
గాథ	11953
రెడ	11954
క్తు	11955
కోరు	11956
కోవా	11957
కేఈ	11958
ికాల	11959
దీం	11960
రుస్	11961
ప్పాల	11962
టీకి	11963
ట్టార	11964
తాట	11965
ోవాల్	11966
ఎంఐ	11967
వీఐ	11968
మూగ	11969
మూఢ	11970
్టిక	11971
టివి	11972
సూత	11973
ెలంగా	11974
నాయన	11975
బి6	11976
హించి	11977
ద్యు	11978
నూక	11979
సేక	11980
ఆలె	11981
తున్	11982
129	11983
మరక	11984
306	11985
307	11986
్నమ	11987
ఓడల	11988
کیس	11989
251	11990
249	11991
ియోజ	11992
218	11993
జుల్	11994
289	11995
278	11996
273	11997
269	11998
268	11999
##ارٹ	12000
రిశ్ర	12001
60వ	12002
ایئر	12003
ایود	12004
ایڈو	12005
290	12006
292	12007
ెండో	12008
inc	12009
indi	12010
ుగుర	12011
کررہا	12012
దృఢ	12013
anil	12014
అబూ	12015
name	12016
nasa	12017
vice	12018
రాలన	12019
tek	12020
tech	12021
##یوٹ	12022
ہوج	12023
nes	12024
tta	12025
##اتے	12026
paki	12027
366	12028
33వ	12029
332	12030
331	12031
ేయిం	12032
##ree	12033
ریت	12034
##ord	12035
thu	12036
sto	12037
stan	12038
saba	12039
jab	12040
jam	12041
413	12042
امول	12043
یاد	12044
یابی	12045
ert	12046
యమై	12047
dev	12048
devi	12049
deve	12050
##راف	12051
రులకు	12052
پوجا	12053
law	12054
512	12055
kaj	12056
49వ	12057
سوال	12058
tour	12059
meh	12060
ఈయూ	12061
اتر	12062
سرب	12063
daily	12064
daugh	12065
yash	12066
able	12067
that	12068
thala	12069
ఏయూ	12070
واد	12071
cat	12072
620	12073
ors	12074
ملز	12075
watch	12076
783	12077
نگر	12078
جوڑ	12079
جواب	12080
فرقہ	12081
منس	12082
nger	12083
శనగ	12084
itr	12085
ابھی	12086
bie	12087
big	12088
gam	12089
890	12090
iit	12091
hai	12092
has	12093
بنائی	12094
ملاح	12095
اللہ	12096
96వ	12097
spg	12098
spec	12099
hydra	12100
eddy	12101
ائن	12102
سبب	12103
asp	12104
quer	12105
ٹوڈ	12106
برف	12107
سکتی	12108
srini	12109
رکھی	12110
گھنٹ	12111
vanga	12112
سالہ	12113
jobs	12114
koda	12115
marri	12116
march	12117
پڑھ	12118
party	12119
virat	12120
ions	12121
srtc	12122
##وبل	12123
ght	12124
مبارک	12125
nanna	12126
علاوہ	12127
نیٹ	12128
యతల	12129
మళ్	12130
wom	12131
سامنا	12132
گاڑ	12133
ہورڈ	12134
ہورہی	12135
دوسری	12136
eagle	12137
onei	12138
روپے	12139
تیزی	12140
سابقہ	12141
mbbs	12142
انگی	12143
disn	12144
drdo	12145
اشٹ	12146
awada	12147
flip	12148
hero	12149
حصہ	12150
kyc	12151
بغیر	12152
حوالے	12153
الاق	12154
ساحلی	12155
ବରଂ	12156
vastu	12157
بیوی	12158
منتقل	12159
oppo	12160
hindi	12161
pwb	12162
trump	12163
nbk	12164
نظام	12165
metro	12166
space	12167
port	12168
vpn	12169
دوبار	12170
cctv	12171
آشیر	12172
شناخت	12173
عدال	12174
گجرات	12175
सभी	12176
ଯଦି	12177
",	12178
1ని	12179
2కి	12180
3కు	12181
5కు	12182
6gb	12183
9కి	12184
?.	12185
aha	12186
aar	12187
are	12188
akh	12189
bad	12190
bal	12191
bse	12192
cal	12193
cur	12194
cir	12195
dp	12196
dho	12197
eh	12198
esh	12199
ews	12200
fs	12201
fil	12202
gr	12203
gt	12204
gm	12205
gra	12206
gin	12207
gna	12208
glo	12209
ite	12210
knr	12211
lin	12212
men	12213
mmi	12214
nf	12215
pc	12216
padu	12217
rx	12218
rss	12219
radh	12220
rard	12221
sv	12222
sil	12223
sna	12224
sch	12225
tp	12226
tw	12227
uma	12228
vee	12229
wfi	12230
xbb	12231
yan	12232
اچ	12233
اء	12234
اتے	12235
ارا	12236
بل	12237
بت	12238
جر	12239
حس	12240
حاد	12241
خدم	12242
دبئی	12243
ذکر	12244
رج	12245
رت	12246
رگ	12247
سا	12248
سپ	12249
سن	12250
شراب	12251
طلا	12252
طالب	12253
طریق	12254
ظہ	12255
علی	12256
فلس	12257
قب	12258
لال	12259
لام	12260
مپ	12261
میس	12262
معم	12263
مرے	12264
ماح	12265
نار	12266
نفر	12267
ٹسٹ	12268
ٹرم	12269
ٹول	12270
ٹاک	12271
پیا	12272
چھی	12273
ڈس	12274
ڈے	12275
کب	12276
کنا	12277
گار	12278
گان	12279
گلی	12280
ہائی	12281
ہفت	12282
یر	12283
یس	12284
अगर	12285
घर	12286
बन	12287
वो	12288
ଆଗ	12289
ଆଣ	12290
ଆଜ	12291
ଏଲ	12292
ଏଠ	12293
ଓକ	12294
ତଳ	12295
ବା	12296
ଭଳ	12297
ଭୋଟ	12298
ଶେ	12299
అయా	12300
అమె	12301
అఘా	12302
అషు	12303
ఆడు	12304
ఆఘా	12305
ఇగ	12306
ఇండ్	12307
ఈద	12308
ఊటీ	12309
ఎనీ	12310
ఎపి	12311
ఐఓ	12312
ఐడి	12313
ఐసీ	12314
ఓక్	12315
ఓరీ	12316
గాలు	12317
ఘనా	12318
చలే	12319
ఛత్	12320
టేట	12321
థగ్	12322
బంక	12323
మడ్	12324
మసి	12325
యీ	12326
రంత	12327
రఫ్	12328
లస్	12329
లప్	12330
వంక	12331
షఫీ	12332
సతి	12333
ీళ	12334
ಹೊ	12335
‌కు	12336
##ید	12337
##یش	12338
##وا	12339
##وص	12340
##ap	12341
##سب	12342
##ry	12343
##ud	12344
##uth	12345
##بے	12346
##بال	12347
##id	12348
##اص	12349
##پی	12350
##go	12351
##he	12352
##vy	12353
##زاد	12354
##10	12355
##tra	12356
##హిం	12357
##عام	12358
##ತಿ	12359
##జే	12360
##فٹ	12361
##خر	12362
##ju	12363
##ؤں	12364
##ڈی	12365
##شوم	12366
##ଥା	12367
లున్	12368
వేక	12369
ాయుడ	12370
తనం	12371
మేఘ	12372
డీఓ	12373
్వహిం	12374
ట్టణ	12375
సెంబ	12376
మూస	12377
రీర	12378
జనస	12379
రణక	12380
ియమ	12381
సైగ	12382
లీస్	12383
రావాల	12384
డ్రు	12385
్వాని	12386
దూడ	12387
ియాక	12388
ేరుకు	12389
సొర	12390
ఆఫీ	12391
ష్టప	12392
వురు	12393
గొన్న	12394
్లించ	12395
301	12396
బస్స	12397
ట్వి	12398
కమిషన	12399
పనస	12400
ిటీల	12401
505	12402
502	12403
ఆశల	12404
ఆశయ	12405
257	12406
248	12407
టేట్	12408
187	12409
ాఫి	12410
222	12411
స్యల	12412
402	12413
ద్రత	12414
real	12415
rest	12416
reme	12417
regi	12418
renu	12419
రజక	12420
ిపిస	12421
281	12422
237	12423
##adi	12424
ala	12425
als	12426
ایف	12427
ایسی	12428
ایجن	12429
318	12430
313	12431
297	12432
اننت	12433
انشوم	12434
کان	12435
کری	12436
کرل	12437
సదా	12438
జడల	12439
nav	12440
nage	12441
viru	12442
vive	12443
vivo	12444
tel	12445
tes	12446
351	12447
356	12448
کہتے	12449
బసవ	12450
##لیت	12451
nds	12452
pam	12453
pama	12454
367	12455
364	12456
##لاس	12457
480	12458
aicc	12459
32వ	12460
##mas	12461
char	12462
basa	12463
కదన	12464
వకాశం	12465
appsc	12466
342	12467
375	12468
ిసిం	12469
stra	12470
stal	12471
amar	12472
poth	12473
poco	12474
arts	12475
557	12476
امد	12477
دعو	12478
##una	12479
##ینی	12480
##ینگ	12481
390	12482
445	12483
mot	12484
پون	12485
460	12486
నయన	12487
laksh	12488
##med	12489
520	12490
والوں	12491
kav	12492
474	12493
tata	12494
వదర	12495
tolly	12496
అరవ	12497
##اہد	12498
ివాస్	12499
538	12500
ర్మాణ	12501
abh	12502
abc	12503
abp	12504
abhi	12505
595	12506
توڑ	12507
توہ	12508
cas	12509
sip	12510
ondc	12511
acp	12512
روبی	12513
موب	12514
موسم	12515
bom	12516
kush	12517
life	12518
ملب	12519
wak	12520
wamy	12521
610	12522
69వ	12523
76వ	12524
777	12525
یوال	12526
82వ	12527
دیکھی	12528
శనక	12529
888	12530
883	12531
hiv	12532
hira	12533
gava	12534
sot	12535
ایسے	12536
ncd	12537
دورہ	12538
imf	12539
ڈیپ	12540
bandi	12541
ଏବେ	12542
یکٹ	12543
elon	12544
proje	12545
hamas	12546
clai	12547
تحال	12548
epf	12549
muke	12550
الف	12551
میٹ	12552
میلاد	12553
ture	12554
اکتو	12555
مقابل	12556
duss	12557
بڑا	12558
kone	12559
గుతాయ	12560
bhim	12561
اداک	12562
کھڑ	12563
کھانا	12564
مارچ	12565
حکم	12566
ٹرائے	12567
tvs	12568
hari	12569
trish	12570
تمل	12571
پھٹ	12572
پوری	12573
یڈو	12574
یڈن	12575
crime	12576
this	12577
تقریر	12578
ہوگئی	12579
جھوٹی	12580
msme	12581
peo	12582
عمارت	12583
tcs	12584
volu	12585
لڑکے	12586
aksh	12587
pale	12588
ناڈو	12589
انکے	12590
mber	12591
عوامی	12592
kish	12593
ways	12594
kanga	12595
sree	12596
پورٹل	12597
anush	12598
ఈగల	12599
garu	12600
ios	12601
salma	12602
دیوال	12603
flix	12604
وڈک	12605
gadd	12606
gadda	12607
monde	12608
ଆପଣ	12609
بغور	12610
عہدید	12611
مکمل	12612
ysrtp	12613
musk	12614
مناظر	12615
##اؤنڈ	12616
union	12617
فیصلہ	12618
again	12619
اقلیت	12620
رقص	12621
نمائ	12622
نعرے	12623
ٹھیلہ	12624
چارج	12625
انسان	12626
vaish	12627
xlri	12628
हुआ	12629
مذہبی	12630
group	12631
قصور	12632
پولنگ	12633
bhola	12634
lcd	12635
swam	12636
xuv	12637
ంవత్స	12638
ترنگا	12639
b12	12640
earth	12641
kiran	12642
قومی	12643
چنئی	12644
یعنی	12645
శమీ	12646
స‌భ	12647
##اعت	12648
kajal	12649
ملزم	12650
circu	12651
mmit	12652
حادث	12653
ماحول	12654
نفرت	12655
ଭଳି	12656
చలేదు	12657
virus	12658
".	12659
1గా	12660
2gb	12661
2nd	12662
3కి	12663
6e	12664
7జీ	12665
9లో	12666
a2	12667
a3	12668
aka	12669
bor	12670
bil	12671
bea	12672
cer	12673
cara	12674
cdc	12675
db	12676
dal	12677
dcl	12678
dsp	12679
esa	12680
fm	12681
fla	12682
free	12683
gv	12684
gon	12685
gre	12686
gma	12687
grea	12688
gdp	12689
ggy	12690
hr	12691
hal	12692
hone	12693
ira	12694
jy	12695
jb	12696
jm	12697
jon	12698
jsp	12699
kl	12700
lgb	12701
lord	12702
mt	12703
mma	12704
mva	12705
mca	12706
mnr	12707
nn	12708
nps	12709
nja	12710
ol	12711
oc	12712
ote	12713
out	12714
pea	12715
qf	12716
rh	12717
rpm	12718
sg	12719
sb	12720
sm	12721
sf	12722
sq	12723
tl	12724
tst	12725
trs	12726
ue	12727
uhs	12728
vara	12729
vraj	12730
wk	12731
wf	12732
wara	12733
ye	12734
za	12735
آس	12736
آرہ	12737
بم	12738
بان	12739
بھا	12740
ترم	12741
جنا	12742
جمہ	12743
حد	12744
حیر	12745
خل	12746
خیر	12747
خاص	12748
دار	12749
دگی	12750
ذہ	12751
رز	12752
رض	12753
راب	12754
رگو	12755
رمی	12756
زم	12757
زراف	12758
سٹ	12759
سگ	12760
سری	12761
سنا	12762
شیک	12763
شیر	12764
ضر	12765
عیس	12766
عائد	12767
فراہ	12768
فوری	12769
فاؤنڈ	12770
قر	12771
قت	12772
قیاد	12773
لس	12774
لب	12775
لنگ	12776
لامی	12777
مڈ	12778
مغ	12779
مان	12780
میر	12781
مہا	12782
نئی	12783
ناک	12784
وے	12785
وش	12786
وام	12787
ٹن	12788
ٹور	12789
ٹیک	12790
ٹین	12791
پج	12792
چھا	12793
چندر	12794
ڈائ	12795
ڈینگ	12796
گڈ	12797
گذ	12798
ہس	12799
ہیڈ	12800
ہرا	12801
یپ	12802
یگر	12803
आप	12804
खा	12805
गए	12806
चल	12807
जो	12808
जग	12809
तर	12810
नही	12811
फिर	12812
भा	12813
राम	12814
ଅତ	12815
ଅଟ	12816
ଅସ	12817
ଆୟ	12818
ଇନ	12819
ଇଭ	12820
ଉଭ	12821
କଲ	12822
ంబంధ	12823
ఆలు	12824
ఇగా	12825
ఇనే	12826
ఇట్	12827
ఉమ్	12828
ఊడి	12829
ఎడా	12830
ఏ5	12831
ఏ4	12832
ఏలో	12833
ఏలా	12834
ఏఎం	12835
ఐన	12836
ఐవీ	12837
ఓష	12838
ఓటీ	12839
కధ	12840
కణ	12841
కఫ	12842
కనే	12843
కత్వ	12844
ఖతం	12845
ఛీ	12846
జడ్	12847
జరా	12848
దస	12849
ధ‌	12850
ధూప	12851
నహ	12852
న్ట	12853
బ్య	12854
బసు	12855
భళ	12856
భగ	12857
భజే	12858
రస్త	12859
వర్య	12860
వత్స	12861
షం	12862
షయం	12863
షమి	12864
సఫ	12865
ిధాన	12866
ిభాగ	12867
ీనిప	12868
ొప	12869
ಇತ	12870
ಎಐ	12871
ವಚ	12872
##رن	12873
##ھن	12874
##وار	12875
##ٹے	12876
##لر	12877
##لائ	12878
##کی	12879
##ny	12880
##np	12881
##nm	12882
##ధా	12883
##os	12884
##ot	12885
##ua	12886
##it	12887
##ایا	12888
##نب	12889
##تب	12890
##pi	12891
##pp	12892
##ہے	12893
##ہن	12894
##ہار	12895
##tr	12896
##فوظ	12897
##طہ	12898
##ୋଗ	12899
##ୁବ	12900
##ಡೆ	12901
##ଡ଼	12902
##िम	12903
##ୂଳ	12904
ప్రధా	12905
కుర	12906
విమా	12907
్రాన	12908
ర్ణా	12909
గాణ	12910
గాఢ	12911
చెప్	12912
తోంద	12913
నేక	12914
కొన్	12915
బాన	12916
ారంల	12917
దేశాన	12918
్లోన	12919
ుంటార	12920
చిం	12921
యాయ	12922
చ్చార	12923
వీక	12924
అభం	12925
ారిగా	12926
సులు	12927
సుపత	12928
మరోవ	12929
జావ	12930
రీశ	12931
ెల్య	12932
టుబ	12933
ిపె	12934
హిస్	12935
ుకున	12936
్పట	12937
భూత	12938
ెలుగ	12939
ంతాల్	12940
ర్యట	12941
తరహ	12942
హావ	12943
ుందన	12944
ేసార	12945
్లమె	12946
డెన	12947
దూత	12948
తుగ	12949
తుండ	12950
భ్యర	12951
ఆడక	12952
సొం	12953
ారాష	12954
ిషే	12955
చీడ	12956
ోషల్	12957
305	12958
ులోకి	12959
రహం	12960
టాప	12961
్నై	12962
ాలేదు	12963
کیر	12964
کیف	12965
్తున్	12966
దశమ	12967
139	12968
..?	12969
22ఏ	12970
ూడద	12971
్రేల	12972
ుణు	12973
నరక	12974
సమాచ	12975
401	12976
403	12977
216	12978
కడే	12979
286	12980
దోవ	12981
276	12982
277	12983
alo	12984
ral	12985
rame	12986
rail	12987
کول	12988
సతీ	12989
ایچ	12990
315	12991
291	12992
انف	12993
پرس	12994
پربت	12995
గ్గర	12996
کرے	12997
کروڑ	12998
anr	12999
ane	13000
ేనన	13001
స్తామ	13002
vid	13003
vina	13004
tex	13005
team	13006
ہونا	13007
యెల	13008
cor	13009
cov	13010
coro	13011
coll	13012
cope	13013
శీలి	13014
ndu	13015
mac	13016
max	13017
mat	13018
శోక	13019
goat	13020
pala	13021
pass	13022
363	13023
##لاع	13024
##ste	13025
339	13026
326	13027
కుంటు	13028
425	13029
bati	13030
apk	13031
వైసీప	13032
34వ	13033
349	13034
348	13035
373	13036
377	13037
##ici	13038
come	13039
tho	13040
ెబుత	13041
same	13042
پیر	13043
پیٹ	13044
art	13045
ards	13046
jaga	13047
555	13048
chen	13049
nir	13050
nit	13051
410	13052
412	13053
411	13054
65వ	13055
44వ	13056
449	13057
444	13058
యమం	13059
nti	13060
dee	13061
##راٹ	13062
پوار	13063
46వ	13064
468	13065
463	13066
466	13067
51వ	13068
suha	13069
545	13070
54వ	13071
రేవంత	13072
kala	13073
kaur	13074
490	13075
498	13076
47వ	13077
470	13078
tab	13079
redmi	13080
ipo	13081
ipad	13082
##سٹم	13083
meen	13084
fac	13085
اتھ	13086
اتار	13087
جانک	13088
سرٹ	13089
سرخ	13090
سرگ	13091
ارک	13092
yatra	13093
pmo	13094
mis	13095
واز	13096
وادی	13097
580	13098
cam	13099
sii	13100
639	13101
love	13102
موت	13103
مواز	13104
bolly	13105
kul	13106
limi	13107
russ	13108
994	13109
670	13110
ملتا	13111
wave	13112
615	13113
618	13114
712	13115
roh	13116
icici	13117
760	13118
یوک	13119
add	13120
adu	13121
دوست	13122
دیشی	13123
upa	13124
73వ	13125
cmr	13126
end	13127
his	13128
##چھے	13129
74వ	13130
bih	13131
ncs	13132
##use	13133
ims	13134
ssd	13135
ڈیم	13136
ati	13137
traf	13138
trail	13139
wifi	13140
جنہ	13141
860	13142
gang	13143
مطلب	13144
مطالب	13145
రోవై	13146
ship	13147
epe	13148
mula	13149
mukh	13150
النب	13151
ترب	13152
میری	13153
میٹر	13154
esim	13155
##اکس	13156
doc	13157
##زیٹ	13158
ask	13159
sony	13160
کمار	13161
تھان	13162
ایمس	13163
برس	13164
home	13165
holi	13166
srika	13167
تعمیر	13168
رکن	13169
گھوم	13170
kona	13171
kriti	13172
حالان	13173
محل	13174
محفوظ	13175
join	13176
jose	13177
##ازت	13178
bsp	13179
iaf	13180
hell	13181
parli	13182
دیکھے	13183
دیکھن	13184
حملے	13185
شرد	13186
لگی	13187
09వ	13188
حکام	13189
ٹران	13190
force	13191
tgpsc	13192
wed	13193
phon	13194
mrbe	13195
تقبال	13196
ہوگئے	13197
نکال	13198
ీసుకొ	13199
مشین	13200
مشاہد	13201
ges	13202
دہند	13203
شاٹ	13204
شاٹس	13205
گاؤں	13206
్జెట	13207
کرکٹر	13208
ٹریک	13209
ٹریم	13210
crpf	13211
fest	13212
siddh	13213
siddu	13214
loks	13215
hand	13216
venu	13217
اہم	13218
سیاح	13219
card	13220
sdx	13221
sdrf	13222
جگن	13223
مجم	13224
مجرم	13225
انکی	13226
cpr	13227
mina	13228
ెనీల	13229
show	13230
fice	13231
خطاب	13232
ممالک	13233
نشر	13234
اؤں	13235
اشوک	13236
جماعت	13237
july	13238
అటే	13239
్రతిప	13240
పోయాయ	13241
iocl	13242
pant	13243
sale	13244
sena	13245
sunny	13246
مصر	13247
దరాబా	13248
amit	13249
afp	13250
وڈیا	13251
simha	13252
cbse	13253
dance	13254
شکل	13255
ایشو	13256
گھروں	13257
جلد	13258
جیسا	13259
راہول	13260
چیز	13261
ిద్యు	13262
شرما	13263
dmrc	13264
ساحل	13265
مناسب	13266
ବରଫ	13267
سمجھا	13268
khu	13269
اظہار	13270
kwh	13271
lbw	13272
vyoo	13273
سلائ	13274
ڈرائ	13275
raids	13276
covid	13277
ebra	13278
flood	13279
شہزاد	13280
ಜನರ	13281
راجس	13282
تبصرہ	13283
اضافہ	13284
سچائی	13285
دفتر	13286
دراصل	13287
گزشت	13288
అహం	13289
jammu	13290
اترپر	13291
ٹوڈے	13292
women	13293
film	13294
طلاق	13295
علیہ	13296
میسج	13297
ٹرمپ	13298
چھیڑ	13299
کبھی	13300
ତଳେ	13301
ଶେଷ	13302
ಹೊಸ	13303
motor	13304
پھٹنے	13305
swamy	13306
jonna	13307
ترمیم	13308
حیرت	13309
رضاک	13310
فراہم	13311
قرار	13312
قتل	13313
قیادت	13314
لباس	13315
जगह	13316
तरह	13317
ଉଭୟ	13318
ఓషో	13319
ధ‌ర	13320
నహీ	13321
ీనిపై	13322
ಇತರ	13323
ವಚನ	13324
vyooh	13325
1తో	13326
1పై	13327
2డీ	13328
2పై	13329
3ని	13330
3తో	13331
4k	13332
4కి	13333
4కే	13334
5లో	13335
6ఏ	13336
7కు	13337
8లో	13338
??	13339
ace	13340
ajay	13341
aam	13342
aji	13343
bg	13344
bri	13345
bill	13346
cg	13347
cre	13348
ctc	13349
clo	13350
care	13351
cbs	13352
ds	13353
dg	13354
dv	13355
dt	13356
dj	13357
dun	13358
dru	13359
dmu	13360
eu	13361
ee	13362
ek	13363
ega	13364
ege	13365
efe	13366
fr	13367
fu	13368
fl	13369
fg	13370
fc	13371
gd	13372
g7	13373
gun	13374
gta	13375
gada	13376
gmr	13377
hp	13378
hon	13379
iss	13380
ill	13381
ike	13382
jd	13383
js	13384
jup	13385
kv	13386
kb	13387
kc	13388
kno	13389
lv	13390
lla	13391
lle	13392
lli	13393
mh	13394
m1	13395
mld	13396
mba	13397
mcl	13398
nv	13399
nad	13400
ner	13401
nst	13402
nch	13403
nrs	13404
ox	13405
ops	13406
oil	13407
our	13408
ook	13409
oid	13410
pf	13411
pte	13412
ppa	13413
psc	13414
pens	13415
pong	13416
rd	13417
rv	13418
rb	13419
rts	13420
rjun	13421
rmy	13422
rpf	13423
sy	13424
sla	13425
sma	13426
sor	13427
smi	13428
swa	13429
sys	13430
tb	13431
tan	13432
tre	13433
tya	13434
tch	13435
t10	13436
ule	13437
ufo	13438
vc	13439
vt	13440
vra	13441
آت	13442
آئ	13443
آٹے	13444
ئن	13445
اص	13446
اوگ	13447
اول	13448
ازی	13449
ائیر	13450
بیر	13451
بالک	13452
بشم	13453
تنڈ	13454
تاز	13455
جلو	13456
خری	13457
خاند	13458
خالی	13459
دش	13460
دئے	13461
رح	13462
رم	13463
ریڈیو	13464
رات	13465
روٹ	13466
رسٹ	13467
رون	13468
رلہ	13469
زاوی	13470
سط	13471
سان	13472
سخت	13473
ساز	13474
سنچ	13475
ساج	13476
سسٹم	13477
شپ	13478
شبہ	13479
صلی	13480
طب	13481
طا	13482
طبی	13483
طینی	13484
عط	13485
عال	13486
عرف	13487
عربی	13488
فض	13489
فلی	13490
فورس	13491
فائد	13492
فخر	13493
قدر	13494
قلع	13495
لان	13496
لوں	13497
لوج	13498
لڈو	13499
مز	13500
مخ	13501
مگ	13502
میا	13503
نج	13504
نیل	13505
نمبر	13506
نوبل	13507
وم	13508
وغ	13509
وعد	13510
وصل	13511
ووڈ	13512
ویکس	13513
واتے	13514
ٹس	13515
ٹا	13516
ٹکر	13517
ٹیڈی	13518
ٹیوٹ	13519
پائ	13520
پنا	13521
پٹی	13522
پبل	13523
چوری	13524
ڈا	13525
ڈپ	13526
ڈیس	13527
ڈاؤ	13528
کھا	13529
کتی	13530
کلک	13531
گڑ	13532
گپ	13533
گہ	13534
گانے	13535
ہنس	13536
یجن	13537
कह	13538
कु	13539
थे	13540
दो	13541
दी	13542
पा	13543
फल	13544
हा	13545
ଅଡ	13546
ଅଘ	13547
ଆବ	13548
ଆଦ	13549
ଆଙ	13550
ଖୁବ	13551
ଡ଼	13552
ଦୁ	13553
ମି	13554
ମୂଳ	13555
ଯୋଗ	13556
ହେ	13557
అగ	13558
అబ్	13559
అక్ట	13560
ఆని	13561
ఆవల	13562
ఆషు	13563
ఇటో	13564
ఈక	13565
ఉడ్	13566
ఉజ్	13567
ఊద	13568
ఋషి	13569
ఏ9	13570
ఐఏ	13571
ఐనా	13572
ఐరా	13573
ఐకే	13574
ఒన్	13575
ఓహ	13576
ఓలో	13577
కడు	13578
ఖరే	13579
గక	13580
గడి	13581
గతే	13582
గయా	13583
గడీ	13584
జరు	13585
జకా	13586
టబ్	13587
డయా	13588
ణణ	13589
తరి	13590
పఫ్	13591
ఫతే	13592
బచ్	13593
మయో	13594
మారా	13595
యను	13596
యన్స	13597
రవర	13598
రభా	13599
లకి	13600
లఘు	13601
ళు	13602
ళవ	13603
వధ	13604
వూ	13605
వకా	13606
షనీ	13607
సుత	13608
సజన	13609
హవ	13610
హొ	13611
ాతీయ	13612
ైతం	13613
ಆರ	13614
ಓಂ	13615
ಮಗ	13616
ಯಾ	13617
‌పై	13618
##رت	13619
##یح	13620
##یب	13621
##وند	13622
##کمہ	13623
##af	13624
##zr	13625
##سا	13626
##سوس	13627
##om	13628
##oja	13629
##بح	13630
##بوب	13631
##em	13632
##مت	13633
##ڑپ	13634
##lp	13635
##پس	13636
##bu	13637
##bad	13638
##جہ	13639
##టా	13640
##ہور	13641
##ku	13642
##عو	13643
##چا	13644
##ీఆ	13645
##ఖ్	13646
##wn	13647
##wr	13648
##ff	13649
##صان	13650
##گڑ	13651
##شر	13652
##ାମ	13653
##ದು	13654
##ನ್	13655
##ಾಲ	13656
చేలా	13657
కాడ	13658
కాట	13659
గాక	13660
కిస్త	13661
మాత్	13662
కోశ	13663
్తుల	13664
ుతం	13665
కేక	13666
కొత్	13667
బాష	13668
ల్లల	13669
దిస్	13670
మేథ	13671
కలం	13672
ట్లత	13673
వరంగ	13674
యాత్	13675
టీల	13676
ట్రం	13677
్టమ	13678
మొర	13679
జనక	13680
పడగ	13681
పడత	13682
పడతా	13683
కీర	13684
ిపడ్డ	13685
పట్టి	13686
ద్యో	13687
ంచే	13688
ంచవ	13689
ంచగా	13690
ెంటన	13691
అనం	13692
ఉపయో	13693
ాటిన	13694
ఫిర్	13695
్వాస	13696
ుపత్	13697
అనుమా	13698
తున	13699
చూడాల	13700
ఇంటిక	13701
ంత్రం	13702
ఆత్మహ	13703
రగన	13704
ీనామ	13705
509	13706
508	13707
సంజయ	13708
ీచర	13709
246	13710
247	13711
డేగ	13712
ేస్తూ	13713
ంధీ	13714
ేరక	13715
ారణం	13716
అలక	13717
స్తున	13718
స్తుం	13719
్తాం	13720
res	13721
rele	13722
reut	13723
reno	13724
ర్పడ	13725
ర్పుల	13726
మౌన	13727
షోల	13728
##ans	13729
283	13730
ార్లమ	13731
236	13732
279	13733
271	13734
##art	13735
alh	13736
264	13737
rau	13738
rac	13739
raw	13740
raut	13741
వహార	13742
انعام	13743
##ائج	13744
int	13745
کاش	13746
کرلی	13747
ఓటే	13748
##انت	13749
any	13750
anja	13751
anto	13752
tir	13753
tis	13754
tip	13755
tik	13756
##الہ	13757
nay	13758
nath	13759
vin	13760
vis	13761
vig	13762
vip	13763
vika	13764
vine	13765
visi	13766
రాలను	13767
70వ	13768
యాలయ	13769
80వ	13770
355	13771
353	13772
کہہ	13773
کہنا	13774
##sop	13775
452	13776
458	13777
457	13778
ہوئ	13779
909	13780
cos	13781
code	13782
ایکٹ	13783
nee	13784
ney	13785
కటించ	13786
ndi	13787
nde	13788
##ویل	13789
make	13790
బందు	13791
gor	13792
pai	13793
pava	13794
361	13795
రబడ	13796
48వ	13797
482	13798
337	13799
ail	13800
aish	13801
321	13802
421	13803
426	13804
bap	13805
bath	13806
baja	13807
345	13808
37వ	13809
##ick	13810
ریلے	13811
stri	13812
stor	13813
amt	13814
poon	13815
pooja	13816
మదన	13817
sag	13818
sac	13819
sach	13820
پیٹا	13821
پیچھے	13822
382	13823
ీసులు	13824
ary	13825
arun	13826
jap	13827
tsa	13828
chri	13829
niti	13830
417	13831
امن	13832
39వ	13833
397	13834
moh	13835
mob	13836
moth	13837
dea	13838
dec	13839
devo	13840
deol	13841
##راک	13842
پوپ	13843
469	13844
467	13845
lay	13846
52వ	13847
511	13848
gue	13849
suri	13850
sudh	13851
والد	13852
والز	13853
542	13854
547	13855
ుగోలు	13856
ysja	13857
499	13858
494	13859
471	13860
43వ	13861
438	13862
tas	13863
tabh	13864
vasu	13865
##ناز	13866
سون	13867
سوامی	13868
563	13869
724	13870
tom	13871
med	13872
meer	13873
medi	13874
meda	13875
meta	13876
fast	13877
857	13878
جانی	13879
سروس	13880
dam	13881
dasa	13882
dagg	13883
53వ	13884
530	13885
539	13886
534	13887
ارب	13888
ارجن	13889
اروند	13890
642	13891
abs	13892
abdu	13893
tham	13894
thama	13895
pics	13896
591	13897
mia	13898
واست	13899
واپس	13900
sita	13901
665	13902
dio	13903
625	13904
622	13905
627	13906
govt	13907
oni	13908
onli	13909
lot	13910
loan	13911
sex	13912
rise	13913
روڈ	13914
روایت	13915
موقع	13916
موہن	13917
షనల	13918
بھری	13919
بھرا	13920
بھاری	13921
bol	13922
kuru	13923
liv	13924
lip	13925
list	13926
rule	13927
679	13928
prave	13929
prime	13930
waj	13931
848	13932
616	13933
ధానం	13934
715	13935
71వ	13936
cel	13937
roja	13938
##ہاڑ	13939
kari	13940
mana	13941
mane	13942
mans	13943
ics	13944
icng	13945
770	13946
78వ	13947
##mie	13948
820	13949
823	13950
ویل	13951
adm	13952
فروری	13953
فرانس	13954
منہ	13955
پاک	13956
ngu	13957
ngh	13958
हैं	13959
730	13960
885	13961
880	13962
889	13963
iti	13964
gas	13965
gat	13966
gath	13967
gate	13968
متحد	13969
متناز	13970
پہنی	13971
nca	13972
puls	13973
811	13974
ڈیز	13975
atf	13976
839	13977
864	13978
heavy	13979
not	13980
note	13981
nomi	13982
جھڑپ	13983
بنڈیو	13984
973	13985
تحریر	13986
mudra	13987
الر	13988
79వ	13989
مساف	13990
مستر	13991
rtr	13992
تردید	13993
میز	13994
‌‌‌	13995
910	13996
پارک	13997
##قعہ	13998
dou	13999
dop	14000
dot	14001
آرہا	14002
##گوا	14003
fiber	14004
سبھا	14005
ٹوپی	14006
برقعہ	14007
house	14008
بنگال	14009
##msi	14010
wari	14011
مہلک	14012
معا	14013
انتظ	14014
انتہا	14015
andr	14016
واقعے	14017
سالا	14018
سالار	14019
محکمہ	14020
mari	14021
mark	14022
درخ	14023
دریا	14024
وروں	14025
hel	14026
heart	14027
پڑا	14028
bhk	14029
park	14030
ranji	14031
کھو	14032
کھول	14033
کھانے	14034
کھنچ	14035
کھڑے	14036
జకీ	14037
మడమ	14038
vers	14039
حماس	14040
لگے	14041
لگتا	14042
ಇದರ	14043
srb	14044
05న	14045
tv9	14046
کنڑ	14047
web	14048
webs	14049
لہر	14050
وزارت	14051
پتال	14052
علاج	14053
پورہ	14054
cris	14055
crip	14056
بچا	14057
بچے	14058
مضام	14059
ہوگی	14060
ukra	14061
ఇళయ	14062
ped	14063
نکل	14064
انڈین	14065
انڈون	14066
مشک	14067
مشہور	14068
##لوک	14069
gemi	14070
omr	14071
wome	14072
دہشت	14073
شاپ	14074
کررہی	14075
wali	14076
07న	14077
crda	14078
crpc	14079
fect	14080
باق	14081
بازی	14082
luck	14083
venky	14084
مرک	14085
مرتی	14086
యాల్స	14087
ేషనల	14088
08వ	14089
cars	14090
myth	14091
مجسم	14092
cpi	14093
చడంతో	14094
लिख	14095
خطر	14096
مذاق	14097
kanna	14098
ریلیز	14099
slv	14100
slbc	14101
اخذ	14102
اونچ	14103
salm	14104
دیوی	14105
ఆమీ	14106
ెంగళూ	14107
first	14108
##وتھ	14109
ాజెక్	14110
cbfc	14111
ibm	14112
حلقہ	14113
حصوں	14114
سیکنڈ	14115
شکایت	14116
شدت	14117
chou	14118
chop	14119
اجی	14120
اجازت	14121
جلتا	14122
نوٹس	14123
rict	14124
ugc	14125
پسند	14126
یونیو	14127
రభస	14128
تباہی	14129
plant	14130
bmtc	14131
pvr	14132
ایڈم	14133
سمجھ	14134
فیصد	14135
rjd	14136
rju	14137
بیوہ	14138
تہوار	14139
جیتن	14140
رقم	14141
شمول	14142
ٹھیک	14143
్కడే	14144
بیٹے	14145
ncrb	14146
نشانہ	14147
lady	14148
laddu	14149
پلان	14150
हुए	14151
مذہب	14152
kph	14153
صحیح	14154
طیارہ	14155
طیارے	14156
لڑنے	14157
ऐसा	14158
رہنما	14159
تبصرے	14160
معذو	14161
from	14162
juni	14163
عبد	14164
نقصان	14165
نتن	14166
نتائج	14167
پانچ	14168
پانوی	14169
ଦେଶ	14170
انجام	14171
مقدمہ	14172
گھوٹا	14173
نیشنل	14174
ldl	14175
طلبا	14176
थीं	14177
बार	14178
کیسے	14179
منسلک	14180
link	14181
حساس	14182
پیار	14183
वोट	14184
ఐఓఏ	14185
کرلیا	14186
دعووں	14187
hrd	14188
wfme	14189
بھاس	14190
جمہو	14191
رابطہ	14192
زمین	14193
مغربی	14194
چھاڑ	14195
ہراس	14196
भाई	14197
ଅଟେ	14198
న్టీఆ	14199
సఫల	14200
్పటిక	14201
upasa	14202
تربیت	14203
مجمع	14204
khush	14205
aamir	14206
know	14207
mclr	14208
nrsc	14209
بشمول	14210
تنڈول	14211
تازہ	14212
جلوس	14213
سطح	14214
ساجد	14215
عالمی	14216
فلیش	14217
وصلعم	14218
ٹیڈیم	14219
پناہ	14220
پبلش	14221
ڈاؤن	14222
कुछ	14223
ଦୁଇ	14224
ମିଛ	14225
అక్టో	14226
ఊదా	14227
రభావం	14228
హవన	14229
ಯಾವ	14230
visit	14231
bajaj	14232
sudhe	14233
daggu	14234
مسترد	14235
).	14236
-:	14237
1t	14238
1కు	14239
1st	14240
2x	14241
2కే	14242
3గా	14243
3నే	14244
4కు	14245
4కె	14246
5కే	14247
6తో	14248
6జీ	14249
8కు	14250
9m	14251
ax	14252
a4	14253
avi	14254
aur	14255
atc	14256
asa	14257
b6	14258
bj	14259
bla	14260
blu	14261
bmi	14262
c5	14263
cx	14264
cru	14265
cea	14266
cbc	14267
cana	14268
cds	14269
cine	14270
dl	14271
dur	14272
dro	14273
dhi	14274
dnd	14275
eq	14276
era	14277
eam	14278
ecl	14279
esop	14280
fer	14281
fri	14282
fus	14283
fly	14284
fine	14285
fdc	14286
gc	14287
gic	14288
gcc	14289
hb	14290
ht	14291
had	14292
hcl	14293
hmsi	14294
ix	14295
iq	14296
ila	14297
iri	14298
ile	14299
its	14300
ive	14301
jk	14302
jin	14303
jds	14304
kra	14305
kin	14306
kun	14307
kil	14308
kfc	14309
l5	14310
lh	14311
lm	14312
l4	14313
lan	14314
len	14315
lte	14316
lro	14317
lly	14318
mn	14319
mk	14320
mst	14321
mil	14322
mya	14323
mcr	14324
mhi	14325
madu	14326
mcc	14327
mill	14328
nr	14329
nj	14330
nra	14331
nss	14332
nge	14333
nki	14334
nfc	14335
oy	14336
ora	14337
oon	14338
oth	14339
odia	14340
osa	14341
ous	14342
ois	14343
pd	14344
pg	14345
py	14346
pil	14347
pdp	14348
pia	14349
pfi	14350
png	14351
qj	14352
rf	14353
rad	14354
rsh	14355
rga	14356
rya	14357
rms	14358
rdo	14359
sn	14360
s1	14361
sps	14362
sga	14363
sli	14364
scr	14365
tk	14366
tm	14367
tme	14368
tna	14369
tur	14370
tup	14371
u1	14372
uj	14373
uth	14374
uri	14375
ups	14376
udh	14377
uti	14378
uty	14379
usta	14380
vn	14381
vh	14382
v3	14383
wy	14384
wh	14385
wil	14386
wee	14387
wpl	14388
will	14389
xa	14390
x7	14391
xmr	14392
zi	14393
ze	14394
آل	14395
آم	14396
آخ	14397
آتے	14398
آزا	14399
آڈیو	14400
اط	14401
اتا	14402
اقت	14403
اراد	14404
اثر	14405
بو	14406
بیں	14407
بری	14408
برل	14409
بہا	14410
بول	14411
برہ	14412
بجے	14413
باکس	14414
تا	14415
تخ	14416
تذ	14417
ترین	14418
جئے	14419
جام	14420
جھی	14421
جیک	14422
جہا	14423
جلس	14424
جڑے	14425
حر	14426
حقیق	14427
خر	14428
خیا	14429
دیں	14430
دری	14431
دوں	14432
دین	14433
دوم	14434
رع	14435
روی	14436
رکھا	14437
ردی	14438
راد	14439
رٹی	14440
زی	14441
زار	14442
سیو	14443
سند	14444
ساد	14445
سلم	14446
سلس	14447
سنس	14448
سجا	14449
شو	14450
شئ	14451
شان	14452
شوٹ	14453
شہی	14454
صد	14455
صوب	14456
صبح	14457
طن	14458
طویل	14459
عر	14460
عنا	14461
عرب	14462
غریب	14463
فش	14464
فیان	14465
قد	14466
قائد	14467
لیں	14468
لار	14469
لات	14470
لاز	14471
مری	14472
موٹ	14473
مون	14474
ماد	14475
مقی	14476
مرہ	14477
مانی	14478
نص	14479
نئے	14480
نوع	14481
نمون	14482
نواز	14483
وق	14484
ول	14485
وب	14486
وض	14487
ویں	14488
ورل	14489
ونگ	14490
واب	14491
وکر	14492
وراٹ	14493
وزیٹ	14494
ين	14495
ٹنگ	14496
ٹوٹ	14497
ٹنٹ	14498
ٹبل	14499
ٹوری	14500
ٹیکس	14501
پئ	14502
پگ	14503
پاب	14504
پائی	14505
پلے	14506
پالک	14507
پہاڑ	14508
چور	14509
چون	14510
چیت	14511
چکر	14512
ڈھ	14513
ڈیڈ	14514
ڈانس	14515
کک	14516
کە	14517
کشی	14518
گل	14519
گن	14520
گئ	14521
گاہ	14522
گیر	14523
گول	14524
گیس	14525
گود	14526
گلک	14527
گنت	14528
ھار	14529
ھوس	14530
ہیر	14531
یق	14532
یز	14533
یشل	14534
یٹر	14535
یگی	14536
इन	14537
गई	14538
जय	14539
दू	14540
नाम	14541
रा	14542
रू	14543
ला	14544
लग	14545
सिम	14546
हम	14547
ଅକ	14548
ଅଜ	14549
ଅହ	14550
ଇଟ	14551
ଏୟ	14552
ଏତ	14553
ଓମ	14554
କି	14555
କଥା	14556
ତଥା	14557
ଦା	14558
ପର	14559
ବି	14560
ମଇ	14561
ଯା	14562
ରତ	14563
ସମ	14564
ସିଏ	14565
୧୫	14566
୧୬	14567
୨୦	14568
୨୬	14569
అకా	14570
అటో	14571
ఆత్	14572
ఆలి	14573
ఆదే	14574
ఆజ్	14575
ఆగే	14576
ఆషా	14577
ఈ‌	14578
ఈడు	14579
ఈపీ	14580
ఈసా	14581
ఊట	14582
ఊచ	14583
ఎలి	14584
ఎటో	14585
ఎటా	14586
ఏ8	14587
ఏటి	14588
ఏసు	14589
ఐఐ	14590
ఐషా	14591
ఐజి	14592
ఒలీ	14593
ఓర్	14594
ఓరి	14595
ఓసి	14596
ఓకా	14597
ఓమ్	14598
ఓనం	14599
కంచ	14600
కసం	14601
ఖో	14602
ఖల్	14603
ఖడ్	14604
గీస	14605
ఛాయ	14606
జఖ	14607
జ‌	14608
టపడ	14609
ఠగ	14610
డౌ	14611
డన్	14612
తదే	14613
దట్	14614
దనం	14615
దగ్	14616
ధరే	14617
ఫణ	14618
భక్	14619
భలో	14620
మరు	14621
మవా	14622
మనా	14623
యతిర	14624
రండ	14625
రయా	14626
రబ్	14627
వంచ	14628
షై	14629
షట్	14630
షరా	14631
హూ	14632
హరే	14633
ూని	14634
ెరిక	14635
ేత్	14636
ైగ	14637
్డుల	14638
ಅತಿ	14639
ಆತ	14640
ಆಗ	14641
ಐದು	14642
ಕೆ	14643
ಕೂ	14644
ಕೈ	14645
ಗೆ	14646
ನಾ	14647
ಪರ	14648
ಪತಿ	14649
ಬಹ	14650
ಮತ	14651
ಮಳ	14652
ರಾ	14653
‌గా	14654
‌తో	14655
′′	14656
##رٹ	14657
##dha	14658
##dps	14659
##یز	14660
##ھر	14661
##ھل	14662
##ھور	14663
##وق	14664
##وسی	14665
##ٹھی	14666
##لوں	14667
##کو	14668
##کا	14669
##کن	14670
##کرہ	14671
##nt	14672
##aa	14673
##zz	14674
##ze	14675
##سل	14676
##rmb	14677
##ox	14678
##بو	14679
##با	14680
##ema	14681
##دان	14682
##دقہ	14683
##اٹ	14684
##ڑت	14685
##lc	14686
##lt	14687
##پٹ	14688
##gn	14689
##gs	14690
##gde	14691
##hn	14692
##bn	14693
##bhi	14694
##cf	14695
##نل	14696
##تہ	14697
##تمل	14698
##pr	14699
##ہو	14700
##kin	14701
##శా	14702
##fl	14703
##fw	14704
##فظ	14705
##صلہ	14706
##صوب	14707
##طل	14708
##ضہ	14709
##شنی	14710
##ुद	14711
##ಕೆ	14712
##ूल	14713
##ژن	14714
##ఝా	14715
##ता	14716
ప్రదే	14717
విద్	14718
్యట	14719
లుస్	14720
కిట	14721
మాఢ	14722
వానిక	14723
్తన	14724
ంగాన	14725
గుస	14726
దాప	14727
్యాని	14728
లాద	14729
ఆయ్	14730
దిం	14731
పేక	14732
మేళ	14733
ఒకో	14734
కలే	14735
కలశ	14736
వరల	14737
టీఏ	14738
టీఎ	14739
ినియో	14740
లిపో	14741
మిత్	14742
ట్రాల	14743
్టాన	14744
తిస	14745
సుధ	14746
రేగ	14747
రేషన	14748
పడీ	14749
పూస	14750
హైదరా	14751
పిఏ	14752
ర్లక	14753
ర్లమ	14754
బీ2	14755
హిమ	14756
పీఓ	14757
జగ్	14758
కృప	14759
్పత్	14760
ియన	14761
ాణ్	14762
ంచడం	14763
డున	14764
టెంట	14765
కెళ	14766
లీవు	14767
కవన	14768
మస్య	14769
ఫోర్	14770
ఆలే	14771
మైల	14772
ాప్షన	14773
జేఈ	14774
జిస	14775
మరొ	14776
309	14777
308	14778
ర్తలు	14779
వేశార	14780
రమాల	14781
504	14782
యనకు	14783
ఖాస్	14784
పథకాల	14785
184	14786
226	14787
ఆదం	14788
మలై	14789
అలం	14790
405	14791
406	14792
ఆనో	14793
ret	14794
rem	14795
rew	14796
redi	14797
reli	14798
resi	14799
reel	14800
revo	14801
##ورت	14802
ెలిపా	14803
287	14804
284	14805
232	14806
alia	14807
raf	14808
rajp	14809
razr	14810
జలం	14811
వహిం	14812
దేశంల	14813
605	14814
606	14815
کوڈ	14816
ایو	14817
319	14818
314	14819
ఆటే	14820
انٹ	14821
inde	14822
inte	14823
inox	14824
ోబర	14825
کاٹ	14826
کانت	14827
کانس	14828
کرس	14829
کرائی	14830
ఓటూ	14831
anch	14832
ting	14833
అబో	14834
అబి	14835
nair	14836
nafe	14837
vii	14838
vil	14839
709	14840
706	14841
##thi	14842
ten	14843
tet	14844
temp	14845
##یوں	14846
##یوند	14847
35a	14848
35ఏ	14849
کہی	14850
455	14851
454	14852
ہوس	14853
ہوکر	14854
ہوٹل	14855
اوری	14856
సిరీస	14857
shu	14858
902	14859
coa	14860
cow	14861
coch	14862
cock	14863
ర్శక	14864
##ins	14865
థితి	14866
ایکڑ	14867
తడక	14868
ెచ్చర	14869
neo	14870
neh	14871
nep	14872
neft	14873
##لیل	14874
ndps	14875
ndma	14876
ndya	14877
ndel	14878
ndrf	14879
ndoo	14880
ఆరె	14881
tte	14882
ttar	14883
ttam	14884
mach	14885
goi	14886
goch	14887
gouth	14888
pac	14889
paul	14890
మర్శల	14891
36వ	14892
369	14893
##لاح	14894
గంల	14895
487	14896
484	14897
335	14898
334	14899
325	14900
దవడ	14901
cham	14902
429	14903
bask	14904
apa	14905
apps	14906
341	14907
343	14908
344	14909
్యమంత	14910
372	14911
379	14912
374	14913
##ich	14914
ریب	14915
ریج	14916
ریزر	14917
comme	14918
وائٹ	14919
sti	14920
sts	14921
stre	14922
stic	14923
step	14924
చలవ	14925
ఎకె	14926
poc	14927
pova	14928
saf	14929
sabi	14930
samp	14931
safe	14932
saksh	14933
satta	14934
ర్చిం	14935
پینے	14936
386	14937
384	14938
aro	14939
arm	14940
arha	14941
##ence	14942
jas	14943
jaba	14944
552	14945
556	14946
tsdps	14947
తూచ	14948
chha	14949
nits	14950
415	14951
41వ	14952
416	14953
##dai	14954
658	14955
امک	14956
امہ	14957
دعا	14958
دعوت	14959
##und	14960
یاب	14961
395	14962
392	14963
398	14964
ero	14965
ery	14966
erc	14967
nter	14968
mou	14969
moto	14970
dep	14971
dear	14972
demu	14973
462	14974
دیسا	14975
رہنے	14976
ీబీఐ	14977
las	14978
525	14979
526	14980
baba	14981
513	14982
gust	14983
guja	14984
sush	14985
suma	14986
subha	14987
suit	14988
##ابی	14989
kabad	14990
475	14991
473	14992
##تاط	14993
437	14994
434	14995
tama	14996
vach	14997
##vid	14998
سوات	14999
سوپر	15000
تھام	15001
sham	15002
566	15003
721	15004
ipema	15005
top	15006
meil	15007
meet	15008
faq	15009
faha	15010
fath	15011
##اہی	15012
858	15013
use	15014
اتی	15015
اتہ	15016
اتھا	15017
اتنی	15018
جانا	15019
سروے	15020
سرکس	15021
dav	15022
david	15023
ارس	15024
645	15025
643	15026
647	15027
644	15028
abn	15029
abv	15030
abba	15031
575	15032
57వ	15033
576	15034
574	15035
597	15036
594	15037
mit	15038
##یرہ	15039
ర్జాత	15040
واس	15041
واڑ	15042
واحد	15043
581	15044
camp	15045
caste	15046
kali	15047
sia	15048
siva	15049
site	15050
siraj	15051
ٹیج	15052
ٹیسٹ	15053
630	15054
631	15055
636	15056
634	15057
661	15058
663	15059
dim	15060
dist	15061
dire	15062
dime	15063
digi	15064
623	15065
bhai	15066
bhag	15067
bhat	15068
gover	15069
orts	15070
orks	15071
ఖ్యమ	15072
see	15073
sel	15074
set	15075
seth	15076
seva	15077
sell	15078
sett	15079
بیٹی	15080
جارہے	15081
رول	15082
روس	15083
روہ	15084
رولی	15085
روشنی	15086
مواد	15087
موچا	15088
بھگ	15089
سیٹ	15090
سیع	15091
bose	15092
ligh	15093
libs	15094
672	15095
677	15096
ملت	15097
ملنے	15098
wah	15099
844	15100
61వ	15101
619	15102
710	15103
isi	15104
ism	15105
rose	15106
690	15107
699	15108
manu	15109
##سیج	15110
765	15111
763	15112
یواس	15113
780	15114
787	15115
jagad	15116
825	15117
822	15118
827	15119
جوڑے	15120
##tti	15121
##tty	15122
adr	15123
adha	15124
adda	15125
let	15126
لیٹ	15127
لیس	15128
لیب	15129
لیتے	15130
لیفٹ	15131
فرم	15132
فران	15133
شیخ	15134
منصوب	15135
cko	15136
دیشا	15137
ngs	15138
uppl	15139
eni	15140
##ولس	15141
న్సిప	15142
itir	15143
باری	15144
##یسر	15145
743	15146
bio	15147
bike	15148
sol	15149
sos	15150
solu	15151
south	15152
sobhi	15153
پہچ	15154
پہنے	15155
ncbn	15156
nccf	15157
pul	15158
pub	15159
pura	15160
puri	15161
814	15162
دورے	15163
లయంలో	15164
imx	15165
works	15166
##rcl	15167
conn	15168
const	15169
conne	15170
conaf	15171
ڈیلی	15172
ata	15173
bane	15174
جنس	15175
جنم	15176
جنتا	15177
جنسی	15178
civ	15179
یکر	15180
یکا	15181
یکچ	15182
86వ	15183
prop	15184
proce	15185
haa	15186
haar	15187
جاپ	15188
بنڈ	15189
بنام	15190
970	15191
مطل	15192
ملاق	15193
870	15194
epa	15195
muri	15196
الد	15197
793	15198
796	15199
966	15200
مسلس	15201
982	15202
986	15203
mpdo	15204
rto	15205
rti	15206
rtm	15207
تیاز	15208
تیاری	15209
میدان	15210
khar	15211
rrb	15212
spe	15213
912	15214
911	15215
913	15216
933	15217
door	15218
آرک	15219
indo	15220
file	15221
راس	15222
راؤ	15223
راجن	15224
راوت	15225
sonia	15226
اکے	15227
مقدم	15228
ope	15229
تھر	15230
్షిణ	15231
duc	15232
sca	15233
vemu	15234
برد	15235
برائے	15236
بڑھا	15237
bene	15238
srinu	15239
yout	15240
buil	15241
buds	15242
رکر	15243
گھڑت	15244
مہر	15245
مہین	15246
معاف	15247
kesa	15248
kesi	15249
sand	15250
sanon	15251
محض	15252
محسوس	15253
محبوب	15254
محتاط	15255
مداح	15256
وجئے	15257
joe	15258
josh	15259
kol	15260
koma	15261
mart	15262
maran	15263
درجن	15264
ورس	15265
ورزی	15266
bsky	15267
اعض	15268
اعتر	15269
ସହର	15270
hegde	15271
mmer	15272
پڑے	15273
پڑوسی	15274
payal	15275
payme	15276
bhel	15277
urva	15278
مختصر	15279
emo	15280
سماج	15281
شرپ	15282
شرکت	15283
مارٹ	15284
مارا	15285
forma	15286
malla	15287
شنر	15288
گیم	15289
غلطی	15290
harya	15291
west	15292
پتھر	15293
ays	15294
پھول	15295
ఔషద	15296
papi	15297
phe	15298
phys	15299
بچن	15300
03న	15301
03వ	15302
راما	15303
نیدر	15304
##افل	15305
msc	15306
pec	15307
airt	15308
nks	15309
عملہ	15310
مشتمل	15311
##احت	15312
bei	15313
bell	15314
geo	15315
getty	15316
omg	15317
سامع	15318
نامز	15319
وارم	15320
aaa	15321
etg	15322
plea	15323
press	15324
ٹریل	15325
fec	15326
باوج	15327
خواہ	15328
دھوک	15329
دھرن	15330
ఏ11	15331
##jid	15332
netw	15333
books	15334
04న	15335
aks	15336
akha	15337
akkin	15338
dhar	15339
eap	15340
irb	15341
pit	15342
اہلی	15343
ریڈیٹ	15344
مرچ	15345
مرتب	15346
پھیل	15347
روپیر	15348
fox	15349
sdm	15350
نازی	15351
ووٹوں	15352
ٹکٹ	15353
ٹکرا	15354
ٹکنا	15355
کتاب	15356
کتنی	15357
కువగా	15358
cyli	15359
cyber	15360
رنگوں	15361
06న	15362
skn	15363
sky	15364
skar	15365
సినా	15366
shou	15367
a16	15368
fici	15369
ify	15370
kis	15371
ممکن	15372
مذکو	15373
namra	15374
ٹوئٹ	15375
hmt	15376
اشارہ	15377
جمنا	15378
چھوڑ	15379
rthy	15380
slc	15381
چاہی	15382
چاہتے	15383
ioc	15384
nsg	15385
sunil	15386
دیوار	15387
مصدقہ	15388
وفیسر	15389
ఆమడ	15390
afg	15391
mich	15392
جہت	15393
فوجی	15394
مالد	15395
pathi	15396
ibps	15397
kera	15398
phal	15399
wind	15400
اگلے	15401
حصے	15402
سیکرٹ	15403
شکار	15404
bbmp	15405
jntu	15406
trade	15407
trans	15408
اجلاس	15409
راہل	15410
سینٹ	15411
چیم	15412
چیخ	15413
یشہ	15414
یشان	15415
ivf	15416
ival	15417
pere	15418
sars	15419
آگے	15420
حوالہ	15421
حوصلہ	15422
عہد	15423
لکھ	15424
مکھن	15425
color	15426
بڑھان	15427
pvnr	15428
بینچ	15429
رساں	15430
ایڈی	15431
ایڈٹ	15432
agai	15433
cnn	15434
cnc	15435
click	15436
eos	15437
eow	15438
pinne	15439
udha	15440
شمار	15441
بیٹھے	15442
birth	15443
ddin	15444
gsdp	15445
lsg	15446
جائز	15447
وکیل	15448
peti	15449
بدل	15450
زندہ	15451
شہری	15452
نائب	15453
چلنے	15454
چلتا	15455
کھیل	15456
ऐसे	15457
allia	15458
روکنے	15459
معذور	15460
ٹائمز	15461
bns	15462
farm	15463
falls	15464
kmrcl	15465
yadav	15466
دلت	15467
عباس	15468
چکا	15469
چکرا	15470
چڑھ	15471
ڈالنے	15472
ದಿನ	15473
satya	15474
dogs	15475
bled	15476
blood	15477
fans	15478
mdma	15479
madha	15480
outs	15481
wani	15482
بحث	15483
بجائے	15484
تیرے	15485
دکاند	15486
لوکیش	15487
ودن	15488
ڈاکٹر	15489
یورپ	15490
बाद	15491
ଆହତ	15492
ଦଳର	15493
ସେଖ	15494
గయే	15495
ایئرف	15496
akhil	15497
curre	15498
grp	15499
grap	15500
بلڈو	15501
رجس	15502
رگھور	15503
سپلائ	15504
قبضہ	15505
معمار	15506
معمول	15507
گارڈ	15508
ଆଜି	15509
vivek	15510
kavya	15511
ncdrc	15512
وڈکٹ	15513
حادثے	15514
jbl	15515
jmm	15516
klin	15517
otes	15518
آرہی	15519
دارال	15520
ذہانت	15521
ضرورت	15522
مانگ	15523
میرے	15524
ٹینک	15525
پجاری	15526
گذشت	15527
భళి	15528
camon	15529
جنہیں	15530
mukhi	15531
holid	15532
hello	15533
wedd	15534
dunki	15535
jsw	15536
lvm	15537
آتش	15538
اوگر	15539
بیرون	15540
بالکل	15541
خرید	15542
رحم	15543
طاقت	15544
عطیہ	15545
فضائی	15546
قدرت	15547
لانچ	15548
مزد	15549
وغیرہ	15550
ڈپارٹ	15551
گپتا	15552
ہنسا	15553
یجنل	15554
हाथ	15555
ಆರು	15556
relea	15557
vigne	15558
story	15559
japan	15560
onion	15561
منہہ	15562
پاکست	15563
مسافر	15564
dopt	15565
شاپنگ	15566
lucky	15567
مرکزی	15568
1tb	15569
leno	15570
pdf	15571
pdpp	15572
sndp	15573
spsr	15574
slim	15575
u19	15576
v30	15577
آخری	15578
آزادی	15579
اطلاع	15580
اقتد	15581
برلہ	15582
تذکرہ	15583
جامع	15584
جھیل	15585
جہاز	15586
حرکت	15587
خیال	15588
سجاوٹ	15589
شہید	15590
صدارت	15591
عناصر	15592
فشاں	15593
لارڈ	15594
موٹر	15595
مقیم	15596
نوعیت	15597
وضاحت	15598
ورلڈ	15599
وابس	15600
پئن	15601
پابن	15602
پالکڑ	15603
گنتی	15604
ہیرس	15605
یقین	15606
रूप	15607
लाख	15608
ରତନ	15609
ସମୟ	15610
జఖౌ	15611
ఫణి	15612
భక్తు	15613
ಆಗಿ	15614
ಕೂಡ	15615
ಬಹಳ	15616
ಮಳೆ	15617
ರಾಮ	15618
مسلسل	15619
معافی	15620
دھوکہ	15621
ممکنہ	15622
'.	15623
',	15624
(-	15625
(*	15626
1ఏ	15627
1కి	15628
1బీ	15629
1gb	15630
2d	15631
2గా	15632
2ను	15633
2డి	15634
2జీ	15635
2కె	15636
3k	15637
3పై	15638
3gb	15639
4ను	15640
4బీ	15641
4gb	15642
5ఏ	15643
5ను	15644
5టీ	15645
5తో	15646
5కె	15647
6t	15648
7g	15649
8mp	15650
920	15651
?"	15652
?:	15653
a5	15654
a7	15655
aps	15656
aya	15657
aee	15658
aki	15659
agi	15660
aut	15661
bl	15662
bv	15663
bx	15664
bon	15665
bps	15666
bun	15667
bli	15668
bur	15669
bmar	15670
bmc	15671
bada	15672
bins	15673
c3	15674
c6	15675
cle	15676
clu	15677
cli	15678
cts	15679
cte	15680
crs	15681
cke	15682
crc	15683
cji	15684
clus	15685
cens	15686
cmie	15687
d2	15688
din	15689
dma	15690
den	15691
drs	15692
dara	15693
ela	15694
eva	15695
eja	15696
eka	15697
eli	15698
ets	15699
ell	15700
emp	15701
eis	15702
eky	15703
f5	15704
fh	15705
fx	15706
f3	15707
f6	15708
ff	15709
fad	15710
fra	15711
fda	15712
fea	15713
fee	15714
fare	15715
fnp	15716
fence	15717
gj	15718
gri	15719
gme	15720
gya	15721
gho	15722
gni	15723
gwr	15724
hs	15725
hg	15726
hc	15727
h1	15728
htm	15729
hcu	15730
iu	15731
i7	15732
ian	15733
iar	15734
iga	15735
iva	15736
iya	15737
ich	15738
irs	15739
ige	15740
jv	15741
jc	15742
jha	15743
jal	15744
jja	15745
jtc	15746
jpc	15747
kn	15748
kq	15749
kla	15750
ksh	15751
ken	15752
kja	15753
kka	15754
kly	15755
kada	15756
khi	15757
kich	15758
l2	15759
lk	15760
l3	15761
l7	15762
lw	15763
ler	15764
lun	15765
ling	15766
lti	15767
lpa	15768
ltm	15769
lcu	15770
lhs	15771
long	15772
luna	15773
mha	15774
mme	15775
mpsc	15776
mrs	15777
mara	15778
mada	15779
mmed	15780
nq	15781
nade	15782
nsa	15783
nke	15784
nsc	15785
nmo	15786
oz	15787
oh	15788
ov	15789
ob	15790
ole	15791
oma	15792
ows	15793
oss	15794
ody	15795
oll	15796
ove	15797
ood	15798
osi	15799
oji	15800
owa	15801
oks	15802
oap	15803
p1	15804
pt	15805
pda	15806
ping	15807
pee	15808
psu	15809
pba	15810
plo	15811
pter	15812
pdra	15813
rn	15814
rin	15815
rda	15816
run	15817
rve	15818
sin	15819
sle	15820
sya	15821
sdp	15822
sana	15823
ski	15824
swe	15825
sjid	15826
td	15827
t3	15828
tj	15829
t4	15830
tsh	15831
tun	15832
trea	15833
tct	15834
tus	15835
tba	15836
tmc	15837
tfi	15838
twe	15839
tmo	15840
uc	15841
ure	15842
una	15843
utt	15844
ums	15845
ube	15846
uber	15847
vz	15848
vr	15849
vu	15850
vk	15851
vrs	15852
vana	15853
vada	15854
wr	15855
wg	15856
wc	15857
wj	15858
wre	15859
wro	15860
wmc	15861
wada	15862
xm	15863
xని	15864
xmi	15865
yg	15866
yy	15867
yf	15868
yar	15869
yrf	15870
yard	15871
zz	15872
zo	15873
zl	15874
z8	15875
zf	15876
zar	15877
ʼದ	15878
آور	15879
آسٹ	15880
آمد	15881
آخر	15882
ئم	15883
ئز	15884
ئش	15885
ائے	15886
اوں	15887
اخت	15888
اشت	15889
بٹ	15890
بع	15891
بخ	15892
بور	15893
بلا	15894
برا	15895
بائی	15896
بندر	15897
بالی	15898
بگڑ	15899
بوتھ	15900
تئی	15901
تری	15902
ترا	15903
تیس	15904
تلے	15905
تاک	15906
تیہ	15907
تلاف	15908
تعلی	15909
ثب	15910
جوں	15911
جشن	15912
حق	15913
حج	15914
حف	15915
حذ	15916
حامی	15917
خص	15918
خار	15919
خون	15920
دھا	15921
دئی	15922
دلا	15923
داس	15924
داری	15925
دینی	15926
ذمہ	15927
رد	15928
رخ	15929
ریڈ	15930
رنے	15931
ربی	15932
رانے	15933
زر	15934
زخ	15935
زڈ	15936
زیر	15937
زبر	15938
زہر	15939
سد	15940
سہ	15941
سع	15942
ستی	15943
سائی	15944
سٹی	15945
سلف	15946
ساف	15947
سنت	15948
سرین	15949
ساکھ	15950
سفر	15951
شع	15952
شیڈ	15953
شیو	15954
شام	15955
شاہ	15956
شوب	15957
شاند	15958
شارٹ	15959
صیہ	15960
صوص	15961
صلاح	15962
عز	15963
عص	15964
عار	15965
عید	15966
عکا	15967
فو	15968
فٹ	15969
فا	15970
فور	15971
فائ	15972
فال	15973
فاکس	15974
قافل	15975
لر	15976
لح	15977
لٹ	15978
لم	15979
لپ	15980
لئ	15981
لور	15982
لوٹ	15983
لون	15984
لگو	15985
مچ	15986
میو	15987
منگ	15988
مبر	15989
مرم	15990
مارت	15991
مخص	15992
میکس	15993
مانا	15994
نال	15995
نیت	15996
ناس	15997
نسر	15998
نرن	15999
وٹ	16000
وان	16001
وات	16002
وین	16003
ویر	16004
ولہ	16005
وسی	16006
ومی	16007
وورڈ	16008
وشی	16009
وولس	16010
ٹب	16011
ٹیکہ	16012
ٹینڈ	16013
ٹڈی	16014
پب	16015
پے	16016
پش	16017
پتے	16018
پنڈ	16019
پنچ	16020
پنک	16021
پنج	16022
پیوٹ	16023
پلاس	16024
پیوند	16025
چا	16026
چلے	16027
چود	16028
چیل	16029
چاند	16030
ڈج	16031
ڈھی	16032
ڈائی	16033
ڈکر	16034
ڈبل	16035
کچ	16036
کئ	16037
کش	16038
کیں	16039
کور	16040
کشن	16041
کلم	16042
کارف	16043
کاری	16044
کجر	16045
گری	16046
گنا	16047
گزر	16048
گلوک	16049
ھا	16050
ھن	16051
ھان	16052
ھوی	16053
ھری	16054
ھیر	16055
ھنڈ	16056
ہل	16057
ہد	16058
ہڑ	16059
ہج	16060
ہت	16061
ہنگ	16062
ہلک	16063
ہدا	16064
ہاؤ	16065
ہارٹ	16066
ہاٹ	16067
یچ	16068
یار	16069
یوم	16070
یئر	16071
یورٹ	16072
یورس	16073
یبل	16074
یگا	16075
अस	16076
आध	16077
आउ	16078
आता	16079
उस	16080
एव	16081
ओर	16082
कल	16083
खब	16084
खुद	16085
ची	16086
जब	16087
जे	16088
जिम	16089
टी	16090
तक	16091
तय	16092
थू	16093
नक	16094
पी	16095
बह	16096
बच	16097
बद	16098
बस	16099
बे	16100
भर	16101
भे	16102
मद	16103
मि	16104
यु	16105
ले	16106
वह	16107
सब	16108
हू	16109
।"	16110
রয	16111
ଅଛ	16112
ଅଂ	16113
ଆଶ	16114
ଆଧ	16115
ଆଚ	16116
ଇଲ	16117
ଇସ	16118
ଈଟ	16119
ଉଷ	16120
ଏର	16121
ଏଏ	16122
ଏଜ	16123
ଓହ	16124
କହ	16125
କାମ	16126
ଖୀ	16127
ଗା	16128
ଗଲ	16129
ଗଠ	16130
ଗୃ	16131
ଘରେ	16132
ଛର	16133
ଜମ	16134
ନୂ	16135
ପୁ	16136
ଫୋ	16137
ଭାଇ	16138
ମୋ	16139
ମୁ	16140
ମନ	16141
ଯିଏ	16142
ରାମ	16143
ସତ	16144
ସବ	16145
ସି	16146
ହି	16147
୨୪	16148
୫ଟ	16149
அத	16150
என	16151
ஏற	16152
అచ	16153
అఆ	16154
అస్	16155
అలో	16156
అంధ	16157
అజ్	16158
అబీ	16159
అయ్	16160
ఆగా	16161
ఆరి	16162
ఆటు	16163
ఇని	16164
ఇను	16165
ఇరో	16166
ఇరా	16167
ఈబ	16168
ఈట	16169
ఈలో	16170
ఈలు	16171
ఈటీ	16172
ఈతి	16173
ఈవా	16174
ఈట్	16175
ఈదీ	16176
ఈ20	16177
ఈశా	16178
ఉం	16179
ఉయక	16180
ఊరే	16181
ఊయల	16182
ఋణ	16183
ఎఐ	16184
ఎలో	16185
ఎవా	16186
ఎపీ	16187
ఎవి	16188
ఎలీ	16189
ఎసీ	16190
ఎరా	16191
ఎడం	16192
ఏఓ	16193
ఏగా	16194
ఏలు	16195
ఏకు	16196
ఏంత	16197
ఏకి	16198
ఏటీ	16199
ఏమా	16200
ఏసి	16201
ఏలే	16202
ఐలు	16203
ఐకి	16204
ఐడా	16205
ఐసు	16206
ఐసా	16207
ఐటం	16208
ఓమ	16209
ఓచ	16210
ఓడు	16211
ఓబీ	16212
కభ	16213
కఠ	16214
కఛ	16215
కంద	16216
కడా	16217
కడి	16218
కేశ	16219
కడం	16220
ఖని	16221
గధ	16222
గవి	16223
గలీ	16224
ఘ‌	16225
ఘని	16226
ఘనం	16227
ఛట్	16228
జౌ	16229
జహ	16230
టక్	16231
టపా	16232
ఢవ	16233
తై	16234
థన్	16235
థాని	16236
దల్	16237
దవ్	16238
ధని	16239
ధరం	16240
నటీ	16241
ననే	16242
నబా	16243
పంబ	16244
పవి	16245
పచ్	16246
పటం	16247
ఫరా	16248
బన్	16249
బని	16250
బక్	16251
బట్	16252
బనా	16253
భల్	16254
మఖ	16255
మగా	16256
మడు	16257
మఝా	16258
యయ	16259
యమా	16260
యషా	16261
రజ్	16262
రవ్	16263
రఖా	16264
లది	16265
లమె	16266
లఖ్	16267
ళన	16268
శయ	16269
శష	16270
శఆ	16271
శష్	16272
శూర	16273
షయా	16274
సచ్	16275
సృహ	16276
హల	16277
హగ	16278
హడా	16279
హట్	16280
హయా	16281
హజీ	16282
ుపత	16283
ేసా	16284
ేడుక	16285
ొట్	16286
ొచ్	16287
్ళ	16288
ಈತ	16289
ಏರ	16290
ಕೀ	16291
ಕಡೆ	16292
ಕಾಲ	16293
ಜೋ	16294
ದಳ	16295
ದೇ	16296
ನಗ	16297
ಪದ	16298
ಪಡೆ	16299
ಬಳ	16300
ಯೋ	16301
ರಫ	16302
ರನ್	16303
ಶು	16304
ಸರ	16305
‌స	16306
‍‌	16307
😂😂	16308
##رق	16309
##رو	16310
##رس	16311
##رری	16312
##روں	16313
##روف	16314
##dr	16315
##dl	16316
##d7	16317
##dru	16318
##dcl	16319
##حر	16320
##یق	16321
##یج	16322
##ھو	16323
##ھیا	16324
##ھرا	16325
##وخ	16326
##وض	16327
##وشن	16328
##لٹ	16329
##لت	16330
##nh	16331
##aw	16332
##ళ్	16333
##zd	16334
##سلا	16335
##oi	16336
##oc	16337
##of	16338
##ui	16339
##udh	16340
##بھ	16341
##بور	16342
##بول	16343
##iu	16344
##iy	16345
##ib	16346
##ما	16347
##ملی	16348
##منٹ	16349
##دو	16350
##دک	16351
##دہ	16352
##اظ	16353
##اث	16354
##اوٹ	16355
##ادی	16356
##اون	16357
##ڑا	16358
##lk	16359
##యత	16360
##پا	16361
##پتہ	16362
##gp	16363
##gra	16364
##yu	16365
##hu	16366
##vn	16367
##vu	16368
##vt	16369
##bp	16370
##bra	16371
##xa	16372
##xi	16373
##زل	16374
##زن	16375
##زف	16376
##نسی	16377
##تد	16378
##تت	16379
##تبر	16380
##ظیم	16381
##05	16382
##డే	16383
##బి	16384
##po	16385
##pv	16386
##pb	16387
##pet	16388
##pol	16389
##ہم	16390
##mw	16391
##man	16392
##mma	16393
##mbi	16394
##عق	16395
##عن	16396
##عہ	16397
##عفر	16398
##چل	16399
##ئل	16400
##ير	16401
##ఖీ	16402
##wf	16403
##fs	16404
##فی	16405
##فل	16406
##خب	16407
##صول	16408
##jin	16409
##طی	16410
##ضر	16411
##ڈر	16412
##ڈل	16413
##ڈز	16414
##گیا	16415
##ୋକ	16416
##شٹ	16417
##شہ	16418
##شیا	16419
##شمی	16420
##हर	16421
##qi	16422
##ୁଲ	16423
##ାତ	16424
##ାଲ	16425
##ସି	16426
##ಲ್	16427
##ثیق	16428
##آمد	16429
##ढ़	16430
##ây	16431
చేల	16432
ప్రయత	16433
నిపై	16434
ించన	16435
ించను	16436
కురి	16437
కుపో	16438
్రంగ	16439
రాచ	16440
ర్ఎస్	16441
ారత్	16442
కూత	16443
వాక	16444
పెం	16445
్తంగ	16446
సంస	16447
రోత	16448
డి3	16449
చేయక	16450
సిద్	16451
సాక	16452
్యార్	16453
్థు	16454
్థాయ	16455
సమత	16456
బాస	16457
మెగ	16458
ుకూ	16459
అవీ	16460
##పోవ	16461
ందనే	16462
దితర	16463
తనీ	16464
మేడ	16465
కలగ	16466
శాక	16467
నెర	16468
టీట	16469
టీఐ	16470
ంటాయ	16471
చ్చన	16472
పుకు	16473
తీత	16474
భాద	16475
లేదన	16476
మిశ	16477
ఎం4	16478
మహీ	16479
మొల	16480
జీ1	16481
జీఈ	16482
తిం	16483
మోయ	16484
్కల	16485
పొద	16486
పొత	16487
ప్ె	16488
బీఈ	16489
యించి	16490
బిఐ	16491
పీత	16492
పీఐ	16493
పీఠ	16494
అతన	16495
యుగ	16496
మనూ	16497
ంచనా	16498
ర్యద	16499
ఇకడ	16500
డుస	16501
టెంబ	16502
స్థిత	16503
ందిస్	16504
రోగ్	16505
ఉదర	16506
ెళ్లా	16507
ెళ్లే	16508
అధా	16509
్రీవా	16510
ఫోన	16511
ంపెన	16512
తలై	16513
ీర్పు	16514
తుం	16515
యోః	16516
ాప్తం	16517
20ల	16518
వాదా	16519
ిధా	16520
సరమ	16521
టికెట	16522
నలక	16523
హోమ	16524
్లిద	16525
గణం	16526
్నింగ	16527
్పుడు	16528
రహాల	16529
నవమ	16530
గూబ	16531
గూఢ	16532
507	16533
کیو	16534
کین	16535
పథం	16536
అయే	16537
254	16538
ఏకో	16539
టేషన	16540
్ట్రే	16541
17ఎ	16542
్రేలి	16543
చావ	16544
వాలం	16545
ధీర	16546
ఉద్యో	16547
40వ	16548
408	16549
407	16550
##har	16551
చరమ	16552
ఊరూ	16553
పలస	16554
ర్యాప	16555
rec	16556
rech	16557
rect	16558
rese	16559
reis	16560
regu	16561
revn	16562
పటా	16563
ఆగక	16564
##and	16565
##ank	16566
alla	16567
alle	16568
alce	16569
ally	16570
alto	16571
altr	16572
ras	16573
rap	16574
rava	16575
rasi	16576
rally	16577
raksh	16578
raza	16579
##ارا	16580
##ارے	16581
##ارن	16582
60ల	16583
602	16584
603	16585
604	16586
کوٹ	16587
کون	16588
کوہ	16589
کوچ	16590
తులన	16591
ایٹ	16592
ایت	16593
ایسٹ	16594
ایتھ	16595
పంచం	16596
316	16597
انو	16598
اند	16599
انیس	16600
انعق	16601
پرنٹ	16602
پریم	16603
پرفل	16604
##ائق	16605
##ائم	16606
##ائن	16607
ina	16608
inf	16609
insi	16610
ుగుప	16611
کاون	16612
کرم	16613
کرائ	16614
کران	16615
کریک	16616
کرنی	16617
کرشن	16618
کرائے	16619
کرسم	16620
کرانے	16621
کریٹ	16622
کرایا	16623
کرپٹ	16624
##ons	16625
ఇదా	16626
కమీ	16627
కొనసా	16628
ano	16629
ans	16630
ang	16631
anna	16632
anir	16633
anve	16634
anup	16635
anne	16636
tia	16637
tic	16638
tit	16639
tim	16640
tire	16641
tika	16642
tita	16643
##الت	16644
##الف	16645
naa	16646
nat	16647
ిత్రం	16648
via	16649
vir	16650
vio	16651
vij	16652
vidy	16653
ving	16654
vista	16655
vigy	16656
పతన	16657
70ల	16658
704	16659
tein	16660
tele	16661
805	16662
80c	16663
359	16664
సగర	16665
తృణ	16666
کہنے	16667
کہتا	16668
ready	16669
45w	16670
ہوم	16671
ہوائ	16672
ہوائی	16673
ہوبہ	16674
ోళన	16675
్టీక	16676
shy	16677
sher	16678
shre	16679
shya	16680
shine	16681
ఏడూ	16682
ప్రచా	16683
90వ	16684
908	16685
901	16686
907	16687
cou	16688
coe	16689
cost	16690
cold	16691
cous	16692
colo	16693
మసక	16694
మగ్	16695
##ina	16696
##int	16697
ేకపోవ	16698
nex	16699
nect	16700
ndo	16701
ndh	16702
ndal	16703
ndsa	16704
ndpp	16705
##ویت	16706
##ویش	16707
ttle	16708
##ئیل	16709
mas	16710
maan	16711
maps	16712
mast	16713
maka	16714
mail	16715
mate	16716
mack	16717
majin	16718
758	16719
756	16720
757	16721
god	16722
gobi	16723
goes	16724
pace	16725
##ریہ	16726
##ریئ	16727
##لاغ	16728
486	16729
ais	16730
322	16731
328	16732
ధవళ	16733
chau	16734
422	16735
bas	16736
bac	16737
baps	16738
bagh	16739
back	16740
కదూ	16741
పగల	16742
apc	16743
346	16744
347	16745
##icy	16746
ریپ	16747
ریف	16748
ریئر	16749
ریٹر	16750
ریجن	16751
ریشم	16752
comi	16753
وائن	16754
ths	16755
thy	16756
thin	16757
thre	16758
thod	16759
vsp	16760
stf	16761
stee	16762
amr	16763
amu	16764
amb	16765
amri	16766
amma	16767
హదా	16768
మదం	16769
saa	16770
savi	16771
samy	16772
sawa	16773
sabh	16774
نہرو	16775
پید	16776
پیلی	16777
388	16778
381	16779
arr	16780
aru	16781
ars	16782
arya	16783
arti	16784
arty	16785
jac	16786
jain	16787
jame	16788
jack	16789
jawa	16790
jathi	16791
jaxa	16792
558	16793
553	16794
tsk	16795
tssp	16796
tslp	16797
chu	16798
chin	16799
niha	16800
nira	16801
nish	16802
nima	16803
nita	16804
nirf	16805
41a	16806
418	16807
655	16808
651	16809
653	16810
657	16811
امبی	16812
##ung	16813
త‌ల	16814
یافت	16815
یاہو	16816
393	16817
394	16818
441	16819
443	16820
447	16821
బూం	16822
ern	16823
ntv	16824
ntri	16825
mos	16826
mood	16827
moksh	16828
deo	16829
deb	16830
dece	16831
deta	16832
پوز	16833
پوزی	16834
464	16835
دیتا	16836
دیسی	16837
رہیں	16838
رہتے	16839
lai	16840
laws	16841
523	16842
527	16843
515	16844
510	16845
519	16846
517	16847
prada	16848
pradh	16849
prudh	16850
gum	16851
guin	16852
sub	16853
sude	16854
suic	16855
suda	16856
sufi	16857
sudha	16858
ిప్రా	16859
546	16860
544	16861
493	16862
479	16863
478	16864
476	16865
477	16866
435	16867
432	16868
431	16869
433	16870
436	16871
tai	16872
tax	16873
tain	16874
tail	16875
take	16876
tamp	16877
taste	16878
vaha	16879
vash	16880
vass	16881
vats	16882
vasi	16883
vaji	16884
سول	16885
سوک	16886
سوس	16887
سوم	16888
سوڈ	16889
سوار	16890
سونگ	16891
سونا	16892
سواری	16893
سومن	16894
سوگیا	16895
سوویت	16896
بھیج	16897
56వ	16898
562	16899
564	16900
729	16901
728	16902
్యేక	16903
tol	16904
toll	16905
toge	16906
tomc	16907
اپتی	16908
اپیل	16909
mee	16910
mel	16911
mes	16912
mess	16913
memu	16914
అరె	16915
faa	16916
fau	16917
fate	16918
fami	16919
plai	16920
85ರ	16921
85వ	16922
usha	16923
usgs	16924
اتراک	16925
جانو	16926
جانئے	16927
سریو	16928
سرنگ	16929
سرحد	16930
ینٹ	16931
ینہ	16932
das	16933
date	16934
dami	16935
data	16936
533	16937
537	16938
##نیش	16939
ارٹ	16940
64వ	16941
yah	16942
yak	16943
yam	16944
yaka	16945
abe	16946
thar	16947
thai	16948
570	16949
572	16950
573	16951
pmc	16952
pmk	16953
pmki	16954
59వ	16955
599	16956
596	16957
miraj	16958
توبہ	16959
توثیق	16960
malay	16961
58వ	16962
cag	16963
kale	16964
kalya	16965
sir	16966
sit	16967
side	16968
simu	16969
sign	16970
ٹیٹ	16971
ٹیگ	16972
్మెం	16973
انہد	16974
635	16975
638	16976
633	16977
66వ	16978
668	16979
die	16980
dif	16981
dial	16982
dile	16983
divi	16984
62వ	16985
628	16986
621	16987
624	16988
ond	16989
ony	16990
orn	16991
orce	16992
loo	16993
lop	16994
sed	16995
sesh	16996
sele	16997
sess	16998
seed	16999
بیلٹ	17000
acv	17001
acha	17002
ris	17003
rip	17004
rika	17005
ritu	17006
risk	17007
رود	17008
روشن	17009
روسی	17010
مولا	17011
موسی	17012
موسلا	17013
موصول	17014
بھون	17015
بھرے	17016
بھگوا	17017
سیتا	17018
سیلو	17019
boy	17020
box	17021
bois	17022
bobb	17023
boys	17024
boat	17025
kup	17026
kuda	17027
kudu	17028
kuwa	17029
lie	17030
lim	17031
lion	17032
rui	17033
ruha	17034
ruth	17035
rush	17036
99వ	17037
990	17038
992	17039
991	17040
675	17041
67వ	17042
678	17043
671	17044
95వ	17045
959	17046
957	17047
ملائ	17048
they	17049
praja	17050
prabh	17051
prith	17052
pride	17053
prize	17054
wai	17055
was	17056
wat	17057
wam	17058
wash	17059
waya	17060
846	17061
847	17062
612	17063
611	17064
613	17065
719	17066
713	17067
cec	17068
cef	17069
isa	17070
isk	17071
isma	17072
rod	17073
ros	17074
rog	17075
rosh	17076
rome	17077
roup	17078
rover	17079
wwf	17080
691	17081
697	17082
kara	17083
karu	17084
mang	17085
manja	17086
manju	17087
icu	17088
icl	17089
769	17090
766	17091
775	17092
779	17093
771	17094
774	17095
یونگ	17096
785	17097
788	17098
786	17099
829	17100
824	17101
نگل	17102
ویٹ	17103
ویژ	17104
ویسٹ	17105
ویشن	17106
ویدک	17107
ویریئ	17108
جوزف	17109
advi	17110
adgp	17111
لیج	17112
لیرا	17113
فرسٹ	17114
منزل	17115
منشیا	17116
پاپ	17117
پادر	17118
پازیٹ	17119
cks	17120
cky	17121
دوڑ	17122
دوہر	17123
دیشم	17124
680	17125
687	17126
ngal	17127
uppol	17128
دیکر	17129
732	17130
738	17131
737	17132
734	17133
cmf	17134
ens	17135
ent	17136
endra	17137
887	17138
hip	17139
hija	17140
hibo	17141
oft	17142
yoy	17143
yoga	17144
yoja	17145
اباب	17146
ابتد	17147
ابلاغ	17148
భీమ	17149
ుంబై	17150
##ادر	17151
rajy	17152
745	17153
741	17154
747	17155
bish	17156
bile	17157
bide	17158
bimbi	17159
gavi	17160
gaut	17161
gaza	17162
sou	17163
soh	17164
soon	17165
soma	17166
soun	17167
sour	17168
somu	17169
sohe	17170
متھرا	17171
پہن	17172
پہنا	17173
ncp	17174
ncf	17175
ncer	17176
ncpa	17177
ncap	17178
815	17179
813	17180
816	17181
సృష్	17182
word	17183
work	17184
وہی	17185
896	17186
897	17187
coni	17188
ssrmb	17189
sslc	17190
ڈیلیٹ	17191
atu	17192
atl	17193
atlu	17194
ఏఈఓ	17195
جنرل	17196
83వ	17197
837	17198
cial	17199
cibi	17200
cita	17201
cipet	17202
iis	17203
یکس	17204
یکم	17205
866	17206
92వ	17207
928	17208
921	17209
926	17210
gana	17211
gande	17212
gangu	17213
unst	17214
prof	17215
prote	17216
heat	17217
noi	17218
nov	17219
nob	17220
nora	17221
novo	17222
రప్రద	17223
hay	17224
hap	17225
ham	17226
haq	17227
hass	17228
haji	17229
جھگڑ	17230
جاچ	17231
جایا	17232
بنائے	17233
گروہ	17234
978	17235
974	17236
تحفظ	17237
ملاز	17238
875	17239
eph	17240
mura	17241
muru	17242
mudru	17243
الج	17244
الائ	17245
الٹی	17246
العو	17247
792	17248
798	17249
797	17250
960	17251
988	17252
mph	17253
mpt	17254
rta	17255
ترقی	17256
ترکی	17257
میسیج	17258
##crp	17259
rrts	17260
spri	17261
spea	17262
spicy	17263
ese	17264
్తోం	17265
ings	17266
پارل	17267
پارلی	17268
پارسی	17269
##اکر	17270
930	17271
939	17272
ونٹ	17273
doe	17274
doj	17275
down	17276
آرائی	17277
ائٹ	17278
ائپ	17279
ائش	17280
ంధిం	17281
indu	17282
indra	17283
fish	17284
fide	17285
tum	17286
tuber	17287
راست	17288
رافٹ	17289
راشٹ	17290
سبھی	17291
aslv	17292
qui	17293
soni	17294
song	17295
اکر	17296
اکی	17297
اکہ	17298
اکوں	17299
کمی	17300
کملا	17301
کمیٹ	17302
مقر	17303
مقبول	17304
ہیرا	17305
opi	17306
oper	17307
opin	17308
oppe	17309
mahi	17310
945	17311
940	17312
941	17313
944	17314
due	17315
dutt	17316
scc	17317
scert	17318
veg	17319
veh	17320
بریان	17321
برآمد	17322
سکا	17323
سکند	17324
hod	17325
hol	17326
hos	17327
hob	17328
hori	17329
srila	17330
but	17331
bubb	17332
رکو	17333
رکابی	17334
رکاوٹ	17335
گھس	17336
konde	17337
krith	17338
معطل	17339
معروف	17340
معتبر	17341
ilk	17342
ilsa	17343
kes	17344
kek	17345
santo	17346
vane	17347
vanda	17348
محنت	17349
مدھ	17350
مدرا	17351
مدعو	17352
وجوہ	17353
గ‌జ	17354
joy	17355
jour	17356
joke	17357
jodo	17358
john	17359
koo	17360
kop	17361
koil	17362
maru	17363
درست	17364
درگا	17365
ورت	17366
وردی	17367
నమోదు	17368
ملکر	17369
ملکی	17370
bsf	17371
iata	17372
اعتب	17373
ndas	17374
ریسلر	17375
imdb	17376
hema	17377
heck	17378
افر	17379
افریق	17380
افتت	17381
پڑی	17382
bhi	17383
bhp	17384
bhil	17385
pari	17386
url	17387
ادا	17388
کھلا	17389
حملوں	17390
غلام	17391
viraj	17392
srk	17393
ٹرک	17394
ٹرار	17395
ٹرول	17396
ٹرائل	17397
mali	17398
mall	17399
malh	17400
مبنی	17401
کنٹ	17402
گیٹ	17403
گیتا	17404
gpu	17405
tgsp	17406
trici	17407
్టులు	17408
aye	17409
ayya	17410
سائن	17411
پھنس	17412
پورا	17413
پورے	17414
jih	17415
jiga	17416
phd	17417
phi	17418
phil	17419
اوق	17420
اوپ	17421
اوپر	17422
بچال	17423
بچھا	17424
فیشل	17425
فیملی	17426
مضبو	17427
کلوم	17428
ahmed	17429
ktha	17430
mrm	17431
تقاری	17432
تقرری	17433
رامم	17434
stab	17435
ooru	17436
فارو	17437
لیکر	17438
نیپ	17439
نیتا	17440
یٹک	17441
యతీ	17442
##افت	17443
chip	17444
گردے	17445
msp	17446
msrtc	17447
pel	17448
pear	17449
peda	17450
whois	17451
بہن	17452
نکاح	17453
نکالی	17454
ీసుకో	17455
idbi	17456
nktr	17457
terp	17458
آپر	17459
آپا	17460
آپشن	17461
مشرق	17462
ترجم	17463
01న	17464
bela	17465
been	17466
bett	17467
سامبھ	17468
نامہ	17469
واران	17470
ଆସଦ	17471
ଆସି	17472
bcb	17473
csr	17474
csc	17475
csir	17476
csds	17477
wall	17478
ٹریٹ	17479
రధం	17480
kapu	17481
cry	17482
fed	17483
fef	17484
fema	17485
vox	17486
what	17487
باڑ	17488
باشن	17489
بااخ	17490
خوف	17491
خواب	17492
دھار	17493
گواس	17494
ہورہے	17495
ریلز	17496
ریلائ	17497
sidha	17498
دوسرا	17499
rajiv	17500
تیارک	17501
040	17502
044	17503
akal	17504
dhan	17505
irt	17506
irdai	17507
luth	17508
mlff	17509
pith	17510
venk	17511
اہل	17512
سیاست	17513
مریا	17514
پھیلی	17515
پھیری	17516
cards	17517
fos	17518
fold	17519
foll	17520
food	17521
found	17522
mys	17523
myst	17524
mygo	17525
palo	17526
ryu	17527
sdg	17528
sdf	17529
uav	17530
uapa	17531
مجھے	17532
ٹکڑے	17533
کتیا	17534
کتنے	17535
کتنا	17536
మ‌గ	17537
انکم	17538
start	17539
cpl	17540
cpm	17541
cpro	17542
minds	17543
skin	17544
عنق	17545
انگلی	17546
shobi	17547
saif	17548
a15	17549
a12	17550
a17	17551
ecg	17552
ecf	17553
econ	17554
ficci	17555
ifs	17556
kiar	17557
type	17558
xii	17559
آبادی	17560
جیسی	17561
خطے	17562
خطرہ	17563
مماث	17564
مذمت	17565
sury	17566
waymo	17567
فروش	17568
ajsu	17569
ashi	17570
kangu	17571
lyn	17572
دستے	17573
چھت	17574
چھوٹ	17575
چھتر	17576
جھنڈا	17577
رکھے	17578
رکھتے	17579
agm	17580
awa	17581
awad	17582
jui	17583
just	17584
چاہتا	17585
అటక	17586
پھرتے	17587
gener	17588
hub	17589
huaw	17590
iods	17591
nsdl	17592
panch	17593
sund	17594
وفائل	17595
ଜଣା	17596
ایپل	17597
ایپس	17598
tgsw	17599
afri	17600
మఠ్	17601
ేయాలన	17602
gopi	17603
vamsh	17604
avn	17605
avu	17606
avina	17607
cbt	17608
dani	17609
kers	17610
اگلا	17611
تجارت	17612
سیکو	17613
سیکٹ	17614
దమన	17615
choi	17616
chow	17617
متنبہ	17618
ign	17619
igv	17620
igdc	17621
llb	17622
llp	17623
mona	17624
mons	17625
rtcon	17626
try	17627
xyz	17628
اضلاع	17629
بابا	17630
جلانے	17631
حاضر	17632
ضلعی	17633
لینڈر	17634
نتیش	17635
ଆପ୍	17636
థులు	17637
##وفی	17638
girl	17639
peru	17640
rice	17641
rich	17642
ugadi	17643
آگرہ	17644
اٹھ	17645
بندھو	17646
لکشمی	17647
لنکا	17648
مکیش	17649
منیش	17650
یونٹ	17651
करो	17652
ಅದು	17653
jaish	17654
بڑھتے	17655
بڑھتی	17656
plane	17657
plans	17658
efl	17659
ied	17660
muse	17661
seri	17662
tors	17663
tory	17664
vall	17665
بینک	17666
تنخ	17667
داخلہ	17668
نسل	17669
فیصلے	17670
cno	17671
cnx	17672
clp	17673
dona	17674
khil	17675
pink	17676
rjdc	17677
udf	17678
شمال	17679
نمود	17680
نعرہ	17681
نعروں	17682
ٹویٹر	17683
چرن	17684
چرچ	17685
چربی	17686
چارچ	17687
साल	17688
##یٹل	17689
రేలియ	17690
maama	17691
بیٹھ	17692
منتخب	17693
aeps	17694
arab	17695
ddr	17696
ddha	17697
dhr	17698
dhfl	17699
ecis	17700
gslv	17701
ghav	17702
pwd	17703
trop	17704
سلامی	17705
فوٹو	17706
وکرم	17707
پلوی	17708
چہل	17709
چہرہ	17710
کسان	17711
kamma	17712
iiit	17713
cros	17714
crop	17715
horos	17716
mcd	17717
pune	17718
peta	17719
tarun	17720
اڈوم	17721
صحاف	17722
قصبے	17723
لاٹھی	17724
لاپتہ	17725
ماضی	17726
نظارہ	17727
وسطی	17728
پکار	17729
پکڑے	17730
پکڑا	17731
کپور	17732
کھینچ	17733
ऐसी	17734
ఏ34	17735
معذرت	17736
جمعہ	17737
اضافی	17738
اضافے	17739
aos	17740
bnpb	17741
farme	17742
fall	17743
june	17744
ksha	17745
ksrtc	17746
lalla	17747
okka	17748
تعارف	17749
تعاون	17750
خوبص	17751
سچن	17752
نقاب	17753
پیکر	17754
چکے	17755
ڈالتے	17756
ଦେବ	17757
ంవత్	17758
انجلی	17759
copi	17760
stem	17761
sathe	17762
sathy	17763
ترنگے	17764
مقدار	17765
پٹنہ	17766
brl	17767
bpcl	17768
barr	17769
blog	17770
mvr	17771
narne	17772
padma	17773
tqi	17774
بحریہ	17775
بجلی	17776
بالخ	17777
تیرتھ	17778
خانہ	17779
دکان	17780
دفعہ	17781
زدہ	17782
پالیس	17783
پنیلی	17784
ڈاکو	17785
گزین	17786
گرمی	17787
ଅଫ୍	17788
ନାଁ	17789
ନାଥ	17790
ମାସ	17791
یادو	17792
منسوب	17793
hasan	17794
ٹوڈنٹ	17795
پڑھیں	17796
پڑھائ	17797
پڑھنے	17798
?..	17799
akhi	17800
dpr	17801
glov	17802
glob	17803
nfr	17804
pcb	17805
svcc	17806
snap	17807
sche	17808
twger	17809
veep	17810
بتات	17811
خدمت	17812
رجنی	17813
رتن	17814
رتنی	17815
ساوتھ	17816
سپاہی	17817
فلسط	17818
قبائل	17819
نارا	17820
ٹولس	17821
پیاک	17822
ہفتہ	17823
అమెరి	17824
ఇగో	17825
ఈదర	17826
##وصی	17827
kavva	17828
bomn	17829
imfl	17830
میٹنگ	17831
کھڑی	17832
نمائن	17833
نمائش	17834
حادثہ	17835
borse	17836
bili	17837
flash	17838
gvmc	17839
great	17840
honey	17841
jyo	17842
mmala	17843
nner	17844
nnadh	17845
occrp	17846
squa	17847
year	17848
zai	17849
آرہے	17850
بانگ	17851
حدود	17852
خلل	17853
خلائی	17854
ذہنی	17855
ضروری	17856
مڈپ	17857
مہاجر	17858
ٹیکلس	17859
پجارن	17860
आपा	17861
खाए	17862
चले	17863
కఫం	17864
انفلو	17865
vidad	17866
corn	17867
corp	17868
covf	17869
matri	17870
thoma	17871
nirma	17872
nirva	17873
ipads	17874
factc	17875
سرخی	17876
waves	17877
addre	17878
جنہوں	17879
weddi	17880
نکالن	17881
venue	17882
???	17883
ajith	17884
cred	17885
fcpa	17886
kvp	17887
kbr	17888
kbps	17889
mbai	17890
nvsp	17891
rjuna	17892
slap	17893
اصلی	17894
سانپ	17895
طبق	17896
طبع	17897
فورسز	17898
قلعی	17899
قلعہ	17900
مخلت	17901
مخالف	17902
مگل	17903
میاں	17904
نجی	17905
وموشن	17906
وعدہ	17907
ٹاٹا	17908
پائپ	17909
ڈاگ	17910
کھات	17911
گڑھ	17912
گڑگا	17913
कहा	17914
पास	17915
ହେବ	17916
ହେଉ	17917
అగమ	17918
ఈకో	17919
ఓహో	17920
హొం	17921
sacn	17922
سروسز	17923
اربن	17924
الرح	17925
معاشر	17926
معاوض	17927
نکلنے	17928
مشکل	17929
مشکوک	17930
پلانٹ	17931
kphb	17932
black	17933
blue	17934
c55	17935
cxo	17936
crude	17937
cdsc	17938
frie	17939
hbd	17940
kind	17941
kunth	17942
mnf	17943
mhip	17944
nrts	17945
vhp	17946
when	17947
xai	17948
zie	17949
zeal	17950
آلود	17951
آموں	17952
بریک	17953
برہم	17954
جیکٹ	17955
جلسے	17956
حقیقت	17957
دینا	17958
رعیت	17959
رادھ	17960
سیول	17961
سلسلے	17962
شوہر	17963
صوبے	17964
طنز	17965
عرضی	17966
قدمی	17967
مریض	17968
نصير	17969
پگھل	17970
ڈھائی	17971
گلوبل	17972
گولڈ	17973
दूध	17974
राह	17975
ଏତେ	17976
ଦାସ	17977
ପରି	17978
ଯାଏ	17979
జ‌మ	17980
ನಾಶ	17981
انٹلی	17982
coach	17983
ریزرو	17984
jasmi	17985
dimri	17986
selva	17987
solar	17988
civil	17989
haarp	17990
جاپان	17991
مطلوب	17992
الدین	17993
مقدمے	17994
kolka	17995
گیمز	17996
kisan	17997
چاہیے	17998
بلڈوز	17999
(*)	18000
3km	18001
c63	18002
club	18003
ekyc	18004
fadna	18005
fraud	18006
h1b	18007
ium	18008
jhan	18009
mmel	18010
mrsi	18011
owai	18012
pdate	18013
uttar	18014
ʼದಿ	18015
اختت	18016
بٹال	18017
بعض	18018
بلاگ	18019
تعلیم	18020
ثبوت	18021
حقائق	18022
حجاب	18023
حفاظ	18024
حذف	18025
خصوصی	18026
خارج	18027
دئیے	18028
ربیع	18029
زخمی	18030
زبرد	18031
سعود	18032
سلفر	18033
سافٹ	18034
شیڈول	18035
شاہک	18036
عصمت	18037
عارضی	18038
فالو	18039
لحہ	18040
لپیٹ	18041
میون	18042
مخصوص	18043
نالٹ	18044
نیتن	18045
نرنجن	18046
پنڈال	18047
پنکی	18048
پنجاب	18049
چیلنج	18050
ڈجیٹل	18051
ڈھیر	18052
کلمہ	18053
ہلچل	18054
ہدف	18055
ہڑتال	18056
ہجوم	18057
ہلکی	18058
ہاؤس	18059
आउट	18060
एवं	18061
खबर	18062
चीन	18063
जेल	18064
टीम	18065
थूक	18066
नकद	18067
बदल	18068
बेर	18069
भेज	18070
मदद	18071
मिल	18072
युग	18073
हूं	18074
ଅଛି	18075
ଅଂଶ	18076
ଏଏନ	18077
ଖୀର	18078
ଗଠନ	18079
ଜମା	18080
ନୂଆ	18081
ପୁଅ	18082
ଫୋନ	18083
ମୁଁ	18084
ସବୁ	18085
ସିଂ	18086
ହିଁ	18087
୫ଟା	18088
ఈబే	18089
ఓచా	18090
కభీ	18091
కఛ్	18092
ఘ‌న	18093
జహా	18094
లమెం	18095
శయన	18096
శఆఖ	18097
హగై	18098
ಏರ್	18099
ದೇಶ	18100
ನಗರ	18101
ಪದೇ	18102
ಬಳಿ	18103
ಯೋಗ	18104
ರಫಿ	18105
ಶುಭ	18106
‌సభ	18107
vidya	18108
ریٹرن	18109
ریشما	18110
steel	18111
samyu	18112
jawah	18113
fateh	18114
سیلوڈ	18115
bobby	18116
مضبوط	18117
mygov	18118
مماثل	18119
مخلتف	18120
حفاظت	18121
"।	18122
'-	18123
(.	18124
(+	18125
(#	18126
('	18127
+,	18128
+:	18129
,,	18130
-.	18131
-"	18132
-,	18133
.-	18134
.)	18135
.?	18136
.,	18137
.!	18138
0⃣	18139
1a	18140
1b	18141
1c	18142
1‌	18143
1⃣	18144
1నే	18145
1pm	18146
1బి	18147
2ల	18148
2a	18149
2s	18150
2g	18151
2ఏ	18152
2౩	18153
2ని	18154
2నే	18155
2mp	18156
2nm	18157
3r	18158
3x	18159
3ఈ	18160
3డి	18161
3ఎం	18162
3జీ	18163
3బీ	18164
3mp	18165
3ds	18166
3జి	18167
3డే	18168
4ರ	18169
4s	18170
4v	18171
4⃣	18172
4గా	18173
4నే	18174
4సీ	18175
4th	18176
4జి	18177
5a	18178
5t	18179
5k	18180
5ని	18181
5గా	18182
5కి	18183
5th	18184
5జి	18185
5nm	18186
6g	18187
6౦	18188
6ని	18189
6లో	18190
6గా	18191
6కు	18192
6కి	18193
6నే	18194
7a	18195
7k	18196
7ఏ	18197
7తో	18198
8నే	18199
8తో	18200
9గా	18201
9తో	18202
9gb	18203
==	18204
?-	18205
?!	18206
_1	18207
aల	18208
az	18209
a9	18210
aట	18211
a8	18212
a6	18213
aఇ	18214
aతో	18215
aపై	18216
aer	18217
aon	18218
ain	18219
ade	18220
aws	18221
aja	18222
adh	18223
ats	18224
att	18225
ake	18226
ave	18227
agg	18228
aunt	18229
afc	18230
aes	18231
aza	18232
a05	18233
bd	18234
b5	18235
bz	18236
bf	18237
bq	18238
bru	18239
bya	18240
btc	18241
bte	18242
bee	18243
bara	18244
bdp	18245
bet	18246
bba	18247
bki	18248
bgb	18249
bbs	18250
bram	18251
bpa	18252
bmr	18253
bsta	18254
bks	18255
btu	18256
bard	18257
bord	18258
btr	18259
bich	18260
bwf	18261
cd	18262
cz	18263
cv	18264
cj	18265
cả	18266
cầ	18267
cతో	18268
cra	18269
cst	18270
cce	18271
cil	18272
cee	18273
csa	18274
cbe	18275
cgh	18276
ccl	18277
cfc	18278
cut	18279
cul	18280
ccs	18281
clf	18282
cfa	18283
cfw	18284
dx	18285
d8	18286
d1	18287
d7	18288
dq	18289
dla	18290
dth	18291
dst	18292
dre	18293
dor	18294
ding	18295
drea	18296
dmi	18297
dup	18298
drc	18299
dcr	18300
dana	18301
dare	18302
dne	18303
ddc	18304
dpa	18305
dji	18306
dca	18307
dnr	18308
dwa	18309
dcs	18310
dlf	18311
dks	18312
dfw	18313
dwf	18314
dfs	18315
dây	18316
eర	18317
eha	18318
eer	18319
eal	18320
ere	18321
ess	18322
eld	18323
ena	18324
eur	18325
ech	18326
eve	18327
eup	18328
ect	18329
edp	18330
e20	18331
eet	18332
ecr	18333
eta	18334
eba	18335
ems	18336
egg	18337
eod	18338
ees	18339
ewe	18340
eze	18341
fn	18342
f2	18343
f7	18344
fth	18345
fre	18346
flu	18347
fwi	18348
fbi	18349
fim	18350
fcr	18351
fta	18352
fba	18353
fmc	18354
fter	18355
fcl	18356
fsi	18357
ffo	18358
fill	18359
fund	18360
fpo	18361
g5	18362
gn	18363
gz	18364
gg	18365
g2	18366
g8	18367
g1	18368
gk	18369
gw	18370
gsh	18371
gde	18372
gil	18373
ging	18374
gpsc	18375
gbc	18376
gjp	18377
gge	18378
gara	18379
gci	18380
gse	18381
gmc	18382
gine	18383
gne	18384
gsi	18385
gadu	18386
gls	18387
gto	18388
gger	18389
gcu	18390
gill	18391
ggu	18392
gree	18393
guna	18394
gnm	18395
gff	18396
gdai	18397
gây	18398
hl	18399
hh	18400
hv	18401
hx	18402
h3	18403
hw	18404
hra	18405
hic	18406
hur	18407
hts	18408
hpsc	18409
hee	18410
hup	18411
hara	18412
het	18413
hana	18414
hmc	18415
hgi	18416
hrtc	18417
hpa	18418
hରେ	18419
hfx	18420
hhs	18421
htp	18422
hong	18423
hmie	18424
hence	18425
hqi	18426
iz	18427
iy	18428
iలు	18429
ier	18430
ire	18431
iic	18432
ior	18433
iws	18434
ida	18435
idh	18436
ili	18437
ibc	18438
imi	18439
itt	18440
i20	18441
iba	18442
ilo	18443
iday	18444
ibe	18445
iki	18446
iod	18447
ife	18448
ibs	18449
ifc	18450
iel	18451
ies	18452
ije	18453
iung	18454
jl	18455
jp	18456
j1	18457
jw	18458
jq	18459
jer	18460
jps	18461
jma	18462
jor	18463
jil	18464
jna	18465
jts	18466
jll	18467
jmi	18468
jsa	18469
jus	18470
jdu	18471
jia	18472
jgi	18473
jbs	18474
jsc	18475
jnr	18476
jpe	18477
jong	18478
jord	18479
kd	18480
kల	18481
kr	18482
kx	18483
kf	18484
kj	18485
kad	18486
kru	18487
kli	18488
kya	18489
ktc	18490
kbc	18491
kke	18492
kim	18493
kmc	18494
kfi	18495
kpa	18496
ksc	18497
kadu	18498
kcc	18499
kmy	18500
kcp	18501
kadi	18502
kuna	18503
knm	18504
kick	18505
krmb	18506
kthi	18507
lr	18508
l6	18509
lq	18510
lon	18511
lde	18512
llu	18513
lva	18514
lke	18515
lve	18516
lup	18517
lus	18518
lba	18519
lms	18520
ladh	18521
lne	18522
lhi	18523
lls	18524
lver	18525
lnh	18526
lzd	18527
mf	18528
mq	18529
mra	18530
mri	18531
mde	18532
mor	18533
mun	18534
mdh	18535
mvi	18536
mna	18537
mro	18538
mjp	18539
mdp	18540
mci	18541
mgb	18542
mine	18543
mone	18544
mtv	18545
mza	18546
mnp	18547
n5	18548
nx	18549
n6	18550
nw	18551
nư	18552
nla	18553
nin	18554
nsh	18555
nre	18556
nva	18557
nun	18558
nvi	18559
nli	18560
nro	18561
nbc	18562
nup	18563
nmar	18564
nse	18565
nsu	18566
nlo	18567
nada	18568
nadh	18569
nne	18570
nsi	18571
nhi	18572
nfo	18573
nsp	18574
nni	18575
nno	18576
nadi	18577
nwr	18578
nsop	18579
nlk	18580
oar	18581
oso	18582
oin	18583
olu	18584
oda	18585
oka	18586
old	18587
oli	18588
opsc	18589
oho	18590
oke	18591
oct	18592
oci	18593
ota	18594
oba	18595
oms	18596
omc	18597
oly	18598
oia	18599
oam	18600
ogi	18601
ohi	18602
oec	18603
over	18604
oem	18605
oung	18606
pn	18607
pb	18608
pp	18609
pk	18610
p3	18611
pq	18612
pma	18613
pen	18614
pme	18615
pli	18616
pts	18617
pbc	18618
psa	18619
pcr	18620
pana	18621
ply	18622
pti	18623
pdc	18624
pca	18625
pnr	18626
pls	18627
ppl	18628
ppf	18629
pent	18630
ppi	18631
ppp	18632
pnt	18633
qn	18634
qa	18635
qe	18636
ql	18637
qh	18638
qc	18639
q3	18640
q7	18641
q4	18642
qing	18643
qir	18644
qrf	18645
qat	18646
qpp	18647
rz	18648
rp	18649
r8	18650
rw	18651
rq	18652
rơ	18653
rar	18654
rla	18655
rst	18656
rde	18657
rce	18658
rka	18659
ril	18660
ring	18661
rte	18662
rjp	18663
rsa	18664
rds	18665
rgi	18666
rada	18667
rare	18668
rfc	18669
rlv	18670
rmo	18671
radi	18672
runa	18673
rzz	18674
sx	18675
số	18676
sra	18677
sss	18678
ska	18679
srs	18680
ssa	18681
sci	18682
slo	18683
sly	18684
sds	18685
sgb	18686
sbs	18687
sfi	18688
sdc	18689
sfc	18690
smu	18691
sfo	18692
sbb	18693
smo	18694
sfa	18695
sft	18696
s10	18697
tn	18698
tz	18699
tx	18700
t6	18701
t7	18702
tf	18703
tư	18704
tad	18705
tla	18706
tth	18707
tps	18708
tde	18709
tda	18710
tka	18711
tmi	18712
tcl	18713
tne	18714
tfc	18715
tpa	18716
tmu	18717
tmr	18718
tni	18719
trf	18720
twa	18721
tpe	18722
tpl	18723
tbo	18724
tft	18725
tree	18726
tnt	18727
tfw	18728
uz	18729
uo	18730
uu	18731
uy	18732
ub	18733
ux	18734
uf	18735
uan	18736
uin	18737
udi	18738
uva	18739
uda	18740
uli	18741
uts	18742
urs	18743
uro	18744
ull	18745
umi	18746
uday	18747
ucc	18748
utm	18749
uol	18750
vl	18751
vm	18752
vw	18753
vj	18754
vad	18755
von	18756
vsh	18757
vts	18758
vet	18759
vne	18760
vhe	18761
vxi	18762
wd	18763
wల	18764
wn	18765
wz	18766
wu	18767
wp	18768
w8	18769
wm	18770
w6	18771
wra	18772
wri	18773
wing	18774
wte	18775
wdp	18776
wta	18777
wms	18778
wine	18779
whi	18780
wfo	18781
wbb	18782
wks	18783
wsf	18784
wpc	18785
went	18786
wpi	18787
wbp	18788
x5	18789
xs	18790
xx	18791
x2	18792
xp	18793
x1	18794
xt	18795
x6	18796
xvi	18797
xకే	18798
x20	18799
xpl	18800
xdr	18801
yi	18802
yc	18803
yx	18804
y2	18805
yk	18806
yw	18807
yq	18808
yer	18809
yra	18810
yon	18811
yps	18812
yle	18813
yss	18814
ymc	18815
yji	18816
yel	18817
yut	18818
ytm	18819
yul	18820
ymo	18821
ybu	18822
ymw	18823
zr	18824
zy	18825
z9	18826
zw	18827
zan	18828
zen	18829
zil	18830
zna	18831
zho	18832
zim	18833
zsc	18834
zoo	18835
zpm	18836
zxi	18837
zpv	18838
ára	18839
đi	18840
đứ	18841
đan	18842
ườ	18843
ʼd7	18844
آو	18845
آک	18846
آہ	18847
آنگ	18848
آئر	18849
آکس	18850
آلو	18851
آنک	18852
آنج	18853
آزاد	18854
أض	18855
أمل	18856
ؤنٹ	18857
إل	18858
ئل	18859
ئند	18860
ئیر	18861
ئشن	18862
اغ	18863
اذ	18864
اُ	18865
ایا	18866
اال	18867
الی	18868
اوی	18869
ادی	18870
اعد	18871
اقی	18872
اڈو	18873
اقد	18874
اعداد	18875
اچھے	18876
اگوا	18877
بز	18878
بط	18879
بُ	18880
بیا	18881
بام	18882
بنے	18883
بلی	18884
بئی	18885
بنی	18886
برم	18887
بوج	18888
بسم	18889
بانی	18890
باند	18891
بجن	18892
بلیٹ	18893
بوری	18894
بلیک	18895
بوت	18896
برین	18897
بوس	18898
بدم	18899
بوڑ	18900
بگا	18901
براب	18902
بڈز	18903
تد	18904
تیں	18905
تام	18906
تائی	18907
تاخ	18908
تگی	18909
تسب	18910
تیوں	18911
ثق	18912
ثوب	18913
ثافت	18914
جج	18915
جز	18916
جت	18917
جغ	18918
جذ	18919
جنے	18920
جنی	18921
جیر	18922
جیل	18923
جدا	18924
جڈی	18925
جیوند	18926
جلیل	18927
جعفر	18928
حض	18929
حاب	18930
حلم	18931
حیت	18932
حامل	18933
حبی	18934
حلف	18935
حشر	18936
خی	18937
خز	18938
خف	18939
خە	18940
خور	18941
خام	18942
ختی	18943
خدا	18944
خیم	18945
خراب	18946
خالہ	18947
خلیل	18948
دب	18949
دم	18950
دڑ	18951
دئ	18952
دگ	18953
دان	18954
دلہ	18955
درہ	18956
دگو	18957
دست	18958
دانی	18959
داند	18960
دانے	18961
دمی	18962
داع	18963
دبے	18964
دایا	18965
دہاڑ	18966
دلیل	18967
دنیش	18968
ذات	18969
ذبح	18970
رن	18971
رار	18972
رری	18973
رشل	18974
رتی	18975
ررہ	18976
رگر	18977
رسم	18978
رشت	18979
رٹس	18980
رفت	18981
رشم	18982
رنج	18983
رشی	18984
رعام	18985
رفی	18986
رئیل	18987
زا	18988
زیک	18989
زوم	18990
زول	18991
زاق	18992
زعفر	18993
سف	18994
سخ	18995
سە	18996
سور	18997
سوی	18998
سات	18999
سدی	19000
ساہ	19001
سنی	19002
سیر	19003
سٹر	19004
سلک	19005
سست	19006
سپورٹ	19007
سراہ	19008
سندر	19009
سلو	19010
سپر	19011
سانس	19012
ساؤنڈ	19013
سلوک	19014
سحر	19015
سارا	19016
شت	19017
شور	19018
شار	19019
شات	19020
شعل	19021
شٹر	19022
شبی	19023
شاہر	19024
شاف	19025
شوک	19026
شوپ	19027
شالی	19028
شٹل	19029
شئیل	19030
صو	19031
صف	19032
صغ	19033
صائ	19034
صدی	19035
ضب	19036
ضم	19037
طی	19038
طے	19039
طي	19040
طغ	19041
طابق	19042
ظلم	19043
عق	19044
عس	19045
عبر	19046
عزی	19047
عدم	19048
عظیم	19049
غذ	19050
فس	19051
فڑ	19052
فیا	19053
فیڈ	19054
فیو	19055
فین	19056
فول	19057
فلک	19058
فاک	19059
فنڈ	19060
فریب	19061
فہر	19062
فوڈ	19063
فائل	19064
فاص	19065
فلائ	19066
فکی	19067
قی	19068
قو	19069
قا	19070
قیا	19071
قار	19072
قرا	19073
قاب	19074
قدم	19075
قیم	19076
قائل	19077
قید	19078
قوا	19079
قائم	19080
قادر	19081
لق	19082
لو	19083
لز	19084
لت	19085
لف	19086
لط	19087
لڈ	19088
لە	19089
لیو	19090
لوی	19091
لین	19092
لاب	19093
لسٹ	19094
لدی	19095
لاک	19096
لانے	19097
لاس	19098
لاح	19099
لنچ	19100
لاج	19101
لٹا	19102
لوپ	19103
لفٹ	19104
لگوا	19105
لفظ	19106
لیوں	19107
مف	19108
مؤ	19109
مں	19110
مث	19111
مآ	19112
مور	19113
میک	19114
مند	19115
ماتھ	19116
مدی	19117
ماہ	19118
مشن	19119
مدر	19120
مائع	19121
مزار	19122
مزہ	19123
مفر	19124
مراٹ	19125
مچا	19126
مراک	19127
مٹھی	19128
مسیج	19129
مویش	19130
نو	19131
ني	19132
نات	19133
نیک	19134
ننگ	19135
نتا	19136
ندی	19137
نوب	19138
نوک	19139
ندید	19140
نوپ	19141
ندا	19142
نقد	19143
نارک	19144
نلائ	19145
نڈر	19146
وپ	19147
وت	19148
وخ	19149
وگ	19150
وث	19151
ویا	19152
ویڈ	19153
ولا	19154
ویک	19155
وند	19156
ووں	19157
ونا	19158
ودی	19159
وشل	19160
ورم	19161
ورہ	19162
ودر	19163
وست	19164
وبی	19165
ووع	19166
وئیر	19167
وانی	19168
وانے	19169
ووان	19170
وسر	19171
ومن	19172
وتھ	19173
ولاد	19174
وطہ	19175
وراک	19176
وئل	19177
يل	19178
ٹڈ	19179
ٹگ	19180
ٹال	19181
ٹوں	19182
ٹیر	19183
ٹوم	19184
ٹائی	19185
ٹنڈ	19186
ٹالی	19187
پم	19188
پن	19189
پذ	19190
پڕ	19191
پلی	19192
پلا	19193
پوں	19194
پتی	19195
پچھ	19196
پخت	19197
پلک	19198
پائے	19199
پست	19200
پلو	19201
پلیک	19202
پپر	19203
پالی	19204
پدو	19205
چح	19206
چٹ	19207
چے	19208
چپ	19209
چام	19210
چوٹ	19211
چوگ	19212
چلک	19213
چائے	19214
چوت	19215
چدم	19216
چشم	19217
چلوک	19218
چیوں	19219
چادر	19220
ڈو	19221
ڈب	19222
ڈم	19223
ڈز	19224
ڈچ	19225
ڈگ	19226
ڈیا	19227
ڈیو	19228
ڈھا	19229
ڈوی	19230
ڈون	19231
ڈوم	19232
ڈوب	19233
ڈالی	19234
ڈنم	19235
ڈارک	19236
ڈیوٹ	19237
ڈبے	19238
ڑی	19239
ڑھا	19240
ژی	19241
ژنل	19242
کٹ	19243
کائ	19244
کنے	19245
کنگ	19246
کشت	19247
کسٹم	19248
گس	19249
گھا	19250
گلا	19251
گند	19252
گہر	19253
گزار	19254
گلاب	19255
گرین	19256
گالی	19257
گلب	19258
گورڈ	19259
گنج	19260
گراف	19261
گوبل	19262
گلاس	19263
گینگ	19264
گنیش	19265
ھر	19266
ھال	19267
ھنے	19268
ھانے	19269
ہٹ	19270
ہپ	19271
ہن	19272
ہیو	19273
ہری	19274
ہیک	19275
ہنڈ	19276
ہراد	19277
ہاں	19278
ہٹے	19279
ہاکر	19280
ۆژ	19281
یب	19282
ید	19283
یوی	19284
یرا	19285
یتا	19286
ینا	19287
یبر	19288
یسی	19289
یرہ	19290
یگو	19291
یمن	19292
یارک	19293
ێک	19294
अह	19295
अल	19296
अभ	19297
आए	19298
आह	19299
आन	19300
आम	19301
आया	19302
उन	19303
उत	19304
ऊप	19305
एस	19306
ऑन	19307
ऑफ	19308
कट	19309
कफ	19310
कम	19311
कद	19312
कौ	19313
कही	19314
गी	19315
घट	19316
घू	19317
घिर	19318
चढ़	19319
ज़	19320
जज	19321
जू	19322
जि	19323
जहर	19324
ठे	19325
ड़	19326
ढ़	19327
तथ	19328
दल	19329
दि	19330
धूल	19331
ना	19332
नो	19333
नए	19334
नद	19335
नई	19336
नगर	19337
पड	19338
पद	19339
पल	19340
पता	19341
पढ़	19342
फै	19343
फे	19344
बट	19345
बं	19346
भुद	19347
भूल	19348
मन	19349
मै	19350
मल	19351
मत	19352
मठ	19353
मॉ	19354
मूल	19355
यो	19356
रो	19357
रख	19358
रथ	19359
ली	19360
वै	19361
शर	19362
शो	19363
शाम	19364
शहर	19365
सप	19366
सज	19367
सम	19368
सं	19369
सौ	19370
सक	19371
सही	19372
सिर	19373
॥.	19374
আঃ	19375
এর	19376
এন	19377
চক	19378
জম	19379
নে	19380
নয	19381
বী	19382
ভো	19383
যৱ	19384
য়	19385
ଅଲ	19386
ଅଠ	19387
ଆତ	19388
ଆଡ	19389
ଇକ	19390
ଇଷ	19391
ଇଞ	19392
ଇଫ	19393
ଉଛ	19394
ଉନ	19395
ଉଜ	19396
ଉଡ଼	19397
ଏଣ	19398
ଏସ	19399
ଏଫ	19400
ଓଗ	19401
ଓବ	19402
ଓପ	19403
ଓୱ	19404
କା	19405
କଏ	19406
କଠ	19407
କୂଳ	19408
ଖସି	19409
ଗୋ	19410
ଗଛ	19411
ଗଡ	19412
ଗୀ	19413
ଘର	19414
ଘି	19415
ଚର	19416
ଚା	19417
ଚପ	19418
ଛପ	19419
ଛୋଟ	19420
ଛାତ	19421
ଜୋ	19422
ଜୀ	19423
ଜଳ	19424
ଜାଲ	19425
ଝଡ଼	19426
ଠି	19427
ତମ	19428
ତେ	19429
ତା	19430
ଥରେ	19431
ଥାଇ	19432
ଦୋ	19433
ଦଲ	19434
ଦଶ	19435
ଧର	19436
ଧଳ	19437
ନୀ	19438
ପଡ	19439
ପଥ	19440
ପଶ	19441
ପୈ	19442
ପୱ	19443
ପାଇ	19444
ଫୁଲ	19445
ବେ	19446
ବୋଟ	19447
ବଡ଼	19448
ବସି	19449
ଭୟ	19450
ଭଲ	19451
ଭି	19452
ଭୁଲ	19453
ମକ	19454
ମତ	19455
ମଦ	19456
ଯୌ	19457
ଯୁବ	19458
ରୟ	19459
ରା	19460
ରି	19461
ରଖ	19462
ରୋଗ	19463
ରୋକ	19464
ଲଦ	19465
ଲନ	19466
ଲଭ	19467
ଲଡ଼	19468
ଲୋକ	19469
ଲାଲ	19470
ଶର	19471
ଶି	19472
ସୋ	19473
ସଫ	19474
ସାତ	19475
ହୁ	19476
ୟେ	19477
୧୮	19478
୧୪	19479
୧୦	19480
୧୭	19481
୧୧	19482
୧୨	19483
୧୩	19484
୧୯	19485
୨୮	19486
୨୭	19487
୩୧	19488
୩୬	19489
୪୪	19490
୫୫	19491
୫୦	19492
୮୦	19493
୮୩	19494
୯ଟ	19495
அர	19496
அய	19497
ஆண	19498
உண	19499
எந	19500
எங	19501
எப	19502
மத	19503
ః20	19504
అu	19505
అష	19506
అఖ	19507
అరి	19508
అలి	19509
అిన	19510
అగు	19511
అతే	19512
అయో	19513
అరం	19514
అరే	19515
అపై	19516
అజు	19517
అణా	19518
అఫీ	19519
అషి	19520
ఆభ	19521
ఆడా	19522
ఆవి	19523
ఆనీ	19524
ఆపా	19525
ఆబ్	19526
ఆజీ	19527
ఆడీ	19528
ఆరీ	19529
ఆడం	19530
ఆసన	19531
ఆబీ	19532
ఆషి	19533
ఇల	19534
ఇచ	19535
ఇథ	19536
ఇఒ	19537
ఇడు	19538
ఇల్	19539
ఇతి	19540
ఇడా	19541
ఇడి	19542
ఇనా	19543
ఇమె	19544
ఇఫ్	19545
ఇడం	19546
ఇజు	19547
ఇబీ	19548
ఈర	19549
ఈమ	19550
ఈ1	19551
ఈఏ	19552
ఈల్	19553
ఈసి	19554
ఈసం	19555
ఈచ్	19556
ఈవే	19557
ఈబీ	19558
ఈ10	19559
ఉల	19560
ఉ్	19561
ఉర	19562
ఉయ	19563
ఉలి	19564
ఉడా	19565
ఉది	19566
ఉనా	19567
ఉబ్	19568
ఉఫ్	19569
ఉసా	19570
ఉరీ	19571
ఉయ్	19572
ఉటం	19573
ఉశా	19574
ఉఖీ	19575
ఊక	19576
ఊత	19577
ఊప	19578
ఊలు	19579
ఊల్	19580
ఊనా	19581
ఊసి	19582
ఊపా	19583
ఊకా	19584
ఊకే	19585
ఊబి	19586
ఋతు	19587
ఋణం	19588
ఎళ	19589
ఎ2	19590
ఎ1	19591
ఎ3	19592
ఎ4	19593
ఎఎ	19594
ఎను	19595
ఎద్	19596
ఎడి	19597
ఎమి	19598
ఎకా	19599
ఎదల	19600
ఎడీ	19601
ఏళ	19602
ఏo	19603
ఏ7	19604
ఏఇ	19605
ఏన్	19606
ఏరు	19607
ఏత్	19608
ఏలి	19609
ఏను	19610
ఏటు	19611
ఏడి	19612
ఏనా	19613
ఏనీ	19614
ఏరా	19615
ఏపై	19616
ఏవ్	19617
ఏయ్	19618
ఏజే	19619
ఏ05	19620
ఐయ	19621
ఐమ	19622
ఐ8	19623
ఐ1	19624
ఐష	19625
ఐ7	19626
ఐఈ	19627
ఐన్	19628
ఐలో	19629
ఐగా	19630
ఐకు	19631
ఐల్	19632
ఐష్	19633
ఐతా	19634
ఐపై	19635
ఐరీ	19636
ఐకూ	19637
ఐజా	19638
ఐఫా	19639
ఒల	19640
ఒత	19641
ఒబ	19642
ఒరు	19643
ఒఫ్	19644
ఓద	19645
ఓ1	19646
ఓ౦	19647
ఓని	19648
ఓస్	19649
ఓయి	19650
ఓడ్	19651
ఓలి	19652
ఓను	19653
ఓడీ	19654
ఓయ్	19655
ఓఫా	19656
ఓఖి	19657
ఓఖీ	19658
ఔట	19659
ఔను	19660
ఔటీ	19661
కహ	19662
కక్	19663
క్చ	19664
కపు	19665
కలా	19666
కరో	19667
కనా	19668
కవర	19669
కఫ్	19670
కారా	19671
కడీ	19672
కణం	19673
ఖు	19674
ఖస్	19675
ఖలు	19676
ఖలీ	19677
ఖనం	19678
ఖయ్	19679
ఖఢ్	19680
గగ	19681
గబ	19682
గంత	19683
గప్	19684
గవర	19685
గజ్	19686
ఘత	19687
ఘంట	19688
ఘాల	19689
ఘణ్	19690
ఘటం	19691
చవా	19692
చలా	19693
చంక	19694
చకా	19695
చారణ	19696
చాయ	19697
చరా	19698
చరే	19699
చసే	19700
ఛే	19701
ఛయ	19702
ఛఠ	19703
ఛమా	19704
జడి	19705
జట్	19706
జమి	19707
జప్	19708
జరం	19709
జయల	19710
జరీ	19711
ఝూ	19712
ఝవి	19713
ఝఝా	19714
టంచ	19715
టనే	19716
టటి	19717
టప్	19718
టబు	19719
డజ	19720
డస్	19721
డసు	19722
ణించ	19723
తస	19724
తౌ	19725
తబ	19726
తవా	19727
తమా	19728
తుత	19729
తప్	19730
తగి	19731
తగ్	19732
తషి	19733
థిక	19734
దత	19735
దఫ	19736
దస్	19737
దసర	19738
ధరు	19739
ధరి	19740
ధను	19741
ధమా	19742
ధించ	19743
ధమ్	19744
నబ	19745
నష	19746
నటు	19747
నమి	19748
నష్	19749
ననీ	19750
నమల	19751
నమత	19752
నఫా	19753
నఫీ	19754
నఖ్	19755
పధ	19756
పఠ	19757
ప‌	19758
పగా	19759
పడు	19760
పటు	19761
పయో	19762
పతం	19763
పధి	19764
పజా	19765
పగ్	19766
ఫత	19767
ఫని	19768
ఫట్	19769
ఫరే	19770
ఫఘు	19771
ఫటా	19772
బగ	19773
బట	19774
బఫ	19775
బవా	19776
బది	19777
బనీ	19778
బమ్	19779
బడీ	19780
భే	19781
భౌ	19782
భై	19783
భన్	19784
భరో	19785
భజ్	19786
భయ్	19787
భజం	19788
మయి	19789
మడా	19790
మది	19791
మమా	19792
మనే	19793
మట్	19794
మయా	19795
మంప	19796
మజీ	19797
మఖా	19798
మఢ్	19799
మఖ్	19800
యప	19801
యథ	19802
యః	19803
యకు	19804
యదు	19805
యవా	19806
యైన	19807
యమ్	19808
యలే	19809
రతు	19810
రసీ	19811
రడీ	19812
రాల్	19813
రజన	19814
రభావ	19815
రషా	19816
లౌ	19817
లొ	19818
ల‌	19819
లఘ	19820
లంచ	19821
లగా	19822
లల్	19823
లడ్	19824
లపో	19825
లబు	19826
లదే	19827
లడీ	19828
లజ్	19829
లమో	19830
ళలు	19831
వ3	19832
వడ్	19833
వట్	19834
వలీ	19835
వదల	19836
వడీ	19837
వకూ	19838
వజ్	19839
వటం	19840
శఖ	19841
శర్	19842
శకు	19843
శంత	19844
శంలో	19845
శభా	19846
షౌ	19847
ష్ర	19848
షబ్	19849
షమ్	19850
షేమ	19851
సయి	19852
సలా	19853
సపో	19854
సపం	19855
సఫా	19856
సడే	19857
హజ	19858
హలా	19859
హప్	19860
హలీ	19861
హసీ	19862
హఫ్	19863
హజి	19864
ిఇ	19865
ీఈ	19866
ీనే	19867
ృంద	19868
ెంది	19869
ెవల	19870
ైళ్	19871
ొరి	19872
ొను	19873
ొమ్	19874
్యి	19875
౧౦	19876
౧౬	19877
౩౦	19878
ಅಲ	19879
ಆಟ	19880
ಆಫ	19881
ಆಕೆ	19882
ಆಲ್	19883
ಇನ್	19884
ಈಜ	19885
ಈಕೆ	19886
ಉಪ	19887
ಎಡ	19888
ಎಒ	19889
ಎದು	19890
ಎನ್	19891
ಎಲ್	19892
ಏಳ	19893
ಏನ	19894
ಏಕೆ	19895
ಐಟ	19896
ಕಹ	19897
ಕಾ	19898
ಕಲ	19899
ಗೃ	19900
ಜತ	19901
ಜೆ	19902
ಜಮ	19903
ಜೀ	19904
ಜೈ	19905
ಝಿ	19906
ಟಿ	19907
ಟು	19908
ಟೈ	19909
ಡಚ	19910
ಡೇ	19911
ಡd7	19912
ತಂ	19913
ತನ	19914
ತಾ	19915
ತಲ	19916
ದತ	19917
ನರ	19918
ನೌ	19919
ನೇ	19920
ನಡೆ	19921
ಪಿ	19922
ಬಂ	19923
ಬಸ	19924
ಬಾಲ	19925
ಭಾ	19926
ಭೂ	19927
ಮನ	19928
ಮೀ	19929
ಯು	19930
ರಥ	19931
ರೈ	19932
ಲತ	19933
ಲಾ	19934
ವಾ	19935
ಶಶ	19936
ಶಾ	19937
ಶಮ	19938
ಶೇ	19939
ಶೋ	19940
ಷರ	19941
ಸತ	19942
ಸಿ	19943
ಸಾಲ	19944
ಹಜ	19945
ಹಣ	19946
ഇത	19947
ഒര	19948
ഗേ	19949
ചി	19950
ജൻ	19951
ധന	19952
ập	19953
ện	19954
ống	19955
ợng	19956
‌ల	19957
‌ఈ	19958
‌కి	19959
🇪🇬	19960
🚩😡	19961
##رچ	19962
##ران	19963
##رتے	19964
##رنا	19965
##dd	19966
##dt	19967
##dk	19968
##dm	19969
##dar	19970
##der	19971
##dtv	19972
##حوظ	19973
##حید	19974
##قف	19975
##قیا	19976
##قاب	19977
##یتا	19978
##ھک	19979
##ھان	19980
##ھلی	19981
##ھری	19982
##وز	19983
##وئے	19984
##وقت	19985
##واج	19986
##وڈو	19987
##ٹک	19988
##ٹن	19989
##ٹھا	19990
##لز	19991
##لنا	19992
##لٹا	19993
##کب	19994
##کڑ	19995
##کار	19996
##کیو	19997
##کام	19998
##کین	19999
