<unk>	0
<s>	0
</s>	0
.	-2.87862
▁	-4.27223
,	-4.36702
▁,	-4.49476
ని	-4.66392
్	-4.78828
కు	-4.86168
▁ఈ	-4.86381
ను	-4.87335
ు	-4.88347
లో	-4.90587
▁లో	-4.97815
గా	-4.99333
ి	-5.10379
ం	-5.15185
తో	-5.43937
న	-5.457
▁కు	-5.53468
కి	-5.5435
ే	-5.62122
▁..	-5.62658
ారు	-5.64384
ా	-5.6655
▁ను	-5.71089
స్	-5.71142
▁నుంచి	-5.74113
▁కూడా	-5.75106
▁తో	-5.8835
▁ఆ	-5.92466
లు	-5.94523
ానికి	-5.97802
ంగా	-5.98019
▁గా	-5.99945
ాన్ని	-5.99951
పై	-6.05813
▁చేశారు	-6.07712
ీ	-6.1329
▁పై	-6.19806
▁.	-6.20162
నే	-6.21282
▁(	-6.25292
ల	-6.27686
ూ	-6.287
▁అని	-6.29231
▁ఆయన	-6.32923
▁తన	-6.37948
▁పార్టీ	-6.40612
:	-6.41156
▁రెడ్డి	-6.42891
▁"	-6.43028
▁కాంగ్రెస్	-6.47925
▁ఉన్న	-6.4869
▁ని	-6.49465
▁ఒక	-6.52592
▁రూ	-6.53278
వ	-6.53328
▁కోసం	-6.5515
▁లు	-6.5531
▁కి	-6.57834
ల్	-6.6025
▁మంది	-6.61186
▁అయితే	-6.62977
▁చెప్పారు	-6.64958
)	-6.65286
ర్	-6.65327
▁చేసిన	-6.66496
▁ప్రభుత్వం	-6.66514
ాయి	-6.68656
▁తెలిపారు	-6.69073
▁తర్వాత	-6.71288
▁-	-6.74438
▁ల	-6.74438
న్	-6.76166
క	-6.76773
▁ఏ	-6.80203
▁పాటు	-6.80238
▁ఉంది	-6.80832
▁ఓ	-6.8208
త	-6.82539
▁అన్నారు	-6.83041
▁:	-6.83345
▁సీఎం	-6.86897
▁మంత్రి	-6.87848
▁తెలంగాణ	-6.89558
ంది	-6.90195
▁చాలా	-6.91138
▁న	-6.91463
▁బీజేపీ	-6.9332
▁వ	-6.94431
▁రెండు	-6.96365
ో	-6.97487
▁ఎన్నికల	-6.98725
?	-6.98742
▁దీంతో	-6.99816
మైన	-7.0041
ాడు	-7.00896
▁తమ	-7.01313
▁వరకు	-7.04083
▁కానీ	-7.05185
▁హైదరాబాద్	-7.05207
ట్లు	-7.05672
▁చంద్రబాబు	-7.05714
▁రాష్ట్ర	-7.05906
ేందుకు	-7.06393
్లో	-7.06581
▁అ	-7.06722
▁ఆమె	-7.07705
▁జిల్లా	-7.08418
▁చెందిన	-7.08618
▁పోలీసులు	-7.08771
▁వారి	-7.08772
▁చేసింది	-7.09229
▁లోని	-7.10634
▁చేసి	-7.10985
▁సినిమా	-7.13008
▁క	-7.13933
▁అధికారులు	-7.14468
▁కొత్త	-7.15122
▁సమయంలో	-7.18006
▁ప్రభుత్వ	-7.18516
▁మధ్య	-7.19848
▁ఇది	-7.19908
▁లేదు	-7.20337
▁నా	-7.21965
డం	-7.22993
ింగ్	-7.23434
ది	-7.24671
▁స్	-7.24751
డానికి	-7.25046
▁""	-7.25526
▁అనే	-7.25661
▁జగన్	-7.26682
▁మరో	-7.26689
▁ప	-7.26977
▁ఇప్పుడు	-7.27967
ట్	-7.29482
▁మ	-7.29787
▁నే	-7.29905
▁కేసీఆర్	-7.30169
▁బీఆర్ఎస్	-7.311
▁ఇక	-7.32698
▁ద్వారా	-7.32927
▁వారు	-7.32959
▁ఎమ్మెల్యే	-7.32989
క్	-7.3401
లా	-7.35392
▁ఏర్పాటు	-7.3638
ర	-7.3738
▁కొన్ని	-7.37793
ారని	-7.38607
ిన	-7.38727
▁పెద్ద	-7.39366
ల్లో	-7.39781
▁ఉంటుంది	-7.40497
▁అవకాశం	-7.40834
▁వల్ల	-7.40938
▁మాజీ	-7.42857
న్న	-7.42929
▁భారీ	-7.44077
▁జరిగిన	-7.44443
▁ప్రస్తుతం	-7.44532
▁పోటీ	-7.44753
▁త	-7.45499
"	-7.45857
▁పూర్తి	-7.46132
లను	-7.48147
▁చేస్తున్నారు	-7.48417
▁కేంద్ర	-7.48559
ాలని	-7.48955
▁ముందు	-7.49514
▁వద్ద	-7.49778
▁రేవంత్	-7.50224
ట	-7.50519
▁భారత్	-7.50685
▁వెలుగు	-7.5076
▁మా	-7.50987
▁లను	-7.50997
▁వచ్చే	-7.51016
▁ఎన్నికల్లో	-7.51025
ింది	-7.51126
▁పని	-7.51789
▁శాఖ	-7.51869
▁స	-7.51884
▁10	-7.52058
▁శాతం	-7.52083
▁కోట్ల	-7.52838
మ	-7.52882
▁)	-7.52885
▁2	-7.54168
▁ప్రజల	-7.54414
▁ఇప్పటిక	-7.54623
▁కలిసి	-7.54628
▁మూడు	-7.54867
▁గత	-7.55391
▁వచ్చిన	-7.5645
▁అన్ని	-7.57662
▁గురించి	-7.58453
▁పవన్	-7.58455
▁రోజు	-7.58482
▁ప్రతి	-7.58579
▁ది	-7.58968
▁రాష్ట్రంలో	-7.59636
▁వేల	-7.59762
▁చేసే	-7.60303
▁లేదని	-7.60436
▁లక్షల	-7.60656
▁'	-7.60671
▁మ్యాచ్	-7.60791
▁టీడీపీ	-7.60865
▁మాత్రం	-7.62132
▁ఉందని	-7.62775
కుండా	-7.63345
▁మొత్తం	-7.63769
▁ర	-7.64422
▁తీవ్ర	-7.65034
ైన	-7.6562
▁విచారణ	-7.65941
▁ఉన్నారు	-7.65997
య	-7.66006
▁కీలక	-7.66054
▁కుమార్	-7.6625
డ్	-7.66366
▁ఉన్నాయి	-7.66418
▁వ్యక్తం	-7.66705
▁విషయం	-7.67481
▁...	-7.67849
▁విడుదల	-7.68094
ాల	-7.6811
▁కేసు	-7.68234
▁వైసీపీ	-7.69333
▁సమాచారం	-7.70355
▁మాత్రమే	-7.70679
▁3	-7.71234
▁ప్రత్యేక	-7.72143
▁వారికి	-7.72546
▁చేయడం	-7.72698
▁ఎంపీ	-7.72717
▁ఎక్కువ	-7.72783
-	-7.72823
▁ముఖ్యమంత్రి	-7.72927
▁చేయాలని	-7.7315
ے	-7.74902
▁నుండి	-7.75206
▁ా	-7.75707
▁5	-7.75801
▁ఎస్	-7.76134
రా	-7.76265
▁ప్రధాని	-7.76341
▁అసెంబ్లీ	-7.76473
▁మీద	-7.76668
▁పలు	-7.76857
ాలు	-7.76991
▁ఎలా	-7.77254
మ్	-7.77475
▁ప్రజలు	-7.77486
▁సందర్భం	-7.77487
▁అదే	-7.77811
▁ప్రధాన	-7.78166
ప	-7.78263
రు	-7.78674
▁లేదా	-7.7894
▁సభ	-7.79184
▁మీ	-7.79335
▁తాను	-7.79474
▁జిల్లాలో	-7.79506
▁ఘటన	-7.80235
ఎలాంటి	-7.80571
▁మోదీ	-7.81246
▁4	-7.81497
▁ప్రకారం	-7.8151
▁భారత	-7.81554
▁మే	-7.81998
▁వాటి	-7.82316
▁సోషల	-7.8265
▁దీని	-7.82654
▁కే	-7.82887
▁వంటి	-7.83102
▁మంచి	-7.83921
▁రావు	-7.84031
▁అంటూ	-7.84195
▁ఇతర	-7.85054
▁వి	-7.85852
▁కాదు	-7.85853
▁మహిళ	-7.85976
రి	-7.86032
▁రోజుల	-7.86378
▁లా	-7.86406
▁ద	-7.86444
▁నేతలు	-7.86665
న్నారు	-7.86917
ామని	-7.87162
▁20	-7.87169
▁చర్యలు	-7.87495
▁మీడియా	-7.87571
▁ఏపీ	-7.87887
పు	-7.88023
▁చేస్తున్న	-7.8805
▁మన	-7.88491
▁ఆర్థిక	-7.89369
▁అంటే	-7.8954
▁నెల	-7.89798
▁కోర్టు	-7.89868
▁ఇదే	-7.89987
▁పేరు	-7.90017
▁ఇండియా	-7.90175
▁అభివృద్ధి	-7.90194
▁మెంట్	-7.90224
రీ	-7.907
కే	-7.90762
▁8	-7.90782
▁ఇన్	-7.91282
గ	-7.91325
▁అధికారుల	-7.91436
నా	-7.91465
▁అలాగే	-7.9166
▁ప్ర	-7.9193
▁కోట్లు	-7.92035
▁ఎ	-7.92172
▁దాడి	-7.92614
▁సంస్థ	-7.92631
▁వ్యక్తి	-7.92824
టి	-7.93294
▁వీడియో	-7.93297
▁6	-7.94629
▁పేర్కొన్నారు	-7.94693
▁15	-7.94705
సారి	-7.95201
▁ఇచ్చిన	-7.95574
▁గ	-7.95625
▁దేశ	-7.9581
▁డిమాండ్	-7.96156
డు	-7.96195
▁కా	-7.96245
▁తాజాగా	-7.9651
▁కింద	-7.96539
▁రాజకీయ	-7.96576
డ	-7.96706
▁ఇలా	-7.96718
▁ఏడాది	-7.96756
▁అది	-7.96831
▁చిన్న	-7.96859
▁లకు	-7.97263
▁తెలిపింది	-7.97629
▁పరిస్థితి	-7.97716
▁చెబుతున్నారు	-7.97739
▁రా	-7.98347
▁గంటల	-7.98377
▁కుటుంబ	-7.98708
▁దాదాపు	-7.9898
▁ఆర్	-7.99077
▁టీ	-7.99292
▁సంబంధించిన	-7.9941
▁గతంలో	-7.99732
▁గాంధీ	-7.99968
▁12	-8.00491
▁1	-8.00555
▁ఉదయ	-8.00895
▁దగ్గర	-8.01166
స	-8.01307
▁ఢిల్లీ	-8.0145
▁7	-8.01463
▁ఇటీవల	-8.01676
▁నిర్ణయం	-8.01712
▁అనేక	-8.01722
▁మాట్లాడుతూ	-8.01983
▁ారు	-8.02464
▁భాగంగా	-8.02533
▁జ	-8.02898
వి	-8.03218
▁?	-8.03383
▁అనంతర	-8.03785
▁నమోదు	-8.0441
▁జరిగింది	-8.04866
▁అంత	-8.05085
▁తరువాత	-8.05333
▁ఇందులో	-8.0573
▁జారీ	-8.06821
▁విషయంలో	-8.07201
▁వచ్చింది	-8.07719
▁అమలు	-8.07747
▁11	-8.07757
▁య	-8.07919
▁మూవీ	-8.0796
▁అక్కడ	-8.08023
వెంటనే	-8.08313
▁సింగ్	-8.08436
▁బయట	-8.08495
▁నేపథ్యంలో	-8.08549
▁బ	-8.08957
▁కేసులో	-8.09566
త్	-8.09841
▁ప్రచారం	-8.09845
మా	-8.0986
▁పోలీసుల	-8.10343
▁ఎక్కువగా	-8.1036
▁ఉండే	-8.10544
ష్	-8.10574
▁దేశంలో	-8.1062
ె	-8.10688
▁తొలి	-8.1106
▁తెలంగాణలో	-8.11574
▁ఫోన్	-8.11577
▁ధర	-8.11587
▁కారణంగా	-8.11849
▁ఇచ్చారు	-8.12094
▁కాగా	-8.12148
ప్	-8.12167
▁అధికారంలో	-8.12431
▁ఆఫ్	-8.12665
▁9	-8.12997
▁రైతుల	-8.13637
▁లేకుండా	-8.13726
▁రాహుల్	-8.13791
▁నేను	-8.13916
▁మళ్ల	-8.14292
▁లోక్	-8.14316
▁కో	-8.1453
▁⁬	-8.15136
▁పైన	-8.15268
నీ	-8.15889
▁30	-8.16024
▁ప్రమాదం	-8.16327
▁నాలుగు	-8.1657
ప్పుడు	-8.16586
▁అభ్యర్థి	-8.16648
▁తేదీ	-8.17012
▁అన్న	-8.17083
▁క్రమంలో	-8.17333
▁అతని	-8.17501
సి	-8.17721
మే	-8.17861
డి	-8.1801
▁మరింత	-8.18058
▁దాని	-8.18352
ణ	-8.18555
▁తెలుగు	-8.18772
▁గుర్తు	-8.18822
▁మీడియాలో	-8.18913
▁కంపెనీ	-8.19419
▁పాల్గొన్నారు	-8.19587
▁అందుకే	-8.19777
▁చ	-8.19845
▁తిరిగి	-8.19903
▁తెలుస్తోంది	-8.1992
▁ఎన్	-8.20062
▁స్పష్టం	-8.2029
▁ఉంటే	-8.20336
▁రాత్రి	-8.20341
▁ఇ	-8.20416
▁అయిన	-8.20467
▁నేత	-8.2093
▁ప్రపంచ	-8.21146
▁ఎంత	-8.21744
▁ఇలాంటి	-8.21949
▁తప్ప	-8.21975
▁మేరకు	-8.22016
▁కంటే	-8.22099
▁ఎందుకు	-8.22351
▁జట్టు	-8.22795
▁హైకోర్టు	-8.22916
▁ఫిర్యాదు	-8.22926
సీ	-8.236
ంటూ	-8.23606
▁ఏం	-8.23765
లకు	-8.23814
▁కేటీఆర్	-8.23843
▁ఆరోపించారు	-8.23918
▁విజయం	-8.24203
▁షా	-8.24531
▁హ	-8.24852
▁జనసేన	-8.24877
▁జాతీయ	-8.25001
▁నాయకులు	-8.25129
▁అరెస్ట్	-8.25297
▁వైరల్	-8.25508
▁పాత్ర	-8.25706
▁సిబ్బంది	-8.25892
▁ల్లో	-8.26081
▁తెలిసిందే	-8.26123
▁14	-8.26152
ద	-8.26212
▁నగర్	-8.26301
▁18	-8.26425
▁అధ్యక్షుడు	-8.26456
▁చేస్తూ	-8.26774
▁ం	-8.26936
▁ము	-8.26967
▁స్టేషన్	-8.27234
▁19	-8.27661
▁రోజులు	-8.27718
▁ట్లు	-8.28028
కా	-8.28185
▁ఇంటి	-8.28617
▁స్టార్	-8.28978
▁వెల్లడించారు	-8.2933
▁మొదటి	-8.29761
▁కొందరు	-8.29887
▁ఆందోళన	-8.2993
▁వీటి	-8.29994
▁అందులో	-8.30223
▁లే	-8.30242
▁పైగా	-8.30295
▁దృష్టి	-8.3049
▁ఫొటో	-8.30509
▁ంది	-8.30611
▁వెళ్లి	-8.3071
▁రెండో	-8.30909
▁కాకుండా	-8.30951
▁ఏపీలో	-8.31299
▁రి	-8.31504
▁పోలీస్	-8.31896
▁ఒక్క	-8.32049
▁చెప్ప	-8.32105
▁భార్య	-8.3225
▁వాళ్ల	-8.32794
▁సమస్య	-8.33233
▁ఇంకా	-8.3353
▁హీరో	-8.33564
▁ఆరోగ్య	-8.33617
▁శ్రీ	-8.33707
▁మద్దతు	-8.33745
▁ఇద్దరు	-8.33756
▁వచ్చి	-8.33942
▁కోరారు	-8.34424
▁డి	-8.34534
▁ఆంధ్రప్రదేశ్	-8.34657
▁తనకు	-8.34661
▁పనులు	-8.34814
▁25	-8.34863
▁ఏళ్ల	-8.34997
ైనా	-8.35046
▁కమిటీ	-8.3532
షన్	-8.35572
▁పెట్ట	-8.35703
▁ప్రకటన	-8.35871
▁ఇక్కడ	-8.36234
వా	-8.36263
▁వెళ్ల	-8.36598
▁కేవలం	-8.36692
▁మారింది	-8.36697
▁24	-8.37133
ందుకు	-8.37223
▁ఇంట్లో	-8.37269
▁లైన్	-8.37299
▁మోడీ	-8.37584
ాలి	-8.377
▁కలెక్టర్	-8.37769
▁మరి	-8.37835
▁ప్రాంతాల్లో	-8.38029
▁కేంద్రం	-8.38177
▁పిల్లల	-8.38509
బ్	-8.38535
▁ర్	-8.38616
▁సూచించారు	-8.38634
▁17	-8.3886
▁సీ	-8.38922
▁అమెరికా	-8.38987
▁చేశాడు	-8.39075
▁చేసుకున్న	-8.39093
5	-8.39108
▁ఎక్స్	-8.39158
▁సమస్యల	-8.39425
▁డ	-8.39501
బ	-8.39519
లి	-8.39997
▁నీటి	-8.40127
▁13	-8.41089
▁ాయి	-8.4123
7	-8.41349
▁ک	-8.41403
▁బాగా	-8.41425
▁అవసరం	-8.41454
▁వర్షాలు	-8.41475
ుల	-8.41503
హ	-8.41641
రోజు	-8.41724
▁చర్చ	-8.41887
ై	-8.41978
▁మరోసారి	-8.4205
▁వైపు	-8.42176
▁16	-8.42269
▁లేని	-8.42468
▁50	-8.42528
జ్	-8.42658
▁ఎంతో	-8.42706
▁ఎవర	-8.4271
▁లతో	-8.42778
▁రిలీజ్	-8.42816
▁సమయం	-8.42869
▁నేతల	-8.43169
ధ	-8.43347
మీ	-8.43425
▁పెళ్లి	-8.43572
▁ఉంటాయి	-8.43656
▁ాడు	-8.43719
ا	-8.4374
▁హత్య	-8.43869
▁ట	-8.44451
▁2024	-8.44711
▁రైల్వే	-8.44736
ివిధ	-8.44774
చ	-8.44941
టీ	-8.45107
▁హామీ	-8.4517
▁ఐ	-8.45181
▁కొనుగోలు	-8.45277
▁మీరు	-8.45278
ంత	-8.45357
▁మరియ	-8.45587
▁ప్రకటించారు	-8.45736
▁అక్కడి	-8.45892
▁పరిధిలో	-8.46099
▁త్వరలో	-8.46783
▁మృతి	-8.46943
▁సీనియర్	-8.46969
▁వైఎస్	-8.46988
▁పోలింగ్	-8.47278
ష	-8.47285
▁స్థానిక	-8.47334
▁భూమి	-8.47341
▁పరుగులు	-8.47521
▁కూటమి	-8.47565
▁గంటలకు	-8.47573
▁డాక్టర్	-8.47651
▁వ్యాఖ్యలు	-8.47717
6	-8.48349
▁!	-8.48517
టా	-8.48568
2	-8.48767
▁తీసుకున్న	-8.4886
కీ	-8.48912
▁పార్టీల	-8.49029
▁చివరి	-8.49317
▁ారని	-8.49317
ట్టు	-8.49478
▁పార్టీలో	-8.49988
మి	-8.49992
▁అధికార	-8.50017
▁రోజుల్లో	-8.5005
▁జూన్	-8.50059
▁పో	-8.50194
▁నిర్వహించారు	-8.50215
▁2023	-8.50249
▁ముందుకు	-8.50375
▁సంబంధించి	-8.50724
▁ఐదు	-8.5097
▁వీరి	-8.51098
▁శుక్రవారం	-8.51262
▁ప్రభావం	-8.51375
▁అంద	-8.51413
▁క్రికెట్	-8.51813
▁చైర్మన్	-8.51948
4	-8.52091
▁గ్రామ	-8.52297
నూ	-8.52376
▁వివరించారు	-8.52594
▁చేస్తే	-8.5264
▁మరోవైపు	-8.52837
▁సోమవారం	-8.52862
▁శ్రీనివాస్	-8.52938
▁నాటి	-8.53158
▁ప్రాంతంలో	-8.53197
▁దీనిపై	-8.53369
▁డైరెక్టర్	-8.53404
జీ	-8.5343
▁దీనికి	-8.53838
▁బి	-8.53839
ద్	-8.53931
▁చేయ	-8.53959
తాము	-8.5398
▁టికెట్	-8.54009
▁జరిగే	-8.5402
▁సాయంత్ర	-8.54379
▁సి	-8.54489
▁పార్లమెంట	-8.54502
మని	-8.54625
▁అధినేత	-8.54669
య్య	-8.54701
▁ఉంటుందని	-8.54957
▁అలా	-8.55079
లేదు	-8.5552
▁రాశి	-8.55532
1	-8.55572
కో	-8.55613
▁ఎన్నికలు	-8.55644
ی	-8.56223
▁బంగారం	-8.56225
▁కారు	-8.56332
▁అత	-8.56332
▁ప్రశ్నించారు	-8.56448
మ్మ	-8.56478
▁అండ్	-8.56588
▁వస్తే	-8.566
వ్	-8.56717
▁తక్కువ	-8.56778
▁ఆరు	-8.56802
ంటే	-8.5693
▁సా	-8.57097
▁కేసులు	-8.57135
▁సర్వే	-8.57531
▁అతి	-8.57776
▁విజయ	-8.57816
▁చేయడానికి	-8.57827
▁ే	-8.57852
▁22	-8.5792
▁అంచనా	-8.58153
▁తేదీన	-8.583
▁పేరుతో	-8.58327
▁కవిత	-8.58569
▁రోడ్డు	-8.58676
▁నేడు	-8.58681
ితే	-8.58951
మంగళవారం	-8.58952
▁బాబు	-8.58996
▁ఆదివారం	-8.59044
▁మార్కెట్	-8.59046
▁దర్యాప్తు	-8.59093
▁పేర్కొంది	-8.59329
3	-8.59529
▁జీ	-8.59591
ానని	-8.59604
▁రద్దు	-8.59718
▁విలువ	-8.59719
▁చీఫ్	-8.59801
▁లలో	-8.59916
▁చేశారని	-8.60393
▁ఆరోపణలు	-8.60405
▁సంఖ్య	-8.60477
▁సహా	-8.60551
▁చేసేందుక	-8.60838
▁ఓటు	-8.60871
శ	-8.61127
ఫ్	-8.61214
▁రైతులు	-8.6127
▁మండలం	-8.6131
▁సంజయ్	-8.6138
వు	-8.61447
▁మాట్లాడ	-8.61511
▁వా	-8.6153
▁వరకూ	-8.61632
▁శనివారం	-8.61643
▁అయ్యారు	-8.61954
▁ప్రాంతాల	-8.62046
""	-8.62095
▁లోకి	-8.62119
▁మార్చి	-8.62125
▁పనుల	-8.62244
▁ఇజ్రాయెల్	-8.6229
▁భర్త	-8.62365
▁వస్తున్న	-8.62651
▁పోస్ట్	-8.62693
పల్లి	-8.62807
జ	-8.62836
తా	-8.62843
20	-8.63203
ులు	-8.63316
▁రైతు	-8.63492
▁ప్రజా	-8.63593
▁ఎక్కడ	-8.63651
▁కొంత	-8.63763
▁రైలు	-8.63912
▁ఎల్	-8.64217
▁ఒకే	-8.64328
ున్న	-8.64334
▁ముఖ్య	-8.64471
▁వాళ్లు	-8.64524
న్నీ	-8.64628
▁21	-8.64823
డంతో	-8.64837
దు	-8.64981
▁కార్యక్రమంలో	-8.65169
ంతా	-8.65326
▁పదవి	-8.65456
టం	-8.65971
▁సభ్యులు	-8.66129
▁లోనూ	-8.66458
ು	-8.66473
త్యంత	-8.66509
▁విధంగా	-8.66612
ండి	-8.66633
రో	-8.66821
▁స్థాయిలో	-8.66876
▁చేస్తామని	-8.66943
▁అయినా	-8.66945
▁విమర్శించారు	-8.67001
▁గురువారం	-8.67321
▁ప్రేమ	-8.67383
▁చోటు	-8.67428
▁భారీగా	-8.67466
గ్	-8.67804
▁తల్లి	-8.6801
▁లాంటి	-8.68223
▁మాట్లాడారు	-8.68264
▁సమస్యలు	-8.68336
▁అధిక	-8.6839
▁కప్	-8.68434
▁రాష్ట్రాల	-8.68569
▁ఇప్పటి	-8.68659
యం	-8.68716
▁సూపర్	-8.6875
▁చికిత్స	-8.68895
▁పడ	-8.6924
▁ప్రాజెక్టు	-8.69241
▁అభ్యర్థుల	-8.69355
▁కావడంతో	-8.69476
▁బీబీసీ	-8.69523
9	-8.69623
▁అరెస్టు	-8.69646
▁రూపాయల	-8.69795
▁కర్ణాటక	-8.70083
▁ఎమ్మెల్సీ	-8.70127
▁ఇవ్వ	-8.7027
▁మందికి	-8.70514
▁బెంగళూరు	-8.70533
▁న్	-8.70816
▁భక్తులు	-8.70845
▁ఆడ	-8.70853
▁చేసినట్లు	-8.70978
▁ప్లాన్	-8.71016
▁సొంత	-8.71026
తి	-8.71097
▁లేక	-8.71689
▁రు	-8.71824
▁రాజ్	-8.71918
▁ఎయిర్	-8.72001
▁పొంద	-8.72023
▁ప్రకటించింది	-8.72539
▁వరుస	-8.72596
▁సరి	-8.7269
▁తిరుమల	-8.72785
▁బుధవారం	-8.72907
▁షర్మిల	-8.73043
▁అక్రమ	-8.73129
సు	-8.7319
▁వరల్డ్	-8.73584
▁చేయాలి	-8.73624
▁వాతావరణ	-8.7372
▁తండ్రి	-8.73854
▁ందుకు	-8.73998
▁ఖర్చు	-8.74012
▁ఎం	-8.74044
▁తమకు	-8.74146
▁40	-8.74336
▁అసలు	-8.74363
▁సం	-8.745
▁ఉద్యోగుల	-8.74606
▁జరుగుతున్న	-8.7463
▁చేర	-8.74667
▁పిటిషన్	-8.7467
▁బస్సు	-8.74721
▁ఇవ్వాలని	-8.74747
▁వ్యవస్థ	-8.74779
▁తయారు	-8.7478
▁ఉండగా	-8.74982
▁బీ	-8.75009
▁సు	-8.75043
ాల్సి	-8.75133
▁పెట్టి	-8.75315
▁కళ్యాణ్	-8.75391
▁దీన్	-8.75409
▁రామ్	-8.75493
▁విద్యార్థుల	-8.75558
▁బెయిల్	-8.75717
▁లోనే	-8.75729
దా	-8.75746
▁యా	-8.75809
▁సిద్ధం	-8.75894
▁నాకు	-8.76108
▁అంటున్నారు	-8.76122
▁సభ్యుల	-8.76217
ళ్ల	-8.76224
▁మండిపడ్డారు	-8.76239
▁సిరీస్	-8.76324
▁శివ	-8.76585
▁విమర్శలు	-8.76614
నున్నారు	-8.76653
▁తోపాటు	-8.76763
▁భక్తుల	-8.76773
▁లక్ష్యం	-8.76778
▁గ్రూప్	-8.77348
▁ట్టు	-8.77412
▁పర్యటన	-8.7746
▁జిల్లాల్లో	-8.77626
▁కథ	-8.77641
▁సమావేశం	-8.779
▁బడ్జెట్	-8.77913
ంగ	-8.78058
▁100	-8.78208
▁పరీక్ష	-8.78231
▁ప్రయత్నం	-8.78423
▁వే	-8.78533
▁స్వామి	-8.78535
▁వరంగల్	-8.78568
▁ంచ	-8.78651
▁ధరలు	-8.7869
▁తీర్పు	-8.78749
▁ఏప్రిల్	-8.78756
▁ఇబ్బందులు	-8.78902
▁ఉన్నట్లు	-8.78972
▁స్థానంలో	-8.7915
▁ఆన్	-8.79333
▁పి	-8.79424
లీ	-8.79442
میں	-8.79443
▁అప్పటి	-8.79617
▁నరేంద్ర	-8.79716
▁ఇంత	-8.7988
▁2019	-8.79908
▁ఇంటికి	-8.79987
▁డబ్బు	-8.80015
▁వివరాల	-8.80021
▁డబ్బులు	-8.8041
▁ఒకటి	-8.80526
▁ముఖ్యం	-8.80699
▁చేసారు	-8.8081
▁యాత్ర	-8.80828
▁వై	-8.80938
▁అమ్మ	-8.81357
▁మూడో	-8.8137
▁మి	-8.81494
▁వచ్చాయి	-8.81559
8	-8.81571
▁సైతం	-8.81751
▁నీ	-8.81846
▁చైనా	-8.81938
▁ఇవాళ	-8.81944
▁రాజు	-8.82308
▁ఉమ్మడి	-8.82337
▁ాం	-8.82408
▁28	-8.82427
▁రాజీనామా	-8.82633
▁ఎంపిక	-8.82652
▁మహిళల	-8.82716
▁జరగ	-8.8282
▁చేసుకున్నారు	-8.82984
▁కనీస	-8.83426
▁నెలల	-8.83431
▁کی	-8.83507
▁వరద	-8.83581
▁వర్షం	-8.8369
▁పలువుర	-8.8379
▁కార్యదర్శి	-8.83824
▁అంశాల	-8.83922
▁జాబితా	-8.83924
▁ప్రముఖ	-8.8397
▁జైలు	-8.84023
▁విద్యుత్	-8.8411
▁కాబట్టి	-8.84384
▁స్థాయి	-8.84387
▁కాలం	-8.84433
▁ఆసక్తి	-8.84486
▁ట్వీట్	-8.84525
ండ	-8.84529
▁పల్లి	-8.84638
▁చేస్తారు	-8.84702
సా	-8.84806
▁కల్యాణ్	-8.8493
▁సాయం	-8.84968
యా	-8.85105
▁అవినీతి	-8.8513
▁సమావేశంలో	-8.85207
▁సమీపంలో	-8.85232
▁గో	-8.8527
▁పాకిస్తాన్	-8.85286
▁అధికారి	-8.85414
▁ఐటీ	-8.8547
▁ప్రాంత	-8.85797
టువంటి	-8.85947
▁అందుకు	-8.86151
ఎస్	-8.86207
▁మధ్యాహ్న	-8.86353
▁వ్యాప్తం	-8.86527
▁మాట	-8.86873
▁డీ	-8.86897
పి	-8.86922
▁నివేదిక	-8.86946
▁అధికారిక	-8.86967
▁జనవరి	-8.87222
▁కె	-8.87261
▁మైన	-8.87304
▁దేశాల	-8.87317
▁గల	-8.87376
▁బీఆర్	-8.87381
▁ఆసుపత్రి	-8.87381
ేషన్	-8.8739
▁తీసుకున్నారు	-8.87626
▁నీరు	-8.87711
▁కాలంలో	-8.87732
▁ఎన్టీఆర్	-8.87796
▁వారం	-8.87812
▁కారణం	-8.8796
▁పది	-8.88183
ాల్సిన	-8.88209
▁పూర్	-8.88209
▁ఇచ్చింది	-8.88228
▁ఉండ	-8.88241
▁27	-8.88333
▁సభలో	-8.88334
▁బండి	-8.88368
▁డిసెంబర	-8.88954
▁కాదని	-8.8904
▁సీట్లు	-8.89369
▁బల	-8.89385
▁వైద్య	-8.89585
▁చిత్ర	-8.89648
▁మనం	-8.89702
▁రూపాయలు	-8.89753
▁అక్టోబర్	-8.89995
▁23	-8.89996
▁ఎన్నో	-8.9002
▁మార	-8.90115
▁పార్టీలు	-8.90278
▁వస్తుంది	-8.90393
▁రీ	-8.90421
▁పాలన	-8.90531
▁షేర్	-8.90548
▁ఖమ్మం	-8.90646
▁ఆయనకు	-8.90702
▁సెప్టెంబర్	-8.90828
▁అలాంటి	-8.90941
▁26	-8.90983
▁యాదవ్	-8.91038
▁/	-8.91046
▁ఆలయ	-8.91396
▁ఈడీ	-8.91486
▁నిర్వహించిన	-8.91519
▁వేగం	-8.91525
▁అందుబాటులో	-8.91539
▁సినిమాలో	-8.9155
▁కమిషన్	-8.91608
▁క్యాప్షన్	-8.91612
▁ఆగ్రహం	-8.91784
▁ఢిల్లీలో	-8.91923
▁సీబీఐ	-8.91935
ిక	-8.92025
లే	-8.92173
▁ముగ్గురు	-8.92415
▁ఉప	-8.92448
ఫ	-8.92451
▁హై	-8.92576
▁ఆస్ట్రేలియా	-8.92617
వీ	-8.92705
▁చేస్తున్నారని	-8.92805
థ	-8.92877
▁తీరు	-8.93086
o	-8.9315
▁మో	-8.93178
▁ఆధ్వర్యంలో	-8.93245
▁తెలిసింది	-8.93292
▁అందించ	-8.93328
▁అమిత్	-8.9335
▁చెప్పిన	-8.93386
▁భ	-8.93429
▁ఇబ్బంది	-8.93461
▁ఇచ్చే	-8.93471
▁ఎవరు	-8.93629
▁గవర్నర్	-8.93683
▁ఆగస్టు	-8.93726
▁బ్యాంక్	-8.93807
▁తెలియ	-8.9387
ప్ప	-8.93922
▁బీసీ	-8.93972
▁నియోజకవర్గంలో	-8.94088
ందని	-8.94234
ుగా	-8.94341
▁వేసి	-8.94412
ేలా	-8.94531
కపోతే	-8.94833
▁ఖాన్	-8.94921
▁మహిళలు	-8.94977
▁‍	-8.94991
▁తల	-8.9509
▁చేస్తోంది	-8.9525
▁చేస్తుంది	-8.95429
▁ఉండాలని	-8.95619
▁కనిపించ	-8.9568
ుడు	-8.95709
▁సుప్రీంకోర్టు	-8.95841
▁గుర్తించారు	-8.95896
▁మద్యం	-8.95899
తే	-8.95901
▁డే	-8.95946
▁సంఘం	-8.96212
▁శక్తి	-8.96311
▁అనేద	-8.96332
▁పోలీసు	-8.96431
▁అంతర్జాతీయ	-8.96587
▁సీజన్	-8.96792
▁ప్రెస్	-8.9691
▁వివరాలు	-8.97037
▁అత్యధిక	-8.97042
▁నిర్మాణం	-8.97078
▁దాఖలు	-8.97088
▁నవంబర	-8.97332
▁అంశం	-8.97333
తు	-8.97376
▁ప్రక్రియ	-8.97498
▁అవకాశాలు	-8.97508
▁ఉ	-8.97552
▁లేఖ	-8.97596
▁రాష్ట్రాల్లో	-8.97598
▁రోహిత్	-8.97613
▁ఉన్నాయని	-8.97618
▁దేశం	-8.97643
▁తీసుకోవాలని	-8.97723
e	-8.979
▁పెంచ	-8.97961
A	-8.9802
▁స్కూల్	-8.98107
▁కృష్ణ	-8.98111
▁కేంద్రంలో	-8.98289
▁పాట	-8.98374
▁వాడ	-8.9855
▁సుమారు	-8.98575
ା	-8.98633
▁విద్యా	-8.98643
▁పెట్టారు	-8.98962
▁వెల్లడించింది	-8.99022
0	-8.99042
▁రామ	-8.99158
భ	-8.99232
▁మె	-8.99304
ుకొని	-8.99333
▁శర్మ	-8.99585
పట్ల	-8.99586
▁సెంటర్	-8.99621
▁న్యూస్	-8.99654
▁ప్పుడు	-8.99663
▁దక్షిణ	-8.99691
▁రావడం	-8.99759
▁అద్భుత	-8.99815
▁పరుగుల	-8.99842
▁చూసి	-8.99968
ెట్	-8.9999
▁ముందుగా	-9.0011
▁అనుమతి	-9.00353
▁అందర	-9.00412
▁మార్పు	-9.00531
▁పంట	-9.00737
▁కుటుంబం	-9.00783
▁బాధ్యత	-9.00818
▁గ్రామంలో	-9.00925
▁బోర్డు	-9.00975
▁శ	-9.00986
▁ప్రస్తుత	-9.01007
ూరు	-9.01111
▁A	-9.01113
▁మహా	-9.01134
▁కట్ట	-9.01236
డీ	-9.0139
▁పాత	-9.01619
▁నేషనల్	-9.0162
▁నిర్వహించ	-9.01681
s	-9.0173
ుతున్న	-9.01767
▁31	-9.0182
▁హెచ్	-9.01825
▁ఖ	-9.01916
▁కాల	-9.01985
▁ఆధారంగా	-9.02014
▁దు	-9.02045
▁వెబ్	-9.02079
▁ఉన్నా	-9.0227
00	-9.02273
▁భేటీ	-9.02426
▁టి	-9.02618
▁తిరుపతి	-9.02673
వ్యాప్తం	-9.02752
▁వెళ్లిన	-9.02766
▁రష్యా	-9.02787
▁ఆదేశించారు	-9.02833
▁చుట్ట	-9.02958
▁పొత్తు	-9.03087
దో	-9.03111
▁నాయకుల	-9.03124
▁లోకేష్	-9.03152
▁సంక్షేమ	-9.03176
▁పంపిణీ	-9.03393
▁ఎప్పుడ	-9.03398
▁29	-9.03464
▁నిరసన	-9.03533
▁పీ	-9.03601
▁విజయవాడ	-9.03644
▁తప్పు	-9.03684
▁భూ	-9.03734
▁గౌడ్	-9.03785
▁ఎకరాల	-9.03789
యి	-9.03921
▁సామాజిక	-9.03927
▁చిత్రం	-9.04018
ఆర్	-9.04062
▁వేదికగా	-9.04081
జా	-9.04232
▁గుర్తింపు	-9.04247
▁లేదన్నారు	-9.04271
▁పక్కన	-9.04359
▁ఒత్తిడి	-9.04369
▁షాక్	-9.04393
▁పథకం	-9.04586
▁సంవత్సరం	-9.04599
▁సరైన	-9.0463
▁ించ	-9.04685
▁విజయ్	-9.0472
▁ఏర్పాట్లు	-9.04821
▁దా	-9.04902
ంగ్	-9.04907
▁ఆర్టీసీ	-9.0499
▁విద్యార్థులు	-9.05021
▁రకాల	-9.05073
▁ఫ్యాన్స్	-9.05192
▁క్రితం	-9.05326
▁వేశారు	-9.05332
▁ట్రాఫిక్	-9.05373
▁అవి	-9.05417
▁రో	-9.05469
సార్లు	-9.05485
▁కెప్టెన్	-9.05527
▁సిటీ	-9.05616
▁నుంచే	-9.05629
▁కొడుకు	-9.05674
ము	-9.05719
▁కృషి	-9.05728
▁ఎమ్మెల్యేలు	-9.05735
▁ఆదాయం	-9.06234
ుంది	-9.06299
▁సినీ	-9.0631
▁ఇచ్చి	-9.06401
▁లేకపోవడం	-9.06618
▁విషయాన్న	-9.06667
న్నాయి	-9.06689
▁సర్కార్	-9.06729
▁మంత్రులు	-9.0682
▁భద్రత	-9.06824
▁మార్పులు	-9.06836
▁ఆలోచన	-9.0684
▁ప్రేక్షకుల	-9.06847
▁చెప్పింది	-9.06965
▁నిన్న	-9.07067
▁రాష్ట్రం	-9.07156
నుంది	-9.07249
▁ఐపీఎల్	-9.07263
ళ	-9.07346
i	-9.07436
▁వచ్చారు	-9.07539
▁లక్షలు	-9.07581
a	-9.07627
▁కార్యక్రమ	-9.07649
▁షో	-9.07748
▁అయింది	-9.07825
▁సంగతి	-9.07867
ر	-9.07887
▁మని	-9.07909
రావు	-9.08066
▁వాయిదా	-9.08117
▁కూడి	-9.08139
▁సంవత్సరాల	-9.08168
▁నూ	-9.08251
▁నో	-9.08395
▁ఏడు	-9.08418
బా	-9.08458
▁కరీంనగర్	-9.085
'	-9.08513
ل	-9.08577
▁),	-9.08636
▁భారతీయ	-9.08691
▁ఉండాలి	-9.0873
▁వెళ్లే	-9.08731
▁భూముల	-9.08766
▁ప్రారంభించారు	-9.08774
▁మున్సిప	-9.08883
▁కమిషనర్	-9.08884
▁ముంబై	-9.09042
▁పండుగ	-9.09121
▁సారి	-9.09128
ొ	-9.09129
▁వర్గాల	-9.09172
▁రికార్డు	-9.09213
చి	-9.09235
▁కావడం	-9.09458
▁ల్	-9.09655
▁ఫలితాల	-9.09705
▁ఇవి	-9.09737
▁రానున్న	-9.09767
▁పిల్లలు	-9.09822
▁అయ్యింది	-9.09856
▁బా	-9.09875
▁సీటు	-9.10322
▁మండల	-9.10329
▁నాయుడు	-9.10365
▁ఒక్కో	-9.10398
▁చోట్ల	-9.10515
▁ప్రచార	-9.10596
▁ందని	-9.10612
▁వీ	-9.10614
▁నియోజకవర్గం	-9.10831
▁నీళ్లు	-9.11077
▁అవుతుంది	-9.11082
▁రాజధాని	-9.11089
రం	-9.11117
▁60	-9.11168
▁ముందే	-9.1125
▁అర్థం	-9.11445
▁నష్టం	-9.11537
▁బిల్లు	-9.1164
▁జా	-9.11724
▁డిప్యూట	-9.11747
▁బ్యాంకు	-9.11989
▁దానికి	-9.12061
▁వేళ	-9.12092
▁కోహ్లీ	-9.12144
▁దాన్ని	-9.1224
ہ	-9.12241
▁ఫ	-9.12284
▁కొ	-9.12297
▁హీరోయిన్	-9.12409
▁కామెంట్స్	-9.1256
▁చాలామంది	-9.12713
u	-9.12938
▁రాజ	-9.12963
చ్	-9.13012
బీ	-9.13155
▁తరలించారు	-9.13236
▁ఫిబ్రవరి	-9.1326
▁సో	-9.13288
▁ఓట్ల	-9.13353
ೆ	-9.13365
▁విషయ	-9.13533
ద్ద	-9.13639
ాల్లో	-9.13787
▁హా	-9.13846
S	-9.13936
▁మేం	-9.13943
▁కలిపి	-9.14168
▁సీట్ల	-9.14287
▁ఆయా	-9.14444
▁అందరి	-9.14461
▁పేపర్	-9.1452
▁ప్రైవేట	-9.14629
▁ఓటమి	-9.14694
▁యువత	-9.14704
▁ప్రారంభం	-9.14749
▁సార్లు	-9.14791
▁కార్యకర్తలు	-9.14865
▁కిషన్	-9.14879
▁వేయ	-9.14967
▁నిర్ణయించ	-9.15003
▁ప్రయత్నాలు	-9.15018
▁ప్రతిపక్ష	-9.15297
▁చెక్	-9.1533
▁తి	-9.15359
ేష్	-9.15369
▁ఇవ్వడం	-9.15422
పో	-9.15437
▁నిపుణులు	-9.1546
▁చూసిన	-9.15465
▁దాడులు	-9.15545
▁అప్	-9.1568
▁ఓట్లు	-9.15686
▁నిధులు	-9.15796
▁టీమ్	-9.15867
▁చేపట్టిన	-9.15911
▁పాల	-9.16014
▁బ్యాటింగ్	-9.16064
▁చేయాల్సి	-9.16118
▁బ్లాక్	-9.16207
▁తేడా	-9.16256
దీప్	-9.16356
▁ఫస్ట్	-9.16551
▁2022	-9.16616
వల్ల	-9.16656
ంద	-9.16742
▁షెడ్యూల్	-9.16755
▁వేసిన	-9.16764
▁కీ	-9.16819
▁తీసుకు	-9.16871
▁దే	-9.16888
▁చేపట్టారు	-9.17006
▁ఘన	-9.17095
▁అమరావతి	-9.17172
▁ఫుడ్	-9.17257
▁ఉత్తర	-9.17284
▁సాగు	-9.17292
▁అవ	-9.173
▁గుజరాత్	-9.17311
▁ఒకరు	-9.1734
▁పెట్టిన	-9.17357
▁చేసుకుంది	-9.17384
▁తీసుకుని	-9.17428
▁కల్పించ	-9.17486
▁ఆదేశాలు	-9.17487
▁డా	-9.17585
▁ఎఫ్	-9.17721
▁నిర్వహణ	-9.17731
▁ామని	-9.17767
▁ప్రజలను	-9.17896
▁చెన్నై	-9.17975
▁స్పెషల్	-9.18012
▁వేలు	-9.18088
ాయని	-9.18125
▁కలిగి	-9.18154
▁ఎందుకంటే	-9.18159
కర్	-9.18178
▁ఆత్మహత్య	-9.18196
▁శ్రీవారి	-9.18209
▁ఉంటారు	-9.18221
▁స్వాధీనం	-9.18293
▁స్థానాల	-9.18342
▁కల	-9.18372
R	-9.18373
నం	-9.18377
▁పు	-9.184
▁తగ్గ	-9.18477
▁వెనుక	-9.18513
▁దరఖాస్తు	-9.18524
▁వ్యవసాయ	-9.18703
ಿ	-9.18718
▁యాప్	-9.18764
▁ఇండియన్	-9.18847
▁మెడిక	-9.18877
▁ాల	-9.18985
▁వ్యతిరేక	-9.19101
▁అభ్యర్థులు	-9.19133
▁సబ్	-9.19148
ంచ	-9.193
▁రోడ్	-9.19312
▁జాగ్రత్త	-9.19373
▁టీమిండియా	-9.19427
▁సంస్థల	-9.19442
▁సంఖ్యలో	-9.19518
▁టార్గెట్	-9.1957
▁ఉచిత	-9.19741
▁ನ	-9.19772
▁పడింది	-9.19859
▁ప్రపంచంలో	-9.19941
ోంది	-9.20034
▁నిర్వహిస్తున్న	-9.20077
పాటు	-9.20107
▁అభిమానులు	-9.20181
▁గడ్డ	-9.20309
▁పా	-9.20411
▁ఆహారం	-9.20415
▁సాయి	-9.20423
▁కేటాయించ	-9.20612
▁ఇప్పటివరకు	-9.20753
▁సేవ	-9.20762
పూర్	-9.20858
▁బాధ్యతలు	-9.20863
▁2014	-9.20863
▁బహిరంగ	-9.2089
▁ారా	-9.21108
▁అదుపులోకి	-9.21214
▁పంచ	-9.21215
▁ఏదైన	-9.21359
▁రేపు	-9.21368
▁పట్ట	-9.21486
▁కొండ	-9.21712
▁విశాఖ	-9.21887
▁రె	-9.2201
.2	-9.22147
▁చట్టం	-9.22159
▁జిల్లాల	-9.22203
▁నెలలో	-9.22322
▁నోటీసులు	-9.2243
▁టాప్	-9.22772
ాబాద్	-9.22789
ియా	-9.23033
▁వాతావరణం	-9.23118
▁ఎవరి	-9.23143
▁వారిలో	-9.23171
▁ఫలితాలు	-9.23215
O	-9.2329
▁రావడంతో	-9.23328
▁ష	-9.23331
▁కాపాడ	-9.23346
వే	-9.23359
రే	-9.23442
▁S	-9.23478
/	-9.23502
▁హిందూ	-9.23567
గు	-9.23629
▁శిక్ష	-9.23646
▁పవర్	-9.23746
▁దేశవ్యాప్త	-9.23761
▁కేజ్రీవాల్	-9.23798
▁విధానం	-9.23876
▁జీవిత	-9.23951
▁న్న	-9.24155
.5	-9.24163
▁ఉన్నారని	-9.24165
▁చంద్ర	-9.24224
▁పశ్చిమ	-9.24246
▁దారి	-9.24386
▁స్పందించారు	-9.24449
▁తదితరులు	-9.24475
t	-9.24527
▁చిరంజీవి	-9.24545
త్త	-9.24601
శ్	-9.24609
▁బో	-9.24718
▁నారాయణ	-9.24815
▁రక్షణ	-9.24846
▁నిధుల	-9.24987
▁తెలుగుదేశం	-9.24996
▁ందన్నారు	-9.25053
▁వెంట	-9.25127
▁టెస్ట్	-9.25165
▁మోహన్	-9.25169
▁వేసింది	-9.25333
▁తాజా	-9.25384
▁పెరిగింది	-9.25546
▁సంబంధం	-9.25745
▁యుద్ధం	-9.25912
▁దాంతో	-9.25914
▁సంచలన	-9.26093
క్ష	-9.26171
▁దూరంగా	-9.2632
▁గురి	-9.26552
▁స్తుంది	-9.26785
▁ఉంచ	-9.26796
▁కాస్త	-9.26807
▁ానికి	-9.26828
▁సంఘటన	-9.26859
▁సర్	-9.27023
గి	-9.27097
▁నెట్	-9.27232
ರ	-9.27288
▁విషయాల	-9.27369
పేట	-9.27374
▁డం	-9.27531
▁మిగిలిన	-9.27542
మో	-9.2756
▁పనిచేస్తున్న	-9.27635
▁సాధారణ	-9.27687
▁మార్చ	-9.27724
▁کو	-9.27758
▁సాధించ	-9.27869
▁ఆహార	-9.27902
▁ఉండడం	-9.27905
▁ప్పటికీ	-9.27925
▁బరువు	-9.27961
▁బీజేపీకి	-9.27964
▁నియోజకవర్గ	-9.28091
▁మంజూరు	-9.28254
▁ఏక	-9.2826
▁వందల	-9.28262
▁మిగతా	-9.28368
▁కిలోమీటర్ల	-9.28383
▁సైట్	-9.28399
▁బుక్	-9.28409
ౌ	-9.28409
▁అల్లు	-9.28435
▁వ్యవహారం	-9.28462
▁ఉండటంతో	-9.28472
▁జనరల	-9.28509
▁నాడు	-9.28579
▁వెళ్లారు	-9.28633
▁اس	-9.28744
▁వీర	-9.28762
C	-9.2877
▁చూడ	-9.2882
▁పథకాల	-9.28881
▁వికెట్లు	-9.28993
▁కఠిన	-9.28994
ఎఫ్	-9.29085
▁బంగార	-9.29088
▁కార్మికుల	-9.29187
▁అర్జున్	-9.29207
్యా	-9.29264
▁నారా	-9.2928
▁గుండె	-9.29322
▁నంబర్	-9.29369
▁ఎన్ని	-9.2942
పీ	-9.29434
▁అవగాహన	-9.29465
▁ప్రాజెక్ట్	-9.29623
▁జస్టి	-9.2966
▁తీర	-9.2971
▁గొప్ప	-9.29827
▁జరుగుతోంది	-9.29835
▁న్యాయం	-9.29849
▁ఆరోగ్యం	-9.29868
▁నన్న	-9.29869
▁కొంతమంది	-9.29902
▁ఉద్యోగం	-9.29942
▁విద్య	-9.29978
▁వర్షాల	-9.29993
▁ాను	-9.30001
▁నిద్ర	-9.30011
I	-9.30104
▁కూ	-9.30199
▁స్టేట్	-9.30214
▁మోసం	-9.30313
▁ఫర్	-9.30415
▁ప్రెసిడెంట్	-9.30416
▁మండలంలో	-9.30468
ిందని	-9.30634
▁ప్రతీ	-9.30732
▁ప్రాధాన్యత	-9.30747
▁లపై	-9.30915
▁కనిపిస్తోంది	-9.30966
▁చేయనున్నారు	-9.31003
▁చరిత్ర	-9.3111
▁కోర	-9.3116
▁స్తున్న	-9.31226
▁డేటా	-9.31244
▁డబుల్	-9.3139
▁కొద్ది	-9.31391
▁ప్రకటించిన	-9.31403
▁చేరుకున్న	-9.31424
▁కార్యకర్తల	-9.31448
▁హక్కు	-9.31505
▁వన్డే	-9.3154
▁జులై	-9.31559
▁సంస్థలు	-9.31677
▁జరుగుతుంది	-9.31699
▁యూ	-9.31803
▁హోదా	-9.31863
▁ఒక్కసారి	-9.31953
▁ఎస్సీ	-9.31985
▁పరిస్థితులు	-9.32057
▁చివర	-9.32076
▁కార్యక్రమం	-9.32176
▁యూనివర్సిటీ	-9.32249
▁చి	-9.32272
ట్ల	-9.32278
ధి	-9.32305
▁కోల్	-9.32323
ించిన	-9.32325
▁ప్రమాద	-9.32327
▁రోజున	-9.32365
▁తొలిసారి	-9.32462
▁సికింద్రాబాద్	-9.32506
▁మేము	-9.32578
▁పడి	-9.3259
▁తీసుకోవడం	-9.32806
▁గెలుపు	-9.32915
▁మీటింగ్	-9.33014
▁తెలుసుకున్న	-9.3302
▁హోం	-9.33043
▁ఫైనల్	-9.33065
ఏ	-9.3307
▁ఉండి	-9.33091
ేరుగా	-9.33125
▁ప్రసాద్	-9.33206
▁సూర్య	-9.33273
ైతే	-9.33283
▁ఆధార	-9.33347
▁కుంట	-9.33414
▁టీటీడీ	-9.33485
▁వివేక్	-9.33486
▁బాధ	-9.3358
▁అటు	-9.33644
▁చేయగా	-9.33778
టర్	-9.33797
▁కార్యక్రమాల	-9.33837
▁విన	-9.33881
ఐ	-9.3391
వో	-9.33945
▁చేయడంతో	-9.34021
▁సరఫరా	-9.34022
▁తోనే	-9.34099
▁నిజామాబాద్	-9.34144
▁ఉండటం	-9.34189
▁జీవితంలో	-9.34252
▁C	-9.34263
▁వస్తుందని	-9.34355
▁చేస్తున్నట్లు	-9.34357
୍	-9.34374
▁సైబర	-9.34397
▁చేసుకుని	-9.34479
م	-9.34536
▁రాజకీయాల	-9.34555
▁వర్క్	-9.34599
▁ప్రారంభించ	-9.34713
▁పడే	-9.34762
▁లక్ష	-9.34828
▁ఫుల్	-9.34838
▁అందరిక	-9.34859
రె	-9.34941
▁బిజెపి	-9.34973
▁పాల్గొన	-9.35005
▁ఎత్తున	-9.35086
▁హౌస్	-9.35098
▁చె	-9.35106
▁ఇళ్ల	-9.35216
జి	-9.35255
▁అండ	-9.35258
▁స్థానికులు	-9.35468
▁హరీశ్	-9.35474
పా	-9.35492
▁కావాలని	-9.35568
▁T	-9.35633
▁ఎదురు	-9.35777
▁ఓవర్	-9.35801
▁దర్శకుడు	-9.35812
▁చేసుకునే	-9.35812
▁సమయ	-9.35813
▁హెచ్చరించారు	-9.35836
▁మీకు	-9.35863
▁తరఫు	-9.35977
▁అవసరమైన	-9.36032
▁అందిస్తున్న	-9.36136
▁హిట్	-9.36141
▁బంగ్లాదేశ్	-9.36145
▁ాయని	-9.36229
▁న్యాయ	-9.36403
▁డ్	-9.36439
▁చర్యల	-9.36487
లిక్కర్	-9.36488
▁జి	-9.36578
▁అధికారం	-9.36607
▁ప్రయాణం	-9.36636
వేళ	-9.36643
▁ఇక్కడి	-9.36643
ార్	-9.36757
▁స్పీకర్	-9.36822
▁హాస్పిటల్	-9.36828
లేక	-9.36829
▁ఎస్పీ	-9.36868
▁నిజ	-9.36886
▁కర్ణాటకలో	-9.3691
▁బాధితుల	-9.36951
▁చర్చించ	-9.36958
▁వ్యాఖ్యానించారు	-9.3706
నో	-9.37154
▁మొదలు	-9.3726
▁70	-9.37319
ನ್ನು	-9.3736
▁నగర	-9.37462
▁నిందితుల	-9.37484
▁2018	-9.37503
▁అర	-9.3752
▁అయ్యాయి	-9.37582
▁మెట్రో	-9.37677
న్స్	-9.37706
▁లి	-9.3772
▁డ్రగ్స్	-9.37741
▁రాజకీయాల్లో	-9.3782
▁అయ్యే	-9.3783
▁మేకర్స్	-9.37873
و	-9.37889
▁ఉత్పత్తి	-9.38016
▁తరపు	-9.38028
ినట్లు	-9.38038
▁డీకే	-9.38079
▁స్థానాల్లో	-9.38139
▁پر	-9.38222
▁గెలిచిన	-9.38231
▁చొప్పున	-9.3836
▁సమాధానం	-9.38369
▁نے	-9.38482
▁న్యూఢిల్లీ	-9.38577
▁భావిస్తున్నారు	-9.38637
ీయ	-9.38701
▁ఆటో	-9.38702
▁స్థానం	-9.38735
జర్	-9.38859
▁గంట	-9.38875
▁సర్కారు	-9.38879
న్ని	-9.38937
▁ఆరోపణల	-9.38945
▁చేతిలో	-9.38961
▁తీసుకుంది	-9.3906
▁రవి	-9.39068
an	-9.3912
▁ఖాళీ	-9.39277
▁షిప్	-9.39318
▁మొబైల్	-9.39455
▁వ్యతిరేకం	-9.39463
▁పార్లమెంటు	-9.39618
ک	-9.39726
▁తయారీ	-9.39758
▁నిర్మాణ	-9.39762
▁చెప్పి	-9.39834
▁వ్యక్తుల	-9.39874
ాలంటే	-9.39922
▁35	-9.39942
▁నెలకొంది	-9.39969
▁వర్గాలు	-9.40013
▁రాక	-9.40022
▁తగిన	-9.40077
టో	-9.40098
▁నల్గొండ	-9.40098
▁దేవ	-9.40205
▁పక్క	-9.40219
▁చేసినా	-9.40226
▁80	-9.4027
▁ప్రశ్న	-9.40281
▁శంకర్	-9.40324
యో	-9.40331
▁హాజరు	-9.40334
▁అంతే	-9.40336
▁సంబంధి	-9.4034
▁థ	-9.40343
▁జో	-9.40348
h	-9.40368
▁అమెరికాలో	-9.40383
.3	-9.4042
▁షూటింగ్	-9.4045
▁దని	-9.40497
▁టెక్నాలజీ	-9.40625
డమే	-9.40736
ుకున్న	-9.40779
▁కరోనా	-9.40802
మై	-9.40967
▁కామారెడ్డి	-9.40979
▁స్థల	-9.41028
▁విభాగం	-9.411
▁రవాణా	-9.41155
▁జనాభా	-9.41156
▁బాల	-9.41214
▁ఇరు	-9.41296
▁వాహనాల	-9.41309
▁కార్	-9.41425
▁ఇద్దరి	-9.41467
▁కార్డు	-9.41503
▁ఉంటున్న	-9.41529
▁పడుతున్న	-9.41568
▁భవన్	-9.41677
▁మానసిక	-9.41689
▁ఫైర్	-9.41705
ಲ್ಲಿ	-9.41754
▁వార్తలు	-9.41818
▁సెల్	-9.4182
▁సమ	-9.41821
▁ఏళ్లు	-9.41858
,000	-9.41877
▁నలుగురు	-9.41896
▁మొదట	-9.41899
▁ఇచ్చ	-9.41979
▁వ్యక్తిగత	-9.42045
▁నాయకుడు	-9.42102
▁మెగా	-9.42184
▁అతడి	-9.42213
▁టౌన్	-9.42224
▁నోటిఫికేషన్	-9.42226
కల్	-9.4223
▁స్వయం	-9.42249
▁సాధించిన	-9.42256
స్తామని	-9.4232
▁కౌంటర్	-9.42378
▁చర్చలు	-9.42398
▁మిషన్	-9.42465
▁అభిమానుల	-9.42558
▁గోదావరి	-9.42582
▁వాటర్	-9.42618
c	-9.42628
▁ఇన్నింగ్స్	-9.42762
▁ఆవేదన	-9.42762
▁వ్యక్తులు	-9.42833
▁బైక్	-9.42893
▁దాడుల	-9.4297
▁బిడ్డ	-9.42982
▁పరిస్థితుల	-9.42982
▁మహిళలకు	-9.43052
బాలీవుడ్	-9.43055
▁దిశగా	-9.43071
▁కానుంది	-9.43243
▁45	-9.43265
▁సక్సెస్	-9.43304
▁జనం	-9.43322
▁ఉద్యోగులు	-9.43326
▁జె	-9.43471
▁అయి	-9.43472
▁రాజస్థాన్	-9.43485
హా	-9.43509
వేల	-9.43548
▁గుడ్	-9.43598
▁దూరం	-9.43606
▁200	-9.43619
▁ఆట	-9.43643
▁బౌలింగ్	-9.43667
▁కేంద్రాల	-9.43796
▁పూజలు	-9.43832
▁టాక్	-9.43899
▁ఆల్	-9.43906
▁చే	-9.43972
▁ప్రొఫెసర్	-9.4403
▁ట్రంప్	-9.44031
▁ఫ్యామిలీ	-9.44031
▁రెడీ	-9.44046
▁పాక్	-9.44112
▁పోయింది	-9.44139
మెంట్	-9.44153
▁టాలీవుడ	-9.44273
▁గాలి	-9.44307
డా	-9.44389
▁గ్రాముల	-9.44703
▁వార	-9.44745
వచ్చు	-9.44813
▁సహాయం	-9.44896
▁నగదు	-9.44946
▁దానిపై	-9.44952
ಂ	-9.45072
▁పె	-9.45116
▁సెంట్రల	-9.45131
▁ప్రభాకర్	-9.45162
▁వచ్చ	-9.45262
▁స్టేడియం	-9.45391
ేశ్	-9.45415
▁చెప్పడం	-9.45456
▁ాడని	-9.45512
▁పోరాటం	-9.45532
▁జై	-9.45617
▁పంప	-9.45637
▁పోర్టు	-9.45656
▁మహారాష్ట్ర	-9.45686
▁అవుతున్న	-9.45732
▁అందుబాటులోకి	-9.45803
▁సె	-9.45855
▁పాస్	-9.45862
▁నటించి	-9.45922
▁తీసుకునే	-9.46149
▁ఉందన్నారు	-9.46166
▁కెరీర్	-9.46243
ar	-9.46256
▁పరీక్షలు	-9.46286
▁పంజాబ్	-9.46289
▁శాంతి	-9.46361
దే	-9.46505
▁అల్	-9.46579
▁సంతోషం	-9.46579
▁వెండి	-9.46635
▁గుర్తించ	-9.46636
▁ఆమెకు	-9.46663
ుకుని	-9.46688
▁ానని	-9.4669
వర్	-9.46781
▁ట్విట్టర్	-9.46895
▁రూమ్	-9.46926
ెంట్	-9.4693
▁భవిష్యత్తు	-9.47001
▁సన్	-9.47015
▁బై	-9.47066
వ్వ	-9.47086
▁పోర్ట్	-9.47111
▁పాల్	-9.47115
▁ప్రాణాలు	-9.47133
س	-9.47141
▁కార్పొరేషన్	-9.47179
▁అనుకూలంగా	-9.47205
▁మెదక్	-9.47367
▁శ్రీలంక	-9.47367
▁హయాంలో	-9.47367
▁క్యూ	-9.47368
▁చేరిన	-9.47541
▁కాలేజీ	-9.47559
▁అల	-9.47578
▁کا	-9.47656
▁మేర	-9.47699
▁కారణమ	-9.47834
▁కుల	-9.47852
▁..!	-9.48034
▁మాకు	-9.48057
▁భర్తీ	-9.4807
▁పేదల	-9.48088
▁సినిమాలు	-9.48163
▁అవార్డు	-9.482
▁పడిన	-9.48322
▁ఆఫీస్	-9.48353
▁యువ	-9.48361
▁నిర్ణయ	-9.48427
▁లీ	-9.48579
▁అన	-9.4863
▁డ్రైవర్	-9.48745
▁ట్రాన్స్	-9.48775
▁నిమిషాల	-9.48797
▁س	-9.48836
▁స్తోంది	-9.4884
▁దెబ్బ	-9.48848
క్క	-9.48926
▁అడుగు	-9.49045
▁రద్దీ	-9.49078
▁ఉద్యోగాల	-9.49231
▁బృందం	-9.49241
▁తమిళనాడు	-9.49297
▁ఉద్యోగ	-9.49338
టు	-9.49345
▁యువతి	-9.49392
▁ఎప్పుడు	-9.4946
▁చూస్తే	-9.49464
▁నాయక్	-9.4947
▁ప్లే	-9.49491
▁పాకిస్థాన్	-9.49499
వారు	-9.49502
ئی	-9.49513
▁నాగ	-9.49529
▁టెస్టు	-9.49541
▁ఎన్నిక	-9.4961
▁నాని	-9.49622
ದ	-9.49639
▁అలీ	-9.49669
▁నిలిచింది	-9.49742
▁పెట్టుకున్న	-9.49763
▁దశ	-9.49769
▁నివాసం	-9.49816
▁ారన్నారు	-9.49877
▁కుండా	-9.49878
▁చూపించ	-9.49888
గ్గా	-9.50003
▁అక్కడే	-9.50028
▁అవుతోంది	-9.50075
▁ఫామ్	-9.50098
▁రావాల	-9.50216
▁ఆఫీసర్	-9.50217
▁ఓపెన్	-9.50236
▁దిగ	-9.50339
▁చేరారు	-9.50405
▁హోటల్	-9.5043
▁కొనసాగుతున్న	-9.50454
▁చేపట్ట	-9.50551
ించారు	-9.50596
▁అదానీ	-9.50627
▁ఆపరేషన్	-9.50692
▁నియోజకవర్గాల్లో	-9.50723
▁వయసు	-9.50787
▁సమీక్ష	-9.50797
▁టీఎస్	-9.50883
లతో	-9.50905
▁అదన	-9.50951
ప్పటికీ	-9.50971
وں	-9.50991
▁కుమారుడు	-9.51044
▁ఇండ్ల	-9.51048
▁సాధారణంగా	-9.51057
▁రంగ	-9.512
▁ఆడియన్స్	-9.5121
▁ఉపాధి	-9.5121
▁పెండింగ్	-9.51237
కర	-9.5125
▁తే	-9.51251
▁శరీర	-9.51415
ంట	-9.51421
▁ఆసక్తికర	-9.51482
▁వైద్యులు	-9.51493
▁మన్	-9.51528
▁రచయిత	-9.51603
▁రాజ్యసభ	-9.51603
▁ఈసీ	-9.51633
▁సవాల్	-9.51633
▁మై	-9.51657
▁విద్యార్థి	-9.51685
ాక	-9.51756
▁ఎంట్రీ	-9.5182
▁మొదలైంది	-9.51885
ି	-9.51986
▁జోన్	-9.5202
▁జంట	-9.52031
▁ప్రచారంలో	-9.52114
స్తున్న	-9.5234
⁬	-9.52387
పాటి	-9.52395
▁అగ్ని	-9.52396
▁రూపం	-9.52408
▁ఇస్తామని	-9.52439
▁M	-9.52469
▁ఎమ్మెల్యేల	-9.52488
▁ఆఫీసర్లు	-9.52506
▁కర	-9.52545
▁పూజ	-9.52594
▁వర్మ	-9.52673
ంచి	-9.52716
P	-9.52733
▁ఓటర్ల	-9.52782
ର	-9.52815
▁హాట్	-9.52889
▁వాడు	-9.52907
▁తమిళ	-9.52937
.30	-9.52938
▁డు	-9.52987
▁డె	-9.53074
గ్రీన్	-9.53076
▁మీదుగా	-9.53097
▁తీసుకుంటున్న	-9.53213
▁గ్రౌండ్	-9.53252
చు	-9.53405
▁రైళ్ల	-9.5343
ించి	-9.5343
▁వెళ్తున్న	-9.53441
▁తెర	-9.53448
▁మొత్త	-9.53529
ేంద్ర	-9.53539
▁మత	-9.5357
▁2021	-9.53593
▁వికెట్	-9.53632
▁దశలో	-9.53652
g	-9.5369
▁క్లారిటీ	-9.5379
▁పన్ను	-9.53821
▁ప్రయాణికుల	-9.53831
ుకునే	-9.53864
▁అంచనాలు	-9.53909
▁వంద	-9.53967
▁పాదయాత్ర	-9.53991
▁కరెంట్	-9.54105
▁పరిస్థితుల్లో	-9.54107
▁చెప్పుకొచ్చారు	-9.54192
ళ్ళ	-9.54221
ండ్	-9.54306
▁పేట	-9.5431
▁నటి	-9.54444
▁మెరుగ	-9.54448
▁చెల్లించ	-9.5445
▁చేశామని	-9.54484
▁వారిపై	-9.545
▁నెలలు	-9.54536
▁ప్రకటించ	-9.5464
▁వె	-9.54674
▁లేవు	-9.54746
▁సెక్రటరీ	-9.548
▁త్వరగా	-9.548
▁చెంద	-9.54807
▁సినిమాల	-9.5499
▁ఉద్యోగాలు	-9.55043
కె	-9.55133
▁ప్రియాంక	-9.55211
▁నిబంధనల	-9.5525
▁سے	-9.55254
▁న్యూ	-9.55344
▁ఎత్తు	-9.55368
▁దిగారు	-9.55377
▁పరిశీలించారు	-9.55394
▁జీవితం	-9.55458
▁వర్గ	-9.55466
▁బదిలీ	-9.5552
▁ప్రమాణ	-9.55523
▁నల్ల	-9.55574
నెల	-9.55607
▁అంతేకాదు	-9.55615
▁రుణమాఫీ	-9.55615
▁భట్టి	-9.55631
▁హామీల	-9.55645
▁కొనసాగుతోంది	-9.55697
▁కంపెనీల	-9.55783
ాడని	-9.55823
▁ర్యాలీ	-9.55825
▁కొట్ట	-9.55853
▁బరిలోకి	-9.55885
▁వివాదం	-9.55928
▁సాగ	-9.55935
ن	-9.55951
▁శరీరంలో	-9.56048
▁వల్లే	-9.56067
▁చూడాలి	-9.56068
▁సెట్	-9.56083
▁టీవీ	-9.56215
▁నాథ్	-9.56233
ెస్	-9.56258
▁బలంగా	-9.56265
▁పుష్ప	-9.563
▁పే	-9.56326
▁తదితర	-9.56365
▁م	-9.56391
▁మేనిఫెస్టో	-9.56437
్య	-9.56441
▁కోడ	-9.5647
▁జరిగిందని	-9.56483
%	-9.566
▁తెగ	-9.5664
▁దర్శనం	-9.56684
▁యుద్ధ	-9.56688
▁పాఠశాల	-9.56805
ت	-9.56821
కొండ	-9.56917
▁ఇస్తున్న	-9.56992
▁కుట్ర	-9.57006
▁వస్తున్నాయి	-9.5701
▁ఇందుకు	-9.57076
▁అవసరమ	-9.57169
▁ఫోటో	-9.57227
▁ఫోర్స్	-9.57247
విరాట్	-9.57282
▁తరగతి	-9.57348
▁లీడర్లు	-9.57414
▁కంపెనీలు	-9.57415
ించ	-9.57423
బో	-9.57432
▁మాట్లాడిన	-9.57451
▁్లో	-9.57452
▁కురిస	-9.57462
▁ముందస్తు	-9.57475
▁గుంటూరు	-9.57477
D	-9.57513
▁నెంబర్	-9.57569
▁చేసుకో	-9.57653
▁పడుతున్నారు	-9.57802
▁తీసుకో	-9.5792
▁సమర్పించ	-9.57967
▁నిర్ణయాలు	-9.58005
▁ఎప్పటిక	-9.58059
▁ఇంటర్	-9.58215
▁తా	-9.58231
T	-9.58272
▁డెవలప్	-9.58308
▁కచ్చిత	-9.58313
▁చెప్పాల	-9.58334
▁పాలు	-9.58369
ట్ట	-9.58471
▁రంగు	-9.58536
▁కోచ్	-9.5857
▁ాలి	-9.58582
▁వచ్చు	-9.58703
▁నూతన	-9.58735
▁ఉండదు	-9.5877
ೇ	-9.58807
▁వసూలు	-9.58945
▁కాల్	-9.58956
▁వేడి	-9.58956
M	-9.59038
బి	-9.5904
▁ప్రశాంత్	-9.59139
▁శా	-9.59144
▁ప్రభాస్	-9.59157
ల్డ్	-9.59191
▁లెక్క	-9.59328
▁సీపీ	-9.59343
▁విజ్ఞప్తి	-9.5937
▁G	-9.59377
▁జరగనుంది	-9.59396
▁ఆశ	-9.59412
యు	-9.59419
▁అందుకున్న	-9.59447
▁బ్ర	-9.59461
▁వీరు	-9.595
త్ర	-9.59505
▁తప్పుడు	-9.59515
▁రే	-9.59535
▁స్వ	-9.59544
ిత	-9.59566
▁కార్యక్రమాలు	-9.59577
▁జెండా	-9.59588
▁బిగ్	-9.59596
▁శిక్షణ	-9.59836
▁నెలల్లో	-9.59908
▁ధ	-9.59999
▁గానే	-9.60021
▁తుది	-9.60084
▁పెద్దపల్లి	-9.60172
▁డేట్	-9.60207
▁టైటిల్	-9.6027
▁ఏకం	-9.60333
▁ఇం	-9.60358
.10	-9.60373
▁కదా	-9.60412
▁చోట	-9.60413
▁తాగ	-9.60414
▁కూతురు	-9.60438
▁జగిత్యాల	-9.60438
▁అప్పట్లో	-9.60438
▁బ్రేక్	-9.60502
▁హి	-9.60585
జన్	-9.60632
▁90	-9.60635
▁ఉన్నప్పుడు	-9.60644
ంబ	-9.60662
▁రన్	-9.60706
▁ఉద్యమ	-9.60719
▁ఆగ	-9.60763
▁సెక్షన్	-9.60763
▁మీటర్ల	-9.60811
ుతోంది	-9.60834
▁కేబినెట్	-9.60869
▁రెవెన్యూ	-9.60871
▁తక్కువగా	-9.60876
▁పర్	-9.60876
▁ఫై	-9.61088
▁వచ్చిందని	-9.6115
▁చేస్తార	-9.61185
▁తల్లిదండ్రులు	-9.61298
▁సేవల	-9.61365
▁చెప్పే	-9.61374
▁గు	-9.6146
▁ప్రదేశ్	-9.61488
▁భారతదేశంలో	-9.61508
▁సెంచరీ	-9.61525
▁#	-9.61575
▁చేసుకోవాల	-9.6162
▁చేసిందని	-9.61642
▁మంచిది	-9.6172
▁నిర్మించ	-9.6172
▁విష	-9.61733
▁నేతృత్వంలో	-9.6179
▁ಯ	-9.61797
రాజ్	-9.61813
▁బెంగళూరులో	-9.6184
▁500	-9.61842
▁పాల్గొన్న	-9.61947
▁అప్పుడ	-9.61985
▁ఖరారు	-9.61998
▁అనుకున్న	-9.62025
▁తెలుసు	-9.621
▁గ్యాస్	-9.62274
▁సమావేశ	-9.62353
▁సిద్దిపేట	-9.6239
▁గెలిచి	-9.6243
▁మార్	-9.62436
▁ವ	-9.62471
ఖ	-9.62559
▁క్యాన్సర్	-9.62611
ୁ	-9.62653
▁టిడిపి	-9.62829
▁ధీమా	-9.62829
.1	-9.62891
▁ت	-9.6291
▁కోట్లకు	-9.63014
▁దర్శకత్వం	-9.6305
▁నిర్మించిన	-9.63064
▁ప్రదర్శన	-9.63077
▁ఆమోదం	-9.63181
▁దక్క	-9.63192
▁ముఖ్యమైన	-9.63196
▁నేటి	-9.63196
▁రోజూ	-9.63222
▁పోస్టు	-9.63253
▁పట్టు	-9.6326
▁సమాచార	-9.63355
▁పరీక్షల	-9.63385
▁వెల్	-9.63465
▁అమ్మాయి	-9.63472
▁జూనియర్	-9.63492
▁యాక్షన్	-9.63499
▁ప్లాంట్	-9.63557
▁రాజకీయాలు	-9.63632
యూ	-9.6365
▁జరిగాయి	-9.63791
▁పాప	-9.63982
▁శుభ	-9.63988
▁రాశారు	-9.6406
▁తేలింది	-9.64067
▁ప్లాట్	-9.64075
▁సింగరేణి	-9.64158
▁సంగీత	-9.64159
ార	-9.64226
ెడ్	-9.64227
ٹ	-9.6429
▁పర	-9.64293
▁తు	-9.64313
▁B	-9.64338
▁⁭	-9.64542
▁కోసమే	-9.64592
▁కంట్రోల	-9.64605
▁ఉంద	-9.64676
▁తీసి	-9.64761
▁భద్రతా	-9.65008
▁ఇరాన్	-9.65066
▁ఉండేది	-9.65163
▁రాలేదు	-9.65227
▁చెప్పాడు	-9.65235
▁అనుకూల	-9.65236
గో	-9.65249
▁సాగర్	-9.65261
▁గొడవ	-9.65266
▁కుమార్తె	-9.6528
▁రాబోయే	-9.65306
▁కార్యాలయంలో	-9.65342
▁కొనసాగ	-9.65364
▁మానవ	-9.65382
▁సాధించింది	-9.65418
▁టైమ్	-9.65418
▁అకౌంట్	-9.6544
పెద్ద	-9.65472
▁విదేశీ	-9.65502
▁హెడ్	-9.65583
▁యం	-9.65742
స్తూ	-9.65761
▁హాజరయ్యారు	-9.65786
▁వస్తోంది	-9.65793
▁ఫ్రీ	-9.65796
▁మించి	-9.659
▁ప్రవీణ్	-9.65958
నగర్	-9.66088
▁కార్యాలయం	-9.66112
▁పబ్లిక	-9.66131
▁టోర్నీ	-9.66185
▁పసుపు	-9.66185
▁బె	-9.66189
▁బయటి	-9.6621
▁తీసుకెళ్ల	-9.6622
▁సేవలు	-9.66263
▁గ్రామాల్లో	-9.66297
ा	-9.66299
▁కొడ	-9.66357
ంతర	-9.66382
▁చేయకుండా	-9.66407
▁పాన్	-9.66418
▁ప్రాంతం	-9.66527
▁ఆదిలాబాద్	-9.66661
▁రెడ్	-9.66718
▁నియోజకవర్గాల	-9.66766
టిక్	-9.66777
▁పట్టణ	-9.66779
▁తగ్గించ	-9.66811
కపోవడం	-9.66816
▁హమాస్	-9.66871
▁ఈవెంట్	-9.66872
▁అర్హత	-9.66885
▁కేసుల	-9.66952
▁విగ్రహ	-9.67106
▁ఇల్లు	-9.67117
್	-9.67141
▁లక్ష్య	-9.67155
▁మరీ	-9.67193
▁న్నారు	-9.67227
▁R	-9.67306
▁ఒ	-9.67306
▁చేసుకుంట	-9.67312
▁నామినేషన్	-9.67312
▁చేసుకుంటున్న	-9.67326
▁సెక్యూరిటీ	-9.6733
▁వేడుక	-9.67344
▁చట్ట	-9.67381
▁అధ్యయనం	-9.6741
▁రాజ్యాంగ	-9.6744
▁ا	-9.67595
▁పాలసీ	-9.67605
▁ఉత్తర్వులు	-9.67688
▁కేరళ	-9.67742
▁కిరణ్	-9.67847
▁అంగీకరించ	-9.67926
▁చూప	-9.67945
▁హెల్త్	-9.68023
▁సర్వీస్	-9.68097
▁రాయ	-9.68114
▁ాలు	-9.68147
▁వన్	-9.68229
େ	-9.68231
▁శివకుమార్	-9.68259
దని	-9.68311
▁వేరే	-9.6836
ుతూ	-9.68392
▁పేర్కొన్న	-9.68464
▁సీఐడీ	-9.68497
▁నాలుగో	-9.68497
▁ఇటు	-9.68518
▁నగరంలో	-9.68529
▁మధ్యలో	-9.68552
▁ఉన్నత	-9.68565
మోహన్	-9.68583
▁వెనక్కి	-9.68588
B	-9.68622
▁D	-9.68638
▁తున్న	-9.68696
ణి	-9.68735
▁అవకాశముంద	-9.68768
▁లోపు	-9.68816
▁ఆలస్యం	-9.68845
▁పరిష్కరించ	-9.68882
▁వ్యాఖ్యల	-9.68986
ళ్లు	-9.69017
కుంటే	-9.69055
▁కథనం	-9.69096
▁ఆదేశాల	-9.6919
ಾ	-9.69305
▁కిలో	-9.69415
े	-9.69417
▁ఇంటర్వ్యూ	-9.69423
▁ఎవరైన	-9.69571
د	-9.69594
▁తనిఖీ	-9.69632
▁కృష్ణా	-9.69647
▁రంగారెడ్డి	-9.69662
▁శని	-9.69693
▁కనిపిస్తుంది	-9.69723
▁అందించారు	-9.69733
ష్ట	-9.69864
ب	-9.69885
▁చేస్తానని	-9.6991
▁స్కిల్	-9.69917
▁ఓటర్లు	-9.69967
▁భాష	-9.70022
▁తిన	-9.70072
▁పెరుగుతున్న	-9.70087
▁వైఎస్సార్	-9.7013
▁అనుగుణంగా	-9.70135
▁వస్తాయి	-9.70294
ರ್	-9.70341
రెడ్డి	-9.70352
▁జే	-9.70372
▁చనిపోయిన	-9.70388
▁ణ	-9.70388
▁రక్షించ	-9.70436
..?	-9.70461
▁తగ్గి	-9.70471
▁నూనె	-9.70528
బట్టి	-9.70684
▁పొందిన	-9.70761
▁గిల్	-9.70772
،	-9.70843
▁అప్రమత్తం	-9.70843
▁పెట్టింది	-9.70901
▁ఇస్రో	-9.70905
▁అవినా	-9.70916
▁దిగిన	-9.70996
య్యారు	-9.71213
▁ఆప	-9.71213
▁అనిల్	-9.71227
▁ల్యాండ్	-9.71321
▁పోయిన	-9.71327
▁ఇద్దర	-9.71336
▁రంగంలో	-9.71399
▁ہے	-9.71576
ీసీసీ	-9.71579
ಕ	-9.71585
▁ముఖ	-9.71604
▁సహాయ	-9.71633
▁హింస	-9.71651
p	-9.71674
డే	-9.71764
▁వినిపించ	-9.71769
▁హరీష్	-9.71801
▁తెలుసుకుందాం	-9.71801
▁ہے۔	-9.71804
▁పైనే	-9.71819
▁చేయలేదు	-9.71928
▁చెయ్య	-9.71931
▁ామన్నారు	-9.72007
▁సంఘాల	-9.72037
▁కడప	-9.72053
▁వో	-9.72062
కం	-9.72077
▁గురు	-9.72088
▁2020	-9.72156
▁ఉపయోగించ	-9.72172
ందరూ	-9.72196
▁సురక్షిత	-9.72284
▁75	-9.72358
▁నిజం	-9.72374
▁చదువు	-9.72401
▁ప్రయత్నిస్తున్న	-9.72462
▁పాలనలో	-9.72518
▁పోలిస్తే	-9.72529
▁ఎర్ర	-9.72529
▁నటుడు	-9.7253
▁గంజాయి	-9.72538
▁మాస్టర్	-9.72553
▁నమ్మకం	-9.72585
▁సముద్ర	-9.72679
▁రేషన్	-9.72684
ಯ	-9.72686
▁సీసీ	-9.72708
▁ఇసుక	-9.72768
y	-9.728
▁ఆసియా	-9.72857
బుల్	-9.7297
▁వడ్డీ	-9.73011
▁జన	-9.73062
▁I	-9.73079
▁నిర్మిస్తున్న	-9.73108
▁విడత	-9.7313
▁।	-9.73158
▁అధ్యక్షుడి	-9.73193
▁సీన్	-9.73193
లలో	-9.73235
▁అయోధ్య	-9.73245
▁పొంగులేటి	-9.73255
▁వీలు	-9.73257
▁గతేడాది	-9.73262
▁జరగనున్న	-9.73281
▁జయ	-9.73281
▁ఒకరి	-9.73356
ాది	-9.7336
ర్ల	-9.73469
▁N	-9.73484
ిస్తే	-9.73497
▁సుప్రీం	-9.735
▁వెంకటస్వామి	-9.73503
▁జీవన	-9.73529
లం	-9.73631
▁జూలై	-9.73643
▁పదవుల	-9.73643
▁రూపొందించ	-9.73649
▁P	-9.73703
▁کہ	-9.73705
▁వ్యాధి	-9.7372
▁అలర్ట్	-9.73747
▁తొలగించ	-9.73803
క్స్	-9.73844
ుండగా	-9.73896
▁కనిపించింది	-9.73897
▁s	-9.73904
▁అభిప్రాయం	-9.7392
ी	-9.73951
▁కాళేశ్వరం	-9.73991
▁న్నాయి	-9.74086
▁లేదంటే	-9.7418
▁ఫోకస్	-9.74237
▁اور	-9.74276
▁పడ్డారు	-9.7431
తీ	-9.74404
▁రాష్ట్రపతి	-9.74413
▁పంపించ	-9.74471
▁ఆదేశించింది	-9.74498
▁సర్వ	-9.7452
▁పదే	-9.74719
▁మహబూబ	-9.74722
▁మంచిర్యాల	-9.74732
▁యూట్యూబ	-9.74732
▁నిర్లక్ష్యం	-9.74753
▁పెరిగిన	-9.74845
▁ఎదుర్కొంటున్న	-9.74911
్ల	-9.74922
డెన్	-9.74925
▁ముగిసిన	-9.74942
▁గౌరవ	-9.74949
▁అసోసియేషన్	-9.7498
▁ఓవర్లలో	-9.74988
▁ుల	-9.75027
▁దేశాలు	-9.75086
ామన్నారు	-9.75162
▁వర్గం	-9.75198
▁చరణ్	-9.75241
▁మారిన	-9.75259
▁రాజీ	-9.75282
▁మంటలు	-9.75282
▁వివాహం	-9.75289
▁అంటారు	-9.75292
▁ఒప్పందం	-9.7536
▁!!	-9.75442
▁బంతుల్లో	-9.75504
▁వీడియోలు	-9.75588
▁థియేటర్	-9.75598
▁ప్రభుత్వంలో	-9.75599
▁భరోసా	-9.75728
▁ములుగు	-9.75728
▁కాలేదు	-9.75845
▁వెంకట్	-9.75898
▁రక్త	-9.75899
చ్చ	-9.7594
र	-9.75948
▁సిటీలో	-9.75976
▁గడువు	-9.75978
▁విదేశాల	-9.76008
▁పరంగా	-9.76025
▁వైస్	-9.76087
▁విశేషం	-9.76146
▁లైంగిక	-9.7623
▁చంప	-9.76424
▁మరికొందర	-9.76441
▁వినియోగదారుల	-9.76481
▁ప్రత్యక్ష	-9.76482
▁కోమటిరెడ్డి	-9.76482
▁నది	-9.76529
షి	-9.76545
▁పరిష్కారం	-9.76627
▁దీక్ష	-9.76715
▁సృష్టించ	-9.76724
ವ	-9.76778
▁నంద	-9.76814
▁వెల్లడించ	-9.7682
▁చేరుకున్నారు	-9.76832
▁కలిగిన	-9.76972
▁సోనియా	-9.76996
▁టైం	-9.77058
▁మారాయి	-9.77078
▁కారణాల	-9.77087
▁ఏర్పడిన	-9.77109
▁డాక్టర్లు	-9.7712
పతి	-9.77186
▁లేటెస్ట్	-9.77241
k	-9.77309
▁ఏర్పడింది	-9.77334
▁చేరుకు	-9.77665
▁పెరుగుతుంది	-9.77726
▁తల్లిదండ్రుల	-9.77754
▁జమ	-9.77787
ొక్క	-9.77802
▁పెరిగి	-9.77854
▁చూస్తున్న	-9.7788
▁ఎనిమిది	-9.7788
▁నని	-9.77913
▁నిత్య	-9.77921
▁జట్టులో	-9.77924
▁స్తున్నారు	-9.77972
▁ఫ్యాక్టరీ	-9.78018
▁చేశాయి	-9.78103
▁కోట	-9.78113
▁ఆర్మీ	-9.78139
▁చా	-9.7817
▁కల్	-9.78222
▁వేదిక	-9.78242
▁రిపోర్టు	-9.78263
▁ఘోర	-9.78263
▁ట్రైలర్	-9.78265
▁పిలుపునిచ్చారు	-9.78296
▁విషయాలు	-9.78332
▁చేస్తున్నాయి	-9.78451
కార	-9.78469
▁ప్రణాళిక	-9.78515
▁అసిస్టెంట్	-9.7852
▁నమోదైంద	-9.78523
సే	-9.78544
▁ಬ	-9.78545
▁గానీ	-9.78563
▁అంతకుముంద	-9.78576
▁ఎవరికి	-9.78725
▁స్పందించ	-9.78733
▁నిర్వహించి	-9.78761
),	-9.78813
▁సెలవు	-9.78835
.50	-9.78853
▁బాల్	-9.78879
▁వివాహ	-9.78988
▁తూర్పు	-9.79036
▁మధ్యప్రదేశ్	-9.79039
▁చంద్రయాన్	-9.7904
▁K	-9.7905
▁బ్యాక్	-9.79073
▁సహకారం	-9.79076
▁ఆర్డర్	-9.79109
యర్	-9.79302
ఈ	-9.79307
▁అరవింద్	-9.7933
▁భావిస్తున్న	-9.7934
ిస్తూ	-9.79443
సిన	-9.79457
▁రంగంలోకి	-9.79463
▁టీం	-9.7947
▁వాటా	-9.79509
▁కార్మికులు	-9.79529
▁అంబేద్కర్	-9.79555
▁మెజార్టీ	-9.79555
▁ప్రయత్నించ	-9.79557
▁పెట్టుబడి	-9.79558
పరిచయం	-9.79566
▁వ్యాపార	-9.79658
నని	-9.79723
▁ప్రయోజనాల	-9.79835
al	-9.79883
▁ుడు	-9.79883
▁లీడర్	-9.79902
▁హు	-9.79923
▁బెంగాల్	-9.7998
▁పంచాయతీ	-9.80116
▁హిందీ	-9.80132
▁వ్యాపారం	-9.80134
▁దేవి	-9.80135
▁తిరుమలలో	-9.80154
▁రాజకీయంగా	-9.80165
▁బాలిక	-9.80384
▁నిందితుడు	-9.80396
▁సాధించారు	-9.80413
▁కొట్టి	-9.80449
▁పోరు	-9.80493
▁పరి	-9.80535
▁కన్నా	-9.80562
▁చేరింది	-9.80592
▁సంపద	-9.80609
▁స్థానాలు	-9.8065
▁తీసుకొని	-9.80679
▁రియల్	-9.80689
▁చేరుకుంది	-9.8072
▁ఏంటి	-9.80876
▁స్పందన	-9.80996
▁చెరువు	-9.81
▁నిర్ణయించింది	-9.81001
▁దర్శన	-9.81025
▁2,	-9.81044
ఓ	-9.81049
▁వరి	-9.81077
▁జాగ్రత్తలు	-9.81085
n	-9.81128
▁ఉత్కంఠ	-9.81128
▁రేటు	-9.81138
బు	-9.81249
▁ఫి	-9.81252
▁ఏమ	-9.81269
▁తీవ్రత	-9.81276
▁వాహనం	-9.81353
▁అక్క	-9.81372
▁హైకమాండ్	-9.81392
▁హాల్	-9.81394
▁రావ	-9.81407
▁కొన	-9.81419
▁విష్ణు	-9.81423
▁డివిజన్	-9.81489
▁పొ	-9.81503
▁లేరు	-9.81727
▁జల	-9.8175
▁ారనే	-9.81798
▁క్ష	-9.81799
▁సిట్టింగ	-9.8181
▁రాసిన	-9.81868
ర్లు	-9.81896
▁కలకలం	-9.81923
▁క్యా	-9.81949
▁33	-9.82025
m	-9.82116
▁వాదనలు	-9.8214
▁పేద	-9.82156
▁తప్పనిసరి	-9.8219
▁స్మార్ట్	-9.82196
▁ఫేక్	-9.82204
▁మార్క్	-9.82238
▁య్య	-9.82257
▁మట్టి	-9.82315
▁పరిహారం	-9.82327
ియన్	-9.82418
▁పిటీషన్	-9.82481
▁డిజిటల	-9.82513
▁నీళ్ల	-9.82543
▁కాని	-9.82579
▁క్యారెట్ల	-9.82589
▁ఏర్పడ	-9.82651
▁ఇండస్ట్రీ	-9.82667
▁ప్రయాణికులు	-9.82671
▁పెట్టే	-9.82688
▁గూగుల్	-9.82725
▁పనిచేసే	-9.82725
▁మనిషి	-9.82739
▁విమానం	-9.82763
▁దేశాల్లో	-9.82787
▁48	-9.82792
▁ధరల	-9.82814
▁రాశుల	-9.82821
▁ఆలయంలో	-9.82848
▁గుర్తించి	-9.82893
ాలంటూ	-9.82916
▁క్రియేట	-9.82978
.6	-9.82987
▁ఇంగ్లాండ్	-9.82994
▁ప్రతినిధి	-9.82995
▁హక్కుల	-9.83038
▁సమావేశాలు	-9.83098
▁వైరస్	-9.83145
గానే	-9.83171
ఎల్	-9.83193
▁ఎస్టీ	-9.83212
గడ్డ	-9.83218
▁మాటల	-9.83227
▁భవిష్యత్	-9.83252
▁విపరీత	-9.83264
▁అటవీ	-9.83265
▁లీగ్	-9.8329
▁తీసుకుంటామని	-9.83293
▁నమ్మ	-9.83297
యే	-9.83413
▁ఉద్యమం	-9.8345
▁స్తూ	-9.8346
▁యు	-9.8361
▁టిక్కెట్	-9.83642
E	-9.83752
▁ంద	-9.83775
▁ప్రాథమిక	-9.83805
▁రిపోర్ట్	-9.83805
▁ధర్నా	-9.83815
ినేని	-9.83816
▁సై	-9.83833
▁అధ్యక్ష	-9.83966
▁ఇస్తే	-9.84009
▁సిద్ధ	-9.84022
▁శ్రీధర్	-9.84088
▁చేయండి	-9.84142
▁వీడియోలో	-9.84202
▁చెబుతున్న	-9.84229
▁వడ్ల	-9.84271
▁కం	-9.84286
N	-9.84295
▁కొనసాగించ	-9.84297
ఎన్	-9.84304
▁వార్త	-9.84317
▁ఇండ్లు	-9.84323
లేదని	-9.84326
▁యాదాద్రి	-9.8435
▁ఉంటాయని	-9.84371
▁మాటలు	-9.84454
▁పరిశోధన	-9.84456
▁గిరి	-9.84486
▁క్	-9.84493
న్నా	-9.84494
▁స్క్రీన్	-9.84521
▁సొంతం	-9.8456
పురం	-9.84578
▁లె	-9.8458
▁పోస్టులు	-9.84613
▁కలెక్టరేట్	-9.84622
▁మరికొన్ని	-9.84623
▁ఛైర్మ	-9.84633
▁జరిప	-9.84773
▁కెమెరా	-9.84786
▁భూములు	-9.84885
▁మహేష్	-9.84906
▁దూరంలో	-9.84923
ఫా	-9.84945
▁పెట్టడం	-9.85021
▁మంత్రుల	-9.85079
▁చేసుకోవచ్చు	-9.85097
▁బదులు	-9.85177
▁షేక్	-9.85192
▁వినిపిస్తున్న	-9.85209
▁కిందట	-9.85282
▁ఇష్ట	-9.85435
▁ప్రధానమంత్రి	-9.85468
ెన్	-9.85483
▁విజయవంతం	-9.85561
▁ఆప్	-9.85587
▁ప్రవేశపెట్ట	-9.85632
మంతా	-9.85683
▁పడుతుంది	-9.85721
గల	-9.85782
▁సోర్స్	-9.8592
ంటున్న	-9.85947
▁ధర్మ	-9.85957
ೋ	-9.85998
▁బిజినెస్	-9.86
▁హైడ్రా	-9.86
▁ప్లేయర్	-9.86033
▁గ్రామీణ	-9.86041
▁హరి	-9.86054
▁పరిశీలించి	-9.86063
య్	-9.86096
▁పోస్టుల	-9.86108
▁బియ్యం	-9.86178
▁నష్ట	-9.86248
▁36	-9.86258
▁రిమాండ్	-9.86278
▁మంత్రిత్వ	-9.86334
▁మూల	-9.86341
▁నిర్మాత	-9.86368
▁బెడ్	-9.86407
▁నటిస్తున్న	-9.86408
▁జీవో	-9.86437
▁గిరిజన	-9.86501
▁తేల్చి	-9.86503
పర	-9.8655
▁సిరిసిల్ల	-9.86621
▁ముస్లిం	-9.86628
▁మేలు	-9.86656
▁34	-9.8669
▁అవుతున్నాయి	-9.86799
L	-9.86838
▁వాస్తవ	-9.86851
▁స్తారు	-9.86891
ుకోవాలని	-9.8697
డింగ్	-9.86972
▁కట్	-9.86977
▁అనుమతించ	-9.87089
▁సాంగ్	-9.87107
▁పటేల్	-9.87116
▁సత్యనారాయణ	-9.87117
▁ఘ	-9.87147
▁పార్క్	-9.87169
▁کیا	-9.87189
▁అనుమానం	-9.87196
▁జరుగుతున్నాయి	-9.87221
▁ప్రీ	-9.87234
▁సంవత్సరాలు	-9.87344
▁న్యాయవాది	-9.87397
▁రిజిస్ట్రేషన్	-9.87397
▁రమేశ్	-9.87397
▁జైలులో	-9.87515
▁అంట	-9.87553
చర్	-9.87554
▁పోస్టర్	-9.87571
▁ఆదాయ	-9.87591
▁వ్యవహరించ	-9.87624
▁300	-9.87634
▁వస్తువుల	-9.87659
▁ఏసీబీ	-9.87687
▁వాళ్ళ	-9.87704
▁రావాల్సి	-9.87712
▁సిద్దం	-9.87762
ೀ	-9.87959
▁సంవత్సరంలో	-9.87975
ుడి	-9.88029
▁లక్ష్మీ	-9.88136
శాఖ	-9.88189
▁సహాయక	-9.8819
G	-9.88229
▁పథకాలు	-9.88245
▁మోడల్	-9.88276
▁వికెట్ల	-9.88307
▁ಗಳ	-9.88319
▁32	-9.88484
▁పెరగ	-9.88518
▁నిర్వహించే	-9.8852
▁సమక్షంలో	-9.88528
▁రమేష్	-9.88528
▁చిన్నారి	-9.88529
షియల్	-9.88566
▁గోల్డ్	-9.88587
▁తొమ్మిది	-9.88638
▁చేసుకోవడం	-9.8869
▁చేయించ	-9.88697
▁ట్	-9.88731
▁కోటి	-9.88764
▁ఫ్రెండ్	-9.88799
▁నవ	-9.88804
▁స్పష్టత	-9.88813
▁జపాన్	-9.88813
▁బు	-9.88814
▁విచారించ	-9.88818
▁వివరణ	-9.8882
▁సీఐ	-9.88821
▁చేయనున్న	-9.88901
AD	-9.88969
▁వు	-9.89024
▁ఉన్నప్పటికీ	-9.89035
▁ఉన్నాడు	-9.89041
షా	-9.89059
▁లాల్	-9.89092
▁పర్యావరణ	-9.89099
▁ందా	-9.89102
▁ఇష్టం	-9.89153
▁సీఎస్	-9.89163
▁ఎక్క	-9.8919
▁నియమించ	-9.89208
▁ాల్సి	-9.89244
▁అడుగుల	-9.89291
▁సీరియస్	-9.89385
▁పుట్ట	-9.89402
▁ంట	-9.89433
▁ఆస్తుల	-9.89491
రూ	-9.89495
ూర్	-9.89504
▁మారి	-9.89509
▁రికార్డ్	-9.8952
ిస్తున్న	-9.89559
▁ఎండ	-9.89606
▁సానుకూల	-9.89673
▁పేర్లు	-9.89719
▁గురైన	-9.89723
▁మార్పుల	-9.89735
▁జ్యోతి	-9.89752
▁a	-9.89839
బ్బ	-9.89895
తం	-9.89929
ల్లా	-9.8995
▁న్యూజిలాండ్	-9.89961
▁గ్రామాల	-9.89965
క్ర	-9.8998
▁బాడీ	-9.89988
▁కపోవడం	-9.90021
▁సంతోష	-9.90033
▁ఎవరిక	-9.90087
▁ంటే	-9.90141
▁బలం	-9.90231
▁పదేళ్ల	-9.90236
▁ట్రాక్	-9.90239
▁నాన్	-9.90284
▁ఆఫర్	-9.90303
చేశారు	-9.90348
టన్	-9.90469
▁అను	-9.90501
▁అడ్డు	-9.90515
చ్చి	-9.90562
▁వేస్తున్నారు	-9.90581
ిరెడ్డి	-9.90587
▁ప్రాణాల	-9.90702
▁L	-9.90712
▁తీసుకోవాలి	-9.90719
▁సోమ	-9.90788
▁రోజా	-9.90828
▁విటమిన్	-9.90859
▁కామెంట్	-9.9088
▁ప్రశ్నలు	-9.90905
▁మనకు	-9.90942
▁సౌత	-9.90943
▁నిరాశ	-9.90947
▁గుడి	-9.90996
్యూ	-9.90997
▁తరహాలో	-9.91006
▁స్వీకారం	-9.91033
▁పాటించ	-9.91147
▁కొత్తగూడెం	-9.9117
▁ః	-9.91173
▁రాజా	-9.91231
▁టెక్	-9.91253
▁ఏండ్ల	-9.91411
▁అందజేశారు	-9.91418
▁నిందితుడి	-9.91468
▁అవుట్	-9.91468
▁లోపల	-9.91471
▁చేత	-9.91515
బోయే	-9.91589
▁వారితో	-9.91642
▁తొలు	-9.91665
▁బీజేపీలో	-9.91686
▁కారులో	-9.91692
▁1,	-9.91702
▁కసరత్తు	-9.91708
▁ఆస్తి	-9.91712
▁స్వీకరించ	-9.91716
▁కంటి	-9.9172
▁మాస్	-9.9174
▁పెట్టుకు	-9.91758
ఎం	-9.91759
▁మందు	-9.91904
▁ఫలితం	-9.91947
▁కన్నడ	-9.92027
▁చూడాల	-9.92068
▁అశోక్	-9.92115
▁వేడుకల	-9.92161
▁డౌన్	-9.92203
▁వాదన	-9.92233
▁విక్రమార్క	-9.92297
▁అభిప్రాయపడ్డా	-9.92297
▁ఉత్తరప్రదేశ్	-9.92297
▁కారణాలు	-9.92314
▁తరలించ	-9.92319
▁పర్యటించ	-9.92329
▁ండి	-9.92347
▁తీసిన	-9.92357
▁నటించ	-9.9244
▁42	-9.92459
కాలంలో	-9.92544
▁లైఫ్	-9.92605
▁టాటా	-9.92608
▁బాలకృష్ణ	-9.92678
▁ఏరియా	-9.92807
▁బాస్	-9.92836
▁వార్	-9.92845
లపై	-9.9286
▁ఎద్దేవా	-9.92889
▁లిమిటెడ్	-9.92889
▁ారో	-9.9291
▁సెమీ	-9.92924
▁కార్యాలయ	-9.93032
▁మొ	-9.93044
▁ప్రైవేటు	-9.93074
▁జట్ల	-9.93086
సన్	-9.9312
▁కనిపించడం	-9.9313
▁పెరిగే	-9.93169
ేరిట	-9.93207
▁అయినప్పటికీ	-9.93229
▁ఏఐ	-9.93235
▁బిజీ	-9.93267
▁కిలోల	-9.93295
▁వాహనాలు	-9.93318
ించే	-9.9339
▁బరిలో	-9.93394
.7	-9.93394
▁్ని	-9.93403
▁లడ్డూ	-9.93485
▁ప్రగతి	-9.93486
▁నకిలీ	-9.93487
▁వెంకట	-9.93501
▁ఔట్	-9.93526
▁సమాజ	-9.93625
▁3,	-9.93639
▁కనిపిస్త	-9.93651
▁గంటలు	-9.93703
▁జు	-9.93768
▁అప్పగించ	-9.9378
▁యూనియన్	-9.93785
▁మహారాష్ట్రలో	-9.93785
▁సంగారెడ్డి	-9.93787
▁బిల్డింగ్	-9.93789
▁చేస్తున్నామని	-9.938
▁అడిషన	-9.93808
▁క్రికెటర్	-9.93839
▁బారిన	-9.93875
గే	-9.93972
▁మార్గం	-9.94018
దుపరి	-9.94115
జు	-9.94132
▁ರ	-9.94205
▁చరిత్రలో	-9.94275
▁ఆరా	-9.9434
▁ఓటింగ్	-9.94485
▁విమాన	-9.9451
▁బ్యాటర్	-9.94622
▁చేసుకోవాలి	-9.94641
▁చోటుచేసుకుంద	-9.94689
▁నెల్లూరు	-9.94689
▁వాలంటీర్ల	-9.94692
b	-9.94694
▁ఆనందం	-9.94776
30	-9.94958
▁స్కామ్	-9.94992
▁కళాశాల	-9.94993
▁నిర్వహించనున్న	-9.95018
ివ్	-9.95033
▁తెలియదు	-9.9504
▁తీశారు	-9.9508
▁ప్రయాణ	-9.95111
▁లిస్ట్	-9.95142
▁రాయ్	-9.95197
సరి	-9.95221
▁మ్యూజిక్	-9.95295
▁బార్	-9.95307
▁నువ్వు	-9.95309
▁చెప్పాలి	-9.95395
▁తెలిప	-9.95453
▁పోతున్న	-9.95468
▁భోజనం	-9.95486
▁ఖాయమ	-9.95534
ନ	-9.95573
▁మెజారిటీ	-9.956
▁మరణించారు	-9.95615
▁ప్రారంభ	-9.95617
సం	-9.95623
▁స్కీమ్	-9.95624
ంటి	-9.95665
▁త్రి	-9.95722
▁మంచు	-9.95726
▁భాగం	-9.95823
▁బయటపడ	-9.95845
▁ఉష్ణోగ్రతలు	-9.95898
▁టాపిక్	-9.95907
ెల్	-9.95914
▁దారుణ	-9.95959
▁అన్	-9.95963
▁తేలిక	-9.95971
▁హె	-9.95997
▁రాగానే	-9.96071
▁డిజైన్	-9.96099
▁నాయకత్వం	-9.96099
లె	-9.96109
▁అనారోగ్య	-9.96121
▁పరిణామాల	-9.96126
▁ఆలయం	-9.96202
▁తె	-9.96206
▁సూర్యాపేట	-9.96213
▁మనసు	-9.96215
▁జరిగితే	-9.96227
▁అవుతుందని	-9.96301
▁చేర్చ	-9.96342
హి	-9.96373
▁ధాన్యం	-9.96413
▁గఢ్	-9.96433
▁కోర్టుకు	-9.9649
▁అర్హుల	-9.96493
▁వాట్సాప్	-9.96521
▁బెస్ట్	-9.96551
▁ఏజెన్సీ	-9.96581
ف	-9.96659
▁ఇబ్బందుల	-9.96693
▁సంపాదించ	-9.96699
▁41	-9.96775
▁అవుతున్నారు	-9.96816
▁రిజర్వ్	-9.96829
▁లింక్	-9.96832
▁మహబూబాబాద్	-9.96841
▁సత్య	-9.96886
ాపూర్	-9.96897
▁పోవడం	-9.96911
▁పలికారు	-9.96949
▁నిర్మాణానికి	-9.9697
ందు	-9.9697
▁ప్రమాదకర	-9.97013
నె	-9.97019
.8	-9.97122
▁పెట్రోల్	-9.97123
▁ఖర్గే	-9.97139
▁మణిపూర్	-9.97148
▁బయలుదేరి	-9.97168
స్తున్నారు	-9.97182
▁ఉన్నట్టు	-9.97189
▁నిఘా	-9.97196
▁జోరు	-9.97214
▁ఉత్తమ	-9.97244
▁హాజరై	-9.97244
▁టో	-9.97252
▁ప్రారంభించిన	-9.97325
▁రాజకీయం	-9.97327
▁0	-9.97448
▁గ్లోబల్	-9.97449
▁బ్రిటన్	-9.97457
▁పోరాడ	-9.97473
▁చెబుతోంది	-9.97487
జే	-9.97493
▁డిగ్రీ	-9.97567
▁పుట్టిన	-9.97589
లేని	-9.9766
▁ప్రాజెక్టుల	-9.97708
▁ఎదుట	-9.97762
▁నవీన్	-9.97764
r	-9.9778
▁వెలుగులోకి	-9.97795
▁ఊహించని	-9.97861
▁పెట్టుబడులు	-9.97873
▁సిట్	-9.9788
▁ب	-9.98043
▁ویڈیو	-9.98073
▁శుభాకాంక్షలు	-9.98073
▁మామిడి	-9.98075
▁సదస్సు	-9.98075
▁V	-9.9809
▁కల్పించాల	-9.98163
▁ప్రవేశ	-9.98229
▁చైర్	-9.98251
▁నేర	-9.98264
▁కెనడా	-9.9831
▁పట్టించుకో	-9.98331
▁ఆస్పత్రికి	-9.9835
▁దాట	-9.98359
ట్టి	-9.98371
▁డిపార్ట్	-9.98387
▁విస్తృత	-9.98387
▁సగటు	-9.98387
▁పడుతుంద	-9.98405
▁వచ్చినా	-9.98413
▁కోరిక	-9.98417
▁వాహన	-9.98496
▁ుడి	-9.98587
హ్	-9.98615
▁వాల్	-9.98694
▁ಅ	-9.98705
▁గ్రేటర్	-9.98706
▁జుట్టు	-9.98724
▁పులి	-9.98746
▁పీఎస్	-9.98749
▁పండగ	-9.9882
▁టీచర్	-9.98831
▁సైన్యం	-9.9885
▁మొదలైన	-9.98859
▁బలహీన	-9.98892
▁వలన	-9.98909
దీ	-9.98938
ఘ	-9.98954
▁55	-9.98959
▁చాట	-9.9896
▁అప్పు	-9.98991
▁నివాస	-9.99022
▁ప్రమోషన్	-9.9907
▁యాజమాన్యం	-9.99132
▁ంత	-9.99154
▁వెనక	-9.99218
▁ఐదుగుర	-9.99307
▁ایک	-9.9933
▁నొప్పి	-9.99333
▁సభ్యుడు	-9.99338
▁RE	-9.99341
▁అడుగులు	-9.99346
▁ప్లేస్	-9.99365
▁వేచి	-9.99373
స్తాన్	-9.99448
▁సందర్శించ	-9.99469
▁తీయ	-9.99472
శారు	-9.99477
▁నిర్మల్	-9.99572
▁దారుణం	-9.99585
▁తెలిపిన	-9.99595
▁విశ్వ	-9.99622
▁వేర్	-9.99635
▁یہ	-9.99659
▁జమ్మూ	-9.99685
▁కప్పు	-9.99687
గిరి	-9.99694
▁మహ	-9.9973
▁వచ్చాక	-9.99787
▁బాధితులు	-9.99792
▁ఛాన్స్	-9.99807
ج	-9.99825
▁ారంటూ	-9.99826
▁గి	-9.99828
▁కోరుత	-9.99861
▁ండ	-9.99875
▁స్ప	-9.99879
▁వంట	-9.99902
▁ప్రాణ	-9.99934
▁ఫలితంగా	-9.99945
▁ప్రజల్లో	-10.0002
▁చిత్రాల	-10.0017
▁;	-10.0022
▁దళిత	-10.0023
▁టం	-10.0029
,500	-10.003
▁దాకా	-10.0036
▁పాయింట్	-10.0041
▁సాంకేతిక	-10.005
▁తీర్మానం	-10.0051
▁శాఖల	-10.0055
▁స్తే	-10.0059
▁టీజర్	-10.0067
▁కుటుంబాలకు	-10.0067
▁ఇదిలా	-10.0072
▁కుటుంబంలో	-10.0073
▁అమ్మవారి	-10.0079
▁ఒక్కర	-10.0083
ంట్	-10.0089
▁సినిమాల్లో	-10.009
▁ALS	-10.0093
▁అలవాటు	-10.0093
▁రాజమండ్రి	-10.0093
▁నెయ్యి	-10.0093
▁సపోర్ట	-10.0093
▁ముప్పు	-10.0093
▁ఉప్పు	-10.0093
er	-10.0097
▁సంచారం	-10.0102
▁చంద్రశేఖర్	-10.0102
.4	-10.0103
▁లభించింది	-10.0104
పడ	-10.0106
▁ప్రతిరోజ	-10.0111
▁ఐదేళ్ల	-10.0117
▁వర్క	-10.012
▁యువకుడు	-10.0125
ತ	-10.0127
▁ఆనంద్	-10.0132
▁బొ	-10.0135
▁ఎంపీలు	-10.0137
▁విగ్రహం	-10.0142
▁ఎండీ	-10.0154
▁گ	-10.0156
▁పొడి	-10.0157
▁కెసిఆర్	-10.0158
▁విభజన	-10.0158
▁రంగం	-10.0158
▁స్టోరీ	-10.0159
ుకుంది	-10.0162
▁సత్తా	-10.0162
▁స్కాం	-10.0164
-3	-10.0165
ان	-10.0174
▁కావ	-10.0175
in	-10.0177
▁పురుషుల	-10.0181
▁బీసీల	-10.0182
▁వస్తాయని	-10.0186
d	-10.0188
▁కానిస్టేబుల్	-10.019
▁దసరా	-10.019
▁సివిల్	-10.019
▁యాంటీ	-10.019
▁సమగ్ర	-10.0191
▁అత్యవసర	-10.0191
▁రూరల్	-10.0196
▁అసంతృప్తి	-10.0199
▁డిగ్రీల	-10.0204
▁దండ	-10.0207
స్తుందని	-10.0213
▁H	-10.0215
▁డెలివరీ	-10.0223
▁ధ్వంసం	-10.0223
▁భయం	-10.0223
▁సునీల్	-10.0223
▁సింగిల్	-10.0223
▁సే	-10.0226
▁జూ	-10.0228
▁పెన్షన్	-10.0228
▁భారతదేశ	-10.023
▁క్వార్టర్	-10.0232
▁బీమా	-10.0234
ర్స్	-10.0234
▁కొన్న	-10.0239
▁టికెట్లు	-10.0242
▁అంశాలు	-10.0245
▁నేతలతో	-10.0246
▁వేసే	-10.025
▁పథక	-10.0254
▁భద్రాద్రి	-10.0255
▁సునీత	-10.0256
▁జనతా	-10.0258
▁ఆర	-10.0258
▁తెలుస్తుంది	-10.0264
▁కుక్క	-10.0268
▁స్వాగతం	-10.0269
వైపు	-10.0274
▁లేకపోత	-10.0283
▁అడిగి	-10.0283
▁మృతదేహ	-10.0285
▁తామ	-10.0285
▁వ్యవహారాల	-10.0292
త్రిక	-10.0294
▁తినడం	-10.0298
▁ఎంటర్	-10.0302
▁క్రమం	-10.0302
▁భాస్కర్	-10.0304
▁మార్గంలో	-10.0304
▁వాటిలో	-10.0305
▁కార్య	-10.0306
▁నగరం	-10.031
▁పొగ	-10.0312
▁విశాఖపట్నం	-10.0315
▁అనారోగ్యం	-10.0318
▁సస్పెండ్	-10.0321
▁రోడ్లు	-10.0322
▁తనిఖీలు	-10.0325
▁మరొక	-10.0326
▁తేదీల్లో	-10.0328
▁37	-10.0331
▁గేమ్	-10.0343
▁ఆస్పత్రిలో	-10.0343
▁నిర్ణయాల	-10.0346
▁ఇంటర్నేషనల్	-10.0354
▁దక్షిణాఫ్రికా	-10.0354
▁ఎన్డీఏ	-10.0355
ెం	-10.0357
న్నట్లు	-10.0358
▁ఇందిరా	-10.0359
▁వచ్చినట్లు	-10.036
▁పెరిగాయి	-10.036
▁చూసే	-10.0362
▁సంబంధాలు	-10.0365
▁శాసనసభ	-10.0374
▁150	-10.0375
▁వేధింపుల	-10.0377
▁ఇళ్లు	-10.0377
▁కోటా	-10.038
▁చేసుకొన	-10.0385
▁సీపీఐ	-10.0389
▁నేపాల్	-10.0393
త్తు	-10.0394
వాద	-10.0397
▁సహజ	-10.0399
▁యూనిట్	-10.04
▁డో	-10.0405
▁ఉంటూ	-10.0407
.9	-10.041
▁అప్పుడే	-10.0417
▁మండలి	-10.042
▁ఉంటుంద	-10.0428
▁ఆధారాలు	-10.0429
▁ఎక్కడి	-10.0449
▁ఇంటెలిజెన్స్	-10.0454
ొచ్చు	-10.0458
▁చేతుల	-10.0459
▁చేతులు	-10.0466
▁దూర	-10.0468
▁తూ	-10.0472
▁ఉందా	-10.0473
ూరి	-10.0478
▁అవసరాల	-10.0479
▁రాశిలో	-10.0483
▁చౌదరి	-10.0487
▁కబ్జా	-10.0487
▁స్కోరు	-10.0487
▁వారీగా	-10.0488
▁వార్డు	-10.0491
▁సదర	-10.0493
▁సీజ్	-10.0499
▁తెల్ల	-10.0502
▁కోరుతున్నారు	-10.0505
ట్స్	-10.0509
ఠ	-10.051
స్వామి	-10.0511
▁బస్	-10.0513
నియా	-10.0519
▁పనితీరు	-10.0521
▁సురేష్	-10.0521
▁గృహ	-10.0524
▁మేయర్	-10.0526
▁చేపట్టాల	-10.053
▁లభిస్తుంది	-10.054
▁వేయడం	-10.0541
▁లభించ	-10.0543
▁డిస్	-10.0543
▁గంటల్లో	-10.0552
▁ఏసీ	-10.0554
▁2016	-10.0554
▁అహ్మద్	-10.0554
▁అభిషేక	-10.0554
▁లారీ	-10.0555
▁బౌలర్ల	-10.0555
▁ారన్న	-10.0558
▁సూచించింది	-10.0558
▁స్పందించిన	-10.0563
▁పోయి	-10.0563
▁రెండ	-10.0564
▁నెలకొన్న	-10.0564
▁పల్లె	-10.0567
▁లూ	-10.0569
కొ	-10.0574
▁ప్రదర్శించ	-10.0584
▁డీజీపీ	-10.0588
▁మాల్	-10.0595
▁వరదల	-10.0599
▁అభిప్రాయ	-10.0603
▁అర్థ	-10.0604
▁లీక్	-10.0607
ెక్క	-10.061
ేట్	-10.0611
మన్	-10.0611
దారు	-10.0612
▁వేడుకలు	-10.0613
▁బ్రాండ్	-10.0614
టింగ్	-10.0617
▁సెకండ్	-10.0619
▁రివ్యూ	-10.0622
▁నిందితులు	-10.0626
▁తేల	-10.0629
▁చేస	-10.0637
▁కొందరి	-10.0645
▁చర్య	-10.0646
▁లేవని	-10.0648
▁సంప్రదించ	-10.065
F	-10.0653
ండా	-10.0654
▁గుండెపోటు	-10.0656
▁బిఆర్ఎస్	-10.0657
▁బైడెన్	-10.0657
▁చల్ల	-10.0661
ాపురం	-10.0661
▁మిలియన్	-10.0664
▁చూపిస్త	-10.0665
▁టన్నుల	-10.0665
▁పొందుతున్న	-10.0668
▁సూచనలు	-10.0677
▁జాబ్	-10.0681
▁వ్యతిరేకత	-10.0682
▁విదేశా	-10.0687
ేనని	-10.0687
▁హైవే	-10.0687
▁స్పోర్ట్	-10.069
▁పైకి	-10.069
▁చైతన్య	-10.0696
▁ులు	-10.0697
▁ఇందుకోస	-10.07
▁వేస	-10.0705
▁చెబుతున్నాయి	-10.0707
▁హామీలు	-10.0711
▁ముద్ర	-10.0711
▁ରେ	-10.0716
డో	-10.0716
▁కూడద	-10.0717
▁జరిపిన	-10.0718
▁గోల్	-10.0723
▁లుక్	-10.0724
▁గ్యాంగ్	-10.0725
▁పర్సన్	-10.0725
▁సంఘ	-10.0727
▁F	-10.0728
▁బ్రిడ్జి	-10.0728
▁న్యాయస్థానం	-10.0734
▁అదనంగా	-10.0735
▁ఆఫీసర్ల	-10.0744
▁ధన	-10.0744
▁మొదటిసారి	-10.0745
▁అంతేకాకుండా	-10.0759
▁జాతర	-10.0759
▁జన్మ	-10.0759
▁ದ	-10.0764
▁పోత	-10.0767
▁లక్ష్మి	-10.0777
▁స్కూళ్ల	-10.0786
▁వారే	-10.0787
K	-10.0792
▁చిత్తూరు	-10.0794
ra	-10.0814
.15	-10.0817
▁అప్పుల	-10.0817
▁అందించిన	-10.0826
▁శ్రీరామ	-10.0826
▁ఖచ్చిత	-10.0828
▁గమనార్హం	-10.0828
▁స్కోర్	-10.0828
▁బిలియన్	-10.0829
▁కొంతకాలం	-10.0829
▁చెత్త	-10.0831
▁రోడ్ల	-10.0849
ేశారు	-10.085
▁తలెత్త	-10.0853
▁అందించే	-10.086
▁కర్	-10.0861
▁39	-10.0862
▁కౌన్సిల్	-10.0863
▁ధరణి	-10.0867
ତ	-10.087
▁నెటిజన్లు	-10.0871
▁ఆరుగుర	-10.0872
▁పోయే	-10.0877
am	-10.0884
ించింది	-10.0885
▁అప్పటిక	-10.0888
▁సమావేశాల	-10.089
▁ఉచితంగా	-10.0891
▁నోట్ల	-10.0894
▁రవీంద్ర	-10.0898
▁సర్పంచ్	-10.0898
▁జనగామ	-10.0898
▁వర్ష	-10.0899
▁అప్పులు	-10.09
▁దాస్	-10.09
▁కౌంటింగ్	-10.0901
▁ఇంగ్లండ్	-10.0904
▁ంచారు	-10.0906
న్నర	-10.091
ాయ	-10.0913
▁మరణ	-10.0918
▁46	-10.0919
▁కోల్పోయిన	-10.092
▁మాన్	-10.0921
▁పరిశ్రమ	-10.0923
▁38	-10.0929
▁నిరుద్యోగుల	-10.0931
▁దానం	-10.0931
ನ	-10.0931
▁భువనగిరి	-10.0932
▁ఉత్పత్తుల	-10.0933
▁సాఫ్ట్	-10.0933
▁భద్రాచలం	-10.0933
▁కత్తి	-10.0933
▁మర	-10.0934
▁టు	-10.0936
▁కొరియా	-10.0937
▁కలసి	-10.094
▁ಮ	-10.0948
ుగు	-10.0952
▁లాభాలు	-10.0953
▁మేనేజ్	-10.0956
స్త	-10.0964
V	-10.0967
▁పడ్డ	-10.0967
▁గొంతు	-10.0968
▁ప్రా	-10.0968
▁స్పేస్	-10.0979
▁సోదాలు	-10.0984
▁మన్నారు	-10.0988
ri	-10.0989
▁టెన్షన్	-10.0991
▁స్టాక్	-10.0991
▁అన్యాయం	-10.0998
▁పిఠాపురం	-10.1003
▁బంతి	-10.1003
▁డమే	-10.1003
▁బాట	-10.1004
▁ఆసీ	-10.1006
▁వృద్ధి	-10.101
▁సూచిస్తున్నారు	-10.101
▁మాల	-10.1014
▁నున్న	-10.1021
▁ఆడిన	-10.1021
▁జట్లు	-10.1022
ق	-10.1023
▁పొలిటిక	-10.1024
▁రాం	-10.1035
▁వదిలి	-10.1039
H	-10.104
▁చెట్టు	-10.1042
▁తీసుకుంట	-10.105
మంది	-10.1051
▁కుటుంబాల	-10.1052
▁అంచనాల	-10.1056
నీయ	-10.1057
▁స్నాన	-10.1058
▁కలగ	-10.1062
▁శరీరం	-10.1068
▁గీత	-10.1078
▁పద్మ	-10.1094
▁అనుభవం	-10.11
▁నిజంగా	-10.1102
▁కార్యకలాపాల	-10.1104
▁ఘటనలు	-10.1106
▁ఇతరుల	-10.1108
▁జరిగి	-10.1109
▁శంకుస్థాపన	-10.1109
▁సీతక్క	-10.1109
▁చక్కెర	-10.111
▁వ్య	-10.1112
▁యూఎస్	-10.1112
▁అతన్న	-10.1116
▁కనిపిస్తున్న	-10.1117
▁కళ్ల	-10.1117
వాల్	-10.1136
▁ఇంటర్న	-10.1136
▁మూ	-10.1138
్ర	-10.1141
▁చేస్తుందని	-10.1144
▁యజమాని	-10.1145
▁ఫా	-10.1147
▁వీసా	-10.1149
▁పాల్పడిన	-10.1159
▁పైనా	-10.1161
▁లోడ్	-10.1171
▁వంతు	-10.1174
▁చేసినట్టు	-10.1174
▁స్తార	-10.1176
▁వంశీ	-10.1176
▁తక్షణ	-10.1181
▁హాస్టల్	-10.1181
▁రేంజ్	-10.1181
▁ప్రభావితం	-10.1181
ంధ	-10.1183
▁ಸ	-10.1184
▁వేలాది	-10.1189
▁కింగ్	-10.1191
▁కోరింది	-10.1193
▁రాజశేఖర్	-10.1193
▁ఉద్దేశించి	-10.1198
▁ధైర్యం	-10.1199
▁నింప	-10.1206
▁లెక్కలు	-10.1207
▁కాల్పులు	-10.1208
▁అగ్ర	-10.1217
▁పెంపు	-10.122
▁గెలవ	-10.1221
▁జైల్లో	-10.1229
▁ప్రతినిధులు	-10.1242
▁తోడు	-10.125
▁లెవల్	-10.1254
గూడ	-10.1258
▁కోత	-10.1264
▁ఏమిటి	-10.1265
▁తీర్చ	-10.127
▁వైద్యం	-10.1271
ోన్న	-10.1279
▁శి	-10.1284
▁జరుగుతుందని	-10.1289
at	-10.129
▁ఎలక్షన్	-10.1292
▁ఓడించ	-10.1296
▁కన్	-10.1308
▁నిర్వహించాల	-10.1322
▁సిస్టమ్	-10.1325
▁నెరవేర్చ	-10.1325
▁చాలు	-10.1327
‍	-10.133
▁మేనేజర్	-10.1333
▁ప్రముఖులు	-10.1333
▁వ్యాపారాల	-10.1338
▁పట్టుకున	-10.1341
ర్తి	-10.1349
ారం	-10.1352
▁బంధు	-10.1354
▁ప్రయోజనాలు	-10.1361
▁మరణించిన	-10.1362
▁చార్జి	-10.1363
▁పాడ	-10.1365
ش	-10.1371
▁నిల్వ	-10.1373
▁గురయ్యారు	-10.1384
▁విన్న	-10.1389
▁స్తాయి	-10.1391
▁అనుకో	-10.1392
▁నాగర్	-10.1393
▁దీపావళి	-10.1399
▁బతుకమ్మ	-10.1399
▁మల్లికార్జున	-10.1399
▁రహదారి	-10.1399
▁گیا	-10.1399
▁ఆయిల్	-10.1399
▁టేబుల్	-10.1399
వరం	-10.1402
▁47	-10.1403
▁మార్గాల	-10.1409
▁మెన్	-10.141
▁రెండేళ్ల	-10.1411
రణ	-10.1415
▁బాంబు	-10.1416
▁ప్రభుత్వాలు	-10.1418
▁టాస్	-10.1422
▁సంచలనం	-10.1426
▁గూడ	-10.1428
▁యోగం	-10.1434
▁కతా	-10.1435
▁మున్సిపాలిటీ	-10.1435
▁కాకినాడ	-10.1435
▁ఐఏఎస్	-10.1436
తాయి	-10.1437
▁జాతి	-10.1441
▁లక్షణాలు	-10.1446
▁ఆది	-10.1447
▁బాధపడుతున్న	-10.145
▁ఇయర్	-10.1456
▁క్ర	-10.1466
▁బ్యూటీ	-10.1472
▁గాయపడిన	-10.1479
▁వెళ్లడం	-10.1482
▁కలిశారు	-10.1487
▁సహకరించ	-10.1491
▁విధాన	-10.1502
▁..?	-10.1505
▁టైంలో	-10.1507
▁ఉత్సవాల	-10.1507
▁లక్నో	-10.1509
▁రైజర్స్	-10.1509
▁బీసీసీఐ	-10.1509
▁వంటివ	-10.1511
▁ఫోర్	-10.1511
▁ఖాయం	-10.1511
▁నేల	-10.1512
▁యాక్ట్	-10.1515
▁జీవితాల	-10.1517
▁సంవత్సర	-10.1518
▁అరుద	-10.1519
▁తుమ్మల	-10.1524
▁చేసుకున్నాడు	-10.1525
స్తానని	-10.1528
▁వలస	-10.153
▁ఏమైన	-10.1536
ప్ర	-10.1537
▁వెయ్యి	-10.1539
▁స్థాయికి	-10.1543
ెస్ట్	-10.1543
▁400	-10.1545
▁భా	-10.1546
▁జయంతి	-10.1546
▁జేడీఎస్	-10.1547
▁పెడితే	-10.1548
▁చోరీ	-10.1548
▁రాజేంద్ర	-10.1548
వర	-10.155
▁టికెట్ల	-10.1558
▁దో	-10.156
▁సాధ్యం	-10.1565
▁స్థ	-10.1568
▁భూకంపం	-10.1577
▁ఎలక్ట్రిక	-10.1581
▁గద్వాల	-10.1584
▁స్వతంత్ర	-10.1584
▁విధానాల	-10.1584
▁65	-10.1585
▁పక్కా	-10.1586
▁ప్యా	-10.1588
▁బ్యారేజీ	-10.1589
ରେ	-10.1592
ిక్	-10.1592
▁బాక్స	-10.161
▁తోంది	-10.1617
▁క్లాస్	-10.1617
▁జడ్జి	-10.1621
▁సొసైటీ	-10.1621
▁న్యాయమూర్తి	-10.1622
▁2017	-10.1623
▁దోపిడీ	-10.1624
▁ఆలోచించ	-10.1625
▁సలహా	-10.1626
▁పత్రిక	-10.1627
▁కేటాయింపు	-10.1632
▁పొన్నం	-10.1637
▁యూపీ	-10.164
▁కమల	-10.1644
ియల్	-10.1644
▁రింగ్	-10.1649
▁వినోద్	-10.1652
▁సమితి	-10.1655
▁పాలి	-10.1657
▁ఇండియాలో	-10.1657
▁స్టా	-10.1659
▁గట్టి	-10.1665
స్థ	-10.1688
▁భారం	-10.169
▁మధు	-10.1693
▁దిగి	-10.1694
▁క్రిమినల్	-10.1697
▁బీహార్	-10.1698
▁నియోజక	-10.1699
▁సినిమాతో	-10.17
▁ధర్మాసనం	-10.1701
▁ఎదురుచూస్తున్న	-10.1701
▁తిప్ప	-10.1705
▁ಕ	-10.1707
▁చీ	-10.1709
▁సరిహద్దు	-10.171
ర్మ	-10.1713
ಸ್	-10.1713
▁నెస్	-10.172
▁సంక్షేమం	-10.1726
▁నియంత్రణ	-10.1736
▁ఒడిశా	-10.1736
స్తోంది	-10.174
▁నిబంధనలు	-10.1742
▁ప్రాధాన్యం	-10.1743
▁సేకరించ	-10.1744
▁ఫేస్	-10.1745
▁ان	-10.1745
▁వందే	-10.1746
▁స్థలం	-10.1746
▁పెట్టాల	-10.1755
▁రానుంది	-10.176
▁ఆనంద	-10.176
▁చెందుతున్న	-10.1765
▁కురుస్తాయ	-10.1772
స్ట్	-10.1773
▁ఖాతాలో	-10.1773
▁కల్తీ	-10.1773
▁నాన్న	-10.1778
▁గాజా	-10.1778
▁తీసుకుంటే	-10.1778
▁కొండా	-10.1781
▁సంఘాలు	-10.1784
▁మెయిన్	-10.1788
ృ	-10.179
▁టమాటా	-10.1791
▁చేస్తాయి	-10.1801
▁భారతదేశం	-10.1804
▁అండర్	-10.1805
▁సాధించి	-10.1809
▁చిరుత	-10.181
▁లోకేశ్	-10.1811
▁కురుస్తున్న	-10.1817
▁రౌండ్	-10.1819
▁మృతుల	-10.182
ొచ్చ	-10.1822
▁మెసేజ్	-10.1823
▁చేయలేదని	-10.1825
▁బ్రహ్మ	-10.1827
▁లాభం	-10.1839
▁పరిశీలించ	-10.184
▁కష్టం	-10.1843
▁కొనసాగి	-10.1848
▁కంటెంట్	-10.1849
▁దంపతుల	-10.1849
▁ఎందుక	-10.1849
▁దిల్లీ	-10.1853
▁చాట్	-10.1854
▁గౌరవం	-10.1857
ఎ	-10.1858
▁మేడి	-10.1859
▁గాయాలు	-10.1865
▁నౌక	-10.1865
▁మణి	-10.1866
▁కాన్	-10.1866
నర్	-10.187
▁వస్తున్నారు	-10.1877
చా	-10.188
▁రైళ్లు	-10.188
దైన	-10.1883
▁అంజ	-10.1884
▁సమంత	-10.1884
▁అఖిల	-10.1886
▁తాత్కాలిక	-10.1887
▁తీసుకోవాల్సి	-10.1889
▁మారుతోంది	-10.1891
▁వ్యాపారులు	-10.1893
▁నైట్	-10.1893
▁వేద	-10.1895
▁సార్వ	-10.1896
▁బస్సులు	-10.1898
▁నిలిచారు	-10.1901
పూడి	-10.1902
▁వర్	-10.1906
▁బయో	-10.1908
ಲ	-10.1916
ాత్మక	-10.1924
▁వైఖరి	-10.1926
▁వయస్సు	-10.1929
▁చేస్తున్నా	-10.193
▁వేటు	-10.1935
▁ఆశ్చర్య	-10.194
▁నిలిచిన	-10.1943
▁తరచ	-10.1945
▁49	-10.1948
▁కాలనీ	-10.1948
▁చెందారు	-10.1955
▁దుర్గ	-10.1963
▁మహ్మద	-10.1965
▁సిలిండర్	-10.1965
▁అమృత	-10.1965
▁అడిగిన	-10.1974
▁పండ్ల	-10.1975
▁వ్వ	-10.1979
▁44	-10.1981
▁భవనం	-10.1983
▁జీహెచ్ఎంస	-10.1984
▁తెల్లవారుజామున	-10.1999
సాగుతోంది	-10.1999
▁మంట	-10.2001
▁నిర్వహిస్త	-10.2003
▁వాణిజ్య	-10.2004
▁పెరుగుదల	-10.2004
▁విక్రమ్	-10.2005
▁వ్యాధుల	-10.2005
▁ఆశిస్తున్న	-10.2005
▁డ్రా	-10.2009
▁*	-10.2009
▁ఇవే	-10.2011
▁రిజర్వేషన్	-10.2014
▁ఊరి	-10.2018
▁ప్రతిపక్షాల	-10.202
▁పదార్థాల	-10.2022
ారా	-10.2031
▁ట్రస్ట	-10.2034
▁రోజ	-10.2037
▁సందర్భాల	-10.2037
▁గట్టిగా	-10.204
▁హనుమాన్	-10.2043
▁వ్యాఖ్యలపై	-10.2043
▁తగ్గింది	-10.2044
▁వేస్తున్న	-10.2048
▁ఫ్ల	-10.2055
రాజు	-10.206
లర్	-10.2062
▁W	-10.2072
▁నాగార్జున	-10.2073
▁విక్రయించ	-10.2078
▁కర్నూలు	-10.2082
▁ప్రతికూల	-10.2082
▁చూస్తున్నారు	-10.2084
▁వేయాలని	-10.2086
l	-10.2088
▁చేస్తాం	-10.2089
▁పార్ట్	-10.2095
▁ఇస్తున్నారు	-10.2096
▁సమాజంలో	-10.2097
▁పోయారు	-10.2098
▁సంస్కృతి	-10.21
▁కనిపిస్తున్నాయ	-10.21
▁చేరి	-10.21
▁అర్ధరాత్ర	-10.21
ండ్ల	-10.2114
▁పిల్ల	-10.2114
▁చేస్తున్నాడు	-10.2117
▁నిరంతర	-10.2121
▁ఆత్మ	-10.2122
ంజ	-10.2123
▁లీకేజీ	-10.2123
▁విధించింది	-10.2126
▁బలోపేతం	-10.2134
▁పత్రాల	-10.2135
▁వెళ్ళ	-10.214
ుకోవడం	-10.2144
▁రూట్	-10.2152
▁రుణ	-10.2155
జె	-10.2159
▁క్రెడిట	-10.2161
▁ఫాస్ట్	-10.2161
▁పట్టించుకోవడం	-10.2161
▁నెలకు	-10.2163
▁లోపం	-10.2165
▁ఖాతా	-10.2167
ుతుంది	-10.2167
గర్	-10.2171
▁చక్క	-10.2177
▁ఇచ్చాడు	-10.2181
▁పెద్దలు	-10.2185
▁చెప్తున్నారు	-10.2187
▁టూర్	-10.2188
▁మోస్తర	-10.2192
▁వహించ	-10.2193
▁పనిచేసిన	-10.2196
▁బంద్	-10.2198
▁అర్బన్	-10.22
▁ఎన్డీయే	-10.22
▁చనిపోయారు	-10.2201
▁అంబటి	-10.2202
▁క్రైమ్	-10.2203
కాయ	-10.2207
▁తాక	-10.2213
▁వివరించ	-10.2214
ఖ్	-10.2218
▁లక్ష్మణ్	-10.2223
▁కేసుల్లో	-10.2225
▁ఫె	-10.2226
▁ార	-10.2228
ధా	-10.223
▁కలిసిన	-10.223
▁పెడుతున్న	-10.2232
▁శాస్త్రవేత్తలు	-10.2233
▁ప్రవేశించ	-10.2234
▁లండన్	-10.224
▁కేజీ	-10.2241
▁మనోజ్	-10.2241
▁ఫీజు	-10.2241
▁గమనించ	-10.2242
▁ఆటగాళ్ల	-10.2244
▁2009	-10.2244
▁జియో	-10.2245
▁కష్టాలు	-10.2247
ز	-10.2255
ామ	-10.2258
▁లైట్	-10.2259
▁గెలిపించ	-10.226
▁రోగుల	-10.2271
▁పౌర	-10.2273
ರು	-10.2275
మె	-10.2278
▁మారుతున్న	-10.2278
▁ఒంటరిగా	-10.228
▁కట్టి	-10.228
▁E	-10.2281
▁వృత్తి	-10.229
▁సేవా	-10.229
▁అమ	-10.2291
▁అధ్యక్షులు	-10.2299
కూ	-10.2302
▁అవ్వ	-10.2304
▁అస	-10.2306
▁پ	-10.231
▁నిషేధం	-10.2313
▁అతడ	-10.2313
▁అమెరికన్	-10.232
▁బంగాళాఖాతం	-10.232
▁అద్దె	-10.232
▁వేర్వేరు	-10.2321
▁అజయ్	-10.2321
సిస్	-10.2331
▁చేయాలనే	-10.2335
▁కార్ల	-10.2341
▁పరిణామాలు	-10.2341
▁జరగడం	-10.2341
▁ప్రజాస్వామ్య	-10.2343
కార్	-10.2346
▁విమానాశ్రయం	-10.2348
▁54	-10.2348
▁చింత	-10.2354
▁మెదడు	-10.2361
▁సందర్బం	-10.2361
▁పేలుడు	-10.2361
▁హనుమకొండ	-10.2361
▁యువకులు	-10.237
▁కొని	-10.2373
▁పరిపాలన	-10.2375
▁ముఖం	-10.2377
ీకరణ	-10.2386
▁కొద్ద	-10.2388
▁సన్న	-10.2393
▁చట్టాల	-10.2394
క్కల	-10.2394
రంగ	-10.2397
ଣ	-10.24
▁తీ	-10.2401
▁ఫిల్మ్	-10.2408
▁స్టార్ట్	-10.2409
▁ఫ్లై	-10.2417
▁X	-10.2417
▁వినియోగించ	-10.242
▁స్టూడెంట్స్	-10.2421
▁కాక	-10.2426
▁అనంత	-10.2427
▁ఆస్తులు	-10.2428
ि	-10.2431
దర	-10.2435
▁సొమ్ము	-10.2442
▁సోదరుడు	-10.2442
▁సగం	-10.2442
▁ఎదుర	-10.2442
▁వ్యవహరిస్తున్న	-10.2444
▁మిస్	-10.2445
▁ప్రసార	-10.2445
▁వ్యవసాయం	-10.2446
▁జీతాల	-10.2446
▁చిత్రంలో	-10.2447
స్తే	-10.2448
-2	-10.2455
▁స్టేషన్ల	-10.2457
ోత్సవ	-10.2461
▁నుంది	-10.2461
▁రాళ్ల	-10.2462
▁సిద్ద	-10.2462
ಮ	-10.2464
ంచిన	-10.2474
▁నాణ్యత	-10.2479
▁రాజేందర్	-10.2484
▁రోడ్డుపై	-10.2484
▁వస్తువులు	-10.2484
▁వేసవి	-10.2487
దం	-10.2489
▁స్టీల్	-10.249
▁పండితులు	-10.2493
హర	-10.2493
▁వేలకు	-10.2494
▁ప్రజాప్రతినిధుల	-10.2495
అ	-10.2495
▁పరిశ్రమల	-10.2495
▁వేరు	-10.2496
▁మహేశ్	-10.2504
▁మంద	-10.2516
▁కన్న	-10.2519
ందా	-10.2522
▁కండువా	-10.2524
▁బుమ్రా	-10.2524
▁వికారాబాద్	-10.2524
▁సిద్ధరామయ్య	-10.2524
▁రెగ్యులర్	-10.2526
▁వారాల	-10.2528
▁ఐదో	-10.2537
ారెడ్డి	-10.254
▁ఏది	-10.2542
▁పనిచేశార	-10.2547
▁డాలర్ల	-10.2549
▁ఉత్తమ్	-10.2553
▁పోయాయి	-10.2557
▁ప్రదేశాల	-10.2558
▁తమిళనాడులో	-10.2559
na	-10.2561
یا	-10.2562
▁4,	-10.2563
▁దొంగ	-10.2565
▁అధిష్టాన	-10.2565
▁యుక్రెయిన్	-10.2565
▁సచిన	-10.2568
▁ముగిసింది	-10.2569
▁లాక్	-10.257
▁వేసుకు	-10.2575
▁కొరత	-10.2575
▁తానే	-10.2583
▁నోట్	-10.2588
▁కల్యాణ	-10.2606
▁విస్తరణ	-10.2606
స్టిట్యూట్	-10.2606
▁విషాదం	-10.2607
▁మాట్లాడే	-10.261
▁నగరంలోని	-10.261
▁ాలన్నారు	-10.261
▁کر	-10.2611
▁సెషన్	-10.2611
▁కోరిన	-10.2616
▁సైన్స్	-10.2616
▁తీసుకొ	-10.2616
▁పూ	-10.2618
▁వెళ్లాల	-10.2618
▁ఫిక్స్	-10.2619
▁నినాదాలు	-10.2624
▁చూశా	-10.263
▁దీ	-10.2636
्	-10.2641
ರಿ	-10.2645
▁పంటల	-10.2646
ं	-10.2647
▁మౌలి	-10.2651
హెచ్	-10.2655
▁సముద్రంలో	-10.2656
▁స్థితి	-10.2657
▁రూపాయి	-10.2667
▁భవన	-10.2676
▁తెలిసి	-10.2676
స్సు	-10.2678
▁సూ	-10.268
▁కావాలి	-10.2688
▁సరికొత్త	-10.2689
▁ఎస్టేట్	-10.269
▁ఇచ్చారని	-10.2692
▁నిర్మాణాల	-10.2692
▁ఆప్షన్	-10.2693
▁ాలను	-10.2694
▁చెబుతూ	-10.2695
▁ఆంధ్ర	-10.2696
▁సిగ్నల్	-10.2698
▁క్లీన	-10.2699
▁వార్తా	-10.2704
▁ాలనే	-10.2712
▁స్ట	-10.2714
▁పాల్పడ	-10.2714
ద్వారా	-10.2718
▁కావాల్సిన	-10.2719
▁సింహ	-10.2721
▁ప్రయాణించ	-10.2721
▁ఫిట్	-10.2726
▁ఎగ్జి	-10.273
▁ప్రత్యర్థి	-10.2731
▁జ్యోతిష్య	-10.2731
▁ట్రోఫీ	-10.2731
▁పోలవరం	-10.2731
▁భూపాలపల్లి	-10.2732
▁మస్క్	-10.2732
▁చేస్తామన్నారు	-10.2733
▁మారుత	-10.274
▁ాయన్నారు	-10.274
▁సైనిక	-10.2741
▁స్త్రీ	-10.2743
▁చెప్త	-10.2746
మూరి	-10.2749
▁చెబుతారు	-10.2755
▁ఆంక్షలు	-10.2756
▁బర్	-10.2757
▁నిర్మించారు	-10.2757
▁మరణం	-10.2759
▁తుంది	-10.276
▁కేంద్రంగా	-10.2761
▁ొచ్చు	-10.2767
▁కొంచెం	-10.2773
▁మేడ్చల్	-10.2773
▁రకరకాల	-10.2773
▁t	-10.2775
▁మూసీ	-10.2776
▁మనుషుల	-10.2781
▁యూత్	-10.2782
▁కార్తీక	-10.2783
▁ఫీచర్	-10.2785
▁తెలుసా	-10.2788
▁ప్రారంభించింది	-10.2793
▁ఉపయోగించి	-10.2794
ಟ	-10.2797
▁కార్డ్	-10.2797
▁ತ	-10.2799
ಕ್	-10.2802
▁కింగ్స్	-10.2813
▁పత్రాలు	-10.2815
అని	-10.2815
▁ವೈರಲ್	-10.2815
▁ముఠా	-10.2816
▁ందుకే	-10.2816
▁ప్రొ	-10.2816
▁దిన	-10.2818
▁సూర	-10.2821
▁పార్	-10.2827
▁సార	-10.283
▁డెడ్	-10.283
▁స్వల్ప	-10.2832
▁କ	-10.2832
▁నాశనం	-10.2832
▁విమర్శల	-10.2834
▁దొరిక	-10.284
▁పొందుతారు	-10.284
▁మొక్క	-10.2843
▁మ్మ	-10.2843
▁ఘనత	-10.2848
▁ఫోన్లు	-10.285
▁అయ్య	-10.2855
▁మంగళ	-10.2856
▁డైలాగ్	-10.2858
▁నిలబెట్ట	-10.286
▁దినోత్సవం	-10.2862
▁తెలిసిన	-10.2867
▁ముంబయి	-10.2868
▁శాతానికి	-10.287
▁బిల్	-10.2871
ୀ	-10.2872
▁మళ్ళ	-10.2872
▁రం	-10.2876
▁పెడుతున్నారు	-10.2877
w	-10.2878
▁స్వామివారి	-10.2882
ారో	-10.2882
▁పిలుపు	-10.2899
ళి	-10.29
▁సిద్దరామయ్య	-10.29
▁షుగర్	-10.29
▁ఛత్తీస్	-10.2901
▁బ్యానర్	-10.2901
▁నాంపల్లి	-10.2904
▁కంప్యూటర్	-10.2905
▁59	-10.2907
▁లబ్ధిదారుల	-10.2909
▁అయ్యాడు	-10.2911
▁43	-10.2915
ండే	-10.2915
ముల	-10.2917
▁గుర్తించిన	-10.2917
▁కలవ	-10.292
▁మాదిరిగా	-10.2926
▁సంబంధాల	-10.2927
▁రోడ్లపై	-10.2931
▁భావించారు	-10.2933
▁ఈవో	-10.2933
▁ముంబైలో	-10.2934
▁ఆదర్శ	-10.2943
▁రీసెర్చ్	-10.2943
▁అప్డేట్	-10.2943
▁నిలదీశారు	-10.2943
▁నిర్	-10.2944
▁డ్రామా	-10.2947
▁ఆరో	-10.2948
▁తినే	-10.2948
▁రాకెట్	-10.2949
▁ఇవ్వలేదు	-10.2953
▁కులాల	-10.2954
▁గ్రాండ	-10.2958
▁బే	-10.2965
▁బాధ్యతల	-10.2966
▁బ్యాంకుల	-10.2967
▁ాలని	-10.2968
▁కేటాయించిన	-10.2975
▁విమానంలో	-10.2976
▁స్థితిలో	-10.2977
▁బయలుదేర	-10.2982
▁అంతరిక్ష	-10.2986
▁సుదీర్ఘ	-10.2986
▁ఏకాదశి	-10.2986
▁జరిమానా	-10.2986
▁పవార్	-10.2986
▁కీర్తి	-10.2987
▁ఫోర్లు	-10.2988
▁పొట్ట	-10.2988
▁వారంలో	-10.2993
▁ఫోటోలు	-10.2994
▁ఐసీసీ	-10.2995
▁చేశాం	-10.2995
▁రామకృష్ణ	-10.2997
▁రిజర్వేషన్ల	-10.2999
▁గలిగ	-10.2999
▁జరిగింద	-10.2999
▁ప్రయోజనం	-10.3
▁ప్రాంతాలు	-10.3005
▁పోతుంది	-10.3006
ار	-10.3006
▁ైన	-10.301
ాన్	-10.3012
▁వార్తల	-10.3018
▁నిర్ణయించుకున్న	-10.3019
ప్పుడే	-10.3021
▁ప్రతిపాదన	-10.3025
ుతున్నాయి	-10.3026
▁హెలికాప్టర్	-10.3029
▁మల్లారెడ్డి	-10.3029
ైన్	-10.303
▁స్పందిస్తూ	-10.3032
-1	-10.3035
▁ఆఫీసు	-10.3035
▁దేవస్థానం	-10.3037
▁కానున్న	-10.3038
▁తోట	-10.3038
▁కర్నాటక	-10.3041
▁O	-10.3047
ుకుంటున్న	-10.3051
▁టీపీసీ	-10.3058
▁బంధువులు	-10.306
▁ప్రశ్నల	-10.3064
▁స్త	-10.3065
▁సంతోష్	-10.3067
▁జడేజా	-10.3072
▁ట్రెండ్	-10.3073
▁ప్ప	-10.3074
▁పంటలు	-10.3075
▁రాసి	-10.3077
▁వెళుతున్న	-10.3078
▁దాటి	-10.3079
▁నమోదైన	-10.3081
▁ఒలింపిక్స్	-10.3087
భా	-10.3088
▁శ్రద్ధ	-10.3088
▁శాసన	-10.3089
ದಲ್ಲಿ	-10.3089
▁సరే	-10.3092
▁అరుణ్	-10.3093
▁తెలుగులో	-10.3095
▁వాన	-10.3096
▁నె	-10.3099
▁పవిత్ర	-10.3107
▁టూ	-10.3109
▁భాగ	-10.311
▁దంపతులు	-10.3115
▁తిన్న	-10.3121
▁ప్రశాంత	-10.3121
▁కనిపించే	-10.3122
పర్	-10.3123
▁వెస్ట్	-10.3128
▁కాల్పుల	-10.3128
▁ాలన్న	-10.3139
▁ఆడి	-10.3145
▁బాగు	-10.3152
▁పురం	-10.3155
▁అనూహ్య	-10.316
▁ఆసిఫాబాద్	-10.316
▁బీఐ	-10.3161
▁చేస్తోందని	-10.3168
▁శ్రీకాంత్	-10.3168
▁మత్తు	-10.3169
▁క్లబ్	-10.3171
▁ఛ	-10.3175
▁లై	-10.3176
▁రోల్	-10.3178
▁కష్ట	-10.3187
▁కారం	-10.3194
ః	-10.3195
▁ఫిర్యాదులు	-10.3195
▁పోల్	-10.3196
ఐసీసీ	-10.3197
▁వ్యూహం	-10.3198
▁అందిస్త	-10.32
ేజ్	-10.3203
▁కర్నూల్	-10.3203
▁సురేఖ	-10.3203
▁ఇరిగ	-10.3203
▁శుభ్రం	-10.3204
▁దూకుడు	-10.3204
▁ఉంటున్నారు	-10.3204
▁మీట్	-10.3208
60	-10.3218
బడిన	-10.3225
▁చంద్రుడి	-10.3226
▁డై	-10.3227
▁సజ్జల	-10.3227
భై	-10.323
▁ఆమోదించ	-10.323
▁సామర్థ్యం	-10.3235
▁ప్రత్యేకమైన	-10.3238
▁వినియోగం	-10.3239
▁నిర్వహిస్తారు	-10.3243
▁ట్రైన్	-10.3245
ೂ	-10.3246
▁వివాదాస్పద	-10.3247
▁బెంచ్	-10.3247
ేమో	-10.3256
▁కూడదు	-10.3259
▁పాయింట్ల	-10.3261
▁మోస	-10.3263
▁రూల్స్	-10.3265
▁ಹ	-10.3268
▁నిరుద్యోగ	-10.3268
▁చ్చ	-10.3273
▁తరలి	-10.328
▁ప్రారంభమైన	-10.3282
▁వర్షపాతం	-10.3292
▁ఎస్సై	-10.3293
▁ట్రీట్	-10.3293
▁ప్రోత్సహించ	-10.3299
స్తోందని	-10.3301
▁ఆరోగ్యంగా	-10.3302
సె	-10.3303
▁పెరుగుతోంది	-10.3304
▁బిల్లులు	-10.3307
▁ఆస్పత్రి	-10.3313
▁పాల్గొంటార	-10.3315
▁ఆశలు	-10.3321
▁51	-10.3322
టెడ్	-10.3326
▁వర్గాల్లో	-10.3329
▁కొట్టిన	-10.3335
▁పైలట్	-10.3336
▁ఇంజినీరింగ్	-10.3336
▁కన్వీనర్	-10.3336
▁అశ్విన్	-10.3336
▁కీపర్	-10.3337
▁సమ్మె	-10.3337
▁స్నేహితుల	-10.3343
▁ఎదుర్కొన్న	-10.3344
ప్రసాద్	-10.3347
▁స్పందించి	-10.3347
▁కీలకం	-10.3348
▁శ్రేణుల	-10.3349
▁ప్రో	-10.3353
▁టా	-10.3362
పాల్	-10.3365
ల్ఫ్	-10.3368
▁ె	-10.3371
▁పారిశ్రామిక	-10.3374
▁లీడర్ల	-10.3379
▁ఎక్సైజ్	-10.3381
ప్పటి	-10.3382
▁అవకాశాల	-10.3382
▁చేప	-10.3384
▁వచ్చినప్పుడు	-10.3387
▁దుబాయ	-10.339
▁నిర్ధారించ	-10.3393
▁తెలిపాడు	-10.3394
▁డైరెక్ట	-10.3402
▁బోతున్న	-10.3403
మర్	-10.3404
▁భిన్న	-10.3404
▁ప్రసంగం	-10.3415
▁కాలేజ	-10.3419
▁సుఖ	-10.342
▁చేయడమే	-10.3423
▁సెర్చ్	-10.3426
▁నాగేశ్వరరావు	-10.3426
▁ఎనర్జీ	-10.3428
▁స్టాగ్రా	-10.3428
▁వార్నింగ్	-10.3428
▁వినాయక	-10.3431
▁ప్రయత్నిస్త	-10.3431
▁కాలి	-10.3433
▁ప్రతినిధుల	-10.3439
▁శైలి	-10.344
▁సూచన	-10.3441
రింగ్	-10.3444
▁నార్త	-10.3446
▁వరుణ్	-10.3447
లోనూ	-10.3448
▁తీసుకెళ్లారు	-10.345
▁ر	-10.3451
▁చేయాలన్నారు	-10.3453
శాల	-10.3456
▁ొచ్చ	-10.346
▁-2	-10.3461
▁స్వేచ్ఛ	-10.3471
▁ప్రకృతి	-10.3471
▁సవరణ	-10.3471
▁మ్యాచు	-10.3471
కల	-10.3472
▁ఉంటారని	-10.3474
▁రంగాల్లో	-10.3482
▁పోసి	-10.3486
▁చెట్ల	-10.3488
▁క్యాంపు	-10.3488
▁డిపాజిట్	-10.349
▁ఎదుర్కోవ	-10.3491
▁గెలిచారు	-10.3492
▁భవనాల	-10.3494
▁శెట్టి	-10.3498
ుల్	-10.3498
▁జీవ	-10.3502
మార్	-10.3508
▁ఆఫీసులో	-10.3508
ందో	-10.3509
▁మార్గ	-10.351
యిన	-10.3512
▁చెప్పినట్లు	-10.3513
▁గాయ	-10.3514
▁అందువల్ల	-10.3517
50	-10.3517
▁బూత్	-10.3519
▁స్థానికుల	-10.352
▁మొగ్గు	-10.3522
▁తండా	-10.3525
▁ఏర్పాట్ల	-10.3531
▁బీజేపీతో	-10.3532
క్షన్	-10.3537
▁రాజన్న	-10.3537
en	-10.3537
▁జరిపి	-10.3539
▁పత్తి	-10.3548
▁గ్రామస్తులు	-10.3552
▁వైట్	-10.3557
▁పండ్లు	-10.356
▁రిజర్వాయర్	-10.3561
▁యువకుడి	-10.3561
ంగి	-10.3565
▁వెల్లడి	-10.3566
▁హెచ్చరికలు	-10.3566
▁అలియా	-10.3568
▁ప్రాతినిధ్య	-10.3569
▁మండలాల్లో	-10.3573
యింగ్	-10.3581
▁విడుదలై	-10.3582
కాలం	-10.3583
▁పిండి	-10.3584
▁కాశ్మీర	-10.3585
▁56	-10.3586
▁పరిమితం	-10.359
▁ప్ల	-10.3591
▁అప్ప	-10.3591
▁ప్రశంసలు	-10.3594
▁బాధిత	-10.3598
ଛି	-10.3598
▁సామాన్య	-10.3603
▁ن	-10.3605
▁శాశ్వత	-10.3607
▁తేజ్	-10.3608
▁సందడి	-10.3609
▁సిక్స్	-10.3611
▁పద	-10.3612
▁కార్మిక	-10.3612
▁బాద	-10.3613
▁హెచ్చరిక	-10.3615
▁ఆదిత్య	-10.3616
▁గ్రూపు	-10.3618
▁52	-10.362
▁సాధన	-10.362
రమ	-10.3622
▁కథనాల	-10.3624
ಯಾ	-10.3624
▁చెల్లించాల	-10.3625
▁ట్రై	-10.3625
▁రేట్	-10.3639
▁మెడ	-10.3641
▁బ్యా	-10.3643
▁కొర	-10.3644
▁పచ్చి	-10.3645
▁కామ	-10.3649
▁ఇస్తారు	-10.365
▁గేట్	-10.3652
▁కమ్యూనిటీ	-10.3653
▁ధోనీ	-10.3653
▁వివేకా	-10.3653
▁దీప	-10.3655
▁ప్రారంభమైంది	-10.3659
▁ఉప్పల్	-10.366
لی	-10.3661
▁పడుతోంది	-10.3667
▁గౌతమ్	-10.3668
▁ముగ్గురి	-10.367
ేసి	-10.3671
▁స్థాన	-10.3671
▁అనుమానాలు	-10.3675
▁ట్ర	-10.3677
▁వీరిద్దర	-10.368
▁ఒక్కరి	-10.3685
ప్లాస్టిక్	-10.3685
▁శ్రేణులు	-10.3686
▁పోల్స్	-10.3688
▁పేట్	-10.3689
▁దయ	-10.369
▁ఐఆర్	-10.3692
▁చిరు	-10.3694
ح	-10.3697
▁77	-10.3697
▁అభ్యంతరం	-10.3699
▁క్యారెక్టర్	-10.3699
▁వనపర్తి	-10.3699
▁సీఈవో	-10.3699
▁అంబానీ	-10.37
▁57	-10.3702
▁కొల	-10.3704
▁విధించ	-10.3708
▁అదుపు	-10.3717
▁తరహా	-10.3718
▁రాష్ట్రాలు	-10.3721
▁విస్తరించ	-10.3724
▁విశ్వాసం	-10.3728
▁వెళ్లింది	-10.3728
▁బౌలర్	-10.3736
▁58	-10.3739
▁ుడ	-10.3742
▁కౌశిక్	-10.3745
గాంధీ	-10.3745
▁బొగ్గు	-10.3745
మాత్రం	-10.3748
▁మల్లన్న	-10.375
▁మాట్లాడి	-10.3752
ಗ	-10.3754
▁ప్రతిష్ట	-10.3755
ుంటారు	-10.376
▁ఓటీటీ	-10.3764
▁చేపట్టింది	-10.3764
▁ی	-10.3766
▁రిజర్వేషన్లు	-10.3766
▁గోపాల్	-10.3772
▁తరుణం	-10.3775
▁ఫైల్	-10.3775
▁రుచి	-10.3776
▁యి	-10.3785
▁రాయి	-10.3791
▁శుభవార్త	-10.3792
▁హో	-10.3792
▁లాంచ్	-10.3792
▁విద్యాశాఖ	-10.3794
▁విజ	-10.3794
▁ప్రతిపక్షాలు	-10.3804
▁యంగ్	-10.3808
▁తెచ్చుకున్న	-10.3814
▁విజయాల	-10.3815
▁గోడ	-10.3816
▁రేప	-10.3818
!	-10.3822
▁లవ్	-10.3824
స్తున్నాయి	-10.3826
▁గుట్ట	-10.383
లై	-10.3832
యాల	-10.3833
▁ధన్యవాదాలు	-10.3839
▁ించారు	-10.384
▁బాలుడి	-10.384
▁తెచ్చి	-10.3841
▁పేర్లను	-10.3845
▁తిరస్కరించ	-10.3852
▁తిరుగుతున్న	-10.3865
▁భావించ	-10.3876
▁బేస్	-10.3876
▁గారి	-10.388
▁నుంచ	-10.3883
▁సులభం	-10.3884
▁దరఖాస్తులు	-10.3885
▁అమెజాన్	-10.3885
▁ఎఫెక్ట్	-10.3885
▁ఛానెల్	-10.3885
▁2025	-10.3885
▁సాగి	-10.3887
మాన్	-10.389
▁ఈటల	-10.3891
▁కార్పొరేట	-10.3892
▁య్	-10.3893
▁చేశా	-10.3902
▁సూచించ	-10.3903
▁విలీనం	-10.3903
▁అనుచరుల	-10.3903
▁శ్రమ	-10.3903
▁తింటే	-10.3905
▁రఘురామ	-10.3908
▁తెల	-10.392
▁మునిగి	-10.3921
▁తేజ	-10.3924
▁గంగా	-10.3925
▁ఆమ్	-10.3927
▁శంషాబాద్	-10.3933
▁సేఫ్టీ	-10.3934
▁గెలిస్తే	-10.3934
▁ఖా	-10.3934
▁ాలంటే	-10.3937
▁ఆరోపిస్తున్నారు	-10.3943
▁మ్యాన్	-10.3943
▁ఏడుగుర	-10.3946
▁వాల	-10.3946
▁పిలుస్తారు	-10.3947
▁గెలిపించాల	-10.3949
▁జంతువుల	-10.3951
or	-10.3954
▁భావన	-10.3954
▁లింగ	-10.3956
▁కొనసాగిస్తున్న	-10.3958
▁డాలర్లు	-10.3958
ధ్య	-10.3964
▁వద్దని	-10.3969
▁తెచ్చ	-10.3978
▁నిజాం	-10.398
▁ఎంఐఎం	-10.398
▁రవీందర్	-10.398
▁తుపాను	-10.398
▁అనంతపురం	-10.3981
▁గులాబ	-10.3981
▁పంత్	-10.3981
▁చర్మం	-10.3985
▁రాణి	-10.3988
▁ంచి	-10.3988
800	-10.399
▁కేరళలో	-10.399
▁మం	-10.3992
▁అనిపించ	-10.3993
▁పంపిన	-10.3997
▁లేదో	-10.3998
▁ఏమిట	-10.3998
పె	-10.3998
th	-10.3999
▁నిపుణుల	-10.4001
▁కూల్	-10.401
▁దశాబ్ద	-10.4013
▁గమనించి	-10.4015
▁చూపించారు	-10.4021
▁చేయి	-10.4026
▁కార్యాచరణ	-10.4028
▁మెగాస్టార్	-10.4028
▁ఎంజాయ	-10.4028
▁జార్ఖండ్	-10.4028
▁డ్యూటీ	-10.4028
▁చెన్నూరు	-10.4028
తుందని	-10.4029
▁షాపుల	-10.403
▁కేంద్రమంత్రి	-10.4033
ಣ	-10.4037
▁మమత	-10.4038
▁పోషించ	-10.4039
▁మొదలుపెట్ట	-10.404
▁రాణించ	-10.4043
▁నిర్మల	-10.4043
▁ఫొటోలు	-10.4043
▁ందే	-10.4046
▁ఓపెనర్	-10.4049
▁బొమ్మ	-10.4058
▁టై	-10.4058
▁ందో	-10.4061
లింగ్	-10.4062
ున్నారు	-10.4063
▁5,	-10.4068
▁సంక్రాంతి	-10.4076
▁కొవ్వు	-10.4076
▁వ్యవధిలో	-10.4077
▁విజేత	-10.4079
▁దారుల	-10.408
▁ారట	-10.4082
▁నచ్చ	-10.4087
▁నీట	-10.4087
▁ఆయన్న	-10.4093
▁దొర	-10.4094
▁కూలి	-10.4096
▁పుస్తకం	-10.41
▁నిర్వాహకులు	-10.4104
▁ସ	-10.4112
▁మైంది	-10.4114
▁ఘటనా	-10.4115
▁గన్	-10.4118
▁నెహ్రూ	-10.4124
▁ప్రకాశ్	-10.4124
నాథ్	-10.4124
▁ఇవ్వాలి	-10.4125
▁గెలుపొంద	-10.4126
▁ట్యాపింగ్	-10.4127
▁ఉష్ణోగ్రత	-10.4127
▁రేపటి	-10.4127
▁జీతం	-10.4127
▁గవర్నమెంట	-10.4133
▁గాయం	-10.414
▁భయంతో	-10.414
▁స్ఫూర్తి	-10.4147
▁ఉద్దేశంతో	-10.4149
స్త్ర	-10.4154
ఫీ	-10.4155
▁గడిచిన	-10.416
▁విధించారు	-10.4161
▁-1	-10.4164
▁పర్యాటక	-10.4165
▁తెలుసుకున	-10.4168
▁ಪ	-10.417
▁తహసీల్దార్	-10.4172
▁పురోగతి	-10.4172
▁కానుక	-10.4174
▁వైఎస్ఆర్	-10.418
ందర్	-10.4183
▁ప్రజల్లోకి	-10.4184
రాల	-10.4184
సాన్	-10.4188
▁ఈజీ	-10.4195
▁నోటీసు	-10.4197
త్వం	-10.4201
▁నిరసనలు	-10.4202
▁సెలవులు	-10.4203
▁పూల	-10.4204
ఆ	-10.4204
▁షె	-10.4205
▁ఇదంత	-10.4209
▁కార్డులు	-10.4217
▁సమాన	-10.4218
▁ఉన్నాయ	-10.422
▁పర్మిషన్	-10.422
▁వెస్టిండీస్	-10.422
▁బంగ్లా	-10.422
▁సల్మాన్	-10.422
▁క్యాడర్	-10.4221
com	-10.4228
▁ఉద్యోగి	-10.4231
▁పడ్డాయి	-10.4232
▁రోగ	-10.4239
టివ్	-10.4246
▁సహ	-10.4248
▁నిలబడ	-10.4249
▁కౌన్సిలర్లు	-10.4253
▁మనీ	-10.4257
జన	-10.4258
▁పాము	-10.4262
▁ఆందోళనలు	-10.4268
▁78	-10.4268
▁కాంప్లెక్స్	-10.4269
▁నిమిత్త	-10.4269
▁కల్వకుంట	-10.4269
▁చిట్	-10.427
▁విమానాల	-10.427
▁చెప్పారని	-10.427
▁జడ్పీ	-10.4271
▁కై	-10.4272
▁చేస్తా	-10.4273
ಪ	-10.428
▁ప్రపంచం	-10.4283
▁నమోదయ్యాయి	-10.4284
▁రెండవ	-10.429
▁ج	-10.4298
▁ప్రదేశం	-10.4302
ಾಗ	-10.4304
▁ందనే	-10.4307
▁ధరించి	-10.431
▁కాపు	-10.4311
▁క్వా	-10.4311
▁600	-10.4313
పలికి	-10.4313
▁చూపు	-10.4314
▁జ్ఞాన	-10.4318
▁జోక్యం	-10.4319
వల్	-10.432
▁అక్రమాల	-10.4322
▁క్యాంప్	-10.4325
ମ	-10.4325
▁దించ	-10.4326
▁ప్రతిభ	-10.4329
▁బ్యాటర్ల	-10.433
▁దక్కింది	-10.4338
▁నిర్వ	-10.4344
▁కార్యాలయాల	-10.4348
▁చేయటం	-10.4348
▁కాల్స్	-10.4348
▁గాయపడ్డ	-10.4349
▁పోరాట	-10.435
▁ఫార్మా	-10.4354
▁వయసులో	-10.4355
రియా	-10.4357
▁మందులు	-10.436
▁టోల్	-10.4361
▁దిల్	-10.4362
ాన్నే	-10.4364
▁త్	-10.4365
▁చిక్క	-10.4367
▁పటిష్ట	-10.4368
▁వంశీకృష్ణ	-10.4368
▁సంతకం	-10.4368
▁ప్రకాశం	-10.4368
پ	-10.437
▁కన	-10.4373
▁టె	-10.4375
▁రాకపోవడం	-10.4376
U	-10.4376
▁ఫ్యాన్	-10.4379
▁తరలిస్తున్న	-10.4382
▁రైస్	-10.4389
▁ఢీ	-10.439
▁ఇస్తూ	-10.4391
▁గానూ	-10.4401
▁కస్టడీ	-10.4402
ుల్లా	-10.4406
▁చేతికి	-10.4406
▁కొనసాగుతుంది	-10.4407
▁న్నీ	-10.4408
▁నటన	-10.4409
▁మంటల	-10.4411
▁J	-10.4412
▁ఇన్వెస్ట	-10.4416
▁కిడ్నాప్	-10.4417
▁గద్దర్	-10.4417
▁ఎమోషనల్	-10.4417
▁కుమారస్వామి	-10.4417
▁ప్రతిష్టాత్మక	-10.4417
▁బంధువుల	-10.4422
▁విజయవాడలో	-10.4422
▁దేవుడ	-10.4428
▁అక్కడిక	-10.443
▁దేవుడి	-10.4432
▁బ్లూ	-10.4435
▁కట్టిన	-10.4436
▁చదువుతున్న	-10.4437
▁కుక్కల	-10.444
▁ఏళ్ళ	-10.4444
▁ఇవ్వకుండా	-10.4445
▁పూర్వ	-10.4448
▁జ్	-10.445
▁కలిగించ	-10.4452
▁పార్కు	-10.4453
▁ఇస్తుంది	-10.4453
స్తు	-10.4454
▁ଏ	-10.4458
▁కామెడీ	-10.4467
▁కలిగే	-10.4467
▁దేవరకొండ	-10.4467
▁ఇమేజ	-10.4468
▁2015	-10.4468
▁సహాయపడుతుంది	-10.4471
▁ఉపశమనం	-10.4473
ాభివృద్ధి	-10.4475
▁ఎంపీపీ	-10.4481
▁హైద	-10.4485
▁సౌద	-10.4487
▁తిరిగ	-10.4489
▁అందించడం	-10.4492
ుకోవచ్చు	-10.4493
▁ఆడుతున్న	-10.4494
▁ମ	-10.4495
▁కార	-10.4502
▁న్నా	-10.4507
▁ట్లే	-10.4507
▁రేట్లు	-10.4513
▁దింప	-10.4516
▁మారే	-10.4517
▁మసీదు	-10.4517
▁డీఎస్పీ	-10.4517
▁బెల్లంపల్లి	-10.4518
▁డీసీపీ	-10.4519
▁శ్రీశైలం	-10.452
▁సీపీఎం	-10.4525
▁మతం	-10.4526
ట్టుబడి	-10.4529
▁పోతే	-10.4529
▁గణేష్	-10.453
▁తొక్క	-10.453
▁ఖాతాల్లో	-10.4532
కపోయినా	-10.4541
▁వీడ	-10.4547
▁ش	-10.455
▁ର	-10.4558
▁సహకార	-10.456
▁కిడ్నీ	-10.4567
▁చేస్తుండగా	-10.4567
▁గణనీయ	-10.4568
▁వెలువడ	-10.457
ింపు	-10.4571
ెర	-10.4573
▁అనుబంధ	-10.4576
▁ఇంకో	-10.4576
۔	-10.4577
ین	-10.4577
▁లేదంట	-10.4581
▁i	-10.4587
గడ	-10.4588
▁ప్రస్తావించారు	-10.4601
▁ఇంట	-10.4601
పాక	-10.4607
▁విపక్ష	-10.4611
▁సంరక్షణ	-10.4618
▁స్టాలిన్	-10.4618
▁పుతిన్	-10.4619
▁హెచ్చరించింది	-10.4619
ద్ధ	-10.4622
ుకున్నారు	-10.4622
▁వ్యాప్తి	-10.4627
▁కానున్నారు	-10.4628
▁గుర్	-10.4628
▁ఇవన్న	-10.4628
▁తీసుకెళ్లి	-10.4629
▁మనోహర్	-10.4632
▁ఘాట్	-10.4632
తోపాటు	-10.4633
▁లెక్కల	-10.4633
ించడం	-10.4637
▁డ్యాన్స్	-10.4638
▁వచ్చా	-10.464
బడి	-10.4643
▁టీచర్ల	-10.4647
▁సుప్రీంకోర్టులో	-10.4648
▁అత్యాచారం	-10.4651
▁జలాల	-10.4656
ండ్ర	-10.466
▁సౌకర్యాలు	-10.4661
▁తగ్గడం	-10.4668
▁న్యూయార్క్	-10.4668
▁వందేభారత్	-10.4668
▁డేవిడ్	-10.4669
▁షార్ట్	-10.467
▁స్ట్రీమింగ్	-10.467
▁మారుతుంది	-10.4671
▁చేతి	-10.4673
▁63	-10.4674
▁బట్టలు	-10.4678
▁స్టోర్	-10.4679
▁కార్యకర్త	-10.4683
▁నాయకుడి	-10.4684
▁బట్ట	-10.4686
▁ఉంట	-10.4686
ಸ	-10.4691
▁w	-10.4697
▁తేల్చ	-10.4703
▁స్టే	-10.4703
ఖా	-10.4706
▁పదో	-10.4708
▁చేశాడని	-10.4711
▁అంతకు	-10.4714
▁ఆధ్యాత్మిక	-10.4719
▁లబ్ధి	-10.4719
ଲ	-10.4719
▁సుధాకర్	-10.472
▁గుణ	-10.4722
వడం	-10.4724
▁చూసేందుక	-10.4725
▁సైనికుల	-10.4727
▁భయపడ	-10.4728
▁ఉక్రెయిన్	-10.4731
▁నగరాల్లో	-10.4731
▁మాట్లాడుతున్న	-10.4731
సార	-10.4733
రవై	-10.4735
రాన్	-10.4736
▁విశేష	-10.4736
▁రుణాలు	-10.4738
▁కవర్	-10.4743
▁పాత్రలు	-10.4746
▁మార్కెట్లో	-10.475
▁హర్	-10.4752
▁పాడి	-10.4753
▁జేపీ	-10.4753
▁పెద్దల	-10.4754
vs	-10.4755
ంబర్	-10.476
▁ల్యాండర్	-10.4771
కమర్షియల్	-10.4771
▁మన్న	-10.4777
▁అప	-10.4785
▁అమల్లోకి	-10.4788
▁భరత్	-10.4791
▁అధ్యక్షత	-10.4791
▁రూప	-10.4792
▁పంపించారు	-10.4795
▁ప్రియ	-10.4799
▁ప్రశ్నిస్తున్న	-10.4801
ియ	-10.4803
▁జరుపుకుంట	-10.4804
▁కనిపించిన	-10.4804
ବ	-10.4806
▁పట్టణంలో	-10.481
▁ఖర్చులు	-10.4812
▁సంప్రదాయ	-10.4813
▁అమలులో	-10.4818
టే	-10.4818
▁وائرل	-10.4822
▁కాన్ఫరెన్స్	-10.4822
▁నడ్డా	-10.4822
▁వర్సిటీ	-10.4822
▁పీవీ	-10.4826
▁గుప్తా	-10.4828
ారాహి	-10.4834
కైక	-10.4839
వ్య	-10.4844
▁ఆశ్రయించారు	-10.4845
▁లేదన్న	-10.4846
▁స్తుంటారు	-10.4847
▁రెస్టారెంట్	-10.4847
తల	-10.4849
▁సౌకర్యం	-10.4849
▁వాడే	-10.485
▁సాయ	-10.485
▁చూపి	-10.4855
त	-10.4856
▁నిండి	-10.4858
▁ఎంసీ	-10.4859
▁మూడేళ్ల	-10.486
▁బ్యాంకులు	-10.4863
▁ఆల	-10.4867
▁వారంత	-10.4871
త్వ	-10.4872
▁కొబ్బరి	-10.4874
▁ఆధునిక	-10.4874
▁ఆసుపత్రుల	-10.4874
▁ప్రోగ్రామ్	-10.4874
▁అథారిటీ	-10.4874
▁పర్యవేక్షణ	-10.4874
▁భాగస్వామి	-10.4874
▁సంయుక్త	-10.4875
▁స్పెక్టర్	-10.4875
▁కోవిడ్	-10.4875
▁పెంచాల	-10.4876
మ్స్	-10.4876
▁నేరం	-10.488
▁బోర్డ్	-10.4882
▁భావిస్తోంది	-10.4883
▁కుటుంబాలు	-10.4883
.20	-10.4896
▁పోయా	-10.4896
▁సమీప	-10.4898
▁వచ్చాడు	-10.4903
▁కుప్పం	-10.4908
را	-10.491
▁డబ్బుల	-10.4915
▁పచ్చ	-10.4915
గల్	-10.4917
▁అంగ	-10.4922
▁పట్టాలు	-10.4925
▁శ్రీహరి	-10.4926
▁రెస్పాన్స్	-10.4926
▁క్రాస్	-10.4926
▁హుండీ	-10.4927
▁మాఫీ	-10.4932
▁లోన్	-10.4932
ిడి	-10.4932
▁బోర్	-10.4935
▁69	-10.4941
▁కార్డుల	-10.4942
బాబు	-10.4944
భిన్నంగా	-10.4944
▁బీఎస్	-10.4947
▁చేస్తుంటారు	-10.495
▁దేవ్	-10.4956
▁మండ	-10.4957
▁ಸಾ	-10.496
▁భావించి	-10.4961
▁వర	-10.4961
▁కమ్మ	-10.4966
▁నిరూపించ	-10.4967
ری	-10.4971
▁సద	-10.4973
▁ఆటగాళ్లు	-10.4974
▁ట్టే	-10.4974
▁తుల	-10.4975
▁పోతున్నారు	-10.4976
ୋ	-10.4978
▁పాలస్తీనా	-10.4978
▁చూస్తూ	-10.4979
▁ఫైబర్	-10.4979
▁కల్పిస్త	-10.498
▁దగ్గు	-10.4981
▁పోల్చ	-10.4981
▁ఆకాశ	-10.4982
▁యోగి	-10.4982
ನ್	-10.4985
▁120	-10.499
▁..!!	-10.4991
▁గోవా	-10.4991
▁లోతు	-10.4996
విధంగా	-10.4997
▁శ్రీనివాస	-10.4998
వేత్త	-10.5001
▁పట్టుకున్నారు	-10.5005
▁ఆశించిన	-10.5008
▁కేర్	-10.5011
▁ఆహ్వానించారు	-10.5014
▁ప్రస్తావించ	-10.5016
▁మొదలుపెట్టారు	-10.5017
▁పట్టణంలోని	-10.5023
▁ప్రభావ	-10.5029
▁జన్మించి	-10.503
▁ఎమర్జెన్సీ	-10.5031
▁సాంస్కృతిక	-10.5031
▁పాలమూరు	-10.5031
▁గడప	-10.5031
▁లేరని	-10.5032
▁ఆహ్వానించ	-10.5032
▁ఆర్టికల్	-10.5033
▁అయోధ్యలో	-10.5033
సర్	-10.5033
▁ఊరట	-10.5033
▁د	-10.5036
▁షి	-10.5038
గొ	-10.5038
▁ఉత్తర్వుల	-10.5038
ಡ	-10.5039
▁రీతి	-10.504
▁ఎడ్యుకేషన్	-10.5041
▁కాపీ	-10.5043
▁దక్కించుకున్న	-10.5043
▁చేయనుంది	-10.5046
▁in	-10.5047
▁కలిగించే	-10.5049
.25	-10.505
▁పడితే	-10.5053
▁అబ్దుల్	-10.5055
పద	-10.5058
ండటంతో	-10.506
▁కష్టపడి	-10.5062
▁తీసుకొచ్చిన	-10.5077
▁రాకపోకలు	-10.5081
▁గజ	-10.5082
▁చర్మ	-10.5083
▁సురేశ్	-10.5084
▁కేటగిరీ	-10.5084
▁పరోక్ష	-10.5084
▁ఉన్నందున	-10.5084
▁అక్టోబరు	-10.5084
▁కృతజ్ఞతలు	-10.5088
▁బాలయ్య	-10.509
▁నాటు	-10.5102
▁తాగి	-10.5105
▁ంతా	-10.5105
▁ప్రత్యేకత	-10.5106
▁లాభాల	-10.5109
▁67	-10.5109
▁తిరు	-10.5123
▁గుర	-10.5125
▁ఇండస్ట్రీలో	-10.5125
▁చెర	-10.5129
▁దినోత్సవ	-10.5133
▁కాలనీలో	-10.5135
▁అయ్యి	-10.5135
▁కర్కాటక	-10.5137
▁చికెన్	-10.5137
▁పరిశీలన	-10.5137
▁ప్రొడక్షన్	-10.5137
▁పెరుగు	-10.5138
▁ఈస్ట్	-10.5142
▁సిద్ధమవుతున్న	-10.5145
▁ఎత్తి	-10.5146
▁కలెక్షన్స్	-10.5146
మంత్రి	-10.5147
▁చెడు	-10.5148
▁రిటైర్డ్	-10.5148
▁అమర్	-10.5149
▁వికాస	-10.515
▁కాలువ	-10.5152
▁ఉద్రిక్తత	-10.5155
▁గ్యారంటీల	-10.5157
▁చలి	-10.5158
▁ఇస్త	-10.5158
▁స్పీడ్	-10.5159
▁పెంచుత	-10.5161
▁ఫండ్స్	-10.5164
▁హిందువుల	-10.5167
▁ఉన్నతాధికారుల	-10.5168
▁మెరుగు	-10.5168
▁కడుపు	-10.517
▁చేయవచ్చు	-10.5171
▁తీసుకొచ్చారు	-10.5172
▁లాయర్	-10.5173
▁వాదించ	-10.5174
▁సీట్లలో	-10.5177
▁ఆగి	-10.5181
ଟ	-10.5183
▁శాస్త్ర	-10.5186
▁ఇక్కడే	-10.5186
ں	-10.5187
▁చర్చనీయాంశం	-10.5188
▁రైతుబంధు	-10.5191
▁డయాబెటిస్	-10.5191
▁స్పష్టమై	-10.5191
▁బ్యాటరీ	-10.5191
▁గేమ్స్	-10.5191
▁తాయి	-10.5192
▁అక్షర	-10.5193
స్తుంది	-10.5193
▁మాసంలో	-10.5194
▁ఉండదని	-10.5194
▁لی	-10.5194
▁టాస్క్	-10.52
▁పూజా	-10.5201
▁యూజర్ల	-10.5201
▁వీసీ	-10.5202
▁రాగా	-10.5202
▁తెలియజేశారు	-10.5203
పే	-10.5204
▁తాగడం	-10.5209
▁వెళ్లిపోయారు	-10.5211
▁"."	-10.5214
କ	-10.5216
▁కలుగుతుంది	-10.5219
▁బీర్	-10.5223
▁రాయలసీమ	-10.5224
▁ఉండొచ్చ	-10.5224
▁అన్నా	-10.5232
▁అమ్మకాలు	-10.5233
సీపీ	-10.5235
▁దృష్ట	-10.5236
▁ప్రభుత్వమే	-10.524
▁దీప్	-10.5242
▁గాజాలో	-10.5242
▁షాట్	-10.5243
▁పెట్టారని	-10.5244
▁జంక్షన్	-10.5244
▁పడగొట్ట	-10.5246
▁హే	-10.5247
లక్ష	-10.5248
▁పాఠశాలల	-10.5248
▁విశాల	-10.5249
▁కాలేజీలో	-10.5249
▁ఫోన్ల	-10.525
▁సెంటర్ల	-10.5252
▁నివసిస్తున్న	-10.5252
▁అంశాన్న	-10.5253
▁నాగ్	-10.5257
▁ొద్ద	-10.5259
▁పేర	-10.5261
▁నట్లు	-10.5264
కూర	-10.5266
ad	-10.5269
▁సాగింది	-10.527
▁మొదట్లో	-10.5272
▁జరుపుతున్న	-10.5273
▁సెగ్మెంట్	-10.5275
▁జత	-10.5277
▁హర్యానా	-10.5278
▁విడిచి	-10.5281
▁యోగా	-10.5289
▁ప్రయోగం	-10.529
▁చేశారన్న	-10.5292
▁బడి	-10.5297
▁రాఘవ	-10.5298
▁ఐక్యరాజ్య	-10.5298
▁హుస్సేన్	-10.5298
▁2011	-10.5298
▁అంబులెన్స	-10.5298
▁ట్యాంక్	-10.5299
▁బ్రిటిష	-10.5299
▁నంద్యాల	-10.5299
▁హాసన్	-10.53
▁నిలిచాడు	-10.5301
▁వీధి	-10.5302
▁కాఫీ	-10.5302
▁పీఎం	-10.5305
▁కూర్చున్న	-10.531
య్యాయి	-10.5311
▁పెరగడం	-10.5316
▁న్ని	-10.5317
▁నడుస్తోంద	-10.5319
v	-10.5321
▁టీడీపీలో	-10.5322
▁చెప్తున్న	-10.5322
▁రూపొందించిన	-10.5326
▁ఆకర్షించ	-10.5327
▁గ్రామం	-10.5328
▁సమాజం	-10.5329
నల్	-10.5329
▁జగన్మోహన	-10.5331
▁ఊరు	-10.5332
▁రాజేశ్వర	-10.5333
▁చేసుకోవడాని	-10.5333
▁యే	-10.5334
▁బయటపడ్డ	-10.534
ియో	-10.5348
▁కాద	-10.5352
కొని	-10.5353
▁బందోబస్తు	-10.5353
▁బిర్యానీ	-10.5353
▁దిగువ	-10.5353
▁66	-10.5353
▁ఇవ్వలేదని	-10.5356
టాల	-10.5357
▁తీస్తున్న	-10.536
▁వివరించింది	-10.5361
▁గొడవలు	-10.5362
▁68	-10.5363
▁బండ	-10.5367
▁చేతుల్లో	-10.5368
ال	-10.5368
▁ట్ట	-10.5369
▁ఒక్కటే	-10.5376
▁కరెంట	-10.5379
▁చేయాల	-10.5381
▁వేసుకున్న	-10.5388
re	-10.5389
▁మినహా	-10.5392
ర్సెస్	-10.54
▁నర్స	-10.5401
▁పడటం	-10.5401
▁ఆధారపడి	-10.5403
▁కాంట్రాక్ట్	-10.5407
▁సింగపూర్	-10.5408
▁గదిలో	-10.5408
▁డీజిల్	-10.5408
▁సిరాజ్	-10.5413
▁అసహనం	-10.5418
▁ర్శ	-10.542
▁k	-10.5422
▁లేవ	-10.5424
▁డీఏ	-10.5425
సెట్	-10.5426
▁ఇండియన్స్	-10.5426
▁వాగు	-10.5427
ದು	-10.5428
▁వార్తల్లో	-10.5432
▁ఉండొచ్చు	-10.5433
▁కుంటే	-10.5436
▁72	-10.5439
▁అందించాలన	-10.5443
డితే	-10.5444
▁64	-10.5447
▁మామ	-10.5448
▁బస్సుల	-10.5453
▁బూ	-10.5455
▁వెయిట	-10.5455
శి	-10.5455
▁ఇష్టపడ	-10.5457
▁పావు	-10.5461
▁పొత్తుల	-10.5461
▁పెరగడంతో	-10.5461
▁పరిగణన	-10.5462
▁రేవణ్ణ	-10.5462
▁ముగిసే	-10.5463
▁మలుపు	-10.5463
▁హీ	-10.5463
▁కుంభ	-10.5468
▁దందా	-10.5468
▁కనిపించారు	-10.547
▁గెస్ట	-10.5472
▁పాటిల్	-10.5474
▁చుట్టుప	-10.5476
▁సర్టిఫికెట్	-10.5484
▁సంగ	-10.5486
▁తెలంగాణా	-10.5487
▁బస్సుల్లో	-10.5489
▁పాయింట్లు	-10.5493
▁అవుత	-10.5494
▁చూసింది	-10.5495
▁ధరించ	-10.5496
▁కూరగాయల	-10.5496
ha	-10.5498
▁బాత్	-10.5502
▁సిద్ధమ	-10.5504
▁భయ	-10.5506
▁పంపి	-10.5507
▁ఐపీఎ	-10.5509
▁లోటు	-10.551
▁చేపడుతున్న	-10.5514
▁అంటున్న	-10.5515
ందే	-10.5516
▁మరుసట	-10.5518
▁ఉత్తరాఖ	-10.5518
▁నెలకొల్ప	-10.5518
▁ఫ్లాట్	-10.5518
▁ఫ్రాన్స్	-10.5518
▁గ్రహాల	-10.552
▁కోల్పోయి	-10.5521
▁తగిలింది	-10.5525
వారికి	-10.5528
▁తెరకెక్కి	-10.553
▁వాడుతున్న	-10.553
బోతున్న	-10.5531
టచ్	-10.5531
▁కుంభకోణం	-10.5535
▁ఇవ్వాల్సి	-10.5536
సో	-10.5537
▁ఉన్నతాధికారులు	-10.5541
▁ಗ	-10.5542
▁తర	-10.5544
▁బాయ్	-10.5545
▁అయినట్లు	-10.5554
▁గూడెం	-10.5557
ియర్	-10.5558
▁మాట్లాడట	-10.5562
▁వేగ	-10.5565
▁పూర్తిస్థాయి	-10.5565
▁మండలాల	-10.5567
▁లాగా	-10.5567
క్కడే	-10.5572
▁వార్షిక	-10.5573
▁సర్కిల్	-10.5573
▁యాక్టివ్	-10.5574
▁పేసర్	-10.5574
ع	-10.5574
▁ప్రకాష్	-10.5574
▁మొన్నటి	-10.5575
▁తిరుగుత	-10.5576
▁షీట్	-10.5579
▁మరొకరు	-10.558
▁నాణ్య	-10.5582
▁వదల	-10.5582
▁ఇవ్వనున్న	-10.5583
▁భాషల్లో	-10.5584
▁ఫల	-10.5587
▁అకాల	-10.5588
▁ఝా	-10.5591
▁99	-10.5594
▁చెప్పినా	-10.5595
▁భావించిన	-10.5596
▁వ్యయం	-10.5598
▁వెళ్లాడు	-10.56
▁నీటిలో	-10.5603
▁లేద	-10.5605
▁ఇంగ్లీష	-10.5608
▁అనుచరులు	-10.5608
▁ఎంఎస్	-10.5608
వాడ	-10.561
▁విచార	-10.5611
▁కనుక	-10.5613
▁సారించ	-10.5615
టరీ	-10.5618
▁లక్షలకు	-10.5622
▁కోవాల	-10.5625
▁ప్రవర్తన	-10.5629
▁ల్యాబ్	-10.5629
▁కొనియాడ	-10.5629
▁మమ్మల్న	-10.5629
▁స్పిన్నర్	-10.5629
▁పెట్టాలి	-10.5629
▁బీఎస్పీ	-10.563
▁చాన్స్	-10.5631
▁చూపిస్తున్న	-10.5634
ంచారు	-10.5639
▁సలహాదారు	-10.5639
▁నోటి	-10.5645
మన	-10.5648
తిన్	-10.5657
కడియం	-10.5658
▁స్థానానికి	-10.566
ైంది	-10.5662
▁పెట్టుబడుల	-10.5665
▁బడ	-10.5666
ಲ್	-10.5669
▁కారణాలతో	-10.5669
▁కోపం	-10.5671
▁పార్క	-10.5674
▁దశాబ్దాల	-10.5674
▁పట్టించుకోలేద	-10.5678
ल	-10.5678
▁వరస	-10.5681
▁టే	-10.5683
▁పదార్థాలు	-10.5685
▁ఫౌండేషన్	-10.5685
▁రఘునందన	-10.5685
▁కూతురి	-10.5685
మత	-10.5686
▁బిల్లుల	-10.569
స్తున్నట్లు	-10.569
▁క్యాల	-10.5692
▁ఫారెస్ట్	-10.5694
▁మంచిదని	-10.5695
▁అప్పగించారు	-10.5695
▁ఒంటి	-10.5696
▁రమణ	-10.5697
▁పండు	-10.5697
▁ప్రమాదాల	-10.5702
▁ఏండ్లు	-10.5703
▁రత్న	-10.5704
▁రోజురోజుక	-10.5707
▁ద్ద	-10.5708
▁బుద్ధ	-10.571
▁బాగ్	-10.5712
▁పెరుగుతాయి	-10.5713
▁చేరడం	-10.5716
▁చేయొచ్చు	-10.5717
▁రెండోసారి	-10.5719
▁సొ	-10.572
▁కాలేజీల	-10.572
▁పెంచింది	-10.5721
▁వనరుల	-10.5722
▁భార	-10.5724
సర	-10.5727
▁మేక	-10.5729
▁దాటిన	-10.5733
▁ప్రయత్నాల	-10.574
▁విషాద	-10.574
▁క్వాలిటీ	-10.5742
కంటే	-10.5744
▁విధులు	-10.5749
li	-10.575
▁భారతీయుల	-10.5752
▁దొరక	-10.5759
▁తారక	-10.5764
▁తార	-10.5765
▁కళ్లు	-10.577
ేందర్	-10.5771
▁అరుణ	-10.5771
▁షాప్	-10.5773
▁వాడి	-10.5775
పోవడం	-10.5775
▁నేరాల	-10.5776
▁కాట	-10.5777
▁గ్యారంటీ	-10.5778
▁కోల్పోయారు	-10.5779
▁వేలం	-10.5785
▁పనిచేస్తుంద	-10.5786
▁ఊప	-10.5786
▁మ్యా	-10.5787
▁U	-10.5787
▁కళ	-10.5788
▁పార	-10.5795
90	-10.5799
▁కిషోర్	-10.5799
▁బాక్సాఫీస	-10.5799
▁శ్రీకాకుళం	-10.5799
▁హుజూర	-10.5799
▁ముంపు	-10.5799
▁ఛార్జ్	-10.5799
▁రీసెంట్	-10.5799
▁పరిరక్షణ	-10.5799
▁ఫీల్డ్	-10.5802
▁ఎక్కి	-10.5803
▁ఫైనాన్స్	-10.5808
▁పట్టాల	-10.581
▁పోషకాలు	-10.5815
▁ఉపాధ్యాయుల	-10.5817
▁ఉన్నది	-10.5825
▁ఫుట	-10.5825
రబడి	-10.5838
▁పద్ధతి	-10.5839
▁వీళ్ల	-10.5843
▁హృదయ	-10.5843
▁సేప	-10.5846
▁జాన్	-10.5849
లేకపోయింది	-10.5853
▁అట	-10.5855
▁జూబ్లీహిల్స్	-10.5856
▁ప్రాక్టీస్	-10.5856
▁ల్యాండింగ్	-10.5856
▁యాపిల్	-10.5856
▁ప్రభావిత	-10.5856
▁చట్టపర	-10.5857
స్తున్నారని	-10.5858
▁అయిదు	-10.5861
ur	-10.5868
▁సమావేశాల్లో	-10.5874
▁సెక్స్	-10.5875
▁ట్యాక్స్	-10.5876
▁చెల్లించాల్సి	-10.5877
▁వాక	-10.5878
70	-10.5878
▁85	-10.5881
▁పిచ్	-10.5883
▁వహిస్తున్న	-10.5883
▁చేయలే	-10.5889
▁మండిపడుతున్న	-10.5898
▁ైనా	-10.5903
▁నం	-10.5909
చే	-10.5911
▁జర్నలిస్ట్	-10.5913
▁నివారణ	-10.5913
▁వసతి	-10.5913
▁అపార్ట్	-10.5913
▁తెరకెక్క	-10.5914
▁నడిపించ	-10.5915
▁పరువు	-10.5915
▁చార్జ్	-10.5915
▁భావిస్త	-10.5916
▁ಇ	-10.5918
▁రియా	-10.5918
▁పెను	-10.592
▁పీజీ	-10.5923
▁నటించారు	-10.5925
▁ప్	-10.5926
▁చెలరేగి	-10.5935
▁చూపుతున్న	-10.5936
▁ఎగ్జామ్	-10.5938
▁ప్రవేశపెట్టి	-10.594
▁హ్యాండ్	-10.595
▁వెంకటేశ్వర	-10.5951
▁విరుద్ధం	-10.5956
▁వడ	-10.5956
45	-10.5957
▁నడిచే	-10.5959
▁వదులు	-10.5964
▁చేరుకో	-10.5965
▁ాయ	-10.5971
▁అంతర్గత	-10.5971
▁ఠాకూర్	-10.5971
▁లైసెన్స్	-10.5971
▁వివేకానంద	-10.5971
▁వీలైన	-10.5971
▁రాంబాబు	-10.5971
▁చేస్తోన్న	-10.5971
▁ఎస్ఐ	-10.5974
▁హోమ్	-10.5977
▁ఫ్లోర	-10.5977
▁క్షేత్ర	-10.5978
▁నీల	-10.5979
▁ంచే	-10.5981
▁ଅ	-10.5981
▁ాము	-10.5984
▁చెన్నైలో	-10.5988
▁వస్తార	-10.599
▁టెలి	-10.5991
▁نہیں	-10.5992
▁సమన్వయం	-10.5994
▁ఫో	-10.5999
▁మళ్లించ	-10.6002
▁ముమ్మరం	-10.6003
ఢ	-10.6003
▁మెయిల్	-10.6004
మూర్తి	-10.6004
▁ప్రమాణాల	-10.6007
చోట్ల	-10.6007
▁పత్రం	-10.6012
▁దత్త	-10.6013
▁చేసుకుంటూ	-10.6019
▁అదృష్టం	-10.6019
▁బ్యాలెట్	-10.6029
▁శ్రావణ	-10.6029
▁సేకరణ	-10.6029
▁జాయింట్	-10.6029
▁పాజిటివ్	-10.6029
▁విస్తీర్ణం	-10.6032
▁టిక్	-10.6034
▁ప్యాకేజీ	-10.6035
▁చూశారు	-10.6035
▁2004	-10.6035
పడి	-10.6044
▁కశ్మీర్	-10.6047
▁ఉంచారు	-10.6047
▁పోయిందని	-10.6049
▁సృష్టించి	-10.6053
▁సామ	-10.6053
▁మూర్తి	-10.6053
▁చు	-10.6054
▁ఛాంపియన్	-10.6054
▁నిబంధన	-10.6064
▁ధా	-10.6066
▁ఉంచి	-10.6068
▁తాయ	-10.6072
▁నాలుగేళ్ల	-10.6074
▁హాఫ	-10.6074
▁ఎకరాలు	-10.6074
on	-10.6075
పోయి	-10.6079
ాడ	-10.608
డ్స్	-10.6087
ೈ	-10.6087
▁కార్యవర్గ	-10.6088
▁కురిపించ	-10.6088
▁ఎగ్జిక్యూట	-10.6088
▁యూజర్	-10.6089
▁నన్నారు	-10.609
▁జెండర్	-10.6091
▁ఓబీసీ	-10.6091
▁ఎలాగైన	-10.6092
▁53	-10.6092
▁కుమారుడి	-10.6095
▁లేకపోయినా	-10.6097
▁ందున	-10.61
▁తీసుకొచ్చింది	-10.6101
▁అందిస్తుంది	-10.6102
▁ఆర్ఎస్	-10.6105
ధర్	-10.6107
▁వేస్తే	-10.6114
▁ఫ్ర	-10.6116
▁లాగే	-10.6117
▁తీస్త	-10.6117
▁గాయాల	-10.6119
▁ప్రయత్నించారు	-10.612
40	-10.6121
▁బంధం	-10.6125
▁ہ	-10.6127
శా	-10.6131
▁పంపారు	-10.6141
▁విగ్రహాల	-10.6144
▁అనకాపల్లి	-10.6146
▁బెనర్జీ	-10.6146
▁విసిరారు	-10.6146
▁ముగింపు	-10.6146
▁విజయనగరం	-10.6146
▁సంపూర్ణ	-10.6146
▁బస్టాండ	-10.6146
▁అధ్యక్షురాలు	-10.6147
▁గుడివాడ	-10.6147
▁శరత్	-10.6148
డియా	-10.615
▁క్యాప్	-10.6151
ుకుంటున్నారు	-10.6154
▁స్తా	-10.6156
▁గురయ్య	-10.6157
▁నియమించారు	-10.6161
▁నమ్మి	-10.6161
▁దగ్గరి	-10.6162
▁మారడం	-10.6165
▁ఆస్కార్	-10.6167
ాఫ్	-10.617
▁పరిచ	-10.6171
▁అనుమతులు	-10.6173
▁ముస్లింల	-10.6176
▁పల్లిలో	-10.6177
▁కక్ష	-10.6177
▁దేవర	-10.618
▁ఉండాల్సి	-10.6184
▁ప్రకటిస్త	-10.6185
▁m	-10.6187
▁గంగ	-10.6188
▁విధి	-10.6193
▁కాలు	-10.6195
య్యే	-10.6198
▁తీసే	-10.6202
▁స్థలంలో	-10.6204
▁డైరెక్షన్	-10.6206
▁వైజాగ్	-10.6206
▁ಎಂದ	-10.6206
▁వేములవాడ	-10.6206
▁మెంబర్	-10.6207
▁అల్పపీడనం	-10.621
▁బస్టర్	-10.621
▁బర్త్	-10.621
▁ఉత్సాహం	-10.621
▁గురువు	-10.6211
ానంద	-10.6214
▁కోవ	-10.6215
▁కింది	-10.6219
୍ୟ	-10.6219
ల్లి	-10.6222
ir	-10.6231
▁టప్పుడ	-10.6237
▁కేజీల	-10.6238
▁సైనికులు	-10.6238
as	-10.6238
▁అడ్డుకున్నారు	-10.6239
▁కురిసి	-10.6239
తుగా	-10.6239
ిపి	-10.6242
▁ప్రమాదాలు	-10.6242
▁వచ్చాయని	-10.6243
▁ఎత్త	-10.6243
▁అవకాశ	-10.6245
▁రాజ్యం	-10.6246
▁దాన	-10.6247
▁అడగ	-10.6249
▁పడుతున్నాయి	-10.625
▁బహిరంగంగా	-10.6254
▁విద్యార్థిని	-10.6255
ह	-10.6257
▁అనుకుంటున్న	-10.6258
▁తాగునీటి	-10.6265
▁సుల్తాన	-10.6265
▁వంతెన	-10.6265
▁టైగర్	-10.6266
▁రామకృష్ణారెడ్డి	-10.6266
▁స్ట్రాంగ్	-10.6266
▁నిమిషాలు	-10.6266
▁లెక్కింపు	-10.6266
▁ట్రైనింగ్	-10.6266
▁రాయల్	-10.6267
▁థ్రిల్లర్	-10.6268
▁రక్తం	-10.6268
▁ప్రీతి	-10.6269
▁پی	-10.6269
▁పోర్టల్	-10.627
▁بی	-10.627
▁నిర్మాణాలు	-10.627
▁లేకుండానే	-10.6271
▁అజిత్	-10.6271
▁పడిపోయ	-10.6272
▁పట్టి	-10.6272
▁ాల్సిందే	-10.6276
.100	-10.6284
ండటం	-10.6287
▁కనిపిస్తాయి	-10.629
▁యోగ	-10.6291
▁రాదు	-10.6291
▁250	-10.6292
▁యో	-10.6292
▁క్రీడా	-10.6295
▁కార్లు	-10.6296
ెప్ప	-10.63
▁ప్రభుత్వాల	-10.6305
▁ఓడి	-10.6309
▁విడాకులు	-10.631
▁మగ	-10.6311
రణ్	-10.6311
ఛ	-10.6313
▁రిజిస్టర్	-10.6325
▁హిమాచ	-10.6325
▁వేధించ	-10.6325
▁క్రేజ్	-10.6326
▁శేఖర్	-10.6326
▁అడిగితే	-10.6328
▁చురు	-10.633
▁అభినందనలు	-10.6331
▁కారణంగానే	-10.6339
▁ప్రకటనలు	-10.6339
▁పాండ్యా	-10.6339
▁బండ్ల	-10.6341
▁ప్రశ్నించ	-10.6342
▁రాధా	-10.6345
డీవో	-10.6345
▁కుమారి	-10.6346
▁వదిలేసి	-10.6346
వరకు	-10.6347
▁కాల్చి	-10.635
il	-10.6351
▁ఎకరా	-10.6354
▁టీజీ	-10.6355
రత్న	-10.6366
▁అనుసరించ	-10.6368
▁ఘర్షణ	-10.6368
▁దెబ్బతిన్న	-10.6372
▁సంబంధ	-10.6373
▁కాలుష్యం	-10.6374
▁ప్రి	-10.6377
▁నాయ	-10.6383
▁రోజే	-10.6383
▁సానుభూతి	-10.6385
▁ఇంజనీర్	-10.6385
▁2013	-10.6385
▁ఎఫ్ఐఆర్	-10.6385
▁అంతరాయం	-10.6385
▁మిమ్మల్న	-10.6385
▁రెండింటి	-10.6385
▁ధ్య	-10.6388
ెండర్	-10.6391
▁హసన్	-10.6391
▁జర్మనీ	-10.6391
▁డీపీ	-10.6391
▁స్నేహితులు	-10.6392
▁టవర్	-10.6394
▁ఆగస్ట	-10.6395
▁7,	-10.64
▁చై	-10.6401
▁కౌ	-10.6403
▁6,	-10.6405
▁సంబరాలు	-10.6407
▁నమ్మక	-10.6408
▁డ్రోన్	-10.6408
ిటీ	-10.641
▁పరిమితి	-10.6411
▁ఏంట	-10.6413
▁విభేదాలు	-10.6413
▁తగ్గుతుంది	-10.6414
▁చిక్కుకున్న	-10.6424
▁హోల్	-10.6425
ేశ్వర	-10.6426
▁పెంచి	-10.6431
▁మహేశ్వర	-10.6432
▁మిత్ర	-10.6433
▁రుణాల	-10.6439
▁వరదలు	-10.6439
▁మృతదేహాల	-10.6442
▁ప్రపంచకప్	-10.6446
▁లక్ష్మీదేవి	-10.6446
▁తీసుకురావాలన	-10.6447
▁రాయితీ	-10.6447
▁ఇన్ఫెక్షన్	-10.6447
సిపి	-10.6448
▁వాస్తు	-10.6448
ియస్	-10.6451
▁భగవంత	-10.6451
▁కాస్ట్	-10.6452
▁అనర్హ	-10.6453
▁వైద్యుల	-10.6453
▁చేయగల	-10.6454
▁బుల్	-10.6455
▁తాత	-10.6456
ృత	-10.6457
▁రాత్ర	-10.6458
▁పెంచడం	-10.646
▁పదవీ	-10.646
▁మల	-10.6461
▁విభాగాల	-10.6463
రకంగా	-10.6463
▁ଆ	-10.6465
▁సంక్షోభం	-10.6465
▁జీవించ	-10.6466
▁పొలం	-10.6467
▁వైసీపీలో	-10.6469
▁నష్టపోయి	-10.6472
ପ	-10.6476
▁అగ్రనేత	-10.6481
రన్	-10.6482
▁ఈయన	-10.6485
▁తొలగించి	-10.6486
▁ఫ్రా	-10.6487
బీర్	-10.6489
▁ఉపయోగ	-10.6491
▁కుంటున్న	-10.6492
▁పూట	-10.6503
▁ఆకాంక్ష	-10.6506
▁పరిసర	-10.6506
▁ఖైరతాబాద్	-10.6507
▁పౌర్ణమి	-10.6507
▁విరమణ	-10.6507
▁పెండ్లి	-10.6507
▁జగనన్న	-10.6507
▁అస్సాం	-10.6507
▁బొత్స	-10.6507
▁ఎర్రబెల్లి	-10.6507
▁ట్రా	-10.6508
▁గనుల	-10.6509
▁బాలుడు	-10.6511
▁పడిపోయింది	-10.6522
▁నవ్వ	-10.6524
▁రాజ్య	-10.6525
చేసి	-10.6526
▁డెంగ	-10.653
▁ఏర్పడి	-10.6532
▁మారు	-10.6533
▁చేసేవారు	-10.6534
▁చేశార	-10.6541
.40	-10.6541
▁చెక్క	-10.6547
▁పౌరుల	-10.6547
▁రికార్డుల	-10.6552
▁వినిపిస్తో	-10.6553
▁బోయ	-10.6553
▁డిసైడ	-10.6554
▁అభి	-10.6557
ీలాండ	-10.6559
▁అనౌన్స్	-10.6568
▁క్యూసెక్కుల	-10.6568
▁సరిపడా	-10.6568
▁స్వర్ణ	-10.6568
▁వైయస్	-10.6568
▁జ్వరం	-10.6569
▁.?	-10.6569
▁బాటిల్	-10.6569
▁పరిసరాల	-10.657
▁ఆలయాల	-10.6575
▁తెచ్చిన	-10.6576
▁నిమిషం	-10.6578
▁సుమన్	-10.6578
▁ఛా	-10.658
▁నడుపుతున్న	-10.6582
▁నిలిచిపోయ	-10.6583
▁చూస్తుంటే	-10.6585
j	-10.6589
▁అవే	-10.6595
జం	-10.6595
▁ంటాయి	-10.6596
▁హల్	-10.6599
▁తాన	-10.6604
▁ఆహ్వానం	-10.6609
▁195	-10.661
▁లంక	-10.6611
▁పీఎస్సీ	-10.6613
ସ	-10.6613
▁మంత్రివర్గం	-10.6614
పోతున్నారు	-10.6615
▁మిలియన్ల	-10.6616
ون	-10.6619
▁AI	-10.6625
▁అహ్మదాబాద్	-10.663
▁కాంట్రాక్టు	-10.663
▁రవితేజ	-10.663
▁రిటైర్మెంట్	-10.663
ెల	-10.6631
▁రాళ్లు	-10.6631
▁సమర్పించి	-10.6632
▁కలర్	-10.6636
▁ప్రాతిపదిక	-10.664
▁ఖాళీగా	-10.664
కుంట	-10.6645
▁పరిణామం	-10.6646
▁ఏంటో	-10.6649
▁బర్గ్	-10.6649
▁నడుస్తున్న	-10.6653
▁88	-10.6653
▁లాంటివి	-10.6654
ుకుంటూ	-10.6655
▁జానీ	-10.6658
▁ఎంపీల	-10.6659
▁రాలేదని	-10.6661
▁ఉమ	-10.6665
▁ఖాతాల	-10.6665
▁సంతరించుకు	-10.6666
▁వెళ్త	-10.6666
▁क	-10.6668
▁పెంచే	-10.6668
▁ఫాలో	-10.6669
▁ందన్న	-10.6673
ಲಿ	-10.6678
▁బాబా	-10.668
▁రకమై	-10.668
▁न	-10.6681
▁నిలవ	-10.6681
పక్ష	-10.6683
▁పాలక	-10.6685
త్రా	-10.6686
ట్టే	-10.6688
▁అకాడమీ	-10.6692
▁ప్రస్తావన	-10.6692
▁వైకుంఠ	-10.6692
▁జీర్ణ	-10.6692
▁భద్ర	-10.6692
▁డ్రైవ్	-10.6694
▁జరగనున్నాయ	-10.6695
▁నిధి	-10.6695
▁ఫారమ్	-10.6695
▁ప్రయత్నించిన	-10.6695
▁మలయాళ	-10.6696
▁చార్	-10.6697
▁వెళ్లాల్సి	-10.6697
▁ఎన్నడ	-10.6699
▁జార్జ	-10.6699
▁నలుగురి	-10.6701
గ్ర	-10.6701
ಾಗಿ	-10.6705
▁తీసుకొచ్చి	-10.6712
▁వీరిద్దరి	-10.6718
▁క్లి	-10.672
▁నిలబడి	-10.6721
▁క్రీడల	-10.6722
▁ز	-10.6723
▁ఓడిపోయ	-10.6725
▁అవకాశాలున్నాయ	-10.6727
▁కుంటున్నారు	-10.6733
▁ప్లస్	-10.6738
▁రాశులవారి	-10.6742
▁చెప్పు	-10.6743
▁వ్యాధులు	-10.6752
ేతర	-10.6753
▁పోవ	-10.6754
▁వేణు	-10.6754
▁తీర్చిదిద్ద	-10.6754
▁కంప్లీట్	-10.6754
▁గరిష్ట	-10.6754
▁బ్యూరో	-10.6754
▁సిఫార్సు	-10.6754
▁వాషింగ్టన్	-10.6755
▁p	-10.6755
▁ಮತ್ತ	-10.6755
▁జీఎస్టీ	-10.6755
▁లెటర్	-10.6757
▁జూపల్లి	-10.6758
▁యువకుల	-10.6758
▁శాస్త్రం	-10.676
▁ఏలూరు	-10.6763
▁గురై	-10.6765
▁ప్పటి	-10.6765
▁కెమెరాల	-10.6768
ెండ్	-10.6774
▁అడ్డం	-10.6776
▁డబ్ల్యూ	-10.6779
▁బలి	-10.6783
▁వ్యాపారవేత్త	-10.6783
▁ఫైనల్లో	-10.6789
▁ఇస్తార	-10.679
▁ఓం	-10.6792
▁మల్ల	-10.6792
▁రెట్లు	-10.6792
ఇందిరమ్మ	-10.6793
▁రాల	-10.6799
▁నోటీసుల	-10.68
▁సహజంగా	-10.6804
ma	-10.6804
▁ఇప్పటివరక	-10.6804
▁నగరాల	-10.6813
టమే	-10.6814
▁డబ్బ	-10.6815
▁అన్నట్లు	-10.6815
▁మైనర్	-10.6816
▁మార్కులు	-10.6817
▁ಆದ	-10.6817
▁డైరెక్టరేట్	-10.6817
▁సుధీర్	-10.6817
▁పీపుల్	-10.6817
▁చూద్దాం	-10.6818
▁వివక్ష	-10.6818
▁నిలిచి	-10.6818
▁ಪ್ರ	-10.6819
్యున్నత	-10.6819
▁అయ్యప్ప	-10.6819
▁అభ్య	-10.6819
▁తగ్గిన	-10.6821
▁కూర	-10.6829
▁సముద్రం	-10.683
▁స్తుంద	-10.6831
▁ఆదరణ	-10.6832
▁గాయాలయ్యాయి	-10.6838
▁గాయపడ్డార	-10.6841
▁లోపే	-10.6841
▁సృష్టించింది	-10.6842
▁చూస	-10.6843
▁చెల్ల	-10.6845
డె	-10.6848
▁సందర్శించి	-10.6854
▁సర్వీస	-10.6854
మవుతోంది	-10.6855
▁సామాజికవర్గ	-10.6856
▁రామచంద్ర	-10.6857
▁నంది	-10.6861
▁థా	-10.6861
▁యూనిట్ల	-10.6862
▁ప్రాసెస్	-10.6863
▁ఉదాహరణ	-10.6866
▁ంచింది	-10.6867
▁ప్రమాణం	-10.687
▁కొట్టే	-10.6872
▁h	-10.6874
▁విప్	-10.6874
▁వీడి	-10.6874
▁మహమ్మద	-10.688
ڑ	-10.688
▁ఇంజిన్	-10.6881
▁భువనేశ్వరి	-10.6881
▁మార్పిడి	-10.6881
▁తాడేపల్లి	-10.6881
▁నరేందర్	-10.6881
▁లిఫ్ట్	-10.6881
▁విశ్రాంతి	-10.6881
▁రాజమౌళి	-10.6881
▁ఆత్మీయ	-10.6882
▁వని	-10.6882
▁మొక్కులు	-10.6884
▁సమావేశమయ్య	-10.6884
▁ఏంటంటే	-10.6887
▁ବ	-10.6889
రాం	-10.689
▁ట్రేడ్	-10.6891
▁కాళ్ల	-10.6893
ిన్	-10.6894
▁అమ్ముతున్న	-10.69
▁చర్చి	-10.69
▁రకం	-10.6902
లాల్	-10.6905
▁హబ్	-10.6907
▁ఫాం	-10.6908
▁పారిస్	-10.6909
స్తామన్నారు	-10.6913
డానికే	-10.6914
▁మల్లు	-10.6921
▁నియామకం	-10.6922
సలార్	-10.6923
▁కస్టమర్ల	-10.6926
▁బోనాల	-10.6932
▁పొందుత	-10.6935
▁మాయ	-10.6938
▁దళితుల	-10.694
▁ఇమ్రాన్	-10.6944
▁రాఖీ	-10.6944
▁నైరుత	-10.6944
▁జడ్పీటీసీ	-10.6945
▁నల్లగొండ	-10.6945
▁శ్రీనివాసరావు	-10.6946
ుబాటు	-10.6947
▁తప్పి	-10.6949
▁చూడటం	-10.6952
▁వర్షాకాలం	-10.6955
▁విధించిన	-10.6958
▁ఉదాహరణకు	-10.6959
▁పద్ధతిలో	-10.6963
▁అయ్యర్	-10.6964
▁తొలగి	-10.6964
▁చెరువుల	-10.6967
▁చేరే	-10.6969
▁గే	-10.697
▁ప్రాజెక్టులు	-10.6976
▁చెందింది	-10.6976
▁లీడ్	-10.6981
▁ఘాటు	-10.6982
▁థియేటర్ల	-10.6983
▁అవుతార	-10.6984
యాన్	-10.6984
▁కుర్ర	-10.6985
▁వెంకటేశ్	-10.6986
▁అత్త	-10.6987
▁చాల	-10.699
▁భాగస్వామ్యం	-10.6996
▁ించడం	-10.7
ఫర్	-10.7002
اتھ	-10.7008
▁శివాజీ	-10.7008
▁ఆకలి	-10.7009
▁ل	-10.701
▁హెల్ప	-10.7011
▁అవుతాయి	-10.7015
▁రేపి	-10.7016
పోతు	-10.7018
▁నివసించే	-10.7021
▁ఓడించి	-10.7022
▁దన్నారు	-10.7023
▁r	-10.7024
▁పనికి	-10.7024
▁అతిథి	-10.7025
▁హర్ష	-10.7026
▁ఆధిక్యం	-10.703
▁టీచర్లు	-10.703
▁మహేంద	-10.7031
▁ిస్తారు	-10.7037
▁కోవడానిక	-10.7037
▁చేసినప్పుడు	-10.704
▁చనిపోయాడు	-10.704
▁కోరుకుంట	-10.7044
ోర్	-10.7046
▁మొక్కలు	-10.7046
▁సిమ్	-10.7047
▁జాతకుల	-10.7062
వాన్	-10.7063
▁ఆరోపిస్త	-10.7069
స్తారు	-10.7072
بھی	-10.7073
▁ఈశాన్య	-10.7073
▁కరెన్సీ	-10.7073
▁అరేబియా	-10.7073
▁ఆఫ్రికా	-10.7073
▁శ్రీకారం	-10.7073
▁కనెక్ట	-10.7073
▁సెప్టెంబరు	-10.7073
▁సాగుతున్న	-10.7074
▁చేయాలన్న	-10.7075
▁ପ	-10.7076
▁కావాల్సి	-10.7079
▁షమీ	-10.7083
▁ఇంతక	-10.709
▁డోర్	-10.7091
▁మెడల్	-10.7092
▁చేయించారు	-10.7095
17	-10.7096
▁వద్దు	-10.7096
▁పూర్తయిన	-10.7096
▁74	-10.71
▁మౌ	-10.7101
تا	-10.7104
▁పిక్	-10.7104
▁కొనే	-10.7104
▁సెక్షన్ల	-10.7107
▁చేయబోతున్న	-10.7108
▁కపూర్	-10.7109
మైంది	-10.7111
▁ఎవ	-10.712
▁మీటర్లు	-10.712
▁నిరోధక	-10.7121
▁నామినేషన్ల	-10.7122
▁పోవడ	-10.7126
ಹ	-10.7128
▁మోసాల	-10.7128
తులు	-10.7132
▁ఉగ్రవాద	-10.7132
శ్రీ	-10.7133
▁స్వదేశ	-10.7138
▁ఇష్యూ	-10.7138
▁కారిడార్	-10.7138
▁షాపింగ్	-10.7138
▁తరుపు	-10.7138
▁వసంత	-10.7138
▁కొన్నేళ్ల	-10.7138
▁హార్దిక	-10.7138
▁అక్కడక్కడ	-10.7139
▁ఉల్లి	-10.714
▁కణాల	-10.7141
▁చిన్నారుల	-10.7141
▁పుట్టినరోజు	-10.7143
▁విజయాలు	-10.7151
▁బలగాల	-10.7154
▁e	-10.7154
▁రుణం	-10.7158
▁విడి	-10.7159
▁నోరు	-10.716
▁తగ్గించడం	-10.716
▁రాస	-10.7164
▁ఇన్ని	-10.7164
▁తిరుగు	-10.7178
80	-10.7186
ఇ	-10.7186
▁బ్	-10.7189
▁ಎ	-10.7191
డీఎంకే	-10.7197
et	-10.7201
▁చంద	-10.7201
▁సేన	-10.7202
▁కులగణన	-10.7203
▁సప్లై	-10.7203
▁సౌతాఫ్రికా	-10.7203
పర్సనల్	-10.7203
▁వారసత్వ	-10.7203
▁అర్వింద్	-10.7203
▁నియంత్రించ	-10.7203
▁అరికట్ట	-10.7203
▁ప్రణాళికలు	-10.7204
▁బానిస	-10.7205
▁మోప	-10.7206
▁బెట్టింగ్	-10.7209
▁ప్రయాణిస్తున్న	-10.7209
▁جس	-10.7211
▁సీతారామన్	-10.7211
▁పెరిగ	-10.7211
▁ఇలాగ	-10.7213
▁రకాలుగా	-10.7213
▁అదృష్ట	-10.7215
▁71	-10.7217
▁ఎట్ట	-10.7221
▁గుండ	-10.7228
▁మొదలయ్యాయ	-10.7231
▁జనాలు	-10.7231
న్సీ	-10.7231
▁స్కీం	-10.7233
▁టేక	-10.7235
▁ఏరియాలో	-10.7236
▁చంద్రుడిపై	-10.7238
▁గెలిచింది	-10.7239
▁సిపి	-10.7242
▁వింత	-10.7243
▁స్పూన్	-10.7243
▁సంభవించ	-10.7247
▁చూ	-10.7249
▁సార్	-10.725
్నారు	-10.7252
▁స్థాపించ	-10.7252
म	-10.7261
వారీ	-10.7263
न	-10.7263
and	-10.7264
▁వ్యా	-10.7267
▁గిరిజనుల	-10.7268
▁కమ్	-10.7268
▁ఎపిసోడ్	-10.7269
▁ఫంక్షన్	-10.7269
▁తొందర	-10.7269
▁కల్పన	-10.7269
▁ಎಂಬ	-10.7269
డుతున్న	-10.7269
▁హింసాత్మక	-10.727
▁అల్లం	-10.7272
▁కులం	-10.7272
▁రావడ	-10.7272
▁పీఆర్	-10.7276
▁కోల్పో	-10.7276
▁ఆకట్టుకున్న	-10.7278
▁పరిశోధకులు	-10.7282
▁కట్టడి	-10.7285
దర్శించుకున్నారు	-10.7285
▁పరిగణించ	-10.7286
▁కేశ	-10.7288
నుకున్న	-10.7289
కట్ట	-10.7289
ెడ	-10.729
▁రాజ్యాంగం	-10.7294
▁చైనాలో	-10.7308
▁లాండ్	-10.7313
▁దక్కుతుంద	-10.7322
▁వేట	-10.7322
▁ఉద్రిక్త	-10.7324
▁అన్నాడు	-10.7324
▁శవ	-10.7328
▁బృందాలు	-10.7332
▁కోణంలో	-10.7333
▁జగదీశ్	-10.7334
▁గజ్వేల్	-10.7335
▁వేరియంట్	-10.7335
▁షాకింగ్	-10.7335
▁ప్రజ్వల	-10.7336
▁అల్లర్ల	-10.7336
▁నితీష	-10.7337
▁సూర్యుడి	-10.7337
▁క్యాచ్	-10.7338
▁అవార్డుల	-10.734
▁చట్టంలో	-10.7341
▁మరణాల	-10.7343
▁అవిశ్వాస	-10.7344
▁62	-10.7346
▁నెట్టింట	-10.7346
▁చెట్లు	-10.7349
▁నినాదం	-10.7349
▁వాసులు	-10.735
▁బెల్లం	-10.7351
▁ಿ	-10.7353
▁పంచుకున్నారు	-10.7353
ಳ	-10.7356
▁وال	-10.7357
▁డీఆర్	-10.7364
ఫేర్	-10.7368
▁అర్	-10.7371
▁శివారులో	-10.7372
▁వెళ్తే	-10.7374
▁భావిస్తారు	-10.7376
వడంతో	-10.7377
▁కొట్టింది	-10.7379
▁ముక్కు	-10.7381
▁ఉస్మాన	-10.7385
▁ంచడం	-10.7387
▁ంచాడు	-10.7399
▁విపక్షాల	-10.7399
▁నరసింహ	-10.7402
▁నితీశ్	-10.7402
▁మునుగోడు	-10.7402
▁రష్మిక	-10.7402
▁ఊపిరి	-10.7402
▁కూకట్	-10.7402
▁కుర్చీ	-10.7402
▁జామ్	-10.7406
▁61	-10.7407
▁సూర్యుడు	-10.7407
▁మారిపోయింది	-10.7407
▁వ్యాయామం	-10.7408
▁మల్	-10.7409
▁వెళ్ళి	-10.7415
▁ఇత	-10.7416
▁మిగిలి	-10.742
▁షాపు	-10.7424
▁అవుతూ	-10.7427
ిస్తోంది	-10.7429
▁ఐడీ	-10.743
తున్న	-10.743
కావాలంటే	-10.743
▁న్యాయవాదులు	-10.7432
▁అసెంబ్లీకి	-10.7437
▁స్టడీ	-10.7438
్రి	-10.7438
▁ہم	-10.744
▁రాములు	-10.744
▁ఫండ్	-10.744
▁దెబ్బతి	-10.7442
▁76	-10.7442
▁శ్వాస	-10.7443
▁శారీరక	-10.7443
▁తిరగ	-10.7444
▁రంగాల	-10.7444
▁వాయిస్	-10.7445
▁అందిన	-10.7446
▁అనుకున్నారు	-10.7448
▁కొట్టారు	-10.7449
▁క్రమ	-10.7455
f	-10.7458
▁2000	-10.7463
▁ఏజెంట్	-10.7464
లయ	-10.7465
▁ఆకస్మిక	-10.7469
▁చేవెళ్ల	-10.7469
▁భగీరథ	-10.7469
▁రాథోడ్	-10.7469
▁పొరుగు	-10.7469
▁ఆదిత్యనాథ్	-10.7469
▁చేశానని	-10.747
▁అప్లై	-10.7471
▁మర్చిపో	-10.7471
▁బ్యాక్టీరియా	-10.7474
▁రహస్య	-10.7475
ేసింది	-10.7475
▁చేయకపోవడం	-10.7481
▁గోవింద	-10.7481
▁నై	-10.7482
▁మద్య	-10.7485
▁ోళ్ల	-10.7487
▁రాము	-10.7492
▁రూం	-10.7493
యింది	-10.7497
▁పాడు	-10.7498
▁ఇంద్ర	-10.7505
▁యూనివర్సిటీలో	-10.7509
ام	-10.7509
▁Y	-10.7509
▁చేస్తూనే	-10.7509
▁మహి	-10.7509
▁ವಿ	-10.751
▁స్వా	-10.7516
▁చంపే	-10.7517
▁తేలి	-10.7517
▁గ్రహణ	-10.7517
పీహెచ్	-10.7518
▁ఈవీఎంల	-10.7519
▁ప్రీత్	-10.7522
▁పేర్ల	-10.7523
▁స్తోన్న	-10.7523
▁ఒడి	-10.7527
▁పాటలు	-10.7528
థ్	-10.7528
▁ఐద	-10.7529
▁కోరుతున్న	-10.7534
▁98	-10.7536
▁సబ్సిడీ	-10.7537
▁అభ్యర్దుల	-10.7537
▁పల్నాడు	-10.7537
▁బహుమతి	-10.7537
▁మర్యాద	-10.7537
▁టూరిజ	-10.7537
▁మేషరాశి	-10.7537
▁పరిషత్	-10.7537
▁ఎడమ	-10.7537
▁ధోని	-10.7537
▁అనిపిస్తుంది	-10.7537
సోలార్	-10.754
▁వాడకం	-10.7541
▁కావాల	-10.7541
▁నివేదికలు	-10.7541
నవంబర	-10.7543
▁పోస్ట	-10.7543
▁2008	-10.7544
▁చేస్తున్నార	-10.7545
ారాయన	-10.7546
▁జోష్	-10.7548
▁బౌలర్లు	-10.755
▁స్టైల్	-10.755
▁సమర్థ	-10.7552
▁అభిమాని	-10.7553
▁ఎల	-10.756
▁పరిశ్రమలో	-10.7561
▁లేదనే	-10.7561
▁యోగీ	-10.7562
▁దరఖాస్తుల	-10.7562
గొండ	-10.7564
▁పాక	-10.7564
▁ఫేమస్	-10.7565
▁ప్రారంభంలో	-10.7569
▁అరి	-10.7571
▁ఆద్	-10.7578
▁దోమల	-10.7578
un	-10.7579
▁హేమ	-10.758
తున్నారు	-10.7581
స్టర్	-10.7582
▁తీసుకుంటారు	-10.7583
▁ముడి	-10.7587
▁బౌ	-10.7592
▁భక్తి	-10.7595
▁యాడ్	-10.7598
स	-10.7601
ండీ	-10.7602
క్ట్	-10.7603
▁స్తాం	-10.7604
▁నెరవేర	-10.7604
▁అనుసంధాన	-10.7605
▁ఖరీదైన	-10.7605
▁జనార్దన	-10.7605
▁ట్రయల్	-10.7605
▁గుప్పించారు	-10.7605
▁హ్యాపీ	-10.7605
▁లైవ్	-10.7608
▁దక్షిణాది	-10.7608
▁್	-10.761
▁దివ్య	-10.7612
▁n	-10.7613
▁కలిగిస్తుంది	-10.7614
▁యంత్రాంగం	-10.7617
ంటున్నారు	-10.7618
▁రచ్చ	-10.7618
▁కావచ్చు	-10.7618
గానో	-10.7619
▁లేడీ	-10.7619
▁గెలిచే	-10.762
▁గ్రా	-10.7621
▁రిష	-10.7631
▁లేమ	-10.7632
▁డాన్	-10.7632
▁పెట్టాడు	-10.7636
▁సభల్లో	-10.7636
▁కాకా	-10.7637
▁హస్తం	-10.7638
▁ఉపయోగించే	-10.7639
▁ుకోవడం	-10.7642
▁వహిస్త	-10.7648
ెత్త	-10.7648
▁పెరుగుతుంద	-10.7652
▁టెంప	-10.7655
▁విధుల	-10.7659
▁పడవ	-10.7666
▁పుట్టి	-10.7666
▁కిలోమీటర్లు	-10.7667
▁వేదికపై	-10.7667
▁వైన్	-10.7667
▁వ్యతిరేకించ	-10.7669
▁చేరుకుంటార	-10.767
▁పుష్కలం	-10.7673
▁సెక్టార్	-10.7673
▁చమురు	-10.7673
▁కాంబో	-10.7673
▁లెవెల్	-10.7673
▁నష్టాల	-10.7675
▁డీఎస్సీ	-10.7675
▁పర్యటించనున్న	-10.7677
పుర	-10.7677
▁వ్యక్త	-10.7679
▁డిపో	-10.7685
ಗೆ	-10.7686
▁తుఫాను	-10.7686
▁పోల	-10.7688
ور	-10.77
▁స్టూడెంట్	-10.7702
▁ప్రయోగ	-10.7703
▁పల్లా	-10.7704
▁విమర్శించ	-10.7716
▁چ	-10.7717
▁ఏడాదిలో	-10.7727
▁కోరుకున్న	-10.773
ो	-10.7741
▁కురు	-10.7741
▁అగ్రికల్చర	-10.7742
▁ప్రిన్సిపల్	-10.7742
▁గద్దె	-10.7742
▁రాజగోపాల	-10.7742
▁మినహాయింపు	-10.7742
▁మోత	-10.7742
▁ప్రాముఖ్యత	-10.7744
▁తాడ	-10.7745
▁ఆర్డీవో	-10.7748
▁రోవర్	-10.7749
▁చూస్తా	-10.7749
▁ఉత్సవాలు	-10.775
▁అభినందించార	-10.7754
▁గార్డెన్	-10.7755
▁జరగలేదు	-10.7756
▁వెనుకబడి	-10.7757
▁ప్రసాదం	-10.7759
ಕೆ	-10.776
▁వారని	-10.7766
▁ాన	-10.7767
▁బోయిన	-10.7769
▁నర్	-10.7772
▁కోర్	-10.7772
▁నడవ	-10.7772
▁సంఘటనల	-10.7777
▁పర్వత	-10.7777
▁వ్యూహాల	-10.7777
▁సందర్భంలో	-10.7789
లేకపోయారు	-10.7789
ڈ	-10.779
▁ఇదివరక	-10.7792
▁కొనసాగుతున్నాయ	-10.7809
▁అడవి	-10.7809
▁సమావేశమై	-10.781
▁గారు	-10.7811
▁వృషభ	-10.7811
▁ఇంజనీరింగ్	-10.7812
▁రౌండర్	-10.7812
▁అణు	-10.7812
▁సరదా	-10.7813
▁రౌ	-10.7814
▁సంధ్య	-10.7814
▁c	-10.7816
▁చదర	-10.7817
▁ముక్కలు	-10.7817
▁గ్రే	-10.7819
▁73	-10.7819
▁అందిస్తోంది	-10.7822
డైన	-10.7823
▁సభలు	-10.7823
▁ప్రారంభోత్సవ	-10.7824
ాయ్	-10.7824
▁కౌర్	-10.7826
▁ప్రారంభించనున్న	-10.7827
▁వీటితో	-10.7829
లియన్	-10.7833
▁వ్యాపారి	-10.7836
ీవ్	-10.7837
▁95	-10.7838
▁ఫెయిల్	-10.7838
టీఆర్ఎస్	-10.7839
▁అనవసర	-10.7847
యుల	-10.7849
▁ప్రయోగించ	-10.7852
▁అద	-10.7852
▁దేన	-10.7853
పోయింది	-10.7857
▁విరిగి	-10.7859
▁ఉండేవి	-10.786
▁అర్ధ	-10.786
▁కస్టమర్	-10.7861
▁ఉంటాన	-10.7864
▁క్రీ	-10.7865
▁కాయ	-10.787
▁ప్రచురించ	-10.7873
▁తిట్ట	-10.7874
▁ఎగుమతి	-10.7881
▁మెడిసిన్	-10.7881
▁సిసోడియా	-10.7881
▁రజనీకాంత్	-10.7882
▁జయశంకర్	-10.7882
▁సైకిల్	-10.7882
▁కార్తీక్	-10.7882
▁బేబీ	-10.7883
▁కున్న	-10.7884
▁మండి	-10.7884
ంటు	-10.7887
▁పెంచారు	-10.7887
▁సామాన్యుల	-10.7887
▁కౌంట	-10.7891
పూరిత	-10.7891
▁కార్యకలాపాలు	-10.7892
▁కుడి	-10.7895
▁విభిన్న	-10.7898
▁అనిపించింది	-10.7898
▁అడిగారు	-10.7899
▁నాయకత్వ	-10.79
▁ఆయ	-10.7901
▁ఇప్పుడ	-10.7904
ಟ್	-10.7906
▁టిక్కెట్లు	-10.7906
▁ర్యా	-10.7908
▁రేసులో	-10.7909
కృష్ణ	-10.7913
▁భాగంలో	-10.7913
▁చెప్పలే	-10.7914
▁వాటిపై	-10.7916
▁లక్ష్యాల	-10.7919
▁రాబోతున్న	-10.7924
▁b	-10.7925
▁వైడ్	-10.7925
▁లక్షణాల	-10.7931
▁ఉండవు	-10.7935
▁ఉద్దేశ	-10.7935
▁దుస్తులు	-10.7935
▁సింగ	-10.7942
▁మాసం	-10.7943
▁దారులు	-10.7945
▁చేరు	-10.7947
▁కొంట	-10.7948
ಷ	-10.7949
▁పప్పు	-10.7949
▁ہیں	-10.7952
▁ధన్	-10.7952
&	-10.7952
▁గన్నవరం	-10.7952
▁గిఫ్ట్	-10.7952
▁దయాకర్	-10.7952
▁బుకింగ్	-10.7952
▁ہیں۔	-10.7952
ావత్	-10.7952
▁విలన్	-10.7952
▁పుణ్య	-10.7953
▁కాదా	-10.7954
▁వాళ్లే	-10.7957
ల్లోనూ	-10.7959
▁తగ్గించి	-10.796
▁కోల్పోయ	-10.796
▁రుతు	-10.7963
▁వివాదాల	-10.7964
▁కాలుష్య	-10.7965
▁ఓడ	-10.7967
▁సచివాలయ	-10.7969
▁ండు	-10.7975
▁ప్రచురించి	-10.7976
వెన్	-10.7978
▁ఫిల్	-10.7979
▁స్పై	-10.798
ైజ్	-10.7982
▁చేయా	-10.7982
▁వెహికల్స్	-10.7983
ర్చ	-10.7985
▁వంగ	-10.7986
▁ఉద	-10.7989
ద్య	-10.7994
▁కలిసే	-10.7996
▁డ్యామ	-10.7999
್ಯ	-10.8
▁ఏమి	-10.8005
▁బాలికల	-10.801
▁మారిపోయ	-10.801
▁ప్రవేశించి	-10.8017
▁కష్టాల	-10.8018
▁ہوئ	-10.8021
▁పరిధి	-10.8022
▁పురందేశ్వరి	-10.8023
▁రెస్క్యూ	-10.8023
▁ఆర్మూర్	-10.8023
జవహర్	-10.8023
▁తలసాని	-10.8023
▁లెఫ్ట	-10.8023
▁అడ్మిషన్	-10.8023
J	-10.8025
▁స్టాఫ్	-10.8027
▁సంతృప్తి	-10.8027
▁సేకరించి	-10.8028
▁ఉండాలంటే	-10.803
▁బ్రాంచ	-10.8031
▁గదుల	-10.8034
▁భూకంప	-10.8036
▁అప్లికేషన్	-10.8037
▁డిసెంబరు	-10.8045
▁మంత్ర	-10.8046
▁మలి	-10.8046
రాత్రి	-10.8048
▁చేయడ	-10.8048
▁ప్రసాద	-10.8052
▁ఇల్ల	-10.8053
▁జరుగుతోందని	-10.8055
▁సంకేతాలు	-10.806
ದ್ದ	-10.806
▁చెరు	-10.8065
▁سی	-10.8069
▁గ్రామాలకు	-10.8073
▁నిర్ణయించిన	-10.8074
▁జరుగుతాయి	-10.8074
.12	-10.8074
▁గందరగోళం	-10.8077
ాక్స్	-10.8079
వై	-10.8085
▁ట్రేడ	-10.8085
▁ఎప్పటి	-10.8086
▁వ్యవధి	-10.8092
▁ఫ్రంట	-10.8092
ض	-10.8094
ెక్స్ట్	-10.8094
▁ఉంచుకున	-10.8094
▁ప్రొడక్ట్	-10.8094
▁సర్జరీ	-10.8095
▁వైఎస్ఆర్సీపీ	-10.8095
▁వినియోగ	-10.8095
తుంటారు	-10.8095
▁అపాయింట్	-10.8095
▁బ్యాగ్	-10.8097
▁వ్యాపారుల	-10.81
▁బ్యాడ్	-10.8102
▁సంప్రదాయాల	-10.8104
.500	-10.8104
▁ఊహించ	-10.8107
▁ఇషా	-10.8108
▁స్థిర	-10.8113
▁కోల్పోయింది	-10.8114
▁తను	-10.8116
పప్పు	-10.8119
పోతుంది	-10.8121
▁పండ	-10.8128
▁స్థలాల	-10.8129
▁దొంగలు	-10.8132
కరి	-10.8136
▁కూర్చుని	-10.8136
▁--	-10.8138
य	-10.8139
పుడు	-10.8144
▁రణ	-10.8147
▁సుందర	-10.8155
▁చేరుతున్న	-10.8156
▁గౌడ	-10.8156
▁షేర్ల	-10.8159
خ	-10.8163
▁ఒడిశాలో	-10.8163
▁పట్నం	-10.8163
▁ఇంజినీర్	-10.8166
▁ట్యాగ్	-10.8166
▁పారదర్శక	-10.8166
▁సూపరింటెండెంట్	-10.8166
▁సున్నిత	-10.8167
▁చేస్త	-10.8169
ర్ణీత	-10.8172
▁వాసుల	-10.8176
▁చెయ్యడం	-10.8178
▁స్పాట్	-10.8179
▁బలగాలు	-10.818
▁భాగస్వామ్య	-10.818
▁నిషేధ	-10.8182
▁ఏసీపీ	-10.8183
▁రికార్డులు	-10.8188
▁నేతగా	-10.8189
▁ఉంటుందన్న	-10.8201
▁కొట్టుకు	-10.8204
ುತ್ತ	-10.8204
గ్రా	-10.8205
జ్జ	-10.8208
▁నిర్వహించడం	-10.8209
▁మోహ	-10.821
▁దుర్గా	-10.821
చ్చు	-10.8213
భాగం	-10.8214
▁చర్చించి	-10.8217
▁గొర్రెల	-10.8224
▁و	-10.8225
▁పాటి	-10.8228
▁పోయాడు	-10.8228
వచ్చ	-10.8228
▁కామెంట్లు	-10.8231
▁ఉగా	-10.8237
▁టీస్పూన్	-10.8239
▁దవాఖాన	-10.8239
▁ధ్వజమెత్తారు	-10.8239
▁సుభాష్	-10.8239
▁షారుఖ్	-10.8239
▁బుల్లెట్	-10.8239
▁వ్యాక్సిన్	-10.8239
▁షిండే	-10.8239
▁పాలేరు	-10.824
▁జైపూర్	-10.8243
▁మిన	-10.8243
▁విశ్లేషకుల	-10.8244
అక్టోబర్	-10.8245
▁బ్యాంక	-10.8246
▁జగ	-10.8247
▁డీసీసీ	-10.8248
▁కోల	-10.8248
▁చూపించి	-10.8249
▁రాజయ్య	-10.8249
▁సంజీవ	-10.8253
మేనని	-10.8257
దళ్	-10.826
▁రాముడి	-10.826
▁మకర	-10.8266
▁పురుషులు	-10.8266
▁ాడ	-10.8266
▁89	-10.8268
▁దేవాలయం	-10.8273
ಿರುವ	-10.8278
▁పుర	-10.8283
▁పరిశ్రమలు	-10.8284
ط	-10.8286
ైడ్	-10.8287
▁స్టూడెంట్ల	-10.8288
▁జవాన్	-10.8289
▁ନ	-10.8293
▁ప్రత్యామ్నాయ	-10.8301
▁स	-10.8304
▁ఎదిగ	-10.8305
▁పొందే	-10.8308
యునైటెడ్	-10.8312
▁ఇన్సూరెన్స	-10.8312
▁చాంపియన్	-10.8312
▁డిస్కౌంట్	-10.8312
▁అమితా	-10.8312
▁జ్యుడ	-10.8312
▁డిఫెన్స	-10.8312
▁మాట్లాడుతున్నార	-10.8312
▁పదేండ్ల	-10.8313
▁సూచనల	-10.8314
▁బజార్	-10.8314
▁మల్టీ	-10.8314
▁ఐరన్	-10.8314
▁జిత	-10.8315
▁కృష్ణారావు	-10.8315
▁గెలుస్త	-10.8316
▁గురుకుల	-10.8319
▁వివాద	-10.8321
▁రాష్ర్ట	-10.8326
▁జనాల	-10.8328
▁సభ్యుడి	-10.8329
▁రాబట్ట	-10.8329
▁ఇళ్లలో	-10.833
సిన్	-10.8331
▁కూడ	-10.8334
▁గెలిచ	-10.8335
▁లైన్స్	-10.8336
▁క్లా	-10.8337
నై	-10.834
▁త్వ	-10.8342
▁రూపొందించారు	-10.8344
▁ఔట	-10.8344
కోసం	-10.8348
▁అట్ల	-10.8353
▁ఆకుల	-10.8356
▁బుధ	-10.8359
▁ఓనర్	-10.836
▁జిమ్	-10.8361
▁పరచ	-10.8362
▁విమానాలు	-10.8364
▁గాలులు	-10.8368
లాన్	-10.837
▁ఓకే	-10.837
▁సంద	-10.8371
▁పోతాయి	-10.8373
▁గెలుచుకున్న	-10.8373
▁దిల్లీలో	-10.838
▁ెవర	-10.8383
▁పట్టుకున్న	-10.8384
▁పరిశీలిస్తున్న	-10.8384
▁సేల్	-10.8385
ٰ	-10.8385
▁సతీమణి	-10.8385
▁కోచింగ్	-10.8385
▁ఫార్ములా	-10.8385
▁చారిత్ర	-10.8385
▁దమ్ము	-10.8386
▁వ్యవహరించిన	-10.8386
▁చేశామన్నారు	-10.8386
▁పట్టణాల	-10.8389
▁మ్యాప్	-10.8389
షియన్	-10.8389
నాటి	-10.839
▁చేరుకుంటుంద	-10.8392
▁తెలుసుకోవడ	-10.8393
సమితి	-10.8393
▁జరుగుతున్నాయని	-10.8394
▁9,	-10.8395
▁అయిపోయ	-10.84
▁ఉల్లంఘించ	-10.8405
▁ఖండించారు	-10.8406
▁మార్చారు	-10.8406
▁కేంద్రాలు	-10.8408
ସି	-10.8408
▁సోదరి	-10.8408
మయ్యాయి	-10.8411
▁మంగ	-10.8413
▁కాసేప	-10.8415
▁చనిపో	-10.8416
▁పొర	-10.8417
▁నాయకత్వంలో	-10.8417
▁ముద్ద	-10.8417
▁పెట్టుకొన	-10.8419
▁క్యాంప	-10.8423
ంగుల	-10.8424
▁చేయాలంటే	-10.8427
▁మహాలక్ష్మ	-10.8428
పాల	-10.8436
▁గది	-10.8438
▁భూషణ్	-10.8441
▁పయన	-10.8443
▁ముగించ	-10.8444
▁దర్శక	-10.8445
త్య	-10.8447
▁తగిలి	-10.8449
▁పెద	-10.8449
▁విధాల	-10.8458
▁ପ୍ର	-10.8459
▁చొరవ	-10.8459
▁వెల్లుల్లి	-10.8459
▁ఇదొక	-10.8459
▁నాటౌట్	-10.8459
▁సిద్ధమైంది	-10.846
▁పొరపాటు	-10.846
▁ర్యాంక్	-10.846
▁వెతిక	-10.8461
▁చెప్పాల్సి	-10.8461
▁నెమ్మది	-10.8464
▁విశాఖలో	-10.8466
▁ప్రేక్షకులు	-10.8467
▁చెలరేగ	-10.8471
▁ప్రతీక	-10.8471
▁అందుకోస	-10.8473
ానన్నారు	-10.8475
▁పరిష్కారానికి	-10.8478
▁గర్వ	-10.8481
ార్థ	-10.8482
▁బాల్స్	-10.8482
▁గర్భ	-10.8484
▁వేయించ	-10.8486
▁పరా	-10.8486
▁ఏర్పాటై	-10.8488
చీ	-10.8489
స్థాయి	-10.8492
▁భారతి	-10.8494
▁కప్పి	-10.8497
▁సెంచరీలు	-10.8502
es	-10.8502
▁రిలీజై	-10.8506
▁ుకున్న	-10.8508
▁ంచిన	-10.8508
▁ఎకర	-10.8513
నేత	-10.8516
▁ఆలోచనలు	-10.8519
▁పిలిచి	-10.8519
▁పెం	-10.8521
▁మెట్	-10.8525
▁పట్టా	-10.8527
ెంజ్	-10.8532
▁మంత	-10.8532
▁జరుగుతుందో	-10.8534
▁పోస్టుమార్టం	-10.8534
▁ప్రమేయం	-10.8534
▁యూరప్	-10.8534
▁పద్ధతుల	-10.8534
▁కొద్దిరోజుల	-10.8535
▁శివసేన	-10.8535
▁హోలీ	-10.8536
▁తెలియజేయ	-10.8537
▁యోజన	-10.8537
▁మర్	-10.8537
x	-10.8541
ଳ	-10.8541
▁చేపట్టి	-10.8547
▁రక్తంలో	-10.8554
▁ప్రకటించడం	-10.8554
▁ఆవరణలో	-10.8554
ుతారు	-10.8558
▁ఏనుగు	-10.8558
మెన్స్	-10.8561
▁ప్రముఖుల	-10.8561
▁కేటాయించింది	-10.8561
టికీ	-10.8563
ay	-10.8564
▁84	-10.8565
▁కమాండ	-10.8565
▁నడుమ	-10.8565
▁పంపింది	-10.8569
▁స్టేజ	-10.857
▁కార్పొరేటర్	-10.8571
▁భారతీయులు	-10.8572
▁పెర	-10.8572
▁పరిష్కరించాల	-10.8577
▁ఓటీటీలో	-10.8579
▁పాల్గొంటున్న	-10.8587
▁ఫీ	-10.8588
▁మృతదేహం	-10.8592
మీద	-10.8596
▁کرت	-10.8603
▁కోడి	-10.8605
ಿದೆ	-10.8608
▁ವಿಡಿಯೋ	-10.8608
▁తప్పులు	-10.8609
▁చెబితే	-10.8609
▁తలనొప్పి	-10.8609
▁ప్రీమియర్	-10.8609
▁రిలయన్స	-10.8609
▁యాసిడ్	-10.8609
▁వెంకటరెడ్డి	-10.8611
▁కలపాలి	-10.8612
▁కష్టంగా	-10.8612
▁వాడీ	-10.8613
▁ಿಸ	-10.8613
▁పోలి	-10.8616
▁పిల్లల్	-10.8619
▁ప్రసంగ	-10.862
▁అభిప్రాయాల	-10.8623
▁దేశీయ	-10.8625
ుడిగా	-10.8625
▁తెరపైకి	-10.8627
▁యూకే	-10.8628
సియా	-10.8633
▁ంలో	-10.8635
ఎల్పీ	-10.8638
▁అవుతాయ	-10.8642
▁క్లియర్	-10.8646
▁లంచం	-10.8649
▁ఫ్లో	-10.8653
▁బండ్	-10.8653
▁సాధిస్తారు	-10.8654
▁రాని	-10.8662
▁సేకరించిన	-10.8662
▁పాయ	-10.8664
▁ଗ	-10.8666
▁విచారించి	-10.8668
▁ری	-10.8669
▁కలెక్టర్లు	-10.867
▁ఆవు	-10.867
▁గెలవాల	-10.867
▁పెట్టుకో	-10.868
▁తిరుగుబాటు	-10.8685
▁ఆవిర్భావ	-10.8685
▁ఆస్పత్రుల	-10.8685
▁డిక్లరేషన్	-10.8685
▁బాధితురాలి	-10.8685
▁డ్రైవింగ్	-10.8685
▁దిగుబడి	-10.8685
▁రాజాసింగ్	-10.8685
▁కాకతీయ	-10.8685
▁అభ్యంతరాల	-10.8685
▁ఓటరు	-10.8685
▁సింహరాశి	-10.8685
▁వ్యూహాత్మక	-10.8685
▁సవాలు	-10.8685
▁ముద్రగడ	-10.8685
▁పాల్పడుతున్న	-10.8687
▁700	-10.8687
▁వెంకటేష్	-10.8688
▁సాగించ	-10.869
▁ధర్మం	-10.8692
▁ఓవర్ల	-10.8692
▁చిక్కు	-10.8693
▁కాలేదని	-10.8695
▁విధుల్లో	-10.8695
▁పలక	-10.8696
భవన్	-10.8698
▁సీఆర్	-10.8698
▁ధార	-10.8708
▁క్షమాపణలు	-10.871
▁పట్టించ	-10.871
▁ముద్దు	-10.871
▁స్వీకరించి	-10.8712
▁క్రిత	-10.8712
▁ఇప్పించ	-10.8716
▁ఫార్మాట్	-10.8717
▁మారిందని	-10.8719
▁పాఠశాలల్లో	-10.8721
▁జరిగాయని	-10.8722
▁విధానాన్న	-10.8723
▁చేస్తున్నాం	-10.8727
▁వాస్తవం	-10.8728
▁వెహికల్	-10.8728
▁చేరుకొన	-10.8728
▁వేయాలి	-10.8728
▁రోడ్డులో	-10.8729
▁అవమాన	-10.8731
▁అబ్బాయి	-10.8731
▁ఉపయోగిస్త	-10.8733
▁ముహూర్తం	-10.8733
▁శ్ర	-10.8735
ରୁ	-10.8736
దేవి	-10.8736
▁సేన్	-10.8737
▁କରି	-10.8741
▁79	-10.8741
ನೆ	-10.8742
▁పరిమితమై	-10.8743
▁భవనాలు	-10.8745
తట్టు	-10.8747
▁శుక్ర	-10.8747
▁నార్	-10.8748
▁తెరిచి	-10.8749
▁బతిక	-10.8757
▁ಲ	-10.8759
▁విత్	-10.876
▁నదిలో	-10.876
▁చేస్తుంట	-10.8761
▁అస్వస్థత	-10.8761
▁అప్రమత్తమై	-10.8761
▁హసీనా	-10.8761
▁యాంకర్	-10.8761
▁హ్యాట్రిక్	-10.8761
▁అస్సల	-10.8761
▁సదుపాయాల	-10.8762
▁చూసుకుంట	-10.8763
▁మతపర	-10.8763
▁కేటాయించాల	-10.8766
▁వాయు	-10.8766
▁దుండగులు	-10.877
▁రివర్స్	-10.8778
▁పరు	-10.878
భి	-10.8781
▁అందరిన	-10.8782
▁కానున్నాయ	-10.8786
▁పోతోంది	-10.8789
▁కూరగాయలు	-10.8791
▁దుకాణాల	-10.8793
▁ప్రజాస్వామ్యం	-10.8795
కెట్	-10.8795
▁8,	-10.8797
▁ఎమ్మ	-10.8802
శాయి	-10.8803
▁నట	-10.8804
▁డీసీ	-10.8805
దన్న	-10.8807
▁గొ	-10.881
▁దాఖలై	-10.8815
▁లిస్టులో	-10.8816
▁సన్నిహిత	-10.8816
▁ఆరోపించి	-10.8817
75	-10.8819
▁రామా	-10.8825
▁వైభవం	-10.883
▁చర్చల	-10.8834
▁అవుతుంద	-10.8834
▁స్పందించలేద	-10.8834
ti	-10.8834
▁దుబ్బాక	-10.8838
▁ఆర్టిఫిష	-10.8838
▁కలయిక	-10.8838
▁మసాలా	-10.8838
▁సీఈఓ	-10.8838
▁ధర్మపురి	-10.8838
▁మొదలై	-10.8839
▁రౌడీ	-10.8839
▁బాలినేని	-10.884
▁మైండ్	-10.8841
ిచెల్	-10.8842
▁ఉత్సవ	-10.8842
▁పరారీ	-10.8842
▁య్యాయి	-10.8843
▁తట్టుకోలే	-10.8843
▁బాపట్ల	-10.8846
రామ్	-10.8849
చోట	-10.8853
▁కెప్టెన్సీ	-10.8855
▁పురాణాల	-10.8855
▁పాల్గొననున్న	-10.8856
▁మంత్రివర్గ	-10.8857
▁ఆడే	-10.886
▁గ్	-10.8861
పూట	-10.8863
▁కాళ్లు	-10.8866
▁ఆధారాల	-10.8866
▁పెన్	-10.8866
▁కలప	-10.8868
▁స్టర్	-10.8871
రిక్	-10.8871
▁పులుల	-10.8871
▁గాజు	-10.8876
▁ٹ	-10.8877
▁అవార్డులు	-10.8879
▁తరచు	-10.8881
▁బీపీ	-10.8882
▁ఎలక్ట్రానిక్	-10.8882
▁మాస	-10.8885
▁విని	-10.8889
▁పోవాల	-10.8892
▁మైక్రో	-10.8893
ର୍	-10.8899
వుతుంది	-10.89
▁మేష	-10.8901
▁టర్	-10.8901
▁కమలా	-10.8901
▁అనుబంధం	-10.8902
▁దేవాలయాల	-10.8903
▁پا	-10.8906
▁సీక్వె	-10.8915
▁దౌత్య	-10.8916
▁మాఫియా	-10.8916
▁ప్రోటీన్	-10.8916
▁సాయుధ	-10.8916
ట్విటర్	-10.8916
▁విద్యాసంస్థల	-10.8916
▁మైదానంలో	-10.8916
త్రం	-10.8916
▁ఐఫోన్	-10.8916
▁دعوی	-10.8916
▁సెల్ఫీ	-10.8917
▁ఫార	-10.8918
▁అరటి	-10.892
▁ప్యాక్	-10.8921
▁రాజేష్	-10.8922
పడుతున్నారు	-10.8923
▁గ్రాడ్యుయేట్	-10.8923
షియా	-10.8924
▁వాడిన	-10.8924
-19	-10.8924
▁హవా	-10.8925
వైసీ	-10.8928
▁జాతకులు	-10.893
▁లాభ	-10.8935
▁మాధవ	-10.8935
ed	-10.8937
▁ఉరుములు	-10.8938
ంచాలని	-10.8938
▁నెట్ట	-10.8938
▁ఎంబీ	-10.8938
▁యాక్ట	-10.8941
▁పురా	-10.8944
▁కామన్	-10.8944
▁భగ	-10.8945
గ్రేడ్	-10.8945
▁కౌలు	-10.8949
▁ఉపవాసం	-10.895
▁అంతస్తు	-10.895
▁సర	-10.8953
▁బాగుంటుంది	-10.8956
▁అడ్డ	-10.8958
▁ఓవర్లో	-10.8958
▁ٹی	-10.8961
▁హార్	-10.8962
▁ద్	-10.8969
▁సలహాలు	-10.897
▁కూటమిలో	-10.897
▁రై	-10.8971
రాయ	-10.8972
▁పిలిపించ	-10.8977
▁కుప్పకూలి	-10.8979
▁జరగాల్సి	-10.8982
▁ారంటే	-10.8986
▁యూని	-10.8987
▁మిర్చి	-10.8994
▁అడ్వాన్స్	-10.8994
▁పిన్నెల్లి	-10.8994
▁పోటెత్త	-10.8994
▁ఫెడరే	-10.8994
▁బల్దియా	-10.8994
▁మార్కెటింగ్	-10.8994
▁శాటిలైట్	-10.8994
▁లబ్దిదారుల	-10.8994
▁ముర్ము	-10.8994
▁పశువుల	-10.8994
▁వెంకటేశ్వర్లు	-10.8994
▁సదుపాయాలు	-10.8994
▁నడక	-10.8995
▁వేముల	-10.8996
▁అసల	-10.8996
లూరు	-10.8996
▁అనుభవించ	-10.8997
▁ఎవ్వర	-10.8998
▁కల్పిస్తామన	-10.9002
▁రుద్ర	-10.9004
▁అభిప్రాయాలు	-10.9005
▁టైటాన్స్	-10.9007
▁నీతి	-10.9008
▁పర్చ	-10.9008
▁ఫ్యాక్ట	-10.901
▁ప్రతిపాదనలు	-10.9011
▁కష్టమే	-10.9012
▁వేశ	-10.9014
▁క్షేత్రస్థాయి	-10.9014
▁ఈవీఎం	-10.9015
▁దివ్యాంగుల	-10.9015
▁కావాలనే	-10.9017
▁ఏడో	-10.9019
▁కుంటారు	-10.9022
▁పరుగులక	-10.9023
▁అనుభవ	-10.9028
▁పారి	-10.9029
▁బాధ్యుల	-10.9029
▁తులా	-10.903
▁బాబ	-10.9038
▁ఎండలు	-10.904
▁దర్శించుకున	-10.904
▁లాగ	-10.9041
▁చేస్తారా	-10.9049
▁తీరం	-10.9052
▁వెళ్తున్నారు	-10.9055
▁07	-10.9056
▁కావు	-10.9056
▁హాని	-10.9067
▁స్వచ్ఛ	-10.9072
▁మచిలీపట్నం	-10.9072
▁మురళి	-10.9072
▁రామగుండం	-10.9072
▁రిక్రూట్	-10.9072
▁సీసీటీవీ	-10.9072
▁మిర్యాలగూడ	-10.9073
▁విముక్తి	-10.9073
▁కండరాల	-10.9073
▁గణపతి	-10.9073
▁విశ్లేషణ	-10.9073
▁నానా	-10.9074
▁కోవడం	-10.9075
▁వీధుల్లో	-10.9077
▁ఆయుధాల	-10.9077
రోగ్యకరమైన	-10.9078
▁రోజువార	-10.908
▁చెల్లి	-10.9082
▁ఎంచుకున్న	-10.9083
ರೆ	-10.9087
▁ఎన్నికయ్య	-10.9089
ص	-10.909
▁నిరుద్యోగులు	-10.9091
▁దుర్వినియోగం	-10.9091
▁మొక్కల	-10.9092
▁పూజించ	-10.9093
▁టెన్	-10.9093
▁స్వాతంత్ర్య	-10.9094
▁కాదన్నారు	-10.9094
▁వేస్తూ	-10.9094
▁నిర్మాతలు	-10.9096
▁గుర్తించడం	-10.9102
▁సృష్టి	-10.9108
▁బాంబ	-10.9114
▁కలిస	-10.9118
▁ఫైన్	-10.9118
▁క్షమాపణ	-10.9126
▁షీ	-10.913
▁పర్యటించి	-10.9139
▁స్నేహ	-10.914
▁పడింద	-10.9143
▁పొడిగించ	-10.9145
▁ఉండట	-10.9146
▁తాడు	-10.9147
▁బస	-10.9149
▁video	-10.9152
▁మిశ్రా	-10.9152
▁శిథిలాల	-10.9152
▁సస్పెన్షన్	-10.9152
▁వినతిపత్ర	-10.9152
▁పెవిలియన	-10.9152
▁పురాతన	-10.9152
▁జర్నీ	-10.9152
▁అదిరిపోయ	-10.9153
▁వెళ్తుండగా	-10.9153
▁రిలేషన్	-10.9153
▁వేగవంతం	-10.9153
▁అలరించ	-10.9153
▁బెడ్రూ	-10.9153
▁మొదలుపెట్టి	-10.9154
▁ఆర్ధిక	-10.9154
▁వినయ్	-10.9155
▁ଦ	-10.9157
▁ప్రారంభించి	-10.9159
▁రిజ	-10.9161
రిస్	-10.9164
▁దొరికిన	-10.9164
▁రేపుతో	-10.9165
▁సైడ్	-10.9166
▁మార్కుల	-10.9166
▁స్వీట్	-10.9167
▁ఉన్నామని	-10.9167
اب	-10.9169
▁చేరువ	-10.9171
क	-10.9172
ଗ	-10.9172
W	-10.9172
▁అడుగుతున్న	-10.9174
اد	-10.9177
▁స్టాల్	-10.9181
▁d	-10.9187
టప్పుడ	-10.9188
▁సేల్స్	-10.9188
▁కళా	-10.9192
వీర్	-10.9194
▁ఆఫీసుల	-10.9195
▁దృశ్యాలు	-10.9197
▁గె	-10.9201
▁తీసుకొచ్చ	-10.9205
▁ఇవ్వాల	-10.9214
వంచ	-10.9216
▁జెన్	-10.9218
▁బోతున్నారు	-10.9219
▁స్తు	-10.9222
▁కాంట్రాక్టర్	-10.9223
▁తెచ్చారు	-10.9227
▁అందు	-10.9227
▁ఆఫ్ఘనిస్తాన్	-10.9232
▁కనెక్షన్	-10.9232
▁తరగతుల	-10.9232
▁సతీష్	-10.9232
▁షురూ	-10.9232
▁నిఖిల	-10.9232
▁దివంగ	-10.9232
▁ఉత్తరాంధ్ర	-10.9232
ద్రోహ	-10.9232
▁సామర్థ్య	-10.9234
▁పటాన్	-10.9235
తెరకెక్కిస్తున్న	-10.9235
▁కేడర్	-10.9236
▁రాకపోకల	-10.9236
▁పరికరాల	-10.9236
▁అల్లూర	-10.9238
▁డీఎస్	-10.9239
▁హార్ట్	-10.924
▁సిఎ	-10.924
▁1.5	-10.924
▁వీడియోల	-10.9243
▁ब	-10.9243
ిస్ట్	-10.9248
▁విపక్షాలు	-10.925
▁మాంసం	-10.9251
▁గ్రామాలు	-10.9252
▁కొనసాగుతుంద	-10.9253
▁వేణుగోపాల్	-10.9253
సెప్టెంబర్	-10.9253
▁ఇంధన	-10.9254
▁లైన	-10.9257
ంచే	-10.9267
▁ప్రయాణాల	-10.9271
▁ల్ల	-10.9274
▁యాక్టర్	-10.9276
▁2.5	-10.9276
▁ఫేమ	-10.928
▁స్తాడు	-10.9282
▁వసూళ్లు	-10.9282
▁కుల్	-10.9284
▁కస్టడీకి	-10.9296
▁సీడ్	-10.9297
▁అందింది	-10.93
▁చేసుకోవ	-10.9304
▁ప్లేయర్ల	-10.9305
▁అందిస్తామన	-10.9305
కుమార్	-10.9308
▁కన్ను	-10.931
▁పురుగుల	-10.9311
ଶ	-10.9311
▁లావణ్య	-10.9312
▁అభియోగాల	-10.9312
▁మ్యూజియం	-10.9312
▁యాదగిరి	-10.9313
▁శిఖర	-10.9313
▁के	-10.9313
క్రేజీ	-10.9314
▁చెన్న	-10.9314
గుళ్ల	-10.9316
▁డ్రై	-10.9316
▁ఇప్పుడే	-10.9318
న్నపేట	-10.932
శీల	-10.9321
లీగల్	-10.9324
▁డైట్	-10.9325
దానం	-10.9328
▁కారణంతో	-10.9329
▁పునరుద్ధరించ	-10.9331
▁అమ్మాయిల	-10.9332
▁బోతోంది	-10.9332
▁వ్యవహరిస్త	-10.9332
▁కమ్యూనికేషన్	-10.9334
⁭	-10.9335
▁వ్రత	-10.9335
డిసెంబర	-10.9336
▁లాంగ్	-10.9339
ీఎం	-10.934
▁తొ	-10.9343
రాబాద్	-10.9343
▁గేట్లు	-10.9345
▁86	-10.9347
▁ఒకట	-10.935
▁వల	-10.9352
▁అయ్యార	-10.9357
▁రుతుపవనాలు	-10.9359
▁షన్	-10.9362
మాప	-10.9363
▁రేవ	-10.9369
▁అవా	-10.9372
▁జరప	-10.9373
▁ఇచ్చినా	-10.9373
▁పోతుందని	-10.9377
▁సంజ	-10.9377
▁ప్రకటించే	-10.9378
▁చీర	-10.9384
▁నిదర్శనం	-10.9394
▁ఊరేగింపు	-10.9394
▁ప్రకారమ	-10.9395
▁విఫలమయ్య	-10.9396
▁2012	-10.9396
▁పనిచేస్త	-10.9397
▁వ్యక్తమవుతున్న	-10.9397
▁వస్తువు	-10.9398
▁రఘు	-10.9398
▁తోనూ	-10.94
▁భంగ	-10.94
▁అమ్మే	-10.94
▁తెరకెక్కించి	-10.9401
▁ఆశ్రయించ	-10.9401
▁క్యాబిన	-10.9403
▁పదేళ్లు	-10.9405
▁వివాదాలు	-10.9405
▁దీపక్	-10.9405
▁కేఎల్	-10.9406
ెయిన్	-10.9407
▁ందంటే	-10.9408
▁బాబర్	-10.9408
▁ఆఖరి	-10.9409
ాలజీ	-10.9412
వుతోంది	-10.9419
▁కొట్టడం	-10.9423
ురాలు	-10.9424
డాన్	-10.9426
▁ప్రతాప్	-10.9427
▁తం	-10.9429
కరమైన	-10.9429
▁క్రూ	-10.9431
సిటీ	-10.9431
▁గణ	-10.9433
▁81	-10.9434
▁ଙ୍କ	-10.9436
▁సంభవించింద	-10.9437
▁108	-10.9441
▁తెలుపుతున్న	-10.9445
▁శారు	-10.9451
▁دی	-10.9453
▁ప్రింట	-10.9455
▁తెలియజేస్తున్న	-10.9457
▁పట్టింది	-10.9458
▁ఎదురైన	-10.9458
▁ای	-10.9459
▁సాధిస్త	-10.9459
▁చిత్రాలు	-10.946
▁ప్రవర్తించ	-10.9466
▁ప్రాజెక్టులో	-10.9468
▁కప్ప	-10.9472
రై	-10.9475
▁అత్యుత్తమ	-10.9476
▁గచ్చిబౌలి	-10.9476
▁ప్యాసింజర్	-10.9476
▁మాదాపూర్	-10.9476
▁మిథున	-10.9476
▁స్టార్టప్	-10.9476
▁నరేష్	-10.9476
▁యూరోప	-10.9476
▁దీర్ఘకాలిక	-10.9476
▁ఉక్కు	-10.9476
▁ఫోటోల	-10.9477
▁పాండే	-10.9478
▁ఏవీ	-10.9478
▁వేస్తోంది	-10.948
▁ప్లేట్	-10.948
▁వారందర	-10.9482
▁మాల్దీవుల	-10.9483
ొద్ద	-10.9483
▁చెయ్యాల	-10.9484
▁తీసుకువచ్చి	-10.9487
▁మ్	-10.9487
▁నిమ్మ	-10.949
▁పుంజు	-10.9491
it	-10.9492
పడటంతో	-10.9495
▁నియమ	-10.9495
ఫిక్	-10.9497
▁పల్లవ	-10.9499
▁కోర్సు	-10.9499
▁ఉద్దేశం	-10.95
▁ట్రావెల్	-10.9504
▁సాంకేతికత	-10.9504
ందన్నారు	-10.9507
▁స్టీ	-10.9508
10	-10.9508
▁తప్పించ	-10.9509
▁వాదనల	-10.9511
్యాల	-10.9511
▁ప్రతిపాదించ	-10.9513
▁చేస్తుంటే	-10.9517
▁పోర్	-10.9517
దల	-10.9517
چ	-10.952
▁తోటి	-10.9522
▁నడి	-10.9526
▁అంతర్	-10.9528
▁మందిరం	-10.9529
▁రేట్ల	-10.9531
సందేహం	-10.9532
▁వచ్చేది	-10.9533
▁కర్నాటకలో	-10.9535
▁పోషించారు	-10.9536
▁పాల్పడ్డార	-10.9542
▁పరామర్శించ	-10.9543
▁అవుతారు	-10.9546
▁సర్వీసుల	-10.9546
▁తీసుకున్నారని	-10.9548
▁జగదీష్	-10.9558
▁సెటైర్లు	-10.9558
▁థర్డ్	-10.9558
ନ୍ତି	-10.9559
▁ర్యాంకు	-10.9559
▁హాలీవుడ్	-10.9559
▁మైనా	-10.9559
▁బాధితుడు	-10.9561
▁జోడీ	-10.9564
▁ఛార్జ	-10.9564
▁చట్టాలు	-10.9565
▁అప్పీల	-10.9567
▁బృంద	-10.9573
▁కెమెరాలు	-10.9573
▁ందంటూ	-10.9574
▁ఫైట్	-10.9579
▁ఉదయ్	-10.958
▁కల్పించడం	-10.9581
▁వేతనం	-10.9581
▁140	-10.9582
▁@	-10.9583
▁స్వీకార	-10.9584
▁డీప్	-10.9584
▁పొందవచ్చు	-10.9585
▁):	-10.9585
▁సంతాపం	-10.9585
▁పంపిస్త	-10.9588
▁ిస్తున్న	-10.9591
▁పరామర్శించారు	-10.9594
▁అంత్యక్రియలు	-10.9595
▁అన్నం	-10.9598
▁క్రికెటర్లు	-10.96
▁శరద	-10.9603
▁తీసుకోవడ	-10.9604
▁యె	-10.9609
▁చక్ర	-10.9613
▁నాట	-10.9615
ೊ	-10.9617
▁విమర్శ	-10.9621
▁+	-10.9625
▁మందుల	-10.9626
▁తుఫాన	-10.9626
▁ಜ	-10.9628
▁మైదాన	-10.9628
▁గౌ	-10.9629
▁వానలు	-10.9636
▁అగర్వాల్	-10.9642
▁మల్కాజ్	-10.9642
▁చీకటి	-10.9642
▁రెట్టింప	-10.9642
▁శ్రీలీల	-10.9642
▁తొమ్మిదేళ్ల	-10.9642
ಾವು	-10.9642
▁ఛానల్	-10.9642
▁తరలివచ్చ	-10.9642
▁విపత్తుల	-10.9643
▁تو	-10.9645
▁ఘట్ట	-10.9645
▁రహిత	-10.9646
▁జరగలేదని	-10.9646
మానిక	-10.9647
▁రహదారుల	-10.9649
▁జేసీ	-10.965
▁తగినంత	-10.9652
▁వ్యూహాలు	-10.9654
▁ఇచ్చిందని	-10.9655
▁విరాళం	-10.9656
▁నియమించింది	-10.9658
▁జాగ	-10.9658
ంపల్లి	-10.9661
హిక	-10.9662
▁కూల	-10.9664
▁బోనస్	-10.9666
రహ	-10.9667
▁మూడ	-10.9667
▁కిమ్	-10.9668
▁డీల్	-10.9672
ెన్స్	-10.9676
▁ట్రక్కు	-10.9678
లియా	-10.9679
ग	-10.968
▁చేపలు	-10.9682
▁దశాబ్దాలు	-10.9683
▁వాక్	-10.9685
▁తామే	-10.9687
▁ఉండవచ్చు	-10.969
▁డ్రగ్	-10.9693
▁వెన్ను	-10.9693
▁అందించింది	-10.9696
دی	-10.9697
మిన్	-10.9697
న్సర్	-10.9698
▁తీర్మాన	-10.9699
ెత్తి	-10.9702
▁జైన్	-10.9703
ంద్ర	-10.9707
▁పుస్తకాలు	-10.9708
▁మార్చాల	-10.9709
ro	-10.9709
▁ఇంటింటిక	-10.9717
▁పొలాల	-10.9719
ಧ	-10.9725
▁పొడవు	-10.9725
▁నిలుస్త	-10.9725
▁షాపులు	-10.9726
▁శ్వేత	-10.9726
Play	-10.9726
କ୍ତ	-10.9726
▁అరాచక	-10.9726
▁కైవసం	-10.9726
▁గోధుమ	-10.9726
▁ట్విస్ట్	-10.9726
▁పరస్పర	-10.9726
▁బంజారాహిల్స్	-10.9726
▁రిటైల	-10.9726
▁పురస్కరించ	-10.9726
▁میڈی	-10.9726
▁యాక్సెస	-10.9726
హారిస్	-10.9726
▁దైవ	-10.9726
▁సూసైడ్	-10.9726
▁రక్తపోటు	-10.9726
▁నేనే	-10.9726
▁పట్టుదల	-10.9727
▁పేలి	-10.9727
▁వార్నర్	-10.9727
▁అడ్డుకున్న	-10.9727
▁ఫైనల్స్	-10.9729
▁ధాటి	-10.9731
▁నేర్చుకున్న	-10.9732
▁వదిలిపెట్ట	-10.9733
▁మెల	-10.9733
▁కావేర	-10.9739
▁అధ్యయనాల	-10.9743
ుకోవాల్సి	-10.9745
▁ముస్లింలు	-10.9746
▁నెటిజన్స్	-10.9751
▁టైన్	-10.9752
▁ఫెస్ట	-10.9752
▁ఎగ్	-10.9755
నిరోధక	-10.9755
▁ఉపయోగపడుతుంది	-10.9758
▁جان	-10.9761
▁పాల్గొనే	-10.9761
▁కోట్	-10.9768
▁హ్యాక	-10.977
▁ిచ్చ	-10.9771
▁పాద	-10.9775
lso	-10.9775
▁వ్యాపించ	-10.978
▁దిగుతున్న	-10.978
డూ	-10.9783
బలవంతంగా	-10.9784
▁రని	-10.9785
ంట్లో	-10.9787
▁ధృవీకరించ	-10.979
▁మోటార్	-10.979
▁బావి	-10.9794
▁తెస్త	-10.9794
▁ఆంధ్రా	-10.9797
nd	-10.9798
▁బెట్ట	-10.9799
▁కలుస్త	-10.9799
▁ట్రిప	-10.9807
▁ఖర్చుల	-10.9808
ଡ	-10.981
▁تصویر	-10.9811
▁అనుమానాస్పద	-10.9811
▁జేఏసీ	-10.9811
▁యశస్వి	-10.9811
▁సెంటిమెంట్	-10.9811
▁వెంచర్	-10.9811
▁నర్సాపూర్	-10.9811
▁సబిత	-10.9811
▁ళ్ల	-10.9813
▁గ్యాప్	-10.9813
▁మదన	-10.9815
▁ఐకాన	-10.9816
▁సమయాల్లో	-10.9817
▁జోగు	-10.9817
▁గంగుల	-10.9818
▁కోరుకుంటున్న	-10.9819
▁మూవీస్	-10.982
▁జెట్	-10.9821
▁చేరిక	-10.9823
▁చేర్చారు	-10.9823
▁(1	-10.9827
▁రామారావు	-10.9832
▁ల్లా	-10.984
▁తెలుసుకో	-10.9842
▁పరిశోధనలు	-10.9842
▁సామ్	-10.9843
▁కళ్ళ	-10.9845
పీఎస్సీ	-10.9845
రల్	-10.9848
ీన్	-10.9848
▁రంజిత	-10.9848
▁బాల్క	-10.9849
▁అబ్	-10.985
▁శాంత	-10.9853
▁సాధించాడు	-10.986
▁మార్చడం	-10.986
▁చేపల	-10.9864
▁గుర్తించింది	-10.9868
▁విమెన్	-10.9871
▁హెచ్చరిస్తున్న	-10.9872
▁ఆపి	-10.9874
▁ఫ్యా	-10.9874
▁ప్రాణం	-10.988
▁నొక్క	-10.9882
లిగ	-10.9889
మాన	-10.9891
▁సూచించిన	-10.9891
▁నచ్చిన	-10.9892
▁ఖమ్మంలో	-10.9892
▁ఎదురైంద	-10.9894
▁మరణించ	-10.9896
▁అచ్చెన్నాయుడు	-10.9896
▁అఫిడవిట్	-10.9896
▁ఐశ్వర్య	-10.9896
▁ద్రౌపద	-10.9896
▁ప్రక్షాళన	-10.9896
▁వినూత్న	-10.9896
▁వెళితే	-10.9896
▁ఇటలీ	-10.9896
▁పోయ	-10.9896
▁ఆకట్టుకునే	-10.9896
▁క్రీజులో	-10.9896
▁అద్దం	-10.9896
▁తాళం	-10.9897
▁వచ్చేసింది	-10.9897
▁స్వచ్ఛంద	-10.9897
యుక్త	-10.9898
▁తగ్గిస్తుంది	-10.9898
▁ನಿ	-10.9898
▁జోడో	-10.9898
▁ఉన్నానని	-10.9898
▁నోటు	-10.9901
▁అభ్యర్ధి	-10.9905
▁సాధించడం	-10.9906
▁సారథ్యంలో	-10.9907
▁విద్యుత్తు	-10.9908
▁మంగళగిరి	-10.9908
▁వస్త్ర	-10.9908
▁కల్పిస్తున్న	-10.9908
▁దొంగల	-10.9909
st	-10.9909
▁కొలె	-10.9909
▁ఒక్కరిక	-10.991
▁పూరి	-10.9911
▁ಾ	-10.9912
▁చెరువులు	-10.9913
▁ఏర్పడుతుంది	-10.9914
▁నెలా	-10.9915
▁వ్యవస్థలో	-10.9915
▁సాధించాల	-10.9915
▁కొద్దిగా	-10.9919
పోయారు	-10.9919
▁నక్షత్రం	-10.992
▁విమానాశ్రయ	-10.9921
▁బుధుడు	-10.9922
▁పైసలు	-10.9922
స్టు	-10.9926
▁సంబ	-10.9928
▁తారు	-10.9929
టీపీ	-10.9931
▁సర్వేలు	-10.9932
ద్దాం	-10.9932
▁మార్చ్	-10.9933
ాధికారి	-10.9937
▁పడతాయ	-10.9939
▁ైతే	-10.9941
జిత్	-10.9941
▁పట్టిన	-10.9947
▁అనుమాన	-10.995
▁కొనుగోళ్లు	-10.9955
విన్	-10.9957
▁తరలించి	-10.9965
▁పిడుగు	-10.9966
▁రిపబ్లిక	-10.997
نے	-10.9972
▁83	-10.9975
▁కట్టు	-10.9976
▁పర్యవేక్షి	-10.9979
▁మార్గదర్శ	-10.9982
▁దుమారం	-10.9982
▁ప్రిన్సిపాల్	-10.9982
▁ఎమ్	-10.9983
▁వినాయకుడి	-10.9983
▁న్యూఢిల్లీః	-10.9984
ిలి	-10.9984
▁ఆర్య	-10.9985
▁ప్రతిష్ఠ	-10.9986
▁తులసి	-10.9987
▁అగ్నిప్రమాదం	-10.9987
▁సిన	-10.9987
▁నారాయణపేట	-10.9988
▁మొహ	-10.9988
ీహార్	-10.9989
▁అన్నింటి	-10.999
▁సక్రమ	-10.9992
▁స్నేహం	-10.9997
▁క్ల	-10.9998
వాయి	-11
▁అంగన్	-11.0002
▁పడుతూ	-11.0003
▁ఆహ్వాన	-11.0005
▁ఆక్సి	-11.0005
▁అనుసరించి	-11.0008
▁గణేశ్	-11.0011
▁నదీ	-11.0012
▁మారారు	-11.0012
▁విధ్వంసం	-11.0012
Y	-11.0016
శెట్టి	-11.0016
కెప్టెన్	-11.0017
▁వెల్ల	-11.0017
▁హిందువులు	-11.002
ୟ	-11.002
▁వాహనదారులు	-11.0021
▁వ్యర్థాల	-11.0022
రైన	-11.0023
▁ాక	-11.0025
మంత	-11.0025
▁అత్యాచార	-11.0029
పక్క	-11.0029
చుకో	-11.0031
▁జరపాల	-11.0034
ات	-11.0038
▁దొంగతన	-11.0038
le	-11.0042
▁మనీష	-11.0043
up	-11.0044
▁నిప్పు	-11.0047
▁పనిచేయడ	-11.0049
▁బడుల	-11.0053
▁క్యాష	-11.0056
స్ట్రాల	-11.0063
▁ఆశీస్సుల	-11.0069
▁నెదర్లాండ్	-11.0069
▁పంచాయితీ	-11.0069
▁పునరావాస	-11.0069
▁మహీంద్రా	-11.0069
▁విరుచుకుపడ్డారు	-11.0069
▁స్టూడియో	-11.0069
▁జైస్వాల్	-11.0069
▁ఫ్రెంచ	-11.0069
▁اپن	-11.0069
▁అకస్మాత్	-11.0069
▁కోరుట్ల	-11.0069
▁వెల్లువెత్త	-11.007
▁మూసి	-11.007
▁పేర్ని	-11.0071
▁దిక్కు	-11.0071
▁చూడొచ్చు	-11.0072
మల్	-11.0075
▁వుతున్న	-11.0077
▁తీసుకున్నా	-11.0079
▁ఎదురుగా	-11.0079
▁సవాళ్ల	-11.008
▁నిరంజన్	-11.0082
▁కల్పించే	-11.0086
▁లేచి	-11.0089
ಪ್	-11.0091
▁సమర్థవంత	-11.0091
▁Ra	-11.0091
▁తేమ	-11.0095
▁వంటకాల	-11.0103
▁కడుపులో	-11.0103
▁వేలంలో	-11.0109
▁క్షణం	-11.011
▁హక్కులు	-11.0111
▁భావోద్వేగ	-11.0112
▁మెంట	-11.0116
▁అనడం	-11.0118
▁ఒకటే	-11.0118
▁చేయించి	-11.0119
ni	-11.012
▁డయా	-11.012
▁కలిశ	-11.0124
▁మీరే	-11.0128
▁చేపట్టనున్న	-11.0132
▁کرن	-11.0137
పదే	-11.014
▁జల్	-11.0142
▁తరం	-11.0144
▁ఉందన్న	-11.0145
▁వ్యాఖ్యానించ	-11.0148
▁అవ్వడం	-11.0148
▁బంతుల	-11.015
us	-11.0151
▁ఫిష	-11.0155
▁ుతూ	-11.0156
ु	-11.0157
▁ఎండ్	-11.0157
ಚ	-11.0157
▁కాంబినే	-11.0157
▁కాన్సెప్ట్	-11.0157
▁డ్రైనేజీ	-11.0157
▁రాజయోగం	-11.0157
▁వృథా	-11.0157
▁వృశ్చిక	-11.0157
▁కోదాడ	-11.0157
▁పదిహేన	-11.0157
▁ప్రావిన్స	-11.0157
బర్	-11.0157
▁చల్	-11.016
▁ఫేజ్	-11.0161
▁పెట్రోల	-11.0162
హార	-11.0163
▁ంటి	-11.0165
▁ఉపాధ్యాయ	-11.0167
▁చేయాలంట	-11.0168
▁పారా	-11.0169
▁అందజే	-11.0169
▁విశ్వవిద్యాలయం	-11.0172
▁నిలకడగా	-11.0173
ర్జన	-11.0173
వాచ్	-11.0173
▁సుందర్	-11.0174
▁ప్రసంగించారు	-11.0177
▁కొనసాగుతూ	-11.0178
▁కనిపించలేదు	-11.0183
▁నియామకాల	-11.0184
▁పోరాడుతున్న	-11.0186
▁తీర్థ	-11.0187
▁ع	-11.0187
▁చెల్లింపు	-11.0191
▁ప్రవాహం	-11.0191
▁କୁ	-11.0195
▁కనపడ	-11.0195
▁తెలియకుండా	-11.0196
▁రైల్	-11.0198
ಿಸಿದ	-11.0207
▁బాండ్ల	-11.0209
▁పక్ష	-11.0211
మర	-11.0213
చ్చింది	-11.0215
▁పీసీ	-11.0216
▁అగ్రి	-11.0219
▁హిమ	-11.0222
▁ాడా	-11.0223
ిల్ల	-11.0224
▁టీఎంసీల	-11.0228
▁చిత్తు	-11.023
▁పెట్టుకుంట	-11.0234
▁మెట్ల	-11.0235
▁వంత	-11.0237
▁పరీక్షించ	-11.0237
▁శాత	-11.0237
▁బుడ	-11.0238
ువ్వాడ	-11.024
▁వాన్	-11.024
▁కూలీల	-11.0244
▁టైర్	-11.0245
▁ఎంక్వైరీ	-11.0245
▁ఒంగోలు	-11.0245
▁కాన్వాయ్	-11.0245
▁చౌరస్తా	-11.0245
▁తమిళిసై	-11.0245
▁దళితబంధు	-11.0245
▁ప్రీమియం	-11.0245
▁ప్రజాపాలన	-11.0245
▁ఫిలిప్	-11.0245
▁సంకీర్	-11.0245
▁రామమందిర	-11.0245
▁యాక్సిడెంట్	-11.0245
▁కొలువు	-11.0245
witter	-11.0245
▁అడుగుపెట్ట	-11.0246
▁తమ్ముడు	-11.0246
▁ఎమ్మెల్సీలు	-11.0247
▁నెగ్గి	-11.0249
▁ఎంపీటీసీ	-11.0249
▁ప్రైజ్	-11.025
▁భయాందోళన	-11.0251
▁గెలుచుకుంది	-11.0252
▁నిలిపి	-11.0252
▁అందాల	-11.0259
▁జరిగినా	-11.0262
▁సుదర్శన్	-11.0263
ାଇ	-11.0264
▁కొనసాగుత	-11.0264
బిహార్	-11.0265
▁పిలిచే	-11.0266
▁ధాన్య	-11.0266
▁కోట్లాది	-11.0266
్వార్	-11.0271
▁అడ్డంకుల	-11.0273
▁ఉరి	-11.0275
▁అబద్ధాలు	-11.0278
▁అడ	-11.0281
▁పాదాల	-11.0282
▁చ్చే	-11.0283
మయి	-11.0283
▁ఉపయోగిస్తున్న	-11.0285
▁బెదిరింపు	-11.0296
గురు	-11.0298
▁దొ	-11.03
▁విస్తరించి	-11.0303
▁వేస్త	-11.0303
▁ఎడ్	-11.0304
.35	-11.0305
ేశాడు	-11.031
మిక్	-11.031
.1,	-11.031
▁చ్చిన	-11.0311
me	-11.0315
▁న్నింటిన	-11.0317
▁చౌక	-11.0317
▁ఎగుర	-11.0319
▁క్క	-11.0319
▁ఘర్షణలు	-11.0322
జిల్	-11.0327
▁ట్ల	-11.033
▁కుండ	-11.0333
▁బ్లడ	-11.0333
▁సహకరించాల	-11.0334
▁కెమికల్	-11.0335
▁రికవరీ	-11.0335
▁విలేకరుల	-11.0335
▁హోరాహోరీ	-11.0335
▁ఉద్యమకారుల	-11.0335
▁చౌహాన్	-11.0335
▁ఆటగాడు	-11.0335
▁బ్రిటీష	-11.0335
▁అర్పించ	-11.0335
▁తరుగు	-11.0335
▁శ్రేయస్సు	-11.0335
కొడంగల్	-11.0336
▁వెర్షన్	-11.0336
▁టాలెంట	-11.0336
▁హౌజ	-11.0337
▁AP	-11.034
▁ఎట్టి	-11.0341
▁షూట్	-11.0344
▁म	-11.0345
▁ఉంచడం	-11.0346
▁నియామక	-11.0347
▁ఏళ్లలో	-11.0348
▁పెరుగుతూ	-11.035
▁సర్వీసు	-11.035
▁తుంద	-11.0352
▁నర్సింగ	-11.0354
▁కరువు	-11.0355
▁గ్ర	-11.036
▁న్నాయని	-11.0361
▁శుక్రుడు	-11.0361
▁అంటు	-11.0362
▁160	-11.0362
▁అనుకుంటే	-11.0363
▁టెట్	-11.0364
▁తడిసి	-11.0367
▁షే	-11.0372
द	-11.0374
▁బెల్ట్	-11.0375
▁ద్ర	-11.0375
▁ఉంటా	-11.0378
▁తీసింది	-11.0381
▁స్తుండటం	-11.0384
▁తోందని	-11.039
▁ఒకరికి	-11.0391
▁అందజేయ	-11.0393
▁శుభ్	-11.0395
లేరు	-11.0402
▁దిగుమత	-11.0402
▁అవమానించ	-11.0408
థాన్	-11.0408
▁ై	-11.0409
▁బియ్య	-11.0413
టేషన్	-11.0414
▁అబ్బ	-11.0415
ఆదిపురుష్	-11.0425
▁ఒరిజినల	-11.0425
▁కన్వెన్షన్	-11.0425
▁చెప్పుకొచ్చాడు	-11.0425
▁ఫైనాన్షియ	-11.0425
▁యూనివర్శిటీ	-11.0425
▁రజినీకాంత్	-11.0425
▁అక్షయ	-11.0425
▁కరుణాకర	-11.0425
▁సిగ్గు	-11.0427
▁రేటింగ్	-11.0427
▁శోభ	-11.0427
▁పాపులర	-11.0428
▁సెలెక్ట	-11.0429
▁సంప్రదాయం	-11.0429
▁బంధ	-11.0431
▁మిడిల	-11.0431
▁ఇప్ప	-11.0432
వైనా	-11.0434
▁బ్యాలెన్స్	-11.0435
▁ہو	-11.0435
▁గణన	-11.0437
▁లావాదేవీల	-11.0439
▁తీసుకురా	-11.0447
ఘా	-11.0448
▁మధుమేహం	-11.0449
▁గర్	-11.0453
▁జాక్	-11.0453
▁నామినేషన్లు	-11.0454
లైట్	-11.0454
ార్థం	-11.0455
▁ఉంటాయ	-11.0457
شن	-11.046
▁ప్రారంభమై	-11.0465
▁అంతటా	-11.0466
▁చదివి	-11.0467
▁చేరుకునే	-11.0469
▁వండ	-11.0477
▁పలిక	-11.0477
పాడు	-11.0478
▁పొందింది	-11.0479
▁చవి	-11.0481
▁ిస్తూ	-11.0482
▁భీం	-11.0482
▁రంగులో	-11.0484
▁అయ్యాక	-11.0484
▁బడింది	-11.0489
కాల్	-11.049
పోవడమే	-11.0492
▁భావించే	-11.0494
▁۔	-11.0495
▁గ్రహించ	-11.0496
▁నష్టపోయ	-11.0497
▁శ్రీను	-11.0498
▁ించిన	-11.0502
▁ఆదేశాలతో	-11.0503
డర్	-11.0506
▁చదవ	-11.0506
▁నమ	-11.0506
▁విభాగ	-11.0507
▁ఉందనే	-11.0507
▁భవనంలో	-11.0509
▁శర	-11.0514
▁చేసుకోవాల్సి	-11.0514
▁నిర్దిష్ట	-11.0516
▁బురద	-11.0516
▁ఏటీఎం	-11.0516
▁పొదుపు	-11.0516
▁పేరెంట్స్	-11.0516
▁శక్తుల	-11.0516
▁అభిమాన	-11.0516
▁కోస్తా	-11.0516
▁ప్రసన్న	-11.0516
ఐఐటీ	-11.0516
▁ఇన్నాళ్ల	-11.0516
▁పతాక	-11.0516
▁గ్రీ	-11.0517
▁బోర్డర్	-11.0517
▁రంగనాథ్	-11.0517
▁సీరియల్	-11.0517
▁ఆర్బీఐ	-11.0518
▁సుకుమార	-11.052
▁మరొకటి	-11.0526
▁ఎదుర్కొంట	-11.0527
دہ	-11.0529
▁బ్రహ్మోత్సవాల	-11.053
▁బయటపడింది	-11.0532
▁నాగరాజు	-11.0534
▁ఫొటోల	-11.0534
▁సరిపో	-11.0535
ోల్	-11.0535
▁అమెరికాకు	-11.0535
▁పడక	-11.0537
▁మ్యూ	-11.0538
▁సారా	-11.0538
▁మూత	-11.0539
▁పెరిగిందని	-11.0542
▁దుకాణం	-11.0544
▁య్యే	-11.0545
▁అధిగమించ	-11.0547
▁తరుణ	-11.0549
▁ఆగ్రహ	-11.0549
▁కావ్య	-11.055
▁జస్	-11.0551
▁ఎగ	-11.0553
స్కా	-11.0553
▁ఖానా	-11.0555
▁కండి	-11.0556
▁లీటర్ల	-11.0559
▁మిడ్	-11.0561
▁నివారించ	-11.0562
▁ఓయూ	-11.0562
▁నాలా	-11.0562
▁అరబ్	-11.0562
▁ఆశ్చర్యం	-11.0562
▁ఎన్నికై	-11.0563
▁విరమించ	-11.0564
యాత్ర	-11.0567
▁సరికాదని	-11.0568
▁కోర్సుల	-11.057
ುವ	-11.057
▁కృతి	-11.0576
▁వచ్చింద	-11.0577
▁ఇతరులు	-11.0578
▁మార్క	-11.0581
▁ిస్త	-11.0584
▁ప్రారంభమవుతుంద	-11.0585
▁బెన్	-11.0585
▁ళ	-11.0585
▁ుకునే	-11.0587
▁నిలదీ	-11.059
▁పాత్రల	-11.0599
▁బంద	-11.0601
▁తుండటం	-11.0602
▁హాస్పిటల్స్	-11.0604
యత్	-11.0605
▁విపత్తు	-11.0605
▁బహ	-11.0607
ింటి	-11.0607
▁కన్నుమూశా	-11.0607
▁భూగర్భ	-11.0607
▁है	-11.0607
▁అసాధారణ	-11.0607
▁కృత్రిమ	-11.0607
▁మిధున	-11.0607
▁యువగళం	-11.0607
▁ఎల్లారెడ్డి	-11.0607
▁వీక్షించ	-11.0608
▁ఫ్లిక్స్	-11.0608
▁అఫ్గాని	-11.0608
▁వాసన	-11.0608
▁వర్గంలో	-11.0608
▁ప్రజావాణి	-11.0608
▁బాలాజీ	-11.0609
▁ಸಿ	-11.061
▁మైనారిటీ	-11.061
▁లగ్జ	-11.061
hi	-11.0611
▁అక్రమాలు	-11.0611
▁2010	-11.0612
▁కంచె	-11.0613
23	-11.0614
▁ఇవ్వకపోవడం	-11.0614
▁రిటర్న	-11.0616
▁పిచ్చ	-11.0616
▁లోగో	-11.0618
రాజన్	-11.0622
▁ఓడిపోయిన	-11.0623
▁నామ	-11.0626
▁దక్కలేదు	-11.0626
▁ఏక్	-11.0637
▁బసవరాజ	-11.0638
▁తెచ్చింది	-11.0639
▁సమానం	-11.0639
▁ఆశా	-11.0641
▁ఇస్తానన	-11.0642
▁تی	-11.0642
▁శ్యామ	-11.0643
▁గెలిపిస్త	-11.0646
▁దాచి	-11.0646
▁దామ	-11.0647
▁గెలవడం	-11.0647
▁గౌరవించ	-11.0651
లిన్	-11.0652
▁సభ్య	-11.0654
▁పౌరులు	-11.0658
▁వివ	-11.0659
▁బకాయిలు	-11.066
▁జరగాల	-11.0661
▁గుడ్డు	-11.0664
▁ಸ್	-11.0667
▁వస్త	-11.0667
ముఖ	-11.0667
▁పాఠశాలలు	-11.0671
▁తలుపు	-11.0674
▁కుటుంబసభ్యులు	-11.0676
ತಿ	-11.0681
▁కంప	-11.0682
▁బతుకు	-11.069
సభ	-11.0692
▁ఆరోపించ	-11.0693
▁శేష	-11.0695
▁హీట	-11.0698
▁శిశు	-11.0698
▁అయ్యా	-11.0698
▁కూలీ	-11.07
▁వివరిస్త	-11.07
▁రెసిడెన్	-11.07
▁دکھا	-11.07
▁పుంగనూరు	-11.07
▁సెకన్ల	-11.07
▁హుస్నాబాద్	-11.07
సనాతన	-11.07
▁ప్రవహిస్త	-11.07
▁ఆటగాడి	-11.07
▁ముందంజ	-11.07
▁లక్ష్మీనారాయణ	-11.07
▁శ్రీనివాసరెడ్డి	-11.0701
▁ఆదేశించ	-11.0701
▁స్తుండగా	-11.0701
▁వర్గీకరణ	-11.0702
ుంటుంది	-11.0703
29	-11.0703
జో	-11.0705
▁జోగి	-11.0705
▁కుప్ప	-11.0706
ుద్దీన్	-11.0707
▁సభా	-11.0707
▁వెల్లడై	-11.0708
▁క్లినిక	-11.071
▁సిమెంట్	-11.071
▁2006	-11.0711
▁చూడటానిక	-11.0713
▁సౌకర్య	-11.0715
▁విధానాలు	-11.0715
▁మొన్న	-11.0716
▁కట్టబెట్ట	-11.0716
▁చేయొద్ద	-11.0718
▁పేదరికం	-11.0719
డీఏ	-11.072
28	-11.0721
▁భోజన	-11.0722
దిరి	-11.0724
▁తీసుకున్నాడు	-11.0731
▁ఆర్ట్స్	-11.0732
▁ాయనే	-11.0733
▁వీక	-11.0735
▁విప్ప	-11.0735
▁యాన్	-11.0738
▁గండి	-11.0739
▁సమకూర్చ	-11.0739
▁దిగ్గజం	-11.0739
▁కష్టపడ	-11.0741
▁సిద్ధి	-11.0742
▁బీర్ల	-11.0743
్లిక్	-11.0743
▁చిట్ట	-11.0745
ଜ	-11.0747
▁చీల	-11.0747
మెయిల్	-11.0747
శక్తి	-11.0747
▁ప్రశంస	-11.0748
▁కూల్చి	-11.075
▁పత్ర	-11.0753
▁బచ్చన్	-11.0753
▁మాక్	-11.0757
ఫె	-11.0758
▁బ్రో	-11.0764
▁గ్యా	-11.0766
▁రిపేర్	-11.0767
▁మురళీ	-11.0773
▁ఉంటాడు	-11.0773
▁ుడైన	-11.0774
గట్టు	-11.0774
▁తారా	-11.0774
▁వృద్ధులు	-11.0777
▁ఖండ	-11.0783
▁అడవుల	-11.0785
▁తప్పద	-11.0785
▁బెదిరించ	-11.079
▁విప్లవ	-11.0793
ट	-11.0793
▁అడ్రస్	-11.0793
▁నైతిక	-11.0793
▁ల్యాప్	-11.0793
▁సజీవ	-11.0794
త్తీస్	-11.0794
ిస్తుంది	-11.0799
▁కూల్చివేత	-11.0799
▁హేమంత	-11.08
▁రావటం	-11.08
▁బ్రిజ	-11.08
▁వీక్	-11.0802
▁చంద్రుడు	-11.0802
▁370	-11.0804
▁ఇస్తుంద	-11.0806
▁రికార్డ్స్	-11.0808
ెక్ట	-11.0809
▁అదుపులో	-11.0811
▁లభిస్తాయి	-11.0812
▁వృద్ధుల	-11.0812
▁కుట్రలు	-11.0818
▁ంటారు	-11.0819
▁నిన్నటి	-11.0821
▁చైన్	-11.0821
▁ఉండేవారు	-11.0822
▁శాల	-11.0822
ద్రా	-11.0822
▁పెంచిన	-11.0823
▁చంపిన	-11.0825
▁కుక్కలు	-11.0827
▁దోషి	-11.0828
▁రాజేశ్	-11.0829
▁పెంచుతున్న	-11.0833
▁పెట్టుకుంది	-11.0834
▁ాయో	-11.0834
▁విశ్వాస	-11.0836
కృత	-11.0838
▁నాగేశ్వర	-11.0841
▁సందేశం	-11.0843
▁లలిత	-11.0845
▁ବା	-11.0845
▁మెక్	-11.0846
▁అవసర	-11.0848
▁కేటాయిస్త	-11.0849
▁సర్టిఫికెట్ల	-11.0851
▁అలాంటిది	-11.0856
▁అజ	-11.0856
▁అందుకో	-11.0859
49	-11.0867
▁డీసీఎం	-11.0872
▁యూపీలో	-11.0886
▁ఆయుధాలు	-11.0886
چھ	-11.0888
▁బెంగుళూరు	-11.0888
▁మల్కాజిగిరి	-11.0888
▁లెబనాన్	-11.0888
▁సిగరెట్	-11.0888
▁విమానయాన	-11.0888
▁సులువు	-11.0888
▁رہ	-11.0888
▁పాట్నా	-11.0888
▁త్రిపుర	-11.0889
▁కట్టడాల	-11.0889
▁ఆర్టిస్ట	-11.0889
▁గిన్నె	-11.0889
▁جا	-11.089
▁రాను	-11.0891
▁రిటైర్	-11.0891
▁ಗೆ	-11.0893
▁మనే	-11.0893
▁మర్రి	-11.0894
▁నటిస్తో	-11.0898
▁విభజించ	-11.0899
▁సెన్సా	-11.09
vi	-11.09
కోవడం	-11.0903
▁నిర్వాసితుల	-11.0906
▁మార్గాలు	-11.091
ేశ్వర్	-11.0911
▁తుండగా	-11.0911
▁సౌకర్యాల	-11.0912
▁కొడుతున్న	-11.0918
▁లభించే	-11.0921
▁ట్లయితే	-11.0922
▁బన్నీ	-11.0924
▁స్టూడెంట్లు	-11.0929
▁2024:	-11.093
▁గెలుస్తుంద	-11.093
▁ఉండాలన్న	-11.093
▁మీర	-11.0934
▁భరించ	-11.0935
▁అనుకున్నా	-11.0935
▁బాండ్	-11.0936
ివల్	-11.0938
▁నోట్లు	-11.0938
▁శంకర	-11.094
▁రాయల్స్	-11.0941
▁తీసుకురావడం	-11.0944
షనల్	-11.095
▁కుదర	-11.095
▁హ్యా	-11.0951
సేన	-11.0952
▁విత్తనాలు	-11.0953
▁ఛార్జీలు	-11.0958
▁ామ	-11.096
▁కర్ర	-11.0962
▁ఉమా	-11.0967
▁స్తుంట	-11.0971
▁స్కూల్స్	-11.0973
ింప	-11.0973
▁సంభవించిన	-11.0975
▁పండించ	-11.0976
▁దాల్చ	-11.0977
▁జాప్యం	-11.0983
▁దిగ్భ్రాంతి	-11.0983
▁యూఏఈ	-11.0983
▁కార్బన్	-11.0983
▁హోటళ్ల	-11.0983
▁బద్దలు	-11.0983
▁లబ్ది	-11.0983
▁మొహమ్మద్	-11.0983
▁పూర్తయ్యే	-11.0983
▁బాధితురాలు	-11.0983
ెత్తున	-11.0984
▁వస్తోన్న	-11.0984
▁సూర్యకుమార్	-11.0984
▁విరాళాల	-11.0984
▁ఉత్తీర్ణత	-11.0986
▁నీరజ	-11.0986
నుంచి	-11.0986
▁ఉనికి	-11.0986
▁క్రిస్మ	-11.0986
▁భయపడి	-11.0987
▁మొట్టమొదటి	-11.0989
▁జనసేనాని	-11.0989
▁అయిందని	-11.099
▁కళ్యాణ	-11.0995
▁సిద్ధమయ్య	-11.0997
▁షెడ్	-11.0997
▁ష్	-11.0998
▁రామయ్య	-11.0999
▁పునర్	-11.1001
▁డ్రింక్	-11.1001
▁చిన్నారులు	-11.1002
▁మార్గదర్శకాల	-11.1002
▁గ్రామస్తుల	-11.1003
▁పవిత్రమైన	-11.1003
▁అడ్వ	-11.1007
▁నమ్ముతున్న	-11.1009
▁లియో	-11.101
▁సాగే	-11.101
▁త్ర	-11.1012
ాజ్	-11.1013
లేదన్నారు	-11.1016
▁పసి	-11.1017
▁కడ	-11.1017
▁రంగుల	-11.1019
▁144	-11.102
▁92	-11.1024
▁సింది	-11.1025
▁రూల్	-11.1025
▁టైమ్స్	-11.1029
▁బీచ	-11.1033
▁ଲ	-11.1034
▁కూర్చో	-11.1034
▁ప్రైమ్	-11.1037
▁ఓడిన	-11.104
▁డాక్యుమెంట్ల	-11.1041
▁చేశాను	-11.1043
▁జాన	-11.1045
▁చేసినప్పటికీ	-11.1046
▁రమ్మ	-11.1047
har	-11.1049
▁కోరుకుంటున్నారు	-11.1049
▁తీసుకెళ్త	-11.1049
han	-11.1049
▁వ్	-11.1054
▁ఉగ్రవాదులు	-11.1054
▁భావ	-11.1055
▁ొద్దు	-11.1057
▁బ్యాట్	-11.106
▁దిశ	-11.106
▁లెస్	-11.1062
▁కొద్దిసేపటి	-11.1067
▁వ్యవహార	-11.1068
▁పనిచేయాల	-11.1069
ଚ	-11.107
▁టెస్టులు	-11.1072
▁కరుణ	-11.1079
▁గైక్వాడ్	-11.1079
▁డెయిరీ	-11.1079
▁భువనేశ్వర్	-11.1079
▁అభ్యర్ది	-11.1079
▁మహమ్మారి	-11.1079
▁వెనుదిరిగ	-11.1079
▁హైడ్రో	-11.1079
▁తొలగింపు	-11.1079
▁స్టేటస్	-11.1079
▁నాదె	-11.1079
▁ఉగ్ర	-11.1081
▁తగ్గే	-11.1081
▁జోషి	-11.1082
▁గ్రహ	-11.1087
▁పూరీ	-11.1088
▁మవుతుంది	-11.1089
ಡ್	-11.1089
▁దగ్గర్లో	-11.109
▁అమ్మాయిలు	-11.1092
లాండ్	-11.1093
వహించిన	-11.1094
▁తప్పదు	-11.1094
▁మిశ్రమ	-11.1095
▁షబ్	-11.1095
▁ఖైదీల	-11.1096
▁పాలయ్యారు	-11.1096
▁కలుగుతాయి	-11.1099
▁క్లోజ్	-11.11
▁ుకుంటూ	-11.1101
▁దహనం	-11.1103
ారంటూ	-11.1106
▁అమ్మకాల	-11.1106
బుద్ధి	-11.1108
▁చూపించిన	-11.1109
▁ద్వ	-11.111
▁కడుతున్న	-11.1112
▁ఓటర్	-11.1118
▁కంట	-11.1121
మర్స్	-11.1124
▁శిశువు	-11.1127
▁పండి	-11.1127
▁పర్యవేక్షించ	-11.1127
▁ఉపరితలం	-11.1128
▁సీతా	-11.1128
▁125	-11.113
▁పడడం	-11.113
▁చేసుకుంటారు	-11.1132
▁డాన్స్	-11.1134
▁ైంది	-11.1134
నాయుడు	-11.1134
▁బలపడ	-11.1144
▁ించి	-11.1144
▁ఉన్నవారి	-11.1144
ింక	-11.1146
▁గార్డ్	-11.1146
▁వ్యూహ	-11.1152
▁కదలికల	-11.1153
▁నిజమే	-11.1156
▁కేక్	-11.1157
esh	-11.1165
▁ఆరోపణ	-11.1165
▁వెళ్లిపోయ	-11.1168
▁ఆశ్రయించి	-11.1168
▁ఆమోద	-11.1172
ತ್ತ	-11.1174
▁చావు	-11.1175
▁వారణాసి	-11.1176
▁pic	-11.1176
▁ఇంఛార్జ	-11.1176
▁ఇన్వెస్టిగేషన్	-11.1176
▁టోర్నమెంట	-11.1176
▁డొనాల్డ్	-11.1176
▁బషీర	-11.1176
▁కంటోన్	-11.1176
దనం	-11.1176
▁ఆచూక	-11.1176
▁మూడేండ్ల	-11.1176
▁కాశీ	-11.1177
▁ଏକ	-11.1177
▁పోయాయని	-11.1178
▁ح	-11.1178
▁తగ్గింపు	-11.1178
▁వాపోయారు	-11.1178
ion	-11.1178
▁బందీల	-11.1178
▁విచిత్ర	-11.1179
▁సేఫ్	-11.118
▁నప్పుడు	-11.1181
▁దుర్	-11.1182
▁ఇంతకుముంద	-11.1186
▁వస్తున్నాయని	-11.1189
▁కొమ్మ	-11.119
▁చేస్తు	-11.1191
▁కాకపోవడం	-11.1192
▁ఉంటార	-11.1193
ଦ	-11.1195
▁దేవతల	-11.1195
▁వస్తుంద	-11.12
▁ండగా	-11.12
▁సంతకాలు	-11.1201
శారని	-11.1201
▁స్థలాలు	-11.1206
▁ప్రయోగించి	-11.1208
▁అమరుల	-11.1212
▁ल	-11.1212
▁మొదల	-11.1213
ీకరించ	-11.1218
▁తీసుకురావడ	-11.122
ుకుంటారు	-11.1223
▁పురుష	-11.1224
▁కర్మ	-11.1233
వెల్లి	-11.1235
▁గతం	-11.124
▁లోన్లు	-11.1241
▁సౌర	-11.1241
65	-11.1242
సేప	-11.1248
ొక	-11.1259
▁నికర	-11.126
▁జరుగుతాయ	-11.1264
బడింది	-11.1265
▁హర్షం	-11.1265
▁హత్యలు	-11.1266
▁సేకరించారు	-11.1267
▁అకౌంట్ల	-11.1268
▁పోస్టులకు	-11.1268
▁పలుకుత	-11.1269
▁ఆంజనేయ	-11.1272
▁అలెర్ట్	-11.1274
▁కోనసీమ	-11.1274
▁నిజాయితీ	-11.1274
▁భూసేకరణ	-11.1274
▁మ్యాజిక్	-11.1274
▁విజువల్	-11.1274
▁సతీశ్	-11.1274
▁ఆచరించ	-11.1274
▁రామోజీ	-11.1274
▁తరలింపు	-11.1274
▁యాదగిరిగుట్ట	-11.1274
▁ప్రొటీన్	-11.1274
▁విచారిస్తున్న	-11.1276
▁శ్రీనివాసులు	-11.1278
▁పగ	-11.1279
▁మందిర	-11.128
▁పెడ	-11.1281
▁అమీర్	-11.1282
▁దక్కించుకుంద	-11.1284
▁ందరిక	-11.1287
▁సంప్రదింపులు	-11.1288
ಜ	-11.1288
▁రాదని	-11.129
▁పాల్పడ్డారు	-11.1291
▁l	-11.1291
▁చిల	-11.1292
▁ప్రశ్నించిన	-11.1292
▁ఖు	-11.1293
▁తిప్పి	-11.1293
▁ఇచ్చామని	-11.1295
▁మార్చుకున్న	-11.1301
▁కుంగి	-11.1302
▁చేరికల	-11.1305
ాయన	-11.1306
▁వేతనాలు	-11.1307
▁సెటిల్	-11.1307
▁జర్నలిస్టుల	-11.1308
▁ఐసీ	-11.131
▁తీసుకోవాల	-11.1315
▁శతాబ్దం	-11.1316
▁అర్ష	-11.132
▁పడుతున్నార	-11.132
▁ుతున్న	-11.1322
▁సెన్స	-11.1323
▁రేగ	-11.1324
ంజ్	-11.1326
▁తాగే	-11.1329
ol	-11.133
▁వైరా	-11.1331
▁ఉపయోగించు	-11.1332
డబ్ల్యూ	-11.1333
କୁ	-11.1334
▁రాచ	-11.1335
▁పూర్తయి	-11.1335
▁మాత్ర	-11.1335
▁గోడల	-11.1337
▁హైప	-11.134
▁ಕ್	-11.1341
▁96	-11.1342
va	-11.1345
▁తీయడం	-11.1347
▁పేటలో	-11.1349
▁దిశలో	-11.1351
▁సిర్	-11.1353
▁కథలు	-11.1353
▁నంబర్ల	-11.1356
▁సిరి	-11.1356
న్య	-11.136
▁వస్తారు	-11.1362
▁వెల	-11.1365
▁జీఎం	-11.1366
▁కనుగొన	-11.1371
▁ుని	-11.1372
▁में	-11.1373
▁ଭିଡିଓ	-11.1373
▁అడ్మినిస్ట్రే	-11.1373
▁రషీద్	-11.1373
▁క్వింటాళ్ల	-11.1373
▁పరిగణలో	-11.1373
▁అంపైర్	-11.1373
▁రీల్స్	-11.1374
▁బేగంపేట	-11.1374
▁చెల్లించుకున్న	-11.1374
▁శాంసన్	-11.1376
▁తీసుకెళ	-11.1379
▁ఒప్పుకో	-11.138
▁త్రిష	-11.138
▁తినాలి	-11.1383
um	-11.1385
▁ఆత్మవిశ్వాసం	-11.1385
ಾರ	-11.1386
▁అమర	-11.1387
▁ఆవిష్కరించారు	-11.1389
▁మండపం	-11.1393
▁దుస్తుల	-11.1397
▁గ్యారెంటీ	-11.1399
▁రావాలి	-11.1399
యినా	-11.1401
▁మైనార్టీ	-11.1404
▁నమోదయ్య	-11.1409
▁119	-11.1409
▁రాగి	-11.1409
▁ఎవరిన	-11.141
▁తెలియక	-11.1412
▁దేశాయ్	-11.1413
▁కారణమై	-11.1414
▁అందుతున్న	-11.1416
▁ుతుంది	-11.1419
▁గుండా	-11.1428
తరగతి	-11.1434
▁శిల్ప	-11.1438
▁కమీషన్	-11.1438
▁హీరోల	-11.1439
▁వినియోగించు	-11.144
▁ఒలింపిక్	-11.144
▁మెట్రిక్	-11.144
పూర్వకంగా	-11.144
▁వ్రతం	-11.1445
ିତ	-11.1448
▁డమ	-11.1451
▁పెన్షన్ల	-11.146
GB	-11.1462
రతన్	-11.1465
▁వాణి	-11.1466
66	-11.1468
▁డాక్టర్ల	-11.1468
▁ధైర్య	-11.147
▁తొక్కిసలాట	-11.1473
▁ఓపెనింగ్	-11.1473
▁ధోరణి	-11.1473
▁రిజిస్ట్రార్	-11.1473
▁కోదండరాం	-11.1473
▁కంపార్ట	-11.1473
▁మోర్చా	-11.1474
ందుల	-11.1474
▁ప్రశంసించారు	-11.1474
▁నాగేందర్	-11.1475
▁సయ్యద	-11.1475
▁మద్రాస	-11.1475
▁1999	-11.1476
▁పీఏ	-11.1478
▁చేశారంట	-11.1478
▁రోబో	-11.1479
▁పరిష్కార	-11.1481
▁చంపి	-11.1481
▁మహాత్మా	-11.1482
▁లక్షా	-11.1482
వ్వడం	-11.1484
▁ధ్యాన	-11.1484
▁08	-11.1485
▁కాల్చ	-11.1488
▁పున	-11.1491
ోస్ట్	-11.1491
ବା	-11.1492
▁ించే	-11.1494
▁వెజ్	-11.1494
▁వినోద	-11.1496
▁ఒప్పుకున్న	-11.1497
▁ఐదేళ్లు	-11.15
▁ఆభరణాల	-11.1502
▁తెరవ	-11.1505
▁తెలుస	-11.1506
▁ఉంచిన	-11.1506
▁స్మృతి	-11.1508
▁కార్పొరేటర్లు	-11.151
▁హర్యానాలో	-11.1511
38	-11.1515
▁ఆరంభ	-11.1516
▁చేసేది	-11.1519
▁ఐక్య	-11.1519
▁వందన	-11.152
రాజ	-11.1521
▁బహుశ	-11.1523
▁లేకున్న	-11.1527
▁పాలనా	-11.1529
▁చూడాల్సి	-11.1529
▁చేస్తాడు	-11.153
▁సభ్యత్వ	-11.1533
ఈడీ	-11.1535
X	-11.1536
జూన్	-11.1536
వికెట్	-11.154
▁రుజువ	-11.154
▁సచివాలయంలో	-11.1542
▁రథ	-11.1544
▁కేసీ	-11.1548
▁నాసా	-11.1548
జార్	-11.1548
ెజ్	-11.1549
▁స్టార్స్	-11.1552
▁ఉండనున్న	-11.1556
▁ప్రవేశం	-11.1559
▁గూడ్స	-11.1562
▁وی	-11.1563
▁కలలు	-11.1563
▁వచ్చారని	-11.1564
▁అఫ్	-11.1565
▁రానా	-11.1565
99	-11.1565
▁f	-11.1567
▁91	-11.1567
ాఖ్య	-11.157
▁పంద	-11.1572
▁కిశోర్	-11.1574
▁సామగ్రి	-11.1574
▁సైలెంట్	-11.1574
▁ుకోవాలి	-11.1574
▁యానిమల్	-11.1574
▁వాయుగుండం	-11.1574
▁జోస్యం	-11.1574
▁కంగనా	-11.1574
▁ఛేదించ	-11.1574
▁ఇస్లామి	-11.1574
▁చట్టబద్ధ	-11.1575
▁సుబ్బారెడ్డి	-11.1575
▁ఒవైసీ	-11.1575
▁పదోన్నత	-11.1575
▁వైప	-11.1576
▁పుస్తకాల	-11.1576
▁అమర్చ	-11.1578
▁బేసి	-11.1578
▁ఎంచుకు	-11.1579
▁‭	-11.1579
▁ఆడియో	-11.1579
▁పరమేశ్వర	-11.158
▁మైత్ర	-11.158
▁పన్న	-11.158
▁మాత	-11.1582
ష్ఠ	-11.1583
▁పాల్గొంట	-11.1584
▁ఎల్బీ	-11.1587
▁కోవాలి	-11.159
ిస్తారు	-11.1592
▁ాలనుకున్న	-11.1592
▁అడ్డుకున	-11.1592
▁బెర్	-11.1593
▁జమిల	-11.1595
▁విధ	-11.1598
ళం	-11.1598
▁స్వరూప	-11.1602
▁94	-11.1605
▁వేధింపులు	-11.1606
▁పాలెం	-11.1607
▁తొలగించారు	-11.1619
▁అనుష్	-11.1623
▁ఉన్నవార	-11.1626
▁పోటీలు	-11.1627
▁కమలం	-11.163
▁డాక్యుమెంట్	-11.163
స్థాయిలో	-11.1631
▁సాధ్యమ	-11.1633
▁వైష్ణవ్	-11.1634
▁నిరస	-11.1634
▁పిల్లి	-11.1635
▁వదిలే	-11.1636
▁సలా	-11.1639
▁మనో	-11.164
▁ుతున్నారు	-11.164
▁రాత	-11.1642
▁సెంటర్లు	-11.1643
▁సుమ	-11.165
▁అప్లికేషన్లు	-11.1651
జల్	-11.1651
▁కాలేజీలు	-11.1651
▁ఏంటీ	-11.1652
▁با	-11.1655
లిక్	-11.1659
▁రేఖ	-11.1659
▁చేస్తుంద	-11.166
▁82	-11.166
ిచ్చారు	-11.166
న్మార్	-11.1662
▁వ్యవస్థాపక	-11.1665
▁హిం	-11.1668
పిక్	-11.1669
▁అభివృద్ది	-11.1676
▁ఆతిథ్య	-11.1676
▁కంటెస్టెంట్	-11.1676
▁బృహస్పతి	-11.1676
▁సీక్రెట్	-11.1676
▁సమాధి	-11.1676
▁ఆటంకం	-11.1676
▁చోప్రా	-11.1676
▁ఎగువ	-11.1677
▁ఉద్యోగస్తుల	-11.1677
ామినేటెడ్	-11.1677
సల్	-11.1677
▁మోహరించ	-11.1677
▁రవికుమార్	-11.1677
▁ఉపాధ్యక్షుడు	-11.1678
▁జైలర్	-11.1679
▁పేదలు	-11.1679
▁దీపా	-11.1679
▁పసిడి	-11.1679
▁టన్	-11.168
▁బెటర్	-11.168
▁బస్తీ	-11.1681
▁చేసినందుకు	-11.1685
▁నివాళులర్పించ	-11.1688
▁కనబర	-11.1689
▁అందించి	-11.169
▁వ్యాస	-11.169
▁లేం	-11.1691
▁పూన	-11.1692
▁పరిశీలిస్తే	-11.1692
ನ್ನ	-11.1694
▁తాటి	-11.1695
▁తగ్గించే	-11.1697
▁విడిపోయి	-11.1699
▁కుటుంబసభ్యుల	-11.1703
▁విడాకుల	-11.1703
▁విల్	-11.1704
▁నిమజ్జనం	-11.1709
▁డైల	-11.1709
▁ఐఎండీ	-11.171
పాత	-11.1714
విడ్	-11.1716
▁ଉ	-11.1716
▁పదం	-11.1716
▁భూమిపై	-11.1717
di	-11.1718
▁మనసులో	-11.172
▁పించ	-11.1721
▁కోతుల	-11.1724
▁డార్	-11.1724
▁సరస	-11.173
ాధికార	-11.1741
షాద్	-11.1751
▁భౌతిక	-11.1757
▁జాతుల	-11.1758
గ్గు	-11.1758
▁మెరుపుల	-11.1765
ర్డర్	-11.1767
▁తగ్గాయి	-11.1767
▁పారిపో	-11.1772
▁ఫలించ	-11.1773
వద్దని	-11.1773
స్తీ	-11.1774
▁పెడతారు	-11.1775
వతి	-11.1776
▁గుల్	-11.1776
▁Telangana	-11.1779
▁ఇండెక్స్	-11.1779
▁కంప్లైంట్	-11.1779
▁కమిషనరేట్	-11.1779
▁కస్టమ్	-11.1779
▁తాగునీరు	-11.1779
▁మందమర్రి	-11.1779
▁శాంతిభద్రతల	-11.1779
▁సరస్వతి	-11.1779
▁వేడెక్క	-11.1779
▁కాజీపేట	-11.1779
▁ఫిలిం	-11.178
▁లక్ష్మారెడ్డి	-11.178
▁మనుగడ	-11.178
▁ఐదేండ్ల	-11.178
▁వ్యూస్	-11.178
▁ప్రతిష్ఠాత్మక	-11.178
▁జాయిన్	-11.178
▁అనుమానిస్తున్న	-11.1781
▁నాగబాబు	-11.1781
▁ఎత్తిపో	-11.1782
▁PM	-11.1782
బట్ట	-11.1783
ee	-11.1783
▁ఇపుడు	-11.1783
▁గైడ	-11.1784
▁ప్రయాణించే	-11.1784
▁హోమ	-11.1789
▁బీభత్సం	-11.1789
▁మయ్య	-11.1791
▁భి	-11.1797
▁తిరుపతిలో	-11.1798
▁అరెస్టయి	-11.18
▁ನ್ನು	-11.1801
▁ఉంటోంది	-11.1801
▁భట్	-11.1802
▁వారాలు	-11.1802
▁87	-11.1807
▁కాస్తా	-11.1808
▁భవాన	-11.181
▁ఆలోచించి	-11.181
▁సింహా	-11.1811
32	-11.1812
ab	-11.1814
▁సిరియా	-11.1815
▁అంది	-11.1816
▁సరళ	-11.1816
▁దేవత	-11.1818
▁350	-11.1819
▁వాజ్	-11.182
▁లక్ష్యమన	-11.1821
▁పట్టే	-11.1821
▁పీఎఫ్	-11.1822
దుల	-11.1823
▁مل	-11.1823
▁చౌ	-11.1828
▁ిస్తున్నారు	-11.1829
▁గురవుతున్న	-11.1831
▁మిట్ట	-11.1833
▁ప్రకటించి	-11.1835
▁అబ్దుల్లా	-11.1836
రుడు	-11.1837
▁వేశా	-11.1837
ందీ	-11.1837
▁లొ	-11.1841
కాంత్	-11.1844
▁మోట	-11.1848
చూపు	-11.1849
దాస్	-11.1849
▁విధిస్త	-11.1853
▁పిల్	-11.1856
▁ఉన్నాడని	-11.1857
▁చూపించే	-11.1859
▁ఆపే	-11.186
▁నీర	-11.187
▁సమ్మ	-11.1872
▁మలయాళం	-11.1877
▁రాబట్టి	-11.1877
ొద్దు	-11.1878
ెయింట్	-11.1881
▁నీల్	-11.1881
లక్ష్మి	-11.1882
▁యాసంగి	-11.1884
च	-11.1884
▁అమరవీరుల	-11.1884
▁మధుసూదన్	-11.1884
▁అన్నమయ్య	-11.1884
▁వెంబడి	-11.1884
▁హితవు	-11.1884
ಮಾಜಿ	-11.1884
▁అభివర్ణించారు	-11.1884
▁బ్రదర్	-11.1884
▁వర్చువల	-11.1884
ఆర్సీబీ	-11.1884
▁ఇనుప	-11.1884
▁ఆర్ఆర్ఆర్	-11.1887
▁హోంశాఖ	-11.1887
▁సెక్రటేరియట్	-11.1889
▁తెలియదని	-11.189
▁చో	-11.189
▁సిల్	-11.1891
▁ంటున్నారు	-11.1891
▁కోళ్ల	-11.1893
▁వినతి	-11.1895
▁చూడండి	-11.1895
జియ	-11.1896
▁అర్చకులు	-11.1896
▁కౌన్సిలర్	-11.1896
▁జీపీ	-11.1898
▁లిస్టు	-11.1899
▁వారికే	-11.1899
▁పొడవ	-11.19
▁సీతారామ	-11.1902
▁ప్రమాణస్వీకారం	-11.1903
گ	-11.1903
▁త్యాగాల	-11.1907
▁పిలవ	-11.1908
ya	-11.191
▁సర్వీసులు	-11.191
▁ముస్త	-11.1914
39	-11.1915
ండర్	-11.1915
ହା	-11.1917
▁పేజీ	-11.1918
▁వాగ్వాదం	-11.1918
▁డోన	-11.1921
బియా	-11.1922
ఖుషి	-11.1923
▁on	-11.1924
▁చిత్రీకరి	-11.1924
▁నడిపి	-11.1926
ియం	-11.1927
▁చైనీ	-11.1927
▁మార్చే	-11.1928
▁పోషించి	-11.1931
▁ప్రసిద్ధి	-11.1933
▁సంపాదించుకున్న	-11.1933
▁ఇంతవరక	-11.1936
పోయాడు	-11.194
▁కుడు	-11.1942
▁పబ్	-11.1947
▁పాలకులు	-11.1947
▁ఉమెన్	-11.1948
▁చెప్పాలంట	-11.195
టీఏ	-11.1953
▁రజ	-11.1953
▁من	-11.1953
▁వెల్లడించిన	-11.1955
▁రిజల్ట్	-11.1955
▁స్ట్	-11.1956
నష్టం	-11.1956
ంపేట	-11.1959
▁నవంబరు	-11.196
▁నిషేధించ	-11.1965
▁ఆదా	-11.1967
ధార	-11.1969
విడ	-11.1977
▁ప్రయత్నిస్తోంద	-11.1978
▁నియామకాలు	-11.198
▁గొట్ట	-11.1981
▁జల్ల	-11.1982
▁చనిపోయ	-11.1984
▁అనుభవాల	-11.1984
కపోవచ్చు	-11.1988
श	-11.1989
▁చక్రవర్తి	-11.1989
▁త్రిపాఠి	-11.1989
▁ಆಗ	-11.1989
▁పరిస్ధిత	-11.1989
▁రిపీట్	-11.1989
▁ప్లానింగ్	-11.1989
▁మినిస్టర్	-11.1989
ಿದ್ದಾರೆ	-11.1989
▁ఇండిపెండెంట్	-11.1989
▁మహానాడు	-11.1989
▁రెండేండ్ల	-11.1989
▁ఢీకొట్టింద	-11.199
▁కొండగట్టు	-11.199
▁కూరుకు	-11.1991
▁గెల	-11.1991
▁యూపీఐ	-11.1991
▁చెల్లించి	-11.1992
▁ధనుష్	-11.1992
▁شی	-11.1993
▁ra	-11.1993
వలసిన	-11.1994
▁జోడి	-11.1995
▁లెట్	-11.1995
క్కా	-11.1995
▁చూస్తారు	-11.1996
▁ఆధారపడ	-11.1996
▁ఎంతమంది	-11.1997
▁ఆకర్షణ	-11.1997
▁మెమో	-11.1997
▁చదువుకున్న	-11.1998
▁బీబీ	-11.1999
▁ప్రశ్నించింది	-11.2001
ందరిక	-11.2001
▁వీరయ్య	-11.2002
▁ఉండాల	-11.2004
▁ధ్రువ	-11.2004
▁జరుగ	-11.2007
▁తెరిచ	-11.2007
▁పరిమాణం	-11.2007
▁మూడవ	-11.2007
ga	-11.2009
▁అనగా	-11.2011
▁స్కూళ్లు	-11.2012
▁బోస్	-11.2013
▁కార్యదర్శులు	-11.2013
▁తాండ	-11.2013
▁ఇస్తోంది	-11.2013
▁వైవా	-11.2015
▁పెర్	-11.2018
▁నిర్బంధ	-11.2025
గ్రేట్	-11.2025
▁నమ్మించ	-11.2026
▁శిల్పా	-11.2026
▁రైడ్	-11.2027
▁అందడం	-11.2028
▁డ్రెస్	-11.2029
▁సెస్	-11.2029
▁తెలియడం	-11.2031
▁టెండర్	-11.2045
▁పరమ	-11.2045
▁వైర్	-11.2046
▁ఛాయ	-11.2047
తుందో	-11.2047
▁స్పా	-11.2051
▁می	-11.2052
▁మూసే	-11.2055
▁చేయగలిగ	-11.2058
బ్రెయిన్	-11.206
ಭ	-11.2061
▁110	-11.2063
▁దట్ట	-11.2065
▁సీబీ	-11.2066
సెన్	-11.2069
▁తెలుసుకునే	-11.2071
▁టీసీ	-11.2074
▁తరాల	-11.2075
▁జన్	-11.2077
▁చెబుతున్నా	-11.2081
చెన్	-11.2084
▁వెళ్లా	-11.2088
▁అనిత	-11.2088
▁ప్రతిపక్షం	-11.2091
▁విషయమే	-11.2094
▁అమావాస్య	-11.2095
▁ఐర్లాండ్	-11.2095
▁కూర్చొ	-11.2095
▁జింబాబ్వే	-11.2095
▁పకడ్బందీ	-11.2095
▁క్లైమ	-11.2095
▁ఫుటేజీ	-11.2095
▁ప్యానెల్	-11.2095
ఎస్ఆర్టీసీ	-11.2095
▁పూర్తయ్యాయ	-11.2095
▁جو	-11.2096
▁మిరియాల	-11.2096
▁రిస్క్	-11.2096
▁ವಿಡಿಯೋವ	-11.2096
▁లియా	-11.2097
▁బుర్ర	-11.2098
▁తేనె	-11.2098
▁సమాధానాలు	-11.2098
▁విడద	-11.2098
▁ఆసరా	-11.2099
ెందు	-11.21
▁ఉన్నాం	-11.2101
▁పుడు	-11.2101
▁మాలిక్	-11.2102
▁ఉంచుత	-11.2103
▁అడి	-11.2103
▁రాబడి	-11.2103
▁డ్రాప్	-11.2104
▁ాయా	-11.2104
▁కొండచరియలు	-11.2104
▁అభ్యర్థన	-11.2104
సెస్	-11.2107
▁2007	-11.2108
36	-11.211
▁సాగుతుంది	-11.2111
▁శిబిరం	-11.2115
▁తరలిస్త	-11.2115
▁చెప్పినట్టు	-11.2115
ిండీస్	-11.2117
ାନ	-11.2118
▁ఈశ్వర	-11.2119
టిల్	-11.2121
▁గ్ల	-11.2122
▁పూర్ణ	-11.2124
▁తలుపులు	-11.2126
▁సింగర్	-11.2132
▁పనిచేయ	-11.2133
▁ఉగ్రవాదుల	-11.2133
▁(12	-11.2134
▁పలువురి	-11.2135
▁కెనడాలో	-11.2135
లమ్మ	-11.2137
▁యుగం	-11.2138
▁కనక	-11.2141
▁దశల	-11.2141
▁పూర్త	-11.2141
▁ఆకర్షి	-11.2142
▁ఇండస్ట్ర	-11.2143
▁కలుపు	-11.2144
▁la	-11.215
ಿಗೆ	-11.2154
▁ఎగ్జామ్స్	-11.2157
▁బెల్	-11.2157
▁వింట	-11.2158
▁దర్శన్	-11.2158
యిడ్	-11.2158
▁విందు	-11.2159
▁.!	-11.216
▁ండే	-11.2161
స్సా	-11.2162
▁ట్రాక్టర్	-11.2167
▁ముగియనుంద	-11.2168
భూమి	-11.2171
▁బదిలీలు	-11.2173
▁స్మిత్	-11.2174
▁జిన్	-11.2175
▁2)	-11.2179
▁వినియోగించుకు	-11.2186
▁ఉంటామ	-11.2186
▁గ్రహం	-11.2187
▁పీడీ	-11.2189
▁నిర్లక్ష్య	-11.2193
▁ఉత్సాహ	-11.2194
▁ప్రత్యర్థుల	-11.2196
▁ଭ	-11.2197
▁పరికరాలు	-11.2198
▁తవ్వ	-11.2198
▁లాస్	-11.2199
▁అగ	-11.22
▁ధను	-11.2202
▁ఐపీసీ	-11.2203
Z	-11.2203
ئر	-11.2203
ಉ	-11.2203
▁ప్రణీత	-11.2203
▁సస్పెన్స్	-11.2203
▁నడుచుకుంట	-11.2203
▁లేవనెత్త	-11.2203
▁జలుబు	-11.2203
▁సమ్మిట్	-11.2203
▁స్కూలు	-11.2203
▁దుమ్ము	-11.2203
▁సాక్షుల	-11.2203
▁నిర్ధారణ	-11.2203
▁ముంచెత్త	-11.2203
▁ఆలౌట్	-11.2203
▁గాలింపు	-11.2203
▁లక్కీ	-11.2203
▁బౌద్ధ	-11.2203
▁తెలిసే	-11.2204
▁ఏకపక్ష	-11.2204
▁US	-11.2205
▁వయనాడ్	-11.2207
మొ	-11.2208
▁గ్రూపుల	-11.2208
▁ఫిదా	-11.2209
కత్తా	-11.2211
▁ఉన్నాయన్నారు	-11.2211
దారి	-11.2216
ొకరు	-11.2219
▁తగల	-11.2223
▁ఇద	-11.2223
▁చిన	-11.2223
▁ఆక్రమణల	-11.2223
▁మురుగు	-11.2224
▁నమ్ముతార	-11.2224
రియన్	-11.2225
▁ందట	-11.2225
▁దేశాలలో	-11.2226
▁పనిచేసి	-11.2226
▁ఒక్కట	-11.2229
▁అంబ	-11.2229
▁వక్	-11.223
ಿಂದ	-11.2231
▁ాడో	-11.2232
▁ఆలోచనల	-11.2235
▁ఉపయోగించడం	-11.2236
▁అంబా	-11.2238
▁కివీ	-11.224
▁రియాక్ట	-11.2241
▁కాల్వ	-11.2242
▁హీరోలు	-11.2242
▁బద	-11.2242
▁నిర్మిస్త	-11.2245
ಲಾ	-11.2247
▁గురించ	-11.225
దంటూ	-11.2257
డుతూ	-11.2258
కోవాలని	-11.226
▁వాడిని	-11.226
▁జీహెచ్	-11.2261
▁వెళ్లినా	-11.2263
▁మంచ	-11.2264
▁శుద్ధ	-11.2265
▁చెక్కుల	-11.2266
▁విజన్	-11.2268
▁వసతులు	-11.2269
▁స్వల్పంగా	-11.2269
▁క్రి	-11.2272
▁లభిస్తుంద	-11.2272
▁భీమ్	-11.2273
▁మ్యాక్	-11.2273
▁చేపట్టే	-11.2278
▁సిక్సర్లు	-11.2279
పాలెం	-11.2281
▁బడా	-11.2282
▁నిలుస్తున్న	-11.2282
▁فر	-11.2283
▁రావి	-11.2285
ap	-11.2287
▁అర్ధం	-11.2291
▁బెదిరించి	-11.2292
మిట్	-11.2293
▁చెప్పుకో	-11.2293
▁చెల్లింపులు	-11.2299
▁ఇంక	-11.2299
▁బ్యాచ	-11.23
హిత	-11.2302
▁చదివ	-11.2305
▁కట్టారు	-11.2311
▁ఉల్లంఘన	-11.2311
▁కాచిగూడ	-11.2311
▁క్షతగాత్రుల	-11.2311
▁తలనీలాల	-11.2311
▁పద్మావతి	-11.2311
▁మనోభావాల	-11.2311
▁నరేశ్	-11.2312
▁ఇంటిగ్రే	-11.2312
వెన్యూ	-11.2312
▁అశ్విని	-11.2312
▁ఎల్బీనగర్	-11.2312
రీత్యా	-11.2313
టెక్నికల్	-11.2314
▁వున్న	-11.2314
▁మాచర్ల	-11.2315
▁కతాలో	-11.2315
▁1990	-11.2316
▁తొలగిస్త	-11.2317
కేఆర్	-11.2319
▁సెకండ	-11.2321
▁యిన	-11.2322
▁టీఎంసీ	-11.2324
▁జనంలో	-11.2326
▁చేసుకుంటున్నార	-11.2326
▁స్ట్ర	-11.2327
మాల్	-11.2328
▁హింద	-11.2332
▁చూడగా	-11.2339
▁సూట	-11.2341
▁కొచ్చ	-11.2341
▁తప్పవన	-11.2342
▁ఆలేరు	-11.2344
▁g	-11.2345
▁త్రీ	-11.2349
▁చేస్తాయ	-11.2352
▁ఒప్పంద	-11.2354
▁(20	-11.2354
▁పర్యటిస్తున్న	-11.2355
▁గలరు	-11.2356
▁తప్పించుకున	-11.2358
▁లభించిన	-11.2358
▁కోవట	-11.2359
▁ప్రభు	-11.2359
▁బేర	-11.2359
▁సెగ్మెంట్ల	-11.2359
▁చేయబడి	-11.2362
▁ఊర్	-11.2364
▁గ్రాస్	-11.2366
▁జ్ఞాపకాల	-11.2366
▁నిండిపోయ	-11.2368
▁లేనని	-11.2368
▁చుట్టు	-11.2368
▁పన్నుల	-11.2369
▁01	-11.2369
▁పెడుతుంద	-11.2371
▁మౌనంగా	-11.2372
▁నొక్కి	-11.2375
ంటుందని	-11.2375
▁బంధించ	-11.2376
▁గీ	-11.2377
▁సీఏ	-11.238
▁కావడ	-11.238
▁ال	-11.2381
▁రేస్	-11.2381
▁చేస్తున్నారన్న	-11.2382
▁రెండున్నర	-11.2385
▁వెడ్	-11.2386
انہ	-11.2393
▁ఆభరణాలు	-11.2395
▁పేజీల	-11.2397
▁మతాల	-11.2397
స్సార్	-11.24
▁రేప్	-11.2402
▁కాబోతున్న	-11.2403
▁కొచ్చి	-11.2405
▁రూపొంది	-11.2405
▁సత్యం	-11.2413
▁وا	-11.2414
▁ముస	-11.2416
బీటీ	-11.2418
బీఎస్	-11.2419
▁97	-11.242
▁ఉభయ	-11.2421
▁ప్రోగ్రాం	-11.2421
బళ్లారి	-11.2421
▁ఆల్కహాల్	-11.2421
▁ఒడ్డు	-11.2421
▁తోసిపుచ్చ	-11.2421
▁దుర్మార్గ	-11.2421
▁దేవాదాయ	-11.2421
▁పద్మనాభ	-11.2421
▁సురేందర్	-11.2421
▁స్వాతంత్య్ర	-11.2421
▁గుత్తా	-11.2421
▁స్ట్రీట్	-11.2421
▁స్క్వాడ్	-11.2421
▁ఆయుష్	-11.2421
▁బిర్లా	-11.2422
▁కనిపెట్ట	-11.2422
▁సందేశ	-11.2422
▁హుటాహుటిన	-11.2422
▁కొనుక్	-11.2422
▁కరెక్ట	-11.2422
▁మెప్పించ	-11.2422
▁మైనంపల్లి	-11.2424
▁ధీర	-11.2425
మయ్యే	-11.2425
▁సుధా	-11.2425
▁ఝ	-11.2427
లభై	-11.2429
▁ాడట	-11.243
▁తెలుసుకోవాల	-11.2431
▁వైభవ	-11.2433
▁పూర్తయింది	-11.2433
▁కదల	-11.2434
▁మొర	-11.2435
▁సచివాలయం	-11.2437
▁వాది	-11.2437
▁ಕಾ	-11.2438
▁కృష్ణయ్య	-11.244
▁ఛాలెంజర్	-11.2442
▁నిలిచిపోయి	-11.2442
▁పారిపోయి	-11.245
▁న్నింటి	-11.245
ంపుల్	-11.2453
▁ఇంకొ	-11.2453
▁కొనుగోళ్ల	-11.2456
▁దళాల	-11.2461
▁కల్పించింది	-11.2463
▁వారిద్దర	-11.2464
▁చూసుకోవాలి	-11.2465
▁అన్నట్టు	-11.2471
▁లంచ	-11.2473
▁నెటిజన్	-11.2473
▁మహేంద్ర	-11.2473
▁సంతాన	-11.2475
ka	-11.2477
▁ఫాల్	-11.2479
ଥିଲ	-11.2482
▁కస్టమర్లు	-11.2485
▁చెబుతు	-11.2486
▁y	-11.2491
ొల్ల	-11.2494
▁మూత్ర	-11.2499
▁వస్తాయ	-11.2502
▁చంపేసి	-11.2504
సాగర్	-11.2504
ళా	-11.2505
▁గర్భం	-11.2508
▁మనుషులు	-11.2512
▁یا	-11.2514
▁ప్రారంభోత్సవం	-11.2514
స్వాతి	-11.2515
ోదయ	-11.2517
▁యాల	-11.2523
▁ప్రియుల	-11.2525
▁దోచుకు	-11.2528
▁చెరువులో	-11.2529
▁తీరంలో	-11.2529
▁పెద్దయ	-11.253
▁డ్రైవర్లు	-11.253
▁హానికర	-11.2531
▁భాషల	-11.2532
ఆర్డినేటర్	-11.2532
▁అనుభూతి	-11.2532
▁ఆశాభావం	-11.2532
▁ఎన్నారై	-11.2532
▁కొట్లాడ	-11.2532
▁తుపాకీ	-11.2532
▁ప్రాపర్టీ	-11.2532
▁రష్యన్	-11.2532
▁అవస్థలు	-11.2532
▁గ్లాసు	-11.2532
▁పాలిటిక్స్	-11.2532
▁బోల్తా	-11.2533
▁స్ట్రోక్	-11.2533
▁నామినేట్	-11.2533
▁విజిలెన్స	-11.2533
▁వ్యాపారస్తుల	-11.2533
▁భీమవరం	-11.2533
▁డాక్యుమెంటరీ	-11.2533
▁ఆరేళ్ల	-11.2533
▁హైటెక్	-11.2533
▁లింగంపల్లి	-11.2534
▁శాస్త్రీయ	-11.2534
▁విజయలక్ష్మి	-11.2535
▁ज	-11.2535
▁జాన్వీ	-11.2535
▁విశ్లేషించ	-11.2538
نگ	-11.2539
▁పెరుగుత	-11.254
▁తాలూకా	-11.2541
▁మీనా	-11.2542
▁సభల	-11.2545
▁చెప్పుకునే	-11.2546
యానా	-11.2547
▁చెప్పవచ్చు	-11.2547
▁రిపబ్లికన్	-11.2548
▁నిర్మించి	-11.2549
▁కష్టాల్లో	-11.255
▁కరి	-11.255
▁ంచుకున	-11.2551
▁ଜ	-11.2551
▁కేబుల్	-11.2551
▁నేషన్	-11.2552
▁చిక్కుకు	-11.2554
▁దూరమయ్య	-11.2554
▁సంఘటనా	-11.2556
da	-11.2557
▁వస్తోందని	-11.2557
▁ంచాలి	-11.256
te	-11.256
▁గంభీర్	-11.256
▁హౌస	-11.2561
▁ింది	-11.2563
▁కిందటే	-11.2563
▁నమోదయింద	-11.2564
▁బయల్దేర	-11.2566
▁ڈی	-11.2569
▁చేసుకోవచ్చ	-11.257
▁ఛేజ	-11.2571
▁భవ	-11.2571
▁రోగి	-11.2572
బిలిట	-11.2574
ాంతం	-11.2575
▁మూసివే	-11.2575
▁సెం	-11.2577
▁స్తుంటే	-11.2578
▁పర్యాటకుల	-11.2579
▁ముక్క	-11.2579
▁స్కేల	-11.258
▁రిక	-11.2581
▁ఉద్	-11.2582
▁బతక	-11.2585
▁చనిపోయార	-11.2587
▁పంప్	-11.2589
▁చేయవద్ద	-11.2592
▁ఒప్పించ	-11.2593
▁కోవాల్సి	-11.2593
▁పేర్కొంటున్న	-11.2598
▁పోషిస్తున్న	-11.26
▁భాగాల	-11.2607
▁తేల్చారు	-11.261
▁త్వం	-11.261
▁పూడి	-11.2611
▁బోధన్	-11.2613
▁కొల్ల	-11.2613
▁నిల్వలు	-11.2613
▁ఎగర	-11.2613
మండలి	-11.2618
▁దొరకడం	-11.262
ఎక్స్	-11.262
▁ఒక్కరోజ	-11.2623
▁బ్రా	-11.2624
▁ఫలిత	-11.2625
ేమీ	-11.2627
▁లావాదేవీలు	-11.2627
▁3.5	-11.263
▁రెజ్ల	-11.2632
▁ଟି	-11.2632
▁తీస	-11.2632
యోగ్	-11.2633
▁బాద్	-11.2638
▁చేశాక	-11.2639
▁180	-11.2644
▁News	-11.2645
▁అహంకార	-11.2645
▁గ్లింప్స్	-11.2645
▁సామూహిక	-11.2645
▁తొలగిపోతాయ	-11.2645
▁పౌరసత్వ	-11.2645
▁డిజాస్టర	-11.2645
▁విషమంగా	-11.2645
▁చెమట	-11.2645
▁జహీరాబాద్	-11.2645
▁ప్రాంగణంలో	-11.2645
▁ఫీల్డింగ్	-11.2645
900	-11.2645
▁దౌర్	-11.2646
یل	-11.2646
▁సాగునీర	-11.2646
ంటాయని	-11.2649
పోయే	-11.265
▁శివుడి	-11.2651
▁విహార	-11.2652
▁వచ్చిందన్నారు	-11.2653
▁బ్ల	-11.2653
▁చూపిన	-11.2654
వుతున్న	-11.2655
▁పోస్టింగ్	-11.2657
▁ప్రసంగాల	-11.2657
▁సమీక్షించ	-11.2657
▁అంటున్నారని	-11.2657
▁విలాస	-11.2658
▁2003	-11.2659
▁పోతుంట	-11.266
▁వారందరిక	-11.2661
▁పెడుతూ	-11.2662
▁క్రీమ్	-11.2664
▁ప్రిన్స	-11.2666
▁విభాగాల్లో	-11.2667
▁గేట్ల	-11.2669
వేత్తలు	-11.267
మేరకు	-11.267
▁మక్క	-11.2671
▁వింగ్	-11.2674
▁బ్యాన్	-11.2675
▁మరణాలు	-11.2676
▁బావు	-11.2676
▁రిపేర్లు	-11.2677
▁ుత	-11.2677
▁ఉన్నంత	-11.268
▁కుంటుంది	-11.2682
▁విత్తనాల	-11.2684
ైజేషన్	-11.2684
▁టెల్	-11.2685
▁తీసుకుంటార	-11.2689
▁అయ్యిందని	-11.2689
ెలా	-11.2694
▁ఆశించ	-11.2695
▁బట్టల	-11.2706
▁సున్న	-11.2708
▁వయో	-11.2708
▁వెలి	-11.2708
▁కల్లా	-11.2711
▁प	-11.2712
▁కాజ	-11.2714
▁ఉంటుందనే	-11.2714
▁జర్నలిస్టు	-11.2718
▁చెందుతుంద	-11.2725
▁వర్ధ	-11.2726
▁నియమిస్త	-11.2726
▁సమ్మర	-11.2726
▁టాయిలెట్	-11.2729
▁నెలకొ	-11.273
▁చేశాడ	-11.2733
▁అపో	-11.2734
▁చర్ల	-11.2741
▁పుర్	-11.2741
▁టెండర్లు	-11.2741
▁భాగ్య	-11.2744
▁జీవుల	-11.2746
రంజన్	-11.2747
ణ్య	-11.2747
▁ఆదుకోవాల	-11.2747
▁2024)	-11.275
▁తెలుసని	-11.275
▁ఎండల	-11.2754
▁మార్కెట్ల	-11.2755
▁ఉపసంహరించు	-11.2755
▁తమ్మ	-11.2756
▁ఛేదన	-11.2758
▁Reddy	-11.2758
▁ఎదురుదెబ్బ	-11.2758
▁కనుగొన్నాము	-11.2758
▁క్లెయిమ్	-11.2758
ଖ	-11.2758
▁ఎన్ఐఏ	-11.2758
▁చోటుచేసుకున్న	-11.2758
▁మ్యానిఫేస్టో	-11.2759
సర్దుబాటు	-11.2759
▁పరిగణిస్తారు	-11.2759
▁అరుణాచల	-11.276
▁సోరెన	-11.276
▁ేశ్వర	-11.2761
▁దుకాణాలు	-11.2761
▁చారు	-11.2761
▁మున్సిపాలిటీలో	-11.2761
▁శశి	-11.2761
▁ہمیں	-11.2762
▁కావలసిన	-11.2762
▁స్తారా	-11.2765
వేగం	-11.2765
▁రసాయనాల	-11.2767
▁ముగియ	-11.2767
▁అయ్యాయని	-11.2768
▁డిఫర	-11.277
▁ద్రవ్యోల్బణం	-11.2773
▁బావ	-11.2775
▁మెరుపు	-11.2778
▁జామ	-11.2782
▁సప్లయ్	-11.2784
▁తీసుకోకుండా	-11.2785
▁సరిహద్దుల్లో	-11.2785
▁పడతారు	-11.2787
▁1,0	-11.2788
▁పోతారు	-11.2791
▁మోసపోయ	-11.2792
▁స్మిత	-11.2793
కేపీ	-11.2795
▁పులివెందుల	-11.2798
▁నటులు	-11.2799
▁వనరులు	-11.2799
▁ఏదీ	-11.28
▁సాధించే	-11.28
▁దర్శించ	-11.2801
▁కూలీలు	-11.2802
▁గగన	-11.2807
▁పోయారని	-11.2809
▁ఎదుర్కొన	-11.2809
▁తరలించిన	-11.2809
▁مو	-11.2809
▁నిజమై	-11.2812
▁ఆశీర్వాద	-11.2815
▁ఆధిపత్య	-11.2815
▁అంకిత	-11.2816
▁కస్టడీలో	-11.2816
యార్	-11.2825
▁అదీ	-11.2826
వేద	-11.2832
▁దారితీసింద	-11.2834
▁క్లిప్	-11.2834
▁భాగమ	-11.2834
گر	-11.2836
▁అశ్వ	-11.2836
▁పుస్తక	-11.2837
▁పేర్కొన	-11.2842
▁గ్యారెంటీల	-11.2844
▁మారుస్త	-11.2844
▁పడాల్సి	-11.2844
▁ిస్తార	-11.2844
ధిక	-11.2845
ಲು	-11.2852
ాంఘ	-11.2855
▁ఎదురయ్య	-11.2855
▁చంద్రుని	-11.2855
▁ఉన్నాయా	-11.2856
▁సబ్జెక్ట	-11.2857
యూర్	-11.2857
▁రజత	-11.2857
▁ప్రారంభిస్త	-11.286
▁మీదే	-11.2861
▁నియమించిన	-11.2861
▁అమల్లో	-11.2861
కోటి	-11.2863
▁ಸಂ	-11.2863
▁ఎడిట	-11.2867
▁ట్యాప	-11.2867
మున్న	-11.2867
రియల్	-11.2868
▁పంపే	-11.2872
▁అదరగొట్ట	-11.2873
▁ఇంగ్లిష్	-11.2873
▁క్రాంతి	-11.2873
▁ఛేంజర్	-11.2873
▁దృఢ	-11.2873
▁పఠాన్	-11.2873
▁పార్వతీ	-11.2873
▁మెక్సికో	-11.2873
▁వెసులుబాటు	-11.2873
▁సజ్జనార్	-11.2873
▁సముదాయ	-11.2873
▁హడావుడి	-11.2873
▁అనుచిత	-11.2873
▁అతీతం	-11.2874
▁సిల్వర్	-11.2874
▁అసైన్	-11.2875
▁శక్తివంతమై	-11.2875
గజ్	-11.2875
▁ిద్దర	-11.2876
▁శ్రీదేవి	-11.2877
▁చేయలేదన్నారు	-11.2877
▁ఇంజన్	-11.2877
▁డెవలప్మెంట్	-11.2878
▁అనుకునే	-11.2879
▁టెలికా	-11.2879
▁09	-11.288
▁طر	-11.288
▁మొండి	-11.288
▁చేసుకోండి	-11.2883
▁వేశారని	-11.2884
▁ప్రొడ్యూసర్	-11.2884
స్థిరంగా	-11.2885
▁చిప్	-11.2885
▁ఒక్కొక్కరి	-11.2888
▁దూక	-11.2889
▁పేస్ట్	-11.2891
▁చెవి	-11.2896
▁మరే	-11.2896
నగర	-11.2901
▁వేశాడు	-11.2903
▁ప్రాసెస	-11.2906
وش	-11.2907
ದಾ	-11.291
▁భయంకర	-11.2911
▁వస్తుందా	-11.2915
▁కాంప	-11.292
44	-11.2921
▁చూపుత	-11.2921
▁గ్రహాలు	-11.2923
▁ఘన్	-11.2927
▁పిలుస్త	-11.2929
▁నిమిషాల్లో	-11.293
▁నేరాలు	-11.2931
▁ఉపరితల	-11.2931
▁నమోద	-11.2934
ହ	-11.2937
▁ధృవ	-11.2939
ମ୍	-11.2939
▁మాదిరి	-11.2941
▁వెయ్య	-11.2942
▁అవకాశమ	-11.295
▁పాటించాల	-11.295
▁ఏనుగుల	-11.2951
ಬ್	-11.2952
దోవ	-11.2953
వుతాయి	-11.296
▁జంతువులు	-11.296
▁పేమెంట్	-11.2961
▁రన్న	-11.2963
प	-11.2966
స్కూల్	-11.2967
یت	-11.2973
▁చేరుకోవడం	-11.2976
▁చూపే	-11.2984
▁ఉపయోగం	-11.2984
▁కూల్చివేతల	-11.2987
▁ఉంచాల	-11.2988
▁అసలే	-11.2989
▁అడుగుపెట్టి	-11.2989
ଧ	-11.299
▁కలుషిత	-11.299
▁డిప్రె	-11.299
TSPSC	-11.299
ू	-11.299
▁ఆత్మగౌరవ	-11.299
▁ఆదేశం	-11.299
▁క్రాఫ్ట్	-11.299
▁చంద్రచూడ్	-11.299
▁ఠాక్రే	-11.299
▁పరిశుభ్ర	-11.299
▁భార్యాభర్తల	-11.299
▁ముగుస్తుంది	-11.299
▁వైఫల్యాల	-11.299
▁రిలీఫ్	-11.299
▁సఫారీ	-11.299
▁క్షేమం	-11.299
▁ద్వేష	-11.299
▁پوسٹ	-11.299
▁ఫ్రూట్	-11.299
▁అంతిమ	-11.2991
ww	-11.2991
పారుదల	-11.2991
▁అవాంఛ	-11.2992
▁ఒంటరి	-11.2992
▁యమున	-11.2992
▁ప్రియుడు	-11.2993
▁స్లీపర్	-11.2993
▁ప్రార్థి	-11.2993
▁ంటుంది	-11.2995
▁మామూలు	-11.2996
▁రోగాల	-11.2996
▁ముత్త	-11.2996
▁మిలిట	-11.2997
▁ఉత్తర్	-11.2999
▁ముగిసి	-11.3001
▁భో	-11.3002
▁ప్రకంపనలు	-11.3004
▁ఉండేదని	-11.3006
▁దర్శించుకున్న	-11.3008
క్కడికక్కడ	-11.3009
▁గురైంది	-11.301
▁అమల	-11.301
▁బీట్	-11.3011
▁ఎటు	-11.3012
▁ఇంతకు	-11.3015
▁ఊర	-11.3015
12	-11.3017
▁గిరిజనులు	-11.3017
▁పీరియడ్	-11.3018
▁దర్శకుడి	-11.3018
▁చనిపోయింది	-11.3021
ెప్	-11.3021
▁నష్టాలు	-11.3021
▁మవుత	-11.3022
▁సాల్	-11.3023
▁వారాల్లో	-11.3023
.16	-11.3023
▁బోధన	-11.3023
▁తీసుకువచ్చ	-11.3024
చారం	-11.3024
ద్యం	-11.3026
▁త్యాగం	-11.3027
త్వాన్ని	-11.3027
కంఠ	-11.3031
▁బ్యాట్స్	-11.3031
▁తంగ	-11.3031
▁వ్యాఖ్య	-11.3034
▁వస్తుండటం	-11.3034
▁ఇస్	-11.3034
la	-11.3034
చె	-11.3035
▁గరుడ	-11.3036
▁అందుకున్నాడు	-11.304
▁తగు	-11.3041
▁కష్టమ	-11.3046
టీసీ	-11.3046
▁మైసూరు	-11.3049
ెల్లి	-11.3052
▁మేడార	-11.3052
ಂತ	-11.3061
వ్వాలని	-11.3063
▁వస్తూ	-11.3065
▁మృతుడ	-11.3065
کار	-11.3066
బాజ్	-11.307
▁సిస్	-11.3072
▁బాగుంటుంద	-11.3073
▁మెత్త	-11.3075
▁పదాల	-11.3075
▁స్వాతంత్ర్యం	-11.3076
▁వణికి	-11.3076
▁రేణుక	-11.308
ిచ్చిన	-11.3083
▁చింతల	-11.3085
▁ఆర్జి	-11.3085
▁బాగుండ	-11.3086
▁ఖైదీ	-11.3087
▁గోపి	-11.3088
సురు	-11.3089
▁పరిమిత	-11.309
▁సవాళ్లు	-11.3093
ವಾ	-11.3098
పొ	-11.3103
▁శత	-11.3105
▁చేరాడు	-11.3107
▁నిర్వహిస్తామన	-11.3107
్వినియోగం	-11.3107
▁కోహ్లి	-11.3107
▁క్యాండిడేట్	-11.3107
▁ప్రసక్త	-11.3107
▁సాంప్రదాయ	-11.3107
▁ಯಾವ	-11.3107
▁సాగునీటి	-11.3107
▁సాహిత్య	-11.3107
▁భృతి	-11.3107
▁నర్సంపేట	-11.3108
▁పేల్చ	-11.3108
▁మావోయిస్టుల	-11.3108
▁జామున	-11.3108
▁స్నేహితుడు	-11.3109
▁కమలాకర్	-11.3109
▁అటవీశాఖ	-11.311
▁తెల్లవారు	-11.311
▁శస్త్ర	-11.311
▁సీత	-11.3111
▁దినేష్	-11.3111
▁గొల్ల	-11.3111
ಕ್ಷ	-11.3112
▁వారెంట్	-11.3114
▁టైప్	-11.3115
▁06	-11.3118
▁రైడర్స్	-11.3119
▁సిక్కు	-11.3122
▁ప్రేమించ	-11.3123
▁చూస్తున్నార	-11.3124
▁జంగ	-11.313
▁సాంగ్స్	-11.313
ାର	-11.3134
▁పాల్పడ్డాడు	-11.3141
ర్ట్	-11.3142
▁పేపర్ల	-11.3142
▁చూస్తోంద	-11.3144
▁సాధ్య	-11.3144
▁తమన్నా	-11.3147
48	-11.3149
▁యజమానుల	-11.3149
▁నిలువ	-11.315
▁రాయలసీమలో	-11.3153
▁బిన్	-11.3153
▁111	-11.3157
▁మట్ట	-11.3157
ఎంసీ	-11.3157
▁కంది	-11.3159
ణంగా	-11.3159
▁క్తుల	-11.3161
ss	-11.3162
▁పేషెంట్ల	-11.3164
▁అసభ్య	-11.3172
▁దిగింది	-11.3173
▁స్తుందా	-11.3174
▁రోహ	-11.3175
▁మాయం	-11.3176
▁అందజేసి	-11.3179
మేం	-11.3183
▁తీర్థం	-11.3186
▁మొదలయ్య	-11.3188
గన్	-11.3191
▁బలవంత	-11.3194
▁లేప	-11.3196
▁గుంపు	-11.32
ಿಸಿ	-11.32
▁జరుపుకుంటున్న	-11.3201
ాల్సిందే	-11.3201
▁బాయి	-11.3208
ంటారని	-11.3208
▁చేస్తున్నది	-11.3209
ಮಿ	-11.3209
ిపోయిన	-11.3211
▁నివేది	-11.3212
▁వహించారు	-11.3213
▁విశ్వసనీయ	-11.3215
దరణ	-11.3216
▁పక్షాల	-11.3216
▁చాటి	-11.3219
▁ప్రవాస	-11.3219
▁స్టె	-11.3222
▁రస	-11.3222
▁Chandrababu	-11.3226
▁క్రమశిక్షణ	-11.3226
▁గరిష్ఠ	-11.3226
▁జీవనశైలి	-11.3226
▁దూబే	-11.3226
▁ఫ్లైఓవర్	-11.3226
▁మృణాల	-11.3226
▁మోతాదు	-11.3226
▁రైల్వేస్టేషన్	-11.3226
▁రెచ్చిపోయ	-11.3226
▁సంబందించి	-11.3227
▁ఉండవల్లి	-11.3227
▁నియమితులయ్యారు	-11.3227
▁జానారెడ్డి	-11.3227
ುದೇ	-11.3227
▁అధిపతి	-11.3227
▁అడ్డా	-11.3227
▁యాత్రికుల	-11.3228
▁బాటిళ్ల	-11.3228
▁కావొచ్చు	-11.3228
▁పెరిగాయని	-11.3228
▁వారసుల	-11.3228
▁గంటా	-11.323
▁రాతి	-11.323
▁భాయ్	-11.3231
▁గాలుల	-11.3232
▁రాయుడు	-11.3233
▁ఖండిస్తున్న	-11.3234
▁కల్లు	-11.3236
▁చేకూర	-11.3237
▁జరిగిందన్నారు	-11.3238
▁2005	-11.3241
▁గీతా	-11.3243
సై	-11.3252
▁పాల్గొ	-11.3252
▁విమర్శిస్తున్న	-11.3252
▁ఆవిష్కరణ	-11.3252
▁జాడ	-11.326
▁చేసింద	-11.3261
▁దామోదర	-11.3263
▁చూసుకో	-11.3269
▁తెచ్చే	-11.3272
నాధ్	-11.3274
▁మాణిక్	-11.3275
▁పతకం	-11.3275
▁సంత	-11.3276
▁యాదవ	-11.3277
▁ఆహారాల	-11.3277
▁ముగి	-11.3277
▁ప్పుడ	-11.3278
వారం	-11.3279
పర్తి	-11.3281
▁సాక్షి	-11.3282
▁ఎనిమిద	-11.3286
▁చేసుకుంద	-11.3286
▁దళ	-11.3289
▁సాగిస్తున్న	-11.329
రూపం	-11.3292
▁ఇందు	-11.3292
▁పొత్తులు	-11.3294
▁సాక్షిగా	-11.3295
▁ఒప్పందాలు	-11.3295
బెట్టి	-11.3296
ରି	-11.33
▁హస్త	-11.3302
▁చేయకూడదు	-11.3302
▁వారిద్దరి	-11.3303
వర్ధన్	-11.3305
▁పింగ్	-11.3305
▁పట్టుబట్ట	-11.3306
జాత	-11.3306
▁జీవి	-11.3307
క్రమం	-11.3311
▁జారి	-11.3312
▁పెళ్లిళ్లు	-11.3313
▁का	-11.3314
de	-11.3319
▁ాలా	-11.332
సాయిరెడ్డి	-11.3325
▁ఎంప్లాయ	-11.3325
కశ్మీర్	-11.3328
▁శాస్త్రవేత్త	-11.3329
ఫుల్	-11.3334
▁రాలు	-11.3334
▁మెచ్చ	-11.3336
▁ఇబ్రహీం	-11.334
▁వెలిగించ	-11.334
ఆగస్టు	-11.3343
విజన్	-11.3344
▁ఊపిరితిత్తుల	-11.3347
▁ఎకానమీ	-11.3347
▁కెపాసిటీ	-11.3347
▁దిశానిర్దేశం	-11.3347
▁దుస్థితి	-11.3347
▁నయనతార	-11.3347
▁వెరిఫికేషన్	-11.3347
▁మెకానిక	-11.3347
▁శ్రేయా	-11.3347
▁ఆశ్రమ	-11.3347
▁ఆర్డినెన్స	-11.3347
▁ఆకట్టుకుంది	-11.3347
▁విస్తార	-11.3347
▁పౌడర్	-11.3347
▁పరేడ్	-11.3347
▁చేర్పుల	-11.3347
▁ట్రూడో	-11.3347
▁షిఫ్ట	-11.3347
▁వానాకాలం	-11.3347
▁కొల్లాపూర్	-11.3347
▁సత్యవతి	-11.3347
▁అసత్య	-11.3348
▁చేరుతుంద	-11.3348
▁గేటు	-11.3349
▁ప్రవర్తి	-11.335
▁చేయించుకున్న	-11.335
▁ఉంటుందా	-11.3353
మెన్	-11.3353
వెల్	-11.3353
▁మిల్	-11.3354
▁ఫేవర	-11.3355
▁అడవిలో	-11.3355
▁లాటరీ	-11.3356
నరేషన్	-11.3358
▁మన్యం	-11.3358
▁అడవుల్లో	-11.3359
▁మరొకరి	-11.3361
▁యావత్	-11.3362
▁కలెక్టర్ల	-11.3362
▁బాటలో	-11.3362
▁మిలట	-11.3364
▁స్టార్క్	-11.3364
400	-11.3367
▁చందన	-11.3367
▁కాపాడే	-11.3368
▁బృందాల	-11.3369
▁ప్రసాదాల	-11.337
పూర్వక	-11.3372
▁క్వి	-11.3375
కోట	-11.3377
▁కలెక్షన్ల	-11.3377
▁ఆలోచిస్తున్న	-11.3378
▁స్థాపించి	-11.3378
▁తాగిన	-11.3379
▁మాత్రమేనని	-11.3384
బాటి	-11.3386
▁అడిగే	-11.3388
▁సెంట	-11.3388
▁గ్రి	-11.3389
▁కళాకారుల	-11.3392
▁వసూళ్ల	-11.3392
▁గంజ్	-11.3392
ేండ్ల	-11.3393
▁సింధు	-11.3393
▁కొట్టేసి	-11.3397
ేళ్ల	-11.3398
▁వయసులోనే	-11.3398
▁దిశా	-11.3402
▁చాక్లెట్	-11.3405
▁పెరుగుతున్నాయ	-11.3405
దూర్	-11.3408
▁ద్వీప	-11.3411
▁రచి	-11.3411
▁పేషెంట్	-11.3411
▁దూకి	-11.3412
▁నడిప	-11.3414
▁130	-11.3416
▁سو	-11.3418
▁తల్లుల	-11.3419
▁పెళ్లిళ్ల	-11.3421
2023-24	-11.3423
▁ామంట	-11.3424
▁అభిమానం	-11.3425
▁లోపాలు	-11.3426
▁ఉంటాం	-11.3427
▁వినియోగదారు	-11.3428
▁తగ్గట్టుగా	-11.343
▁తెరకెక్కించ	-11.343
▁దేవాలయ	-11.3431
▁ఆక్రమించ	-11.3435
ଇ	-11.3435
▁టెక్స్	-11.3435
▁హాజరుకానున్న	-11.3435
▁షూ	-11.3435
▁ఆఫీసుకు	-11.3444
▁ఉష	-11.3447
▁బద్ధ	-11.3449
▁కథన	-11.345
చ్ఛ	-11.3451
ब	-11.3451
జులై	-11.3453
▁కరణ	-11.3456
▁బాలా	-11.3457
▁మోర్	-11.3461
▁ప్రఖ్యాత	-11.3469
▁వృద్ధాప్య	-11.3469
▁అడ్వకేట్	-11.3469
▁నివాళులు	-11.3469
▁పునరుద్ధరణ	-11.3469
▁సిఫారసు	-11.3469
▁శబరిమల	-11.3469
▁ఫ్రిజ్	-11.3469
▁స్వీప్	-11.3469
▁కన్యారాశి	-11.3469
▁పన్నెండ	-11.3469
▁కుజుడు	-11.3469
▁చెబుతుంటారు	-11.3469
▁సమన్లు	-11.3469
▁నిలిపివేశారు	-11.3469
▁ఆందోళనకారుల	-11.3469
▁05	-11.3469
▁ముసుగు	-11.3469
▁వెంక	-11.3469
▁ప్రియుడి	-11.347
▁బాధితుడి	-11.347
▁جب	-11.347
▁రాఘవేంద్ర	-11.347
▁విజయశాంతి	-11.3471
▁సంధించ	-11.3471
▁వెంకటేశ్వరరావు	-11.3471
▁డివైజ	-11.3472
▁కార్నర్	-11.3472
▁సన్నాహాలు	-11.3472
▁బోన	-11.3472
▁లీజు	-11.3472
గ్రఫీ	-11.3473
▁డీజే	-11.3475
▁చూపిస్తుంది	-11.3475
▁ఏర్పడిందని	-11.3476
▁కసి	-11.3477
▁హాస్య	-11.3477
▁చెప్పొచ్చు	-11.3478
▁ేంటి	-11.3479
▁స్టాప్	-11.3479
▁పిటిషనర్	-11.348
▁యూనిట్లు	-11.3483
▁కన్నీళ్లు	-11.3485
▁సెలవుల	-11.3486
▁రాజ్యాంగంలో	-11.3487
▁చారి	-11.3489
▁అప్పగించింది	-11.3491
▁మెటా	-11.3491
▁భాను	-11.3493
▁రావచ్చు	-11.3493
▁డిగ్రీలు	-11.3493
రూర్	-11.3493
▁వీఐపీ	-11.3496
▁ానికే	-11.3497
▁పడ్డాడు	-11.3503
▁మిల్లు	-11.3504
▁పెట్టుకోవడ	-11.3507
▁మిక్స్	-11.3507
▁ఆశ్రయ	-11.3508
▁కక్ష్యలో	-11.3508
▁(1)	-11.3509
▁క్రికెటర్ల	-11.3512
▁సుంక	-11.3513
▁మిష	-11.3514
▁క్షణ	-11.3514
▁హాజరుకా	-11.3514
▁తొలగించాల	-11.3515
▁జంప్	-11.3516
▁ఇరుక్కు	-11.3522
▁ఓడిపోయార	-11.3523
▁ద్వారం	-11.3525
▁ఓడిపోత	-11.3526
వంతమై	-11.3527
ఎన్సీపీ	-11.3527
టికల్	-11.353
▁నాయర్	-11.3531
▁నీడ	-11.3532
▁తెలియజేస్త	-11.3532
▁సూచిస్త	-11.3536
▁షరతుల	-11.3541
ఆర్ఆర్	-11.3542
▁గంటల్లోనే	-11.3544
▁డ్రోన్ల	-11.3546
▁వెచ్చ	-11.3546
▁పామ	-11.3547
ించాలని	-11.3548
▁సోర్స	-11.3548
▁దామోదర్	-11.3555
▁విష్ణువు	-11.3556
▁వరక	-11.3559
▁మరణించార	-11.3561
▁ବି	-11.3564
▁04	-11.3565
▁తీసుకోనున్న	-11.3569
ିକ	-11.357
▁బిహార	-11.3571
▁పురి	-11.3576
కొత్తగూడెం	-11.3577
క్యూ	-11.3577
▁బ్రాహ్మణ	-11.3578
▁చేశారా	-11.3582
▁పట్టణం	-11.3583
▁క్షేత్రం	-11.3587
▁ఒబ	-11.3591
el	-11.3591
బాహుబలి	-11.3592
▁ఎగ్జిబిషన్	-11.3592
▁జడ్చర్ల	-11.3592
▁తగ్గుముఖం	-11.3592
▁త్రివిక్రమ్	-11.3592
▁ప్రయివేట	-11.3592
▁మొక్కజొన్న	-11.3592
▁రిపోర్టర్	-11.3592
▁సంపాదన	-11.3592
▁సర్క్యూట్	-11.3592
▁హడావిడి	-11.3592
➦	-11.3592
▁ఘోష్	-11.3592
▁పుణె	-11.3592
▁విలేజ్	-11.3592
▁కెనాల్	-11.3592
▁కాషాయ	-11.3592
▁గోయల్	-11.3592
▁కుంకుమ	-11.3592
▁ప్రయాణీకుల	-11.3592
▁నృత్య	-11.3592
▁ముషీరాబాద్	-11.3592
▁చేకూర్చ	-11.3593
▁సీతారాం	-11.3593
▁పూర్ణిమ	-11.3593
▁చారిత్రాత్మక	-11.3593
▁సౌండ్	-11.3593
▁ایس	-11.3593
▁కౌన్సెలింగ్	-11.3594
▁వాగ్	-11.3594
▁ఖరారై	-11.3594
▁సింపుల్	-11.3594
వలింగ	-11.3595
▁పోచారం	-11.3595
▁స్పిన్	-11.3595
▁గల్లంత	-11.3595
సెంట్	-11.3597
▁అవతల	-11.3598
▁వెంకన్న	-11.3598
▁కలుగుతుంద	-11.3599
▁చేయక	-11.3599
▁ఐఎం	-11.3601
▁మాడ	-11.3602
▁పువ్వాడ	-11.3602
▁కులాలు	-11.3603
▁సామ్రాజ్య	-11.3604
▁డీఎం	-11.3605
▁విక్రయిస్తున్న	-11.361
▁జరుగుతూ	-11.3611
▁రంగులు	-11.3611
▁పెంచుతుంది	-11.3612
▁దాటే	-11.3619
▁వాలి	-11.362
▁ఆస	-11.3621
▁కోల్పోవడం	-11.3624
▁మూడేళ్లు	-11.3625
▁హెయి	-11.3627
▁శరణ	-11.363
ఫాల్	-11.3636
▁వసతుల	-11.364
▁వుడ్	-11.364
▁గడి	-11.3641
▁నూర్	-11.3646
▁ప్రారంభమయ్యాయ	-11.3648
▁చర్చనీయాంశమై	-11.3649
వోలు	-11.3651
▁వ్యతిరేకిస్త	-11.3654
▁పర్వతాల	-11.3654
▁అంకితం	-11.3655
▁సమ్మేళన	-11.3659
▁చనిపోవడం	-11.3659
▁ఢీకొన	-11.366
ోయ్	-11.3662
▁సెక్	-11.3666
▁జేడీ	-11.3667
▁సాల	-11.3668
▁పాపం	-11.3669
▁చనిపోత	-11.3669
▁పోరాడిన	-11.3674
▁తీసుకోలేదు	-11.3675
▁కలుపుత	-11.3676
▁రెండేళ్లు	-11.3676
▁చేయకూడద	-11.3677
▁భూమన	-11.3683
▁వచ్చినట్టు	-11.3684
ೊಂದಿಗ	-11.3685
▁రేపుతున్న	-11.3686
▁వర్కర్	-11.3687
▁చర్చించిన	-11.369
▁అనుకుంట	-11.369
▁గుడ్లు	-11.3698
▁సంపత్	-11.3698
లెన్స్	-11.3699
▁చుక్కల	-11.3701
▁ప్రతిపాదనల	-11.3702
▁అవిశ్వాసం	-11.3702
రీక్ష	-11.3704
▁v	-11.3705
శాతం	-11.3705
▁చెలరేగాయ	-11.3706
▁సుఖ్	-11.3706
▁సైన్య	-11.3707
▁ఏర్పడ్డ	-11.3708
▁చామ	-11.3713
రాణి	-11.3714
ଁ	-11.3717
▁అసదుద్దీన్	-11.3717
▁కీరవాణి	-11.3717
▁పర్వదిన	-11.3717
▁మ్యానిఫెస్టో	-11.3717
▁వెలుపల	-11.3717
▁నాలుగైద	-11.3717
▁రెబల్	-11.3717
▁ಪೋಸ್ಟ	-11.3717
▁సైన్సెస్	-11.3717
న్యువల్	-11.3717
▁ఆక్సిడెంట్	-11.3717
▁స్ట్రైక	-11.3717
▁సోదరుడి	-11.3718
▁ఫ్యూచర్	-11.3718
▁కాంతి	-11.3718
▁జన్మించారు	-11.372
▁వదిలేయ	-11.372
کن	-11.3721
▁టర్కీ	-11.3721
▁ہی	-11.3722
▁దీప్తి	-11.3722
▁అపార	-11.3726
▁గుహ	-11.3731
▁ఇక్క	-11.3731
▁నడుస్తుంది	-11.3732
▁لا	-11.3733
▁వ్వడం	-11.3734
▁మేనేజ	-11.3735
▁జోన	-11.3736
▁వీవీ	-11.3738
▁జింక	-11.3741
▁కొట్టు	-11.3743
▁పడిపోయాయి	-11.3744
▁్లా	-11.3744
▁నిలిప	-11.3745
▁`	-11.3745
▁గందరగోళ	-11.3748
▁సందేహాలు	-11.3751
▁తెలుసుకుంట	-11.3752
▁ఔషధ	-11.3753
▁పట్టిక	-11.3754
▁ఆడుతూ	-11.3757
▁ఒర	-11.3757
▁ంచాయి	-11.3758
▁శాస్త్రవేత్తల	-11.3759
▁చేశారనే	-11.376
▁బతికి	-11.3762
ೊಂದ	-11.3763
ర్వాత	-11.3763
▁అడ్డుకోవడం	-11.3764
▁పుట్టుక	-11.3765
▁4.5	-11.377
గాఢ	-11.3771
▁పీవో	-11.3772
یک	-11.3775
▁హార	-11.3775
▁ఆడిట	-11.3776
▁చార్జీలు	-11.3777
ించాడు	-11.3779
▁వ్యవస్థల	-11.3782
▁సంపాదించి	-11.3784
▁పోతుంద	-11.3786
వైట్	-11.3788
గ్రాఫర్	-11.3788
▁కండక్టర్	-11.3791
▁శ్యామల	-11.3795
▁అలాంట	-11.3796
▁ముచ్చట	-11.3798
▁ముఖ్యమ	-11.3804
▁వెన్న	-11.3804
▁ఎంటర్టైన	-11.3805
▁మనల్న	-11.3808
▁దళాలు	-11.3809
▁ఎందర	-11.3811
▁డ్రైవర్ల	-11.3814
▁లవర్	-11.3815
▁నెక్	-11.3816
▁నిరోధ	-11.3817
▁ఆలోచిస్త	-11.3817
▁ట్రి	-11.3817
▁టెండర్ల	-11.3819
▁చావ	-11.382
▁వజ్ర	-11.382
▁జోడించ	-11.3821
▁ఫే	-11.3821
▁పెట్టుకోవాల	-11.3826
▁బెదిరింపులు	-11.3826
▁ముగిశాయ	-11.3826
▁బీరు	-11.383
▁గాడి	-11.383
▁ిస్తామ	-11.383
▁పంది	-11.3831
▁నామా	-11.3831
▁తయారుచేసి	-11.3834
త్యం	-11.3834
▁ఈమె	-11.3837
▁మోడ్	-11.3838
▁ళ్లు	-11.384
▁ಟ್	-11.384
▁మైనారిటీల	-11.3841
▁ఆదివాసీ	-11.3841
▁ఐదుగురి	-11.3843
▁Breaking	-11.3844
▁కాలిఫోర్నియా	-11.3844
▁వేంకటేశ్వర	-11.3844
▁కొట్టిపారే	-11.3844
▁సుమలత	-11.3844
రేడియో	-11.3844
▁స్కై	-11.3844
av	-11.3844
▁స్పెయిన్	-11.3845
▁ఆర్గనైజేషన్	-11.3845
▁నేచుర	-11.3845
▁దెబ్బతీ	-11.3846
-20	-11.3846
▁చవితి	-11.3846
▁విషెస్	-11.3848
▁యశ్వంత	-11.3848
▁నర్సయ్య	-11.3848
▁ఐడియా	-11.3849
▁వరంగల్‍	-11.3849
▁ట్రాప్	-11.385
▁రాధిక	-11.385
▁చెల్లెల	-11.3851
▁చెంప	-11.3854
▁పోగొట్టుకున్న	-11.3855
▁మహారాజ	-11.3856
▁మధుర	-11.3857
▁వచ్చానని	-11.3859
బలగం	-11.3859
▁చేర్చుకు	-11.386
▁అన్యాయ	-11.386
▁అనుగ్రహం	-11.3864
▁బడుతుంది	-11.3869
या	-11.3871
▁ఆశీర్వదించ	-11.3872
▁అల్లుడు	-11.3873
▁క్యాపిటల్స్	-11.3874
లక్షల	-11.3877
▁ఉడికించ	-11.3878
▁శత్రువుల	-11.3878
▁దేశానిక	-11.388
▁నిప్పులు	-11.3882
▁నెగ్గ	-11.3883
▁ಭ	-11.3884
▁శ్రీరాముడ	-11.3885
▁లోపాల	-11.3886
▁జరుపుత	-11.3887
▁హాజరయ్యే	-11.389
▁ట్లయింద	-11.3894
▁కేఎస్	-11.3894
▁అవకతవకల	-11.3895
▁గణాంకాల	-11.3895
▁చూశాం	-11.3895
పీఎస్	-11.3895
▁ఆంక్షల	-11.3895
▁సమ్మేళనం	-11.3903
▁ఖండించ	-11.3904
▁دو	-11.3905
▁మచ్చ	-11.3908
▁ڈ	-11.3911
▁సమీపిస్తు	-11.3912
▁అమ్ముడు	-11.3912
▁స్మారక	-11.3912
▁స్కీ	-11.3913
▁ఓపెనర్లు	-11.3914
ఆర్ఐ	-11.3915
తంత్ర	-11.3916
▁పూజల	-11.3916
▁కూల్చ	-11.3916
▁కేకే	-11.3921
▁పోతున్నాయ	-11.3922
ట్టా	-11.3922
▁సమీకరణాల	-11.3922
▁రిషి	-11.3931
▁దొంగతనాల	-11.3933
▁బయల్దేరి	-11.3934
▁ఈశ్వర్	-11.3944
▁విన్నర్	-11.395
▁లాంటిది	-11.3951
▁ఊహ	-11.3952
▁పాటల	-11.3966
▁గుర్తిస్త	-11.3967
▁ర్య	-11.3967
▁ఆలస్య	-11.3967
▁నైవేద్యం	-11.3968
తిండి	-11.3971
▁పోరాడి	-11.3971
▁పదేండ్లు	-11.3972
▁ప్రొఫైల	-11.3972
▁శృంగార	-11.3972
▁అథ్లెట్	-11.3972
▁గడ్కరీ	-11.3972
▁తాడిపత్రి	-11.3972
▁దగ్ధ	-11.3972
▁పంజాగుట్ట	-11.3972
▁పాలస్తీనియన్	-11.3972
▁వైయస్సార్	-11.3972
▁సునామీ	-11.3972
▁స్కెచ్	-11.3972
▁చంద్రబోస్	-11.3972
▁పూర్వీకుల	-11.3972
ఎయిమ్స్	-11.3972
▁ఆవర్తన	-11.3972
▁కంటైనర్	-11.3973
▁అప్పగిస్త	-11.3973
▁రచన	-11.3973
▁కాల్షియం	-11.3973
▁గోవర్ధన్	-11.3974
ేయాలని	-11.3974
▁పదకొండ	-11.3974
▁విజయసాయిరెడ్డి	-11.3975
▁అధినాయకత్వ	-11.3975
:-	-11.3976
ఇది	-11.3976
▁పగటి	-11.3977
▁విశ్వక	-11.3977
▁ఏమిటంటే	-11.3977
▁شا	-11.3978
▁ఫైటర్	-11.3978
▁సమర్థించ	-11.398
▁పాఠ	-11.3989
▁రావాలంటే	-11.3989
▁స్క్వ	-11.3992
▁లోయలో	-11.3994
ఫరాజ్	-11.3997
▁మార్చిన	-11.4002
ెక్స్	-11.4003
▁విడిచ	-11.4004
కెళ్లి	-11.4005
▁తుంటే	-11.4013
▁ఇస్తాం	-11.4016
▁చెప్పలేదు	-11.4017
▁ద్వార	-11.4017
▁లేకపోయ	-11.4019
▁ఛార్జీల	-11.402
▁వ్యవహారాలు	-11.4021
బాయి	-11.4022
▁ఈదురు	-11.4023
▁సిద్ధార్థ్	-11.4024
▁నిర్వాహకుల	-11.4025
▁ట్లేదు	-11.4026
▁ఎముకల	-11.4027
▁అష్ట	-11.4028
▁మింగ	-11.4028
▁ರುವ	-11.4033
▁తెలిపే	-11.4035
▁వీచ	-11.4037
▁చివరిసారి	-11.4037
▁అసభ్యకర	-11.4038
15	-11.4038
▁ఏనాడ	-11.4038
58	-11.404
▁జరిపించాల	-11.4041
▁పరిగ	-11.4043
▁ముందున్న	-11.4044
▁భాగాలు	-11.4045
▁ప్లా	-11.4045
▁రావ్	-11.4048
▁వాలా	-11.405
▁స్వర	-11.4051
▁ావు	-11.4054
▁నడప	-11.4056
▁కేటాయింపులు	-11.4063
▁చేయిస్తున్న	-11.4063
▁చెల్లింపుల	-11.4067
▁గౌర	-11.4068
▁డొ	-11.4071
▁రోల్స్	-11.4071
మెంట	-11.4072
▁మిల్లర్	-11.4073
▁నమ్మకంతో	-11.4077
eal	-11.4077
▁వేస్తారు	-11.408
▁తెప్పించ	-11.4082
ಿನ	-11.4089
▁ఆవుల	-11.4089
▁కాపాడుకోవడ	-11.4094
▁శాడు	-11.4095
▁డాలర్	-11.4095
▁వస్తుందన్న	-11.4098
▁దక్కించు	-11.4098
▁కన్య	-11.4101
▁పదార్థ	-11.4101
▁భాగస్వాముల	-11.4101
ಷ್ಟ	-11.4102
▁అజెండా	-11.4102
▁ఉధృతం	-11.4102
▁డెమోక్ర	-11.4102
▁విజ్ఞాన	-11.4102
்	-11.4102
▁http	-11.4102
▁కెటిఆర్	-11.4102
▁ఎడిషన్	-11.4102
▁గోదావరిఖని	-11.4102
▁విసిరి	-11.4102
▁Jagan	-11.4102
▁ఆడవాళ్ల	-11.4102
▁తులారాశి	-11.4102
▁Read	-11.4102
▁జన్మదిన	-11.4102
▁చిత్తశుద్ధి	-11.4102
▁తైవాన	-11.4102
ుమూల	-11.4103
▁कर	-11.4103
▁ఎల్లప్పుడ	-11.4103
▁జేమ్స్	-11.4104
▁దీవుల	-11.4104
▁సంతతి	-11.4104
రుధ్	-11.4104
CI	-11.4105
▁పైలెట్	-11.4106
▁షేర	-11.4106
▁జియా	-11.4106
▁తెలియజేస	-11.4107
లీవుడ్	-11.4107
▁జేబు	-11.4108
▁పిండ	-11.4109
▁మూసివేయ	-11.4109
"."	-11.411
▁దక్కే	-11.4111
▁వెలిగి	-11.4112
▁చిర	-11.4112
▁గార్డ	-11.4113
▁క్రూర	-11.4114
▁చెందాడ	-11.412
▁నిలుస్తుంద	-11.4124
▁పంపాల	-11.4125
▁93	-11.4127
▁రొ	-11.4127
▁తలపడను	-11.4133
▁పూలు	-11.4134
▁స్టోన్	-11.4139
▁తీసుకొచ్చే	-11.4141
▁రాసింది	-11.4144
▁దోషుల	-11.4145
▁రీజన	-11.4146
▁170	-11.4147
▁చెందగా	-11.4147
▁పెడుత	-11.4148
▁ఫుడ్స్	-11.4153
▁టెస్	-11.4155
▁తుందా	-11.4157
▁భీమ	-11.4157
▁సందర్భ	-11.4157
▁స్తాయని	-11.4158
▁బెంజ	-11.4159
▁జీవిస్తున్న	-11.4159
▁జరుగుత	-11.416
▁ఈజిప్ట్	-11.416
▁సరిపోద	-11.4164
▁ఫ్లూ	-11.4165
▁ప్రసంగిస్త	-11.4165
▁ఆశీర్వాదం	-11.4169
▁థాయ	-11.4169
▁చందా	-11.417
▁సంతానం	-11.4171
▁ప్రసిద్ధ	-11.4172
▁టీఆర్	-11.4174
▁హిళ	-11.4174
▁ఉపవాస	-11.4175
▁క్రిస్ట	-11.4175
▁టైల్	-11.4181
▁గుంట	-11.4181
▁సర్వత్ర	-11.4183
1500	-11.4185
శాంతి	-11.4186
▁చుట్టుముట్ట	-11.4187
ଦି	-11.4196
▁ఇచ్చార	-11.4198
▁పోషకాల	-11.4203
▁ంగ్	-11.4206
పాఠం	-11.4215
▁బంక	-11.4215
జీత్	-11.4216
▁పరిచి	-11.4218
▁అడుగుత	-11.422
▁సెక్రటేరియ	-11.4227
డియం	-11.4227
▁వైర	-11.423
▁రచించ	-11.423
▁దోహద	-11.4233
Q	-11.4234
_	-11.4234
▁دیکھ	-11.4234
▁కుత్బుల్లా	-11.4234
▁నిరాహార	-11.4234
▁నెతన్యాహు	-11.4234
▁బూడిద	-11.4234
▁మైక్రోసాఫ్ట్	-11.4234
▁శాంపిల్	-11.4234
▁సర్వదర్శన	-11.4234
▁స్మగ్లింగ్	-11.4234
▁హత్యాయత్నం	-11.4234
▁హిస్టరీ	-11.4234
://	-11.4234
▁ఆగ్నేయ	-11.4234
▁హిజ్బ	-11.4234
▁నిరసనకారుల	-11.4234
▁భోపాల్	-11.4234
▁వాయువ్య	-11.4234
▁నగ్న	-11.4234
▁ఓటేస్త	-11.4234
▁ఆకర్షణీయ	-11.4235
▁پو	-11.4235
▁సేవలందించ	-11.4235
▁విచ్	-11.4236
▁పంచాయతీరాజ్	-11.4237
▁ప్రైవేటీకరణ	-11.4237
▁బారులు	-11.4238
ష్టమి	-11.4239
▁తీసుకోవచ్చు	-11.4239
▁తీసుకుంటున్నార	-11.4241
▁సైఫ్	-11.4242
▁ఫ్యాష	-11.4244
▁తీసుకోండి	-11.4245
▁ముట్టడి	-11.4245
▁కోసమ	-11.4247
▁శ్రీనగర్	-11.4248
▁విషయమ	-11.4249
▁మేకల	-11.4249
▁తప్పక	-11.425
▁స్టో	-11.4252
▁చెప్పుల	-11.4252
▁ప్రత్యామ్నాయం	-11.4253
▁వరలక్ష్మ	-11.4255
▁మెరుగుపర	-11.4256
గంట	-11.4256
▁విక్రయ	-11.4256
▁క్రో	-11.4257
▁జ్యూస్	-11.4259
▁రికార్డ	-11.4263
▁కనుగొన్నారు	-11.4264
▁నాలుగేళ్లు	-11.4265
▁నౌ	-11.4266
▁నటుడి	-11.4267
ోవర్	-11.4267
▁కంగార	-11.427
▁తొలగించడం	-11.4273
▁క్రై	-11.4275
▁చదివిన	-11.4278
▁నిమ్స్	-11.4278
▁నొప్పులు	-11.428
▁సరిహద్దుల	-11.4282
▁చూపుతుంది	-11.4283
▁స్క్రీన	-11.4283
ಂಡ	-11.4286
▁ఔటయ్యా	-11.4289
▁రుతుపవనాల	-11.429
▁చేయలేక	-11.4291
▁లేబర	-11.4291
▁పడిపోయిన	-11.4291
▁ధామ	-11.4293
▁ఎత్తుకు	-11.4295
▁ముఖ్యమంత్రులు	-11.4296
▁ఆధిపత్యం	-11.4301
-6	-11.4301
▁ఎవరెవర	-11.4302
▁వేధిస్తున్న	-11.4303
▁దళం	-11.4303
▁హాయ	-11.4304
▁సంస్కృత	-11.4305
▁ఐక్యత	-11.4306
లాంబ	-11.4308
▁నియమాలు	-11.431
▁పుల్ల	-11.4311
▁యజమానులు	-11.4319
▁అహ	-11.4321
▁అంబర	-11.4322
▁సెల్స	-11.4323
▁కొట్టుకుపోయి	-11.4323
▁ఉండవ	-11.4324
కుంటోంది	-11.4328
పెట్టి	-11.4338
▁క్రిటిక	-11.4338
▁మెహ	-11.4339
▁అంతటి	-11.434
▁ప్రార్థన	-11.4341
▁నెం	-11.4342
▁తయారై	-11.4345
గుంట	-11.4345
▁మంటే	-11.4346
▁ଥିବା	-11.4348
ుతోందని	-11.4348
▁ఆదేశించిన	-11.4352
▁వెళ్తారు	-11.4352
▁తడి	-11.4357
పాక్షిక	-11.4357
▁పొన్న	-11.436
▁కలవడం	-11.436
▁పడేసి	-11.4361
▁దోచుకున్న	-11.4363
▁ప్రాంగణ	-11.4366
▁تھا	-11.4367
ड	-11.4367
▁అత్యాధున	-11.4367
▁అంగన్వాడీ	-11.4367
▁అంబేడ్కర్	-11.4367
▁ఆస్వాదించ	-11.4367
▁ఎజెండా	-11.4367
▁క్షిపణుల	-11.4367
▁గవాస్కర్	-11.4367
▁జవాబు	-11.4367
▁నిదర్శనమన	-11.4367
▁పాతబస్తీ	-11.4367
▁పోషకాహార	-11.4367
▁మెటీరియల్	-11.4367
▁రాజనర్సింహ	-11.4367
▁రూపకల్పన	-11.4367
▁విషయానికొస్తే	-11.4367
▁హాస్టళ్ల	-11.4367
▁హెల్మెట్	-11.4367
☛	-11.4367
▁నరసింహారావు	-11.4367
▁ముదిరాజ్	-11.4367
▁గ్రోత్	-11.4367
▁మంథని	-11.4367
▁సమూహ	-11.4367
▁ఎరుపు	-11.4367
▁రేకెత్తి	-11.4367
▁శిరీష	-11.4367
▁వలసదారుల	-11.4367
▁గల్లీ	-11.4367
▁లేకపోలేద	-11.4367
▁మిగులు	-11.4367
▁సూచిస్తుంది	-11.4368
▁బాధాకరమ	-11.4369
▁సుజాత	-11.4369
▁ప్రమోట	-11.4369
▁ఆరంభం	-11.4369
▁స్వప్న	-11.437
▁గురవుత	-11.437
▁నిలుపు	-11.4371
▁అంటోంది	-11.4372
▁తీపి	-11.4372
▁టెన్త్	-11.4372
▁మాగుంట	-11.4372
▁కృష్ణారెడ్డి	-11.4374
▁యార్డు	-11.4375
▁ఎంఈ	-11.4375
▁వాదీ	-11.4376
▁ఇండోర్	-11.4378
▁తీసుకోలేద	-11.4378
▁టీఎంసీలు	-11.4381
▁నైపుణ్యాల	-11.4383
▁ఆర్కే	-11.4385
▁విస్మరించ	-11.4387
▁سر	-11.4387
▁జాతకం	-11.4388
▁లాంగ్వేజ్	-11.4389
▁గడ్	-11.4391
▁సిక్సర్ల	-11.4394
వర్గీయ	-11.4395
▁గూడూర	-11.4397
▁తీసుకోవాలన్న	-11.4398
▁రైట్స్	-11.4399
▁సేకరిస్తున్న	-11.4399
ట్రిక్	-11.44
▁గుట్టు	-11.4401
▁తింటున్న	-11.4401
▁హైదర్	-11.4402
▁చెల్లిస్త	-11.4403
ول	-11.4404
▁బీజే	-11.4405
▁ఎదుర్కొనే	-11.4407
▁చిహ్నం	-11.4407
▁తీసుకుంటుంద	-11.4408
450	-11.4408
కట్టు	-11.4413
▁కుదిరి	-11.4416
ot	-11.4416
▁బాగుంది	-11.4422
▁పిన్	-11.4425
▁వ్యక్తిత్వ	-11.4425
▁మిల్లుల	-11.4426
లాజికల్	-11.4427
▁శిబిరాల	-11.4428
▁కున్నా	-11.4429
▁నడు	-11.443
▁ఆనం	-11.4434
▁విశ్వనాథ	-11.4435
▁న్యాయమూర్తులు	-11.4436
▁ర్ల	-11.4437
ja	-11.4438
▁ఉంటాడ	-11.4442
▁బెదిరింపుల	-11.4444
SC	-11.4446
▁కోలుకో	-11.4446
98	-11.4446
▁అలంకరించ	-11.4447
టెక్నిక్	-11.4449
▁ఇంట్రెస్ట్	-11.445
▁మేడ	-11.4453
▁బొల్ల	-11.4454
▁బోరు	-11.4455
▁నేవీ	-11.4456
▁గజాల	-11.4457
▁కూర్	-11.4463
▁ఎండు	-11.4467
▁చలన	-11.4468
▁పరుగు	-11.4468
▁అవార్డ్	-11.4469
వారి	-11.4477
వర్డ్	-11.4479
▁అల్లా	-11.448
▁హ్యాండ	-11.4485
▁జనా	-11.4487
మడుగు	-11.4487
▁దూసుకు	-11.4488
కేషన్	-11.4489
▁ప్రదేశ	-11.449
▁పెట్టినా	-11.4493
కున్నాడు	-11.4495
▁చేస్తామ	-11.4497
ज	-11.4498
▁th	-11.45
▁ಇದ	-11.45
▁సరుకుల	-11.4501
ظ	-11.4502
▁క్షిపణి	-11.4502
▁2022-23	-11.4502
▁ఆధీనంలో	-11.4502
▁ఇంటర్మీడియ	-11.4502
▁చార్మినార్	-11.4502
▁తాలిబాన్	-11.4502
▁పింఛను	-11.4502
▁ర్యాంకింగ్	-11.4502
▁విక్టరీ	-11.4502
▁యోచన	-11.4502
▁మధిర	-11.4502
▁ఇస్లాం	-11.4502
▁ముత్యాల	-11.4502
▁థీమ్	-11.4502
▁క్షమించ	-11.4502
▁పగ్గాలు	-11.4502
▁పూడ్చ	-11.4502
▁మెగావాట్ల	-11.4502
▁సూర్యగ్రహణ	-11.4503
▁ఇంద్రారెడ్డి	-11.4503
▁మాత్రాన	-11.4503
▁చెన్నూర్	-11.4503
▁పేయి	-11.4503
▁తీసుకుంటోంద	-11.4503
▁ఆంటీ	-11.4505
▁దెబ్బతీసే	-11.4506
▁ముంద	-11.4506
▁పొన్నాల	-11.4507
▁పొడిచి	-11.4507
▁కేశవ్	-11.4507
▁నిలిచాయి	-11.4511
▁చల	-11.4511
▁శ్రీకృష్ణ	-11.4512
▁అక్	-11.4512
▁ర్భం	-11.4513
▁ఐఎన్	-11.4513
దగ్గ	-11.4514
▁ఎల్లుండ	-11.4514
▁190	-11.4514
▁ఫీజులు	-11.4515
▁పుల్	-11.4516
▁నిచ్చారు	-11.4516
▁ఛాలెంజ్	-11.4517
▁جن	-11.4517
▁అడ్డుకుంట	-11.4518
▁సదుపాయం	-11.452
▁తప్పించి	-11.4521
▁రాముడు	-11.4525
▁హిల్స్	-11.4526
▁ఇన్సుల	-11.4526
▁رو	-11.4527
▁నిషేధి	-11.4529
య్యాయని	-11.4529
▁ఆఫర్లు	-11.453
▁పెడుతున్నార	-11.453
▁ఊపు	-11.4531
▁వెళ్లిపోయిన	-11.4531
▁రాగ	-11.4533
ెదురు	-11.4533
దాకా	-11.4537
▁దేహ	-11.4537
▁తాం	-11.4538
▁طو	-11.4542
▁ఇదీ	-11.4542
▁దద్ద	-11.4543
▁మేధావుల	-11.4544
▁నిలిపివేసి	-11.4545
▁am	-11.4545
▁టూల్	-11.4546
ದ್	-11.4547
ter	-11.4548
▁డ్యామేజ	-11.4549
ఖ్య	-11.455
▁నమ్మే	-11.455
▁టింగ్	-11.4551
▁128	-11.4554
▁ఇంట్రెస్ట	-11.4555
▁దాటింది	-11.4558
▁దిగ్గజ	-11.456
▁సంస్కరణల	-11.4562
▁ఈదురుగాలుల	-11.4562
▁(10	-11.4563
▁నగరాలు	-11.4566
▁టీమ్స్	-11.4569
▁కొంటున్న	-11.4576
▁పొంచ	-11.4576
▁పాలకుల	-11.4577
▁కర్త	-11.4581
రాజ్యం	-11.4581
▁కాబట్ట	-11.4583
▁పోయినా	-11.4583
▁బాణ	-11.4584
▁ప్రతిపాది	-11.4585
▁ప్రయత్న	-11.4591
▁టెస్టుల	-11.4595
▁తింట	-11.4596
▁దిగడం	-11.4597
▁సిరియాలో	-11.46
▁వ్యవహరించార	-11.4601
68	-11.4603
▁చూస్తుంట	-11.4604
▁విద్యార్థినుల	-11.4605
▁పడతాయి	-11.4606
▁ఎప్పుడో	-11.4609
▁లివ	-11.4611
▁ఆగిపోయి	-11.4613
సేవ	-11.4621
▁పట్టుబడి	-11.4623
▁వెళ్లాలి	-11.4624
▁రాసే	-11.4629
కూడదు	-11.4632
▁డైవర్	-11.4633
▁నియంత్రణలో	-11.4634
▁ాలనుకుంటున్న	-11.4635
▁స్వాగత	-11.4637
▁పట్నాయక్	-11.4639
▁భౌగోళిక	-11.4639
▁శేరిలింగ	-11.4639
▁సెంటీమీటర్ల	-11.4639
▁రిజర్వు	-11.4639
▁విండో	-11.4639
▁సహాయపడతాయి	-11.4639
▁పెట్టుబడిదారుల	-11.4639
▁ఫీలింగ్	-11.464
▁కల్పించిన	-11.464
▁సీమ	-11.464
▁ఇరువుర	-11.464
ాచారి	-11.464
▁ఫీవర్	-11.464
▁ప్రేమికుల	-11.4641
▁మహోత్సవ	-11.4641
ಡೆ	-11.4642
▁తీశాడు	-11.4642
▁పడుతుండటం	-11.4642
▁ద్వై	-11.4643
▁ఖనిజాల	-11.4643
▁ఉత్తరాది	-11.4645
▁వెంకట్రావు	-11.4645
▁కాలేయ	-11.4648
▁రాకముంద	-11.4649
▁మదనపల్ల	-11.4651
▁సిబి	-11.4652
▁బండార	-11.4654
▁750	-11.4657
▁అభ్యర్ధుల	-11.4657
▁మిస్టరీ	-11.466
▁సైజ్	-11.4661
భావ	-11.4661
▁బిగ్గ	-11.4663
▁సాధారణం	-11.4663
▁సహకరిస్త	-11.4664
▁కలవర	-11.4667
ియట్	-11.4671
▁ఆత్మహత్యలు	-11.4671
▁కేఏ	-11.4674
▁దిగుమతుల	-11.4674
▁శతాబ్ద	-11.4681
▁గ్రామస్థులు	-11.4681
ట్రీ	-11.4684
▁పరాజయం	-11.4686
▁సీనియర్లు	-11.4687
▁పంపు	-11.4691
▁తెలుపుత	-11.4692
▁द	-11.4694
▁ప్రయోగాలు	-11.4694
వుతు	-11.4696
▁నైపుణ్యం	-11.4697
▁నైపుణ్య	-11.4703
▁ప్యాకెట్ల	-11.4704
▁దృశ్యాల	-11.4704
▁అంశ	-11.4705
గోళ	-11.4706
▁చేయాలనుకుంట	-11.4708
▁ನ್	-11.4708
▁సన్మానించ	-11.4712
▁వీర్	-11.4713
▁చేయబోతున్నారు	-11.4716
▁తగ్గుతుంద	-11.4719
▁02	-11.472
▁ఆదాయప	-11.472
▁డైరెక్టర్లు	-11.472
▁సమకూర	-11.4722
▁కలిప	-11.4723
▁అటెండ	-11.4724
▁వేడిగా	-11.4724
▁భావం	-11.4724
▁నిర్దేశించ	-11.4726
▁బహిష్కరించ	-11.4727
▁ಕ್ಕ	-11.4729
▁స్క్రిప్ట	-11.4729
ానంటూ	-11.473
▁చ్చింది	-11.4738
▁ఎగిరి	-11.4738
▁అందుతాయ	-11.4741
▁నింపి	-11.4741
సీహెచ్	-11.4741
టూరు	-11.4741
▁టన్నులు	-11.4741
21	-11.4745
▁వేస్తామ	-11.4747
▁కోస్ట	-11.4747
▁క్యాపిటల్	-11.475
▁ఏజెన్సీల	-11.4751
▁ఇవ్వలే	-11.4752
▁పెరిగిపో	-11.4752
▁పాటిస్త	-11.4755
▁నమ్ముకు	-11.4757
▁సెలక్ట	-11.4761
▁కలెక్ట	-11.4766
▁1.6	-11.4768
▁మరికొంత	-11.4769
si	-11.477
▁డ్డ	-11.4773
▁శత్రు	-11.4776
z	-11.4778
▁అధిష్ఠాన	-11.4778
▁ఏకగ్రీవం	-11.4778
▁కుండపోత	-11.4778
▁ప్రమాదవశాత్త	-11.4778
▁మిజోరం	-11.4778
▁సూక్ష్మ	-11.4778
▁అలసట	-11.4778
▁చేర్పించ	-11.4778
▁పుణ్యక్షేత్ర	-11.4778
▁నిబద్ధత	-11.4778
▁నిర్వీర్య	-11.4778
▁పూలమాల	-11.4778
▁రింకూ	-11.4778
మిర్చి	-11.4778
▁లొకేషన్	-11.4778
▁అసమ్మత	-11.4778
▁ఆయకట్టు	-11.4778
▁ఆచార్య	-11.4778
ఉ	-11.4778
▁పశు	-11.4778
▁అచ్చంపేట	-11.4778
▁మియాపూర్	-11.4779
▁నమోదవుతున్నాయ	-11.4779
▁గుమ్మడి	-11.4779
▁మండ్య	-11.478
▁କି	-11.478
▁మల్లి	-11.4781
ాద్రి	-11.4782
▁పీఏసీ	-11.4782
▁దళారుల	-11.4785
▁పేగు	-11.4786
▁నరక	-11.479
పెడుతోంది	-11.479
از	-11.4791
చిలుక	-11.4792
▁చల్లా	-11.4794
▁పొలాల్లో	-11.4794
▁మొదలవుతుంది	-11.4797
▁కట్టే	-11.4798
ాచార్య	-11.4799
▁బహు	-11.4801
▁తాజ్	-11.4802
జావు	-11.4803
.14	-11.4803
▁సంప్రదించాల	-11.4803
▁చుక్క	-11.4805
▁ప్రార్థనలు	-11.4805
▁నెట్టి	-11.4806
▁కరిగి	-11.4807
▁మేఘా	-11.4807
▁ఎద్ద	-11.4808
▁తమిళ్	-11.4808
▁నిర్వహిస్తో	-11.4808
▁ఫ్రేమ్	-11.4809
▁ఇస్తున్నార	-11.4811
▁విశాఖపట్నంలో	-11.4815
▁900	-11.4816
దిత్య	-11.4816
▁అడిగ	-11.4818
రెన్స్	-11.4819
▁తరలించగా	-11.4819
▁శివారు	-11.482
▁దిగజార	-11.4823
▁దేనిక	-11.4825
▁కొడుత	-11.4825
▁వెలికి	-11.4827
డీఈవో	-11.4827
కూడదన	-11.4828
▁రామచంద్రా	-11.4829
ଭ	-11.4829
▁నీచ	-11.4832
▁1,2	-11.4832
▁ఎదుర్కో	-11.4833
▁ఓడిపో	-11.4834
▁కాంత్	-11.4834
▁ఎలక్ట్రానిక్స్	-11.4838
▁మున్న	-11.4839
▁నిలిచే	-11.4842
జిస్ట్	-11.4843
▁జ్ఞాపక	-11.4848
▁మానేర	-11.4848
▁కారణమయ్య	-11.4849
▁రామేశ్వర	-11.4854
▁సాద	-11.4856
▁ఇస్తారా	-11.4861
▁ఆకట్టుకుంట	-11.4861
▁బాలాస	-11.4862
▁స్టేడియ	-11.4862
▁పావ	-11.4862
▁ఆర్ట్	-11.4865
▁sh	-11.4865
ీకృత	-11.4868
▁డూ	-11.4869
కేశవ	-11.4869
▁గోప	-11.487
▁సైక	-11.4871
▁ग	-11.4872
▁లభిస్	-11.4873
گی	-11.488
▁కుకీ	-11.4881
▁కల్పి	-11.4885
▁తెలప	-11.4888
▁పాడై	-11.4889
▁వస్తా	-11.4889
▁పదవీకాల	-11.4889
▁కృ	-11.4889
నాథన్	-11.4891
▁అవయవాల	-11.4893
▁పొలి	-11.4893
▁మావోయిస్టులు	-11.4894
▁అబ	-11.4896
▁ఉండిపోయ	-11.4898
▁రైట్	-11.4898
▁పంచుకున్న	-11.49
▁గేమ	-11.4907
హెబ్	-11.491
▁చేస్తారనే	-11.491
▁మామూలుగా	-11.4912
▁కోసి	-11.4912
ుకోండి	-11.4913
▁ప్రోత్సహి	-11.4914
▁హనుమంతు	-11.4915
▁పాములు	-11.4916
ತ್ರ	-11.4918
▁ଅନୁ	-11.4919
ख	-11.4919
ଫ	-11.4919
▁అగ్రస్థానం	-11.4919
▁ఎడతెర	-11.4919
▁గోషామహ	-11.4919
▁తుర్కియే	-11.4919
▁ప్రస్థానం	-11.4919
▁మాథ్యూ	-11.4919
▁ಚಿತ್ರ	-11.4919
▁1994	-11.4919
▁సమర్పిస్త	-11.4919
▁డ్యాం	-11.4919
▁ఎండి	-11.4919
▁జైశంకర్	-11.4919
▁డీఎంహెచ్	-11.4919
▁సీజేఐ	-11.4919
▁రప్పించ	-11.4919
▁పేలుళ్ల	-11.4919
▁మారుతుందని	-11.492
▁సీనియర్ల	-11.492
▁తెచ్చుకుంది	-11.492
▁ఆకాశంలో	-11.492
▁నరికి	-11.492
గౌడ	-11.4921
▁సైజు	-11.4921
▁దిలీప	-11.4921
▁ఒక్కొక్కటి	-11.4922
▁ହ	-11.4924
▁శ్రీరాం	-11.4925
స్టాగ్	-11.4926
ఇబ్రహీంపట్నం	-11.4927
▁ఫ్లా	-11.4927
▁న్యూజ	-11.4929
▁ఎక్	-11.493
▁డీఎఫ్	-11.4932
▁అమర్చి	-11.4933
ఆర్ఎస్	-11.4933
▁పోవచ్చు	-11.4935
▁గడుపుతున్న	-11.4937
نڈ	-11.494
▁ఒక్కటి	-11.4944
▁మెంట్లలో	-11.4945
▁దావా	-11.4947
▁భూప	-11.4947
▁మారుతున్నాయ	-11.4948
▁చేపట్టడం	-11.4948
▁అందుతుంది	-11.4951
▁స్పృహ	-11.4952
▁1,4	-11.4953
▁చేపడత	-11.4956
▁తెలివి	-11.4956
▁పెరిగిపోతున్న	-11.4958
▁పేమెంట్స్	-11.4959
తనం	-11.496
▁చెప్పండి	-11.496
▁బాదం	-11.4962
▁మైక్	-11.4965
▁నడిపే	-11.4968
▁చెప్పుకున్న	-11.4969
▁ఖార్	-11.4969
▁మాట్లాడుత	-11.4974
▁యువతుల	-11.4975
▁గాలిస్తున్న	-11.4975
▁వైష్ణవ	-11.4977
▁జీవనం	-11.4979
▁జైళ్ల	-11.4982
▁తప్పించుకున్న	-11.4984
ना	-11.4986
▁చేయవచ్చ	-11.4989
▁మైతే	-11.4989
▁తలపడ	-11.4992
ెర్రీ	-11.4992
▁ప్యాకెట్	-11.4995
▁ప్లాట్ల	-11.4996
▁స్త్రీల	-11.4998
▁రాయబార	-11.5
▁మీర్	-11.5004
▁గెలుచుకు	-11.5006
▁స్తంభాల	-11.5007
▁కోప	-11.5013
▁దెబ్బతిన్నాయ	-11.5017
▁మైనార్టీల	-11.5018
▁చక్రం	-11.5018
▁పేర్కొంట	-11.502
▁ధర్మా	-11.5022
▁ఆండ్ర	-11.5023
▁చెల్లించే	-11.5025
▁సంకేతం	-11.5025
▁సృష్టిస్తున్న	-11.5026
▁ఎన్నిసార్ల	-11.5029
▁పడుతుండ	-11.503
▁మాధవి	-11.5031
▁ప్రభావాల	-11.5031
▁మీటర్	-11.5032
▁పువ్వు	-11.5035
▁ామన్న	-11.5036
మేరు	-11.5038
ోరల్	-11.5038
▁03	-11.504
▁డంప	-11.5045
▁బొమ్మల	-11.5046
▁చేద	-11.5046
ts	-11.5049
య్యాక	-11.5051
▁వేప	-11.5053
ొప్పుల	-11.5054
▁సర్టిఫికేట	-11.5057
▁వెళతా	-11.5058
రేటర్	-11.5058
▁1989	-11.5062
▁జీడీపీ	-11.5062
▁జోసెఫ్	-11.5062
▁పద్దతి	-11.5062
▁వెడల్పు	-11.5062
▁వ్యత్యాస	-11.5062
▁స్పెషలిస్ట	-11.5062
▁రోహిణి	-11.5062
▁దొంగిలించ	-11.5062
▁స్వస్థల	-11.5062
▁కష్టపడ్డ	-11.5062
క్విటీ	-11.5062
▁తిథి	-11.5062
▁కన్నీరు	-11.5062
▁మురికి	-11.5062
▁ముడిపడి	-11.5062
▁ప్రాచీ	-11.5062
▁క్రియేషన్	-11.5063
▁సన్నద్ధ	-11.5063
నాట	-11.5063
▁కేకలు	-11.5063
्र	-11.5063
▁ఉన్నవాళ్ల	-11.5064
▁وہ	-11.5064
▁లాలూ	-11.5064
లబస్	-11.5064
▁సిటిజన్	-11.5065
▁బస్తాల	-11.5065
▁st	-11.5065
▁డీజీ	-11.5066
▁నిఫ్టీ	-11.5066
▁వర్క్స్	-11.5067
▁వస్తు	-11.5069
▁వాతావరణశాఖ	-11.507
▁తలెత్తిన	-11.507
▁సెలబ్రిటీల	-11.507
▁పతక	-11.5071
▁జోలిక	-11.5073
▁రాసుకొచ్చారు	-11.5075
▁2001	-11.5077
▁దొరికింది	-11.508
▁ప్రశ్నిస్త	-11.508
▁సకల	-11.5081
▁వివాదంపై	-11.5083
▁కోర్సులు	-11.5084
▁రెస్ట్	-11.5084
▁బహుమతులు	-11.5088
▁ఇవ్వండి	-11.5091
▁చాప	-11.5091
▁పీక్	-11.5092
▁య్యింది	-11.5093
▁పంపడం	-11.5097
▁వ్యాపి	-11.5097
▁ఫిజిక	-11.5098
▁వెనక్క	-11.5099
▁కమిటీలు	-11.5101
ాలనుకుంటున్న	-11.5102
▁చదివే	-11.5103
▁కోడలు	-11.5104
▁అశ్వా	-11.5107
▁కోలుకున్న	-11.511
▁ఏంటనే	-11.5111
▁స్ట్రా	-11.5111
▁కృత	-11.5116
▁శారీరకంగా	-11.5117
ala	-11.5124
▁పాల్పడ్డ	-11.5126
ish	-11.5127
▁గింజల	-11.513
▁ఫిన్	-11.5131
▁ఫారిన	-11.5132
▁సోదరుల	-11.5132
▁విగ్రహాలు	-11.5132
▁ప్రకటించాల	-11.5134
▁నట్టు	-11.5134
▁భరించలే	-11.5136
▁బజ్	-11.5137
▁ఒప్పందాల	-11.5137
▁నేర్ప	-11.5139
▁సమీకరణాలు	-11.5152
▁నిలిపివేయ	-11.5153
▁అంతేగాక	-11.5153
▁ప్రధానమైన	-11.5154
▁ات	-11.5157
▁వదిలేశార	-11.5157
▁ప్రస్తావిస్త	-11.5158
జై	-11.5161
▁گو	-11.5165
వ్యతిరేకిస్తున్న	-11.5167
▁ప్రకటిస్తున్న	-11.517
▁104	-11.517
ند	-11.517
▁ప్రొటెక్	-11.5171
▁గ్రంథ	-11.5171
▁హెచ్చరికల	-11.5173
▁కోల్పోతున్న	-11.5183
▁బ్యారేజ	-11.5185
▁(22	-11.5185
చిత్ర	-11.5186
▁ఉల్లంఘించిన	-11.5187
▁చెప్పింద	-11.5187
▁మేధ	-11.5188
▁గ్గ	-11.5189
sh	-11.519
▁బల్ల	-11.5192
▁పర్ట్	-11.5196
పట్నం	-11.5198
▁దిగుత	-11.52
▁ఏజెంట్ల	-11.5202
.200	-11.5202
ଷ	-11.5206
ೆವು	-11.5206
▁అరంగేట్రం	-11.5206
▁ఇండోనేషియా	-11.5206
▁కీలకపాత్ర	-11.5206
▁క్వాలిఫై	-11.5206
▁తిరువనంతపురం	-11.5206
▁రిజ్వాన్	-11.5206
▁లైబ్రరీ	-11.5206
▁వృక్ష	-11.5206
▁స్పెషాలిటీ	-11.5206
▁నివాళి	-11.5206
▁మెషిన్	-11.5206
▁ఖజానా	-11.5207
▁స్కాలర్	-11.5207
▁ఇన్ఫో	-11.5207
▁ಫ್	-11.5207
▁అమూల్	-11.5207
▁తనయుడు	-11.5207
▁ପାଇ	-11.5207
▁డిస్ట్రిక్	-11.5207
అఖండ	-11.5207
స్ట్రక్చర	-11.5207
▁నిమ్మకాయ	-11.5207
▁వస్తుండగా	-11.5207
▁టిల్లు	-11.5207
gle	-11.5208
▁అంతరిక్షంలో	-11.5208
▁చీల్చ	-11.5208
▁గుర్తించాం	-11.5208
▁ସେ	-11.5208
ేంటో	-11.5209
▁సరిహద్దులో	-11.5212
▁బ్లా	-11.5213
▁మార్కెట్లు	-11.5213
▁డీఎన్	-11.5214
▁సాక్ష్యాల	-11.5215
▁నష్టపో	-11.5215
ేళ్ళ	-11.5217
[...]
