<unk>	0
<s>	0
</s>	0
.	-2.59443
,	-3.65144
▁ఈ	-4.82021
లో	-5.20422
▁లో	-5.24266
ను	-5.3242
▁	-5.34926
ని	-5.35786
కు	-5.37738
గా	-5.61048
తో	-5.61869
▁కూడా	-5.63473
▁నుంచి	-5.63897
కి	-5.75731
లు	-5.80785
:	-5.82553
▁కు	-5.82957
ు	-5.85803
▁ఆ	-5.8706
ి	-5.87531
న	-5.95057
▁చేశారు	-5.97388
స్	-5.98116
▁ను	-6.01279
పై	-6.08075
ం	-6.09795
ల	-6.11533
▁(	-6.1657
▁అని	-6.19244
ారు	-6.24429
▁ఆయన	-6.25945
)	-6.30195
ా	-6.3306
ే	-6.33643
▁కాంగ్రెస్	-6.36876
నే	-6.37498
▁ఉన్న	-6.38086
వ	-6.39097
▁తన	-6.4293
▁రూ	-6.43332
్	-6.43744
▁కోసం	-6.45951
▁పార్టీ	-6.47671
▁గా	-6.48067
▁రెడ్డి	-6.5075
▁అయితే	-6.52523
▁చెప్పారు	-6.53174
▁చేసిన	-6.56448
▁తెలిపారు	-6.57097
▁ప్రభుత్వం	-6.57897
▁ఒక	-6.58775
▁మంది	-6.59264
▁తో	-6.61434
"	-6.61487
▁తర్వాత	-6.63153
?	-6.68758
▁ఉంది	-6.68925
లను	-6.69995
▁అన్నారు	-6.71035
▁పాటు	-6.79113
▁చాలా	-6.80174
▁ఓ	-6.80476
▁సీఎం	-6.80768
-	-6.81809
▁పై	-6.8208
▁"	-6.8244
▁మంత్రి	-6.82477
▁తెలంగాణ	-6.84505
ాన్ని	-6.85702
▁బీజేపీ	-6.86184
ానికి	-6.87919
▁రెండు	-6.88902
▁దీంతో	-6.89915
▁,	-6.90611
▁హైదరాబాద్	-6.94784
▁వరకు	-6.95548
▁కానీ	-6.9591
ాయి	-6.96012
▁పోలీసులు	-6.96861
▁చెందిన	-6.97596
▁తమ	-6.97681
▁చేసింది	-6.99578
▁చేసి	-7.00768
▁అధికారులు	-7.02378
క	-7.03036
▁జిల్లా	-7.04349
▁ఏ	-7.06521
▁ఎన్నికల	-7.08357
▁ఇది	-7.10078
▁రాష్ట్ర	-7.10102
ర్	-7.10413
▁ఆమె	-7.11202
న్	-7.12438
▁చంద్రబాబు	-7.12506
▁సమయంలో	-7.13143
ది	-7.14905
▁జగన్	-7.16537
▁మరో	-7.1726
లకు	-7.17774
▁మధ్య	-7.18776
▁కేసీఆర్	-7.19168
ాడు	-7.19935
▁బీఆర్ఎస్	-7.20066
▁ఇప్పుడు	-7.20242
ంగా	-7.20621
▁కొత్త	-7.2234
ల్	-7.23287
▁ద్వారా	-7.24876
ారని	-7.2566
▁అనే	-7.26599
▁లు	-7.2745
▁ఇక	-7.28494
▁ఉంటుంది	-7.28582
▁అవకాశం	-7.28932
▁ఏర్పాటు	-7.30062
▁సినిమా	-7.30634
త	-7.30687
లా	-7.31262
▁మాజీ	-7.32555
▁భారీ	-7.3294
▁ఎమ్మెల్యే	-7.3316
▁కొన్ని	-7.3332
▁ప్రస్తుతం	-7.34921
లోని	-7.36393
▁లోని	-7.37143
ట్లు	-7.37233
▁వల్ల	-7.37631
▁లేదు	-7.37733
▁చేస్తున్నారు	-7.38695
▁రేవంత్	-7.38834
▁-	-7.39049
▁భారత్	-7.40078
▁ని	-7.40934
▁ఎన్నికల్లో	-7.41544
▁జరిగిన	-7.41732
▁ప్రభుత్వ	-7.42683
▁వెలుగు	-7.43274
▁వచ్చే	-7.4381
▁వారి	-7.44233
▁కలిసి	-7.44301
▁ముందు	-7.44921
ల్లో	-7.4507
▁వారు	-7.45083
▁గత	-7.45429
▁వచ్చిన	-7.46071
▁గురించి	-7.46718
క్	-7.4772
▁మూడు	-7.47724
▁పవన్	-7.47871
▁అన్ని	-7.48034
▁పెద్ద	-7.48602
▁పోటీ	-7.48803
▁శాఖ	-7.4897
▁మ్యాచ్	-7.49145
▁""	-7.49771
▁ల	-7.50143
▁మాత్రం	-7.50749
నా	-7.50821
ర	-7.50828
▁ఉందని	-7.50875
▁కి	-7.5248
▁శాతం	-7.52827
రా	-7.52829
▁కేంద్ర	-7.52988
▁2	-7.53074
▁ఉన్నారు	-7.53567
▁ఉన్నాయి	-7.54347
▁ప్రతి	-7.54367
▁వద్ద	-7.54891
కే	-7.56224
▁క	-7.56544
▁వ్యక్తం	-7.56813
▁కుమార్	-7.57298
ూ	-7.5826
▁మాత్రమే	-7.58838
▁న	-7.59118
▁నా	-7.59615
▁టీడీపీ	-7.59732
▁మ	-7.59789
▁మా	-7.5985
▁కోట్ల	-7.60798
▁వేల	-7.60827
▁లక్షల	-7.61624
▁సమాచారం	-7.61751
▁చేయాలని	-7.62937
ట్	-7.63247
▁10	-7.63587
వి	-7.63676
రు	-7.63719
▁చేసే	-7.63759
▁ఇప్పటికే	-7.6438
▁విడుదల	-7.64536
▁రోజు	-7.65357
▁ప్రజలు	-7.65504
▁ఎక్కువ	-7.65716
ప	-7.6579
▁నుండి	-7.65924
▁3	-7.65935
మ	-7.66835
▁సందర్భంగా	-7.67658
▁రాష్ట్రంలో	-7.6794
▁ప్రధాని	-7.68116
డం	-7.68139
▁ఎలాంటి	-7.68682
▁వైసీపీ	-7.69097
▁మొత్తం	-7.69173
▁మీద	-7.69182
▁ప	-7.69243
ో	-7.69476
▁తాను	-7.69623
▁ఎలా	-7.69655
▁ప్రకారం	-7.69719
▁లేదా	-7.70424
▁కేసు	-7.70441
▁పని	-7.71167
▁సోషల్	-7.71422
▁5	-7.71623
▁పూర్తి	-7.71689
ట	-7.71727
""	-7.71758
డ్	-7.71829
ింది	-7.72293
▁వారికి	-7.7232
▁వ	-7.72694
య	-7.72902
▁విషయం	-7.72976
▁భారత	-7.73117
▁మంచి	-7.7332
▁స	-7.73675
▁అదే	-7.73824
ేందుకు	-7.73918
▁ముఖ్యమంత్రి	-7.73936
▁అంటూ	-7.73998
▁ఇతర	-7.74983
డానికి	-7.75284
▁నేతలు	-7.75326
▁లేదని	-7.7544
▁పలు	-7.7559
▁చర్యలు	-7.75651
▁కీలక	-7.7602
▁వంటి	-7.76363
▁చేయడం	-7.76439
▁కాదు	-7.76598
ిన	-7.77953
▁అసెంబ్లీ	-7.78084
లతో	-7.79082
▁ఎంపీ	-7.79634
⁬	-7.80526
▁ఇదే	-7.81018
▁అలాగే	-7.81505
▁అంటే	-7.81521
గ	-7.82151
▁ప్రధాన	-7.8239
రి	-7.82521
▁పేర్కొన్నారు	-7.8266
▁సభ	-7.82909
▁నెల	-7.83242
▁మీ	-7.83247
▁మోదీ	-7.83669
▁ఇన్	-7.84011
▁4	-7.84225
▁ప్రత్యేక	-7.85508
▁తెలిపింది	-7.85709
నీ	-7.85778
▁చెబుతున్నారు	-7.8582
▁త	-7.85951
▁ఇండియా	-7.8598
▁రాజకీయ	-7.86103
ాం	-7.86482
▁తాజాగా	-7.86925
▁కోట్లు	-7.86957
▁అది	-7.87004
మా	-7.87108
▁డిమాండ్	-7.87115
▁సంబంధించిన	-7.87312
ామని	-7.87442
▁ఎస్	-7.87703
▁దాదాపు	-7.88235
▁ఇలా	-7.8861
▁ఏపీ	-7.88741
▁రావు	-7.89134
▁20	-7.89215
ంది	-7.89295
మ్	-7.89877
▁మాట్లాడుతూ	-7.89981
▁మెంట్	-7.90083
▁చేస్తున్న	-7.90471
▁అ	-7.90933
▁ర	-7.91965
స	-7.92166
▁ఇచ్చిన	-7.92303
న్న	-7.92524
▁నమోదు	-7.92526
▁జరిగింది	-7.92887
▁గతంలో	-7.92903
▁అనంతరం	-7.9311
▁రోజుల	-7.9323
▁వెంటనే	-7.93334
▁అనేక	-7.93427
▁1	-7.93488
▁గంటల	-7.94397
▁తరువాత	-7.94434
▁ఏడాది	-7.9464
మైన	-7.94893
▁ఆర్థిక	-7.95088
▁మన	-7.95547
▁కింద	-7.95693
▁ఇందులో	-7.9579
ాలు	-7.95838
▁దాడి	-7.9643
ాలని	-7.96435
కా	-7.96647
▁వచ్చింది	-7.96844
▁నిర్ణయం	-7.96881
ీ	-7.9689
▁విచారణ	-7.97313
'	-7.97379
▁జారీ	-7.97449
▁'	-7.97517
▁కేసులో	-7.97764
్లో	-7.97829
▁15	-7.979
డు	-7.97905
▁ప్రచారం	-7.98093
▁8	-7.98838
లేదు	-7.98849
▁సంస్థ	-7.99151
రీ	-7.99165
▁విషయంలో	-7.99274
▁చిన్న	-7.99461
▁ఇచ్చారు	-8.00048
▁కారణంగా	-8.0012
▁ఎక్కువగా	-8.00415
మే	-8.00521
▁భాగంగా	-8.00641
▁ఉదయం	-8.01014
▁తొలి	-8.01198
▁ఢిల్లీ	-8.01227
▁నేను	-8.01298
▁6	-8.01437
▁వీడియో	-8.01533
▁అమలు	-8.01559
▁సింగ్	-8.01721
▁ఆఫ్	-8.0186
▁ఆర్	-8.01902
▁అధికారంలో	-8.02023
▁జిల్లాలో	-8.02536
▁ఫోన్	-8.02967
▁అభివృద్ధి	-8.03004
▁నేపథ్యంలో	-8.03033
▁రాహుల్	-8.03397
▁అక్కడ	-8.0362
▁గాంధీ	-8.03935
▁మే	-8.0423
టి	-8.04263
▁లోక్	-8.04973
సి	-8.05323
▁కాగా	-8.05481
▁తీవ్ర	-8.05952
▁7	-8.06225
▁మీడియాలో	-8.06377
▁12	-8.06571
▁పరిస్థితి	-8.06773
యా	-8.06807
▁కోర్టు	-8.06943
▁లేకుండా	-8.06945
▁ప్ర	-8.07443
▁ఘటన	-8.07545
▁పాల్గొన్నారు	-8.0781
▁నాలుగు	-8.07831
▁తెలుస్తోంది	-8.08027
▁పేరు	-8.08243
▁తిరిగి	-8.09537
లే	-8.09585
▁తెలుగు	-8.09595
▁వ్యక్తి	-8.09774
ద	-8.09779
▁అందుకే	-8.09801
▁ప్రజల	-8.09928
చ	-8.10034
▁అయిన	-8.10221
▁మళ్లీ	-8.10811
▁మీడియా	-8.10811
▁ఎందుకు	-8.10871
▁మరింత	-8.10941
▁తేదీ	-8.11041
▁మేరకు	-8.11269
▁ఏం	-8.11285
డి	-8.11649
▁ఆరోపించారు	-8.11904
▁ఇలాంటి	-8.11974
ాలి	-8.12477
▁కేటీఆర్	-8.1273
వా	-8.13129
▁ఆందోళన	-8.13208
▁అరెస్ట్	-8.13782
▁30	-8.1383
▁ఉంటే	-8.13913
▁ఎంత	-8.13961
▁తెలిసిందే	-8.14062
▁వైరల్	-8.1429
▁తెలంగాణలో	-8.14356
▁నాయకులు	-8.14372
డ	-8.14421
▁ధర	-8.14435
▁అధ్యక్షుడు	-8.14797
▁జాతీయ	-8.15147
▁నేత	-8.15591
▁9	-8.15926
▁టీ	-8.16261
▁ఇటీవల	-8.16286
▁చేస్తూ	-8.16679
▁విజయం	-8.17297
▁వెల్లడించారు	-8.17383
▁స్టేషన్	-8.17465
▁దగ్గర	-8.17497
టీ	-8.17533
▁ఉండే	-8.17643
▁కంటే	-8.18099
▁కొందరు	-8.18601
▁దాని	-8.18785
మని	-8.19139
▁పైన	-8.19162
▁జ	-8.19245
▁11	-8.19653
▁స్టార్	-8.19977
▁రెండో	-8.20227
▁మూవీ	-8.20282
లి	-8.20353
▁పోలీస్	-8.20424
లలో	-8.20823
▁కుటుంబ	-8.20847
▁మొదటి	-8.2099
▁కలెక్టర్	-8.21152
▁కాకుండా	-8.21374
▁వచ్చి	-8.21463
న్నారు	-8.21818
▁పైగా	-8.22285
▁ఇద్దరు	-8.2231
▁ఫిర్యాదు	-8.2237
▁కోరారు	-8.22542
▁రాత్రి	-8.22795
▁పనులు	-8.2286
▁ఇంకా	-8.22862
▁అందులో	-8.23072
▁ఫొటో	-8.2316
▁కేంద్రం	-8.23543
ప్	-8.23761
▁ఏపీలో	-8.23937
▁దీని	-8.24223
▁బ	-8.24331
▁వెళ్లి	-8.24496
జీ	-8.24616
▁తనకు	-8.24648
▁మారింది	-8.24654
▁ఆంధ్రప్రదేశ్	-8.24703
▁చర్చ	-8.25198
▁ఇక్కడ	-8.25515
▁షా	-8.25599
▁కేవలం	-8.25764
▁అమెరికా	-8.25954
▁దేశ	-8.25998
కో	-8.26103
▁జనసేన	-8.26128
▁సూచించారు	-8.2666
▁దేశంలో	-8.2668
▁19	-8.26724
▁లైన్	-8.27327
జ్	-8.27651
మి	-8.2769
కుండా	-8.27945
▁స్పష్టం	-8.27962
▁కంపెనీ	-8.28683
▁..	-8.28745
▁వారిని	-8.29477
▁అవసరం	-8.29491
▁క్రమంలో	-8.29624
▁నగర్	-8.29743
▁వర్షాలు	-8.29938
▁బాగా	-8.30007
▁ఒక్క	-8.30112
▁చేశాడు	-8.30279
పు	-8.30313
▁మరోసారి	-8.30814
▁18	-8.30822
▁సీనియర్	-8.30832
▁గ	-8.30867
▁సమయం	-8.31094
త్	-8.313
▁ప్రజలకు	-8.31637
▁తాము	-8.31673
▁రిలీజ్	-8.31805
▁ఉంటాయి	-8.31826
▁ఏళ్ల	-8.31832
▁ఎక్స్	-8.32756
),	-8.32891
▁అతని	-8.33317
▁ప్రకటించారు	-8.3366
20	-8.33938
▁14	-8.33964
▁హత్య	-8.34224
▁కొనుగోలు	-8.34232
▁వివిధ	-8.34372
▁24	-8.34638
▁డాక్టర్	-8.3479
▁మరియు	-8.35273
▁మీరు	-8.35507
▁పరుగులు	-8.35563
▁వైఎస్	-8.35673
▁ప్రాంతాల్లో	-8.35899
▁పోలింగ్	-8.36106
▁రైల్వే	-8.36108
▁వ్యాఖ్యలు	-8.36236
▁మోడీ	-8.36788
▁25	-8.3681
▁హైకోర్టు	-8.37071
▁ఎంతో	-8.37153
సీ	-8.37195
▁కమిటీ	-8.37409
▁ముందుకు	-8.37697
▁ప్రమాదం	-8.37976
▁నిర్వహించారు	-8.38146
▁గంటలకు	-8.3816
▁గుర్తు	-8.38246
ానని	-8.3867
▁ద	-8.38734
▁సంబంధించి	-8.38898
ట్టు	-8.39269
ఈ	-8.39338
▁జూన్	-8.39423
▁ఎన్	-8.39466
▁టికెట్	-8.39662
▁అనేది	-8.39692
▁శుక్రవారం	-8.39967
▁చైర్మన్	-8.40167
▁క్రికెట్	-8.40314
▁లను	-8.40383
▁వివరించారు	-8.40623
▁ఎ	-8.40685
▁హామీ	-8.40805
▁2024	-8.4104
▁మృతి	-8.41105
నూ	-8.4136
▁వి	-8.41482
▁సోమవారం	-8.4165
▁హ	-8.41836
▁దీనిపై	-8.41851
▁వాటిని	-8.42002
▁ఎన్నికలు	-8.42043
బ్	-8.42162
▁మరోవైపు	-8.42169
కీ	-8.42211
▁డైరెక్టర్	-8.42544
▁దీనికి	-8.42754
▁ఉంటుందని	-8.42785
▁ఐదు	-8.42828
▁ప్రాంతంలో	-8.42831
▁ప్రకటన	-8.43014
▁భార్య	-8.43229
▁పెళ్లి	-8.43443
▁శ్రీనివాస్	-8.43454
▁ఇంటి	-8.43648
▁బయటకు	-8.43783
▁పార్టీలో	-8.43886
▁చేస్తే	-8.44059
▁బంగారం	-8.44197
లీ	-8.44252
▁మార్కెట్	-8.44337
▁ప్రశ్నించారు	-8.44499
▁పాత్ర	-8.44505
▁50	-8.44514
అ	-8.44574
/	-8.44675
లేదని	-8.44725
▁జట్టు	-8.44814
▁అండ్	-8.44954
మీ	-8.45171
▁చేసేందుకు	-8.45313
▁సిబ్బంది	-8.45364
▁ఇంట్లో	-8.45446
▁అభ్యర్థి	-8.45527
ండి	-8.46092
▁కేసులు	-8.46166
▁అధినేత	-8.4624
ందుకు	-8.46296
▁13	-8.46641
ాయని	-8.46737
▁వైపు	-8.46932
▁శ్రీ	-8.47233
▁పేరుతో	-8.47268
▁పేర్కొంది	-8.47328
▁కూటమి	-8.47759
▁2023	-8.47759
▁రద్దు	-8.47958
▁అంచనా	-8.48057
▁మద్దతు	-8.48063
▁చీఫ్	-8.48114
▁ఆదివారం	-8.48128
▁సాయంత్రం	-8.48271
జ	-8.48315
▁సమస్య	-8.48337
▁ఆరు	-8.4835
▁ర్	-8.48358
▁చేయడానికి	-8.48392
▁తేదీన	-8.48539
▁నేడు	-8.48597
▁రా	-8.487
▁ఆరోపణలు	-8.48738
ప్పుడు	-8.48894
▁కా	-8.49027
▁వస్తే	-8.49081
▁రైతులు	-8.49091
దు	-8.49324
▁సహా	-8.49354
▁ఓటు	-8.49601
ుడు	-8.49635
▁జరిగే	-8.49866
▁అయ్యారు	-8.49905
!	-8.49957
▁మంగళవారం	-8.50036
▁మండలం	-8.50119
▁చ	-8.50327
▁సంజయ్	-8.50347
▁శనివారం	-8.50436
▁రోడ్డు	-8.51314
▁చేశారని	-8.51337
▁ఇ	-8.51429
ఫ్	-8.51477
▁రాశి	-8.51551
▁స్థానిక	-8.51594
▁పోస్ట్	-8.5173
▁తక్కువ	-8.51751
▁ప్రపంచ	-8.51864
లపై	-8.52089
▁16	-8.52713
▁ఇజ్రాయెల్	-8.52718
▁అలా	-8.52855
▁17	-8.53288
▁కార్యక్రమంలో	-8.53428
▁బాబు	-8.53792
▁పార్టీకి	-8.54268
▁కొంత	-8.54321
▁చివరి	-8.5468
▁అప్పటి	-8.54739
▁అత్యంత	-8.54875
▁పెట్ట	-8.54901
బ	-8.54969
▁విమర్శించారు	-8.54972
దే	-8.54977
▁భారీగా	-8.55637
▁వరకూ	-8.55695
▁దర్యాప్తు	-8.5582
▁అయినా	-8.55879
▁మాట్లాడారు	-8.55944
▁చేయ	-8.56069
▁అక్కడి	-8.56147
▁కర్ణాటక	-8.56152
▁గురువారం	-8.5616
▁అంత	-8.56165
▁బెంగళూరు	-8.56199
▁సమస్యలు	-8.56451
▁పార్లమెంట్	-8.5678
▁మహిళా	-8.56838
▁విధంగా	-8.57199
పో	-8.57232
▁అధికార	-8.57278
▁సూపర్	-8.57699
▁చికిత్స	-8.57782
▁చోటు	-8.58191
▁రోజుల్లో	-8.58209
ాల	-8.58589
▁22	-8.58615
▁చేస్తామని	-8.58625
▁బీబీసీ	-8.58755
▁హీరో	-8.58769
▁సంఖ్య	-8.58773
వే	-8.58829
▁తప్ప	-8.5884
▁లేని	-8.59198
ము	-8.59203
▁కప్	-8.59242
▁ప్రభావం	-8.59272
▁ప్లాన్	-8.59369
ష్	-8.59507
▁భక్తులు	-8.59658
▁కావడంతో	-8.59696
▁సర్వే	-8.59771
ంలో	-8.59842
గ్	-8.59869
ఏ	-8.60205
▁సభ్యులు	-8.60305
2	-8.60377
య్య	-8.60537
▁ప్రాజెక్టు	-8.60566
▁ప్రకటించింది	-8.60702
మ్మ	-8.60706
▁کے	-8.60779
▁ఎయిర్	-8.60955
▁డి	-8.61009
▁తమకు	-8.61113
ంత	-8.61265
▁బుధవారం	-8.61327
▁చేసినట్లు	-8.61393
▁స్థాయిలో	-8.61469
ی	-8.61623
▁మార్చి	-8.62146
▁రోజులు	-8.62458
▁అరెస్టు	-8.62557
▁ఈసారి	-8.62559
▁ఇవ్వాలని	-8.62721
▁రైతు	-8.62878
▁మహిళ	-8.63011
▁ఎమ్మెల్సీ	-8.63154
▁తిరుమల	-8.63418
▁అక్రమ	-8.63725
▁ముఖ్యంగా	-8.6384
తోపాటు	-8.63856
▁కళ్యాణ్	-8.63878
▁కే	-8.63891
1	-8.63918
▁నాకు	-8.64061
▁అంటున్నారు	-8.6419
▁మండిపడ్డారు	-8.64237
▁బెయిల్	-8.64237
▁వరల్డ్	-8.64338
▁అసలు	-8.64387
▁మరి	-8.64387
రో	-8.64793
డంతో	-8.65028
▁విమర్శలు	-8.65049
▁సిరీస్	-8.65069
ے	-8.65079
సా	-8.65081
▁తీసుకున్న	-8.65439
▁ఆరోగ్య	-8.65473
▁సమావేశం	-8.65543
▁చేయాలి	-8.6588
▁కో	-8.66168
ులు	-8.66171
▁ది	-8.66229
▁ఖర్చు	-8.66284
▁రి	-8.66511
▁గ్రూప్	-8.66579
▁సి	-8.6671
▁బడ్జెట్	-8.66767
▁విషయాన్ని	-8.66774
▁ఇబ్బందులు	-8.6687
▁ఇప్పటి	-8.67145
శ	-8.67201
పి	-8.67311
▁తయారు	-8.67321
▁పూర్తిగా	-8.67348
లోనే	-8.67365
▁వాతావరణ	-8.67418
▁ధరలు	-8.67518
▁ఏప్రిల్	-8.67752
▁میں	-8.67909
▁ఇంటికి	-8.68025
▁ఆన్	-8.68082
3	-8.68098
▁వస్తున్న	-8.68143
తి	-8.68195
▁నరేంద్ర	-8.68198
▁21	-8.68221
దా	-8.68287
▁చేసుకున్న	-8.68379
టం	-8.68442
▁వరంగల్	-8.68478
ು	-8.68613
▁షర్మిల	-8.68704
▁డబ్బులు	-8.68834
▁వరద	-8.69105
రే	-8.69144
హ	-8.69219
ైన	-8.6924
▁తండ్రి	-8.6937
▁చెప్ప	-8.6965
▁రాజ్	-8.6975
▁చేసారు	-8.69789
▁సైతం	-8.69948
▁వచ్చాయి	-8.7006
▁ఈరోజు	-8.70172
▁కారు	-8.70181
▁బి	-8.70818
▁ఉండగా	-8.70835
▁య	-8.71073
▁భర్త	-8.71202
సు	-8.71276
యి	-8.7129
▁మందికి	-8.71512
▁డబ్బు	-8.7154
▁సీ	-8.71554
▁చైనా	-8.71808
▁ఉమ్మడి	-8.71834
▁స్థానంలో	-8.71961
ాడని	-8.72118
▁చేసుకున్నారు	-8.72133
▁దీన్ని	-8.72164
▁అన్న	-8.7223
▁ప్రముఖ	-8.72494
ె	-8.72566
▁ఉన్నట్లు	-8.72676
▁ట్వీట్	-8.72728
▁కవిత	-8.7276
▁పలువురు	-8.72829
▁కల్యాణ్	-8.73057
▁వర్షం	-8.73102
▁కాబట్టి	-8.73335
▁2019	-8.73582
ద్	-8.73621
▁సమావేశంలో	-8.73684
▁లాంటి	-8.73763
▁పిటిషన్	-8.73829
లోకి	-8.73834
▁విద్యుత్	-8.73941
ాను	-8.73986
‍	-8.7402
లోనూ	-8.74433
▁کی	-8.74491
▁ప్రజా	-8.74639
ారా	-8.74771
▁ఐ	-8.74912
వారు	-8.75201
▁తీసుకున్నారు	-8.753
▁ఇవాళ	-8.75495
నున్నారు	-8.75552
ంతా	-8.75568
ింగ్	-8.75852
▁ఆయనకు	-8.75896
ేలా	-8.76069
▁భ	-8.76119
▁జిల్లాల్లో	-8.76158
▁పది	-8.76241
▁ఇచ్చింది	-8.7626
▁కారణం	-8.76466
▁నెలల	-8.76484
▁రైలు	-8.76519
▁రాజీనామా	-8.76544
▁పోలీసులకు	-8.76616
▁పాకిస్తాన్	-8.76864
ిందని	-8.77115
▁చేస్తారు	-8.77228
▁ప్రయత్నం	-8.77346
▁సభలో	-8.77522
డీ	-8.77612
▁జరుగుతున్న	-8.77728
▁బండి	-8.77759
▁సీట్లు	-8.77794
▁పార్టీల	-8.77823
▁వ్యాప్తంగా	-8.78016
▁వాళ్లు	-8.78063
▁ఒకటి	-8.78129
▁ఆడ	-8.78184
▁తల్లి	-8.78312
▁నీరు	-8.78339
▁40	-8.78421
▁పెట్టి	-8.78542
▁ఎన్టీఆర్	-8.78554
▁బస్సు	-8.78687
▁పార్టీలు	-8.78692
▁అక్టోబర్	-8.78716
▁ఎన్నో	-8.78775
▁డిసెంబర్	-8.78928
వు	-8.78963
వ్	-8.7902
▁బీఆర్	-8.79193
▁మనం	-8.79197
▁అంద	-8.79263
▁వైద్య	-8.79266
▁ఖమ్మం	-8.79333
▁నిర్వహించిన	-8.79697
▁క్యాప్షన్	-8.79719
ాలను	-8.79806
▁వస్తుంది	-8.79862
▁ఆగ్రహం	-8.79873
▁అందుబాటులో	-8.8005
▁కమిషన్	-8.8015
ఆర్	-8.80271
..?	-8.80439
▁యాదవ్	-8.80496
▁అలాంటి	-8.80505
▁తీవ్రంగా	-8.80525
▁సెప్టెంబర్	-8.80549
▁లా	-8.80669
▁కాదని	-8.80692
నో	-8.80732
▁జీ	-8.80748
7	-8.80782
▁సొంత	-8.80814
▁సీబీఐ	-8.80916
▁లోకి	-8.81193
▁ఈడీ	-8.81258
▁తెలిసింది	-8.81363
5	-8.81403
▁ఆధ్వర్యంలో	-8.81461
▁పోలీసు	-8.81601
▁అమ్మ	-8.82033
పల్లి	-8.82235
▁అమిత్	-8.8224
▁గవర్నర్	-8.82241
▁ముగ్గురు	-8.82251
▁చేస్తున్నారని	-8.82857
▁ఎవరు	-8.8286
▁ఒకే	-8.82913
▁కథ	-8.82936
▁ఇవ్వ	-8.82992
▁పోలీసుల	-8.83011
▁బ్యాంక్	-8.83019
ప్పటికీ	-8.83112
▁చెప్పిన	-8.83174
▁ఎంపిక	-8.83281
ఎస్	-8.83426
▁ఉండాలని	-8.8352
▁మహిళలు	-8.83592
▁100	-8.83653
దని	-8.83792
▁అధికారి	-8.83819
▁వెళ్ల	-8.83861
▁గుర్తించారు	-8.83871
▁నియోజకవర్గంలో	-8.84002
▁కార్యదర్శి	-8.84028
▁ప్రభుత్వానికి	-8.84106
▁మాట	-8.8425
వచ్చు	-8.84411
ఆ	-8.8447
▁మద్యం	-8.84511
▁సెంటర్	-8.84553
ంటే	-8.84612
▁వివరాలు	-8.84614
▁కాలంలో	-8.84625
▁సుప్రీంకోర్టు	-8.84895
▁రైతులకు	-8.84904
▁మధ్యాహ్నం	-8.84953
ాల్సిన	-8.8497
▁సీజన్	-8.85046
▁దాఖలు	-8.85054
▁ఇబ్బంది	-8.85197
▁బీసీ	-8.85217
▁ప్రెస్	-8.85519
▁ఉన్నాయని	-8.85555
▁భూమి	-8.85559
▁సంఘం	-8.8558
▁తనను	-8.85652
▁తీసుకోవాలని	-8.85671
ణ	-8.85696
▁చేస్తోంది	-8.85743
ామన్నారు	-8.85752
▁సినిమాలో	-8.85949
▁ఐటీ	-8.86092
▁ఖాన్	-8.86226
▁పరిధిలో	-8.86331
▁రూపాయల	-8.86512
పా	-8.86623
▁రామ్	-8.86717
▁రాష్ట్రాల్లో	-8.86844
మో	-8.86913
▁సుమారు	-8.86925
▁వెల్లడించింది	-8.87007
▁అందరూ	-8.87138
▁నవంబర్	-8.87202
▁ముఖ్య	-8.87218
▁రోహిత్	-8.8724
▁అందరి	-8.87575
▁ఢిల్లీలో	-8.87597
▁బీ	-8.87695
6	-8.87826
▁రైతుల	-8.87993
ంద	-8.88
▁మాట్లాడ	-8.88294
▁అవకాశాలు	-8.88442
▁చేస్తుంది	-8.88541
ష	-8.88658
ై	-8.88911
▁అతను	-8.88961
▁మూడో	-8.88993
▁న్యూస్	-8.89115
▁రావడం	-8.89286
భ	-8.89352
▁వారం	-8.89392
▁ఎక్కడ	-8.89436
▁పడ	-8.89449
▁స్వామి	-8.89451
▁షేర్	-8.89505
▁వేసి	-8.89734
▁ఆధారంగా	-8.89867
వేల	-8.90264
తా	-8.90317
▁గ్రామంలో	-8.90392
రెడ్డి	-8.90405
▁రాజు	-8.90476
▁వెబ్	-8.90681
▁శర్మ	-8.90687
▁నీటి	-8.90753
నుంది	-8.90816
▁ఆదేశించారు	-8.90819
ాల్సి	-8.90898
▁పరీక్ష	-8.91038
▁మార్పు	-8.91187
▁చూసి	-8.91236
▁లేక	-8.9128
▁అతి	-8.9142
ఐ	-8.91559
▁27	-8.91728
▁రూపాయలు	-8.91731
▁ప్రేమ	-8.91736
▁స్థాయి	-8.91921
▁వేదికగా	-8.9197
▁అనుమతి	-8.92006
▁అవి	-8.92202
▁పంపిణీ	-8.92252
▁లోకేష్	-8.92371
జా	-8.92571
▁28	-8.92578
▁దేశం	-8.92605
▁గుర్తింపు	-8.92616
▁జిల్లాలోని	-8.92617
▁పట్ల	-8.92862
▁నేషనల్	-8.92884
▁ఏర్పాట్లు	-8.92956
ا	-8.92963
▁షాక్	-8.92978
▁సంవత్సరం	-8.93136
ధ	-8.93156
డమే	-8.93203
▁జనవరి	-8.93203
9	-8.93205
▁అధిక	-8.93222
▁ఆస్ట్రేలియా	-8.93257
▁విద్యార్థులు	-8.93316
▁23	-8.93513
s	-8.93615
జి	-8.9367
్ని	-8.93674
▁ట్రాఫిక్	-8.93728
▁స్కూల్	-8.93847
▁వాటి	-8.93857
▁రష్యా	-8.93878
▁ఎల్	-8.94011
▁క్రితం	-8.94103
▁సరైన	-8.94109
▁రాష్ట్రం	-8.94173
▁నిరసన	-8.94211
▁ఆదాయం	-8.94214
▁యాత్ర	-8.94291
▁కృషి	-8.94352
▁ఆర్టీసీ	-8.94356
▁ఫ్యాన్స్	-8.94415
▁26	-8.94733
▁ఆగస్టు	-8.94747
▁ఎమ్మెల్యేలు	-8.94791
▁దక్షిణ	-8.94871
▁అంతర్జాతీయ	-8.94912
▁విజయ్	-8.95104
▁అందుకు	-8.95203
▁ముంబై	-8.95226
▁కెప్టెన్	-8.95285
న్నీ	-8.95301
▁భద్రత	-8.95358
▁సర్కార్	-8.9536
▁సాయం	-8.95383
▁కేంద్రంలో	-8.95394
▁పెట్టారు	-8.95666
▁మార్పులు	-8.95786
▁చెప్పింది	-8.95821
▁అయింది	-8.95896
▁సంగతి	-8.95994
▁కొడుకు	-8.96377
▁కూడిన	-8.96382
పీ	-8.96438
▁వాయిదా	-8.96501
▁పంట	-8.96634
▁ఉండాలి	-8.96679
▁ఐపీఎల్	-8.96769
నని	-8.96898
▁ప్రారంభించారు	-8.96994
▁తీర్పు	-8.97042
చి	-8.9726
▁నియోజకవర్గం	-8.97286
4	-8.97481
▁పండుగ	-8.97527
▁వచ్చారు	-8.97563
▁సినీ	-8.97582
▁కరీంనగర్	-8.97666
▁ఎవరూ	-8.97669
▁కనీసం	-8.97745
▁అయ్యింది	-8.97814
ప్ప	-8.97824
▁సిటీ	-8.98216
▁ఇచ్చే	-8.98308
▁సా	-8.98361
▁ఇచ్చి	-8.98382
▁ఉండ	-8.9848
▁ఇంత	-8.98511
▁ఉన్నా	-8.9859
▁హెచ్	-8.98683
▁పిల్లలు	-8.98983
▁కావడం	-8.99036
కర్	-8.99132
▁అవుతుంది	-8.99137
▁రాష్ట్రాల	-8.99188
▁కె	-8.99287
▁సామాజిక	-8.99368
▁అర్థం	-8.99416
▁వ్యతిరేకంగా	-8.99425
టా	-8.99435
▁సీటు	-8.99499
▁నుంచే	-8.99514
▁చిత్రం	-8.99654
గానే	-8.99883
▁మున్సిపల్	-9.00012
▁ఆత్మహత్య	-9.00083
▁పి	-9.00159
ఎం	-9.00171
▁అధికారుల	-9.00186
▁ఇవి	-9.00224
▁భారతీయ	-9.00264
▁నష్టం	-9.00294
▁వేశారు	-9.00384
▁తిరుపతి	-9.00405
▁కుటుంబం	-9.00452
▁కామెంట్స్	-9.00525
▁పో	-9.00837
▁దృష్టి	-9.00861
▁కోహ్లీ	-9.00943
▁అంతా	-9.01097
▁తరలించారు	-9.01135
▁చాలామంది	-9.01386
▁బాధ్యత	-9.01494
▁లలో	-9.01586
వీ	-9.01692
▁సంక్షేమ	-9.01892
▁స్	-9.01938
▁అవినీతి	-9.01998
▁మేం	-9.0218
బి	-9.02324
▁గౌడ్	-9.02375
▁నీళ్లు	-9.0245
▁మండల	-9.02689
▁సు	-9.02964
▁కమిషనర్	-9.02995
▁ఆసక్తి	-9.0301
▁డే	-9.03032
▁ప్రారంభం	-9.03085
▁వాళ్ల	-9.03096
▁కార్యకర్తలు	-9.03159
▁ఆయా	-9.03199
డా	-9.03824
▁లక్షలు	-9.03824
▁ఓట్లు	-9.03855
బీ	-9.03856
▁నాయుడు	-9.04103
▁నిధులు	-9.04157
▁బోర్డు	-9.04187
▁రీ	-9.04248
▁ప్రయత్నాలు	-9.04275
▁ప్రజలను	-9.04327
▁బ్యాటింగ్	-9.04342
▁గ్రామ	-9.04399
ుల	-9.04441
▁పథకం	-9.04459
▁ఒత్తిడి	-9.04556
తు	-9.04657
▁తీసుకుని	-9.04781
▁ప్రతిపక్ష	-9.04826
▁న్	-9.04831
▁రకాల	-9.04893
▁భేటీ	-9.05015
▁చేపట్టారు	-9.05017
▁సారి	-9.05075
▁నిర్మాణం	-9.05178
▁డిప్యూటీ	-9.05181
▁కిషన్	-9.05218
▁ఆదేశాలు	-9.05287
▁నిన్న	-9.05306
▁మంత్రులు	-9.05459
▁ముందే	-9.05473
ందని	-9.05493
▁పదవి	-9.05503
రం	-9.05592
▁చోట్ల	-9.05684
▁షెడ్యూల్	-9.05733
ంగ్	-9.05786
▁ఒకరు	-9.05879
▁దాడులు	-9.0594
▁లకు	-9.05948
▁నిపుణులు	-9.05956
▁టీమ్	-9.05991
ినట్లు	-9.06034
▁చట్టం	-9.06041
▁పాత	-9.06125
▁కృష్ణ	-9.0619
▁త్వరలో	-9.06292
▁ఫస్ట్	-9.06301
▁రామ	-9.06302
▁బ్లాక్	-9.06306
▁వెనుక	-9.06401
▁స్వాధీనం	-9.06435
▁చెన్నై	-9.06479
▁ఫుడ్	-9.0648
▁ఉంటారు	-9.06502
▁దరఖాస్తు	-9.06656
▁అభ్యర్థులు	-9.06694
▁చేసుకుంది	-9.06736
ున్న	-9.06819
ారన్నారు	-9.06929
▁ప్రైవేట్	-9.07007
▁విజయవాడ	-9.07097
.2	-9.07248
▁ఏడు	-9.07379
▁కాలం	-9.07428
▁గుజరాత్	-9.07869
▁కొత్తగా	-9.07905
యం	-9.07993
▁టార్గెట్	-9.08
▁టీమిండియా	-9.08144
▁త్వరలోనే	-9.08176
▁స్పెషల్	-9.083
య్	-9.08326
▁అభిమానులు	-9.08352
▁నిర్వహిస్తున్న	-9.08451
▁ఎం	-9.08485
.1	-9.08522
▁సార్లు	-9.08556
▁బాధ్యతలు	-9.08633
▁సంఖ్యలో	-9.09034
▁ప్రస్తుత	-9.09132
▁అదుపులోకి	-9.09207
▁31	-9.09233
బా	-9.09289
▁ఉప	-9.09344
▁వేళ	-9.09373
▁ము	-9.09476
▁ఇప్పటివరకు	-9.09497
▁ఉచిత	-9.09522
▁కట్ట	-9.09711
▁ఎన్నికలకు	-9.09751
▁ఎందుకంటే	-9.09756
▁పేపర్	-9.09769
▁మహా	-9.09772
▁చేర	-9.09881
▁పాట	-9.09963
▁2014	-9.1004
▁ఇండియన్	-9.10097
▁పాలన	-9.10126
▁శివ	-9.10184
▁అప్	-9.10187
▁చేపట్టిన	-9.10216
▁నేతల	-9.10241
ైనా	-9.10274
▁నోటీసులు	-9.10478
▁సబ్	-9.10548
▁వెళ్లే	-9.10743
▁మహిళల	-9.10749
▁మె	-9.10776
▁?	-9.11216
▁నంబర్	-9.11325
▁ఎవరి	-9.11344
▁ఏదైనా	-9.11357
▁2022	-9.11381
▁పరుగుల	-9.11602
.5	-9.11608
కూ	-9.11798
▁ఉ	-9.11898
టు	-9.11969
▁దానికి	-9.11986
▁దాన్ని	-9.12111
▁29	-9.12121
▁ఉత్తర	-9.12201
▁రేపు	-9.12388
▁ఉన్నారని	-9.12444
▁స్పందించారు	-9.12454
▁ప్రపంచంలో	-9.12543
▁మెడికల్	-9.12551
▁పవర్	-9.12589
▁బ్యాంకు	-9.12812
▁తదితరులు	-9.12931
▁ఓట్ల	-9.1294
▁ఆలోచన	-9.12986
▁లోనే	-9.13117
ر	-9.13124
▁ఫలితాలు	-9.13212
▁కేజ్రీవాల్	-9.13458
▁బహిరంగ	-9.13521
▁వెళ్లిన	-9.1356
▁నేరుగా	-9.13606
▁పిల్లల	-9.13606
▁తెలుగుదేశం	-9.13607
▁పూర్	-9.13645
▁చెక్	-9.1367
..!	-9.13692
▁సంబంధం	-9.137
▁పెరిగింది	-9.13776
ుంది	-9.13951
▁హీరోయిన్	-9.13959
▁జైలు	-9.13971
ుకొని	-9.14164
ہ	-9.14176
▁దాంతో	-9.14388
▁రావడంతో	-9.14532
▁దేశవ్యాప్తంగా	-9.14536
ుగా	-9.14623
ంచ	-9.14625
▁వ్యవస్థ	-9.14758
▁దూరంగా	-9.14771
▁రోడ్	-9.14939
▁టాప్	-9.15019
▁నివేదిక	-9.15052
▁రక్షణ	-9.15164
తీ	-9.15247
▁నాటికి	-9.15604
▁లక్ష్యంగా	-9.15658
▁దేశాల	-9.15695
▁టెస్ట్	-9.15778
▁తాజా	-9.15852
పూర్	-9.15857
▁రికార్డు	-9.15999
o	-9.16139
ంటూ	-9.1621
▁కాస్త	-9.1622
▁బీజేపీకి	-9.16264
▁మోహన్	-9.16278
▁మిగిలిన	-9.16311
▁మంజూరు	-9.16379
▁బరువు	-9.16575
టర్	-9.16579
▁జనరల్	-9.16683
ఓ	-9.16705
▁పర్యటన	-9.16747
▁వెళ్లారు	-9.16793
గు	-9.16816
▁మి	-9.1721
▁పొత్తు	-9.17225
▁వికెట్లు	-9.17228
▁విలువ	-9.17289
8	-9.17388
▁డీ	-9.17466
▁అవగాహన	-9.17624
▁మిగతా	-9.17624
లుగా	-9.17684
▁అప్పుడు	-9.17723
▁భూ	-9.17748
▁అధికారులకు	-9.17866
క్ష	-9.17872
▁సిద్ధం	-9.17927
▁కలిపి	-9.17962
▁జరుగుతోంది	-9.17966
▁రాజధాని	-9.18135
▁60	-9.18152
▁ఒక్కో	-9.18174
▁ప్రాజెక్ట్	-9.18417
▁అర్జున్	-9.18427
▁ఉండటంతో	-9.18431
▁సైట్	-9.18445
ౌ	-9.18606
▁సాధారణ	-9.18627
ఫ	-9.18808
▁ఉండి	-9.18831
▁కనిపిస్తోంది	-9.18903
▁కిలోమీటర్ల	-9.18916
▁మోసం	-9.18975
▁నారా	-9.19015
▁న్యాయం	-9.19054
▁కలిగి	-9.19055
▁کو	-9.19111
▁నెలలో	-9.19145
▁ఎన్ని	-9.19263
ారో	-9.19361
▁యూనివర్సిటీ	-9.19486
▁వ్యవసాయ	-9.19486
▁సాగు	-9.19514
▁ప్రెసిడెంట్	-9.19537
▁శక్తి	-9.19649
▁సంస్థలు	-9.19668
▁శిక్ష	-9.19742
▁జరుగుతుంది	-9.19879
▁వారిలో	-9.19901
▁గో	-9.19937
▁పాల	-9.19991
▁కొంతమంది	-9.20092
▁ప్రకటించిన	-9.20116
▁అమరావతి	-9.20182
క్క	-9.20302
▁అధికారులను	-9.20326
▁కార్యక్రమం	-9.20419
▁హై	-9.20432
తే	-9.20444
▁పరిస్థితులు	-9.20477
వర్	-9.20702
▁వేలు	-9.20785
▁చిరంజీవి	-9.20843
▁మేము	-9.2104
యూ	-9.212
▁తీసుకోవడం	-9.21245
▁షో	-9.21298
▁ప్రక్రియ	-9.21309
▁వేగంగా	-9.21325
▁ప్రాధాన్యత	-9.21331
▁ఒక్కసారి	-9.21336
▁చేయనున్నారు	-9.21401
▁ఫైనల్	-9.21434
▁టీటీడీ	-9.21468
▁సరఫరా	-9.21487
ండ	-9.21488
▁మీటింగ్	-9.21509
▁బయట	-9.21754
▁అధికారం	-9.21759
▁ప్రభుత్వాన్ని	-9.21786
ాలంటే	-9.21902
▁వేసింది	-9.21902
▁ముందుగా	-9.21903
0	-9.22128
▁గుడ్	-9.2221
▁విశాఖ	-9.22272
రావు	-9.22323
▁సంవత్సరాల	-9.22387
▁ప్రత్యేకంగా	-9.22438
న్నాయి	-9.22556
▁తప్పు	-9.22672
▁ఏకంగా	-9.22736
▁విద్యా	-9.22757
▁ఫిబ్రవరి	-9.22924
▁పెంచ	-9.22927
▁ఎప్పుడూ	-9.22982
▁అవ	-9.23004
▁అటు	-9.23248
▁వివేక్	-9.23312
▁ఎత్తున	-9.23345
▁కోల్	-9.2337
▁స్థానికులు	-9.23395
▁సంచలన	-9.23511
▁చేయగా	-9.23566
▁యాప్	-9.23578
▁హౌస్	-9.23643
▁నిజామాబాద్	-9.23649
▁వాడ	-9.23777
▁హక్కు	-9.23787
▁బిజెపి	-9.23819
▁అల్లు	-9.23981
▁అవసరమైన	-9.23989
▁హెచ్చరించారు	-9.24001
▁చేస్తున్నట్లు	-9.24012
▁వీటిని	-9.24131
▁వర్క్	-9.24243
వో	-9.24432
▁పశ్చిమ	-9.24484
▁కావాలని	-9.24546
ాల్లో	-9.24594
▁పరిధిలోని	-9.24689
▁వస్తుందని	-9.24702
▁లే	-9.2473
▁రోజున	-9.24764
▁హరీశ్	-9.24825
▁హాస్పిటల్	-9.2491
▁మార	-9.24911
▁పడింది	-9.24982
▁దర్శకుడు	-9.24996
▁చేసుకుని	-9.24996
▁ఉండటం	-9.25
▁వ్యాఖ్యానించారు	-9.25013
ఎన్	-9.25057
▁స్పీకర్	-9.25165
▁ఎస్సీ	-9.25178
e	-9.2523
▁రోజులుగా	-9.2527
▁రాష్ట్రంలోని	-9.25346
▁ఆమెను	-9.25412
▁హిట్	-9.25436
▁సికింద్రాబాద్	-9.25529
▁వేసిన	-9.25594
▁మీకు	-9.2562
▁అధికారిక	-9.25654
▁లిక్కర్	-9.25675
▁గెలుపు	-9.25711
▁జీవితంలో	-9.25803
y	-9.25868
▁అయ్యాయి	-9.25898
▁వా	-9.25933
▁జస్టిస్	-9.26018
తోనే	-9.26076
ప్ర	-9.26091
▁నెట్	-9.26176
▁ఫుల్	-9.26246
▁సమాధానం	-9.26324
▁భావిస్తున్నారు	-9.26436
▁ప్రతీ	-9.26436
▁డ్రైవర్	-9.26449
▁ఇక్కడి	-9.2647
▁నాటి	-9.26541
▁వరుసగా	-9.26694
▁చొప్పున	-9.26707
▁విలువైన	-9.26725
షన్	-9.26756
▁అందరికీ	-9.26759
▁తగ్గ	-9.26806
▁చెప్పి	-9.26956
▁ఆలయ	-9.27
▁రానున్న	-9.27093
రె	-9.27096
ుతోంది	-9.27144
▁ఎటువంటి	-9.27229
▁సేవ	-9.27353
ించ	-9.27355
▁సర్కారు	-9.27402
▁న్యూఢిల్లీ	-9.2759
▁తీసుకుంది	-9.27593
▁మేకర్స్	-9.27594
▁డ్రగ్స్	-9.27634
▁స్థానాల్లో	-9.27661
▁బుక్	-9.27727
▁గొప్ప	-9.27734
▁బంగ్లాదేశ్	-9.27766
గి	-9.27884
ొ	-9.27949
▁చేతిలో	-9.27967
▁నిర్వహణ	-9.27984
⁭	-9.28099
▁నెలకొంది	-9.28099
▁డీకే	-9.28157
▁సమీపంలో	-9.2816
u	-9.2823
▁2018	-9.28294
▁కోర	-9.28361
▁చేయడంతో	-9.28382
▁నిర్మాణ	-9.28442
▁లేఖ	-9.28458
▁చేసినా	-9.28468
▁జనం	-9.28628
▁బా	-9.28682
▁నల్గొండ	-9.28803
▁శ	-9.28919
కర	-9.28925
▁సంఘటన	-9.29012
▁ఎస్పీ	-9.29061
▁ఇవ్వడం	-9.29098
▁మొబైల్	-9.29164
▁డబుల్	-9.29284
▁ఓటమి	-9.29316
▁వే	-9.29356
▁జరగనున్న	-9.29422
▁ప్రసాద్	-9.29428
a	-9.29481
ఎ	-9.29506
▁షూటింగ్	-9.29512
దీ	-9.29529
▁మీడియాతో	-9.29584
▁ఇప్పటికీ	-9.29585
▁پر	-9.29772
▁స్థానం	-9.30091
▁నాడు	-9.30138
▁లక్ష	-9.30141
▁చుట్టూ	-9.30249
▁అభ్యర్థుల	-9.3025
▁కోర్టులో	-9.30271
వ్వ	-9.30304
▁వార్తలు	-9.30314
▁వ్యక్తులు	-9.30348
▁పెట్టిన	-9.30383
ళ్ల	-9.30385
▁కరోనా	-9.30404
▁నోటిఫికేషన్	-9.30407
▁షిప్	-9.30463
▁ట	-9.3047
▁ఎఫ్	-9.30494
▁హిందూ	-9.30537
▁ఉద్యోగులు	-9.30576
▁తా	-9.30623
▁ఫైర్	-9.30639
▁సమస్యలను	-9.30723
▁ఆవేదన	-9.30764
యో	-9.30809
▁పక్కన	-9.3089
ారనే	-9.30901
▁ఇన్నింగ్స్	-9.30944
▁నలుగురు	-9.30944
▁రవాణా	-9.30944
చే	-9.30947
▁చర్చలు	-9.30951
స్ట్	-9.31046
▁వర్గాలు	-9.3124
▁సాధించిన	-9.3129
▁సంబంధిత	-9.31312
▁اس	-9.31315
▁విచారణకు	-9.31443
కం	-9.31532
▁మహిళలకు	-9.31663
▁బౌలింగ్	-9.31668
▁గుండె	-9.31797
▁నీ	-9.3198
▁కౌంటర్	-9.32104
▁దిశగా	-9.32116
▁లేదన్నారు	-9.3216
▁సక్సెస్	-9.32214
▁ఆమెకు	-9.3223
▁ప్లే	-9.32256
▁ప్రొఫెసర్	-9.32397
▁పూజలు	-9.32487
▁బైక్	-9.32548
▁దూరం	-9.32603
▁నాయకుడు	-9.32607
▁బదిలీ	-9.3265
▁పీ	-9.32698
▁రాజస్థాన్	-9.32764
ರ	-9.32775
▁వాటర్	-9.32783
▁ఉద్యోగం	-9.32821
▁భవన్	-9.3284
▁మో	-9.32855
و	-9.32904
▁స్టేట్	-9.3292
,000	-9.32953
▁బాలీవుడ్	-9.32957
▁టౌన్	-9.32968
▁ట్రంప్	-9.33132
▁మిషన్	-9.33152
▁టాలీవుడ్	-9.33316
▁సాయి	-9.33355
▁ఖాళీ	-9.3347
▁మెట్రో	-9.33505
▁కర్ణాటకలో	-9.33512
▁గోదావరి	-9.33515
▁తమిళనాడు	-9.33528
▁ఆహారం	-9.33608
▁కొద్ది	-9.33695
▁చూసిన	-9.33795
▁శ్రీవారి	-9.33846
డే	-9.33851
▁అందుబాటులోకి	-9.33858
▁కానుంది	-9.33903
▁అంతే	-9.33912
▁ఆరోగ్యం	-9.34062
▁ఉందన్నారు	-9.34112
▁జులై	-9.34377
▁వివరాలను	-9.34459
▁దారి	-9.34546
▁వీ	-9.34831
▁ప్రమాద	-9.34841
▁మెగా	-9.34887
▁అత్యధిక	-9.34917
▁నాని	-9.34949
▁ప్రభాకర్	-9.34999
ದ	-9.35037
▁పడి	-9.35061
▁సెంట్రల్	-9.35182
▁అనుకూలంగా	-9.35248
▁వెండి	-9.35256
▁పరీక్షలు	-9.35308
చ్	-9.35365
▁కెరీర్	-9.35368
▁తి	-9.3548
▁ప్రాణాలు	-9.35545
▁వర్గాల	-9.35636
▁శంకర్	-9.3566
▁పాక్	-9.35742
▁కార్పొరేషన్	-9.35755
▁భర్తీ	-9.35816
▁పెద్దగా	-9.35831
▁ఇంటర్	-9.35957
▁యా	-9.3596
▁అవార్డు	-9.36008
▁వంద	-9.36055
▁వరుస	-9.36152
▁తల	-9.36247
▁సినిమాలు	-9.36308
▁పంజాబ్	-9.36326
▁మాకు	-9.36326
▁ట్విట్టర్	-9.36354
▁చరిత్ర	-9.36384
▁పంప	-9.36482
▁మెదక్	-9.36506
i	-9.366
▁డ	-9.36609
▁ప్రాంతాల	-9.36635
▁సాగ	-9.36641
▁పంచ	-9.36641
▁రవి	-9.36798
%	-9.36888
▁ఫర్	-9.3691
▁శాంతి	-9.37086
▁చేరిన	-9.37095
▁జో	-9.37124
లేని	-9.37332
▁کا	-9.37333
▁బై	-9.37355
ాక	-9.37389
▁పాస్	-9.3739
▁ఎప్పుడు	-9.37411
▁తగిన	-9.37435
▁ఆఫీస్	-9.37474
00	-9.37578
▁నిలిచింది	-9.37672
▁చేరారు	-9.37716
కొ	-9.37754
గల	-9.37942
▁అక్కడే	-9.37949
▁గురి	-9.38026
▁బృందం	-9.38042
▁అవుతోంది	-9.38062
▁మార్చ	-9.38198
▁బిగ్	-9.38212
▁పార్టీని	-9.38361
ితే	-9.38384
▁వికెట్	-9.38412
ున్నారు	-9.38482
▁పోర్ట్	-9.38494
▁గెలిచిన	-9.38536
▁చూస్తే	-9.38703
▁అమెరికాలో	-9.38785
▁A	-9.38901
▁ప్రయాణం	-9.38909
గో	-9.39058
▁సెల్	-9.39214
▁పాకిస్థాన్	-9.39232
▁వీరి	-9.39326
ట్ట	-9.39383
ుతుంది	-9.39489
▁నియోజకవర్గాల్లో	-9.39574
▁ట్రాన్స్	-9.3961
▁ఓపెన్	-9.39613
▁మొదలైంది	-9.3962
ళ్లు	-9.39681
ل	-9.39684
కె	-9.39818
▁సవాల్	-9.3982
▁ఉపాధి	-9.39821
▁వాతావరణం	-9.39824
▁ఒకవేళ	-9.39834
టో	-9.39835
ొచ్చు	-9.39892
▁పెండింగ్	-9.39999
▁ఎంట్రీ	-9.4
▁ఎవరైనా	-9.40001
▁డా	-9.40015
▁విజయ	-9.40065
▁వైద్యులు	-9.40116
▁ఆఫీసర్	-9.40228
▁జా	-9.40297
▁గ్రామానికి	-9.40343
▁ప్రచారంలో	-9.4044
▁ఇస్తామని	-9.40443
▁దశ	-9.40485
▁ఆడియన్స్	-9.40592
▁ఏదో	-9.40664
▁ఆఫీసర్లు	-9.40764
▁సూర్య	-9.40807
▁విద్యార్థి	-9.40813
A	-9.40943
▁అదానీ	-9.41001
▁కుమారుడు	-9.41001
▁చేరుకున్న	-9.4103
▁ఎదురు	-9.41095
▁ఓవర్	-9.41159
▁సాధారణంగా	-9.41172
▁హోదా	-9.41188
▁పా	-9.4126
▁టి	-9.41337
ట్ల	-9.41483
▁నిర్వహించ	-9.41544
▁వెంట	-9.41555
ంట	-9.41556
▁ఈసీ	-9.41614
మె	-9.41644
▁ఉద్యోగుల	-9.41848
▁పనిచేస్తున్న	-9.41883
▁చి	-9.41905
▁తరఫున	-9.4194
▁పట్ట	-9.41951
ాలనే	-9.41965
S	-9.42015
ుకోవడం	-9.42031
▁ఫామ్	-9.42065
▁మహారాష్ట్ర	-9.42154
▁కార్డు	-9.42173
▁చెప్పుకొచ్చారు	-9.42194
▁గ్రీన్	-9.42211
▁గల	-9.42221
▁బిడ్డ	-9.42227
▁నిద్ర	-9.4233
▁క్లారిటీ	-9.42396
▁మీదుగా	-9.42464
.3	-9.42495
ోంది	-9.42542
▁ఫ	-9.42573
▁ఆటో	-9.42678
▁కామారెడ్డి	-9.42709
ର	-9.42709
▁ఎన్నిక	-9.42775
▁రచయిత	-9.42801
▁కరెంట్	-9.42803
▁సైబర్	-9.42807
ుకుని	-9.4286
▁కొ	-9.42939
▁సిద్ధంగా	-9.42942
▁దానిపై	-9.43042
ందా	-9.43088
▁రాజ	-9.43101
▁ప్రమాదంలో	-9.43152
t	-9.4317
▁హీరోగా	-9.43175
▁త్వరగా	-9.43208
▁ఉద్యోగాలు	-9.43253
▁పరిశీలించారు	-9.43292
▁దిగారు	-9.43361
▁ఫ్యామిలీ	-9.43369
▁టాక్	-9.43468
▁అండగా	-9.43488
▁రూమ్	-9.4355
▁కొనసాగుతోంది	-9.43625
▁బరిలోకి	-9.43834
▁జోన్	-9.43899
▁నేటి	-9.43976
▁వై	-9.43998
▁జరిగిందని	-9.44036
▁వెళ్తున్న	-9.44053
▁హాట్	-9.44073
▁తదితర	-9.44166
▁రుణమాఫీ	-9.44232
▁వర్మ	-9.44286
▁ప్రమాణ	-9.44329
ాలన్నారు	-9.44346
▁విధానం	-9.44347
▁పరిస్థితుల్లో	-9.44363
▁రో	-9.444
▁ప్రియాంక	-9.44458
▁హయాంలో	-9.44471
▁బలంగా	-9.44479
▁రెడ్డికి	-9.44645
▁చూడ	-9.44704
▁క్యూ	-9.44737
▁భక్తుల	-9.44767
రూ	-9.44797
▁మొదలు	-9.44803
▁కంపెనీలు	-9.44804
▁వేయ	-9.44856
▁سے	-9.44859
▁ఉత్పత్తి	-9.44884
▁2021	-9.4489
▁వె	-9.44902
▁نے	-9.45071
▁చూడాలి	-9.45089
▁జీవితం	-9.45164
M	-9.45179
▁అంతేకాదు	-9.45269
▁ఆల్	-9.45277
▁భట్టి	-9.45279
▁యుద్ధం	-9.45323
▁విషయంపై	-9.45333
▁మొదట	-9.45336
▁హాజరు	-9.45348
▁రెడీ	-9.45358
▁200	-9.45393
ుతున్న	-9.45446
షా	-9.45502
▁చేశామని	-9.45532
▁ప్రేక్షకుల	-9.45554
ుందని	-9.45556
▁జి	-9.45605
▁లీడర్లు	-9.458
▁ఇందుకు	-9.45821
▁అదనపు	-9.45894
▁తరగతి	-9.4591
ఎల్	-9.45961
▁పోరాటం	-9.45963
▁నిర్ణయాలు	-9.46004
నగర్	-9.4627
▁డెవలప్	-9.4631
▁నెంబర్	-9.46315
ంతో	-9.4636
▁దర్శనం	-9.46377
▁బిల్లు	-9.46377
▁అయ్యే	-9.46411
▁చేపట్ట	-9.46523
▁ఆట	-9.46599
▁పొంద	-9.46599
ుతూ	-9.4665
▁ఖ	-9.46654
▁ఉండదు	-9.46768
▁ఘటనలో	-9.46822
▁అతడి	-9.46848
▁ఫోర్స్	-9.4686
▁సెంచరీ	-9.47059
▁కిలో	-9.47097
▁వసూలు	-9.47175
▁జనాభా	-9.47246
▁70	-9.47307
▁విజ్ఞప్తి	-9.47371
▁వస్తున్నాయి	-9.47387
▁నటి	-9.47396
ఎఫ్	-9.47417
▁న్యాయ	-9.4743
▁S	-9.47455
▁కోచ్	-9.47603
▁హా	-9.47674
▁మాట్లాడిన	-9.47773
▁అంచనాలు	-9.47789
▁జరగనుంది	-9.47808
ରେ	-9.47876
▁శ్రీలంక	-9.47877
▁కుల	-9.47883
▁అల్	-9.47896
▁కార్యక్రమాలు	-9.47975
▁నీటిని	-9.47998
ుకునే	-9.48025
▁ప్లాట్	-9.48063
ద్ద	-9.48094
R	-9.48222
▁ప్రశాంత్	-9.48254
▁విద్య	-9.48269
▁కుట్ర	-9.48315
▁తక్కువగా	-9.48329
▁దు	-9.48427
▁సభ్యుల	-9.48473
▁ఉన్నప్పుడు	-9.48474
ారంటూ	-9.48521
▁తీరు	-9.48552
▁వల్లే	-9.48628
▁తప్పుడు	-9.48641
▁తుది	-9.487
త్త	-9.48847
▁బ్రేక్	-9.48879
.10	-9.48913
▁శిక్షణ	-9.49044
▁గ్రాముల	-9.49066
▁కూతురు	-9.49302
▁కేబినెట్	-9.49302
▁టైటిల్	-9.49312
C	-9.49382
▁రె	-9.49426
▁దీనిని	-9.49447
▁వ్యక్తిగత	-9.49481
▁విరాట్	-9.49541
▁అయి	-9.49586
వారికి	-9.49665
▁అకౌంట్	-9.49696
▁ప్రభాస్	-9.49737
▁ఖరారు	-9.49984
▁పాల్గొన్న	-9.49985
▁వచ్చిందని	-9.50002
▁ప్రాంతం	-9.50055
▁బట్టి	-9.50083
▁విద్యార్థులకు	-9.50171
▁ఆపరేషన్	-9.50179
▁పెద్దపల్లి	-9.50209
▁మంచిది	-9.50211
వారి	-9.50272
▁తల్లిదండ్రులు	-9.50286
▁గొడవ	-9.50298
▁దేశంలోని	-9.50402
▁నేతృత్వంలో	-9.50442
▁అన	-9.5049
▁ఇరు	-9.50495
▁పార్లమెంటు	-9.50554
▁అప్పట్లో	-9.50621
▁రంగు	-9.50655
▁తీర	-9.50689
స్తూ	-9.50793
▁రెవెన్యూ	-9.5084
▁కుటుంబానికి	-9.50988
▁నమ్మ	-9.51024
▁జగిత్యాల	-9.51063
▁రాజకీయాలు	-9.51161
▁పన్ను	-9.51167
▁కదా	-9.51174
▁వద్దకు	-9.51251
▁సమస్యల	-9.51293
ఇ	-9.51452
▁లేవు	-9.51664
▁నిర్మించిన	-9.51683
▁ఆహార	-9.51692
▁టిడిపి	-9.51715
س	-9.51729
▁గుంటూరు	-9.51747
▁ఆమోదం	-9.51807
ళ	-9.51822
▁గెలిచి	-9.51822
▁ముఖ్యమైన	-9.51826
▁యువతి	-9.51877
▁ప్లాంట్	-9.51938
▁నన్ను	-9.51941
▁అడుగు	-9.51952
▁జరిగాయి	-9.51975
୍	-9.51976
▁వ్యతిరేక	-9.52001
▁టీవీ	-9.52036
యే	-9.52039
▁తొలిసారి	-9.52039
▁వందల	-9.52079
హా	-9.52109
▁సిద్దిపేట	-9.5216
▁పుష్ప	-9.52164
▁తేలింది	-9.52184
▁గ్యాస్	-9.52386
▁యాక్షన్	-9.52387
▁80	-9.52415
ుకోవడానికి	-9.52448
▁సెక్రటరీ	-9.52461
▁సెక్షన్	-9.52479
థ	-9.52552
▁నామినేషన్	-9.52557
▁క్యాన్సర్	-9.52621
▁అంశం	-9.52633
వ్యాప్తంగా	-9.52646
▁సన్	-9.52651
▁రద్దీ	-9.52847
▁చిత్ర	-9.52856
▁ప్రదేశ్	-9.52878
▁తెగ	-9.52927
▁అన్నీ	-9.53
▁జూనియర్	-9.53055
وں	-9.53056
▁పూజ	-9.53233
▁గాలి	-9.53257
▁డేటా	-9.53261
▁రాశారు	-9.53298
▁వారిపై	-9.5333
▁సాధించింది	-9.53333
▁నారాయణ	-9.53352
▁రెడ్డిని	-9.53386
▁కేరళ	-9.53423
▁సర్	-9.53457
▁అభ్యర్థిగా	-9.53492
▁యువత	-9.53527
▁కుమార్తె	-9.53539
▁హోం	-9.53548
▁హెడ్	-9.53576
▁కార్యాలయంలో	-9.5358
▁ఉండేది	-9.53593
▁తీసుకునే	-9.53673
▁హాజరయ్యారు	-9.53736
▁కార్యాలయం	-9.53762
▁పాదయాత్ర	-9.53896
▁చెప్పాడు	-9.53911
▁సినిమాకు	-9.53952
▁కొట్ట	-9.53967
▁కోడ్	-9.54084
నుంచి	-9.54096
▁మీటర్ల	-9.54283
▁ఒ	-9.54307
▁ప్రారంభించ	-9.54368
▁సేవలు	-9.54447
▁సం	-9.5449
▁ల్	-9.54537
▁తమిళ	-9.54547
▁హోటల్	-9.54619
▁కొండ	-9.54644
▁వీరు	-9.54647
▁వివరాల	-9.54712
▁నాయక్	-9.54791
▁చేసిందని	-9.54817
▁వేడి	-9.5483
▁ఈవెంట్	-9.54873
ంబ	-9.5492
ణి	-9.54932
▁ప్రశ్న	-9.54947
▁అలీ	-9.55004
▁నగదు	-9.55068
▁ఇరాన్	-9.5511
▁రాలేదు	-9.55233
▁గ్రామాల్లో	-9.55265
కల్	-9.55292
▁సీట్ల	-9.55326
▁పసుపు	-9.55331
▁ప్రవీణ్	-9.55341
▁రాష్ట్రానికి	-9.55373
▁వీడియోను	-9.55533
▁గ్రౌండ్	-9.55555
శాతం	-9.55569
▁ఆదిలాబాద్	-9.55571
▁రోజూ	-9.55581
▁మరీ	-9.55592
▁విదేశీ	-9.55786
▁రాబోయే	-9.558
▁#	-9.55843
▁సమీక్ష	-9.5585
▁పడే	-9.5588
మై	-9.55934
▁వన్డే	-9.55998
▁సర్వీస్	-9.56025
అని	-9.56061
▁ఇల్లు	-9.56072
▁ఉత్తర్వులు	-9.56092
!!	-9.56179
▁నూతన	-9.56181
▁కోట్లకు	-9.56213
▁కంట్రోల్	-9.56256
▁శివకుమార్	-9.56261
▁పబ్లిక్	-9.56268
▁పాలసీ	-9.56289
▁కాల్	-9.56301
▁కల	-9.56388
యు	-9.56435
▁నటించిన	-9.56485
▁ఎదుర్కొంటున్న	-9.56523
▁ఘటనపై	-9.56581
▁కార్	-9.56679
ేష్	-9.56694
కపోతే	-9.56756
డాన్ని	-9.56778
▁వివాదం	-9.56867
▁సె	-9.56894
▁వెనక్కి	-9.56955
▁హెల్త్	-9.56957
లం	-9.56965
▁45	-9.56971
▁వేరే	-9.57045
జర్	-9.57085
▁భద్రతా	-9.57102
▁వయసు	-9.57141
▁అందించారు	-9.57144
▁బాధ	-9.5718
▁వస్తోంది	-9.57221
▁వేదిక	-9.57347
▁ఇద్దరి	-9.57377
▁హమాస్	-9.57454
ారన్న	-9.5761
▁సెక్యూరిటీ	-9.5767
▁సంస్థల	-9.57677
▁టైమ్	-9.57697
మంది	-9.57706
▁బో	-9.57746
▁తరపున	-9.57757
▁దశలో	-9.57875
ాలంటూ	-9.57897
▁ఉద్యోగ	-9.57992
▁ల్లో	-9.58052
.50	-9.58074
.4	-9.58081
▁అనుగుణంగా	-9.58132
▁కాపాడ	-9.58132
▁యువ	-9.58142
▁విద్యార్థుల	-9.58173
▁మానసిక	-9.58294
▁కోసమే	-9.58317
▁కనిపిస్తుంది	-9.58386
▁రు	-9.58424
10	-9.58439
మెంట్	-9.58471
▁పాన్	-9.58474
▁ఎమ్మెల్యేగా	-9.58487
చ్చ	-9.58531
ప్రపంచవ్యాప్తంగా	-9.58554
▁భక్తులకు	-9.58599
ల్లా	-9.58712
▁మానవ	-9.58762
▁చోట	-9.58789
▁యూ	-9.58811
،	-9.58844
▁ఆశ	-9.58936
రని	-9.58957
▁డేట్	-9.59072
▁సీఐడీ	-9.59112
▁ఓటర్లు	-9.59133
ిస్తూ	-9.59166
▁35	-9.59175
▁దిగిన	-9.59241
▁నగరంలో	-9.59242
దో	-9.59249
▁టిక్కెట్	-9.59265
▁ఏమీ	-9.59362
▁చంప	-9.5941
▁జె	-9.59424
▁జై	-9.59493
▁అనిల్	-9.59532
▁కార్యక్రమానికి	-9.59569
▁నాగ	-9.59578
కపోవడంతో	-9.59626
▁ముందస్తు	-9.59653
నున్న	-9.59719
▁రోజుకు	-9.5973
▁పొందిన	-9.59785
▁పల్లి	-9.59802
in	-9.59844
▁సమీపంలోని	-9.59974
▁తెలుసుకుందాం	-9.60043
▁చంద్ర	-9.60172
▁ہے۔	-9.60289
▁ఇస్రో	-9.60312
▁మేర	-9.60494
▁పోలిస్తే	-9.60529
▁చేస్తానని	-9.60545
▁వస్తాయి	-9.60625
▁నమ్మకం	-9.60656
▁శని	-9.60695
▁జెండా	-9.60719
▁మందిని	-9.60734
▁గంజాయి	-9.60769
▁బలమైన	-9.60792
▁రంగారెడ్డి	-9.6081
కోసం	-9.60866
▁పంచాయతీ	-9.60929
▁ہے	-9.61013
▁హరీష్	-9.61013
▁కిరణ్	-9.61075
హి	-9.61144
▁ఇసుక	-9.61257
ః	-9.6126
▁కడప	-9.61277
సన్	-9.61331
▁ప్రయత్నిస్తున్న	-9.61348
▁పాలనలో	-9.61551
▁నియోజకవర్గ	-9.616
ుకునేందుకు	-9.61611
▁పోర్టు	-9.61682
▁మండలంలోని	-9.61717
▁పోస్టు	-9.61747
▁నిర్మిస్తున్న	-9.61768
▁ఆసియా	-9.61823
▁!	-9.61828
▁రాజకీయాల్లో	-9.61835
▁సెలవు	-9.61862
ుకుంది	-9.61894
▁అవుతున్న	-9.61965
▁పొంగులేటి	-9.61992
▁అలర్ట్	-9.61994
▁సినిమాను	-9.62018
▁అభిప్రాయం	-9.6207
▁జాబితాలో	-9.62077
▁కఠిన	-9.62125
▁మధ్యలో	-9.62129
್	-9.62149
▁చెప్పే	-9.62227
▁గతేడాది	-9.62238
▁ఫోకస్	-9.62238
▁నూనె	-9.62246
▁జాగ్రత్తగా	-9.62252
బు	-9.62383
▁లేకపోవడంతో	-9.62387
▁పనులను	-9.62411
తం	-9.62424
▁మై	-9.62459
▁తెర	-9.62471
▁సుప్రీం	-9.62485
▁కచ్చితంగా	-9.62485
▁వెంకటస్వామి	-9.62489
▁ఆదేశించింది	-9.62499
م	-9.62505
▁నాథ్	-9.62507
▁కనిపించింది	-9.62517
g	-9.62612
▁మంచిర్యాల	-9.62733
▁రాష్ట్రపతి	-9.6278
▁జూలై	-9.62789
▁మంటలు	-9.62853
▁ధీమా	-9.62861
సే	-9.62975
▁సో	-9.63006
▁విశేషం	-9.63086
▁ముగిసిన	-9.63089
ిక	-9.63116
▁చేయాల్సి	-9.63155
ంటున్నారు	-9.63168
బో	-9.6318
▁నటుడు	-9.6323
▁వీటి	-9.63232
▁న్యూ	-9.63293
▁ఒప్పందం	-9.63298
▁నిర్ణయించారు	-9.63356
▁అంటారు	-9.6341
ేవారు	-9.63478
లె	-9.63483
▁రెడ్	-9.63485
▁వడ్డీ	-9.63487
▁)	-9.63509
▁ల్యాండ్	-9.63519
▁జరగ	-9.63533
▁చూప	-9.63599
▁స్వయంగా	-9.63626
న్స్	-9.63684
▁మరిన్ని	-9.63685
ಯ	-9.63716
▁వీడియోలు	-9.63726
▁భరోసా	-9.63729
▁నాలుగో	-9.63731
▁కాళేశ్వరం	-9.63737
▁బంతుల్లో	-9.63745
▁వివాహం	-9.63752
▁జిల్లాల	-9.63768
▁టెక్నాలజీ	-9.63813
▁బెంగళూరులో	-9.63868
▁రాయ	-9.6391
ొక్క	-9.63995
▁సంతోషంగా	-9.63999
షి	-9.64086
▁దక్క	-9.6409
େ	-9.64233
లేక	-9.64239
▁సింగరేణి	-9.64254
G	-9.64259
▁اور	-9.64263
▁పడుతున్నారు	-9.64279
▁అధ్యక్ష	-9.64279
19	-9.64293
▁పట్టణ	-9.64295
▁గిల్	-9.64384
▁సంఘాల	-9.64435
▁అతిపెద్ద	-9.64486
▁ఎకరాల	-9.64551
▁చేయలేదు	-9.64606
నం	-9.64652
పర్	-9.64679
p	-9.64733
▁కోమటిరెడ్డి	-9.64737
▁చేరుకున్నారు	-9.64739
▁నిజం	-9.64767
ା	-9.64806
▁రూపంలో	-9.64812
▁సీపీ	-9.64826
ించారు	-9.64844
▁C	-9.64882
▁సాగర్	-9.64918
▁పరిష్కారం	-9.64942
▁అసోసియేషన్	-9.64999
▁వైస్	-9.65047
▁రావాలని	-9.65067
▁వర్గం	-9.65133
▁మారాయి	-9.65139
▁ఏర్పడింది	-9.65276
స్తుంది	-9.65415
▁కాల	-9.65433
▁చంద్రబాబుకు	-9.65439
▁ఉంటున్న	-9.65443
▁టీఎస్	-9.65481
ించిన	-9.65487
పాటు	-9.65497
▁ములుగు	-9.65497
▁నల్ల	-9.65501
▁ఇటీవలే	-9.65518
▁పెరుగుతుంది	-9.65525
▁సహాయం	-9.65548
▁వంటివి	-9.65563
▁నో	-9.65629
▁డాక్టర్లు	-9.65654
▁ఎంపీగా	-9.65667
▁అర్హత	-9.65673
▁జట్టులో	-9.65705
▁ఏర్పడిన	-9.65723
▁అందించ	-9.6573
▁అసిస్టెంట్	-9.65752
▁దిగ	-9.65762
▁దెబ్బ	-9.65768
▁అద్భుతమైన	-9.65776
▁పాలు	-9.65957
ుకుంటూ	-9.66104
న్నా	-9.6616
▁టైం	-9.66163
పోయింది	-9.66246
▁కలిగిన	-9.66257
▁పిలుపునిచ్చారు	-9.66267
▁విషయాలు	-9.66315
▁తీసి	-9.66322
D	-9.66344
▁జంట	-9.66455
▁ప్రదర్శన	-9.66484
▁లేటెస్ట్	-9.66522
రాజు	-9.66545
▁ఎనిమిది	-9.66552
▁తయారీ	-9.66561
లన్నీ	-9.66631
▁టీం	-9.66693
▁ప్రణాళిక	-9.66739
▁లోనూ	-9.66749
▁చెల్లించ	-9.668
▁నెలల్లో	-9.66807
▁దేశాలు	-9.66881
▁ప్రధానంగా	-9.66994
ంచి	-9.67065
▁బంగారు	-9.67097
▁కార్మికులు	-9.671
▁మహబూబ్	-9.6731
▁ఘోర	-9.67311
▁దీనివల్ల	-9.6732
▁పరిచయం	-9.67343
▁అమ్మాయి	-9.67356
▁500	-9.67379
▁వన్	-9.67453
▁పెట్టుబడి	-9.67515
గం	-9.6755
మంతా	-9.67574
▁పిల్లలకు	-9.676
▁పీసీసీ	-9.67629
▁వివాహ	-9.67691
▁సాధించారు	-9.67709
▁ఉంచ	-9.67772
▁పోస్టర్	-9.67785
▁ఎవరికి	-9.67857
▁రంగంలో	-9.67898
▁ఆర్మీ	-9.6793
▁ప్రభుత్వంలో	-9.68027
▁ఆర్డర్	-9.68056
▁90	-9.68093
ೆ	-9.68203
▁ఆసుపత్రికి	-9.68285
▁కీ	-9.68297
▁కురిసే	-9.68339
▁లేదంటే	-9.68345
▁ఈనెల	-9.68367
నైనా	-9.6841
▁దృష్టికి	-9.68439
ారెడ్డి	-9.68478
▁రాజకీయంగా	-9.6851
▁మత	-9.68529
▁అంశంపై	-9.68533
▁జాబితా	-9.68546
▁తూర్పు	-9.68602
▁మధ్యప్రదేశ్	-9.68611
▁చేరుకుంది	-9.68613
▁చరణ్	-9.68639
▁తీసుకొని	-9.6866
▁తేడాతో	-9.68662
▁సీసీ	-9.68662
ుతుందని	-9.68713
▁పాల్	-9.68813
▁ట్రైలర్	-9.68879
▁నిర్ణయించింది	-9.68895
▁చేస్తున్నాయి	-9.68919
▁చేరింది	-9.68964
▁గుర్తించి	-9.68974
▁జాగ్రత్తలు	-9.69091
▁చంద్రయాన్	-9.69133
▁స్పందన	-9.69134
మైంది	-9.69256
▁అరవింద్	-9.69409
▁పెట్టింది	-9.69623
▁ఏంటి	-9.69629
▁హైకమాండ్	-9.69659
▁డివిజన్	-9.69659
▁బెంగాల్	-9.69663
▁అంబేద్కర్	-9.69668
▁రంగంలోకి	-9.69731
▁ఉద్యోగులకు	-9.69741
▁వెంకట్	-9.69757
▁మద్దతుగా	-9.69882
క్స్	-9.69883
ూరు	-9.69897
ఖ	-9.69977
టానికి	-9.70009
సం	-9.70031
▁కాలేదు	-9.70039
▁ఎస్టీ	-9.70098
పేట	-9.70146
▁కోట్లతో	-9.70184
▁గడువు	-9.7019
▁కలకలం	-9.70191
▁యుద్ధ	-9.70245
ిస్తున్న	-9.70247
ిస్తే	-9.70283
▁చెప్పాలని	-9.70283
ాలకు	-9.70284
▁కాలేజీ	-9.70295
▁పరిహారం	-9.70381
▁అంశాలపై	-9.70416
▁తాగ	-9.70446
▁పిటీషన్	-9.70459
▁తప్పనిసరి	-9.70459
▁ఉన్నత	-9.70588
▁ప్రయాణికులు	-9.70613
▁సమావేశాలు	-9.7063
▁కొనసాగ	-9.70655
▁రాసిన	-9.70704
▁బాల	-9.70808
d	-9.70828
L	-9.70929
▁రేషన్	-9.70935
▁నిందితుడు	-9.71039
▁అందుకున్న	-9.71089
▁వాదనలు	-9.71099
▁సెట్	-9.71109
▁ఉద్యోగాల	-9.71145
▁క్రమంలోనే	-9.71198
▁ఇస్తున్న	-9.71252
;	-9.71265
▁తీసుకుంటామని	-9.7128
▁ఫై	-9.71291
▁ఘనంగా	-9.71326
▁పేరును	-9.7134
ిస్తున్నారు	-9.71362
▁అధికారికంగా	-9.71391
▁2020	-9.71412
▁పోస్టులు	-9.71439
▁ఉపయోగించ	-9.71504
▁అంతకుముందు	-9.71553
▁మారిన	-9.71584
▁లతో	-9.71651
▁చేయకుండా	-9.71712
ೇ	-9.71732
▁రేటు	-9.71816
▁పేద	-9.71848
▁ఇస్తే	-9.71916
ుకున్న	-9.71944
▁ఏటా	-9.71983
ాయ	-9.71989
▁స్థానాలు	-9.7199
▁అటవీ	-9.72077
▁ఇంగ్లాండ్	-9.72078
యర్	-9.72089
▁విమానం	-9.72185
▁ఉంటాయని	-9.72194
▁వార్త	-9.72267
▁తిరుమలలో	-9.72319
▁గూగుల్	-9.72351
▁ప్రాథమిక	-9.72351
▁వీడియోలో	-9.72351
▁స్మార్ట్	-9.72352
▁రిపోర్ట్	-9.72352
▁1,	-9.72453
▁స్థల	-9.72484
▁అనుకున్న	-9.72499
కూడదు	-9.72511
▁ఆలయంలో	-9.72563
N	-9.726
▁ఫేక్	-9.72632
▁ప్రతినిధి	-9.72639
▁ఇండ్లు	-9.7264
▁తెలుసు	-9.72657
▁తెలుసుకున్న	-9.72753
▁దేవ	-9.72779
పడ	-9.72826
E	-9.72868
▁కలెక్టరేట్	-9.72898
▁మరికొన్ని	-9.72901
▁కృష్ణా	-9.72917
▁చేశాయి	-9.72929
ించే	-9.73065
▁పడుతున్న	-9.73073
▁యాదాద్రి	-9.73172
▁స్క్రీన్	-9.73172
▁క్యారెట్ల	-9.73178
నున్నట్లు	-9.73183
▁లీగ్	-9.73189
▁వాదన	-9.73223
ల్ని	-9.73286
▁సై	-9.73346
▁చేసుకునే	-9.73381
▁అధికారులతో	-9.73445
▁బె	-9.73461
ధి	-9.73475
▁వాటా	-9.73604
▁నిత్య	-9.73609
▁ఫోటో	-9.73643
▁తనిఖీ	-9.73644
▁జరుగుతున్నాయి	-9.73701
రాజ్	-9.73703
▁డిజిటల్	-9.73724
▁సోర్స్	-9.73728
▁భవిష్యత్	-9.73738
▁బ్యాక్	-9.73795
▁మాటలు	-9.73799
▁ప్రాంతాలకు	-9.73845
▁నమోదైంది	-9.74005
▁మహేష్	-9.74006
▁గంట	-9.7415
▁రాకుండా	-9.74169
▁మార్క్	-9.74177
▁మాస్టర్	-9.74343
▁వైరస్	-9.74387
▁కేసుల	-9.74397
వరకు	-9.74433
▁ఉత్కంఠ	-9.74446
▁శరీరంలో	-9.74463
▁చేర్చ	-9.74488
▁రిమాండ్	-9.74557
▁హైడ్రా	-9.74558
▁శ్రీధర్	-9.74563
▁2,	-9.74572
▁హాల్	-9.74658
ష్ట	-9.7468
▁అవుతున్నాయి	-9.74685
▁చె	-9.74733
▁బిజినెస్	-9.74837
ంట్	-9.74844
ించి	-9.74891
▁M	-9.74902
▁ఛైర్మన్	-9.75118
▁ఉన్నాడు	-9.75119
▁ఆధార్	-9.75142
▁ఇష్టం	-9.75145
సె	-9.75179
P	-9.75212
▁విజయాన్ని	-9.75266
▁న్యాయవాది	-9.75398
▁ప్రధానమంత్రి	-9.75409
▁చేసుకోవచ్చు	-9.75412
▁کیا	-9.75432
▁స్కిల్	-9.75454
▁ప్రచార	-9.75505
▁బెడ్	-9.75528
▁చెంద	-9.75679
▁పథకాలు	-9.75683
▁భూములు	-9.75705
▁సంవత్సరంలో	-9.75719
▁ఓవర్లలో	-9.75836
▁చెప్పడం	-9.75876
▁భూముల	-9.75877
ा	-9.75906
▁పటేల్	-9.75962
▁పార్క్	-9.75989
ప్పటి	-9.76022
▁దృష్టిలో	-9.76044
▁సంవత్సరాలు	-9.76069
▁తిన	-9.76075
▁పాటుగా	-9.7608
ందే	-9.76085
▁నిధుల	-9.76116
ున్నాయి	-9.7616
▁ఇటు	-9.76184
ంటి	-9.76186
▁వ్యక్తుల	-9.76226
▁జన	-9.76261
▁ఇళ్ల	-9.76312
▁వరి	-9.76354
T	-9.76387
▁మేలు	-9.76411
▁దేశాల్లో	-9.76463
▁దూరంలో	-9.76493
▁పెరుగుతున్న	-9.76493
▁సమక్షంలో	-9.76529
▁బియ్యం	-9.7653
▁సిట్టింగ్	-9.76534
▁ఏసీబీ	-9.76552
ైతే	-9.76562
జే	-9.76747
▁వివరణ	-9.76818
▁ఇద్దరూ	-9.76823
▁సాంగ్	-9.76871
▁రియల్	-9.76946
▁ఆప్	-9.76954
B	-9.7698
▁కార్మికుల	-9.76981
▁తీవ్రత	-9.76987
▁అధికంగా	-9.76988
▁అసెంబ్లీలో	-9.77004
▁డె	-9.77011
భా	-9.77023
ಗ	-9.77046
వల్ల	-9.77068
ందో	-9.77081
▁సత్యనారాయణ	-9.77101
ಾ	-9.77113
▁పేర్కొన్న	-9.77116
V	-9.77197
▁విచారణలో	-9.77198
▁ఉన్నప్పటికీ	-9.77252
▁సహాయక	-9.77344
▁ఏళ్లు	-9.77355
▁సీరియస్	-9.77397
▁ముఖ్యమంత్రిగా	-9.77415
▁చెరువు	-9.77435
ంగ	-9.77477
▁అంట	-9.77594
▁నివాసం	-9.77608
ుకున్నారు	-9.77688
▁షేక్	-9.77693
▁రికార్డ్	-9.77725
▁చేయండి	-9.77749
▁లీడర్	-9.77762
▁నిర్మించ	-9.77836
▁ముస్లిం	-9.77856
▁పనిచేసే	-9.77897
▁శుభ	-9.7793
▁కాని	-9.77947
హ్	-9.77961
టింగ్	-9.77988
▁గోల్డ్	-9.77994
▁జీవో	-9.78009
ట్టే	-9.78034
▁కొనసాగుతున్న	-9.78071
▁।	-9.78108
▁ఆఫర్	-9.78115
▁పేర్లు	-9.78136
మన్నారు	-9.78274
.6	-9.784
▁సీఐ	-9.78422
▁క్రికెటర్	-9.78467
▁మనకు	-9.78594
▁అధ్యయనం	-9.78596
ుడి	-9.78722
▁పరిష్కరించ	-9.78807
▁స్పష్టత	-9.78832
▁వ్యాధి	-9.78904
▁తీసుకోవాలి	-9.78923
▁పనుల	-9.78984
స్త	-9.79084
▁థ	-9.79111
▁రమేష్	-9.79123
▁రమేశ్	-9.79148
▁భారతదేశంలో	-9.79153
▁స్వీకారం	-9.79156
▁తీసుకెళ్ల	-9.79179
▁ప్రశ్నలు	-9.792
▁మంత్రిగా	-9.79216
▁నిర్మాత	-9.79222
▁అత్యధికంగా	-9.7924
▁గడ్డం	-9.79255
▁దా	-9.79307
▁అందజేశారు	-9.7942
▁కామెంట్	-9.7948
h	-9.79516
▁కారులో	-9.79586
▁నే	-9.79623
▁అభ్యర్థులను	-9.79632
▁కం	-9.79667
▁ష	-9.79689
బుల్	-9.79706
▁కసరత్తు	-9.79709
▁జపాన్	-9.79709
▁కొత్తగూడెం	-9.79853
▁పె	-9.79872
▁గురు	-9.7994
▁ఫ్రీ	-9.80013
▁తొమ్మిది	-9.8002
▁ఆస్తి	-9.80045
ందన్నారు	-9.8005
▁బాడీ	-9.8007
▁జమ	-9.80074
▁విడత	-9.80079
▁మన్	-9.80093
▁గిరిజన	-9.801
▁వీరికి	-9.80194
▁హైకోర్టులో	-9.80207
▁వ్యాపార	-9.80233
▁గ్రామాల	-9.80277
▁విటమిన్	-9.80295
▁బాలకృష్ణ	-9.80302
▁బ్రాండ్	-9.80354
హెచ్	-9.80387
▁మించి	-9.80413
▁నాయకుల	-9.80452
మన్	-9.80466
▁గుర్తించ	-9.8052
▁ప్రైవేటు	-9.80594
▁తనపై	-9.80635
▁సభకు	-9.80667
▁అడుగుల	-9.80723
ూర్	-9.80762
▁ట్రాక్	-9.80793
▁చనిపోయిన	-9.80865
▁ఎద్దేవా	-9.80891
▁లిమిటెడ్	-9.80891
▁వాహనాలు	-9.80916
▁అయోధ్య	-9.80928
▁నిబంధనల	-9.80989
▁న్యూజిలాండ్	-9.81209
▁చా	-9.81242
▁నిందితుడి	-9.81257
టే	-9.8126
▁ఏండ్ల	-9.8126
▁బాల్	-9.81332
▁కన్నడ	-9.81341
▁దేశానికి	-9.81376
▁రోజా	-9.81383
▁ప్లేయర్	-9.81392
చు	-9.81422
▁ఫలితం	-9.81431
ರ್	-9.81437
▁బరిలో	-9.8147
▁పెరిగే	-9.81488
▁పే	-9.81495
▁తొలు	-9.81506
▁తెలంగాణకు	-9.81515
▁పట్టు	-9.81527
▁నిర్వహించే	-9.81531
▁ఔట్	-9.81558
▁బు	-9.8174
▁కోర్టుకు	-9.81741
▁తీసిన	-9.81782
▁పేరిట	-9.81786
▁ఉత్తరప్రదేశ్	-9.81787
▁చేయించ	-9.81804
▁T	-9.81818
▁గు	-9.81821
▁పడిన	-9.81849
▁చూస్తున్న	-9.81871
▁అయినప్పటికీ	-9.81871
▁నాయకత్వం	-9.81874
▁ఆసక్తికర	-9.81875
▁వీటిలో	-9.81942
▁జిల్లాకు	-9.81984
▁లైంగిక	-9.82011
▁లడ్డూ	-9.82086
▁విక్రమార్క	-9.82086
▁క్రియేట్	-9.82087
▁బిల్డింగ్	-9.82088
జె	-9.82145
▁లక్ష్మీ	-9.82202
▁స్పష్టంగా	-9.8221
▁کہ	-9.82302
స్వామి	-9.8234
▁టాటా	-9.82393
▁చేరుకుని	-9.82403
▁విన	-9.82403
▁ఉండడం	-9.82411
▁పథకాల	-9.82421
▁విష	-9.82422
r	-9.82433
▁చదువు	-9.82455
▁చెప్పాలి	-9.82484
▁వ్యవహారం	-9.82504
ج	-9.82508
▁అతనికి	-9.82591
▁ఆసుపత్రిలో	-9.82615
▁కేటాయించ	-9.82641
▁జయ	-9.82654
▁అడిషనల్	-9.8269
▁చేసుకోవాలని	-9.82708
▁లక్ష్యం	-9.82714
▁వికెట్ల	-9.82732
కులు	-9.8275
▁కోటి	-9.82821
కూడదని	-9.82839
▁కోట	-9.82864
▁ఆలయం	-9.82891
ుండగా	-9.82898
సారి	-9.829
▁م	-9.82933
▁ఉండడంతో	-9.8295
▁లైఫ్	-9.83005
▁డౌన్	-9.83015
▁కల్పించ	-9.83033
▁B	-9.83076
▁పాప	-9.83218
▁సీఎస్	-9.83272
▁లెక్క	-9.83296
▁నకిలీ	-9.83297
▁చేసుకోవాలి	-9.83315
▁అవుట్	-9.83336
▁మరణించారు	-9.83341
న్ని	-9.83376
▁అభివృద్ధికి	-9.83396
▁ఓటింగ్	-9.83414
కార	-9.83457
▁తీసుకుంటున్న	-9.83512
▁అవుతున్నారు	-9.8357
ళ్ళ	-9.83572
▁సంగారెడ్డి	-9.83604
▁తెలియదు	-9.83621
▁అశోక్	-9.83623
I	-9.83748
▁రాజ్యసభ	-9.83765
▁ఆగ	-9.83802
an	-9.83852
▁అక్కడికి	-9.83859
▁తదుపరి	-9.83907
▁మెరుగైన	-9.83909
▁యూనియన్	-9.8391
▁స్కీమ్	-9.83934
ି	-9.83939
సర్	-9.83973
n	-9.83975
▁నిమిషాల	-9.83992
▁గంటలు	-9.84029
▁టాపిక్	-9.84214
▁జరిగితే	-9.84225
▁లి	-9.84237
▁భూమిని	-9.8426
▁విభాగం	-9.84354
▁అవుతుందని	-9.84363
ెంట్	-9.8437
▁నగర	-9.84403
▁బారిన	-9.84413
▁నె	-9.84451
▁ఉష్ణోగ్రతలు	-9.84452
▁మంచు	-9.84525
▁వైఎస్సార్	-9.84527
▁జైలులో	-9.84622
▁ర్యాలీ	-9.84646
▁ఒకసారి	-9.84662
▁రాగానే	-9.8467
▁భోజనం	-9.84699
▁రే	-9.84733
▁యూట్యూబ్	-9.8483
▁సరిగ్గా	-9.84831
▁మ్యూజిక్	-9.84843
▁అభిప్రాయపడ్డారు	-9.84845
▁చంద్రబాబును	-9.84875
▁ఎక్క	-9.85003
▁చూపించ	-9.85014
▁మనసు	-9.85016
▁వచ్చినా	-9.85069
▁డిజైన్	-9.8514
▁నెల్లూరు	-9.8514
▁పక్క	-9.85141
▁స్కామ్	-9.85155
▁ధాన్యం	-9.85159
l	-9.8516
▁పలికారు	-9.85179
▁చేస్తారని	-9.85183
▁రాజకీయం	-9.8519
▁డిగ్రీ	-9.8522
▁ఆప	-9.85355
▁కీలకంగా	-9.85371
50	-9.85381
▁బయటపడ	-9.85435
▁మనిషి	-9.85442
▁మరికొందరు	-9.85452
▁నిఘా	-9.85472
▁మంత్రిత్వ	-9.85496
ت	-9.85501
▁జీవిత	-9.85528
▁ఉండేలా	-9.85541
▁75	-9.85617
▁నిర్మాణానికి	-9.85633
▁చోటుచేసుకుంది	-9.85762
▁చెబుతోంది	-9.85768
▁పాత్రలో	-9.85827
▁బాలిక	-9.8587
▁మార్గం	-9.85877
12	-9.85986
▁కొట్టి	-9.86016
▁లేకపోవడం	-9.86018
▁ఊహించని	-9.86019
ar	-9.8603
▁పుట్టిన	-9.86068
▁రిజర్వ్	-9.86075
▁పెట్రోల్	-9.86079
▁శుభాకాంక్షలు	-9.86082
▁సౌత్	-9.86082
▁వేస్తున్నారు	-9.86186
▁కారణాలు	-9.86197
▁గ్రామీణ	-9.86259
▁వెలుగులోకి	-9.86272
▁లీ	-9.86289
▁ఆస్పత్రికి	-9.86296
ుతున్నారు	-9.86301
ن	-9.86311
▁మొదలైన	-9.86322
రై	-9.86349
▁స్వ	-9.8637
▁ویڈیو	-9.86388
▁ఖర్గే	-9.86388
▁వాట్సాప్	-9.86388
▁ప్రకటించ	-9.86416
ార	-9.86441
▁వారితో	-9.86552
▁సంబంధాలు	-9.86576
▁పెట్టుబడులు	-9.86608
▁నిర్వహించనున్న	-9.86626
త్ర	-9.8663
▁నాన్	-9.8669
▁ఎప్పటికప్పుడ	-9.86706
▁తీశారు	-9.86713
▁బాధితులు	-9.8672
▁ఎంటర్	-9.86739
▁గురైన	-9.86756
ందరికీ	-9.86759
▁వీర	-9.86782
▁సహాయ	-9.86846
ుతున్నాయి	-9.86861
▁ఆరా	-9.86876
र	-9.86974
▁గ్రేటర్	-9.87021
▁మహబూబాబాద్	-9.87028
వద్దని	-9.87061
▁పాల్గొన	-9.87094
ిత	-9.87117
▁బార్	-9.87233
లేరు	-9.87255
▁అడుగులు	-9.87267
▁ఎండ	-9.87302
▁బలం	-9.87304
▁మణిపూర్	-9.87338
▁పండగ	-9.87353
▁వేచి	-9.87363
▁ప్రారంభించిన	-9.87412
▁ప్రాంతానికి	-9.87428
ాన	-9.87435
▁యాజమాన్యం	-9.87439
▁పాయింట్	-9.87497
▁దీక్ష	-9.87593
▁బ్రిటన్	-9.87653
▁సభ్యుడు	-9.87658
▁నువ్వు	-9.87697
▁నిర్మల్	-9.87707
▁ఫలితంగా	-9.87711
▁రాజ్యాంగ	-9.87744
▁తెలియని	-9.87804
ట్లే	-9.87818
▁తెలియ	-9.87828
▁ఆర్థికంగా	-9.87849
▁లింక్	-9.87974
▁లిస్ట్	-9.8799
▁బెస్ట్	-9.87992
▁ఉన్నట్టు	-9.88013
▁మాస్	-9.88025
▁వచ్చాక	-9.88028
▁చివరకు	-9.88102
▁చేస్తున్నామని	-9.88263
ుకోవాలని	-9.8828
▁గ్లోబల్	-9.8829
▁గానీ	-9.88296
▁కార్యక్రమాన్ని	-9.883
▁జుట్టు	-9.88305
▁తీర్మానం	-9.88345
▁జరిగి	-9.88382
▁అర	-9.88406
▁ప్రజల్లో	-9.88431
▁విమాన	-9.88556
▁టెక్	-9.88578
▁బీజేపీలో	-9.88596
▁కెనడా	-9.88597
శ్	-9.88605
▁నవీన్	-9.88622
▁జైలుకు	-9.88626
▁ఛాన్స్	-9.88632
డో	-9.8868
▁ఎకరాల్లో	-9.887
▁అప్పు	-9.88778
▁నిర్వహించి	-9.88782
▁చెబుతున్న	-9.88813
▁వో	-9.88858
▁కుటుంబాలకు	-9.8887
కపోవడం	-9.88905
సార్లు	-9.88933
▁ఐదుగురు	-9.8894
▁లభించింది	-9.88955
ವ	-9.88989
▁సిట్	-9.8901
▁కిలోల	-9.89032
▁యూనిట్	-9.89037
▁సిరిసిల్ల	-9.89043
▁పెట్టుకున్న	-9.8905
▁అంశాలు	-9.89114
▁అనారోగ్య	-9.89153
m	-9.89186
▁వలన	-9.89187
▁మార్	-9.89192
K	-9.89299
ٹ	-9.89354
ాలన్న	-9.89404
▁గౌరవ	-9.89409
▁విగ్రహం	-9.8943
O	-9.89451
▁అగ్ని	-9.89562
వై	-9.89576
▁కోరుతూ	-9.89598
▁నొప్పి	-9.89599
లేదన్నారు	-9.89694
స్తే	-9.89706
ాయన్నారు	-9.89737
▁తీవ్రమైన	-9.89839
▁ALSO	-9.89903
▁సోనియా	-9.89907
▁యువకుడు	-9.89907
ట్స్	-9.89921
▁సాంకేతిక	-9.89967
▁అనుమానం	-9.89972
▁వస్తాయని	-9.90021
పోయిన	-9.90041
▁అన్	-9.90083
▁అల	-9.90114
ిస్తుంది	-9.90161
▁టికెట్లు	-9.90182
▁వైసీపీకి	-9.90188
▁ایک	-9.90223
▁కెసిఆర్	-9.90229
▁వార్	-9.90388
▁ధర్నా	-9.90446
▁కట్	-9.90449
▁కానిస్టేబుల్	-9.90555
▁సునీల్	-9.90555
▁తెలుస్తుంది	-9.90558
▁వాటిలో	-9.90559
▁స్టోరీ	-9.9056
▁పెరిగి	-9.90567
▁ధ్వంసం	-9.90584
▁మహారాష్ట్రలో	-9.90589
18	-9.90617
.15	-9.90618
▁కాలనీ	-9.90625
▁సినిమాల్లో	-9.90639
▁కన్నా	-9.90665
▁ముప్పు	-9.90684
▁సదర	-9.90709
▁కేసును	-9.90722
▁సముద్ర	-9.90733
▁నిందితుల	-9.90765
▁వ్యక్తిని	-9.90832
▁ఇళ్లు	-9.90871
▁డెలివరీ	-9.90883
▁స్వాగతం	-9.90901
▁ఇదిలా	-9.90966
▁గఢ్	-9.90976
▁పాఠశాల	-9.90984
లూ	-9.91082
ందనే	-9.91141
▁రోడ్లు	-9.91161
▁అన్నది	-9.91167
▁యాంటీ	-9.91212
▁విభజన	-9.91212
▁సస్పెండ్	-9.91212
▁నెయ్యి	-9.91212
▁నిర్లక్ష్యం	-9.91228
▁టీజర్	-9.91252
▁కేంద్రాల	-9.91343
▁ఫలితాల	-9.91411
పె	-9.91442
▁ఆస్పత్రిలో	-9.91484
▁వేర్	-9.91526
▁పొడి	-9.9156
▁తనిఖీలు	-9.91567
▁పెరిగాయి	-9.91585
▁రూరల్	-9.9162
▁ప్లేస్	-9.91623
40	-9.91634
▁మరొక	-9.91667
పురం	-9.91674
ಿ	-9.91675
▁మూల	-9.91697
▁తినడం	-9.91702
▁కారణాల	-9.91778
▁భయం	-9.91799
ేశారు	-9.91803
▁మట్టి	-9.91806
▁పర్	-9.9181
ేషన్	-9.91823
▁సాధించ	-9.91826
లాంటి	-9.91857
▁READ	-9.91885
ండా	-9.91889
▁ఆనంద్	-9.91959
▁బీమా	-9.91982
▁ఉంటూ	-9.91982
b	-9.92034
▁తేదీల్లో	-9.92036
▁సొంతం	-9.92061
▁భాగం	-9.92112
జు	-9.9213
▁వీరిలో	-9.92139
▁డిగ్రీల	-9.92213
▁రాజీవ్	-9.92213
ب	-9.92225
▁దసరా	-9.92229
మూ	-9.92249
ికి	-9.92268
▁జట్టుకు	-9.9228
▁నేతలతో	-9.92312
▁మోడల్	-9.92312
వాళ్లు	-9.92399
▁ఎర్ర	-9.92432
▁బాస్	-9.92501
▁భద్రాద్రి	-9.92539
▁చంద్రశేఖర్	-9.92555
▁ఆధారాలు	-9.92611
H	-9.92663
▁వాటికి	-9.9276
నర్	-9.92783
▁ఆరోపణల	-9.9285
▁మారి	-9.92854
ಸ್	-9.92858
▁ఫ్యాక్టరీ	-9.92878
▁ఘన	-9.92894
▁48	-9.92897
▁భాస్కర్	-9.92904
▁చర్యల	-9.92932
▁కోరుతున్నారు	-9.92949
▁పడుతుంది	-9.93013
▁ఫలితాలను	-9.93035
▁స్కోరు	-9.93209
▁ఇంటెలిజెన్స్	-9.93209
▁పుట్ట	-9.9323
▁లభిస్తుంది	-9.9323
▁ఉప్పు	-9.93269
▁వేడుకలు	-9.93315
▁కీలకమైన	-9.93389
▁ఉందా	-9.93401
▁కుటుంబంలో	-9.93441
ನ	-9.93463
▁రంగం	-9.93479
ୁ	-9.93482
▁ఇంటర్నేషనల్	-9.93547
▁అతన్ని	-9.93548
▁నేపాల్	-9.93551
▁సూచించింది	-9.93564
ఫా	-9.93614
▁గేమ్	-9.93639
▁ఏజెన్సీ	-9.93649
▁ఎక్కడా	-9.93712
▁హిందీ	-9.93788
▁కెమెరా	-9.93802
▁తొలగించ	-9.93821
▁దాట	-9.93832
▁ఎంపీలు	-9.93837
▁నిందితులు	-9.93844
▁పరంగా	-9.93853
▁చైర్	-9.93881
▁కబ్జా	-9.93884
▁వాహన	-9.93891
▁రాయ్	-9.93957
▁తేల్చి	-9.93998
▁ప్రయాణ	-9.94022
▁పెరిగిన	-9.94067
▁సంపద	-9.94071
▁300	-9.94087
▁ప్రత్యక్ష	-9.94146
▁అహ్మద్	-9.94222
▁సత్తా	-9.94243
రియా	-9.94249
▁పిల్లలను	-9.94268
▁మేయర్	-9.94324
▁ఇండస్ట్రీ	-9.94355
-1	-9.94371
▁నేతలకు	-9.94395
▁విష్ణు	-9.94397
▁కారణమని	-9.94459
▁చేతులు	-9.9452
▁సురేష్	-9.94563
▁దక్షిణాఫ్రికా	-9.94564
▁సూచనలు	-9.94568
▁స్పందించిన	-9.94582
▁సమయానికి	-9.94585
▁లేకపోతే	-9.94645
▁సిద్దం	-9.94645
▁సంచారం	-9.9465
▁రంగ	-9.94671
ేశ్	-9.94687
▁ప్రాణాల	-9.94827
▁కొన	-9.94828
▁తేడా	-9.94847
▁ఏఐ	-9.94932
c	-9.94967
▁సీజ్	-9.94989
15	-9.95027
▁పదే	-9.95164
▁హామీలు	-9.95198
▁అదనంగా	-9.95247
ినా	-9.95256
▁సీపీఐ	-9.95265
▁అప్పుడే	-9.95277
▁2016	-9.95277
▁మామిడి	-9.95286
▁వచ్చినట్లు	-9.95317
▁లీక్	-9.95353
▁నెలలు	-9.95358
▁చెబుతున్నాయి	-9.95359
▁లాల్	-9.9536
గిరి	-9.95374
▁సరిహద్దు	-9.95501
▁వంట	-9.95502
వచ్చని	-9.95568
▁రివ్యూ	-9.9559
▁బిఆర్ఎస్	-9.95595
▁మిలియన్	-9.95634
స్తున్న	-9.9568
▁చర్చించ	-9.95868
▁టన్నుల	-9.95892
▁అత్యవసర	-9.95933
▁ప్రగతి	-9.95934
▁అవినాష్	-9.95935
▁పర్సన్	-9.95942
▁చేసుకోవడం	-9.95981
▁కనిపిస్తున్నాయి	-9.96015
ుత	-9.96074
▁నగరం	-9.96105
▁బ్యాటర్	-9.96182
▁తమను	-9.96259
▁ప్రీ	-9.9628
▁గమనార్హం	-9.96281
▁స్కోర్	-9.96281
▁బైడెన్	-9.96289
▁జాగ్రత్త	-9.96312
▁ఉచితంగా	-9.96461
▁జాతర	-9.96634
పే	-9.96644
▁పోరాడ	-9.96652
▁లుక్	-9.96665
▁నెటిజన్లు	-9.9672
▁అందించిన	-9.96722
▁33	-9.96745
కార్	-9.96917
▁వాళ్లకు	-9.96934
۔	-9.96956
లర్	-9.96971
▁వెల్	-9.97003
▁మార్గంలో	-9.97009
▁తప్పకుండా	-9.97078
.7	-9.97119
▁బయటికి	-9.97136
▁తెలిపిన	-9.97167
▁పొందుతున్న	-9.97169
▁అధ్యక్షుడిగా	-9.97175
▁సర్వ	-9.97275
▁ప్రాంత	-9.97294
▁కౌన్సిల్	-9.97326
▁జనగామ	-9.97326
▁వర్కింగ్	-9.97327
▁చిత్తూరు	-9.9733
▁సెకండ్	-9.97341
▁ఇంగ్లండ్	-9.9735
▁చౌదరి	-9.97362
నె	-9.97364
▁ధరణి	-9.97371
మర్	-9.97437
▁లోడ్	-9.97502
ుకుంటున్నారు	-9.97506
▁గంటల్లో	-9.97507
▁పరిస్థితుల	-9.97544
▁డ్	-9.97581
▁డిపార్ట్	-9.9767
▁సర్పంచ్	-9.97677
▁గెలిపించ	-9.97792
▁ఎండీ	-9.97821
▁భవిష్యత్తు	-9.97895
▁భువనగిరి	-9.98029
▁సూచిస్తున్నారు	-9.98042
▁సాగుతోంది	-9.98045
▁సోదాలు	-9.98055
▁P	-9.98117
▁పేదలకు	-9.98146
రణ	-9.98179
▁నది	-9.98226
ార్	-9.98319
▁తగ్గి	-9.98339
▁రవీంద్ర	-9.98382
▁అంతేకాకుండా	-9.98385
▁పెట్టుకుని	-9.98413
▁కంపెనీల	-9.98507
ంక	-9.98559
▁ముందుగానే	-9.98559
్య	-9.98615
▁ఘటనలు	-9.98619
▁కాలంగా	-9.98693
▁దళిత	-9.98701
▁రన్	-9.98724
▁సాఫ్ట్	-9.98737
▁ఇందుకోసం	-9.98739
▁హి	-9.98748
▁కతా	-9.988
▁అప్పులు	-9.98817
▁అనుభవం	-9.98822
▁సూర్యాపేట	-9.98845
▁కోల్పోయిన	-9.98848
▁ఇండ్ల	-9.98855
బ్బ	-9.98861
▁జట్ల	-9.98889
▁అన్యాయం	-9.98933
▁పనులకు	-9.98969
డెన్	-9.98977
▁ఉత్తమ	-9.99027
▁శరీరం	-9.99116
▁గ్యాంగ్	-9.9913
▁ఎదుట	-9.9916
▁ఆదేశాల	-9.99166
▁یہ	-9.99182
▁ఓటర్ల	-9.99295
▁స్టాక్	-9.9932
▁డం	-9.99366
▁కావ	-9.99374
▁సీతక్క	-9.99453
▁ఆసీస్	-9.99454
▁చేసుకో	-9.99529
▁పదవికి	-9.99547
▁అగ్ర	-9.99563
▁జట్లు	-9.99593
▁కాల్పులు	-9.99611
▁వర్షాల	-9.99647
▁సమయంలోనే	-9.99705
▁నిరాశ	-9.99723
▁ఏసీ	-9.99733
ంపు	-9.99803
▁యజమాని	-9.99809
▁స్పేస్	-9.99809
▁విశాఖపట్నం	-9.99822
▁చక్కెర	-9.99822
▁ణ	-9.99861
▁సమాచారాన్ని	-9.99866
▁కోరింది	-9.99894
▁ఆది	-9.99897
▁ప్రభావితం	-9.99936
▁ప్రతినిధులు	-9.99954
▁ఢిల్లీకి	-9.99963
▁ఆడిన	-10.0005
▁స్టేడియంలో	-10.0006
al	-10.0016
▁హాస్టల్	-10.0017
▁ఏమిటి	-10.0018
▁కొంతకాలం	-10.0019
▁కనిపించడం	-10.0021
.8	-10.0022
▁పెన్షన్	-10.0022
-3	-10.0034
▁పార్టీలకు	-10.0042
▁కూ	-10.0047
ించడం	-10.0048
▁అందించే	-10.0052
▁బాధితుల	-10.0053
▁D	-10.0056
▁లెక్కలు	-10.0057
▁భద్రాచలం	-10.0057
▁టెన్షన్	-10.0062
▁బాంబు	-10.0063
▁పోరు	-10.0069
▁అప్రమత్తంగా	-10.0072
▁32	-10.0077
▁వ్యాపారం	-10.0089
▁కౌంటింగ్	-10.0092
▁మొత్తంలో	-10.0097
▁జైల్లో	-10.0098
▁ప్రవేశ	-10.01
on	-10.0121
▁సరిగా	-10.0123
▁పాటించ	-10.0124
▁ఎవరికీ	-10.0131
ెన్	-10.0132
▁జరుగుతుందని	-10.0132
▁చేస్తుందని	-10.0133
ేసింది	-10.0137
▁ప్రకటనలో	-10.0142
▁ప్రభుత్వాలు	-10.0145
లై	-10.0149
k	-10.0152
▁గురయ్యారు	-10.0163
▁రిజిస్ట్రేషన్	-10.0164
▁کر	-10.0166
▁మేనేజర్	-10.0168
▁మున్సిపాలిటీ	-10.0169
ుంటే	-10.0175
కొండ	-10.0177
రామ	-10.0179
▁నిజంగా	-10.0182
▁ప్రముఖులు	-10.0184
▁స్థానాలకు	-10.019
▁పొలిటికల్	-10.0199
▁రేంజ్	-10.0199
▁సమగ్ర	-10.02
▁నిల్వ	-10.0202
-2	-10.0203
ఫీ	-10.0208
▁రిజర్వేషన్	-10.0209
▁ఎలక్షన్	-10.021
లక్షల	-10.0213
▁లక్షణాలు	-10.0227
▁లోపల	-10.0227
య్యారు	-10.0238
▁యూఎస్	-10.0241
▁ఒడిశా	-10.0241
▁వైద్యం	-10.0243
ారట	-10.0244
▁ఏమైనా	-10.0247
▁తీయ	-10.0249
▁అక్క	-10.0262
11	-10.0264
▁లేవని	-10.0267
▁گیا	-10.0272
▁ఐఏఎస్	-10.0273
▁పడ్డారు	-10.0278
▁సీన్	-10.0278
▁ఆయిల్	-10.0281
▁చే	-10.0287
ల్స్	-10.0295
ందరూ	-10.0301
▁రాజశేఖర్	-10.0311
▁రాశుల	-10.0311
▁కలిశారు	-10.0311
▁వీసా	-10.0313
పెట్ట	-10.0334
F	-10.0336
▁చాలు	-10.0338
▁వెంకట	-10.0338
▁పనిచేసిన	-10.0346
▁వంశీ	-10.0348
▁ಅ	-10.0352
స్తోంది	-10.0353
ాము	-10.0362
▁చరిత్రలో	-10.0367
▁దారుణంగా	-10.0368
▁తు	-10.037
▁తోపాటు	-10.0373
▁ప్రభుత్వంపై	-10.0375
▁విషయాలను	-10.0377
▁రైజర్స్	-10.0384
▁బతుకమ్మ	-10.0384
▁చోరీ	-10.0385
▁సినిమాతో	-10.0387
▁కలసి	-10.039
ी	-10.039
er	-10.039
▁టీచర్	-10.0407
▁ప్రా	-10.0409
▁సిటీలో	-10.0411
▁పీఎస్	-10.0412
▁హక్కుల	-10.0416
▁వారీగా	-10.0421
▁బ్యారేజీ	-10.0423
ెడ్	-10.0427
▁పరి	-10.0428
పైనా	-10.0431
▁పులి	-10.0434
▁సివిల్	-10.0434
▁ప్రయోజనాలు	-10.0436
▁పైకి	-10.0436
▁సలహా	-10.0447
▁అడిగి	-10.0453
▁జడ్జి	-10.0459
▁టేబుల్	-10.0459
▁దీపావళి	-10.0459
▁సాధ్యం	-10.0459
▁సందీప్	-10.0459
▁న్యాయమూర్తి	-10.0459
▁హింస	-10.046
▁మృతదేహాన్ని	-10.046
▁బీసీసీఐ	-10.0461
ొద్దు	-10.0467
▁గాయపడిన	-10.0469
▁వ్యవహారాల	-10.047
▁భూకంపం	-10.0476
▁తీసుకో	-10.048
బడ	-10.0481
,500	-10.0489
"."	-10.049
▁ముఖ్యం	-10.0495
▁అతడు	-10.0498
▁సమితి	-10.0499
▁ధర్మాసనం	-10.0499
▁యాక్ట్	-10.0499
▁చెత్త	-10.05
▁పొన్నం	-10.0501
▁గెలవ	-10.0502
▁42	-10.0503
▁నిబంధనలు	-10.0505
▁చేసినట్టు	-10.0505
▁కోరిక	-10.0507
▁అలవాటు	-10.0508
▁తుమ్మల	-10.0513
ృ	-10.0514
శా	-10.0516
▁చేప	-10.0518
▁మందు	-10.052
▁ఇతరుల	-10.0525
▁రాజమండ్రి	-10.0526
ణ్	-10.0529
వాడ	-10.0529
▁జరిపిన	-10.0529
▁చిరుత	-10.0534
▁బ్యూటీ	-10.0535
▁నష్ట	-10.0536
▁సమావేశానికి	-10.0541
▁టైంలో	-10.0543
▁దేవి	-10.0544
▁ఎదురుచూస్తున్న	-10.0545
▁తీసుకుంటే	-10.0545
▁ب	-10.0547
▁హో	-10.0551
▁ఇయర్	-10.0551
30	-10.0561
ించింది	-10.0568
▁చెయ్య	-10.057
▁సొసైటీ	-10.0573
▁జయంతి	-10.0573
▁కల్తీ	-10.0573
▁విషయానిక	-10.0574
▁స్పోర్ట్స్	-10.0575
▁నెలకు	-10.0575
▁తరహాలో	-10.0575
ఉ	-10.0577
▁లోపు	-10.0578
▁వృద్ధి	-10.0579
▁పెట్టే	-10.058
▁నియోజక	-10.0582
▁రాక	-10.0587
▁:	-10.0595
▁దానం	-10.06
▁ఖాతాలో	-10.0601
తారు	-10.0606
▁చిన్నారి	-10.0609
▁బీహార్	-10.0612
▁మెసేజ్	-10.0613
▁2017	-10.0614
▁జేడీఎస్	-10.0615
▁అంశాలను	-10.0616
▁విశ్వ	-10.0616
▁వదిలి	-10.0617
▁స్ప	-10.0621
శాఖ	-10.0621
▁కేంద్రానికి	-10.0625
▁వెయ్యి	-10.0627
▁దర్శకత్వంలో	-10.0631
▁రైళ్లు	-10.0634
▁కథనం	-10.0642
▁పెంపు	-10.0651
▁జనతా	-10.0651
▁చూడాలని	-10.0655
▁రానుంది	-10.0657
▁సంక్షేమం	-10.0657
▁ప్రాధాన్యం	-10.0659
▁టాస్	-10.0661
▁భవనం	-10.0662
లింగ్	-10.0667
▁వెళ్లేందుకు	-10.0669
▁150	-10.0677
▁దిల్లీ	-10.0678
▁చేసుకున్నాడు	-10.068
▁రాజా	-10.0681
▁క్రిమినల్	-10.0688
▁లక్నో	-10.0688
▁కాకినాడ	-10.069
▁ఆత్మ	-10.0691
▁మారుతోంది	-10.0691
▁అండర్	-10.0692
▁నిలిచారు	-10.0693
▁పంపించ	-10.0694
▁పరిశోధన	-10.0695
▁కేటాయింపు	-10.0696
▁తరలి	-10.0698
▁ఏరియా	-10.07
▁నియమించ	-10.0718
▁రిపోర్టు	-10.0718
▁ఎన్డీఏ	-10.0719
▁పరీక్షల	-10.072
▁హు	-10.0724
▁ఇచ్చ	-10.0726
▁దోపిడీ	-10.0726
▁సార్వత్రిక	-10.0726
▁అరుదైన	-10.0726
▁వినోద్	-10.0732
▁నిర్వహించాలని	-10.0733
▁వస్తున్నారు	-10.0733
▁ధర్మ	-10.0734
▁సైన్యం	-10.0735
▁క్లాస్	-10.0738
య్యాయి	-10.0741
▁వయస్సు	-10.0742
▁బస్సులు	-10.0744
నున్నాయి	-10.075
▁చెందారు	-10.0753
▁మధు	-10.0753
▁లాభం	-10.0754
▁ఇస్తున్నారు	-10.0757
▁కుక్క	-10.0757
▁రాష్ట్రాలకు	-10.0758
▁ధ	-10.0759
▁జ్యోతి	-10.0764
ానికే	-10.0767
▁రౌండ్	-10.0769
పోయే	-10.0773
▁నాగర్	-10.0781
▁తెల్లవారుజామున	-10.0784
د	-10.0784
▁N	-10.0785
ందుకే	-10.0791
ుకుంట	-10.0793
▁నిలిచిన	-10.0795
వె	-10.0801
▁చాట్	-10.0803
▁కంటెంట్	-10.0804
▁ఆరోగ్యానికి	-10.0808
▁కష్టం	-10.081
▁పు	-10.0811
▁నిర్ణయించ	-10.0811
▁లోకేశ్	-10.0813
ండు	-10.0813
▁వందే	-10.0817
▁తగ్గింది	-10.0818
▁చూసే	-10.0818
▁వాన	-10.0819
▁మేనిఫెస్టో	-10.0823
ైంది	-10.0832
U	-10.0835
▁విన్న	-10.0838
▁ప్రయాణికుల	-10.0843
▁G	-10.0848
నేది	-10.0851
▁సంఘాలు	-10.0856
▁పేట	-10.0856
▁స్టేడియం	-10.0857
ధా	-10.0866
▁తెల్ల	-10.0871
▁సాధించి	-10.0871
▁అంగీకరించ	-10.0875
▁వ్యాఖ్యలపై	-10.0875
▁కిందట	-10.0875
▁గాయాలు	-10.088
జం	-10.0881
▁గాజా	-10.0883
▁ఒకేసారి	-10.0884
▁మాల్	-10.0884
▁భారతదేశం	-10.0885
▁ఫేస్	-10.0892
▁ఇవే	-10.0892
▁వేటు	-10.0896
▁ఫీజు	-10.0903
▁చిక్క	-10.0903
▁చర్చించారు	-10.0907
ేశ్వర	-10.0908
▁కొండా	-10.0909
▁తిప్ప	-10.0911
am	-10.0916
త్వం	-10.0916
▁మహ్మద్	-10.0921
▁లీకేజీ	-10.0921
▁బలోపేతం	-10.0924
▁విధించింది	-10.0924
▁పనిచేశారు	-10.0926
▁ఉద్యమ	-10.0928
▁ఆయన్ను	-10.0928
▁ఎత్తు	-10.0935
టన్	-10.0935
▁వ్యాపారులు	-10.0937
▁చేయాల్సిన	-10.0938
▁జీవన్	-10.0938
▁సమంత	-10.0939
▁చెబుత	-10.094
▁వాహనాల	-10.0943
▁గట్టిగా	-10.0947
▁పెట్టడం	-10.0948
▁ప్రతికూల	-10.0961
▁పట్టించుకోవడం	-10.0962
▁సమస్యను	-10.0963
ండ్	-10.0963
▁చనిపోయారు	-10.0964
▁విడుదలైన	-10.0966
▁ఇచ్చాడు	-10.0969
یا	-10.0969
గూడ	-10.097
▁సీఎంగా	-10.0974
▁టెస్టు	-10.0975
▁చెప్తున్నారు	-10.0975
▁బంధు	-10.098
ేనని	-10.0983
ఘ	-10.0992
ుకుంటున్న	-10.0993
▁నాగార్జున	-10.1001
▁తరచూ	-10.1001
▁మోస్తరు	-10.1001
▁చేసుకొని	-10.1001
డని	-10.1004
▁వినియోగించ	-10.1005
▁నౌక	-10.1007
▁వర్గానికి	-10.1009
▁బ్రిడ్జి	-10.1017
▁కనిపించ	-10.102
ిస్తోంది	-10.1023
▁ప్రతిపక్షాల	-10.1028
యాన్	-10.1038
▁కప్పు	-10.104
▁కర్నూలు	-10.104
▁మండలి	-10.1041
▁నాన్న	-10.1042
▁అంబటి	-10.1042
▁ఫాస్ట్	-10.1045
▁పరిస్థితిని	-10.1045
▁వ్యవస్థను	-10.1048
▁న్యాయస్థానం	-10.1049
▁కష్టాలు	-10.1052
▁34	-10.1054
▁ఆసుపత్రి	-10.1059
కాల	-10.107
▁సంప్రదించ	-10.1071
▁ఎన్నికలలో	-10.1071
ూరి	-10.1072
▁నెరవేర్చ	-10.1077
▁అర్బన్	-10.1081
▁పెద్దలు	-10.1085
▁చేస్తాయి	-10.1089
▁పార్ట్	-10.1091
▁ఒక్కరి	-10.1092
సో	-10.1096
▁అధ్యక్షులు	-10.1097
▁సమాజంలో	-10.1098
▁తానే	-10.1099
▁గట్టి	-10.1099
▁నేతలను	-10.1101
▁36	-10.1101
ోన్న	-10.1102
▁కేంద్రంగా	-10.1103
▁దిగి	-10.1103
▁లారీ	-10.1103
స్తున్నారు	-10.1106
ల్డ్	-10.111
▁చేస్తున్నాడు	-10.1111
▁మిస్	-10.1113
▁నియోజకవర్గాల	-10.1119
▁అర్ధరాత్రి	-10.1121
▁హనుమాన్	-10.1124
మన	-10.1124
▁భాష	-10.1133
▁సహకారం	-10.1134
▁చేయలేదని	-10.1136
▁పరిశ్రమ	-10.1139
▁శాస్త్రవేత్తలు	-10.1139
90	-10.1141
▁చాట	-10.1142
▁పరిణామాలు	-10.1145
▁హామీలను	-10.1145
▁సంపాదించ	-10.1148
▁సినిమాల	-10.1151
▁స్త్రీ	-10.1153
▁థియేటర్	-10.1155
▁విపరీత	-10.1156
మీద	-10.116
▁ఎన్డీయే	-10.1161
▁క్రెడిట్	-10.1161
▁హనుమకొండ	-10.1161
▁జీహెచ్ఎంసీ	-10.1161
▁పేలుడు	-10.1161
▁అజయ్	-10.1161
ారం	-10.1166
ెం	-10.1167
▁కేసుల్లో	-10.1172
ిస్తారు	-10.1173
▁టూర్	-10.1174
▁యువకులు	-10.1174
▁నిషేధం	-10.1175
▁బిలియన్	-10.1176
▁జియో	-10.1177
▁క్ష	-10.1178
య్యే	-10.1182
▁దాకా	-10.1184
▁చూస్తున్నారు	-10.1188
జన	-10.1193
▁రోడ్డుపై	-10.1195
▁ఖచ్చితంగా	-10.1201
▁సపోర్ట్	-10.1202
ಲ	-10.1203
▁జూ	-10.1206
▁ప్రభావంతో	-10.1207
▁చేపట్టాలని	-10.1208
▁స్థలం	-10.1211
▁గొంతు	-10.1214
▁అను	-10.1216
▁తీసుకు	-10.1223
▁మహ	-10.1227
▁తెలుసుకున్నారు	-10.1231
▁సోదరుడు	-10.1242
▁మనోజ్	-10.1243
వర	-10.1244
▁పర్యావరణ	-10.1256
▁ఒంటరిగా	-10.1257
▁స్టూడెంట్స్	-10.1258
▁వస్తువులు	-10.1258
▁చర్య	-10.1263
వం	-10.1274
▁లాభాలు	-10.1274
▁స్టార్ట్	-10.1275
▁వేలాది	-10.1282
▁లండన్	-10.1283
▁రాజేందర్	-10.1283
▁బంద్	-10.1284
▁విక్రమ్	-10.1287
▁మేనేజ్	-10.1288
▁నిజానికి	-10.1289
▁వీలు	-10.1292
▁ఇచ్చేందుకు	-10.1294
▁ఏపీకి	-10.1295
▁డీజీపీ	-10.1295
▁వ్యతిరేకత	-10.1301
▁వ్యవహరిస్తున్న	-10.1307
▁వార్డు	-10.1322
▁ఎలక్ట్రిక్	-10.1324
▁ప్రజాప్రతినిధుల	-10.1324
▁బుమ్రా	-10.1324
▁డ్రా	-10.1328
▁కంటి	-10.1329
▁వృత్తి	-10.1332
▁ప్రాణ	-10.1351
23	-10.1355
▁ఆస్తుల	-10.1363
▁రెగ్యులర్	-10.1366
▁ముగిసింది	-10.1366
ుకోవాలి	-10.1367
▁ఫిల్మ్	-10.1368
▁మొత్తాన్ని	-10.1369
▁సగం	-10.1372
▁ఆస్తులు	-10.1374
▁శంకుస్థాపన	-10.1376
▁తగ్గించ	-10.1382
▁వినియోగదారుల	-10.1388
వని	-10.1392
▁అసంతృప్తి	-10.1393
▁యోగం	-10.1395
▁కొరియా	-10.1396
▁విజేత	-10.1399
శ్రీ	-10.1402
80	-10.1406
▁క్రైమ్	-10.1406
▁స్టీల్	-10.1406
24	-10.1409
▁పండితులు	-10.141
▁ఇండియాలో	-10.1414
▁తీర్చ	-10.1415
చా	-10.142
▁గృహ	-10.1421
▁బయలుదేరి	-10.1421
▁టోర్నీ	-10.1422
▁చిత్రాన్ని	-10.1426
▁శా	-10.1427
▁స్థాయికి	-10.1431
▁వ్యవసాయం	-10.1435
బె	-10.1436
▁నెస్	-10.1436
ాడ	-10.144
ନ	-10.1444
▁సిద్ధరామయ్య	-10.1448
▁నినాదాలు	-10.145
▁హరి	-10.1452
▁సినిమాపై	-10.1457
▁ఇచ్చారని	-10.1461
▁ప్రజాస్వామ్య	-10.1462
▁లైట్	-10.1464
▁ఏక	-10.1464
▁నాణ్యత	-10.1465
▁నచ్చ	-10.1468
28	-10.1486
▁ఉద్యమం	-10.1489
▁విస్తరణ	-10.149
▁సరికొత్త	-10.149
▁లక్ష్మణ్	-10.1494
▁నగరంలోని	-10.1497
ాల్సిందే	-10.1502
▁పనిలో	-10.1503
▁జే	-10.1508
ెల్	-10.1509
▁ఉత్తమ్	-10.151
▁జాబ్	-10.151
▁రక్షించ	-10.1511
▁ప్రాంతాలు	-10.1515
▁ఆలోచించ	-10.1527
▁అవకాశముందని	-10.1532
▁ఎస్టేట్	-10.1532
▁ఫిక్స్	-10.1533
▁ఎవరో	-10.1535
▁ఏది	-10.1536
▁కొరత	-10.1537
దం	-10.1541
▁యం	-10.1546
▁పదేళ్ల	-10.1555
▁ఆంక్షలు	-10.1557
▁నిర్మించారు	-10.156
▁నిందితులను	-10.156
▁కార్యకర్తల	-10.1561
▁ఫీచర్	-10.1561
▁పర్యటనలో	-10.1561
▁విభాగంలో	-10.1561
▁భూములను	-10.1562
▁చిత్రంలో	-10.1568
▁మేడ్చల్	-10.1573
▁కురుస్తాయని	-10.1579
▁తెలుసా	-10.1579
▁వెనక	-10.158
▁ఫోన్లు	-10.1584
▁దొంగ	-10.1585
▁చెబుతూ	-10.1589
▁భవిష్యత్తులో	-10.1592
ನ್ನು	-10.1593
కుంట	-10.1593
రోజు	-10.1595
▁శాసనసభ	-10.1603
మాత్రం	-10.1613
▁ఖాతా	-10.1613
▁మహేశ్	-10.1615
▁నాశనం	-10.1616
▁రకరకాల	-10.1616
▁మధ్యంతర	-10.1616
▁మౌలిక	-10.1616
▁ఘ	-10.1616
▁ముఠా	-10.1616
▁క్యా	-10.1617
▁పొందుతారు	-10.1619
యిన	-10.1622
▁వరదల	-10.163
▁ఘనత	-10.1635
▁గిరి	-10.1636
▁చెబుతారు	-10.1636
▁గౌరవం	-10.1639
ೀ	-10.1641
వినిపిస్తున్నాయి	-10.1641
▁డాలర్ల	-10.1643
▁విషాదం	-10.1645
▁సంగీతం	-10.1647
▁వేడుక	-10.1651
.20	-10.1652
▁సమస్యలపై	-10.1654
▁భూపాలపల్లి	-10.1658
▁మస్క్	-10.166
ుకుంటే	-10.166
▁యుక్రెయిన్	-10.1661
▁ఆప్షన్	-10.1665
▁ఓడించ	-10.1666
▁పెడితే	-10.1668
▁కావాలి	-10.167
▁రాష్ట్రాన్ని	-10.167
▁కావాల్సిన	-10.1676
▁ఆంధ్ర	-10.1676
▁చేరి	-10.1685
▁ముద్ర	-10.169
16	-10.1699
▁దగ్గరకు	-10.1699
▁ప్రత్యర్థి	-10.17
▁వికారాబాద్	-10.1702
▁అందించాలని	-10.1707
▁అయ్యాడు	-10.1711
▁శాఖల	-10.1711
ک	-10.1713
ోందని	-10.1713
▁భావించారు	-10.1716
▁క్	-10.1726
▁కింగ్స్	-10.1726
▁దినోత్సవం	-10.1727
డంలో	-10.1736
▁తెలిసిన	-10.1738
▁చూస్త	-10.1739
▁కింగ్	-10.1743
▁సిద్దరామయ్య	-10.1743
▁ವೈರಲ್	-10.1743
▁సచిన్	-10.1743
▁నిలదీశారు	-10.1744
▁బ్యానర్	-10.1744
ంటా	-10.1744
▁రుణ	-10.1745
▁మూసీ	-10.1745
▁నైట్	-10.1747
▁2009	-10.1748
▁సునీత	-10.1748
▁కర్నాటక	-10.175
▁ఆలస్యం	-10.1751
▁ప్రారంభించింది	-10.1754
▁రూట్	-10.1754
▁మొత్తంగా	-10.1755
కల	-10.1755
▁ఇవ్వలేదు	-10.1756
▁ఫిట్	-10.1757
▁కళ్ల	-10.1759
▁L	-10.1761
▁ముంబయి	-10.1764
▁కార్డ్	-10.1767
▁దాడిలో	-10.1767
▁చేస్తాం	-10.1767
శి	-10.1769
▁రూపొందించ	-10.1781
▁ఛత్తీస్	-10.1786
▁జరిమానా	-10.1786
▁పోలవరం	-10.1786
▁ఫోర్	-10.1788
▁పవార్	-10.1789
▁ఉద్దేశించి	-10.1791
▁కల్పించాలని	-10.1791
▁కళాశాల	-10.1791
▁పత్రాల	-10.1792
▁ప్రయోజనం	-10.1795
▁జీవితాన్ని	-10.1801
▁కొనసాగించ	-10.1801
▁సేవలను	-10.1802
▁సింగిల్	-10.1804
▁మరణం	-10.1815
▁బంధువులు	-10.1816
▁సైనిక	-10.1818
▁ఎమ్మెల్యేల	-10.1818
▁స్టా	-10.1823
చర్	-10.1825
▁కొంచెం	-10.1832
▁దేవస్థానం	-10.1832
▁ఫోటోలు	-10.1833
▁అమెరికన్	-10.1833
చ్చి	-10.1833
▁సంతోష్	-10.184
▁ఆరోగ్యంగా	-10.1841
▁సత్య	-10.1844
▁మొక్క	-10.1847
▁అంతరిక్ష	-10.1851
▁చేయాలనే	-10.1855
ందు	-10.186
▁బస్	-10.186
నాడు	-10.1862
▁యు	-10.1864
▁41	-10.1864
▁అభిప్రాయ	-10.1865
پ	-10.1865
▁తెలుగులో	-10.1869
▁ఏకాదశి	-10.1873
▁రీసెర్చ్	-10.1873
▁షుగర్	-10.1873
▁రూపాయి	-10.1882
ండే	-10.189
▁రాశిలో	-10.1891
▁హెచ్చరిక	-10.1893
▁విమానంలో	-10.1894
▁నిర్ణయించుకున్న	-10.1896
▁ఫోర్లు	-10.1903
▁అప్పగించ	-10.191
▁బౌలర్	-10.1915
▁హెలికాప్టర్	-10.1916
▁ట్రెండ్	-10.1916
▁ఆరుగురు	-10.1917
▁స్పందిస్తూ	-10.1917
▁శ్రద్ధ	-10.1919
▁బ్ర	-10.1926
▁ఒలింపిక్స్	-10.1927
▁సూచన	-10.1934
▁జల	-10.1937
▁చేయడంలో	-10.1938
గే	-10.1942
▁ప్రారంభ	-10.1945
▁లక్ష్మి	-10.1947
▁అంశాల	-10.1949
▁ఈవో	-10.195
▁R	-10.1955
▁జడేజా	-10.196
▁కంప్యూటర్	-10.196
▁రాకెట్	-10.1961
▁ఐసీసీ	-10.1965
▁సైన్స్	-10.1967
ంటున్న	-10.1973
పైనే	-10.1974
పతి	-10.1974
▁డిస్	-10.1975
▁దంపతులు	-10.1979
ంజ	-10.1979
v	-10.1981
▁సముద్రంలో	-10.1981
99	-10.1984
▁సోమ	-10.1987
▁స్వతంత్ర	-10.1996
▁ఉంటున్నారు	-10.1996
వడం	-10.2001
▁కర్నూల్	-10.2004
▁మల్లారెడ్డి	-10.2004
నట్లు	-10.2004
ద్ధ	-10.2004
▁పంటలు	-10.2005
▁ఉపయోగించి	-10.2006
▁భిన్నంగా	-10.2007
▁యూత్	-10.2008
▁లోతు	-10.2015
▁నిర్వహిస్తారు	-10.2016
▁వేయాలని	-10.202
పుడు	-10.202
▁వేసే	-10.2022
ర్ల	-10.2023
▁సేవా	-10.2029
▁హె	-10.2034
▁పడ్డ	-10.2038
స్తారు	-10.2038
▁ఫిర్యాదులు	-10.2042
▁బెంచ్	-10.2048
▁సామర్థ్యం	-10.2048
▁దండ	-10.2048
▁ఎగ్జిట్	-10.2048
▁అప్పుల	-10.205
▁వాల్	-10.2051
▁రైతులను	-10.2062
▁విచారణను	-10.2063
▁అరుణ్	-10.2063
▁సిస్టమ్	-10.2066
▁దాస్	-10.2071
▁ప్రత్యేకమైన	-10.2074
▁బీఐ	-10.2078
▁తీరుపై	-10.2085
▁అవ్వ	-10.209
▁సజ్జల	-10.209
▁గ్రాండ్	-10.2092
▁శ్రీకాంత్	-10.2093
▁పెరుగుతోంది	-10.2094
▁మెజార్టీ	-10.2096
▁బిల్లులు	-10.2097
▁నిర్ణయాన్ని	-10.2098
▁పేదల	-10.21
▁చట్ట	-10.2108
▁బిజీగా	-10.2109
▁వారంలో	-10.2114
▁V	-10.2119
▁చివరికి	-10.2126
▁ಮ	-10.213
▁పాల్గొని	-10.2131
▁పిలుపు	-10.2135
▁కీర్తి	-10.2136
▁అశ్విన్	-10.2136
ನ್	-10.2136
▁సురేఖ	-10.2136
▁ఎస్సై	-10.214
▁చేస్తామన్నారు	-10.2141
▁సహకరించ	-10.2144
▁అనుమతించ	-10.2147
▁ఆశలు	-10.2148
▁వారంతా	-10.215
▁గుర్తించిన	-10.2152
▁విమర్శల	-10.2158
▁ప్రారంభమైన	-10.216
▁పక్కనే	-10.216
▁స్థితిలో	-10.2163
ఫి	-10.2163
▁రూల్స్	-10.2167
▁స్వామివారి	-10.2168
▁బే	-10.2168
▁పరిణామాల	-10.2169
▁తరలించ	-10.217
టిక్	-10.2174
▁ఇకపై	-10.2177
చె	-10.2181
▁నింప	-10.2181
▁ఆసిఫాబాద్	-10.2181
▁వర్షపాతం	-10.2181
▁ఎక్సైజ్	-10.2181
▁సమ్మె	-10.2181
ుతోందని	-10.2181
మార్	-10.2183
▁తెలిపాడు	-10.2183
▁కొన్న	-10.2184
▁ا	-10.2185
▁అర్	-10.2194
▁ఆస్పత్రి	-10.2202
▁తీసుకెళ్లారు	-10.221
▁సూ	-10.2215
▁స్వల్ప	-10.2218
▁చేస్తా	-10.2218
▁వారే	-10.2223
▁నోటీసు	-10.2224
▁ఇంటర్నెట్	-10.2226
▁వార్నింగ్	-10.2226
▁క్యాంపు	-10.2226
ిందన్నారు	-10.2227
▁వరుణ్	-10.2228
▁రెండేళ్ల	-10.2229
▁విధానాన్ని	-10.223
▁రోడ్ల	-10.2231
▁ఉంటారని	-10.2232
▁మెజారిటీ	-10.2234
▁చేశాం	-10.2236
ల్ల	-10.2237
▁రాసి	-10.2238
▁ధన	-10.2238
▁లె	-10.224
ందున	-10.2241
▁ప్రపంచం	-10.2242
▁ఒక్కరూ	-10.2244
▁క్రమంగా	-10.2246
▁నిరుద్యోగ	-10.2254
▁నిధులను	-10.2259
▁వచ్చినప్పుడు	-10.2261
▁పరిశీలించి	-10.2262
▁మండలంలో	-10.2268
▁ఇంజినీరింగ్	-10.2271
▁ఎనర్జీ	-10.2271
▁సెర్చ్	-10.2272
ేది	-10.2273
▁ఐదో	-10.2273
▁పారిశ్రామిక	-10.2277
▁గెలిచారు	-10.2279
ొద్దని	-10.228
ుకుంటారు	-10.2281
▁55	-10.2284
▁వెళ్లడం	-10.2284
▁పైలట్	-10.2287
వాల్	-10.2288
▁పెట్టాలని	-10.2289
▁మృతుల	-10.2291
స్తా	-10.2299
▁బల	-10.2303
ట్టుగా	-10.2303
▁కాలి	-10.2308
ار	-10.231
▁నాగేశ్వరరావు	-10.2316
▁కీపర్	-10.2317
▁విధానాల	-10.2318
▁దేశాలకు	-10.232
▁వాహనం	-10.2328
▁కనీస	-10.2331
▁అనుకూల	-10.2332
▁వినియోగం	-10.2334
▁డెడ్	-10.2334
▁ఏర్పాట్ల	-10.2336
▁ఏడాదికి	-10.2341
▁త్రి	-10.2342
▁అభ్యర్థులకు	-10.2343
▁చెప్పినట్లు	-10.2351
▁పత్రాలు	-10.2358
▁రాష్ట్రాలు	-10.236
▁తెలిసి	-10.2361
▁విదేశాంగ	-10.2362
▁హెచ్చరికలు	-10.2362
▁బూత్	-10.2363
▁టికెట్ల	-10.2366
▁పరిమితం	-10.2366
▁ఆఫీసులో	-10.2366
▁మండలాల్లో	-10.2371
..!!	-10.2374
▁గి	-10.2375
▁సిలిండర్	-10.2377
▁వ్యూహం	-10.238
▁ఇస్తారు	-10.2382
▁తెలంగాణలోని	-10.2394
ాలతో	-10.2402
▁ఇంటర్వ్యూలో	-10.2403
▁చేత	-10.2406
▁లపై	-10.2406
▁కన్వీనర్	-10.2407
▁రిజర్వాయర్	-10.2407
▁రోల్	-10.2408
టంతో	-10.2409
▁టమాటా	-10.2409
▁పత్తి	-10.241
▁చేస్తోందని	-10.2415
▁శ్రేణులు	-10.2418
పోయి	-10.2421
▁గ్రామస్తులు	-10.2421
నల్	-10.2421
స్థాన	-10.2422
60	-10.2423
▁ప్రయత్నించ	-10.2429
▁చంద్రుడి	-10.2441
నాథ్	-10.245
25	-10.2459
▁క్లబ్	-10.2464
▁సరే	-10.2468
▁ప్రశంసలు	-10.247
▁క్వార్టర్	-10.2474
లోపు	-10.2475
▁బాధపడుతున్న	-10.2477
▁పోల్స్	-10.2478
తన	-10.2493
چ	-10.2497
▁అంబానీ	-10.2499
▁అందువల్ల	-10.25
▁టీపీసీసీ	-10.25
▁కాలేజ్	-10.25
▁ప్రారంభమైంది	-10.2501
ెన్స్	-10.2506
▁సందడి	-10.2507
▁శాతానికి	-10.2507
نے	-10.2508
▁బొ	-10.2509
వైపు	-10.2514
డె	-10.2516
▁ట్రైన్	-10.2522
▁బీజేపీతో	-10.2526
▁ನ	-10.2527
▁కేటాయించారు	-10.2528
f	-10.2531
14	-10.2533
▁రిజర్వేషన్లు	-10.2535
టె	-10.2536
▁తీర్పును	-10.2537
▁వాలంటీర్ల	-10.254
▁అనుమానాలు	-10.2542
▁వివేకా	-10.2544
▁పోయింది	-10.2545
▁పెరుగుదల	-10.2545
▁జమ్మూ	-10.2545
▁కమ్యూనిటీ	-10.2545
▁బొగ్గు	-10.2546
▁ధోనీ	-10.2546
ದಲ್ಲಿ	-10.2547
▁అభ్యంతరం	-10.2547
▁పదవులు	-10.2549
▁చూసేందుకు	-10.2551
▁మంద	-10.2555
▁చేపట్టింది	-10.2557
▁400	-10.2561
▁మొ	-10.2566
▁బాట	-10.2568
▁అయ్య	-10.2569
▁ఉష్ణోగ్రత	-10.2571
▁గుడి	-10.2574
▁భారం	-10.2574
▁రంగాల్లో	-10.2576
▁జరిగినట్లు	-10.2577
▁చేతుల	-10.258
▁క్ర	-10.258
▁మొదలుపెట్ట	-10.2582
▁తమిళనాడులో	-10.2586
▁ಕ	-10.2588
▁భారతదేశ	-10.2588
▁పొ	-10.259
▁అయ్యి	-10.259
▁క్యారెక్టర్	-10.2592
▁ప్రకృతి	-10.2592
▁మళ్ళీ	-10.2592
▁బంతి	-10.2592
▁వెళ్లింది	-10.2593
ాలో	-10.2593
▁ఉప్పల్	-10.2594
▁సిక్స్	-10.2595
▁వెస్ట్	-10.2597
తులు	-10.2603
▁కనిపించే	-10.2604
▁పేర్లను	-10.261
▁వాణిజ్య	-10.2612
▁సంచలనం	-10.2612
▁0	-10.2614
▁భాగంగానే	-10.2618
▁ఒకప్పుడు	-10.2627
▁సంతోషం	-10.263
▁బాధిత	-10.2635
▁రిజర్వేషన్ల	-10.2637
▁ప్రతిపక్షాలు	-10.2638
▁ఇరిగేషన్	-10.2639
▁ధన్యవాదాలు	-10.2639
▁సీఈవో	-10.2639
▁ఆదిత్య	-10.2645
▁చైతన్య	-10.265
▁తేజ్	-10.2651
▁నియంత్రణ	-10.2651
े	-10.2658
▁వారాల	-10.2658
దర్	-10.2661
ట్లుగా	-10.2661
▁వ్యాఖ్యల	-10.2661
▁విజయవంతంగా	-10.2666
న్నది	-10.2669
వార	-10.2673
▁రాణి	-10.2676
వాడు	-10.2682
▁కౌశిక్	-10.2686
▁ఛానెల్	-10.2686
▁శుభవార్త	-10.2686
▁అభిషేక్	-10.2688
▁గౌతమ్	-10.2689
గల్	-10.2691
▁కొద్దీ	-10.2693
▁బ్రహ్మ	-10.2693
▁గేట్	-10.2694
▁జరగకుండా	-10.2696
▁తీసుకున్నట్లు	-10.2697
▁గన్	-10.2699
▁ఖాయమని	-10.2702
ز	-10.2703
▁జట్టును	-10.2706
▁ఈటల	-10.2706
▁దరఖాస్తులు	-10.2706
▁తరహా	-10.2711
▁దించ	-10.2716
▁దింప	-10.2717
గర్	-10.2722
▁ఆమ్	-10.2723
▁ప్రయోజనాల	-10.2723
.25	-10.2723
▁44	-10.2724
▁వ్యక్తికి	-10.2728
▁రుచి	-10.2732
▁పొగ	-10.2732
▁కార్మిక	-10.2733
▁గెలిస్తే	-10.2733
▁సభ్యులతో	-10.2733
▁ఏఐసీసీ	-10.2734
▁విద్యాశాఖ	-10.2734
వల్	-10.2735
▁జగన్మోహన్	-10.2735
▁బాలుడి	-10.2736
▁స్టాగ్రామ్	-10.2736
▁ట్లు	-10.2737
▁ఏర్పాటుకు	-10.2738
▁ఆరోపిస్తున్నారు	-10.2738
▁పిలుస్తారు	-10.2739
▁విలీనం	-10.274
ତ	-10.2741
▁ఆనందం	-10.2743
▁చిట్	-10.2743
▁ఓటీటీ	-10.2746
▁రింగ్	-10.2747
▁విశ్వాసం	-10.2747
▁పరిశీలించ	-10.2748
ంగి	-10.2766
▁పర	-10.2767
▁వైట్	-10.2767
▁పూర్వ	-10.2772
▁వలస	-10.2774
▁బాద	-10.2774
▁సహజ	-10.2778
▁లోన్	-10.2778
▁లాంచ్	-10.278
▁వనపర్తి	-10.278
▁ప్లాస్టిక్	-10.278
▁విగ్రహాన్ని	-10.2786
▁సభ్యులకు	-10.2787
▁యంగ్	-10.2788
▁తేల్చ	-10.2789
▁ధైర్యం	-10.279
తున్న	-10.279
▁మొదటిసారి	-10.2795
ీకరణ	-10.2796
▁అనుచరుల	-10.28
▁పౌర	-10.2803
సై	-10.2807
▁గద్వాల	-10.2811
▁చూపించారు	-10.2811
▁చర్మం	-10.2812
▁ఓపెనర్	-10.2815
▁డాలర్లు	-10.2819
ిస్తామని	-10.2822
ع	-10.2827
▁తరుణంలో	-10.2828
బాబు	-10.2828
▁కేంద్రమంత్రి	-10.283
com	-10.2835
▁పోస్టుల	-10.2838
మంత	-10.2848
నన్న	-10.2852
▁వార	-10.2853
▁మెన్	-10.286
▁ఫొటోలు	-10.2867
21	-10.2868
కృష్ణ	-10.2871
▁మాన్	-10.2871
▁అమెజాన్	-10.2876
▁కార్యాచరణ	-10.2876
▁శంషాబాద్	-10.2876
▁సేఫ్టీ	-10.2877
▁తోట	-10.2879
70	-10.2887
▁నిర్వాహకులు	-10.2887
▁ప్రచారాన్ని	-10.2894
▁ఇవ్వాలి	-10.2895
▁కర	-10.2896
▁కొనసాగిస్తున్న	-10.2896
▁అందిస్తున్నారు	-10.2898
▁దే	-10.2898
▁కోటా	-10.291
▁తినే	-10.2912
లేకపోయ	-10.2913
▁పాయింట్ల	-10.2921
▁పర్యాటక	-10.2923
▁ట్యాపింగ్	-10.2924
▁రవీందర్	-10.2924
▁చేయడమే	-10.2925
▁హైవే	-10.2927
▁సురక్షితంగా	-10.2929
ବ	-10.2929
▁భావన	-10.2929
▁శరీరానికి	-10.2932
▁గోపాల్	-10.2933
▁విధించారు	-10.2939
▁కొనసాగుతున్నాయి	-10.2944
▁పనిచేయ	-10.2945
కంటే	-10.2945
▁ఏళ్లుగా	-10.2946
▁దేశాన్ని	-10.2956
▁మీట్	-10.2958
▁కలిసిన	-10.2958
ర్స్	-10.2959
▁ఐఆర్	-10.296
▁కేంద్రాల్లో	-10.2963
▁3,	-10.2963
▁జాబితాను	-10.2966
▁ఉద్యోగి	-10.2969
▁సృష్టించ	-10.2972
▁పురోగతి	-10.2972
▁తుపాను	-10.2972
▁ఆలస్యంగా	-10.2975
▁వేలకు	-10.2986
▁కష్ట	-10.2989
ులకు	-10.2991
▁చేయాలన్నారు	-10.2992
▁ఫి	-10.2993
▁X	-10.3
▁వర్గాల్లో	-10.3
▁పోటీలో	-10.3001
కాలం	-10.3005
▁యూపీ	-10.3007
▁ఉద్దేశంతో	-10.3011
▁గాయం	-10.3011
▁ಬ	-10.3012
▁విక్రయించ	-10.3015
▁మాట్లాడి	-10.3015
▁ప్రజల్లోకి	-10.302
▁ప్రాతినిధ్యం	-10.3021
▁తహసీల్దార్	-10.3021
▁మెగాస్టార్	-10.3021
▁క్యాడర్	-10.3021
▁పథకాన్ని	-10.3021
▁ఇంటర్వ్యూ	-10.3025
▁జీతం	-10.3025
▁వైఎస్ఆర్	-10.3031
▁సమర్పించ	-10.3034
▁నిరసనలు	-10.3039
▁చేస	-10.304
▁పోత	-10.3041
▁కౌన్సిలర్లు	-10.3042
▁K	-10.3043
▁సాయంతో	-10.3045
▁సెలవులు	-10.3045
▁అనిపించ	-10.3052
▁వీడ	-10.3053
లింగ	-10.3053
▁చేస్తున్నా	-10.3055
▁పండ్లు	-10.3059
▁నమోదయ్యాయి	-10.3069
▁ప్రాంతీయ	-10.307
▁కాశ్మీర్	-10.3071
రామ్	-10.3072
▁చేసుకుంటున్న	-10.3074
▁తింటే	-10.3079
▁ఆందోళనలు	-10.3086
▁ج	-10.3087
▁పరిస్థితులను	-10.3089
▁కస్టడీ	-10.3092
▁కార్డులు	-10.3094
▁చేసుకుంటున్నారు	-10.3094
▁అందిస్తున్న	-10.3099
▁కార్య	-10.3099
▁చెప్పారని	-10.3104
▁ప్రవేశపెట్ట	-10.3107
▁ముఖ	-10.3111
न	-10.3115
▁జడ్పీ	-10.3118
▁ఎంఐఎం	-10.3118
▁ఎంజాయ్	-10.3118
▁సంక్రాంతి	-10.3118
▁జోక్యం	-10.3119
▁అనంతపురం	-10.312
▁చెన్నూరు	-10.312
▁కట్టుబడి	-10.312
▁పోల్	-10.3123
29	-10.3123
▁రెండవ	-10.3125
▁మారుతున్న	-10.3126
▁ముంబైలో	-10.3126
▁సగటు	-10.3128
▁నేల	-10.3136
▁జు	-10.3138
▁ఇందిరా	-10.3139
▁జంతువుల	-10.314
ుకోవచ్చు	-10.3142
▁మెయిన్	-10.3146
▁పరిపాలన	-10.315
▁లాక్	-10.3166
▁నిమిత్తం	-10.3168
▁నెహ్రూ	-10.3168
▁బంగ్లా	-10.3168
▁వెస్టిండీస్	-10.3168
▁క్యాంప్	-10.3168
▁కొవ్వు	-10.3168
▁ఇస్త	-10.3168
▁వంశీకృష్ణ	-10.3168
▁ఇదంతా	-10.3169
▁అధిష్టానం	-10.3169
▁కొనసాగుతుంది	-10.317
▁దక్కింది	-10.3176
▁చెప్పడంతో	-10.318
▁సంస్కృతి	-10.3181
▁విదేశాల్లో	-10.3181
వరం	-10.3188
▁కొట్టిన	-10.3188
▁మాట్లాడే	-10.3191
▁ఇస్తూ	-10.3193
▁లవ్	-10.3195
బోతున్న	-10.3203
ందన్న	-10.3209
▁స్కాం	-10.321
▁కార్యకర్త	-10.3214
▁జిల్లాలకు	-10.3215
▁వర్గ	-10.3216
▁చార్జి	-10.3217
▁జార్ఖండ్	-10.3217
▁సల్మాన్	-10.3217
▁పంత్	-10.3217
▁కుమారస్వామి	-10.3217
▁ఎత్తి	-10.3219
▁గుర్తుచేశారు	-10.3219
or	-10.322
▁65	-10.322
▁కాల్స్	-10.3224
▁సన్న	-10.3225
▁ఇస్తుంది	-10.3229
▁సంగీత	-10.3233
▁అంతకు	-10.3237
▁ఘటనా	-10.3238
▁మ్యాన్	-10.3242
ان	-10.3244
ంచారు	-10.3248
▁మల్లన్న	-10.3249
వాళ్ల	-10.3255
▁లోపం	-10.326
13	-10.3262
▁ఐదేళ్ల	-10.3263
▁కార్పొరేట్	-10.3267
▁సంతకం	-10.3267
▁సహాయపడుతుంది	-10.3267
▁పట్టుకుని	-10.3269
▁రేపటి	-10.327
▁ఇవ్వకుండా	-10.3273
▁మందులు	-10.3274
▁సరి	-10.3277
27	-10.3278
▁బంగాళాఖాతంలో	-10.3286
▁కండువా	-10.3287
▁పిచ్	-10.3288
▁కాపు	-10.3292
▁పథకాలను	-10.3298
క్ర	-10.3299
నియా	-10.3301
మ్స్	-10.3302
ئی	-10.3303
▁టీడీపీకి	-10.3305
▁దిల్	-10.3309
▁వెల్లడి	-10.331
▁కన్న	-10.3311
▁మెదడు	-10.3312
▁నాంపల్లి	-10.3313
▁విపక్ష	-10.3315
▁చేసేలా	-10.3316
▁ఉపశమనం	-10.3317
▁దేవరకొండ	-10.3317
లైన	-10.3319
▁పల్లె	-10.3324
▁ک	-10.3329
▁బాధ్యతలను	-10.3329
▁ప్రస్తావించారు	-10.3329
▁రాజన్న	-10.3331
.9	-10.3331
▁రెండుసార్లు	-10.3333
▁ఫ్యాన్	-10.3344
ాపూర్	-10.3347
▁ఎంపీపీ	-10.3349
▁వేగంతో	-10.3349
▁నోటి	-10.335
en	-10.3358
▁రాం	-10.3367
▁కల్వకుంట్ల	-10.3367
▁స్పెక్టర్	-10.3367
▁క్లిక్	-10.3368
▁గెలిపించాలని	-10.3372
▁ఖాతాల్లో	-10.3376
▁ఒకరి	-10.3378
త్తు	-10.3379
▁గాయపడ్డారు	-10.338
▁బాధితులకు	-10.3382
▁38	-10.3382
ుడిని	-10.3382
▁అద్భుతంగా	-10.3387
▁కేటాయించిన	-10.3388
▁మారే	-10.3389
▁పత్రిక	-10.3393
▁నిపుణుల	-10.3396
ుండ	-10.3402
బోతున్నారు	-10.3406
▁పాము	-10.3413
▁కానున్న	-10.3417
▁మసీదు	-10.3418
▁కిడ్నీ	-10.3418
▁సందర్బంగా	-10.3418
▁హెచ్చరించింది	-10.3419
సిన	-10.3421
▁చలి	-10.3421
▁చేసుకోవడానికి	-10.3422
▁2015	-10.3423
▁దారుణ	-10.3424
▁రైస్	-10.343
▁ఉత్సవాల	-10.3431
▁స్థానాలను	-10.3432
▁*	-10.3434
▁సుప్రీంకోర్టులో	-10.3435
▁37	-10.3437
▁అత్యాచారం	-10.3438
17	-10.3438
▁ఫ్రెండ్	-10.3441
▁చేతికి	-10.3444
▁ఆయనపై	-10.3445
▁టోర్నీలో	-10.3449
▁వయసులో	-10.3457
▁ధరల	-10.3461
▁ఉంట	-10.3463
▁స్పందించ	-10.3464
ଣ	-10.3468
▁కిడ్నాప్	-10.3468
▁మేడిగడ్డ	-10.3468
▁డేవిడ్	-10.3468
▁డీసీపీ	-10.347
▁ప్రకాశం	-10.3471
▁2025	-10.3472
▁బెల్లంపల్లి	-10.3473
▁మారుతుంది	-10.3475
▁సేకరించ	-10.3492
ری	-10.3496
▁ఉద్రిక్తత	-10.3497
▁రక్త	-10.3504
▁అభిమానుల	-10.3506
58	-10.3516
వాన్	-10.3517
▁وائرل	-10.3519
▁గద్దర్	-10.3519
▁డీఎస్పీ	-10.352
▁సీపీఎం	-10.3522
▁గణేష్	-10.3522
సూ	-10.3524
▁పాల్పడిన	-10.3524
▁ఆరోగ్యాన్ని	-10.3526
▁లై	-10.3533
▁టోల్	-10.3534
▁పద	-10.3534
▁బట్టలు	-10.354
▁ఫె	-10.354
▁పదో	-10.3543
▁సిగ్నల్	-10.3545
▁పంపించారు	-10.3547
సులు	-10.355
w	-10.355
మైనా	-10.3552
▁తేల	-10.3557
▁రుణాలు	-10.3562
కపోయినా	-10.3565
▁సౌకర్యం	-10.3566
▁ఆఫీసు	-10.357
▁భావిస్తున్న	-10.357
▁డ్యాన్స్	-10.3571
▁న్యూయార్క్	-10.3571
▁ఎమోషనల్	-10.3571
▁తేలికపాటి	-10.3571
▁స్టాలిన్	-10.3571
▁డైరెక్ట్	-10.3573
▁వ్యాప్తి	-10.3574
▁శ్రీశైలం	-10.3574
▁అంశాన్న	-10.358
▁అమల్లోకి	-10.3585
▁మరణించిన	-10.3588
▁పెడుతున్నారు	-10.359
▁స్టే	-10.3593
▁నెలలుగా	-10.3595
▁అప్డేట్	-10.3597
▁మీడియాకు	-10.3597
▁కార్తీక	-10.3599
▁సహ	-10.36
ేసిన	-10.3601
▁H	-10.3603
▁సౌకర్యాలు	-10.3604
లక్ష	-10.3609
▁వేయడం	-10.3614
▁46	-10.3614
▁పుతిన్	-10.3622
▁నడ్డా	-10.3622
▁దుబాయ్	-10.3622
▁కోత	-10.3623
▁షార్ట్	-10.3624
▁కాంప్లెక్స్	-10.3625
రాన్	-10.3627
ినట్టు	-10.3629
▁కవర్	-10.3638
▁ఆశ్రయించారు	-10.3638
▁ఇంటిని	-10.3638
▁దాటి	-10.3639
రాజ	-10.3641
▁పరుగులకే	-10.3641
▁పరిశ్రమల	-10.3645
ారంటే	-10.3652
▁కానున్నారు	-10.3652
▁రైళ్ల	-10.3654
▁అడిగిన	-10.3655
▁తెచ్చ	-10.3663
▁పోటీకి	-10.3667
▁అనుబంధ	-10.3668
▁ఆధ్యాత్మిక	-10.3674
▁కమర్షియల్	-10.3674
▁వర్సిటీ	-10.3674
▁మనోహర్	-10.3674
▁రేట్లు	-10.3674
▁గడప	-10.3674
26	-10.3675
▁భావిస్తోంది	-10.3675
▁రాజకీయాలకు	-10.3676
▁నేరం	-10.3676
▁తద్వారా	-10.3676
▁అప్ప	-10.3679
▁ان	-10.368
▁వైఖరి	-10.3681
▁పాత్రలు	-10.3686
▁శాసన	-10.3694
▁వ్యవహరించ	-10.3695
▁సెగ్మెంట్	-10.3696
▁కాక	-10.3699
▁బీజేపీని	-10.3701
▁ప్రవేశించ	-10.3705
▁డ్రామా	-10.3705
▁కారం	-10.371
49	-10.3712
▁రావాల్సి	-10.3716
31	-10.3717
▁కొబ్బరి	-10.3718
▁తప్పించ	-10.3718
▁నేర	-10.372
పోతుంది	-10.372
▁రైళ్లను	-10.3723
▁కుక్కల	-10.3725
▁కామెడీ	-10.3726
▁అథారిటీ	-10.3726
▁పట్టణంలో	-10.3727
▁నార్త్	-10.3728
▁పట్టించుకో	-10.3729
▁గూడ	-10.3736
▁మాటల	-10.3738
▁ఎప్పటి	-10.3742
▁స్నానం	-10.3743
▁టచ్	-10.3744
▁రెస్టారెంట్	-10.3744
▁ఖర్చులు	-10.3744
▁దర్శకత్వం	-10.375
▁కుటుంబాలు	-10.3753
▁వ్య	-10.3754
▁గమనించ	-10.3756
▁ప్రతిభ	-10.3767
మాన్	-10.3773
▁పట్టాలు	-10.3776
▁హామీల	-10.3776
▁నాలుగేళ్ల	-10.3777
▁రెస్పాన్స్	-10.3779
▁గుప్తా	-10.3779
▁సుధాకర్	-10.3779
▁హుండీ	-10.3779
▁vs	-10.3779
▁భాగస్వామి	-10.3779
▁సంరక్షణ	-10.3779
▁శ్రీహరి	-10.3779
▁కట్టిన	-10.378
▁ఓం	-10.3786
▁స్టోర్	-10.3789
▁డిపాజిట్	-10.3792
▁ప్రత్యేకత	-10.3793
▁పట్టుకున్నారు	-10.3793
▁నటిస్తున్న	-10.3794
▁వెళ్లాలని	-10.3794
▁పెరగడం	-10.3795
▁ఆహ్వానించారు	-10.3795
▁అద్భుత	-10.3796
▁లోకల్	-10.3797
▁...	-10.3798
▁రాజకీయాల	-10.3798
▁పైనే	-10.3798
▁మొదలుపెట్టారు	-10.3801
▁ఆటగాళ్లు	-10.3801
▁పీవీ	-10.3802
▁కలిగించ	-10.3802
▁మార్కెట్లో	-10.3805
▁సెషన్	-10.3808
▁కలిగించే	-10.3808
ుడైన	-10.3809
▁బ్యాంకులు	-10.3811
▁లేఖలో	-10.3814
▁నవ	-10.3814
▁జోరుగా	-10.3818
▁మోస	-10.3824
▁పదవుల	-10.3826
ಸ	-10.3827
▁గవర్నమెంట్	-10.3831
▁గులాబీ	-10.3832
▁ల్యాండర్	-10.3832
▁వంతు	-10.3833
▁ఊరట	-10.3834
కుమార్	-10.3836
▁హాఫ్	-10.3836
▁మాఫీ	-10.3838
▁గోల్	-10.3847
▁తెచ్చి	-10.3849
▁వేద	-10.3849
ಕ	-10.385
▁రాకపోకలు	-10.385
చేశారు	-10.3851
ందంటూ	-10.3852
▁మూడేళ్ల	-10.3854
▁దక్కించుకున్న	-10.3856
▁ಹ	-10.3862
▁హర్యానా	-10.3862
▁కడుపు	-10.3863
▁సాధన	-10.3865
▁తీసుకుంటున్నారు	-10.3872
▁ఆరోపణలపై	-10.3876
▁తోడు	-10.3879
▁పట్టణంలోని	-10.3883
32	-10.3883
▁వందేభారత్	-10.3884
ं	-10.3884
▁ఫైబర్	-10.3885
పాటి	-10.3885
ానన్నారు	-10.3888
▁ఉందో	-10.3889
▁ఉక్రెయిన్	-10.389
▁రఘురామ	-10.3893
▁దో	-10.3899
▁వివాదాస్పద	-10.3901
▁ఉన్నందున	-10.3905
▁మనుషుల	-10.3905
స్థ	-10.3908
▁నీటిలో	-10.391
▁తీసుకొచ్చిన	-10.3912
▁షాట్	-10.3918
▁ఉండేందుకు	-10.3922
▁రాయలసీమ	-10.3925
ుండటంతో	-10.3931
వారిని	-10.3934
▁మినహా	-10.3934
ాలా	-10.3935
▁ఆశించిన	-10.3936
ిరెడ్డి	-10.3936
▁రేపింది	-10.3939
▁క్లీన్	-10.3939
▁ట్రోఫీ	-10.3941
▁సంవత్సరానికి	-10.3941
▁కృతజ్ఞతలు	-10.3942
▁భరత్	-10.3942
▁క్రాస్	-10.3945
▁తీసుకెళ్లి	-10.3946
▁తీసుకొచ్చారు	-10.3948
▁పర్యటించారు	-10.395
పోవడం	-10.395
పోవడంతో	-10.3951
పోయాయి	-10.3954
ుడిగా	-10.3955
▁ప్రతిపాదన	-10.3956
▁ఫండ్స్	-10.3957
▁నగరాల్లో	-10.3957
▁కేరళలో	-10.3961
▁س	-10.3966
▁ఆరో	-10.3969
33	-10.397
కంగా	-10.3975
▁గీత	-10.3983
▁సుదీర్ఘ	-10.3983
▁మెడ	-10.3984
▁ఈస్ట్	-10.3986
ర్లు	-10.3987
▁గల్ఫ్	-10.3991
▁చేస్తుండగా	-10.3991
▁తెలియజేశారు	-10.3992
▁అర్హులైన	-10.3992
▁చేశాడని	-10.3992
▁స్ట్రీమింగ్	-10.3993
▁కలుగుతుంది	-10.3994
▁కాన్ఫరెన్స్	-10.3994
ೋ	-10.3995
▁బోర్డ్	-10.3997
▁ఉండదని	-10.3997
▁ఎక్కడి	-10.4
▁రాగా	-10.4002
▁టు	-10.4004
▁పడుతుందని	-10.4008
▁అమ్మకాలు	-10.4009
▁విజయవాడలో	-10.4009
కుల	-10.4011
▁పురుషుల	-10.4014
తాయి	-10.4016
▁ప్రభుత్వమే	-10.4018
▁లాయర్	-10.4019
▁రావ	-10.4028
▁కార్మికులకు	-10.4029
▁గ్యారంటీ	-10.403
▁గేమ్స్	-10.4031
▁ఇక్కడే	-10.4033
):	-10.4035
▁వ్యవహారంలో	-10.4036
▁బ్యాంకుల	-10.4038
ట్టి	-10.404
▁పర్యటనకు	-10.4042
▁కర్	-10.4044
▁బ్యాటరీ	-10.4045
▁అవకాశముంది	-10.4045
▁వెళ్ళ	-10.4046
▁వెళ్లిపోయారు	-10.4047
▁వచ్చాడు	-10.4049
యింది	-10.405
▁సామాన్య	-10.405
▁దర్శనానికి	-10.405
▁సిద్ధమవుతున్న	-10.4051
▁కలెక్షన్స్	-10.4051
▁సిబ్బందికి	-10.4052
▁టాస్క్	-10.4052
▁పాల్గొంటారు	-10.4053
దన్నారు	-10.4055
▁ఆడుతున్న	-10.4058
▁వర్షాలకు	-10.4061
▁బలహీన	-10.4067
66	-10.4069
▁కనిపించారు	-10.4071
▁బస్సులో	-10.408
▁శక్తిని	-10.4083
ములు	-10.4088
▁నోట్	-10.4089
▁మతం	-10.4093
▁తాగడం	-10.4094
▁ప్రయాణించ	-10.4095
▁స్పీడ్	-10.4099
▁కోవిడ్	-10.4099
▁జంక్షన్	-10.4099
▁పాలమూరు	-10.4099
▁ఎడ్యుకేషన్	-10.41
▁నిలిచాడు	-10.4102
.30	-10.4104
▁రిటైర్డ్	-10.4105
▁దశాబ్దాల	-10.4107
38	-10.4108
▁వినాయక	-10.4123
▁4,	-10.4123
▁సవరణ	-10.4123
▁టీడీపీలో	-10.4123
▁వేరు	-10.4124
ఫై	-10.4125
▁కోల్పోయి	-10.4136
▁బదులుగా	-10.4137
▁యోగి	-10.4142
▁గ్రామం	-10.4147
▁ఇండస్ట్రీలో	-10.4148
▁టై	-10.4148
▁కాలేజీలో	-10.4151
▁లబ్ధి	-10.4152
▁సురేశ్	-10.4153
▁ఇవన్నీ	-10.4154
▁అటువంటి	-10.4154
▁సాంస్కృతిక	-10.4154
▁ఎమర్జెన్సీ	-10.4154
▁అక్టోబరు	-10.4154
▁ఆర్టికల్	-10.4154
▁కీలకం	-10.4155
▁వివరించింది	-10.4156
▁2011	-10.4158
▁బాలయ్య	-10.4159
▁వేధింపుల	-10.416
▁లక్ష్యాన్ని	-10.4161
▁ఇవ్వలేదని	-10.4163
▁చేయనుంది	-10.4165
▁సాగింది	-10.4167
▁అస	-10.4167
▁మాల	-10.4168
రూప	-10.4169
సింగ్	-10.4169
▁వెళ్త	-10.417
▁రాళ్ల	-10.4175
▁నిలబడ	-10.4178
▁జ్యోతిష్య	-10.4184
▁అనంత	-10.4187
బర్	-10.4189
▁ఇండియన్స్	-10.4192
▁ఆదాయ	-10.4195
▁వేశ	-10.4197
▁కేర్	-10.4206
▁ప్రశ్నిస్తున్న	-10.4207
▁బందోబస్తు	-10.4208
▁బిర్యానీ	-10.4208
▁వారాహి	-10.4208
▁రూపొందించిన	-10.4208
▁నంద్యాల	-10.4208
▁ట్రీట్	-10.4208
▁ప్రయోగం	-10.421
▁భయపడ	-10.421
▁సిద్ధ	-10.4215
▁ఉండొచ్చు	-10.4217
▁ఉద్యోగులను	-10.4218
▁అసహనం	-10.4221
▁ముఖం	-10.4223
▁మొదట్లో	-10.4225
ళి	-10.4225
▁ఫార్మా	-10.4226
▁చెడు	-10.4228
▁గొడవలు	-10.4231
▁రోడ్లపై	-10.4233
▁నం	-10.4244
▁శ్రీనివాస	-10.4245
▁పెడుతున్న	-10.4249
▁నిరంతరం	-10.425
▁రన్స్	-10.4255
▁అబ్దుల్	-10.4255
స్ట	-10.4256
జో	-10.426
▁జేపీ	-10.426
▁రామకృష్ణ	-10.4261
▁కాంట్రాక్ట్	-10.4262
▁ట్యాంక్	-10.4262
▁రైతుబంధు	-10.4263
▁చికెన్	-10.4263
▁యోగా	-10.4267
▁వేలం	-10.4267
▁భావించ	-10.4269
రన్	-10.4269
▁దందా	-10.4269
డ్స్	-10.4272
టివ్	-10.4272
▁ఘాట్	-10.4274
▁ప్రకాశ్	-10.4274
▁ఉన్నతాధికారులు	-10.4276
▁వాహనాలను	-10.4278
్మ	-10.428
▁కోపం	-10.428
▁అయోధ్యలో	-10.4283
లాల్	-10.4284
వారం	-10.4286
▁వార్తల్లో	-10.4288
▁39	-10.4291
36	-10.4293
▁నిజాం	-10.4295
ఫె	-10.4296
▁పాయింట్లు	-10.43
th	-10.4301
▁హిందువుల	-10.4304
▁శ్రమ	-10.4306
▁నాగ్	-10.4306
ుంటారు	-10.4309
▁నిబంధన	-10.431
▁మొగ్గు	-10.4313
▁చెప్పినా	-10.4314
▁సమాజం	-10.4315
▁హుస్సేన్	-10.4318
ొచ్చని	-10.432
▁సిరాజ్	-10.4321
▁లేదో	-10.4323
▁రోజురోజుక	-10.4323
▁ఇలాగే	-10.4324
J	-10.4326
▁చెప్తున్న	-10.4326
▁ఘర్షణ	-10.433
▁చేయవచ్చు	-10.433
ఖా	-10.4333
▁కాలువ	-10.4333
ేశాడు	-10.4335
▁ఖా	-10.4338
▁బొమ్మ	-10.4344
ad	-10.4344
▁భాషల్లో	-10.4345
▁ఫా	-10.4346
▁ఇం	-10.4348
▁నటించ	-10.4351
▁ర్శ	-10.4354
▁అనుచరులు	-10.4355
▁అమర్	-10.4356
▁జాతి	-10.4364
▁ప్రొ	-10.4367
▁స్థానికంగా	-10.4369
పోతున్న	-10.437
▁ఫ్లాట్	-10.437
▁పక్కా	-10.4371
▁తరబడి	-10.4373
▁కడియం	-10.4375
▁తగిలింది	-10.4375
▁లక్ష్యంతో	-10.4376
▁కట్టి	-10.4376
బడింది	-10.4377
▁పద్మ	-10.4379
▁గ్రహాల	-10.4383
కైక	-10.4386
ుతున్నారని	-10.4391
▁బస్సుల్లో	-10.4393
▁సీట్లలో	-10.4395
▁తండా	-10.4396
▁ఐస్	-10.4398
▁పీఎం	-10.4402
39	-10.4407
స్తామని	-10.4416
▁ఆధారపడి	-10.4416
పాల	-10.4417
▁అయినట్లు	-10.442
నింగ్	-10.4423
▁ن	-10.4423
▁మరుసటి	-10.4429
▁కురిసిన	-10.4429
▁రేవణ్ణ	-10.4429
ଲ	-10.4429
▁స్పిన్నర్	-10.4429
▁పరిగణనలో	-10.443
▁డీజిల్	-10.443
▁చేస్తుంటారు	-10.443
▁చాన్స్	-10.443
▁కొడాలి	-10.4431
▁కాఫీ	-10.4432
▁డయాబెటిస్	-10.4434
▁చేసుకునేందుకు	-10.4434
దేశ	-10.4435
▁తర్వాతే	-10.4436
▁మరొకరు	-10.4437
▁కమల్	-10.4439
▁బదులు	-10.4445
▁చూసింది	-10.4451
లేకపోయారు	-10.4453
▁అప్పగించారు	-10.4454
▁కూరగాయల	-10.4456
▁అవసరాల	-10.4457
▁కొందరి	-10.4466
▁పోషించ	-10.4466
లియా	-10.4467
▁విధి	-10.447
▁అంటున్న	-10.4479
ినప్పుడు	-10.4484
▁వస్తువులను	-10.4485
▁సౌదీ	-10.4486
▁ఇబ్బందుల	-10.4486
▁కారణాలతో	-10.4487
▁అలియాస్	-10.4491
▁బిల్	-10.4495
్యం	-10.4497
▁సిబ్బందిని	-10.4497
▁అందించేందుకు	-10.4499
▁మంచిదని	-10.4508
▁విధులు	-10.4509
▁చూపు	-10.451
▁పవిత్ర	-10.451
ులను	-10.4512
.12	-10.4513
▁ఎఫెక్ట్	-10.4516
రింగ్	-10.4518
▁కాలనీలో	-10.4531
ಟ	-10.4531
▁సంఘటనలు	-10.4532
▁కనుక	-10.4534
ంక్	-10.4538
ୀ	-10.4542
▁చుట్టుపక్కల	-10.4542
▁ఫౌండేషన్	-10.4542
▁ల్యాబ్	-10.4542
▁ఏండ్లు	-10.4542
▁సర్కిల్	-10.4542
▁ఐపీఎస్	-10.4543
▁కోల్పోయారు	-10.4544
▁51	-10.4548
▁లెక్కల	-10.4549
▁వీసీ	-10.4549
34	-10.4551
▁చెట్టు	-10.4551
▁ش	-10.4553
▁అమ	-10.4555
▁I	-10.4556
గడ	-10.4557
▁పెట్టుబడుల	-10.4559
▁పెంచింది	-10.456
▁ప్రాజెక్టుల	-10.4562
▁ఛ	-10.4564
▁వర్ష	-10.4575
▁ప్రాంతాలలో	-10.4577
▁పిఠాపురం	-10.458
హో	-10.458
దర	-10.4582
కోట్ల	-10.4583
▁నడిపించ	-10.4591
▁నెలకొన్న	-10.4593
▁కార్ల	-10.4597
▁కళ్లు	-10.4597
▁ఆధునిక	-10.4598
▁కరెంటు	-10.4599
▁ఫారెస్ట్	-10.4599
▁సింగపూర్	-10.4599
▁విధానంలో	-10.46
▁హాసన్	-10.46
▁హర్ష	-10.4601
▁పాలస్తీనా	-10.4603
▁సమావేశ	-10.4603
.40	-10.4603
▁రావడానికి	-10.4603
▁రెండోసారి	-10.4604
▁శరీర	-10.4605
▁పెరుగుతాయి	-10.4605
▁నివేదికను	-10.4609
న్నాయని	-10.4613
▁పొట్ట	-10.4615
▁సానుకూల	-10.4616
▁సులభంగా	-10.4618
▁తల్లిదండ్రుల	-10.4622
▁గదిలో	-10.4627
▁సలహాదారు	-10.4628
▁జరగడం	-10.4628
▁రేట్	-10.4635
▁కష్టపడి	-10.4638
▁నిమిషాలకు	-10.4638
▁సమర్థ	-10.4645
▁ఎకరాలు	-10.4647
ल	-10.4655
▁నందమూరి	-10.4656
▁యాక్టివ్	-10.4656
▁ప్రాక్టీస్	-10.4656
▁ఇవ్వడంతో	-10.4657
▁మూడోసారి	-10.4658
▁పాటిల్	-10.466
త్య	-10.4662
డింగ్	-10.4663
▁చేయొచ్చు	-10.4665
▁హర్	-10.4669
▁నమోదైన	-10.4671
▁నటించారు	-10.4677
ସ	-10.4682
▁తిన్న	-10.4685
▁పెరగడంతో	-10.4685
▁ప్రదర్శించ	-10.4685
▁కలగ	-10.469
▁విస్తృత	-10.4691
▁మరణ	-10.4692
▁పనితీరు	-10.4693
▁ఉన్నవారు	-10.4697
▁పద్ధతి	-10.4698
▁అదృష్టం	-10.4702
▁ఊహించ	-10.4702
▁లోటు	-10.4704
▁అడ్డు	-10.4704
▁కమ్మ	-10.4704
▁పూజా	-10.4707
▁అపార్ట్	-10.4713
▁ఉత్తరాఖండ్	-10.4713
▁వసతి	-10.4713
▁ల్యాండింగ్	-10.4713
▁ఫ్రాన్స్	-10.4714
▁ట్యాక్స్	-10.4714
▁బీఎస్పీ	-10.4715
▁గ్రూపు	-10.4715
▁తెలిపాయి	-10.4717
▁కనిపిస్తాయి	-10.4718
▁తిరుగుతున్న	-10.4725
తారని	-10.4731
▁శాశ్వత	-10.4731
▁సెమీస్	-10.4732
వేలు	-10.4733
▁సమావేశాల్లో	-10.4735
▁గాజాలో	-10.4736
44	-10.4738
త్స	-10.4738
▁డీఏ	-10.4738
▁కులాల	-10.4747
▁ఆలయానికి	-10.4748
▁49	-10.4748
▁సంబంధ	-10.4749
▁వెళ్లాడు	-10.4751
▁గాను	-10.4751
▁ఎంసీ	-10.4752
85	-10.4756
ప్పు	-10.4769
▁పదవీ	-10.4769
▁మనీ	-10.477
▁జర్నలిస్ట్	-10.4771
▁యాపిల్	-10.4771
▁మమ్మల్న	-10.4772
▁మాసంలో	-10.4772
▁పరువు	-10.4772
▁వీధి	-10.4773
▁ఫీల్డ్	-10.4774
కైనా	-10.4774
ుకున్నాడు	-10.4778
▁ఉన్నది	-10.478
▁పేట్	-10.478
W	-10.4782
▁వార్షిక	-10.4787
▁ప్రయత్నాల	-10.4787
▁స్థలాన్ని	-10.4793
▁ప్రయత్నించారు	-10.4796
▁డై	-10.4806
▁పోషకాలు	-10.4809
టమే	-10.482
▁ఊ	-10.4821
▁వీళ్ల	-10.4822
ధార	-10.4824
▁52	-10.4825
41	-10.4826
పైన	-10.4826
▁ఠాకూర్	-10.4829
▁ప్యాకేజీ	-10.4829
▁ఛార్జ్	-10.4829
▁లింగ	-10.4829
▁సేకరణ	-10.4829
▁లైసెన్స్	-10.4829
▁బ్యాలెట్	-10.4829
▁43	-10.483
▁వీరిద్దరూ	-10.4831
▁ఫైనాన్స్	-10.4831
▁చార్జ్	-10.4831
▁నీళ్ల	-10.4834
▁నడిచే	-10.4837
▁జన్మ	-10.4837
▁టో	-10.4839
▁బిల్లును	-10.4848
నంత	-10.4848
▁కార్యకలాపాల	-10.4849
▁ఇష్ట	-10.4853
▁రోగుల	-10.4862
▁అరుణ	-10.4869
▁చదువుతున్న	-10.4869
▁కూర	-10.4869
▁చేస్త	-10.4873
▁లభించ	-10.4876
▁పెట్టారని	-10.4876
▁వహించ	-10.4879
ొచ్చ	-10.488
▁జూబ్లీహిల్స్	-10.4888
▁ప్రవర్తన	-10.4888
▁శ్రీకాకుళం	-10.4888
▁రాంబాబు	-10.4888
▁పంపారు	-10.4888
▁ఢీ	-10.4888
▁ఫుట్	-10.4889
▁అందిస్తుంది	-10.4891
పత్ర	-10.4892
▁తీసుకొచ్చింది	-10.4894
▁2004	-10.4894
ేటప్పుడు	-10.4901
▁మూవీలో	-10.491
▁విద్యార్థిని	-10.4911
▁నియోజకవర్గానికి	-10.4912
▁ఛాంపియన్	-10.4921
▁ఎగ్జామ్	-10.4921
▁అమలులో	-10.4922
శం	-10.4928
▁ఉంచారు	-10.4932
▁సమీప	-10.4936
▁పంపిన	-10.4937
పడి	-10.4945
▁కల్	-10.4946
▁نہیں	-10.4946
▁రఘునందన్	-10.4946
▁ఇమేజ్	-10.4947
▁ప్రకాష్	-10.4947
▁ముగింపు	-10.4947
▁అధ్యక్షురాలు	-10.4947
▁రక్తం	-10.4948
తను	-10.4948
▁అల్పపీడనం	-10.495
▁పార	-10.4951
▁వస్తువుల	-10.4956
▁విసిరారు	-10.4957
▁కొన్నిసార్లు	-10.4959
▁72	-10.496
▁గంగా	-10.4962
▁పెంచి	-10.4964
▁కుమారుడి	-10.4964
▁మాట్లాడటం	-10.4966
▁120	-10.4966
▁అనుమతులు	-10.4968
▁మెయిల్	-10.4969
▁కంపెనీలో	-10.4969
▁అడుగుపెట్ట	-10.497
▁ప్రో	-10.497
▁ఏర్పడ	-10.497
▁దొరక	-10.4972
▁వరస	-10.4972
▁వనరుల	-10.4974
▁పర్మిషన్	-10.4976
▁నిర్మాణాలు	-10.4977
▁నియమించారు	-10.4977
▁బహిరంగంగా	-10.4978
ఇది	-10.4979
▁సందర్భంలో	-10.4981
ేసి	-10.4988
▁దీప్	-10.499
▁దగ్గరగా	-10.499
▁నివాసంలో	-10.4997
డర్	-10.4998
▁కవితను	-10.4998
▁కలిగే	-10.4999
▁బాక్సాఫీస్	-10.5006
▁కూతురి	-10.5006
▁అంతర్గత	-10.5006
▁కార్యవర్గ	-10.5006
▁బ్లూ	-10.5009
▁షాప్	-10.5011
ళ్ళు	-10.5012
▁రీతిలో	-10.5013
▁ఖాయం	-10.5017
▁అడ్డుకున్నారు	-10.5019
▁ప్రతిష్ట	-10.5023
▁సదస్సు	-10.503
▁నాటు	-10.5035
▁ఫాం	-10.5037
▁బయో	-10.5041
▁శ్రీవారిని	-10.5042
▁చెల్లించాల్సి	-10.5043
▁ఆసక్తిగా	-10.5046
▁కార్యక్రమాలను	-10.5047
48	-10.5051
▁క్షేత్ర	-10.5051
ియల్	-10.5052
▁చేశా	-10.5053
▁ః	-10.5061
ప్పుడే	-10.5062
▁కర్కాటక	-10.5065
▁ప్రక్రియను	-10.5065
▁లెక్కింపు	-10.5065
▁జాయింట్	-10.5065
▁వర్సెస్	-10.5065
▁గుడివాడ	-10.5066
▁జన్మించిన	-10.5066
▁అధ్యక్షతన	-10.5066
▁బర్త్	-10.5068
▁ఉంటుందో	-10.5068
▁కిషోర్	-10.5069
▁బస్టర్	-10.507
▁పోర్టల్	-10.507
▁అన్నా	-10.507
▁విషయమై	-10.5071
▁వెళుతున్న	-10.5073
▁పీజీ	-10.5074
ವನ್ನು	-10.5074
म	-10.5078
▁మార్పుల	-10.5079
▁జరిపారు	-10.5079
పరమైన	-10.5081
▁54	-10.5084
పాల్	-10.5088
▁వేర్వేరు	-10.5088
▁చిత్రానికి	-10.5093
▁విగ్రహాల	-10.5093
కుడు	-10.5095
▁సైనికులు	-10.5105
ور	-10.5105
65	-10.5115
▁షీట్	-10.5116
దారు	-10.5119
68	-10.5121
▁వ్యాధుల	-10.5123
as	-10.5125
▁డైరెక్షన్	-10.5125
▁బ్రిటిష్	-10.5125
▁ఇన్వెస్ట్	-10.5125
▁అభినందనలు	-10.5125
▁తాగునీటి	-10.5125
▁ఆస్కార్	-10.5125
▁ట్రైనింగ్	-10.5125
▁సందర్భాల్లో	-10.5125
▁వేములవాడ	-10.5125
▁ఫాలో	-10.5125
▁స్ట్రాంగ్	-10.5125
▁రామకృష్ణారెడ్డి	-10.5126
▁రోజుల్లోనే	-10.5126
ف	-10.5126
▁అడిగితే	-10.5127
▁ప్రయోజనాలను	-10.5128
▁స్ట	-10.5131
▁అభినందించారు	-10.5131
▁జరిపి	-10.5131
▁దేవ్	-10.5132
కుంటే	-10.5132
▁సింహ	-10.5136
ుతుండగా	-10.5138
▁ପ	-10.5144
▁వార్తా	-10.5148
▁నిర్ణయాల	-10.5151
▁ట్రై	-10.5153
▁హోమ్	-10.5153
▁చేయటం	-10.5157
▁జీవన	-10.5159
▁డో	-10.5163
▁శి	-10.5164
▁కారణంగానే	-10.5165
▁పదార్థాలు	-10.5166
▁కుటుంబాన్ని	-10.517
▁లేరు	-10.5171
▁సర్టిఫికెట్	-10.5176
54	-10.518
▁భయంతో	-10.5182
▁అంతరాయం	-10.5185
▁క్రేజ్	-10.5185
▁పాజిటివ్	-10.5185
▁థ్రిల్లర్	-10.5186
▁నాణ్యమైన	-10.5186
▁విజయనగరం	-10.5186
▁రీసెంట్	-10.5186
▁ಈ	-10.5186
ముందు	-10.5186
▁మైనింగ్	-10.5187
▁తగ్గుతుంది	-10.5188
▁మొత్తానికి	-10.5189
▁భాగ	-10.5189
▁మ్యా	-10.519
▁ఆగస్ట్	-10.5192
▁సంబరాలు	-10.5193
▁గుట్ట	-10.5194
▁నిలవ	-10.5196
▁ప్రయాణికులకు	-10.5196
▁ఫ్లోర్	-10.5198
పార్టీ	-10.5199
▁వచ్చాయని	-10.52
ాయో	-10.5201
▁ఆసక్తికరంగా	-10.5202
▁చేసుకుంటే	-10.5202
▁పాండ్యా	-10.5208
▁విభేదాలు	-10.5218
చేయ	-10.5218
▁కాలుష్యం	-10.5222
▁పెను	-10.5224
ೂ	-10.5224
▁రమణ	-10.5227
ందర్	-10.5228
▁కనిపిస్తున్న	-10.5231
▁స్నేహితులు	-10.5231
▁మల్లికార్జున	-10.5233
▁విషయాల	-10.5239
▁ప్రకటనలు	-10.5243
▁ఇరవై	-10.5246
▁రెండింటి	-10.5249
▁యువతకు	-10.5249
▁2013	-10.5251
స్తు	-10.5251
ణా	-10.5251
▁కాకపోతే	-10.5251
▁సెక్స్	-10.5253
▁వినియోగదారులు	-10.5254
బోయే	-10.5256
▁పెంచాలని	-10.5258
ହ	-10.5259
▁పెరగ	-10.5261
▁విడాకులు	-10.5263
▁దగ్గరి	-10.5263
▁మం	-10.5263
▁రాజకీయాల్లోకి	-10.5264
▁చిక్కుకున్న	-10.5266
▁గంటకు	-10.5267
▁బర్	-10.5268
మం	-10.5269
▁స్థానాల	-10.527
▁కార్లు	-10.5272
▁వస్త	-10.5275
▁అగ్రనేత	-10.5277
▁సంప్రదాయ	-10.5279
▁చర్యలకు	-10.528
▁నిరూపించ	-10.5282
రంగ	-10.5284
▁దాడుల	-10.5286
▁మహిళలను	-10.5287
ha	-10.5289
▁پ	-10.529
▁బాయ్	-10.5295
ిన్	-10.5298
ri	-10.5298
▁వరదలు	-10.5301
▁తలెత్త	-10.5304
ఖ్	-10.5307
▁జర్మనీ	-10.5307
▁అనకాపల్లి	-10.5307
▁ఖైరతాబాద్	-10.5307
▁వంతెన	-10.5307
▁ఎర్రబెల్లి	-10.5307
▁ಎಂದು	-10.5307
▁లక్షలాది	-10.5307
▁బొత్స	-10.5307
▁తే	-10.5307
▁రాయితీ	-10.5308
▁హ్యాండ్	-10.531
▁ప్రీతి	-10.531
▁స్థానానికి	-10.531
▁చేయాలంటూ	-10.5313
ండీ	-10.5313
▁నడుస్తోంది	-10.5314
▁నిమిషాలు	-10.5314
▁మంత్రుల	-10.5315
▁ప్రోత్సహించ	-10.5316
▁చేసుకుంటూ	-10.5316
▁లోపలికి	-10.5317
▁జీతాలు	-10.5321
ಮ	-10.5322
▁చూస	-10.5324
▁పరిమితి	-10.5326
▁లేకుండానే	-10.5327
స్తున్నాయి	-10.5327
▁ఓడ	-10.5329
▁అడ్డం	-10.5335
▁ప్రాంతాలను	-10.5347
▁మోదీకి	-10.5349
▁చేసుకుంట	-10.5349
▁47	-10.5349
▁రాజ్యాంగం	-10.5356
▁హాజరై	-10.5362
పోతున్నారు	-10.5363
త్రా	-10.5367
▁దృష్ట్యా	-10.5368
▁బెనర్జీ	-10.5368
▁స్పష్టమైన	-10.5368
▁ఎలాగైనా	-10.5368
▁ఎఫ్ఐఆర్	-10.5368
▁వైయస్	-10.5369
▁మెంబర్	-10.5369
▁వాస్తు	-10.5369
▁ఊరు	-10.537
▁శరత్	-10.537
▁అజిత్	-10.5371
▁మొదలయ్యాయి	-10.5371
▁రిజిస్టర్	-10.5374
▁బాలుడు	-10.5374
▁ఆహ్వానం	-10.5382
▁అందించడం	-10.5384
▁పెట్టాలి	-10.5389
కానీ	-10.5393
57	-10.5393
▁అదుపు	-10.5396
▁సందర్శించ	-10.5396
▁వైసీపీలో	-10.5398
▁పోయిన	-10.5399
చ్చింది	-10.5402
▁ఆహ్వానించ	-10.5403
▁డ్యూటీ	-10.5403
▁మారుస్త	-10.5403
యింగ్	-10.5404
▁పెంచడం	-10.5405
▁అవుత	-10.5406
▁తొలిసారిగా	-10.5408
▁ప్రమాదాలు	-10.5409
▁కామ	-10.541
మేనని	-10.5414
▁ప్రమాదాల	-10.5415
▁ఖాళీగా	-10.5415
▁తొలగించి	-10.5416
▁దేవర	-10.5419
ra	-10.5422
▁ఈయన	-10.5425
యన్	-10.5425
▁చేసుకున్నట్లు	-10.5427
▁అనౌన్స్	-10.543
▁వైజాగ్	-10.543
▁ప్రపంచకప్	-10.543
▁నితిన్	-10.543
▁పెంచే	-10.5431
▁కేజీల	-10.5432
▁చూశారు	-10.5432
▁చూస్తుంటే	-10.5432
▁ప్రశాంతంగా	-10.5433
▁పాడ	-10.5435
▁ప్రతిరోజూ	-10.5435
▁హసన్	-10.5436
▁పెండ్లి	-10.5436
▁హాజరైన	-10.5437
▁వీరిద్దరి	-10.544
▁స్వేచ్ఛ	-10.5445
▁ఏంటో	-10.5446
▁బీసీలకు	-10.5448
▁సర్వేలో	-10.5448
▁పోడు	-10.5448
▁ಪ	-10.5455
▁చేరుకో	-10.5458
▁శెట్టి	-10.546
▁తను	-10.5462
స్టర్	-10.5464
▁ಸ	-10.5473
రిక్	-10.5477
ుంటాయి	-10.5485
▁సమస్యలతో	-10.5485
న్నింటి	-10.5487
▁వాతావరణంలో	-10.5488
▁అకాడమీ	-10.5492
▁ప్రస్తావన	-10.5492
▁సరిపడా	-10.5492
▁హిమాచల్	-10.5492
▁క్వాలిటీ	-10.5492
▁రిటైర్మెంట్	-10.5493
▁ట్రస్ట్	-10.5493
▁డ్రైవ్	-10.5493
▁పరోక్షంగా	-10.5493
▁కారును	-10.5495
▁సమ	-10.5497
▁కార్యాలయానికి	-10.5497
▁నియంత్రించ	-10.5498
▁జ్వరం	-10.55
▁కాపీ	-10.5502
▁కశ్మీర్	-10.5503
ಕ್	-10.5506
▁రోజులపాటు	-10.5509
▁డిసైడ	-10.5512
ాడో	-10.5514
ఫర్	-10.5515
ేశ్వర్	-10.5518
▁విజయవంతం	-10.5518
జన్	-10.5519
▁మైనర్	-10.552
▁పోసి	-10.5525
▁కల్యాణ	-10.5525
▁నిలబెట్ట	-10.5539
ि	-10.5541
▁ఫైనల్లో	-10.5542
▁రాయల్	-10.5548
▁త్	-10.5549
చిన	-10.5553
▁అంబులెన్స్	-10.5555
▁మిమ్మల్ని	-10.5555
▁సిఫార్సు	-10.5555
▁విరమణ	-10.5555
▁ఏడుగురు	-10.5555
▁కావాలంటే	-10.5557
▁విరుద్ధంగా	-10.556
మన్న	-10.5564
▁భవనాల	-10.5565
▁లెటర్	-10.5565
▁తనదైన	-10.5565
బే	-10.5565
▁జానీ	-10.5567
▁నడి	-10.5567
ಂ	-10.5567
▁భావించి	-10.557
▁ప్రచారానికి	-10.5577
▁జత	-10.558
▁మార్కులు	-10.5582
▁లూ	-10.5583
▁కన్	-10.5585
▁రాలేదని	-10.5587
▁తొక్క	-10.5588
జ్జ	-10.5604
▁బాబా	-10.5606
నాయ	-10.5607
▁చూస్తూ	-10.5608
▁గురువు	-10.5614
క్షన్	-10.5615
▁వేణు	-10.5617
▁బ్యూరో	-10.5617
▁ಆದ	-10.5617
▁గరిష్ట	-10.5617
▁డైరెక్టరేట్	-10.5618
▁ఆదరణ	-10.5618
▁ಮತ್ತ	-10.5618
▁ఎగ్జిక్యూటివ్	-10.5619
▁బర్గ్	-10.5619
▁ప్రభావిత	-10.562
▁సంపూర్ణ	-10.5621
▁వదల	-10.5621
▁పీఎస్సీ	-10.5622
▁సుమన్	-10.5624
▁సృష్టించింది	-10.5625
▁ఆమోదించ	-10.5625
▁టూ	-10.5627
▁తెచ్చిన	-10.5628
▁ఇంతకీ	-10.5628
▁పొడవు	-10.5629
35	-10.563
▁అధికారాన్ని	-10.5631
08	-10.5633
సిస్	-10.5633
▁యువకుడి	-10.5634
▁విషాద	-10.5637
▁ప్లస్	-10.5639
▁అకాల	-10.5645
▁వ్యాధులు	-10.5646
▁జీవ	-10.5647
▁చేయని	-10.5649
▁అనారోగ్యంతో	-10.5655
▁చంద్రుడిపై	-10.5656
▁తరపు	-10.5657
▁ప్యా	-10.566
▁మర	-10.5661
▁తీసుకొచ్చి	-10.5665
▁ఇచ్చినట్లు	-10.5665
▁దాడులకు	-10.5666
▁చేయి	-10.5667
వాద	-10.5673
▁పూల	-10.5676
▁చేతి	-10.568
▁56	-10.5681
▁భువనేశ్వరి	-10.5681
▁లిఫ్ట్	-10.5681
▁ఏంటంటే	-10.5681
▁ఇంజిన్	-10.5681
▁రవితేజ	-10.5681
▁ప్రాసెస్	-10.5681
ರು	-10.5682
▁అయ్యప్ప	-10.5682
▁విశ్రాంతి	-10.5685
▁పత్రం	-10.5685
▁ట్రేడ్	-10.5686
నప్పుడు	-10.5689
▁చెల్లించాలని	-10.5689
▁ప్రాజెక్టులు	-10.5694
▁పార్లమెంట	-10.5694
నవంబర్	-10.5697
▁చెక్క	-10.5698
▁సభ్యులను	-10.5699
▁కార్యక్రమాల్లో	-10.5701
▁కలవ	-10.5702
ఎక్స్	-10.5706
▁ఆహారాన్ని	-10.5711
▁బిల్లుల	-10.5711
▁చేసేవారు	-10.5713
▁బుద్ధి	-10.5713
▁వేసవి	-10.5714
▁నాయకులకు	-10.5717
ంద్ర	-10.5719
▁గోడ	-10.572
▁పరిణామం	-10.5724
ల్లోనూ	-10.5725
▁బేస్	-10.5726
▁గడిచిన	-10.5726
ಿಕ	-10.573
▁కురుస్తున్న	-10.5735
77	-10.5736
▁నియామకం	-10.5736
▁ప్రమాణం	-10.5741
పాలెం	-10.5741
▁వ్యతిరేకించ	-10.5744
▁కంప్లీట్	-10.5744
▁స్టిట్యూట్	-10.5744
▁చూద్దాం	-10.5745
▁జడ్పీటీసీ	-10.5745
▁గాయాలయ్యాయి	-10.5745
▁ఆత్మీయ	-10.5745
▁ఇందిరమ్మ	-10.5745
▁ధరించ	-10.5745
▁జూపల్లి	-10.5748
▁ఏలూరు	-10.575
▁చర్చనీయాంశంగా	-10.5754
▁అయ్యర్	-10.5756
▁కప్ప	-10.5757
▁చల్ల	-10.576
శక్తి	-10.5761
వెలుగు	-10.5761
▁ఉదాహరణ	-10.5762
పొ	-10.5763
▁అవుతాయి	-10.5765
▁అడగ	-10.5765
▁బాగ్	-10.5767
▁సంద	-10.577
▁బ్యాటర్లు	-10.5772
▁బలపడ	-10.5774
▁ప్రోగ్రామ్	-10.5783
▁కల్పించారు	-10.5785
ات	-10.5787
▁దూర	-10.5788
పాడు	-10.5789
▁వర్షాలతో	-10.58
▁కాన్	-10.5801
▁భాగస్వామ్యం	-10.5803
ాడట	-10.5805
నై	-10.5808
▁రోజ	-10.5808
▁అత్యున్నత	-10.5809
▁ఇమ్రాన్	-10.5809
▁మహేందర్	-10.5809
▁వినిపిస్తోంది	-10.5809
▁నల్లగొండ	-10.5809
▁పంపి	-10.5809
▁టైగర్	-10.5809
▁బిహార్	-10.5809
▁నిరోధక	-10.581
▁మొక్కులు	-10.5811
▁చనిపోయాడు	-10.5811
▁కూటమికి	-10.5811
▁నిరుద్యోగుల	-10.5812
▁కాస్ట్	-10.5816
▁వాస్తవానికి	-10.5818
▁చేయనున్నట్లు	-10.5821
▁కలర్	-10.5823
▁పెరుగు	-10.5823
▁క్రీడా	-10.5823
▁పద్ధతిలో	-10.5826
▁జీఎస్టీ	-10.5828
▁ఇవ్వడానికి	-10.5833
▁కాల్పుల	-10.5833
▁రాస	-10.5834
▁చూసినా	-10.5836
నుందని	-10.584
▁వేస	-10.5844
▁ఎత్త	-10.5846
నీయ	-10.5849
63	-10.585
▁రూం	-10.5852
▁చేయించారు	-10.5854
59	-10.5857
సెస్	-10.5861
.100	-10.5862
తూ	-10.5862
▁కాం	-10.5864
▁తాత్కాలిక	-10.5866
▁రూపాయలకు	-10.587
▁బీర్	-10.5871
▁విధించిన	-10.5872
▁బస్టాండ్	-10.5873
▁వెయిట్	-10.5873
▁జగనన్న	-10.5873
▁సుధీర్	-10.5873
▁నిర్మాణంలో	-10.5873
▁మొక్కలు	-10.5873
▁లక్షలకు	-10.5874
▁ప్రశ్నకు	-10.5874
▁లేకపోయినా	-10.5874
▁శ్రీకారం	-10.5875
లేం	-10.5875
ಯಾ	-10.5876
వన్	-10.5876
▁వికాస్	-10.5876
କ	-10.5877
▁విధించ	-10.5878
▁షమీ	-10.5878
▁బంగారాన్ని	-10.5879
▁తోనే	-10.5879
▁ఎంఎస్	-10.5881
▁వాడే	-10.5884
▁ఒక్కటే	-10.5885
▁సంఘ	-10.5887
▁చిరు	-10.589
▁ఇన్ని	-10.589
▁పూర్తయిన	-10.5891
▁డ్రోన్	-10.5892
▁స్టూడెంట్	-10.5895
▁బంధువుల	-10.5897
▁జనవరిలో	-10.59
నంటూ	-10.5906
▁స్వయం	-10.5916
56	-10.5916
▁పండు	-10.5918
▁భార	-10.5925
▁స్థలంలో	-10.5926
షీ	-10.5928
▁విజయాలు	-10.5929
▁సంతోష	-10.593
ండ్ల	-10.5931
▁మెజార్టీతో	-10.5931
▁సహజంగా	-10.5934
▁కాలు	-10.5934
▁మొన్నటి	-10.5935
ళ్	-10.5935
▁సానుభూతి	-10.5938
▁నరేందర్	-10.5938
▁రాజమౌళి	-10.5938
▁వాషింగ్టన్	-10.5938
▁హోంమంత్రి	-10.5938
▁శ్రీనివాసరావు	-10.5939
▁అక్కడక్కడ	-10.594
ತ	-10.594
▁పౌర్ణమి	-10.5941
▁గమనించిన	-10.5945
▁ఇవ్వాల్సి	-10.5946
▁స్పందించి	-10.5947
శారు	-10.5948
▁మలయాళ	-10.5949
▁డేటాను	-10.595
క్ట్	-10.5951
▁కత్తి	-10.5951
▁పడకుండా	-10.5955
▁టీచర్లు	-10.5956
▁యుద్ధంలో	-10.5956
نگ	-10.5956
▁చేయనున్న	-10.5963
▁లీడ్	-10.5966
▁శుభ్రం	-10.5967
▁సమాచార	-10.5968
▁ఆహారంలో	-10.5969
యాల	-10.5971
▁ఆశ్రయించ	-10.5971
▁విదేశాలకు	-10.5971
▁చూడటం	-10.5974
▁సంస్థకు	-10.5975
▁పండ్ల	-10.5977
ీయ	-10.5983
హు	-10.5984
▁రాశులవారి	-10.5986
▁చేసుకోవ	-10.5988
గంటల	-10.5989
▁కూలి	-10.599
▁లక్ష్మీదేవి	-10.5992
బడి	-10.5992
▁ఎస్ఐ	-10.5994
▁మగ	-10.5994
▁నోట్ల	-10.5996
▁అమ్మవారి	-10.5997
ಲ್	-10.5999
▁హల్	-10.6001
గానో	-10.6001
▁అరేబియా	-10.6003
▁అర్వింద్	-10.6003
▁ఇష్యూ	-10.6003
▁కారిడార్	-10.6003
▁నైరుతి	-10.6003
▁బెట్టింగ్	-10.6003
▁వందలాది	-10.6003
▁ఫారమ్	-10.6004
▁అతిథి	-10.6005
▁షాపింగ్	-10.6006
▁ఉల్లి	-10.6006
▁చేస్తున్నట్టు	-10.6006
▁పుట్టినరోజు	-10.6006
▁పడిపోయింది	-10.6007
▁ವಿಡಿಯೋ	-10.6008
▁జాన్	-10.6008
▁ప్రణాళికలు	-10.6013
▁నివేదికలో	-10.6013
▁చేరే	-10.6017
▁గెలిచింది	-10.6017
▁పరిసర	-10.6018
▁రుణం	-10.6021
▁శ్వాస	-10.6022
▁జనాలు	-10.6022
▁ప్రసారం	-10.6024
▁నివసించే	-10.6031
▁పిల్ల	-10.6035
▁ఫ్రెండ్స్	-10.6036
▁కుటుంబాల	-10.6043
▁ప్రొడక్షన్	-10.6044
▁పారిస్	-10.6045
▁కారణమ	-10.6051
▁ఇంకో	-10.6053
▁వాళ్ళ	-10.6054
▁మీటర్లు	-10.6056
▁ఏర్పడి	-10.6067
▁రాఘవ	-10.6068
▁ఎపిసోడ్	-10.6069
▁ఫంక్షన్	-10.6069
▁సౌతాఫ్రికా	-10.6069
▁హార్దిక్	-10.6069
▁శివాజీ	-10.6069
▁ఎన్నడూ	-10.6069
▁సప్లై	-10.6069
▁పార్కింగ్	-10.6069
▁వివక్ష	-10.607
▁ఇటువంటి	-10.607
▁పొందుతూ	-10.6074
ముల	-10.6074
▁పరిశోధకులు	-10.6074
▁కనిపించిన	-10.6076
▁శేఖర్	-10.6077
▁క్యాప్	-10.6079
▁వేస్తే	-10.6083
▁ప్రసంగం	-10.6083
64	-10.6086
గ్ర	-10.6087
▁చిన్నారుల	-10.6088
▁ప్రయాణిస్తున్న	-10.6089
లిగ	-10.6091
▁బలగాల	-10.6094
▁స్కీం	-10.6095
▁పార్కు	-10.61
▁డోర్	-10.6102
▁ఫ్ర	-10.6103
▁స్పూన్	-10.6105
ాపురం	-10.6107
▁పడ్డాయి	-10.6108
▁F	-10.611
▁తీర్చిదిద్ద	-10.611
న్నర	-10.611
74	-10.6112
▁కట్టడి	-10.6117
▁ఏజెంట్	-10.6118
▁అఖిల	-10.6118
వద్దు	-10.6119
పరి	-10.6123
▁ప్రమోషన్	-10.6124
▁అన్నాడు	-10.6126
▁57	-10.6127
▁ఆనందంగా	-10.6128
▁ఉంచి	-10.6131
్యూ	-10.6133
▁పరిగణించ	-10.6133
పరంగా	-10.6134
ୋ	-10.6135
▁ఈశాన్య	-10.6135
▁కులగణన	-10.6135
▁రాఖీ	-10.6136
▁ఆఫ్రికా	-10.6137
▁మహమ్మద్	-10.6137
400	-10.6138
▁లంక	-10.6138
▁నెట్టింట	-10.6138
విన్	-10.6141
▁అసెంబ్లీకి	-10.6144
▁వినిపించ	-10.6147
▁భావిస్తారు	-10.6148
▁అమృత్	-10.6149
పడ్డ	-10.615
▁ఉంటా	-10.6152
▁బంధం	-10.6153
▁తాత	-10.6153
ుతాయి	-10.6154
▁అద్దె	-10.6155
దారులు	-10.6161
▁సమర్పించారు	-10.6161
▁అల్లం	-10.6163
▁వెల్లడించ	-10.6166
▁రెడ్డిపై	-10.6166
▁ప్రతిరోజ	-10.6178
▁బృందాలు	-10.618
రాల	-10.6186
▁అనుకున్నారు	-10.6189
▁కేజీ	-10.6195
▁ఎదుర్కొన్న	-10.6196
▁పర్సనల్	-10.6202
▁కరెన్సీ	-10.6202
▁క్యాచ్	-10.6203
భి	-10.6205
▁వ్యాయామం	-10.6205
▁లేకుంటే	-10.6205
▁అహ్మదాబాద్	-10.6206
▁కొనియాడారు	-10.6206
▁సీతారామన్	-10.6207
స్తాయి	-10.6209
▁బలి	-10.621
▁చర్మ	-10.6214
యినా	-10.6214
▁సిపి	-10.6215
▁వింత	-10.6216
ణం	-10.622
▁వీడి	-10.6221
ಹ	-10.6221
▁ప్రాంతాన్ని	-10.6222
▁రెట్లు	-10.6222
▁పలుమార్	-10.6223
▁నిర్వహించింది	-10.6224
ుండడంతో	-10.6224
రాలు	-10.6232
43	-10.6236
పూ	-10.6237
▁جس	-10.6243
▁అవిశ్వాస	-10.6245
▁స్టడీ	-10.6246
▁చెట్లు	-10.6246
▁బౌలర్లు	-10.6247
▁پی	-10.6249
▁సహాయంతో	-10.6251
దారుల	-10.6252
ాలనుకునే	-10.6252
47	-10.6256
▁ଏ	-10.6257
▁600	-10.6258
చంద్ర	-10.6259
▁సూర్యుడి	-10.6263
▁పెద్దల	-10.6264
▁వెంకటేశ్	-10.6266
▁وال	-10.6267
▁ఆకస్మిక	-10.6269
▁గజ్వేల్	-10.6269
▁నితీశ్	-10.6269
▁సర్వీసెస్	-10.6269
▁రాళ్లు	-10.627
.500	-10.627
▁ఆదిత్యనాథ్	-10.627
ంచీ	-10.6271
▁మారిపోయింది	-10.6271
▁చివర్లో	-10.6271
▁అప్లై	-10.6271
▁షాకింగ్	-10.6272
▁మండిపడుతున్నారు	-10.6273
▁నివేదికలు	-10.6276
78	-10.6276
▁సూర్యుడు	-10.6276
▁మండి	-10.6279
▁కోరిన	-10.6282
▁కిలోమీటర్లు	-10.6283
▁మంగళ	-10.6287
▁న్యాయవాదులు	-10.6288
▁కస్టమర్	-10.6288
▁తీసుకుంటారు	-10.6288
स	-10.6289
బీజేపీ	-10.629
్లా	-10.629
▁కక్ష	-10.6291
▁అవుతూ	-10.6292
▁పాడి	-10.6293
బడిన	-10.6294
ెస్	-10.6296
▁వాయిస్	-10.6298
▁తీస్త	-10.63
▁నిజ	-10.6301
▁నర్	-10.631
కాలు	-10.6311
37	-10.6316
▁59	-10.6319
▁వేడుకల్లో	-10.6322
▁ఆనంద	-10.6328
42	-10.6328
▁భగీరథ	-10.6337
▁మునుగోడు	-10.6337
▁బహుమతి	-10.6337
▁చేస్తూనే	-10.6337
▁సెప్టెంబరు	-10.6339
▁పచ్చి	-10.6341
▁సలార్	-10.6343
▁తగ్గడం	-10.6344
▁తాక	-10.6346
▁అనిపిస్తుంది	-10.6347
▁టా	-10.6348
▁కావచ్చు	-10.6349
▁వాళ్లను	-10.635
▁జగదీశ్	-10.635
▁గంగ	-10.635
▁ఎవర	-10.6351
▁పూట	-10.6352
▁కపూర్	-10.636
▁అయిదు	-10.636
▁చేయాలన్న	-10.6364
ివే	-10.6364
▁ముక్కు	-10.6366
▁మల్లు	-10.6377
▁ఆపై	-10.6377
ుతారు	-10.6381
▁నోరు	-10.6382
▁వాస్తవ	-10.6382
ಾಗ	-10.6384
చేసి	-10.6389
▁ఉదాహరణకు	-10.6389
మూర్తి	-10.6392
▁కూర్చున్న	-10.6394
▁వాటిపై	-10.6396
▁175	-10.6397
▁అడ్డ	-10.6397
▁మిలియన్ల	-10.6397
▁శారీరక	-10.6397
స్తుందని	-10.6398
ంటారు	-10.6403
▁ఉస్మానియా	-10.6405
▁బ్యాక్టీరియా	-10.6405
▁వేరియంట్	-10.6405
▁రష్మిక	-10.6405
▁నితీష్	-10.6406
▁గుప్పించారు	-10.6408
వాలి	-10.6409
▁జోష్	-10.6411
▁పెద్దిరెడ్డి	-10.6412
▁టెస్టులో	-10.6412
▁సొంతంగా	-10.6416
▁చెందింది	-10.6417
06	-10.6418
▁ఉండొచ్చని	-10.6419
పడ్డారు	-10.6419
76	-10.6421
▁డిపో	-10.6421
తనం	-10.6423
re	-10.6433
▁దీనిలో	-10.6434
పల్లిలో	-10.6435
▁ನಲ್ಲಿ	-10.6435
▁రచ్చ	-10.6435
la	-10.6445
▁ఉత్సవాలు	-10.6446
ధుల	-10.645
▁स	-10.6452
▁అమ్ముతున్న	-10.6456
మయ్య	-10.646
▁పిండి	-10.6462
నన్నారు	-10.6462
▁తరలిస్తున్న	-10.6462
▁రం	-10.6467
▁చేసినప్పుడు	-10.647
▁చెట్ల	-10.6471
▁అక్కడికక్కడ	-10.6473
▁ఖరీదైన	-10.6473
▁తుఫాను	-10.6473
▁రాథోడ్	-10.6473
▁సబ్సిడీ	-10.6473
▁సెక్టార్	-10.6473
▁పల్నాడు	-10.6473
▁పొరుగు	-10.6474
▁డిసెంబరు	-10.6474
▁ఊపిరి	-10.6475
▁చేశానని	-10.6476
▁విస్తరించ	-10.6477
భారత	-10.6479
▁చేరుకొని	-10.648
▁యంత్రాంగం	-10.648
▁మార్పిడి	-10.6481
▁శివారులో	-10.6482
▁చెప్పాల్సిన	-10.6488
▁ధోని	-10.6489
▁పేసర్	-10.649
▁మేనిఫెస్టోలో	-10.6491
▁మరణాల	-10.6493
▁ఎన్నికైన	-10.6494
▁పడితే	-10.6499
▁పనుల్లో	-10.6501
▁గారి	-10.6501
తాం	-10.6501
▁పోరాట	-10.6506
▁గుండెపోటు	-10.6506
▁మామ	-10.6508
▁విధుల	-10.6512
▁రహదారి	-10.6516
▁డైలాగ్	-10.6517
▁పెట్టుకున్నారు	-10.6519
▁కాల్చి	-10.6519
▁లెవల్	-10.652
▁నెలకొల్ప	-10.6522
▁రాయి	-10.6526
కింగ్	-10.6526
▁వాడకం	-10.6531
ರಿ	-10.6536
▁అందిన	-10.654
▁స్నేహితుల	-10.6542
▁ఫేమస్	-10.6542
▁మినహాయింపు	-10.6542
▁వీలైనంత	-10.6542
▁కూకట్	-10.6542
▁దక్షిణాది	-10.6542
▁కల్పన	-10.6542
▁చేవెళ్ల	-10.6542
▁డీఎస్సీ	-10.6545
▁కలిగిస్తుంది	-10.6545
డబ్ల్యూ	-10.6547
ధ్య	-10.6549
▁పెంచారు	-10.6552
ఇక	-10.6554
▁ఆటగాళ్ల	-10.6555
▁వాగు	-10.6558
▁ఇంగ్లీష్	-10.6558
▁కనిపించాయి	-10.6559
ేశ	-10.656
▁మినీ	-10.656
▁రకమై	-10.656
▁భావించిన	-10.656
▁వీటికి	-10.6561
▁ఎడమ	-10.6564
▁పరిశ్రమలో	-10.6564
▁ప్రీత్	-10.6564
▁తిరస్కరించ	-10.6564
అక్టోబర్	-10.6564
▁వెళ్తే	-10.6564
▁లక్ష్య	-10.6565
▁నడుస్తున్న	-10.6565
సిన్	-10.6567
▁గెస్ట్	-10.6567
కరంగా	-10.6567
▁కోణంలో	-10.657
▁టె	-10.6572
and	-10.6574
▁కార్యకలాపాలు	-10.6577
▁గుండెపోటుతో	-10.6579
▁వేస్తున్న	-10.6581
గత	-10.6585
▁పాటలు	-10.6585
▁బ్యా	-10.6588
▁యూనిట్ల	-10.6589
▁ప్రారంభంలో	-10.659
▁నిర్	-10.6593
▁ఫండ్	-10.6593
▁58	-10.6594
ుకోండి	-10.6597
త్వ	-10.6598
▁చెన్నైలో	-10.6602
▁తరుపున	-10.6612
▁ప్రిన్సిపల్	-10.6612
▁చమురు	-10.6612
▁పుష్కలం	-10.6612
▁సోలార్	-10.6612
▁ఆద్మీ	-10.6612
▁రెండూ	-10.6614
▁మాట్లాడుతున్నార	-10.6617
▁అందిస్తోంది	-10.6618
▁పంచుకున్నారు	-10.6619
▁పెట్టుకొని	-10.662
▁జరగలేదు	-10.6621
▁యోగీ	-10.6622
యత్	-10.6624
▁చట్టాల	-10.6629
ಡ	-10.6629
▁నవ్వ	-10.6629
▁తీసుకుంట	-10.6631
తెలంగాణ	-10.6634
▁ప్రేక్షకులను	-10.6637
ందంటే	-10.6642
▁వర్గాలకు	-10.6644
▁బండ్	-10.6648
▁కోరుకున్న	-10.665
▁ముగించ	-10.6654
▁వేడుకల	-10.6654
▁ఆలయాన్ని	-10.6654
టెడ్	-10.6655
▁టీచర్ల	-10.6657
▁హబ్	-10.6662
▁దాటిన	-10.6664
▁చార్	-10.6665
థి	-10.6667
▁అనారోగ్యం	-10.6671
▁ఉండేవి	-10.6673
▁స్ఫూర్తి	-10.6676
▁కిందకు	-10.6677
▁వృషభ	-10.6681
▁దివ్య	-10.6682
▁జనార్దన్	-10.6682
▁రోజువారీ	-10.6682
▁ముగిసే	-10.6682
▁ఆర్డీవో	-10.6682
▁పనిచేస్తున్నారు	-10.6683
వాల	-10.6685
▁ఆకర్షించ	-10.6685
తర	-10.6685
▁తాగి	-10.6686
▁కాకా	-10.6689
▁హస్తం	-10.669
▁ఉండవు	-10.669
తుల	-10.6693
▁అడిగారు	-10.6694
▁వ్యాపారి	-10.6695
▁టిక్కెట్లు	-10.6699
▁అనిపించింది	-10.6699
▁సందర్శించారు	-10.6704
▁ఆక్రమించ	-10.6705
▁కార్తీక్	-10.6706
▁మహిళను	-10.6707
▁కౌ	-10.671
బోతోంది	-10.671
▁కన	-10.6712
▁సచివాలయ	-10.6714
▁అప్రమత్తం	-10.6715
▁ఓటర్లను	-10.6716
నెల	-10.6718
▁రేసులో	-10.6719
ya	-10.6723
రల్	-10.6723
▁చేయబోతున్న	-10.6723
డానికే	-10.6727
▁మార్చే	-10.673
▁నడవ	-10.6733
▁ప్రయోగించ	-10.6734
▁AI	-10.6735
▁ఉత్పత్తుల	-10.6739
▁J	-10.6742
▁కంపెనీకి	-10.6743
त	-10.6744
ಣ	-10.6752
▁ఇంజనీరింగ్	-10.6752
▁ఎట్టకేలకు	-10.6752
▁టూరిజం	-10.6752
▁సిసోడియా	-10.6752
▁గిఫ్ట్	-10.6752
▁పరిషత్	-10.6752
▁పిలిచి	-10.6752
▁రజనీకాంత్	-10.6752
▁సైకిల్	-10.6752
▁విలన్	-10.6752
▁బుకింగ్	-10.6753
కలు	-10.6753
▁రహస్య	-10.6754
▁వేసుకుని	-10.6754
▁లైవ్	-10.6754
▁ఆర్ఎస్	-10.6755
▁సకాలంలో	-10.6755
▁సృష్టించిన	-10.6755
▁సభల్లో	-10.6757
▁సమయాన్ని	-10.6757
▁ఉద	-10.6758
▁గెలుపొందారు	-10.676
▁2008	-10.676
▁నరసింహ	-10.676
▁కౌర్	-10.676
▁షి	-10.6761
▁అర్థ	-10.6761
▁పనికి	-10.6761
▁వ్యాఖ్యలను	-10.6763
▁250	-10.6764
▁E	-10.6766
▁ఇంట్లోనే	-10.677
▁దేవుడు	-10.6771
▁సముద్రం	-10.6773
▁କ	-10.6774
▁గందరగోళం	-10.6774
▁యూనివర్సిటీలో	-10.6774
▁వాస్తవం	-10.6774
▁కై	-10.6775
▁ఏళ్ళ	-10.6775
▁వెహికల్స్	-10.6775
హం	-10.6775
▁ہم	-10.6776
▁గెలిచే	-10.6779
▁నీట్	-10.6783
▁లాంటివి	-10.6786
▁గుర్తుకు	-10.6787
▁ముక్కలు	-10.6791
▁ఫ్లైట్	-10.6791
▁పరిధి	-10.6793
▁అవసరమని	-10.6797
▁వ్యాపారాల	-10.68
▁వేదికపై	-10.6807
సర	-10.6808
▁దెబ్బతిన్న	-10.6811
ائی	-10.6814
ఠ	-10.6818
▁ఇండియాకు	-10.6818
▁రాకపోవడంతో	-10.6821
▁నోటీసుల	-10.6821
▁అవకాశాన్ని	-10.6823
▁ఎగుమతి	-10.6823
▁రెస్క్యూ	-10.6823
▁విభిన్న	-10.6823
వరకూ	-10.6823
▁రాజగోపాల్	-10.6823
▁జయశంకర్	-10.6823
▁ہیں۔	-10.6823
▁అవసరమైతే	-10.6824
ర్థ	-10.6825
దేనని	-10.6826
▁తక్షణమే	-10.6826
▁యాడ్	-10.6827
▁జరుగుతాయి	-10.6829
▁ఏమి	-10.6832
▁స్థితి	-10.6833
▁కార్యక్రమాల	-10.6833
▁ముంపు	-10.6835
▁ఏమ	-10.6839
▁జరుగుతోందని	-10.684
ిస్తా	-10.6841
▁స్పై	-10.6841
▁ఐడీ	-10.6843
▁పాఠశాలలో	-10.6845
సెప్టెంబర్	-10.6847
▁ప్రమోషన్స్	-10.685
ించాడు	-10.6857
ాయా	-10.6857
▁విపక్షాల	-10.6859
్ర	-10.6859
పర	-10.6863
▁పల్లా	-10.6866
▁మాన	-10.6869
దన్న	-10.6872
▁సైనికుల	-10.6873
▁ఒక్కరు	-10.6875
▁సీన్స్	-10.6877
▁లాభ	-10.6881
▁బీఎస్	-10.6891
▁వడ్ల	-10.6893
మయ్యాయి	-10.6893
▁దయాకర్	-10.6894
▁కూర్చుని	-10.6894
▁తలసాని	-10.6894
▁వైఎస్ఆర్సీపీ	-10.6895
▁మన్మోహన్	-10.6895
▁సమావేశమయ్యారు	-10.6895
▁ఆర్మూర్	-10.6895
▁సమావేశాల	-10.6898
▁చర్చించి	-10.6898
▁గన్నవరం	-10.6898
▁సంతృప్తి	-10.6898
పూడి	-10.6899
▁రెడ్డితో	-10.69
▁ఉండాలంటే	-10.69
ండ్ర	-10.6901
▁పడవ	-10.6901
▁కోల్పోయింది	-10.6903
▁రిష	-10.6908
▁ఆవు	-10.6909
ాడా	-10.691
▁చెందుతున్నారు	-10.6913
▁ప్రశ్నించ	-10.6916
46	-10.692
అయితే	-10.6921
▁జెండర్	-10.6922
▁స్టైల్	-10.6924
▁పప్పు	-10.6925
at	-10.6926
▁د	-10.6926
▁ఫిబ్రవరిలో	-10.6927
▁అప	-10.6938
▁గ్రామాలకు	-10.6946
45	-10.695
▁నిర్వహించడం	-10.695
▁తెలంగాణా	-10.6952
ావు	-10.696
▁వచ్చా	-10.6963
▁بھی	-10.6966
▁జవహర్	-10.6966
▁ట్యాగ్	-10.6966
▁పురందేశ్వరి	-10.6966
▁ప్రజ్వల్	-10.6966
▁మెడిసిన్	-10.6966
▁సహకారంతో	-10.6967
▁బ్యాగ్	-10.6968
▁దొంగలు	-10.6971
▁భాగస్వామ్య	-10.6973
▁కేంద్రాలు	-10.6975
▁సానుకూలంగా	-10.6976
▁నివాసానికి	-10.6976
ురాలు	-10.698
ోళ్ల	-10.6982
▁రికార్డులు	-10.6984
▁స్పాట్	-10.699
లాన్	-10.6996
▁చెప్పడానికి	-10.6998
▁సభలు	-10.7004
▁నామినేషన్ల	-10.7005
▁ఇంట	-10.7005
▁అడవి	-10.7013
▁నిర్ణయ	-10.7014
▁ఒంటి	-10.7014
▁ప్రవేశపెట్టిన	-10.7028
▁నిబంధనలను	-10.703
▁పొందారు	-10.7032
▁దంపతుల	-10.7034
▁వివరించ	-10.7036
▁నేతగా	-10.7038
▁ہیں	-10.7039
యునైటెడ్	-10.7039
▁ساتھ	-10.7039
▁సూపరింటెండెంట్	-10.7039
▁దవాఖాన	-10.7039
▁ہوئے	-10.7039
▁అపాయింట్	-10.7039
▁కామెంట్లు	-10.704
▁ధ్వజమెత్తారు	-10.704
▁ఆరోగ్యకరమైన	-10.704
▁కనెక్ట్	-10.7041
▁స్టాఫ్	-10.7042
▁రోవర్	-10.7044
▁లేవ	-10.7046
▁వ్యవధి	-10.7046
▁ఏసీపీ	-10.7046
▁సంకేతాలు	-10.7049
▁కళ	-10.7049
▁భక్తి	-10.7054
నిక్	-10.7056
య్యాడు	-10.7059
▁కులం	-10.706
పింగ్	-10.706
▁మెట్	-10.7064
డిసెంబర్	-10.7064
కరమైన	-10.7066
▁కాలుష్య	-10.7067
▁వడ్లు	-10.7068
ఇప్పుడు	-10.7071
▁రూపొందించారు	-10.7072
▁సంబంధాల	-10.7072
▁కుమారి	-10.7075
▁దేవుడి	-10.7076
గె	-10.7077
▁ఓబీసీ	-10.7078
▁పరిశ్రమలు	-10.7078
▁గోవా	-10.7083
▁పచ్చ	-10.7085
ಪ	-10.7085
▁మౌ	-10.7094
▁సురక్షిత	-10.7095
04	-10.7095
▁మంత్రివర్గ	-10.7097
▁జరప	-10.71
क	-10.7102
▁పండ	-10.7104
ق	-10.7104
దార్	-10.7106
▁ఔట	-10.7112
▁చాంపియన్	-10.7112
▁నిర్ణీత	-10.7112
▁వైసిపి	-10.7112
▁వ్యాక్సిన్	-10.7112
ಭ	-10.7112
▁చదరప	-10.7112
▁రోజే	-10.7113
▁چ	-10.7114
▁టీఆర్ఎస్	-10.7114
▁ಎಂಬ	-10.7114
▁ప్రదీప్	-10.7115
▁రౌండర్	-10.7116
▁భారతీయుల	-10.7116
చీ	-10.7118
▁చెప్పాలంటే	-10.7119
▁సార	-10.712
▁ఇంట్లోకి	-10.7123
▁అభ్యర్థిని	-10.7127
▁రాజ్య	-10.713
▁దుస్తులు	-10.7133
▁అభిమాని	-10.7133
వంతు	-10.7133
▁తె	-10.7134
▁దాఖలై	-10.7135
▁నగరానికి	-10.7136
ح	-10.7137
▁జామ్	-10.7137
Y	-10.7138
▁సే	-10.714
ಿಸ	-10.714
▁సేవల	-10.7144
61	-10.7144
▁స్వీకరించ	-10.7148
▁64	-10.7151
▁ఏనుగు	-10.7153
టరీ	-10.7155
▁సేన	-10.7156
▁ప్రశ్నలకు	-10.7157
▁వదిలిపెట్ట	-10.7159
▁వ్యూహాల	-10.7159
is	-10.7164
ತ್ತ	-10.7166
▁బలగాలు	-10.7171
▁ఎందుక	-10.7171
▁కొట్టారు	-10.7175
▁ప్రేక్షకులు	-10.718
▁మకర	-10.718
▁అందంగా	-10.718
--	-10.7181
▁లైన్స్	-10.7181
▁కోచింగ్	-10.7185
▁డిఫెన్స్	-10.7185
▁షారుఖ్	-10.7185
▁సతీమణి	-10.7185
▁సర్జరీ	-10.7185
▁సుభాష్	-10.7186
▁ఇప్ప	-10.7186
▁పాలేరు	-10.7187
▁బేబీ	-10.7187
▁బాక్స్	-10.7189
▁పట్టా	-10.7194
▁పదార్థాల	-10.7195
▁ఖండించారు	-10.7196
▁మ్యాప్	-10.7199
▁ఉమ	-10.7199
▁జరుగుతున్నాయని	-10.72
▁ఉదయ్	-10.7202
▁వ్యవహరించిన	-10.7202
▁లాగ	-10.7203
▁సందేహం	-10.7204
▁స్వీకరించారు	-10.7205
▁కఠినంగా	-10.7208
▁ఆయ	-10.7212
▁విమానాలు	-10.7217
▁విశాఖలో	-10.7232
▁వ్యవధిలో	-10.7233
▁దిగువ	-10.7233
▁ఆశ్చర్య	-10.724
▁85	-10.7243
▁ఇప్పుడ	-10.7245
▁పురుషులు	-10.725
କୁ	-10.7252
▁ఏర్పడే	-10.7252
▁బృంద	-10.7258
▁2000	-10.7259
▁మార్చారు	-10.7259
ଳ	-10.7259
▁గద్దె	-10.7259
▁చొరవ	-10.7259
▁ఫార్ములా	-10.7259
▁నాటౌట్	-10.7259
▁ర్యాంక్	-10.726
▁షిండే	-10.726
▁ఫ్రంట్	-10.726
▁జీర్ణ	-10.726
▁ఐరన్	-10.7262
▁తీసుకురావాలని	-10.7262
▁కల్పిస్తామని	-10.7262
▁కృష్ణారావు	-10.7263
▁అందిస్తామని	-10.7264
▁సిద్ధమైంది	-10.7264
▁ఎమ్మెల్యేలను	-10.7264
▁పనిచేస్తుంది	-10.7266
▁ఆలోచనలు	-10.7266
▁నంద	-10.7267
▁కాదా	-10.7267
▁పరిష్కారానికి	-10.7267
ଟ	-10.7269
▁నిజమైన	-10.7271
▁సోదరి	-10.7273
▁చర్చి	-10.7275
▁మృతదేహం	-10.7276
▁అనుబంధం	-10.7276
▁పెళ్లికి	-10.7277
▁ఓకే	-10.7278
▁కార్యకర్తలకు	-10.7279
▁మాట్లాడుతున్న	-10.7279
▁జరగాల్సి	-10.728
▁కాద	-10.728
▁పడుతోంది	-10.728
▁తీరును	-10.7281
త్తి	-10.7282
▁కథనాలు	-10.7282
▁గడ్డ	-10.7282
▁వేగం	-10.7283
ేంద్ర	-10.7287
▁చిత్రాల	-10.7288
ముఖ	-10.7293
86	-10.7295
▁సెంచరీలు	-10.7297
త్రి	-10.7297
.45	-10.7301
ిగా	-10.7302
▁వివాదాల	-10.7308
▁ఎకరాలకు	-10.7311
▁హీ	-10.7311
▁హాని	-10.7322
▁అస్	-10.7322
▁సొ	-10.7323
▁బాల్స్	-10.7324
▁వెల్ల	-10.7328
ెట్	-10.7332
▁టీస్పూన్	-10.7334
▁డిస్కౌంట్	-10.7334
▁యూరప్	-10.7334
▁ప్రమేయం	-10.7334
▁బుల్లెట్	-10.7334
▁జరుపుకుంటారు	-10.7334
▁తిరుగుతూ	-10.7337
▁63	-10.7339
ేమో	-10.7342
గూడెం	-10.7346
▁కేటాయించింది	-10.7346
▁పావు	-10.7347
▁గాయ	-10.7348
▁చేరుకుంటారు	-10.7349
▁వైడ్	-10.735
▁రాజయ్య	-10.7352
▁పరిశీలిస్తున్న	-10.7353
▁పంపింది	-10.7355
ేంటి	-10.7355
పెట్టి	-10.7356
తానని	-10.7362
▁హే	-10.7364
▁తిరగ	-10.7364
పీఎస్	-10.7368
▁ఉదయ	-10.737
▁కాంట్రాక్టర్	-10.7372
▁అరి	-10.7374
▁అర్హుల	-10.7374
శీ	-10.7375
▁భార్యను	-10.7375
▁سو	-10.7379
▁మలుపు	-10.7379
▁నాయకులను	-10.7384
▁చుట్ట	-10.7388
▁ఆవరణలో	-10.7392
ివ్	-10.7392
▁రాణించ	-10.7392
▁ସ	-10.7395
▁భారతీయులు	-10.74
హీ	-10.7405
వడంతో	-10.7408
▁సంతరించుకుంద	-10.7409
▁ఇన్సూరెన్స్	-10.7409
▁ప్రీమియర్	-10.7409
▁తలనొప్పి	-10.7409
▁శివసేన	-10.741
▁తప్పులు	-10.741
▁ఉంచుకుని	-10.7411
▁చేశామన్నారు	-10.7412
▁కలపాలి	-10.7412
▁కార్డుల	-10.7412
▁వెంకటరెడ్డి	-10.7412
▁యోజన	-10.7412
▁పోస్టుమార్టం	-10.7413
▁హోలీ	-10.7413
▁స్థానాన్ని	-10.7414
▁ప్రయత్నిస్త	-10.7415
▁సాధిస్తారు	-10.7416
▁గెలుస్త	-10.7417
▁ఇష్టపడ	-10.742
▁ప్రారంభించనున్న	-10.7421
▁బలవంతంగా	-10.7422
▁దూకుడు	-10.7423
▁తెరపైకి	-10.7423
▁తెప్పించ	-10.7425
▁కొట్టింది	-10.7433
▁తక్షణ	-10.7433
▁లేదంటూ	-10.7437
▁పరిరక్షణ	-10.7438
ున్నారని	-10.7441
▁అర్ధ	-10.7441
థ్	-10.7442
▁వ్యాపారాలు	-10.7445
▁పిల్లలతో	-10.7446
ిల్	-10.7446
▁బయటి	-10.7447
▁సహకార	-10.7449
▁ఆగి	-10.7453
దిగా	-10.7453
▁ఉపయోగించే	-10.7462
▁వీటితో	-10.7465
▁కష్టంగా	-10.7465
▁ఎన్నికలను	-10.7466
తంగా	-10.7467
రిక	-10.7472
▁రావాల్సిన	-10.7477
జ్ఞ	-10.7478
▁కలెక్టర్లు	-10.7479
▁టెంపుల్	-10.7485
▁డిక్లరేషన్	-10.7485
▁సింహరాశి	-10.7485
▁లంచం	-10.7485
▁క్లియర్	-10.7485
▁తీసుకువెళ్ల	-10.7485
▁ఫ్లో	-10.7487
▁ధరించి	-10.749
▁మోప	-10.7491
▁కేటాయించాలని	-10.7493
▁ଉ	-10.7494
▁ఏడాదిలో	-10.7495
▁రికార్డును	-10.7497
il	-10.7498
▁తిట్ట	-10.7499
▁సీట్లను	-10.75
▁సరిపో	-10.7502
▁జరిగాయని	-10.7503
▁ఆదేశించ	-10.7504
▁నిర్వహించేందుకు	-10.7507
ట్లయితే	-10.7507
▁మానసికంగా	-10.7509
▁వినిపిస్తున్న	-10.751
యితే	-10.751
▁పట్టుకున్న	-10.7511
▁షాపు	-10.7511
▁క్షమాపణలు	-10.7513
▁చింత	-10.7514
▁బీసీల	-10.752
▁పాఠశాలల్లో	-10.7521
▁జోరు	-10.7523
▁కంపెనీలకు	-10.7523
యస్	-10.7525
▁యూకే	-10.7527
▁పెట్టేందుకు	-10.7527
▁ప్రసాదం	-10.7527
▁మైన	-10.7529
▁రైలును	-10.753
▁నివాస	-10.7532
▁పొందే	-10.7533
▁వాళ్ళు	-10.7535
ంచుకో	-10.7537
▁సెమీ	-10.7543
▁నష్టపోయిన	-10.7543
▁గురుకుల	-10.7545
▁U	-10.7548
మొ	-10.7549
▁తేజ	-10.755
ాన్	-10.7554
▁ఫార్మాట్	-10.7554
▁సన్నిహిత	-10.7557
▁అస్వస్థత	-10.7561
▁డ్రైవింగ్	-10.7561
▁దిగుబడి	-10.7561
▁వెల్లుల్లి	-10.7561
▁హ్యాట్రిక్	-10.7561
▁అదేవిధంగా	-10.7563
▁మల్టీ	-10.7563
▁కర్మ	-10.7563
▁నెరవేర	-10.7564
▁అత్త	-10.7564
▁దుండగులు	-10.7565
▁విధుల్లో	-10.7565
▁విద్యార్థులను	-10.7567
▁సమస్యలకు	-10.7567
▁ఫల	-10.7569
▁చేయాలో	-10.7569
▁బాత్	-10.757
▁మారిందని	-10.7571
▁మమతా	-10.7572
▁రివర్స్	-10.7574
▁53	-10.7583
▁ఆరంభం	-10.7584
రేషన్	-10.7585
▁రకాలుగా	-10.7586
▁చేస్తున్నాం	-10.7587
▁అత	-10.7593
వార్	-10.7599
హర్	-10.7599
▁కూరగాయలు	-10.7601
▁ప్రాతిపదికన	-10.7602
ించాలని	-10.7602
▁సంస్థలకు	-10.7604
▁శ్రావణ	-10.7605
▁అవసరమ	-10.7607
ామ	-10.7611
గీ	-10.7612
▁వెహికల్	-10.7613
▁నిధి	-10.7617
▁ఆడి	-10.7617
▁చేస్తోన్న	-10.7619
లియన్	-10.762
▁ప్రముఖుల	-10.7621
ానంద	-10.7622
▁O	-10.7622
▁విజ	-10.7625
ెల	-10.7626
▁సేకరించిన	-10.7626
గొ	-10.7626
▁స్థలాల	-10.7627
94	-10.7628
▁66	-10.7628
55	-10.7632
▁ఆకుల	-10.7632
▁ట్రా	-10.7633
▁వీలుగా	-10.7635
వ్వడం	-10.7637
▁చెబితే	-10.7638
▁పుణ్య	-10.7638
▁హసీనా	-10.7638
▁రిలయన్స్	-10.7639
▁రాజాసింగ్	-10.7639
▁కిసాన్	-10.7642
▁అవార్డులు	-10.7644
▁విమానాశ్రయం	-10.7645
▁జాతకులు	-10.7645
▁ప్రసంగ	-10.7646
▁వదిలేసి	-10.7646
▁కెప్టెన్సీ	-10.7652
▁బుధ	-10.7655
▁ప్రస్తావించ	-10.7655
▁దోచ	-10.7655
▁నిలుస్త	-10.7656
▁చేపట్టి	-10.766
గుల	-10.7666
కెప్టెన్	-10.7668
▁కాళ్లు	-10.7671
▁వాడీ	-10.7674
రుగు	-10.7674
▁రాములు	-10.7675
▁వాసులు	-10.7677
▁నదిలో	-10.768
▁బుద్ధ	-10.7684
▁సెక్షన్ల	-10.7685
▁కాంట్రాక్టు	-10.7686
▁నిర్వ	-10.769
▁జవాన్	-10.769
▁బోర్	-10.7694
▁ఓటీటీలో	-10.7694
▁చేపడుతున్న	-10.7697
▁సేల్	-10.7698
▁సాగుతున్న	-10.7701
▁ఇళ్లలో	-10.7703
దర్శించుకున్నారు	-10.7704
تا	-10.7706
53	-10.7707
నాటి	-10.7708
▁ఉద్యమంలో	-10.7708
ందరి	-10.7713
▁కష్టమే	-10.7713
▁అనర్హత	-10.7716
▁దుబ్బాక	-10.7716
▁ప్రోటీన్	-10.7716
▁కలయిక	-10.7716
▁యాసిడ్	-10.7716
▁సాయుధ	-10.7716
▁ఓటరు	-10.7716
▁ధర్మపురి	-10.7716
▁తీరం	-10.7716
▁సీఈఓ	-10.7716
▁బాపట్ల	-10.7716
▁ఐఫోన్	-10.7717
వతి	-10.7717
▁వెంకటేష్	-10.7717
▁కాసేపు	-10.7717
▁ఆరోపించింది	-10.7718
▁పోస్టల	-10.7718
▁బాధితురాలి	-10.7718
▁ఓడిపోయారు	-10.7718
▁ఎకరా	-10.7719
▁జైపూర్	-10.7719
▁వీరంతా	-10.772
.75	-10.7723
▁ఉరుములు	-10.7724
▁అభిప్రాయాల	-10.7725
▁బస్సుల	-10.7726
▁బావ	-10.7726
▁మృతదేహాలను	-10.7728
▁భవనాలు	-10.773
▁పంటల	-10.7732
▁ఎల	-10.7732
▁విప్	-10.7735
సింది	-10.7736
▁పోయి	-10.7738
▁99	-10.7745
▁ఉపాధ్యాయ	-10.775
ారనేది	-10.7752
▁తిరుగుబాటు	-10.7753
▁గురై	-10.7754
పోయారు	-10.7755
కారు	-10.7757
ారాయన	-10.7758
▁ఆయనే	-10.7759
▁గ్ర	-10.7759
▁62	-10.776
ch	-10.777
▁కోర్	-10.777
లేకపోయింది	-10.7772
ిస్తాయి	-10.7774
▁ప్రతిపాదనలు	-10.7775
▁గది	-10.7775
52	-10.7777
▁రాముడి	-10.7783
▁పాల్గొనే	-10.7784
▁సూచించ	-10.7785
▁అభిమానులను	-10.7791
▁ముద్రగడ	-10.7793
ो	-10.7793
▁గ్రాడ్యుయేట్	-10.7794
▁డ్యామ్	-10.7794
▁పిన్నెల్లి	-10.7794
▁రౌడీ	-10.7795
▁రాజేష్	-10.7797
టప్పుడు	-10.7797
▁అంతకంటే	-10.7797
▁పాల్గొననున్నారు	-10.7798
▁అస్సల	-10.7798
▁బాగుంటుంది	-10.78
▁మాదిరిగా	-10.78
▁టైటాన్స్	-10.7804
▁భయాందోళన	-10.7804
▁చేయాలంటే	-10.7804
▁రక్తంలో	-10.7805
▁లబ్దిదారుల	-10.7806
09	-10.7809
▁హృదయ	-10.7809
ాభివృద్ధి	-10.7809
▁సిద్ద	-10.7812
▁ఏడో	-10.7814
రాష్ట్ర	-10.7816
▁సినిమాలకు	-10.7818
▁ఊరి	-10.7818
▁ఒకరోజు	-10.7819
▁సాధ	-10.7821
▁అవినీతికి	-10.7822
▁లీడర్ల	-10.7822
▁మంటలను	-10.7823
▁రాబోతున్న	-10.7823
▁లిస్టులో	-10.7824
▁ఉపవాసం	-10.7828
▁కేంద్రాన్ని	-10.7829
▁వీడియోలను	-10.7832
▁విత్	-10.7832
▁ప్యాక్	-10.7832
▁బయటపెట్ట	-10.7834
▁77	-10.7838
تی	-10.7841
కాయ	-10.7841
▁చైనాలో	-10.7842
▁హేమ	-10.7842
▁కత్తితో	-10.7843
▁తవ్వ	-10.7845
ش	-10.785
▁ప్రస్తుతానికి	-10.785
▁హైద	-10.7851
▁టవర్	-10.7852
▁నాలా	-10.7852
▁నిరుద్యోగులు	-10.7852
▁నిలబడి	-10.7855
96	-10.7857
▁అధికారులపై	-10.7862
ంచిన	-10.7863
▁ప్రారంభించి	-10.7864
▁అభిమానులకు	-10.7866
▁నాయకత్వంలో	-10.7866
మల్	-10.7867
▁పట్టాల	-10.7868
ु	-10.7873
▁అగ్రికల్చర్	-10.7873
▁అమితాబ్	-10.7873
▁చారిత్రక	-10.7873
▁తరచుగా	-10.7873
▁రిక్రూట్	-10.7873
▁శాటిలైట్	-10.7873
▁మిర్చి	-10.7873
▁బాలినేని	-10.7873
▁రామగుండం	-10.7873
▁యాంకర్	-10.7873
▁ముర్ము	-10.7873
▁మైండ్	-10.7874
▁ఉంటుందన్నారు	-10.788
▁అరటి	-10.7881
ఒక	-10.7881
▁కళా	-10.7881
చ్చు	-10.7881
67	-10.7882
▁దుర్వినియోగం	-10.7882
▁మిర్యాలగూడ	-10.7882
▁వెల్లడించాయి	-10.7884
▁నిర్మాతలు	-10.7885
▁కప్పి	-10.7886
▁పరిశీలన	-10.789
▁సదుపాయాలు	-10.7893
▁గుర్తించడం	-10.7896
▁ఎండలు	-10.7896
▁మోటార్	-10.7897
▁సేల్స్	-10.7899
▁ప్రాజెక్టులో	-10.79
▁అస్సాం	-10.79
▁సంగ	-10.7901
▁భారతి	-10.7902
▁రహదారిపై	-10.7903
▁శుభ్	-10.7903
▁విశేష	-10.7904
▁ఇచ్చినా	-10.7906
సాయి	-10.7907
es	-10.7908
▁మార్గ	-10.7908
▁سر	-10.7914
▁అభిప్రాయాలు	-10.7916
▁సూచనల	-10.7917
▁తీసుకోవాల్సి	-10.7919
ున్నా	-10.792
▁ఎంపీల	-10.7922
▁ఆడాడు	-10.7928
▁గుర	-10.7929
▁నామ	-10.7931
▁తెరిచి	-10.7933
ాయనే	-10.7933
▁సలహాలు	-10.7935
▁W	-10.7938
ెస్ట్	-10.7941
▁ప్రకటించే	-10.7947
▁మళ్లించ	-10.7951
▁ఇదొక	-10.7952
▁ఫెడరేషన్	-10.7952
▁బల్దియా	-10.7952
▁సస్పెన్షన్	-10.7952
▁పురాతన	-10.7952
▁గణపతి	-10.7952
▁మిచెల్	-10.7952
▁నడక	-10.7953
▁రిలేషన్	-10.7953
▁వేగవంతం	-10.7953
▁విమెన్	-10.7955
▁ప్రయోగ	-10.7955
▁కోట్లను	-10.7955
▁భాగంలో	-10.7957
ేతర	-10.796
▁కనపడ	-10.7963
▁ఉన్నామని	-10.7963
▁వంగ	-10.7965
లేమని	-10.7966
▁మైదానంలో	-10.7968
యాన్ని	-10.7969
ంటో	-10.797
▁సంక్షోభం	-10.7972
రమ	-10.7973
్రు	-10.7976
రాం	-10.7977
▁పర్యటించ	-10.7978
▁పార్	-10.7979
▁వర్	-10.7982
కాంగ్రెస్	-10.7985
▁కౌలు	-10.7986
▁కూల్	-10.7988
▁ఓవర్లో	-10.7989
▁వస్తువు	-10.799
▁మునిగి	-10.7992
ధ్	-10.7992
దీప్	-10.7993
▁లాండ్	-10.7995
▁కాలేజీల్లో	-10.7996
لی	-10.7997
▁విపక్షాలు	-10.7997
పోయాడు	-10.7998
కండి	-10.8001
▁ఇంజనీర్	-10.8002
▁క్షమాపణ	-10.8002
▁ఇంధన	-10.8007
▁పార్లమెంటులో	-10.8009
▁స్వాతంత్ర్య	-10.801
ింత	-10.801
▁ఎత్తులో	-10.8017
▁కుప్పం	-10.8022
69	-10.8022
▁హింసాత్మక	-10.8025
▁బూ	-10.8026
▁చెప్త	-10.8026
▁జరిప	-10.8026
-19	-10.8029
▁వెళ్తున్నారు	-10.803
x	-10.8032
ଛି	-10.8032
▁video	-10.8032
▁అగ్నిమాపక	-10.8032
▁క్రితమే	-10.8032
▁నెక్స్ట్	-10.8032
▁పెవిలియన్	-10.8032
▁మార్కెటింగ్	-10.8032
▁విముక్తి	-10.8032
▁సీక్వెల్	-10.8032
▁షురూ	-10.8032
▁ఆర్ధిక	-10.8032
▁జర్నీ	-10.8032
▁సీసీటీవీ	-10.8032
▁చేనేత	-10.8032
▁వేముల	-10.8033
▁వినయ్	-10.8035
▁చూపిస్త	-10.8038
▁మిశ్రా	-10.804
▁కోడి	-10.8041
▁బజార్	-10.8041
▁వెంకటేశ్వర్లు	-10.8042
▁వైభవంగా	-10.8043
▁తెరకెక్కించిన	-10.8044
▁బానిస	-10.8045
▁నెలకొన్నాయి	-10.8045
▁అన్నం	-10.8046
▁సార్	-10.8047
▁గాలులు	-10.8049
▁ఎదుర్కోవాల్సి	-10.8049
▁తెచ్చారు	-10.8061
▁ముహూర్తం	-10.8064
▁అందింది	-10.8065
▁ఆరోపణ	-10.8066
▁స్టూడెంట్ల	-10.8069
▁ఇళ్లను	-10.8073
▁చేయడంపై	-10.8074
పేరు	-10.8074
ట్లేదు	-10.8075
▁మూ	-10.8076
▁కావాలనే	-10.8077
▁విడిచి	-10.8079
▁సొమ్ము	-10.8081
▁కస్టడీకి	-10.8084
నాలు	-10.8084
▁తగ్గిన	-10.8085
కుపైగా	-10.8086
st	-10.8086
▁ఎలక్ట్రానిక్	-10.8087
▁తెచ్చుకున్న	-10.809
▁నిరుద్యోగులకు	-10.8091
▁చక్క	-10.8091
▁మైనారిటీ	-10.8093
▁మార్చిలో	-10.8096
▁సభను	-10.8099
▁వైద్యుల	-10.8103
▁దృశ్యాలు	-10.8105
ుడ	-10.8106
▁నార్	-10.8106
▁లబ్ధిదారుల	-10.811
▁అడ్వాన్స్	-10.8113
▁శిథిలాల	-10.8113
▁ఐక్యరాజ్యసమితి	-10.8113
▁మసాలా	-10.8113
▁ఆఖరి	-10.8113
▁దివంగ	-10.8113
▁ఉత్తరాంధ్ర	-10.8113
▁వేణుగోపాల్	-10.8116
ing	-10.8117
▁గాయపడ్డ	-10.8118
స్థాయి	-10.8118
▁2012	-10.8122
▁చేశారన్నారు	-10.8122
95	-10.8125
▁బెల్లం	-10.8126
శాల	-10.8126
▁పరిస్థితిలో	-10.8128
▁మేష	-10.8128
▁వసూళ్లు	-10.8132
స్టు	-10.8138
▁గ్యారంటీల	-10.8141
▁అధ్యక్షుడి	-10.8142
▁మలి	-10.8142
▁కొల	-10.8143
కారం	-10.8144
▁వ్యవహారంపై	-10.8148
▁గ్రామాలు	-10.8151
ాయ్	-10.8158
పెడుతున్న	-10.8159
▁నలుగురి	-10.8162
▁గనుల	-10.8165
▁రాకపోకల	-10.8165
▁యూజర్	-10.8169
▁گ	-10.8171
షు	-10.8172
▁సిటీలోని	-10.8176
▁భవన	-10.8176
ియా	-10.8178
▁బౌలర్ల	-10.8186
▁విచారించ	-10.8186
▁బాలికల	-10.8189
▁ఆలోచిస్త	-10.8192
డూ	-10.8193
▁دعویٰ	-10.8194
▁ఊరేగింపు	-10.8194
▁కమ్యూనికేషన్	-10.8194
▁నిదర్శనం	-10.8194
▁వ్యక్తమవుతున్న	-10.8194
▁మాఫియా	-10.8195
▁ఎన్నికయ్యారు	-10.8196
▁ముద్దు	-10.8196
▁యాక్టర్	-10.8197
▁సినిమాకి	-10.8197
▁మైక్రో	-10.8199
▁పొందవచ్చు	-10.8199
▁&	-10.8201
▁ఆర్టిఫిష	-10.8202
▁నీతి	-10.8202
▁డైట్	-10.8203
▁పరిష్కరించాలని	-10.8203
ین	-10.8205
▁భూషణ్	-10.8205
▁కొనసాగింది	-10.8206
ir	-10.8207
▁ముద్ద	-10.8209
ంపల్లి	-10.821
▁చాల	-10.8213
▁చెందాడు	-10.8215
▁లాగా	-10.8215
88	-10.8221
▁అవుతారు	-10.8221
▁పెరుగుతున్నాయి	-10.8222
▁మిగిలి	-10.8223
▁పడుతున్నాయి	-10.8226
▁రూపాయలుగా	-10.8227
్యు	-10.8227
▁ఉంద	-10.8229
▁నేపథ్యంలోనే	-10.8231
▁దొరికిన	-10.8239
▁ఎవ	-10.8251
▁విమానాశ్రయ	-10.8256
▁రైలులో	-10.8258
▁నై	-10.8263
▁పెట్టాడు	-10.8265
▁గేట్లు	-10.8267
▁ఒడిశాలో	-10.8269
▁నేనే	-10.8271
62	-10.8275
▁గచ్చిబౌలి	-10.8276
▁ట్విటర్	-10.8276
▁మాదాపూర్	-10.8276
▁క్రేజీ	-10.8276
▁పరారీలో	-10.8276
▁స్టార్టప్	-10.8276
▁ఉక్కు	-10.8276
▁చట్టపరమైన	-10.8276
▁మతపరమైన	-10.8277
▁లీగల్	-10.8277
▁రామచంద్ర	-10.8277
▁ఫేమ్	-10.8277
▁విరాళం	-10.8277
▁రాజేశ్వర్	-10.8278
▁వెళ్తుండగా	-10.8281
▁విని	-10.8283
▁కేఎల్	-10.8283
లకే	-10.8286
▁పరిశీలించిన	-10.8286
లెట్	-10.8287
▁స్పందించింది	-10.8288
▁జాతకులకు	-10.8288
▁తామే	-10.829
▁విల్	-10.829
▁కాదన్నారు	-10.8291
▁మంగ	-10.8291
▁మాసం	-10.8294
▁పదేళ్లు	-10.8297
▁తెలియజేస్తున్న	-10.8298
▁కావాల్సి	-10.8299
▁కల్పించడం	-10.8299
▁కమలా	-10.83
▁పనిచేస్త	-10.8301
▁పోషించారు	-10.8305
▁ఫైన్	-10.8307
51	-10.8309
▁చెరు	-10.8313
▁వచ్చేలా	-10.8314
▁ఎదురుగా	-10.8319
▁తీసే	-10.832
డిన	-10.832
ుందో	-10.8321
▁నిలిచి	-10.8321
ోల్	-10.8322
ెర్	-10.8325
▁వ్యాపారవేత్త	-10.8328
ాల్	-10.8334
▁బౌలర్లలో	-10.8336
పడిన	-10.8336
▁రఘు	-10.8337
:30	-10.8338
▁శుక్ర	-10.8338
▁దిన	-10.8339
▁స్ట్ర	-10.8341
నేను	-10.8341
▁ఇప్పుడే	-10.8344
▁వచ్చేది	-10.8345
▁సుఖ	-10.8347
▁మార్చ్	-10.8347
టూ	-10.8352
▁ప్లేట్	-10.8353
ందట	-10.8356
▁ఉద్దేశం	-10.8358
▁జరుగుతుందో	-10.8358
▁అత్యుత్తమ	-10.8359
▁అవినాశ్	-10.8359
▁ప్యాసింజర్	-10.8359
▁మాల్దీవుల	-10.8359
▁జగదీష్	-10.8359
▁బాబర్	-10.836
▁ఆఫ్ఘనిస్తాన్	-10.8361
▁పీహెచ్	-10.8361
▁కేడర్	-10.8361
▁క్యాష్	-10.8362
▁బాధితుడు	-10.8362
▁జోడీ	-10.8365
▁సాధించడం	-10.8368
▁విపరీతమైన	-10.8369
▁సెటైర్లు	-10.8369
▁మాంసం	-10.837
▁పరామర్శించారు	-10.8372
▁అంత్యక్రియలు	-10.8372
మనే	-10.8373
▁భార్యకు	-10.8373
▁తట్టుకోలేక	-10.8375
▁రుతుపవనాలు	-10.8377
▁మూవీస్	-10.8377
▁చట్టాన్ని	-10.8378
▁ప్రపంచానికి	-10.838
▁దిల్లీలో	-10.8388
▁నటిస్తున్నారు	-10.8391
ారావు	-10.8393
01	-10.8394
X	-10.8394
▁చట్టంలో	-10.8396
▁బీపీ	-10.8398
▁మంత్ర	-10.8398
▁గారు	-10.8399
▁వ్యక్తులను	-10.84
▁బస	-10.8401
▁బెదిరింపు	-10.8402
గ్రా	-10.8402
పుర	-10.8404
▁కూటమిలో	-10.8408
▁కవితకు	-10.8409
▁చెందుతున్న	-10.8411
దేవి	-10.8415
▁కెమెరాలు	-10.8416
క్యూ	-10.8418
వులు	-10.8419
▁తీసుకున్నారని	-10.8422
▁ట్	-10.8426
▁తల్లిదండ్రులకు	-10.8426
▁అంగ	-10.8427
▁వానలు	-10.8428
▁తర	-10.8434
▁అనూహ్య	-10.8434
▁వాళ్లే	-10.8434
త్రం	-10.8435
▁వివాద	-10.8436
▁ఫైల్	-10.8439
▁నాయ	-10.8439
▁ఆధారిత	-10.8442
▁నిఖిల్	-10.8442
▁లావణ్య	-10.8442
▁వెల్ఫేర్	-10.8442
▁యాదగిరి	-10.8442
▁దారుణం	-10.8442
▁దీర్ఘకాలిక	-10.8442
▁బోనస్	-10.8442
▁ర్యాంకు	-10.8442
▁ఛానల్	-10.8442
▁పల్లవి	-10.8444
▁మచిలీపట్నం	-10.8444
▁సంభవించింది	-10.8445
▁వాచ్	-10.8446
▁ప్రతాప్	-10.8449
▁కారణంతో	-10.8449
▁జరగలేదని	-10.8449
▁కేటగిరీ	-10.8451
▁చెయ్యడానికి	-10.8451
జిత్	-10.8453
▁ఇచ్చిందని	-10.8453
▁చేపలు	-10.8454
.35	-10.8456
ପ	-10.8457
▁విస్తృతం	-10.8459
▁అందించింది	-10.8462
▁వేయాలి	-10.8463
▁కాలేదని	-10.8465
▁గ్యారెంటీ	-10.8467
▁పటాన్	-10.8469
▁విభాగాల	-10.8472
▁వ్యవహరించారు	-10.8472
▁సంతాపం	-10.8474
▁ధర్మం	-10.8475
▁కార్యకర్తలను	-10.8477
▁కార	-10.8478
▁ముమ్మరం	-10.8481
నార్	-10.8483
▁ఫైనల్స్	-10.8487
మంటూ	-10.8493
83	-10.8499
▁వాయు	-10.85
ుకోవాల్సి	-10.8505
▁జరిగినా	-10.8507
ుతుంటే	-10.8508
▁అవసరాలకు	-10.8512
▁సాంకేతికత	-10.8512
▁మంగళగిరి	-10.8515
▁అబ్బాయి	-10.8519
▁అభిమాన	-10.8519
▁పౌరుల	-10.8521
▁వేయించ	-10.8521
▁ఇప్పటికైన	-10.8525
▁కైవసం	-10.8526
▁గోధుమ	-10.8526
▁ట్విస్ట్	-10.8526
▁నరేష్	-10.8526
▁అగర్వాల్	-10.8526
▁میڈی	-10.8526
▁ట్రావెల్	-10.8526
▁అందుకున్నారు	-10.8526
▁ఏంటని	-10.8526
▁చీకటి	-10.8527
▁జరగబోయే	-10.8527
▁సతీష్	-10.8527
▁పాండే	-10.8528
▁తెలుసుకునేందుకు	-10.8528
71	-10.8529
▁డీఎంకే	-10.8529
▁తాగితే	-10.853
▁ఉపయోగపడుతుంది	-10.8531
▁ఇస్తానని	-10.8532
▁మురళి	-10.8533
థా	-10.8533
▁అలానే	-10.8534
▁రుద్ర	-10.8535
▁ఆమోద	-10.8536
▁నియమించింది	-10.8537
తోనూ	-10.8537
▁పెరుగుతుందని	-10.854
▁చేయగల	-10.854
▁ప్రారంభోత్సవ	-10.8541
▁ఇష్టమైన	-10.8545
▁73	-10.8551
▁మంట	-10.8552
▁క్రికెటర్లు	-10.8553
ಡಿ	-10.8554
రికి	-10.8555
▁షాపుల	-10.8555
▁పెన్	-10.8557
▁జేసీ	-10.8559
-20	-10.856
▁పాలి	-10.8563
ఇండియా	-10.8563
▁ట్రక్కు	-10.8565
తుందో	-10.8567
జూన్	-10.8569
▁అవకాశాలను	-10.8569
▁పోస్టులను	-10.8571
▁వేతనం	-10.8575
▁చట్టాలు	-10.8575
▁భూములకు	-10.858
కన్	-10.8581
▁కార్యక్రమాలకు	-10.8581
▁కూడ	-10.8583
▁చేర్చారు	-10.8584
▁ఆశ్చర్యం	-10.8585
▁హోల్	-10.8588
▁ఒకటే	-10.859
▁ఉద్రిక్త	-10.859
చ్చిన	-10.859
ించాలి	-10.8591
▁కుంట	-10.8595
▁మండ	-10.8599
▁(1	-10.8601
▁పరిశోధనలు	-10.8601
▁నడుపుతున్న	-10.8606
▁విమానాశ్రయంలో	-10.8607
ض	-10.861
▁కెమెరాల	-10.861
▁تصویر	-10.8611
▁మల్కాజ్	-10.8611
▁రక్తపోటు	-10.8611
▁సెంటిమెంట్	-10.8611
▁హెచ్చరిస్తున్న	-10.8611
▁పరస్పర	-10.8611
ನಾವು	-10.8611
▁తుఫాన్	-10.8611
▁సూసైడ్	-10.8611
▁ఈవీఎం	-10.8612
▁వార్నర్	-10.8612
▁వివాదాలు	-10.8614
▁యోగ	-10.8616
▁హార్ట్	-10.8617
▁ఊర	-10.8617
li	-10.8618
▁స్నేహం	-10.862
▁మారారు	-10.8621
ur	-10.8621
▁అవే	-10.8621
▁సమాజ్	-10.8622
▁గంగుల	-10.8623
▁ఉండవచ్చు	-10.8623
▁జ్ఞాన	-10.8624
▁సాధించాడు	-10.863
డియా	-10.863
▁సేకరించి	-10.8633
▁నారాయణపేట	-10.8633
తమ	-10.8634
▁గుర్తించింది	-10.8636
▁సేన్	-10.864
ణీ	-10.8641
▁కలిసే	-10.8646
▁ఫోటోలను	-10.8649
73	-10.8651
▁ప్ల	-10.8651
మధ్య	-10.8658
▁క్యూసెక్కుల	-10.866
▁మొద	-10.8663
ంబర్	-10.8665
▁దంపతులకు	-10.8665
▁శ్రీరామ	-10.8665
▁స్థ	-10.8665
లక్ష్మి	-10.8673
▁చెల్లింపు	-10.8675
▁సర	-10.8682
▁వేధింపులకు	-10.8683
▁గ్రహించ	-10.8685
▁جان	-10.8687
▁శరీరంలోని	-10.8687
▁రాజ్యం	-10.8692
డంపై	-10.8695
▁తరలించి	-10.8696
▁అఫిడవిట్	-10.8696
▁క్యాంపస్	-10.8696
▁బంజారాహిల్స్	-10.8696
▁అనుమానాస్పద	-10.8696
▁ధాటి	-10.8696
▁వెంచర్	-10.8696
▁శ్రీలీల	-10.8697
▁అందుకోసం	-10.8697
▁వెళితే	-10.8697
ంజ్	-10.8697
▁ఏర్పడుతుంది	-10.8697
▁జోడో	-10.8698
▁బుధుడు	-10.8698
▁యశస్వి	-10.8699
▁గ్యాప్	-10.8699
75	-10.8699
▁దీపక్	-10.87
▁విశ్లేషకులు	-10.8702
▁వచ్చేసింది	-10.8703
▁తగ్గిస్తుంది	-10.8704
శ్చ	-10.8705
▁అద	-10.8706
▁అన్నింటి	-10.8706
▁తీసుకుంటూ	-10.871
▁డీప్	-10.871
lso	-10.8712
▁శరీరాన్ని	-10.8712
▁మారుతున్నాయి	-10.8715
న్నారని	-10.8716
లేకుండా	-10.8716
▁ఇప్పించ	-10.8719
బాయి	-10.872
▁కార్యాలయాల	-10.8722
▁పాత్రల్లో	-10.8725
టెక్	-10.8725
▁సర్వేలు	-10.8727
▁అందుకుంది	-10.8729
ెక్	-10.873
ున్నట్లు	-10.8733
▁ఫైట్	-10.8734
ఢ	-10.8734
▁సింగ	-10.8736
▁ఉన్నానని	-10.8737
▁ఆడే	-10.8737
▁సేపు	-10.8738
▁పక్కకు	-10.8739
▁విపత్తు	-10.874
కుండానే	-10.874
దాన్ని	-10.8741
▁సమీక్షించ	-10.8741
ుడికి	-10.8743
డికి	-10.8744
▁డీల్	-10.8745
▁దృష్టిని	-10.8745
▁ఓడి	-10.8747
▁ముస్లింలు	-10.8749
▁ఒడి	-10.8753
▁కర్ర	-10.8755
▁నానా	-10.8758
▁బాటిల్	-10.8758
▁డ్రగ్	-10.8758
▁ఎదుర	-10.876
▁చెరువులు	-10.8762
▁గొ	-10.8763
▁మెడల్	-10.8769
▁కర్నాటకలో	-10.8769
ాలపై	-10.877
▁షేర్లు	-10.8771
▁తిరిగ	-10.8771
▁చిత్రాలు	-10.8778
▁నోట్లను	-10.8781
ుకోవాల్సిన	-10.8781
▁సర్వీసు	-10.8782
▁Play	-10.8782
▁క్రీజులో	-10.8782
▁గణనీయంగా	-10.8782
▁పిటిషనర్	-10.8782
▁ప్రక్షాళన	-10.8782
▁బ్యాంకింగ్	-10.8782
▁సిటిజన్	-10.8782
▁ట్రిపుల్	-10.8782
▁ఫొటోలను	-10.8783
▁జరిగిందో	-10.8784
▁న్యూఢిల్లీః	-10.8786
▁రాజ్యసభలో	-10.8786
▁హాలీవుడ్	-10.8786
▁ఆవిష్కరణ	-10.8786
▁సంయుక్త	-10.8787
▁చేసేటప్పుడు	-10.8789
కన్నా	-10.879
▁ప్రభావాన్ని	-10.879
▁తగినంత	-10.8791
▁అంగన్	-10.8791
▁విద్యుత్తు	-10.8793
98	-10.8793
▁సిఎం	-10.8794
▁విధ్వంసం	-10.8795
▁నెటిజన్స్	-10.8796
▁విరిగి	-10.8796
▁అగ్నిప్రమాదం	-10.8796
▁భోజన	-10.8796
▁నిర్మలా	-10.8797
▁కొద్దిగా	-10.8802
▁రాజీ	-10.8804
▁కొనుగోళ్లు	-10.8805
▁నమ్మి	-10.8805
మేరకు	-10.8807
▁సారథ్యంలో	-10.8807
▁ఆరోజు	-10.8809
▁బాల్క	-10.8809
డిగా	-10.8809
▁బంధ	-10.8813
▁67	-10.8813
▁ఫ్రా	-10.8814
▁పాలక	-10.8815
▁పదవిని	-10.8818
▁జంటగా	-10.8819
▁రేపుతో	-10.8821
▁తీర్థ	-10.8827
ಟ್	-10.8829
▁గానూ	-10.8829
▁అనుసరించి	-10.8836
▁హెల్ప	-10.884
▁అప్లికేషన్	-10.8841
పడుతున్న	-10.8842
یں	-10.8844
ed	-10.8847
ిస్తానని	-10.8851
ేవాడు	-10.8851
▁వసంత	-10.8853
పోయిందని	-10.8853
తుంది	-10.8853
మెన్	-10.8854
▁మైనార్టీ	-10.8855
▁పురుషులకు	-10.8858
▁మందితో	-10.8859
▁రేప	-10.8863
ద్దు	-10.8863
▁మార్చడం	-10.8868
▁కొలెస్ట్రాల్	-10.8869
▁ప్రిన్సిపాల్	-10.8869
▁విరుచుకుపడ్డారు	-10.8869
▁అర్థరాత్రి	-10.8869
▁ఉగాది	-10.8869
▁ఎదురైంది	-10.887
▁థర్డ్	-10.887
▁హారిస్	-10.887
▁పెట్టుకో	-10.887
▁చేరుకుంటుంది	-10.8871
▁చేస్తుంటే	-10.8871
▁కొనసాగుతుందని	-10.8872
▁గ్రేడ్	-10.8872
▁చూడొచ్చు	-10.8873
ామంటూ	-10.8874
చేసిన	-10.8878
▁బండ్ల	-10.8879
▁ఆఫీసర్ల	-10.888
▁వెనుకబడిన	-10.8881
▁నోటు	-10.8882
.16	-10.8882
▁చేస్తారా	-10.8882
▁వీధుల్లో	-10.8883
گ	-10.8883
▁ముగ్గురి	-10.8883
▁ధరలను	-10.8883
▁వాహనదారులు	-10.8885
▁ఎల్లో	-10.8888
▁తోటి	-10.889
▁గౌడ	-10.889
▁రూపాయలను	-10.8894
▁నగరాల	-10.8894
▁చేరేందుకు	-10.8897
ಾರ	-10.8898
▁స్కూళ్లలో	-10.8898
▁అమెరికాకు	-10.8899
▁వేధించ	-10.8899
▁నియామక	-10.89
▁దినోత్సవ	-10.8901
ీహార్	-10.8905
▁వాలంటీర్లు	-10.8906
▁వీరిని	-10.8908
▁హామీని	-10.8914
పోతోంది	-10.8916
▁బ్రా	-10.8918
▁సీడ్	-10.8919
نا	-10.892
▁వెళ్లకుండా	-10.8922
చోట	-10.8922
▁కల్పించే	-10.8922
▁సంఖ్యను	-10.8923
▁హవా	-10.8923
▁జిమ్	-10.8924
▁హిందువులు	-10.8926
▁పోర్టులో	-10.8932
91	-10.8934
▁కొనసాగుత	-10.8934
▁అధిగమించ	-10.8937
▁మనో	-10.8937
▁ప్రాణం	-10.8937
▁ఏరియాలో	-10.8938
ڑ	-10.894
▁నూ	-10.8941
▁కిమ్	-10.8942
ಪ್	-10.8942
▁పరీక్షలకు	-10.8943
▁నొక్క	-10.8944
లిన్	-10.8945
▁మాయ	-10.8946
▁పబ్	-10.8948
ଜ	-10.8952
▁ప్రవర్తించ	-10.8956
witter	-10.8957
▁జేఏసీ	-10.8957
▁జైస్వాల్	-10.8957
▁డెంగ్యూ	-10.8957
▁మహీంద్రా	-10.8957
▁దరఖాస్తుల	-10.8957
▁అకస్మాత్తుగా	-10.8957
▁రాజయోగం	-10.8957
▁تو	-10.8958
▁తాళం	-10.8958
▁ఎప్పుడైనా	-10.8958
▁సామ	-10.8958
▁పదేపద	-10.8959
▁వహిస్తున్న	-10.8959
▁రాని	-10.896
▁లేదన్న	-10.8961
▁ప్రసంగించారు	-10.8964
▁బ్ల	-10.8965
▁పీపుల్స్	-10.8965
▁ఉగ్రవాద	-10.8968
వారే	-10.8968
▁కనిపించలేదు	-10.8969
ళా	-10.8971
▁తేమ	-10.8971
▁డు	-10.8972
▁నిలకడగా	-10.8974
▁తులసి	-10.8975
▁విషయాల్లో	-10.8978
పోవడానికి	-10.8979
▁76	-10.898
బడ్డ	-10.8981
▁ଦ	-10.8981
ాలె	-10.8983
▁ముడి	-10.8983
▁శ్రీను	-10.8983
▁సంచలనంగా	-10.8988
▁సైడ్	-10.8989
▁దగ్గు	-10.899
▁వ్యూహాలు	-10.8994
▁శైలి	-10.8995
▁బండ	-10.8996
▁పైసలు	-10.8996
▁ತ	-10.8996
▁జైన్	-10.8997
+	-10.8998
▁తీసుకోవాల్సిన	-10.8999
▁నాట	-10.9
ರೆ	-10.9001
▁తగ్గించి	-10.9002
▁ధ్య	-10.9003
▁రాధా	-10.9003
▁కాయ	-10.9004
▁టీజీ	-10.9005
▁ప్రతినిధుల	-10.9005
▁వినాయకుడి	-10.9007
▁చిత్తు	-10.9011
▁అనడం	-10.9011
గొట్ట	-10.9013
▁ర్యాలీలో	-10.9015
82	-10.9019
▁వేసుకున్న	-10.9019
▁ఉందన్న	-10.902
▁పర్యవేక్షణ	-10.902
na	-10.9025
▁వహించిన	-10.9026
▁సగటున	-10.9027
▁చేరువ	-10.9039
▁చు	-10.9044
▁అచ్చెన్నాయుడు	-10.9045
▁కాన్సెప్ట్	-10.9045
▁గెలుచుకుంది	-10.9045
▁డ్రైనేజీ	-10.9045
▁తమిళిసై	-10.9045
▁ప్రీమియం	-10.9045
▁బ్రాంచ్	-10.9045
▁వృథా	-10.9045
▁వృశ్చిక	-10.9045
▁పేర్ని	-10.9047
▁దాన	-10.9047
ಳ	-10.9048
▁ఉందంటూ	-10.9048
▁బ్లడ్	-10.905
▁ఉంటానని	-10.9051
▁సహకరించాలని	-10.9052
▁తలపడ	-10.9053
▁రికార్డుల	-10.9055
▁కూల్చ	-10.9055
చిన్న	-10.9057
▁అబద్ధాలు	-10.9057
▁సమయాల్లో	-10.9059
గలరు	-10.9059
▁పుస్తకాలు	-10.9061
▁విగ్రహ	-10.9062
▁వేస్తూ	-10.9065
▁దుమారం	-10.9068
▁ఆకలి	-10.9069
▁అందమైన	-10.9074
వెన్	-10.9076
▁సాగిన	-10.9084
▁పటిష్ట	-10.9086
ह	-10.9087
మిక్	-10.9088
▁విశ్వవిద్యాలయం	-10.909
▁హక్కులు	-10.9091
▁భద్ర	-10.9091
▁విజయానికి	-10.9092
▁చూపించి	-10.9093
▁61	-10.9096
▁నడుస్త	-10.9097
▁ఆంధ్రా	-10.9102
▁71	-10.9102
▁వల్లనే	-10.9104
▁తనతో	-10.9104
వారని	-10.9106
▁నచ్చిన	-10.9107
▁నిమిషంలో	-10.9109
▁గణేశ్	-10.9109
గ్న	-10.9111
ెర	-10.9111
▁కుడి	-10.9125
▁విషయాలపై	-10.9125
కముందే	-10.9131
▁కలిశా	-10.9131
j	-10.9131
▁డీసీ	-10.9133
.13	-10.9134
▁దిగజార	-10.9134
▁ఎంక్వైరీ	-10.9135
▁కాంబినేషన్	-10.9135
▁కాన్వాయ్	-10.9135
▁రికవరీ	-10.9135
▁ఐశ్వర్య	-10.9135
▁తమ్ముడు	-10.9135
▁ఆటగాడు	-10.9135
▁దళితబంధు	-10.9135
▁اپن	-10.9135
▁చౌహాన్	-10.9135
▁నర్సాపూర్	-10.9135
▁అల్లూరి	-10.9135
▁کرتے	-10.9135
▁కోట్లాది	-10.9135
▁షాపులు	-10.9135
ସି	-10.9136
▁తర్వాతి	-10.9136
▁దశాబ్దాలుగా	-10.9137
▁పోయ	-10.9137
▁యాక్సిడెంట్	-10.9137
▁అనుకుంటే	-10.9139
▁విశాల్	-10.914
▁స్పందించలేదు	-10.9141
▁డబ్బుల	-10.9141
ಲಿ	-10.9141
▁బీచ్	-10.9141
ోళ్లు	-10.9144
▁కూలీ	-10.9145
▁అవుతారని	-10.9145
▁భేటీలో	-10.9147
▁కరువు	-10.9147
▁సుందర్	-10.9149
▁అక్కడున్న	-10.9149
ువు	-10.9151
▁వ్యా	-10.9152
▁హాజరుకా	-10.9152
▁వినియోగ	-10.9153
ండర్	-10.9158
▁గాంధీకి	-10.916
▁పెరుగుతూ	-10.9162
▁అనుకున్నా	-10.9166
▁పట్టింది	-10.9168
▁యంలో	-10.9169
▁జలాల	-10.917
▁కడుపులో	-10.9171
ال	-10.9183
▁పోరాడుతున్న	-10.9184
సరి	-10.9184
▁తీసుకెళ్త	-10.9185
యె	-10.9185
▁చేయాల	-10.9187
ుతూనే	-10.9188
▁థియేటర్స్	-10.9191
▁ఆలోచనలో	-10.9191
▁ఖమ్మంలో	-10.9194
▁సమాన	-10.9197
▁పునరుద్ధరించ	-10.9202
▁ఉంచడం	-10.9203
▁శిశువు	-10.9206
▁లేచి	-10.9206
▁భారతదేశంలోని	-10.9207
▁తరుగు	-10.9208
▁మందుల	-10.9211
▁ప్రజలతో	-10.9211
72	-10.9212
ేశారని	-10.9213
it	-10.9219
▁ఏవీ	-10.9221
▁వ్యయం	-10.9224
▁ఆరెంజ్	-10.9225
▁కేశినేని	-10.9225
▁పంచాయితీ	-10.9225
▁కురిసింది	-10.9225
▁కోరుట్ల	-10.9225
▁చెప్పుకొచ్చాడు	-10.9225
ల్లి	-10.9225
▁के	-10.9225
▁వెర్షన్	-10.9225
▁ప్రజాపాలన	-10.9225
▁ఉభయ	-10.9226
▁నిషేధించ	-10.9226
▁శుక్రుడు	-10.9227
▁ప్రైజ్	-10.9228
▁ప్రతిష్ఠ	-10.9229
▁నివసిస్తున్న	-10.9229
▁కాళ్ల	-10.9232
▁మీరే	-10.9233
మాట	-10.9234
▁కనిపించకుండా	-10.9235
▁సరదాగా	-10.9235
▁అంతటా	-10.9238
ొచ్చిన	-10.9243
▁వారానికి	-10.9245
▁విదేశాల	-10.9245
నాయక్	-10.9245
▁మధుమేహం	-10.9247
▁నిర్వహిస్త	-10.9252
▁అంచనాలను	-10.9258
▁రైల్	-10.9258
▁స్వీకరించిన	-10.9259
ావత్	-10.926
▁ఆశిస్తున్న	-10.9262
ଭ	-10.9263
▁మర్	-10.9266
కోట్లు	-10.9266
▁ఇప్పటివరక	-10.9269
▁విపత్తుల	-10.9269
▁కొనసాగుతూ	-10.9271
ేమీ	-10.9272
▁కమీషన్	-10.9272
▁పోలీసులతో	-10.9274
▁రాదు	-10.9279
▁ఇంద్ర	-10.928
▁అక్రమాలు	-10.9283
మండ	-10.9285
▁అమ్మాయిల	-10.9286
▁అబ్	-10.929
▁నామినేషన్లు	-10.9291
▁నెగ్గ	-10.9291
రాయ	-10.9291
▁తీసుకొచ్చ	-10.9292
▁రాష్ర్ట	-10.9306
హె	-10.931
▁నిప్పు	-10.9312
లేరని	-10.9314
▁వివేకానంద	-10.9315
ଙ୍କ	-10.9315
▁ఒంగోలు	-10.9316
▁పొదుపు	-10.9316
▁ఏటీఎం	-10.9316
▁ఫ్యాక్ట్	-10.9316
▁రిపబ్లిక్	-10.9316
▁కమ్	-10.9316
▁లోతట్టు	-10.9316
▁శ్రేయస్సు	-10.9317
▁రంగనాథ్	-10.9317
▁ఇటీవలి	-10.9317
ఘా	-10.9317
▁వ్యవస్థలో	-10.9319
▁అభి	-10.932
▁క్రమం	-10.932
▁పెరిగిందని	-10.932
▁అయ్యాక	-10.9321
▁సరికాదని	-10.9322
▁దీ	-10.9323
▁పిచ్చి	-10.9325
▁వేలంలో	-10.9331
ee	-10.9332
▁బయటపడింది	-10.9332
▁ఉందనే	-10.9334
ట్రా	-10.9335
▁ఉపయోగిస్తున్న	-10.9339
▁మర్చిపో	-10.9342
▁కామన్	-10.9344
▁చూపిస్తున్న	-10.9344
డుతూ	-10.9346
▁డీఎస్	-10.9348
▁భా	-10.9348
▁యాత్రలో	-10.9349
▁బసవరాజ	-10.9351
▁ఉంటుంద	-10.9357
▁ఆదేశాలతో	-10.9361
▁6,	-10.9362
పోతున్నాయి	-10.9363
▁రకం	-10.9365
▁అవమానించ	-10.9365
▁ప్రవాహం	-10.9365
▁సిమ్	-10.9366
▁నిర్మిస్త	-10.9367
▁శాంత	-10.9368
▁కొందరికి	-10.9368
ంచింది	-10.937
▁టీఎంసీల	-10.937
▁w	-10.937
గురు	-10.9371
▁68	-10.9373
▁95	-10.9376
▁లోగో	-10.9378
▁అణు	-10.938
▁కార్పొరేటర్	-10.9382
▁గానే	-10.9384
▁కడ	-10.9389
▁ఒకరికి	-10.939
▁పూ	-10.9393
బల్	-10.9399
▁చెల్లి	-10.9401
▁పౌరులు	-10.9405
హే	-10.9406
▁రోడ్డులో	-10.9406
▁పురుష	-10.9407
▁యూనివర్శిటీ	-10.9408
▁కన్వెన్షన్	-10.9408
▁క్యాలెండర్	-10.9408
▁దిగుమతి	-10.9408
▁పాపులర్	-10.9408
▁మిధున	-10.9408
▁है	-10.9408
▁రజినీకాంత్	-10.9408
▁వైమానిక	-10.9408
▁బోర్డర్	-10.9408
▁ముఖేష్	-10.9409
▁ఆర్బీఐ	-10.9409
▁నిరంజన్	-10.9409
▁నటిస్తోంది	-10.9409
▁బ్యాలెన్స్	-10.941
▁వేస్తోంది	-10.941
▁బెల్ట్	-10.9411
▁పేరెంట్స్	-10.9412
▁రాజేశ్	-10.9413
▁ప్రకారమే	-10.9413
▁మహిళకు	-10.9413
ృత	-10.9417
▁పిల్లల్ని	-10.9417
▁అడ్డుకున్న	-10.9417
.60	-10.9419
▁దక్కలేదు	-10.942
ୟ	-10.9421
జై	-10.9422
▁తెచ్చింది	-10.9422
▁పాదాల	-10.9422
ులుగా	-10.9424
▁విధానాలు	-10.9425
▁ఆస్తులను	-10.9425
బోమని	-10.9432
ol	-10.9433
▁కుటుంబసభ్యులు	-10.9434
▁జనసేనకు	-10.9437
▁విమానాల	-10.9438
▁స్థాపించ	-10.9444
▁పాల్పడ	-10.9445
ుండటం	-10.9449
▁వారసత్వ	-10.945
▁పాఠశాలలు	-10.945
▁హాస్పిటల్స్	-10.9453
▁బకాయిలు	-10.9455
▁కుంభకోణం	-10.9457
▁లబ్ధిదారులకు	-10.9461
▁జస్	-10.9464
▁ధన్	-10.9471
▁స్వర్ణ	-10.9471
▁చెర	-10.9473
▁سی	-10.9473
▁లెవెల్	-10.9475
▁ఎమ్మెల్సీలు	-10.9475
▁లేడీ	-10.9483
భ్	-10.9484
84	-10.9484
రెస్	-10.9491
▁ఫిర్యాదులో	-10.9494
▁కుదర	-10.9495
నాల	-10.9496
89	-10.9496
▁శరద	-10.9498
▁కోదాడ	-10.95
▁دکھا	-10.95
▁కృత్రిమ	-10.95
▁నిర్దిష్ట	-10.95
▁నెదర్లాండ్స్	-10.95
▁సక్రమంగా	-10.95
▁సెన్సార్	-10.95
▁సమకూర్చ	-10.95
▁విశ్లేషించ	-10.9501
▁ఎంపీడీవో	-10.9501
▁ఫేజ్	-10.9501
▁సుదర్శన్	-10.9503
▁రిటైల్	-10.9504
▁ఫ్లిక్స్	-10.9505
బెట్ట	-10.9506
▁కట్టబెట్ట	-10.9507
▁అనూహ్యంగా	-10.9508
▁లాంగ్	-10.9509
▁చెల్ల	-10.9511
▁అనుకూలమైన	-10.9511
▁నిర్లక్ష్యంగా	-10.9513
▁మల్ల	-10.9514
▁2010	-10.9515
▁వెలువడ	-10.9517
▁ఉంటాడు	-10.9518
▁వేయడానికి	-10.952
▁కానుకగా	-10.9524
▁దిగ్గజం	-10.9524
▁నిల	-10.9525
▁జెట్	-10.9527
▁ఉండాల్సిన	-10.9529
ందరినీ	-10.9531
▁భాగ్య	-10.9533
తామని	-10.9536
మయ్యే	-10.9536
▁న్నారు	-10.9536
నట్టు	-10.9537
▁ब	-10.9537
న్నాడు	-10.9538
▁చేరిక	-10.9542
్రో	-10.9543
।	-10.9546
▁ہ	-10.9549
▁మోదీని	-10.9551
▁పెడ	-10.9554
▁ప్రచురించ	-10.9554
లాండ్	-10.9558
▁తెస్త	-10.9559
▁ఘర్షణలు	-10.956
▁ఓయూ	-10.9565
▁పరీక్షించ	-10.9565
ାଇ	-10.9567
▁షోలో	-10.9574
▁కొని	-10.9576
▁తీసుకున్నాడు	-10.9578
▁69	-10.9579
▁జీవించ	-10.9581
▁రికార్డ్స్	-10.9582
▁పొత్తుల	-10.9583
▁గెలవడం	-10.9583
▁భావించే	-10.9583
va	-10.9583
ియర్	-10.9583
నప్పటికీ	-10.9583
పర్యటించనున్నారు	-10.9585
ರಾ	-10.9586
▁దర్శించుకున్న	-10.9588
▁చెబుతున్నా	-10.9588
వీర్	-10.9589
▁విద్యాసంస్థల	-10.959
▁లగ్జరీ	-10.9594
▁హుస్నాబాద్	-10.9594
▁కొడంగల్	-10.9594
ಗಳ	-10.9594
▁నైతిక	-10.9594
▁లక్ష్మీనారాయణ	-10.9594
▁ప్రజావాణి	-10.9594
▁చైన్	-10.9595
▁రేటింగ్	-10.9595
లాగే	-10.9595
▁శ్రీనివాసరెడ్డి	-10.9596
▁నాగరాజు	-10.9596
త్యం	-10.9598
▁ఇంటింటి	-10.9599
▁జోగి	-10.9599
చన	-10.9601
▁మాట్లాడితే	-10.9602
▁మరొకటి	-10.9603
▁కావ్య	-10.9603
▁షూట్	-10.9604
▁మండలాల	-10.9604
▁వైన్	-10.9608
▁@	-10.9609
▁దశాబ్ది	-10.961
▁కొట్టే	-10.9611
▁అదుపులో	-10.9611
▁కాకతీయ	-10.9612
▁కంచె	-10.9614
కాంత్	-10.9614
▁కోర్సు	-10.9618
▁ఆర్ట్స్	-10.962
▁వినిపించారు	-10.9621
▁లేద	-10.9621
▁ఇన్ఫెక్షన్	-10.9623
▁ఉండేవారు	-10.9625
▁పిఠాపురంలో	-10.9626
▁లభించే	-10.9628
▁ఎక్కి	-10.9629
▁నిర్ధారించ	-10.963
▁టైన్	-10.963
వెల్	-10.963
▁కుట్రలు	-10.963
▁కారణమైన	-10.9631
ڈ	-10.9636
▁నియామకాల	-10.9637
79	-10.9637
ప్రతిష్టాత్మకంగా	-10.9638
▁అరబ్	-10.9639
జనసేన	-10.9641
యాత్ర	-10.9641
▁అమర	-10.9642
సేవ	-10.9643
వికెట్	-10.9645
తలు	-10.9648
▁మించిన	-10.9653
▁మత్తులో	-10.9653
▁కోల్పో	-10.9653
▁మణి	-10.9655
ಕಾ	-10.9657
▁తిరు	-10.9659
▁దర్శక	-10.9659
▁లావాదేవీల	-10.9663
▁మూర్తి	-10.9663
▁ఆయనతో	-10.9664
▁సమావేశమై	-10.9666
▁Y	-10.9667
▁సంస్థల్లో	-10.9668
▁అంచనాల	-10.9669
▁వాడుతున్న	-10.9671
▁స్టూడెంట్లు	-10.9671
మేం	-10.9674
▁పనిచేయడం	-10.9675
▁108	-10.9678
సియా	-10.9679
డుగు	-10.968
ానంటూ	-10.968
ర్ట్	-10.9682
▁ప్రదేశంలో	-10.9687
▁రాజేంద్ర	-10.9688
▁హోరాహోరీ	-10.9688
▁ఎల్లారెడ్డి	-10.9688
▁డ్రెస్	-10.9688
▁రాజేంద్రనగర్	-10.9689
▁రామ్మోహన్	-10.9689
▁ల్యాప్	-10.969
▁స్కూల్స్	-10.9691
రిగిన	-10.9692
▁వెంకటేశ్వర	-10.9694
▁సిబ్బందితో	-10.9695
▁సిమెంట్	-10.9695
▁సీరియల్	-10.9697
▁వాసన	-10.9699
▁పొడిగించ	-10.9699
اد	-10.9699
▁వేసేందుకు	-10.97
▁నగదును	-10.9702
▁కురుస్తున్నాయి	-10.9702
▁వాదించారు	-10.9703
▁రూప	-10.9705
22	-10.9706
87	-10.9707
▁ప్రేక్షకులకు	-10.9709
▁పొందింది	-10.971
▁నిన్నటి	-10.971
▁మాదిరిగానే	-10.971
ائ	-10.9712
▁జల్	-10.9712
▁విత్తనాలు	-10.9713
▁ఆయుధాలు	-10.9716
▁అందించాడు	-10.9717
▁వృద్ధులు	-10.9717
▁జనసేనాని	-10.9719
▁తమపై	-10.972
▁రానున్నారు	-10.9721
▁నేతలపై	-10.9721
షియా	-10.9723
▁పెడతా	-10.9723
▁పట్నం	-10.9725
▁పేదరికం	-10.9726
▁ర్యా	-10.9727
▁రాయల్స్	-10.9728
▁ఛార్జీలు	-10.973
▁భూకంప	-10.9737
▁మోత	-10.9738
▁جا	-10.9739
▁రాబట్ట	-10.974
▁పాల్పడుతున్న	-10.974
▁లేరని	-10.9741
తాడు	-10.9745
నున్నట్టు	-10.9745
▁స్నేహ	-10.9746
▁నోట్లు	-10.9749
▁ఎక్కడికి	-10.975
▁సాగే	-10.975
▁ఇతరులు	-10.9752
▁తీసుకొస్త	-10.9759
▁1000	-10.9759
▁దిగ్గజ	-10.9759
▁బడి	-10.9759
▁తీసుకురావడం	-10.9762
▁-2	-10.9762
▁ప్రయత్నంలో	-10.9768
▁దేశంగా	-10.9769
▁వాడి	-10.9771
▁వృద్ధుల	-10.9771
▁వ్యాపారంలో	-10.9771
▁విషయంలోనూ	-10.9774
▁టెస్టులు	-10.9781
▁କରି	-10.9783
▁జాప్యం	-10.9783
▁ఫెస్టివల్	-10.9783
▁ఫైనాన్షియల్	-10.9783
▁ఫ్రెంచ్	-10.9783
▁యువగళం	-10.9783
▁అడ్రస్	-10.9783
▁సెకన్ల	-10.9783
▁మొహమ్మద్	-10.9783
▁వర్గీకరణ	-10.9784
▁మహాలక్ష్మి	-10.9784
▁సూర్యకుమార్	-10.9785
್ಯ	-10.9785
▁రిటైర్	-10.9785
▁చూడటానికి	-10.9786
▁అవకాశాల	-10.9786
▁ఢీకొట్టింది	-10.9787
▁దత్తత	-10.9787
▁శివరాజ్	-10.9787
నిధి	-10.9787
▁కట్టడాల	-10.9787
▁లభిస్తాయి	-10.9787
▁నిలిచిపోయాయి	-10.9788
▁ଆ	-10.9788
▁స్థిరంగా	-10.9788
▁అయిందని	-10.9789
▁హోదాలో	-10.9789
▁సందేశం	-10.9791
▁పాలిత	-10.9794
▁కావడానికి	-10.9797
ంలోని	-10.9797
-4	-10.9802
▁బన్నీ	-10.9803
▁ఆగస్టులో	-10.981
▁78	-10.9811
▁గణన	-10.9812
▁కోరుకుంటున్నారు	-10.9812
▁ఏక్	-10.9815
▁రాజ్యాంగాన్ని	-10.9815
▁గుడ్డు	-10.9815
▁ఆశా	-10.9815
▁నేరాల	-10.9816
▁అడిగ	-10.9821
▁పవిత్రమైన	-10.9823
ఇన్	-10.9824
▁పొత్తులో	-10.9825
▁పుస్తకం	-10.9827
▁ఓడిపోయిన	-10.9831
▁ప్రమాదకర	-10.9837
ాబాద్	-10.9838
▁కోస్తా	-10.9839
దాకా	-10.9843
▁రూల్	-10.9844
ప్రతి	-10.9844
▁నెలా	-10.9846
▁తలుపు	-10.985
▁గ్రామస్తుల	-10.9851
▁ఉన్నాం	-10.9852
▁ఓనర్	-10.9854
దల	-10.9858
▁మెజారిటీతో	-10.9861
▁పరు	-10.9864
▁ఆధారపడ	-10.9866
ుతుందన్నారు	-10.9868
ెళ్ల	-10.987
▁చూపుతున్న	-10.9872
మత	-10.9873
▁వాడిన	-10.9873
▁అంబ	-10.9876
▁గౌరవించ	-10.9878
▁గైక్వాడ్	-10.9879
▁డెయిరీ	-10.9879
▁దిగ్భ్రాంతి	-10.9879
▁మహమ్మారి	-10.9879
▁యూఏఈ	-10.9879
▁లెబనాన్	-10.9879
▁వెనుదిరిగ	-10.9879
▁మొట్టమొదటి	-10.9879
▁స్టేటస్	-10.9879
▁అదిరిపోయే	-10.9879
▁తొలగింపు	-10.988
▁బాధితురాలు	-10.988
▁సూరత్	-10.988
▁బాలాజీ	-10.9881
▁సంఘటనా	-10.9881
▁డీసీఎం	-10.9881
▁బచ్చన్	-10.9882
▁మీర	-10.9883
▁మార్గాల్లో	-10.9884
▁చేశారో	-10.9885
▁షెడ్	-10.9885
ంటు	-10.9886
▁దహనం	-10.9889
▁కలుగుతాయి	-10.9889
▁ప్రియ	-10.989
▁తాత్కాలికంగా	-10.9891
తకు	-10.9892
▁వస్తారని	-10.9893
నూర్	-10.9893
▁బద్దలు	-10.9894
▁కల్పించేందుకు	-10.9895
▁మేషరాశి	-10.9895
▁నిషేధ	-10.9896
▁తిరిగే	-10.9896
▁ఎదిగ	-10.9896
▁సీఆర్	-10.9898
▁వెళ్లాల్సి	-10.9898
▁మారడంతో	-10.9901
▁తప్పదు	-10.9902
▁పెంచిన	-10.9903
▁ధరకు	-10.9903
▁మోసాల	-10.9906
▁పోస్టులకు	-10.9907
▁ఒకవైపు	-10.9908
రాయి	-10.9911
▁మూవీకి	-10.9912
▁డ్రై	-10.9913
▁చిన్నారులు	-10.9914
▁సంభవించ	-10.9915
▁సభా	-10.9915
▁పాత్రను	-10.9916
▁దగ్గర్లో	-10.9916
ఏపీ	-10.9919
▁యో	-10.9922
▁బ్యాట్	-10.9923
లిక్	-10.9924
ులతో	-10.9926
మున్న	-10.9926
▁తల్లిని	-10.9926
▁పరుగులతో	-10.9926
ଗ	-10.9929
▁ఈజీగా	-10.993
▁వండ	-10.9935
▁నీకు	-10.9938
▁ఐదేళ్లలో	-10.9939
▁శాస్త్ర	-10.9941
▁ఎండ్	-10.9942
▁మార్గాలు	-10.9944
▁కోట్	-10.9944
▁నిండిన	-10.9947
▁దేశ్	-10.9948
చర్ల	-10.9949
▁అలాంటిది	-10.995
పద	-10.9951
▁కేసుకు	-10.9952
▁ఆదర్శ	-10.9953
▁నిర్మాణాల	-10.9959
▁దర్యాప్తులో	-10.996
▁భీం	-10.996
▁కేక్	-10.9961
▁టీడీపీతో	-10.9962
▁ట్రాక్టర్	-10.9963
మవుతుంది	-10.9963
▁ట్ట	-10.9964
▁వేట	-10.997
▁తల్లికి	-10.9976
▁మూవీని	-10.9976
‭	-10.9976
▁డొనాల్డ్	-10.9976
▁మనీలాండరింగ్	-10.9976
▁హౌజ్	-10.9976
▁ఇంఛార్జ	-10.9976
▁pic	-10.9976
▁ప్రసన్న	-10.9977
▁వాపోయారు	-10.9978
▁తగ్గింపు	-10.9978
▁రామారావు	-10.9978
▁ప్రైమ్	-10.9979
▁మురళీ	-10.9979
▁ద్రౌపది	-10.998
▁వస్తోన్న	-10.9981
▁నమ్ముతారు	-10.9983
▁స్థానికుల	-10.9983
▁టైమ్స్	-10.9984
▁అమ్మాయిలు	-10.9986
▁సంతకాలు	-10.9986
▁చిత్రీకరించ	-10.9986
▁పక్ష	-10.9986
▁బాధితులను	-10.9987
▁రత్న	-10.999
▁ఆపి	-10.9991
▁దీనితో	-10.9991
▁ఆదాయాన్ని	-10.9995
▁తీసింది	-10.9996
▁పాల్పడ్డారు	-10.9996
▁భూమిపై	-10.9996
▁భవనంలో	-10.9996
▁రాత్రికి	-10.9997
సార	-10.9997
▁తెరకెక్కిన	-10.9999
▁డాన్స్	-11.0001
▁తెలియాల్సి	-11.0002
▁ద్ద	-11.0004
▁మేక	-11.0005
ుతాయని	-11.0006
స్టిక్	-11.0006
▁కృతి	-11.0006
▁చేసుకోవాల్సి	-11.0006
ాల్సిందిగా	-11.0008
▁విజయాలను	-11.0008
▁కుక్కలు	-11.0009
▁గాయాల	-11.0012
▁వెళ్లడానికి	-11.0013
▁సేకరించారు	-11.0014
▁చెన్న	-11.0014
▁హర్షం	-11.0015
▁చెలరేగ	-11.0016
▁వ్యక్త	-11.0019
▁ఫ్లై	-11.0021
▁ప్రధానిగా	-11.0023
▁గతం	-11.0024
▁పూన	-11.0024
ిత్	-11.0026
▁బాండ్	-11.0028
▁భరించ	-11.0031
▁పరీక్షల్లో	-11.0033
▁పోలి	-11.0034
▁చక్కగా	-11.0037
ార్థం	-11.0038
▁అందించి	-11.0038
▁తీసుకురా	-11.004
ಚ	-11.0044
▁ఒకటో	-11.0045
▁లోన్లు	-11.0047
▁కుంభ	-11.0048
▁నియమ	-11.0049
▁ای	-11.0049
▁సారించ	-11.0051
▁సమాచారంతో	-11.0052
▁బోనాల	-11.0054
▁గెలుచుకున్న	-11.0055
శెట్టి	-11.0056
ିତ	-11.0056
▁వ్యవహార	-11.0058
▁లబ్ది	-11.0059
▁అలరించ	-11.006
జయ	-11.0067
▁స్టేషన్ల	-11.0068
▁అండ	-11.0069
▁శిశు	-11.0069
▁అందాల	-11.007
▁దుకాణాల	-11.007
ಧ	-11.0072
▁దయ	-11.0072
▁శ్వేత	-11.0074
▁భూసేకరణ	-11.0074
▁మల్కాజిగిరి	-11.0074
▁తరుణ్	-11.0074
▁విమానయాన	-11.0074
▁యాదగిరిగుట్ట	-11.0075
▁ఉత్తీర్ణత	-11.0076
▁తరలింపు	-11.0076
▁144	-11.0077
▁పూరీ	-11.0078
▁క్లోజ్	-11.0079
▁2024:	-11.0079
▁సంప్రదింపులు	-11.0079
▁సమన్వయం	-11.008
▁తాడేపల్లి	-11.008
▁సందర్శించి	-11.0081
le	-11.0081
▁పుస్తకంలో	-11.0082
▁విర	-11.0082
▁ఇచ్చామని	-11.0084
దనే	-11.0084
▁దానివల్ల	-11.0084
్రా	-11.0087
మరి	-11.0088
▁వేతనాలు	-11.0088
▁పనిని	-11.0089
పూరిత	-11.0089
▁చేయించి	-11.009
ష్క	-11.0091
▁సారా	-11.0091
▁సమర్పించిన	-11.0094
▁కోరినట్లు	-11.0094
ిడి	-11.0096
▁నంది	-11.0098
▁స్టార్స్	-11.0098
▁ఆచరించ	-11.0101
మరణ	-11.0104
▁చంపిన	-11.0105
▁హత్యలు	-11.0106
▁చేసుకుంటారు	-11.0107
▁సౌకర్య	-11.0108
సిటీ	-11.0111
▁ఆదేశాలను	-11.0112
▁ఉగ్రవాదులు	-11.0112
ಡ್	-11.0114
▁1.5	-11.0114
▁శర	-11.0116
ామన్న	-11.0119
▁ఐదేళ్లు	-11.012
▁కలప	-11.012
ోత్సవం	-11.0121
రణం	-11.0131
▁84	-11.0132
▁వాక్	-11.0132
▁చూపించిన	-11.0133
▁యూపీలో	-11.0136
లిక	-11.0138
కెట్	-11.0142
ند	-11.0144
▁రాగి	-11.0145
▁శైలిలో	-11.0146
▁వార్తల	-11.0148
▁ట్రయల్	-11.0148
▁నిర్ణయానిక	-11.015
▁ఖాయంగా	-11.0156
ాలజీ	-11.0156
▁శంకర	-11.0157
▁పరా	-11.0157
▁ఉద్దేశ	-11.016
▁800	-11.0161
▁బయలుదేర	-11.0167
▁/	-11.017
▁ఇన్వెస్టిగేషన్	-11.0173
▁ఒరిజినల్	-11.0173
▁కంటోన్మెంట్	-11.0173
▁లేవనెత్త	-11.0173
▁క్రిస్మస్	-11.0173
▁ఫెయిల్	-11.0174
▁తెలుసుకుని	-11.0175
▁మొదలై	-11.0175
▁త్రిపుర	-11.0176
మైందని	-11.0177
▁వినతి	-11.0179
▁చంద్రుడు	-11.0182
▁బేగంపేట	-11.0182
ತ್	-11.0183
▁రిలీజైన	-11.0183
▁తినాలి	-11.0184
▁నటన	-11.0185
▁2006	-11.0186
▁నాటక	-11.0186
▁మొన్న	-11.0186
ఠా	-11.0189
▁నాయకులతో	-11.0193
▁మేఘా	-11.0193
డ్డ	-11.0194
▁వస్తున్నాయని	-11.0195
▁స్థలాలు	-11.0196
▁శ్రీరామ్	-11.0197
ేళ్ల	-11.0198
▁పదేళ్లలో	-11.0199
▁మహిళలపై	-11.0202
▁ل	-11.0204
సెట్	-11.0206
ప్రా	-11.0208
▁గుండా	-11.0211
▁అమ్మకాల	-11.0211
దైన	-11.0213
ాత్మక	-11.0214
▁విడిచిపెట్ట	-11.0215
ిక్	-11.0215
▁ప్రచురించిన	-11.0221
▁థియేటర్లలో	-11.0223
చారు	-11.0225
▁అభ్యర్దుల	-11.0226
▁పథకాలకు	-11.0227
▁ଏକ	-11.0228
▁అజ	-11.0228
▁తొలగించారు	-11.023
▁دی	-11.023
▁భావ	-11.0235
▁దర్శన	-11.0235
▁ఇంజినీర్	-11.0236
▁ఆమెపై	-11.0241
పోతాయి	-11.0243
▁ఆరంభ	-11.0244
▁కుటుంబసభ్యుల	-11.0244
▁జరిగేలా	-11.0245
బడుతుంది	-11.0248
రోజుల	-11.0249
ేపల్లి	-11.0251
▁భూమికి	-11.0251
ాన్నే	-11.0251
▁ఫోన్లను	-11.0254
▁విడతలో	-11.0256
▁గ్రా	-11.0256
ుకుంటోంది	-11.0256
▁నెట్ట	-11.0257
▁తగ్గే	-11.0257
▁నేర్ప	-11.0258
▁ఉమా	-11.026
▁క్షణం	-11.0261
వుతుంది	-11.0262
▁రాము	-11.0264
▁ఛా	-11.0264
▁బిజీ	-11.0265
▁దొంగల	-11.0266
▁గజ	-11.0266
▁125	-11.0266
▁తెలియక	-11.0271
▁లక్షా	-11.0273
▁తొక్కిసలాట	-11.0273
▁నవంబరు	-11.0273
▁యాభై	-11.0273
▁యూరోపియన్	-11.0273
▁రిటర్నింగ్	-11.0273
▁రోగనిరోధక	-11.0273
▁సైబరాబాద్	-11.0273
▁హేమంత్	-11.0273
▁సనాతన	-11.0273
▁క్వింటాళ్ల	-11.0273
▁పలువురి	-11.0274
▁యాక్సెస్	-11.0274
టిన్	-11.0274
▁కార్బన్	-11.0274
▁కన్నుమూశారు	-11.0274
य	-11.0274
▁లీటర్ల	-11.0275
▁పాలయ్యారు	-11.0276
ాల్సిందేనని	-11.0276
▁రీల్స్	-11.0277
▁దేశాయ్	-11.0277
▁శ్రీనివాసులు	-11.0277
▁ఒక్కోసారి	-11.0277
▁అమీర్	-11.0278
▁నిర్వహిస్తామని	-11.0278
▁తీసుకోవడానికి	-11.0278
▁ప్రదేశం	-11.0278
▁హక్కులను	-11.0278
▁అనిత	-11.028
కాని	-11.0281
▁ముస్లింల	-11.0281
▁దేవాలయం	-11.0281
▁గె	-11.0282
▁ఉంటేనే	-11.0283
▁తీసుకోవాల	-11.0284
▁ఆవిష్కరించారు	-11.0287
▁పెట్టుకుంది	-11.0288
యార్	-11.0288
▁పొర	-11.0289
▁అవకాశాలున్నాయి	-11.0289
▁రావాలి	-11.0291
▁మార్గాల	-11.0291
▁రుణాల	-11.0293
▁కమలం	-11.0293
▁కౌన్సిలర్	-11.0295
▁ప్రత్యామ్నాయ	-11.0295
▁పొందేందుకు	-11.0296
ెత్త	-11.0297
▁ఫో	-11.0298
▁s	-11.03
را	-11.0301
▁టెండర్	-11.0303
వేగంగా	-11.0303
▁ఆత్మవిశ్వాసం	-11.0304
▁ఫలితాల్లో	-11.0304
▁దిశ	-11.0306
▁ప్రేమ్	-11.0309
▁ప్రకటిస్త	-11.0311
▁యూజర్ల	-11.0311
▁సమానంగా	-11.0313
▁ప్రశ్నించిన	-11.0314
సార్	-11.0315
భాగం	-11.0315
పించ	-11.0315
ర్డ్	-11.0316
మయ	-11.032
▁ମ	-11.0321
దారి	-11.0322
ిస్తున్నట్లు	-11.0322
▁తీ	-11.0323
▁కార్పొరేటర్లు	-11.0323
ిచ్చిన	-11.0324
▁తెరవ	-11.0325
تے	-11.0325
प	-11.0327
▁ద్వారానే	-11.0327
▁రేవ	-11.0328
▁ప్రాముఖ్యత	-11.0329
▁విప్ప	-11.0329
▁చేరడం	-11.0331
▁పాలనా	-11.0331
ారి	-11.0333
▁కేసీ	-11.0335
ాయన్న	-11.0336
▁కాలేజీలు	-11.0338
▁కూల్చివేత	-11.0339
▁సమావేశాలకు	-11.034
▁యువకుల	-11.0343
▁హీరోల	-11.0347
▁బల్	-11.035
▁స్టర్	-11.0353
▁చేపల	-11.0356
▁ప్రాంతాల్లోని	-11.036
▁పరిష్కార	-11.0366
▁కొద్దిసేపటి	-11.0369
▁కార్యదర్శిగా	-11.0369
ాలన్నా	-11.0373
چھ	-11.0374
▁ఒవైసీ	-11.0374
▁ఓపెనింగ్	-11.0374
▁కోనసీమ	-11.0374
▁దక్కించుకుంది	-11.0374
▁నెమ్మదిగా	-11.0374
▁రిజిస్ట్రార్	-11.0374
▁బురద	-11.0374
▁శాంసన్	-11.0374
▁కోదండరాం	-11.0375
▁మ్యాజిక్	-11.0375
▁రతన్	-11.0375
gov	-11.0375
▁భూగర్భ	-11.0375
▁నాగేందర్	-11.0375
▁తెరకెక్కుతున్న	-11.0375
ుకోవడంతో	-11.0376
▁ఉల్లంఘించ	-11.0376
▁వైష్ణవ్	-11.0377
త్వాన్ని	-11.0377
▁వేధింపులు	-11.0377
▁పట్టుకొని	-11.038
▁కలగకుండా	-11.0381
▁పాట్నా	-11.0381
▁ప్రశంసించారు	-11.0383
▁మోహ	-11.0383
ార్థ	-11.0383
▁తొలగించాలని	-11.0384
▁క్రూ	-11.0388
▁వాటితో	-11.0388
▁మిత్ర	-11.0389
▁గండి	-11.0389
▁ఆడియో	-11.039
ఏళ్ల	-11.0393
పరిచి	-11.0394
తల	-11.0398
▁కుటుంబంతో	-11.0399
ಿಗೆ	-11.0403
రగ	-11.0403
▁క్లిప్	-11.0403
▁విద్యను	-11.0405
▁వచ్చారని	-11.0406
▁ఎగ్	-11.0406
▁టెట్	-11.0407
ఆయన	-11.0408
ినప్పటికీ	-11.0409
ମ	-11.041
▁రోజులకు	-11.0411
▁చేసినప్పటికీ	-11.0413
▁ఇప్పటికి	-11.0413
et	-11.0414
▁చేరుతున్న	-11.0416
▁వర్గంలో	-11.0416
▁గణ	-11.0418
ఛ	-11.0419
▁లాభాలను	-11.042
▁ہو	-11.042
▁అప్లికేషన్లు	-11.0422
▁సచివాలయంలో	-11.0422
గూ	-11.0424
▁యాప్స్	-11.0427
ీలు	-11.0427
పరు	-11.0428
▁కలలు	-11.0428
ాడనే	-11.0429
▁చెప్పులు	-11.0431
ଦ	-11.0433
ప్రస్తుతం	-11.0435
▁ఓడించి	-11.0435
.55	-11.0436
ద్వారా	-11.0438
▁యూజర్లు	-11.0441
▁పదార్థాలను	-11.0443
▁జాక్	-11.0443
▁టైర్	-11.0444
▁పరిగణలో	-11.0445
▁వన	-11.0445
▁ఛేదించ	-11.0446
▁370	-11.0447
▁దోమల	-11.045
▁ఒలింపిక్	-11.0451
▁140	-11.0452
▁మాత్ర	-11.0458
బూ	-11.0458
▁పోతే	-11.0461
▁దళితుల	-11.0463
బాద్	-11.0463
▁సెంటర్లు	-11.0463
మంత్రి	-11.0464
▁స్టేషన్లలో	-11.0464
నెట్	-11.0465
పాత	-11.0469
సేపు	-11.0471
▁ప్రకటించి	-11.0476
డంతోపాటు	-11.0476
▁में	-11.0476
▁అభివృద్ది	-11.0476
▁అలెర్ట్	-11.0476
▁మర్యాద	-11.0476
▁రషీద్	-11.0476
▁వినతిపత్రం	-11.0476
▁సిగరెట్	-11.0476
▁సైలెంట్	-11.0476
▁కంగనా	-11.0476
▁మెరుగ్గా	-11.0477
▁పసిడి	-11.0477
▁చోప్రా	-11.0477
ామినేటెడ్	-11.0477
▁సేఫ్	-11.0477
▁ఆటంకం	-11.0477
▁అసలైన	-11.0477
▁సెటిల్	-11.0477
▁ఉపాధ్యక్షుడు	-11.0477
▁రోబో	-11.048
▁తిలక్	-11.048
▁చేయొద్దని	-11.0481
▁పోటీలు	-11.0481
▁గెలిపిస్తే	-11.0482
▁రెట్టింపు	-11.0484
▁అక్షర్	-11.0486
▁ఉపాధ్యాయుల	-11.0487
▁తీసుకునేందుకు	-11.0487
▁సభ్యుడిగా	-11.0488
▁అనుసరించ	-11.0489
▁సిద్ధమయ్యారు	-11.049
▁ప్రమాణాల	-11.049
▁పరిశీలిస్తే	-11.0491
▁మార్చాలని	-11.0494
▁అయ్యారని	-11.0494
▁ప్రమాదకరమైన	-11.0496
▁దిశలో	-11.0499
ధర్	-11.05
చేసే	-11.0501
▁ఎలాన్	-11.0502
▁వెల	-11.0503
▁తరఫు	-11.0503
మిన్	-11.0503
▁నిమజ్జనం	-11.0503
▁పేల్చ	-11.0504
▁బ్రో	-11.0504
▁పెంచేందుకు	-11.0506
▁వీటిపై	-11.0515
▁కింది	-11.0517
▁ಪ್ರ	-11.0518
▁మందిర	-11.052
▁ఖర్చ	-11.0523
▁మాస	-11.0524
ించేందుకు	-11.0524
▁కల్పిస్త	-11.0527
▁చల్	-11.0528
▁ఇత	-11.0529
▁చూసుకుంట	-11.053
▁గార్	-11.0531
द	-11.0531
▁తగ్గాయి	-11.0533
▁ఇబ్బందులను	-11.0533
య్యా	-11.0533
▁గిరిజనుల	-11.0536
▁అనుకో	-11.0536
▁నీట	-11.0536
▁పూర్తయ్యే	-11.0538
▁పిల్లి	-11.0539
▁పేదలు	-11.0541
▁చావు	-11.0541
భావ	-11.0543
▁ر	-11.0546
▁అభ్యంతరాలు	-11.0546
▁పాల్పడ్డ	-11.055
▁విచారించిన	-11.0552
▁చట్టాలను	-11.0553
ంతర్	-11.0558
.11	-11.056
▁కళ్యాణ	-11.0563
కున్న	-11.0565
స్టా	-11.0566
ంద్	-11.0566
شل	-11.0572
▁పనిలేదు	-11.0573
వారా	-11.0573
యాలు	-11.0574
▁దేశీయ	-11.0576
▁తెలియజేయ	-11.0576
▁కుటుంబాలను	-11.0579
▁ఇండెక్స్	-11.058
▁కంపార్ట్	-11.058
▁కంప్లైంట్	-11.058
▁సతీశ్	-11.058
▁సరస్వతి	-11.058
▁స్మృతి	-11.058
▁ఆపరేటర్	-11.058
▁సయ్యద్	-11.058
▁నిరుపేద	-11.058
▁తాగునీరు	-11.058
▁ఏవైనా	-11.058
▁జోస్యం	-11.058
▁జాయిన్	-11.058
▁శాఖలో	-11.0581
▁ఉంటోంది	-11.0582
▁బెటర్	-11.0583
▁శిల్ప	-11.0585
▁ప్రవేశం	-11.0585
▁ఉరి	-11.0586
▁ఖండ	-11.0586
▁ఆదిపురుష్	-11.0586
▁బటన్	-11.0587
▁ఎల్బీ	-11.0589
▁చెలరేగాయి	-11.059
▁చూపిస్తూ	-11.0592
ರುವ	-11.0595
▁రహిత	-11.0597
▁మూడుసార్లు	-11.0598
▁81	-11.0599
కాలంలో	-11.0599
▁మెరుపులతో	-11.0602
▁రామయ్య	-11.0603
▁చిక్కు	-11.0603
▁కూల	-11.0603
▁చూస్తున్నారని	-11.0605
sh	-11.0606
పోయాయని	-11.0608
▁సీతారామ	-11.061
నూరు	-11.0615
▁విమర్శ	-11.0615
▁నిండి	-11.0615
▁విధాన	-11.0615
▁ప్రయత్నించిన	-11.0616
▁అయ్యేలా	-11.0617
▁పాఠశాలల	-11.0617
▁మను	-11.0618
می	-11.062
ద్రి	-11.0621
▁కొట్టుకు	-11.0622
▁మాక్	-11.0624
ంచో	-11.0624
▁వస్తారు	-11.0626
▁చేరడంతో	-11.0629
▁త్రిష	-11.0632
▁నివారణ	-11.0637
▁నాసా	-11.0638
ిచ్చి	-11.0639
▁సర్వీసులు	-11.0639
లాపూర్	-11.0645
పోతుందని	-11.0645
▁స్టె	-11.0646
▁పట్టిన	-11.0649
▁ವ	-11.0649
▁గ్రీ	-11.0651
▁అద్దెకు	-11.0652
▁విడాకుల	-11.0655
▁కొంట	-11.0655
▁ఆవిర్భావ	-11.0655
భారత్	-11.0662
▁చీర	-11.0666
GB	-11.0669
▁సిరియా	-11.0669
రస్	-11.0671
▁ఎంతమంది	-11.0673
▁ప్రి	-11.0674
▁వినియోగించుకు	-11.0677
▁సీట్లకు	-11.0681
ta	-11.0683
▁కమిషనరేట్	-11.0684
▁చత్తీస్	-11.0684
▁ప్రావిన్స్	-11.0684
▁బృహస్పతి	-11.0684
▁వెల్లడైంది	-11.0684
▁శాంతిభద్రతల	-11.0684
▁హితవు	-11.0684
▁సమ్మర్	-11.0684
▁యాసంగి	-11.0684
▁ప్రతిష్ఠాత్మక	-11.0684
▁ఫిలిం	-11.0684
▁మనుగడ	-11.0684
▁గుంపు	-11.0684
▁ఐఐటీ	-11.0685
▁మెట్రిక్	-11.0685
▁నాగబాబు	-11.0685
▁భువనేశ్వర్	-11.0688
▁తెలియదని	-11.0689
▁ఉంచిన	-11.0689
▁కానున్నాయ	-11.069
▁ప్రమాణస్వీకారం	-11.0692
▁అభివర్ణించారు	-11.0693
▁తగ్గించే	-11.0693
▁చూడండి	-11.0695
▁బీభత్సం	-11.0695
▁ఐఎండీ	-11.0696
▁వివ	-11.07
కొట్ట	-11.0701
▁హీట్	-11.0702
▁మిల్లు	-11.0702
▁నియోజకవర్గాలకు	-11.0702
▁ఓటర్	-11.0703
▁తీసుకురావ	-11.0705
▁చెల్లించుకున్న	-11.0706
▁ಜ	-11.0706
▁లేదనే	-11.0708
▁భావిస్తున్నట్లు	-11.071
ుతుందా	-11.0711
▁ధరించిన	-11.0712
▁మల్లికార్జున్	-11.0712
▁ప్రసిద్ధి	-11.0714
ొక	-11.0716
▁యూని	-11.0717
▁క్షేత్రస్థాయిలో	-11.0717
▁చేసేది	-11.0719
ام	-11.072
▁నియామకాలు	-11.072
టర్లు	-11.0724
▁సీబీ	-11.0724
-5	-11.073
▁గార్డ్	-11.0732
డుతున్న	-11.0735
▁ఆసుపత్రుల	-11.0735
ండ్లు	-11.0738
నారాయణ	-11.0738
లతోపాటు	-11.0741
▁వేస్త	-11.0742
గొండ	-11.0744
▁పుట్టి	-11.0747
▁సంత	-11.0748
▁ఏళ్లలో	-11.0752
ళ్లను	-11.0752
▁రహదారుల	-11.0754
▁చెప్పా	-11.0758
▁న్న	-11.0758
▁ఉన్నాడని	-11.076
▁నారాయణ్	-11.0761
▁సెల్ఫీ	-11.0761
▁అనుభవించ	-11.0762
▁తొ	-11.0763
▁రిజల్ట్	-11.0764
▁పోటెత్త	-11.0764
▁శాతంగా	-11.0765
▁ఉమెన్	-11.0767
▁దూకుడుగా	-11.0772
వీర	-11.0774
వుతోంది	-11.0775
ుతుంద	-11.0775
ic	-11.0775
లేనని	-11.0777
▁వర	-11.0779
▁పిక్	-11.0783
▁చేకూర	-11.0784
▁స్కూళ్ల	-11.0785
▁అభ్య	-11.0787
▁రకంగా	-11.0787
▁సామ్	-11.0787
ଶ	-11.0789
▁ఆక్సిజన్	-11.0789
▁ఆచూకీ	-11.0789
▁టోర్నమెంట్	-11.0789
▁త్రిపాఠి	-11.0789
▁సామగ్రి	-11.0789
▁సీక్రెట్	-11.0789
▁అమరవీరుల	-11.0789
▁భగత్	-11.0789
▁మినిస్టర్	-11.0789
▁రిపీట్	-11.0789
▁మందమర్రి	-11.0789
▁కొండగట్టు	-11.0789
▁సీఎల్పీ	-11.0789
▁ఇనుప	-11.079
▁నికర	-11.0791
▁ఎవరికైనా	-11.0791
▁బ్రిటీష్	-11.0791
▁బస్తీ	-11.0792
▁యూపీఐ	-11.0792
▁కనిపెట్ట	-11.0794
▁కలిసేందుకు	-11.0794
▁మనీష్	-11.0794
▁చేసినందుకు	-11.0795
▁వెల్లడించిన	-11.0795
▁ఇస్తోంది	-11.0796
▁ప్రశ్నించింది	-11.0797
▁చేయకపోతే	-11.0798
▁పనిచేయాలని	-11.0798
▁చెప్పు	-11.08
02	-11.08
.17	-11.08
ఎంసీ	-11.0804
▁ఎమ్మెల్యేలకు	-11.0805
▁జీరో	-11.0806
▁నేతలే	-11.0806
▁దర్శన్	-11.0807
▁వాగ్వాదం	-11.0808
▁కాల్చ	-11.081
▁పిలవ	-11.081
▁మూత	-11.0812
▁ప్రత్యక్షంగా	-11.0813
▁లియో	-11.0816
▁మంత్రివర్గంలో	-11.082
క్టర్	-11.0822
పడే	-11.0822
▁బ్రిజ	-11.0823
▁సహాయపడ	-11.0831
▁చూపించే	-11.0834
▁వ్యక్తిగా	-11.0836
▁అనుమానిస్తున్న	-11.0838
▁ఆసక్తిని	-11.0841
▁అంగీకరించారు	-11.0841
▁సవాలు	-11.0842
▁ఏంటీ	-11.0844
▁తార	-11.0844
92	-11.0844
▁పున	-11.0845
ూనే	-11.0847
▁అర్ధం	-11.0848
హైదరాబాద్	-11.0848
మణి	-11.0857
▁74	-11.0857
ళం	-11.0861
▁చక్ర	-11.0861
ుతుంటారు	-11.0861
▁సంబంధాలను	-11.0863
వర్గాల	-11.0865
▁ఫ్లెక్సీ	-11.0866
▁వాదనల	-11.0866
▁కన్ను	-11.0873
▁వడ	-11.0873
ంలోకి	-11.0873
వారిలో	-11.0877
▁గొర్రెల	-11.0881
▁తెరకెక్క	-11.0882
డై	-11.0883
▁ఓవర్లు	-11.0887
▁వినోద	-11.0888
▁శిల్పా	-11.089
▁చేతుల్లో	-11.0894
▁అదరగొట్ట	-11.0895
▁అభ్యర్థన	-11.0895
▁ధోరణి	-11.0895
▁మెషీన్	-11.0895
▁విండీస్	-11.0895
▁శ్యామ్	-11.0895
▁సంభాషణ	-11.0895
▁హుజూరాబాద్	-11.0895
▁రెండేండ్ల	-11.0895
▁కొండచరియలు	-11.0896
▁ఉదయాన్నే	-11.0896
▁ప్లానింగ్	-11.0896
▁మోర్చా	-11.0896
2024	-11.0896
▁లక్ష్మారెడ్డి	-11.0896
▁సెక్రటేరియట్	-11.0896
▁బ్యాచ్	-11.0897
▁రవికుమార్	-11.0897
▁తీవ్రస్థాయిలో	-11.0898
▁ట్ర	-11.0899
▁అర్చకులు	-11.0901
▁కోటాలో	-11.0903
ెలా	-11.0904
▁ఒప్ప	-11.0904
▁వెళ్లినా	-11.0908
▁వ్యూస్	-11.0908
▁స్కాంలో	-11.0909
▁సాగుతుంది	-11.0909
▁వ్రతం	-11.0911
▁ఇస్తారని	-11.0912
▁కఠినమైన	-11.0912
▁సమాధానాలు	-11.0913
తారా	-11.0913
▁ఆలోచించి	-11.0914
▁మర్రి	-11.0915
▁కాపాడేందుకు	-11.0916
▁తగు	-11.0917
▁సంపాదించుకున్న	-11.0918
▁శ్ర	-11.0919
▁కాల్వ	-11.0922
▁దట్ట	-11.0922
షే	-11.0923
▁స్కూళ్లు	-11.0924
▁ఆదా	-11.0926
▁తలుపులు	-11.0929
మర	-11.093
▁డాక్యుమెంట్	-11.0932
▁చేస్తాడు	-11.0933
▁పాలనను	-11.0936
▁పలక	-11.0938
బోతున్నట్లు	-11.0939
▁ఆకాంక్ష	-11.0939
సెంట్	-11.0941
▁అవార్డుల	-11.0942
▁ఆలయాల	-11.0942
▁లం	-11.0943
ాలనేది	-11.0945
us	-11.0945
యల్	-11.0949
▁తప్పింది	-11.0951
న్నట్లు	-11.0954
▁టీఎంసీ	-11.0954
▁కల్కి	-11.0955
రేట్	-11.0955
▁ఇంతకు	-11.0956
▁ఐపీసీ	-11.0958
టీసీ	-11.096
▁బదిలీలు	-11.0962
శీల	-11.0962
▁కేంద్రాలకు	-11.0964
▁సౌ	-11.0965
▁(19	-11.0965
వుతున్న	-11.0965
▁మెన్స్	-11.0968
మిస్	-11.0969
షియ	-11.0977
▁లిస్టు	-11.0981
▁చదువుకున్న	-11.0981
▁భావోద్వేగ	-11.0983
▁భిన్న	-11.0984
▁తెల	-11.0985
▁వేడుకలకు	-11.0987
▁పంప్	-11.0989
▁వల	-11.0991
▁పొలం	-11.0992
ుకోవాల	-11.0996
ియన్	-11.1003
▁అమావాస్య	-11.1003
▁జింబాబ్వే	-11.1003
▁ప్యానెల్	-11.1003
▁ఫుటేజీ	-11.1003
▁వర్చువల్	-11.1003
▁సస్పెన్స్	-11.1003
▁ಸಾಮಾಜ	-11.1003
▁బెడ్రూం	-11.1003
▁జలుబు	-11.1003
▁ఆలౌట్	-11.1003
▁గూడ్స్	-11.1003
▁ఇండిపెండెంట్	-11.1003
▁సుబ్బారెడ్డి	-11.1003
▁సమాధి	-11.1003
▁ఫ్యాషన్	-11.1003
▁క్వాష్	-11.1004
▁ఏమిటో	-11.1004
▁హోంశాఖ	-11.1005
▁జైలర్	-11.1005
▁గాలింపు	-11.1005
▁కరుణాకర్	-11.1006
▁ఫిదా	-11.1007
ుతుండటంతో	-11.1007
▁రాబడి	-11.1007
▁ఇషాన్	-11.1007
▁పరిసరాల్లో	-11.1007
దనం	-11.1007
▁ఆసరా	-11.1008
▁ఎట్టి	-11.1009
▁చంద్రబాబుపై	-11.1009
▁తీసుకున్నా	-11.1012
▁చెయ్యాలని	-11.1013
▁మూడవ	-11.1013
.14	-11.1015
▁చెరో	-11.1015
▁గాజు	-11.1015
▁యానిమల్	-11.1017
▁తగ్గించేందుకు	-11.1017
▁కథలు	-11.1018
81	-11.102
▁కార్యదర్శులు	-11.102
▁అందుతున్న	-11.102
▁ప్రయాణించే	-11.102
▁డ్రాప్	-11.1023
▁క్రో	-11.1025
▁పెళ్ల	-11.1026
▁పథకంలో	-11.1026
لا	-11.1027
ap	-11.1028
▁పొందడం	-11.1034
షియన్	-11.1035
ದು	-11.1036
▁చేరుత	-11.1037
▁పాలకులు	-11.1038
ౌట్	-11.1039
నందుకు	-11.104
▁వ్యక్తిగతంగా	-11.1041
▁ಇ	-11.1042
▁కుప్ప	-11.1043
97	-11.1043
▁ప్రభుత్వాల	-11.1046
▁సృష్టించారు	-11.1046
▁గాంధీని	-11.1048
మైతే	-11.1053
▁పరికరాలు	-11.1053
▁మత్తు	-11.1054
నీరు	-11.1054
▁పదం	-11.1054
ేయాలని	-11.106
▁పూర్తిస్థాయిలో	-11.106
▁ఉన్నాయన్నారు	-11.1061
▁చెల్లింపులు	-11.1063
ग	-11.1064
నేత	-11.1064
▁జరుగ	-11.1065
▁విందు	-11.1067
▁రోగ	-11.1068
ಬ್	-11.108
▁గ్యా	-11.1081
తరం	-11.1087
▁రై	-11.1087
▁ఫోటోను	-11.1088
▁రియాక్ట	-11.109
▁ఉత్సాహం	-11.1091
▁కట్టు	-11.1093
▁తీస	-11.1093
▁సభ్య	-11.1093
▁ఆద	-11.1093
రెన్	-11.1094
▁మనసులో	-11.1096
▁అమృత	-11.1097
▁యె	-11.1098
▁ఉన్నవారికి	-11.11
▁మలయాళం	-11.1101
▁ف	-11.1103
రంగా	-11.111
▁ఉల్లంఘన	-11.1112
▁ఐర్లాండ్	-11.1112
▁పెద్దయెత్తున	-11.1112
▁సమ్మిట్	-11.1112
▁సామర్థ్యాన్ని	-11.1112
▁తలనీలాల	-11.1112
▁అప్పీల్	-11.1112
▁చక్రవర్తి	-11.1112
▁అశ్విని	-11.1112
▁ధనుష్	-11.1112
▁ఆరోపిస్తూ	-11.1112
▁భూమిలో	-11.1112
▁ముగియనుంది	-11.1113
ಗಳು	-11.1114
▁బహిష్కరించ	-11.1114
▁అన్నమయ్య	-11.1114
▁లేకున్నా	-11.1114
▁పడటంతో	-11.1115
▁రంజిత్	-11.1116
▁గ్రేట్	-11.1116
▁లక్ష్యమని	-11.1116
▁ఉపయోగించడం	-11.1116
▁నీల్	-11.1116
▁సిక్సర్లు	-11.1117
دہ	-11.1117
▁ఆర్ఆర్ఆర్	-11.1118
▁మాలిక్	-11.1118
▁పాల్పడ్డారని	-11.1119
▁ఉగ్రవాదుల	-11.112
▁తీసుకోలేదు	-11.1121
▁ప్రారంభమవుతుంది	-11.1122
గొడ	-11.1123
▁పాటించాలని	-11.1123
▁పట్టించుకోలేదు	-11.1126
▁విజన్	-11.1127
▁దాడుల్లో	-11.1129
▁ప్రవేశించిన	-11.113
▁స్వల్పంగా	-11.1131
▁వెళ్లినప్పుడు	-11.1134
▁కనెక్షన్	-11.114
ిస్తుందని	-11.1144
▁సింగర్	-11.1145
▁లెక్కించ	-11.1152
▁ఆభరణాలు	-11.1154
▁ప్రవేశపెట్టారు	-11.1154
▁ఎగ్జామ్స్	-11.1159
▁తప్పని	-11.1159
▁చెప్పినట్టు	-11.1159
▁ఒత్తిడిని	-11.116
ిస్తాం	-11.1163
▁ఉత్సాహంగా	-11.1164
▁చేస్తున్నాయని	-11.1164
ଥିବା	-11.1165
ನೆ	-11.1167
▁చేపట్టే	-11.1168
.18	-11.117
▁భావిస్త	-11.117
▁పూర్తిస్థాయి	-11.1172
▁కిందటే	-11.1174
▁తీస్తున్న	-11.1175
▁ఈజీ	-11.1179
.80	-11.118
▁పీడ	-11.1182
▁అగ	-11.1182
▁కస్టమర్లు	-11.1184
▁చీ	-11.1188
దశ	-11.1189
లోపే	-11.1189
▁సంప్రదాయం	-11.1191
▁ప్రజలే	-11.1194
▁బ్రహ్మోత్సవాల	-11.1195
మయం	-11.1195
▁بی	-11.1196
మైనది	-11.1198
▁లేఖను	-11.1199
▁),	-11.1201
▁చేశాను	-11.1204
▁ఎంచుకున్న	-11.1204
▁లాస్	-11.1207
▁ఆలేరు	-11.121
▁లభించిన	-11.1214
▁కాస్తా	-11.1215
▁జరుగుత	-11.1217
▁వైర	-11.1218
▁బాధపడ	-11.1218
హార	-11.1218
ೈ	-11.1221
▁అఫ్గానిస్తాన్	-11.1221
▁జ్యుడీషియల్	-11.1221
▁దువ్వాడ	-11.1221
▁వయనాడ్	-11.1221
▁సంకీర్ణ	-11.1221
▁హుటాహుటిన	-11.1221
▁క్షతగాత్రుల	-11.1222
▁దుర్మార్గ	-11.1222
▁నరేశ్	-11.1222
▁ప్రోగ్రాం	-11.1222
▁కొట్లాడ	-11.1222
▁చేసుకున్నాయి	-11.1222
▁సురేందర్	-11.1222
▁బిర్లా	-11.1222
▁మైనంపల్లి	-11.1222
ಗಳನ್ನು	-11.1222
▁అనుష్క	-11.1222
▁దొంగతనం	-11.1222
▁చూసుకోవాలి	-11.1222
▁ప్రేమను	-11.1222
▁తేనె	-11.1222
▁అనుకుంటున్న	-11.1223
▁స్వాతి	-11.1223
▁పూర్తయింది	-11.1223
▁ఉండటానికి	-11.1227
▁జీహెచ్	-11.1227
▁మాచర్ల	-11.1227
▁కిశోర్	-11.1228
▁విస్తరించి	-11.1228
▁వెంటాడ	-11.1229
▁నిర్ణయించినట్లు	-11.1231
లేదా	-11.1231
▁ప్రక్రియలో	-11.1232
▁కదల	-11.1234
▁ఆరోగ్యంపై	-11.1235
▁వీరయ్య	-11.1236
▁చర్చల	-11.1236
▁ఉత్తర్	-11.1237
ంతి	-11.1237
▁చెప్పవచ్చు	-11.1238
▁కనిపిస్తే	-11.1238
రియన్	-11.1241
▁మరే	-11.1241
▁160	-11.1246
▁భారతదేశానికి	-11.1246
▁దేశాలలో	-11.1248
▁ప్రజాస్వామ్యం	-11.1249
▁కిట్	-11.1249
టిల్	-11.1251
▁కుండ	-11.1253
య్యింది	-11.1254
▁బడా	-11.1254
ావ్	-11.1254
▁వీల్	-11.1255
▁వైరా	-11.1256
▁ఖు	-11.1257
▁చెప్పలే	-11.1258
▁జెన్	-11.126
▁స్టాల్	-11.126
▁హర్యానాలో	-11.1267
▁వసతులు	-11.127
▁కొద్దిరోజుల	-11.1277
▁విసిర	-11.1278
▁PM	-11.1278
▁మెరుగుపడ	-11.128
▁ప్రోత్సహిస్త	-11.1282
▁తెలిపే	-11.1282
ज	-11.1285
ఆగస్టు	-11.1285
▁నిర్మించి	-11.1285
▁బోస్	-11.1286
▁సిక్కు	-11.1289
▁నమోదయింద	-11.129
▁వెళ	-11.1291
▁రాక్షస	-11.1291
▁నడుమ	-11.1292
ెయిన్	-11.1292
▁లెస్	-11.1294
▁మౌనంగా	-11.1297
▁రాల	-11.1297
పాక	-11.1299
▁పర్యటిస్తున్న	-11.1299
▁పట్టి	-11.13
▁సంధ్య	-11.1301
▁కనుగొన	-11.1303
▁భాషా	-11.1304
ీన్	-11.1305
▁చూడగా	-11.1305
▁దెబ్బకు	-11.1312
▁తీయడం	-11.1317
▁వెళ్ళి	-11.1319
ుందన్నారు	-11.1319
▁AP	-11.1326
ుకుంటున్నారని	-11.1327
▁భర్తను	-11.1328
▁సచివాలయం	-11.1333
▁తాలూకా	-11.1333
ट	-11.1333
▁ఆశాభావం	-11.1333
▁చురుగ్గా	-11.1333
▁ప్రాపర్టీ	-11.1333
▁రిపబ్లికన్	-11.1333
▁రెసిడెన్షియల్	-11.1333
▁స్ట్రోక్	-11.1333
▁గ్లాసు	-11.1333
▁ఛాలెంజర్స్	-11.1333
▁పాలిటిక్స్	-11.1333
▁మహేంద్ర	-11.1333
▁డాక్యుమెంటరీ	-11.1333
▁మెప్పించ	-11.1333
▁ఆరేళ్ల	-11.1334
▁నిర్వహిస్తోంది	-11.1334
▁మిరియాల	-11.1334
▁లక్కీ	-11.1334
మవుతున్న	-11.1335
▁ఆర్సీబీ	-11.1335
▁సుకుమార్	-11.1335
▁మధుసూదన్	-11.1336
▁మహానాడు	-11.1336
▁గంభీర్	-11.1336
▁స్మిత్	-11.1337
▁జరపాలని	-11.1338
▁మదన్	-11.1338
▁రంగాల	-11.1338
▁ప్రారంభోత్సవం	-11.1339
▁నీర	-11.1339
▁1999	-11.1339
▁2007	-11.1341
▁నాతో	-11.1341
▁రైతుకు	-11.1341
▁జర్నలిస్టు	-11.1345
▁పాటకు	-11.1348
▁బోధన్	-11.1348
▁ఆస	-11.1349
▁ఆధారాల	-11.1349
▁మల్	-11.1356
కపోవచ్చు	-11.1356
▁హీరోలు	-11.1357
▁గ్రాస్	-11.1361
▁ప్రత్యర్థుల	-11.1363
▁విషం	-11.1364
▁పడుతున్నారని	-11.1364
▁అవుతుంద	-11.1369
کر	-11.137
▁మక్క	-11.1371
నాథన్	-11.1371
▁దీపం	-11.1372
▁నీలం	-11.1372
▁బాగు	-11.1373
▁గడ్డపై	-11.1374
ార్ధ	-11.1375
▁తేల్చారు	-11.1378
▁82	-11.1379
▁చెరువులో	-11.138
▁అభియోగాలు	-11.1381
▁నిజమ	-11.1383
వన్నీ	-11.1384
▁వాడు	-11.1386
▁తుల	-11.1389
▁జాగ	-11.139
పడుతున్నారు	-11.139
ାର	-11.1391
▁చుట్టు	-11.1391
▁ఆకాశ	-11.1397
▁కొడుతున్న	-11.1397
▁అమరుల	-11.1397
▁ఆధిక్యంలో	-11.1398
ول	-11.14
▁వేడెక్క	-11.1401
చ్చా	-11.1406
▁చంద్రబాబుతో	-11.1407
یٹ	-11.1413
ేస్తున్నారు	-11.1413
▁రేప్	-11.1415
▁కొనుగోళ్ల	-11.1416
లూరు	-11.1419
రాశి	-11.1419
▁చెయ్యడం	-11.142
▁లక్షణాల	-11.1423
ରୁ	-11.1423
సౌ	-11.1425
▁దొరకడం	-11.1425
▁నిర్ణయాలను	-11.1426
▁రేస్	-11.1427
▁తేదీకి	-11.1429
▁వారికే	-11.1432
వలసిన	-11.1433
మాల	-11.1435
▁బయటపడ్డ	-11.1436
టేషన్	-11.1436
▁పోవ	-11.1436
▁కనక	-11.1436
▁అధ్యయనంలో	-11.1441
▁చౌ	-11.1444
▁భౌతిక	-11.1445
▁జీఎం	-11.1445
▁నామినేట్	-11.1445
▁పార్టీతో	-11.1445
▁సామూహిక	-11.1445
▁ఎన్నారై	-11.1445
▁గైడ్	-11.1445
▁బోల్తా	-11.1445
▁విషమంగా	-11.1445
▁మిడిల్	-11.1445
▁ఫీల్డింగ్	-11.1445
▁బౌద్ధ	-11.1445
▁ఎల్బీనగర్	-11.1446
▁స్వరూప	-11.1446
▁పుస్తక	-11.1447
▁జాన్వీ	-11.1447
▁కరుణ	-11.1447
▁జోషి	-11.1449
▁కష్టాల్లో	-11.145
▁బయల్దేర	-11.1451
▁తప్పవని	-11.1451
▁అయ్యిందని	-11.1452
▁కేబుల్	-11.1452
▁పెరగడానికి	-11.1453
▁అవస్థలు	-11.1453
▁డీసీసీ	-11.1455
▁డీఆర్	-11.1455
▁క్రీమ్	-11.1455
▁వచ్చిందన్నారు	-11.1456
▁దూక	-11.1457
▁బ్యాన్	-11.1458
రాలి	-11.1461
▁వాజ్	-11.1461
▁అంటున్నారని	-11.1462
ಶ	-11.1463
▁ఇంటిపై	-11.1463
▁రాశా	-11.1464
▁తప్పదని	-11.1464
▁దాడిని	-11.1464
సభ	-11.1471
టికల్	-11.1475
▁విజయవాడకు	-11.1475
▁పాల్పడినట్లు	-11.1478
?""	-11.148
▁రిపేర్లు	-11.148
▁ఫైల్స్	-11.1481
▁నొక్కి	-11.1485
▁తెలుసని	-11.1486
▁గర్	-11.149
▁ఖర్చుల	-11.1491
▁షీ	-11.1492
▁పర్వత	-11.1493
▁రాత	-11.1493
▁పులివెందుల	-11.1497
اب	-11.15
▁టెండర్లు	-11.1502
▁అభివృద్ధిని	-11.1504
పక్ష	-11.1507
▁రోగి	-11.1507
▁పట్టే	-11.1508
డితే	-11.1512
▁సాగించ	-11.1515
▁కోరుతున్న	-11.1516
ధన	-11.1516
▁సాధించే	-11.1517
▁దుకాణాలు	-11.1523
▁పర్యాటకుల	-11.1526
▁కార్మికులను	-11.1527
▁లావాదేవీలు	-11.1529
ಲಾ	-11.1529
▁పండ్లను	-11.153
▁మరింతగా	-11.1531
స్తుంటారు	-11.1533
చ్ఛ	-11.1535
▁రానా	-11.1535
▁మధ్యాహ్న	-11.1536
▁రాత్ర	-11.154
▁వ్యూహ	-11.1543
▁విస్తీర్ణంలో	-11.1543
ుకుంటుంది	-11.1546
▁గోవింద	-11.1548
రోజులు	-11.1548
▁ఆశించ	-11.1548
▁వారిద్దర	-11.1548
▁సత్యం	-11.1549
▁నిర్మల	-11.1549
▁వినూత్న	-11.1551
యుల	-11.1552
▁టిక్	-11.1554
▁పేర	-11.1558
▁బెర్	-11.1559
▁ఎన్ఐఏ	-11.1559
▁కస్టమ్స్	-11.1559
▁క్లెయిమ్	-11.1559
▁గ్లింప్స్	-11.1559
▁డిజాస్టర్	-11.1559
▁తుపాకీ	-11.1559
▁ధనుస్సు	-11.1559
▁లెక్చరర్	-11.1559
▁స్ట్రీట్	-11.1559
▁హౌసింగ్	-11.1559
▁పోస్టింగ్	-11.1559
▁కుల్దీప్	-11.1559
▁భంగం	-11.1559
▁పద్మావతి	-11.1559
▁చెరువుల	-11.1559
▁ఎదురుదెబ్బ	-11.1559
▁భీమవరం	-11.1559
▁పరిగణిస్తారు	-11.1559
▁కనుగొన్నాము	-11.1559
▁బహుశా	-11.1559
▁ప్రభు	-11.1559
▁ప్రారంభమయ్యాయి	-11.1559
▁రాత్రిపూట	-11.156
▁విజయలక్ష్మి	-11.156
ಿದೆ	-11.156
▁కాజీపేట	-11.156
ండని	-11.1561
▁స్క్వాడ్	-11.1562
▁రజత	-11.1562
▁ద్రవ్యోల్బణం	-11.1563
▁మరణించారని	-11.1564
▁మనవి	-11.1565
▁అయ్యాయని	-11.1566
ాస	-11.1567
▁నటించింది	-11.1572
వాటి	-11.1573
▁ఉంచాలని	-11.1573
▁700	-11.1574
▁వెళ్లనున్నారు	-11.1574
▁సాగుతున్నాయి	-11.1576
▁శుద్ధి	-11.1576
▁వెజ్	-11.1576
▁రెండున్నర	-11.1577
▁మృతిచెంద	-11.158
▁ముగియ	-11.1585
▁రైడ్	-11.1594
హాన్	-11.1595
ాంగ	-11.16
▁నియమించిన	-11.1605
▁తీసుకోకుండా	-11.1606
స్సా	-11.161
స్థల	-11.1612
కోటి	-11.1613
▁పడటం	-11.1616
▁డ్రైవర్లు	-11.1616
▁పారా	-11.162
▁ఉంటుందనే	-11.162
జులై	-11.162
گر	-11.1623
▁తప్పి	-11.1623
▁సాయ	-11.1624
▁ఆదేశం	-11.1624
▁దుర్గ	-11.1625
▁జనాభాలో	-11.1626
ब	-11.1626
▁నీటితో	-11.1627
▁ఉన్నాయా	-11.1627
▁బెన్	-11.1629
▁లాభాల	-11.1632
రిస్	-11.1633
▁ఇళ్లకు	-11.1633
▁ఘన్	-11.1637
▁యాత్రకు	-11.1641
▁సదుపాయాల	-11.1642
▁మీనా	-11.1644
▁చదవ	-11.1646
▁సరిహద్దుల్లో	-11.1649
▁సదస్సులో	-11.1651
▁అన్నట్లు	-11.1655
▁2.5	-11.1655
▁అమల్లో	-11.1657
▁కనిపిస్త	-11.1657
▁కంట	-11.1659
తాయని	-11.1661
▁నిల్వలు	-11.1663
▁చెల్లించి	-11.1664
▁ఒప్పించ	-11.1666
నెస్	-11.167
ుందా	-11.1672
▁అరుణాచల	-11.1674
▁ఆల్కహాల్	-11.1674
▁ఇండస్ట్రియల్	-11.1674
▁ఛేంజర్	-11.1674
▁నిరసిస్తూ	-11.1674
▁మ్యానిఫేస్టో	-11.1674
▁విజిలెన్స్	-11.1674
▁వీకెండ్	-11.1674
▁వెసులుబాటు	-11.1674
▁హడావుడి	-11.1674
▁స్కూలు	-11.1674
▁సజ్జనార్	-11.1674
▁రిస్క్	-11.1674
▁సప్లయ్	-11.1674
పాలు	-11.1674
ಕ್ಕೆ	-11.1674
▁దొరికే	-11.1674
▁సోరెన్	-11.1674
నున్నాడు	-11.1674
▁మధ్యతరగతి	-11.1675
▁హైటెక్	-11.1675
▁కావలసిన	-11.1676
▁బఫర్	-11.1678
▁పేస్ట్	-11.1681
▁అమరావతిలో	-11.1681
150	-11.1683
▁ప్రాంగణంలో	-11.1685
▁وی	-11.1687
▁కృష్ణయ్య	-11.1689
▁లాగే	-11.1691
▁కల్పించింది	-11.1692
రమ్	-11.1693
వేసి	-11.1694
▁ఉన్నతాధికారుల	-11.1695
▁స్లో	-11.1695
మున	-11.1695
▁మ్యూజియం	-11.1697
▁డాన్	-11.1698
▁ఒక్కొక్కరి	-11.1701
▁నడిపే	-11.1703
▁నదీ	-11.1704
చేసింది	-11.1704
ందీ	-11.1704
ించడానికి	-11.1706
చారం	-11.1707
▁అహ	-11.1709
▁కాంబోలో	-11.1711
▁సీత	-11.1715
తెరకెక్కిస్తున్న	-11.1715
▁సెంటర్ల	-11.1717
▁అనుకునే	-11.1722
▁చేయలే	-11.1723
▁కూలీలు	-11.1724
▁తెలుసుకో	-11.1725
▁98	-11.1725
దేవ్	-11.1725
▁చూస్తారు	-11.1725
▁బాగుండ	-11.1725
▁నేరాలు	-11.1726
▁విత్తనాల	-11.1726
▁పర్యవేక్షించ	-11.1727
▁جو	-11.1727
▁ఏదీ	-11.1729
ni	-11.1732
▁వేసవిలో	-11.1737
vi	-11.1741
▁చదివి	-11.1742
▁వనరులు	-11.1743
▁సొమ్మును	-11.1744
▁ఎడ్	-11.1745
▁గిరిజనులు	-11.1748
డన్	-11.1753
▁గర్భం	-11.1754
▁గ్రహాలు	-11.1757
▁అమ్మవారిని	-11.1761
▁మనుషులు	-11.1764
▁నడప	-11.1766
un	-11.1766
మాల్	-11.1767
ంజా	-11.1768
ెప్	-11.1769
▁తిరుగు	-11.1771
▁రూపం	-11.1772
▁సాధ్యమ	-11.1772
్యాల	-11.1775
▁చేశారా	-11.1776
▁ప్రయాణాలు	-11.1778
▁విభాగాల్లో	-11.1779
▁ముంచ	-11.1781
▁ఆస్ట్రేలియాతో	-11.1784
▁కొన్నేళ్లు	-11.1784
ప్రియ	-11.1786
▁మెట్ల	-11.1787
▁ఢీకొట్ట	-11.1789
▁ధ్రువ	-11.1789
▁ఠాక్రే	-11.179
▁నలభై	-11.179
▁టెక్నికల్	-11.179
▁రిలీఫ్	-11.179
▁సఫారీ	-11.179
▁అనుచిత	-11.179
▁ఇంటిగ్రేటెడ్	-11.179
▁నిర్ధారణ	-11.179
▁క్రాంతి	-11.179
▁కివీస్	-11.179
▁ఛాంబర్	-11.179
▁ہمیں	-11.179
▁ట్యాప్	-11.179
ww	-11.1791
బడ్డాయి	-11.1791
▁స్లీపర్	-11.1792
▁ప్రియుడు	-11.1792
▁డెవలప్మెంట్	-11.1794
▁ముగుస్తుంది	-11.1794
▁ఇంజన్	-11.1794
▁ప్రకంపనలు	-11.1795
▁పదవిలో	-11.1796
▁గురైంది	-11.1796
▁చేసుకోండి	-11.1797
▁119	-11.1798
▁జామున	-11.1801
▁గోపి	-11.1801
▁ఇంతకుముందు	-11.1801
▁వస్తుందా	-11.1802
స్తున్నారని	-11.1802
▁ప్రవాస	-11.1803
▁83	-11.1803
▁జంతువులు	-11.1803
▁చనిపోయింది	-11.1804
ti	-11.1804
▁సమీపిస్తున్న	-11.1806
▁జరుపుతున్నారు	-11.1807
▁రేణుక	-11.181
నాల్	-11.1812
▁సంభ	-11.1812
ప్రసాద్	-11.1813
▁ఉపయోగం	-11.1815
▁ఇస్లామిక	-11.1816
▁తయారీకి	-11.1818
▁అదీ	-11.1818
▁త్యాగం	-11.1819
▁ఉండేదని	-11.182
▁దిగింది	-11.1821
▁బ్యాట్స్	-11.1821
▁స్వాతంత్ర్యం	-11.1823
▁పైనా	-11.1824
యంలో	-11.1825
▁అందుకున్నాడు	-11.1827
▁కట్టారు	-11.1829
▁యాక్	-11.183
కోవ	-11.1832
▁డైలాగ్స్	-11.1833
▁భక్తులను	-11.1834
▁ఆమెతో	-11.1835
▁సిరి	-11.1836
బై	-11.1839
ంటాయి	-11.1842
▁కుంగ	-11.1846
▁చేరాడు	-11.1849
▁పాట్	-11.1849
▁ఆధిపత్య	-11.185
▁నటులు	-11.185
▁ఎంతోమంది	-11.185
شن	-11.1851
▁ఎగ	-11.1851
యని	-11.1851
▁మోడీకి	-11.1852
▁మెరుపు	-11.1853
▁క్వార్టర్స్	-11.1854
ంబా	-11.1856
▁విడుదలకు	-11.1857
పోకుండా	-11.186
్లోనూ	-11.186
▁సిగ్గు	-11.186
యోగ	-11.1864
▁ఉపరితల	-11.1865
▁భయపడి	-11.1868
▁ఉత్పత్తులను	-11.1872
హార్	-11.1872
▁క్లా	-11.1872
లైన్	-11.1873
▁అనుసంధానం	-11.1873
▁మామూలు	-11.1877
▁పశువుల	-11.1879
పెద్ద	-11.1882
▁జరగడంతో	-11.1885
▁చారి	-11.1885
దురు	-11.1886
▁ఖే	-11.1886
▁విరమించ	-11.1889
▁ఉండగానే	-11.189
▁(10	-11.1892
▁కురిపించ	-11.1893
▁కస్టడీలో	-11.1894
ాలలో	-11.1894
-6	-11.1895
▁కూర్చో	-11.19
జూ	-11.1904
▁ఉపయోగ	-11.1904
▁ఆశీర్వాద	-11.1905
▁Reddy	-11.1907
▁ఇంగ్లిష్	-11.1907
▁కోహ్లి	-11.1907
▁క్యాండిడేట్	-11.1907
▁టీఎస్పీఎస్సీ	-11.1907
▁ప్రణీత్	-11.1907
▁మిలిటరీ	-11.1907
▁వైవాహిక	-11.1907
▁షబ్బీర్	-11.1907
▁సర్దుబాటు	-11.1907
▁హైస్కూల్	-11.1907
▁కమాండ్	-11.1907
▁సిల్వర్	-11.1907
▁బియ్యాన్ని	-11.1907
▁జహీరాబాద్	-11.1908
▁پوسٹ	-11.1908
▁శాస్త్రీయ	-11.1908
▁گئی	-11.1908
▁కొలువు	-11.1908
▁సాగునీటి	-11.1908
దాని	-11.1908
▁గురించే	-11.1908
ుతామని	-11.1909
▁వారెంట్	-11.1909
రిన్	-11.1909
▁దారితీసింది	-11.1909
▁వాపోతున్నారు	-11.1909
▁బుల్	-11.1909
▁అందుకో	-11.191
▁శ్రీదేవి	-11.191
▁ప్రదేశాల్లో	-11.1911
▁ప్లా	-11.1911
▁News	-11.1912
▁డ్ర	-11.1912
▁తీసుకురావడానికి	-11.1912
▁మాటలను	-11.1912
▁బీట్	-11.1913
▁స్నేహితుడు	-11.1913
▁Telangana	-11.1914
▁చేయలేదన్నారు	-11.1916
▁చూడవచ్చు	-11.1916
▁రైడర్స్	-11.1916
▁పాల్పడ్డాడు	-11.1916
▁సమాజానికి	-11.1916
బీసీ	-11.1917
▁సాయిరెడ్డి	-11.1917
▁ప్రేమలో	-11.1917
▁కార్యాలయాన్ని	-11.1917
ాధికారి	-11.1919
▁కెనడాలో	-11.1921
▁2003	-11.1921
▁విరామం	-11.1922
▁ఎంపికైన	-11.1924
▁విడుదలైంది	-11.1925
▁అట	-11.1926
▁కురిపించారు	-11.1927
▁సూచించిన	-11.1929
▁బ్యాగు	-11.193
▁నమూనా	-11.1933
▁కోళ్ల	-11.1936
▁రంగుల	-11.1936
▁పాద	-11.1938
▁బతుకు	-11.1938
▁అవుతాయని	-11.1939
▁ఉత్సవ	-11.1939
▁అడ్డా	-11.1942
నుకున్న	-11.1942
గలిగారు	-11.1946
రత్	-11.1946
▁వహించారు	-11.1947
▁నిర్వహణలో	-11.1948
ଡ	-11.1949
▁అయ్యా	-11.1949
▁నీల	-11.195
గడ్డ	-11.1951
ద్ది	-11.1952
▁US	-11.1952
▁సామాజికవర్గం	-11.1952
సల్	-11.1952
▁అడవిలో	-11.1955
▁మాట్లాడేందుకు	-11.1955
▁రిపోర్టులో	-11.1957
▁ఎప్పుడ	-11.1958
▁కోరుకుంటున్నా	-11.196
ಲ್ಲಿ	-11.1961
▁తగ్గించడంలో	-11.1963
▁సినిమాలతో	-11.1964
ేందర్	-11.1964
▁సంస్థలో	-11.1969
100	-11.1972
▁గౌ	-11.1976
▁చెప్పుకో	-11.1979
▁అసభ్య	-11.1981
▁ఒంటరి	-11.1982
▁వెతిక	-11.1986
▁మాయం	-11.1987
▁చాక్లెట్	-11.1996
▁-3	-11.1997
▁గ్రహ	-11.1999
▁టాయిలెట్	-11.2001
ఫోన్	-11.2001
▁అసలే	-11.2002
▁గీతా	-11.2003
▁కరి	-11.2003
▁మున్సిపాలిటీలో	-11.2004
▁ప్రారంభమై	-11.2007
▁ఆలస్య	-11.2009
▁వ్యాపారుల	-11.2009
▁బోధన	-11.2012
▁సవరించ	-11.2014
▁పోరులో	-11.2015
▁క్తుల	-11.2019
▁ఉద్యోగంలో	-11.202
▁పుర	-11.2022
▁నిలిప	-11.2023
▁తీసుకోవ	-11.2025
▁పిలిచే	-11.2025
یئر	-11.2027
▁క్యాబినెట్	-11.2027
▁క్రమశిక్షణ	-11.2027
▁చంద్రచూడ్	-11.2027
▁జీవనశైలి	-11.2027
▁నాదెండ్ల	-11.2027
▁ఫ్లైఓవర్	-11.2027
▁బషీర్	-11.2027
▁రెజ్లింగ్	-11.2027
▁సద్వినియోగం	-11.2027
▁సాంప్రదాయ	-11.2027
▁జానారెడ్డి	-11.2027
▁కిచెన్	-11.2027
▁నియమితులయ్యారు	-11.2027
▁సమాఖ్య	-11.2027
▁సంబందించి	-11.2027
▁అధిపతి	-11.2027
▁ట్రేడింగ్	-11.2027
▁దోషిగా	-11.2027
▁పూడ్చ	-11.2027
పోతే	-11.2027
▁శక్తివంతమైన	-11.2027
▁పైప్	-11.2028
▁ఉండవల్లి	-11.2028
▁సెలక్ట	-11.2028
▁లేకపోలేద	-11.2028
▁అటవీశాఖ	-11.2028
▁వస్తోందని	-11.2031
▁తెల్లవారు	-11.2032
▁బ్రెయిన్	-11.2033
ేశాయి	-11.2034
▁జరిగిందన్నారు	-11.2036
▁పొరపాటున	-11.2038
ోడు	-11.2038
▁ప్రొడ్యూసర్	-11.2038
▁తెలుసుకునే	-11.2042
▁పెరిగాయని	-11.2044
▁ముందంజలో	-11.2045
▁ఆనందాన్ని	-11.2045
▁జరుప	-11.2045
▁పట్టుబట్ట	-11.2045
మ్ము	-11.2046
▁ఇండ్లను	-11.2046
▁చెవి	-11.2047
▁జరుపుకుంటున్న	-11.2049
▁క్రి	-11.2049
▁వ్యాపించ	-11.205
▁ఉంటుందా	-11.205
▁నిర్వహించడానికి	-11.2052
ಿಸಿ	-11.2053
▁స్వీట్	-11.2053
గానూ	-11.2055
▁ఎటు	-11.2057
ంకా	-11.2058
▁కొడ	-11.206
హర	-11.2064
▁చూపిన	-11.2064
మెంట	-11.2065
▁పెళ్లిళ్లు	-11.2068
▁విజయంతో	-11.207
▁ల్ల	-11.207
▁చదువ	-11.207
▁హ్యా	-11.207
▁తరలించిన	-11.2071
▁తమన్నా	-11.2072
క్కర్లు	-11.2075
ుకునేలా	-11.2077
▁బిడ్డను	-11.2078
ండ్రు	-11.2079
▁మెక్	-11.208
▁నవ్వు	-11.2081
▁చంపి	-11.2086
▁లోపాల	-11.2089
▁మరణాలు	-11.2091
ish	-11.2097
స్తుంటే	-11.2097
పట్నం	-11.2098
▁కథను	-11.2099
కొత్తగూడెం	-11.21
కథనం	-11.21
▁మెహ	-11.2101
▁రేఖ	-11.2101
యన	-11.2102
▁దీప	-11.2106
▁హీరోయిన్స్	-11.2106
el	-11.2106
▁తొలగి	-11.2106
▁ఒకదాని	-11.2107
ేవీ	-11.2107
▁వడ్లను	-11.2109
గౌడ్	-11.2112
▁పొత్తులు	-11.2115
▁మాదిరి	-11.2116
బోయిన	-11.2118
▁విశ్వసనీయ	-11.2119
▁చేస్తున్నది	-11.2121
▁శాస్త్రవేత్త	-11.2121
మార్చి	-11.2122
▁కార్యకలాపాలకు	-11.2122
ీస్	-11.2127
▁తిరుపతిలో	-11.213
▁వీర్	-11.2131
▁సెం	-11.2131
▁సాంగ్స్	-11.2133
▁సీఏ	-11.2133
▁ఆఫీసుకు	-11.2135
▁మారడం	-11.2136
▁కథనంలో	-11.2136
జల్	-11.2137
▁ఆక్రమణల	-11.2138
▁స్టార్క్	-11.2141
▁బాండ్ల	-11.2143
అవన్నీ	-11.2146
▁ఇబ్రహీం	-11.2147
▁ఆకట్టుకుంది	-11.2147
▁కాచిగూడ	-11.2147
▁ఖానాపూర్	-11.2147
▁దిశానిర్దేశం	-11.2147
▁దూబే	-11.2147
▁నయనతార	-11.2147
▁పఠాన్	-11.2147
▁పదిహేను	-11.2147
▁కలుషిత	-11.2147
▁జమిలి	-11.2147
▁వానాకాలం	-11.2147
▁నర్సంపేట	-11.2147
▁కెపాసిటీ	-11.2147
▁దుస్థితి	-11.2147
▁సత్యవతి	-11.2148
▁ఛార్జింగ్	-11.2148
▁రైల్వేస్టేషన్	-11.2148
▁జోడి	-11.2149
▁కమలాకర్	-11.2149
▁గరుడ	-11.2149
▁ఎన్సీపీ	-11.2149
▁అతీతంగా	-11.2149
▁అడ్డుకునేందుకు	-11.2149
▁లాటరీ	-11.215
▁ధాన్యాన్ని	-11.215
▁చేయబడిన	-11.215
▁మాట్లాడుత	-11.2152
దుల	-11.2153
▁ఏర్పాటైన	-11.2154
▁1990	-11.2154
సాన్	-11.2157
▁విజయమ్మ	-11.2158
▁ఖండిస్తున్న	-11.2159
▁ఉంటామని	-11.2161
▁పతకం	-11.2161
▁అంబర్	-11.2162
▁మేజర్	-11.2163
▁విమర్శించ	-11.2165
▁మతాల	-11.2166
▁శాత	-11.2167
▁మ్మ	-11.2168
▁విస్తీర్ణం	-11.2168
▁గంటా	-11.2171
▁సంబ	-11.2173
▁వస్త్ర	-11.2176
▁మాణిక్	-11.2176
▁రెండ	-11.2177
▁పెంచడానికి	-11.2177
▁ఉపయోగపడ	-11.2178
▁ఓవర్ల	-11.218
▁రాజకీయాలను	-11.2182
కుడి	-11.2185
▁చివర	-11.2185
▁వారిద్దరి	-11.2187
▁కతాలో	-11.2188
▁-1	-11.2189
▁వారాల్లో	-11.2191
▁ఓటర్లకు	-11.2192
▁ఉన్నాయో	-11.2194
▁ఉంటాం	-11.2196
▁నష్టాలు	-11.2197
▁సవాళ్లు	-11.2199
▁అఫ్	-11.22
▁ఫాల్	-11.2202
▁టెస్టుల్లో	-11.2202
ತಿ	-11.2203
▁क	-11.2207
▁ت	-11.2214
ుద్దీన్	-11.2215
▁రొ	-11.2219
▁వింట	-11.222
▁సినిమాని	-11.222
తెలుగు	-11.2222
సముద్రం	-11.2222
▁రేగ	-11.2227
వుతున్నారు	-11.2229
ాగ్	-11.223
▁బట్టల	-11.223
ాధికార	-11.2231
▁తయారీలో	-11.2234
పెడతా	-11.2236
▁ఉపయోగిస్త	-11.2237
ట్లేదని	-11.2239
▁వసూళ్ల	-11.224
▁హార్	-11.2241
▁జరిగినప్పుడు	-11.2242
▁గడి	-11.2242
ಯಲ್ಲಿ	-11.2245
▁పేమెంట్	-11.2246
▁అందాయి	-11.2251
▁శోభ	-11.2252
▁వ్యాఖ్య	-11.2254
▁బ్యాటర్ల	-11.2254
శ్య	-11.2255
▁ఉద్యోగాలను	-11.2256
▁దాచ	-11.2257
ేట్	-11.2258
▁మరొకరి	-11.2258
▁వెయ్య	-11.2262
دی	-11.2263
▁పోల్చ	-11.2264
▁మేనేజ	-11.2265
రియల్	-11.2265
▁పునరుద్ధరణ	-11.2269
▁అడ్వకేట్	-11.2269
▁అవాంఛనీయ	-11.2269
▁ఊపిరితిత్తుల	-11.2269
▁ఎకానమీ	-11.2269
▁మృణాల్	-11.2269
▁మెక్సికో	-11.2269
▁సింధు	-11.2269
▁సిఫారసు	-11.2269
▁ಯಾವುದ	-11.2269
▁ఫ్రిజ్	-11.2269
▁నిలిపివేశారు	-11.2269
▁కన్యారాశి	-11.2269
▁రష్యన్	-11.2269
▁ట్రూడో	-11.2269
▁సోనియాగాంధీ	-11.2269
▁మైసూరు	-11.2269
▁వీఐపీ	-11.2269
▁యాక్టింగ్	-11.227
▁విజయశాంతి	-11.227
▁చెబుతుంటారు	-11.227
▁దినేష్	-11.227
▁جب	-11.227
▁మార్కుల	-11.2271
▁స్వీప్	-11.2272
▁నివాళులు	-11.2272
▁అడవుల్లో	-11.2272
▁తెలియాలంటే	-11.2273
▁ఆదివాసీ	-11.2273
▁సన్నాహాలు	-11.2273
▁చూపిస్తుంది	-11.2274
▁బళ్లారి	-11.2274
▁ఏర్పడిందని	-11.2274
▁స్టేజ్	-11.2275
▁కన్నీళ్లు	-11.2275
▁యావత్	-11.2276
▁సమన్లు	-11.2276
▁త్రీ	-11.2276
▁తరాల	-11.2278
▁చెప్పొచ్చు	-11.2279
▁నిమిషాల్లో	-11.2281
▁అప్పగించింది	-11.2281
▁పరామర్శించ	-11.2284
▁అధ్యయనాలు	-11.2284
▁వాద	-11.2284
93	-11.2286
▁మనల్ని	-11.2286
▁తగ్గట్టుగా	-11.2287
ుడే	-11.229
▁పంపాలని	-11.2291
▁పీఏ	-11.2291
▁సుందర	-11.2291
▁చూపి	-11.2293
▁దుర్గం	-11.2294
▁పంటలకు	-11.2294
ిచ్చారు	-11.2295
లక్ష్మీ	-11.2296
ిస్తున్నాయి	-11.2296
పుల్	-11.2297
▁మిల్లర్	-11.2302
▁వ్యవస్థకు	-11.2303
▁షూ	-11.2303
▁నాయర్	-11.2304
▁స్వీ	-11.2304
▁మెటా	-11.2305
ష్ఠ	-11.2305
▁సాక్షిగా	-11.2306
ئے	-11.231
▁విస్తార	-11.231
▁ಮಾಡ	-11.231
▁నినాదంతో	-11.2311
▁కల్పిస్తున్న	-11.2312
▁భయ	-11.232
▁పిల్	-11.2321
▁నిజమే	-11.2321
▁ఒప్పందాలు	-11.2322
▁తీరంలో	-11.2322
▁శివుడి	-11.2323
▁మాత్రమేనని	-11.2323
▁అందజేస్త	-11.2323
▁విచారం	-11.2324
▁పూరి	-11.2325
▁అన్యాయ	-11.2326
▁ఒకరిపై	-11.2329
▁తరహాలోనే	-11.233
▁89	-11.2331
▁అతడికి	-11.2332
▁పెళ్లిళ్ల	-11.2332
ak	-11.2333
▁దళాల	-11.2335
▁రౌ	-11.2336
▁ముక్క	-11.2337
▁అందరు	-11.2342
▁మిడ్	-11.2343
▁ప్రతిష్టాత్మక	-11.2346
ాలనుకుంటున్న	-11.2347
▁బాధితుడి	-11.2349
▁350	-11.2349
▁నామా	-11.2354
▁సాక్షి	-11.2356
స్తానని	-11.2356
▁జులైలో	-11.2356
▁(1)	-11.2356
▁అభిమానం	-11.2356
▁నీడ	-11.2357
▁కళాకారుల	-11.2363
▁ఏనుగుల	-11.2367
▁గార్డెన్	-11.2368
▁వర్షాకాలంలో	-11.2368
▁దామోదర	-11.2376
▁విమర్శిస్తున్న	-11.2378
▁భట్	-11.2381
▁ఇక్క	-11.2381
▁లుగా	-11.2382
▁దీన్	-11.2384
▁పరిశీలిస్త	-11.2385
▁కార్యకర్తలతో	-11.2386
▁నిరుడ	-11.2386
▁సెట్స్	-11.2388
▁దోష	-11.2388
▁ఆస్పత్రుల	-11.2389
▁Chandrababu	-11.2392
▁అవెన్యూ	-11.2392
▁ఎగ్జిబిషన్	-11.2392
▁కొల్లాపూర్	-11.2392
▁కౌన్సెలింగ్	-11.2392
▁క్రాఫ్ట్	-11.2392
▁చారిత్రాత్మక	-11.2392
▁తగ్గుముఖం	-11.2392
▁పువ్వాడ	-11.2392
▁ప్రయివేట	-11.2392
▁రిపోర్టర్	-11.2392
▁హడావిడి	-11.2392
▁ఐదుగురి	-11.2392
▁పరేడ్	-11.2392
▁కుజుడు	-11.2393
▁పౌడర్	-11.2393
▁సమర్థవంతంగా	-11.2393
▁గుత్తా	-11.2393
▁డిప్రెషన్	-11.2393
▁తెలిస్తే	-11.2393
▁సంపత్	-11.2393
▁భృతి	-11.2393
▁గేటు	-11.2393
▁గోయల్	-11.2394
▁పోచారం	-11.2394
▁వెంకన్న	-11.2394
▁నర్సింగ్	-11.2394
▁శబరిమల	-11.2395
▁కార్నర్	-11.2395
▁అవకాశమ	-11.2396
▁అసత్య	-11.2397
▁ఇపుడు	-11.2398
▁కాశీ	-11.2398
▁విష్ణువు	-11.2398
▁రాష్ట్రాలలో	-11.2399
▁ఎదురైన	-11.2399
?:	-11.2399
▁పెంచుతుంది	-11.2399
▁పెడతారు	-11.2399
▁నిలిచ	-11.24
▁టైప్	-11.2402
▁సంజీవ్	-11.2403
▁సంభవించిన	-11.2403
▁వెళ్లాలంటే	-11.2403
▁పడతాయని	-11.2404
▁చేరుకునే	-11.2405
▁2005	-11.2405
▁కథనాల	-11.2405
రన్నారు	-11.2406
▁తిండి	-11.2407
▁భవనాన్ని	-11.2408
▁పంది	-11.2409
▁అంకితం	-11.2409
▁చేయకూడదు	-11.2412
,800	-11.2414
▁మరణించినట్లు	-11.2415
నాధ్	-11.2415
▁రిపేర్	-11.2416
కాదు	-11.2416
దానికి	-11.2418
▁గ్ల	-11.2421
▁వారాలు	-11.2424
▁యత్న	-11.2424
▁దేవాలయ	-11.2425
▁యూనిట్లు	-11.2426
▁ఖైదీ	-11.2426
▁దశల్లో	-11.2429
▁అక్రమాలకు	-11.2429
▁ఇందు	-11.243
బ్రి	-11.2431
▁ముందున్న	-11.2431
సీపీ	-11.2432
▁అమలుకు	-11.2438
పల్లె	-11.2439
▁చనిపోయినట్లు	-11.244
బన్	-11.2441
▁కాలానికి	-11.2444
పేట్	-11.2444
▁షాద్	-11.2444
▁బంగార	-11.2446
ಲ್ಲ	-11.2446
స్తోన్న	-11.2449
▁అపో	-11.2449
▁ఎత్తుకు	-11.245
స్తున్నా	-11.245
▁ڈ	-11.2451
▁హైవేపై	-11.2452
▁చేరుకున్నాయి	-11.2452
సెల్	-11.2456
▁c	-11.2457
▁ఎదుర్కో	-11.2458
▁పడుతూ	-11.2461
▁అంతస్తు	-11.2462
▁ఇటలీ	-11.2463
▁ఇదివరక	-11.2463
نی	-11.2464
▁నిర్మాణాలను	-11.2465
▁బీర్ల	-11.2467
▁వింగ్	-11.2467
କ୍ତ	-11.2471
సినిమా	-11.2471
▁భో	-11.2472
▁సంస్థలను	-11.2472
▁Ra	-11.2479
▁మావోయిస్టుల	-11.248
కూడా	-11.2481
▁డిగ్రీలు	-11.2482
లేకపోతున్నారు	-11.2483
▁నిరసనగా	-11.2485
వాళ్లకు	-11.2489
▁సమం	-11.2489
▁వస్తున్నారని	-11.2489
▁అవినీతిపై	-11.2491
୍ୟ	-11.2491
▁అడిగే	-11.2491
▁పనిచేసి	-11.2493
▁భార్యతో	-11.2493
▁పోటీల్లో	-11.2497
▁తీసుకువచ్చ	-11.2497
▁పేజీల	-11.2498
▁పనితీరును	-11.2499
▁ళ	-11.2505
▁ರ	-11.2506
▁కొర	-11.2507
▁దూకి	-11.2509
▁చేశాక	-11.251
▁ایس	-11.251
व	-11.2517
▁ଭିଡିଓ	-11.2517
▁అసదుద్దీన్	-11.2517
▁మిలటరీ	-11.2517
▁మేడారం	-11.2517
▁మ్యానిఫెస్టో	-11.2517
▁వెలుపల	-11.2517
▁సర్క్యూట్	-11.2517
▁చుట్టుముట్ట	-11.2517
▁కొవిడ్	-11.2517
▁సంపాదన	-11.2517
▁కాషాయ	-11.2517
▁ముగిశాయ	-11.2518
▁వెంకటేశ్వరరావు	-11.2519
▁జార్జ్	-11.2519
▁నడుస్తుంది	-11.2519
▁ఐకాన్	-11.2519
▁కెనాల్	-11.2519
▁స్వామిని	-11.2519
ಿದ್ದಾರೆ	-11.252
▁కావొచ్చు	-11.252
▁ఇంటింటికీ	-11.252
▁లోపాలు	-11.2521
▁జన్మించారు	-11.2522
▁చీల	-11.2525
▁నీరజ్	-11.2525
ట్లయింది	-11.2529
▁సాగిస్తున్న	-11.2529
▁విడిపో	-11.2529
▁లభిస్తుందని	-11.253
▁ప్రకటించాలని	-11.2531
▁తగ్గించడానికి	-11.2531
▁సోదరుడి	-11.2532
మల	-11.2533
▁ప్రారంభించాలని	-11.2536
▁జరుగుతూ	-11.2538
▁తాగే	-11.2541
హరి	-11.2545
▁కేఫ్	-11.2545
▁ప్రాజెక్టులను	-11.2548
▁ఓట్	-11.2549
▁దళాలు	-11.2549
▁పేర్కొన్నాడు	-11.2551
▁ఆశిస్తున్నారు	-11.2552
▁జేడీ	-11.2553
▁పర్యవేక్షణలో	-11.2554
▁హిందీలో	-11.2565
▁డీఎం	-11.2567
▁డాలర్	-11.2569
మహా	-11.257
▁ఏరియాల్లో	-11.2571
కున్నా	-11.2577
▁మోడ్	-11.2578
▁కారణాలను	-11.258
రూర్	-11.2583
▁గంటల్లోనే	-11.2583
రాయ్	-11.2586
▁బెదిరింపులు	-11.2587
ిపోత	-11.2588
▁ప్రమాదాన్ని	-11.2588
▁వసతుల	-11.2588
హై	-11.2589
స్తాన్	-11.2592
కోట	-11.2592
సేన	-11.2593
▁ఘాటు	-11.2594
▁కోల్పోవడం	-11.2594
▁నటించి	-11.2594
▁వేర్వేరుగా	-11.2595
▁పురుగుల	-11.2596
▁చేశ	-11.2597
▁కాలేజీల	-11.2597
శంకర్	-11.2597
▁స్నేహితులతో	-11.2601
చూప	-11.2601
▁పొంది	-11.2602
▁తిప్పి	-11.2603
▁కొనసాగుతున్నారు	-11.2606
ప్రజల	-11.2606
ud	-11.2611
పడింది	-11.2611
▁చిహ్నం	-11.2615
▁పాపం	-11.2615
▁మొదటిసారిగా	-11.2615
▁का	-11.2615
▁అల్లర్ల	-11.2616
▁కంపెనీల్లో	-11.2617
▁జీతాల	-11.2619
▁అడుగుతున్న	-11.262
▁శ్రేణుల	-11.262
▁తరం	-11.2621
▁చార్జీలు	-11.2621
▁చంద్రుని	-11.2622
▁రంగులు	-11.2622
తప్ప	-11.2628
▁డార్	-11.2631
▁79	-11.2632
▁ఎన్నికల్లోనూ	-11.2633
ಗೆ	-11.2641
పేటలో	-11.2642
.70	-11.2642
▁పేషెంట్	-11.2644
▁Breaking	-11.2644
▁ఆశీర్వదించ	-11.2644
▁కాలిఫోర్నియా	-11.2644
▁డిఫరెంట్	-11.2644
▁ఫ్యూచర్	-11.2644
▁సింపుల్	-11.2644
ଖ	-11.2644
▁ముషీరాబాద్	-11.2644
▁తరలివచ్చార	-11.2644
▁ಪೋಸ್ಟ	-11.2644
ana	-11.2644
ప్పుడల్లా	-11.2644
▁స్మారక	-11.2645
▁స్పిన్	-11.2645
▁విషెస్	-11.2645
▁వాకింగ్	-11.2646
▁చేసుకోవచ్చని	-11.2646
▁పథకానికి	-11.2646
స్ట్ర	-11.2646
▁దీప్తి	-11.2648
▁కావు	-11.2652
▁వేడుకకు	-11.2655
▁ఫీ	-11.2655
▁ٹی	-11.2656
▁కండక్టర్	-11.2656
▁పోషిస్తున్నారు	-11.2659
▁ବି	-11.266
▁చూశాం	-11.266
▁దామోదర్	-11.2661
▁ఇస్తున్నామని	-11.2662
▁వంగా	-11.2662
▁సందేహాలు	-11.2663
▁అనుగ్రహం	-11.2664
▁చేయించుకున్న	-11.2665
▁క్యాపిటల్స్	-11.2667
▁జారి	-11.2668
▁నిర్ధారించారు	-11.2671
▁పట్టణం	-11.2671
▁అప్రమత్తమైన	-11.2671
▁సుఖ్	-11.2672
▁వేశాడు	-11.2672
▁రాయలసీమలో	-11.2673
▁శివారు	-11.2677
▁మేనిఫెస్టోను	-11.2677
ాక్స్	-11.2678
▁అంటేనే	-11.268
▁వాణి	-11.2684
▁విక్రయిస్తున్న	-11.2685
▁నిప్పులు	-11.2686
▁జాడ	-11.2687
గ్గు	-11.2688
్లీ	-11.269
▁చెప్పలేదు	-11.269
రత్న	-11.2692
▁అవిశ్వాసం	-11.2692
▁భీమ్	-11.2692
▁యుద్ధానికి	-11.2693
▁ఆంక్షల	-11.2694
▁దిక్కు	-11.2694
▁చెప్పుకునే	-11.2696
▁బృందాల	-11.2697
▁తెలిప	-11.2698
▁బెల్	-11.2698
ేసే	-11.27
▁నమ్మక	-11.2701
▁సమ్మేళనం	-11.2704
▁పోతున్న	-11.2707
నాకు	-11.2708
▁శుభ్రంగా	-11.2716
▁సింహా	-11.2716
ఎస్సీ	-11.2719
▁అభ్యర్ధి	-11.2719
▁గురవుత	-11.2723
ವಾ	-11.2724
ଏ	-11.2725
ఏప్రిల్	-11.2725
ధర	-11.2725
▁‍	-11.2729
దాస్	-11.2733
▁తొమ్మిదేళ్ల	-11.2737
▁విన్నర్	-11.2738
▁పోవడం	-11.2738
జిల్	-11.2739
▁జిన్	-11.2739
ానా	-11.274
▁అద్దం	-11.274
వలసి	-11.2741
▁గణాంకాల	-11.2743
▁కండరాల	-11.2744
ొకరు	-11.2744
▁చేస్తామ	-11.2744
▁తగిలి	-11.2744
▁సహకరిస్త	-11.2745
▁గుర్త	-11.2746
▁చుక్క	-11.2746
▁గుడ్లు	-11.2746
▁రెండేళ్లు	-11.2748
జిన్	-11.2748
సభ్య	-11.2749
▁పాల్గొంట	-11.2751
▁ఉండాల్సి	-11.2756
▁సంపాదించిన	-11.2758
▁రోగులు	-11.2759
▁కులాలు	-11.2761
▁అత్యాచార	-11.2761
శాడు	-11.2762
ంపేట	-11.2762
ط	-11.2762
▁తెలియకుండా	-11.2765
▁దక్కే	-11.2765
▁తెచ్చే	-11.2769
▁జడ్చర్ల	-11.2772
▁తాడిపత్రి	-11.2772
▁పుణె	-11.2772
▁ఆర్డినెన్స్	-11.2772
▁ఎక్కడికక్కడ	-11.2772
▁ఏమిటంటే	-11.2772
▁కంటైనర్	-11.2772
▁గడ్కరీ	-11.2772
▁సోర్సింగ్	-11.2772
▁సునామీ	-11.2772
▁స్కెచ్	-11.2772
▁ఛేదనలో	-11.2772
▁టర్కీ	-11.2772
▁మొక్కజొన్న	-11.2772
▁పూర్వీకుల	-11.2772
▁జన్మదిన	-11.2772
▁సుమలత	-11.2772
▁సైన్సెస్	-11.2772
▁సీతారాం	-11.2772
▁వైయస్సార్	-11.2773
▁విజయసాయిరెడ్డి	-11.2773
▁ପ୍ର	-11.2773
▁రెబల్	-11.2773
▁సాగునీరు	-11.2773
▁లంచ్	-11.2773
▁డివైజ్	-11.2774
ना	-11.2774
▁పడిపోయాయి	-11.2775
▁ఐడియా	-11.2775
▁గోవర్ధన్	-11.2775
▁ఎన్నిసార్లు	-11.2776
▁గార్డు	-11.2777
▁చర్చించనున్నారు	-11.2778
▁ఈమె	-11.2778
▁ఆదాయపు	-11.2778
▁మొండి	-11.2778
వాడిని	-11.2779
▁పదేండ్లు	-11.278
▁ఆదర్శంగా	-11.2782
▁రాయుడు	-11.2783
▁కూర్చొని	-11.2784
▁ఈశ్వర్	-11.2785
▁అబ్దుల్లా	-11.2787
▁బలహీనంగా	-11.279
▁గురవుతున్నారు	-11.2792
ara	-11.2792
▁భుత్వం	-11.2792
▁కేఎస్	-11.2793
▁సులువుగా	-11.2794
▁డబ్ల్యూ	-11.2795
▁అందించడానికి	-11.2795
▁స్కా	-11.2795
▁పదేండ్ల	-11.2797
▁దాల్చ	-11.2799
▁దారుల	-11.2801
▁దిశా	-11.2802
▁అనుకుంటున్నా	-11.2806
▁ప్రమాదకరంగా	-11.2806
▁ఓపెనర్లు	-11.2807
నాథ	-11.2807
స్తాయని	-11.2808
▁అప్పగిస్త	-11.2809
▁ఇస్తున్నారని	-11.2809
▁ఇండ్లకు	-11.2811
▁రంగానికి	-11.2812
ాయంటూ	-11.2812
▁క్రీడల	-11.2815
▁పోరాడిన	-11.2816
▁సిద్దంగా	-11.2819
సిల్	-11.2819
▁కాపాడే	-11.282
మారు	-11.2821
ళ్లకు	-11.2821
▁అతనిపై	-11.2822
▁దొర	-11.2822
om	-11.2824
▁దొ	-11.2826
▁కిందటి	-11.2826
▁వన్డేల్లో	-11.2827
▁ఇస్తున్నట్లు	-11.2828
▁ఉపాధ్యాయులు	-11.2828
▁స్థితికి	-11.283
▁ఆడుతూ	-11.2831
మల్ల	-11.2833
ుంటుంది	-11.2836
▁ఘాటుగా	-11.2836
▁కలిప	-11.284
▁పుట్టుక	-11.284
దగ్గ	-11.2844
te	-11.2847
▁ప్రయాణంలో	-11.2848
▁కస్టమర్ల	-11.2849
పడ్డాయి	-11.2851
▁సీతా	-11.2852
ెందుకు	-11.2852
▁కోట్లుగా	-11.2855
▁గూడెం	-11.2855
▁చేశారనే	-11.2856
▁మద్య	-11.2857
▁పాఠశాలలకు	-11.286
▁గందరగోళ	-11.2861
▁తీవ్రవాద	-11.2866
ొద్ద	-11.2867
▁అమ్మే	-11.2867
▁హాజరయ్యే	-11.2868
ಯನ್ನು	-11.2869
▁గర్భ	-11.2872
ెత్తి	-11.2873
లేకపోతున్న	-11.2873
▁చెలరేగిన	-11.2874
▁వ్యవహారాలు	-11.2877
▁ఎంపీటీసీ	-11.2877
మంటే	-11.2878
▁పేర్ల	-11.2882
▁గ్రే	-11.2883
▁చూపే	-11.2883
▁నిర్వాహకుల	-11.2883
ించారని	-11.2885
▁వాదించ	-11.2887
తాను	-11.2888
▁కణాల	-11.2888
ఫో	-11.2891
▁స్వా	-11.2893
▁సంయుక్తం	-11.2895
▁ఫ్రీగా	-11.2895
కాకుండా	-11.2895
▁విషయమే	-11.29
▁మీదే	-11.2902
▁పోగొట్టుకున్న	-11.2902
▁సూక్ష్మ	-11.2902
▁అజెండా	-11.2902
▁అసైన్డ్	-11.2902
▁ఉధృతం	-11.2902
▁కాల్షియం	-11.2902
▁గణనీయమైన	-11.2902
▁చర్చనీయాంశమైంది	-11.2902
▁హుజూర్	-11.2902
▁కాగజ్	-11.2902
▁గోదావరిఖని	-11.2902
▁ఘోష్	-11.2902
▁Read	-11.2902
▁ఎకరానికి	-11.2902
▁ఆర్గనైజేషన్	-11.2902
▁ఎడిషన్	-11.2903
▁2023-24	-11.2903
▁రేడియో	-11.2903
▁జంప్	-11.2905
కోసారి	-11.2906
▁ఎల్లప్పుడ	-11.2906
▁కంప	-11.2907
▁ప్రదేశాల	-11.2909
▁తీసుకోలేదని	-11.2909
కెక్కి	-11.2909
కర్త	-11.2914
మీరు	-11.2914
▁ఖుషి	-11.2914
▁కలుగుతుందని	-11.2915
▁మహేశ్వర్	-11.2915
▁గొప్పగా	-11.2916
▁ప్రయోగించిన	-11.2916
▁ప్రయత్నిస్తోంది	-11.2916
▁అదృష్ట	-11.2917
▁నిర్మించాలని	-11.2918
▁బ్రాహ్మణ	-11.2919
▁నిధులతో	-11.2921
▁భాగస్వాముల	-11.2921
▁ఉంటాయ	-11.2922
▁పట్టించుకోలేదని	-11.2922
▁సీమ	-11.2923
▁తూ	-11.2924
▁నౌ	-11.2925
▁మన్యం	-11.2925
▁కుర్చీ	-11.2925
▁మరణానికి	-11.2925
▁ఇవ్వనున్నారు	-11.2926
▁కనిపించాడు	-11.2927
▁తీస్తున్నారు	-11.2928
▁బిల్లుకు	-11.2928
.200	-11.2928
▁నేన	-11.293
▁و	-11.293
▁పోల	-11.2934
గులు	-11.2939
▁స్వీకరిస్త	-11.294
▁ఉంటున్నాడు	-11.2941
▁దర్శించ	-11.2942
▁లోయలో	-11.2945
▁గెలుపొంది	-11.2945
ಂದ	-11.2945
కేషన్	-11.2945
▁ఇంతవరక	-11.2946
▁అమర్చ	-11.2947
▁తట్ట	-11.2949
▁గుహ	-11.295
▁బీరు	-11.2951
ోస్ట్	-11.2953
ab	-11.2954
▁దాచి	-11.2955
▁ఎక్కడో	-11.2955
▁ఉన్నంత	-11.2955
▁వైకుంఠ	-11.2956
▁వయసులోనే	-11.2957
▁వెన్న	-11.2957
చ్చే	-11.2958
▁ఓడిన	-11.2961
▁ప్రోత్సాహ	-11.2962
▁పేరుకు	-11.2964
▁సమీకరణాల	-11.2965
ನಿ	-11.2966
▁ఫైటర్	-11.2969
▁హిమా	-11.2969
▁2024)	-11.297
▁వాహనంలో	-11.297
షర్	-11.2971
▁దాటే	-11.2971
esh	-11.2972
▁ఉపవాస	-11.2976
/2	-11.2977
▁రోల్స్	-11.2978
05	-11.2978
▁ق	-11.2979
ిస్తున్నారని	-11.298
▁గర్వ	-11.298
▁వస్తూ	-11.2982
చార	-11.2987
ಮಾ	-11.2988
hi	-11.2988
▁మాధవ	-11.2989
ವು	-11.299
లేదంటూ	-11.2993
▁ఈదురు	-11.2993
ళ్లలో	-11.2995
▁పోయే	-11.2995
▁తోడుగా	-11.2996
▁తాగిన	-11.2997
▁చేసుకున్నారని	-11.2999
▁కార్యాలయ	-11.3001
▁సంక్షేమానికి	-11.3003
నుండి	-11.3005
▁కేటాయింపులు	-11.3005
▁ఏఆర్	-11.3006
▁ఫుడ్స్	-11.3006
ింటి	-11.3008
▁కథలో	-11.3011
▁పరీక్షకు	-11.3012
ఒ	-11.3012
▁క్ల	-11.3012
▁కుర్ర	-11.3013
▁ఇప్పుడున్న	-11.3018
▁చేయగలిగ	-11.3022
గుట్ట	-11.3024
▁క్యాంటీన్	-11.3026
టీఎస్	-11.3026
▁అడుగ	-11.3028
▁దోచుకున్న	-11.3028
యిల్	-11.303
भ	-11.3034
▁చిత్తశుద్ధి	-11.3034
ए	-11.3034
▁నాలుగైదు	-11.3034
▁వెడ్డింగ్	-11.3034
▁వెరిఫికేషన్	-11.3034
లాజికల్	-11.3034
▁చంద్రబోస్	-11.3034
_	-11.3034
▁తులారాశి	-11.3034
://	-11.3034
▁ఇందిరాగాంధీ	-11.3034
▁దుమ్ము	-11.3034
▁తెలుసుకోవడానికి	-11.3034
లక్షలు	-11.3035
ధం	-11.3035
▁జేమ్స్	-11.3035
▁కథన	-11.3035
▁బారులు	-11.3035
▁చవితి	-11.3035
▁పొంచి	-11.3035
▁థాయ్	-11.3036
▁సంతతి	-11.3036
▁ఆశీర్వాదం	-11.3036
▁వచ్చానని	-11.3036
▁పులుల	-11.3036
▁రావాలంటే	-11.3037
▁పంచాయతీరాజ్	-11.3037
▁ఇంతకాలం	-11.3037
▁నిలిచిపోయింది	-11.3037
▁వద్దు	-11.3038
▁తీసుకోండి	-11.3041
చింది	-11.3043
▁సిద్ధార్థ్	-11.3043
▁హత్యాయత్నం	-11.3043
▁ప్రతిపాదించారు	-11.3045
▁స్టాప్	-11.3046
▁భిన్నమైన	-11.3047
▁సాధించాలని	-11.3047
▁తీసుకోవచ్చు	-11.3047
▁రహస్యంగా	-11.3048
గన్	-11.305
▁కనుగొన్నారు	-11.3051
▁నిమ్స్	-11.3051
▁యజమానులు	-11.3051
▁మటన్	-11.3051
▁భాగాన్ని	-11.3056
పారిశ్రామికవేత్త	-11.3058
▁రావచ్చు	-11.3058
▁కాలేజీకి	-11.3059
▁ಎ	-11.306
▁పార్టీలతో	-11.306
▁చేపట్టనున్న	-11.3061
▁అల్లుడు	-11.3062
▁విచారించారు	-11.3065
▁ఎన్నికలపై	-11.3067
ోవర్	-11.307
▁భూమన	-11.3071
ైన్	-11.3072
▁చిత్రాల్లో	-11.3072
▁ర్య	-11.3072
▁ఇద	-11.3077
▁కొట్టాడు	-11.3077
▁చేయమని	-11.3077
▁నయం	-11.3082
▁అడ్డంకులు	-11.3082
▁బెంజ	-11.3083
▁అంతటి	-11.3083
▁ఉత్తర్వులను	-11.3084
రాణి	-11.3088
▁ज	-11.309
సీసీ	-11.309
▁నివారణకు	-11.3093
▁ఆనం	-11.3096
▁ఆధిపత్యం	-11.3099
▁ద్వారం	-11.3099
▁నిర్ణయంతో	-11.3101
▁నీళ్లలో	-11.3102
ేయడం	-11.3106
ెవరూ	-11.3107
▁మందిరం	-11.3107
▁ఉద్యమకారుల	-11.3115
▁పుర్	-11.3115
బం	-11.312
▁మిల్	-11.312
▁అడ్	-11.3123
▁ముత్త	-11.3123
▁నాయకుడి	-11.3128
చ్చాడు	-11.3129
▁చిత్రాలను	-11.313
ుతుండటం	-11.3131
▁హిళ	-11.3132
▁తరగతుల	-11.3132
▁ఇండస్ట్రీస్	-11.3133
▁శాస్త్రవేత్తల	-11.3133
▁ఔటయ్య	-11.3135
▁వేగ	-11.3136
▁అంతం	-11.3137
▁విశ్లేషణ	-11.3138
▁పూలు	-11.3138
ఖీ	-11.3142
▁భాను	-11.3143
▁పునరావాస	-11.3144
▁మిగిల	-11.3147
▁86	-11.3148
▁పొలాల	-11.3149
یک	-11.3149
▁భాషల	-11.3152
▁మెంట్లలో	-11.3152
▁పట్టం	-11.3153
▁సర్వత్ర	-11.3153
▁రుతుపవనాల	-11.3156
▁రద్దీగా	-11.3157
ట్ర	-11.3158
▁ప్రఖ్యాత	-11.3159
▁సంకల్ప	-11.3159
▁వార్తలను	-11.316
▁ఎక్కించ	-11.3162
▁ధైర్యంగా	-11.3163
▁శాస్త్రం	-11.3165
▁సుమ	-11.3166
▁ఎజెండా	-11.3167
▁నెతన్యాహు	-11.3167
▁విస్మరించ	-11.3167
▁హిస్టరీ	-11.3167
z	-11.3167
ଫ	-11.3167
▁ఆస్వాదించ	-11.3167
▁కీరవాణి	-11.3167
▁గవాస్కర్	-11.3167
▁గ్రోత్	-11.3167
▁ప్రైవేటీకరణ	-11.3167
▁యూట్యూబర్	-11.3167
▁రాజనర్సింహ	-11.3167
▁సర్ఫరాజ్	-11.3167
▁స్క్రీనింగ్	-11.3167
▁స్మగ్లింగ్	-11.3167
☛	-11.3167
▁కెటిఆర్	-11.3167
▁విలేజ్	-11.3167
▁ఎత్తిపోతల	-11.3167
▁వాయువ్య	-11.3167
▁పంజాగుట్ట	-11.3167
▁ర్వాత	-11.3167
▁నాణే	-11.3167
▁మణిపుర్	-11.3167
▁తైవాన్	-11.3167
▁శిరీష	-11.3167
▁విషయానికొస్తే	-11.3167
▁భోపాల్	-11.3167
▁సూచిస్తుంది	-11.3167
▁సేవలందించ	-11.3167
▁ఎరుపు	-11.3169
▁నడుచుకుంటూ	-11.3169
▁లేబర్	-11.3169
▁కీలకపాత్ర	-11.317
▁మాగుంట	-11.317
▁లాంగ్వేజ్	-11.3171
▁మ్యాచులో	-11.3172
▁అంటోంది	-11.3173
▁లోపే	-11.3174
▁రచన	-11.3174
▁అశ్వ	-11.3175
ియట్	-11.3175
▁ఇవ్వాలంటూ	-11.3176
▁అప్పగించాలని	-11.3177
▁నేవీ	-11.3179
▁చూపుతుంది	-11.3181
ma	-11.3184
▁పోలీసులపై	-11.3184
▁పైలెట్	-11.3186
▁రైట్స్	-11.3187
▁సంతోషాన్ని	-11.3188
▁బాగుంది	-11.319
▁దీవుల	-11.319
▁కలుగ	-11.3192
ావా	-11.3192
▁పట్టుదలతో	-11.3193
▁పరమ	-11.3193
ఖ్య	-11.3195
▁నివసిస్తున్నారు	-11.3197
▁నిరంతర	-11.3197
▁వరంగల్‍	-11.3197
▁చెబుతున్నారని	-11.3198
▁వ్యవధిలోనే	-11.3202
▁వజ్ర	-11.3202
▁మెత్త	-11.3203
▁రాబాద్	-11.3204
▁వేధిస్తున్న	-11.3206
▁గేట్ల	-11.3206
▁కోరుకుంటున్న	-11.3207
▁పరుగు	-11.3208
▁మిగులు	-11.321
▁నడిచ	-11.321
▁పాడై	-11.3211
▁ఐసీ	-11.3213
▁డాక్టర్ల	-11.3213
▁చదివిన	-11.3213
▁వెళ్తారు	-11.3214
్లోనే	-11.3215
▁92	-11.3216
‍లో	-11.3216
ుండడం	-11.3216
▁ప్ప	-11.3218
ీర్	-11.3219
▁ఎముకల	-11.3221
▁టైల్	-11.3222
ೆಯ	-11.3225
▁చేరుకుంట	-11.3226
ుకోవడమే	-11.3226
▁సంపదను	-11.3228
▁ఖాయమ	-11.3228
▁పక్షాల	-11.3232
▁పెట్టడానికి	-11.3234
▁కలవడం	-11.3235
▁ఐక్యత	-11.3236
▁ప్రతినిధులతో	-11.3238
▁జరుపుతున్న	-11.3239
▁కష్టాల	-11.324
▁నియమాలు	-11.3243
▁పాఠ	-11.3245
▁జిల్లాల్లోని	-11.3249
▁భాగాలు	-11.3249
▁నిర్ణయంపై	-11.3249
ಲು	-11.325
▁తిని	-11.3252
▁అంశ	-11.3253
▁పోయిందని	-11.3253
▁యాజమాన్య	-11.3254
▁వేడిగా	-11.3254
▁రాజకీయాలపై	-11.3254
▁ح	-11.3254
▁పోరాడి	-11.3256
▁పక్కాగా	-11.3257
▁నిద్రపో	-11.3262
▁జీపీ	-11.3262
▁గ్రహం	-11.3262
▁తొలగించడం	-11.3262
▁నక్షత్రం	-11.3263
్టారు	-11.3264
▁శేష	-11.3265
▁ఎండల	-11.3271
▁పోషించిన	-11.3272
وب	-11.3273
▁ప్రార్థన	-11.3273
▁అవార్డ్	-11.3277
ೊ	-11.3277
▁ع	-11.3278
▁కమిటీలో	-11.3278
▁అసాధారణ	-11.3281
:-	-11.3282
▁అమ్మాయిని	-11.3282
▁ఖర్చుతో	-11.3282
హిత	-11.3285
▁బాటలో	-11.3285
▁గమనించి	-11.3288
నామ	-11.329
▁ఈవీఎంల	-11.3291
▁దర్	-11.3291
▁పర్యటించి	-11.3292
▁నేతల్లో	-11.3293
▁వ్యూహాత్మక	-11.3295
▁సౌర	-11.3295
▁ఖండించ	-11.3297
▁తెలుస	-11.3297
▁in	-11.3299
▁తప్పక	-11.3299
▁ఖర	-11.3299
▁దేవాదాయ	-11.3302
ू	-11.3302
▁ఆధీనంలో	-11.3302
▁2022-23	-11.3302
▁అంగన్వాడీ	-11.3302
▁అత్యాధునిక	-11.3302
▁ఎయిమ్స్	-11.3302
▁క్షిపణి	-11.3302
▁తీన్మార్	-11.3302
▁పింఛను	-11.3302
▁మెటీరియల్	-11.3302
▁మైక్రోసాఫ్ట్	-11.3302
▁విక్టరీ	-11.3302
▁వైస్సార్సీపీ	-11.3302
▁అలాంటప్పుడు	-11.3302
▁ఈజిప్ట్	-11.3302
▁జ్యూస్	-11.3302
▁థీమ్	-11.3302
▁పోషకాహార	-11.3302
▁సరసన	-11.3302
▁యార్డు	-11.3302
▁చదివే	-11.3302
▁త్రివిక్రమ్	-11.3302
▁ఇంట్రెస్ట్	-11.3302
▁మారుతి	-11.3302
▁యోచన	-11.3302
▁స్పెయిన్	-11.3303
▁ట్రస్టు	-11.3303
▁ఆంటీ	-11.3304
▁వినేశ్	-11.3304
▁యువజన	-11.3305
▁రాకేష్	-11.3305
▁పనిచేశా	-11.3305
▁లింగంపల్లి	-11.3306
▁పలుచోట్ల	-11.3306
▁ట్రాప్	-11.3307
▁ఫ్లూ	-11.3307
▁ఆఫర్లు	-11.3307
▁మరోపక్క	-11.3308
▁ఛార్జీల	-11.3309
▁ఆంజనేయ	-11.3309
▁ఎగిరి	-11.3311
▁నిలిచాయి	-11.3312
▁సైఫ్	-11.3312
▁సదుపాయం	-11.3313
▁మెరుగు	-11.3315
▁నిలిపివేయ	-11.3316
▁పోషకాల	-11.3317
▁చెల్లించాలి	-11.3318
▁పగ	-11.3319
▁జరగాలని	-11.332
▁ఇదీ	-11.3321
జింగ్	-11.3321
▁పొన్నాల	-11.3322
▁ముంచెత్త	-11.3322
▁వయసున్న	-11.3324
▁చందన	-11.3324
▁ز	-11.3325
నంద	-11.3328
▁పాలనకు	-11.3328
▁సమర్థించ	-11.3329
▁మూసి	-11.3329
▁వాహనాలకు	-11.3329
▁దాటింది	-11.333
▁దైవ	-11.3331
▁ରେ	-11.3333
▁కక్ష్యలో	-11.3333
▁పరీక్షలో	-11.3333
ون	-11.3333
▁ఓవైపు	-11.3335
లంతా	-11.3336
▁రిషి	-11.3339
▁మొక్కల	-11.3341
ନା	-11.3342
నోవా	-11.3343
▁ఎదుర్కొన్నారు	-11.3343
▁నమ్మకంతో	-11.3344
han	-11.3345
▁గుండెల్లో	-11.3346
▁న్యాయమూర్తులు	-11.3349
▁ముఖ్యమంత్రులు	-11.3349
▁థా	-11.3354
▁ఎండి	-11.3356
▁నేర్చుకున్న	-11.3357
▁సమాజ	-11.3357
▁నిర్ణయించిన	-11.3358
▁వంటకాల	-11.3359
▁అభివృద్ధిలో	-11.3362
ద్దా	-11.3364
డీఆర్	-11.3366
▁అటెండ	-11.3367
చేస్తున్న	-11.3367
▁సంతానం	-11.337
▁కమిటీకి	-11.337
▁సంవత్సరాల్లో	-11.3371
▁తులా	-11.3372
▁పంపే	-11.3377
టిక్స్	-11.3377
▁ఫలించ	-11.3381
ter	-11.3383
టల్	-11.3383
▁వెళ్లిపోయిన	-11.3385
▁రానున్నాయి	-11.3386
▁88	-11.3387
▁మళ్ల	-11.3389
از	-11.3391
▁వలసదారుల	-11.3392
▁ఎదుర్కొనే	-11.3395
2)	-11.3395
ala	-11.3396
▁కోలా	-11.3397
▁ప్రసిద్ధ	-11.34
▁గ్రూపుల	-11.3401
▁నియంత్రణలో	-11.3403
లిస్	-11.3403
▁భాగాల	-11.3404
▁ఈదురుగాలుల	-11.341
▁ప్లేయర్ల	-11.341
▁తరలించగా	-11.3411
తున్నారు	-11.3412
▁పెట్టినట్లు	-11.3412
▁07	-11.3414
▁గుర్	-11.3415
ైర్	-11.3419
▁టీమ్స్	-11.342
▁వీక్షించ	-11.342
రాదు	-11.3423
▁అన్నట్లుగా	-11.3425
▁టెక్నాలజీని	-11.3426
▁వణికి	-11.3433
▁లెవల్లో	-11.3433
▁ఖైదీల	-11.3435
▁మున్	-11.3437
▁షే	-11.3438
బిలిటీ	-11.3438
श	-11.3439
▁Jagan	-11.3439
▁అంబేడ్కర్	-11.3439
▁ఇంట్రెస్టింగ్	-11.3439
▁చార్మినార్	-11.3439
▁చైనీస్	-11.3439
▁పట్నాయక్	-11.3439
▁రూపకల్పన	-11.3439
▁సుల్తాన్	-11.3439
▁మంథని	-11.3439
▁మధిర	-11.3439
▁ముదిరాజ్	-11.3439
▁అనిరుధ్	-11.3439
▁సంస్ధ	-11.3439
▁బూడిద	-11.3439
▁సంకేతం	-11.3439
▁హెల్మెట్	-11.3439
▁تھا	-11.3439
▁నమోదయ్యే	-11.3439
▁సహాయపడతాయి	-11.3439
▁ఫీలింగ్	-11.344
▁కాబట్టే	-11.344
▁స్వప్న	-11.344
▁మెగావాట్ల	-11.344
▁మిస్టరీ	-11.344
▁హెయిర్	-11.344
▁గురవుతున్న	-11.344
▁టెన్త్	-11.344
▁చేశారంటూ	-11.3441
▁రాధిక	-11.3441
▁ఛాలెంజ్	-11.3442
▁సౌండ్	-11.3442
▁పగ్గాలు	-11.3444
▁ఎప్పుడో	-11.3444
▁కౌంట్	-11.3445
?"	-11.3446
▁ఆర్కే	-11.3448
▁మందికిపైగా	-11.3449
▁طو	-11.345
▁చెప్పాలన్నారు	-11.345
▁کرن	-11.3451
▁గ్రామస్థులు	-11.3455
▁మార్చిన	-11.3455
▁ఫీజులు	-11.3456
▁హైదర్	-11.3456
▁పీఎఫ్	-11.3458
▁ఉండాలన్నారు	-11.3459
▁కల్పించిన	-11.346
▁స్టోన్	-11.3461
▁విరాళాలు	-11.3462
▁ఊపు	-11.3463
▁పెడుతూ	-11.3463
▁రాసింది	-11.3464
▁మునిగిపోయ	-11.3465
de	-11.3467
▁అరికట్ట	-11.3467
▁మేరకే	-11.3469
స్తోందని	-11.347
▁తక్కువే	-11.3475
▁వర్షాకాలం	-11.3476
▁ట్రే	-11.3484
▁ఊప	-11.3487
▁చేయకపోవడం	-11.3491
▁స్కీ	-11.3493
▁అనుమాన	-11.3495
▁క్రమ	-11.3498
▁స్కూళ్లకు	-11.3499
ిచ్చే	-11.3503
▁సభ్యులుగా	-11.3509
▁నిలిపి	-11.351
▁అడ	-11.351
▁గతంలోనూ	-11.3511
SC	-11.3511
▁ఇదివరకు	-11.3513
▁హ్యాపీ	-11.3514
▁పార్టీపై	-11.3515
▁సంవత్సర	-11.3521
▁87	-11.3521
▁సబితా	-11.3522
▁రావుకు	-11.3522
▁అంతర్జాతీయంగా	-11.3522
గంటి	-11.3524
▁పొడిచి	-11.3524
ెజ్	-11.3525
▁పేయి	-11.3527
▁రాతి	-11.3527
▁పూర్ణ	-11.3529
ఎత్తున	-11.3531
▁రంగులో	-11.3531
▁హిండ	-11.3532
▁ఎగర	-11.3538
ಮಿ	-11.3539
▁తడిసి	-11.354
గానీ	-11.354
▁లెట్	-11.3541
▁మింగ	-11.3544
▁ఎండు	-11.3545
▁వచ్చినట్టు	-11.3548
మియా	-11.3553
ಬ	-11.3555
▁అవ్వడం	-11.3555
▁క్యాపిటల్	-11.3555
▁మార్పులను	-11.3557
▁ధృవీకరించ	-11.3559
రిగి	-11.3561
లేదన్న	-11.3562
శ్వర	-11.3566
కరి	-11.3569
▁సాధారణం	-11.3573
▁ట్యాంకర్	-11.3575
కొచ్చిన	-11.3577
[...]
