<unk>	0
<s>	0
</s>	0
ార	-0
▁ప	-1
ని	-2
▁క	-3
న్	-4
్ర	-5
ర్	-6
స్	-7
▁వ	-8
లు	-9
▁అ	-10
▁మ	-11
ంద	-12
లో	-13
▁చ	-14
▁స	-15
ల్	-16
ారు	-17
కు	-18
▁త	-19
్య	-20
▁ర	-21
ట్	-22
న్న	-23
ంచ	-24
గా	-25
ను	-26
క్	-27
ంది	-28
▁ప్ర	-29
తు	-30
▁ఆ	-31
ాల	-32
▁చే	-33
▁బ	-34
ించ	-35
▁ఇ	-36
▁న	-37
డి	-38
ంట	-39
డు	-40
▁ఉ	-41
రి	-42
▁జ	-43
ంత	-44
▁ఎ	-45
▁ద	-46
ిన	-47
ప్	-48
కి	-49
ాయ	-50
లి	-51
త్	-52
రు	-53
▁గ	-54
▁వి	-55
ార్	-56
డ్	-57
టి	-58
లా	-59
టు	-60
ంలో	-61
ంగ	-62
ంగా	-63
▁ని	-64
సు	-65
ప్ప	-66
టీ	-67
న్నారు	-68
..	-69
ద్	-70
▁ఈ	-71
తి	-72
▁రా	-73
డా	-74
స్తు	-75
మా	-76
యా	-77
చ్	-78
▁ల	-79
స్త	-80
వా	-81
▁స్	-82
▁హ	-83
▁భ	-84
▁కా	-85
ష్	-86
సి	-87
న్ని	-88
▁లో	-89
నే	-90
చ్చ	-91
్యా	-92
గు	-93
ిక	-94
▁ను	-95
తో	-96
▁తె	-97
ండ	-98
▁చె	-99
▁శ	-100
ాయి	-101
ది	-102
దు	-103
▁ఏ	-104
మ్	-105
ందు	-106
ళ్	-107
రా	-108
ేశ	-109
ెం	-110
▁ఫ	-111
క్ష	-112
▁కు	-113
▁కో	-114
పు	-115
పీ	-116
ల్లో	-117
నా	-118
▁కొ	-119
వు	-120
ారం	-121
లకు	-122
ింది	-123
మి	-124
▁కే	-125
్రి	-126
▁మా	-127
నికి	-128
సీ	-129
▁పో	-130
పై	-131
లీ	-132
▁వె	-133
▁కూ	-134
వి	-135
ెట్	-136
ంతో	-137
▁ము	-138
ారి	-139
ంచి	-140
▁సి	-141
లను	-142
ట్ర	-143
▁పా	-144
క్క	-145
ిల్	-146
▁సం	-147
ాలు	-148
▁2	-149
ించారు	-150
▁తీ	-151
ంగ్	-152
ామ	-153
▁1	-154
పో	-155
రో	-156
కో	-157
కా	-158
ెస్	-159
▁డ	-160
▁ఒ	-161
లే	-162
బ్	-163
ిత	-164
్వ	-165
బా	-166
ద్ద	-167
ైన	-168
▁కూడా	-169
▁నుంచి	-170
▁అధ	-171
మ్మ	-172
▁వే	-173
▁ఉన్న	-174
▁చేశ	-175
▁సీ	-176
డం	-177
ట్లు	-178
▁లే	-179
త్త	-180
పా	-181
▁నిర్	-182
▁అయ	-183
▁గు	-184
ంద్ర	-185
స్తున్న	-186
▁బీ	-187
ెడ్	-188
నీ	-189
▁వా	-190
▁పె	-191
షన్	-192
ప్పు	-193
▁చేయ	-194
టర్	-195
గ్	-196
సిన	-197
యం	-198
▁సమ	-199
సుకు	-200
బు	-201
▁పార్	-202
▁ప్రభ	-203
▁ట	-204
ట్ట	-205
జు	-206
▁తెలి	-207
వే	-208
ాలని	-209
▁నే	-210
▁ఓ	-211
ఆర్	-212
ంటి	-213
ందని	-214
త్ర	-215
ల్ల	-216
తం	-217
▁రో	-218
▁వ్య	-219
కే	-220
యో	-221
▁చెప్ప	-222
ంటు	-223
ుత్	-224
నం	-225
గి	-226
ెడ్డి	-227
▁గా	-228
కొ	-229
జ్	-230
▁వచ్చ	-231
తున్న	-232
జీ	-233
ండి	-234
▁భార	-235
రీ	-236
▁పరి	-237
ందుకు	-238
▁రూ	-239
పి	-240
▁చేశారు	-241
్రీ	-242
ూర్	-243
సం	-244
▁అధిక	-245
▁(	-246
▁వై	-247
▁ప్రభుత్	-248
▁పార్టీ	-249
ంటే	-250
▁దీ	-251
వం	-252
ించిన	-253
▁మీ	-254
▁అవ	-255
▁దా	-256
▁సా	-257
ంధ	-258
▁ఆయ	-259
▁బా	-260
▁పే	-261
▁కార	-262
దా	-263
డీ	-264
స్థ	-265
ండ్	-266
ారని	-267
ద్య	-268
▁అని	-269
▁య	-270
ష్ట్ర	-271
ఎస్	-272
ారా	-273
ళ్ల	-274
ించి	-275
ధా	-276
వర్	-277
ెల్	-278
▁తన	-279
జా	-280
▁ప్రా	-281
▁ష	-282
ులు	-283
▁ఆయన	-284
▁ఎన్ని	-285
వీ	-286
▁రాష్ట్ర	-287
▁20	-288
ాడు	-289
రం	-290
మె	-291
▁ఒక	-292
▁మొ	-293
ాలి	-294
రే	-295
సే	-296
▁వీ	-297
త్య	-298
ెంట్	-299
ెక్	-300
ధి	-301
▁అభ	-302
▁ఎన్నిక	-303
కీ	-304
ంప	-305
్రా	-306
ాలను	-307
దే	-308
▁నా	-309
▁చేసి	-310
ంత్రి	-311
▁తెలిప	-312
ట్టు	-313
వర	-314
జే	-315
▁చూ	-316
రుగు	-317
క్ర	-318
▁వర	-319
▁టీ	-320
హి	-321
▁ఉండ	-322
ితే	-323
▁కి	-324
▁జరి	-325
▁శా	-326
్రెస్	-327
తా	-328
ధ్య	-329
మే	-330
▁చి	-331
▁చేసిన	-332
స్తున్నారు	-333
వాత	-334
ష్ట	-335
క్కు	-336
▁రి	-337
య్య	-338
▁స్థ	-339
లంగా	-340
కోవ	-341
సా	-342
ఖ్య	-343
ంగ్రెస్	-344
దేశ	-345
▁ప్రక	-346
▁కాంగ్రెస్	-347
ండా	-348
▁హై	-349
ఎం	-350
ుల	-351
▁పోలీ	-352
ప్పుడు	-353
యంలో	-354
▁రెడ్డి	-355
▁జిల్	-356
మైన	-357
▁డి	-358
యే	-359
ర్శ	-360
▁ఖ	-361
ఫ్	-362
బాద్	-363
▁మంది	-364
ప్పటి	-365
▁రాజ	-366
▁"	-367
యి	-368
▁ధ	-369
న్స్	-370
▁మే	-371
కర	-372
దీ	-373
▁సె	-374
తీ	-375
▁స్ట	-376
▁మార్	-377
చి	-378
▁పై	-379
▁రోజు	-380
▁తో	-381
▁నె	-382
ించింది	-383
▁తా	-384
డంతో	-385
ట్ల	-386
▁కోసం	-387
ర్థ	-388
▁జిల్లా	-389
▁మూ	-390
▁రై	-391
▁వర్	-392
▁సమా	-393
ుకు	-394
▁వారి	-395
సులు	-396
లంగాణ	-397
▁విష	-398
▁మో	-399
న్య	-400
▁మె	-401
▁చేస్త	-402
వారం	-403
▁తెలంగాణ	-404
▁ఐ	-405
లుగు	-406
ంబ	-407
▁అయితే	-408
▁సు	-409
▁చెప్పారు	-410
కర్	-411
శ్	-412
ల్లి	-413
దని	-414
కుండా	-415
▁అను	-416
▁రే	-417
▁ఇచ్చ	-418
▁తి	-419
▁కార్య	-420
▁ప్రభుత్వం	-421
ర్చ	-422
ము	-423
▁తెలిపారు	-424
ాలా	-425
్యూ	-426
▁భా	-427
లతో	-428
ప్ర	-429
▁తర్	-430
▁పొ	-431
ామని	-432
▁3	-433
▁పెట్	-434
▁తర్వాత	-435
మో	-436
▁తీసుకు	-437
ంటూ	-438
▁ప్రజ	-439
ర్య	-440
▁పు	-441
వహ	-442
▁చంద్ర	-443
▁జరిగ	-444
▁సిని	-445
▁అనే	-446
జేపీ	-447
▁దేశ	-448
డానికి	-449
▁అధికారు	-450
▁ప్రతి	-451
లోని	-452
ించే	-453
తున్నారు	-454
▁బీజేపీ	-455
పోయ	-456
▁సో	-457
▁వ్యక్	-458
▁కలి	-459
కూ	-460
జి	-461
▁యా	-462
వ్	-463
▁మంత్రి	-464
▁మరో	-465
▁ఉంది	-466
▁ఏర్	-467
▁వ్యా	-468
తులు	-469
బంధ	-470
▁తే	-471
ాన	-472
▁అన్నారు	-473
▁ఆరో	-474
స్తో	-475
▁సినిమా	-476
▁కేంద్ర	-477
▁గ్ర	-478
▁తమ	-479
డే	-480
ాలకు	-481
▁సభ	-482
▁పాటు	-483
లాంటి	-484
టన	-485
▁ఎమ్మ	-486
▁శ్రీ	-487
ణా	-488
00	-489
▁ఎమ్మెల్	-490
▁లక్ష	-491
▁జా	-492
▁స్ప	-493
మీ	-494
చే	-495
▁ఉంటు	-496
పాటు	-497
శా	-498
ళ్లు	-499
▁,	-500
▁చాలా	-501
తుంది	-502
▁నేత	-503
ట్లా	-504
ర్టు	-505
టో	-506
బ్బ	-507
▁రెం	-508
▁సీఎం	-509
▁జీ	-510
క్కువ	-511
లం	-512
▁మాత్ర	-513
▁అంత	-514
▁మి	-515
ందిన	-516
▁రెండు	-517
హా	-518
కాశ	-519
బాబు	-520
ద్ధ	-521
ట్టి	-522
కులు	-523
▁అభి	-524
▁విజ	-525
గ్ర	-526
గొ	-527
▁తీసు	-528
రాబాద్	-529
▁పని	-530
▁అస	-531
మార్	-532
వ్వ	-533
డ్డ	-534
▁మాట్లా	-535
బర్	-536
▁ది	-537
త్స	-538
▁సర్	-539
▁ఆమె	-540
▁ట్ర	-541
▁పి	-542
▁నెల	-543
▁దీంతో	-544
▁ప్రధా	-545
గే	-546
స్తుంది	-547
▁హైద	-548
▁గత	-549
టా	-550
ెన్	-551
▁ఘ	-552
ర్లు	-553
▁ఆర్	-554
▁అందు	-555
▁జగ	-556
▁పూర్	-557
▁వెళ్	-558
దల	-559
▁ఎం	-560
▁ముఖ్య	-561
▁క్ర	-562
▁4	-563
▁చేసుకు	-564
▁5	-565
▁అవకాశ	-566
▁మరి	-567
ీల	-568
▁మధ్య	-569
వరి	-570
వేశ	-571
▁రె	-572
స్తోంది	-573
▁చంద్రబాబు	-574
▁హైదరాబాద్	-575
ంత్	-576
గ్గ	-577
▁చెందిన	-578
▁సూ	-579
▁వరకు	-580
▁తొ	-581
ాయని	-582
▁కానీ	-583
బీ	-584
▁బె	-585
▁కేసు	-586
▁ఎమ్మెల్యే	-587
▁ప్రాంత	-588
సారి	-589
▁చేస్తున్న	-590
▁పోలీసులు	-591
స్తే	-592
▁క్	-593
▁బి	-594
...	-595
▁సంబంధ	-596
ణి	-597
తూ	-598
చారం	-599
▁కొత్త	-600
కెట్	-601
▁గుర్	-602
▁చేసింది	-603
▁ఇప్పటి	-604
ర్కొ	-605
ర్యా	-606
▁తెలు	-607
చార	-608
▁నీ	-609
▁ఇది	-610
▁బీఆర్	-611
ందర్	-612
▁నాయ	-613
తోంది	-614
ందించ	-615
▁అధికారులు	-616
▁నిర్వహ	-617
స్ట్	-618
▁బ్యా	-619
▁పాల్	-620
▁తర	-621
▁కార్	-622
ణ్	-623
▁న్య	-624
ైనా	-625
స్య	-626
▁నిర్ణ	-627
ణం	-628
ూరు	-629
లపై	-630
▁సమయంలో	-631
▁గె	-632
తే	-633
▁గుర	-634
▁మహి	-635
త్తు	-636
▁భారీ	-637
▁యూ	-638
కపో	-639
▁ఎన్నికల	-640
గర్	-641
▁ఇం	-642
గం	-643
▁హా	-644
▁కల	-645
▁ک	-646
ందే	-647
ుడు	-648
ంపు	-649
ృష్	-650
▁జన	-651
▁పెద్ద	-652
▁ఫో	-653
▁ఉద్య	-654
▁మహిళ	-655
క్స్	-656
▁అన	-657
▁202	-658
▁ద్వ	-659
▁సై	-660
▁ఎక్కువ	-661
ారంభ	-662
డియా	-663
▁యు	-664
ంలోని	-665
ినా	-666
▁కాల	-667
▁గంట	-668
▁కని	-669
▁ప్రారంభ	-670
▁అభ్య	-671
క్కడ	-672
▁చేసే	-673
హ్	-674
త్రి	-675
ేషన్	-676
▁జగన్	-677
▁భూ	-678
▁అమ	-679
షి	-680
▁ఎస్	-681
పించ	-682
ాం	-683
ారీ	-684
▁శి	-685
వన్	-686
లోకి	-687
యోజ	-688
▁ప్రస్తు	-689
▁కేసీ	-690
▁లు	-691
▁ముందు	-692
▁ప్	-693
లలో	-694
లేదు	-695
▁రాజకీ	-696
పే	-697
కాల	-698
నాలు	-699
▁మ్యా	-700
▁ఇప్పుడు	-701
నించ	-702
▁విద్య	-703
▁అవు	-704
▁లా	-705
చ్చు	-706
▁కేసీఆర్	-707
▁ఇవ్వ	-708
ర్మ	-709
▁బీఆర్ఎస్	-710
▁అత	-711
ాన్	-712
ఫీ	-713
▁కుటు	-714
▁మీడియా	-715
▁అర	-716
డిన	-717
▁అంద	-718
ద్ర	-719
▁ప్రభుత్వ	-720
నూ	-721
ిల్లీ	-722
▁ఫి	-723
తంగా	-724
▁ఒక్క	-725
▁పేర్కొ	-726
▁కల్	-727
▁ద్వారా	-728
▁చెబు	-729
▁డీ	-730
▁ఇక	-731
▁సాధ	-732
▁స్థా	-733
స్థి	-734
▁ఏర్పాటు	-735
▁ప్రకట	-736
మెంట్	-737
ాయం	-738
రుకు	-739
▁కొన్ని	-740
▁ప్రత్య	-741
క్రమ	-742
శి	-743
▁సమస్య	-744
▁కావ	-745
▁సే	-746
▁ప్రమా	-747
▁అయ్య	-748
▁ఏపీ	-749
ందో	-750
స్తూ	-751
▁జరుగు	-752
▁మన	-753
▁ఉంటుంది	-754
▁-	-755
గో	-756
▁అధికార	-757
▁వచ్చిన	-758
▁6	-759
▁కారణ	-760
▁పలు	-761
ాల్లో	-762
తీయ	-763
▁అవకాశం	-764
ల్స్	-765
▁పూర్తి	-766
▁ఉద్యో	-767
▁పెట్ట	-768
▁పోటీ	-769
▁ధర	-770
సీపీ	-771
వాల్	-772
తర	-773
యర్	-774
టం	-775
కం	-776
ెస్ట్	-777
▁బయ	-778
▁మాజీ	-779
▁దీని	-780
నున్న	-781
బో	-782
ంత్ర	-783
▁రూప	-784
ార్థ	-785
▁రేవ	-786
▁పరిస్థి	-787
▁మహ	-788
▁జరిగిన	-789
▁బు	-790
మని	-791
▁లోని	-792
కంగా	-793
▁వెలుగు	-794
▁కె	-795
▁వల్ల	-796
▁వచ్చే	-797
▁ఆరోప	-798
ంటారు	-799
మంత్రి	-800
▁మొద	-801
▁ప్రస్తుతం	-802
▁అధ్య	-803
▁అభ్యర్థ	-804
ఢిల్లీ	-805
▁అలా	-806
▁గో	-807
▁పీ	-808
▁టి	-809
▁శాఖ	-810
▁అం	-811
▁సహ	-812
▁షా	-813
దం	-814
▁ఇండి	-815
▁లేదు	-816
వ్ర	-817
▁సంస్థ	-818
యన్	-819
స్టు	-820
స్ట	-821
▁కుటుంబ	-822
▁ఎదు	-823
▁వర్ష	-824
▁7	-825
▁కొన	-826
టింగ్	-827
యత్	-828
సింది	-829
ించుకు	-830
▁ఆధ	-831
▁చేస్తున్నారు	-832
జర్	-833
▁తీవ్ర	-834
▁రేవంత్	-835
తలు	-836
▁హి	-837
▁ఎంపీ	-838
▁మొత్త	-839
▁విచార	-840
నర్	-841
▁చేప	-842
డీపీ	-843
▁మార	-844
▁ఎన్నికల్లో	-845
భా	-846
ెక్టర్	-847
▁ఉప	-848
▁భారత్	-849
▁పాల్గొ	-850
▁మంచి	-851
ద్ధి	-852
డియో	-853
▁లి	-854
▁మండ	-855
ంటర్	-856
▁పేరు	-857
▁అన్ని	-858
▁వద్ద	-859
▁భారత	-860
▁సమావేశ	-861
▁క్యా	-862
▁దు	-863
▁విజయ	-864
న్నా	-865
▁కమి	-866
్యం	-867
▁201	-868
▁సందర్	-869
▁వెల్ల	-870
▁మూడు	-871
▁నియోజ	-872
▁పాల	-873
▁బో	-874
▁కుమార్	-875
▁కలిసి	-876
▁ప్రయత్	-877
వై	-878
▁కీల	-879
తున్నాయి	-880
▁వారు	-881
రగ	-882
త్తి	-883
▁టీడీపీ	-884
▁నమో	-885
▁గ్రామ	-886
షల్	-887
▁శు	-888
▁విడు	-889
తుల	-890
రూ	-891
▁నియోజక	-892
యోగ	-893
ైన్	-894
స్తారు	-895
కె	-896
▁8	-897
▁తేదీ	-898
▁10	-899
పంచ	-900
రణ	-901
▁చర్య	-902
▁కొనసా	-903
▁నో	-904
▁పట్ట	-905
▁ప్రత్యే	-906
▁ఛ	-907
▁పవన్	-908
దేశ్	-909
▁గురించి	-910
▁పరిశ	-911
▁""	-912
▁మ్యాచ్	-913
ానికి	-914
▁చర్చ	-915
హం	-916
▁భాగ	-917
ంగళ	-918
రాలు	-919
▁ఉందని	-920
▁వీడియో	-921
▁కంప	-922
▁ఎన్	-923
▁మాత్రం	-924
పూర్	-925
▁ప్రశ్	-926
▁సందర్భ	-927
▁కోట్ల	-928
▁విడుదల	-929
బ్లీ	-930
ైంది	-931
హు	-932
▁19	-933
▁రాజకీయ	-934
▁ఉన్నారు	-935
▁తప్ప	-936
పర్	-937
▁వైసీపీ	-938
▁వివర	-939
▁చో	-940
ిల్ల	-941
మాండ్	-942
▁అధ్యక్ష	-943
▁ఉన్నాయి	-944
▁నియోజకవర్	-945
▁ఇన్	-946
▁వెళ్ల	-947
▁శాతం	-948
డ్డు	-949
మర్శ	-950
▁వెల్లడ	-951
▁ఉంట	-952
▁విచారణ	-953
▁దే	-954
సర	-955
▁హె	-956
ారెడ్డి	-957
▁కర్	-958
▁ప్రధాన	-959
దర్శ	-960
ంటున్న	-961
▁ప్రభా	-962
▁మాత్రమే	-963
నున్నారు	-964
ద్దు	-965
▁వాటి	-966
▁హో	-967
▁ఢిల్లీ	-968
ినీ	-969
ష్టం	-970
రల్	-971
▁దూ	-972
ించాలని	-973
వృ	-974
▁రావ	-975
▁విషయం	-976
క్తి	-977
▁వ్యక్తం	-978
ంటున్నారు	-979
▁వెం	-980
▁ఎలా	-981
▁పద	-982
దన	-983
▁ఘటన	-984
వల	-985
▁వ్యక్తి	-986
▁ఊ	-987
ెంబ్లీ	-988
పల్లి	-989
▁అర్	-990
▁ఉద	-991
క్షన్	-992
▁అసెంబ్లీ	-993
లుగా	-994
▁ఉండే	-995
▁పం	-996
▁డా	-997
డాది	-998
పెట్	-999
▁సభ్య	-1000
లింగ్	-1001
▁కీలక	-1002
▁ముఖ్యమంత్రి	-1003
▁జో	-1004
గిన	-1005
లోనే	-1006
ాలతో	-1007
▁పూ	-1008
▁విధ	-1009
▁వంటి	-1010
▁సమాచారం	-1011
▁తాజా	-1012
టే	-1013
దిక	-1014
▁సూచ	-1015
▁చేయాలని	-1016
▁లీ	-1017
▁9	-1018
▁జూ	-1019
పడు	-1020
▁వేల	-1021
▁అమ్మ	-1022
▁మాట్లాడు	-1023
▁ఉత్త	-1024
రారు	-1025
కోర్టు	-1026
్వర	-1027
ాన్ని	-1028
▁అన్న	-1029
▁పోలీసు	-1030
▁ఇప్పటికే	-1031
జన్	-1032
పడ్డ	-1033
▁విమర్శ	-1034
ంట్	-1035
▁ఇంటి	-1036
సర్	-1037
నుంది	-1038
▁దర్శ	-1039
వారి	-1040
ెనీ	-1041
▁యువ	-1042
▁ప్రజలు	-1043
వో	-1044
▁ا	-1045
▁నుండి	-1046
▁చేసు	-1047
▁ప్రపంచ	-1048
▁ప్రధాని	-1049
.1	-1050
నల్	-1051
▁మృ	-1052
ించు	-1053
▁రెండ	-1054
▁ఆదేశ	-1055
▁లక్షల	-1056
వారు	-1057
▁పను	-1058
▁కంపెనీ	-1059
▁కోర్టు	-1060
▁నాలు	-1061
▁రు	-1062
గ్గు	-1063
ినే	-1064
▁హీ	-1065
▁అదే	-1066
రిగి	-1067
టీఆర్	-1068
▁సందర్భంగా	-1069
ేశారు	-1070
▁రాష్ట్రంలో	-1071
▁డై	-1072
కపోవ	-1073
ించడం	-1074
▁తిరు	-1075
▁వెంట	-1076
▁బయట	-1077
""	-1078
ానని	-1079
▁సంఘ	-1080
▁ఎలాంటి	-1081
ంలోకి	-1082
ెంబర్	-1083
▁ప్రత్యేక	-1084
▁కింద	-1085
▁తరు	-1086
▁తాను	-1087
▁అత్య	-1088
▁వార్	-1089
▁ప్రకారం	-1090
వృద్ధి	-1091
▁తొలి	-1092
▁మొత్తం	-1093
య్	-1094
▁లేదా	-1095
▁ప్రయా	-1096
▁తెలుగు	-1097
▁వ్యవ	-1098
బ్బంది	-1099
▁మోదీ	-1100
▁చిత	-1101
▁ఆల	-1102
▁విని	-1103
టమి	-1104
▁ఇండియా	-1105
▁అక్క	-1106
▁మీద	-1107
▁సోషల్	-1108
క్టర్	-1109
త్మ	-1110
▁వారికి	-1111
▁చిన్న	-1112
కున్న	-1113
▁న్యూ	-1114
విత	-1115
ంతరం	-1116
▁జై	-1117
▁నిర్మా	-1118
▁ఆది	-1119
యు	-1120
▁చేయడం	-1121
ాము	-1122
▁అమె	-1123
▁అంటూ	-1124
▁నగ	-1125
▁ఇతర	-1126
▁ఆస్	-1127
▁ప్లా	-1128
▁రంగ	-1129
టక	-1130
▁ఇద్ద	-1131
▁ఆరోగ	-1132
▁విద్యార్థ	-1133
▁ఆర్థ	-1134
▁రైతు	-1135
▁నేతలు	-1136
▁లేదని	-1137
▁ప్రే	-1138
యాలు	-1139
ృష్ణ	-1140
▁స్వా	-1141
▁పిల్ల	-1142
▁చర్యలు	-1143
వత్స	-1144
రికా	-1145
తుందని	-1146
కుల	-1147
▁దగ్గ	-1148
జెక్	-1149
▁టా	-1150
▁కాదు	-1151
లిచ	-1152
▁హీరో	-1153
రోజు	-1154
వులు	-1155
20	-1156
▁ఆర్థిక	-1157
ల్సి	-1158
▁టై	-1159
బ్బు	-1160
▁పెట్టు	-1161
▁సంవత్స	-1162
▁చేపట్ట	-1163
ంతా	-1164
▁పనిచే	-1165
▁ఏడాది	-1166
▁అంటే	-1167
ెన్స్	-1168
▁అందించ	-1169
దారు	-1170
డుగు	-1171
గానే	-1172
▁కౌ	-1173
▁అభివృద్ధి	-1174
▁ఇదే	-1175
ంధీ	-1176
▁పెంచ	-1177
్యంలో	-1178
▁ఆఫీ	-1179
▁జరగ	-1180
▁ఇందు	-1181
▁పర్య	-1182
ళన	-1183
▁సిద్ధ	-1184
▁ఇలా	-1185
▁15	-1186
▁గుర్త	-1187
ందన్నారు	-1188
ప్తంగా	-1189
▁పరుగు	-1190
యాన్ని	-1191
తాయి	-1192
▁రామ	-1193
▁అలాగే	-1194
▁م	-1195
▁అది	-1196
కల్	-1197
స్సు	-1198
▁దాడి	-1199
నించారు	-1200
ంతి	-1201
ల్డ్	-1202
▁పేర్కొన్నారు	-1203
▁క్రి	-1204
▁క్రమ	-1205
▁కోట్లు	-1206
ంజ	-1207
▁అయిన	-1208
▁మెంట్	-1209
▁ఇచ్చిన	-1210
),	-1211
▁డిమాండ్	-1212
▁ఫోన్	-1213
ప్రదేశ్	-1214
రెడ్డి	-1215
▁వెళ్లి	-1216
▁ప్రాజెక్	-1217
న్సి	-1218
రకు	-1219
ళ్లి	-1220
▁తెలియ	-1221
▁దాని	-1222
లర్	-1223
తారు	-1224
ల్లు	-1225
లై	-1226
▁తెలిపింది	-1227
దాపు	-1228
▁చెబుతున్నారు	-1229
పథ	-1230
స్తామని	-1231
▁తీసుకోవ	-1232
▁వెంక	-1233
చు	-1234
▁పరిస్థితి	-1235
▁రావు	-1236
ప్ట	-1237
ూడ	-1238
▁తాజాగా	-1239
▁సొ	-1240
▁స్వ	-1241
నని	-1242
▁సంబంధించిన	-1243
పడి	-1244
▁చేరుకు	-1245
▁అమలు	-1246
▁వచ్చి	-1247
▁సరి	-1248
▁దాదాపు	-1249
లేదని	-1250
▁రోజుల	-1251
స్వా	-1252
▁కార్యక్రమ	-1253
▁బాల	-1254
▁ఫ్యా	-1255
▁డ్ర	-1256
▁తగ్గ	-1257
▁స్థాయి	-1258
▁గాంధీ	-1259
▁భక్	-1260
▁తు	-1261
స్తున్నాయి	-1262
▁ఇటీ	-1263
▁గతంలో	-1264
ులకు	-1265
▁మాట్లాడుతూ	-1266
ందోళన	-1267
శ్వ	-1268
ర్స్	-1269
▁12	-1270
▁భాగంగా	-1271
▁బ్యాం	-1272
▁వ్యవహ	-1273
కుడు	-1274
▁డబ్బు	-1275
▁హామ	-1276
ేశ్	-1277
▁పెరుగు	-1278
పక్ష	-1279
▁మూవీ	-1280
▁స్థాని	-1281
▁గొ	-1282
▁పడు	-1283
▁స్టార్	-1284
▁వార	-1285
రీక్ష	-1286
▁అనేక	-1287
▁ట్రా	-1288
డని	-1289
▁కనిపి	-1290
▁కారణంగా	-1291
▁నేపథ	-1292
▁జట్టు	-1293
▁నమోదు	-1294
సన	-1295
▁ఫలి	-1296
ార్డు	-1297
▁జరిగింది	-1298
ట్లో	-1299
పతి	-1300
▁డే	-1301
▁అనంతరం	-1302
▁వైఎస్	-1303
▁వెంటనే	-1304
▁అమెరికా	-1305
▁విషయంలో	-1306
క్ష్	-1307
మయ్య	-1308
▁11	-1309
▁ఆఫ్	-1310
కొని	-1311
న్నీ	-1312
కొచ్చ	-1313
▁పథ	-1314
ద్ది	-1315
శాఖ	-1316
▁చీ	-1317
▁అంచ	-1318
▁ప్రజా	-1319
▁వ్యాఖ్య	-1320
గాలు	-1321
▁సమీ	-1322
ంధ్ర	-1323
▁నిర్ణయం	-1324
రికి	-1325
▁గౌ	-1326
▁కొంత	-1327
▁గంటల	-1328
▁అంశ	-1329
▁జారీ	-1330
▁లె	-1331
▁రీ	-1332
▁చై	-1333
పడ	-1334
▁నిర్మ	-1335
▁తరువాత	-1336
లుపు	-1337
ందరు	-1338
క్షణ	-1339
▁రూపాయ	-1340
క్షి	-1341
▁వచ్చింది	-1342
▁పరీక్ష	-1343
▁'	-1344
ట్స్	-1345
▁నేపథ్యంలో	-1346
▁కేసులో	-1347
▁ఆశ	-1348
▁సర	-1349
ారో	-1350
పడ్డారు	-1351
▁ఆందోళన	-1352
▁కేట	-1353
an	-1354
పోయిన	-1355
ొటో	-1356
ర్యాదు	-1357
▁ఇందులో	-1358
బి	-1359
▁వివా	-1360
ప్పటికీ	-1361
▁మళ్	-1362
▁వస్తు	-1363
ాయ్	-1364
▁అక్కడ	-1365
▁పాత్ర	-1366
రిక	-1367
▁రాహు	-1368
▁లేకుండా	-1369
.5	-1370
కాలు	-1371
▁రిక	-1372
▁ہ	-1373
▁థ	-1374
టంతో	-1375
సేన	-1376
▁ఫిర్యాదు	-1377
ాలపై	-1378
▁హామీ	-1379
▁కళ	-1380
▁ఖా	-1381
▁మాట్లాడ	-1382
టికి	-1383
▁తెలిసి	-1384
వె	-1385
▁ఇచ్చారు	-1386
▁ఎక్కువగా	-1387
పేట	-1388
▁దొ	-1389
▁ఫొటో	-1390
బాటు	-1391
డో	-1392
▁ప్రచారం	-1393
▁ఉదయం	-1394
▁యూని	-1395
స్తా	-1396
▁తయ	-1397
▁సింగ్	-1398
ించేందుకు	-1399
▁నియ	-1400
▁డె	-1401
▁పడి	-1402
▁నేను	-1403
మవు	-1404
▁గుర్తు	-1405
▁పెరి	-1406
▁లోక్	-1407
▁ప్రి	-1408
▁జిల్లాలో	-1409
లువ	-1410
▁చట్ట	-1411
▁తల్లి	-1412
ాలలో	-1413
▁చిత్ర	-1414
ంటీ	-1415
▁డైర	-1416
▁రాహుల్	-1417
▁స్టేషన్	-1418
రంగా	-1419
▁మద్ద	-1420
▁ఎంత	-1421
▁మొదటి	-1422
నియర్	-1423
▁బాధ్య	-1424
ందా	-1425
డర్	-1426
▁బ్ర	-1427
ధిక	-1428
నలు	-1429
రంలో	-1430
పోయింది	-1431
▁హాజ	-1432
▁మార్పు	-1433
బడి	-1434
నివా	-1435
▁చూడ	-1436
▁బంగ	-1437
ఎల్	-1438
▁నిర్ణయ	-1439
▁కాగా	-1440
ర్చు	-1441
▁ఆరోపణ	-1442
▁నాలుగు	-1443
వరణ	-1444
పత్రి	-1445
ఫి	-1446
▁సౌ	-1447
▁వైద్య	-1448
యల్	-1449
▁మీడియాలో	-1450
▁మరింత	-1451
▁పంప	-1452
▁క్రిక	-1453
రువు	-1454
ండగా	-1455
▁పార్ల	-1456
▁తల	-1457
▁సంఖ్య	-1458
▁సాయ	-1459
▁న్యాయ	-1460
వన	-1461
న్ను	-1462
ెస్టు	-1463
▁ట్	-1464
▁డాక్టర్	-1465
▁త్వర	-1466
▁రెండో	-1467
▁టికెట్	-1468
▁కాలే	-1469
భి	-1470
▁గ్రా	-1471
▁చేసుకోవ	-1472
వాడ	-1473
వైపు	-1474
▁దగ్గర	-1475
నుగో	-1476
▁పాల్గొన్నారు	-1477
▁బల	-1478
కారు	-1479
ణాలు	-1480
▁క్రమంలో	-1481
▁తెలుస్తోంది	-1482
▁ప్రభుత్వా	-1483
తిరే	-1484
▁వ్యాప	-1485
▁అభ్యర్థి	-1486
▁ఉంటే	-1487
▁చేస్తూ	-1488
చుకు	-1489
పె	-1490
▁శ్రీనివా	-1491
▁కొనసాగు	-1492
షనల్	-1493
▁లై	-1494
వ్యా	-1495
▁వాతా	-1496
▁అందుకే	-1497
▁ఆంధ్ర	-1498
చర్	-1499
యిన్	-1500
ర్మన్	-1501
▁వ్యతిరే	-1502
▁రాత్రి	-1503
▁కథ	-1504
పెట్ట	-1505
▁ఎందుకు	-1506
▁మళ్లీ	-1507
▁అంది	-1508
▁మేరకు	-1509
మారు	-1510
▁హైకోర్టు	-1511
▁ఆరోపించారు	-1512
త్వ	-1513
▁ఇలాంటి	-1514
▁మై	-1515
▁తెలంగాణలో	-1516
▁కోల్	-1517
ళి	-1518
▁కేటీఆర్	-1519
ట్టుకు	-1520
ార్లు	-1521
ధు	-1522
▁తీర్	-1523
▁కలెక్టర్	-1524
▁చా	-1525
ారణ	-1526
▁14	-1527
బుల్	-1528
▁అరెస్ట్	-1529
▁రిలీ	-1530
▁తెలిసిందే	-1531
▁30	-1532
▁ప్రజల	-1533
ల్సిన	-1534
▁వైరల్	-1535
▁నాయకులు	-1536
స్టర్	-1537
▁విమా	-1538
టల్	-1539
▁ఏం	-1540
▁ఫ్	-1541
ాలే	-1542
డికి	-1543
డిగా	-1544
▁సిబ్బంది	-1545
▁వాహ	-1546
▁అధ్యక్షుడు	-1547
▁భర్	-1548
▁బిల్	-1549
పోయారు	-1550
▁ప్రకటన	-1551
▁ఐదు	-1552
.3	-1553
విధ	-1554
▁తిరిగి	-1555
▁ప్రాజెక్టు	-1556
▁మద్దతు	-1557
▁జనసేన	-1558
గంలో	-1559
▁ఆలో	-1560
మల	-1561
▁సంగ	-1562
ణాటక	-1563
▁స్థాన	-1564
یں	-1565
దో	-1566
గాల	-1567
▁ఇటీవల	-1568
▁జాతీయ	-1569
మై	-1570
▁.	-1571
▁క్ష	-1572
స్తాయి	-1573
టరీ	-1574
▁వెల్లడించారు	-1575
▁ఫు	-1576
▁పంచ	-1577
▁చు	-1578
▁విన	-1579
▁కొనుగో	-1580
▁కంటే	-1581
్యార	-1582
▁గి	-1583
▁నిల	-1584
ముఖ	-1585
▁కర్ణాటక	-1586
▁కొందరు	-1587
.2	-1588
▁పైన	-1589
▁శని	-1590
▁ప్రొ	-1591
ారాయ	-1592
▁దృష్	-1593
యిల్	-1594
తిని	-1595
శారు	-1596
▁సోమ	-1597
▁పడ	-1598
ేందుకు	-1599
▁శివ	-1600
న్నాయి	-1601
యూ	-1602
▁ఆస	-1603
డుకు	-1604
పొ	-1605
▁కమిటీ	-1606
▁నింది	-1607
▁వీటి	-1608
▁విజయం	-1609
ంప్	-1610
సీసీ	-1611
ర్ర	-1612
▁స్టే	-1613
▁శుక్ర	-1614
్యు	-1615
టర్ల	-1616
▁తక్కువ	-1617
▁పోలీస్	-1618
▁అవస	-1619
▁అప్ప	-1620
▁కాకుండా	-1621
▁నీటి	-1622
▁..	-1623
▁అతి	-1624
ಲ್	-1625
▁భార్య	-1626
▁ఫై	-1627
▁తనకు	-1628
రేషన్	-1629
ంతు	-1630
▁పెళ్లి	-1631
ంగళూరు	-1632
కారం	-1633
▁నమ్మ	-1634
▁ఇద్దరు	-1635
▁ఉద్యోగు	-1636
▁రైల్	-1637
▁హత్య	-1638
▁కోరారు	-1639
▁రోడ్డు	-1640
▁వృ	-1641
▁చోటు	-1642
▁అందుకు	-1643
దాలు	-1644
▁పైగా	-1645
▁18	-1646
▁ఎవర	-1647
▁పనులు	-1648
▁ఇంకా	-1649
▁ఉత్	-1650
ంద్	-1651
▁25	-1652
▁చని	-1653
▁కిలో	-1654
▁నిర	-1655
▁మార్కెట్	-1656
▁భావి	-1657
▁ఉపయోగ	-1658
మాను	-1659
వరకు	-1660
క్కి	-1661
▁బై	-1662
▁తీసుకున్న	-1663
ేశ్వ	-1664
కార్	-1665
▁కేవ	-1666
▁బౌ	-1667
▁స్పందించ	-1668
▁గురు	-1669
▁లైన్	-1670
మంది	-1671
▁ఆధార	-1672
సై	-1673
ాలంటే	-1674
▁అతని	-1675
▁పక్క	-1676
▁మారింది	-1677
తన	-1678
▁ఆంధ్రప్రదేశ్	-1679
ఖా	-1680
ండర్	-1681
డిని	-1682
▁హెచ్చ	-1683
▁పరిధి	-1684
▁సుప	-1685
▁ల్	-1686
▁ఆద	-1687
టర్లు	-1688
▁కేవలం	-1689
▁చేసుకున్న	-1690
▁ర్	-1691
▁మంగళ	-1692
▁సాగు	-1693
▁అల	-1694
▁షే	-1695
▁2024	-1696
▁అడుగు	-1697
నేందుకు	-1698
కరణ	-1699
ాలీ	-1700
▁మర	-1701
బ్ర	-1702
▁కారు	-1703
▁ఫా	-1704
▁రాశి	-1705
▁ఆరోగ్య	-1706
▁ప్రాంతాల్లో	-1707
▁సూచించారు	-1708
ీర్	-1709
▁మోడీ	-1710
▁స్కూ	-1711
ోర్	-1712
▁బెంగళూరు	-1713
▁ఏళ్ల	-1714
చిత	-1715
జయ్	-1716
▁అందులో	-1717
▁మొదల	-1718
▁పర్	-1719
▁ఉంచ	-1720
గింది	-1721
యానికి	-1722
▁ఇంటర్	-1723
డింగ్	-1724
ణు	-1725
▁దో	-1726
ల్లా	-1727
థ్	-1728
స్ట్ర	-1729
▁దేశంలో	-1730
▁మాట	-1731
ించా	-1732
నె	-1733
▁వారిని	-1734
▁అధికారంలోకి	-1735
▁పాకి	-1736
▁కార్యకర్	-1737
▁ఎవరి	-1738
తిలో	-1739
ామన్నారు	-1740
▁నిర్వ	-1741
▁కూటమి	-1742
▁ఇక్కడ	-1743
మ్స్	-1744
▁ప్రై	-1745
▁మృతి	-1746
మూ	-1747
▁24	-1748
రావు	-1749
▁గెలి	-1750
▁మారు	-1751
▁కష్ట	-1752
▁నగర్	-1753
య్యారు	-1754
یا	-1755
▁చెప్పు	-1756
నగర్	-1757
ల్ని	-1758
క్రమా	-1759
▁అవసరం	-1760
▁వర్షాలు	-1761
▁కట్ట	-1762
▁సంద	-1763
▁సూర్	-1764
వ్యాప్తంగా	-1765
డంలో	-1766
▁ముగి	-1767
▁ఎక్స్	-1768
▁అనుమ	-1769
▁చేశాడు	-1770
▁కేంద్రం	-1771
జ్ర	-1772
▁భద్ర	-1773
▁200	-1774
▁రైల్వే	-1775
▁ఏపీలో	-1776
నాల	-1777
్రీం	-1778
▁సంచ	-1779
▁ఆగ	-1780
▁మరోసారి	-1781
ెండ్	-1782
▁ఎంతో	-1783
▁ప్రజలకు	-1784
▁కొనుగోలు	-1785
చ్చి	-1786
▁ప్రవేశ	-1787
▁సీనియర్	-1788
▁ఆలోచ	-1789
▁A	-1790
పాల	-1791
▁స్పష్టం	-1792
స్టి	-1793
స్తాన్	-1794
్రో	-1795
▁తాము	-1796
▁ఆసక్తి	-1797
▁ఉంటాయి	-1798
▁రిలీజ్	-1799
రియా	-1800
▁మండి	-1801
దన్నారు	-1802
▁రోడ్	-1803
▁پ	-1804
▁పోరా	-1805
▁తమి	-1806
▁వికెట్	-1807
ధులు	-1808
జన	-1809
▁తరల	-1810
ండ్రి	-1811
▁భూమి	-1812
▁అందుబాటు	-1813
ేమ	-1814
▁జే	-1815
డులు	-1816
శే	-1817
▁س	-1818
వచ్చు	-1819
▁తెలుసుకు	-1820
▁శ్ర	-1821
▁చివరి	-1822
స్ప	-1823
▁చెల్ల	-1824
▁తెర	-1825
▁సమయం	-1826
▁ప్రకటించారు	-1827
వాల	-1828
▁17	-1829
▁తొల	-1830
▁అంతే	-1831
కోవడం	-1832
▁రాజీ	-1833
▁సొంత	-1834
ష్య	-1835
ర్ట్	-1836
▁వివిధ	-1837
▁13	-1838
కింగ్	-1839
▁వెంకట	-1840
ోంది	-1841
▁వరు	-1842
▁స్వీ	-1843
▁ప్లే	-1844
▁సుప్రీం	-1845
ాను	-1846
మాన్	-1847
్యాల	-1848
▁మరియు	-1849
▁మీరు	-1850
ప్తు	-1851
▁కాల్	-1852
▁కార్యాల	-1853
సెస్	-1854
ించాడు	-1855
▁సేవ	-1856
మైంది	-1857
▁గ్రూ	-1858
▁పరుగులు	-1859
▁ఆహ	-1860
బీసీ	-1861
▁విధా	-1862
▁పోలింగ్	-1863
▁2023	-1864
▁వ్యాఖ్యలు	-1865
▁బస్సు	-1866
ించడానికి	-1867
▁లను	-1868
▁ముందుకు	-1869
▁పాట	-1870
▁అవసర	-1871
డమే	-1872
సభ	-1873
వంత	-1874
▁మరణ	-1875
▁వేయ	-1876
▁ప్రమాదం	-1877
తను	-1878
▁నరే	-1879
▁వీరి	-1880
▁గంటలకు	-1881
ండీ	-1882
▁అడి	-1883
▁సర్వే	-1884
▁నాగ	-1885
▁వ్యవస్థ	-1886
▁ఆత్మ	-1887
▁డైరెక్టర్	-1888
▁ఇంత	-1889
జిక	-1890
▁ఇబ్బ	-1891
▁ప్రమాద	-1892
▁పోస్టు	-1893
ద్యా	-1894
▁నిర్వహి	-1895
▁బ్	-1896
▁నిర్వహించారు	-1897
ండ్ల	-1898
నాన్ని	-1899
క్టో	-1900
▁ప్రముఖ	-1901
▁ఫీ	-1902
రులు	-1903
క్త	-1904
▁16	-1905
గిరి	-1906
▁గాయ	-1907
▁వైపు	-1908
స్తుందని	-1909
ళ్ళ	-1910
పాల్	-1911
▁మండల	-1912
▁జూన్	-1913
▁జైలు	-1914
▁వేదిక	-1915
▁అనేది	-1916
▁సామా	-1917
▁లక్ష్	-1918
ోత్స	-1919
్రియ	-1920
▁పరిష్	-1921
▁అప్పటి	-1922
పరి	-1923
▁ఇబ్బందు	-1924
▁సంబంధించి	-1925
▁చైర్మన్	-1926
నింగ్	-1927
▁ఫలిత	-1928
▁బాధి	-1929
▁క్రికెట్	-1930
▁శుక్రవారం	-1931
▁వివరించారు	-1932
▁పెట్టి	-1933
▁ఎన్నికలు	-1934
ంగల్	-1935
▁బోర్	-1936
▁కార్యక్రమా	-1937
▁అభిప్ర	-1938
▁నిజ	-1939
▁ఎవ	-1940
పించారు	-1941
▁దీనిపై	-1942
▁జి	-1943
▁వాటిని	-1944
▁కర	-1945
▁సోమవారం	-1946
ారిటీ	-1947
▁కృ	-1948
▁ఎన్న	-1949
▁నివే	-1950
▁మరోవైపు	-1951
సె	-1952
ారాయణ	-1953
▁నిలిచ	-1954
వుడ్	-1955
▁దీనికి	-1956
▁పరిశీల	-1957
▁అధినే	-1958
▁అక్కడి	-1959
ినట్లు	-1960
▁అప్	-1961
▁ఉంటుందని	-1962
▁జరిగే	-1963
▁కనిపించ	-1964
▁బుధ	-1965
ంత్రం	-1966
పోవ	-1967
▁పూజ	-1968
ణీ	-1969
▁యాద	-1970
▁50	-1971
▁అందరి	-1972
హన్	-1973
▁శ్రీనివాస్	-1974
▁బయటకు	-1975
▁బాధ	-1976
లియా	-1977
▁బొ	-1978
టీసీ	-1979
స్వామి	-1980
▁బాగా	-1981
▁రిజర్	-1982
యిర్	-1983
▁చేస్తే	-1984
▁ముంబ	-1985
▁సెల	-1986
▁రోజుల్లో	-1987
సూ	-1988
▁ఇజ్ర	-1989
▁ప్రశ్నించారు	-1990
కృష్ణ	-1991
▁వస్తున్న	-1992
పడిన	-1993
కార	-1994
సన్	-1995
ప్షన్	-1996
▁మాన	-1997
రావ	-1998
చూ	-1999
▁రాయ	-2000
▁వరద	-2001
నో	-2002
▁వస్తే	-2003
▁కేసులు	-2004
▁చేసేందుకు	-2005
▁అండ్	-2006
▁ఆరు	-2007
▁దర్యా	-2008
▁దృష్టి	-2009
ండ్ర	-2010
ప్పుడ	-2011
ళీ	-2012
నంగా	-2013
తున్నారని	-2014
▁సంక్ష	-2015
▁నమోద	-2016
▁అర్థ	-2017
▁తీసుకె	-2018
గ్రహం	-2019
▁పేరుతో	-2020
జ్ఞ	-2021
ెబ్బ	-2022
పురం	-2023
▁కమ	-2024
ారాన్ని	-2025
గల	-2026
▁పాలన	-2027
▁పేర్కొంది	-2028
▁ప్రతిపక్ష	-2029
నుక	-2030
పం	-2031
రంగ	-2032
▁విస్త	-2033
▁చేరి	-2034
▁తప్పు	-2035
▁పంట	-2036
న్సిప	-2037
▁దర్యాప్తు	-2038
లాండ్	-2039
▁బంగారం	-2040
ట్రో	-2041
▁రద్దు	-2042
మిక	-2043
▁శం	-2044
▁చీఫ్	-2045
▁దక్షి	-2046
ులను	-2047
రుపు	-2048
▁ఆరోపణలు	-2049
▁చేయడానికి	-2050
దుపు	-2051
▁తమిళ	-2052
▁ఇజ్రాయ	-2053
రుగా	-2054
▁రైతులు	-2055
ొచ్చు	-2056
▁నేడు	-2057
▁కవిత	-2058
▁వాతావరణ	-2059
▁ఆదివారం	-2060
▁శరీ	-2061
▁మంత్ర	-2062
వాళ	-2063
మ్మి	-2064
తులకు	-2065
▁కేటాయ	-2066
▁ఎమ్మెల్సీ	-2067
▁ఆట	-2068
ళ్లకు	-2069
సిటీ	-2070
ృష్ట	-2071
▁చేస	-2072
▁ఏర్పా	-2073
▁సాయంత్రం	-2074
▁ఓటు	-2075
▁ఓవర్	-2076
▁కల్యా	-2077
▁ఒకే	-2078
కపోవడంతో	-2079
▁అభిమాను	-2080
హ్మ	-2081
▁టె	-2082
▁అధినేత	-2083
▁అక్రమ	-2084
▁అయ్యారు	-2085
▁ఆప	-2086
▁సహాయ	-2087
▁విలువ	-2088
▁అంచనా	-2089
▁మంగళవారం	-2090
▁సంజయ్	-2091
చ్చని	-2092
▁ఇంట్లో	-2093
▁ప్రస	-2094
▁చెన్న	-2095
▁తేదీన	-2096
▁శనివారం	-2097
పోయి	-2098
▁ప్రయాణి	-2099
▁22	-2100
▁వయ	-2101
▁బీసీ	-2102
▁కొట్ట	-2103
▁మండలం	-2104
▁పిటి	-2105
▁కృష్ణ	-2106
రాల	-2107
▁చేశారని	-2108
▁స్టా	-2109
్యూటీ	-2110
▁జరుగుతున్న	-2111
రీస్	-2112
▁బ్రి	-2113
▁పోస్ట్	-2114
▁పార్టీకి	-2115
ణంలో	-2116
▁నడు	-2117
▁సహా	-2118
దర్శి	-2119
నియా	-2120
గూడ	-2121
రాజ్	-2122
▁దక్క	-2123
తులను	-2124
హె	-2125
ంక	-2126
్యంగా	-2127
▁తది	-2128
కూడ	-2129
కిత్స	-2130
▁ఇజ్రాయెల్	-2131
▁గే	-2132
▁తగ్	-2133
భవ	-2134
▁రైలు	-2135
▁కార్యక్రమంలో	-2136
ాలనే	-2137
▁మార్చి	-2138
స్థాన్	-2139
▁ముగ్గు	-2140
నంలో	-2141
▁సభ్యులు	-2142
త్వం	-2143
ar	-2144
▁బాబు	-2145
ించినట్లు	-2146
ళ్లలో	-2147
.4	-2148
కులకు	-2149
▁తయారు	-2150
▁స్థానిక	-2151
తల	-2152
పుణ	-2153
▁వివ	-2154
▁హు	-2155
▁లాంటి	-2156
ర్ల	-2157
ప్రి	-2158
▁కళ్యా	-2159
డ్జ	-2160
▁అత్యంత	-2161
▁నివేదిక	-2162
▁విమర్శించారు	-2163
కపోతే	-2164
▁సంతో	-2165
▁ఎత్తు	-2166
▁డ్రై	-2167
▁పదవి	-2168
▁ఆసు	-2169
లేక	-2170
ప్తి	-2171
▁అయినా	-2172
▁విదేశ	-2173
డవ	-2174
▁ب	-2175
ర్మి	-2176
▁వరకూ	-2177
▁జరిగి	-2178
▁వంద	-2179
▁మాట్లాడారు	-2180
ప్పి	-2181
▁సమస్యలు	-2182
ల్లోకి	-2183
ాలన్నారు	-2184
షా	-2185
స్త్ర	-2186
గాయి	-2187
▁పంపి	-2188
▁మొదలు	-2189
▁నట	-2190
▁నిజా	-2191
▁మహిళా	-2192
ించారని	-2193
▁పార్లమెంట్	-2194
▁గురువారం	-2195
▁ఎక్క	-2196
▁లేని	-2197
▁పార్టీలో	-2198
▁సిటీ	-2199
▁జీవిత	-2200
▁నిరసన	-2201
▁విద్యా	-2202
నాడు	-2203
▁అంగ	-2204
ళ్లను	-2205
▁విధంగా	-2206
ించాలి	-2207
▁అప్పు	-2208
▁నెలకొ	-2209
▁భారీగా	-2210
▁R	-2211
ఫిక	-2212
బట్టి	-2213
▁బిల్లు	-2214
▁ఎదుర్కొ	-2215
ంస	-2216
▁కంట	-2217
▁సూపర్	-2218
▁విక్ర	-2219
▁అరెస్టు	-2220
▁ప్రాంతంలో	-2221
▁విశాఖ	-2222
▁గవర్	-2223
▁గెలు	-2224
దేశం	-2225
వాల్సి	-2226
▁నిలి	-2227
▁చికిత్స	-2228
▁و	-2229
▁చేస్తామని	-2230
▁నిమి	-2231
▁బీబీసీ	-2232
ంక్	-2233
స్తున్నారని	-2234
▁ఐపీ	-2235
▁ట్యా	-2236
▁ల్యా	-2237
000	-2238
ట్లను	-2239
ಲ್ಲ	-2240
▁అక్టో	-2241
▁అడ్డు	-2242
▁ప్రైవే	-2243
▁కావడంతో	-2244
ద్దీ	-2245
▁స్వామి	-2246
ందం	-2247
బిత	-2248
▁పది	-2249
▁చేరు	-2250
▁బంధ	-2251
▁సింగ	-2252
▁కాపా	-2253
▁భక్తులు	-2254
▁కప్	-2255
▁గ్రామా	-2256
వుల	-2257
డ్జెట్	-2258
జూ	-2259
▁షర్మి	-2260
▁పర్యటన	-2261
ేక్	-2262
▁నామ	-2263
▁టెక్	-2264
▁తమకు	-2265
▁భారతీయ	-2266
▁ప్రభావం	-2267
ನ್	-2268
▁మున్సిప	-2269
▁అంతర్	-2270
▁నరేంద్ర	-2271
▁చేసినట్లు	-2272
వాస	-2273
శ్ర	-2274
ప్రిల్	-2275
▁పట్టు	-2276
▁ప్రకటించింది	-2277
▁21	-2278
▁کے	-2279
▁ఆన్	-2280
▁పాఠ	-2281
శాల	-2282
దులు	-2283
▁దాఖ	-2284
గ్రత్త	-2285
▁ఎయిర్	-2286
ొక	-2287
▁రోజులు	-2288
▁సాధారణ	-2289
రియ	-2290
▁డిస	-2291
▁సమీప	-2292
▁దశ	-2293
స్థా	-2294
▁ఉపా	-2295
▁తీసుకో	-2296
▁దెబ్బ	-2297
▁వరంగల్	-2298
▁బుధవారం	-2299
బీఐ	-2300
లిం	-2301
▁ప్లాన్	-2302
▁వరుస	-2303
▁మందికి	-2304
లవ	-2305
ఠా	-2306
▁ప్రేమ	-2307
కొండ	-2308
▁ఈసారి	-2309
టై	-2310
▁భావ	-2311
▁ఖర్చు	-2312
▁వినియోగ	-2313
▁స్థాయిలో	-2314
▁ఇవ్వాలని	-2315
క్ట్	-2316
▁చైనా	-2317
▁విద్యుత్	-2318
▁అయి	-2319
▁పిటిషన్	-2320
▁అడ్	-2321
▁పలువు	-2322
గతి	-2323
▁ಮ	-2324
▁సెప్ట	-2325
▁అమి	-2326
▁డిప	-2327
పూ	-2328
▁బహి	-2329
▁కార్మి	-2330
▁తండ్రి	-2331
▁ఎంప	-2332
▁ముఖ్యంగా	-2333
సిడ	-2334
▁నాకు	-2335
ికా	-2336
▁ఎల	-2337
▁కళ్యాణ్	-2338
▁కామెంట్	-2339
ఎన్	-2340
▁ఫ్ర	-2341
▁అంటున్నారు	-2342
▁జిల్లాల్లో	-2343
▁బెయిల్	-2344
▁మండిపడ్డారు	-2345
▁దర	-2346
▁అసలు	-2347
▁వరల్డ్	-2348
ఎఫ్	-2349
డుక	-2350
ధ్యా	-2351
ఖాస్తు	-2352
▁పదే	-2353
ెన్సీ	-2354
▁భర్త	-2355
▁నోటీ	-2356
▁హాజర	-2357
▁సుప్రీంకోర్టు	-2358
ితంగా	-2359
▁హక్కు	-2360
ెడ	-2361
లిక	-2362
నానికి	-2363
▁జాగ్రత్త	-2364
స్తున్నట్లు	-2365
▁ఆన	-2366
▁రికార్డు	-2367
ండ్లు	-2368
▁సిరీస్	-2369
▁విమర్శలు	-2370
కంటే	-2371
▁ఎంపిక	-2372
▁తీర్పు	-2373
జె	-2374
▁నూ	-2375
మ్మడి	-2376
▁నటి	-2377
▁చేయాలి	-2378
▁దరఖాస్తు	-2379
హెచ్	-2380
▁వేగ	-2381
▁తెచ్చ	-2382
▁ن	-2383
యోగం	-2384
ులతో	-2385
కోవాలని	-2386
డుతున్న	-2387
▁ఆక	-2388
▁గెలిచ	-2389
▁ఉన్నట్లు	-2390
రస్	-2391
▁పౌ	-2392
టివ్	-2393
▁అవి	-2394
▁క్ల	-2395
ంగ్స్	-2396
▁నష్ట	-2397
▁అలాంటి	-2398
▁పూర్తిగా	-2399
ౌన్	-2400
▁మహా	-2401
▁గ్రూప్	-2402
▁నై	-2403
తె	-2404
▁బడ్జెట్	-2405
▁విషయాన్ని	-2406
▁ఇబ్బందులు	-2407
గారు	-2408
నామా	-2409
▁జీవి	-2410
▁ಸ	-2411
▁ధరలు	-2412
▁کی	-2413
▁ఖమ్మ	-2414
గాల్లో	-2415
▁ఎదురు	-2416
▁సమావేశం	-2417
▁చరి	-2418
▁కామ	-2419
▁ఇంటికి	-2420
▁వెళ్లే	-2421
ారన్నారు	-2422
▁బే	-2423
వల్ల	-2424
న్నాడు	-2425
▁میں	-2426
▁ఏప్రిల్	-2427
▁వేడుక	-2428
లన	-2429
▁ఆడ	-2430
లియన్	-2431
య్యాయి	-2432
్యాన్ని	-2433
▁ఇండ	-2434
▁డబ్బులు	-2435
▁అవకాశాలు	-2436
▁ನ	-2437
తికి	-2438
▁కోరు	-2439
ారనే	-2440
▁హింద	-2441
యన్స్	-2442
▁ت	-2443
ంపై	-2444
▁సెంటర్	-2445
గ్రా	-2446
కపోవడం	-2447
▁ఈరోజు	-2448
▁ఎల్	-2449
▁చేసారు	-2450
▁అధికారి	-2451
▁అనుమా	-2452
▁సైతం	-2453
ంగి	-2454
▁భయ	-2455
▁లోకి	-2456
▁ج	-2457
ంచే	-2458
▁మూడో	-2459
▁వచ్చాయి	-2460
వంబర్	-2461
▁రాజ్	-2462
▁మహారా	-2463
▁కురి	-2464
▁ఉండగా	-2465
ండె	-2466
ార్ట్	-2467
▁చేస్తు	-2468
▁లభ	-2469
▁ఒకటి	-2470
▁ವ	-2471
▁రూపొ	-2472
▁అదుపు	-2473
▁కనీ	-2474
ించుకో	-2475
▁గ్	-2476
లక్ష	-2477
▁హరీ	-2478
న్లు	-2479
▁2019	-2480
▁ప్యా	-2481
▁వివే	-2482
▁ఆయనకు	-2483
▁చదు	-2484
▁సమర్	-2485
▁చరిత్ర	-2486
నాలను	-2487
తిక	-2488
పోయా	-2489
▁సెక	-2490
▁చేసుకున్నారు	-2491
▁బృ	-2492
పర	-2493
ములు	-2494
▁కొద్ది	-2495
▁దీన్ని	-2496
వంటి	-2497
▁ట్వీ	-2498
▁స్థానంలో	-2499
రవ	-2500
▁పెం	-2501
▁ముంబై	-2502
▁ప్రయోజ	-2503
▁సమావేశంలో	-2504
▁జాబిత	-2505
▁పొత్తు	-2506
▁ప్రేక్ష	-2507
ట్రే	-2508
▁د	-2509
డ్స్	-2510
▁చెప్పిన	-2511
▁పలువురు	-2512
▁చొ	-2513
దిరి	-2514
▁యాత్ర	-2515
▁కల్యాణ్	-2516
ంభ	-2517
▁అనుకూ	-2518
▁కాలేజీ	-2519
▁కాబట్టి	-2520
▁యుద్ధ	-2521
▁ప్రచార	-2522
▁కార్యదర్శి	-2523
ంటుంది	-2524
▁అవినీ	-2525
ించనున్నారు	-2526
ట్రా	-2527
టిఫిక	-2528
▁సంప్ర	-2529
▁శుభ	-2530
టువంటి	-2531
▁సిద్ద	-2532
▁అభిప్రాయ	-2533
హ్నం	-2534
▁స్పె	-2535
▁కార్పొ	-2536
▁తెలుసు	-2537
▁పార్టీల	-2538
▁విజయవాడ	-2539
▁లాభ	-2540
▁లేక	-2541
▁నడి	-2542
▁నిరు	-2543
▁శక్తి	-2544
▁గణ	-2545
ష్ణ	-2546
▁మధ్యా	-2547
కోవడానికి	-2548
▁తీసుకొచ్చ	-2549
న్యం	-2550
▁ఉచిత	-2551
▁మద్య	-2552
ఖీ	-2553
రించారు	-2554
▁సంక్షేమ	-2555
▁తీసుకున్నారు	-2556
▁తిరుమల	-2557
▁ఇబ్బంది	-2558
▁వాయి	-2559
in	-2560
▁వన్	-2561
▁ఇవాళ	-2562
.6	-2563
హీ	-2564
▁రోహి	-2565
ందనే	-2566
▁జనవరి	-2567
al	-2568
▁ఎందు	-2569
▁ప్రాధా	-2570
▁స్పష్ట	-2571
▁ఆసుపత్రి	-2572
▁కన్	-2573
▁చేర	-2574
▁సీపీ	-2575
▁సామాజిక	-2576
▁పార్టీలు	-2577
▁రాజీనామా	-2578
▁పోలీసులకు	-2579
▁ఉమ్మడి	-2580
▁ఇచ్చింది	-2581
▁పొంద	-2582
ತ್	-2583
▁నీరు	-2584
ర్యంలో	-2585
.7	-2586
▁ఐటీ	-2587
▁పాకిస్తాన్	-2588
సింగ్	-2589
▁లెక్క	-2590
▁పత్ర	-2591
కున్నారు	-2592
▁ఇంగ్	-2593
▁చేస్తారు	-2594
▁అద్	-2595
▁కనిప	-2596
▁షి	-2597
▁నెట్	-2598
రానికి	-2599
ంశ	-2600
ఫిక్	-2601
▁సీట్లు	-2602
భు	-2603
ంపల్లి	-2604
▁వాళ్లు	-2605
రేట్	-2606
▁బండి	-2607
▁ఉత్తర	-2608
▁కారణం	-2609
▁ఆస్ట్రే	-2610
▁వ్యాప్తంగా	-2611
▁40	-2612
▁వ్యవస	-2613
▁గుర్తి	-2614
రణ్	-2615
▁28	-2616
యంగా	-2617
▁సభలో	-2618
ಿದ	-2619
కేష్	-2620
▁తీరు	-2621
▁పారి	-2622
▁యూనివర్	-2623
ద్దని	-2624
▁అంబ	-2625
▁పండు	-2626
చ్చారు	-2627
▁బాధ్యత	-2628
▁షర్మిల	-2629
▁అధికారిక	-2630
▁ఎన్టీఆర్	-2631
జాతీయ	-2632
ద్దేశ	-2633
యాల్లో	-2634
▁అక్టోబర్	-2635
▁ఎన్నో	-2636
▁విశ్వ	-2637
ఖ్యా	-2638
▁వది	-2639
▁మిగి	-2640
▁డిసెంబర్	-2641
▁ఎగ్	-2642
▁మనం	-2643
▁సబ్	-2644
షనర్	-2645
▁ఇంట	-2646
▁నిపుణ	-2647
▁నిబంధ	-2648
్వర్యంలో	-2649
▁మార్చ	-2650
ణంగా	-2651
విష్య	-2652
ప్టెన్	-2653
▁ఇచ్చి	-2654
▁కాలంలో	-2655
▁నిమిష	-2656
కరి	-2657
కౌ	-2658
లిన	-2659
కులను	-2660
ినేషన్	-2661
▁క్యాప్షన్	-2662
శు	-2663
▁సామ	-2664
ంద్రా	-2665
▁విభా	-2666
▁వస్తుంది	-2667
ంబా	-2668
▁స్థి	-2669
▁ఈడీ	-2670
▁తనను	-2671
▁కమిషన్	-2672
బూ	-2673
ఫ్ట్	-2674
▁ఉత్ప	-2675
▁సర్వీ	-2676
▁తీవ్రంగా	-2677
ور	-2678
డత	-2679
రింగ్	-2680
▁మరికొ	-2681
▁యాదవ్	-2682
▁ప్రయత్నం	-2683
▁సెప్టెంబర్	-2684
టిల్	-2685
టెడ్	-2686
▁కలిగి	-2687
▁కాదని	-2688
హత్య	-2689
గత	-2690
▁చాల	-2691
సార్లు	-2692
▁సీబీఐ	-2693
▁పేద	-2694
▁అందుబాటులో	-2695
▁నిర్వహించిన	-2696
సాద్	-2697
▁ఫైన	-2698
▁ఎవరు	-2699
ఫర్	-2700
▁గుండె	-2701
▁భే	-2702
▁కస్ట	-2703
▁తెలిసింది	-2704
టన్	-2705
▁కీ	-2706
▁రవి	-2707
▁ఆధ్వర్యంలో	-2708
ండు	-2709
కాం	-2710
▁షో	-2711
ద్రా	-2712
య్యా	-2713
▁ఖమ్మం	-2714
▁లేఖ	-2715
▁ప్రీ	-2716
▁స్పీ	-2717
▁వర్షం	-2718
▁భవిష్య	-2719
..?	-2720
▁అరు	-2721
▁ఆడి	-2722
▁నిందితు	-2723
ధాని	-2724
▁చేయా	-2725
▁సూర్య	-2726
▁నెలల	-2727
▁23	-2728
▁ఇక్క	-2729
▁అమిత్	-2730
▁ముగ్గురు	-2731
పాద	-2732
▁ఆగస్టు	-2733
▁ట్వీట్	-2734
▁సము	-2735
▁సినిమాలో	-2736
▁చేస్తున్నారని	-2737
▁గ్యా	-2738
రగా	-2739
▁ధర్	-2740
▁ఎక్కడ	-2741
ండే	-2742
ందరి	-2743
▁అల్	-2744
ండియా	-2745
నున్నాయి	-2746
▁అడ	-2747
▁100	-2748
▁ప్రో	-2749
ఖర్	-2750
▁ఒత్తి	-2751
▁మహిళలు	-2752
▁రష	-2753
▁సంతోష	-2754
▁తొలగ	-2755
▁చదువు	-2756
▁ఉండాలని	-2757
▁కన	-2758
▁సంత	-2759
కుమార్	-2760
▁వ్యాపార	-2761
▁బ్యాంక్	-2762
▁ప్రభుత్వానికి	-2763
▁తిన	-2764
▁వ్యూ	-2765
స్తాయని	-2766
▁ప్రెస్	-2767
▁గుర్తించారు	-2768
ముల	-2769
▁జయ	-2770
▁పొందు	-2771
వల్	-2772
▁చూప	-2773
▁ఆత్మహత్య	-2774
▁ఆస్ట్రేలియా	-2775
50	-2776
▁ఆమో	-2777
▁నియమ	-2778
▁స్నే	-2779
పడింది	-2780
▁గవర్నర్	-2781
▁రైతులకు	-2782
▁వివరాలు	-2783
▁తిరుపతి	-2784
▁మారి	-2785
▁రేపు	-2786
▁ఉన్నా	-2787
ఫె	-2788
ల్చ	-2789
▁సత్య	-2790
▁విషయ	-2791
▁C	-2792
▁వెన	-2793
యింది	-2794
▁మెడి	-2795
▁రిపో	-2796
▁షేర్	-2797
షే	-2798
▁ఇచ్చే	-2799
▁దాఖలు	-2800
▁ప్రతిని	-2801
▁మధ్యాహ్నం	-2802
ించాయి	-2803
▁ఉన్నాయని	-2804
ళం	-2805
▁క్రీ	-2806
▁గర్	-2807
ట్లకు	-2808
్రీన్	-2809
▁సీజన్	-2810
▁తీసుకోవాలని	-2811
▁చేస్తోంది	-2812
తాయని	-2813
▁వాళ్ల	-2814
▁P	-2815
▁బ్రా	-2816
్యో	-2817
▁కుల	-2818
వాల్సిన	-2819
ಿಯ	-2820
ంగు	-2821
నిక	-2822
▁ఖాన్	-2823
▁ఉద్దేశ	-2824
▁ప్రక్రియ	-2825
▁27	-2826
▁అంతర్జాతీయ	-2827
దండ్ర	-2828
▁హౌ	-2829
వేత్త	-2830
తుల్లో	-2831
▁వెనుక	-2832
▁రాష్ట్రాల్లో	-2833
గ్య	-2834
▁బ్లా	-2835
మర్	-2836
మ్ము	-2837
▁బరి	-2838
▁నిరా	-2839
▁రామ్	-2840
కోవాలి	-2841
గానికి	-2842
▁సుమారు	-2843
ల్చి	-2844
▁అత్యధిక	-2845
▁వెల్లడించింది	-2846
వారికి	-2847
▁అందరూ	-2848
▁నవంబర్	-2849
ار	-2850
గొండ	-2851
▁రోహిత్	-2852
ان	-2853
▁చార్	-2854
▁పూర్త	-2855
నాల్లో	-2856
▁మద్యం	-2857
▁ఆగ్రహం	-2858
షణ	-2859
ైల్	-2860
▁ట్వి	-2861
▁పర	-2862
▁గిరి	-2863
▁రాజు	-2864
▁మహారాష్ట్ర	-2865
వని	-2866
పడే	-2867
▁రహ	-2868
లేని	-2869
▁లేద	-2870
▁జరుపు	-2871
▁చెన్నై	-2872
ేశ్వర	-2873
▁దారు	-2874
▁విరా	-2875
▁బహిరంగ	-2876
ెంట్లు	-2877
ంహ	-2878
తమైన	-2879
▁సీత	-2880
▁26	-2881
▁నివ	-2882
▁చేస్తుంది	-2883
యిన	-2884
▁నర్	-2885
▁తల్లిదండ్ర	-2886
▁ఎక	-2887
▁కురు	-2888
▁అద్భు	-2889
▁అతను	-2890
▁వెబ్	-2891
ంబర్	-2892
ించడంతో	-2893
▁న్యూస్	-2894
▁తగ్గి	-2895
▁ఆస్పత్రి	-2896
ౌండ్	-2897
▁గమ	-2898
పోయాయి	-2899
▁హాజరు	-2900
▁అనుమతి	-2901
వాసం	-2902
ಲ್ಲಿ	-2903
ూర్తి	-2904
▁వేసి	-2905
▁ఎప్పుడ	-2906
▁ఆధారంగా	-2907
బెట్	-2908
▁ఆహ్	-2909
కుంటే	-2910
▁కోహ్	-2911
▁సంఘం	-2912
▁T	-2913
▁కరీ	-2914
▁మెద	-2915
▁ఔ	-2916
..!	-2917
▁ఫోటో	-2918
▁అంతేకా	-2919
ోధ	-2920
▁రుణ	-2921
▁దుర్	-2922
▁S	-2923
డ్డా	-2924
▁దారి	-2925
▁భేటీ	-2926
-2	-2927
ద్రి	-2928
▁వడ్	-2929
▁ప్రె	-2930
ంపే	-2931
సార్	-2932
▁ఓడి	-2933
రాల్లో	-2934
▁ఆదేశించారు	-2935
్రమ	-2936
పులు	-2937
▁సీఐ	-2938
▁కిలోమీ	-2939
ra	-2940
▁వాదన	-2941
▁జిల్లాలోని	-2942
▁నిన్న	-2943
▁ہے	-2944
కుని	-2945
స్తారని	-2946
▁జె	-2947
గ్రీ	-2948
ారానికి	-2949
నున్నట్లు	-2950
కృ	-2951
▁చూసి	-2952
▁రావడం	-2953
ున	-2954
▁گ	-2955
ನ್ನ	-2956
▁రూపాయలు	-2957
కునే	-2958
లింది	-2959
▁ఆలోచన	-2960
▁మెగా	-2961
▁శర్మ	-2962
ణ్య	-2963
షియల్	-2964
▁అర్హ	-2965
సిడెంట్	-2966
▁వేదికగా	-2967
▁ఏడు	-2968
▁దిగు	-2969
▁పుట్ట	-2970
▁పంపిణీ	-2971
▁లోకేష్	-2972
ంనగర్	-2973
వేషన్	-2974
▁షూ	-2975
బోయే	-2976
▁గుర్తింపు	-2977
వేల	-2978
వాన్ని	-2979
▁సమాధా	-2980
▁ఏర్పాట్లు	-2981
ద్యో	-2982
వాలు	-2983
ెక్ట్	-2984
▁షాక్	-2985
▁విద్యార్థులు	-2986
▁నేషనల్	-2987
ేష్	-2988
▁పోష	-2989
▁హాస్	-2990
▁తీసుకుంట	-2991
ఫా	-2992
▁(1	-2993
లిక్	-2994
▁క్యూ	-2995
▁పట్ల	-2996
▁సంప్రద	-2997
▁అవార్డు	-2998
ేస్	-2999
ారావు	-3000
తోందని	-3001
▁ట్రాఫిక్	-3002
▁ధా	-3003
▁క్వ	-3004
రుగ	-3005
▁వ్యతిరేక	-3006
ంగ్లా	-3007
▁అప్ర	-3008
▁ప్రతీ	-3009
▁కల్పించ	-3010
▁ప్రయత్ని	-3011
రాజు	-3012
▁కాన్	-3013
▁ట్రై	-3014
▁ఆఫీసర్	-3015
▁మైన	-3016
▁కృషి	-3017
▁ఆర్టీసీ	-3018
▁ఫ్యాన్స్	-3019
ెక్ట	-3020
▁హ్యా	-3021
▁సరైన	-3022
▁క్రితం	-3023
పత్ర	-3024
ొక్క	-3025
▁వారం	-3026
▁సెల్	-3027
కరించారు	-3028
▁తరలి	-3029
▁భో	-3030
తరులు	-3031
▁హెచ్	-3032
▁విజయ్	-3033
▁భు	-3034
▁సినీ	-3035
▁నిద్ర	-3036
▁రష్యా	-3037
▁స్కూల్	-3038
ంచు	-3039
ట్టింది	-3040
▁సర్కార్	-3041
▁పెట్టారు	-3042
▁మార్పులు	-3043
జం	-3044
ంచ్	-3045
ంలోనే	-3046
▁కెప్టెన్	-3047
▁చౌ	-3048
▁రూపాయల	-3049
▁చెప్పింది	-3050
హన	-3051
▁అయింది	-3052
▁రాలే	-3053
▁మంత్రులు	-3054
గులు	-3055
న్యూ	-3056
స్తులు	-3057
▁వ్యాఖ్యా	-3058
▁ఆహ్వా	-3059
▁టార్	-3060
టానికి	-3061
▁కూడిన	-3062
▁కుమారు	-3063
దారులు	-3064
హాలు	-3065
ాడని	-3066
▁ఉండాలి	-3067
▁ఎమ్మెల్యేలు	-3068
డప	-3069
ధీ	-3070
వ్యూ	-3071
కేషన్	-3072
ణానికి	-3073
▁తిరుగు	-3074
▁రైతుల	-3075
▁సంవత్సరం	-3076
▁ప్రారంభించారు	-3077
జరా	-3078
ట్రి	-3079
▁కొండ	-3080
ఫ్ర	-3081
▁ఐపీఎల్	-3082
సో	-3083
▁అవినీతి	-3084
తకు	-3085
కోసం	-3086
▁అగ్ర	-3087
సులో	-3088
సారిగా	-3089
▁సంఘటన	-3090
▁ప్రశ్న	-3091
▁వచ్చారు	-3092
▁ఎవరూ	-3093
▁పాయి	-3094
బ్రవరి	-3095
▁కరీంనగర్	-3096
శ్చి	-3097
ార్టీ	-3098
▁సంగతి	-3099
▁అయ్యింది	-3100
▁రాష్ట్రం	-3101
ಂದ	-3102
సరి	-3103
▁2022	-3104
▁బోర్డు	-3105
▁భారతదేశ	-3106
▁అదన	-3107
▁బ్యాంకు	-3108
.8	-3109
▁31	-3110
▁బంగ్లా	-3111
▁పిల్లలు	-3112
ట్టే	-3113
▁మంజ	-3114
▁కనీసం	-3115
థి	-3116
దర	-3117
▁పరిశోధ	-3118
▁శ్రే	-3119
▁దేవ	-3120
▁ఒక్కో	-3121
▁యూనివర్సిటీ	-3122
▁అవుతుంది	-3123
లికి	-3124
▁స్క	-3125
ంటాయి	-3126
▁ఓటమి	-3127
▁వెళ్లిన	-3128
▁1,	-3129
▁జడ్	-3130
▁ఖాళీ	-3131
▁వ్యతిరేకంగా	-3132
▁లలో	-3133
▁హను	-3134
క్షలు	-3135
▁సీటు	-3136
▁చాలామ	-3137
▁నుంచే	-3138
▁సృష్ట	-3139
త్యా	-3140
వ్వు	-3141
▁దక్షిణ	-3142
గ్స్	-3143
▁దేశం	-3144
న్మ	-3145
జున్	-3146
▁కాంట	-3147
▁విశ్	-3148
▁కొడుకు	-3149
▁మున్సిపల్	-3150
దైనా	-3151
▁తని	-3152
▁బాగు	-3153
▁ఇవి	-3154
ెడ్యూ	-3155
▁ఉత్తర్	-3156
▁వేశారు	-3157
▁పరిధిలో	-3158
▁ప్రదర్శ	-3159
లూ	-3160
▁ఇష్ట	-3161
▁వాయిదా	-3162
▁కామెంట్స్	-3163
▁జిల్ల	-3164
నాథ్	-3165
▁లకు	-3166
▁ఒప్ప	-3167
▁ఉద్యమ	-3168
▁ఇరు	-3169
▁మంట	-3170
▁కావడం	-3171
సర్లు	-3172
▁కోహ్లీ	-3173
▁గూ	-3174
▁కూతు	-3175
▁చాలామంది	-3176
▁తరలించారు	-3177
▁సాయం	-3178
ائ	-3179
▁దిశ	-3180
▁అంతా	-3181
▁ప్రశా	-3182
▁నియోజకవర్గంలో	-3183
ట్నం	-3184
క్కర్	-3185
▁అర్థం	-3186
▁నలుగు	-3187
▁పేపర్	-3188
ార్డ్	-3189
పడుతుంది	-3190
▁ప్రారంభం	-3191
▁మేం	-3192
▁చెప్	-3193
▁సెక్ర	-3194
▁జాబితా	-3195
తుండ	-3196
▁ఎఫ్	-3197
▁పరిమి	-3198
▁హాస్పి	-3199
▁యో	-3200
▁సల	-3201
ర్చి	-3202
ాలంటూ	-3203
▁సాయి	-3204
▁ఫిబ్రవరి	-3205
▁వీర	-3206
▁చూసిన	-3207
▁నీళ్లు	-3208
▁పార్లమె	-3209
▁మిగ	-3210
య్యే	-3211
▁ఆదాయం	-3212
▁ಕ	-3213
▁రాజధాని	-3214
తున్నట్లు	-3215
ಾರ	-3216
శ్చ	-3217
▁ఓట్లు	-3218
▁ఆయా	-3219
▁బంధు	-3220
▁ప్రజలను	-3221
▁కార్యకర్తలు	-3222
▁నియోజకవర్గం	-3223
ట్యూ	-3224
య్యి	-3225
▁గౌడ్	-3226
▁విద్యార్థి	-3227
th	-3228
▁ఆహార	-3229
▁కార్డు	-3230
ల్లే	-3231
దావరి	-3232
హాన్ని	-3233
▁కమిషనర్	-3234
▁వ్యవసాయ	-3235
ించుకున్నారు	-3236
▁లోప	-3237
▁వేళ	-3238
▁ఇన్ని	-3239
గీ	-3240
వ్య	-3241
▁లబ్	-3242
▁గుజరా	-3243
▁లక్షలు	-3244
కిల్	-3245
▁వాడ	-3246
ెక్స్	-3247
▁నష్టం	-3248
▁పండుగ	-3249
▁సముద్ర	-3250
ారులు	-3251
▁ఖాతా	-3252
▁ప్రాణ	-3253
▁నిధులు	-3254
یک	-3255
రవే	-3256
▁విభ	-3257
▁నాయుడు	-3258
ాయు	-3259
న్నే	-3260
▁పాత	-3261
▁హెల్	-3262
▁షెడ్యూ	-3263
ించుకున్న	-3264
▁ప్రయత్నాలు	-3265
▁లోనే	-3266
▁బ్యాటింగ్	-3267
బరు	-3268
ల్లం	-3269
▁చూపి	-3270
▁చెంద	-3271
స్తానని	-3272
▁ఇంజ	-3273
▁తీసుకుని	-3274
కరించ	-3275
▁పిలుపు	-3276
▁చేపట్టారు	-3277
▁పుష్	-3278
▁రూపొందించ	-3279
యాత్ర	-3280
▁పరిగ	-3281
▁ఫార్	-3282
▁కిషన్	-3283
▁పెరిగి	-3284
▁స్వాధీ	-3285
▁ఆదేశాలు	-3286
▁డిప్యూటీ	-3287
డెన్	-3288
▁పున	-3289
స్వామ	-3290
▁నిరుద్యో	-3291
ాలిటీ	-3292
▁తనిఖీ	-3293
▁ముందే	-3294
▁నిర్మాణ	-3295
▁29	-3296
ెయిన్	-3297
▁రాజ్యా	-3298
గెట్	-3299
ముందు	-3300
▁యాక్	-3301
▁కొత్తగా	-3302
▁?	-3303
▁B	-3304
జీవి	-3305
▁ఒకరు	-3306
▁నిపుణులు	-3307
▁మెజ	-3308
▁మహబూ	-3309
▁రిజి	-3310
▁అమరావ	-3311
▁దాడులు	-3312
▁వసూ	-3313
▁టీమ్	-3314
▁దళ	-3315
▁ఫస్ట్	-3316
▁ఎన్నికలకు	-3317
▁అభ్యర్థులు	-3318
గ్ని	-3319
▁ఏమి	-3320
▁ఉంటారు	-3321
▁త్వరలో	-3322
▁ముస్	-3323
▁అల్లు	-3324
గ్గా	-3325
▁అధి	-3326
▁ఫుడ్	-3327
▁సారి	-3328
▁బస్	-3329
▁చేసుకుంది	-3330
-1	-3331
▁మల్ల	-3332
▁ప్రైవేట్	-3333
▁మనో	-3334
▁పర్యా	-3335
▁డిగ్రీ	-3336
▁బ్లాక్	-3337
▁నిర్వహణ	-3338
▁ఆసి	-3339
మిండియా	-3340
▁రిజర్వేషన్	-3341
ుడి	-3342
ంకర్	-3343
పోయే	-3344
వాహ	-3345
▁పరుగుల	-3346
▁పథకం	-3347
▁పశ్చి	-3348
▁కౌన్సి	-3349
▁గుజరాత్	-3350
▁ఢ	-3351
▁కాని	-3352
▁టార్గెట్	-3353
▁త్వరలోనే	-3354
కలు	-3355
ధుల	-3356
▁ముఖ	-3357
స్థాయి	-3358
▁పెంచు	-3359
▁కుటుంబా	-3360
▁టీమిండియా	-3361
er	-3362
▁సార్లు	-3363
▁బాధ్యతలు	-3364
▁స్వాధీనం	-3365
▁గుడ్	-3366
▁తేడా	-3367
▁విగ్ర	-3368
▁శాంతి	-3369
▁శిక్ష	-3370
▁కొనసాగ	-3371
▁అభిమానులు	-3372
▁నామినేషన్	-3373
త్తా	-3374
▁త్రి	-3375
▁యాప్	-3376
▁టెస్టు	-3377
▁స్పెషల్	-3378
ాలీవుడ్	-3379
▁ప్రాధాన్య	-3380
పన	-3381
▁అట	-3382
▁కుటుంబం	-3383
ోన్	-3384
▁స్కా	-3385
▁చిత్రం	-3386
▁ప్రమాణ	-3387
▁అదుపులోకి	-3388
▁న్యూఢిల్లీ	-3389
దరు	-3390
▁ఉండి	-3391
స్ట్రీ	-3392
▁సుర	-3393
▁పెరగ	-3394
▁చుట్ట	-3395
▁ఇప్పటివరకు	-3396
నాయ	-3397
▁స్కో	-3398
ంగం	-3399
ನ್ನು	-3400
▁కేజ	-3401
▁రాశ	-3402
▁ముంద	-3403
▁వేసిన	-3404
▁సంఖ్యలో	-3405
▁ఎందుకంటే	-3406
▁తమిళనాడు	-3407
on	-3408
ష్ణో	-3409
▁తగిన	-3410
▁ఏక	-3411
కర్స్	-3412
▁2014	-3413
▁రకాల	-3414
▁నిర్మాణం	-3415
▁శ్రీవారి	-3416
▁మౌ	-3417
▁ఆటగా	-3418
▁ప్రస్తుత	-3419
నిఫ	-3420
▁కాలం	-3421
▁ఇండియన్	-3422
▁నోటీసులు	-3423
▁ಪ	-3424
కరమైన	-3425
▁పాఠశాల	-3426
▁ప్రస్తా	-3427
శేష	-3428
▁న్	-3429
▁గడు	-3430
▁మృత	-3431
,1	-3432
,000	-3433
▁రచ	-3434
హార్	-3435
▁దానికి	-3436
రాజ	-3437
▁ఏజ	-3438
చేసుకు	-3439
▁చోట్ల	-3440
ರು	-3441
పున	-3442
▁వెళ	-3443
▁చెప్పుకొచ్చ	-3444
ఎంసీ	-3445
▁సెంట	-3446
▁ఏదైనా	-3447
▁కోరుకు	-3448
▁ఉన్నారని	-3449
▁اس	-3450
▁జు	-3451
▁గ్రామంలో	-3452
▁అయో	-3453
▁రాజే	-3454
▁కళా	-3455
ించగా	-3456
▁దొంగ	-3457
▁తగ్గు	-3458
్రీవాల్	-3459
▁దాన్ని	-3460
▁లక్ష్మీ	-3461
▁రాష్ట్రాల	-3462
▁జర్	-3463
▁సాం	-3464
▁అంగీ	-3465
▁ఫలితాలు	-3466
یو	-3467
ెత్త	-3468
యేషన్	-3469
▁చిరం	-3470
▁మరొక	-3471
▁నారాయణ	-3472
▁సందర్శ	-3473
కుంటున్న	-3474
ంటో	-3475
ందన్న	-3476
మాబాద్	-3477
▁వినిపి	-3478
▁అమ్మాయి	-3479
▁డ్రైవర్	-3480
▁స్పందించారు	-3481
జ్జ	-3482
▁పవర్	-3483
▁థి	-3484
▁రఘ	-3485
డితే	-3486
▁ఆల్	-3487
▁డెవల	-3488
▁నేతల	-3489
▁రావడంతో	-3490
▁అప్పగ	-3491
సేందుకు	-3492
▁మెడికల్	-3493
▁చేపట్టిన	-3494
▁తదితరులు	-3495
▁నగర	-3496
▁పరిశ్రమ	-3497
కాలం	-3498
ెట్ల	-3499
▁ఆలయ	-3500
▁క్యార	-3501
▁మృతదే	-3502
▁బీజేపీకి	-3503
▁ر	-3504
రుష	-3505
▁చెయ్య	-3506
▁కఠ	-3507
▁వన	-3508
ంచరీ	-3509
ళ్లుగా	-3510
▁కేజ్రీవాల్	-3511
ులై	-3512
▁రెస్	-3513
▁గ్రే	-3514
▁పెరిగింది	-3515
త్మక	-3516
మీర్	-3517
ట్టర్	-3518
▁పంజా	-3519
▁నర	-3520
▁చిరంజీవి	-3521
▁କ	-3522
▁కన్న	-3523
▁పర్యట	-3524
▁పోలీసుల	-3525
sh	-3526
▁అవగా	-3527
▁గాలి	-3528
▁దాంతో	-3529
▁దూరంగా	-3530
చ్చితంగా	-3531
▁హీరోయిన్	-3532
▁బది	-3533
▁ఒత్తిడి	-3534
▁దేశవ్యాప్తంగా	-3535
▁రక్త	-3536
▁పశ్చిమ	-3537
▁అధికారుల	-3538
దైన	-3539
▁గురి	-3540
▁హిందూ	-3541
▁నేరుగా	-3542
▁అప	-3543
▁టాప్	-3544
చేశారు	-3545
▁చేసుకో	-3546
ధర్	-3547
▁సంబంధం	-3548
▁లభి	-3549
▁నాటికి	-3550
చ్ఛ	-3551
▁ఛార్	-3552
తాన్ని	-3553
▁గొప్ప	-3554
▁వార్త	-3555
▁లక్ష్యంగా	-3556
ళిక	-3557
స్క్	-3558
್ರ	-3559
రుల	-3560
రళ	-3561
టీడీ	-3562
▁నెలలో	-3563
▁ఉండటంతో	-3564
▁తెలుగుదేశం	-3565
యాన్	-3566
▁హోం	-3567
▁చెక్	-3568
▁రక్షణ	-3569
▁ఓడ	-3570
▁ఆటో	-3571
▁పాద	-3572
▁కెమె	-3573
▁మోహన్	-3574
▁టెస్ట్	-3575
▁0	-3576
▁ಹ	-3577
లాది	-3578
▁విప	-3579
▁నిబంధన	-3580
▁మంజూరు	-3581
▁సెంచరీ	-3582
ఘా	-3583
శేఖర్	-3584
▁మేనే	-3585
▁సురే	-3586
▁వారిలో	-3587
▁మిగిలిన	-3588
▁వెళ్లారు	-3589
బడు	-3590
రిని	-3591
ిల్స్	-3592
▁విడి	-3593
▁చట్టం	-3594
▁బదిలీ	-3595
▁వికెట్లు	-3596
.9	-3597
▁అనారో	-3598
▁దిన	-3599
▁బరువు	-3600
కల	-3601
మత్త	-3602
▁అగ్ని	-3603
▁అధికారులకు	-3604
▁కరో	-3605
▁ఏసీ	-3606
▁కఠిన	-3607
▁జనరల్	-3608
▁నంబర్	-3609
▁అప్పుడు	-3610
▁کو	-3611
▁తెల్ల	-3612
▁మిగతా	-3613
▁సౌకర్	-3614
ెట్లు	-3615
▁చక్క	-3616
▁సంస్	-3617
▁సీట్ల	-3618
▁షెడ్యూల్	-3619
▁జరుగుతోంది	-3620
రాశి	-3621
▁స్టూడ	-3622
▁ఢిల్లీలో	-3623
▁అటు	-3624
▁పొడి	-3625
▁జస్టి	-3626
చె	-3627
▁ఊహ	-3628
▁జనా	-3629
▁మందు	-3630
▁అర్జున్	-3631
▁శాస్త్ర	-3632
▁కేరళ	-3633
▁నల్ల	-3634
▁అంతకు	-3635
▁ఎన్డీ	-3636
▁అద	-3637
▁మధు	-3638
▁రంగా	-3639
▁ముస్లిం	-3640
▁సంస్థలు	-3641
▁కనిపిస్తోంది	-3642
▁60	-3643
▁ఫర్	-3644
▁నారా	-3645
▁పట్టుకు	-3646
▁అప్రమత్త	-3647
ತ್ತ	-3648
లాలు	-3649
▁సచి	-3650
ంపులు	-3651
బె	-3652
▁నిర్మి	-3653
ూరి	-3654
కింద్రా	-3655
▁అవగాహన	-3656
▁అధికారులను	-3657
,5	-3658
▁ఆవి	-3659
▁ధ్వ	-3660
▁ఎదుర	-3661
ారంటూ	-3662
▁సిద్ధం	-3663
▁చేయడంతో	-3664
▁ముందుగా	-3665
▁జరుగుతుంది	-3666
యిత	-3667
రామ	-3668
▁బూ	-3669
లోనూ	-3670
▁కాక	-3671
▁ధర్మ	-3672
▁కాస్త	-3673
▁వన్డే	-3674
కింద్రాబాద్	-3675
▁పరిస్థితులు	-3676
చిన	-3677
టికల్	-3678
▁జులై	-3679
▁స్ట్ర	-3680
▁న్యాయం	-3681
▁గోదావరి	-3682
▁వ్యవహార	-3683
▁కొంతమంది	-3684
▁డాల	-3685
రత్	-3686
▁నటు	-3687
న్సర్	-3688
▁వేలు	-3689
కాలంలో	-3690
ాయా	-3691
▁(2	-3692
▁కను	-3693
▁మోసం	-3694
▁అధ్యయ	-3695
▁చెప్పి	-3696
▁ప్రొఫె	-3697
▁గొడవ	-3698
▁పడ్డ	-3699
▁రాజ్య	-3700
▁డేటా	-3701
▁మేము	-3702
▁సునీ	-3703
▁గడి	-3704
▁సరఫ	-3705
▁కలిపి	-3706
▁మహిళల	-3707
▁వేగంగా	-3708
▁ప్రభుత్వాన్ని	-3709
ల్యూ	-3710
▁ఆమెను	-3711
▁చేయనున్నారు	-3712
కస్	-3713
జెపి	-3714
పాడు	-3715
▁ఎంట	-3716
▁చూపు	-3717
ెన్షన్	-3718
స్తోందని	-3719
▁మీటింగ్	-3720
▁ప్రెసిడెంట్	-3721
షీ	-3722
ಾಗ	-3723
ఫ్రికా	-3724
▁స్నేహి	-3725
తారని	-3726
వింద్	-3727
ుకున్న	-3728
▁భద్రత	-3729
▁వేసింది	-3730
▁ప్రకటించిన	-3731
వేళ	-3732
▁గెలుపు	-3733
▁జల	-3734
▁ధీ	-3735
డర్లు	-3736
▁నాయక	-3737
▁పురుష	-3738
▁టీటీడీ	-3739
▁సెక్షన్	-3740
▁ప్రత్యేకంగా	-3741
రాన్	-3742
▁చెల్లి	-3743
▁కాంట్రా	-3744
▁I	-3745
నిమి	-3746
▁పక్కన	-3747
▁సాధ్య	-3748
ించాల్సి	-3749
▁భి	-3750
ెల్లి	-3751
▁ర్యా	-3752
పోయాడు	-3753
▁ఏకంగా	-3754
▁ప్రయత్నించ	-3755
▁M	-3756
▁టో	-3757
ెండా	-3758
▁చిరు	-3759
▁సమ్మ	-3760
▁తిరుమ	-3761
▁విజ్ఞ	-3762
మిలీ	-3763
యాలని	-3764
▁రిటై	-3765
▁ఫైనల్	-3766
▁ఎప్పుడూ	-3767
▁రాష్ట్రంలోని	-3768
▁پر	-3769
▁ఎండ	-3770
ఆర్ఎస్	-3771
ష్ణోగ్ర	-3772
▁ఆరోగ్యం	-3773
రమ	-3774
▁పడే	-3775
▁ఎర్ర	-3776
▁కోరి	-3777
▁జరిప	-3778
▁వివేక్	-3779
▁ప్రాజెక్ట్	-3780
▁స్థానికులు	-3781
రని	-3782
▁సినిమ	-3783
భూ	-3784
బద్ధ	-3785
▁అకౌ	-3786
▁హౌస్	-3787
▁నిజామాబాద్	-3788
▁చేస్తున్నట్లు	-3789
కాంత్	-3790
▁హోదా	-3791
▁వీటిని	-3792
టిఫికేషన్	-3793
▁ఉష్ణోగ్ర	-3794
▁తరఫ	-3795
▁సన్	-3796
▁సార	-3797
▁తయారీ	-3798
▁కేటాయి	-3799
▁పరిధిలోని	-3800
▁హెచ్చరించారు	-3801
▁థియే	-3802
▁అవసరమైన	-3803
వార	-3804
సిక	-3805
▁నల్	-3806
▁ఆశ్ర	-3807
▁బిజెపి	-3808
▁స్కీ	-3809
▁భద్రా	-3810
▁వర్క్	-3811
▁ఎత్తున	-3812
▁కావాలని	-3813
▁రోజులుగా	-3814
డుతున్నారు	-3815
▁తీసుకెళ్ల	-3816
టిక్	-3817
ాయతీ	-3818
▁ఉండటం	-3819
▁వాస్త	-3820
▁పెట్టిన	-3821
▁వస్తుందని	-3822
వంతంగా	-3823
▁పడింది	-3824
▁కార్యకర్త	-3825
కుంట	-3826
▁సక్	-3827
ారన్న	-3828
▁ఎస్సీ	-3829
▁విశేష	-3830
▁చేసుకుని	-3831
▁దర్శకుడు	-3832
▁వ్యాఖ్యానించారు	-3833
▁మీకు	-3834
▁అధ్యక్షు	-3835
▁కిలోమీటర్ల	-3836
▁199	-3837
కాలను	-3838
▁రోజున	-3839
హారం	-3840
▁జ్యో	-3841
పెట్టి	-3842
▁హరీశ్	-3843
▁చేసినా	-3844
▁స్పీకర్	-3845
▁సికింద్రాబాద్	-3846
వేదన	-3847
ఎస్సీ	-3848
కాన్ని	-3849
తోపాటు	-3850
ించలేదు	-3851
▁చెరువు	-3852
▁లిక్కర్	-3853
▁కేంద్రంలో	-3854
విడ్	-3855
ేత్ర	-3856
▁అయ్యాయి	-3857
▁ఢీ	-3858
నిక్	-3859
కూడదు	-3860
లేకపో	-3861
ెస్టో	-3862
▁గ్యార	-3863
▁జస్టిస్	-3864
▁నియోజకవర్గ	-3865
ରେ	-3866
▁రమ	-3867
▁పార్లమెంటు	-3868
ప్పున	-3869
▁తొమ్మి	-3870
▁మెట్రో	-3871
▁వరుసగా	-3872
▁భావిస్తున్నారు	-3873
ందన	-3874
ృతి	-3875
▁ఎలక్	-3876
నారాయణ	-3877
▁కుట్ర	-3878
▁అయోధ్య	-3879
▁మెరుగు	-3880
▁కార్యక్రమం	-3881
దర్	-3882
▁ఒడి	-3883
▁అందరికీ	-3884
▁విలువైన	-3885
▁ఉత్పత్తి	-3886
▁సంవత్సరాల	-3887
ంజ్	-3888
వులను	-3889
▁అయ్యే	-3890
▁పబ్	-3891
లిస్తే	-3892
▁చేయగా	-3893
▁సంపాద	-3894
▁మల్	-3895
▁స్త	-3896
▁డ్రా	-3897
రాత్రి	-3898
▁సరఫరా	-3899
▁ఎటువంటి	-3900
▁న్యాయవా	-3901
లంక	-3902
గడ్డ	-3903
▁పరిచ	-3904
▁వాతావర	-3905
▁సర్కారు	-3906
▁ఓప	-3907
ల్లె	-3908
▁భాష	-3909
▁నిషే	-3910
▁వేర్	-3911
▁చొప్పున	-3912
▁డ్రగ్స్	-3913
▁మేకర్స్	-3914
▁తీసుకుంది	-3915
▁హాస్పిటల్	-3916
మైనా	-3917
చ్చిన	-3918
▁క్లా	-3919
▁ఎస్పీ	-3920
▁బంగ్లాదేశ్	-3921
▁స్థానాల్లో	-3922
దుగా	-3923
▁ప్రయాణ	-3924
▁అధికారం	-3925
నాలజీ	-3926
ర్యాల	-3927
▁బాలిక	-3928
▁సంచలన	-3929
▁నెలకొంది	-3930
یڈ	-3931
▁ఏఐ	-3932
▁ఘన	-3933
▁మొబ	-3934
ెట్టి	-3935
▁2018	-3936
▁ఉత్స	-3937
▁శాసన	-3938
పడుతున్న	-3939
వాన్	-3940
నిఫెస్టో	-3941
ించిందని	-3942
▁మీడియాతో	-3943
స్తున్నాడు	-3944
తాలు	-3945
మాలు	-3946
▁ఓట్ల	-3947
▁టిక్క	-3948
స్తున్నామని	-3949
▁బయలు	-3950
▁రంగు	-3951
వానికి	-3952
▁నల్గొండ	-3953
.30	-3954
▁రవా	-3955
▁ఆమెకు	-3956
▁చేర్చ	-3957
ెర	-3958
డల్	-3959
డాన్ని	-3960
మయ్యారు	-3961
▁పద్	-3962
▁డీకే	-3963
▁నాడు	-3964
గ్రామ్	-3965
▁దేశాల	-3966
▁ప్రసాద్	-3967
వాద	-3968
పాటి	-3969
స్తాం	-3970
జేశారు	-3971
లానికి	-3972
▁డబుల్	-3973
▁స్టేట్	-3974
▁షూటింగ్	-3975
▁ఇప్పటికీ	-3976
▁ସ	-3977
గలి	-3978
ాలన్న	-3979
▁అభిన	-3980
▁ఎప్పటి	-3981
▁డెవలప్	-3982
▁విచారణకు	-3983
బల్	-3984
▁వల	-3985
ించేలా	-3986
▁లీడర్	-3987
▁కామారెడ్డి	-3988
మొ	-3989
జిట్	-3990
▁ఫుల్	-3991
▁కుక్క	-3992
▁చర్చలు	-3993
▁వార్తలు	-3994
▁పార్టీని	-3995
▁సమస్యలను	-3996
▁వ్యక్తులు	-3997
▁చుట్టూ	-3998
▁కోర్టులో	-3999
▁అస్	-4000
▁సంప	-4001
హ్మద్	-4002
▁సీసీ	-4003
▁స్పంది	-4004
▁టెక్నాలజీ	-4005
್ದ	-4006
ంట్ల	-4007
▁టోర్	-4008
▁ఫైర్	-4009
▁మ్యూ	-4010
▁వేధి	-4011
త్వంలో	-4012
్రాంతి	-4013
▁కరోనా	-4014
▁బిడ్డ	-4015
▁రానున్న	-4016
▁నోటిఫికేషన్	-4017
▁తరహా	-4018
▁కల్పి	-4019
▁జనాభా	-4020
▁బయలుదే	-4021
బిన	-4022
మన్	-4023
స్తీ	-4024
ఎస్పీ	-4025
▁రక్ష	-4026
▁ఆవేదన	-4027
▁నలుగురు	-4028
▁మహిళలకు	-4029
▁ఇన్నింగ్స్	-4030
ెక్కి	-4031
▁ఫ్రా	-4032
స్థానం	-4033
▁పట్టణ	-4034
▁క్రికె	-4035
రై	-4036
▁ర్య	-4037
▁జన్మ	-4038
▁నాటి	-4039
తానికి	-4040
▁సంబంధిత	-4041
▁భీ	-4042
గితే	-4043
▁వయసు	-4044
ట్రిక్	-4045
నలి	-4046
▁బహు	-4047
▁బాలీ	-4048
బినెట్	-4049
▁రవాణా	-4050
▁బౌలింగ్	-4051
ట్లే	-4052
▁గడ్	-4053
కరంగా	-4054
▁పిల్లల	-4055
▁లేదన్నారు	-4056
30	-4057
▁పండ	-4058
బోతున్న	-4059
▁ముఖ్యమైన	-4060
ಕ್	-4061
ರ್	-4062
దేవి	-4063
వాళ్లు	-4064
▁పూజలు	-4065
▁స్టేడి	-4066
▁సక్సెస్	-4067
జున	-4068
బడిన	-4069
▁డ్యా	-4070
▁బాల్	-4071
▁రెడీ	-4072
▁కౌంటర్	-4073
▁నొ	-4074
▁విరు	-4075
▁కాలనీ	-4076
▁నాయకుడు	-4077
రక	-4078
ంసం	-4079
ేజ్	-4080
్రల్	-4081
▁భవన్	-4082
▁ఇండస్ట్రీ	-4083
▁రాజస్థాన్	-4084
am	-4085
ధం	-4086
▁భవ	-4087
వార్	-4088
▁బర్	-4089
▁హయా	-4090
▁ప్రణా	-4091
▁వాటర్	-4092
▁బాలీవుడ్	-4093
ళా	-4094
ీస్	-4095
రీర్	-4096
▁ఎకర	-4097
▁టౌన్	-4098
▁మిషన్	-4099
▁ట్రంప్	-4100
ేబుల్	-4101
▁నెటి	-4102
▁సూచి	-4103
▁దిశగా	-4104
▁టాలీవుడ్	-4105
▁అందుబాటులోకి	-4106
▁کر	-4107
▁స్టో	-4108
▁నాయకు	-4109
ాయన్నారు	-4110
▁వర్గాలు	-4111
▁ఉద్యోగులు	-4112
▁N	-4113
జిన	-4114
▁వెండి	-4115
▁సాధించిన	-4116
▁సినిమాలు	-4117
▁2021	-4118
▁వెళ్లా	-4119
▁కానుంది	-4120
▁పెద్దగా	-4121
మానం	-4122
▁అదా	-4123
్యూని	-4124
▁మాకు	-4125
▁నెరవే	-4126
▁జీవితంలో	-4127
▁వివరాలను	-4128
▁ఉందన్నారు	-4129
▁పట్టించుకో	-4130
నీయ	-4131
లైన	-4132
▁ఇటీవ	-4133
▁షిప్	-4134
▁సాను	-4135
ಸ್	-4136
ర్ఘ	-4137
▁ఫె	-4138
▁నగదు	-4139
▁పక్ష	-4140
▁బుక్	-4141
▁ప్రియా	-4142
▁ఫ్యామిలీ	-4143
ال	-4144
▁ఎగు	-4145
▁ఖాయ	-4146
▁క్లి	-4147
▁గ్రహ	-4148
▁నాని	-4149
▁పరిణ	-4150
▁బ్యాక్	-4151
▁పరీక్షలు	-4152
ోసి	-4153
▁దశా	-4154
".	-4155
▁జర	-4156
▁నార్	-4157
▁మొదట	-4158
▁వ్యవహర	-4159
▁నియంత్ర	-4160
▁ప్రభాకర్	-4161
తుండగా	-4162
▁ఇవ్వడం	-4163
▁సెంట్రల్	-4164
▁అనుకూలంగా	-4165
లక్ష్	-4166
ేశ్వర్	-4167
▁ప్రాణాలు	-4168
▁మను	-4169
▁దూరం	-4170
▁దర్శక	-4171
▁ఉద్యోగం	-4172
కలా	-4173
▁రజ	-4174
▁జనం	-4175
▁సస్ప	-4176
▁భర్తీ	-4177
▁శంకర్	-4178
మన్నారు	-4179
▁ఉపాధ్య	-4180
▁కెరీర్	-4181
▁సమాధానం	-4182
▁పిలుపుని	-4183
▁కార్పొరేషన్	-4184
ష్టా	-4185
▁హైడ	-4186
ప్ల	-4187
▁చేతిలో	-4188
▁స్థానం	-4189
▁అమరావతి	-4190
▁కొనసాగి	-4191
ర్ణ	-4192
▁ఎడ	-4193
పట్నం	-4194
ినేని	-4195
▁దాడు	-4196
▁సైట్	-4197
గాన్ని	-4198
పోయినా	-4199
▁పంజాబ్	-4200
▁మొబైల్	-4201
▁ట్విట్టర్	-4202
▁ఈసీ	-4203
▁మిన	-4204
▁దశాబ్	-4205
▁మెదక్	-4206
్యానికి	-4207
ష్ణు	-4208
▁కలుగు	-4209
▁తెలియజే	-4210
▁స్టూడెంట్	-4211
పాయ	-4212
గూడెం	-4213
▁బైక్	-4214
▁ఎనిమి	-4215
▁పోర్టు	-4216
వసర	-4217
▁రౌ	-4218
దీప్	-4219
▁చెల	-4220
▁భవిష్యత్తు	-4221
▁ل	-4222
▁ಬ	-4223
చ్చే	-4224
▁ఐదే	-4225
▁చంప	-4226
▁పాక్	-4227
▁మొక్క	-4228
▁రద్దీ	-4229
▁అక్కడే	-4230
▁ఎప్పుడు	-4231
▁తీసుకోవడం	-4232
ంతర	-4233
▁ఆఫీస్	-4234
▁చేరారు	-4235
పాదన	-4236
మాని	-4237
▁సన్ని	-4238
▁నిలిచింది	-4239
▁ఛా	-4240
దార్	-4241
▁అలీ	-4242
పరమైన	-4243
▁పంచాయతీ	-4244
▁అవుతోంది	-4245
▁ప్రాధాన్యత	-4246
యని	-4247
▁మత	-4248
వెల్	-4249
▁వంశ	-4250
▁జ్యోతి	-4251
▁నియా	-4252
▁హిట్	-4253
▁చూపించ	-4254
మాస్	-4255
ళ్ళు	-4256
▁చూస్తే	-4257
▁సమీక్ష	-4258
▁సమీపంలో	-4259
పటి	-4260
యస్	-4261
▁జీవ	-4262
ేశ్వరం	-4263
▁రెడ్డికి	-4264
పడుతున్నారు	-4265
▁ఆయు	-4266
▁కల్ప	-4267
ాక	-4268
ల్ప	-4269
▁వస	-4270
▁కోస	-4271
▁పుస్త	-4272
▁పాకిస్థాన్	-4273
క్య	-4274
ల్లోనే	-4275
▁ఉద్యోగ	-4276
చారాన్ని	-4277
▁నియోజకవర్గాల్లో	-4278
▁ఓపెన్	-4279
▁బౌలర్	-4280
▁గెలిచిన	-4281
▁ట్రాన్స్	-4282
▁నిర్లక్ష	-4283
▁ప్రణాళిక	-4284
▁మొదలైంది	-4285
ెల	-4286
▁ధో	-4287
దానికి	-4288
▁ఒకవేళ	-4289
▁సవాల్	-4290
▁శ్రీలంక	-4291
ంఛ	-4292
ీయ	-4293
సింహ	-4294
▁ఎంట్రీ	-4295
▁ఎవరైనా	-4296
▁వేసుకు	-4297
▁పెండింగ్	-4298
▁వైద్యులు	-4299
ವು	-4300
పిక్	-4301
▁అన్	-4302
▁రవీ	-4303
▁కట్టు	-4304
▁హెచ్చరిక	-4305
▁ప్రొఫెసర్	-4306
▁గ్రామానికి	-4307
ఖ్	-4308
▁జంట	-4309
పింగ్	-4310
పెద్ద	-4311
శ్మీర్	-4312
▁ఉపాధి	-4313
▁రచయిత	-4314
▁బాధితు	-4315
▁ఆఫీసర్లు	-4316
▁ఇస్తామని	-4317
టిన	-4318
▁ఏదో	-4319
▁నది	-4320
▁దేవు	-4321
▁లక్ష్య	-4322
▁రాజ్యసభ	-4323
▁ఆడియన్స్	-4324
బే	-4325
▁ପ	-4326
మోహన్	-4327
▁యూపీ	-4328
▁రాజమ	-4329
▁ఆహారం	-4330
▁చేరిన	-4331
▁ఆపరేషన్	-4332
▁کا	-4333
▁మణి	-4334
▁ఇంది	-4335
రాన్ని	-4336
▁అదానీ	-4337
▁అంచనాలు	-4338
▁సాధారణంగా	-4339
▁क	-4340
యేట్	-4341
▁చిక్కు	-4342
ెక్టరేట్	-4343
▁కుమారుడు	-4344
్రూ	-4345
▁ద్ర	-4346
మాన	-4347
▁దానిపై	-4348
▁ప్రయాణం	-4349
▁ఆకర్	-4350
▁నేతృ	-4351
▁ప్రమో	-4352
లర్లు	-4353
హద్దు	-4354
▁నిలు	-4355
▁పెన్	-4356
▁ముని	-4357
▁గట్టి	-4358
▁చిత్రా	-4359
▁అవుతున్న	-4360
▁వాతావరణం	-4361
▁కుంభ	-4362
▁చెప్పుకొచ్చారు	-4363
▁ఘో	-4364
జిక్	-4365
▁దంప	-4366
▁వంట	-4367
▁టాక్	-4368
▁ప్రశ	-4369
▁రెండే	-4370
▁పరిణామ	-4371
▁క్లారిటీ	-4372
▁పాదయాత్ర	-4373
▁సిద్ధంగా	-4374
▁మల	-4375
▁పాస్	-4376
▁గ్రీన్	-4377
▁ప్రచారంలో	-4378
▁ప్రమాదంలో	-4379
ీత	-4380
್ಯ	-4381
డిపి	-4382
▁గుడి	-4383
▁నినా	-4384
▁తరఫున	-4385
▁రుణమా	-4386
▁సైబర్	-4387
▁కరెంట్	-4388
▁హీరోగా	-4389
▁అవకాశము	-4390
▁చోటుచేసుకు	-4391
షన్స్	-4392
ణాన్ని	-4393
▁కుప్ప	-4394
▁నియామ	-4395
▁సెక్రటరీ	-4396
▁అధికారంలో	-4397
▁అభ్యర్థుల	-4398
▁ఉద్యోగాలు	-4399
.10	-4400
▁వాల	-4401
▁లబ్ధి	-4402
కరించిన	-4403
▁దిగారు	-4404
▁నిలిచి	-4405
▁పరిశీలించారు	-4406
చల్	-4407
భార	-4408
రాలి	-4409
▁ఆరా	-4410
▁అండగా	-4411
▁పల్లి	-4412
▁విషయంపై	-4413
▁సరిహద్దు	-4414
ಿಸ	-4415
▁గల	-4416
ందాం	-4417
▁హర్	-4418
జింగ్	-4419
▁ఫ్రీ	-4420
▁రూమ్	-4421
▁వందే	-4422
▁చెందు	-4423
▁బరిలోకి	-4424
▁కంపెనీలు	-4425
▁కొనసాగుతోంది	-4426
▁ಎ	-4427
చో	-4428
వతి	-4429
రామయ్య	-4430
▁బలంగా	-4431
▁భట్టి	-4432
▁మీదుగా	-4433
▁రెడ్డిని	-4434
▁జరిగిందని	-4435
▁ప్రశ్నించ	-4436
▁వహ	-4437
▁మన్	-4438
▁ఆదాయ	-4439
▁ప్రొడ	-4440
▁రుణమాఫీ	-4441
త్యం	-4442
▁అయ్యా	-4443
నై	-4444
ృహ	-4445
ర్చ్	-4446
గాలను	-4447
▁ఘటనలో	-4448
▁పరిగణ	-4449
▁థియేటర్	-4450
పణ	-4451
ಗೆ	-4452
నెల	-4453
యాల	-4454
▁سے	-4455
▁نے	-4456
▁వర్మ	-4457
▁హాట్	-4458
▁కమ్యూని	-4459
▁చూడాలి	-4460
▁హయాంలో	-4461
▁కలిగ	-4462
▁కొట్టి	-4463
▁ర్యాలీ	-4464
▁గ్రౌండ్	-4465
▁అంతేకాదు	-4466
▁మేనిఫెస్టో	-4467
▁నంద	-4468
గొట్ట	-4469
▁హనుమ	-4470
▁కర్నూ	-4471
▁చేశామని	-4472
▁లీడర్లు	-4473
▁పరిస్థితుల్లో	-4474
▁తదితర	-4475
▁ఇందుకు	-4476
▁ಅ	-4477
▁అదనపు	-4478
▁త్వరగా	-4479
▁పోర్ట్	-4480
▁నిర్ణయాలు	-4481
,2	-4482
ారామ	-4483
▁సాధి	-4484
▁దక్షిణా	-4485
పోటు	-4486
లాబాద్	-4487
▁నెంబర్	-4488
▁అనుకున్న	-4489
,4	-4490
శో	-4491
వడం	-4492
ద్ధా	-4493
నికే	-4494
రిటీ	-4495
చంద్ర	-4496
దారుల	-4497
▁అనుభ	-4498
వెన్యూ	-4499
▁వల్లే	-4500
▁70	-4501
▁అనుచ	-4502
▁కాలు	-4503
▁ఫోర్స్	-4504
el	-4505
ాయో	-4506
▁ఉండదు	-4507
▁పద్ధ	-4508
▁వసూలు	-4509
కోవచ్చు	-4510
▁చెప్పే	-4511
▁నీటిని	-4512
▁సిద్ది	-4513
పెట్టారు	-4514
▁చేరుకున్న	-4515
మిన	-4516
విని	-4517
▁తొలగి	-4518
▁తప్పని	-4519
ుకున్నారు	-4520
▁వస్తున్నాయి	-4521
▁G	-4522
నకు	-4523
ంటూరు	-4524
▁అలవా	-4525
▁కోచ్	-4526
▁వాహన	-4527
▁దానిని	-4528
▁ముందస్తు	-4529
▁రిజిస్ట్ర	-4530
▁కార్యక్రమాలు	-4531
at	-4532
ಿಕ	-4533
గుణంగా	-4534
▁దీనిని	-4535
▁పదార్థ	-4536
▁వర్గాల	-4537
▁జరగనుంది	-4538
కూల	-4539
వరం	-4540
క్టరీ	-4541
▁వద్దకు	-4542
▁ఉన్నప్పుడు	-4543
,9	-4544
నగ	-4545
ೆಯ	-4546
మ్రా	-4547
▁అలర్	-4548
▁నూతన	-4549
▁నేటి	-4550
▁కోట్లకు	-4551
▁ప్రశాంత్	-4552
కేజీ	-4553
రిసి	-4554
జర్స్	-4555
▁తాగు	-4556
▁చేస్తో	-4557
▁విపక్ష	-4558
▁తప్పుడు	-4559
తామని	-4560
▁తుది	-4561
▁వివాదం	-4562
క్రెయిన్	-4563
▁దేశంలోని	-4564
en	-4565
▁మోస	-4566
▁ఫామ్	-4567
పోతున్న	-4568
▁జీవితం	-4569
▁వ్యవహరి	-4570
తూనే	-4571
యితే	-4572
లెట్	-4573
▁అంబే	-4574
▁బాలు	-4575
▁దర్శనం	-4576
▁కేబినెట్	-4577
▁నిర్వహించ	-4578
మటి	-4579
▁35	-4580
▁దృ	-4581
▁మేర	-4582
▁భూము	-4583
▁మానవ	-4584
▁సెట్	-4585
▁రఘు	-4586
విజన్	-4587
▁క్రా	-4588
▁అభ్యర్	-4589
▁ప్రభాస్	-4590
▁సినిమాకు	-4591
▁ఒక్కసారిగా	-4592
▁విద్యార్థులకు	-4593
మార	-4594
▁యజ	-4595
▁అద్ద	-4596
▁ఖరారు	-4597
▁వచ్చిందని	-4598
▁పెద్దపల్లి	-4599
!!	-4600
ించినా	-4601
▁టీచర్	-4602
▁నిర్ధ	-4603
▁పోరాటం	-4604
▁విరాట్	-4605
▁పుట్టిన	-4606
▁తల్లిదండ్రులు	-4607
ାର	-4608
గమ	-4609
ఖండ్	-4610
▁గౌర	-4611
▁బిగ్	-4612
▁వంశీ	-4613
▁ఆశ్రయ	-4614
▁పన్ను	-4615
▁బట్టి	-4616
చ్చింది	-4617
▁బ్రేక్	-4618
▁మాట్లాడిన	-4619
▁ఈవ	-4620
గురు	-4621
త్రం	-4622
లేటి	-4623
▁అబ్	-4624
▁భూక	-4625
▁జగిత	-4626
▁అసోసి	-4627
▁వారిపై	-4628
▁కుటుంబానికి	-4629
యోగి	-4630
▁వైస్	-4631
్యూరిటీ	-4632
▁ఇక్కడి	-4633
▁రెవెన్యూ	-4634
▁పెట్టుబడి	-4635
▁రాజకీయాలు	-4636
రిత	-4637
▁కదా	-4638
▁జర్నలి	-4639
గుల	-4640
మతి	-4641
ళ్లే	-4642
▁అసి	-4643
ొద్దని	-4644
▁బృందం	-4645
▁విధానం	-4646
▁సురక్ష	-4647
ంపేట	-4648
▁కెన	-4649
▁రాక	-4650
▁అటవీ	-4651
▁లేవు	-4652
▁మందిని	-4653
▁పోస్టర్	-4654
▁చేయాల్సి	-4655
▁హార్	-4656
ట్టుగా	-4657
▁కార్యాలయంలో	-4658
ంబు	-4659
▁80	-4660
▁పసు	-4661
ించని	-4662
▁టీవీ	-4663
▁బంతు	-4664
▁నన్ను	-4665
▁టిడిపి	-4666
▁జరిగాయి	-4667
▁వ్యక్తిగత	-4668
▁)	-4669
▁ధీమా	-4670
▁ఆయనను	-4671
▁రాశుల	-4672
టప్పుడు	-4673
▁మంచిది	-4674
▁విదేశీ	-4675
▁తేలింది	-4676
లేదన్నారు	-4677
రేణి	-4678
ులర్	-4679
▁దిగ	-4680
ర్లను	-4681
ాయితీ	-4682
▁గెలవ	-4683
▁హెడ్	-4684
▁అందజే	-4685
▁గెలిచి	-4686
▁పెట్రో	-4687
▁ప్రదేశ	-4688
▁భద్రతా	-4689
▁తొలిసారి	-4690
ఢ్	-4691
పుల	-4692
▁జ్	-4693
▁తూర్	-4694
▁విజ్ఞప్తి	-4695
▁అభ్యర్థిగా	-4696
▁ప్రేక్షకుల	-4697
యడం	-4698
▁45	-4699
దారి	-4700
వీణ్	-4701
▁ఉగ్ర	-4702
▁రోజూ	-4703
▁వీరు	-4704
▁అన్నీ	-4705
▁ఏరియా	-4706
▁కంట్రో	-4707
▁ప్రదేశ్	-4708
▁సిద్దిపేట	-4709
,6	-4710
▁కాళ	-4711
▁ఆరోపి	-4712
▁తరగతి	-4713
▁అకౌంట్	-4714
▁యుద్ధం	-4715
▁తక్కువగా	-4716
గాలకు	-4717
▁ల్లో	-4718
▁టీఎస్	-4719
▁పర్యవే	-4720
▁రాశారు	-4721
▁యాక్షన్	-4722
ించుకోవడం	-4723
▁వీడియోను	-4724
▁సాధించింది	-4725
,7	-4726
وں	-4727
వరీ	-4728
స్రో	-4729
▁డిజ	-4730
▁యాజ	-4731
రెన్స్	-4732
▁ఉండేది	-4733
▁కూతురు	-4734
స్తున్నా	-4735
▁కుమార్తె	-4736
▁తీసుకునే	-4737
ందర	-4738
శ్రీ	-4739
▁విఫ	-4740
మూర్తి	-4741
▁చెప్పాడు	-4742
▁సింగరేణి	-4743
▁హాజరయ్యారు	-4744
.50	-4745
దరి	-4746
కెక్క	-4747
తోనే	-4748
▁జోన్	-4749
▁చెలరే	-4750
▁సేవలు	-4751
▁జూనియర్	-4752
▁క్యాన్సర్	-4753
▁రాష్ట్రానికి	-4754
▁పుష్ప	-4755
▁టోర్నీ	-4756
▁భక్తుల	-4757
ಗಳ	-4758
ికల్	-4759
▁కిడ్	-4760
▁కోడ్	-4761
▁నిల్	-4762
▁నాయక్	-4763
▁గుంటూరు	-4764
▁చేసిందని	-4765
▁భవన	-4766
నుంచి	-4767
▁పండి	-4768
కున్నా	-4769
▁ప్రతిపాదన	-4770
అని	-4771
ీట్	-4772
న్నం	-4773
లేరు	-4774
▁ఫార	-4775
స్టల్	-4776
▁ఇరాన్	-4777
పోవడంతో	-4778
▁రాలేదు	-4779
▁ఎమ్మెల్యేగా	-4780
కాయ	-4781
▁ఖై	-4782
▁మరీ	-4783
▁సీఈ	-4784
▁కృష్	-4785
▁ఖర్చ	-4786
▁విమానా	-4787
▁గ్రాముల	-4788
▁ప్రవీణ్	-4789
▁ش	-4790
▁కలక	-4791
య్యాడు	-4792
▁కోమటి	-4793
▁ఘటనపై	-4794
▁పసుపు	-4795
▁మిలియన్	-4796
▁ఆదిలాబాద్	-4797
▁#	-4798
న్నర	-4799
పుడు	-4800
స్కర్	-4801
▁డిస్	-4802
కూడదని	-4803
ెక్షన్	-4804
▁రాబోయే	-4805
▁విశ్లే	-4806
స్తుంటారు	-4807
▁ప్రియాంక	-4808
బడ	-4809
ంకు	-4810
సుక	-4811
ందంటూ	-4812
▁టన్న	-4813
▁సైని	-4814
స్తుండ	-4815
▁అత్యా	-4816
▁సర్వీస్	-4817
▁ఉత్తర్వులు	-4818
ad	-4819
▁ಆ	-4820
నేది	-4821
పియన్	-4822
ుల్లో	-4823
▁పులి	-4824
▁పాలసీ	-4825
▁ప్రశంస	-4826
▁పబ్లిక్	-4827
▁బీబీసీతో	-4828
▁శివకుమార్	-4829
▁నిర్మించిన	-4830
తగా	-4831
▁భగ	-4832
▁బతు	-4833
▁మనీ	-4834
పడ్డా	-4835
పోతుంది	-4836
▁గ్యాస్	-4837
▁ప్రవర్	-4838
▁ప్రాంతాల	-4839
▁వెళ్తున్న	-4840
ନ୍	-4841
▁యువత	-4842
▁టైటిల్	-4843
▁రోజుకు	-4844
▁విష్ణు	-4845
కూర్	-4846
▁జాత	-4847
▁గాజా	-4848
▁వేరే	-4849
▁సాంకే	-4850
▁కూర్చు	-4851
▁నాలుగో	-4852
▁హెల్త్	-4853
▁అందించారు	-4854
,3	-4855
ోభ	-4856
▁కలు	-4857
▁పాలు	-4858
▁పరిశీ	-4859
▁ఈవెంట్	-4860
▁అప్పట్లో	-4861
▁ప్రస్తావ	-4862
▁వస్తోంది	-4863
▁వ్యవహారం	-4864
▁సినిమాను	-4865
▁విమానాశ్ర	-4866
▁వందల	-4867
▁అనిల్	-4868
▁వడ్డీ	-4869
▁హమాస్	-4870
▁శిక్షణ	-4871
▁సభ్యుల	-4872
మితి	-4873
సిన్	-4874
▁ఇన్వ	-4875
▁ఆమోదం	-4876
▁ఇల్లు	-4877
▁చిత్త	-4878
▁తరపున	-4879
▁నటించిన	-4880
▁వెనక్కి	-4881
▁ఇంటర్వ్యూ	-4882
▁సెక్యూరిటీ	-4883
రాం	-4884
▁అర్ధ	-4885
▁టైమ్	-4886
▁తీసి	-4887
▁వెళు	-4888
▁పరిష్కర	-4889
▁ఆకట్టుకు	-4890
▁భక్తులకు	-4891
ంటున్నారని	-4892
ందున	-4893
▁కడు	-4894
▁కోసమే	-4895
మవుతుంది	-4896
▁కార్యకలా	-4897
▁అనుగుణంగా	-4898
▁కార్యాలయం	-4899
ైర్	-4900
▁ఇద్దరి	-4901
▁కనిపిస్తుంది	-4902
.0	-4903
లిజ	-4904
▁ద్	-4905
మేష్	-4906
ంగాల్	-4907
▁ట్రో	-4908
▁పాన్	-4909
▁రెడ్	-4910
మార్ట్	-4911
▁హిందు	-4912
దారులకు	-4913
▁మానసిక	-4914
ات	-4915
▁K	-4916
ంటా	-4917
▁పరా	-4918
▁పిలు	-4919
▁విషా	-4920
▁పాల్గొన	-4921
ri	-4922
ام	-4923
ین	-4924
୍ର	-4925
బన్	-4926
హార	-4927
▁ఏమీ	-4928
▁గంగ	-4929
▁గతే	-4930
▁దిగిన	-4931
▁పొంగు	-4932
▁సీఐడీ	-4933
▁చేయకుండా	-4934
ీణ	-4935
తనం	-4936
సలు	-4937
ృప్తి	-4938
▁ఒకరి	-4939
▁వేడి	-4940
▁అవినా	-4941
▁జెండా	-4942
తుంటారు	-4943
▁నిలిపి	-4944
▁పొందిన	-4945
▁వ్యాధి	-4946
▁సమస్యల	-4947
▁దినోత్స	-4948
▁చెబుతున్న	-4949
▁సమీపంలోని	-4950
,8	-4951
▁వాట్	-4952
టెస్ట్	-4953
▁తూర్పు	-4954
▁కార్యక్రమానికి	-4955
es	-4956
రోసా	-4957
▁దశలో	-4958
▁ఎంటర్	-4959
▁వైఎస్సార్	-4960
▁చంద్రబాబుకు	-4961
▁అఖ	-4962
▁సాగ	-4963
▁సార్	-4964
▁కంట్రోల్	-4965
▁తెలుసుకుందాం	-4966
జీగా	-4967
▁ہے۔	-4968
▁ఇస్రో	-4969
▁నిలదీ	-4970
▁కస్టడీ	-4971
▁ఎదురుచూ	-4972
▁తీసుకువ	-4973
▁ప్రభుత్వంలో	-4974
ay	-4975
▁!	-4976
▁గంజ	-4977
పోవడం	-4978
▁వెల్	-4979
▁ఎస్టీ	-4980
▁యువతి	-4981
▁సోదరు	-4982
▁లక్ష్మ	-4983
▁వస్తాయి	-4984
▁పోలిస్తే	-4985
▁చేస్తానని	-4986
▁సహజ	-4987
▁ఇస్త	-4988
▁గంజాయి	-4989
▁రంగారెడ్డి	-4990
దుల	-4991
ద్కర్	-4992
▁ఇళ్ల	-4993
▁డేట్	-4994
ంటింగ్	-4995
▁కిరణ్	-4996
▁నాణ్య	-4997
▁బలమైన	-4998
▁హరీష్	-4999
▁ఉత్తరా	-5000
▁ఓటర్లు	-5001
▁నగరంలో	-5002
▁ప్రోత్స	-5003
సీమ	-5004
▁మని	-5005
▁హైక	-5006
ప్పుడే	-5007
▁సెలవు	-5008
▁మండలంలోని	-5009
40	-5010
ేజీ	-5011
డ్డూ	-5012
శాతం	-5013
స్యం	-5014
▁కడప	-5015
▁జ్ఞ	-5016
▁డిజి	-5017
▁ప్లాంట్	-5018
▁జగిత్యాల	-5019
గడ	-5020
▁షు	-5021
▁పలి	-5022
తులతో	-5023
▁మార్గ	-5024
▁గెలిపించ	-5025
▁గ్రామాల్లో	-5026
▁ఘా	-5027
చారు	-5028
స్తోన్న	-5029
▁పనులను	-5030
▁ప్లేయర్	-5031
▁చనిపోయిన	-5032
▁జాగ్రత్తగా	-5033
▁లేకపోవడంతో	-5034
▁రాజకీయాల్లో	-5035
▁శాస్త్రవేత్త	-5036
గుల్	-5037
▁నకి	-5038
ంగానే	-5039
రక్షణ	-5040
▁నాథ్	-5041
▁పురా	-5042
ట్లుగా	-5043
▁ఫోకస్	-5044
▁హోటల్	-5045
▁కార్తీ	-5046
▁గతేడాది	-5047
▁వీడియోలు	-5048
▁పద్మ	-5049
▁స్టీ	-5050
మయ్యాయి	-5051
▁కచ్చితంగా	-5052
▁ఆదేశించింది	-5053
▁కనిపించింది	-5054
▁ఇటు	-5055
▁బార	-5056
▁అల్ల	-5057
▁జూలై	-5058
వచ్చని	-5059
▁మంటలు	-5060
▁అసిస్ట	-5061
▁ఓవర్లలో	-5062
▁ముగిసిన	-5063
▁పాల్గొన్న	-5064
▁రాష్ట్రపతి	-5065
▁వెంకటస్వామి	-5066
రోధ	-5067
ద్దే	-5068
తాధిక	-5069
▁2020	-5070
▁ఉంచు	-5071
▁కోర్	-5072
▁రాజా	-5073
▁విటమి	-5074
▁మరిన్ని	-5075
రె	-5076
▁కేజీ	-5077
▁ఆసియా	-5078
▁నటుడు	-5079
▁విన్న	-5080
▁అంటారు	-5081
▁సామర్థ	-5082
▁నిర్ణయించారు	-5083
▁పనిచేస్తున్న	-5084
లె	-5085
నేత	-5086
ಡಿಯ	-5087
ంగిక	-5088
దురు	-5089
▁198	-5090
▁ఏంట	-5091
▁బృంద	-5092
▁స్నా	-5093
▁యూట్యూ	-5094
▁మాస్టర్	-5095
▁ల్యాండ్	-5096
▁స్వయంగా	-5097
▁అనారోగ్య	-5098
కంఠ	-5099
పాన్	-5100
▁అవ్వ	-5101
▁లోనూ	-5102
▁అలర్ట్	-5103
▁ఎంపీగా	-5104
▁ఓపె	-5105
▁ఇసుక	-5106
▁విడత	-5107
▁భరోసా	-5108
▁పెన్షన్	-5109
▁తీసుకురావ	-5110
▁పడుతున్నారు	-5111
▁اور	-5112
ేశాడు	-5113
▁ఓటర్	-5114
▁జంతు	-5115
▁మూడే	-5116
దాన్ని	-5117
పెట్టిన	-5118
▁పాలనలో	-5119
▁ఫ్రెండ్	-5120
▁పొంగులేటి	-5121
▁کہ	-5122
పాలు	-5123
▁ఎక్	-5124
▁నూనె	-5125
▁సర్వ	-5126
▁ఉద్రి	-5127
▁బియ్య	-5128
▁ప్రభావ	-5129
▁మీటర్ల	-5130
▁చేయలేదు	-5131
▁అతిపెద్ద	-5132
పోతున్నారు	-5133
▁చేరుకున్నారు	-5134
▁ବ	-5135
వారా	-5136
▁ఓటీ	-5137
కాలిక	-5138
▁జేడీ	-5139
బ్ల్యూ	-5140
లాల్లో	-5141
▁భూకంప	-5142
▁సాగర్	-5143
▁ఇటీవలే	-5144
▁వాలంటీ	-5145
▁సర్పంచ	-5146
▁డాక్టర్లు	-5147
▁కోమటిరెడ్డి	-5148
▁ఆశి	-5149
శాన్ని	-5150
▁గడువు	-5151
▁కూల్చి	-5152
▁రావాలని	-5153
▁సంతోషంగా	-5154
▁సాంకేతిక	-5155
▁ప్రత్యక్ష	-5156
▁అసోసియేషన్	-5157
వాడు	-5158
నర్జీ	-5159
▁ఆమోద	-5160
▁సలహా	-5161
▁మారాయి	-5162
▁వంటివి	-5163
ించుకుని	-5164
▁ఏర్పడింది	-5165
▁కర్ణాటకలో	-5166
de	-5167
విక	-5168
▁ములుగు	-5169
▁వివాహం	-5170
▁చేసుకునే	-5171
▁పెరుగుతుంది	-5172
▁v	-5173
మూర్	-5174
▁భోజ	-5175
▁ప్లాట్	-5176
▁ఏజెన్సీ	-5177
▁జాబితాలో	-5178
▁టిక్కెట్	-5179
▁అద్భుతమైన	-5180
202	-5181
▁ہو	-5182
టీషన్	-5183
▁గౌరవ	-5184
▁విసి	-5185
▁కెనడా	-5186
▁దేశాలు	-5187
▁మధ్యలో	-5188
▁జిల్లాల	-5189
▁విషయాలు	-5190
ైతే	-5191
లోపే	-5192
▁లతో	-5193
▁దేవర	-5194
▁సెమీ	-5195
▁ఒడిశా	-5196
▁చూసుకు	-5197
▁లైంగిక	-5198
▁ఏర్పడిన	-5199
▁రాజ్యాంగ	-5200
▁రిపోర్టు	-5201
▁ఉన్నతాధిక	-5202
▁పిలుపునిచ్చారు	-5203
ధన్	-5204
మాస	-5205
▁అశ్	-5206
▁సీఎ	-5207
▁క్రై	-5208
▁గిల్	-5209
స్టులు	-5210
▁ముద్ర	-5211
▁వివేకా	-5212
▁వ్యక్త	-5213
▁సోనియా	-5214
▁నెలల్లో	-5215
▁లేటెస్ట్	-5216
హరణ	-5217
స్పద	-5218
▁అమ్ము	-5219
▁ఉన్నత	-5220
▁సీరియ	-5221
▁రూపంలో	-5222
▁ప్రాంతం	-5223
▁పిల్లలకు	-5224
▁ప్రధానంగా	-5225
▁కార్మికులు	-5226
గౌ	-5227
టనా	-5228
ల్లూరు	-5229
▁కప్పు	-5230
▁మెరుగ	-5231
▁బంగారు	-5232
▁సచివాల	-5233
▁ఎనిమిది	-5234
▁క్షేత్ర	-5235
▁అమెరికాలో	-5236
▁ఫ్యాక్టరీ	-5237
70	-5238
▁90	-5239
▁నవ	-5240
దిగా	-5241
▁500	-5242
▁దుకా	-5243
▁నిజం	-5244
ందరికీ	-5245
ాల్సిన	-5246
▁ఎవరికి	-5247
▁మహబూబ్	-5248
▁వీరిద్ద	-5249
ించాల్సిన	-5250
▁ఇద	-5251
ర్డ్	-5252
▁کیا	-5253
▁అంశం	-5254
▁జార్	-5255
వారిని	-5256
▁కలిగిన	-5257
▁పీసీసీ	-5258
▁ఉంటున్న	-5259
ించుకుంది	-5260
▁కాళేశ్వరం	-5261
▁సాధించారు	-5262
ంసా	-5263
జిత్	-5264
తిన్	-5265
▁ఆర్మీ	-5266
ట్టింగ్	-5267
▁నమ్మకం	-5268
▁కోట్లతో	-5269
▁దృష్టికి	-5270
▁రాజకీయంగా	-5271
▁ఒంట	-5272
▁నేర	-5273
▁మాల్	-5274
▁లిమి	-5275
▁అంశంపై	-5276
▁తెరకెక్క	-5277
▁ఆసుపత్రికి	-5278
▁విద్యార్థుల	-5279
▁آ	-5280
ప్రా	-5281
▁హరి	-5282
▁ఆశ్చ	-5283
▁ట్రి	-5284
▁సంభవ	-5285
▁వదిలే	-5286
▁లేదంటే	-5287
▁క్రికెటర్	-5288
▁ప్రత్యర్థ	-5289
▁చేస్తున్నాయి	-5290
దన్	-5291
▁ವಿ	-5292
రిగే	-5293
▁లోక	-5294
▁చరణ్	-5295
▁కురిసే	-5296
▁దిల్లీ	-5297
▁తీసుకొని	-5298
▁చేరుకుంది	-5299
▁మధ్యప్రదేశ్	-5300
గతం	-5301
▁శ్	-5302
ందరూ	-5303
▁సతీ	-5304
▁ఆనంద	-5305
▁ఫీజు	-5306
▁పేరును	-5307
▁సంస్థల	-5308
▁చేరింది	-5309
▁దీనివల్ల	-5310
▁మద్దతుగా	-5311
▁మెజార్టీ	-5312
▁జాగ్రత్తలు	-5313
▁నిర్ణయించింది	-5314
▁ఆప్	-5315
▁తెగ	-5316
▁సదు	-5317
▁యాంటీ	-5318
▁పరిచయం	-5319
▁ట్రైలర్	-5320
▁అభిప్రాయం	-5321
▁చంద్రయాన్	-5322
▁ఉద్యోగులకు	-5323
▁రొ	-5324
తాబ్	-5325
▁అక్ష	-5326
▁ఏంటి	-5327
▁అనుమత	-5328
▁రాసిన	-5329
▁కృష్ణా	-5330
▁తేడాతో	-5331
▁పాటుగా	-5332
▁అరవింద్	-5333
▁నెటిజన్	-5334
▁ఉద్యోగుల	-5335
▁రంగంలోకి	-5336
▁పెట్టింది	-5337
▁ଏ	-5338
క్యు	-5339
మ్మల	-5340
▁ఆగి	-5341
▁ఆదు	-5342
▁అన్య	-5343
▁పర్వ	-5344
▁భిన్న	-5345
▁ఉత్కంఠ	-5346
పించింది	-5347
▁డివిజన్	-5348
▁హైకమాండ్	-5349
▁అంబేద్కర్	-5350
▁మంచిర్యాల	-5351
10	-5352
▁గ్లో	-5353
దాద్రి	-5354
▁హిందీ	-5355
క్షన్స్	-5356
▁కాలేదు	-5357
▁ఛే	-5358
డుతూ	-5359
ಿದ್ದ	-5360
▁సంబ	-5361
తుంటే	-5362
ెత్తు	-5363
▁ఈనెల	-5364
▁బలహీ	-5365
▁విధి	-5366
▁సహాయం	-5367
▁అంశాలపై	-5368
▁స్థానాలు	-5369
▁చెప్పాలని	-5370
▁ప్రయాణికులు	-5371
మర	-5372
నలో	-5373
హర్	-5374
▁కంటి	-5375
▁ఢీకొ	-5376
▁తుపా	-5377
▁బాక్	-5378
▁మాస్	-5379
▁వివాహ	-5380
▁ఆలయంలో	-5381
▁వాదనలు	-5382
▁పడుతున్న	-5383
▁క్రమంలోనే	-5384
▁సమావేశాలు	-5385
ూన్	-5386
▁వు	-5387
▁కొర	-5388
▁అర్హత	-5389
▁ప్రాథ	-5390
▁రేషన్	-5391
స్తుండగా	-5392
▁పిటీషన్	-5393
▁తప్పనిసరి	-5394
▁పరిష్కారం	-5395
యన	-5396
▁ఖర్	-5397
▁ఛాన	-5398
▁తాగ	-5399
▁హింస	-5400
ొచ్చని	-5401
▁కలకలం	-5402
▁రంగంలో	-5403
▁నిందితుడు	-5404
▁అధికారులతో	-5405
హో	-5406
▁ఆం	-5407
ర్షణ	-5408
▁అశో	-5409
▁మిత	-5410
తుందో	-5411
▁కర్నా	-5412
▁ఘనంగా	-5413
▁గమనించ	-5414
▁అసిస్టెంట్	-5415
▁ప్రజాస్వామ	-5416
▁తీసుకుంటామని	-5417
షిక	-5418
▁ఇత	-5419
▁రం	-5420
లన్నీ	-5421
▁దళిత	-5422
▁విఫల	-5423
వంతమైన	-5424
▁పునరు	-5425
▁పోస్టులు	-5426
▁తెల్లవారు	-5427
▁అంతకుముందు	-5428
ందీ	-5429
కైనా	-5430
నార్	-5431
▁ఏటా	-5432
▁రేటు	-5433
▁ఇస్తే	-5434
▁ఎదుర్	-5435
▁బాంబు	-5436
▁విపరీ	-5437
▁వెలువ	-5438
▁బ్రిడ్	-5439
▁విశేషం	-5440
ారట	-5441
కుడి	-5442
వుగా	-5443
మింగ్	-5444
▁బ్యార	-5445
ించడంలో	-5446
▁ఉంటాయని	-5447
▁వీడియోలో	-5448
▁ఇంగ్లాండ్	-5449
یر	-5450
ారే	-5451
▁టైం	-5452
▁పడిన	-5453
క్షంలో	-5454
▁మల్లి	-5455
▁అనుకూల	-5456
▁ప్రాథమిక	-5457
▁మంత్రిగా	-5458
▁స్మార్ట్	-5459
▁గుర్తించి	-5460
▁అధికారికంగా	-5461
పిరి	-5462
మిడి	-5463
▁తనపై	-5464
▁వర్గం	-5465
త్మకంగా	-5466
▁గూగుల్	-5467
ేశ్వరరావు	-5468
▁ప్రతినిధి	-5469
్రు	-5470
జిల్	-5471
▁ఇస్	-5472
్యాలు	-5473
▁దీపా	-5474
▁ఫేక్	-5475
▁వాయు	-5476
▁ప్రచు	-5477
▁వదిలి	-5478
▁ఇండ్లు	-5479
▁చేశాయి	-5480
▁ఉన్నాడు	-5481
▁పెరిగిన	-5482
▁బెంగాల్	-5483
▁తెలంగాణకు	-5484
▁మరికొన్ని	-5485
▁ఛై	-5486
▁ఏకా	-5487
▁కతా	-5488
ందంటే	-5489
మిషన్	-5490
ంక్షన్	-5491
పించిన	-5492
▁మాటలు	-5493
▁బెదిరి	-5494
▁యాదాద్రి	-5495
▁ప్రాంతాలకు	-5496
వళి	-5497
▁గజ	-5498
▁అంట	-5499
▁పిలి	-5500
▁లీగ్	-5501
▁మట్టి	-5502
▁సమర్థ	-5503
▁ఇంజినీ	-5504
▁సమర్పించ	-5505
▁శే	-5506
జీలు	-5507
లైట్	-5508
▁కొడ	-5509
▁పేలు	-5510
▁మేలు	-5511
▁వినో	-5512
ించామని	-5513
▁కాపాడు	-5514
▁సోర్స్	-5515
▁సంవత్సరాలు	-5516
▁జరుగుతున్నాయి	-5517
ti	-5518
పుల్	-5519
విన్	-5520
ుకుని	-5521
జినెస్	-5522
▁జడ్పీ	-5523
▁మహేష్	-5524
▁భూములు	-5525
▁రాకుండా	-5526
▁నమోదైంది	-5527
▁నౌ	-5528
....	-5529
▁నవీ	-5530
▁పటే	-5531
బడులు	-5532
ల్లంఘ	-5533
▁వైరస్	-5534
▁విమానం	-5535
▁సూర్యా	-5536
కాంక్షలు	-5537
▁డిజిటల్	-5538
▁ఉద్రిక్త	-5539
▁సంప్రదాయ	-5540
పరు	-5541
ష్ఠ	-5542
్వే	-5543
గ్రహ	-5544
లికా	-5545
సాయి	-5546
▁గృహ	-5547
కప్పుడు	-5548
▁రిమాండ్	-5549
▁శ్రీధర్	-5550
▁భవిష్యత్	-5551
▁రామకృష్ణ	-5552
▁విచారణలో	-5553
▁సర్టిఫిక	-5554
▁అవుతున్నాయి	-5555
లక	-5556
జీపీ	-5557
▁పొలి	-5558
లక్ష్మి	-5559
▁మొదలైన	-5560
▁స్పందన	-5561
▁ఒప్పందం	-5562
▁పనిచేసే	-5563
▁జిల్లాకు	-5564
▁బంతుల్లో	-5565
▁మున్సిపాలిటీ	-5566
▁ముఖ్యమంత్రిగా	-5567
ئے	-5568
జరీ	-5569
పైకి	-5570
వర్ణ	-5571
▁తుల	-5572
విత్ర	-5573
శంకర్	-5574
▁ఆధార్	-5575
▁ఆవిష్	-5576
▁ధర్నా	-5577
▁ఉల్లంఘ	-5578
రించింది	-5579
▁యాజమాన్	-5580
▁బిజినెస్	-5581
▁విజయాన్ని	-5582
ారీగా	-5583
▁బెడ్	-5584
▁సంచల	-5585
▁సేకర	-5586
▁ప్రకా	-5587
రిసిల్ల	-5588
▁పథకాలు	-5589
▁వెంకట్	-5590
▁ఛైర్మన్	-5591
▁దెబ్బతి	-5592
▁దృష్టిలో	-5593
▁చేసుకోవచ్చు	-5594
▁పెరుగుతున్న	-5595
یہ	-5596
ండం	-5597
ాయక	-5598
ౌట్	-5599
▁ان	-5600
రాయి	-5601
▁అనంత	-5602
లాన్ని	-5603
▁ఏళ్లు	-5604
▁విమాన	-5605
ంటుందని	-5606
స్థాయిలో	-5607
▁ప్రధానమంత్రి	-5608
,0	-5609
▁సంపద	-5610
▁పటేల్	-5611
▁మనిషి	-5612
▁స్త్రీ	-5613
▁దేశాల్లో	-5614
▁అందుకున్న	-5615
▁కొనసాగుతున్న	-5616
ాప	-5617
▁D	-5618
.15	-5619
రిట	-5620
▁గద్ద	-5621
▁చేయి	-5622
▁బార్	-5623
▁వస్త	-5624
▁మంత్రిత్వ	-5625
▁సంవత్సరంలో	-5626
▁రిజిస్ట్రేషన్	-5627
త్తులు	-5628
▁ఏసీబీ	-5629
▁దీక్ష	-5630
▁ఆదిత్య	-5631
▁తేల్చి	-5632
▁అసెంబ్లీలో	-5633
).	-5634
మంతా	-5635
వర్గ	-5636
▁తగి	-5637
ందుకే	-5638
సిఆర్	-5639
స్తుల	-5640
▁అసంత	-5641
▁కాలి	-5642
కారులు	-5643
▁రియల్	-5644
జిలాండ్	-5645
▁ఇద్దరూ	-5646
▁పార్క్	-5647
▁పెరిగే	-5648
▁పరిహారం	-5649
▁ఉన్నప్పటికీ	-5650
▁ମ	-5651
ేలా	-5652
▁కోట	-5653
▁చది	-5654
▁ఫిల్	-5655
▁ఎత్తి	-5656
▁నిల్వ	-5657
▁మారిన	-5658
▁సాంగ్	-5659
▁చుట్టు	-5660
▁చిన్నారి	-5661
జో	-5662
ంటరీ	-5663
▁సభకు	-5664
▁దేవాల	-5665
▁కర్నాటక	-5666
▁సీరియస్	-5667
▁అక్రమంగా	-5668
▁చంద్రుడి	-5669
▁సిట్టింగ్	-5670
▁శై	-5671
▁సద	-5672
▁ایک	-5673
▁కోలు	-5674
▁మనకు	-5675
▁కనుగొ	-5676
▁శ్రేణ	-5677
▁చేయండి	-5678
▁వ్యవధి	-5679
▁సత్యనారాయణ	-5680
▁చంద్రబాబును	-5681
ూహ	-5682
▁:	-5683
▁।	-5684
▁36	-5685
▁ಮಾ	-5686
ాయర్	-5687
▁చోట	-5688
▁జీవో	-5689
▁సూచన	-5690
▁గోల్డ్	-5691
▁పేర్లు	-5692
లిజెన్స్	-5693
▁సామాన్య	-5694
▁రికార్డ్	-5695
వకు	-5696
▁ఈవీ	-5697
ధులను	-5698
ించవచ్చు	-5699
▁కానిస్ట	-5700
▁తొమ్మిది	-5701
▁వైఎస్ఆర్	-5702
సైడ్	-5703
▁కసర	-5704
▁పాప	-5705
▁భయం	-5706
ార్జున	-5707
▁హైడ్రా	-5708
▁క్యారెట్ల	-5709
ಟ್	-5710
▁సుల	-5711
ార్క్	-5712
▁ఫ్లో	-5713
▁ఆర్డర్	-5714
▁నిర్వాహ	-5715
▁బ్యాటర్	-5716
▁ఇస్తున్న	-5717
▁ప్రశ్నలు	-5718
▁రిపోర్ట్	-5719
▁తీసుకోవాలి	-5720
▁అభ్యర్థులను	-5721
▁V	-5722
▁(3	-5723
ెంబరు	-5724
▁ఇంట్	-5725
▁బట్ట	-5726
▁షేక్	-5727
డాల్సి	-5728
ాయింట్	-5729
▁ఎద్దే	-5730
▁రమేశ్	-5731
▁రమేష్	-5732
▁స్కిల్	-5733
▁కోర్టుకు	-5734
▁స్వీకారం	-5735
మం	-5736
సుల	-5737
▁డో	-5738
▁కంప్	-5739
▁శుభా	-5740
మ్మల్ని	-5741
▁అధికంగా	-5742
▁అందజేశారు	-5743
▁అత్యధికంగా	-5744
లుత	-5745
▁ఉదా	-5746
▁చల్ల	-5747
▁ఓటీటీ	-5748
▁వీరికి	-5749
▁అధ్యయనం	-5750
▁స్క్రీన్	-5751
or	-5752
గామ	-5753
వేత	-5754
▁టీం	-5755
▁లక్	-5756
▁బాడీ	-5757
▁తీసిన	-5758
▁బీజేపీలో	-5759
▁హైకోర్టులో	-5760
గంట	-5761
హిత	-5762
▁బాస్	-5763
▁సింహ	-5764
▁జపాన్	-5765
▁నివాస	-5766
▁జీహెచ్	-5767
▁కారణాలు	-5768
▁న్యాయవాది	-5769
▁కలెక్టరేట్	-5770
త్రా	-5771
▁వేణు	-5772
▁సులభ	-5773
▁వివరణ	-5774
▁వృద్ధ	-5775
బోతోంది	-5776
▁వాహనాలు	-5777
▁ప్రైవేటు	-5778
▁బాలకృష్ణ	-5779
రన్	-5780
సీస్	-5781
టర్స్	-5782
రించి	-5783
▁చూసు	-5784
▁తెరక	-5785
▁మిస్	-5786
▁రాము	-5787
బాబాద్	-5788
▁ఆలస్య	-5789
▁గురైన	-5790
▁నివాసం	-5791
▁ఎద్దేవా	-5792
▁స్పష్టత	-5793
▁దేశానికి	-5794
▁బయలుదేరి	-5795
▁లిమిటెడ్	-5796
نے	-5797
ରି	-5798
ంతం	-5799
జాన్	-5800
వంతం	-5801
▁ఒలిం	-5802
▁రాకపో	-5803
▁అతనికి	-5804
▁సీతారామ	-5805
▁స్పష్టంగా	-5806
▁న్యూజిలాండ్	-5807
గల్	-5808
మణి	-5809
▁33	-5810
▁సగ	-5811
ప్ట్	-5812
▁నివా	-5813
▁పోర్	-5814
త్తీస్	-5815
▁దూరంలో	-5816
▁తిరుమలలో	-5817
▁అభివృద్ధికి	-5818
୍ୟ	-5819
ఫై	-5820
న్నది	-5821
▁వాటా	-5822
▁సమాజ	-5823
▁తొలుత	-5824
▁ఉండడంతో	-5825
▁అయినప్పటికీ	-5826
▁ఉత్తరప్రదేశ్	-5827
శీ	-5828
కంలో	-5829
పూడి	-5830
బట్ట	-5831
▁వరి	-5832
తానని	-5833
దుపరి	-5834
మార్క	-5835
▁వాగ్	-5836
▁వాణి	-5837
టిక్స్	-5838
▁గడ్డం	-5839
▁ప్రసా	-5840
▁లడ్డూ	-5841
▁ప్రకటి	-5842
మవుతోంది	-5843
▁క్రియేట్	-5844
▁బిల్డింగ్	-5845
▁తెలుసుకున్న	-5846
as	-5847
జల్	-5848
▁ఐఏ	-5849
▁ధన	-5850
ామున	-5851
▁ఎమో	-5852
▁ఆఫర్	-5853
▁షాపు	-5854
▁పేరిట	-5855
▁బరిలో	-5856
▁మిత్ర	-5857
▁వచ్చినా	-5858
▁చెప్పాలి	-5859
▁చేరుకుని	-5860
బోతున్నారు	-5861
AD	-5862
డక	-5863
సరా	-5864
▁75	-5865
సాప్	-5866
▁మంద	-5867
▁ట్రే	-5868
▁రోజా	-5869
▁ఎకరాల	-5870
▁కన్నడ	-5871
▁దాడికి	-5872
▁పవిత్ర	-5873
▁అడిషనల్	-5874
▁అక్కడికి	-5875
▁సిరిసిల్ల	-5876
▁చేసుకోవాలని	-5877
టిస్	-5878
విల్	-5879
▁ఫ్ల	-5880
▁రుతు	-5881
▁లైఫ్	-5882
వుతున్న	-5883
▁భూమిని	-5884
▁జరగనున్న	-5885
LS	-5886
క్యూ	-5887
తీరు	-5888
సాని	-5889
▁ఔట్	-5890
▁రాం	-5891
▁ఉప్ప	-5892
▁డౌన్	-5893
ద్దీన్	-5894
నేషనల్	-5895
▁ఉండడం	-5896
▁నకిలీ	-5897
▁ఫలితం	-5898
▁మించి	-5899
▁ఓటింగ్	-5900
▁గెలుచుకు	-5901
▁నియంత్రణ	-5902
▁మరణించారు	-5903
▁చేసుకోవాలి	-5904
▁అవుతున్నారు	-5905
19	-5906
ak	-5907
దాల	-5908
▁ఠా	-5909
▁ఫండ్	-5910
▁అశోక్	-5911
▁ఇదిలా	-5912
▁పట్టి	-5913
▁అనుబంధ	-5914
▁తెలియదు	-5915
▁విటమిన్	-5916
▁సంగారెడ్డి	-5917
ئی	-5918
శై	-5919
and	-5920
టీస్	-5921
రామ్	-5922
కుంది	-5923
నేశ్వ	-5924
▁పోరు	-5925
▁ఫ్లా	-5926
స్తూనే	-5927
▁స్వాత	-5928
ంటున్నా	-5929
▁కారులో	-5930
▁తదుపరి	-5931
▁మార్క్	-5932
▁ప్రశ్ని	-5933
▁మెరుగైన	-5934
▁యూనియన్	-5935
▁మెజారిటీ	-5936
▁H	-5937
డైన	-5938
ామిక	-5939
గోపాల్	-5940
▁నిండి	-5941
▁సీఎస్	-5942
▁జరిగితే	-5943
▁శరీరంలో	-5944
▁మాట్లాడే	-5945
▁సమక్షంలో	-5946
▁అవుతుందని	-5947
▁ఉష్ణోగ్రతలు	-5948
▁టాటా	-5949
▁ఆక్రమ	-5950
▁ఘర్షణ	-5951
▁బారిన	-5952
▁ఫార్మా	-5953
▁రాగానే	-5954
▁వారితో	-5955
▁వీటిలో	-5956
▁స్వల్ప	-5957
▁కీలకంగా	-5958
▁సూర్యాపేట	-5959
▁లూ	-5960
یڈیو	-5961
తుడు	-5962
త్తం	-5963
రగాయ	-5964
▁చింత	-5965
▁హాల్	-5966
బడింది	-5967
మానికి	-5968
▁తేలిక	-5969
▁ఒకసారి	-5970
▁జట్టులో	-5971
▁అప్పటికే	-5972
▁ప్రదర్శన	-5973
▁మ్యూజిక్	-5974
▁యూట్యూబ్	-5975
▁సంబంధాలు	-5976
▁నిర్వహించే	-5977
▁విక్రమార్క	-5978
▁అభిప్రాయపడ్డారు	-5979
త్న	-5980
▁వో	-5981
▁విక	-5982
▁ఉండేలా	-5983
▁నోటీసు	-5984
▁సంస్కృ	-5985
▁చెప్పడం	-5986
▁పలికారు	-5987
▁నెల్లూరు	-5988
▁చేస్తారని	-5989
ాడ	-5990
ికే	-5991
ఫ్టీ	-5992
మ్మూ	-5993
తంత్ర	-5994
▁స్వి	-5995
▁ఉల్లి	-5996
స్తుంటే	-5997
తుండటంతో	-5998
▁పాత్రలో	-5999
▁లక్ష్యం	-6000
▁మరికొందరు	-6001
▁తీసుకుంటున్న	-6002
▁నిర్మాణానికి	-6003
▁32	-6004
పోర్	-6005
ండీస్	-6006
ళ్లతో	-6007
ండింగ్	-6008
▁కత్తి	-6009
▁కెమెరా	-6010
▁ఊహించని	-6011
▁చెబుతోంది	-6012
▁చోటుచేసుకుంది	-6013
టుగా	-6014
నైనా	-6015
▁దీప	-6016
▁కోటి	-6017
▁మంచు	-6018
స్టిక్	-6019
▁బ్యాల	-6020
▁సహాయక	-6021
▁సాక్ష	-6022
▁గిరిజన	-6023
▁ప్రయోగ	-6024
▁పాయింట్	-6025
▁రిజర్వ్	-6026
▁పెట్రోల్	-6027
▁బాధితులు	-6028
▁ఆస్పత్రికి	-6029
▁వెలుగులోకి	-6030
▁వేస్తున్నారు	-6031
▁శుభాకాంక్షలు	-6032
ಂಡ	-6033
▁ف	-6034
.20	-6035
కప్	-6036
పక్క	-6037
మారి	-6038
మిక్	-6039
▁డెలి	-6040
▁బంగా	-6041
▁ویڈیو	-6042
▁ఖర్గే	-6043
▁గంటలు	-6044
▁ప్రియ	-6045
▁రెగ్య	-6046
▁కేసును	-6047
▁ట్రాక్	-6048
▁తీసుకొ	-6049
▁లేకపోవడం	-6050
▁వాట్సాప్	-6051
▁భారతదేశంలో	-6052
జను	-6053
▁దూర	-6054
▁స్మ	-6055
వర్స్	-6056
▁మనుష	-6057
▁వారా	-6058
▁వీలు	-6059
▁వెలు	-6060
▁సౌత్	-6061
▁బ్రహ్	-6062
▁జైలులో	-6063
▁తీశారు	-6064
▁శాసనసభ	-6065
▁స్కామ్	-6066
om	-6067
ಂದು	-6068
▁గానీ	-6069
▁తమను	-6070
▁నిఘా	-6071
▁సగటు	-6072
▁మాదిరి	-6073
▁గ్రేటర్	-6074
▁ఫలితంగా	-6075
▁సరిగ్గా	-6076
▁మహబూబాబాద్	-6077
ାଇ	-6078
టైన	-6079
ಿದೆ	-6080
▁48	-6081
▁భర	-6082
పాలన	-6083
▁రేప	-6084
యింగ్	-6085
▁ఆలయం	-6086
▁స్థల	-6087
▁డిజైన్	-6088
▁ధాన్యం	-6089
▁వివరాల	-6090
త్వంలోని	-6091
▁మణిపూర్	-6092
▁వైసీపీకి	-6093
తుందన్నారు	-6094
స్తామన్నారు	-6095
▁పెట్టుబడులు	-6096
▁ప్రాంతానికి	-6097
▁ఎప్పటికప్పుడు	-6098
మాట	-6099
టెక్	-6100
మైతే	-6101
వస్థ	-6102
▁కండ	-6103
▁ముర	-6104
▁వాడు	-6105
▁వేచి	-6106
▁ఇంజనీ	-6107
▁ఒంటరి	-6108
▁కూరగాయ	-6109
▁జైలుకు	-6110
▁నాలుగే	-6111
▁విభాగం	-6112
▁విస్తృ	-6113
▁తెలియని	-6114
▁నిర్మల్	-6115
▁బ్రిటన్	-6116
▁సభ్యుడు	-6117
▁ఆర్థికంగా	-6118
ھا	-6119
ଥି	-6120
కూరు	-6121
▁ఎండీ	-6122
మాన్ని	-6123
▁కోరిక	-6124
▁చివరకు	-6125
▁బెస్ట్	-6126
▁లిస్ట్	-6127
▁డిపార్ట్	-6128
▁వ్యక్తిని	-6129
▁చేస్తున్నామని	-6130
▁కై	-6131
▁వలస	-6132
▁వహి	-6133
▁జాన్	-6134
▁శరీర	-6135
లెన్స్	-6136
▁అనిపి	-6137
▁అంశాలు	-6138
▁క్రీడా	-6139
▁తీవ్రత	-6140
▁ప్లేస్	-6141
▁కార్యక్రమాన్ని	-6142
▁ఇంటె	-6143
▁లింగ	-6144
▁నవీన్	-6145
▁ఛాన్స్	-6146
▁డాక్యు	-6147
▁అడుగులు	-6148
▁గ్లోబల్	-6149
▁కుటుంబాలకు	-6150
▁ఖు	-6151
తన్య	-6152
లండ్	-6153
ಡಿಯೋ	-6154
▁ALS	-6155
కుంటారు	-6156
▁టాపిక్	-6157
▁బియ్యం	-6158
▁వయస్సు	-6159
▁ఐదుగురు	-6160
▁ఎకరాల్లో	-6161
▁టికెట్లు	-6162
▁భాగస్వామ	-6163
▁లభించింది	-6164
ెన	-6165
EAD	-6166
,500	-6167
మ్మా	-6168
ద్దాం	-6169
▁అతడి	-6170
▁నాన్	-6171
▁బలోపే	-6172
▁భూముల	-6173
▁నేతలతో	-6174
ించకుండా	-6175
▁నాగార్జున	-6176
▁ఆసుపత్రిలో	-6177
హరి	-6178
చేసి	-6179
నెట్	-6180
బడ్డ	-6181
యాంశ	-6182
▁పుర	-6183
బెట్ట	-6184
▁మూసి	-6185
▁వాల్	-6186
▁సంకే	-6187
ండ్లలో	-6188
▁అవుట్	-6189
▁ఆఫీసు	-6190
▁జమ్మూ	-6191
▁తీర్చ	-6192
▁చర్చనీ	-6193
▁గ్రామీణ	-6194
▁తీవ్రమైన	-6195
▁పెట్టుకున్న	-6196
▁గీ	-6197
సేపు	-6198
▁ఆశా	-6199
▁పేట	-6200
మ్మద్	-6201
▁ALSO	-6202
▁ఐక్య	-6203
▁సమన్	-6204
హిల్స్	-6205
▁ఇష్టం	-6206
▁కోరుతూ	-6207
▁నిమిషాల	-6208
▁యువకుడు	-6209
స్తున్నాం	-6210
▁గ్యారంటీ	-6211
▁వస్తాయని	-6212
▁నిర్వహించి	-6213
-3	-6214
చలం	-6215
▁మం	-6216
సేజ్	-6217
▁گیا	-6218
పూర్వ	-6219
▁చర్మ	-6220
ందింది	-6221
▁ఉప్పు	-6222
▁కొండా	-6223
▁ప్రసంగ	-6224
▁కెసిఆర్	-6225
ెడి	-6226
▁ఇళ్లు	-6227
▁తేల్చ	-6228
▁నిరాశ	-6229
▁క్వార్	-6230
▁నొప్పి	-6231
▁రోడ్లు	-6232
▁సునీల్	-6233
▁స్కీమ్	-6234
▁జట్టుకు	-6235
▁నిర్మాత	-6236
▁పారిశ్ర	-6237
▁రాజమండ్రి	-6238
▁తెలుస్తుంది	-6239
لی	-6240
హే	-6241
బంధు	-6242
ులైన	-6243
▁గఢ్	-6244
కొత్త	-6245
పించి	-6246
▁గాయాల	-6247
▁అన్నది	-6248
పోయిందని	-6249
▁కసరత్తు	-6250
▁రాజకీయం	-6251
▁నాయకత్వం	-6252
▁వడ	-6253
ధ్యం	-6254
▁గోడ	-6255
▁సప్	-6256
క్రియ	-6257
▁ఎల్ల	-6258
▁కూలీ	-6259
▁జగదీ	-6260
▁పథకాల	-6261
▁ముక్క	-6262
▁ఉదాహరణ	-6263
▁ధ్వంసం	-6264
▁వీరిలో	-6265
▁డెలివరీ	-6266
▁తనిఖీలు	-6267
▁వేధింపు	-6268
▁స్వాగతం	-6269
▁ప్రారంభి	-6270
▁సస్పెండ్	-6271
్రం	-6272
డారు	-6273
▁పిల్	-6274
▁ఫాలో	-6275
▁ఫైనా	-6276
హానికి	-6277
▁రూరల్	-6278
▁నెయ్యి	-6279
▁పెరిగాయి	-6280
▁చర్చనీయాంశ	-6281
▁ಇ	-6282
లేద	-6283
పాతం	-6284
ూరులో	-6285
▁READ	-6286
▁ఉంటూ	-6287
▁జనతా	-6288
▁డిపా	-6289
▁మిల్	-6290
▁హుస్	-6291
స్తాడు	-6292
▁ఆనంద్	-6293
▁టీజర్	-6294
▁సొంతం	-6295
▁ముప్పు	-6296
▁వాటికి	-6297
▁ఆధారాలు	-6298
▁తీసుకెళ్	-6299
▁తేదీల్లో	-6300
సార	-6301
తంలో	-6302
సిస్	-6303
▁గది	-6304
ంత్రా	-6305
కులతో	-6306
▁దసరా	-6307
▁మైదా	-6308
స్ట్రి	-6309
▁అయ్యి	-6310
▁నెలలు	-6311
▁భోజనం	-6312
▁రాజీవ్	-6313
▁ప్రజల్లో	-6314
ంజర్	-6315
▁డయా	-6316
▁తీయ	-6317
ంట్లు	-6318
▁నితీ	-6319
▁సిక్	-6320
▁అంతరి	-6321
▁ఆశ్చర్య	-6322
▁కీలకమైన	-6323
▁ఫలితాలను	-6324
▁పారిశ్రామిక	-6325
it	-6326
ବା	-6327
▁జమ	-6328
▁ఫే	-6329
పాలి	-6330
▁దాటి	-6331
▁మానే	-6332
▁ఇంద్ర	-6333
▁మోడల్	-6334
▁విభజన	-6335
▁ఎన్డీఏ	-6336
▁నేతలకు	-6337
▁భాస్కర్	-6338
▁విగ్రహం	-6339
▁వేడుకలు	-6340
▁పడుతుంది	-6341
▁పిల్లలను	-6342
▁నిందితులు	-6343
▁చంద్రశేఖర్	-6344
▁కోరుతున్నారు	-6345
హర	-6346
▁L	-6347
నిర్	-6348
▁కోటా	-6349
▁పెడు	-6350
▁ఫోర్	-6351
▁లోడ్	-6352
ండెంట్	-6353
ుకుంది	-6354
▁ఇందిరా	-6355
▁ఉన్నట్టు	-6356
▁తీర్మానం	-6357
▁కొత్తగూడెం	-6358
▁లభిస్తుంది	-6359
▁ఇంటెలిజెన్స్	-6360
▁ఎదుర్కొంటున్న	-6361
12	-6362
డీవో	-6363
ద్వే	-6364
▁కబ్	-6365
రేటర్	-6366
▁ఇప్ప	-6367
▁చైర్	-6368
▁రాయ్	-6369
▁పరంగా	-6370
▁సార్వ	-6371
లికేషన్	-6372
▁అతన్ని	-6373
▁ఉపయోగి	-6374
▁సూచించింది	-6375
▁ఎగ	-6376
చారి	-6377
తాడు	-6378
ల్తా	-6379
▁కరు	-6380
హాలను	-6381
▁గేమ్	-6382
▁పిఠా	-6383
▁శంకు	-6384
▁కిలోల	-6385
ాంపియన్	-6386
▁నేపాల్	-6387
▁మామిడి	-6388
▁వాటిలో	-6389
▁సూచనలు	-6390
▁హామీలు	-6391
▁ఇంటర్నేషనల్	-6392
▁ರ	-6393
న్ల	-6394
సాహ	-6395
▁తహ	-6396
నన్న	-6397
వంగా	-6398
▁ఏను	-6399
▁పదో	-6400
▁సపో	-6401
టల్స్	-6402
న్నర్	-6403
▁చూసే	-6404
నమెంట్	-6405
వుల్లో	-6406
▁అహ్మద్	-6407
▁చేతులు	-6408
▁వచ్చాక	-6409
▁విక్రయ	-6410
▁కారణమని	-6411
▁స్థలానికి	-6412
▁ప్రభుత్వంపై	-6413
re	-6414
వత్	-6415
కమ్మ	-6416
డియం	-6417
▁ఆయుధ	-6418
▁బీమా	-6419
▁భాగం	-6420
▁సంఘాల	-6421
▁సమగ్ర	-6422
▁ఎక్కడా	-6423
▁సురేష్	-6424
▁తెలిసిన	-6425
▁లేకపోతే	-6426
▁మాట్లాడి	-6427
▁సమయానికి	-6428
డె	-6429
▁పత	-6430
షియా	-6431
▁పార	-6432
▁వలన	-6433
ాలుగా	-6434
▁గార్	-6435
▁సీజ్	-6436
▁క్షమా	-6437
▁లింక్	-6438
▁కానిస్టేబుల్	-6439
ھی	-6440
▁42	-6441
నీటి	-6442
ప్స్	-6443
▁300	-6444
▁కట్	-6445
▁2016	-6446
▁టెలి	-6447
▁సుదీ	-6448
▁ఆరుగు	-6449
▁కడుపు	-6450
▁తినడం	-6451
▁నమ్ము	-6452
▁సీపీఐ	-6453
▁అదనంగా	-6454
▁నిత్యం	-6455
▁ప్రగతి	-6456
▁మార్గం	-6457
▁సిద్దం	-6458
▁అప్పుడే	-6459
▁బ్రాండ్	-6460
▁చెబుతున్నాయి	-6461
ری	-6462
▁ଅ	-6463
ేట్	-6464
▁బలం	-6465
ంతోనే	-6466
▁బాలా	-6467
▁బెది	-6468
ణాల్లో	-6469
▁మేయర్	-6470
▁ఎంపీలు	-6471
▁నాయకుల	-6472
▁రివ్యూ	-6473
▁వాళ్లకు	-6474
▁బిఆర్ఎస్	-6475
చీ	-6476
హై	-6477
▁ଦ	-6478
లింగ	-6479
స్తం	-6480
▁డిఫ	-6481
▁బదు	-6482
▁కామె	-6483
▁పరిశోధన	-6484
▁గుండెపోటు	-6485
▁కనిపిస్తున్నాయి	-6486
నంద	-6487
గ్రి	-6488
ುತ್ತ	-6489
వులకు	-6490
నార్హం	-6491
▁అండర్	-6492
▁కన్నా	-6493
▁కూర్చ	-6494
▁వేముల	-6495
▁సిస్ట	-6496
▁అడుగుల	-6497
▁బైడెన్	-6498
▁అవినాష్	-6499
▁గమనార్హం	-6500
▁మొత్తంలో	-6501
▁పార్టీలకు	-6502
▁అప్లికేషన్	-6503
మన	-6504
ಂಬ	-6505
▁Re	-6506
న్యు	-6507
పైగా	-6508
▁స్ఫ	-6509
▁ఉందా	-6510
▁చక్ర	-6511
▁పైకి	-6512
▁భువన	-6513
▁లాల్	-6514
▁ఘటనలు	-6515
▁సహకార	-6516
▁స్కోరు	-6517
▁ప్రజాప్ర	-6518
▁బ్రిడ్జి	-6519
▁సమయంలోనే	-6520
▁నెటిజన్లు	-6521
▁యాజమాన్యం	-6522
▁శ్రీనివాస	-6523
డూ	-6524
▁ఓట	-6525
▁టర్	-6526
గుట్ట	-6527
▁పోషి	-6528
▁లీక్	-6529
▁సమన్వ	-6530
ించుకోవ	-6531
▁బయటికి	-6532
▁ముంబయి	-6533
▁హత్యకు	-6534
▁తప్పకుండా	-6535
▁తెల్లవారుజ	-6536
▁అధ్యక్షుడిగా	-6537
▁దక్షిణాఫ్రికా	-6538
ఖరి	-6539
మాల	-6540
▁నాశ	-6541
▁దోపి	-6542
▁విరమ	-6543
▁అబ్దు	-6544
▁జనగామ	-6545
▁పెట్టే	-6546
▁గంటల్లో	-6547
▁ప్రభావి	-6548
స్తున్నది	-6549
▁ఇంగ్లండ్	-6550
▁వర్కింగ్	-6551
▁కార్మికుల	-6552
ic	-6553
భద్ర	-6554
▁ఖండ	-6555
భారత్	-6556
▁నిరూ	-6557
▁పాలి	-6558
▁రాయల	-6559
▁సెగ్	-6560
▁ఆర్టి	-6561
పోయారని	-6562
▁కలిసిన	-6563
▁కాలంగా	-6564
▁డీజీపీ	-6565
▁పేదలకు	-6566
▁మేనేజ్	-6567
కోవాల్సి	-6568
▁అత్యవసర	-6569
▁సర్పంచ్	-6570
▁ఢిల్లీకి	-6571
▁శంకుస్థా	-6572
▁నేతృత్వంలోని	-6573
60	-6574
ର୍	-6575
▁ఝ	-6576
దిన	-6577
ికొ	-6578
▁డం	-6579
▁ఘోర	-6580
▁వేస	-6581
▁అంబా	-6582
▁జాతర	-6583
▁జాబ్	-6584
▁ధరణి	-6585
▁మనసు	-6586
▁హైవే	-6587
▁సత్తా	-6588
▁సదుపాయ	-6589
▁సోదాలు	-6590
▁బిలియన్	-6591
▁సుదీర్ఘ	-6592
▁కౌన్సిల్	-6593
▁ముందుగానే	-6594
▁సాగుతోంది	-6595
▁స్పందించిన	-6596
▁ప్రారంభించిన	-6597
▁సూచిస్తున్నారు	-6598
్ర్	-6599
▁పొర	-6600
▁అత్యు	-6601
▁పనులకు	-6602
▁బంగాళా	-6603
▁సాధించ	-6604
▁అనుమానం	-6605
▁తెలిపిన	-6606
▁పెట్టుకుని	-6607
▁అంతేకాకుండా	-6608
▁E	-6609
▁U	-6610
మనే	-6611
ండన్	-6612
వాదం	-6613
▁ఎంచ	-6614
▁విల	-6615
త్తుల	-6616
సీసీఐ	-6617
ారంటే	-6618
ృష్టి	-6619
▁విజే	-6620
▁స్టి	-6621
▁స్పి	-6622
కానికి	-6623
▁అనుసర	-6624
▁కలుపు	-6625
▁హర్యా	-6626
▁పదవికి	-6627
▁యూనిట్	-6628
▁సాఫ్ట్	-6629
▁అప్పులు	-6630
కరించింది	-6631
▁ఇందుకోసం	-6632
హనం	-6633
▁یہ	-6634
▁చేరే	-6635
▁దూసు	-6636
▁సందే	-6637
▁సిట్	-6638
▁ఆశీర్	-6639
▁మండలి	-6640
▁యొక్క	-6641
▁ఎక్కడి	-6642
▁ఒప్పంద	-6643
▁స్టోరీ	-6644
▁స్ట్రా	-6645
▁పనితీరు	-6646
▁పరామర్శ	-6647
▁ప్రకటనలో	-6648
▁పేర్కొన్న	-6649
▁సినిమాల్లో	-6650
▁స్టేడియంలో	-6651
దశి	-6652
▁34	-6653
▁టే	-6654
ర్తి	-6655
▁గల్	-6656
యాలను	-6657
▁తెరి	-6658
▁పండగ	-6659
▁మావో	-6660
▁సిగ్	-6661
▁ఆసీస్	-6662
▁ఎగ్జా	-6663
▁జట్లు	-6664
▁ఏర్పడి	-6665
▁సీతక్క	-6666
▁కాల్పులు	-6667
▁కొట్టుకు	-6668
▁ఎన్నికలలో	-6669
ab	-6670
కరం	-6671
తన్	-6672
తాం	-6673
▁రస	-6674
▁ہیں	-6675
▁కేశ	-6676
▁నాట	-6677
▁బల్	-6678
తుందా	-6679
▁విలీ	-6680
క్కులు	-6681
వద్దని	-6682
▁గెలుపొ	-6683
▁స్పేస్	-6684
▁కోరింది	-6685
▁రవీంద్ర	-6686
▁ప్రభావితం	-6687
▁ప్రతినిధులు	-6688
▁సమాచారాన్ని	-6689
ఫార్	-6690
వాణి	-6691
షింగ్	-6692
▁అచ్చ	-6693
▁కలసి	-6694
▁పోల్	-6695
▁ఏమిటి	-6696
▁గొంతు	-6697
▁వెళ్ళ	-6698
▁ఉచితంగా	-6699
▁లెక్కలు	-6700
▁విశ్లేష	-6701
▁భువనగిరి	-6702
▁మార్గంలో	-6703
▁ఆస్పత్రిలో	-6704
▁ఢిల్లీలోని	-6705
చా	-6706
ీప్	-6707
ూల్	-6708
▁గూడ	-6709
▁పౌర	-6710
▁చారి	-6711
▁టీపీ	-6712
▁సంగీ	-6713
పిక్స్	-6714
▁తిరస్	-6715
▁పీఎస్	-6716
▁పర్సన్	-6717
▁వృద్ధి	-6718
▁వేలాది	-6719
▁సీఎంగా	-6720
త్వాన్ని	-6721
▁టెన్షన్	-6722
▁అప్రమత్తంగా	-6723
ol	-6724
▁ଭ	-6725
న్నె	-6726
పిల్	-6727
▁అఫ్	-6728
▁డైలా	-6729
▁దొరక	-6730
▁పరిణా	-6731
▁పోరాట	-6732
▁గ్రూపు	-6733
▁జుట్టు	-6734
▁మార్చు	-6735
▁సమాచార	-6736
▁హర్యానా	-6737
▁కౌంటింగ్	-6738
▁పాల్పడిన	-6739
▁కనిపించడం	-6740
▁ప్రపంచంలో	-6741
▁ప్రభుత్వాలు	-6742
ధ్	-6743
త్రిక	-6744
▁ఒప్పు	-6745
▁నెలకు	-6746
ప్రసాద్	-6747
▁ఎవరికీ	-6748
▁ధర్మాస	-6749
▁లాభాలు	-6750
▁వెల్లు	-6751
▁సంచారం	-6752
▁సినిమాతో	-6753
▁చేస్తుందని	-6754
▁జరుగుతుందని	-6755
మల్	-6756
▁Ch	-6757
▁దృశ	-6758
▁కక్ష	-6759
▁కూలి	-6760
▁తోడు	-6761
▁బెల్	-6762
▁సిలి	-6763
ద్వారా	-6764
▁ఆస్తి	-6765
▁బలహీన	-6766
▁టీఎంసీ	-6767
▁తోపాటు	-6768
▁ఉపాధ్యాయ	-6769
▁లక్షణాలు	-6770
▁గురయ్యారు	-6771
▁ప్రముఖులు	-6772
▁స్థానాలకు	-6773
▁ప్రయోజనాలు	-6774
▁ತ	-6775
▁లొ	-6776
క్రో	-6777
▁197	-6778
▁కొల	-6779
▁వెహ	-6780
స్థాన	-6781
▁ఘటనా	-6782
ేశ్వరి	-6783
▁మొన్న	-6784
▁రేంజ్	-6785
ంటున్నాయి	-6786
▁ప్రోత్సహ	-6787
▁పొలిటికల్	-6788
▁ఫౌ	-6789
▁ఇవ్	-6790
▁లోపు	-6791
▁సన్న	-6792
ంటోంది	-6793
▁ఉత్తమ	-6794
▁లేవని	-6795
▁సరిగా	-6796
▁కొరియా	-6797
▁రహదారి	-6798
నిస్తాన్	-6799
▁ఎలక్షన్	-6800
▁పడ్డారు	-6801
▁నిలిపివే	-6802
▁వచ్చినట్లు	-6803
ag	-6804
ంగో	-6805
ుని	-6806
▁చాలు	-6807
▁లారీ	-6808
▁విభే	-6809
▁ఐఏఎస్	-6810
▁కన్నీ	-6811
▁తిప్ప	-6812
▁నిధుల	-6813
▁ವಿಡಿಯೋ	-6814
▁పనిచేసిన	-6815
▁చేసుకోవడం	-6816
చరణ	-6817
పారు	-6818
మెన్	-6819
ినాడ	-6820
ెస్ట	-6821
▁ఆక్	-6822
ದಲ್ಲಿ	-6823
▁పింఛ	-6824
▁స్పా	-6825
రించిన	-6826
▁ఏండ్ల	-6827
▁ఏమైనా	-6828
▁చెత్త	-6829
▁చౌదరి	-6830
▁వాహనం	-6831
▁సెకండ్	-6832
పోర్ట్స్	-6833
▁కలిశారు	-6834
▁పాలస్తీ	-6835
▁చరిత్రలో	-6836
▁రాజశేఖర్	-6837
▁కోల్పోయిన	-6838
▁ٹ	-6839
చేయ	-6840
ామో	-6841
నాల్	-6842
భావం	-6843
వారీ	-6844
▁పసి	-6845
▁మేష	-6846
▁సిం	-6847
వన్నీ	-6848
స్తరు	-6849
▁ఎదుట	-6850
▁సజ్జ	-6851
▁సెన్	-6852
▁నడుపు	-6853
▁యూఎస్	-6854
▁చక్కెర	-6855
▁వృత్తి	-6856
▁దారుణంగా	-6857
▁విషయాలను	-6858
▁అసంతృప్తి	-6859
le	-6860
థా	-6861
▁ନ	-6862
జార్	-6863
రోధక	-6864
పర్తి	-6865
▁చోరీ	-6866
▁తేలి	-6867
ప్పులు	-6868
▁పక్కా	-6869
▁శరీరం	-6870
▁రైజర్స్	-6871
క్ల	-6872
వరకూ	-6873
సభ్య	-6874
▁గద్	-6875
▁జాన	-6876
▁రాఘ	-6877
▁వేశ	-6878
▁తాత్	-6879
▁రీసె	-6880
న్నాయని	-6881
ారాబాద్	-6882
▁క్రిమిన	-6883
▁బతుకమ్మ	-6884
▁నిబంధనలు	-6885
▁బ్యారేజీ	-6886
▁విశాఖపట్నం	-6887
బొ	-6888
▁డొ	-6889
▁తుఫ	-6890
▁మెడ	-6891
▁క్లీ	-6892
▁అనుభవ	-6893
▁జడ్జి	-6894
▁నివసి	-6895
▁సందీప్	-6896
▁సివిల్	-6897
▁దీపావళి	-6898
▁బీసీసీఐ	-6899
▁రాయలసీమ	-6900
▁ఆందోళనకు	-6901
▁కుటుంబంలో	-6902
▁మృతదేహాన్ని	-6903
▁కం	-6904
విటీ	-6905
సైటీ	-6906
▁అవా	-6907
▁రన్	-6908
▁అతడు	-6909
కాలంగా	-6910
▁ఆకర్ష	-6911
▁ముగియ	-6912
▁తెలుపు	-6913
▁ముఖ్యం	-6914
▁వారీగా	-6915
▁గాయపడిన	-6916
▁గ్యాంగ్	-6917
▁చిత్తూరు	-6918
▁సెగ్మెంట్	-6919
▁కేంద్రానికి	-6920
▁ప్రజాప్రతిని	-6921
రద	-6922
"."	-6923
టార	-6924
నేయ	-6925
పరచ	-6926
ట్టం	-6927
▁కృత	-6928
యింట్	-6929
రియల్	-6930
ించాం	-6931
▁ఆడిన	-6932
▁ఇయర్	-6933
▁దేవి	-6934
▁వెనక	-6935
▁పల్లె	-6936
▁అలవాటు	-6937
▁బ్యూటీ	-6938
▁మార్చుకు	-6939
▁రాజేంద్ర	-6940
▁తీసుకుంటే	-6941
కుంటున్నారు	-6942
▁సమావేశానికి	-6943
15	-6944
ଛି	-6945
▁ఇష	-6946
▁బస	-6947
మిని	-6948
▁అఖి	-6949
▁యోగ	-6950
వింగ్	-6951
▁గ్లా	-6952
▁కల్తీ	-6953
▁విధాన	-6954
▁తరహాలో	-6955
▁పొన్నం	-6956
▁అంశాలను	-6957
▁ప్రాతిని	-6958
▁మల్లికార్	-6959
▁స్పోర్ట్స్	-6960
▁నిర్లక్ష్యం	-6961
ir	-6962
لا	-6963
▁...	-6964
▁దళి	-6965
▁2017	-6966
▁సైన్	-6967
వనేశ్వ	-6968
▁ఈవీఎం	-6969
▁జయంతి	-6970
▁బొమ్మ	-6971
▁నువ్వు	-6972
▁బీహార్	-6973
▁మెసేజ్	-6974
▁సాధ్యం	-6975
▁జేడీఎస్	-6976
▁బస్సులు	-6977
▁రెస్టార	-6978
▁రాష్ట్రాలకు	-6979
లేం	-6980
కాశం	-6981
బాయ్	-6982
▁గరి	-6983
▁తార	-6984
▁బాట	-6985
▁మంచ	-6986
▁కాంబ	-6987
▁నంది	-6988
▁విడా	-6989
▁హర్ష	-6990
▁అడిగి	-6991
▁ఏర్పడ	-6992
▁వార్డు	-6993
చారానికి	-6994
▁చూడాలని	-6995
▁రానుంది	-6996
▁విషయానికి	-6997
▁దర్శకత్వంలో	-6998
▁వస్తున్నారు	-6999
▁వెళ్లేందుకు	-7000
▁చేసుకున్నాడు	-7001
మనం	-7002
ాలూ	-7003
▁ధృ	-7004
ెంజ్	-7005
▁పటి	-7006
▁పోయ	-7007
▁ಪ್ರ	-7008
గాయని	-7009
▁గోల్	-7010
▁టాస్	-7011
▁మేడ్	-7012
▁ఇండ్ల	-7013
▁నాగర్	-7014
▁లక్నో	-7015
▁రైళ్లు	-7016
▁హెలికా	-7017
▁వెల్లడి	-7018
▁నిలిచారు	-7019
▁వ్యాపారం	-7020
▁మారుతోంది	-7021
▁కేంద్రంలోని	-7022
▁పరిస్థితిని	-7023
దాయ	-7024
జిన్	-7025
డేట్	-7026
యంతో	-7027
▁150	-7028
▁ఉండా	-7029
▁పాండ	-7030
▁వెలి	-7031
▁నియమి	-7032
▁అరుదైన	-7033
▁క్లాస్	-7034
▁దోపిడీ	-7035
▁వినోద్	-7036
▁అందించే	-7037
▁చెందారు	-7038
▁పరిశీలి	-7039
▁పెద్దలు	-7040
▁సమస్యను	-7041
▁అంతరిక్ష	-7042
▁అందించిన	-7043
▁ఒక్కొక్క	-7044
▁కేటాయింపు	-7045
▁తాత్కాలిక	-7046
▁ఇస్తున్నారు	-7047
▁నిర్వహించాలని	-7048
ండో	-7049
ఐఎం	-7050
▁ವೈ	-7051
▁పొగ	-7052
▁సల్	-7053
ెస్టి	-7054
▁మేడి	-7055
▁సంతా	-7056
▁సహకర	-7057
్యూటర్	-7058
వుతుంది	-7059
▁క్రెడి	-7060
▁జరిపిన	-7061
▁పరిమిత	-7062
▁సిటీలో	-7063
▁సొసైటీ	-7064
▁స్కోర్	-7065
▁స్టాక్	-7066
▁స్ట్రీ	-7067
▁అన్యాయం	-7068
▁కాకినాడ	-7069
▁స్వతంత్ర	-7070
▁సార్వత్రిక	-7071
▁ఆరోగ్యానికి	-7072
",	-7073
▁F	-7074
లవరం	-7075
లార్	-7076
▁సత్	-7077
చింది	-7078
▁కీర్	-7079
▁జీవన	-7080
ంటారని	-7081
నుందని	-7082
▁ఆయిల్	-7083
▁ఊపిరి	-7084
▁గాయాలు	-7085
▁యజమాని	-7086
▁కంటెంట్	-7087
▁క్షమాపణ	-7088
▁ప్రశాంత	-7089
▁చిన్నారు	-7090
▁తగ్గింది	-7091
▁ధర్మాసనం	-7092
▁ప్రాధాన్యం	-7093
99	-7094
షన	-7095
▁ହ	-7096
సల్	-7097
గాడు	-7098
▁ఎలి	-7099
▁కలవ	-7100
▁గౌత	-7101
ట్లలో	-7102
▁డీఎం	-7103
▁దిగి	-7104
స్టార్	-7105
▁వెయ్యి	-7106
▁కేంద్రంగా	-7107
▁చూస్తున్న	-7108
▁చేయాల్సిన	-7109
▁వ్యాఖ్యలపై	-7110
di	-7111
పోతే	-7112
▁ఇవే	-7113
▁తీర	-7114
విద్య	-7115
▁చెరు	-7116
▁టూరి	-7117
▁వేటు	-7118
ల్లోనూ	-7119
▁కన్ను	-7120
▁కిందట	-7121
▁పాలకు	-7122
▁నేతలను	-7123
▁ప్రీమి	-7124
▁వైద్యం	-7125
▁ఒకేసారి	-7126
▁డిగ్రీల	-7127
▁సాధించి	-7128
▁చర్చించారు	-7129
కత	-7130
▁బక	-7131
సేన్	-7132
ార్జ్	-7133
▁సదరు	-7134
పురంలో	-7135
ించండి	-7136
▁జీవన్	-7137
▁వాణిజ	-7138
▁ఆయన్ను	-7139
▁కల్వకు	-7140
▁మహ్మద్	-7141
▁లీకేజీ	-7142
▁సంఘాలు	-7143
▁చేయడంలో	-7144
▁మేనేజర్	-7145
▁బంగాళాఖా	-7146
▁భువనేశ్వ	-7147
▁పనిచేశారు	-7148
▁వ్యవస్థను	-7149
▁విధించింది	-7150
▁వ్యాపారులు	-7151
టేట్	-7152
▁ఎడి	-7153
▁టెం	-7154
ులుగా	-7155
ొద్దు	-7156
▁ఎత్త	-7157
▁కథనం	-7158
▁తినే	-7159
▁ఫేస్	-7160
▁లుక్	-7161
▁కాపాడ	-7162
▁అనుభవం	-7163
▁భూకంపం	-7164
▁రికార్	-7165
▁సందర్బ	-7166
▁ఇచ్చాడు	-7167
▁చనిపోయారు	-7168
▁చెప్తున్నారు	-7169
▁(4	-7170
▁41	-7171
▁డ్	-7172
దాని	-7173
▁కొడు	-7174
▁గులా	-7175
▁తరచూ	-7176
▁ఏపీకి	-7177
▁తలెత్త	-7178
▁లోకేశ్	-7179
▁వివాదా	-7180
ించుకునే	-7181
▁చేసుకొని	-7182
▁విడుదలైన	-7183
▁సినిమాపై	-7184
▁వర్గానికి	-7185
ించుకునేందుకు	-7186
▁కాంట్రాక్టర్	-7187
▁పట్టించుకోవడం	-7188
ai	-7189
▁మహే	-7190
▁అబ్బ	-7191
▁కమలా	-7192
▁తానే	-7193
▁స్వే	-7194
ల్సిందే	-7195
▁ఫాస్ట్	-7196
ానన్నారు	-7197
▁కర్నూలు	-7198
▁కష్టాలు	-7199
▁హామీలను	-7200
▁న్యాయమూర్తి	-7201
▁చేస్తున్నాడు	-7202
st	-7203
ତି	-7204
▁ಜ	-7205
ెలు	-7206
▁చ్	-7207
▁పల్	-7208
చర్లు	-7209
▁రంగం	-7210
ఫాబాద్	-7211
మైందని	-7212
▁చర్చి	-7213
▁దక్కి	-7214
▁పనిలో	-7215
▁వర్తి	-7216
▁అర్బన్	-7217
▁టన్నుల	-7218
▁బలోపేతం	-7219
▁చేస్తాయి	-7220
▁పరిణామాలు	-7221
▁چ	-7222
పుర	-7223
ికీ	-7224
▁మరు	-7225
▁మాస	-7226
ప్టర్	-7227
▁పురో	-7228
▁రెజ్	-7229
▁అంబటి	-7230
కోవడంతో	-7231
▁జైల్లో	-7232
▁దారితీ	-7233
▁మెరుపు	-7234
▁వేర్వే	-7235
▁హనుమాన్	-7236
▁చేయలేదని	-7237
▁అర్ధరాత్రి	-7238
▁శాస్త్రవేత్తలు	-7239
చేసిన	-7240
▁అజయ్	-7241
▁టూర్	-7242
▁థ్రి	-7243
▁దాకా	-7244
▁నగరం	-7245
▁బంతి	-7246
▁భవనం	-7247
సానికి	-7248
▁జీర్ణ	-7249
చేందుకు	-7250
▁చార్జి	-7251
▁శ్రీకా	-7252
▁ఎన్డీయే	-7253
▁యువకులు	-7254
▁విరుద్ధ	-7255
▁నెరవేర్చ	-7256
▁స్టేడియం	-7257
▁హనుమకొండ	-7258
▁చేసినట్టు	-7259
▁జీహెచ్ఎంసీ	-7260
▁చూస్తున్నారు	-7261
un	-7262
తక	-7263
▁J	-7264
▁మోట	-7265
▁క్వి	-7266
▁సమంత	-7267
▁యాక్ట్	-7268
▁వర్షాల	-7269
▁ఆస్తులు	-7270
▁సపోర్ట్	-7271
▁పర్యావరణ	-7272
▁ఖచ్చితంగా	-7273
▁పోలీసులను	-7274
▁ప్రభావంతో	-7275
ించుకోవాలని	-7276
▁చేపట్టాలని	-7277
▁బెంగళూరులో	-7278
▁న్యాయస్థానం	-7279
▁తెలుసుకున్నారు	-7280
um	-7281
▁O	-7282
.25	-7283
▁మలయా	-7284
▁వేసు	-7285
▁టైంలో	-7286
▁మనోజ్	-7287
▁మల్కా	-7288
▁సమితి	-7289
▁ఉగ్రవా	-7290
▁ఖాతాలో	-7291
▁సహకారం	-7292
▁సోదరుడు	-7293
▁భద్రాచలం	-7294
▁స్టార్ట్	-7295
▁ప్రపంచంలోనే	-7296
▁స్టూడెంట్స్	-7297
కాడ	-7298
▁దౌ	-7299
▁అమృ	-7300
సెంట్	-7301
వేశారు	-7302
▁నాన్న	-7303
▁లండన్	-7304
▁అమెరిక	-7305
▁తెచ్చి	-7306
▁విక్రమ్	-7307
▁ఆసక్తికర	-7308
▁నిజానికి	-7309
▁రాజేందర్	-7310
▁ఇచ్చేందుకు	-7311
▁తెల్లవారుజామున	-7312
భం	-7313
మత	-7314
▁38	-7315
▁టు	-7316
▁మగ	-7317
నీరు	-7318
పైనే	-7319
వెళ్ల	-7320
శ్వాస	-7321
▁కొంచ	-7322
▁దానం	-7323
▁బంద్	-7324
పెట్టే	-7325
▁కబ్జా	-7326
▁కుమార	-7327
▁కొబ్బ	-7328
▁దారుణ	-7329
▁పొందే	-7330
▁స్థిర	-7331
▁కళాశాల	-7332
▁టేబుల్	-7333
▁దాడిలో	-7334
▁ఫోన్లు	-7335
▁మావోయి	-7336
▁మొత్తంగా	-7337
▁స్థాయికి	-7338
▁వస్తువులు	-7339
▁ఎలక్ట్రిక్	-7340
దొ	-7341
లక్	-7342
▁ఊర	-7343
▁హృ	-7344
బ్రి	-7345
శాయి	-7346
▁అదృ	-7347
▁ఏది	-7348
▁ఐదో	-7349
▁బయో	-7350
గాలని	-7351
మయ్యే	-7352
▁కండు	-7353
▁జియో	-7354
▁ధన్య	-7355
▁శిశు	-7356
▁శ్రా	-7357
▁సీన్	-7358
▁దీర్ఘ	-7359
▁భూపాల	-7360
▁మునిగి	-7361
▁దగ్గరకు	-7362
▁నిలిచిన	-7363
▁మోస్తరు	-7364
▁భారతదేశం	-7365
▁ముగిసింది	-7366
▁రెగ్యులర్	-7367
▁మొత్తాన్ని	-7368
11	-7369
ಿಗೆ	-7370
టాన్	-7371
బియా	-7372
టేషన్	-7373
ವನ್ನು	-7374
▁చాట్	-7375
▁తీసే	-7376
▁నెస్	-7377
▁మిల్ల	-7378
▁సందేశ	-7379
▁పనిచేయ	-7380
▁స్టీల్	-7381
▁గ్రామాల	-7382
▁హాస్టల్	-7383
▁నగరంలోని	-7384
▁పండితులు	-7385
▁చిత్రాన్ని	-7386
▁శంకుస్థాపన	-7387
ందట	-7388
▁ఎఫ	-7389
▁టూ	-7390
▁తూ	-7391
లోగా	-7392
▁ఎంజ	-7393
కోండి	-7394
రులను	-7395
శాలలో	-7396
▁గంగా	-7397
▁లాభం	-7398
▁వెను	-7399
▁కష్టం	-7400
▁తప్పి	-7401
▁పురస్	-7402
▁వైయస్	-7403
▁సదస్సు	-7404
▁సైన్యం	-7405
▁గిరిజను	-7406
కునేందుకు	-7407
▁ఇచ్చారని	-7408
▁కేసుల్లో	-7409
▁నినాదాలు	-7410
▁నిందితులను	-7411
▁సిద్ధరామయ్య	-7412
▁రాష్ట్రాన్ని	-7413
▁ಚ	-7414
ರಲ್	-7415
సైజ్	-7416
▁కోర	-7417
▁లేన	-7418
కెళ్ల	-7419
▁అమర్	-7420
▁వేసే	-7421
వాదాలు	-7422
▁చిరుత	-7423
▁ఉత్తమ్	-7424
▁పెట్టడం	-7425
▁భూములను	-7426
▁విస్తరణ	-7427
▁క్రెడిట్	-7428
▁లక్ష్మణ్	-7429
ణిక	-7430
పడా	-7431
మానా	-7432
మూరి	-7433
▁రకర	-7434
జేషన్	-7435
పించే	-7436
లక్షల	-7437
▁ఎవరో	-7438
▁చంపే	-7439
▁త్యా	-7440
▁అబద్ధ	-7441
▁ఫిక్స్	-7442
▁ఆంక్షలు	-7443
పెట్టింది	-7444
▁సరికొత్త	-7445
▁అవకాశముందని	-7446
▁నిర్మించారు	-7447
తార	-7448
▁37	-7449
చర్ల	-7450
సీబీ	-7451
▁నీర	-7452
▁సంక	-7453
తోన్న	-7454
▁అనర్	-7455
▁మినహ	-7456
▁కేసుల	-7457
మెంట్స్	-7458
▁తెలుసా	-7459
▁దోచుకు	-7460
▁బుమ్రా	-7461
▁వార్తా	-7462
▁మేడ్చల్	-7463
▁పర్యటనలో	-7464
▁సమస్యలపై	-7465
▁కురుస్తాయని	-7466
టల	-7467
▁సగం	-7468
▁ఇకపై	-7469
ండ్లను	-7470
▁నాశనం	-7471
▁వేలకు	-7472
▁అనారోగ	-7473
▁ట్రోఫీ	-7474
▁పార్ట్	-7475
▁ప్రియు	-7476
▁సొమ్ము	-7477
కారానికి	-7478
▁చెబుతారు	-7479
▁విచారణను	-7480
▁కావాల్సిన	-7481
▁పొందుతారు	-7482
▁ప్రారంభోత్స	-7483
ند	-7484
ాలె	-7485
▁55	-7486
▁దయా	-7487
చింగ్	-7488
నివ్వ	-7489
రులకు	-7490
లేషన్	-7491
ుకునే	-7492
▁గడ్డ	-7493
▁పదవీ	-7494
▁పన్న	-7495
▁సుధా	-7496
ల్దార్	-7497
▁రిటర్	-7498
▁కావాలి	-7499
▁పెడితే	-7500
▁సృష్టి	-7501
▁ప్రార్థ	-7502
▁ప్రతిష్టా	-7503
▁పార్టీలోకి	-7504
▁భూపాలపల్లి	-7505
▁యుక్రెయిన్	-7506
▁44	-7507
వాడ్	-7508
▁నేల	-7509
▁అంతర	-7510
▁వేరు	-7511
▁కింగ్	-7512
▁పనికి	-7513
▁మహేశ్	-7514
▁సరికా	-7515
▁ఆప్షన్	-7516
▁చైతన్య	-7517
▁తుమ్మల	-7518
▁నిషేధం	-7519
▁పేలుడు	-7520
▁రాశిలో	-7521
▁స్వచ్ఛ	-7522
▁అయ్యాడు	-7523
▁ఎస్టేట్	-7524
▁మధ్యంతర	-7525
▁ప్రమోషన్	-7526
▁భావించారు	-7527
▁అందించాలని	-7528
▁వికారాబాద్	-7529
పోత	-7530
ాంగ	-7531
▁ఆరం	-7532
▁ఈవో	-7533
▁కలగ	-7534
▁నిమ	-7535
▁పైల	-7536
పిల్ల	-7537
▁2009	-7538
▁గమని	-7539
▁మూసీ	-7540
▁రాసి	-7541
ట్యూట్	-7542
▁మౌలిక	-7543
▁సచిన్	-7544
▁ವೈರಲ್	-7545
▁సేవలను	-7546
▁కింగ్స్	-7547
▁చేయాలనే	-7548
▁చేస్తాం	-7549
▁ఇవ్వలేదు	-7550
▁బీజేపీతో	-7551
▁నిలదీశారు	-7552
▁సిద్దరామయ్య	-7553
▁ప్రారంభించింది	-7554
జీవ	-7555
▁ಮಾಡ	-7556
▁ఇస్లా	-7557
▁పవార్	-7558
▁మస్క్	-7559
▁విత్త	-7560
పడ్డాయి	-7561
▁ఆలస్యం	-7562
▁ఫోటోలు	-7563
భివృద్ధి	-7564
▁ఛత్తీస్	-7565
▁రైతులను	-7566
▁విభాగంలో	-7567
▁వ్యతిరేకత	-7568
▁జీవితాన్ని	-7569
▁ప్రత్యర్థి	-7570
▁కల్పించాలని	-7571
▁W	-7572
లిన్	-7573
▁ఓటే	-7574
▁ముగ	-7575
సాగర్	-7576
▁జట్ల	-7577
▁లోపల	-7578
▁ఆదర్శ	-7579
▁స్థలం	-7580
▁పత్రిక	-7581
▁ప్రాక్	-7582
▁సంతోష్	-7583
▁అధిష్టా	-7584
▁కస్టమర్	-7585
▁సింగిల్	-7586
▁బంధువులు	-7587
▁అధ్యక్షులు	-7588
▁ఫిర్యాదులు	-7589
▁తెలంగాణలోని	-7590
ଙ୍	-7591
మస్	-7592
▁అథ	-7593
వీర్	-7594
షేక్	-7595
సియా	-7596
ాయత్	-7597
గాంధీ	-7598
▁చేతి	-7599
▁తయార	-7600
▁రియా	-7601
▁లావా	-7602
▁సాగి	-7603
▁కుంభకో	-7604
▁క్యాంప	-7605
▁ఫోర్లు	-7606
▁చిత్రంలో	-7607
▁రీసెర్చ్	-7608
▁రోడ్డుపై	-7609
▁ఏర్పాటుకు	-7610
▁ఎమ్మెల్యేల	-7611
▁భవిష్యత్తులో	-7612
ూర	-7613
ఏసీ	-7614
మండ	-7615
ಿರು	-7616
▁ہم	-7617
▁హే	-7618
▁వెయి	-7619
▁కోరిన	-7620
▁పంటలు	-7621
▁షుగర్	-7622
పడ్డాడు	-7623
తున్నాడు	-7624
▁ఆరుగురు	-7625
▁ఏడాదికి	-7626
▁ట్రెండ్	-7627
▁రోడ్లపై	-7628
▁విపరీతంగా	-7629
▁ఒలింపిక్స్	-7630
▁స్పందిస్తూ	-7631
▁జరగనున్నాయి	-7632
▁ప్రత్యేకమైన	-7633
దండ	-7634
పిన	-7635
దలకు	-7636
విలో	-7637
▁జడే	-7638
▁లపై	-7639
డర్స్	-7640
ర్లకు	-7641
▁మిలి	-7642
మాత్రం	-7643
లెక్స్	-7644
▁ఆలోచి	-7645
▁బయటపడ	-7646
▁సైన్స్	-7647
ించుకొని	-7648
▁చివరికి	-7649
▁దంపతులు	-7650
▁మండలంలో	-7651
▁ప్రయోజనం	-7652
▁సంక్షేమం	-7653
▁ఉంటున్నారు	-7654
ంబి	-7655
టమే	-7656
▁త్	-7657
ధారణ	-7658
▁కంగ	-7659
▁జరప	-7660
▁బీఐ	-7661
ంటినీ	-7662
▁అనూహ	-7663
▁ట్లు	-7664
▁యూత్	-7665
▁శారీ	-7666
▁ఐసీసీ	-7667
▁ప్రయో	-7668
▁రెండి	-7669
▁దూకుడు	-7670
▁నమోదైన	-7671
▁రాకెట్	-7672
▁రెస్పా	-7673
▁వేయాలని	-7674
▁నాంపల్లి	-7675
▁పునరుద్ధ	-7676
▁ప్రతికూల	-7677
▁ఉద్దేశించి	-7678
▁మల్లారెడ్డి	-7679
▁నిర్వహిస్తారు	-7680
▁నిర్వహిస్తున్న	-7681
କୁ	-7682
▁(5	-7683
లాడు	-7684
లీట్	-7685
లూరు	-7686
ష్టి	-7687
▁ఉపశ	-7688
▁రాణ	-7689
ంటాడు	-7690
▁ఫీచర్	-7691
▁బెంచ్	-7692
▁లబ్ది	-7693
▁శతాబ్	-7694
రాష్ట్ర	-7695
▁అడిగిన	-7696
▁క్రైమ్	-7697
▁తీరుపై	-7698
▁నరసింహ	-7699
▁హక్కుల	-7700
కున్నాడు	-7701
▁కర్నూల్	-7702
▁నిర్ధార	-7703
▁హాజరుకా	-7704
▁ఇండియాలో	-7705
▁తెలుగులో	-7706
▁బిల్లులు	-7707
▁క్రిమినల్	-7708
భై	-7709
ುದ	-7710
▁ح	-7711
▁ह	-7712
▁ణ	-7713
▁ఆర	-7714
▁ప్ల	-7715
▁ఆశలు	-7716
▁తిరి	-7717
▁పోయి	-7718
▁యోగం	-7719
▁వారే	-7720
పెట్టు	-7721
▁అరుణ్	-7722
▁రౌండ్	-7723
▁ఏకాదశి	-7724
▁కిడ్నా	-7725
▁కొట్టే	-7726
▁పక్కనే	-7727
▁పోలవరం	-7728
▁శివారు	-7729
▁ఎగ్జిట్	-7730
▁గ్రాండ్	-7731
▁సిస్టమ్	-7732
▁పాల్గొని	-7733
▁భిన్నంగా	-7734
▁ఆరోగ్యంగా	-7735
▁నిరుద్యోగ	-7736
▁శ్రీకాంత్	-7737
▁నిర్ణయాన్ని	-7738
▁పెరుగుతోంది	-7739
ing	-7740
కట్	-7741
డవు	-7742
లాట	-7743
▁గై	-7744
రుడు	-7745
వాలో	-7746
▁అంజ	-7747
▁మాధ	-7748
▁హృద	-7749
గులకు	-7750
ెక్కు	-7751
▁కనీస	-7752
▁లోతు	-7753
▁అద్దె	-7754
▁ఎస్సై	-7755
▁కన్వీ	-7756
ండ్లుగా	-7757
▁పదేళ్ల	-7758
▁బిజీగా	-7759
▁రూల్స్	-7760
▁వారంతా	-7761
▁అశ్విన్	-7762
▁ప్రాంతాలు	-7763
▁స్వాతంత్ర	-7764
▁చేస్తామన్నారు	-7765
ధన	-7766
కోట	-7767
క్కీ	-7768
▁ఆకు	-7769
▁తహసీ	-7770
▁దాస్	-7771
▁నెక్	-7772
▁ఆయనపై	-7773
▁జడేజా	-7774
▁నిషేధ	-7775
న్నట్లు	-7776
▁కృతజ్ఞ	-7777
▁కొంచెం	-7778
▁ఎక్సైజ్	-7779
▁దేశాలకు	-7780
▁నిధులను	-7781
▁సమాజంలో	-7782
▁ఉద్యోగాల	-7783
▁తెలిపాడు	-7784
▁ఆసిఫాబాద్	-7785
▁తీసుకెళ్లారు	-7786
▁ధను	-7787
▁బండ	-7788
పూర్ణ	-7789
రెంట్	-7790
▁ఆధిక	-7791
▁అనుకో	-7792
▁చేశాం	-7793
▁తక్షణ	-7794
▁పునరా	-7795
▁వరుణ్	-7796
▁ఒక్కరూ	-7797
▁ట్రీట్	-7798
▁రిజర్వ	-7799
▁సంగీతం	-7800
▁ఉంటారని	-7801
▁క్రమంగా	-7802
▁బీజేపీని	-7803
▁ఇంటర్నెట్	-7804
▁వార్నింగ్	-7805
▁విధానాన్ని	-7806
▁అభ్యర్థులకు	-7807
▁వచ్చినప్పుడు	-7808
▁p	-7809
ఎండీ	-7810
తులపై	-7811
వాలను	-7812
▁పేర్	-7813
▁బాయ్	-7814
పోతాయి	-7815
స్తారా	-7816
▁జీఎస్	-7817
▁పలుకు	-7818
▁బెల్ల	-7819
▁యూజర్	-7820
▁ఉద్యమం	-7821
▁సెర్చ్	-7822
▁కంపెనీల	-7823
▁యాదగిరి	-7824
▁గెలిచారు	-7825
▁పెట్టాలని	-7826
▁ఇంజినీరింగ్	-7827
▁చెప్పినట్లు	-7828
ur	-7829
ంపి	-7830
ఫోన్	-7831
బ్బా	-7832
▁ఊరు	-7833
▁చలి	-7834
▁తేజ	-7835
▁ముహ	-7836
▁వాన	-7837
ైర్యం	-7838
▁మిని	-7839
త్తుగా	-7840
ల్లోని	-7841
విధంగా	-7842
▁గౌరవం	-7843
▁సురేఖ	-7844
▁ఎనర్జీ	-7845
▁ఒక్కరి	-7846
▁చెట్టు	-7847
▁మొగ్గు	-7848
▁రూపాయి	-7849
▁పత్రాలు	-7850
▁విరుచుకు	-7851
▁ప్రారంభమైన	-7852
▁నాగేశ్వరరావు	-7853
గన్	-7854
మీద	-7855
▁46	-7856
▁ఖరీ	-7857
ందరగో	-7858
▁గాను	-7859
▁డెడ్	-7860
▁పాటి	-7861
▁బూత్	-7862
▁శ్రమ	-7863
▁పట్టా	-7864
▁వదులు	-7865
▁శాశ్వ	-7866
▁ఫిల్మ్	-7867
▁లెక్కి	-7868
▁ఇస్తారు	-7869
▁ప్రత్యా	-7870
▁తీర్పును	-7871
▁విదేశాంగ	-7872
▁భద్రాద్రి	-7873
▁మండలాల్లో	-7874
▁పరిశీలించి	-7875
▁హెచ్చరికలు	-7876
):	-7877
గణ	-7878
చర	-7879
మేజ్	-7880
▁నెహ	-7881
▁సరే	-7882
ముందే	-7883
▁రోల్	-7884
▁సవరణ	-7885
ట్టుకో	-7886
▁అడ్డం	-7887
▁కీపర్	-7888
▁నైపుణ	-7889
▁పత్తి	-7890
▁వినతి	-7891
▁గందరగో	-7892
▁పోటీలో	-7893
▁జట్టును	-7894
▁విమానంలో	-7895
▁శ్రేణులు	-7896
▁సభ్యులతో	-7897
▁సిలిండర్	-7898
▁ఉపయోగించి	-7899
▁ప్రత్యామ్	-7900
▁చేస్తోందని	-7901
▁ఇంటర్వ్యూలో	-7902
▁గ్రామస్తులు	-7903
నాథ	-7904
వరూ	-7905
▁ای	-7906
కమైన	-7907
దేవీ	-7908
ష్యం	-7909
▁దాట	-7910
▁మాల	-7911
▁అలియా	-7912
▁చేరిక	-7913
▁విధ్వ	-7914
▁సమ్మె	-7915
▁కార్డ్	-7916
▁చేయడమే	-7917
▁పోల్స్	-7918
▁లిస్టు	-7919
ించలేదని	-7920
▁పోయింది	-7921
▁ప్రశంసలు	-7922
▁భాగంగానే	-7923
▁అనుమానాలు	-7924
▁ఉష్ణోగ్రత	-7925
▁వ్యక్తికి	-7926
▁రాష్ట్రాలు	-7927
▁రెస్టారెంట్	-7928
▁రిజర్వేషన్లు	-7929
نگ	-7930
▁Y	-7931
ందన్	-7932
క్టు	-7933
మూరు	-7934
▁ఉస్	-7935
▁వ్ర	-7936
▁శోభ	-7937
వాళ్ల	-7938
▁కుదు	-7939
▁గుప్	-7940
▁డీసీ	-7941
▁శ్యా	-7942
▁సునీత	-7943
రిగేషన్	-7944
▁అంబానీ	-7945
▁కార్యా	-7946
▁కాలేజ్	-7947
▁పదవులు	-7948
▁వారంలో	-7949
ించనున్న	-7950
▁వికెట్ల	-7951
▁స్వేచ్ఛ	-7952
▁టీపీసీసీ	-7953
▁వర్షపాతం	-7954
▁శాతానికి	-7955
▁ఆహ్వానించ	-7956
▁కేటాయించారు	-7957
▁ప్రారంభమైంది	-7958
▁X	-7959
పబ్	-7960
వైసీ	-7961
శిక్	-7962
▁ఆత్	-7963
▁కాద	-7964
▁లైస	-7965
ామంటూ	-7966
▁ఎలాగ	-7967
▁ధోనీ	-7968
▁నైట్	-7969
దాబాద్	-7970
▁ఎడ్యు	-7971
▁నిమ్మ	-7972
డేందుకు	-7973
▁ఆదేశాల	-7974
▁నిదర్శ	-7975
▁బొగ్గు	-7976
▁రాజన్న	-7977
▁వెళ్లడం	-7978
▁అభ్యంతరం	-7979
▁ఒకప్పుడు	-7980
▁చూసేందుకు	-7981
▁వెళ్లింది	-7982
▁వ్యతిరేకి	-7983
▁చేపట్టింది	-7984
av	-7985
ଡି	-7986
కడ	-7987
షు	-7988
నమి	-7989
క్యం	-7990
డాడు	-7991
డార్	-7992
డ్యు	-7993
ొచ్చ	-7994
▁400	-7995
▁పశు	-7996
భవార్	-7997
▁దిగ్గ	-7998
▁మత్తు	-7999
▁మళ్ళీ	-8000
▁సజ్జల	-8001
▁నిజంగా	-8002
▁నెట్టి	-8003
▁సంచలనం	-8004
▁సిక్స్	-8005
▁పేర్లను	-8006
▁బ్యానర్	-8007
▁కనిపించే	-8008
▁కమ్యూనిటీ	-8009
▁దరఖాస్తులు	-8010
▁క్యారెక్టర్	-8011
▁ప్రతిపక్షాలు	-8012
ew	-8013
దవ	-8014
▁ಗ	-8015
ంకా	-8016
కెళ్	-8017
▁କରି	-8018
▁ఆమ్	-8019
▁భయా	-8020
▁రక్	-8021
మేనని	-8022
వర్తి	-8023
▁ధ్రు	-8024
▁లోన్	-8025
ండటంతో	-8026
మెన్స్	-8027
▁దక్కు	-8028
▁వ్యూహ	-8029
▁సీఈవో	-8030
▁అభినంద	-8031
▁ఉప్పల్	-8032
▁జూబ్లీ	-8033
▁ఫొటోలు	-8034
వినియోగం	-8035
▁గట్టిగా	-8036
▁జరిమానా	-8037
▁ఇరిగేషన్	-8038
▁ధన్యవాదాలు	-8039
▁విజయవంతంగా	-8040
80	-8041
థో	-8042
▁అణ	-8043
▁وائ	-8044
ంజనేయ	-8045
రోజుల	-8046
▁తేజ్	-8047
▁నింప	-8048
▁విస్	-8049
షాబాద్	-8050
▁కాంప్	-8051
▁క్లబ్	-8052
▁గౌతమ్	-8053
ంగాన్ని	-8054
▁ఏజెంట్	-8055
▁కొద్దీ	-8056
▁కౌశిక్	-8057
▁ఖాయమని	-8058
▁ఛానెల్	-8059
▁అభిషేక్	-8060
▁మల్లన్న	-8061
▁శుభవార్	-8062
▁జరగకుండా	-8063
▁సభ్యులకు	-8064
▁చెల్లింపు	-8065
ంఠ	-8066
షభ	-8067
త్రు	-8068
షియం	-8069
ెత్తి	-8070
▁రూట్	-8071
▁ఏడుగు	-8072
▁ఓటర్ల	-8073
దించారు	-8074
▁ఏఐసీసీ	-8075
▁విషాదం	-8076
▁డాలర్లు	-8077
▁అంశాన్ని	-8078
▁గెలిస్తే	-8079
▁వ్యవసాయం	-8080
▁సిద్ధమవు	-8081
▁క్వార్టర్	-8082
▁జగన్మోహన్	-8083
▁విద్యాశాఖ	-8084
▁పిలుస్తారు	-8085
▁ఆరోపిస్తున్నారు	-8086
را	-8087
عو	-8088
ದೇ	-8089
క్వ	-8090
డ్ర	-8091
తిన	-8092
తిప	-8093
▁39	-8094
ందారు	-8095
చోట్ల	-8096
త్మిక	-8097
నాలకు	-8098
రాజ్య	-8099
▁అల్ప	-8100
▁కొరత	-8101
▁నెలా	-8102
▁ఫిట్	-8103
▁భారం	-8104
▁మళ్ల	-8105
▁యంగ్	-8106
▁రాణి	-8107
పాన్ని	-8108
▁ఈదురు	-8109
▁లాంచ్	-8110
▁దొరుకు	-8111
ించనుంది	-8112
▁అభినందించ	-8113
▁చూపించారు	-8114
▁స్టాగ్రామ్	-8115
▁విగ్రహాన్ని	-8116
▁65	-8117
పురి	-8118
▁సుఖ	-8119
▁సేవా	-8120
▁కట్టి	-8121
▁వర్షా	-8122
పల్లిలో	-8123
ఫరెన్స్	-8124
▁చెబుతూ	-8125
▁రకరకాల	-8126
ించేవారు	-8127
▁తరుణంలో	-8128
▁ఆందోళనలు	-8129
▁టీడీపీకి	-8130
▁లావాదేవీ	-8131
▁జరిగినట్లు	-8132
▁బెంగళూరులోని	-8133
رل	-8134
ಾನ	-8135
com	-8136
▁డు	-8137
టికీ	-8138
లిలో	-8139
లీష్	-8140
సాన్	-8141
▁196	-8142
▁ఆడు	-8143
▁తను	-8144
▁బేస్	-8145
జెన్సీ	-8146
ించడమే	-8147
▁క్రీడ	-8148
▁డయాబె	-8149
▁రింగ్	-8150
▁ఓపెనర్	-8151
▁తీర్చి	-8152
▁విడిచి	-8153
▁సేఫ్టీ	-8154
▁అమెజాన్	-8155
▁ఇవ్వాలి	-8156
▁ఏళ్లుగా	-8157
▁ప్రవర్త	-8158
▁సినిమాల	-8159
▁జాబితాను	-8160
▁దేశాన్ని	-8161
▁శంషాబాద్	-8162
▁కార్యాచరణ	-8163
▁మొదటిసారి	-8164
▁నిర్వాహకులు	-8165
▁ప్రచారాన్ని	-8166
▁కేంద్రమంత్రి	-8167
▁అందిస్తున్నారు	-8168
▁स	-8169
▁రష్	-8170
ంటికి	-8171
వర్గం	-8172
▁తవ్వ	-8173
▁నివస	-8174
▁రుతుప	-8175
▁గోపాల్	-8176
▁డ్యూటీ	-8177
▁విలీనం	-8178
▁కార్తీక	-8179
▁నిరసనలు	-8180
▁రవీందర్	-8181
▁చెప్పడంతో	-8182
▁జిల్లాలకు	-8183
▁ట్యాపింగ్	-8184
▁వర్గాల్లో	-8185
▁విధించారు	-8186
▁శరీరానికి	-8187
▁కేంద్రాల్లో	-8188
▁సురక్షితంగా	-8189
▁కొనసాగుతున్నాయి	-8190
تے	-8191
.12	-8192
జాల	-8193
పీడ	-8194
గిరీ	-8195
డంపై	-8196
ెన్న	-8197
▁మసీ	-8198
▁సుధ	-8199
కుంటూ	-8200
సేపటి	-8201
▁ఎమర్	-8202
▁పచ్చ	-8203
▁పైనే	-8204
తున్నా	-8205
▁అన్నా	-8206
▁స్టడీ	-8207
▁తుపాను	-8208
▁మైక్రో	-8209
▁బ్రహ్మో	-8210
▁కార్డులు	-8211
▁రెండేళ్ల	-8212
▁వినిపించ	-8213
▁దేవస్థానం	-8214
▁మార్గదర్శ	-8215
▁ప్రజల్లోకి	-8216
▁ప్లాస్టిక్	-8217
▁చేయాలన్నారు	-8218
▁خ	-8219
నియ	-8220
▁అలం	-8221
▁అసా	-8222
ధులతో	-8223
▁పనుల	-8224
▁రాధా	-8225
మ్రాన్	-8226
▁కానుక	-8227
▁చిక్క	-8228
▁బకాయి	-8229
▁మీదకు	-8230
▁శ్రావ	-8231
▁శ్రీరా	-8232
▁శ్రీశై	-8233
▁సాయంతో	-8234
▁అందరినీ	-8235
▁అనుమాని	-8236
▁ఉద్యోగి	-8237
▁లక్ష్మి	-8238
▁ఆలస్యంగా	-8239
▁పథకాన్ని	-8240
▁దినోత్సవం	-8241
▁మెగాస్టార్	-8242
▁కౌన్సిలర్లు	-8243
▁తప్పనిసరిగా	-8244
ించుకోవడానికి	-8245
▁పరిస్థితులను	-8246
▁म	-8247
ہیں	-8248
ధిప	-8249
వేయ	-8250
▁తోట	-8251
▁మొహ	-8252
పరంగా	-8253
మంత్ర	-8254
▁వైట్	-8255
▁సేవల	-8256
▁తింటే	-8257
▁చర్చకు	-8258
▁నామినే	-8259
▁పండ్లు	-8260
▁వయసులో	-8261
▁శ్రద్ధ	-8262
▁క్యాడర్	-8263
▁సెలవులు	-8264
▁కన్వీనర్	-8265
▁కాశ్మీర్	-8266
▁ప్రతిపాద	-8267
వుతున్నారు	-8268
▁కార్యకలాప	-8269
▁చెప్పారని	-8270
▁నమోదయ్యాయి	-8271
▁చేసుకుంటున్నారు	-8272
ch	-8273
ఐఆర్	-8274
క్షా	-8275
వాసీ	-8276
▁విడ	-8277
▁అంకి	-8278
▁గాలు	-8279
▁నచ్చ	-8280
▁బ్యూ	-8281
▁రెండవ	-8282
▁వివాద	-8283
▁సరిపో	-8284
డబ్ల్యూ	-8285
▁ఎంజాయ్	-8286
▁పోటీకి	-8287
▁వెస్టి	-8288
▁ఏమాత్రం	-8289
▁చేయాలను	-8290
▁అమెరికన్	-8291
▁వ్యక్తుల	-8292
▁ప్రాతినిధ్యం	-8293
భరణ	-8294
ಾವು	-8295
▁చిక	-8296
గింపు	-8297
జికల్	-8298
వడంతో	-8299
ాల్సి	-8300
▁ఆకాం	-8301
▁పంపు	-8302
▁పేదల	-8303
▁మామూ	-8304
▁రిపే	-8305
▁శాఖల	-8306
యాల్సి	-8307
▁ఇదంతా	-8308
▁నివాళ	-8309
▁నేర్చ	-8310
▁పచ్చి	-8311
▁లాంగ్	-8312
▁సభ్యు	-8313
▁కాల్స్	-8314
▁నెహ్రూ	-8315
▁బాగానే	-8316
▁మెయిన్	-8317
▁క్యాంప్	-8318
▁దక్కింది	-8319
▁నిమిత్తం	-8320
▁మీడియాకు	-8321
▁స్థితిలో	-8322
▁వంశీకృష్ణ	-8323
▁సంక్రాంతి	-8324
▁విదేశాల్లో	-8325
▁వివాదాస్పద	-8326
▁వెస్టిండీస్	-8327
▁కొనసాగుతుంది	-8328
టూ	-8329
ంచీ	-8330
▁కద	-8331
మన్న	-8332
ాలిన్	-8333
▁పంత్	-8334
▁బెట్	-8335
▁రజనీ	-8336
కరించి	-8337
▁ఎంఐఎం	-8338
▁మెదడు	-8339
▁రిపబ్	-8340
▁వర్గీ	-8341
▁చేసేలా	-8342
▁మందులు	-8343
▁పథకాలను	-8344
▁పరిమితం	-8345
▁సల్మాన్	-8346
లేకపోయారు	-8347
▁ఇస్తుంది	-8348
▁జార్ఖండ్	-8349
▁పాయింట్ల	-8350
▁ప్రాంతీయ	-8351
▁సురక్షిత	-8352
▁ఇవ్వకుండా	-8353
▁కుమారస్వామి	-8354
▁బాధపడుతున్న	-8355
▁గుర్తుచేశారు	-8356
▁తీసుకున్నట్లు	-8357
ామం	-8358
▁54	-8359
స్కృ	-8360
▁కమీ	-8361
▁వంత	-8362
▁ముడి	-8363
▁పునర్	-8364
▁సైనిక	-8365
▁ఎంపీపీ	-8366
▁విగ్రహ	-8367
▁వెస్ట్	-8368
▁ఒంటరిగా	-8369
▁క్యాంపు	-8370
▁పర్మిషన్	-8371
▁పట్టుకుని	-8372
▁బాధ్యతలను	-8373
▁సహాయపడుతుంది	-8374
ಿನ	-8375
న్నత	-8376
ఫీస్	-8377
ాయనే	-8378
ైనర్	-8379
రులతో	-8380
▁ఐఆర్	-8381
▁జేపీ	-8382
▁దిల్	-8383
▁ఫ్లై	-8384
▁మెన్	-8385
▁వర్గ	-8386
▁వీసా	-8387
వుతాయి	-8388
▁అల్పపీడ	-8389
▁శ్రీహరి	-8390
▁కట్టుబడి	-8391
▁తెలంగాణా	-8392
▁ఉపాధ్యక్ష	-8393
▁బాధితులకు	-8394
▁తీసుకెళ్లి	-8395
▁రెండుసార్లు	-8396
▁ప్రస్తావించారు	-8397
▁సుప్రీంకోర్టులో	-8398
▁ط	-8399
పైన	-8400
వైన	-8401
▁యం	-8402
▁షె	-8403
నగరం	-8404
▁పెడ	-8405
▁ఫాం	-8406
▁మూల	-8407
▁లవ్	-8408
▁హేమ	-8409
▁కాలా	-8410
▁లోపం	-8411
▁శివా	-8412
డానికే	-8413
▁కలిగే	-8414
▁రహస్య	-8415
▁శ్వాస	-8416
▁ఇంటిని	-8417
▁క్లిక్	-8418
▁దేవరకొండ	-8419
▁అద్భుతంగా	-8420
▁స్థానాలను	-8421
▁స్పెక్టర్	-8422
▁కల్వకుంట్ల	-8423
▁గాయపడ్డారు	-8424
▁గెలిపించాలని	-8425
జయ	-8426
▁*	-8427
ang	-8428
గని	-8429
▁49	-8430
..!!	-8431
టీన్	-8432
ష్ఠా	-8433
▁విశ	-8434
వాలని	-8435
▁2015	-8436
▁కమర్	-8437
▁చూశా	-8438
▁జీపీ	-8439
▁జ్యు	-8440
▁రైస్	-8441
▁వృషభ	-8442
▁తలుపు	-8443
▁న్యూయ	-8444
▁రకాలు	-8445
▁కిడ్నీ	-8446
▁చేతికి	-8447
▁ట్రైన్	-8448
▁ధైర్యం	-8449
▁మ్యాన్	-8450
▁వాణిజ్య	-8451
▁సానుకూల	-8452
▁రంగాల్లో	-8453
▁సందర్బంగా	-8454
▁హెలికాప్టర్	-8455
▁చేసుకోవడానికి	-8456
▁హెచ్చరించింది	-8457
ಾಗಿ	-8458
▁తృ	-8459
కట్ట	-8460
▁2025	-8461
▁డ్రి	-8462
▁పాజి	-8463
▁మీట్	-8464
▁శిబి	-8465
ేశారని	-8466
▁పరిసర	-8467
▁బాధిత	-8468
క్షేత్ర	-8469
స్తులను	-8470
▁గద్వాల	-8471
▁డీసీపీ	-8472
▁డ్రోన్	-8473
▁ఫలితాల	-8474
▁సూర్యు	-8475
▁ఆఫీసులో	-8476
▁మేడిగడ్డ	-8477
▁స్ఫూర్తి	-8478
▁అధిష్టానం	-8479
▁మారుతుంది	-8480
▁ఆరోగ్యాన్ని	-8481
▁బెల్లంపల్లి	-8482
یش	-8483
କ୍	-8484
రథ	-8485
ంగే	-8486
ణ్ణ	-8487
తేజ	-8488
హాన్	-8489
▁ఘనత	-8490
▁తడి	-8491
▁దర్	-8492
▁పరో	-8493
కాలకు	-8494
క్కడే	-8495
▁కాపు	-8496
▁కొలు	-8497
పిస్తే	-8498
▁గణేష్	-8499
▁ముమ్మ	-8500
▁కారణాల	-8501
▁గద్దర్	-8502
▁బట్టలు	-8503
▁రుణాలు	-8504
▁వేగంతో	-8505
్యాత్మిక	-8506
▁ఖర్చులు	-8507
▁డీఎస్పీ	-8508
▁నెలలుగా	-8509
▁వార్షిక	-8510
▁కిడ్నాప్	-8511
▁పంపించారు	-8512
▁ఇర	-8513
మాటా	-8514
▁194	-8515
▁తామ	-8516
▁అఖిల	-8517
▁కూల్	-8518
▁పాము	-8519
▁ప్రవ	-8520
▁రేణు	-8521
▁వీధి	-8522
▁ఇస్తూ	-8523
▁నివార	-8524
స్టింగ్	-8525
▁అదృష్ట	-8526
▁ఉపశమనం	-8527
▁ఒక్కటే	-8528
▁కొన్నే	-8529
▁బాక్సా	-8530
▁విరిగి	-8531
ెక్షన్స్	-8532
▁ఎమోషనల్	-8533
▁నిలబెట్	-8534
▁పాత్రలు	-8535
▁సన్నిహి	-8536
▁సిగ్నల్	-8537
▁అమల్లోకి	-8538
▁డైరెక్ట్	-8539
▁డ్యాన్స్	-8540
▁స్టాలిన్	-8541
▁తేలికపాటి	-8542
▁సౌకర్యాలు	-8543
▁న్యూయార్క్	-8544
▁ప్రమాదానికి	-8545
▁పెడుతున్నారు	-8546
▁బంగాళాఖాతంలో	-8547
ap	-8548
ହି	-8549
▁ఓం	-8550
▁భౌ	-8551
తికే	-8552
ొన్న	-8553
▁ఎయి	-8554
▁అంబు	-8555
▁టోల్	-8556
▁మారే	-8557
ండర్లు	-8558
▁وائرل	-8559
▁ఇందిర	-8560
▁దుబాయ్	-8561
▁పుతిన్	-8562
▁రేట్లు	-8563
▁ప్రకాశం	-8564
▁బాధితుల	-8565
▁సంవత్సర	-8566
▁చేయనున్న	-8567
▁టోర్నీలో	-8568
▁పరుగులకే	-8569
▁అత్యాచారం	-8570
▁కుటుంబాలు	-8571
▁కానున్నారు	-8572
▁ప్రయాణికుల	-8573
▁బ్రహ్మోత్స	-8574
▁మొదలుపెట్ట	-8575
▁రాజకీయాలకు	-8576
▁ఆశ్రయించారు	-8577
▁కాంప్లెక్స్	-8578
▁మహారాష్ట్రలో	-8579
6,	-8580
et	-8581
ana	-8582
టప్	-8583
మంత	-8584
▁43	-8585
ెండు	-8586
▁జన్	-8587
▁నటన	-8588
గుండం	-8589
సంస్థ	-8590
▁భావన	-8591
▁మాన్	-8592
▁సంయు	-8593
వర్ధన్	-8594
ారనేది	-8595
▁ఇంతకు	-8596
▁పెంపు	-8597
▁ఆర్ఎస్	-8598
▁కండువా	-8599
▁చేరుకో	-8600
▁పుట్టి	-8601
▁మనోహర్	-8602
▁మిగిలి	-8603
▁కుప్పకూ	-8604
▁తద్వారా	-8605
▁తర్వాతే	-8606
▁రైళ్లను	-8607
▁వర్సిటీ	-8608
▁ఎలక్ట్రా	-8609
▁రావాల్సి	-8610
పోతున్నాయి	-8611
▁ప్రతిరోజు	-8612
▁బ్యాంకులు	-8613
▁వ్యవహారాల	-8614
▁ఆధ్యాత్మిక	-8615
▁కార్పొరేట్	-8616
▁చేస్తున్నా	-8617
▁భావిస్తోంది	-8618
మూల	-8619
షణ్	-8620
తుకు	-8621
పైనా	-8622
రిలో	-8623
రోజూ	-8624
లాల్	-8625
ತ್ತು	-8626
▁టోక	-8627
▁నౌక	-8628
▁ఉపసం	-8629
▁పర్స	-8630
▁పీవీ	-8631
▁బందో	-8632
▁శిల్	-8633
▁కింది	-8634
▁లేఖలో	-8635
▁వినాయ	-8636
▁సంతకం	-8637
న్నారని	-8638
▁కామెడీ	-8639
▁నార్త్	-8640
▁బిర్యా	-8641
▁సీపీఎం	-8642
▁అథారిటీ	-8643
▁ఆసుపత్ర	-8644
▁పట్టాలు	-8645
▁బ్రాహ్మ	-8646
▁కార్యకర్తల	-8647
▁కుటుంబసభ్య	-8648
وس	-8649
డిక	-8650
ొమా	-8651
▁vs	-8652
▁అరి	-8653
▁ఈటల	-8654
▁టచ్	-8655
▁ఫెడ	-8656
▁శబ్	-8657
్యంతో	-8658
▁ఆభరణ	-8659
▁చిట్	-8660
▁టైటా	-8661
▁బ్లూ	-8662
▁డేవిడ్	-8663
▁యంత్రా	-8664
▁శక్తిని	-8665
▁సంక్షోభ	-8666
▁సుధాకర్	-8667
▁తీర్చిది	-8668
▁కమర్షియల్	-8669
▁వెళ్లాలని	-8670
▁జర్నలిస్టు	-8671
▁పర్యవేక్షణ	-8672
▁రెస్పాన్స్	-8673
▁ఆహ్వానించారు	-8674
▁నియోజకవర్గాల	-8675
▁పట్టుకున్నారు	-8676
▁మొదలుపెట్టారు	-8677
اب	-8678
ରା	-8679
ାନ	-8680
.40	-8681
ంజు	-8682
ఫల్	-8683
▁72	-8684
కొనే	-8685
భూతి	-8686
సాలు	-8687
ొప్పి	-8688
▁అడ్డ	-8689
▁కొంద	-8690
▁జరగా	-8691
▁మరణం	-8692
▁మాఫీ	-8693
▁శివు	-8694
▁హాఫ్	-8695
క్షంగా	-8696
ష్టంగా	-8697
▁అంగన్	-8698
▁ఆవిర్	-8699
▁తీర్థ	-8700
▁నడ్డా	-8701
▁బందోబ	-8702
▁బస్టా	-8703
▁లోకల్	-8704
▁సెషన్	-8705
తుంటాయి	-8706
లేకపోయా	-8707
▁ఇక్కడే	-8708
▁గ్యారె	-8709
▁అప్డేట్	-8710
▁అబ్బాయి	-8711
▁కార్మిక	-8712
▁వనపర్తి	-8713
▁అనంతపురం	-8714
▁ఆటగాళ్లు	-8715
▁ఆరోపణలపై	-8716
▁దేశంలోనే	-8717
▁రాకపోకలు	-8718
▁దర్శకత్వం	-8719
▁గవర్నమెంట్	-8720
▁తహసీల్దార్	-8721
▁పట్టణంలోని	-8722
▁సిబ్బందికి	-8723
▁తీసుకుంటున్నారు	-8724
ైక	-8725
లీల	-8726
క్కో	-8727
▁ఊరే	-8728
ెక్సీ	-8729
▁ఉందో	-8730
▁నక్ష	-8731
▁ఫౌండ	-8732
▁హాని	-8733
▁కీలకం	-8734
▁గుప్ప	-8735
▁పెంచే	-8736
▁ఫైబర్	-8737
▁స్కాం	-8738
విద్యాల	-8739
▁క్రిస్	-8740
▁జోక్యం	-8741
▁వాహనాల	-8742
▁వ్యాక్	-8743
▁స్నానం	-8744
▁సంరక్షణ	-8745
▁పర్యటనకు	-8746
▁ల్యాండర్	-8747
▁ఉండేందుకు	-8748
▁ఉక్రెయిన్	-8749
▁కంప్యూటర్	-8750
▁వందేభారత్	-8751
▁వ్యవహారంలో	-8752
▁భావిస్తున్న	-8753
18	-8754
ter	-8755
ణాల	-8756
నాకు	-8757
రెన్	-8758
▁ఆధు	-8759
▁ఎది	-8760
▁కరె	-8761
▁మాయ	-8762
జర్లు	-8763
ల్లర్	-8764
▁అవకా	-8765
▁కవర్	-8766
▁భరత్	-8767
▁సమాన	-8768
▁పిండి	-8769
▁ప్రసి	-8770
నన్నారు	-8771
మవుతాయి	-8772
▁అప్పుల	-8773
▁క్రాస్	-8774
▁క్లీన్	-8775
▁దొరికి	-8776
▁ఫండ్స్	-8777
బడుతుంది	-8778
▁ప్రపంచం	-8779
▁రేపింది	-8780
▁అందువల్ల	-8781
▁నగరాల్లో	-8782
▁పట్టణంలో	-8783
▁మరణించిన	-8784
▁మైనారిటీ	-8785
▁కృతజ్ఞతలు	-8786
▁కేటాయించిన	-8787
▁కార్మికులకు	-8788
▁పర్యటించారు	-8789
▁ప్రాంతంలోని	-8790
▁తీసుకొచ్చారు	-8791
▁సంవత్సరానికి	-8792
సొ	-8793
ంటె	-8794
రిన	-8795
ౌళి	-8796
▁అజ	-8797
▁ఊరట	-8798
▁కిష	-8799
▁బెడ	-8800
▁మైస	-8801
▁అవమా	-8802
▁ఖైదీ	-8803
▁రాగా	-8804
▁వికా	-8805
▁అంత్య	-8806
▁గల్ఫ్	-8807
▁చేతుల	-8808
▁జనార్	-8809
▁మర్చి	-8810
▁సుబ్బ	-8811
కపోయినా	-8812
▁ఉండదని	-8813
▁గులాబీ	-8814
▁గేమ్స్	-8815
▁సంతోషం	-8816
▁కేటగిరీ	-8817
▁కొబ్బరి	-8818
▁చేశాడని	-8819
▁పరీక్షల	-8820
▁సాంస్కృ	-8821
▁అమ్మకాలు	-8822
▁అర్హులైన	-8823
▁ప్రతిష్ట	-8824
▁వర్షాలకు	-8825
▁పడుతుందని	-8826
▁సామర్థ్యం	-8827
▁కలుగుతుంది	-8828
▁కాన్ఫరెన్స్	-8829
▁తెలియజేశారు	-8830
▁సర్టిఫికెట్	-8831
▁స్ట్రీమింగ్	-8832
ون	-8833
టె	-8834
ణే	-8835
కూర	-8836
నస్	-8837
భ్య	-8838
ಾರೆ	-8839
▁52	-8840
శాడు	-8841
▁ఎంబ	-8842
నికల్	-8843
రుకుల	-8844
ర్మనీ	-8845
▁అరటి	-8846
▁కళ్ల	-8847
▁మెయి	-8848
▁యోగా	-8849
▁సింధ	-8850
పడతాయి	-8851
▁ఎల్బీ	-8852
▁కర్కా	-8853
▁తరలివ	-8854
▁దగ్గు	-8855
▁పెంచి	-8856
▁సందడి	-8857
▁గుప్తా	-8858
▁టాస్క్	-8859
▁విస్తర	-8860
▁బ్యాటరీ	-8861
▁వచ్చాడు	-8862
▁పెరగడంతో	-8863
▁బెదిరింపు	-8864
▁భాగస్వామి	-8865
▁సముద్రంలో	-8866
▁అవకాశముంది	-8867
▁ఉద్యోగులను	-8868
▁కనిపించారు	-8869
▁కలెక్షన్స్	-8870
▁చేస్తుండగా	-8871
▁దర్శనానికి	-8872
▁పాల్గొంటారు	-8873
▁ఉన్నతాధికారు	-8874
▁విశ్వవిద్యాల	-8875
▁వెళ్లిపోయారు	-8876
▁ع	-8877
ೊಂಡ	-8878
▁47	-8879
గాలి	-8880
నాటి	-8881
▁మత్	-8882
▁లంచ	-8883
▁కాపీ	-8884
▁ఫీల్	-8885
▁రుచి	-8886
ఆర్ఆర్	-8887
బెల్లి	-8888
రుగ్గా	-8889
▁బహిష్	-8890
▁హుండీ	-8891
ెక్టార్	-8892
▁ఐదేళ్ల	-8893
▁కోవిడ్	-8894
▁జోరుగా	-8895
▁వస్త్ర	-8896
▁స్పీడ్	-8897
▁బదులుగా	-8898
▁మినహాయి	-8899
▁లక్షలకు	-8900
▁నిలిచాడు	-8901
▁రిటైర్డ్	-8902
▁ఇండియన్స్	-8903
▁పెట్టుబడు	-8904
▁ఎడ్యుకేషన్	-8905
▁కర్ణాటకలోని	-8906
14	-8907
▁195	-8908
▁ఎము	-8909
▁చవి	-8910
▁చీర	-8911
▁జ్వ	-8912
శక్తి	-8913
▁2011	-8914
▁వేలం	-8915
తాల్లో	-8916
లకుండా	-8917
▁పెండ్	-8918
▁పైలట్	-8919
▁మిశ్ర	-8920
▁వివరి	-8921
▁హామీల	-8922
స్తులకు	-8923
▁ఇవన్నీ	-8924
▁కీర్తి	-8925
▁కూర్చో	-8926
▁డాలర్ల	-8927
▁సురేశ్	-8928
▁అటువంటి	-8929
▁జంక్షన్	-8930
▁నిబంధనల	-8931
▁సాగింది	-8932
▁అక్టోబరు	-8933
▁చేయనుంది	-8934
▁రోజురోజు	-8935
▁ఇవ్వలేదని	-8936
▁ఎమర్జెన్సీ	-8937
▁ప్రభుత్వమే	-8938
▁సిబ్బందిని	-8939
▁లక్ష్యాన్ని	-8940
▁వివరించింది	-8941
కటి	-8942
తారా	-8943
వాతి	-8944
▁ఉరి	-8945
▁నిఖ	-8946
▁పేష	-8947
▁కేర్	-8948
▁తేల్	-8949
క్వాడ్	-8950
▁పొడిగ	-8951
▁మినహా	-8952
▁రన్స్	-8953
లతోపాటు	-8954
▁గొడవలు	-8955
▁దూసుకు	-8956
▁బాలయ్య	-8957
▁వారాహి	-8958
▁వాషింగ్	-8959
▁సర్వీసు	-8960
▁ఉండొచ్చు	-8961
▁చెప్పినా	-8962
▁బిర్యానీ	-8963
▁వాహనాలను	-8964
▁తెరకెక్కి	-8965
▁బందోబస్తు	-8966
చుకో	-8967
రాడు	-8968
▁دعو	-8969
▁ପ୍ର	-8970
▁ఐస్	-8971
▁ర్శ	-8972
పత్రం	-8973
▁అశ్వ	-8974
▁ఒంటి	-8975
▁దిగ్	-8976
తుందనే	-8977
▁మసీదు	-8978
▁చికెన్	-8979
▁బ్రిటి	-8980
▁ముగిసే	-8981
పడ్డారని	-8982
▁అబ్దుల్	-8983
▁కష్టపడి	-8984
▁ప్రకాశ్	-8985
▁ఐక్యరాజ్య	-8986
▁కాంట్రాక్ట్	-8987
▁ఉన్నతాధికారులు	-8988
దె	-8989
ala	-8990
▁51	-8991
పట్ల	-8992
యినా	-8993
లైన్	-8994
స్టా	-8995
స్వీ	-8996
▁కూడ	-8997
ారాయన	-8998
ారిస్	-8999
▁ఘాట్	-9000
▁లేదో	-9001
▁షారు	-9002
▁ఇలాగే	-9003
▁కోదండ	-9004
▁మలుపు	-9005
▁రైళ్ల	-9006
▁విరాళ	-9007
కుండానే	-9008
▁ఉన్నది	-9009
▁కట్టిన	-9010
▁బోర్డ్	-9011
▁ముహూర్	-9012
▁షార్ట్	-9013
▁సిరాజ్	-9014
స్థానంలో	-9015
▁ట్యాంక్	-9016
▁ఇవ్వడంతో	-9017
▁చేయవచ్చు	-9018
▁దాదాపుగా	-9019
▁విస్తీర్	-9020
▁హుస్సేన్	-9021
▁పాయింట్లు	-9022
▁అంత్యక్రియ	-9023
▁కొంతకాలంగా	-9024
▁గుర్తించిన	-9025
▁స్థానికంగా	-9026
2)	-9027
▁प	-9028
సటి	-9029
▁ధై	-9030
2024	-9031
రియం	-9032
రేజ్	-9033
▁అరే	-9034
▁ఆపై	-9035
▁కోడ	-9036
▁తమ్మ	-9037
▁దుండ	-9038
▁నాగ్	-9039
▁భావో	-9040
▁రఘున	-9041
▁హిమా	-9042
▁ఎక్కు	-9043
▁తరబడి	-9044
▁దృష్ట	-9045
▁క్యాపి	-9046
▁నీటిలో	-9047
▁రఘురామ	-9048
▁ఆదివాసీ	-9049
▁నిర్దేశ	-9050
▁రాజకీయా	-9051
▁ఉన్నందున	-9052
▁కారణాలతో	-9053
▁గుర్తించ	-9054
▁తగిలింది	-9055
స్తున్నాయని	-9056
▁చుట్టుపక్క	-9057
▁చేసుకుంటున్న	-9058
పాఠ	-9059
తలను	-9060
నులు	-9061
బార్	-9062
▁ఆపే	-9063
▁ఉరు	-9064
గలుగు	-9065
ద్దరి	-9066
నాయక్	-9067
▁ఉంచి	-9068
▁కమల్	-9069
▁పీఎం	-9070
▁టమాటా	-9071
▁మల్టీ	-9072
▁వ్యాయ	-9073
▁కొనియా	-9074
▁చాన్స్	-9075
▁డీజిల్	-9076
▁పర్యటి	-9077
▁ప్రతిభ	-9078
▁మరుసటి	-9079
▁రేవణ్ణ	-9080
▁వాడుకు	-9081
▁కన్నుమూ	-9082
▁కురిసిన	-9083
▁కొట్టిన	-9084
▁చూసింది	-9085
▁సంఘటనలు	-9086
▁అనుచరులు	-9087
▁టీడీపీలో	-9088
▁డయాబెటిస్	-9089
▁నివేదికను	-9090
▁వస్తువులను	-9091
▁అప్పగించారు	-9092
▁చేస్తుంటారు	-9093
▁చేసుకునేందుకు	-9094
il	-9095
పక	-9096
తమే	-9097
శ్య	-9098
ತ್ರ	-9099
రీలు	-9100
▁ఐడీ	-9101
▁ఛాల	-9102
▁కాఫీ	-9103
▁చెడు	-9104
▁జీతం	-9105
▁నాటు	-9106
▁పంచు	-9107
▁యోగి	-9108
▁వాడే	-9109
▁సౌదీ	-9110
▁స్టె	-9111
▁కడియం	-9112
▁తాగడం	-9113
▁పూర్వ	-9114
▁బదులు	-9115
▁పరిగణన	-9116
▁పర్యాట	-9117
▁పురుగు	-9118
▁బ్రహ్మ	-9119
▁మరొకరు	-9120
▁విధులు	-9121
కపోవచ్చు	-9122
▁అలియాస్	-9123
▁ఆశించిన	-9124
▁బస్సులో	-9125
▁మంచిదని	-9126
▁గ్రాడ్యు	-9127
▁భావోద్వే	-9128
▁వినియోగం	-9129
▁సాంస్కృతిక	-9130
▁అందించేందుకు	-9131
▁ಯ	-9132
ews	-9133
దానం	-9134
▁ఇంధ	-9135
▁దివ	-9136
ంటికీ	-9137
కరణకు	-9138
నియన్	-9139
వ్వాడ	-9140
శాంతి	-9141
▁గాజు	-9142
▁పెను	-9143
▁లైట్	-9144
▁వరదల	-9145
▁వీసీ	-9146
▁సంతర	-9147
▁టెర్ర	-9148
▁రేపటి	-9149
▁వేయడం	-9150
▁ఎకరాలు	-9151
▁ఐపీఎస్	-9152
▁ల్యాబ్	-9153
▁ఆకాంక్ష	-9154
▁ఎఫెక్ట్	-9155
▁కాలేజీలో	-9156
▁పెంచింది	-9157
▁ఫౌండేషన్	-9158
▁రామచంద్ర	-9159
▁రైతుబంధు	-9160
▁శ్రీకాకు	-9161
▁నిమిషాలకు	-9162
▁కోల్పోయారు	-9163
rab	-9164
▁59	-9165
గంగా	-9166
పర్చ	-9167
వేలు	-9168
ాయలు	-9169
▁చేత	-9170
▁డీఏ	-9171
▁సాహ	-9172
టేరియ	-9173
షియన్	-9174
▁అంటు	-9175
▁అకాడ	-9176
▁అర్చ	-9177
▁గాయం	-9178
▁ద్వి	-9179
▁ఫ్లి	-9180
▁మెట్	-9181
▁యూకే	-9182
▁వంతు	-9183
▁వాసు	-9184
▁స్మి	-9185
▁ఆనందం	-9186
▁కళ్లు	-9187
▁ముంపు	-9188
▁హాసన్	-9189
▁కరెంటు	-9190
▁కోర్సు	-9191
▁సీట్లలో	-9192
▁ఉన్నవారు	-9193
▁డిపాజిట్	-9194
▁సన్నివేశ	-9195
▁సింగపూర్	-9196
▁జ్యోతిష్య	-9197
▁రావడానికి	-9198
▁రెండోసారి	-9199
▁పెరుగుతాయి	-9200
▁ప్రాంతాలలో	-9201
▁ଆ	-9202
గ్న	-9203
▁శీ	-9204
టీవీ	-9205
వాటి	-9206
సెట్	-9207
▁అవే	-9208
▁బంజ	-9209
▁మీన	-9210
▁లోత	-9211
దెబ్బ	-9212
రకంగా	-9213
వారని	-9214
▁కోడి	-9215
▁డివై	-9216
▁రాయి	-9217
▁వైఖరి	-9218
▁కొడాలి	-9219
▁చిత్రీ	-9220
▁నాణ్యత	-9221
▁పాటిల్	-9222
▁పెరగడం	-9223
▁ఫ్యాన్	-9224
▁దెబ్బతీ	-9225
▁నందమూరి	-9226
▁నిరంతరం	-9227
▁పర్యాటక	-9228
▁పోషకాలు	-9229
▁మొదట్లో	-9230
▁సౌకర్యం	-9231
▁చేయొచ్చు	-9232
▁నటించారు	-9233
▁మూడోసారి	-9234
▁యాక్టివ్	-9235
పడుతున్నాయి	-9236
▁పరిగణనలోకి	-9237
▁ప్రాక్టీస్	-9238
up	-9239
మలు	-9240
ందుల	-9241
మిలి	-9242
▁మేఘ	-9243
▁అకాల	-9244
▁అరిక	-9245
▁ధ్వజ	-9246
▁లోటు	-9247
▁శిథి	-9248
▁సెటై	-9249
▁హోల్	-9250
ట్లేదు	-9251
తిపదిక	-9252
నాల్డ్	-9253
▁అయిదు	-9254
▁ఈస్ట్	-9255
▁గడుపు	-9256
▁హింసా	-9257
▁కవితను	-9258
▁కొందరి	-9259
▁పెద్ది	-9260
▁ప్రాము	-9261
▁మత్స్య	-9262
▁మూవీలో	-9263
▁సెమీస్	-9264
▁అపార్ట్	-9265
▁ప్రకృతి	-9266
▁బీఎస్పీ	-9267
▁ఆలయానికి	-9268
▁ట్యాక్స్	-9269
▁తెలిపాయి	-9270
▁పరిరక్షణ	-9271
▁ఫ్రాన్స్	-9272
▁బిల్లును	-9273
▁వెళ్లాడు	-9274
వుతున్నాయి	-9275
▁ఉత్తరాఖండ్	-9276
▁ల్యాండింగ్	-9277
▁కనిపిస్తాయి	-9278
▁సమావేశాల్లో	-9279
వరు	-9280
▁ఆఫ	-9281
▁ఫల	-9282
జ్జు	-9283
▁ఏము	-9284
▁త్ర	-9285
▁నడవ	-9286
పేటలో	-9287
ౌన్స్	-9288
▁ఇంకో	-9289
▁కారం	-9290
▁గేట్	-9291
▁దొరిక	-9292
▁పరువు	-9293
▁వారాల	-9294
డేపల్లి	-9295
బోతుంది	-9296
ల్సింది	-9297
▁ఫీల్డ్	-9298
▁మోటార్	-9299
▁పోస్టుల	-9300
ుకున్నాడు	-9301
▁రెడ్డితో	-9302
▁విశ్వాసం	-9303
▁లక్ష్యంతో	-9304
▁స్థలాన్ని	-9305
▁జర్నలిస్ట్	-9306
▁చుట్టుపక్కల	-9307
▁ప్రయత్నించారు	-9308
5)	-9309
ائی	-9310
పాక	-9311
నూరు	-9312
నేను	-9313
▁ఎపి	-9314
▁ఐసీ	-9315
▁కంచ	-9316
▁కరి	-9317
▁హడా	-9318
చిత్ర	-9319
▁ఏకైక	-9320
▁తోనే	-9321
▁దీప్	-9322
▁మెక్	-9323
జిక్యూ	-9324
నాబాద్	-9325
▁కాలువ	-9326
▁గొర్ర	-9327
▁ఘటనకు	-9328
▁మొదలై	-9329
▁చార్జ్	-9330
▁ఛార్జ్	-9331
▁ఠాకూర్	-9332
▁నివారణ	-9333
▁పంపారు	-9334
మిరెడ్డి	-9335
▁దగ్గరగా	-9336
ట్టుకున్న	-9337
▁కోల్పోయి	-9338
▁చెన్నూరు	-9339
▁నిందితుల	-9340
▁ప్యాకేజీ	-9341
▁ఫైనాన్స్	-9342
▁బీబీసీకి	-9343
▁మమ్మల్ని	-9344
▁లైసెన్స్	-9345
▁విధానంలో	-9346
▁వ్యాప్తి	-9347
▁పెట్టారని	-9348
▁వీరిద్దరూ	-9349
ಾಂ	-9350
టాల	-9351
జాగ్	-9352
సెక్	-9353
▁గడప	-9354
ప్రమా	-9355
ముద్ర	-9356
సరికి	-9357
▁2004	-9358
▁ఏమిట	-9359
▁కాకా	-9360
▁ధృవీ	-9361
▁	-9362
్	-9363
ి	-9364
ా	-9365
ు	-9366
ర	-9367
న	-9368
ల	-9369
ం	-9370
క	-9371
ప	-9372
త	-9373
స	-9374
వ	-9375
ద	-9376
ట	-9377
ో	-9378
మ	-9379
ే	-9380
య	-9381
చ	-9382
డ	-9383
ీ	-9384
గ	-9385
.	-9386
ె	-9387
అ	-9388
జ	-9389
బ	-9390
ూ	-9391
,	-9392
శ	-9393
ష	-9394
ై	-9395
ఆ	-9396
హ	-9397
ధ	-9398
ఎ	-9399
భ	-9400
ొ	-9401
ఇ	-9402
ఉ	-9403
ణ	-9404
ళ	-9405
ఫ	-9406
ఈ	-9407
థ	-9408
0	-9409
2	-9410
1	-9411
ఏ	-9412
ఖ	-9413
"	-9414
ఒ	-9415
ృ	-9416
5	-9417
3	-9418
4	-9419
:	-9420
ౌ	-9421
ఓ	-9422
)	-9423
ఐ	-9424
(	-9425
9	-9426
-	-9427
6	-9428
8	-9429
7	-9430
ఘ	-9431
ی	-9432
ا	-9433
a	-9434
?	-9435
್	-9436
ಿ	-9437
ک	-9438
و	-9439
ر	-9440
e	-9441
i	-9442
ఢ	-9443
n	-9444
ے	-9445
ن	-9446
ఛ	-9447
ఠ	-9448
ہ	-9449
r	-9450
ು	-9451
ರ	-9452
ದ	-9453
م	-9454
ಾ	-9455
'	-9456
t	-9457
ನ	-9458
o	-9459
ಲ	-9460
s	-9461
س	-9462
!	-9463
ل	-9464
h	-9465
l	-9466
ି	-9467
A	-9468
ವ	-9469
ఊ	-9470
ت	-9471
ା	-9472
S	-9473
ೆ	-9474
ର	-9475
୍	-9476
d	-9477
ತ	-9478
ಕ	-9479
u	-9480
⁬	-9481
ಯ	-9482
R	-9483
ಸ	-9484
C	-9485
د	-9486
ಗ	-9487
ب	-9488
ں	-9489
P	-9490
ಂ	-9491
m	-9492
پ	-9493
I	-9494
T	-9495
ಮ	-9496
c	-9497
/	-9498
ಡ	-9499
େ	-9500
କ	-9501
ఞ	-9502
M	-9503
g	-9504
ئ	-9505
D	-9506
B	-9507
p	-9508
گ	-9509
ج	-9510
ھ	-9511
y	-9512
ନ	-9513
ٹ	-9514
v	-9515
N	-9516
ಬ	-9517
‍	-9518
k	-9519
ବ	-9520
ಪ	-9521
E	-9522
L	-9523
ा	-9524
ش	-9525
ಟ	-9526
ସ	-9527
O	-9528
w	-9529
ତ	-9530
G	-9531
۔	-9532
ಹ	-9533
ୁ	-9534
ڈ	-9535
ಳ	-9536
ع	-9537
b	-9538
ೋ	-9539
ମ	-9540
ପ	-9541
ೇ	-9542
ఔ	-9543
K	-9544
ః	-9545
V	-9546
ଲ	-9547
क	-9548
र	-9549
ହ	-9550
ف	-9551
े	-9552
H	-9553
ೊ	-9554
ق	-9555
ೀ	-9556
F	-9557
ಜ	-9558
چ	-9559
ୟ	-9560
ಚ	-9561
ز	-9562
ଇ	-9563
⁭	-9564
j	-9565
ح	-9566
ଦ	-9567
U	-9568
ୋ	-9569
ಎ	-9570
ଟ	-9571
J	-9572
%	-9573
न	-9574
ೂ	-9575
ص	-9576
ಶ	-9577
ଏ	-9578
ಅ	-9579
#	-9580
ी	-9581
ଣ	-9582
ೈ	-9583
।	-9584
ಆ	-9585
ह	-9586
्	-9587
ଥ	-9588
ಷ	-9589
ଭ	-9590
خ	-9591
ଡ	-9592
W	-9593
ि	-9594
،	-9595
آ	-9596
ं	-9597
ಣ	-9598
ଛ	-9599
स	-9600
ଜ	-9601
ಧ	-9602
f	-9603
म	-9604
Y	-9605
;	-9606
ط	-9607
ଯ	-9608
ଆ	-9609
ल	-9610
X	-9611
ो	-9612
त	-9613
ଉ	-9614
ఝ	-9615
ಇ	-9616
ଗ	-9617
ଅ	-9618
प	-9619
य	-9620
ಭ	-9621
ୀ	-9622
*	-9623
ڑ	-9624
द	-9625
ଳ	-9626
ଖ	-9627
ଧ	-9628
ଙ	-9629
ग	-9630
ଚ	-9631
ब	-9632
ଷ	-9633
ಖ	-9634
ज	-9635
ଶ	-9636
ಫ	-9637
व	-9638
+	-9639
ଓ	-9640
ض	-9641
ಈ	-9642
x	-9643
ଁ	-9644
>	-9645
ଫ	-9646
ु	-9647
ٰ	-9648
ै	-9649
&	-9650
@	-9651
غ	-9652
ظ	-9653
ಥ	-9654
ଂ	-9655
ذ	-9656
च	-9657
भ	-9658
ट	-9659
ೃ	-9660
‭	-9661
अ	-9662
`	-9663
श	-9664
ए	-9665
Z	-9666
ಉ	-9667
Q	-9668
ड	-9669
z	-9670
ू	-9671
୨	-9672
്	-9673
➦	-9674
଼	-9675
ୂ	-9676
़	-9677
்	-9678
_	-9679
☛	-9680
q	-9681
आ	-9682
ଘ	-9683
ख	-9684
ध	-9685
ୱ	-9686
ୌ	-9687
ଠ	-9688
ʼ	-9689
ಒ	-9690
फ	-9691
୦	-9692
ؤ	-9693
थ	-9694
=	-9695
ث	-9696
औ	-9697
୧	-9698
ക	-9699
ୃ	-9700
इ	-9701
ଞ	-9702
ி	-9703
ി	-9704
₹	-9705
ई	-9706
ष	-9707
•	-9708
த	-9709
[	-9710
]	-9711
­	-9712
ఙ	-9713
ಏ	-9714
⁪	-9715
ఋ	-9716
ಐ	-9717
ಘ	-9718
उ	-9719
ೌ	-9720
‪	-9721
க	-9722
ِ	-9723
ण	-9724
ப	-9725
ന	-9726
°	-9727
୪	-9728
া	-9729
യ	-9730
छ	-9731
ம	-9732
ு	-9733
ಠ	-9734
ു	-9735
ओ	-9736
ட	-9737
പ	-9738
$	-9739
ি	-9740
ാ	-9741
ठ	-9742
ఱ	-9743
౦	-9744
ಓ	-9745
घ	-9746
ଵ	-9747
୫	-9748
ട	-9749
র	-9750
্	-9751
ത	-9752
ক	-9753
ୈ	-9754
୩	-9755
ர	-9756
ல	-9757
வ	-9758
‐	-9759
୮	-9760
ற	-9761
ಊ	-9762
झ	-9763
୬	-9764
ள	-9765
ா	-9766
ല	-9767
വ	-9768
െ	-9769
ढ	-9770
ব	-9771
ଝ	-9772
ಞ	-9773
ണ	-9774
●	-9775
َ	-9776
ন	-9777
ম	-9778
୭	-9779
୯	-9780
ച	-9781
ഷ	-9782
⁠	-9783
ي	-9784
ऐ	-9785
ॉ	-9786
ে	-9787
ଢ	-9788
ോ	-9789
؟	-9790
ল	-9791
ু	-9792
ச	-9793
ய	-9794
അ	-9795
റ	-9796
►	-9797
ژ	-9798
ە	-9799
ृ	-9800
ौ	-9801
॥	-9802
ত	-9803
ৰ	-9804
ந	-9805
ன	-9806
ை	-9807
മ	-9808
ര	-9809
സ	-9810
‒	-9811
ء	-9812
প	-9813
য	-9814
ো	-9815
ெ	-9816
ങ	-9817
ഡ	-9818
ൽ	-9819
′	-9820
◉	-9821
♦	-9822
🇮	-9823
জ	-9824
স	-9825
ಛ	-9826
ಢ	-9827
ജ	-9828
ള	-9829
ർ	-9830
★	-9831
❌	-9832
🇳	-9833
়	-9834
எ	-9835
ோ	-9836
ീ	-9837
😂	-9838
🚩	-9839
\	-9840
đ	-9841
ه	-9842
ّ	-9843
ञ	-9844
এ	-9845
ও	-9846
ধ	-9847
அ	-9848
ங	-9849
ொ	-9850
౩	-9851
ം	-9852
എ	-9853
ധ	-9854
ൂ	-9855
ൗ	-9856
ൾ	-9857
~	-9858
·	-9859
×	-9860
ư	-9861
ُ	-9862
ँ	-9863
ऊ	-9864
ऑ	-9865
०	-9866
ট	-9867
ড	-9868
দ	-9869
ফ	-9870
হ	-9871
ଃ	-9872
ଈ	-9873
ண	-9874
ீ	-9875
ಃ	-9876
ಝ	-9877
⁄	-9878
⃣	-9879
⦁	-9880
️	-9881
💪	-9882
🔥	-9883
🙏	-9884
â	-9885
ơ	-9886
أ	-9887
ً	-9888
ڕ	-9889
ः	-9890
२	-9891
অ	-9892
গ	-9893
চ	-9894
ভ	-9895
শ	-9896
ী	-9897
ৱ	-9898
ஏ	-9899
ஜ	-9900
ூ	-9901
ఁ	-9902
౧	-9903
౹	-9904
ಔ	-9905
ഈ	-9906
ഭ	-9907
ശ	-9908
ൃ	-9909
േ	-9910
ൊ	-9911
ൻ	-9912
ố	-9913
⁫	-9914
⁯	-9915
◆	-9916
👉	-9917
👌	-9918
💚	-9919
😡	-9920
<	-9921
£	-9922
©	-9923
Á	-9924
æ	-9925
́	-9926
α	-9927
β	-9928
؛	-9929
إ	-9930
ى	-9931
ڵ	-9932
ۆ	-9933
ێ	-9934
४	-9935
ঃ	-9936
আ	-9937
ৈ	-9938
ஆ	-9939
இ	-9940
உ	-9941
ஊ	-9942
ஸ	-9943
ே	-9944
ఽ	-9945
ౄ	-9946
ౖ	-9947
౪	-9948
౬	-9949
ആ	-9950
ഇ	-9951
ഒ	-9952
ഗ	-9953
ദ	-9954
ബ	-9955
ഴ	-9956
ൈ	-9957
ả	-9958
ầ	-9959
ậ	-9960
ệ	-9961
ớ	-9962
ờ	-9963
ở	-9964
ợ	-9965
ứ	-9966
‫	-9967
‬	-9968
€	-9969
∙	-9970
≠	-9971
▪	-9972
♥	-9973
✳	-9974
➡	-9975
🇪	-9976
🇬	-9977
🌹	-9978
🏼	-9979
👇	-9980
👊	-9981
👋	-9982
💐	-9983
💥	-9984
🔴	-9985
🔸	-9986
🔹	-9987
😉	-9988
😊	-9989
😜	-9990
😞	-9991
😠	-9992
😥	-9993
🙂	-9994
🤜	-9995
🤭	-9996
