<unk>	0
<s>	0
</s>	0
.	-3.10515
▁	-3.72424
ం	-4.31884
,	-4.57931
ు	-4.64941
లో	-4.68944
▁,	-4.75563
ి	-4.8596
ని	-4.88611
ల	-4.89559
లు	-4.9275
కు	-4.98434
▁ఈ	-5.07495
్	-5.13148
గా	-5.16121
న	-5.17329
ా	-5.18403
ను	-5.19125
▁లో	-5.20872
స్	-5.22869
ర్	-5.31919
ే	-5.34129
ల్	-5.40287
వ	-5.51506
▁ఆ	-5.54547
కి	-5.56671
ర	-5.58594
ారు	-5.58643
త	-5.62735
న్	-5.6341
క	-5.64885
▁కు	-5.65203
తో	-5.75873
మ	-5.79174
▁..	-5.87024
ంగా	-5.87321
▁ను	-5.9541
ట్	-5.98149
క్	-5.99026
▁నుంచి	-5.99083
▁కూడా	-6.00096
▁అ	-6.0013
య	-6.00456
ీ	-6.01503
నే	-6.02642
▁క	-6.03617
గ	-6.04041
▁తో	-6.0503
▁గా	-6.08697
▁మ	-6.11122
ూ	-6.12409
రి	-6.14891
ప	-6.15257
ిన	-6.17843
ానికి	-6.2074
డ	-6.22012
పై	-6.22776
ాల	-6.24051
ాన్ని	-6.24313
▁న	-6.26362
ద	-6.27621
ట	-6.27949
రు	-6.31923
▁చేశారు	-6.3272
▁ని	-6.33981
ింది	-6.35195
న్న	-6.36034
▁పై	-6.36804
డ్	-6.37924
స	-6.40475
ాలు	-6.41526
▁(	-6.41775
ాయి	-6.42233
లను	-6.45021
ో	-6.46534
▁ప	-6.46734
రా	-6.49531
▁అని	-6.5018
లి	-6.50747
▁ఉన్న	-6.51017
▁వ	-6.51238
▁త	-6.539
▁వి	-6.54734
ాడు	-6.5547
▁ఏ	-6.564
ణ	-6.5839
▁ఆయన	-6.58489
▁స	-6.58968
:	-6.61862
▁తన	-6.62082
ది	-6.62244
డం	-6.62322
▁పార్టీ	-6.6279
▁కా	-6.62813
▁రూ	-6.66085
▁"	-6.66507
▁గ	-6.66922
▁రెడ్డి	-6.68076
▁బ	-6.68705
▁.	-6.69834
డి	-6.71186
▁కి	-6.71288
ె	-6.71324
)	-6.726
▁కాంగ్రెస్	-6.7291
శ	-6.73337
వా	-6.73406
▁ఒక	-6.74318
▁ఓ	-6.7552
▁ల	-6.76519
▁ఎ	-6.77638
▁రా	-6.78793
▁చేసిన	-6.79342
▁కోసం	-6.80138
త్	-6.81178
▁నా	-6.81955
▁మంది	-6.83824
▁మా	-6.84277
టి	-6.86527
ారని	-6.86733
▁ప్రభుత్వం	-6.87571
ప్	-6.877
▁ప్ర	-6.87896
▁అయితే	-6.87965
▁స్	-6.88527
డు	-6.88618
లా	-6.89395
లకు	-6.89788
చ	-6.89914
సి	-6.90145
▁చెప్పారు	-6.90161
▁ర	-6.90489
▁లు	-6.90524
నా	-6.90792
ై	-6.93231
జ	-6.93636
▁తెలిపారు	-6.9409
▁-	-6.94175
ల్లో	-6.95055
వి	-6.96006
▁తర్వాత	-6.96276
ాలని	-6.96692
▁ద	-6.98107
కా	-6.98605
మైన	-7.00418
సీ	-7.00821
పు	-7.02383
▁కో	-7.03432
ధ	-7.03448
మ్	-7.04458
▁జ	-7.0467
జ్	-7.04689
ులు	-7.05101
▁పాటు	-7.0556
హ	-7.05692
తి	-7.05725
▁ఉంది	-7.05923
మా	-7.06987
▁చ	-7.07046
▁వారి	-7.07657
▁అన్నారు	-7.08254
ుల	-7.08606
▁:	-7.09905
?	-7.10053
▁బీజేపీ	-7.10262
▁వా	-7.1106
▁సీఎం	-7.11068
రీ	-7.11113
▁సినిమా	-7.11625
▁తెలంగాణ	-7.1204
▁మంత్రి	-7.12927
▁చాలా	-7.15179
▁రాష్ట్ర	-7.16683
▁చేయ	-7.16953
గు	-7.17641
▁చెప్ప	-7.19631
టీ	-7.19862
▁నే	-7.20076
▁రెండు	-7.20098
మి	-7.20236
ట్ట	-7.22232
▁జిల్లా	-7.22294
▁హ	-7.22537
▁ఇ	-7.22822
▁లా	-7.23796
▁ఎన్నికల	-7.23891
▁ఆమె	-7.23972
యం	-7.24142
▁తమ	-7.24559
ష	-7.2474
▁దీంతో	-7.24804
ైన	-7.24822
భ	-7.24999
వు	-7.2523
బ	-7.2609
▁ము	-7.26789
ేందుకు	-7.26791
ండ	-7.26964
▁వరకు	-7.29011
ింగ్	-7.2908
న్నారు	-7.29836
▁హైదరాబాద్	-7.30196
▁కానీ	-7.30292
ష్	-7.3037
▁ప్రభుత్వ	-7.30598
▁చంద్రబాబు	-7.307
▁మే	-7.30735
ంట	-7.30897
▁చేసి	-7.31309
గ్	-7.31352
▁వే	-7.3217
▁చెందిన	-7.32266
▁4	-7.32718
యా	-7.32898
▁ా	-7.33448
▁పోలీసులు	-7.33905
▁కొత్త	-7.33981
▁చేసింది	-7.34201
▁లోని	-7.34352
3	-7.3468
నీ	-7.35048
▁భ	-7.35106
మ్మ	-7.35195
ొ	-7.35414
కో	-7.35443
9	-7.35518
▁మధ్య	-7.35606
ంద	-7.35652
కే	-7.35929
్లో	-7.36266
దా	-7.36508
▁ఇది	-7.36525
▁బా	-7.36556
డానికి	-7.36624
▁3	-7.3691
ంది	-7.36976
జీ	-7.37288
ద్	-7.375
ాలి	-7.37533
ی	-7.39427
▁అధికారులు	-7.39581
▁పో	-7.41138
ంత	-7.41744
ట్లు	-7.41811
▁పా	-7.41942
0	-7.41983
▁5	-7.42185
ళ్ల	-7.42543
8	-7.42782
ౌ	-7.42857
▁సమయంలో	-7.42994
2	-7.43842
4	-7.43882
▁ది	-7.44014
క్ష	-7.44092
7	-7.44312
▁శ	-7.45453
▁లేదు	-7.46546
చి	-7.46806
నం	-7.46973
▁ఎమ్మెల్యే	-7.46997
▁అనే	-7.47248
5	-7.4733
▁సి	-7.48371
ప్ప	-7.48497
టర్	-7.48812
ుతున్న	-7.48989
a	-7.49071
దు	-7.49639
య్య	-7.49832
ا	-7.49881
▁ఉ	-7.50086
▁జగన్	-7.50227
▁పెద్ద	-7.50637
▁""	-7.50742
▁మరో	-7.51839
▁ట	-7.5207
ించ	-7.52432
▁ఇప్పుడు	-7.53044
టా	-7.53095
▁కొ	-7.53256
తు	-7.53367
త్ర	-7.53498
▁వల్ల	-7.53907
తా	-7.54068
▁కే	-7.54584
▁లే	-7.54605
▁సా	-7.54824
ళ	-7.54835
6	-7.54978
▁కేసీఆర్	-7.55158
థ	-7.55627
▁మి	-7.55819
ండి	-7.55844
▁బీఆర్ఎస్	-7.56096
ామని	-7.56728
▁ఇక	-7.56869
ంచ	-7.57062
డీ	-7.57466
బ్	-7.57727
▁ద్వారా	-7.57961
▁ప్రతి	-7.58185
▁పెట్ట	-7.58211
▁6	-7.58646
▁2	-7.58647
▁వచ్చిన	-7.58927
▁సం	-7.59667
▁కేంద్ర	-7.59721
▁పు	-7.5974
▁వారు	-7.59831
ಿ	-7.60154
▁ఆర్	-7.60261
▁మీ	-7.60397
ఫ్	-7.60872
"	-7.60953
▁సీ	-7.61067
కుండా	-7.61161
▁పని	-7.61274
▁ఏర్పాటు	-7.61361
e	-7.61451
▁కొన్ని	-7.61593
పా	-7.62256
▁మె	-7.62267
ద్ద	-7.62526
ఎస్	-7.62812
▁వీ	-7.62901
▁కోట్ల	-7.63268
ుడు	-7.63304
వే	-7.63307
సు	-7.6379
▁వె	-7.64038
▁వేల	-7.65092
పీ	-7.65513
ాయని	-7.65537
▁ఉంటుంది	-7.65568
గి	-7.65574
రం	-7.65609
పి	-7.65899
▁అవకాశం	-7.65968
▁ఐ	-7.66574
్య	-7.66702
▁పూర్తి	-7.66716
▁జరిగిన	-7.66717
▁వద్ద	-7.66837
పో	-7.66846
▁య	-7.67109
ఖ	-7.67262
▁పోటీ	-7.67416
▁మాజీ	-7.6798
▁చేర	-7.68651
▁శాఖ	-7.68756
▁భారీ	-7.69272
▁రి	-7.69398
▁ముందు	-7.69599
▁ప్రస్తుతం	-7.69676
i	-7.69772
▁సు	-7.70481
యి	-7.70785
ంటే	-7.71046
ట్టు	-7.7108
రో	-7.7108
జి	-7.71199
▁10	-7.71581
▁గు	-7.72891
▁కేసు	-7.73042
▁మన	-7.73166
▁చేస్తున్నారు	-7.73554
▁కలిసి	-7.73708
ము	-7.73948
▁వచ్చే	-7.74097
ఫ	-7.74206
▁7	-7.74399
▁8	-7.74427
▁రోజు	-7.74442
డంతో	-7.74731
▁ఎంపీ	-7.7478
మే	-7.7505
▁రేవంత్	-7.75213
▁తీవ్ర	-7.7537
▁భారత్	-7.75534
▁చేస్తున్న	-7.7557
▁వెలుగు	-7.75736
▁ఎన్నికల్లో	-7.75959
▁చేసే	-7.76124
ుకున్న	-7.76168
క్క	-7.76554
▁ప్రజల	-7.76625
▁టీ	-7.7672
▁శాతం	-7.76991
యో	-7.77216
వర్	-7.77249
రే	-7.77593
▁క్ర	-7.77731
త్త	-7.77903
1	-7.78006
▁)	-7.78057
▁అంద	-7.78114
▁19	-7.78169
ంగ	-7.78266
-	-7.7835
వీ	-7.78458
చ్చ	-7.78533
▁అన్ని	-7.78682
▁గత	-7.78917
జా	-7.78964
▁మూడు	-7.79307
స్త	-7.79338
సా	-7.7991
▁పీ	-7.80051
▁డీ	-7.80129
▁సభ	-7.80257
▁టీడీపీ	-7.80606
లతో	-7.80911
▁జా	-7.8107
▁లక్షల	-7.81458
▁ఇప్పటిక	-7.82378
▁కీలక	-7.82396
లే	-7.82647
▁లను	-7.83307
▁గురించి	-7.83416
▁పవన్	-7.83449
ండ్	-7.83509
వ్	-7.83748
కీ	-7.83788
ంగ్	-7.83854
ప్పుడు	-7.83901
▁...	-7.84241
▁బీ	-7.84319
▁ప్రత్యేక	-7.84389
▁రాష్ట్రంలో	-7.84441
▁నెల	-7.84498
లేదు	-7.84713
▁విడుదల	-7.84821
దే	-7.8498
మో	-7.85243
▁మార	-7.8528
▁రాజ	-7.85304
ఆర్	-7.85438
▁ఘటన	-7.85547
▁మ్యాచ్	-7.85789
▁'	-7.85877
ేషన్	-7.86034
▁బో	-7.8605
కర	-7.86273
ించారు	-7.86407
▁లేదని	-7.86478
▁ఉండ	-7.86575
లీ	-7.86586
మీ	-7.86609
s	-7.86775
▁మాత్రం	-7.87184
▁వీడియో	-7.87486
▁ఉందని	-7.87917
▁ఎస్	-7.88068
్యా	-7.8841
▁మొత్తం	-7.88981
▁వైసీపీ	-7.89231
▁వాటి	-7.89352
స్ట్	-7.89493
ాయ	-7.90073
▁రాజకీయ	-7.90085
▁9	-7.90297
▁అంత	-7.90511
▁విచారణ	-7.9094
ుడి	-7.91232
▁కుమార్	-7.91409
యు	-7.91469
▁ఉన్నారు	-7.91522
షన్	-7.91554
▁ఉన్నాయి	-7.9174
▁వ్యక్తం	-7.91908
ించిన	-7.92171
▁పడ	-7.92301
▁ఫ	-7.92399
ے	-7.9264
▁ధర	-7.92855
▁మాత్రమే	-7.93039
▁విషయం	-7.93206
▁షా	-7.93278
▁వై	-7.93763
▁పి	-7.94074
టం	-7.94105
▁ఎలా	-7.94366
▁వెళ్ల	-7.94662
▁దా	-7.94691
ున్న	-7.94812
▁డి	-7.94892
▁ఒక్క	-7.94989
▁సమాచారం	-7.95451
▁ఇవ్వ	-7.95567
ించి	-7.95576
▁గో	-7.95968
▁తా	-7.96165
▁అసెంబ్లీ	-7.96486
▁ఇన్	-7.96592
▁సందర్భం	-7.96681
▁చె	-7.96706
▁పరి	-7.96949
▁మంచి	-7.97307
▁వారికి	-7.9766
కార	-7.9782
టు	-7.97846
▁మీద	-7.97864
▁ముఖ్యమంత్రి	-7.97894
ాల్లో	-7.97933
▁ఎక్కువ	-7.97941
▁ఖ	-7.97989
▁హా	-7.98267
ిస్తున్న	-7.98534
▁చేయాలని	-7.98586
సారి	-7.98733
▁వంటి	-7.98908
▁చేయడం	-7.98939
ణి	-7.99027
▁పే	-7.99056
▁20	-7.99062
▁పలు	-7.99235
శ్	-7.99911
▁బి	-7.99916
▁ప్రధాన	-7.99969
▁డ	-8.00255
▁భారత	-8.0027
▁నుండి	-8.00511
▁దేశ	-8.01406
▁ప్రధాని	-8.01532
▁1	-8.01847
▁యా	-8.01997
క్స్	-8.02044
వర	-8.02179
ార	-8.02261
ధి	-8.02273
▁గంటల	-8.0238
▁ప్రజలు	-8.02766
ر	-8.02855
తీ	-8.02879
▁కోర్టు	-8.02889
▁అదే	-8.02909
▁అన్న	-8.03286
▁కంపెనీ	-8.0334
ఐ	-8.03726
▁ఎం	-8.03895
స్తున్న	-8.04001
▁లేదా	-8.04007
బీ	-8.04119
▁సె	-8.0453
▁పె	-8.04586
ದ	-8.04704
▁జిల్లాలో	-8.04885
▁తాను	-8.04944
▁పట్ట	-8.05044
ందని	-8.05139
▁ఇండియా	-8.0524
▁అక్కడ	-8.05367
ି	-8.05626
▁శ్రీ	-8.05974
▁చి	-8.06003
▁మహిళ	-8.06207
▁మోదీ	-8.06254
▁ప్రకారం	-8.06486
▁సోషల	-8.0659
▁ంచ	-8.06733
ఎలాంటి	-8.06753
ితే	-8.07354
▁యూ	-8.0741
▁పొ	-8.07613
▁దీని	-8.07617
▁పొంద	-8.07623
ెట్	-8.07729
ంటి	-8.07908
ା	-8.08075
▁ఇతర	-8.08202
▁15	-8.0846
వ్వ	-8.08543
ఎం	-8.08972
స్తున్నారు	-8.09346
▁కల	-8.09355
▁అంటూ	-8.09418
దో	-8.09509
و	-8.09603
00	-8.09782
▁బయట	-8.10437
▁రావు	-8.10777
పడ	-8.1083
▁12	-8.10876
o	-8.10908
▁కాదు	-8.11033
▁తప్ప	-8.1129
▁సంస్థ	-8.11536
▁రోజుల	-8.11981
▁కూ	-8.12094
▁నేతలు	-8.12271
ہ	-8.12292
▁మీడియా	-8.12556
▁చర్యలు	-8.1258
▁ఏపీ	-8.12623
▁దగ్గర	-8.12626
▁పేరు	-8.13276
▁ప్రచారం	-8.13466
▁ఆర్థిక	-8.13469
▁మెంట్	-8.13651
ుతుంది	-8.13833
▁ఏడాది	-8.13894
ಾ	-8.14243
ంటూ	-8.1432
ళ్లు	-8.14428
స్థ	-8.14446
ుంది	-8.14766
▁వ్యక్తి	-8.14933
▁ష	-8.14994
▁అంటే	-8.15012
▁ఇదే	-8.15048
▁అభివృద్ధి	-8.15177
▁చర్చ	-8.15362
▁ఇలా	-8.15449
▁చిన్న	-8.15924
కర్	-8.16103
▁ఆరోగ్య	-8.16349
▁అధికారుల	-8.16391
ು	-8.16432
▁అలాగే	-8.16645
▁కుటుంబ	-8.16765
ాల్సి	-8.16829
▁చా	-8.16879
▁ఇచ్చిన	-8.1721
టో	-8.17433
t	-8.17747
▁దాడి	-8.17755
▁11	-8.1777
▁కోట్లు	-8.17796
▁ఫోన్	-8.17916
▁అందించ	-8.17986
▁ఉదయ	-8.18176
▁కింద	-8.1832
▁మో	-8.18356
▁కనిపించ	-8.1844
▁జీ	-8.18539
▁మాట్లాడ	-8.18718
▁తగ్గ	-8.18901
చ్	-8.19111
ృ	-8.19191
ినట్లు	-8.19477
▁పేర్కొన్నారు	-8.19686
▁పెంచ	-8.19882
రణ	-8.2104
▁డిమాండ్	-8.21145
షి	-8.21442
▁ఫా	-8.21468
▁తాజాగా	-8.21471
▁ఒ	-8.21502
▁అది	-8.21567
▁జో	-8.21579
▁రామ	-8.21902
▁ఉండే	-8.2206
▁తెలిపింది	-8.2268
▁పరిస్థితి	-8.22694
▁చెబుతున్నారు	-8.22788
▁ఏం	-8.23602
▁దాదాపు	-8.23969
▁తి	-8.24013
ానని	-8.24311
▁ఇం	-8.24458
▁సంబంధించిన	-8.24478
▁అమలు	-8.24571
▁గతంలో	-8.24674
▁గాంధీ	-8.24828
నూ	-8.24846
▁తెలియ	-8.25347
ెం	-8.25358
▁ఎన్	-8.25395
మని	-8.2554
ل	-8.25729
▁ఆఫ్	-8.25743
u	-8.26085
నున్నారు	-8.262
▁ఢిల్లీ	-8.26262
ن	-8.26285
▁ఇటీవల	-8.26655
▁స్టార్	-8.26662
▁వార	-8.26781
డా	-8.26876
రూ	-8.26922
▁మాట్లాడుతూ	-8.26985
ిక	-8.26999
್	-8.27148
▁నేత	-8.27271
▁అనేక	-8.27339
▁నిర్ణయం	-8.27378
▁స్వ	-8.27426
▁భాగంగా	-8.27527
▁తేదీ	-8.27605
▁మూవీ	-8.27621
▁హామీ	-8.27678
▁పూర్	-8.27822
రోజు	-8.27875
▁రో	-8.2788
▁బె	-8.27954
▁అమెరికా	-8.27981
▁ప్రపంచ	-8.28192
▁ఏళ్ల	-8.28337
▁కట్ట	-8.28358
▁దేవ	-8.28477
్యూ	-8.28482
▁అనంతర	-8.28571
l	-8.28575
▁జట్టు	-8.28675
▁వాడ	-8.28771
కం	-8.28889
న్స్	-8.28966
▁కారణంగా	-8.29022
తాయి	-8.2907
▁బ్యా	-8.29138
▁నమోదు	-8.2937
ైనా	-8.29436
న్నీ	-8.29731
▁జరిగింది	-8.29932
ంబ	-8.29957
ట్ల	-8.2997
▁మళ్ల	-8.30082
ఏ	-8.30179
▁తొలి	-8.30197
▁తరువాత	-8.30321
▁లకు	-8.30672
▁ఇందులో	-8.30688
▁లేకుండా	-8.30796
▁అన	-8.31095
స్తుంది	-8.31457
▁విషయంలో	-8.31528
ೆ	-8.31598
ుకునే	-8.31615
d	-8.31744
ిత	-8.31867
▁జారీ	-8.31933
▁?	-8.31995
▁తెలుగు	-8.32393
▁పైన	-8.32397
వెంటనే	-8.32724
ంతా	-8.32781
h	-8.32837
▁వచ్చింది	-8.32845
▁విజయ	-8.32913
▁కార్	-8.33053
▁అవ	-8.33154
▁నేపథ్యంలో	-8.33515
▁పాత్ర	-8.33536
▁దిగ	-8.3354
▁30	-8.33675
▁సింగ్	-8.33734
▁ఆందోళన	-8.33797
▁సమ	-8.33928
లపై	-8.34006
ార్	-8.3411
▁వచ్చ	-8.34304
జర్	-8.34517
▁దు	-8.34646
▁నిర్వహించ	-8.34669
▁ఆడ	-8.34945
▁కేసులో	-8.34968
▁నీ	-8.34982
▁ఎక్కువగా	-8.35106
▁గుర్తు	-8.35175
▁అయిన	-8.35633
▁దేశంలో	-8.3566
న్నా	-8.35684
పేట	-8.35946
▁అంచనా	-8.35991
బా	-8.36061
▁ఫిర్యాదు	-8.36232
▁తెలంగాణలో	-8.36359
ెన్	-8.36489
▁గ్రామ	-8.36569
▁కోర	-8.36641
▁మూ	-8.3677
ష్ట	-8.36782
▁ఫొటో	-8.36862
▁అధికారంలో	-8.37215
▁ఇచ్చారు	-8.37227
▁పంప	-8.37416
జే	-8.3751
▁పాల	-8.37668
ియా	-8.37855
వో	-8.38192
▁ఇంటి	-8.38759
▁రాహుల్	-8.38776
▁నేను	-8.39043
కొ	-8.39069
▁స్టేషన్	-8.39212
▁మొదటి	-8.39218
▁పోలీసుల	-8.39259
▁సాగ	-8.3928
▁14	-8.3935
▁నిర్	-8.39598
▁కాగా	-8.39634
▁అధికార	-8.39647
ిందని	-8.3986
▁ఎంత	-8.39994
▁హై	-8.40041
ుగా	-8.40324
▁⁬	-8.40367
▁సై	-8.40411
▁రే	-8.40458
దీ	-8.40998
▁అభ్యర్థి	-8.41185
సం	-8.41319
వచ్చు	-8.41432
▁దాని	-8.41468
▁నాలుగు	-8.41545
ోంది	-8.41567
▁స్ట	-8.41724
▁ప్రమాదం	-8.41835
చే	-8.42203
ధా	-8.42318
ుకున్నారు	-8.42344
▁క్రమంలో	-8.42365
▁అతని	-8.42613
భా	-8.42668
▁రైతుల	-8.42965
▁మార్	-8.42998
▁డాక్టర్	-8.43081
▁మరింత	-8.43095
20	-8.43223
▁శివ	-8.43266
▁రెండో	-8.43302
▁టికెట్	-8.43496
ాల్సిన	-8.43544
▁చేస్తూ	-8.43896
▁మీడియాలో	-8.43914
▁లోక్	-8.44077
పల్లి	-8.44163
▁జనసేన	-8.44174
▁వచ్చి	-8.44309
ుతూ	-8.44506
▁పాల్గొన్నారు	-8.4458
చు	-8.44586
▁బ్ర	-8.44626
▁అందుకే	-8.44752
ించే	-8.44836
▁జరగ	-8.44869
▁తెలుస్తోంది	-8.44909
▁మరి	-8.45018
▁పర	-8.45176
▁రాత్రి	-8.45181
కల్	-8.45184
▁స్పష్టం	-8.45279
▁ఉంటే	-8.45813
▁తిరిగి	-8.45873
న్నాయి	-8.46084
▁18	-8.46172
బి	-8.46297
▁వాళ్ల	-8.463
▁ఫి	-8.46338
గొ	-8.46472
▁అత	-8.46546
▁హీరో	-8.46556
ూరు	-8.46572
లై	-8.46588
▁మేరకు	-8.46725
డో	-8.46736
▁సమస్య	-8.46807
▁అమ్మ	-8.46851
▁ఇలాంటి	-8.46976
▁వీటి	-8.4712
శా	-8.47242
▁వెళ్లి	-8.4738
▁ారు	-8.47381
▁కంటే	-8.47407
▁చూడ	-8.47411
▁ఎందుకు	-8.47436
▁హైకోర్టు	-8.47904
▁టై	-8.4803
▁చేసుకున్న	-8.48136
▁వ్యాపార	-8.48288
▁సో	-8.48398
లేదని	-8.48699
▁కేటీఆర్	-8.48832
▁ఆరోపించారు	-8.48936
▁వస్త	-8.49065
నుంది	-8.49423
రావు	-8.49822
▁ఇక్కడ	-8.49969
▁జాతీయ	-8.4999
▁సాధించ	-8.50025
▁కలెక్టర్	-8.50045
▁రె	-8.50163
▁నాయకులు	-8.50213
▁లైన్	-8.50237
▁విజయం	-8.5032
▁అరెస్ట్	-8.50333
▁వైరల్	-8.50493
▁వైఎస్	-8.50576
▁సిబ్బంది	-8.50881
▁ప్రకటన	-8.51049
▁తెలిసిందే	-8.51108
▁కష్ట	-8.51168
ంధ	-8.51344
▁అధ్యక్షుడు	-8.51472
▁తక్కువ	-8.51498
▁25	-8.5155
▁రీ	-8.51752
▁నగర్	-8.52033
▁ంద	-8.52143
▁మద్దతు	-8.52176
▁క్యా	-8.52293
లె	-8.52469
▁ప్రాజెక్టు	-8.52516
హా	-8.52821
▁తీసుకున్న	-8.53263
▁మాట	-8.53541
ర్చ	-8.53545
ఫీ	-8.53687
▁ల్లో	-8.53844
▁నో	-8.54016
▁నీటి	-8.54203
▁వెల్లడించారు	-8.54345
స్తు	-8.54446
▁పైగా	-8.54459
▁రు	-8.54567
▁కొట్ట	-8.54597
▁హత్య	-8.54702
▁బస్సు	-8.54703
▁కొందరు	-8.54817
▁అమ	-8.549
▁అందులో	-8.5513
జన	-8.55136
▁రోజులు	-8.55158
▁మై	-8.55458
ెల్	-8.55463
▁దృష్టి	-8.55489
▁ఉంచ	-8.55592
▁ట్లు	-8.55608
▁200	-8.55892
▁భార్య	-8.55932
కె	-8.55973
▁13	-8.56104
▁కమిటీ	-8.56106
▁ఏపీలో	-8.5611
▁కాకుండా	-8.56221
సర	-8.56383
▁లేక	-8.56686
బడి	-8.56731
▁పోలీస్	-8.56876
▁ఆశ	-8.57058
▁పెళ్లి	-8.57173
▁బల	-8.57245
▁సరి	-8.57408
▁2024	-8.57411
జు	-8.5746
రె	-8.57544
▁ఇస్త	-8.57714
ారం	-8.5782
▁17	-8.57937
c	-8.5795
ధ్య	-8.57998
▁ఉంట	-8.58007
▁ధ	-8.58045
▁రోడ్డు	-8.58108
▁స్థానిక	-8.58116
స్తోంది	-8.58337
▁తు	-8.5837
యూ	-8.58458
▁ంది	-8.58465
▁కేంద్రం	-8.58543
▁ఇంకా	-8.58629
▁ప్రజా	-8.58662
క్ర	-8.58726
▁ఎల్	-8.58783
▁ఇద్దరు	-8.58798
▁24	-8.58956
▁తనకు	-8.59143
▁చేస్త	-8.59296
▁అడ్డ	-8.59381
.1	-8.59442
▁అతి	-8.59443
ుతోంది	-8.59512
▁16	-8.59561
▁ఆంధ్రప్రదేశ్	-8.59645
ందుకు	-8.59732
▁మార్కెట్	-8.59768
▁కోరారు	-8.59791
▁ک	-8.59924
▁నేతల	-8.59933
▁పనులు	-8.59987
▁పరీక్ష	-8.60084
▁నాగ	-8.60106
▁రాశి	-8.60141
కూ	-8.60436
▁మార్చ	-8.60492
▁చెంద	-8.6057
▁పిల్లల	-8.60661
▁వేయ	-8.61111
▁లి	-8.61125
ెంట్	-8.61154
▁డె	-8.61245
ుకుని	-8.61555
▁ప్రశ్న	-8.61629
▁కేవలం	-8.61681
▁బెంగళూరు	-8.61743
▁మారింది	-8.61992
బో	-8.62179
▁రోడ్	-8.62205
an	-8.62244
▁ఇంట్లో	-8.62248
▁క్ల	-8.62493
▁సీనియర్	-8.62495
▁పద	-8.62556
▁అయ్య	-8.62568
▁మోడీ	-8.62642
▁ఎక్స్	-8.62958
▁ఎక్కడ	-8.62966
▁ప్రాంతాల్లో	-8.63032
▁జరుగుతున్న	-8.63053
ತ	-8.63062
▁కారు	-8.63077
టే	-8.63215
▁ముఖ్య	-8.63378
ರ	-8.63434
▁ఎవర	-8.63478
▁సూచించారు	-8.63723
ವ	-8.63767
దర	-8.63785
ఠ	-8.63923
▁కూటమి	-8.64015
▁ట్ర	-8.64052
▁చేశాడు	-8.64106
▁రైల్వే	-8.64206
▁చిత్ర	-8.64212
ున్నారు	-8.64386
▁భూమి	-8.64404
p	-8.64462
୍	-8.64698
బ్బ	-8.64782
ಂ	-8.64783
▁చూప	-8.64974
టింగ్	-8.65178
ର	-8.65396
మెంట్	-8.65483
▁పోస్ట	-8.65501
ివిధ	-8.65544
▁మృతి	-8.65559
▁వైద్య	-8.65599
తుందని	-8.65754
▁తే	-8.6583
▁గుర్తించ	-8.65957
▁అప్ప	-8.66011
▁అవసరం	-8.66403
▁ఎవరి	-8.66412
▁అను	-8.66472
▁వర్షాలు	-8.6658
▁50	-8.66703
▁కె	-8.66854
▁జై	-8.66961
▁మరోసారి	-8.67035
▁అక్కడి	-8.67214
పే	-8.67644
▁చే	-8.67652
▁వైపు	-8.67658
▁రిలీజ్	-8.67785
▁చేపట్ట	-8.67819
▁కొనుగోలు	-8.67917
▁వరద	-8.67932
▁బాగా	-8.67989
▁ఎంతో	-8.68107
▁సొంత	-8.68117
▁బు	-8.68307
▁తిరుమల	-8.68321
▁అల	-8.68353
▁రాయ	-8.68393
▁ప్రారంభ	-8.684
▁సమయం	-8.68418
▁ఉంటాయి	-8.68761
▁సిద్ధ	-8.68932
దని	-8.68989
▁చివరి	-8.69047
▁అస	-8.69146
▁మండల	-8.69296
▁ఫ్ల	-8.69514
ప్ర	-8.6953
▁లేని	-8.69538
ందు	-8.69541
▁వస్తున్న	-8.69673
▁ప్రారంభించ	-8.69752
ాడని	-8.69822
▁జీవిత	-8.69937
▁ర్	-8.70065
ియన్	-8.70076
ేలా	-8.70082
S	-8.7026
▁లతో	-8.70289
జన్	-8.704
కపోవడం	-8.70654
▁మీరు	-8.70684
▁ప్రకటించారు	-8.70895
▁ఇంత	-8.70912
▁పరిధిలో	-8.71017
ారెడ్డి	-8.71184
▁వ్యతిరేక	-8.71211
▁శా	-8.71221
▁అక్రమ	-8.71229
▁ఏక	-8.71319
తాము	-8.71328
r	-8.71431
▁అలా	-8.71517
▁ప్రేమ	-8.71558
▁ప్రాంత	-8.71715
▁జి	-8.71756
▁త్వరలో	-8.71772
ఛ	-8.71925
▁తల	-8.71985
▁పార్	-8.72134
▁పోలింగ్	-8.72296
▁ప్రాంతాల	-8.72346
▁నిర్ణయ	-8.72431
▁బాల	-8.72497
ెన్స్	-8.72507
ಲ	-8.72533
▁నిర్ణయించ	-8.72681
▁పరుగులు	-8.7271
▁అల్	-8.72727
▁సేవ	-8.72737
▁గంటలకు	-8.72742
▁కల్పించ	-8.72882
▁ఇచ్చ	-8.7291
▁థ	-8.7292
▁వ్యాఖ్యలు	-8.72929
▁వెంకట	-8.73069
▁తెచ్చ	-8.73167
m	-8.73258
▁డైరెక్టర్	-8.73258
▁కలిగి	-8.73346
స్తూ	-8.73417
గ్రా	-8.73553
▁م	-8.73628
▁కార్యాలయ	-8.73652
ర్ల	-8.73793
▁లీ	-8.73964
▁సర్వే	-8.74035
▁ఖర్చు	-8.74075
▁భూ	-8.74212
ت	-8.74263
గో	-8.74369
▁!	-8.74394
▁స్త	-8.74505
▁ఆలయ	-8.74597
▁పాలన	-8.74689
▁లాంటి	-8.74722
▁ప్రముఖ	-8.74739
▁మహా	-8.74789
డమే	-8.74819
ండ్ల	-8.7482
▁చేశా	-8.7484
▁మరియ	-8.749
▁జూన్	-8.75071
▁రోజుల్లో	-8.75122
▁అప్పటి	-8.75123
యాల	-8.75231
▁2023	-8.75279
▁ముందుకు	-8.75281
▁A	-8.75523
▁నిర్వహించారు	-8.75557
▁సంబంధించి	-8.75574
▁జన	-8.75667
బర్	-8.75788
ీయ	-8.75956
▁ఇప్పటి	-8.7605
▁అడుగు	-8.76086
▁శుక్రవారం	-8.76212
▁ఐదు	-8.7623
▁పోయ	-8.76291
▁పార్టీలో	-8.76622
▁జైలు	-8.76655
▁రంగ	-8.76784
▁క్రికెట్	-8.7679
ک	-8.76877
▁శి	-8.76888
▁చైర్మన్	-8.76936
▁రాజ్	-8.7696
ామన్నారు	-8.76981
▁కావ	-8.76986
ٹ	-8.77008
▁ప్రభావం	-8.77032
▁వీరి	-8.77234
చ్చి	-8.77355
▁డా	-8.77372
▁సమస్యల	-8.77468
డే	-8.77635
▁వివరించారు	-8.77654
▁నె	-8.77708
వాద	-8.77723
▁సోమవారం	-8.7781
▁మరోవైపు	-8.77828
▁ప్రాంతంలో	-8.77896
▁శ్రీనివాస్	-8.78062
▁కొనసాగ	-8.78106
▁చేస్తే	-8.78152
▁నాటి	-8.78237
▁దీనిపై	-8.78286
▁రైతు	-8.78415
ాలంటే	-8.78619
ల్లా	-8.78689
▁దీనికి	-8.78814
▁జరిగే	-8.78915
▁నగర	-8.78968
▁దేశాల	-8.78998
▁సాయంత్ర	-8.79179
▁స్టా	-8.79203
▁పార్లమెంట	-8.79301
ుండగా	-8.79476
▁అధినేత	-8.79658
సే	-8.79731
▁ాయి	-8.79767
రియా	-8.79802
▁ఉంటుందని	-8.80083
▁మహ	-8.80161
▁ఎప్పుడ	-8.80295
▁భాగ	-8.80361
▁భా	-8.80393
హి	-8.80396
▁22	-8.80413
م	-8.8045
س	-8.80503
▁లక్ష	-8.80825
▁సర్	-8.80884
କ	-8.81086
ారా	-8.81147
▁వారం	-8.81189
▁ఫై	-8.81222
పోయింది	-8.81228
రై	-8.81252
▁విద్యా	-8.81295
య్యారు	-8.81342
▁కప్	-8.81368
▁ఆధార	-8.81391
▁కథ	-8.8143
▁టె	-8.81471
▁ప్రశ్నించారు	-8.81562
▁బంగారం	-8.81572
▁చోటు	-8.81693
▁పాట	-8.81739
▁ఎన్నికలు	-8.81951
▁కీ	-8.81954
▁అంశాల	-8.82154
▁భద్రత	-8.82185
▁డ్	-8.82232
▁పంట	-8.82274
▁అండ్	-8.82293
▁వస్తే	-8.82345
ళ్ళ	-8.82484
▁పూ	-8.82617
▁వర్గ	-8.82631
గ్ర	-8.82682
g	-8.82841
▁నమ్మ	-8.82871
▁చేయడానికి	-8.83018
▁పేరుతో	-8.83095
▁హో	-8.83159
▁తేదీన	-8.83213
▁వ్యవస్థ	-8.83227
▁సహ	-8.83263
గిరి	-8.8337
▁కేసులు	-8.83416
▁కవిత	-8.83445
రాజ్	-8.83609
▁ాడు	-8.83611
▁మార్చి	-8.8377
మంగళవారం	-8.83927
▁వ్య	-8.8399
▁ఆదివారం	-8.84003
▁చేసేందుక	-8.84039
▁వీర	-8.84066
▁దర్యాప్తు	-8.84081
▁నేడు	-8.84106
y	-8.84159
▁పంచ	-8.84222
C	-8.84258
▁పేర్కొంది	-8.84315
▁కొంత	-8.84494
▁బీసీ	-8.84571
▁రద్దు	-8.84711
▁విలువ	-8.8474
▁చీఫ్	-8.84824
▁బాబు	-8.84995
▁స్థాయి	-8.85058
▁మొ	-8.85108
▁సంఖ్య	-8.85288
▁పెరుగు	-8.85308
▁ారని	-8.85326
▁రాష్ట్రాల	-8.85328
▁తీసుకు	-8.85392
▁ب	-8.85449
▁ఆరోపణలు	-8.85474
▁చేశారని	-8.85624
▁ఎమ్మెల్సీ	-8.85732
D	-8.858
▁ఆరు	-8.85858
▁తీ	-8.85975
ుకోవడం	-8.86081
▁ఓటు	-8.86106
""	-8.86126
వారు	-8.86195
తున్నారు	-8.86246
▁సహా	-8.86319
పూర్	-8.86344
▁సంజయ్	-8.86368
▁కేటాయించ	-8.86528
ఈ	-8.86532
▁లలో	-8.86541
▁శనివారం	-8.86608
▁వరకూ	-8.8661
ింపు	-8.86736
▁లె	-8.86911
.5	-8.8707
ెత్త	-8.87072
▁రైతులు	-8.87076
▁సూ	-8.87128
n	-8.87142
▁ఇజ్రాయెల్	-8.8725
▁చెప్పిన	-8.8726
▁మండలం	-8.87311
▁భర్త	-8.87336
ద్ధ	-8.87371
▁స్థల	-8.87423
స్తే	-8.87444
▁డబ్బు	-8.87488
▁అయ్యారు	-8.87513
ుతున్నాయి	-8.87572
▁లోకి	-8.87595
▁చెల్లించ	-8.87749
ృత	-8.87796
▁జే	-8.87999
▁హి	-8.88048
య్యాయి	-8.88089
ూర్	-8.88133
P	-8.88343
▁ఉప	-8.88355
v	-8.88464
▁పోస్ట్	-8.88464
▁పనుల	-8.88599
▁తాగ	-8.88703
త్వం	-8.8876
I	-8.89183
▁21	-8.89302
నాథ్	-8.89494
▁రైలు	-8.89589
పర	-8.89639
ాయ్	-8.89874
ట్స్	-8.89897
▁చట్ట	-8.90084
▁వాళ్లు	-8.90133
ేజ్	-8.90169
▁కార్యక్రమంలో	-8.90252
▁ఒకే	-8.9035
େ	-8.90421
▁చేయాల	-8.90511
▁సిటీ	-8.90523
త్యంత	-8.90529
▁పదవి	-8.9057
▁నెలల	-8.90615
ొక్క	-8.9066
ేశ్వర	-8.90674
ర్లు	-8.90878
ొచ్చు	-8.90935
▁తయారు	-8.9095
▁మార్పు	-8.90952
రెడ్డి	-8.91252
నో	-8.91299
▁విధంగా	-8.9136
▁సభ్యులు	-8.91361
షా	-8.91408
▁ನ	-8.9145
▁తల్లి	-8.9145
▁సూర్య	-8.91451
▁లోనూ	-8.91516
ర్తి	-8.91595
▁నివేదిక	-8.91777
▁భారీగా	-8.91813
▁వాతావరణ	-8.91817
▁లెక్క	-8.91897
▁చేస్తామని	-8.91965
▁విమర్శించారు	-8.91968
▁స్థాయిలో	-8.92
▁బ్యాంకు	-8.92132
A	-8.92237
▁సే	-8.92239
వై	-8.92269
▁గురువారం	-8.92284
▁చంద్ర	-8.92368
▁తీసుకో	-8.9237
ొద్ద	-8.92401
▁అయినా	-8.92422
▁చుట్ట	-8.92514
▁అధిక	-8.92945
▁గ్ర	-8.93001
ిస్తూ	-8.93148
సె	-8.93173
▁పార్టీల	-8.9319
▁చైనా	-8.93217
ان	-8.93264
k	-8.93305
▁నిలిచ	-8.93322
▁దశ	-8.93373
ନ	-8.93562
▁నిరసన	-8.93562
▁س	-8.93585
▁సంవత్సరం	-8.93623
▁40	-8.93624
▁మ్యా	-8.93678
▁మాట్లాడారు	-8.9368
మై	-8.93718
▁సూపర్	-8.93748
గే	-8.93807
▁చికిత్స	-8.93819
▁బిల్లు	-8.93917
▁క్ష	-8.93974
▁అభ్యర్థుల	-8.94037
ాది	-8.94114
▁సమస్యలు	-8.94167
▁పాల్పడ	-8.94246
▁రూపాయల	-8.94259
ा	-8.94336
▁కావడంతో	-8.9443
▁కృష్ణ	-8.94489
50	-8.94508
▁బీబీసీ	-8.94509
▁అరెస్టు	-8.94844
▁కర్ణాటక	-8.94895
▁భారతీయ	-8.94901
.2	-8.94955
▁ప్రైవేట	-8.95117
▁తెల	-8.95156
▁అవుత	-8.95302
▁భూముల	-8.95413
ించడం	-8.95439
▁నిజ	-8.95493
▁మందికి	-8.95529
ش	-8.95641
▁మైన	-8.95679
▁శ్ర	-8.95774
▁రై	-8.95782
▁చేసినట్లు	-8.95862
▁సెంటర్	-8.95907
▁ప్లాన్	-8.95993
▁కొండ	-8.96019
▁భక్తులు	-8.9605
▁కుటుంబం	-8.96054
▁పల్లి	-8.96196
▁పర్యటన	-8.96255
▁వరంగల్	-8.96343
میں	-8.96343
▁కాపాడ	-8.96413
▁వేడుక	-8.96584
టిక్	-8.96727
▁పది	-8.96781
▁ఎయిర్	-8.96964
▁నరేంద్ర	-8.97052
▁కన్	-8.97066
R	-8.9718
▁సంవత్సరాల	-8.97182
▁పెట్టి	-8.97314
▁కాల్	-8.9746
▁వరుస	-8.97589
▁బాధ్యత	-8.97658
▁ప్రకటించింది	-8.97669
▁విన	-8.97755
▁బుధవారం	-8.97853
ిస్తే	-8.97861
త్య	-8.97878
د	-8.9789
ఘా	-8.97908
▁షర్మిల	-8.98032
▁విద్యుత్	-8.98046
▁అడిగ	-8.98072
ుకొని	-8.98184
▁స్పందించ	-8.98195
▁ప్రకటించ	-8.98443
▁వరల్డ్	-8.98572
▁గెలిచ	-8.98615
▁ఫ్ర	-8.98628
▁హక్కు	-8.98684
▁తమకు	-8.98769
▁తండ్రి	-8.98843
మార్	-8.98948
పాల్	-8.99023
ెస్	-8.99042
ంటున్న	-8.99133
▁తీసుకుంట	-8.99173
పర్	-8.9923
▁వివరాల	-8.99246
▁సభ్యుల	-8.99292
▁అర	-8.99301
▁పూజ	-8.99354
▁ఉద్యోగుల	-8.99503
▁యాత్ర	-8.99608
▁పిటిషన్	-8.99659
▁చేయాలి	-8.99738
▁ఇవ్వాలని	-8.99839
▁వేస	-8.99868
▁పలువుర	-8.99882
ుకుంటున్న	-8.99914
▁డిసెంబర	-8.99922
▁రావ	-8.99999
సిన	-9.00065
ించింది	-9.00104
హార	-9.00136
▁దీన్	-9.00163
ب	-9.00168
▁ఉపయోగించ	-9.00173
▁పెరిగ	-9.00182
▁అసలు	-9.00236
త్తు	-9.00242
▁పొత్తు	-9.00242
▁కళ్యాణ్	-9.00299
▁విద్యార్థుల	-9.00339
▁ప్రా	-9.00351
▁ందుకు	-9.00376
▁సంక్షేమ	-9.00391
బోతున్న	-9.00407
▁کی	-9.00522
▁ج	-9.00547
ప్పటికీ	-9.0059
ేందర్	-9.00615
▁బెయిల్	-9.00667
▁సుప్రీంకోర్టు	-9.00758
▁కారణం	-9.00829
▁తీర్పు	-9.00852
▁మల్ల	-9.00868
▁ت	-9.01005
▁ఉండగా	-9.01009
▁జాగ్రత్త	-9.01127
ండా	-9.01132
▁అప్	-9.0119
▁మండిపడ్డారు	-9.0122
▁అంటున్నారు	-9.01234
దారు	-9.013
పాటు	-9.01308
▁సిరీస్	-9.01315
▁జిల్లాల్లో	-9.01357
▁తోపాటు	-9.01556
▁భక్తుల	-9.01597
▁షేర్	-9.01602
లేక	-9.01758
▁రామ్	-9.01775
▁రికార్డు	-9.01777
▁అలాంటి	-9.01822
▁విమర్శలు	-9.01869
ಡ	-9.0187
▁అధ్యక్ష	-9.01875
▁స్వామి	-9.02049
ବ	-9.02057
▁ఎంపిక	-9.02057
▁దక్క	-9.02226
O	-9.02337
▁దరఖాస్తు	-9.02337
▁గ్రూప్	-9.02337
▁100	-9.02373
▁0	-9.02415
▁కాల	-9.02594
▁స్థానాల	-9.02641
▁తప్పు	-9.02693
▁శక్తి	-9.02807
▁బడ్జెట్	-9.029
▁ఇష్ట	-9.02956
ేశారు	-9.03014
▁ఉన్నా	-9.03143
▁లోనే	-9.03183
▁ప్రయత్నం	-9.03372
▁అంట	-9.03435
▁ప్రమాద	-9.03449
▁చూపించ	-9.03468
▁నిర్మించ	-9.03518
హ్	-9.0352
▁28	-9.03537
▁ఏప్రిల్	-9.03656
▁సమావేశం	-9.03778
▁నాకు	-9.03837
▁ఖమ్మం	-9.03848
▁ఉన్నట్లు	-9.03929
▁ఇబ్బందులు	-9.03955
చర్	-9.04015
▁ఎండ	-9.04035
▁స్థానంలో	-9.04162
▁డే	-9.04226
పె	-9.04324
మె	-9.04356
▁టి	-9.04428
▁చూస	-9.04469
ేశ్	-9.04596
▁చిత్రం	-9.04617
ొచ్చ	-9.04667
▁బే	-9.04737
▁తిన	-9.04881
▁2019	-9.04896
▁దర్శన	-9.04897
ైంది	-9.04988
▁ఇంటికి	-9.0507
▁ధరలు	-9.05122
ిస్తారు	-9.05253
ఢ	-9.0528
▁నేర	-9.05307
ేంద్ర	-9.05418
▁ఎకరాల	-9.05448
▁ఘన	-9.056
T	-9.05673
ୁ	-9.05764
▁డబ్బులు	-9.05867
▁చేసారు	-9.05886
▁S	-9.06065
▁ఉంద	-9.06119
▁ఒకటి	-9.06139
▁ించ	-9.06159
▁వర్	-9.06186
▁ఐటీ	-9.06267
▁గల	-9.0632
▁వార్త	-9.06426
▁మూడో	-9.06448
▁యోగ	-9.0651
▁విజయవాడ	-9.0664
▁ఆలోచన	-9.06738
ನ	-9.06741
▁సైతం	-9.06746
▁వచ్చాయి	-9.06768
▁అభిప్రాయ	-9.06835
▁ఊర	-9.06835
▁ఇవాళ	-9.06933
▁చరిత్ర	-9.06934
▁బాధ	-9.06998
▁ఆన్	-9.07069
▁ే	-9.07091
▁ఉమ్మడి	-9.07326
▁తీసుకెళ్ల	-9.07432
▁రాజీనామా	-9.07621
▁విషయ	-9.07651
▁ముంబై	-9.0772
మైంది	-9.07796
▁కార్మికుల	-9.0784
▁చేసుకున్నారు	-9.08128
▁జరిప	-9.08146
▁23	-9.08214
దీప్	-9.08268
కుంటే	-9.08327
▁కనీస	-9.08435
కాలం	-9.08728
▁కార్యదర్శి	-9.08813
▁దక్షిణ	-9.08813
▁జాబితా	-9.08912
▁వర్షం	-9.08972
ఘ	-9.09081
▁ట్టు	-9.0915
పురం	-9.09245
ార్థ	-9.09307
▁కాబట్టి	-9.09389
▁ట్వీట్	-9.09514
స్తామని	-9.0962
▁ప్లే	-9.09667
▁ఆసక్తి	-9.09775
▁కాలేజీ	-9.09866
▁కల్యాణ్	-9.09881
▁అవినీతి	-9.10119
▁చేసుకో	-9.1018
▁సమావేశంలో	-9.10201
▁పాకిస్తాన్	-9.1022
▁సమీపంలో	-9.10224
ేష్	-9.10286
▁ఉచిత	-9.10323
▁సాయం	-9.10354
జె	-9.10359
▁ఇళ్ల	-9.10414
▁సబ్	-9.10416
▁కార్యక్రమాల	-9.10448
▁పరుగుల	-9.1047
▁చేస్తారు	-9.10506
▁విగ్రహ	-9.10525
ాపూర్	-9.10584
▁జె	-9.10762
ar	-9.10794
▁C	-9.10802
▁ఫె	-9.10835
▁లక్ష్యం	-9.10913
టువంటి	-9.10951
▁నీరు	-9.1115
▁వ్యాప్తం	-9.11177
▁అధికారి	-9.11231
▁సామాజిక	-9.11238
టరీ	-9.11324
▁మధ్యాహ్న	-9.1134
ాబాద్	-9.11394
▁స్కూల్	-9.11548
▁చంప	-9.11556
▁ాం	-9.11617
ఎల్	-9.11618
▁27	-9.11618
▁ప్రాణ	-9.11786
▁సన్	-9.11797
▁వెనుక	-9.11799
▁పోలీసు	-9.11823
▁అధికారిక	-9.11903
▁పథకాల	-9.11979
ందో	-9.11997
▁నవంబర	-9.12008
▁ఉద్యమ	-9.1206
▁ఇబ్బంది	-9.1206
పోయి	-9.12081
▁జనవరి	-9.12165
ಗ	-9.12212
▁కాలంలో	-9.1227
బు	-9.12304
మర్	-9.1231
▁వేగం	-9.12315
▁ఆసుపత్రి	-9.1237
▁బీఆర్	-9.12466
▁అందుకు	-9.12617
గూడ	-9.12618
▁ಸ	-9.12699
▁దే	-9.12746
▁ఎన్టీఆర్	-9.12785
▁పోత	-9.12825
▁రకాల	-9.12836
▁తీసుకున్నారు	-9.1284
▁నిర్మాణ	-9.12876
ందరూ	-9.12952
▁ంట	-9.12984
▁భావించ	-9.13038
▁చీ	-9.13113
▁పెరిగి	-9.13204
▁కార్డు	-9.13244
▁రాజు	-9.13419
▁26	-9.13456
▁ఇచ్చింది	-9.13458
▁అండ	-9.13751
▁విషయాల	-9.13825
▁బండి	-9.13829
▁వ్యవసాయ	-9.13829
▁తెర	-9.13872
▁తీరు	-9.1388
▁సభలో	-9.13961
చా	-9.13974
▁నెట్	-9.14015
▁కాదని	-9.14063
▁న్యాయ	-9.14097
ారో	-9.14158
▁తెలిప	-9.14233
▁پ	-9.14437
▁ఆయనకు	-9.14554
ಕ	-9.14563
సన్	-9.14663
M	-9.14685
▁తీసుకొచ్చ	-9.14863
▁సీట్లు	-9.14874
▁కుంట	-9.14909
▁ఉద్యోగ	-9.14935
▁సాగు	-9.14977
▁షో	-9.15014
▁ఎన్నో	-9.15031
▁పర్	-9.15108
▁అక్టోబర్	-9.1512
ఎఫ్	-9.1515
▁రూపాయలు	-9.15298
▁/	-9.15342
▁హెచ్	-9.15402
ఫా	-9.15521
▁R	-9.15678
▁కెప్టెన్	-9.15705
తులు	-9.15748
▁వస్తుంది	-9.15922
▁అందరి	-9.15931
▁సెప్టెంబర్	-9.15942
▁యాదవ్	-9.15951
క్షన్	-9.15964
▁లేఖ	-9.15977
▁ಮ	-9.16039
▁చెక్	-9.16131
▁ವ	-9.16154
▁ప్రేక్షకుల	-9.16166
▁కొద్ది	-9.16171
పోవడం	-9.16227
▁కోల్పోయ	-9.1623
▁సమావేశ	-9.16252
▁సంచలన	-9.16381
డుతున్న	-9.16465
కపోతే	-9.16469
▁వివాహ	-9.16506
▁అందుబాటులో	-9.16534
▁ఓటర్ల	-9.16537
▁క్యాప్షన్	-9.16597
▁కమిషన్	-9.16597
▁తిరుపతి	-9.16605
▁సీట్ల	-9.16617
▁ఆగ్రహం	-9.16705
▁పడ్డ	-9.16914
▁సీబీఐ	-9.16921
▁అయి	-9.16948
▁కాలం	-9.17118
▁జరుగుత	-9.17248
పాల	-9.17274
▁ఉద్యోగాల	-9.17343
▁ఢిల్లీలో	-9.1735
▁ముగ్గురు	-9.17355
▁ఖాతా	-9.17357
▁నిర్వహించిన	-9.17424
▁సర్వీస	-9.17557
▁ఆస్ట్రేలియా	-9.17573
▁వర్గాల	-9.17682
▁చేస్తున్నారని	-9.17895
లింగ్	-9.17933
▁సిద్ధం	-9.17964
▁దూరం	-9.18118
▁విధించ	-9.18213
▁ఆధ్వర్యంలో	-9.18229
▁తగ్గించ	-9.18236
▁కారణాల	-9.18254
▁తెలిసింది	-9.18271
▁వ్యా	-9.18318
▁అమిత్	-9.18342
▁సినిమాలో	-9.18393
▁కోల్	-9.18434
▁ఆగస్టు	-9.18449
▁ఉత్తర	-9.18475
ಯ	-9.18501
పోయారు	-9.18533
▁పాఠశాల	-9.18559
ీకరణ	-9.18651
▁గవర్నర్	-9.18669
▁బ్యాంక్	-9.18677
▁పట్టు	-9.18704
▁ఈడీ	-9.1871
ఎన్	-9.18731
▁ఏర్పడ	-9.18737
▁తీర	-9.18746
▁మరణ	-9.1882
▁చేరుకున్న	-9.18846
▁సహాయ	-9.18903
▁మనం	-9.18919
▁ఎదురు	-9.19001
▁మరణించ	-9.19005
▁ఎవరు	-9.19017
▁చూసి	-9.19023
▁అనుమాన	-9.1913
▁కారణమ	-9.1918
▁నియోజకవర్గంలో	-9.19229
▁బోర్డు	-9.19334
▁చెబుత	-9.1935
▁పడుతున్న	-9.19393
త్వ	-9.19398
పట్ల	-9.19532
▁ఆత్మహత్య	-9.19554
▁సంఘటన	-9.19668
▁అనుమతి	-9.19689
▁హె	-9.19694
▁మహిళల	-9.19705
▁ఖాన్	-9.19784
▁పాల్గొన	-9.20114
▁ప్రెస్	-9.20138
▁లభించ	-9.20161
▁చేస్తోంది	-9.20295
▁జీవ	-9.20333
▁ప్రయాణ	-9.2036
▁‍	-9.20482
▁ప్రారంభం	-9.20572
▁ఫైనల్	-9.20586
ع	-9.20672
ମ	-9.20672
▁చేయించ	-9.20722
▁కార్యక్రమ	-9.2078
▁ఇండియన్	-9.20785
▁మద్యం	-9.20786
▁ఉండాలని	-9.20814
▁ఇరు	-9.20829
▁చేస్తుంది	-9.20853
E	-9.20999
▁బాధితుల	-9.21007
ుతారు	-9.21029
▁దారి	-9.21144
▁వేసి	-9.21192
▁చెన్నై	-9.21236
al	-9.21312
▁గుర్తించారు	-9.21332
▁విశ్వ	-9.21364
సార్లు	-9.21373
▁పార్టీలు	-9.21387
▁ముందుగా	-9.21388
▁ప్రతిపక్ష	-9.21486
మంత	-9.2152
▁హ్యా	-9.2153
▁అంతర్జాతీయ	-9.21575
▁మహిళలు	-9.21591
▁సంఘం	-9.21632
▁తొలగించ	-9.21648
▁తీసి	-9.21655
ోన్న	-9.217
▁నిందితుల	-9.21707
▁సీజన్	-9.2178
▁ఇచ్చే	-9.21795
▁అవకాశాలు	-9.21855
▁అత్యధిక	-9.2203
▁దాఖలు	-9.22031
L	-9.22144
ೇ	-9.22144
▁అంశం	-9.22146
▁నిన్న	-9.22192
/	-9.22224
▁ఇండ్ల	-9.22309
▁వివరాలు	-9.22337
య్యే	-9.22428
▁రాజకీయాల	-9.2247
▁ప్రక్రియ	-9.22487
▁మహారాష్ట్ర	-9.22487
▁అవుతున్న	-9.22549
▁రోహిత్	-9.22602
▁రక్త	-9.22613
ైతే	-9.22626
▁కొడుకు	-9.2268
ಪ	-9.22716
▁స్ట్ర	-9.22727
▁రాష్ట్రాల్లో	-9.22741
▁వెళ్త	-9.22783
యిన	-9.22796
▁ప్రయాణికుల	-9.22834
▁కనిపిస్త	-9.22849
▁తిరు	-9.22906
ుకోవాలని	-9.22999
ళి	-9.23062
▁తీసుకోవాలని	-9.23081
▁నిర్మాణం	-9.23084
న్నట్లు	-9.23125
▁ఉన్నాయని	-9.23274
w	-9.23292
▁సుమారు	-9.23529
▁నిద్ర	-9.23534
▁రేప	-9.23742
▁కేంద్రంలో	-9.23744
▁సెల్	-9.23851
▁వెల్లడించింది	-9.24086
▁బహిరంగ	-9.24103
▁ముఖ్యం	-9.24132
▁విషయాన్న	-9.2415
వచ్చ	-9.24322
▁పక్క	-9.24424
▁పాత	-9.2448
▁ఇచ్చి	-9.24489
ତ	-9.24569
▁శర్మ	-9.24581
▁ಕ	-9.24615
▁వికెట్	-9.24667
▁వెళ్లిన	-9.24784
▁తల్లిదండ్రుల	-9.24803
▁అద్భుత	-9.24803
▁న్యూస్	-9.24883
▁చనిపోయ	-9.24886
▁రావడం	-9.24905
▁ఇంటర్	-9.25082
▁ఓవర్	-9.25131
▁శాస్త్ర	-9.25156
▁గుడ్	-9.25158
▁పెట్టారు	-9.25251
▁ప్రస్తుత	-9.25256
▁ఆట	-9.25261
▁31	-9.25388
▁వెబ్	-9.25411
▁ఆస్పత్రి	-9.25509
▁హాజరు	-9.25509
in	-9.2555
▁వాహనాల	-9.25594
▁గ్రామంలో	-9.25774
▁స్ప	-9.25831
ెస్ట్	-9.25931
▁ప్రొ	-9.26196
వ్య	-9.2634
▁గ్రహ	-9.26351
▁సారి	-9.26471
ಲ್ಲಿ	-9.26475
▁29	-9.26572
K	-9.26576
▁నేషనల్	-9.26576
▁దేశం	-9.26771
వ్యాప్తం	-9.26823
▁ఫోటో	-9.26935
▁వాదన	-9.26966
▁పడి	-9.27061
వల్ల	-9.27085
▁ధర్మ	-9.2712
▁నర్స	-9.27127
▁ప్యా	-9.27159
శాఖ	-9.27227
▁ఆధారంగా	-9.27268
▁విశాఖ	-9.27317
10	-9.27324
▁భేటీ	-9.27417
▁వంద	-9.27519
ار	-9.27559
స్వామి	-9.27656
▁ప్రచార	-9.27667
▁ఆదేశించారు	-9.27776
ాత్మక	-9.27776
▁రష్యా	-9.27777
▁నాయకుల	-9.27899
▁చర్చించ	-9.27922
▁ప్రయత్నించ	-9.28139
▁లోకేష్	-9.28144
ః	-9.2826
▁చేస్తా	-9.28266
వేత్త	-9.28334
▁పంపిణీ	-9.28382
▁ఎదుర	-9.28496
▁సాయి	-9.28511
▁చేసుకోవాల	-9.28531
▁గౌడ్	-9.2863
▁పేపర్	-9.28679
▁వెల్	-9.28685
▁దాట	-9.28728
V	-9.28747
▁రెండ	-9.28767
▁గురు	-9.2882
▁సిద్ద	-9.28827
▁నారాయణ	-9.28866
▁ప్రమాణ	-9.2887
▁తగ్గి	-9.28892
▁P	-9.28929
▁చిక్క	-9.28977
▁గౌరవ	-9.28991
▁1,	-9.29045
▁ప్రతీ	-9.29107
▁చట్టం	-9.29122
▁వేదికగా	-9.29165
▁60	-9.29199
▁గుర్తింపు	-9.29235
▁అవి	-9.29307
▁ఏడు	-9.2932
▁ఒత్తిడి	-9.29358
▁పరిశ్రమ	-9.29358
ుంటారు	-9.296
▁సరైన	-9.29612
ండే	-9.29629
▁లేదన్నారు	-9.29645
▁గంట	-9.29799
▁తేల్చ	-9.298
▁సముద్ర	-9.29849
▁ఏర్పాట్లు	-9.29867
▁పథకం	-9.29881
▁T	-9.29966
▁ఆర్టీసీ	-9.29973
▁విజయ్	-9.2998
▁రవి	-9.30033
▁ఆఫీసర్	-9.30106
▁ఫ్యాన్స్	-9.30116
▁క్రితం	-9.30222
▁షాక్	-9.30222
▁విద్యార్థులు	-9.3029
▁ట్రాఫిక్	-9.30344
▁అదన	-9.30417
▁వేశారు	-9.30434
▁నూ	-9.30439
▁చెబుతున్న	-9.30449
▁అవార్డు	-9.30468
▁బై	-9.30472
▁నుంచే	-9.30484
▁రంగంలో	-9.30488
ంటున్నారు	-9.30591
▁ఖాళీ	-9.30592
▁కృషి	-9.30716
▁చేసుకుంట	-9.30721
▁ప్పుడు	-9.30849
▁తరలి	-9.3094
▁గురి	-9.31019
▁చెప్త	-9.31069
బుల్	-9.31161
b	-9.31339
▁కూడి	-9.31365
కృత	-9.31417
▁యువత	-9.3145
▁వయసు	-9.31467
▁టీమ్	-9.31531
▁సినీ	-9.31663
▁ఆదాయం	-9.31674
▁లేకపోవడం	-9.31713
▁సర్కార్	-9.31716
▁2022	-9.31841
▁పక్కన	-9.31899
▁మంత్రులు	-9.31948
▁),	-9.31972
▁నష్ట	-9.3199
▁ఫుడ్	-9.32099
▁మార్పులు	-9.32312
▁ఐపీఎల్	-9.32324
పతి	-9.32497
▁వెళ్లే	-9.32544
'	-9.32555
▁శరీర	-9.32597
▁ద్వ	-9.32662
▁అయింది	-9.32816
▁కిలోమీటర్ల	-9.32852
▁సంగతి	-9.32853
▁కౌ	-9.3293
▁విమాన	-9.32978
▁వాయిదా	-9.33108
▁చెప్పింది	-9.33164
▁ప్రభావ	-9.33195
▁వచ్చారు	-9.33212
▁ఎమ్మెల్యేలు	-9.33341
▁కరీంనగర్	-9.33489
▁పండుగ	-9.3349
▁శుభ	-9.33501
▁అభి	-9.33811
▁ఎన్నిక	-9.33834
▁కమిషనర్	-9.33873
▁మున్సిప	-9.33873
▁ఉండాలి	-9.33905
▁యాక్ట	-9.33934
▁మత	-9.33984
▁నిమిషాల	-9.3413
▁అభ్య	-9.34133
▁మెరుగ	-9.34174
▁చూస్తున్న	-9.34203
▁ప్రారంభించారు	-9.34286
▁ఫలితాల	-9.3432
▁రూపొందించ	-9.34471
र	-9.34645
ుకుంది	-9.34692
▁లక్షలు	-9.34695
▁కావడం	-9.34712
B	-9.34787
▁వ్యూహ	-9.34907
▁ారా	-9.34954
▁సమర్పించ	-9.35034
▁అయ్యింది	-9.35139
▁చోట్ల	-9.35165
▁నాయుడు	-9.35166
▁వెంట	-9.35282
ହ	-9.35424
▁ఇవి	-9.35453
▁త్రి	-9.35477
▁సీటు	-9.35508
▁ముఖ	-9.35511
▁యూనివర్సిటీ	-9.35685
▁ఒక్కో	-9.35794
▁ఓటమి	-9.35818
▁చదువు	-9.35927
▁లక్ష్య	-9.35929
ف	-9.35947
▁తమిళనాడు	-9.35948
▁పిల్లలు	-9.36005
ందన్నారు	-9.36009
▁M	-9.36062
▁అవుతుంది	-9.36076
▁దొంగ	-9.36079
▁రాజధాని	-9.36083
ేనని	-9.36122
▁ముందే	-9.36157
▁నీళ్లు	-9.36248
▁నియోజకవర్గం	-9.36277
▁ఇస్తున్న	-9.36537
▁కర్	-9.36573
▁యువ	-9.36658
సీపీ	-9.36732
▁డిప్యూట	-9.36736
▁మౌ	-9.36827
▁మొక్క	-9.36927
▁శాంతి	-9.37022
▁సృష్టించ	-9.37052
▁కోహ్లీ	-9.37132
▁అర్థం	-9.37142
▁జల	-9.37352
▁హీరోయిన్	-9.37399
▁నష్టం	-9.37457
▁చాలామంది	-9.37666
▁కామెంట్స్	-9.37742
▁వేళ	-9.3775
▁చేతుల	-9.37783
▁విద్యార్థి	-9.37797
▁వాహన	-9.37855
▁మొదట	-9.37951
▁రైళ్ల	-9.38159
▁ఫిబ్రవరి	-9.38198
▁సంతోష	-9.38269
స్టు	-9.38274
▁కలిపి	-9.38351
▁తమిళ	-9.38356
▁I	-9.38361
▁పాల్	-9.38413
▁తరలించారు	-9.38433
▁దానికి	-9.38478
పడి	-9.38589
▁దాన్ని	-9.38595
▁ఓట్ల	-9.38599
▁ఉపయోగ	-9.38652
▁చెరువు	-9.38736
▁ఉంటున్న	-9.38833
ఓ	-9.38982
▁B	-9.38993
▁ప్రయోగ	-9.39285
▁ఛా	-9.39555
▁నంబర్	-9.3956
▁రానున్న	-9.39561
రాజు	-9.39798
▁రంగు	-9.39834
▁నియమించ	-9.39951
▁ప్రయత్నాలు	-9.40054
▁ఆహార	-9.4011
ంగి	-9.40119
▁కాస్త	-9.40135
▁కార్యకర్తలు	-9.40152
▁కిషన్	-9.40155
▁బొ	-9.40169
▁నటి	-9.40282
▁ఘ	-9.40312
▁చెయ్య	-9.40327
ందే	-9.40331
▁శిక్ష	-9.40478
ిరెడ్డి	-9.40501
▁అనుభవ	-9.40504
▁నిపుణులు	-9.40508
▁చేప	-9.40571
▁తనిఖీ	-9.40639
▁నటించ	-9.40641
▁د	-9.40697
▁దాడులు	-9.40705
▁కొడ	-9.40723
,000	-9.40794
▁తీసుకొ	-9.40807
▁ఓట్లు	-9.40888
▁నిధులు	-9.40977
ಮ	-9.41076
▁సార్లు	-9.41101
▁బ్యాటింగ్	-9.41105
▁బ్లాక్	-9.41191
▁తేడా	-9.41254
▁و	-9.41519
▁తరలించ	-9.41525
▁ఫస్ట్	-9.41638
▁షెడ్యూల్	-9.41743
▁పాయింట్	-9.41745
▁పెట్టిన	-9.41878
ଲ	-9.41882
▁ప్రజలను	-9.41916
▁సాధారణ	-9.42013
▁డై	-9.42014
కొండ	-9.42133
▁..!	-9.42158
▁అమరావతి	-9.42161
▁పుట్ట	-9.42196
▁ఆయా	-9.42198
▁ప్ల	-9.42298
▁గుజరాత్	-9.423
▁చేసుకుంది	-9.42307
ెయిన్	-9.42428
హెచ్	-9.42499
▁చేపట్టారు	-9.42541
▁లక్ష్మీ	-9.4258
▁నిర్వహణ	-9.4272
▁ఆదేశాలు	-9.42751
▁తీసుకుని	-9.42796
▁స్పెషల్	-9.43
▁ن	-9.43073
▁డిగ్రీ	-9.43142
▁శ్రీవారి	-9.43142
▁ఎందుకంటే	-9.43158
▁ఎఫ్	-9.43231
▁స్వాధీనం	-9.43282
▁పశ్చిమ	-9.43282
జ్జ	-9.4329
▁చూసిన	-9.43612
▁కావాల	-9.43656
▁అల్లు	-9.43683
▁ఎన్ని	-9.43714
▁చేపట్టిన	-9.43752
▁ఉంటారు	-9.4389
▁మెడిక	-9.43893
▁కుటుంబాల	-9.43993
▁హోం	-9.44032
▁చేత	-9.44073
▁యాప్	-9.44153
▁సమయ	-9.44313
▁ఒకరు	-9.4436
▁ందని	-9.44364
▁టీమిండియా	-9.44416
▁కుమార	-9.44466
▁టార్గెట్	-9.44559
▁اس	-9.44561
▁అభ్యర్థులు	-9.44625
▁నామినేషన్	-9.44701
▁ప్రపంచంలో	-9.4474
▁సంఖ్యలో	-9.4479
▁హాస్పిటల్	-9.44844
▁ట్రై	-9.45014
ପ	-9.45131
▁సమావేశాల	-9.45145
▁టెస్టు	-9.45149
▁న్యూఢిల్లీ	-9.45275
▁ప్రసంగ	-9.45287
▁అభిమానులు	-9.45376
▁పడింది	-9.45483
▁ఇప్పటివరకు	-9.45563
▁చేర్చ	-9.45632
▁డ్రైవర్	-9.45707
▁అంతే	-9.45821
▁2014	-9.45852
▁పరిష్కార	-9.45852
▁విదేశా	-9.45852
▁వ్యాఖ్యల	-9.45895
▁క్యూ	-9.45901
▁గడ్డ	-9.45902
▁కురిస	-9.45936
▁వేసిన	-9.45939
▁జన్మ	-9.45982
▁తగిన	-9.46078
ప్పటి	-9.46096
▁అదుపులోకి	-9.46143
-2	-9.46226
నగర్	-9.463
▁లేదంట	-9.46323
▁నల్ల	-9.46327
▁అనుకున్న	-9.46353
▁ఏదైన	-9.46439
▁బాధ్యతలు	-9.46458
▁భాష	-9.46508
▁ఆహారం	-9.46643
▁నిర్వహిస్తున్న	-9.46736
▁నిర్వహిస్త	-9.46862
▁నిబంధనల	-9.46916
ನ್ನು	-9.47015
▁దారుణ	-9.47028
ురాలు	-9.47042
▁రేపు	-9.47231
▁విమర్శ	-9.47273
▁న్యూ	-9.47292
ق	-9.47308
▁సీపీ	-9.47385
▁మరొక	-9.47466
▁చేయాల్సి	-9.47473
!	-9.47493
▁నోటీసులు	-9.47555
స్తోందని	-9.47608
▁అనేద	-9.47704
▁అందిస్త	-9.47743
▁టాప్	-9.47771
▁అమ్మాయి	-9.47899
▁దెబ్బ	-9.48024
▁పరిశీలించ	-9.48114
▁సెలవు	-9.48195
▁రావడంతో	-9.48224
త్రిక	-9.48246
▁విష	-9.48273
H	-9.48341
▁ఫలితాలు	-9.48418
ోత్సవ	-9.48488
▁హిందూ	-9.48489
▁నగరంలో	-9.48513
F	-9.48638
▁విధానం	-9.48638
▁దేశవ్యాప్త	-9.48718
పాటి	-9.48748
▁కేజ్రీవాల్	-9.48787
▁పడే	-9.48985
▁టీచర్	-9.49015
▁ఇవ్వడం	-9.49307
▁నెలలో	-9.49345
ری	-9.49358
▁రాజ్యాంగ	-9.49384
▁పవర్	-9.49429
▁తదితరులు	-9.49456
▁వాతావరణం	-9.49463
▁చిరంజీవి	-9.49534
ಳ	-9.49684
▁మృతదేహ	-9.49684
▁నిధుల	-9.49773
▁రక్షణ	-9.49836
▁బాల్	-9.49842
▁స్పందించారు	-9.49868
▁పాప	-9.49925
▁తెలుగుదేశం	-9.49985
గ్గా	-9.5
▁క్యాంప	-9.50147
▁వర్క్	-9.50155
on	-9.50193
▁ఉన్నారని	-9.50243
▁టెస్ట్	-9.50286
▁మందు	-9.50309
▁ఆఫీసు	-9.50439
పోతు	-9.50522
▁సంబంధం	-9.5059
▁టెక్	-9.50593
▁అప్పగించ	-9.50623
▁తాజా	-9.50675
▁వేసింది	-9.50676
▁సేకరించ	-9.50747
▁మోహన్	-9.50756
ಟ	-9.5076
▁పెరిగింది	-9.50812
▁ప్రయోజనాల	-9.50893
▁దాంతో	-9.50915
▁నియోజకవర్గ	-9.50933
▁పౌర	-9.5094
▁వేలు	-9.51007
▁గొప్ప	-9.5105
▁ధన	-9.51104
▁ఫర్	-9.5117
▁దీప	-9.51252
▁کو	-9.51323
▁ఫలితం	-9.51352
▁ఉండి	-9.51403
▁యుద్ధం	-9.51447
▁రోజ	-9.51548
▁దూరంగా	-9.51595
▁సూచన	-9.51658
ರು	-9.51668
▁డ్రా	-9.51752
▁వ్యవహరించ	-9.5181
▁తెలుస	-9.51901
▁సంఘాల	-9.5194
ుకోవడాని	-9.52017
▁పట్టణ	-9.52091
th	-9.5224
▁మానవ	-9.52438
▁తెలుసు	-9.52465
▁ఛార్జ	-9.52506
▁ందన్నారు	-9.52579
▁ముస్లిం	-9.52581
▁మిగిలిన	-9.5264
▁కొట్టి	-9.52682
▁కెమెరా	-9.52735
▁ఒప్పంద	-9.52736
▁విద్య	-9.52757
▁ఉండటంతో	-9.5277
అ	-9.52813
▁బరువు	-9.52893
▁పనిచేస్తున్న	-9.53022
▁సౌకర్య	-9.53046
▁కేరళ	-9.53047
▁ఆటో	-9.53082
రింగ్	-9.53134
▁పోరాడ	-9.53166
▁మంజూరు	-9.53201
▁సెంచరీ	-9.53201
▁మార్గం	-9.53222
▁బీజేపీకి	-9.53224
కృష్ణ	-9.5335
▁వ్యవహారం	-9.53357
▁గొడవ	-9.53357
▁మిగతా	-9.53358
ra	-9.5339
▁సూచించ	-9.53458
▁బదిలీ	-9.5367
▁ప్రియ	-9.5371
కాయ	-9.53813
▁పారి	-9.53835
▁జనరల	-9.53971
े	-9.53982
▁కఠిన	-9.53984
▁ସ	-9.54025
▁బంగార	-9.54089
▁అర్జున్	-9.5414
ంతర	-9.54189
▁బయటపడ	-9.54236
ేసింది	-9.54248
▁గుండె	-9.54297
▁వికెట్లు	-9.5433
▁చేస్తున్నా	-9.54419
▁ರ	-9.54423
۔	-9.54449
▁అవగాహన	-9.54454
▁స్టూడెంట్	-9.54454
▁చేయడంతో	-9.5453
▁వెళ్లారు	-9.54589
ాలంటూ	-9.54589
▁గోదావరి	-9.54612
▁ప్రాజెక్ట్	-9.54612
▁జస్టి	-9.54619
▁అనారోగ్య	-9.54648
▁సైట్	-9.54691
▁అటు	-9.54712
▁కొంతమంది	-9.5477
▁ಯ	-9.54776
▁జరుగుతోంది	-9.54813
▁వర్షాల	-9.54885
▁ఉత్తర్వుల	-9.54929
బద్ధ	-9.55069
▁స్టేట్	-9.55095
▁పక్ష	-9.55159
▁పడుతుంద	-9.55344
▁బుక్	-9.55372
▁ప్రెసిడెంట్	-9.55404
టెడ్	-9.55448
▁ప్పటికీ	-9.55547
▁లభిస్	-9.55567
▁కొనసాగుతున్న	-9.55682
▁వందల	-9.55685
▁మండలంలో	-9.55823
డింగ్	-9.55833
▁బడ	-9.55844
▁కనిపిస్తోంది	-9.55914
▁ప్రాధాన్యత	-9.56004
▁జనం	-9.56085
▁కౌంటర్	-9.56205
▁చేయనున్నారు	-9.5623
▁న్యాయం	-9.56274
▁డేటా	-9.56301
▁జులై	-9.56369
▁ఎత్తు	-9.56399
▁మోసం	-9.56404
▁డబుల్	-9.56417
▁గాలి	-9.56445
▁ఉద్యోగం	-9.56451
ಕ್	-9.56466
▁నారా	-9.56467
▁వన్డే	-9.56526
▁జరుగుతుంది	-9.56745
▁కొర	-9.569
▁హిట్	-9.56959
▁హోదా	-9.56987
▁బిడ్డ	-9.57012
▁ఒక్కసారి	-9.57018
▁తెగ	-9.57047
▁సెక్షన్	-9.57059
▁వెళ్తున్న	-9.57079
▁మీటర్ల	-9.571
లక్ష్మి	-9.57152
▁పంపించ	-9.57185
▁70	-9.57214
▁అంగ	-9.57231
▁పరిస్థితులు	-9.57232
▁ఎక్క	-9.57306
▁ర్యా	-9.57328
▁ఎస్సీ	-9.57371
▁బ్ల	-9.57419
▁తొలిసారి	-9.57453
▁సికింద్రాబాద్	-9.57494
▁చివర	-9.57511
▁ప్రకటించిన	-9.57538
▁సరఫరా	-9.57657
▁తీసుకోవడం	-9.57664
▁ఉంటుంద	-9.57698
▁పేద	-9.57722
ೀ	-9.5782
▁అధ్యయన	-9.5782
▁గెలుపు	-9.5782
▁మెగా	-9.57866
▁నన్న	-9.57882
▁నాడు	-9.57908
▁రోజున	-9.5795
▁మేము	-9.5796
▁پر	-9.58029
▁మీటింగ్	-9.58113
▁కార్యక్రమం	-9.58155
నెల	-9.58229
▁పర్యటించ	-9.5831
▁స్తా	-9.58468
▁టీటీడీ	-9.58474
▁వివేక్	-9.58477
▁లీడర్	-9.58568
▁జీవితంలో	-9.58668
▁35	-9.58678
▁సంస్థలు	-9.58811
▁గూడ	-9.58824
ియర్	-9.58892
▁ప్రసాద్	-9.58894
▁వస్తువుల	-9.58969
డెన్	-9.59118
▁నిజామాబాద్	-9.59132
▁స్నేహితు	-9.59138
చుకో	-9.59295
▁చేస్తున్నట్లు	-9.5938
▁భయం	-9.59421
▁ఫోర్	-9.59436
چ	-9.59463
▁చేసుకుని	-9.59481
పడుతున్నారు	-9.59487
▁ಬ	-9.59543
▁ాడ	-9.59594
▁ఫుల్	-9.59656
▁వస్తుందని	-9.59724
▁సమీక్ష	-9.59796
▁80	-9.59928
▁కార్యకర్తల	-9.59961
▁బిజెపి	-9.59962
▁హౌస్	-9.59965
యత్	-9.60001
ప్పుడే	-9.60048
▁G	-9.60066
▁ఉండటం	-9.60069
▁అయోధ్య	-9.60129
▁ఎత్తున	-9.6013
ెండర్	-9.60245
▁తెలుసుకున్న	-9.60258
▁సత్య	-9.60296
▁తయారీ	-9.60297
N	-9.60316
▁స్థానికులు	-9.6038
▁(1	-9.60394
▁హరీశ్	-9.60463
▁విమానం	-9.60497
▁గిరిజన	-9.60631
▁ఫ్యా	-9.60657
▁ఉద్దేశ	-9.60668
▁హెచ్చరించారు	-9.60798
▁దర్శకుడు	-9.6082
▁చేసుకునే	-9.60822
▁ఎస్పీ	-9.60917
▁తరఫు	-9.60966
▁అవసరమైన	-9.61028
ಾಗ	-9.61033
▁దొర	-9.6104
▁మొదలు	-9.61063
ీసీసీ	-9.61091
▁పలిక	-9.61126
▁బంగ్లాదేశ్	-9.61134
▁విశేష	-9.61134
ష్ఠ	-9.612
▁చేశార	-9.61252
▁మొదల	-9.61371
▁వేదిక	-9.61405
▁కమల	-9.61423
వేళ	-9.61426
▁కావాలని	-9.6143
▁ఉష్ణోగ్రత	-9.61472
లిక్కర్	-9.61514
▁వాస్తవ	-9.61648
▁ఆస్తుల	-9.61697
▁స్పీకర్	-9.61811
▁సేవల	-9.61912
ڈ	-9.6198
▁సీసీ	-9.62011
▁కుట్ర	-9.62033
▁వ్యాఖ్యానించారు	-9.62054
್ಯ	-9.62061
▁పన్ను	-9.62119
▁తెరకెక్క	-9.62152
▁బాలిక	-9.62237
▁కర్ణాటకలో	-9.62245
▁సంస్థల	-9.62329
ెక్క	-9.6234
▁ఇక్కడి	-9.62388
▁షిప్	-9.62397
▁గెలిచిన	-9.62408
▁2018	-9.62491
▁డ్రగ్స్	-9.62662
▁మెట్రో	-9.62663
▁ఆరోపణల	-9.62707
ز	-9.62833
▁మేకర్స్	-9.62835
▁సర్వ	-9.62954
▁రాజకీయాల్లో	-9.62959
▁సంబంధి	-9.63004
▁ఉత్పత్తి	-9.63005
▁తరపు	-9.63013
లాండ్	-9.63021
▁రాశుల	-9.63021
▁అందిస్తున్న	-9.63084
▁N	-9.63155
▁స్థానాల్లో	-9.6316
▁کا	-9.63196
▁نے	-9.63225
▁ప్రయాణం	-9.63284
▁ఒకరి	-9.6329
▁ఊహించ	-9.63349
▁చొప్పున	-9.63349
▁డీకే	-9.63427
▁అయ్యాయి	-9.6344
▁నియమ	-9.63468
▁కృష్ణా	-9.63519
▁گ	-9.63546
▁చేస	-9.63634
▁భావిస్తున్నారు	-9.6364
▁చేతిలో	-9.63705
▁సర్కారు	-9.63871
▁మోస	-9.63948
▁రావాల	-9.63973
▁తీసుకుంది	-9.64015
▁పద్మ	-9.6403
▁45	-9.64122
▁పరిణామాల	-9.64388
▁మొబైల్	-9.64388
▁స్థానం	-9.64438
ండటంతో	-9.64447
▁کر	-9.64508
▁సలహా	-9.64566
ఫర్	-9.64626
ియల్	-9.64704
ରେ	-9.64773
▁ಹ	-9.64776
▁వ్యక్తుల	-9.6478
▁సమాధానం	-9.64789
▁నెలకొంది	-9.64912
▁ఏమిట	-9.64921
⁭	-9.65087
▁నల్గొండ	-9.65087
▁శంకర్	-9.6509
▁పార్లమెంటు	-9.65102
▁టాక్	-9.65124
▁జరగనున్న	-9.65198
▁क	-9.65225
▁పిల్ల	-9.65385
▁టీఎస్	-9.65422
▁షూటింగ్	-9.65438
▁జూ	-9.65447
▁హింస	-9.6546
ಸ್	-9.65479
▁తెలిసి	-9.65554
ఆ	-9.65567
▁టెక్నాలజీ	-9.65614
▁భారతదేశ	-9.65778
▁కరోనా	-9.65792
▁వెండి	-9.65868
▁భావిస్త	-9.65925
▁విభాగం	-9.65967
▁కామారెడ్డి	-9.65968
▁భవన్	-9.65981
▁ఉత్తమ	-9.65991
▁వర్గాలు	-9.66023
er	-9.66041
▁సైబర	-9.66113
▁రవాణా	-9.66144
▁జనాభా	-9.66145
ుకుంటూ	-9.66328
-1	-9.66476
▁డెవలప్	-9.66499
▁ఇద్దరి	-9.66626
▁పాక్	-9.66627
▁ఇండస్ట్రీ	-9.66677
▁పరిష్కరించ	-9.66677
▁టిక్కెట్	-9.66677
▁మానసిక	-9.66677
గడ్డ	-9.66698
▁హరి	-9.66747
▁కాలనీ	-9.66823
▁నలుగురు	-9.66855
▁గ్రామాల	-9.66934
▁నాయకుడు	-9.67034
▁తరహా	-9.67035
▁వ్యక్తిగత	-9.67037
▁వివాదం	-9.67045
▁శ్రీనివాస	-9.67135
j	-9.67212
▁నోటిఫికేషన్	-9.67212
▁సంపాదించ	-9.67212
▁2021	-9.67213
▁టౌన్	-9.67214
▁అతడి	-9.6728
బట్టి	-9.67363
▁సంబంధాల	-9.67392
ిల్ల	-9.67496
▁అభిమానుల	-9.67518
ح	-9.67571
▁థియేటర్	-9.67571
▁నిషేధ	-9.67571
▁ఫైర్	-9.67635
▁వార్తలు	-9.67661
▁మిషన్	-9.67727
ଦ	-9.67751
▁ఆవేదన	-9.67751
▁ఇన్నింగ్స్	-9.67751
▁బయలుదేర	-9.67751
▁అగ్ని	-9.67771
▁పరిస్థితుల	-9.67791
▁ముఖ్యమైన	-9.67824
▁స్వయం	-9.6787
U	-9.67931
బాలీవుడ్	-9.67931
▁దిశగా	-9.67938
▁ప్రవేశపెట్ట	-9.67962
▁తీసుకుంటున్న	-9.67973
ేరుగా	-9.67995
▁చేరుకు	-9.68032
▁వ్యక్తులు	-9.68086
▁మహిళలకు	-9.68156
▁తీసుకోవాల	-9.68218
▁పెడుతున్న	-9.68246
ୋ	-9.68293
▁సక్సెస్	-9.68293
ెక్ట	-9.68329
▁వాటర్	-9.68332
▁ట్రా	-9.68363
▁బైక్	-9.68449
▁రాజస్థాన్	-9.68474
▁కానుంది	-9.68567
▁దాడుల	-9.68645
▁బౌలింగ్	-9.68655
لی	-9.68908
▁ప్రవేశ	-9.68941
▁ఉద్యోగులు	-9.68983
▁ప్రణాళిక	-9.69019
▁ప్రొఫెసర్	-9.69019
▁ఫ్యామిలీ	-9.69019
▁ట్రంప్	-9.69023
▁ద్ర	-9.6913
▁రెడీ	-9.69192
▁టాలీవుడ	-9.69202
▁సాధించిన	-9.69271
ଟ	-9.69384
▁చూశా	-9.69395
▁చర్యల	-9.69419
▁టైమ్	-9.69504
▁ఆత్మ	-9.69507
▁అకౌంట్	-9.69568
▁వినియోగించ	-9.69658
భద్ర	-9.69667
▁దానిపై	-9.6975
▁నగదు	-9.69939
▁పూజలు	-9.6995
▁బాధిత	-9.70003
▁ప్రభాకర్	-9.70119
▁సెంట్రల	-9.7012
▁అర్థ	-9.70301
▁స్టేడియం	-9.70304
▁నిజం	-9.70362
▁యూనిట్	-9.70391
▁పోర్టు	-9.7049
▁విక్రయ	-9.70497
▁బిగ్	-9.7051
▁నిలిప	-9.70555
ha	-9.70611
▁అయ్యే	-9.70639
▁అందుబాటులోకి	-9.70781
▁ఆదేశాల	-9.70818
▁వేడి	-9.7087
▁కేంద్రాల	-9.70904
▁పరిశోధన	-9.71045
▁పోరాటం	-9.71072
▁బాగు	-9.71082
▁పంజాబ్	-9.71231
▁కెరీర్	-9.71233
▁అగ్ర	-9.71246
▁ఉందన్నారు	-9.71256
▁అందరిక	-9.71311
▁పేదల	-9.71339
▁క్రికెటర్	-9.71418
▁అవకాశ	-9.71429
ಜ	-9.71605
ೋ	-9.71792
▁ట్విట్టర్	-9.71792
▁రూమ్	-9.71834
▁బ్యాటర్	-9.7185
▁ప్రాణాలు	-9.71906
ರ್	-9.71922
ام	-9.7193
ال	-9.71941
▁తీసుకునే	-9.71948
▁నిర్మాత	-9.71981
▁పోర్ట్	-9.71999
▁భవిష్యత్తు	-9.72019
▁కార్పొరేషన్	-9.72168
▁అనుకూలంగా	-9.72226
▁పరీక్షలు	-9.72325
▁సహాయం	-9.72328
▁గెలిపించ	-9.72356
▁హయాంలో	-9.72356
▁శ్రీలంక	-9.72356
▁మెదక్	-9.7236
▁కుంభ	-9.72467
▁దళిత	-9.72549
▁తదితర	-9.72643
▁గ్రాముల	-9.72649
ಚ	-9.72734
టివ్	-9.72753
▁అందుకున్న	-9.73035
▁భర్తీ	-9.73119
▁ఆఫీస్	-9.7331
▁మొదలుపెట్ట	-9.73334
▁జయ	-9.73381
▁వర్క	-9.73487
▁ట్రాన్స్	-9.73713
స్తుందని	-9.73763
▁లింగ	-9.73786
%	-9.73875
▁పంచాయతీ	-9.73875
▁రద్దీ	-9.74069
▁ప్లాట్	-9.74078
▁గట్టి	-9.74092
▁వినియోగ	-9.7416
▁ప్రజల్లో	-9.742
▁నాయక్	-9.74273
▁పాకిస్థాన్	-9.74451
▁బహ	-9.74451
▁చూస్తే	-9.74452
▁గెలవ	-9.74644
▁తప్పించ	-9.74761
▁డాలర్ల	-9.74862
▁ారన్నారు	-9.74875
▁యువతి	-9.74877
▁సమాజ	-9.74974
▁బృందం	-9.75017
▁నిలిచింది	-9.75038
ినేని	-9.75126
▁సోమ	-9.7513
am	-9.75147
▁వంట	-9.75159
▁అవుతోంది	-9.75159
▁ఏండ్ల	-9.75178
▁ఓపెన్	-9.75226
▁నడిప	-9.75301
▁నిత్య	-9.75306
▁హోటల్	-9.75423
▁ఫామ్	-9.75451
బాబు	-9.75498
▁నివాసం	-9.75542
▁చేసుకుంటున్న	-9.75547
▁ఆపరేషన్	-9.75613
▁అదానీ	-9.75615
ంచాలని	-9.75689
▁నియోజకవర్గాల్లో	-9.75716
▁స్థితి	-9.75808
▁ఆసక్తికర	-9.75887
▁చేస్తార	-9.75954
ଇ	-9.76003
▁సాధారణంగా	-9.76015
▁కుమారుడు	-9.76072
▁ఆడియన్స్	-9.76199
▁ఉపాధి	-9.76199
▁పెండింగ్	-9.762
▁అంగీకరించ	-9.76204
▁పొడి	-9.76242
గ్రీన్	-9.76294
⁬	-9.76429
▁వైద్యులు	-9.76473
▁రచయిత	-9.76591
▁రాజ్యసభ	-9.76591
▁సవాల్	-9.76605
▁అలీ	-9.76671
ಾರ	-9.76702
ಸ	-9.76715
▁దశాబ్ద	-9.76788
▁ఎంట్రీ	-9.76789
▁మొదలైంది	-9.76802
▁వలస	-9.76814
▁రూపం	-9.76876
చ్చింది	-9.76943
▁కాల్పుల	-9.76945
▁హెచ్చరిక	-9.76983
▁మొత్త	-9.77098
▁పెరుగుతున్న	-9.77189
▁యుద్ధ	-9.7726
▁చేరిన	-9.77284
▁అవసరమ	-9.77312
▁లోపల	-9.77511
▁పాటించ	-9.77549
न	-9.77579
▁పెట్టుకు	-9.77593
▁ఇస్తామని	-9.77688
▁ఆఫీసర్లు	-9.77961
▁ధాన్య	-9.77979
وں	-9.77983
▁జంట	-9.78024
▁మీదుగా	-9.78152
▁గ్రౌండ్	-9.78177
▁ఉండడం	-9.78222
▁చాట	-9.78223
▁వర్మ	-9.78287
▁విదేశీ	-9.78377
▁ప్రతినిధుల	-9.78377
▁సెట్	-9.7838
▁పుష్ప	-9.78382
▁పెట్టుబడుల	-9.78578
یا	-9.78672
▁జీవన	-9.78689
ೂ	-9.78778
ೊ	-9.78778
▁క్లారిటీ	-9.78778
▁పోతున్న	-9.78817
▁సరిహద్దు	-9.78979
▁నెటిజన్	-9.7898
▁పాదయాత్ర	-9.7898
▁కరెంట్	-9.7901
▁పరిస్థితుల్లో	-9.79059
▁జోన్	-9.79131
▁చెప్పుకొచ్చారు	-9.79181
ేయాలని	-9.79209
▁హాట్	-9.79305
▁ఫ్రీ	-9.79345
▁గ్ల	-9.79385
▁అరుణ	-9.79397
▁సహజ	-9.79402
▁చేశామని	-9.79465
▁నమ్మకం	-9.79687
▁వహించ	-9.79752
▁సెక్రటరీ	-9.79788
▁త్వరగా	-9.79789
హిత	-9.79801
40	-9.79872
▁వెల్లడించ	-9.79947
▁గమనించ	-9.79997
▁లేవు	-9.80113
▁పత్రాల	-9.8016
▁దంపతుల	-9.80196
▁ప్రియాంక	-9.80196
▁గేమ్	-9.80211
▁سے	-9.80284
▁చెల్ల	-9.80386
▁ట్రాక్	-9.8043
▁వివరించ	-9.80464
ଏ	-9.80604
▁రుణమాఫీ	-9.80604
▁అంతేకాదు	-9.80604
▁భట్టి	-9.80614
▁శరీరంలో	-9.80623
▁కొనసాగుతోంది	-9.80668
▁పరిశీలించారు	-9.80718
▁ఏరియా	-9.80791
▁ఓడించ	-9.80794
▁వినిపించ	-9.80812
▁చూడాలి	-9.80855
▁ర్యాలీ	-9.80861
▁బరిలోకి	-9.80869
▁రెడ్	-9.8093
▁టీవీ	-9.80954
ಅ	-9.81014
ସ	-9.81165
▁బలంగా	-9.81284
▁మేనిఫెస్టో	-9.81426
▁ప్లేయర్	-9.81431
▁ప్రశంస	-9.81633
▁దిగారు	-9.81648
▁జరిగిందని	-9.81681
▁వంశీ	-9.8184
▁గంగ	-9.8189
ుతోందని	-9.81994
▁బెడ్	-9.82022
▁ఇందుకు	-9.82086
▁వస్తున్నాయి	-9.82139
▁కామెంట్	-9.82153
▁90	-9.8224
▁తలెత్త	-9.82304
▁తొలగి	-9.8233
#	-9.82463
▁ముందస్తు	-9.82464
▁గుంటూరు	-9.82464
▁నెంబర్	-9.82465
▁చేస్తుంద	-9.82481
విరాట్	-9.82714
▁గర్భ	-9.82715
▁ఫోర్స్	-9.8272
పోయాయి	-9.82726
▁లీడర్లు	-9.82767
▁గురయ్య	-9.82768
▁500	-9.82804
ी	-9.82881
▁నియామక	-9.82882
▁చూపిస్త	-9.83018
▁తీర్మాన	-9.83091
▁వదిలే	-9.83188
▁చల్ల	-9.83218
▁పడిపోయ	-9.83257
▁కచ్చిత	-9.83304
▁పడిన	-9.83317
▁పుట్టిన	-9.83421
پ	-9.83501
▁క్లాస	-9.83667
▁సందర్శించ	-9.83723
▁నూతన	-9.83731
▁పండ్ల	-9.83877
▁వసూలు	-9.83934
▁విడత	-9.83953
▁స్వీకరించ	-9.83954
▁కోచ్	-9.83974
▁ప్రశాంత్	-9.84086
▁ఉండదు	-9.84138
▁ప్రభాస్	-9.84148
▁భయపడ	-9.84287
▁రేట్	-9.84304
▁విజ్ఞప్తి	-9.84358
▁జరగనుంది	-9.84443
▁తిప్ప	-9.84485
▁జట్ల	-9.84487
▁పదవుల	-9.84565
▁దక్కించు	-9.84584
▁జెండా	-9.84604
▁దూర	-9.84675
▁విచారించ	-9.84701
ଣ	-9.84784
▁పదేళ్ల	-9.84802
▁యూపీ	-9.8484
▁శిక్షణ	-9.85001
▁పాడ	-9.85154
▁ఆశ్చర్య	-9.85212
▁టైటిల్	-9.85214
▁పెద్దపల్లి	-9.85224
▁నెలల్లో	-9.85292
▁జగిత్యాల	-9.85427
▁కూతురు	-9.85427
▁గృహ	-9.85429
▁బ్రేక్	-9.85432
▁అప్పట్లో	-9.85435
▁తుది	-9.85555
▁డేట్	-9.85625
▁మాట్లాడిన	-9.85696
పోతుంది	-9.85714
▁తప్పుడు	-9.85772
▁ముక్క	-9.85848
▁కేబినెట్	-9.85857
▁రెవెన్యూ	-9.85857
స్తున్నట్లు	-9.85907
▁పెట్టుకున్న	-9.85973
▁పోయిన	-9.86002
▁భారతదేశంలో	-9.86088
▁వచ్చిందని	-9.86096
▁ఉన్నప్పుడు	-9.86106
▁తీయ	-9.86133
▁ప్రదేశ్	-9.8629
▁ఆలోచించ	-9.86291
ج	-9.86354
ور	-9.865
ఐసీసీ	-9.86524
▁నేతృత్వంలో	-9.86724
▁చేసిందని	-9.86743
▁పాల్గొన్న	-9.86786
▁ఖరారు	-9.86953
G	-9.87023
▁హెడ్	-9.87054
ಬ	-9.87055
▁దొరిక	-9.87078
▁పెట్టుబడి	-9.87162
▁గ్యాస్	-9.87171
▁మంచిది	-9.87171
▁అనుకూల	-9.87313
▁సిద్దిపేట	-9.87379
▁నడుస్త	-9.87414
▁ఆఫర్	-9.87462
▁క్యాన్సర్	-9.87598
▁రిటైర్	-9.87598
▁మిలియన్	-9.876
▁సమాచార	-9.87602
▁అటవీ	-9.87602
ాల్సిందే	-9.87626
కూడదు	-9.87664
▁రికార్డ్	-9.87798
▁టిడిపి	-9.87818
▁ధీమా	-9.87819
మంత్రి	-9.87895
▁ఎవరైన	-9.87903
▁విధుల	-9.8792
।	-9.88038
▁ప్రదర్శన	-9.88038
▁స్వాగత	-9.88038
▁దర్శకత్వం	-9.88047
▁రక్షించ	-9.88294
▁రోజూ	-9.88353
J	-9.8848
▁జూనియర్	-9.8848
▁ప్లాంట్	-9.8848
▁యాక్షన్	-9.88554
▁అనిపించ	-9.88575
▁కలిగించ	-9.88578
▁స్తార	-9.88634
▁జరిగాయి	-9.88702
ఎ	-9.88704
ri	-9.88848
▁బౌలర్ల	-9.88924
▁తేలింది	-9.88929
▁రాశారు	-9.88936
▁సంగీత	-9.89147
▁సింగరేణి	-9.89147
▁దీక్ష	-9.89156
▁దెబ్బతి	-9.89179
्	-9.8937
ह	-9.8937
▁కోసమే	-9.89372
▁ఎర్ర	-9.89534
▁కంట్రోల	-9.89594
పెద్ద	-9.89627
▁పోస్టర్	-9.89673
▁వెనక	-9.89703
▁నిర్మించిన	-9.8975
▁కార్పొరేట	-9.89818
دی	-9.89856
పోతున్నారు	-9.9001
▁షె	-9.9002
▁సంప్రదాయ	-9.90043
▁పబ్లిక	-9.90044
▁ఇరాన్	-9.90051
▁కుమార్తె	-9.90271
at	-9.90343
▁రాబోయే	-9.90365
సేప	-9.9037
▁తూర్పు	-9.90494
▁ఉండేది	-9.90533
ుకుంటారు	-9.90708
▁శ్రేణుల	-9.9072
▁ఆటగాళ్ల	-9.90737
▁హాజరయ్యారు	-9.90846
▁రాలేదు	-9.90943
▁ప్రవీణ్	-9.90947
▁చెలరేగ	-9.90947
▁రుణ	-9.90977
▁సాధించింది	-9.90979
▁సాంగ్	-9.91168
▁టోర్నీ	-9.91174
▁ప్రతిపాదన	-9.91174
▁పసుపు	-9.91176
▁పురుషుల	-9.91246
టెక్	-9.91379
▁సహకరించ	-9.91407
▁వస్తోంది	-9.91413
▁గ్రామాల్లో	-9.91424
▁ఆర్డర్	-9.91448
▁75	-9.91551
వైపు	-9.91567
خ	-9.9163
▁ఆదిలాబాద్	-9.9163
▁స్థిర	-9.91635
▁ہو	-9.91678
▁అర్హత	-9.91859
▁హమాస్	-9.91866
▁ఈవెంట్	-9.91868
▁ఇల్లు	-9.91907
▁చేయకుండా	-9.91938
మోహన్	-9.91974
▁ఎస్టీ	-9.92012
▁ధర్నా	-9.92097
▁బంధువుల	-9.9213
▁విశ్లేష	-9.92318
▁సెక్యూరిటీ	-9.92318
▁పదార్థాల	-9.92322
▁సాంకేతిక	-9.92549
▁అవకాశముంద	-9.92558
▁కిరణ్	-9.92784
▁కూర్చు	-9.92795
▁పాలసీ	-9.93004
▁హెల్త్	-9.93013
ిపోయిన	-9.93087
▁ఆదాయ	-9.93116
▁శివకుమార్	-9.93244
▁వడ్డీ	-9.93246
▁సంతోషం	-9.93248
▁ఖాయమ	-9.93285
▁పేర్కొన్న	-9.93328
en	-9.93386
▁వెనక్కి	-9.93478
▁నాలుగో	-9.9348
▁వ్యాధి	-9.9351
▁సీఐడీ	-9.93527
▁నివాస	-9.93608
▁సీఐ	-9.93768
▁ఎదుర్కొంటున్న	-9.93785
▁నియోజకవర్గాల	-9.93856
▁గేట్	-9.93861
▁వేరే	-9.93866
▁ఇటు	-9.93983
▁ఎప్పటిక	-9.94134
▁కథనం	-9.94143
▁ప్రశ్నించ	-9.94146
▁పోషించ	-9.94239
ات	-9.94326
▁స్థాన	-9.94407
▁ఇంటర్వ్యూ	-9.94412
▁ఆరోపిస్త	-9.94414
▁పెరగ	-9.94422
▁నాణ్య	-9.94648
▁ముద్ర	-9.94665
▁చేస్తుంట	-9.94695
▁రంగారెడ్డి	-9.94701
▁కనిపిస్తుంది	-9.94707
▁నోట్ల	-9.94712
▁వెళుత	-9.94725
ں	-9.94876
W	-9.94882
▁కార్యకలాపాల	-9.94882
▁దినోత్సవ	-9.94883
▁స్కిల్	-9.94925
▁సంఘ	-9.94967
▁చేస్తానని	-9.95006
▁అనుగుణంగా	-9.95119
▁వైఎస్సార్	-9.9512
ि	-9.95356
▁మనసు	-9.95378
▁తెల్ల	-9.95393
▁నూనె	-9.95403
ందరిక	-9.95494
▁క్రియేట	-9.95594
▁ఇన్వెస్ట	-9.95612
▁వస్తాయి	-9.95807
▁అప్రమత్తం	-9.95831
▁యాజమాన్య	-9.95831
،	-9.95832
▁ప్రస్తావించ	-9.95832
▁ఇస్రో	-9.95835
▁స్తుంట	-9.95899
▁ఇద్దర	-9.9598
▁అవినా	-9.96054
▁విషాద	-9.96074
▁శ్రీరామ	-9.96115
▁ల్యాండ్	-9.9631
▁గెలుచు	-9.96333
▁దుర్గ	-9.96407
▁అడ్వ	-9.96525
▁ہے	-9.96547
▁విమానాశ్రయ	-9.96549
▁వ్యాధుల	-9.96556
▁పట్టించుకో	-9.96575
▁కేజీ	-9.96582
▁ఓడిపోయ	-9.96646
▁భావిస్తున్న	-9.9677
▁తెలుసుకుందాం	-9.9679
▁క్షేత్ర	-9.9679
▁హరీష్	-9.96791
▁ہے۔	-9.96797
▁గుడి	-9.96838
▁కడప	-9.97052
ాధికార	-9.97128
▁2020	-9.97195
▁ప్రతిపక్షాల	-9.97222
▁కస్టడీ	-9.97272
▁సురక్షిత	-9.97272
▁లక్షణాల	-9.97321
▁జరిగింద	-9.97409
▁చేయలేదు	-9.97421
▁కిందట	-9.97496
▁నిర్లక్ష్యం	-9.97514
▁గంజాయి	-9.97514
▁కెనడా	-9.97515
▁పోలిస్తే	-9.97516
▁నటుడు	-9.9752
▁మాస్టర్	-9.97522
▁ిస్త	-9.97541
▁వెళ్ళ	-9.97665
▁33	-9.97677
▁ఇసుక	-9.97761
▁ఆసియా	-9.97766
స్తానని	-9.97837
ాపురం	-9.98022
▁నిర్వ	-9.98057
▁అధ్యక్షుడి	-9.981
▁ఆశ్రయించ	-9.98194
▁గతేడాది	-9.98244
▁పొంగులేటి	-9.98244
▁ఐదేళ్ల	-9.98247
▁ప్రవేశించ	-9.98314
▁ప్రయత్నిస్తున్న	-9.98465
▁విటమిన్	-9.98489
▁సుప్రీం	-9.98489
▁భూకంప	-9.98489
▁వినియోగదారుల	-9.98495
▁షాపుల	-9.98502
▁జూలై	-9.98521
▁వెంకటస్వామి	-9.98521
▁کہ	-9.98611
▁మంగళ	-9.98729
డబ్ల్యూ	-9.98734
▁అలర్ట్	-9.9874
▁నిర్మిస్తున్న	-9.98816
రత్న	-9.98969
ಣ	-9.98979
▁కాళేశ్వరం	-9.98979
▁పెన్షన్	-9.98981
▁కోవాల	-9.99004
▁ఫోకస్	-9.99226
▁اور	-9.99227
▁వదిలి	-9.99253
▁నిరాశ	-9.99282
▁రాష్ట్రపతి	-9.99382
▁యువకుల	-9.99463
▁36	-9.99473
▁ఆదేశించింది	-9.99473
▁కల్పిస్త	-9.99607
▁మహబూబ	-9.99709
▁యూట్యూబ	-9.9972
▁ముగిసిన	-9.9972
▁మంచిర్యాల	-9.99721
▁ఓవర్లలో	-9.99735
ముఖ	-9.99743
▁మధు	-9.99766
▁నిరుద్యోగుల	-9.9981
▁సామర్థ్య	-9.99968
▁అసోసియేషన్	-9.99968
▁ప్రోత్సహి	-9.99968
▁ఒడిశా	-9.99969
ଛ	-10.0022
▁చరణ్	-10.0022
▁!!	-10.0024
సమితి	-10.0041
▁బంతుల్లో	-10.0047
▁వేధింపుల	-10.0047
▁ఫ్రెండ్	-10.0047
▁రామకృష్ణ	-10.0051
▁ఉత్సవాల	-10.0058
▁కలిస	-10.0058
ఇ	-10.0062
▁గీత	-10.0067
स	-10.0072
▁భరోసా	-10.0072
▁ములుగు	-10.0073
▁చర్మ	-10.0076
▁ఆహ్వానించ	-10.0077
వంతమై	-10.0078
▁గడువు	-10.0097
షియల్	-10.0115
▁లైంగిక	-10.0122
▁మరికొందర	-10.0122
ಗೆ	-10.0125
▁ఐదుగుర	-10.0127
▁కొనసాగించ	-10.014
ଜ	-10.0147
▁ఏజెన్సీ	-10.0147
▁కోమటిరెడ్డి	-10.0147
▁ఉద్రిక్త	-10.0147
▁ప్రత్యక్ష	-10.0147
▁దిల్లీ	-10.0147
▁తున్న	-10.0164
ధార	-10.0164
▁సెమీ	-10.0176
▁సింహ	-10.0192
ండటం	-10.0197
▁నమోదైంద	-10.0198
▁సోనియా	-10.0198
▁నిలబడ	-10.0204
گ	-10.0216
ಧ	-10.0223
▁లేటెస్ట్	-10.0223
▁అర్హుల	-10.0223
డియా	-10.023
కపోయినా	-10.0253
▁ఏర్పడింది	-10.0263
▁అనుచరుల	-10.0274
▁కస్టమర్	-10.03
▁ఫ్యాక్టరీ	-10.03
▁చేశాయి	-10.0316
▁పిలుపునిచ్చారు	-10.0325
▁రిపోర్టు	-10.0325
▁ఘోర	-10.0325
▁ట్రైలర్	-10.0326
▁పరిచ	-10.0337
▁ఆర్మీ	-10.0347
f	-10.0351
▁అసిస్టెంట్	-10.0351
▁అంతకుముంద	-10.0351
పూడి	-10.0365
▁తరచ	-10.038
▁మధ్యప్రదేశ్	-10.0402
▁సచివాలయ	-10.0402
▁చంద్రయాన్	-10.0403
▁అరవింద్	-10.0428
▁విష్ణు	-10.0435
▁తీర్చ	-10.044
▁సాధిస్త	-10.0442
▁کیا	-10.0447
▁ఏర్పడిన	-10.0448
ನ್	-10.0451
▁అంబేద్కర్	-10.0454
▁మెజార్టీ	-10.0454
▁స్కూళ్ల	-10.0455
▁యాంటీ	-10.0455
▁పట్టణంలో	-10.0456
▁ఆహ్వాన	-10.0475
▁వ్యవహారాల	-10.048
▁బెంగాల్	-10.0481
▁వెంకటేశ్వర	-10.0486
▁చనిపోయిన	-10.0499
▁దుకాణ	-10.0507
▁హిందీ	-10.0507
▁చింత	-10.0516
▁నిందితుడు	-10.0533
▁బలహీన	-10.0533
▁డిజిటల	-10.0533
▁ఫీజు	-10.0533
▁రియల్	-10.0551
▁సంపద	-10.0559
st	-10.056
▁కార్తీక	-10.0562
▁మార్గాల	-10.0565
▁చేరుకుంది	-10.0579
▁సంభవించ	-10.0585
▁స్పందన	-10.0585
స్తాన్	-10.059
▁చంద్రుడి	-10.0597
▁వెళ్లిపోయ	-10.0607
▁ఉత్కంఠ	-10.0612
▁ప్రజాస్వామ్య	-10.0612
▁చేయనున్న	-10.062
▁రేటు	-10.0632
▁హైకమాండ్	-10.0638
▁డివిజన్	-10.0638
▁విధానాల	-10.0638
▁ఆంధ్ర	-10.0638
▁భీమ	-10.0639
▁బాంబు	-10.064
▁వీరిద్దర	-10.0641
▁సిట్టింగ	-10.0659
▁రాసిన	-10.0659
▁ప్రమోషన్	-10.0665
▁స్పందిస్త	-10.067
▁ారనే	-10.0671
మూర్తి	-10.0678
▁స్తుంద	-10.0688
Y	-10.0691
▁కలకలం	-10.0691
▁విజయవంతం	-10.0691
▁పరిహారం	-10.0692
▁విశాఖపట్నం	-10.0692
▁బృంద	-10.0693
▁మట్టి	-10.0696
▁తప్పనిసరి	-10.0718
▁గ్రూపు	-10.0718
▁స్మార్ట్	-10.0718
▁ఫేక్	-10.0719
▁ఆలయంలో	-10.0722
▁క్వా	-10.0724
ص	-10.0745
ಷ	-10.0745
▁క్యారెట్ల	-10.0745
▁పిటీషన్	-10.0745
పరిచయం	-10.0745
దుపరి	-10.0748
▁నీళ్ల	-10.0765
▁గూగుల్	-10.0771
▁పనిచేసే	-10.0771
▁మనిషి	-10.0773
▁దర్శించ	-10.0786
▁కన్నడ	-10.0789
▁దేశాల్లో	-10.0797
▁ఇంగ్లాండ్	-10.0798
▁ప్రతినిధి	-10.0799
▁వైరస్	-10.08
▁భవిష్యత్	-10.082
;	-10.0825
▁విపరీత	-10.0825
▁గ్రామీణ	-10.0825
▁తీసుకుంటామని	-10.0841
▁లీగ్	-10.0853
▁బాబ	-10.0853
▁ప్రసాద	-10.0875
▁ప్రాథమిక	-10.0879
▁రిపోర్ట్	-10.0879
▁వినిపిస్తున్న	-10.0879
▁వేసుకు	-10.0884
▁నింప	-10.0901
బోయే	-10.0902
▁ఛైర్మ	-10.0907
▁ఉన్నతాధికారుల	-10.0907
▁ఆదిత్య	-10.0907
▁శ్రీధర్	-10.0907
బడ్డ	-10.0918
ొల్ల	-10.0924
▁ఉంటాయని	-10.0928
▁సీతారామ	-10.0934
▁యాదాద్రి	-10.0934
▁స్క్రీన్	-10.0934
▁మహేశ్	-10.0938
▁రిజర్వేషన్	-10.0941
▁నోటీసు	-10.0943
ీకరించ	-10.0953
▁కలెక్టరేట్	-10.0961
▁మరికొన్ని	-10.0961
ط	-10.0961
▁సంప్రదించ	-10.0961
▁మంత్రుల	-10.0965
▁టన్నుల	-10.0966
▁మూడ	-10.0983
▁సమర్థ	-10.0989
▁మహేష్	-10.0993
▁పెడుత	-10.0994
▁చేసుకోవచ్చు	-10.0995
▁గ్యారంటీ	-10.1016
▁స్త్రీ	-10.1017
▁షేక్	-10.1017
▁బదులు	-10.1018
▁వెలువడ	-10.1044
▁అవసరాల	-10.1044
▁ప్రధానమంత్రి	-10.1048
▁ప్రయాణించ	-10.1048
▁పరిశీలి	-10.105
▁నిల్వ	-10.1052
▁గాయపడ్డ	-10.1071
▁సామాన్య	-10.1071
▁సోర్స్	-10.1072
▁మొదలైన	-10.1083
▁బిజినెస్	-10.1099
▁హైడ్రా	-10.1099
▁బియ్యం	-10.11
▁సమాన	-10.1109
▁మున్సిపాలిటీ	-10.1127
▁రిమాండ్	-10.1127
▁వడ్ల	-10.1146
▁మంత్రిత్వ	-10.1148
▁సిరిసిల్ల	-10.1154
▁గార్డ	-10.1173
‍	-10.1174
▁జీవో	-10.1181
▁అవుతున్నాయి	-10.1203
▁అనుమతించ	-10.1206
ଆ	-10.121
▁కౌన్సిలర్	-10.121
▁పటేల్	-10.1211
▁సత్యనారాయణ	-10.1211
▁చనిపో	-10.122
▁రిజిస్ట్రేషన్	-10.1239
▁న్యాయవాది	-10.1239
▁రమేశ్	-10.1239
୍ୟ	-10.124
▁అవమాన	-10.1241
▁ఏసీబీ	-10.1267
▁భవనాల	-10.1267
▁వస్తుంద	-10.127
▁సైనికుల	-10.1283
▁ಗಳ	-10.1295
▁వాళ్ళ	-10.1297
▁తుంద	-10.1301
▁కప్పు	-10.1321
▁అదృష్ట	-10.1323
▁కర్నాటక	-10.1323
or	-10.1324
▁రెండేళ్ల	-10.1324
▁మోడల్	-10.1324
▁చేసుకోవడం	-10.1328
▁ایک	-10.1352
▁ఉగ్రవాద	-10.1352
▁సమక్షంలో	-10.1352
▁రమేష్	-10.1352
▁గోల్డ్	-10.1352
▁చిన్నారి	-10.1353
▁జరుగ	-10.1369
▁నిర్మాణాల	-10.1378
▁పర్యాటక	-10.138
▁స్పష్టత	-10.138
▁జపాన్	-10.1381
▁వివరణ	-10.1381
▁వ్యతిరేకం	-10.1393
▁పర్యావరణ	-10.1409
▁తేజ	-10.1409
AD	-10.1413
ल	-10.1437
▁సీరియస్	-10.1437
▁వ్యవధి	-10.1437
▁ఓటీటీ	-10.1438
▁పేర్లు	-10.1453
▁జ్యోతి	-10.1466
▁సానుకూల	-10.1466
▁వర్ష	-10.147
▁చదివ	-10.1487
▁న్యూజిలాండ్	-10.1495
▁ఉండొచ్చ	-10.1516
▁కూడద	-10.1518
ుకోవాల్సి	-10.1518
X	-10.1524
▁అత్యాచార	-10.1524
ो	-10.1524
▁బ్రాండ్	-10.1525
▁వేణు	-10.1526
▁సౌత	-10.1561
▁కేటాయింపు	-10.1582
▁ఎదుట	-10.1586
▁ప్రాధాన్య	-10.1589
▁వ్యక్త	-10.1592
▁నటిస్తున్న	-10.1607
పడ్డాయి	-10.1631
ಟ್	-10.1637
▁నిందితుడి	-10.164
▁అందజేశారు	-10.164
▁అవుట్	-10.1643
▁చర్య	-10.1648
▁కిలోల	-10.1655
▁కసరత్తు	-10.167
▁గలిగ	-10.1682
▁ఆస్తి	-10.1686
▁ఇతరుల	-10.1688
▁అశోక్	-10.1699
▁డౌన్	-10.1699
ର୍	-10.1707
▁పెరగడం	-10.171
▁ఎగ్జి	-10.1728
▁అభిప్రాయపడ్డా	-10.1729
▁ఉత్తరప్రదేశ్	-10.1729
▁విక్రమార్క	-10.1729
▁వాలంటీర్ల	-10.1729
▁వినాయక	-10.1729
▁పిలుస్త	-10.1732
▁ఇంద్ర	-10.1737
▁హర్ష	-10.1738
▁అరుద	-10.174
▁క్రమం	-10.1747
▁రిజర్వేషన్ల	-10.1751
▁బంధు	-10.1753
▁రావాల్సి	-10.1754
▁లైఫ్	-10.1759
▁టాటా	-10.176
▁బాలకృష్ణ	-10.1761
▁ఎద్దేవా	-10.1788
▁లిమిటెడ్	-10.1788
▁నియంత్రణ	-10.1788
▁ఉన్నాయ	-10.1788
శెట్టి	-10.1789
▁నటించి	-10.1795
▁అభిమాన	-10.18
▁బ్రహ్మ	-10.1818
▁అయినప్పటికీ	-10.1825
▁బరిలో	-10.1845
▁లడ్డూ	-10.1847
▁పవిత్ర	-10.1848
▁అడిషన	-10.1848
▁ప్రగతి	-10.1848
▁నకిలీ	-10.1848
▁ఘర్షణ	-10.1877
▁బిల్డింగ్	-10.1877
▁యూనియన్	-10.1877
▁సంగారెడ్డి	-10.1878
▁అఖిల	-10.1878
▁బారిన	-10.1881
▁ఎలక్షన్	-10.1908
त	-10.1938
▁పద్ధతి	-10.1938
ుబాటు	-10.1948
▁ఒలింపిక్	-10.1968
▁చోటుచేసుకుంద	-10.1968
▁నెల్లూరు	-10.1968
▁ఫీచర్	-10.1968
▁పిలుపు	-10.1968
▁మారుత	-10.1979
▁కళాశాల	-10.1998
▁శాసనసభ	-10.1998
▁తీశారు	-10.1998
▁స్కామ్	-10.1998
▁పథక	-10.2015
▁లిస్ట్	-10.2022
▁మ్యూజిక్	-10.2028
▁విస్తరించ	-10.2028
▁స్వల్ప	-10.2029
▁మంచు	-10.2033
▁నువ్వు	-10.2035
ేరిట	-10.2043
ತ್ತ	-10.2057
▁అనుబంధ	-10.2059
▁మెజారిటీ	-10.2059
▁మనుషుల	-10.2059
▁స్కీమ్	-10.2059
▁దారుల	-10.2064
▁డిజైన్	-10.2089
▁ఉపాధ్యాయ	-10.209
▁టాపిక్	-10.209
▁హాజరై	-10.209
▁తేలిక	-10.209
▁రాగానే	-10.2094
▁ప్రమాదకర	-10.2103
▁సూర్యాపేట	-10.212
▁జరిగితే	-10.212
▁గఢ్	-10.212
▁కత్తి	-10.2123
శీల	-10.2126
▁గెలుస్త	-10.2133
▁సెన్స	-10.2142
▁ఇబ్బందుల	-10.2146
పోయాడు	-10.215
▁వాట్సాప్	-10.2151
▁కడుపు	-10.2152
▁రుణాల	-10.2181
ଡ	-10.2182
▁రిజర్వ్	-10.2182
▁మహబూబాబాద్	-10.2183
పీఎస్సీ	-10.2186
▁ప్రయత్నిస్త	-10.2187
▁లింక్	-10.2187
▁బొమ్మ	-10.2197
ଉ	-10.2213
▁అదుపు	-10.2213
▁మణిపూర్	-10.2213
▁ఖర్గే	-10.2213
ఝ	-10.2244
▁గ్లోబల్	-10.2244
▁బ్రిటన్	-10.2244
▁కలెక్షన్	-10.2244
▁దేవుడ	-10.2247
▁చెబుతోంది	-10.225
▁నిరుద్యోగ	-10.2264
▁నవీన్	-10.2276
▁వెలుగులోకి	-10.2279
ానంద	-10.2292
ుంటుంది	-10.2293
▁ویڈیو	-10.2306
▁వయస్సు	-10.2306
▁శుభాకాంక్షలు	-10.2306
▁సదస్సు	-10.2306
▁మామిడి	-10.2306
▁చైర్	-10.2307
▁డిపార్ట్	-10.2338
▁విస్తృత	-10.2338
▁సగటు	-10.2338
▁కోరుకుంటున్న	-10.2346
▁వలన	-10.2357
▁కోరిక	-10.236
▁గ్రేటర్	-10.2369
▁సైన్యం	-10.2369
▁పండగ	-10.237
▁జుట్టు	-10.2371
▁లైట్	-10.2382
ుకోవచ్చు	-10.2397
▁పోరాట	-10.2429
▁నొప్పి	-10.2432
▁సభ్యుడు	-10.2432
▁ారంటూ	-10.2433
▁RE	-10.2435
▁తగిలి	-10.2439
▁ఆకర్షి	-10.2443
▁వహిస్త	-10.2451
ಇ	-10.2464
▁ఉదాహరణ	-10.2464
▁ఎలక్ట్రిక	-10.2464
▁జమ్మూ	-10.2464
▁یہ	-10.2465
▁ఛాన్స్	-10.247
పెట్టి	-10.2474
▁రాకపోకల	-10.2496
▁పల్లె	-10.2496
▁స్కాం	-10.2506
ଗ	-10.2528
▁అమ్మవారి	-10.2528
,500	-10.2531
▁చెట్ల	-10.2557
ं	-10.256
▁కూరగాయల	-10.256
ంద్ర	-10.2568
ಹ	-10.2585
▁ALS	-10.2592
▁చంద్రశేఖర్	-10.2592
▁రాజమండ్రి	-10.2592
▁అలవాటు	-10.2592
▁సంచారం	-10.2592
▁నెయ్యి	-10.2592
▁సపోర్ట	-10.2593
▁ఉప్పు	-10.2593
▁ముప్పు	-10.2594
▁కుక్కల	-10.2601
▁యువకుడు	-10.2624
▁శుక్ర	-10.2625
▁گیا	-10.2625
▁చెల్లింపు	-10.2626
▁వేతన	-10.2643
▁కెసిఆర్	-10.2657
▁విభజన	-10.2657
▁స్టోరీ	-10.2657
▁సత్తా	-10.2672
▁అత్యవసర	-10.2689
▁అసంతృప్తి	-10.2689
▁కానిస్టేబుల్	-10.2689
▁కాలుష్య	-10.2689
▁ప్రతిరోజ	-10.269
▁సివిల్	-10.269
▁దసరా	-10.269
▁రూరల్	-10.2695
▁సమగ్ర	-10.27
ଅ	-10.2722
▁డెలివరీ	-10.2722
▁ధ్వంసం	-10.2722
▁క్వార్టర్	-10.2722
▁సింగిల్	-10.2722
▁సునీల్	-10.2722
▁కనిపిస్తున్నాయ	-10.2731
▁భద్రాద్రి	-10.2754
▁తెలుస్తుంది	-10.2754
▁సునీత	-10.2757
చంద్	-10.2758
▁ఫుట	-10.2764
వద్దని	-10.2769
▁కనుగొన	-10.2781
▁తీసే	-10.2781
▁భాస్కర్	-10.2787
▁బుద్ధ	-10.2795
▁బాధపడుతున్న	-10.2806
▁సైనిక	-10.2817
▁సస్పెండ్	-10.282
పూర్వక	-10.2831
▁ఇంటర్నేషనల్	-10.2853
▁దక్షిణాఫ్రికా	-10.2853
▁హిందువుల	-10.2853
▁ఎన్డీఏ	-10.2853
▁ఇందిరా	-10.2853
▁అశ్వ	-10.2871
प	-10.2886
▁అంతరిక్ష	-10.2886
▁సీపీఐ	-10.2894
▁కొనసాగుత	-10.2898
▁ప్రకటిస్త	-10.292
▁వంతు	-10.2923
▁స్నాన	-10.2932
▁ఇంటెలిజెన్స్	-10.2953
▁సన్నిహిత	-10.2953
▁లబ్ధిదారుల	-10.2953
▁నెలకొన్న	-10.2954
▁చేసుకొన	-10.2983
▁చౌదరి	-10.2986
▁జంతువుల	-10.2986
▁కబ్జా	-10.2986
▁స్కోరు	-10.2986
▁కోరుతున్నారు	-10.2988
▁వారీగా	-10.2988
▁సార్వ	-10.299
▁ముంబయి	-10.302
▁పనితీరు	-10.302
▁సురేష్	-10.302
▁మేయర్	-10.3022
▁జీర్ణ	-10.3023
▁విచార	-10.3025
▁లేకపోత	-10.3046
य	-10.3053
▁అహ్మద్	-10.3053
▁ప్రదర్శించ	-10.3053
▁2016	-10.3053
▁అభిషేక	-10.3053
▁కులాల	-10.3054
▁ారన్న	-10.3055
▁ట్రేడ	-10.3065
▁చూస్తా	-10.3078
ದ್ದ	-10.3087
▁డీజీపీ	-10.3087
▁సెకండ్	-10.3088
▁లేవని	-10.3092
ಲ್ಲ	-10.3116
▁భాగస్వామ్య	-10.3121
▁వృత్తి	-10.3121
▁రివ్యూ	-10.3121
▁ఇప్పుడ	-10.3143
▁గుండెపోటు	-10.3155
▁బిఆర్ఎస్	-10.3155
▁కొందరి	-10.3155
▁బైడెన్	-10.3157
▁నౌక	-10.3167
▁కొనసాగుతుంద	-10.3184
▁ఇందుకోస	-10.3189
▁చైతన్య	-10.3189
▁స్పోర్ట్	-10.3189
▁శాసన	-10.319
ర్డర్	-10.3222
▁న్యాయస్థానం	-10.3223
▁బ్రిడ్జి	-10.3223
▁గ్యాంగ్	-10.3223
▁మంత్రివర్గ	-10.3224
▁పర్సన్	-10.3228
▁అంతేకాకుండా	-10.3258
▁జాతర	-10.3259
▁మెరుగుపర	-10.3259
▁వాసుల	-10.3266
▁ట్లే	-10.3269
▁జరిగి	-10.3276
ಭ	-10.3292
▁చిత్తూరు	-10.3292
▁ఆమోదించ	-10.3292
▁ఆరుగుర	-10.3299
మవుతోంది	-10.3304
▁తెలుసుకున	-10.3308
▁మారిపోయ	-10.3319
▁అప్లికేషన్	-10.3327
▁గమనార్హం	-10.3327
▁ఖచ్చిత	-10.3327
▁బిలియన్	-10.3327
▁స్కోర్	-10.3328
▁కొంతకాలం	-10.3332
▁సంవత్సర	-10.3355
▁అమ్మకాల	-10.3358
▁ఓపెనర్	-10.3362
▁కౌన్సిల్	-10.3362
▁ధైర్యం	-10.3362
▁సర్టిఫికెట్	-10.3362
▁బెదిరించ	-10.3362
▁నిరంతర	-10.3362
▁బలగాల	-10.3376
म	-10.3396
▁ఇంగ్లండ్	-10.3396
▁సర్పంచ్	-10.3396
▁స్ఫూర్తి	-10.3396
▁రవీంద్ర	-10.3396
▁సమన్వయ	-10.3396
▁కౌంటింగ్	-10.3396
▁జనగామ	-10.3397
ుద్దీన్	-10.3397
▁హెచ్చరి	-10.3405
▁సుందర	-10.343
▁ఉత్పత్తుల	-10.3431
▁భద్రాచలం	-10.3431
▁భువనగిరి	-10.3431
▁అబ్దుల్	-10.3431
▁సాఫ్ట్	-10.3432
▁మేనేజ్	-10.3432
▁డిపాజిట్	-10.3466
▁సుదీర్ఘ	-10.3466
▁హర్యానా	-10.3466
▁గొంతు	-10.3466
▁ప్రచురించ	-10.3466
▁టెన్షన్	-10.3467
▁సోదాలు	-10.3467
▁స్పేస్	-10.3468
▁ہیں	-10.3502
▁పిఠాపురం	-10.3502
▁పొలిటిక	-10.3502
▁వృద్ధి	-10.3502
▁ఏజెంట్	-10.3502
▁రామచంద్ర	-10.3502
▁జాతకుల	-10.3503
▁సూచిస్తున్నారు	-10.3503
▁బంతి	-10.3508
▁దృశ్య	-10.3537
▁నిర్వహించనున్న	-10.354
ଥ	-10.3572
▁అనుసరించ	-10.3573
ిచ్చారు	-10.359
▁శంకుస్థాపన	-10.3608
▁మార్గదర్శ	-10.3608
▁చక్కెర	-10.3608
▁సీతక్క	-10.3608
▁కార్మిక	-10.3638
▁యజమాని	-10.3644
▁పెంపు	-10.3646
▁జరప	-10.3649
మెయిల్	-10.3653
▁ప్రశాంత	-10.3654
▁అనుకుంటున్న	-10.3656
▁కలుప	-10.3672
▁హాస్టల్	-10.368
▁జరుపుకుంట	-10.368
▁సందేహ	-10.368
▁తక్షణ	-10.368
▁రేంజ్	-10.368
▁చేకూర	-10.3703
▁మార్కుల	-10.3706
▁ఏనుగు	-10.3718
▁ఆకాశ	-10.373
▁సెగ్మెంట్	-10.3752
▁ముగియ	-10.3752
▁లెవల్	-10.3758
▁జరుగుతుందని	-10.3788
▁ఈవీఎం	-10.3788
▁మినహా	-10.3789
▁శోభ	-10.3792
▁సిస్టమ్	-10.3824
ୀ	-10.3824
▁మేనేజర్	-10.3824
▁నెరవేర్చ	-10.3825
▁ఫేమ	-10.3825
పప్పు	-10.3857
▁తీసుకెళ	-10.3858
▁చార్జి	-10.3861
▁మూడేళ్ల	-10.3861
ುತ್ತ	-10.3863
▁నిలుస్త	-10.3877
▁ఉద్దేశించి	-10.3889
▁రహదారి	-10.3897
▁దీపావళి	-10.3897
▁బతుకమ్మ	-10.3897
▁మల్లికార్జున	-10.3897
▁వెహికల్	-10.3897
నిరోధక	-10.3897
▁టేబుల్	-10.3898
▁ఆయిల్	-10.39
▁ಪ್ರ	-10.3934
ଭ	-10.3934
▁కాకినాడ	-10.3934
▁ವಿಡಿಯೋ	-10.3934
▁ఐఏఎస్	-10.3934
▁విజేత	-10.3935
▁ఇయర్	-10.3937
బెట్టి	-10.3943
ప్రసాద్	-10.396
▁రాయలసీమ	-10.3971
▁కలిశారు	-10.3971
▁గాయపడిన	-10.3971
▁బ్యూటీ	-10.3971
▁సమీప	-10.3974
▁బీసీసీఐ	-10.4008
▁రైజర్స్	-10.4008
▁లక్నో	-10.4008
▁వెయ్యి	-10.4009
▁తుమ్మల	-10.4009
نگ	-10.4012
▁పనిచేస్త	-10.4014
▁ఆయన్న	-10.4016
▁నష్టపోయ	-10.4034
▁దర్శక	-10.4039
▁అనిపిస్త	-10.4043
▁గెలుపొంద	-10.4045
▁జేడీఎస్	-10.4045
▁నరసింహ	-10.4045
▁పెడితే	-10.4045
▁చోరీ	-10.4046
▁సాధ్యం	-10.4046
▁జయంతి	-10.4046
▁పనిచేశార	-10.4047
సాగుతోంది	-10.4076
*	-10.4083
▁స్వతంత్ర	-10.4083
▁బ్యారేజీ	-10.4083
▁గద్వాల	-10.4083
▁హేమ	-10.4095
▁కల్యాణ	-10.4096
▁ఎగ్జామ్	-10.412
▁దోపిడీ	-10.412
▁సొసైటీ	-10.412
▁2017	-10.412
▁జడ్జి	-10.412
▁రాఘవ	-10.4121
▁నిలబెట్ట	-10.4121
▁న్యాయమూర్తి	-10.4122
▁పొన్నం	-10.4123
▁స్నేహ	-10.4123
▁వివాదాల	-10.4129
▁బెదిరింపు	-10.4158
▁తుఫాన	-10.4162
▁నియోజక	-10.4195
▁క్రిమినల్	-10.4195
▁ధర్మాసనం	-10.4195
▁ఎదురుచూస్తున్న	-10.4195
▁బీహార్	-10.4196
▁విడాకుల	-10.4196
▁కురుస్తున్న	-10.4196
▁వనరుల	-10.4198
▁టమాటా	-10.4233
▁ఎదుర్కోవ	-10.4234
▁ఫేస్	-10.4236
▁నెరవేర	-10.4271
ڑ	-10.4271
द	-10.4271
ଳ	-10.4271
▁సందర్భాల	-10.4271
▁కురుస్తాయ	-10.4271
▁వెల్లడి	-10.4292
ଖ	-10.4309
▁ఉత్సాహ	-10.4309
▁మెసేజ్	-10.431
▁రౌండ్	-10.431
▁లోకేశ్	-10.4311
▁మృతుల	-10.4311
▁ఎందుక	-10.4346
▁రెస్టారెంట్	-10.4348
▁కంటెంట్	-10.4348
▁తాత్కాలిక	-10.4386
▁ఊపిరి	-10.4386
▁నైట్	-10.4388
▁భక్త	-10.4394
▁తీసుకోవాల్సి	-10.4395
▁సదుపాయాల	-10.4425
▁వైఖరి	-10.4425
▁ఖండించ	-10.4432
▁క్షమాపణ	-10.4464
▁జీహెచ్ఎంస	-10.4464
▁ఢీకొట్ట	-10.4464
▁తెల్లవారుజామున	-10.4464
▁సిలిండర్	-10.4464
▁పాల్గొంటార	-10.4464
▁మహ్మద	-10.4464
నారాయణ	-10.4464
ଧ	-10.4502
▁మలయాళ	-10.4502
▁వాణిజ్య	-10.4502
▁విక్రమ్	-10.4503
▁పెరుగుదల	-10.4509
▁నిజాం	-10.451
▁పొడవ	-10.4517
▁పతక	-10.4533
▁చేరుకో	-10.4541
▁హనుమాన్	-10.4542
▁రఘు	-10.4542
▁సమాజంలో	-10.4544
▁అర్ధరాత్ర	-10.4581
▁నాగార్జున	-10.4581
కశ్మీర్	-10.4581
▁కర్నూలు	-10.4581
▁ప్రతికూల	-10.4581
▁విభాగాల	-10.4581
▁సందేశ	-10.4582
▁చిన్నారుల	-10.4595
▁కాంట్రాక్టర్	-10.462
▁జర్నలిస్టు	-10.462
▁లీకేజీ	-10.462
▁మోస్తర	-10.4629
పట్నం	-10.4637
▁పనిచేసిన	-10.466
▁క్రెడిట	-10.466
▁పట్టించుకోవడం	-10.466
▁బంద్	-10.4665
▁అడగ	-10.4688
▁ఎన్డీయే	-10.4699
▁అర్బన్	-10.4699
▁క్రైమ్	-10.4699
▁అంబటి	-10.47
▁రెజ్ల	-10.4703
▁తిరిగ	-10.4705
▁మనోజ్	-10.474
▁మెరుపు	-10.474
▁లండన్	-10.474
▁నిలిచిపోయ	-10.4747
▁ఎంచుకు	-10.4783
కోవడం	-10.481
▁బంగాళాఖాతం	-10.4819
▁అమెరికన్	-10.4819
▁అజయ్	-10.4819
▁వేర్వేరు	-10.4819
▁అద్దె	-10.482
▁లాయర్	-10.4829
▁జ్ఞాన	-10.486
▁సందర్బం	-10.486
▁హనుమకొండ	-10.486
▁రహస్య	-10.486
▁మెదడు	-10.486
▁పరిపాలన	-10.486
▁పేలుడు	-10.4861
▁అందుకో	-10.4872
▁అక్షర	-10.4876
▁నాలుగేళ్ల	-10.49
▁వ్యవహరిస్తున్న	-10.49
▁ప్రదేశాల	-10.49
▁డ్రోన్	-10.49
▁ఫిల్మ్	-10.49
మాత్రం	-10.4925
▁సొమ్ము	-10.4941
▁సోదరుడు	-10.4941
▁ప్రసార	-10.495
▁మిగిలి	-10.4972
▁ప్రజాప్రతినిధుల	-10.4982
▁పండితులు	-10.4982
ಿದೆ	-10.4983
▁స్టీల్	-10.4984
▁ప్రాసెస	-10.4986
గౌడ	-10.4994
▁జీతాల	-10.5015
▁రెగ్యులర్	-10.5023
▁సిద్ధరామయ్య	-10.5023
▁స్వచ్ఛ	-10.5023
▁వికారాబాద్	-10.5023
▁కండువా	-10.5023
▁బుమ్రా	-10.5023
▁గురవుత	-10.5029
పూట	-10.5057
▁అధిష్టాన	-10.5064
▁ముగిసింది	-10.5064
▁యుక్రెయిన్	-10.5064
▁పరామర్శించ	-10.5064
▁కొబ్బరి	-10.5064
▁దుస్తుల	-10.5081
స్టిట్యూట్	-10.5105
▁నినాదాలు	-10.5105
▁విస్తరణ	-10.5105
▁పర్వత	-10.5107
ద్వారా	-10.5122
▁నిబంధన	-10.5133
▁ధృవ	-10.5147
▁రూపాయి	-10.5148
▁వైయస్	-10.5148
▁టెంప	-10.5165
▁సృష్టి	-10.5172
▁సమాధాన	-10.5176
▁సిగ్నల్	-10.5188
▁సరికొత్త	-10.5188
▁ఎస్టేట్	-10.5188
▁పర్యవేక్షి	-10.523
▁ప్రత్యర్థి	-10.523
▁భూపాలపల్లి	-10.523
▁పోలవరం	-10.523
▁ట్రోఫీ	-10.523
▁జ్యోతిష్య	-10.523
▁సచిన	-10.523
▁ఆరోపించ	-10.5234
▁క్లీన	-10.5272
▁మేడ్చల్	-10.5272
▁రకరకాల	-10.5272
▁కొంచెం	-10.5272
▁పోల్చ	-10.5274
▁ఫ్లోర	-10.5288
▁ವೈರಲ್	-10.5314
▁స్వామివారి	-10.5314
▁నాశనం	-10.5315
▁ందుకే	-10.5316
▁ముఠా	-10.5316
▁పెంచుత	-10.533
▁మాదిరిగా	-10.5357
▁డైలాగ్	-10.5357
▁చూస్తుంట	-10.5357
▁శుభ్రం	-10.5357
▁శాతానికి	-10.5357
భిన్నంగా	-10.5357
▁త్యాగ	-10.5372
ୟ	-10.5397
▁కంప్యూటర్	-10.5399
▁ఛత్తీస్	-10.5399
▁సిద్దరామయ్య	-10.5399
▁స్థాపించ	-10.5399
▁ಮಾಡ	-10.5399
▁షుగర్	-10.5399
▁దోచుకు	-10.54
▁నాంపల్లి	-10.54
▁బ్యానర్	-10.5403
▁నిలదీశారు	-10.5442
▁రీసెర్చ్	-10.5442
▁అప్డేట్	-10.5442
▁ఆదర్శ	-10.5442
▁ఏకాదశి	-10.5485
▁జరిమానా	-10.5485
▁ప్రయోజనం	-10.5485
▁ఆయుధాల	-10.5485
కూడదన	-10.5498
▁బాక్స	-10.55
▁పట్టుకున	-10.5507
▁దేవస్థానం	-10.5528
▁హెలికాప్టర్	-10.5528
▁సులభం	-10.5528
▁టీపీసీ	-10.5553
ಎ	-10.5571
▁అవిశ్వాస	-10.5571
▁నమోదైన	-10.5571
▁జడేజా	-10.5571
▁నిరాకరించ	-10.5571
▁ట్రెండ్	-10.5571
▁ఆరంభ	-10.5572
▁విరిగి	-10.5572
పూరిత	-10.5576
▁రిటర్న	-10.5599
లేదన్నారు	-10.5609
▁ఎదుర్కొన	-10.5614
▁ఆకాంక్ష	-10.5615
▁విధానాన్న	-10.5615
▁అనుమతుల	-10.5617
▁అనూహ్య	-10.5658
▁అభినందన	-10.5658
▁ఆసిఫాబాద్	-10.5658
▁విపత్తు	-10.5659
▁సరికాద	-10.566
ಿಸಿ	-10.5701
ప్లాస్టిక్	-10.5702
▁కర్నూల్	-10.5702
▁సురేఖ	-10.5702
▁కేటాయిస్త	-10.5704
▁సజ్జల	-10.5704
▁ఇరిగ	-10.5705
▁చూసుకుంట	-10.5718
▁ఛాంపియన్	-10.5746
▁వివాదాస్పద	-10.5746
▁హృదయ	-10.5746
▁అనర్హ	-10.5747
▁బెంచ్	-10.5747
▁అడవి	-10.5748
▁వర్షపాతం	-10.5791
▁విభేదాల	-10.5791
▁పెరుగుతోంది	-10.5791
▁ట్రీట్	-10.5791
▁తెరిచ	-10.5805
▁ఇంజినీరింగ్	-10.5835
▁కన్వీనర్	-10.5835
▁మావోయిస్టు	-10.5835
▁ఎదుర్కొన్న	-10.5835
▁అశ్విన్	-10.5836
▁సమ్మె	-10.5836
▁డైరెక్ట	-10.5862
▁మాధవ	-10.5866
▁ఎక్సైజ్	-10.588
▁వ్రత	-10.588
ఇంగ్లీష	-10.588
▁నిర్ధారించ	-10.588
క్కడికక్కడ	-10.5881
▁దుబాయ	-10.5883
▁నాగేశ్వరరావు	-10.5925
▁ఎనర్జీ	-10.5925
▁వరుణ్	-10.5925
▁వార్నింగ్	-10.5925
▁సెర్చ్	-10.5925
▁సూచిస్త	-10.5947
▁స్వేచ్ఛ	-10.597
▁శతాబ్ద	-10.597
▁పరిమితం	-10.597
▁శ్రీహరి	-10.597
▁కూల్చి	-10.597
▁ప్రకృతి	-10.597
▁సవరణ	-10.597
▁ఏర్పాట్ల	-10.6009
▁మొగ్గు	-10.6015
▁అందువల్ల	-10.6015
▁బూత్	-10.6016
▁కార్యకర్త	-10.604
▁కథనాల	-10.6044
▁వెయిట	-10.6046
▁సంక్షోభ	-10.606
▁గందరగోళ	-10.606
▁నైపుణ్య	-10.606
▁ప్రాతినిధ్య	-10.606
▁రిజర్వాయర్	-10.606
▁కాశ్మీర	-10.606
▁పుస్తకాల	-10.606
▁యువకుడి	-10.6061
ೈ	-10.6106
▁ధ్రువ	-10.6106
▁శారీరక	-10.6106
▁శాశ్వత	-10.6106
▁సిక్సర్	-10.6106
▁ఆవిష్కరి	-10.6106
▁సందడి	-10.6107
▁సాధన	-10.6108
▁రాబట్ట	-10.6112
▁ఎదుర్కొంట	-10.6137
▁కమ్యూనిటీ	-10.6152
▁గౌతమ్	-10.6152
▁ధోనీ	-10.6152
▁వివేకా	-10.6152
▁ఉప్పల్	-10.6152
▁పరికరాల	-10.6157
▁అంబానీ	-10.6198
▁క్యారెక్టర్	-10.6198
▁వనపర్తి	-10.6198
▁సీఈవో	-10.6198
▁అభ్యంతరం	-10.6198
▁విశ్వాసం	-10.6198
▁చారిత్ర	-10.6198
▁తీర్థ	-10.6198
▁కనెక్ట	-10.6198
▁కౌశిక్	-10.6244
▁బొగ్గు	-10.6244
▁రఘురామ	-10.6244
▁అగ్రనేత	-10.6244
ग	-10.6291
ଚ	-10.6291
▁శుభవార్త	-10.6291
▁କରି	-10.6291
▁అంశాన్న	-10.6295
▁డ్యామ	-10.6303
▁తిరస్కరించ	-10.6337
▁దిగ్గజ	-10.6337
▁ధన్యవాదాలు	-10.6337
▁వృద్ధుల	-10.6337
▁ఉస్మాన	-10.6338
▁తిరుగుతున్న	-10.6338
▁బాగుంటుంద	-10.6339
▁అమెజాన్	-10.6384
▁ఎఫెక్ట్	-10.6384
▁వార్షిక	-10.6384
▁ప్రత్యామ్నాయ	-10.6384
▁2025	-10.6384
▁ఆధిక్య	-10.6384
▁ఛానెల్	-10.6384
▁విలీనం	-10.6385
▁మోటార్	-10.6385
▁ఏడుగుర	-10.639
▁పురుష	-10.6418
ब	-10.6432
▁శంషాబాద్	-10.6432
▁స్వాతంత్ర్య	-10.6432
▁సేఫ్టీ	-10.6432
▁రాణించ	-10.6462
▁నిపుణుల	-10.6477
▁విధ్వంస	-10.6479
ନ୍ତ	-10.6479
▁రవీందర్	-10.6479
▁ఎంఐఎం	-10.6479
▁ప్రారంభిస్త	-10.6479
▁తుపాను	-10.6479
▁స్పూన్	-10.6479
▁ఇదంత	-10.6504
▁గులాబ	-10.6506
▁కార్యాచరణ	-10.6527
▁జార్ఖండ్	-10.6527
▁మెగాస్టార్	-10.6527
▁వృషభ	-10.6527
▁డ్యూటీ	-10.6527
▁చెన్నూరు	-10.6527
▁ఎంజాయ	-10.6531
ଷ	-10.6574
▁సంక్రాంతి	-10.6574
▁గడిచిన	-10.6574
▁నిర్వాహకులు	-10.6575
▁కొవ్వు	-10.6576
▁ట్యాపింగ్	-10.6622
▁నెహ్రూ	-10.6622
▁గవర్నమెంట	-10.6623
▁తీసుకురావడ	-10.6623
▁ప్రకాశ్	-10.6623
▁కొనుగోళ్ల	-10.6671
▁తహసీల్దార్	-10.6671
▁పురోగతి	-10.6671
▁ప్రదేశం	-10.6671
▁వసూళ్ల	-10.6671
▁సంకేతాల	-10.6671
क	-10.6681
▁రిపబ్లిక	-10.6719
com	-10.6719
ज	-10.6719
ଶ	-10.6719
▁కుటుంబసభ్యుల	-10.6719
▁వెస్టిండీస్	-10.6719
▁శ్రావణ	-10.6719
▁సల్మాన్	-10.6719
▁పర్మిషన్	-10.6719
▁బంగ్లా	-10.672
▁క్యాడర్	-10.672
▁పారిశ్రామిక	-10.6727
▁ఉల్లంఘించ	-10.6768
▁కల్వకుంట	-10.6768
▁కాంప్లెక్స్	-10.6768
▁నిరూపించ	-10.6768
▁నిమిత్త	-10.6768
▁జడ్పీ	-10.6768
▁ఉపవాస	-10.6769
▁బతిక	-10.6774
▁అయిపోయ	-10.6814
ాభివృద్ధి	-10.6817
▁జోక్యం	-10.6817
▁అంకిత	-10.6819
▁ట్రస్ట	-10.6821
▁కూలీల	-10.6838
▁ప్రకాశం	-10.6866
▁న్నింటి	-10.6867
▁పటిష్ట	-10.6867
▁సంతకం	-10.6867
▁ఉపాధ్యక్ష	-10.6916
▁ఎమోషనల్	-10.6916
▁కిడ్నాప్	-10.6916
▁ప్రతిష్టాత్మక	-10.6916
▁కమాండ	-10.6944
▁సౌద	-10.6949
ಾವು	-10.6966
▁ఉపశమనం	-10.6966
▁ఎలక్ట్రానిక్	-10.6966
▁సహాయపడుతుంది	-10.6966
▁కామెడీ	-10.6966
▁దేవరకొండ	-10.6966
▁2015	-10.6966
▁కలిగే	-10.6966
▁ఇమేజ	-10.7002
▁బెల్లంపల్లి	-10.7016
▁లావాదేవీల	-10.7016
▁శ్రీశైలం	-10.7016
▁బ్రాహ్మణ	-10.7016
▁డీఎస్పీ	-10.7016
▁గణేష్	-10.7016
▁మసీదు	-10.7016
▁మూసివే	-10.7018
▁సవాళ్ల	-10.7026
▁గణనీయ	-10.7066
▁రుతుపవనాల	-10.7066
▁చదువుతున్న	-10.7078
▁కాలేజ	-10.7094
▁అడుగుపెట్ట	-10.7094
▁మనోహర్	-10.7116
▁సంరక్షణ	-10.7116
▁హెచ్చరించింది	-10.7116
▁నియంత్రించ	-10.7116
▁డ్యాన్స్	-10.7116
▁పరిగణించ	-10.7116
▁వ్యాప్తి	-10.7116
▁నక్షత్ర	-10.7117
▁స్టాలిన్	-10.7117
▁పుతిన్	-10.7117
▁న్యూయార్క్	-10.7167
▁వందేభారత్	-10.7167
▁స్ట్రీమింగ్	-10.7167
▁నాయకుడి	-10.7167
▁డేవిడ్	-10.7167
▁లబ్ధి	-10.7218
▁ఆధ్యాత్మిక	-10.7218
▁ఉక్రెయిన్	-10.7218
▁సుధాకర్	-10.7218
▁రిపేర్	-10.7219
▁ముహూర్త	-10.7269
▁ల్యాండర్	-10.7269
కమర్షియల్	-10.727
▁అమల్లోకి	-10.727
▁చర్చనీయాంశం	-10.7321
▁وائرل	-10.7321
▁కాన్ఫరెన్స్	-10.7321
▁వర్సిటీ	-10.7321
▁గుప్తా	-10.7321
▁విత్తనాల	-10.7321
▁నడ్డా	-10.7321
ువ్వాడ	-10.7322
▁పోతుంద	-10.734
▁ముగించ	-10.7349
व	-10.7373
▁అథారిటీ	-10.7373
▁ఆసుపత్రుల	-10.7373
▁పర్యవేక్షణ	-10.7373
▁ప్రోగ్రామ్	-10.7373
▁సంయుక్త	-10.7373
▁ఆధునిక	-10.7373
▁స్పెక్టర్	-10.7373
▁కూల్చివేత	-10.7373
▁రెస్పాన్స్	-10.7425
▁హుండీ	-10.7425
▁నివారించ	-10.7425
▁ఇస్తుంద	-10.7426
ొప్పుల	-10.7447
▁నెగ్గ	-10.7449
▁పాలస్తీనా	-10.7477
▁ఆభరణాల	-10.7477
▁చూస్తూ	-10.7477
▁దగ్గు	-10.7477
▁అబ్బాయి	-10.7478
▁ఉపరితల	-10.753
ଙ୍କ	-10.753
▁ఎమర్జెన్సీ	-10.753
▁తీర్చిదిద్ద	-10.753
▁సాంస్కృతిక	-10.753
▁సానుభూతి	-10.753
భూషణ్	-10.753
▁ఆర్టికల్	-10.753
▁పాలమూరు	-10.753
▁అడవుల	-10.7531
▁అక్టోబరు	-10.7583
▁కృతజ్ఞతలు	-10.7583
▁కేటగిరీ	-10.7583
▁టీఎంసీల	-10.7583
▁ఖైదీ	-10.7583
▁సురేశ్	-10.7583
▁పరోక్ష	-10.7583
▁మిల్లర్	-10.7584
▁కోరుత	-10.7611
▁గ్యారెంటీ	-10.7636
▁పింఛన్	-10.7636
▁కర్కాటక	-10.7636
▁మైనారిటీ	-10.7636
▁ప్రొడక్షన్	-10.7636
▁సిద్ధమవుతున్న	-10.7636
▁పరిశీలన	-10.7636
▁చికెన్	-10.7636
▁శ్యామ	-10.7645
▁గణేశ	-10.7647
▁అవుతాయ	-10.7664
▁డయాబెటిస్	-10.7689
▁రైతుబంధు	-10.7689
▁విశ్వవిద్యాలయ	-10.7689
▁ପ୍ର	-10.7689
▁తెలియజేశారు	-10.7689
▁స్పష్టమై	-10.7691
▁ఐపీఎ	-10.7708
▁దృష్ట	-10.7716
▁పడగొట్ట	-10.7743
▁నివసిస్తున్న	-10.7743
▁కోదండ	-10.7744
▁ఆదివాసీ	-10.7797
▁ట్యాంక్	-10.7797
▁నంద్యాల	-10.7797
▁హుస్సేన్	-10.7797
▁అంబులెన్స	-10.7797
▁ఐక్యరాజ్య	-10.7797
▁2011	-10.7797
▁కూర్చో	-10.7797
▁బ్రిటిష	-10.7797
▁బందోబస్తు	-10.7852
▁బిర్యానీ	-10.7852
▁దిగుమత	-10.7852
▁కరెంట	-10.79
▁కాంట్రాక్ట్	-10.7906
+	-10.8184
ض	-10.847
x	-10.8884
ଁ	-10.9006
>	-10.9637
ଫ	-10.9702
ु	-10.9768
ٰ	-10.9901
ै	-10.9968
&	-11.0451
@	-11.0451
غ	-11.0522
ظ	-11.0958
ಥ	-11.1337
ଂ	-11.2057
ذ	-11.2309
च	-11.2924
भ	-11.3014
ट	-11.3292
ೃ	-11.3578
‭	-11.3675
ఒ	-11.4146
`	-11.4382
श	-11.4488
ए	-11.4594
ಉ	-11.4702
Z	-11.4702
ఉ	-11.4793
Q	-11.5144
ड	-11.5144
z	-11.5257
ू	-11.5489
୨	-11.5489
്	-11.5968
➦	-11.6091
଼	-11.6343
ୂ	-11.6471
்	-11.6601
_	-11.6732
☛	-11.6866
q	-11.7001
आ	-11.7001
ଓ	-11.7138
ଘ	-11.7277
ख	-11.7418
ध	-11.7852
ୱ	-11.8002
ୌ	-11.8307
ଠ	-11.8622
ʼ	-11.8947
ಒ	-11.9283
फ	-11.9992
୦	-12.0177
थ	-12.0366
ؤ	-12.0366
=	-12.0558
ث	-12.0954
୧	-12.1579
ക	-12.2019
ୃ	-12.2246
इ	-12.2717
ி	-12.321
ി	-12.3467
ई	-12.4
ष	-12.4278
த	-12.5161
­	-12.5473
]	-12.5473
⁪	-12.5473
ఋ	-12.5796
ಘ	-12.5796
ಐ	-12.5796
ೌ	-12.6129
उ	-12.6129
க	-12.6474
ന	-12.6831
ِ	-12.6831
ப	-12.6831
ण	-12.6831
°	-12.7202
୪	-12.7202
া	-12.7986
യ	-12.7986
ம	-12.8838
ு	-12.8838
ു	-12.8838
ಠ	-12.8838
छ	-12.8838
പ	-12.9292
ட	-12.9292
ओ	-12.9292
$	-12.9769
ാ	-12.9769
ি	-12.9769
ठ	-13.0269
ఱ	-13.0269
౦	-13.0269
ട	-13.135
ଵ	-13.135
୫	-13.135
র	-13.1939
্	-13.2564
வ	-13.323
ல	-13.323
ୈ	-13.323
ர	-13.323
୩	-13.323
‐	-13.323
ক	-13.323
ற	-13.3945
୮	-13.3945
ா	-13.4714
െ	-13.4714
झ	-13.4714
ள	-13.4714
୬	-13.4714
ല	-13.4714
വ	-13.4714
ব	-13.5547
ढ	-13.5547
●	-13.5547
ണ	-13.5547
َ	-13.6456
ন	-13.6456
୯	-13.6456
⁠	-13.6456
ম	-13.6456
୭	-13.6456
ഷ	-13.6456
ॉ	-13.7456
ോ	-13.7456
ي	-13.7456
ে	-13.7456
ଢ	-13.7456
റ	-13.8567
ল	-13.8567
ச	-13.8567
ু	-13.8567
ര	-13.9817
മ	-13.9817
ृ	-13.9817
സ	-13.9817
ژ	-13.9817
ौ	-13.9817
ە	-13.9817
॥	-13.9817
ৰ	-13.9817
ை	-13.9817
‒	-13.9817
ত	-13.9817
ன	-13.9817
ந	-13.9817
ெ	-14.1246
ء	-14.1246
ൽ	-14.1246
′	-14.1246
◉	-14.1246
♦	-14.1246
ো	-14.1246
য	-14.1246
ഡ	-14.1246
ർ	-14.2913
স	-14.2913
ಢ	-14.2913
★	-14.2913
়	-14.4913
😂	-14.4913
🚩	-14.4913
\	-14.7413
ه	-14.7413
ّ	-14.7413
ও	-14.7413
ধ	-14.7413
౩	-14.7413
ം	-14.7413
ൾ	-14.7413
ொ	-14.7413
ൂ	-14.7413
ൗ	-14.7413
🙏	-15.0746
হ	-15.0746
ಃ	-15.0746
~	-15.0746
·	-15.0746
×	-15.0746
ư	-15.0746
ُ	-15.0746
ऊ	-15.0746
०	-15.0746
ট	-15.0746
ড	-15.0746
ফ	-15.0746
ଃ	-15.0746
ଈ	-15.0746
⃣	-15.0746
⦁	-15.0746
️	-15.0746
🔥	-15.0746
ீ	-15.0746
💪	-15.0746
দ	-15.0746
ூ	-15.5746
ৱ	-15.5746
ఁ	-15.5746
â	-15.5746
ơ	-15.5746
أ	-15.5746
ً	-15.5746
ः	-15.5746
२	-15.5746
গ	-15.5746
চ	-15.5746
শ	-15.5746
ী	-15.5746
ஜ	-15.5746
౹	-15.5746
ಔ	-15.5746
ഈ	-15.5746
ഭ	-15.5746
േ	-15.5746
ൻ	-15.5746
ố	-15.5746
⁫	-15.5746
⁯	-15.5746
◆	-15.5746
👌	-15.5746
💚	-15.5746
😡	-15.5746
ভ	-15.5746
ڕ	-15.5746
ശ	-15.5746
ൊ	-15.5746
👉	-16.5681
ൃ	-16.5682
౧	-16.5683
ஏ	-16.5684
অ	-16.5685
⁄	-16.5686
ಝ	-16.5687
ౖ	-16.5688
ண	-16.5689
ऑ	-16.569
ँ	-16.5691
ധ	-16.5692
എ	-16.5693
ங	-16.5694
அ	-16.5695
এ	-16.5696
ञ	-16.5697
đ	-16.5698
ീ	-16.5699
ோ	-16.57
எ	-16.5701
🇳	-16.5702
❌	-16.5703
ള	-16.5704
ജ	-16.5705
ಛ	-16.5706
জ	-16.5707
🇮	-16.5708
ങ	-16.5709
প	-16.571
►	-16.5711
അ	-16.5712
ய	-16.5713
؟	-16.5714
ऐ	-16.5715
ച	-16.5716
ಞ	-16.5717
ଝ	-16.5718
ಊ	-16.5719
ത	-16.572
घ	-16.5721
ಓ	-16.5722
‪	-16.5723
ಏ	-16.5724
ఙ	-16.5725
[	-16.5726
•	-16.5727
₹	-16.5728
ଞ	-16.5729
औ	-16.573
़	-16.5731
अ	-16.5732
ಈ	-16.5733
ಫ	-16.5734
ಖ	-16.5735
ଙ	-16.5736
ଯ	-16.5737
آ	-16.5738
ಆ	-16.5739
ಶ	-16.574
ఔ	-16.5741
ھ	-16.5742
ئ	-16.5743
ఞ	-16.5744
ఊ	-16.5745
ബ	-16.5746
ఽ	-16.5746
ഒ	-16.5746
<	-16.5746
£	-16.5746
©	-16.5746
Á	-16.5746
æ	-16.5746
́	-16.5746
α	-16.5746
β	-16.5746
؛	-16.5746
إ	-16.5746
ى	-16.5746
ێ	-16.5746
४	-16.5746
ঃ	-16.5746
আ	-16.5746
ৈ	-16.5746
ஆ	-16.5746
இ	-16.5746
ஊ	-16.5746
ஸ	-16.5746
ே	-16.5746
ౄ	-16.5746
౪	-16.5746
౬	-16.5746
ആ	-16.5746
ഇ	-16.5746
ഗ	-16.5746
ഴ	-16.5746
ả	-16.5746
ầ	-16.5746
ậ	-16.5746
ệ	-16.5746
ớ	-16.5746
ờ	-16.5746
ở	-16.5746
ợ	-16.5746
ứ	-16.5746
‫	-16.5746
‬	-16.5746
€	-16.5746
∙	-16.5746
≠	-16.5746
▪	-16.5746
♥	-16.5746
✳	-16.5746
➡	-16.5746
🇪	-16.5746
🇬	-16.5746
🌹	-16.5746
🏼	-16.5746
👇	-16.5746
👊	-16.5746
👋	-16.5746
💐	-16.5746
💥	-16.5746
🔴	-16.5746
🔸	-16.5746
🔹	-16.5746
😉	-16.5746
😊	-16.5746
😜	-16.5746
😞	-16.5746
😠	-16.5746
😥	-16.5746
🙂	-16.5746
🤜	-16.5746
ൈ	-16.5746
ڵ	-16.5746
ۆ	-16.5746
உ	-16.5746
(	-16.5746
ദ	-16.5746
