<unk>	0
<s>	0
</s>	0
▁ప	-0
ార	-1
▁క	-2
ని	-3
న్	-4
్ర	-5
▁వ	-6
ర్	-7
స్	-8
▁మ	-9
లు	-10
▁అ	-11
ంద	-12
లో	-13
▁చ	-14
▁స	-15
▁త	-16
ల్	-17
ారు	-18
▁ర	-19
్య	-20
కు	-21
ట్	-22
న్న	-23
ంచ	-24
▁న	-25
గా	-26
క్	-27
▁ప్ర	-28
ంది	-29
తు	-30
▁ఆ	-31
▁చే	-32
ాల	-33
▁బ	-34
ించ	-35
▁ఇ	-36
ను	-37
డి	-38
▁ద	-39
ంట	-40
▁జ	-41
▁ఉ	-42
డు	-43
▁ఎ	-44
రి	-45
ంత	-46
ిన	-47
ాయ	-48
▁గ	-49
ప్	-50
లి	-51
త్	-52
▁వి	-53
రు	-54
▁,	-55
కి	-56
▁ల	-57
ార్	-58
డ్	-59
▁ని	-60
టి	-61
▁లో	-62
▁స్	-63
టు	-64
ంగ	-65
ంగా	-66
సు	-67
టీ	-68
▁రా	-69
▁ఈ	-70
ంలో	-71
ద్	-72
న్నారు	-73
ప్ప	-74
తి	-75
లా	-76
డా	-77
..	-78
యా	-79
చ్	-80
మా	-81
▁ను	-82
▁హ	-83
స్తు	-84
▁కా	-85
▁భ	-86
▁కు	-87
ష్	-88
వా	-89
స్త	-90
సి	-91
న్ని	-92
చ్చ	-93
్యా	-94
▁శ	-95
గు	-96
▁తె	-97
ిక	-98
▁చె	-99
ండ	-100
నే	-101
ాయి	-102
▁ఏ	-103
దు	-104
▁కో	-105
మ్	-106
ందు	-107
ళ్	-108
▁ఫ	-109
ది	-110
ెం	-111
క్ష	-112
పు	-113
ేశ	-114
▁పో	-115
ాలు	-116
పీ	-117
▁కొ	-118
తో	-119
ల్లో	-120
▁కే	-121
ారం	-122
▁మా	-123
▁..	-124
వు	-125
ిత	-126
ింది	-127
▁కూ	-128
▁వె	-129
▁పె	-130
▁1	-131
రా	-132
▁ము	-133
నికి	-134
్రి	-135
లీ	-136
▁2	-137
మి	-138
సీ	-139
▁సి	-140
ైన	-141
ంచి	-142
▁పా	-143
▁ట	-144
ారి	-145
లకు	-146
ిల్	-147
▁లే	-148
▁సం	-149
క్క	-150
ట్ట	-151
▁తీ	-152
▁డ	-153
ంగ్	-154
ించారు	-155
ామ	-156
ంతో	-157
ష్ట	-158
▁గా	-159
రో	-160
్వ	-161
ెస్	-162
▁ఒ	-163
లను	-164
▁వే	-165
▁తో	-166
బ్	-167
ద్ద	-168
▁నుంచి	-169
▁నే	-170
కా	-171
ట్లు	-172
డం	-173
▁కూడా	-174
బా	-175
▁వా	-176
▁సీ	-177
కో	-178
▁చేశ	-179
▁అధ	-180
▁ఉన్న	-181
మ్మ	-182
పై	-183
వి	-184
▁గు	-185
త్త	-186
ాన	-187
▁నిర్	-188
▁బీ	-189
▁అయ	-190
పో	-191
ంద్ర	-192
▁చేయ	-193
ెడ్	-194
షన్	-195
యం	-196
స్తున్న	-197
పా	-198
▁సమ	-199
గ్	-200
▁.	-201
▁య	-202
▁పార్	-203
▁ప్రభ	-204
సిన	-205
సుకు	-206
ప్పు	-207
బు	-208
నీ	-209
▁ఓ	-210
▁తెలి	-211
జు	-212
ల్ల	-213
▁రో	-214
టర్	-215
ాలని	-216
ంటి	-217
▁కి	-218
ందని	-219
▁పై	-220
ఆర్	-221
▁వచ్చ	-222
్రా	-223
తున్న	-224
▁వ్య	-225
్రీ	-226
▁చెప్ప	-227
ుత్	-228
ంటు	-229
గి	-230
▁"	-231
ెడ్డి	-232
▁భార	-233
▁పరి	-234
త్ర	-235
▁రూ	-236
ండి	-237
నా	-238
జ్	-239
వే	-240
▁చేశారు	-241
లే	-242
రీ	-243
ందుకు	-244
పి	-245
తం	-246
జీ	-247
▁వై	-248
▁మీ	-249
▁దీ	-250
▁పార్టీ	-251
ూర్	-252
కే	-253
▁అధిక	-254
▁ప్రభుత్	-255
యో	-256
ెట్	-257
▁(	-258
▁దా	-259
సం	-260
▁సా	-261
▁బా	-262
▁పే	-263
ంటే	-264
వం	-265
▁అవ	-266
కొ	-267
▁కార	-268
▁ఆయ	-269
ంధ	-270
ించిన	-271
ట్టు	-272
ళ్ల	-273
▁అని	-274
ండ్	-275
▁నా	-276
ారని	-277
ద్య	-278
డీ	-279
స్థ	-280
ించి	-281
▁ష	-282
ఎస్	-283
▁20	-284
ారా	-285
▁తన	-286
నం	-287
▁ప్రా	-288
ెల్	-289
▁ఆయన	-290
▁ఎన్ని	-291
రం	-292
ులు	-293
▁రాష్ట	-294
వర్	-295
▁వీ	-296
జా	-297
▁ఒక	-298
▁మొ	-299
వీ	-300
ెంట్	-301
త్య	-302
ాడు	-303
ధి	-304
మె	-305
దా	-306
▁ఎన్నిక	-307
ెక్	-308
▁అభ	-309
ాలి	-310
▁చేసి	-311
సే	-312
వర	-313
▁టీ	-314
▁శా	-315
రే	-316
▁చూ	-317
▁వర	-318
కీ	-319
ంత్రి	-320
ంప	-321
▁తెలిప	-322
▁రి	-323
▁ధ	-324
ితే	-325
రుగు	-326
జే	-327
ుల	-328
▁చి	-329
▁స్థ	-330
▁ఉండ	-331
క్ర	-332
▁రాష్ట్ర	-333
▁స్ట	-334
▁చేసిన	-335
▁రెడ్డి	-336
▁జరి	-337
హి	-338
్రెస్	-339
ాలను	-340
▁మే	-341
వాత	-342
▁డి	-343
దే	-344
ధ్య	-345
▁కాంగ	-346
లంగా	-347
ఖ్య	-348
క్కు	-349
▁మంది	-350
▁కాంగ్రెస్	-351
▁ప్రక	-352
▁హై	-353
▁ఖ	-354
ండా	-355
▁లు	-356
▁పోలీ	-357
▁వారి	-358
▁జిల్	-359
▁రాజ	-360
దేశ	-361
▁రోజు	-362
ర్శ	-363
ఎం	-364
య్య	-365
బాద్	-366
▁మార్	-367
ఫ్	-368
యంలో	-369
యే	-370
▁సె	-371
స్తున్నారు	-372
▁3	-373
మైన	-374
సా	-375
▁నె	-376
యి	-377
కర	-378
మే	-379
▁వర్	-380
▁తా	-381
▁కోసం	-382
చి	-383
తా	-384
▁మూ	-385
▁ా	-386
▁రై	-387
న్స్	-388
▁మో	-389
దీ	-390
▁జిల్లా	-391
ట్ల	-392
ర్థ	-393
ప్పుడు	-394
▁మె	-395
▁చేస్త	-396
▁సమా	-397
▁సు	-398
ప్పటి	-399
▁ఐ	-400
తీ	-401
▁విష	-402
▁తెలంగా	-403
▁తెలంగాణ	-404
కోవ	-405
న్య	-406
▁రే	-407
సులు	-408
ించింది	-409
▁అయితే	-410
వారం	-411
▁-	-412
▁పు	-413
▁తి	-414
▁చెప్పారు	-415
లుగు	-416
ంబ	-417
▁ది	-418
ల్లి	-419
▁అను	-420
▁భా	-421
కర్	-422
▁కార్య	-423
▁ప్రభుత్వం	-424
▁ఇచ్చ	-425
▁పొ	-426
▁తెలిపారు	-427
ుకు	-428
శ్	-429
ర్చ	-430
▁తర్	-431
్యూ	-432
డంతో	-433
ామని	-434
ాలా	-435
▁యా	-436
▁దేశ	-437
▁తర్వాత	-438
కుండా	-439
▁ప్రజ	-440
▁చంద్ర	-441
▁తీసుకు	-442
దని	-443
ట్టి	-444
ంటూ	-445
▁సిని	-446
ర్య	-447
▁అనే	-448
▁బీజే	-449
▁జరిగ	-450
▁ప్రతి	-451
వహ	-452
▁అధికారు	-453
▁సో	-454
డానికి	-455
▁బీజేపీ	-456
▁లా	-457
▁తే	-458
▁వ్యక్	-459
మో	-460
▁కలి	-461
తున్నారు	-462
▁మంత్రి	-463
▁మరో	-464
▁4	-465
▁పాటు	-466
▁గ్ర	-467
▁వ్యా	-468
▁ఉంది	-469
▁ఏర్	-470
▁:	-471
ించే	-472
▁సినిమా	-473
▁కేంద్ర	-474
జి	-475
ము	-476
▁అన్నారు	-477
వ్	-478
▁5	-479
బంధ	-480
▁ఆరో	-481
▁తమ	-482
▁సభ	-483
▁శ్రీ	-484
తులు	-485
▁లక్ష	-486
▁జీ	-487
తుంది	-488
▁ఎమ్మ	-489
టన	-490
▁మి	-491
▁జా	-492
ప్ర	-493
▁క్ర	-494
▁ఎమ్మెల్	-495
డే	-496
▁స్ప	-497
▁నేత	-498
▁ఉంటు	-499
ద్ధ	-500
▁చాలా	-501
00	-502
▁సీఎం	-503
ణా	-504
▁ప్	-505
స్ట	-506
▁రెం	-507
ట్లా	-508
ర్టు	-509
లం	-510
ళ్లు	-511
ోంది	-512
బ్బ	-513
క్కువ	-514
▁అంత	-515
కాశ	-516
▁మాత్ర	-517
ాని	-518
కూ	-519
▁రెండు	-520
ందిన	-521
▁విజ	-522
▁పి	-523
▁ఆర్	-524
▁పని	-525
▁అభి	-526
డ్డ	-527
▁పూర్	-528
పాటు	-529
టో	-530
▁తీసు	-531
కులు	-532
▁ఎం	-533
రాబాద్	-534
బాబు	-535
▁అస	-536
▁సర్	-537
పోయ	-538
▁మాట్లా	-539
▁ఆమె	-540
త్స	-541
మీ	-542
▁నెల	-543
బర్	-544
▁ఘ	-545
▁దీంతో	-546
▁గత	-547
▁హైద	-548
దల	-549
▁రె	-550
ాలకు	-551
▁ప్రధ	-552
హా	-553
గ్ర	-554
గొ	-555
▁వెళ్	-556
▁చేసుకు	-557
▁జగ	-558
▁అందు	-559
▁అవకాశ	-560
▁బె	-561
మార్	-562
▁ముఖ్య	-563
▁నీ	-564
వ్వ	-565
గే	-566
▁లోని	-567
▁మధ్య	-568
▁మరి	-569
▁వరకు	-570
ెన్	-571
▁బి	-572
▁కానీ	-573
▁హైదరాబాద్	-574
▁క్	-575
ీల	-576
▁చంద్రబాబు	-577
వరి	-578
▁చేస్తున్న	-579
▁ఎలా	-580
▁సూ	-581
తూ	-582
▁తొ	-583
గ్గ	-584
ంత్	-585
▁చెందిన	-586
శా	-587
▁కేసు	-588
▁ప్రాంత	-589
▁ఎమ్మెల్యే	-590
వేశ	-591
ాయని	-592
▁పోలీసులు	-593
▁చేసింది	-594
▁నాయ	-595
తోంది	-596
సారి	-597
▁కొత్త	-598
ర్లు	-599
లతో	-600
చారం	-601
▁సంబంధ	-602
▁ఇప్పటి	-603
ణి	-604
▁గుర్	-605
ాన్	-606
▁ఇది	-607
లోని	-608
▁బీఆర్	-609
ర్కొ	-610
ర్యా	-611
▁తెలు	-612
▁బ్యా	-613
▁కార్	-614
స్తుంది	-615
ందర్	-616
▁పాల్	-617
▁న్య	-618
▁తర	-619
▁అధికారులు	-620
▁నిర్వహ	-621
ణం	-622
చార	-623
▁యూ	-624
▁6	-625
గం	-626
స్ట్	-627
▁జన	-628
స్తే	-629
ణ్	-630
▁ک	-631
ందించ	-632
ుడు	-633
స్య	-634
▁నిర్ణ	-635
▁ఎన్నికల	-636
▁ద్వ	-637
స్తోంది	-638
బీ	-639
▁గె	-640
▁మహి	-641
▁202	-642
▁సమయంలో	-643
▁ఇం	-644
ూరు	-645
▁భారీ	-646
▁గుర	-647
▁యు	-648
▁కల	-649
▁కాల	-650
▁ఫో	-651
▁పెద్ద	-652
▁సై	-653
▁లేదు	-654
▁గంట	-655
త్తు	-656
గర్	-657
▁మహిళ	-658
▁అన	-659
▁ఎస్	-660
ృష్	-661
▁ఉద్య	-662
▁చేసే	-663
ందే	-664
ైనా	-665
▁అమ	-666
▁హా	-667
▁అలా	-668
ంపు	-669
▁ఎక్కువ	-670
▁భూ	-671
▁7	-672
ారంభ	-673
▁జగన్	-674
▁పెట్ట	-675
డియా	-676
▁ప్రారంభ	-677
▁కని	-678
▁శి	-679
క్కడ	-680
▁అభ్య	-681
ేషన్	-682
▁""	-683
హ్	-684
▁ముందు	-685
▁ప్రస్తు	-686
క్స్	-687
▁డీ	-688
త్రి	-689
▁కేసీ	-690
టా	-691
వన్	-692
చే	-693
తే	-694
▁ఇప్పుడు	-695
షి	-696
ారీ	-697
▁)	-698
▁రాజకీ	-699
▁బో	-700
▁మ్యా	-701
▁వల్ల	-702
▁విద్య	-703
పించ	-704
▁కేసీఆర్	-705
యోజ	-706
▁అవు	-707
▁బీఆర్ఎస్	-708
▁ఇవ్వ	-709
▁ఇక	-710
▁అత	-711
▁సే	-712
▁కుటు	-713
▁వచ్చిన	-714
▁కల్	-715
▁వారు	-716
▁8	-717
▁టి	-718
▁అర	-719
▁అంద	-720
▁మీడియా	-721
▁ఫి	-722
ర్మ	-723
▁ప్రభుత్వ	-724
▁ఒక్క	-725
కెట్	-726
▁ద్వారా	-727
▁విధ	-728
▁ు	-729
ంలోని	-730
ఫీ	-731
కాల	-732
ద్ర	-733
ిల్లీ	-734
▁సాధ	-735
నించ	-736
ాయం	-737
▁పేర్కొ	-738
డిన	-739
▁చెబు	-740
▁ఇలా	-741
▁...	-742
▁ఏర్పాటు	-743
▁కొన్ని	-744
▁మన	-745
స్థి	-746
▁ఏపీ	-747
▁కె	-748
▁ప్రత్య	-749
తంగా	-750
▁కావ	-751
విత	-752
▁ప్రకట	-753
▁పీ	-754
▁సమస్య	-755
▁ప్రమా	-756
క్రమ	-757
▁అయ్య	-758
తుల	-759
▁లి	-760
▁బు	-761
ినా	-762
మెంట్	-763
కె	-764
▁జరుగు	-765
ందో	-766
కం	-767
▁ఉంటుంది	-768
పే	-769
▁పలు	-770
▁కారణ	-771
▁అధికార	-772
▁అవకాశం	-773
చ్చు	-774
శి	-775
▁ధర	-776
▁తు	-777
▁వివర	-778
▁దే	-779
▁పూర్తి	-780
▁మహ	-781
▁ఉద్యో	-782
▁గో	-783
▁పోటీ	-784
▁వెలుగు	-785
ల్సి	-786
▁రూప	-787
▁దీని	-788
▁మాజీ	-789
▁బయ	-790
టం	-791
రుకు	-792
▁శాఖ	-793
తర	-794
యర్	-795
▁షా	-796
ెస్ట్	-797
▁రేవ	-798
సీపీ	-799
తీయ	-800
▁పరిస్థి	-801
ంత్ర	-802
▁దు	-803
▁ప్రస్తుతం	-804
ార్థ	-805
▁జరిగిన	-806
▁వచ్చే	-807
▁వద్ద	-808
▁మొద	-809
దం	-810
▁పాల	-811
గో	-812
▁ఆరోప	-813
▁ఉంట	-814
▁ఇండి	-815
▁అధ్య	-816
▁అభ్యర్థ	-817
▁అం	-818
ఢిల్లీ	-819
▁సహ	-820
▁లను	-821
▁10	-822
▁హి	-823
లోకి	-824
▁చేస్తున్నారు	-825
▁9	-826
▁కుటుంబ	-827
కపో	-828
▁వర్ష	-829
ాల్లో	-830
▁కొన	-831
▁సంస్థ	-832
మంత్రి	-833
యన్	-834
కంగా	-835
▁ఎంపీ	-836
▁ఆధ	-837
▁ఎదు	-838
వ్ర	-839
▁మార	-840
▁మొత్త	-841
▁నో	-842
ల్స్	-843
▁భారత్	-844
▁రేవంత్	-845
▁మంచి	-846
▁తీవ్ర	-847
జర్	-848
▁ట్ర	-849
▁విచార	-850
▁ఎన్నికల్లో	-851
ాం	-852
యత్	-853
స్టు	-854
్యం	-855
నూ	-856
▁ఉప	-857
స్తూ	-858
▁మండ	-859
▁పేరు	-860
▁చేప	-861
▁పాల్గొ	-862
డీపీ	-863
▁భారత	-864
టింగ్	-865
ద్ధి	-866
ెక్టర్	-867
▁విజయ	-868
నర్	-869
▁అన్ని	-870
ంటర్	-871
డియో	-872
▁క్యా	-873
▁19	-874
▁201	-875
▁కుమార్	-876
నాలు	-877
▁స్థాన	-878
ంటున్న	-879
▁సమావేశ	-880
▁మూడు	-881
▁కమి	-882
▁సందర్	-883
▁గ్రామ	-884
▁నియోజ	-885
▁లై	-886
▁వెల్ల	-887
రగ	-888
▁కలిసి	-889
▁టీడీపీ	-890
▁ప్రయత్	-891
▁శు	-892
▁ఎన్	-893
త్తి	-894
నున్న	-895
తలు	-896
▁కీల	-897
▁శాతం	-898
▁పట్ట	-899
▁రు	-900
▁నమో	-901
▁తేదీ	-902
▁డా	-903
షల్	-904
ట్టుకు	-905
▁విడు	-906
ానికి	-907
▁నియోజక	-908
▁ఛ	-909
▁పవన్	-910
▁చర్య	-911
▁కోట్ల	-912
హం	-913
▁ప్రత్యే	-914
రణ	-915
▁కొనసా	-916
▁పరిశ	-917
ాన్ని	-918
▁గురించి	-919
▁లేదని	-920
దేశ్	-921
▁'	-922
▁మ్యాచ్	-923
పంచ	-924
లపై	-925
▁భాగ	-926
▁చర్చ	-927
▁కర్	-928
▁చో	-929
▁సందర్భ	-930
▁మాత్రం	-931
▁వీడియో	-932
▁ఉందని	-933
▁హె	-934
భా	-935
▁విడుదల	-936
ంగళ	-937
▁వేల	-938
▁రాజకీయ	-939
▁వెళ్ల	-940
▁కంప	-941
▁ప్రశ్	-942
▁తప్ప	-943
లేదు	-944
▁ఇన్	-945
తున్నాయి	-946
బ్లీ	-947
▁ا	-948
▁వైసీపీ	-949
సర	-950
▁ఉన్నారు	-951
ిల్ల	-952
▁వాటి	-953
రూ	-954
▁ప్రధాన	-955
▁నియోజకవర్	-956
▁అధ్యక్ష	-957
▁హో	-958
▁విచారణ	-959
▁ఉన్నాయి	-960
మాండ్	-961
వడం	-962
▁వెల్లడ	-963
మర్శ	-964
డ్డు	-965
్రో	-966
ైంది	-967
▁ప్రభా	-968
▁పూ	-969
▁లీ	-970
పర్	-971
▁ఢిల్లీ	-972
హు	-973
▁దూ	-974
యోగ	-975
▁అన్న	-976
▁మాత్రమే	-977
ష్టం	-978
ంటారు	-979
సింది	-980
ానని	-981
▁వెం	-982
▁వ్యక్తం	-983
▁విషయం	-984
రల్	-985
▁పద	-986
దర్శ	-987
▁పం	-988
▁ఘటన	-989
ృద్ధి	-990
▁వ్యక్తి	-991
▁ఊ	-992
మని	-993
ించడం	-994
్వర	-995
▁అర్	-996
▁జో	-997
క్తి	-998
▁అసెం	-999
వై	-1000
క్షన్	-1001
దన	-1002
ినీ	-1003
▁ఉద	-1004
▁అసెంబ్లీ	-1005
▁వారికి	-1006
▁ఉండే	-1007
▁సభ్య	-1008
▁తాజా	-1009
▁లక్షల	-1010
డాది	-1011
కుల	-1012
ద్దు	-1013
▁ముఖ్యమంత్రి	-1014
▁చేయాలని	-1015
▁కీలక	-1016
స్తారు	-1017
▁జూ	-1018
▁అమ్మ	-1019
▁వంటి	-1020
ానం	-1021
▁సమాచారం	-1022
వల	-1023
▁ఉత్త	-1024
▁సూచ	-1025
▁దర్శ	-1026
ారెడ్డి	-1027
ించాలని	-1028
▁నుండి	-1029
▁ఇప్పటికే	-1030
పూర్	-1031
▁చేసు	-1032
లింగ్	-1033
▁ఇంటి	-1034
▁యువ	-1035
▁పోలీసు	-1036
్రే	-1037
▁పడు	-1038
▁ప్రపంచ	-1039
ించుకు	-1040
▁విమర్శ	-1041
గిన	-1042
రారు	-1043
బో	-1044
▁మాట్లాడు	-1045
▁ప్రజలు	-1046
కోర్టు	-1047
ంట్	-1048
▁హీ	-1049
ంటున్నారు	-1050
ెనీ	-1051
▁రెండ	-1052
▁మృ	-1053
▁డై	-1054
▁ప్రధాని	-1055
దిక	-1056
▁నాలు	-1057
▁అదే	-1058
▁పను	-1059
▁కోర్టు	-1060
లలో	-1061
రిగి	-1062
▁తిరు	-1063
జన్	-1064
▁వార్	-1065
▁కంపెనీ	-1066
▁జై	-1067
▁రాష్ట్రంలో	-1068
▁లేదా	-1069
సర్	-1070
▁సందర్భంగా	-1071
▁సంఘ	-1072
నల్	-1073
▁మీద	-1074
▁బయట	-1075
▁తాను	-1076
పె	-1077
▁ఆదేశ	-1078
▁వెంట	-1079
▁చిన్న	-1080
గ్గు	-1081
నున్నారు	-1082
▁తరు	-1083
▁ప్రత్యేక	-1084
▁ఇండియా	-1085
▁ఎలాంటి	-1086
టీఆర్	-1087
▁కింద	-1088
▁వ్యవ	-1089
▁తెలుగు	-1090
▁స్వా	-1091
▁ంచ	-1092
▁టై	-1093
ించు	-1094
ెంబర్	-1095
▁రంగ	-1096
▁15	-1097
▁మొత్తం	-1098
▁అత్య	-1099
▁మోదీ	-1100
▁చిత	-1101
▁ప్రకారం	-1102
▁తొలి	-1103
▁న్యూ	-1104
▁ప్రయా	-1105
వృద్ధి	-1106
▁విని	-1107
▁సోషల్	-1108
బ్బంది	-1109
▁అక్క	-1110
▁చేయడం	-1111
టమి	-1112
▁నగ	-1113
▁ఆల	-1114
వో	-1115
తుందని	-1116
▁ఆది	-1117
▁నిర్మా	-1118
త్మ	-1119
▁రావు	-1120
▁పిల్ల	-1121
▁12	-1122
▁టా	-1123
▁అమె	-1124
క్టర్	-1125
పడ్డ	-1126
ినే	-1127
▁అంటూ	-1128
ంతరం	-1129
▁సిద్ధ	-1130
▁ఇతర	-1131
▁ప్లా	-1132
▁కాదు	-1133
▁సరి	-1134
వాల్	-1135
▁ఇద్ద	-1136
▁ప్రే	-1137
▁ఆరోగ	-1138
▁నేతలు	-1139
▁ఆర్థ	-1140
నుంది	-1141
▁విద్యార్థ	-1142
▁దగ్గ	-1143
▁రామ	-1144
టక	-1145
▁చర్యలు	-1146
ృష్ణ	-1147
▁రైతు	-1148
▁م	-1149
▁హీరో	-1150
వత్స	-1151
ాము	-1152
▁ారు	-1153
▁గెలి	-1154
▁ఆర్థిక	-1155
▁డబ్	-1156
న్నా	-1157
జెక్	-1158
▁ఏడాది	-1159
▁సంవత్స	-1160
▁మెంట్	-1161
▁అంటే	-1162
▁కౌ	-1163
య్	-1164
▁ార	-1165
▁చేపట్ట	-1166
▁ఇందు	-1167
యాలు	-1168
▁ఇదే	-1169
▁అభివృద్ధి	-1170
▁జరగ	-1171
▁ంద	-1172
▁అది	-1173
▁ట్	-1174
ంధీ	-1175
▁అందించ	-1176
▁కోట్లు	-1177
తారు	-1178
తాయి	-1179
▁ఆఫీ	-1180
▁దాని	-1181
ేశారు	-1182
శ్వ	-1183
▁ి	-1184
▁అలాగే	-1185
▁పర్య	-1186
ళన	-1187
▁పెంచ	-1188
వులు	-1189
వడంతో	-1190
డుగు	-1191
▁11	-1192
▁అమెరి	-1193
▁గుర్త	-1194
▁క్రమ	-1195
▁పరుగు	-1196
▁దాడి	-1197
▁నిలి	-1198
స్సు	-1199
ప్తంగా	-1200
▁లకు	-1201
లై	-1202
▁రోజుల	-1203
▁వార	-1204
ంతా	-1205
▁స్థాయి	-1206
పల్లి	-1207
ంతి	-1208
▁ఫోన్	-1209
▁పేర్కొన్నారు	-1210
్యంలో	-1211
ంలోకి	-1212
ల్డ్	-1213
స్ప	-1214
నించారు	-1215
▁వెళ్లి	-1216
యు	-1217
▁వెంక	-1218
▁అయిన	-1219
చు	-1220
▁ఇచ్చిన	-1221
▁గొ	-1222
▁డిమాండ్	-1223
కోవడం	-1224
▁తాజాగా	-1225
▁బాల	-1226
▁ప్రాజెక్	-1227
▁తెలియ	-1228
యాన్ని	-1229
▁డే	-1230
ెన్స్	-1231
ప్రదేశ్	-1232
ంజ	-1233
▁తెలిపింది	-1234
▁చెబుతున్నారు	-1235
▁రీ	-1236
▁పరిస్థితి	-1237
▁స్వ	-1238
▁దాదా	-1239
▁సొ	-1240
ల్లు	-1241
▁పడి	-1242
▁నేప	-1243
▁వచ్చి	-1244
న్సి	-1245
లర్	-1246
▁ఫ్యా	-1247
▁ట్రా	-1248
ప్ట	-1249
▁మేర	-1250
▁దాదాపు	-1251
ళ్లి	-1252
▁అమలు	-1253
▁సంబంధించిన	-1254
▁కార్యక్రమ	-1255
▁?	-1256
▁భక్	-1257
ూడ	-1258
ట్లో	-1259
▁గతంలో	-1260
▁గాంధీ	-1261
▁తగ్గ	-1262
▁చేరుకు	-1263
▁ఇటీ	-1264
కల్	-1265
▁గౌ	-1266
.1	-1267
▁బ్యాం	-1268
▁స్టార్	-1269
ందోళన	-1270
▁పడ	-1271
ేశ్	-1272
▁డబ్బు	-1273
▁మాట్లాడుతూ	-1274
▁గంటల	-1275
పడు	-1276
▁స్థాని	-1277
▁లె	-1278
▁థ	-1279
▁చై	-1280
▁భాగంగా	-1281
టే	-1282
▁మూవీ	-1283
▁వ్యవహ	-1284
▁పెరుగు	-1285
▁హామ	-1286
▁అమెరికా	-1287
దారు	-1288
▁ల్	-1289
▁అనేక	-1290
▁ఫలి	-1291
స్వా	-1292
▁కారణంగా	-1293
▁నేపథ	-1294
▁కనిపి	-1295
రీక్ష	-1296
లుగా	-1297
▁వైఎస్	-1298
▁చీ	-1299
▁నమోదు	-1300
▁ఆఫ్	-1301
▁అనంతరం	-1302
ాలతో	-1303
▁ప్రజా	-1304
▁వెంటనే	-1305
▁జరిగింది	-1306
కోవాలని	-1307
▁పథ	-1308
పక్ష	-1309
▁కొంత	-1310
▁విషయంలో	-1311
▁నిర్ణయం	-1312
సన	-1313
డర్	-1314
▁నిర్మ	-1315
▁ہ	-1316
▁సమీ	-1317
▁దగ్గర	-1318
▁వ్యాఖ్య	-1319
▁లేకుండా	-1320
ార్డు	-1321
క్ష్	-1322
▁లేద	-1323
▁ే	-1324
ద్ది	-1325
▁అంచ	-1326
ంధ్ర	-1327
కుడు	-1328
▁జారీ	-1329
▁పరీక్ష	-1330
న్నీ	-1331
▁అంశ	-1332
▁ఇందులో	-1333
▁తరువాత	-1334
వాల	-1335
రోజు	-1336
▁సర	-1337
▁వచ్చింది	-1338
▁రూపాయ	-1339
▁మాట్లాడ	-1340
▁వస్తు	-1341
▁మై	-1342
▁సింగ్	-1343
▁పాత్ర	-1344
▁కేసులో	-1345
▁పనిచే	-1346
▁అక్కడ	-1347
▁నేపథ్యంలో	-1348
▁కొంద	-1349
▁ం	-1350
▁ఆందోళన	-1351
క్షణ	-1352
లుపు	-1353
▁రాహు	-1354
గాలు	-1355
▁వివా	-1356
స్తామని	-1357
▁కేట	-1358
▁ఆశ	-1359
▁మళ్	-1360
▁ఎక్కువగా	-1361
▁ఫొ	-1362
▁ర్	-1363
ర్యాదు	-1364
పతి	-1365
▁దొ	-1366
▁కళ	-1367
▁జీవిత	-1368
▁రిక	-1369
▁ప్రి	-1370
ులకు	-1371
▁డె	-1372
▁్	-1373
▁డ్ర	-1374
▁కాగా	-1375
▁ఫిర్యాదు	-1376
క్షి	-1377
సేన	-1378
▁ప్రచారం	-1379
డని	-1380
▁తెలిసి	-1381
▁ఫొటో	-1382
▁యూని	-1383
▁ఇచ్చారు	-1384
▁జిల్లాలో	-1385
కొని	-1386
▁తల్లి	-1387
ాయ్	-1388
▁నేను	-1389
▁ఉదయం	-1390
▁నియ	-1391
▁చిత్ర	-1392
▁గుర్తు	-1393
▁లోక్	-1394
▁తయ	-1395
▁పెరి	-1396
▁చట్ట	-1397
▁హామీ	-1398
లువ	-1399
▁పైన	-1400
▁14	-1401
ర్చు	-1402
బాటు	-1403
▁డైర	-1404
an	-1405
▁రాహుల్	-1406
▁మొదటి	-1407
▁స్టేషన్	-1408
▁చూడ	-1409
▁ఎంత	-1410
కున్న	-1411
▁⁬	-1412
కాలు	-1413
▁ఖా	-1414
▁మార్పు	-1415
▁సౌ	-1416
శాఖ	-1417
▁మద్ద	-1418
పడి	-1419
టికి	-1420
ండగా	-1421
▁గ్రా	-1422
▁బాధ్య	-1423
▁కథ	-1424
▁బంగ	-1425
▁హాజ	-1426
నియర్	-1427
నాల	-1428
▁వైద్య	-1429
చర్	-1430
▁నాలుగు	-1431
▁త్వర	-1432
▁30	-1433
య్యారు	-1434
డో	-1435
▁తల	-1436
▁నిర్ణయ	-1437
కొచ్చ	-1438
▁న్యాయ	-1439
పడ్డారు	-1440
▁శ్రీని	-1441
▁క్రమంలో	-1442
▁ఆరోపణ	-1443
▁ల్లో	-1444
▁బల	-1445
▁పార్ల	-1446
▁సంఖ్య	-1447
▁మీడియాలో	-1448
రికి	-1449
▁సాయ	-1450
▁పోయ	-1451
▁క్రిక	-1452
▁మరింత	-1453
▁డాక్టర్	-1454
▁గి	-1455
▁కాలే	-1456
▁రెండో	-1457
▁శివ	-1458
యల్	-1459
▁జట్టు	-1460
వరణ	-1461
▁పంప	-1462
▁శ్రీనివా	-1463
▁చేస్తూ	-1464
ెస్టు	-1465
▁అభ్యర్థి	-1466
ంటీ	-1467
▁వ్యాప	-1468
రంగా	-1469
రువు	-1470
▁పాల్గొన్నారు	-1471
▁అందుకే	-1472
▁తెలంగాణలో	-1473
▁తెలుస్తోంది	-1474
నుగో	-1475
▁ఆంధ్ర	-1476
▁రాత్రి	-1477
నలు	-1478
▁ఉంటే	-1479
తిరే	-1480
▁చా	-1481
ధిక	-1482
▁వాతా	-1483
రెడ్డి	-1484
▁ఫ్	-1485
వారి	-1486
.5	-1487
గాల	-1488
▁18	-1489
▁వ్యతిరే	-1490
స్తా	-1491
▁కొనసాగు	-1492
న్ను	-1493
▁ప్రభుత్వా	-1494
▁మేరకు	-1495
ణాలు	-1496
▁మళ్లీ	-1497
▁కంటే	-1498
ఫి	-1499
▁ఇలాంటి	-1500
పేట	-1501
ట్స్	-1502
లోనే	-1503
▁ఎందుకు	-1504
▁ప్రజల	-1505
▁ఏం	-1506
▁క్ష	-1507
షనల్	-1508
▁కోల్	-1509
▁ఫై	-1510
ర్మన్	-1511
▁వస్తున్న	-1512
▁25	-1513
యిన్	-1514
పోయిన	-1515
▁హైకోర్టు	-1516
▁A	-1517
భి	-1518
▁అంది	-1519
▁ట్లు	-1520
▁వాహ	-1521
▁!	-1522
ళి	-1523
రాలు	-1524
▁కేటీఆర్	-1525
▁ఆరోపించారు	-1526
రంలో	-1527
▁తీర్	-1528
▁పైగా	-1529
20	-1530
▁చు	-1531
మారు	-1532
▁ంది	-1533
▁నాయకులు	-1534
న్నాయి	-1535
▁జనసేన	-1536
▁తిరిగి	-1537
టంతో	-1538
▁విమా	-1539
▁కలెక్టర్	-1540
మల	-1541
▁రిలీ	-1542
ించేందుకు	-1543
▁అరెస్ట్	-1544
▁బిల్	-1545
బి	-1546
టర్ల	-1547
▁వైరల్	-1548
బడి	-1549
కారు	-1550
▁నగర్	-1551
టల్	-1552
▁భర్	-1553
▁ఐదు	-1554
▁సిబ్బంది	-1555
వాడ	-1556
▁ప్రకటన	-1557
▁తెలిసిందే	-1558
▁జాతీయ	-1559
▁పంచ	-1560
▁అధ్యక్షుడు	-1561
రిక	-1562
వైపు	-1563
▁ఫు	-1564
విధ	-1565
▁మద్దతు	-1566
▁ఇటీవల	-1567
▁ప్రాజెక్టు	-1568
ారణ	-1569
▁స్త	-1570
▁సంగ	-1571
గానే	-1572
▁విన	-1573
ర్స్	-1574
▁ఆధార	-1575
ఎల్	-1576
స్టర్	-1577
ార్లు	-1578
▁కర్ణా	-1579
▁ప్రొ	-1580
▁వారిని	-1581
▁కర్ణాటక	-1582
త్వ	-1583
▁ఆలో	-1584
వ్యా	-1585
ందన్నారు	-1586
▁శని	-1587
▁వెల్లడించారు	-1588
ల్సిన	-1589
▁సోమ	-1590
▁నూ	-1591
▁కొనుగో	-1592
చిన	-1593
▁దృష్	-1594
▁కొందరు	-1595
یں	-1596
బుల్	-1597
▁స్టే	-1598
▁దో	-1599
టరీ	-1600
▁నిల	-1601
▁నింది	-1602
▁నీటి	-1603
▁విజయం	-1604
్యార	-1605
▁కాకుండా	-1606
▁13	-1607
▁కమిటీ	-1608
▁వీటి	-1609
ధు	-1610
ంతు	-1611
యిల్	-1612
▁శుక్ర	-1613
▁س	-1614
▁అక్కడి	-1615
▁తక్కువ	-1616
▁కారు	-1617
▁ఆస	-1618
▁ాల	-1619
▁పెళ్లి	-1620
▁పోలీస్	-1621
ారో	-1622
▁2024	-1623
▁ఎవర	-1624
▁అతి	-1625
▁వస్త	-1626
గంలో	-1627
▁తనకు	-1628
▁హత్య	-1629
ంప్	-1630
ముఖ	-1631
▁17	-1632
ధా	-1633
▁నమ్మ	-1634
▁భార్య	-1635
▁కిలో	-1636
▁రైల్	-1637
▁రోడ్డు	-1638
▁24	-1639
▁పర్	-1640
వన	-1641
▁గురు	-1642
▁అప్ప	-1643
▁బై	-1644
▁మంగళ	-1645
శారు	-1646
▁లైన్	-1647
▁ఇంకా	-1648
▁ఇద్దరు	-1649
కారం	-1650
▁ాయి	-1651
ಲ್	-1652
్యాల	-1653
▁మాట	-1654
▁ఏళ్ల	-1655
▁ఉద్యోగు	-1656
▁చేసుకున్న	-1657
▁అందుకు	-1658
వారు	-1659
ండర్	-1660
▁ఉత్	-1661
▁చోటు	-1662
▁పనులు	-1663
▁కోరారు	-1664
▁పక్క	-1665
▁16	-1666
▁చని	-1667
▁ఫా	-1668
▁ఆంధ్రప్రదేశ్	-1669
▁నిర	-1670
▁వెంకట	-1671
▁తీసుకున్న	-1672
▁షే	-1673
సీసీ	-1674
▁రాశి	-1675
▁200	-1676
▁ఉపయోగ	-1677
▁కేవ	-1678
▁బౌ	-1679
▁బెంగళ	-1680
క్కి	-1681
ంద్	-1682
▁జి	-1683
▁వేయ	-1684
▁అతని	-1685
▁ఆద	-1686
రేషన్	-1687
ారాయ	-1688
▁స్పందించ	-1689
ట్టిన	-1690
▁టికెట్	-1691
పడ	-1692
▁భావి	-1693
▁మర	-1694
▁కర	-1695
సరం	-1696
దాలు	-1697
▁సుప	-1698
▁మారింది	-1699
▁సాగు	-1700
▁కేవలం	-1701
▁బెంగళూరు	-1702
ందా	-1703
▁పరిధి	-1704
పోయింది	-1705
▁రాష్ట్రా	-1706
మై	-1707
▁హెచ్చ	-1708
▁జే	-1709
▁అభిమా	-1710
్యు	-1711
▁లతో	-1712
▁స్కూ	-1713
▁పాకి	-1714
▁మోడీ	-1715
▁దేశంలో	-1716
▁అడుగు	-1717
▁ఎక్స్	-1718
▁అందులో	-1719
▁ఆరోగ్య	-1720
▁ఉంచ	-1721
▁ాడు	-1722
▁ప్రాంతాల్లో	-1723
డిగా	-1724
కరణ	-1725
ండ్ల	-1726
ేందుకు	-1727
▁ఇంటర్	-1728
▁సూచించారు	-1729
ీర్	-1730
▁మొదల	-1731
▁پ	-1732
▁క్రి	-1733
▁ఎవరి	-1734
▁కూటమి	-1735
▁చేశాడు	-1736
మవు	-1737
▁లేక	-1738
▁ఏపీలో	-1739
▁మార్కెట్	-1740
ోర్	-1741
చుకు	-1742
▁పెట్టి	-1743
▁బ్	-1744
పోయారు	-1745
▁ఇక్కడ	-1746
▁నిర్వ	-1747
▁ప్రై	-1748
▁ముగి	-1749
▁అధికారంలోకి	-1750
థ్	-1751
▁కార్యకర్	-1752
▁మారు	-1753
▁సూర్	-1754
▁ఆగ	-1755
▁మృతి	-1756
▁అల	-1757
▁కేంద్రం	-1758
▁و	-1759
జయ్	-1760
చిత	-1761
ాలీ	-1762
.3	-1763
డింగ్	-1764
▁లేని	-1765
▁సంచ	-1766
▁వర్షాలు	-1767
జన	-1768
▁అవసరం	-1769
▁భద్ర	-1770
▁రైల్వే	-1771
నని	-1772
▁భూమి	-1773
▁కష్ట	-1774
ేశ్వ	-1775
▁రోడ్	-1776
▁వైపు	-1777
▁చెప్పు	-1778
▁అనుమ	-1779
▁మరోసారి	-1780
▁తాము	-1781
▁ప్రజలకు	-1782
▁పెట్టు	-1783
▁50	-1784
ఖా	-1785
్రీం	-1786
▁ఎంతో	-1787
యానికి	-1788
రాల	-1789
▁స్పష్టం	-1790
▁తమి	-1791
▁సీనియర్	-1792
▁ప్రవేశ	-1793
చ్చి	-1794
యూ	-1795
వె	-1796
క్రమా	-1797
▁లక్ష్	-1798
▁రిలీజ్	-1799
▁సంద	-1800
ామన్నారు	-1801
▁కొనుగోలు	-1802
ణు	-1803
▁ఆలోచ	-1804
▁పోరా	-1805
▁ఆసక్తి	-1806
జ్ర	-1807
▁యో	-1808
ెండ్	-1809
▁మండి	-1810
▁ఉంటాయి	-1811
▁చివరి	-1812
▁అవసర	-1813
▁వరు	-1814
లేదని	-1815
▁అంతే	-1816
▁తెర	-1817
గింది	-1818
కార్	-1819
▁చెల్ల	-1820
▁సేవ	-1821
▁అందుబాటు	-1822
సై	-1823
▁ప్లే	-1824
▁సమయం	-1825
یا	-1826
▁రావ	-1827
▁కాల్	-1828
▁2023	-1829
స్టి	-1830
▁తరల	-1831
ండ్రి	-1832
▁సామా	-1833
▁సొంత	-1834
▁ವ	-1835
▁ారని	-1836
▁మీరు	-1837
స్తాన్	-1838
వ్యాప్తంగా	-1839
డులు	-1840
▁తొల	-1841
తిని	-1842
రియా	-1843
▁రాజీ	-1844
▁ప్రకటించారు	-1845
పొ	-1846
ధులు	-1847
▁పాట	-1848
▁ప్రమాదం	-1849
ష్య	-1850
ర్ట్	-1851
▁వివిధ	-1852
▁సుప్రీం	-1853
ేమ	-1854
▁గంటలకు	-1855
▁ನ	-1856
▁స్వీ	-1857
▁వ్యవస్థ	-1858
▁గ్రూ	-1859
మ్స్	-1860
▁మరణ	-1861
▁కార్యాల	-1862
▁మరియు	-1863
▁పరుగులు	-1864
▁మైన	-1865
▁పోలింగ్	-1866
▁ఆహ	-1867
డుకు	-1868
▁వ్యాఖ్యలు	-1869
▁ఫీ	-1870
▁నాగ	-1871
▁బస్సు	-1872
▁తెలుసుకు	-1873
▁ఇంత	-1874
▁అడి	-1875
ప్పటికీ	-1876
▁లేకపో	-1877
▁లోకి	-1878
▁నరే	-1879
టర్లు	-1880
ర్ల	-1881
▁డైరెక్టర్	-1882
▁ముందుకు	-1883
ాలపై	-1884
నేందుకు	-1885
కోవాలి	-1886
▁గాయ	-1887
▁ఆత్మ	-1888
శే	-1889
▁వృ	-1890
▁వీరి	-1891
▁సర్వే	-1892
.2	-1893
▁పోస్టు	-1894
ద్యా	-1895
▁నిర్వహి	-1896
క్త	-1897
ప్తు	-1898
వరకు	-1899
▁ఇబ్బ	-1900
▁లాంటి	-1901
▁వేదిక	-1902
▁నిజ	-1903
▁ప్రముఖ	-1904
▁రోజుల్లో	-1905
వుల	-1906
కింగ్	-1907
▁జూన్	-1908
మయ్య	-1909
▁నిర్వహించారు	-1910
ర్ర	-1911
శాల	-1912
▁అప్పటి	-1913
ోత్స	-1914
బ్ర	-1915
▁అప్	-1916
▁ఇంట్లో	-1917
జిక	-1918
క్టో	-1919
▁ఫలిత	-1920
▁మండల	-1921
▁పూజ	-1922
▁కట్ట	-1923
▁జైలు	-1924
▁వాటిని	-1925
ల్లా	-1926
▁ప్రమాద	-1927
▁సంబంధించి	-1928
▁అనేది	-1929
▁శుక్రవారం	-1930
ండీ	-1931
బీసీ	-1932
▁ن	-1933
▁కృ	-1934
సెస్	-1935
డిని	-1936
▁పరిష్	-1937
▁క్రికెట్	-1938
▁రాయ	-1939
తన	-1940
వంత	-1941
▁బొ	-1942
▁చైర్మన్	-1943
▁ఎన్నికలు	-1944
▁ఇబ్బందు	-1945
▁బోర్	-1946
తిలో	-1947
▁వివరించారు	-1948
▁చేస్తే	-1949
▁బాధ	-1950
నె	-1951
▁R	-1952
ెట్టి	-1953
▁మరోవైపు	-1954
▁సోమవారం	-1955
▁శ్రీనివాస్	-1956
▁చేస్తు	-1957
▁పరిశీల	-1958
▁అభిప్ర	-1959
▁దీనికి	-1960
▁కార్యక్రమా	-1961
ళ్ళ	-1962
రులు	-1963
▁బాధి	-1964
ంగల్	-1965
ారాయణ	-1966
▁ఎవ	-1967
▁మాన	-1968
ంత్రం	-1969
▁దీనిపై	-1970
▁యాద	-1971
▁నివే	-1972
▁అందరి	-1973
▁చేసేందుకు	-1974
దో	-1975
▁బుధ	-1976
ారిటీ	-1977
▁ఇజ్ర	-1978
▁ముంబ	-1979
▁ఎన్న	-1980
ితా	-1981
▁శం	-1982
▁అధినే	-1983
▁జరిగే	-1984
▁ఉంటుందని	-1985
▁కనిపించ	-1986
పాల్	-1987
▁బాగా	-1988
సభ	-1989
్రియ	-1990
▁బయటకు	-1991
▁రిజర్	-1992
నింగ్	-1993
వుడ్	-1994
▁ఎయి	-1995
▁దృష్టి	-1996
గిరి	-1997
మాన్	-1998
హన్	-1999
▁టె	-2000
▁సెల	-2001
డుతున్న	-2002
▁కేసులు	-2003
ణీ	-2004
▁అండ్	-2005
▁ప్రశ్నించారు	-2006
▁ఆరు	-2007
వచ్చు	-2008
▁వస్తే	-2009
▁పాలన	-2010
▁సంక్ష	-2011
▁అప్పు	-2012
▁22	-2013
▁న్	-2014
▁పంట	-2015
ప్షన్	-2016
▁దర్యా	-2017
గ్రహం	-2018
▁దక్షి	-2019
మూ	-2020
▁పేరుతో	-2021
▁నమోద	-2022
▁చేయడానికి	-2023
▁మంత్ర	-2024
▁కృష్ణ	-2025
▁గే	-2026
▁లలో	-2027
ొచ్చు	-2028
▁అర్థ	-2029
▁ప్రతిపక్ష	-2030
ళీ	-2031
▁ఇజ్రాయ	-2032
▁బంగారం	-2033
▁బ్ర	-2034
నుక	-2035
టీసీ	-2036
▁ب	-2037
పాల	-2038
▁కమ	-2039
▁నేడు	-2040
▁తీసుకె	-2041
▁స్వామి	-2042
ెబ్బ	-2043
▁తమిళ	-2044
▁బాబు	-2045
పటి	-2046
పురం	-2047
▁చేరి	-2048
తల	-2049
▁అద	-2050
▁ఆదివారం	-2051
లియా	-2052
▁కవిత	-2053
▁ప్రస	-2054
▁చెన్న	-2055
▁దర్యాప్తు	-2056
▁వయ	-2057
▁బీసీ	-2058
▁విస్త	-2059
▁పేర్కొంది	-2060
▁ఒకే	-2061
▁శరీ	-2062
పం	-2063
నగర్	-2064
▁స్టా	-2065
▁సాయంత్రం	-2066
స్తున్నాయి	-2067
▁చేస	-2068
▁తప్పు	-2069
▁రద్దు	-2070
▁చీఫ్	-2071
▁రైతులు	-2072
న్సిప	-2073
▁వరద	-2074
▁ఆరోపణలు	-2075
▁అక్రమ	-2076
▁చేశారని	-2077
ండ్ర	-2078
▁తేదీన	-2079
దుపు	-2080
▁కల్యా	-2081
▁విలువ	-2082
▁ఎమ్మెల్సీ	-2083
▁ಸ	-2084
▁ఓటు	-2085
▁ఆట	-2086
▁ఓవర్	-2087
పించారు	-2088
▁వాతావరణ	-2089
▁మంగళవారం	-2090
కృష్ణ	-2091
▁బ్రి	-2092
ంస	-2093
▁సహాయ	-2094
▁సంజయ్	-2095
▁అభిమాను	-2096
▁ఏర్పా	-2097
రుపు	-2098
▁కేటాయ	-2099
వాళ	-2100
▁వరకూ	-2101
▁శనివారం	-2102
హ్మ	-2103
ట్టే	-2104
▁మండలం	-2105
▁అంచనా	-2106
▁అయ్యారు	-2107
లాండ్	-2108
▁అధినేత	-2109
ృష్ట	-2110
▁ఎల్	-2111
▁ఇజ్రాయెల్	-2112
▁మార్చి	-2113
జ్ఞ	-2114
▁మని	-2115
▁పోస్ట్	-2116
రావు	-2117
కరించ	-2118
▁పిటి	-2119
▁హు	-2120
▁ప్రయాణి	-2121
▁ఆప	-2122
▁ت	-2123
▁తది	-2124
▁పార్టీకి	-2125
▁జరుగుతున్న	-2126
▁దక్క	-2127
మిక	-2128
▁21	-2129
▁సహా	-2130
""	-2131
▁వస	-2132
▁వంద	-2133
▁వాళ్లు	-2134
▁ముగ్గు	-2135
▁చెప్పిన	-2136
▁నడు	-2137
▁డ్రై	-2138
▁రైలు	-2139
ప్పి	-2140
్యూటీ	-2141
వాల్సి	-2142
కిత్స	-2143
▁స్థానిక	-2144
▁శుభ	-2145
ారాన్ని	-2146
▁కార్యక్రమంలో	-2147
మ్మి	-2148
▁విశాఖ	-2149
▁సభ్యులు	-2150
రుగా	-2151
సిటీ	-2152
▁సిటీ	-2153
డికి	-2154
ంక	-2155
సుప	-2156
్రమ	-2157
త్వం	-2158
▁తగ్	-2159
దర్శి	-2160
▁లోనూ	-2161
▁పదవి	-2162
ితం	-2163
▁కళ్యా	-2164
▁పంపి	-2165
▁తయారు	-2166
▁టెక్	-2167
▁విద్యా	-2168
ప్తి	-2169
స్థాన్	-2170
▁అత్యంత	-2171
▁అయినా	-2172
▁ఎత్తు	-2173
▁విధంగా	-2174
్రిల్	-2175
▁భర్త	-2176
▁విదేశ	-2177
పడిన	-2178
▁పెట్టుకు	-2179
పుణ	-2180
▁నిజా	-2181
▁సమస్యలు	-2182
▁ಮ	-2183
ణంలో	-2184
రీస్	-2185
▁నివేదిక	-2186
▁చేస్తామని	-2187
▁సంతో	-2188
▁విమర్శించారు	-2189
చారు	-2190
▁బంధ	-2191
▁లోనే	-2192
▁రోజులు	-2193
స్వామి	-2194
పుడు	-2195
▁మహిళా	-2196
▁గురువారం	-2197
▁జరిగి	-2198
▁పల్లి	-2199
▁మందికి	-2200
▁నట	-2201
▁స్థాయిలో	-2202
మంది	-2203
▁నిమి	-2204
▁పార్లమెంట్	-2205
్యంగా	-2206
▁ఆసుప	-2207
▁ప్రాంతంలో	-2208
▁మాట్లాడారు	-2209
డ్జ	-2210
▁స్తు	-2211
▁విక్ర	-2212
▁ల్యా	-2213
సె	-2214
ర్మి	-2215
▁కప్	-2216
▁గవర్	-2217
▁మొదలు	-2218
▁భారీగా	-2219
▁నిరసన	-2220
▁సూపర్	-2221
▁చికిత్స	-2222
▁అంగ	-2223
▁సింగ	-2224
▁బిల్లు	-2225
▁పది	-2226
తులకు	-2227
మైంది	-2228
దేశం	-2229
▁కంట	-2230
▁యుద్ధ	-2231
▁కావడంతో	-2232
▁పార్టీలో	-2233
రంగ	-2234
రావ	-2235
▁ఐపీ	-2236
▁దశ	-2237
▁నామ	-2238
▁చైనా	-2239
▁కీ	-2240
ాలంటే	-2241
▁బీబీసీ	-2242
ందం	-2243
▁అరెస్టు	-2244
లన	-2245
▁ప్రేమ	-2246
▁గెలు	-2247
▁చేరు	-2248
▁భారతీయ	-2249
కార	-2250
▁అంతర్	-2251
▁అక్టో	-2252
▁ప్రైవే	-2253
▁భక్తులు	-2254
▁ట్యా	-2255
▁షి	-2256
▁చేసినట్లు	-2257
▁తీసుకో	-2258
▁దారు	-2259
▁సాధారణ	-2260
ట్రో	-2261
నియా	-2262
▁100	-2263
▁ఎదుర్కొ	-2264
గాయి	-2265
▁రాజ్	-2266
▁షర్మి	-2267
డమే	-2268
▁అడ్డు	-2269
▁నెలకొ	-2270
▁గ్రామా	-2271
▁ఆన్	-2272
▁కాపా	-2273
▁పర్యటన	-2274
ಲ್ಲ	-2275
ాబాద్	-2276
▁వరంగల్	-2277
▁నై	-2278
ులను	-2279
▁తమకు	-2280
▁పాఠ	-2281
▁ప్రభావం	-2282
▁0	-2283
▁వాళ్ల	-2284
డ్జెట్	-2285
ంక్	-2286
▁సమీప	-2287
▁డిస	-2288
తులను	-2289
▁ందుకు	-2290
▁ఎయిర్	-2291
ar	-2292
▁నరేంద్ర	-2293
▁ఎక్క	-2294
▁ఈసారి	-2295
▁దెబ్బ	-2296
▁మున్సిప	-2297
▁کے	-2298
▁د	-2299
ప్రిల్	-2300
▁ప్రకటించింది	-2301
▁వరుస	-2302
బట్టి	-2303
▁ఖర్చు	-2304
▁బుధవారం	-2305
▁వు	-2306
▁దాఖ	-2307
సన్	-2308
▁విద్యుత్	-2309
గ్రత్త	-2310
▁సెప్ట	-2311
ాలే	-2312
▁గ్	-2313
▁ఉపా	-2314
ొక	-2315
గతి	-2316
కెట్లు	-2317
▁ప్లాన్	-2318
▁చేయాలి	-2319
ఫిక	-2320
▁భావ	-2321
▁వరల్డ్	-2322
రాజ్	-2323
▁అడ్	-2324
▁నాకు	-2325
▁హక్కు	-2326
▁డిప	-2327
▁ಕ	-2328
▁తండ్రి	-2329
▁ముఖ్యంగా	-2330
లిం	-2331
▁క్వ	-2332
కోవడానికి	-2333
▁బే	-2334
టై	-2335
▁అసలు	-2336
స్ట్రే	-2337
▁ఎల	-2338
▁అయి	-2339
బీఐ	-2340
▁న్న	-2341
ప్పుడ	-2342
వాస	-2343
▁పర	-2344
▁ج	-2345
▁వినియోగ	-2346
▁ఇవ్వాలని	-2347
ద్దీ	-2348
▁వేడు	-2349
▁పిటిషన్	-2350
▁C	-2351
▁దర	-2352
▁పలువు	-2353
నామా	-2354
▁నటి	-2355
▁కార్మి	-2356
క్ట్	-2357
▁చరి	-2358
▁పదే	-2359
▁40	-2360
▁బహి	-2361
▁కళ్యాణ్	-2362
▁کی	-2363
దులు	-2364
▁ట్టు	-2365
▁వేగ	-2366
▁బెయిల్	-2367
▁కామెంట్	-2368
డవ	-2369
▁పౌ	-2370
ితంగా	-2371
▁జిల్లాల్లో	-2372
▁సుప్రీంకోర్టు	-2373
▁ఎంప	-2374
▁హాజర	-2375
▁తీర్పు	-2376
▁అంటున్నారు	-2377
▁జాగ్రత్త	-2378
▁మండిపడ్డారు	-2379
▁క్ల	-2380
▁తోపాటు	-2381
▁సిరీస్	-2382
▁రికార్డు	-2383
▁అవి	-2384
▁నోటీ	-2385
▁విమర్శలు	-2386
▁నష్ట	-2387
ఖాస్తు	-2388
▁తెచ్చ	-2389
ెడ	-2390
చూ	-2391
జూ	-2392
కులకు	-2393
యాల్లో	-2394
▁అలాంటి	-2395
పరి	-2396
▁వెళ్లే	-2397
▁ఎంపిక	-2398
సిడ	-2399
ళ్లకు	-2400
లిక	-2401
▁గ్రూప్	-2402
▁దరఖాస్తు	-2403
▁ఫే	-2404
ెన్సీ	-2405
▁ఆన	-2406
మ్మడి	-2407
ించాడు	-2408
ించడానికి	-2409
▁కామ	-2410
▁పూర్తిగా	-2411
▁S	-2412
▁మహా	-2413
చింది	-2414
▁ఖమ్మ	-2415
▁శక్తి	-2416
▁ధరలు	-2417
▁ఎదురు	-2418
▁బడ్జెట్	-2419
ౌన్	-2420
▁ఉన్నట్లు	-2421
ఠా	-2422
▁28	-2423
▁హింద	-2424
షే	-2425
హె	-2426
బితా	-2427
మిత్	-2428
▁విషయాన్ని	-2429
▁సమావేశం	-2430
▁ఏప్రిల్	-2431
▁స్థానంలో	-2432
▁ఇబ్బందులు	-2433
రస్	-2434
▁ఆడ	-2435
ంగి	-2436
ండ్లు	-2437
▁కోరు	-2438
▁ఫైన	-2439
▁ఇంటికి	-2440
▁میں	-2441
▁వేడుక	-2442
ధ్యా	-2443
▁ఇండ	-2444
▁పెం	-2445
▁బాధ్యత	-2446
గాల్లో	-2447
▁కొద్ది	-2448
లేక	-2449
▁2019	-2450
▁డబ్బులు	-2451
▁మహారా	-2452
గూడ	-2453
▁పట్టు	-2454
▁ప్యా	-2455
▁సెంటర్	-2456
▁గుండ	-2457
▁రాజు	-2458
▁ఈరోజు	-2459
▁అవకాశాలు	-2460
▁భయ	-2461
ృతి	-2462
▁చేసారు	-2463
రియ	-2464
▁ట్రై	-2465
ుకున్న	-2466
▁దిగ	-2467
▁ాం	-2468
▁P	-2469
ముల	-2470
లాల	-2471
పోయి	-2472
▁యాత్ర	-2473
▁మూడో	-2474
డత	-2475
ికా	-2476
▁వచ్చాయి	-2477
▁కురి	-2478
▁అధికారి	-2479
▁ఆక	-2480
▁విజయవాడ	-2481
కరి	-2482
▁లాభ	-2483
▁హరీ	-2484
▁సైతం	-2485
▁సెక	-2486
▁అనుమా	-2487
000	-2488
▁కనీ	-2489
▁ఒకటి	-2490
▁నుంచ	-2491
లియన్	-2492
▁తెలుసు	-2493
వంబర్	-2494
▁వివే	-2495
▁ఉండగా	-2496
▁చేసుకున్నారు	-2497
ంగ్స్	-2498
▁ఆయనకు	-2499
▁బృ	-2500
▁అదుపు	-2501
▁ముంబై	-2502
▁ప్రయోజ	-2503
▁23	-2504
▁లభ	-2505
▁చదు	-2506
య్యాయి	-2507
జె	-2508
▁వన్	-2509
ట్లను	-2510
▁స్పె	-2511
▁కన్	-2512
▁దీన్ని	-2513
టివ్	-2514
ధుల	-2515
▁పొత్తు	-2516
▁సమర్	-2517
▁సీపీ	-2518
▁ప్రేక్ష	-2519
ళ్లను	-2520
▁వాయి	-2521
▁రాజీనామా	-2522
▁కార్యదర్శి	-2523
▁T	-2524
▁ఫ్ర	-2525
▁రూపొ	-2526
▁ట్వీ	-2527
▁తిరుమల	-2528
▁పొంద	-2529
▁గణ	-2530
▁చేస్తారు	-2531
▁సమావేశంలో	-2532
▁కాబట్టి	-2533
▁చొ	-2534
నాడు	-2535
పెట్ట	-2536
ార్ట్	-2537
▁పలువురు	-2538
▁ఆస్ప	-2539
▁పార్టీల	-2540
యన్స్	-2541
▁అవినీ	-2542
తున్నారని	-2543
నంగా	-2544
▁ఎందు	-2545
▁కల్యాణ్	-2546
ష్ట్ర	-2547
▁కాలేజీ	-2548
▁గల	-2549
▁చరిత్ర	-2550
▁వ్యాప్తంగా	-2551
▁సిద్ద	-2552
▁ప్రచార	-2553
▁అనుకూ	-2554
▁సబ్	-2555
▁సంప్ర	-2556
▁పాకిస్తాన్	-2557
టువ	-2558
చ్చని	-2559
▁ఉచిత	-2560
▁నిరు	-2561
▁సంక్షేమ	-2562
హ్నం	-2563
▁నడి	-2564
▁ప్రసా	-2565
▁ఇవాళ	-2566
▁కార్పొ	-2567
▁ఐటీ	-2568
▁నీరు	-2569
▁ఉత్తర	-2570
కొండ	-2571
▁చేర	-2572
▁మద్య	-2573
టువంటి	-2574
దిరి	-2575
▁రోహి	-2576
▁ాన్ని	-2577
▁పార్టీలు	-2578
▁సంత	-2579
ళ్లలో	-2580
▁సామాజిక	-2581
▁27	-2582
▁మధ్యా	-2583
▁కాలంలో	-2584
▁లెక్క	-2585
▁ఉమ్మడి	-2586
▁విధాన	-2587
▁జాబితా	-2588
▁కనిప	-2589
▁నిమిష	-2590
▁షర్మిల	-2591
▁ఇబ్బంది	-2592
▁తీసుకున్నారు	-2593
ఖీ	-2594
ల్ని	-2595
టిఫిక	-2596
▁పారి	-2597
▁జనవరి	-2598
▁నిపుణ	-2599
▁అభిప్రాయ	-2600
▁ఇంగ్	-2601
▁సభలో	-2602
▁ఆస్ట్రే	-2603
▁రామ్	-2604
▁ఆసుపత్రి	-2605
▁స్పష్ట	-2606
▁పోలీసులకు	-2607
స్త్ర	-2608
▁ఎన్టీఆర్	-2609
▁గిరి	-2610
▁పండు	-2611
▁తీరు	-2612
▁ఇచ్చింది	-2613
▁/	-2614
▁26	-2615
▁బండి	-2616
▁విశ్వ	-2617
▁అద్	-2618
హెచ్	-2619
▁స్థి	-2620
.4	-2621
▁ఎగ్	-2622
స్తాయి	-2623
▁మనం	-2624
▁సీట్లు	-2625
ష్ణ	-2626
▁కొండ	-2627
▁కాదని	-2628
▁వర్షం	-2629
▁వ్యవస	-2630
ాప	-2631
▁ప్రయత్నం	-2632
▁చేయా	-2633
▁కారణం	-2634
▁గుర్తి	-2635
ానీ	-2636
▁సము	-2637
▁తీసుకొచ్చ	-2638
▁డిసెంబర్	-2639
లవ	-2640
▁1,	-2641
కంటే	-2642
లిన	-2643
ఫిక్	-2644
్వర్	-2645
▁అంబ	-2646
భవ	-2647
▁చూప	-2648
▁అక్టోబర్	-2649
▁ఎన్నో	-2650
▁భవి	-2651
▁మిగి	-2652
ంటుంది	-2653
▁అధికారిక	-2654
▁కలిగి	-2655
▁కెప్ట	-2656
▁వస్తుంది	-2657
▁యూనివర్	-2658
కేష్	-2659
▁గర్	-2660
ించినట్లు	-2661
▁ాయ	-2662
▁ఈడీ	-2663
▁సెప్టెంబర్	-2664
షనర్	-2665
▁నెలల	-2666
▁ఎక్కడ	-2667
▁నిబంధ	-2668
్యాన్ని	-2669
▁వది	-2670
▁గ్యా	-2671
▁పేద	-2672
▁లేఖ	-2673
ార్డ్	-2674
▁యాదవ్	-2675
in	-2676
ళం	-2677
ತ್	-2678
రణ్	-2679
▁రష	-2680
▁రహ	-2681
▁షో	-2682
ద్దేశ	-2683
▁తనను	-2684
▁సూర్య	-2685
▁పత్ర	-2686
్వర్యంలో	-2687
▁గుండె	-2688
▁విభా	-2689
▁ఖమ్మం	-2690
▁ట్వీట్	-2691
▁భవిష్య	-2692
▁నిర్వహించ	-2693
▁భే	-2694
▁సామ	-2695
▁రేపు	-2696
▁ఇచ్చి	-2697
ేశ్వర	-2698
▁పడ్డ	-2699
▁కమిషన్	-2700
▁తిరుపతి	-2701
▁క్యాప్షన్	-2702
రేట్	-2703
▁నర్	-2704
▁ఉత్ప	-2705
▁కస్ట	-2706
▁ప్రీ	-2707
▁వ్యూ	-2708
న్లు	-2709
ాలలో	-2710
▁సీబీఐ	-2711
▁అందుబాటులో	-2712
▁ఎవరు	-2713
ఖ్యా	-2714
ఫ్ట్	-2715
▁ధర్	-2716
▁ప్రో	-2717
▁జయ	-2718
▁అనుకు	-2719
▁తీవ్రంగా	-2720
▁ముగ్గురు	-2721
ఎఫ్	-2722
▁ఆడి	-2723
▁సర్వీ	-2724
▁చేస్తున్నారని	-2725
భు	-2726
ట్ర	-2727
▁అరు	-2728
▁మరికొ	-2729
▁ఆస్ట్రేలియా	-2730
al	-2731
టిల్	-2732
▁అల్	-2733
▁చాల	-2734
ినేషన్	-2735
▁ఉన్నా	-2736
▁సంతోష	-2737
రించారు	-2738
▁అవినీతి	-2739
▁నిర్వహించిన	-2740
ూరి	-2741
తుల్లో	-2742
ూర్తి	-2743
▁ఇక్క	-2744
ంశ	-2745
శ్ర	-2746
▁తెలిసింది	-2747
▁ఆధ్వర్యంలో	-2748
▁అమిత్	-2749
▁మహిళలు	-2750
▁ఆగస్టు	-2751
బె	-2752
▁కన	-2753
గ్రా	-2754
▁ఇంట	-2755
రవ	-2756
ంక్ష	-2757
▁నియమ	-2758
ించుకో	-2759
▁గవర్నర్	-2760
▁బ్యాంక్	-2761
▁స్పీ	-2762
▁హెచ్	-2763
▁సినిమాలో	-2764
▁ఎఫ్	-2765
▁సత్య	-2766
హత్య	-2767
▁‍	-2768
జాతీయ	-2769
▁ఆత్మహత్య	-2770
▁گ	-2771
▁తొలగ	-2772
▁వేసి	-2773
▁స్కా	-2774
నో	-2775
బూ	-2776
▁అడ	-2777
▁ఖాన్	-2778
▁తిన	-2779
▁బ్రా	-2780
▁వారం	-2781
▁ರ	-2782
▁ఒత్తి	-2783
▁ానికి	-2784
▁ప్రెస్	-2785
▁ر	-2786
▁పొందు	-2787
▁స్నే	-2788
▁చేస్తోంది	-2789
ంబా	-2790
రానికి	-2791
▁చేస్తుంది	-2792
▁ప్రభుత్వానికి	-2793
▁ఉండాలని	-2794
▁రైతులకు	-2795
▁క్రీ	-2796
▁మెడి	-2797
▁చేయాల	-2798
▁గుర్తించారు	-2799
▁షేర్	-2800
▁మద్యం	-2801
▁మధ్యాహ్నం	-2802
▁ఆమో	-2803
▁వెన	-2804
ములు	-2805
▁బ్లా	-2806
▁సంఘం	-2807
కుమార్	-2808
▁చదువు	-2809
ఖర్	-2810
▁వివరాలు	-2811
కౌ	-2812
ణంగా	-2813
▁చెన్నై	-2814
▁దుర్	-2815
ನ್	-2816
ల్చి	-2817
ంపల్లి	-2818
▁వెనుక	-2819
▁ప్పుడు	-2820
▁అంతర్జాతీయ	-2821
ఫర్	-2822
డంలో	-2823
ద్రా	-2824
▁సీజన్	-2825
▁హౌ	-2826
▁వ్యాపార	-2827
టెడ్	-2828
వల్ల	-2829
▁చార్	-2830
▁దాఖలు	-2831
▁విషయ	-2832
▁ఉన్నాయని	-2833
▁రాష్ట్రాల్లో	-2834
సింగ్	-2835
▁అందరూ	-2836
▁ఆగ్రహం	-2837
▁ప్రక్రియ	-2838
▁మహారాష్ట్ర	-2839
ور	-2840
▁రోహిత్	-2841
▁తీసుకోవాలని	-2842
▁ప్రతిని	-2843
తోందని	-2844
▁నవంబర్	-2845
చ్చారు	-2846
▁ఇచ్చే	-2847
▁ఉద్దేశ	-2848
శు	-2849
్రీన్	-2850
్యో	-2851
▁పట్ల	-2852
షణ	-2853
గ్య	-2854
▁బరి	-2855
▁మారి	-2856
▁రిపో	-2857
▁విరా	-2858
▁పెట్టారు	-2859
రింగ్	-2860
▁ట్వి	-2861
▁అత్యధిక	-2862
టన్	-2863
▁సుమారు	-2864
▁నివ	-2865
▁వాడ	-2866
సార్లు	-2867
వాసం	-2868
▁31	-2869
▁కురు	-2870
▁అనుమతి	-2871
▁జె	-2872
దండ్ర	-2873
▁వెల్లడించింది	-2874
▁సీఐ	-2875
▁ప్రె	-2876
▁బహిరంగ	-2877
తను	-2878
ించుకున్న	-2879
▁నిరా	-2880
యోగం	-2881
▁సీత	-2882
▁న్యూస్	-2883
గల	-2884
రాల్లో	-2885
రగా	-2886
▁అద్భు	-2887
▁తగ్గి	-2888
▁పూర్త	-2889
▁తల్లిదండ్ర	-2890
▁రుణ	-2891
▁అతను	-2892
▁క్యూ	-2893
ంహ	-2894
మ్ము	-2895
▁శర్మ	-2896
▁రావడం	-2897
▁వెబ్	-2898
హీ	-2899
▁జరుపు	-2900
ంగు	-2901
▁కరీ	-2902
▁వడ్	-2903
▁అర్హ	-2904
▁మెగా	-2905
▁ఎప్పుడ	-2906
▁వికెట్	-2907
▁దిశ	-2908
▁హాజరు	-2909
ించారని	-2910
▁ఆస్పత్రి	-2911
ంబర్	-2912
▁మెద	-2913
వేత్త	-2914
▁వెళ్లిన	-2915
ra	-2916
▁సెల్	-2917
ఫె	-2918
▁ఔ	-2919
ౌండ్	-2920
▁29	-2921
▁కోహ్	-2922
▁గమ	-2923
▁అంతేకా	-2924
▁I	-2925
పాద	-2926
ಲ್ಲಿ	-2927
▁కిలోమీ	-2928
ఎన్	-2929
▁కాన్	-2930
▁నిన్న	-2931
▁నేషనల్	-2932
గీ	-2933
▁B	-2934
ాను	-2935
గానికి	-2936
▁కొట్ట	-2937
▁పాఠశాల	-2938
▁ఆధారంగా	-2939
▁జిల్లాలోని	-2940
▁),	-2941
▁ఫోటో	-2942
▁వాదన	-2943
ణ్య	-2944
యంగా	-2945
▁ఆహ్	-2946
▁ہے	-2947
గొండ	-2948
▁చూసి	-2949
▁భేటీ	-2950
నాన్ని	-2951
▁రూపాయలు	-2952
▁భో	-2953
▁ఓడి	-2954
▁ఏడు	-2955
▁ఆలోచన	-2956
▁రైతుల	-2957
సిడెంట్	-2958
▁ఆదేశించారు	-2959
ంభ	-2960
ండే	-2961
ైల్	-2962
▁షూ	-2963
ధాని	-2964
▁లోకేష్	-2965
నిక	-2966
వాల్సిన	-2967
మర్	-2968
▁విజయ్	-2969
▁పంపిణీ	-2970
▁వ్యతిరేక	-2971
),	-2972
జం	-2973
▁గౌడ్	-2974
▁దిగు	-2975
▁నిద్ర	-2976
▁ప్రతీ	-2977
▁సంప్రద	-2978
▁వేదికగా	-2979
▁రష్యా	-2980
ున	-2981
▁భు	-2982
▁లేదన్నారు	-2983
▁విద్యార్థులు	-2984
▁లక్షలు	-2985
గత	-2986
▁ದ	-2987
గ్రీ	-2988
▁షాక్	-2989
▁గుర్తింపు	-2990
▁దేవ	-2991
▁సమాధ	-2992
▁କ	-2993
▁ಗ	-2994
ంపే	-2995
రుల	-2996
ండియా	-2997
▁సరైన	-2998
▁ఏర్పాట్లు	-2999
ار	-3000
▁సాయి	-3001
▁య్య	-3002
షియల్	-3003
▁హ్యా	-3004
లిక్	-3005
▁ఆర్టీసీ	-3006
వల్	-3007
▁చౌ	-3008
▁పోష	-3009
ంనగర్	-3010
▁ఫ్యాన్స్	-3011
▁సంవత్సరం	-3012
డప	-3013
▁రవి	-3014
▁క్రితం	-3015
▁వేశారు	-3016
వేషన్	-3017
▁టార్	-3018
▁హాస్	-3019
▁కల్పించ	-3020
▁కెప్టెన్	-3021
▁ట్రాఫిక్	-3022
రుగ	-3023
ెక్ట్	-3024
▁నుంచే	-3025
▁అవార్డు	-3026
▁ుకు	-3027
▁రాష్ట్రం	-3028
▁కృషి	-3029
▁రూపాయల	-3030
▁స్కూల్	-3031
ంగ్లా	-3032
▁దేశం	-3033
▁ఆఫీసర్	-3034
▁నిందితు	-3035
ోధ	-3036
ಡಿ	-3037
▁సినీ	-3038
▁మార్పులు	-3039
తిక	-3040
▁తరలి	-3041
▁బంగ్లా	-3042
▁మంత్రులు	-3043
స్తో	-3044
▁మంట	-3045
▁శ్రే	-3046
ద్రి	-3047
▁జన్	-3048
▁సర్కార్	-3049
▁చెప్పింది	-3050
లింది	-3051
▁2022	-3052
▁సారి	-3053
▁కుమారు	-3054
ెక్ట	-3055
▁పాయి	-3056
▁ప్రశ్న	-3057
▁ప్రయత్ని	-3058
ేష్	-3059
కులను	-3060
▁ఫుడ్	-3061
▁తిరుగు	-3062
పర	-3063
▁ఐపీఎల్	-3064
▁వచ్చారు	-3065
ుడి	-3066
నాలను	-3067
▁పిల్లలు	-3068
ట్నం	-3069
▁అయింది	-3070
▁ఎమ్మెల్యేలు	-3071
షా	-3072
ించాలి	-3073
పులు	-3074
▁కూడిన	-3075
▁బోర్డు	-3076
▁తీసుకుంట	-3077
▁M	-3078
ించా	-3079
ంచు	-3080
▁ఆహ్వా	-3081
స్తుందని	-3082
▁ందని	-3083
▁వయసు	-3084
▁కనీసం	-3085
▁కరీంనగర్	-3086
▁ప్రారంభించారు	-3087
సార్	-3088
తరులు	-3089
▁అంశం	-3090
▁అప్ర	-3091
▁ఉండాలి	-3092
▁దక్షిణ	-3093
ద్యో	-3094
▁అగ్ర	-3095
▁ప్పటి	-3096
▁వ్యాఖ్యా	-3097
ంచ్	-3098
▁సంఘటన	-3099
▁కొడుకు	-3100
▁కుల	-3101
తాయని	-3102
▁ఎవరూ	-3103
▁ಪ	-3104
▁హను	-3105
▁ఉద్యమ	-3106
▁అదన	-3107
▁గూ	-3108
ొక్క	-3109
▁గుజ	-3110
▁ప్రదర్శ	-3111
▁బ్యాంకు	-3112
▁ఇవి	-3113
▁వీర	-3114
▁రాలే	-3115
బ్రవరి	-3116
▁సంగతి	-3117
▁స్క	-3118
▁కావడం	-3119
▁సముద్ర	-3120
▁అయ్యింది	-3121
ండు	-3122
గులు	-3123
శ్చి	-3124
▁మంజ	-3125
▁జడ్	-3126
కేషన్	-3127
▁ఒక్కో	-3128
▁దానికి	-3129
▁నాయుడు	-3130
▁కూతు	-3131
▁సీటు	-3132
▁మల్ల	-3133
స్తులు	-3134
కోవచ్చు	-3135
▁భారతదేశ	-3136
ధీ	-3137
▁కాలం	-3138
సారిగా	-3139
▁నీళ్లు	-3140
▁యూనివర్సిటీ	-3141
▁అట	-3142
▁ఓటమి	-3143
▁విశ్	-3144
నున్నాయి	-3145
హాలు	-3146
▁ఖాళీ	-3147
▁అవుతుంది	-3148
▁వ్యతిరేకంగా	-3149
▁మౌ	-3150
▁ముందే	-3151
▁నియోజకవర్గం	-3152
▁తని	-3153
▁వేళ	-3154
▁అంతా	-3155
▁పుష్	-3156
▁ఫార్	-3157
▁సాయం	-3158
వాన్ని	-3159
▁అర్థం	-3160
▁పాత	-3161
▁ఒప్ప	-3162
▁సృష్ట	-3163
▁దాన్ని	-3164
కరించారు	-3165
హన	-3166
▁చెంద	-3167
పడింది	-3168
ారానికి	-3169
▁ఇరు	-3170
▁చాలామ	-3171
బోయే	-3172
▁శిక్ష	-3173
▁సల	-3174
▁బాగు	-3175
▁ఆదాయం	-3176
▁ఉత్తర్	-3177
▁వాయిదా	-3178
▁ప్రారంభం	-3179
▁మున్సిపల్	-3180
▁పేపర్	-3181
▁కొనసాగ	-3182
▁ంట	-3183
జున్	-3184
▁మేం	-3185
ట్లకు	-3186
▁కోహ్లీ	-3187
▁పరిధిలో	-3188
ెడ్యూ	-3189
▁నలుగు	-3190
▁పరిశోధ	-3191
▁నియోజకవర్గంలో	-3192
▁బంధు	-3193
ట్టింది	-3194
▁కామెంట్స్	-3195
ان	-3196
▁ఇష్ట	-3197
▁కాంట	-3198
▁ామని	-3199
▁చూసిన	-3200
▁ప్రశా	-3201
▁కార్డు	-3202
▁గురి	-3203
▁త్రి	-3204
▁చాలామంది	-3205
ంగం	-3206
▁గుజరా	-3207
▁తరలించారు	-3208
ಂದ	-3209
▁60	-3210
▁టో	-3211
▁మిగ	-3212
▁చెప్	-3213
▁సార్లు	-3214
▁ఫిబ్రవరి	-3215
.7	-3216
ందనే	-3217
నంలో	-3218
▁లోప	-3219
ద్దని	-3220
▁కుటుంబం	-3221
▁రాజధాని	-3222
వ్యూ	-3223
ನು	-3224
▁దళ	-3225
ల్లం	-3226
▁ముఖ	-3227
ారావు	-3228
▁నష్టం	-3229
▁ప్రాణ	-3230
▁సెక్ర	-3231
▁పట్టుకు	-3232
▁కాని	-3233
▁హాస్పి	-3234
▁ఆయా	-3235
▁చూపి	-3236
▁ఓట్లు	-3237
▁ప్రజలను	-3238
గ్స్	-3239
▁యాక్	-3240
▁పార్లమె	-3241
▁కార్యకర్తలు	-3242
ర్చి	-3243
▁హెల్	-3244
▁విద్యార్థి	-3245
.6	-3246
వాలు	-3247
▁పండుగ	-3248
▁త్వరలో	-3249
స్తున్నట్లు	-3250
దైనా	-3251
▁గాలి	-3252
ెంట్లు	-3253
▁ఇన్ని	-3254
▁కిషన్	-3255
కిల్	-3256
▁శాంతి	-3257
▁ప్రయత్నాలు	-3258
థి	-3259
▁ఖాతా	-3260
▁దాడులు	-3261
▁లబ్	-3262
ణానికి	-3263
▁నిధులు	-3264
▁పెట్టిన	-3265
▁చ్	-3266
క్కర్	-3267
▁ఆహార	-3268
▁చోట్ల	-3269
▁వేసిన	-3270
▁షెడ్యూ	-3271
▁కమిషనర్	-3272
▁నిర్మాణ	-3273
▁నిపుణులు	-3274
వ్వు	-3275
దావరి	-3276
శ్చ	-3277
▁డిప్యూటీ	-3278
▁విభ	-3279
సరి	-3280
త్యా	-3281
▁మహబూ	-3282
య్యి	-3283
▁వేలు	-3284
ెట్ల	-3285
▁ఇంజ	-3286
▁ఎకర	-3287
▁పడే	-3288
▁టీమ్	-3289
▁బ్యాటింగ్	-3290
ఫ్ర	-3291
▁బ్లాక్	-3292
▁నిరుద్యో	-3293
ట్రి	-3294
▁మనో	-3295
▁ముస్	-3296
▁అమరావ	-3297
పడే	-3298
బరు	-3299
ట్యూ	-3300
▁పథకం	-3301
▁రకాల	-3302
▁ఫస్ట్	-3303
▁పెరిగి	-3304
▁వ్యవసాయ	-3305
▁తీసుకుని	-3306
▁అల్లు	-3307
▁తనిఖీ	-3308
▁నారాయణ	-3309
▁రాజ్యా	-3310
▁ର	-3311
▁జు	-3312
▁అధి	-3313
▁పున	-3314
▁ఒకరు	-3315
▁పిలుపు	-3316
▁చేపట్టారు	-3317
స్తున్నారని	-3318
▁..!	-3319
▁అగ్	-3320
ధాన్య	-3321
▁గ్రే	-3322
▁రిజి	-3323
▁కొత్తగా	-3324
▁వారిలో	-3325
▁స్వాధీ	-3326
▁ఆదేశాలు	-3327
పోయా	-3328
▁చిత్రం	-3329
▁పరిగ	-3330
▁గుజరాత్	-3331
▁ఎన్నికలకు	-3332
▁చేసుకుంది	-3333
లక్ష	-3334
▁రూపొందించ	-3335
▁మెజ	-3336
▁లక్ష్మీ	-3337
▁ఢ	-3338
ైన్	-3339
▁నిర్వహణ	-3340
▁అభ్యర్థులు	-3341
▁వసూ	-3342
▁తేడా	-3343
▁త్వరలోనే	-3344
▁ప్రైవేట్	-3345
th	-3346
▁వల	-3347
తమైన	-3348
▁పశ్చి	-3349
▁ఉంటారు	-3350
▁స్పెషల్	-3351
▁చేపట్టిన	-3352
▁ఏమి	-3353
▁పెరగ	-3354
▁చేసుకో	-3355
▁డిగ్రీ	-3356
▁పరుగుల	-3357
▁ఎందుకంటే	-3358
▁శ్రీవారి	-3359
▁భవ	-3360
▁ముంద	-3361
▁పర్యా	-3362
▁స్వాధీనం	-3363
ెక్స్	-3364
▁ఇస్త	-3365
▁గుడ్	-3366
▁టార్గ	-3367
▁ప్రమాణ	-3368
▁టే	-3369
తికి	-3370
ెయిన్	-3371
▁స్కో	-3372
డ్డా	-3373
▁ఆసి	-3374
▁కూడ	-3375
▁రాశ	-3376
▁సోద	-3377
▁యాప్	-3378
▁జర్	-3379
హాన్ని	-3380
▁థి	-3381
న్యూ	-3382
▁నేతల	-3383
దారులు	-3384
▁రిజర్వేషన్	-3385
ట్టర్	-3386
▁వాడు	-3387
▁ఇండియన్	-3388
▁ప్రస్తుత	-3389
సర్లు	-3390
▁కన్న	-3391
▁టీమి	-3392
▁సన్	-3393
▁కౌన్సి	-3394
▁శాస్త్ర	-3395
▁టీమిండియా	-3396
▁اس	-3397
▁ారా	-3398
ాలిటీ	-3399
▁పెంచు	-3400
▁పడింది	-3401
▁టార్గెట్	-3402
▁నిర్మాణం	-3403
▁అభిమానులు	-3404
▁నామినేషన్	-3405
▁ی	-3406
▁ಿ	-3407
▁రాష్ట్రాల	-3408
▁సుర	-3409
▁నాటికి	-3410
▁ప్రాధాన్య	-3411
▁సద	-3412
గ్గా	-3413
▁టెస్టు	-3414
▁సంఖ్యలో	-3415
▁కేజ	-3416
▁వెళ	-3417
▁కుటుంబా	-3418
▁బాధ్యతలు	-3419
▁న్యూఢిల్లీ	-3420
య్యా	-3421
ెత్త	-3422
▁సాం	-3423
▁తమిళనాడు	-3424
▁ఇప్పటివరకు	-3425
▁మృత	-3426
▁సంచలన	-3427
▁డ్రైవర్	-3428
య్యే	-3429
స్వామ	-3430
▁2014	-3431
తె	-3432
▁ఉండి	-3433
▁తగిన	-3434
▁ొ	-3435
త్మక	-3436
▁అయో	-3437
▁అదుపులోకి	-3438
▁ಹ	-3439
స్క	-3440
▁2,	-3441
▁ఏజ	-3442
జీవి	-3443
▁గడు	-3444
▁రాజే	-3445
▁స్తున్న	-3446
▁గ్రామంలో	-3447
▁వన	-3448
▁దొంగ	-3449
పూ	-3450
ಾರ	-3451
యిన	-3452
త్రం	-3453
డెన్	-3454
ెస్ట	-3455
▁కళా	-3456
యాత్ర	-3457
▁విగ్ర	-3458
▁N	-3459
▁జనా	-3460
▁ఏదైనా	-3461
▁చుట్ట	-3462
▁డం	-3463
▁రచ	-3464
త్తా	-3465
▁ఆల్	-3466
▁ఫర్	-3467
▁భద్రత	-3468
ాలీవుడ్	-3469
▁నర	-3470
ారులు	-3471
▁కుంట	-3472
▁నోటీసులు	-3473
ష్ణో	-3474
▁కాక	-3475
▁పాద	-3476
▁ఫలితాలు	-3477
▁ఎక	-3478
▁ఏక	-3479
నాథ్	-3480
▁ఆటగా	-3481
▁సెంట	-3482
▁అమ్మాయి	-3483
▁ప్రస్తా	-3484
▁టాప్	-3485
▁రావడంతో	-3486
స్ట్రీ	-3487
▁క్యార	-3488
▁కేజ్రీ	-3489
▁35	-3490
▁చిరం	-3491
▁పురు	-3492
▁రక్త	-3493
▁కోరుకు	-3494
▁పశ్చిమ	-3495
పడుతుంది	-3496
▁ఉన్నారని	-3497
▁ل	-3498
▁పంజా	-3499
▁మరొక	-3500
పున	-3501
▁రఘ	-3502
▁హోం	-3503
▁పవర్	-3504
▁హిందూ	-3505
నిఫ	-3506
▁అంగీ	-3507
er	-3508
▁తగ్గు	-3509
▁మెడికల్	-3510
▁అధికారుల	-3511
▁కేజ్రీవాల్	-3512
▁చెక్	-3513
▁వినిపి	-3514
▁బీజేపీకి	-3515
▁చెప్పుకొచ్చ	-3516
న్నాడు	-3517
▁చట్టం	-3518
▁డానికి	-3519
▁రంగా	-3520
▁మోహన్	-3521
▁స్పందించారు	-3522
వని	-3523
శేష	-3524
వార్	-3525
▁ఆలయ	-3526
▁దిన	-3527
▁చెయ్య	-3528
▁తదితరులు	-3529
ిల్స్	-3530
▁కల్ప	-3531
▁డెవల	-3532
▁చిరంజీవి	-3533
▁మందు	-3534
▁మృతదే	-3535
▁నేరుగా	-3536
▁ందన్నారు	-3537
వాహ	-3538
▁రక్షణ	-3539
▁హీరోయిన్	-3540
కూడ	-3541
▁కఠ	-3542
ులతో	-3543
కర్స్	-3544
▁తెలుగుదేశం	-3545
on	-3546
یک	-3547
▁(1	-3548
మాబాద్	-3549
▁టెస్ట్	-3550
▁పోలీసుల	-3551
▁వేసింది	-3552
▁వార్త	-3553
రవే	-3554
ంచరీ	-3555
న్నే	-3556
▁దారి	-3557
▁పెరిగింది	-3558
▁అప్పగ	-3559
▁దూరంగా	-3560
▁సంబంధం	-3561
జ్జ	-3562
హార్	-3563
హించ	-3564
▁ఛార్	-3565
▁సీట్ల	-3566
▁ాను	-3567
▁దాంతో	-3568
▁ఒత్తిడి	-3569
ులై	-3570
▁బది	-3571
యేషన్	-3572
▁అవగా	-3573
▁గొప్ప	-3574
▁సందర్శ	-3575
▁దేశవ్యాప్తంగా	-3576
▁పరిశ్రమ	-3577
▁స్తుంది	-3578
▁ఆటో	-3579
చ్చితంగా	-3580
▁ಯ	-3581
మీర్	-3582
▁కేర	-3583
▁విడి	-3584
▁నల్ల	-3585
▁నాటి	-3586
▁పెడు	-3587
▁చెప్పి	-3588
▁నగర	-3589
▁ప్పటికీ	-3590
▁భి	-3591
ంకర్	-3592
▁మన్	-3593
కరమైన	-3594
▁కెమె	-3595
▁రిటై	-3596
▁నిబంధన	-3597
▁లపై	-3598
▁లభి	-3599
▁సురే	-3600
▁మహిళల	-3601
▁ସ	-3602
▁అప	-3603
▁నాడు	-3604
▁లక్ష్యంగా	-3605
▁کو	-3606
▁బూ	-3607
▁ధర్మ	-3608
ల్లోకి	-3609
▁అగ్ని	-3610
▁పర్యట	-3611
▁ఉండటంతో	-3612
▁మిగిలిన	-3613
రించ	-3614
▁నెట్	-3615
▁అప్పుడు	-3616
▁చేయడంతో	-3617
▁ముస్లిం	-3618
▁సంవత్సరాల	-3619
స్క్	-3620
▁199	-3621
▁టీటీ	-3622
▁తోనే	-3623
▁వెళ్లారు	-3624
▁తీసుకెళ్ల	-3625
ఎంసీ	-3626
ారనే	-3627
▁ఏసీ	-3628
పోయాయి	-3629
▁బరువు	-3630
ائ	-3631
డితే	-3632
▁కేరళ	-3633
▁సౌకర్	-3634
ళిక	-3635
▁మధు	-3636
▁సికి	-3637
▁అనారో	-3638
▁నెలలో	-3639
▁మంజూరు	-3640
▁సెంచరీ	-3641
కునే	-3642
▁కపో	-3643
▁పొడి	-3644
▁మిగతా	-3645
▁వికెట్లు	-3646
▁కరో	-3647
▁విప	-3648
▁జనరల్	-3649
▁తెల్ల	-3650
▁అధికారులకు	-3651
ాయు	-3652
▁మేనే	-3653
▁బదిలీ	-3654
▁డు	-3655
లాది	-3656
▁నారా	-3657
ండటంతో	-3658
▁షెడ్యూల్	-3659
▁ఓడ	-3660
▁అటు	-3661
▁కఠిన	-3662
▁సిద్ధం	-3663
▁s	-3664
చ్ఛ	-3665
▁అర్జున్	-3666
▁ఢిల్లీలో	-3667
లికి	-3668
▁సచి	-3669
▁అంతకు	-3670
▁నంబర్	-3671
▁న్యాయం	-3672
స్ట్ర	-3673
▁చక్క	-3674
▁నాయక	-3675
▁స్టూడ	-3676
▁45	-3677
కపోతే	-3678
▁జస్టి	-3679
▁గోదావరి	-3680
దైన	-3681
ధర్	-3682
▁పురుష	-3683
▁సంస్థలు	-3684
▁కొంతమంది	-3685
▁జరుగుతోంది	-3686
▁కను	-3687
▁సార	-3688
▁చూపు	-3689
▁మార్చ	-3690
▁ో	-3691
మత్త	-3692
▁ధ్వ	-3693
▁మల్	-3694
▁మోసం	-3695
▁ఎన్డీ	-3696
కాలం	-3697
స్టే	-3698
న్సర్	-3699
▁కాస్త	-3700
ాలన్నారు	-3701
▁ప్రెసిడెంట్	-3702
కలు	-3703
రాజు	-3704
▁నటు	-3705
శేఖర్	-3706
▁రాజ్య	-3707
▁కోవ	-3708
▁గడి	-3709
▁కలిపి	-3710
▁వేగంగా	-3711
▁చేయనున్నారు	-3712
▁సాధ్య	-3713
▁కనిపిస్తోంది	-3714
▁ఎదుర	-3715
▁అప్రమత్త	-3716
▁నల్	-3717
▁డేటా	-3718
▁చెరువు	-3719
▁జులై	-3720
▁పరిస్థితులు	-3721
డ్స్	-3722
▁డ్రా	-3723
▁వన్డే	-3724
ఫ్రికా	-3725
▁అవగాహన	-3726
▁ముందుగా	-3727
▁సికింద్ర	-3728
▁అధికారులను	-3729
▁జరుగుతుంది	-3730
▁ధీ	-3731
ాలనే	-3732
▁డాల	-3733
▁ఎస్సీ	-3734
▁ఆరోగ్యం	-3735
▁ఆమెను	-3736
▁పక్కన	-3737
సో	-3738
రిని	-3739
▁గొడవ	-3740
▁సునీ	-3741
▁చెల్లి	-3742
▁రోజులుగా	-3743
▁కార్యక్రమం	-3744
▁సరఫ	-3745
▁జ్యో	-3746
▁అధ్యయ	-3747
▁రోజున	-3748
▁వ్యవహార	-3749
▁ప్రభుత్వాన్ని	-3750
▁చిరు	-3751
▁మేము	-3752
▁ప్రసాద్	-3753
▁సికింద్రాబాద్	-3754
కల	-3755
ెండా	-3756
▁ಬ	-3757
▁پر	-3758
▁ఆవి	-3759
▁స్టో	-3760
▁గెలుపు	-3761
▁ప్రొఫె	-3762
ించుకున్నారు	-3763
▁మీటింగ్	-3764
▁రమ	-3765
జెపి	-3766
▁హోదా	-3767
▁భద్రా	-3768
▁స్నేహి	-3769
▁G	-3770
నున్నట్లు	-3771
▁కేంద్రంలో	-3772
▁కిలోమీటర్ల	-3773
▁ఏకంగా	-3774
▁టీటీడీ	-3775
▁వివేక్	-3776
వింద్	-3777
▁థియే	-3778
▁యువత	-3779
▁విజ్ఞ	-3780
▁సెక్షన్	-3781
▁ప్రకటించిన	-3782
▁జ్	-3783
ందన్న	-3784
దారుల	-3785
▁జరిప	-3786
▁మీకు	-3787
▁ర్యా	-3788
ళ్లుగా	-3789
▁కాంట్రా	-3790
▁ప్రత్యేకంగా	-3791
▁స్థలా	-3792
▁కేటాయి	-3793
▁రాష్ట్రంలోని	-3794
▁చేస్తున్నట్లు	-3795
್ರ	-3796
▁ఎంట	-3797
▁సమ్మ	-3798
▁ఫైనల్	-3799
▁వస్తుందని	-3800
▁నిజామాబాద్	-3801
ల్యూ	-3802
ర్యాల	-3803
▁కోరి	-3804
▁ాయని	-3805
▁లీడర్	-3806
యాల	-3807
▁బ్రే	-3808
ెన్షన్	-3809
▁వర్క్	-3810
▁చేసుకుని	-3811
▁ప్రాజెక్ట్	-3812
▁ఎండ	-3813
▁చేసినా	-3814
ತ್ತ	-3815
▁ఎలక్	-3816
▁ఎప్పుడూ	-3817
ఘా	-3818
యాన్	-3819
ార్టీ	-3820
▁హౌస్	-3821
టానికి	-3822
▁వాస్త	-3823
▁పిల్లల	-3824
▁బిజెపి	-3825
▁దని	-3826
▁పబ్	-3827
▁సక్	-3828
▁ఎర్ర	-3829
▁స్కీ	-3830
▁ఉండటం	-3831
▁ఉష్ణో	-3832
▁అయోధ్య	-3833
▁ఉష్ణోగ్ర	-3834
▁స్థానికులు	-3835
▁ఏఐ	-3836
ెక్కి	-3837
ంక్షలు	-3838
▁తయారీ	-3839
▁వీటిని	-3840
▁కావాలని	-3841
ಾಗ	-3842
మిలీ	-3843
▁దేశాల	-3844
▁బిడ్డ	-3845
▁హరీశ్	-3846
▁ప్రయత్నించ	-3847
.8	-3848
టికల్	-3849
ాన్యం	-3850
▁ఎస్పీ	-3851
▁ఎత్తున	-3852
▁వేర్	-3853
▁దర్శకుడు	-3854
▁పరిధిలోని	-3855
▁హెచ్చరించారు	-3856
సిక	-3857
▁తరఫ	-3858
▁వాతావర	-3859
▁అధికారం	-3860
▁అవసరమైన	-3861
,000	-3862
▁నిర్మి	-3863
టిఫికేషన్	-3864
▁కార్యకర్త	-3865
▁బంగ్లాదేశ్	-3866
▁సీసీ	-3867
▁పద్	-3868
▁విశేష	-3869
హారం	-3870
▁అకౌ	-3871
▁ఒడి	-3872
▁లిక్కర్	-3873
▁ఢీ	-3874
ాయతీ	-3875
▁స్పీకర్	-3876
▁బర్	-3877
▁భాష	-3878
▁ఆశ్ర	-3879
▁క్లా	-3880
▁రంగు	-3881
▁కుట్ర	-3882
▁చేయగా	-3883
▁తొమ్మి	-3884
▁వ్యాఖ్యానించారు	-3885
ధం	-3886
వ్య	-3887
▁ఫె	-3888
▁భీ	-3889
రాన్	-3890
▁పరిచ	-3891
▁బాలిక	-3892
▁హాస్పిటల్	-3893
రత్	-3894
▁సరఫరా	-3895
▁జస్టిస్	-3896
▁2018	-3897
నానికి	-3898
▁సినిమ	-3899
▁వరుసగా	-3900
▁అయ్యాయి	-3901
వేదన	-3902
▁మెట్రో	-3903
▁అందరికీ	-3904
▁డ్రగ్స్	-3905
▁రానున్న	-3906
▁రాజకీయాల్లో	-3907
▁70	-3908
▁అనుభ	-3909
▁ఫ్రా	-3910
▁మేకర్స్	-3911
▁పార్లమెంటు	-3912
ంపులు	-3913
కాంత్	-3914
▁గ్యార	-3915
▁సమీక్ష	-3916
▁ఉత్పత్తి	-3917
▁స్థానాల్లో	-3918
▁نے	-3919
▁کر	-3920
▁సైట్	-3921
▁తిరుమ	-3922
▁విలువైన	-3923
▁ఘన	-3924
రాశి	-3925
ప్పున	-3926
▁మెరుగు	-3927
▁చొప్పున	-3928
▁టెక్నాల	-3929
▁భావిస్తున్నారు	-3930
ంజ్	-3931
ిత్ర	-3932
డర్లు	-3933
సేందుకు	-3934
▁ఎటువంటి	-3935
▁(2	-3936
ನ್ನು	-3937
▁మొబ	-3938
▁పక్ష	-3939
▁రక్ష	-3940
▁డీకే	-3941
▁ఫుల్	-3942
▁అయ్యే	-3943
కపోవడంతో	-3944
▁సర్కారు	-3945
▁తీసుకుంది	-3946
▁రవా	-3947
ెస్టో	-3948
▁ఓట్ల	-3949
▁నిషే	-3950
▁శాసన	-3951
రికీ	-3952
▁న్యాయవా	-3953
షీ	-3954
▁क	-3955
వేళ	-3956
▁ఓప	-3957
▁నొ	-3958
విడ్	-3959
ాడని	-3960
▁బాల్	-3961
▁స్టేట్	-3962
▁ప్రయాణ	-3963
▁మీడియాతో	-3964
యిత	-3965
▁ఉత్స	-3966
ించాయి	-3967
▁ఆమెకు	-3968
▁కుక్క	-3969
▁డబుల్	-3970
▁సంప	-3971
వంతంగా	-3972
▁నెలకొంది	-3973
▁ପ	-3974
టిక్	-3975
▁టీఎస్	-3976
▁శంకర్	-3977
▁సంపాద	-3978
▁స్పంది	-3979
▁నల్గొండ	-3980
▁వాల	-3981
యింది	-3982
ినట్లు	-3983
▁చుట్టూ	-3984
▁ఇప్పటికీ	-3985
▁80	-3986
▁షిప్	-3987
▁ఎప్పటి	-3988
▁షూటింగ్	-3989
▁కోర్టులో	-3990
లంక	-3991
▁ద్	-3992
జిట్	-3993
▁బయలు	-3994
▁బుక్	-3995
కాలంలో	-3996
▁పార్టీని	-3997
▁టెక్నాలజీ	-3998
ీయ	-3999
▁మత	-4000
▁కరోనా	-4001
▁టిక్క	-4002
నిఫెస్టో	-4003
ించనున్నారు	-4004
కస్	-4005
డల్	-4006
నిమి	-4007
▁భవన్	-4008
▁కుండా	-4009
▁కామారెడ్డి	-4010
▁అస్	-4011
ముందు	-4012
▁జనాభా	-4013
▁రవాణా	-4014
▁విచారణకు	-4015
▁సమస్యలను	-4016
▁ఏంట	-4017
▁నార్	-4018
▁వార్తలు	-4019
దర	-4020
▁జల	-4021
▁డ్	-4022
▁గడ్	-4023
▁ఫైర్	-4024
▁మ్యూ	-4025
▁చర్చలు	-4026
▁డెవలప్	-4027
▁మహిళలకు	-4028
▁వర్గాలు	-4029
ంటాయి	-4030
▁నాని	-4031
▁కాలనీ	-4032
▁ఇండస్ట్రీ	-4033
-2	-4034
మితి	-4035
▁పరా	-4036
▁బహు	-4037
్రాంతి	-4038
▁నలుగురు	-4039
ల్లె	-4040
▁ర్య	-4041
▁టోర్	-4042
▁తరహా	-4043
▁బాలీ	-4044
▁స్టేడి	-4045
▁నాయకుడు	-4046
▁సంబంధిత	-4047
▁వ్యక్తులు	-4048
.30	-4049
▁పండ	-4050
▁2021	-4051
▁టౌన్	-4052
▁కల్పి	-4053
▁నోటిఫికేషన్	-4054
ెల్లి	-4055
▁అభిన	-4056
▁డ్యా	-4057
▁దేవు	-4058
▁వేధి	-4059
జేశారు	-4060
▁చేర్చ	-4061
▁మిషన్	-4062
▁అధ్యక్షు	-4063
▁నియోజకవర్గ	-4064
▁పట్టించుకో	-4065
ంట్ల	-4066
బద్ధ	-4067
▁మను	-4068
▁వాటర్	-4069
▁కౌంటర్	-4070
▁స్థానం	-4071
▁ముఖ్యమైన	-4072
త్వంలో	-4073
▁ఆవేదన	-4074
▁బయలుదే	-4075
▁బ్యాక్	-4076
▁ఇన్నింగ్స్	-4077
ంసం	-4078
▁జన్మ	-4079
▁దిశగా	-4080
▁క్రికె	-4081
▁సమీపంలో	-4082
▁జీవితంలో	-4083
یڈ	-4084
బల్	-4085
▁నియా	-4086
▁ానని	-4087
స్థానం	-4088
▁కానుంది	-4089
బిన	-4090
▁పరిణ	-4091
▁సక్సెస్	-4092
▁బాలీవుడ్	-4093
▁K	-4094
జున	-4095
దుగా	-4096
స్తీ	-4097
▁జనం	-4098
హ్మద్	-4099
▁విరు	-4100
▁పూజలు	-4101
▁రాజస్థాన్	-4102
ెర	-4103
▁దాడు	-4104
▁మాకు	-4105
▁పోయింది	-4106
▁బౌలింగ్	-4107
▁ఆస్	-4108
బినెట్	-4109
▁ప్రణా	-4110
▁వెండి	-4111
▁జ్యోతి	-4112
▁సెంట్ర	-4113
▁ఉద్యోగం	-4114
▁పోయి	-4115
▁రెడీ	-4116
▁సాను	-4117
▁ాడని	-4118
బోతున్న	-4119
▁ట్రంప్	-4120
▁ఫ్యామిలీ	-4121
రమ	-4122
▁పరిమ	-4123
కపోవడం	-4124
ానా	-4125
▁మణి	-4126
▁క్లి	-4127
▁మొదట	-4128
▁టాలీవుడ్	-4129
▁నెటి	-4130
ట్రిక్	-4131
▁పట్టణ	-4132
రీర్	-4133
▁హయా	-4134
వులను	-4135
▁దూరం	-4136
▁సూచి	-4137
నారాయణ	-4138
రాత్రి	-4139
▁దర్శక	-4140
▁ప్రియా	-4141
▁పెద్దగా	-4142
▁సినిమాలు	-4143
es	-4144
▁నగదు	-4145
లిస్తే	-4146
▁ఉద్యోగులు	-4147
▁ప్రపంచంలో	-4148
దర్	-4149
▁కోస	-4150
▁ఇటీవ	-4151
▁నియంత్ర	-4152
▁పరీక్షలు	-4153
▁ప్రభాకర్	-4154
▁సాధించిన	-4155
▁అందుబాటులోకి	-4156
್ದ	-4157
ందన	-4158
నలి	-4159
▁کا	-4160
ఎస్సీ	-4161
▁ె	-4162
▁రజ	-4163
గడ్డ	-4164
▁పాక్	-4165
▁నాయకు	-4166
▁చేతిలో	-4167
▁పోర్టు	-4168
▁పడుతున్న	-4169
▁వివరాలను	-4170
కోసం	-4171
గ్రామ్	-4172
▁సమాధానం	-4173
▁సెంట్రల్	-4174
▁ఎగు	-4175
▁అమరావతి	-4176
▁తీసుకోవడం	-4177
స్థాయి	-4178
▁ఆఫీసు	-4179
▁నెరవే	-4180
▁ఉందన్నారు	-4181
ర్ఘ	-4182
వసర	-4183
▁రౌ	-4184
▁ఖాయ	-4185
▁దశా	-4186
▁మొక్క	-4187
▁కెరీర్	-4188
▁పంజాబ్	-4189
ీస్	-4190
మాలు	-4191
▁చంప	-4192
▁బస్	-4193
▁వంశ	-4194
▁స్మ	-4195
▁మొబైల్	-4196
▁అవుతున్న	-4197
▁రెడ్డికి	-4198
▁జీవ	-4199
▁కొనసాగి	-4200
▁ప్రాణాలు	-4201
▁హైడ	-4202
్యూని	-4203
▁బైక్	-4204
▁ాలను	-4205
కాన్ని	-4206
▁ట్విట్టర్	-4207
జిన	-4208
▁నది	-4209
▁పుస్త	-4210
▁ఇవ్వడం	-4211
▁వెళ్లా	-4212
▁అనుకూలంగా	-4213
▁భవిష్యత్తు	-4214
▁ఛా	-4215
▁కార్పొరేషన్	-4216
ోసి	-4217
▁గ్రహ	-4218
▁మెదక్	-4219
▁హయాంలో	-4220
కున్నారు	-4221
▁శ్రీలంక	-4222
కలా	-4223
ష్ణు	-4224
ేశ్వరం	-4225
▁భర్తీ	-4226
▁హర్	-4227
చేసుకు	-4228
▁ఉపాధ్య	-4229
▁కొట్టి	-4230
▁దానిపై	-4231
▁్లో	-4232
కాలను	-4233
▁ఎనిమి	-4234
▁స్టూడెంట్	-4235
▁దశాబ్	-4236
▁ఎప్పుడు	-4237
▁స్తోంది	-4238
▁పిలుపుని	-4239
▁పెన్	-4240
▁ఆఫీస్	-4241
▁ప్రాధాన్యత	-4242
పాదన	-4243
▁ఐదే	-4244
▁మిన	-4245
▁హిట్	-4246
▁అక్కడే	-4247
ెక్టరేట్	-4248
ల్ప	-4249
▁చెల	-4250
ినేని	-4251
▁కలుగు	-4252
▁తెలియజే	-4253
▁ట్రాన్స్	-4254
▁ధో	-4255
▁ఈసీ	-4256
▁పేట	-4257
▁పంచాయతీ	-4258
ళా	-4259
▁రద్దీ	-4260
▁చేయాల్సి	-4261
నిక్	-4262
▁అలీ	-4263
▁నాయక్	-4264
దన్నారు	-4265
▁చూస్తే	-4266
▁గెలిచిన	-4267
▁వాతావరణం	-4268
▁పాకిస్థాన్	-4269
గుల	-4270
జమా	-4271
ర్ణ	-4272
▁గుడి	-4273
▁చేరారు	-4274
▁ారన్నారు	-4275
▁నిలిచింది	-4276
ల్చ	-4277
▁అన్	-4278
▁ద్ర	-4279
పట్నం	-4280
▁ఆహారం	-4281
ంతర	-4282
▁ంగా	-4283
▁అవుతోంది	-4284
▁ఓపెన్	-4285
▁గట్టి	-4286
▁ఎవరైనా	-4287
▁వర్గాల	-4288
▁ఒకవేళ	-4289
▁సన్ని	-4290
▁ಎ	-4291
▁పాస్	-4292
▁యూపీ	-4293
ేశ్వర్	-4294
▁అదానీ	-4295
▁ఆపరేషన్	-4296
▁ప్రయాణం	-4297
▁సాధారణంగా	-4298
▁నియోజకవర్గాల్లో	-4299
▁ఘో	-4300
▁మల	-4301
▁నంద	-4302
▁రవీ	-4303
▁వంట	-4304
ఆర్ఎస్	-4305
▁టీచర్	-4306
▁పెట్టుబ	-4307
ెల	-4308
್ಯ	-4309
తాలు	-4310
పాడు	-4311
పోయే	-4312
▁ఏదో	-4313
▁టాక్	-4314
▁ముని	-4315
▁పదార్థ	-4316
▁పరిణామ	-4317
▁కుమారుడు	-4318
▁ప్రణాళిక	-4319
▁గ్రామానికి	-4320
▁కుంభ	-4321
▁ఉపాధి	-4322
▁కుప్ప	-4323
▁ఆడియన్స్	-4324
▁నిర్లక్ష	-4325
▁పెండింగ్	-4326
▁వైద్యులు	-4327
یو	-4328
రామ	-4329
▁జర	-4330
వాన్	-4331
▁తాగ	-4332
▁ఇంది	-4333
▁సైన్	-4334
▁చేరిన	-4335
▁బౌలర్	-4336
▁చూపించ	-4337
చ్చిన	-4338
▁కాలు	-4339
▁గానే	-4340
▁రచయిత	-4341
▁సవాల్	-4342
▁రాజ్యసభ	-4343
వాద	-4344
యేట్	-4345
▁ఆయు	-4346
▁అశ్వ	-4347
▁వందే	-4348
▁ఉద్యోగ	-4349
▁ఎంట్రీ	-4350
▁గ్రీన్	-4351
▁ఆఫీసర్లు	-4352
▁మొదలైంది	-4353
▁హెచ్చరిక	-4354
▁ప్రొఫెసర్	-4355
ప్ల	-4356
▁జంట	-4357
కరంగా	-4358
యాలని	-4359
చారాన్ని	-4360
ంఛ	-4361
▁సైబర్	-4362
▁ాల్సి	-4363
▁చిక్కు	-4364
...	-4365
తారని	-4366
▁పాలు	-4367
▁రాజమ	-4368
శ్మీర్	-4369
▁రెండే	-4370
▁ఇస్తామని	-4371
▁సిద్ధంగా	-4372
▁ప్రమాదంలో	-4373
▁వర్మ	-4374
▁వేసుకు	-4375
▁ఆకట్టుకు	-4376
రక	-4377
ాక	-4378
నాయ	-4379
▁ించ	-4380
▁హాట్	-4381
గాన్ని	-4382
▁అంచనాలు	-4383
am	-4384
పిక్	-4385
▁ందు	-4386
▁దంప	-4387
▁ాలి	-4388
▁వల్లే	-4389
పడుతున్న	-4390
▁థియేటర్	-4391
▁ବ	-4392
▁ప్రమో	-4393
▁బట్టి	-4394
▁పోర్ట్	-4395
▁గ్రౌండ్	-4396
జిక్	-4397
▁పడిన	-4398
వానికి	-4399
▁చెప్పే	-4400
▁రెడ్డిని	-4401
లూ	-4402
పాటి	-4403
సింహ	-4404
కుంటే	-4405
▁ఆకర్	-4406
▁ప్రశ	-4407
▁సెట్	-4408
▁సాధించ	-4409
▁ش	-4410
ోన్న	-4411
▁నేతృ	-4412
▁ఫ్రీ	-4413
▁తరఫున	-4414
▁కరెంట్	-4415
▁హీరోగా	-4416
▁క్లారిటీ	-4417
▁హరి	-4418
హద్దు	-4419
▁రూమ్	-4420
▁నియామ	-4421
▁దక్షిణా	-4422
▁పాదయాత్ర	-4423
▁సరిహద్దు	-4424
▁పరిస్థితుల్లో	-4425
దుల	-4426
దార్	-4427
దీప్	-4428
▁రుణమా	-4429
▁లబ్ధి	-4430
▁వారిపై	-4431
▁అభ్యర్థుల	-4432
▁ఉద్యోగాలు	-4433
▁చెప్పుకొచ్చారు	-4434
వరం	-4435
▁గీ	-4436
▁లేవు	-4437
▁అవకాశము	-4438
▁చేశామని	-4439
▁అధికారంలో	-4440
త్యం	-4441
▁కలిగ	-4442
▁చిత్రా	-4443
▁మీదుగా	-4444
కుంటున్న	-4445
▁సెక్రటరీ	-4446
వేల	-4447
ేజ్	-4448
్రూ	-4449
▁ప్రొడ	-4450
▁దానిని	-4451
▁దిగారు	-4452
▁నిలిచి	-4453
ال	-4454
ఫా	-4455
▁سے	-4456
▁అండగా	-4457
▁బలంగా	-4458
▁పరిశీలించారు	-4459
పాయ	-4460
పోయాడు	-4461
▁చెందు	-4462
▁జీవితం	-4463
▁విషయంపై	-4464
▁75	-4465
▁ఆరా	-4466
▁టీవీ	-4467
▁నాథ్	-4468
▁మానవ	-4469
▁హనుమ	-4470
▁భట్టి	-4471
▁చూడాలి	-4472
▁బరిలోకి	-4473
▁రుణమాఫీ	-4474
▁అంతేకాదు	-4475
▁కంపెనీలు	-4476
▁కొనసాగుతోంది	-4477
సూ	-4478
చల్	-4479
యని	-4480
డిపి	-4481
▁మందిని	-4482
▁ర్యాలీ	-4483
▁చేరుకున్న	-4484
▁ప్రచారంలో	-4485
ంటా	-4486
వతి	-4487
▁కట్టు	-4488
కరించిన	-4489
▁యుద్ధం	-4490
▁జరిగిందని	-4491
మన్	-4492
ైతే	-4493
లాలు	-4494
▁ాలు	-4495
▁ఘటనలో	-4496
▁వచ్చు	-4497
▁దర్శనం	-4498
▁కమ్యూని	-4499
▁ప్రశ్నించ	-4500
పణ	-4501
ృహ	-4502
▁ಅ	-4503
▁తదితర	-4504
▁లక్ష్య	-4505
▁అనుకున్న	-4506
▁మేనిఫెస్టో	-4507
ఖ్	-4508
క్య	-4509
లేని	-4510
▁నినా	-4511
▁సాధి	-4512
▁పరిగణ	-4513
మయ్యారు	-4514
ారన్నారు	-4515
▁జరుగుతు	-4516
▁వస్తున్నాయి	-4517
నేది	-4518
ర్చ్	-4519
▁అబ్	-4520
మోహన్	-4521
▁అదనపు	-4522
▁కర్నూ	-4523
▁ఇందుకు	-4524
▁కోట్లకు	-4525
▁లీడర్లు	-4526
▁పడుతున్నారు	-4527
ರು	-4528
▁ఫోర్స్	-4529
▁వివాదం	-4530
ృత	-4531
ರ್	-4532
▁లూ	-4533
మానం	-4534
▁కుమ	-4535
▁రాక	-4536
పింగ్	-4537
▁నిలు	-4538
▁నేటి	-4539
▁ఫామ్	-4540
▁అయ్యా	-4541
▁పోరాటం	-4542
▁సిద్ది	-4543
ంటూరు	-4544
▁పుష్ప	-4545
▁త్వరగా	-4546
▁నెంబర్	-4547
▁బాధితు	-4548
▁గుంటూరు	-4549
▁ముందస్తు	-4550
▁నిర్ణయాలు	-4551
▁D	-4552
రాలి	-4553
వెల్	-4554
రామయ్య	-4555
వారికి	-4556
▁దీనిని	-4557
▁నీటిని	-4558
▁శ్ర	-4559
ేత్ర	-4560
▁క్రా	-4561
▁తొలగి	-4562
▁విధానం	-4563
▁జిల్లాల	-4564
ళ్ళు	-4565
▁గూడ	-4566
స్తుల	-4567
▁కోచ్	-4568
▁సిరి	-4569
వెన్యూ	-4570
▁న్నారు	-4571
▁ప్రేక్షకుల	-4572
▁కార్యక్రమాలు	-4573
ందాం	-4574
▁కడు	-4575
▁పద్ధ	-4576
లాబాద్	-4577
▁ఉండదు	-4578
▁తప్పని	-4579
▁ప్రశాంత్	-4580
బే	-4581
నీయ	-4582
రని	-4583
▁త్	-4584
▁అనుచ	-4585
▁రెడ్	-4586
▁వసూలు	-4587
▁విపక్ష	-4588
ాయా	-4589
▁రఘు	-4590
▁ఆదాయ	-4591
▁వద్దకు	-4592
▁తప్పుడు	-4593
▁ప్రభాస్	-4594
▁దృ	-4595
▁పన్ను	-4596
▁నెలల్లో	-4597
▁జరగనుంది	-4598
▁దేశంలోని	-4599
కూల	-4600
▁కెన	-4601
▁అంబే	-4602
▁అలర్	-4603
▁అలవా	-4604
▁నూతన	-4605
▁బాలు	-4606
▁బిగ్	-4607
▁హార్	-4608
రాన్ని	-4609
▁విరాట్	-4610
▁పుట్టిన	-4611
లర్లు	-4612
▁తాగు	-4613
▁భక్తుల	-4614
▁జగిత	-4615
▁తుది	-4616
్యానికి	-4617
▁ఉన్నప్పుడు	-4618
▁పెద్దపల్లి	-4619
▁వో	-4620
మాస్	-4621
▁కదా	-4622
క్టరీ	-4623
▁వంశీ	-4624
▁ఊహించ	-4625
▁నిర్ధ	-4626
▁బృందం	-4627
▁ఇస్తున్న	-4628
భం	-4629
▁90	-4630
▁నని	-4631
గుణంగా	-4632
▁బ్రేక్	-4633
▁అప్పట్లో	-4634
▁జగిత్యాల	-4635
▁వ్యక్తిగత	-4636
▁ఒక్కసారిగా	-4637
శో	-4638
▁మ్	-4639
▁పోవ	-4640
▁తల్లిదండ్రులు	-4641
పోటు	-4642
రిటీ	-4643
జింగ్	-4644
▁అద్ద	-4645
▁అసోసి	-4646
▁అభ్యర్	-4647
▁కేబినెట్	-4648
▁ప్రాంతాల	-4649
▁రెవెన్యూ	-4650
▁వచ్చిందని	-4651
▁వెళ్తున్న	-4652
▁పిలి	-4653
▁వీరు	-4654
▁వైస్	-4655
▁ఇక్కడి	-4656
క్రెయిన్	-4657
▁v	-4658
▁నన్ను	-4659
స్తాయని	-4660
▁మంచిది	-4661
▁ప్రదేశ్	-4662
▁వ్యవహరి	-4663
▁చేసిందని	-4664
▁#	-4665
మటి	-4666
మతి	-4667
లేటి	-4668
చేశారు	-4669
▁రాశుల	-4670
▁చోటుచేసుకు	-4671
▁కుటుంబానికి	-4672
▁విద్యార్థులకు	-4673
బడిన	-4674
మ్రా	-4675
▁500	-4676
▁మోస	-4677
▁సాగ	-4678
విజన్	-4679
▁సార్	-4680
▁హెడ్	-4681
▁సినిమాకు	-4682
▁ఖరారు	-4683
▁సురక్ష	-4684
▁మాట్లాడిన	-4685
పుల	-4686
ణాన్ని	-4687
▁అందజే	-4688
▁పెట్టుబడి	-4689
▁రిజిస్ట్ర	-4690
గూడెం	-4691
▁వందల	-4692
▁రాజకీయాలు	-4693
▁సిద్దిపేట	-4694
్వే	-4695
దేవి	-4696
▁అటవీ	-4697
▁ఉగ్ర	-4698
▁తూర్	-4699
▁ఆరోపి	-4700
▁జర్నలి	-4701
▁పెట్రో	-4702
▁మిలియన్	-4703
▁రికార్డ్	-4704
▁క్యాన్సర్	-4705
▁ఎడ	-4706
▁పసు	-4707
రించి	-4708
▁జోన్	-4709
▁ధీమా	-4710
తానికి	-4711
▁టిడిపి	-4712
▁రోజూ	-4713
▁వెల్	-4714
్యూరిటీ	-4715
▁ప్రభావిత	-4716
▁రం	-4717
ఖండ్	-4718
▁కాళ	-4719
▁కృష్	-4720
▁దశలో	-4721
▁గెలిచి	-4722
▁గ్రాముల	-4723
▁తొలిసారి	-4724
el	-4725
ష్ఠ	-4726
▁ఈవ	-4727
▁జ్ఞ	-4728
స్టల్	-4729
▁పులి	-4730
▁పైనే	-4731
▁ఆయనను	-4732
▁తరగతి	-4733
▁విమానా	-4734
▁జూనియర్	-4735
▁పోస్టర్	-4736
▁యాక్షన్	-4737
ಸ್	-4738
యస్	-4739
▁భగ	-4740
▁ఫార	-4741
▁గాజా	-4742
▁కూతురు	-4743
▁జరిగాయి	-4744
ంపేట	-4745
రేణి	-4746
ోత్సవం	-4747
▁అన్నీ	-4748
▁రాశారు	-4749
▁తేలింది	-4750
▁⁭	-4751
ులర్	-4752
▁భూక	-4753
▁యజమా	-4754
▁సంగీ	-4755
▁ప్రవీ	-4756
▁పాల్గొన	-4757
▁సింగరేణి	-4758
▁రాష్ట్రానికి	-4759
ాయితీ	-4760
▁కోడ్	-4761
▁నిల్	-4762
▁బంతు	-4763
▁ఏరియా	-4764
▁కోసమే	-4765
▁భద్రతా	-4766
▁విజ్ఞప్తి	-4767
▁అభ్యర్థిగా	-4768
▁డిజ	-4769
▁మనీ	-4770
▁కిడ్	-4771
▁లోపు	-4772
▁కంట్రో	-4773
▁కార్యాలయంలో	-4774
▁సీఈ	-4775
▁భూము	-4776
▁సాగర్	-4777
▁ఉండేది	-4778
▁చెప్పాడు	-4779
ఢ్	-4780
▁డో	-4781
▁198	-4782
▁కలు	-4783
▁టన్న	-4784
▁తీసి	-4785
▁పండి	-4786
▁ఇరాన్	-4787
▁సేవలు	-4788
▁రాలేదు	-4789
▁వీడియోను	-4790
.9	-4791
ంబు	-4792
▁ವಿ	-4793
కేజీ	-4794
▁గౌర	-4795
▁పురా	-4796
▁అకౌంట్	-4797
▁పర్యవే	-4798
▁రాబోయే	-4799
▁విష్ణు	-4800
▁కుమార్తె	-4801
▁తక్కువగా	-4802
▁సాధించింది	-4803
▁విదేశీ	-4804
▁సమస్యల	-4805
▁తీసుకునే	-4806
▁ప్రతిష్ట	-4807
▁ಆ	-4808
▁అసి	-4809
▁టైమ్	-4810
▁ట్రో	-4811
▁వస్తోంది	-4812
▁హాజరయ్యారు	-4813
at	-4814
ାର	-4815
▁ମ	-4816
స్రో	-4817
▁చెలరే	-4818
▁ప్రవీణ్	-4819
▁నిర్మించిన	-4820
▁ఖై	-4821
▁బతు	-4822
▁విఫ	-4823
▁పాన్	-4824
▁వాహన	-4825
పోయినా	-4826
▁జెండా	-4827
▁పసుపు	-4828
▁గ్యాస్	-4829
▁టోర్నీ	-4830
▁ప్రదేశ	-4831
▁చేయకుండా	-4832
▁ప్రతిపాదన	-4833
లైన	-4834
▁శ్	-4835
▁కలక	-4836
▁పేర్	-4837
ెక్షన్	-4838
▁ఎస్టీ	-4839
▁నున్న	-4840
▁మార్గ	-4841
▁రోజుకు	-4842
▁ప్రస్తావ	-4843
▁ప్రియాంక	-4844
▁కార్యాలయం	-4845
మిన	-4846
వరీ	-4847
ైర్	-4848
గారు	-4849
▁మరీ	-4850
గాలను	-4851
▁ఘటనపై	-4852
▁పబ్లిక్	-4853
▁ఆదిలాబాద్	-4854
▁పనిచేస్తున్న	-4855
జ్య	-4856
▁ండ	-4857
ఎస్పీ	-4858
▁ఇల్లు	-4859
▁హమాస్	-4860
▁ప్రవర్	-4861
▁ప్రశంస	-4862
▁లక్ష్మ	-4863
▁వ్యవహారం	-4864
▁చెబుతున్న	-4865
ేజీ	-4866
▁వేడి	-4867
▁సస్ప	-4868
▁అనిల్	-4869
▁కోమటి	-4870
▁పత	-4871
యోగి	-4872
ికల్	-4873
▁వాట్	-4874
మూర్తి	-4875
▁వృద్ధ	-4876
▁సాంకే	-4877
▁విశ్లే	-4878
▁ఉత్తర్వులు	-4879
▁సెక్యూరిటీ	-4880
రాం	-4881
పియన్	-4882
స్కర్	-4883
▁వెళు	-4884
▁సైని	-4885
▁అత్యా	-4886
▁చిత్త	-4887
▁పాలసీ	-4888
▁టైటిల్	-4889
▁లేకపోవడంతో	-4890
.10	-4891
సుక	-4892
▁ఘా	-4893
▁జాత	-4894
ంగాల్	-4895
రెన్స్	-4896
▁ఆమోదం	-4897
▁కిరణ్	-4898
▁కూర్చు	-4899
▁సర్వీస్	-4900
▁కంట్రోల్	-4901
▁గుర్తించ	-4902
▁ఎమ్మెల్యేగా	-4903
▁అర్ధ	-4904
క్ష్మి	-4905
▁హెల్త్	-4906
en	-4907
ವು	-4908
పెద్ద	-4909
షన్స్	-4910
▁వేరే	-4911
▁ఆశ్రయ	-4912
▁వడ్డీ	-4913
▁మీటర్ల	-4914
▁శిక్షణ	-4915
▁సభ్యుల	-4916
▁నటించిన	-4917
ుకున్నారు	-4918
▁బీబీసీతో	-4919
▁శివకుమార్	-4920
▁ఇటు	-4921
▁సీఐడీ	-4922
▁నాలుగో	-4923
▁వెనక్కి	-4924
▁సినిమాను	-4925
▁పద్మ	-4926
▁మానసిక	-4927
గురు	-4928
లెట్	-4929
▁డేట్	-4930
▁హిందు	-4931
▁నగరంలో	-4932
▁అందించారు	-4933
..?	-4934
▁ఈవెంట్	-4935
ందర	-4936
▁షు	-4937
పరమైన	-4938
▁పొందిన	-4939
▁వ్యాధి	-4940
▁ఇంటర్వ్యూ	-4941
୍ତ	-4942
▁కొర	-4943
ృప్తి	-4944
▁విషా	-4945
▁తరపున	-4946
▁రంగారెడ్డి	-4947
▁చంద్రబాబుకు	-4948
▁కనిపిస్తుంది	-4949
మైనా	-4950
▁గంగ	-4951
▁సహజ	-4952
▁ఒకరి	-4953
▁కార్తీ	-4954
▁కార్యకలా	-4955
▁భక్తులకు	-4956
▁చేస్తానని	-4957
ئی	-4958
న్నర	-4959
▁ట్రి	-4960
▁నిలబ	-4961
▁పరిశీ	-4962
▁నిలిపి	-4963
▁వస్తాయి	-4964
▁అనుగుణంగా	-4965
▁వైఎస్సార్	-4966
▁గ్రామాల్లో	-4967
▁V	-4968
▁గతే	-4969
▁నూనె	-4970
పెట్టి	-4971
▁దిగిన	-4972
▁పొంగు	-4973
▁తూర్పు	-4974
▁ప్రాంతం	-4975
▁పెట్టింది	-4976
▁విమానాశ్ర	-4977
୍ର	-4978
ీణ	-4979
▁E	-4980
▁వేశ	-4981
గాలకు	-4982
▁ఇన్వ	-4983
▁కోర్	-4984
రించిన	-4985
▁ామన్నారు	-4986
▁పాల్గొన్న	-4987
లిజ	-4988
కుని	-4989
చంద్ర	-4990
ోందని	-4991
▁ఇళ్ల	-4992
▁కేజీ	-4993
▁ఖర్చ	-4994
▁అవినా	-4995
▁ఇస్రో	-4996
సుల	-4997
రుడు	-4998
ారామ	-4999
▁ఏమీ	-5000
▁డిజి	-5001
▁పిలు	-5002
▁బలమైన	-5003
▁న్నాయి	-5004
ించాల్సి	-5005
ri	-5006
▁L	-5007
▁ہو	-5008
జర్స్	-5009
▁ఎంటర్	-5010
▁యువతి	-5011
▁ల్యాండ్	-5012
▁సమీపంలోని	-5013
బన్	-5014
▁అఖ	-5015
▁రెస్	-5016
▁వాల్	-5017
▁స్టీ	-5018
మార్ట్	-5019
▁నాణ్య	-5020
▁ప్లేయర్	-5021
▁ప్రకటించ	-5022
▁కార్యక్రమానికి	-5023
▁33	-5024
▁37	-5025
రోసా	-5026
▁ہے۔	-5027
▁గిల్	-5028
▁హరీష్	-5029
▁హోటల్	-5030
▁చేయలేదు	-5031
▁తెలుసుకుందాం	-5032
▁కడప	-5033
▁2020	-5034
▁సలహా	-5035
▁నిలదీ	-5036
▁ముద్ర	-5037
▁ఓటర్లు	-5038
▁కస్టడీ	-5039
▁చేసుకునే	-5040
పడుతున్నారు	-5041
▁శాస్త్రవేత్త	-5042
ಿದ	-5043
స్మ	-5044
మేష్	-5045
స్యం	-5046
▁గంజ	-5047
▁న్ని	-5048
▁రాజా	-5049
▁కెనడా	-5050
▁నటుడు	-5051
▁రేషన్	-5052
స్తారని	-5053
▁గంజాయి	-5054
▁రూపంలో	-5055
▁మాస్టర్	-5056
▁చనిపోయిన	-5057
▁పోలిస్తే	-5058
▁3,	-5059
దురు	-5060
▁నకి	-5061
▁లేట	-5062
▁గౌరవ	-5063
▁నిజం	-5064
▁ఆసియా	-5065
▁కోట్లతో	-5066
▁మండలంలోని	-5067
ಕ್	-5068
▁।	-5069
▁ان	-5070
ద్కర్	-5071
▁దేశాలు	-5072
▁ఉంటున్న	-5073
▁ప్లాంట్	-5074
▁జాగ్రత్తగా	-5075
▁ప్రభుత్వంలో	-5076
.50	-5077
నెల	-5078
్రు	-5079
కుడి	-5080
డ్డూ	-5081
▁ఆమోద	-5082
▁ఉంచు	-5083
▁కంటి	-5084
▁పనులను	-5085
▁పాలనలో	-5086
▁గతేడాది	-5087
▁కర్ణాటకలో	-5088
▁పొంగులేటి	-5089
▁کہ	-5090
▁తీయ	-5091
▁పలి	-5092
▁బార	-5093
▁భోజ	-5094
▁జూలై	-5095
▁మాల్	-5096
▁సర్వ	-5097
▁బియ్య	-5098
▁విటమి	-5099
▁విన్న	-5100
▁అనారోగ్య	-5101
▁జాబితాలో	-5102
▁అమెరికాలో	-5103
▁వెంకటస్వామి	-5104
ad	-5105
▁36	-5106
▁జార్	-5107
▁పోయా	-5108
▁విడత	-5109
▁ప్రోత్స	-5110
▁రావాలని	-5111
▁వీడియోలు	-5112
▁కనిపించింది	-5113
50	-5114
▁నవ	-5115
▁హైక	-5116
▁ఇసుక	-5117
▁జంతు	-5118
▁దేవర	-5119
▁దీక్ష	-5120
▁భిన్న	-5121
▁లేదంటే	-5122
▁పడ్డారు	-5123
▁పెన్షన్	-5124
▁కాళేశ్వరం	-5125
న్ల	-5126
▁ాడ	-5127
కూర్	-5128
▁اور	-5129
▁ఓటీ	-5130
▁ఆనంద	-5131
▁డిస్	-5132
▁ఫోకస్	-5133
▁ఉత్తరా	-5134
▁సాంకేతిక	-5135
▁రాష్ట్రపతి	-5136
▁జేడీ	-5137
▁గెలిపించ	-5138
▁కచ్చితంగా	-5139
▁ఆదేశించింది	-5140
▁మూడే	-5141
ంటింగ్	-5142
▁మంటలు	-5143
పోతున్న	-5144
▁ఎంపీగా	-5145
▁మధ్యలో	-5146
▁యూట్యూ	-5147
▁వివాహం	-5148
▁సామర్థ	-5149
▁ఓవర్లలో	-5150
▁ముగిసిన	-5151
ించుకోవడం	-5152
▁మంచిర్యాల	-5153
గడ	-5154
▁శే	-5155
మ్మల	-5156
▁ఆప్	-5157
ుల్లో	-5158
▁తుపా	-5159
▁ఒడిశా	-5160
▁ధర్మా	-5161
▁భూకంప	-5162
▁అంటారు	-5163
▁స్వయంగా	-5164
▁అసోసియేషన్	-5165
హార	-5166
▁!!	-5167
▁వహ	-5168
▁ఎక్	-5169
▁చరణ్	-5170
▁స్తూ	-5171
▁పొన్న	-5172
▁ఇటీవలే	-5173
▁కూల్చి	-5174
▁రంగంలో	-5175
▁పిల్లలకు	-5176
▁ଏ	-5177
దాల	-5178
సీమ	-5179
ంగిక	-5180
▁మాస్	-5181
▁అలర్ట్	-5182
▁ఫ్రెండ్	-5183
▁బంతుల్లో	-5184
▁H	-5185
▁పరంగా	-5186
▁భరోసా	-5187
▁అసిస్ట	-5188
▁కాలేదు	-5189
▁ములుగు	-5190
▁మరిన్ని	-5191
▁సంతోషంగా	-5192
▁آ	-5193
కంఠ	-5194
దారి	-5195
సిన్	-5196
▁రాం	-5197
▁గడువు	-5198
▁వాలంటీ	-5199
▁డాక్టర్లు	-5200
ay	-5201
▁ఓపె	-5202
▁ుడు	-5203
▁అవ్వ	-5204
▁క్రై	-5205
▁కృష్ణా	-5206
▁బంగారు	-5207
▁లైంగిక	-5208
▁వంటివి	-5209
▁తీసుకోవ	-5210
▁అతిపెద్ద	-5211
▁ఉద్యోగుల	-5212
▁స్తున్నారు	-5213
▁చేరుకున్నారు	-5214
గమ	-5215
▁i	-5216
గుల్	-5217
▁తుల	-5218
తాధిక	-5219
▁బృంద	-5220
▁సెమీ	-5221
క్షంలో	-5222
▁ఉద్రి	-5223
▁వదిలే	-5224
▁దిల్లీ	-5225
▁పీసీసీ	-5226
▁ఏజెన్సీ	-5227
▁ఏర్పడిన	-5228
▁పరిష్కారం	-5229
▁ప్రత్యక్ష	-5230
▁కోమటిరెడ్డి	-5231
చ్చే	-5232
▁మవు	-5233
▁వలస	-5234
రక్షణ	-5235
▁అల్ల	-5236
కరించి	-5237
▁మారాయి	-5238
▁తీసుకుంటున్న	-5239
▁నిర్ణయించారు	-5240
▁ఇద	-5241
టీషన్	-5242
దానికి	-5243
▁ఉన్నత	-5244
▁నమ్మకం	-5245
▁మహబూబ్	-5246
▁సర్పంచ	-5247
▁సోనియా	-5248
▁విషయాలు	-5249
ام	-5250
▁రొ	-5251
కాలిక	-5252
▁గానీ	-5253
▁ప్లాట్	-5254
▁లేటెస్ట్	-5255
▁ఏర్పడింది	-5256
▁ٹ	-5257
ందరు	-5258
స్పద	-5259
▁టైం	-5260
▁లోక	-5261
నర్జీ	-5262
▁దళిత	-5263
▁కప్పు	-5264
▁ఎవరికి	-5265
▁ప్రదర్శన	-5266
▁అద్భుతమైన	-5267
▁పెరుగుతుంది	-5268
▁పెరుగుతున్న	-5269
▁చేస్తున్నాయి	-5270
నగ	-5271
▁విసి	-5272
▁అర్హత	-5273
▁మెరుగ	-5274
▁పెట్టే	-5275
▁ఎనిమిది	-5276
▁స్థానాలు	-5277
▁అభిప్రాయం	-5278
▁ప్రధానంగా	-5279
రై	-5280
లికా	-5281
లైట్	-5282
▁ఆర్మీ	-5283
▁చేశాయి	-5284
▁వివేకా	-5285
▁సచివాల	-5286
పెట్టారు	-5287
▁ఫ్యాక్టరీ	-5288
▁రాజకీయంగా	-5289
కాయ	-5290
▁తెగ	-5291
▁సతీ	-5292
▁సెలవు	-5293
▁ట్రైలర్	-5294
▁రిపోర్టు	-5295
▁ఉన్నతాధిక	-5296
▁ప్రత్యర్థ	-5297
▁కార్మికులు	-5298
▁పిలుపునిచ్చారు	-5299
ద్దే	-5300
▁చోట	-5301
▁ఓటర్	-5302
ట్టారు	-5303
▁మల్లి	-5304
▁విద్యార్థుల	-5305
▁ప్రకా	-5306
▁సీరియ	-5307
▁కలిగిన	-5308
ಡಿಯ	-5309
▁34	-5310
▁వర్గం	-5311
▁టిక్కెట్	-5312
▁రంగంలోకి	-5313
▁చంద్రయాన్	-5314
▁మధ్యప్రదేశ్	-5315
లె	-5316
రోధ	-5317
హరణ	-5318
▁గజ	-5319
▁کیا	-5320
▁అశో	-5321
▁గ్లో	-5322
▁దుకా	-5323
ట్టింగ్	-5324
▁ఆర్డర్	-5325
▁పరిచయం	-5326
▁అరవింద్	-5327
▁దృష్టికి	-5328
▁కొనసాగుతున్న	-5329
టనా	-5330
▁కొడ	-5331
▁ఈనెల	-5332
▁డీజీ	-5333
డాన్ని	-5334
▁యాంటీ	-5335
▁వదిలి	-5336
▁తేడాతో	-5337
▁ప్రభావ	-5338
▁సంస్థల	-5339
▁దీనివల్ల	-5340
▁మెజార్టీ	-5341
▁రాజ్యాంగ	-5342
▁అంబేద్కర్	-5343
▁48	-5344
▁ఆశి	-5345
▁దీప	-5346
▁సంభవ	-5347
▁ఎదుర్	-5348
▁పాటుగా	-5349
▁బెంగాల్	-5350
▁సాధించారు	-5351
▁ఆసుపత్రికి	-5352
▁ఛే	-5353
▁అక్ష	-5354
▁ఫిల్	-5355
▁లిమి	-5356
▁విధి	-5357
ల్లూరు	-5358
▁పడుతు	-5359
▁సహాయం	-5360
▁హిందీ	-5361
▁కాపాడు	-5362
▁కురిసే	-5363
▁తీసుకొని	-5364
▁మద్దతుగా	-5365
▁ఇత	-5366
▁ఒంట	-5367
▁నేర	-5368
▁సదు	-5369
▁ఏంటి	-5370
▁ఫీజు	-5371
▁బలహీ	-5372
▁హింస	-5373
▁రియల్	-5374
▁పేరును	-5375
▁చేరింది	-5376
▁నిందితుడు	-5377
▁ఉద్యోగులకు	-5378
▁ఆగి	-5379
▁బాక్	-5380
▁అమ్ము	-5381
▁వెంకట్	-5382
▁గంటల్లో	-5383
▁వీరిద్ద	-5384
▁చేరుకుంది	-5385
▁జాగ్రత్తలు	-5386
▁తూ	-5387
▁ఖర్	-5388
▁పాప	-5389
▁నిర్ణయించింది	-5390
భూ	-5391
▁గృహ	-5392
▁రేటు	-5393
▁లేరు	-5394
▁వాయు	-5395
▁వినో	-5396
▁నిధుల	-5397
▁రాసిన	-5398
▁ఉత్కంఠ	-5399
▁చూసుకు	-5400
▁చేసుకోవ	-5401
▁గుర్తించి	-5402
▁ప్రజాస్వామ	-5403
నై	-5404
మొ	-5405
▁t	-5406
తిన్	-5407
▁ఘర్	-5408
సిల్ల	-5409
▁అన్య	-5410
▁బాంబు	-5411
▁అంశంపై	-5412
▁బ్రిడ్	-5413
▁డివిజన్	-5414
▁నెటిజన్	-5415
▁హైకమాండ్	-5416
ౌట్	-5417
▁సంబ	-5418
▁ఆశ్చ	-5419
▁దీపా	-5420
తాన్ని	-5421
▁వివాహ	-5422
▁వాదనలు	-5423
▁వారితో	-5424
▁ప్రయాణికులు	-5425
జమాన్	-5426
స్కృతి	-5427
▁కలకలం	-5428
▁మట్టి	-5429
▁అనుకూల	-5430
▁చెప్పాలని	-5431
▁ନ	-5432
ంసా	-5433
▁కోట	-5434
▁ఫేక్	-5435
▁కన్నా	-5436
▁ప్రాథ	-5437
▁ఆలయంలో	-5438
▁అంశాలపై	-5439
▁స్మార్ట్	-5440
▁తప్పనిసరి	-5441
ಗೆ	-5442
ధన్	-5443
రిగే	-5444
▁ఆదు	-5445
▁పార	-5446
త్తుల	-5447
▁తెరక	-5448
స్తానని	-5449
▁పిటీషన్	-5450
▁దేశాల్లో	-5451
▁క్రమంలోనే	-5452
▁సమావేశాలు	-5453
▁అంతకుముందు	-5454
గతం	-5455
▁ఏటా	-5456
▁మనసు	-5457
▁సంపద	-5458
▁కర్నా	-5459
▁పట్టి	-5460
▁ఇద్దరి	-5461
▁గూగుల్	-5462
▁పరిశోధన	-5463
▁పెరిగిన	-5464
▁అధికారులతో	-5465
ئے	-5466
▁ف	-5467
▁కాలి	-5468
▁దేవి	-5469
▁బార్	-5470
దాద్రి	-5471
▁ప్రియ	-5472
▁మాటలు	-5473
▁రాకపో	-5474
▁వైరస్	-5475
▁విమానం	-5476
▁మంత్రిగా	-5477
▁ఇంగ్లాండ్	-5478
▁ప్రతినిధి	-5479
▁అధికారికంగా	-5480
ర్డ్	-5481
▁ఛాన	-5482
▁లీగ్	-5483
▁ఘనంగా	-5484
▁పునరు	-5485
▁పోయిన	-5486
▁విపరీ	-5487
▁ఇండ్లు	-5488
▁భూములు	-5489
▁భవిష్యత్	-5490
▁తెల్లవారు	-5491
▁తీసుకుంటామని	-5492
తనం	-5493
వేత	-5494
ూన్	-5495
▁టు	-5496
▁నౌ	-5497
▁మం	-5498
▁విక	-5499
▁వ్వ	-5500
కెక్క	-5501
ాలంటూ	-5502
▁అనంత	-5503
▁విఫల	-5504
▁డిజిటల్	-5505
▁నిర్మాత	-5506
▁రాకుండా	-5507
▁పోస్టులు	-5508
▁తెలంగాణకు	-5509
నేత	-5510
▁ాన	-5511
▁అంట	-5512
▁నవీ	-5513
్రీట్	-5514
▁పొలి	-5515
ాల్సిన	-5516
▁ఇస్తే	-5517
▁గమనించ	-5518
▁విశేషం	-5519
▁ఒప్పందం	-5520
▁ప్రాథమిక	-5521
▁రామకృష్ణ	-5522
▁వీడియోలో	-5523
500	-5524
▁32	-5525
▁ట్రే	-5526
▁ఏళ్లు	-5527
▁ధర్నా	-5528
▁మనిషి	-5529
▁చేయండి	-5530
▁ఉంటాయని	-5531
▁శ్రీధర్	-5532
▁అందుకున్న	-5533
▁అసిస్టెంట్	-5534
▁ప్రాంతాలకు	-5535
దన్	-5536
ాయక	-5537
▁కం	-5538
▁ధా	-5539
▁వడ	-5540
▁చేయి	-5541
య్యాడు	-5542
▁మిత్ర	-5543
▁యాజమాన్	-5544
▁యాదాద్రి	-5545
▁సమర్పించ	-5546
▁క్యారెట్ల	-5547
▁సంవత్సరాలు	-5548
క్యు	-5549
▁ంటే	-5550
▁మేలు	-5551
▁స్తా	-5552
▁వెలువ	-5553
▁ఇంజినీ	-5554
▁మరికొన్ని	-5555
▁కలెక్టరేట్	-5556
పిరి	-5557
▁కతా	-5558
▁పటే	-5559
ంక్షన్	-5560
▁ప్రచు	-5561
▁బ్యార	-5562
▁మహేష్	-5563
▁సమర్థ	-5564
▁తీసుకెళ్	-5565
▁క్రికెటర్	-5566
▁చూస్తున్న	-5567
▁చేసుకోవచ్చు	-5568
చో	-5569
ಿಕ	-5570
▁టీం	-5571
▁భయం	-5572
▁గద్ద	-5573
▁రాము	-5574
▁షేక్	-5575
▁బిజిన	-5576
▁బెదిరి	-5577
▁స్కిల్	-5578
▁స్త్రీ	-5579
▁ఉద్రిక్త	-5580
▁పడుతుంది	-5581
▁లేకపోవడం	-5582
▁విచారణలో	-5583
▁n	-5584
▁ತ	-5585
▁పేలు	-5586
▁అనుమత	-5587
▁సూర్యా	-5588
▁స్తారు	-5589
▁స్పందన	-5590
▁ప్రధానమంత్రి	-5591
▁ముఖ్యమంత్రిగా	-5592
▁F	-5593
దాన	-5594
పాన్	-5595
పాలన	-5596
▁ఏకా	-5597
▁లక్	-5598
▁చల్ల	-5599
లాల్లో	-5600
▁జడ్పీ	-5601
పెట్టిన	-5602
▁మొదలైన	-5603
▁సోర్స్	-5604
▁సామాన్య	-5605
ంతం	-5606
▁4,	-5607
▁శై	-5608
తామని	-5609
▁ఆధార్	-5610
▁ఎకరాల	-5611
▁ఆదిత్య	-5612
▁బిజినెస్	-5613
▁సర్టిఫిక	-5614
ین	-5615
్రం	-5616
▁ಮಾ	-5617
జిత్	-5618
ల్లంఘ	-5619
▁జీవో	-5620
▁బెడ్	-5621
▁తేల్చి	-5622
కాంక్షలు	-5623
▁ఉన్నాడు	-5624
▁రిమాండ్	-5625
▁జిల్లాకు	-5626
▁మంత్రిత్వ	-5627
▁సంవత్సరంలో	-5628
▁మున్సిపాలిటీ	-5629
టిన	-5630
నికే	-5631
ొద్దని	-5632
▁చుట్టు	-5633
▁పార్క్	-5634
▁విజయాన్ని	-5635
▁అవుతున్నాయి	-5636
as	-5637
▁ఛై	-5638
జీగా	-5639
▁ండి	-5640
▁వాణి	-5641
▁సూచన	-5642
▁పథకాలు	-5643
▁పరిహారం	-5644
▁దృష్టిలో	-5645
▁జరుగుతున్నాయి	-5646
▁ఆవిష్	-5647
▁పటేల్	-5648
చ్చింది	-5649
▁ఉల్లంఘ	-5650
▁ఛైర్మన్	-5651
▁నమోదైంది	-5652
▁సత్యనారాయణ	-5653
୍ୟ	-5654
వళి	-5655
మిడి	-5656
▁తగి	-5657
▁ఫ్ల	-5658
▁బట్ట	-5659
▁లాల్	-5660
▁రమేశ్	-5661
▁సాంగ్	-5662
▁దేశానికి	-5663
▁న్యాయవాది	-5664
▁సిట్టింగ్	-5665
▁రిజిస్ట్రేషన్	-5666
నుల	-5667
▁ఉదా	-5668
▁మిస్	-5669
వంతమైన	-5670
▁ఏసీబీ	-5671
▁ఎదురుచూ	-5672
▁క్షేత్ర	-5673
ಟ್	-5674
రిట	-5675
షిక	-5676
ాయో	-5677
▁కై	-5678
▁ಗಳ	-5679
▁పుర	-5680
▁వరి	-5681
▁ఫ్లో	-5682
▁శ్రేణ	-5683
▁చంద్రుడి	-5684
జరీ	-5685
▁ధన	-5686
▁చూసు	-5687
▁తనపై	-5688
▁మనకు	-5689
▁నిల్వ	-5690
▁కర్నాటక	-5691
▁వాళ్లకు	-5692
▁సంప్రదాయ	-5693
▁అసెంబ్లీలో	-5694
▁తెలుసుకున్న	-5695
పుల్	-5696
వర్ణ	-5697
▁300	-5698
▁ایک	-5699
▁అసంత	-5700
▁కోలు	-5701
▁లుగా	-5702
▁సభకు	-5703
▁సింహ	-5704
ార్జున	-5705
▁ఎత్తి	-5706
▁రమేష్	-5707
▁ఇద్దరూ	-5708
▁గోల్డ్	-5709
▁పెరిగే	-5710
▁ప్రకటి	-5711
▁పనిచేసే	-5712
▁అక్రమంగా	-5713
▁చిన్నారి	-5714
▁తొమ్మిది	-5715
▁సమక్షంలో	-5716
▁సిరిసిల్ల	-5717
▁చది	-5718
కూడదు	-5719
▁ఢీకొ	-5720
▁పోర్	-5721
▁జపాన్	-5722
▁దేవాల	-5723
▁మారిన	-5724
జిలాండ్	-5725
▁నివాసం	-5726
▁అధికంగా	-5727
▁స్పష్టత	-5728
▁హైకోర్టులో	-5729
▁ఉన్నప్పటికీ	-5730
తిప	-5731
▁శో	-5732
ండటం	-5733
▁సుల	-5734
మిషన్	-5735
▁నాన్	-5736
▁లింగ	-5737
తుండగా	-5738
కప్పుడు	-5739
▁జీహెచ్	-5740
▁చంద్రబాబును	-5741
▁ଦ	-5742
▁ఈవీ	-5743
సిఆర్	-5744
ుకుని	-5745
▁పైకి	-5746
స్టులు	-5747
▁ఓటీటీ	-5748
▁విమాన	-5749
▁పేర్లు	-5750
▁వ్యవధి	-5751
▁సీరియస్	-5752
▁నిర్వహించే	-5753
▁".	-5754
▁42	-5755
తూనే	-5756
▁పోరు	-5757
▁వారా	-5758
▁కనుగొ	-5759
▁చనిపో	-5760
▁దెబ్బతి	-5761
▁భారతదేశంలో	-5762
▁(3	-5763
స్టా	-5764
ెంబరు	-5765
▁బాడీ	-5766
▁వీరికి	-5767
▁హైడ్రా	-5768
▁బ్యాటర్	-5769
▁తెరకెక్క	-5770
▁నున్నారు	-5771
▁ప్రశ్నలు	-5772
▁వైఎస్ఆర్	-5773
▁న్యూజిలాండ్	-5774
▁ః	-5775
మాన	-5776
ంటరీ	-5777
▁టర్	-5778
మింగ్	-5779
▁కథనం	-5780
▁బాస్	-5781
▁వేణు	-5782
▁హాల్	-5783
▁వ్యక్త	-5784
లిజెన్స్	-5785
▁కానిస్టే	-5786
▁రిపోర్ట్	-5787
▁వేస్తున్నారు	-5788
గితే	-5789
▁కసర	-5790
ెత్తు	-5791
▁రోజా	-5792
▁అధ్యయనం	-5793
▁కోర్టుకు	-5794
▁తీసుకోవాలి	-5795
ات	-5796
▁41	-5797
▁గురైన	-5798
▁సీఎస్	-5799
▁సీతారామ	-5800
▁స్క్రీన్	-5801
▁స్వీకారం	-5802
▁అభ్యర్థులను	-5803
ూహ	-5804
ాయర్	-5805
▁197	-5806
▁ందా	-5807
▁మంద	-5808
ార్క్	-5809
▁కంప్	-5810
▁ఎద్దే	-5811
▁గడ్డం	-5812
▁నిర్వాహ	-5813
ేశ్వరరావు	-5814
▁స్పష్టంగా	-5815
▁అత్యధికంగా	-5816
▁ఎమో	-5817
▁గలి	-5818
▁సీఎ	-5819
తులతో	-5820
▁అవుట్	-5821
▁తీసిన	-5822
▁మించి	-5823
▁గిరిజన	-5824
▁కారణాలు	-5825
▁ప్రైవేటు	-5826
▁బీజేపీలో	-5827
▁అందజేశారు	-5828
▁ీ	-5829
▁ారో	-5830
▁్ని	-5831
న్నది	-5832
▁రుతు	-5833
మ్మల్ని	-5834
▁వీటిలో	-5835
లుత	-5836
▁ఐఏ	-5837
▁సగ	-5838
▁ఎండీ	-5839
▁డౌన్	-5840
▁వాటా	-5841
▁అశోక్	-5842
▁ఆలస్య	-5843
▁కన్నడ	-5844
త్మకంగా	-5845
▁తీవ్రత	-5846
▁దూరంలో	-5847
▁వాహనాలు	-5848
▁ప్రారంభించ	-5849
ండం	-5850
మార్క	-5851
▁ఒలిం	-5852
▁కోటి	-5853
▁చింత	-5854
▁శుభా	-5855
▁ప్రాధ	-5856
▁వివరణ	-5857
▁దాడికి	-5858
▁మార్క్	-5859
▁లేకపోతే	-5860
▁విక్రమార్క	-5861
▁ఉత్తరప్రదేశ్	-5862
రన్	-5863
▁AL	-5864
▁ఇస్	-5865
ారీగా	-5866
▁టాటా	-5867
▁తేల్	-5868
▁లైఫ్	-5869
▁ఫలితం	-5870
▁అతనికి	-5871
▁తీసుకొ	-5872
▁తిరుమలలో	-5873
▁బయలుదేరి	-5874
▁బాలకృష్ణ	-5875
▁కార్యకలాప	-5876
▁చేసుకోవాలని	-5877
-1	-5878
and	-5879
సనం	-5880
▁ఫండ్	-5881
డాల్సి	-5882
▁తొలుత	-5883
▁ఎద్దేవా	-5884
▁నియంత్రణ	-5885
▁లిమిటెడ్	-5886
or	-5887
త్న	-5888
హర్	-5889
త్రా	-5890
సైడ్	-5891
ామిక	-5892
▁ఔట్	-5893
▁ముర	-5894
▁ఒంటరి	-5895
▁గంటలు	-5896
▁పేరిట	-5897
▁సిస్ట	-5898
దారులకు	-5899
▁అభివృద్ధికి	-5900
▁అయినప్పటికీ	-5901
నకు	-5902
▁గల్	-5903
▁జాన్	-5904
▁పవిత	-5905
త్తీస్	-5906
▁నకిలీ	-5907
▁లడ్డూ	-5908
▁ఉండడంతో	-5909
▁ఆసుపత్రిలో	-5910
▁ఎదుర్కొంటున్న	-5911
▁చేస్తున్నామని	-5912
నార్	-5913
ప్ట్	-5914
▁గెలవ	-5915
▁ఫ్లా	-5916
▁రాయ్	-5917
▁సౌత్	-5918
▁ఘర్షణ	-5919
▁బరిలో	-5920
▁బారిన	-5921
▁యూనియన్	-5922
▁క్రియేట్	-5923
▁బిల్డింగ్	-5924
▁చేసుకోవాలి	-5925
▁సంగారెడ్డి	-5926
ంపుల	-5927
▁తదు	-5928
▁ఆక్రమ	-5929
▁సహాయక	-5930
▁ట్రాక్	-5931
▁అడిషనల్	-5932
▁నిమిషాల	-5933
వకు	-5934
వర్గ	-5935
వుగా	-5936
ామున	-5937
త్రిక	-5938
▁నివా	-5939
▁షాపు	-5940
▁నివాస	-5941
▁ఓటింగ్	-5942
▁తదుపరి	-5943
▁ఫార్మా	-5944
▁భూమిని	-5945
▁వివరాల	-5946
▁మెరుగైన	-5947
▁వచ్చినా	-5948
▁విటమిన్	-5949
▁చెప్పాలి	-5950
▁చేరుకుని	-5951
▁U	-5952
గామ	-5953
▁మనుష	-5954
▁మిల్	-5955
బాబాద్	-5956
▁ఇదిలా	-5957
▁ఒకసారి	-5958
రించింది	-5959
▁శరీరంలో	-5960
▁అక్కడికి	-5961
▁నెల్లూరు	-5962
▁చేస్తారని	-5963
ದ್ದ	-5964
ాల్సి	-5965
▁స్వి	-5966
ంటుందని	-5967
▁తీశారు	-5968
▁లిస్ట్	-5969
▁స్కామ్	-5970
▁తెలియదు	-5971
▁లక్ష్యం	-5972
▁అప్పటికే	-5973
▁జరగనున్న	-5974
హిత	-5975
▁ఠా	-5976
వంతం	-5977
సీస్	-5978
▁ఆలయం	-5979
▁మంచు	-5980
▁సమాజ	-5981
ాయింట్	-5982
▁ఉండడం	-5983
▁భూముల	-5984
చుకున్న	-5985
▁కారులో	-5986
▁కెమెరా	-5987
▁నాలుగే	-5988
▁స్వల్ప	-5989
▁పాత్రలో	-5990
▁మ్యూజిక్	-5991
▁మరణించారు	-5992
రగాయ	-5993
రాయి	-5994
▁ఆఫర్	-5995
▁పర్వ	-5996
▁అనుబంధ	-5997
▁నోటీసు	-5998
▁బియ్యం	-5999
ించుకుని	-6000
▁జట్టులో	-6001
▁మెజారిటీ	-6002
▁యూట్యూబ్	-6003
▁ఉష్ణోగ్రతలు	-6004
▁ఉప్ప	-6005
▁ఇంద్ర	-6006
▁తేలిక	-6007
▁నిండి	-6008
▁సాక్ష	-6009
▁స్వాత	-6010
▁కేసును	-6011
▁రాగానే	-6012
▁చెప్పడం	-6013
▁సరిగ్గా	-6014
ించుకుంది	-6015
▁మాట్లాడే	-6016
▁అవుతుందని	-6017
▁మరికొందరు	-6018
హరి	-6019
▁గఢ్	-6020
▁గోడ	-6021
▁బంగా	-6022
▁ారనే	-6023
కారులు	-6024
▁కత్తి	-6025
▁నిలిచ	-6026
▁ధాన్యం	-6027
▁విభాగం	-6028
▁జరిగితే	-6029
▁సంబంధాలు	-6030
▁సూర్యాపేట	-6031
▁అవుతున్నారు	-6032
▁O	-6033
▁ామ	-6034
సాప్	-6035
▁భాగం	-6036
త్తులు	-6037
▁ఉల్లి	-6038
▁ప్రయోగ	-6039
▁బెస్ట్	-6040
▁కీలకంగా	-6041
▁ఉన్నట్టు	-6042
▁వాట్సాప్	-6043
▁నిర్మాణానికి	-6044
یڈیو	-6045
విల్	-6046
▁వహి	-6047
▁వాగ్	-6048
▁స్టి	-6049
పించిన	-6050
▁గాయాల	-6051
వుతున్న	-6052
▁ఉండేలా	-6053
▁జైలులో	-6054
▁పలికారు	-6055
▁పాయింట్	-6056
▁రిజర్వ్	-6057
▁పెట్రోల్	-6058
▁మహబూబాబాద్	-6059
▁షీ	-6060
▁దూర	-6061
▁స్న	-6062
పించి	-6063
▁నిఘా	-6064
▁ఖర్గే	-6065
▁కూరగాయ	-6066
▁చూస్తు	-6067
▁మణిపూర్	-6068
▁చేసుకుంటున్న	-6069
క్కల	-6070
ఫ్టీ	-6071
లంలో	-6072
వారా	-6073
విని	-6074
▁బలో	-6075
▁రేప	-6076
▁జమ్మ	-6077
▁బ్యాల	-6078
▁రెగ్య	-6079
▁ఊహించని	-6080
▁గ్లోబల్	-6081
▁బ్రిటన్	-6082
▁చెబుతోంది	-6083
▁పెట్టుబడులు	-6084
ھا	-6085
దరి	-6086
సరా	-6087
▁ంత	-6088
ాలన్న	-6089
▁కొడు	-6090
▁డెలి	-6091
ించేలా	-6092
▁కాపాడ	-6093
▁చేయలే	-6094
▁నవీన్	-6095
▁మాదిరి	-6096
▁గ్రామీణ	-6097
▁వెలుగులోకి	-6098
▁చోటుచేసుకుంది	-6099
▁అభిప్రాయపడ్డారు	-6100
రె	-6101
▁గది	-6102
▁సపో	-6103
▁వీలు	-6104
▁ویڈیو	-6105
▁అవుతు	-6106
▁ఇంజనీ	-6107
▁ఉత్తమ	-6108
▁క్రీడా	-6109
▁చివరకు	-6110
▁మామిడి	-6111
▁వయస్సు	-6112
▁అడుగులు	-6113
▁బాధితులు	-6114
▁ఆస్పత్రికి	-6115
▁నిర్వహించి	-6116
▁ప్రాంతానికి	-6117
▁శుభాకాంక్షలు	-6118
జాన్	-6119
జీలు	-6120
తీరు	-6121
▁కండ	-6122
▁బలం	-6123
ధులను	-6124
▁చక్ర	-6125
▁పోల్	-6126
▁వెలు	-6127
▁సగటు	-6128
▁కోరిక	-6129
▁పీఎస్	-6130
స్తోందని	-6131
▁తెలియని	-6132
▁డిపార్ట్	-6133
▁వైసీపీకి	-6134
▁నాగార్జున	-6135
▁ఎప్పటికప్పుడు	-6136
▁55	-6137
మూర్	-6138
ండీస్	-6139
గోపాల్	-6140
▁సంఘాల	-6141
▁కళాశాల	-6142
▁నాయకుల	-6143
▁గ్రేటర్	-6144
▁వ్యక్తిని	-6145
▁ఖు	-6146
పాతం	-6147
సాని	-6148
తోన్న	-6149
▁తమను	-6150
▁స్తే	-6151
▁అశ్వి	-6152
▁పవిత్ర	-6153
▁నిర్మల్	-6154
▁ప్రశ్ని	-6155
▁ఫలితంగా	-6156
▁ఆర్థికంగా	-6157
▁యాజమాన్యం	-6158
విక	-6159
▁RE	-6160
▁భవన	-6161
▁వివ	-6162
▁ులు	-6163
తంత్ర	-6164
శంకర్	-6165
▁వేచి	-6166
▁కొండా	-6167
▁ారంటూ	-6168
▁నొప్పి	-6169
▁మార్గం	-6170
▁సభ్యుడు	-6171
▁ఎకరాల్లో	-6172
▁ప్రజల్లో	-6173
▁p	-6174
చలం	-6175
జల్	-6176
▁39	-6177
▁یہ	-6178
▁ఆశా	-6179
▁మూసి	-6180
ండింగ్	-6181
▁జమ్మూ	-6182
▁ఉదాహరణ	-6183
▁ఛాన్స్	-6184
▁రాజకీయం	-6185
▁శ్రీనివాస	-6186
ଥି	-6187
శై	-6188
▁;	-6189
▁କର	-6190
ట్రా	-6191
▁డయా	-6192
▁సప్	-6193
ించగా	-6194
్యాలు	-6195
▁అంశా	-6196
▁దాకా	-6197
▁దాటి	-6198
▁అయ్యి	-6199
▁పల్లె	-6200
▁అంశాలు	-6201
▁జైలుకు	-6202
▁పిల్లలను	-6203
▁కుటుంబాలకు	-6204
▁నిర్వహిస్తున్న	-6205
ాపన	-6206
▁సంకే	-6207
▁నెలలు	-6208
లక్ష్మి	-6209
▁టాపిక్	-6210
▁నేతలతో	-6211
▁ప్రగతి	-6212
▁ఐదుగురు	-6213
▁తీర్మానం	-6214
▁కార్యక్రమాన్ని	-6215
ಂದು	-6216
▁జమ	-6217
గ్రహ	-6218
ారన్న	-6219
▁అతడి	-6220
▁ఇంటె	-6221
▁ఐక్య	-6222
▁రియా	-6223
▁సిక్	-6224
▁ఆనంద్	-6225
▁ఇష్టం	-6226
▁టీజర్	-6227
▁పుట్ట	-6228
▁భోజనం	-6229
▁డాక్యు	-6230
▁వాటిలో	-6231
త్వంలోని	-6232
▁విగ్రహం	-6233
▁టికెట్లు	-6234
SO	-6235
ری	-6236
నేయ	-6237
ోన్	-6238
▁46	-6239
▁ఉంద	-6240
▁రన్	-6241
▁ఉప్పు	-6242
▁పథకాల	-6243
క్షన్స్	-6244
▁అలవాటు	-6245
▁క్వార్	-6246
▁నెయ్యి	-6247
▁ముప్పు	-6248
▁వాటికి	-6249
▁ఇంటర్నే	-6250
▁జట్టుకు	-6251
▁ఉపాధ్యాయ	-6252
▁రాజమండ్రి	-6253
▁లభించింది	-6254
▁చంద్రశేఖర్	-6255
AD	-6256
▁ಇ	-6257
తన్య	-6258
లండ్	-6259
▁گیا	-6260
▁చైర్	-6261
▁అనిపి	-6262
▁కిలోల	-6263
▁బ్రహ్	-6264
▁యువకుడు	-6265
ేస్	-6266
నులు	-6267
ారిత	-6268
ులైన	-6269
ಡಿಯೋ	-6270
▁READ	-6271
▁ఎల్ల	-6272
▁కూలీ	-6273
▁చర్మ	-6274
▁పిల్	-6275
▁సమన్	-6276
▁నిరాశ	-6277
▁బలోపే	-6278
▁విభజన	-6279
శ్రామిక	-6280
▁కోరుతూ	-6281
▁ప్లేస్	-6282
▁శాసనసభ	-6283
▁కెసిఆర్	-6284
▁నాయకత్వం	-6285
▁వస్తాయని	-6286
▁అందిస్తున్న	-6287
▁పారిశ్రామిక	-6288
డక	-6289
▁ALSO	-6290
▁క్రె	-6291
▁దసరా	-6292
▁రంగం	-6293
▁శరీర	-6294
ండెంట్	-6295
డ్డాడు	-6296
ప్పుడే	-6297
స్టిక్	-6298
▁రూరల్	-6299
▁అన్నది	-6300
▁రోడ్లు	-6301
▁తీవ్రమైన	-6302
وی	-6303
ధ్యం	-6304
యాంశ	-6305
▁పొర	-6306
మ్మద్	-6307
▁కోటా	-6308
▁జగదీ	-6309
▁ఫోర్	-6310
▁బీమా	-6311
▁స్పో	-6312
▁హుస్	-6313
▁ఇళ్లు	-6314
▁చర్చనీ	-6315
▁ధ్వంసం	-6316
▁సునీల్	-6317
▁స్కీమ్	-6318
▁డెలివరీ	-6319
▁మార్గంలో	-6320
ାଇ	-6321
ందీ	-6322
ంజర్	-6323
▁టమా	-6324
▁బల్	-6325
నేశ్వ	-6326
▁జనతా	-6327
▁ఫాలో	-6328
▁సరిపో	-6329
▁పరిమిత	-6330
▁రాజీవ్	-6331
▁వీరిలో	-6332
▁పెట్టడం	-6333
▁స్వాగతం	-6334
▁వచ్చినట్లు	-6335
▁తెలుస్తుంది	-6336
▁ଭ	-6337
▁ಜ	-6338
▁ఓట	-6339
మిక్	-6340
ందింది	-6341
లెన్స్	-6342
ొచ్చని	-6343
▁తినడం	-6344
▁నేతలకు	-6345
▁కసరత్తు	-6346
▁తనిఖీలు	-6347
▁భాస్కర్	-6348
▁తేదీల్లో	-6349
▁కార్మికుల	-6350
ంకు	-6351
కప్	-6352
▁యం	-6353
▁లొ	-6354
▁కబ్	-6355
▁సిం	-6356
▁వాహనం	-6357
▁సస్పెండ్	-6358
30	-6359
▁J	-6360
తన్	-6361
▁-1	-6362
▁38	-6363
▁Re	-6364
కైనా	-6365
▁ఆయుధ	-6366
▁గేమ్	-6367
▁డిపా	-6368
▁పోయే	-6369
▁మోడల్	-6370
▁లింక్	-6371
▁ఇందిరా	-6372
▁ఎన్డీఏ	-6373
▁అప్పుడే	-6374
▁పెరిగాయి	-6375
▁ఫలితాలను	-6376
▁కొత్తగూడెం	-6377
▁చర్చనీయాంశ	-6378
▁ఇంటర్నేషనల్	-6379
▁దక్షిణాఫ్రికా	-6380
డైన	-6381
బంధు	-6382
▁కట్	-6383
▁స్ఫ	-6384
▁ఉంటూ	-6385
▁చూసే	-6386
▁నితీ	-6387
▁లోడ్	-6388
▁సిట్	-6389
▁అంతరి	-6390
▁సీపీఐ	-6391
▁సొంతం	-6392
▁అడుగుల	-6393
▁చేతులు	-6394
▁నేపాల్	-6395
▁ఆధారాలు	-6396
కరించింది	-6397
▁విశాఖపట్నం	-6398
సలు	-6399
సేజ్	-6400
▁150	-6401
▁వలన	-6402
▁ఉందా	-6403
▁కామె	-6404
▁ఎంపీలు	-6405
▁కాలంగా	-6406
▁నిత్యం	-6407
▁శ్రీరా	-6408
▁పోతున్న	-6409
▁నిందితులు	-6410
▁పెట్టుకున్న	-6411
ెన	-6412
▁టూ	-6413
డిట్	-6414
▁..?	-6415
హిల్స్	-6416
▁తున్న	-6417
▁డిజైన్	-6418
▁హామీలు	-6419
▁ఇంటెలిజెన్స్	-6420
ak	-6421
▁ణ	-6422
కూరు	-6423
▁బెల్	-6424
▁సీజ్	-6425
▁సమగ్ర	-6426
▁సార్వ	-6427
▁అతన్ని	-6428
▁ఎక్కడా	-6429
▁వారీగా	-6430
▁స్కోరు	-6431
▁పరిష్కర	-6432
▁వేడుకలు	-6433
▁క్వార్టర్	-6434
▁స్థలానికి	-6435
▁కోరుతున్నారు	-6436
▁ప్రారంభించిన	-6437
de	-6438
om	-6439
▁ఎగ	-6440
▁తహ	-6441
జిల్	-6442
▁వారే	-6443
▁మేయర్	-6444
▁ముంబయి	-6445
▁సురేష్	-6446
▁ఆశ్చర్య	-6447
▁కొట్టుకు	-6448
▁లభిస్తుంది	-6449
▁h	-6450
డియం	-6451
▁ఘోర	-6452
▁ట్ల	-6453
యింగ్	-6454
▁2016	-6455
▁పాలి	-6456
▁పిఠా	-6457
▁శంకు	-6458
ేశ్వరి	-6459
▁అభిషే	-6460
▁కడుపు	-6461
▁క్షమా	-6462
▁తీర్చ	-6463
▁వేముల	-6464
▁అహ్మద్	-6465
మవుతుంది	-6466
▁కీలకమైన	-6467
▁పెట్టుకుని	-6468
▁సూచించింది	-6469
శీ	-6470
గల్	-6471
మణి	-6472
▁ରେ	-6473
▁డమే	-6474
న్నర్	-6475
▁దోపి	-6476
▁స్పి	-6477
నమెంట్	-6478
▁లేవని	-6479
ాంపియన్	-6480
▁డీజీపీ	-6481
▁స్ట్రా	-6482
▁కారణమని	-6483
▁సమయానికి	-6484
re	-6485
ھی	-6486
▁ఝ	-6487
సేపు	-6488
▁చేశా	-6489
ద్దీన్	-6490
▁ఆరుగు	-6491
▁మండలి	-6492
▁వెళ్ళ	-6493
▁యూనిట్	-6494
▁రివ్యూ	-6495
▁వచ్చాక	-6496
▁వృత్తి	-6497
▁సూచనలు	-6498
▁భాగస్వామ	-6499
▁మాట్లాడి	-6500
▁కానిస్టేబుల్	-6501
చె	-6502
ಡು	-6503
▁ଅ	-6504
.15	-6505
ెట్టు	-6506
స్ట్రి	-6507
▁అప్లి	-6508
▁బలహీన	-6509
▁బైడెన్	-6510
▁సంచారం	-6511
▁సిద్దం	-6512
▁తెలిసిన	-6513
▁బిఆర్ఎస్	-6514
▁గుండెపోటు	-6515
ೆಯ	-6516
▁l	-6517
సాద్	-6518
ైనర్	-6519
▁ఆకా	-6520
▁కేశ	-6521
▁నంది	-6522
▁పైనా	-6523
▁పోషి	-6524
▁ాలని	-6525
▁ంచారు	-6526
▁సహకార	-6527
▁అదనంగా	-6528
ించిందని	-6529
▁అనుమానం	-6530
▁మొత్తంలో	-6531
▁సినిమాల్లో	-6532
▁చెబుతున్నాయి	-6533
▁c	-6534
▁Ch	-6535
సాయి	-6536
ారంటూ	-6537
▁కక్ష	-6538
▁ల్ని	-6539
▁సుదీ	-6540
▁సెన్	-6541
▁అండర్	-6542
▁హత్యకు	-6543
▁అవినాష్	-6544
▁బ్రాండ్	-6545
▁లక్ష్మి	-6546
▁బ్రిడ్జి	-6547
▁చేసుకోవడం	-6548
▁ఆస్పత్రిలో	-6549
لی	-6550
మంతా	-6551
▁అఫ్	-6552
▁పౌర	-6553
క్రియ	-6554
▁జాతర	-6555
▁రాయల	-6556
▁సంస్	-6557
ణాల్లో	-6558
ర్ట్స్	-6559
▁అబ్దు	-6560
▁సత్తా	-6561
▁ఉపయోగి	-6562
▁పార్టీలకు	-6563
▁అంతేకాకుండా	-6564
ణాల	-6565
▁రస	-6566
ద్వే	-6567
▁ఏను	-6568
▁డిఫ	-6569
▁నాశ	-6570
▁వేస	-6571
▁ఇప్ప	-6572
▁జాబ్	-6573
▁బెది	-6574
▁భువన	-6575
▁లీక్	-6576
▁మార్చు	-6577
▁అప్పులు	-6578
▁చిత్తూరు	-6579
▁సమయంలోనే	-6580
▁W	-6581
కరం	-6582
హనం	-6583
క్యూ	-6584
త్తం	-6585
▁బదు	-6586
▁అంబా	-6587
▁పాటి	-6588
నార్హం	-6589
▁ఆర్టి	-6590
▁కూర్చ	-6591
▁ఘటనలు	-6592
▁ఉచితంగా	-6593
▁తీసుకువ	-6594
▁బిలియన్	-6595
▁గమనార్హం	-6596
▁సినిమాతో	-6597
▁తప్పకుండా	-6598
▁పేర్కొన్న	-6599
▁అప్లికేషన్	-6600
▁స్పందించిన	-6601
▁ହ	-6602
ేలా	-6603
పూడి	-6604
▁ఖండ	-6605
▁కూలి	-6606
▁దొరక	-6607
▁ధరణి	-6608
▁సులభ	-6609
▁హైవే	-6610
దాన్ని	-6611
▁జట్లు	-6612
▁తోంది	-6613
▁మొన్న	-6614
పోవడంతో	-6615
▁నిజంగా	-6616
▁బయటికి	-6617
▁ఇందుకోసం	-6618
▁కౌన్సిల్	-6619
▁ప్రారంభి	-6620
▁వర్కింగ్	-6621
▁నెటిజన్లు	-6622
యన	-6623
దశి	-6624
▁47	-6625
డీవో	-6626
ర్తి	-6627
▁నాట	-6628
హాలను	-6629
▁అత్యు	-6630
▁చౌదరి	-6631
▁జనగామ	-6632
▁ముక్క	-6633
▁సమన్వ	-6634
▁పేదలకు	-6635
▁లాభాలు	-6636
▁విక్రయ	-6637
▁తెలిపిన	-6638
▁పాలస్తీ	-6639
▁మన్నారు	-6640
▁రవీంద్ర	-6641
▁సర్పంచ్	-6642
▁ఇంగ్లండ్	-6643
▁కౌంటింగ్	-6644
▁గ్యారంటీ	-6645
▁పెడుతున్న	-6646
▁అధ్యక్షుడిగా	-6647
భార	-6648
గ్రి	-6649
▁తార	-6650
వర్స్	-6651
▁కలసి	-6652
▁సన్న	-6653
▁సెగ్	-6654
▁ఎగ్జా	-6655
▁కొరియా	-6656
▁బంగాళా	-6657
▁మేనేజ్	-6658
▁సాఫ్ట్	-6659
▁పనితీరు	-6660
▁ఢిల్లీకి	-6661
▁భువనగిరి	-6662
▁స్తుందని	-6663
▁తీసుకురావ	-6664
▁ముందుగానే	-6665
▁తెల్లవారుజ	-6666
▁స్టేడియంలో	-6667
.0	-6668
హో	-6669
▁44	-6670
ంట్లు	-6671
ంత్రా	-6672
గొట్ట	-6673
▁టీపీ	-6674
▁నిరూ	-6675
▁మావో	-6676
ర్యానా	-6677
▁గొంతు	-6678
▁పనులకు	-6679
▁సోదాలు	-6680
▁స్పేస్	-6681
▁అత్యవసర	-6682
▁టెన్షన్	-6683
▁శంకుస్థ	-6684
▁సుదీర్ఘ	-6685
▁హర్యానా	-6686
▁నేతృత్వంలోని	-6687
జో	-6688
▁49	-6689
▁ہیں	-6690
▁కరు	-6691
▁అచ్చ	-6692
▁గార్	-6693
▁చేరే	-6694
▁తోడు	-6695
▁బతుక	-6696
▁పోరాట	-6697
▁వృద్ధి	-6698
▁స్టోరీ	-6699
స్థాయిలో	-6700
▁రామచంద్ర	-6701
▁సాగుతోంది	-6702
▁సూచిస్తున్నారు	-6703
▁కనిపిస్తున్నాయి	-6704
ఖరి	-6705
సాహ	-6706
▁దృశ	-6707
▁ప్ల	-6708
▁బాట	-6709
▁గోల్	-6710
▁ఆసీస్	-6711
▁ఏండ్ల	-6712
▁కింగ్	-6713
▁శరీరం	-6714
▁కలిసిన	-6715
▁పదవికి	-6716
▁పరామర్శ	-6717
▁ప్రభుత్వంపై	-6718
రిత	-6719
టల్స్	-6720
రేటర్	-6721
▁తెరి	-6722
▁పండగ	-6723
▁సందే	-6724
▁సిగ్	-6725
▁స్పా	-6726
ందరికీ	-6727
▁అనుసర	-6728
▁ఆశీర్	-6729
▁కలుపు	-6730
▁నుంది	-6731
▁యొక్క	-6732
మయ్యాయి	-6733
▁ఎక్కడి	-6734
▁వైద్యం	-6735
▁సదుపాయ	-6736
▁సీఎంగా	-6737
▁నిర్మించ	-6738
హే	-6739
వత్	-6740
▁ఆక్	-6741
▁దూసు	-6742
▁విజే	-6743
వాళ్లు	-6744
▁నమ్ము	-6745
▁యూఎస్	-6746
▁జుట్టు	-6747
▁సీతక్క	-6748
▁సెకండ్	-6749
▁లెక్కలు	-6750
▁ప్రకటనలో	-6751
▁చేసినట్టు	-6752
▁స్థానాలకు	-6753
▁చేస్తుందని	-6754
న్యు	-6755
▁ఆడు	-6756
▁రాఘ	-6757
హానికి	-6758
▁ఆస్తి	-6759
▁టీఎంసీ	-6760
▁కాల్పులు	-6761
▁పొలిటికల్	-6762
▁ప్రభావితం	-6763
డూ	-6764
▁ಲ	-6765
టిస్	-6766
పాలి	-6767
▁కొల	-6768
▁లేన	-6769
పూర్వ	-6770
▁క్వి	-6771
▁డైలా	-6772
▁దానం	-6773
▁వేసే	-6774
టిక్స్	-6775
▁రేంజ్	-6776
▁సరిగా	-6777
▁ఎవరికీ	-6778
▁వేలాది	-6779
▁సిటీలో	-6780
▁కోరింది	-6781
▁రాజశేఖర్	-6782
▁వ్యాపారం	-6783
▁ప్రతినిధులు	-6784
▁సమాచారాన్ని	-6785
وں	-6786
ಂಬ	-6787
ీప్	-6788
▁పసి	-6789
▁మెడ	-6790
పర్తి	-6791
▁చాలు	-6792
▁విలీ	-6793
వుల్లో	-6794
▁ఏమిటి	-6795
▁ఏమైనా	-6796
▁తిరస్	-6797
▁గ్రూపు	-6798
▁జైల్లో	-6799
▁వెల్లు	-6800
పించింది	-6801
▁కుంటున్న	-6802
▁ఢిల్లీలోని	-6803
ికే	-6804
▁యే	-6805
ండన్	-6806
టీస్	-6807
సీసీఐ	-6808
▁పనుల	-6809
▁సిలి	-6810
▁ఒప్పంద	-6811
▁పర్సన్	-6812
▁వ్యక్తుల	-6813
▁ఎన్నికలలో	-6814
▁కనిపించడం	-6815
▁కుటుంబంలో	-6816
▁ప్రయోజనాలు	-6817
▁అప్రమత్తంగా	-6818
sh	-6819
కన్	-6820
▁(4	-6821
▁ైన	-6822
ందున	-6823
▁లారీ	-6824
▁వెనక	-6825
▁ఈవీఎం	-6826
▁లన్నీ	-6827
▁వార్డు	-6828
▁పాల్పడిన	-6829
▁ప్రముఖులు	-6830
▁జరుగుతుందని	-6831
▁ప్రభుత్వాలు	-6832
▁چ	-6833
▁డొ	-6834
▁గాను	-6835
▁డీఎం	-6836
▁నగరం	-6837
▁ఇండ్ల	-6838
▁ఒప్పు	-6839
▁ఫీచర్	-6840
▁చక్కెర	-6841
▁ఎలక్షన్	-6842
▁మల్లికార్	-6843
ఫై	-6844
▁ఫౌ	-6845
టెక్	-6846
▁వెహ	-6847
ృష్టి	-6848
▁గంగా	-6849
▁గడ్డ	-6850
▁విరమ	-6851
పిక్స్	-6852
▁చెత్త	-6853
▁నాగర్	-6854
▁ఏర్పడి	-6855
▁స్తాయి	-6856
▁చరిత్రలో	-6857
▁లక్షణాలు	-6858
▁గురయ్యారు	-6859
it	-6860
రోధక	-6861
▁క్లీ	-6862
▁ఘటనా	-6863
▁టాస్	-6864
▁వేసు	-6865
▁టైంలో	-6866
▁నెలకు	-6867
▁నువ్వు	-6868
▁రహదారి	-6869
▁సమాధాన	-6870
ాయన్నారు	-6871
▁దీపావళి	-6872
▁బతుకమ్మ	-6873
▁స్థాయికి	-6874
▁కోల్పోయిన	-6875
ir	-6876
కంలో	-6877
భద్ర	-6878
వాదం	-6879
వారీ	-6880
షియా	-6881
ినాడ	-6882
▁మేష	-6883
▁ಪ್ರ	-6884
పోవడం	-6885
▁ఇయర్	-6886
▁ఎదుట	-6887
▁విభే	-6888
▁ఐఏఎస్	-6889
▁ముగియ	-6890
▁రింగ్	-6891
▁వేలకు	-6892
▁సందీప్	-6893
▁ವಿಡಿಯೋ	-6894
▁కాకినాడ	-6895
▁గ్యాంగ్	-6896
▁డిగ్రీల	-6897
▁దారుణంగా	-6898
▁అసంతృప్తి	-6899
▁వెళ్లేందుకు	-6900
ధ్	-6901
▁ಚ	-6902
జీవ	-6903
▁గద్	-6904
▁భువ	-6905
▁మాస	-6906
▁సల్	-6907
▁పింఛ	-6908
▁మాన్	-6909
▁బ్యూటీ	-6910
▁అంటున్న	-6911
▁కలిశారు	-6912
▁గాయపడిన	-6913
▁రాయలసీమ	-6914
▁చేయాల్సిన	-6915
▁చేసుకున్నాడు	-6916
ab	-6917
▁5,	-6918
▁54	-6919
ట్టం	-6920
▁పల్	-6921
▁విల	-6922
▁గ్లా	-6923
▁రీసె	-6924
్యూటర్	-6925
▁జీవన్	-6926
▁పక్కా	-6927
▁పరిణా	-6928
▁బొమ్మ	-6929
▁లక్నో	-6930
▁వెయ్యి	-6931
మవుతోంది	-6932
▁క్రిమిన	-6933
▁బీసీసీఐ	-6934
▁రైజర్స్	-6935
▁కేటాయించ	-6936
▁ప్రజాప్ర	-6937
చరణ	-6938
▁in	-6939
వస్థ	-6940
సైటీ	-6941
▁అతడు	-6942
▁కీర్	-6943
▁చోరీ	-6944
▁దాస్	-6945
▁పాండ	-6946
▁సజ్జ	-6947
▁జయంతి	-6948
▁గెలుపొ	-6949
▁పెడితే	-6950
▁భూకంపం	-6951
▁సమాచార	-6952
▁సాధ్యం	-6953
▁జేడీఎస్	-6954
▁రాజేంద్ర	-6955
▁విషయాలను	-6956
▁కేంద్రానికి	-6957
ic	-6958
ବା	-6959
తగా	-6960
▁బస	-6961
నీటి	-6962
▁196	-6963
▁కృత	-6964
▁గరి	-6965
▁బడు	-6966
స్థాన	-6967
▁మేడ్	-6968
▁వెలి	-6969
▁కన్నీ	-6970
▁క్లాస్	-6971
▁స్ట్రీ	-6972
కోవాల్సి	-6973
▁నిబంధనలు	-6974
▁బ్యారేజీ	-6975
▁స్పోర్ట్స్	-6976
▁కేంద్రంలోని	-6977
▁మృతదేహాన్ని	-6978
్ర్	-6979
తుడు	-6980
పైకి	-6981
ప్రా	-6982
▁400	-6983
▁టెం	-6984
స్టుల	-6985
▁2017	-6986
▁తేలి	-6987
▁జడ్జి	-6988
▁తిప్ప	-6989
▁నడుపు	-6990
▁దోపిడీ	-6991
▁పొన్నం	-6992
▁ముఖ్యం	-6993
▁వినోద్	-6994
▁సివిల్	-6995
▁సొసైటీ	-6996
▁గ్రామాల	-6997
▁ఆందోళనకు	-6998
▁న్యాయమూర్తి	-6999
نے	-7000
లవరం	-7001
▁అఖి	-7002
▁అవా	-7003
▁ఇవ్	-7004
▁ఎంచ	-7005
▁తుఫ	-7006
ద్దాం	-7007
క్కులు	-7008
స్టేట్	-7009
▁ఆకర్ష	-7010
▁ఏర్పడ	-7011
▁నివసి	-7012
▁అనుభవం	-7013
▁సంఘాలు	-7014
▁చూడాలని	-7015
▁సెగ్మెంట్	-7016
▁నిర్లక్ష్యం	-7017
▁సమావేశానికి	-7018
మ్మా	-7019
▁జాన	-7020
యింట్	-7021
షింగ్	-7022
▁ఆడిన	-7023
▁తాత్	-7024
▁పన్న	-7025
▁విడా	-7026
కూడదని	-7027
▁రెస్ట	-7028
▁స్థలం	-7029
ారాబాద్	-7030
▁బీహార్	-7031
▁పెద్దలు	-7032
▁ధర్మాసనం	-7033
▁భద్రాచలం	-7034
▁వస్తున్నారు	-7035
▁పటి	-7036
▁సత్	-7037
▁గులా	-7038
▁దిగి	-7039
▁ఫేస్	-7040
▁హర్ష	-7041
▁గిరిజ	-7042
▁జిల్ల	-7043
▁తెలుపు	-7044
▁రైళ్లు	-7045
▁బస్సులు	-7046
▁రానుంది	-7047
▁తీసుకుంటే	-7048
▁ప్రాధాన్యం	-7049
▁ప్రజాప్రతిని	-7050
ol	-7051
ଛି	-7052
.20	-7053
యడం	-7054
▁తను	-7055
▁బడి	-7056
▁నెస్	-7057
▁బాలా	-7058
▁రాణి	-7059
కానికి	-7060
▁అడిగి	-7061
▁కల్తీ	-7062
▁తరహాలో	-7063
▁అంశాలను	-7064
▁పరిశీలి	-7065
▁రెస్టార	-7066
▁చేస్తాయి	-7067
▁ప్రాతిని	-7068
▁వ్యవస్థను	-7069
▁భావిస్తున్న	-7070
▁రాష్ట్రాలకు	-7071
▁Y	-7072
తాల	-7073
▁ఇష	-7074
క్రో	-7075
డేట్	-7076
▁కమలా	-7077
▁టూరి	-7078
▁మేడి	-7079
▁లుక్	-7080
▁వర్తి	-7081
▁అరుదైన	-7082
▁గాయాలు	-7083
▁టన్నుల	-7084
▁ప్రసంగ	-7085
▁మెసేజ్	-7086
▁లోకేశ్	-7087
▁స్కోర్	-7088
▁స్టాక్	-7089
▁వెల్లడి	-7090
▁ఒక్కొక్క	-7091
▁చేయలేదని	-7092
▁నిందితుల	-7093
▁భారతదేశం	-7094
▁భువనేశ్వ	-7095
▁దర్శకత్వంలో	-7096
ag	-7097
▁65	-7098
▁ವೈ	-7099
చారి	-7100
▁గౌత	-7101
▁మాల	-7102
▁తినే	-7103
▁వారంతా	-7104
▁ాల్సిన	-7105
నిస్తాన్	-7106
▁అన్యాయం	-7107
▁కంటెంట్	-7108
తున్నట్లు	-7109
▁కేసుల్లో	-7110
▁విషయానికి	-7111
▁వ్యాపారులు	-7112
ಿಯ	-7113
▁ధృ	-7114
▁కాంబ	-7115
▁కొని	-7116
▁చెరు	-7117
▁వేటు	-7118
▁ఆయిల్	-7119
▁ఊపిరి	-7120
▁కష్టం	-7121
స్తోన్న	-7122
▁ఆయన్ను	-7123
▁కల్వకు	-7124
▁చెందారు	-7125
▁సమస్యను	-7126
▁అందించిన	-7127
▁చెల్లించ	-7128
▁చేసుకొని	-7129
▁నిలిచారు	-7130
▁స్వతంత్ర	-7131
▁తాత్కాలిక	-7132
▁మారుతోంది	-7133
▁సార్వత్రిక	-7134
▁పరిస్థితిని	-7135
రద	-7136
▁ು	-7137
కాశం	-7138
▁తీర	-7139
▁పొగ	-7140
▁యోగం	-7141
▁కన్ను	-7142
▁హెలికా	-7143
▁అందించే	-7144
▁ఒకేసారి	-7145
▁ప్రశాంత	-7146
▁మేనేజర్	-7147
▁విశ్లేష	-7148
▁ఉద్యోగాల	-7149
▁చిన్నారు	-7150
▁కేంద్రంగా	-7151
▁నిర్వహించాలని	-7152
▁k	-7153
▁దౌ	-7154
▁యి	-7155
▁ఎలి	-7156
▁కలగ	-7157
▁మరు	-7158
▁....	-7159
▁నాన్న	-7160
మన్నారు	-7161
▁జరిపిన	-7162
▁యజమాని	-7163
▁క్షమాపణ	-7164
▁నిజానికి	-7165
▁ఆరోగ్యానికి	-7166
ec	-7167
▁*	-7168
ణిక	-7169
సార	-7170
భావం	-7171
ెంజ్	-7172
▁ఇవే	-7173
▁మహే	-7174
బెట్ట	-7175
స్తరు	-7176
▁భవనం	-7177
▁మలయా	-7178
▁కిందట	-7179
▁అధిష్ట	-7180
▁తలెత్త	-7181
▁పోయారు	-7182
▁మునిగి	-7183
▁విక్రమ్	-7184
▁హాస్టల్	-7185
▁అంతరిక్ష	-7186
▁తగ్గింది	-7187
పోతున్నారు	-7188
▁వర్గానికి	-7189
▁బెంగళూరులో	-7190
▁ఇస్తున్నారు	-7191
▁చూస్తున్నారు	-7192
▁చేస్తున్నాడు	-7193
▁బక	-7194
కుంట	-7195
దిగా	-7196
సభ్య	-7197
▁బయో	-7198
▁శిశు	-7199
▁సదరు	-7200
▁అనుభవ	-7201
▁నేతలను	-7202
▁వర్షాల	-7203
▁చేస్తాం	-7204
▁వేయాలని	-7205
▁హనుమాన్	-7206
▁స్టేడియం	-7207
థా	-7208
మనం	-7209
తంలో	-7210
ుకునే	-7211
▁ఎత్త	-7212
▁జీవన	-7213
▁పోతు	-7214
▁బంతి	-7215
▁సమంత	-7216
▁సీన్	-7217
▁ఏపీకి	-7218
▁కబ్జా	-7219
▁నిషేధ	-7220
▁పొందే	-7221
▁మల్కా	-7222
▁సమితి	-7223
▁కొట్టే	-7224
▁ప్రీమి	-7225
▁మహ్మద్	-7226
▁యాక్ట్	-7227
▁కర్నూలు	-7228
▁సాధించి	-7229
▁బంగాళాఖా	-7230
▁మొత్తంగా	-7231
▁సంక్షేమం	-7232
▁పెట్టాలని	-7233
▁పరిస్థితుల	-7234
لا	-7235
కాడ	-7236
▁-2	-7237
ట్లే	-7238
▁కోర	-7239
▁మంచ	-7240
▁తానే	-7241
ండడంతో	-7242
▁లీకేజీ	-7243
▁శ్రీకా	-7244
▁సందర్బ	-7245
▁బలోపేతం	-7246
▁ప్రభావంతో	-7247
▁జీహెచ్ఎంసీ	-7248
▁విధించింది	-7249
▁కాంట్రాక్టర్	-7250
▁m	-7251
సల్	-7252
▁మగ	-7253
జార్	-7254
జిన్	-7255
నాల్	-7256
లింగ	-7257
ారుల	-7258
▁దుబ	-7259
▁టూర్	-7260
▁ట్లే	-7261
▁బంద్	-7262
▁మానే	-7263
వచ్చని	-7264
▁ఫాస్ట్	-7265
▁సైన్యం	-7266
▁ఇచ్చాడు	-7267
▁మోస్తరు	-7268
▁తెలుగులో	-7269
▁పనిచేసిన	-7270
▁చనిపోయారు	-7271
▁చర్చించారు	-7272
▁చెప్తున్నారు	-7273
▁పట్టించుకోవడం	-7274
కత	-7275
తక	-7276
▁హే	-7277
వాణి	-7278
విటీ	-7279
▁మోట	-7280
ోత్సవ	-7281
▁తరచూ	-7282
▁రెజ్	-7283
▁స్వే	-7284
▁అంబటి	-7285
▁జీర్ణ	-7286
▁దక్కి	-7287
▁అర్బన్	-7288
▁ఖాతాలో	-7289
చారానికి	-7290
▁ఎన్డీయే	-7291
▁కష్టాలు	-7292
▁లక్ష్మణ్	-7293
▁విడుదలైన	-7294
▁అర్ధరాత్రి	-7295
▁ప్రపంచంలోనే	-7296
▁శాస్త్రవేత్తలు	-7297
చీ	-7298
ేశం	-7299
▁దామ	-7300
▁సిఫ	-7301
ప్టర్	-7302
▁2009	-7303
▁జియో	-7304
▁లోపల	-7305
▁పనిలో	-7306
▁మనోజ్	-7307
▁లండన్	-7308
▁మెరుపు	-7309
▁హామీలను	-7310
▁పరిణామాలు	-7311
▁న్యాయస్థానం	-7312
గౌ	-7313
▁59	-7314
▁హృ	-7315
తాబ్	-7316
నెట్	-7317
సిస్	-7318
▁దళి	-7319
▁మాధ	-7320
గాయని	-7321
వింగ్	-7322
▁అబ్బ	-7323
▁చాట్	-7324
▁టెలి	-7325
▁డ్రో	-7326
▁తీసే	-7327
▁లాభం	-7328
▁వంతు	-7329
▁కేసుల	-7330
▁చిరుత	-7331
▁నియమి	-7332
▁భూపాల	-7333
▁స్థిర	-7334
▁ఉగ్రవా	-7335
▁టేబుల్	-7336
▁నిషేధం	-7337
▁విరుద్ధ	-7338
▁ఆసక్తికర	-7339
▁క్రెడిట్	-7340
▁బీజేపీతో	-7341
▁ఖచ్చితంగా	-7342
▁అధ్యక్షులు	-7343
ంటో	-7344
పిల్	-7345
▁ఏది	-7346
▁అజయ్	-7347
▁అమర్	-7348
ఫాబాద్	-7349
▁అద్దె	-7350
▁దీర్ఘ	-7351
▁నరసింహ	-7352
▁వద్దని	-7353
▁వేర్వే	-7354
▁ఆస్తులు	-7355
▁చేయడంలో	-7356
▁యువకులు	-7357
▁సపోర్ట్	-7358
▁పనిచేశారు	-7359
▁వ్యతిరేకత	-7360
▁ఎలక్ట్రిక్	-7361
▁X	-7362
ంగో	-7363
▁కొంచ	-7364
▁అనుకో	-7365
▁చార్జి	-7366
▁వివాదా	-7367
▁సహకారం	-7368
▁నిలిచిన	-7369
▁పర్యావరణ	-7370
▁సినిమాపై	-7371
▁స్టార్ట్	-7372
▁హనుమకొండ	-7373
▁పోలీసులను	-7374
▁వస్తువులు	-7375
▁టం	-7376
▁వ్	-7377
▁నేల	-7378
వాలని	-7379
ార్జ్	-7380
▁ఇండ్	-7381
▁ఉండా	-7382
▁తవ్వ	-7383
ుకుంది	-7384
▁కుమార	-7385
▁దాడిలో	-7386
▁మావోయి	-7387
▁చేపట్టాలని	-7388
▁స్టూడెంట్స్	-7389
▁ह	-7390
▁ూ	-7391
ాంగ	-7392
ుని	-7393
▁ఊర	-7394
▁అదృ	-7395
▁సగం	-7396
గుట్ట	-7397
▁నెక్	-7398
▁తప్పి	-7399
▁మిల్ల	-7400
టప్పుడు	-7401
▁ఉత్తమ్	-7402
▁సొమ్ము	-7403
▁సోదరుడు	-7404
▁నగరంలోని	-7405
di	-7406
ధన	-7407
ందరూ	-7408
▁దయా	-7409
▁వంత	-7410
▁జట్ల	-7411
▁రాసి	-7412
▁శ్రమ	-7413
కాలంగా	-7414
▁స్టీల్	-7415
▁నెరవేర్చ	-7416
▁పండితులు	-7417
▁రాజేందర్	-7418
▁ఇచ్చేందుకు	-7419
▁తెల్లవారుజామున	-7420
డె	-7421
ఐఎం	-7422
లనం	-7423
▁ఎఫ	-7424
టుగా	-7425
మైతే	-7426
▁ందే	-7427
▁ఐదో	-7428
▁బండ	-7429
▁సంక	-7430
చర్లు	-7431
రియల్	-7432
▁కండు	-7433
▁ధన్య	-7434
ట్యూట్	-7435
▁ొచ్చు	-7436
▁చైతన్య	-7437
▁తుమ్మల	-7438
▁తెచ్చి	-7439
▁పోయాయి	-7440
▁బుమ్రా	-7441
▁వచ్చని	-7442
▁స్వచ్ఛ	-7443
▁ఇన్వెస్	-7444
▁ప్రాంతాలు	-7445
▁రెగ్యులర్	-7446
▁మొత్తాన్ని	-7447
▁వికారాబాద్	-7448
▁వ్యాఖ్యలపై	-7449
▁సిద్ధరామయ్య	-7450
▁రాష్ట్రాన్ని	-7451
▁ح	-7452
నంద	-7453
మాల	-7454
▁పల	-7455
డారు	-7456
మెన్	-7457
యితే	-7458
▁గమని	-7459
▁పురో	-7460
▁బాయ్	-7461
మాన్ని	-7462
▁కొబ్బ	-7463
▁పురస్	-7464
▁మహేశ్	-7465
▁ఉద్యమం	-7466
▁ఫోన్లు	-7467
▁సదస్సు	-7468
▁దగ్గరకు	-7469
▁ాలన్నారు	-7470
▁అంగీకరించ	-7471
▁ముగిసింది	-7472
▁యుక్రెయిన్	-7473
▁భవిష్యత్తులో	-7474
▁తెలుసుకున్నారు	-7475
ూర	-7476
దిన	-7477
▁51	-7478
▁మిశ	-7479
▁ఎవరో	-7480
మానికి	-7481
▁అబద్ధ	-7482
▁ఇస్లా	-7483
▁పార్ట్	-7484
▁ఫిక్స్	-7485
▁సైన్స్	-7486
▁భూములను	-7487
▁విస్తరణ	-7488
▁నినాదాలు	-7489
▁చిత్రాన్ని	-7490
▁శంకుస్థాపన	-7491
▁43	-7492
▁ہم	-7493
ళ్లే	-7494
▁తోట	-7495
కొత్త	-7496
దిద్ద	-7497
▁అనర్	-7498
▁ఇకపై	-7499
▁డీసీ	-7500
▁మళ్ల	-7501
▁శ్రా	-7502
▁సాగి	-7503
▁సుధా	-7504
▁వైయస్	-7505
▁సచిన్	-7506
▁ారన్న	-7507
▁కావాలి	-7508
▁రాశిలో	-7509
▁వార్తా	-7510
▁సంగీతం	-7511
▁అమ్మవారి	-7512
▁ఇచ్చారని	-7513
▁పర్యటనలో	-7514
బియా	-7515
▁జరప	-7516
▁రకర	-7517
స్తాం	-7518
ైర్యం	-7519
▁కూల్	-7520
ల్దార్	-7521
▁కట్టి	-7522
▁తుంది	-7523
▁మౌలిక	-7524
▁ఆప్షన్	-7525
▁వారంలో	-7526
▁సృష్టి	-7527
▁ఎస్టేట్	-7528
▁విభాగంలో	-7529
▁సరికొత్త	-7530
▁కావాల్సిన	-7531
▁ఎమ్మెల్యేల	-7532
▁నిందితులను	-7533
▁నిర్మించారు	-7534
చన	-7535
డవు	-7536
ూల్	-7537
▁56	-7538
సేన్	-7539
▁ఈవో	-7540
▁ఊరు	-7541
సెంట్	-7542
▁చంపే	-7543
▁త్యా	-7544
▁వేరు	-7545
▁స్తం	-7546
▁హస్త	-7547
▁చర్చి	-7548
▁దారుణ	-7549
▁మస్క్	-7550
▁కొద్దీ	-7551
▁ట్రోఫీ	-7552
▁పదేళ్ల	-7553
▁పోలవరం	-7554
▁ఆంక్షలు	-7555
▁పత్రాలు	-7556
▁ప్రార్థ	-7557
▁మధ్యంతర	-7558
▁చెబుతారు	-7559
▁సమస్యలపై	-7560
▁ాయన్నారు	-7561
▁ఉపయోగించి	-7562
▁పార్టీలోకి	-7563
▁ప్రత్యర్థి	-7564
▁భూపాలపల్లి	-7565
▁అవకాశముందని	-7566
▁చేస్తామన్నారు	-7567
▁a	-7568
ರಲ್	-7569
లార్	-7570
▁వాన	-7571
▁మినహ	-7572
▁మూసీ	-7573
▁యూత్	-7574
▁రూట్	-7575
లానికి	-7576
▁కొంచెం	-7577
▁తెలుసా	-7578
▁సేవలను	-7579
▁హక్కుల	-7580
▁కింగ్స్	-7581
▁చివరికి	-7582
▁మేడ్చల్	-7583
▁కురుస్తాయని	-7584
▁ప్రారంభించింది	-7585
కడ	-7586
▁ఎంజ	-7587
▁తేజ	-7588
▁నీర	-7589
టేషన్	-7590
పించే	-7591
▁డెడ్	-7592
▁మెన్	-7593
▁ందుకే	-7594
▁నాశనం	-7595
▁పట్టా	-7596
▁పనికి	-7597
▁లభించ	-7598
▁ವೈರಲ್	-7599
▁ఆదేశాల	-7600
▁క్రైమ్	-7601
▁విచారణను	-7602
▁పొందుతారు	-7603
▁పెడుతున్నారు	-7604
um	-7605
▁e	-7606
ంపి	-7607
అని	-7608
మల్	-7609
▁ಿಸ	-7610
మూరి	-7611
వర్తి	-7612
▁పదవీ	-7613
▁వెయి	-7614
▁ఐసీసీ	-7615
▁రిటర్	-7616
తుంటారు	-7617
▁గెలుచుకు	-7618
▁ప్రమోషన్	-7619
▁రోడ్డుపై	-7620
▁శాతానికి	-7621
▁మమ	-7622
▁నైట్	-7623
▁లావా	-7624
▁స్థా	-7625
▁పంటలు	-7626
▁షుగర్	-7627
▁చెట్టు	-7628
▁పేలుడు	-7629
▁ఫోటోలు	-7630
▁అయ్యాడు	-7631
▁ఛత్తీస్	-7632
▁పోతుంది	-7633
▁రోడ్లపై	-7634
▁సింగిల్	-7635
▁నాంపల్లి	-7636
▁ఆరోగ్యంగా	-7637
▁భావించారు	-7638
▁అందించాలని	-7639
▁సిద్దరామయ్య	-7640
ంబి	-7641
▁య్	-7642
ప్స్	-7643
సైజ్	-7644
▁ంచి	-7645
▁ఆరం	-7646
▁ముహ	-7647
శ్వాస	-7648
▁చేతి	-7649
▁మిని	-7650
▁ఆదర్శ	-7651
▁చేశాం	-7652
▁పరిసర	-7653
▁విత్త	-7654
▁అనారోగ	-7655
▁ఆలస్యం	-7656
▁కుంభకో	-7657
▁క్యాంప	-7658
▁ఫోర్లు	-7659
▁వాహనాల	-7660
▁సంతోష్	-7661
▁రైతులను	-7662
▁ఇవ్వలేదు	-7663
▁రీసెర్చ్	-7664
▁నిరుద్యోగ	-7665
▁నిలదీశారు	-7666
▁జీవితాన్ని	-7667
un	-7668
ର୍	-7669
జాల	-7670
ికీ	-7671
కెళ్ల	-7672
▁సేవా	-7673
ప్పులు	-7674
▁జరిమా	-7675
▁పవార్	-7676
▁లబ్ది	-7677
▁శతాబ్	-7678
▁ఏకాదశి	-7679
▁పత్రిక	-7680
▁ప్రాక్	-7681
▁బిజీగా	-7682
▁గ్రాండ్	-7683
▁ప్రయోజనం	-7684
▁బంధువులు	-7685
▁స్ఫూర్తి	-7686
▁క్రిమినల్	-7687
▁ఉద్దేశించి	-7688
▁ఫిర్యాదులు	-7689
▁కల్పించాలని	-7690
▁తెలంగాణలోని	-7691
మం	-7692
▁स	-7693
▁అథ	-7694
▁ఓటే	-7695
▁రాణ	-7696
▁సరే	-7697
▁వరదల	-7698
వాదాలు	-7699
▁అరుణ్	-7700
▁కోరిన	-7701
▁ఆరుగురు	-7702
▁ఎగ్జిట్	-7703
▁దంపతులు	-7704
▁పరిష్కరించ	-7705
▁స్పందిస్తూ	-7706
▁మల్లారెడ్డి	-7707
ଙ୍	-7708
షన	-7709
దండ	-7710
▁గై	-7711
▁శీ	-7712
డేజా	-7713
ాయత్	-7714
▁అంజ	-7715
▁నిమ	-7716
▁హృద	-7717
వర్గం	-7718
▁తయార	-7719
▁నెలా	-7720
▁వెను	-7721
ద్వారా	-7722
▁జడేజా	-7723
▁ప్రయో	-7724
▁కిడ్నా	-7725
▁నమోదైన	-7726
▁ఫలితాల	-7727
▁రూపాయి	-7728
▁శ్రద్ధ	-7729
▁ట్రెండ్	-7730
▁చిత్రంలో	-7731
▁ఏర్పాటుకు	-7732
▁ఒలింపిక్స్	-7733
▁ఫల	-7734
▁ుల	-7735
క్వా	-7736
శాయి	-7737
▁కంగ	-7738
▁ధను	-7739
▁బీఐ	-7740
వులకు	-7741
▁గుప్	-7742
▁శారీ	-7743
▁శ్యా	-7744
▁కన్వీ	-7745
▁కూడదు	-7746
▁సునీత	-7747
▁హామీల	-7748
▁అడిగిన	-7749
▁ఏడాదికి	-7750
▁డబ్ల్యూ	-7751
▁సినిమాల	-7752
▁ఇండియాలో	-7753
▁నిలిపివే	-7754
▁ప్రతికూల	-7755
▁వ్యవసాయం	-7756
▁విపరీతంగా	-7757
▁ఉంటున్నారు	-7758
▁జరగనున్నాయి	-7759
▁ప్రత్యేకమైన	-7760
▁షె	-7761
▁పెడ	-7762
చింగ్	-7763
▁అంతర	-7764
▁అనూహ	-7765
▁కొరత	-7766
▁మిలి	-7767
▁మీట్	-7768
▁రోల్	-7769
▁ఆలోచి	-7770
▁క్లబ్	-7771
▁మత్తు	-7772
▁రౌండ్	-7773
▁వేసవి	-7774
▁సరికా	-7775
▁పక్కనే	-7776
▁విషాదం	-7777
▁దేశాలకు	-7778
▁సమాజంలో	-7779
▁బిల్లులు	-7780
▁భిన్నంగా	-7781
▁ఆసిఫాబాద్	-7782
▁శ్రీకాంత్	-7783
▁స్వాతంత్ర	-7784
▁చేస్తోందని	-7785
పారు	-7786
లాడు	-7787
లూరు	-7788
▁ఉపశ	-7789
గాలని	-7790
▁ఓటర్ల	-7791
▁జీఎస్	-7792
▁సురేఖ	-7793
▁స్ట్ర	-7794
▁దూకుడు	-7795
ించుకునే	-7796
▁కర్నూల్	-7797
▁వెళ్లడం	-7798
▁రాష్ట్రాలు	-7799
▁అనుకుంటున్న	-7800
▁నిర్వహిస్తారు	-7801
హర	-7802
▁ع	-7803
▁म	-7804
▁ای	-7805
మూరు	-7806
▁చలి	-7807
▁వ్ర	-7808
వన్నీ	-7809
▁ఆశలు	-7810
▁బెంచ్	-7811
▁రెండి	-7812
▁తీరుపై	-7813
▁రూల్స్	-7814
▁కార్తీక	-7815
▁క్రమంగా	-7816
▁పునరుద్ధ	-7817
▁బీజేపీని	-7818
▁ప్రారంభమైన	-7819
ରେ	-7820
వార	-7821
▁ఈట	-7822
▁పైల	-7823
▁చూశా	-7824
▁రాని	-7825
▁ఎస్సై	-7826
▁కాంప్	-7827
▁తక్షణ	-7828
▁ట్రీట్	-7829
▁ప్రియు	-7830
▁రెస్పా	-7831
▁శివారు	-7832
▁నిధులను	-7833
▁మండలంలో	-7834
▁యాదగిరి	-7835
▁సిస్టమ్	-7836
▁పాల్గొని	-7837
▁వర్షపాతం	-7838
▁భద్రాద్రి	-7839
▁వర్గాల్లో	-7840
▁నిర్ణయాన్ని	-7841
▁పెరుగుతోంది	-7842
ାନ	-7843
ಾಗಿ	-7844
▁57	-7845
▁7,	-7846
▁77	-7847
▁ఆర	-7848
లీట్	-7849
ష్యం	-7850
▁194	-7851
కోలేక	-7852
పూర్ణ	-7853
▁అవమా	-7854
▁తహసీ	-7855
▁భారం	-7856
లెక్స్	-7857
▁కీపర్	-7858
▁గౌరవం	-7859
▁యూజర్	-7860
▁రకాలు	-7861
▁సమ్మె	-7862
▁ఆర్ఎస్	-7863
▁కృతజ్ఞ	-7864
▁వ్యవహర	-7865
కారానికి	-7866
▁అశ్విన్	-7867
▁కస్టమర్	-7868
▁ఇంటర్నెట్	-7869
▁వ్యవహారాల	-7870
▁పరిశీలించి	-7871
▁ఇంజినీరింగ్	-7872
▁వచ్చినప్పుడు	-7873
దాయ	-7874
▁58	-7875
▁లోతు	-7876
▁లోన్	-7877
▁శాఖల	-7878
▁హాని	-7879
▁ఆయనపై	-7880
▁చేయడమే	-7881
▁ఫిల్మ్	-7882
▁ించారు	-7883
▁ఎక్సైజ్	-7884
▁కంపెనీల	-7885
▁జట్టును	-7886
▁నిర్ధార	-7887
▁తెలిపాడు	-7888
▁రావాల్సి	-7889
▁కేటాయింపు	-7890
▁విధానాన్ని	-7891
▁తీసుకెళ్లారు	-7892
▁52	-7893
నీరు	-7894
▁ఖరీ	-7895
▁దర్	-7896
▁నెహ	-7897
▁వని	-7898
▁కనీస	-7899
▁దారిత	-7900
▁వరుణ్	-7901
ప్రసాద్	-7902
▁ఎనర్జీ	-7903
▁విడిచి	-7904
▁శెట్టి	-7905
▁సెర్చ్	-7906
▁ఉంటారని	-7907
▁తీర్పును	-7908
▁ప్రోత్సహ	-7909
▁వార్నింగ్	-7910
▁నటిస్తున్న	-7911
▁అభ్యర్థులకు	-7912
▁చేయాలన్నారు	-7913
▁నాగేశ్వరరావు	-7914
భై	-7915
చర్ల	-7916
▁وائ	-7917
▁వాద	-7918
▁ఆధిక	-7919
▁సవరణ	-7920
▁శాశ్వ	-7921
▁ఒక్కరూ	-7922
▁కార్యా	-7923
▁పండ్లు	-7924
▁రిజర్వ	-7925
▁లిస్టు	-7926
త్వాన్ని	-7927
స్తుండగా	-7928
▁వికెట్ల	-7929
▁స్వేచ్ఛ	-7930
ించాల్సిన	-7931
▁అమెరికన్	-7932
▁ఒకప్పుడు	-7933
▁గెలిచారు	-7934
▁రంగాల్లో	-7935
▁రెండేళ్ల	-7936
▁చెప్పినట్లు	-7937
క్ల	-7938
న్నె	-7939
▁కలవ	-7940
రులను	-7941
రెంట్	-7942
▁గాలు	-7943
▁తేజ్	-7944
▁న్నీ	-7945
▁బూత్	-7946
▁ఎడ్యు	-7947
▁చిక్క	-7948
▁పత్తి	-7949
▁పిండి	-7950
▁బెల్ల	-7951
▁వేయడం	-7952
కుతున్న	-7953
▁కార్డ్	-7954
▁పోటీలో	-7955
▁మొగ్గు	-7956
▁రాజన్న	-7957
▁అందువల్ల	-7958
▁విదేశాంగ	-7959
▁విరుచుకు	-7960
▁సిలిండర్	-7961
▁హెచ్చరికలు	-7962
▁గ్రామస్తులు	-7963
▁न	-7964
గాడు	-7965
డార్	-7966
ల్తా	-7967
▁ఆమ్	-7968
▁పశు	-7969
▁శోభ	-7970
▁సుధ	-7971
ందరగో	-7972
▁గారి	-7973
▁అలియా	-7974
▁చేరిక	-7975
▁నైపుణ	-7976
▁వదులు	-7977
▁సజ్జల	-7978
▁ాలంటే	-7979
▁గందరగో	-7980
▁నెట్టి	-7981
▁సంక్షో	-7982
▁ఇస్తారు	-7983
▁ప్రత్యా	-7984
▁ఉపయోగించ	-7985
▁దేశాన్ని	-7986
▁ప్రశంసలు	-7987
▁విమానంలో	-7988
▁తెరకెక్కి	-7989
▁దినోత్సవం	-7990
▁పడుతుందని	-7991
▁మండలాల్లో	-7992
▁ఇంటర్వ్యూలో	-7993
▁బాధపడుతున్న	-7994
ai	-7995
పరు	-7996
▁99	-7997
మేజ్	-7998
▁ఉస్	-7999
▁అడవి	-8000
▁ఎలాగ	-8001
▁ధ్రు	-8002
▁అడ్డం	-8003
▁బాధిత	-8004
▁లాంగ్	-8005
▁కాలేజ్	-8006
▁పదవులు	-8007
▁సిక్స్	-8008
▁పరీక్షల	-8009
▁టీపీసీసీ	-8010
▁శ్రేణులు	-8011
▁సభ్యులతో	-8012
▁వెళ్లింది	-8013
▁వ్యక్తికి	-8014
▁జరిగినట్లు	-8015
▁రెస్టారెంట్	-8016
ur	-8017
పిన	-8018
వంగా	-8019
సీబీ	-8020
ంజనేయ	-8021
ంటినీ	-8022
యాలను	-8023
లేషన్	-8024
▁ధోనీ	-8025
▁ఫిట్	-8026
▁ముడి	-8027
▁రాధా	-8028
సానికి	-8029
▁గౌతమ్	-8030
▁డయాబె	-8031
▁సైనిక	-8032
▁ఉప్పల్	-8033
▁జూబ్లీ	-8034
▁పోల్స్	-8035
▁కొట్టిన	-8036
▁చేయాలనే	-8037
▁జరిమానా	-8038
▁పడుతోంది	-8039
▁భాగంగానే	-8040
▁అనుమానాలు	-8041
▁కమ్యూనిటీ	-8042
▁ప్రారంభమైంది	-8043
▁రిజర్వేషన్లు	-8044
దవ	-8045
బొ	-8046
▁خ	-8047
ామం	-8048
▁భర	-8049
క్యం	-8050
నేని	-8051
ల్లే	-8052
వీర్	-8053
▁లైస	-8054
రులకు	-8055
▁నైనా	-8056
▁పేదల	-8057
▁వైట్	-8058
▁తీర్థ	-8059
▁పరికర	-8060
▁మళ్ళీ	-8061
▁విధ్వ	-8062
▁సీఈవో	-8063
▁అంబానీ	-8064
▁అభినంద	-8065
▁ఏజెంట్	-8066
▁కారణాల	-8067
▁ఏళ్లుగా	-8068
▁అభ్యంతరం	-8069
▁స్థితిలో	-8070
▁ప్రత్యామ్	-8071
▁ప్లాస్టిక్	-8072
▁క్యారెక్టర్	-8073
▁ప్రతిపక్షాలు	-8074
బడ	-8075
శిక్	-8076
ష్టి	-8077
ెన్న	-8078
▁లవ్	-8079
▁కాలా	-8080
▁నింప	-8081
▁వీసా	-8082
▁శైలి	-8083
▁సేవల	-8084
▁ఇరిగే	-8085
▁దిగ్గ	-8086
▁పూర్వ	-8087
▁వర్షా	-8088
చేందుకు	-8089
▁కీర్తి	-8090
▁కౌశిక్	-8091
▁గోపాల్	-8092
▁బొగ్గు	-8093
▁మైక్రో	-8094
▁వెస్ట్	-8095
▁అభిషేక్	-8096
▁గట్టిగా	-8097
▁టప్పుడు	-8098
▁బ్యానర్	-8099
▁మల్లన్న	-8100
▁ఇరిగేషన్	-8101
▁చూసేందుకు	-8102
▁చేపట్టింది	-8103
▁దరఖాస్తులు	-8104
ند	-8105
ଡି	-8106
తకు	-8107
▁କରି	-8108
▁యంగ్	-8109
▁క్రీడ	-8110
▁నిమ్మ	-8111
▁మీదకు	-8112
▁లాంచ్	-8113
▁ఫొటోలు	-8114
▁సంచలనం	-8115
భివృద్ధి	-8116
▁పేర్లను	-8117
▁శుభవార్	-8118
▁కనిపించే	-8119
▁విద్యాశాఖ	-8120
▁చేస్తున్నా	-8121
▁విజయవంతంగా	-8122
▁స్టాగ్రామ్	-8123
▁అణ	-8124
వైసీ	-8125
▁దాట	-8126
▁భయా	-8127
▁వృష	-8128
భారత్	-8129
ెట్లు	-8130
▁కాబో	-8131
▁బేస్	-8132
▁అప్పుల	-8133
▁ఖాయమని	-8134
▁గద్వాల	-8135
▁చేసేలా	-8136
▁అనుమాని	-8137
▁డాలర్లు	-8138
▁టీడీపీకి	-8139
▁సభ్యులకు	-8140
▁ఆహ్వానించ	-8141
▁ధన్యవాదాలు	-8142
▁కోరుకుంటున్న	-8143
▁తీసుకున్నట్లు	-8144
బడు	-8145
క్కీ	-8146
నూరు	-8147
షియం	-8148
▁ందో	-8149
కులతో	-8150
గాంధీ	-8151
▁2025	-8152
▁అల్ప	-8153
▁పాము	-8154
▁పేట్	-8155
▁ఈదురు	-8156
▁ఏడుగు	-8157
▁గుట్ట	-8158
▁తింటే	-8159
▁ఏఐసీసీ	-8160
▁ఛానెల్	-8161
▁దారితీ	-8162
▁విలీనం	-8163
▁అమెజాన్	-8164
▁ఆఫీసులో	-8165
▁కాశ్మీర్	-8166
▁జరగకుండా	-8167
▁పాయింట్ల	-8168
థో	-8169
▁ଯ	-8170
క్టు	-8171
సులో	-8172
▁గెల	-8173
▁తామ	-8174
▁రష్	-8175
▁శంష	-8176
గులకు	-8177
ాలుగా	-8178
▁ఎమర్	-8179
▁జేపీ	-8180
▁పచ్చ	-8181
▁రాయి	-8182
▁లోపం	-8183
▁వర్గ	-8184
▁చర్మం	-8185
పోయారని	-8186
▁చెబుతూ	-8187
▁ధైర్యం	-8188
▁మ్యాన్	-8189
▁లెక్కి	-8190
▁శ్రీశై	-8191
▁సేఫ్టీ	-8192
మవుతున్న	-8193
వినియోగం	-8194
▁అంశాన్ని	-8195
▁గెలిస్తే	-8196
▁శంషాబాద్	-8197
▁చూపించారు	-8198
▁జగన్మోహన్	-8199
▁మొదటిసారి	-8200
▁శరీరానికి	-8201
▁పిలుస్తారు	-8202
▁ఆరోపిస్తున్నారు	-8203
ion	-8204
టాల	-8205
▁پی	-8206
ందన్	-8207
దేవీ	-8208
బ్బు	-8209
▁అలం	-8210
▁మ్మ	-8211
▁రక్	-8212
▁రిప	-8213
త్మిక	-8214
▁కళ్ల	-8215
▁కాపు	-8216
▁జీపీ	-8217
▁థ్రి	-8218
▁నచ్చ	-8219
▁పంత్	-8220
▁ప్పు	-8221
▁బ్యూ	-8222
▁లేదో	-8223
▁ఎంఐఎం	-8224
▁దర్శన	-8225
▁పోవడం	-8226
▁మైంది	-8227
▁తీర్చి	-8228
▁తుపాను	-8229
▁రకరకాల	-8230
▁సాయంతో	-8231
▁చేయాలను	-8232
▁రవీందర్	-8233
▁అనంతపురం	-8234
▁లావాదేవీ	-8235
▁చెప్పడంతో	-8236
▁ప్రయాణికుల	-8237
▁విగ్రహాన్ని	-8238
▁బెంగళూరులోని	-8239
ంఠ	-8240
▁ڈ	-8241
ఏసీ	-8242
▁6,	-8243
▁63	-8244
▁78	-8245
▁نہ	-8246
▁కుర	-8247
▁మసీ	-8248
జేషన్	-8249
ెత్తి	-8250
ేశాడు	-8251
▁ఐఆర్	-8252
ంపులకు	-8253
దాబాద్	-8254
స్టార్	-8255
▁కాన్ఫ	-8256
▁తట్టు	-8257
▁రుతుప	-8258
▁డ్యూటీ	-8259
▁దొరుకు	-8260
▁నిదర్శ	-8261
▁రాకెట్	-8262
▁వయసులో	-8263
▁అందరినీ	-8264
▁తరుణంలో	-8265
▁బాధితుల	-8266
▁ఆందోళనలు	-8267
▁చెన్నూరు	-8268
▁జాబితాను	-8269
▁జార్ఖండ్	-8270
▁కార్యాచరణ	-8271
▁జిల్లాలకు	-8272
▁వ్యతిరేకి	-8273
▁మెగాస్టార్	-8274
▁కేటాయించారు	-8275
▁ప్రచారాన్ని	-8276
▁సురక్షితంగా	-8277
▁కేంద్రమంత్రి	-8278
▁నియోజకవర్గాల	-8279
ew	-8280
మర	-8281
▁ط	-8282
ండో	-8283
డ్యు	-8284
▁ఆత్	-8285
▁ఫాం	-8286
▁ారట	-8287
▁ఒంటి	-8288
▁కారం	-8289
▁తండా	-8290
▁తిరి	-8291
▁వీధి	-8292
▁ఇదంతా	-8293
▁భయంతో	-8294
▁ఓపెనర్	-8295
▁ట్రైన్	-8296
▁నామినే	-8297
▁ఇవ్వాలి	-8298
▁ఉద్యోగి	-8299
▁నిరసనలు	-8300
▁పరిపాలన	-8301
▁శ్రీహరి	-8302
▁కార్డులు	-8303
▁తీసుకురా	-8304
▁వినిపించ	-8305
▁దేవస్థానం	-8306
▁మార్గదర్శ	-8307
▁సంక్రాంతి	-8308
▁తీసుకెళ్లి	-8309
▁నిర్వాహకులు	-8310
పన	-8311
▁ಶ	-8312
టైన	-8313
కమైన	-8314
రినీ	-8315
లీష్	-8316
▁195	-8317
▁చేత	-8318
▁దిల్	-8319
▁నివస	-8320
▁మామూ	-8321
▁వాడే	-8322
త్తుగా	-8323
▁చేతుల	-8324
▁శ్రావ	-8325
▁నెహ్రూ	-8326
▁నిబంధనల	-8327
▁ప్రకాశ్	-8328
▁సెలవులు	-8329
▁ఆలస్యంగా	-8330
▁కన్వీనర్	-8331
▁ఉద్దేశంతో	-8332
▁ట్యాపింగ్	-8333
▁విధించారు	-8334
▁కార్యకర్తల	-8335
▁ప్రజల్లోకి	-8336
▁వివాదాస్పద	-8337
▁కేంద్రాల్లో	-8338
رل	-8339
జీల	-8340
దలకు	-8341
దానం	-8342
లిన్	-8343
శ్రీ	-8344
▁ంతా	-8345
▁ఎడి	-8346
▁మొహ	-8347
▁సుఖ	-8348
▁అఖిల	-8349
▁కానుక	-8350
▁బకాయి	-8351
▁వ్యూహ	-8352
▁స్టడీ	-8353
ించడంతో	-8354
▁చర్చకు	-8355
▁వేగంతో	-8356
▁పడ్డాయి	-8357
▁వాణిజ్య	-8358
▁పథకాన్ని	-8359
▁ఉష్ణోగ్రత	-8360
▁ప్రాతినిధ్యం	-8361
షు	-8362
▁،	-8363
ాలూ	-8364
వితే	-8365
▁ఏమా	-8366
▁చిక	-8367
మయ్యే	-8368
▁గానూ	-8369
▁పాజి	-8370
▁సమాన	-8371
▁పచ్చి	-8372
▁పునర్	-8373
▁మెదడు	-8374
▁రిపబ్	-8375
▁వర్గీ	-8376
▁వెస్టి	-8377
▁ఏమాత్రం	-8378
▁క్యాడర్	-8379
▁లక్షలకు	-8380
▁వార్షిక	-8381
▁సల్మాన్	-8382
▁తెలంగాణా	-8383
▁పర్మిషన్	-8384
▁చెప్పారని	-8385
▁పట్టుకుని	-8386
▁కౌన్సిలర్లు	-8387
▁తప్పనిసరిగా	-8388
▁వెస్టిండీస్	-8389
▁పరిస్థితులను	-8390
▁చేసుకుంటున్నారు	-8391
చా	-8392
వృ	-8393
పీడ	-8394
లాట	-8395
▁66	-8396
▁మర్	-8397
▁కుదు	-8398
▁ముఖం	-8399
▁రజనీ	-8400
▁బయటపడ	-8401
▁రహస్య	-8402
▁రెండవ	-8403
▁శ్వాస	-8404
▁కాల్స్	-8405
▁పోటీకి	-8406
▁మందులు	-8407
▁ఒంటరిగా	-8408
▁క్యాంప్	-8409
▁పరిమితం	-8410
▁ఎలక్ట్రా	-8411
▁ప్రాంతీయ	-8412
▁స్థానాలను	-8413
▁కార్పొరేట్	-8414
▁నమోదయ్యాయి	-8415
▁విదేశాల్లో	-8416
▁కాంప్లెక్స్	-8417
▁w	-8418
ధిప	-8419
పడా	-8420
▁64	-8421
▁కమీ	-8422
▁కరి	-8423
▁హేమ	-8424
▁అంకి	-8425
▁రిపే	-8426
▁వాసు	-8427
మ్రాన్	-8428
▁ఆదివా	-8429
▁ఇందిర	-8430
▁ఎంజాయ్	-8431
▁పుట్టి	-8432
▁బాగానే	-8433
▁మెయిన్	-8434
▁సానుకూల	-8435
▁కట్టుబడి	-8436
▁దక్కింది	-8437
▁నిమిత్తం	-8438
▁అధిష్టానం	-8439
▁సుప్రీంకోర్టులో	-8440
టప్	-8441
మంత	-8442
▁(5	-8443
▁69	-8444
టాన్	-8445
టీన్	-8446
▁తడి	-8447
▁రాగా	-8448
▁రుచి	-8449
▁రైస్	-8450
▁శిబి	-8451
▁ఇస్తూ	-8452
▁దక్కు	-8453
▁సంతకం	-8454
▁చేతికి	-8455
▁లేదంటూ	-8456
▁నెలలుగా	-8457
▁పథకాలను	-8458
▁ప్రకాశం	-8459
▁బ్రహ్మో	-8460
▁మీడియాకు	-8461
▁బాధితులకు	-8462
▁వంశీకృష్ణ	-8463
▁కొనసాగుతుంది	-8464
▁బంగాళాఖాతంలో	-8465
వరూ	-8466
▁కాద	-8467
▁మైస	-8468
ృతంగా	-8469
▁టోల్	-8470
▁బ్లూ	-8471
▁భావన	-8472
▁మరణం	-8473
▁రేణు	-8474
▁ాలనే	-8475
▁తలుపు	-8476
▁నివాళ	-8477
మెంట్స్	-8478
▁క్లిక్	-8479
▁గద్దర్	-8480
▁బ్రహ్మ	-8481
▁రేట్లు	-8482
▁ఎమోషనల్	-8483
▁ప్రకృతి	-8484
▁ఇస్తుంది	-8485
▁కిడ్నాప్	-8486
▁డైరెక్ట్	-8487
▁ఇవ్వకుండా	-8488
▁ఉపాధ్యక్ష	-8489
▁ప్రతిష్టా	-8490
▁కేటాయించిన	-8491
▁ప్రభుత్వమే	-8492
▁కుమారస్వామి	-8493
▁రెండుసార్లు	-8494
▁అందిస్తున్నారు	-8495
చర	-8496
esh	-8497
కోట	-8498
గలి	-8499
ಾವು	-8500
▁ఆభ	-8501
గిరీ	-8502
▁ఈటల	-8503
▁ఘనత	-8504
▁పరో	-8505
▁మూల	-8506
ద్యాల	-8507
▁2015	-8508
▁ఇంట్	-8509
▁పోతే	-8510
▁ముఠా	-8511
కున్నా	-8512
మెన్స్	-8513
▁కలిగే	-8514
▁కొన్న	-8515
▁ఉపశమనం	-8516
▁ఎంపీపీ	-8517
▁కామెడీ	-8518
▁స్నానం	-8519
▁అల్పపీడ	-8520
▁పాత్రలు	-8521
▁దేవరకొండ	-8522
▁బాధ్యతలను	-8523
ించుకోవాలని	-8524
▁ప్రమాదానికి	-8525
▁కనిపిస్తున్న	-8526
▁సహాయపడుతుంది	-8527
మన	-8528
▁600	-8529
▁అరి	-8530
▁ప్ప	-8531
▁విడ	-8532
గింపు	-8533
జికల్	-8534
ాలిన్	-8535
▁ట్టే	-8536
▁మారే	-8537
▁వృషభ	-8538
▁శత్ర	-8539
జెన్సీ	-8540
బడింది	-8541
▁గణేష్	-8542
▁రాళ్ల	-8543
▁లోకల్	-8544
▁కండువా	-8545
▁కట్టిన	-8546
▁డీసీపీ	-8547
▁విరిగి	-8548
▁సీపీఎం	-8549
▁డీఎస్పీ	-8550
▁బ్రాహ్మ	-8551
▁వనపర్తి	-8552
▁అద్భుతంగా	-8553
▁కల్వకుంట్ల	-8554
▁బెల్లంపల్లి	-8555
▁గుర్తుచేశారు	-8556
▁మహారాష్ట్రలో	-8557
▁చేసుకోవడానికి	-8558
-3	-8559
కూర	-8560
▁భౌ	-8561
▁నటన	-8562
సేపటి	-8563
▁కమర్	-8564
▁కోడి	-8565
▁జ్యు	-8566
▁రేట్	-8567
▁న్యూయ	-8568
▁వారాల	-8569
▁ఇంటిని	-8570
▁కిడ్నీ	-8571
▁రుతుపవ	-8572
▁విగ్రహ	-8573
్యాత్మిక	-8574
▁తగ్గించ	-8575
▁సందర్బంగా	-8576
▁కానున్నారు	-8577
▁చేస్తుండగా	-8578
▁గెలిపించాలని	-8579
▁ప్రస్తావించారు	-8580
▁ಟ	-8581
▁وں	-8582
బ్రి	-8583
▁ఆధు	-8584
▁కోడ	-8585
▁బెడ	-8586
▁విశ	-8587
▁ైనా	-8588
▁ఎంసీ	-8589
▁ఘాట్	-8590
▁దీప్	-8591
▁నక్ష	-8592
▁బుల్	-8593
▁శివా	-8594
పాన్ని	-8595
▁ఇంతకు	-8596
▁గురవు	-8597
▁రోడ్ల	-8598
▁పుతిన్	-8599
▁బట్టలు	-8600
▁మనోహర్	-8601
▁కార్మిక	-8602
▁ఖర్చులు	-8603
▁సంరక్షణ	-8604
▁సీట్లలో	-8605
▁చేసుకుంట	-8606
▁టోర్నీలో	-8607
▁డ్యాన్స్	-8608
▁మేడిగడ్డ	-8609
▁స్టాలిన్	-8610
▁అత్యాచారం	-8611
▁సౌకర్యాలు	-8612
▁ఆరోగ్యాన్ని	-8613
▁హెచ్చరించింది	-8614
▁67	-8615
▁ఇర	-8616
రికే	-8617
▁నౌక	-8618
▁పదో	-8619
రాజ్య	-8620
ల్లర్	-8621
▁కొలు	-8622
▁చిట్	-8623
▁తాయి	-8624
▁దేవ్	-8625
▁పీవీ	-8626
▁కింది	-8627
▁సభ్యు	-8628
▁దుబాయ్	-8629
▁బాక్సా	-8630
▁రుణాలు	-8631
▁చేశాడని	-8632
▁పోస్టుల	-8633
▁ప్రతిరోజు	-8634
▁బ్యాంకులు	-8635
▁మారుతుంది	-8636
▁వందేభారత్	-8637
▁గవర్నమెంట్	-8638
▁న్యూయార్క్	-8639
▁స్ట్రీమింగ్	-8640
▁హెలికాప్టర్	-8641
దొ	-8642
com	-8643
▁తృ	-8644
▁ఆడే	-8645
▁కాయ	-8646
▁టోక	-8647
▁ముగ	-8648
▁శబ్	-8649
▁పంపు	-8650
వాలంటే	-8651
▁కుంటే	-8652
▁గల్ఫ్	-8653
▁ఒక్కటే	-8654
▁కొన్నే	-8655
▁గులాబీ	-8656
▁సంతోషం	-8657
▁సూర్యు	-8658
▁ప్రపంచం	-8659
▁శక్తిని	-8660
▁సిగ్నల్	-8661
▁సుధాకర్	-8662
▁చేయనున్న	-8663
▁దేశంలోనే	-8664
▁నగరాల్లో	-8665
▁మరణించిన	-8666
▁ఉక్రెయిన్	-8667
▁కుటుంబాలు	-8668
▁పంపించారు	-8669
▁ఆధ్యాత్మిక	-8670
▁తహసీల్దార్	-8671
▁రాజకీయాలకు	-8672
▁కొనసాగుతున్నాయి	-8673
vi	-8674
▁प	-8675
ణ్ణ	-8676
లైన్	-8677
▁కిష	-8678
▁పర్స	-8679
▁భరత్	-8680
▁వేలం	-8681
▁శిల్	-8682
▁అడ్మి	-8683
▁నివార	-8684
▁పెంపు	-8685
▁ముమ్మ	-8686
▁లేఖలో	-8687
▁సుబ్బ	-8688
▁సెషన్	-8689
ండ్లుగా	-8690
పోతుంది	-8691
▁అదృష్ట	-8692
▁డాలర్ల	-8693
▁మిగిలి	-8694
▁ముహూర్	-8695
▁అప్డేట్	-8696
▁స్తామని	-8697
▁అమల్లోకి	-8698
▁ల్యాండర్	-8699
▁వినియోగం	-8700
▁కనిపించిన	-8701
▁తేలికపాటి	-8702
▁సముద్రంలో	-8703
▁గాయపడ్డారు	-8704
▁పోతున్నారు	-8705
లీల	-8706
▁ఓం	-8707
▁కద	-8708
▁ನ್	-8709
వరకూ	-8710
▁ఫెడ	-8711
▁అంబు	-8712
▁కేర్	-8713
▁పంచు	-8714
▁మెయి	-8715
▁وائرل	-8716
▁నడ్డా	-8717
▁రైళ్ల	-8718
ంగాన్ని	-8719
▁గుప్తా	-8720
▁నార్త్	-8721
▁వీటితో	-8722
▁ఆలోచించ	-8723
▁తద్వారా	-8724
▁తర్వాతే	-8725
▁పట్టాలు	-8726
▁రైళ్లను	-8727
▁వర్సిటీ	-8728
▁విశ్వవి	-8729
▁పరుగులకే	-8730
▁కమర్షియల్	-8731
▁స్తుంటారు	-8732
▁ఆశ్రయించారు	-8733
▁కాన్ఫరెన్స్	-8734
గణ	-8735
.25	-8736
క్వ	-8737
పుర	-8738
▁జొ	-8739
పూరి	-8740
▁చీర	-8741
▁టచ్	-8742
ందంటూ	-8743
▁ఆభరణ	-8744
▁బందో	-8745
▁సంయు	-8746
వేశారు	-8747
▁మసీదు	-8748
▁ఇక్కడే	-8749
▁కపోవడం	-8750
▁కోవిడ్	-8751
▁క్లీన్	-8752
▁బిర్యా	-8753
పోయిందని	-8754
▁అథారిటీ	-8755
▁ఆసుపత్ర	-8756
▁కొబ్బరి	-8757
▁పర్యాటక	-8758
▁వచ్చాడు	-8759
▁సర్వీసు	-8760
▁హాజరుకా	-8761
▁ఆటగాళ్లు	-8762
▁పట్టణంలో	-8763
▁భాగస్వామి	-8764
▁సామర్థ్యం	-8765
▁స్పెక్టర్	-8766
▁పర్యవేక్షణ	-8767
▁ప్రవేశపెట్ట	-8768
▁భావిస్తోంది	-8769
పరచ	-8770
ెలు	-8771
▁vs	-8772
చుకో	-8773
సియా	-8774
▁అసా	-8775
▁గడప	-8776
▁మత్	-8777
▁హార	-8778
ితమైన	-8779
▁ప్రవ	-8780
▁ఫీల్	-8781
▁మాఫీ	-8782
▁వికా	-8783
▁శివు	-8784
▁సింధ	-8785
▁నట్లు	-8786
▁పైలట్	-8787
▁ఇవన్నీ	-8788
▁క్రాస్	-8789
▁నాణ్యత	-8790
▁కుప్పకూ	-8791
▁కంప్యూటర్	-8792
▁దర్శకత్వం	-8793
▁సాంస్కృతి	-8794
▁కుటుంబసభ్య	-8795
▁దర్శనానికి	-8796
▁పట్టణంలోని	-8797
▁రెస్పాన్స్	-8798
▁సిబ్బందికి	-8799
▁చేస్తుంటారు	-8800
st	-8801
ష్క	-8802
▁ಸ್	-8803
▁ఎంబ	-8804
▁ఎది	-8805
▁..!!	-8806
▁కమ్మ	-8807
▁గోవా	-8808
▁జాతి	-8809
▁తారు	-8810
▁నాగ్	-8811
▁మెక్	-8812
▁యోగా	-8813
▁హాఫ్	-8814
▁అంగన్	-8815
▁ఆవిర్	-8816
▁ఎల్బీ	-8817
▁గుప్ప	-8818
▁జనార్	-8819
▁దగ్గు	-8820
▁పలుకు	-8821
▁ఫైబర్	-8822
▁బందోబ	-8823
▁గ్రామం	-8824
▁చూస్తూ	-8825
▁జోక్యం	-8826
▁జోరుగా	-8827
▁టానికి	-8828
▁డేవిడ్	-8829
▁పురుగు	-8830
▁వ్యూహం	-8831
▁అబ్బాయి	-8832
▁ఆశించిన	-8833
▁పాలస్తీనా	-8834
▁వెళ్లాలని	-8835
▁బ్రహ్మోత్స	-8836
▁స్తున్నాయి	-8837
▁ఆహ్వానించారు	-8838
▁సంవత్సరానికి	-8839
▁నిర్మిస్తున్న	-8840
▁పట్టుకున్నారు	-8841
▁మొదలుపెట్టారు	-8842
را	-8843
▁ଆ	-8844
ana	-8845
ଙ୍କ	-8846
కట్	-8847
జుల	-8848
షణ్	-8849
ఎండీ	-8850
ఐఆర్	-8851
జ్యం	-8852
ತ್ತು	-8853
▁ఉరి	-8854
▁ఊరట	-8855
▁కరె	-8856
▁కలె	-8857
▁ట్ట	-8858
▁పరు	-8859
▁అడ్డ	-8860
▁ఆకాశ	-8861
▁ఉపసం	-8862
▁కాపీ	-8863
▁గేట్	-8864
▁జీతం	-8865
▁నాటు	-8866
▁చేయబో	-8867
▁జరిపి	-8868
▁పడితే	-8869
▁మర్చి	-8870
▁లేరని	-8871
▁సందడి	-8872
▁చేరుకో	-8873
▁యంత్రా	-8874
▁రఘురామ	-8875
▁సానుభూ	-8876
▁పాలమూరు	-8877
▁వాషింగ్	-8878
కునేందుకు	-8879
▁ఆరోపణలపై	-8880
▁చేయనుంది	-8881
▁పెరుగుదల	-8882
▁రాకపోకలు	-8883
▁ఎడ్యుకేషన్	-8884
▁ఎమర్జెన్సీ	-8885
▁సాంస్కృతిక	-8886
▁ప్రాంతంలోని	-8887
మండ	-8888
ికొ	-8889
▁72	-8890
కుళం	-8891
తికే	-8892
లేరు	-8893
▁అడగ	-8894
▁అమా	-8895
▁అవత	-8896
▁ఆపే	-8897
▁ఊరే	-8898
▁చవి	-8899
ెక్సీ	-8900
▁అరటి	-8901
▁ఉందో	-8902
▁కవర్	-8903
▁కారి	-8904
▁ఖైదీ	-8905
▁కీలకం	-8906
▁ప్రసి	-8907
▁స్కాం	-8908
స్టింగ్	-8909
▁ఐదేళ్ల	-8910
▁గురుకు	-8911
▁దొరికి	-8912
▁పరోక్ష	-8913
▁పాటించ	-8914
▁బాలయ్య	-8915
▁వ్యాక్	-8916
▁సురేశ్	-8917
▁ఆకాంక్ష	-8918
▁కేటగిరీ	-8919
▁అక్టోబరు	-8920
▁ఉన్నందున	-8921
▁పర్యటనకు	-8922
▁పాల్పడ్డ	-8923
▁అభినందించ	-8924
▁ఉండేందుకు	-8925
▁కృతజ్ఞతలు	-8926
ದು	-8927
భావ	-8928
ౌళి	-8929
▁68	-8930
నన్న	-8931
ఫోన్	-8932
▁"."	-8933
▁120	-8934
▁త్వ	-8935
▁యత్	-8936
▁లంచ	-8937
తానని	-8938
రులతో	-8939
▁ఫ్లై	-8940
▁లాక్	-8941
▁లైట్	-8942
ట్టుగా	-8943
రుగ్గా	-8944
విధంగా	-8945
▁కర్కా	-8946
▁గేమ్స్	-8947
▁గ్యారె	-8948
▁చికెన్	-8949
▁ఫండ్స్	-8950
▁స్పీడ్	-8951
▁జరుపుకు	-8952
▁హెచ్చరి	-8953
▁అర్హులైన	-8954
▁చేయవచ్చు	-8955
▁మైనారిటీ	-8956
▁రిటైర్డ్	-8957
▁వర్షాలకు	-8958
▁కలెక్షన్స్	-8959
▁కర్ణాటకలోని	-8960
▁కార్మికులకు	-8961
▁తీసుకొచ్చారు	-8962
ైక	-8963
ರಿ	-8964
ఫీస్	-8965
▁ପ୍ର	-8966
ందారు	-8967
వెళ్ల	-8968
▁ఫౌండ	-8969
▁బద్ద	-8970
▁వీసీ	-8971
క్వాడ్	-8972
▁అంత్య	-8973
▁తాగడం	-8974
▁పెండ్	-8975
▁వివాద	-8976
▁ఉండదని	-8977
▁టాస్క్	-8978
▁క్యాంపు	-8979
▁పడకుండా	-8980
▁బ్యాటరీ	-8981
▁రేపింది	-8982
▁అమ్మకాలు	-8983
▁రైతుబంధు	-8984
▁డయాబెటిస్	-8985
▁పెట్టారని	-8986
▁ఉద్యోగులను	-8987
▁కలుగుతుంది	-8988
▁సిబ్బందిని	-8989
▁స్థానికంగా	-8990
▁తెలియజేశారు	-8991
▁విశ్వవిద్యాల	-8992
▁వెళ్లిపోయారు	-8993
రథ	-8994
▁b	-8995
ఫల్	-8996
ಿದೆ	-8997
▁دع	-8998
▁అజ	-8999
▁నం	-9000
యిర్	-9001
▁ఎము	-9002
▁నిఖ	-9003
▁మాయ	-9004
▁డంతో	-9005
▁డ్రి	-9006
▁తమ్మ	-9007
▁యోగి	-9008
బెల్లి	-9009
▁అనర్హ	-9010
▁కోదండ	-9011
▁హుండీ	-9012
▁వారాహి	-9013
▁అబ్దుల్	-9014
▁కష్టపడి	-9015
▁జంక్షన్	-9016
▁టికెట్ల	-9017
▁బదులుగా	-9018
▁మొదట్లో	-9019
▁సాగింది	-9020
▁పెరగడంతో	-9021
▁ఉద్రిక్తత	-9022
▁నిమిషాలకు	-9023
▁వ్యవహారంలో	-9024
et	-9025
ೊಂ	-9026
ಾರೆ	-9027
టికీ	-9028
ధారణ	-9029
▁ఐడీ	-9030
▁ఐస్	-9031
▁డీఏ	-9032
▁పేష	-9033
సాగర్	-9034
▁2011	-9035
▁కాఫీ	-9036
▁చెడు	-9037
▁జరగా	-9038
▁పీఎం	-9039
▁బీర్	-9040
▁బెట్	-9041
▁లోటు	-9042
▁వెతు	-9043
▁షారు	-9044
▁సంతా	-9045
▁స్టె	-9046
▁టమాటా	-9047
▁టెర్ర	-9048
▁మల్టీ	-9049
▁రన్స్	-9050
▁రేపటి	-9051
▁వివరి	-9052
▁సమాజం	-9053
▁హాసన్	-9054
▁కూర్చో	-9055
▁గొడవలు	-9056
▁బోర్డ్	-9057
▁బ్రిటి	-9058
▁సమన్వయ	-9059
▁అటువంటి	-9060
▁ఆదివాసీ	-9061
▁ట్యాంక్	-9062
▁నంద్యాల	-9063
▁మినహాయి	-9064
▁సన్నిహి	-9065
▁కేంద్రాల	-9066
▁డిపాజిట్	-9067
▁నిలిచాడు	-9068
▁హుస్సేన్	-9069
▁ఇండియన్స్	-9070
▁ఐక్యరాజ్య	-9071
▁బస్సుల్లో	-9072
▁మారుతున్న	-9073
▁కనిపించారు	-9074
▁కొంతకాలంగా	-9075
▁లక్ష్యాన్ని	-9076
▁ତ	-9077
రోజూ	-9078
సాన్	-9079
▁అరే	-9080
▁ర్శ	-9081
ర్మనీ	-9082
▁కమల్	-9083
▁పాడు	-9084
ష్టంగా	-9085
▁ఈస్ట్	-9086
▁ప్రవా	-9087
▁వద్దు	-9088
పడ్డాడు	-9089
ెక్టార్	-9090
▁ఐపీఎస్	-9091
▁షార్ట్	-9092
▁ఉండొచ్చు	-9093
▁చేతుల్లో	-9094
▁బిర్యానీ	-9095
▁వాహనాలను	-9096
▁ఇవ్వలేదని	-9097
▁పాయింట్లు	-9098
▁బందోబస్తు	-9099
▁గుర్తించిన	-9100
▁స్వామివారి	-9101
▁పర్యటించారు	-9102
▁వివరించింది	-9103
ಾನ	-9104
▁ଜ	-9105
క్షా	-9106
తాడు	-9107
మిలి	-9108
వాతి	-9109
▁అమృ	-9110
▁బంజ	-9111
ొప్పి	-9112
▁అకాడ	-9113
▁అహ్మ	-9114
▁కుడి	-9115
▁పురం	-9116
▁పెడత	-9117
▁మాటల	-9118
▁యూకే	-9119
ండ్లలో	-9120
నుందని	-9121
▁నేర్చ	-9122
▁మినహా	-9123
▁వినాయ	-9124
▁వ్యాయ	-9125
▁ఉన్నది	-9126
▁డీజిల్	-9127
▁దూసుకు	-9128
▁సిరాజ్	-9129
▁చూసింది	-9130
▁నిరంతరం	-9131
▁భాషల్లో	-9132
▁చెప్పినా	-9133
▁దాదాపుగా	-9134
▁రెడ్డితో	-9135
▁శ్రీశైలం	-9136
▁సంస్కృతి	-9137
▁సింగపూర్	-9138
▁జ్యోతిష్య	-9139
▁ప్రయోజనాల	-9140
▁లక్ష్యంతో	-9141
▁రోజుల్లోనే	-9142
▁కాంట్రాక్ట్	-9143
▁పాల్గొంటారు	-9144
▁తీసుకుంటున్నారు	-9145
ter	-9146
ంగే	-9147
వైన	-9148
శ్య	-9149
▁అవే	-9150
▁గన్	-9151
▁దుండ	-9152
▁నోటి	-9153
▁బెర్	-9154
▁అన్నా	-9155
▁ఇలాగే	-9156
▁కడియం	-9157
▁తరబడి	-9158
▁మలుపు	-9159
డేపల్లి	-9160
▁నీటిలో	-9161
▁పరిగణన	-9162
▁పాటిల్	-9163
▁ఫ్యాన్	-9164
▁ముగిసే	-9165
▁రేవణ్ణ	-9166
పెట్టింది	-9167
▁అయినట్లు	-9168
▁విస్తీర్	-9169
▁స్తోందని	-9170
▁చేసుకునేందుకు	-9171
▁ఉన్నతాధికారులు	-9172
ହି	-9173
▁.?	-9174
పురి	-9175
▁ఆపై	-9176
▁దోష	-9177
▁ాని	-9178
గుండం	-9179
▁తిరగ	-9180
▁నేరం	-9181
▁మరుస	-9182
▁సౌదీ	-9183
▁గెలిచ	-9184
▁పొడిగ	-9185
▁మైదాన	-9186
▁ఆస్తుల	-9187
▁కొడాలి	-9188
▁డాన్ని	-9189
▁డ్రామా	-9190
▁పెరగడం	-9191
▁విజయనగ	-9192
▁బస్సులో	-9193
▁అనుచరులు	-9194
▁ఇవ్వడంతో	-9195
▁గ్రాడ్యు	-9196
▁తగిలింది	-9197
▁పెట్టాలి	-9198
▁ఫ్రాన్స్	-9199
▁మార్చుకు	-9200
▁వెళ్లాడు	-9201
▁నున్నట్లు	-9202
▁అవకాశముంది	-9203
ନ୍ତ	-9204
టమే	-9205
▁ఇట	-9206
రియం	-9207
▁ఉరు	-9208
▁నడప	-9209
▁గాయం	-9210
▁సహకర	-9211
▁సిల్	-9212
▁హిమా	-9213
▁హోల్	-9214
▁ఎంఎస్	-9215
▁నిజాం	-9216
▁బస్టా	-9217
ైనాన్స్	-9218
▁క్యాపి	-9219
▁పర్యటి	-9220
▁మత్స్య	-9221
▁మరుసటి	-9222
▁మరొకరు	-9223
▁రీతిలో	-9224
▁నిర్దేశ	-9225
▁ప్రకాష్	-9226
▁వారిద్ద	-9227
▁సౌకర్యం	-9228
▁కారణాలతో	-9229
▁టీడీపీలో	-9230
▁యాక్టివ్	-9231
▁పదార్థాలు	-9232
▁పెట్టుబడు	-9233
▁స్థలాన్ని	-9234
▁కొన్నిసార్లు	-9235
اب	-9236
ala	-9237
▁53	-9238
▁74	-9239
▁8,	-9240
▁నమ	-9241
కట్ట	-9242
▁ంచు	-9243
▁తాక	-9244
▁మీన	-9245
కోండి	-9246
▁ధ్వజ	-9247
▁పాలక	-9248
▁భావో	-9249
వర్ధన్	-9250
▁కళ్లు	-9251
▁వాళ్ళ	-9252
స్తులను	-9253
▁కొనియా	-9254
▁కోర్సు	-9255
▁చాన్స్	-9256
▁ల్యాబ్	-9257
▁అలియాస్	-9258
▁కురిసిన	-9259
▁బీఎస్పీ	-9260
▁వాళ్లను	-9261
▁సంఘటనలు	-9262
▁స్తారని	-9263
▁ఆడుతున్న	-9264
▁కాలేజీలో	-9265
▁భావోద్వే	-9266
▁నివేదికను	-9267
▁అంత్యక్రియ	-9268
▁వస్తువులను	-9269
▁స్థానానికి	-9270
▁అప్పగించారు	-9271
నియ	-9272
▁9,	-9273
కెళ్	-9274
న్నత	-9275
బడ్డ	-9276
▁ఇంధ	-9277
▁చార	-9278
▁ఛాల	-9279
క్కడే	-9280
▁గర్భ	-9281
▁పెను	-9282
▁బాగ్	-9283
▁రఘున	-9284
▁డాలర్	-9285
▁పుణ్య	-9286
▁బదులు	-9287
▁విరాళ	-9288
▁ఎకరాలు	-9289
▁ఎగ్జిక	-9290
▁మోటార్	-9291
▁వస్త్ర	-9292
▁విధులు	-9293
▁స్టోర్	-9294
▁కన్నుమూ	-9295
▁తొలగించ	-9296
▁నందమూరి	-9297
▁మంచిదని	-9298
▁చేయొచ్చు	-9299
▁నెలకొన్న	-9300
▁పెంచింది	-9301
▁ప్రతిపాద	-9302
▁ఫారెస్ట్	-9303
▁ఫౌండేషన్	-9304
▁మమ్మల్ని	-9305
▁రెడ్డిపై	-9306
▁రోజురోజు	-9307
▁విశ్వాసం	-9308
▁వ్యాప్తి	-9309
▁రెండోసారి	-9310
▁ఉత్తరాఖండ్	-9311
▁పెరుగుతాయి	-9312
▁అందించేందుకు	-9313
نگ	-9314
وس	-9315
ವಿ	-9316
గ్న	-9317
కేట్	-9318
హాన్	-9319
▁దివ	-9320
▁పూల	-9321
▁సాహ	-9322
ందంటే	-9323
పక్కల	-9324
▁కుండ	-9325
▁క్షి	-9326
▁డివై	-9327
▁పూజా	-9328
▁ఆనందం	-9329
▁నీళ్ల	-9330
▁పెంచి	-9331
▁కరెంటు	-9332
▁ఛార్జ్	-9333
▁నిర్వా	-9334
▁పెద్ది	-9335
▁ఎఫెక్ట్	-9336
▁పోషకాలు	-9337
▁సులభంగా	-9338
▁క్వాలిటీ	-9339
▁విధానంలో	-9340
▁రావడానికి	-9341
▁రోజులపాటు	-9342
▁కోల్పోయారు	-9343
▁చుట్టుపక్కల	-9344
.40	-9345
▁85	-9346
డాడు	-9347
రెన్	-9348
▁వేద	-9349
వ్వాడ	-9350
▁అకాల	-9351
▁ఫ్లి	-9352
▁లాగే	-9353
▁విప్	-9354
▁శిథి	-9355
▁సంతర	-9356
ఆర్ఆర్	-9357
లకుండా	-9358
▁క్యాల	-9359
▁ముంపు	-9360
▁కాపాడే	-9361
▁కిషోర్	-9362
▁	-9363
్	-9364
ి	-9365
ా	-9366
ు	-9367
ర	-9368
న	-9369
ల	-9370
ం	-9371
క	-9372
ప	-9373
త	-9374
స	-9375
వ	-9376
ద	-9377
ట	-9378
ో	-9379
మ	-9380
ే	-9381
య	-9382
చ	-9383
డ	-9384
ీ	-9385
గ	-9386
.	-9387
ె	-9388
అ	-9389
జ	-9390
బ	-9391
ూ	-9392
,	-9393
శ	-9394
ష	-9395
ై	-9396
ఆ	-9397
హ	-9398
ధ	-9399
ఎ	-9400
భ	-9401
ొ	-9402
ఇ	-9403
ఉ	-9404
ణ	-9405
ళ	-9406
ఫ	-9407
ఈ	-9408
థ	-9409
0	-9410
2	-9411
1	-9412
ఏ	-9413
ఖ	-9414
"	-9415
ఒ	-9416
ృ	-9417
5	-9418
3	-9419
4	-9420
:	-9421
ౌ	-9422
ఓ	-9423
)	-9424
ఐ	-9425
(	-9426
9	-9427
-	-9428
6	-9429
8	-9430
7	-9431
ఘ	-9432
ی	-9433
ا	-9434
a	-9435
?	-9436
್	-9437
ಿ	-9438
ک	-9439
و	-9440
ر	-9441
e	-9442
i	-9443
ఢ	-9444
n	-9445
ے	-9446
ن	-9447
ఛ	-9448
ఠ	-9449
ہ	-9450
r	-9451
ು	-9452
ರ	-9453
ದ	-9454
م	-9455
ಾ	-9456
'	-9457
t	-9458
ನ	-9459
o	-9460
ಲ	-9461
s	-9462
س	-9463
!	-9464
ل	-9465
h	-9466
l	-9467
ି	-9468
A	-9469
ವ	-9470
ఊ	-9471
ت	-9472
ା	-9473
S	-9474
ೆ	-9475
ର	-9476
୍	-9477
d	-9478
ತ	-9479
ಕ	-9480
u	-9481
⁬	-9482
ಯ	-9483
R	-9484
ಸ	-9485
C	-9486
د	-9487
ಗ	-9488
ب	-9489
ں	-9490
P	-9491
ಂ	-9492
m	-9493
پ	-9494
I	-9495
T	-9496
ಮ	-9497
c	-9498
/	-9499
ಡ	-9500
େ	-9501
କ	-9502
ఞ	-9503
M	-9504
g	-9505
ئ	-9506
D	-9507
B	-9508
p	-9509
گ	-9510
ج	-9511
ھ	-9512
y	-9513
ନ	-9514
ٹ	-9515
v	-9516
N	-9517
ಬ	-9518
‍	-9519
k	-9520
ବ	-9521
ಪ	-9522
E	-9523
L	-9524
ा	-9525
ش	-9526
ಟ	-9527
ସ	-9528
O	-9529
w	-9530
ତ	-9531
G	-9532
۔	-9533
ಹ	-9534
ୁ	-9535
ڈ	-9536
ಳ	-9537
ع	-9538
b	-9539
ೋ	-9540
ମ	-9541
ପ	-9542
ೇ	-9543
ఔ	-9544
K	-9545
ః	-9546
V	-9547
ଲ	-9548
क	-9549
र	-9550
ହ	-9551
ف	-9552
े	-9553
H	-9554
ೊ	-9555
ق	-9556
ೀ	-9557
F	-9558
ಜ	-9559
چ	-9560
ୟ	-9561
ಚ	-9562
ز	-9563
ଇ	-9564
⁭	-9565
j	-9566
ح	-9567
ଦ	-9568
U	-9569
ୋ	-9570
ಎ	-9571
ଟ	-9572
J	-9573
%	-9574
न	-9575
ೂ	-9576
ص	-9577
ಶ	-9578
ଏ	-9579
ಅ	-9580
#	-9581
ी	-9582
ଣ	-9583
ೈ	-9584
।	-9585
ಆ	-9586
ह	-9587
्	-9588
ଥ	-9589
ಷ	-9590
ଭ	-9591
خ	-9592
ଡ	-9593
W	-9594
ि	-9595
،	-9596
آ	-9597
ं	-9598
ಣ	-9599
ଛ	-9600
स	-9601
ଜ	-9602
ಧ	-9603
f	-9604
म	-9605
Y	-9606
;	-9607
ط	-9608
ଯ	-9609
ଆ	-9610
ल	-9611
X	-9612
ो	-9613
त	-9614
ଉ	-9615
ఝ	-9616
ಇ	-9617
ଗ	-9618
ଅ	-9619
प	-9620
य	-9621
ಭ	-9622
ୀ	-9623
*	-9624
ڑ	-9625
द	-9626
ଳ	-9627
ଖ	-9628
ଧ	-9629
ଙ	-9630
ग	-9631
ଚ	-9632
ब	-9633
ଷ	-9634
ಖ	-9635
ज	-9636
ଶ	-9637
ಫ	-9638
व	-9639
+	-9640
ଓ	-9641
ض	-9642
ಈ	-9643
x	-9644
ଁ	-9645
>	-9646
ଫ	-9647
ु	-9648
ٰ	-9649
ै	-9650
&	-9651
@	-9652
غ	-9653
ظ	-9654
ಥ	-9655
ଂ	-9656
ذ	-9657
च	-9658
भ	-9659
ट	-9660
ೃ	-9661
‭	-9662
अ	-9663
`	-9664
श	-9665
ए	-9666
Z	-9667
ಉ	-9668
Q	-9669
ड	-9670
z	-9671
ू	-9672
୨	-9673
്	-9674
➦	-9675
଼	-9676
ୂ	-9677
़	-9678
்	-9679
_	-9680
☛	-9681
q	-9682
आ	-9683
ଘ	-9684
ख	-9685
ध	-9686
ୱ	-9687
ୌ	-9688
ଠ	-9689
ʼ	-9690
ಒ	-9691
फ	-9692
୦	-9693
ؤ	-9694
थ	-9695
=	-9696
ث	-9697
औ	-9698
୧	-9699
ക	-9700
ୃ	-9701
इ	-9702
ଞ	-9703
ி	-9704
ി	-9705
₹	-9706
ई	-9707
ष	-9708
•	-9709
த	-9710
[	-9711
]	-9712
­	-9713
ఙ	-9714
ಏ	-9715
⁪	-9716
ఋ	-9717
ಐ	-9718
ಘ	-9719
उ	-9720
ೌ	-9721
‪	-9722
க	-9723
ِ	-9724
ण	-9725
ப	-9726
ന	-9727
°	-9728
୪	-9729
া	-9730
യ	-9731
छ	-9732
ம	-9733
ு	-9734
ಠ	-9735
ു	-9736
ओ	-9737
ட	-9738
പ	-9739
$	-9740
ি	-9741
ാ	-9742
ठ	-9743
ఱ	-9744
౦	-9745
ಓ	-9746
घ	-9747
ଵ	-9748
୫	-9749
ട	-9750
র	-9751
্	-9752
ത	-9753
ক	-9754
ୈ	-9755
୩	-9756
ர	-9757
ல	-9758
வ	-9759
‐	-9760
୮	-9761
ற	-9762
ಊ	-9763
झ	-9764
୬	-9765
ள	-9766
ா	-9767
ല	-9768
വ	-9769
െ	-9770
ढ	-9771
ব	-9772
ଝ	-9773
ಞ	-9774
ണ	-9775
●	-9776
َ	-9777
ন	-9778
ম	-9779
୭	-9780
୯	-9781
ച	-9782
ഷ	-9783
⁠	-9784
ي	-9785
ऐ	-9786
ॉ	-9787
ে	-9788
ଢ	-9789
ോ	-9790
؟	-9791
ল	-9792
ু	-9793
ச	-9794
ய	-9795
അ	-9796
റ	-9797
►	-9798
ژ	-9799
ە	-9800
ृ	-9801
ौ	-9802
॥	-9803
ত	-9804
ৰ	-9805
ந	-9806
ன	-9807
ை	-9808
മ	-9809
ര	-9810
സ	-9811
‒	-9812
ء	-9813
প	-9814
য	-9815
ো	-9816
ெ	-9817
ങ	-9818
ഡ	-9819
ൽ	-9820
′	-9821
◉	-9822
♦	-9823
🇮	-9824
জ	-9825
স	-9826
ಛ	-9827
ಢ	-9828
ജ	-9829
ള	-9830
ർ	-9831
★	-9832
❌	-9833
🇳	-9834
়	-9835
எ	-9836
ோ	-9837
ീ	-9838
😂	-9839
🚩	-9840
\	-9841
đ	-9842
ه	-9843
ّ	-9844
ञ	-9845
এ	-9846
ও	-9847
ধ	-9848
அ	-9849
ங	-9850
ொ	-9851
౩	-9852
ം	-9853
എ	-9854
ധ	-9855
ൂ	-9856
ൗ	-9857
ൾ	-9858
~	-9859
·	-9860
×	-9861
ư	-9862
ُ	-9863
ँ	-9864
ऊ	-9865
ऑ	-9866
०	-9867
ট	-9868
ড	-9869
দ	-9870
ফ	-9871
হ	-9872
ଃ	-9873
ଈ	-9874
ண	-9875
ீ	-9876
ౖ	-9877
ಃ	-9878
ಝ	-9879
⁄	-9880
⃣	-9881
⦁	-9882
️	-9883
💪	-9884
🔥	-9885
🙏	-9886
â	-9887
ơ	-9888
أ	-9889
ً	-9890
ڕ	-9891
ः	-9892
२	-9893
অ	-9894
গ	-9895
চ	-9896
ভ	-9897
শ	-9898
ী	-9899
ৱ	-9900
ஏ	-9901
ஜ	-9902
ூ	-9903
ఁ	-9904
౧	-9905
౹	-9906
ಔ	-9907
ഈ	-9908
ഭ	-9909
ശ	-9910
ൃ	-9911
േ	-9912
ൊ	-9913
ൻ	-9914
ố	-9915
⁫	-9916
⁯	-9917
◆	-9918
👉	-9919
👌	-9920
💚	-9921
😡	-9922
<	-9923
£	-9924
©	-9925
Á	-9926
æ	-9927
́	-9928
α	-9929
β	-9930
؛	-9931
إ	-9932
ى	-9933
ڵ	-9934
ۆ	-9935
ێ	-9936
४	-9937
ঃ	-9938
আ	-9939
ৈ	-9940
ஆ	-9941
இ	-9942
உ	-9943
ஊ	-9944
ஸ	-9945
ே	-9946
ఽ	-9947
ౄ	-9948
౪	-9949
౬	-9950
ആ	-9951
ഇ	-9952
ഒ	-9953
ഗ	-9954
ദ	-9955
ബ	-9956
ഴ	-9957
ൈ	-9958
ả	-9959
ầ	-9960
ậ	-9961
ệ	-9962
ớ	-9963
ờ	-9964
ở	-9965
ợ	-9966
ứ	-9967
‫	-9968
‬	-9969
€	-9970
∙	-9971
≠	-9972
▪	-9973
♥	-9974
✳	-9975
➡	-9976
🇪	-9977
🇬	-9978
🌹	-9979
🏼	-9980
👇	-9981
👊	-9982
👋	-9983
💐	-9984
💥	-9985
🔴	-9986
🔸	-9987
🔹	-9988
😉	-9989
😊	-9990
😜	-9991
😞	-9992
😠	-9993
😥	-9994
🙂	-9995
🤜	-9996
