[UNK]	0
[CLS]	1
[SEP]	2
[PAD]	3
[MASK]	4
!	5
"	6
#	7
$	8
%	9
&	10
'	11
(	12
)	13
*	14
+	15
,	16
-	17
.	18
/	19
0	20
1	21
2	22
3	23
4	24
5	25
6	26
7	27
8	28
9	29
:	30
;	31
<	32
=	33
>	34
?	35
@	36
[	37
\	38
]	39
_	40
`	41
a	42
b	43
c	44
d	45
e	46
f	47
g	48
h	49
i	50
j	51
k	52
l	53
m	54
n	55
o	56
p	57
q	58
r	59
s	60
t	61
u	62
v	63
w	64
x	65
y	66
z	67
~	68
£	69
©	70
­	71
°	72
·	73
×	74
á	75
â	76
æ	77
đ	78
ơ	79
ư	80
ʼ	81
́	82
α	83
β	84
،	85
؛	86
؟	87
ء	88
آ	89
أ	90
ؤ	91
إ	92
ئ	93
ا	94
ب	95
ت	96
ث	97
ج	98
ح	99
خ	100
د	101
ذ	102
ر	103
ز	104
س	105
ش	106
ص	107
ض	108
ط	109
ظ	110
ع	111
غ	112
ف	113
ق	114
ل	115
م	116
ن	117
ه	118
و	119
ى	120
ي	121
ً	122
َ	123
ُ	124
ِ	125
ّ	126
ٰ	127
ٹ	128
پ	129
چ	130
ڈ	131
ڑ	132
ڕ	133
ژ	134
ک	135
گ	136
ڵ	137
ں	138
ھ	139
ہ	140
ۆ	141
ی	142
ێ	143
ے	144
۔	145
ە	146
ँ	147
ं	148
ः	149
अ	150
आ	151
इ	152
ई	153
उ	154
ऊ	155
ए	156
ऐ	157
ऑ	158
ओ	159
औ	160
क	161
ख	162
ग	163
घ	164
च	165
छ	166
ज	167
झ	168
ञ	169
ट	170
ठ	171
ड	172
ढ	173
ण	174
त	175
थ	176
द	177
ध	178
न	179
प	180
फ	181
ब	182
भ	183
म	184
य	185
र	186
ल	187
व	188
श	189
ष	190
स	191
ह	192
़	193
ा	194
ि	195
ी	196
ु	197
ू	198
ृ	199
े	200
ै	201
ॉ	202
ो	203
ौ	204
्	205
।	206
॥	207
०	208
२	209
४	210
ঃ	211
অ	212
আ	213
এ	214
ও	215
ক	216
গ	217
চ	218
জ	219
ট	220
ড	221
ত	222
দ	223
ধ	224
ন	225
প	226
ফ	227
ব	228
ভ	229
ম	230
য	231
র	232
ল	233
শ	234
স	235
হ	236
়	237
া	238
ি	239
ী	240
ু	241
ে	242
ৈ	243
ো	244
্	245
ৰ	246
ৱ	247
ଁ	248
ଂ	249
ଃ	250
ଅ	251
ଆ	252
ଇ	253
ଈ	254
ଉ	255
ଏ	256
ଓ	257
କ	258
ଖ	259
ଗ	260
ଘ	261
ଙ	262
ଚ	263
ଛ	264
ଜ	265
ଝ	266
ଞ	267
ଟ	268
ଠ	269
ଡ	270
ଢ	271
ଣ	272
ତ	273
ଥ	274
ଦ	275
ଧ	276
ନ	277
ପ	278
ଫ	279
ବ	280
ଭ	281
ମ	282
ଯ	283
ର	284
ଲ	285
ଳ	286
ଵ	287
ଶ	288
ଷ	289
ସ	290
ହ	291
଼	292
ା	293
ି	294
ୀ	295
ୁ	296
ୂ	297
ୃ	298
େ	299
ୈ	300
ୋ	301
ୌ	302
୍	303
ୟ	304
୦	305
୧	306
୨	307
୩	308
୪	309
୫	310
୬	311
୭	312
୮	313
୯	314
ୱ	315
அ	316
ஆ	317
இ	318
உ	319
ஊ	320
எ	321
ஏ	322
க	323
ங	324
ச	325
ஜ	326
ட	327
ண	328
த	329
ந	330
ன	331
ப	332
ம	333
ய	334
ர	335
ற	336
ல	337
ள	338
வ	339
ஸ	340
ா	341
ி	342
ீ	343
ு	344
ூ	345
ெ	346
ே	347
ை	348
ொ	349
ோ	350
்	351
ఁ	352
ం	353
ః	354
అ	355
ఆ	356
ఇ	357
ఈ	358
ఉ	359
ఊ	360
ఋ	361
ఎ	362
ఏ	363
ఐ	364
ఒ	365
ఓ	366
ఔ	367
క	368
ఖ	369
గ	370
ఘ	371
ఙ	372
చ	373
ఛ	374
జ	375
ఝ	376
ఞ	377
ట	378
ఠ	379
డ	380
ఢ	381
ణ	382
త	383
థ	384
ద	385
ధ	386
న	387
ప	388
ఫ	389
బ	390
భ	391
మ	392
య	393
ర	394
ఱ	395
ల	396
ళ	397
వ	398
శ	399
ష	400
స	401
హ	402
ఽ	403
ా	404
ి	405
ీ	406
ు	407
ూ	408
ృ	409
ౄ	410
ె	411
ే	412
ై	413
ొ	414
ో	415
ౌ	416
్	417
ౖ	418
౦	419
౧	420
౩	421
౪	422
౬	423
౹	424
ಂ	425
ಃ	426
ಅ	427
ಆ	428
ಇ	429
ಈ	430
ಉ	431
ಊ	432
ಎ	433
ಏ	434
ಐ	435
ಒ	436
ಓ	437
ಔ	438
ಕ	439
ಖ	440
ಗ	441
ಘ	442
ಚ	443
ಛ	444
ಜ	445
ಝ	446
ಞ	447
ಟ	448
ಠ	449
ಡ	450
ಢ	451
ಣ	452
ತ	453
ಥ	454
ದ	455
ಧ	456
ನ	457
ಪ	458
ಫ	459
ಬ	460
ಭ	461
ಮ	462
ಯ	463
ರ	464
ಲ	465
ಳ	466
ವ	467
ಶ	468
ಷ	469
ಸ	470
ಹ	471
ಾ	472
ಿ	473
ೀ	474
ು	475
ೂ	476
ೃ	477
ೆ	478
ೇ	479
ೈ	480
ೊ	481
ೋ	482
ೌ	483
್	484
ം	485
അ	486
ആ	487
ഇ	488
ഈ	489
എ	490
ഒ	491
ക	492
ഗ	493
ങ	494
ച	495
ജ	496
ട	497
ഡ	498
ണ	499
ത	500
ദ	501
ധ	502
ന	503
പ	504
ബ	505
ഭ	506
മ	507
യ	508
ര	509
റ	510
ല	511
ള	512
ഴ	513
വ	514
ശ	515
ഷ	516
സ	517
ാ	518
ി	519
ീ	520
ു	521
ൂ	522
ൃ	523
െ	524
േ	525
ൈ	526
ൊ	527
ോ	528
്	529
ൗ	530
ൻ	531
ർ	532
ൽ	533
ൾ	534
ả	535
ầ	536
ậ	537
ệ	538
ố	539
ớ	540
ờ	541
ở	542
ợ	543
ứ	544
‌	545
‍	546
‎	547
‏	548
‐	549
‒	550
•	551
‪	552
‫	553
‬	554
‭	555
′	556
⁄	557
⁠	558
⁪	559
⁫	560
⁬	561
⁭	562
⁯	563
€	564
₹	565
⃣	566
∙	567
≠	568
▪	569
►	570
◆	571
◉	572
●	573
★	574
☛	575
♥	576
♦	577
✳	578
❌	579
➡	580
➦	581
⦁	582
️	583
🇪	584
🇬	585
🇮	586
🇳	587
🌹	588
🏼	589
👇	590
👉	591
👊	592
👋	593
👌	594
💐	595
💚	596
💥	597
💪	598
🔥	599
🔴	600
🔸	601
🔹	602
😂	603
😉	604
😊	605
😜	606
😞	607
😠	608
😡	609
😥	610
🙂	611
🙏	612
🚩	613
🤜	614
🤭	615
##ు	616
##ద	617
##ి	618
##ర	619
##్	620
##త	621
##క	622
##ె	623
##ల	624
##స	625
##ం	626
##గ	627
##వ	628
##ొ	629
##ో	630
##ప	631
##ే	632
##న	633
##e	634
##s	635
##‌	636
##ట	637
##ా	638
##మ	639
##6	640
##9	641
##డ	642
##య	643
##జ	644
##బ	645
##ీ	646
##ష	647
##భ	648
##ع	649
##و	650
##ؤ	651
##ں	652
##o	653
##n	654
##a	655
##l	656
##శ	657
##ై	658
##ఘ	659
##చ	660
##ು	661
##ನ	662
##ಾ	663
##ವ	664
##ಣ	665
##ణ	666
##ନ	667
##c	668
##i	669
##f	670
##ూ	671
##ಡ	672
##ಿ	673
##r	674
##ధ	675
##థ	676
##ो	677
##ज	678
##न	679
##ा	680
##ओ	681
##ं	682
##హ	683
##خ	684
##ص	685
##ళ	686
##ग	687
##ౌ	688
##g	689
##h	690
##ఏ	691
##ఎ	692
##ಹ	693
##ೀ	694
##ದ	695
##ि	696
##र	697
##त	698
##ೈ	699
##m	700
##b	701
##ز	702
##ا	703
##د	704
##ی	705
##ل	706
##ق	707
##ے	708
##ر	709
##ಸ	710
##ೆ	711
##j	712
##ش	713
##୍	714
##ଧ	715
##ئ	716
##ృ	717
##ା	718
##ତ	719
##ି	720
##ఐ	721
##ೇ	722
##ಳ	723
##ಂ	724
##ಬ	725
##t	726
##ن	727
##ఫ	728
##ୁ	729
##ୀ	730
##ଲ	731
##p	732
##7	733
##3	734
##ٹ	735
##م	736
##ఆ	737
##4	738
##ہ	739
##ٰ	740
##ذ	741
##ڈ	742
##େ	743
##ର	744
##ଥ	745
##ୟ	746
##ت	747
##q	748
##u	749
##ఖ	750
##ै	751
##ఠ	752
##କ	753
##ଳ	754
##z	755
##w	756
##k	757
##x	758
##d	759
##ط	760
##ف	761
##5	762
##ଷ	763
##ತ	764
##y	765
##v	766
##8	767
##्	768
##ह	769
##ण	770
##پ	771
##ಯ	772
##ظ	773
##ರ	774
##್	775
##ಧ	776
##ೋ	777
##ಪ	778
##چ	779
##ହ	780
##ଦ	781
##ଃ	782
##ଖ	783
##घ	784
##س	785
##0	786
##ಜ	787
##2	788
##म	789
##ো	790
##ল	791
##্	792
##া	793
##ொ	794
##த	795
##ு	796
##ச	797
##்	798
##ک	799
##_	800
##ಘ	801
##ಟ	802
##1	803
##‍	804
##ಚ	805
##ಕ	806
##ଣ	807
##ಲ	808
##ఞ	809
##ج	810
##అ	811
##ସ	812
##ब	813
##ी	814
##ୋ	815
##ଇ	816
##ଛ	817
##ب	818
##ಥ	819
##स	820
##द	821
##ु	822
##ू	823
##क	824
##ଭ	825
##फ	826
##ಷ	827
##ल	828
##ಫ	829
##ھ	830
##ବ	831
##ح	832
##ث	833
##ಗ	834
##ம	835
##ூ	836
##க	837
##ಮ	838
##ೃ	839
##ఢ	840
##ई	841
##ड	842
##े	843
##ڑ	844
##ମ	845
##प	846
##थ	847
##:	848
##ಖ	849
##ఇ	850
##ଟ	851
##ಶ	852
##ट	853
##य	854
##ଶ	855
##ଡ	856
##ଫ	857
##ପ	858
##ଜ	859
##ୃ	860
##ୱ	861
##ೊ	862
##ଉ	863
##ଞ	864
##ఓ	865
##ଗ	866
##ଓ	867
##ಭ	868
##ಎ	869
##़	870
##ఛ	871
##ष	872
##ഴ	873
##ി	874
##യ	875
##ു	876
##ന	877
##്	878
##ത	879
##ാ	880
##ണ	881
##ু	882
##ক	883
##ত	884
##ি	885
##য	886
##দ	887
##ধ	888
##ౄ	889
##ೂ	890
##പ	891
##ൂ	892
##ർ	893
##വ	894
##گ	895
##ଏ	896
##ఈ	897
##च	898
##୦	899
##୨	900
##୧	901
##ध	902
##!	903
##ക	904
##छ	905
##ख	906
##ُ	907
##ಞ	908
##ଯ	909
##ʼ	910
##ୂ	911
##,	912
##"	913
##ଙ	914
##غ	915
##ञ	916
##ଢ	917
##ൊ	918
##ജ	919
##ങ	920
##ള	921
##ം	922
##ً	923
##െ	924
##.	925
##?	926
##ژ	927
##ە	928
##୮	929
##଼	930
##ട	931
##-	932
##ট	933
##ഷ	934
##व	935
##ൗ	936
##ല	937
##ൻ	938
##ఙ	939
##ଵ	940
##ौ	941
##ః	942
##ठ	943
##@	944
##ଚ	945
##ೌ	946
##ட	947
##ப	948
##ơ	949
##ற	950
##ଅ	951
##୩	952
##भ	953
##౦	954
##ଁ	955
##ন	956
##প	957
##র	958
##श	959
##ୈ	960
##ଠ	961
##ଆ	962
##ൽ	963
##ଂ	964
##ଘ	965
##ఒ	966
##🇳	967
###	968
##ভ	969
##ض	970
##ِ	971
##ఱ	972
##ॉ	973
##ி	974
##வ	975
##ः	976
##💪	977
##🔥	978
##)	979
##/	980
##୭	981
##⁬	982
##ர	983
##′	984
##ư	985
##ớ	986
##়	987
##ृ	988
##୬	989
##ಢ	990
##'	991
##ఝ	992
##⃣	993
##🙂	994
##😊	995
##ఉ	996
##â	997
##ര	998
##ച	999
##ۆ	1000
##ய	1001
##ோ	1002
##ல	1003
##മ	1004
##റ	1005
##േ	1006
##ഡ	1007
##സ	1008
##ധ	1009
##👌	1010
##🏼	1011
##💚	1012
##ي	1013
##آ	1014
##ോ	1015
##ও	1016
##ଝ	1017
##अ	1018
##ఽ	1019
##ে	1020
##ಆ	1021
##ಛ	1022
##۔	1023
##ீ	1024
##ए	1025
##ৰ	1026
##ব	1027
##ൾ	1028
##इ	1029
##ಠ	1030
##ந	1031
##ى	1032
##ଈ	1033
##ৱ	1034
##হ	1035
##आ	1036
##ୌ	1037
##୫	1038
##ா	1039
##ಒ	1040
##ಅ	1041
##୯	1042
##०	1043
##ெ	1044
##ை	1045
##ಐ	1046
##ள	1047
##😂	1048
##ശ	1049
##ன	1050
##ಇ	1051
##ড	1052
##ợ	1053
##ّ	1054
##🇮	1055
##ಉ	1056
##ఔ	1057
##ờ	1058
##🇬	1059
##🌹	1060
##୪	1061
##ڵ	1062
##চ	1063
##ফ	1064
##স	1065
##`	1066
##ী	1067
##ম	1068
##ங	1069
##ண	1070
##­	1071
##ả	1072
##ఁ	1073
##জ	1074
##ৈ	1075
##ീ	1076
##ố	1077
##⁠	1078
##ൃ	1079
##ứ	1080
##*	1081
##౬	1082
##झ	1083
##उ	1084
##+	1085
##ఋ	1086
##>	1087
##$	1088
##َ	1089
##ầ	1090
##ء	1091
##ệ	1092
##ঃ	1093
##ஜ	1094
##ه	1095
##❌	1096
##ढ	1097
##;	1098
##ڕ	1099
##౩	1100
##শ	1101
##গ	1102
##ே	1103
##ൈ	1104
##२	1105
##४	1106
##ಃ	1107
##౹	1108
##‌‌	1109
##ార	1110
##్ర	1111
##న్	1112
##ర్	1113
##ని	1114
##లు	1115
##స్	1116
##ంద	1117
##లో	1118
##ల్	1119
##‌‌‌‌	1120
##ారు	1121
##్య	1122
##కు	1123
##న్న	1124
##ట్	1125
##ంచ	1126
##క్	1127
ప్ర	1128
##ంది	1129
##గా	1130
##తు	1131
చే	1132
##ాల	1133
##రి	1134
##ను	1135
##ంట	1136
##ండ	1137
##ిన	1138
##ించ	1139
##త్	1140
##ప్	1141
##డు	1142
##ాయ	1143
##రు	1144
##ిక	1145
##ంత	1146
వి	1147
##లి	1148
##ార్	1149
ని	1150
##డి	1151
##టు	1152
##‌‌‌‌‌‌‌‌	1153
స్	1154
##ంగ	1155
##కి	1156
##సు	1157
##ంగా	1158
రా	1159
##ంలో	1160
##ద్	1161
##ప్ప	1162
##న్నారు	1163
##డ్	1164
##లా	1165
##చ్	1166
##మా	1167
##తి	1168
##స్తు	1169
లో	1170
కా	1171
##టి	1172
..	1173
##ష్	1174
##వా	1175
##టీ	1176
##స్త	1177
ను	1178
##న్ని	1179
##్యా	1180
##సి	1181
##చ్చ	1182
##యా	1183
##గు	1184
తె	1185
కు	1186
చె	1187
##దు	1188
##నే	1189
##‌‌‌	1190
##డా	1191
##ది	1192
##ాయి	1193
కో	1194
##మ్	1195
##ళ్	1196
##ందు	1197
##క్ష	1198
##తో	1199
##పు	1200
##ాలు	1201
##ేశ	1202
##ంచి	1203
పో	1204
##పీ	1205
##‌‌‌‌‌‌‌	1206
వె	1207
కొ	1208
కే	1209
##ారం	1210
పె	1211
మా	1212
##రా	1213
##ల్లో	1214
##ిత	1215
##వు	1216
కూ	1217
ము	1218
##నికి	1219
##లీ	1220
##సీ	1221
‌‌‌‌‌‌‌‌‌	1222
##ిల్	1223
##మి	1224
‌‌‌‌‌‌‌‌‌‌‌‌‌‌‌‌	1225
##ింది	1226
సి	1227
పా	1228
##ైన	1229
##లకు	1230
##్రి	1231
సం	1232
లే	1233
##క్క	1234
##మె	1235
తీ	1236
##ట్ట	1237
##్వ	1238
రె	1239
##ంగ్	1240
##ష్ట	1241
##ంతో	1242
##రో	1243
##లను	1244
##ారి	1245
##ామ	1246
వే	1247
##బ్	1248
##పై	1249
##ెస్	1250
##ద్ద	1251
నుంచి	1252
నే	1253
##బా	1254
##డం	1255
కూడా	1256
##ించారు	1257
వా	1258
చేశ	1259
సీ	1260
అధ	1261
##కో	1262
##కా	1263
ఉన్న	1264
##త్త	1265
గు	1266
##పో	1267
##ట్లు	1268
తో	1269
నిర్	1270
అయ	1271
బీ	1272
##ాన	1273
##ంద్ర	1274
చేయ	1275
##వి	1276
##షన్	1277
##స్తున్న	1278
##గ్	1279
##పా	1280
##యం	1281
సమ	1282
##వం	1283
గా	1284
పార్	1285
ప్రభ	1286
##సిన	1287
##ికి	1288
##ప్పు	1289
##బు	1290
##సుకు	1291
##ల్ల	1292
తెలి	1293
##నీ	1294
##జు	1295
##త్ర	1296
##టర్	1297
రో	1298
##ంట్	1299
##ాలని	1300
##ఆర్	1301
కి	1302
వచ్చ	1303
##ండి	1304
##తున్న	1305
వ్య	1306
చెప్ప	1307
##ందని	1308
##్రా	1309
##ుత్	1310
##గి	1311
##్రీ	1312
భార	1313
##ంటి	1314
పరి	1315
##ంటు	1316
##వే	1317
రూ	1318
##జ్	1319
##డ్డి	1320
##రీ	1321
##లే	1322
చేశారు	1323
##నా	1324
పై	1325
మీ	1326
##పి	1327
##ండ్	1328
##జీ	1329
##తం	1330
వై	1331
##యో	1332
పార్టీ	1333
అధిక	1334
##ూర్	1335
దీ	1336
ప్రభుత్	1337
దా	1338
##సం	1339
సా	1340
పే	1341
##ెట్	1342
అవ	1343
బా	1344
##ందుకు	1345
కార	1346
##కొ	1347
##ంటే	1348
ఆయ	1349
అని	1350
##ళ్ల	1351
##ంధ	1352
20	1353
నా	1354
##డీ	1355
##ద్య	1356
ఒక	1357
##ఎస్	1358
##స్థ	1359
##మ్మ	1360
##నం	1361
##ట్టు	1362
తన	1363
ప్రా	1364
##రం	1365
ఆయన	1366
ఎన్ని	1367
##ించిన	1368
##వర్	1369
రాష్ట	1370
వీ	1371
##దా	1372
##ారా	1373
##జా	1374
##ులు	1375
మొ	1376
##ారని	1377
##త్య	1378
##ాలి	1379
##ంబ	1380
ఎన్నిక	1381
అభ	1382
##ెక్	1383
##రే	1384
##సే	1385
చేసి	1386
శా	1387
టీ	1388
##ంప	1389
##ధి	1390
చూ	1391
వర	1392
##యి	1393
తెలిప	1394
##ంత్రి	1395
ఉండ	1396
##రుగు	1397
##ితే	1398
##్రెస్	1399
##వీ	1400
##జే	1401
##్యూ	1402
సె	1403
మె	1404
స్థ	1405
రాష్ట్ర	1406
చేసిన	1407
##హి	1408
జరి	1409
##ుల	1410
మే	1411
##దే	1412
రి	1413
##ధ్య	1414
##వాత	1415
స్ట	1416
నె	1417
డి	1418
కాంగ	1419
##క్కు	1420
##ండా	1421
##లంగా	1422
##ఖ్య	1423
మంది	1424
కాంగ్రెస్	1425
ప్రక	1426
హై	1427
##ాడు	1428
##ాలను	1429
రెడ్డి	1430
పోలీ	1431
జిల్	1432
##దేశ	1433
రాజ	1434
##రణ	1435
##ఫ్	1436
రోజు	1437
##ర్శ	1438
##యంలో	1439
##య్య	1440
మార్	1441
##బాద్	1442
##మైన	1443
##యే	1444
##ఎం	1445
##స్తున్నారు	1446
చి	1447
##సా	1448
##తా	1449
##క్ర	1450
##చి	1451
తా	1452
కోసం	1453
##మే	1454
##కే	1455
##‌లో	1456
మూ	1457
వర్	1458
##దీ	1459
జిల్లా	1460
##న్స్	1461
##ప్పుడు	1462
##ర్థ	1463
మో	1464
రై	1465
రెండ	1466
చేస్త	1467
సమా	1468
సు	1469
##తీ	1470
విష	1471
తెలంగా	1472
తెలంగాణ	1473
##కోవ	1474
##వారం	1475
##రించ	1476
##సులు	1477
అయితే	1478
రే	1479
##దని	1480
##ించి	1481
##లుగు	1482
చెప్పారు	1483
ది	1484
పు	1485
##ల్లి	1486
##ట్ల	1487
తి	1488
అను	1489
##కీ	1490
భా	1491
##కర్	1492
కార్య	1493
ప్రభుత్వం	1494
ఇచ్చ	1495
##శ్	1496
పొ	1497
తెలిపారు	1498
##ర్చ	1499
##డంతో	1500
తర్	1501
##ప్ర	1502
##ాలా	1503
లు	1504
తర్వాత	1505
##కుండా	1506
దేశ	1507
చంద్ర	1508
ప్రజ	1509
తీసుకు	1510
##ట్టి	1511
సిని	1512
##ంటూ	1513
బీజే	1514
##ించింది	1515
యా	1516
అనే	1517
జరిగ	1518
##వహ	1519
సో	1520
అధికారు	1521
బీజేపీ	1522
##మో	1523
##టిక	1524
తే	1525
వ్యక్	1526
ప్రతి	1527
కలి	1528
##తున్నారు	1529
లా	1530
##ము	1531
మరో	1532
పాటు	1533
##ామని	1534
మంత్రి	1535
ఉంది	1536
వ్యా	1537
ఏర్	1538
##ర్య	1539
##ుకు	1540
గ్ర	1541
##స్ట	1542
సినిమా	1543
కేంద్ర	1544
##వ్	1545
##జి	1546
అన్నారు	1547
లక్ష	1548
##బంధ	1549
ఆరో	1550
తమ	1551
##మ్మె	1552
##డే	1553
##ద్ధ	1554
##తులు	1555
శ్రీ	1556
వారి	1557
##డానికి	1558
##ాన్	1559
జీ	1560
##తుంది	1561
##టన	1562
ఎమ్మె	1563
మి	1564
ఎమ్మెల్	1565
##డ్డ	1566
క్ర	1567
నేత	1568
ఉంటు	1569
స్ప	1570
చాలా	1571
బె	1572
సీఎం	1573
##ాని	1574
##లం	1575
##ట్లా	1576
##ర్టు	1577
##కాశ	1578
జా	1579
##క్కువ	1580
##ోంది	1581
##బ్బ	1582
అంత	1583
##వర	1584
మాత్ర	1585
##ళ్లు	1586
ప్	1587
##న్‌	1588
రెండు	1589
##ించే	1590
##ందిన	1591
విజ	1592
##టో	1593
పి	1594
##ణా	1595
##రాబాద్	1596
పని	1597
అభి	1598
##పాటు	1599
##కులు	1600
తీసు	1601
##బాబు	1602
అస	1603
##దల	1604
##కూ	1605
సర్	1606
##పోయ	1607
సభ	1608
ఆర్	1609
##త్స	1610
మాట్లా	1611
ఎం	1612
ఆమె	1613
నెల	1614
##గ్ర	1615
##లోని	1616
హైద	1617
దీంతో	1618
గత	1619
ప్రధ	1620
##వరి	1621
##గొ	1622
జగ	1623
##ెన్	1624
చేసుకు	1625
వెళ్	1626
అందు	1627
అవకాశ	1628
##ాలకు	1629
పూర్	1630
##హా	1631
##ీల	1632
##వ్వ	1633
ముఖ్య	1634
""	1635
##గే	1636
##మార్	1637
బి	1638
మధ్య	1639
ఇప్ప	1640
వరకు	1641
మరి	1642
##లతో	1643
నీ	1644
హైదరాబాద్	1645
కానీ	1646
##మీ	1647
చంద్రబాబు	1648
ఎలా	1649
చేస్తున్న	1650
##గ్గ	1651
సూ	1652
##తూ	1653
తొ	1654
చెందిన	1655
వార	1656
కేసు	1657
ప్రాంత	1658
10	1659
ఎమ్మెల్యే	1660
‌‌‌‌	1661
##వేశ	1662
##క్కడ	1663
పోలీసులు	1664
నాయ	1665
చేసింది	1666
##ర్లు	1667
##తోంది	1668
##సారి	1669
కొత్త	1670
##శా	1671
##చారం	1672
ఇది	1673
సంబంధ	1674
##ెం	1675
గుర్	1676
##మెంట్	1677
బీఆర్	1678
##ర్కొ	1679
తెలు	1680
##స్తుంది	1681
బ్యా	1682
కార్	1683
##స్ట్	1684
##చార	1685
యూ	1686
జన	1687
##ందర్	1688
అధికారులు	1689
##గం	1690
నిర్వహ	1691
తర	1692
202	1693
పాల్	1694
క్	1695
##స్య	1696
##స్తే	1697
గె	1698
నిర్ణ	1699
ఎన్నికల	1700
ద్వ	1701
##ంపు	1702
##స్తోంది	1703
##బీ	1704
మహి	1705
##ెంట్	1706
సమయంలో	1707
##రించి	1708
##ేషన్	1709
యు	1710
కల	1711
భారీ	1712
కాల	1713
##ాయని	1714
##ినా	1715
##ెడ్డి	1716
పెద్ద	1717
##ూరు	1718
...	1719
లేదు	1720
##త్తు	1721
గంట	1722
కారణ	1723
##గర్	1724
మహిళ	1725
ఉద్య	1726
చేసే	1727
అమ	1728
అన	1729
అలా	1730
ఎక్కువ	1731
##ందించ	1732
భూ	1733
##ారంభ	1734
##ణి	1735
‌‌	1736
హా	1737
ప్రారంభ	1738
##డియా	1739
పెట్ట	1740
కని	1741
శి	1742
##ర్యా	1743
అభ్య	1744
##ానికి	1745
##ుడు	1746
##చే	1747
##హ్	1748
##షి	1749
ఫో	1750
##ైనా	1751
ముందు	1752
ప్రస్తు	1753
‌‌‌‌‌‌‌‌	1754
##క్స్	1755
##ందే	1756
సై	1757
##ేక	1758
##తే	1759
కేసీ	1760
ఇప్పుడు	1761
రాజకీ	1762
##ృష్	1763
డీ	1764
అత	1765
వల్ల	1766
మ్యా	1767
బో	1768
విద్య	1769
అవు	1770
##పించ	1771
కేసీఆర్	1772
##యోజ	1773
హె	1774
బీఆర్ఎస్	1775
##ాయం	1776
ఇవ్వ	1777
ఎస్	1778
ఇక	1779
##డిన	1780
##ంక	1781
కల్	1782
కుటు	1783
ఫి	1784
వారు	1785
అంద	1786
అర	1787
మీడియా	1788
జగన్	1789
ప్రభుత్వ	1790
కె	1791
##వన్	1792
##ఫీ	1793
ద్వారా	1794
ఒక్క	1795
విధ	1796
##ద్ర	1797
##ిల్లీ	1798
##ంలోని	1799
సాధ	1800
లోని	1801
పేర్కొ	1802
##ారీ	1803
చెబు	1804
ఇలా	1805
మన	1806
##00	1807
ఏర్పాటు	1808
##ర్మ	1809
కొన్ని	1810
ఏపీ	1811
##కాల	1812
##టా	1813
ప్రత్య	1814
కావ	1815
##తంగా	1816
##విత	1817
ప్రకట	1818
సమస్య	1819
##పే	1820
ప్రమా	1821
##స్థి	1822
##మని	1823
##ణ్	1824
అయ్య	1825
##తుల	1826
అధికార	1827
వచ్చిన	1828
##చ్చు	1829
జరుగు	1830
##క్రమ	1831
ఉంటుంది	1832
పలు	1833
అవకాశం	1834
##ంత్ర	1835
##ికెట్	1836
##ల్సి	1837
మహ	1838
తు	1839
బు	1840
పీ	1841
##శి	1842
పూర్తి	1843
ఉద్యో	1844
గో	1845
దే	1846
వెలుగు	1847
పోటీ	1848
##సీపీ	1849
రూప	1850
దీని	1851
లి	1852
బయ	1853
మాజీ	1854
శాఖ	1855
##రుకు	1856
##యర్	1857
##తీయ	1858
ప్రస్తుతం	1859
జరిగిన	1860
##ంజ	1861
వచ్చే	1862
షా	1863
##త్రి	1864
##లోకి	1865
పరిస్థి	1866
ఇండి	1867
##ందో	1868
##ెస్ట్	1869
వద్ద	1870
దు	1871
మొద	1872
##ార్థ	1873
##రగ	1874
19	1875
##దం	1876
పాల	1877
##ల్స్	1878
##టం	1879
ఆరోప	1880
ఉంట	1881
అధ్య	1882
అభ్యర్థ	1883
##వంత్	1884
సహ	1885
##ాల్లో	1886
చేస్తున్నారు	1887
##ాన్ని	1888
##కం	1889
కుటుంబ	1890
వర్ష	1891
##ాం	1892
##కపో	1893
ట్	1894
కొన	1895
సంస్థ	1896
##మంత్రి	1897
భారత్	1898
నో	1899
ఆధ	1900
ఎంపీ	1901
ఎదు	1902
##తర	1903
##వ్ర	1904
మొత్త	1905
మంచి	1906
మార	1907
మండ	1908
రేవంత్	1909
తీవ్ర	1910
##స్టు	1911
ట్ర	1912
హి	1913
##యత్	1914
విచార	1915
ఎన్నికల్లో	1916
విజయ	1917
##నించ	1918
పేరు	1919
##్యం	1920
##నర్	1921
ఉప	1922
##స్తూ	1923
##ెక్టర్	1924
చేప	1925
##ంబర్	1926
పాల్గొ	1927
భారత	1928
##టింగ్	1929
##డీపీ	1930
అన్ని	1931
##ంటర్	1932
201	1933
##డియో	1934
##గో	1935
క్యా	1936
##నాలు	1937
ఇప్పటిక	1938
##ల్‌	1939
స్థాన	1940
సమావేశ	1941
మూడు	1942
కమి	1943
పట్ట	1944
కుమార్	1945
##నున్న	1946
సందర్	1947
గ్రామ	1948
శు	1949
టీడీపీ	1950
నియోజ	1951
వెల్ల	1952
##ంటున్న	1953
ార	1954
ప్రయత్	1955
అం	1956
##యన్	1957
##తలు	1958
##బర్	1959
కలిసి	1960
కీల	1961
శాతం	1962
సే	1963
##నూ	1964
నమో	1965
తేదీ	1966
##ట్టుకు	1967
##లపై	1968
విడు	1969
##ణం	1970
నియోజక	1971
చర్య	1972
కోట్ల	1973
##త్తి	1974
##జర్	1975
##ిల్ల	1976
##దేశ్	1977
కొనసా	1978
ప్రత్యేక	1979
పరిశ	1980
గురించి	1981
##పంచ	1982
లేదని	1983
##షల్	1984
మ్యాచ్	1985
భాగ	1986
ధర	1987
చర్చ	1988
చో	1989
##భా	1990
వీడియో	1991
సందర్భ	1992
##హం	1993
మాత్రం	1994
##ద్ధి	1995
‌ను	1996
వేల	1997
ఉందని	1998
##రూ	1999
కర్	2000
విడుదల	2001
##ంగళ	2002
రాజకీయ	2003
వెళ్ల	2004
కీలక	2005
ప్రశ్	2006
కంప	2007
తప్ప	2008
##లేదు	2009
పవన్	2010
##బ్లీ	2011
##తున్నాయి	2012
##ైన్	2013
వైసీపీ	2014
##పూర్	2015
##లలో	2016
ఉన్నారు	2017
లను	2018
రు	2019
##కర	2020
ప్రధాన	2021
15	2022
అధ్యక్ష	2023
నియోజకవర్	2024
విచారణ	2025
ఉన్నాయి	2026
##డ్డు	2027
హో	2028
##మాండ్	2029
##పర్	2030
##వడం	2031
వెల్లడ	2032
##మర్శ	2033
##్రో	2034
న్	2035
ప్రభా	2036
పూ	2037
##హు	2038
లీ	2039
ఢిల్లీ	2040
దూ	2041
##పె	2042
##యోగ	2043
అన్న	2044
మాత్రమే	2045
##ష్టం	2046
##సింది	2047
జూ	2048
వ్యక్తం	2049
విషయం	2050
పద	2051
##దన	2052
##దర్శ	2053
బయట	2054
ఎన్	2055
ఘటన	2056
##రించారు	2057
##ైంది	2058
అర్	2059
జో	2060
##్వర	2061
అవస	2062
అసెం	2063
అప్ప	2064
ఉద	2065
##ినీ	2066
అసెంబ్లీ	2067
##వృ	2068
వారికి	2069
##కె	2070
##వై	2071
##కుల	2072
##ంటారు	2073
##ద్దు	2074
ఉండే	2075
##ాక్	2076
సభ్య	2077
తాజా	2078
లక్షల	2079
##ానం	2080
చేయాలని	2081
##స్తారు	2082
అమ్మ	2083
వంటి	2084
##క్షన్	2085
సమాచారం	2086
12	2087
ఉత్త	2088
ముఖ్యమంత్రి	2089
##వల	2090
##లింగ్	2091
సూచ	2092
దర్శ	2093
##వరణ	2094
ఇప్పటికే	2095
నుండి	2096
##బో	2097
చేసు	2098
యువ	2099
పోలీసు	2100
##గిన	2101
పడు	2102
##్రే	2103
ప్రపంచ	2104
##రల్	2105
##రారు	2106
##ారెడ్డి	2107
విమర్శ	2108
వాటి	2109
మాట్లాడు	2110
ప్రజలు	2111
##కోర్టు	2112
డై	2113
హీ	2114
##ెనీ	2115
మీద	2116
మృ	2117
##దిక	2118
##రిగి	2119
ప్రధాని	2120
తిరు	2121
వ్యక్తి	2122
వార్	2123
అదే	2124
పను	2125
కోర్టు	2126
నాలు	2127
##సర్	2128
కంపెనీ	2129
రాష్ట్రంలో	2130
ఇండియా	2131
##నున్నారు	2132
లేదా	2133
సంఘ	2134
సందర్భంగా	2135
తాను	2136
ఆదేశ	2137
వెంట	2138
‌కు	2139
చిన్న	2140
తెలుగు	2141
##గ్గు	2142
##టే	2143
##డాది	2144
రంగ	2145
తరు	2146
##టీఆర్	2147
ఎలాంటి	2148
వ్యవ	2149
##ంటున్నారు	2150
కింద	2151
స్వా	2152
##టె	2153
చిత	2154
##వో	2155
##నల్	2156
మోదీ	2157
మొత్తం	2158
అత్య	2159
తొలి	2160
ప్రకారం	2161
జై	2162
ప్రయా	2163
ఆది	2164
న్యూ	2165
విని	2166
##బ్బంది	2167
చేయడం	2168
నగ	2169
అమె	2170
ఆల	2171
##యు	2172
##తుందని	2173
నిర్మా	2174
##త్మ	2175
పిల్ల	2176
##పడ్డ	2177
అంటూ	2178
##ెల్	2179
##ంతరం	2180
##ినే	2181
సిద్ధ	2182
##కంగా	2183
30	2184
ఇతర	2185
ప్లా	2186
ఇం	2187
అభివృ	2188
సోషల్	2189
న్య	2190
కాదు	2191
సరి	2192
ప్రే	2193
ఇద్ద	2194
##జన్	2195
ఆరోగ	2196
నేతలు	2197
##నుంది	2198
ఆర్థ	2199
టై	2200
విద్యార్థ	2201
దగ్గ	2202
రామ	2203
##టక	2204
చర్యలు	2205
##ృష్ణ	2206
11	2207
రైతు	2208
##క్‌	2209
##ానని	2210
హీరో	2211
రావు	2212
##వత్స	2213
అక్కడ	2214
డబ్	2215
##య్	2216
ారు	2217
గెలి	2218
##శ్వ	2219
ఆర్థిక	2220
ంచ	2221
సంవత్స	2222
##క్తి	2223
##జెక్	2224
##ించుకు	2225
##స్‌	2226
అంటే	2227
చేపట్ట	2228
ఇందు	2229
ఇదే	2230
##ట్‌	2231
జరగ	2232
##ల్సిన	2233
##ించు	2234
అది	2235
విక	2236
కోట్లు	2237
##ంధీ	2238
##తారు	2239
ఆఫీ	2240
ల్	2241
##ించడం	2242
##తాయి	2243
దాని	2244
##టమి	2245
అలాగే	2246
పర్య	2247
అమెరి	2248
##వులు	2249
##ళన	2250
##స్సు	2251
##వడంతో	2252
##ేశారు	2253
##పల్లి	2254
##డుగు	2255
క్రమ	2256
గుర్త	2257
పరుగు	2258
నిలి	2259
ఇన్	2260
కౌ	2261
##ప్తంగా	2262
##సె	2263
రోజుల	2264
##కున్న	2265
పేర్కొన్నారు	2266
##ించాలని	2267
##ాము	2268
##్యంలో	2269
##ంలోకి	2270
##ల్డ్	2271
అందించ	2272
##ప్రదేశ్	2273
వెంక	2274
ఇచ్చిన	2275
వెళ్లి	2276
##లుగా	2277
అయిన	2278
గొ	2279
##యాన్ని	2280
డిమాండ్	2281
##కోవడం	2282
బాల	2283
తాజాగా	2284
ప్రాజెక్	2285
తెలియ	2286
##చు	2287
స్వ	2288
##నించారు	2289
తెలిపింది	2290
చెబుతున్నారు	2291
దాదా	2292
సొ	2293
ఏడాది	2294
##టికీ	2295
##స్వా	2296
నేప	2297
వచ్చి	2298
##లర్	2299
ఫ్యా	2300
##న్సి	2301
మేర	2302
అమలు	2303
దాదాపు	2304
డె	2305
సంబంధించిన	2306
ట్రా	2307
కార్యక్రమ	2308
##ష్క	2309
భక్	2310
పడ	2311
గతంలో	2312
పెంచ	2313
పం	2314
పరిస్థితి	2315
తగ్గ	2316
ంద	2317
లె	2318
పడి	2319
##యాలు	2320
##లై	2321
చేరుకు	2322
ఇటీ	2323
గాంధీ	2324
గౌ	2325
‌లో	2326
##ూడ	2327
##ంతి	2328
##సభ	2329
లకు	2330
టి	2331
##ల్లు	2332
##ందోళన	2333
##రీక్ష	2334
బ్యాం	2335
డబ్బు	2336
అక్క	2337
గంటల	2338
మాట్లాడుతూ	2339
##పడు	2340
స్థాని	2341
హామ	2342
అమెరికా	2343
భాగంగా	2344
స్టార్	2345
వ్యవహ	2346
పెరుగు	2347
మూవీ	2348
##దారు	2349
##ంతా	2350
##ేశ్	2351
అనేక	2352
ఫలి	2353
##స్ప	2354
నేపథ	2355
కారణంగా	2356
కనిపి	2357
అభివృద్ధి	2358
వైఎస్	2359
నమోదు	2360
రీ	2361
ఆఫ్	2362
అనంతరం	2363
##కుడు	2364
25	2365
##లిక	2366
##డర్	2367
ప్రజా	2368
వెంటనే	2369
జరిగింది	2370
##క్ష్	2371
##కోవాలని	2372
మళ్	2373
##పక్ష	2374
కొంత	2375
పథ	2376
##రంగా	2377
##సన	2378
విషయంలో	2379
నిర్ణయం	2380
##తిక	2381
నిర్మ	2382
దగ్గర	2383
చీ	2384
సమీ	2385
నేను	2386
వ్యాఖ్య	2387
లేకుండా	2388
డే	2389
##ార్డు	2390
స్థాయి	2391
మాట్లాడ	2392
అంచ	2393
##ద్ది	2394
లేద	2395
టా	2396
ఫోన్	2397
14	2398
##యూ	2399
##వాల	2400
జారీ	2401
##ంధ్ర	2402
చై	2403
పరీక్ష	2404
అంశ	2405
ఇందులో	2406
సర	2407
దాడి	2408
##డని	2409
##్యాల	2410
తరువాత	2411
##రోజు	2412
##లోనే	2413
వచ్చింది	2414
##రెడ్డి	2415
రూపాయ	2416
##న్నా	2417
వస్తు	2418
పాత్ర	2419
కేసులో	2420
##లుపు	2421
పనిచే	2422
నేపథ్యంలో	2423
సింగ్	2424
##క్షణ	2425
కొంద	2426
డ్ర	2427
ఆందోళన	2428
రాహు	2429
##స్తామని	2430
##గాలు	2431
వివా	2432
కేట	2433
ఆశ	2434
ఎక్కువగా	2435
ఫొ	2436
చూడ	2437
##ాలతో	2438
##స్క	2439
మై	2440
##ర్యాదు	2441
కళ	2442
##ెన్స్	2443
దొ	2444
జీవిత	2445
##నని	2446
ప్రి	2447
##క్షి	2448
##లువ	2449
##సేన	2450
కాగా	2451
ఫిర్యాదు	2452
ప్రచారం	2453
రిక	2454
తెలిసి	2455
ఫొటో	2456
యూని	2457
ఇచ్చారు	2458
##కొని	2459
నియ	2460
##ళ్లి	2461
ఉదయం	2462
##ర్చు	2463
చిత్ర	2464
గుర్తు	2465
తయ	2466
చట్ట	2467
##టర్లు	2468
పెరి	2469
##ాయ్	2470
డైర	2471
జిల్లాలో	2472
హామీ	2473
పైన	2474
##బాటు	2475
##ులకు	2476
##‌కు	2477
మొదటి	2478
##పతి	2479
##ండు	2480
18	2481
ఎంత	2482
డాక్	2483
సౌ	2484
స్టేషన్	2485
50	2486
మార్పు	2487
##శాఖ	2488
గ్రా	2489
మద్ద	2490
##నాల	2491
బాధ్య	2492
కథ	2493
ఇంట	2494
బంగ	2495
##పడి	2496
##డో	2497
హాజ	2498
##రాలు	2499
##కెట్	2500
##నియర్	2501
వైద్య	2502
వివ	2503
##న్నీ	2504
##చర్	2505
##య్యారు	2506
నాలుగు	2507
త్వర	2508
తల	2509
అంది	2510
బల	2511
##రికి	2512
ఖా	2513
##టర్ల	2514
నిర్ణయ	2515
క్రమంలో	2516
శ్రీని	2517
##పడ్డారు	2518
న్యాయ	2519
సాయ	2520
ఆరోపణ	2521
వివర	2522
సంఖ్య	2523
పార్ల	2524
మీడియాలో	2525
పోయ	2526
తల్లి	2527
మరింత	2528
శివ	2529
రాహుల్	2530
రెండో	2531
జట్టు	2532
పంప	2533
కాలే	2534
శ్రీనివా	2535
చేస్తూ	2536
##రువు	2537
ఇంటి	2538
##ెస్టు	2539
ట్వ	2540
లై	2541
వ్యాప	2542
పాల్గొన్నారు	2543
అందుకే	2544
##తిరే	2545
ఆంధ్ర	2546
##నుగో	2547
తెలుస్తోంది	2548
##ధిక	2549
##నలు	2550
##ీర్	2551
ఇప్పటి	2552
ఉంటే	2553
##పేట	2554
24	2555
##యల్	2556
##కొచ్చ	2557
వాతా	2558
##గాల	2559
##ండగా	2560
వ్యతిరే	2561
గి	2562
కొనసాగు	2563
17	2564
జనసేన	2565
##న్ను	2566
ప్రభుత్వా	2567
మేరకు	2568
##స్తా	2569
మళ్లీ	2570
కంటే	2571
ాల	2572
తెలంగాణలో	2573
ఇలాంటి	2574
ఎందుకు	2575
##మాన్	2576
వాతావరణ	2577
##కాలు	2578
ప్రజల	2579
ఏం	2580
##భి	2581
వస్తున్న	2582
##an	2583
##పోయిన	2584
అభ్యర్థి	2585
హైకోర్టు	2586
##రంలో	2587
##ేందుకు	2588
వాహ	2589
కేటీఆర్	2590
ఆరోపించారు	2591
మరణ	2592
##టికి	2593
తీర్	2594
పైగా	2595
కలెక్టర్	2596
13	2597
##షనల్	2598
చు	2599
##మారు	2600
##రిక	2601
న్న	2602
ంది	2603
నాయకులు	2604
రిలీ	2605
తిరిగి	2606
##టంతో	2607
##ఫి	2608
విమా	2609
##సై	2610
##వాడ	2611
బిల్	2612
అరెస్ట్	2613
##మల	2614
సిబ్బంది	2615
ఐదు	2616
ప్రకటన	2617
భర్	2618
తెలిసిందే	2619
##ోర్	2620
జాతీయ	2621
అధ్యక్షుడు	2622
16	2623
రాత్రి	2624
##వైపు	2625
##ణాలు	2626
చా	2627
మద్దతు	2628
##గానే	2629
##విధ	2630
2024	2631
##ారణ	2632
ప్రాజెక్టు	2633
ఇటీవల	2634
విన	2635
200	2636
సోమ	2637
ప్రొ	2638
శని	2639
##ట్స్	2640
సంగ	2641
##రాల	2642
ఆధార	2643
##వ్యా	2644
కర్ణా	2645
పంచ	2646
ఫై	2647
##ార్లు	2648
కర్ణాటక	2649
వారిని	2650
చేసుకున్న	2651
##ళి	2652
ఆలో	2653
##ందన్నారు	2654
ఫ్	2655
##త్వ	2656
వెల్లడించారు	2657
నూ	2658
##బడి	2659
కొనుగో	2660
ఫు	2661
##బి	2662
ఇక్కడ	2663
కొందరు	2664
శుక్ర	2665
స్టే	2666
వృ	2667
##టరీ	2668
నిల	2669
నింది	2670
నీటి	2671
విజయం	2672
##్యార	2673
కాకుండా	2674
##ముఖ	2675
క్ష	2676
##టల్	2677
##ధు	2678
కమిటీ	2679
దో	2680
##స్టర్	2681
వీటి	2682
##యిల్	2683
##ంతు	2684
##ంప్	2685
##یں	2686
కారు	2687
##ర్ర	2688
తక్కువ	2689
గురు	2690
మంగళ	2691
ఆస	2692
##చిన	2693
##ర్మన్	2694
గాయ	2695
##ండర్	2696
##ారో	2697
వస్త	2698
##యిన్	2699
హత్య	2700
##గంలో	2701
##శారు	2702
##ఎల్	2703
##బుల్	2704
తనకు	2705
భార్య	2706
నమ్మ	2707
కిలో	2708
రోడ్డు	2709
##ండ్ల	2710
తీసుకున్న	2711
##వన	2712
ల్లో	2713
ఇంకా	2714
ఇద్దరు	2715
ాయి	2716
మాట	2717
ఆగ	2718
రైల్	2719
ఎవర	2720
ఏళ్ల	2721
ఉద్యోగు	2722
అందుకు	2723
##వారు	2724
##ృష్ట	2725
##క్కి	2726
),	2727
ఉత్	2728
ఎక్స్	2729
చోటు	2730
పనులు	2731
ించ	2732
కోరారు	2733
పక్క	2734
చని	2735
వేయ	2736
##సీసీ	2737
ఆంధ్రప్రదేశ్	2738
నిర	2739
వెంకట	2740
పర్	2741
##స్టి	2742
ందు	2743
వైరల్	2744
బౌ	2745
ఉపయోగ	2746
కేవ	2747
షే	2748
##పడ	2749
బెంగళ	2750
##ంద్	2751
జి	2752
##ారాయ	2753
##రమైన	2754
బై	2755
##రేషన్	2756
అతని	2757
ఆద	2758
పాకి	2759
నగర్	2760
##ట్టిన	2761
జే	2762
టికెట్	2763
భావి	2764
##దాలు	2765
సాగు	2766
పోలీస్	2767
సుప	2768
మారింది	2769
బెంగళూరు	2770
కేవలం	2771
రాశి	2772
ఇంట్	2773
##ందా	2774
పరిధి	2775
##పోయింది	2776
స్కూ	2777
రాష్ట్రా	2778
హెచ్చ	2779
అభిమా	2780
అల	2781
అడుగు	2782
మోడీ	2783
##్యు	2784
అందులో	2785
ఆరోగ్య	2786
ాడు	2787
ప్రాంతాల్లో	2788
దేశంలో	2789
ఇంటర్	2790
22	2791
##ృష్టి	2792
అతి	2793
సూచించారు	2794
మొదల	2795
సర్క	2796
##మై	2797
చేశాడు	2798
##ించేందుకు	2799
ఎవరి	2800
##మవు	2801
##డిగా	2802
ఏపీలో	2803
మార్కెట్	2804
##ఖా	2805
##చుకు	2806
##ంటీ	2807
కోల్	2808
పెట్టి	2809
క్రి	2810
##థ్	2811
ముగి	2812
##పోయారు	2813
నిర్వ	2814
##వీక	2815
కార్యకర్	2816
అధికారంలోకి	2817
లేక	2818
సూర్	2819
మారు	2820
##చ్చి	2821
కేంద్రం	2822
2023	2823
##జయ్	2824
##చిత	2825
ప్రై	2826
##వాల్	2827
లేని	2828
ఫా	2829
వర్షాలు	2830
సంచ	2831
అవసరం	2832
రైల్వే	2833
భద్ర	2834
కష్ట	2835
తమి	2836
రోడ్	2837
వైపు	2838
చెప్పు	2839
అనుమ	2840
మరోసారి	2841
తాము	2842
ప్రజలకు	2843
పెట్టు	2844
మీరు	2845
##యానికి	2846
ఎంతో	2847
లక్ష్	2848
##్రీం	2849
స్పష్టం	2850
ఉంచ	2851
ప్రవేశ	2852
సీనియర్	2853
రిలీజ్	2854
కొనుగోలు	2855
సంద	2856
##ణు	2857
##జ్ర	2858
ఆలోచ	2859
పోరా	2860
మండి	2861
స్పందించ	2862
బాధ	2863
##క్రమా	2864
ఉంటాయి	2865
##ంత్	2866
బ్	2867
రావ	2868
చివరి	2869
ట్లు	2870
వరు	2871
##లేదని	2872
పెళ్లి	2873
##గింది	2874
అంతే	2875
##వ్యాప్తంగా	2876
తెర	2877
చెల్ల	2878
##‌ర్	2879
అందుబాటు	2880
యో	2881
సమయం	2882
తరల	2883
##నగర్	2884
సేవ	2885
సొంత	2886
##స్తాన్	2887
کی	2888
ారని	2889
మృతి	2890
టె	2891
##తిని	2892
డాక్టర్	2893
రాజీ	2894
తొల	2895
##రియా	2896
ప్రకటించారు	2897
అక్	2898
##ధులు	2899
పాట	2900
##ేమ	2901
ప్రమాదం	2902
##డులు	2903
వివిధ	2904
లతో	2905
##‌ను	2906
గుర	2907
సుప్రీం	2908
గంటలకు	2909
##ಲ್	2910
ప్లే	2911
##ష్య	2912
వ్యవస్థ	2913
గ్రూ	2914
##ేశ్వ	2915
కార్యాల	2916
కాల్	2917
మరియు	2918
పరుగులు	2919
పోలింగ్	2920
నాగ	2921
ఆహ	2922
##శాల	2923
వ్యాఖ్యలు	2924
డైరెక్టర్	2925
అడి	2926
బస్సు	2927
తెలుసుకు	2928
ఇంత	2929
లేకపో	2930
నరే	2931
జూన్	2932
ముందుకు	2933
##ికల్	2934
ఆత్మ	2935
##శే	2936
##నేందుకు	2937
##కోవాలి	2938
##ాలపై	2939
సర్వే	2940
##క్త	2941
వీరి	2942
ఫీ	2943
ఆట	2944
భూమి	2945
##ల్లా	2946
##జన	2947
##ద్యా	2948
##నె	2949
నిర్వహి	2950
మంత్ర	2951
శుక్రవారం	2952
##ండ్రి	2953
##ప్తు	2954
##వరకు	2955
వేదిక	2956
ఇబ్బ	2957
లాంటి	2958
ప్రముఖ	2959
##వుల	2960
రోజుల్లో	2961
మండల	2962
##బ్ర	2963
నిజ	2964
##మయ్య	2965
##ప్పటికీ	2966
నిర్వహించారు	2967
పోస్టు	2968
కూటమి	2969
అప్	2970
##వారి	2971
##డుకు	2972
##మ్స్	2973
బుధ	2974
##వంత	2975
ఫలిత	2976
##ర్స్	2977
ఎవ	2978
కట్ట	2979
పూజ	2980
జైలు	2981
వాటిని	2982
సోమవారం	2983
21	2984
##ర్ట్	2985
సంబంధించి	2986
ప్రమాద	2987
అనేది	2988
##కింగ్	2989
రాయ	2990
##సెస్	2991
కృ	2992
‌తో	2993
##ాక	2994
బొ	2995
క్రికెట్	2996
జె	2997
ఎన్నికలు	2998
##ర్‌	2999
##బీసీ	3000
ఇబ్బందు	3001
##ండీ	3002
పరిష్క	3003
బోర్	3004
##రులు	3005
స్త	3006
##తిలో	3007
వివరించారు	3008
##తన	3009
##గిరి	3010
చేస్తే	3011
మెంట్	3012
మరోవైపు	3013
పరిశీల	3014
చేస్తు	3015
##ారాయణ	3016
దీనికి	3017
కార్యక్రమా	3018
అభిప్ర	3019
##పొ	3020
బాధి	3021
##డిని	3022
##దో	3023
##రావు	3024
యాద	3025
మైన	3026
ముంబ	3027
నివే	3028
##వుడ్	3029
దీనిపై	3030
అందరి	3031
మాన	3032
చేసేందుకు	3033
ఇజ్ర	3034
##ారిటీ	3035
40	3036
కర	3037
ఎన్న	3038
##ితా	3039
##ానీ	3040
##్రియ	3041
అధినే	3042
జరిగే	3043
ఉంటుందని	3044
కనిపించ	3045
ప్రో	3046
##ప్టె	3047
బాగా	3048
రిజర్	3049
బయటకు	3050
##నింగ్	3051
ఎయి	3052
##న్య	3053
##నుక	3054
##లాండ్	3055
##పాల్	3056
సెల	3057
##ంత్రం	3058
దృష్టి	3059
అండ్	3060
కేసులు	3061
సంక్ష	3062
ప్రశ్నించారు	3063
ఆరు	3064
వస్తే	3065
##వచ్చు	3066
అప్పు	3067
పాలన	3068
లోకి	3069
బ్ర	3070
##ణీ	3071
ఆదివారం	3072
దక్షి	3073
పంట	3074
కృష్ణ	3075
దర్యా	3076
##ప్షన్	3077
##గ్రహం	3078
##టీసీ	3079
##ెట్లు	3080
##మూ	3081
పేరుతో	3082
##వాళ	3083
కమ	3084
చేయడానికి	3085
మార్చి	3086
నమోద	3087
ాయ	3088
శ్రీనివాస్	3089
##డికి	3090
నేడు	3091
తమిళ	3092
అర్థ	3093
ప్రతిపక్ష	3094
బంగారం	3095
చైర్మన్	3096
ఇజ్రాయ	3097
గే	3098
ప్రస	3099
##పాల	3100
తీసుకె	3101
బీసీ	3102
##ెబ్బ	3103
##స్తున్నాయి	3104
ఒకే	3105
చేరి	3106
##పురం	3107
##లియా	3108
అక్టో	3109
అద	3110
##తల	3111
##ళ్ళ	3112
మంగళవారం	3113
చెన్న	3114
కవిత	3115
దర్యాప్తు	3116
వయ	3117
విస్త	3118
పేర్కొంది	3119
శరీ	3120
##న్సిప	3121
సాయంత్రం	3122
తప్పు	3123
రద్దు	3124
చీఫ్	3125
ఆప	3126
##ండ్ర	3127
రైతులు	3128
చేస	3129
శనివారం	3130
వరద	3131
ఆరోపణలు	3132
అక్రమ	3133
##హ్మ	3134
చేశారని	3135
##ంగల్	3136
##దుపు	3137
తేదీన	3138
కల్యా	3139
విలువ	3140
ఎమ్మెల్సీ	3141
ఓటు	3142
##పించారు	3143
ఓవర్	3144
##డుతున్న	3145
##ంస	3146
##ళీ	3147
##రుపు	3148
##్రమ	3149
సంజయ్	3150
సహాయ	3151
అంచనా	3152
బ్రి	3153
ఏర్పా	3154
ఇంట్లో	3155
అభిమాను	3156
బాబు	3157
కేటాయ	3158
వరకూ	3159
అయ్యారు	3160
మండలం	3161
##హన్	3162
మర	3163
అధినేత	3164
##జ్ఞ	3165
డిసె	3166
మని	3167
పోస్ట్	3168
##రించిన	3169
పిటి	3170
##ీవుడ్	3171
ప్రయాణి	3172
తది	3173
దక్క	3174
సహా	3175
##ెట్టి	3176
జరుగుతున్న	3177
స్వామి	3178
పార్టీకి	3179
వంద	3180
హు	3181
వాళ్లు	3182
సెప్టె	3183
##ర్ల	3184
నడు	3185
##సూ	3186
ముగ్గు	3187
చెప్పిన	3188
##జె	3189
రైలు	3190
##న్నాయి	3191
విశాఖ	3192
##్యూటీ	3193
##తికి	3194
##ంకర్	3195
##వాల్సి	3196
##త్వం	3197
100	3198
##బీఐ	3199
##ికిత్స	3200
స్థానిక	3201
డ్రై	3202
శుభ	3203
##వె	3204
##మ్మి	3205
కార్యక్రమంలో	3206
23	3207
సభ్యులు	3208
కంట	3209
##రుగా	3210
తగ్	3211
##సిటీ	3212
సిటీ	3213
##ారాన్ని	3214
##సుప	3215
గురువారం	3216
##స్థాన్	3217
##ీక	3218
##ితం	3219
కళ్యా	3220
విద్యా	3221
పంపి	3222
##జిక	3223
అక్కడి	3224
తయారు	3225
అత్యంత	3226
టెక్	3227
ఎత్తు	3228
అయినా	3229
విధంగా	3230
భర్త	3231
విదేశ	3232
పెట్టుకు	3233
##పడిన	3234
నిజా	3235
##దర్శి	3236
##పుణ	3237
సమస్యలు	3238
##స్వామి	3239
సంతో	3240
##పం	3241
##ణంలో	3242
నివేదిక	3243
##మంది	3244
లోనూ	3245
చేస్తామని	3246
విమర్శించారు	3247
బంధ	3248
రోజులు	3249
మహిళా	3250
జరిగి	3251
మందికి	3252
నట	3253
స్థాయిలో	3254
నిమి	3255
అంగ	3256
పార్లమెంట్	3257
ఆసుప	3258
##చారు	3259
ప్రాంతంలో	3260
మాట్లాడారు	3261
##డ్జ	3262
ఐపీ	3263
బీబీసీ	3264
##ర్మి	3265
నిరసన	3266
గవర్	3267
##మిక	3268
సూపర్	3269
భారీగా	3270
మొదలు	3271
చైనా	3272
##్యంగా	3273
##ంచింది	3274
సహక	3275
సింగ	3276
చికిత్స	3277
##మైంది	3278
బిల్లు	3279
##దేశం	3280
##తులకు	3281
విక్ర	3282
పార్టీలో	3283
యుద్ధ	3284
కావడంతో	3285
దశ	3286
28	3287
##ాలంటే	3288
ఎక్కడ	3289
నామ	3290
అరెస్టు	3291
##సర	3292
##ందం	3293
ప్రేమ	3294
##లన	3295
గెలు	3296
చేరు	3297
భారతీయ	3298
ల్యా	3299
ప్రైవే	3300
కప్	3301
అంతర్	3302
నాకు	3303
భక్తులు	3304
పది	3305
##ప్తి	3306
చేసినట్లు	3307
తీసుకో	3308
సాధారణ	3309
బుధవారం	3310
##ట్రో	3311
##ారులు	3312
##గాయి	3313
ఎదుర్కొ	3314
##నియా	3315
షర్మి	3316
##డమే	3317
##బె	3318
అడ్డు	3319
ట్యా	3320
నెలకొ	3321
గ్రామా	3322
##రంగ	3323
కాపా	3324
పర్యటన	3325
ఖర్చు	3326
##ాబాద్	3327
పాఠ	3328
##ులను	3329
మున్సిప	3330
తమకు	3331
నై	3332
##రాజ్	3333
ప్రభావం	3334
వాళ్ల	3335
##డ్జెట్	3336
##తులను	3337
సమీప	3338
ందుకు	3339
దెబ్బ	3340
లైన్	3341
నరేంద్ర	3342
ఈసారి	3343
کے	3344
ఏప్ర	3345
కీ	3346
##‌ల	3347
ప్రకటించింది	3348
ఏప్రిల్	3349
రాజ్	3350
వరుస	3351
ఎల	3352
స్తు	3353
యాక్	3354
##ఖాస్తు	3355
నవం	3356
##బట్టి	3357
దాఖ	3358
విద్యుత్	3359
ఉపా	3360
##టెన్	3361
##గ్రత్త	3362
##ప్పి	3363
చేయాలి	3364
వరల్డ్	3365
హక్కు	3366
##లిం	3367
భావ	3368
అడ్	3369
##ండె	3370
స్వీక	3371
##ికా	3372
ముఖ్యంగా	3373
##20	3374
##స్ట్రే	3375
##కోవడానికి	3376
ఆక	3377
వేడు	3378
అయి	3379
అసలు	3380
##పెట్ట	3381
##ీట్	3382
##డవ	3383
##వాస	3384
డిప	3385
##ప్పుడ	3386
మెడ	3387
క్వ	3388
ఇవ్వాలని	3389
వినియోగ	3390
##రావ	3391
పిటిషన్	3392
##ొక	3393
కార్మి	3394
పలువు	3395
నటి	3396
##నామా	3397
చరి	3398
దర	3399
కొట్ట	3400
పదే	3401
బహి	3402
##ాలే	3403
##దులు	3404
కళ్యాణ్	3405
##ితంగా	3406
పౌ	3407
కామెంట్	3408
##ామన్నారు	3409
##ద్దీ	3410
ఎంప	3411
జిల్లాల్లో	3412
బెయిల్	3413
సుప్రీంకోర్టు	3414
హాజర	3415
తీర్పు	3416
వేగ	3417
అంటున్నారు	3418
##చూ	3419
జాగ్రత్త	3420
రికార్డు	3421
మండిపడ్డారు	3422
అవి	3423
బే	3424
అక్టోబర్	3425
##యాల్లో	3426
##రణ్	3427
నోటీ	3428
విమర్శలు	3429
నష్ట	3430
తెచ్చ	3431
##హె	3432
మహా	3433
##టై	3434
##కులకు	3435
అలాంటి	3436
ఆడ	3437
ఖమ్మ	3438
వరంగల్	3439
వెళ్లే	3440
హింద	3441
##సన్	3442
లోనే	3443
ఎంపిక	3444
సిరీ	3445
ఇండ	3446
డిసెంబర్	3447
లోక్	3448
##సిడ	3449
వు	3450
సామా	3451
గ్రూప్	3452
దరఖాస్తు	3453
ఆన	3454
బడ్జెట్	3455
27	3456
షె	3457
##ధ్యా	3458
##పుడు	3459
పూర్తిగా	3460
##ళ్లకు	3461
మల్ల	3462
##ంక్	3463
##పరి	3464
క్ల	3465
ఎదురు	3466
ధరలు	3467
ఉన్నట్లు	3468
ప్లాన్	3469
ఎల్	3470
ఫైన	3471
##బితా	3472
సెప్టెంబర్	3473
##మిత్	3474
విషయాన్ని	3475
##లేక	3476
స్థానంలో	3477
సమావేశం	3478
తండ్రి	3479
ఇబ్బందులు	3480
##ొచ్చు	3481
##రియ	3482
పల్లి	3483
తోపాటు	3484
##ండ్లు	3485
కోరు	3486
ఇంటికి	3487
میں	3488
బాధ్యత	3489
వేడుక	3490
##డత	3491
##గాల్లో	3492
కొద్ది	3493
##గూడ	3494
మహారా	3495
2019	3496
26	3497
గ్	3498
##నాడు	3499
డబ్బులు	3500
ఈరోజు	3501
##టిఫ	3502
##ar	3503
##మ్మడి	3504
హరీ	3505
ప్రాధ	3506
సెంటర్	3507
పట్టు	3508
##చింది	3509
అవకాశాలు	3510
భయ	3511
విజయవాడ	3512
చేసారు	3513
ప్యా	3514
ఫే	3515
దిగ	3516
స్పె	3517
ఇజ్రాయెల్	3518
ాం	3519
‌లు	3520
రాజు	3521
మూడో	3522
##లాల	3523
##పోయి	3524
పత్ర	3525
ఇంగ్	3526
##ముల	3527
వచ్చాయి	3528
కురి	3529
సైతం	3530
##ంగి	3531
యాత్ర	3532
లాభ	3533
అనుమా	3534
కనీ	3535
నుంచ	3536
ఒకటి	3537
చరిత్ర	3538
ముంబై	3539
తెలుసు	3540
##ౌన్	3541
సెక	3542
వివే	3543
ఉండగా	3544
చేసుకున్నారు	3545
నవంబర్	3546
##య్యాయి	3547
బృ	3548
ఆయనకు	3549
అదుపు	3550
ప్రయోజ	3551
నిర్వహించ	3552
##‌లోని	3553
చదు	3554
లభ	3555
##ధుల	3556
ట్టు	3557
దీన్ని	3558
##టివ్	3559
##నంగా	3560
పొత్తు	3561
##ಲ್ಲ	3562
శక్తి	3563
సమర్	3564
దారు	3565
జనవరి	3566
ప్రేక్ష	3567
##ట్లను	3568
రాజీనామా	3569
##నిక	3570
రూపొ	3571
కన్	3572
గణ	3573
చొ	3574
తిరుమల	3575
పాకిస్తాన్	3576
##ాప	3577
పొంద	3578
##ధ్యాహ్	3579
చేస్తారు	3580
సమావేశంలో	3581
##یا	3582
కాబట్టి	3583
వన్	3584
##ంగ్స్	3585
పలువురు	3586
ఆస్ప	3587
పార్టీల	3588
వాయి	3589
##యన్స్	3590
##తున్నారని	3591
అవినీ	3592
సంక్షేమ	3593
కల్యాణ్	3594
ఎందు	3595
కాలేజీ	3596
ఆగస్టు	3597
ఐటీ	3598
కార్పొ	3599
ఆసక్తి	3600
ఉచిత	3601
గల	3602
సబ్	3603
ప్రచార	3604
విశ్వ	3605
సిద్ద	3606
నిరు	3607
##ష్ట్ర	3608
అనుకూ	3609
సంప్ర	3610
ఉత్తర	3611
ప్రసా	3612
##చ్చని	3613
కార్యదర్శి	3614
ఇవాళ	3615
##ాను	3616
రోహి	3617
నీరు	3618
నడి	3619
ఫ్ర	3620
మద్య	3621
##కృష్ణ	3622
##ళ్లను	3623
ాన్ని	3624
##వంటి	3625
చేర	3626
##లియన్	3627
##దిరి	3628
పార్టీలు	3629
సంత	3630
##ళ్లలో	3631
ఆస్ట్రే	3632
మధ్యాహ్	3633
వ్యాప్తంగా	3634
సామాజిక	3635
కాలంలో	3636
##ల్ని	3637
లెక్క	3638
ఉమ్మడి	3639
ఎన్టీఆర్	3640
సేక	3641
అధికారి	3642
విధాన	3643
500	3644
మనం	3645
జాబితా	3646
పారి	3647
లలో	3648
##రేట్	3649
కనిప	3650
ఇబ్బంది	3651
##ఖీ	3652
తీసుకున్నారు	3653
అప్పటి	3654
నిమిష	3655
షర్మిల	3656
ప్రాధాన్	3657
నిపుణ	3658
అభిప్రాయ	3659
ప‌	3660
లోక్‌	3661
##స్త్ర	3662
పండు	3663
స్పష్ట	3664
##ప్టెన్	3665
పోలీసులకు	3666
##స్తాయి	3667
##గతి	3668
##డ్యూ	3669
ఈడీ	3670
తీరు	3671
ఇచ్చింది	3672
అద్	3673
పర	3674
బండి	3675
రామ్	3676
ఎగ్	3677
కెప్టెన్	3678
వ్యవస	3679
సీట్లు	3680
##భవ	3681
కాదని	3682
వర్షం	3683
ప్రయత్నం	3684
##హెచ్	3685
చేయా	3686
##ష్ణ	3687
గుర్తి	3688
కారణం	3689
సము	3690
తీసుకొచ్చ	3691
##షనర్	3692
కామ	3693
వికెట్	3694
##లిన	3695
##ర్యంలో	3696
సీపీ	3697
రష	3698
చూప	3699
##టువంటి	3700
ఎన్నో	3701
భవి	3702
##ండింగ్	3703
##ుకున్న	3704
మిగి	3705
అధికారిక	3706
చాల	3707
వస్తుంది	3708
కలిగి	3709
యూనివర్	3710
##కంటే	3711
ఖమ్మం	3712
##ఫె	3713
వ్యూ	3714
గ్యా	3715
##ార్డ్	3716
నిబంధ	3717
##్యాన్ని	3718
నెలల	3719
సూర్య	3720
వది	3721
షో	3722
పేద	3723
ప్ప	3724
యాదవ్	3725
రహ	3726
లేఖ	3727
##కేష్	3728
సిరీస్	3729
##ంక్ష	3730
##ద్దేశ	3731
తనను	3732
నిర్వహించిన	3733
##్వర్యంలో	3734
కస్ట	3735
భే	3736
విభా	3737
సీబీఐ	3738
గుండె	3739
రేపు	3740
31	3741
కొండ	3742
భవిష్య	3743
##లవ	3744
##ల్ప	3745
ఆస్ట్రేలియా	3746
పడ్డ	3747
క్యాప్షన్	3748
కమిషన్	3749
ఉత్ప	3750
##ఎఫ్	3751
సర్వీ	3752
ప్ర‌	3753
గర్	3754
##ాలలో	3755
అందుబాటులో	3756
##ళం	3757
పదవి	3758
ఎవరు	3759
ధర్	3760
##వార	3761
##ఖ్యా	3762
అరు	3763
##ట్ర	3764
తీవ్రంగా	3765
ముగ్గురు	3766
చేస్తున్నారని	3767
##భు	3768
వెనుక	3769
ఇచ్చి	3770
మరికొ	3771
లోక్‌సభ	3772
గిరి	3773
##‌న	3774
##ినేషన్	3775
మహిళలు	3776
సంతోష	3777
షి	3778
##తుల్లో	3779
హెచ్	3780
29	3781
##జూ	3782
##శ్ర	3783
తెలిసింది	3784
ఆధ్వర్యంలో	3785
అమిత్	3786
స్పీ	3787
##సిక	3788
ట్వి	3789
నియమ	3790
గవర్నర్	3791
సత్య	3792
ఎక్క	3793
కన	3794
##కొండ	3795
సినిమాలో	3796
##ంశ	3797
సుమారు	3798
జయ	3799
నర్	3800
##ించాడు	3801
##గ్రా	3802
##హత్య	3803
ఆత్మహత్య	3804
ఆడి	3805
ఎఫ్	3806
ఖాన్	3807
బ్రా	3808
##బూ	3809
##నాథ్	3810
##జాతీయ	3811
వేసి	3812
తొలగ	3813
తిన	3814
స్కా	3815
ఒత్తి	3816
సామ	3817
ానికి	3818
##వల్ల	3819
స్నే	3820
చేస్తోంది	3821
పొందు	3822
##ంబా	3823
##ఫర్	3824
చేస్తుంది	3825
##రానికి	3826
##టెడ్	3827
ప్రభుత్వానికి	3828
##ోత్స	3829
ఉండాలని	3830
రైతులకు	3831
##ించుకో	3832
బ్లా	3833
చేయాల	3834
వెన	3835
గుర్తించారు	3836
ట్వీట్	3837
ఆమో	3838
##ట్లో	3839
మద్యం	3840
మధ్యాహ్నం	3841
##పూ	3842
##కుమార్	3843
##ెన్సీ	3844
అడ	3845
##ద్రా	3846
##ములు	3847
##ూర్తి	3848
సంఘం	3849
చదువు	3850
##ణంగా	3851
వివరాలు	3852
##ఫిక్	3853
##న్లు	3854
చెన్నై	3855
##ధాని	3856
దుర్	3857
##ನ್	3858
##ల్చి	3859
##సింగ్	3860
తిరుపతి	3861
అంతర్జాతీయ	3862
##డంలో	3863
‌గా	3864
##ాయింట్	3865
వ్యాపార	3866
##చ్చారు	3867
దాఖలు	3868
##ంపల్లి	3869
క్రీ	3870
##ేశ్వర	3871
విషయ	3872
##ించడానికి	3873
ఉన్నాయని	3874
ప్రక్రియ	3875
రోహిత్	3876
స్థి	3877
రాష్ట్రాల్లో	3878
ఆగ్రహం	3879
అందరూ	3880
మహారాష్ట్ర	3881
##ور	3882
ప్రతిని	3883
తీసుకోవాలని	3884
జన్	3885
విరా	3886
##తోందని	3887
వాడ	3888
సీఐ	3889
ఉద్దేశ	3890
ఇచ్చే	3891
##షణ	3892
ఇన్‌	3893
పట్ల	3894
బరి	3895
##‌ని	3896
##యంగా	3897
##్యో	3898
##రింగ్	3899
మారి	3900
##గ్య	3901
రిపో	3902
పెట్టారు	3903
అత్యధిక	3904
60	3905
##సార్లు	3906
##వాసం	3907
సీత	3908
క్యూ	3909
##ాల్సి	3910
కురు	3911
వెల్లడించింది	3912
అనుమతి	3913
##దండ్ర	3914
##ತ್	3915
##యోగం	3916
షేర్	3917
అంబ	3918
ఉన్నా	3919
బ్యాంక్	3920
బహిరంగ	3921
ఇంజ	3922
##తను	3923
ప్రీ	3924
నిరా	3925
##హీ	3926
##మ్ము	3927
##గల	3928
##‌ర	3929
##షే	3930
##రాల్లో	3931
##వేత్త	3932
సభలో	3933
ప్రయత్ని	3934
గౌర	3935
తగ్గి	3936
కరీ	3937
##రగా	3938
##ంటుంది	3939
పూర్త	3940
తల్లిదండ్ర	3941
అద్భు	3942
శర్మ	3943
వెబ్	3944
అతను	3945
##ంహ	3946
రావడం	3947
రుణ	3948
జరుపు	3949
మెగా	3950
ఎప్పుడ	3951
వారం	3952
దిశ	3953
అర్హ	3954
##ఖర్	3955
హాజరు	3956
##కౌ	3957
మెద	3958
##ౌండ్	3959
సీజన్	3960
35	3961
##కునే	3962
వెళ్లిన	3963
##శు	3964
##al	3965
కోహ్	3966
దేవ	3967
ప్రె	3968
##పాద	3969
అంతేకా	3970
చార్	3971
కిలోమీ	3972
నిన్న	3973
ప్పుడు	3974
ట్రై	3975
పాఠశాల	3976
##ంభ	3977
##గానికి	3978
ఆధారంగా	3979
జిల్లాలోని	3980
వాదన	3981
ఫోటో	3982
ఆహ్	3983
##గొండ	3984
ہے	3985
భో	3986
చూసి	3987
వడ్	3988
##త్రికి	3989
##నాన్ని	3990
రష్యా	3991
భేటీ	3992
షూ	3993
మేం	3994
రూపాయలు	3995
##ున	3996
రైతుల	3997
ఎయిర్	3998
ఏడు	3999
ఆదేశించారు	4000
ఆలోచన	4001
##సిడెంట్	4002
##ించినట్లు	4003
##నో	4004
హౌ	4005
లోకేష్	4006
##టిల్	4007
##వాల్సిన	4008
విజయ్	4009
##ించుకున్న	4010
కాన్	4011
##సార్	4012
##జం	4013
వ్యతిరేక	4014
పంపిణీ	4015
##గ్రీ	4016
##ణ్య	4017
ప్రతీ	4018
నిద్ర	4019
దిగు	4020
గౌడ్	4021
##రుల	4022
##రుగ	4023
వేదికగా	4024
సంప్రద	4025
భు	4026
విద్యార్థులు	4027
లేదన్నారు	4028
లక్షలు	4029
##గత	4030
##ంగు	4031
గుర్తింపు	4032
హ్యా	4033
##ار	4034
సమాధ	4035
సరైన	4036
45	4037
##ఎస్‌	4038
ఏర్పాట్లు	4039
##కరణ	4040
##డప	4041
##షా	4042
##షియల్	4043
టార్	4044
సంవత్సరం	4045
కరీం	4046
చౌ	4047
ఫ్యాన్స్	4048
వేశారు	4049
పోష	4050
క్రితం	4051
అవార్డు	4052
హాస్	4053
కల్పించ	4054
##వేషన్	4055
నుంచే	4056
##ోధ	4057
##టన్	4058
##ెక్ట్	4059
రాష్ట్రం	4060
ఆఫీసర్	4061
##లింది	4062
రూపాయల	4063
##ంగ్లా	4064
##ఫ్ట్	4065
2022	4066
నిందితు	4067
సాయి	4068
దేశం	4069
##ృతి	4070
నేషనల్	4071
సినీ	4072
తరలి	4073
మార్పులు	4074
బంగ్లా	4075
మంత్రులు	4076
మంట	4077
శ్రే	4078
##್‌	4079
##స్తో	4080
స్టా	4081
..!	4082
##ంపే	4083
ఓడి	4084
##ద్రి	4085
##ేష్	4086
చెప్పింది	4087
సర్కార్	4088
##నాలను	4089
కుమారు	4090
ఫుడ్	4091
##మర్	4092
##ట్నం	4093
ప్రశ్న	4094
ంట	4095
##కులను	4096
తిరుగు	4097
వచ్చారు	4098
రవి	4099
##ప్‌	4100
ఫిబ్ర	4101
కృషి	4102
re	4103
ఫె	4104
##వల్	4105
పిల్లలు	4106
హను	4107
##ెక్ట	4108
అయింది	4109
ఎమ్మెల్యేలు	4110
తీసుకుంట	4111
కరీంనగర్	4112
కూడిన	4113
ప్రారంభించారు	4114
బోర్డు	4115
##ైల్	4116
న్యూస్	4117
దక్షిణ	4118
000	4119
##ad	4120
##ంచు	4121
##స్తుందని	4122
అవినీతి	4123
ఆహ్వా	4124
ందని	4125
అగ్ర	4126
##ద్యో	4127
వీర	4128
వయసు	4129
కనీసం	4130
అప్ర	4131
##తరులు	4132
##్రీన్	4133
ఉండాలి	4134
##శ్చి	4135
అంశం	4136
##పులు	4137
వ్యాఖ్యా	4138
సారి	4139
##ంచ్	4140
కొడుకు	4141
సంఘటన	4142
అదన	4143
##తాయని	4144
ఆర్టీసీ	4145
ఎవరూ	4146
సృష్ట	4147
గూ	4148
ఉద్యమ	4149
##క్ట్	4150
ప్రదర్శ	4151
##డింగ్	4152
గుజ	4153
ఇక్క	4154
##‌గా	4155
బ్యాంకు	4156
సంగతి	4157
ఇవి	4158
మంజ	4159
స్కూల్	4160
ఫిబ్రవరి	4161
##ండియా	4162
##సారిగా	4163
కావడం	4164
అయ్యింది	4165
ఐపీఎల్	4166
సముద్ర	4167
ఆన్	4168
##ుడి	4169
పాత	4170
జడ్	4171
##ొక్క	4172
కూతు	4173
దానికి	4174
నాయుడు	4175
ఒక్కో	4176
సీటు	4177
షాక్	4178
##స్తులు	4179
##గులు	4180
##కోవచ్చు	4181
భారతదేశ	4182
సల	4183
##ికేషన్	4184
నీళ్లు	4185
కాలం	4186
యూనివర్సిటీ	4187
విశ్	4188
అవుతుంది	4189
##నున్నాయి	4190
ఖాళీ	4191
##ಲ್ಲಿ	4192
##ధీ	4193
##హాలు	4194
ముందే	4195
వ్యతిరేకంగా	4196
##వాన్ని	4197
నియోజకవర్గం	4198
తని	4199
సాయం	4200
అంతా	4201
అర్థం	4202
ఒప్ప	4203
దాన్ని	4204
##పడింది	4205
##హన	4206
చెంద	4207
##మ్‌	4208
##ారానికి	4209
ఇరు	4210
మౌ	4211
చాలామ	4212
##హించ	4213
బాగు	4214
ప్రారంభం	4215
శిక్ష	4216
కొనసాగ	4217
##బోయే	4218
య్య	4219
కుల	4220
ఆదాయం	4221
వాయిదా	4222
##లిక్	4223
కోహ్లీ	4224
నలుగు	4225
##ట్లకు	4226
అనుకు	4227
పరిశోధ	4228
పరిధిలో	4229
కాంట	4230
నియోజకవర్గంలో	4231
వేళ	4232
బంధు	4233
కామెంట్స్	4234
ఇష్ట	4235
ామని	4236
ప్రశా	4237
పేపర్	4238
చూసిన	4239
కార్డు	4240
చాలామంది	4241
##ان	4242
స్క	4243
##ట్టింది	4244
దళ	4245
గుజరా	4246
ారా	4247
##ంగం	4248
గురి	4249
ట్రాఫిక్	4250
తరలించారు	4251
సార్లు	4252
##వాలు	4253
చెప్	4254
మిగ	4255
##నంలో	4256
##యాల	4257
##థి	4258
##ందనే	4259
లోప	4260
##ద్దని	4261
ప్రాణ	4262
రాజధాని	4263
కుటుంబం	4264
కమిషనర్	4265
##ఫ్ర	4266
టో	4267
##ನು	4268
సెక్ర	4269
నష్టం	4270
పట్టుకు	4271
##ల్లం	4272
##ారావు	4273
ఆయా	4274
కాని	4275
హాస్పి	4276
ఓట్లు	4277
చూపి	4278
ప్రజలను	4279
కార్యకర్తలు	4280
ఫార్	4281
భవ	4282
రాలే	4283
పార్లమె	4284
ఇన్ని	4285
నారాయణ	4286
##డ్డా	4287
##స్తున్నట్లు	4288
##వ్వు	4289
త్వరలో	4290
పండుగ	4291
##దైనా	4292
కిషన్	4293
త్రి	4294
##ಡಿ	4295
లబ్	4296
ప్రయత్నాలు	4297
##వెన్	4298
నిధులు	4299
రాశ	4300
ముస్	4301
దాడులు	4302
##లంక	4303
హెల్	4304
ఖాతా	4305
##వ్యూ	4306
##దావరి	4307
వేసిన	4308
చోట్ల	4309
నిర్మాణ	4310
ఆహార	4311
షెడ్యూ	4312
నిపుణులు	4313
డిప్యూటీ	4314
##శ్చ	4315
ఉత్తర్	4316
##ండే	4317
విభ	4318
##ులై	4319
##సరి	4320
##ಂದ	4321
మహబూ	4322
##త్యా	4323
..?	4324
వేలు	4325
పెట్టిన	4326
నిరుద్యో	4327
వ్యవసాయ	4328
ఎకర	4329
పడే	4330
బ్యాటింగ్	4331
మున్సిపల్	4332
##గీ	4333
##ట్రి	4334
మనో	4335
చుట్ట	4336
##ట్యూ	4337
##ర్చి	4338
అమరావ	4339
జు	4340
ఫస్ట్	4341
రకాల	4342
##పడే	4343
పెరిగి	4344
తీసుకుని	4345
పథకం	4346
అల్లు	4347
అధి	4348
రిజి	4349
రాజ్యా	4350
అవసర	4351
తనిఖీ	4352
అగ్	4353
##స్తున్నారని	4354
ఒకరు	4355
పిలుపు	4356
కొత్తగా	4357
చేపట్టారు	4358
లక్ష్మీ	4359
వారిలో	4360
ఆదేశాలు	4361
స్వాధీ	4362
##పోయా	4363
చిత్రం	4364
పరిగ	4365
ఎన్నికలకు	4366
చేసుకుంది	4367
గుజరాత్	4368
##ఢిల్లీ	4369
శాంతి	4370
పున	4371
న్యూఢిల్లీ	4372
##ించారని	4373
మెజ	4374
నిర్వహణ	4375
అభ్యర్థులు	4376
పశ్చి	4377
వల	4378
వసూ	4379
తేడా	4380
ఉంటారు	4381
చేపట్టిన	4382
త్వరలోనే	4383
కన్న	4384
##తమైన	4385
ముఖ	4386
పరుగుల	4387
ఏమి	4388
పెరగ	4389
డిగ్రీ	4390
చేసుకో	4391
ఎందుకంటే	4392
ఇస్త	4393
పర్యా	4394
స్కో	4395
ముంద	4396
##క్కర్	4397
ప్రమాణ	4398
టార్గ	4399
స్వాధీనం	4400
‌పై	4401
చెయ్య	4402
##జున్	4403
ఆసి	4404
సోద	4405
##రించింది	4406
జర్	4407
కూడ	4408
సుర	4409
##హాన్ని	4410
రిజర్వేషన్	4411
##er	4412
వాడు	4413
టీమి	4414
నేతల	4415
##దారులు	4416
జులై	4417
##ార్ట్	4418
##డ్‌	4419
##ట్టర్	4420
ప్రస్తుత	4421
డ్రగ్	4422
టీమిండియా	4423
##సర్లు	4424
నిర్మాణం	4425
శాస్త్ర	4426
కౌన్సి	4427
టార్గెట్	4428
اس	4429
థి	4430
##ాలిటీ	4431
సెల్	4432
##య్యే	4433
విద్యార్థి	4434
పెంచు	4435
పడింది	4436
అభిమానులు	4437
##య్యా	4438
రాష్ట్రాల	4439
నామినేషన్	4440
##ాల్సిన	4441
సాం	4442
బాధ్యతలు	4443
ఓటమి	4444
సద	4445
నాటికి	4446
సంఖ్యలో	4447
ప్రాధాన్య	4448
టెస్టు	4449
ామ	4450
##గ్గా	4451
ఏక	4452
వెళ	4453
కేజ	4454
కుటుంబా	4455
##త్రం	4456
టీ20	4457
ఇండియన్	4458
ఇప్పటివరకు	4459
తమిళనాడు	4460
డ్రైవర్	4461
టే	4462
##యిన	4463
2014	4464
మృత	4465
సంచలన	4466
##యాత్ర	4467
అయో	4468
##స్వామ	4469
ప్రైవేట్	4470
ఉండి	4471
ఏజ	4472
డా	4473
తగిన	4474
ుకు	4475
రాజే	4476
గ్రామంలో	4477
##త్మక	4478
అదుపులోకి	4479
అల్	4480
గడు	4481
వన	4482
దొంగ	4483
##ిల్స్	4484
స్పంది	4485
స్పెషల్	4486
విగ్ర	4487
శ్రీవారి	4488
ఏదైనా	4489
జనా	4490
నర	4491
##ఎంసీ	4492
భద్రత	4493
కాక	4494
సెంట	4495
రచ	4496
##ాలీవుడ్	4497
కుంట	4498
##స్ట్రీ	4499
నోటీసులు	4500
స్తున్న	4501
పాద	4502
పురు	4503
గ్రే	4504
ఫలితాలు	4505
##ష్ణో	4506
ఎక	4507
##ెక్స్	4508
ఆటగా	4509
ప్రస్తా	4510
##త్తా	4511
70	4512
రావడంతో	4513
క్యార	4514
నంబర్	4515
పవర్	4516
రక్త	4517
##రంజీ	4518
కేజ్రీ	4519
కోరుకు	4520
చిరంజీ	4521
పశ్చిమ	4522
రఘ	4523
ఉన్నారని	4524
పంజా	4525
##పడుతుంది	4526
ఎలక్	4527
హిందూ	4528
80	4529
##ెండ్	4530
మరొక	4531
హోం	4532
##నిఫ	4533
తగ్గు	4534
##ఠా	4535
అధికారుల	4536
చట్టం	4537
ఓడ	4538
##న్నాడు	4539
బీజేపీకి	4540
వినిపి	4541
చెప్పుకొచ్చ	4542
అప	4543
గాలి	4544
దిన	4545
##వార్	4546
డెవల	4547
స్పందించారు	4548
##స్ట్ర	4549
కల్ప	4550
##శేష	4551
తదితరులు	4552
రక్షణ	4553
వార్త	4554
మందు	4555
##వాహ	4556
##పున	4557
నేరుగా	4558
ందన్నారు	4559
మృతదే	4560
కఠ	4561
టీమ్	4562
##‌లు	4563
##డ్స్	4564
తెలుగుదేశం	4565
టెస్ట్	4566
##ಾರ	4567
##یک	4568
##మాబాద్	4569
వేసింది	4570
##య్యి	4571
పోలీసుల	4572
##వని	4573
##జ్జ	4574
##త్రిలో	4575
##రవే	4576
##ూరి	4577
##ధా	4578
##ంచరీ	4579
దూరంగా	4580
పెరిగింది	4581
##కూడ	4582
సంబంధం	4583
అప్పగ	4584
##హార్	4585
##న్నే	4586
సీట్ల	4587
ాను	4588
##చ్చితంగా	4589
కేర	4590
దాంతో	4591
అంగీక	4592
ఒత్తిడి	4593
ఆటో	4594
బది	4595
రంగా	4596
అవగా	4597
##యేషన్	4598
దేశవ్యాప్తంగా	4599
పరిశ్రమ	4600
గొప్ప	4601
సందర్శ	4602
ముస్లిం	4603
గమని	4604
నల్ల	4605
నివ	4606
టీటీ	4607
199	4608
విడి	4609
చెప్పి	4610
ఎస్సీ	4611
అట	4612
పెడు	4613
##ట్టే	4614
అమ్మాయి	4615
##కర్స్	4616
నిబంధన	4617
ప్పటికీ	4618
లభి	4619
కెమె	4620
ధర్మ	4621
సురే	4622
మహిళల	4623
సభ్యుల	4624
రూపొందించ	4625
లక్ష్యంగా	4626
మెడికల్	4627
బ్లాక్	4628
کو	4629
ఏసీ	4630
##డితే	4631
##ల్లోకి	4632
ఉండటంతో	4633
పర్యట	4634
మిగిలిన	4635
అగ్ని	4636
అప్పుడు	4637
దారి	4638
బూ	4639
##కిల్	4640
చేయడంతో	4641
సంవత్సరాల	4642
తోనే	4643
వెళ్లారు	4644
తీసుకెళ్ల	4645
బరువు	4646
సికి	4647
##ళిక	4648
##పోయాయి	4649
కేరళ	4650
కరో	4651
సార	4652
##డెన్	4653
##ائ	4654
అనారో	4655
సౌకర్	4656
##చ్ఛ	4657
సెంచరీ	4658
నెలలో	4659
మంజూరు	4660
అటు	4661
కపో	4662
##ాయు	4663
విప	4664
స్తుంది	4665
పొడి	4666
వికెట్లు	4667
మిగతా	4668
తెల్ల	4669
నాడు	4670
మేనే	4671
అధికారులకు	4672
భి	4673
బదిలీ	4674
ఆల్	4675
నారా	4676
మధు	4677
##లాది	4678
కఠిన	4679
##ారనే	4680
సిద్ధం	4681
పురుష	4682
నెట్	4683
సచి	4684
##రాజు	4685
మేము	4686
ఢిల్లీలో	4687
న్యాయం	4688
##దైన	4689
యాప్	4690
అంతకు	4691
నాయక	4692
గోదావరి	4693
ఎదుర	4694
ఎన్‌	4695
చక్క	4696
##ంకు	4697
స్టూడ	4698
జస్టి	4699
##కపోతే	4700
కను	4701
గుడ్	4702
మోసం	4703
జరుగుతోంది	4704
సంస్థలు	4705
ఎన్డీ	4706
కొంతమంది	4707
చూపు	4708
మార్చ	4709
ధ్వ	4710
మల్	4711
##ెయిన్	4712
##మత్త	4713
నగర	4714
స‌	4715
నటు	4716
కాస్త	4717
ప్రెసిడెంట్	4718
ఎండ	4719
##కలు	4720
రాజ్య	4721
కలిపి	4722
టాప్	4723
డానికి	4724
కోవ	4725
చేయనున్నారు	4726
##స్టే	4727
సాధ్య	4728
కనిపిస్తోంది	4729
నల్	4730
##తె	4731
##ించాలి	4732
చెక్	4733
డేటా	4734
అప్రమత్త	4735
డాల	4736
చెరువు	4737
వేగంగా	4738
##ాలన్నారు	4739
పరిస్థితులు	4740
ఆలయ	4741
వన్డే	4742
సికింద్ర	4743
##ాలనే	4744
##చ్చిన	4745
క‌	4746
జ్యో	4747
ఫర్	4748
##రిని	4749
రిటై	4750
అధికారులను	4751
ముందుగా	4752
జరుగుతుంది	4753
##ఫ్రికా	4754
అవగాహన	4755
ధీ	4756
##ికె	4757
సునీ	4758
ఆరోగ్యం	4759
గడి	4760
చెల్లి	4761
##వింద్	4762
ఆమెను	4763
పక్కన	4764
టీటీడీ	4765
in	4766
భద్రా	4767
రోజులుగా	4768
గొడవ	4769
కార్యక్రమం	4770
వ్యవహార	4771
ప్రసాద్	4772
చిరంజీవి	4773
సికింద్రాబాద్	4774
##న్సర్	4775
నాటి	4776
రోజున	4777
అధ్యయ	4778
సరఫ	4779
ప్రభుత్వాన్ని	4780
75	4781
చిరు	4782
జనరల్	4783
##దారుల	4784
##ధర్	4785
##కాలం	4786
پر	4787
ఆవి	4788
ఏఐ	4789
పండ	4790
##ాడని	4791
గెలుపు	4792
ప్రొఫె	4793
##್ರ	4794
మీటింగ్	4795
పుష్	4796
హోదా	4797
రమ	4798
##లక్ష	4799
స్నేహి	4800
##టికల్	4801
కేంద్రంలో	4802
##నున్నట్లు	4803
కిలోమీటర్ల	4804
ఏకంగా	4805
‌ల	4806
వివేక్	4807
థియే	4808
మ‌	4809
‌లోని	4810
##ఘా	4811
##ra	4812
విజ్ఞ	4813
జరిప	4814
ప్రకటించిన	4815
యువత	4816
##స్క్	4817
##ందన్న	4818
##ల్యూ	4819
మీకు	4820
##ళ్లుగా	4821
బిజె	4822
ప్రత్యేకంగా	4823
హీరోయిన్	4824
కాంట్రా	4825
స్థలా	4826
రాష్ట్రంలోని	4827
చేస్తున్నట్లు	4828
కేటాయి	4829
##ెట్ల	4830
ఎస్పీ	4831
వస్తుందని	4832
నిజామాబాద్	4833
al	4834
ఎంట	4835
ఎప్ప	4836
##కల	4837
కోరి	4838
లీడర్	4839
ాయని	4840
చేసుకుని	4841
చేసినా	4842
పబ్	4843
సక్	4844
##ఎన్	4845
వాస్త	4846
వైర	4847
మోహన్	4848
పిల్లల	4849
ఎప్పుడూ	4850
ఎర్ర	4851
##టానికి	4852
లోక	4853
పుర	4854
ఉష్ణో	4855
దని	4856
ఉండటం	4857
స్థానికులు	4858
అయోధ్య	4859
ఉష్ణోగ్ర	4860
వాల	4861
##జ్‌	4862
కావాలని	4863
తయారీ	4864
వీటిని	4865
##ంక్షలు	4866
అకౌ	4867
దేశాల	4868
బిడ్డ	4869
హరీశ్	4870
##ార్టీ	4871
##మీర్	4872
ఎత్తున	4873
ఒడి	4874
##మిలీ	4875
అధికారం	4876
దర్శకుడు	4877
పరిధిలోని	4878
హెచ్చరించారు	4879
##ఫా	4880
నిర్మి	4881
తరఫ	4882
అవసరమైన	4883
కార్యకర్త	4884
##టిఫికేషన్	4885
బంగ్లాదేశ్	4886
జ్	4887
పద్	4888
2018	4889
ఢీ	4890
##వ్య	4891
విశేష	4892
##ర్యాల	4893
##హారం	4894
##ాయతీ	4895
##ెక్కి	4896
##రించే	4897
క్లా	4898
అర్జున్	4899
##ండటంతో	4900
పరిచ	4901
భాష	4902
తొమ్మి	4903
బాలిక	4904
స్పీకర్	4905
డ్రా	4906
##ధం	4907
కుట్ర	4908
చేయగా	4909
రంగు	4910
##ించుకున్నారు	4911
ఆశ్ర	4912
##శేఖర్	4913
వ్యాఖ్యానించారు	4914
ఇరా	4915
##రికీ	4916
‌‌‌‌‌‌‌‌‌‌‌‌‌‌‌‌లో	4917
వరుసగా	4918
సరఫరా	4919
సీసీ	4920
##నానికి	4921
మెట్రో	4922
సినిమ	4923
అయ్యాయి	4924
##రత్	4925
రానున్న	4926
##వేళ	4927
##వేదన	4928
రాజకీయాల్లో	4929
అందరికీ	4930
భీ	4931
లపై	4932
సెక్షన్	4933
అనుభ	4934
##ంపులు	4935
పార్లమెంటు	4936
గ్యార	4937
స్థానాల్లో	4938
సమీక్ష	4939
نے	4940
کر	4941
##ప్పున	4942
మెరుగు	4943
తిరుమ	4944
విలువైన	4945
చొప్పున	4946
ఘన	4947
బ్రే	4948
రక్ష	4949
కుక్క	4950
భావిస్తున్నారు	4951
టెక్నాల	4952
ఎటువంటి	4953
##మన్	4954
##డర్లు	4955
##రాశి	4956
మొబ	4957
##సేందుకు	4958
పక్ష	4959
##ంట్లు	4960
నిషే	4961
తీసుకుంది	4962
##ನ್ನು	4963
ర్యా	4964
##సో	4965
##యిత	4966
స్కీ	4967
##కాంత్	4968
డీకే	4969
అయ్యే	4970
##కపోవడంతో	4971
సర్కారు	4972
ఓట్ల	4973
డు	4974
రవా	4975
##యాన్	4976
##ెస్టో	4977
శాసన	4978
లిక్కర్	4979
ఉత్స	4980
న్యాయవా	4981
నొ	4982
##ణానికి	4983
మీడియాతో	4984
ప్రయాణ	4985
అస్	4986
శంకర్	4987
సంప	4988
ఆమెకు	4989
మేకర్స్	4990
##వంతంగా	4991
నెలకొంది	4992
షెడ్యూల్	4993
నల్గొండ	4994
సంపాద	4995
##డ్డికి	4996
ఎక్స్‌	4997
హాస్పిటల్	4998
మత	4999
