<unk>	0
<s>	0
</s>	0
▁.	-3.29695
▁ప	-4.0719
▁క	-4.28119
▁,	-4.33251
ల	-4.33263
▁ు	-4.33558
▁ారు	-4.39204
▁వ	-4.39837
▁మ	-4.47237
▁అ	-4.49518
▁స	-4.55723
▁ి	-4.60707
▁్	-4.66863
▁లో	-4.68521
▁ం	-4.70662
ర	-4.85207
▁ర	-4.91404
▁న	-4.91471
▁త	-4.92518
ి	-4.94857
▁ల	-5.03331
▁ించ	-5.07001
▁బ	-5.0701
క	-5.08501
▁ున్న	-5.08526
▁ప్ర	-5.13477
▁కు	-5.17297
ా	-5.1983
▁ఆ	-5.21152
▁ను	-5.22595
త	-5.30561
▁ా	-5.39291
▁గా	-5.43286
▁ఈ	-5.43989
ే	-5.46047
న	-5.48845
▁జ	-5.49871
ట	-5.51768
▁ిన	-5.55627
ని	-5.59262
▁ే	-5.606
▁ని	-5.61767
▁ింది	-5.62394
▁	-5.6504
▁గ	-5.68866
ప	-5.69261
▁లు	-5.7366
వ	-5.76057
▁భ	-5.78268
▁కి	-5.80267
▁తో	-5.80643
▁ఇ	-5.81042
మ	-5.8183
▁చ	-5.86618
▁ద	-5.93398
▁2	-5.93813
▁స్	-5.94365
▁0	-5.96901
▁ఎ	-5.96962
▁ాయి	-5.97565
▁ీ	-5.98551
▁చేస	-5.99568
▁ుల	-6.0085
▁పై	-6.03971
▁హ	-6.06165
ు	-6.09683
▁్ర	-6.10369
▁"	-6.14033
▁1	-6.18264
▁ర్	-6.18328
▁ాల	-6.20594
్	-6.21185
న్న	-6.23952
ం	-6.23999
▁ిస్త	-6.24138
▁ట	-6.25603
లో	-6.25688
▁ంగా	-6.28231
▁ంలో	-6.28501
▁ఫ	-6.30477
▁ులు	-6.30695
▁ఉన్న	-6.32162
గ	-6.33377
ీ	-6.33521
▁ుంది	-6.34763
▁నుంచి	-6.35036
▁కూడా	-6.35508
▁చేశ	-6.36378
▁డ	-6.37195
ుక	-6.38171
య	-6.39293
▁ుత	-6.40419
ో	-6.40636
▁చేయ	-6.42795
డ	-6.45718
▁ానికి	-6.49224
▁చేస్త	-6.49816
▁:	-6.516
▁వి	-6.51643
స	-6.53114
▁ాన్ని	-6.53639
▁న్	-6.54759
▁తె	-6.55086
▁ో	-6.56716
▁ాలని	-6.58816
▁డం	-6.59613
▁కా	-6.60122
▁ఏ	-6.60434
▁ఉ	-6.61311
▁చెప్	-6.61823
▁ూ	-6.69603
▁ార్టీ	-6.697
▁ుడు	-6.69932
ెడ్డ	-6.70616
ను	-6.71204
▁నే	-6.71309
▁శ	-6.71349
ుత్వ	-6.71428
▁(	-6.73063
▁ాడు	-6.73264
▁ధికా	-6.74373
▁ాలు	-6.75246
కు	-6.76659
▁తన	-6.77964
▁్త	-6.80183
ద	-6.80273
ీసుక	-6.80437
▁)	-6.82385
▁ారని	-6.83691
ంగా	-6.84139
ాల	-6.8424
▁ఆయన	-6.8441
గా	-6.84794
▁-	-6.85906
▁ందుకు	-6.86022
▁3	-6.86214
▁రెస్	-6.86381
▁నిర్	-6.88515
▁వచ్చ	-6.88864
▁ోంది	-6.89368
▁అన్న	-6.8993
▁5	-6.90194
▁ట్	-6.90294
ద్ద	-6.90337
▁ఒక	-6.90425
▁ింగ్	-6.93307
▁4	-6.94374
▁మంది	-6.94537
▁ీఆర్	-6.94577
▁ుంట	-6.96159
▁న్న	-6.96463
▁రూ	-6.96717
▁్లో	-6.97449
▁్య	-6.97834
▁ల్	-6.98069
ెట్ట	-6.98167
▁లోని	-7.0083
▁9	-7.01055
▁రోజు	-7.01237
▁సం	-7.01282
▁ఉంట	-7.01418
▁తెలి	-7.01434
▁నా	-7.01441
▁ుక	-7.02191
ిన	-7.02247
▁చేసి	-7.02746
▁ఓ	-7.03203
▁య	-7.03453
▁రాష్	-7.03596
▁ారం	-7.04169
▁ంత్రి	-7.04927
ె	-7.05075
▁ఎన్న	-7.06375
ాంగ్	-7.06765
▁ిక	-7.07083
▁రా	-7.0723
హ	-7.07418
▁ఉండ	-7.08352
▁మా	-7.08777
▁ిల్లా	-7.09461
▁మే	-7.1019
▁కోసం	-7.10232
▁ప్రజ	-7.10385
బ	-7.10941
▁పె	-7.11953
▁టీ	-7.12317
జ	-7.12489
ణ	-7.13375
▁లే	-7.147
నే	-7.15883
▁దేశ	-7.16278
▁ఇప్ప	-7.18153
▁వ్య	-7.18181
▁పాటు	-7.18307
▁ఆర్	-7.19361
్ర	-7.19515
▁?	-7.19786
▁ష	-7.19914
▁ాబాద్	-7.19968
▁సమ	-7.20224
▁్యక్	-7.21068
▁కల	-7.21207
▁లంగాణ	-7.21952
▁డంతో	-7.22033
▁అయిత	-7.23064
▁లేదు	-7.23179
ష్ట	-7.23264
▁రాజ	-7.23832
▁కుండా	-7.24404
ార్య	-7.26165
▁8	-7.26522
▁వస్త	-7.2737
▁తమ	-7.27904
▁య్య	-7.27987
▁ఇచ్చ	-7.2804
▁ై	-7.2889
▁చంద్ర	-7.29694
ంద	-7.30161
▁6	-7.303
▁7	-7.30375
▁ఐ	-7.30996
▁ేంద్ర	-7.31052
▁తర్వ	-7.317
▁ామని	-7.32646
▁ాలి	-7.34165
▁ైన	-7.34809
▁ినిమా	-7.35043
▁చాల	-7.35754
▁ాలను	-7.36486
▁ీజేపీ	-7.36677
▁మైన	-7.36983
ోలీస	-7.3729
▁డీ	-7.37763
▁అనే	-7.38675
▁ట్లు	-7.39066
▁అంద	-7.3922
మె	-7.39953
▁మరో	-7.40101
▁కొ	-7.41045
▁ఉంది	-7.41297
▁ఏర్ప	-7.41427
▁చెంద	-7.41692
▁చె	-7.42072
▁శ్రీ	-7.42111
▁చేర	-7.42173
▁ార	-7.42211
▁బాబు	-7.42351
ించ	-7.44507
▁ోవ	-7.4458
▁సీఎం	-7.45178
ల్ల	-7.45749
తో	-7.45918
▁ఖ	-7.46221
▁పడ	-7.4686
▁ఎమ్మ	-7.47162
▁వెళ్	-7.47317
▁ಿ	-7.47636
ిస్త	-7.48504
▁ల్లో	-7.49942
▁లాంట	-7.50129
▁క్కువ	-7.50193
ళ్ల	-7.50579
▁ణ	-7.50665
▁ాల్	-7.51063
▁మధ్య	-7.51677
▁ాం	-7.52254
▁ది	-7.52735
▁కోట్ల	-7.52745
▁ిత	-7.53156
▁సమయం	-7.53445
ధ	-7.53665
▁ఎం	-7.53753
బంధ	-7.5424
ఎ	-7.5447
▁రెండు	-7.55462
▁ించి	-7.55579
▁టు	-7.55594
▁సి	-7.559
▁ె	-7.55935
ెలిప	-7.55953
▁యూ	-7.56025
▁ాల్స	-7.56083
▁కే	-7.56287
ాట్ల	-7.57169
▁ఎస్	-7.57338
ొత్త	-7.57552
▁టిక	-7.57599
▁క్రమ	-7.57716
▁ుందని	-7.58079
▁చ్చ	-7.59306
▁దీంత	-7.60037
▁వరకు	-7.60518
ప్ప	-7.61111
▁ాన	-7.61958
▁జరిగ	-7.62333
ుత	-7.62485
▁హైదర	-7.634
▁ొన్న	-7.63974
▁ధ	-7.64474
▁మ్మ	-7.65194
▁కానీ	-7.65202
▁నెల	-7.65406
▁డాని	-7.65759
నిప	-7.66151
▁కుమార	-7.66168
▁్థాన	-7.66839
▁ముందు	-7.66982
▁దా	-7.67072
▁మీ	-7.6708
▁చి	-7.67381
▁ినట్	-7.67715
▁ెల్యే	-7.67747
వకాశ	-7.6814
▁ోర్టు	-7.68141
ది	-7.6882
▁ప్ప	-7.69045
▁క్ర	-7.69417
▁ాడ	-7.69557
▁ుగా	-7.69647
▁ేషన్	-7.69764
▁వారి	-7.69803
▁హించ	-7.69843
▁భార	-7.70274
▁సె	-7.70277
▁స్ప	-7.70359
్యా	-7.70652
▁రించ	-7.70894
▁ాయని	-7.71208
▁ఎన్	-7.71345
ష	-7.72047
▁డి	-7.7261
ొ	-7.72965
▁సు	-7.72989
▁చూస	-7.73332
▁లా	-7.73392
లు	-7.73423
▁್	-7.73517
▁మార	-7.74097
▁వేల	-7.74155
▁దీని	-7.74699
వుత	-7.7481
పై	-7.74928
▁ండ్	-7.74959
్య	-7.75077
▁గుర	-7.75079
▁లకు	-7.7596
▁పని	-7.768
▁కో	-7.77028
▁ిక్	-7.77078
▁ళ్ల	-7.77185
▁రిక	-7.78214
▁ఇది	-7.78262
వేశ	-7.78702
▁సారి	-7.79806
ంత	-7.80799
▁థ	-7.81804
▁జగన్	-7.81817
▁పట్ట	-7.82469
▁రీ	-7.83022
▁విషయ	-7.83169
▁ము	-7.83235
▁వల్ల	-7.83384
▁రామ	-7.8341
▁లేదని	-7.83773
▁స్ట	-7.84103
▁నూ	-7.85424
ధాన	-7.85604
▁లక్ష	-7.85655
▁అభ్య	-7.8606
▁ఇవ్వ	-7.86524
్యాప	-7.8665
▁కేస	-7.86875
▁సీ	-7.87538
స్	-7.87712
▁్వార	-7.88291
▁నాయ	-7.88396
▁ఒ	-7.88927
▁రైతు	-7.89016
▁రావు	-7.89589
▁విద్య	-7.8968
▁వారు	-7.89766
▁బా	-7.90002
▁ొన్ని	-7.9011
▁దు	-7.90184
▁గ్రా	-7.90366
▁సభ	-7.90788
▁ీడియ	-7.90881
▁ು	-7.90924
▁విజయ	-7.90965
▁కావ	-7.90988
▁నీ	-7.91183
▁ద్యో	-7.91313
▁కోర	-7.91323
ల్లో	-7.91367
▁ల్ల	-7.9231
▁ుటుం	-7.92501
▁చెబ	-7.92536
్రకట	-7.92565
▁ರ	-7.93129
▁ాజ	-7.9316
▁గంటల	-7.93323
▁ూర్తి	-7.93479
▁ూరు	-7.93665
▁శాఖ	-7.94099
ిక	-7.9442
▁పల్లి	-7.94992
▁ఛ	-7.9524
ేర్క	-7.95342
▁లక్షల	-7.95602
▁్యాం	-7.9595
▁పరిస	-7.96451
ంచి	-7.9663
▁వీ	-7.96677
ಾ	-7.96832
▁ఇక	-7.96929
▁ాయ	-7.97613
బ్బ	-7.98036
పు	-7.98187
▁ఏపీ	-7.9831
▁ొ	-7.98438
ింద	-7.98696
చ	-7.99362
▁పీ	-7.99831
▁కర	-7.99899
.	-8.0001
▁పరి	-8.00133
▁్రమా	-8.00214
▁ొన	-8.00267
▁మహిళ	-8.00333
▁తగ్గ	-8.00343
ందని	-8.00492
▁తప్ప	-8.00794
▁పోటీ	-8.01185
▁ుడి	-8.01236
▁మెంట్	-8.01246
▁ట్టు	-8.01755
▁'	-8.01979
▁గత	-8.02434
ాత్ర	-8.0245
▁ెలుగు	-8.02626
▁పద	-8.02992
▁ారంభ	-8.03003
▁అయ్య	-8.03178
▁వె	-8.03285
▁ట్ర	-8.03407
▁ఇన్	-8.04008
▁్తుతం	-8.04068
రుగ	-8.04083
▁ినా	-8.04086
▁ప్రస	-8.04117
డుత	-8.04437
ాజీ	-8.05008
▁భారత	-8.05112
▁షా	-8.05178
▁భారత్	-8.05258
▁ంట్	-8.05791
▁ನ	-8.05882
▁జీ	-8.05912
▁అస	-8.0623
▁ాస్	-8.0654
▁కేట	-8.06732
▁సంస్థ	-8.06882
▁ఢి	-8.075
▁్లీ	-8.07821
▁ందులో	-8.0785
▁ిపోయ	-8.07856
▁రణ	-8.08107
▁ట్ల	-8.08141
▁అభి	-8.08267
▁యత్న	-8.08675
▁బీ	-8.08892
ిస	-8.09035
▁ింపు	-8.09083
▁కేసు	-8.09558
▁ఎంపీ	-8.09633
▁బ్యా	-8.10311
▁తీవ	-8.10463
▁ేవంత్	-8.10573
▁శాతం	-8.10619
▁ఘ	-8.10875
ందర	-8.10933
క్	-8.10952
▁వాడ	-8.11159
▁యా	-8.11204
▁కల్లో	-8.1123
▁సా	-8.11312
▁ధాని	-8.11459
▁వేస	-8.11694
▁ధర	-8.12025
▁ిన్	-8.12121
▁్క	-8.12191
ంటి	-8.12279
▁స్వ	-8.13451
▁వివ	-8.13486
ిర్ణ	-8.1359
▁కాల	-8.13603
▁ఒక్క	-8.13617
▁రి	-8.13642
▁రె	-8.13649
▁్యాచ్	-8.13966
▁మి	-8.14104
▁్ప	-8.14371
▁ర్ల	-8.14495
▁మూడు	-8.14509
ెలుస	-8.14671
▁డీపీ	-8.15676
▁స్ట్	-8.15679
▁వై	-8.15931
▁ాత్రం	-8.16414
▁్యం	-8.16435
▁జన	-8.16792
▁ఇస్త	-8.16796
▁ాలో	-8.16927
▁!	-8.16946
్రతి	-8.16959
▁గుర్	-8.17275
ీలక	-8.17318
▁హై	-8.17944
▁తే	-8.18372
▁సూచ	-8.18673
▁కలిసి	-8.1877
▁పవన్	-8.18797
▁త్యే	-8.18981
▁ర్థ	-8.1905
▁తిర	-8.19162
▁రు	-8.19268
▁మరి	-8.1932
సాగ	-8.19483
న్	-8.19545
▁ఘటన	-8.19811
▁అత	-8.19998
▁వా	-8.19998
▁ొత్త	-8.20016
▁దేశ్	-8.20171
▁ిడుదల	-8.20184
▁యం	-8.20187
ాయ	-8.20406
▁ఫ్	-8.20453
▁రిగి	-8.20499
ాటి	-8.20751
▁సాధ	-8.21134
ోగ్య	-8.21216
▁ದ	-8.21228
▁సై	-8.21771
▁దే	-8.21854
▁ప్రత	-8.22302
▁దాని	-8.22492
▁ీడియో	-8.22601
▁క్ష	-8.22848
ళ	-8.22926
ియోజ	-8.22956
▁దేవ	-8.22973
▁పంప	-8.23004
▁ఉందని	-8.23285
▁ార్క	-8.23321
ాళ్ల	-8.23326
్తుల	-8.23499
▁స్థ	-8.23506
▁్రశ్న	-8.23565
▁్వ	-8.23624
▁కారణం	-8.23893
▁ింద	-8.2402
▁మన	-8.24204
▁క్క	-8.24337
▁త్త	-8.24439
▁వైపు	-8.24444
▁ైసీపీ	-8.24556
▁ుడ	-8.2484
▁ళ	-8.25037
ండియ	-8.25196
▁గ్	-8.25235
ేక	-8.25278
▁వార	-8.25481
▁పూర్	-8.25536
▁ంలోని	-8.25651
క్కడ	-8.25652
వర్గ	-8.25861
▁ిపో	-8.25904
▁్రాం	-8.25945
,	-8.25951
▁పు	-8.261
▁గురు	-8.26403
▁ుని	-8.26502
▁ైనా	-8.26566
ూ	-8.26585
▁ుఖ్య	-8.26663
ంట	-8.26671
▁త్వ	-8.26748
▁గో	-8.26823
▁ాలకు	-8.27067
▁ేష్	-8.27165
▁కర్	-8.27767
▁ారి	-8.27961
ృష్ట	-8.28076
▁్యంలో	-8.28078
▁ిల్ల	-8.28091
▁క్యా	-8.28133
▁చూప	-8.28149
▁ోయ	-8.28182
▁ವ	-8.28407
▁ున	-8.28419
▁కీ	-8.28558
▁ాహ	-8.28674
▁టి	-8.28768
▁కారం	-8.29029
▁ି	-8.29122
▁ార్థ	-8.2928
▁్చ	-8.29293
▁కాదు	-8.29791
▁డించ	-8.29853
▁్భ	-8.29914
▁డ్	-8.29958
▁రెండ	-8.29984
ెంబ	-8.30112
▁అను	-8.30267
▁ామ	-8.30408
▁ముగ	-8.30581
ాల్గ	-8.30622
▁ద్ద	-8.30673
్పటి	-8.30691
▁ంద	-8.30859
▁్యా	-8.3094
▁కృష్ణ	-8.31011
▁తీర	-8.3105
ీద	-8.31053
▁దర్శ	-8.31249
▁పోల	-8.31502
▁అవసర	-8.31529
▁ండ్ల	-8.31986
కీయ	-8.32
ొట్ట	-8.32048
ాగా	-8.3223
▁జర	-8.32383
▁చ్చి	-8.32717
ెరుగ	-8.32974
▁వ్వ	-8.33372
▁ాచారం	-8.33382
▁ప్	-8.33392
▁త్	-8.33462
▁ేస	-8.33622
▁ండ	-8.33625
▁బాధ	-8.337
▁నె	-8.34128
▁నుంది	-8.34353
▁పొ	-8.34447
▁నుండి	-8.34892
▁మె	-8.34961
▁చిత్	-8.3497
రిశ	-8.35348
▁తా	-8.35372
▁ೆ	-8.35662
▁పేట	-8.35718
▁ుంద	-8.35902
▁నిర	-8.36022
▁్రంలో	-8.36119
▁ిమర్శ	-8.36201
▁బి	-8.36263
తి	-8.36291
ిమాన	-8.36327
పంచ	-8.36421
వృ	-8.36458
▁ించే	-8.36557
ార్ల	-8.36742
▁ା	-8.3686
▁్థితి	-8.36991
▁ండి	-8.37069
▁ాంతా	-8.3712
▁నగర్	-8.37216
▁మ్	-8.37269
▁ేలా	-8.37374
▁ఇంటి	-8.37603
▁లుగు	-8.37758
▁శ్ర	-8.37924
ంచ	-8.38023
ے	-8.38166
▁వీర	-8.38217
▁ౌ	-8.38299
▁ంజ	-8.38437
▁చర్చ	-8.38511
పట్ట	-8.38512
▁ంది	-8.38547
▁ంపెనీ	-8.38605
▁ంత	-8.3862
▁మొదట	-8.38744
ివాస	-8.38806
▁బయట	-8.38902
▁ఉప	-8.39185
▁ప్రా	-8.39272
▁ఆదేశ	-8.39294
▁లేదా	-8.39702
▁ంగ	-8.39812
▁తొల	-8.39819
▁క్రి	-8.39906
▁ుస్త	-8.39944
ుఖ్య	-8.4043
▁୍	-8.40572
▁రుగు	-8.40782
▁మస్య	-8.40949
మ్మ	-8.41215
ాధ	-8.41234
▁పుర	-8.41254
▁ోదీ	-8.41529
▁అమ్మ	-8.41614
▁లోకి	-8.41654
▁ెంబర్	-8.41719
▁ికి	-8.41775
▁సోషల	-8.41856
▁ఎంత	-8.42166
▁పొంద	-8.4233
▁ద్	-8.42491
ంగ	-8.42497
▁ద్ధి	-8.42558
▁కపోవ	-8.42611
▁ారికి	-8.42689
▁ತ	-8.42722
▁ఎలా	-8.42912
▁అదే	-8.43127
▁ేశ్వర	-8.43157
▁దిగ	-8.43182
▁ాగ	-8.44072
ంలో	-8.44185
▁ీన్	-8.44227
▁నిజ	-8.44328
▁అక్కడ	-8.44365
▁రే	-8.44613
▁అంటూ	-8.44899
▁సహా	-8.44958
▁రాజ్	-8.44977
▁జీవి	-8.45013
ాజ	-8.45019
▁ిచారణ	-8.45213
▁జాతీయ	-8.45222
దేశ	-8.45247
▁తీస	-8.45259
▁ఎవర	-8.45957
▁ాజా	-8.46196
▁ಕ	-8.46258
▁విషయం	-8.46284
▁ెంట్	-8.4631
▁టం	-8.4643
▁భావ	-8.46435
▁ాణ	-8.46483
ెంచ	-8.46523
▁నేత	-8.46593
▁త్తు	-8.46986
▁వ్యవ	-8.47173
ిత	-8.47189
▁వుత	-8.47493
▁మెరి	-8.47548
▁ర్యలు	-8.47926
▁దగ్గర	-8.48001
▁నేతలు	-8.48066
▁హీరో	-8.48082
▁ఫోన్	-8.48115
▁ీల	-8.48406
▁ాదా	-8.48524
▁ంతా	-8.48728
▁ంటే	-8.4887
▁ుకోవ	-8.48902
ంవత	-8.48944
▁ఏడాది	-8.49293
▁హత్య	-8.4931
▁10	-8.49372
▁ీర్	-8.49395
▁కె	-8.49831
▁దాడి	-8.50088
▁వర్	-8.50642
▁ార్	-8.5078
▁అన	-8.50924
▁ట్రా	-8.50996
▁ఆరోప	-8.51202
▁నిల	-8.51264
▁గాంధీ	-8.51415
లాగే	-8.5162
▁రావ	-8.51754
▁ిందే	-8.51912
▁ఠ	-8.5194
▁లోనే	-8.52168
ట్ట	-8.52193
▁పాల	-8.52196
▁డిమ	-8.52369
▁ఇదే	-8.52546
▁ట్ట	-8.52566
▁మార్	-8.52749
▁⁬	-8.52848
ిర్వ	-8.53177
▁రుణ	-8.53276
▁క్ల	-8.53279
▁పేరు	-8.53364
ెరిగ	-8.53396
▁అంటే	-8.53398
▁మో	-8.53468
▁్యూ	-8.53699
▁ర్మ	-8.53799
▁ిగ	-8.5385
▁ಯ	-8.53895
▁అంశ	-8.53896
▁దారు	-8.53954
▁ొచ్చ	-8.53982
▁ిల్	-8.54562
▁అధ్య	-8.54909
ుభ	-8.54995
ీటి	-8.55008
▁ಸ	-8.55077
▁వెంక	-8.55207
▁ిట్	-8.55253
ెక్ట	-8.5531
యోగ	-8.55413
▁కాలం	-8.55529
▁ఏం	-8.55649
▁సిద్ధ	-8.55669
▁మాన	-8.55753
▁అయిన	-8.55825
▁చూడ	-8.55827
▁ెన్	-8.56117
▁జా	-8.56235
చార	-8.56242
▁ఆడ	-8.56259
▁ప్పు	-8.56285
▁సింగ్	-8.57252
▁నగర	-8.5731
ద్ధ	-8.57388
▁ಗ	-8.57401
▁మహ	-8.57487
ుట్ట	-8.57937
▁క్షన్	-8.57984
▁ుప	-8.58443
▁రాశి	-8.58468
▁శివ	-8.58487
▁ఇలా	-8.58562
▁ియా	-8.5862
▁న్స్	-8.58651
▁ెట్	-8.58693
ాఖ	-8.59069
▁ର	-8.5941
▁గతం	-8.59633
▁అమలు	-8.59728
▁మెంట	-8.5978
▁సాయం	-8.59834
▁స్తు	-8.59838
▁యు	-8.60031
▁కూడ	-8.60043
▁డ్డ	-8.60244
▁ేశ్	-8.60248
▁ార్డ	-8.60322
▁ళ్	-8.60328
▁ఉత్త	-8.60328
▁గెల	-8.60904
▁ఇటీవ	-8.60984
▁ందోళన	-8.61027
▁ేసులో	-8.61028
ాను	-8.61034
▁ువ	-8.61322
ధార	-8.61491
▁ంట	-8.61552
▁రీక్ష	-8.62011
▁ికల్	-8.62042
▁ాడుతూ	-8.62129
▁డబ్బు	-8.62356
▁భ్యు	-8.62398
▁వారం	-8.62404
▁తేదీ	-8.62422
ెచ్చ	-8.62506
రువా	-8.62573
▁నంతరం	-8.62606
▁దుర్	-8.62625
▁మండల	-8.6267
▁ున్నా	-8.62751
▁తరల	-8.6287
▁మూవీ	-8.62915
▁ఉదయ	-8.63494
▁మోదు	-8.63522
▁లేద	-8.63599
▁లీ	-8.63685
▁జట్టు	-8.63852
▁్తే	-8.6417
▁వెల్	-8.64212
ోస్ట	-8.64238
▁సహ	-8.64258
▁వైఎ	-8.64295
▁ందుకే	-8.64323
ేపథ	-8.64359
▁ారా	-8.64362
ెల్ల	-8.6454
▁బడ	-8.64783
▁ుకు	-8.64791
▁ముంద	-8.64836
▁ాలయ	-8.6492
ఫ్	-8.6515
▁దక్	-8.65192
▁ోత	-8.65334
▁ైంది	-8.65854
▁్రి	-8.65885
▁ెత్త	-8.66011
▁ఫలి	-8.66315
▁ాదు	-8.66525
▁రక్ష	-8.66589
▁నేను	-8.66622
ಂ	-8.66751
▁భూ	-8.6683
▁అప్ప	-8.67056
▁ేయ	-8.67249
▁జారీ	-8.67295
▁ోర్ట	-8.67299
ాయి	-8.67626
▁ులను	-8.6769
▁చేత	-8.67867
ండ	-8.67969
▁గిరి	-8.68257
▁చారం	-8.68287
▁వివా	-8.68365
▁్లా	-8.68421
త్య	-8.68434
▁ాను	-8.68443
▁మాట	-8.68504
▁కొం	-8.68519
▁బె	-8.68814
▁మళ్ల	-8.68824
ూపాయ	-8.68914
▁ఆల	-8.69053
▁బోత	-8.69126
లకు	-8.69764
▁కంటే	-8.69987
▁ౌన్	-8.70022
▁ృ	-8.70072
▁్యాణ్	-8.70272
▁ేమ	-8.70307
▁్డారు	-8.70317
a	-8.70592
▁కలిగ	-8.70707
▁మని	-8.70952
యాణ	-8.71021
▁అంచనా	-8.71036
▁విశ్	-8.71054
▁పర్	-8.71076
మాన	-8.71165
▁గ్ర	-8.71269
▁ొందరు	-8.71346
▁ఫొటో	-8.71469
ల్ప	-8.71578
▁ఊ	-8.71652
ంజ	-8.71912
▁తల్లి	-8.71972
▁డైర	-8.71974
ైన	-8.71993
▁లి	-8.72205
▁వైద్య	-8.72342
▁ర్షా	-8.72353
▁ుర	-8.72588
▁ంచ	-8.72617
కాల	-8.72632
▁జే	-8.72648
▁హెచ్	-8.7266
▁ుర్త	-8.7269
ెళ్ల	-8.72797
▁్టేష	-8.73056
▁క్టర్	-8.73175
▁లె	-8.73197
▁తయార	-8.73337
▁ఫిర్	-8.73409
▁తు	-8.73445
ఫీస	-8.73605
ిపోయ	-8.73645
▁క్కడ	-8.73717
▁ఆంధ	-8.73768
▁హాజ	-8.73788
ీసీ	-8.73791
▁డే	-8.73847
▁పక్ష	-8.73928
▁ఎక్స	-8.7414
▁అధ	-8.74144
ంబ	-8.74186
▁అంట	-8.74271
▁అంత	-8.74293
▁డు	-8.743
▁నో	-8.7432
▁అవ	-8.74335
▁ాహుల్	-8.74559
▁వర్గ	-8.74659
▁పే	-8.74823
▁నేతల	-8.74868
▁ెస్ట్	-8.74874
▁గానే	-8.75016
▁దర్శన	-8.75142
▁వాద	-8.75202
▁న్యూ	-8.75308
▁ైర్	-8.75545
▁లైన్	-8.75594
▁డాక్	-8.75713
▁ఇత	-8.75727
▁ుండ	-8.75749
▁ಮ	-8.75862
▁సంఘ	-8.76075
▁ార్పు	-8.76077
▁డిస	-8.76124
్యాయ	-8.76188
▁జనసేన	-8.76468
▁్యు	-8.76653
▁ివర	-8.7666
▁మేరకు	-8.76965
▁సంఖ్య	-8.76977
▁్మ	-8.77094
▁వాత	-8.77156
▁పాక	-8.77197
▁సుప	-8.77277
▁తామ	-8.77554
ిజ	-8.77636
▁రవ	-8.77744
▁ాలుగు	-8.78057
రు	-8.78336
▁ొంది	-8.78376
▁ర్ణ	-8.78401
▁షన్	-8.78519
▁ురా	-8.78554
▁ీం	-8.78591
▁టికె	-8.78701
▁ామ్	-8.79122
▁టంతో	-8.79138
▁సీట్	-8.79249
್	-8.79252
▁మొ	-8.79253
▁స్వా	-8.7927
▁ఆశ	-8.79351
ిలిచ	-8.79449
▁ెంటన	-8.79577
▁ోర	-8.79709
▁ిస్తే	-8.79743
▁సేవ	-8.79862
▁క్ట	-8.80149
▁ఆది	-8.80173
▁్టార్	-8.80242
▁కూ	-8.80351
▁ధి	-8.80486
▁లం	-8.80501
▁ాట్	-8.80567
ావ	-8.80579
▁రోపణ	-8.80621
▁చ్చు	-8.80724
▁ిష	-8.80771
▁్థి	-8.80876
▁ిఫ	-8.81131
▁ఇంక	-8.81207
▁పాలన	-8.81759
▁ాత్రి	-8.81783
▁కూల	-8.81911
▁ోత్స	-8.82012
▁్థు	-8.82093
▁ంటూ	-8.8239
▁రువు	-8.82471
▁భాగ	-8.82537
ార్చ	-8.82758
▁మిషన్	-8.82794
ధుల	-8.82901
▁ెగ	-8.83048
▁యాత్ర	-8.83058
▁ట్టి	-8.8351
▁ఎదుర	-8.83676
▁శుక్	-8.83719
▁జూ	-8.83745
▁్షుడు	-8.84002
▁జ్	-8.84027
▁ఎల్	-8.84239
▁ాట	-8.84357
▁యించ	-8.84382
▁గు	-8.84474
▁్డ	-8.84605
▁వే	-8.84668
▁20	-8.84722
▁ఎఫ్	-8.8475
▁్సర	-8.84919
▁ంలోకి	-8.84921
▁ాధ్యత	-8.84959
ందుక	-8.85057
▁రోజ	-8.85064
▁్థ	-8.85147
▁సో	-8.85343
▁ధర్	-8.85412
▁పాట	-8.85515
▁ಡ	-8.85548
▁ొద్ద	-8.85619
▁ాప	-8.85666
▁డె	-8.85753
▁వైరల్	-8.85826
▁్రకటన	-8.85995
▁ైట్	-8.86004
▁శా	-8.86154
▁ఐదు	-8.86362
తూ	-8.86367
▁చివర	-8.86437
▁నంద	-8.86493
తే	-8.86498
▁్థిత	-8.86499
▁ుష	-8.86646
▁ోష	-8.86726
▁సామ	-8.86987
▁ోర్	-8.87158
▁న్ని	-8.87164
▁ద్దతు	-8.87229
▁ంత్ర	-8.87316
▁భార్య	-8.8761
▁ార్త	-8.87673
▁ెక్టు	-8.87683
▁/	-8.87747
▁ద్ధ	-8.87811
▁ఉంటే	-8.87916
▁కౌం	-8.88056
▁ాద	-8.88077
▁కర్త	-8.88152
▁క్కు	-8.88301
రణ	-8.88356
▁సౌ	-8.88569
▁ోడీ	-8.88765
▁్ణాటక	-8.88822
▁ంతో	-8.88862
▁ాక	-8.89048
▁విజయం	-8.89051
▁ినీ	-8.89053
▁సీపీ	-8.89054
▁పాత్ర	-8.89249
▁దర	-8.89455
▁అంతర	-8.89469
▁రల్	-8.8954
ొనుగ	-8.89579
▁్రా	-8.89844
▁కట్ట	-8.89904
▁ర్ర	-8.89983
▁పండ	-8.89997
▁ిట్ట	-8.90032
▁గణ	-8.90212
▁నియ	-8.90321
▁ాక్	-8.90416
▁ువుల	-8.90449
▁ఉపయో	-8.90563
ాన్	-8.90573
▁గల	-8.90628
▁15	-8.9066
▁వస్థ	-8.90677
ుల	-8.9075
▁బ్	-8.90883
▁బుల్	-8.91041
▁శని	-8.91053
▁పూజ	-8.91075
ی	-8.91145
▁మంగళ	-8.91146
▁ాటు	-8.91493
▁లై	-8.91497
▁జ్ఞ	-8.91499
చుక	-8.91502
▁కమిటీ	-8.91504
▁ెంట	-8.91515
▁చైర్	-8.91617
్రామ	-8.91676
▁విధ	-8.91799
▁దిల	-8.9197
▁యువ	-8.92028
▁ేర్	-8.92252
▁తీ	-8.9237
▁ిన్న	-8.92384
▁ీనియ	-8.92587
▁ప్లా	-8.92611
▁ోలు	-8.92617
▁ూత	-8.92718
▁ోలీస్	-8.92731
▁ెళ్లి	-8.92899
▁నిప	-8.92981
▁ీమ్	-8.93145
▁డిప	-8.93189
▁న్నీ	-8.93237
ంటర్	-8.93297
▁బ్ర	-8.93342
సుక	-8.93523
▁ర్చ	-8.93614
▁ిని	-8.93653
▁ోడ్డు	-8.93887
్వామ	-8.94002
▁ర్ష	-8.94068
▁రోడ్	-8.94129
▁ద్దరు	-8.94161
▁రిష్	-8.94181
▁్రం	-8.94267
శ	-8.94398
▁ోన్	-8.94467
▁భూమి	-8.94483
▁రో	-8.94611
ెంగళ	-8.94897
▁చోటు	-8.95005
▁ఆత్మ	-8.95041
్పుడ	-8.95044
▁పనులు	-8.9528
▁ాలంటే	-8.95338
▁నవ	-8.95404
▁ర్న	-8.96101
▁విర	-8.96157
ిళ	-8.96445
▁ెళ్ల	-8.96467
▁్రమ	-8.96526
▁ుక్క	-8.96604
▁రాజు	-8.9667
▁ర్స్	-8.96892
▁కేవలం	-8.97015
▁దని	-8.97088
▁ాయ్	-8.9713
▁పరిధి	-8.97204
్యూ	-8.97318
▁ధాన	-8.97502
▁కిలో	-8.97583
▁నడ	-8.98089
▁త్వం	-8.981
▁సమస్య	-8.98271
▁కూటమి	-8.98522
▁ోంద	-8.98551
▁ుల్	-8.98652
▁ఆరు	-8.98685
పడ	-8.98876
▁బౌ	-8.99052
▁ిత్	-8.99053
▁్పు	-8.99092
▁మొదల	-8.9912
▁నాడు	-8.99212
▁జీవ	-8.99237
▁ుకుంట	-8.99262
▁ుల్లో	-8.99384
▁దూరం	-8.99417
▁ిలో	-8.99459
▁ైల్వే	-8.99477
▁ింట	-8.99772
ెస్ట	-8.99782
ియ	-8.9985
▁ర్లు	-8.99886
▁ేజీ	-9.00031
▁రంగ	-9.00082
▁యన	-9.00174
▁పోర	-9.00218
▁ఓట్	-9.00236
▁తల	-9.00259
▁ర్వ	-9.00264
▁ెడ్	-9.00329
▁େ	-9.00337
▁ప్లే	-9.00353
▁ార్ట	-9.00626
▁ేజ్	-9.00628
▁రిప	-9.00844
▁ెయిల్	-9.00912
▁అమ	-9.00946
▁ీలో	-9.01205
తర	-9.01446
▁ిధ	-9.01506
▁వేశ	-9.01537
▁మృతి	-9.01565
▁విన	-9.01635
▁ిటీ	-9.01822
▁సూర్య	-9.0208
▁మహా	-9.02137
▁ెర	-9.02166
▁బస్సు	-9.02196
▁ిరుమ	-9.02197
రిగి	-9.02259
▁ానీ	-9.02404
▁ేక్ష	-9.0246
▁ک	-9.02485
▁సరి	-9.02538
ిప్ర	-9.02585
▁రక	-9.026
▁సన్	-9.02821
▁న్ను	-9.02932
▁వరద	-9.03141
▁వు	-9.03296
▁ోక	-9.03346
▁టై	-9.03407
▁సాగు	-9.0358
▁30	-9.03604
▁ర్గా	-9.03645
▁మీరు	-9.03664
ఫ	-9.03765
▁డియ	-9.03829
▁ఓడ	-9.03927
థాయి	-9.03948
స్ట	-9.03954
▁సంత	-9.04006
▁నై	-9.0404
▁ారాయణ	-9.04051
▁ిలీజ్	-9.04118
▁ేది	-9.04273
▁యర్	-9.04464
▁బట్టి	-9.0464
▁హో	-9.04868
▁ంద్ర	-9.04896
▁తిని	-9.04919
▁ాస	-9.04931
▁ఫీ	-9.04949
ద్దర	-9.05024
▁ేష	-9.05084
▁12	-9.05179
▁టె	-9.05234
▁అంతే	-9.0525
ిస్ట	-9.0527
▁ిబ	-9.05332
విధ	-9.05336
▁దొ	-9.0551
▁ఆస	-9.05627
▁పక్క	-9.05765
▁కీయ	-9.05799
▁ోదా	-9.05827
▁మరియ	-9.05908
▁్తాన్	-9.05915
▁విక్	-9.06044
ర్జ	-9.06119
▁ప్రేమ	-9.06483
▁రిగ	-9.06585
▁చ్	-9.06617
ందుబ	-9.06908
ుణ	-9.06985
▁బో	-9.07064
▁ొక్క	-9.07107
▁ైల	-9.07125
▁వచ్చు	-9.07309
▁ల్లు	-9.0732
▁బుధ	-9.07368
▁ఏద	-9.07417
▁క్వ	-9.07522
▁వరకూ	-9.07593
▁్యలు	-9.07698
▁ొని	-9.07735
▁సొం	-9.07769
▁లపై	-9.07776
▁ైవే	-9.07793
▁పోయ	-9.07844
▁చర్య	-9.08044
▁భావం	-9.08154
▁చూ	-9.08402
▁ర్ధ	-9.08563
▁రిట	-9.08564
▁్రీ	-9.08662
▁బహ	-9.08706
▁భద్రత	-9.08774
▁పా	-9.08835
▁గుడ	-9.08845
e	-9.08873
▁వంత	-9.0899
▁సర్వే	-9.09164
▁ీర	-9.09223
▁ుతూ	-9.09334
ేయ	-9.09427
▁ఖర్చు	-9.09497
▁ొప్ప	-9.09557
▁వేదిక	-9.09564
▁నింగ్	-9.0962
ముఖ	-9.097
▁ంభ	-9.09764
▁పాద	-9.09832
▁స్టా	-9.09975
▁దీ	-9.0998
▁కప్	-9.10109
క్రమ	-9.1025
▁హె	-9.10361
▁సీసీ	-9.10455
▁దండ	-9.10736
ల్	-9.10745
▁తొలగ	-9.10835
▁శిక్ష	-9.11202
▁టో	-9.11259
కూల	-9.11356
▁జైలు	-9.11416
▁క్షిణ	-9.1149
▁న్స	-9.11504
▁హామీ	-9.11619
ాగ	-9.11777
▁రాస	-9.11809
▁డా	-9.11935
▁ర్కా	-9.11941
▁ుండగా	-9.12063
▁కారు	-9.12133
▁లేక	-9.12329
▁డర్	-9.12341
▁చెల్	-9.12444
ధారణ	-9.12711
▁ెన్స్	-9.12732
▁జరు	-9.12842
▁అలా	-9.12881
▁సెప్	-9.12942
▁ేశ	-9.1297
▁ఉత్	-9.13009
▁ావ	-9.13114
▁యి	-9.13193
▁పురం	-9.13254
▁క్రియ	-9.13269
▁లువు	-9.13472
▁గడ	-9.1366
ివేద	-9.13761
▁ంగ్	-9.13917
▁డమే	-9.13932
▁జర్	-9.13947
▁తి	-9.14051
▁ఢ	-9.14087
▁ిజర్	-9.14102
▁స్త	-9.14103
ا	-9.14234
▁ాది	-9.14276
▁హా	-9.14277
▁త్తి	-9.14357
ండ్	-9.14359
▁ిశ	-9.14366
i	-9.14483
్భ	-9.14579
▁ిద్యా	-9.14626
▁్తు	-9.14773
▁వేళ	-9.14967
స్త	-9.15059
▁ఇజ్ర	-9.15069
▁తర	-9.15085
▁హర	-9.15127
ీస	-9.15278
▁ియల్	-9.15376
▁సభ్య	-9.15442
▁ಲ	-9.15507
▁ఫ్ర	-9.15896
▁త్యం	-9.16
నేత	-9.16109
▁్వామి	-9.16123
▁ూస	-9.16207
▁వో	-9.16268
▁డుగు	-9.16271
▁ంగారం	-9.16273
▁పథక	-9.16274
▁ర్జున	-9.16275
▁ీల్	-9.16348
▁క్టో	-9.16354
▁ిల్లు	-9.16458
▁ీస్	-9.16535
▁పాత	-9.16575
్ద	-9.17025
▁ఉంద	-9.17189
▁యువత	-9.17364
▁ఏమ	-9.17387
▁బు	-9.1742
▁దర్య	-9.17429
▁ొచ్చు	-9.17527
▁సిటీ	-9.17655
▁నమోద	-9.17687
ుస్త	-9.17753
▁ాండ	-9.17862
▁దాడు	-9.17931
▁ిప్	-9.1799
▁టీసీ	-9.18018
▁సర	-9.1803
▁ేరుతో	-9.18069
▁ామా	-9.18213
▁ుకున	-9.18218
▁ీవుడ్	-9.18253
▁మృత	-9.18264
▁కవిత	-9.1834
▁ఓవర్	-9.18419
▁ిజన్	-9.18422
▁ాప్తు	-9.18424
▁నేడు	-9.18488
▁్స్	-9.18553
▁కంప	-9.18699
▁ెస్	-9.18874
▁ధిక	-9.18884
్రభా	-9.18885
ంక	-9.18922
▁లర్	-9.1908
▁దెబ్బ	-9.19192
▁వాల్	-9.19253
▁ఏడ	-9.1927
▁తేదీన	-9.19439
▁ేసులు	-9.19494
▁భవ	-9.19597
▁జాగ్	-9.19641
▁యూని	-9.19701
రీర	-9.19718
▁టెక్	-9.19765
ృత	-9.19777
▁డ్ర	-9.19855
▁కం	-9.19918
▁ులతో	-9.19923
▁రద్దు	-9.20058
▁ర్మి	-9.20104
▁్ని	-9.20134
▁చీఫ్	-9.2021
▁ార్చి	-9.20295
▁ులో	-9.20332
▁ప్రియ	-9.20376
▁్ట్ర	-9.2044
▁మోహన్	-9.2044
▁ారిటీ	-9.20445
▁విలువ	-9.20447
▁సింగ	-9.20575
▁ిచ్చ	-9.20875
▁హార	-9.20881
▁ెల్సీ	-9.20987
▁ెక్క	-9.21007
▁ఫె	-9.21063
▁నుగ	-9.2111
▁ిష్ట	-9.2124
▁రియా	-9.21243
▁ోడ్	-9.21326
▁దశ	-9.21334
▁ఓటు	-9.21364
▁11	-9.21512
▁ిటల్	-9.21634
▁రిత్ర	-9.21653
▁సంజయ్	-9.21703
ంప	-9.21776
▁ాయెల్	-9.21792
▁ంక్ష	-9.21898
▁ైత	-9.21915
▁వుల	-9.21969
▁పో	-9.22006
▁దళ	-9.22017
▁‍	-9.22022
▁జూన	-9.22027
▁ుబడ	-9.22063
▁ీమ	-9.22136
▁మనం	-9.22233
ుప	-9.22256
▁ాత్మ	-9.22259
▁24	-9.223
▁ీష్	-9.22508
▁యిన్	-9.22569
▁పనుల	-9.22643
▁ప్షన్	-9.22752
▁భూమ	-9.22795
▁ఏక	-9.22817
▁ందరూ	-9.22949
▁ఎత్త	-9.22956
▁ేక్	-9.2307
▁ిండ	-9.23117
▁భర్త	-9.23149
▁నరే	-9.23214
ెలిచ	-9.23234
▁తిన	-9.23245
▁్రుల	-9.23324
▁సాగ	-9.23328
▁మండలం	-9.23344
▁ంప	-9.23758
ంక్ష	-9.23828
▁నియా	-9.24007
▁ిక్స్	-9.24148
▁ಪ	-9.24207
▁రైలు	-9.24223
▁ెన్స	-9.2437
▁గడ్డ	-9.24389
▁్యూటీ	-9.24445
▁టింగ్	-9.24464
▁ూర	-9.2454
▁విశాఖ	-9.24549
▁నీరు	-9.24575
▁ష్	-9.24598
▁కిత్స	-9.24617
▁రామ్	-9.2462
▁చిన్	-9.24629
▁ీక్ష	-9.24652
▁డ్రై	-9.24807
▁రాయ	-9.24809
▁్యాన	-9.25058
▁న్నా	-9.25314
▁నోట	-9.25584
▁ేద	-9.25677
▁పదవి	-9.25864
▁్థాన్	-9.25941
▁సంతో	-9.25974
▁ంతర	-9.26106
▁ోస్టు	-9.26112
యస	-9.26213
▁్రాల	-9.26252
▁స్వీ	-9.2627
▁విష	-9.26367
▁କ	-9.26417
▁14	-9.26456
ండ్ర	-9.26523
ోమవ	-9.26665
▁ిడ్	-9.26856
▁ాడారు	-9.26947
s	-9.26957
▁ుద	-9.27022
▁ిలి	-9.27135
▁ఉద	-9.27258
▁దారి	-9.27335
▁వరి	-9.27502
▁రేట్	-9.27506
▁ుష్	-9.27508
▁ాటి	-9.2761
▁చైనా	-9.27621
▁నుంచ	-9.27707
▁రాశ	-9.27795
▁అయినా	-9.27816
▁లెక్క	-9.27928
▁ఆసుప	-9.28142
▁ఖాత	-9.28144
▁వన్	-9.28153
▁లభ	-9.28268
▁యోజ	-9.28288
▁ఎస్సీ	-9.28299
▁సర్	-9.28375
▁సార	-9.28445
▁తది	-9.28453
▁ీబీసీ	-9.28471
▁ూట	-9.28642
▁ైల్	-9.28643
▁ివరకు	-9.28665
వర్న	-9.28786
▁ఎయిర	-9.28832
▁లేకప	-9.28879
▁నిరసన	-9.28931
▁పార	-9.28945
▁నెలక	-9.29039
▁ఫర్	-9.29153
▁సూపర్	-9.2944
▁25	-9.2944
▁శక్తి	-9.29498
తీయ	-9.29574
▁ెస్ట	-9.29713
▁ుత్	-9.29814
▁ేషనల్	-9.29843
▁కాపా	-9.29848
▁ండిప	-9.29967
▁వేడుక	-9.30229
▁ోరు	-9.30388
▁ధన	-9.304
▁ందర	-9.30445
క్ష	-9.30465
▁స్మ	-9.30556
▁సార్	-9.3066
▁నల్	-9.30688
▁గ్రహ	-9.30752
▁ైన్	-9.30767
▁ఈసార	-9.30803
▁ాన్	-9.30892
▁ూల	-9.30929
▁లస	-9.30991
▁మెడ	-9.31079
▁రంగల్	-9.31081
▁్లాన్	-9.31133
▁రేషన్	-9.31215
▁అయ	-9.31227
▁క్యూ	-9.31262
▁ెంటర్	-9.31316
ున్స	-9.31324
▁ಲ್ಲ	-9.31413
▁ర్యటన	-9.31415
▁ెల	-9.3148
▁సీఐ	-9.31506
▁ంప్	-9.31669
▁ియే	-9.31701
▁దర్శి	-9.31764
డ్జె	-9.31833
▁ీటి	-9.31922
ీఆర్	-9.31947
▁తీరు	-9.31968
▁జ్జ	-9.31992
▁ಬ	-9.32161
▁స్టర్	-9.32215
▁ముఖ	-9.32231
▁పూర	-9.32337
▁ాపూర్	-9.32385
▁ాసన	-9.32512
▁ారో	-9.32571
ప్రి	-9.32609
▁జై	-9.32635
▁ార్మ	-9.32713
▁ేస్	-9.32792
రుస	-9.32845
ఖాస	-9.32974
▁50	-9.33079
ದ	-9.33106
▁ొత్తు	-9.33173
▁ుక్	-9.3325
▁కపోతే	-9.33328
▁ల్లి	-9.33345
▁ఆయ	-9.334
▁గొ	-9.33407
ర్థ	-9.33449
▁నలు	-9.33465
రించ	-9.33469
▁శి	-9.33476
▁రెంట	-9.33483
▁వాస	-9.3358
▁నం	-9.3359
▁ోడ	-9.33735
▁ీయ	-9.33819
▁దాఖ	-9.33861
గ్రహ	-9.33867
ిటిష	-9.34008
▁కూర	-9.34073
▁రల్డ్	-9.34087
▁ಟ	-9.34274
▁త్స	-9.3433
▁ర్మిల	-9.34443
రి	-9.3449
▁ନ	-9.34535
▁ేసి	-9.34545
▁ంచ్	-9.34661
▁ేవారు	-9.34836
▁్నా	-9.34891
▁ోమ	-9.35077
▁ఎస్పీ	-9.35179
ा	-9.35262
▁తొ	-9.35308
▁ించడ	-9.35359
పె	-9.35371
▁ిగా	-9.35455
▁ఆహా	-9.35596
▁ేందర్	-9.35819
యాల	-9.35879
▁ేస్త	-9.35988
▁్వా	-9.36007
▁ବ	-9.36029
▁ంశ	-9.36088
▁18	-9.36172
▁లీడర్	-9.36188
▁యాణ	-9.36291
▁సంచ	-9.36377
▁ేటి	-9.36426
▁ఇంట	-9.36468
▁మద్య	-9.36481
▁ోవడ	-9.36511
▁ఎన్ట	-9.36538
▁ీశ్	-9.36566
▁ైక్	-9.36696
▁کی	-9.36698
▁ాచ	-9.36785
▁ిరీస్	-9.36832
నాల	-9.36934
▁మన్	-9.37129
▁యో	-9.37139
▁ఎంపిక	-9.37392
▁ాలలో	-9.37463
ేద	-9.37464
▁రణ్	-9.37573
చిత	-9.37665
▁ీక	-9.37665
ాభ	-9.37675
▁నాథ్	-9.3768
▁కొండ	-9.37732
ెప్	-9.37798
▁గౌడ	-9.37821
▁ెం	-9.37979
▁టే	-9.38023
▁వేగం	-9.3805
▁మయ్య	-9.38068
▁రాం	-9.38123
▁లబ	-9.38189
▁ఖమ్మం	-9.38234
▁మొదలు	-9.38284
రోజు	-9.38356
▁పోత	-9.38408
▁ోజ	-9.3844
▁ెట్ట	-9.38445
▁భావి	-9.38586
ر	-9.38648
పించ	-9.38655
▁గౌర	-9.38706
▁మైంది	-9.3873
ర్స	-9.38808
కూల్	-9.38808
▁ార్ప	-9.38981
▁ఎకరా	-9.39057
▁్కర్	-9.39091
00	-9.39198
▁న్మ	-9.39205
▁ఇండ	-9.39229
▁్రూప్	-9.39276
▁దుల	-9.39296
▁ూనే	-9.39306
ప్రద	-9.39642
▁ార్ట్	-9.39667
میں	-9.39675
▁ేట్	-9.39696
▁ాక్స	-9.39698
▁ీత	-9.3981
▁ంకు	-9.39876
▁బంధ	-9.39939
▁బ్ల	-9.39977
▁ందులు	-9.40077
▁జాత	-9.40079
్పత	-9.40135
▁ସ	-9.40139
▁శ్చ	-9.40151
ీపం	-9.40193
▁నర్	-9.40229
▁ంచుక	-9.4041
చ్చ	-9.4044
▁ామీ	-9.40599
▁ఒకటి	-9.40601
▁సేక	-9.40606
▁వినీ	-9.40622
▁ిప	-9.40623
▁ఈడీ	-9.40726
▁్యూస్	-9.40738
▁ాబ్	-9.40904
▁ఓటర్	-9.4093
▁ఉమ్మ	-9.40979
▁ేరు	-9.40992
▁ీట్	-9.41027
ୁ	-9.41098
▁బర్	-9.41315
ిచార	-9.41329
▁ତ	-9.41402
▁కథ	-9.4145
▁ారణా	-9.41481
▁యోగ	-9.41665
▁చే	-9.41809
▁ేట	-9.41823
వాళ	-9.41825
▁సైతం	-9.42075
▁ల్స్	-9.42146
▁ీచర్	-9.4217
ీటర్	-9.42252
్వీట	-9.42356
▁ఆలోచన	-9.42359
ಳ	-9.42365
▁ముంబై	-9.42367
▁గుంట	-9.42393
▁బృ	-9.42423
ంబర్	-9.42463
▁గమన	-9.42528
▁ఇంగ్	-9.42564
వార	-9.42669
▁్యాల	-9.42692
▁లవ	-9.42702
▁టాల	-9.42816
▁మల్	-9.42844
▁ీనామా	-9.42858
▁దిన	-9.42885
ేజ	-9.42908
t	-9.42911
పొంద	-9.42913
▁గస్టు	-9.42957
▁లిప	-9.43049
▁ಹ	-9.43065
o	-9.43156
▁ాన్స్	-9.4319
▁రస	-9.43279
దుపు	-9.43299
▁్లిక	-9.43345
▁ర్గ	-9.43349
ేశ	-9.43455
▁లుపు	-9.43493
▁వర్షం	-9.43498
▁మిక	-9.43565
▁సబ్	-9.43571
▁భద్ర	-9.43652
▁ల్ప	-9.43659
▁ల్డ్	-9.43687
▁క్ట్	-9.43728
ార్డ	-9.4375
▁కారణ	-9.43779
▁ఉండగా	-9.43892
▁విడ	-9.44124
▁ిషన్	-9.44201
▁పట్ల	-9.4421
▁ప్త	-9.44219
▁ాబితా	-9.44247
రియ	-9.44332
▁జనవ	-9.44335
▁లహ	-9.44341
▁ుట్ట	-9.44381
▁ాకా	-9.44499
▁సక్తి	-9.44555
▁ర్జ	-9.44626
▁ొంగ	-9.44718
▁ాణి	-9.44724
▁ాప్	-9.44746
ెండ	-9.44756
▁ొండ	-9.44778
▁పర్య	-9.4488
రై	-9.44894
▁కోట	-9.45105
▁ొం	-9.45132
▁ాలేజీ	-9.45152
▁ిరం	-9.4516
▁వెనుక	-9.45195
▁దాన	-9.45241
▁ఐపీ	-9.45256
▁ర్త	-9.45471
ర్ప	-9.45606
▁ెబ్	-9.45611
▁్చి	-9.45617
▁ంబర్	-9.45712
టించ	-9.45744
▁ద్దు	-9.45767
ہ	-9.45785
▁య్	-9.45908
▁ఉద్య	-9.46032
▁చా	-9.46037
▁ెన్సీ	-9.46078
▁ౌండ్	-9.46167
▁జరి	-9.46197
▁అవి	-9.46207
▁ానం	-9.46212
▁చదువ	-9.46266
▁ధీ	-9.46436
▁ారిన	-9.4645
▁విభ	-9.46484
▁స్క	-9.46554
వంట	-9.46579
▁ిస	-9.46601
▁మంత్ర	-9.46632
ل	-9.4665
ోల్ప	-9.46746
▁ృత	-9.46867
▁్వర	-9.46895
గ్ర	-9.46905
ికె	-9.46905
▁ోగ	-9.46997
▁ంస	-9.47108
▁ేప	-9.47148
▁్రవ	-9.47156
▁ష్ణ	-9.47186
▁ెడ	-9.47349
యా	-9.4737
▁ిమి	-9.47499
▁నీళ్	-9.47527
▁ిరుప	-9.47629
▁శాంత	-9.47697
▁కనీ	-9.47801
▁ాయా	-9.4788
ఫిక	-9.48112
u	-9.48221
▁ప్తి	-9.48439
▁పతి	-9.48441
▁ూర్త	-9.48507
▁గర్	-9.48605
▁ంటి	-9.48803
▁లేఖ	-9.49005
▁ైమ్	-9.49024
▁ఫ్ట్	-9.49038
▁మై	-9.49051
ేష	-9.49261
▁వార్	-9.49319
▁ంధ	-9.49349
▁అర్	-9.49369
▁ఖాన్	-9.49433
▁రహ	-9.49447
▁పది	-9.4952
ిగిల	-9.49577
▁ణ్	-9.49673
ిచ	-9.49839
▁ీతా	-9.49858
▁అధి	-9.4987
▁ిలీ	-9.4989
▁బండి	-9.49929
మిష	-9.50094
▁డుత	-9.50202
▁మెజ	-9.50276
▁స్య	-9.50369
హారా	-9.50438
▁క్కడే	-9.50502
▁ాంగ్	-9.50619
▁్గురు	-9.50625
▁ీన	-9.50652
▁వేత్త	-9.50658
▁ల్లా	-9.50751
▁ాక్ష	-9.50784
సలు	-9.50795
▁చోట్ల	-9.50859
▁13	-9.50888
▁ఠా	-9.51054
▁్యాయం	-9.51097
▁ేలియా	-9.51178
▁ఆధ్వ	-9.51178
▁డిగ	-9.51186
▁యాదవ్	-9.51196
▁ఖీ	-9.51368
▁పూ	-9.51376
▁పడ్డ	-9.51396
▁విష్	-9.51437
▁సీబీఐ	-9.51501
▁ೋ	-9.51502
సాయ	-9.5151
▁గ్రహం	-9.51525
▁ోటో	-9.51537
▁ళి	-9.51659
▁గుండె	-9.51764
▁ుణ	-9.5185
▁మాజ	-9.52153
▁ముందే	-9.52194
▁ంతు	-9.52208
▁త్ర	-9.52364
ాణ	-9.52416
▁రూప	-9.52496
▁ెడ్డి	-9.52524
▁సూ	-9.52602
▁ైడ్	-9.52709
▁ోన	-9.52802
▁22	-9.52954
▁ందుల	-9.5296
▁ెన	-9.52995
▁16	-9.53032
▁మరిక	-9.53035
▁హౌ	-9.53139
ుద్ర	-9.53149
ాయుడ	-9.53169
లను	-9.53213
▁విశ	-9.53256
డెంట	-9.53284
▁మోస	-9.53342
▁దిర	-9.53367
y	-9.53426
యింద	-9.53455
▁ఒత్త	-9.53479
▁ెయ్	-9.53538
▁ాండ్	-9.53544
▁అమిత్	-9.53708
▁ీమా	-9.53715
▁హిళలు	-9.53783
▁ందిర	-9.53794
▁ిణీ	-9.53802
▁ీడ	-9.5383
▁ాఠశాల	-9.53893
▁ోహిత్	-9.53893
▁ధ్వ	-9.53897
▁క్	-9.53905
▁స్సు	-9.53935
హ్నం	-9.54026
▁ొడవ	-9.54051
▁ాఫ్	-9.54057
▁తప్పు	-9.54063
▁ెస	-9.54097
▁ఎవరు	-9.54227
▁ిపల్	-9.54245
▁ర్థం	-9.54312
▁జి	-9.54315
▁ాఫీ	-9.54376
ూడో	-9.54421
▁ెల్	-9.54443
▁వాహన	-9.54626
▁ష్ట్ర	-9.54743
▁ారంభం	-9.54774
▁ాలంట	-9.54955
▁సంఘటన	-9.55003
▁న్య	-9.55009
▁బ్బ	-9.55023
▁మిషన	-9.55025
▁త్రి	-9.55101
▁A	-9.55128
మోద	-9.55158
▁శేఖ	-9.55223
▁ిద్ర	-9.55231
▁యిత	-9.55243
▁ుమ	-9.55391
▁ోర్డు	-9.55482
టు	-9.55502
▁దీప్	-9.55517
▁న్నై	-9.55628
▁సాద్	-9.55671
▁భాష	-9.5568
▁టర్	-9.55777
▁ువు	-9.55965
▁ట్రో	-9.56001
▁ఉన్నా	-9.56064
▁ావతి	-9.56168
▁ఐట	-9.56426
▁గూడ	-9.56459
▁మూడ	-9.56484
▁న్షన్	-9.5658
ున	-9.56614
▁బంగా	-9.56666
▁లగ	-9.56735
▁సీజన్	-9.5681
▁రాత్	-9.56837
▁్రీన్	-9.56843
▁ిష్	-9.56885
▁గురి	-9.56892
ోటీస	-9.5691
▁టిల్	-9.56955
▁17	-9.5697
▁గద	-9.56976
▁ారాల	-9.57077
▁లిక	-9.57119
ت	-9.57145
ావడం	-9.57198
▁ంక	-9.57274
▁్తా	-9.57331
▁గ్ల	-9.57386
▁డ్జ	-9.57458
ೇ	-9.57478
▁ంగార	-9.57482
▁ుడ్	-9.57606
▁హిం	-9.57686
▁సంప	-9.57693
▁శాస్	-9.577
▁ుతాయి	-9.57909
▁అందర	-9.5798
▁కూర్	-9.57983
రూ	-9.58114
▁మణి	-9.58267
▁ాశ	-9.58373
▁ైస్	-9.58451
▁్టేట్	-9.58511
▁టా	-9.58536
▁గ్రే	-9.58659
▁రియ	-9.58664
నంద	-9.58753
▁సుల	-9.58849
▁ష్ట	-9.58911
మైన	-9.58943
▁ర్ట	-9.58951
▁్త్	-9.5899
ింహ	-9.59023
▁గ్గ	-9.59025
ెంట	-9.59049
భాగ	-9.59058
▁లింగ	-9.5907
మారు	-9.59156
▁్మీ	-9.59211
▁శంకర్	-9.5924
▁ొక	-9.59389
▁వస	-9.59462
దిల	-9.59488
▁రచ	-9.59527
▁శాంతి	-9.59547
▁చేప	-9.59554
▁యాక్	-9.59608
▁ెల్ల	-9.59736
▁ాదన	-9.59739
▁అప్	-9.59761
▁ింప	-9.59793
▁ార్డు	-9.59813
▁ఆవ	-9.599
▁లియన్	-9.59909
▁ుకొ	-9.6007
▁వార్త	-9.60109
▁నస	-9.60241
▁రింగ్	-9.60255
▁్రో	-9.60347
▁ొడుకు	-9.6049
▁టెడ్	-9.6049
▁ోర్స్	-9.60563
▁న్ల	-9.60772
▁ేల్	-9.60927
పోయ	-9.60995
▁షేర్	-9.61219
▁ిస్ట్	-9.61228
▁టరీ	-9.61237
▁ేత	-9.61358
▁ించడం	-9.6136
▁లోక	-9.61523
▁ళా	-9.61575
▁అద	-9.61577
▁యంత్	-9.61649
▁్ధ	-9.61663
▁ెయిన్	-9.61726
టూ	-9.61748
▁లిగ	-9.61758
▁ేటీ	-9.61765
▁19	-9.61768
▁ాద్	-9.61777
▁ష్యా	-9.61837
▁ఘన	-9.61892
▁ఫిక్	-9.61933
▁ౌర	-9.61975
▁యన్	-9.62159
م	-9.62193
▁ాళీ	-9.62298
▁ాకు	-9.62312
▁ీలు	-9.62346
▁సెల్	-9.62435
▁ొట్ట	-9.6246
▁నెట్	-9.6248
▁ల్క	-9.62582
▁ుగు	-9.62592
▁ుంటూ	-9.62642
▁ీక్	-9.62833
డిగ	-9.6285
ాలుగ	-9.62924
▁ఫై	-9.62965
▁రిలో	-9.63124
ిద్ద	-9.63188
▁ర్యా	-9.63244
▁రేట	-9.63332
▁ఈవ	-9.63536
▁ోలీస	-9.63631
▁హ్	-9.63725
▁ମ	-9.63866
▁ఖర	-9.6387
▁ఊర	-9.63914
▁పిల్	-9.6392
▁ఫర	-9.63954
▁ూలు	-9.64183
క్త	-9.64249
▁ాగా	-9.64314
▁ప్ల	-9.64314
▁మున	-9.64387
▁మౌ	-9.64404
▁దన	-9.64451
▁నాల	-9.64458
▁కాద	-9.64497
▁ఆహ	-9.64612
▁కృష	-9.647
▁దీప	-9.64736
▁బై	-9.64831
▁్టే	-9.65018
▁్సరం	-9.65124
ృద్ధ	-9.65127
▁గె	-9.65165
▁డాల	-9.65291
▁రవి	-9.65415
▁్వాన	-9.65481
▁వెన	-9.65498
▁ాయం	-9.65504
▁ెంగ	-9.65641
▁ియ	-9.66053
▁కార	-9.66153
▁కలిస	-9.66162
▁నిత	-9.66168
▁కింగ్	-9.66177
▁ంగ్లా	-9.66187
▁ంబ	-9.6619
▁నుమ	-9.6623
▁ైర	-9.6628
س	-9.66323
▁ాత	-9.66369
▁బ్రా	-9.66381
▁డాక	-9.66386
▁న్నిక	-9.66448
▁వృ	-9.66523
▁మిట	-9.66804
▁ుగ	-9.66814
▁క్ష్	-9.66846
▁ుకో	-9.66887
▁ెర్	-9.66942
▁దేవి	-9.67046
▁ుట్	-9.67137
▁ీపీ	-9.67143
▁S	-9.67242
్సిట	-9.67263
▁ంట్స్	-9.67366
▁చీ	-9.67397
▁మర్	-9.67445
▁ేమ్	-9.67611
▁కోస	-9.67635
▁م	-9.677
▁ఫైనల్	-9.67852
▁టాని	-9.6786
▁మారు	-9.67905
▁ేబ	-9.67939
ామిన	-9.6796
▁రన్	-9.67969
▁ాము	-9.68002
▁..	-9.68079
▁షో	-9.68122
▁ీటు	-9.68199
▁ిడ	-9.68273
▁జు	-9.68393
▁హన	-9.68462
▁డ్రా	-9.68493
▁ఎగ	-9.68506
▁ియో	-9.68511
▁ఇం	-9.68618
▁ిగ్	-9.68812
▁్యార	-9.68816
▁ః	-9.68825
▁ాటా	-9.68854
▁రుత	-9.68922
▁డ్డు	-9.6893
▁ంగుల	-9.68966
▁్మి	-9.6912
▁ందా	-9.69194
▁రజ	-9.69282
▁ిపి	-9.69348
▁ియన్	-9.69371
రే	-9.69434
▁రమ	-9.69489
▁ପ	-9.69624
▁ాస్త	-9.6998
▁లిక్	-9.70097
▁కులు	-9.70169
▁ఆక	-9.70336
▁వ్	-9.70432
▁ూబ	-9.70596
▁తోనే	-9.70942
▁ోద	-9.70949
▁శ్వ	-9.70969
▁్రీవ	-9.70972
▁ండా	-9.71004
▁ిజి	-9.71021
▁దుర	-9.71103
▁బాద్	-9.71112
▁వర్ష	-9.71233
నుమత	-9.71458
▁ేని	-9.71494
▁్తవ	-9.71522
▁టమి	-9.71658
▁నక	-9.71665
▁దాయం	-9.71722
▁మెర	-9.71746
n	-9.71751
▁సొ	-9.71846
▁్రెస్	-9.71887
▁హరి	-9.71937
▁టూ	-9.7197
▁40	-9.72034
▁ివ్	-9.72042
▁ీకరణ	-9.72136
▁హబ	-9.72257
▁లాగ	-9.72264
▁ెస్టు	-9.72297
▁రగ	-9.72403
▁రంగం	-9.72608
▁్రహ	-9.72621
▁ాటిన	-9.72639
▁టమ	-9.72664
▁గంట	-9.72894
▁్రిక్	-9.72941
▁ోటి	-9.72973
▁ేర	-9.73081
▁ుబ	-9.73182
▁మాస్	-9.73259
▁ోవడం	-9.73302
▁డింది	-9.7341
▁100	-9.73425
▁ోట	-9.73594
▁యాద	-9.73652
▁ార్థి	-9.7373
▁ద్దీ	-9.73754
▁పంట	-9.74055
▁సేన	-9.74111
▁ింత	-9.74154
▁తిక	-9.74331
▁వంట	-9.74474
▁ండియా	-9.74518
ن	-9.74595
▁్లోకి	-9.74641
▁ోయి	-9.74759
▁జో	-9.74814
▁దివ	-9.74876
▁ేల	-9.74879
▁ట్వ	-9.74887
▁ర్క్	-9.75007
▁ార్ల	-9.75131
▁ోచ	-9.75159
▁ఘా	-9.75172
▁ండర్	-9.75312
▁థన	-9.75396
▁వెన్	-9.75398
▁సీబీ	-9.75517
▁ూరి	-9.7555
▁ేటు	-9.75704
▁ేవా	-9.75865
▁మండ	-9.75949
▁తీయ	-9.75997
ోర్ట	-9.76084
▁21	-9.76085
▁ీటర్	-9.7611
▁క్షే	-9.7629
▁ాని	-9.76388
▁ణు	-9.7653
▁ాఖ	-9.76612
▁స్త్	-9.76618
▁ారీ	-9.76699
▁కాలు	-9.76824
▁నుమతి	-9.76842
▁సమయ	-9.76956
▁ుడే	-9.77096
▁ిడి	-9.77194
▁పాల్	-9.77482
▁మూ	-9.77498
డా	-9.77597
▁ిరి	-9.77609
▁్రె	-9.77619
▁ఆలోచ	-9.7779
▁్రికి	-9.77799
▁్సు	-9.77839
▁ద్ర	-9.77843
▁రళ	-9.77891
▁ర్ప	-9.77975
▁ూర్	-9.78125
ోద	-9.78154
▁దుక	-9.78228
▁ెప	-9.78341
▁షల్	-9.78372
▁ోనా	-9.784
▁టీడీ	-9.7862
A	-9.78645
▁టన్	-9.7873
▁ీకే	-9.7881
రంగ	-9.78813
▁ీవీ	-9.78897
▁షనల్	-9.78899
▁ఇవి	-9.79017
▁జె	-9.79062
▁వేత	-9.79081
లన	-9.79114
▁ుప్ప	-9.79155
▁ాల్ప	-9.7927
▁త్రా	-9.79394
▁దో	-9.79432
▁ాలిక	-9.79473
▁ితి	-9.79484
▁ందు	-9.79574
▁ఎక్క	-9.79609
▁నీట	-9.79617
▁పడి	-9.79625
▁ాణాల	-9.79824
్థాన	-9.79999
▁యాప్	-9.80039
▁హణ	-9.80086
▁యిన	-9.80121
▁ెప్ప	-9.80199
▁నిక	-9.802
▁వెళ	-9.80279
▁ధ్య	-9.80421
▁రణం	-9.80427
▁ేగ	-9.80453
▁సోమ	-9.80504
▁కోల్	-9.80654
▁మ్మి	-9.80713
▁ఆప	-9.80738
థ	-9.80761
▁ర్ట్	-9.80888
▁దృ	-9.80891
▁ోల	-9.80918
▁చర	-9.81135
▁ాళ	-9.81791
▁ఎడ	-9.81818
▁్ష	-9.81902
ాంత	-9.81929
p	-9.81942
▁اس	-9.81968
▁ంటలు	-9.8198
▁ేజ	-9.81991
▁ాధ్య	-9.82037
▁యూట్	-9.82065
▁యాం	-9.82113
▁ెక్ట్	-9.82206
▁ాగ్	-9.82238
ೊ	-9.82349
▁ాంక	-9.82368
ೀ	-9.82789
▁డ్ల	-9.82792
▁ల్వ	-9.82837
▁ا	-9.82907
▁ూడెం	-9.83084
▁కల్	-9.8326
▁కాయ	-9.83379
▁నిమ	-9.83389
▁ଲ	-9.83435
▁రగత	-9.83446
▁ోల్	-9.83448
▁స్టీ	-9.83551
▁చల్	-9.83645
▁నాట	-9.8372
▁లవు	-9.83806
▁సత్	-9.83849
▁ల్డ	-9.83867
▁కంట	-9.83908
▁ేదన	-9.83927
▁్లై	-9.83939
▁ుందా	-9.83955
▁ాగు	-9.84027
h	-9.84073
▁సత్య	-9.84098
▁ూట్	-9.84189
▁అడుగు	-9.84226
▁చర్	-9.84234
▁వల్	-9.84236
▁ాసం	-9.84276
▁సిక	-9.84324
▁28	-9.84389
▁ాజి	-9.84522
▁ఇండి	-9.84539
▁మీర్	-9.84589
డి	-9.8474
▁కాదన	-9.84821
▁్రెస	-9.84898
▁గుల	-9.85099
▁నొ	-9.85118
▁ాగర్	-9.85175
▁గల్	-9.85346
▁సెక	-9.85396
▁పెడ	-9.85529
▁అడ్డ	-9.85747
▁ిమానా	-9.85799
▁లమ	-9.85813
▁చెక్	-9.8598
▁్యాక్	-9.85999
▁ిద్ద	-9.86104
m	-9.86126
▁ంటీ	-9.86211
▁పీఎస్	-9.86228
గొ	-9.86299
▁్లిం	-9.86334
▁ామన్	-9.86522
▁దేశం	-9.8653
▁పుల్	-9.86693
▁కార్	-9.86796
రా	-9.8692
O	-9.86947
▁డల్	-9.87226
▁క్స	-9.87232
▁کو	-9.87599
▁వెంట	-9.87623
▁ేటా	-9.8771
▁ెలి	-9.87725
ధిక	-9.87733
▁ల్గ	-9.87858
▁ేడ	-9.88033
▁ప్పి	-9.88066
▁నగ	-9.88173
▁లక్	-9.88457
ాజా	-9.88627
ک	-9.88876
▁ాశ్	-9.88964
▁ుద్ర	-9.89042
▁గూ	-9.89161
▁నిమి	-9.89313
▁డెంట్	-9.89345
▁ాజ్	-9.89443
▁స్పీ	-9.8951
▁యంత	-9.89529
▁ంటార	-9.89541
▁ికులు	-9.89545
▁వరం	-9.89617
▁ిద్ధం	-9.89796
▁్సెస్	-9.89826
▁టిక్	-9.89889
r	-9.89931
▁ాఖ్య	-9.89997
▁జనం	-9.90001
▁ఔ	-9.90103
▁C	-9.90133
▁లుప	-9.90229
▁ుణ్	-9.90282
ూర	-9.90329
▁నారా	-9.90332
▁ీరు	-9.90348
▁తరు	-9.90373
▁ెండ్	-9.90417
▁్వు	-9.90449
▁ూన్	-9.90618
▁ీవో	-9.90726
ర్యట	-9.90797
▁र	-9.90819
▁తుల	-9.90866
▁ಜ	-9.90899
▁ెండ	-9.90983
▁ాథ	-9.9101
▁ోసం	-9.91035
▁చోట	-9.91187
త్త	-9.91233
కెట్	-9.91271
▁్పుల	-9.9139
టార్	-9.91409
▁్యాయ	-9.91426
▁27	-9.91629
▁ట్టా	-9.91635
▁తారు	-9.91673
▁ణి	-9.91728
▁B	-9.91791
▁ియం	-9.91851
▁వాట	-9.91853
▁యాన్	-9.91992
లై	-9.92139
▁ుదల	-9.92161
▁సభల	-9.92185
▁హక్క	-9.92276
▁پر	-9.92407
▁య్యి	-9.92472
▁ెట్రో	-9.92509
నీ	-9.9252
▁స్క్	-9.92562
▁ిక్స	-9.92606
▁్యాన్	-9.92657
▁۔	-9.92688
▁ఎలక	-9.92694
చేస	-9.92954
▁T	-9.93081
▁పోట	-9.93214
▁పేర	-9.93333
▁మించ	-9.93388
▁ాలా	-9.93417
▁ంజ్	-9.93501
▁మామ	-9.93588
5	-9.93597
▁రికా	-9.93849
▁ికుల	-9.93877
▁లుగ	-9.93892
▁ఆగ	-9.9392
▁గ్గు	-9.93964
ై	-9.94041
▁ెక్స	-9.94063
▁యక్	-9.94118
▁నట	-9.94206
▁క్త	-9.94255
▁బిల్	-9.9426
د	-9.94293
▁ిస్ట	-9.9437
▁ହ	-9.94481
▁ీజ	-9.94552
I	-9.94571
▁ండ్ర	-9.94657
▁ైస	-9.94701
ఖ	-9.94755
చాయ	-9.9494
▁నార్	-9.94994
▁మంత	-9.95008
▁ుతారు	-9.95299
▁ాయప	-9.95336
▁26	-9.95343
▁ఉండటం	-9.95487
▁వసర	-9.95548
▁ణం	-9.95651
▁క్కి	-9.95734
టిస్	-9.9581
▁ిజ	-9.95841
▁ందర్	-9.95867
▁సర్వ	-9.95987
▁ఫార	-9.9599
▁లుసు	-9.96139
▁గ్స్	-9.96348
▁కాస	-9.96362
▁کا	-9.96431
▁కడ	-9.96756
▁యాలు	-9.96763
▁23	-9.96871
▁س	-9.971
▁ర్యాల	-9.97132
ಚ	-9.97145
▁ికా	-9.97464
▁ుస	-9.97467
▁పంచ	-9.9754
▁ాభా	-9.97548
▁్యాప్	-9.97726
▁మ్యా	-9.97941
▁రిటీ	-9.97946
▁త్రిక	-9.9799
▁యే	-9.9805
▁త్తా	-9.98052
▁ైట	-9.98075
▁ైళ్	-9.98152
▁రస్	-9.98331
▁ంగు	-9.9837
▁్రూ	-9.98459
▁ాంగ	-9.98477
ిఫ	-9.98492
▁ైడ	-9.98747
و	-9.9888
▁మ్స్	-9.98894
▁నెట	-9.98896
▁మిన	-9.98979
▁పెన్	-9.99185
▁రహా	-9.99187
▁బడి	-9.99189
▁ాటర్	-9.99207
▁మేర	-9.99278
▁ోబ	-9.99297
▁ిరిగ	-9.99388
▁డెన్	-9.99463
▁బాగ	-9.99589
)	-9.99704
▁ూల్	-9.99964
▁ిమ	-10.0002
▁పిల	-10.0003
ోహ	-10.0017
▁⁭	-10.0042
▁ୟ	-10.0043
▁జయ	-10.0052
▁ండగ	-10.0059
▁29	-10.0086
▁ేరే	-10.0088
▁అందు	-10.0097
▁ుధ	-10.0111
▁ువా	-10.0112
ష్కర	-10.0118
▁డై	-10.0143
▁రాన్	-10.0143
▁వేర	-10.0151
హార	-10.0154
R	-10.0154
▁ిల్స్	-10.0164
▁ిట	-10.0174
▁ీజ్	-10.0176
▁కాల్	-10.0187
▁ెండి	-10.0193
c	-10.0197
▁ిస్టు	-10.0209
▁విత	-10.0211
▁తార	-10.0211
▁రిస	-10.0222
▁డత	-10.0223
▁ీశ	-10.0238
▁సాయ	-10.0245
▁పాక్	-10.025
▁ట్లే	-10.0259
▁ోడు	-10.0265
▁ొమ్మ	-10.0272
▁क	-10.0274
▁నాని	-10.0298
▁రఫ	-10.0303
▁ాజీ	-10.0305
▁ిమ్	-10.0307
▁తెర	-10.0323
▁టాక్	-10.035
▁ికల	-10.0355
ୋ	-10.0363
▁గాలి	-10.0371
▁దూర	-10.0374
▁ళ్లు	-10.0383
▁బంధు	-10.0406
▁ట్రీ	-10.0408
▁రం	-10.0414
▁కొన	-10.0418
▁రీస	-10.043
▁లూ	-10.0431
▁ోప	-10.0434
▁సిడ	-10.047
▁a	-10.0502
▁ింద్	-10.0506
▁విజ	-10.0508
రభావ	-10.0518
▁క్స్	-10.0541
▁సామా	-10.0559
▁ెక్	-10.0575
ర్ణ	-10.0578
▁ర్తీ	-10.0581
▁ఇద	-10.0589
▁ాత్ర	-10.0595
▁తలు	-10.0601
▁రాబ	-10.0604
▁ెటర్	-10.0619
▁రెడ్	-10.0625
▁యల్	-10.0629
▁ర్జీ	-10.063
▁తాయి	-10.0635
▁ర్స	-10.0641
శించ	-10.0646
▁ాణాలు	-10.0649
▁ిల్లీ	-10.0653
▁ుర్	-10.0657
▁న్నది	-10.0699
▁్లె	-10.0719
▁ిచ	-10.0723
▁దార	-10.0725
▁్తీ	-10.0727
▁సూర	-10.0733
▁భయ	-10.0746
▁ీనా	-10.0767
▁ଦ	-10.0771
▁అడ్	-10.0772
▁వేగ	-10.0776
▁ొంద	-10.0787
▁్యుల	-10.0787
▁31	-10.0802
▁షి	-10.0827
▁ంటల	-10.0838
▁ేవు	-10.0841
▁గుండ	-10.0848
▁జమ	-10.0848
▁ీవ్	-10.0849
ొడ	-10.0869
▁గీత	-10.0885
▁స్కూ	-10.0896
▁ట్టడ	-10.0903
▁ర్భ	-10.0908
▁జస	-10.0913
▁మీర	-10.0913
▁60	-10.0925
▁లువ	-10.0933
▁అప	-10.0944
▁గిల	-10.0957
▁నిస	-10.0968
▁జిల	-10.097
సక్త	-10.0984
▁نے	-10.0988
▁నది	-10.1022
శీల	-10.1026
ب	-10.106
▁ధు	-10.1067
▁ాన్య	-10.1071
▁స్తా	-10.1072
▁ద్వ	-10.1097
▁ీష	-10.1132
▁చార	-10.1137
▁ోస్	-10.117
▁రోసా	-10.1174
▁ల్లే	-10.1177
وں	-10.1186
▁అల్	-10.1193
▁ేవార	-10.1196
▁ఆద	-10.1198
▁ట్నం	-10.1214
▁నాథ	-10.1225
▁ులా	-10.1244
▁వేద	-10.1271
▁ఛా	-10.1274
▁ేడ్	-10.128
▁ఆర్ట	-10.13
▁ుబాటు	-10.1316
▁యట	-10.1327
▁ఏసీ	-10.1332
డింగ	-10.1347
▁N	-10.1362
▁దూ	-10.1364
▁్ధి	-10.14
▁ాకర్	-10.1411
ೂ	-10.1411
▁ీఏ	-10.1412
▁్లోనే	-10.1443
▁లాల్	-10.1447
▁రిస్	-10.1466
▁ఫీసర్	-10.1472
▁స్టే	-10.1476
▁తడి	-10.1481
▁ానిక	-10.1486
▁గిత	-10.1496
▁ంబర	-10.1534
▁కౌ	-10.1536
▁సంస్	-10.1541
▁ోయారు	-10.1553
▁టివ్	-10.1553
▁ిగారు	-10.1557
▁రాక	-10.1563
▁ధార	-10.157
▁ేరి	-10.1574
▁తద	-10.1589
▁ଇ	-10.16
▁కాక	-10.1609
▁టెం	-10.1621
▁ಅ	-10.1635
▁క్షం	-10.1646
▁ಶ	-10.1676
▁కన్	-10.1677
▁ియర్	-10.1682
▁రారు	-10.1689
▁్బ	-10.1694
▁سے	-10.17
▁త్తం	-10.1703
హించ	-10.1729
▁ోగ్	-10.1738
▁గజ	-10.1739
▁శ్	-10.1739
▁శు	-10.1743
▁ాష	-10.1744
▁ావు	-10.1749
▁ితీ	-10.1758
రాల	-10.176
▁न	-10.1761
:	-10.1766
▁శాల	-10.1771
▁ాష్	-10.1778
▁స్థా	-10.1792
▁దరి	-10.1801
▁ర్తి	-10.1806
▁ిచ్	-10.1808
▁వంతం	-10.1819
▁#	-10.1822
▁ేణ	-10.1823
▁మంద	-10.1825
d	-10.1828
▁ెయి	-10.1836
▁ଟ	-10.1848
▁డిపి	-10.1863
▁డింగ్	-10.1864
▁ోక్	-10.1875
▁ోర్స	-10.1887
▁డో	-10.1893
▁ాడి	-10.1895
C	-10.1896
▁కట్	-10.1915
▁కెట్	-10.1931
▁ీతం	-10.1934
▁ఇస	-10.1945
▁అనంత	-10.1955
▁చు	-10.1955
▁ీఎం	-10.1959
▁ాలె	-10.1964
▁నటి	-10.1996
▁ాకర	-10.2
▁ిత్ర	-10.201
ଣ	-10.2012
▁్రేక్	-10.2016
▁హారం	-10.2043
▁ాపు	-10.2059
▁ర్డ్	-10.2065
▁కరం	-10.2115
▁మాన్	-10.2127
▁ెన్న	-10.2138
▁D	-10.2153
▁యిల్	-10.2157
▁ాన్స	-10.2158
పక్ష	-10.2173
▁ార్క్	-10.2173
▁I	-10.2183
▁ాలయం	-10.2192
▁ివి	-10.2195
▁గ్రీ	-10.2201
▁వెల	-10.2208
▁K	-10.2218
▁ీవ	-10.2218
▁యోగం	-10.2228
ిశ	-10.2254
▁ాయు	-10.2268
▁్వే	-10.2287
ೈ	-10.2293
▁ావా	-10.2299
▁పౌ	-10.2314
▁ిక్ష	-10.2327
▁నియర్	-10.2338
▁్యూట	-10.2341
▁ితుల	-10.2341
▁యింది	-10.2343
▁అమల	-10.235
▁ాడ్	-10.2351
▁ోహ	-10.2361
▁స్స	-10.2377
▁ైకి	-10.239
▁్వి	-10.2392
▁ب	-10.2402
▁లియా	-10.2405
▁ొడ	-10.2415
▁ಆ	-10.2426
▁షు	-10.2433
▁ైద	-10.2438
▁ాబ	-10.2444
▁నిల్	-10.2448
▁i	-10.2449
▁ంచు	-10.2464
▁ిస్	-10.2469
्	-10.247
▁ముల	-10.2498
▁ానా	-10.2514
▁అడి	-10.2529
▁ితం	-10.2532
▁లెట్	-10.2534
▁రిత	-10.2535
▁ూన	-10.2571
▁వాడు	-10.2572
▁న్యం	-10.258
▁ی	-10.2592
▁మెట	-10.2604
▁నాలు	-10.2624
▁ಷ	-10.2628
భ	-10.2628
▁ిరా	-10.2632
▁ాంత	-10.2633
▁్రే	-10.2636
ٹ	-10.2637
▁తుక	-10.2676
P	-10.268
▁ట్స్	-10.2692
▁ీప్	-10.2693
▁పోవ	-10.2704
▁ైంద	-10.2723
▁సద	-10.2786
▁M	-10.2788
▁రై	-10.2822
▁ొమ	-10.2829
▁ంక్	-10.2835
▁ہے	-10.2859
▁کہ	-10.286
▁ంత్	-10.2864
▁న్నం	-10.2868
▁ైవ	-10.2885
▁పట్	-10.2889
▁జడ	-10.289
▁ెట్టి	-10.2926
▁ైం	-10.2929
▁ిర్	-10.2948
▁ాభ	-10.2972
▁పట్టు	-10.2992
▁وی	-10.2994
▁।	-10.3
ుంద	-10.3036
▁ైక	-10.3054
ि	-10.3069
▁ోస	-10.307
ాలంట	-10.3077
▁్తి	-10.3108
،	-10.3117
ందు	-10.3122
▁చివ	-10.3122
▁జార్	-10.3135
▁ావి	-10.3146
▁నాన్	-10.3169
▁ಎ	-10.3187
▁ులుగ	-10.3192
▁ేన	-10.32
▁తృ	-10.3217
S	-10.3225
్రెస	-10.3252
▁ార్డ్	-10.3252
▁పం	-10.3258
▁ଥ	-10.3263
▁్ద	-10.3267
چ	-10.3285
▁ంతక	-10.3291
▁s	-10.3292
▁యాల	-10.3313
M	-10.3324
▁ెలిచి	-10.3334
▁ీసీసీ	-10.3335
▁నెల్	-10.3338
ఈ	-10.3347
▁ెళ్	-10.3356
▁వ్యూ	-10.3364
▁గంగ	-10.3364
ుపు	-10.3371
▁లింగ్	-10.3376
పాల	-10.3376
▁లంగా	-10.3385
▁ుమతి	-10.3419
దాయ	-10.3423
▁నామ	-10.3425
ع	-10.3426
▁స్మా	-10.3428
ಣ	-10.3431
▁ృతి	-10.347
▁ిండి	-10.348
▁اور	-10.3481
▁డార	-10.349
పెన	-10.3496
▁లాండ్	-10.3505
▁ీకర	-10.3508
సాద	-10.3528
▁్లి	-10.3532
▁ేణు	-10.3534
▁ఫా	-10.3551
▁మరీ	-10.3555
▁రిల	-10.3556
▁సిం	-10.356
▁దుప	-10.3566
▁ంటర	-10.3568
▁శారు	-10.3569
్రూప	-10.3575
దీ	-10.3577
▁భాస	-10.3588
▁దుబ	-10.3602
▁్ట్	-10.3611
▁ోళ	-10.3624
▁న్యా	-10.3626
▁గన్	-10.3628
▁ూప	-10.3637
▁్టీ	-10.3656
▁ోలే	-10.3658
టీ	-10.3662
▁ందం	-10.3664
▁రాహ	-10.3669
▁ేవి	-10.3671
▁े	-10.3673
▁ోగు	-10.3684
▁పాడ	-10.3686
▁వాహ	-10.3706
▁హర్	-10.3709
▁ెల్లి	-10.3712
▁కప్ప	-10.3713
▁ారే	-10.3716
▁ాదం	-10.3719
▁ہے۔	-10.3731
▁లాగే	-10.3734
▁కాశ	-10.3754
ಧ	-10.3756
ింప	-10.3767
▁అబ	-10.3779
▁ଛ	-10.3783
▁కలక	-10.3806
▁ఫ్ట	-10.3815
ార్ట	-10.3819
T	-10.3829
▁L	-10.3831
ాఠ	-10.3856
▁లాల	-10.3876
▁ఆధ	-10.3896
▁నమ	-10.3936
ాచార	-10.3938
▁ଭ	-10.3967
▁క్కా	-10.3969
▁ోపి	-10.397
▁ంతి	-10.3975
▁کیا	-10.3992
▁శాత	-10.4001
▁గౌ	-10.4003
▁ఓట	-10.4013
▁ౌడ	-10.4028
▁ణాలు	-10.4036
▁ింగ	-10.4039
ర్చ	-10.4041
▁చంద	-10.4042
▁నేప	-10.4052
గ్గ	-10.4059
విష	-10.4068
▁వాన	-10.4075
▁షీ	-10.4083
▁మాండ్	-10.4085
▁ిచి	-10.4085
▁ش	-10.4086
▁డ్డా	-10.4118
▁ఉమ	-10.4119
▁ణన	-10.4132
▁ఫి	-10.4138
▁ెలుసు	-10.4139
ش	-10.4143
▁పాలు	-10.4156
సిన	-10.4159
▁వాన్	-10.4161
▁ان	-10.4166
▁చేయడ	-10.4172
మాండ	-10.4177
▁70	-10.418
▁ద్వా	-10.4182
▁H	-10.419
▁థా	-10.4206
▁ూడి	-10.4216
▁సిస్	-10.4217
▁ుభ	-10.4219
▁కుంటే	-10.4227
▁రుద	-10.4227
▁మావ	-10.4234
ز	-10.4236
▁మూర	-10.4239
▁ోని	-10.426
▁త్రం	-10.4277
▁క్య	-10.4278
▁ت	-10.4279
▁ଡ	-10.428
▁విల	-10.4284
▁ూడ	-10.4289
జీ	-10.4291
▁సంక	-10.4301
▁ోం	-10.4301
ిరిగ	-10.4301
యత్	-10.4313
కపో	-10.4338
▁ండీ	-10.4349
▁జార	-10.435
▁షన్స్	-10.4352
▁ట్టే	-10.4356
▁na	-10.4379
▁ెట్టు	-10.438
▁ుబడి	-10.4384
▁డగ	-10.4392
▁రత్	-10.4411
▁డిక	-10.4416
▁ణాల	-10.4416
▁ేఖ	-10.4419
▁ర్క	-10.4426
▁ప్రచ	-10.4453
▁ాలక	-10.4462
▁నుంద	-10.4471
▁ండు	-10.4473
▁దర్	-10.4486
▁బీఐ	-10.4496
▁మార్క	-10.4518
▁కాం	-10.4526
▁ర్శ	-10.4534
▁ెట	-10.4535
▁ాచార	-10.4569
▁ీచ	-10.4574
▁డియో	-10.459
▁G	-10.4597
ھ	-10.4599
▁రుమ	-10.4604
▁ీఎస్	-10.4607
▁ଜ	-10.4608
▁;	-10.4633
▁ౌండ	-10.4642
▁P	-10.4668
▁ెక్స్	-10.4672
▁ాళ్ల	-10.4679
▁దె	-10.4683
ق	-10.4684
D	-10.4723
AD	-10.4738
▁మాద	-10.4738
▁లయ	-10.4741
▁టిస్	-10.4748
సా	-10.4753
▁ీళ్ల	-10.4765
▁యోగా	-10.4781
▁దన్	-10.4785
▁వాళ	-10.48
▁దార్	-10.4805
▁ఆట	-10.4809
▁ష్టం	-10.4821
▁దన్న	-10.4849
▁ేపట	-10.485
▁ایک	-10.4857
▁రప	-10.4861
▁ెంబర	-10.488
▁హోం	-10.4885
▁మన్న	-10.4885
▁రువ	-10.4886
▁80	-10.4887
▁వీడ	-10.4893
▁బాద	-10.4912
▁బంధం	-10.4916
▁్లూ	-10.4954
▁టీటీ	-10.4955
▁దిరి	-10.4957
గుత	-10.4957
▁కుం	-10.4993
▁ికారు	-10.4996
▁్మా	-10.5002
▁ر	-10.5004
▁ీరా	-10.5024
మెంట	-10.5042
▁సిర	-10.5053
▁ంపు	-10.5091
▁పుత	-10.5092
▁ోగా	-10.5102
▁ంట్ల	-10.511
డుల	-10.5122
20	-10.5123
▁శ్వర	-10.5124
▁రాయి	-10.514
▁ిలియ	-10.5151
▁యింట	-10.5165
▁ిలా	-10.5176
ిక్	-10.5181
▁ేలు	-10.5182
▁శీ	-10.5207
▁డమ	-10.5242
▁ంజా	-10.5243
▁ఎద	-10.5246
▁ాశాల	-10.5285
▁రిపో	-10.529
▁ఈసీ	-10.5296
▁45	-10.5308
▁్జా	-10.5328
er	-10.5347
▁లిట	-10.5352
▁రోల్	-10.5358
▁రార	-10.5358
ిష్	-10.5358
▁ముంబ	-10.5376
▁ికార	-10.5411
▁500	-10.5413
▁ెచ్చ	-10.5425
▁ైప	-10.5427
▁ెలుస	-10.5449
▁మాయ	-10.5449
▁గతి	-10.5452
▁శ్వా	-10.5478
▁ిటి	-10.5481
ڈیو	-10.5488
▁R	-10.5505
▁కోవ	-10.5509
یا	-10.5511
▁నిన	-10.5517
▁చర్ల	-10.5525
▁తూ	-10.5537
▁గిర	-10.5563
▁ిశ్ర	-10.5563
ర్క	-10.5569
ేణ	-10.5576
▁in	-10.5578
▁టాన్	-10.558
▁స్సా	-10.5583
▁మాస	-10.5589
▁ోవా	-10.5616
▁ారీగా	-10.5617
▁त	-10.5623
నూ	-10.5625
▁మంట	-10.5634
ra	-10.5671
▁ఆఫ	-10.5673
▁థి	-10.5676
▁కటి	-10.5683
▁డుప	-10.5697
▁హు	-10.5702
▁ిరు	-10.5703
కార	-10.5706
▁ోట్ల	-10.5709
▁ామం	-10.5728
▁్యాలు	-10.5741
▁రుస	-10.5744
▁स	-10.575
▁జన్	-10.5761
▁్బం	-10.5762
నిపో	-10.5765
▁త్న	-10.5772
ं	-10.5777
▁ులి	-10.578
▁న్ష	-10.5806
▁ଯ	-10.5809
▁రణి	-10.5822
▁లిత	-10.5833
▁RE	-10.5844
▁ిమా	-10.5845
▁పబ	-10.5864
▁ఝ	-10.5871
▁କର	-10.5871
▁ल	-10.5874
▁ాత్	-10.5892
E	-10.5898
▁ీప	-10.591
▁యిర	-10.5913
▁మైంద	-10.5915
▁90	-10.592
▁అక్క	-10.5946
▁యె	-10.5954
▁ంగి	-10.5957
▁ావర	-10.5968
ائ	-10.597
▁అడుగ	-10.5975
▁కప్పు	-10.5984
▁ికలు	-10.5985
▁ಇ	-10.5997
▁ଆ	-10.5999
▁ra	-10.6012
▁రాణ	-10.6028
▁ಲ್	-10.6036
▁ALS	-10.6061
▁ంకర్	-10.6076
▁కాప	-10.6077
▁35	-10.6079
▁్జ	-10.6083
▁లిస	-10.6094
▁ఏట	-10.6098
▁د	-10.6098
▁ిజం	-10.6105
▁్లే	-10.6112
▁నరు	-10.6112
▁ైమ	-10.6125
▁డల	-10.6129
▁అన్	-10.6143
F	-10.6155
▁k	-10.6164
▁యింద	-10.6181
▁వ్యా	-10.6189
▁ଏ	-10.6192
▁టైం	-10.622
గిప	-10.6224
▁گیا	-10.6224
▁ౌక	-10.6249
▁అయి	-10.6274
▁گ	-10.6274
▁ଉ	-10.629
▁తక్క	-10.6294
▁వడం	-10.6299
4	-10.6305
▁విస	-10.6312
ెన్స	-10.6313
▁నీర	-10.6315
▁యిస్	-10.6315
▁రిమ	-10.6353
▁ల్యా	-10.6355
▁పత్తి	-10.6357
▁ी	-10.6359
▁ిలిచ	-10.6361
▁బండ	-10.6362
పుత	-10.6368
▁త్రు	-10.6388
▁""	-10.6397
▁దయ	-10.64
▁sh	-10.641
▁ిసి	-10.6431
▁یہ	-10.6487
▁ుమత	-10.6507
▁ఎన	-10.6519
▁భక్త	-10.6534
▁వత్	-10.6538
▁ందరి	-10.6538
▁పత్ర	-10.6542
▁జిల్	-10.6553
▁జైల	-10.6554
▁కుడు	-10.6562
b	-10.6585
▁ర్వా	-10.6587
▁ీద	-10.6592
▁ుంచ	-10.6599
▁పోస	-10.6628
6	-10.663
▁మాల్	-10.6661
▁ాబా	-10.6668
▁నుండ	-10.667
B	-10.6671
▁నాన్న	-10.6685
▁పిం	-10.6727
▁प	-10.6758
ఘ	-10.6759
ج	-10.677
ो	-10.6791
▁ଗ	-10.6794
▁మణ	-10.6806
▁మాం	-10.6808
▁ర్టీ	-10.682
▁ాళ్లు	-10.6822
▁ట్టం	-10.6825
▁మర్శ	-10.6829
▁e	-10.6831
▁ంద్	-10.6833
న్నీ	-10.6836
▁రద	-10.684
▁మస్	-10.6848
▁సీస	-10.6857
▁ెడు	-10.6857
3	-10.6869
▁ీఫ్	-10.6896
షణ	-10.6899
▁కరు	-10.692
▁ಭ	-10.693
▁ఖాన	-10.6951
బట్ట	-10.6984
▁ీదు	-10.6992
▁E	-10.7
▁an	-10.7012
▁్గుర	-10.7013
▁మిస్	-10.7014
▁ج	-10.7036
▁ుతాయ	-10.7037
▁శో	-10.7064
▁లాస	-10.7077
▁డ్య	-10.709
ోర్డ	-10.7093
▁ికే	-10.7113
▁బ్బు	-10.712
k	-10.7121
▁రుడు	-10.7126
▁य	-10.7143
▁ంటిక	-10.7145
▁ఎమ	-10.7159
▁బాట	-10.7174
▁జగ	-10.7186
▁ుతో	-10.721
▁ہیں	-10.7213
▁వేర్	-10.7219
▁వితం	-10.7226
▁పార్	-10.7226
sh	-10.7249
▁అగ్	-10.725
▁మాని	-10.7252
▁మీట	-10.7258
▁్ది	-10.7258
g	-10.7266
▁హస	-10.7276
▁ిపోయి	-10.7284
▁రష్	-10.7288
▁అడ	-10.729
▁న్లు	-10.73
▁ర్మన	-10.7314
▁శం	-10.7319
▁కొడ	-10.732
▁వైర	-10.733
▁స్కా	-10.7339
▁త్య	-10.7347
▁ాక్స్	-10.7349
▁గమ	-10.7352
▁వేట	-10.7356
▁ఆటో	-10.7359
ନ	-10.7359
▁ل	-10.7367
▁మోద	-10.7377
▁రాధ	-10.7397
▁కై	-10.7436
▁హ్య	-10.7449
▁జల్	-10.7465
▁ह	-10.7472
▁ن	-10.7483
▁ోటు	-10.7508
ان	-10.7531
▁ేం	-10.7533
▁ులే	-10.7533
▁ୀ	-10.7542
▁ాధ	-10.7553
▁ఐద	-10.7569
▁म	-10.7582
▁ృద	-10.7591
▁ଅ	-10.7616
▁చేశా	-10.762
డాది	-10.766
l	-10.7669
ف	-10.767
▁ౌల	-10.7673
▁శనం	-10.7696
▁X	-10.7702
▁ుస్	-10.7713
▁ఆరా	-10.7715
L	-10.772
▁దగ్గ	-10.7726
▁ష్క	-10.7728
G	-10.7731
▁O	-10.7739
▁్టా	-10.7742
▁ిసా	-10.7768
ଳ	-10.7805
V	-10.7807
▁అలీ	-10.7814
▁అప్పు	-10.7817
▁ہ	-10.7825
▁అక్	-10.7827
▁మ్య	-10.7839
ొచ్చ	-10.7841
▁*	-10.7844
▁ుమార	-10.7863
an	-10.7895
▁లెక్	-10.7921
▁b	-10.7921
నె	-10.793
▁ుఖ్యం	-10.7932
▁ియోజ	-10.7935
ار	-10.7953
▁ాంట	-10.7961
▁జయ్	-10.797
%	-10.7974
▁ివర్	-10.7987
▁విన్	-10.7991
▁ాయకు	-10.8006
▁టిల	-10.8021
▁పైగా	-10.8021
▁పశ	-10.8044
▁వేడ	-10.8053
▁ଖ	-10.8076
ాలని	-10.8078
▁బస్	-10.8091
▁ీట	-10.8104
▁ోవాలి	-10.8118
▁వ్వా	-10.8119
▁పాడు	-10.815
▁ాయుడు	-10.8154
▁ుర్తి	-10.8181
▁దరిక	-10.8184
▁మోహ	-10.8189
▁ామర	-10.8231
▁పుడు	-10.8233
▁్రామా	-10.8235
▁్యాక	-10.8241
▁యంగ	-10.8248
▁క్షి	-10.826
▁ోషి	-10.8261
▁తాన	-10.8268
▁ేశాడు	-10.8276
▁రాని	-10.8309
▁బలం	-10.8313
▁ితులు	-10.8314
▁శలు	-10.8318
▁ఫోర	-10.8324
్తం	-10.833
▁బెల	-10.8334
▁ుండటం	-10.8339
▁75	-10.8341
▁పాలి	-10.8343
ట్టు	-10.8382
پ	-10.8399
▁48	-10.8399
▁ఘో	-10.8402
ఏ	-10.8427
ష్య	-10.8439
▁మీప	-10.8447
▁రుడ	-10.8456
ృ	-10.8458
▁రోగ	-10.8459
▁ంద్రా	-10.8482
▁ీఎ	-10.8483
▁w	-10.8491
▁ాదాలు	-10.8499
▁n	-10.8501
▁పుల	-10.8515
▁ేశారు	-10.8515
▁द	-10.8518
▁గే	-10.852
▁లయ్య	-10.8529
▁షణ	-10.8537
▁బస	-10.854
▁కాశం	-10.8547
▁ేటర్	-10.8557
▁ారాలు	-10.8559
▁J	-10.8561
▁తిరు	-10.8596
▁ురు	-10.8609
▁కలు	-10.8618
لی	-10.8618
▁ాలే	-10.8625
▁t	-10.8633
▁ిగి	-10.8636
▁డ్స్	-10.8647
▁బంద	-10.8668
▁ోస్ట్	-10.8681
N	-10.8721
▁మ్మె	-10.8729
▁మాండ	-10.8731
▁పవన	-10.8734
▁లన్	-10.8734
చ్	-10.875
▁వైసీ	-10.8774
▁ిజ్	-10.8794
▁ధవ	-10.8803
▁శాం	-10.8821
▁భో	-10.8823
▁ంజి	-10.8854
1	-10.8864
▁యశ	-10.8867
▁బోర్	-10.8875
7	-10.89
▁రుగ	-10.8901
▁్వాన్	-10.8909
▁ఎకర	-10.8909
▁బల్	-10.8916
▁బట్ట	-10.8934
▁ాయన	-10.8946
▁ీఫ	-10.8947
▁ెట్లు	-10.8953
ri	-10.8958
th	-10.8975
▁ఔట్	-10.8976
▁రప్	-10.8983
▁ీజే	-10.9004
▁ృష	-10.9015
▁్రస్	-10.9015
▁ందన	-10.9017
▁షర్	-10.9025
▁చెం	-10.9034
▁సగం	-10.9038
▁న్నద	-10.9044
▁వాయ	-10.905
▁కుంట	-10.9052
ానిక	-10.906
▁ోసి	-10.9068
▁ట్లా	-10.9117
▁ీస	-10.913
▁రుకు	-10.9138
▁టీం	-10.9138
▁సెల	-10.9183
▁ూమ	-10.9187
▁ଧ	-10.9196
▁తులు	-10.9213
50	-10.9244
▁రాధా	-10.9257
▁150	-10.9257
▁ଙ	-10.928
ar	-10.9283
-	-10.9289
▁ింహ	-10.929
▁హం	-10.9295
▁సెస్	-10.9298
▁్రాన్	-10.9302
▁గళ	-10.9305
▁మూర్	-10.9314
▁్రత	-10.9323
▁ణల	-10.9326
▁్రయ	-10.9339
▁్నాయ	-10.9346
▁ండర	-10.935
▁ప్రభ	-10.9353
▁తమ్	-10.9365
▁లాన్	-10.9367
ି	-10.9423
▁్లర	-10.9423
▁ొట	-10.9424
ాశాల	-10.9435
▁్కీ	-10.9452
▁ుఖ్	-10.9461
్యాచ	-10.9499
▁కవర్	-10.9533
▁ోగి	-10.9534
▁ంకర	-10.9536
▁ేవ	-10.9536
▁ఫీస	-10.9538
▁సిప	-10.9544
▁ేస్తా	-10.955
▁క్కర్	-10.9551
ిల్	-10.9555
▁రబ	-10.9587
j	-10.9592
▁్తారు	-10.9601
▁్గా	-10.9603
▁రేష	-10.9612
▁ిభ	-10.9622
▁చొ	-10.9625
▁లాక్	-10.9634
▁ాడా	-10.9645
▁ెరిగ	-10.9649
▁రోహ	-10.9675
▁ంధ్	-10.9676
▁%	-10.9681
▁్రాఫ	-10.9696
▁్యర్	-10.9698
▁పాయి	-10.9702
▁తరం	-10.9732
▁ుఖ	-10.975
▁V	-10.9755
▁శిక్	-10.9811
ెట్	-10.9824
▁కాన	-10.9837
▁پی	-10.9842
▁కట్టు	-10.9845
▁F	-10.9862
▁U	-10.9863
▁ీనం	-10.9875
▁లాట	-10.9877
▁పీడ	-10.9882
یر	-10.9883
▁రుక	-10.9885
▁ଚ	-10.9918
▁ీఎల్	-10.9919
▁పటి	-10.9924
▁భయం	-10.9925
▁ెరి	-10.993
▁ీసీ	-10.9944
▁ెబ	-10.9964
▁లెట	-10.9967
▁ల్చ	-10.9968
▁ాఫ	-10.9969
କ	-10.9977
▁کر	-10.9984
f	-10.9989
▁ేడు	-10.9991
ص	-11.0007
▁ండ్లు	-11.0034
▁ీటర	-11.0037
▁ేరా	-11.0042
▁ెవ	-11.005
▁Cha	-11.006
▁ఒకట	-11.0068
ଷ	-11.0108
ಖ	-11.0108
▁డిపో	-11.0109
▁W	-11.0126
డంతో	-11.0144
▁com	-11.0168
े	-11.0169
▁సుమ	-11.0173
▁అజ	-11.0175
▁ిధి	-11.0175
▁హాస	-11.0196
▁స్టు	-11.0209
▁నగరం	-11.0236
▁లీడ	-11.024
▁ందన్	-11.0289
▁తాల	-11.0292
▁వాదం	-11.0296
▁తడ	-11.0308
ce	-11.0313
▁తీర్	-11.0339
▁AI	-11.0362
ాలేజ	-11.0377
▁టార	-11.0396
ئی	-11.0401
ال	-11.0419
ಫ	-11.0449
▁్పా	-11.0456
▁آ	-11.0458
▁ీబ	-11.0478
▁లిటీ	-11.0484
▁గం	-11.0495
▁రిష	-11.0525
▁రౌ	-11.0539
ిలీజ	-11.0553
▁ాచ్	-11.0564
▁ియాల	-11.0571
▁ళ్లకు	-11.0633
▁32	-11.0656
▁al	-11.0657
▁یا	-11.0664
me	-11.0685
▁్లు	-11.0691
ڈ	-11.0712
▁g	-11.0725
▁థ్య	-11.0725
H	-11.0738
40	-11.0743
▁وائرل	-11.0752
al	-11.0782
సిటీ	-11.0795
▁ଶ	-11.0805
ొందర	-11.081
▁హీ	-11.0816
▁ిచే	-11.0831
▁్మల	-11.0849
▁vs	-11.0854
▁వరక	-11.0856
▁ంచం	-11.0858
▁36	-11.0875
▁ంగల్	-11.0876
▁దడ	-11.0876
▁ోతు	-11.0878
▁ణిక	-11.0888
▁జం	-11.0891
▁ర్చి	-11.0898
▁్కార్	-11.0907
▁ब	-11.091
▁ణలు	-11.0946
▁రోప	-11.0954
on	-11.0961
▁ర్డ	-11.097
▁కేషన్	-11.0973
▁గుం	-11.0992
▁व	-11.1011
▁ుల్ల	-11.1014
వ్వ	-11.1017
▁ాబు	-11.1017
▁ేళ	-11.1021
▁మోడ	-11.1027
▁ళం	-11.1033
▁33	-11.1062
ౖ	-11.1063
▁ज	-11.1066
▁ొచ్చి	-11.1093
▁ోలి	-11.1096
▁శీల	-11.1097
▁c	-11.1108
▁మధ	-11.1119
▁ోత్	-11.1132
▁...	-11.1133
▁డద	-11.116
▁ోపా	-11.1164
▁34	-11.1188
▁కుండ	-11.1208
▁చై	-11.1216
▁ग	-11.1228
▁ామిన	-11.1233
▁ఘనత	-11.1237
▁ంచా	-11.125
▁హద	-11.1289
▁ాహ్న	-11.129
▁దవ	-11.1292
▁్తాన	-11.1307
▁ఇష్	-11.1315
گ	-11.1315
▁و	-11.132
▁ోటీ	-11.1335
డర్	-11.1348
▁ధుల	-11.1348
▁మాల	-11.1351
▁నంత	-11.1367
▁ాన్న	-11.1395
▁ఆరో	-11.1399
▁ప్పం	-11.1399
▁లలు	-11.1402
▁ఫైనల	-11.1425
▁యోగి	-11.1461
▁ఫిక	-11.1469
▁دعو	-11.1495
▁ఏఐ	-11.1504
▁్యాప	-11.1509
▁ెంబ	-11.1515
కాశా	-11.1519
▁పెర	-11.1521
▁ఈటల	-11.1543
▁యాన	-11.1556
▁దగ	-11.1559
▁అండ	-11.157
▁డాన్	-11.1571
▁చారి	-11.1598
▁అభివ	-11.1603
▁ోటీసు	-11.1606
▁Vi	-11.1622
▁చంద్	-11.1628
▁జ్ర	-11.1644
ing	-11.1662
▁400	-11.1663
▁నప్ప	-11.1664
▁ెలు	-11.1664
▁కిల్	-11.1685
ch	-11.1714
ڑ	-11.1717
▁ీకా	-11.1718
▁ివే	-11.1725
▁ుండగ	-11.1752
▁ాటిక	-11.1782
▁پ	-11.1818
▁కాలి	-11.1852
U	-11.1853
▁ాదాల	-11.1867
▁చిత	-11.1875
ح	-11.1881
▁కదా	-11.1892
▁ెత	-11.1918
2	-11.1952
▁సంజ	-11.1955
▁Ra	-11.1964
▁42	-11.1977
▁ేయాలి	-11.2006
▁లాడ	-11.204
ిలువ	-11.2055
▁u	-11.2074
K	-11.2085
▁నామా	-11.2087
▁ద్య	-11.2087
జేపీ	-11.2088
▁సంబ	-11.2097
la	-11.2111
▁లార	-11.2125
▁చేయలే	-11.2128
▁ری	-11.2169
▁లీల	-11.2184
▁نہیں	-11.2185
▁దుపు	-11.219
▁తర్	-11.22
▁టెన	-11.2208
▁ام	-11.2209
▁హైద	-11.2212
▁భ్య	-11.2215
గస్ట	-11.2243
▁er	-11.2251
ాయని	-11.2262
▁ేగం	-11.2269
▁ఖ్	-11.2269
▁యిల	-11.2272
SC	-11.2274
▁ಈ	-11.2297
▁nth	-11.2298
▁ిసె	-11.2311
▁్వం	-11.2312
▁ాణం	-11.2313
▁్యూస	-11.2315
▁జుల	-11.2329
▁لی	-11.2329
60	-11.2332
▁రంభ	-11.234
▁మృ	-11.2358
▁ాడుత	-11.2361
ma	-11.2363
▁ిపడ	-11.2363
▁ہوئ	-11.237
▁ఇస్	-11.2374
▁ల్లీ	-11.2381
▁త్మ	-11.2392
▁రెట్	-11.2394
▁హాన్	-11.2394
▁కమ్	-11.242
▁యాస	-11.2435
▁r	-11.2437
▁కోల	-11.2441
▁ాఠ	-11.2446
▁లాం	-11.2457
▁ాస్తు	-11.2466
▁బూ	-11.247
▁టెంట్	-11.2479
ౌండ	-11.2481
▁పోయి	-11.249
▁దాయ	-11.2504
ha	-11.2508
▁ంఘ	-11.2517
▁ిపార	-11.252
▁ార్చ	-11.2531
▁్యమ	-11.2534
کھا	-11.2545
▁ెట్ల	-11.2559
▁్రై	-11.2575
▁ివా	-11.2581
▁సూపర	-11.2582
▁పాన	-11.2592
▁ాంత్	-11.2601
▁رہ	-11.2602
▁అమిత	-11.2609
▁ోలీ	-11.2622
▁ఫిర	-11.2628
▁ీబీ	-11.2639
ికల్	-11.2655
▁థ్	-11.2673
▁ేకం	-11.2698
▁లాండ	-11.2722
▁ఎయి	-11.2732
▁+	-11.2791
▁ెన్ష	-11.2791
▁పరిష	-11.2793
పుల	-11.2805
ర్యా	-11.2808
▁సిల	-11.2816
▁2.	-11.2824
▁ాలీ	-11.2849
ض	-11.285
▁్ము	-11.2861
▁ెప్	-11.2871
▁కంగ	-11.2901
اتھ	-11.2916
▁ెయిన	-11.2955
▁్నర్	-11.2977
▁ష్యం	-11.2978
▁ଁ	-11.2978
▁పాయ	-11.2984
▁సీన	-11.3021
ీకర	-11.3038
▁ెరుగు	-11.3043
▁st	-11.3059
w	-11.3078
le	-11.3089
▁ొందర	-11.3094
▁అవక	-11.3123
▁భంగ	-11.3131
▁గిం	-11.314
▁h	-11.3165
▁Y	-11.3211
▁శంకర	-11.3217
▁్జు	-11.323
▁38	-11.323
▁جس	-11.3237
▁్ణ	-11.3237
▁య్యా	-11.3238
ں	-11.3243
▁ుగో	-11.3288
v	-11.3298
ka	-11.3299
ु	-11.3301
▁ంస్	-11.3344
▁وال	-11.3351
▁gu	-11.3369
దుల	-11.3372
▁సవా	-11.3394
ad	-11.3403
▁శ్వర్	-11.3414
ٰ	-11.3434
▁pa	-11.3438
▁డబ్బ	-11.3439
▁65	-11.3449
▁బెట	-11.349
నాడు	-11.3494
▁అభ	-11.3495
▁కృ	-11.3529
ର	-11.3548
▁లంట	-11.3553
▁సహజ	-11.3562
na	-11.3563
"	-11.358
▁టేషన్	-11.3581
▁55	-11.3588
▁విమ	-11.3593
▁دی	-11.3621
▁వాసం	-11.3649
75	-11.3666
▁ొర	-11.3686
▁ہم	-11.3707
▁ni	-11.3707
र	-11.3739
or	-11.3742
▁o	-11.3749
▁ద్ది	-11.3752
▁ేశం	-11.3752
▁ndr	-11.377
▁స్టో	-11.3801
▁లియ	-11.3819
▁మాదం	-11.3824
▁రేవ	-11.3829
▁ుగ్	-11.3839
▁్వర్	-11.3844
▁వతి	-11.3849
▁ీలన	-11.3852
re	-11.3854
▁تھا	-11.3856
▁గీ	-11.3866
70	-11.387
▁జెన్	-11.3883
▁ఇబ	-11.3891
▁ుగుల	-11.3892
▁ఢీ	-11.3941
▁nga	-11.3944
30	-11.4029
▁రిశ	-11.4065
mi	-11.4074
▁ుచు	-11.4097
▁గడ్	-11.41
▁سی	-11.411
▁ిప్ర	-11.4112
10	-11.4115
వీక	-11.4125
▁ఇష	-11.4139
▁ఊరట	-11.4154
▁ోర్డ	-11.416
▁యాని	-11.4161
▁44	-11.4171
il	-11.4181
▁యత్	-11.4187
▁ంపి	-11.419
▁بھی	-11.4198
▁్పాట్	-11.4199
▁ామి	-11.4208
▁ెళ	-11.4234
▁41	-11.4245
▁ర్య	-11.4262
▁ଫ	-11.4275
ss	-11.4278
▁విద	-11.4279
▁మంత్	-11.4289
تا	-11.4304
▁ఓం	-11.4315
▁ాలేద	-11.4317
▁ంట్లు	-11.4317
▁బీజ	-11.432
▁ఎమ్	-11.4324
▁ోట్	-11.4332
اد	-11.4339
▁video	-11.4344
▁&	-11.4345
▁ఖ్య	-11.4361
▁vi	-11.4362
▁ز	-11.4367
▁te	-11.4379
ఆ	-11.4382
▁ారన్	-11.44
▁షన్లు	-11.441
▁tion	-11.4417
▁డుల	-11.443
▁నాడ	-11.4437
▁ీడీ	-11.4445
▁కపోత	-11.445
▁రాత	-11.4459
ظ	-11.4492
▁ಎಂ	-11.4497
▁ర్చు	-11.4511
ಬ	-11.4531
▁యాక	-11.4534
▁am	-11.4534
▁37	-11.4591
so	-11.4608
▁کرت	-11.4614
▁వైస	-11.4645
▁పణలు	-11.4647
▁సరే	-11.465
▁ధారణ	-11.4657
▁ti	-11.4668
ll	-11.4671
▁ియర	-11.4685
de	-11.4686
▁రాస్	-11.472
▁Al	-11.4721
జ్	-11.4735
ిపో	-11.4759
▁యత్నం	-11.4759
▁డుక	-11.4759
▁గించ	-11.4775
వడం	-11.4797
▁్చర్	-11.4797
▁రంభం	-11.4818
▁39	-11.4831
▁్శ	-11.4839
▁ح	-11.484
▁ంటా	-11.4855
ند	-11.4867
▁సిట	-11.4867
▁జాగ	-11.4868
ಥ	-11.487
▁Pla	-11.4871
st	-11.4871
▁ాగ్ర	-11.4875
▁ఓటర	-11.4878
▁రమ్	-11.4878
▁ాహు	-11.489
ld	-11.4908
▁ار	-11.4909
▁52	-11.492
▁ష్మ	-11.4927
▁2,	-11.4935
▁గారు	-11.4973
తుండ	-11.4981
▁తారా	-11.4981
▁va	-11.4984
▁ٹی	-11.4999
ئے	-11.5029
▁సీఎ	-11.5059
▁రాక్	-11.5065
▁nt	-11.5101
▁46	-11.5105
▁ెయిల	-11.5117
▁la	-11.5124
1)	-11.5125
▁ఫో	-11.513
▁سر	-11.5159
▁51	-11.5172
▁్జ్	-11.5187
▁పత్	-11.5264
▁میڈ	-11.5264
▁ిద్	-11.5281
▁وا	-11.5282
▁ీడి	-11.5291
▁మాను	-11.5294
▁49	-11.5296
▁ات	-11.5349
▁ాయలు	-11.535
▁చించ	-11.5352
▁ుమ్	-11.5354
▁ہو	-11.5357
▁రద్	-11.5389
▁250	-11.5394
▁بی	-11.5399
da	-11.5419
▁బాబ	-11.5419
نے	-11.5419
80	-11.5423
▁tel	-11.5424
▁ین	-11.5429
▁ల్స	-11.5442
▁ేయడ	-11.5469
▁ఖర్చ	-11.5504
▁tter	-11.5508
▁جان	-11.5509
ng	-11.5519
ఐ	-11.5534
▁ేసీ	-11.5543
▁ఇవే	-11.555
▁మధు	-11.5558
▁లిస్	-11.5566
▁లాస్	-11.5578
ଂ	-11.5591
▁రిం	-11.5593
▁బోర	-11.5606
େ	-11.5637
▁Tel	-11.564
డీపీ	-11.5666
▁ాబాద	-11.5682
▁ta	-11.5696
▁ఆదా	-11.5697
▁పడా	-11.5719
▁దై	-11.5721
▁ష్కర	-11.573
▁ూజ	-11.5733
▁్సెస	-11.5738
9	-11.5742
▁تصو	-11.5762
▁ar	-11.5766
▁్పన	-11.5815
▁వులు	-11.582
▁హీర	-11.5822
▁یو	-11.5876
va	-11.5897
▁ిటిష	-11.5931
▁గాన్	-11.5945
8	-11.5952
▁ya	-11.5962
▁ర్భం	-11.5962
▁మతం	-11.5962
▁mal	-11.5966
li	-11.5971
▁్షు	-11.5985
▁ుబాట	-11.5994
ీఏ	-11.6039
▁ూపు	-11.6046
▁ای	-11.6051
نا	-11.6074
ری	-11.6085
▁వర్గం	-11.6096
▁اپن	-11.6101
▁నన్	-11.6102
▁کرن	-11.6104
▁ింట్	-11.6118
▁ాసా	-11.6124
▁ుతుం	-11.6132
▁ారణ	-11.6141
▁వాలి	-11.6153
▁تو	-11.6172
▁ోచన	-11.6193
▁ఓకే	-11.6215
TC	-11.6228
▁Ma	-11.6247
▁శాన	-11.6259
▁ంపా	-11.6268
خ	-11.6273
▁47	-11.6276
▁వెం	-11.6277
▁ుగ్గ	-11.6303
▁్టె	-11.6315
▁బీజే	-11.6331
▁Na	-11.635
▁43	-11.6357
▁రాలే	-11.6372
▁Va	-11.6379
▁ర్షం	-11.6389
▁ూచ	-11.6399
▁ందుక	-11.6406
ون	-11.6407
ga	-11.6432
▁54	-11.6436
▁Re	-11.644
اب	-11.6452
▁ف	-11.6478
▁l	-11.648
▁భాగం	-11.6514
▁గిప	-11.6531
in	-11.6535
▁tw	-11.6548
▁ేశి	-11.6549
▁రాణా	-11.6558
ja	-11.657
▁్ష్	-11.6578
▁న్సీ	-11.6594
▁ూస్	-11.6594
W	-11.6605
ଲ	-11.6605
ہر	-11.6606
▁ర్జా	-11.6607
iru	-11.6607
▁1.	-11.6632
▁pic	-11.664
دی	-11.6648
ిడె	-11.6663
▁దాడ	-11.6664
▁ణుల	-11.6691
▁AP	-11.6694
▁ఉద్	-11.671
▁babu	-11.6732
▁1,	-11.674
▁మొదలై	-11.674
▁ెచ్	-11.6741
▁56	-11.6744
ve	-11.6754
ెల్	-11.676
▁విచ	-11.6762
ne	-11.6763
▁శార	-11.6763
▁72	-11.6766
چھ	-11.6827
▁మనీ	-11.6832
▁nd	-11.6877
Y	-11.6885
ା	-11.6885
▁త్నం	-11.6887
▁్ధం	-11.6898
▁పాప	-11.6917
غ	-11.692
▁ోరి	-11.6935
▁పోర్	-11.6935
▁సెస	-11.6947
▁తాం	-11.699
▁رو	-11.7006
వంబర	-11.7042
▁లైన	-11.7059
▁ంకా	-11.707
▁క్షు	-11.7072
▁ئی	-11.7077
rea	-11.7084
▁ూటీ	-11.7086
▁PM	-11.7093
ೃ	-11.7111
▁ిస్థ	-11.7114
▁re	-11.7164
te	-11.7185
یٹ	-11.7197
▁58	-11.7221
نی	-11.7238
▁or	-11.7268
▁యింట్	-11.7276
▁ిదా	-11.7284
2)	-11.737
0)	-11.7373
ీడియ	-11.739
▁Su	-11.7436
▁فر	-11.7439
ام	-11.744
ఢ	-11.7471
▁కూల్	-11.7476
ور	-11.7483
08	-11.7484
▁థుల	-11.7494
ur	-11.7516
di	-11.7517
▁థలు	-11.7543
▁3.	-11.7555
▁با	-11.757
x	-11.7571
▁ానాలు	-11.7632
▁ంగ్స్	-11.7659
▁gov	-11.7709
▁మయం	-11.7757
▁్రహం	-11.7762
▁ర్టు	-11.7768
اک	-11.7788
24	-11.7792
وٹ	-11.7811
▁్రదర్	-11.7812
▁ट	-11.7815
▁యడం	-11.784
▁ంధు	-11.7841
▁ఇక్క	-11.7844
▁US	-11.7859
▁డటం	-11.7873
▁ଏହ	-11.7916
▁మాణం	-11.792
ro	-11.7925
du	-11.7926
وم	-11.7938
▁బిత	-11.7953
▁ురం	-11.7969
▁ద్రి	-11.7988
▁را	-11.7996
▁ూడో	-11.8004
▁్లాడ	-11.8007
▁జెన	-11.801
▁th	-11.8012
▁Co	-11.8021
▁ఆరోపణ	-11.8024
▁రమా	-11.8031
▁ఊరు	-11.8043
4)	-11.8061
▁నిరస	-11.8072
▁ిదే	-11.8084
.1	-11.8099
▁వుడ	-11.8099
▁ీఆర	-11.8108
▁تھ	-11.8109
رف	-11.8117
▁ోసారి	-11.8128
▁`	-11.8128
▁రైల్	-11.8134
▁ాప్త	-11.814
వై	-11.8146
dh	-11.8148
▁ma	-11.8169
▁57	-11.8189
1,	-11.8192
▁చెన్	-11.8201
▁85	-11.8208
▁News	-11.8235
ేషన్	-11.8242
▁ఏవీ	-11.8245
▁144	-11.8245
▁జయం	-11.8266
▁రెస	-11.8271
نڈ	-11.8297
▁Go	-11.8297
nd	-11.8315
▁Pra	-11.8328
یل	-11.8329
ط	-11.8338
▁ne	-11.8357
▁ఆనం	-11.836
▁جو	-11.8389
ول	-11.8395
థ్	-11.8415
▁Po	-11.8419
▁में	-11.8454
TR	-11.8455
▁రకం	-11.8463
▁షేర	-11.8468
▁4,	-11.847
▁ri	-11.8474
15	-11.8507
▁ోల్ప	-11.8528
88	-11.8545
▁ెత్	-11.8561
▁టులు	-11.8578
టంతో	-11.8599
وش	-11.8614
▁మ్మడ	-11.8617
▁పొగ	-11.8627
▁ాంక్	-11.8627
▁హబ్	-11.8628
ଇ	-11.8642
Q	-11.8677
▁హాన	-11.8686
▁64	-11.8696
▁ోజు	-11.8706
ఓ	-11.8756
▁Reddy	-11.8791
z	-11.8791
▁ड	-11.8791
▁నౌక	-11.8791
▁Pri	-11.8792
▁తువు	-11.8795
▁పిట	-11.8807
▁హ్న	-11.8816
up	-11.8817
▁ప్తు	-11.8825
▁53	-11.8848
▁تی	-11.8849
ెలుగ	-11.8881
▁ڈ	-11.8881
▁پا	-11.8887
▁Jaga	-11.8906
▁TSP	-11.8906
▁్వీట్	-11.8907
▁طر	-11.8908
us	-11.8913
▁ెంద	-11.8919
ముద	-11.8924
▁ాపూ	-11.8936
ya	-11.8986
7)	-11.8994
▁్నం	-11.9016
ू	-11.9022
▁پوسٹ	-11.9022
ww	-11.9023
▁ہمیں	-11.9025
نگ	-11.9034
6)	-11.9035
مب	-11.9043
▁6,	-11.9073
▁3,	-11.91
▁Ba	-11.9111
▁ీళ్లు	-11.9121
▁59	-11.9129
▁డెంట	-11.9137
▁୨	-11.914
▁్లాం	-11.9161
02	-11.9169
گر	-11.9223
భయ	-11.9232
రాణా	-11.924
▁ూప్	-11.9247
12	-11.9251
ذ	-11.9259
▁మద్	-11.926
▁انہ	-11.9262
▁ీజన	-11.9266
یئر	-11.9275
▁వుడ్	-11.9282
▁చలి	-11.9299
▁se	-11.9318
3)	-11.9365
سی	-11.937
▁نگ	-11.9373
▁جب	-11.9381
▁श	-11.9384
▁పత్రి	-11.9397
▁ال	-11.94
▁యాదవ	-11.9403
▁్బు	-11.9412
▁మున్	-11.9419
5)	-11.9427
▁ాధ్	-11.9436
▁co	-11.9451
▁news	-11.9501
▁ర్నర్	-11.9504
▁66	-11.9519
▁جا	-11.9548
▁63	-11.9589
▁tions	-11.9626
▁ck	-11.9653
.8	-11.9654
▁فی	-11.9658
▁రైత	-11.9674
▁ایس	-11.9708
X	-11.9715
▁لئے	-11.975
▁دیش	-11.975
▁്	-11.975
▁ڈی	-11.9768
▁లకే	-11.9773
▁Raj	-11.9834
଼	-11.9876
▁post	-11.9876
▁Read	-11.9876
▁షమీ	-11.9882
ید	-11.9901
▁Me	-11.991
▁్థం	-11.9944
▁el	-11.9953
ke	-11.9961
نٹ	-11.9966
09	-11.9976
▁ca	-11.9986
▁ాంతం	-12.0001
ୂ	-12.0004
▁ttp	-12.0005
▁है	-12.0005
▁పులు	-12.0053
.7	-12.007
▁tha	-12.0082
▁62	-12.0085
▁్రాలు	-12.0092
▁99	-12.0116
▁ాట్లు	-12.0126
़	-12.0134
▁ہند	-12.0135
▁దివా	-12.0156
▁ండ్రు	-12.0174
35	-12.0218
▁lt	-12.0235
▁95	-12.0315
یج	-12.034
ps	-12.0364
▁Te	-12.0364
▁مو	-12.0377
☛	-12.0399
లోకి	-12.0403
▁ృష్టి	-12.0411
▁119	-12.0414
ేష్	-12.0416
▁ఓవర	-12.0416
▁And	-12.0536
ପ	-12.0916
ह	-12.0916
ै	-12.0951
ଟ	-12.1059
ମ	-12.15
ୱ	-12.1535
ୌ	-12.184
'	-12.1962
J	-12.212
ଠ	-12.2155
ئ	-12.2484
ౌ	-12.277
ಒ	-12.2817
0	-12.2992
ರ	-12.3308
୦	-12.371
/	-12.3864
ଭ	-12.3864
थ	-12.3899
ी	-12.4429
ث	-12.4487
୧	-12.5112
ക	-12.5552
ୃ	-12.5779
!	-12.6215
ٓ	-12.6494
ଞ	-12.6744
۔	-12.6965
ി	-12.7
q	-12.7264
ତ	-12.7499
ई	-12.7534
ष	-12.7812
ए	-12.8062
ଜ	-12.8062
क	-12.8062
ಿ	-12.8062
स	-12.8356
த	-12.8694
]	-12.9007
­	-12.9007
ఙ	-12.9007
⁪	-12.9007
ಘ	-12.933
ल	-12.9628
ಹ	-12.9628
उ	-12.9663
ೌ	-12.9663
‪	-12.9663
।	-12.9973
ग	-13.033
ଧ	-13.033
म	-13.033
ଥ	-13.033
ು	-13.033
ఒ	-13.033
ِ	-13.0365
ण	-13.0365
ப	-13.0365
ന	-13.0365
?	-13.07
°	-13.0735
୪	-13.0735
ହ	-13.1084
ବ	-13.1084
ವ	-13.1085
ನ	-13.1085
ଦ	-13.1485
ತ	-13.1485
া	-13.152
യ	-13.152
Z	-13.1901
ఠ	-13.2166
ಲ	-13.2336
न	-13.2336
ಟ	-13.2336
छ	-13.2371
ு	-13.2371
ಠ	-13.2371
ു	-13.2371
ଗ	-13.2791
ೆ	-13.2791
ட	-13.2826
പ	-13.2826
ଡ	-13.3267
ি	-13.3302
ാ	-13.3302
ୟ	-13.3767
ಗ	-13.3767
ठ	-13.3802
ఱ	-13.3802
౦	-13.3802
ब	-13.4293
୍	-13.4293
+	-13.4849
द	-13.4849
ଏ	-13.4849
घ	-13.4884
ଵ	-13.4884
୫	-13.4884
ട	-13.4884
ଉ	-13.5437
র	-13.5472
ज	-13.6062
य	-13.6062
্	-13.6097
ത	-13.6097
ଫ	-13.6729
ଆ	-13.6729
ক	-13.6764
ୈ	-13.6764
୩	-13.6764
ர	-13.6764
ல	-13.6764
வ	-13.6764
‐	-13.6764
ସ	-13.7443
୮	-13.7478
ற	-13.7478
झ	-13.8247
୬	-13.8247
ள	-13.8247
ா	-13.8247
ല	-13.8247
വ	-13.8247
െ	-13.8247
श	-13.9045
ఇ	-13.9045
ढ	-13.9081
ಞ	-13.9081
ണ	-13.9081
●	-13.9081
ଶ	-13.9955
َ	-13.999
ন	-13.999
ম	-13.999
୭	-13.999
୯	-13.999
ഷ	-13.999
ؤ	-14.0637
ट	-14.0955
प	-14.0955
;	-14.0955
ଯ	-14.0955
ಡ	-14.0955
ي	-14.099
ॉ	-14.099
ে	-14.099
ଢ	-14.099
ോ	-14.099
ख	-14.2066
ଛ	-14.2066
؟	-14.2101
ল	-14.2101
ু	-14.2101
ச	-14.2101
ய	-14.2101
അ	-14.2101
റ	-14.2101
►	-14.2101
भ	-14.3316
ژ	-14.3351
ە	-14.3351
ृ	-14.3351
ौ	-14.3351
॥	-14.3351
ত	-14.3351
ৰ	-14.3351
ந	-14.3351
ன	-14.3351
ை	-14.3351
മ	-14.3351
ര	-14.3351
സ	-14.3351
‒	-14.3351
आ	-14.4744
ଁ	-14.4744
ء	-14.4779
প	-14.4779
ো	-14.4779
ெ	-14.4779
ങ	-14.4779
ഡ	-14.4779
′	-14.4779
◉	-14.4779
♦	-14.4779
🇮	-14.4779
য	-14.4779
آ	-14.6409
*	-14.6411
ଖ	-14.6411
ಶ	-14.6411
ಮ	-14.6411
ಸ	-14.6411
স	-14.6446
ಛ	-14.6446
ಢ	-14.6446
ള	-14.6446
ർ	-14.6446
★	-14.6446
🇳	-14.6446
ః	-14.8411
ध	-14.8411
ଘ	-14.8411
&	-14.8411
त	-14.8411
ୀ	-14.8411
ೋ	-14.8411
అ	-14.8411
়	-14.8446
ோ	-14.8446
ീ	-14.8446
😂	-14.8446
ଙ	-15.0911
ಕ	-15.0911
\	-15.0946
ه	-15.0946
ّ	-15.0946
ञ	-15.0946
ও	-15.0946
ধ	-15.0946
ங	-15.0946
ொ	-15.0946
౩	-15.0946
ം	-15.0946
എ	-15.0946
ൂ	-15.0946
ൗ	-15.0946
ൾ	-15.0946
ଅ	-15.4245
ಭ	-15.4245
ಜ	-15.4245
ఛ	-15.4245
~	-15.4279
·	-15.4279
×	-15.4279
ư	-15.4279
ُ	-15.4279
ँ	-15.4279
०	-15.4279
ট	-15.4279
ড	-15.4279
দ	-15.4279
ফ	-15.4279
হ	-15.4279
ଃ	-15.4279
ଈ	-15.4279
ண	-15.4279
ீ	-15.4279
ಃ	-15.4279
⃣	-15.4279
⦁	-15.4279
️	-15.4279
💪	-15.4279
🔥	-15.4279
🙏	-15.4279
=	-15.9245
फ	-15.9245
്	-15.9245
`	-15.9245
व	-15.9245
ଚ	-15.9245
#	-15.9245
â	-15.9279
ơ	-15.9279
ً	-15.9279
ڕ	-15.9279
ः	-15.9279
२	-15.9279
অ	-15.9279
গ	-15.9279
শ	-15.9279
ী	-15.9279
ৱ	-15.9279
ஏ	-15.9279
ஜ	-15.9279
ூ	-15.9279
ఁ	-15.9279
౹	-15.9279
ಔ	-15.9279
ഈ	-15.9279
ഭ	-15.9279
ശ	-15.9279
ൃ	-15.9279
േ	-15.9279
ൊ	-15.9279
ൻ	-15.9279
ố	-15.9279
⁫	-15.9279
⁯	-15.9279
◆	-15.9279
👉	-15.9279
👌	-15.9279
💚	-15.9279
😡	-15.9279
౧	-16.9217
ভ	-16.9218
চ	-16.9219
أ	-16.922
⁄	-16.9221
ಝ	-16.9222
ऑ	-16.9223
ऊ	-16.9224
ധ	-16.9225
அ	-16.9226
এ	-16.9227
đ	-16.9228
🚩	-16.9229
எ	-16.923
❌	-16.9231
ജ	-16.9232
জ	-16.9233
ൽ	-16.9234
ऐ	-16.9235
⁠	-16.9236
ച	-16.9237
ଝ	-16.9238
ব	-16.9239
ಊ	-16.924
ಓ	-16.9241
$	-16.9242
ओ	-16.9243
ம	-16.9244
க	-16.9245
ಐ	-16.9246
ʼ	-16.9247
ड	-16.9247
୨	-16.9247
ಈ	-16.9247
ಪ	-16.9247
ఋ	-16.9247
ಏ	-16.9248
[	-16.9249
•	-16.925
₹	-16.9251
ி	-16.9252
इ	-16.9253
औ	-16.9254
_	-16.9255
்	-16.9256
➦	-16.9257
ಉ	-16.9258
अ	-16.9259
‭	-16.926
च	-16.9261
@	-16.9262
>	-16.9263
ଓ	-16.9264
ಇ	-16.9265
ఝ	-16.9266
ಷ	-16.9267
ಆ	-16.9268
ಅ	-16.9269
ಎ	-16.927
⁭	-16.9271
ఔ	-16.9272
‍	-16.9273
ఞ	-16.9274
ಯ	-16.9275
⁬	-16.9276
ఊ	-16.9277
(	-16.9278
ờ	-16.9279
<	-16.9279
£	-16.9279
©	-16.9279
Á	-16.9279
æ	-16.9279
́	-16.9279
α	-16.9279
β	-16.9279
؛	-16.9279
إ	-16.9279
ى	-16.9279
ڵ	-16.9279
ۆ	-16.9279
ێ	-16.9279
४	-16.9279
ঃ	-16.9279
আ	-16.9279
ৈ	-16.9279
ஆ	-16.9279
இ	-16.9279
உ	-16.9279
ஊ	-16.9279
ஸ	-16.9279
ே	-16.9279
ఽ	-16.9279
ౄ	-16.9279
౪	-16.9279
౬	-16.9279
ആ	-16.9279
ഇ	-16.9279
ഒ	-16.9279
ദ	-16.9279
ബ	-16.9279
ഴ	-16.9279
ൈ	-16.9279
ả	-16.9279
ầ	-16.9279
ậ	-16.9279
ệ	-16.9279
ớ	-16.9279
ở	-16.9279
ợ	-16.9279
ứ	-16.9279
‫	-16.9279
‬	-16.9279
€	-16.9279
∙	-16.9279
≠	-16.9279
▪	-16.9279
♥	-16.9279
✳	-16.9279
➡	-16.9279
🇪	-16.9279
🇬	-16.9279
🌹	-16.9279
🏼	-16.9279
👇	-16.9279
👊	-16.9279
👋	-16.9279
💐	-16.9279
💥	-16.9279
🔴	-16.9279
🔸	-16.9279
🔹	-16.9279
😉	-16.9279
😊	-16.9279
😜	-16.9279
😞	-16.9279
😠	-16.9279
😥	-16.9279
🙂	-16.9279
🤜	-16.9279
ఉ	-16.9279
ഗ	-16.9279
