<unk>	0
<s>	0
</s>	0
.	-2.64373
,	-3.70227
▁ఈ	-4.86304
లో	-5.11046
▁	-5.17841
కు	-5.27651
▁లో	-5.29148
ను	-5.3125
ని	-5.35005
లు	-5.46452
తో	-5.50077
గా	-5.52274
▁కూడా	-5.68717
▁నుంచి	-5.69144
ు	-5.70935
స్	-5.72758
కి	-5.73452
ల	-5.7731
ం	-5.78758
న	-5.82605
▁ఆ	-5.82709
ి	-5.8327
:	-5.86
▁కు	-5.86095
పై	-5.98643
▁చేశారు	-6.02635
▁ను	-6.05735
ే	-6.1291
ారు	-6.15016
▁(	-6.16195
ా	-6.21634
వ	-6.22234
▁అని	-6.23274
)	-6.29858
▁ఆయన	-6.30212
నే	-6.32399
▁ఉన్న	-6.39808
▁కాంగ్రెస్	-6.42121
▁తన	-6.46068
్	-6.46912
▁రూ	-6.47748
▁పార్టీ	-6.49195
▁గా	-6.49379
▁కోసం	-6.51198
▁రెడ్డి	-6.55933
▁అయితే	-6.57768
▁చెప్పారు	-6.58438
లను	-6.59332
▁చేసిన	-6.61685
▁తెలిపారు	-6.62343
▁ప్రభుత్వం	-6.63086
▁మంది	-6.63088
▁ఒక	-6.63427
క	-6.6404
"	-6.65096
▁తో	-6.65934
▁తర్వాత	-6.66973
ర్	-6.71107
?	-6.72002
న్	-6.72368
▁ఉంది	-6.74172
▁అన్నారు	-6.76295
ాన్ని	-6.78613
-	-6.81059
▁ఓ	-6.81635
త	-6.82437
▁పాటు	-6.84348
▁సీఎం	-6.84713
▁చాలా	-6.85066
▁పై	-6.8603
ల్	-6.86651
ానికి	-6.86824
▁మంత్రి	-6.87742
▁"	-6.87788
▁తెలంగాణ	-6.8892
▁బీజేపీ	-6.9092
ాయి	-6.92185
▁రెండు	-6.94147
ర	-6.95139
▁దీంతో	-6.95159
▁,	-6.982
▁ఏ	-6.99346
▁హైదరాబాద్	-7.00029
▁తమ	-7.00262
▁వరకు	-7.00813
▁కానీ	-7.01169
▁చెందిన	-7.01639
లకు	-7.01959
▁పోలీసులు	-7.02132
ట్	-7.02507
ాడు	-7.02868
ది	-7.03691
క్	-7.03854
ారని	-7.04113
▁చేసింది	-7.04827
▁చేసి	-7.05981
ంగా	-7.06869
▁అధికారులు	-7.07631
▁జిల్లా	-7.07743
▁ఎన్నికల	-7.12026
మ	-7.12669
▁ఆమె	-7.1275
య	-7.12765
▁రాష్ట్ర	-7.12947
లా	-7.13186
▁చంద్రబాబు	-7.14026
▁ఇది	-7.15323
రా	-7.15976
▁సమయంలో	-7.17365
డం	-7.19174
ప	-7.20813
▁జగన్	-7.21725
▁మధ్య	-7.22335
▁మరో	-7.22519
నా	-7.2345
▁కేసీఆర్	-7.24413
ల్లో	-7.2505
▁బీఆర్ఎస్	-7.25313
▁ఇప్పుడు	-7.25482
ిన	-7.26007
▁కొత్త	-7.26135
▁క	-7.27072
▁అ	-7.27261
▁ని	-7.2885
▁మ	-7.29701
▁ద్వారా	-7.30163
▁అనే	-7.30165
లోని	-7.30421
ింది	-7.30514
▁సినిమా	-7.31693
▁లు	-7.32002
▁ఇక	-7.33479
▁ఉంటుంది	-7.33829
▁అవకాశం	-7.34175
▁ఏర్పాటు	-7.34606
ట్లు	-7.35349
వి	-7.35433
రి	-7.35826
రు	-7.36186
ట	-7.36221
▁ఎమ్మెల్యే	-7.36693
▁కొన్ని	-7.36886
కే	-7.36926
▁మాజీ	-7.37023
▁భారీ	-7.38133
డ్	-7.40112
▁ప్రస్తుతం	-7.40181
▁ప	-7.40637
గ	-7.42255
▁న	-7.42278
▁లోని	-7.42577
▁వల్ల	-7.42865
స	-7.43035
▁లేదు	-7.43121
▁చేస్తున్నారు	-7.43974
▁రేవంత్	-7.44075
▁-	-7.44141
ూ	-7.44711
▁భారత్	-7.4532
▁జరిగిన	-7.45694
▁ప్రభుత్వ	-7.46204
▁ఎన్నికల్లో	-7.46792
▁ల	-7.47269
▁శాఖ	-7.47494
ాలు	-7.47644
ాలని	-7.48014
▁వెలుగు	-7.48118
▁నా	-7.48229
▁పోటీ	-7.48243
▁వచ్చే	-7.48315
▁కలిసి	-7.48652
▁పెద్ద	-7.48878
▁వచ్చిన	-7.49032
▁2	-7.49204
▁ముందు	-7.49564
▁వారి	-7.49588
▁వారు	-7.50475
▁గత	-7.50628
▁వ	-7.5072
▁మా	-7.51187
▁మూడు	-7.51802
▁గురించి	-7.51963
▁అన్ని	-7.52273
▁ప్రతి	-7.52635
▁పవన్	-7.53118
ేందుకు	-7.53675
▁మ్యాచ్	-7.54387
▁కి	-7.54633
▁""	-7.55077
▁శాతం	-7.5526
మా	-7.55308
▁మాత్రం	-7.56003
▁ఉందని	-7.56123
▁స	-7.5635
డానికి	-7.56575
▁వద్ద	-7.57525
▁కేంద్ర	-7.57605
▁10	-7.57687
మ్	-7.58492
▁ఉన్నారు	-7.58904
లతో	-7.59247
యా	-7.59358
▁ఉన్నాయి	-7.59613
డ	-7.60764
కా	-7.6146
▁టీడీపీ	-7.61503
▁వ్యక్తం	-7.62059
▁కుమార్	-7.62572
రీ	-7.63063
ామని	-7.63184
న్న	-7.63196
▁సమాచారం	-7.63664
▁వేల	-7.64011
▁మాత్రమే	-7.6408
నీ	-7.64149
▁విడుదల	-7.65487
▁చేసే	-7.65646
▁కోట్ల	-7.65802
ో	-7.66543
టి	-7.66725
▁లక్షల	-7.66846
ద	-7.67644
▁ర	-7.67844
▁చేయాలని	-7.68201
▁ఎక్కువ	-7.6826
▁3	-7.6922
▁కేసు	-7.69246
▁ఇప్పటికే	-7.69628
▁రోజు	-7.6975
డి	-7.70246
▁పని	-7.70643
▁ప్రజలు	-7.70792
▁నుండి	-7.7119
▁త	-7.71286
టీ	-7.71854
▁మీద	-7.71976
ప్	-7.72097
డు	-7.72254
ాం	-7.72543
▁సందర్భంగా	-7.72898
▁రాష్ట్రంలో	-7.73218
▁ప్రధాని	-7.73372
▁ఎలా	-7.73422
చ	-7.7355
▁ఎలాంటి	-7.73931
▁వైసీపీ	-7.74212
▁5	-7.74254
▁మొత్తం	-7.74323
▁తాను	-7.74914
▁ప్రకారం	-7.74959
▁పూర్తి	-7.75637
▁లేదా	-7.7568
▁మంచి	-7.75757
ీ	-7.76096
▁మీ	-7.76232
ాలి	-7.76576
▁సోషల్	-7.76668
మైన	-7.76706
""	-7.76906
▁వారికి	-7.77597
▁భారత	-7.77743
వా	-7.77875
▁అదే	-7.77996
▁విషయం	-7.7815
లేదు	-7.7818
సి	-7.78443
▁ఇతర	-7.78575
▁ముఖ్యమంత్రి	-7.79146
▁అంటూ	-7.79256
▁కీలక	-7.79433
మి	-7.79448
▁చేయడం	-7.80344
▁నేతలు	-7.80708
▁లేదని	-7.80767
▁చర్యలు	-7.80932
▁పలు	-7.81136
▁చేస్తున్న	-7.8141
▁వంటి	-7.81599
▁జ	-7.81623
▁ఎస్	-7.81811
▁కాదు	-7.8187
లి	-7.81994
త్	-7.82324
▁అసెంబ్లీ	-7.83237
్లో	-7.83263
▁అంటే	-7.83667
▁నెల	-7.83823
జ్	-7.83922
▁ఇదే	-7.84397
▁ఎంపీ	-7.84669
▁ప్ర	-7.84746
▁బ	-7.85151
జీ	-7.85529
▁4	-7.85695
⁬	-7.8577
▁మోదీ	-7.86178
▁అలాగే	-7.86752
▁ఆర్	-7.86806
▁ఇన్	-7.86834
లే	-7.8686
▁ప్రధాన	-7.86996
▁సభ	-7.87877
▁పేర్కొన్నారు	-7.87906
▁1	-7.88641
మే	-7.88747
▁కోట్లు	-7.89197
▁డిమాండ్	-7.89526
▁మెంట్	-7.89842
ంది	-7.903
▁ప్రత్యేక	-7.90767
▁తెలిపింది	-7.90955
▁ఇండియా	-7.91048
▁చెబుతున్నారు	-7.91067
▁రాజకీయ	-7.91135
▁అది	-7.91319
▁రావు	-7.91387
▁వి	-7.92029
▁20	-7.92153
▁తాజాగా	-7.9218
▁సంబంధించిన	-7.92575
▁ఏపీ	-7.92966
▁రోజుల	-7.93039
▁ఇలా	-7.93305
▁దాదాపు	-7.93479
▁కా	-7.93681
▁19	-7.93869
▁మన	-7.93896
▁చిన్న	-7.94189
▁మాట్లాడుతూ	-7.9523
▁నిర్ణయం	-7.95352
▁ఇచ్చిన	-7.95808
▁సంస్థ	-7.96052
▁దాడి	-7.97523
▁నమోదు	-7.97775
▁ఆర్థిక	-7.97818
▁అభివృద్ధి	-7.97847
▁జరిగింది	-7.98131
▁గతంలో	-7.9816
▁అనంతరం	-7.98352
▁6	-7.98519
▁వెంటనే	-7.98576
▁అనేక	-7.98768
▁మే	-7.98781
కో	-7.98908
▁కింద	-7.99448
▁గంటల	-7.99581
▁హ	-7.99592
▁తరువాత	-7.99678
▁ఏడాది	-7.99883
▁అమలు	-7.9998
▁ఇందులో	-8.01036
▁జారీ	-8.01228
▁గాంధీ	-8.01456
▁వచ్చింది	-8.02089
▁8	-8.02343
▁విచారణ	-8.02433
'	-8.02534
పు	-8.02582
▁'	-8.0285
▁ఫోన్	-8.02856
▁కేసులో	-8.0314
▁15	-8.03152
▁ప్రచారం	-8.03245
▁గ	-8.03413
▁ఎక్కువగా	-8.03494
మని	-8.03553
జ	-8.03708
సీ	-8.03729
▁విషయంలో	-8.04601
▁తొలి	-8.04825
▁12	-8.05129
బ్	-8.05149
▁ఇచ్చారు	-8.05321
▁కారణంగా	-8.05371
▁భాగంగా	-8.05884
▁పేరు	-8.0609
▁ఢిల్లీ	-8.06156
▁ఉదయం	-8.06266
▁రా	-8.06292
▁ఆఫ్	-8.06327
▁వీడియో	-8.0654
▁నేను	-8.0656
▁సింగ్	-8.06992
లలో	-8.07155
▁అధికారంలో	-8.07439
▁జిల్లాలో	-8.07992
▁కాగా	-8.08236
▁నేపథ్యంలో	-8.0827
▁7	-8.08335
▁పరిస్థితి	-8.08362
డంతో	-8.08404
▁ఎ	-8.08416
▁రాహుల్	-8.08643
▁అక్కడ	-8.08813
▁ద	-8.09032
▁కోర్టు	-8.09091
▁ధర	-8.09231
ట్టు	-8.09433
లీ	-8.09537
▁ఘటన	-8.1011
▁తీవ్ర	-8.10373
కుండా	-8.1061
▁లోక్	-8.10748
▁నాలుగు	-8.1089
▁టీ	-8.11336
▁మరింత	-8.11506
▁ప్రజల	-8.11554
▁మీడియాలో	-8.11656
బ	-8.11814
▁లేకుండా	-8.12198
ుడు	-8.12855
దు	-8.12892
▁అయిన	-8.12968
▁పాల్గొన్నారు	-8.13059
ాల	-8.13175
▁తెలుస్తోంది	-8.13271
▁వ్యక్తి	-8.13757
▁స్టేషన్	-8.13768
అ	-8.13884
▁ఎంత	-8.14501
మ్మ	-8.14584
▁తెలుగు	-8.14753
▁అందుకే	-8.15049
▁తిరిగి	-8.1507
▁ఇ	-8.15462
ష్	-8.15678
▁మీడియా	-8.15906
▁మళ్లీ	-8.16054
దా	-8.16105
▁చెప్ప	-8.16121
▁ఎందుకు	-8.16201
▁ఏం	-8.16255
▁తేదీ	-8.16309
▁దగ్గర	-8.16524
▁మేరకు	-8.1653
▁ఆందోళన	-8.16776
▁ఆరోపించారు	-8.17152
▁ఇలాంటి	-8.17214
▁చేయ	-8.17627
▁విజయం	-8.17905
▁షా	-8.17917
▁రి	-8.17957
▁11	-8.17967
▁కేటీఆర్	-8.17969
తి	-8.18524
కీ	-8.18569
ండి	-8.18633
),	-8.18836
▁అరెస్ట్	-8.19026
▁తెలంగాణలో	-8.19055
▁నేత	-8.19109
▁30	-8.19166
▁ఉంటే	-8.19174
వ్	-8.19273
▁తెలిసిందే	-8.19306
▁వైరల్	-8.19536
▁9	-8.1954
▁నాయకులు	-8.1965
▁అధ్యక్షుడు	-8.20043
య్య	-8.20144
▁జాతీయ	-8.20397
▁పెట్ట	-8.21136
గ్	-8.21306
▁మూవీ	-8.21355
▁ఇటీవల	-8.21466
▁చర్చ	-8.21764
▁ఉండే	-8.21775
▁చేస్తూ	-8.21924
▁రెండో	-8.22029
▁ఫిర్యాదు	-8.22096
▁దాని	-8.22199
▁వెల్లడించారు	-8.22628
ె	-8.2282
రో	-8.23347
▁కంటే	-8.2338
20	-8.23396
ానని	-8.23619
▁కొందరు	-8.23835
▁ఎన్	-8.24187
ద్	-8.24461
▁పైన	-8.24545
▁ఫొటో	-8.24576
▁మొదటి	-8.24645
నూ	-8.248
▁కమిటీ	-8.24953
▁స్టార్	-8.25092
▁వచ్చి	-8.25096
▁పోలీస్	-8.25667
▁వెళ్లి	-8.25774
▁కుటుంబ	-8.25881
▁రాత్రి	-8.25972
▁కలెక్టర్	-8.2627
▁కాకుండా	-8.26654
▁తనకు	-8.2668
ఈ	-8.26763
▁జనసేన	-8.27097
▁అంద	-8.2735
▁ఏళ్ల	-8.27411
▁ఇద్దరు	-8.27554
▁పైగా	-8.27753
▁కోరారు	-8.27833
▁ఇంకా	-8.28117
▁పనులు	-8.28138
▁ఏపీలో	-8.28154
▁అందులో	-8.28309
▁కేంద్రం	-8.28618
ాయని	-8.28974
▁శ్రీ	-8.29089
▁దీని	-8.29343
▁లైన్	-8.29492
ిందని	-8.29548
▁అతని	-8.29608
▁మారింది	-8.29927
▁ఆంధ్రప్రదేశ్	-8.29949
ంలో	-8.30141
ఫ్	-8.30334
▁ఇక్కడ	-8.30725
▁అమెరికా	-8.30872
▁ఒక్క	-8.30889
▁కేవలం	-8.31003
▁దేశ	-8.31006
హ	-8.31174
▁సీనియర్	-8.31508
▁సూచించారు	-8.31921
▁దేశంలో	-8.32024
▁కంపెనీ	-8.32557
ులు	-8.32914
శ	-8.33008
▁స్పష్టం	-8.33167
వే	-8.33582
ము	-8.33634
రే	-8.33802
▁14	-8.34142
ఎస్	-8.34488
▁18	-8.34529
▁తప్ప	-8.3462
▁అవసరం	-8.34738
▁వారిని	-8.34745
▁డాక్టర్	-8.3489
▁క్రమంలో	-8.34892
లపై	-8.34994
▁నగర్	-8.35062
▁వర్షాలు	-8.35193
ాలను	-8.35233
▁చేశాడు	-8.35533
▁సమయం	-8.3563
▁బాగా	-8.3576
▁..	-8.35873
పో	-8.35875
▁చ	-8.35875
▁మరోసారి	-8.36061
వీ	-8.36271
న్నారు	-8.36273
▁ర్	-8.36463
/	-8.36834
▁తాము	-8.36863
▁ప్రజలకు	-8.36964
▁ఎక్స్	-8.37029
▁రిలీజ్	-8.3705
▁ఉంటాయి	-8.37084
▁హైకోర్టు	-8.37429
▁మోడీ	-8.37604
యి	-8.37826
లేదని	-8.3783
▁24	-8.38076
▁ప్రాంతాల్లో	-8.38333
▁గుర్తు	-8.38382
ంత	-8.38537
మీ	-8.38615
▁హత్య	-8.38788
▁ప్రకటించారు	-8.38931
▁రైల్వే	-8.38935
సు	-8.38972
▁ప్రమాదం	-8.39269
▁కో	-8.39433
▁కొనుగోలు	-8.39469
▁వివిధ	-8.39615
▁25	-8.39834
▁ఇంటి	-8.40123
పి	-8.40156
డీ	-8.40269
దే	-8.4029
▁మరియు	-8.40518
ై	-8.40781
▁మీరు	-8.40818
▁పరుగులు	-8.40835
▁మార్కెట్	-8.40876
▁వైఎస్	-8.40916
టా	-8.4111
ణ	-8.41313
▁పోలింగ్	-8.41353
▁వ్యాఖ్యలు	-8.41513
▁బి	-8.41689
▁కే	-8.41792
▁మృతి	-8.424
ఆర్	-8.4245
▁భార్య	-8.42522
▁ఎంతో	-8.42627
▁డైరెక్టర్	-8.42903
▁ముందుకు	-8.43079
▁నిర్వహించారు	-8.43419
▁గంటలకు	-8.43462
నున్నారు	-8.43605
▁రోడ్డు	-8.4404
▁సంబంధించి	-8.44116
▁అమ్మ	-8.44213
▁వైపు	-8.44254
▁టికెట్	-8.44396
భ	-8.44416
▁జూన్	-8.44684
ی	-8.4486
▁హామీ	-8.44864
▁అంత	-8.4495
▁అనేది	-8.44979
▁అభ్యర్థి	-8.45206
▁శుక్రవారం	-8.45215
▁చైర్మన్	-8.45411
▁ఐదు	-8.45507
▁క్రికెట్	-8.45558
▁వివరించారు	-8.45887
▁2024	-8.46302
▁ము	-8.4632
సా	-8.464
ప్ప	-8.46593
▁లను	-8.46788
▁సోమవారం	-8.46891
▁2023	-8.46982
▁దీనిపై	-8.47103
▁వెళ్ల	-8.47176
లోకి	-8.47192
▁వాటిని	-8.47247
▁పడ	-8.47301
▁మరోవైపు	-8.47411
ఏ	-8.4744
▁ఎన్నికలు	-8.47536
▁సమస్య	-8.47707
▁50	-8.47824
టం	-8.47967
▁దీనికి	-8.48006
పీ	-8.48029
▁ఉంటుందని	-8.48042
▁ప్రకటన	-8.48071
ప్పుడు	-8.48083
▁పాత్ర	-8.48085
▁పెళ్లి	-8.48133
▁ప్రాంతంలో	-8.48141
ష	-8.48612
▁శ్రీనివాస్	-8.48685
▁బయటకు	-8.4906
▁అంచనా	-8.49159
▁చేస్తే	-8.49341
వు	-8.49401
▁బంగారం	-8.49446
▁ప్రశ్నించారు	-8.49762
▁జట్టు	-8.49779
▁సీ	-8.49862
ినట్లు	-8.50168
▁అండ్	-8.50214
▁వస్తే	-8.5055
▁సిబ్బంది	-8.50552
▁చేసేందుకు	-8.50559
▁ఇంట్లో	-8.50674
మో	-8.50677
ాడని	-8.50956
లోనే	-8.50965
▁పార్టీలో	-8.51113
▁తక్కువ	-8.51133
2	-8.51165
▁ఆరు	-8.51197
▁అధినేత	-8.51483
1	-8.51567
ేలా	-8.51826
▁కేసులు	-8.51837
▁బీ	-8.51858
▁13	-8.51924
ారా	-8.52132
▁స్	-8.52396
జా	-8.52549
▁పేర్కొంది	-8.52572
▁పేరుతో	-8.52632
▁కూటమి	-8.52847
▁ఎం	-8.52861
▁భ	-8.53136
▁సి	-8.53173
▁రద్దు	-8.53206
▁మద్దతు	-8.53295
▁హీరో	-8.53352
▁చీఫ్	-8.53361
▁ఆదివారం	-8.53375
ఐ	-8.53502
▁సాయంత్రం	-8.53516
▁ఇవ్వ	-8.53631
▁చేయడానికి	-8.53667
▁తేదీన	-8.53717
▁నేడు	-8.53852
ధ	-8.53918
▁అప్పటి	-8.54036
▁అన్న	-8.54054
▁వా	-8.54188
▁ఆరోపణలు	-8.54297
▁16	-8.54406
▁రైతులు	-8.54515
▁సహా	-8.54597
బీ	-8.546
▁ఐ	-8.54822
▁ఓటు	-8.54865
జి	-8.54899
ంద	-8.55036
▁య	-8.55125
▁జరిగే	-8.55138
▁అయ్యారు	-8.55179
!	-8.5519
▁స్థానిక	-8.55206
▁మంగళవారం	-8.55283
▁మండలం	-8.55355
ాల్సి	-8.554
▁సంజయ్	-8.55587
▁శనివారం	-8.55682
ైన	-8.55748
దని	-8.55951
▁ఉ	-8.5596
▁మాట్లాడ	-8.56263
▁ది	-8.56405
▁అధికార	-8.5656
▁చేశారని	-8.56574
కర్	-8.56576
▁17	-8.56588
▁ప్రపంచ	-8.56725
3	-8.56762
▁రాశి	-8.56869
▁పోస్ట్	-8.56978
పా	-8.57066
▁ఖర్చు	-8.57178
ుంది	-8.57237
తా	-8.57812
▁ఇజ్రాయెల్	-8.57965
▁కొంత	-8.58298
▁మహిళ	-8.58299
▁అలా	-8.58315
▁డి	-8.58371
▁కార్యక్రమంలో	-8.587
▁ఉండ	-8.5874
▁సా	-8.59034
▁బాబు	-8.59079
▁చేసుకున్న	-8.59124
▁సభ్యులు	-8.59479
▁పార్టీకి	-8.59671
▁చివరి	-8.59908
ು	-8.59995
▁ప్రాజెక్టు	-8.60024
▁అత్యంత	-8.60118
▁విమర్శించారు	-8.60229
నుంది	-8.60333
రం	-8.60521
ాను	-8.60662
▁వరకూ	-8.60941
▁దర్యాప్తు	-8.61003
▁బెంగళూరు	-8.6102
▁భారీగా	-8.61048
▁కర్ణాటక	-8.61091
▁అయినా	-8.61165
▁మాట్లాడారు	-8.61273
▁గురువారం	-8.61406
▁అక్కడి	-8.61419
▁22	-8.61594
ంగ్	-8.61865
బా	-8.61871
ందుకు	-8.61963
▁సమస్యలు	-8.61976
▁పార్లమెంట్	-8.62018
▁మహిళా	-8.62121
పల్లి	-8.62154
తు	-8.62212
▁విధంగా	-8.62463
7	-8.62605
తీ	-8.62738
ంతా	-8.62938
▁సూపర్	-8.62941
▁అరెస్టు	-8.63025
▁చికిత్స	-8.63025
▁మార్చి	-8.63277
▁ఎమ్మెల్సీ	-8.63361
▁రోజుల్లో	-8.63466
▁మె	-8.63483
▁చోటు	-8.63537
▁ఆడ	-8.63784
▁చేస్తామని	-8.63873
▁సర్వే	-8.63923
▁సంఖ్య	-8.63936
▁బీబీసీ	-8.63989
▁తయారు	-8.6407
▁ప్రభావం	-8.64474
ے	-8.64528
▁అక్రమ	-8.64617
▁ప్లాన్	-8.64625
▁కప్	-8.64627
▁లేని	-8.64722
▁వస్తున్న	-8.64735
▁భర్త	-8.64746
‍	-8.6476
▁భక్తులు	-8.64943
▁కథ	-8.64955
▁కావడంతో	-8.64969
▁మరి	-8.64984
▁రైతు	-8.65958
▁ప్రకటించింది	-8.65961
▁کے	-8.66024
▁తిరుమల	-8.66053
▁లా	-8.66084
▁ఎయిర్	-8.66199
యం	-8.66356
▁తమకు	-8.66385
▁బుధవారం	-8.66573
▁చేసినట్లు	-8.66712
▁స్థాయిలో	-8.6688
▁జీ	-8.67077
▁షర్మిల	-8.67279
▁సు	-8.67723
▁వాతావరణ	-8.67736
▁పి	-8.67834
▁ఈసారి	-8.67848
▁ఇవ్వాలని	-8.6798
▁రోజులు	-8.68186
▁తండ్రి	-8.68375
▁జరుగుతున్న	-8.68464
ున్న	-8.68547
▁డబ్బు	-8.68577
లోనూ	-8.68747
▁తీసుకున్న	-8.69075
▁ముఖ్యంగా	-8.69106
▁కళ్యాణ్	-8.69121
కొ	-8.69188
6	-8.69303
▁అంటున్నారు	-8.69451
▁మండిపడ్డారు	-8.69477
▁బెయిల్	-8.69485
▁నాకు	-8.69548
▁వరల్డ్	-8.6957
▁అసలు	-8.69676
▁బా	-8.69816
ాల్సిన	-8.69954
ౌ	-8.70147
▁సిరీస్	-8.70313
▁విమర్శలు	-8.70417
నో	-8.70558
▁ఆరోగ్య	-8.70593
ించ	-8.70619
▁సమావేశం	-8.70769
టర్	-8.70821
తోపాటు	-8.70984
▁ఆన్	-8.71064
ంటే	-8.71137
▁చేయాలి	-8.71173
▁జిల్లాల్లో	-8.71354
▁గో	-8.71784
▁గ్రూప్	-8.71817
▁బడ్జెట్	-8.72007
▁విషయాన్ని	-8.72018
ప్పటికీ	-8.72077
▁ఇబ్బందులు	-8.72167
▁ప్రజా	-8.72534
▁పూర్తిగా	-8.72696
▁చేర	-8.7282
▁ఉన్నట్లు	-8.72823
▁ఏప్రిల్	-8.73002
▁ధరలు	-8.73072
▁میں	-8.73153
▁ఇంటికి	-8.73317
▁నరేంద్ర	-8.73441
▁పిటిషన్	-8.73512
e	-8.73515
▁వరంగల్	-8.73713
▁వరద	-8.73775
▁21	-8.73952
▁డబ్బులు	-8.74254
▁ఒకటి	-8.74309
▁కట్ట	-8.74366
▁ఇప్పటి	-8.74462
▁వైద్య	-8.74546
▁కారు	-8.74648
▁చేసారు	-8.7506
▁ప్రేమ	-8.75073
స్ట్	-8.75135
▁రాజ్	-8.75173
▁సైతం	-8.75196
▁వచ్చాయి	-8.7532
▁పార్టీల	-8.75397
▁ఈరోజు	-8.75454
ొ	-8.75712
ا	-8.75733
▁మార	-8.75795
వారు	-8.75818
▁రాజీనామా	-8.75976
▁ఉండగా	-8.7627
▁2019	-8.76587
చి	-8.76681
▁మందికి	-8.7683
▁అధికారి	-8.76863
▁చైనా	-8.76893
▁జా	-8.76923
o	-8.76948
▁పా	-8.76958
ఆ	-8.7698
▁ఉమ్మడి	-8.77069
▁స్థానంలో	-8.77233
వర్	-8.7724
▁కవిత	-8.77248
వో	-8.77272
ింగ్	-8.77373
▁దీన్ని	-8.77408
00	-8.77419
▁చేసుకున్నారు	-8.7743
▁ప్రముఖ	-8.77677
0	-8.7785
▁పరీక్ష	-8.77872
▁ట్వీట్	-8.77971
▁పలువురు	-8.78072
▁కల్యాణ్	-8.78315
▁వర్షం	-8.78371
▁కొ	-8.78513
▁కాబట్టి	-8.7858
క్ష	-8.78685
▁సమావేశంలో	-8.78972
▁లాంటి	-8.79034
▁డ	-8.79078
▁సొంత	-8.79107
▁విద్యుత్	-8.7917
వచ్చు	-8.79465
ుకునే	-8.7987
▁బస్సు	-8.80053
▁کی	-8.80316
▁సెంటర్	-8.80409
▁ఇబ్బంది	-8.80427
▁తీసుకున్నారు	-8.80572
s	-8.80573
ామన్నారు	-8.80622
▁పో	-8.80685
ుకున్న	-8.80731
▁ఇవాళ	-8.8074
▁పెంచ	-8.8095
డా	-8.81014
▁ఆయనకు	-8.81202
▁తగ్గ	-8.81299
▁లే	-8.81397
▁ఇచ్చింది	-8.81533
ుకుని	-8.81596
▁కారణం	-8.81641
▁మి	-8.81692
▁పది	-8.81697
▁రైలు	-8.81749
రెడ్డి	-8.81871
▁నెలల	-8.81881
▁పోలీసులకు	-8.81917
▁అలాంటి	-8.82032
▁వీ	-8.82035
9	-8.82064
4	-8.82092
▁పాకిస్తాన్	-8.82112
▁స్వామి	-8.82222
▁ప్రయత్నం	-8.82504
▁చేస్తారు	-8.82543
ళ్ల	-8.82585
▁రామ	-8.82633
▁షేర్	-8.82834
▁సభలో	-8.82965
▁స్థాయి	-8.83039
▁బండి	-8.83063
▁సీట్లు	-8.83126
▁ఎంపిక	-8.8322
▁వ్యాప్తంగా	-8.83298
▁వాళ్లు	-8.83504
▁తల్లి	-8.83549
యో	-8.83682
▁నీరు	-8.83715
5	-8.83727
▁ఎన్టీఆర్	-8.838
▁ఒకే	-8.8382
ట్ట	-8.83849
▁40	-8.83896
▁అక్టోబర్	-8.83973
▁ఐటీ	-8.83991
పూర్	-8.8402
▁ఎన్నో	-8.84023
▁డిసెంబర్	-8.84185
▁బీసీ	-8.84362
▁మనం	-8.84363
▁బీఆర్	-8.84429
▁ఖమ్మం	-8.84449
▁పెట్టి	-8.84454
న్నీ	-8.84555
▁ఫ	-8.846
▁క్యాప్షన్	-8.84963
..?	-8.85016
▁ఆగ్రహం	-8.85069
▁వస్తుంది	-8.85126
▁కాలంలో	-8.85195
▁నిర్వహించిన	-8.85206
▁అందుబాటులో	-8.85286
▁కమిషన్	-8.85394
ుకోవడం	-8.85409
▁సో	-8.85431
ంచ	-8.85453
▁పార్టీలు	-8.85506
ఎం	-8.85586
▁యాదవ్	-8.85736
▁తీవ్రంగా	-8.85795
▁సెప్టెంబర్	-8.85806
డమే	-8.85918
▁కాదని	-8.85976
▁పోలీసు	-8.85998
▁సీబీఐ	-8.86161
ద్ద	-8.86355
▁మాట	-8.86375
▁రైతుల	-8.86388
గానే	-8.86451
▁తెలిసింది	-8.8661
▁ఆధ్వర్యంలో	-8.86705
గు	-8.86825
య్	-8.86878
▁ఎవరు	-8.86907
▁ఈడీ	-8.86931
వ్వ	-8.86935
క్క	-8.8694
▁లోకి	-8.8709
▁డీ	-8.87102
▁సినిమాలో	-8.87186
▁అతి	-8.87275
ండ	-8.87467
▁అమిత్	-8.87477
▁ముగ్గురు	-8.87487
▁గవర్నర్	-8.87488
a	-8.87663
▁వాడ	-8.87787
▁వాళ్ల	-8.87884
టు	-8.88111
▁చేస్తున్నారని	-8.88182
నని	-8.88193
▁భూమి	-8.8822
ుగా	-8.88222
▁బ్యాంక్	-8.88257
▁పట్ట	-8.88408
దీ	-8.8865
ుల	-8.88684
లుగా	-8.887
▁రీ	-8.88763
▁ముఖ్య	-8.88802
▁ఉండాలని	-8.88825
▁పోలీసుల	-8.88857
ہ	-8.88895
▁ఎల్	-8.88942
▁100	-8.89024
▁ప్రెస్	-8.89047
▁ఇంత	-8.89124
▁మహిళలు	-8.89148
▁గుర్తించారు	-8.89182
▁అవ	-8.89244
▁మో	-8.89255
▁బోర్డు	-8.89278
▁కార్యదర్శి	-8.89316
బి	-8.89341
▁చెప్పిన	-8.89348
ر	-8.89351
▁ప్రభుత్వానికి	-8.89363
▁నియోజకవర్గంలో	-8.89438
▁వ్యవస్థ	-8.89449
▁రామ్	-8.89578
▁తిరుపతి	-8.89636
▁రాష్ట్రాల	-8.89674
▁మద్యం	-8.89763
▁కోర	-8.89804
▁వివరాలు	-8.89933
వేల	-8.8997
▁సుప్రీంకోర్టు	-8.90073
▁శ	-8.90081
▁మధ్యాహ్నం	-8.90205
▁రైతులకు	-8.90251
▁దాఖలు	-8.90286
▁సీజన్	-8.90298
▁మహా	-8.90362
▁శివ	-8.90571
▁పంచ	-8.90643
▁బాధ్యత	-8.90775
▁ఉన్నాయని	-8.9083
▁సంఘం	-8.90858
▁తీసుకోవాలని	-8.90928
▁చేస్తోంది	-8.90991
▁చి	-8.90997
యూ	-8.91
▁తనను	-8.91078
ుతోంది	-8.91079
ఎల్	-8.91079
▁ఖాన్	-8.91467
▁ఎక్కడ	-8.91583
▁పరిధిలో	-8.91607
▁రూపాయల	-8.91649
▁రాష్ట్రాల్లో	-8.91904
▁ఉన్నా	-8.91916
▁మార్పు	-8.91986
▁స్కూల్	-8.92032
▁సుమారు	-8.92174
▁అనుమతి	-8.9218
▁వెల్లడించింది	-8.92255
ప్ర	-8.92288
▁అందరూ	-8.924
▁నవంబర్	-8.92462
▁రోహిత్	-8.92475
▁లేక	-8.93104
▁భద్రత	-8.93129
ష్ట	-8.93293
రె	-8.93528
▁ఢిల్లీలో	-8.93575
▁చేస్తుంది	-8.93815
▁కొడుకు	-8.93826
▁అవకాశాలు	-8.94037
ారన్నారు	-8.94114
▁వెబ్	-8.94145
▁మూడో	-8.94238
▁అతను	-8.94257
▁వాటి	-8.94277
▁న్యూస్	-8.9441
▁28	-8.94463
▁పంట	-8.94574
▁రావడం	-8.94602
▁వారం	-8.94622
▁అందరి	-8.94684
▁వేసి	-8.94705
తే	-8.94771
▁పీ	-8.94925
ారో	-8.95027
▁ఆధారంగా	-8.95115
కర	-8.95336
▁పంప	-8.95592
▁కృష్ణ	-8.95638
▁గ్రామంలో	-8.95696
▁తా	-8.95735
▁నీటి	-8.95815
ంగ	-8.95889
▁శర్మ	-8.95949
▁ఆదేశించారు	-8.96069
▁రాజు	-8.96118
▁తీర్పు	-8.96136
▁ఆత్మహత్య	-8.96274
గి	-8.96306
▁చిత్రం	-8.96308
ితే	-8.96436
▁అవి	-8.96442
▁చూసి	-8.96652
▁23	-8.96792
▁భారతీయ	-8.96981
▁రూపాయలు	-8.97033
ದ	-8.97115
▁వేదికగా	-8.9723
▁ప్రతిపక్ష	-8.97312
▁రాష్ట్రం	-8.97378
▁పంపిణీ	-8.97492
▁మార్చ	-8.97609
▁లోకేష్	-8.97615
నం	-8.97731
▁దేశం	-8.97783
▁27	-8.97793
▁గుర్తింపు	-8.9786
▁జిల్లాలోని	-8.97901
▁కె	-8.9803
థ	-8.98071
▁నేషనల్	-8.98112
▁పట్ల	-8.98144
▁ఏర్పాట్లు	-8.98219
▁పేపర్	-8.98234
▁సంవత్సరం	-8.98263
▁షాక్	-8.9831
▁జనవరి	-8.9837
▁ఆస్ట్రేలియా	-8.98459
▁అధిక	-8.98513
▁తల	-8.98564
▁పాలన	-8.98609
▁విద్యార్థులు	-8.98706
ుతుంది	-8.98867
▁సామాజిక	-8.9894
▁ట్రాఫిక్	-8.98972
కూ	-8.99113
▁రష్యా	-8.99127
చే	-8.99279
▁నిరసన	-8.99283
ఇ	-8.99302
▁క్రితం	-8.99349
ోంది	-8.99352
▁సరైన	-8.99359
హా	-8.99419
▁ఆదాయం	-8.9949
▁యాత్ర	-8.99517
ఓ	-8.99534
▁కృషి	-8.99595
▁ఆర్టీసీ	-8.99603
▁ఫ్యాన్స్	-8.99679
▁చూప	-8.9973
▁ఆగస్టు	-8.99924
▁హెచ్	-8.99944
▁ముంబై	-9.00128
▁ఉప	-9.00135
▁అంతర్జాతీయ	-9.00136
▁దక్షిణ	-9.00154
▁సం	-9.00186
▁26	-9.00291
▁విజయ్	-9.00347
▁కెప్టెన్	-9.00534
ుతున్న	-9.00543
▁అందుకు	-9.00552
▁సర్కార్	-9.00606
▁సాయం	-9.00608
▁ఇచ్చి	-9.00646
و	-9.00663
.1	-9.00863
▁ఎమ్మెల్యేలు	-9.00912
ుకొని	-9.00987
▁నిన్న	-9.01045
▁పెట్టారు	-9.01073
▁అయింది	-9.01159
▁చెప్పింది	-9.01162
R	-9.01238
▁సంగతి	-9.0124
▁మార్పులు	-9.01248
ుకున్నారు	-9.01287
▁కేంద్రంలో	-9.0139
▁యా	-9.014
▁చె	-9.01406
A	-9.01466
▁మంత్రులు	-9.01528
▁కూడిన	-9.01632
▁వెనుక	-9.01645
ైనా	-9.01684
▁ఎవరి	-9.01686
▁వాయిదా	-9.01745
▁టీమ్	-9.01787
▁ఉండాలి	-9.0197
▁ఐపీఎల్	-9.02001
కం	-9.0205
▁ఇచ్చే	-9.02232
▁కమిషనర్	-9.02257
▁ప్రారంభించారు	-9.02305
▁నియోజకవర్గం	-9.02378
▁ఆలోచన	-9.02464
ఫ	-9.02492
▁రకాల	-9.0265
ుతూ	-9.0273
▁పండుగ	-9.02769
▁వచ్చారు	-9.02795
▁సినీ	-9.02853
▁కరీంనగర్	-9.02902
▁ఎవరూ	-9.02923
▁కనీసం	-9.03014
▁అయ్యింది	-9.03077
▁అవినీతి	-9.03089
8	-9.03144
ంట	-9.03164
y	-9.03323
▁సిటీ	-9.03402
షన్	-9.03418
▁గ్రామ	-9.03452
▁ప్రారంభం	-9.04189
గల	-9.04298
▁కావడం	-9.04299
▁పాత	-9.04364
▁అవుతుంది	-9.04426
▁పిల్లలు	-9.04583
▁వ్యతిరేకంగా	-9.04656
▁అర్థం	-9.04693
▁సీటు	-9.04753
▁నుంచే	-9.04765
గో	-9.04771
▁కార్	-9.04822
ించారు	-9.04923
▁మండల	-9.05052
ాలంటే	-9.05061
ల్లా	-9.05099
▁మున్సిపల్	-9.05256
▁అధికారుల	-9.05386
▁భూ	-9.05524
▁ఇవి	-9.05547
ాల్లో	-9.0557
▁నష్టం	-9.05641
▁రాజధాని	-9.05654
▁న్	-9.05655
▁వేశారు	-9.05665
▁కుటుంబం	-9.05688
▁కామెంట్స్	-9.05802
▁డే	-9.05949
▁దృష్టి	-9.06155
▁కోహ్లీ	-9.06187
C	-9.06193
▁చాలామంది	-9.06394
▁తరలించారు	-9.06402
▁అంతా	-9.06527
i	-9.06551
్ని	-9.06784
▁దరఖాస్తు	-9.06846
▁ప్రతీ	-9.06919
ిస్తూ	-9.06956
▁సంక్షేమ	-9.07014
▁బ్యాంకు	-9.07315
▁మహిళల	-9.0732
▁ఏడు	-9.07341
▁పాట	-9.07607
▁గౌడ్	-9.07632
ఎన్	-9.07693
▁మేం	-9.07788
▁నీళ్లు	-9.07849
▁ఆసక్తి	-9.07978
S	-9.08072
▁లలో	-9.08114
▁పొత్తు	-9.08359
▁ఒ	-9.08413
ళ్లు	-9.08465
▁కార్యకర్తలు	-9.08476
▁నంబర్	-9.08497
▁వేళ	-9.08661
▁చెంద	-9.08797
చ్	-9.08846
చ్చ	-9.08945
▁ఓట్ల	-9.0895
▁ఆయా	-9.09001
ించిన	-9.09028
▁ఓట్లు	-9.09216
తం	-9.09239
,000	-9.09241
▁తి	-9.09288
▁నాయుడు	-9.09374
▁నిధులు	-9.09439
▁లక్షలు	-9.09461
▁ప్రయత్నాలు	-9.0953
▁బ్యాటింగ్	-9.09587
▁వెళ్లే	-9.09589
▁పథకం	-9.09612
▁ప్రజలను	-9.09618
▁సబ్	-9.09746
▁ఒత్తిడి	-9.09798
▁తీసుకుని	-9.10027
.2	-9.10088
ాలన్నారు	-9.10091
▁భేటీ	-9.10198
▁ఉంచ	-9.10307
▁చేపట్టారు	-9.10326
▁డిప్యూటీ	-9.10417
▁నిర్మాణం	-9.10437
▁కిషన్	-9.10476
▁బో	-9.10484
.5	-9.10531
▁ఆదేశాలు	-9.10553
▁రోడ్	-9.10605
ళ	-9.10625
▁చేపట్టిన	-9.10654
▁పదవి	-9.1066
▁ముందే	-9.10734
స్త	-9.10762
▁హా	-9.1082
▁సె	-9.10931
▁కొట్ట	-9.1094
▁చోట్ల	-9.10956
▁దు	-9.10967
▁షెడ్యూల్	-9.10976
▁దిగ	-9.11004
▁చట్టం	-9.11024
D	-9.11126
ರ	-9.11185
▁నిపుణులు	-9.11212
▁దాడులు	-9.11247
▁సారి	-9.1126
▁ఒకరు	-9.1131
▁నేతల	-9.11346
▁చెన్నై	-9.1136
▁నివేదిక	-9.11441
▁త్వరలో	-9.11533
▁బ్లాక్	-9.11538
▁ఫస్ట్	-9.11559
▁సంవత్సరాల	-9.11617
▁ఫుడ్	-9.11634
▁స్వాధీనం	-9.11679
▁పర్యటన	-9.11784
▁ఉంటారు	-9.11797
▁దేశాల	-9.1184
▁చేసుకుంది	-9.11983
▁వేయ	-9.1205
▁అభ్యర్థులు	-9.12064
▁విజయవాడ	-9.1208
▁ప్రైవేట్	-9.12245
▁కాలం	-9.12277
▁అప్	-9.12372
▁సాగు	-9.12443
م	-9.12512
▁వ్యవసాయ	-9.12512
▁జరగ	-9.12636
▁31	-9.12644
▁ఉత్తర	-9.12719
▁సేవ	-9.12771
▁గుజరాత్	-9.13115
డే	-9.13119
▁లకు	-9.13143
▁టార్గెట్	-9.13244
కె	-9.13251
▁వై	-9.13298
▁టీమిండియా	-9.13387
▁కొత్తగా	-9.13404
▁త్వరలోనే	-9.13428
▁స్పెషల్	-9.13549
▁అభిమానులు	-9.13736
ఖ	-9.13759
▁ఓటమి	-9.13836
▁సార్లు	-9.13923
▁రికార్డు	-9.14034
▁బాధ్యతలు	-9.14064
ର	-9.14082
ందని	-9.14116
▁నిర్వహిస్తున్న	-9.14127
▁ఖ	-9.14211
▁ప్రస్తుత	-9.14296
▁విలువ	-9.14395
▁సంఖ్యలో	-9.14407
▁అదుపులోకి	-9.14453
▁పడి	-9.14466
టో	-9.1459
▁బహిరంగ	-9.14594
▁ఉచిత	-9.14746
▁ఇప్పటివరకు	-9.14758
▁వే	-9.14989
▁ఎందుకంటే	-9.15006
ା	-9.15043
▁ఇండియన్	-9.15272
▁గు	-9.15275
▁2014	-9.15292
u	-9.15367
▁ఎన్నికలకు	-9.15439
పడ	-9.15472
గం	-9.15521
▁హై	-9.15646
ూరు	-9.15734
▁జైలు	-9.15744
▁నోటీసులు	-9.15772
▁కనిపించ	-9.15836
మె	-9.16005
ఎ	-9.16122
▁తప్పు	-9.16286
▁తీర	-9.16452
▁రేపు	-9.16488
▁చా	-9.16507
▁ఏదైనా	-9.16597
▁2022	-9.1661
▁విశాఖ	-9.16676
▁శిక్ష	-9.16728
▁వె	-9.16891
షా	-9.16899
రావు	-9.17008
▁29	-9.17025
▁పరుగుల	-9.17045
ారనే	-9.17173
▁కాపాడ	-9.17249
▁దానికి	-9.17372
▁?	-9.17431
▁దాన్ని	-9.175
ل	-9.17511
క్స్	-9.17595
▁షో	-9.17629
▁సాగ	-9.17654
ున్నారు	-9.17659
లేని	-9.17667
▁స్పందించారు	-9.17752
▁మెడికల్	-9.17797
▁పవర్	-9.17884
లం	-9.17902
▁విద్యా	-9.18014
▁ఉన్నారని	-9.18019
▁ప్రపంచంలో	-9.18112
▁చెక్	-9.18147
▁ట	-9.18193
▁తదితరులు	-9.18205
▁ఒక్కో	-9.18352
▁నెలలో	-9.18367
▁ఫలితాలు	-9.18551
ాలకు	-9.18633
▁వర్క్	-9.1869
▁కేజ్రీవాల్	-9.18694
▁వెళ్లిన	-9.18808
..!	-9.18812
▁కలిపి	-9.18845
▁చిరంజీవి	-9.18846
▁అందించ	-9.1885
▁తెలుగుదేశం	-9.18851
▁నేరుగా	-9.18853
▁జో	-9.18914
హి	-9.18915
▁సంబంధం	-9.18967
▁పెరిగింది	-9.19036
తోనే	-9.19068
ట్ల	-9.19089
▁హీరోయిన్	-9.19127
బో	-9.19141
▁పూర్	-9.19162
▁లోనే	-9.19188
▁పిల్లల	-9.19231
▁గుడ్	-9.19355
▁సాధించ	-9.19639
▁దాంతో	-9.19645
ిక	-9.19682
▁దేశవ్యాప్తంగా	-9.19779
▁రావడంతో	-9.19828
▁లక్ష	-9.19938
▁నమ్మ	-9.20039
▁దూరంగా	-9.20066
▁టాప్	-9.20239
▁పె	-9.20261
▁కాస్త	-9.20336
▁రక్షణ	-9.20415
ుందని	-9.20505
▁కలిగి	-9.2051
▁నాటికి	-9.2082
▁లక్ష్యంగా	-9.20928
ందా	-9.20931
▁టెస్ట్	-9.21002
▁తాజా	-9.21076
p	-9.21128
▁పొంద	-9.21147
▁యూ	-9.21195
▁నిర్వహించ	-9.21261
▁కోల్	-9.21306
ాలనే	-9.21338
▁ఖాళీ	-9.21445
M	-9.21501
▁మోహన్	-9.21536
ంటూ	-9.21544
▁మిగిలిన	-9.21572
▁బీజేపీకి	-9.21597
▁బరువు	-9.21613
▁మంజూరు	-9.21631
▁అన	-9.21667
▁A	-9.21752
▁రో	-9.21776
▁జనరల్	-9.21927
▁వెళ్లారు	-9.2222
▁నిద్ర	-9.22307
▁బయట	-9.22472
▁ఉండి	-9.22577
▁పు	-9.22578
▁వికెట్లు	-9.22597
ుకుంది	-9.2274
▁చేపట్ట	-9.22861
▁అవగాహన	-9.22868
▁మిగతా	-9.22868
▁పక్కన	-9.22919
▁అప్పుడు	-9.23052
▁అధికారులకు	-9.23171
▁జరుగుతోంది	-9.23212
▁సిద్ధం	-9.23216
▁లేఖ	-9.23267
▁అటు	-9.23601
▁ఉండటంతో	-9.23655
▁ప్రాజెక్ట్	-9.2366
▁అర్జున్	-9.23671
▁60	-9.23746
▁సాధారణ	-9.23785
▁సైట్	-9.23798
▁ప్రారంభించ	-9.23884
▁కిలోమీటర్ల	-9.24067
▁కనిపిస్తోంది	-9.24144
h	-9.24291
▁మోసం	-9.24298
▁کو	-9.24407
▁న్యాయం	-9.24447
t	-9.24448
▁నారా	-9.24479
▁ప్రాధాన్యత	-9.24499
▁వీరి	-9.24574
▁యూనివర్సిటీ	-9.24602
▁నిర్వహణ	-9.24614
▁ప్రెసిడెంట్	-9.24781
▁నీ	-9.24894
▁శక్తి	-9.24946
▁చెల్లించ	-9.25044
▁ఎన్ని	-9.25094
▁స్టేట్	-9.25123
▁జరుగుతుంది	-9.25156
▁సంఘటన	-9.25292
▁కొంతమంది	-9.25306
▁అమరావతి	-9.25342
▁బుక్	-9.25373
▁చరిత్ర	-9.25419
ఎఫ్	-9.25468
▁వారిలో	-9.25497
▁హిట్	-9.25517
▁అధికారులను	-9.25561
▁కౌంటర్	-9.25588
▁సంస్థలు	-9.25591
▁కార్యక్రమం	-9.25606
▁దారి	-9.25625
▁ఉండటం	-9.25811
▁పరిస్థితులు	-9.25856
▁దక్క	-9.25904
త్త	-9.25924
▁అధికారం	-9.26
▁ప్రకటించిన	-9.26014
▁చూడ	-9.2608
▁అల్లు	-9.26162
▁మేము	-9.26277
▁డబుల్	-9.26415
▁ప్రక్రియ	-9.26486
▁ఫైనల్	-9.26496
ుకోవడానికి	-9.26502
▁వేసిన	-9.26541
▁ఒక్కసారి	-9.26583
▁వేలు	-9.26585
▁వేగంగా	-9.26599
▁తీసుకోవడం	-9.26623
▁విజయ	-9.2665
▁టీటీడీ	-9.26658
▁చేయనున్నారు	-9.26682
▁సరఫరా	-9.2673
▁మీటింగ్	-9.26772
▁సాయి	-9.26864
▁ప్రభుత్వాన్ని	-9.27089
సం	-9.27138
▁టి	-9.27169
▁వేసింది	-9.27188
▁పూజ	-9.27201
ారెడ్డి	-9.27204
ంతో	-9.2722
ుకుంట	-9.27249
▁ముందుగా	-9.27261
▁గెలుపు	-9.27265
రూ	-9.27508
▁ప్రత్యేకంగా	-9.27728
▁పాల	-9.27751
ణి	-9.27788
▁బ్ర	-9.27918
ొచ్చు	-9.27926
▁ఏకంగా	-9.28013
▁ఫిబ్రవరి	-9.28096
▁S	-9.28104
▁ఎప్పుడూ	-9.28231
▁ఆలయ	-9.28284
ుతుందని	-9.28306
▁ఎత్తున	-9.28469
ుకునేందుకు	-9.28521
▁వివేక్	-9.28552
▁హక్కు	-9.2858
▁డా	-9.28614
▁సంచలన	-9.28662
୍	-9.28705
▁స్థానికులు	-9.28724
▁యాప్	-9.28799
▁پر	-9.28812
▁నిజామాబాద్	-9.28886
▁హౌస్	-9.28886
▁బిజెపి	-9.29054
టింగ్	-9.29119
సే	-9.2922
▁అవసరమైన	-9.29238
▁హెచ్చరించారు	-9.29248
ుకోవాలని	-9.29275
▁అయి	-9.2931
▁చేస్తున్నట్లు	-9.29369
బు	-9.29372
▁వీటిని	-9.29394
▁నెట్	-9.29418
▁చేయగా	-9.29647
న్స్	-9.29648
జర్	-9.29672
▁పశ్చిమ	-9.29728
▁అభ్యర్థుల	-9.29783
▁కావాలని	-9.29842
▁కొనసాగ	-9.29911
ిస్తే	-9.29926
▁రోజున	-9.29928
▁పరిధిలోని	-9.29935
▁వస్తుందని	-9.29973
ిస్తున్న	-9.30012
▁గుర్తించ	-9.30066
▁హరీశ్	-9.30067
▁హాస్పిటల్	-9.30079
g	-9.30093
▁ప్రశ్న	-9.30127
▁దర్శకుడు	-9.30243
▁చేసుకుని	-9.30246
▁వ్యాఖ్యానించారు	-9.30268
▁దా	-9.3029
▁పడింది	-9.30365
▁స్పీకర్	-9.30406
▁ఎస్సీ	-9.30463
▁ఉపయోగించ	-9.30529
▁రాష్ట్రంలోని	-9.30607
▁రోజులుగా	-9.3061
▁కార్డు	-9.30624
జే	-9.3068
▁రాజ	-9.30736
▁సికింద్రాబాద్	-9.30778
▁కొద్ది	-9.308
▁ఆమెను	-9.30855
▁లిక్కర్	-9.30918
▁ఓవర్	-9.30941
▁రె	-9.30958
▁మీకు	-9.31108
▁జీవితంలో	-9.31163
▁అయ్యాయి	-9.3118
▁అధికారిక	-9.31259
▁జస్టిస్	-9.31261
▁హిందూ	-9.31272
నున్న	-9.31345
మెంట్	-9.3135
▁తెగ	-9.31372
మై	-9.31465
▁اس	-9.31485
▁ఫుల్	-9.31513
▁డ్రైవర్	-9.3154
స్తూ	-9.31553
▁సమాధానం	-9.31694
▁భావిస్తున్నారు	-9.31711
హ్	-9.31718
▁ఇక్కడి	-9.31738
▁చొప్పున	-9.3195
▁ఉత్పత్తి	-9.31951
▁వరుసగా	-9.31969
▁విలువైన	-9.31973
▁అందరికీ	-9.32029
▁వర్గాల	-9.3216
▁నాటి	-9.32275
▁నిర్మించ	-9.3228
▁పెట్టిన	-9.3242
▁ఎటువంటి	-9.32474
▁న్యాయ	-9.32493
▁నే	-9.32509
▁చంప	-9.326
▁సర్కారు	-9.32647
ି	-9.3281
▁మేకర్స్	-9.3282
▁రానున్న	-9.32826
▁స్థానాల్లో	-9.32835
▁న్యూఢిల్లీ	-9.32837
▁తీసుకుంది	-9.32837
▁డ్రగ్స్	-9.32884
▁గొప్ప	-9.32948
న్నాయి	-9.32998
▁బంగ్లాదేశ్	-9.33013
▁నిర్మాణ	-9.33086
س	-9.33088
▁కొండ	-9.3309
▁జి	-9.33238
▁లి	-9.33279
▁ఎఫ్	-9.33292
▁చేతిలో	-9.33338
⁭	-9.33343
▁నెలకొంది	-9.33343
▁చెప్పి	-9.33376
▁చేయడంతో	-9.33392
I	-9.33397
▁సమీపంలో	-9.33402
ంబ	-9.33432
▁డీకే	-9.33444
▁2018	-9.33544
ంటి	-9.33598
▁పన్ను	-9.33671
▁తగిన	-9.33673
ేష్	-9.33673
▁చూసిన	-9.33698
రని	-9.3394
▁నల్గొండ	-9.34046
▁పర్	-9.34052
▁జనం	-9.34095
▁చేసినా	-9.3422
ిస్తున్నారు	-9.34227
▁బై	-9.34245
▁అంతే	-9.34268
▁ఎస్పీ	-9.34285
ించి	-9.34336
▁మొబైల్	-9.344
▁م	-9.345
▁ఇవ్వడం	-9.34624
▁షూటింగ్	-9.34756
▁ప్రసాద్	-9.34777
ేవారు	-9.34793
▁ఇద్దరి	-9.34806
▁ఇప్పటికీ	-9.3486
▁మీడియాతో	-9.34969
an	-9.34987
నగర్	-9.35073
▁అవార్డు	-9.35114
▁కామారెడ్డి	-9.35115
రాజు	-9.35238
▁స్థానం	-9.35239
▁నో	-9.35261
P	-9.3546
▁చుట్టూ	-9.35504
▁షిప్	-9.3556
▁అవుతున్న	-9.35636
▁టెక్నాలజీ	-9.35648
▁కరోనా	-9.35648
▁నోటిఫికేషన్	-9.35651
▁వార్తలు	-9.35693
▁ఆటో	-9.35699
T	-9.3573
▁నాడు	-9.35731
▁వ్యక్తులు	-9.35742
▁కోర్టులో	-9.35835
▁ఫైర్	-9.35926
▁ఉద్యోగులు	-9.35965
▁ఆవేదన	-9.36008
▁సమస్యలను	-9.36024
్య	-9.36045
ుకుంటూ	-9.36056
▁ప్రమాద	-9.36072
▁రవాణా	-9.36187
▁ఇన్నింగ్స్	-9.36188
▁నలుగురు	-9.36188
▁మహారాష్ట్ర	-9.36202
▁సెల్	-9.36232
▁యువత	-9.36235
ేశారు	-9.36347
▁భక్తుల	-9.36361
యే	-9.36465
▁ఇచ్చ	-9.36508
▁సంబంధిత	-9.36551
▁వర్గాలు	-9.36589
▁బాధ	-9.36609
▁చర్చలు	-9.36616
షి	-9.36821
భా	-9.36831
▁జరగనున్న	-9.36834
▁విచారణకు	-9.36877
▁బౌలింగ్	-9.36913
▁గుండె	-9.37021
m	-9.3704
▁మహిళలకు	-9.37073
ంట్	-9.37118
ుడి	-9.37138
▁ఇంటర్	-9.37145
▁టాక్	-9.37238
▁ఇరు	-9.37267
▁దిశగా	-9.37366
ద్ధ	-9.37414
▁సక్సెస్	-9.37458
▁చేర్చ	-9.37483
▁లేదన్నారు	-9.37575
▁సాధించిన	-9.37632
ରେ	-9.3764
▁ప్రొఫెసర్	-9.37641
▁దూరం	-9.3766
▁రెడీ	-9.37665
▁అకౌంట్	-9.37675
▁వివరాల	-9.37725
▁ఆమెకు	-9.37734
▁బదిలీ	-9.37766
చు	-9.37789
in	-9.37807
▁సై	-9.37844
▁నాయకుడు	-9.3786
▁బైక్	-9.37872
▁మొదట	-9.37925
▁పూజలు	-9.37929
▁ఆట	-9.37987
▁రాజస్థాన్	-9.38007
▁వాటర్	-9.38046
▁సూర్య	-9.38072
▁భవన్	-9.38081
▁ఉద్యోగం	-9.38089
▁ఆల్	-9.38172
శ్	-9.38172
▁టౌన్	-9.38191
▁బాలీవుడ్	-9.38191
▁తమిళనాడు	-9.38373
▁ట్రంప్	-9.38375
▁మిషన్	-9.38417
▁చేరుకున్న	-9.38485
50	-9.38517
▁టాలీవుడ్	-9.3856
▁వన్డే	-9.38614
మైంది	-9.38632
▁చేయించ	-9.3864
▁మెట్రో	-9.38751
▁గోదావరి	-9.38762
▁తెర	-9.3877
▁నాగ	-9.38877
రాజ్	-9.38902
▁బిల్లు	-9.38902
ాక	-9.38921
▁పనిచేస్తున్న	-9.38952
▁ఆహారం	-9.38971
ೇ	-9.39084
▁అందుబాటులోకి	-9.39114
▁సర్	-9.39128
▁శ్రీవారి	-9.39137
▁గాలి	-9.39183
▁కానుంది	-9.39194
▁ఆఫీసర్	-9.3927
▁తిన	-9.39288
▁పాస్	-9.39289
వారి	-9.39359
▁ఉందన్నారు	-9.39366
▁కర్ణాటకలో	-9.39425
▁ప్లే	-9.39433
▁ఆరోగ్యం	-9.3947
▁రవి	-9.39514
▁జులై	-9.39593
▁ఫ్యామిలీ	-9.39674
▁వెంట	-9.39769
▁ఫర్	-9.39773
▁వివరాలను	-9.39805
▁పోరాటం	-9.39915
▁క్	-9.40034
ೆ	-9.40075
▁అత్యధిక	-9.40149
ک	-9.40174
టే	-9.40201
ుకుంటున్న	-9.40228
▁ప్రభాకర్	-9.40242
▁సెంట్రల్	-9.40424
▁అనుకూలంగా	-9.40474
▁మెగా	-9.40533
▁వెండి	-9.40547
▁కెరీర్	-9.40612
▁బిగ్	-9.40686
ిత	-9.408
▁హయాంలో	-9.40801
▁వంద	-9.40804
▁నల్ల	-9.40835
▁ప్రాణాలు	-9.40852
▁గురి	-9.4087
▁ఎదురు	-9.40871
ళ్ళ	-9.40894
▁పరీక్షలు	-9.40895
▁శంకర్	-9.40939
▁కార్పొరేషన్	-9.4099
▁పాక్	-9.41054
▁నాని	-9.41057
▁భర్తీ	-9.41082
▁వరుస	-9.41349
యు	-9.41367
ధి	-9.41383
▁తీరు	-9.41451
▁పెద్దగా	-9.41455
సన్	-9.41461
ారంటూ	-9.41529
▁పంజాబ్	-9.41559
▁అంట	-9.41566
▁ఉద్యోగుల	-9.41573
▁ట్విట్టర్	-9.41605
ల్స్	-9.41749
▁మెదక్	-9.4175
▁ప్రాంతాల	-9.41751
▁రూమ్	-9.41808
ಿ	-9.41892
▁కల	-9.41945
▁నె	-9.42123
%	-9.42132
▁మాకు	-9.42169
▁క్యూ	-9.42385
ంచి	-9.42493
ినా	-9.42516
▁శాంతి	-9.42598
▁ఆఫీస్	-9.42717
▁సినిమాలు	-9.42764
▁ఎప్పుడు	-9.42774
▁యువతి	-9.42782
▁తీసుకెళ్ల	-9.4285
▁వ్యతిరేక	-9.42904
▁నిలిచింది	-9.42928
▁వికెట్	-9.42929
ెంట్	-9.42941
ుతున్నారు	-9.4295
▁ప్లాట్	-9.43029
▁చేరారు	-9.43139
ాన	-9.43153
కులు	-9.43227
▁గ్రాముల	-9.43255
▁کا	-9.43289
▁బృందం	-9.43328
B	-9.43328
▁అవుతోంది	-9.43332
▁అక్కడే	-9.43357
కపోతే	-9.43414
▁అల్	-9.43542
▁గెలిచిన	-9.43733
▁పోర్ట్	-9.43734
లె	-9.43831
స్తున్న	-9.43919
▁1,	-9.4396
▁పార్టీని	-9.43966
శాఖ	-9.4403
▁చూస్తే	-9.44053
ा	-9.44083
ಯ	-9.44085
పేట	-9.44233
▁ప్రయాణం	-9.44245
ాయ	-9.44251
▁శ్రీలంక	-9.4426
▁శా	-9.4428
▁చేరిన	-9.44284
మంది	-9.4437
▁పాకిస్థాన్	-9.44455
▁ఫి	-9.44476
పెట్ట	-9.44607
▁నియోజకవర్గాల్లో	-9.44692
▁ఓపెన్	-9.44848
▁ట్రాన్స్	-9.44852
▁మొదలైంది	-9.44858
▁అమెరికాలో	-9.44887
ar	-9.44947
▁సెంచరీ	-9.4499
▁దశ	-9.44991
▁ఈసీ	-9.45043
▁ఉపాధి	-9.45061
▁ఒకవేళ	-9.45071
▁సవాల్	-9.45082
▁డె	-9.4509
▁వాతావరణం	-9.45118
▁సభ్యుల	-9.45121
▁శుభ	-9.45215
▁ఎంట్రీ	-9.45242
▁పెండింగ్	-9.45244
▁ఎవరైనా	-9.45248
ుకుంటున్నారు	-9.45363
సర్	-9.45382
▁పంపించ	-9.45382
▁వైద్యులు	-9.45421
▁రచయిత	-9.45439
▁గ్రామానికి	-9.45598
్యూ	-9.45622
▁ఇస్తామని	-9.45701
రణ	-9.45714
▁విద్యార్థి	-9.45762
▁ఆడియన్స్	-9.45836
జె	-9.45861
ఫా	-9.45914
▁ఏదో	-9.45924
▁నటి	-9.45928
ున్నాయి	-9.45979
పోయింది	-9.45986
▁కాల	-9.46011
▁ఆపరేషన్	-9.46077
కల్	-9.46103
▁ప్రచారంలో	-9.4615
ుండగా	-9.46159
▁కీ	-9.46171
▁ఆఫీసర్లు	-9.46229
▁అదానీ	-9.46234
▁కుమారుడు	-9.4624
.3	-9.46332
▁హోదా	-9.46364
▁జె	-9.46379
▁సాధారణంగా	-9.46439
ن	-9.46477
.30	-9.46477
▁ఎన్నిక	-9.46558
▁హి	-9.46558
▁వీర	-9.46831
▁రావ	-9.46915
పోయిన	-9.4694
▁తరఫున	-9.47187
▁నారాయణ	-9.47341
▁ఫామ్	-9.47397
▁బిడ్డ	-9.47418
▁చెప్పుకొచ్చారు	-9.47437
▁గ్రీన్	-9.47464
▁అంశం	-9.47468
ت	-9.4754
▁యువ	-9.47572
▁క్లారిటీ	-9.47639
▁పాదయాత్ర	-9.4764
▁మీదుగా	-9.4773
▁కేటాయించ	-9.47802
▁కల్పించ	-9.47814
▁హాజరు	-9.47851
▁2021	-9.4786
▁కుల	-9.47939
ಗ	-9.47964
▁సీట్ల	-9.47966
▁కరెంట్	-9.48049
▁సైబర్	-9.48053
▁ఆశ	-9.48115
జన్	-9.48116
▁పే	-9.48142
▁అడుగు	-9.48175
▁ముఖ్యమైన	-9.48191
▁మై	-9.48218
▁ఇస్త	-9.48237
▁చంద్ర	-9.4824
G	-9.48246
▁సెక్రటరీ	-9.48248
▁సిద్ధంగా	-9.48263
▁దానిపై	-9.48334
େ	-9.48449
▁త్వరగా	-9.48452
వై	-9.48554
▁ఉద్యోగాలు	-9.48555
▁హీరోగా	-9.48567
▁పరిశీలించారు	-9.48589
▁ఉద్యోగ	-9.48589
▁ప్రమాణ	-9.48624
▁ప్రమాదంలో	-9.48674
త్ర	-9.487
▁అండగా	-9.48737
▁దిగారు	-9.48764
▁కొనసాగుతోంది	-9.48879
▁విద్యార్థుల	-9.48921
▁గల	-9.4897
E	-9.48987
▁బరిలోకి	-9.49083
▁మానవ	-9.49143
▁నేటి	-9.4919
బుల్	-9.49198
▁జోన్	-9.49248
▁తమిళ	-9.49252
▁తదితర	-9.4927
▁జరిగిందని	-9.4928
▁భట్టి	-9.49293
▁పరిస్థితుల్లో	-9.493
స్తుంది	-9.49313
▁హాట్	-9.49404
▁రుణమాఫీ	-9.49476
▁వివాదం	-9.49499
రియా	-9.49566
▁వర్మ	-9.49579
▁విధానం	-9.49598
▁వెళ్తున్న	-9.49618
▁వినియోగించ	-9.49671
దో	-9.49672
▁గ్రౌండ్	-9.49683
▁చిత్ర	-9.49689
▁ప్రియాంక	-9.49708
وں	-9.49736
▁బలంగా	-9.49772
▁T	-9.49829
▁దెబ్బ	-9.50001
▁రెడ్డికి	-9.50031
ించే	-9.50062
రై	-9.50077
▁అయ్యే	-9.5009
▁سے	-9.50104
▁మొదలు	-9.50313
▁చూడాలి	-9.50358
▁జీవితం	-9.50379
▁نے	-9.50457
▁ఆహార	-9.50511
▁అంతేకాదు	-9.50513
▁యుద్ధం	-9.50549
▁విషయంపై	-9.50573
▁కంపెనీలు	-9.50581
▁సెక్షన్	-9.50648
▁200	-9.50681
ైతే	-9.50683
▁రు	-9.5069
▁ప్రేక్షకుల	-9.5069
▁చేశామని	-9.50755
కపోవడంతో	-9.50805
ృ	-9.50806
▁కుట్ర	-9.50842
ంజ	-9.50953
▁అర	-9.51044
▁ఇందుకు	-9.51085
▁రే	-9.51128
▁అదనపు	-9.51138
▁తరగతి	-9.51138
డాన్ని	-9.51205
మూ	-9.51246
▁విద్య	-9.51264
▁లీడర్లు	-9.51271
బ్బ	-9.51278
▁నిర్ణయాలు	-9.51306
▁జై	-9.5141
▁డెవలప్	-9.51554
▁నెంబర్	-9.5156
▁దర్శనం	-9.51653
▁సమీక్ష	-9.51685
▁పాప	-9.51713
సె	-9.51741
10	-9.51862
ాలంటూ	-9.519
▁కొన	-9.51902
▁ఉండదు	-9.52054
l	-9.52061
ారం	-9.52073
▁అతడి	-9.52095
▁ఫోర్స్	-9.52191
ారన్న	-9.52341
▁ఘటనలో	-9.5236
▁సన్	-9.52366
▁వసూలు	-9.52421
▁జనాభా	-9.52433
▁కిలో	-9.52452
ప్పటి	-9.52453
▁విజ్ఞప్తి	-9.52614
▁నూతన	-9.52617
r	-9.52627
▁వస్తున్నాయి	-9.52668
▁ముందస్తు	-9.52828
▁70	-9.52862
▁కోచ్	-9.52863
న్నా	-9.52954
యర్	-9.52961
▁సెలవు	-9.53013
నున్నట్లు	-9.53062
▁జరగనుంది	-9.53068
పర్	-9.53076
▁ప్రకటించ	-9.53148
▁మార్	-9.53216
▁నీటిని	-9.53245
▁పరి	-9.53247
▁కార్యక్రమాలు	-9.5331
కార	-9.53427
▁ప్రశాంత్	-9.5349
▁ఉన్నప్పుడు	-9.53737
▁రంగు	-9.53756
▁దశలో	-9.53823
▁తక్కువగా	-9.53825
▁తుది	-9.53971
▁తప్పుడు	-9.53978
k	-9.54053
▁సీపీ	-9.54064
▁బ్రేక్	-9.54114
.10	-9.54153
▁వల్లే	-9.54168
▁M	-9.54206
▁అంచనాలు	-9.54229
▁ఆప	-9.54259
జు	-9.54293
▁శిక్షణ	-9.54358
▁పోస్టు	-9.54388
▁కూతురు	-9.54546
▁కేబినెట్	-9.54546
▁టైటిల్	-9.54555
▁విన	-9.54631
▁దీనిని	-9.54695
▁వ్యక్తిగత	-9.54707
▁బయటపడ	-9.54709
▁డేటా	-9.54737
▁విరాట్	-9.5477
వారికి	-9.54777
ಾ	-9.54832
▁ఆగ	-9.54869
డంలో	-9.54874
▁క్యా	-9.54961
▁ప్రభాస్	-9.5498
ణ్	-9.55031
నుంచి	-9.55083
నె	-9.551
చె	-9.55134
▁ఖరారు	-9.55198
▁బట్టి	-9.55211
▁పాల్గొన్న	-9.55212
▁ప్రాంతం	-9.55231
▁వచ్చిందని	-9.5524
▁బాల	-9.55256
▁మాట్లాడిన	-9.55347
▁గొడవ	-9.55412
▁పెద్దపల్లి	-9.55467
▁మంచిది	-9.55525
▁విద్యార్థులకు	-9.55526
▁తల్లిదండ్రులు	-9.55615
▁జెండా	-9.55643
▁దేశంలోని	-9.55656
▁పార్లమెంటు	-9.55667
▁డేట్	-9.55689
▁నేతృత్వంలో	-9.55749
ూర్	-9.55781
L	-9.55851
▁అప్పట్లో	-9.55855
ంక	-9.55903
శా	-9.55954
▁రెవెన్యూ	-9.56074
▁ధీమా	-9.56074
▁అలీ	-9.56185
ರ್	-9.5619
▁పడే	-9.5621
▁కుటుంబానికి	-9.56237
పాటు	-9.56282
▁జగిత్యాల	-9.56309
స్వామి	-9.56427
र	-9.56504
▁రాజకీయాలు	-9.56578
▁కదా	-9.56587
▁ب	-9.56621
▁పోస్టర్	-9.56747
60	-9.56767
▁బు	-9.56792
▁వీరు	-9.56881
▁లేవు	-9.56907
▁సమస్యల	-9.56923
▁వద్దకు	-9.56947
పె	-9.56948
▁టిడిపి	-9.56958
▁గుంటూరు	-9.56961
▁హెడ్	-9.57047
▁ఆమోదం	-9.57107
ుతున్నాయి	-9.57136
▁ప్లాంట్	-9.57184
▁నన్ను	-9.57188
▁సంస్థల	-9.57193
▁జరిగాయి	-9.5722
▁తొలిసారి	-9.57255
▁పుష్ప	-9.57256
▁టీవీ	-9.57282
▁వేడి	-9.57322
▁ల్	-9.57369
ర్లు	-9.57373
▁సిద్దిపేట	-9.57403
▁నామినేషన్	-9.57406
▁ప్రదర్శన	-9.57411
19	-9.57445
▁తేలింది	-9.57455
▁నిర్మించిన	-9.57547
d	-9.57575
▁యాక్షన్	-9.57636
▁ప్రయత్నించ	-9.5764
▁గ్యాస్	-9.57658
ందే	-9.57827
▁క్యాన్సర్	-9.5785
▁సింగరేణి	-9.5785
కార్	-9.57867
▁వందల	-9.57884
▁80	-9.57885
▁వ్యక్తుల	-9.58039
▁రద్దీ	-9.58051
▁రోజూ	-9.58103
▁పెరిగి	-9.5813
▁ప్రదేశ్	-9.58131
▁C	-9.58185
▁కేరళ	-9.58247
▁జూనియర్	-9.58299
▁అనుకున్న	-9.58342
▁అన్నీ	-9.58379
▁చూపించ	-9.58383
మన్	-9.58404
▁తీసుకో	-9.58418
▁న్యూ	-9.58518
▁రాశారు	-9.5855
▁వారిపై	-9.58592
▁గెలిచి	-9.58605
ండ్	-9.58638
▁రెడ్డిని	-9.58644
▁సాధించింది	-9.58646
వ్యాప్తంగా	-9.58667
▁జన	-9.58686
▁భద్రతా	-9.58719
▁పంచాయతీ	-9.58742
▁కుమార్తె	-9.5875
ట్స్	-9.58807
▁కార్యాలయం	-9.58877
▁ఉండేది	-9.58888
▁అభ్యర్థిగా	-9.58909
▁పరిష్కరించ	-9.5892
▁తీసుకునే	-9.58956
▁కార్యాలయంలో	-9.58974
▁హాజరయ్యారు	-9.58981
▁ఊ	-9.59136
▁బాలిక	-9.5915
స్తే	-9.59228
లర్	-9.5923
ొక్క	-9.59237
▁మీటర్ల	-9.59303
▁చెప్పాడు	-9.59343
▁హోం	-9.59387
▁కోడ్	-9.59433
▁ఫై	-9.59445
▁ప్రయాణ	-9.59485
V	-9.59552
▁లెక్క	-9.59565
▁రెడ్	-9.59591
టానికి	-9.59631
▁సీసీ	-9.59702
▁హోటల్	-9.59788
▁తెలియ	-9.5986
▁సినిమాకు	-9.59867
కపోవడం	-9.60003
▁సేవలు	-9.6002
▁చేసిందని	-9.6005
▁నాయక్	-9.60097
▁ఈవెంట్	-9.60117
▁నగదు	-9.60307
ాలన్న	-9.60311
▁)	-9.60346
▁ధర్నా	-9.60347
▁ఇరాన్	-9.60363
▁ఆర్డర్	-9.60367
▁అర్హత	-9.60368
▁గ్రామాల్లో	-9.60402
ః	-9.60463
▁రాలేదు	-9.60574
▁ప్రవీణ్	-9.60575
▁పసుపు	-9.60575
▁రాష్ట్రానికి	-9.60662
శాతం	-9.60763
▁ఆదిలాబాద్	-9.60805
▁వీడియోను	-9.60814
▁పట్టణ	-9.60823
▁చేస్త	-9.60871
▁కం	-9.60894
మన్నారు	-9.6092
▁తొలగించ	-9.60977
ొచ్చ	-9.60991
▁స్వ	-9.61025
▁విదేశీ	-9.61027
నున్నాయి	-9.61038
▁రాబోయే	-9.6105
▁#	-9.61097
▁మరీ	-9.61101
▁మారి	-9.61125
తారు	-9.61243
▁సర్వీస్	-9.61268
▁మత	-9.61281
▁ఇల్లు	-9.61324
▁ఉత్తర్వులు	-9.61326
▁సర్వ	-9.61337
▁చూస్త	-9.61337
!!	-9.61479
▁కంట్రోల్	-9.61499
▁పబ్లిక్	-9.615
▁శివకుమార్	-9.61507
▁పాలసీ	-9.61546
గిరి	-9.61563
ఫి	-9.61699
▁కోట్లకు	-9.61745
అని	-9.61851
▁నటించిన	-9.61874
▁ఎదుర్కొంటున్న	-9.61949
▁ఘటనపై	-9.61956
▁చాట	-9.6209
▁హెల్త్	-9.62199
▁వెనక్కి	-9.62199
▁నాలుగో	-9.62207
▁వేరే	-9.62239
▁వయసు	-9.62389
▁45	-9.62396
ండా	-9.62433
వల్ల	-9.62453
▁వస్తోంది	-9.62477
లేక	-9.62511
▁కాల్	-9.62549
▁వేదిక	-9.62564
▁అందించారు	-9.62573
ప్రపంచవ్యాప్తంగా	-9.62613
▁హమాస్	-9.62668
▁వడ్డీ	-9.62679
▁పాల్గొన	-9.62796
ంటున్నారు	-9.62873
▁టైమ్	-9.62885
▁సెక్యూరిటీ	-9.62903
▁వీటి	-9.62909
▁తరపున	-9.63013
▁అనుగుణంగా	-9.63375
హెచ్	-9.63492
▁మానసిక	-9.63525
▁కోసమే	-9.63533
N	-9.63559
▁కనిపిస్తుంది	-9.63658
▁ఉంటున్న	-9.63669
▁చదువు	-9.63748
ుకోవాలి	-9.6377
త్య	-9.63861
▁ఎమ్మెల్యేగా	-9.63883
▁పాన్	-9.6389
సారి	-9.63946
▁ఉన్నత	-9.6397
▁భక్తులకు	-9.63979
▁ఎండ	-9.64002
▁చేసుకో	-9.6408
،	-9.64088
చా	-9.64129
ಸ್	-9.64197
న్ని	-9.64211
ోందని	-9.64283
▁35	-9.64338
▁సీఐడీ	-9.64346
▁టిక్కెట్	-9.64381
లేదన్నారు	-9.64402
▁నియోజకవర్గ	-9.64416
▁చోట	-9.64442
▁పల్లి	-9.64511
▁నగరంలో	-9.64548
▁తాగ	-9.64628
▁ఏమీ	-9.64678
▁మేర	-9.64734
▁ఓటర్లు	-9.64769
17	-9.64775
▁కార్యక్రమానికి	-9.64813
▁నాయకుల	-9.64817
▁పరిశోధన	-9.64863
ుంటారు	-9.64887
▁తప్పించ	-9.64896
▁రంగ	-9.6494
▁చేయకుండా	-9.65072
11	-9.65075
▁బె	-9.65089
▁సమీపంలోని	-9.65219
▁తెలుసుకుందాం	-9.65287
.4	-9.65316
▁రోజుకు	-9.65317
ج	-9.65449
▁దిగిన	-9.65456
కోసం	-9.65511
▁ఇస్రో	-9.65529
▁ہے۔	-9.65534
ిస్తుంది	-9.65651
▁ల్లో	-9.65655
▁ఎస్టీ	-9.65701
▁ష	-9.65742
▁పోలిస్తే	-9.65773
వర	-9.65788
▁చేస్తానని	-9.65807
▁అనిల్	-9.65808
ేసింది	-9.65848
వరకు	-9.65875
▁నమ్మకం	-9.65923
▁వస్తాయి	-9.65947
ూరి	-9.65976
▁గంజాయి	-9.66013
▁రంగారెడ్డి	-9.66023
▁బలమైన	-9.66041
▁బే	-9.66095
▁మందిని	-9.66143
▁చేయాల్సి	-9.66149
ب	-9.6619
▁లీడర్	-9.66243
▁ہے	-9.66256
▁హరీష్	-9.66257
▁పొందిన	-9.66279
▁శని	-9.66311
▁కిరణ్	-9.66326
ల్ని	-9.66335
▁ఇసుక	-9.66501
పే	-9.66503
▁కడప	-9.66542
▁తెచ్చ	-9.66603
▁దేవ	-9.66617
ార	-9.66639
▁పోర్టు	-9.6671
వె	-9.66722
ిస్తారు	-9.66797
▁చెప్పే	-9.6685
టె	-9.66878
▁మండలంలోని	-9.66977
▁రాజకీయాల్లో	-9.67009
b	-9.67032
.50	-9.6704
నర్	-9.67041
▁ఆసియా	-9.67095
▁ప్రయత్నిస్తున్న	-9.67209
▁పొంగులేటి	-9.67236
▁అలర్ట్	-9.67236
▁పాలనలో	-9.67236
▁కఠిన	-9.67349
▁!	-9.6737
د	-9.6739
యాన్	-9.67391
▁జాబితాలో	-9.67401
▁అయోధ్య	-9.67428
▁అభిప్రాయం	-9.67435
▁గతేడాది	-9.67482
▁ఫోకస్	-9.67482
▁నూనె	-9.67493
▁నిర్మిస్తున్న	-9.67518
▁జాగ్రత్తగా	-9.6752
ట్టే	-9.67526
▁సినిమాను	-9.67535
▁చూస్తున్న	-9.67589
లన్నీ	-9.67666
▁లేకపోవడంతో	-9.67682
లింగ్	-9.67683
▁పనులను	-9.67728
▁సుప్రీం	-9.67728
▁కచ్చితంగా	-9.67729
▁వెంకటస్వామి	-9.67735
▁స్కిల్	-9.67736
▁ఆదేశించింది	-9.67752
▁కనిపించింది	-9.6784
▁సెట్	-9.67862
F	-9.6791
▁నాథ్	-9.67971
▁మంచిర్యాల	-9.67976
▁పెన్షన్	-9.6798
▁ఓవర్లలో	-9.68033
▁ఇటు	-9.68042
▁రాష్ట్రపతి	-9.68043
▁జూలై	-9.68044
▁మంటలు	-9.68149
▁కావ	-9.68181
▁సరిహద్దు	-9.68222
▁విటమిన్	-9.68225
▁వ్యాధి	-9.68244
పోయాయి	-9.68274
▁కెమెరా	-9.6843
▁ముగిసిన	-9.68458
▁నటుడు	-9.68474
ୁ	-9.68515
▁ఒప్పందం	-9.68558
▁నగర	-9.68561
▁పొ	-9.68575
▁నిర్ణయించారు	-9.68661
▁విశేషం	-9.68694
ించింది	-9.68711
మర్	-9.68741
▁ల్యాండ్	-9.68768
▁అంటారు	-9.68783
▁మాస్టర్	-9.68784
ల్ల	-9.6884
▁మరిన్ని	-9.68852
▁ఇస్తున్న	-9.68859
▁స్వయంగా	-9.68884
▁కాళేశ్వరం	-9.68973
▁భరోసా	-9.68973
▁బంతుల్లో	-9.68979
▁దీక్ష	-9.68979
▁మధ్యలో	-9.69024
ెన్	-9.69029
▁వివాహం	-9.69087
▁సంతోషంగా	-9.69283
▁జిల్లాల	-9.69303
▁తీసి	-9.69359
▁ధ	-9.69405
▁సంపాదించ	-9.69452
▁అధ్యక్ష	-9.69462
18	-9.69485
▁اور	-9.69508
▁పనుల	-9.69553
▁వీడియోలు	-9.69621
70	-9.69642
▁పడుతున్నారు	-9.69649
▁తెలుసు	-9.69687
▁గడువు	-9.69727
▁అతిపెద్ద	-9.69731
▁గిల్	-9.69751
▁సంఘాల	-9.69803
▁ఎకరాల	-9.69846
▁నిజం	-9.69868
▁చేయలేదు	-9.69925
▁కోమటిరెడ్డి	-9.6998
▁చేరుకున్నారు	-9.70052
▁రూపంలో	-9.70064
▁చేసుకునే	-9.7011
ోన్న	-9.70132
▁ఫ్రీ	-9.70142
▁ఇళ్ల	-9.70174
▁రాయ	-9.70181
▁అసోసియేషన్	-9.70232
▁వర్గం	-9.70252
▁పరిష్కారం	-9.70295
▁రావాలని	-9.70304
O	-9.70336
▁మొ	-9.70362
▁బెంగళూరులో	-9.70368
▁సాగర్	-9.70404
▁500	-9.7044
▁మారాయి	-9.70504
ధా	-9.7055
▁ఏర్పడింది	-9.70556
▁వైస్	-9.70558
ٹ	-9.70566
కూడదు	-9.70575
▁కాలేజీ	-9.70683
▁టీఎస్	-9.70683
▁ప్లేయర్	-9.70701
c	-9.70705
▁ములుగు	-9.70741
▁థ	-9.70752
దం	-9.70761
▁నియమించ	-9.70766
▁పెరుగుతుంది	-9.70776
14	-9.70844
▁టెక్	-9.70848
▁సహాయం	-9.70865
▁పడుతున్న	-9.70872
▁వంటివి	-9.70914
▁ఇటీవలే	-9.70949
వాళ్లు	-9.70988
▁హింస	-9.70994
▁అసిస్టెంట్	-9.70996
▁ఏజెన్సీ	-9.70996
▁ఎంపీగా	-9.71014
▁అద్భుతమైన	-9.71023
▁వెంకట్	-9.71068
▁ఎక్క	-9.71175
బె	-9.71176
ల్డ్	-9.71254
▁ప్రణాళిక	-9.7134
▁టైం	-9.71341
▁పేద	-9.71374
▁డాక్టర్లు	-9.71401
▁లీ	-9.7146
▁పిలుపునిచ్చారు	-9.71512
▁చంద్రబాబుకు	-9.7155
▁కలిగిన	-9.7156
మంతా	-9.71574
▁విషయాలు	-9.71657
▁జంట	-9.71702
16	-9.71713
▁లేటెస్ట్	-9.71765
▁రూపొందించ	-9.71775
▁ఎనిమిది	-9.71798
▁రాజ్యసభ	-9.71806
▁గౌరవ	-9.71828
▁తయారీ	-9.71861
ವ	-9.71873
▁నిత్య	-9.719
▁జట్టులో	-9.71919
▁అమ్మాయి	-9.72141
▁ఏర్పడిన	-9.72143
▁నెలల్లో	-9.72161
ందో	-9.72255
▁గంట	-9.72269
▁ఫ్యాక్టరీ	-9.72281
▁తీర్చ	-9.72283
▁ప్రధానంగా	-9.72316
ನ	-9.72327
▁బంగారు	-9.7235
▁కార్మికులు	-9.72402
▁దేశాలు	-9.72408
▁వివాహ	-9.72469
▁నష్ట	-9.72518
▁మహబూబ్	-9.7254
▁ఘోర	-9.72541
▁దీనివల్ల	-9.72568
▁నిర్మాత	-9.72586
▁పరిచయం	-9.72642
▁టీం	-9.72672
▁పోరాడ	-9.7272
▁లోనూ	-9.72723
▁పాలు	-9.72749
▁పెట్టుబడి	-9.7275
లై	-9.72779
▁పీసీసీ	-9.72882
▁ప్రచార	-9.72902
▁کیا	-9.72918
▁తగ్గి	-9.72923
ర్ల	-9.72949
పోయి	-9.72953
▁పిల్లలకు	-9.72965
వని	-9.72997
ఉ	-9.7301
▁ఆఫర్	-9.73093
▁సాధించారు	-9.73169
▁రంగంలో	-9.73173
▁ఎవరికి	-9.73207
▁ఆర్మీ	-9.7321
వచ్చని	-9.73266
ాడ	-9.7331
▁చర్చించ	-9.73318
కొండ	-9.7333
చర్	-9.73337
▁తీసుకుంటున్న	-9.7336
▁P	-9.73365
▁వాటా	-9.734
ంపు	-9.73479
▁90	-9.73495
▁రక్షించ	-9.73533
ନ	-9.73534
▁ఆసుపత్రికి	-9.73534
▁కురిసే	-9.73583
▁లేదంటే	-9.73588
▁రాజకీయంగా	-9.73685
▁ఈనెల	-9.73692
▁దృష్టికి	-9.73696
▁జాబితా	-9.73698
దర్	-9.73787
▁అంశంపై	-9.73806
▁పట్టు	-9.73841
▁తూర్పు	-9.73845
▁మధ్యప్రదేశ్	-9.73854
▁చేరుకుంది	-9.73872
▁తీసుకొని	-9.73906
▁చరణ్	-9.73921
▁తేడాతో	-9.73996
▁పెరుగుతున్న	-9.73999
▁వన్	-9.74049
▁చెయ్య	-9.74054
▁ట్రైలర్	-9.74112
వద్దని	-9.74119
▁నిర్ణయించింది	-9.74172
▁మారిన	-9.74232
▁చేస్తున్నాయి	-9.74292
▁పాల్	-9.743
40	-9.74303
▁చేరింది	-9.74316
నైనా	-9.74347
▁స్పందన	-9.74378
▁చంద్రయాన్	-9.74381
▁జాగ్రత్తలు	-9.74431
క్ర	-9.74433
▁ప్యా	-9.74473
ెల్	-9.74568
್	-9.74586
▁జమ	-9.74614
▁అరవింద్	-9.74637
ందన్నారు	-9.74748
▁పెరిగిన	-9.74756
ండు	-9.74887
▁అంబేద్కర్	-9.74902
▁డివిజన్	-9.74902
▁హైకమాండ్	-9.74902
▁బెంగాల్	-9.74908
▁నది	-9.7491
త్వం	-9.74971
▁రంగంలోకి	-9.74985
▁ఏంటి	-9.75008
ేశ్	-9.75022
▁పెట్టింది	-9.75039
▁ప్రభుత్వంలో	-9.75045
▁ఉద్యోగులకు	-9.75092
బడ	-9.75221
▁మద్దతుగా	-9.75249
ెం	-9.75308
▁యుద్ధ	-9.75401
▁కాలేదు	-9.75421
▁కలకలం	-9.75435
య్యారు	-9.75478
పోతుంది	-9.75522
య్యే	-9.75564
▁వ్యాపార	-9.7559
▁పరిహారం	-9.75648
▁పనిచేసే	-9.75652
▁ఆప్	-9.75659
▁ర్యాలీ	-9.75659
▁పిటీషన్	-9.75702
▁తప్పనిసరి	-9.75703
▁చెప్పాలని	-9.75709
▁అంశాలపై	-9.75716
▁ఫోటో	-9.75719
▁అల	-9.75759
▁బ్యాక్	-9.75774
▁కోట్లతో	-9.75808
▁ప్రయాణికులు	-9.75959
▁సమావేశాలు	-9.75976
▁వార్త	-9.76001
▁అనుమతించ	-9.76008
ండే	-9.76065
▁రాసిన	-9.76117
సార్లు	-9.76142
▁గుర్తించి	-9.76201
▁నిందితుడు	-9.76274
▁కోట	-9.76278
▁అందుకున్న	-9.76285
▁రేషన్	-9.76316
▁మూ	-9.76362
▁జీవిత	-9.76423
▁క్రమంలోనే	-9.7645
▁మహ	-9.76468
;	-9.76509
▁రాశుల	-9.76515
▁తీసుకుంటామని	-9.76538
▁ఘనంగా	-9.76587
▁వాదనలు	-9.7659
▁ఆలోచించ	-9.76608
▁కొనసాగుతున్న	-9.7661
▁2,	-9.76629
ుత	-9.76648
▁అధికారికంగా	-9.76657
▁2020	-9.76676
K	-9.76759
▁బాంబు	-9.7678
▁అంతకుముందు	-9.76781
▁తు	-9.76795
▁పేరును	-9.76805
▁ఉద్యోగాల	-9.76833
కింగ్	-9.76921
▁స్థల	-9.76995
▁విడత	-9.76997
▁పోస్టులు	-9.77008
▁రేటు	-9.77069
▁పుట్ట	-9.77075
ేంద్ర	-9.77226
▁వాదన	-9.77307
▁అటవీ	-9.77314
▁ఇంగ్లాండ్	-9.77322
గర్	-9.77364
▁ఇస్తే	-9.77375
▁విమానం	-9.77388
▁ఏటా	-9.77409
▁అన్	-9.77413
▁ఉంటాయని	-9.77472
ుకుంటే	-9.77519
▁గూగుల్	-9.77594
▁ప్రాథమిక	-9.77594
▁రిపోర్ట్	-9.77594
▁స్మార్ట్	-9.77594
ాయన్నారు	-9.77626
▁కృష్ణా	-9.77644
▁స్థానాలు	-9.77728
.6	-9.77728
ేది	-9.77762
▁కన్	-9.77763
▁ఫేక్	-9.77868
▁ప్రతినిధి	-9.77885
▁అంగీకరించ	-9.77887
▁తీవ్రత	-9.77898
▁ఆలయంలో	-9.77908
▁మార్క్	-9.7793
▁జయ	-9.77966
▁ఇండ్లు	-9.78001
▁వీడియోలో	-9.78025
▁తెలుసుకున్న	-9.78034
▁తిరుమలలో	-9.78101
▁కలెక్టరేట్	-9.78142
▁మరికొన్ని	-9.78145
▁చేశాయి	-9.78206
వాల్	-9.78253
er	-9.78284
▁సృష్టించ	-9.7836
▁యాదాద్రి	-9.78416
▁స్క్రీన్	-9.78416
▁లీగ్	-9.78446
▁మట్టి	-9.78482
▁సీఐ	-9.78508
▁క్యారెట్ల	-9.78523
▁డిస్	-9.7857
▁వెళ్త	-9.78581
పురం	-9.78667
▁మనిషి	-9.78693
▁అధికారులతో	-9.78738
▁తనిఖీ	-9.78748
▁B	-9.78772
▁చే	-9.78901
▁డిజిటల్	-9.78968
▁సోర్స్	-9.7898
▁భవిష్యత్	-9.78982
▁జరుగుతున్నాయి	-9.78995
▁దాట	-9.79008
▁టెస్టు	-9.79052
ందు	-9.7906
▁సూ	-9.79067
ಂ	-9.79149
▁ప్రాంతాలకు	-9.79166
▁నమోదైంది	-9.79246
▁మహేష్	-9.79254
డో	-9.79282
▁మధు	-9.79322
▁మొదలైన	-9.79341
▁మాటలు	-9.79475
▁లతో	-9.79503
▁రాకుండా	-9.79562
al	-9.7957
డెన్	-9.79655
▁వైరస్	-9.79661
▁శరీరంలో	-9.79741
▁గురు	-9.79779
▁రిమాండ్	-9.79801
▁ఉత్కంఠ	-9.79801
▁హైడ్రా	-9.79802
▁శ్రీధర్	-9.79811
▁అవుతున్నాయి	-9.79992
▁N	-9.80032
▁హో	-9.80047
▁బిజినెస్	-9.80081
మాన్	-9.80087
ిస్తోంది	-9.80096
80	-9.80175
ారట	-9.8018
▁వ్యవహరించ	-9.80216
▁యు	-9.80354
▁ఆధార్	-9.80361
▁ఛైర్మన్	-9.80362
ించడం	-9.80455
▁హాల్	-9.80486
▁అనుమానం	-9.80522
▁విజయాన్ని	-9.80556
▁న్యాయవాది	-9.80642
▁ప్రధానమంత్రి	-9.80658
▁చేసుకోవచ్చు	-9.80665
▁వెంకట	-9.80677
▁జైలులో	-9.80713
▁ఇష్టం	-9.80737
ళి	-9.80798
▁బెడ్	-9.80802
ేషన్	-9.80835
▁ఉన్నాడు	-9.80911
▁భూముల	-9.80921
▁పథకాలు	-9.8097
ట్టి	-9.81062
ందుకే	-9.81072
▁తగ్గించ	-9.81187
▁పటేల్	-9.81206
▁స్త్రీ	-9.81206
▁ఓడించ	-9.8122
▁నిధుల	-9.81236
▁సంవత్సరంలో	-9.8125
▁పార్క్	-9.81291
▁కూ	-9.81293
▁భూములు	-9.81298
లూ	-9.81329
▁దేశాల్లో	-9.81356
▁ఘ	-9.81404
▁దృష్టిలో	-9.8142
▁రిజిస్ట్రేషన్	-9.81495
▁మంత్రిత్వ	-9.81552
▁పాఠశాల	-9.81574
▁గిరిజన	-9.81577
▁బూ	-9.81697
▁సమక్షంలో	-9.81773
▁సిరిసిల్ల	-9.81773
▁బియ్యం	-9.81774
▁సిట్టింగ్	-9.81781
▁ఏసీబీ	-9.81789
▁చిన్నారి	-9.81794
వం	-9.81809
▁చెప్పడం	-9.81883
▁పాటుగా	-9.81885
▁చెరువు	-9.81903
సై	-9.81908
▁అర్	-9.81928
▁దూరంలో	-9.82047
▁వివరణ	-9.82061
▁ఇద్దరూ	-9.82068
▁సాంగ్	-9.82079
▁కార్మికుల	-9.82136
▁సంవత్సరాలు	-9.82163
▁గెలవ	-9.82247
▁అధికంగా	-9.82261
▁స్పందించ	-9.82279
▁రియల్	-9.82299
▁పేర్కొన్న	-9.82326
ೀ	-9.82342
▁సత్యనారాయణ	-9.82345
రామ	-9.82374
▁ధర్మ	-9.82403
▁మోడల్	-9.82427
▁ఉన్నప్పటికీ	-9.8256
▁వేస	-9.82569
ెన్స్	-9.82593
▁ముస్లిం	-9.82594
▁సీరియస్	-9.8263
▁సహాయక	-9.82675
▁మేలు	-9.82702
▁హు	-9.82745
▁నివాసం	-9.82821
▁విచారణలో	-9.82828
▁అసెంబ్లీలో	-9.82862
▁రికార్డ్	-9.82895
▁ముఖ్యమంత్రిగా	-9.82928
▁షేక్	-9.82969
▁ఏళ్లు	-9.82988
▁క్రికెటర్	-9.82993
▁గురైన	-9.83064
▁చేయండి	-9.83068
▁చర్యల	-9.83138
▁పాల్పడ	-9.83162
▁కేసుల	-9.8318
▁విష	-9.83204
రోజు	-9.83243
▁గోల్డ్	-9.83262
▁జీవో	-9.83294
ాల్సిందే	-9.83318
▁।	-9.83379
▁బాస్	-9.83389
▁పేర్లు	-9.83422
13	-9.83459
H	-9.83512
▁ఇండ్ల	-9.836
▁మనకు	-9.83756
కూడదని	-9.83768
▁అధ్యయనం	-9.83798
▁సమ	-9.83837
▁పడిన	-9.83911
▁మన్	-9.84017
స్తారు	-9.8407
▁స్పష్టత	-9.84075
▁చేసుకోవడం	-9.84081
పించ	-9.8411
▁తీసుకోవాలి	-9.84194
▁వరి	-9.84199
▁మంత్రిగా	-9.84263
▁రమేశ్	-9.84367
▁రమేష్	-9.84367
▁కాని	-9.84424
▁స్వీకారం	-9.84431
▁భారతదేశంలో	-9.84492
▁అత్యధికంగా	-9.84502
▁గడ్డం	-9.84511
▁ప్రశ్నలు	-9.84518
▁కష్ట	-9.84535
▁రాక	-9.84555
▁కామెంట్	-9.84559
▁నిర్ణయించ	-9.8462
۔	-9.84645
▁తీయ	-9.84647
▁అందజేశారు	-9.84664
▁అగ్ర	-9.84708
▁జరిగి	-9.84722
▁పక్క	-9.84743
ణం	-9.84744
ైంది	-9.84781
▁చూస	-9.84798
▁నిందితుల	-9.84831
▁ప్రా	-9.84835
▁ప్రవేశించ	-9.84919
▁అభ్యర్థులను	-9.84931
▁కసరత్తు	-9.84953
▁జపాన్	-9.84954
▁పెట్టుకున్న	-9.85121
▁కొత్తగూడెం	-9.85126
▁లక్ష్మీ	-9.85157
▁కారులో	-9.85164
▁భాష	-9.85168
ش	-9.85175
▁కట్	-9.8523
ी	-9.85245
▁ఆస్తి	-9.85254
▁తొమ్మిది	-9.85265
,500	-9.85268
▁బాడీ	-9.85317
▁మించి	-9.85508
▁బాలకృష్ణ	-9.85547
▁అప్పు	-9.85551
30	-9.85558
▁వీరికి	-9.85562
▁బ్రాండ్	-9.85592
ంక్	-9.856
▁చిక్క	-9.85617
ుండటంతో	-9.85625
లాంటి	-9.85659
▁తేడా	-9.85701
ట్లుగా	-9.85714
12	-9.85725
తులు	-9.85742
▁తొలు	-9.85802
కాల	-9.85818
▁బాల్	-9.85824
▁ప్రైవేటు	-9.85838
▁హైకోర్టులో	-9.85894
▁పెరిగే	-9.85997
డె	-9.8603
▁బొ	-9.86037
మార్	-9.86069
వడం	-9.86076
▁చనిపోయిన	-9.86077
▁అనారోగ్య	-9.86115
▁ప్రాణాల	-9.86125
▁ఎద్దేవా	-9.86134
▁లిమిటెడ్	-9.86134
▁వెనక	-9.86195
▁వాహనాలు	-9.86222
▁ట్రాక్	-9.86224
▁ఏండ్ల	-9.8625
ుకుంటారు	-9.86256
▁గ్రామాల	-9.86277
▁సభకు	-9.86288
జం	-9.86389
▁న్యూజిలాండ్	-9.86456
▁నిందితుడి	-9.86481
▁అడుగుల	-9.86506
▁ప్రవేశ	-9.86561
▁మూల	-9.86581
▁ఫలితం	-9.86609
▁దేశానికి	-9.86627
▁రక్త	-9.8663
▁తనపై	-9.86644
కాయ	-9.86654
▁స్ప	-9.86656
▁కన్నడ	-9.86699
▁బరిలో	-9.86708
▁రోజా	-9.86721
▁నిబంధనల	-9.86796
▁ఔట్	-9.86799
▁స్టా	-9.86806
▁నియోజకవర్గాల	-9.86812
నాథ్	-9.86816
▁అమ	-9.86832
▁విమాన	-9.86849
వరం	-9.86888
▁నాయకత్వం	-9.87002
.15	-9.87008
▁పేరిట	-9.8703
▁ఉత్తరప్రదేశ్	-9.87031
▁హె	-9.87101
▁కనిపించడం	-9.87107
టంతో	-9.87114
శి	-9.87121
▁అయినప్పటికీ	-9.87123
పతి	-9.87233
▁లైంగిక	-9.87243
▁థియేటర్	-9.87268
▁క్రియేట్	-9.8733
▁లడ్డూ	-9.8733
▁విక్రమార్క	-9.8733
▁బిల్డింగ్	-9.87332
▁వీటిలో	-9.87346
▁కోర్టుకు	-9.87367
ినట్టు	-9.8739
లేరు	-9.874
▁کہ	-9.87466
▁పథకాల	-9.87475
▁అను	-9.87555
▁టీచర్	-9.87572
▁ఘన	-9.87584
▁ఆసక్తికర	-9.8761
▁స్పష్టంగా	-9.87633
▁కొట్టి	-9.8764
▁టాటా	-9.8765
▁చేరుకుని	-9.87677
▁వ్యవహారం	-9.87776
▁75	-9.87799
▁తెలంగాణకు	-9.87819
▁జట్ల	-9.8784
▁చెప్పాలి	-9.87864
▁విశ్వ	-9.87877
▁తీసిన	-9.87916
▁ఉండడం	-9.87924
▁అడిషనల్	-9.87933
▁ఆసుపత్రిలో	-9.87945
▁లక్ష్యం	-9.87949
▁చేసుకోవాలని	-9.8798
▁స్టే	-9.87996
▁అతనికి	-9.88001
ాలతో	-9.88023
▁సిద్ధ	-9.88025
▁ఆలయం	-9.88172
▁జిల్లాకు	-9.88191
▁ప్రీ	-9.88197
▁బీజేపీలో	-9.88221
▁గి	-9.8823
▁డౌన్	-9.88237
▁ఎలక్షన్	-9.88238
▁లైఫ్	-9.88253
▁ఉండడంతో	-9.88318
n	-9.88338
▁తలెత్త	-9.88369
▁కోటి	-9.88394
▁సీఎస్	-9.88507
ుంటే	-9.8852
े	-9.88533
▁నింప	-9.88536
▁నకిలీ	-9.88542
▁అవుట్	-9.88546
▁చేసుకోవాలి	-9.8858
▁మరణించారు	-9.88648
▁గృహ	-9.88685
▁ఓటింగ్	-9.8874
▁గెలిపించ	-9.88824
▁శాసనసభ	-9.88826
▁కళాశాల	-9.88848
▁సంగారెడ్డి	-9.8885
▁ఫీచర్	-9.88853
▁నిర్వహించే	-9.88858
▁అశోక్	-9.88866
▁తెలియదు	-9.88885
▁అభివృద్ధికి	-9.889
▁వికెట్ల	-9.88917
▁అవుతున్నారు	-9.88956
▁బారిన	-9.88964
▁అక్కడికి	-9.89129
ప్పు	-9.89138
▁తదుపరి	-9.89151
▁మెరుగైన	-9.89153
▁యూనియన్	-9.89153
▁స్కీమ్	-9.89181
▁ఏర్పడ	-9.89244
యిన	-9.89309
on	-9.8932
▁నిమిషాల	-9.89438
▁ఆరా	-9.8944
▁టాపిక్	-9.89458
▁జరిగితే	-9.89473
▁భూమిని	-9.89541
▁విభాగం	-9.89545
ొద్దని	-9.89596
▁అవుతుందని	-9.89707
▁సూర్యాపేట	-9.89766
▁వైఎస్సార్	-9.89772
▁మంచు	-9.89773
స్థాన	-9.89776
▁ఉష్ణోగ్రతలు	-9.898
▁వార్	-9.89851
▁భయం	-9.89877
▁గంటలు	-9.89935
▁ఒకసారి	-9.89937
ళ్ళు	-9.89947
▁రాగానే	-9.8996
15	-9.89997
▁డిగ్రీ	-9.9004
ందనే	-9.90043
▁భోజనం	-9.90052
▁H	-9.90056
▁యూట్యూబ్	-9.90074
▁సరిగ్గా	-9.90074
▁అభిప్రాయపడ్డారు	-9.90076
▁మ్యూజిక్	-9.90086
▁మనసు	-9.90117
▁డ్	-9.90238
ందరికీ	-9.90326
▁నెల్లూరు	-9.90384
▁డిజైన్	-9.90384
▁ధాన్యం	-9.9041
▁స్కామ్	-9.90418
▁అభి	-9.90423
పోవడంతో	-9.90457
▁పలికారు	-9.90475
▁చంద్రబాబును	-9.9049
▁చేస్తారని	-9.90508
ಲ	-9.90535
▁చల్ల	-9.90544
▁వచ్చినా	-9.90607
▁రాజ్యాంగ	-9.90616
▁చేప	-9.90684
ହ	-9.90691
▁మరికొందరు	-9.90694
▁నిఘా	-9.90737
▁కీలకంగా	-9.90743
ఘ	-9.9076
لی	-9.90783
▁తిప్ప	-9.9085
ಕ	-9.90856
▁నిర్మాణానికి	-9.9088
▁ఉండేలా	-9.90897
ان	-9.90902
▁పరిణామాల	-9.90918
▁పర్యావరణ	-9.90926
▁అవ్వ	-9.90962
య్యాయి	-9.90989
▁చోటుచేసుకుంది	-9.91006
▁చెబుతోంది	-9.91017
లియా	-9.91149
▁రాజకీయం	-9.91192
▁లేకపోవడం	-9.91228
ార్	-9.91252
▁సంప్రదించ	-9.91262
▁పెట్రోల్	-9.91318
▁రిజర్వ్	-9.91318
▁శుభాకాంక్షలు	-9.91318
▁ఊహించని	-9.91322
▁సౌత్	-9.91354
▁ఉంట	-9.9141
▁ఎర్ర	-9.91428
వైపు	-9.91431
▁పాత్రలో	-9.91435
తాయి	-9.91447
▁జ్యోతి	-9.91457
▁మార్గం	-9.91478
▁వేస్తున్నారు	-9.91498
▁గ్రామీణ	-9.9151
▁వార	-9.91528
త్రా	-9.91542
▁ఆస్పత్రికి	-9.91545
▁వెలుగులోకి	-9.91577
▁ویڈیو	-9.91632
▁ఖర్గే	-9.91632
▁వాట్సాప్	-9.91632
▁చైర్	-9.91633
ీయ	-9.91654
▁లోపల	-9.9171
▁కారణాలు	-9.91766
▁ఉత్తమ	-9.91775
వాన్	-9.91811
▁పాయింట్	-9.91811
ఫీ	-9.91819
▁పెట్టుబడులు	-9.91884
.7	-9.9193
▁కారణాల	-9.91944
▁ఎదుట	-9.91948
▁ఎప్పటికప్పుడ	-9.91951
▁తీశారు	-9.91965
▁అగ్ని	-9.91971
▁సోమ	-9.92003
▁ఎంటర్	-9.92014
▁సముద్ర	-9.92057
▁బాధితులు	-9.9209
ట్లే	-9.92256
▁మహబూబాబాద్	-9.92262
▁గ్రేటర్	-9.92268
▁వారితో	-9.92298
▁హరి	-9.92311
▁సహాయ	-9.92321
▁చేస	-9.92353
▁పరిశీలించ	-9.92472
am	-9.92478
▁సంబంధాలు	-9.92517
▁వయస్సు	-9.92578
▁బలం	-9.92584
▁మణిపూర్	-9.92585
▁నాన్	-9.92587
పోయే	-9.92611
▁వేచి	-9.92621
▁కోరిక	-9.92625
ికి	-9.92655
▁సరి	-9.92669
▁ప్రాంతానికి	-9.92673
▁గుడి	-9.92702
▁పుట్టిన	-9.92718
▁నిరాశ	-9.92724
▁పండగ	-9.92731
▁D	-9.9274
▁యాజమాన్యం	-9.92762
▁అడుగులు	-9.92833
▁వెల్	-9.92851
▁బ్రిటన్	-9.92896
▁నువ్వు	-9.92905
▁సభ్యుడు	-9.92911
గూడ	-9.92914
▁నిర్మల్	-9.92942
ع	-9.92971
గే	-9.92994
▁పొడి	-9.93014
▁ఫలితంగా	-9.93025
▁వలన	-9.93038
▁ఆర్థికంగా	-9.93188
▁డిపార్ట్	-9.93214
▁లింక్	-9.93226
▁తెలియని	-9.93235
▁బెస్ట్	-9.93258
▁లిస్ట్	-9.93263
సో	-9.93295
▁బార్	-9.93326
یا	-9.93338
▁చివరకు	-9.93365
-1	-9.93366
نے	-9.93435
▁తెలిపిన	-9.93465
▁ప్రజల్లో	-9.93467
▁గ్లోబల్	-9.93534
▁కెనడా	-9.93538
▁కార్యక్రమాన్ని	-9.93545
▁సైన్యం	-9.93547
▁డం	-9.93548
▁జుట్టు	-9.93563
▁యూనిట్	-9.93577
24	-9.93648
▁చేస్తున్నామని	-9.93649
▁తీర్మానం	-9.93651
▁ఉన్నట్టు	-9.93703
▁ప్రతిపాదన	-9.93752
ేసిన	-9.93779
▁గానీ	-9.93783
▁నవీన్	-9.93856
▁ఛాన్స్	-9.93885
▁ఫలితాల	-9.93889
v	-9.93899
▁ఎకరాల్లో	-9.93937
▁వచ్చాక	-9.93988
▁జైలుకు	-9.94012
▁ప్లేస్	-9.94098
▁వో	-9.94115
న్నర	-9.94116
▁కుటుంబాలకు	-9.94159
▁ఐదుగురు	-9.94185
ز	-9.942
ుకున్నాడు	-9.94221
▁లభించింది	-9.94221
ుడిని	-9.94235
▁ముఖ	-9.94321
▁అలవాటు	-9.94347
▁పెరగ	-9.94353
▁మాస్	-9.94422
▁సిట్	-9.94458
▁క్ష	-9.94545
▁నిర్వహించి	-9.94643
▁کر	-9.94658
▁ఏఐ	-9.94666
▁రాజా	-9.94689
▁విగ్రహం	-9.94711
▁నొప్పి	-9.94822
▁నిరుద్యోగ	-9.94839
▁అంశాలు	-9.94862
▁కోరుతూ	-9.94867
▁నటించ	-9.9497
పోతున్న	-9.95011
▁కిలోల	-9.95039
డని	-9.95066
ంగి	-9.95086
▁ఏక	-9.95092
▁తీవ్రమైన	-9.95133
▁ALSO	-9.95147
▁అత్యవసర	-9.95147
▁సాంకేతిక	-9.95153
స్తున్నారు	-9.95154
▁యువకుడు	-9.95154
▁సోనియా	-9.9516
▁దళిత	-9.95259
▁ఉప్పు	-9.95267
▁ఫీజు	-9.95292
▁చెబుతున్న	-9.95331
▁వస్తాయని	-9.95342
▁కెసిఆర్	-9.95472
▁సివిల్	-9.95473
▁ایک	-9.95479
▁వైసీపీకి	-9.95502
▁కంపెనీల	-9.95514
▁అనుకూల	-9.95519
▁మరొక	-9.95543
▁ప్రారంభించిన	-9.95551
▁ఎండీ	-9.95572
ిందన్నారు	-9.95585
▁కాలనీ	-9.95596
ేశ్వర	-9.95608
▁ನ	-9.95737
▁ఫోర్	-9.95741
▁కానిస్టేబుల్	-9.95799
▁రాజమండ్రి	-9.95799
▁సునీల్	-9.95799
▁తెలుస్తుంది	-9.95805
▁స్టోరీ	-9.95809
▁సత్తా	-9.95832
▁రిపోర్టు	-9.95848
▁కారణమ	-9.9588
▁ధ్వంసం	-9.95888
ుకోవచ్చు	-9.95904
75	-9.9598
▁టికెట్లు	-9.96041
ధ్య	-9.96065
▁సినిమాల్లో	-9.96111
▁వ్యక్తిని	-9.96123
▁ముప్పు	-9.96127
▁డెలివరీ	-9.96127
▁స్వాగతం	-9.96127
▁సమగ్ర	-9.96136
▁వాటిలో	-9.96164
▁సేకరించ	-9.96196
▁కంటి	-9.96212
▁ఫా	-9.96245
▁బాధపడుతున్న	-9.96261
▁గఢ్	-9.96263
▁పులి	-9.96297
▁కేసును	-9.96302
▁ఇళ్లు	-9.96346
▁ఇదిలా	-9.9639
మన	-9.964
▁సత్య	-9.96413
▁ఫె	-9.96438
▁విభజన	-9.96456
▁సస్పెండ్	-9.96456
▁నెయ్యి	-9.96456
▁యాంటీ	-9.96456
▁టీజర్	-9.96515
పాల	-9.96522
▁కుక్క	-9.96532
▁నిర్లక్ష్యం	-9.96537
ra	-9.96543
▁అన్నది	-9.96551
▁పడ్డ	-9.96589
▁నిర్	-9.96687
▁ಮ	-9.96692
▁రైళ్ల	-9.96705
▁కన్నా	-9.96714
▁వంట	-9.96802
▁ఆస్పత్రిలో	-9.96825
▁చర్య	-9.96832
▁రోడ్లు	-9.96836
▁పెరిగాయి	-9.96849
▁రూరల్	-9.96877
▁సదర	-9.96946
▁తనిఖీలు	-9.96963
▁వేర్	-9.96975
▁READ	-9.97117
▁మామిడి	-9.97161
▁తినడం	-9.97164
బోతున్న	-9.97197
پ	-9.97199
▁ఆనంద్	-9.97202
▁పరిశ్రమ	-9.97218
▁పాటించ	-9.97235
ాపూర్	-9.97237
▁ఉంటూ	-9.97326
▁బీమా	-9.97343
▁అడిగి	-9.97353
▁తేదీల్లో	-9.97362
వాళ్ల	-9.97372
▁భాగం	-9.97373
▁కళ్ల	-9.97417
▁దసరా	-9.9745
▁మహారాష్ట్రలో	-9.97462
▁రాజీవ్	-9.97463
▁పట్టించుకో	-9.97496
▁సొంతం	-9.97572
▁పేట	-9.97594
▁ಅ	-9.97654
▁డిగ్రీల	-9.97679
▁ప్రత్యక్ష	-9.97694
▁జట్టుకు	-9.97697
▁వీరిలో	-9.97703
▁ఆరోపణల	-9.97715
▁నేతలతో	-9.97748
జన	-9.9777
▁భద్రాద్రి	-9.97783
▁చంద్రశేఖర్	-9.97784
▁ಕ	-9.97882
▁వాటికి	-9.9803
▁ఇం	-9.98096
▁ఎన్డీఏ	-9.98124
▁48	-9.98132
▁భాస్కర్	-9.98146
35	-9.98168
▁కోరుతున్నారు	-9.98214
▁పడుతుంది	-9.98244
ందరూ	-9.98269
▁ఫలితాలను	-9.98299
▁ఇంటెలిజెన్స్	-9.98453
▁స్కోరు	-9.98453
▁వ్యవహారాల	-9.98454
▁లభిస్తుంది	-9.98477
▁నిర్వహించనున్న	-9.98518
▁ఆధారాలు	-9.9856
▁ప్రయాణించ	-9.98615
▁సమర్పించ	-9.98635
▁లైట్	-9.98642
▁కీలకమైన	-9.98736
▁వేడుకలు	-9.98743
▁ఖాతా	-9.98759
▁ఇంటర్నేషనల్	-9.98789
▁డాలర్ల	-9.98793
▁పిల్ల	-9.98793
▁అతన్ని	-9.98794
▁నేపాల్	-9.98798
▁ک	-9.98816
▁గేమ్	-9.98821
▁సూచించింది	-9.98843
▁ఉందా	-9.9893
▁V	-9.98946
▁హిందీ	-9.98951
శ్రీ	-9.98971
ందర్	-9.98977
▁వాహన	-9.98983
సూ	-9.99031
▁ఎక్కడా	-9.99041
▁రంగం	-9.99125
▁కబ్జా	-9.99127
▁G	-9.99134
▁కుటుంబంలో	-9.99139
▁పరంగా	-9.99219
▁ఇండస్ట్రీ	-9.99268
▁రాయ్	-9.99301
▁సంపద	-9.99317
▁నిందితులు	-9.99335
▁అహ్మద్	-9.99466
▁ఆత్మ	-9.99516
▁మేయర్	-9.99522
▁ప్రారంభ	-9.99566
▁పిల్లలను	-9.99578
▁300	-9.99591
▁విష్ణు	-9.99596
▁డో	-9.99648
▁అనిపించ	-9.99737
▁సురేష్	-9.99806
▁దక్షిణాఫ్రికా	-9.99808
▁చేతులు	-9.99817
▁సమయానికి	-9.99835
▁లేకపోతే	-9.99838
▁చేశా	-9.9987
▁యం	-9.99872
▁సంచారం	-9.99884
▁నేతలకు	-9.99898
▁అంశాల	-9.99904
▁కారణమని	-9.99968
▁ಬ	-9.99976
స్టర్	-10.0003
థి	-10.0003
▁సూచనలు	-10.0004
▁అక్క	-10.0006
▁సిద్దం	-10.0006
టన్	-10.0007
▁తేల్చి	-10.001
▁కూలి	-10.0014
▁సన్న	-10.0024
టిక్	-10.0024
▁సీజ్	-10.0033
రాం	-10.0034
▁జే	-10.0035
▁మిలియన్	-10.0037
▁ا	-10.0042
▁త్రి	-10.0043
▁ఎంపీలు	-10.0045
▁అదనంగా	-10.0049
▁మాల్	-10.0051
▁వ్య	-10.0052
▁సీపీఐ	-10.0052
▁2016	-10.0054
▁స్పందించిన	-10.0054
▁అప్పుడే	-10.0054
▁అయ్య	-10.0057
తన	-10.0058
▁పదే	-10.006
▁చెబుతున్నాయి	-10.0061
▁ధన	-10.0062
ంటా	-10.0068
▁లీక్	-10.0068
మంత	-10.0072
▁డై	-10.0072
▁బ్యాటర్	-10.0074
▁వచ్చినట్లు	-10.0082
▁మండలి	-10.0082
▁రివ్యూ	-10.0083
▁బిఆర్ఎస్	-10.0084
▁న్యాయస్థానం	-10.0088
చ్చి	-10.0097
-2	-10.0101
▁లాల్	-10.0103
▁టన్నుల	-10.0104
▁పెట్టడం	-10.0108
▁హామీలు	-10.0116
▁అవినాష్	-10.0118
▁ప్రగతి	-10.0118
▁పర్సన్	-10.012
▁వార్డు	-10.0123
్యం	-10.0125
▁కనిపిస్తున్నాయి	-10.0125
▁జు	-10.0125
▁జాగ్రత్త	-10.0139
▁జరిపిన	-10.0142
▁పర	-10.0147
▁ఆదేశాల	-10.0152
▁గమనార్హం	-10.0152
▁స్కోర్	-10.0153
▁బైడెన్	-10.0154
▁పనిచేయ	-10.016
▁అండర్	-10.016
▁జల	-10.0162
▁ఉచితంగా	-10.0173
▁హెచ్చరిక	-10.0178
▁ఉద్యమ	-10.018
▁కేంద్రాల	-10.0182
▁కొనసాగించ	-10.0184
▁బ్రిడ్జి	-10.0187
▁ముంబయి	-10.0187
▁తమను	-10.0189
▁జాతర	-10.019
▁చెబుత	-10.019
▁33	-10.0193
▁నెలలు	-10.0196
కుంటే	-10.0198
▁జాబ్	-10.0198
▁నెటిజన్లు	-10.02
▁నగరం	-10.0205
▁లారీ	-10.0207
.8	-10.0207
కల	-10.0211
▁తరలించ	-10.0214
రాజ	-10.0218
లైన	-10.0223
▁సైనిక	-10.0228
ినప్పుడు	-10.0228
▁వస్త	-10.0229
▁ప్రాంత	-10.0232
▁తప్పకుండా	-10.0238
▁బయటికి	-10.0238
▁మార్గంలో	-10.024
▁అధ్యక్షుడిగా	-10.024
▁వ్యతిరేకత	-10.024
గుల	-10.0245
ంటున్న	-10.0253
▁భయపడ	-10.0255
▁చూశా	-10.0255
▁కౌన్సిల్	-10.0257
▁జనగామ	-10.0257
▁చిత్తూరు	-10.0257
▁వర్కింగ్	-10.0257
▁సెకండ్	-10.0258
పోవడం	-10.026
▁ఇంగ్లండ్	-10.026
▁చౌదరి	-10.0261
▁వాళ్లకు	-10.0262
▁ధరణి	-10.0263
బే	-10.0265
▁కలసి	-10.0268
కుడు	-10.0272
▁వహించ	-10.0278
కుల	-10.0279
▁గంటల్లో	-10.0281
▁సర్పంచ్	-10.0292
▁డీజీపీ	-10.0293
▁బిలియన్	-10.0293
వాడ	-10.03
▁0	-10.0301
▁పరిస్థితుల	-10.0306
▁చెత్త	-10.0306
ఫై	-10.0308
▁L	-10.0312
▁భవిష్యత్తు	-10.0314
▁లుక్	-10.0318
స్టు	-10.0325
▁భువనగిరి	-10.0327
▁సోదాలు	-10.0327
▁సూచిస్తున్నారు	-10.0327
▁దేవి	-10.0328
▁సాగుతోంది	-10.033
గొట్ట	-10.0343
ବ	-10.0345
▁పేదలకు	-10.0345
▁ఎమ్మెల్యేల	-10.0346
▁తేల	-10.0354
▁డిపాజిట్	-10.0363
▁రవీంద్ర	-10.0363
▁అంతేకాకుండా	-10.0363
నియా	-10.0367
▁పెట్టుకుని	-10.0372
▁కతా	-10.0382
▁ముందుగానే	-10.0385
▁చేస్తున్నా	-10.0389
-3	-10.0394
▁సాఫ్ట్	-10.0398
▁గొంతు	-10.0398
▁ఇందుకోసం	-10.0398
▁ఓటర్ల	-10.04
▁చైతన్య	-10.0403
▁కోల్పోయిన	-10.0404
▁అనుభవం	-10.0408
▁కాలంగా	-10.0408
ఖ్	-10.0414
▁పొందుతున్న	-10.0415
▁కప్పు	-10.0417
▁అన్యాయం	-10.0423
▁సహజ	-10.0426
వల్	-10.0427
▁తేల్చ	-10.0428
▁శంకుస్థాపన	-10.0434
▁శరీరం	-10.0434
▁గ్యాంగ్	-10.0434
స్తామని	-10.0435
▁పనులకు	-10.0436
▁یہ	-10.0445
▁అందించిన	-10.0446
▁వీలు	-10.0447
▁అప్పులు	-10.0448
▁సీతక్క	-10.047
▁ఆసీస్	-10.047
▁స్టాక్	-10.0474
▁లోడ్	-10.0476
దారు	-10.0478
▁పదవికి	-10.0481
▁ఘటనలు	-10.0481
▁వర్షాల	-10.0482
▁నేర	-10.0485
▁విశాఖపట్నం	-10.0487
▁కాల్పులు	-10.0488
ులను	-10.0488
▁ఏసీ	-10.0495
▁రన్	-10.0501
▁యజమాని	-10.0505
▁స్పేస్	-10.0505
▁చక్కెర	-10.0508
▁కొరియా	-10.0508
▁సమాచారాన్ని	-10.0511
▁సమయంలోనే	-10.0514
▁నీళ్ల	-10.0515
▁లె	-10.0515
▁బస్	-10.0517
▁ప్రభావితం	-10.0523
ందన్న	-10.0524
▁కోరింది	-10.0526
▁జట్లు	-10.0526
▁ఢిల్లీకి	-10.0527
▁ప్రతినిధులు	-10.0527
▁కాలి	-10.053
▁స్టేడియంలో	-10.0531
▁హాస్టల్	-10.0541
▁కొంతకాలం	-10.0543
▁పెంపు	-10.0544
▁ఏమిటి	-10.0545
▁ఉద్దేశించి	-10.055
రాన్	-10.0552
چ	-10.0557
తంగా	-10.0557
ేసి	-10.056
▁బాధితుల	-10.056
▁పీఎస్	-10.0574
ాము	-10.0577
▁వృద్ధి	-10.0577
▁వేలాది	-10.0578
▁భద్రాచలం	-10.058
ర్స్	-10.0586
▁టెన్షన్	-10.0588
▁జూ	-10.0594
▁పద	-10.0594
▁తరలి	-10.0596
▁ಹ	-10.0598
▁అప్రమత్తంగా	-10.0598
▁పోరు	-10.0599
ೋ	-10.0604
▁దాడుల	-10.0608
▁కౌంటింగ్	-10.0618
▁వ్యాపారం	-10.062
▁వచ్చా	-10.0621
▁32	-10.0621
▁లెక్కలు	-10.0622
పరమైన	-10.0623
▁జైల్లో	-10.0626
▁విన్న	-10.0629
▁రిజర్వేషన్	-10.0633
▁ఆది	-10.0651
▁పార్టీలకు	-10.0653
▁మంత్రుల	-10.0655
▁ఎవరికీ	-10.0658
▁జరుగుతుందని	-10.0668
▁చేస్తుందని	-10.067
▁సరిగా	-10.0671
▁మున్సిపాలిటీ	-10.0675
▁ش	-10.0675
▁మొత్తంలో	-10.0686
▁సిస్టమ్	-10.0686
▁నెరవేర్చ	-10.0686
కరంగా	-10.0688
▁టె	-10.0688
▁గురయ్యారు	-10.0689
▁చేసుకుంట	-10.0689
▁మేనేజర్	-10.0694
▁ప్రకటనలో	-10.0695
▁ఆడిన	-10.07
▁ప్రభుత్వాలు	-10.0707
▁మోస	-10.0712
▁నిల్వ	-10.0713
▁ఒడిశా	-10.0714
▁ప్రముఖులు	-10.0714
▁పొలిటికల్	-10.0723
▁రేంజ్	-10.0724
▁స్థానాలకు	-10.0725
▁జీవ	-10.0736
▁కన్న	-10.0737
▁నిజంగా	-10.0738
ుతోందని	-10.0754
లక్షల	-10.0759
▁యూఎస్	-10.0769
90	-10.0773
పడి	-10.0775
U	-10.0777
నాటి	-10.078
నేది	-10.0782
ొద్దు	-10.0783
▁ఏమైనా	-10.0783
స్తోంది	-10.0785
ుతారు	-10.0785
▁పొగ	-10.0785
మ్స్	-10.0787
▁కార్యకర్తల	-10.0788
▁R	-10.0791
▁లేవని	-10.0791
▁گیا	-10.0796
▁విజేత	-10.0797
▁లక్షణాలు	-10.0797
▁ఐఏఎస్	-10.0797
▁మంద	-10.0798
▁వృత్తి	-10.0805
తను	-10.0807
▁వ్యాఖ్యల	-10.0811
▁ఆయిల్	-10.0811
కంగా	-10.0817
▁వైద్యం	-10.0817
▁పడ్డారు	-10.0819
▁సీన్	-10.0825
రూప	-10.083
ad	-10.083
▁మూడేళ్ల	-10.0834
▁రాజశేఖర్	-10.0836
▁కలిశారు	-10.0836
▁గీత	-10.084
▁వీసా	-10.0842
చేయ	-10.085
ట్టుగా	-10.0855
▁అందించే	-10.0856
ానికే	-10.0856
▁వదిలి	-10.0856
▁రెండేళ్ల	-10.0857
రన్	-10.0858
▁గిరి	-10.0858
25	-10.0861
▁టా	-10.0864
▁వంశీ	-10.0873
▁రై	-10.0876
▁పనిచేసిన	-10.0877
▁దండ	-10.0885
టూ	-10.089
ివే	-10.089
పోయారు	-10.0894
ಟ	-10.0894
▁దారుణంగా	-10.0897
▁విషయాలను	-10.0901
न	-10.0907
▁బతుకమ్మ	-10.0908
▁రైజర్స్	-10.0908
▁చోరీ	-10.091
▁మిస్	-10.0922
▁చరిత్రలో	-10.0924
▁ఏరియా	-10.0925
వార	-10.0928
▁తోపాటు	-10.093
త్తు	-10.0932
▁42	-10.0934
సిస్	-10.0934
▁తల్లిదండ్రుల	-10.0935
▁వేడుక	-10.0943
స్తా	-10.0945
▁వారీగా	-10.0946
▁బ్యారేజీ	-10.0947
▁పనిచేస్త	-10.0947
శం	-10.0948
▁36	-10.0951
డింగ్	-10.0952
▁అప్పగించ	-10.0953
▁ప్రభుత్వంపై	-10.0954
▁చాలు	-10.0955
▁చెట్టు	-10.0956
ుండ	-10.0962
▁సిటీలో	-10.0963
▁సలహా	-10.0968
▁ఎందుక	-10.097
▁గౌరవం	-10.0978
▁దీపావళి	-10.0983
▁బీసీసీఐ	-10.0983
▁స్వతంత్ర	-10.0983
▁జడ్జి	-10.0983
▁టేబుల్	-10.0983
▁సాధ్యం	-10.0984
▁న్యాయమూర్తి	-10.0984
▁సందీప్	-10.0984
▁లాభాలు	-10.0985
▁మృతదేహాన్ని	-10.0986
▁హక్కుల	-10.0989
▁మందు	-10.099
▁పైకి	-10.0993
▁చేత	-10.1007
▁కార్మిక	-10.101
▁భూకంపం	-10.1011
"."	-10.1012
▁సినిమాతో	-10.1019
ଣ	-10.1021
▁సమితి	-10.1021
▁ధర్మాసనం	-10.1021
▁కౌ	-10.1023
▁అతడు	-10.1024
▁అప్పుల	-10.1026
▁యాక్ట్	-10.1026
▁పొన్నం	-10.1027
ఖా	-10.1028
▁గమనించ	-10.103
55	-10.1031
▁ఏమ	-10.1032
▁ప్రయోజనాలు	-10.1032
పైనా	-10.1033
ನ್	-10.1035
▁సహకరించ	-10.1036
▁గాయపడిన	-10.104
▁అభిప్రాయ	-10.1043
▁నిబంధనలు	-10.1043
▁ముఖ్యం	-10.1046
▁తుమ్మల	-10.105
సిన	-10.1056
▁బ్యూటీ	-10.1059
▁చేసినట్టు	-10.1061
▁సమావేశానికి	-10.1066
▁నియంత్రణ	-10.1068
ుతాయి	-10.107
▁చిరుత	-10.1072
▁ఇతరుల	-10.1072
▁ఇయర్	-10.1073
▁ఉపయోగించి	-10.1074
▁ఎదురుచూస్తున్న	-10.1077
▁తీసుకుంటే	-10.1079
▁అస	-10.1082
▁చెల్ల	-10.1084
గల్	-10.1084
వార్	-10.1084
▁పల్లె	-10.1089
▁టైంలో	-10.1089
▁ఉష్ణోగ్రత	-10.1093
▁తెలిసి	-10.1093
▁సొసైటీ	-10.1097
▁పత్రిక	-10.1097
▁జయంతి	-10.1097
యన్	-10.1098
▁కల్తీ	-10.1099
ీకరణ	-10.1099
▁స్పోర్ట్స్	-10.11
▁విషయానిక	-10.1101
ేశాడు	-10.1102
▁తరహాలో	-10.1102
▁చూసే	-10.1105
▁నియోజక	-10.111
యింది	-10.1115
▁విధానాల	-10.1116
ులకు	-10.1117
▁టమాటా	-10.1135
▁జేడీఎస్	-10.1136
▁మెసేజ్	-10.1137
▁బీహార్	-10.1138
డియా	-10.1139
▁2017	-10.1141
ఫర్	-10.1142
▁దానం	-10.1144
▁పాడ	-10.1148
▁అందిస్తున్న	-10.1151
కపోయినా	-10.1152
▁కేంద్రానికి	-10.1152
▁అంశాలను	-10.1152
▁వెయ్యి	-10.1153
▁కథనం	-10.1154
▁పార్	-10.1157
▁నెలకు	-10.1158
▁దర్శకత్వంలో	-10.116
▁దిల్లీ	-10.116
▁మెయిన్	-10.1164
▁ఖాతాలో	-10.1166
▁భవనం	-10.1168
▁జనతా	-10.1177
▁రైళ్లు	-10.1178
▁అవుత	-10.1181
▁విధించ	-10.1181
▁ప్రాధాన్యం	-10.1186
▁చూడాలని	-10.1187
▁రానుంది	-10.1188
తారని	-10.1188
▁చుట్ట	-10.1192
▁ణ	-10.1194
▁రాం	-10.1197
▁క్ర	-10.1197
▁కర	-10.1201
▁వెళ్లేందుకు	-10.1206
▁కేటాయింపు	-10.1207
గడ	-10.1208
▁టాస్	-10.1209
▁క్రిమినల్	-10.1212
▁రెస్టారెంట్	-10.1212
▁లక్నో	-10.1212
▁కాకినాడ	-10.1212
▁సంక్షేమం	-10.1214
▁చేసుకున్నాడు	-10.1215
▁మారుతోంది	-10.1217
▁లోపు	-10.1218
▁150	-10.1219
▁నిలిచారు	-10.1221
▁బ్రహ్మ	-10.1222
పాటి	-10.1232
▁భారం	-10.1236
▁నాగర్	-10.1245
▁దోపిడీ	-10.125
▁సార్వత్రిక	-10.125
▁అరుదైన	-10.1251
ତ	-10.1252
▁వినోద్	-10.1256
తర	-10.1258
▁నిర్వహించాలని	-10.1264
▁క్లాస్	-10.1274
▁వస్తున్నారు	-10.1275
▁ఇస్తున్నారు	-10.1289
▁మృతుల	-10.129
ెడ్	-10.1291
▁లాభం	-10.1296
▁రౌండ్	-10.1297
▁తెల్లవారుజామున	-10.13
లక్ష్మి	-10.1308
▁చెందారు	-10.1311
▁కల్యాణ	-10.1312
పూడి	-10.1317
▁కొన్న	-10.132
▁కొండా	-10.1321
▁ఇప్ప	-10.1323
▁బస్సులు	-10.1325
▁వెళ్ళ	-10.1326
▁భావించ	-10.1328
▁కంటెంట్	-10.1328
▁లోకేశ్	-10.133
▁రాష్ట్రాలకు	-10.1331
▁ఆరోగ్యానికి	-10.1333
▁మేనిఫెస్టో	-10.134
▁బొమ్మ	-10.1342
▁ప్రయాణికుల	-10.1346
ಹ	-10.135
▁చెప్త	-10.135
▁తగ్గింది	-10.1358
▁కష్టం	-10.1359
స్తు	-10.1363
▁సినిమాల	-10.1365
▁పిలుపు	-10.1367
▁సిలిండర్	-10.1367
▁చాట్	-10.137
▁బయలుదేరి	-10.1374
▁నిలిచిన	-10.1374
▁వందే	-10.1377
▁ఆంధ్ర	-10.1377
▁స్టేడియం	-10.1378
సులు	-10.138
న్నది	-10.1381
▁గాజా	-10.1386
▁మాటల	-10.139
▁సంఘాలు	-10.139
రింగ్	-10.139
▁వ్యాధుల	-10.1395
డ్స్	-10.1399
▁తెల్ల	-10.1399
▁సాధించి	-10.1401
యాల	-10.1402
▁ప్రవేశపెట్ట	-10.1403
▁భారతదేశం	-10.1404
▁నిలబెట్ట	-10.1406
▁ఫేస్	-10.1407
▁పెరుగుదల	-10.1407
▁వ్యాఖ్యలపై	-10.1407
▁ఒకేసారి	-10.1409
▁కిందట	-10.1412
▁వాన	-10.1413
▁ప్రాణ	-10.1423
▁ఇవే	-10.1425
▁దిగి	-10.1427
▁విక్రయించ	-10.1427
▁వేటు	-10.1429
▁ఒకరి	-10.143
▁వెళ్లడం	-10.1439
▁కర్	-10.1441
ాలో	-10.1445
ొచ్చని	-10.1446
▁బలోపేతం	-10.1446
▁మహ్మద్	-10.1446
▁లీకేజీ	-10.1446
▁వాణిజ్య	-10.1446
▁చర్చించారు	-10.1447
▁ఆయన్ను	-10.1452
▁విధించింది	-10.1453
▁పనిచేశారు	-10.1453
▁నచ్చ	-10.1461
▁వాహనాల	-10.1467
ار	-10.1469
▁జీవన్	-10.147
▁చేయాల్సిన	-10.1473
▁వ్యాపారులు	-10.1475
▁సమంత	-10.1482
▁ప్రతికూల	-10.1485
▁పట్టించుకోవడం	-10.1486
▁గట్టిగా	-10.1487
▁వివరించ	-10.1488
▁చనిపోయారు	-10.1489
ೂ	-10.149
▁గాయాలు	-10.1491
▁విడుదలైన	-10.1493
▁చెప్తున్నారు	-10.1501
▁సమస్యను	-10.1504
▁బంధు	-10.1505
▁ఇచ్చాడు	-10.1506
ri	-10.1507
త్తి	-10.1511
జ్ఞ	-10.1521
▁ج	-10.1521
▁అడ్డ	-10.1521
జో	-10.1522
▁నాగార్జున	-10.1525
▁తరచూ	-10.1525
▁మోస్తరు	-10.1525
▁స్ఫూర్తి	-10.1525
▁చేసుకొని	-10.1527
▁అభిమానుల	-10.1531
▁వర్గానికి	-10.1533
▁సంస్కృతి	-10.1538
▁మెడ	-10.1545
ండీ	-10.1545
▁మర	-10.1547
▁కొట్టుకు	-10.1547
▁నౌక	-10.1548
▁సింహ	-10.1555
▁పరీక్షల	-10.1562
▁కర్నూలు	-10.1565
▁34	-10.1566
▁అంబటి	-10.1567
▁ఫాస్ట్	-10.157
▁ఆసుపత్రి	-10.1571
టివ్	-10.1571
▁మొక్క	-10.1574
నింగ్	-10.1577
▁ఎత్తు	-10.1579
▁కష్టాలు	-10.1582
▁పరిస్థితిని	-10.1584
రంగ	-10.1593
▁ట్ర	-10.1593
▁నాన్న	-10.1595
యోగ	-10.16
▁అర్బన్	-10.1605
▁సీఎంగా	-10.1608
▁ఆటగాళ్ల	-10.161
▁గట్టి	-10.1613
▁ఒక్కరి	-10.1614
28	-10.1614
▁ఎవర	-10.1619
▁వ్యవస్థను	-10.162
▁అంజ	-10.1623
▁అధ్యక్షులు	-10.1624
▁చేస్తాయి	-10.1625
▁పార్ట్	-10.1628
పొ	-10.1628
▁తానే	-10.1628
శాల	-10.1633
▁సమాజంలో	-10.1634
▁భావిస్తున్న	-10.1641
▁రోడ్ల	-10.1642
▁అర్ధరాత్రి	-10.1645
▁హనుమాన్	-10.1645
▁నేతలను	-10.1645
▁కల్	-10.1652
▁పెట్టే	-10.1656
▁కేంద్రంగా	-10.1659
▁శి	-10.166
▁చేయలేదని	-10.1663
▁చేస్తున్నాడు	-10.1663
త్రి	-10.1667
▁సహకారం	-10.1667
ری	-10.1668
▁శాస్త్రవేత్తలు	-10.1669
▁దొంగ	-10.1673
త్స	-10.1679
▁విపరీత	-10.1679
ತ	-10.168
23	-10.1683
▁హామీలను	-10.1684
▁ఎన్డీయే	-10.1685
▁హనుమకొండ	-10.1685
▁క్రెడిట్	-10.1685
▁పేలుడు	-10.1685
▁జీహెచ్ఎంసీ	-10.1685
▁అజయ్	-10.1686
▁లాయర్	-10.1689
▁ప్రతిపక్షాల	-10.1696
22	-10.1697
▁చట్ట	-10.1697
▁పరిణామాలు	-10.1698
▁యువకులు	-10.1709
▁టూర్	-10.171
నల్	-10.1713
▁నిషేధం	-10.1717
బాబు	-10.1719
▁కేసుల్లో	-10.1719
▁దాకా	-10.1719
ిస్తామని	-10.1722
▁చూస్తున్నారు	-10.1722
▁ఖచ్చితంగా	-10.1726
▁సపోర్ట్	-10.1726
▁పద్మ	-10.1728
▁ఎన్నికలలో	-10.1732
మీద	-10.174
▁చేపట్టాలని	-10.174
▁స్థలం	-10.1742
▁తీసుకు	-10.1745
▁రోడ్డుపై	-10.1751
▁ప్రభావంతో	-10.1753
▁తెలుసుకున్నారు	-10.1758
▁దారుణ	-10.176
▁సోదరుడు	-10.1767
▁మనోజ్	-10.1769
▁దాస్	-10.1771
▁ఉద్రిక్తత	-10.1773
కృష్ణ	-10.1787
▁స్టూడెంట్స్	-10.1787
▁ఒంటరిగా	-10.1788
▁వస్తువులు	-10.1798
ేటప్పుడు	-10.18
▁విక్రమ్	-10.1807
▁లండన్	-10.1807
▁రాజేందర్	-10.1808
▁బంద్	-10.181
▁మేనేజ్	-10.1812
▁:	-10.1813
▁నిజానికి	-10.1815
▁పెద్దలు	-10.1823
▁ఇచ్చేందుకు	-10.1825
▁కార్య	-10.1826
▁స్టార్ట్	-10.1827
▁వలస	-10.1829
తూ	-10.183
▁ఏపీకి	-10.183
ేనని	-10.1831
▁ఆస్తుల	-10.1834
ि	-10.1834
▁ఖా	-10.1835
▁చిట్	-10.1835
▁కాపు	-10.1843
నట్లు	-10.1844
▁ఎదుర	-10.1845
▁ఎలక్ట్రిక్	-10.1848
▁ప్రజాప్రతినిధుల	-10.1848
▁బుమ్రా	-10.1848
▁మెదడు	-10.1848
▁కాం	-10.1849
▁ప్రజాస్వామ్య	-10.1862
కాలం	-10.1871
థా	-10.1876
ణా	-10.1878
ଲ	-10.1879
▁ప్రసంగ	-10.1879
▁డ్రా	-10.1881
▁మార్పుల	-10.1886
▁పాము	-10.1886
ଭ	-10.1889
▁కండువా	-10.1889
▁ఫిల్మ్	-10.1889
▁ముగిసింది	-10.1891
▁రెగ్యులర్	-10.1892
▁మొత్తాన్ని	-10.1893
▁జియో	-10.1893
▁ఐదో	-10.1893
పైనే	-10.1898
హీ	-10.1901
▁సగం	-10.1905
▁రుణ	-10.1905
21	-10.1909
.25	-10.1909
యాన్ని	-10.1911
▁అసంతృప్తి	-10.1917
ాపురం	-10.192
▁యోగం	-10.1923
▁క్రైమ్	-10.1931
▁స్టీల్	-10.1931
▁పరిపాలన	-10.1931
▁పండితులు	-10.1935
▁వ్యవహరిస్తున్న	-10.1936
నన్న	-10.1939
▁టోర్నీ	-10.194
▁అప్ప	-10.1943
నుందని	-10.1948
▁చిత్రాన్ని	-10.1953
రంగా	-10.1955
ళ్	-10.1966
▁వేద	-10.1967
▁ఆస్తులు	-10.1968
▁پ	-10.1971
▁నాణ్యత	-10.1972
▁సిద్ధరామయ్య	-10.1972
▁మినహా	-10.1972
▁స్థాయికి	-10.1975
▁K	-10.1975
▁నినాదాలు	-10.198
▁విచారించ	-10.1985
▁వేయడం	-10.1988
కుంట	-10.1988
▁ఇష్టపడ	-10.1988
▁జీవించ	-10.199
▁ఇచ్చారని	-10.1992
▁నెస్	-10.2002
▁దింప	-10.2009
▁యోగా	-10.2014
▁విస్తరణ	-10.2014
▁సరికొత్త	-10.2014
▁లక్ష్మణ్	-10.2018
▁వ్యవసాయం	-10.2019
▁లోపం	-10.2022
▁నగరంలోని	-10.2022
సర	-10.2024
▁లాక్	-10.2025
గీ	-10.2028
▁పౌర	-10.2029
ేశ	-10.203
▁ఉద్యమం	-10.2031
▁ن	-10.2035
▁ఉత్తమ్	-10.2036
▁సినిమాపై	-10.2039
29	-10.2045
వినిపిస్తున్నాయి	-10.2048
▁సిగ్నల్	-10.2056
▁పదేళ్ల	-10.2056
▁ఎస్టేట్	-10.2056
▁అవకాశముందని	-10.2056
45	-10.2058
▁ఫిక్స్	-10.2058
▁ప్రాంతాలు	-10.206
▁మహేశ్	-10.2062
▁ఎవరో	-10.2063
▁రాజకీయాల	-10.2065
▁అడిగిన	-10.2065
▁ఇండియాలో	-10.2066
▁కొరత	-10.2068
▁పోషించ	-10.2068
తున్న	-10.2068
▁నోట్	-10.2068
▁వినియోగదారుల	-10.207
▁గ్రూపు	-10.2073
పడ్డ	-10.2074
▁భూములను	-10.2087
▁నిందితులను	-10.2089
▁అప	-10.2092
▁ఆంక్షలు	-10.2093
డర్	-10.2094
▁విభాగంలో	-10.2096
▁ట్రోఫీ	-10.2098
▁మేడ్చల్	-10.2098
మొ	-10.2099
▁కోపం	-10.2099
కారం	-10.2103
▁కురుస్తాయని	-10.2103
స్ట	-10.2105
▁చేరి	-10.2107
▁సేవా	-10.2107
▁నిర్మించారు	-10.2107
▁ఏది	-10.2108
▁తెలుసా	-10.2108
లేకపోయ	-10.2113
▁వాస్తవ	-10.2113
▁భవిష్యత్తులో	-10.2117
▁విస్తరించ	-10.212
▁చెబుతూ	-10.212
▁పర్యటనలో	-10.2124
▁సూచించ	-10.2126
f	-10.2126
మాత్రం	-10.2131
పోతున్నారు	-10.2132
▁ఘనత	-10.2133
▁నాశనం	-10.214
▁రకరకాల	-10.214
▁జ్యోతిష్య	-10.214
▁మధ్యంతర	-10.214
▁మౌలిక	-10.214
▁పొందుతారు	-10.2141
▁ముఠా	-10.2141
▁పనిలో	-10.215
.20	-10.2154
నాలు	-10.2159
▁చిత్రంలో	-10.2161
▁లింగ	-10.2164
▁చెబుతారు	-10.2166
▁బౌలర్	-10.2172
▁నేల	-10.2174
రాలు	-10.2175
స్థ	-10.2177
▁విషాదం	-10.2178
▁సంగీతం	-10.218
▁సమస్యలపై	-10.2181
▁భూపాలపల్లి	-10.2182
▁యుక్రెయిన్	-10.2182
▁మస్క్	-10.2183
▁సెషన్	-10.2186
▁కనిపిస్త	-10.219
నాడు	-10.2191
▁ప్రమోషన్	-10.2192
▁ఆప్షన్	-10.2192
▁పెడితే	-10.2195
▁కావాల్సిన	-10.22
▁ಸ	-10.22
▁కావాలి	-10.2204
దన్నారు	-10.2209
▁బోర్	-10.2214
▁స్వల్ప	-10.2216
▁రాష్ట్రాన్ని	-10.2218
▁ఫోన్లు	-10.2222
▁చార్జి	-10.2222
▁ప్రత్యర్థి	-10.2225
▁వికారాబాద్	-10.2225
▁సునీత	-10.2226
▁బలహీన	-10.2231
ామ	-10.2237
▁అందించాలని	-10.2243
▁అయ్యాడు	-10.2243
▁ముద్ర	-10.2245
కుమార్	-10.2248
▁చూపిస్త	-10.2248
▁భావించారు	-10.2249
▁దూర	-10.2249
▁జరుప	-10.2253
▁కర్నాటక	-10.2256
▁కింగ్స్	-10.2258
▁దినోత్సవం	-10.2261
▁సిద్దరామయ్య	-10.2268
▁ವೈರಲ್	-10.2268
▁సచిన్	-10.2268
▁నిలదీశారు	-10.2268
▁బ్యానర్	-10.2268
▁2009	-10.2273
▁నైట్	-10.2274
▁మూసీ	-10.2275
▁ఆలస్యం	-10.2276
▁ముఖం	-10.2278
▁దగ్గరకు	-10.2285
▁ప్రారంభించింది	-10.2288
▁ఇవ్వలేదు	-10.229
▁తెలిసిన	-10.2291
▁చేస్తాం	-10.2305
▁నవ	-10.2305
▁ఛత్తీస్	-10.2311
▁జరిమానా	-10.2311
▁పోలవరం	-10.2311
▁ప్రయోజనం	-10.2311
▁వరదల	-10.2311
▁సూచన	-10.2314
▁ఫిట్	-10.2315
▁కార్డ్	-10.2316
▁పత్రాల	-10.2317
▁పవార్	-10.2318
చేశారు	-10.2318
▁సింగిల్	-10.2321
▁మొత్తంగా	-10.2322
▁కల్పించాలని	-10.2322
▁జీవితాన్ని	-10.2329
ుతున్నారని	-10.2333
▁కింగ్	-10.2337
ర్థ	-10.234
బడి	-10.2342
లింగ	-10.2343
▁సేవలను	-10.2344
▁శాఖల	-10.2346
▁బంధువులు	-10.2353
▁సుదీర్ఘ	-10.2353
▁పరిసర	-10.2353
▁కొంచెం	-10.2354
▁అప్డేట్	-10.2354
తుల	-10.2355
▁దేవస్థానం	-10.2356
పుడు	-10.2357
క్షన్	-10.2357
▁అమెరికన్	-10.2358
▁పరిశీలించి	-10.236
▁కాన్	-10.2363
▁చీ	-10.2364
▁మరణం	-10.2367
బోతున్నారు	-10.2368
▁సంతోష్	-10.2368
▁దాడిలో	-10.2371
▁వేరు	-10.2373
▁మాన	-10.2373
చేసి	-10.2374
▁సదస్సు	-10.2376
▁ఫోటోలు	-10.2379
▁ఆరోగ్యంగా	-10.2379
ములు	-10.2381
ముల	-10.2387
▁అంతరిక్ష	-10.239
రాల	-10.2391
▁దే	-10.2391
▁ఆహ్వానించ	-10.2396
▁ఏకాదశి	-10.2397
▁రీసెర్చ్	-10.2397
▁షుగర్	-10.2397
జ్జ	-10.2399
▁రూపాయి	-10.241
ృత	-10.2416
▁అస్	-10.2425
th	-10.2434
▁హెలికాప్టర్	-10.244
▁విమానంలో	-10.2441
▁ట్రెండ్	-10.2441
▁ఆరుగురు	-10.2442
▁స్పందిస్తూ	-10.2442
▁శ్రద్ధ	-10.2444
▁తే	-10.2446
▁చేయాలనే	-10.2447
▁రూట్	-10.2448
▁రాశిలో	-10.245
▁టూ	-10.2454
▁41	-10.2454
▁ఒలింపిక్స్	-10.2454
▁ఫోర్లు	-10.2454
▁మం	-10.2456
ంద్ర	-10.2457
▁ఆఫీసు	-10.2466
▁తెలుగులో	-10.2469
ha	-10.247
▁భావిస్త	-10.2477
చ్చిన	-10.2478
▁మనుషుల	-10.248
▁కంప్యూటర్	-10.2484
▁జడేజా	-10.2484
99	-10.2484
▁మనీ	-10.2486
▁ఐసీసీ	-10.2486
▁సైన్స్	-10.2486
▁రాకెట్	-10.2487
▁చేసుకుంటున్న	-10.249
▁రోడ్లపై	-10.2491
రిక్	-10.2491
లోపు	-10.2498
ं	-10.2501
కంటే	-10.2503
▁లక్ష్మి	-10.2503
ಲ್	-10.2505
దర	-10.2505
▁దంపతులు	-10.2506
▁ప్రదర్శించ	-10.2507
w	-10.2508
▁సముద్రంలో	-10.251
▁జాతి	-10.2514
▁చేసుకోవ	-10.2518
▁కర్నూల్	-10.2528
▁మల్లారెడ్డి	-10.2529
▁ఉంటున్నారు	-10.2529
▁భిన్నంగా	-10.2532
▁నాంపల్లి	-10.2532
▁డ్రామా	-10.2538
▁యూత్	-10.2539
▁చేయడంలో	-10.2541
ిరెడ్డి	-10.2546
▁పవిత్ర	-10.2547
▁నిర్వహిస్తారు	-10.2548
▁వేయాలని	-10.2549
▁బీఐ	-10.256
▁ఎగ్జిట్	-10.2572
▁సామర్థ్యం	-10.2572
▁బెంచ్	-10.2572
▁బల	-10.2576
చారం	-10.2578
స్తాయి	-10.2579
ెల	-10.2581
▁స్వీకరించ	-10.2585
▁అరుణ్	-10.2588
▁పంటలు	-10.259
▁దించ	-10.2592
▁విచారణను	-10.2593
్యు	-10.2597
▁గ్యారంటీ	-10.2599
27	-10.26
▁నోటీసు	-10.2601
▁ఈవో	-10.2606
▁రైతులను	-10.261
▁ప్రత్యేకమైన	-10.2611
▁ప్రొ	-10.2613
▁తీరుపై	-10.2616
▁మెజార్టీ	-10.2616
▁గ్రాండ్	-10.2617
▁పెరుగుతోంది	-10.2617
▁శ్రీకాంత్	-10.2618
ال	-10.2622
లాల్	-10.2623
▁నిర్ణయాన్ని	-10.2626
ందున	-10.2627
ుడిగా	-10.2632
▁సజ్జల	-10.2632
▁నిర్ణయించుకున్న	-10.2632
▁బిజీగా	-10.2635
▁రాళ్ల	-10.2638
▁ఇబ్బందుల	-10.2645
పూ	-10.2647
ాలా	-10.2653
▁చివరికి	-10.2655
▁లోతు	-10.2658
బడింది	-10.2659
▁ఛాంపియన్	-10.2661
▁వివాదాస్పద	-10.2661
▁సురేఖ	-10.2661
▁అశ్విన్	-10.2661
▁కీర్తి	-10.2661
▁బిల్లులు	-10.2663
▁చేస్తామన్నారు	-10.2665
▁ఎస్సై	-10.2667
▁ପ	-10.2668
▁వారంతా	-10.267
▁పాల్గొని	-10.2672
65	-10.2672
▁ఫిర్యాదులు	-10.2678
▁దో	-10.2679
నాయ	-10.268
▁వారంలో	-10.2682
or	-10.269
▁పేదల	-10.269
▁ప్రారంభమైన	-10.2693
రమ	-10.2696
▁టై	-10.2696
▁స్థితిలో	-10.2699
▁ప్రశ్నించ	-10.2702
▁ఛ	-10.2702
▁ఆసిఫాబాద్	-10.2705
▁ఎక్సైజ్	-10.2705
▁వర్షపాతం	-10.2705
▁సమ్మె	-10.2705
▁క్లబ్	-10.2705
▁పక్కనే	-10.2705
▁రామకృష్ణ	-10.2706
▁తెలిపాడు	-10.2711
▁ఆశలు	-10.2712
ుతుండగా	-10.2712
▁ఆస్పత్రి	-10.2712
▁రూల్స్	-10.2713
▁శాసన	-10.2716
▁స్వామివారి	-10.2719
▁ఇకపై	-10.2726
▁ప్రపంచం	-10.2735
▁గాయాల	-10.2736
▁పరిశ్రమల	-10.2738
▁కలిగించ	-10.2739
en	-10.274
▁పోత	-10.274
▁సార	-10.2741
పోయిందని	-10.2745
▁సెగ్మెంట్	-10.2746
▁వరుణ్	-10.275
▁ఇంటర్నెట్	-10.2751
▁వార్నింగ్	-10.2751
▁క్యాంపు	-10.2751
▁వెల్లడి	-10.2752
▁ఏడాదికి	-10.2752
▁మెజారిటీ	-10.2754
▁తీసుకెళ్లారు	-10.2755
▁పొట్ట	-10.2757
▁విధానాన్ని	-10.2759
ారావు	-10.276
▁ప్రో	-10.276
వాడు	-10.2762
▁ఉంటారని	-10.2764
▁ఒక్కరూ	-10.2769
▁కేటాయించిన	-10.2771
▁క్రమంగా	-10.2774
▁వర్	-10.2776
▁తోట	-10.2779
▁కనిపించే	-10.2781
పరు	-10.2781
▁చేశాం	-10.2782
ପ	-10.2784
▁నిధులను	-10.2784
▁వాల్	-10.2786
▁వచ్చినప్పుడు	-10.2786
▁వారే	-10.2795
▁ఇంజినీరింగ్	-10.2795
▁ఎనర్జీ	-10.2795
▁సెర్చ్	-10.2795
▁ఢీ	-10.2796
▁ధరల	-10.2802
85	-10.2804
▁ان	-10.2805
▁బాయ్	-10.2806
▁గెలిచారు	-10.2809
▁చీర	-10.281
▁పైలట్	-10.2812
వన్	-10.2813
ರಿ	-10.2818
▁మండలంలో	-10.2828
▁పెట్టాలని	-10.284
▁వినియోగం	-10.284
05	-10.284
▁నాగేశ్వరరావు	-10.2841
▁కీపర్	-10.2842
▁కులాల	-10.2846
▁కనీస	-10.2847
▁స్ట	-10.2851
▁కలిసిన	-10.2852
▁55	-10.2853
▁వాహనం	-10.2854
▁ఏర్పాట్ల	-10.2857
▁ప్రోత్సహించ	-10.286
పద	-10.2861
▁ప్రస్తావించ	-10.2864
▁డెడ్	-10.2869
భావ	-10.287
▁ఎత్త	-10.2874
క్ట్	-10.2876
▁చేస్తా	-10.2876
▁దేశాలకు	-10.2877
రామ్	-10.2879
..!!	-10.2881
వారిని	-10.2883
ಣ	-10.2886
▁రాసి	-10.2886
ଜ	-10.2886
▁విదేశాంగ	-10.2886
▁యువకుడి	-10.2886
▁శ్రీహరి	-10.2887
▁అభ్యర్థులకు	-10.2887
▁పత్రాలు	-10.2889
▁బూత్	-10.2892
▁మండలాల్లో	-10.2894
▁ట్రా	-10.2895
▁చెప్పినట్లు	-10.2895
ಸ	-10.2896
హో	-10.2898
▁హెచ్చరికలు	-10.2898
▁పోస్టుల	-10.2915
▁س	-10.2918
▁బాట	-10.2919
▁అవసరమ	-10.2922
▁వ్యూహం	-10.2923
ದಲ್ಲಿ	-10.2927
▁ఇంటర్వ్యూలో	-10.2931
▁కన్వీనర్	-10.2932
▁రిజర్వాయర్	-10.2932
▁సవరణ	-10.2932
▁ఆఫీసులో	-10.2933
▁ఘర్షణ	-10.2935
▁తెలంగాణలోని	-10.2938
▁ఇస్తారు	-10.2938
▁పత్తి	-10.2939
▁చేస్తోందని	-10.294
▁రోల్	-10.2944
▁గ్రామస్తులు	-10.2948
▁జన్మ	-10.2951
▁తీసుకుంట	-10.2957
▁శ్రేణులు	-10.2957
▁గుట్ట	-10.2957
▁సర	-10.2961
32	-10.2961
▁టో	-10.2963
▁గొ	-10.2963
▁నిలబడ	-10.2965
▁వినాయక	-10.2969
33	-10.2972
▁అడ్డు	-10.2973
▁చంద్రుడి	-10.2976
▁పరిమితం	-10.2979
▁కానున్న	-10.2979
ور	-10.2988
▁భా	-10.2989
▁క్వార్టర్	-10.2991
▁రాష్ట్రాలు	-10.2996
▁ప్రశంసలు	-10.3
బం	-10.301
▁భవనాల	-10.3011
ಕ್	-10.3012
▁పోల్స్	-10.3013
బర్	-10.3015
▁మొదలుపెట్ట	-10.3018
କୁ	-10.3019
సెస్	-10.302
ున్నట్లు	-10.3021
त	-10.3022
▁వివేకా	-10.3023
▁స్వేచ్ఛ	-10.3024
▁అంబానీ	-10.3024
▁అందువల్ల	-10.3024
▁కాలేజ్	-10.3024
▁టీపీసీసీ	-10.3024
▁ప్రారంభమైంది	-10.3026
▁అంతకు	-10.3027
▁పారిశ్రామిక	-10.3027
▁శాతానికి	-10.3028
▁ت	-10.3031
టరీ	-10.3031
▁చింత	-10.3034
▁సందడి	-10.3035
▁సరే	-10.3039
లేకపోయారు	-10.3051
▁ట్రైన్	-10.3051
▁నిర్వహిస్త	-10.3056
చిన	-10.3061
సింగ్	-10.3062
▁వర	-10.3062
▁భాగ	-10.3069
ल	-10.3069
▁జమ్మూ	-10.307
▁అభ్యంతరం	-10.307
▁కమ్యూనిటీ	-10.307
▁ధోనీ	-10.307
▁అగ్రనేత	-10.307
▁అంశాన్న	-10.307
▁బొగ్గు	-10.307
▁ఆద	-10.3072
▁కేటాయించారు	-10.3072
▁తీర్పును	-10.3075
▁వాలంటీర్ల	-10.3076
▁రంగాల్లో	-10.3078
▁3,	-10.3079
▁చూసేందుకు	-10.308
▁అనుమానాలు	-10.3083
▁రాజన్న	-10.3083
▁పదవులు	-10.3083
▁రిజర్వేషన్లు	-10.3084
శీ	-10.3085
ف	-10.3088
▁కల్పిస్త	-10.3089
▁చేపట్టింది	-10.3092
▁బ్యా	-10.3098
▁భారతదేశ	-10.3104
లిగ	-10.3106
▁చేతుల	-10.3108
द	-10.3116
▁క్యారెక్టర్	-10.3116
▁ప్రకృతి	-10.3116
▁మళ్ళీ	-10.3116
▁ఉప్పల్	-10.3116
▁గేట్	-10.3116
్మ	-10.3117
▁పోయింది	-10.3117
▁400	-10.3119
▁బంతి	-10.3119
షీ	-10.3122
▁సిక్స్	-10.3123
▁జరిగినట్లు	-10.3124
▁వెస్ట్	-10.3126
▁టికెట్ల	-10.313
▁వేసే	-10.3131
▁పేర్లను	-10.3134
▁లపై	-10.3137
▁బాధిత	-10.3139
▁సామాన్య	-10.3139
▁వెళ్లింది	-10.3141
▁వేస్తున్న	-10.3143
08	-10.3144
▁బాద	-10.3145
▁ప్రయోజనాల	-10.3147
▁సంతోష	-10.315
▁భాగంగానే	-10.3151
▁స్థానికుల	-10.3152
▁ఒకప్పుడు	-10.3153
▁సంచలనం	-10.3155
ున్నారని	-10.3155
▁మౌ	-10.3156
▁తీసుకెళ్లి	-10.3157
.9	-10.3158
ات	-10.316
▁ఇరిగేషన్	-10.3163
▁ధన్యవాదాలు	-10.3163
▁సీఈవో	-10.3163
▁ఆదిత్య	-10.3164
▁మల్లన్న	-10.3167
మం	-10.3168
▁ముగ్గురి	-10.317
▁ప్రతిపక్షాలు	-10.3177
▁సంతోషం	-10.3178
▁దాటి	-10.3178
పాడు	-10.3178
▁భయ	-10.318
▁స్కాం	-10.3181
▁తేజ్	-10.3182
31	-10.3187
▁కడుపు	-10.3193
▁విజయవంతంగా	-10.3193
▁క్రి	-10.3197
▁బీజేపీతో	-10.3197
▁పూర్వ	-10.3204
▁లభించ	-10.3205
▁పనితీరు	-10.3207
▁కౌశిక్	-10.321
▁ఛానెల్	-10.321
▁తిరస్కరించ	-10.321
▁శుభవార్త	-10.321
▁తమిళనాడులో	-10.3211
▁అభిషేక్	-10.3212
▁గౌతమ్	-10.3213
▁వారాల	-10.3214
▁అడుగుపెట్ట	-10.322
▁ఊహించ	-10.322
▁కొద్దీ	-10.3221
▁విమర్శల	-10.3222
▁ఓటీటీ	-10.3223
▁తరహా	-10.3227
▁జరగకుండా	-10.3231
49	-10.3232
▁తీసుకున్నట్లు	-10.3233
▁జట్టును	-10.3235
నీయ	-10.3235
▁ఖాయమని	-10.3236
▁ఈటల	-10.3243
▁హామీల	-10.3249
▁పోల్	-10.3256
▁ఎఫెక్ట్	-10.3257
▁గెలిస్తే	-10.3257
▁స్టాగ్రామ్	-10.3257
▁ఏఐసీసీ	-10.3257
▁జగన్మోహన్	-10.3259
▁విద్యాశాఖ	-10.326
▁କ	-10.326
▁ఆరోపిస్తున్నారు	-10.3263
▁వ్యక్తికి	-10.3263
▁రిజర్వేషన్ల	-10.3264
▁రుచి	-10.3266
▁పిలుస్తారు	-10.3267
▁విలీనం	-10.3268
▁సభ్యులతో	-10.3273
▁ఆనందం	-10.3275
▁రాణి	-10.3277
▁దరఖాస్తులు	-10.3281
▁44	-10.3284
▁ఎత్తి	-10.3298
▁బాలుడి	-10.3299
▁విశ్వాసం	-10.3303
▁లాంచ్	-10.3305
▁వనపర్తి	-10.3305
▁ప్లాస్టిక్	-10.3305
▁గోల్	-10.3309
▁లై	-10.331
▁విగ్రహాన్ని	-10.3311
▁బ్ల	-10.3313
▁వైట్	-10.3315
▁రింగ్	-10.3315
▁మొదటిసారి	-10.3317
▁ధైర్యం	-10.3317
▁యంగ్	-10.3319
▁ఓపెనర్	-10.332
వారం	-10.3322
లక్ష	-10.3326
ండ్ల	-10.3331
రాష్ట్ర	-10.3333
▁సభ్యులకు	-10.3333
▁గద్వాల	-10.3336
▁శ్రమ	-10.3337
మైనా	-10.3337
▁రాణించ	-10.3339
▁అనుచరుల	-10.3339
▁తిరు	-10.334
డితే	-10.3342
▁సాధన	-10.3348
▁పిచ్	-10.3351
▁సే	-10.3352
▁తరుణంలో	-10.3352
▁చర్మం	-10.3352
▁చూపించారు	-10.3354
com	-10.3355
▁కేంద్రమంత్రి	-10.3356
▁కేటాయిస్త	-10.3359
▁అయ్యి	-10.3364
▁తిన్న	-10.3365
▁ఏర్పాటుకు	-10.3367
మయ్య	-10.3372
ಮ	-10.3375
ائی	-10.3379
▁కలవ	-10.3379
▁డాలర్లు	-10.3381
▁తిరుగుతున్న	-10.3387
▁గోడ	-10.3388
▁చేరుకో	-10.3389
▁అమెజాన్	-10.34
▁కార్యాచరణ	-10.34
▁శంషాబాద్	-10.34
▁సేఫ్టీ	-10.3402
▁ఆమ్	-10.3405
▁లూ	-10.3406
▁ఇష్ట	-10.3409
▁ప్రకటిస్త	-10.341
▁నిర్వాహకులు	-10.3413
▁గుర్తించిన	-10.3414
▁మాట్లాడి	-10.3419
▁ప్రచారాన్ని	-10.3421
▁నిజాం	-10.3423
▁ఇవ్వాలి	-10.3426
▁ప్రాజెక్టుల	-10.3428
▁పర్యాటక	-10.3434
▁అందిస్తున్నారు	-10.3435
▁హైవే	-10.3435
▁మెన్	-10.3436
▁పూ	-10.3442
▁ట్యాపింగ్	-10.3448
▁రవీందర్	-10.3448
▁డ్యూటీ	-10.3448
▁స్పూన్	-10.3448
▁మోటార్	-10.3448
త్వ	-10.3449
ನ್ನು	-10.3451
▁సురక్షితంగా	-10.3454
▁గోపాల్	-10.3454
▁చేయడమే	-10.3455
▁శరీరానికి	-10.3457
▁వర్గాల్లో	-10.3463
▁కొనసాగుతున్నాయి	-10.3468
▁కేంద్రాల్లో	-10.3474
▁విధించారు	-10.3475
▁పావు	-10.3476
▁గన్	-10.3477
▁ఏళ్లుగా	-10.3479
▁దేశాన్ని	-10.3487
▁సానుకూల	-10.3488
▁స్థానాల	-10.349
▁కోటా	-10.3491
▁జాబితాను	-10.3491
▁పురోగతి	-10.3496
▁తుపాను	-10.3496
ସ	-10.3498
పాల్	-10.3501
▁ఫొటోలు	-10.3504
▁ఉద్యోగి	-10.3505
▁ఆలస్యంగా	-10.3505
▁భావన	-10.3506
పింగ్	-10.3506
▁యూపీ	-10.351
▁ఐఆర్	-10.3511
▁అర్థ	-10.3512
ానన్నారు	-10.3513
▁నిర్ణయ	-10.3514
▁నిర్ణయాల	-10.352
▁విస్తృత	-10.3522
దేవి	-10.3522
▁చేయాలన్నారు	-10.3523
▁X	-10.3532
ح	-10.3537
▁ట్లు	-10.3537
▁మీట్	-10.3538
ఠ	-10.3539
▁ఉద్దేశంతో	-10.3539
▁చలి	-10.3544
▁పథకాన్ని	-10.3545
▁పర్మిషన్	-10.3545
▁తహసీల్దార్	-10.3545
▁ప్రాతినిధ్యం	-10.3545
▁మెగాస్టార్	-10.3545
▁ఇంటర్వ్యూ	-10.3545
▁క్యాడర్	-10.3546
▁ప్రజల్లోకి	-10.3546
ాయ్	-10.3549
ఫె	-10.3552
▁జీతం	-10.3554
▁సిద్ద	-10.3557
యంలో	-10.356
▁వైఎస్ఆర్	-10.356
గంటల	-10.356
▁పాయింట్ల	-10.3565
▁రోజ	-10.3565
▁కస్టడీ	-10.357
▁కౌన్సిలర్లు	-10.3574
▁మరణ	-10.3575
▁సమాన	-10.3586
▁సాయంతో	-10.3587
▁కామ	-10.3589
ంచారు	-10.359
▁వేలకు	-10.3592
▁పండ్లు	-10.3593
▁కాశ్మీర్	-10.3594
▁నిరూపించ	-10.3594
▁నమోదయ్యాయి	-10.3594
▁ప్రాంతీయ	-10.3594
▁గాయం	-10.3595
▁సెలవులు	-10.36
పరి	-10.3606
▁తింటే	-10.3608
▁మాన్	-10.3612
▁నిరసనలు	-10.3613
▁పరిస్థితులను	-10.3614
రిక	-10.362
▁చేసుకుంటున్నారు	-10.362
▁వేస్త	-10.3625
▁కార్యకర్త	-10.3636
కృ	-10.3638
ుతుంటారు	-10.3639
▁జడ్పీ	-10.3643
ୀ	-10.3643
▁ఎంఐఎం	-10.3643
▁ఎంజాయ్	-10.3643
▁సంక్రాంతి	-10.3643
▁జోక్యం	-10.3643
▁గడిచిన	-10.3643
▁చెన్నూరు	-10.3643
ుడైన	-10.3644
▁అనంతపురం	-10.3644
▁కట్టుబడి	-10.3645
▁సగటు	-10.3653
▁ఇందిరా	-10.3654
▁రెండవ	-10.3655
▁మండ	-10.366
▁కన	-10.3661
ರು	-10.3665
ారంటే	-10.3672
▁చెప్పారని	-10.3672
▁విధి	-10.3675
కాలు	-10.3677
డిగా	-10.3679
▁కార్డులు	-10.3688
ల్లోనూ	-10.3689
▁అధిష్టానం	-10.3692
▁నిమిత్తం	-10.3692
▁నెహ్రూ	-10.3692
▁వెస్టిండీస్	-10.3692
▁ఇదంతా	-10.3692
▁బంగ్లా	-10.3692
▁క్యాంప్	-10.3692
▁కొవ్వు	-10.3692
▁వంశీకృష్ణ	-10.3693
▁మార్గ	-10.3693
▁విదేశాల్లో	-10.3694
▁కొనసాగుతుంది	-10.3697
దేశ	-10.3697
ుంటాయి	-10.3699
▁దక్కింది	-10.3712
▁తొ	-10.3714
చ్చింది	-10.3715
▁వర్గ	-10.372
▁వీడ	-10.372
ద్ది	-10.3721
▁పోటీలో	-10.3721
▁ఇస్తూ	-10.3725
▁జంతువుల	-10.373
▁ఆందోళనలు	-10.3731
il	-10.3733
గ్రహ	-10.3733
▁చెప్పడంతో	-10.3734
▁వెల	-10.3737
▁జార్ఖండ్	-10.3742
▁సల్మాన్	-10.3742
▁పంత్	-10.3742
▁కుమారస్వామి	-10.3742
▁గుర్తుచేశారు	-10.3744
▁సంగీత	-10.3744
▁లవ్	-10.3747
▁మునిగి	-10.3755
ئی	-10.3757
▁ఇస్తుంది	-10.3759
▁ఐదేళ్ల	-10.3766
▁తాక	-10.377
▁కాల్స్	-10.3771
▁కొనసాగిస్తున్న	-10.3778
▁ముంబైలో	-10.3785
▁మ్యాన్	-10.3786
▁ఘటనా	-10.3789
▁జిల్లాలకు	-10.3791
ಧ	-10.3791
▁కార్పొరేట్	-10.3791
▁రేపటి	-10.3791
▁తిరగ	-10.3791
▁సహాయపడుతుంది	-10.3792
▁సంతకం	-10.3792
▁38	-10.3796
▁పట్టుకుని	-10.3798
▁విపక్ష	-10.3799
▁క్షేత్ర	-10.3803
▁65	-10.3803
▁రఘురామ	-10.3805
▁నోటి	-10.3805
వాద	-10.381
▁ఏమి	-10.3812
▁బంగాళాఖాతంలో	-10.3813
▁మారుతున్న	-10.3814
▁మందులు	-10.3819
▁ఎక్కడి	-10.3819
▁మాట్లాడుతున్న	-10.382
డంపై	-10.3821
▁పథకాలను	-10.3824
▁చదువుతున్న	-10.3825
▁పండ	-10.3826
▁ఇవ్వకుండా	-10.3833
क	-10.3835
J	-10.3835
డికి	-10.3837
ెక్	-10.384
ಚ	-10.3841
▁ఉపశమనం	-10.3841
ଛି	-10.3841
▁దేవరకొండ	-10.3842
▁గంగా	-10.3844
▁I	-10.3851
▁బాధ్యతలను	-10.3852
▁టీడీపీకి	-10.3857
▁రెండుసార్లు	-10.3859
▁దిల్	-10.3861
▁చేసేలా	-10.3863
మూర్తి	-10.3864
▁ప్రస్తావించారు	-10.3865
పెట్టి	-10.3866
న్నాయని	-10.3867
▁ఫ్యాన్	-10.3868
▁ఎంపీపీ	-10.3872
▁వేగంతో	-10.3877
ందంటూ	-10.3885
▁మాట్లాడే	-10.3887
▁కల్వకుంట్ల	-10.3892
▁స్పెక్టర్	-10.3892
▁కలిగే	-10.3892
▁క్లిక్	-10.3892
▁నటన	-10.3894
▁చేయటం	-10.3897
ెయిన్	-10.3897
▁గెలిపించాలని	-10.3901
▁ఖాతాల్లో	-10.3905
▁గాయపడ్డారు	-10.3909
▁గె	-10.3912
▁బాధితులకు	-10.3913
▁అద్భుతంగా	-10.3914
39	-10.3915
పైన	-10.3915
▁నిపుణుల	-10.3916
ేశ్వర్	-10.3919
▁నర్స	-10.3922
ಯಾ	-10.3922
▁ఫ్ల	-10.3927
▁రఘు	-10.3928
సిన్	-10.3929
▁...	-10.393
▁తినే	-10.3934
బోయే	-10.394
▁నియంత్రించ	-10.3942
▁సందర్బంగా	-10.3942
ग	-10.3942
▁మసీదు	-10.3942
▁కిడ్నీ	-10.3942
▁ఉత్పత్తుల	-10.3943
ధ్	-10.3944
▁హెచ్చరించింది	-10.3944
▁2015	-10.3948
▁చేసుకోవడానికి	-10.3949
es	-10.3951
34	-10.3951
ಿಕ	-10.3952
▁లోన్	-10.3954
▁పార్కు	-10.3955
▁ఇంట	-10.3955
▁ఫ్రెండ్	-10.3957
▁త్	-10.3958
▁విరిగి	-10.396
▁*	-10.3962
▁స్థానాలను	-10.3968
▁37	-10.3974
▁చేతికి	-10.3974
▁అత్యాచారం	-10.3976
▁వయసులో	-10.3978
▁టోర్నీలో	-10.3981
36	-10.3982
▁కాక	-10.3984
వాలి	-10.3985
▁రైస్	-10.3986
▁సుప్రీంకోర్టులో	-10.3986
▁అందించడం	-10.3989
▁మంత్ర	-10.3993
▁కిడ్నాప్	-10.3993
▁ప్రకాశం	-10.3993
▁మేడిగడ్డ	-10.3993
▁డేవిడ్	-10.3993
▁డీసీపీ	-10.3995
▁బెల్లంపల్లి	-10.3997
▁2025	-10.3998
▁మారుతుంది	-10.3999
38	-10.4004
న్నింటి	-10.4007
▁భయంతో	-10.4011
▁మ్యా	-10.4013
▁ఆఫీసర్ల	-10.402
▁چ	-10.4021
టేషన్	-10.4025
▁తెచ్చి	-10.4026
పర	-10.4028
▁ఉత్సవాల	-10.4031
▁జేపీ	-10.4032
▁రంగాల	-10.4037
యాత్ర	-10.4042
▁లబ్ధి	-10.4043
▁అనుకో	-10.4043
▁وائرل	-10.4044
▁గద్దర్	-10.4044
▁వ్యాప్తి	-10.4044
▁డీఎస్పీ	-10.4045
త్రం	-10.4045
▁గణేష్	-10.4047
స్థాయి	-10.4047
▁సీపీఎం	-10.4047
▁మండి	-10.4052
కారు	-10.4054
▁ఆరోగ్యాన్ని	-10.4054
at	-10.4057
▁తొక్క	-10.4058
గ్రా	-10.4059
▁కార్యకలాపాల	-10.4061
▁టోల్	-10.4067
▁బట్టలు	-10.4075
▁కార్తీక	-10.4079
▁పదో	-10.4081
▁సంప్రదాయ	-10.4086
କ	-10.4089
▁నిర్వ	-10.409
ಾಗ	-10.4093
▁రుణాలు	-10.4094
▁డైరెక్ట్	-10.4095
▁డ్యాన్స్	-10.4095
▁న్యూయార్క్	-10.4095
▁శ్రీశైలం	-10.4095
▁ఎమోషనల్	-10.4095
▁తేలికపాటి	-10.4095
▁స్టాలిన్	-10.4095
ఘా	-10.4099
▁ସ	-10.4102
గ్న	-10.4103
▁పంపించారు	-10.4104
▁ہو	-10.4106
▁కొట్టిన	-10.4106
▁అమల్లోకి	-10.411
కరమైన	-10.4111
▁సౌకర్యం	-10.4111
▁సహకార	-10.4115
▁పెడుతున్నారు	-10.4116
▁ఆశ్రయించ	-10.4118
▁ఆయనపై	-10.412
▁తోడు	-10.4122
డూ	-10.4128
▁సహ	-10.4129
▁నెలలుగా	-10.4131
▁E	-10.4134
▁పాల్పడిన	-10.4137
ించాడు	-10.4138
ಪ	-10.4138
▁వినిపించ	-10.4139
ಡಿ	-10.4141
▁లాభ	-10.4141
▁46	-10.4142
చీ	-10.4145
▁దుబాయ్	-10.4147
▁పుతిన్	-10.4147
▁నడ్డా	-10.4147
▁కాంప్లెక్స్	-10.4147
▁షార్ట్	-10.4147
▁అనుబంధ	-10.4151
ాడో	-10.4156
58	-10.4157
▁సౌకర్యాలు	-10.4157
▁ఆశ్రయించారు	-10.4168
▁పరుగులకే	-10.4169
▁మరణించిన	-10.417
▁మీడియాకు	-10.417
▁లెవల్	-10.4179
▁కవర్	-10.4183
▁ఇంకో	-10.4188
نگ	-10.419
26	-10.4192
▁ఇంటిని	-10.4194
▁పక్కా	-10.4194
మేనని	-10.4195
▁కానున్నారు	-10.4197
41	-10.4197
▁గజ	-10.4198
▁ఆధ్యాత్మిక	-10.4198
▁కమర్షియల్	-10.4198
▁వర్సిటీ	-10.4199
▁మనోహర్	-10.4199
▁గడప	-10.4199
▁భావిస్తోంది	-10.42
▁తద్వారా	-10.4201
▁వైఖరి	-10.4202
▁కోత	-10.4204
▁షె	-10.4205
▁సమావేశ	-10.4205
▁మారే	-10.421
▁ఉంటా	-10.4212
▁F	-10.4212
కలు	-10.4214
▁రేట్లు	-10.4218
కైక	-10.4221
▁రాజకీయాలకు	-10.4223
మాట	-10.4226
శ్చ	-10.4227
47	-10.4232
▁బీజేపీని	-10.4235
▁తప్పి	-10.4235
▁అందిస్త	-10.4238
▁పోటీకి	-10.4239
ార్థ	-10.4244
▁నిలిచి	-10.4248
▁కొబ్బరి	-10.425
▁హర్	-10.425
▁అథారిటీ	-10.4251
▁కామెడీ	-10.4251
▁ప్రోగ్రామ్	-10.4251
డుగు	-10.4253
▁పట్టణంలో	-10.4254
▁నార్త్	-10.4255
నన్నారు	-10.4255
▁గాయ	-10.4255
▁విశేష	-10.4257
▁గ్ర	-10.4258
▁పీవీ	-10.4261
▁తేజ	-10.4262
▁పోసి	-10.4265
▁ప్రత్యేకత	-10.4266
▁దర్శకత్వం	-10.427
):	-10.4273
▁చనిపో	-10.4273
▁హ్యా	-10.4276
▁స్నానం	-10.4276
▁రైళ్లను	-10.4277
▁టచ్	-10.4278
▁కాద	-10.4282
▁నటిస్తున్న	-10.4283
నై	-10.4283
ದು	-10.429
తాడు	-10.4294
▁గూడ	-10.4294
▁తె	-10.4296
▁నాలుగేళ్ల	-10.4301
▁రెస్పాన్స్	-10.4303
ୋ	-10.4303
▁vs	-10.4303
▁గుప్తా	-10.4303
▁సంరక్షణ	-10.4303
▁హుండీ	-10.4304
▁భాగస్వామి	-10.4304
▁సుధాకర్	-10.4304
▁పాత్రలు	-10.4306
▁కుటుంబాలు	-10.4306
▁బ్లూ	-10.4309
77	-10.431
రేషన్	-10.431
▁అద్భుత	-10.431
▁అప్లికేషన్	-10.4313
▁నార్	-10.4316
▁స్టోర్	-10.4316
▁బంధువుల	-10.4316
▁ఖర్చులు	-10.4317
కానీ	-10.432
▁పట్టుకున్నారు	-10.4323
▁రూప	-10.4327
▁మొదలుపెట్టారు	-10.4327
యింగ్	-10.4329
▁ఆహ్వానించారు	-10.4329
▁పట్టాలు	-10.4334
▁కారం	-10.4334
▁లోకల్	-10.4336
▁ఆరో	-10.4338
▁వ్యా	-10.4339
▁చేతి	-10.434
రుగు	-10.4341
▁వెళ్లాలని	-10.4343
as	-10.4345
▁నేరం	-10.4345
ur	-10.4345
▁జోరుగా	-10.4347
▁ఆటగాళ్లు	-10.4349
ారి	-10.4352
▁హర్యానా	-10.4352
▁గులాబీ	-10.4356
▁దక్కించుకున్న	-10.4356
▁గవర్నమెంట్	-10.4356
పాలెం	-10.4357
▁చూస్తూ	-10.4357
▁ల్యాండర్	-10.4357
శ్య	-10.4359
▁అబ్బాయి	-10.436
▁ఊరట	-10.436
▁మాఫీ	-10.4365
▁హాఫ్	-10.4365
ంతి	-10.4367
▁వంతు	-10.4369
▁రాకపోకలు	-10.4377
▁లీడర్ల	-10.4378
▁లేఖలో	-10.4379
▁బర్	-10.4385
▁పదవుల	-10.4389
▁డ్రోన్	-10.439
▁మాల	-10.4391
▁4,	-10.4396
▁పెరగడం	-10.4397
▁తీసుకుంటున్నారు	-10.4402
▁బ్యాంకులు	-10.4402
▁ఆరోపణలపై	-10.4402
▁జరప	-10.4403
▁پی	-10.4404
▁పట్టణంలోని	-10.4407
▁వర్ష	-10.4407
▁କରି	-10.4409
▁వందేభారత్	-10.4409
▁ఫైబర్	-10.441
▁చర్మ	-10.4411
▁ఉక్రెయిన్	-10.4415
▁పైనే	-10.4416
▁ఉందో	-10.4416
▁రాయలసీమ	-10.4425
కెట్	-10.4427
ద్దు	-10.4429
▁ఉన్నందున	-10.443
▁ప్రతిభ	-10.4436
▁అడ్	-10.4438
లేకపోయింది	-10.4439
▁ఆశించిన	-10.4442
దారులు	-10.4447
▁ఫో	-10.4448
78	-10.4454
▁విమర్శ	-10.4456
▁కనిపిస్తున్న	-10.4456
▁కుక్కల	-10.4459
▁ఉండేందుకు	-10.446
పత్ర	-10.446
▁ఆధునిక	-10.4462
▁రేపింది	-10.4462
▁వేణు	-10.4462
▁నిర్మిస్త	-10.4462
▁క్లా	-10.4463
▁సంవత్సరానికి	-10.4466
▁భరత్	-10.4466
▁క్లీన్	-10.4467
▁కృతజ్ఞతలు	-10.4468
▁నగరాల్లో	-10.4468
▁ఓడ	-10.4471
ించాలని	-10.4473
ଟ	-10.4473
▁షాట్	-10.4476
▁అమర్	-10.4479
▁తీసుకొచ్చారు	-10.4479
▁పర్యటించారు	-10.448
▁సైనికుల	-10.4482
ాయో	-10.4486
▁ఫండ్స్	-10.4487
▁క్రాస్	-10.4488
▁తగ్గడం	-10.4488
▁నీటిలో	-10.4489
ین	-10.449
▁అత	-10.449
చన	-10.4492
రెస్	-10.4492
▁అంతస్తు	-10.4492
ముఖ	-10.4493
▁పిండి	-10.4499
ేతర	-10.4504
▁కూల్చ	-10.4505
▁కలిగించే	-10.4513
▁తెలియజేశారు	-10.4515
▁ప్రొడక్షన్	-10.4515
▁స్ట్రీమింగ్	-10.4515
▁గల్ఫ్	-10.4515
▁కలుగుతుంది	-10.4516
▁అర్హులైన	-10.4517
▁చేస్తుండగా	-10.4517
▁చేశాడని	-10.4517
▁కాన్ఫరెన్స్	-10.4519
▁రావాల్సి	-10.4524
▁నడి	-10.4527
▁ఉండదని	-10.4528
▁బోర్డ్	-10.4529
▁పురుషుల	-10.4532
▁చదువ	-10.4534
▁పడుతుందని	-10.4535
▁ఉన్నతాధికారుల	-10.4536
▁అమ్మకాలు	-10.4536
స్తున్నాయి	-10.4543
▁ప్రి	-10.4543
▁చూపు	-10.4545
▁తీసుకొచ్చిన	-10.4546
66	-10.4547
కైనా	-10.4552
ుతాయని	-10.4553
▁మార్కెట్లో	-10.4556
▁ఎప్పటి	-10.4556
▁కార్మికులకు	-10.4559
▁శక్తిని	-10.456
▁ప్రభుత్వమే	-10.456
▁కనుక	-10.4563
▁తీస్త	-10.4563
▁ఒక్కటే	-10.4564
▁వ్యవహారంలో	-10.4566
▁గేమ్స్	-10.4567
ೈ	-10.4568
▁కర్కాటక	-10.4569
▁బ్యాటరీ	-10.4569
▁అబ్దుల్	-10.457
▁అవకాశముంది	-10.4571
▁గోవా	-10.4571
▁పెరుగుత	-10.4571
▁ఆకాశ	-10.4571
▁వెళ్లిపోయారు	-10.4574
▁దర్శనానికి	-10.4575
▁వచ్చాడు	-10.4578
▁పాల్గొంటారు	-10.4578
▁టాస్క్	-10.4581
▁కేరళలో	-10.4581
▁కట్టిన	-10.4582
▁సిబ్బందికి	-10.4582
▁ఇక్కడే	-10.4589
▁పరిమిత	-10.4589
▁కష్టపడి	-10.459
▁సారించ	-10.459
▁సిద్ధమవుతున్న	-10.4591
▁కలెక్షన్స్	-10.4592
▁వర్షాలకు	-10.4593
▁నీర	-10.4597
▁పర్యటనకు	-10.4603
ಶ	-10.4605
▁گ	-10.4605
▁నవ్వ	-10.4607
▁ఆడి	-10.4609
▁సమీప	-10.4609
▁విజయవాడలో	-10.4616
ల్లి	-10.4619
▁మతం	-10.462
య్యాడు	-10.462
▁పరిశీలన	-10.4623
▁పాలమూరు	-10.4623
▁స్పీడ్	-10.4623
▁జంక్షన్	-10.4623
▁కోవిడ్	-10.4623
ున్నా	-10.4623
▁స్ట్ర	-10.4624
▁ఎడ్యుకేషన్	-10.4625
▁నిలిచాడు	-10.4628
▁రిటైర్డ్	-10.4631
ంజా	-10.4637
▁మళ్లించ	-10.464
▁నివాస	-10.464
▁హిందువుల	-10.4641
▁ఓం	-10.4646
వడంతో	-10.4647
▁కనిపించారు	-10.4648
▁కాపీ	-10.4649
ెల్లి	-10.465
▁తాగడం	-10.4653
వాల	-10.466
▁పార	-10.4661
▁బదులుగా	-10.4665
▁వెల్ల	-10.4666
చ్చే	-10.4667
▁వేధింపుల	-10.4668
▁బిల్	-10.4671
శీల	-10.4675
ଳ	-10.4677
▁అక్టోబరు	-10.4677
▁సాంస్కృతిక	-10.4677
▁సురేశ్	-10.4677
▁ఎమర్జెన్సీ	-10.4677
▁ఈస్ట్	-10.4677
▁ఇవన్నీ	-10.4679
▁ఆర్టికల్	-10.4679
▁అటువంటి	-10.468
▁ఆదాయ	-10.468
▁దేవుడి	-10.4681
▁బస్సులో	-10.4682
▁2011	-10.4686
▁వివరించింది	-10.4686
▁ఆడుతున్న	-10.4687
▁బాలయ్య	-10.4688
▁లక్ష్యాన్ని	-10.4688
▁నిబంధన	-10.4692
▁ఇవ్వలేదని	-10.4693
దారుల	-10.4694
▁గ్రామం	-10.4698
▁దశాబ్దాల	-10.4698
▁చేయనుంది	-10.4699
▁యోగి	-10.47
▁సాగింది	-10.4702
శ్వర	-10.4703
▁కాలేజీలో	-10.4706
▁పూల	-10.4708
▁ఇండస్ట్రీలో	-10.4711
▁బలపడ	-10.4719
▁రాగా	-10.472
ధార	-10.4724
▁39	-10.4725
డబ్ల్యూ	-10.473
▁ట్రీట్	-10.4731
భ్	-10.4731
▁బిర్యానీ	-10.4732
▁బందోబస్తు	-10.4732
▁హృదయ	-10.4732
▁వారాహి	-10.4732
▁నంద్యాల	-10.4732
▁దిగువ	-10.4732
తనం	-10.4733
ిచ్చారు	-10.4735
▁ఉండొచ్చు	-10.4738
ెస్ట్	-10.4738
▁మొదట్లో	-10.4744
▁ఇండియన్స్	-10.4745
▁అసహనం	-10.4749
▁అంగ	-10.4749
▁అనంత	-10.475
▁ఉద్యోగులను	-10.4751
▁బీర్	-10.4751
▁అద	-10.4751
▁టు	-10.4756
భి	-10.4757
▁ప్రయోగం	-10.4758
▁వేశ	-10.4758
▁ఫార్మా	-10.4759
ాలనుకునే	-10.4763
▁సమావేశాల	-10.4765
▁కూర్చున్న	-10.4772
▁మైన	-10.4776
▁నిరంతరం	-10.478
▁కేర్	-10.478
చోట	-10.4781
▁శ్రీనివాస	-10.4781
▁చెడు	-10.4782
تی	-10.4785
ଦ	-10.4786
శారు	-10.4786
▁హే	-10.4786
▁కాంట్రాక్ట్	-10.4787
▁ట్యాంక్	-10.4787
▁రైతుబంధు	-10.4787
▁చికెన్	-10.4787
▁గొడవలు	-10.4788
▁వ్యతిరేకించ	-10.4788
01	-10.4789
▁ఘాట్	-10.479
▁జరిప	-10.4793
ఒక	-10.4794
▁అడగ	-10.4796
▁రన్స్	-10.4798
▁పచ్చ	-10.4799
▁దందా	-10.4799
▁కీలకం	-10.4799
▁ప్రకాశ్	-10.4799
హం	-10.4802
▁వాహనాలను	-10.4805
▁పెడుతున్న	-10.4812
గ్ర	-10.4812
▁సంఘ	-10.4815
▁భావ	-10.4816
▁వార్తల్లో	-10.4816
▁గెలుస్త	-10.4816
▁కోల్పోయి	-10.482
▁ఉన్నతాధికారులు	-10.4821
నప్పుడు	-10.4827
▁సమాజం	-10.4828
▁కలగ	-10.4831
ముందు	-10.4833
న్నె	-10.4838
▁మొగ్గు	-10.4839
▁నెలకొల్ప	-10.4842
▁హుస్సేన్	-10.4842
▁మలుపు	-10.4842
▁ఫ్లాట్	-10.4843
▁ل	-10.4843
▁పీఎం	-10.4843
▁తెలంగాణా	-10.4845
▁సిరాజ్	-10.4848
▁బ్యాంకుల	-10.4849
▁లేదో	-10.4849
▁రోజురోజుక	-10.485
▁ఇలాగే	-10.485
▁హర్ష	-10.4853
▁పాయింట్లు	-10.4854
▁టీచర్ల	-10.4856
▁చేయవచ్చు	-10.4857
▁చెప్పినా	-10.486
▁కాలువ	-10.486
▁నాగ్	-10.4863
▁అత్త	-10.4864
▁యూకే	-10.4865
▁ప్రయత్నిస్త	-10.4871
94	-10.4876
ందరి	-10.4879
▁స్వా	-10.4883
థ్	-10.4884
▁అనుచరులు	-10.4887
▁రాస	-10.4894
▁భాషల్లో	-10.4897
▁జగదీశ్	-10.4898
▁ఆదివాసీ	-10.4898
▁తరబడి	-10.4898
▁తగిలింది	-10.49
▁కడియం	-10.4901
▁స్థానికంగా	-10.4903
▁తూ	-10.4904
ವನ್ನು	-10.4907
▁లక్ష్యంతో	-10.491
▁అయోధ్యలో	-10.491
▁లాగ	-10.4911
-20	-10.4911
▁గ్రహాల	-10.4915
▁ఆకర్షించ	-10.4917
ବା	-10.4918
▁టీడీపీలో	-10.4919
▁బస్సుల్లో	-10.4924
▁వేలం	-10.4925
హు	-10.4925
▁తండా	-10.4927
▁తెలుసుకో	-10.4928
ాయనే	-10.493
▁ర్శ	-10.4933
--	-10.4937
ర్డ్	-10.4944
▁నెట్ట	-10.495
▁రూపొందించిన	-10.495
▁రాఘవ	-10.4953
▁మరుసటి	-10.4954
▁రేవణ్ణ	-10.4954
▁ప్రవర్తించ	-10.4954
▁కురిసిన	-10.4954
▁స్పిన్నర్	-10.4954
▁పరిగణనలో	-10.4954
▁డీజిల్	-10.4955
▁మగ	-10.4955
▁చేస్తుంటారు	-10.4955
▁కొడాలి	-10.4957
▁డయాబెటిస్	-10.4957
పార్టీ	-10.4957
▁చాన్స్	-10.4957
56	-10.4958
యత్	-10.4959
▁చేసుకునేందుకు	-10.4959
▁సీట్లలో	-10.496
▁కాఫీ	-10.496
▁మరొకరు	-10.4965
▁బదులు	-10.4966
▁కమల్	-10.4967
▁అయినట్లు	-10.4974
74	-10.4975
▁కూరగాయల	-10.4976
▁పూజా	-10.498
▁నిషేధ	-10.4981
▁చూసింది	-10.4983
▁లెక్కల	-10.4985
▁అప్పగించారు	-10.4986
▁విధాన	-10.4986
▁కనిపించిన	-10.4987
42	-10.4989
నంత	-10.4989
తాం	-10.4992
▁అవసరాల	-10.4994
▁కొందరి	-10.4994
▁తొలగించి	-10.4995
ాత్మక	-10.4995
▁భావించి	-10.5001
షు	-10.5005
06	-10.5007
▁అలియాస్	-10.501
▁వస్తువులను	-10.501
▁సౌదీ	-10.5011
▁పేసర్	-10.5012
▁ఐస్	-10.5015
▁చేతుల్లో	-10.5016
▁జవాన్	-10.5017
▁సిబ్బందిని	-10.5022
▁కారణాలతో	-10.5027
ంచీ	-10.5027
▁అందించేందుకు	-10.5034
▁విధులు	-10.5037
▁మంచిదని	-10.504
44	-10.5046
88	-10.505
ణీ	-10.5056
టమే	-10.5056
▁చుట్టుపక్కల	-10.5066
▁ఫౌండేషన్	-10.5066
▁ల్యాబ్	-10.5066
W	-10.5067
▁సర్కిల్	-10.5067
▁ఐపీఎస్	-10.5068
▁కార్యక్రమాల	-10.5069
▁వర్కర్	-10.5069
▁కోల్పోయారు	-10.507
▁పెట్టుబడుల	-10.5077
ڈ	-10.508
.12	-10.5081
ుడికి	-10.5081
▁చెప్తున్న	-10.5083
▁వీసీ	-10.5084
▁పిఠాపురం	-10.5098
▁అంటున్న	-10.5098
ురాలు	-10.5099
▁నడిపించ	-10.51
విక్	-10.5101
▁సంఘటనలు	-10.5101
కోట్ల	-10.5103
▁కాలనీలో	-10.5106
▁పెంచింది	-10.5107
▁నెలకొన్న	-10.5117
గూడెం	-10.5118
▁శరీర	-10.5118
▁ఏండ్లు	-10.5121
▁ప్రాంతాలలో	-10.5123
▁కరెంటు	-10.5123
▁ఫారెస్ట్	-10.5123
▁సింగపూర్	-10.5124
ిస్తా	-10.5126
▁హాసన్	-10.5126
▁పాలస్తీనా	-10.5128
▁ముంపు	-10.5128
▁కళ	-10.5129
▁రెండోసారి	-10.5129
వద్దు	-10.5131
▁పెరుగుతాయి	-10.5134
ారాయన	-10.5134
▁51	-10.5137
▁చిరు	-10.5137
▁రావడానికి	-10.5138
▁సలహాదారు	-10.514
▁చిత్రాల	-10.5145
▁సులభంగా	-10.5145
ام	-10.515
▁శాశ్వత	-10.5151
100	-10.5152
▁నివేదికను	-10.5153
▁కార	-10.5154
▁లక్ష్య	-10.5156
▁విధానంలో	-10.5158
▁కళ్లు	-10.5161
▁రేట్	-10.5162
▁నిమిషాలకు	-10.517
ుకోండి	-10.5171
నెల	-10.5172
ుడ	-10.5174
▁నమోదైన	-10.5175
▁తర్వాతే	-10.5175
▁జరగడం	-10.5176
▁ఆధారపడి	-10.5177
▁గదిలో	-10.5177
▁నందమూరి	-10.518
▁ప్రాక్టీస్	-10.518
▁ముమ్మరం	-10.518
▁పరిరక్షణ	-10.518
▁యాక్టివ్	-10.518
▁బండ	-10.5181
स	-10.5181
▁పాటిల్	-10.5181
▁మూడోసారి	-10.5183
▁పారి	-10.5186
▁చేయొచ్చు	-10.519
▁వదల	-10.5193
▁ఎకరాలు	-10.5194
▁పెను	-10.5194
▁ಎ	-10.5201
▁ఎంసీ	-10.5205
పాక	-10.5206
▁వరస	-10.5207
▁నిజ	-10.5207
▁ఇవ్వడంతో	-10.5209
▁పెరగడంతో	-10.5209
▁పద్ధతి	-10.5211
▁నటించారు	-10.5219
09	-10.5221
▁సంబంధ	-10.5222
▁ఉన్నవారు	-10.5224
▁ఊరి	-10.5232
▁కడ	-10.5235
▁ఉత్తరాఖండ్	-10.5238
▁ట్యాక్స్	-10.5238
▁అపార్ట్	-10.5238
▁వసతి	-10.5238
▁ల్యాండింగ్	-10.5238
▁ఇంధన	-10.5238
▁ఫ్రాన్స్	-10.5238
▁హ్యాండ్	-10.524
▁బీఎస్పీ	-10.524
ಂದ	-10.5241
▁సమావేశాల్లో	-10.5244
▁అదృష్టం	-10.5244
▁పూర్త	-10.5245
▁తెలిపాయి	-10.5246
ప్పుడే	-10.5248
▁కట్టి	-10.5248
▁ప్రశ్నిస్తున్న	-10.5248
▁నెరవేర	-10.525
▁కనిపిస్తాయి	-10.5251
▁వేసుకున్న	-10.5253
▁సమర్థ	-10.5259
▁సెమీస్	-10.5262
▁ಪ	-10.5267
▁ఫ్ర	-10.5271
▁49	-10.5272
▁డీఏ	-10.5274
▁ఆలయానికి	-10.5274
▁పాడి	-10.5277
గత	-10.5279
▁లోటు	-10.5293
▁పదవీ	-10.5295
▁జర్నలిస్ట్	-10.5295
▁యాపిల్	-10.5295
म	-10.5297
▁మమ్మల్న	-10.5297
▁పరువు	-10.5297
▁ఫీల్డ్	-10.53
▁వీధి	-10.53
బోతోంది	-10.5305
▁వార్షిక	-10.5306
▁వెళ్లాడు	-10.5307
▁మిత్ర	-10.5308
▁మాసంలో	-10.5313
▁స్థలాన్ని	-10.532
రల్	-10.5322
▁గాజాలో	-10.5325
ಳ	-10.5327
▁ధరించ	-10.5328
దీప్	-10.5329
▁పేట్	-10.533
▁120	-10.5331
▁జత	-10.5332
re	-10.5333
గొ	-10.5335
▁కమ్మ	-10.5336
▁నం	-10.5337
▁52	-10.5337
▁తెస్త	-10.5337
ir	-10.5338
భారత	-10.5341
▁43	-10.5346
▁ప్రయత్నాల	-10.5348
▁బీఎస్	-10.5351
▁ప్రయత్నించారు	-10.5351
▁ఠాకూర్	-10.5354
▁ప్యాకేజీ	-10.5354
▁ఛార్జ్	-10.5354
▁లైసెన్స్	-10.5354
ియల్	-10.5354
▁సేకరణ	-10.5354
▁బ్యాలెట్	-10.5354
ప్రసాద్	-10.5354
▁ఫైనాన్స్	-10.5355
▁వీరిద్దరూ	-10.5355
▁చార్జ్	-10.5357
రెన్	-10.5357
▁ఒంటి	-10.5357
ch	-10.5358
▁భారతీయుల	-10.5358
▁పోషకాలు	-10.5359
▁ముగించ	-10.536
▁దర్శించ	-10.5365
ిస్తాయి	-10.537
▁రోగుల	-10.5386
▁ఉన్నది	-10.5386
▁బిల్లును	-10.5393
▁అరుణ	-10.5395
చ్చు	-10.5397
▁పెడతా	-10.5401
▁వీళ్ల	-10.5404
పడ్డారు	-10.5405
పడిన	-10.5408
ాలలో	-10.541
▁జూబ్లీహిల్స్	-10.5412
▁ప్రవర్తన	-10.5412
▁శ్రీకాకుళం	-10.5412
▁ఫుట్	-10.5412
▁రాంబాబు	-10.5413
▁జెండర్	-10.5414
▁సందర్భంలో	-10.5415
▁2004	-10.5419
▁అందిస్తుంది	-10.542
▁తీసుకొచ్చింది	-10.5422
.40	-10.5426
▁విద్యార్థిని	-10.5436
▁ಇ	-10.5438
▁నియోజకవర్గానికి	-10.5438
▁ఎగ్జామ్	-10.5438
ుకోవాల్సిన	-10.544
▁గాను	-10.5441
▁పెట్టారని	-10.5443
▁పంపారు	-10.5457
▁బయలుదేర	-10.5457
మన్న	-10.5462
▁రహస్య	-10.5462
▁నర్	-10.5467
ಭ	-10.5471
▁نہیں	-10.5471
▁ముగింపు	-10.5471
▁రఘునందన్	-10.5471
▁ఇమేజ్	-10.5471
▁ప్రకాష్	-10.5471
▁జీర్ణ	-10.5471
▁నిలుస్త	-10.5471
▁అధ్యక్షురాలు	-10.5472
▁మనో	-10.5472
▁పిడుగు	-10.5473
▁పోలి	-10.5474
▁క్రీడా	-10.5474
▁జలాల	-10.5475
▁ఫల	-10.5479
▁అల్పపీడనం	-10.5479
▁ఏళ్ళ	-10.5481
▁కొన్నిసార్లు	-10.5485
ళా	-10.5489
▁వనరుల	-10.549
▁విసిరారు	-10.5491
▁బయో	-10.5494
▁ప్రతిష్ట	-10.5495
లాన్	-10.5495
▁అనుమతులు	-10.5496
▁కుమారుడి	-10.5498
▁ఉంచారు	-10.5505
▁మాట్లాడటం	-10.5506
▁కాకా	-10.5507
▁బహిరంగంగా	-10.5509
▁వస్తువుల	-10.5511
నూర్	-10.5514
ఇది	-10.5516
▁ప్రయోగించ	-10.5516
▁కూర	-10.5518
▁చేయి	-10.5518
▁షాప్	-10.5519
▁72	-10.552
▁రక్తం	-10.5521
▁నియమించారు	-10.5522
▁నిర్మాణాలు	-10.5522
▁నూ	-10.5527
▁కవితను	-10.5528
▁ఆకాంక్ష	-10.5529
▁దొరక	-10.5529
▁శ్రావణ	-10.553
▁కూతురి	-10.553
▁బాక్సాఫీస్	-10.553
▁అంతర్గత	-10.553
▁రీతిలో	-10.553
▁కార్యవర్గ	-10.5531
వేలు	-10.5531
ావు	-10.5532
▁మెయిల్	-10.5533
▁లంక	-10.5535
▁మూవీలో	-10.5537
▁ఖాయం	-10.5538
▁దీప్	-10.5541
▁O	-10.5543
రిగి	-10.5547
▁నివాసంలో	-10.5548
▁అడ్డుకున్నారు	-10.5549
▁శ్రేణుల	-10.5552
▁ಮಾಡ	-10.5557
▁ఎవ	-10.5558
▁అన్నా	-10.5561
▁శ్రీవారిని	-10.5567
▁విజ	-10.557
▁సొ	-10.5574
▁కార్యక్రమాలను	-10.5583
▁ଏ	-10.5584
▁నిలవ	-10.5586
▁ఆసక్తిగా	-10.5586
▁దోచ	-10.5587
▁కిషోర్	-10.559
▁లెక్కింపు	-10.559
▁జాయింట్	-10.559
▁పోర్టల్	-10.559
▁కంపెనీలో	-10.559
▁వర్సెస్	-10.559
▁మంగళగిరి	-10.559
▁గుడివాడ	-10.559
▁అధ్యక్షతన	-10.5591
▁జన్మించిన	-10.5591
▁ప్రక్రియను	-10.5591
ినప్పటికీ	-10.5592
▁దగ్గరగా	-10.5592
ాయన్న	-10.5594
▁ఉంటుందో	-10.5594
▁బర్త్	-10.5594
▁బస్టర్	-10.56
▁విషయమై	-10.56
ువు	-10.5603
▁నడిచే	-10.5608
▁బల్	-10.5608
▁కుదర	-10.5609
▁వేర్వేరు	-10.5609
పోతుందని	-10.5609
▁పీజీ	-10.5609
ుందో	-10.5612
▁నాటు	-10.5613
▁జరిపారు	-10.5613
ాలపై	-10.5614
▁దాటిన	-10.5614
▁ః	-10.5616
▁శ్రీరామ	-10.5617
▁వెళుతున్న	-10.5617
▁చిత్రానికి	-10.562
▁54	-10.562
పడుతున్న	-10.5622
▁దీ	-10.5625
93	-10.5627
▁సర్టిఫికెట్	-10.563
మవుతుంది	-10.5632
48	-10.5634
▁పెరుగు	-10.5637
స్తుందని	-10.5643
చంద్ర	-10.5648
▁అభినందనలు	-10.5649
▁డైరెక్షన్	-10.5649
▁తాగునీటి	-10.5649
▁బ్రిటిష్	-10.5649
▁ఇన్వెస్ట్	-10.5649
▁వదిలేసి	-10.5649
▁ఆస్కార్	-10.565
▁వేములవాడ	-10.565
▁ట్రైనింగ్	-10.565
▁వేధించ	-10.565
▁సైనికులు	-10.565
▁స్ట్రాంగ్	-10.565
▁సందర్భాల్లో	-10.565
▁రామకృష్ణారెడ్డి	-10.5651
▁షి	-10.5651
▁అడిగితే	-10.5653
▁ప్రయోజనాలను	-10.5653
▁రోజుల్లోనే	-10.5654
▁షీట్	-10.5655
▁అభినందించారు	-10.5656
▁ప్ల	-10.5657
▁ఓబీసీ	-10.5659
▁గుర	-10.5661
ెర్	-10.5664
▁మొహ	-10.5667
సల్	-10.5669
▁పంపిన	-10.5669
దార్	-10.567
ుంటుంది	-10.5674
▁దేవ్	-10.5674
▁ట్రై	-10.5674
گ	-10.5675
▁విగ్రహాల	-10.5678
▁వార్తా	-10.5683
▁హోమ్	-10.5691
▁పదార్థాలు	-10.5692
▁భావించిన	-10.5692
మల్	-10.5694
ండ్ర	-10.5695
▁అవమాన	-10.5695
ାଇ	-10.5698
▁దెబ్బతిన్న	-10.57
▁కారణంగానే	-10.5701
▁ఫాలో	-10.5702
▁కుటుంబాన్ని	-10.5703
పోయాడు	-10.5705
72	-10.5706
ص	-10.5706
▁నాణ్యమైన	-10.571
▁పాజిటివ్	-10.571
x	-10.571
▁అంతరాయం	-10.571
▁క్రేజ్	-10.571
▁థ్రిల్లర్	-10.571
▁విజయనగరం	-10.571
▁ಈ	-10.5711
▁రీసెంట్	-10.5711
▁మైనింగ్	-10.5713
▁మొత్తానికి	-10.5714
▁ఫాం	-10.5714
▁ఆగస్ట్	-10.5714
ق	-10.5715
▁ఆశ్చర్య	-10.5716
▁తగ్గుతుంది	-10.5718
▁సంబరాలు	-10.5719
▁పట్టా	-10.5726
▁ఫ్లోర్	-10.5727
ಬ	-10.5729
▁ప్రయాణికులకు	-10.5729
▁మండలాల	-10.5729
▁ఆసక్తికరంగా	-10.5729
▁ತ	-10.5734
▁పాండ్యా	-10.5734
▁వచ్చాయని	-10.5737
▁లేరు	-10.5739
ధాన	-10.574
బెట్ట	-10.574
ాయా	-10.5746
▁చేసుకుంటే	-10.5747
▁విభేదాలు	-10.575
▁ఉద	-10.575
▁విషయాల	-10.5755
▁తాత	-10.5755
▁కాలుష్యం	-10.5756
▁మల్లికార్జున	-10.5758
▁లేవ	-10.5761
ప్రా	-10.5764
▁స్నేహితులు	-10.5764
ంజ్	-10.5765
▁ఇరవై	-10.577
▁రెండింటి	-10.577
▁డిసైడ	-10.5772
▁సెక్స్	-10.5775
▁రమణ	-10.5775
▁2013	-10.5778
క్యూ	-10.5778
▁హీ	-10.5779
▁చెల్లించాల్సి	-10.578
▁ఎంఎస్	-10.5781
▁కాకపోతే	-10.5782
బోమని	-10.5783
▁స్థ	-10.5785
▁చిక్కుకున్న	-10.5789
▁విడాకులు	-10.579
టెక్	-10.579
▁రాజకీయాల్లోకి	-10.579
▁శాస్త్ర	-10.5795
▁గంగ	-10.5796
▁వినియోగదారులు	-10.58
▁సందర్శించ	-10.5801
▁పెంచాలని	-10.5803
st	-10.5804
▁గంటకు	-10.5808
▁పర్వత	-10.5812
▁నడప	-10.5813
▁సంభవించ	-10.5815
▁యువతకు	-10.5822
ాడట	-10.5831
▁సానుభూతి	-10.5831
▁అధిగమించ	-10.5831
▁జర్మనీ	-10.5831
▁అనకాపల్లి	-10.5831
▁ఎర్రబెల్లి	-10.5831
▁ఖైరతాబాద్	-10.5831
▁వంతెన	-10.5831
▁ಎಂದು	-10.5831
▁స్థానానికి	-10.5831
▁లక్షలాది	-10.5832
▁రాజ్యాంగం	-10.5832
▁బొత్స	-10.5832
▁లోపలికి	-10.5832
▁రాయితీ	-10.5833
▁చర్యలకు	-10.5833
▁మంట	-10.5834
68	-10.5835
ಡ	-10.5837
▁ప్రీతి	-10.5837
▁నడుస్తోంది	-10.5839
▁(1	-10.584
▁చేయాలంటూ	-10.584
▁సేవల	-10.5846
▁జీతాలు	-10.5847
▁దగ్గరి	-10.5848
▁నిమిషాలు	-10.5849
and	-10.5851
▁చేసుకుంటూ	-10.5851
పోయారని	-10.5852
▁మహిళలను	-10.5852
▁ప్రాంతాలను	-10.5853
ుండటం	-10.5855
చేసిన	-10.5857
పల్లిలో	-10.586
▁లేకుండానే	-10.5861
▁ప్రకటనలు	-10.5872
▁గాయపడ్డ	-10.5873
▁ఎగ్	-10.5874
▁నడుస్త	-10.5874
▁సంక్షోభం	-10.5881
▁జరిపి	-10.5883
▁మారుస్త	-10.5884
▁పరిమితి	-10.5885
విన్	-10.5889
▁ఆక్రమించ	-10.5893
▁ఇంజనీర్	-10.5893
▁ఇన్ఫెక్షన్	-10.5893
▁దృష్ట్యా	-10.5893
▁బెనర్జీ	-10.5893
▁రిజిస్టర్	-10.5893
▁స్పష్టమైన	-10.5893
▁ఎఫ్ఐఆర్	-10.5893
▁ఎలాగైనా	-10.5893
51	-10.5893
▁వైయస్	-10.5894
▁మెంబర్	-10.5894
▁బాటిల్	-10.5894
▁చేస్తోన్న	-10.5895
▁కళా	-10.5896
▁మొదలయ్యాయి	-10.5896
▁వాస్తు	-10.5896
67	-10.5896
▁శరత్	-10.5896
▁మోదీకి	-10.5898
▁అజిత్	-10.5899
▁టవర్	-10.59
బడిన	-10.5901
▁పున	-10.5901
▁బాలుడు	-10.5901
▁కప్ప	-10.5906
▁అదుపు	-10.5909
▁హాజరై	-10.5909
ائ	-10.5911
▁ఆహ్వానం	-10.5914
▁వరదలు	-10.5915
▁దుర్గ	-10.5918
ంపల్లి	-10.5921
▁యూజర్	-10.5922
ుతుంద	-10.5924
▁పెంచి	-10.5924
యస్	-10.5925
▁నాయ	-10.5931
▁కార్లు	-10.5932
62	-10.5937
▁హాజరైన	-10.5938
▁పెట్టాలి	-10.5938
▁ع	-10.594
▁తొలిసారిగా	-10.5942
▁47	-10.5943
▁ప్రమాదాలు	-10.5945
నిక్	-10.5946
▁పౌరుల	-10.5946
ధన	-10.5947
▁అవకాశమ	-10.5951
గె	-10.5952
▁అనౌన్స్	-10.5954
▁కాంట్రాక్టు	-10.5954
▁వైజాగ్	-10.5954
▁కమీషన్	-10.5954
▁పెండ్లి	-10.5954
▁ప్రపంచకప్	-10.5954
▁అస్సాం	-10.5954
▁నితిన్	-10.5954
టర్లు	-10.5955
▁హాజరుకా	-10.5955
▁చూస్తుంటే	-10.5956
▁ఈయన	-10.5956
▁ప్రశాంతంగా	-10.5958
▁విభాగాల	-10.5958
▁ప్రతిరోజూ	-10.5959
▁వీరిద్దరి	-10.5965
▁హసన్	-10.5966
▁చూశారు	-10.5966
▁క్యాప్	-10.5968
▁చేసుకున్నట్లు	-10.5969
▁చు	-10.5973
▁ఏంటో	-10.5974
▁నడుపుతున్న	-10.5978
la	-10.5981
▁పోడు	-10.5981
▁జ్ఞాన	-10.5985
un	-10.5988
▁బీసీలకు	-10.599
j	-10.5992
▁శెట్టి	-10.6002
it	-10.6003
▁సౌ	-10.6006
64	-10.6008
▁అమలులో	-10.6009
ుండడంతో	-10.6012
▁రాము	-10.6016
▁ప్రదేశాల	-10.6016
▁అకాడమీ	-10.6016
▁క్వాలిటీ	-10.6016
▁ప్రస్తావన	-10.6016
▁సరిపడా	-10.6016
▁హిమాచల్	-10.6016
▁జ్వరం	-10.6017
▁రిటైర్మెంట్	-10.6017
▁పరోక్షంగా	-10.6018
▁బోగీ	-10.6018
▁సర్వేలో	-10.6019
▁డ్రైవ్	-10.6019
▁ట్రస్ట్	-10.6019
▁దేవర	-10.602
▁కార్యాలయానికి	-10.6022
▁ఖాళీగా	-10.6022
▁J	-10.6024
▁కారును	-10.6026
లాండ్	-10.6027
▁రోజులపాటు	-10.6027
▁నంది	-10.6028
▁సమస్యలతో	-10.6028
▁కశ్మీర్	-10.6029
▁ఏర్పడి	-10.603
సేవ	-10.6036
▁సాధ	-10.6036
37	-10.6037
లేం	-10.6038
▁సరిపో	-10.6038
▁ಪ್ರ	-10.6038
▁విజయవంతం	-10.6039
▁పూజించ	-10.6041
▁తీసే	-10.6041
▁కై	-10.6041
▁కమలా	-10.6048
▁సాధించడం	-10.6054
▁వాతావరణంలో	-10.6055
▁జీవన	-10.6056
54	-10.606
▁గురై	-10.606
లెట్	-10.6067
▁మైనర్	-10.6069
▁తీస	-10.607
▁రాయల్	-10.6072
▁చెక్క	-10.6072
▁అంబులెన్స్	-10.6079
▁క్యూసెక్కుల	-10.6079
▁మిమ్మల్ని	-10.6079
▁సిఫార్సు	-10.6079
ଥିବା	-10.6079
▁వ్యాపించ	-10.608
▁ఏడుగురు	-10.608
▁విరమణ	-10.608
▁కావాలంటే	-10.6083
▁కార్ల	-10.6084
▁విరుద్ధంగా	-10.6084
రోజుల	-10.6086
▁కార్డుల	-10.6088
▁ఉంచి	-10.6088
▁తనదైన	-10.609
▁వ్యాపారవేత్త	-10.6091
▁సొమ్ము	-10.6092
▁లెటర్	-10.6094
▁ఆమోదించ	-10.6098
▁కేజీల	-10.6099
▁వండ	-10.61
ధుల	-10.6102
▁చౌ	-10.6103
▁ప్రచారానికి	-10.6104
వులు	-10.6104
▁ఫైనల్లో	-10.6107
▁జానీ	-10.611
▁మార్కులు	-10.611
▁ఎస్ఐ	-10.6111
ంద్	-10.6116
na	-10.6118
▁రాలేదని	-10.6122
▁చక్క	-10.6122
▁సంద	-10.6123
86	-10.6124
▁విసిర	-10.6124
▁పర్యటించ	-10.6124
ారనేది	-10.6124
సభ	-10.6124
▁ఊరు	-10.6128
▁ఫ్యా	-10.6128
▁ఉద్దేశ	-10.6131
ol	-10.6132
▁గురువు	-10.6132
▁వైసీపీలో	-10.6137
▁ఇంద్ర	-10.6138
ڑ	-10.6141
▁బ్యూరో	-10.6142
▁ಆದ	-10.6142
ض	-10.6142
▁ఎగ్జిక్యూటివ్	-10.6142
▁గరిష్ట	-10.6142
▁డైరెక్టరేట్	-10.6142
▁భయాందోళన	-10.6142
▁సంపూర్ణ	-10.6142
▁పొడవు	-10.6142
▁స్వర్ణ	-10.6142
▁ಮತ್ತ	-10.6142
▁లక్ష్మీదేవి	-10.6143
▁ఆదరణ	-10.6143
▁ଦ	-10.6143
▁బర్గ్	-10.6145
▁పీఎస్సీ	-10.6148
▁విషాద	-10.6149
▁మరణించ	-10.6151
ంటారు	-10.6151
▁సుమన్	-10.6153
▁సృష్టించింది	-10.6157
▁ఇంతకీ	-10.6158
▁అకాల	-10.616
▁కార్యాలయాల	-10.6163
▁వైద్యుల	-10.6164
▁అధికారాన్ని	-10.6167
▁మంగళ	-10.6167
ంచుకో	-10.6176
వుతుంది	-10.6177
▁తరపు	-10.6178
▁ప్లస్	-10.6181
▁చంద్రుడిపై	-10.6184
▁అనారోగ్యంతో	-10.6184
కండి	-10.6185
▁ప్రభావిత	-10.6185
▁యోగ	-10.6196
కట్ట	-10.6199
▁తీసుకురా	-10.62
▁పోయిన	-10.6202
43	-10.6202
ो	-10.6205
▁హోల్	-10.6205
▁నలుగురి	-10.6205
▁భువనేశ్వరి	-10.6205
▁రవితేజ	-10.6205
▁లిఫ్ట్	-10.6205
▁ఏంటంటే	-10.6205
స్తోన్న	-10.6205
▁ఇంజిన్	-10.6205
▁ప్రమాదాల	-10.6206
▁ప్రాసెస్	-10.6206
▁అయ్యప్ప	-10.6209
▁కార్యక్రమాల్లో	-10.621
▁విశ్రాంతి	-10.6211
వెల్	-10.6213
నవంబర్	-10.6213
▁ట్రేడ్	-10.6213
▁పార్లమెంట	-10.6214
▁పత్రం	-10.6214
ఎక్స్	-10.6217
▁ఇచ్చినట్లు	-10.6218
ేయడం	-10.6222
▁వ్యాధులు	-10.6223
▁చెల్లించాలని	-10.6228
▁బుద్ధి	-10.623
▁దాడులకు	-10.6231
▁సభ్య	-10.6231
మిక్	-10.6233
▁సభ్యులను	-10.6238
▁చేసేవారు	-10.6239
▁ఆహారాన్ని	-10.624
▁చేయని	-10.6243
▁వేసవి	-10.6249
is	-10.6253
▁పరిణామం	-10.6253
పక్ష	-10.6253
▁56	-10.6254
▁కురుస్తున్న	-10.6259
మయ్యాయి	-10.6261
▁బాబా	-10.6264
▁మర్చిపో	-10.6267
▁కంప్లీట్	-10.6269
▁చూద్దాం	-10.6269
▁స్టిట్యూట్	-10.6269
▁జడ్పీటీసీ	-10.6269
▁గాయాలయ్యాయి	-10.627
▁ఇందిరమ్మ	-10.627
▁ఆత్మీయ	-10.627
▁జూపల్లి	-10.6272
▁నియామకం	-10.6272
▁ఏలూరు	-10.6275
శక్తి	-10.6277
వెలుగు	-10.6277
▁నాయకులకు	-10.6278
▁చర్చనీయాంశంగా	-10.6279
▁ఉదాహరణ	-10.6281
సరి	-10.6285
▁విప్	-10.6287
▁బాగ్	-10.6287
le	-10.6289
ుతామని	-10.6291
▁అయ్యర్	-10.6292
▁ప్రమాణం	-10.6295
sh	-10.6299
▁స్టూడెంట్	-10.6299
ుకోవాల్సి	-10.63
▁అవుతాయి	-10.6301
మైందని	-10.6302
▁బేస్	-10.6306
▁తెచ్చిన	-10.631
▁బలి	-10.6314
యినా	-10.6318
ଟି	-10.6319
▁తెలిప	-10.632
ಗಳ	-10.6322
▁అడ్డం	-10.6326
▁బ్యాటర్లు	-10.6327
▁వర్షాలతో	-10.633
▁తాడేపల్లి	-10.6333
▁అత్యున్నత	-10.6333
▁ఇమ్రాన్	-10.6333
▁నిరోధక	-10.6333
▁చనిపోయాడు	-10.6333
▁మహేందర్	-10.6333
▁నల్లగొండ	-10.6334
▁వినిపిస్తోంది	-10.6334
▁టైగర్	-10.6334
▁బిహార్	-10.6335
▁తెరకెక్క	-10.6336
▁కల్పించారు	-10.6337
▁మొక్కులు	-10.6337
ామన్న	-10.6338
▁భాగస్వామ్యం	-10.6339
▁కూటమికి	-10.6342
▁ప్రాజెక్టులు	-10.6344
▁భవన	-10.6345
నంద	-10.6348
▁నిరుద్యోగుల	-10.6348
▁వాస్తవానికి	-10.6349
▁చేయనున్నట్లు	-10.635
ోత్సవం	-10.635
▁జీఎస్టీ	-10.6351
ాభివృద్ధి	-10.6353
▁గనుల	-10.6353
▁భద్ర	-10.6354
▁కాస్ట్	-10.6357
400	-10.6359
▁కాల్పుల	-10.636
మంత్రి	-10.6361
▁పద్ధతిలో	-10.6363
కూడద	-10.6373
▁ఇవ్వడానికి	-10.6375
▁రత్న	-10.6376
63	-10.6378
పరంగా	-10.6381
▁తీసుకొచ్చ	-10.6383
▁చూసినా	-10.6383
59	-10.6383
▁భార	-10.6384
▁రాజ్యం	-10.6384
▁షాపుల	-10.6387
▁తీర్చిదిద్ద	-10.6389
▁తాత్కాలిక	-10.6389
▁కలర్	-10.6389
షర్	-10.6395
▁అభ్య	-10.6397
ೊ	-10.6397
▁జగనన్న	-10.6397
▁బస్టాండ్	-10.6397
▁సుధీర్	-10.6397
▁వెయిట్	-10.6397
▁బస	-10.6398
▁లేకపోయినా	-10.64
▁వికాస్	-10.6401
▁శ్రీకారం	-10.6401
ియర్	-10.6402
టెడ్	-10.6402
సార	-10.6402
▁బంగారాన్ని	-10.6403
▁షమీ	-10.6404
▁బెదిరించ	-10.6405
Y	-10.6406
▁చాల	-10.6409
▁తవ్వ	-10.6411
▁ವ	-10.6412
▁సహజంగా	-10.6414
▁ఇన్ని	-10.6419
▁పనికి	-10.6421
▁చేయించారు	-10.6421
▁రూపాయలకు	-10.6422
▁నిర్మాణంలో	-10.6427
ాడా	-10.6428
జై	-10.6433
▁మొక్కలు	-10.6434
▁మలయాళ	-10.6439
▁స్వయం	-10.6442
್ಯ	-10.6444
▁తీసుకొస్త	-10.6448
జిల్	-10.6449
▁పెంచడం	-10.645
ma	-10.6451
▁కర్ర	-10.6454
▁సుఖ	-10.6455
▁బౌలర్ల	-10.6456
▁ఆదర్శ	-10.6456
▁పెంచే	-10.6458
కాంత్	-10.6459
▁నరేందర్	-10.6462
▁పౌర్ణమి	-10.6462
▁రాజమౌళి	-10.6462
▁మెజార్టీతో	-10.6462
▁వాషింగ్టన్	-10.6462
▁ప్రశ్నకు	-10.6463
▁రుద్ర	-10.6463
▁హోంమంత్రి	-10.6463
▁శ్రీనివాసరావు	-10.6464
▁అక్కడక్కడ	-10.6464
▁జనవరిలో	-10.6467
▁విజయాలు	-10.6469
▁పూర్తయిన	-10.647
▁కుంభ	-10.647
లేకపోతున్న	-10.6472
రియన్	-10.6472
▁నోట్ల	-10.6474
దేశాల	-10.6474
▁సమాచార	-10.6476
▁స్థలంలో	-10.648
▁డేటాను	-10.6481
▁తీసుకొచ్చి	-10.6482
▁చర్చించి	-10.6484
▁కత్తి	-10.6488
▁శుభ్రం	-10.6489
li	-10.649
త్యం	-10.649
▁మల్ల	-10.6491
▁పండ్ల	-10.6493
▁పడకుండా	-10.6495
ರಾ	-10.6497
బాద్	-10.6499
▁విదేశాలకు	-10.6499
▁మొన్నటి	-10.65
▁యుద్ధంలో	-10.6501
▁లక్షలకు	-10.6501
▁స్కా	-10.6501
గన్	-10.6502
▁లీడ్	-10.6503
ಾರ	-10.6504
పెడుతున్న	-10.6506
▁మెడల్	-10.6513
▁అమ్మవారి	-10.652
▁చూడటం	-10.6522
▁పచ్చి	-10.6522
గానో	-10.6522
▁ఆహారంలో	-10.6522
▁తోనే	-10.6526
▁అరేబియా	-10.6528
▁అర్వింద్	-10.6528
▁కారిడార్	-10.6528
▁నైరుతి	-10.6528
▁ఇష్యూ	-10.6528
▁బెట్టింగ్	-10.6528
▁వందలాది	-10.6528
▁ఫారమ్	-10.6528
▁వెంకటేశ్	-10.653
▁ఉల్లి	-10.653
▁అతిథి	-10.653
▁పుట్టినరోజు	-10.6531
▁పడిపోయింది	-10.6531
▁షాపింగ్	-10.6531
▁దళితుల	-10.6532
▁బానిస	-10.6533
▁ವಿಡಿಯೋ	-10.6534
▁టీచర్లు	-10.6535
▁గమనించిన	-10.6535
▁పేర	-10.6542
▁కేజీ	-10.6543
▁తను	-10.6544
▁గెలిచింది	-10.6545
డిన	-10.6545
▁శ్వాస	-10.655
ేశారని	-10.6557
▁ఏజెంట్	-10.6559
▁ప్రసారం	-10.6563
▁పోషిస్త	-10.6565
▁వాళ్ళ	-10.6567
రిస్	-10.6567
▁చేస్తున్నట్టు	-10.6568
▁ఫ్రెండ్స్	-10.657
▁ప్రణాళికలు	-10.6571
▁ఈవీఎం	-10.6571
మర	-10.6576
▁యువకుల	-10.6576
▁రుణం	-10.6579
▁జనాలు	-10.6579
▁పండు	-10.6581
ాలనుకున్న	-10.6586
▁మీటర్లు	-10.6587
▁రాశులవారి	-10.6588
▁స్పందించి	-10.659
57	-10.6593
▁ఎన్నడూ	-10.6594
▁ఎపిసోడ్	-10.6594
▁పరిశోధకులు	-10.6594
▁ఫంక్షన్	-10.6594
▁సౌతాఫ్రికా	-10.6594
▁హార్దిక్	-10.6594
▁సప్లై	-10.6594
▁శివాజీ	-10.6594
▁హింసాత్మక	-10.6594
▁ఆకలి	-10.6594
▁పార్కింగ్	-10.6595
▁ఇటువంటి	-10.6595
▁వివక్ష	-10.6595
▁వసంత	-10.6595
▁జాన్	-10.6598
▁హెల్ప	-10.6601
▁పొందుతూ	-10.6602
▁నివేదికలో	-10.6605
▁వెల్లడించ	-10.6605
▁చిన్నారుల	-10.6607
▁శేఖర్	-10.6609
▁బలగాల	-10.661
▁హల్	-10.6611
▁చంద	-10.6614
మత	-10.6616
▁వ్యవహరిస్త	-10.6621
▁స్కీం	-10.6626
▁నిర్మాణాల	-10.6628
హర్	-10.6628
▁వేస్తే	-10.6628
▁సంస్థకు	-10.6629
▁పారిస్	-10.6631
▁కుర్ర	-10.6631
▁ప్రసంగం	-10.6638
▁ప్రమాదకర	-10.6638
ందంటే	-10.6639
▁కుటుంబాల	-10.6641
▁అఖిల	-10.6643
▁ఆధారపడ	-10.6645
దన్న	-10.6645
యె	-10.6646
▁ఉద్రిక్త	-10.6649
▁పరిగణించ	-10.6653
▁రూం	-10.6655
▁ఆనందంగా	-10.6658
లైన్	-10.6659
ద్య	-10.666
▁ఈశాన్య	-10.666
▁కులగణన	-10.666
▁ఆఫ్రికా	-10.666
▁నెట్టింట	-10.666
▁వారసత్వ	-10.666
▁ఆకట్టుకున్న	-10.6661
▁పడ్డాయి	-10.6661
▁రాఖీ	-10.6661
▁మహమ్మద్	-10.6662
▁మణి	-10.6663
▁మల్టీ	-10.6664
కన్	-10.6668
▁డోర్	-10.6669
▁అమృత్	-10.6669
▁అద్దె	-10.6675
▁ఉపాధ్యాయ	-10.6678
▁ఉగ్రవాద	-10.6678
▁అన్నాడు	-10.6679
لا	-10.6681
▁అసెంబ్లీకి	-10.6681
ెస్	-10.6686
▁బంధం	-10.6687
▁57	-10.6691
▁అర్ధ	-10.6692
▁భావిస్తారు	-10.6693
▁ప్రయాణిస్తున్న	-10.6695
▁అల్లం	-10.6697
▁సమర్పించారు	-10.6702
▁కట్టడి	-10.6704
▁ఎదుర్కొన్న	-10.6707
ಿದೆ	-10.6707
వతి	-10.6708
▁చెక్కు	-10.6711
▁బృందాలు	-10.6712
హార	-10.6713
-19	-10.6715
▁ఆమోద	-10.6722
▁పర్సనల్	-10.6726
▁కరెన్సీ	-10.6727
▁అవే	-10.673
▁క్యాచ్	-10.673
▁కొనియాడారు	-10.6731
▁అహ్మదాబాద్	-10.6731
▁లేకుంటే	-10.6732
▁అనుకున్నారు	-10.6734
▁సీతారామన్	-10.6735
▁పలుమార్	-10.6737
▁హాని	-10.6737
▁భోజన	-10.674
▁వాడే	-10.6741
▁కస్టమర్	-10.6743
జల్	-10.6744
▁వ్యాయామం	-10.6744
▁ప్రాంతాన్ని	-10.6748
▁రెట్లు	-10.6753
▁నివసించే	-10.6754
▁మొద	-10.6755
▁విధించిన	-10.6755
▁సిపి	-10.6758
▁అవిశ్వాస	-10.6761
▁నిర్వహించింది	-10.6763
▁స్టడీ	-10.6764
ୟ	-10.6771
▁క్రా	-10.6775
▁جس	-10.6778
▁వింత	-10.678
▁59	-10.6784
ెర	-10.6784
▁సహాయంతో	-10.6785
▁రాత్ర	-10.6786
▁కనక	-10.6786
▁బోనాల	-10.6787
్లా	-10.6789
▁ఆకస్మిక	-10.6794
▁గజ్వేల్	-10.6794
▁నితీశ్	-10.6794
▁సర్వీసెస్	-10.6794
▁చెట్లు	-10.6794
▁ಎಂಬ	-10.6794
▁మండిపడుతున్నారు	-10.6794
▁ఆదిత్యనాథ్	-10.6794
▁చివర్లో	-10.6796
▁మారిపోయింది	-10.6796
▁అప్లై	-10.6796
.100	-10.6797
▁నంద	-10.6799
▁షాకింగ్	-10.6801
▁అంచనాల	-10.6801
దల	-10.6804
▁సూర్యుడు	-10.6804
బీజేపీ	-10.6805
.500	-10.6807
▁నగరాల	-10.681
స్టా	-10.681
▁బౌలర్లు	-10.6816
▁న్యాయవాదులు	-10.6817
▁ఓడి	-10.6817
హిత	-10.6821
▁600	-10.6822
▁రెడ్డిపై	-10.6824
▁సూర్యుడి	-10.6824
▁పరా	-10.6824
▁కిలోమీటర్లు	-10.6825
▁రాళ్లు	-10.6826
▁తీసుకుంటారు	-10.6826
▁ప్రయోగ	-10.6833
▁పంపి	-10.6835
اد	-10.6837
ుతూనే	-10.6837
ేవాడు	-10.6838
▁కక్ష	-10.6839
▁కూల	-10.6844
▁వేడుకల్లో	-10.6846
▁చేయగల	-10.6849
▁బహుమతి	-10.6861
▁భగీరథ	-10.6861
▁మునుగోడు	-10.6861
▁సెప్టెంబరు	-10.6861
▁సలార్	-10.6861
▁నివేదికలు	-10.6862
పుర	-10.6864
▁విల్	-10.6867
▁మెరుగు	-10.6869
▁తెచ్చుకున్న	-10.687
▁చేస్తూనే	-10.6872
▁పూట	-10.6873
▁అనిపిస్తుంది	-10.6874
▁ఆనంద	-10.6875
▁వాయిస్	-10.688
టీసీ	-10.6883
▁కావచ్చు	-10.6885
▁అయిదు	-10.6887
జార్	-10.6888
జింగ్	-10.6891
▁చేశ	-10.6893
▁అవుతూ	-10.6893
دی	-10.6893
▁బిల్లుల	-10.6895
▁ముక్కు	-10.6899
▁తలపడ	-10.6899
▁ఆర్ఎస్	-10.6901
▁గిరిజనుల	-10.6903
▁ప్రతినిధుల	-10.6905
▁కపూర్	-10.6906
▁నిర్ధారించ	-10.6908
ావత్	-10.6909
▁మామ	-10.6909
▁డిపో	-10.691
వంతు	-10.691
▁దిన	-10.6912
▁అవుతుంద	-10.6912
డుతూ	-10.6913
గూ	-10.6914
మిన్	-10.6914
▁చేయాలన్న	-10.6914
ic	-10.6916
ط	-10.6918
▁ఉదాహరణకు	-10.6919
▁శారీరక	-10.692
▁పోరాట	-10.6922
బూ	-10.6927
▁వాటిపై	-10.6929
▁ఉస్మానియా	-10.6929
▁బ్యాక్టీరియా	-10.6929
▁వేరియంట్	-10.6929
▁రష్మిక	-10.6929
▁నితీష్	-10.6929
తుందో	-10.693
▁చేయనున్న	-10.693
▁నోరు	-10.693
▁చేరే	-10.6931
▁ఉండొచ్చని	-10.6932
▁175	-10.6932
కుండానే	-10.6933
▁గుప్పించారు	-10.6933
▁ర్యా	-10.6935
▁మల్లు	-10.6936
▁పెద్దిరెడ్డి	-10.6938
▁జోష్	-10.6942
▁వాళ్లను	-10.6943
▁మార్చే	-10.6947
లిక	-10.6948
ిస్తానని	-10.6948
రికి	-10.6949
వెన్	-10.695
▁తరలిస్తున్న	-10.6952
రాయ	-10.6953
పుల్	-10.6958
▁సొంతంగా	-10.6961
▁చెందింది	-10.6962
▁చెల్లింపు	-10.6968
73	-10.6968
▁ನಲ್ಲಿ	-10.6969
▁ఆగి	-10.6973
▁ఉత్సవాలు	-10.6979
▁చేకూర	-10.6988
బ్రి	-10.699
ಿಸ	-10.699
▁రచ్చ	-10.6995
▁स	-10.6996
▁చేసినప్పుడు	-10.6997
▁అక్కడికక్కడ	-10.6998
▁ఖరీదైన	-10.6998
▁యంత్రాంగం	-10.6998
▁రాథోడ్	-10.6998
▁సబ్సిడీ	-10.6998
▁సెక్టార్	-10.6998
▁తుఫాను	-10.6998
▁పల్నాడు	-10.6998
▁కుర్చీ	-10.6998
▁ధోని	-10.6998
▁మేషరాశి	-10.6998
▁చెట్ల	-10.6998
▁పొరుగు	-10.6998
▁డిసెంబరు	-10.6999
▁కాళ్ల	-10.7
▁లక్షణాల	-10.7
▁ఊపిరి	-10.7001
▁చేశానని	-10.7003
▁గెలిచే	-10.7006
▁హైద	-10.7006
▁చేరుకొని	-10.7006
▁మార్పిడి	-10.7007
▁AI	-10.701
▁పనుల్లో	-10.7012
▁లేడీ	-10.7013
▁చెప్పాల్సిన	-10.7018
▁ఎన్నికైన	-10.7019
లిన్	-10.7019
▁ఇవ్వాల్సి	-10.7021
▁రం	-10.7022
▁మిలియన్ల	-10.7022
వాలా	-10.7022
▁నిలబడి	-10.7023
▁పడితే	-10.7024
▁గుండెపోటు	-10.7025
▁మేనిఫెస్టోలో	-10.7026
▁దీనిలో	-10.7027
▁టెస్టులో	-10.703
▁బాగు	-10.7033
▁విధుల	-10.7033
▁250	-10.7033
▁సచివాలయ	-10.7034
▁డైలాగ్	-10.7034
▁శివారులో	-10.7036
▁రహదారి	-10.7038
▁నెగ్గ	-10.7039
▁రాయి	-10.7039
▁చార్	-10.704
▁వాడకం	-10.7041
మండ	-10.7047
ya	-10.7049
యితే	-10.7053
▁కాలు	-10.7055
▁స్నేహితుల	-10.7057
▁బండ్	-10.7062
▁పెట్టుకున్నారు	-10.7062
▁పోయి	-10.7064
▁ఫేమస్	-10.7067
▁మినహాయింపు	-10.7067
▁వీలైనంత	-10.7067
▁కూకట్	-10.7067
▁దక్షిణాది	-10.7067
▁ట్రయల్	-10.7067
▁కల్పన	-10.7067
▁చేవెళ్ల	-10.7067
▁లెవెల్	-10.7067
నుకున్న	-10.7069
▁డీఎస్సీ	-10.707
▁కలిగిస్తుంది	-10.707
▁రాజీ	-10.707
ಟ್	-10.7074
▁ప్రాముఖ్యత	-10.7076
అక్టోబర్	-10.708
▁ఇంగ్లీష్	-10.7085
▁ఉపయోగపడ	-10.7086
▁కోణంలో	-10.709
▁ఎడమ	-10.7091
▁హేమ	-10.7092
▁వీటికి	-10.7093
▁58	-10.7094
▁ప్రీత్	-10.7096
▁ఒడి	-10.7097
▁గెస్ట్	-10.7099
▁మినీ	-10.71
▁అరి	-10.71
▁ఏరియాలో	-10.7104
▁రకమై	-10.7106
▁U	-10.7107
▁గుండెపోటుతో	-10.7108
▁మరణాల	-10.711
ేంటి	-10.711
▁ప్రేమించ	-10.7111
▁కార్యకలాపాలు	-10.7112
▁కనిపించాయి	-10.7113
▁ఉంటుంద	-10.7115
▁وال	-10.7116
▁ఫండ్	-10.7116
పీఎస్	-10.7118
ند	-10.7119
▁నడుస్తున్న	-10.712
▁మోప	-10.712
▁వెళ్తే	-10.7122
్ర	-10.7126
బాయి	-10.7127
▁అబ్	-10.7128
▁బెల్లం	-10.7131
▁వాగు	-10.7133
:30	-10.7134
▁తరుపున	-10.7136
▁పుష్కలం	-10.7136
▁ప్రిన్సిపల్	-10.7136
▁గద్దె	-10.7136
▁చమురు	-10.7136
▁ఆద్మీ	-10.7136
▁సోలార్	-10.7136
▁వైన్	-10.7137
రోజులు	-10.714
▁పెద్దల	-10.714
▁యోగీ	-10.7141
▁రెండూ	-10.7141
▁పెంచారు	-10.7142
▁అందిస్తోంది	-10.7144
▁ఉమ	-10.7145
▁ఇంక	-10.7147
తెలంగాణ	-10.715
▁పెట్టుకొని	-10.7151
▁పంచుకున్నారు	-10.7152
▁అధి	-10.7153
స్టిక్	-10.7154
▁జరగలేదు	-10.7156
▁ట్రాక్టర్	-10.7158
ାର	-10.7159
మనే	-10.716
▁ప్రేక్షకులను	-10.7163
▁అన్నింటి	-10.7169
ుతుందన్నారు	-10.7169
మైతే	-10.7176
▁వెంకటేశ్వర	-10.7177
▁పరిశ్రమలో	-10.7178
ఇక	-10.718
ون	-10.7182
▁ఆలయాన్ని	-10.7184
▁ప్రారంభోత్సవ	-10.7184
▁పాటలు	-10.7194
▁వర్గాలకు	-10.7205
▁వృషభ	-10.7206
▁ముగిసే	-10.7206
▁జనార్దన్	-10.7206
▁ఆర్డీవో	-10.7206
▁రోజువారీ	-10.7206
▁పుణ్య	-10.7206
▁దివ్య	-10.7206
▁తీసుకోవ	-10.7207
డంతోపాటు	-10.7212
ాబాద్	-10.7213
▁యూనిట్ల	-10.7213
చార	-10.7213
▁ఉండేవి	-10.7215
ವಾ	-10.7215
▁ప్రారంభంలో	-10.7216
▁వీడి	-10.7218
▁హబ్	-10.7218
▁పనిచేస్తున్నారు	-10.7221
ఛ	-10.7221
ష్ణ	-10.7222
▁నడిచ	-10.7222
▁ఉండవు	-10.7224
▁అనిపించింది	-10.7224
సాగర్	-10.7224
▁హస్తం	-10.7225
▁అడిగారు	-10.7226
▁కార్తీక్	-10.7228
▁వ్యాపారి	-10.7228
దేనని	-10.723
▁సందర్శించారు	-10.7231
▁అనారోగ్యం	-10.7234
ೆಯ	-10.7235
▁అప్రమత్తం	-10.7236
జిత్	-10.7238
▁ఓటర్లను	-10.7243
ab	-10.7244
▁చట్టాల	-10.7245
▁నడవ	-10.7246
▁రేసులో	-10.725
▁ఉదయ	-10.7251
▁కొడ	-10.7254
▁టిక్కెట్లు	-10.726
▁వార్తల	-10.7261
▁కాల్చి	-10.7263
▁గురుకుల	-10.7264
ిపోత	-10.7268
▁మహిళను	-10.7275
य	-10.7276
▁అభ్యర్దుల	-10.7276
▁ఇంజనీరింగ్	-10.7276
▁ఎట్టకేలకు	-10.7276
▁టూరిజం	-10.7276
▁పులివెందుల	-10.7276
▁ప్రత్యర్థుల	-10.7276
▁సిసోడియా	-10.7276
▁గిఫ్ట్	-10.7276
▁పరిషత్	-10.7276
▁వివ	-10.7276
▁రజనీకాంత్	-10.7276
▁పిలిచి	-10.7277
▁సైకిల్	-10.7277
▁విలన్	-10.7277
▁బుకింగ్	-10.7278
▁లైవ్	-10.7281
▁వేసుకుని	-10.7281
▁సకాలంలో	-10.7281
▁కంపెనీకి	-10.7282
తానని	-10.7283
▁సమయాన్ని	-10.7284
వుతున్న	-10.7285
▁నరసింహ	-10.7285
▁2008	-10.7286
▁గెలుపొందారు	-10.7287
▁కిందకు	-10.7288
▁గారి	-10.729
సియా	-10.729
▁గెలిచ	-10.7297
▁పరిధి	-10.7298
▁ఆదేశించ	-10.7298
▁కౌర్	-10.7299
▁దేవుడు	-10.7301
▁ఇంట్లోనే	-10.7302
బోతుంది	-10.7305
▁వెహికల్స్	-10.7306
▁సభల్లో	-10.7308
▁సముద్రం	-10.7309
▁చెన్నైలో	-10.731
▁వ్యాఖ్యలను	-10.7311
▁గందరగోళం	-10.7311
▁ఫ్లైట్	-10.7312
▁సృష్టించిన	-10.7313
ుందా	-10.732
▁ఎల	-10.732
▁ہم	-10.7321
▁లాంటివి	-10.7322
ిస్తుందని	-10.7323
ంలోని	-10.7324
▁నీట్	-10.7328
▁వేదికపై	-10.7334
▁రాకపోవడంతో	-10.7343
▁పురుష	-10.7343
▁విమర్శించ	-10.7347
▁అడ్మిషన్	-10.7347
▁అవకాశాన్ని	-10.7347
▁ఎగుమతి	-10.7347
▁రాజగోపాల్	-10.7347
▁విభిన్న	-10.7347
▁రెస్క్యూ	-10.7347
▁జయశంకర్	-10.7348
▁ہیں۔	-10.7348
▁ప్యాకెట్	-10.7348
▁అవసరమైతే	-10.7349
▁స్థితి	-10.7349
ರೆ	-10.7349
ుకోవడంతో	-10.7349
▁ముక్కలు	-10.735
▁తక్షణమే	-10.7351
▁అవసరమని	-10.7351
▁ଆ	-10.7352
▁శిశువు	-10.7355
▁యూనివర్సిటీలో	-10.7355
▁జరుగుతాయి	-10.7356
ుతుంటే	-10.736
52	-10.7361
సెప్టెంబర్	-10.7362
▁జరుగుతోందని	-10.7365
ತ್ತ	-10.7366
ంబర్	-10.7367
ెట్	-10.7368
తాయని	-10.7368
▁ఉంద	-10.737
▁ఆవు	-10.7375
ాలె	-10.7379
82	-10.7384
▁చదవ	-10.7387
▁బీసీల	-10.7387
▁గుర్తుకు	-10.7388
▁ప్రమోషన్స్	-10.7402
▁చర్చి	-10.7403
▁ఐడీ	-10.7405
▁నియమ	-10.7411
▁వడ్ల	-10.7415
▁నేర్చ	-10.7417
▁సంతృప్తి	-10.7419
▁గన్నవరం	-10.7419
▁దయాకర్	-10.7419
▁ఆర్మూర్	-10.7419
▁కూర్చుని	-10.7419
▁తలసాని	-10.7419
▁వైఎస్ఆర్సీపీ	-10.7419
▁మన్మోహన్	-10.7419
▁సమావేశమయ్యారు	-10.7419
▁సీన్స్	-10.7419
▁ఒక్కరు	-10.742
మెన్	-10.742
▁చేరిక	-10.742
▁తాగి	-10.742
▁పల్లా	-10.7422
▁సంధ్య	-10.7422
اب	-10.7425
▁వేట	-10.7426
▁కోల్పోయింది	-10.7428
▁ఇండియాకు	-10.7429
▁ఉండాలంటే	-10.743
▁విపక్షాల	-10.7433
▁పప్పు	-10.7434
▁రాజ్య	-10.7435
▁పాఠశాలలో	-10.7436
▁భూకంప	-10.7437
అయితే	-10.7438
తోనూ	-10.7438
▁రౌ	-10.7438
▁చెందుతున్నారు	-10.7441
▁మోసాల	-10.7445
ತ್	-10.7446
▁యాడ్	-10.7447
ధర్	-10.7449
▁స్టైల్	-10.745
▁చేయబోతున్న	-10.7464
▁సంబంధాల	-10.7464
డానికే	-10.7469
▁ఎదిగ	-10.7475
▁కాల్వ	-10.7476
▁కోరిన	-10.7477
▁గ్రామాలకు	-10.7477
నంటూ	-10.7482
▁సిమ్	-10.7483
▁భాగస్వామ్య	-10.7484
▁ఫిబ్రవరిలో	-10.7485
▁స్పై	-10.7487
تا	-10.749
▁بھی	-10.7491
▁ఇంజినీర్	-10.7491
▁ట్యాగ్	-10.7491
▁పురందేశ్వరి	-10.7491
▁ప్రజ్వల్	-10.7491
▁మెడిసిన్	-10.7491
▁జవహర్	-10.7491
▁రిష	-10.7491
▁కోరుకున్న	-10.7493
▁అడవి	-10.7494
వాటి	-10.7494
▁బ్యాగ్	-10.7495
టెన్	-10.7495
▁అఫ్	-10.7497
46	-10.75
▁సహకారంతో	-10.75
▁సానుకూలంగా	-10.7504
▁నివాసానికి	-10.7505
ఢ	-10.7506
▁వాడు	-10.7508
▁వాస్తవం	-10.7509
▁ఆకుల	-10.7509
గురు	-10.7512
ସି	-10.7512
ళం	-10.7512
▁వివాద	-10.7515
▁స్పాట్	-10.7517
ed	-10.7522
▁అమ్ముతున్న	-10.7523
మయ్యారు	-10.7525
ోళ్ల	-10.7525
స్తాన్	-10.7527
▁ఖే	-10.7529
▁చూసుకుంట	-10.7532
▁నేతగా	-10.7535
▁గోవింద	-10.7535
▁మలి	-10.7536
నాయక్	-10.7537
ండర్	-10.7538
▁దొంగలు	-10.7538
బీసీ	-10.7542
ెత్త	-10.7542
▁దంపతుల	-10.7548
▁పలిక	-10.7549
han	-10.7549
ಪ್	-10.7554
ష్క	-10.7554
▁పడవ	-10.7555
▁నిబంధనలను	-10.7557
▁నోటీసుల	-10.7558
▁చెప్పడానికి	-10.7559
కముందే	-10.756
ష్ఠ	-10.756
ମ	-10.7562
కాలంలో	-10.7562
▁జల్	-10.7563
▁ہیں	-10.7563
ु	-10.7563
యునైటెడ్	-10.7563
▁ساتھ	-10.7563
▁ہوئے	-10.7563
▁ద్వీప	-10.7563
▁ధ్వజమెత్తారు	-10.7563
▁సూపరింటెండెంట్	-10.7563
▁దవాఖాన	-10.7563
▁కాల్చ	-10.7564
▁అపాయింట్	-10.7565
▁కనెక్ట్	-10.7565
▁ఆరోగ్యకరమైన	-10.7566
▁వ్యవధి	-10.7566
▁స్టాఫ్	-10.7569
▁ఏసీపీ	-10.7573
▁రోవర్	-10.7573
▁వ్యాపారుల	-10.7574
▁మమతా	-10.7575
డిసెంబర్	-10.758
▁కాలుష్య	-10.7581
నూరు	-10.7582
ಲಿ	-10.7584
▁రికార్డులు	-10.7586
▁వ్యాపారాల	-10.7586
▁కేంద్రాలు	-10.7586
87	-10.7587
▁ఔట	-10.7589
▁భక్తి	-10.7589
▁ఏనుగు	-10.759
▁పొందారు	-10.7591
ఇప్పుడు	-10.7592
▁ఇదొక	-10.7593
తుంది	-10.7595
▁కామెంట్లు	-10.7596
▁తిట్ట	-10.7597
▁వడ్లు	-10.7598
తిక	-10.7598
▁ಜ	-10.7599
కున్నా	-10.76
▁సామాన్యుల	-10.76
▁కావాల్సి	-10.7601
▁సంకేతాలు	-10.7602
▁భీమ	-10.7602
▁మంత్రివర్గ	-10.7604
▁ప్లా	-10.7604
▁మొదలై	-10.7608
▁నామినేషన్ల	-10.7609
▁పట్టి	-10.761
▁బయటపడ్డ	-10.761
▁ఉల్లంఘించ	-10.7614
▁కుమారి	-10.7616
▁సురక్షిత	-10.7617
▁ప్రతిరోజ	-10.7624
▁రూపొందించారు	-10.7625
గమన	-10.7627
త్వాన్ని	-10.7628
▁పెర్	-10.7629
▁ముద్దు	-10.7631
▁సంగ	-10.7634
ంచిన	-10.7634
▁అనుసరించ	-10.7636
▁గెలుచుకున్న	-10.7636
▁చాంపియన్	-10.7636
▁నిర్ణీత	-10.7636
▁వ్యాక్సిన్	-10.7636
▁వైసిపి	-10.7636
▁దాఖలై	-10.7636
▁హనుమంతు	-10.7636
▁రౌండర్	-10.7636
▁చదరప	-10.7637
ింత	-10.7638
▁ఆశించ	-10.7638
▁టీఆర్ఎస్	-10.764
్యాల	-10.764
▁ప్రదీప్	-10.7641
▁బృంద	-10.7642
▁తొలగిస్త	-10.7646
▁కోడి	-10.7647
పూరిత	-10.7651
▁చెప్పాలంటే	-10.7652
▁వేడుకల	-10.7653
▁ఇంట్లోకి	-10.7654
یں	-10.7656
కొట్ట	-10.7657
▁రోజే	-10.7657
ಲ್ಲ	-10.7662
▁తీ	-10.7662
▁దొర	-10.7663
▁పరిశ్రమలు	-10.7663
▁గ్యారంటీల	-10.7664
ళ్లను	-10.7666
▁64	-10.7666
రేట్	-10.7667
▁నగరానికి	-10.7667
▁వదిలిపెట్ట	-10.7667
శెట్టి	-10.7668
▁ప్రవేశపెట్టిన	-10.7669
▁అభిమాని	-10.7669
▁చెప్పలే	-10.7671
పోతున్నాయి	-10.7673
▁దుస్తులు	-10.7675
▁ప్రశ్నలకు	-10.7675
▁د	-10.7676
▁అభ్యర్థిని	-10.7678
▁అందిన	-10.768
▁జామ్	-10.768
▁పదార్థాల	-10.7682
రియల్	-10.7682
▁కులం	-10.7688
▁గాజు	-10.7694
▁షాపు	-10.77
▁బలగాలు	-10.7709
▁డిఫెన్స్	-10.771
▁రాష్ర్ట	-10.771
▁సతీమణి	-10.771
▁సుభాష్	-10.771
▁కోచింగ్	-10.771
▁షారుఖ్	-10.771
▁సర్జరీ	-10.771
రాణి	-10.7711
పార్	-10.7713
▁పాలేరు	-10.7713
▁క్రీ	-10.7715
▁బేబీ	-10.7716
▁నిర్వహించడం	-10.7717
▁ప్రేక్షకులు	-10.7718
▁బాక్స్	-10.7718
▁సీఆర్	-10.7718
▁మ్యాప్	-10.7719
▁వెళ	-10.7721
▁ఖండించారు	-10.7722
▁క్రూ	-10.7725
▁రెడ్డితో	-10.7726
▁ఉదయ్	-10.7728
▁తర	-10.773
▁జరుగుతున్నాయని	-10.773
▁మెట్	-10.7731
▁గడ్డ	-10.7732
▁కార్పొరేటర్	-10.7734
కోట	-10.7735
▁కఠినంగా	-10.7736
76	-10.7737
▁సెక్షన్ల	-10.7739
▁మకర	-10.774
▁అందంగా	-10.7741
▁స్వీకరించారు	-10.7746
హె	-10.7746
▁కొట్టారు	-10.7748
▁ఎప్పుడ	-10.7751
▁సందేహం	-10.7752
▁విమానాలు	-10.7754
61	-10.7756
▁తీసుకెళ్త	-10.7759
▁వ్యవధిలో	-10.776
▁విర	-10.7761
ిస్తున్నారని	-10.7763
▁85	-10.7765
▁సభలు	-10.7765
కార్య	-10.7765
ిస్తున్నట్లు	-10.7768
▁వ్యూహాల	-10.777
▁తక్షణ	-10.778
▁గదుల	-10.778
జెన్	-10.7783
▁ఇప్పుడ	-10.7783
▁చొరవ	-10.7784
▁ఫార్ములా	-10.7784
▁నాటౌట్	-10.7784
▁పురుషులు	-10.7784
▁ర్యాంక్	-10.7784
▁షిండే	-10.7784
▁చేయాల	-10.7785
▁ఫ్రంట్	-10.7785
కపోవచ్చు	-10.7785
▁సిద్ధమైంది	-10.7786
▁ఐరన్	-10.7788
▁తీసుకురావాలని	-10.7789
▁కృష్ణారావు	-10.7789
▁అడిగ	-10.779
లోపే	-10.7791
▁కల్పిస్తామని	-10.7791
తమ	-10.7794
▁పరిష్కారానికి	-10.7794
▁అందిస్తామని	-10.7795
ించాలి	-10.7797
▁పడుతోంది	-10.7797
▁సోదరి	-10.7798
▁నిజమైన	-10.7798
▁అవమానించ	-10.7798
▁పనిచేస్తుంది	-10.7801
▁గుండా	-10.7803
▁లైన్స్	-10.7805
▁2000	-10.7805
▁కథనాలు	-10.7809
▁పెళ్లికి	-10.781
▁పోల్చ	-10.7811
దిగా	-10.7812
▁ఓకే	-10.7821
లేమని	-10.7821
▁మృతదేహం	-10.7821
ట్రా	-10.7822
▁కాంట్రాక్టర్	-10.7822
▁దేవాలయం	-10.7824
▁సేన	-10.7825
▁కార్యకర్తలకు	-10.7827
▁వేగం	-10.7828
▁తీరును	-10.7831
▁మార్చారు	-10.784
ందీ	-10.7844
▁ఎకరాలకు	-10.7847
దాన్ని	-10.7849
▁అనుబంధం	-10.7852
▁తార	-10.7853
▁ఆసుపత్రుల	-10.7854
▁కన్ను	-10.7854
▁ఊర	-10.7858
▁టీస్పూన్	-10.7858
▁డిస్కౌంట్	-10.7858
▁ప్రమేయం	-10.7858
▁యూరప్	-10.7858
▁పద్ధతుల	-10.7859
▁తెలియజేయ	-10.7859
▁బుల్లెట్	-10.7859
▁జరుపుకుంటారు	-10.7859
▁ఎమ్మెల్యేలను	-10.7861
▁బాధపడ	-10.7862
▁వెతిక	-10.7863
▁తిరుగుతూ	-10.7864
▁చెయ్యడం	-10.7865
▁కాదా	-10.787
హార్	-10.7871
▁బాల్స్	-10.7873
▁నై	-10.7875
లిక్	-10.7878
మాల	-10.7879
▁సెంచరీలు	-10.7879
▁కూల్చివేత	-10.788
▁అర్హుల	-10.7882
▁చేరుకుంటారు	-10.7882
▁కేటాయించింది	-10.7883
▁ఏర్పడే	-10.7884
పోతాయి	-10.7885
▁తెప్పించ	-10.7886
▁రాజయ్య	-10.7886
▁سو	-10.789
▁వైడ్	-10.789
▁నమ్మి	-10.7891
▁ఆలోచనలు	-10.7894
▁63	-10.7896
▁అడ్డుకున్న	-10.7896
ంటో	-10.7897
▁శ్ర	-10.7902
▁ఓనర్	-10.7904
▁పంపింది	-10.7904
▁విశాఖలో	-10.7907
▁ఆధారాల	-10.7911
95	-10.7911
దశ	-10.7914
04	-10.7915
ಿಂದ	-10.7915
▁ప్రభుత్వాల	-10.7917
గులు	-10.7921
▁చదివి	-10.7921
▁ఆవరణలో	-10.7923
79	-10.7925
▁పదేండ్ల	-10.7926
వుతాయి	-10.7927
▁తిరిగ	-10.7929
ార్ధ	-10.7931
▁W	-10.7933
▁తగిలి	-10.7933
▁మంగ	-10.7934
▁ఇన్సూరెన్స్	-10.7934
▁తలనొప్పి	-10.7934
▁పోస్టుమార్టం	-10.7934
▁ప్రీమియర్	-10.7934
▁సంతరించుకుంద	-10.7934
▁అంబ	-10.7934
▁స్థానాన్ని	-10.7934
▁తెరపైకి	-10.7934
▁శివసేన	-10.7935
▁భార్యను	-10.7935
▁చేశామన్నారు	-10.7937
▁నడుమ	-10.7937
▁వెంకటరెడ్డి	-10.7938
▁షే	-10.7938
▁కలపాలి	-10.7938
▁బలవంతంగా	-10.7938
▁నాయకులను	-10.7939
ేళ్ల	-10.7939
▁జీవితాల	-10.794
▁సాధిస్తారు	-10.7941
▁ఉంచుకుని	-10.7941
▁దూకుడు	-10.7941
▁హోలీ	-10.7942
▁రేపుతో	-10.7942
▁యోజన	-10.7943
స్థల	-10.7943
▁వివాదాల	-10.795
▁భారతీయులు	-10.7951
లియన్	-10.7955
ుకుంటున్నారని	-10.7957
సిల్	-10.7965
▁లేదంటూ	-10.797
ానంద	-10.7974
షియా	-10.7978
▁ధన్	-10.7979
▁కొట్టింది	-10.7979
తామని	-10.7979
▁s	-10.7984
▁పరిశీలిస్తున్న	-10.7988
▁పోర్	-10.7989
▁కొర	-10.799
▁నామ	-10.7995
▁పిల్లలతో	-10.7997
▁బయటి	-10.7999
▁వ్యాపారాలు	-10.8001
▁తేలిక	-10.8003
▁రావాల్సిన	-10.8004
బడ్డ	-10.8009
▁ఆవిర్భావ	-10.8009
▁క్లియర్	-10.8009
▁టెంపుల్	-10.8009
▁డిక్లరేషన్	-10.8009
▁విద్యాసంస్థల	-10.8009
▁సింహరాశి	-10.801
▁తీసుకువెళ్ల	-10.801
▁లంచం	-10.801
▁వీటితో	-10.8012
ట్లయితే	-10.8012
▁వేయించ	-10.8013
▁జరుగుతుందో	-10.8013
▁మాయ	-10.8017
▁కష్టంగా	-10.8021
▁జాగ	-10.8023
ండో	-10.8024
▁ఫ్లో	-10.8027
▁జరిగాయని	-10.8028
య్యా	-10.8029
▁కేటాయించాలని	-10.8031
▁తెలప	-10.8031
ట్లేదు	-10.8032
▁తప్పులు	-10.8033
▁ଉ	-10.8034
▁నాయకత్వ	-10.8035
▁డబ్బుల	-10.8037
▁మానసికంగా	-10.8037
▁నిర్వహించేందుకు	-10.804
▁నష్టపోయిన	-10.8041
▁రికార్డును	-10.8042
▁భాగ్య	-10.8043
▁సీట్లను	-10.8043
▁క్షమాపణలు	-10.805
▁పాఠశాలల్లో	-10.805
▁వాళ్ళు	-10.8053
▁కలెక్షన్	-10.8053
▁జోరు	-10.8054
▁ఎన్నికలను	-10.8056
▁రైలును	-10.8056
▁బౌ	-10.8065
▁సెమీ	-10.8065
▁మల్	-10.8073
▁ఫార్మాట్	-10.8074
▁సర్వీసు	-10.8079
▁కలిప	-10.8079
▁సన్నిహిత	-10.8081
▁పెట్టేందుకు	-10.8083
▁కంపెనీలకు	-10.8086
▁అస్వస్థత	-10.8086
▁డ్రైవింగ్	-10.8086
▁దుండగులు	-10.8086
▁వెల్లుల్లి	-10.8086
▁హ్యాట్రిక్	-10.8086
▁దిగుబడి	-10.8086
▁హాజరవుత	-10.8086
▁ధరించి	-10.8086
ంటు	-10.8087
▁వ్యవహరించిన	-10.8087
▁సవాలు	-10.8088
వ్వడం	-10.8088
▁అదేవిధంగా	-10.8089
▁సంప్రదాయాల	-10.809
▁విధుల్లో	-10.809
▁రకాలుగా	-10.8095
▁బంధ	-10.8095
▁ح	-10.8097
▁చేయాలో	-10.8098
లేకుండా	-10.8099
▁వన	-10.8101
▁రివర్స్	-10.8102
స్తులు	-10.8103
దర్శించుకున్నారు	-10.8105
ह	-10.8106
X	-10.8106
▁కనపడ	-10.8108
▁మారిందని	-10.8109
▁ఇప్పించ	-10.811
▁బాలికల	-10.8112
మృత	-10.8112
యిల్	-10.8113
ేమీ	-10.8115
▁ف	-10.8116
▁విద్యార్థులను	-10.8118
▁ప్రసాదం	-10.8121
ామంటూ	-10.8122
▁గుర్	-10.8123
▁ప్రాతిపదికన	-10.8123
ులతో	-10.8125
▁కలప	-10.8127
▁సమస్యలకు	-10.8127
▁ఆరంభం	-10.8128
▁వెహికల్	-10.813
▁కూరగాయలు	-10.8131
ak	-10.8138
ందట	-10.814
53	-10.8144
.45	-10.8148
▁53	-10.8153
▁సదుపాయాల	-10.8154
▁ای	-10.8154
▁పోయ	-10.8159
▁చెబితే	-10.8163
ଶ	-10.8163
▁హసీనా	-10.8163
▁రాజాసింగ్	-10.8163
▁రిలయన్స్	-10.8163
▁విమానాశ్రయం	-10.8164
▁చేస్తున్నాం	-10.8165
▁కిసాన్	-10.8166
▁నిధి	-10.8166
▁కలెక్టర్లు	-10.8167
▁ఎంచుకున్న	-10.8167
▁ముడి	-10.8169
▁మేఘా	-10.8169
▁ప్రత్యామ్నాయ	-10.8169
▁పలక	-10.8169
▁జాతకులు	-10.8171
గుణ	-10.8171
▁అసభ్య	-10.8172
▁కమ్	-10.8176
▁బాత్	-10.8177
ెళ్ల	-10.8179
▁ఎకరా	-10.8179
నారాయణ	-10.8182
▁ప్రముఖుల	-10.8182
▁కెప్టెన్సీ	-10.8182
కెప్టెన్	-10.8184
▁వీలుగా	-10.8184
▁పట్టుకున్న	-10.8187
▁సంస్థలకు	-10.819
▁పాల్పడుతున్న	-10.8197
▁బుధ	-10.8201
▁షీ	-10.8202
▁ఏడాదిలో	-10.8203
పోవటం	-10.8204
ాల్సిందిగా	-10.8205
▁తగ్గిన	-10.8205
▁మిగిలి	-10.8205
▁ఫ్రా	-10.8207
▁పరిష్కార	-10.821
▁66	-10.8211
▁బుద్ధ	-10.8212
▁టేక	-10.8213
▁ر	-10.8213
ద్రి	-10.8214
▁వాడీ	-10.8215
మవుతున్న	-10.8215
▁చేపడుతున్న	-10.822
▁ఖు	-10.822
▁కాళ్లు	-10.822
▁మూస	-10.8222
▁కష్టమే	-10.8224
▁సేల్	-10.8225
▁99	-10.8228
▁వాసులు	-10.8228
చారు	-10.8229
▁ఆయ	-10.8232
బడుతుంది	-10.8232
▁అనర్హత	-10.824
▁దుబ్బాక	-10.824
▁కలయిక	-10.824
▁ప్రోటీన్	-10.824
▁కాకతీయ	-10.824
▁యాసిడ్	-10.824
▁సాయుధ	-10.824
▁ఓటరు	-10.824
▁రాములు	-10.824
▁ధర్మపురి	-10.8241
▁సీఈఓ	-10.8241
▁ఉద్యమంలో	-10.8241
▁బాపట్ల	-10.8241
▁మృతదేహాలను	-10.8241
▁ఐఫోన్	-10.8241
▁పోస్టల	-10.8242
▁వెంకటేష్	-10.8243
▁బాధితురాలి	-10.8243
▁చేరువ	-10.8243
▁ఓడిపోయారు	-10.8243
▁కాసేపు	-10.8243
▁ఆరోపించింది	-10.8244
▁అవార్డులు	-10.8245
▁జైపూర్	-10.8245
ందరినీ	-10.8246
▁ప్రతిష్ఠ	-10.8246
▁వీరంతా	-10.8247
ంబా	-10.8248
▁ఉరుములు	-10.8249
▁(19	-10.8251
ీన్	-10.8251
▁పిలవ	-10.8251
▁అనుభవించ	-10.8252
▁బ్రో	-10.8266
ఫో	-10.8267
▁ఉత్సవ	-10.8274
▁ట్ట	-10.8275
▁బయటపెట్ట	-10.8275
▁తిరుగుబాటు	-10.8277
పడ్డాయి	-10.8279
▁పరు	-10.828
▁ఆలోచిస్త	-10.8288
▁నిషేధించ	-10.8296
▁ఓటీటీలో	-10.8296
▁గ్రా	-10.8301
▁భవనాలు	-10.8302
గొండ	-10.8309
▁వినిపిస్తున్న	-10.8316
▁ముద్రగడ	-10.8317
▁గ్రాడ్యుయేట్	-10.8318
▁పిన్నెల్లి	-10.8318
▁డ్యామ్	-10.8318
▁గది	-10.8319
▁పొడిగించ	-10.8321
▁రౌడీ	-10.8321
▁ఇత	-10.8321
▁అంతకంటే	-10.8322
▁తీరం	-10.8322
▁రాజేష్	-10.8322
▁బందీ	-10.8322
ూనే	-10.8324
▁బాగుంటుంది	-10.8324
▁దేశీయ	-10.8324
▁పాల్గొననున్నారు	-10.8325
▁మాదిరిగా	-10.8326
▁వెళ్ళి	-10.8327
ಜ	-10.8328
▁లబ్దిదారుల	-10.8331
ుకుంటోంది	-10.8331
▁టైటాన్స్	-10.8331
▁ఇప్పటివరక	-10.8332
▁అస్సల	-10.8332
పోతోంది	-10.8335
▁మంటలను	-10.8336
▁చేయాలంటే	-10.8337
▁దుకాణాల	-10.8338
▁అభిమానులను	-10.8338
را	-10.8338
లక్ష్మీ	-10.834
▁సుందర	-10.8341
▁ప్రతిపాదనలు	-10.8343
▁ఏడో	-10.8344
▁హవా	-10.8345
▁సార్	-10.8348
రన్నారు	-10.8348
▁సాగుతున్న	-10.835
▁ఆరోపణ	-10.8352
▁ఒకరోజు	-10.8354
▁రక్తంలో	-10.8357
▁అవినీతికి	-10.8358
▁ఉపవాసం	-10.8358
▁పాల్పడ్డ	-10.8363
▁లిస్టులో	-10.8365
డుతున్న	-10.8367
▁నదిలో	-10.8368
▁శర	-10.8368
దానం	-10.8369
▁ప్రజాస్వామ్యం	-10.8372
▁కత్తితో	-10.8373
▁ప్రస్తుతానికి	-10.8375
▁కేంద్రాన్ని	-10.8377
ాలన్నా	-10.8377
▁శుభ్	-10.8377
▁సందర్భ	-10.8377
▁పొందే	-10.8378
▁వాయు	-10.8379
▁గర్భ	-10.8379
▁స్థలాల	-10.838
▁62	-10.8381
▁వీడియోలను	-10.8382
▁అధికారులపై	-10.8384
ee	-10.8386
▁ମ	-10.8386
▁77	-10.8387
ప్రియ	-10.8388
▁నిరుద్యోగులు	-10.8389
▁మైనారిటీ	-10.8396
▁అగ్రికల్చర్	-10.8397
▁అమితాబ్	-10.8397
▁చారిత్రక	-10.8397
▁తరచుగా	-10.8397
▁మిర్యాలగూడ	-10.8397
▁శాటిలైట్	-10.8397
▁పోటెత్త	-10.8397
▁రామగుండం	-10.8397
▁రిక్రూట్	-10.8397
▁మిర్చి	-10.8397
▁ముర్ము	-10.8397
▁యాంకర్	-10.8397
▁బాలినేని	-10.8398
▁సెల్ఫీ	-10.8399
▁అందజేస్త	-10.8399
▁మైండ్	-10.84
▁ఉంటుందన్నారు	-10.84
ఎంసీ	-10.84
▁మైదానంలో	-10.8402
▁వెల్లడించాయి	-10.8409
▁దుర్వినియోగం	-10.8409
▁సినిమాలకు	-10.8414
▁అరటి	-10.8415
▁ఓడించి	-10.842
▁అభిమానులకు	-10.842
▁పాలక	-10.8422
▁ఉపయోగించే	-10.8423
ాలజీ	-10.8426
▁సేకరించిన	-10.8428
▁దొ	-10.8428
▁రాముడి	-10.8428
▁రహదారిపై	-10.843
▁సేల్స్	-10.8432
సాయి	-10.8436
▁సాగించ	-10.8437
▁ఎక్కి	-10.8438
▁ప్యాక్	-10.8439
▁వస్తువు	-10.844
▁ఇళ్లలో	-10.8441
▁బాధ్యుల	-10.8444
▁రాబట్ట	-10.8445
▁భారతి	-10.8449
ಕಾ	-10.8451
▁నాలా	-10.8454
▁రెండ	-10.8456
▁నాయకత్వంలో	-10.8457
▁జిమ్	-10.8459
▁చేపట్టి	-10.846
02	-10.846
▁నిర్మాతలు	-10.8462
▁సదుపాయాలు	-10.8462
▁Y	-10.8465
▁పరీక్షించ	-10.8466
ಿದ್ದಾರೆ	-10.8476
▁పునరుద్ధరించ	-10.8476
▁ఫెడరేషన్	-10.8476
▁సస్పెన్షన్	-10.8476
▁ప్రోత్సాహ	-10.8476
▁బల్దియా	-10.8476
▁మిచెల్	-10.8476
▁భగవంత	-10.8477
▁పురాతన	-10.8477
▁గణపతి	-10.8477
▁విరమించ	-10.8478
▁రాజేంద్ర	-10.8478
▁రిలేషన్	-10.8478
▁నడక	-10.8478
▁సింగ	-10.8478
▁ఆడాడు	-10.8479
▁వేగవంతం	-10.8479
▁కోర్	-10.848
▁విమెన్	-10.8483
▁కప్పి	-10.8486
▁సలహాలు	-10.8487
▁జరగాల్సి	-10.8489
▁ఎండలు	-10.8489
▁سر	-10.8491
▁ఇచ్చినా	-10.8491
▁అభిప్రాయాలు	-10.8498
▁కోట్లను	-10.8499
కాంగ్రెస్	-10.85
▁చైనాలో	-10.85
▁అలరించ	-10.8503
▁జనాల	-10.8513
▁క్షమాపణ	-10.8514
▁భాగంలో	-10.8514
▁మిల్లర్	-10.8514
▁దర్శక	-10.8515
▁డ్ర	-10.8517
▁దీప	-10.8518
▁విత్	-10.8518
▁కాలేజీల్లో	-10.8525
▁స్వాతంత్ర్య	-10.8526
▁సామ	-10.8527
రాశి	-10.8527
ళ్లకు	-10.853
▁విపక్షాలు	-10.8532
▁నాట	-10.8534
కర్త	-10.8536
ఠా	-10.8536
మెంట	-10.8536
▁సేకరించి	-10.8537
▁అమర్చ	-10.854
▁కుప్పం	-10.8542
▁దివ్యాంగుల	-10.8548
ుకుందని	-10.8548
▁ఎంపీల	-10.8549
▁విమానాశ్రయ	-10.855
▁లాండ్	-10.8555
▁ఎత్తులో	-10.8556
▁video	-10.8556
▁అగ్నిమాపక	-10.8556
▁పెవిలియన్	-10.8556
▁మార్కెటింగ్	-10.8556
▁విముక్తి	-10.8556
▁సీక్వెల్	-10.8556
▁సీసీటీవీ	-10.8556
▁క్రితమే	-10.8556
▁నెక్స్ట్	-10.8556
▁మిశ్రా	-10.8556
▁షురూ	-10.8556
▁చేనేత	-10.8556
▁తరగతుల	-10.8556
▁వెంకటేశ్వర్లు	-10.8556
▁కనెక్షన్	-10.8556
▁ఆర్ధిక	-10.8556
▁జర్నీ	-10.8557
▁కండరాల	-10.8557
▁అభిప్రాయాల	-10.8557
▁వేముల	-10.8558
▁విశ్లేషణ	-10.8559
▁బజార్	-10.8561
▁వినయ్	-10.8562
▁వైభవంగా	-10.8563
రిగిన	-10.8563
▁వెళ్తున్నారు	-10.8563
ుతుందా	-10.8566
▁కౌలు	-10.8566
▁నెలకొన్నాయి	-10.857
▁ఎదుర్కోవాల్సి	-10.8572
▁రేఖ	-10.8585
▁పార్లమెంటులో	-10.8587
▁కష్టపడ	-10.8587
ಮಾ	-10.8588
▁గాలులు	-10.8592
ివ్	-10.8592
▁سی	-10.8593
▁తెరకెక్కించిన	-10.8593
▁తీసుకోవాల్సి	-10.8597
▁ఉన్నామని	-10.8599
పేరు	-10.8599
▁భరించ	-10.86
▁గొర్రెల	-10.8601
▁ఎలక్ట్రానిక్	-10.8604
▁సిక్కు	-10.8608
▁కస్టడీకి	-10.861
▁విడిచి	-10.8612
▁ప్రాజెక్టులో	-10.8612
▁ముహూర్తం	-10.8615
▁ఇళ్లను	-10.8615
్రో	-10.8617
ేయాలని	-10.8617
▁నిరుద్యోగులకు	-10.8622
▁లబ్ధిదారుల	-10.8624
▁కర్మ	-10.8624
▁కావాలనే	-10.8624
▁తెచ్చారు	-10.8626
▁మేష	-10.8627
▁మార్కుల	-10.8627
పడుతున్నారు	-10.8631
▁చేయడంపై	-10.8634
తారా	-10.8635
▁ఉపరితల	-10.8637
▁అడ్వాన్స్	-10.8637
▁ఉత్తరాంధ్ర	-10.8637
▁ఐక్యరాజ్యసమితి	-10.8637
▁మ్యూజియం	-10.8637
▁విరాళం	-10.8637
▁శిథిలాల	-10.8637
▁మసాలా	-10.8637
▁దివంగ	-10.8637
▁నర్సింహ	-10.8637
▁ఆఖరి	-10.8637
▁చంద్రుని	-10.8638
▁అణు	-10.8638
▁సభను	-10.8639
▁వింట	-10.864
▁వేణుగోపాల్	-10.8641
▁ప్రచురించ	-10.8643
▁అందింది	-10.8644
ing	-10.8645
▁2012	-10.8647
పర్యటించనున్నారు	-10.8648
▁చేశారన్నారు	-10.8648
▁అడుగుతున్న	-10.865
▁పశువుల	-10.8653
▁దృశ్యాలు	-10.8654
▁خ	-10.8656
▁సూచనల	-10.8656
రాయి	-10.8658
▁వసూళ్లు	-10.8659
▁పంటల	-10.866
▁ఓవర్లో	-10.8662
గడ్డ	-10.8666
▁వ్యవహారంపై	-10.8667
య్యింది	-10.8669
▁దోమల	-10.8676
కుపైగా	-10.8676
ోల్	-10.8682
ಿಗೆ	-10.8683
▁రాకపోకల	-10.8685
నాథన్	-10.8685
ిస్తున్నాయి	-10.8689
▁రాబోతున్న	-10.8691
▁గుర్తించడం	-10.8692
▁బాండ్	-10.8695
▁వంగ	-10.8697
ండింగ్	-10.8699
▁సిటీలోని	-10.8703
సింది	-10.8708
▁అధ్యక్షుడి	-10.8708
ుతుండటంతో	-10.871
▁మార్చిలో	-10.8714
▁స్టూడెంట్ల	-10.8714
టిన్	-10.8714
▁గ్రామాలు	-10.8716
ଚ	-10.8718
▁دعویٰ	-10.8718
▁ఆర్టిఫిష	-10.8718
▁ఊరేగింపు	-10.8718
▁కమ్యూనికేషన్	-10.8718
▁పర్యవేక్షించ	-10.8718
▁మాఫియా	-10.8718
▁వ్యక్తమవుతున్న	-10.8719
▁నిదర్శనం	-10.8719
▁డ్రై	-10.8719
▁మైక్రో	-10.872
▁ఎన్నికయ్యారు	-10.8721
▁యాక్టర్	-10.8723
▁ఆయనే	-10.8723
71	-10.8723
▁విమానాల	-10.8725
▁పొందవచ్చు	-10.8726
▁ప్రారంభించి	-10.8727
▁&	-10.8727
▁ఎదురైన	-10.8728
ానంటూ	-10.8728
వరకూ	-10.8732
సెట్	-10.8732
▁నీతి	-10.8733
▁నేనే	-10.8735
▁పరిష్కరించాలని	-10.8739
ంపేట	-10.8741
▁భూషణ్	-10.8741
▁డైట్	-10.8743
▁ప్లేట్	-10.8746
ించేందుకు	-10.875
▁కొనసాగింది	-10.875
▁పెరుగుతున్నాయి	-10.8751
▁అన్నం	-10.8751
▁రూపాయలుగా	-10.8753
▁దేవాలయాల	-10.8754
▁పడుతున్నాయి	-10.8758
▁నిమ్మ	-10.8758
ద్వారా	-10.8765
▁గ్రే	-10.8766
ನೆ	-10.8767
▁ముద్ద	-10.8769
▁నేపథ్యంలోనే	-10.8769
▁అవుతారు	-10.877
▁రామచంద్ర	-10.877
▁చెందాడు	-10.8771
మయ్యే	-10.8773
నీరు	-10.8777
▁బెదిరింపు	-10.8779
▁పరిస్థితిలో	-10.8789
ేందర్	-10.8791
ce	-10.8792
▁సినిమాకి	-10.8795
▁బావ	-10.8798
▁ప్రకటించే	-10.8799
▁గచ్చిబౌలి	-10.88
▁ట్విటర్	-10.88
▁క్రేజీ	-10.88
▁మాదాపూర్	-10.88
▁స్టార్టప్	-10.88
▁పరారీలో	-10.88
▁ఫేమ్	-10.88
▁పురస్కార	-10.88
▁ఉక్కు	-10.8801
▁చట్టపరమైన	-10.8801
▁లీగల్	-10.8802
▁మతపరమైన	-10.8802
▁దొరికిన	-10.8802
▁వెళ్తుండగా	-10.8803
▁రాజేశ్వర్	-10.8803
▁జరుగుత	-10.8806
పర్తి	-10.8809
▁శాస్త్రం	-10.8812
▁జాతకులకు	-10.8814
▁తామే	-10.8814
ొచ్చిన	-10.8816
▁కేఎల్	-10.8817
▁గేట్లు	-10.8819
▁కాదన్నారు	-10.882
▁స్పందించింది	-10.8824
▁ఇప్పుడే	-10.883
▁మాసం	-10.8832
▁లాస్	-10.8835
స్తున్నా	-10.8841
▁పోషించారు	-10.8842
▁పెట్టాడు	-10.8845
▁పెరిగ	-10.8848
ప్రతి	-10.8849
▁ఫైన్	-10.8852
▁శుక్ర	-10.8852
▁థా	-10.8853
▁ఇప్పటికైన	-10.8857
▁వెలువడ	-10.8859
▁రైలులో	-10.8862
▁గ్యారెంటీ	-10.8862
▁పదేళ్లు	-10.8871
▁చెరు	-10.8873
▁ఎదురుగా	-10.8877
▁వచ్చేలా	-10.8878
ధీ	-10.8879
ଙ୍କ	-10.8882
▁అత్యుత్తమ	-10.8883
▁అవినాశ్	-10.8883
▁ఆఫ్ఘనిస్తాన్	-10.8883
▁జగదీష్	-10.8883
▁ట్యాంకర్	-10.8883
▁ప్యాసింజర్	-10.8883
▁మాల్దీవుల	-10.8883
▁సంస్కరణల	-10.8883
▁బౌలర్లలో	-10.8884
▁దిగజార	-10.8884
▁కరుణ	-10.8885
▁బాబర్	-10.8886
▁కేడర్	-10.8887
▁పీహెచ్	-10.8887
▁బాధితుడు	-10.8888
▁వేగ	-10.8889
▁తీసుకువచ్చ	-10.889
▁చేరుతున్న	-10.8893
▁క్యాష్	-10.8894
▁మీర	-10.8895
▁విపరీతమైన	-10.8895
▁జోడీ	-10.8895
▁సెటైర్లు	-10.8898
▁మాంసం	-10.8898
▁అంత్యక్రియలు	-10.8899
భాగం	-10.8899
har	-10.8899
▁తట్టుకోలేక	-10.8899
▁చేరుకుంట	-10.8901
▁వచ్చేది	-10.8901
▁తెలుస	-10.8903
▁రుతుపవనాలు	-10.8904
▁పరామర్శించారు	-10.8905
▁ఒడిశాలో	-10.8905
▁చట్టాన్ని	-10.8906
▁ప్రపంచానికి	-10.8906
▁భావించే	-10.8908
▁మార్చ్	-10.8911
▁ఈవీఎంల	-10.8911
గలరు	-10.8912
▁పులుల	-10.8915
వుతోంది	-10.8917
▁నటిస్తున్నారు	-10.8919
▁తెలియజేస్తున్న	-10.8919
▁తెరకెక్కించ	-10.8921
▁ఏఈ	-10.8927
81	-10.8932
▁ری	-10.8941
రాలి	-10.8941
▁చక్ర	-10.8941
దనం	-10.8942
నున్నాడు	-10.8944
▁టీజీ	-10.8946
పోవడానికి	-10.8948
▁కూల్	-10.8951
ಬ್	-10.8956
▁అనూహ్య	-10.8958
ేమో	-10.8959
▁భావోద్వేగ	-10.8963
▁కేటగిరీ	-10.8964
▁తీసుకున్నారని	-10.8964
▁వ్యక్తులను	-10.8965
▁ఆధారిత	-10.8966
▁దీర్ఘకాలిక	-10.8966
▁నిఖిల్	-10.8966
▁మచిలీపట్నం	-10.8966
▁లావణ్య	-10.8966
▁వెల్ఫేర్	-10.8966
▁ధృవీకరించ	-10.8966
▁యాదగిరి	-10.8966
▁ర్యాంకు	-10.8967
▁బోనస్	-10.8967
▁ఛానల్	-10.8967
బిలిటీ	-10.8967
▁క్రీడల	-10.8968
▁పటాన్	-10.8969
▁పల్లవి	-10.8971
▁ఫైల్	-10.8972
▁బెర్	-10.8972
▁ప్రతాప్	-10.8973
▁ద్ర	-10.8975
▁స్వీ	-10.8975
▁సంభవించింది	-10.8975
▁కవితకు	-10.8977
▁వాచ్	-10.8978
▁జరగలేదని	-10.898
▁గౌ	-10.898
▁వానలు	-10.8981
▁ఉద్దేశం	-10.8981
పోతే	-10.8983
▁చెయ్యడానికి	-10.8983
▁తెరిచి	-10.8983
▁ఇచ్చిందని	-10.8985
▁భార్యకు	-10.8988
▁దారుణం	-10.8989
▁వేయాలి	-10.8994
▁తల్లిదండ్రులకు	-10.8997
▁దిల్లీలో	-10.9
▁సంతాపం	-10.9003
▁వాళ్లే	-10.9005
బై	-10.9008
▁పరిశీలించిన	-10.9009
ంచింది	-10.9009
▁అభిమాన	-10.9009
▁కాలేదని	-10.901
▁పేలి	-10.9013
▁అందించింది	-10.9015
▁కారణంతో	-10.9017
▁పరామర్శించ	-10.9017
▁కెమెరాలు	-10.9018
▁కార్యకర్తలను	-10.9019
▁మూవీస్	-10.9025
▁ఉపయోగ	-10.9028
చేసే	-10.9029
▁వ్యవహరించారు	-10.903
▁బీపీ	-10.9031
▁చేపలు	-10.9035
ಗೆ	-10.9036
▁స్టాల్	-10.9036
▁మాట్లాడుతున్నార	-10.9037
▁73	-10.9039
▁అవసరాలకు	-10.9043
నిధి	-10.9048
▁సాంకేతికత	-10.9048
96	-10.905
▁ఫైనల్స్	-10.905
▁అగర్వాల్	-10.905
▁కైవసం	-10.905
▁గోధుమ	-10.905
▁ట్విస్ట్	-10.905
▁చీకటి	-10.905
▁మురళి	-10.905
▁సతీష్	-10.905
▁میڈی	-10.905
▁నరేష్	-10.905
▁తొమ్మిదేళ్ల	-10.905
▁నమూనా	-10.905
▁ట్రావెల్	-10.9051
▁ఏంటని	-10.9051
▁ఉపయోగపడుతుంది	-10.9052
▁జరగబోయే	-10.9052
▁తెలుసుకునేందుకు	-10.9052
వంత్	-10.9053
▁డీఎంకే	-10.9054
▁పాండే	-10.9055
▁తాగితే	-10.9056
▁ఎదుర్కొంట	-10.9057
▁నేర్ప	-10.906
▁లాగా	-10.906
ಯಲ್ಲಿ	-10.906
▁ఇస్తానని	-10.9063
▁పాలి	-10.9064
▁పెరుగుతుందని	-10.9065
▁మేక	-10.9066
▁అందుకున్నారు	-10.9066
▁అలానే	-10.9067
▁విపత్తు	-10.9072
ଡ	-10.9073
▁నియమించింది	-10.9073
▁ఇష్టమైన	-10.9075
ఇండియా	-10.9079
▁జేసీ	-10.9079
▁నానా	-10.9085
జూన్	-10.9089
▁చెన్న	-10.909
దుర్గ	-10.909
▁కూటమిలో	-10.9093
▁ట్రక్కు	-10.9094
▁అవకాశాలను	-10.9095
▁కుడి	-10.9095
ఏపీ	-10.9098
▁ఒకటే	-10.9099
▁ధర్మం	-10.9102
▁విఫల	-10.9103
▁వేతనం	-10.9107
▁ద్వార	-10.9108
▁పోస్టులను	-10.9112
▁దుర్గా	-10.9115
▁కొనసాగుత	-10.9116
▁జరిగినా	-10.9117
▁క్రికెటర్లు	-10.9119
▁సంయుక్త	-10.9119
▁చట్టంలో	-10.9119
▁భూములకు	-10.912
▁తెల	-10.912
▁కార్యక్రమాలకు	-10.9127
▁కొల	-10.9128
కొచ్చి	-10.913
▁ముగియ	-10.913
▁చట్టాలు	-10.9132
▁تصویر	-10.9135
▁తుఫాన్	-10.9135
▁మల్కాజ్	-10.9135
▁రక్తపోటు	-10.9135
▁సూసైడ్	-10.9135
▁సెంటిమెంట్	-10.9135
▁హెచ్చరిస్తున్న	-10.9135
▁పరస్పర	-10.9135
ನಾವು	-10.9135
▁బచ్చన్	-10.9135
▁వార్నర్	-10.9137
▁సమాజ్	-10.9145
▁గ్రహించ	-10.9147
రమ్	-10.9147
▁బస్సుల	-10.9147
▁హార్ట్	-10.9147
▁చేర్చారు	-10.9149
▁గంగుల	-10.915
▁విమానాశ్రయంలో	-10.915
▁ఉండవచ్చు	-10.9151
▁వివాదాలు	-10.9157
▁కుంట	-10.9159
▁నారాయణపేట	-10.9164
▁కల్పించడం	-10.9165
▁చేయించి	-10.9167
▁చెప్పు	-10.9168
▁గే	-10.9171
హర	-10.9171
▁సేన్	-10.9175
us	-10.9176
▁స్నేహం	-10.9176
▁ఫోటోలను	-10.9179
▁గుర్తించింది	-10.9181
▁جان	-10.9181
▁సాధించాడు	-10.9185
మంటూ	-10.9187
▁పెడ	-10.9188
▁వాక్	-10.9188
మధ్య	-10.9195
▁దంపతులకు	-10.9195
ులుగా	-10.9198
కన్నా	-10.9198
▁పరిశోధనలు	-10.92
బాట	-10.9204
▁గారు	-10.9204
పెద్ద	-10.9206
▁చిక్కు	-10.9207
▁చెందుతున్న	-10.9207
▁శరీరంలోని	-10.9213
▁అవార్డుల	-10.9214
▁కావు	-10.9215
▁వేధింపులకు	-10.9216
ొద్ద	-10.9218
▁ఎగుర	-10.9218
▁ఆశ్చర్యం	-10.9218
▁Play	-10.922
▁అనుమానాస్పద	-10.922
▁అఫిడవిట్	-10.922
▁అరాచక	-10.922
▁క్యాంపస్	-10.922
▁చాక్లెట్	-10.922
▁బంజారాహిల్స్	-10.922
▁యశస్వి	-10.922
▁వినూత్న	-10.922
▁సారథ్యంలో	-10.922
▁అభ్యర్ధి	-10.922
▁వెంచర్	-10.9221
▁ధాటి	-10.9221
ాధికారి	-10.9221
▁రాయబార	-10.9221
▁విశ్లేషకులు	-10.9221
▁శ్రీలీల	-10.9221
▁అందుకోసం	-10.9221
▁వెళితే	-10.9222
▁డబ్ల్యూ	-10.9222
▁జోడో	-10.9224
▁బతక	-10.9224
▁బుధుడు	-10.9224
▁సరుకు	-10.9224
▁ఏర్పడుతుంది	-10.9224
▁గుంపు	-10.9224
▁ఆకట్టుకునే	-10.9224
▁గ్యాప్	-10.9226
▁వచ్చేసింది	-10.9227
▁తగ్గిస్తుంది	-10.9228
▁నేర్చుకున్న	-10.9229
▁దీపక్	-10.923
ుకోవాల	-10.9234
▁మారారు	-10.9236
▁కూలీ	-10.9236
▁శరీరాన్ని	-10.9238
lso	-10.9242
▁తీసుకుంటూ	-10.9243
▁మారుతున్నాయి	-10.9244
▁మాధవ	-10.9245
▁ఆలయాల	-10.925
▁విని	-10.9251
▁ఏవీ	-10.9254
▁డీప్	-10.9256
▁కలిసే	-10.9258
▁మర్	-10.9259
ుందన్నారు	-10.9259
▁అందుకుంది	-10.9262
▁గడి	-10.9262
ka	-10.9264
ింటి	-10.9266
▁తుల	-10.9266
▁పాత్రల్లో	-10.9267
▁రహదారుల	-10.9267
69	-10.9268
▁కెమెరాల	-10.9269
▁నిర్మలా	-10.9269
▁దర్శన	-10.9269
▁దృష్టిని	-10.927
▁ఫైట్	-10.9273
83	-10.9275
▁స్వీట్	-10.9277
▁డ్రగ్	-10.9277
ోళ్లు	-10.9278
▁సేపు	-10.9282
▁పక్కకు	-10.9286
దైన	-10.929
نا	-10.9292
ద్దాం	-10.9298
▁పడగొట్ట	-10.9303
▁ఖాయమ	-10.9304
చ్ఛ	-10.9304
వారే	-10.9306
▁ఉన్నానని	-10.9306
▁పిటిషనర్	-10.9307
▁భౌతిక	-10.9307
▁ఆవిష్కరణ	-10.9307
▁గణనీయంగా	-10.9307
▁ప్రక్షాళన	-10.9307
▁బ్యాంకింగ్	-10.9307
▁సిటిజన్	-10.9307
▁హాలీవుడ్	-10.9307
▁క్రీజులో	-10.9307
▁ପ୍ର	-10.9307
▁నియామక	-10.9307
▁మాణిక్	-10.9307
▁ట్రిపుల్	-10.9307
▁సాధ్యమ	-10.9307
▁రాక్షస	-10.9307
▁మైనార్టీ	-10.9307
▁దుమ్ము	-10.9308
▁పనిచేశా	-10.9308
▁జరిగిందో	-10.9308
▁న్యూఢిల్లీః	-10.931
▁చేసేటప్పుడు	-10.9312
▁పాల్గొనే	-10.9313
▁ప్రభావాన్ని	-10.9314
▁నోట్లను	-10.9315
▁ఛా	-10.9317
▁తగినంత	-10.9318
▁నొక్క	-10.9319
▁కొమ్మ	-10.932
▁ముస్లింలు	-10.932
▁విద్యుత్తు	-10.9322
▁సిఎం	-10.9323
▁అగ్నిప్రమాదం	-10.9324
▁విధ్వంసం	-10.9324
▁అంగన్	-10.9326
▁చేయలే	-10.9326
▁పటిష్ట	-10.9327
▁ఖాతాల	-10.9328
▁ہ	-10.933
▁కర్నాటకలో	-10.9331
▁నెటిజన్స్	-10.9332
▁కొనుగోళ్లు	-10.9332
▁అనుకున్నా	-10.9333
▁కూడ	-10.9334
▁తీర్థ	-10.9335
▁వంటకాల	-10.9335
మేరకు	-10.9335
▁ఫొటోలను	-10.9337
▁చెరువులు	-10.9341
▁పదవిని	-10.9343
దాని	-10.9345
నార్	-10.9346
▁చిత్రాలు	-10.9347
▁గౌడ	-10.9348
ିତ	-10.935
▁స్నేహ	-10.935
▁పెన్	-10.9354
▁జంటగా	-10.9355
▁బాల్క	-10.9356
సేపు	-10.9356
▁గానూ	-10.936
▁కొద్దిగా	-10.9361
▁నిరాకరించ	-10.9365
▁ఆరోజు	-10.9368
▁క్రమ	-10.9371
▁పుట్టుక	-10.9373
▁నాయకుడి	-10.9379
▁తీసుకురావ	-10.9381
▁సర్వేలు	-10.9382
▁రాజ్యసభలో	-10.9383
యాక్	-10.9386
పడే	-10.9388
▁హామీని	-10.9389
▁పురుషులకు	-10.939
▁అర్థరాత్రి	-10.9394
▁కొలెస్ట్రాల్	-10.9394
▁టాయిలెట్	-10.9394
▁ప్రిన్సిపాల్	-10.9394
▁స్టూడియో	-10.9394
▁ఇటలీ	-10.9394
▁విరుచుకుపడ్డారు	-10.9394
▁వ్యర్థాల	-10.9394
▁కుంభరాశి	-10.9394
▁అద్దం	-10.9394
▁ఉగాది	-10.9394
▁థర్డ్	-10.9395
▁ఎదురైంది	-10.9395
▁హారిస్	-10.9395
▁వెనుకబడిన	-10.9395
▁వీధుల్లో	-10.9396
▁చేస్తుంటే	-10.9396
▁చేరుకుంటుంది	-10.9397
▁చూడొచ్చు	-10.9399
▁కొనసాగుతుందని	-10.9399
▁గ్రేడ్	-10.94
▁నోటు	-10.9401
▁ವಿ	-10.9401
▁సంప్రదాయం	-10.9404
▁దినోత్సవ	-10.9406
▁ఉత్తర్	-10.9407
▁వాహనదారులు	-10.9411
▁షేర్లు	-10.9413
▁కరి	-10.9417
▁చేస్తారా	-10.9417
▁రూపాయలను	-10.9424
▁స్కూళ్లలో	-10.9431
ొక	-10.9438
▁పట్టాల	-10.9443
▁చేరేందుకు	-10.9445
నున్నట్టు	-10.9447
డై	-10.945
▁67	-10.9451
▁హిందువులు	-10.9452
▁మైదాన	-10.9453
▁సంఖ్యను	-10.9453
టిక్స్	-10.9455
▁కోల్పో	-10.9455
▁వ్యాఖ్య	-10.9458
▁వాలంటీర్లు	-10.9458
▁మునిగిపోయ	-10.9458
▁సౌకర్య	-10.9464
▁ధరలను	-10.9468
▁నిజమ	-10.9468
▁డీసీ	-10.9469
▁ఢీకొట్ట	-10.9472
▁కుప్పకూల	-10.9473
▁వీరిని	-10.9479
▁విగ్రహ	-10.9481
witter	-10.9481
▁అకస్మాత్తుగా	-10.9481
▁జేఏసీ	-10.9481
▁డెంగ్యూ	-10.9481
▁పునరావాస	-10.9481
▁మహీంద్రా	-10.9481
▁జైస్వాల్	-10.9481
▁రాజయోగం	-10.9481
▁ఎప్పుడైనా	-10.9483
▁తాళం	-10.9483
▁వహిస్తున్న	-10.9483
▁పదేపద	-10.9484
▁దగ్గు	-10.9485
▁వెళ్లకుండా	-10.9486
▁విషయాల్లో	-10.9488
▁పుట్టి	-10.9488
▁రాధా	-10.9489
▁లేదన్న	-10.9491
▁ప్రసంగించారు	-10.9491
▁డీల్	-10.9492
▁ప్రాణం	-10.9492
▁పీపుల్స్	-10.9492
పాలు	-10.9492
ತಿ	-10.9495
▁అమెరికాకు	-10.9495
▁పోర్టులో	-10.9496
▁తులసి	-10.9498
మణి	-10.9499
▁పరీక్షలకు	-10.9499
▁పూన	-10.9499
▁నిలకడగా	-10.95
ವಿ	-10.9501
▁కనిపించలేదు	-10.9506
మాల్	-10.9508
▁సీడ్	-10.9508
ఈడీ	-10.9508
▁తేమ	-10.9509
▁تو	-10.951
మరణ	-10.9511
▁సైడ్	-10.9511
+	-10.9513
▁శైలి	-10.9521
▁76	-10.9521
▁పైసలు	-10.9524
▁హార్	-10.9524
▁వదులు	-10.9525
▁సంచలనంగా	-10.9526
▁వ్యూహాలు	-10.9526
బల్	-10.9527
▁తీసుకోవాల్సిన	-10.9528
▁పర్యవేక్షణ	-10.953
▁జైన్	-10.9532
చేసింది	-10.9533
▁తోటి	-10.9535
▁తేలి	-10.9536
▁నడుప	-10.9537
▁మచ్చ	-10.9542
▁కిమ్	-10.9545
▁చిత్తు	-10.9546
▁సగటున	-10.9551
▁ఉందన్న	-10.9553
▁పబ్	-10.9555
▁తరలించి	-10.9556
98	-10.9556
▁డార్	-10.9559
▁ఎల్లో	-10.956
ేండ్ల	-10.9564
లేరని	-10.9568
మైనది	-10.9569
ish	-10.9569
▁అచ్చెన్నాయుడు	-10.957
▁కాన్సెప్ట్	-10.957
▁గెలుచుకుంది	-10.957
▁ప్రీమియం	-10.957
▁వృథా	-10.957
▁వృశ్చిక	-10.957
▁శ్వేత	-10.957
▁డ్రైనేజీ	-10.957
▁తమిళిసై	-10.957
▁బ్రాంచ్	-10.957
▁పిలిచే	-10.957
▁వినాయకుడి	-10.957
▁పేర్ని	-10.9572
▁సమయాల్లో	-10.9572
▁దెబ్బతిన	-10.9574
▁ఉందంటూ	-10.9574
▁ఎంపీటీసీ	-10.9575
▁ఉంటానని	-10.958
▁బ్లడ్	-10.9581
▁సహకరించాలని	-10.9583
▁అబద్ధాలు	-10.9583
▁సీబీ	-10.9588
▁ర్యాలీలో	-10.9588
▁వేస్తూ	-10.9592
▁మందిరం	-10.9593
▁పొర	-10.9593
▁దుమారం	-10.9595
లతోపాటు	-10.9599
▁పుస్తకాలు	-10.9599
ଗ	-10.9602
▁అరు	-10.9603
▁బండ్ల	-10.9609
▁ब	-10.9615
మియా	-10.9619
▁ٹ	-10.9619
చిన్న	-10.9621
▁గణేశ్	-10.9622
హే	-10.9623
▁దాచ	-10.9626
▁విజయానికి	-10.9627
▁విశ్వవిద్యాలయం	-10.9628
▁తీసుకున్నా	-10.9628
రకాల	-10.9632
▁అందమైన	-10.9632
జయ	-10.9635
▁ఆంధ్రా	-10.9636
▁నిమిషంలో	-10.9637
షే	-10.9638
▁తెలియకుండా	-10.964
▁వహించిన	-10.9642
▁విషయాలపై	-10.9643
▁ధ్య	-10.9643
▁దోష	-10.9645
▁దయ	-10.965
▁బ్రా	-10.965
▁కలిశా	-10.9653
▁వల్లనే	-10.9657
▁పీఏ	-10.9657
▁ఎంక్వైరీ	-10.9659
▁కాంబినేషన్	-10.9659
▁కాన్వాయ్	-10.9659
▁దళితబంధు	-10.9659
▁రికవరీ	-10.9659
▁విలేకరుల	-10.9659
▁ఐశ్వర్య	-10.9659
▁తమ్ముడు	-10.9659
▁ఉల్లిపాయ	-10.9659
▁యాక్సిడెంట్	-10.9659
▁ఆటగాడు	-10.9659
▁اپن	-10.9659
▁చౌహాన్	-10.9659
▁అల్లూరి	-10.966
▁کرتے	-10.966
▁కోట్లాది	-10.966
▁కరువు	-10.966
▁నర్సాపూర్	-10.966
▁విశాల్	-10.9661
▁దశాబ్దాలుగా	-10.9662
▁శ్రీను	-10.9663
▁అనుకుంటే	-10.9664
▁సీతా	-10.9668
▁లావాదేవీల	-10.967
షియ	-10.9671
▁స్పందించలేదు	-10.9672
▁బీచ్	-10.9672
▁ప్రారంభించనున్న	-10.9673
మేం	-10.9675
▁అత్యాచార	-10.9678
▁సుందర్	-10.9682
▁అవుతారని	-10.9682
et	-10.9683
▁61	-10.9683
▁కాలేజీల	-10.9685
91	-10.9685
▁కింది	-10.9691
▁అక్కడున్న	-10.9693
▁సమీక్షించ	-10.9694
▁శత	-10.9695
▁జస్	-10.9698
ಿಸಿ	-10.9699
స్తున్నారని	-10.97
▁విస్తృతం	-10.9702
▁హక్కులు	-10.9709
▁వస్త్ర	-10.971
▁భేటీలో	-10.9711
vi	-10.9712
▁సీతారామ	-10.9718
సీసీ	-10.972
▁కల్పిస్తున్న	-10.9726
▁రాజేశ్	-10.9726
ంతర్	-10.9726
▁పట్టింది	-10.9727
▁నిప్పు	-10.9729
▁పెద	-10.973
▁మార్చడం	-10.9732
▁భారతదేశంలోని	-10.9733
▁و	-10.9735
▁తరుగు	-10.9735
▁విడ	-10.9742
▁గాంధీకి	-10.9744
▁కదిల	-10.9745
▁కేశినేని	-10.9749
▁ఆరెంజ్	-10.9749
▁పంచాయితీ	-10.9749
▁కురిసింది	-10.9749
▁సరదాగా	-10.9749
▁ఉభయ	-10.9749
▁కోరుట్ల	-10.9749
▁ప్రైజ్	-10.9749
▁చెప్పుకొచ్చాడు	-10.9749
▁ప్రజాపాలన	-10.9749
▁के	-10.975
▁ఉద్యమకారుల	-10.975
▁వెర్షన్	-10.975
▁బసవరాజ	-10.9751
ీహార్	-10.9751
▁పెరుగుతూ	-10.9752
▁రికార్డుల	-10.9752
సెంట్	-10.9752
▁శుక్రుడు	-10.9752
▁నచ్చిన	-10.9753
▁అనుసరించి	-10.9753
▁ఆడే	-10.9754
ండ్లు	-10.9757
▁థియేటర్స్	-10.9757
ుద్దీన్	-10.9758
ాలనేది	-10.9758
▁71	-10.9759
▁గుంత	-10.9764
▁గుణ	-10.9767
▁షాపులు	-10.9772
▁వ్యయం	-10.9772
▁68	-10.9774
▁పిక్	-10.9775
▁సూచి	-10.9776
▁మధుమేహం	-10.9776
▁అంతటా	-10.9777
▁వారానికి	-10.978
▁కనిపించకుండా	-10.9781
▁మీరే	-10.9782
▁కడుపులో	-10.9782
గ్గు	-10.9785
మెయిల్	-10.9785
గుండ	-10.9787
▁విదేశాల	-10.9789
▁నదుల	-10.9795
▁ఆశా	-10.9797
▁నదీ	-10.9799
▁నివసిస్తున్న	-10.98
వీర్	-10.9801
▁సాగిన	-10.9807
▁కంప	-10.9807
▁అక్రమాలు	-10.9809
▁ఆకర్ష	-10.9811
▁చల్	-10.9814
▁ఖమ్మంలో	-10.9817
▁తడిసి	-10.982
ుకుంటుంది	-10.9821
▁వేలంలో	-10.9822
▁ఎర్	-10.9824
హై	-10.9825
▁కూర్చో	-10.9829
▁నక్షత్రం	-10.9833
▁ఆలోచనలో	-10.9833
చర్ల	-10.9835
▁పెట్టుకో	-10.9838
▁వివేకానంద	-10.9839
▁ప్రజలతో	-10.9839
▁పోలీసులతో	-10.9839
▁ఒంగోలు	-10.984
▁పొదుపు	-10.984
▁రిపబ్లిక్	-10.984
▁సరికాదని	-10.984
▁ఏటీఎం	-10.984
▁కిటికీ	-10.984
▁రాదు	-10.984
▁పువ్వు	-10.984
▁ముంచ	-10.9841
▁వణికి	-10.9841
▁ఫ్యాక్ట్	-10.9841
▁లోతట్టు	-10.9841
▁శ్రేయస్సు	-10.9841
▁రంగనాథ్	-10.9842
▁చిక్కుకుపోయ	-10.9844
▁పరిశీలిస్త	-10.9844
▁పోరాడుతున్న	-10.9844
▁అంచనాలను	-10.9844
▁పెరిగిందని	-10.9847
ేవారని	-10.985
ుకునేలా	-10.9851
కోట్లు	-10.9852
▁చెబుతున్నా	-10.9852
▁పిచ్చి	-10.9853
▁క్రమం	-10.9853
▁అయ్యాక	-10.9856
▁యంలో	-10.9857
▁ఇటీవలి	-10.9857
క్టర్	-10.9858
సార్	-10.9861
▁అందుతున్న	-10.9863
ొస్త	-10.9865
▁ఉందనే	-10.9869
▁బయటపడింది	-10.9869
▁స్వీకరించిన	-10.987
▁అనడం	-10.9872
▁నామినేషన్లు	-10.9873
▁రాని	-10.9873
▁డీఆర్	-10.9874
▁భో	-10.9878
▁నిలిచ	-10.9878
▁అరబ్	-10.988
کر	-10.9884
el	-10.9884
▁కామన్	-10.9892
▁కల్పించే	-10.9893
▁కొందరికి	-10.9893
బోతున్నట్లు	-10.9896
▁95	-10.9898
▁స్థాపించ	-10.9898
▁డీఎస్	-10.9899
▁ప్రవాహం	-10.9903
▁ఆదేశాలతో	-10.9908
▁శోభ	-10.9912
▁మోహ	-10.9912
▁చూపించి	-10.9913
▁యాత్రలో	-10.9914
▁పెళ్ల	-10.9914
ఆర్ఎస్	-10.9915
▁ఆశిస్తున్న	-10.9918
▁రకం	-10.9919
▁టీఎంసీల	-10.9923
వాడి	-10.9931
دہ	-10.9931
▁యూనివర్శిటీ	-10.9932
▁కన్వెన్షన్	-10.9932
▁క్యాలెండర్	-10.9932
▁దిగుమతి	-10.9932
▁పేరెంట్స్	-10.9932
▁మిధున	-10.9932
▁నిరంజన్	-10.9932
▁పాపులర్	-10.9932
▁है	-10.9932
▁ప్రకారమే	-10.9932
▁బురద	-10.9932
▁రజినీకాంత్	-10.9932
▁వైమానిక	-10.9932
▁వీక్షించ	-10.9933
▁బోర్డర్	-10.9933
▁బ్యాలెన్స్	-10.9934
▁నటిస్తోంది	-10.9934
▁ఒకరికి	-10.9934
▁ముఖేష్	-10.9934
▁ఆర్బీఐ	-10.9935
▁వేస్తోంది	-10.9937
▁బెల్ట్	-10.994
▁పిల్లల్ని	-10.9941
▁మందుల	-10.9944
▁మొదలవ	-10.9946
్రు	-10.995
▁ఆస్తులను	-10.9952
▁దుకాణం	-10.9953
▁అమ్మాయిల	-10.9954
▁దక్కలేదు	-10.9956
▁ఎడ్	-10.9956
క్వా	-10.9959
మహా	-10.9961
▁కుటుంబసభ్యులు	-10.9963
▁మూత	-10.9963
▁మత్తు	-10.9964
▁తెచ్చింది	-10.9964
మున్న	-10.9965
▁గుంట	-10.9975
చ్చా	-10.9979
▁పౌరులు	-10.9979
ta	-10.998
▁కోర్సు	-10.998
వలసిన	-10.9983
▁దరఖాస్తుల	-10.9985
▁తీసుకోవాల	-10.9989
▁కుంభకోణం	-10.9989
టప్పుడు	-10.999
▁లబ్ధిదారులకు	-10.9991
నాథ	-10.9991
▁విధానాలు	-10.9991
▁లేచి	-10.9992
▁బకాయిలు	-10.9994
▁సామ్	-10.9999
▁విపత్తుల	-11.0001
▁బీరు	-11.0008
ఇన్	-11.0011
▁లోగో	-11.0013
▁హాస్పిటల్స్	-11.0018
▁గ్యా	-11.0019
▁రైల్	-11.0021
چھ	-11.0024
▁ఎంపీడీవో	-11.0024
▁కృత్రిమ	-11.0024
▁నిర్దిష్ట	-11.0024
▁నెదర్లాండ్స్	-11.0024
▁ఫ్లిక్స్	-11.0024
▁భూగర్భ	-11.0024
▁సక్రమంగా	-11.0024
▁సుదర్శన్	-11.0024
▁సెలబ్రిటీ	-11.0024
▁హార్మోన్	-11.0024
▁دکھا	-11.0024
▁సెన్సార్	-11.0024
▁కోదాడ	-11.0024
▁ఫేజ్	-11.0025
▁సమకూర్చ	-11.0025
▁పతాక	-11.0026
▁సిగ్గు	-11.0027
▁అవకాశాల	-11.0029
ల్లె	-11.003
▁రిటైల్	-11.0031
ేపల్లి	-11.0033
▁అనూహ్యంగా	-11.0034
▁w	-11.0037
డన్	-11.0039
▁c	-11.0039
▁2010	-11.0041
▁మహిళకు	-11.0041
▁పాఠశాలలు	-11.0041
▁కట్టబెట్ట	-11.0041
▁అనుకూలమైన	-11.0042
▁పొలాల	-11.0043
▁లాంగ్	-11.0043
ాన్నే	-11.0046
ನ್ನ	-11.0047
మవుతోంది	-11.005
▁నిర్లక్ష్యంగా	-11.0051
▁దిక్కు	-11.0052
▁ఉపయోగిస్తున్న	-11.0055
▁దిగ్గజం	-11.0056
▁प	-11.0057
టిల్	-11.0057
▁వేయడానికి	-11.0059
▁శాంత	-11.0059
▁ఉంటాడు	-11.0059
▁కానుకగా	-11.0061
▁69	-11.0061
।	-11.0062
▁ఉండాల్సిన	-11.0066
ంటాయి	-11.0067
▁జనసేనకు	-11.0069
▁بی	-11.0073
▁దాన	-11.0073
స్తుంద	-11.0073
ిస్తాం	-11.0073
▁కొనసాగుతూ	-11.0075
▁-2	-11.0076
పేటలో	-11.0081
పూజ	-11.0081
పరిచే	-11.0083
▁ఫీ	-11.0083
నగర	-11.0085
▁ప్రసాద	-11.0087
▁న్నారు	-11.0088
▁నష్టపో	-11.009
▁సంబ	-11.009
▁చేయగలిగ	-11.0098
▁పక్ష	-11.0099
▁వినియోగ	-11.0102
▁చేస్తుంద	-11.0104
▁మోదీని	-11.0106
▁పాయ	-11.0106
▁కొట్టే	-11.0107
▁ఘర్షణలు	-11.0111
▁తెరవ	-11.0112
▁సంభ	-11.0113
▁ఓయూ	-11.0118
▁లగ్జరీ	-11.0118
▁హుస్నాబాద్	-11.0118
▁చైన్	-11.0118
▁కొడంగల్	-11.0118
▁నైతిక	-11.0118
▁లక్ష్మీనారాయణ	-11.0119
▁వెలికి	-11.0119
పడింది	-11.0119
▁ప్రజావాణి	-11.0119
▁శ్రీనివాసరెడ్డి	-11.012
▁తీసుకున్నాడు	-11.0121
▁కంచె	-11.0121
nd	-11.0122
▁రేటింగ్	-11.0122
▁నాగరాజు	-11.0122
▁జోగి	-11.0127
▁ఇంటింటి	-11.0128
▁నిజమే	-11.0129
▁ବ	-11.013
▁రికార్డ్స్	-11.0131
▁మరొకటి	-11.0131
▁షూట్	-11.0132
▁అల్లా	-11.0132
▁జెట్	-11.0133
▁కావ్య	-11.0134
▁ఉంచడం	-11.0134
▁ఆర్ట్స్	-11.0135
▁మాట్లాడితే	-11.0135
ధం	-11.0136
▁@	-11.0136
▁కారణమైన	-11.0142
▁పాదాల	-11.0145
▁దశాబ్ది	-11.0147
▁అవ్వడం	-11.0149
▁అదుపులో	-11.0151
న్నారని	-11.0152
▁పేజీ	-11.0153
▁ఉండేవారు	-11.0155
▁వ్యవస్థలో	-11.0156
▁వాసన	-11.0156
▁తగ్గించి	-11.0156
జనసేన	-11.0157
▁వినిపించారు	-11.0157
ti	-11.0157
▁పిఠాపురంలో	-11.016
సింహ	-11.0164
లేనని	-11.0164
▁ఫిర్యాదులో	-11.0165
ap	-11.0167
వికెట్	-11.0168
ప్రతిష్టాత్మకంగా	-11.0169
▁రిపేర్	-11.017
లాగే	-11.0171
▁తగ్గుత	-11.0171
▁ఆకట్టుకుంట	-11.0174
షియన్	-11.0177
▁షోలో	-11.0182
▁టైన్	-11.0182
▁మొక్కల	-11.0194
▁మత్తులో	-11.0197
▁108	-11.0201
▁సాహ	-11.0205
▁అరికట్ట	-11.0207
▁వేధిస్తున్న	-11.0208
క్యు	-11.0209
▁म	-11.021
▁సాధిస్తుంద	-11.0212
▁పుంగనూరు	-11.0212
▁మిలిటెంట్	-11.0212
▁హోరాహోరీ	-11.0212
▁ఎల్లారెడ్డి	-11.0212
▁దైవ	-11.0213
▁రామ్మోహన్	-11.0213
▁డ్రెస్	-11.0213
▁రాజేంద్రనగర్	-11.0213
▁సవరించ	-11.0214
اہ	-11.0215
▁సీరియల్	-11.0215
ಗಳು	-11.0215
▁ల్యాప్	-11.0215
▁కుట్రలు	-11.0215
▁సెలక్ట	-11.0216
▁స్టూడెంట్లు	-11.0219
▁సిమెంట్	-11.0223
▁ఎమ్మెల్సీలు	-11.0225
▁వ్యవహార	-11.0225
▁ప్రదేశంలో	-11.0226
▁కురుస్తున్నాయి	-11.0227
▁నగదును	-11.0228
దగ్గ	-11.0229
▁వాదించారు	-11.0229
▁మూర్తి	-11.0229
ినేని	-11.023
▁మోత	-11.0231
▁సంస్థల్లో	-11.0234
▁మాదిరిగానే	-11.0235
▁వేసేందుకు	-11.0236
దేశం	-11.0237
▁ఫాల్	-11.0238
▁అడవుల	-11.0239
▁వెలిగించ	-11.0239
దురు	-11.0241
▁విత్తనాలు	-11.0241
▁ప్రియ	-11.0242
▁శరణ	-11.0244
▁ఆయుధాలు	-11.0245
▁వృద్ధులు	-11.0245
▁జనసేనాని	-11.0246
▁నిన్నటి	-11.0248
▁పేదరికం	-11.025
▁వ్యూహ	-11.0251
▁పొందింది	-11.0256
▁ప్రేక్షకులకు	-11.0256
▁రాయల్స్	-11.0265
▁ఛార్జీలు	-11.0266
▁మించిన	-11.0267
▁పట్నం	-11.0267
▁చేపల	-11.0268
▁నియామకాల	-11.0269
▁నిర్వాసితుల	-11.0269
▁అందించాడు	-11.0273
▁సిబ్బందితో	-11.0273
▁వాసుల	-11.0273
▁వృద్ధుల	-11.0274
▁దిగ్గజ	-11.0275
▁నేతలపై	-11.0276
కోటి	-11.0276
▁రానున్నారు	-11.0277
▁సమావేశమై	-11.0277
▁సిద్ధాంత	-11.0279
▁విశ్లేషించ	-11.028
▁ఎక్కడికి	-11.028
▁లేరని	-11.0281
▁సాహస	-11.0285
▁సూచించిన	-11.0286
▁పనిచేయడం	-11.0286
▁మరిచిపో	-11.0287
▁చూపిస్తున్న	-11.0289
ంచో	-11.029
▁స్కూల్స్	-11.029
▁గణన	-11.0291
▁లభించే	-11.0293
89	-11.0295
పురి	-11.03
▁దగ్గర్లో	-11.03
▁తెలుసుకుంట	-11.0302
లూరు	-11.0305
▁రిటైర్	-11.0305
▁ఫెస్టివల్	-11.0308
▁ఫైనాన్షియల్	-11.0308
▁ఫ్రెంచ్	-11.0308
▁యువగళం	-11.0308
▁విభజించ	-11.0308
▁జాప్యం	-11.0308
▁దత్తత	-11.0308
▁అడ్రస్	-11.0308
▁మొహమ్మద్	-11.0308
▁సెకన్ల	-11.0308
▁హోటళ్ల	-11.0308
▁విషయంలోనూ	-11.0308
▁వర్గీకరణ	-11.0308
▁సందేశం	-11.0309
▁పూర్తయ్యే	-11.0309
▁ఉనికి	-11.0309
▁సూర్యకుమార్	-11.0309
▁గరుడ	-11.0311
▁మహాలక్ష్మి	-11.0311
▁చూడటానికి	-11.0312
▁దూసుకు	-11.0312
▁నిలిచిపోయాయి	-11.0313
▁అయిందని	-11.0314
▁శివరాజ్	-11.0315
▁ఢీకొట్టింది	-11.0315
▁ఇతరులు	-11.0316
▁స్థిరంగా	-11.0316
▁లభిస్తాయి	-11.0317
▁కట్టడాల	-11.0318
▁1000	-11.032
▁పోవ	-11.0321
▁పాలిత	-11.0325
ಡ್	-11.0325
▁కాయ	-11.0327
▁కావడానికి	-11.0328
▁పక్షం	-11.0328
-4	-11.0328
లపల్లి	-11.033
▁వ్యాపారంలో	-11.033
ాడనే	-11.0335
▁గుడ్డు	-11.0335
▁తెలుసుకోవాల	-11.0336
نی	-11.0337
▁కోరుకుంటున్నారు	-11.0339
▁ఓడిపోయిన	-11.0341
▁రాజ్యాంగాన్ని	-11.0342
▁బన్నీ	-11.0343
▁నోట్లు	-11.0343
▁దేశంగా	-11.0345
ara	-11.0349
▁హోదాలో	-11.0351
▁పుస్తకం	-11.0352
▁దోచుకున్న	-11.0354
▁తీసుకురావడం	-11.0355
▁అందుకో	-11.0355
▁చెర	-11.0357
▁సుంక	-11.0358
▁78	-11.036
ాల్సిందేనని	-11.0361
▁తలుపు	-11.0362
▁పవిత్రమైన	-11.0363
వేళ	-11.0365
▁పేషెంట్	-11.0367
▁కోస్తా	-11.0368
▁టెస్టులు	-11.0368
▁కొట్టడం	-11.0368
▁మాస	-11.0369
84	-11.0369
▁దేశ్	-11.0371
▁నిండి	-11.0372
▁లేద	-11.0372
▁గ్రామస్తుల	-11.0372
▁ప్రయత్నంలో	-11.0373
లేదా	-11.0376
▁తొలగి	-11.0377
స్తుంటే	-11.0378
▁విహార	-11.0379
▁నివారించ	-11.0392
▁ఆగస్టులో	-11.0394
▁వ్యక్త	-11.0394
▁డీసీఎం	-11.0395
▁మెజారిటీతో	-11.0395
▁వెనుదిరిగ	-11.0404
ଛନ୍ତି	-11.0404
▁గైక్వాడ్	-11.0404
▁మొట్టమొదటి	-11.0404
▁లెబనాన్	-11.0404
▁దిగ్భ్రాంతి	-11.0404
▁మహమ్మారి	-11.0404
▁యూఏఈ	-11.0404
▁డెయిరీ	-11.0404
▁అదిరిపోయే	-11.0404
▁బాలాజీ	-11.0404
▁స్టేటస్	-11.0404
▁బద్దలు	-11.0404
▁సూరత్	-11.0404
▁బాధితురాలు	-11.0404
▁తొలగింపు	-11.0404
▁అశ్వ	-11.0404
▁విప్లవ	-11.0405
▁భీం	-11.0405
▁ఆకర్షణ	-11.0406
▁జాక్	-11.0408
▁వాడుతున్న	-11.0409
▁మార్గాల్లో	-11.041
ద్దా	-11.0412
▁చేశారో	-11.0413
▁ఈజీగా	-11.0414
▁కలుగుతాయి	-11.0414
▁తాత్కాలికంగా	-11.0417
లాపూర్	-11.0419
▁దహనం	-11.0421
▁షెడ్	-11.0422
▁ఓడిపోత	-11.0422
▁డు	-11.0426
▁సంఘటనా	-11.0428
▁పొత్తుల	-11.0429
▁వస్తారని	-11.0429
▁దశాబ్ద	-11.0431
▁ఒప్ప	-11.0431
▁కల్పించేందుకు	-11.0431
▁కుమార	-11.044
తున్నారు	-11.0441
▁గాయపడ	-11.0443
▁1.5	-11.0444
▁ఒకవైపు	-11.0444
▁రావటం	-11.0447
▁తప్పదు	-11.0448
▁చెలరేగ	-11.045
▁తల్లిని	-11.0451
ుతోన్న	-11.0452
▁దాల్చ	-11.0452
చూప	-11.0453
▁మారడంతో	-11.0454
▁బోట్	-11.0454
▁పోస్టులకు	-11.0457
▁గెలవడం	-11.0458
▁బ్యాట్	-11.0458
▁ఏక్	-11.0458
▁పాత్రను	-11.0459
▁ఐదేళ్లలో	-11.0463
ించడానికి	-11.0465
▁నిండిన	-11.0469
సేన	-11.047
▁చిన్నారులు	-11.0471
▁మూవీకి	-11.0471
▁పొత్తులో	-11.0471
▁గౌరవించ	-11.0472
వలసి	-11.0473
می	-11.0473
▁శాత	-11.0473
ించారని	-11.0477
▁నెలా	-11.0477
పరిచి	-11.0478
▁పరుగులతో	-11.0481
▁విక్రయ	-11.0481
ನಿ	-11.0482
▁తెరిచ	-11.0486
▁అలాంటిది	-11.0486
ରୁ	-11.0486
▁కురవ	-11.0488
▁వస్తా	-11.0492
న్నాడు	-11.0493
ార్థం	-11.0497
▁మురళీ	-11.0501
‭	-11.0501
▁డొనాల్డ్	-11.0501
▁ద్రౌపది	-11.0501
▁బెంగుళూరు	-11.0501
▁మనీలాండరింగ్	-11.0501
▁హౌజ్	-11.0501
▁ప్రైమ్	-11.0501
▁అభ్యర్ది	-11.0501
▁pic	-11.0501
▁ఇంఛార్జ	-11.0501
▁ప్రసన్న	-11.0501
▁సభా	-11.0502
▁తగ్గింపు	-11.0503
▁రామారావు	-11.0504
▁నమ్ముతారు	-11.0506
▁వాపోయారు	-11.0506
▁జోషి	-11.0506
▁తల్లికి	-11.0506
▁అమ్మకాల	-11.0508
▁మెరుగుపడ	-11.0509
▁బాధితులను	-11.0509
ళ్లలో	-11.0511
▁వస్తోన్న	-11.0511
▁చిత్రీకరించ	-11.0512
▁సంతకాలు	-11.0512
ంచుకున్న	-11.0517
▁గల్లంత	-11.0521
▁ఆదాయాన్ని	-11.0521
▁తీసింది	-11.0526
▁పాల్పడ్డారు	-11.0528
▁నీకు	-11.053
షియల్	-11.0531
▁డాన్స్	-11.0534
▁యో	-11.0534
▁మూవీని	-11.0535
▁ప్రధానిగా	-11.0536
▁వెచ్చించ	-11.0536
▁విజయాలను	-11.0538
▁భూమిపై	-11.0539
▁వెళ్లాల్సి	-11.0539
ానిక	-11.0539
▁టైమ్స్	-11.054
▁కృతి	-11.054
▁దర్శించుకున్న	-11.054
పట్నం	-11.0541
▁రేవ	-11.0543
▁రాత్రికి	-11.0544
శంకర్	-11.0545
▁ఉన్నాం	-11.0547
ala	-11.0548
▁సాగే	-11.055
▁దర్యాప్తులో	-11.0553
▁ఫ్లై	-11.0554
▁హర్షం	-11.0555
▁ఇంతకు	-11.0556
▁బ్రిజ	-11.0559
▁తెరకెక్కిన	-11.056
▁కొని	-11.056
▁ఉంచుత	-11.0561
▁తెలియాల్సి	-11.0561
▁ఆడపిల్ల	-11.0564
▁సేకరించారు	-11.0564
ేస్తున్నారు	-11.0567
▁స్వి	-11.0569
▁వెళ్లడానికి	-11.0569
▁కోట్	-11.0572
కేషన్	-11.0573
▁ఉమా	-11.0578
వారిలో	-11.0578
▁పరీక్షల్లో	-11.058
▁లభిస్త	-11.0581
▁అమ్మాయిలు	-11.0582
▁చక్కగా	-11.0582
▁లబ్ది	-11.0583
▁దీనితో	-11.0585
▁శిశు	-11.0588
▁భవనంలో	-11.0588
సిటీ	-11.0589
▁2024:	-11.059
▁ఖైదీ	-11.059
▁ఒకటో	-11.059
▁మార్గాలు	-11.0591
▁కుక్కలు	-11.0591
▁ق	-11.0592
దళ	-11.0594
▁క్యాంటీన్	-11.0599
▁నెలాఖరు	-11.0599
▁భూసేకరణ	-11.0599
▁మల్కాజిగిరి	-11.0599
▁తరుణ్	-11.0599
▁విమానయాన	-11.0599
▁యాదగిరిగుట్ట	-11.0599
▁ఆచరించ	-11.0599
▁లోన్లు	-11.06
▁తరలింపు	-11.06
ోత్సవ	-11.0601
▁అసాధారణ	-11.0602
▁ఉత్తీర్ణత	-11.0602
▁144	-11.0602
▁క్లోజ్	-11.0603
▁సంప్రదింపులు	-11.0605
▁సమన్వయం	-11.0607
▁పూరీ	-11.0609
▁సర్వీసుల	-11.061
▁మొండి	-11.061
▁దానివల్ల	-11.061
ాలనుకుంటే	-11.061
▁ధరకు	-11.0611
▁ఎండ్	-11.0611
▁కేక్	-11.0613
▁వేతనాలు	-11.0616
▁పుస్తకంలో	-11.0616
▁విశ్వాస	-11.0618
▁దొరుకుత	-11.0619
ఖ్య	-11.0619
▁స్థిర	-11.062
▁84	-11.062
▁అనుమాన	-11.0623
▁ఇచ్చామని	-11.0625
దాకా	-11.0627
దాస్	-11.0629
▁కోరినట్లు	-11.063
పోర్ట	-11.0632
వర్గాల	-11.0635
▁/	-11.0635
▁యాజమాన్య	-11.064
▁ఆదేశాలను	-11.0642
▁ఉగ్రవాదులు	-11.0644
ైర్	-11.0653
▁గుర్త	-11.0655
▁చేసుకుంటారు	-11.0658
▁మిడ్	-11.0658
▁ఒక్కొక్క	-11.0658
▁అష్ట	-11.0661
▁నింద	-11.0664
▁మిత్రుల	-11.0667
▁తిరిగే	-11.0669
పాద	-11.067
▁కూలీల	-11.0671
ja	-11.0673
▁శైలిలో	-11.0678
▁గుర్తిస్త	-11.068
▁శంకర	-11.0682
▁జరుగ	-11.0683
పోయాయని	-11.0687
▁ఐదేళ్లు	-11.0688
▁రూల్	-11.0688
▁ఖాయంగా	-11.0688
▁గ్ల	-11.0692
▁రాగి	-11.0692
de	-11.0692
GB	-11.0697
ಷ	-11.0697
▁కనుగొన	-11.0697
▁చేసుకోవాల్సి	-11.0698
▁ఇన్వెస్టిగేషన్	-11.0698
▁ఒరిజినల్	-11.0698
▁కంటోన్మెంట్	-11.0698
▁క్రిస్మస్	-11.0698
▁లేవనెత్త	-11.0698
▁అంపైర్	-11.0698
▁ప్రొటీన్	-11.0698
▁మూడేండ్ల	-11.0698
▁ఫెయిల్	-11.0698
▁యాక్	-11.07
▁త్రిపుర	-11.07
▁800	-11.07
▁తెలుసుకుని	-11.0701
▁ಶ	-11.0702
▁యూపీలో	-11.0705
▁సందర్శించి	-11.0708
▁రిలీజైన	-11.0708
ిస్తారని	-11.0708
▁థియేటర్లలో	-11.0709
▁బేగంపేట	-11.071
▁వినతి	-11.0711
▁2006	-11.0712
▁చంద్రుడు	-11.0712
▁అమరుల	-11.0718
▁తినాలి	-11.0721
▁బడి	-11.0723
▁కౌన్సిలర్	-11.0724
▁పదేళ్లలో	-11.0725
▁వస్తున్నాయని	-11.0726
▁సిద్ధమ	-11.0728
▁విడిచిపెట్ట	-11.0729
▁శ్రీరామ్	-11.073
▁నేరాల	-11.0735
▁మ్యాచు	-11.0739
డుతుంది	-11.074
▁ప్రారంభిస్త	-11.074
प	-11.0741
▁బెల్	-11.0743
▁ఆరంభ	-11.0743
▁టెండర్	-11.0747
▁స్థలాలు	-11.0747
▁మార్గాల	-11.0747
▁నాటక	-11.0748
స్సా	-11.0748
▁స్టార్స్	-11.0749
▁అమర	-11.0752
▁పరిచయ	-11.0753
▁ଏକ	-11.0753
▁అడ	-11.0755
▁కుటుంబసభ్యుల	-11.0764
▁మొన్న	-11.0765
▁సౌకర్యాల	-11.0766
▁మహిళలపై	-11.0768
▁పథకాలకు	-11.0768
▁నాయకులతో	-11.0772
ెలా	-11.0774
▁దేవత	-11.0775
▁జరిగేలా	-11.078
▁ఉపయోగిస్త	-11.078
▁ప్రచురించిన	-11.0781
ండ్రు	-11.0782
▁సారా	-11.0787
▁ప్రదేశం	-11.0787
▁భూమికి	-11.079
▁ఫోన్లను	-11.079
▁తొలగించారు	-11.079
▁ఆలస్య	-11.079
▁వాడిన	-11.079
▁దోహద	-11.0798
▁ଭିଡିଓ	-11.0798
▁కన్నుమూశారు	-11.0798
▁తొక్కిసలాట	-11.0798
▁నవంబరు	-11.0798
▁యాభై	-11.0798
▁యూరోపియన్	-11.0798
▁రిటర్నింగ్	-11.0798
▁రోగనిరోధక	-11.0798
▁వారణాసి	-11.0798
▁సైబరాబాద్	-11.0798
▁సనాతన	-11.0798
▁హేమంత్	-11.0798
▁కార్బన్	-11.0798
▁క్వింటాళ్ల	-11.0798
▁పలువురి	-11.0798
▁అమీర్	-11.0798
▁యాక్సెస్	-11.0798
నెట్	-11.0799
▁125	-11.0799
▁అటెండ	-11.08
▁ఉపగ్రహ	-11.08
▁పాలయ్యారు	-11.0801
▁ఒక్కోసారి	-11.0802
▁శ్రీనివాసులు	-11.0802
▁దేశాయ్	-11.0803
▁రీల్స్	-11.0805
▁తీసుకోవడానికి	-11.0807
కథ	-11.0808
▁నిర్వహిస్తామని	-11.0808
▁Ra	-11.081
▁క్షణం	-11.081
▁جا	-11.081
▁ఆభరణాల	-11.081
▁బిజీ	-11.0811
▁ఫలితాల్లో	-11.0811
▁కలుప	-11.0812
▁ఒప్పుకో	-11.0813
▁అవకాశాలున్నాయి	-11.0813
▁హక్కులను	-11.0813
దారి	-11.0814
▁పాద	-11.0814
▁పురుగుల	-11.0814
ెత్తి	-11.0814
▁సమానంగా	-11.0816
▁వాడి	-11.0816
▁ఆవిష్కరించారు	-11.0819
వేగంగా	-11.082
▁హత్యలు	-11.082
▁సమర్పించిన	-11.0821
▁పెట్టుకుంది	-11.0821
▁దిశ	-11.0821
▁ఉంటేనే	-11.0822
స్తుంటారు	-11.0823
▁కమలం	-11.0826
▁రూపొంద	-11.0826
▁రావాలి	-11.0826
▁లక్షా	-11.0828
va	-11.0832
▁ఆత్మవిశ్వాసం	-11.0833
▁ٹی	-11.0834
▁పొందేందుకు	-11.0835
▁విడతలో	-11.0837
దనే	-11.0847
రణం	-11.0847
▁ట్రి	-11.0852
▁రుణాల	-11.0852
▁(12	-11.0853
▁కార్యదర్శిగా	-11.0854
▁دی	-11.0856
▁ప్రేమ్	-11.086
▁వైరా	-11.0863
▁కార్పొరేటర్లు	-11.0865
▁స్టేషన్లలో	-11.0867
శాంతి	-11.0872
▁అందించి	-11.088
▁సింహా	-11.0883
ున్నాడు	-11.0886
జూ	-11.0887
▁ద్వారానే	-11.0888
▁మిల్లు	-11.0888
▁కొద్దిసేపటి	-11.0892
▁సమావేశాలకు	-11.0894
▁తాగు	-11.0895
▁ఎంచుకోవ	-11.0896
▁ఒవైసీ	-11.0899
▁కోనసీమ	-11.0899
▁దక్కించుకుంది	-11.0899
▁నెమ్మదిగా	-11.0899
▁మ్యాజిక్	-11.0899
▁రిజిస్ట్రార్	-11.0899
▁వైష్ణవ్	-11.0899
ट	-11.0899
▁ఓపెనింగ్	-11.0899
▁కెమికల్	-11.0899
▁ఛేదించ	-11.0899
▁విస్తరిస్త	-11.0899
▁శాంసన్	-11.0899
▁కోదండరాం	-11.0899
▁క్లిప్	-11.0899
gov	-11.0899
▁రతన్	-11.0899
▁లీటర్ల	-11.0899
▁నాగేందర్	-11.09
▁దొంగల	-11.09
▁తెరకెక్కుతున్న	-11.0901
▁వచ్చారని	-11.0901
▁ప్రాంతాల్లోని	-11.0905
▁పాట్నా	-11.0905
▁ఆంజనేయ	-11.0905
▁కేసీ	-11.0907
▁కలగకుండా	-11.0907
▁జరుగుతుంద	-11.0907
▁పాలనా	-11.0907
▁ప్రశంసించారు	-11.0908
▁పట్టుకొని	-11.091
ధ్ర	-11.0912
గలిగారు	-11.0916
▁శక్తుల	-11.092
▁వేధింపులు	-11.0921
▁తొలగించాలని	-11.0923
▁కోరుకుంటున్న	-11.0924
▁ప్రారంభమై	-11.0927
▁ముస్లింల	-11.0927
▁ఆడియో	-11.0929
▁ఇప్పటికి	-11.0935
▁క్రో	-11.0936
▁విద్యను	-11.0937
స్తుండ	-11.0939
▁గండి	-11.094
చింది	-11.0941
▁చేసినప్పటికీ	-11.0942
ول	-11.0942
▁జరుపుతున్న	-11.0948
వాదం	-11.0949
▁చూపించిన	-11.095
▁లాభాలను	-11.095
▁ట్రే	-11.0951
▁కాలేజీలు	-11.0952
ప్రస్తుతం	-11.0952
▁370	-11.0955
▁సచివాలయంలో	-11.0957
▁కుటుంబంతో	-11.0959
▁టెట్	-11.0961
సెల్	-11.0962
▁కానుక	-11.0967
▁వాటితో	-11.0967
▁పదార్థాలను	-11.0968
▁ఒలింపిక్	-11.0968
▁నిలువ	-11.0968
ାନ	-11.0972
▁చట్టబద్ధ	-11.0972
ఆయన	-11.0976
▁అప్లికేషన్లు	-11.0981
▁భిన్న	-11.0981
▁వడ	-11.0982
▁140	-11.0982
రాబాద్	-11.0985
▁వస్తాయ	-11.0985
▁చేరడం	-11.0987
▁విప్ప	-11.0988
వారా	-11.0993
▁మాత్ర	-11.0993
▁فر	-11.0994
▁ఉంటాయ	-11.0994
یک	-11.0996
▁పెంచిన	-11.0996
▁యాప్స్	-11.0996
ud	-11.0998
▁చెప్పులు	-11.0998
ಯನ್ನು	-11.1
రిశోధ	-11.1001
▁అండ	-11.1001
▁में	-11.1001
▁అభివృద్ది	-11.1001
▁అలెర్ట్	-11.1001
▁నిజాయితీ	-11.1001
▁మర్యాద	-11.1001
▁రషీద్	-11.1001
▁వినతిపత్రం	-11.1001
▁సిగరెట్	-11.1001
▁ఆతిథ్య	-11.1001
▁కంటెస్టెంట్	-11.1001
▁సైలెంట్	-11.1001
▁మెరుగ్గా	-11.1001
▁కంగనా	-11.1001
▁యూజర్లు	-11.1001
ామినేటెడ్	-11.1001
▁తిలక్	-11.1001
▁చోప్రా	-11.1001
▁పసిడి	-11.1001
▁సభ్యుడిగా	-11.1001
▁ఆటంకం	-11.1002
ରା	-11.1002
▁సేఫ్	-11.1002
▁అసలైన	-11.1002
▁సెటిల్	-11.1002
ने	-11.1002
▁ఉపాధ్యక్షుడు	-11.1003
▁పేల్చ	-11.1003
شل	-11.1004
▁రోబో	-11.1008
▁తెలియక	-11.1008
మింగ్	-11.1009
▁రెట్టింపు	-11.1009
▁చేయొద్దని	-11.101
▁టైర్	-11.101
▁తీసుకునేందుకు	-11.1011
▁అక్షర్	-11.1011
▁గెలిపిస్తే	-11.1011
▁వర్గంలో	-11.1013
▁ఫ్లూ	-11.1013
▁గతం	-11.1013
▁సభ్యత్వ	-11.1013
▁శిల్ప	-11.1013
▁ఖర్చ	-11.1014
ରି	-11.1016
▁సిద్ధమయ్యారు	-11.1016
వద్ద	-11.1018
▁గురయ్యా	-11.1018
▁ఉపాధ్యాయుల	-11.1022
మరి	-11.1023
▁తరఫు	-11.1025
▁పరిశీలిస్తే	-11.1025
▁తడి	-11.1027
▁అయ్యారని	-11.1028
▁ప్రమాదకరమైన	-11.1031
▁అజ	-11.1032
▁పోతే	-11.1032
▁నిమజ్జనం	-11.1035
వేసి	-11.1036
▁దిశలో	-11.104
▁చావు	-11.104
స్తాయని	-11.1044
▁చూపుతున్న	-11.1044
▁స్టర్	-11.1045
ఏళ్ల	-11.1046
te	-11.1047
▁మార్చాలని	-11.1048
శాస్త్ర	-11.1049
▁పరిగణలో	-11.1049
▁జిన్	-11.1051
▁శతాబ్దం	-11.1054
▁వీటిపై	-11.1055
▁పెంచేందుకు	-11.1056
▁కలలు	-11.1067
▁బయల్దేర	-11.1078
▁చట్టాలను	-11.108
▁రంగులో	-11.1081
▁ఇబ్బందులను	-11.1082
▁నీట	-11.1083
▁ఒప్పుకున్న	-11.1083
تے	-11.1084
▁భక్త	-11.1085
▁కళ్యాణ	-11.1088
▁అభ్యంతరాలు	-11.109
▁కలుగ	-11.1091
▁సెంటర్లు	-11.1097
▁తగ్గాయి	-11.1097
▁గ్రీ	-11.1099
୍ୟ	-11.1099
▁సెం	-11.1099
▁సౌర	-11.1101
▁శరద	-11.1102
▁డాక్యుమెంట్	-11.1102
च	-11.1104
▁ఇండెక్స్	-11.1104
▁కంపార్ట్	-11.1104
▁కంప్లైంట్	-11.1104
▁నిరుపేద	-11.1104
▁వేడెక్క	-11.1104
▁సరస్వతి	-11.1104
▁సతీశ్	-11.1104
▁స్మృతి	-11.1104
ಷ್ಟ	-11.1104
▁ఆపరేటర్	-11.1104
ాభిషేకం	-11.1104
▁ఐదేండ్ల	-11.1104
▁వాయుగుండం	-11.1104
▁సయ్యద్	-11.1104
▁జోస్యం	-11.1104
▁ఏవైనా	-11.1104
▁తాగునీరు	-11.1104
▁జాయిన్	-11.1104
ాధికార	-11.1107
▁విచిత్ర	-11.1107
గ్రామ	-11.1108
▁ఉంటోంది	-11.1109
▁బెటర్	-11.1111
▁రహిత	-11.1111
▁ఆదిపురుష్	-11.1112
▁చెలరేగాయి	-11.1115
▁బటన్	-11.1116
▁మెహ	-11.1117
▁కుటుంబాలను	-11.1119
▁తిరుగు	-11.1119
▁ఎంతమంది	-11.1119
▁ఎల్బీ	-11.1121
▁చల్లా	-11.1122
వుతున్నారు	-11.1123
▁పిల్లి	-11.1123
▁మూడుసార్లు	-11.1125
▁పనిలేదు	-11.1127
▁మెరుపులతో	-11.1127
▁పిలుస్త	-11.1129
▁చూపిస్తూ	-11.1133
▁పుర	-11.1134
▁పైనా	-11.1142
▁చూస్తున్నారని	-11.1142
▁వెన్ను	-11.1143
▁రామయ్య	-11.1148
▁ఎలాన్	-11.115
▁అయ్యేలా	-11.1151
▁పేదలు	-11.1153
యార్	-11.1155
▁నివారణ	-11.1157
▁ప్రవేశం	-11.1166
ముద్ర	-11.117
▁సిరియా	-11.1174
▁విడాకుల	-11.1175
▁అంతర్	-11.1176
▁చేరడంతో	-11.1179
భారత్	-11.1181
▁ద్ద	-11.1184
▁అద్దెకు	-11.1184
▁ఆవిష్కరించ	-11.1187
▁త్రిష	-11.119
▁వస్తారు	-11.1195
▁మున్	-11.1197
వాణి	-11.1198
▁ఫార్	-11.1199
త్తా	-11.12
తరం	-11.1204
▁సర్వీసులు	-11.1205
బోతు	-11.1207
▁అలంకరించ	-11.1208
▁కమిషనరేట్	-11.1208
▁చత్తీస్	-11.1208
▁ప్రావిన్స్	-11.1208
▁బీభత్సం	-11.1208
▁బృహస్పతి	-11.1208
▁భువనేశ్వర్	-11.1208
▁యాసంగి	-11.1208
▁వెల్లడైంది	-11.1208
▁శాంతిభద్రతల	-11.1208
▁ఐఐటీ	-11.1208
▁ಆಗ	-11.1208
▁హితవు	-11.1208
▁ఎగువ	-11.1208
▁మనుగడ	-11.1208
▁సమ్మర్	-11.1208
▁ప్రతిష్ఠాత్మక	-11.1208
▁ఫిలిం	-11.1209
ಟಿ	-11.1209
▁మెట్రిక్	-11.1209
▁అతిథుల	-11.1209
▁నాగబాబు	-11.121
దంటూ	-11.1211
▁జర్నలిస్టుల	-11.1212
▁ప్రదర్శిస్త	-11.1217
▁తెలియదని	-11.1217
▁సహాయపడ	-11.1217
▁అభివర్ణించారు	-11.1218
▁అనవసర	-11.1218
▁తెలియడం	-11.1219
▁ప్రమాణస్వీకారం	-11.122
▁కలుసుకు	-11.1221
▁నాసా	-11.1222
▁ఐఎండీ	-11.1223
ియన్	-11.1223
▁ఉరి	-11.1224
▁సంభవించిన	-11.1224
▁చూడండి	-11.1226
▁81	-11.1228
గిలి	-11.1233
▁లేదనే	-11.1235
▁ప్రసిద్ధి	-11.1235
▁మల్లికార్జున్	-11.1235
▁హీట్	-11.1239
▁గార్డ్	-11.1241
ಲಾ	-11.1244
▁చంపిన	-11.1244
▁క్షేత్రస్థాయిలో	-11.1245
▁భావిస్తున్నట్లు	-11.1248
▁ఓటర్	-11.125
▁వీక్	-11.1251
▁నియామకాలు	-11.1252
یٹ	-11.1252
▁బావి	-11.1254
▁సీట్లకు	-11.1254
▁శేష	-11.1255
▁సంత	-11.1258
▁విచారించిన	-11.1262
▁నిద్రపో	-11.1264
▁చేసినందుకు	-11.1271
▁ధరించిన	-11.1272
▁డీపీ	-11.1273
▁తగ్గే	-11.1276
లిటీ	-11.1276
▁రకంగా	-11.1276
▁రిజల్ట్	-11.128
انی	-11.1282
యుల	-11.1282
▁చేసేది	-11.1285
▁నియోజకవర్గాలకు	-11.1288
▁స్కూళ్ల	-11.1288
▁నారాయణ్	-11.1291
▁ప్రకటించి	-11.1305
گر	-11.1305
▁దూకుడుగా	-11.1305
▁వాటిల్ల	-11.1308
▁సరళ	-11.1311
▁అబ్దుల్లా	-11.1311
▁టీసీ	-11.1311
▁పేర్కొన	-11.1313
▁ఆక్సిజన్	-11.1313
▁ఆచూకీ	-11.1313
▁టోర్నమెంట్	-11.1313
▁త్రిపాఠి	-11.1313
▁బ్రిటీష్	-11.1313
▁మందమర్రి	-11.1313
▁సామగ్రి	-11.1313
▁సీఎల్పీ	-11.1313
▁సీక్రెట్	-11.1313
▁అమరవీరుల	-11.1313
▁కొండగట్టు	-11.1313
▁మినిస్టర్	-11.1313
▁భగత్	-11.1313
▁రిపీట్	-11.1313
▁కొలువు	-11.1314
ఎంఆర్	-11.1314
▁కనిపెట్ట	-11.1315
▁ఎవరికైనా	-11.1316
▁ఇనుప	-11.1317
▁యూపీఐ	-11.1318
▁కలిసేందుకు	-11.1319
▁బస్తీ	-11.1319
-5	-11.132
▁మనీష్	-11.132
▁ఉమెన్	-11.1322
▁లియో	-11.1323
▁పతన	-11.1326
▁ఇస్తోంది	-11.1328
▁చేయకపోతే	-11.1329
▁గర్ల్	-11.1329
▁పనిచేయాలని	-11.1331
ాయన	-11.1332
▁దర్శన్	-11.1333
▁ప్రశ్నించింది	-11.1333
▁మందిర	-11.1334
షనల్	-11.1335
▁ఉన్నాడని	-11.1336
▁వాగ్వాదం	-11.1338
▁రోగ	-11.1338
▁మెమో	-11.1338
▁పునర్	-11.1339
▁ఓడిన	-11.1341
▁నష్టాల	-11.1341
▁ప్రత్యక్షంగా	-11.1341
▁జీరో	-11.1345
▁మంత్రివర్గంలో	-11.1347
▁సిరి	-11.1349
▁గణ	-11.1352
▁ట్రె	-11.1358
క్రమంలో	-11.1363
హైదరాబాద్	-11.1364
▁పరమేశ్వర	-11.1364
▁ఆసక్తిని	-11.1368
,200	-11.1371
▁యూజర్ల	-11.1376
▁ఫ్లెక్సీ	-11.1377
▁నేతలే	-11.1381
హాన్	-11.1381
▁అర్ధం	-11.1382
▁నమోద	-11.1388
▁ಸಂ	-11.1389
▁సంబంధాలను	-11.1391
▁నమ్ముతున్న	-11.1393
▁వ్యక్తిగా	-11.1394
▁తెలుస్త	-11.1396
▁అంగీకరించారు	-11.1397
▁నిండ	-11.1398
ుతున్నాయని	-11.14
▁ఏంటీ	-11.1401
▁ప్రశ్నించిన	-11.1403
▁వినోద	-11.1405
▁74	-11.1405
▁ನಿ	-11.1406
ವು	-11.1409
▁ఆపి	-11.141
రత్న	-11.141
▁చెల్లి	-11.1411
▁తీవ్రవాద	-11.1412
▁అనిపిస్త	-11.1414
▁పాఠశాలల	-11.1414
▁అందజేయ	-11.1414
ఒ	-11.1414
▁ఫార్మ	-11.1416
▁అదరగొట్ట	-11.142
▁హుజూరాబాద్	-11.142
▁అర్చకులు	-11.142
▁ధోరణి	-11.142
▁లక్ష్మారెడ్డి	-11.142
▁శ్యామ్	-11.142
▁సంభాషణ	-11.142
▁సెక్రటేరియట్	-11.142
▁అభ్యర్థన	-11.142
▁మెషీన్	-11.142
▁విండీస్	-11.142
▁కొండచరియలు	-11.142
▁ఉదయాన్నే	-11.142
▁రెండేండ్ల	-11.142
▁సజీవ	-11.142
ಗಳನ್ನು	-11.142
▁మోర్చా	-11.142
▁ప్లానింగ్	-11.142
▁స్వీకరిస్త	-11.142
▁పీఠ	-11.1421
▁రవికుమార్	-11.1422
▁టీఎంసీ	-11.1422
▁తీవ్రస్థాయిలో	-11.1422
▁బ్యాచ్	-11.1422
ମ୍	-11.1424
▁సమాధానాలు	-11.1425
▁జర్నలిస్టు	-11.1427
▁మర్రి	-11.1429
▁సాగుతుంది	-11.143
▁బాండ్ల	-11.1431
▁ఎమ్మెల్యేలకు	-11.1435
▁మెక్	-11.1436
▁వ్యూస్	-11.1436
▁ప్రమాణాల	-11.1437
▁పనిచేసి	-11.1438
▁కఠినమైన	-11.144
మ్ము	-11.1441
▁ರ	-11.1445
▁కోటాలో	-11.1446
2024	-11.1446
▁వాద	-11.1447
▁వ్రతం	-11.1449
▁ఉపసంహరించ	-11.145
▁వెల్లడించిన	-11.145
▁కళ్ళ	-11.1453
▁స్కూళ్లు	-11.1454
▁స్కాంలో	-11.1455
▁తీసుకువస్త	-11.1456
గొడ	-11.1459
▁కాపాడేందుకు	-11.1459
▁ఇస్తారని	-11.1466
▁వైర	-11.1467
▁తలుపులు	-11.1467
କ୍ତ	-11.1469
▁ఓవర్లు	-11.1471
▁పొలం	-11.1472
▁ఐపీసీ	-11.1474
▁అనుభవాల	-11.1476
da	-11.1479
పల్లె	-11.1479
▁మాక్	-11.1481
▁దట్ట	-11.1481
ಿನ	-11.1482
ట్లేదని	-11.1484
వన్నీ	-11.1486
▁చేస్తాడు	-11.1487
▁అనుమానిస్తున్న	-11.1489
గలుగు	-11.149
▁వెళ్లినా	-11.1491
▁నికర	-11.1493
కేంద్ర	-11.1493
▁లిస్టు	-11.1495
▁నిర్మించి	-11.1504
▁కేంద్రాలకు	-11.151
▁కల్కి	-11.151
ರುವ	-11.1511
▁శిల్పా	-11.1514
క్సా	-11.1518
▁పండించ	-11.1519
▁వేడుకలకు	-11.1522
کار	-11.1524
▁తగ్గించే	-11.1525
▁ಸಾಮಾಜ	-11.1527
Z	-11.1527
▁అమావాస్య	-11.1527
▁జింబాబ్వే	-11.1527
▁ఫుటేజీ	-11.1527
▁వర్చువల్	-11.1527
▁సస్పెన్స్	-11.1527
▁కరుణాకర్	-11.1527
▁బెడ్రూం	-11.1527
▁యానిమల్	-11.1527
▁ప్యానెల్	-11.1527
▁సమాధి	-11.1527
▁ఇషాన్	-11.1527
▁క్వాష్	-11.1527
▁ఆలౌట్	-11.1527
▁గూడ్స్	-11.1527
▁జలుబు	-11.1527
▁ఇండిపెండెంట్	-11.1527
▁మండపం	-11.1528
▁సుబ్బారెడ్డి	-11.1528
▁ఆసరా	-11.1528
▁ముంచెత్త	-11.1529
▁ఫ్యాషన్	-11.1529
▁ఏమిటో	-11.153
▁భూభాగ	-11.153
▁పరిసరాల్లో	-11.153
▁మెన్స్	-11.153
▁పాలనను	-11.153
▁అప్పగిస్త	-11.1531
▁గాలింపు	-11.1531
▁హోంశాఖ	-11.1531
▁జైలర్	-11.1531
▁మురుగు	-11.1532
▁నడిపి	-11.1533
▁ముస్తా	-11.1536
▁రాబడి	-11.1536
▁రియాక్ట	-11.1536
▁బంధించ	-11.1537
▁తప్పింది	-11.1537
▁ఎట్టి	-11.1539
▁డ్రాప్	-11.1539
డీసీ	-11.1541
▁లాభాల	-11.1541
▁ఫిదా	-11.1543
▁మూడవ	-11.1544
▁కార్యదర్శులు	-11.1547
▁చెయ్యాలని	-11.1551
▁తగ్గించేందుకు	-11.1551
▁చెరో	-11.1555
▁బదిలీలు	-11.1562
▁పంప్	-11.1564
▁పాలకులు	-11.157
▁వ్యక్తిగతంగా	-11.1571
▁స్టె	-11.1575
▁విస్తరించి	-11.1578
▁ఖండ	-11.158
వేద	-11.1581
▁చూడాల్సి	-11.1587
▁పూర్తిస్థాయిలో	-11.1591
▁పరికరాలు	-11.1592
▁ఉన్నాయన్నారు	-11.1594
డియో	-11.1595
▁కాట	-11.1602
ెప్	-11.1604
▁ఉన్నవారికి	-11.1611
▁సృష్టించారు	-11.1612
▁పథకంలో	-11.1614
▁చెల్లింపులు	-11.1619
▁ఫోటోను	-11.162
▁పడటంతో	-11.1621
▁ఉత్సాహం	-11.1622
▁బతుకు	-11.1625
▁కావాల	-11.1626
▁స్క్	-11.1631
▁అమృత	-11.1631
▁ఉల్లంఘన	-11.1636
▁ఐర్లాండ్	-11.1636
▁పెద్దయెత్తున	-11.1636
▁ఫ్రాంచైజీ	-11.1636
▁బహిష్కరించ	-11.1636
▁సమ్మిట్	-11.1636
▁సామర్థ్యాన్ని	-11.1636
▁ఆర్ఆర్ఆర్	-11.1636
▁తలనీలాల	-11.1636
▁అప్పీల్	-11.1636
▁చక్రవర్తి	-11.1636
▁అశ్విని	-11.1636
▁ధనుష్	-11.1636
▁ఆరోపిస్తూ	-11.1637
▁ట్రోల్	-11.1637
▁का	-11.1637
▁జన్యు	-11.1638
▁ముగియనుంది	-11.1638
▁రంజిత్	-11.164
▁అన్నమయ్య	-11.1641
▁లేకున్నా	-11.1641
▁లక్ష్యమని	-11.1642
▁బుర్ర	-11.1644
▁మాలిక్	-11.1646
▁ప్రారంభమవుతుంది	-11.1647
▁గ్రేట్	-11.1648
▁పాల్పడ్డారని	-11.1648
▁దాడుల్లో	-11.1649
▁పట్టించుకోలేదు	-11.165
ప్పుడ	-11.1651
▁తీసుకోలేదు	-11.1656
▁పాటించాలని	-11.1657
▁స్వల్పంగా	-11.1659
▁కట్టు	-11.1662
▁వెళ్లినప్పుడు	-11.1663
▁త్యాగాల	-11.1668
▁ఉగ్రవాదుల	-11.1671
▁మలయాళం	-11.1675
▁సిక్సర్లు	-11.1676
▁విజన్	-11.1678
▁సింగర్	-11.1679
▁నీల్	-11.1681
▁దూక	-11.1683
▁ఒత్తిడిని	-11.1686
▁ఉత్సాహంగా	-11.1687
▁మనసులో	-11.1688
దర్శన	-11.1692
▁దుస్తుల	-11.1692
▁పైపు	-11.1692
▁పూర్తిస్థాయి	-11.1694
▁ప్రసార	-11.1695
▁ప్రవేశపెట్టారు	-11.1696
▁ముక్క	-11.1697
▁ఎగ్జామ్స్	-11.1697
▁చెప్పినట్టు	-11.1704
▁ఆలోచించి	-11.1706
▁గర్	-11.1706
ుడే	-11.1708
▁చేస్తున్నాయని	-11.1709
▁పదం	-11.1713
▁వెంటాడ	-11.1714
▁బ్రహ్మోత్సవాల	-11.1715
తెరకెక్కిస్తున్న	-11.1715
▁కిందటే	-11.1717
▁కొంట	-11.1721
▁వచ్చాయ	-11.1722
▁ఆపే	-11.1726
▁విందు	-11.1727
ాలనుకుంటున్నా	-11.173
▁ఆభరణాలు	-11.1732
▁కస్టమర్లు	-11.1734
▁వైభవ	-11.1739
▁పట్టుబడ	-11.1742
▁వ్యవస్థాపక	-11.1743
▁AP	-11.1744
▁ఆలేరు	-11.1745
▁మత్స్య	-11.1746
▁తోసిపుచ్చ	-11.1746
श	-11.1746
▁అఫ్గానిస్తాన్	-11.1746
▁కిశోర్	-11.1746
▁జ్యుడీషియల్	-11.1746
▁దుర్మార్గ	-11.1746
▁దువ్వాడ	-11.1746
▁దేవాదాయ	-11.1746
▁వయనాడ్	-11.1746
▁సంకీర్ణ	-11.1746
▁సురేందర్	-11.1746
▁స్వాతంత్య్ర	-11.1746
▁హుటాహుటిన	-11.1746
▁క్షతగాత్రుల	-11.1746
▁ప్రోగ్రాం	-11.1746
▁నరేశ్	-11.1746
▁కొట్లాడ	-11.1746
▁బిర్లా	-11.1746
▁మైనంపల్లి	-11.1746
▁దొంగతనం	-11.1747
▁శిఖర	-11.1747
▁అనుష్క	-11.1747
▁తేనె	-11.1748
▁చూసుకోవాలి	-11.1748
▁పూర్తయింది	-11.1749
ేసే	-11.175
▁స్వాతి	-11.1752
▁ఎలుక	-11.1753
▁ఆదా	-11.1753
▁మాచర్ల	-11.1753
▁జీహెచ్	-11.1754
▁ఉండటానికి	-11.1755
▁ఆరోగ్యంపై	-11.1756
▁కాస్తా	-11.1757
▁నిర్ణయించినట్లు	-11.176
▁లేఖను	-11.1761
▁వాదనల	-11.1761
▁అయ్యా	-11.1762
▁చదువుకున్న	-11.1766
▁చేసుకున్నాయి	-11.1767
లిమి	-11.177
ter	-11.177
▁భారతదేశానికి	-11.1771
బోయిన	-11.1771
▁బతిక	-11.1771
▁నిలుస్తున్న	-11.1772
▁చూపించే	-11.1773
▁నిలిప	-11.1774
▁వీరయ్య	-11.1776
▁చెప్పవచ్చు	-11.1777
▁కుప్ప	-11.1778
▁కదల	-11.1778
▁నెటిజన్	-11.1782
య్యాక	-11.1782
▁ఉపయోగించడం	-11.1786
▁ప్రోత్సహిస్త	-11.1786
టికల్	-11.1788
▁పొందడం	-11.1788
▁బహు	-11.1789
▁భూమిలో	-11.179
▁పట్టిన	-11.1792
విధంగా	-11.1798
▁ప్రక్రియలో	-11.1798
▁చేశాను	-11.1798
▁PM	-11.18
ज	-11.18
ब	-11.1801
ఆగస్టు	-11.1801
▁వసతులు	-11.1801
▁కనిపిస్తే	-11.1803
▁బడా	-11.1804
▁ప్రజలే	-11.1809
ిచ్చి	-11.1815
▁ఏఎన్	-11.1822
▁శ్రీకృష్ణ	-11.1822
పోకుండా	-11.1823
ంగల్	-11.1825
▁గురవుత	-11.1826
బీఎస్	-11.1827
▁160	-11.1827
▁బీర్ల	-11.1828
▁మౌనంగా	-11.183
▁చంపేస్త	-11.183
మయం	-11.183
వీర	-11.1838
▁ఎదుర్కొన	-11.1839
▁కథలు	-11.1839
స్తారా	-11.1839
▁చీల	-11.184
▁గ్రహ	-11.1841
▁కిట్	-11.1845
▁శిబిరం	-11.1846
▁కంట	-11.1847
▁తెలియజేస	-11.1848
▁మృతిచెంద	-11.1849
-6	-11.1849
▁మరే	-11.1852
▁ହୋଇ	-11.1857
▁అనుభూతి	-11.1857
▁ఆశాభావం	-11.1857
▁చురుగ్గా	-11.1857
▁ఛాలెంజర్స్	-11.1857
▁డాక్యుమెంటరీ	-11.1857
▁తాలూకా	-11.1857
▁ప్రాపర్టీ	-11.1857
▁మధుసూదన్	-11.1857
▁రిపబ్లికన్	-11.1857
▁రెసిడెన్షియల్	-11.1857
▁ఆర్సీబీ	-11.1857
▁గ్లాసు	-11.1857
▁స్ట్రోక్	-11.1857
▁లక్కీ	-11.1857
▁పాలిటిక్స్	-11.1857
▁మదన్	-11.1857
ండటం	-11.1858
▁లెస్	-11.1858
▁ବି	-11.1858
▁గుత్తా	-11.1858
▁మెప్పించ	-11.1859
▁ఆరేళ్ల	-11.1859
▁మహేంద్ర	-11.1859
▁నిర్వహిస్తోంది	-11.186
▁మిరియాల	-11.1861
▁మహానాడు	-11.1861
▁సచివాలయం	-11.1861
▁స్మిత్	-11.1861
▁సుకుమార్	-11.1862
▁గంభీర్	-11.1862
▁ప్రేమను	-11.1863
▁హర్యానాలో	-11.1864
▁1999	-11.1866
▁2007	-11.1867
▁జరపాలని	-11.1869
▁బోధన్	-11.1872
▁పుస్తక	-11.1874
از	-11.1876
▁నమోదయింద	-11.1877
ಾಗಿ	-11.1879
▁తీస్తున్న	-11.188
▁తప్పని	-11.1886
పాత	-11.1888
▁మక్క	-11.189
▁జాతుల	-11.1894
రాయ్	-11.1899
▁పడుతున్నారని	-11.1901
▁గడ్డపై	-11.1902
▁గ్రాస్	-11.1904
▁నీలం	-11.1905
▁అనుకుంటున్న	-11.1906
▁దెబ్బకు	-11.1911
▁కొద్దిరోజుల	-11.1914
▁దీపం	-11.1914
▁దేశాలలో	-11.1916
▁వైర్	-11.1917
▁ప్రారంభోత్సవం	-11.1923
▁అభియోగాలు	-11.1924
▁తేల్చారు	-11.1925
▁చేస్తామ	-11.1926
▁తట్ట	-11.1927
▁భర్తను	-11.1928
▁మద్య	-11.1929
ౌట్	-11.1932
▁యె	-11.1933
▁ఆధిక్యంలో	-11.1934
▁కోరుకుంటున్నా	-11.1934
▁కొనుగోళ్ల	-11.1936
▁పర్యటిస్తున్న	-11.1939
▁ప్రవేశించిన	-11.1939
▁రైతుకు	-11.1941
tr	-11.1944
▁వీల్	-11.1945
▁విషం	-11.1946
▁పాటకు	-11.1948
▁రేప్	-11.1949
▁మద్దత	-11.195
▁ఒక్కట	-11.1952
▁2.5	-11.1962
▁భాషా	-11.1965
▁టెలి	-11.1966
▁తేదీకి	-11.1968
▁నిరోధించ	-11.1969
Q	-11.1969
▁నామినేట్	-11.1969
▁సామూహిక	-11.1969
▁ఎన్నారై	-11.1969
▁బోల్తా	-11.1969
▁అవస్థలు	-11.1969
▁గైడ్	-11.1969
▁మిడిల్	-11.1969
▁విషమంగా	-11.1969
▁ఫీల్డింగ్	-11.197
▁ఎల్బీనగర్	-11.197
▁బౌద్ధ	-11.1971
▁దేవాలయ	-11.1971
▁మూత్ర	-11.1972
▁స్వరూప	-11.1972
92	-11.1972
▁ప్రపోజ	-11.1973
▁డీసీసీ	-11.1973
▁జాన్వీ	-11.1973
▁సుధా	-11.1976
▁సాయ	-11.1977
▁కష్టాల్లో	-11.1977
▁నిర్ణయాలను	-11.1978
▁పాఠ	-11.1978
hi	-11.1979
▁అయ్యిందని	-11.198
▁ఉంచిన	-11.1981
▁వచ్చిందన్నారు	-11.1981
▁తప్పవని	-11.1981
▁కేబుల్	-11.1982
▁అపో	-11.1983
▁బోస్	-11.1986
?""	-11.1987
▁పెరగడానికి	-11.1988
▁అధ్యయనంలో	-11.1988
▁అంటున్నారని	-11.1989
▁పారా	-11.199
▁82	-11.1996
▁క్రీమ్	-11.1997
▁బ్యాన్	-11.1999
▁పర్యటిస్త	-11.2
డుతున్నారు	-11.2
▁జెన్	-11.2
▁దొరకడం	-11.2
▁తగు	-11.2002
▁వారికే	-11.2002
اس	-11.2002
ౌండ్	-11.2003
▁తప్పదని	-11.2003
▁లభించిన	-11.2007
▁ఎగర	-11.2008
▁పాల్పడినట్లు	-11.2014
రెక్ట	-11.2017
▁ఫైల్స్	-11.2018
పుత్ర	-11.2019
▁శబ్ద	-11.2019
▁రిపేర్లు	-11.202
▁చెరువులో	-11.2022
▁వాజ్	-11.2027
▁ఉన్నంత	-11.2029
▁తెలిసే	-11.203
పెడతా	-11.2033
▁తెలుసని	-11.2034
జ్ఞాన	-11.2034
▁రోగి	-11.2037
▁రేస్	-11.2038
▁విజయవాడకు	-11.2041
▁లెక్కించ	-11.2042
▁టెండర్లు	-11.2044
▁98	-11.2044
id	-11.2049
▁మధ్యాహ్న	-11.2052
▁కార్మికులను	-11.2055
▁పండ్లను	-11.2056
వాళ్లకు	-11.2058
▁జీఎం	-11.2061
▁వీర్	-11.2062
▁బాగుండ	-11.2062
▁ఇంటిపై	-11.2064
▁లావాదేవీలు	-11.207
▁వినిపిస్త	-11.2073
▁పర్యాటకుల	-11.2076
▁విస్తీర్ణంలో	-11.2077
మల్ల	-11.2078
▁జ్ఞాపక	-11.208
▁తగల	-11.2082
▁అదృశ్య	-11.2083
▁ఎదురుదెబ్బ	-11.2083
▁కస్టమ్స్	-11.2083
▁క్లెయిమ్	-11.2083
▁గ్లింప్స్	-11.2083
▁డిజాస్టర్	-11.2083
▁తుపాకీ	-11.2083
▁ధనుస్సు	-11.2083
▁పద్మనాభ	-11.2083
▁పద్మావతి	-11.2083
▁రాత్రిపూట	-11.2083
▁లెక్చరర్	-11.2083
▁హౌసింగ్	-11.2083
▁ఎన్ఐఏ	-11.2083
▁స్క్వాడ్	-11.2083
▁స్ట్రీట్	-11.2083
▁పోస్టింగ్	-11.2083
▁కుల్దీప్	-11.2083
▁భంగం	-11.2083
▁రెచ్చిపోయ	-11.2083
▁శుద్ధి	-11.2083
▁పౌరసత్వ	-11.2083
▁మత్స్యకారుల	-11.2083
▁దుకాణాలు	-11.2083
▁కనుగొన్నాము	-11.2083
▁పరిగణిస్తారు	-11.2083
▁బహుశా	-11.2084
▁ప్రభు	-11.2084
▁ప్రారంభమయ్యాయి	-11.2084
▁భీమవరం	-11.2084
▁సాక్షుల	-11.2084
▁కాజీపేట	-11.2085
▁విజయలక్ష్మి	-11.2086
وب	-11.2087
▁ద్రవ్యోల్బణం	-11.2088
భూ	-11.209
wa	-11.209
▁ప్రాంగణంలో	-11.2091
▁అయ్యాయని	-11.2091
ts	-11.2095
▁నరికి	-11.2097
▁రజత	-11.2097
▁మరణించారని	-11.2099
లేదన్న	-11.2102
▁సాగుతున్నాయి	-11.2103
▁700	-11.2107
▁చుట్టు	-11.2109
ିକ	-11.2109
▁బీబీ	-11.2109
▁ప్రయాణించే	-11.211
డైన	-11.211
▁నటించింది	-11.2111
▁వెజ్	-11.2113
సౌ	-11.2115
▁సంపాదించుకున్న	-11.2116
▁వెళ్లనున్నారు	-11.2117
▁నిర్మల	-11.2118
▁ఎమోషన్	-11.2118
▁తీయడం	-11.2118
▁ఆదేశం	-11.2119
▁రెండున్నర	-11.2119
ండని	-11.2122
▁టిక్	-11.2122
▁ఏర్పాట	-11.2123
مب	-11.2126
▁ఉంచాలని	-11.2129
▁సత్యం	-11.2133
బడ్డాయి	-11.2133
ిస్తుండగా	-11.2134
▁చూడగా	-11.2137
జులై	-11.2138
▁రానా	-11.2139
▁పడటం	-11.214
▁కోలా	-11.214
▁మనవి	-11.2141
ైజేషన్	-11.2142
▁హీరోలు	-11.2144
▁వ్యాఖ్యానించ	-11.215
దానికి	-11.2155
▁وی	-11.2158
ఎస్సీ	-11.2159
▁తరం	-11.216
▁ఉన్నాయా	-11.2166
▁వారిద్దర	-11.2172
▁తీసుకోకుండా	-11.2174
▁అంచ	-11.2178
▁क	-11.2181
▁జనాభాలో	-11.2181
స్తుల	-11.2182
▁ఉంటుందనే	-11.2183
▁అడుగ	-11.2185
▁పెంచుతున్న	-11.2186
▁మీనా	-11.2192
▁ఘన్	-11.2192
▁రైడ్	-11.2192
చోట్ల	-11.2193
▁అన్నట్లు	-11.2193
▁పీడ	-11.2194
ిచ్చిన	-11.2194
▁అమల్లో	-11.2194
▁నీటితో	-11.2194
ధారణ	-11.2195
▁చేపట్టే	-11.2196
▁రాశా	-11.2197
▁ఆల్కహాల్	-11.2198
▁ఇండస్ట్రియల్	-11.2198
▁ఛేంజర్	-11.2198
▁నిరసిస్తూ	-11.2198
▁మధ్యతరగతి	-11.2198
▁మ్యానిఫేస్టో	-11.2198
▁విజిలెన్స్	-11.2198
▁వీకెండ్	-11.2198
▁వెసులుబాటు	-11.2198
▁సప్లయ్	-11.2198
▁హడావుడి	-11.2198
▁అరుణాచల	-11.2198
▁అహంకార	-11.2198
▁స్కూలు	-11.2198
▁సజ్జనార్	-11.2198
▁మూసివేయ	-11.2198
▁రిస్క్	-11.2199
▁చెమట	-11.2199
ಕ್ಕೆ	-11.2199
▁సరిహద్దుల్లో	-11.2199
▁హైటెక్	-11.22
▁సోరెన్	-11.2201
▁ముగిసి	-11.2201
▁చెరువుల	-11.2201
▁కావలసిన	-11.2202
150	-11.2203
▁దొరికే	-11.2203
▁పొంగ	-11.2204
▁ఇళ్లకు	-11.2206
▁కొడుతున్న	-11.2207
▁పేస్ట్	-11.2207
▁విభాగాల్లో	-11.2209
▁బఫర్	-11.221
▁చేరుత	-11.2211
▁యాత్రకు	-11.2212
▁బాగో	-11.2213
▁నొక్కి	-11.2213
▁మార్చుకున్న	-11.2216
▁కృష్ణయ్య	-11.2224
▁అడ్డుకుంట	-11.2225
▁చెప్పుకో	-11.2227
▁బెన్	-11.2227
▁గోపి	-11.2228
▁ప్రయాణాలు	-11.2228
▁నిల్వలు	-11.2232
▁కల్పించింది	-11.2236
▁డీజీ	-11.2237
▁నడిపే	-11.2238
▁83	-11.2239
▁కాంబోలో	-11.2239
▁టార్	-11.2242
▁డ్రైవర్లు	-11.2244
దేవ్	-11.2246
▁నమ్మక	-11.2248
▁ఒక్కొక్కరి	-11.2251
AN	-11.2255
▁సదస్సులో	-11.2255
పేట్	-11.2256
▁ఒప్పించ	-11.2258
▁వేసవిలో	-11.2258
▁అమరావతిలో	-11.2259
ec	-11.2261
▁ధర్మా	-11.2265
▁భట్	-11.2266
▁నేరాలు	-11.2268
▁డాన్	-11.2271
▁అనుకునే	-11.2273
▁వనరులు	-11.2278
▁ప్రయత్నించిన	-11.2281
▁చూసుకో	-11.2282
▁విత్తనాల	-11.2284
▁అంకిత	-11.2284
▁అమ్మవారిని	-11.2288
డీఎస్	-11.2288
▁సొమ్మును	-11.229
▁కారణ	-11.2291
▁ఏదీ	-11.2294
ni	-11.2294
▁గ్రహాలు	-11.2297
▁కోతుల	-11.2301
▁చూస్తారు	-11.2306
▁US	-11.2306
▁దూసుకెళ్ల	-11.2307
▁కోరుతున్న	-11.2309
▁జామున	-11.231
▁ఊప	-11.231
▁119	-11.2312
▁ధ్రువ	-11.2314
▁ఠాక్రే	-11.2314
ू	-11.2314
▁ఇంటిగ్రేటెడ్	-11.2314
▁నలభై	-11.2314
▁సముదాయ	-11.2314
▁స్లీపర్	-11.2314
▁రిలీఫ్	-11.2314
▁టెక్నికల్	-11.2314
▁సఫారీ	-11.2314
▁అనుచిత	-11.2314
▁ఛాంబర్	-11.2314
▁కివీస్	-11.2315
▁ہمیں	-11.2315
▁ఇంతకుముందు	-11.2315
▁నిర్ధారణ	-11.2315
▁క్రాంతి	-11.2315
▁ట్యాప్	-11.2315
ww	-11.2315
▁ముగుస్తుంది	-11.2315
ఘర్	-11.2316
▁ఇంజన్	-11.2317
▁ప్రియుడు	-11.2318
▁ఇస్లామిక	-11.2318
▁డెవలప్మెంట్	-11.2319
▁ప్రకంపనలు	-11.232
▁పోవడం	-11.2322
▁గురైంది	-11.2322
▁హద్దు	-11.2323
ేశాయి	-11.2323
▁గిరిజనులు	-11.2323
▁మనుషులు	-11.2326
స్తోందని	-11.2326
▁ఎంతోమంది	-11.2327
▁చనిపోయింది	-11.2329
▁చేసుకోండి	-11.2329
ೊಂಡ	-11.2329
▁వస్తుందా	-11.2331
ోత్సవాల	-11.2331
▁వైకుంఠ	-11.2339
▁సమీపిస్తున్న	-11.2339
▁జరుపుతున్నారు	-11.2341
▁ప్రవాస	-11.2343
▁విశ్లేష	-11.2343
مل	-11.2344
▁కూలీలు	-11.2345
▁తయారీకి	-11.2345
▁లాగే	-11.2345
▁తీశా	-11.2351
▁త్యాగం	-11.2351
▁ఆస్ట్రేలియాతో	-11.2352
▁కొన్నేళ్లు	-11.2353
కేశవ	-11.2354
▁ఉండేదని	-11.2354
హరి	-11.2354
▁జంతువులు	-11.2354
▁కుండ	-11.2354
ಲು	-11.2355
▁బ్యాట్స్	-11.2355
▁స్వాతంత్ర్యం	-11.2359
▁ఆధిపత్య	-11.2362
▁మెరుపు	-11.2362
▁అందుకున్నాడు	-11.2364
▁ఉపయోగం	-11.2366
▁డైలాగ్స్	-11.237
▁పలుకుత	-11.2372
وٹ	-11.2375
బోధ	-11.2376
ుకోవాలంటే	-11.2377
▁దిగింది	-11.2381
▁(10	-11.2385
▁మామూలు	-11.2385
▁గర్భం	-11.2386
▁-1	-11.2389
ుంటాడు	-11.2391
▁నటులు	-11.2392
▁అదీ	-11.2395
▁పదవిలో	-11.2396
ాయంటూ	-11.2396
బియా	-11.2397
▁క్వార్టర్స్	-11.2398
▁భక్తులను	-11.2402
▁జరిపించ	-11.2402
▁రూపం	-11.2402
▁నిరుడ	-11.2405
▁కురిపించ	-11.241
▁పూర్ణ	-11.2412
▁మోడీకి	-11.2414
▁ఆశీర్వాద	-11.2414
اک	-11.2415
చిత్ర	-11.2416
▁రేణుక	-11.242
▁చేరాడు	-11.2424
om	-11.2424
స్తున్నాడు	-11.2425
▁ఉత్పత్తులను	-11.2429
▁News	-11.2432
▁Reddy	-11.2432
▁ఇంగ్లిష్	-11.2432
▁కమ్యూనిస్టు	-11.2432
▁క్యాండిడేట్	-11.2432
▁జహీరాబాద్	-11.2432
▁టీఎస్పీఎస్సీ	-11.2432
▁ప్రణీత్	-11.2432
▁మిలిటరీ	-11.2432
▁రైడర్స్	-11.2432
▁వైవాహిక	-11.2432
▁షబ్బీర్	-11.2432
▁సర్దుబాటు	-11.2432
▁హైస్కూల్	-11.2432
▁కోహ్లి	-11.2432
▁కమాండ్	-11.2432
▁సాగునీటి	-11.2432
▁సిల్వర్	-11.2432
▁پوسٹ	-11.2432
▁బియ్యాన్ని	-11.2432
▁విరామం	-11.2432
▁ఫ్రూట్	-11.2432
▁సమర్పిస్త	-11.2432
▁అవతరించ	-11.2432
▁گئی	-11.2433
▁రాత	-11.2433
▁శాస్త్రీయ	-11.2433
▁ఉండగానే	-11.2433
▁క్యూలైన్	-11.2433
▁గురించే	-11.2433
రిన్	-11.2434
▁స్నేహితుడు	-11.2434
▁వారెంట్	-11.2435
▁జరగడంతో	-11.2436
▁దారితీసింది	-11.2437
▁వాపోతున్నారు	-11.2437
▁శ్రీదేవి	-11.2438
▁తీసుకురావడానికి	-11.2439
▁ఆహ్వాన	-11.2439
▁Telangana	-11.244
▁ప్రదేశాల్లో	-11.244
▁సమాజానికి	-11.2441
▁కార్యాలయాన్ని	-11.2443
▁డీలర్	-11.2443
▁2003	-11.2443
▁ఖైదీల	-11.2443
▁చూడవచ్చు	-11.2443
▁సాయిరెడ్డి	-11.2443
▁చారి	-11.2444
▁పాల్పడ్డాడు	-11.2445
▁చేయలేదన్నారు	-11.2446
▁హస్త	-11.2447
▁నరక	-11.2448
▁సీత	-11.2449
ేస్తే	-11.2451
▁కురిపించారు	-11.2453
▁విడుదలైంది	-11.2454
▁ఎంపికైన	-11.2456
▁గర్వ	-11.2456
▁కట్టారు	-11.2458
డియన్	-11.246
▁అవుతాయని	-11.2464
▁పెంపొందించ	-11.2474
▁బ్యాగు	-11.2478
▁కుంగ	-11.2478
▁ఉండాల	-11.248
ుకుంటామని	-11.2481
పిస్తుంది	-11.2481
▁అనుసంధానం	-11.2481
▁తగ్గించడంలో	-11.2482
▁جو	-11.2484
▁సేవించ	-11.2487
▁ఒంటరి	-11.2488
▁ముచ్చట	-11.2489
▁మాటలను	-11.2497
ai	-11.2502
కాన్	-11.2502
▁వహించారు	-11.2505
▁సామాజికవర్గం	-11.251
విజయ	-11.2512
▁మాట్లాడేందుకు	-11.2514
▁అసలే	-11.2515
▁మహేశ్వర	-11.2518
బీఐ	-11.2518
▁(22	-11.2521
▁శాస్త్రవేత్త	-11.2526
▁వెచ్చ	-11.2528
▁رو	-11.2529
▁కస్టడీలో	-11.253
▁పోస	-11.2532
▁రిపోర్టులో	-11.2533
ద్వా	-11.2539
ఫోన్	-11.2541
▁బోధన	-11.2541
ନା	-11.2545
మౌ	-11.2547
▁పొరపాటున	-11.2548
▁ఇండో	-11.2548
ନ୍	-11.2548
▁కెనడాలో	-11.2549
یئر	-11.2551
▁ఆత్మగౌరవ	-11.2551
▁క్యాబినెట్	-11.2551
▁క్రమశిక్షణ	-11.2551
▁చంద్రచూడ్	-11.2551
▁జీవనశైలి	-11.2551
▁నాదెండ్ల	-11.2551
▁నియమితులయ్యారు	-11.2551
▁ఫ్లైఓవర్	-11.2551
▁భార్యాభర్తల	-11.2551
▁ముందంజలో	-11.2551
▁మోతాదు	-11.2551
▁రెజ్లింగ్	-11.2551
▁సద్వినియోగం	-11.2551
▁సబ్జెక్టు	-11.2551
▁సమాఖ్య	-11.2551
▁సాంప్రదాయ	-11.2551
▁బషీర్	-11.2551
▁జానారెడ్డి	-11.2551
▁కిచెన్	-11.2551
▁సంబందించి	-11.2551
▁సాహిత్య	-11.2551
▁దోషిగా	-11.2551
▁ట్రేడింగ్	-11.2551
▁పూడ్చ	-11.2552
▁శక్తివంతమైన	-11.2552
▁అధిపతి	-11.2552
▁ఉండవల్లి	-11.2553
▁బాటిళ్ల	-11.2553
▁బ్రెయిన్	-11.2553
▁అడవిలో	-11.2553
ప్లే	-11.2553
▁లేకపోలేద	-11.2553
▁జరిగిందన్నారు	-11.2554
▁అటవీశాఖ	-11.2554
▁పోరులో	-11.2554
▁అందజేసి	-11.2555
దేవర	-11.2555
▁నిర్వహణలో	-11.2555
▁-3	-11.2556
▁తెల్లవారు	-11.2556
లేకపోతున్నారు	-11.2557
▁వస్తోందని	-11.2559
97	-11.256
▁స్థిరపడ	-11.2561
▁చేరుకునే	-11.2562
▁ప్రొడ్యూసర్	-11.2564
▁మాయం	-11.2566
▁సినిమాలతో	-11.2567
▁పెరిగాయని	-11.2569
▁పట్టుబట్ట	-11.257
▁ఆనందాన్ని	-11.2571
▁వైఫల్యాల	-11.2575
▁పుల్ల	-11.2577
▁అయిపో	-11.2578
▁తెలుసుకునే	-11.258
▁ప్రియుల	-11.2582
▁ఎటు	-11.2585
▁నియమించిన	-11.2587
▁ఉంటుందా	-11.2587
▁మున్సిపాలిటీలో	-11.2587
▁పట్టే	-11.2588
▁యత్న	-11.259
▁నిర్వహించడానికి	-11.2591
▁అడ్డా	-11.2591
ురాలిగా	-11.2592
ତି	-11.2596
▁ఎమ్	-11.2597
▁ఉద్యోగంలో	-11.2601
రిగే	-11.2602
▁పెళ్లిళ్లు	-11.2602
▁చేరుకోవడం	-11.2603
పీసీ	-11.2604
▁తమన్నా	-11.2604
▁నిర్లక్ష్య	-11.2607
▁బిడ్డను	-11.2607
▁సాధించే	-11.2608
▁కదలికల	-11.2608
పాట	-11.2609
▁ఇండ్లను	-11.2609
▁చెవి	-11.2613
ଏ	-11.2615
కొత్తగూడెం	-11.2615
కథనం	-11.2617
ot	-11.2618
▁బీట్	-11.2623
గౌడ్	-11.2627
▁మాదిరి	-11.263
▁మరణాలు	-11.263
▁విశ్వసనీయ	-11.2632
▁వడ్లను	-11.2635
▁నిలిపి	-11.2636
▁యజమానుల	-11.2638
ెంత	-11.2639
▁అదృష్ట	-11.2646
▁చేపట్టనున్న	-11.2655
మార్చి	-11.2656
▁స్ట్రా	-11.2657
▁పుస్తకాల	-11.2658
▁ఒకదాని	-11.2659
▁ప్రత్యామ్నాయం	-11.2661
▁ఖండిస్తున్న	-11.2662
ప్రయోజన	-11.2671
▁ఇబ్రహీం	-11.2671
▁అతీతంగా	-11.2671
▁కలుషిత	-11.2671
▁కాచిగూడ	-11.2671
▁కెపాసిటీ	-11.2671
▁గరిష్ఠ	-11.2671
▁దిశానిర్దేశం	-11.2671
▁ద్వేష	-11.2671
▁నయనతార	-11.2671
▁ఆకట్టుకుంది	-11.2671
▁ఖానాపూర్	-11.2671
▁దూబే	-11.2671
▁పఠాన్	-11.2671
▁పదిహేను	-11.2671
▁రైల్వేస్టేషన్	-11.2671
▁జమిలి	-11.2671
▁పతకం	-11.2671
▁వానాకాలం	-11.2672
▁వర్తించ	-11.2672
▁కార్యకలాపాలకు	-11.2672
▁నర్సంపేట	-11.2672
▁దుస్థితి	-11.2672
▁సత్యవతి	-11.2672
,800	-11.2673
▁ఛార్జింగ్	-11.2673
▁నిదర్శనమ	-11.2673
▁ఎన్సీపీ	-11.2674
▁ధాన్యాన్ని	-11.2675
▁కమలాకర్	-11.2675
▁అడ్డుకునేందుకు	-11.2675
▁అంతిమ	-11.2676
▁యాత్రికుల	-11.2676
▁లాటరీ	-11.2676
▁చేయబడిన	-11.2677
▁తగ్గట్టుగా	-11.2677
▁కథనాల	-11.2678
▁పైప్	-11.2678
▁విస్తీర్ణం	-11.2678
ాలనుకుంటున్న	-11.2678
▁నిలిపివేస	-11.268
▁ఏర్పాటైన	-11.2681
▁1990	-11.2683
▁పరమ	-11.2685
▁ఓటేయ	-11.2685
▁ప్రవహిస్త	-11.2685
▁కథనంలో	-11.2686
▁వదులుకో	-11.2686
▁ఆశ్రమ	-11.2687
▁రొ	-11.2687
▁వారాల్లో	-11.2688
▁సాంగ్స్	-11.2689
▁హీరోయిన్స్	-11.269
▁నిమిషాల్లో	-11.2691
▁ఆఫీసుకు	-11.2692
▁విజయమ్మ	-11.2693
▁మేజర్	-11.2696
▁సవాళ్లు	-11.2697
▁ఉంటామని	-11.2698
▁అంబర్	-11.2703
నగరం	-11.2705
▁దిశా	-11.2707
▁మెట్ల	-11.2707
▁చేస్తున్నది	-11.271
▁వారిద్దరి	-11.2712
▁89	-11.2713
▁కేవీ	-11.2713
▁పిల్	-11.2715
▁వ్యాస	-11.2716
▁లోపాల	-11.2716
రూర్	-11.2717
خ	-11.2718
▁డాలర్	-11.2723
▁ఉన్నాయో	-11.2725
మరో	-11.2726
▁గంటా	-11.2729
▁సీఏ	-11.2729
▁స్టార్క్	-11.273
▁పెంచడానికి	-11.2732
▁రంగుల	-11.2736
▁ఓటర్లకు	-11.2736
▁వారసుల	-11.2737
సముద్రం	-11.2737
తెలుగు	-11.2737
దక్షిణ	-11.2737
ఫుల్	-11.2739
▁ధీర	-11.2742
ిస్తాడు	-11.2742
వాడిని	-11.2742
ివ్వాలని	-11.2744
▁చెల్లించి	-11.2744
▁టెస్టుల్లో	-11.2745
న్నట్లు	-11.2746
▁యాదవ	-11.2753
▁జోడి	-11.2753
▁కాశ	-11.2756
▁వసూళ్ల	-11.276
▁క్తుల	-11.276
▁ఉంటాం	-11.2762
▁రాజకీయాలను	-11.2762
▁దళాల	-11.2763
▁పేమెంట్	-11.2766
▁పాట్	-11.2768
▁జరిగినప్పుడు	-11.2768
డియం	-11.2773
▁నష్టాలు	-11.2774
ుకోవడమే	-11.2775
▁సూత్ర	-11.2779
▁పోతున్న	-11.2781
या	-11.2783
▁చో	-11.2786
▁ఉద్యోగాలను	-11.2788
▁నీల	-11.2788
▁దొరికి	-11.2789
ଥ	-11.2792
▁ఊపిరితిత్తుల	-11.2793
ଫ	-11.2793
▁అడ్వకేట్	-11.2793
▁అవాంఛనీయ	-11.2793
▁ఎకానమీ	-11.2793
▁ట్రూడో	-11.2793
▁నివాళులు	-11.2793
▁పునరుద్ధరణ	-11.2793
▁బళ్లారి	-11.2793
▁మృణాల్	-11.2793
▁మెక్సికో	-11.2793
▁మైసూరు	-11.2793
▁సన్నాహాలు	-11.2793
▁సింధు	-11.2793
▁సిఫారసు	-11.2793
▁ಯಾವುದ	-11.2793
▁కన్నీళ్లు	-11.2793
▁ఫ్రిజ్	-11.2793
്	-11.2793
▁నిలిపివేశారు	-11.2793
▁కన్యారాశి	-11.2793
▁సోనియాగాంధీ	-11.2794
▁రష్యన్	-11.2794
▁సమన్లు	-11.2794
▁దొంగతనాల	-11.2794
▁పీఆర్	-11.2794
▁యాక్టింగ్	-11.2794
▁విజయశాంతి	-11.2794
▁వీఐపీ	-11.2795
▁దినేష్	-11.2795
▁جب	-11.2795
▁చెబుతుంటారు	-11.2796
సరికి	-11.2798
▁అడవుల్లో	-11.2799
▁తెలియాలంటే	-11.28
▁స్వీప్	-11.28
▁ఆందోళనకారుల	-11.28
▁తయారీలో	-11.28
▁పొత్తులు	-11.28
కపోవడమే	-11.28
▁ఎత్తుకెళ్ల	-11.2801
▁సమయ	-11.2802
▁యావత్	-11.2804
▁వెయ్య	-11.2804
▁ఇక్క	-11.2805
▁చూపిస్తుంది	-11.2805
వెళ్ల	-11.2805
▁ఏర్పడిందని	-11.2805
▁మరొకరి	-11.2807
▁త్రీ	-11.2807
▁చివర	-11.2807
▁ప్రతిష్టాత్మక	-11.2809
▁స్టేజ్	-11.2809
▁అధ్యయనాలు	-11.2812
▁మనల్ని	-11.2813
▁చెప్పొచ్చు	-11.2814
▁అప్పగించింది	-11.2815
▁ప్రియుడి	-11.2817
గ్రామ్	-11.2819
▁మేనేజ	-11.2819
కముందు	-11.2822
కోసారి	-11.2822
ంచాల	-11.2825
▁మెటా	-11.2825
▁కతాలో	-11.2831
▁సాక్షిగా	-11.2833
▁అన్యాయ	-11.2834
▁మారడం	-11.2839
▁నినాదంతో	-11.2839
▁ముందున్న	-11.284
▁జరుపుకుంటున్న	-11.2843
▁పంటలకు	-11.2843
سٹ	-11.2848
▁పంపాలని	-11.2851
▁అనుచర	-11.2851
▁నాయర్	-11.2852
▁ఒప్పందాలు	-11.2853
▁మాత్రమేనని	-11.2853
شن	-11.2853
▁దుర్గం	-11.2855
▁తరహాలోనే	-11.2857
▁మెయి	-11.2858
▁అతడికి	-11.2861
హారం	-11.2865
చ్చాడు	-11.2866
పారిశ్రామికవేత్త	-11.2868
▁విచారం	-11.2868
▁అందాయి	-11.287
▁తెలియజేస్త	-11.2871
▁బుల్	-11.2871
▁అనా	-11.2876
▁సాక్షి	-11.2877
▁ఒకరిపై	-11.2877
కూడా	-11.2878
▁సంధించ	-11.2879
▁దీపాల	-11.2881
▁కళాకారుల	-11.2883
▁గార్డెన్	-11.2884
▁చూపిన	-11.2887
▁ల్ల	-11.2888
▁స్నాన	-11.2889
▁పెళ్లిళ్ల	-11.2889
▁వర్షాకాలంలో	-11.2893
▁350	-11.2894
▁కోళ్ల	-11.2895
▁వస్తూ	-11.2895
▁వజ్ర	-11.2896
▁అభిమానం	-11.2899
▁దామోదర	-11.2901
▁సంజీవ	-11.2902
▁సుమ	-11.2904
ంటాయని	-11.2905
▁తీరంలో	-11.2905
▁గీతా	-11.2908
▁ఔషధ	-11.2908
▁(1)	-11.2909
▁బట్టల	-11.291
▁జులైలో	-11.291
▁దౌత్య	-11.2911
▁బాధితుడి	-11.2911
▁ఆస్పత్రుల	-11.2913
▁డీఈ	-11.2914
▁Chandrababu	-11.2917
▁అవెన్యూ	-11.2917
▁ఎగ్జిబిషన్	-11.2917
▁కొల్లాపూర్	-11.2917
▁కౌన్సెలింగ్	-11.2917
▁చారిత్రాత్మక	-11.2917
▁చిహ్నం	-11.2917
▁డిప్రెషన్	-11.2917
▁తగ్గుముఖం	-11.2917
▁పువ్వాడ	-11.2917
▁ప్రయివేట	-11.2917
▁శబరిమల	-11.2917
▁హడావిడి	-11.2917
▁రిపోర్టర్	-11.2917
▁భృతి	-11.2917
▁వదిలేయ	-11.2917
▁క్రాఫ్ట్	-11.2917
▁ముసుగు	-11.2917
▁ఐదుగురి	-11.2917
▁గోయల్	-11.2917
▁పరేడ్	-11.2917
▁ఎదగ	-11.2917
▁తెలిపే	-11.2917
▁సమర్థవంతంగా	-11.2917
▁కుజుడు	-11.2917
▁పౌడర్	-11.2917
▁చేకూర్చ	-11.2917
▁సంపత్	-11.2918
▁తెలిస్తే	-11.2918
▁గేటు	-11.2919
▁వెంకన్న	-11.2919
▁తల్లుల	-11.2919
▁పడతాయని	-11.292
▁లీజు	-11.292
▁పోచారం	-11.2921
▁నర్సింగ్	-11.2921
▁షూ	-11.2922
▁అందరు	-11.2922
▁అసత్య	-11.2923
▁కార్నర్	-11.2923
▁విష్ణువు	-11.2925
▁ఇపుడు	-11.2925
▁అందాల	-11.2926
▁టైప్	-11.2929
▁రేగ	-11.293
▁చేయకూడదు	-11.2931
▁కాశీ	-11.2931
▁పెడతారు	-11.2931
▁అక్రమాలకు	-11.2931
▁సంజీవ్	-11.2933
▁పెంచుతుంది	-11.2933
▁ఉండాల్సి	-11.2934
▁2005	-11.2936
▁వెళ్లాలంటే	-11.2937
▁పట్టణాల	-11.2937
▁భవనాన్ని	-11.2939
▁ప్లేయర్ల	-11.2941
▁నివసిస్త	-11.2942
▁తిండి	-11.2943
▁మరణించినట్లు	-11.2944
▁కార్యకర్తలతో	-11.2944
▁అంకితం	-11.2949
▁సమ్మేళన	-11.295
ಂಬ	-11.295
▁విస్తార	-11.2957
▁దశల్లో	-11.2962
జిన్	-11.2963
▁ఐసీ	-11.2964
▁మోగ	-11.2964
▁సెట్స్	-11.2964
చంద్	-11.2967
ెందుకు	-11.2968
▁బంగార	-11.2968
▁సమాధాన	-11.2969
▁పూరి	-11.2969
▁బ్యాటర్ల	-11.2969
▁చనిపోయినట్లు	-11.2971
లేదంటూ	-11.2972
▁ఆలోచిస్తున్న	-11.2972
థర్	-11.2973
IC	-11.2975
▁షాద్	-11.2976
కాదు	-11.2977
▁ఇదివరక	-11.2978
▁చంపేసి	-11.2978
▁పంది	-11.298
▁హైవేపై	-11.2982
న్యూ	-11.2983
▁చేరుకున్నాయి	-11.2984
▁కాలానికి	-11.2985
▁బెదిరించి	-11.2985
▁భూప	-11.2985
సినిమా	-11.2987
పాత్ర	-11.2992
▁ఎదుర్కో	-11.2994
گو	-11.3003
▁పారిపోయి	-11.3004
ست	-11.3005
సీపీ	-11.3009
▁ایس	-11.3011
▁భయపడి	-11.3013
▁యత్నించ	-11.3013
▁స్తంభ	-11.3014
▁యూనిట్లు	-11.3014
▁ఏనుగుల	-11.3015
▁వారాలు	-11.3016
నెస్	-11.3016
▁పశు	-11.3018
▁అబ్బ	-11.3021
వల్లి	-11.3023
▁కార్యాలయ	-11.3023
▁నిర్మాణాలను	-11.3028
టూరు	-11.3035
రత్	-11.3038
व	-11.304
▁సైన్య	-11.304
▁ముగిశాయ	-11.3042
▁అసదుద్దీన్	-11.3042
▁ప్రఖ్యాత	-11.3042
▁బౌండరీ	-11.3042
▁మ్యానిఫెస్టో	-11.3042
▁సర్క్యూట్	-11.3042
▁పర్వదిన	-11.3042
▁మిలటరీ	-11.3042
▁వృద్ధాప్య	-11.3042
▁వెలుపల	-11.3042
▁చుట్టుముట్ట	-11.3042
▁మేడారం	-11.3042
▁ధృవ	-11.3042
▁సంపాదన	-11.3042
▁కొవిడ్	-11.3042
▁జార్జ్	-11.3042
▁దూరమ	-11.3042
▁నృత్య	-11.3042
▁కెనాల్	-11.3042
▁కాషాయ	-11.3042
▁ప్రయాణీకుల	-11.3042
▁వింగ్	-11.3043
▁వెంకటేశ్వరరావు	-11.3044
గుంట	-11.3044
▁ఐకాన్	-11.3044
▁జన్మించారు	-11.3045
esh	-11.3045
▁ఇంటింటికీ	-11.3046
▁నడుస్తుంది	-11.3046
▁దీన్	-11.3046
▁సందేహాలు	-11.3046
▁కావొచ్చు	-11.3047
▁అవినీతిపై	-11.3047
ఖీ	-11.3048
▁పనితీరును	-11.3049
▁వస్తున్నారని	-11.3051
▁నీరజ్	-11.3051
▁నిరసనగా	-11.3052
▁లభిస్తుందని	-11.3054
ట్లయింది	-11.3055
▁కాంతి	-11.3059
▁మావోయిస్టుల	-11.3062
▁సోదరుడి	-11.3062
▁పల్ల	-11.3063
▁నామా	-11.3066
ణాలు	-11.3066
▁తగ్గించడానికి	-11.3067
డీఏ	-11.3071
▁ప్రకటించాలని	-11.3075
▁దళాలు	-11.3076
తప్ప	-11.3077
▁సహకరిస్త	-11.3077
▁పేర్కొన్నాడు	-11.3081
▁ఆశిస్తున్నారు	-11.3082
చేస్తున్న	-11.3084
▁ప్రారంభించాలని	-11.3087
▁కేఫ్	-11.3088
▁సంస్థలను	-11.3088
od	-11.3088
▁నీడ	-11.3089
▁ఇందు	-11.3091
▁శివుడి	-11.3091
▁జేడీ	-11.3093
▁డిగ్రీలు	-11.3095
ఫార్	-11.3095
▁నవ్వు	-11.3096
▁పర్యవేక్షణలో	-11.3098
▁పోటీల్లో	-11.3098
▁ఏరియాల్లో	-11.3102
▁వసతుల	-11.3105
▁చేయలేక	-11.3107
▁గంటల్లోనే	-11.3107
▁హిందీలో	-11.3109
జ్యోతి	-11.3112
▁ఘాటు	-11.3114
▁నిర్ణయానిక	-11.3114
▁కారణాలను	-11.3118
దానిపై	-11.3119
▁ప్రమాదాన్ని	-11.3121
▁ఇంతవరక	-11.3122
▁ప్రాజెక్టులను	-11.3126
▁వేర్వేరుగా	-11.3127
▁బట్ట	-11.3129
▁స్నేహితులతో	-11.3133
▁బెదిరింపులు	-11.3134
ప్రజల	-11.3136
▁ఢ	-11.3136
▁అల్లర్ల	-11.3137
▁జరుగుతూ	-11.3139
▁లోపాలు	-11.3141
▁ఆరోపించ	-11.3141
▁జీతాల	-11.3144
రెడ్	-11.3144
ఎమ్	-11.3145
▁మొదటిసారిగా	-11.3149
▁జారి	-11.3149
ఎంపీ	-11.315
▁కొనసాగుతున్నారు	-11.315
▁79	-11.315
▁గుల్	-11.3151
▁చార్జీలు	-11.3151
▁మోడ్	-11.3153
▁తంగ	-11.3157
▁కంపెనీల్లో	-11.3163
నాధ్	-11.3164
▁వివరిస్త	-11.3165
▁ఎన్నికల్లోనూ	-11.3167
▁థ్రిల్	-11.3168
भ	-11.3168
▁Breaking	-11.3168
▁ఆశీర్వదించ	-11.3168
▁కాలిఫోర్నియా	-11.3168
▁డిఫరెంట్	-11.3168
▁పథకానికి	-11.3168
▁ముషీరాబాద్	-11.3168
▁సత్కరించ	-11.3168
ଖ	-11.3168
▁అనుగ్రహం	-11.3168
▁ఫ్యూచర్	-11.3168
▁స్మారక	-11.3168
▁సింపుల్	-11.3168
▁సామ్రాజ్య	-11.3168
▁తరలివచ్చార	-11.3168
▁ಪೋಸ್ಟ	-11.3168
▁స్పిన్	-11.3169
ದಾ	-11.3169
▁విషెస్	-11.3169
ప్పుడల్లా	-11.317
వంతంగా	-11.317
▁చేసుకోవచ్చని	-11.3172
▁దీప్తి	-11.3175
▁వాకింగ్	-11.3178
ియట్	-11.318
▁తరాల	-11.318
▁ఆంక్షల	-11.3182
▁ఆగిపోయ	-11.3183
▁రచించ	-11.3183
▁కండక్టర్	-11.3184
▁దామోదర్	-11.3185
▁పోషిస్తున్నారు	-11.3185
▁నిద్రలే	-11.3187
▁అడ్డుకోవడం	-11.3188
▁ఆక్రమణల	-11.3189
రించారు	-11.319
▁డీఎం	-11.319
pa	-11.3193
▁ఇస్తున్నామని	-11.3193
▁చెల్లించుకున్న	-11.3194
▁అప్రమత్తమైన	-11.3198
▁క్యాపిటల్స్	-11.3199
▁చిప్	-11.32
▁నటించి	-11.3201
బాజ్	-11.3202
ొకరు	-11.3202
▁మేనిఫెస్టోను	-11.3204
▁సుఖ్	-11.3206
▁వేశాడు	-11.3208
▁నిర్ధారించారు	-11.3209
▁బెయి	-11.3212
కళ	-11.3212
▁సమం	-11.3213
రియర్	-11.3213
▁శివారు	-11.3216
▁వేడుకకు	-11.3216
▁యుద్ధానికి	-11.3218
▁ڈ	-11.3221
▁భాను	-11.3224
▁కోల్పోవడం	-11.3224
▁పాల్గొంట	-11.3225
▁నిప్పులు	-11.3229
▁పూర్తిచేయ	-11.3229
వేర్	-11.3231
▁అవిశ్వాసం	-11.3232
స్థాయిలో	-11.3232
▁భీమ్	-11.3234
▁చంపి	-11.3235
థీ	-11.3235
▁అనుకుంటున్నా	-11.3238
▁మళ్ల	-11.324
ఏప్రిల్	-11.324
▁రంగులు	-11.3241
▁ڈی	-11.3243
▁ఎక్కించ	-11.3246
▁శుభ్రంగా	-11.3248
▁వాణి	-11.3252
▁చుక్క	-11.3253
▁రాయలసీమలో	-11.3257
▁పడుతూ	-11.3258
▁అవకతవకల	-11.3263
▁గణాంకాల	-11.3263
▁పాపం	-11.3271
ెవరూ	-11.3271
▁తెచ్చే	-11.3271
▁చెప్పలేదు	-11.3271
▁పట్టణం	-11.3278
▁పురుగు	-11.3278
▁చూశాం	-11.328
న్యాస	-11.3281
బెట్టి	-11.3284
మంటే	-11.3284
▁మూడ	-11.3289
▁చవి	-11.3295
▁ఆర్డినెన్స్	-11.3297
▁ఎక్కడికక్కడ	-11.3297
▁ఏమిటంటే	-11.3297
▁కంటైనర్	-11.3297
▁గడ్కరీ	-11.3297
▁ఛేదనలో	-11.3297
▁జడ్చర్ల	-11.3297
▁తాడిపత్రి	-11.3297
▁పుణె	-11.3297
▁మొక్కజొన్న	-11.3297
▁సైన్సెస్	-11.3297
▁కూర్చొని	-11.3297
▁సోర్సింగ్	-11.3297
▁ఆక్సిడెంట్	-11.3297
▁సునామీ	-11.3297
▁స్కెచ్	-11.3297
▁పగటి	-11.3297
▁టర్కీ	-11.3297
▁సుమలత	-11.3297
▁పూర్వీకుల	-11.3297
▁లంచ్	-11.3297
▁జన్మదిన	-11.3297
▁వైయస్సార్	-11.3297
▁ఈశ్వర్	-11.3297
▁గార్డు	-11.3297
▁సీతారాం	-11.3297
▁ప్రవర్తిస్త	-11.3298
▁విజయసాయిరెడ్డి	-11.3298
▁మెరుగుపరచ	-11.3298
▁సబితా	-11.3298
▁గోవర్ధన్	-11.3298
▁పుష్కర	-11.3298
▁వెంకయ్య	-11.3298
▁రెబల్	-11.3298
▁సాగునీరు	-11.3298
▁రోగులు	-11.3298
▁విన్నర్	-11.3299
▁డివైజ్	-11.3299
ना	-11.3299
▁చేశాక	-11.3301
▁ఎన్నిసార్లు	-11.3301
▁పడిపోయాయి	-11.3302
▁ఐడియా	-11.3303
▁ఆదాయపు	-11.3304
ఫిక్	-11.3305
▁నక్షత్ర	-11.3307
▁గుడిసె	-11.3307
▁చర్చించనున్నారు	-11.3307
▁క్లీ	-11.3307
▁మతాల	-11.331
▁రాయుడు	-11.3312
▁ఆదర్శంగా	-11.3314
▁ప్రమాదకరంగా	-11.3317
ిస్తోందని	-11.3318
[...]
