<unk>	0
<s>	0
</s>	0
.	-2.97239
▁	-4.09049
,	-4.45605
▁,	-4.59621
ు	-4.68168
లో	-4.81206
ం	-4.81935
ని	-4.81954
్	-4.90397
కు	-4.92285
ి	-4.93484
▁ఈ	-4.94963
ను	-5.00002
గా	-5.03473
▁లో	-5.05143
లు	-5.31107
న	-5.3725
ా	-5.42523
ే	-5.4669
ల	-5.47775
స్	-5.52002
కి	-5.55008
▁కు	-5.56023
తో	-5.58886
ారు	-5.68138
▁..	-5.72754
▁ఆ	-5.80595
▁ను	-5.809
▁నుంచి	-5.84004
▁కూడా	-5.85
▁తో	-5.95243
వ	-5.95878
ల్	-5.97169
ంగా	-5.98021
▁గా	-6.07464
నే	-6.07575
ర్	-6.08865
ాన్ని	-6.08939
ానికి	-6.10436
త	-6.11974
పై	-6.12797
ీ	-6.16217
▁చేశారు	-6.17625
క	-6.20666
న్	-6.22532
▁పై	-6.25383
ూ	-6.25694
▁(	-6.27313
▁.	-6.36008
▁అని	-6.38406
ర	-6.40181
▁ఆయన	-6.43132
▁ని	-6.44364
▁తన	-6.46167
:	-6.481
▁పార్టీ	-6.4914
ిన	-6.4923
▁అ	-6.4998
▁ఉన్న	-6.51032
▁"	-6.52781
▁రెడ్డి	-6.52823
క్	-6.55703
▁కాంగ్రెస్	-6.57811
మ	-6.58203
▁రూ	-6.59287
▁ఒక	-6.59369
▁కి	-6.61527
▁న	-6.64999
ట్	-6.65036
▁కోసం	-6.65047
)	-6.65486
▁క	-6.68389
▁మంది	-6.68735
▁లు	-6.69098
ాయి	-6.69347
▁మ	-6.69526
▁వ	-6.69767
▁చేసిన	-6.72343
ాడు	-6.7271
▁అయితే	-6.72866
▁ల	-6.73223
▁చెప్పారు	-6.74896
▁ఏ	-6.74916
య	-6.76137
▁ప్రభుత్వం	-6.76485
▁ఓ	-6.76897
రి	-6.77396
ింది	-6.78583
▁తెలిపారు	-6.78965
▁తర్వాత	-6.81178
▁-	-6.81854
ట	-6.82143
డం	-6.82365
ో	-6.8323
ాల	-6.83631
ప	-6.85055
▁ప	-6.85133
లను	-6.86873
డ	-6.86926
▁పాటు	-6.9023
▁ఉంది	-6.90768
గ	-6.9224
▁అన్నారు	-6.92999
ది	-6.93325
▁:	-6.93704
▁సీఎం	-6.95959
▁తెలంగాణ	-6.97045
▁మంత్రి	-6.97748
డ్	-6.98099
రు	-6.98353
▁బీజేపీ	-6.99871
▁చాలా	-7.00051
▁త	-7.00654
ాలు	-7.01645
న్న	-7.01649
మైన	-7.04188
▁రెండు	-7.04878
ారని	-7.0583
?	-7.05883
▁నా	-7.05911
రా	-7.07818
▁స	-7.0799
▁స్	-7.08068
లా	-7.08326
▁ఎన్నికల	-7.08539
▁తమ	-7.08777
ాలని	-7.0965
▁దీంతో	-7.09705
ేందుకు	-7.10698
స	-7.10741
▁వి	-7.13337
▁వరకు	-7.1395
▁రాష్ట్ర	-7.1435
్లో	-7.14402
▁హైదరాబాద్	-7.15096
▁కానీ	-7.15104
▁చంద్రబాబు	-7.156
▁ర	-7.16832
▁చెందిన	-7.17049
▁వారి	-7.17126
▁జిల్లా	-7.17276
ణ	-7.17656
▁ఆమె	-7.17665
▁చేసి	-7.18363
▁పోలీసులు	-7.18755
▁చేసింది	-7.1908
▁లోని	-7.19616
▁మా	-7.20384
▁సినిమా	-7.21159
ద	-7.22698
డి	-7.23989
▁ప్రభుత్వ	-7.24389
▁అధికారులు	-7.24442
▁కొత్త	-7.25016
డానికి	-7.27441
నా	-7.27523
▁సమయంలో	-7.27865
▁ఎ	-7.28209
టి	-7.28858
▁మధ్య	-7.28962
ల్లో	-7.29037
▁రా	-7.29078
▁కా	-7.29462
▁నే	-7.30081
▁ఇది	-7.3024
▁లేదు	-7.30607
మ్	-7.31777
ింగ్	-7.32334
ట్లు	-7.32857
▁అనే	-7.34174
▁గ	-7.35059
▁పెద్ద	-7.35458
▁""	-7.35477
▁జగన్	-7.36502
▁మరో	-7.36625
డు	-7.37677
ె	-7.37765
▁ఇప్పుడు	-7.37933
చ	-7.38203
వి	-7.38279
ంది	-7.3969
▁కేసీఆర్	-7.40058
▁ఎమ్మెల్యే	-7.40743
▁బీఆర్ఎస్	-7.40992
ప్	-7.41664
▁ఇక	-7.41882
జ్	-7.41938
▁ద్వారా	-7.42849
ైన	-7.42916
▁ది	-7.43373
▁వారు	-7.43426
వా	-7.43629
▁జ	-7.44802
లకు	-7.44851
మా	-7.45658
త్	-7.46092
▁ఏర్పాటు	-7.46278
▁కొన్ని	-7.4655
రీ	-7.47644
▁బ	-7.4779
జ	-7.47836
హ	-7.48542
సీ	-7.49233
▁కే	-7.49292
లి	-7.49402
▁ఉంటుంది	-7.5043
▁అవకాశం	-7.50733
సి	-7.50838
▁వల్ల	-7.50841
"	-7.50991
▁వద్ద	-7.51118
కా	-7.51178
▁జరిగిన	-7.51606
▁పోటీ	-7.52245
బ	-7.5228
▁మాజీ	-7.52788
▁హ	-7.53226
▁పని	-7.53488
▁2	-7.53661
▁భారీ	-7.54083
▁వేల	-7.54126
▁ప్రస్తుతం	-7.54469
▁కేంద్ర	-7.55226
▁ప్ర	-7.55779
పు	-7.56088
▁పూర్తి	-7.56168
▁10	-7.56188
కే	-7.57026
శ	-7.57203
▁ముందు	-7.57219
▁వచ్చే	-7.58178
▁చేస్తున్నారు	-7.58353
▁ద	-7.58419
▁కలిసి	-7.58529
▁ము	-7.58768
▁కోట్ల	-7.59506
▁రేవంత్	-7.60113
▁శాఖ	-7.60394
▁భారత్	-7.60547
▁)	-7.60636
▁వెలుగు	-7.60636
▁ఎన్నికల్లో	-7.60874
▁కో	-7.61153
▁వా	-7.61165
▁ప్రతి	-7.61394
▁ప్రజల	-7.61414
▁శాతం	-7.61893
మి	-7.62393
▁వచ్చిన	-7.625
▁గత	-7.6283
▁లను	-7.6292
కుండా	-7.63015
▁మూడు	-7.6411
▁చేసే	-7.64986
▁లక్షల	-7.65501
▁టీడీపీ	-7.65506
▁ఇప్పటిక	-7.6561
న్నారు	-7.6576
▁లా	-7.66502
▁ా	-7.66831
▁మే	-7.6695
▁మీ	-7.67465
▁రోజు	-7.67603
▁అన్ని	-7.67751
నీ	-7.67824
తి	-7.67831
▁గురించి	-7.68327
▁ఇ	-7.68338
▁పవన్	-7.68345
▁3	-7.68681
-	-7.6871
▁కీలక	-7.69261
▁8	-7.69263
▁రాష్ట్రంలో	-7.69512
▁చ	-7.69627
▁విడుదల	-7.69722
▁సభ	-7.70147
ష్	-7.70541
▁లేదని	-7.70547
▁'	-7.7062
▁తీవ్ర	-7.70636
▁మ్యాచ్	-7.70682
▁ఆర్	-7.71154
▁మాత్రం	-7.72019
ాలి	-7.72145
కో	-7.72272
▁ఉందని	-7.72738
ామని	-7.73031
▁మొత్తం	-7.737
▁...	-7.73777
▁వైసీపీ	-7.74125
య్య	-7.74292
జీ	-7.75122
▁5	-7.75793
▁విచారణ	-7.75833
▁ఉన్నారు	-7.75986
▁ప్రత్యేక	-7.76048
▁కుమార్	-7.76167
ుల	-7.7622
▁ఉన్నాయి	-7.76392
▁వ్యక్తం	-7.76607
▁కేసు	-7.7664
టీ	-7.77124
▁ఎంపీ	-7.77218
మ్మ	-7.77868
▁మాత్రమే	-7.7794
▁విషయం	-7.78012
ై	-7.79254
ధ	-7.79854
ష	-7.79941
▁సమాచారం	-7.80277
▁నెల	-7.80371
▁19	-7.81076
▁అసెంబ్లీ	-7.81386
గ్	-7.81508
▁సందర్భం	-7.81582
▁మీద	-7.82309
▁వారికి	-7.82459
▁చేయడం	-7.82642
▁ఎక్కువ	-7.82766
▁ముఖ్యమంత్రి	-7.82821
▁9	-7.82854
ے	-7.83031
▁చేయాలని	-7.83154
▁1	-7.83264
▁చెప్ప	-7.83538
▁వాటి	-7.83621
▁మన	-7.83641
దా	-7.83802
▁ఎస్	-7.84008
▁4	-7.84404
5	-7.84756
▁ప్రధాన	-7.84934
▁అంత	-7.84965
▁భారత	-7.85071
▁ఎలా	-7.85219
▁నుండి	-7.85251
యం	-7.85792
▁ప్రధాని	-7.86366
▁య	-7.86877
వు	-7.8722
▁పలు	-7.87331
▁ఘటన	-7.87373
ులు	-7.87454
▁అదే	-7.87583
▁ప్రజలు	-7.87616
బ్	-7.87945
▁మంచి	-7.88283
▁టీ	-7.88526
▁సీ	-7.88799
▁లేదా	-7.88868
6	-7.88914
▁జిల్లాలో	-7.89398
▁తాను	-7.89553
▁ఇన్	-7.8959
4	-7.89606
▁లే	-7.89626
ళ్ల	-7.8977
ంత	-7.90156
డంతో	-7.90288
▁వంటి	-7.9033
▁చేస్తున్న	-7.90628
2	-7.9064
ఎలాంటి	-7.91044
▁మోదీ	-7.91144
▁ప్రకారం	-7.91385
▁సోషల	-7.91463
ంచ	-7.9159
దు	-7.92113
▁దీని	-7.92603
9	-7.9276
ండి	-7.92786
▁పో	-7.93564
▁ఇతర	-7.93861
▁మహిళ	-7.93927
▁20	-7.94111
▁అంటూ	-7.94147
▁రావు	-7.94615
▁సి	-7.94722
టా	-7.94924
▁బీ	-7.95665
▁దేశ	-7.9567
▁కాదు	-7.95847
▁6	-7.96077
▁రోజుల	-7.96191
ండ	-7.96207
ఫ్	-7.96244
▁ఐ	-7.96445
యా	-7.96547
ی	-7.96697
▁చేయ	-7.96722
▁నేతలు	-7.96847
▁చర్యలు	-7.97447
▁ఏపీ	-7.97461
▁మీడియా	-7.97561
7	-7.97663
▁ఉ	-7.97668
▁మెంట్	-7.97687
▁అంద	-7.97895
▁వీడియో	-7.97947
▁అన్న	-7.98004
▁పేరు	-7.98088
ద్	-7.9809
▁ఆర్థిక	-7.9837
తు	-7.98422
▁ఏడాది	-7.98794
▁సంస్థ	-7.9917
▁సు	-7.99206
0	-7.99294
మే	-7.99373
▁అంటే	-7.99584
▁దగ్గర	-7.99757
▁వ్యక్తి	-7.99771
▁కోర్టు	-7.99773
▁ఇదే	-7.99868
▁ఇండియా	-7.9997
▁7	-7.99983
▁అభివృద్ధి	-8.00077
▁తప్ప	-8.00179
▁సా	-8.00216
e	-8.00696
▁ఇచ్చిన	-8.01132
▁అధికారుల	-8.01199
▁12	-8.01342
సారి	-8.01402
ప్పుడు	-8.01439
▁అలాగే	-8.01542
ున్న	-8.02013
▁కింద	-8.02205
▁కోట్లు	-8.02313
▁11	-8.0244
▁దాడి	-8.02544
1	-8.02731
▁రి	-8.03238
వీ	-8.04022
ంటే	-8.04182
▁15	-8.04462
▁పేర్కొన్నారు	-8.0458
ుడు	-8.0464
ట్టు	-8.04648
ا	-8.04734
▁చిన్న	-8.04858
ుకున్న	-8.05268
3	-8.05276
▁ఉండే	-8.05577
▁ఇలా	-8.05678
▁అది	-8.05758
▁పెట్ట	-8.05867
▁డిమాండ్	-8.06046
▁రాజకీయ	-8.06123
▁ఉదయ	-8.06242
▁తాజాగా	-8.06392
ద్ద	-8.07166
పి	-8.07442
▁డ	-8.07454
▁తెలిపింది	-8.0753
▁పరిస్థితి	-8.07595
▁చెబుతున్నారు	-8.07629
▁మి	-8.07646
ళ	-8.07688
ట్ట	-8.07791
▁కుటుంబ	-8.08008
▁గంటల	-8.08172
▁దాదాపు	-8.08869
▁మె	-8.08896
▁అమలు	-8.09058
▁సంబంధించిన	-8.09323
▁లకు	-8.09356
▁గతంలో	-8.09566
▁గాంధీ	-8.09882
▁బా	-8.09905
▁డీ	-8.10017
8	-8.10278
తా	-8.10393
గు	-8.10953
▁ఢిల్లీ	-8.11267
▁పడ	-8.11293
▁ఇటీవల	-8.11555
ప్ప	-8.11589
▁నిర్ణయం	-8.11676
▁అనేక	-8.11833
▁మాట్లాడుతూ	-8.11873
రం	-8.12202
టర్	-8.12284
▁భాగంగా	-8.1244
▁మూవీ	-8.12495
యి	-8.12496
▁ఫోన్	-8.12654
లేదు	-8.1294
యో	-8.13257
మీ	-8.13342
లీ	-8.13505
షన్	-8.13693
▁అనంతర	-8.13891
▁కారణంగా	-8.13959
▁?	-8.14138
▁నమోదు	-8.14313
లే	-8.14684
▁జరిగింది	-8.14822
▁తొలి	-8.1511
▁తరువాత	-8.15222
▁ఇందులో	-8.15587
▁లేకుండా	-8.15651
భ	-8.15777
▁శ్రీ	-8.15864
▁ధర	-8.15897
రో	-8.1595
▁విషయంలో	-8.16273
కీ	-8.1629
▁ారు	-8.16434
▁జారీ	-8.16735
▁నేత	-8.16955
▁తెలుగు	-8.17297
చి	-8.17438
▁బయట	-8.17445
▁సం	-8.17625
▁వచ్చింది	-8.17658
▁అక్కడ	-8.17749
ంద	-8.17819
▁ఎన్	-8.18151
ందని	-8.18168
▁పాత్ర	-8.1818
సు	-8.18185
వెంటనే	-8.18318
▁నేపథ్యంలో	-8.18416
▁సింగ్	-8.18451
▁శ	-8.18841
▁ఉండ	-8.19001
జి	-8.19182
▁ఆఫ్	-8.19406
▁కేసులో	-8.19436
▁ప్రచారం	-8.19773
థ	-8.199
▁చేర	-8.19931
▁ఎక్కువగా	-8.20115
▁దేశంలో	-8.20516
నం	-8.20583
▁ంచ	-8.20672
▁ప్రపంచ	-8.2074
▁తెలంగాణలో	-8.20899
▁వై	-8.20916
వ్	-8.21286
ಿ	-8.21306
ఎస్	-8.21463
▁పోలీసుల	-8.21594
▁ఫొటో	-8.21763
▁భ	-8.2191
ాయని	-8.21963
▁ఇచ్చారు	-8.22025
▁మళ్ల	-8.22159
▁అధికారంలో	-8.22342
సా	-8.22437
▁ఆందోళన	-8.22641
▁షా	-8.22704
▁కాగా	-8.22761
ుతున్న	-8.22934
▁పెంచ	-8.2311
▁రాహుల్	-8.23677
▁నేను	-8.23802
▁డి	-8.24079
▁ఎంత	-8.24386
▁రైతుల	-8.24445
ఫ	-8.24473
నూ	-8.2449
జా	-8.24595
▁14	-8.25062
▁⁬	-8.25092
పా	-8.25111
రే	-8.25467
▁జీ	-8.25469
్య	-8.25579
▁పైన	-8.25632
గి	-8.25954
▁అభ్యర్థి	-8.26085
ైనా	-8.26096
▁వెళ్ల	-8.26128
▁30	-8.2614
▁లోక్	-8.26157
▁బి	-8.26181
▁గుర్తు	-8.26195
o	-8.26263
▁పి	-8.26295
▁ప్రమాదం	-8.26314
▁నాలుగు	-8.26442
▁కంపెనీ	-8.26958
▁ఖ	-8.27017
టం	-8.2709
▁తేదీ	-8.27145
▁క్రమంలో	-8.27231
▁అతని	-8.27335
▁పా	-8.2764
▁ఒక్క	-8.27696
ంగ	-8.27876
▁మరింత	-8.27965
a	-8.28436
▁ఏం	-8.2858
▁చేస్తూ	-8.28669
▁మీడియాలో	-8.28672
▁చర్చ	-8.28791
▁స్టార్	-8.28885
ౌ	-8.29152
పీ	-8.29158
▁దాని	-8.29175
▁పాల్గొన్నారు	-8.29471
▁అయిన	-8.29496
▁అందుకే	-8.29652
▁తెలుస్తోంది	-8.29809
▁తిరిగి	-8.30114
▁స్పష్టం	-8.30179
▁రాత్రి	-8.30261
▁ఉంటే	-8.30386
వే	-8.30531
▁ఎం	-8.30963
▁వాళ్ల	-8.31081
డీ	-8.312
▁హీరో	-8.31456
▁వీటి	-8.31845
▁ఇలాంటి	-8.31851
▁మేరకు	-8.31921
▁కంటే	-8.31951
▁18	-8.32146
▁ఎందుకు	-8.32288
▁ఫిర్యాదు	-8.32585
▁జట్టు	-8.32666
▁ల్లో	-8.32798
▁హైకోర్టు	-8.32805
బీ	-8.32964
పో	-8.33715
▁కేటీఆర్	-8.33733
ొ	-8.33772
▁ఆరోపించారు	-8.33832
▁విజయ	-8.33956
و	-8.34212
▁విజయం	-8.34485
▁జనసేన	-8.34721
▁జాతీయ	-8.3489
▁కలెక్టర్	-8.34946
▁ఇక్కడ	-8.3498
20	-8.35051
▁నాయకులు	-8.35096
▁అరెస్ట్	-8.35202
క్ష	-8.35245
ು	-8.3534
▁వైరల్	-8.35391
▁లైన్	-8.35427
ంటూ	-8.35463
▁ఇవ్వ	-8.35489
▁స్టేషన్	-8.35634
▁సిబ్బంది	-8.35781
▁ఇంటి	-8.35814
▁ప్రకటన	-8.35949
▁తెలిసిందే	-8.36006
▁చి	-8.36057
▁అధ్యక్షుడు	-8.3635
▁నగర్	-8.36403
వర్	-8.36439
లతో	-8.36526
ఎం	-8.36561
ంగ్	-8.36689
▁మో	-8.36902
ر	-8.37091
▁వెళ్లి	-8.37125
▁తీసుకున్న	-8.37256
మని	-8.37417
▁ఏళ్ల	-8.37617
▁రెండో	-8.37803
▁పీ	-8.37927
కర	-8.38047
▁ట్లు	-8.38098
ఆర్	-8.38169
▁వీ	-8.38508
▁సమస్య	-8.38877
▁వే	-8.38882
▁రోజులు	-8.39076
▁నీటి	-8.39117
▁ట	-8.39229
▁వెల్లడించారు	-8.39235
▁మొదటి	-8.39688
▁ంది	-8.39737
▁పైగా	-8.39748
▁కొందరు	-8.39754
▁మాట్లాడ	-8.39767
▁మరి	-8.39857
▁ర్	-8.39966
▁అందులో	-8.40021
ుగా	-8.40324
స్ట్	-8.40337
▁దృష్టి	-8.40382
న్నీ	-8.40401
▁చె	-8.4079
▁భార్య	-8.4084
▁ఏపీలో	-8.40849
▁కాకుండా	-8.40918
▁కమిటీ	-8.41006
▁ఆరోగ్య	-8.4108
▁వె	-8.41117
▁వచ్చి	-8.41226
▁పోలీస్	-8.41776
▁అమెరికా	-8.41974
▁13	-8.42049
ినట్లు	-8.42117
▁2024	-8.42312
ಾ	-8.42465
ل	-8.42465
▁పిల్లల	-8.42517
ము	-8.42524
ంట	-8.42537
▁ک	-8.42559
▁పంప	-8.42769
▁జా	-8.43031
▁సె	-8.43037
ానని	-8.43326
▁ఇంకా	-8.43469
▁మద్దతు	-8.43632
▁ఇద్దరు	-8.43688
▁హత్య	-8.44081
▁25	-8.441
ితే	-8.44316
▁తనకు	-8.44352
రోజు	-8.44356
▁24	-8.44373
▁కోరారు	-8.44397
▁ఆంధ్రప్రదేశ్	-8.44546
▁దా	-8.44553
▁మార్కెట్	-8.44672
▁పనులు	-8.44842
▁నీ	-8.4498
▁బో	-8.4498
▁17	-8.45059
▁మార్చ	-8.45189
▁16	-8.45722
▁లి	-8.46416
త్త	-8.4653
▁కేవలం	-8.46582
▁మారింది	-8.46628
కర్	-8.46884
▁ఇంట్లో	-8.47158
▁ష	-8.47191
ା	-8.4727
క్క	-8.47365
▁సీనియర్	-8.47396
▁మోడీ	-8.47486
▁పొంద	-8.47505
▁ం	-8.47612
▁గ్రామ	-8.47711
▁ఎక్స్	-8.47764
ఐ	-8.47777
▁ప్రాంతాల్లో	-8.47914
▁అవ	-8.47997
▁యా	-8.48144
▁ఆడ	-8.48309
▁అమ్మ	-8.4831
▁తా	-8.48398
▁సూచించారు	-8.48544
▁కేంద్రం	-8.48631
ంతా	-8.48889
▁కూటమి	-8.48915
▁చేశాడు	-8.48948
ుడి	-8.48962
▁చేసుకున్న	-8.48969
త్ర	-8.49199
▁భూమి	-8.49373
▁రామ	-8.50059
▁వాడ	-8.50266
▁50	-8.50393
▁డాక్టర్	-8.50615
▁హామీ	-8.51037
▁అవసరం	-8.51304
▁వర్షాలు	-8.51448
▁అక్కడి	-8.51493
▁పెళ్లి	-8.51701
▁బాగా	-8.51763
▁ఎవర	-8.51897
▁మరోసారి	-8.51933
▁వైపు	-8.52171
▁రిలీజ్	-8.52685
మో	-8.52786
▁ఎంతో	-8.52788
▁కొనుగోలు	-8.52818
▁దు	-8.52841
s	-8.52899
▁లేని	-8.52949
▁సమయం	-8.52982
ుకునే	-8.53359
▁సమస్యల	-8.53596
▁ఉంటాయి	-8.53622
ాల్సి	-8.53642
▁ాయి	-8.53782
▁చివరి	-8.5392
▁లతో	-8.54363
▁రైల్వే	-8.54625
ివిధ	-8.5476
ందుకు	-8.5487
▁గో	-8.54951
▁అలా	-8.55157
టు	-8.55157
▁మీరు	-8.55258
▁ముఖ్య	-8.55272
ోంది	-8.55632
▁ప్రకటించారు	-8.5574
▁కొ	-8.55966
▁పరిధిలో	-8.55995
ేషన్	-8.56083
▁మరియ	-8.56274
▁ఫ	-8.56419
▁త్వరలో	-8.56672
▁మృతి	-8.5681
▁వైఎస్	-8.56895
బా	-8.57057
▁స్థానిక	-8.57142
▁పోలింగ్	-8.57172
▁గంటలకు	-8.57409
ెట్	-8.57424
▁నేతల	-8.57508
▁పరుగులు	-8.5751
నున్నారు	-8.57567
క్స్	-8.57662
చ్చ	-8.57674
▁వ్యాఖ్యలు	-8.57688
యూ	-8.57791
▁డైరెక్టర్	-8.58128
▁ాడు	-8.58224
ధి	-8.58642
▁శివ	-8.58661
▁!	-8.58752
▁రోడ్డు	-8.58858
▁సర్వే	-8.58884
▁ఖర్చు	-8.58974
ି	-8.59141
▁ప్రాజెక్టు	-8.593
ہ	-8.59356
▁అధికార	-8.59454
పడ	-8.5947
▁అతి	-8.59676
▁రోజుల్లో	-8.59951
▁జూన్	-8.6
▁నిర్వహించారు	-8.60135
▁2023	-8.60186
▁ముందుకు	-8.60216
చ్	-8.60368
▁పు	-8.60382
ించారు	-8.60532
▁పార్టీలో	-8.60544
▁సంబంధించి	-8.60579
t	-8.60594
పల్లి	-8.6081
ిక	-8.60923
▁తెలియ	-8.60925
▁ఐదు	-8.61037
▁శుక్రవారం	-8.61113
ిస్తున్న	-8.61122
▁ప్రభావం	-8.61337
ఏ	-8.61358
▁వీరి	-8.61375
▁క్రికెట్	-8.61691
▁చైర్మన్	-8.61837
▁అత	-8.61962
▁టికెట్	-8.62187
S	-8.62453
▁వివరించారు	-8.62495
▁బల	-8.62579
బి	-8.62609
▁ారని	-8.62669
▁చేస్తే	-8.62682
▁సోమవారం	-8.62712
▁మరోవైపు	-8.62728
▁నాటి	-8.62801
▁శ్రీనివాస్	-8.62816
▁చా	-8.62873
▁ప్రాంతంలో	-8.63049
▁దీనిపై	-8.63227
▁డా	-8.63666
▁దీనికి	-8.63724
▁ప్రజా	-8.63746
▁జరిగే	-8.63816
▁సాయంత్ర	-8.64055
▁తగ్గ	-8.64214
▁పార్లమెంట	-8.64223
ూరు	-8.64505
▁అధినేత	-8.64559
▁అంచనా	-8.64603
▁రీ	-8.6465
▁దేవ	-8.64818
▁ఉంటుందని	-8.64937
▁రాశి	-8.65246
▁కట్ట	-8.65366
▁వస్తున్న	-8.65484
▁పె	-8.65595
్యూ	-8.65988
దే	-8.66011
▁క్ర	-8.66219
▁బంగారం	-8.66224
▁22	-8.66231
▁ప్రశ్నించారు	-8.6642
▁ఎన్నికలు	-8.66438
▁అండ్	-8.66583
▁వస్తే	-8.66647
▁రాష్ట్రాల	-8.66821
▁తక్కువ	-8.66855
▁మార	-8.6692
▁ఉంచ	-8.66946
▁ే	-8.67024
▁కారు	-8.6715
▁ఎక్కడ	-8.6747
i	-8.67566
▁కేసులు	-8.67628
▁మార్చి	-8.67661
▁పార్టీల	-8.67683
▁చేయడానికి	-8.67759
▁తేదీన	-8.67818
స్త	-8.67878
▁ఆరు	-8.67938
డా	-8.67999
▁కథ	-8.68091
▁పేరుతో	-8.68114
▁కవిత	-8.68136
▁వ్యవస్థ	-8.68214
▁అందించ	-8.68357
▁చేసేందుక	-8.68399
ణి	-8.68471
▁ఎల్	-8.68615
▁రైతు	-8.68661
▁నేడు	-8.68708
▁సమ	-8.68779
జన్	-8.68845
మంగళవారం	-8.68862
▁ఆదివారం	-8.68905
▁గు	-8.68979
▁దర్యాప్తు	-8.68982
▁తల	-8.6905
▁బాబు	-8.6907
▁కొంత	-8.69183
▁పేర్కొంది	-8.69216
▁రద్దు	-8.69609
▁విలువ	-8.69615
▁సో	-8.69633
▁హై	-8.69647
▁చీఫ్	-8.69701
h	-8.69757
▁లలో	-8.70119
హా	-8.70134
కం	-8.70268
▁సంఖ్య	-8.70298
▁ఆరోపణలు	-8.70392
▁చేశారని	-8.70398
▁సహా	-8.70541
▁ఎమ్మెల్సీ	-8.70633
ంబ	-8.70732
చు	-8.70827
▁ఓటు	-8.70852
శ్	-8.71097
▁సంజయ్	-8.71269
▁మండలం	-8.71269
ాల్సిన	-8.71395
ేలా	-8.71413
▁శనివారం	-8.7151
▁వరకూ	-8.7151
▁ప్రేమ	-8.71628
▁లాంటి	-8.71649
్యా	-8.71663
▁రైతులు	-8.7167
""	-8.71721
▁ప్రాంతాల	-8.71755
▁అయ్యారు	-8.71943
▁ఇజ్రాయెల్	-8.72177
▁భర్త	-8.72262
తాము	-8.72328
▁పనుల	-8.72385
▁లోకి	-8.72392
ిందని	-8.72405
▁హా	-8.72435
▁బె	-8.72552
▁శా	-8.72617
▁పోస్ట్	-8.72686
ుంది	-8.72734
▁భూ	-8.72737
▁కొట్ట	-8.7274
▁పే	-8.73208
ెన్	-8.73844
రావు	-8.73848
ించి	-8.74007
▁21	-8.74071
▁రైలు	-8.74091
రణ	-8.74213
▁లేక	-8.74326
▁కప్	-8.74534
దీ	-8.7468
ట్ల	-8.74785
▁వాళ్లు	-8.74843
▁ఒకే	-8.74856
▁ించ	-8.75042
▁కార్యక్రమంలో	-8.75096
త్యంత	-8.75372
▁పదవి	-8.75381
ాల్లో	-8.75484
▁చూప	-8.75742
స్తున్న	-8.75765
▁తయారు	-8.75842
▁యూ	-8.76119
▁ఇప్పటి	-8.76147
▁సభ్యులు	-8.76329
▁తల్లి	-8.76378
▁లోనూ	-8.76381
▁పాట	-8.76453
▁విధంగా	-8.76523
▁స్థాయిలో	-8.76603
▁నివేదిక	-8.76709
▁చేస్తామని	-8.768
▁విమర్శించారు	-8.76893
ించ	-8.76897
▁భారీగా	-8.7697
▁టి	-8.77007
▁అయినా	-8.77008
▁జరగ	-8.77065
▁గురువారం	-8.77186
▁రు	-8.77212
▁వాతావరణ	-8.77227
▁చోటు	-8.77385
▁అక్రమ	-8.77466
A	-8.77822
.5	-8.77823
▁సై	-8.77928
▁చైనా	-8.78052
▁వరద	-8.78092
▁అధిక	-8.78253
▁మాట్లాడారు	-8.78279
▁కృష్ణ	-8.78467
▁చెప్పిన	-8.78556
▁కల్పించ	-8.7858
▁సూపర్	-8.7864
▁సమస్యలు	-8.78792
▁చికిత్స	-8.78797
ల్లా	-8.78869
▁మైన	-8.78904
▁అభ్యర్థుల	-8.79003
▁తి	-8.79005
▁రూపాయల	-8.79266
▁పల్లి	-8.79276
▁కావడంతో	-8.79337
▁బీబీసీ	-8.7941
୍	-8.79473
▁అరెస్టు	-8.7959
▁సరి	-8.79718
▁పట్ట	-8.79725
ష్ట	-8.79744
▁కార్	-8.79792
▁కర్ణాటక	-8.799
C	-8.80021
▁బెంగళూరు	-8.80339
▁మందికి	-8.80467
▁సొంత	-8.8056
▁చేసినట్లు	-8.80748
▁కనిపించ	-8.80785
▁ప్లాన్	-8.80893
▁భక్తులు	-8.80903
▁పర్యటన	-8.81156
▁వరంగల్	-8.81244
میں	-8.81244
▁బస్సు	-8.81348
కార	-8.81512
▁పొ	-8.81625
ళ్లు	-8.81701
▁ఎయిర్	-8.81863
▁నరేంద్ర	-8.81952
00	-8.81977
ండ్	-8.82044
▁కల	-8.82378
▁పెట్టి	-8.82434
▁కె	-8.82467
▁వరుస	-8.82487
▁ప్రకటించింది	-8.82494
▁రాజ్	-8.82561
▁తిరుమల	-8.82566
గో	-8.82632
▁గల	-8.82669
▁బుధవారం	-8.82755
▁చూడ	-8.82887
▁షర్మిల	-8.82933
▁విద్యుత్	-8.82945
▁న్	-8.83048
ార	-8.83125
ೆ	-8.8331
▁వరల్డ్	-8.83475
u	-8.83624
▁తండ్రి	-8.83743
▁చేయాలి	-8.83788
ک	-8.83903
▁తమకు	-8.83909
▁ఇంత	-8.83943
పేట	-8.83943
್	-8.84022
ృ	-8.84036
▁ందుకు	-8.84098
▁సభ్యుల	-8.84119
▁వివరాల	-8.84174
వచ్చు	-8.84262
▁ఉద్యోగుల	-8.84313
▁జి	-8.84435
▁జరుగుతున్న	-8.84525
▁అసలు	-8.84532
▁పిటిషన్	-8.8456
▁ఇవ్వాలని	-8.84602
▁మొ	-8.84716
▁డిసెంబర	-8.84746
▁పలువుర	-8.84753
▁పరీక్ష	-8.84903
▁40	-8.84929
కొ	-8.85213
▁కళ్యాణ్	-8.85272
▁విద్యార్థుల	-8.85278
▁రె	-8.85324
▁ఉండగా	-8.85346
▁کی	-8.85463
ార్	-8.85517
▁బెయిల్	-8.85567
ించిన	-8.8561
▁చిత్ర	-8.85624
▁దీన్	-8.85646
▁కారణం	-8.85651
▁సుప్రీంకోర్టు	-8.85659
▁స్వామి	-8.85721
▁తీర్పు	-8.85752
▁రావ	-8.8578
▁జిల్లాల్లో	-8.86086
▁అంటున్నారు	-8.86112
▁మండిపడ్డారు	-8.86121
▁జో	-8.86154
నుంది	-8.86201
▁సిరీస్	-8.86214
▁రామ్	-8.86221
న్నాయి	-8.86369
▁తప్పు	-8.86375
▁A	-8.86435
g	-8.86483
▁షేర్	-8.86496
▁భక్తుల	-8.86514
▁రికార్డు	-8.86599
▁విమర్శలు	-8.86646
▁100	-8.86698
▁అలాంటి	-8.86698
ుకుని	-8.86719
▁తోపాటు	-8.86733
م	-8.86733
▁నాకు	-8.86859
▁ఎంపిక	-8.86957
▁డబ్బు	-8.8709
▁లోనే	-8.87232
▁గ్రూప్	-8.87238
▁ನ	-8.87302
▁డే	-8.8731
న్స్	-8.87369
▁లక్ష్యం	-8.87426
టో	-8.8747
▁ఉప	-8.87695
▁బడ్జెట్	-8.87804
ంటి	-8.87844
▁దేశాల	-8.87941
▁ఆన్	-8.87957
▁సమావేశం	-8.88011
▁ప్రయత్నం	-8.88328
▁200	-8.88374
▁అన	-8.88526
▁ఏప్రిల్	-8.88662
▁ఉన్నట్లు	-8.88739
▁ఖమ్మం	-8.88747
▁అప్పటి	-8.888
▁ఇబ్బందులు	-8.88843
ెంట్	-8.88849
▁సిద్ధం	-8.88855
س	-8.88891
▁మార్	-8.88908
▁వైద్య	-8.8896
▁స్థానంలో	-8.89004
▁ధరలు	-8.891
▁ట్టు	-8.8911
▁పూర్	-8.89162
ప్ర	-8.89166
ుతూ	-8.89185
▁م	-8.89461
ದ	-8.89464
ుకొని	-8.89542
ٹ	-8.89579
▁28	-8.89719
▁2019	-8.89797
▁రో	-8.8982
▁S	-8.89847
▁ఇంటికి	-8.89892
▁మాట	-8.89932
ంచి	-8.90246
▁ఎకరాల	-8.90287
▁మహా	-8.90489
▁డబ్బులు	-8.90557
▁జైలు	-8.90577
▁పది	-8.90629
▁ఒకటి	-8.9068
▁చేసారు	-8.90681
▁కోర	-8.90771
▁ఐటీ	-8.90968
▁యాత్ర	-8.91013
▁س	-8.91032
వో	-8.91063
▁నమ్మ	-8.91137
▁పరి	-8.91224
T	-8.91257
▁మూడో	-8.91288
▁వచ్చాయి	-8.91449
▁విజయవాడ	-8.9154
▁ఆలోచన	-8.91638
▁సైతం	-8.91651
▁ఇవాళ	-8.91834
▁పాలన	-8.91916
▁వీర	-8.92057
▁0	-8.92088
▁ఉమ్మడి	-8.92227
▁మై	-8.92391
▁శక్తి	-8.92401
▁రాజీనామా	-8.92522
ుతోంది	-8.92537
▁ఉన్నా	-8.92708
దో	-8.92718
▁చేసుకున్నారు	-8.92861
▁ాం	-8.92877
▁రాజు	-8.9314
▁కనీస	-8.9332
R	-8.93359
ుతుంది	-8.9354
▁అంశాల	-8.9358
▁వర్షం	-8.93696
▁పాల	-8.93702
▁కార్యదర్శి	-8.93713
▁ప్రముఖ	-8.93791
▁సాధించ	-8.93813
▁జాబితా	-8.93813
▁ఒ	-8.93817
▁ఆసక్తి	-8.93855
▁నెలల	-8.94078
▁నిర్వహించ	-8.94145
▁ప్రకటించ	-8.94149
▁కాబట్టి	-8.94249
తీ	-8.94333
▁ట్వీట్	-8.94415
▁చేయించ	-8.94494
వారు	-8.9453
▁స్థాయి	-8.94538
େ	-8.947
▁కాలేజీ	-8.94764
ిత	-8.94786
▁కల్యాణ్	-8.94819
▁చేస్తారు	-8.94948
I	-8.94971
c	-8.94984
▁సమావేశంలో	-8.94985
▁అవినీతి	-8.9502
ت	-8.95068
దీప్	-8.95077
▁సమీపంలో	-8.95122
p	-8.95131
▁పాకిస్తాన్	-8.9517
▁సాయం	-8.95305
▁ప్రాంత	-8.95322
దని	-8.95346
▁23	-8.95436
▁వ్యాప్తం	-8.95498
రె	-8.95582
▁అధికారి	-8.95608
ాయ	-8.95644
▁నీరు	-8.95786
టువంటి	-8.95841
వ్వ	-8.9585
▁పంచ	-8.95922
▁అస	-8.96004
d	-8.96024
▁అందుకు	-8.9605
▁చంప	-8.96182
ాడని	-8.96219
▁మధ్యాహ్న	-8.96241
▁కాలం	-8.96358
▁స్కూల్	-8.96592
▁అధికారిక	-8.96735
▁వారం	-8.96785
▁ఇబ్బంది	-8.96961
▁బీసీ	-8.96996
▁మహిళల	-8.9705
▁నవంబర	-8.97062
▁జనవరి	-8.97064
▁టై	-8.97065
▁ఆసుపత్రి	-8.9727
▁బీఆర్	-8.97307
▁ముఖ్యం	-8.97312
▁తీసుకున్నారు	-8.9763
▁ఎన్టీఆర్	-8.97685
▁తీర	-8.9779
▁కాలంలో	-8.97812
▁27	-8.97927
▁హి	-8.98085
.1	-8.98121
▁ఇచ్చింది	-8.98145
▁నో	-8.98219
▁దే	-8.98223
▁సభలో	-8.98309
▁బండి	-8.98554
▁తీరు	-8.9858
ର	-8.98613
జర్	-8.9903
లలో	-8.9905
▁కాదని	-8.99051
▁కాల	-8.99092
న్నా	-8.99153
ن	-8.99293
▁26	-8.99328
▁/	-8.99341
మెంట్	-8.99372
▁మనం	-8.99377
ాలంటే	-8.99497
▁ఆలయ	-8.99613
▁సీట్లు	-8.99637
ఖ	-8.99684
▁అక్టోబర్	-8.9992
▁ఎన్నో	-8.99921
▁బ్ర	-8.99951
ర్ల	-8.99976
▁ఆయనకు	-9.00015
▁రూపాయలు	-9.00068
▁కేటాయించ	-9.00217
▁సెంటర్	-9.00278
▁పర	-9.00388
▁మూ	-9.0042
▁వస్తుంది	-9.00485
▁విద్యా	-9.00577
▁ఎప్పుడ	-9.00582
▁జె	-9.00651
▁లేఖ	-9.00681
▁సెప్టెంబర్	-9.00751
లం	-9.00803
నో	-9.00882
▁ఇం	-9.00885
▁యాదవ్	-9.00919
▁గుర్తించ	-9.00928
▁తాగ	-9.00939
ఈ	-9.01029
▁ప్రేక్షకుల	-9.01066
▁అల	-9.01162
డే	-9.01175
▁సినిమాలో	-9.01176
▁బాధ్యత	-9.01313
▁సీట్ల	-9.01343
▁దిగ	-9.01362
▁అందుబాటులో	-9.0143
▁కమిషన్	-9.01497
▁తిరుపతి	-9.01501
▁క్యాప్షన్	-9.01503
.2	-9.01635
▁ఆగ్రహం	-9.017
ుకున్నారు	-9.01701
▁సీబీఐ	-9.01822
▁నిర్వహించిన	-9.01839
▁చేపట్ట	-9.01873
▁ఈడీ	-9.01959
▁ఢిల్లీలో	-9.01992
▁నాగ	-9.01995
▁నిజ	-9.02035
ంజ	-9.02119
▁జై	-9.0221
▁ముగ్గురు	-9.02316
▁ఇచ్చే	-9.02322
▁చుట్ట	-9.02344
కల్	-9.02366
ಂ	-9.02469
▁ఆస్ట్రేలియా	-9.02497
▁పోలీసు	-9.02557
▁వేయ	-9.02738
యు	-9.02772
▁అందరి	-9.02805
▁చేస్తున్నారని	-9.02835
▁ఫై	-9.02904
▁ఆధ్వర్యంలో	-9.03129
▁తెలిసింది	-9.0315
▁పార్టీలు	-9.03195
▁వేగం	-9.0322
ఠ	-9.03221
▁అమిత్	-9.0324
▁ఉత్తర	-9.03352
▁ఎండ	-9.03394
▁గవర్నర్	-9.03569
▁ఆగస్టు	-9.03666
▁బ్యాంక్	-9.03733
లె	-9.03741
కపోతే	-9.03746
▁ప్రారంభం	-9.0375
▁ఎవరు	-9.03803
బో	-9.03888
▁సేవ	-9.03921
▁నియోజకవర్గంలో	-9.04039
▁కాపాడ	-9.04093
టిక్	-9.04097
▁షో	-9.04206
▁బోర్డు	-9.0425
ందు	-9.04367
▁ఆత్మహత్య	-9.04455
▁వేసి	-9.0451
ರ	-9.04512
▁అనుమతి	-9.04557
▁సంఘటన	-9.04567
▁చెల్లించ	-9.04717
▁ఖాన్	-9.0478
స్తున్నారు	-9.04807
▁నిన్న	-9.04936
▁ప్రెస్	-9.04949
▁పొత్తు	-9.04984
▁తు	-9.05062
▁‍	-9.05109
▁చేస్తోంది	-9.05142
l	-9.05192
▁చూపించ	-9.05231
ియా	-9.05293
▁చేస్తుంది	-9.05423
▁ఫైనల్	-9.05471
▁ఉండాలని	-9.0554
▁విషయ	-9.05639
▁మహిళలు	-9.05729
▁నిర్ణయించ	-9.05764
▁పర్	-9.05773
▁మద్యం	-9.0586
▁గుర్తించారు	-9.05924
వర	-9.05963
▁C	-9.06019
▁నిరసన	-9.06034
కుంటే	-9.06084
▁చెన్నై	-9.06136
▁సంఘం	-9.06189
▁తొలగించ	-9.06378
ఎఫ్	-9.06456
▁అంతర్జాతీయ	-9.06476
▁ముందుగా	-9.06548
జే	-9.06593
▁సీజన్	-9.06646
▁వెళ్లిన	-9.0686
▁అత్యధిక	-9.06931
▁దాఖలు	-9.07029
▁అంశం	-9.07045
▁నిర్మాణం	-9.07145
▁వివరాలు	-9.07188
▁ంట	-9.07246
▁మార్పు	-9.07314
▁ప్రక్రియ	-9.07388
▁అవకాశాలు	-9.07463
▁వార	-9.0747
▁రోహిత్	-9.07502
▁పరుగుల	-9.07506
▁రాష్ట్రాల్లో	-9.0751
▁కొడుకు	-9.07545
ుకోవడం	-9.07567
▁తీసుకోవాలని	-9.07698
▁ఉన్నాయని	-9.07829
▁పంట	-9.07841
▁హెచ్	-9.0786
▁స్వ	-9.07886
▁న్న	-9.07962
దర	-9.08246
▁కేంద్రంలో	-9.08314
▁సుమారు	-9.08425
ళ్ళ	-9.0859
▁భద్రత	-9.0863
▁చెంద	-9.08718
▁దేశం	-9.08809
▁కొనసాగ	-9.08837
▁వెల్లడించింది	-9.0895
▁ప్రారంభించ	-9.08997
▁కుంట	-9.09029
పర	-9.09038
▁చూసి	-9.09103
▁పెట్టారు	-9.09142
▁ఫి	-9.09183
ుండగా	-9.09259
▁దరఖాస్తు	-9.0933
తే	-9.09337
డో	-9.09348
▁గుడ్	-9.09383
▁శర్మ	-9.09488
m	-9.09518
▁దక్షిణ	-9.09577
▁న్యూస్	-9.0965
▁రావడం	-9.097
▁అద్భుత	-9.09704
▁ఓవర్	-9.09715
ఎల్	-9.10012
▁చంద్ర	-9.10041
▁ب	-9.10086
▁వెబ్	-9.10133
▁ఉపయోగించ	-9.10164
పూర్	-9.10288
▁రే	-9.10363
▁తీసుకో	-9.10373
▁గ్రామంలో	-9.10658
▁ప్రస్తుత	-9.1067
▁31	-9.10693
సం	-9.10705
ించే	-9.10828
ెల్	-9.10882
రూ	-9.10971
ియన్	-9.10973
ున్నారు	-9.11039
▁కూ	-9.1118
▁ప్పుడు	-9.11185
తాయి	-9.11223
▁కుటుంబం	-9.11237
ఎన్	-9.11352
▁చే	-9.11409
▁నేషనల్	-9.11487
▁మహ	-9.11542
▁నూ	-9.11559
.3	-9.11714
▁ఎవరి	-9.11751
▁డ్	-9.11752
M	-9.11852
▁పాత	-9.11925
▁థ	-9.11969
▁ఆధారంగా	-9.11972
య్	-9.11989
ెస్	-9.1204
▁విషయాన్న	-9.12043
▁రాజ	-9.12065
▁విశాఖ	-9.12122
▁చట్టం	-9.12175
ा	-9.12183
▁సే	-9.12262
▁ఆధార	-9.123
▁భేటీ	-9.12316
▁ఫ్ల	-9.12363
వ్యాప్తం	-9.12383
ైతే	-9.12587
▁వెనుక	-9.12621
▁రష్యా	-9.12677
P	-9.12706
▁ఆదేశించారు	-9.12752
▁సంక్షేమ	-9.12838
▁నాయకుల	-9.1286
▁ప్రతిపక్ష	-9.12956
an	-9.13006
▁పూ	-9.13039
▁లోకేష్	-9.13042
▁ప్రచార	-9.13084
పే	-9.13095
బ్బ	-9.13229
▁పంపిణీ	-9.13282
▁ఏడు	-9.13359
▁29	-9.13483
ెం	-9.13486
▁పేపర్	-9.13539
▁సూ	-9.13561
▁గౌడ్	-9.13563
షి	-9.1373
▁సామాజిక	-9.13805
▁అవి	-9.13854
▁ఘన	-9.13982
ధా	-9.14017
రాల	-9.14067
▁సాగ	-9.14076
▁వేదికగా	-9.14119
▁పక్కన	-9.1413
▁గుర్తింపు	-9.14136
▁నిర్మించ	-9.1422
▁ఒత్తిడి	-9.14258
పట్ల	-9.14351
▁అర	-9.14427
▁లేదన్నారు	-9.1443
▁ప్రైవేట	-9.14433
▁చిత్రం	-9.14433
▁సంవత్సరం	-9.14447
కె	-9.14464
▁1,	-9.14477
▁షాక్	-9.14495
▁సరైన	-9.14506
▁ల్	-9.14535
▁అప్	-9.14553
▁పథకం	-9.14562
▁తీసుకు	-9.14596
▁ఏర్పాట్లు	-9.14757
▁ఆర్టీసీ	-9.14874
▁ధ	-9.14922
▁విజయ్	-9.14958
▁చర్చించ	-9.14999
రాజ్	-9.15015
▁ఫ్యాన్స్	-9.15103
▁సర్	-9.1513
▁విద్యార్థులు	-9.15138
▁క్యా	-9.15146
▁తెర	-9.15201
▁రకాల	-9.15204
▁ట్రాఫిక్	-9.15246
టింగ్	-9.15247
▁క్రితం	-9.15252
▁వెళ్లే	-9.15348
▁అవార్డు	-9.15368
▁వేశారు	-9.15378
▁కెప్టెన్	-9.15424
సార్లు	-9.15447
▁నుంచే	-9.15485
▁ఖాళీ	-9.15492
ar	-9.15578
▁కృషి	-9.15617
▁సిటీ	-9.15657
▁ఇచ్చి	-9.15686
▁అనేద	-9.15696
▁యువత	-9.15773
▁ఏర్పడ	-9.15799
ాక	-9.15992
▁కార్యక్రమ	-9.16045
▁భారతీయ	-9.16144
ారెడ్డి	-9.16167
▁కీ	-9.16235
▁సినీ	-9.16286
▁ఆదాయం	-9.16297
▁తెచ్చ	-9.16331
▁లేకపోవడం	-9.16531
▁సర్కార్	-9.16621
▁టీమ్	-9.16707
▁కొండ	-9.16731
ిస్తూ	-9.16775
▁మంత్రులు	-9.16819
▁కొద్ది	-9.16871
▁ఫుడ్	-9.16995
▁ఎమ్మెల్యేలు	-9.17019
▁మార్పులు	-9.17034
▁చెప్పింది	-9.17078
▁ఐపీఎల్	-9.17179
▁రై	-9.17344
▁వచ్చారు	-9.17496
▁సంవత్సరాల	-9.17636
▁అయింది	-9.17751
▁కిలోమీటర్ల	-9.17757
▁సంగతి	-9.17763
▁దక్క	-9.17837
▁లీ	-9.1788
తం	-9.1795
▁బు	-9.17959
▁వాయిదా	-9.18007
▁సూర్య	-9.18016
'	-9.1814
▁తెల	-9.18214
▁పడి	-9.18276
▁తే	-9.18356
▁కరీంనగర్	-9.18389
సిన	-9.18447
▁భూముల	-9.18492
▁తగ్గించ	-9.1852
▁చేసుకో	-9.18532
▁బిల్లు	-9.18564
▁T	-9.18633
▁ఉండాలి	-9.18637
▁లక్షలు	-9.187
▁కమిషనర్	-9.18773
▁మున్సిప	-9.18773
▁ప్రారంభించారు	-9.18777
k	-9.18792
▁ముంబై	-9.18858
▁పద	-9.18864
▁పండుగ	-9.1892
▁వర్గాల	-9.18932
▁రాష్ట్రం	-9.18943
▁),	-9.18948
▁నిమిషాల	-9.1903
▁లక్ష	-9.19058
మై	-9.19113
▁పాల్గొన	-9.19191
▁ఫలితాల	-9.1926
జన	-9.19298
▁డె	-9.19332
▁కావడం	-9.19391
▁బాధ	-9.1943
▁కలిగి	-9.19483
▁బ్యాంకు	-9.19494
ధ్య	-9.19617
ొచ్చ	-9.19637
▁అయ్యింది	-9.19761
▁సాగు	-9.1978
▁ఇవి	-9.19834
ఫీ	-9.19864
▁M	-9.19908
▁సమర్పించ	-9.19935
▁మండల	-9.20035
▁ఎదురు	-9.2027
▁సీటు	-9.20271
▁ఒక్కో	-9.20339
▁నాయుడు	-9.20354
▁సారి	-9.20395
▁చోట్ల	-9.20444
సే	-9.20446
▁యూనివర్సిటీ	-9.20586
▁ఓటమి	-9.20717
▁ట్ర	-9.20758
ర్చ	-9.20767
ేంద్ర	-9.20812
▁పిల్లలు	-9.2082
▁నియోజకవర్గం	-9.20842
ూర్	-9.20941
▁వేళ	-9.20958
▁వచ్చ	-9.2096
▁రాజధాని	-9.20979
▁ముందే	-9.21008
▁కారణమ	-9.21015
▁నీళ్లు	-9.21074
▁అవుతుంది	-9.21113
గ్ర	-9.21238
ుగు	-9.2134
▁దారి	-9.21369
▁రానున్న	-9.21494
▁అర్థం	-9.21544
▁డిప్యూట	-9.21636
లేదని	-9.21669
▁నష్టం	-9.21722
▁రంగు	-9.21727
O	-9.21824
▁60	-9.21881
స్థ	-9.21885
ారా	-9.21892
▁కోహ్లీ	-9.22033
▁విన	-9.22089
▁చెక్	-9.22125
▁క్ష	-9.22129
▁దానికి	-9.22217
▁హీరోయిన్	-9.22299
▁ఉంద	-9.22357
▁దాన్ని	-9.2246
ನ	-9.22466
▁కామెంట్స్	-9.22557
▁చాలామంది	-9.22611
▁విద్యార్థి	-9.22698
ేశ్	-9.22854
▁పెట్టిన	-9.2298
▁ఫిబ్రవరి	-9.23159
▁ఓట్ల	-9.23212
▁తరలించారు	-9.23298
యాల	-9.23375
జు	-9.23421
▁కాస్త	-9.23495
మె	-9.23522
ర్లు	-9.23532
▁చెరువు	-9.2365
▁మని	-9.23724
ంట్	-9.23807
▁ందని	-9.23848
వాద	-9.23853
న్ని	-9.23904
వల్ల	-9.23979
▁నిద్ర	-9.24008
▁బాల	-9.24034
D	-9.24179
▁వ్యతిరేక	-9.24214
▁ఇళ్ల	-9.24369
▁ంద	-9.2443
▁జీవిత	-9.24498
▁నంబర్	-9.24506
▁మేం	-9.24507
▁సెల్	-9.24546
y	-9.24797
▁కిషన్	-9.24883
▁సార్లు	-9.24941
▁ప్రయత్నాలు	-9.24953
▁కార్యకర్తలు	-9.24957
▁ఆయా	-9.24964
క్ర	-9.25091
ట్స్	-9.25287
▁రోడ్	-9.25297
▁కలిపి	-9.25318
▁ఆహార	-9.25367
▁నిపుణులు	-9.25397
పాల	-9.25448
▁దాడులు	-9.25566
▁చేయాల్సి	-9.25587
▁ఉంట	-9.25608
▁ఓట్లు	-9.25669
,000	-9.25684
బు	-9.25758
▁నిధులు	-9.25841
▁శి	-9.25846
▁బై	-9.25931
▁బ్యాటింగ్	-9.25961
ేష్	-9.26031
▁బ్లాక్	-9.26091
▁తేడా	-9.26111
ب	-9.2621
▁శుభ	-9.2623
▁తరలించ	-9.26257
▁ారా	-9.26366
▁సబ్	-9.26406
▁ఫస్ట్	-9.26413
▁2022	-9.26505
▁ت	-9.26521
▁షెడ్యూల్	-9.26644
▁చూసిన	-9.26681
▁ఎఫ్	-9.26685
స్తుంది	-9.26838
▁సాధారణ	-9.26943
▁అమరావతి	-9.27061
▁చేపట్టారు	-9.27081
▁కూడి	-9.27085
▁చేపట్టిన	-9.27178
ೇ	-9.27201
▁గుజరాత్	-9.27201
▁అల్లు	-9.2721
స్తు	-9.27255
▁చేసుకుంది	-9.27289
▁తీసుకుని	-9.27293
/	-9.27367
▁ప్రజలను	-9.27433
▁నిర్వహణ	-9.2762
▁ఆదేశాలు	-9.27622
ాది	-9.27642
హి	-9.2765
ిరెడ్డి	-9.27693
▁స్పెషల్	-9.27901
పాటు	-9.27911
▁ప్రశ్న	-9.27915
▁స్థానాల	-9.27983
▁ఒకరు	-9.27993
ಯ	-9.27993
▁ఎందుకంటే	-9.28054
ಲ	-9.28078
▁కాల్	-9.28086
▁శ్రీవారి	-9.28106
▁వేసిన	-9.28159
▁స్వాధీనం	-9.28183
▁ఆశ	-9.28247
లర్	-9.28295
▁వ్యవసాయ	-9.28366
▁ఉంటారు	-9.28386
ాపూర్	-9.28401
▁వెంట	-9.28482
▁నారాయణ	-9.28508
▁ఇండియన్	-9.28627
▁యాప్	-9.28747
▁అనుకున్న	-9.28773
▁మెడిక	-9.28786
▁జన	-9.28891
▁ఇవ్వడం	-9.28911
▁ధర్మ	-9.28954
▁జాగ్రత్త	-9.28966
),	-9.29302
▁టీమిండియా	-9.29317
▁ఏక	-9.29392
▁అభ్యర్థులు	-9.29418
▁పట్టు	-9.29437
▁టార్గెట్	-9.29459
▁اس	-9.29473
▁సంఖ్యలో	-9.29501
హ్	-9.2953
▁క్ల	-9.29539
▁అల్	-9.29584
▁నామినేషన్	-9.29602
▁ప్రపంచంలో	-9.29622
▁ఉచిత	-9.29631
గే	-9.2968
▁హాస్పిటల్	-9.29745
లై	-9.29803
▁స్పందించ	-9.29849
▁ఇచ్చ	-9.29857
▁పడింది	-9.29999
▁టెస్టు	-9.30037
▁గడ్డ	-9.3011
▁ామని	-9.30155
ండ్ల	-9.30189
▁అభిమానులు	-9.30223
▁అంతే	-9.30271
▁క్యూ	-9.30292
త్వ	-9.3035
మార్	-9.30433
▁అమ	-9.30437
▁నిర్వహిస్తున్న	-9.30454
▁కురిస	-9.3047
▁కం	-9.30521
▁వేలు	-9.30542
▁డ్రైవర్	-9.30612
▁ఇప్పటివరకు	-9.30677
▁2014	-9.30752
▁ఆహారం	-9.30766
▁బహిరంగ	-9.30784
▁బాల్	-9.30937
గల	-9.31
చే	-9.31017
▁అదుపులోకి	-9.31043
డమే	-9.31048
▁బాధ్యతలు	-9.31096
▁చరిత్ర	-9.31099
▁న్యాయ	-9.31251
▁ఏదైన	-9.31288
▁సాయి	-9.3132
ాబాద్	-9.31352
▁వర్	-9.31383
▁హక్కు	-9.3139
▁చేశా	-9.31402
▁రేపు	-9.31405
▁అయి	-9.31668
▁ప్యా	-9.31845
▁కోల్	-9.31849
ನ್ನು	-9.31994
స్తామని	-9.32086
▁దశ	-9.32107
ఘ	-9.32392
▁నోటీసులు	-9.32425
▁అమ్మాయి	-9.32646
ವ	-9.32681
▁టాప్	-9.32702
▁స్ప	-9.32745
▁రేప	-9.328
▁నన్న	-9.32905
శా	-9.33078
▁నెలలో	-9.33146
షా	-9.33165
▁రావడంతో	-9.33183
▁ఫలితాలు	-9.33274
సె	-9.33293
▁అండ	-9.33321
లేక	-9.33324
▁ఫర్	-9.33404
▁హిందూ	-9.33431
▁వాతావరణం	-9.33464
▁సన్	-9.33528
▁శిక్ష	-9.33633
▁దేశవ్యాప్త	-9.33646
▁పవర్	-9.33684
▁కేజ్రీవాల్	-9.33687
▁ప్రమాద	-9.33752
▁వారిలో	-9.33792
▁పోత	-9.33826
▁విధానం	-9.33855
▁కల్	-9.33998
▁పశ్చిమ	-9.34135
▁ాల	-9.34159
▁వర్క్	-9.34177
▁చదువు	-9.34241
▁రాయ	-9.34247
▁తదితరులు	-9.34319
▁చేర్చ	-9.34413
▁చిరంజీవి	-9.34435
▁స్పందించారు	-9.3449
▁ఉన్నారని	-9.34543
▁హాజరు	-9.34581
▁వెల్	-9.34677
▁నిధుల	-9.34708
▁రక్షణ	-9.34735
▁తెలుగుదేశం	-9.34886
▁టెస్ట్	-9.35067
▁మోహన్	-9.35254
▁గురి	-9.35262
▁వేసింది	-9.35269
ప్పటికీ	-9.35274
ద్ధ	-9.35313
▁తాజా	-9.35353
▁గంట	-9.354
▁పెరిగింది	-9.35433
▁ప్రమాణ	-9.35577
▁సంచలన	-9.35592
▁సేకరించ	-9.35643
▁సంబంధం	-9.35697
▁దాంతో	-9.35821
▁ందన్నారు	-9.35953
▁యుద్ధం	-9.35953
▁గొప్ప	-9.35963
ెల	-9.35993
▁దూరంగా	-9.36185
స్తూ	-9.3629
▁సంస్థల	-9.3654
ొచ్చు	-9.36549
▁ఆప	-9.36701
▁నటి	-9.36825
▁వ్యవహరించ	-9.36858
▁ا	-9.37006
ెన్స్	-9.37099
నర్	-9.37108
र	-9.37168
▁నియోజకవర్గ	-9.37188
▁వెళ్త	-9.37344
▁I	-9.37379
ری	-9.37397
▁کو	-9.37463
▁మిగిలిన	-9.37505
▁నెట్	-9.37557
▁పనిచేస్తున్న	-9.3778
▁బరువు	-9.37791
లపై	-9.37959
▁బీజేపీకి	-9.37972
▁సెంచరీ	-9.38102
▁పడే	-9.38112
▁హె	-9.3823
▁మంజూరు	-9.38243
▁మిగతా	-9.38258
ామ	-9.38312
▁జనరల	-9.38323
▁విద్య	-9.38344
▁ఉండటంతో	-9.38375
▁స్తుంది	-9.38377
▁ప్పటికీ	-9.38384
▁పూజ	-9.38391
▁వ్యవహారం	-9.38391
▁ప్రతీ	-9.38464
▁జనం	-9.38466
▁విషయాల	-9.38516
▁బదిలీ	-9.3857
▁వెళ్లారు	-9.38679
▁డై	-9.38699
▁పథకాల	-9.38711
▁సైట్	-9.38756
▁అటు	-9.3877
▁బంగార	-9.38859
▁కఠిన	-9.38883
▁వందల	-9.38918
▁కార్మికుల	-9.38932
▁బుక్	-9.38988
▁కావ	-9.39029
▁గాలి	-9.39034
▁అర్జున్	-9.3904
రెడ్డి	-9.39126
▁వికెట్లు	-9.39152
త్య	-9.3919
▁అందర	-9.39219
▁గుండె	-9.39251
ಕ	-9.39257
▁నగర	-9.3931
ిస్తే	-9.39315
▁అవగాహన	-9.39355
▁కర	-9.39423
కాయ	-9.39428
▁నారా	-9.39493
▁ప్రాజెక్ట్	-9.39513
▁జస్టి	-9.39514
▁ఎన్ని	-9.39584
▁తమిళ	-9.39676
▁జరుగుతోంది	-9.39693
ಗ	-9.39732
బుల్	-9.39744
▁ధన	-9.3975
▁వర్షాల	-9.3976
▁నాడు	-9.39769
ుకుంటున్న	-9.39789
▁కొంతమంది	-9.39817
పర్	-9.39903
▁అంట	-9.3992
▁కుల	-9.40017
▁ఉద్యోగం	-9.4004
▁తిన	-9.40048
▁న్యాయం	-9.40072
▁స్టేట్	-9.40117
▁ాను	-9.40177
▁మానవ	-9.403
▁ప్రెసిడెంట్	-9.40305
▁న్యూ	-9.4039
▁మోసం	-9.4047
▁మండలంలో	-9.40504
▁ఆరోగ్యం	-9.4053
▁అను	-9.40603
▁ప్రాధాన్యత	-9.40666
▁35	-9.40683
in	-9.407
టే	-9.4073
▁కనిపిస్తోంది	-9.40875
▁చేయనున్నారు	-9.40912
ంధ	-9.4097
▁తగ్గి	-9.41002
▁డం	-9.41015
▁హిట్	-9.4104
▁చెప్పి	-9.41065
ారం	-9.41099
ئی	-9.41104
▁డేటా	-9.41166
కపోవడం	-9.41171
▁P	-9.41195
▁కౌంటర్	-9.41224
▁విశ్వ	-9.4124
సర	-9.41251
▁జులై	-9.4127
▁డబుల్	-9.41298
▁వెళ్తున్న	-9.41326
దారు	-9.41397
▁వన్డే	-9.41435
▁నె	-9.41531
▁జరుగుతుంది	-9.41606
▁కేంద్రాల	-9.41695
▁హోదా	-9.41783
▁చేరుకున్న	-9.41794
▁ఒక్కసారి	-9.4185
▁చివర	-9.41861
▁బిడ్డ	-9.4191
▁సెక్షన్	-9.4193
▁మీటర్ల	-9.41935
▁లపై	-9.41973
▁ఎస్సీ	-9.42023
▁ప్రకటించిన	-9.42029
▁దో	-9.42035
▁పరిస్థితులు	-9.42098
▁రోజున	-9.42165
▁కార్యక్రమం	-9.42291
ତ	-9.42294
▁ానికి	-9.42317
▁తొలిసారి	-9.42351
▁సికింద్రాబాద్	-9.42395
▁కార్యకర్తల	-9.42425
▁మేము	-9.42533
ాయ్	-9.42539
▁సరఫరా	-9.42558
▁తెగ	-9.42625
▁కర్	-9.42666
▁సంస్థలు	-9.42683
▁తీసుకోవడం	-9.4272
▁గెలుపు	-9.42721
ుకుంది	-9.42766
▁చేస్తార	-9.42835
▁మీటింగ్	-9.42947
▁స్ట	-9.42963
ందరూ	-9.43328
▁కోడ	-9.43361
▁టీటీడీ	-9.43375
▁వివేక్	-9.43375
▁స్తున్న	-9.43453
▁ప్రసాద్	-9.43455
ంటున్నారు	-9.43471
▁తెలుసుకున్న	-9.43549
ేసి	-9.43721
▁ఉండి	-9.4374
▁కమల	-9.4374
▁జిల్లాల	-9.43801
హార	-9.43848
▁అడుగు	-9.43853
▁ఎక్క	-9.43922
ీకరణ	-9.43939
▁చేయడంతో	-9.4394
▁నిజామాబాద్	-9.44033
▁చేస్త	-9.44086
▁జే	-9.44108
▁హోం	-9.44163
▁చేస్తున్నట్లు	-9.44193
▁జీవితంలో	-9.44201
▁ండ	-9.44209
▁బ్యా	-9.44224
▁ఉండటం	-9.44251
పె	-9.44283
క్షన్	-9.44294
త్వం	-9.44347
▁చేసుకుని	-9.44372
▁రావాల	-9.44376
▁ఫోటో	-9.44379
▁రాజకీయాల	-9.44535
▁ఫుల్	-9.44537
▁దెబ్బ	-9.44575
▁వస్తుందని	-9.44599
▁చేయగా	-9.44691
▁సమీక్ష	-9.44696
▁విష	-9.44748
▁మొదలు	-9.44755
▁బిజెపి	-9.44862
▁హౌస్	-9.44975
య్యారు	-9.45068
▁దీప	-9.45109
▁ఎత్తున	-9.45131
▁కార్యక్రమాల	-9.45161
▁రవి	-9.45171
▁తోనే	-9.45177
▁తయారీ	-9.45196
▁సైబర	-9.45226
ుతున్నాయి	-9.45326
د	-9.45334
▁హరీశ్	-9.45363
▁రూపొందించ	-9.45363
▁నిర్మాణ	-9.45379
పతి	-9.45466
▁స్థానికులు	-9.45475
▁పుట్ట	-9.45578
▁ఎస్పీ	-9.45661
▁హెచ్చరించారు	-9.45698
▁చేసుకునే	-9.4571
▁దర్శకుడు	-9.4571
▁కావాలని	-9.45831
ల్డ్	-9.45839
▁తరఫు	-9.45866
▁అవసరమైన	-9.45917
▁నిర్ణయ	-9.45924
▁బంగ్లాదేశ్	-9.46035
▁వంద	-9.4607
▁నియమించ	-9.46086
▁ఆట	-9.46127
▁వేదిక	-9.46238
▁ఆటో	-9.46348
లిక్కర్	-9.46386
▁ج	-9.46413
▁మీకు	-9.46442
▁అందిస్తున్న	-9.46507
▁45	-9.46528
▁వాస్తవ	-9.46542
వేళ	-9.46585
▁ఇరు	-9.46589
▁బాధితుల	-9.46598
▁అడ్డ	-9.46631
▁స్పీకర్	-9.46711
▁ప్రయాణం	-9.46727
▁ఎత్తు	-9.46754
▁సమయ	-9.46771
▁పన్ను	-9.46814
▁పేద	-9.46835
▁ాయ	-9.4688
▁కుట్ర	-9.46892
▁కర్ణాటకలో	-9.46941
▁వ్యాఖ్యానించారు	-9.46947
▁అధికారం	-9.46977
▁నిందితుల	-9.46996
భా	-9.47039
▁ఇక్కడి	-9.47077
▁బాలిక	-9.47084
▁N	-9.47201
▁స్థల	-9.47273
నగర్	-9.47297
▁బే	-9.47322
▁మల్ల	-9.47324
▁2018	-9.47392
▁షిప్	-9.47462
b	-9.47575
.30	-9.47579
▁మెట్రో	-9.47579
▁అయ్యాయి	-9.47624
▁గ్రామాల	-9.47627
▁డ్రగ్స్	-9.47645
▁రాజకీయాల్లో	-9.47716
▁బొ	-9.47728
ز	-9.47734
▁మేకర్స్	-9.47739
▁ఉత్పత్తి	-9.47906
▁R	-9.47906
▁తరపు	-9.47907
▁پر	-9.4791
▁70	-9.47958
యే	-9.47964
▁స్థానాల్లో	-9.48017
ేశ్వర	-9.48089
ತ	-9.48115
▁డీకే	-9.48117
▁పడుతున్న	-9.4822
▁చొప్పున	-9.4825
ఫా	-9.48265
▁کا	-9.48389
▁న్యూఢిల్లీ	-9.48417
▁మన్	-9.4845
B	-9.485
▁భావిస్తున్నారు	-9.485
ుకోవాలని	-9.48532
▁نے	-9.48611
▁గెలిచిన	-9.4862
▁సిద్ధ	-9.4869
▁కార్డు	-9.48722
▁చర్యల	-9.48741
▁సర్కారు	-9.48769
▁స్థానం	-9.48775
▁తీసుకెళ్ల	-9.48841
▁ఉండడం	-9.48851
వచ్చ	-9.48852
▁తీసుకుంది	-9.48864
▁చేతిలో	-9.4891
▁వ్యా	-9.49006
▁ప్ల	-9.49106
పాటి	-9.49117
▁సమాధానం	-9.49231
▁మొబైల్	-9.49289
▁B	-9.49389
▁ସ	-9.49391
▁యువ	-9.49444
▁ఆరోపణల	-9.49449
ୁ	-9.49452
▁ن	-9.49477
ీయ	-9.49552
▁వ్యక్తుల	-9.49612
▁ాడ	-9.49654
వై	-9.49755
▁పేదల	-9.49792
ಸ್	-9.49796
▁నెలకొంది	-9.49812
ేరుగా	-9.49867
▁అయ్యే	-9.49903
▁పార్లమెంటు	-9.49906
▁తగిన	-9.49967
▁నల్గొండ	-9.49987
▁చేసుకుంట	-9.49988
▁80	-9.50028
▁(1	-9.50099
ేశారు	-9.50139
▁శంకర్	-9.50141
▁సముద్ర	-9.50166
▁పక్క	-9.50216
▁వర్గాలు	-9.50236
▁రంగ	-9.50258
▁అవుతున్న	-9.50326
▁షూటింగ్	-9.50339
▁టాక్	-9.50412
▁ఇస్త	-9.50455
▁వెండి	-9.50456
▁టెక్నాలజీ	-9.50515
▁తీసుకుంటున్న	-9.50522
▁అమెరికాలో	-9.50632
▁ట్రా	-9.5065
▁కరోనా	-9.50691
▁సంబంధి	-9.50693
▁ాయని	-9.50716
▁ఆగ	-9.50722
ra	-9.50822
▁కామారెడ్డి	-9.50868
రాం	-9.50875
▁పేట	-9.5101
▁పాప	-9.51032
▁రవాణా	-9.51045
▁జనాభా	-9.51045
▁విభాగం	-9.51056
▁కొడ	-9.51074
హెచ్	-9.51092
▁ಸ	-9.5119
చా	-9.51316
▁వాహనాల	-9.51317
▁చిక్క	-9.51375
▁డెవలప్	-9.51411
చర్	-9.51453
▁ఇద్దరి	-9.51463
కొండ	-9.51482
▁ట్	-9.51489
▁ఉంటున్న	-9.51505
▁మానసిక	-9.51577
▁టిక్కెట్	-9.51578
▁భవన్	-9.51589
▁మొదట	-9.51658
పోవడం	-9.51723
▁నలుగురు	-9.51756
ంతర	-9.5176
▁ఫైర్	-9.51762
▁హరి	-9.51774
▁వార్తలు	-9.51922
▁నాయకుడు	-9.51935
▁వ్యక్తిగత	-9.51935
▁సంపాదించ	-9.52113
▁టౌన్	-9.52113
▁నోటిఫికేషన్	-9.52114
▁వ్యతిరేకం	-9.52151
▁పాల్	-9.52176
▁చేసినా	-9.52207
▁స్వయం	-9.52228
▁అతడి	-9.52244
గడ్డ	-9.52263
▁అభిమానుల	-9.52363
▁సత్య	-9.52399
▁మిషన్	-9.52425
▁ఆల్	-9.52437
▁వివాదం	-9.5246
ಳ	-9.52467
▁గోదావరి	-9.52472
▁థియేటర్	-9.52472
▁లెక్క	-9.52617
▁ఆవేదన	-9.52652
▁ఇన్నింగ్స్	-9.52652
▁అగ్ని	-9.52658
▁వాటర్	-9.52676
▁ముఖ్యమైన	-9.52701
▁పరిస్థితుల	-9.52715
▁దాడుల	-9.52824
▁దిశగా	-9.52835
▁వ్యక్తులు	-9.52904
.6	-9.52906
▁అందరిక	-9.52967
▁మహిళలకు	-9.52974
▁చీ	-9.52986
.4	-9.53021
రాజు	-9.53058
▁బైక్	-9.53063
▁చర్చలు	-9.5308
బాలీవుడ్	-9.53087
▁కానుంది	-9.53148
▁పాఠశాల	-9.5317
▁ప్లే	-9.53187
▁సక్సెస్	-9.53193
య్యాయి	-9.53219
▁సాధించిన	-9.53348
ار	-9.53361
▁రాజస్థాన్	-9.53374
▁దని	-9.53399
▁టె	-9.53419
వేల	-9.53454
▁వ్యాపార	-9.53467
▁అర్	-9.5354
▁హో	-9.53558
▁బౌలింగ్	-9.53559
▁పాస్	-9.53612
▁శాంతి	-9.53626
▁ఉద్యోగులు	-9.53662
▁ಹ	-9.53717
▁దూరం	-9.53726
▁జయ	-9.53739
▁మెగా	-9.538
▁ప్రణాళిక	-9.5392
▁ప్రొఫెసర్	-9.5392
▁ఫ్యామిలీ	-9.5392
▁ట్రంప్	-9.53921
▁పూజలు	-9.53947
▁రెడీ	-9.5397
ರ್	-9.54073
▁టాలీవుడ	-9.54245
▁ఏళ్లు	-9.54305
▁పాక్	-9.54321
కల	-9.54393
టన్	-9.54543
▁అకౌంట్	-9.54566
w	-9.54644
▁టైమ్	-9.5469
▁దానిపై	-9.54693
▁వేడి	-9.54706
▁అందుకున్న	-9.54709
▁ಮ	-9.54753
ాలంటూ	-9.54823
▁నగదు	-9.54836
▁పోయింది	-9.54866
ించింది	-9.54887
▁ప్రభాకర్	-9.5502
▁సెంట్రల	-9.5502
▁నిర్	-9.55026
▁ప్రొ	-9.5514
▁లె	-9.55143
జె	-9.55168
▁సహాయం	-9.55169
▁బిగ్	-9.55174
▁స్టేడియం	-9.5531
▁భావించ	-9.55351
▁చ్చ	-9.55365
▁పోర్టు	-9.55389
▁గ్రాముల	-9.55425
▁ఒకరి	-9.55476
▁ఉద్యోగ	-9.55501
▁మహారాష్ట్ర	-9.55504
▁s	-9.55648
▁పోరాటం	-9.55672
▁ఫా	-9.55688
▁అందుబాటులోకి	-9.5569
▁ఆదేశాల	-9.55758
త్తు	-9.55772
N	-9.55782
▁పెరిగి	-9.55824
▁వేడుక	-9.55918
▁పరిశోధన	-9.55946
ైంది	-9.55979
▁ఉందన్నారు	-9.56043
al	-9.56088
▁ఆమెకు	-9.5609
▁పంజాబ్	-9.56132
▁కెరీర్	-9.56132
▁ప్రవేశ	-9.56151
ేనని	-9.56224
▁తీసుకునే	-9.56272
▁నర్స	-9.56291
▁మేర	-9.56299
▁క్రికెటర్	-9.56318
▁ఎన్నిక	-9.56319
▁ప్రవేశపెట్ట	-9.56323
ట్టే	-9.56373
ନ	-9.56386
▁ఆఫీసర్	-9.56396
▁వర్గ	-9.56463
ొద్ద	-9.56501
▁ట్విట్టర్	-9.56693
▁నల్ల	-9.56734
▁జీవ	-9.56755
▁పరీక్షలు	-9.56755
▁స్టా	-9.56786
▁పక్ష	-9.56835
జ్జ	-9.56852
▁బాగు	-9.5687
▁నిర్మాత	-9.5688
▁పోర్ట్	-9.56883
▁భవిష్యత్తు	-9.56905
ಲ್ಲಿ	-9.57053
▁కార్పొరేషన్	-9.57068
▁అనుకూలంగా	-9.57101
▁పట్టణ	-9.57182
▁ప్రాణాలు	-9.57199
▁మత	-9.57207
గ్గా	-9.57214
▁హయాంలో	-9.57257
▁శ్రీలంక	-9.57257
▁మెదక్	-9.57257
▁లభించ	-9.57261
▁పోరాడ	-9.57447
▁రాక	-9.57503
▁తదితర	-9.57591
▁ಬ	-9.57595
▁ప్రాణ	-9.57695
▁2,	-9.57781
▁ాడని	-9.57783
▁నేర	-9.57784
▁..!	-9.57937
▁భర్తీ	-9.57944
▁రూమ్	-9.58053
▁ానని	-9.58108
▁కన్	-9.58172
▁మౌ	-9.58173
▁ఆఫీస్	-9.58205
▁టా	-9.58353
▁ట్రాన్స్	-9.586
▁చనిపోయ	-9.58686
%	-9.58776
▁నది	-9.58816
▁పంచాయతీ	-9.58916
▁రద్దీ	-9.58969
▁ప్లాట్	-9.58977
ان	-9.59105
▁తమిళనాడు	-9.59114
▁భా	-9.59153
▁స్తోంది	-9.59248
▁నాయక్	-9.59261
▁బృందం	-9.59309
▁చేసుకుంటున్న	-9.59313
▁పాకిస్థాన్	-9.59352
▁చూస్తే	-9.59355
దం	-9.59395
▁గి	-9.59408
ಮ	-9.59437
▁పిల్ల	-9.5946
బట్టి	-9.59486
▁తీసి	-9.59541
▁చేరుకు	-9.59561
v	-9.59565
▁మొక్క	-9.59571
▁ఏండ్ల	-9.59589
▁యువతి	-9.59594
▁నిలిచింది	-9.59624
▁ఉద్యోగాల	-9.597
ూరి	-9.59741
ام	-9.59746
▁ారన్నారు	-9.59766
నెల	-9.5994
▁گ	-9.59958
▁అవుతోంది	-9.59987
▁ఎప్పుడు	-9.60005
▁నివాసం	-9.60017
▁ఫామ్	-9.60099
▁ఓపెన్	-9.60125
▁అక్కడే	-9.6017
▁అలీ	-9.60199
▁అదన	-9.60216
▁సర్వ	-9.60261
స్టు	-9.60276
▁మాకు	-9.60317
▁హోటల్	-9.6032
▁సంతోషం	-9.60425
▁చెబుతున్న	-9.60463
▁జరుగుత	-9.60479
े	-9.60509
▁ఆపరేషన్	-9.60514
▁అదానీ	-9.60514
▁సినిమాలు	-9.60577
▁చేరిన	-9.60599
▁నియోజకవర్గాల్లో	-9.60606
▁డు	-9.60645
▁2021	-9.60709
▁చేప	-9.60752
▁ఇండ్ల	-9.60828
▁నాని	-9.60851
وں	-9.60853
▁టీఎస్	-9.60863
▁సాధారణంగా	-9.60874
▁వికెట్	-9.6089
▁కుమారుడు	-9.60914
శాఖ	-9.6093
▁చేరారు	-9.60932
▁య్య	-9.61071
▁శరీర	-9.61079
ర్మ	-9.61095
▁ఆడియన్స్	-9.611
▁ఉపాధి	-9.611
▁పెండింగ్	-9.611
▁అంగీకరించ	-9.61102
▁సెట్	-9.61107
గ్రీన్	-9.61124
ార్థ	-9.61146
ع	-9.61226
▁వయసు	-9.61267
▁ದ	-9.61293
▁వర్గం	-9.61357
▁భాష	-9.61373
▁వైద్యులు	-9.61488
▁ఇస్తున్న	-9.6149
▁రచయిత	-9.61492
▁రాజ్యసభ	-9.61492
▁సవాల్	-9.61555
▁నష్ట	-9.61595
▁ప్రా	-9.61639
▁ఓటర్ల	-9.6164
▁ఎంట్రీ	-9.61689
▁మొదలైంది	-9.61716
⁬	-9.62014
▁స్త	-9.6206
ంగి	-9.62067
▁అంగ	-9.62076
ق	-9.62084
▁జంట	-9.62084
▁పెరుగుతున్న	-9.62085
▁సోమ	-9.62179
▁అవసరమ	-9.62223
రిక్	-9.62231
▁జోన్	-9.62232
▁ప్రచారంలో	-9.62306
er	-9.62324
▁దర్శన	-9.62347
యర్	-9.62363
▁ఇస్తామని	-9.62392
▁ఆసక్తికర	-9.62397
ర్స్	-9.62456
▁ಯ	-9.62484
ండే	-9.6255
▁కుండా	-9.62605
▁కొనసాగుతున్న	-9.62649
ింపు	-9.62664
▁యుద్ధ	-9.62679
▁ఆఫీసర్లు	-9.62717
▁రూపం	-9.62739
▁దాట	-9.62751
▁వర్మ	-9.62814
ళి	-9.6285
▁ರ	-9.62916
▁హాట్	-9.6301
ంటున్న	-9.63031
▁మీదుగా	-9.63051
▁గ్రౌండ్	-9.63078
▁ఏమ	-9.63124
▁యు	-9.63126
▁మొత్త	-9.63132
▁రైళ్ల	-9.63204
▁విదేశీ	-9.63278
▁పుష్ప	-9.63279
▁చెయ్య	-9.63389
▁ప్రియ	-9.63401
ڈ	-9.63478
▁కష్ట	-9.63478
▁దొంగ	-9.63485
▁ప్రయాణికుల	-9.63551
▁ఇంటర్	-9.63589
▁దశలో	-9.63593
▁ఫె	-9.63603
▁క్లారిటీ	-9.63679
గిరి	-9.63749
▁G	-9.63793
▁ప్రయత్నించ	-9.63796
لی	-9.63806
▁మరొక	-9.63819
▁ఫ్రీ	-9.63838
ೋ	-9.6388
▁పాదయాత్ర	-9.6388
▁సరిహద్దు	-9.6388
ందన్నారు	-9.63963
▁కరెంట్	-9.63976
▁పరిస్థితుల్లో	-9.63977
▁పెట్టుకున్న	-9.63986
▁ఉంటుంద	-9.64057
▁సీపీ	-9.64065
ଲ	-9.64082
▁చెప్పుకొచ్చారు	-9.64082
▁వు	-9.64129
▁వ్య	-9.64153
▁వారిపై	-9.64255
▁మెరుగ	-9.64288
▁చేశామని	-9.64317
▁అంచనాలు	-9.6447
▁లేవు	-9.6452
ించడం	-9.64605
۔	-9.64682
▁ఈసీ	-9.64682
▁స్తా	-9.64683
▁సెక్రటరీ	-9.64689
▁త్వరగా	-9.64689
▁పడిన	-9.64717
ెడ్	-9.64729
ట్టి	-9.64732
▁కొన	-9.64743
▁కోట	-9.64902
▁ఛా	-9.64926
▁నవ	-9.65008
▁తె	-9.65025
r	-9.65059
▁ప్రియాంక	-9.6511
▁ఉద్యోగాలు	-9.65163
▁سے	-9.65181
▁వాడు	-9.65197
▁పరిశీలించారు	-9.65334
▁నమ్మకం	-9.65338
▁వెల్లడించ	-9.65345
▁ఏరియా	-9.65396
▁వివాహ	-9.65481
▁అంతేకాదు	-9.65505
▁రుణమాఫీ	-9.65505
▁ఉద్యమ	-9.65518
▁రెడ్	-9.65523
▁భట్టి	-9.65534
▁దిగారు	-9.65554
▁వస్త	-9.65578
▁కొనసాగుతోంది	-9.65623
▁పడ్డ	-9.65677
▁జీవితం	-9.65687
▁టీవీ	-9.65701
▁వినిపించ	-9.6571
▁ర్యాలీ	-9.65727
▁బరిలోకి	-9.65773
▁K	-9.65878
కుంట	-9.65942
▁టెక్	-9.65958
▁శరీరంలో	-9.6598
▁చూడాలి	-9.6606
లింగ్	-9.66065
▁ఓడి	-9.66138
▁తెలుసు	-9.66144
▁ವ	-9.66156
▁అడ్డు	-9.66184
▁బలంగా	-9.66295
▁చెప్పడం	-9.66316
▁మేనిఫెస్టో	-9.66327
▁ప్లేయర్	-9.66336
▁నిబంధనల	-9.66387
▁బయటపడ	-9.66404
▁సమావేశ	-9.66415
▁పరిశ్రమ	-9.66458
ోన్న	-9.66461
▁వల్లే	-9.66482
▁పంపించ	-9.66555
▁చల్ల	-9.66565
▁జరిగిందని	-9.6663
ف	-9.66656
▁ش	-9.66688
బర్	-9.66755
▁ఓడించ	-9.66764
▁అప్పగించ	-9.66813
▁500	-9.6682
40	-9.66825
▁ఇందుకు	-9.66884
▁కామెంట్	-9.66885
▁నాథ్	-9.66892
ందా	-9.66903
▁దర్శనం	-9.6696
▁వస్తున్నాయి	-9.66963
▁త్రి	-9.66995
!	-9.6701
▁చెప్పే	-9.67051
డెన్	-9.67093
▁విచారించ	-9.67119
▁వినియోగించ	-9.67231
▁ఫోర్స్	-9.67235
విరాట్	-9.6725
▁తరగతి	-9.67292
▁వన్	-9.67355
▁ముందస్తు	-9.67364
▁గుంటూరు	-9.67365
▁నెంబర్	-9.6737
న్నట్లు	-9.67485
ియర్	-9.67558
▁లీడర్లు	-9.67559
▁ఘ	-9.67576
▁నెలలు	-9.67621
▁పాలు	-9.67657
▁తామ	-9.6774
ी	-9.67782
▁పడుతున్నారు	-9.67795
▁వాల్	-9.67834
▁లూ	-9.67887
▁నిర్ణయాలు	-9.68067
▁కచ్చిత	-9.68202
ొక్క	-9.68352
▁కంపెనీలు	-9.68367
▁మర	-9.6837
▁పోయిన	-9.68508
▁కోచ్	-9.68558
మంత	-9.68594
▁సందర్శించ	-9.68623
▁నూతన	-9.68627
E	-9.68654
స్తే	-9.68692
▁పర్యటించ	-9.68727
50	-9.68733
▁ఉండదు	-9.68787
ೀ	-9.68835
▁వసూలు	-9.68835
▁విడత	-9.68838
▁జల	-9.68953
▁సహాయ	-9.69017
99	-9.69047
▁ప్రభాస్	-9.69048
▁ముఖ	-9.69057
▁వెంకట్	-9.69066
▁ప్రశాంత్	-9.6907
▁మాట్లాడిన	-9.69082
▁స్వీకరించ	-9.69092
▁విజ్ఞప్తి	-9.69259
▁పదవుల	-9.69293
▁జరగనుంది	-9.69295
▁ప్రశ్నించ	-9.69368
▁ಕ	-9.69392
▁సెలవు	-9.69406
▁జెండా	-9.69486
▁యూపీ	-9.69525
یا	-9.69615
డింగ్	-9.6966
▁తీయ	-9.69695
▁కార్యక్రమాలు	-9.69758
▁శిక్షణ	-9.69794
▁రన్	-9.69856
▁తప్పుడు	-9.69863
▁నెలల్లో	-9.69909
▁చేసుకోవాల	-9.69922
▁పదేళ్ల	-9.6998
▁భాగం	-9.70025
▁లక్ష్య	-9.70046
▁పెద్దపల్లి	-9.7009
▁తుది	-9.70108
▁ఆశ్చర్య	-9.70113
▁టైటిల్	-9.70113
▁D	-9.70143
య్యే	-9.70163
▁చోట	-9.70166
▁పోస్టు	-9.70203
▁గానే	-9.70212
▁తక్కువగా	-9.70235
▁90	-9.70262
▁డేట్	-9.7028
యిన	-9.70303
తుందని	-9.70318
▁జగిత్యాల	-9.70327
▁కూతురు	-9.70327
▁గృహ	-9.70328
▁అప్పట్లో	-9.70328
▁బ్రేక్	-9.70329
▁ముక్క	-9.7042
▁తీ	-9.70527
▁సృష్టించ	-9.70625
▁సీసీ	-9.7068
▁ఉన్నప్పుడు	-9.70691
▁వేస	-9.70747
▁కేబినెట్	-9.70758
▁రెవెన్యూ	-9.70758
ంచిన	-9.7081
▁పొడి	-9.7093
▁కదా	-9.70931
సన్	-9.71013
▁్లో	-9.71074
▁ఆరా	-9.71188
▁ఆలోచించ	-9.71191
▁నాయకత్వం	-9.71223
▁వచ్చిందని	-9.71243
▁ప్రదేశ్	-9.71314
▁గురు	-9.71323
▁తల్లిదండ్రులు	-9.71332
▁వాదన	-9.71366
మర్	-9.7143
▁భారతదేశంలో	-9.71439
▁#	-9.71475
▁వచ్చు	-9.71514
▁జీవన	-9.71537
రింగ్	-9.71549
▁చేసిందని	-9.71558
పోయి	-9.71585
▁నేతృత్వంలో	-9.71625
▁పాల్గొన్న	-9.71723
▁నిలిప	-9.71742
▁గొడవ	-9.71786
▁మంచిది	-9.71803
▁హెడ్	-9.71815
ಟ	-9.71843
▁ఖరారు	-9.71845
ండా	-9.71889
▁దొరిక	-9.71894
▁బెంగళూరులో	-9.71911
ీసీసీ	-9.71997
▁ఖా	-9.72063
▁గ్యాస్	-9.72063
ుంటారు	-9.72066
▁ఆఫర్	-9.72106
న్నర	-9.72145
▁అనుకూల	-9.72242
▁సిద్దిపేట	-9.7228
ెక్క	-9.72286
▁పోస్టర్	-9.72293
▁గెలిచి	-9.72432
▁అటవీ	-9.725
▁క్యాన్సర్	-9.72505
▁తీసుకుంట	-9.72565
am	-9.72592
▁వీరు	-9.72606
▁మాస్	-9.72709
▁టిడిపి	-9.72719
▁ధీమా	-9.72719
▁కోట్లకు	-9.72729
▁రికార్డ్	-9.72746
▁ఎగ	-9.72789
▁చూస్తున్న	-9.72871
▁ప్రదర్శన	-9.72939
▁దర్శకత్వం	-9.72943
▁సమాచార	-9.73017
▁రోజూ	-9.73044
▁చెల్ల	-9.73072
ాల్సిందే	-9.73082
▁బడ	-9.73106
▁ప్రారంభ	-9.73135
▁ఆమోదం	-9.73208
మాన్	-9.73228
.10	-9.73238
▁పెట్టుకు	-9.73264
▁గౌరవ	-9.73274
▁జూనియర్	-9.73381
▁ప్లాంట్	-9.73381
▁యాక్షన్	-9.7341
▁గ్ర	-9.73657
ఓ	-9.73729
▁నేటి	-9.73797
▁పోస్టుల	-9.73805
▁రాజీ	-9.73837
▁రాశారు	-9.73871
▁జరిగాయి	-9.73897
▁మందు	-9.73902
▁ఎప్పటిక	-9.73904
▁మృతదేహ	-9.7394
▁నిర్మించిన	-9.73943
▁తేలింది	-9.73951
▁రాజకీయాలు	-9.74013
▁సింగరేణి	-9.74048
▁సంగీత	-9.74049
▁దీక్ష	-9.74071
▁విగ్రహ	-9.74118
▁చట్ట	-9.74146
▁వెనక	-9.74146
th	-9.74228
▁ಅ	-9.74277
▁కంపెనీల	-9.74292
▁ఎర్ర	-9.74297
కూర	-9.74304
డుతున్న	-9.74367
▁నటించి	-9.74369
▁75	-9.74369
▁కంట్రోల	-9.74495
▁⁭	-9.74504
ధార	-9.74666
.7	-9.74677
▁కోసమే	-9.74885
▁పబ్లిక	-9.74947
▁ఇరాన్	-9.7498
▁క్	-9.75099
పెద్ద	-9.75136
▁భద్రతా	-9.75145
▁సాగర్	-9.75157
▁కుమార్తె	-9.7517
▁కళ్ల	-9.75184
▁చాట	-9.75203
స్త్ర	-9.75213
▁పురుషుల	-9.75223
▁రాబోయే	-9.75226
▁అగ్ర	-9.75227
ామన్నారు	-9.75234
▁ఉండేది	-9.75254
▁రాలేదు	-9.75291
▁కార్యాలయంలో	-9.75304
▁పరిష్కరించ	-9.75315
▁సార	-9.75384
▁గ్రహ	-9.75438
▁సాధించింది	-9.75454
▁చెప్పాడు	-9.75519
▁అయ్య	-9.75541
ెర	-9.75597
▁ఇష్ట	-9.75652
▁ఆఫీసు	-9.75713
▁వో	-9.7573
▁హాజరయ్యారు	-9.75735
▁వస్తోంది	-9.75754
▁సాంగ్	-9.75757
▁చేయాల	-9.75819
▁కృష్ణా	-9.75827
▁ప్రవీణ్	-9.75848
▁నటించ	-9.7587
మ్స్	-9.7604
ోత్సవ	-9.76068
▁ప్రతిపాదన	-9.76075
▁టోర్నీ	-9.76075
▁పసుపు	-9.76075
▁కార్యాలయం	-9.7611
▁ఆర్డర్	-9.76205
▁ాలి	-9.76225
▁గ్రామాల్లో	-9.76246
ೂ	-9.76303
▁తున్న	-9.76351
▁చేయకుండా	-9.76364
▁ఎవరైన	-9.76434
▁ఆదిలాబాద్	-9.76531
▁చేస్తా	-9.76617
▁తలెత్త	-9.76652
▁బయటి	-9.76675
▁అర్హత	-9.7676
▁హమాస్	-9.76762
▁ఈవెంట్	-9.76764
▁సేవలు	-9.7684
▁శని	-9.76891
▁పాన్	-9.76961
▁ధర్నా	-9.76993
▁మ్యా	-9.77059
▁ఇల్లు	-9.7707
గర్	-9.77074
ండ్ర	-9.77103
▁రాజ్యాంగ	-9.77103
▁ప్రాంతం	-9.77136
▁సెక్యూరిటీ	-9.77219
▁పదార్థాల	-9.77219
▁కెమెరా	-9.77331
▁అధ్యయనం	-9.77334
▁లింగ	-9.77346
▁సాంకేతిక	-9.77449
గూడ	-9.77452
▁నియోజకవర్గాల	-9.77498
▁కేరళ	-9.77559
▁పాలసీ	-9.77584
▁ఉత్తర్వులు	-9.77645
▁షె	-9.77666
▁జరిప	-9.77708
▁కిందట	-9.77713
▁సంతోష	-9.77734
▁అవకాశముంద	-9.77759
▁జన్మ	-9.77773
▁కిరణ్	-9.77783
▁కోవాల	-9.77841
ج	-9.77856
▁హామీల	-9.77881
▁హెల్త్	-9.77912
▁ఎస్టీ	-9.77913
వరం	-9.77953
▁మరీ	-9.77995
చ్చి	-9.78043
▁స్థలం	-9.78102
▁శివకుమార్	-9.78144
▁వడ్డీ	-9.78144
▁సర్వీస్	-9.78144
▁యం	-9.78147
మోహన్	-9.78208
సిస్	-9.78209
▁వేరే	-9.78256
▁పేర్కొన్న	-9.78266
▁వ్యాధి	-9.78311
▁ఏకం	-9.78318
తున్నారు	-9.7834
▁నాలుగో	-9.78378
▁వెనక్కి	-9.78379
▁సీఐడీ	-9.78401
కాలంలో	-9.78439
▁సీఐ	-9.78494
▁గేట్	-9.78496
▁ఆదాయ	-9.7851
▁ఎదుర్కొంటున్న	-9.78516
▁ఇటు	-9.78528
▁నగరంలో	-9.78605
బోతున్న	-9.7872
▁ل	-9.78738
▁నివాస	-9.78805
ప్పటి	-9.78811
కెట్	-9.78826
▁కథనం	-9.78936
▁పోషించ	-9.79088
▁మూల	-9.79134
▁తిప్ప	-9.79171
▁విడి	-9.79266
▁తనిఖీ	-9.7929
▁ఇంటర్వ్యూ	-9.79312
▁و	-9.79354
▁మధ్యలో	-9.7938
..?	-9.79386
▁తేల్చ	-9.7947
ియల్	-9.79547
▁రంగారెడ్డి	-9.79562
▁కనిపిస్తుంది	-9.79563
▁ہو	-9.79591
▁ముస్లిం	-9.79656
▁భయపడ	-9.79672
▁కార్యకలాపాల	-9.79783
ుకుంటూ	-9.79791
▁స్కిల్	-9.79813
▁చేస్తానని	-9.79828
మన్	-9.79846
▁నిత్య	-9.79892
▁అందించారు	-9.79967
▁మనసు	-9.79995
▁గుడి	-9.80012
స్వామి	-9.80015
▁అనుగుణంగా	-9.8002
▁వైఎస్సార్	-9.8002
▁రాశుల	-9.8006
▁కొనసాగించ	-9.80086
▁రక్షించ	-9.80146
▁పరీక్షల	-9.80207
▁ప్రవేశించ	-9.8021
ि	-9.80257
పడి	-9.80297
▁నూనె	-9.80344
▁ఓటర్లు	-9.80357
▁వస్తాయి	-9.80384
▁హక్కుల	-9.80413
భి	-9.80447
▁మారి	-9.80476
▁క్రియేట	-9.80494
రై	-9.80544
▁లోపు	-9.80569
▁କ	-9.80585
▁డ్రా	-9.8063
ుతోందని	-9.80709
కాలం	-9.8072
،	-9.80732
▁అప్రమత్తం	-9.80732
▁ఇస్రో	-9.80733
▁అవినా	-9.80877
▁ఇద్దర	-9.80927
▁రంగంలో	-9.80942
▁గిల్	-9.81025
▁పెట్టింది	-9.81059
▁రక్త	-9.81127
ల్లి	-9.81165
▁కిలో	-9.8121
▁ల్యాండ్	-9.8121
▁ఎమ్మెల్యేల	-9.81211
ిస్తారు	-9.81234
థ్	-9.81281
▁అప	-9.81306
▁అడిగ	-9.81372
▁వ్యాఖ్యల	-9.81379
▁త్	-9.81394
▁వ్యాధుల	-9.81451
▁హింస	-9.81456
వ్య	-9.8147
▁ہے	-9.81481
▁జూ	-9.81633
▁భావిస్తున్న	-9.81648
▁తెలుసుకుందాం	-9.8169
▁హరీష్	-9.81691
▁ہے۔	-9.81697
▁ఛ	-9.81792
▁సంఘాల	-9.81809
▁ఉన్నత	-9.8188
స్తోందని	-9.81886
▁చేయలేదు	-9.81903
▁కడప	-9.81934
▁జరిగింద	-9.82037
▁ఉద	-9.82038
▁దిగిన	-9.82056
రత్న	-9.82057
▁2020	-9.82088
▁వహించ	-9.82135
▁కస్టడీ	-9.82173
▁సురక్షిత	-9.82173
▁ఆప్	-9.82185
▁వార్	-9.82194
▁ామన్నారు	-9.82242
▁తెలిప	-9.8234
▁సేవల	-9.82357
▁E	-9.82371
నియా	-9.82387
▁అక్క	-9.8241
▁కెనడా	-9.82415
▁గంజాయి	-9.82415
▁నటుడు	-9.82416
▁పోలిస్తే	-9.82418
▁న్నారు	-9.82425
▁వెళ్ళ	-9.82462
లాండ్	-9.82492
స్తుందని	-9.82501
▁మాస్టర్	-9.82517
▁మించి	-9.82596
▁ఆలస్యం	-9.82638
▁ఇసుక	-9.82658
▁గ్రా	-9.8273
▁పాలనలో	-9.82743
▁ప్రయత్నిస్తున్న	-9.82755
▁రేషన్	-9.82759
▁ఆసియా	-9.82813
▁అధ్యక్ష	-9.82826
ందే	-9.82852
at	-9.8292
▁అధ్యక్షుడి	-9.82921
L	-9.82958
▁అయోధ్య	-9.83062
▁ఉత్సవాల	-9.83069
▁।	-9.83075
▁అర్థ	-9.83088
▁గతేడాది	-9.83145
▁పొంగులేటి	-9.83145
▁ఐదేళ్ల	-9.83145
▁పొందిన	-9.83211
▁తీసుకొచ్చ	-9.83297
▁పైనే	-9.83348
न	-9.83378
▁విటమిన్	-9.83389
▁సుప్రీం	-9.83389
▁వినియోగదారుల	-9.83391
▁వెంకటస్వామి	-9.83394
▁పరిచ	-9.83398
▁జూలై	-9.83399
▁వర	-9.83421
▁నిర్మిస్తున్న	-9.83447
▁کہ	-9.83466
▁తప్పించ	-9.83546
▁ఎదుర	-9.83554
▁నిరుద్యోగుల	-9.83567
▁అవుత	-9.83609
▁జమ	-9.83635
▁అలర్ట్	-9.83636
▁పాడ	-9.83753
▁వంట	-9.83776
ాపురం	-9.83809
▁నిజం	-9.83833
▁కాళేశ్వరం	-9.8388
▁బౌలర్ల	-9.8388
ಣ	-9.8388
▁పెన్షన్	-9.83894
▁రుణ	-9.8391
▁కనిపించింది	-9.83941
▁అన్	-9.83983
లేని	-9.84019
▁బ్యాక్	-9.8409
▁కావాల	-9.84113
▁అభిప్రాయం	-9.84123
▁ఫోకస్	-9.84127
▁లేదంటే	-9.84129
▁اور	-9.84132
ందో	-9.84222
పాల్	-9.84237
▁రాష్ట్రపతి	-9.84245
▁డో	-9.84253
▁పడ్డారు	-9.84294
▁కనిపిస్త	-9.84334
▁చిత్రాల	-9.84343
త్రా	-9.84349
▁33	-9.84388
▁ఆదేశించింది	-9.84423
.8	-9.84431
▁పదే	-9.84442
▁వాన	-9.84476
▁మహబూబ	-9.84612
▁ముగిసిన	-9.84621
▁యూట్యూబ	-9.84621
▁మంచిర్యాల	-9.84621
▁మధు	-9.84631
ha	-9.84639
▁ఓవర్లలో	-9.84654
▁నిర్లక్ష్యం	-9.84772
▁సినిమాల	-9.84793
▁హు	-9.84839
▁వీలు	-9.84852
▁అనిల్	-9.84859
ఢ	-9.84865
▁అసోసియేషన్	-9.84869
▁ఒడిశా	-9.84872
▁దీ	-9.85086
▁!!	-9.8514
▁చరణ్	-9.85154
▁చనిపోయిన	-9.85204
▁చేస్తున్నా	-9.85224
▁లక్ష్మీ	-9.85362
▁వేధింపుల	-9.85367
▁ఫ్రెండ్	-9.85369
▁నచ్చ	-9.85369
▁బంతుల్లో	-9.85392
▁అంటారు	-9.85414
▁మంటలు	-9.85422
▁డిస్	-9.85449
▁రాస	-9.85471
డియా	-9.85481
▁వివాహం	-9.856
▁ఒప్పందం	-9.85611
▁భరోసా	-9.85617
▁ములుగు	-9.8562
▁న్నాయి	-9.85633
▁నిలబడ	-9.85706
సర్	-9.8571
▁లై	-9.8577
పురం	-9.85804
▁గడువు	-9.85868
▁దేశాలు	-9.85955
▁కాలేదు	-9.85993
▁సిటీలో	-9.86013
▁గెలవ	-9.86056
▁కలిస	-9.86066
▁అవ్వ	-9.86115
ଟ	-9.86119
▁మరికొందర	-9.86119
▁లైంగిక	-9.86119
▁గర్	-9.86122
▁ఐదుగుర	-9.86131
▁V	-9.86146
▁నంద	-9.86179
▁విశేషం	-9.86193
ఆ	-9.86193
▁పరంగా	-9.8625
▁జరగనున్న	-9.86269
▁కారణాల	-9.86297
ృత	-9.86301
▁ఏజెన్సీ	-9.86371
▁కోమటిరెడ్డి	-9.86371
▁ప్రత్యక్ష	-9.86371
▁దిల్లీ	-9.86372
స్తోంది	-9.86378
రియా	-9.86477
▁పెట్టాల	-9.86511
30	-9.86599
▁లీడర్	-9.86618
▁పరిష్కారం	-9.86641
▁పెరగ	-9.86677
▁సింహ	-9.86679
▁పోతున్న	-9.86718
▁కలవ	-9.8672
G	-9.86739
▁చేరుకున్నారు	-9.86782
▁వీడియోలు	-9.86827
పూడి	-9.8685
▁సలహా	-9.8687
▁సోనియా	-9.86896
▁పద్మ	-9.86942
▁పెరిగిన	-9.87004
▁మారాయి	-9.87041
▁ప్రభుత్వంలో	-9.87072
▁కొర	-9.87082
▁నమోదైంద	-9.87102
ଣ	-9.8713
▁లేటెస్ట్	-9.8713
▁అర్హుల	-9.87131
యత్	-9.87172
▁వైస్	-9.87175
▁గుర్తించి	-9.87185
ات	-9.872
▁విన్న	-9.8722
▁కలిగిన	-9.87238
▁ఏర్పడింది	-9.87354
▁చంద	-9.874
▁ಪ	-9.87428
▁ప్రయాణించ	-9.8743
▁తల్లిదండ్రుల	-9.87474
▁పెరుగుతుంది	-9.87652
▁ఆది	-9.87742
గొ	-9.87766
▁డాక్టర్లు	-9.87787
▁సీన్	-9.87863
▁ప్రయాణ	-9.87885
▁ఎనిమిది	-9.87887
▁ఫ్యాక్టరీ	-9.87914
▁చేశాయి	-9.87954
టెడ్	-9.87979
ఇ	-9.88028
▁భయం	-9.88059
బడి	-9.88133
▁పిలుపునిచ్చారు	-9.88152
▁రిపోర్టు	-9.88152
▁ఘోర	-9.88153
▁జట్టులో	-9.88156
▁ట్రైలర్	-9.88161
▁ఆర్మీ	-9.88161
▁స్తూ	-9.88182
▁కొట్టి	-9.88239
▁చేస్తున్నాయి	-9.88325
▁టీచర్	-9.88335
f	-9.88409
▁అంతకుముంద	-9.88409
▁అసిస్టెంట్	-9.88409
▁కేసుల	-9.88462
▁ఆత్మ	-9.88468
▁కన్న	-9.88468
▁టైం	-9.88505
ಡ	-9.88547
▁విషయాలు	-9.88617
▁ఏర్పడిన	-9.88621
▁తరచ	-9.88674
▁పట్టి	-9.88682
మైంది	-9.88818
▁చింత	-9.8882
▁ఎవరికి	-9.88822
▁మారిన	-9.88836
▁తిరు	-9.88883
పోయింది	-9.88884
కృత	-9.88897
▁మధ్యప్రదేశ్	-9.88925
▁సచివాలయ	-9.88925
▁తూర్పు	-9.88926
▁చంద్రయాన్	-9.88934
▁స్థిర	-9.89067
▁సహకారం	-9.89084
▁తీర్చ	-9.89087
ఫర్	-9.89097
ారో	-9.89133
▁అరవింద్	-9.89184
on	-9.89185
టివ్	-9.89227
▁వారాల	-9.89277
.50	-9.8929
▁వాటా	-9.89297
▁کیا	-9.89302
నాథ్	-9.89344
▁రంగంలోకి	-9.89352
▁పెరుగు	-9.89361
▁గానీ	-9.8937
▁భాగ	-9.89389
▁అంబేద్కర్	-9.89444
▁మెజార్టీ	-9.89444
▁స్కూళ్ల	-9.89445
▁పెట్టుబడి	-9.89452
▁ఉద్దేశ	-9.89456
▁ప్రయోజనాల	-9.89583
▁నిర్మాణాల	-9.8962
▁36	-9.89634
▁ఏఐ	-9.89642
▁బెంగాల్	-9.89707
▁కార్మికులు	-9.89718
▁విష్ణు	-9.89725
▁వలస	-9.89817
టెక్	-9.89844
▁చెలరేగ	-9.89905
▁దారుణ	-9.89971
▁రాజకీయంగా	-9.90032
▁హిందీ	-9.90047
▁ప్రో	-9.90062
తులు	-9.90115
▁చూపిస్త	-9.90126
▁t	-9.90162
▁నింప	-9.90172
▁బలహీన	-9.90227
▁నిందితుడు	-9.90228
▁డిజిటల	-9.90228
▁ఫీజు	-9.90228
▁నని	-9.90239
▁అభి	-9.90242
▁తిరుమలలో	-9.90256
▁రియల్	-9.90318
▁వార్త	-9.9034
▁కార్తీక	-9.90493
▁సంపద	-9.90513
మూర్తి	-9.90539
▁విదేశాల	-9.90574
▁స్తున్నారు	-9.90594
▁సాధించారు	-9.90595
▁వ్యాపారం	-9.90598
▁చేరుకుంది	-9.90624
▁చేయనున్న	-9.90624
▁తీసుకొని	-9.90637
▁వ్యవహారాల	-9.90746
▁స్పందన	-9.90754
▁پ	-9.90879
▁చేరింది	-9.90891
▁పోరు	-9.90898
ినేని	-9.90935
▁దూర	-9.9097
▁ుల	-9.91016
▁ఉత్కంఠ	-9.91017
▁ప్రజాస్వామ్య	-9.91017
▁నిర్ణయించింది	-9.91023
▁రేటు	-9.91065
నె	-9.91076
▁ପ	-9.91091
▁కన్నా	-9.91091
▁స్థానాలు	-9.911
▁స్తుంద	-9.91137
▁గంటల్లో	-9.9115
ବ	-9.91232
▁హైకమాండ్	-9.91282
▁డివిజన్	-9.91282
▁ఆంధ్ర	-9.91282
▁సహ	-9.91288
▁వీరిద్దర	-9.91293
▁బోతున్న	-9.91319
త్రిక	-9.91392
▁జాగ్రత్తలు	-9.91405
మంది	-9.91428
▁వాహనం	-9.91436
▁పోయి	-9.91444
▁ఏంటి	-9.91457
పరిచయం	-9.91468
خ	-9.91547
▁ప్రమోషన్	-9.91547
▁ఖాయమ	-9.91603
▁ారనే	-9.91715
▁లేరు	-9.91721
▁పాటించ	-9.91747
▁కలకలం	-9.91813
▁పరిహారం	-9.91813
▁విశాఖపట్నం	-9.91819
▁రాళ్ల	-9.91888
▁టీం	-9.91944
▁మట్టి	-9.91983
▁పొగ	-9.91995
▁48	-9.91997
▁స్మార్ట్	-9.9208
▁తప్పనిసరి	-9.9208
▁ఫేక్	-9.92082
▁వాదనలు	-9.9215
▁కాలనీ	-9.92192
ال	-9.92198
▁వేశ	-9.92217
▁తీవ్రత	-9.92218
▁బాంబు	-9.92293
▁కప్పు	-9.92306
▁పిటీషన్	-9.92347
▁నీళ్ల	-9.92384
▁తూ	-9.92405
▁ఇండస్ట్రీ	-9.92423
▁సిట్టింగ	-9.92458
చుకో	-9.92489
▁హాల్	-9.92497
▁విజయవంతం	-9.92565
▁క్యారెట్ల	-9.92567
▁గూగుల్	-9.92615
▁పనిచేసే	-9.92615
▁అంజ	-9.9262
▁మనిషి	-9.92641
▁బండ	-9.92686
▁దేశాల్లో	-9.92704
▁నిర్వహిస్త	-9.92762
▁ప్రయాణికులు	-9.92787
▁చెప్పాల	-9.92794
▁ఆలయంలో	-9.92802
▁విమానం	-9.92807
▁అభిప్రాయ	-9.92815
▁బ్ల	-9.92825
ేజ్	-9.92833
n	-9.92848
▁మార్క్	-9.92874
▁ఇంగ్లాండ్	-9.92884
▁ప్రతినిధి	-9.92885
▁వైరస్	-9.92887
▁వరి	-9.93066
▁భవిష్యత్	-9.93118
వైపు	-9.93139
▁విపరీత	-9.93153
▁గ్రామీణ	-9.93154
▁సమావేశాలు	-9.93186
▁తీసుకుంటామని	-9.93208
▁లీగ్	-9.93247
▁రాసిన	-9.93295
V	-9.93395
ହ	-9.93398
▁ప్రసాద	-9.93491
▁ر	-9.93555
▁కన్నడ	-9.93594
ః	-9.93668
▁ఉద్యమం	-9.93676
▁ప్రాథమిక	-9.93694
▁రిపోర్ట్	-9.93694
್ಯ	-9.93707
▁ఆహ్వాన	-9.93855
▁విధానాల	-9.93872
▁వెంకట	-9.93927
ଜ	-9.93966
▁ఛైర్మ	-9.93966
▁శ్రీధర్	-9.93985
▁హ్యా	-9.93995
▁అప్పుడ	-9.94088
ాత్మక	-9.94225
▁చేయండి	-9.94227
▁యాదాద్రి	-9.94239
▁భవనం	-9.9424
▁34	-9.94296
▁శ్ర	-9.9435
▁చేశార	-9.94362
▁ఉంటాయని	-9.94378
▁స్క్రీన్	-9.94394
▁ఇస్తే	-9.94395
▁ఇండ్లు	-9.94451
▁చెప్త	-9.94452
ెయిన్	-9.94459
▁ہ	-9.94507
▁కలెక్టరేట్	-9.94512
▁మరికొన్ని	-9.94512
▁సంప్రదించ	-9.94512
▁టన్నుల	-9.94519
▁వర్క	-9.94522
▁వడ్ల	-9.94558
▁గీత	-9.94565
▁మార్గాల	-9.94654
▁మంత్రుల	-9.94708
▁గిరిజన	-9.94772
▁ఫో	-9.94794
▁మహేష్	-9.94809
▁చేసుకోవచ్చు	-9.9482
▁వీడియోలో	-9.94845
▁దేవి	-9.94873
▁టర్	-9.9489
▁దూరంలో	-9.94923
సరి	-9.94983
▁L	-9.94996
▁మాటల	-9.94999
కృష్ణ	-9.95014
కూ	-9.95045
▁చై	-9.95063
▁షేక్	-9.95063
▁నిరాశ	-9.95065
▁స్త్రీ	-9.95067
▁బదులు	-9.95082
▁భూములు	-9.95138
▁నాయ	-9.95138
▁వినిపిస్తున్న	-9.95173
▁మాటలు	-9.95225
▁పోస్టులు	-9.9523
▁వెలువడ	-9.95336
▁అవసరాల	-9.95337
▁బ్యాటర్	-9.95341
▁ప్రధానమంత్రి	-9.95356
▁నిల్వ	-9.9536
▁32	-9.95439
▁చూశా	-9.95537
▁చెబుత	-9.9554
బోయే	-9.95557
▁గిరి	-9.95568
▁సొంతం	-9.95571
▁కతా	-9.95617
క్కల	-9.95721
▁పడుతుంది	-9.95807
▁సోర్స్	-9.95808
బడ్డ	-9.9582
స్తానని	-9.95836
▁ఇతరుల	-9.95845
▁మొదలైన	-9.95886
▁బిజినెస్	-9.95889
▁హైడ్రా	-9.9589
ిపి	-9.95893
▁సైనికుల	-9.95944
▁ان	-9.95947
▁సమాన	-9.96023
ೊ	-9.96166
▁మున్సిపాలిటీ	-9.96167
▁రిమాండ్	-9.96167
▁బియ్యం	-9.96216
▁సూచన	-9.96234
▁డిగ్రీల	-9.96265
ri	-9.96274
▁మంత్రిత్వ	-9.96351
▁టో	-9.96369
▁గోడ	-9.96392
▁జీవో	-9.96396
▁సిరిసిల్ల	-9.96446
▁జు	-9.96502
▁బెడ్	-9.96553
స్టర్	-9.96679
▁అవుతున్నాయి	-9.96679
▁రోగ	-9.96687
▁గర్భ	-9.96759
ఎ	-9.96778
▁బార్	-9.96779
▁300	-9.96809
▁ణ	-9.96856
▁ఫ్ర	-9.96878
మంతా	-9.96908
▁పార్క్	-9.96945
ಚ	-9.97005
▁పటేల్	-9.97006
▁సత్యనారాయణ	-9.97008
▁అనుమతించ	-9.97027
▁పెట్టే	-9.97049
▁F	-9.97066
▁తెలుస	-9.97074
▁H	-9.97076
▁జరుగుతున్నాయి	-9.97116
▁మండ	-9.97198
▁చక్క	-9.97219
▁ుడు	-9.97251
▁రిజిస్ట్రేషన్	-9.97286
▁న్యాయవాది	-9.97286
▁రమేశ్	-9.97286
‍	-9.97323
ش	-9.97379
షియల్	-9.97402
▁ی	-9.97408
▁కాని	-9.97422
▁వస్తుంద	-9.97481
▁ఏసీబీ	-9.97588
అ	-9.97631
▁ఎత్తి	-9.97664
▁వాళ్ళ	-9.9769
▁జైలులో	-9.97693
▁నటిస్తున్న	-9.97694
st	-9.97744
▁చట్టాల	-9.97784
కరమైన	-9.97818
▁అనుమానం	-9.97824
▁ಗಳ	-9.97857
▁చేరి	-9.97885
▁ప్రీ	-9.97895
వాల్	-9.97897
ಕ್	-9.9795
▁తేల	-9.97983
▁సంవత్సరంలో	-9.98032
ందరిక	-9.98118
▁42	-9.98128
▁కర్నాటక	-9.98133
▁రెండేళ్ల	-9.98135
▁మోడల్	-9.98135
▁చేసుకోవడం	-9.98154
▁ఉన్నాయ	-9.98186
▁గొ	-9.98246
స్తాన్	-9.98249
▁సహాయక	-9.98275
పోయారు	-9.98294
▁కౌ	-9.98316
▁స్తారు	-9.98373
-2	-9.98384
▁సమక్షంలో	-9.98418
▁రమేష్	-9.98418
▁చిన్నారి	-9.98422
▁ایک	-9.98429
▁స్థ	-9.9847
▁د	-9.98472
▁పథకాలు	-9.98484
▁వర్ష	-9.98509
▁గోల్డ్	-9.98528
▁డిగ్రీ	-9.98602
▁తొమ్మిది	-9.98649
▁మోస	-9.98651
▁సంవత్సరాలు	-9.98651
▁స్పష్టత	-9.98703
▁జపాన్	-9.98703
▁వివరణ	-9.98703
ాధికార	-9.98822
▁పుర	-9.98926
AD	-9.98942
▁వేర్	-9.98965
▁37	-9.9897
▁ఉన్నప్పటికీ	-9.98981
▁పర్యావరణ	-9.98988
▁ాలు	-9.99014
▁కుక్క	-9.99055
ుతారు	-9.9916
▁కోటి	-9.99195
▁బాస్	-9.99207
▁సీఎస్	-9.99216
▁వస్తువుల	-9.99229
▁స్ట్ర	-9.99234
▁ఆస్తుల	-9.99259
ल	-9.99275
▁సీరియస్	-9.99275
▁ఓటీటీ	-9.99275
▁మేలు	-9.9949
కరి	-9.99515
శాల	-9.99523
▁జ్యోతి	-9.99562
▁సానుకూల	-9.99562
ಾಗ	-9.99581
▁చదివ	-9.99608
▁సిద్దం	-9.99619
▁పేర్లు	-9.99713
▁బాద	-9.99837
▁గురైన	-9.99837
▁న్యూజిలాండ్	-9.9985
▁శాస్త్ర	-9.9986
▁నోట్ల	-9.99925
▁నిర్వహించే	-9.99931
▁బాడీ	-10.0001
▁లాల్	-10.0002
▁ఇష్టం	-10.0004
▁పట్టించుకో	-10.001
ो	-10.0014
▁వేణు	-10.0014
▁సౌత	-10.0018
▁పెట్టడం	-10.0018
▁ఉన్నాడు	-10.0019
▁ప్రాజెక్టుల	-10.0025
▁బ్రాండ్	-10.0027
▁బాట	-10.003
▁యూనిట్	-10.0032
▁దారుల	-10.0034
▁విమాన	-10.0035
▁అడుగుల	-10.0037
▁పరిశీలించ	-10.0037
▁భావ	-10.0037
▁కార్య	-10.0038
▁a	-10.0041
▁ର	-10.0045
▁సిద్ద	-10.0046
▁వేస్తున్నారు	-10.0047
▁అందిస్త	-10.0058
▁ప్రాణాల	-10.0059
▁కట్	-10.006
▁శ్రీరామ	-10.0063
▁కార్యాలయ	-10.0071
▁కేటాయింపు	-10.0072
▁వారితో	-10.0073
▁ఎదుట	-10.0073
▁కష్టం	-10.0074
▁ట్రాక్	-10.0078
▁భవనాల	-10.0078
▁సహకరించ	-10.008
▁రోజా	-10.0083
యింది	-10.0085
▁సూచించ	-10.0085
▁తీసుకోవాలి	-10.0087
▁నడిప	-10.0088
▁తరహాలో	-10.0094
▁నాన్	-10.0095
ేసింది	-10.0098
సో	-10.01
▁స్వీకారం	-10.01
▁కొత్తగూడెం	-10.0111
▁ందా	-10.0111
▁వికెట్ల	-10.0122
▁కపోవడం	-10.0128
ర్తి	-10.013
▁నిందితుడి	-10.013
▁అందజేశారు	-10.0131
▁అవుట్	-10.0131
▁నిర్వహించి	-10.0138
▁क	-10.0141
▁ప్రశ్నలు	-10.0143
▁మనకు	-10.0147
▁గుర్	-10.0147
చేశారు	-10.0154
▁లోపల	-10.0156
▁గలిగ	-10.0158
▁కసరత్తు	-10.016
▁స్తార	-10.0161
▁ఆస్తి	-10.0162
ମ	-10.0169
▁తొలు	-10.0172
స్సు	-10.0173
▁ఫలితం	-10.0183
▁కంటి	-10.0187
▁కారులో	-10.0189
▁డౌన్	-10.0189
▁ః	-10.0191
▁ద్ర	-10.0196
▁అశోక్	-10.0199
▁అనారోగ్య	-10.0201
▁బలం	-10.0206
▁రావాల్సి	-10.0209
▁చేస	-10.0212
▁మరణ	-10.0213
▁అభిప్రాయపడ్డా	-10.0219
▁ఉత్తరప్రదేశ్	-10.0219
▁విక్రమార్క	-10.0219
▁అభిమాన	-10.0219
▁కోత	-10.0242
రాన్	-10.0246
▁అరుద	-10.0246
▁బాలకృష్ణ	-10.0249
▁లైఫ్	-10.0253
▁టాటా	-10.0254
ెత్త	-10.0256
▁హర్ష	-10.0258
▁ఎండీ	-10.0262
▁చేత	-10.0262
▁పాలక	-10.0266
నీయ	-10.0277
▁ఎద్దేవా	-10.0278
▁నియంత్రణ	-10.0278
▁లిమిటెడ్	-10.0278
▁ఫల	-10.0281
▁ాలను	-10.0285
▁బంధు	-10.0288
▁సెమీ	-10.0293
▁వరదల	-10.0297
▁జట్ల	-10.0302
▁కారణాలు	-10.0302
▁మొదలుపెట్ట	-10.0307
▁ఔట్	-10.0308
▁బ్రహ్మ	-10.0308
టరీ	-10.0308
రంగ	-10.0308
▁గెలిపించ	-10.0309
▁జాన్	-10.0311
▁స్నేహితుల	-10.0311
▁అయినప్పటికీ	-10.0313
ఘా	-10.0318
▁రాజా	-10.0322
▁ఫోర్	-10.0323
▁సమాజ	-10.0325
▁బరిలో	-10.0329
▁బిజీ	-10.0334
▁్ని	-10.0335
ह	-10.0337
▁లడ్డూ	-10.0337
▁పవిత్ర	-10.0338
▁ప్రగతి	-10.0338
▁నకిలీ	-10.0338
▁అడిషన	-10.0339
▁తీసిన	-10.0344
چ	-10.0352
▁బీజేపీలో	-10.0353
▁ాల్సి	-10.0354
▁వాహనాలు	-10.0354
▁ప్రైవేటు	-10.0355
▁అప్ప	-10.036
▁ఒక్కరి	-10.0363
▁ఘర్షణ	-10.0367
▁అఖిల	-10.0367
▁యూనియన్	-10.0367
▁బారిన	-10.0368
▁బిల్డింగ్	-10.0368
▁సంగారెడ్డి	-10.0368
▁పడిపోయ	-10.037
ేరిట	-10.0372
▁చేస్తున్నామని	-10.0378
▁మహారాష్ట్రలో	-10.0379
▁ట్రై	-10.0385
▁మెట్	-10.0387
▁ారో	-10.0392
ಟ್	-10.0397
▁ఎలక్షన్	-10.0398
దుపరి	-10.0398
▁రేట్	-10.0401
▁3,	-10.0403
▁వీడ	-10.042
▁41	-10.0425
त	-10.0428
▁పద్ధతి	-10.0428
▁పెరిగే	-10.0429
▁కొన్న	-10.0436
▁పరిశ్రమల	-10.0439
ేందర్	-10.044
▁మార్గం	-10.0445
▁చరిత్రలో	-10.0446
▁చెట్ల	-10.0447
▁ుడి	-10.0447
▁ఓటింగ్	-10.0456
▁చోటుచేసుకుంద	-10.0458
▁నెల్లూరు	-10.0458
▁ఫీచర్	-10.0458
▁పిలుపు	-10.0458
▁చేసుకోవాలి	-10.047
▁ఊర	-10.0477
▁కిలోల	-10.0483
ୋ	-10.0488
▁శాసనసభ	-10.0488
▁స్కామ్	-10.0488
▁కళాశాల	-10.0488
▁పాము	-10.0491
▁తీశారు	-10.0493
▁లిస్ట్	-10.05
▁మంద	-10.0502
▁తెలియదు	-10.0504
▁పరిశీలించి	-10.0508
▁పడుతుంద	-10.0512
▁55	-10.0513
▁ఆనందం	-10.0517
▁తేల్చి	-10.0518
▁మ్యూజిక్	-10.0518
▁విస్తరించ	-10.0518
▁స్వల్ప	-10.0519
▁మంచు	-10.052
▁నువ్వు	-10.0521
వంతమై	-10.0535
▁విమానాల	-10.0535
▁పోయ	-10.0539
▁అనుబంధ	-10.0549
▁మెజారిటీ	-10.0549
▁మనుషుల	-10.0549
▁స్కీమ్	-10.0549
▁వచ్చా	-10.0552
▁రాయ్	-10.0555
▁చెప్పాలి	-10.0555
▁భోజనం	-10.0555
▁అనుభవ	-10.0558
కార్	-10.0563
▁మరణించారు	-10.0567
పోతు	-10.057
▁గంటలు	-10.0574
▁పరిణామాల	-10.0578
▁హాజరై	-10.058
▁టాపిక్	-10.058
▁రాగానే	-10.0582
స్తున్నట్లు	-10.0586
▁ఉష్ణోగ్రతలు	-10.0589
▁ఇదిలా	-10.0593
▁డిజైన్	-10.0595
▁తేలిక	-10.0597
▁కోర్టుకు	-10.0604
70	-10.0609
▁సూర్యాపేట	-10.061
▁గఢ్	-10.061
▁కత్తి	-10.0611
▁ಗ	-10.0611
▁జరిగితే	-10.0611
▁చేయలే	-10.0618
▁కుంటున్న	-10.0623
▁అవుతుందని	-10.0625
▁వాలంటీర్ల	-10.0627
▁కనిపించడం	-10.0628
▁పారి	-10.0629
▁రెండ	-10.0638
▁ఇబ్బందుల	-10.064
▁అప్పు	-10.0641
▁వాట్సాప్	-10.0641
▁కడుపు	-10.0641
▁పూర్త	-10.0644
ుకుంటున్నారు	-10.0649
▁రాం	-10.0652
▁కాన్	-10.0653
కోవడం	-10.0654
▁ధాన్యం	-10.0654
▁బెస్ట్	-10.0655
డె	-10.066
▁పీఎస్	-10.0669
▁ఆలయం	-10.0669
ివ్	-10.0671
▁రిజర్వ్	-10.0672
▁అవుతున్నారు	-10.0672
▁మహబూబాబాద్	-10.0673
▁లింక్	-10.0674
▁బొమ్మ	-10.068
▁నిర్మాణానికి	-10.0683
లక్ష	-10.0686
▁పలికారు	-10.0692
▁పెట్రోల్	-10.0698
▁మార్పుల	-10.07
्	-10.0702
▁అదుపు	-10.0703
▁ఖర్గే	-10.0703
▁మణిపూర్	-10.0704
▁ఉత్తమ	-10.072
▁నిఘా	-10.0721
ుకుంటారు	-10.0728
▁పుట్టిన	-10.0729
▁ంటే	-10.073
ର୍	-10.0732
▁గ్లోబల్	-10.0734
▁బ్రిటన్	-10.0734
▁జోరు	-10.0735
▁చెబుతోంది	-10.0736
స్తున్నాయి	-10.0742
▁వాహన	-10.0745
▁ఉన్నట్టు	-10.0755
▁పోవడం	-10.0763
▁నవీన్	-10.0765
▁పార్	-10.0766
▁పాయింట్	-10.0766
▁వెలుగులోకి	-10.0769
▁క్రీ	-10.0773
▁సిట్	-10.0773
▁ప్రయోగ	-10.0775
▁నిర్వహించనున్న	-10.078
▁వలన	-10.0782
▁کر	-10.0782
▁మణి	-10.0785
▁పెట్టుబడులు	-10.0786
▁ویڈیو	-10.0796
▁శుభాకాంక్షలు	-10.0796
▁వయస్సు	-10.0796
▁మామిడి	-10.0796
▁సదస్సు	-10.0797
▁బస్	-10.0798
▁ఊహించని	-10.08
▁సంబంధాలు	-10.0803
▁ప్రతిరోజ	-10.0809
▁లేకపోత	-10.0815
▁ధరల	-10.0823
▁ఆస్పత్రికి	-10.0824
▁డిపార్ట్	-10.0828
▁విస్తృత	-10.0828
▁సగటు	-10.0828
బద్ధ	-10.0829
▁విమర్శ	-10.0835
▁కోరిక	-10.0835
ಸ	-10.0841
పీఎస్సీ	-10.0848
ପ	-10.085
H	-10.0851
▁వ్వ	-10.0851
.15	-10.0853
▁పులి	-10.0857
▁చైర్	-10.0857
▁పండగ	-10.0859
▁గ్రేటర్	-10.0861
▁జుట్టు	-10.0863
▁కొల	-10.0866
▁గాయ	-10.0869
▁సైన్యం	-10.0879
ొక	-10.0882
▁దళిత	-10.0887
▁ప్రమాదకర	-10.0889
▁ತ	-10.0893
▁రాజకీయం	-10.0894
ఖ్	-10.0898
▁నిరుద్యోగ	-10.0899
ెస్ట్	-10.0908
F	-10.0915
▁యాజమాన్యం	-10.0917
▁నొప్పి	-10.0922
▁సభ్యుడు	-10.0922
▁RE	-10.0923
▁ప్లేస్	-10.093
చారం	-10.0931
▁ମ	-10.0934
▁ఖాతా	-10.0935
▁వేచి	-10.0939
▁నిర్మల్	-10.0941
▁ఉదాహరణ	-10.0954
▁జమ్మూ	-10.0954
▁ఛాన్స్	-10.0956
▁یہ	-10.0956
▁ప్రమాదాల	-10.0958
▁ఫలితంగా	-10.0961
▁పోరాట	-10.0969
▁వచ్చినా	-10.0975
గడ	-10.0986
▁పల్లె	-10.0986
▁ప్రజల్లో	-10.0986
▁స్కాం	-10.0989
▁ారంటూ	-10.099
▁అడుగులు	-10.0992
▁ప్రారంభించిన	-10.1
▁నవ్వ	-10.1001
ానంద	-10.1005
▁కోరుకుంటున్న	-10.1011
▁కూడ	-10.1015
▁చిరుత	-10.1015
▁;	-10.1016
▁దాకా	-10.1016
ଗ	-10.1018
▁ఎవరిక	-10.1018
▁సన్న	-10.1019
,500	-10.1019
▁గమనించ	-10.102
▁వచ్చాక	-10.102
▁బాధితులు	-10.1024
را	-10.1025
▁ఇప్పుడ	-10.1032
▁O	-10.1036
▁బుధ	-10.1038
▁బెల్	-10.1042
ं	-10.105
▁కూరగాయల	-10.105
▁కుటుంబాలకు	-10.1052
▁తీర్మానం	-10.106
▁టీజర్	-10.1062
▁మాల్	-10.107
▁తీసుకొ	-10.1071
▁విదేశా	-10.1072
ಪ	-10.1076
▁ALS	-10.1082
▁అలవాటు	-10.1082
▁రాజమండ్రి	-10.1082
▁సపోర్ట	-10.1082
▁నెయ్యి	-10.1082
▁కుటుంబంలో	-10.1082
▁ఉప్పు	-10.1082
▁ముప్పు	-10.1082
▁సంచారం	-10.1085
▁అమ్మవారి	-10.1086
▁చంద్రశేఖర్	-10.109
▁సినిమాల్లో	-10.1092
ండటంతో	-10.1097
▁బర్	-10.1101
▁లభించింది	-10.1101
▁మిస్	-10.1106
▁కొనసాగుత	-10.1106
▁సంప్రదాయ	-10.1109
▁ఆనంద్	-10.1114
▁శుక్ర	-10.1114
▁అనిపించ	-10.1114
▁యువకుడు	-10.1114
▁పిలిచ	-10.1115
▁చెల్లింపు	-10.1115
▁گیا	-10.1115
▁వేతన	-10.1117
భై	-10.1117
▁వాడి	-10.1118
బడిన	-10.112
▁చర్య	-10.1123
60	-10.1127
▁గౌ	-10.1129
▁కెసిఆర్	-10.1147
▁విభజన	-10.1147
▁స్టోరీ	-10.1147
▁బీసీల	-10.1152
▁సత్తా	-10.1153
▁తెలిపిన	-10.1162
j	-10.1164
▁విగ్రహం	-10.1166
▁విజయాల	-10.1168
▁టూ	-10.1176
▁తెల్ల	-10.1178
▁అత్యవసర	-10.1179
▁కానిస్టేబుల్	-10.1179
▁దసరా	-10.1179
▁సివిల్	-10.1179
▁యాంటీ	-10.1179
▁రూరల్	-10.1181
▁వందే	-10.1182
▁డాలర్ల	-10.1182
▁సమగ్ర	-10.1183
▁వస్తాయని	-10.1184
▁బహ	-10.1189
▁అసంతృప్తి	-10.1189
▁గణ	-10.119
ందర్	-10.1191
▁పథక	-10.1192
▁ండి	-10.1195
▁భారతదేశ	-10.1196
▁నున్న	-10.1202
▁నేతలతో	-10.1212
▁డెలివరీ	-10.1212
▁ధ్వంసం	-10.1212
▁క్వార్టర్	-10.1212
▁సునీల్	-10.1212
▁సింగిల్	-10.1212
▁సంఘ	-10.1214
▁బయలుదేరి	-10.1224
డుతూ	-10.1233
▁బాధపడుతున్న	-10.1234
▁స్తే	-10.1244
▁తెలుస్తుంది	-10.1244
▁భద్రాద్రి	-10.1244
▁సునీత	-10.1245
▁లాక్	-10.1246
▁రంగం	-10.1249
▁జనతా	-10.1252
▁లైట్	-10.1256
▁గంగ	-10.126
▁బీమా	-10.1263
▁వివరించ	-10.1265
▁భాస్కర్	-10.1277
▁బుద్ధ	-10.128
▁స్వాగతం	-10.1284
▁ఆర	-10.1284
▁అంశాలు	-10.1288
▁తినడం	-10.13
▁మార్గంలో	-10.1301
▁రోల్	-10.1302
▁గేమ్	-10.1303
▁మేక	-10.1303
▁చనిపో	-10.131
▁సస్పెండ్	-10.131
▁150	-10.1316
▁తేదీల్లో	-10.1322
▁టం	-10.1326
▁కోటా	-10.1329
▁వచ్చినట్లు	-10.1334
▁రూప	-10.1335
▁అనారోగ్యం	-10.1335
▁ఎంపీలు	-10.1335
▁ఆస్పత్రిలో	-10.1338
▁నిర్వ	-10.1342
▁ఇంటర్నేషనల్	-10.1343
▁ఎన్డీఏ	-10.1343
▁దక్షిణాఫ్రికా	-10.1343
▁హిందువుల	-10.1343
▁ఇందిరా	-10.1343
▁వెన్న	-10.1344
▁టికెట్లు	-10.1345
▁తనిఖీలు	-10.1346
▁పెరిగాయి	-10.1353
ంబర్	-10.1359
▁ుడ	-10.1362
చ్చింది	-10.1362
▁ఎంటర్	-10.1362
▁పౌర	-10.1367
క్ట్	-10.1372
చేసి	-10.1372
प	-10.1376
▁అంతరిక్ష	-10.1376
▁సీపీఐ	-10.138
▁నగరం	-10.1381
▁నిర్ణయాల	-10.1381
▁రోడ్లు	-10.1383
▁ఫాలో	-10.1385
▁ఒక్కర	-10.1386
▁నేపాల్	-10.1386
▁తెరకెక్క	-10.1388
▁చేసుకొన	-10.1389
▁వంతు	-10.139
▁సహజ	-10.1391
▁వేడుకల	-10.1391
▁బాధిత	-10.1392
రణ్	-10.1394
▁ఆధారాలు	-10.1402
▁ಜ	-10.1405
▁దారుణం	-10.1409
▁ప్రకటిస్త	-10.1409
▁స్నాన	-10.1414
▁అప్పుడే	-10.1414
en	-10.1419
▁రక్తం	-10.1422
▁వాటిలో	-10.1427
▁మంట	-10.1431
యాన్	-10.1436
▁చేతుల	-10.144
▁ఇంటెలిజెన్స్	-10.1443
▁లబ్ధిదారుల	-10.1443
▁ఉంటూ	-10.1443
▁నెలకొన్న	-10.1443
▁ఇళ్లు	-10.1456
▁4,	-10.146
▁బూ	-10.1465
▁విధించ	-10.1468
▁చేతులు	-10.1476
▁చౌదరి	-10.1476
▁కబ్జా	-10.1476
▁స్కోరు	-10.1476
▁వారీగా	-10.1478
▁టు	-10.1479
▁వార్డు	-10.1486
▁46	-10.1486
స్తారు	-10.1487
▁మండలి	-10.1487
▁చూసే	-10.1489
▁సుఖ	-10.1489
▁మిలియన్	-10.1492
▁కోరుతున్నారు	-10.1494
▁జరుగ	-10.1496
▁ఎక్కడి	-10.1499
▁రాశిలో	-10.1504
▁చిట్	-10.1505
▁సైనిక	-10.1509
▁ముంబయి	-10.151
▁పనితీరు	-10.151
▁సురేష్	-10.151
▁ఇంద్ర	-10.1514
▁మేయర్	-10.1518
▁ట్రేడ	-10.152
▁ఉందా	-10.1526
▁లభిస్తుంది	-10.1532
▁సీజ్	-10.1535
▁దండ	-10.1535
▁ଏ	-10.1543
▁అభిషేక	-10.1543
▁అహ్మద్	-10.1543
▁2016	-10.1543
▁ప్రదర్శించ	-10.1543
ସ	-10.1546
▁ారన్న	-10.1551
▁ఏమిట	-10.1555
▁సూచించింది	-10.1556
▁ఓడిపోయ	-10.1561
పూర్వక	-10.1565
▁తెలుసుకున	-10.1574
-3	-10.1574
ರು	-10.1575
▁క్రమం	-10.1576
▁డీజీపీ	-10.1577
▁లేవని	-10.1579
▁ంత	-10.158
پ	-10.158
▁లారీ	-10.1581
▁శ్రమ	-10.1594
▁భారతీయుల	-10.1594
▁సెకండ్	-10.1601
▁దశాబ్దాల	-10.1601
▁తుంద	-10.1606
▁భాగస్వామ్య	-10.1611
▁వృత్తి	-10.1611
▁రివ్యూ	-10.1611
రన్	-10.1613
దేవి	-10.1614
▁పెడ	-10.1622
▁ప్రసంగ	-10.1627
▁ఏసీ	-10.1639
▁ନ	-10.1641
▁లీక్	-10.1641
▁సెన్స	-10.1644
▁గుండెపోటు	-10.1645
▁బిఆర్ఎస్	-10.1645
▁బైడెన్	-10.1647
▁కొందరి	-10.1648
▁నౌక	-10.1648
వుతుంది	-10.165
▁స్పందించిన	-10.1651
▁కులాల	-10.1652
▁టెలి	-10.1656
▁వేడుకలు	-10.1662
▁జాబ్	-10.1667
▁అప్పటిక	-10.1668
▁సూచనలు	-10.1671
▁బిల్	-10.1671
▁హైవే	-10.1673
▁స్పోర్ట్	-10.1679
ص	-10.1679
▁చైతన్య	-10.1679
▁ఇందుకోస	-10.1679
▁శాసన	-10.168
▁షాపుల	-10.168
▁నిందితులు	-10.169
▁వాసుల	-10.1693
▁వ్యతిరేకత	-10.17
▁చెబుతున్నాయి	-10.1701
▁పొందుతున్న	-10.1703
ిపోయిన	-10.1706
▁గ్యాంగ్	-10.1713
▁బ్రిడ్జి	-10.1713
୍ୟ	-10.1715
▁పర్సన్	-10.1715
▁ముద్ర	-10.1717
సై	-10.1717
K	-10.172
▁జరిపి	-10.172
▁చూడాల	-10.1724
▁అదనంగా	-10.1725
▁న్యాయస్థానం	-10.1726
▁ఎత్త	-10.1727
▁మొదటిసారి	-10.1733
▁మార్గ	-10.1734
▁ରେ	-10.1737
▁గోల్	-10.1739
▁వేసే	-10.1741
▁అంతేకాకుండా	-10.1748
▁జాతర	-10.1748
▁విక్రయ	-10.1756
▁అండర్	-10.1766
▁వెళ్లాల	-10.1769
▁బలగాల	-10.178
▁చిత్తూరు	-10.1782
▁ఆరుగుర	-10.1784
▁సాధిస్త	-10.1784
▁వినియోగ	-10.1787
▁ఉపయోగ	-10.1792
▁38	-10.1815
▁అప్లికేషన్	-10.1817
▁ఖచ్చిత	-10.1817
▁గమనార్హం	-10.1817
▁స్కోర్	-10.1817
▁జంతువుల	-10.1818
▁బిలియన్	-10.1818
▁కొంతకాలం	-10.1819
▁వయసులో	-10.1822
▁జరిగి	-10.1823
యింగ్	-10.1827
▁తరలి	-10.1828
▁చెత్త	-10.1835
▁భీమ	-10.1836
▁హామీలు	-10.1838
▁క్షేత్ర	-10.1851
▁ఓపెనర్	-10.1852
▁కౌన్సిల్	-10.1852
▁బెదిరించ	-10.1852
▁సర్టిఫికెట్	-10.1852
▁నిరంతర	-10.1852
▁నేల	-10.1854
▁ధైర్యం	-10.186
98	-10.186
ح	-10.186
▁హెచ్చరిక	-10.1863
▁ట్లే	-10.1865
▁ధరణి	-10.1865
▁లక్ష్మి	-10.1866
▁బాబ	-10.1871
▁గెలిచ	-10.1872
▁సమావేశాల	-10.1876
▁ఉచితంగా	-10.1879
▁భయ	-10.1882
▁వదిలి	-10.1883
▁వేయడం	-10.1885
म	-10.1886
▁ఇంగ్లండ్	-10.1886
▁రవీంద్ర	-10.1886
▁సర్పంచ్	-10.1886
▁స్ఫూర్తి	-10.1886
▁జనగామ	-10.1887
▁నెటిజన్లు	-10.1887
▁కౌంటింగ్	-10.189
ంచాలని	-10.1894
▁W	-10.1896
▁జనాల	-10.1906
పుడు	-10.1916
▁పాలి	-10.1921
▁భద్రాచలం	-10.1921
▁భువనగిరి	-10.1921
▁ఉత్పత్తుల	-10.1921
▁సాఫ్ట్	-10.1921
▁అబ్దుల్	-10.1922
▁దానం	-10.1925
▁కొరియా	-10.1926
ఖా	-10.1928
▁గుండ	-10.1929
▁వెలి	-10.1929
▁ంచారు	-10.193
▁టే	-10.1934
▁39	-10.1934
సిపి	-10.1934
▁అప్పులు	-10.1935
▁ర్యా	-10.1937
▁మేనేజ్	-10.1943
▁కలసి	-10.1944
▁బాక్స	-10.1948
▁చౌ	-10.1953
▁తొ	-10.1953
▁డిపాజిట్	-10.1957
▁ప్రచురించ	-10.1957
▁సుదీర్ఘ	-10.1957
▁హర్యానా	-10.1957
▁గొంతు	-10.1957
▁సోదాలు	-10.1957
▁స్పేస్	-10.1957
ైడ్	-10.1958
▁తెలిసిన	-10.1958
▁కూడద	-10.1958
▁టెన్షన్	-10.1959
▁కూల్	-10.196
▁లాభాలు	-10.1971
▁అప్పుల	-10.1976
▁U	-10.1981
▁జరిపిన	-10.1982
▁ఆడిన	-10.1986
▁ొద్ద	-10.1987
▁దోష	-10.1987
▁దాస్	-10.1989
▁పిఠాపురం	-10.1992
▁పొలిటిక	-10.1992
▁వృద్ధి	-10.1992
▁ఏజెంట్	-10.1992
▁రామచంద్ర	-10.1992
▁జాతకుల	-10.1992
▁సూచిస్తున్నారు	-10.1993
▁బంతి	-10.1993
▁ఆమోదించ	-10.1994
▁కోల్పోయిన	-10.1996
▁అన్యాయం	-10.1996
పద	-10.1997
▁కలుప	-10.1997
ರಿ	-10.2009
గ్రా	-10.2016
▁తెలిసి	-10.2018
▁దృశ్య	-10.2027
▁నిజంగా	-10.203
▁ಇ	-10.203
▁కాద	-10.2041
▁రూట్	-10.2041
▁మరణించ	-10.2044
▁చెట్టు	-10.2046
▁స్టాక్	-10.2048
ین	-10.2048
▁మార్కుల	-10.205
▁నియామక	-10.205
▁వారే	-10.2052
▁గ్ల	-10.2056
▁అనుసరించ	-10.2063
▁గజ	-10.2063
▁మన్నారు	-10.2069
▁కలగ	-10.207
▁జట్లు	-10.207
ରେ	-10.208
▁టీచర్ల	-10.2081
▁ఎలక్ట్రిక	-10.2084
▁సదర	-10.2086
వెన్	-10.2087
▁సుందర	-10.2088
▁శరీరం	-10.2091
▁నంది	-10.2093
▁శంకుస్థాపన	-10.2098
▁సీతక్క	-10.2098
▁చక్కెర	-10.2099
▁యూఎస్	-10.211
▁అక్రమాల	-10.2126
▁వంశీ	-10.2133
▁యజమాని	-10.2134
మెయిల్	-10.2136
▁కల్పిస్త	-10.2137
▁పెంపు	-10.214
▁ఇంటర్న	-10.2143
▁గుట్ట	-10.2148
▁ప్రశాంత	-10.2151
▁వీసా	-10.2153
▁వాయు	-10.2153
▁అనుభవం	-10.2156
▁అందించిన	-10.2156
▁చేస్తుందని	-10.216
▁అతన్న	-10.2161
గల్	-10.2162
▁గుర	-10.2163
పప్పు	-10.2167
▁అడిగి	-10.2168
▁హాస్టల్	-10.217
▁జరుపుకుంట	-10.217
▁తక్షణ	-10.217
▁సందేహ	-10.217
▁రేంజ్	-10.217
▁వేద	-10.2175
▁డమే	-10.218
▁రాజశేఖర్	-10.2181
▁వేలాది	-10.2184
▁ప్రభావితం	-10.2184
▁రోడ్ల	-10.2185
▁అందించే	-10.2189
▁చేసినట్టు	-10.2205
▁కొండా	-10.2208
▁కోరుత	-10.2208
▁కాల్పులు	-10.2211
▁కోరింది	-10.2211
ବା	-10.2219
సాగుతోంది	-10.2222
▁ఆకాశ	-10.2228
▁జైల్లో	-10.2229
▁సంభవించ	-10.2234
▁ఉద్దేశించి	-10.224
▁అనుకో	-10.2242
▁సెగ్మెంట్	-10.2242
▁లెవల్	-10.2243
▁ప్రతినిధులు	-10.2244
or	-10.2256
▁మాన్	-10.2259
▁లెక్కలు	-10.2259
▁ఆసీ	-10.2267
ುತ್ತ	-10.2268
▁అనుకుంటున్న	-10.2277
▁ఊప	-10.2278
▁జరుగుతుందని	-10.2278
▁మినహా	-10.2278
▁శోభ	-10.2279
▁శాఖల	-10.2281
▁ఏమిటి	-10.2284
▁పోయా	-10.2285
▁లుక్	-10.2286
▁పోయే	-10.2288
▁కుటుంబాల	-10.2293
▁ای	-10.23
▁కింగ్	-10.2306
ಗೆ	-10.2306
▁తాక	-10.2311
ୀ	-10.2314
▁సిస్టమ్	-10.2314
▁నెరవేర్చ	-10.2315
▁ఘటనలు	-10.2322
▁మేనేజర్	-10.2324
▁ప్రముఖులు	-10.2339
▁ఏంట	-10.2339
ముల	-10.2349
▁మూడేళ్ల	-10.2351
▁47	-10.2354
▁చార్జి	-10.2355
▁నోట్	-10.2362
లక్ష్మి	-10.2363
▁ఆఫీసర్ల	-10.2365
▁65	-10.2367
▁వైద్యం	-10.2367
మిక్	-10.2377
▁గురయ్యారు	-10.2377
▁ప్రయోజనాలు	-10.2377
▁తోంది	-10.2382
కట్ట	-10.2383
▁దీపావళి	-10.2387
▁బతుకమ్మ	-10.2387
▁మల్లికార్జున	-10.2387
▁రహదారి	-10.2387
▁వెహికల్	-10.2387
▁ఆయిల్	-10.2388
▁టేబుల్	-10.2388
▁400	-10.2404
▁స్తాయి	-10.2409
▁రాయల్	-10.2414
▁సంవత్సర	-10.2421
▁కాకినాడ	-10.2424
ଭ	-10.2424
▁ఐఏఎస్	-10.2424
▁విజేత	-10.2424
▁ಪ್ರ	-10.2425
▁ఇయర్	-10.2433
▁వీళ్ల	-10.2436
▁పైనా	-10.244
▁నాగర్	-10.2441
▁యోగం	-10.2443
▁మూడ	-10.2447
▁పెంచుత	-10.2451
▁హైద	-10.2452
▁లక్షణాలు	-10.2453
▁జాతి	-10.2456
▁టాస్	-10.246
▁రాయలసీమ	-10.2461
▁బ్యూటీ	-10.2461
▁గాయపడిన	-10.2461
▁పోస్ట	-10.2461
▁తోడు	-10.2462
▁ప్రభుత్వాలు	-10.2463
گ	-10.2464
పోయాడు	-10.2465
▁అంటున్న	-10.2465
దైన	-10.2467
▁వేసుకు	-10.2468
▁..?	-10.2472
▁కలిశారు	-10.2476
▁లాభ	-10.2476
ిల్ల	-10.2485
▁కార్మిక	-10.2486
▁కనిపిస్తున్న	-10.2488
▁ప్రోత్సహించ	-10.2488
ుకోవచ్చు	-10.2492
▁స్నేహితు	-10.2495
▁బీసీసీఐ	-10.2498
▁రైజర్స్	-10.2498
▁లక్నో	-10.2498
▁వెయ్యి	-10.2498
▁తుమ్మల	-10.2498
▁గూడ	-10.25
▁యాక్ట	-10.2506
▁టైంలో	-10.2508
▁ఖాయం	-10.2509
▁సంచలనం	-10.2511
▁మొదల	-10.2512
hi	-10.2513
▁چ	-10.2518
▁కల్పించాల	-10.2522
▁రియా	-10.2525
ಲ್	-10.2529
▁చేసుకున్నాడు	-10.2531
▁స్థాయికి	-10.2532
ଉ	-10.2535
▁గెలుపొంద	-10.2535
▁జేడీఎస్	-10.2535
▁చోరీ	-10.2535
▁జయంతి	-10.2536
▁రాజేంద్ర	-10.2538
▁యాక్ట్	-10.2539
▁పెడితే	-10.2539
▁నిలవ	-10.2542
సీపీ	-10.2543
▁ఫ్యా	-10.2551
▁కాపు	-10.2561
▁చాలు	-10.257
▁కల్యాణ	-10.2572
▁గద్వాల	-10.2573
▁సాధ్యం	-10.2573
▁స్వతంత్ర	-10.2573
90	-10.2576
▁భూకంపం	-10.2578
▁పనిచేస్త	-10.2578
▁ବ	-10.2578
▁బ్యారేజీ	-10.2578
▁సినిమాతో	-10.2579
▁అయ్యి	-10.2581
▁దిగి	-10.2582
గుంట	-10.2584
ಾರ	-10.2588
▁పత్రిక	-10.2588
▁పక్కా	-10.2593
ir	-10.2597
▁చేయి	-10.2602
▁దొరక	-10.2606
▁ఎగ్జామ్	-10.261
▁దోపిడీ	-10.261
▁సొసైటీ	-10.261
▁జడ్జి	-10.261
▁రాఘవ	-10.261
▁నిలబెట్ట	-10.261
▁పొన్నం	-10.261
▁న్యాయమూర్తి	-10.2611
▁స్నేహ	-10.2612
▁2017	-10.2613
▁చూ	-10.2619
▁పౌరుల	-10.2622
▁c	-10.2622
లియా	-10.2626
▁క్లాస్	-10.2633
▁వినోద్	-10.2638
▁సద	-10.2645
ನ್	-10.2645
▁44	-10.2648
▁తుఫాన	-10.2649
పూట	-10.2653
▁విపక్షాల	-10.2655
▁పాల్పడిన	-10.2656
▁సమితి	-10.2657
ad	-10.2671
▁సర్వీస	-10.2672
▁ఉష్ణోగ్రత	-10.2674
▁మెడ	-10.2684
▁క్రిమినల్	-10.2685
▁ధర్మాసనం	-10.2685
▁ఎదురుచూస్తున్న	-10.2686
▁వనరుల	-10.2686
▁బీహార్	-10.2688
▁ఆనంద	-10.2692
▁స్వా	-10.2692
▁భారం	-10.2695
▁రిజర్వేషన్	-10.2696
▁నియోజక	-10.2699
▁వేరు	-10.2699
▁కురుస్తున్న	-10.27
▁వెల్లడి	-10.2707
▁గట్టి	-10.2709
▁ఏమైన	-10.2713
▁ఇండియాలో	-10.2716
నిరోధక	-10.2718
▁టమాటా	-10.2723
▁తేజ	-10.2724
▁ఫేస్	-10.2724
▁i	-10.2736
▁రాణి	-10.2736
▁ఎదుర్కోవ	-10.2736
▁జియో	-10.2736
▁కూలి	-10.2745
▁ప్రాధాన్యం	-10.2747
▁రానుంది	-10.2753
▁కనిపిస్తున్నాయ	-10.2754
▁ఉపయోగించి	-10.2758
▁నెరవేర	-10.2761
ڑ	-10.2761
द	-10.2761
ଳ	-10.2761
▁కురుస్తాయ	-10.2761
▁సందర్భాల	-10.2761
ଛି	-10.2762
▁కల్తీ	-10.2765
▁మారుత	-10.2767
▁నిబంధనలు	-10.2776
▁మెయిన్	-10.2779
యుల	-10.2783
▁ఖాతాలో	-10.2787
▁సంక్షేమం	-10.2787
▁కార్ల	-10.2789
▁చేస్తాయి	-10.2795
▁చెందుతున్న	-10.2799
▁మెసేజ్	-10.28
▁మృతుల	-10.28
▁లోకేశ్	-10.28
▁టెండర్	-10.2801
▁నెస్	-10.2802
▁ఒక్కొక్క	-10.2804
▁సంఘాలు	-10.2805
▁పట్టుకున	-10.2806
▁తీసుకుంటే	-10.2807
దన్న	-10.2808
▁వేస్తున్న	-10.2808
▁చేయలేదని	-10.2811
▁భారతదేశం	-10.2812
▁రౌండ్	-10.2813
▁ప్రభావ	-10.2813
▁విధాన	-10.2816
▁దంపతుల	-10.2821
ప్పుడే	-10.2826
▁ఎందుక	-10.2827
▁ఫార	-10.2831
▁ఊహించ	-10.2833
▁పాల్పడ	-10.2836
▁రెస్టారెంట్	-10.2838
▁కంటెంట్	-10.2838
ంద్ర	-10.2843
▁తీసే	-10.2844
▁యి	-10.285
▁గాజా	-10.2865
ುವ	-10.2865
▁భక్త	-10.2867
نگ	-10.2869
▁ఘటనా	-10.287
▁తాత్కాలిక	-10.2876
▁సార్వ	-10.2877
▁గుణ	-10.2878
▁తీసుకోవాల్సి	-10.2882
ದಲ್ಲಿ	-10.2882
▁లాభం	-10.2883
▁మారుతోంది	-10.2885
▁రింగ్	-10.2886
▁అడగ	-10.2886
▁బయో	-10.2886
▁తెచ్చి	-10.2886
▁ిస్త	-10.2887
▁కుక్కల	-10.2892
▁నైట్	-10.2892
▁వ్యాపారులు	-10.2897
▁గాయాలు	-10.2901
▁మేడి	-10.2901
▁రైళ్లు	-10.2906
▁వస్తున్నారు	-10.2906
▁నిలిచారు	-10.2908
▁పెడుతున్న	-10.2915
▁సదుపాయాల	-10.2915
▁వైఖరి	-10.2915
▁ఖండించ	-10.2916
▁ఇప్ప	-10.2919
▁సమంత	-10.2925
▁మెన్	-10.2926
▁నాన్న	-10.2929
▁వివాదాల	-10.2932
శారు	-10.2932
▁సామ	-10.2934
▁కేసుల్లో	-10.2938
▁కూల	-10.2942
▁గౌరవం	-10.2953
▁క్షమాపణ	-10.2954
▁జీహెచ్ఎంస	-10.2954
▁తెల్లవారుజామున	-10.2954
▁సిలిండర్	-10.2954
▁మహ్మద	-10.2954
▁ఎగ్జి	-10.2954
▁వేటు	-10.2955
▁అమృత	-10.2955
▁దుర్గ	-10.2957
▁సాధించి	-10.2959
▁గెల	-10.2962
▁ులు	-10.2963
▁వ్యూహాల	-10.297
▁పండ్ల	-10.297
▁అభ్య	-10.2972
ండటం	-10.2973
▁చాట్	-10.2979
▁వెళ్లడం	-10.2979
na	-10.298
▁గట్టిగా	-10.2982
▁జీవితాల	-10.2985
▁కొట్టుకు	-10.2988
▁నిలిచిన	-10.2989
▁మరణించిన	-10.299
▁బస్సులు	-10.2991
▁చెందారు	-10.2991
▁మలయాళ	-10.2993
▁వాణిజ్య	-10.2993
▁విక్రమ్	-10.2993
▁పెరుగుదల	-10.2993
▁పొడవ	-10.2994
▁సౌకర్య	-10.2994
▁నిజాం	-10.2995
▁*	-10.2999
▁ఆశిస్తున్న	-10.3001
▁చిన్నారుల	-10.3004
▁ొచ్చ	-10.3004
స్తున్నారని	-10.3007
▁49	-10.3011
ಲ್ಲ	-10.3013
▁హర్	-10.3013
▁ప్రతిపక్షాల	-10.3018
▁పతక	-10.3018
80	-10.3026
▁ఇవే	-10.3027
▁వ్యాఖ్యలపై	-10.3029
▁హనుమాన్	-10.3032
▁కాళ్ల	-10.306
▁పత్రాల	-10.306
▁తగ్గింది	-10.3066
▁వెంకటేశ్వర	-10.3066
▁నాగార్జున	-10.3071
కశ్మీర్	-10.3071
▁ప్రతికూల	-10.3071
▁కర్నూలు	-10.3071
▁సందేశ	-10.3071
▁వేయాలని	-10.3072
▁చూస్తున్నారు	-10.308
▁చలి	-10.3083
▁సమాజంలో	-10.3091
▁సంస్కృతి	-10.3093
వేత్త	-10.3095
▁అర్ధరాత్ర	-10.3096
▁ఇస్తున్నారు	-10.31
▁పార్ట్	-10.3103
▁కాంట్రాక్టర్	-10.311
▁లీకేజీ	-10.311
▁బౌలర్	-10.3111
▁మోస్తర	-10.3111
▁కేజీ	-10.3114
▁వ్యాపారాల	-10.3123
▁గ్రహాల	-10.3123
▁విధించింది	-10.3123
▁బలోపేతం	-10.3128
▁చేస్తున్నాడు	-10.3135
▁అర్ధ	-10.3136
▁నడి	-10.3139
-1	-10.3147
▁పెరిగ	-10.3149
▁క్రెడిట	-10.315
▁పనిచేసిన	-10.315
▁బంద్	-10.3151
▁పట్టించుకోవడం	-10.3151
▁ఫాస్ట్	-10.3154
▁రుచి	-10.3166
▁లోపం	-10.3167
▁కూర్చు	-10.3167
▁అడిగిన	-10.3168
▁చేస్తాం	-10.317
▁చూస్తా	-10.317
▁54	-10.317
▁చూస	-10.3172
▁చెప్తున్నారు	-10.3176
▁ఇచ్చాడు	-10.3182
బడింది	-10.3185
▁ఎన్డీయే	-10.3189
▁అర్బన్	-10.3189
▁క్రైమ్	-10.3189
▁అంబటి	-10.3189
▁రెజ్ల	-10.3191
▁చేపట్టాల	-10.3201
▁టూర్	-10.3203
▁ఊరు	-10.3206
▁అక్షర	-10.3207
▁లక్ష్మణ్	-10.321
re	-10.3216
▁ఆటగాళ్ల	-10.3216
▁సమర్థ	-10.3219
▁శాస్త్రవేత్తలు	-10.3221
ಧ	-10.3229
▁లండన్	-10.323
▁మనోజ్	-10.3234
ದು	-10.3241
▁చనిపోయారు	-10.3244
▁2009	-10.3245
▁కై	-10.3248
▁ఒంటరిగా	-10.3252
▁అనంత	-10.3252
▁ఊరి	-10.3254
▁విక్రయించ	-10.326
▁పూల	-10.3261
▁భవన	-10.3266
▁నిలిచిపోయ	-10.3269
▁తానే	-10.327
▁పోయారు	-10.327
▁జగ	-10.3273
▁అధ్యక్షులు	-10.3276
▁భగ	-10.328
▁కష్టాలు	-10.3285
▁బయలుదేర	-10.3294
▁బంగాళాఖాతం	-10.3309
▁అమెరికన్	-10.3309
▁అజయ్	-10.3309
▁అద్దె	-10.331
▁వేర్వేరు	-10.331
▁అమర్	-10.3316
▁టికెట్ల	-10.3317
▁లాయర్	-10.3322
▁రాసి	-10.3324
ور	-10.3326
▁-2	-10.3338
▁నిషేధం	-10.3339
▁సందర్బం	-10.335
▁హనుమకొండ	-10.335
▁జ్ఞాన	-10.335
▁రహస్య	-10.335
▁మెదడు	-10.335
▁పరిపాలన	-10.335
▁పేలుడు	-10.335
▁పరిణామాలు	-10.3351
▁నడుస్త	-10.3352
▁చేయాలనే	-10.3353
భావ	-10.3356
▁విమానాశ్రయం	-10.3364
▁యువకులు	-10.337
▁సేవా	-10.3372
▁చేస్తుంట	-10.3376
▁నాలుగేళ్ల	-10.339
▁డ్రోన్	-10.339
▁ఫిల్మ్	-10.339
▁నుంది	-10.3391
▁మహేశ్	-10.3391
▁రాయి	-10.3392
▁గ్రూపు	-10.3394
▁కొద్ద	-10.3395
▁వాగు	-10.3403
ుంటుంది	-10.3403
▁ఫ్లై	-10.3404
▁రోగుల	-10.3409
▁X	-10.3416
▁స్టూడెంట్స్	-10.3419
▁విభాగాల	-10.3422
▁చిరు	-10.3423
▁సోదరుడు	-10.3431
▁సొమ్ము	-10.3431
▁ఒప్పంద	-10.3432
▁సగం	-10.3433
▁ప్రసార	-10.3439
▁ఆస్తులు	-10.3442
▁ఉద్రిక్తత	-10.3444
▁స్టార్ట్	-10.345
▁జీతాల	-10.3453
▁పనిచేశార	-10.3453
▁యోగా	-10.3454
▁ఎట్ట	-10.3455
▁ప్రతిష్ట	-10.3455
న్సర్	-10.3459
▁చిత్రంలో	-10.346
▁నేరాల	-10.3462
▁ముఖం	-10.3466
▁k	-10.3466
▁పూజా	-10.3467
ురాలు	-10.3468
▁ప్రజాప్రతినిధుల	-10.3472
▁పండితులు	-10.3472
▁తేలి	-10.3473
▁రాజేందర్	-10.3473
▁షాపు	-10.3476
▁రోడ్డుపై	-10.3476
▁అనుకుంట	-10.3478
▁వేసవి	-10.3483
▁43	-10.3484
వారం	-10.3485
▁నాణ్యత	-10.3486
▁స్టే	-10.3486
▁కట్టి	-10.3488
▁స్టీల్	-10.349
▁న్నా	-10.349
▁కొని	-10.3494
▁ఆయన్న	-10.3496
▁వ్యవసాయం	-10.35
▁దింప	-10.3505
▁వ్యవహరిస్తున్న	-10.3507
▁వస్తువులు	-10.3508
ಭ	-10.3513
▁రెగ్యులర్	-10.3513
▁వికారాబాద్	-10.3513
▁సిద్ధరామయ్య	-10.3513
▁కండువా	-10.3513
▁బుమ్రా	-10.3513
▁గాయాల	-10.3521
▁అభిప్రాయాల	-10.3524
▁ఐదో	-10.3527
సార	-10.3528
▁ఉత్తమ్	-10.3531
▁వెంక	-10.3534
▁సాగి	-10.3549
▁అధిష్టాన	-10.3554
▁కొబ్బరి	-10.3554
▁పరామర్శించ	-10.3554
▁ముగిసింది	-10.3554
▁యుక్రెయిన్	-10.3554
▁ఛార్జ	-10.3556
▁చేస్తున్నార	-10.3557
▁దుస్తుల	-10.3558
▁తమిళనాడులో	-10.3564
▁సచిన	-10.3575
▁నగరంలోని	-10.3575
▁బాయ్	-10.358
▁మెరుగుపర	-10.3583
▁మారుతున్న	-10.3585
▁కొరత	-10.3591
▁సృష్టి	-10.3593
స్టిట్యూట్	-10.3595
▁నినాదాలు	-10.3595
▁విస్తరణ	-10.3595
▁పర్వత	-10.3596
▁వదిలే	-10.3596
▁సముద్రంలో	-10.3597
▁ట్రస్ట	-10.3602
▁హార్	-10.3602
▁సైన్స్	-10.3602
▁ఫిక్స్	-10.3602
▁ాలన్నారు	-10.3602
▁రోజ	-10.361
▁విషాదం	-10.3613
▁ార	-10.3614
▁సెషన్	-10.3616
ెల్లి	-10.3617
▁దాటి	-10.3633
▁ప్రదేశాల	-10.3636
▁స్థితి	-10.3638
▁పోయాయి	-10.3647
ں	-10.3647
▁రూపాయి	-10.3653
▁అంచనాల	-10.3657
▁మౌలి	-10.3658
▁వేగ	-10.3661
▁ఫ్లోర	-10.3663
▁ఏది	-10.3667
▁భద్ర	-10.3673
▁సిగ్నల్	-10.3678
▁సరికొత్త	-10.3678
▁ఎస్టేట్	-10.3678
▁చార్	-10.3679
ద్వారా	-10.368
▁ఆప్షన్	-10.3684
▁జీవించ	-10.3685
▁కోపం	-10.3688
▁తిరిగ	-10.3695
▁క్లీన	-10.3695
▁ఇచ్చారని	-10.37
ావత్	-10.3704
▁చెబుతూ	-10.3708
▁వార్తా	-10.3712
▁కావాల్సిన	-10.3713
▁ాలనే	-10.3719
▁దయ	-10.3719
▁ఫ్రా	-10.372
▁ట్రోఫీ	-10.372
▁ప్రత్యర్థి	-10.372
▁భూపాలపల్లి	-10.372
▁పోలవరం	-10.372
▁జ్యోతిష్య	-10.372
▁మస్క్	-10.3722
▁చేస్తామన్నారు	-10.3723
▁నిలిచ	-10.3724
▁ఆరోపించ	-10.3728
45	-10.373
▁బోర్	-10.3732
▁ాయన్నారు	-10.3733
ାଇ	-10.3737
▁కేంద్రంగా	-10.3744
యాత్ర	-10.375
▁ఆంక్షలు	-10.3751
▁ఫిట్	-10.3758
▁ఆర్ఎస్	-10.376
▁కొంచెం	-10.3762
▁మేడ్చల్	-10.3762
▁రకరకాల	-10.3762
▁బౌ	-10.3763
▁కావాలి	-10.377
▁చెబుతారు	-10.3772
▁మాట్లాడే	-10.3776
▁సమాధాన	-10.3776
ion	-10.3779
as	-10.3783
▁మూసీ	-10.3784
▁మంగళ	-10.3784
మూరి	-10.3786
▁యూత్	-10.3793
▁మరణం	-10.3794
▁లభిస్	-10.3794
▁నిర్మించారు	-10.3796
అని	-10.3802
▁ప్రారంభించింది	-10.3803
▁ವೈರಲ್	-10.3804
▁నాశనం	-10.3804
▁ందుకే	-10.3805
▁ముఠా	-10.3805
▁కార్డ్	-10.3807
▁సంబంధాల	-10.3808
▁కింగ్స్	-10.3811
▁క్వా	-10.3814
▁పత్రాలు	-10.382
▁నిర్వహించాల	-10.3824
▁పొందుతారు	-10.3825
▁తెలుసా	-10.3828
▁గురై	-10.3839
▁డెడ్	-10.3842
▁తుంది	-10.3845
▁డైలాగ్	-10.3847
▁శుభ్రం	-10.3847
▁శాతానికి	-10.3847
▁త్యాగ	-10.3851
▁స్వామివారి	-10.3865
▁పెడుతున్నారు	-10.3868
▁దినోత్సవం	-10.3869
▁మాదిరిగా	-10.387
▁ఘనత	-10.3881
▁అనుమాన	-10.3884
ୟ	-10.3888
▁సింగ	-10.3888
▁కంప్యూటర్	-10.3889
▁సిద్దరామయ్య	-10.3889
▁స్థాపించ	-10.3889
▁షుగర్	-10.3889
▁ఛత్తీస్	-10.389
▁డబ్ల్యూ	-10.389
▁నాంపల్లి	-10.389
▁రిటర్న	-10.389
▁మళ్ళ	-10.3892
▁బ్యానర్	-10.3892
ಹ	-10.3894
▁ప్రయోగించ	-10.3896
▁దోచుకు	-10.3896
రామ్	-10.3901
um	-10.3905
ಿದೆ	-10.3907
గౌడ	-10.391
▁అయ్యాడు	-10.3912
▁నీల	-10.3913
ెప్ప	-10.3917
▁రోడ్లపై	-10.3918
▁అవుతాయ	-10.3924
▁రీసెర్చ్	-10.3932
▁ఆదర్శ	-10.3932
▁అప్డేట్	-10.3932
▁నిలదీశారు	-10.3932
▁ప్రారంభోత్సవ	-10.3933
▁పోల్చ	-10.3936
ಜ	-10.3938
▁డ్రామా	-10.3943
▁ముంబైలో	-10.3947
▁తార	-10.3949
▁రాకెట్	-10.395
▁ఇవ్వలేదు	-10.3954
▁59	-10.3957
▁షి	-10.396
▁భావించారు	-10.3969
▁అబ్	-10.397
▁స్థితిలో	-10.3973
▁ఏకాదశి	-10.3975
▁జరిమానా	-10.3975
▁పవార్	-10.3976
▁కీర్తి	-10.3977
▁రామకృష్ణ	-10.3977
▁విమానంలో	-10.3977
జేడీ	-10.399
▁పరిశీలి	-10.3996
▁51	-10.3996
▁రాజ్యాంగం	-10.3997
ల్ఫ్	-10.3998
▁పురా	-10.4
యిడ్	-10.4001
▁ఫోర్లు	-10.4005
▁ఐసీసీ	-10.4008
▁ప్రయోజనం	-10.4013
▁కారం	-10.4016
▁ఫోటోలు	-10.4016
▁వారంలో	-10.4017
▁దేవస్థానం	-10.4018
▁హెలికాప్టర్	-10.4018
▁సులభం	-10.4018
▁జరగడం	-10.4019
▁ఫోన్లు	-10.402
▁మల్లారెడ్డి	-10.4021
▁గిరిజనుల	-10.4022
vi	-10.4023
▁కాసేప	-10.4024
▁కార్పొరేటర్	-10.4026
▁చెక్క	-10.4028
▁స్పందిస్తూ	-10.403
▁టీపీసీ	-10.4032
▁ఈవో	-10.4039
▁రాధా	-10.4043
▁బంధువులు	-10.4057
▁నిరాకరించ	-10.4061
▁జడేజా	-10.4061
▁ఆరంభ	-10.4061
▁అవిశ్వాస	-10.4062
▁ట్రెండ్	-10.4062
▁శ్రద్ధ	-10.4063
పూరిత	-10.4063
ಾಗಿ	-10.4064
▁నమోదైన	-10.4064
▁ఆరో	-10.4064
ఛ	-10.4067
▁ొచ్చు	-10.407
▁సంతోష్	-10.4072
▁అరుణ్	-10.4076
▁ఒలింపిక్స్	-10.4079
▁పచ్చ	-10.4083
ుకోవడాని	-10.4087
▁పాల్గొంటార	-10.4088
▁ఇంట	-10.4096
▁పోతుంది	-10.4101
▁కాల్పుల	-10.4103
▁ఎదుర్కొన	-10.4105
▁ఆకాంక్ష	-10.4105
▁మామ	-10.4106
▁వెళుతున్న	-10.4107
▁సరే	-10.4113
▁తినే	-10.4117
▁దంపతులు	-10.4124
▁విరిగి	-10.4126
కూడదు	-10.4128
▁నిలిచి	-10.4129
▁బీఐ	-10.4129
تا	-10.4135
▁వెస్ట్	-10.414
▁स	-10.414
▁Y	-10.4145
▁అనూహ్య	-10.4148
▁ఆసిఫాబాద్	-10.4148
▁విపత్తు	-10.4149
▁సరికాద	-10.4149
స్థాయి	-10.415
▁ప్రాంతాలు	-10.415
▁చేస్తోందని	-10.4151
▁శ్రీకాంత్	-10.4151
▁దొర	-10.4161
▁ଦ	-10.4162
▁పంటలు	-10.4163
ఐసీసీ	-10.4163
▁పట్టించ	-10.4166
▁చేశాం	-10.4168
▁ఆయుధాల	-10.4172
▁మత్తు	-10.4178
▁అందజే	-10.4184
ప్లాస్టిక్	-10.4192
▁సురేఖ	-10.4192
▁కర్నూల్	-10.4192
▁ఇరిగ	-10.4193
▁సజ్జల	-10.4193
▁కేటాయిస్త	-10.4193
▁దూకుడు	-10.4195
▁గార్డ	-10.4195
▁విగ్రహాల	-10.4196
▁మరణాల	-10.4201
▁వ్యూహం	-10.4202
▁ఉంటున్నారు	-10.4202
ుకోవాల్సి	-10.4204
▁దేవాలయ	-10.4204
▁బ్రా	-10.4208
▁చీర	-10.4217
▁చంద్రుడి	-10.4222
କ	-10.4225
▁క్లబ్	-10.4225
▁ప్రత్యేకమైన	-10.423
▁ప్రయత్నిస్త	-10.4236
▁ఛాంపియన్	-10.4236
▁వివాదాస్పద	-10.4236
▁హృదయ	-10.4236
▁అనర్హ	-10.4236
▁బెంచ్	-10.4237
▁అడవి	-10.4237
▁పొట్ట	-10.4241
▁రూల్స్	-10.4241
▁చేయబోతున్న	-10.4243
▁గ్రాండ	-10.4247
ol	-10.4247
▁నిర్వహిస్తారు	-10.4248
▁సామర్థ్యం	-10.4255
▁ఆరోగ్యంగా	-10.4257
డైన	-10.4258
▁ట్రైన్	-10.4261
▁కనిపించే	-10.4261
▁ح	-10.427
▁56	-10.4273
▁ప్రారంభమైన	-10.4277
ప్రసాద్	-10.4277
▁పోల్	-10.4279
▁వర్షపాతం	-10.4281
▁పెరుగుతోంది	-10.4281
▁ట్రీట్	-10.4281
▁సిద్ధమ	-10.4284
▁ఎస్సై	-10.4286
▁తెరిచ	-10.4287
▁నార్త	-10.4288
ెంజ్	-10.4292
ಬ	-10.4293
▁ఆస్పత్రి	-10.4293
▁వినియోగం	-10.4295
▁రిజర్వేషన్ల	-10.4295
ిచ్చారు	-10.43
▁ఆహ్వానించ	-10.4305
▁నిర్ణయించుకున్న	-10.4311
▁చేరుకో	-10.4314
▁వర్గాల్లో	-10.4314
పోతున్నారు	-10.4321
▁శ్రేణుల	-10.4321
▁మీట్	-10.4321
ొల్ల	-10.4322
▁ఇంజినీరింగ్	-10.4325
▁కన్వీనర్	-10.4325
▁సమ్మె	-10.4325
▁అశ్విన్	-10.4325
▁ఎదుర్కొన్న	-10.4325
ధర్	-10.4327
▁పైలట్	-10.4328
▁కీపర్	-10.4328
▁కానున్న	-10.4331
▁మాధవ	-10.4333
లేదన్నారు	-10.4334
▁దర్శక	-10.4343
▁సూర	-10.4346
▁పాఠశాలల	-10.4349
▁ఎప్పటి	-10.4356
▁అవకాశాల	-10.4362
▁పురం	-10.4366
▁ఎక్సైజ్	-10.437
▁నిర్ధారించ	-10.437
▁వ్రత	-10.437
తోపాటు	-10.437
▁దుబాయ	-10.4371
▁డైరెక్ట	-10.4371
▁ఫిర్యాదులు	-10.4372
▁లాభాల	-10.4375
▁వచ్చినప్పుడు	-10.4379
▁చేయడమే	-10.4383
▁బిల్లులు	-10.4384
▁ాలన్న	-10.4386
▁చక్ర	-10.4391
▁రాబట్ట	-10.4392
▁తెలిపాడు	-10.4392
▁కూడదు	-10.4394
▁ఆశలు	-10.4396
▁తిన్న	-10.4401
▁పాల్పడ్డ	-10.4402
▁విమర్శల	-10.4407
▁ప్రతినిధుల	-10.4411
▁వినాయక	-10.4413
▁వరుణ్	-10.4415
▁ఎనర్జీ	-10.4415
▁సెర్చ్	-10.4415
▁వార్నింగ్	-10.4415
▁నాగేశ్వరరావు	-10.4415
▁స్టాగ్రా	-10.4418
▁پی	-10.4421
▁ଅ	-10.4424
రహ	-10.4427
▁ఆశ్రయించ	-10.4429
▁సర్వీసుల	-10.4431
▁ఆగి	-10.4435
▁ముస్లింల	-10.4439
▁చేయాలన్నారు	-10.4448
▁శైలి	-10.4453
▁మనీ	-10.4456
కపోయినా	-10.4456
▁-1	-10.4458
▁తీసుకెళ్లారు	-10.4459
▁శతాబ్ద	-10.446
▁పరిమితం	-10.446
▁స్వేచ్ఛ	-10.446
▁శ్రీహరి	-10.446
▁ప్రకృతి	-10.446
▁సవరణ	-10.446
▁సూచిస్త	-10.4463
▁మ్యాచు	-10.4463
▁కూల్చి	-10.4464
▁195	-10.4466
▁ప్రస్తావించ	-10.447
▁చేతి	-10.447
▁రంగాల్లో	-10.4472
U	-10.4473
▁ప్రసంగం	-10.4474
▁ఉంటారని	-10.448
లైన్	-10.4483
▁కేశ	-10.4484
▁అవమాన	-10.449
▁కథనాల	-10.4493
▁శెట్టి	-10.4501
▁గెలిచారు	-10.4504
▁మొగ్గు	-10.4505
▁అందువల్ల	-10.4505
▁ఏర్పాట్ల	-10.4505
▁పత్తి	-10.4506
▁బృంద	-10.4506
▁వెయిట	-10.4509
▁బూత్	-10.4513
వారీ	-10.4517
▁సామాన్య	-10.452
క్కడికక్కడ	-10.4522
▁స్థలాల	-10.4523
▁చెప్పినట్లు	-10.4524
▁తండా	-10.4528
▁Ra	-10.4528
▁స్థానికుల	-10.4531
▁ఐఆర్	-10.4533
వద్దని	-10.4537
▁లేదంట	-10.4539
▁పిండి	-10.4539
▁రాజన్న	-10.4539
▁ఇష్టపడ	-10.454
▁క్యాంపు	-10.454
▁మెరుగు	-10.4545
పట్నం	-10.4548
▁గ్రామస్తులు	-10.4549
▁కాశ్మీర	-10.455
▁గందరగోళ	-10.455
▁నైపుణ్య	-10.455
▁ప్రాతినిధ్య	-10.455
▁రిజర్వాయర్	-10.455
▁యువకుడి	-10.455
▁మండలాల్లో	-10.4563
హిత	-10.4565
▁పాయింట్ల	-10.4566
▁పండ్లు	-10.4569
▁హెచ్చరికలు	-10.4569
▁మిత్ర	-10.457
▁అలియా	-10.4574
▁ధరించ	-10.4575
▁ఆఫీసులో	-10.4577
▁కాలేజ	-10.4579
▁వార్తల	-10.4579
▁అత్త	-10.4583
▁ప్రశంసలు	-10.4587
▁తిరుగుత	-10.4594
▁ధ్రువ	-10.4596
▁శాశ్వత	-10.4596
ೈ	-10.4596
▁సిక్సర్	-10.4596
▁శారీరక	-10.4596
▁సందడి	-10.4596
▁సాధన	-10.4596
▁ఆదిత్య	-10.4597
▁స్టేషన్ల	-10.4597
▁వైట్	-10.4609
▁ع	-10.4612
▁గన్	-10.4617
▁సిక్స్	-10.462
▁కేటాయించిన	-10.4624
▁52	-10.4624
▁కస్టమర్ల	-10.4626
▁ఇన్వెస్ట	-10.463
▁తేజ్	-10.4635
▁లాంగ్	-10.4636
▁లాగ	-10.4637
▁స్థాన	-10.4642
▁కమ్యూనిటీ	-10.4642
▁ధోనీ	-10.4642
▁గౌతమ్	-10.4642
▁వివేకా	-10.4642
▁ఉప్పల్	-10.4642
▁పరికరాల	-10.4642
▁ప్రారంభమైంది	-10.4646
▁అనుమానాలు	-10.4652
▁సేన	-10.4655
▁చూసుకుంట	-10.4655
▁పడుతోంది	-10.4657
▁ఎదుర్కొంట	-10.466
▁ముగ్గురి	-10.4663
▁58	-10.4665
▁పచ్చి	-10.4665
▁77	-10.4666
పాక	-10.4682
▁మన్న	-10.4682
▁ఫుట	-10.4683
▁అవుతార	-10.4684
▁పోల్స్	-10.4685
▁అంబానీ	-10.4688
▁క్యారెక్టర్	-10.4688
▁వనపర్తి	-10.4688
▁సీఈవో	-10.4688
▁అభ్యంతరం	-10.4688
▁తీర్థ	-10.4688
▁దళ	-10.4688
▁57	-10.4692
▁శ్రేణులు	-10.4692
▁తరహా	-10.4699
▁పంటల	-10.4703
గాంధీ	-10.4708
మాత్రం	-10.4709
▁మృతదేహాల	-10.471
▁n	-10.4713
ీకరించ	-10.4714
▁తీసుకెళ్లి	-10.4716
▁బ్యాంకుల	-10.4718
ఖ్య	-10.4723
▁విశ్వాసం	-10.4728
▁అతడ	-10.4732
▁కౌశిక్	-10.4734
▁బొగ్గు	-10.4734
▁అగ్రనేత	-10.4734
▁భిన్న	-10.4736
▁రఘురామ	-10.4736
▁గోపాల్	-10.4738
▁పేట్	-10.4738
▁ఇస్తారు	-10.4739
▁వెళ్లింది	-10.4749
▁నగరాల	-10.4752
కూడదన	-10.4752
▁మల్లన్న	-10.4759
▁యే	-10.476
▁నోటి	-10.4766
ేయాలని	-10.477
టేషన్	-10.477
▁తరుణం	-10.4775
ଚ	-10.4781
▁କରି	-10.4781
▁శుభవార్త	-10.4781
ग	-10.4781
▁చేపట్టింది	-10.4781
ెక్ట	-10.4781
▁అంశాన్న	-10.4781
▁లాంచ్	-10.4781
▁పదేండ్ల	-10.4783
▁విద్యాశాఖ	-10.4784
▁నిషేధ	-10.4787
▁మంత్ర	-10.479
▁నోటీసు	-10.4797
▁రిజర్వేషన్లు	-10.48
▁దెబ్బతి	-10.4802
▁ఇస్తార	-10.4808
▁కార్పొరేట	-10.4818
దానం	-10.4819
▁యంగ్	-10.4823
23	-10.4824
▁తిరస్కరించ	-10.4827
▁దిగ్గజ	-10.4827
▁ధన్యవాదాలు	-10.4827
▁వృద్ధుల	-10.4827
▁పేర్లను	-10.4828
▁ఉస్మాన	-10.4829
▁ప్రతిపక్షాలు	-10.4835
▁బాలుడి	-10.4835
▁పుస్తకాల	-10.4838
▁మునిగి	-10.4838
▁ఆరోపిస్త	-10.4839
▁ఫైల్	-10.4843
▁బాగుంటుంద	-10.4845
ేమో	-10.4848
▁కాలి	-10.4851
ిస్తోంది	-10.4854
్లిక్	-10.4855
▁లవ్	-10.4866
▁అమెజాన్	-10.4874
▁ఎఫెక్ట్	-10.4874
▁ప్రత్యామ్నాయ	-10.4874
▁వార్షిక	-10.4874
▁2025	-10.4874
▁ఛానెల్	-10.4874
▁విలీనం	-10.4874
▁మోటార్	-10.4875
▁పనిచేయ	-10.4875
▁అనుచరుల	-10.4875
▁ఏడుగుర	-10.4876
▁నై	-10.4878
▁లీడర్ల	-10.4879
▁దళితుల	-10.4882
ద్య	-10.4882
▁పోసి	-10.4887
▁63	-10.4887
▁దశాబ్ద	-10.4889
▁వీధి	-10.4891
▁పార	-10.4896
▁క్లాస	-10.4897
▁ఈటల	-10.4898
▁కొనసాగిస్తున్న	-10.4901
▁తిరుగుతున్న	-10.4905
▁సమీప	-10.4906
▁నష్టాల	-10.4907
▁కలిగించ	-10.491
ట్టుబడి	-10.4917
ब	-10.4922
▁శంషాబాద్	-10.4922
▁స్వాతంత్ర్య	-10.4922
▁సేఫ్టీ	-10.4922
▁గెలిస్తే	-10.4923
▁ఆరోపిస్తున్నారు	-10.4923
▁జేపీ	-10.4929
▁తింటే	-10.493
▁దరఖాస్తులు	-10.4931
▁దర్శించ	-10.4935
ర్సెస్	-10.4936
▁బేస్	-10.494
▁పిలుస్తారు	-10.4943
କୁ	-10.4944
▁కెమెరాల	-10.4946
జాత	-10.4947
▁భావిస్త	-10.4954
▁సాయ	-10.4954
ur	-10.4957
▁మ్యాన్	-10.4963
75	-10.4963
▁వదులు	-10.4966
▁కొట్టిన	-10.4966
▁అరి	-10.4967
▁ఎంఐఎం	-10.4969
▁రవీందర్	-10.4969
▁విధ్వంస	-10.4969
▁తుపాను	-10.4969
▁స్పూన్	-10.4969
▁అనంతపురం	-10.497
▁రిష	-10.4971
▁నిపుణుల	-10.4971
▁పంత్	-10.4972
▁అశ్వ	-10.4972
▁గులాబ	-10.4975
▁ఇదంత	-10.4975
▁ఉల్లి	-10.4976
▁కక్ష	-10.4983
▁పర్యాటక	-10.4983
▁చర్మం	-10.4994
▁కేరళలో	-10.4994
▁లేదో	-10.4997
▁భావన	-10.5002
▁పావు	-10.5003
le	-10.501
▁డాలర్లు	-10.5013
▁నెటిజన్	-10.5015
▁కార్యాచరణ	-10.5017
▁మెగాస్టార్	-10.5017
▁చెన్నూరు	-10.5017
▁డ్యూటీ	-10.5017
▁జార్ఖండ్	-10.5017
▁ఎంజాయ	-10.5018
▁కేంద్రమంత్రి	-10.5021
శ్రీ	-10.5029
▁చెరు	-10.5038
ma	-10.5042
▁రాణించ	-10.5042
▁దుకాణాల	-10.5045
▁నిర్మల	-10.5046
▁మమత	-10.5046
మెంట	-10.5047
.25	-10.5058
▁ఢీ	-10.506
▁తెచ్చుకున్న	-10.5063
▁గుర్తించిన	-10.5063
▁సంక్రాంతి	-10.5064
▁కొవ్వు	-10.5065
పక్ష	-10.5069
▁వ్యవధిలో	-10.5071
▁ఒంటి	-10.5072
▁బతిక	-10.5077
▁చూపించారు	-10.5079
▁ారట	-10.5079
▁600	-10.5094
▁కళా	-10.5096
▁నొక్క	-10.5096
గంట	-10.5099
▁నిర్వాహకులు	-10.5099
▁పుస్తకం	-10.51
▁ఇవ్వాలి	-10.5103
▁నుంచ	-10.5109
▁గవర్నమెంట	-10.5113
▁నెహ్రూ	-10.5113
▁ప్రకాశ్	-10.5113
▁న్యాయవాదుల	-10.5113
▁ఉద్దేశంతో	-10.5113
▁ట్యాపింగ్	-10.5115
▁తీసుకురావడ	-10.5116
▁విధి	-10.5118
▁జీతం	-10.5124
▁తీసుకోవాల	-10.5124
సియా	-10.5125
▁రేపటి	-10.5135
▁భయంతో	-10.5136
▁స్టూడెంట్ల	-10.5136
▁J	-10.5141
▁విపక్ష	-10.516
▁కొనుగోళ్ల	-10.5161
▁తహసీల్దార్	-10.5161
▁పురోగతి	-10.5161
▁వసూళ్ల	-10.5161
▁సంకేతాల	-10.5161
▁తిరగ	-10.5161
▁విధించారు	-10.5162
▁ద్వార	-10.5163
▁కానుక	-10.5167
▁స్టడీ	-10.5168
▁ప్రజల్లోకి	-10.5172
▁వైఎస్ఆర్	-10.5177
▁గడిచిన	-10.5185
▁మండి	-10.5196
▁కనుక	-10.5199
com	-10.5209
ज	-10.5209
ଡ	-10.5209
ଶ	-10.5209
▁కుటుంబసభ్యుల	-10.5209
▁రిపబ్లిక	-10.5209
▁వెస్టిండీస్	-10.5209
▁శ్రావణ	-10.5209
▁పర్మిషన్	-10.5209
▁బంగ్లా	-10.5209
▁సల్మాన్	-10.5209
▁క్యాడర్	-10.5209
ala	-10.5213
▁థా	-10.5214
▁చేస్తుంద	-10.5217
▁నడుస్తున్న	-10.522
▁సెలవులు	-10.5225
▁చేసుకోవడాని	-10.5227
800	-10.5231
▁పారిశ్రామిక	-10.5238
क	-10.5238
▁వచ్చింద	-10.5241
▁కౌన్సిలర్లు	-10.5246
▁78	-10.5246
ାନ	-10.5247
▁పడ్డాయి	-10.5251
▁ందో	-10.5254
▁ఉల్లంఘించ	-10.5258
▁కాంప్లెక్స్	-10.5258
▁కల్వకుంట	-10.5258
▁నిమిత్త	-10.5258
▁ఉపవాస	-10.5258
▁ఉద్యోగి	-10.526
▁జడ్పీ	-10.5261
▁కార్యకర్త	-10.5262
▁బంధువుల	-10.5263
▁కళ	-10.5265
▁నమోదయ్యాయి	-10.5266
▁చేయగల	-10.5271
▁నిరసనలు	-10.5276
షియా	-10.5283
▁కార్డులు	-10.5283
ాంతం	-10.5287
▁వెళ్లిపోయ	-10.5291
▁కష్టాల	-10.5296
పోతుంది	-10.5298
▁నిరూపించ	-10.5298
▁రెండవ	-10.5299
▁ప్రదేశం	-10.5306
ాభివృద్ధి	-10.5307
▁జోక్యం	-10.5307
▁అంకిత	-10.5307
▁ఎంసీ	-10.5312
▁వస్తార	-10.5313
▁శ్వాస	-10.5316
▁కూలీల	-10.5317
▁రంగాల	-10.5318
▁క్యాంప్	-10.5329
▁చెప్పారని	-10.5334
▁గ్రే	-10.5336
ాన్నే	-10.5337
▁చేయటం	-10.5341
▁మైంది	-10.5342
▁ఫ్యాన్	-10.5342
▁ందనే	-10.5347
▁దక్కింది	-10.535
మవుతోంది	-10.535
▁పటిష్ట	-10.5356
▁ప్రకాశం	-10.5356
▁సంతకం	-10.5357
▁న్నింటి	-10.5357
▁వంశీకృష్ణ	-10.5357
▁నటన	-10.5361
సాన్	-10.5365
పలికి	-10.5368
▁టోల్	-10.5369
▁ఉమ	-10.5372
▁మందులు	-10.5373
▁రాకపోవడం	-10.538
▁సరిపో	-10.5396
▁పిచ్	-10.5399
▁గాయం	-10.5399
▁చేతికి	-10.54
▁గురయ్య	-10.5401
▁కాల్స్	-10.5402
▁ప్రశ్నల	-10.5402
▁సంబ	-10.5403
▁ఎమోషనల్	-10.5406
▁కిడ్నాప్	-10.5406
▁గద్దర్	-10.5406
▁కుమారస్వామి	-10.5406
▁ప్రతిష్టాత్మక	-10.5407
▁గడప	-10.5407
▁తలుపు	-10.5407
▁కమాండ	-10.5408
▁ఫార్మా	-10.5409
▁కొనసాగుతుంది	-10.5409
et	-10.5411
▁సౌద	-10.5412
▁సెంటర్ల	-10.5424
▁ఇస్తూ	-10.5425
▁బ్లూ	-10.5442
▁దేవుడి	-10.5442
▁ఇవ్వకుండా	-10.5449
▁గానూ	-10.5454
భిన్నంగా	-10.5455
▁ఉపశమనం	-10.5456
▁ఎలక్ట్రానిక్	-10.5456
▁సహాయపడుతుంది	-10.5456
▁కామెడీ	-10.5456
▁దేవరకొండ	-10.5456
▁2015	-10.5456
▁కలిగే	-10.5456
▁ఏళ్ళ	-10.5456
▁ఇమేజ	-10.5461
▁ఇస్తుంది	-10.5463
▁చదువుతున్న	-10.547
▁పార్కు	-10.5481
▁తిరుగు	-10.5491
ముఖ	-10.5494
▁ఎంపీపీ	-10.5496
▁బ్రాహ్మణ	-10.5506
▁లావాదేవీల	-10.5506
▁శ్రీశైలం	-10.5506
▁డీఎస్పీ	-10.5506
▁మసీదు	-10.5506
▁మూసివే	-10.5506
▁సవాళ్ల	-10.5507
▁గణేష్	-10.5507
▁బెల్లంపల్లి	-10.5508
▁డీసీపీ	-10.551
▁సీపీఎం	-10.5512
విడ్	-10.5513
మిర్చి	-10.5513
17	-10.5513
▁రైస్	-10.5514
▁ప్రతిభ	-10.5514
▁రేట్లు	-10.5518
రకంగా	-10.552
▁పరిగ	-10.5523
▁ఖాతాల్లో	-10.5523
▁పూర్వ	-10.5528
▁సహకార	-10.5528
▁دی	-10.5529
▁తొక్క	-10.5535
▁ఇంకో	-10.5536
▁పండి	-10.5547
▁మాట్లాడుతున్న	-10.5547
▁ఆడుతున్న	-10.5547
▁తరలిస్తున్న	-10.5548
▁రుతుపవనాల	-10.5556
▁కిడ్నీ	-10.5556
▁గణనీయ	-10.5557
▁చేస్తుండగా	-10.5559
▁అడుగుపెట్ట	-10.5563
▁ఉత్తర్వుల	-10.5564
▁విజ	-10.5577
▁ప్రస్తావించారు	-10.5594
▁ందే	-10.5601
▁డోర్	-10.5603
▁నియంత్రించ	-10.5606
▁సంరక్షణ	-10.5606
▁హెచ్చరించింది	-10.5606
▁మనోహర్	-10.5606
▁వ్యాప్తి	-10.5606
▁డ్యాన్స్	-10.5606
▁నక్షత్ర	-10.5606
▁పుతిన్	-10.5607
▁బట్టలు	-10.5607
▁ఘాట్	-10.5607
▁స్టాలిన్	-10.5607
▁పెర	-10.5608
▁క్రీడా	-10.561
▁రఘు	-10.5613
▁పోతే	-10.5614
▁సౌకర్యాలు	-10.5618
▁టెన్	-10.562
▁కోరిన	-10.562
▁విప్	-10.5623
▁దించ	-10.5627
▁నెట్ట	-10.563
డితే	-10.5631
▁మతం	-10.5634
▁సీతారామ	-10.5637
▁ానిక	-10.5643
▁కానున్నారు	-10.5645
టికీ	-10.5645
▁ప్రభ	-10.565
▁దత్త	-10.5651
▁ఇవన్న	-10.5654
▁న్యూయార్క్	-10.5657
▁వందేభారత్	-10.5657
▁స్ట్రీమింగ్	-10.5657
▁నాయకుడి	-10.5657
▁చేశాడని	-10.5658
▁స్టోర్	-10.5658
▁షార్ట్	-10.5658
▁డేవిడ్	-10.5659
టమే	-10.5659
di	-10.566
▁పట్టా	-10.5661
▁అత్యాచారం	-10.5667
▁మారుతుంది	-10.5668
▁కార్యాలయాల	-10.5672
▁పొత్తుల	-10.5674
▁బ్యాంక	-10.5683
▁యూనిట్ల	-10.5685
▁పీవీ	-10.5687
▁పోతుంద	-10.5688
▁విశేష	-10.5693
▁వారందర	-10.57
▁లబ్ధి	-10.5708
▁ఆధ్యాత్మిక	-10.5708
▁ఉక్రెయిన్	-10.5708
▁సుధాకర్	-10.5708
▁రిపేర్	-10.5708
▁తెలుసుకో	-10.571
ون	-10.571
▁మారే	-10.5712
vs	-10.5714
▁రౌ	-10.5715
▁సేప	-10.5717
it	-10.5721
▁నగరాల్లో	-10.5723
▁నియామకాల	-10.5726
▁లేకపోయ	-10.5736
ానన్నారు	-10.5741
▁కట్టిన	-10.5745
ಯಾ	-10.5749
▁ఒక్కటే	-10.5751
లిగ	-10.5753
▁రుణాలు	-10.5755
▁పదో	-10.5755
▁గెలిపించాల	-10.5757
▁ముహూర్త	-10.576
▁ల్యాండర్	-10.576
కమర్షియల్	-10.576
▁అమల్లోకి	-10.576
▁భరత్	-10.576
▁చదవ	-10.576
య్యాయని	-10.5761
▁శిల్ప	-10.5762
es	-10.5762
and	-10.5768
▁చూసేందుక	-10.5773
ತಿ	-10.5778
▁పట్టణంలో	-10.5783
ya	-10.5803
▁ఉగ్రవాదుల	-10.5804
▁సారించ	-10.5806
▁అధ్యక్షత	-10.5806
▁వంటివ	-10.5809
▁పంపించారు	-10.581
il	-10.581
▁وائرل	-10.5811
▁కాన్ఫరెన్స్	-10.5811
▁చర్చనీయాంశం	-10.5811
▁నరసింహ	-10.5811
▁గుప్తా	-10.5811
▁విత్తనాల	-10.5811
▁నడ్డా	-10.5811
ువ్వాడ	-10.5811
▁వర్సిటీ	-10.5812
▁దొంగతన	-10.5813
▁నిప్పు	-10.5821
▁బెర్	-10.5827
▁కవర్	-10.5831
▁లేదన్న	-10.5843
ారాహి	-10.5847
▁ఫార్మ	-10.5849
▁మద్య	-10.585
▁ఆశ్రయించారు	-10.5851
▁66	-10.5853
▁స్తుంటారు	-10.5855
▁ప్రశ్నిస్తున్న	-10.5858
▁కనిపించిన	-10.5859
▁ఆసుపత్రుల	-10.5863
ଧ	-10.5863
▁అథారిటీ	-10.5863
▁ఆధునిక	-10.5863
▁పర్యవేక్షణ	-10.5863
▁ప్రోగ్రామ్	-10.5863
▁స్పెక్టర్	-10.5863
व	-10.5863
▁కూల్చివేత	-10.5863
▁భాగస్వామి	-10.5864
▁సంయుక్త	-10.5865
▁భావిస్తోంది	-10.5866
▁కుప్పం	-10.5867
▁కోవిడ్	-10.5868
ದ್ದ	-10.587
▁120	-10.5872
▁తొలగి	-10.5872
▁భుజ	-10.5874
▁బోర్డ్	-10.5874
ేతర	-10.5876
▁లేద	-10.5879
▁అంతస్తు	-10.588
▁నిండి	-10.5888
▁ಎ	-10.5896
▁కొల్ల	-10.5898
▁అందించడం	-10.5902
▁మిగిలి	-10.5903
▁క్యాంప	-10.5906
కాంత్	-10.5907
బాబు	-10.5911
▁రాజ్య	-10.5912
▁రెస్పాన్స్	-10.5915
▁నివారించ	-10.5915
▁హుండీ	-10.5915
▁క్రాస్	-10.5916
ొప్పుల	-10.5918
▁వచ్చాడు	-10.5922
▁నెగ్గ	-10.5928
▁మాఫీ	-10.5945
▁69	-10.5951
▁కుటుంబాలు	-10.5955
▁పొలాల	-10.5958
విధంగా	-10.596
రవై	-10.596
▁చేస్తుంటారు	-10.596
▁బ్యాంకులు	-10.5963
▁పాలస్తీనా	-10.5967
▁ఆభరణాల	-10.5967
▁అబ్బాయి	-10.5967
▁దగ్గు	-10.5968
▁చూస్తూ	-10.5969
▁..!!	-10.5969
▁ఫైబర్	-10.597
▁కమ్మ	-10.5975
▁ఆశించిన	-10.5984
▁ఆటగాళ్లు	-10.5985
▁పలిక	-10.5988
▁యోగి	-10.5989
▁శ్రీనివాస	-10.599
un	-10.5992
▁పట్టణంలోని	-10.5998
▁పట్టుకున్నారు	-10.5999
▁పట్టాలు	-10.6
▁ఆహ్వానించారు	-10.6012
▁జరుగుతాయ	-10.6013
▁గోవా	-10.6014
▁బీఎస్	-10.6017
ଙ୍କ	-10.602
▁ఉపరితల	-10.602
▁ఎమర్జెన్సీ	-10.602
▁తీర్చిదిద్ద	-10.602
▁సాంస్కృతిక	-10.602
▁సానుభూతి	-10.602
ଥ	-10.602
భూషణ్	-10.602
▁పాలమూరు	-10.602
▁ఆర్టికల్	-10.602
▁అడవుల	-10.602
▁స్తంభ	-10.602
▁లేరని	-10.6022
▁దక్కించుకున్న	-10.6024
▁మొదలుపెట్టారు	-10.6028
▁ఎడ్యుకేషన్	-10.6029
▁స్తుంట	-10.6034
▁పోతున్నారు	-10.6035
▁బాధ్యతల	-10.6038
▁అయోధ్యలో	-10.6038
▁ఊరట	-10.6039
▁చేయనుంది	-10.604
ఫిక్	-10.6043
▁గ్యారంటీ	-10.6055
▁రీతి	-10.6057
▁సౌకర్యం	-10.6058
▁చర్మ	-10.6059
▁పడితే	-10.6063
▁ద్వ	-10.6063
▁కలిగించే	-10.6064
▁కుర్ర	-10.6067
▁అక్టోబరు	-10.6073
▁కృతజ్ఞతలు	-10.6073
▁కేటగిరీ	-10.6073
▁ఖైదీ	-10.6073
▁టీఎంసీల	-10.6073
▁పరోక్ష	-10.6073
▁సురేశ్	-10.6073
▁ఉన్నందున	-10.6073
▁మిల్లర్	-10.6073
▁గురుకుల	-10.6074
▁67	-10.6075
▁రాకపోకలు	-10.6081
▁దక్కించు	-10.6088
▁కాపీ	-10.6089
▁బాలయ్య	-10.6091
▁నాటు	-10.6091
▁గాయపడ్డ	-10.6097
▁దినోత్సవ	-10.6099
▁ಸಾ	-10.6109
▁వాదించ	-10.6109
మంత్రి	-10.611
▁కర్కాటక	-10.6126
▁గ్యారెంటీ	-10.6126
▁పరిశీలన	-10.6126
▁పింఛన్	-10.6126
▁ప్రొడక్షన్	-10.6126
▁మైనారిటీ	-10.6126
▁చికెన్	-10.6126
▁స్పీడ్	-10.6126
▁సిద్ధమవుతున్న	-10.6126
▁శ్యామ	-10.6127
▁ఇండస్ట్రీలో	-10.6128
▁ଆ	-10.6128
▁రిటైర్డ్	-10.6131
li	-10.6131
టీపీ	-10.6132
▁కాలువ	-10.6132
▁సాధ్యమ	-10.6135
▁ఉన్నతాధికారుల	-10.614
▁"."	-10.6143
▁శవ	-10.6143
▁చేయవచ్చు	-10.6146
▁కలెక్షన్స్	-10.6155
▁ఫండ్స్	-10.6158
▁యూకే	-10.6161
పాలెం	-10.6165
▁వంగ	-10.6169
ab	-10.6176
▁యూజర్	-10.6178
▁డయాబెటిస్	-10.618
▁రైతుబంధు	-10.618
▁విశ్వవిద్యాలయ	-10.618
▁స్పష్టమై	-10.6181
▁బ్యాటరీ	-10.6181
▁నడవ	-10.6181
▁కాలనీలో	-10.6182
▁చెడు	-10.6183
▁కలుగుతుంది	-10.6184
▁ప్రారంభిస్త	-10.6184
▁మాసంలో	-10.6188
▁తెలియజేశారు	-10.6191
▁గేమ్స్	-10.6192
▁ఉండదని	-10.6195
కాశ	-10.6195
▁72	-10.6196
వలసిన	-10.6196
▁మనో	-10.6198
▁నేరం	-10.62
▁టాస్క్	-10.62
▁తీసుకొచ్చారు	-10.62
▁లెక్కల	-10.6202
▁ఉండొచ్చ	-10.6205
▁యోగ	-10.6206
▁64	-10.6207
▁వికాస	-10.6209
▁ఐపీఎ	-10.621
▁కష్టపడి	-10.621
▁దృష్ట	-10.6213
▁ధరించి	-10.6214
▁వెళ్లిపోయారు	-10.6221
▁జలాల	-10.6222
▁విడిచి	-10.6224
స్తామన్నారు	-10.6231
▁అమ్మకాలు	-10.6232
▁పడగొట్ట	-10.6233
▁జంక్షన్	-10.6233
▁వీసీ	-10.6234
▁జవాన్	-10.6234
▁తాగడం	-10.6235
▁షాట్	-10.6236
▁గాజాలో	-10.6242
▁రిజ	-10.6249
▁విశాల	-10.6256
▁ముగియ	-10.6256
▁పేర	-10.6257
వుతాయి	-10.6257
▁మొదట్లో	-10.6259
▁గణేశ	-10.6262
▁చెల్లిస్త	-10.6278
▁పంపిన	-10.6281
▁నివసిస్తున్న	-10.6281
▁ఐక్యరాజ్య	-10.6287
▁అంబులెన్స	-10.6287
▁ట్యాంక్	-10.6287
▁హుస్సేన్	-10.6287
▁2011	-10.6287
▁ఆదివాసీ	-10.6287
▁బ్రిటిష	-10.6287
▁నంద్యాల	-10.6287
▁మల్టీ	-10.6288
▁పెట్టారని	-10.629
▁సాగింది	-10.629
▁ఆధారపడి	-10.629
▁హాసన్	-10.6292
▁కాస్ట్	-10.6294
▁ఛార్జీల	-10.6297
▁68	-10.63
28	-10.6301
▁నిలిచాడు	-10.6303
▁పెరగడం	-10.6306
▁పీఎం	-10.631
▁డీఏ	-10.631
▁మెహ	-10.6313
▁కాఫీ	-10.6315
▁ఆకర్షించ	-10.6317
▁జరుపుతున్న	-10.6319
▁చెప్తున్న	-10.632
రబడి	-10.6321
▁జగన్మోహన	-10.6322
కైక	-10.6324
▁జరిగాయ	-10.6324
ಲಿ	-10.6326
▁బస్సుల్లో	-10.6338
▁ప్రభుత్వమే	-10.6338
▁బందోబస్తు	-10.6342
▁బిర్యానీ	-10.6342
▁దిగుమత	-10.6342
▁దిగువ	-10.6343
▁గదిలో	-10.6344
▁షీట్	-10.6345
▁ఫ్లాట్	-10.6346
▁పూర్తిస్థాయి	-10.6348
▁ఇవ్వలేదని	-10.6351
▁సమాజం	-10.6352
▁చేతుల్లో	-10.6356
వ్వడం	-10.6356
▁పాల్పడ్డార	-10.6357
▁పూర్తయి	-10.6357
▁వివరించింది	-10.636
▁అవుతుంద	-10.636
▁పోవడ	-10.6361
▁రాజేశ్వర	-10.6363
▁పెన్	-10.6363
▁నీట	-10.6368
▁ప్రయోగం	-10.6374
▁కరెంట	-10.6376
▁బయటపడ్డ	-10.6381
▁బ్యాట్	-10.6383
ర్డర్	-10.6388
▁కాంట్రాక్ట్	-10.6396
▁జగదీశ్	-10.6396
▁అసహనం	-10.6396
▁విరుద్ధం	-10.6396
▁సింగపూర్	-10.6398
▁ఎదిగ	-10.6398
▁డీజిల్	-10.6399
▁ర్శ	-10.6401
కడియం	-10.6406
▁ಕಾ	-10.6409
▁గొడవలు	-10.6411
▁సిరాజ్	-10.6413
▁భాషల్లో	-10.6416
10	-10.6418
▁వార్తల్లో	-10.6421
▁తీసుకొచ్చిన	-10.6425
ଇ	-10.6429
▁పెడుత	-10.6433
▁ఆదేశించ	-10.6437
▁అదృష్ట	-10.6441
▁ఇండియన్స్	-10.6443
▁మొహ	-10.6444
▁ఉండొచ్చు	-10.6447
▁ముగిసే	-10.6451
▁రేవణ్ణ	-10.6451
▁పరిగణన	-10.6451
▁సాక్ష్య	-10.6452
చ్ఛ	-10.6453
▁మలుపు	-10.6453
▁పాటిల్	-10.6454
▁జన్మించి	-10.6454
▁పెరగడంతో	-10.6465
▁కుంభ	-10.6466
మొ	-10.6468
▁దందా	-10.6468
▁టెంప	-10.6469
ఫాల్	-10.6475
▁చుట్టుప	-10.6476
మీద	-10.6479
▁చూసింది	-10.6484
▁తింట	-10.6485
ాలనుకుంటున్న	-10.6489
ರೆ	-10.6495
▁స్టూడెంట్	-10.6495
▁కోల్పోయి	-10.6497
▁కనిపించారు	-10.6501
▁నెలకొల్ప	-10.6507
▁ఉత్తరాఖ	-10.6507
▁మరుసట	-10.6507
▁ప్రవాహ	-10.6507
▁నిలదీ	-10.6507
▁పొడిగించ	-10.6508
▁తీస్త	-10.6508
▁గూడెం	-10.6508
▁ఫ్రాన్స్	-10.6508
▁తగిలింది	-10.6511
▁బాబా	-10.6514
▁స్మిత	-10.6519
▁క్రీడల	-10.6519
▁53	-10.6521
▁క్యాల	-10.6522
▁చేపడుతున్న	-10.6522
▁అయినట్లు	-10.6524
el	-10.6525
▁కుంభకోణం	-10.653
▁ఉపయోగపడుతుంద	-10.6531
▁నడుస్తోంద	-10.6536
▁కూర్చున్న	-10.6538
▁పాయింట్లు	-10.6541
▁నాణ్య	-10.6543
▁సన్నిహిత	-10.6544
▁ఉన్నతాధికారులు	-10.6548
▁పాడి	-10.6549
▁ఫాం	-10.6552
▁తీస	-10.6554
▁కనక	-10.6559
▁మత్స్య	-10.6562
▁మొన్నటి	-10.6562
▁ప్రకాష్	-10.6562
▁సర్కిల్	-10.6563
▁ఝా	-10.6563
▁యాక్టివ్	-10.6563
▁పేసర్	-10.6566
ేశాడు	-10.6567
ెత్తి	-10.657
దంటూ	-10.6571
▁అకాల	-10.6573
▁వ్యయం	-10.6573
▁ప్రతీక	-10.6575
▁వదల	-10.6578
▁పోలి	-10.6578
han	-10.6584
▁85	-10.6585
▁మరొకరు	-10.6588
▁ఎంఎస్	-10.6592
▁ఇంగ్లీష	-10.6603
▁వేసుకున్న	-10.6607
▁పండు	-10.6611
ಬ್	-10.6614
▁గమనించి	-10.6616
▁అనుచరులు	-10.6617
▁అంత్యక్రియల	-10.6618
▁భావోద్వేగ	-10.6618
▁కొనియాడ	-10.6618
▁ప్రవర్తన	-10.6618
▁రహదారుల	-10.6618
▁ల్యాబ్	-10.6618
▁స్పిన్నర్	-10.6619
▁మమ్మల్న	-10.6619
▁సలహాదారు	-10.662
▁బీఎస్పీ	-10.6621
▁భావించిన	-10.6622
▁గాజు	-10.6627
▁చాన్స్	-10.6629
వారికి	-10.663
▁నిబంధన	-10.6635
▁బాత్	-10.6637
▁వెళ్లాడు	-10.6637
▁పెట్టుబడుల	-10.6637
ସି	-10.6637
▁దేవుడ	-10.6638
శాయి	-10.6643
▁స్థానానికి	-10.6645
▁తగ్గడం	-10.6645
▁వాడుతున్న	-10.6646
▁కారణాలతో	-10.6646
▁వేట	-10.665
▁గెలుస్త	-10.6672
+	-10.6674
▁పరిశోధకుల	-10.6674
▁ఫౌండేషన్	-10.6674
▁రఘునందన	-10.6674
▁కూతురి	-10.6674
▁ఫారెస్ట్	-10.6675
▁రమణ	-10.6675
▁పెరుగుతాయి	-10.6677
.100	-10.6685
▁క్రమ	-10.6685
▁పడతాయ	-10.6685
▁చేయొచ్చు	-10.6687
▁మంటల	-10.6688
▁రోజురోజుక	-10.6691
▁చూపిస్తున్న	-10.6694
▁మంచిదని	-10.6696
▁కార్డుల	-10.6702
▁ధాన్య	-10.6707
▁విషాద	-10.6707
▁రెండోసారి	-10.6707
▁అప్పగించారు	-10.6711
▁మొదలై	-10.6715
▁రూపొందించిన	-10.6722
▁ట్రిప	-10.6726
▁బాగ్	-10.6728
▁క్వాలిటీ	-10.6731
▁ఊపిరి	-10.6731
▁సంతాప	-10.6731
▁సీక్వె	-10.6731
▁నడిచే	-10.6734
▁పోషకాలు	-10.6737
▁ప్రయత్నాల	-10.6749
▁విధులు	-10.6751
▁దివ్య	-10.6752
▁మూత	-10.6756
▁కోల్పోయారు	-10.6763
▁సామర్థ్య	-10.6764
▁వరస	-10.6768
va	-10.6769
▁అరుణ	-10.677
లేకపోయింది	-10.677
▁తెరకెక్కి	-10.6776
శారని	-10.6783
▁కిషోర్	-10.6787
▁బాక్సాఫీస	-10.6787
▁శ్రీకాకుళం	-10.6787
▁ఫైనాన్స్	-10.6787
▁రీసెంట్	-10.6787
▁విఫలమై	-10.6787
▁ఫీల్డ్	-10.6788
▁బ్రహ్మోత్సవాల	-10.6788
▁హుజూర	-10.6788
▁ముంపు	-10.6788
▁పరిరక్షణ	-10.679
▁లంక	-10.6792
▁సొ	-10.68
▁పెంచింది	-10.68
▁షాప్	-10.6802
▁జేసీ	-10.6808
సేన	-10.6815
▁ప్రభావిత	-10.6823
▁వర్కర్	-10.6823
▁ఛార్జ్	-10.6835
▁పారిపో	-10.6842
▁జూబ్లీహిల్స్	-10.6845
▁ప్రాక్టీస్	-10.6845
▁ల్యాండింగ్	-10.6845
▁ముమ్మరం	-10.6845
▁యాపిల్	-10.6845
▁వాహనదారుల	-10.6845
▁ఇంధన	-10.6845
▁ఐక్య	-10.6845
▁భరించ	-10.6846
▁ఆపరేట	-10.6847
▁పట్టించుకోలేద	-10.6848
▁చట్టపర	-10.6848
తుంటారు	-10.685
▁బోధన	-10.685
▁అయిదు	-10.686
▁సెక్స్	-10.6863
▁సమావేశాల్లో	-10.6863
▁ట్యాక్స్	-10.6863
▁గ్యారంటీల	-10.6864
మయ్యే	-10.6866
▁మండలాల	-10.6868
▁తీస్తున్న	-10.6882
▁భార	-10.6882
▁పార్క	-10.6889
▁బండ్ల	-10.6891
▁ఇవ్వాల్సి	-10.6893
▁ప్రతిపాదించ	-10.6894
▁కోవడానిక	-10.6896
▁మండిపడుతున్న	-10.6899
▁జర్నలిస్ట్	-10.6902
▁అపార్ట్	-10.6902
▁నివారణ	-10.6902
▁వసతి	-10.6902
▁పరువు	-10.6902
نے	-10.6908
ro	-10.6908
▁హెచ్చరి	-10.691
▁చార్జ్	-10.691
▁ఉపాధ్యాయుల	-10.6911
▁వారిద్దర	-10.6913
▁పనిచేస్తుంద	-10.6918
▁దుకాణ	-10.6926
▁నటించారు	-10.6927
▁హ్యాండ్	-10.6932
▁గాయపడ్డార	-10.6934
▁వహిస్తున్న	-10.6935
మెన్స్	-10.6935
▁జరగనున్నాయ	-10.6936
▁ఎస్ఐ	-10.6939
▁జరప	-10.6945
▁పీజీ	-10.6947
ష్ఠ	-10.6949
▁తుంట	-10.6955
य	-10.6959
ض	-10.696
▁نہیں	-10.696
▁అంతర్గత	-10.696
▁ఠాకూర్	-10.696
▁లైసెన్స్	-10.696
▁వివేకానంద	-10.696
▁పిడుగు	-10.696
▁బకాయిల	-10.696
▁వీలైన	-10.696
▁రాంబాబు	-10.696
▁పత్రం	-10.6961
▁వసతుల	-10.6961
▁చేస్తోన్న	-10.6963
▁ాము	-10.6963
▁తీసుకెళ్త	-10.6963
▁ఆలస్య	-10.6965
చోట్ల	-10.697
▁హోమ్	-10.6971
▁కస్టమర్	-10.698
▁కాట	-10.6982
దర్శించుకున్నారు	-10.699
▁సంగ	-10.6992
టచ్	-10.6993
har	-10.6995
▁కాకా	-10.7009
▁ఢీకొట్ట	-10.7011
▁సమన్వయం	-10.7014
పోయాయి	-10.7017
▁విస్తీర్ణం	-10.7018
▁పాజిటివ్	-10.7018
▁ప్రసిద్ధ	-10.7018
▁ప్యాకేజీ	-10.7018
▁సెక్రటేరియ	-10.7018
▁సేకరణ	-10.7018
▁జాయింట్	-10.7018
▁బ్యాలెట్	-10.7018
▁జీర్ణ	-10.7018
▁ప్రతాప	-10.7022
▁رہ	-10.7022
▁ప్రైమ	-10.7023
▁చేసుకుంటూ	-10.7025
▁ఈశ్వర	-10.7026
▁ವಿ	-10.7026
▁పోయిందని	-10.7028
▁బ్యాటర్ల	-10.7028
▁మోహ	-10.7028
▁చెల్లించాల	-10.7031
▁నమ్మక	-10.7036
▁పీఏ	-10.7037
▁చూశారు	-10.7038
▁2004	-10.7041
▁విచార	-10.7045
▁దాటిన	-10.7051
సెట్	-10.7064
ند	-10.7067
▁కార్యవర్గ	-10.7077
▁మైనార్టీ	-10.7077
▁ఎగ్జిక్యూట	-10.7077
▁ఓబీసీ	-10.7077
▁కురిపించ	-10.7077
▁కంప	-10.7077
▁మంగళగిరి	-10.7077
▁కుమారుడి	-10.7078
▁అందిస్తుంది	-10.708
▁లేకపోయినా	-10.7082
▁జెండర్	-10.7082
▁వేస్తే	-10.7083
▁ఆకుల	-10.7085
▁ఎలాగైన	-10.7086
स	-10.7087
▁అదృష్టం	-10.7088
▁యూజర్ల	-10.7088
▁తాత	-10.7102
▁తీసుకొచ్చింది	-10.7103
▁పరిసర	-10.7108
▁ందున	-10.7111
▁ప్రయత్నించారు	-10.7119
▁చెల్లించాల్సి	-10.713
▁బెనర్జీ	-10.7135
▁విసిరారు	-10.7135
▁అనకాపల్లి	-10.7135
▁విజయనగరం	-10.7135
▁సంపూర్ణ	-10.7135
▁గుడివాడ	-10.7135
▁ముగింపు	-10.7135
▁శరత్	-10.7135
▁బస్టాండ	-10.7135
▁ఆస్కార్	-10.7136
▁గెస్ట	-10.7136
▁అధ్యక్షురాలు	-10.7136
▁مل	-10.7138
▁ఇంతక	-10.7142
▁సిరియా	-10.7144
▁సంబంధ	-10.7146
▁బంధం	-10.7146
▁లాగే	-10.7154
▁క్యాప్	-10.7162
▁అనుమతులు	-10.7168
▁విమానాశ్రయ	-10.7173
▁ఇవ్వనున్న	-10.7186
▁అందించాలన	-10.719
▁పట్టాల	-10.7193
▁డైరెక్షన్	-10.7194
▁వేములవాడ	-10.7194
▁వైష్ణవ	-10.7194
▁వైజాగ్	-10.7194
▁ಎಂದ	-10.7195
▁సంజీవ	-10.7196
▁నియమించారు	-10.7198
▁మెంబర్	-10.72
▁AI	-10.7203
▁బర్త్	-10.7206
▁గురువు	-10.7206
▁అల్పపీడనం	-10.7207
▁వచ్చాయని	-10.7207
▁కాల్చి	-10.7208
▁బస్టర్	-10.7213
▁రాజ్యం	-10.7213
మయ్యాయి	-10.7215
▁అవకాశ	-10.7225
▁అడ్డుకున్నారు	-10.7227
اب	-10.7228
▁చూపుతున్న	-10.7232
ఫె	-10.7234
▁బహిరంగంగా	-10.7241
▁ఉత్సాహం	-10.7242
శీల	-10.7243
▁స్టీ	-10.7244
▁నడిపించ	-10.7244
▁250	-10.7248
▁పడుతున్నాయి	-10.7248
▁దూక	-10.7251
▁తాగునీటి	-10.7254
▁పోర్టల్	-10.7254
▁బయల్దేర	-10.7254
▁వంతెన	-10.7254
▁సుల్తాన	-10.7254
▁స్ట్రాంగ్	-10.7254
▁అజిత్	-10.7254
▁ట్రైనింగ్	-10.7254
▁థ్రిల్లర్	-10.7254
▁అభినందించార	-10.7255
▁రామకృష్ణారెడ్డి	-10.7255
▁లెక్కింపు	-10.7256
▁టైగర్	-10.7257
మర్స్	-10.7258
సేప	-10.7263
▁పెడతార	-10.7264
▁ప్రీతి	-10.7264
▁అమర్చ	-10.7264
▁తారక	-10.7267
▁నేర్ప	-10.7268
▁భంగ	-10.727
▁కనిపిస్తాయి	-10.7284
▁విడాకులు	-10.7308
▁పేషెంట్	-10.7314
▁శేఖర్	-10.7314
▁హిమాచ	-10.7314
▁పరిమితి	-10.7314
▁రిజిస్టర్	-10.7314
▁దుర్వినియోగ	-10.7314
▁కనపడ	-10.7314
▁వేధించ	-10.7315
▁సంతాన	-10.7316
▁చురు	-10.7317
▁క్రేజ్	-10.7318
▁మాట్లాడట	-10.732
▁అడిగితే	-10.7321
జిల్	-10.7331
▁పాండ్యా	-10.7332
ెండర్	-10.7332
▁అభినందనలు	-10.7332
థాన్	-10.7339
▁మొదలయ్యాయ	-10.7346
▁అడ్వ	-10.7347
లేకపోయారు	-10.7351
ଦ	-10.7362
▁రాదు	-10.7372
x	-10.7374
▁ఇంజనీర్	-10.7374
▁ఎఫ్ఐఆర్	-10.7374
▁జర్మనీ	-10.7374
▁2013	-10.7374
▁రెండింటి	-10.7374
▁అంతరాయం	-10.7374
▁సంబరాలు	-10.7374
▁మిమ్మల్న	-10.7374
▁ఆలోచిస్త	-10.7377
▁కాలుష్యం	-10.7383
▁రోజే	-10.7385
▁కుమారి	-10.7385
▁వదిలేసి	-10.7389
▁హసన్	-10.739
▁టీజీ	-10.739
▁చేశారన్న	-10.7394
మేనని	-10.7397
గళ	-10.7397
పడటంతో	-10.7401
▁టవర్	-10.7404
▁విభేదాలు	-10.7408
▁డీపీ	-10.741
▁తీర్మాన	-10.7415
▁తగ్గుతుంది	-10.7416
▁వారంత	-10.7422
డీవో	-10.7429
సలార్	-10.7431
▁మిశ్రమ	-10.7435
▁ఇన్ఫెక్షన్	-10.7435
▁దామోదర	-10.7435
▁భగవంత	-10.7435
▁ప్రపంచకప్	-10.7435
▁వినిపిస్తో	-10.7435
▁లక్ష్మీదేవి	-10.7436
▁డిసైడ	-10.7436
▁రుణాల	-10.7436
▁మార్గదర్శకాల	-10.7436
సిటీ	-10.7437
▁రాయితీ	-10.7437
▁చిక్కుకున్న	-10.744
▁తీసుకురావాలన	-10.7444
▁ప్రశంస	-10.7445
▁పొలం	-10.7446
▁చేయొద్ద	-10.7446
▁పదవీ	-10.7451
▁డబ్బుల	-10.7454
పోయే	-10.7457
▁వాస్తు	-10.7458
▁వైద్యుల	-10.7459
▁సంక్షోభం	-10.7462
▁74	-10.7466
▁కోల్పో	-10.7468
▁بی	-10.7473
▁కేజీల	-10.7483
▁అస్సాం	-10.7496
▁ఆశీర్వాద	-10.7496
▁ఎర్రబెల్లి	-10.7496
▁ఖైరతాబాద్	-10.7496
▁పేర్కొంట	-10.7496
▁పౌర్ణమి	-10.7496
▁విరమణ	-10.7496
▁పెండ్లి	-10.7496
▁జగనన్న	-10.7496
▁బొత్స	-10.7496
ుద్దీన్	-10.7496
▁రాత్ర	-10.7497
▁బాలుడు	-10.7512
▁పడిపోయింది	-10.7521
▁చేకూర	-10.7524
▁ఈయన	-10.7525
▁చేసేవారు	-10.7527
▁చేయాలంట	-10.7529
▁దెబ్బతిన్న	-10.7537
▁పడటం	-10.7539
ుతుంటే	-10.7553
ଖ	-10.7557
▁అనౌన్స్	-10.7557
▁నిమిషం	-10.7557
▁ఆధిపత్య	-10.7557
▁క్యూసెక్కుల	-10.7557
▁జ్ఞాపక	-10.7557
▁కమీషన్	-10.7557
▁సరిపడా	-10.7557
▁స్వర్ణ	-10.7557
▁జ్వరం	-10.7557
▁డొ	-10.7558
▁వైయస్	-10.7558
▁బాటిల్	-10.7558
▁దాల్చ	-10.7558
▁టప్పుడ	-10.7558
▁రౌడీ	-10.756
▁డెంగ	-10.7564
▁మహేశ్వర	-10.7564
▁సుమన్	-10.7567
▁శాస్త్రవేత్త	-10.757
▁గెలుచు	-10.7571
▁చూస్తుంటే	-10.7576
▁జల్ల	-10.7577
▁బస	-10.7584
▁నడుపుతున్న	-10.7589
సాయిరెడ్డి	-10.7592
▁సిద్ధాంత	-10.7593
▁ఉండట	-10.761
▁ఉంటాయ	-10.7612
▁అధిగమించ	-10.7619
▁అహ్మదాబాద్	-10.7619
▁కాంట్రాక్టు	-10.7619
▁తిరుగుబాటు	-10.7619
▁పరిణామం	-10.7619
▁ప్రాతిపదిక	-10.7619
▁రవితేజ	-10.7619
▁సంతరించుకు	-10.7619
▁రుద్ర	-10.7619
▁రిటైర్మెంట్	-10.762
▁హోల్	-10.762
▁మహమ్మద	-10.762
▁మంత్రివర్గం	-10.7622
ియస్	-10.7622
▁ఎగుర	-10.7623
▁ంటాయి	-10.7627
బిహార్	-10.7627
▁బర్గ్	-10.7627
▁దుర్గా	-10.7632
▁జాగ	-10.7635
▁హేమ	-10.7643
షియన్	-10.7646
▁రాలేదని	-10.7651
▁ఏంటో	-10.7655
▁లాంటివి	-10.7668
▁జానీ	-10.7669
లిన్	-10.7679
▁అకాడమీ	-10.7681
▁నలుగురి	-10.7681
▁ప్రస్తావన	-10.7681
▁వైకుంఠ	-10.7681
▁వ్యవస్థాపక	-10.7681
▁డ్రైవ్	-10.7683
▁88	-10.7684
ni	-10.7685
▁ఎన్నడ	-10.7686
▁పడుత	-10.7691
▁ఫారమ్	-10.7692
▁జార్జ	-10.7694
▁ందన్న	-10.7696
▁తెచ్చిన	-10.7698
▁మళ్లించ	-10.7702
▁ప్రమాణాల	-10.7708
▁మోప	-10.7718
▁అవకాశాలున్నాయ	-10.7721
▁సీఆర్	-10.7723
▁దళాల	-10.7726
శాంతి	-10.7731
▁రాశులవారి	-10.7733
▁71	-10.7734
▁యువకుల	-10.7743
▁భయాందోళన	-10.7743
ଥିବା	-10.7743
▁కంప్లీట్	-10.7743
▁యజమానుల	-10.7743
▁వాషింగ్టన్	-10.7743
▁సిఫార్సు	-10.7743
ఇందిరమ్మ	-10.7743
▁బ్యూరో	-10.7743
▁జీఎస్టీ	-10.7743
▁గరిష్ట	-10.7743
▁ఏలూరు	-10.7744
▁ಮತ್ತ	-10.7744
▁వ్యాపారవేత్త	-10.7745
▁ఉక్కు	-10.7745
డానికే	-10.7747
▁జూపల్లి	-10.7748
రాబాద్	-10.775
▁లెటర్	-10.7754
▁చేయకూడద	-10.7756
▁కుమార	-10.7759
▁రకమై	-10.776
▁62	-10.7762
▁కర్ర	-10.7765
చోట	-10.7773
▁ಿಸ	-10.7774
▁ఇప్పటివరక	-10.7776
▁గనుల	-10.7777
్యున్నత	-10.7778
▁డబ్బ	-10.7785
▁రెట్లు	-10.7792
▁సహజంగా	-10.7792
▁కోల్పోయ	-10.7796
▁నిర్మిస్త	-10.7799
▁సమ్మేళన	-10.7806
▁సుధీర్	-10.7806
▁ಆದ	-10.7806
▁డైరెక్టరేట్	-10.7806
▁పీపుల్	-10.7806
▁వివక్ష	-10.7807
▁ఆదరణ	-10.7807
▁చూద్దాం	-10.7807
▁గాయాలయ్యాయి	-10.7807
▁వివరిస్త	-10.7811
▁ఏనుగు	-10.7813
▁అయ్యప్ప	-10.7815
▁బ్యాగ్	-10.7824
▁కలర్	-10.7825
భాగం	-10.7825
▁అన్నట్లు	-10.7838
▁బోనాల	-10.7838
▁దొ	-10.7841
▁సృష్టించింది	-10.7844
ط	-10.7847
▁ప్రాసెస్	-10.7848
▁76	-10.785
▁సామాజికవర్గ	-10.7851
▁వ్యాఖ్య	-10.7852
▁మూత్ర	-10.7859
▁جا	-10.7865
▁వస్తుంట	-10.7868
▁భువనేశ్వరి	-10.787
▁రాజమౌళి	-10.787
▁విశ్రాంతి	-10.787
▁తాడేపల్లి	-10.787
▁మార్పిడి	-10.787
▁ఇంజిన్	-10.787
▁పర్యటిస్త	-10.787
▁లిఫ్ట్	-10.787
▁నరేందర్	-10.787
▁మర్చిపో	-10.7872
▁ఆత్మీయ	-10.7872
▁ఏంటంటే	-10.7875
ହା	-10.7876
▁సమావేశమయ్య	-10.7876
▁ఉగ్రవాద	-10.7878
▁వ్యక్త	-10.7882
▁మొక్కులు	-10.7884
▁చూసుకోవాల	-10.7888
▁సాధించడం	-10.7893
▁అమ్ముతున్న	-10.7901
రకాల	-10.7902
్వార్	-10.7904
ెండ్	-10.7905
▁మిలియన్ల	-10.7906
▁ప్రయత్నించిన	-10.7921
▁తెలుసుకోవాల	-10.7923
▁పుచ్చ	-10.7927
▁జడ్పీటీసీ	-10.7933
▁మధుమేహ	-10.7933
▁ఇమ్రాన్	-10.7933
▁రాఖీ	-10.7933
▁ఘాటు	-10.7933
▁మామూలు	-10.7933
▁వర్షాకాలం	-10.7934
▁నల్లగొండ	-10.7934
▁నైరుత	-10.7934
▁ెవర	-10.7935
▁శ్రీనివాసరావు	-10.7935
▁కోర్సుల	-10.7938
ుబాటు	-10.794
▁పేమెంట్	-10.7943
▁వెంకటేశ్	-10.7944
ద్దాం	-10.7948
▁చూడటం	-10.7952
▁ంచింది	-10.7955
▁పారిస్	-10.7956
J	-10.796
▁పరిసరాల	-10.7968
▁హబ్	-10.797
▁లీడ్	-10.7983
▁బిల్లుల	-10.7983
▁చెందింది	-10.7994
▁అయ్యర్	-10.7997
▁ఆక్రమించ	-10.7997
▁అతిథి	-10.7998
▁శివాజీ	-10.7998
▁ఆకలి	-10.8
▁హెల్ప	-10.8007
▁నివసించే	-10.8012
▁రథ	-10.8019
▁ఆధిక్యం	-10.8027
▁ఇంక	-10.8029
▁పలుకుత	-10.803
▁పారా	-10.8037
మట్టం	-10.8043
▁కొంట	-10.8048
▁పెంచడం	-10.8054
▁వెళ్లాల్సి	-10.8055
▁దన్నారు	-10.8056
▁భాగాల	-10.8057
లియన్	-10.8059
▁ఆక్రమణ	-10.8062
▁కరెన్సీ	-10.8062
▁సెప్టెంబరు	-10.8062
بھی	-10.8062
▁అరేబియా	-10.8062
▁ఈశాన్య	-10.8062
▁ఆఫ్రికా	-10.8062
▁శ్రీకారం	-10.8062
▁సభ్యత్వ	-10.8062
▁కనెక్ట	-10.8062
డీఎంకే	-10.8063
ెయింట్	-10.8068
ింప	-10.8075
▁61	-10.8077
▁వ్యూహ	-10.8085
▁షమీ	-10.8093
▁ఉండాల్సి	-10.8098
▁మెడల్	-10.8107
▁సిమ్	-10.8119
▁పెళ్లిళ్ల	-10.8122
ాంక్	-10.8125
>	-10.8127
▁కారిడార్	-10.8127
▁స్వదేశ	-10.8127
▁ఇష్యూ	-10.8127
▁గ్రంథ	-10.8127
▁షాపింగ్	-10.8127
▁కొన్నేళ్ల	-10.8127
▁తరుపు	-10.8127
▁అక్కడక్కడ	-10.8127
▁వసంత	-10.8129
▁హార్దిక	-10.813
▁పుట్టినరోజు	-10.8131
اد	-10.8133
▁కపూర్	-10.8136
▁నిలువ	-10.8138
▁దోమల	-10.8138
▁పూజించ	-10.8149
▁కణాల	-10.8151
మండలి	-10.8159
▁డీఆర్	-10.8162
▁చెప్పుకో	-10.8178
▁ఉపాధ్యాయ	-10.8182
▁నోరు	-10.8187
▁తగ్గించడం	-10.8188
▁అర్వింద్	-10.8192
▁కులగణన	-10.8192
▁సౌతాఫ్రికా	-10.8192
▁సప్లై	-10.8192
పర్సనల్	-10.8192
▁బెట్టింగ్	-10.8192
▁వారసత్వ	-10.8192
▁చేయాలన్న	-10.8192
▁అరికట్ట	-10.8193
▁స్కీం	-10.8193
▁ہم	-10.8196
▁పూర్తయిన	-10.8196
ద్రోహ	-10.8197
▁جس	-10.8198
▁బానిస	-10.82
ంటుందని	-10.8201
▁రకాలుగా	-10.8207
ನೆ	-10.821
▁ప్రయాణిస్తున్న	-10.8215
▁సీతారామన్	-10.8218
▁కోరుకుంట	-10.8223
భద్ర	-10.8224
▁చంద్రుడిపై	-10.8225
▁గెలిచింది	-10.8233
▁మోత	-10.8237
▁ఆగస్ట	-10.8249
▁ఆశ్రయ	-10.8252
ु	-10.8258
▁ಎಂಬ	-10.8258
▁ఎపిసోడ్	-10.8258
▁నిమజ్జన	-10.8258
▁కోణంలో	-10.8258
▁ఫంక్షన్	-10.8258
▁తవ్వ	-10.8258
▁పరిగణించ	-10.8258
▁తొందర	-10.8258
▁విప్లవ	-10.8258
▁ఆకట్టుకున్న	-10.8258
▁కల్పన	-10.8259
▁మైసూర	-10.8259
▁హింసాత్మక	-10.8259
▁తీశా	-10.8265
▁అల్లం	-10.8266
▁నోటీసుల	-10.827
ఫేర్	-10.8271
▁మవుత	-10.8271
▁బృందాలు	-10.8272
▁కౌన్సిలర్	-10.8275
▁ఇదివరక	-10.8276
▁73	-10.8283
▁పీఆర్	-10.8285
▁విధించిన	-10.8291
▁కావాల్సి	-10.8294
ରୁ	-10.8297
▁ఉద్రిక్త	-10.8302
▁ఆమోద	-10.8306
▁గురవుత	-10.8318
▁కట్టడి	-10.8323
▁గజ్వేల్	-10.8324
▁వేరియంట్	-10.8324
▁నినాదం	-10.8324
▁నెట్టింట	-10.8324
▁ప్రజ్వల	-10.8324
▁షాకింగ్	-10.8325
▁రిజల్ట్	-10.8325
▁బెల్లం	-10.8326
▁అల్లర్ల	-10.8327
▁శివారులో	-10.8327
▁سی	-10.8331
▁నితీష	-10.8331
▁పంచుకున్నారు	-10.8332
▁క్యాచ్	-10.8334
▁సూర్యుడి	-10.8335
▁మిగిల	-10.8335
కావాలంటే	-10.8335
▁పండించ	-10.8353
ay	-10.8363
▁గొట్ట	-10.8372
▁భావిస్తారు	-10.8374
▁అన్నింటి	-10.8387
ٰ	-10.8391
▁మునుగోడు	-10.8391
▁రష్మిక	-10.8391
▁వ్యాయామం	-10.8391
▁నితీశ్	-10.8391
▁కూకట్	-10.8391
▁కుర్చీ	-10.8391
▁పోవాల	-10.8391
ಪ್	-10.8392
▁జామ్	-10.8401
900	-10.8401
▁మారిపోయింది	-10.8403
▁ఆలయాల	-10.8403
▁బతుకు	-10.8404
▁అడ్డుకున	-10.8406
▁సాగుతున్న	-10.8407
▁సూర్యుడు	-10.8408
▁మహేంద	-10.8427
▁కొట్టింది	-10.8431
▁ఫండ్	-10.8433
▁తీసుకుంటార	-10.8436
▁రాములు	-10.8436
▁وال	-10.8441
▁2000	-10.8442
▁అత్యాచార	-10.8445
▁భోజన	-10.8445
▁స్వాగత	-10.8445
ారాయన	-10.8448
▁ఐడీ	-10.8448
▁వాయిస్	-10.8452
▁అవుతూ	-10.8458
▁ఆకస్మిక	-10.8458
▁కొద్దిసేపటి	-10.8458
▁చేవెళ్ల	-10.8458
▁బ్యాక్టీరియా	-10.8458
▁భగీరథ	-10.8458
▁రాథోడ్	-10.8458
▁పొరుగు	-10.8458
▁రసాయన	-10.8458
▁గోవింద	-10.8458
▁సమీకరణాల	-10.8458
ంగుల	-10.8458
▁ఆదిత్యనాథ్	-10.8459
▁వ్యాపించ	-10.8459
▁చేశానని	-10.846
▁జబ్బు	-10.846
▁అప్లై	-10.8463
▁రూపొంది	-10.8468
▁చేయకపోవడం	-10.8472
▁ప్రీత్	-10.8472
▁కొనసాగుతున్నాయ	-10.8481
▁బద	-10.8487
▁యాడ్	-10.8492
దనం	-10.8505
▁రికార్డ	-10.8507
▁పురుష	-10.851
▁విధానాన్న	-10.8511
▁ోళ్ల	-10.8512
▁దిగజార	-10.8515
▁పేర్ల	-10.852
▁దక్కుతుంద	-10.8522
▁మర్యాద	-10.8526
▁మేషరాశి	-10.8526
▁అభ్యర్దుల	-10.8526
▁పల్నాడు	-10.8526
▁బహుమతి	-10.8526
▁సబ్సిడీ	-10.8526
▁టూరిజ	-10.8526
ಿಂದ	-10.8526
▁పరిషత్	-10.8526
▁స్టైల్	-10.8526
పాక్షిక	-10.8526
▁ధోని	-10.8526
▁ఎడమ	-10.8527
▁అనిపిస్తుంది	-10.8527
నవంబర	-10.8529
▁శిశువు	-10.8529
ಕೆ	-10.8533
సోలార్	-10.8539
▁స్తోన్న	-10.8539
▁ఇంట్రెస్ట	-10.8541
▁వాడకం	-10.8545
▁2008	-10.8547
▁యోగీ	-10.8552
▁లేదనే	-10.8557
▁జోష్	-10.8559
▁ఫేమస్	-10.8561
▁వహిస్త	-10.8568
▁జర్నలిస్టుల	-10.8573
▁ఒడి	-10.8579
▁మోసాల	-10.8589
▁ପ୍ର	-10.8594
▁అనుసంధాన	-10.8594
▁ఔషధ	-10.8594
▁ఖరీదైన	-10.8594
▁గణాంకాల	-10.8594
▁జనార్దన	-10.8594
▁యంత్రాంగం	-10.8594
▁గుప్పించారు	-10.8594
▁ట్రయల్	-10.8594
▁ప్రార్థన	-10.8594
▁జోడించ	-10.8598
▁కలిగిస్తుంది	-10.8599
▁దక్షిణాది	-10.8599
▁హ్యాపీ	-10.86
▁లైవ్	-10.8602
▁హాజరయ్య	-10.8628
▁విధుల	-10.8629
నారాయణ	-10.8633
▁గ్రహించ	-10.8634
▁లేడీ	-10.8642
▁కావచ్చు	-10.8645
▁ఇదొక	-10.8647
▁స్టె	-10.8649
▁బంధ	-10.8657
▁పుష్కలం	-10.8662
▁ప్రత్యర్థుల	-10.8662
▁సెక్టార్	-10.8662
▁లెవెల్	-10.8662
▁డీఎస్సీ	-10.8662
▁చమురు	-10.8662
▁కాంబో	-10.8662
టీఆర్ఎస్	-10.8663
▁ట్రాక్టర్	-10.8669
▁రచ్చ	-10.8672
▁బస్సుల	-10.8678
▁డిపో	-10.8697
▁బియ్య	-10.8711
▁తులా	-10.8713
▁స్పందిస్త	-10.8725
▁కోరుతున్న	-10.8725
▁అగ్రికల్చర	-10.8731
▁ప్రాముఖ్యత	-10.8731
▁ప్రిన్సిపల్	-10.8731
▁మినహాయింపు	-10.8731
▁రాజగోపాల	-10.8731
▁గద్దె	-10.8731
▁ఆర్డీవో	-10.8736
شن	-10.8744
▁కుప్పకూలి	-10.8744
▁పెరుగుతుంద	-10.8749
▁రోవర్	-10.8749
▁పల్లా	-10.8749
.12	-10.8754
▁జరగలేదు	-10.8755
▁బోయిన	-10.8769
▁ఎడిట	-10.8771
ఎల్పీ	-10.8772
▁కొనసాగిస్త	-10.8779
▁బెదిరింపు	-10.8782
▁కోర్సు	-10.8795
▁ఇంజనీరింగ్	-10.88
▁వృషభ	-10.88
▁రౌండర్	-10.88
▁అనవసర	-10.8801
▁పోగొట్ట	-10.8801
▁ఫెయిల్	-10.8801
▁ద్వీప	-10.8801
▁సరదా	-10.8801
▁ఆకట్టుకుంట	-10.8803
▁అణు	-10.8806
ing	-10.8807
▁అయిపోయ	-10.8808
▁అందిస్తోంది	-10.881
▁హింద	-10.8811
▁సంధ్య	-10.8817
ుకోండి	-10.8821
గొండ	-10.8828
▁సమావేశమై	-10.8831
▁చదర	-10.8832
పీహెచ్	-10.8837
▁వెనుకబడి	-10.8844
ాంశ	-10.8855
▁కౌర్	-10.8856
▁చెప్పలే	-10.8857
▁నాయకత్వ	-10.886
▁బోయ	-10.8864
▁కారణమై	-10.8865
కమ్యూనికేషన్	-10.887
▁ఎగుమతి	-10.887
▁జయశంకర్	-10.887
▁పిలిపించ	-10.887
▁పులివెందుల	-10.887
▁మెడిసిన్	-10.887
▁రజనీకాంత్	-10.887
▁సిసోడియా	-10.887
▁కళాకారుల	-10.887
▁రేసులో	-10.8871
▁కొలువు	-10.8871
▁సైకిల్	-10.8871
ವಾ	-10.8878
▁గార్డెన్	-10.888
▁బేబీ	-10.8881
▁లక్షణాల	-10.8886
▁వివాద	-10.8888
▁ఉంటాన	-10.889
▁రాబోతున్న	-10.8891
▁వజ్ర	-10.8893
▁అనిపించింది	-10.8895
▁మాసం	-10.8907
▁నష్టపోయి	-10.8917
▁ఖాతాల	-10.8923
▁ఉండవు	-10.893
▁కూర్చో	-10.893
▁కాలుష్య	-10.8931
ఝ	-10.894
▁ہیں	-10.894
ಷ	-10.894
&	-10.8941
@	-10.8941
▁تھا	-10.8941
▁గొర్రెల	-10.8941
▁న్యాయమూర్తుల	-10.8941
▁గన్నవరం	-10.8941
▁రేణుక	-10.8941
▁గిఫ్ట్	-10.8941
▁దయాకర్	-10.8941
▁ఎముకల	-10.8941
▁బుకింగ్	-10.8941
▁పుణ్య	-10.8941
▁ہیں۔	-10.8941
▁చార్జీల	-10.8943
▁విలన్	-10.8944
▁వ్యతిరేకించ	-10.8955
▁డ్యామ	-10.8972
రాత్రి	-10.8972
▁మెరుపుల	-10.8973
▁రుతు	-10.8975
▁రేఖ	-10.8976
▁సామాన్యుల	-10.8988
▁అవకాశమ	-10.8991
పెట్టి	-10.8998
▁భూకంప	-10.9003
▁ఈవీఎంల	-10.9005
▁కోరుకున్న	-10.9007
▁అవకతవకల	-10.9012
▁పురందేశ్వరి	-10.9012
▁రెస్క్యూ	-10.9012
▁సంతృప్తి	-10.9012
غ	-10.9012
▁ఆర్మూర్	-10.9012
జవహర్	-10.9012
▁తలసాని	-10.9012
▁కనుగొన్న	-10.9013
▁లెఫ్ట	-10.9013
▁విభిన్న	-10.9013
▁అడ్మిషన్	-10.9013
ect	-10.9014
▁పరిధి	-10.9015
▁కౌంట	-10.9024
▁స్టాఫ్	-10.9025
▁ఉండాలంటే	-10.903
ిస్తాయి	-10.903
ెక్స్ట్	-10.904
▁ఇల్ల	-10.9043
▁బ్రాంచ	-10.9047
▁ఇంకొ	-10.9047
▁వ్యవహరిస్త	-10.9051
▁పర్యాటకుల	-10.9063
▁గదుల	-10.9064
▁వ్యవధి	-10.9073
▁తీసుకోలేద	-10.9076
گر	-10.9079
▁అపాయింట్	-10.9083
▁పరిమితమై	-10.9083
▁ప్రొడక్ట్	-10.9083
▁సర్జరీ	-10.9083
▁మైక్రో	-10.9083
▁సన్నాహ	-10.9083
▁వైఎస్ఆర్సీపీ	-10.9084
▁షరతు	-10.9084
లీగల్	-10.9086
▁ఎలక్ట	-10.9087
▁వ్యాపారుల	-10.9097
▁చేరుకుంటార	-10.9104
▁ఇషా	-10.9106
.500	-10.9107
دی	-10.9107
▁కోల్పోయింది	-10.9107
్రిప్	-10.9109
▁పీడీ	-10.9115
▁ప్రవర్తించ	-10.9116
▁బ్యాడ్	-10.9123
▁ఏర్పడుతుంద	-10.9127
▁రేవ	-10.9132
▁విమర్శించ	-10.9137
▁శరణ	-10.9142
▁తిట్ట	-10.9147
ଛ	-10.9153
▁ఇంజినీర్	-10.9155
▁గల్లంత	-10.9155
▁పారదర్శక	-10.9155
▁సూపరింటెండెంట్	-10.9155
▁ట్యాగ్	-10.9155
▁సున్నిత	-10.9155
ర్ణీత	-10.9155
▁కప్పి	-10.9156
▁ವಿಡಿಯೋವ	-10.9156
▁స్పాట్	-10.9156
▁ముగించ	-10.9158
▁ఇంటింటిక	-10.9168
ತ್ತ	-10.9175
▁ఏసీపీ	-10.9183
▁మారడం	-10.9186
▁మావోయిస్టుల	-10.9198
అక్టోబర్	-10.9208
▁కలుగుతు	-10.9223
▁దవాఖాన	-10.9228
▁టీస్పూన్	-10.9228
▁ధ్వజమెత్తారు	-10.9228
▁బుల్లెట్	-10.9228
▁రిలీజై	-10.9228
▁వ్యాక్సిన్	-10.9228
▁సుభాష్	-10.9228
▁షారుఖ్	-10.9228
▁పాలేరు	-10.9228
▁షిండే	-10.9229
▁గెలుచుకున్న	-10.9231
▁జైపూర్	-10.9235
▁డీసీసీ	-10.9239
▁విశ్లేషకుల	-10.9248
▁కొచ్చి	-10.9248
▁మహారాజ	-10.9249
▁కానున్నాయ	-10.9249
▁రాముడి	-10.9251
▁లక్ష్యాల	-10.9253
▁రాజయ్య	-10.9254
▁పర్యటించనున్న	-10.9265
పడుతున్నారు	-10.9266
ti	-10.9269
W	-10.9281
వంతంగా	-10.9292
▁నియమాల	-10.9293
us	-10.9295
▁చాంపియన్	-10.9301
యునైటెడ్	-10.9301
▁ఇన్సూరెన్స	-10.9301
▁డిస్కౌంట్	-10.9301
▁రాష్ర్ట	-10.9301
▁సభ్యుడి	-10.9301
▁కలుగుతాయ	-10.9301
▁డ్రెస్	-10.9301
▁బజార్	-10.9301
▁అమితా	-10.9301
▁డిఫెన్స	-10.9301
కపోవచ్చు	-10.9301
▁జ్యుడ	-10.9302
▁సాహస	-10.9302
▁కృష్ణారావు	-10.9306
▁ఐరన్	-10.9309
▁కలుసు	-10.9313
బీఎస్	-10.9318
▁వెళుత	-10.9318
me	-10.9321
▁హాఫ	-10.9324
▁మారిపోయ	-10.933
▁పంపిస్త	-10.9334
▁గాలులు	-10.9337
దుర్గ	-10.9339
▁పాటించాల	-10.9339
ul	-10.9351
▁అడ్డుకున్న	-10.9354
▁చేరుకోవడ	-10.9355
సమితి	-10.9356
▁చారిత్ర	-10.9374
▁సతీమణి	-10.9374
▁స్క్రిప్	-10.9374
▁చేశామన్నారు	-10.9374
▁కోచింగ్	-10.9374
▁ఫార్ములా	-10.9374
▁సోదరి	-10.9374
▁పట్టుకున్న	-10.9375
▁ఫ్రంట	-10.9378
▁దమ్ము	-10.9378
కోసం	-10.9382
▁విధాల	-10.9383
▁పోతాయి	-10.9384
▁చేరుకుంటుంద	-10.9389
▁ఓనర్	-10.9391
▁మ్యాప్	-10.9394
▁జరుగుతున్నాయని	-10.9396
▁అందజేయ	-10.9399
esh	-10.9406
▁ఇలాగ	-10.9413
▁పేలి	-10.9418
▁అమ్ముడ	-10.9425
▁జిమ్	-10.9437
▁తగిలి	-10.9443
▁పర్యవేక్షి	-10.9444
▁ఈదురుగాలుల	-10.9448
ظ	-10.9448
▁చొరవ	-10.9448
▁నాటౌట్	-10.9448
▁పొరపాటు	-10.9448
▁వెల్లుల్లి	-10.9448
▁నెమ్మది	-10.9448
▁ర్యాంక్	-10.9448
▁సిద్ధమైంది	-10.9452
▁ప్రతిష్ఠ	-10.9454
▁ఈవీఎం	-10.9456
▁వెతిక	-10.9459
▁సంప్రదాయాల	-10.946
▁నియమ	-10.9461
▁ٹی	-10.9468
▁పరిష్కారానికి	-10.947
▁ఉత్సవ	-10.9471
ಿರುವ	-10.9472
ింక	-10.9475
▁అవమానించ	-10.9478
▁చేరుతున్న	-10.9481
▁కలెక్షన్	-10.9482
వైసీ	-10.9485
▁అందుకోస	-10.9485
▁రేగ	-10.9503
ap	-10.9504
▁పరచ	-10.9509
▁పోస్టుమార్టం	-10.9523
▁భాగస్వాముల	-10.9523
▁ఆవరణలో	-10.9523
▁జరుగుతుందో	-10.9523
▁ప్రమేయం	-10.9523
▁యూరప్	-10.9523
▁పద్ధతుల	-10.9523
▁తెలియజేయ	-10.9524
▁క్రిస్ట	-10.9524
▁కొద్దిరోజుల	-10.9525
▁యోజన	-10.9525
▁శివసేన	-10.9526
▁ఎనిమిద	-10.9526
▁నడుమ	-10.9527
▁హోలీ	-10.9535
బ్రిడ్	-10.9541
▁పయన	-10.9545
▁పాల్పడుతున్న	-10.9546
▁తెలుసుకోవడ	-10.9553
చూపు	-10.9559
▁ఆశించ	-10.9569
▁పరిష్కార	-10.957
▁ప్రముఖుల	-10.9572
▁మాట్లాడుతున్నార	-10.9572
▁నిర్వహించడం	-10.9574
చంద్	-10.9592
▁ವಿಡಿಯೋ	-10.9597
▁తట్టుకోలే	-10.9598
▁తలనొప్పి	-10.9598
▁ప్రీమియర్	-10.9598
▁చెబితే	-10.9598
▁రిలయన్స	-10.9598
▁యాసిడ్	-10.9598
▁కలపాలి	-10.9598
▁సోదరుల	-10.9598
▁తెరపైకి	-10.9599
▁క్షీణ	-10.9599
▁వెంకటరెడ్డి	-10.96
▁ప్రారంభించనున్న	-10.9601
▁తీసుకువచ్చి	-10.9602
▁మహాలక్ష్మ	-10.9606
▁దేశీయ	-10.9614
▁700	-10.9617
▁کرت	-10.9619
▁పాల్గొంటున్న	-10.9635
▁దూసుకు	-10.9638
▁దాచి	-10.964
▁వేయించ	-10.9644
▁బీపీ	-10.965
భవన్	-10.9661
▁నిలుస్త	-10.9663
▁పెద	-10.9669
▁ಮಾಡ	-10.9672
▁పెట్టుకో	-10.9673
▁ఆస్పత్రుల	-10.9674
▁ఆవిర్భావ	-10.9674
▁కాకతీయ	-10.9674
▁డిక్లరేషన్	-10.9674
▁బహిష్కరి	-10.9674
▁బాధితురాలి	-10.9674
▁సింహరాశి	-10.9674
▁ఎంప్లాయ	-10.9674
▁పరాజయ	-10.9674
▁రాజాసింగ్	-10.9674
▁డ్రైవింగ్	-10.9674
▁దిగుబడి	-10.9674
▁అభ్యంతరాల	-10.9674
▁సంకల్ప	-10.9674
▁వ్యూహాత్మక	-10.9674
▁పురుగుల	-10.9674
▁ఓటరు	-10.9674
▁ముద్రగడ	-10.9675
▁పురాణాల	-10.9675
▁సవాలు	-10.9676
▁వెంకటేష్	-10.9677
▁చంద్రుని	-10.9679
▁విధుల్లో	-10.9683
▁క్రిత	-10.9684
▁మారిందని	-10.97
హారిస్	-10.97
▁వేయాలి	-10.9705
da	-10.9707
▁తీసుకురా	-10.9708
▁ఆకర్షి	-10.9709
▁ప్రేమించ	-10.971
▁కాలేదని	-10.9713
▁ఫార్మాట్	-10.9713
▁మారుస్త	-10.9718
▁పాఠశాలల్లో	-10.9718
▁పలక	-10.9719
ಿಗೆ	-10.973
▁పరిశీలిస్తున్న	-10.9744
▁తెలియజేస	-10.975
▁అప్రమత్తమై	-10.975
▁అస్వస్థత	-10.975
▁దుండగులు	-10.975
▁హ్యాట్రిక్	-10.975
▁హసీనా	-10.975
▁యాంకర్	-10.975
▁రివర్స్	-10.975
▁అస్సల	-10.9752
ಡೆ	-10.9754
▁మతపర	-10.9755
▁ఏర్పడ్డ	-10.9756
▁సృష్టించి	-10.9756
▁ఉపయోగిస్త	-10.9781
▁ఎంబీ	-10.9787
▁వేస్తార	-10.9795
▁నష్టపోయ	-10.98
▁ఇప్పించ	-10.9823
▁మంత్రివర్గ	-10.9824
▁టేక	-10.9824
▁ఆర్టిఫిష	-10.9827
▁దుబ్బాక	-10.9827
▁విశ్వసనీయ	-10.9827
▁సీఈఓ	-10.9827
ಥ	-10.9827
▁దూసుకెళ్ల	-10.9827
▁అవార్డ్	-10.9827
▁ధర్మపురి	-10.9827
▁కలయిక	-10.9827
▁ఈజిప్ట	-10.9827
▁మసాలా	-10.9827
▁పరారీ	-10.9828
▁పిలవ	-10.9829
▁బాలినేని	-10.983
▁پا	-10.9836
▁మురుగ	-10.9837
ిచెల్	-10.9839
▁మైండ్	-10.9839
▁బాపట్ల	-10.9846
▁వస్తువు	-10.9848
▁చెయ్యడం	-10.9859
▁కెప్టెన్సీ	-10.9862
▁మిస్టర	-10.9876
ేయడం	-10.9878
▁నివేది	-10.9888
▁కలిప	-10.9895
▁ఉరుములు	-10.9905
▁ఐఫోన్	-10.9905
▁దౌత్య	-10.9905
▁విద్యాసంస్థల	-10.9905
▁టోకెన్	-10.9905
▁మాఫియా	-10.9905
▁ప్రోటీన్	-10.9905
▁సాయుధ	-10.9905
▁చేయగలిగ	-10.9905
▁మైదానంలో	-10.9905
ట్విటర్	-10.9905
▁వైభవం	-10.9906
▁دعوی	-10.9906
▁సేకరిస్త	-10.9909
▁సెల్ఫీ	-10.991
▁దర్శించుకున	-10.9911
▁రాజేష్	-10.9911
▁ారంటే	-10.9912
▁నిరోధ	-10.9917
▁గ్రాడ్యుయేట్	-10.9918
▁తీసుకుంటుంద	-10.9923
▁కామన్	-10.9929
▁పిలుస్త	-10.9931
▁ఏర్పాటై	-10.9934
▁అరటి	-10.9945
▁నమోదయ్య	-10.9957
▁పుంజు	-10.9968
▁గ్రూపుల	-10.9975
నాయుడు	-10.9975
elugu	-10.9983
▁ఎగుమతుల	-10.9983
▁దివ్యాంగుల	-10.9983
▁పిన్నెల్లి	-10.9983
▁ప్రమాణస్వీకార	-10.9983
▁బల్దియా	-10.9983
▁మార్కెటింగ్	-10.9983
▁శాటిలైట్	-10.9983
▁అడ్వాన్స్	-10.9983
▁పోటెత్త	-10.9983
▁ఫెడరే	-10.9983
▁లబ్దిదారుల	-10.9983
▁బోగీల	-10.9983
▁ముర్ము	-10.9983
▁బాధ్యుల	-10.9983
▁క్షేత్రస్థాయి	-10.9983
▁వెంకటేశ్వర్లు	-10.9983
▁పశువుల	-10.9984
▁ఫేమ	-10.9985
▁నడక	-10.9988
▁ఎవ్వర	-10.9988
▁వేముల	-10.9988
▁కుదిరి	-10.9989
-19	-10.9997
▁పులుల	-11.0018
▁తెరకెక్కించి	-11.0025
కుంటోంది	-11.0031
▁కొమ్మ	-11.0038
▁బాంబ	-11.0052
▁పోషక	-11.0054
▁స్వచ్ఛ	-11.006
▁మచిలీపట్నం	-11.0061
▁మిర్యాలగూడ	-11.0061
▁రామగుండం	-11.0061
▁రిక్రూట్	-11.0061
▁విముక్తి	-11.0061
▁సీసీటీవీ	-11.0061
▁దీర్ఘ	-11.0061
▁మురళి	-11.0061
▁కండరాల	-11.0062
▁వెళతా	-11.0063
▁గణపతి	-11.0063
▁వీధుల్లో	-11.0065
▁సిక్కు	-11.0065
▁విశ్లేషణ	-11.0066
▁ರಾ	-11.007
▁కాదన్నారు	-11.0073
▁వేస్తూ	-11.0074
▁చూసుకు	-11.0075
▁ఫ్యాక్ట	-11.0078
▁పీఠ	-11.0078
ానంటూ	-11.0083
▁వస్తాయ	-11.0094
ధైర్య	-11.0123
▁video	-11.0141
▁నైవేద్య	-11.0141
▁ప్రోత్సాహ	-11.0141
▁రెచ్చగొట్ట	-11.0141
▁వినతిపత్ర	-11.0141
▁శిథిలాల	-11.0141
▁సస్పెన్షన్	-11.0141
▁మిశ్రా	-11.0141
▁ఆర్ధిక	-11.0141
▁పెవిలియన	-11.0141
▁రిలేషన్	-11.0141
▁పురాతన	-11.0141
▁జర్నీ	-11.0142
▁అదిరిపోయ	-11.0143
▁సిద్ధార్థ	-11.0144
▁బెడ్రూ	-11.0144
▁చేరువ	-11.0145
▁వేగవంతం	-11.0146
▁అలరించ	-11.0146
▁వెళ్తుండగా	-11.0147
▁వినయ్	-11.0148
▁క్వి	-11.0153
▁స్వీట్	-11.0157
▁ప్లేట్	-11.0157
▁సరస	-11.016
▁ఎంచుకున్న	-11.0164
ిచ్చిన	-11.0171
▁ఉపయోగపడ	-11.0176
ja	-11.0177
▁ఆగిపోయి	-11.0178
ಂತ	-11.019
▁రాకపోకల	-11.0208
సెప్టెంబర్	-11.0216
వలింగ	-11.0219
▁ఆఫ్ఘనిస్తాన్	-11.0221
▁ఉత్తరాంధ్ర	-11.0221
▁కనెక్షన్	-11.0221
▁కార్యదర్శుల	-11.0221
▁తరగతుల	-11.0221
▁సంస్కరణల	-11.0221
▁సబ్జెక్ట	-11.0221
▁సతీష్	-11.0221
▁షురూ	-11.0221
▁దివంగ	-11.0221
▁నిఖిల	-11.0221
▁మాంసం	-11.0221
▁గుంపు	-11.0221
▁పల్లవ	-11.0221
▁కేడర్	-11.0222
्र	-11.0223
▁గింజల	-11.0223
▁అల్లూర	-11.0223
▁పటాన్	-11.0231
▁పెట్టుకొన	-11.0236
▁సాగించ	-11.0236
▁నిద్రపో	-11.0242
▁జరగాల్సి	-11.0243
▁కొనసాగుతుంద	-11.0243
ମ୍	-11.0245
▁హార్ట్	-11.0246
▁07	-11.0268
ଆ	-11.0298
⁭	-11.0298
డిసెంబర	-11.0298
▁అడుగుతున్న	-11.03
▁డ్రై	-11.0301
▁నమూనా	-11.0301
▁పునరుద్ధరించ	-11.0301
▁మ్యూజియం	-11.0301
▁లావణ్య	-11.0301
▁యాదగిరి	-11.0301
▁అభియోగాల	-11.0301
▁పురస్కార	-11.0301
▁విరాళం	-11.0301
▁బోతోంది	-11.0302
▁శిఖర	-11.0303
या	-11.0303
▁అలవాట్ల	-11.0303
▁के	-11.0303
క్రేజీ	-11.0314
గ్రాఫర్	-11.0317
▁దాఖలై	-11.0319
▁ఎన్నికయ్య	-11.0354
▁అనిపిస్త	-11.036
▁కన్య	-11.0369
▁పీల్చ	-11.0369
▁ఎంచుకు	-11.0373
గ్రేడ్	-11.0378
▁ఊరేగింపు	-11.0383
▁నిదర్శనం	-11.0383
▁విఫలమయ్య	-11.0383
▁2012	-11.0383
▁جان	-11.0383
▁ఆఖరి	-11.0383
▁క్యాబిన	-11.0384
▁ప్రకారమ	-11.0387
▁వ్యక్తమవుతున్న	-11.0388
నాథన్	-11.0389
▁అనుభవించ	-11.0391
▁ఢీకొన	-11.0391
▁కష్టమే	-11.0391
▁శరద	-11.0396
▁ందంటే	-11.0403
▁ప్రింట	-11.0406
▁పడుతుండ	-11.0411
ish	-11.0414
ారంటూ	-11.042
▁సన్నివేశాల	-11.0422
▁చూపుతుంద	-11.046
డబ్ల్యూ	-11.0464
▁ధృవ	-11.0465
▁అత్యుత్తమ	-11.0465
▁గచ్చిబౌలి	-11.0465
▁ట్యాంకర్	-11.0465
▁దీర్ఘకాలిక	-11.0465
▁ప్యాసింజర్	-11.0465
▁మాల్దీవుల	-11.0465
▁మాదాపూర్	-11.0465
▁మిథున	-11.0465
▁క్రీడాకారుల	-11.0465
▁స్టార్టప్	-11.0465
▁నరేష్	-11.0465
▁యూరోప	-11.0465
▁వర్తిస్తుంద	-11.0465
▁తెలుపుతున్న	-11.0469
▁వేస్తోంది	-11.0472
▁పాండే	-11.0476
ప్రియ	-11.0483
▁మైదాన	-11.0484
▁పట్టణాల	-11.0484
▁బెదిరింపుల	-11.0487
▁తెలియజేస్తున్న	-11.0501
▁హీట	-11.0519
దళ్	-11.052
▁దేవాలయాల	-11.0529
ನ್ನ	-11.0538
విష్ణువు	-11.0541
ଂ	-11.0547
▁జగదీష్	-11.0547
▁డాక్యుమెంట్ల	-11.0547
▁సెటైర్లు	-11.0547
ొమాటో	-11.0547
▁ఆర్గనైజ	-11.0547
▁థర్డ్	-11.0547
▁రాక్షస	-11.0548
▁సొరంగ	-11.0548
▁హాలీవుడ్	-11.0548
ନ୍ତି	-11.0549
▁ర్యాంకు	-11.0549
▁బచ్చన్	-11.0549
▁స్వీకార	-11.055
▁బాధితుడు	-11.0555
▁ఘట్ట	-11.0561
▁పొందవచ్చు	-11.0566
▁ందంటూ	-11.0568
▁జోడీ	-11.057
▁అప్పీల	-11.0576
▁ఉంచుకున	-11.059
ିତ	-11.0599
▁తీసుకోవడ	-11.0603
▁స్పందించలేద	-11.061
▁సాధ్య	-11.0615
బెట్టి	-11.0618
▁ఎదురైన	-11.0625
ಾವು	-11.0631
▁అగర్వాల్	-11.0631
▁కమ్యూనిస్ట	-11.0631
▁మల్కాజ్	-11.0631
▁గంభీర	-11.0631
▁చీకటి	-11.0631
▁తొమ్మిదేళ్ల	-11.0631
▁రెట్టింప	-11.0631
▁శ్రీలీల	-11.0631
▁ఛానల్	-11.0631
▁పువ్వు	-11.0632
▁ట్రక్కు	-11.0632
▁తరలివచ్చ	-11.0633
ିକ	-11.0633
▁బోనస్	-11.0633
▁ముట్టడి	-11.0634
▁గెలవాల	-11.0636
▁జరగలేదని	-11.064
బలవంతంగా	-11.064
up	-11.0643
▁تو	-11.0645
▁రహిత	-11.0646
▁తగినంత	-11.0649
▁సన్నిహితుల	-11.0658
▁బంక	-11.0659
▁ఇచ్చిందని	-11.0659
▁డ్రగ్	-11.0674
▁ବି	-11.0689
▁కల్పిస్తామన	-11.0695
▁ఏనుగుల	-11.0708
କ୍ତ	-11.0715
▁میڈی	-11.0715
▁అరాచక	-11.0715
▁గోధుమ	-11.0715
▁పురస్కరించ	-11.0715
▁బంజారాహిల్స్	-11.0715
▁భౌతిక	-11.0715
▁యాక్సెస	-11.0715
▁రక్తపోటు	-11.0715
▁సూసైడ్	-11.0715
Play	-11.0715
▁కైవసం	-11.0715
▁ట్విస్ట్	-11.0715
▁శ్వేత	-11.0715
▁రిటైల	-11.0715
▁పరస్పర	-11.0715
▁ధృవీకరించ	-11.0715
▁నేర్చుకున్న	-11.0715
▁రుజువ	-11.0715
ಕ್ಷ	-11.0715
▁కొన్నాళ్ల	-11.0715
▁రాయబార	-11.0716
▁ధాటి	-11.0716
▁దైవ	-11.0716
▁పట్టుదల	-11.0717
▁నిండిపోయ	-11.0717
▁వార్నర్	-11.0718
▁తేనె	-11.0718
▁అవతార	-11.072
▁వదిలిపెట్ట	-11.0725
▁ಸಿ	-11.0728
మానిక	-11.0738
▁పరిష్కరించాల	-11.0776
▁పాల్గొననున్న	-11.0777
وش	-11.0777
▁కావేర	-11.0788
▁తప్పించుకున	-11.0794
▁ఆవిష్కరి	-11.0799
▁చాక్లెట్	-11.0799
ذ	-11.0799
▁تصویر	-11.0799
▁అనుమానాస్పద	-11.0799
▁ఆవిష్కరణ	-11.0799
▁యశస్వి	-11.0799
▁సెంటిమెంట్	-11.0799
▁జేఏసీ	-11.0799
▁సిటిజన్	-11.0799
▁గ్యాప్	-11.0799
▁రామారావు	-11.08
▁రంజిత	-11.08
▁మాణిక్	-11.08
▁వెంచర్	-11.08
▁తెప్పించ	-11.08
గమనం	-11.0802
▁నర్సాపూర్	-11.0803
▁సబిత	-11.0804
▁من	-11.0805
▁సమయాల్లో	-11.0807
▁కావటం	-11.0814
▁సుంక	-11.0815
▁గంగుల	-11.082
▁బతక	-11.0824
▁విభాగ	-11.0827
▁జోగు	-11.0828
షనల్	-11.0829
ಂಡ	-11.0835
▁ఫెస్ట	-11.0844
▁ఐకాన	-11.086
▁ఉంటుందన్న	-11.0864
▁విధిస్త	-11.0882
▁అచ్చెన్నాయుడు	-11.0885
▁అఫిడవిట్	-11.0885
▁అభ్యర్ధి	-11.0885
▁ఉపసంహరించు	-11.0885
▁ఐశ్వర్య	-11.0885
▁ద్రౌపద	-11.0885
▁పిటిషనర్	-11.0885
▁ప్రక్షాళన	-11.0885
▁వినూత్న	-11.0885
▁సారథ్యంలో	-11.0885
▁ఆకట్టుకునే	-11.0885
▁వెళితే	-11.0885
▁క్రీజులో	-11.0885
▁ఇటలీ	-11.0885
స్మారక	-11.0885
▁తాళం	-11.0885
▁దుమ్ము	-11.0885
▁నిర్దేశించ	-11.0886
▁అద్దం	-11.0887
▁స్వచ్ఛంద	-11.0888
▁వచ్చేసింది	-11.0888
▁తగ్గిస్తుంది	-11.089
రీత్యా	-11.0893
▁జోడో	-11.0895
▁వంటకాల	-11.0896
యుక్త	-11.0901
▁నోటు	-11.0902
▁చేరుకొన	-11.0914
lso	-11.0916
▁రోజువార	-11.0926
▁నదుల	-11.0928
▁తెస్త	-11.0932
▁అధ్యయనాల	-11.0933
▁శేష	-11.0933
▁కొలె	-11.0951
▁మార్గదర్శ	-11.0969
▁ప్రిన్సిపాల్	-11.0971
▁ముఖ్యమంత్రుల	-11.0971
▁అగ్నిప్రమాదం	-11.0971
▁వ్యర్థాల	-11.0971
▁దుమారం	-11.0971
▁తులసి	-11.0971
▁న్యూఢిల్లీః	-11.0974
స్ట్రాల	-11.0974
▁వినాయకుడి	-11.0975
▁తవ్వకాల	-11.0976
Y	-11.0978
శెట్టి	-11.0979
కెప్టెన్	-11.0979
▁నారాయణపేట	-11.098
పోవడమే	-11.098
▁శంకర	-11.0983
▁సక్రమ	-11.0986
▁ఎక్స	-11.0994
▁చేరికల	-11.0996
తెరకెక్కిస్తున్న	-11.0997
▁దిగుతున్న	-11.0998
▁కల్పిస్తున్న	-11.1014
ీహార్	-11.1014
▁స్టేజ	-11.1033
కెళ్లి	-11.1034
▁మదన	-11.1047
▁పుట్టుక	-11.1052
▁శత్రు	-11.1057
▁గమనిస్త	-11.1058
▁నెదర్లాండ్	-11.1058
▁ఆశీస్సుల	-11.1058
▁టాయిలెట్	-11.1058
▁స్టూడియో	-11.1058
▁అకస్మాత్	-11.1058
▁కట్టుదిట్ట	-11.1058
▁కుంభరాశి	-11.1058
▁పునరావాస	-11.1058
▁మహీంద్రా	-11.1058
▁విరుచుకుపడ్డారు	-11.1058
▁వెల్లువెత్త	-11.1058
▁ఎంటర్టైన	-11.1058
▁పంచాయితీ	-11.1058
▁జైస్వాల్	-11.1058
▁اپن	-11.1058
▁ఉభయ	-11.1058
▁ఫ్రెంచ	-11.1058
▁కోరుట్ల	-11.1058
▁వస్త్రాల	-11.1061
▁పేర్ని	-11.1061
▁దిక్కు	-11.1064
▁సమన్వయ	-11.1065
▁చూడొచ్చు	-11.1066
▁శైల	-11.1073
▁ిచ్చ	-11.1074
▁యార్డ	-11.1086
▁ప్రవర్తి	-11.1106
▁ఫిజిక	-11.1107
▁వ్యాఖ్యానించ	-11.1111
▁ఎదురైంద	-11.1114
▁కలిశ	-11.1121
రోగ్యకరమైన	-11.1121
▁భాగ్య	-11.1122
▁కాన్సెప్ట్	-11.1146
▁నిలకడగా	-11.1146
▁రాజయోగం	-11.1146
▁వృథా	-11.1146
▁వృశ్చిక	-11.1146
▁ఉల్లిపాయ	-11.1146
▁డ్రైనేజీ	-11.1146
▁కాంబినే	-11.1146
▁కోదాడ	-11.1146
▁పదిహేన	-11.1146
▁ప్రావిన్స	-11.1146
▁బంతుల	-11.1148
▁ప్రసంగించారు	-11.115
▁చేయబడి	-11.1152
▁ఫేజ్	-11.1153
▁పెట్రోల	-11.1158
▁పాదాల	-11.1159
▁పోరాడుతున్న	-11.1159
బిలిట	-11.1159
▁సమర్థవంత	-11.1168
▁అందిస్తామన	-11.117
▁فر	-11.1182
▁దేవతల	-11.1201
ಿಸಿದ	-11.1203
دہ	-11.1212
▁है	-11.1234
▁ఎంక్వైరీ	-11.1234
▁ఒంగోలు	-11.1234
▁చౌరస్తా	-11.1234
▁దళితబంధు	-11.1234
▁యాక్సిడెంట్	-11.1234
▁కాన్వాయ్	-11.1234
▁ప్రీమియం	-11.1234
▁తమిళిసై	-11.1234
witter	-11.1234
▁అబద్ధాలు	-11.1234
▁ప్రజాపాలన	-11.1234
▁ఎంపీటీసీ	-11.1234
▁గెలుచుకుంది	-11.1234
▁ఫిలిప్	-11.1234
ಷ್ಟ	-11.1234
▁తమ్ముడు	-11.1234
▁ప్రైజ్	-11.1234
▁సంకీర్	-11.1234
▁రామమందిర	-11.1234
▁గ్రామస్థుల	-11.1235
▁అడ్డంకుల	-11.1236
▁తెల్లవారు	-11.1238
▁తగ్గుతాయ	-11.1243
▁హెచ్చరిస్తున్న	-11.1247
▁తొమ్మిద	-11.1251
▁ప్రయాణాల	-11.1261
▁అందుకో	-11.1266
బోతుంది	-11.1282
▁ఇచ్చార	-11.1309
▁హోరాహోరీ	-11.1324
▁రికవరీ	-11.1324
▁విలేకరుల	-11.1324
▁కెమికల్	-11.1324
▁చౌహాన్	-11.1324
▁బ్రిటీష	-11.1324
▁వెర్షన్	-11.1324
▁పెరుగుతూ	-11.1324
▁ఉద్యమకారుల	-11.1324
▁ప్రారంభమవుతుంద	-11.1324
▁తరుగు	-11.1324
▁ఆటగాడు	-11.1324
▁కరువు	-11.1324
▁షూట్	-11.1324
▁శ్రేయస్సు	-11.1325
▁లీటర్ల	-11.1325
▁అర్పించ	-11.1326
ಲು	-11.1326
కొడంగల్	-11.1327
▁మద్దతుదారుల	-11.1327
▁తడిసి	-11.1327
▁టాలెంట	-11.1328
▁హౌజ	-11.133
▁పరీక్షించ	-11.1334
▁AP	-11.1334
▁స్తుండటం	-11.1336
రాష్ట్ర	-11.1337
▁సుకుమార	-11.1341
▁కదులుత	-11.1342
▁ఉండాలన్న	-11.1342
▁స్టాండ	-11.1354
▁కాంప	-11.1354
▁ఏముంద	-11.136
▁ఉపయోగిస్తున్న	-11.1364
▁ఆంజనేయ	-11.1369
▁కలుస్త	-11.1396
▁పరుగులక	-11.1402
ఆదిపురుష్	-11.1414
▁ఒరిజినల	-11.1414
▁కన్వెన్షన్	-11.1414
▁చెప్పుకొచ్చాడు	-11.1414
▁ఫైనాన్షియ	-11.1414
▁యూనివర్శిటీ	-11.1414
▁రజినీకాంత్	-11.1414
च	-11.1414
▁కదలికల	-11.1414
▁బ్యాలెన్స్	-11.1414
▁సిగ్గు	-11.1414
▁హైడ్రో	-11.1414
▁సెలెక్ట	-11.1414
▁కరుణాకర	-11.1415
▁అక్షయ	-11.1415
ైజేషన్	-11.1417
▁వణికి	-11.1418
▁చేసుకోవాల్సి	-11.1418
▁అయ్యాక	-11.1419
▁నియంత	-11.142
▁రేటింగ్	-11.1422
▁పాపులర	-11.1428
▁ప్రారంభమై	-11.1459
▁అంబర	-11.1462
▁మిడిల	-11.1466
▁కష్టపడ	-11.1467
▁మనీష	-11.1486
▁ప్రయోజన	-11.1492
भ	-11.1505
▁ద్రవ్యోల్బణ	-11.1505
▁నిర్దిష్ట	-11.1505
▁పేరెంట్స్	-11.1505
▁పొదుపు	-11.1505
▁ఆర్బీఐ	-11.1505
▁సీరియల్	-11.1505
▁విరమించ	-11.1505
▁ఏటీఎం	-11.1505
▁బురద	-11.1505
▁వెల్లడై	-11.1505
▁శుక్ల	-11.1505
▁ప్రసన్న	-11.1505
▁కోస్తా	-11.1505
▁శక్తుల	-11.1505
ఐఐటీ	-11.1506
▁ప్రిలిమ	-11.1506
▁ఇన్నాళ్ల	-11.1507
▁రంగనాథ్	-11.1507
▁పతాక	-11.1508
▁బోర్డర్	-11.1508
▁నాగరాజు	-11.1511
▁కృతి	-11.1511
▁తరుణ	-11.1516
▁ఆగ్రహ	-11.1516
▁నమ్ముతార	-11.1516
మడుగు	-11.1521
▁పెరిగిందని	-11.1522
కేశవ	-11.1523
▁బడుల	-11.1539
▁ప్రకటించడం	-11.1541
▁మెరుపు	-11.1555
▁మునిగిపోయ	-11.1577
nd	-11.1582
▁చిత్రీకరి	-11.1586
▁అఫ్గాని	-11.1596
▁అసాధారణ	-11.1596
▁కన్నుమూశా	-11.1596
▁కృత్రిమ	-11.1596
▁ప్రజావాణి	-11.1596
▁భూగర్భ	-11.1596
▁హార్మోన్	-11.1596
▁మిధున	-11.1596
▁యువగళం	-11.1596
▁గెలిపిస్త	-11.1596
▁ఎల్లారెడ్డి	-11.1596
▁ఫ్లిక్స్	-11.1596
▁బాలాజీ	-11.1597
▁లగ్జ	-11.1597
▁కంచె	-11.1597
▁బసవరాజ	-11.1597
▁అమాయక	-11.1597
▁వీక్షించ	-11.1597
▁నేరగాళ్ల	-11.16
▁వాసన	-11.1602
▁2010	-11.1603
▁సహించ	-11.1608
▁ఇవ్వకపోవడం	-11.161
▁پو	-11.1611
▁కావ్య	-11.1615
▁పతన	-11.1635
▁జరుపుత	-11.1639
▁గౌరవించ	-11.1642
▁రాజేశ్	-11.1667
▁శిశు	-11.1684
▁పొందుత	-11.1689
▁دکھا	-11.1689
▁పుంగనూరు	-11.1689
▁సెలబ్రిటీ	-11.1689
ಿದ್ದಾರೆ	-11.1689
▁రెసిడెన్	-11.1689
▁సర్పంచుల	-11.1689
▁హుస్నాబాద్	-11.1689
▁ముందంజ	-11.1689
▁సెకన్ల	-11.1689
▁సమకూర్చ	-11.1689
సనాతన	-11.1689
▁ఆటగాడి	-11.1689
▁ప్రవహిస్త	-11.1689
▁క్లినిక	-11.169
▁లక్ష్మీనారాయణ	-11.169
▁టూరిస్ట	-11.169
▁శ్రీనివాసరెడ్డి	-11.169
▁వర్గీకరణ	-11.1693
▁గరుడ	-11.1693
▁స్తుండగా	-11.1695
▁ఆరోపణ	-11.17
▁డెవల	-11.1703
శక్తి	-11.171
▁కట్టబెట్ట	-11.1717
▁చూడటానిక	-11.1723
పిచ్చి	-11.1723
▁ఉంచుత	-11.1728
ಡ್	-11.1736
▁మురళీ	-11.1754
▁کرن	-11.1774
ट	-11.1782
▁అడ్రస్	-11.1782
▁నైతిక	-11.1782
▁డీసీఎం	-11.1782
▁ల్యాప్	-11.1782
▁వేధిస్తున్న	-11.1783
▁సజీవ	-11.1783
త్తీస్	-11.1783
▁మిలిటెంట్	-11.1784
▁నాగేశ్వర	-11.1788
▁నిర్వర్తి	-11.1788
▁హేమంత	-11.1797
▁నీరజ	-11.1798
▁వ్యవహార	-11.1798
▁ఫిష	-11.1805
▁లలిత	-11.1805
▁జరపాల	-11.1807
▁జర్నలిస్టు	-11.181
▁విశ్వాస	-11.1816
ీలాండ	-11.1826
▁బ్రిజ	-11.183
▁ప్రియురాల	-11.1861
వేగం	-11.1866
▁రిటైర్	-11.1866
▁బెంగుళూరు	-11.1877
▁సిగరెట్	-11.1877
▁ట్లయితే	-11.1877
▁నిర్వాసితుల	-11.1877
▁మల్కాజిగిరి	-11.1877
▁లెబనాన్	-11.1877
▁విభజించ	-11.1877
▁విరుచుకు	-11.1877
▁విరాళాల	-11.1877
▁రామాయణ	-11.1877
▁గిన్నె	-11.1877
▁విమానయాన	-11.1877
▁త్రిపుర	-11.1877
▁సులువు	-11.1877
▁పాట్నా	-11.1877
▁ఇరుక్కు	-11.1878
▁సెలక్ట	-11.1879
▁ధ్వ	-11.188
▁మర్రి	-11.188
▁का	-11.188
▁ఆర్టిస్ట	-11.1881
▁నాటక	-11.1882
▁కట్టడాల	-11.1885
▁పెట్టుకుంట	-11.189
▁అందజేస్త	-11.1905
▁విమెన్	-11.1906
▁బడుతుంద	-11.1932
▁గెలుస్తుంద	-11.1942
▁అయ్యార	-11.1943
▁చేపట్టనున్న	-11.1964
▁ఉత్తీర్ణత	-11.1972
▁కన్సల్ట	-11.1972
▁క్రిస్మ	-11.1972
▁దిగ్భ్రాంతి	-11.1972
▁మొట్టమొదటి	-11.1972
▁మొహమ్మద్	-11.1972
▁యూఏఈ	-11.1972
కండక్టర్	-11.1972
▁నెలాఖరు	-11.1972
▁డ్రింక్	-11.1972
▁జాప్యం	-11.1972
▁సూర్యకుమార్	-11.1972
▁కార్బన్	-11.1972
▁సౌందర	-11.1972
▁లబ్ది	-11.1972
▁హోటళ్ల	-11.1972
▁వెచ్చించ	-11.1972
▁ఉన్నవారి	-11.1972
▁బద్దలు	-11.1973
▁బాధితురాలు	-11.1973
ెత్తున	-11.1974
▁పూర్తయ్యే	-11.1974
▁గ్రామస్తుల	-11.1975
▁వస్తోన్న	-11.1976
▁చెమట	-11.1978
▁జనసేనాని	-11.1978
▁ఉనికి	-11.198
▁ఒప్పుకో	-11.1984
▁పునర్	-11.1986
▁కళ్యాణ	-11.1992
▁తుండటం	-11.2019
▁మిత్రుల	-11.2038
తంత్ర	-11.2049
▁ఉపాధ్యక్ష	-11.2065
▁గైక్వాడ్	-11.2068
▁భువనేశ్వర్	-11.2068
▁మహమ్మారి	-11.2068
▁pic	-11.2068
▁డెయిరీ	-11.2068
▁వెనుదిరిగ	-11.2068
ೃ	-11.2068
▁తయారై	-11.2068
▁అభ్యర్ది	-11.2068
శుద్ధి	-11.2068
▁తొలగింపు	-11.2068
▁స్టేటస్	-11.2068
▁దోహద	-11.2068
▁నాదె	-11.2069
▁క్లోజ్	-11.2069
▁కరుణ	-11.2069
▁పర్యవేక్షించ	-11.2073
▁పాలయ్యారు	-11.2076
▁జోషి	-11.208
▁యాజమాన్య	-11.2084
▁జరుపుకున	-11.2089
▁సరిపోతుంద	-11.2091
▁అమ్మకాల	-11.2093
▁నమోద	-11.2105
▁ముచ్చట	-11.213
ತ್ರ	-11.2138
▁చెయ్యాల	-11.2142
▁చెప్పాల్సి	-11.216
▁నేపథ్య	-11.2165
‭	-11.2165
▁ఆడపిల్ల	-11.2165
▁ఇంఛార్జ	-11.2165
▁ఇంతకుముంద	-11.2165
▁ఇన్వెస్టిగేషన్	-11.2165
▁కంటోన్	-11.2165
▁క్యాంటీన్	-11.2165
▁టోర్నమెంట	-11.2165
▁డొనాల్డ్	-11.2165
ଁ	-11.2165
▁మూడేండ్ల	-11.2165
▁వారణాసి	-11.2165
▁విచిత్ర	-11.2165
▁బందీల	-11.2165
▁బషీర	-11.2165
▁ఆచూక	-11.2166
▁ଏକ	-11.2166
▁కాశీ	-11.2166
▁సౌర	-11.2167
▁అమరుల	-11.2168
▁ಮಾಡಿ	-11.2168
▁రామాలయ	-11.217
▁తగ్గింపు	-11.2174
▁పోయాయని	-11.2174
▁وا	-11.2183
▁సంభవించింద	-11.2187
▁జమిల	-11.2212
مب	-11.2233
ಿಸಿ	-11.225
▁సమ్మర	-11.2256
▁అలెర్ట్	-11.2263
▁కోనసీమ	-11.2263
▁భూసేకరణ	-11.2263
▁యాదగిరిగుట్ట	-11.2263
▁విజువల్	-11.2263
▁నిజాయితీ	-11.2263
▁మ్యాజిక్	-11.2263
▁సతీశ్	-11.2263
▁ఆచరించ	-11.2263
▁తరలింపు	-11.2263
▁ప్రొటీన్	-11.2263
▁రామోజీ	-11.2263
▁చతుర్	-11.2264
▁అమీర్	-11.2264
▁మిల్లుల	-11.2269
▁విచారిస్తున్న	-11.2269
▁శ్రీనివాసులు	-11.2271
▁దక్కించుకుంద	-11.2276
▁ఉంటార	-11.2287
▁టెర్ర	-11.2291
తిలక్	-11.2308
▁دو	-11.2312
▁ఎన్నికై	-11.2346
▁ఇస్తానన	-11.2353
▁తీసుకెళ	-11.2356
▁కనుగొన	-11.2361
▁ఆత్మవిశ్వాసం	-11.2362
▁में	-11.2362
▁ଭିଡିଓ	-11.2362
▁క్వింటాళ్ల	-11.2362
▁దొరుకుతుంద	-11.2362
▁బేగంపేట	-11.2362
▁రషీద్	-11.2362
▁అడ్మినిస్ట్రే	-11.2362
▁ఆవిష్కరించారు	-11.2362
▁శాంసన్	-11.2362
▁పరిగణలో	-11.2362
▁అంపైర్	-11.2362
▁మండపం	-11.2363
▁రీల్స్	-11.2364
▁PM	-11.2369
▁కొడుతున్న	-11.2376
▁క్లిప్	-11.2383
▁సాధిస్తుంద	-11.2383
▁ఆవిర	-11.2387
తరగతి	-11.2397
▁కంపార్ట	-11.2398
▁ఆయుధ	-11.2408
రతన్	-11.2419
▁ఒలింపిక్	-11.2422
ವೆ	-11.2428
▁పక్షుల	-11.2432
▁వినోద	-11.2442
నగర	-11.2442
▁సిద్ధమయ్యార	-11.2443
▁బంధించ	-11.2457
GB	-11.246
▁అభినంది	-11.2462
▁ఓపెనింగ్	-11.2462
▁తొక్కిసలాట	-11.2462
▁ధోరణి	-11.2462
▁రిజిస్ట్రార్	-11.2462
▁ఉపగ్రహ	-11.2462
▁మహాత్మా	-11.2462
▁టెర్రరిస్ట	-11.2462
▁మద్రాస	-11.2462
▁చొరబడ	-11.2463
▁ఒప్పుకున్న	-11.2463
▁మోర్చా	-11.2463
▁కోదండరాం	-11.2463
▁ధ్యాన	-11.2465
▁ప్రశంసించారు	-11.2465
▁పనిచేయడ	-11.2465
▁నాగేందర్	-11.2466
▁కోలుకో	-11.2467
▁బహుశ	-11.2468
▁సహకరిస్త	-11.2468
▁సయ్యద	-11.2475
▁ఏమైంద	-11.2482
▁వెంటాడ	-11.2486
▁ఇన్వెస్టర్ల	-11.2492
X	-11.2499
జూన్	-11.25
మేరకు	-11.2502
ଦି	-11.2552
▁ఇస్తుంద	-11.2559
▁కిశోర్	-11.2563
▁యానిమల్	-11.2563
▁వాయుగుండం	-11.2563
▁సుబ్బారెడ్డి	-11.2563
▁ఛేదించ	-11.2563
▁ుకోవాలి	-11.2563
▁పరమేశ్వర	-11.2563
▁ఇస్లామి	-11.2563
▁సామగ్రి	-11.2563
▁సైలెంట్	-11.2563
▁యూనిఫా	-11.2563
▁ఎరువుల	-11.2563
▁జోస్యం	-11.2563
▁కంగనా	-11.2563
▁ఒవైసీ	-11.2565
▁పదోన్నత	-11.2565
▁చట్టబద్ధ	-11.2565
▁అటెండ	-11.2566
▁గూడ్స	-11.257
▁అభయ	-11.2572
▁ాలనుకున్న	-11.2577
▁ుతున్నారు	-11.2581
▁స్వరూప	-11.2602
▁ఉంచాల	-11.2611
▁నిరస	-11.2624
▁కంటెస్టెంట్	-11.2665
▁అభివృద్ది	-11.2665
▁ఆతిథ్య	-11.2665
▁చోప్రా	-11.2665
▁నివాళులర్పించ	-11.2665
▁బృహస్పతి	-11.2665
▁వాంగ్మూల	-11.2665
▁ಸುದ್ದಿ	-11.2665
▁సీక్రెట్	-11.2665
ామినేటెడ్	-11.2665
▁రవికుమార్	-11.2665
▁సమాధి	-11.2665
▁ఆటంకం	-11.2666
▁పసిడి	-11.2666
విరామం	-11.2666
▁ఎగువ	-11.2667
▁ఉద్యోగస్తుల	-11.2667
▁మోహరించ	-11.2667
▁ఉపాధ్యక్షుడు	-11.2669
▁బస్తీ	-11.267
▁ఇంతవరక	-11.2674
▁విడాకుల	-11.2675
▁మంజూర	-11.2675
▁కనబర	-11.2677
ఒ	-11.2706
▁భవాన	-11.2714
▁పాల్గొంట	-11.2756
▁Telangana	-11.2768
▁ఇండెక్స్	-11.2768
▁ఐదేండ్ల	-11.2768
▁కంప్లైంట్	-11.2768
▁కమిషనరేట్	-11.2768
▁తాగునీరు	-11.2768
▁నిరుపేద	-11.2768
▁నిర్బంధ	-11.2768
▁మందమర్రి	-11.2768
▁లక్ష్మారెడ్డి	-11.2768
▁శాంతిభద్రతల	-11.2768
▁సరస్వతి	-11.2768
▁వేడెక్క	-11.2768
▁కస్టమ్	-11.2768
▁కాజీపేట	-11.2768
▁ఫిలిం	-11.2769
▁మనుగడ	-11.2769
▁ప్రతిష్ఠాత్మక	-11.2769
▁వ్యూస్	-11.277
▁జాయిన్	-11.277
▁నాగబాబు	-11.2771
▁అనుమానిస్తున్న	-11.2778
▁సరళ	-11.2778
▁అరెస్టయి	-11.2848
▁ిస్తార	-11.2848
▁ామంట	-11.2872
`	-11.2873
ಮಾಜಿ	-11.2873
▁అమరవీరుల	-11.2873
▁మధుసూదన్	-11.2873
▁అభివర్ణించారు	-11.2873
▁అర్చకులు	-11.2873
▁ఆర్ఆర్ఆర్	-11.2873
▁యాసంగి	-11.2873
▁వర్చువల	-11.2873
▁అన్నమయ్య	-11.2873
▁హితవు	-11.2873
▁అతిథుల	-11.2873
▁వెంబడి	-11.2873
▁బ్రదర్	-11.2874
▁ఇనుప	-11.2875
ఆర్సీబీ	-11.2875
▁హోంశాఖ	-11.2877
రూపం	-11.2878
ఖుషి	-11.2883
▁తాడ	-11.2887
నష్టం	-11.2923
▁సహకరించాల	-11.2948
శివరాత్రి	-11.297
श	-11.2978
▁ఇండిపెండెంట్	-11.2978
▁చక్రవర్తి	-11.2978
▁త్రిపాఠి	-11.2978
▁నిత్యావసర	-11.2978
▁ప్లానింగ్	-11.2978
▁మృతిచెంద	-11.2978
▁మెషీన్	-11.2978
▁పరిస్ధిత	-11.2978
▁రెండేండ్ల	-11.2978
▁కొండగట్టు	-11.2978
▁తెలిసే	-11.2978
▁రిపీట్	-11.2978
▁మినిస్టర్	-11.2978
▁సహచర	-11.2978
▁సర్టిఫికే	-11.2978
▁ధనుష్	-11.2978
▁మహానాడు	-11.2978
▁కూరుకు	-11.298
▁అనుసరిస్త	-11.2981
ना	-11.2983
▁పొద్దు	-11.2986
▁జాతుల	-11.2988
▁చదువుకున్న	-11.2997
▁నర్సింగ	-11.3005
▁నిలుస్తున్న	-11.3011
▁కేటాయించాల	-11.3013
▁ఫలించ	-11.3048
▁స్వీకరి	-11.3064
▁పడింద	-11.3071
▁దాఖల	-11.3075
▁చూసుకో	-11.3083
▁ఊహాగానాల	-11.3084
▁కూర్చొ	-11.3084
ए	-11.3084
ఎస్ఆర్టీసీ	-11.3084
▁అభ్యర్థన	-11.3084
▁అమావాస్య	-11.3084
▁కొండచరియలు	-11.3084
▁జింబాబ్వే	-11.3084
▁పకడ్బందీ	-11.3084
▁బహుమతుల	-11.3084
▁సంభాషణ	-11.3084
▁ప్రేరేపి	-11.3084
▁ఐర్లాండ్	-11.3084
▁ఫుటేజీ	-11.3084
▁ప్యానెల్	-11.3084
▁మరమ్మతు	-11.3084
▁యుగం	-11.3085
▁మాలిక్	-11.3085
▁రిస్క్	-11.3086
▁ఆసరా	-11.3087
▁మిరియాల	-11.3087
▁క్లైమ	-11.3088
ిండీస్	-11.309
▁నిషేధించ	-11.3098
▁బుర్ర	-11.3099
▁విడద	-11.3103
▁ఉత్సాహ	-11.3105
▁అద్దాల	-11.3107
▁నిర్లక్ష్య	-11.3126
▁వెళ్తుంద	-11.3131
భూమి	-11.3134
▁ప్రయత్నిస్తోంద	-11.3143
▁ఇండస్ట్ర	-11.3156
▁నవరాత్ర	-11.3157
▁తొలగిస్త	-11.3159
ಉ	-11.3192
▁సూక్ష్మ	-11.3192
Z	-11.3192
▁ఆలౌట్	-11.3192
▁నిర్ధారణ	-11.3192
▁ముంచెత్త	-11.3192
▁లేవనెత్త	-11.3192
▁వయనాడ్	-11.3192
▁సమ్మిట్	-11.3192
▁సస్పెన్స్	-11.3192
▁నడుచుకుంట	-11.3192
▁ఐపీసీ	-11.3192
▁చిక్కుకుపోయ	-11.3192
▁ప్రణీత	-11.3192
▁స్కూలు	-11.3192
▁జలుబు	-11.3192
▁గాలింపు	-11.3193
▁లక్కీ	-11.3193
▁ప్రోత్సహి	-11.3193
▁సాక్షుల	-11.3194
▁ఏకపక్ష	-11.3194
▁బౌద్ధ	-11.3194
▁సవరించ	-11.3196
▁మొదలవుతుంద	-11.32
▁తరలిస్త	-11.3204
స్తుంటాయి	-11.3217
కత్తా	-11.3227
▁కంగార	-11.3235
▁గుప్పి	-11.3249
బ్రెయిన్	-11.3252
షాద్	-11.3268
ଥିଲ	-11.33
▁ఉల్లంఘన	-11.33
▁ఎల్బీనగర్	-11.33
▁క్షతగాత్రుల	-11.33
▁పద్మావతి	-11.33
▁ఫ్రాంచైజీ	-11.33
▁కాచిగూడ	-11.33
▁తలనీలాల	-11.33
▁మనోభావాల	-11.33
▁నరేశ్	-11.3301
▁సంపన్న	-11.3301
▁మాచర్ల	-11.3301
▁వైభవ	-11.3301
▁జన్యు	-11.3301
▁ఇంటిగ్రే	-11.3301
▁సంపర్క	-11.3302
▁అశ్విని	-11.3302
▁పశు	-11.3304
టెక్నికల్	-11.3304
▁పుస్తక	-11.3306
▁రియాక్ట	-11.3319
▁సెకండ	-11.3336
▁ప్రారంభమయ్యాయ	-11.3338
▁ముగియనుంద	-11.3363
▁లభిస్తుంద	-11.3394
▁ఒక్కరోజ	-11.3398
▁ହୋଇ	-11.341
▁ఆల్కహాల్	-11.341
▁ఛాలెంజర్	-11.341
▁తోసిపుచ్చ	-11.341
▁దారితీసింద	-11.341
▁దుర్మార్గ	-11.341
▁దేవాదాయ	-11.341
▁విశిష్ట	-11.341
▁స్క్వాడ్	-11.341
▁స్వాతంత్య్ర	-11.341
▁హుటాహుటిన	-11.341
▁పద్మనాభ	-11.341
▁ప్రోగ్రాం	-11.341
▁బుజ్జగ	-11.341
▁సురేందర్	-11.341
బళ్లారి	-11.341
▁శీతాకాల	-11.341
▁ఒడ్డు	-11.341
▁స్ట్రీట్	-11.341
▁ఆయుష్	-11.341
▁గుత్తా	-11.341
▁మైనంపల్లి	-11.3411
స్సార్	-11.3411
▁బిర్లా	-11.3411
▁కనిపెట్ట	-11.3412
▁కరెక్ట	-11.3413
▁మెప్పించ	-11.3414
▁కొనుక్	-11.3415
▁ధీర	-11.3417
చిలుక	-11.3419
▁హానికర	-11.3433
రుధ్	-11.345
ంజనేయులు	-11.3465
ఉ	-11.3466
▁నియోజ	-11.3481
▁ఉమెన్	-11.3508
ନ୍ତ	-11.352
▁పేర్కొన	-11.3521
▁అనుభూతి	-11.3521
▁ప్రాపర్టీ	-11.3521
ఆర్డినేటర్	-11.3521
▁ఆశాభావం	-11.3521
▁ఎన్నారై	-11.3521
▁డాక్యుమెంటరీ	-11.3521
▁నామినేట్	-11.3521
▁రష్యన్	-11.3521
ొల్యూషన్	-11.3521
▁కొట్లాడ	-11.3521
▁తుపాకీ	-11.3521
▁పాలిటిక్స్	-11.3521
▁విజిలెన్స	-11.3521
▁గ్లాసు	-11.3521
▁లింగంపల్లి	-11.3521
▁అవస్థలు	-11.3522
▁బోల్తా	-11.3522
▁స్ట్రోక్	-11.3522
▁ڈی	-11.3522
▁ఒప్పించ	-11.3522
▁ఆరేళ్ల	-11.3523
▁భీమవరం	-11.3523
▁వ్యాపారస్తుల	-11.3523
▁శాస్త్రీయ	-11.3524
▁హౌస	-11.3558
▁ప్రిన్స	-11.3561
▁దూరమయ్య	-11.3562
ోదయ	-11.3566
▁కదిలి	-11.3577
▁నమోదయింద	-11.359
ड	-11.3634
▁అహంకార	-11.3634
▁బైఠాయించ	-11.3634
Q	-11.3634
▁News	-11.3634
▁గ్లింప్స్	-11.3634
▁జహీరాబాద్	-11.3634
▁ఫీల్డింగ్	-11.3634
▁సామూహిక	-11.3634
▁తొలగిపోతాయ	-11.3634
▁పౌరసత్వ	-11.3634
▁దౌర్	-11.3634
▁విషమంగా	-11.3634
▁డిజాస్టర	-11.3634
▁ప్రాంగణంలో	-11.3634
▁భిక్ష	-11.3634
▁ప్రపోజ	-11.3635
▁సాగునీర	-11.3637
▁ఛేజ	-11.3644
▁షాకిచ్చ	-11.3645
▁ఆదుకోవాల	-11.3667
▁స్కేల	-11.3683
▁విలాస	-11.3687
▁గురవుతున్నార	-11.3689
▁గగన	-11.3692
▁తెలియజేస్త	-11.3703
z	-11.3747
▁Reddy	-11.3747
▁ఎదురుదెబ్బ	-11.3747
▁క్లెయిమ్	-11.3747
▁పరిగణిస్తారు	-11.3747
▁లెక్చరర్	-11.3747
▁ఎన్ఐఏ	-11.3747
▁చోటుచేసుకున్న	-11.3747
▁మ్యానిఫేస్టో	-11.3747
▁అరుణాచల	-11.3747
▁ఛేదన	-11.3747
▁కనుగొన్నాము	-11.3747
సర్దుబాటు	-11.3748
▁నటులు	-11.3749
▁శశి	-11.375
▁విశ్లేషించ	-11.3756
▁సోరెన	-11.3757
▁డిఫర	-11.378
గ్రేట్	-11.3799
రిగిన	-11.382
▁ಕ್ಕ	-11.3822
▁తప్పవన	-11.3832
ాద్రి	-11.3841
▁చూస్తోంద	-11.3845
▁మోసపోయ	-11.3849
▁ట్యాప	-11.3861
▁ప్రస్తావిస్త	-11.3862
▁అదరగొట్ట	-11.3862
▁అదృశ్య	-11.3862
▁ఇంగ్లిష్	-11.3862
▁ఛేంజర్	-11.3862
▁దృఢ	-11.3862
▁పఠాన్	-11.3862
▁మెక్సికో	-11.3862
▁వెసులుబాటు	-11.3862
▁సజ్జనార్	-11.3862
▁హడావుడి	-11.3862
ଫ	-11.3862
▁క్రాంతి	-11.3862
▁పార్వతీ	-11.3862
▁సముదాయ	-11.3862
▁అనుచిత	-11.3862
▁జొన్న	-11.3862
▁మరాఠ	-11.3862
▁సిల్వర్	-11.3863
▁విస్తరిస్త	-11.3863
▁అతీతం	-11.3863
▁నటిస్తో	-11.3863
▁అసైన్	-11.3863
▁ిద్దర	-11.3865
▁طر	-11.3868
▁ప్రవాస	-11.3882
▁ప్రాసెస	-11.3903
▁మావోయిస్టు	-11.391
▁ఆదేశి	-11.3913
ెదురు	-11.3926
స్కూల్	-11.393
▁పెడుతుంద	-11.3937
▁కోదండ	-11.3978
ू	-11.3979
▁డెమొక్ర	-11.3979
TSPSC	-11.3979
▁پوسٹ	-11.3979
▁అవాంఛ	-11.3979
▁ఆత్మగౌరవ	-11.3979
▁ఆదేశం	-11.3979
▁కలుషిత	-11.3979
▁క్రాఫ్ట్	-11.3979
▁చంద్రచూడ్	-11.3979
▁ఠాక్రే	-11.3979
▁పరిశుభ్ర	-11.3979
▁భార్యాభర్తల	-11.3979
▁వైఫల్యాల	-11.3979
▁స్లీపర్	-11.3979
▁వామపక్ష	-11.3979
▁ముగుస్తుంది	-11.3979
▁రిలీఫ్	-11.3979
▁డిప్రె	-11.3979
▁సఫారీ	-11.3979
▁క్షేమం	-11.3979
పారుదల	-11.3979
▁ద్వేష	-11.3979
▁ఫ్రూట్	-11.398
పార్వతి	-11.398
▁మృతుడ	-11.398
ww	-11.3981
▁వస్తుండటం	-11.3985
▁మేడార	-11.3986
▁హద్దు	-11.3988
▁యమున	-11.3989
▁మిలిట	-11.3991
▁ఢీకొట్టింద	-11.3992
ోవడమే	-11.4028
▁ఒంటరి	-11.4031
▁మాదిరి	-11.4031
▁నియమిస్త	-11.4074
ాంఘ	-11.4081
్వినియోగం	-11.4096
నిర్వాహక	-11.4096
▁క్యాండిడేట్	-11.4096
▁వెంకటరమణ	-11.4096
▁సాంప్రదాయ	-11.4096
▁సాహిత్య	-11.4096
▁రైడర్స్	-11.4096
▁అవతరించ	-11.4096
▁కోహ్లి	-11.4096
▁ప్రసక్త	-11.4096
▁సాగునీటి	-11.4096
▁ಯಾವ	-11.4096
▁నర్సంపేట	-11.4096
▁పితృ	-11.4096
▁భృతి	-11.4096
▁యత్నించ	-11.4097
▁సంపత్	-11.4097
▁జామున	-11.4097
▁శత్రువుల	-11.4098
▁హాజరుకానున్న	-11.4098
▁గంగాధర	-11.41
▁పేల్చ	-11.4101
▁క్యాష	-11.4102
▁మరిచిపో	-11.4107
స్వాతి	-11.4132
శౌర	-11.4153
▁నరక	-11.4155
▁నిరుడ	-11.4163
▁చేయవద్ద	-11.4172
ುದೇ	-11.4215
▁Chandrababu	-11.4215
▁క్రమశిక్షణ	-11.4215
▁జీవనశైలి	-11.4215
▁దూబే	-11.4215
▁ఫ్లైఓవర్	-11.4215
▁మృణాల	-11.4215
▁అధిపతి	-11.4215
▁గరిష్ఠ	-11.4215
▁రైల్వేస్టేషన్	-11.4215
▁మోతాదు	-11.4215
▁ఉండవల్లి	-11.4216
▁రెచ్చిపోయ	-11.4216
▁సంబందించి	-11.4216
▁నియమితులయ్యారు	-11.4216
▁వెలిగించ	-11.4217
▁యాత్రికుల	-11.4218
▁బాటిళ్ల	-11.4219
▁గుర్తిస్త	-11.4222
▁వారసుల	-11.4225
▁చెందుతుంద	-11.4227
▁క్తుల	-11.4244
▁యాదవ	-11.4261
▁చేసుకుంద	-11.4263
క్రమం	-11.4274
ఆగస్టు	-11.4291
నాధ్	-11.4306
▁ఏర్పాట	-11.4311
▁ఇబ్రహీం	-11.4318
▁పట్టుబట్ట	-11.4327
▁ప్రదర్శిస్త	-11.4336
▁ఆశ్రమ	-11.4336
▁ఊపిరితిత్తుల	-11.4336
▁ఎకానమీ	-11.4336
▁కెపాసిటీ	-11.4336
▁దిశానిర్దేశం	-11.4336
▁దుస్థితి	-11.4336
▁నయనతార	-11.4336
▁పౌడర్	-11.4336
▁వెరిఫికేషన్	-11.4336
ଷ୍ଟ	-11.4336
▁ఆకట్టుకుంది	-11.4336
▁ఆర్డినెన్స	-11.4336
▁ట్రూడో	-11.4336
▁శ్రేయా	-11.4336
▁కుదుర్చు	-11.4336
2023-24	-11.4336
▁మెకానిక	-11.4336
▁సింధు	-11.4336
▁తగ్గట్టుగా	-11.4336
▁పోషిస్తున్నార	-11.4336
▁చేర్పుల	-11.4336
▁పరేడ్	-11.4337
▁వర్తించ	-11.4337
▁గేటు	-11.4337
▁విస్తార	-11.4337
▁వానాకాలం	-11.4337
▁డివైజ	-11.4337
▁షిఫ్ట	-11.4337
▁ఫేవర	-11.4338
▁గంజ్	-11.4339
పాఠం	-11.434
▁తల్లుల	-11.434
▁ఓటేయ	-11.4355
▁ప్రార్థి	-11.4366
నరేషన్	-11.4375
▁ప్పుడ	-11.4377
హైడ్రేట్	-11.438
▁విశ్లేష	-11.4408
▁పోతుంట	-11.4423
▁మిలట	-11.4434
▁పడుతున్నార	-11.4438
▁గైడ	-11.4448
▁అడ్మి	-11.4455
്	-11.4458
▁కన్యారాశి	-11.4458
▁క్రియాశీల	-11.4458
▁నటీనటుల	-11.4458
▁నిలిపివేశారు	-11.4458
▁నివాళులు	-11.4458
▁పన్నెండ	-11.4458
▁పునరుద్ధరణ	-11.4458
▁పెంపొందించ	-11.4458
▁ప్రఖ్యాత	-11.4458
▁వృద్ధాప్య	-11.4458
▁శబరిమల	-11.4458
▁సిఫారసు	-11.4458
▁అడ్వకేట్	-11.4458
▁ఖరారై	-11.4458
▁కక్ష్యలో	-11.4458
▁కన్నీళ్లు	-11.4458
▁ముసుగు	-11.4458
▁ఫ్రిజ్	-11.4458
▁స్వీప్	-11.4458
▁فی	-11.4458
▁కుజుడు	-11.4459
▁ఆందోళనకారుల	-11.4459
▁సమన్లు	-11.446
▁తీసుకువచ్చార	-11.446
▁సంధించ	-11.4466
ల్లంపల్లి	-11.4475
▁నమోదవుత	-11.4488
దుంప	-11.4492
▁హాస్య	-11.4492
▁బలవంత	-11.4507
కొత్తగూడెం	-11.454
▁సోర్స	-11.4556
ೊಂದಿಗ	-11.4571
▁దురదృష్ట	-11.4578
▁ప్రయివేట	-11.4581
బాహుబలి	-11.4581
▁ఎగ్జిబిషన్	-11.4581
▁కౌన్సెలింగ్	-11.4581
▁చర్చనీయాంశమై	-11.4581
▁జడ్చర్ల	-11.4581
▁డిస్ట్రిబ్యూ	-11.4581
▁తగ్గుముఖం	-11.4581
▁త్రివిక్రమ్	-11.4581
▁ముషీరాబాద్	-11.4581
▁మొక్కజొన్న	-11.4581
▁రిపోర్టర్	-11.4581
▁సంపాదన	-11.4581
▁సప్లిమెంట	-11.4581
▁సర్క్యూట్	-11.4581
▁సామ్రాజ్య	-11.4581
▁హడావిడి	-11.4581
➦	-11.4581
▁ఘోష్	-11.4581
▁సౌండ్	-11.4581
▁ఉడికించ	-11.4581
▁నృత్య	-11.4581
▁పుణె	-11.4581
▁సింపుల్	-11.4581
▁ప్రయాణీకుల	-11.4581
▁పూర్ణిమ	-11.4581
▁కెనాల్	-11.4581
▁విలేజ్	-11.4582
▁కాషాయ	-11.4582
▁గోయల్	-11.4582
▁చారిత్రాత్మక	-11.4582
▁చేకూర్చ	-11.4583
▁సరుకుల	-11.4583
▁చనిపోవడం	-11.4587
▁కుంకుమ	-11.4588
▁స్పిన్	-11.4589
▁నిరూప	-11.4606
▁ఆదుకుంట	-11.463
▁సైన్య	-11.4632
▁అసదుద్దీన్	-11.4706
▁ఆక్సిడెంట్	-11.4706
▁కీరవాణి	-11.4706
▁చుట్టుముట్ట	-11.4706
▁నాలుగైద	-11.4706
▁ఫ్యూచర్	-11.4706
▁మ్యానిఫెస్టో	-11.4706
▁సైన్సెస్	-11.4706
▁సోదరుడి	-11.4706
▁ಪೋಸ್ಟ	-11.4706
▁బౌండరీ	-11.4706
▁వెలుపల	-11.4706
న్యువల్	-11.4706
▁పర్వదిన	-11.4706
▁శృతి	-11.4706
▁రెబల్	-11.4706
▁ముగిశాయ	-11.4707
▁పుష్కర	-11.4707
▁స్ట్రైక	-11.4709
ద్రవ్యాల	-11.4709
▁కాంతి	-11.471
▁పాటిస్త	-11.4714
▁మేనేజ	-11.4724
వహించిన	-11.4743
▁వ్యతిరేకిస్త	-11.4777
▁అన్యాయ	-11.4816
▁థ్రిల్	-11.4832
ଷ	-11.4833
▁Breaking	-11.4833
▁ఆశీర్వదించ	-11.4833
▁యశ్వంత	-11.4833
▁వేంకటేశ్వర	-11.4833
▁కాలిఫోర్నియా	-11.4833
▁సుమలత	-11.4833
▁చవితి	-11.4833
▁కొట్టిపారే	-11.4833
▁స్కై	-11.4834
▁నేచుర	-11.4834
రేడియో	-11.4834
భుత్వం	-11.484
▁భూమన	-11.4841
ೊಂದ	-11.4843
▁ప్రాధాన్య	-11.4846
▁ట్లయింద	-11.485
▁చెంప	-11.4856
▁ఆంక్షల	-11.4868
ర్వాత	-11.4873
బలగం	-11.4905
▁చేశారంట	-11.4911
▁వ్యవహరి	-11.4912
ెర్రీ	-11.4914
▁నరస	-11.4925
లీవుడ్	-11.4934
▁అథ్లెట్	-11.4961
▁పాలస్తీనియన్	-11.4961
▁అధినాయకత్వ	-11.4961
▁అసభ్యకర	-11.4961
▁కాల్షియం	-11.4961
▁గడ్కరీ	-11.4961
▁గోవర్ధన్	-11.4961
▁తాడిపత్రి	-11.4961
▁పంజాగుట్ట	-11.4961
▁ప్రొఫైల	-11.4961
▁శృంగార	-11.4961
▁వైయస్సార్	-11.4961
ୂ	-11.4961
▁స్కెచ్	-11.4961
▁ఆవర్తన	-11.4961
▁చంద్రబోస్	-11.4961
▁సునామీ	-11.4961
▁దగ్ధ	-11.4961
▁పూర్వీకుల	-11.4961
▁మాతృ	-11.4961
ఎయిమ్స్	-11.4962
▁నిర్ధర	-11.4964
▁అప్పగిస్త	-11.4968
దర్భ	-11.4981
▁పుల్ల	-11.4982
▁లక్ష్యమన	-11.4988
▁రచించ	-11.4988
▁నిర్వహిస్తామన	-11.4996
▁నిర్వాహకుల	-11.4997
▁కోసమ	-11.5028
▁ంచుకున	-11.5057
▁తెలుపుత	-11.5084
்	-11.5091
▁Jagan	-11.5091
▁Read	-11.5091
▁అజెండా	-11.5091
▁ఉధృతం	-11.5091
▁ఔటయ్యా	-11.5091
▁చిత్తశుద్ధి	-11.5091
▁డెమోక్ర	-11.5091
▁తులారాశి	-11.5091
▁విజ్ఞాన	-11.5091
▁http	-11.5091
▁ధూళి	-11.5091
▁కెటిఆర్	-11.5091
▁తైవాన	-11.5091
▁గోదావరిఖని	-11.5091
▁ఎడిషన్	-11.5091
ాచార్య	-11.5091
▁సంతతి	-11.5091
ఫికేషన్	-11.5091
▁విసిరి	-11.5092
▁జన్మదిన	-11.5092
▁ఆడవాళ్ల	-11.5092
▁స్టోన్	-11.5092
ుమూల	-11.5093
▁ఎల్లప్పుడ	-11.5094
▁(22	-11.5098
▁దీవుల	-11.51
▁ఏనాడ	-11.5109
వర్గీయ	-11.5133
▁ప్రదేశ	-11.5151
▁అరెస్ట	-11.5168
▁అయిపోయింద	-11.5189
▁పోతున్నాయ	-11.5189
▁పూజిస్త	-11.5205
▁నిలుస్తుంద	-11.5208
_	-11.5222
▁కుత్బుల్లా	-11.5222
▁అసౌకర్య	-11.5222
▁సర్వదర్శన	-11.5222
▁دیکھ	-11.5222
▁ఆకర్షణీయ	-11.5222
▁నెతన్యాహు	-11.5222
▁భ్రమ	-11.5222
▁మైక్రోసాఫ్ట్	-11.5222
▁శాంపిల్	-11.5222
▁స్మగ్లింగ్	-11.5222
▁హత్యాయత్నం	-11.5222
://	-11.5222
▁బూడిద	-11.5222
▁భోపాల్	-11.5222
▁హిస్టరీ	-11.5222
▁ఎవరెవర	-11.5223
▁నిరాహార	-11.5223
▁వర్తింప	-11.5223
▁ఆగ్నేయ	-11.5223
▁లొంగిపో	-11.5223
▁అభివర్ణి	-11.5223
▁నటుడి	-11.5223
▁నిరసనకారుల	-11.5223
▁సేవలందించ	-11.5224
▁ఓటేస్త	-11.5224
▁హిజ్బ	-11.5226
▁ఇంట్ర	-11.5237
▁క్రిటిక	-11.5238
పెడుతోంది	-11.5271
▁స్క్రీన	-11.528
▁సంస్కృత	-11.528
▁అందుతుంద	-11.5317
▁వరలక్ష్మ	-11.532
▁పెట్టుకోవాల	-11.5325
పడ్డాయి	-11.5354
▁ప్రాంగణ	-11.5355
▁అంగన్వాడీ	-11.5356
▁క్షిపణుల	-11.5356
▁మృత్యు	-11.5356
▁మెటీరియల్	-11.5356
▁అంబేడ్కర్	-11.5356
▁అలంకరించ	-11.5356
▁ఎజెండా	-11.5356
▁గవాస్కర్	-11.5356
▁నిదర్శనమన	-11.5356
▁పాతబస్తీ	-11.5356
▁రాజనర్సింహ	-11.5356
▁రూపకల్పన	-11.5356
▁విషయానికొస్తే	-11.5356
▁విస్మరించ	-11.5356
▁హాస్టళ్ల	-11.5356
▁హెల్మెట్	-11.5356
☛	-11.5356
▁ఆస్వాదించ	-11.5356
▁పోషకాహార	-11.5356
▁అత్యాధున	-11.5356
▁నరసింహారావు	-11.5356
▁మంథని	-11.5356
▁జవాబు	-11.5356
▁ట్యాబ్	-11.5356
▁గ్రోత్	-11.5356
▁ముదిరాజ్	-11.5356
▁జాతకం	-11.5356
▁సమూహ	-11.5356
▁ఎరుపు	-11.5356
▁రేకెత్తి	-11.5356
▁సంస్ధ	-11.5356
▁శిరీష	-11.5357
▁గల్లీ	-11.5357
▁వలసదారుల	-11.5357
▁లేకపోలేద	-11.5357
▁బాధాకరమ	-11.5362
▁స్లిప్	-11.5362
▁స్వప్న	-11.5366
▁మిగులు	-11.5368
▁ప్రమోట	-11.537
▁మదనపల్ల	-11.5427
1500	-11.5485
q	-11.5491
आ	-11.5491
▁ఇంటర్మీడియ	-11.5491
▁2022-23	-11.5491
▁ఆధీనంలో	-11.5491
▁క్షిపణి	-11.5491
▁చార్మినార్	-11.5491
▁తాలిబాన్	-11.5491
▁పరిజ్ఞాన	-11.5491
▁పింఛను	-11.5491
▁ర్యాంకింగ్	-11.5491
▁స్మగ్లర్	-11.5491
▁ఇస్లాం	-11.5491
▁దెబ్బతీసే	-11.5491
▁మేధావుల	-11.5491
▁యోచన	-11.5491
▁విక్టరీ	-11.5491
▁థీమ్	-11.5491
▁రాకముంద	-11.5491
▁క్షమించ	-11.5491
▁పగ్గాలు	-11.5491
▁మధిర	-11.5491
▁మెగావాట్ల	-11.5491
▁మాత్రాన	-11.5492
▁ముత్యాల	-11.5492
▁పూడ్చ	-11.5493
▁గూడూర	-11.5503
▁నివసిస్త	-11.5506
▁కాపాడుకోవడ	-11.551
▁ప్రతిపాది	-11.5511
▁ర్భం	-11.5522
దగ్గ	-11.5527
▁طو	-11.5533
▁ఎల్లుండ	-11.5534
▁ప్రయత్న	-11.5539
କାର	-11.554
టెక్నిక్	-11.5556
▁ఇస్తామన్న	-11.5566
▁మరికొంత	-11.5574
▁చేపడత	-11.5575
▁డ్యామేజ	-11.5577
▁గుంతల	-11.5583
▁చూస్తుంట	-11.5587
▁ఇన్సుల	-11.5589
అప్పుడప్పుడు	-11.5614
▁అభ్యర్ధుల	-11.5628
▁కిటకిటలాడ	-11.5628
▁క్రైస్తవ	-11.5628
▁పట్నాయక్	-11.5628
▁భౌగోళిక	-11.5628
▁శేరిలింగ	-11.5628
▁సహాయపడతాయి	-11.5628
▁సెంటీమీటర్ల	-11.5628
▁సంకేతం	-11.5628
▁రిజర్వు	-11.5628
▁ఫీలింగ్	-11.5628
▁హోరెత్త	-11.5628
▁పెట్టుబడిదారుల	-11.5629
▁విండో	-11.5629
▁ప్రేమికుల	-11.5631
▁ఇరువుర	-11.5632
ాచారి	-11.5644
▁కాలేయ	-11.5654
▁ఎన్నిసార్ల	-11.5668
▁అందుతాయ	-11.5672
▁తగ్గుతుంద	-11.5704
శ్వాస	-11.5736
▁ఉండనుంద	-11.5754
▁శ్రీరాముడ	-11.5762
ଘ	-11.5767
▁అచ్చంపేట	-11.5767
▁అధిష్ఠాన	-11.5767
▁ఆచార్య	-11.5767
▁ఆయకట్టు	-11.5767
▁ఏకగ్రీవం	-11.5767
▁కుండపోత	-11.5767
▁పగలగొట్ట	-11.5767
▁పుణ్యక్షేత్ర	-11.5767
▁ప్రమాదవశాత్త	-11.5767
▁మిజోరం	-11.5767
▁లొకేషన్	-11.5767
▁నిర్వీర్య	-11.5767
▁గుమ్మడి	-11.5767
▁చేర్పించ	-11.5767
▁మియాపూర్	-11.5767
▁అలసట	-11.5767
▁పూలమాల	-11.5767
▁నిబద్ధత	-11.5767
▁రింకూ	-11.5767
డీఈవో	-11.5767
▁నమోదవుతున్నాయ	-11.577
▁అసమ్మత	-11.577
ాభిషేకం	-11.5776
▁తీస్తుంద	-11.5777
▁దళారుల	-11.5795
▁బాలాస	-11.5801
▁కరిగి	-11.5807
▁స్టేడియ	-11.583
▁దెబ్బతిన్నాయ	-11.5852
▁ఎదుర్కో	-11.5862
▁పదవీకాల	-11.5907
▁గడుపుతున్న	-11.5908
▁ಚಿತ್ರ	-11.5908
ख	-11.5908
▁ଅନୁ	-11.5908
▁అగ్రస్థానం	-11.5908
▁ఎడతెర	-11.5908
▁గోషామహ	-11.5908
▁జైశంకర్	-11.5908
▁తుర్కియే	-11.5908
▁ప్రస్థానం	-11.5908
▁సీజేఐ	-11.5908
▁మాథ్యూ	-11.5908
▁సమర్పిస్త	-11.5908
▁1994	-11.5908
▁పెరిగిపోతున్న	-11.5908
▁మారుతుందని	-11.5908
▁డ్యాం	-11.5909
▁రప్పించ	-11.5911
▁పేలుళ్ల	-11.5913
▁దిలీప	-11.5923
ఇబ్రహీంపట్నం	-11.5928
స్టాగ్	-11.5947
▁సిఎ	-11.5988
▁మారుతున్నాయ	-11.6007
▁కుప్పకూల	-11.6023
▁హనుమంతుడ	-11.6051
▁రోహిణి	-11.6051
▁వెడల్పు	-11.6051
▁వ్యత్యాస	-11.6051
▁స్పెషలిస్ట	-11.6051
▁జోసెఫ్	-11.6051
▁జీడీపీ	-11.6051
▁సంపాదిస్త	-11.6051
▁1989	-11.6051
▁లభ్యమ	-11.6051
▁దొంగిలించ	-11.6051
▁ప్రాచీ	-11.6051
▁కష్టపడ్డ	-11.6051
▁పద్దతి	-11.6051
▁స్వస్థల	-11.6051
▁ಡಿ	-11.6051
▁నిఫ్టీ	-11.6051
▁తిథి	-11.6051
▁కన్నీరు	-11.6051
క్విటీ	-11.6051
▁ఉన్నవాళ్ల	-11.6063
పారిశ్రామికవేత్త	-11.6064
▁బస్తాల	-11.6064
▁ప్రయాణిస్త	-11.6068
▁కిటికీల	-11.6099
▁జోలిక	-11.61
▁వాలంటీర్	-11.6118
బోమన	-11.6131
హెబ్	-11.6147
▁చర్చించనున్నార	-11.6155
▁బ్యారేజ	-11.6177
▁వదిలేశార	-11.6177
▁ఓడిపోయార	-11.6192
▁ిస్తామ	-11.6193
ೆವು	-11.6195
▁అరంగేట్రం	-11.6195
▁ఇండోనేషియా	-11.6195
▁క్వాలిఫై	-11.6195
▁డిస్ట్రిక్	-11.6195
▁తిరువనంతపురం	-11.6195
▁రిజ్వాన్	-11.6195
▁లైబ్రరీ	-11.6195
▁స్పెషాలిటీ	-11.6195
▁కీలకపాత్ర	-11.6195
▁శబ్దాల	-11.6195
▁ఖజానా	-11.6195
▁వృక్ష	-11.6195
▁స్కాలర్	-11.6195
▁నిమ్మకాయ	-11.6195
▁నివాళి	-11.6196
▁మెషిన్	-11.6196
▁ఇన్ఫో	-11.6196
▁ಟಿ	-11.6196
▁అమూల్	-11.6196
▁కుదుర్చుకున్న	-11.6197
▁మూడింట	-11.6199
▁చీల్చ	-11.6199
అఖండ	-11.62
స్ట్రక్చర	-11.6203
▁అప్పటివరక	-11.6208
▁చేరుతుంద	-11.6234
▁తీసుకోనున్న	-11.6254
ఫ్రెష	-11.6264
▁కనిపిస్తోంద	-11.6273
▁ఉంటామ	-11.6279
ెహ్రా	-11.6297
▁పాండ్య	-11.6298
ఎత్తున	-11.6325
ఏప్రిల్	-11.6325
వ్యవస్థ	-11.6325
▁తీసుకుంటోంద	-11.6329
ध	-11.6342
ಮ್ಮ	-11.6342
▁జగ్గారెడ్డి	-11.6342
▁జీలకర్ర	-11.6342
▁తృణమూల్	-11.6342
▁దుష్ప్రచార	-11.6342
▁ఫిరాయింపుల	-11.6342
▁బిష్ణోయ	-11.6342
▁బోమ్మయ్	-11.6342
▁వెతుకుతున్న	-11.6342
▁వెరైటీ	-11.6342
▁ವರದಿ	-11.6342
▁గుర్తుచేసుకు	-11.6343
▁చట్టసభ	-11.6343
▁టమోటా	-11.6343
▁మిస్సింగ్	-11.6343
▁కంటిన్యూ	-11.6343
▁ద్విచ	-11.6343
▁వెతుక్	-11.6343
▁అర్థమవుతుంద	-11.6343
▁దీపికా	-11.6343
▁సిద్దమయ్య	-11.6344
▁బహుజన	-11.6344
▁కోల్పోతున్న	-11.6344
▁రద్దయి	-11.6352
▁కత్తుల	-11.6378
▁తాగుత	-11.6387
▁లేనప్పుడ	-11.641
▁లక్ష్మణ	-11.6416
▁డిజైన	-11.6416
▁కొందర	-11.6461
ముద్ర	-11.6469
▁పరిష్కరి	-11.6486
డ్జెట్	-11.6488
Pawan	-11.6492
▁సత్కరించ	-11.6492
Andhra	-11.6492
ୱ	-11.6492
▁అన్నదమ్ముల	-11.6492
▁నష్టపరిహారం	-11.6492
▁భోళా	-11.6492
▁రిక్వెస్ట్	-11.6492
▁సమృద్ధి	-11.6492
▁సౌమ్య	-11.6492
▁హరియాణా	-11.6492
▁ಶೀರ್ಷಿಕೆಯ	-11.6492
BJP	-11.6492
▁ఐపీఓ	-11.6492
▁నోయిడా	-11.6492
▁రవిచంద్ర	-11.6492
▁ఇన్ఫర్మే	-11.6492
▁షరీఫ్	-11.6492
▁నార్సింగ	-11.6492
▁రేసింగ్	-11.6492
▁శీతల	-11.6492
▁షూటర్	-11.6492
▁సమర్ధ	-11.6493
▁కుటుంబీకుల	-11.6493
▁యంత్రాల	-11.6494
▁చేద్దామ	-11.6494
▁పెట్టుకోవడ	-11.6516
▁ఉపయోగపడతాయ	-11.6519
▁సందర్శకుల	-11.6553
▁చూస్తున్నార	-11.6613
ୌ	-11.6797
ଠ	-11.7112
ʼ	-11.7437
ଏ	-11.7607
ಒ	-11.7773
;	-11.7955
फ	-11.8482
ؤ	-11.8856
थ	-11.8856
=	-11.9048
଼	-11.9048
ث	-11.9444
୧	-12.0069
ଓ	-12.0287
ക	-12.0509
ୃ	-12.0736
।	-12.0802
इ	-12.1207
ி	-12.1701
ി	-12.1957
ಎ	-12.2053
ई	-12.249
ै	-12.2768
ष	-12.2768
୨	-12.3348
த	-12.3651
⁪	-12.3964
]	-12.3964
­	-12.3964
ಘ	-12.4286
ఋ	-12.4286
ಐ	-12.4286
ೌ	-12.4619
उ	-12.4619
க	-12.4964
ِ	-12.5321
ण	-12.5321
୦	-12.5321
ப	-12.5321
ന	-12.5321
°	-12.5692
୪	-12.5692
യ	-12.6476
া	-12.6476
छ	-12.7328
ു	-12.7328
ம	-12.7328
ಠ	-12.7328
ு	-12.7328
ओ	-12.7782
പ	-12.7782
ட	-12.7782
ാ	-12.8259
$	-12.8259
ি	-12.8259
ठ	-12.8759
ఱ	-12.8759
౦	-12.8759
#	-12.9118
ട	-12.984
ଵ	-12.984
୫	-12.984
র	-13.0429
্	-13.1054
ୈ	-13.172
ক	-13.172
ர	-13.172
வ	-13.172
‐	-13.172
୩	-13.172
ல	-13.172
୮	-13.2435
ற	-13.2435
ଅ	-13.3037
ள	-13.3204
ா	-13.3204
ല	-13.3204
झ	-13.3204
െ	-13.3204
୬	-13.3204
വ	-13.3204
ব	-13.4037
●	-13.4037
ढ	-13.4037
ണ	-13.4037
*	-13.478
ম	-13.4946
ন	-13.4946
୭	-13.4946
َ	-13.4946
୯	-13.4946
ഷ	-13.4946
⁠	-13.4946
ে	-13.5946
ଢ	-13.5946
ي	-13.5946
ॉ	-13.5946
ോ	-13.5946
ু	-13.7057
ল	-13.7057
ச	-13.7057
റ	-13.7057
ত	-13.8307
മ	-13.8307
ৰ	-13.8307
ந	-13.8307
ര	-13.8307
സ	-13.8307
ौ	-13.8307
॥	-13.8307
ன	-13.8307
‒	-13.8307
ژ	-13.8307
ە	-13.8307
ை	-13.8307
ृ	-13.8307
ெ	-13.9736
ো	-13.9736
য	-13.9736
ء	-13.9736
ൽ	-13.9736
′	-13.9736
◉	-13.9736
♦	-13.9736
ഡ	-13.9736
ർ	-14.1403
স	-14.1403
ಢ	-14.1403
★	-14.1403
ಇ	-14.3235
🚩	-14.3403
😂	-14.3403
়	-14.3403
ொ	-14.5903
ّ	-14.5903
\	-14.5903
ه	-14.5903
ও	-14.5903
ধ	-14.5903
౩	-14.5903
ം	-14.5903
ൂ	-14.5903
ൾ	-14.5903
ൗ	-14.5903
দ	-14.9236
ீ	-14.9236
ড	-14.9236
হ	-14.9236
~	-14.9236
·	-14.9236
×	-14.9236
ُ	-14.9236
ऊ	-14.9236
०	-14.9236
ট	-14.9236
ফ	-14.9236
ଈ	-14.9236
ಃ	-14.9236
⃣	-14.9236
⦁	-14.9236
️	-14.9236
💪	-14.9236
🔥	-14.9236
ư	-14.9236
ଃ	-14.9236
🙏	-14.9236
ಅ	-15.4072
গ	-15.4236
ൊ	-15.4236
२	-15.4236
ভ	-15.4236
ৱ	-15.4236
ஜ	-15.4236
౹	-15.4236
💚	-15.4236
ఁ	-15.4236
â	-15.4236
ơ	-15.4236
أ	-15.4236
ً	-15.4236
ڕ	-15.4236
ः	-15.4236
চ	-15.4236
ী	-15.4236
ூ	-15.4236
ಔ	-15.4236
ഈ	-15.4236
ൻ	-15.4236
ố	-15.4236
⁫	-15.4236
⁯	-15.4236
◆	-15.4236
👌	-15.4236
😡	-15.4236
শ	-15.4236
ഭ	-15.4236
ശ	-15.4236
േ	-15.4236
👉	-16.4171
ൃ	-16.4172
౧	-16.4173
ஏ	-16.4174
অ	-16.4175
⁄	-16.4176
ಝ	-16.4177
ౖ	-16.4178
ண	-16.4179
ऑ	-16.418
ँ	-16.4181
ധ	-16.4182
എ	-16.4183
ங	-16.4184
அ	-16.4185
এ	-16.4186
ञ	-16.4187
đ	-16.4188
ീ	-16.4189
ோ	-16.419
எ	-16.4191
🇳	-16.4192
❌	-16.4193
ള	-16.4194
ജ	-16.4195
ಛ	-16.4196
জ	-16.4197
🇮	-16.4198
ങ	-16.4199
প	-16.42
►	-16.4201
അ	-16.4202
ய	-16.4203
؟	-16.4204
ऐ	-16.4205
ച	-16.4206
ಞ	-16.4207
ଝ	-16.4208
ಊ	-16.4209
ത	-16.421
घ	-16.4211
ಓ	-16.4212
‪	-16.4213
ಏ	-16.4214
ఙ	-16.4215
[	-16.4216
•	-16.4217
₹	-16.4218
ଞ	-16.4219
औ	-16.422
़	-16.4221
अ	-16.4222
ಈ	-16.4223
ಫ	-16.4224
ಖ	-16.4225
ଙ	-16.4226
ଯ	-16.4227
آ	-16.4228
ಆ	-16.4229
ಶ	-16.423
ఔ	-16.4231
ھ	-16.4232
ئ	-16.4233
ఞ	-16.4234
ఊ	-16.4235
ബ	-16.4236
ৈ	-16.4236
ഒ	-16.4236
ൈ	-16.4236
🇪	-16.4236
<	-16.4236
£	-16.4236
©	-16.4236
Á	-16.4236
æ	-16.4236
́	-16.4236
α	-16.4236
β	-16.4236
؛	-16.4236
إ	-16.4236
ى	-16.4236
ۆ	-16.4236
ێ	-16.4236
४	-16.4236
ঃ	-16.4236
আ	-16.4236
இ	-16.4236
ஊ	-16.4236
ஸ	-16.4236
ே	-16.4236
ఽ	-16.4236
ౄ	-16.4236
౪	-16.4236
౬	-16.4236
ആ	-16.4236
ഇ	-16.4236
ഗ	-16.4236
ദ	-16.4236
ഴ	-16.4236
ầ	-16.4236
ậ	-16.4236
ệ	-16.4236
ớ	-16.4236
ờ	-16.4236
ở	-16.4236
ợ	-16.4236
ứ	-16.4236
‫	-16.4236
‬	-16.4236
€	-16.4236
∙	-16.4236
≠	-16.4236
▪	-16.4236
♥	-16.4236
✳	-16.4236
➡	-16.4236
🇬	-16.4236
🌹	-16.4236
🏼	-16.4236
👇	-16.4236
👊	-16.4236
👋	-16.4236
💐	-16.4236
💥	-16.4236
🔴	-16.4236
🔸	-16.4236
🔹	-16.4236
😉	-16.4236
😊	-16.4236
😜	-16.4236
😞	-16.4236
😠	-16.4236
😥	-16.4236
🙂	-16.4236
🤜	-16.4236
ả	-16.4236
ڵ	-16.4236
(	-16.4236
ஆ	-16.4236
உ	-16.4236
